{"\n":0," ":1,"!":2,"\"":3,"#":4,"$":5,"%":6,"&":7,"'":8,"(":9,")":10,"*":11,"+":12,",":13,"-":14,".":15,"/":16,"0":17,"1":18,"2":19,"3":20,"4":21,"5":22,"6":23,"7":24,"8":25,"9":26,":":27,";":28,"<":29,"=":30,">":31,"?":32,"@":33,"A":34,"B":35,"C":36,"D":37,"E":38,"F":39,"G":40,"H":41,"I":42,"J":43,"K":44,"L":45,"M":46,"N":47,"O":48,"P":49,"Q":50,"R":51,"S":52,"T":53,"U":54,"V":55,"W":56,"X":57,"Y":58,"Z":59,"[":60,"\\":61,"]":62,"^":63,"_":64,"a":65,"b":66,"c":67,"d":68,"e":69,"f":70,"g":71,"h":72,"i":73,"j":74,"k":75,"l":76,"m":77,"n":78,"o":79,"p":80,"q":81,"r":82,"s":83,"t":84,"u":85,"v":86,"w":87,"x":88,"y":89,"z":90,"{":91,"}":92,"~":93,"¡":94,"¢":95,"£":96,"¤":97,"¥":98,"¦":99,"§":100,"©":101,"¬":102,"®":103,"°":104,"±":105,"¶":106,"·":107,"¿":108,"À":109,"Á":110,"Â":111,"Ã":112,"Å":113,"Æ":114,"Ç":115,"È":116,"É":117,"Ê":118,"Ë":119,"Ì":120,"Í":121,"Î":122,"Ï":123,"Ð":124,"Ò":125,"Ó":126,"Õ":127,"Ö":128,"×":129,"Ø":130,"Ú":131,"Û":132,"Ü":133,"Þ":134,"ß":135,"à":136,"á":137,"â":138,"ã":139,"ä":140,"å":141,"æ":142,"ç":143,"è":144,"é":145,"ê":146,"ë":147,"ì":148,"í":149,"î":150,"ï":151,"ð":152,"ñ":153,"ò":154,"ó":155,"ô":156,"õ":157,"ö":158,"÷":159,"ø":160,"ù":161,"ú":162,"û":163,"ü":164,"ý":165,"þ":166,"ÿ":167,"Ā":168,"ā":169,"ă":170,"ą":171,"ć":172,"ĉ":173,"Ċ":174,"č":175,"ē":176,"ĕ":177,"ė":178,"Ę":179,"ę":180,"ě":181,"ğ":182,"Ī":183,"ī":184,"į":185,"İ":186,"ı":187,"Ķ":188,"ł":189,"ń":190,"ŋ":191,"Ō":192,"ō":193,"Ŏ":194,"ŏ":195,"Œ":196,"œ":197,"ř":198,"Ś":199,"ś":200,"Ş":201,"ş":202,"Š":203,"š":204,"ť":205,"ū":206,"Ů":207,"ų":208,"Ÿ":209,"Ż":210,"ż":211,"Ž":212,"ž":213,"ƒ":214,"ư":215,"ǀ":216,"ǁ":217,"Ǒ":218,"ǒ":219,"ǔ":220,"ȧ":221,"Ȩ":222,"ȯ":223,"ɑ":224,"ɒ":225,"ɔ":226,"ə":227,"ɛ":228,"ɜ":229,"ɡ":230,"ɪ":231,"ʁ":232,"ʃ":233,"ʈ":234,"ʉ":235,"ʊ":236,"ʋ":237,"ʌ":238,"ʏ":239,"ʒ":240,"ʟ":241,"ʻ":242,"ʼ":243,"ʿ":244,"ˆ":245,"ˈ":246,"ˌ":247,"ˎ":248,"ː":249,"ˑ":250,"́":251,"̃":252,"̄":253,"̆":254,"̇":255,"̈":256,"̊":257,"̍":258,"̐":259,"̕":260,"̖":261,"̠":262,"̣":263,"̥":264,"̧":265,"̪":266,"̶":267,"Ά":268,"Δ":269,"Ι":270,"Κ":271,"Μ":272,"Ο":273,"Σ":274,"Φ":275,"Ψ":276,"Ω":277,"ά":278,"ή":279,"α":280,"β":281,"δ":282,"ε":283,"ζ":284,"η":285,"θ":286,"ι":287,"κ":288,"μ":289,"ν":290,"ο":291,"π":292,"ρ":293,"ς":294,"σ":295,"τ":296,"φ":297,"χ":298,"ω":299,"ό":300,"І":301,"Ј":302,"А":303,"Б":304,"В":305,"Д":306,"Е":307,"З":308,"И":309,"Й":310,"К":311,"Л":312,"М":313,"Н":314,"О":315,"П":316,"Р":317,"С":318,"Т":319,"У":320,"Ф":321,"Х":322,"Ц":323,"Ч":324,"Э":325,"Ю":326,"Я":327,"а":328,"б":329,"в":330,"г":331,"д":332,"е":333,"ж":334,"з":335,"и":336,"й":337,"к":338,"л":339,"м":340,"н":341,"о":342,"п":343,"р":344,"с":345,"т":346,"у":347,"ф":348,"х":349,"ц":350,"ч":351,"ш":352,"щ":353,"ы":354,"ь":355,"э":356,"ю":357,"я":358,"ё":359,"є":360,"і":361,"ї":362,"ј":363,"ў":364,"ҫ":365,"ү":366,"ә":367,"Ө":368,"Ե":369,"Կ":370,"Հ":371,"ա":372,"ե":373,"ն":374,"ր":375,"ւ":376,"ַ":377,"א":378,"ב":379,"ג":380,"ד":381,"ה":382,"ו":383,"ט":384,"י":385,"כ":386,"ל":387,"ם":388,"מ":389,"ן":390,"נ":391,"ס":392,"ע":393,"ף":394,"פ":395,"צ":396,"ק":397,"ר":398,"ש":399,"ת":400,"ײ":401,"؞":402,"ء":403,"آ":404,"أ":405,"إ":406,"ئ":407,"ا":408,"ب":409,"ة":410,"ت":411,"ج":412,"ح":413,"خ":414,"د":415,"ذ":416,"ر":417,"ز":418,"س":419,"ش":420,"ص":421,"ط":422,"ع":423,"غ":424,"ف":425,"ق":426,"ك":427,"ل":428,"م":429,"ن":430,"ه":431,"و":432,"ى":433,"ي":434,"ً":435,"ُ":436,"ِ":437,"٫":438,"٬":439,"ٰ":440,"ٹ":441,"ټ":442,"پ":443,"چ":444,"ڌ":445,"ک":446,"ڪ":447,"گ":448,"ں":449,"ڼ":450,"ھ":451,"ہ":452,"ۂ":453,"ۆ":454,"ۇ":455,"ی":456,"۔":457,"ە":458,"ܐ":459,"ܒ":460,"ܕ":461,"ܘ":462,"ܚ":463,"ܛ":464,"ܟ":465,"ܠ":466,"ܣ":467,"ܦ":468,"ܪ":469,"ܬ":470,"ँ":471,"ं":472,"ः":473,"ऄ":474,"अ":475,"आ":476,"इ":477,"ई":478,"उ":479,"ऊ":480,"ऋ":481,"ऌ":482,"ऍ":483,"ऎ":484,"ए":485,"ऐ":486,"ऑ":487,"ऒ":488,"ओ":489,"औ":490,"क":491,"ख":492,"ग":493,"घ":494,"ङ":495,"च":496,"छ":497,"ज":498,"झ":499,"ञ":500,"ट":501,"ठ":502,"ड":503,"ढ":504,"ण":505,"त":506,"थ":507,"द":508,"ध":509,"न":510,"ऩ":511,"प":512,"फ":513,"ब":514,"भ":515,"म":516,"य":517,"र":518,"ऱ":519,"ल":520,"ळ":521,"ऴ":522,"व":523,"श":524,"ष":525,"स":526,"ह":527,"ऺ":528,"ऻ":529,"़":530,"ऽ":531,"ा":532,"ि":533,"ी":534,"ु":535,"ू":536,"ृ":537,"ॄ":538,"ॅ":539,"ॆ":540,"े":541,"ै":542,"ॉ":543,"ॊ":544,"ो":545,"ौ":546,"्":547,"ॐ":548,"॑":549,"॒":550,"॓":551,"॔":552,"ॠ":553,"ॡ":554,"ॢ":555,"।":556,"॥":557,"०":558,"१":559,"२":560,"३":561,"४":562,"५":563,"६":564,"७":565,"८":566,"९":567,"॰":568,"ॱ":569,"ॵ":570,"ॺ":571,"ॼ":572,"ॾ":573,"ॿ":574,"ং":575,"আ":576,"ই":577,"উ":578,"এ":579,"ক":580,"খ":581,"গ":582,"ঘ":583,"চ":584,"ছ":585,"জ":586,"ট":587,"ঠ":588,"ড":589,"ঢ":590,"ণ":591,"ত":592,"থ":593,"দ":594,"ধ":595,"ন":596,"প":597,"ব":598,"ম":599,"য":600,"র":601,"ল":602,"ষ":603,"স":604,"হ":605,"়":606,"া":607,"ি":608,"ী":609,"ু":610,"ৃ":611,"ে":612,"ো":613,"্":614,"০":615,"৩":616,"৭":617,"ৰ":618,"ৱ":619,"৷":620,"ਂ":621,"ਅ":622,"ਇ":623,"ਊ":624,"ਏ":625,"ਕ":626,"ਖ":627,"ਗ":628,"ਜ":629,"ਟ":630,"ਡ":631,"ਣ":632,"ਤ":633,"ਦ":634,"ਨ":635,"ਪ":636,"ਬ":637,"ਮ":638,"ਰ":639,"ਲ":640,"ਸ":641,"਼":642,"ਾ":643,"ਿ":644,"ੀ":645,"ੁ":646,"ੂ":647,"ੇ":648,"ੋ":649,"੍":650,"ੰ":651,"ੱ":652,"ં":653,"ઃ":654,"અ":655,"આ":656,"ઈ":657,"ઉ":658,"એ":659,"ઓ":660,"ક":661,"ખ":662,"ગ":663,"ચ":664,"છ":665,"જ":666,"ઝ":667,"ઞ":668,"ટ":669,"ઠ":670,"ડ":671,"ણ":672,"ત":673,"થ":674,"દ":675,"ધ":676,"ન":677,"પ":678,"ફ":679,"બ":680,"ભ":681,"મ":682,"ય":683,"ર":684,"લ":685,"ળ":686,"વ":687,"શ":688,"ષ":689,"સ":690,"હ":691,"઼":692,"ા":693,"િ":694,"ી":695,"ુ":696,"ૂ":697,"ૃ":698,"ે":699,"ો":700,"્":701,"ૐ":702,"ૠ":703,"૦":704,"૧":705,"૨":706,"૩":707,"૪":708,"૫":709,"૬":710,"૭":711,"૮":712,"૯":713,"ଃ":714,"ଆ":715,"ଓ":716,"କ":717,"ଖ":718,"ଡ":719,"ତ":720,"ପ":721,"ଭ":722,"ର":723,"ଲ":724,"଼":725,"ା":726,"ି":727,"େ":728,"୍":729,"ୟ":730,"அ":731,"ஆ":732,"இ":733,"உ":734,"எ":735,"ஐ":736,"க":737,"ச":738,"ஜ":739,"ட":740,"ண":741,"த":742,"ந":743,"ன":744,"ப":745,"ம":746,"ய":747,"ர":748,"ற":749,"ல":750,"ள":751,"ழ":752,"வ":753,"ஶ":754,"ஷ":755,"ஸ":756,"ஹ":757,"ா":758,"ி":759,"ீ":760,"ு":761,"ூ":762,"ெ":763,"ே":764,"ை":765,"ொ":766,"ோ":767,"்":768,"ం":769,"అ":770,"ఉ":771,"ఎ":772,"ఓ":773,"క":774,"చ":775,"జ":776,"డ":777,"త":778,"ద":779,"ధ":780,"న":781,"ప":782,"ఫ":783,"భ":784,"మ":785,"య":786,"ర":787,"ల":788,"వ":789,"శ":790,"ష":791,"స":792,"హ":793,"ా":794,"ి":795,"ు":796,"ె":797,"ే":798,"ై":799,"ో":800,"్":801,"ಂ":802,"ಃ":803,"ಅ":804,"ಇ":805,"ಉ":806,"ಎ":807,"ಕ":808,"ಗ":809,"ಚ":810,"ಜ":811,"ಟ":812,"ಠ":813,"ಡ":814,"ತ":815,"ದ":816,"ನ":817,"ಪ":818,"ಬ":819,"ಭ":820,"ಮ":821,"ಯ":822,"ರ":823,"ಲ":824,"ಳ":825,"ವ":826,"ಶ":827,"ಸ":828,"ಹ":829,"ಾ":830,"ಿ":831,"ೀ":832,"ು":833,"ೂ":834,"ೃ":835,"ೆ":836,"ೇ":837,"ೊ":838,"ೋ":839,"್":840,"೦":841,"೧":842,"೨":843,"೩":844,"೪":845,"ೲ":846,"ം":847,"അ":848,"ആ":849,"ഇ":850,"ഈ":851,"ഉ":852,"എ":853,"ക":854,"ഖ":855,"ഗ":856,"ങ":857,"ച":858,"ഛ":859,"ജ":860,"ഞ":861,"ട":862,"ഠ":863,"ണ":864,"ത":865,"ഥ":866,"ദ":867,"ധ":868,"ന":869,"പ":870,"ബ":871,"ഭ":872,"മ":873,"യ":874,"ര":875,"റ":876,"ല":877,"ള":878,"ഴ":879,"വ":880,"ശ":881,"ഷ":882,"സ":883,"ഹ":884,"ാ":885,"ി":886,"ീ":887,"ു":888,"ൂ":889,"ൃ":890,"െ":891,"േ":892,"ൈ":893,"ൊ":894,"ോ":895,"്":896,"ൻ":897,"ർ":898,"ൽ":899,"ൾ":900,"ක":901,"ග":902,"ත":903,"ද":904,"න":905,"ප":906,"ම":907,"ය":908,"ල":909,"ව":910,"ශ":911,"ස":912,"්":913,"ා":914,"ි":915,"ො":916,"ค":917,"ง":918,"ด":919,"ต":920,"น":921,"บ":922,"พ":923,"ฟ":924,"ม":925,"ร":926,"ห":927,"อ":928,"ฮ":929,"ั":930,"า":931,"ิ":932,"ี":933,"เ":934,"โ":935,"่":936,"้":937,"་":938,"།":939,"༔":940,"༡":941,"༣":942,"༨":943,"ཁ":944,"ག":945,"ང":946,"ཊ":947,"ཐ":948,"ན":949,"པ":950,"བ":951,"མ":952,"ཚ":953,"ཝ":954,"ཟ":955,"ཡ":956,"ལ":957,"ཥ":958,"ས":959,"ཧ":960,"ཱ":961,"ི":962,"ུ":963,"ྀ":964,"ྒ":965,"ྥ":966,"ྨ":967,"ྭ":968,"ྱ":969,"ྲ":970,"ླ":971,"၊":972,"ა":973,"გ":974,"დ":975,"ე":976,"ვ":977,"ზ":978,"თ":979,"ი":980,"ლ":981,"ნ":982,"რ":983,"ს":984,"უ":985,"ც":986,"ᄉ":987,"ᄌ":988,"ᅩ":989,"ᆬ":990,"ሉ":991,"ሕ":992,"ሩ":993,"በ":994,"ብ":995,"ቮ":996,"እ":997,"ኳ":998,"ዝ":999,"ገ":1000,"ጻ":1001,"ፂ":1002,"ፃ":1003,"፪":1004,"ᒃ":1005,"ᒄ":1006,"ᒎ":1007,"ᓚ":1008,"ᗢ":1009,"ᘏ":1010,"ᚨ":1011,"ᚩ":1012,"ᚻ":1013,"ᚾ":1014,"ᛁ":1015,"ᛋ":1016,"ᛏ":1017,"ᛖ":1018,"ᛗ":1019,"ᛚ":1020,"ᛞ":1021,"᛫":1022,"ᭅ":1023,"᭠":1024,"᭭":1025,"ᮩ":1026,"᮰":1027,"ᱧ":1028,"Ჱ":1029,"᳒":1030,"᳖":1031,"᳘":1032,"᳚":1033,"ᳪ":1034,"ᳬ":1035,"᳭":1036,"ᳲ":1037,"ᴀ":1038,"ᴇ":1039,"ḍ":1040,"ḏ":1041,"ḥ":1042,"Ḩ":1043,"ṁ":1044,"ṃ":1045,"ṅ":1046,"ṇ":1047,"Ṛ":1048,"ṛ":1049,"ṝ":1050,"ṣ":1051,"ṭ":1052,"ắ":1053,"ế":1054,"ệ":1055,"Ủ":1056,"Ἀ":1057,"ὁ":1058,"ὕ":1059,"ὸ":1060,"ῖ":1061,"‐":1062,"‒":1063,"―":1064,"‖":1065,"†":1066,"‡":1067,"•":1068," ":1069,"‰":1070,"′":1071,"‹":1072,"›":1073,"※":1074,"⁄":1075,"₩":1076,"€":1077,"₹":1078,"⃣":1079,"←":1080,"↑":1081,"→":1082,"↓":1083,"↔":1084,"↕":1085,"↗":1086,"↩":1087,"↲":1088,"⇄":1089,"⇏":1090,"⇒":1091,"⇔":1092,"∅":1093,"∆":1094,"∈":1095,"−":1096,"∕":1097,"∖":1098,"∙":1099,"√":1100,"∝":1101,"∠":1102,"∩":1103,"∫":1104,"∴":1105,"∵":1106,"≈":1107,"≍":1108,"≠":1109,"≡":1110,"≤":1111,"≥":1112,"≦":1113,"⊂":1114,"⊃":1115,"⊕":1116,"⋆":1117,"⋙":1118,"⏳":1119,"▀":1120,"▁":1121,"■":1122,"□":1123,"▪":1124,"▲":1125,"△":1126,"▶":1127,"▷":1128,"►":1129,"▼":1130,"◄":1131,"◆":1132,"◇":1133,"◉":1134,"◊":1135,"◌":1136,"◎":1137,"●":1138,"◦":1139,"☀":1140,"☁":1141,"★":1142,"☆":1143,"☑":1144,"☘":1145,"☝":1146,"☰":1147,"☸":1148,"☹":1149,"☺":1150,"♀":1151,"♂":1152,"♈":1153,"♉":1154,"♡":1155,"♣":1156,"♥":1157,"♦":1158,"♫":1159,"♻":1160,"⚏":1161,"⚕":1162,"⚡":1163,"⚪":1164,"⚫":1165,"⛅":1166,"⛈":1167,"⛳":1168,"⛹":1169,"✅":1170,"✌":1171,"✍":1172,"✒":1173,"✓":1174,"✔":1175,"✖":1176,"✥":1177,"✦":1178,"✧":1179,"✨":1180,"✪":1181,"✳":1182,"✴":1183,"✹":1184,"✺":1185,"✼":1186,"✿":1187,"❁":1188,"❇":1189,"❌":1190,"❍":1191,"❑":1192,"❗":1193,"❣":1194,"❤":1195,"❯":1196,"➖":1197,"➛":1198,"➜":1199,"➞":1200,"➡":1201,"➢":1202,"➤":1203,"➥":1204,"➦":1205,"➧":1206,"➨":1207,"⟶":1208,"⟷":1209,"⠀":1210,"⦁":1211,"⭐":1212,"⭕":1213,"、":1214,"。":1215,"〈":1216,"《":1217,"》":1218,"「":1219,"」":1220,"【":1221,"】":1222,"あ":1223,"い":1224,"う":1225,"お":1226,"か":1227,"が":1228,"き":1229,"く":1230,"け":1231,"げ":1232,"ご":1233,"さ":1234,"ざ":1235,"し":1236,"す":1237,"た":1238,"だ":1239,"ち":1240,"っ":1241,"つ":1242,"て":1243,"で":1244,"と":1245,"ど":1246,"な":1247,"に":1248,"の":1249,"は":1250,"ひ":1251,"ま":1252,"み":1253,"む":1254,"め":1255,"も":1256,"ゃ":1257,"や":1258,"よ":1259,"ら":1260,"る":1261,"れ":1262,"を":1263,"ん":1264,"ア":1265,"ィ":1266,"イ":1267,"エ":1268,"オ":1269,"ク":1270,"グ":1271,"コ":1272,"シ":1273,"ジ":1274,"ス":1275,"ズ":1276,"セ":1277,"ゼ":1278,"ソ":1279,"タ":1280,"チ":1281,"ッ":1282,"ツ":1283,"テ":1284,"デ":1285,"ト":1286,"ナ":1287,"ネ":1288,"ノ":1289,"バ":1290,"パ":1291,"ヒ":1292,"ピ":1293,"プ":1294,"ボ":1295,"ポ":1296,"マ":1297,"ャ":1298,"ョ":1299,"ラ":1300,"リ":1301,"ル":1302,"ロ":1303,"ン":1304,"・":1305,"ー":1306,"一":1307,"七":1308,"三":1309,"上":1310,"不":1311,"与":1312,"世":1313,"中":1314,"为":1315,"义":1316,"习":1317,"乱":1318,"了":1319,"事":1320,"二":1321,"于":1322,"互":1323,"五":1324,"亦":1325,"京":1326,"亲":1327,"人":1328,"介":1329,"从":1330,"仕":1331,"代":1332,"份":1333,"休":1334,"伟":1335,"位":1336,"何":1337,"余":1338,"作":1339,"你":1340,"使":1341,"依":1342,"修":1343,"個":1344,"倒":1345,"健":1346,"僕":1347,"元":1348,"入":1349,"全":1350,"八":1351,"六":1352,"其":1353,"具":1354,"円":1355,"册":1356,"决":1357,"出":1358,"切":1359,"划":1360,"列":1361,"利":1362,"别":1363,"到":1364,"副":1365,"加":1366,"助":1367,"化":1368,"北":1369,"十":1370,"卍":1371,"卐":1372,"南":1373,"印":1374,"叉":1375,"反":1376,"发":1377,"口":1378,"句":1379,"可":1380,"各":1381,"合":1382,"同":1383,"名":1384,"后":1385,"吗":1386,"吥":1387,"吸":1388,"告":1389,"员":1390,"和":1391,"咒":1392,"哉":1393,"哥":1394,"哲":1395,"哷":1396,"唯":1397,"喝":1398,"嘅":1399,"器":1400,"四":1401,"因":1402,"図":1403,"固":1404,"国":1405,"國":1406,"地":1407,"域":1408,"堂":1409,"報":1410,"境":1411,"增":1412,"声":1413,"处":1414,"复":1415,"外":1416,"多":1417,"夜":1418,"夢":1419,"大":1420,"天":1421,"奖":1422,"奪":1423,"好":1424,"如":1425,"威":1426,"婆":1427,"孕":1428,"字":1429,"存":1430,"学":1431,"安":1432,"官":1433,"定":1434,"宦":1435,"寝":1436,"尊":1437,"小":1438,"少":1439,"尔":1440,"尼":1441,"属":1442,"岂":1443,"工":1444,"师":1445,"席":1446,"常":1447,"年":1448,"广":1449,"应":1450,"废":1451,"度":1452,"康":1453,"廬":1454,"异":1455,"引":1456,"弥":1457,"当":1458,"影":1459,"彼":1460,"得":1461,"徹":1462,"忘":1463,"念":1464,"性":1465,"惑":1466,"意":1467,"愛":1468,"感":1469,"憶":1470,"成":1471,"我":1472,"戻":1473,"所":1474,"执":1475,"投":1476,"摩":1477,"收":1478,"改":1479,"政":1480,"故":1481,"效":1482,"整":1483,"文":1484,"新":1485,"方":1486,"无":1487,"日":1488,"时":1489,"星":1490,"是":1491,"显":1492,"普":1493,"晴":1494,"更":1495,"書":1496,"最":1497,"月":1498,"有":1499,"朝":1500,"期":1501,"杂":1502,"東":1503,"果":1504,"某":1505,"染":1506,"查":1507,"栄":1508,"格":1509,"械":1510,"梵":1511,"检":1512,"模":1513,"権":1514,"機":1515,"款":1516,"止":1517,"此":1518,"母":1519,"比":1520,"民":1521,"氣":1522,"永":1523,"求":1524,"汇":1525,"没":1526,"泊":1527,"流":1528,"消":1529,"添":1530,"灭":1531,"然":1532,"熟":1533,"父":1534,"牙":1535,"猫":1536,"现":1537,"班":1538,"球":1539,"理":1540,"生":1541,"用":1542,"由":1543,"疆":1544,"痛":1545,"発":1546,"發":1547,"白":1548,"的":1549,"益":1550,"直":1551,"相":1552,"知":1553,"研":1554,"破":1555,"祖":1556,"离":1557,"秘":1558,"程":1559,"稱":1560,"究":1561,"立":1562,"章":1563,"第":1564,"答":1565,"简":1566,"类":1567,"紅":1568,"素":1569,"終":1570,"続":1571,"網":1572,"繁":1573,"维":1574,"者":1575,"而":1576,"肉":1577,"能":1578,"自":1579,"花":1580,"若":1581,"英":1582,"茶":1583,"葬":1584,"薩":1585,"處":1586,"蛟":1587,"蝶":1588,"衆":1589,"行":1590,"表":1591,"西":1592,"见":1593,"观":1594,"视":1595,"觉":1596,"解":1597,"言":1598,"記":1599,"訳":1600,"試":1601,"語":1602,"論":1603,"讓":1604,"计":1605,"讨":1606,"许":1607,"论":1608,"话":1609,"语":1610,"说":1611,"诸":1612,"贪":1613,"越":1614,"足":1615,"身":1616,"車":1617,"转":1618,"辦":1619,"达":1620,"过":1621,"运":1622,"返":1623,"追":1624,"通":1625,"逝":1626,"進":1627,"遣":1628,"那":1629,"都":1630,"释":1631,"量":1632,"金":1633,"鉄":1634,"错":1635,"长":1636,"間":1637,"间":1638,"闻":1639,"阿":1640,"除":1641,"陸":1642,"障":1643,"雨":1644,"電":1645,"靈":1646,"非":1647,"面":1648,"韩":1649,"音":1650,"響":1651,"願":1652,"页":1653,"须":1654,"颂":1655,"飞":1656,"飲":1657,"首":1658,"龙":1659,"꣡":1660,"꣢":1661,"꣣":1662,"꣫":1663,"꣯":1664,"ꣲ":1665,"ꣳ":1666,"가":1667,"간":1668,"감":1669,"개":1670,"게":1671,"고":1672,"공":1673,"과":1674,"교":1675,"국":1676,"금":1677,"급":1678,"기":1679,"깨":1680,"나":1681,"낱":1682,"냐":1683,"녹":1684,"는":1685,"니":1686,"다":1687,"달":1688,"대":1689,"더":1690,"동":1691,"두":1692,"듬":1693,"따":1694,"뜨":1695,"라":1696,"락":1697,"레":1698,"력":1699,"로":1700,"름":1701,"리":1702,"만":1703,"말":1704,"망":1705,"맵":1706,"몸":1707,"못":1708,"뭐":1709,"민":1710,"받":1711,"발":1712,"백":1713,"번":1714,"법":1715,"봇":1716,"브":1717,"비":1718,"사":1719,"산":1720,"상":1721,"서":1722,"성":1723,"세":1724,"수":1725,"술":1726,"쉬":1727,"슈":1728,"스":1729,"승":1730,"시":1731,"신":1732,"아":1733,"어":1734,"없":1735,"에":1736,"염":1737,"영":1738,"예":1739,"완":1740,"외":1741,"요":1742,"우":1743,"운":1744,"월":1745,"위":1746,"을":1747,"음":1748,"의":1749,"이":1750,"인":1751,"임":1752,"입":1753,"있":1754,"자":1755,"적":1756,"전":1757,"절":1758,"정":1759,"조":1760,"좀":1761,"주":1762,"중":1763,"증":1764,"지":1765,"째":1766,"청":1767,"크":1768,"키":1769,"탄":1770,"탑":1771,"터":1772,"트":1773,"특":1774,"팅":1775,"파":1776,"하":1777,"학":1778,"한":1779,"함":1780,"합":1781,"허":1782,"효":1783,"히":1784,"힌":1785,"힘":1786,"︎":1787,"️":1788,"�":1789,"𑆤":1790,"𑌏":1791,"𑌥":1792,"𑌫":1793,"𑌮":1794,"𑌸":1795,"𑐎":1796,"𑐕":1797,"𑐫":1798,"𑐮":1799,"𑐰":1800,"𑐴":1801,"𑐵":1802,"𑑀":1803,"𑑂":1804,"𑑄":1805,"𑑅":1806,"🅰":1807,"🇦":1808,"🇮":1809,"🇱":1810,"🇳":1811,"🇵":1812,"🇸":1813,"🇹":1814,"🇺":1815,"🌀":1816,"🌃":1817,"🌄":1818,"🌅":1819,"🌈":1820,"🌉":1821,"🌍":1822,"🌎":1823,"🌏":1824,"🌖":1825,"🌙":1826,"🌛":1827,"🌝":1828,"🌞":1829,"🌟":1830,"🌠":1831,"🌰":1832,"🌱":1833,"🌴":1834,"🌷":1835,"🌸":1836,"🌹":1837,"🌺":1838,"🌻":1839,"🌼":1840,"🌿":1841,"🍀":1842,"🍁":1843,"🍃":1844,"🍋":1845,"🍥":1846,"🍾":1847,"🎂":1848,"🎃":1849,"🎉":1850,"🎊":1851,"🎋":1852,"🎎":1853,"🎓":1854,"🎖":1855,"🎤":1856,"🎯":1857,"🎵":1858,"🎶":1859,"🎼":1860,"🏀":1861,"🏃":1862,"🏏":1863,"🏠":1864,"🏮":1865,"🏷":1866,"🏹":1867,"🏻":1868,"🏽":1869,"🐕":1870,"🐙":1871,"🐯":1872,"👆":1873,"👇":1874,"👈":1875,"👉":1876,"👌":1877,"👍":1878,"👏":1879,"👞":1880,"👣":1881,"👦":1882,"👧":1883,"👨":1884,"👩":1885,"👫":1886,"👱":1887,"👴":1888,"💄":1889,"💏":1890,"💐":1891,"💑":1892,"💓":1893,"💔":1894,"💕":1895,"💖":1896,"💗":1897,"💘":1898,"💚":1899,"💛":1900,"💝":1901,"💠":1902,"💥":1903,"💦":1904,"💧":1905,"💫":1906,"💮":1907,"💰":1908,"💱":1909,"💵":1910,"📂":1911,"📌":1912,"📎":1913,"📏":1914,"📕":1915,"📖":1916,"📚":1917,"📝":1918,"📢":1919,"📣":1920,"📰":1921,"📱":1922,"📳":1923,"📸":1924,"📺":1925,"🔅":1926,"🔊":1927,"🔍":1928,"🔐":1929,"🔔":1930,"🔗":1931,"🔟":1932,"🔥":1933,"🔰":1934,"🔱":1935,"🔶":1936,"🔷":1937,"🔸":1938,"🔹":1939,"🔺":1940,"🔻":1941,"🕉":1942,"🕔":1943,"🖊":1944,"🖱":1945,"🗃":1946,"🗒":1947,"🗣":1948,"🗳":1949,"😀":1950,"😂":1951,"😃":1952,"😄":1953,"😅":1954,"😇":1955,"😉":1956,"😊":1957,"😌":1958,"😍":1959,"😎":1960,"😒":1961,"😔":1962,"😘":1963,"😜":1964,"😝":1965,"😞":1966,"😡":1967,"😢":1968,"😩":1969,"😳":1970,"🙁":1971,"🙂":1972,"🙅":1973,"🙆":1974,"🙌":1975,"🙍":1976,"🙎":1977,"🙏":1978,"🚑":1979,"🚩":1980,"🚷":1981,"🛑":1982,"🛡":1983,"🤔":1984,"🤗":1985,"🤝":1986,"🤦":1987,"🤩":1988,"🤪":1989,"🤲":1990,"🥀":1991,"🥂":1992,"🥇":1993,"🥰":1994,"🦂":1995,"🧐":1996,"🧜":1997,"🩸":1998,"🪔":1999,"्य":2000,"्र":2001,"।\n":2002,"्त":2003,"ं ":2004,"ि ":2005,"्व":2006,"े ":2007,"ः ":2008,"ा ":2009,"् ":2010,"ान":2011,"र्":2012,"प्र":2013,"ित":2014," स":2015,"वि":2016,"ार":2017,"ात":2018,"न ":2019,"ां":2020,"स्य":2021,"ति ":2022,"क्":2023,"ाम":2024,"ो ":2025,"क्ष":2026,"स्":2027,"ाय":2028,"म् ":2029,"स्त":2030,"ाद":2031," क":2032,"॥\n":2033," त":2034," प":2035,"ष्":2036,"न्त":2037,"ाः":2038,"नि":2039,"न्":2040,"र्व":2041," अ":2042,"त्य":2043,"त्र":2044,"ते ":2045,"ाप":2046," ।\n":2047," व":2048," म":2049,"क्त":2050,"ेव":2051," प्र":2052,"िक":2053,"ाव":2054,"ृत":2055,"पर":2056,"भव":2057," इ":2058,"द्":2059,"्च":2060," द":2061,"ास":2062," य":2063,"ः ।\n":2064,"ाल":2065,"ष्ट":2066,"ेष":2067,"त्":2068,"ति":2069,"सम":2070,"त्व":2071,"ेन ":2072,"र्थ":2073,"ेत":2074,"रा":2075,"व्य":2076,"िः":2077,"सं":2078,"ज्":2079," न":2080,"पु":2081,"एव":2082,"पि ":2083," वि":2084,"द्ध":2085," श":2086," -":2087,"िं":2088,"ाण":2089,"िन":2090,"कर":2091," च":2092,"ाह":2093,"स्म":2094,"ेश":2095,"द्य":2096,"स्व":2097,"त्त":2098,"कार":2099,"र्म":2100,"ज्ञ":2101,"स्थ":2102,"तः ":2103,"न्य":2104,"ीय":2105,"्म":2106,"ाग":2107,"िय":2108,"श्च":2109,"ि।\n":2110,"ङ्":2111,"ध्य":2112,"तु":2113,"त् ":2114," भ":2115,"यो":2116,"म्":2117,"गु":2118,"नु":2119,"म् ।\n":2120,"्।\n":2121,"रु":2122,"या ":2123,"द्व":2124," ज":2125,"सर्व":2126,"र्त":2127,"मु":2128,"क्र":2129,"कृत":2130,"था ":2131,"द्र":2132,"नं ":2133,"यं ":2134,"हि ":2135,"मान":2136,"ेद":2137,"ाच":2138," आ":2139,"ेन":2140,"ति ।\n":2141,"ष्य":2142,"िव":2143,"?\n":2144,"ात् ":2145,". ":2146,"ुः":2147,"ाश":2148,"पू":2149,"ाध":2150,"्छ":2151,"ेण":2152,"ानि ":2153,"्यं ":2154,"र्ष":2155,"सु":2156,"ाभ":2157,"ार्थ":2158," उ":2159,"ः\n":2160,"ाक":2161,"िर":2162,"ष्ठ":2163,".\n":2164,"ग्र":2165,"्न":2166," पर":2167,"ः।\n":2168," (":2169," सं":2170,"जन":2171,"ैव":2172,"ूप":2173,"यु":2174,"ते ।\n":2175,"च्छ":2176,"ीत":2177," ॥\n":2178,"ुं":2179,"श्य":2180,"ि ।\n":2181,"ोऽ":2182,"देव":2183,"श्व":2184,"र्ण":2185,"कु":2186,"रण":2187,"ल्":2188,"श्र":2189," ह":2190,"लो":2191,"एक":2192,"ान्त":2193,"देश":2194," एव":2195,"ान् ":2196,"े।\n":2197,"िम":2198,"ं व":2199,"ब्":2200," ग":2201,"ं त":2202,"ं प्र":2203," इति ":2204," र":2205,"दृ":2206,"भू":2207,"दा ":2208," नि":2209,"ात्र":2210," न ":2211,"राज":2212,"ं च":2213," ब":2214,"ये ":2215,"भाव":2216,"ेषु":2217," पु":2218,"क्षण":2219," सम":2220,"र्य":2221,"ास्त":2222,"ः स":2223,"मह":2224,"ख्य":2225," इत्य":2226," सर्व":2227,"ङ्ग":2228,"ाष":2229,"न्न":2230," स्व":2231,"ती":2232,"ैः":2233,"ृह":2234,"र्ग":2235,"न्द":2236,"म् अ":2237,"इति ":2238,"मित":2239,"ाम् ":2240,"एत":2241," \"":2242,"यः ":2243,"िण":2244,"योग":2245," ध":2246,"वा ":2247,"भ्य":2248,"न्ध":2249,"रो":2250,"भि":2251,"पद":2252,"्वा ":2253,"रूप":2254,"ना ":2255,"_\n":2256,"विध":2257,"दु":2258,"े ।\n":2259,"ापि ":2260,"तो ":2261,"स्तु":2262,"ः प्र":2263,"यम":2264,"यद":2265,"काल":2266,"ः अ":2267,"पुन":2268,"लोक":2269,"मन":2270,"ात्म":2271,"ता ":2272,"ः ॥\n":2273,"ज्ञान":2274,"ाप्त":2275,"-\n":2276,"चित":2277,"तस्य":2278,"लि":2279,"लं ":2280,"्ड":2281,"ब्द":2282,"ः क":2283,"ेक":2284,"ञ्च":2285,"ीन":2286,"शेष":2287,"मे ":2288,"ीव":2289,"ं क":2290,"ोः":2291,"ं स":2292," - ":2293,"धिक":2294,"पूर्व":2295,"्यत":2296,"ीं":2297,"म् ॥\n":2298,"न्ति ":2299,"भाष":2300,"िद":2301,"ेत् ":2302,"ल्प":2303,"ा\n":2304,"प्त":2305,"प्रति":2306,"र्श":2307,"कृ":2308,"ेऽ":2309,"शि":2310,"ा।\n":2311,"तम":2312,"रे ":2313,"पृ":2314,"सम्":2315,"!\n":2316,"न्त्र":2317,"गुण":2318,"ित्य":2319,"ं य":2320," ल":2321,"री":2322,"ोप":2323,"मम":2324,"--":2325,"भाग":2326,"न् ":2327,"ि,":2328,"ज्य":2329,"ृत्त":2330,"वर्त":2331,"इत्य":2332,"तद":2333,"नाम":2334,"सू":2335," सु":2336,"हित":2337,"गृह":2338,"यत":2339,"शु":2340,"े\n":2341,"रि":2342,"दि":2343,"करण":2344,"कथ":2345," भव":2346,"पाद":2347," स्":2348,"मेव":2349,"ं वि":2350,"न्द्र":2351,"कर्त":2352,"ार्":2353,"ान्य":2354,"ा अ":2355,"ः,":2356,"ोष":2357,"सि":2358,"ा ।\n":2359,"सी":2360,"स्थित":2361,"वर्ष":2362,"ने ":2363,"गत":2364,")\n":2365,"उप":2366,"त् ।\n":2367,"ार्य":2368,"ानु":2369,"ं म":2370,"िल":2371,"विद्य":2372,"ेय":2373,"्,":2374,"ण्ड":2375,"कर्म":2376,"ेह":2377,"हु":2378,"े च":2379,"ामि ":2380,"परि":2381,"धान":2382,"सा ":2383,"ारण":2384,"ाज":2385," _":2386,"थम":2387,"नम":2388,"युक्त":2389,"अथ":2390,"वै":2391,"ग्रह":2392,"शब्द":2393,"म्ब":2394,"रुष":2395,"ेः":2396,"धर्म":2397,"विष":2398,"स्थान":2399,"..":2400,"सह":2401,"ाणि ":2402,"यदि ":2403,"प्रत्य":2404,"ं न":2405," ख":2406,"यथ":2407,"भवत":2408," तु":2409,"ात्":2410,"फल":2411,"ा,":2412,". . ":2413,"स्त्र":2414,"ादि":2415,"ूल":2416,"ुक्त":2417,"कार्य":2418,"च्च":2419,"ब्र":2420,"दान":2421,"ाऽ":2422,"ेति ":2423,"त्स":2424,"यो ":2425,"तं ":2426,"दृष्ट":2427,"र्ध":2428," पू":2429,"े अ":2430,"वृ":2431,"तत्र":2432,"िप":2433,"क्रिय":2434,"पित":2435,"े,":2436,"हं ":2437,"भार":2438,"न्म":2439,"वृत्त":2440,"वाद":2441,"सि ":2442," व्य":2443,"यथा ":2444,"रं ":2445,"ोग":2446,"वेद":2447,"ान्":2448,"िष्य":2449,"ीप":2450,"विष्य":2451,"च्य":2452,"क्रम":2453,"जात":2454,"ग्":2455," मह":2456,"अन":2457," प्रति":2458," सह":2459,"क्ष्य":2460,"ुद्ध":2461,"न्तु":2462,"ुत":2463,"कः ":2464,"ोक्त":2465," ए":2466,"ि\n":2467,"दर्श":2468,"स्र":2469,"ोद":2470,"बन्ध":2471,"ेर":2472,"ोम":2473,"िति ":2474,"जीव":2475,"गव":2476,"ङ्क":2477," द्व":2478,"क्षे":2479," स्थ":2480,"ीर":2481,"े स":2482,"चन":2483,"काश":2484,"्या ":2485,"ष्ण":2486,"ीड":2487,"२०":2488,"ष्ट्र":2489," एक":2490,"ः प":2491," कु":2492,"अन्य":2493,"त्त्व":2494,"ं न ":2495,"जान":2496,"तथा ":2497,"िन् ":2498,"ोध":2499,"20":2500,"भूत":2501," '":2502,"ह्य":2503,"र्ज":2504,"कल्प":2505,"त्तर":2506,"दश":2507,"पुत्र":2508,"ं प":2509,"े प्र":2510,"ाक्ष":2511,"तव":2512,"चार":2513,"्ल":2514,"यित":2515," उप":2516,"तः ।\n":2517,"सिद्ध":2518,"माण":2519,"ञ्":2520,"कल":2521,"ुव":2522,"द्वि":2523,"ोत":2524,"शी":2525,"विशेष":2526,"भेद":2527,"ं\n":2528," त्व":2529,"दिन":2530," क्र":2531,"त्वा ":2532," देव":2533,"को":2534,"ाप्य":2535," स्त":2536,"स्ति ":2537,"स्मिन् ":2538,"गम":2539,"कं ":2540,"ुर":2541,"सार":2542,"ृत्य":2543,"अनु":2544,"कि":2545,"ते ॥\n":2546,"साम":2547,"ात् ।\n":2548,"ाध्य":2549," पुन":2550,"विश्व":2551,"हार":2552,"हर":2553,"बल":2554,"प्य":2555," श्र":2556,"यस्य":2557,"तथ":2558,"ृष्ट":2559,"शत":2560,"पुरुष":2561,"ुम":2562,"धि":2563,"् अ":2564,"दू":2565,"्-":2566,"तर":2567,"नव":2568,"ाति ":2569,"पूर्ण":2570,"े म":2571,"शक्त":2572,"ृद":2573,"वस":2574,"भविष्य":2575,", ":2576,"िता ":2577,"राष्ट्र":2578,"ास्य":2579," राज":2580,"क्षिण":2581,"१०":2582,"क्य":2583,"पर्य":2584,"ग्न":2585,"वाच":2586," सू":2587,"नी":2588,"काम":2589,"ित्र":2590,"चि":2591,"प्राप्त":2592," दु":2593,"१९":2594,"ाद्य":2595,"सः ":2596,"बहु":2597,"ाभ्य":2598,"परम":2599,"ितं ":2600,"ैक":2601,"वान":2602,"ाधिक":2603,"दी":2604,"भवति ":2605,"ततः ":2606,"वान् ":2607,"मध्य":2608,"स्प":2609," अनु":2610,"के ":2611,"षु":2612,"ोर":2613," हि ":2614,"न्तर":2615,"याम":2616,"म्भ":2617," वा ":2618,"त्तम":2619,"ः -":2620,"ो व":2621," कथ":2622,"दृश्य":2623,"ेल":2624,"पुर":2625,"न्ति ।\n":2626,"साध":2627,"भवति ।\n":2628,"जाय":2629," इत":2630,"ाख्य":2631,"म् आ":2632,"स्ति ।\n":2633," मु":2634," ते ":2635,"मुक्त":2636,"ृण":2637,"तस्म":2638,"गच्छ":2639,"मि":2640,"मा ":2641,"य् ":2642,"समु":2643," यद":2644,"ेध":2645,"ा-":2646,"ं,":2647,"क्षेत्र":2648,"तत्":2649,"ून":2650,"ेभ्य":2651,"भक्त":2652," वै":2653," वर्ष":2654,"रक्ष":2655,"ेख":2656,"इद":2657,"यति ":2658,"जल":2659,"कारण":2660,"न्व":2661,"घट":2662,"अह":2663,"भय":2664,"ेक्ष":2665,"ेत् ।\n":2666,"ाश्च":2667," तस्य":2668,"जग":2669,"निर्":2670,"ल्य":2671,"अत्र":2672,"ो न ":2673,"ेवल":2674,"े व":2675,"त्प":2676,"ा च":2677,"ार्ग":2678,"ाः\n":2679,"कम":2680,"एष":2681,"ैर":2682,"ास्त्र":2683,"्\"":2684,"भ्र":2685,"ीक्ष":2686," त्र":2687,"ो न":2688,"ो म":2689,"त्वं ":2690,"वेश":2691,"सुख":2692,"वद":2693," सम्":2694,"यत्":2695,"ज्ञात":2696,"ित्त":2697,"जय":2698,"ुप":2699,"ाट":2700," __":2701," यथ":2702,"् ।\n":2703,"ीम":2704,"लिख":2705,"मिति ":2706,"वर्ण":2707," तद":2708,"ोति ":2709," परि":2710,"वार":2711,"अप":2712,"तत":2713,"्वर":2714,"ितीय":2715," नाम":2716,"वास":2717,"स् ":2718,"ः स्व":2719,"ं द":2720," छ":2721,"नाय":2722,"न्ते ":2723,"ोऽपि ":2724,"ाठ":2725,"ेत्य":2726,"की":2727,"ावि":2728,"ः सर्व":2729,"ितम":2730,"ह्म":2731," /":2732,"ाथ":2733,"ल्ल":2734,"स्कृत":2735,"ाइ":2736,"पृष्ठ":2737,"तेन ":2738,"र्हि ":2739,"एवं ":2740," --":2741,"ण्य":2742,"शय":2743," पृ":2744,"er":2745,"न च":2746,"अपि ":2747,"नियम":2748,"नेन ":2749,"रस":2750,"पृथ":2751," कृत":2752,"मुख":2753,"ात्त":2754,"बह":2755,"म्\n":2756,"अव":2757," भू":2758," कार्य":2759,"ाभि":2760,"in":2761,"ब्ध":2762," इति ।\n":2763," जन":2764,"र्ह":2765,"गण":2766,"राण":2767,"पत":2768,"ति\n":2769,"लक्षण":2770," एत":2771,"भगव":2772,"ीः":2773,"ाद्":2774,"भारत":2775,"अत":2776,"ीण":2777,"अधिक":2778," पूर्व":2779,"ेम":2780,"गर":2781,"स्य ":2782,"ेन्द्र":2783,"e ":2784,"ाः।\n":2785,"ि-":2786,"ः श":2787," भाष":2788,"मास":2789,"े तु":2790,"ः आ":2791,"मन्त्र":2792,"बुद्ध":2793,"स्य प्र":2794,"धार":2795,"ा प्र":2796,"पी":2797,"st":2798,"व्यव":2799,"्स":2800,"बाल":2801,"तया ":2802," अपि ":2803,"पक्ष":2804,"अतः ":2805,"ो य":2806,"दिव":2807,"ित्व":2808,"ं नि":2809,"तेष":2810,"दृश":2811,"ाक्य":2812,"तदा ":2813,"पाल":2814," कृ":2815,"स्माक":2816,"धु":2817,"दोष":2818,"िश":2819,"और":2820,"यत् ":2821," =":2822,"ोह":2823,"ादश":2824," पद":2825," नम":2826,"कुर्व":2827,"े क":2828,"ातु":2829,"सौ":2830,"ानं ":2831,"े ॥\n":2832,"रोध":2833,"वाह":2834,"हेत":2835,"ाश्र":2836,"वे":2837," स्य":2838,"मपि ":2839," प्रत्य":2840,"र्भ":2841,"्?\n":2842,"म्य":2843,"ध्व":2844,"मात्र":2845,"ीति ":2846,"ें":2847,"ितः ":2848,"प्रश":2849,"10":2850," साम":2851,"योजन":2852,"an":2853,"इत":2854,"रात्र":2855,"- ":2856,"ाम् ।\n":2857,"पण":2858,"रव":2859,"प्रथम":2860,"नीय":2861,"दाच":2862,"ेऽपि ":2863,"्ट":2864,"ी,":2865,"े न":2866,"विषय":2867,"हृद":2868," कर्म":2869,"श्वर":2870,"देह":2871,"नि ":2872,"पश्य":2873,"ाख":2874," तथा ":2875,"११":2876,"राज्य":2877,"ं श":2878,"ो वि":2879,"ादृ":2880,"ी ":2881,"राम":2882,"ाद् ":2883,"मय":2884,"ालय":2885,"प्रस":2886,"अस्य":2887,"ं तु":2888,"दाह":2889,"र्घ":2890,"रुप":2891," अप":2892,"स्त्व":2893,"मत":2894,"ेष्ठ":2895,"लु":2896,"प्रति ":2897,"स्थाप":2898,"ित् ":2899,"घ्र":2900," स्त्र":2901,"द् ":2902,"ा वि":2903,"ितः ।\n":2904,"ा न":2905,"क्षु":2906,"गो":2907,"on":2908,"तः ॥\n":2909,"ः\"":2910,"वाय":2911,"श्रु":2912,"स्न":2913,"ध्याय":2914,"ग्रहण":2915,"ar":2916,"ाई":2917,"क्व":2918,"व्र":2919,"चर":2920," भार":2921,"वृद्ध":2922,"िद्ध":2923,"ंस":2924,"यात":2925,"मनु":2926," मम":2927,"शिष्ट":2928," तथ":2929,"कस्य":2930,"ा स":2931,"अर्थ":2932," गृह":2933,"ासु":2934,"मात":2935,"यत्र":2936,"ेत् ॥\n":2937,"दत्त":2938,"ान्तर":2939,"ोज":2940," अन्य":2941,"त्थ":2942,"ः पर":2943,"__\n":2944,"लभ":2945,"हस्त":2946," मध्य":2947," अधिक":2948," विष":2949,"जु":2950," सम्ब":2951,"दक्षिण":2952,"पात":2953," तत्र":2954,"ा व":2955,"s ":2956,"े वि":2957,"ेश्वर":2958,"निर्म":2959,"तिक":2960,"ने":2961,". . .\n":2962,"्ण":2963,"मू":2964,"ि?\n":2965," कर्त":2966," यदि ":2967,"201":2968,"धन":2969,"िभ":2970,"ां\n":2971,"वत":2972,"किम":2973,"न्त्य":2974,"ानाम":2975,"ब्रह्म":2976,"en":2977,"पद्य":2978,"दाय":2979,"द्वितीय":2980,"नाश":2981,"ाप्न":2982,"ं सम":2983,"ेयं ":2984,"न\n":2985,"े त":2986,"१२":2987," काल":2988," धर्म":2989,"द्वार":2990,"वर":2991,"१८":2992," अन":2993,"or":2994,"न्थ":2995,"षेध":2996,"मित्य":2997," ?\n":2998,"संख्य":2999,"्)":3000,"परिव":3001,"ायाम":3002,"ग्राम":3003,"मया ":3004," यथा ":3005,"व्यक्त":3006,"at":3007,"वय":3008,"ेवलं ":3009,"स्य च":3010,"ृतीय":3011,"पञ्च":3012,",\n":3013,"ास्ति ":3014," पुत्र":3015,"ं सर्व":3016,"िह":3017,"यद्य":3018,"ली":3019,"सप्त":3020,"ादेश":3021,"सर":3022,"ित्यं ":3023,"षण":3024,"ाया ":3025," विद्य":3026," मन":3027," फ":3028,"ञ्ज":3029,"वी":3030,"उत्तर":3031,"१५":3032,"यदा ":3033,"ः सम":3034,"ितम् ।\n":3035,"ाभाव":3036," दृ":3037,"ये":3038,"प्राय":3039,"ष्म":3040,"यान":3041,"शास्त्र":3042,"ि\"":3043,"इह":3044,"ं स्व":3045,"िना ":3046,"पाप":3047,"निर":3048,"हे ":3049,"ुभ":3050,"पत्र":3051,"ूत":3052,"वन":3053,"ु।\n":3054,"चित्र":3055,"कर्तव्य":3056,"तत् ":3057," स्म":3058,"ेज":3059,"ो भव":3060,". .\n":3061,"सद":3062,"ं ।\n":3063,"मार":3064," जीव":3065,"कृत्य":3066,"याव":3067,"अयं ":3068," विश्व":3069,"कास":3070,"ति ॥\n":3071," [":3072,"क्ल":3073," कि":3074,"पत्त":3075,"ादीन":3076,"सहस्र":3077,"ीयत":3078,"इति ।\n":3079,"ी।\n":3080,"यन":3081,"चतु":3082,"००":3083,"े\"":3084,"om":3085,"प्रिय":3086,"रत":3087,"पुनः ":3088," देश":3089,"्'":3090," समु":3091,"येन ":3092,"शो":3093,"शुभ":3094,"ज्ज":3095,"ाद्व":3096," शब्द":3097,"बु":3098,"उक्त":3099,"त्रि":3100,"प्राण":3101," वृ":3102,"प्रभ":3103,"िर्":3104," शक्त":3105,"ं वा ":3106,"काले ":3107,"रीर":3108,"निश्च":3109,"ागत":3110,"वच":3111," अथ":3112,"लिङ्ग":3113,"कृत्वा ":3114,"ाचार":3115,"अन्त":3116,"न क":3117,"िः\n":3118,"दित":3119,"त्पाद":3120," घ":3121,"ोजन":3122," तव":3123,"स्मृत":3124,"पश्च":3125," विशेष":3126,"ान्व":3127,"तन्त्र":3128,"यन्त":3129,"ं कर":3130,"१४":3131," रा":3132,"श्":3133,"िका ":3134,"ेन स":3135,"वक्त":3136,"न्याय":3137,"संस्कृत":3138,"वान् ।\n":3139,"ौ ।\n":3140,"क्षम":3141,"ेष्ट":3142,"र्थः ।\n":3143,"िष":3144,"विव":3145," __\n":3146,"धात":3147,"ूर":3148,"ों":3149," ई":3150,"च्यत":3151,"ाङ्ग":3152,"र्प":3153,"ी\n":3154,"स्य स":3155,"मित्र":3156,"सत्य":3157,"सूत्र":3158,"र्क":3159,"बोध":3160,"वन्त":3161,"ादि ":3162,"निर्व":3163,"सीत":3164,"नर":3165,"स्य अ":3166,"कान":3167,"युद्ध":3168,"पुनर":3169,"ेषण":3170,"विश":3171,"िष्ठ":3172,"ंश":3173,"ज्ञाय":3174,"पूज":3175," लोक":3176,"19":3177,"ं पर":3178,"ाग्र":3179,"अहं ":3180,"्॥\n":3181," और":3182,"पाठ":3183,"ागर":3184,"ले ":3185,"ि॒":3186,"प्रयोग":3187,"न्नि":3188,"स्ट":3189,"तिर":3190,"योज":3191," परम":3192,"मन्य":3193,"ः-":3194,"कर्मण":3195,"ः सं":3196,"al":3197,"प्न":3198,"मार्ग":3199,"१७":3200,"मे":3201,"ायु":3202," वर्त":3203,"ादौ":3204," करो":3205,"कार्यं ":3206,"i)":3207,"का ":3208,"मो":3209,"es":3210," !\n":3211,"भु":3212," कार":3213,"दार":3214,"धा ":3215," मे ":3216,"तिष्ठ":3217,"१३":3218,"भाषण":3219,"ः \"":3220,"िन्न":3221,"मुप":3222,"मी":3223,"क् ":3224,"जन्म":3225," तमे ":3226,"ा॒":3227,"मेर":3228," दृष्ट":3229,"विधान":3230," प्रथम":3231," तत्":3232," _\n":3233,"सीत् ।\n":3234,"गुरु":3235,"न् ।\n":3236,"मूल":3237,"00":3238,"ाह्य":3239,"र्च":3240,"च्यते ।\n":3241,"गु ख":3242,"ताव":3243,"ृप":3244,"ा.":3245," क्रिय":3246,"यः ।\n":3247," अह":3248,"क्ष्म":3249,"नः ":3250," अव":3251," ()":3252,"दैव":3253," ट":3254,"यज्ञ":3255," इव":3256," को":3257,"निक":3258,"वचन":3259,"यिष्य":3260,"ाड":3261,"बि":3262,"िव्य":3263," कारण":3264," न्य":3265,"शुद्ध":3266,"भूम":3267,"वस्तु":3268,"सङ्":3269,"ादिक":3270,"ag":3271,"ं ग":3272,"चिन्त":3273,"ताम":3274,"ादृश":3275,"ाण्ड":3276,"१६":3277,"क्षित":3278," सप्त":3279,"चेत":3280,"11":3281,"\"\n":3282,"ासन":3283,"ः (":3284,"चित् ":3285,"लिखित":3286,"मित्त":3287," सुख":3288," रूप":3289,"ाव्य":3290,"वयं ":3291,"ा-\n":3292,"दृष्ट्वा ":3293,"पि":3294," तदा ":3295,"व्याप":3296,"ततो ":3297,"देशे ":3298," दिन":3299,"क्रीड":3300,"रम":3301,"पठ":3302,"ेति ।\n":3303,"ग्रन्थ":3304,"वर्षे ":3305,"ीकृत":3306,"तिथ":3307,"त्म":3308,"प्रकाश":3309,"स्कार":3310," भगव":3311," बहु":3312,"कश्च":3313,"तय":3314,"लेख":3315,"शाल":3316,"स्पर":3317,"अभि":3318,"ष्प":3319,"वर्ग":3320,"ा न ":3321,"को ":3322,"ं ह":3323,"से ":3324,"माह":3325,"विभाग":3326,"ग्नि":3327,"स्वरूप":3328,"के":3329,"दुर्":3330,"सामान्य":3331,"12":3332," स्थान":3333,"िज":3334," शि":3335," पुर":3336," गुण":3337,"नय":3338," थ":3339,"ा आ":3340,"दात":3341,"ोल":3342," पित":3343," आह":3344," पुरुष":3345,"दिष्ट":3346,"ैल":3347,"काय":3348,"चना ":3349," कर":3350," यु":3351,"चित्त":3352," एष":3353,"केवल":3354,"ध्यान":3355,"दिश":3356,"अध":3357,"श्रुत":3358,"ात्मक":3359,"न्न ":3360,"येत":3361,"लब्ध":3362,"सेव":3363,"रोग":3364,"ि.":3365,"भा":3366,"वाक्य":3367,"त्वम":3368,"सम्बन्ध":3369,"ं भव":3370,"ासी":3371,"बी":3372,"िः।\n":3373,"वर्तत":3374,"रुण":3375,"ीत्य":3376,"बस":3377," इद":3378,"अद्य":3379," प्राप्त":3380,"ाङ्":3381,"लाभ":3382,"हास":3383," विध":3384," दृश्य":3385,"रूपेण":3386,"यम् ":3387,"ित्":3388,"स्मात् ":3389," पृथ":3390,"कट":3391,"नो ":3392,"हत":3393,"ं हि ":3394," काम":3395,"इदान":3396,"सूर्य":3397,"संधान":3398," भारत":3399," जु":3400,"च ।\n":3401,"न्ते ।\n":3402,"करो":3403,"ाइट":3404,"ं सं":3405,"कुर्य":3406,"इव":3407,"स्य व":3408,"युग":3409,"ं अ":3410,"ाप्":3411," भविष्य":3412,"दीर्घ":3413,"माय":3414,"यय":3415,"ेनैव":3416,"जी":3417,"ानि पृष्ठ":3418," प्रति ":3419,"नान":3420," आस":3421,"ूह":3422,"\"अ":3423,"िथ":3424,"ेट":3425,"विद":3426,"तर्हि ":3427,"ा\"":3428,"प्रकृत":3429,"it":3430,"ण्डल":3431,") ":3432," . .\n":3433,"र् ":3434,"द्भ":3435,"र्द":3436," ऽ":3437,"ेष्व":3438," च ।\n":3439,"ो हि ":3440,"दाहरण":3441,"ं भ":3442,"18":3443,"ी-":3444,"स्फ":3445,"विष्ट":3446," साध":3447,"ः॥\n":3448,"मिद":3449,"प्रत":3450,"वण":3451," ततः ":3452,"ाकार":3453,"घु":3454,"सर्ग":3455,"ग्ध":3456,"ुं,":3457,"सत":3458,"प्रमाण":3459,"ं ज":3460,"लोप":3461,"तप":3462,"्यते ":3463,"्मण":3464,"15":3465,"वृक्ष":3466," ब्र":3467," इत्याद":3468,"म् ?\n":3469,"ास्तु":3470,"वः ":3471,"े प":3472,"त्वेन ":3473,"विज्ञान":3474," ऋ":3475,"ाँ":3476,"ी ।\n":3477,"े नि":3478," ष":3479,"चल":3480,"परि ":3481," क्ष":3482,"ुष":3483,"व्याख्य":3484," की":3485,"ा॑":3486,"कुरु":3487,"चिद":3488,"मृ":3489,"राग":3490,"्यते ।\n":3491," योग":3492,"रुद्ध":3493,"ीयते ।\n":3494,"ो वा ":3495,"ामह":3496,"ो ऽ":3497,"iv":3498,"इन्द्र":3499,"कौ":3500," तत":3501,"प्रधान":3502,"िस":3503,"ाङ्क":3504,"ीकरण":3505,"स्मै":3506,"पुस्त":3507,"ैत":3508,"ैर्":3509," शक्य":3510,"र्वि":3511,"फलं ":3512," अभि":3513,"रथ":3514,"भारतीय":3515,"यि ":3516,"प्रण":3517,"ख्यात":3518,"यति ।\n":3519,"वश्य":3520," भाव":3521," दर्श":3522,"ानाम् ":3523,"रः ":3524,"यू":3525,"बसाइट":3526,"तीति ":3527,"कर्ष":3528,"वह":3529,"भाषा ":3530,"रित":3531," केवल":3532,"केन ":3533,"सर्वे ":3534,"कूल":3535,": ":3536,"यः ॥\n":3537,"शक्य":3538,"ीक्षा ":3539,"शिव":3540," भाग":3541,"रक्षण":3542,"कुल":3543,"िणाम":3544,"नित्य":3545,"ोत्र":3546,"ं यथ":3547,"अभ":3548,"देवत":3549,"भिन्न":3550,"वत्स":3551," राज्य":3552,"इच्छ":3553,"मृत":3554,"म्प":3555,"ms":3556,"ः च":3557," वे":3558,"मुख्य":3559,"मेत":3560,"स्तर":3561,"ः स्य":3562,"ानि\n":3563,"ात्मन":3564," मान":3565,"दर्शन":3566,"ितव्य":3567," - -":3568," पृष्ठ":3569,"एतत् ":3570,"कः ।\n":3571,"च्यते ":3572,"े न ":3573,"म् उ":3574,"त्वात् ":3575," मात":3576,"विषये ":3577,"...\n":3578,"टी":3579,"निष्":3580,"समुद्र":3581,"ाकृत":3582,"हि":3583,"यते ":3584,"ाधिकार":3585,"द्द":3586,"स्थाय":3587,"कथं ":3588,"यत्न":3589," पर्य":3590," जग":3591,"धिनियम":3592,"कृते ":3593,"कदाच":3594,"धी":3595,"वित":3596,"सन्त":3597," दश":3598,"स्य वि":3599,"त्वया ":3600," उक्त":3601,"ौ च":3602,"ाम्":3603," - अ":3604,"ारा ":3605,"शिक्षण":3606,"बद्ध":3607,"d ":3608,"प्रकार":3609," सन्त":3610,"मल":3611,"शत्र":3612,") अ":3613,"घात":3614," किम":3615,"ेत्त":3616,"दूर":3617,"ाम् ॥\n":3618,"भवत् ।\n":3619,"च्छेद":3620,"पन्न":3621,"ः सु":3622,"str":3623,"संज्ञ":3624,"]\n":3625,"ाच्च":3626,"ेन सह":3627,"अस्म":3628,"येत् ।\n":3629,"ा ॥\n":3630,"श्री":3631,"शिक्ष":3632,"गुर":3633,"ाम्य":3634,"प्रत्यय":3635," प्राण":3636,"धनं ":3637,"् च":3638,"बाध":3639," तम":3640,"ुक":3641,"र्त्त":3642,"धिकार":3643,"...":3644,"ान्न":3645,"त्न":3646,"संयुक्त":3647,"ोट":3648,"शू":3649,"ैष":3650,"े आ":3651," नमः ।\n":3652," प्रश":3653,"सन्ध":3654," जात":3655,"करिष्य":3656,"re":3657,"ो\n":3658,"ो द":3659,"y ":3660,"द्रष्ट":3661,"ou":3662,"पार":3663,"प्रात":3664,"ुण":3665," सम्बद्ध":3666,"ताय":3667,"वर्तमान":3668,"समान":3669,"म् -":3670,"14":3671,"तः\n":3672,"ॊ ऽ":3673," जल":3674,"ा'":3675,"े'":3676,"ः अस्त":3677,"रिष्य":3678,"स्य म":3679,"लभ्य":3680,"ा म":3681,"भाग्य":3682,"अन्यथा ":3683,"म्ह":3684,"प्रश्न":3685,"पेक्ष":3686,"ाधिकरण":3687,"वा":3688,"न ।\n":3689," तेष":3690," स्थित":3691,"ते\n":3692,"द्रव्य":3693,", अ":3694,"स्माकं ":3695,"ोर्":3696,"ादेव":3697,"पर्व":3698,"ं प्रति":3699,"ोच":3700,"ायण":3701,"त् ॥\n":3702,"श्रेष्ठ":3703,"ः'":3704,"२२":3705,"ीक्षण":3706,"ात् ॥\n":3707," द्र":3708,"ानि च":3709,"सन":3710,"सम्भव":3711,"म् एव":3712,"३०":3713,"ु,":3714,"न हि ":3715,"ic":3716,"करोति ":3717,"रिक्त":3718,"वर्तते ।\n":3719," बाल":3720,"दय":3721," ज्ञान":3722,"नगर":3723,"े य":3724,"शील":3725," स्प":3726,"ा य":3727," संशय":3728,"ुन":3729,"---":3730,"किञ्च":3731,"ा क":3732,"ि॑":3733,"ोड":3734," संश":3735,"am":3736,"विकल्प":3737,"ो अ":3738," चतु":3739," राष्ट्र":3740,"प्रदेश":3741,"मण":3742,"ते च":3743,"ाः,":3744,"२०१":3745," सिद्ध":3746,"योर":3747,"२५":3748,"स्य क":3749,"ा भव":3750,"ी.":3751,"ाश्व":3752," पञ्च":3753," त्रि":3754,"िकाय":3755,"तत्त्व":3756,"स्क":3757,"ाह्मण":3758,"ार्थं ":3759,"स्त्रिय":3760,"प्":3761,"द्वादश":3762,") इति ":3763,"क्स":3764,"दीय":3765,"ं।\n":3766,"िन्":3767,"गिर":3768," गत":3769," S":3770,"ारः ":3771," यत्र":3772,"सर्वत्र":3773,"ार्ध":3774,"ाऽऽ":3775,"त्स्य":3776,"तिहास":3777,"परिवर्त":3778," रुप":3779,"उपयोग":3780,"एस":3781," भवत":3782,"पदार्थ":3783,"ं कथ":3784,"अस्मिन् ":3785,"ः)":3786," दु ।\n":3787,"तेन":3788,"ि'":3789," अर्थ":3790,"ील":3791,"ावरण":3792,"कर्ता ":3793," +":3794,"तृतीय":3795,"्.":3796," ज्य":3797,"म् अपि ":3798,"आर":3799," इह":3800,"msg":3801," सा ":3802,"msgstr":3803,"श्ल":3804,"यित्वा ":3805,"ितो ":3806,"शल":3807,"सभ":3808,"ाज्ञ":3809,"न्यास":3810,"योऽ":3811,"वाम":3812,"ि)":3813,"ii)":3814,"साह":3815,"नैव":3816,"्ठ":3817,"२४":3818,"क्षय":3819,"दिव्य":3820,"ंत":3821," हृद":3822,"नार":3823," फल":3824,"अत एव":3825,"वक्ष्य":3826," सत्य":3827,"ोषण":3828,"ीष":3829,"13":3830,"ृद्ध":3831,"ैश्च":3832,"कृष्ण":3833,"सम्म":3834,"र्द्ध":3835,"ं कृत":3836,"वसाय":3837,"तीत्य":3838,"िन्त":3839,"े॒":3840,"ननु":3841,"पथ":3842,"जि":3843," दक्षिण":3844,"स्त्री":3845,"े \"":3846,"ान्म":3847,"ादित":3848,"ु॒":3849,"िकी":3850," ,":3851,"ुट":3852," सम्बद्धानि पृष्ठ":3853,"शः ":3854,"ि-\n":3855,"अस्त":3856,"वर्ध":3857,"या ।\n":3858,"ानि ।\n":3859," -\n":3860,"तथापि ":3861,"17":3862,"े-":3863," रक्ष":3864," ड":3865,"ृज":3866," के ":3867,"ion":3868,"निर्देश":3869,"दद":3870," A":3871," अन्त":3872,"ं सु":3873," अध्य":3874," शु":3875,"िस्त":3876,"ात्य":3877,"स्य नि":3878,"उच्च":3879," त्य":3880,"ंग":3881,"२१":3882,"msgstr \"":3883,"्रिय":3884,"एते ":3885,"ं मह":3886,"ोभ":3887,"ूढ":3888," बह":3889,"ृणु":3890,"ीडिय":3891,"ेप":3892,"ं तथा ":3893,"ेभ्यः ":3894," ॐ":3895,"ाब":3896,"स्करण":3897,"लोके ":3898,"िष्ट":3899,"अन्व":3900,"तान":3901,"ं कर्म":3902,"भोग":3903,"ूम":3904," पश्य":3905,"ग्राह":3906,"अध्य":3907," तेन ":3908,"वश":3909,"विक":3910,"न प्र":3911," कल":3912,"समास":3913,"ागम":3914,"वती":3915," अत्र":3916,"पुनर्":3917,"कोई":3918,"स्मि ":3919," परिव":3920," ऊ":3921,"सङ्ग":3922,"वेदन":3923,"ंत्र":3924," सम्बन्ध":3925,"जित":3926,"ते":3927,"त ।\n":3928,"साक्ष":3929," जाय":3930,"le":3931,"शान्त":3932," सि":3933,"निमित्त":3934,"्यम":3935,"ं प्रति ":3936,"ः?\n":3937,"ी च":3938," पश्च":3939,"त्पत्त":3940," सामान्य":3941,"ेत्":3942,"नं च":3943,"ट् ":3944,"ि च":3945,"ार्त":3946," दिव":3947,"म् इति ":3948,"िः,":3949,"प्रद":3950,"अथवा ":3951,"े स्व":3952,"यज":3953,"यामि ":3954,"२७":3955,"ो ह":3956,"राज्ञ":3957,"शीघ्र":3958,"विन":3959," व्यव":3960,"भास":3961,"यन्ति ":3962,"ोति":3963,"ेस":3964,"कत्व":3965," भाषण":3966,"Ne":3967,"मानव":3968,"ः _\n":3969,"ो नि":3970,"ेन च":3971,"नन्द":3972,"विरोध":3973,"th":3974,"दन":3975,"षष्ठ":3976,"स्य न":3977," तर्हि ":3978," पी":3979,"प्ल":3980,"ोति ।\n":3981,"ुल":3982," ---":3983,"२००":3984,"ेच्छ":3985,"ुः\n":3986,"ूर्त":3987,"्वल":3988,"इम":3989,"े॥\n":3990,"सव":3991,"ं त्व":3992,"आह":3993,"ुद":3994,"व्या":3995,"धन्य":3996,"ाग्":3997,"लक्ष":3998,"नुष्य":3999,"कृप":4000,"Tag":4001,"ंच":4002,"ादिन":4003,"धारण":4004,"जाप":4005,"धर":4006,"ध्र":4007,"ेहि ":4008,"पुण्य":4009,"शरीर":4010,"हीन":4011,"यमेव":4012,"ent":4013,"विर":4014," पाप":4015,"ान् ।\n":4016,"तद्व":4017,"स्ते ":4018,"द्विज":4019,"16":4020,"ितः ॥\n":4021,"ो देव":4022,"गु दु ।\n":4023," पूर्ण":4024,"म\n":4025," भ्र":4026," रु":4027,"ाञ्च":4028,"त्सव":4029,"प्रत्यक्ष":4030,"व्यवहार":4031,"नस्य":4032,"२६":4033,"ाप्नु":4034,"िनी":4035,"प्रतिषेध":4036,"तद्":4037,"शक":4038," वर":4039,"धि ":4040,"सुर":4041,"ौ।\n":4042," मया ":4043,"संभव":4044,"किन्तु":4045,"विना ":4046,"तः स":4047," सम्बद्धानि पृष्ठानि\n":4048,"तौ":4049,"वात":4050," शत":4051,"क्षेप":4052,"ः न":4053,"निष्ठ":4054,"Hom":4055,"ch":4056,"ा)":4057,"ाप्र":4058," शक्":4059,"ीयते ":4060,"सेन":4061," शुभ":4062,"भौ":4063,"ता ।\n":4064,"गु खः ।\n":4065,"अग्न":4066," सर्वे ":4067," कृते ":4068,"ब्राह्मण":4069,"कम् ।\n":4070,"चनं ":4071,"मध्ये ":4072,"साय":4073," तत् ":4074,"ं वै":4075,"ूं":4076,"समर्थ":4077,"ोदय":4078,"ाप्नोति ":4079,"धुना ":4080," I":4081," जान":4082,"ात्मा ":4083,"ादिति ":4084," अभ":4085," जन्म":4086,"तद् ":4087," पुनः ":4088,"यच्छ":4089,"यौ":4090,"तीव":4091,"पीड":4092,"मेक":4093,"विचार":4094,"केवलं ":4095,"मर":4096,"संसार":4097,"स्वप्न":4098,"ोत्तर":4099,"राध":4100,"म् अस्ति ।\n":4101,"पृष्ट":4102,"ा अपि ":4103,"नम् ।\n":4104,"ाघ":4105,"lo":4106,"ि.\n":4107,"ूय":4108,"त्यन्त":4109,"मान् ":4110,"ः कथ":4111,"निश":4112,"वक्तव्य":4113,"पान":4114,"ं प्राप्त":4115,"मनुष्य":4116," तस्म":4117," वेद":4118," प्रकृत":4119,"ोऽयं ":4120,"मेरिक":4121,"२३":4122,"ाविध":4123," इत्यस्य":4124," स्न":4125," वर्ण":4126,"राजन":4127,"री ":4128,"गीत":4129,"माद":4130," संस्कृत":4131,"ये ।\n":4132,"शिष्य":4133," कर्तव्य":4134,"सर्वेष":4135,"__":4136,"त्या ":4137,"कृष्ट":4138,"अति":4139,"षि":4140," सेव":4141," मूल":4142,"ज्ञाप":4143," क्व":4144," . . ":4145,"स्था ":4146," एवं ":4147," सर":4148,"ः अपि ":4149," सूर्य":4150,"दिवस":4151,"करोत":4152,"पे":4153,"ेतु":4154,"नित्यं ":4155,"स्यापि ":4156,"े वा ":4157,"ापर":4158,"तन":4159,"सि ।\n":4160,"न्नं ":4161,"क्ति ":4162,"भविष्यत":4163," .\n":4164,"धातु":4165,"नग":4166,"च् ":4167,"ोण":4168," प्रिय":4169,"श्रुत्वा ":4170,"ः इति ":4171,"ायै":4172," न च":4173,"उत्त":4174,"ोक्ष":4175," यत":4176,"यतः ":4177,"ाच्व":4178," जनव":4179,"स्त्य":4180," रात्र":4181,"उद":4182,"न तु":4183," वृद्ध":4184,"नम् ":4185,"यम् ।\n":4186,"द्भव":4187,"पुनः ।\n":4188," द्वितीय":4189,"ात्व":4190,"गन्ध":4191,"भूय":4192,"घ्न":4193,"त।\n":4194,"रक्त":4195," मुक्त":4196," पठ":4197,"ामेव":4198,"द्योग":4199,"भारतस्य":4200,"निवृत्त":4201,"दण्ड":4202,"युज्य":4203,"छात्र":4204,"निर्ण":4205,"लाय":4206,"षध":4207," स्थाप":4208," सौ":4209,"विद्याल":4210,"ा एव":4211,"मव":4212," सहस्र":4213,"चार्य":4214,"ैन्य":4215,"स्स":4216,"त्प्र":4217,"ा.\n":4218,"ार्श्व":4219,"इयं ":4220,"पर्यन्त":4221,"श्म":4222,"ादित्य":4223,"ः एव":4224,"ुः।\n":4225,"२८":4226,"पाक":4227,"ः प्रति":4228,"धाय":4229,"कीर्त":4230,"िते ":4231," निर्म":4232,"माल":4233,"ोत्तम":4234,"ं देव":4235,"30":4236,"मद":4237,"लम्ब":4238,"५०":4239,"रिक्ष":4240," वय":4241,"ट्ट":4242," तमे वर्षे ":4243," गु":4244,"निज":4245,"ासि ":4246,"नात":4247,"ः ?\n":4248,"उदाहरण":4249,"गृह्ण":4250,"बुध":4251,"ित्स":4252,"राश":4253," गच्छ":4254," स्त्रिय":4255," यत् ":4256,"प्रोक्त":4257,"ईश्वर":4258,"केन":4259,"सम्पाद":4260,"रज":4261," सर्वत्र":4262,"भी":4263,"सोम":4264,"हाय":4265,"ासं":4266,"खण्ड":4267,"थ्य":4268,"ो॒":4269," अत":4270,"s\n":4271,"ला ":4272,"विशिष्ट":4273,"श्रम":4274," सद":4275," P":4276,"ीह":4277,"भवन्त":4278,"समये ":4279," अस्त":4280," दी":4281," संख्य":4282," बुद्ध":4283,"ेि":4284,"ापेक्ष":4285,"साधन":4286," दोष":4287," हे ":4288,"ं तद":4289,"202":4290,"पितृ":4291,"गमन":4292," पत":4293,"स्वभाव":4294,"स्वर्ग":4295," उपयोग":4296,"गर्भ":4297,"चिक":4298,"प्रवृत्त":4299," क्रम":4300,"हेतु":4301,"दा ।\n":4302,"क्रमण":4303,"तो":4304,"इत्युक्त":4305,"कुर्वन्त":4306,"भाष्य":4307,"े पर":4308,"कर्त्त":4309,"o ":4310,"25":4311,"भिर":4312,"याय":4313,"ं यथा ":4314,"ाचर":4315,"रणं ":4316,"ीश":4317,"ग्री":4318,"राजा ":4319," विषय":4320," ये ":4321,"तु ।\n":4322,"्यं च":4323,"सीत् ":4324," नर":4325,"दृढ":4326,"(क":4327," हर":4328,"तथा च":4329,"il":4330,"खलु":4331,"ताप":4332," उत्तर":4333,"जायते ":4334," नव":4335,"ं तस्य":4336,"ात्मान":4337,"आत्":4338,"ास्थ":4339,"ं ब":4340,"क्तव्य":4341,"समाप्त":4342,"ाद्ध":4343,"त\n":4344,"ादु":4345," बल":4346," ओ":4347,"ं \"":4348,"ड्":4349,"ोऽह":4350,"तथैव":4351,"अनेक":4352," क्षेत्र":4353,"ुम् ":4354,"मुद्र":4355,"ं तथ":4356,"िपीडिय":4357," अधिकार":4358,"ि॥\n":4359,"कू":4360,"पौ":4361,"न्तरं ":4362," प्रयोग":4363,"प्रती":4364,"स्य आ":4365,"्+":4366," वयं ":4367,"ितम् ॥\n":4368,"यद्यपि ":4369,"का":4370,"ीति":4371,"िति ।\n":4372,"न्ह्य":4373,". .":4374,"्ये ":4375,"ित्वा ":4376,"पुष्प":4377,"्ः":4378," अध":4379,"व्यापार":4380,"न्मन":4381,"िन्य":4382," अनुसंधान":4383,"दन्त":4384,"कुत्र":4385,"भ्यास":4386,"भुव":4387," साक्ष":4388,"र्पण":4389," इत्येत":4390,"ारम्भ":4391,"ाता ":4392,"बर":4393,"खल":4394,"ह्र":4395," मित्र":4396,"यामास":4397,"इदं ":4398,"ाध्याय":4399,"vi":4400," यदा ":4401," गण":4402,"यद् ":4403," वेबसाइट":4404,"र्ध्व":4405,"मृत्य":4406,"स एव":4407,"भविष्यति ":4408,"प्रभाव":4409,"पुराण":4410,"आस":4411," सर्वेष":4412,";\n":4413,"ुख":4414,"ूष":4415,"ाक्यं ":4416,"िप्":4417,"िध":4418,"गृहीत":4419," निर्":4420,"ing":4421,"a ":4422,"चिर":4423,"भयं ":4424,"ृग":4425,"ु-":4426," कल्प":4427,"रह":4428,"षि ":4429," सः ":4430," पार":4431," नियम":4432," लक्षण":4433,"विशेषण":4434,"शास":4435,"ावत् ":4436,"स्वयं ":4437,"ण्ठ":4438,"तेषु":4439," प्रण":4440," न्याय":4441,"े?\n":4442,"२९":4443,"प्रसिद्ध":4444," पाठ":4445,"मुन":4446,"आद":4447,"ै।\n":4448,"लघु":4449,"ाकर":4450,"प्रार्थ":4451,"ं प्रत्य":4452,"भाषाय":4453," पूज":4454,"कर्ण":4455,"गौ":4456,"रि ":4457,"as":4458,"ed":4459,"यन्त्र":4460,"परीत":4461,"व्यय":4462," शी":4463,"चक्र":4464," वाच":4465," नित्य":4466,"ाऽपि ":4467,"' इति ":4468,"..\n":4469," औ":4470,"येत् ॥\n":4471,"र्न":4472,"े.":4473,"क्रोध":4474,"प्रतिष्ठ":4475,"(ग":4476,"दीप":4477,"यात्र":4478," हस्त":4479,"थ्व":4480,"अष्ट":4481,"सो":4482,"/\n":4483,"साध्य":4484," अधिनियम":4485," घट":4486,"तेऽ":4487,"४०":4488,"क्षि":4489,"वश्यक":4490,"ण्ट":4491,"ाण्य":4492," अहं ":4493,"िया ":4494,"द्वय":4495,"िश्च":4496,"ो मह":4497,"ं तव":4498,"ानुसार":4499,"200":4500,"ेते ":4501,"ad":4502,"ाज्य":4503,"स्तार":4504,"क्रान्त":4505,"संश":4506,"इत्येव":4507," प्रतिशत":4508,"बं":4509,"स्थिर":4510," मध्ये ":4511,"ूण":4512,"ृष":4513," शक":4514," स्मृत":4515,"राव":4516,"क्क":4517,"ग्व":4518,"ः अस्ति ।\n":4519,"ादिषु":4520,"सर्व्व":4521,"ूनि ":4522,"स्ताव":4523,"यव":4524,"शीत":4525,"स्य त":4526,"ामि ।\n":4527,"वित्र":4528,"ा?\n":4529,"ाय् ":4530,"अधिकतम":4531,"्क":4532,"विष्ण":4533," पाद":4534,"प्रत्येक":4535,"ञ्छ":4536,"सम्य":4537," संस्करण":4538,"स्पर्श":4539,"क्षत्र":4540," इत्यत्र":4541," प्रकाश":4542,"ेन ।\n":4543,"ज्ञेय":4544,"ाम् अ":4545,"कीय":4546,"क्षर":4547,"म्म":4548,"शिर":4549,"ातः ":4550,"िषु":4551," मन्त्र":4552,"विद्यते ।\n":4553,"ः न ":4554,"प्रवेश":4555,"पुस्तक":4556,"पृथिव":4557,"चेत् ":4558,"द्देश":4559,"पृच्छ":4560,"स च":4561,"ङ्कार":4562,"ेन\n":4563,"ान्न ":4564,"गाय":4565,"यतो ":4566,"वत् ":4567,"ास्व":4568,"ab":4569,"वित्त":4570,"िच्छ":4571,"द्म":4572," दिश":4573,"ं वद":4574,"तस्मात् ":4575,"ाहं ":4576,"चन्द्र":4577,"जर":4578,"र्जन":4579,"प्रयोजन":4580,"त्रय":4581,"चाल":4582," इन्द्र":4583," इत्येव":4584,"t ":4585,"अपर":4586,"(ख":4587,"21":4588,"तार":4589,"सति ":4590,"ृत्व":4591,"ाहि ":4592,"पश्चिम":4593,":\n":4594," भवति ":4595,"निर्दिष्ट":4596,"चि ":4597,"क्रियत":4598,"वा ।\n":4599,"ंक":4600,"ौक":4601,"स्वर":4602,"स्पष्ट":4603," यत्":4604," विषये ":4605,"ा इति ":4606,"म् (":4607," दि":4608,"स्नान":4609,"ामपि ":4610,"स्तथा ":4611," आत्":4612,"ाब्द":4613,"्)\n":4614,"ंति ":4615,"यन् ":4616,"क्षा ":4617,"समीप":4618,"वर्तते ":4619,"देवान":4620,"ाग्न":4621," इत्युक्त":4622,"24":4623,"दुष्ट":4624,"वे ":4625,"निध":4626,"त्वार":4627,"ाष्ट्र":4628,"ं ध":4629,"सङ्ख्य":4630,"\" इति ":4631,"ैर्य":4632,"िनः ":4633,"ाजिक":4634,"is":4635,"तत्त":4636,"मध":4637,"र्ख":4638,"निव":4639,"न्तव्य":4640," समर्थ":4641,"दुक्त":4642,"आप":4643,"निष":4644,"भ्रम":4645,"बाह":4646,"प्राप्य":4647,"संबन्ध":4648,"म् अस्त":4649,"स्यात":4650,"मिव":4651,"यश":4652,"वो ":4653,"पूर":4654," संयुक्त":4655,"भवतः ":4656,"े.\n":4657,"लक्ष्य":4658,"वीर":4659,"३१":4660,") ।\n":4661,"ेद्य":4662,"प्रज":4663,"मन्द":4664,"ेड":4665," कुर्व":4666,"An":4667,"SS":4668,"अस्ति ":4669," सोम":4670," यद्य":4671,"गुल":4672,"मानस":4673,"नाद":4674,"मस्त":4675,"ोक":4676,"्ह":4677," सूत्र":4678,"पृथिव्य":4679,"नै":4680," विकास":4681,"ध्यत":4682,"हृदय":4683,"बीज":4684," उच्च":4685,"मौ":4686,"ा हि ":4687," सदा ":4688," पक्ष":4689," परस्पर":4690,"....":4691,"शून्य":4692,"तानि ":4693," युद्ध":4694," लेख":4695,"अनेन ":4696,"स्तत्र":4697,"ce":4698,"ार्म":4699,"न्दु":4700,"रोच":4701," स्त्री":4702,"पय":4703," क्रीड":4704," ङ":4705,"ाच्छ":4706,"कन्य":4707,"्.\n":4708,"इत्येत":4709,"क्रियते ":4710,"ैत्य":4711,"भर":4712,"ार्ष":4713,"र्थं ":4714," ध्व":4715,"ाि":4716,"े॑":4717,"३३":4718,"भवान् ":4719," शत्र":4720,"म्पर":4721,"गल":4722,"श्न":4723,"साद":4724,"कव":4725," इच्छ":4726,"Home":4727,"नेन":4728,"भात":4729,"साव":4730,"द्यत":4731," M":4732,"(घ":4733,"उत्तम":4734,"यन ":4735,"पुण":4736,"क्रमेण":4737,"मोह":4738,"ध्ये ":4739,"भूव":4740,"मै":4741,"स्मरण":4742,"ना ।\n":4743,"वर्त्त":4744,"िनि ":4745," समाचार":4746," वद":4747,"चित्":4748,"नो":4749,"सान":4750,"ेन्द्रिय":4751,"आत्म":4752,"स्नेह":4753,"स्तस्य":4754,"यत्त":4755,"राज्यं ":4756,"ेषु च":4757,"प्रकरण":4758," कौ":4759,"ावृत्त":4760,"परं ":4761,"स्म ।\n":4762,"ज्र":4763,"ः प्रत्य":4764,"सर्वं ":4765," भवति ।\n":4766,"ं सू":4767,"ितः\n":4768," सम्म":4769,"विद्यालय":4770,"एम":4771,"न्ह":4772," यज्ञ":4773,"ं तत्र":4774,"स्थाने ":4775," आर":4776,"ास्म":4777," वस्तु":4778,"श्रद्ध":4779,"ॄण":4780," करिष्य":4781,"संयोग":4782,"रात्रौ":4783," ...\n":4784,"de":4785,"पट":4786," विव":4787,"ः कृत":4788,"िकल्प":4789,"म् अनु":4790," कर्मण":4791,"निर्माण":4792,"त्वे ":4793," ण":4794,"ारी":4795,"स्तव":4796," यो ":4797," समुद्र":4798,"े)":4799,"वक्ष्यामि ":4800," सङ्":4801,"सूचना ":4802,"परिणाम":4803,"ंड":4804,"ं वर्त":4805,"ङ्ग्ल":4806,"ोन":4807,"ा ह":4808," यान":4809,"स्वी":4810,"स्थल":4811," पर्व":4812,"ol":4813,"ंद":4814,"वाल":4815," हित":4816," दुर्":4817,"गोप":4818,"नास्त":4819,"गृह्य":4820,"ं आ":4821," कदाच":4822,"िक्र":4823,"दूषण":4824,"त्पन्न":4825,"पति":4826,"िच":4827,"े द":4828," पुस्त":4829," ऐ":4830,"सो ":4831,"स त":4832,"(ग)":4833," प्रधान":4834,"समय":4835," धन":4836,"शक्":4837,"विभ":4838," प्रमाण":4839,"ाचीन":4840,"बाह्य":4841,"मोद":4842,"े ह":4843,"न स":4844,"सङ्क":4845,"सृष्ट":4846,"ार्ह":4847," प्रज":4848,"परस्पर":4849,"स्वाम":4850,"सक":4851,"३२":4852,"विप्र":4853,"ाति":4854,"त्\n":4855,"धिष्ठ":4856,"कुमार":4857," स्वर्ग":4858,"रिद्र":4859,"कोट":4860,"िट":4861,"विश्य":4862," यस्य":4863,"ेद् ":4864,"ाधिप":4865,"त एव":4866,"िरूप":4867,"बृह":4868,"र्त्य":4869,"ज्योति":4870,"प्रथ":4871,"स्तथ":4872,"जीवित":4873," यू":4874," शरीर":4875," निष्":4876,"पाय":4877," केवलं ":4878,"धाव":4879,"ेत्र":4880,"म् _\n":4881," विक":4882,"ागु":4883,"े ज":4884,"मानुष":4885,"ान्ति ":4886,"ये च":4887,"एतद":4888,"सित":4889,"स्मर":4890," जू":4891,"याति ":4892,"विनाश":4893,"ादिव":4894," कश्च":4895,"नाम्न":4896,"दृश्यते ।\n":4897,"पत्":4898,"ीक":4899,"ञ्जन":4900,"ार्थिव":4901,"दुर्लभ":4902,"23":4903,"्न ":4904,"ा तु":4905,"त्याग":4906," मार्ग":4907," भेद":4908,"वध":4909,"ाधि":4910," C":4911,"े श":4912," समान":4913," दू":4914," समीप":4915,"ाष्ट":4916,"त्यक्त":4917,"वार्त":4918,"युष्म":4919,"आई":4920,"यः स":4921,"ः त":4922,"युव":4923,"जायत":4924,"(ख)":4925,"नास्ति ":4926," वृत्त":4927," मास":4928,"मध्यम":4929,"of":4930,"se":4931,"गति":4932,"नीत":4933,"दृश्यत":4934," क्षण":4935,"उत्पाद":4936,"ेन्":4937,"ेगु":4938,"े एव":4939," प्रभाव":4940," देह":4941,"क्षिप":4942,"ौं":4943,"ौ त":4944,"र्जित":4945,"इगु":4946,"जाल":4947,"ा॥\n":4948," दीर्घ":4949,"(घ)":4950,"ाक्रम":4951,"ं व्य":4952,"वल":4953,"सत्त्व":4954," अस्य":4955,"ब्रवी":4956," मुख्य":4957,"भग":4958,"भोज":4959,"कारेण":4960,"प्रतिपाद":4961,"भविष्यति ।\n":4962,"न्ध्य":4963,"ः--":4964,"े सम":4965,"कारः ":4966,"मण्डल":4967," नं ":4968,"रिष्ठ":4969,"दृश्यते ":4970," m":4971,"केन्द्र":4972," द्वारा ":4973,"नार्थ":4974,"याद":4975,"ी'":4976,"म् \"":4977," अस्म":4978,"27":4979,"हृत":4980," भक्त":4981,"ान्ध":4982,"ीर्य":4983,"ूँ":4984,"ो,":4985,"ो नाम":4986," वाक्य":4987,"ं विश्व":4988," संशयः ॥\n":4989,"पि ।\n":4990,"दध":4991,"श च":4992,"गच्छत":4993,"निवेश":4994," वर्तमान":4995,"त्येव":4996,"परिम":4997,"समन्व":4998,"िण्ड":4999," पुनर":5000,"श्लोक":5001," क्ल":5002,"ष्व":5003,"ं भवत":5004,"ुमर्ह":5005,"चय":5006,"र्षण":5007,"ऋण":5008,"खिल":5009,"िब":5010,"ेर्":5011,"संस्थ":5012,"नेक":5013,"हो":5014," विभाग":5015,"नया ":5016," युक्त":5017,"सहित":5018,"हान":5019,"ह्न":5020," पत्र":5021," अति":5022,"ः सू":5023,"मनो":5024," व्र":5025,"तोऽ":5026,"र्थ्य":5027,"नुम":5028,"यः -":5029,"लिप":5030,"स्य ।\n":5031,"वायु":5032,"विद्यमान":5033,"द्धि ":5034,"गमिष्य":5035,"(क)":5036,"- \"":5037,"ड़":5038,"ु॑":5039," राम":5040,"साधारण":5041,"शान":5042,"द्वारा ":5043," मा ":5044,"ङ्गल":5045,"ःगु":5046,"ः उ":5047," तप":5048,"ाकाल":5049,"रण्य":5050,"क्षस":5051,"त्वात":5052,"मिति ।\n":5053,"्यताम":5054,"यद्व":5055,"़ा":5056,"योग्य":5057,"वाच्य":5058,"सन्द":5059,"े मह":5060," साह":5061," सूचना ":5062," ब्रह्म":5063,"हल":5064,"३६":5065," दूर":5066,"िणी":5067,"एषा ":5068,"26":5069,"तेज":5070,"भ्यं ":5071,"परीक्ष":5072," श्व":5073,"शङ्क":5074,"ापू":5075,"गान":5076,"्द":5077,"वेदन ":5078,"दास":5079,"येत् ":5080,"ः वि":5081,"ो भवत":5082," तृतीय":5083,"तीति ।\n":5084," p":5085,"अध्याय":5086,"यास":5087,"ं नाम":5088,"योक्त":5089,"दिश्य":5090,"चरण":5091,"ाए":5092,"ः =":5093," याय":5094,"गम्य":5095," कृत्वा ":5096,"तदेव":5097,"त्वमेव":5098," न तु":5099,"न्दर":5100,"भगवान् ":5101,"िप्पण":5102,"वाण":5103,"िद्र":5104," या ":5105,"िर्य":5106,"वृत":5107,"३५":5108," अतः ":5109,"ाहार":5110,"ं मया ":5111,"पिता ":5112,"ैर्व":5113,"े (":5114,"पूज्य":5115,"स्तुत":5116,"स्यैव":5117,"संस्कार":5118,"शस्त्र":5119,"् आ":5120,"क्ट":5121,"ोऽहं ":5122,"ल्क":5123,"50":5124,"समाचार":5125,"ध्रुव":5126,"तस्मिन् ":5127,"ास्":5128,"ते स":5129," मे":5130," निर":5131," च ॥\n":5132,"येन":5133,"ो ज":5134,"ाकाश":5135,"22":5136,"नास":5137,"स्य प":5138,"ज्ञात्वा ":5139," तिथ":5140,"त्त्र":5141," अधिकतम":5142,"\" सम्बद्धानि पृष्ठानि\n":5143,"अल":5144,"४५":5145," नार":5146," निर्व":5147,"ौर":5148," मू":5149,"त्वाद":5150,"तः प्र":5151,"एकः ":5152," लाभ":5153,"प्रसङ्ग":5154,"विवेक":5155,"श्लेषण":5156," L":5157,"ातन्त्र":5158,"दुर्ग":5159,"३७":5160,"त्साह":5161," सूचन":5162,"नेव":5163,"ितान":5164,"ेष्य":5165,"देवी":5166,"भावः ।\n":5167,"करणीय":5168," भारतीय":5169,"नानि ":5170,"ि ॥\n":5171," द्वि":5172,"पत्य":5173,"ा द":5174,"निवर्त":5175,"द्वीप":5176,"03":5177,"ं स्य":5178,"ायाम् ":5179,"त्सु":5180,"ं किम":5181,"ट्":5182,"निषेध":5183," प्रत":5184," विना ":5185,"मुद":5186,"न्नत":5187," / ":5188,"ामु":5189," का ":5190,"चन ":5191,"क्षत":5192,"अस":5193,"खु":5194,"भोजन":5195," अयं ":5196,"ेयः ":5197,"ा (":5198,"ो यथा ":5199,"समाज":5200,"ाढ":5201," आत्म":5202,"च्छ्र":5203,"च्यते ॥\n":5204,"िता ।\n":5205,"सीद":5206,"स्य श":5207,"र्थे ":5208,"पि न ":5209," T":5210,"ैं":5211,"श्चैव":5212,"श्रवण":5213," वृक्ष":5214,"वस्त":5215,"ं ते ":5216,"ायोग":5217,"नाथ":5218,"यॊ":5219,"ायत":5220,"करोम":5221,"श्वेत":5222,"शिख":5223,"अधिकार":5224,"मथ":5225,"ि--":5226,"त्वात् ।\n":5227,"युत":5228," भूत":5229,"मोक्ष":5230,"ाच्वं":5231,"Ans":5232,"्!\n":5233,"सूचन":5234,"ाख्यात":5235,"शोभ":5236," शिक्ष":5237,"el":5238,"ाप्नोति ।\n":5239,"ं पठ":5240,"tr":5241," सन्ति ।\n":5242," एव ।\n":5243," इत्यु":5244," कार्यं ":5245,"आग":5246," वर्ग":5247," द्वार":5248,"अग्र":5249,"ाबल":5250,"िन ":5251,"ीत्वा ":5252,"व्रत":5253,"(ii)":5254,"यनं ":5255,"ः म":5256,"व्यवसाय":5257,"पुट":5258," निश्च":5259,"नः ।\n":5260,"र्भव":5261," मृत्य":5262,"di":5263,"शासन":5264,"ं मम":5265,"चिव":5266,"ही":5267,"िर् ":5268,"ा,\n":5269,"२०७":5270,"नाव":5271,"भज":5272,"म् उप":5273,"रोप":5274,"ाध्यम":5275,"यूयं ":5276,"अतो ":5277,"षड":5278,"ाद्र":5279,"शीर्ष":5280,"हम":5281,"ोलिखित":5282,"ाधार":5283,"राणि ":5284,"ap":5285,"ं कृत्वा ":5286,"यस्म":5287,"ितर":5288,"त्यज":5289,"द्भाव":5290," मुख":5291,"रहित":5292," शीघ्र":5293,"दूष":5294,"ा -":5295," वाय":5296,"ेन प्र":5297,"कारक":5298," परीक्षण":5299,"लः ":5300,"ेनापि ":5301,"दुर":5302,"इत्याद":5303," व्यक्त":5304," श्रु":5305,"गत्वा ":5306,"ूः":5307,"ं र":5308,"विकास":5309,"परिभाष":5310,"ात्\n":5311,"भारते ":5312,"II":5313,"ी अ":5314,"स्तद":5315," के":5316,"ावत":5317,"Re":5318," प्राय":5319,"ं विद्य":5320,"कृपया ":5321,"े सर्व":5322,". अ":5323," इदान":5324,"कुत":5325,"भूतान":5326,"दि ":5327," ततो ":5328," युव":5329,"इतर":5330,"ेयम":5331,"अग्नि":5332,"ः पूर्व":5333,"विद्व":5334," परीक्षा ":5335," प्रश्न":5336,"घृत":5337,"पल":5338,"श् च":5339,"ैः\n":5340," नैव":5341,"तीर्थ":5342," B":5343,"जू":5344,"ी स":5345,"ावर्त":5346," हेत":5347," स्वरूप":5348," किन्तु":5349,"ी\"":5350,"तुल्य":5351,"दा ॥\n":5352,"ीर्ण":5353,"अय":5354,"सं ":5355,"ो भवति ":5356," ः ":5357,"ः काल":5358," अध्याय":5359,"विविध":5360,"ay":5361,"वेत":5362,"सन्न":5363,"ो।\n":5364,"ङ्क्त":5365,"दर":5366,"मं ":5367,"यश्च":5368,"भिध":5369,"ः कर्म":5370,"अनुसंधान":5371,"तद्य":5372,"त आह":5373,"ीष्ट":5374,"िरिति ":5375,"केत":5376,"पाव":5377,"हृ":5378,"त्वपूर्ण":5379,"कुट":5380,"जानाति ":5381," संशयः ।\n":5382,"वः ।\n":5383,"ृश":5384," उत्त":5385," ईश्वर":5386,"पात्र":5387," तथापि ":5388,"४४":5389,"ं वेद":5390,"िला ":5391,"इष्ट":5392,"ि;":5393," उत्पाद":5394," ह्र":5395,"सागर":5396,"ानन्द":5397,"राह":5398,"मानं ":5399,"गृहे ":5400,"माम":5401,"लय":5402,"ितु":5403,"परमेश्वर":5404,"ोत्त":5405,"विरुद्ध":5406," करण":5407,"िकार":5408,"उभय":5409,"ां,":5410," यज":5411,"ग्राह्य":5412,"विधि":5413,"गू":5414,"भृत":5415,"रे":5416,"लित":5417,"न अ":5418,"ो यथ":5419," मनुष्य":5420," द्य":5421,"रोह":5422,"द्विष":5423,"मि ":5424,"28":5425,"इतिहास":5426,"ैन":5427,"निय":5428,"बालक":5429,"ची":5430,"् एव":5431," सर्व्व":5432," दृष्ट्वा ":5433,"विभक्त":5434,"देवि ":5435,"प्रसाद":5436,"भवेत":5437," ह्य":5438,"गोल":5439,"प्रभात":5440,"केश":5441,"जार":5442,"हन":5443,"े!\n":5444,"ारु":5445," तिष्ठ":5446,"िकं ":5447,"क्रय":5448,"तस्माद":5449," (प":5450,"ताल":5451,"येष":5452,"रेण":5453,"ाङ":5454," सय":5455," सम्य":5456,"ं कि":5457,"दापि ":5458,"शक्ति":5459," झ":5460,"ot":5461,"४१":5462,"ायक":5463,"सर्वाणि ":5464,"ः कश्च":5465,"ow":5466,"ानि":5467," सार":5468,"मयि ":5469,"फ्र":5470,"५५":5471," अपर":5472,"दुष्":5473,"अस्माक":5474,"हिम":5475,"संहित":5476,"सि ॥\n":5477,"समुदाय":5478,"ऋष":5479,"यं":5480,"्लोक":5481," समास":5482,"ः पुरुष":5483,"पूर्वं ":5484,"न्तु ।\n":5485,"ं पश्य":5486,"राष्ट्रिय":5487," फरव":5488,"ृष्ण":5489,"विल":5490,"तिरिक्त":5491," शेष":5492,"ः सह":5493," t":5494,"दुप":5495," येन ":5496,"स्मिन्न":5497,"भ्रात":5498,"ig":5499,"नृप":5500,"भो ":5501,"४७":5502,"ापु":5503,"ियुक्त":5504,"परिवार":5505,"नक":5506,"हन्त":5507,"ं कर्त":5508,"त्कृष्ट":5509," उद":5510," धन्य":5511," छात्र":5512,"लाल":5513,"्;":5514," तं ":5515," अद्य":5516," च।\n":5517,"ं वर्ष":5518," भवन्त":5519,"े च ।\n":5520,"नमः ।\n":5521," अनेक":5522,"नेत":5523,"पाण":5524,"ा:":5525,"ायं ":5526," तद्व":5527,"ान्ते ":5528," रोग":5529,"SS@":5530,"02":5531,"xx":5532,"मर्थ":5533,"शर":5534," तत्त्व":5535,"मुनि":5536," उत्तम":5537,"८०":5538,"संशय":5539,"म् अस्ति ":5540,"नेत्र":5541,"धृत":5542,"भार्य":5543,"ल् ":5544,"ेन्न":5545,"स्पृ":5546," प्रत्येक":5547,"ो॑":5548,"ा त":5549,"थु":5550,"न।\n":5551,"य्य":5552,"शृण":5553,"रुद्र":5554," गो":5555," कुर्य":5556," मुद्र":5557,"पद्यत":5558,"दौ":5559,"सृज":5560," वाम":5561,"िनः ।\n":5562,"सूक्ष्म":5563,"वृष्ट":5564,"श्रू":5565," समाज":5566," विकल्प":5567,"ेन सं":5568,"परीक्षण":5569,"ट्र":5570,"शै":5571,"ुर्":5572,"विमान":5573,"तुल":5574,"अस्ति ।\n":5575,"माप":5576," प्रदेश":5577," स्वयं ":5578,"04":5579,"ोद्ध":5580," चिन्त":5581,"ज्ञानं ":5582,"सदस्य":5583,"ार्थे ":5584,"भागे ":5585,"चतुर्थ":5586,"मा":5587,"ं गत":5588,"न्द्व":5589,"परन्तु":5590," इत्यर्थ":5591,"un":5592,"कोप":5593,"४९":5594,"विहित":5595,"निरूप":5596,"ालये ":5597,"कृति ":5598,"ation":5599,"e\n":5600,"नौ":5601,"भद्र":5602," मन्य":5603,"१९९":5604,"01":5605,"म् एक":5606,"निपात":5607,"ावद":5608,"लोक्य":5609,"सूक्त":5610,"ृते ":5611,"े त्व":5612,"ायात":5613," शिव":5614,"ङ्घ":5615," इत्यर्थः ।\n":5616,"एषः ":5617,"ाटक":5618,"सदा ":5619,"ो ह्य":5620,"ाय नमः ।\n":5621,"er ":5622," कोई":5623,"ेग":5624,"६०":5625,"विन्द":5626,"तदान":5627,"कल्य":5628,"(i)":5629,"शिय":5630," इति ॥\n":5631,"SF":5632,"ac":5633,"िक्त":5634," नगर":5635,"जनान":5636,"मिह":5637,"ीद":5638," दत्त":5639,"संवत्स":5640,"म्न":5641,"विद्यत":5642,"et":5643,"जप":5644,"श्यं ":5645,"सख":5646,"ं जग":5647," पुण्य":5648,"म्बर":5649,"टिप्पण":5650,"रू":5651,"ं मे ":5652,"जीवन":5653,"मन्त्री":5654,"क्षुष":5655,"ना":5656,"यत् ।\n":5657,"जायते ।\n":5658," विकिपीडिय":5659,"कम्प":5660,"माव":5661,"ृप्त":5662,"र्थिक":5663," चित्र":5664,"ाचार्य":5665," करोत":5666," *":5667,"आव":5668,"३८":5669,"न्यून":5670,"ur":5671,"ः ख":5672,"ारूप":5673,"ः अस्ति ":5674,"ार्द":5675," व्याप":5676,"छन्द":5677,"न म":5678,"ादपि ":5679,"भवत् ":5680," योजन":5681,"े अपि ":5682,"ेभ्यो ":5683,"योजनं ":5684,"ं गृह":5685,"एतेन ":5686,"उद्":5687,"विज":5688,"ो भवति ।\n":5689,"जानामि ":5690,"निर्मित":5691,", स":5692,"आय":5693,"ूनं ":5694," शान्त":5695,"तः पर":5696,"ं मन्य":5697," दान":5698," कृप":5699," शक्यत":5700,"वीत":5701,"र्दश":5702," परा":5703," समाप्त":5704,"ी)":5705,"ून्य":5706,"३४":5707,"स्य सं":5708," वन":5709,"द्यु":5710,"सुत":5711,"ाक् ":5712,"रणे ":5713,"सम्प्र":5714,"यामि ।\n":5715,"ाश्रय":5716,"जन्य":5717,"सोऽ":5718," आसीत् ।\n":5719,"एतेष":5720,"क्लेश":5721,"वचनं ":5722,"कर्मणि ":5723,"ूर्ण":5724,"्यर्थ":5725,"म् च":5726,"ाभिर":5727,"दर्शनं ":5728," तथैव":5729,"ास्थ्य":5730,"नाह":5731,"भर्त":5732,"ाकरण":5733,"ा वा ":5734,"ो ग":5735,"त्वं च":5736,"पूजय":5737,"ब्ब":5738,"पदे ":5739,"रक्षित":5740,"अपि च":5741,"तादृश":5742,"से":5743,"िन्द":5744," प्रार्थ":5745," परीक्ष":5746,"शुक्र":5747,"३९":5748,"ये ॥\n":5749,"सम्पूर्ण":5750,"ज्येष्ठ":5751,"ं विना ":5752,"वदत":5753,"मूल्य":5754,"ार्मिक":5755,"'\n":5756,"्/":5757,"द्वयं ":5758," s":5759,". स":5760,"em":5761,"ंभ":5762,"ःः":5763,"भवेत् ।\n":5764,"वृत्ति":5765,"व्याख्यात":5766,"ज्यत":5767,"ोत्सव":5768,"ार्च":5769,"प्रकारेण":5770,"अधुना ":5771,"आकाश":5772,"व्याध":5773,"स्पर्ध":5774," प्रत्यक्ष":5775,"कप":5776,"धीर":5777,"शृणु":5778,"ुः,":5779,"तीत":5780,"ी न":5781," पे":5782," अस्ति ।\n":5783," प्राप्य":5784,"ान्तरे ":5785,"कृष":5786,"सम्प":5787,"ादिभ":5788,"नेपाल":5789," पश्चिम":5790,"ो वै":5791,"नुव":5792,"ाधान":5793," (=":5794," स्वप्न":5795,"यदि वा ":5796,"उपयोगकर्ता ":5797,"विदेश":5798,"िद् ":5799,"ं यत् ":5800,"ाग्नि":5801,"29":5802,"कस्म":5803,"किल":5804,"भीत":5805,"लक्ष्म":5806,"वि ":5807,"40":5808,"विकार":5809,"पुष्ट":5810,"ङ्ख":5811,"शब्देन ":5812,"प्रश्न ":5813,"-अ":5814,"- अ":5815,"com":5816,"े ऽ":5817," इत्याह":5818," कथं ":5819,"ाश्रम":5820,"प्रसारण":5821,"यिष्यामि ":5822,"चीन":5823,"ाय नम":5824," मात्र":5825,"तिरेक":5826,"ear":5827,"ोच्च":5828,"४६":5829,"ासौ":5830,"िन्व":5831,"गुह":5832,"रूपं ":5833,"ह्":5834,"े स्थित":5835,"ो धर्म":5836,"म् इत्य":5837,"न्तरे ":5838,"ापद":5839,"त्वेन":5840,"अन्यत्र":5841,"किमपि ":5842,"तिथि ":5843,"पीत":5844,"याच":5845,"ीर्थ":5846,"ुम्ब":5847,"प्रयुक्त":5848,"ात्वा ":5849," पिता ":5850,"ाङ्क्ष":5851,"ेक्षण":5852,"ाली":5853,"व्याप्त":5854," संसार":5855,"ोऽस्म":5856," समय":5857,"ew":5858,"ीति ।\n":5859,"ेँ":5860,"देशस्य":5861,"पुनः प्र":5862,"पित्र":5863,"ङ् ":5864,"न त":5865,"ाह्न":5866," गति":5867," धार":5868,"ं सह":5869,"शक्ति ":5870,"उभ":5871," कन्य":5872,"मेध":5873,"वने ":5874,"्यमान":5875,"े,\n":5876," पृथिव":5877," D":5878,"ul":5879,"नत":5880,"ति स":5881," यः ":5882,"समस्त":5883,"तमेव":5884," भूम":5885,"पर्वत":5886,"नगरे ":5887,"अत्य":5888,"णि ":5889,"येद":5890," प्रशिक्षण":5891,"श्वर्य":5892,"ास्ते ":5893," कुरु":5894,"ीश्वर":5895,"४८":5896,"ः इत्य":5897," अस्ति ":5898,"कुशल":5899,"बुद्धि":5900,"कोऽ":5901,"रास":5902," मत":5903,"ं तत्":5904," खलु":5905,"अधोलिखित":5906,"ने ।\n":5907,"यानि ":5908,"लान":5909,"षद":5910,"ौ ॥\n":5911,"स्यात् ":5912,"ति ?\n":5913,"निद्र":5914," प्रवेश":5915,"रुक्त":5916,"श्रेय":5917," श्रेष्ठ":5918,"हरण":5919,"ेया ":5920," परिवर्त":5921,"इत्थ":5922,"लाख":5923,"योर्":5924,"चित् ।\n":5925," श्रुत":5926,"यत्नेन ":5927,"व्याघ्र":5928,"us":5929,"चर्य":5930,"ं भवति ।\n":5931,"निर्वाच":5932,"ादयः ":5933,"स्वतन्त्र":5934,"ात्कार":5935,"मूर्त":5936," न्ह्य":5937,"अश्व":5938,"र्पित":5939,"शत्रु":5940,"उत":5941,"मरण":5942,"ा प":5943,"िरेव":5944,"क्षिप्त":5945,"-'":5946,"चक्ष":5947,"कारिण":5948,"योजय":5949," रथ":5950," तद् ":5951,"दिक":5952,"न व":5953,"स्यात् ।\n":5954,"ाः\"":5955," शुद्ध":5956," शास्त्र":5957,"द्वै":5958," गिर":5959,"वृष":5960,"१००":5961,"कीदृश":5962,"गते ":5963,"लग्न":5964,"७०":5965,"ं (":5966," नित्यं ":5967,"कथित":5968," सम्पाद":5969,"ं करिष्य":5970," V":5971,"जलं ":5972,"यस्तु":5973,"वस्त्र":5974,"्यै":5975,"ा मह":5976,"परीक्षा ":5977," विविध":5978,", त":5979,"मेष":5980,"राय":5981,"्--":5982,"े सं":5983," --\n":5984," स्यात":5985,"ागरिक":5986,"ov":5987,"गाम":5988,"हत्य":5989,"ी म":5990,"न आ":5991," रस":5992,"ाम् आ":5993,"पुनः ॥\n":5994,"लघ":5995,"ाक्":5996,"श्रेण":5997,"मन्व":5998,"४२":5999,"ष्क":6000,"निर्ग":6001," आप":6002," एस":6003," त्वं ":6004,"दिने ":6005,"मृग":6006," ग्रह":6007,"खाद":6008,"दित्य":6009,"सन्नि":6010,"ाणाम":6011,"व्यवस्थ":6012,"व्यवस्थित":6013,"म अ":6014,"ये\n":6015,"ेश्व":6016," भा":6017,"श्यत":6018," धात":6019,"सूच":6020,"े सति ":6021," कुत्र":6022,"ीणि ":6023," पदार्थ":6024,"मति":6025,"निवेद":6026,"करुण":6027,"ध्यते ।\n":6028,"ानि स":6029,"विद्यते ":6030," देवान":6031,"ोडश":6032,"05":6033,"हि ।\n":6034,"काव्य":6035,"ानुप":6036,"यावत् ":6037,"तच्च":6038,"पति ":6039,"ाराष्ट्र":6040,"न वि":6041," प्रती":6042,"हृदयं ":6043," लि":6044,"अङ्ग":6045,"भाज":6046,"सदृश":6047,"ैः।\n":6048,"परम्पर":6049," विश्लेषण":6050," . . .\n":6051,", क":6052,"ौ तु":6053,"५७":6054,"ः एक":6055,"प्रो":6056,"िरण":6057," सम्भव":6058,"बभूव":6059,"ः व":6060,"स्रोत":6061,"बिम्ब":6062,"wer":6063,"अस्माकं ":6064,"जन्त":6065,"शोध":6066," भय":6067,"कुर":6068," निर्ण":6069,"ार्द्ध":6070,"चारिक":6071,"नन्तर":6072,"स तु":6073,"५९":6074,"स्कर":6075," प्रयोजन":6076,"व्यम":6077,"या च":6078,"गद":6079,"भाति ":6080," आसीत":6081,"न-":6082,"हर्ष":6083,"ीक्ष्य":6084,"े-\n":6085,"ैत्र":6086,"ानर":6087,"स्य उ":6088,"ेत ।\n":6089," परिणाम":6090,"करोति ।\n":6091,"Nex":6092," गुरु":6093,"माग":6094,"े हि ":6095,"ारोह":6096,"दाहृत":6097,"ाप्नोत":6098,"व्याकरण":6099,"07":6100,"े देव":6101,"ा स्व":6102,"रुच":6103,"पिब":6104,"टल":6105,"ितम् ":6106,"द्यान":6107,"तिक्र":6108,"निवास":6109,"पुल":6110," चैव":6111,"पदि":6112," कुल":6113,"ाक्षर":6114," तमे वर्ष":6115,"कम् ॥\n":6116,"पार्श्व":6117,"ी॒":6118,"ाभाग":6119,"ा अनु":6120,"शब्दे ":6121," द्वादश":6122,"जा ":6123,"णे ":6124,"नम् ॥\n":6125,"मस्य":6126,"य ।\n":6127,"यन्ति ।\n":6128,"संबं":6129," विचार":6130,"ग्रीव":6131,"मनस":6132,"स्तोत्र":6133," प्रात":6134," प्रोक्त":6135,"समूह":6136,"*\n":6137,"ost":6138,"शतं ":6139,"स्य य":6140,"ादिना ":6141,"ावर":6142,"ालयं ":6143," नेव":6144,"द्यते ":6145,"पदं ":6146,"प्रत्ययः ":6147,"ाय ।\n":6148," तद्":6149,"यथार्थ":6150,"भगवान":6151,"ादृश्य":6152," शक्ति ":6153,"शरी":6154,"५२":6155," वर्ध":6156,"ावह":6157," ने":6158,"स्म।\n":6159," परिभाष":6160,"av":6161,"गतः ":6162,"घोष":6163,"ागार":6164,"मुच्यते ।\n":6165,"ं व्र":6166," इत्यनेन ":6167," स्वय":6168,"भिक्ष":6169,"भिप्राय":6170,"ं॒":6171," सव":6172,"ापित":6173," मृत":6174,"ाकु":6175,"क्रियते ।\n":6176,"ष्णु":6177,"सहस्राणि ":6178,"रात":6179,"सय":6180,"त्वम् ":6181,"स्वार्थ":6182,"मातृ":6183," युग":6184," सरकार":6185,"मप":6186,"्वः ":6187,"न ह":6188," स्वभाव":6189,"मनसा ":6190,"स्त्रीण":6191,"वेबसाइट":6192,"यः\n":6193,"ा इत्य":6194," पीड":6195,"ास्ति ।\n":6196,"ः काम":6197,"कोश":6198,"ातन्त्र्य":6199,"हूर्त":6200,"स्ल":6201,"ादी":6202,"त्क":6203,"ate":6204,"साहित्य":6205," f":6206,"ंट":6207,"कः ॥\n":6208,"रौ":6209,"ादान":6210,"वर्षाणि ":6211,"दल":6212,"ूट":6213," पाल":6214," इम":6215,"ब्रुव":6216,"तस्मै":6217,"कदाचित् ":6218," शक्न":6219," b":6220,"धिय":6221,"मण्ड":6222,"ः कार्य":6223,"द्रूप":6224,"ans":6225,"35":6226,"ीकृत्य":6227,"ं यदि ":6228,"ङ्कर":6229,"भूत्वा ":6230,"शाख":6231,"सः ।\n":6232,"े--":6233,"ोन्य":6234,"ति च":6235,"निरा":6236," दिव्य":6237," नह":6238," लभ":6239," त्वया ":6240,"ाप्स्य":6241,"In":6242,"ंकार":6243,"कम् ":6244,"तमे ":6245,"नष्ट":6246,"हव":6247,"़्":6248,"विवाह":6249,"ामान्य":6250," इति\n":6251,"ज्जन":6252,"योज्य":6253,"एकदा ":6254,"पीठ":6255,"कः\n":6256,"तरण":6257,"प्रदान":6258,"भवत्य":6259," लक्ष":6260,"वैश्व":6261,"द्विगुण":6262,"Answer":6263,"ff":6264,"५१":6265,"ः भवति ।\n":6266,"भवन्ति ":6267," याव":6268,"सर्वदा ":6269,"एकादश":6270,"ता ॥\n":6271,"दर्शित":6272,"हिन्द":6273,"ir":6274,"नल":6275,"भुक्त":6276,"ह्व":6277,"िकित्स":6278,"सहाय":6279,"ाट्य":6280,"वान्":6281,"ा उ":6282," समस्त":6283,"िदं ":6284,"मेव ।\n":6285,"पृथक् ":6286,"100":6287," दिनाङ्क":6288,"ः;":6289," द्वौ":6290,"राष्ट्रीय":6291,"मिच्छ":6292,"वेग":6293,"स्फुट":6294,"ak":6295,"कानि ":6296,"ता\n":6297,"ीतः ":6298,"५६":6299,"मान्त":6300,"भूषण":6301," \"अ":6302,"ार्क":6303," प्रत्यय":6304," मानव":6305," ग्राम":6306,"चत":6307,"नः\n":6308,"ाभव":6309,"दुग्ध":6310,"गच्छति ":6311,"  ":6312,"ले":6313,"िभ्य":6314,"प्रम":6315," सत":6316," कस्य":6317," ताव":6318,"ासः ":6319,"ान् ॥\n":6320,"दुष":6321,"ER":6322,"im":6323,"अ)":6324,"कोऽपि ":6325,"भो":6326,"स\n":6327,"ा--":6328,"विच":6329," केन्द्र":6330,"जीवनं ":6331,"नाप":6332,"मात्म":6333,"होम":6334,"िज्य":6335,"ियोग":6336," एते ":6337,"ञ्जल":6338,"पक्षे ":6339,"ं निर्म":6340,"संख्या ":6341," जनवरी ":6342,"ः.\n":6343,"के ।\n":6344,"तास":6345,"प्रतिक":6346,"न एव":6347," प्रसिद्ध":6348," शीत":6349,"ोरात्र":6350," एतत् ":6351," =>":6352,"घव":6353,"ा)\n":6354,"ाहित":6355,"धिकारिक":6356,"अ -":6357,"आसीत् ।\n":6358,"गत्य":6359,"सत्":6360,"भवता ":6361,"संस्थान":6362,"ं प्राप्य":6363,"फलकम":6364,"ध्वज":6365,"ौकिक":6366,"ाञ्छ":6367,"्प":6368,"प्रयत्न":6369," प्ल":6370,"त्रिक":6371,"ं चैव":6372," प्रतिष्ठ":6373,"नील":6374," पेपर":6375," ध्यान":6376,"ड् ":6377,"य एव":6378,"शरण":6379," प्रवृत्त":6380,"द्वौ":6381,"प्रतीत":6382," क्षम":6383,"काण":6384,"खर":6385,"ना\n":6386,"न्देश":6387,"श्चित्त":6388,"ोऽन्य":6389,"ज्ञानिक":6390," वर्ष\n":6391,"&\n":6392,"ik":6393,"तै":6394,"ैनं ":6395,"ो मे ":6396,"ष्कृत":6397,"ज्ञा ":6398," स्वाम":6399," लाख":6400,"ोपदेश":6401," हि ।\n":6402,"पीसी":6403," >":6404,"शंस":6405,"ं परम":6406,"नियत":6407," स्फ":6408," #":6409,"oo":6410,"णु":6411,"दस्य":6412,"नाग":6413,"मंत्र":6414,"हस्य":6415,"े सु":6416,"ः परम":6417,"ारोप":6418,"पराज":6419," स्वतन्त्र":6420,"सा च":6421,"कः -":6422," देवत":6423,"धन्यवाद":6424,"शक्न":6425," विकिपीडिया\n":6426,"pr":6427,"ौ,":6428,"ान\n":6429,"ो यदि ":6430,"नियोग":6431,"तुष्ट":6432,"भूमि":6433,"एतस्य":6434," खेल":6435,"निश्चित":6436,"\"आ":6437,"ec":6438,"शौ":6439,"ं परि":6440,"रिप":6441,"पुरा ":6442," द्रष्ट":6443,", म":6444,"पशु":6445,"शन":6446,"शव":6447," नो ":6448,"ाधान्य":6449,"न्दिर":6450,"भिर्":6451,"तदाह":6452," राजन":6453,"(ङ":6454,"आयु":6455,"कान्त":6456,"दीन":6457,"धुर":6458,"बलं ":6459," सन्ति ":6460,"ीयते ॥\n":6461,"कुतः ":6462,"भूतं ":6463,"ा अस्त":6464," शक्यते ।\n":6465,"ऋत":6466,"नन्त":6467,"मस्ति ":6468," दैव":6469,"र्ति ":6470,"म् अव":6471," कृष्ण":6472,"प्रसन्न":6473,"द्रष्टव्य":6474,"ोन्न":6475,"द्यम":6476,"ीया ":6477,"ेन सम":6478,"पितामह":6479,"पद्यते ।\n":6480,"ाद्वि":6481,"स्य र":6482," अस्मिन् ":6483,"ते ?\n":6484,"त्वम् ।\n":6485,"ज्ञेयं ":6486,"तुर":6487,"या ॥\n":6488,"ं वच":6489,"ः प्रथम":6490,"भूतेषु":6491," ङीप":6492,"तः":6493,"भवेत् ":6494,"ियम":6495,"िवाद":6496,"ाशङ्क":6497,"े प्रथम":6498," ...":6499,"शति":6500,"ाउ":6501,"ि:\n":6502,"ेः\n":6503,"न ॥\n":6504," अमेरिक":6505," बन्ध":6506,"ः आसीत् ।\n":6507,"08":6508,"ं.":6509,"े;":6510,"ः पुत्र":6511,"प्राप":6512," तर":6513,"एवम":6514,"ं तर्हि ":6515," सुर":6516,"कार्याणि ":6517,"Answer:":6518,"तन्म":6519,"नः ॥\n":6520," नृप":6521,"लोकान":6522,"मात्रेण":6523,"स्थापित":6524,"द् प्रति ":6525,"सैन्य":6526,"न्ती":6527,"पुरो":6528," - वि":6529," भर्त":6530,"कर्त्तव्य":6531,"क-":6532,"कदा ":6533,"मत्":6534,"षित":6535,"ृङ्ग":6536,"ं पूर्व":6537,"ोऽध्याय":6538,"क्ष्यामि ":6539,"\"स":6540,"(i":6541,"ाय च":6542," कम":6543,"भवितव्य":6544," दण्ड":6545," यात":6546,"ालयः ":6547,"ष्यत":6548," व्यवसाय":6549,"क्वचित् ":6550,"प्रकृति":6551,"पास":6552,"े इति ":6553,"प्रेत":6554," साल":6555,"भवन":6556,"ाहु":6557,"कार्यक्रम":6558,"ut":6559,"क् ।\n":6560,"नद्य":6561,"ी.\n":6562,"ोचित":6563,"्]":6564,"ः परि":6565," सङ्ग":6566,"न (":6567," संस्थान":6568,"न्दोल":6569,"पर्याप्त":6570,"ानि पृष्ठानि ":6571,"ापूर्व":6572,"गरे ":6573,"भोक्त":6574,"शः ।\n":6575,"सर्प":6576,"ु.":6577,"ेद्":6578,"ौ\n":6579,"ं कुर्व":6580,"ासाद":6581," न हि ":6582," परिसन्ध":6583,"पेपर":6584,"षष्ट":6585,"िमान":6586,"एवं च":6587,"एवमेव":6588,"गः ":6589,"वर्ज":6590,"ाच्य":6591,"पित्त":6592,"कल्याण":6593,"जगत":6594,"धिर":6595,"धान्य":6596,"यस":6597,"्यन्त":6598,"ं भवति ":6599,"कर्म्म":6600,"ाध्यक्ष":6601,"ादीनि ":6602,"खेल":6603,"ीज":6604," सेन":6605,"परित्य":6606,"िनो ":6607,"कारस्य":6608,"द्वन्द्व":6609,"मुच्यत":6610," गम":6611,"ास्याम":6612,"ूतन":6613," रुपये ":6614,"ग्रीष्म":6615," c":6616,"सन् ":6617,"े '":6618,"न्तरिक्ष":6619," मय":6620," चित्त":6621,"स्मिन्":6622,"क्षणिक":6623,"ः अस्म":6624,"ं काम":6625,"१९७":6626,"भ्रष्ट":6627," लिख":6628,"दिति ":6629,"सञ्":6630,"ृति ":6631,"भावेन ":6632,"ब्रू":6633,"ाभ्यास":6634,"मेरे ":6635," निर्माण":6636,"मधु":6637,"शम":6638,"सात":6639,"ोपरि ":6640,"ं दृष्ट्वा ":6641,"व्यास":6642,"ाशु":6643," समूह":6644," राजा ":6645,"ततश्च":6646,"श्रुति":6647,"शोक":6648,"धनं कुर्वन्त":6649,"संबंधनं कुर्वन्त":6650,"न द":6651," विवाह":6652,"कर्माणि ":6653,"क्रिया ":6654,"पुरस्कार":6655,"ं करोत":6656,"जापत":6657,"द् प्रति संबंधनं कुर्वन्त":6658,"घन":6659,"्\n":6660,"ायन":6661,"द्व्य":6662,"प्रतियोग":6663,"ः आसीत":6664,"न केवलं ":6665,"णीय":6666,"यति":6667,"ि!\n":6668,"माता ":6669,"ार्षिक":6670,"घाट":6671,"व्यायाम":6672,"स्वय":6673,"ियोजन":6674,"शेषः ।\n":6675," किञ्च":6676," जुल":6677,"06":6678,"तदु":6679,"प्स":6680," वीर":6681,"ेतर":6682,"तीन":6683," धक":6684,"मनसि ":6685,"भाषित":6686," प्रतिषेध":6687," स्पष्ट":6688,"chiv":6689,"ंद्र":6690,"गज":6691,"ैनिक":6692,"प्रीत":6693,"गुप्त":6694," जि":6695,"जनक":6696,"ं करोति ":6697,"ऊर्ज":6698,"धूम":6699,"ुज":6700,"ाराज":6701,"भवेत् ॥\n":6702," यतो ":6703,"राक्षस":6704,"महान":6705,"च।\n":6706,"जाग":6707,"ो-":6708,"्यह":6709," मिल":6710,"संस्थित":6711,"ेण च":6712,"दीप्त":6713,"क्षेत्रे ":6714,"32":6715,"भक्ष":6716,"न त्व":6717,"ो मम":6718,"ावेश":6719,"ात्पर":6720,"अधोलिखितानि पृष्ठानि ":6721,"] ।\n":6722,"पो":6723,"ं यद":6724,"ा देव":6725,"ेषु सर्व":6726,"एतत्":6727,"दु ।\n":6728,"त्थाय":6729," करोति ":6730," O":6731,"अभ्य":6732,"ो.":6733," तेज":6734," वार":6735,"ावपि ":6736,"ं यत्र":6737,"ाख्यान":6738,"वेद्य":6739," राज्ञ":6740,"आसीत":6741,"म्र":6742,"सृ":6743,"सत्त":6744,"ं ल":6745,"ं ज्ञान":6746,"ः '":6747," कान":6748," तय":6749,"ज्ञास":6750,"ाशक्त":6751,"ाभावि":6752,"र्य्य":6753,"मनोर":6754,"शुच":6755,"क्रियाय":6756,"ुमिच्छ":6757,"ाप्नुय":6758," मूल्य":6759,"टिप्पणिय":6760,"४३":6761,"स्याद":6762,"ेन।\n":6763,"वादी":6764," व्यायाम":6765," पुनर्":6766,"एन":6767,"कि ":6768,"घोषण":6769,"णि":6770,"पिण्ड":6771,"वंश":6772,"ू॒":6773," धारा ":6774," E":6775,"गति ":6776,"ज्वर":6777,"नान्य":6778,"ैस्त":6779,"्यान":6780,"ारभ्य":6781," पौ":6782,"द्वेष":6783," //":6784,"ात्त्व":6785,"तस्त":6786,"ं सुख":6787,"प्राग":6788,"ादय":6789,"राजान":6790,"ार्ज":6791,"विद्यु":6792,"हृदि ":6793," मध्यम":6794," पितृ":6795," द्वारा टिप्पणिय":6796,"ज्व":6797,"टि ":6798,"न,":6799,"रक":6800,"ा॰":6801,"ं जन":6802,"ः कु":6803," तत्त":6804," उभय":6805,"यमपि ":6806,"े प्राप्त":6807," //\n":6808,"मूर्ख":6809,"आत्मन":6810,"(ङ)":6811,"वनं ":6812,"ी)\n":6813,"ु\"":6814,"ान्यत":6815,"प्रय":6816," स्र":6817," तौ":6818,"ेन वि":6819,"ाभारः ":6820,"श्याम":6821,"बहुधा ":6822," भगवान् ":6823,"कुरुते ":6824,"मभि":6825,"रय":6826,"ीः\n":6827,"्नं ":6828,"९०":6829,"ो जन":6830," प्रथ":6831,"िके ":6832," यम":6833," विज्ञान":6834," च\n":6835," संस्थित":6836," अथवा ":6837,"योजक":6838,":-":6839,"गन्त":6840,"छु":6841,"े उ":6842,"ा सम":6843,"ेन वा ":6844," बि":6845,"ेऽप्य":6846,"न्द्रिय":6847,"पुरात":6848,"अन्वयः -":6849,"पंच":6850,"ीदृश":6851,"ो यो ":6852," दिवस":6853,"रहस्य":6854,"31":6855,"कक्ष":6856,"रेख":6857,"ितवान् ।\n":6858,"स्य द":6859,"ादाय":6860,"ापत्त":6861,"एवम् ":6862,"् अपि ":6863,"पर्याय":6864,"भूमौ":6865,"ञ् ":6866," वात":6867," नु":6868," बृह":6869," स्यात् ":6870," समुदाय":6871,"गु खँ":6872,"चिकित्स":6873,"rchiv":6874,"तल":6875,"पद्ध":6876,"िश्र":6877,"ो-\n":6878," वास":6879,"करूप":6880,"मानि ":6881," उत":6882,"न्नाम":6883,". . .":6884,"गोचर":6885," परमेश्वर":6886,"करोत् ।\n":6887,"एससी":6888,"मयं ":6889,"ु.\n":6890,"ेक्ष्य":6891," वच":6892,"ावल":6893,"योर्म":6894,"महोद":6895,"कालिक":6896,"ा अस्ति ।\n":6897,"विश्वास":6898,"दूरे ":6899,"दद्य":6900,"पचारिक":6901,"मन्त":6902,"ृथ":6903,"५८":6904,"्याय":6905,"ं दर्श":6906,"विस्तर":6907,"निल":6908,"ोऽप्य":6909,"िदपि ":6910,"ं विशेष":6911," खः ।\n":6912,"ात्पर्य":6913,"MSS@":6914,"अज":6915,"कत":6916,"नृत्य":6917,"ोतु":6918,"निर्ध":6919,"द्धित":6920,"ाकुल":6921,"ः प्राण":6922,"ैरपि ":6923,"मन्त्रिण":6924,"भुज":6925,"प्लव":6926,"निर्दिष्टम":6927,"ीते ":6928,"नुष":6929,"कृत्व":6930,"लोभ":6931," गते ":6932,"ं प्रोक्त":6933,"एतादृश":6934,"अतीत":6935,"नाभ":6936,"फु":6937,"ा;":6938,"५४":6939,"े ध":6940,"न्यू":6941,"ाशक्ति ":6942," समस्य":6943,"सम्पन्न":6944,"तदपि ":6945,"उपाय":6946," भारतस्य":6947,"वन्तः ।\n":6948,"ुँ":6949,"ोः\n":6950,"ं कुर्य":6951,"द्ग":6952," शरण":6953," - अथ":6954,"ं वस्तु":6955,"प्रतिदिन":6956,"पितु":6957," नेपाल":6958," ज्ञात":6959,") इत्य":6960,"हो ":6961,"हंस":6962,"िप्र":6963,"ा सं":6964,"विस्त":6965,"ातव्य":6966,"ाणाम् ":6967," आई":6968,"ोऽस्मि ":6969," धीम":6970,"पदिक":6971,"ं पाप":6972,"पर्यावरण":6973,"विद्यालये ":6974,"lin":6975,"पदेश":6976,"ृ॒":6977," सभ":6978," चन्द्र":6979," उच्यत":6980,"कर्तृ":6981," जुइ":6982,"मन्दिर":6983,"38":6984,"बो":6985," सहित":6986,"क्ख":6987,"ाशय":6988,"लोचन":6989,"सिद्धान्त":6990," अनुकूल":6991," फलं ":6992," दृढ":6993," G":6994,"-आ":6995,"अन्तर":6996,"मद्य":6997,"यच्च":6998,"िर्व":6999,"स्माद":7000,"र्षिक":7001,"ार्थी":7002,"तत्रैव":7003,"ुवाच":7004,"),":7005,"सः अ":7006,"़ि":7007,"विस्म":7008,"स्तम्भ":7009," चल":7010,"नुप":7011,"ं साध":7012,"सम्बद्ध":7013,"ोधन":7014,"ैर् ":7015,"ध्वन":7016,"मूढ":7017,"व्यक्ति ":7018,"ीट":7019,"े एक":7020,"ानेन ":7021," कार्यक्रम":7022,"ेत्ति ":7023,"New":7024,"(iii)":7025,"तात":7026,"भि ":7027,"ाझ":7028,"ाज्ञान":7029,"ं ॥\n":7030,"म् ,":7031," अष्ट":7032,"त्यु":7033," यश":7034,"ः सप्त":7035,"मिश्र":7036,"तरं ":7037,"ोश":7038,"्यु":7039,"द्रु":7040,"देशीय":7041,"ं तेन ":7042,"ात्स":7043,"भूतानि ":7044,"यितु":7045,"\"न":7046,"(v":7047,"टे":7048,"हण":7049,"ेः।\n":7050,"प्रवर्त":7051," यो":7052,"ेश्च":7053," आवश्यक":7054,"ेन सर्व":7055,"तदर्थ":7056,"शब्दस्य":7057,"विकिपीडिय":7058,"तम् ।\n":7059,"नात्र":7060,"रत्न":7061,"ी क":7062,"ावस्थ":7063,"त्वय":7064,"१९८":7065,"ततः स":7066,"वीर्य":7067,"पि\n":7068,"ी भव":7069,"ाय्य":7070,"निवार":7071," प्रभ":7072," विशिष्ट":7073," श्लोक":7074,"सुवर्ण":7075,"ाभेद":7076,"श्राद्ध":7077," न शक्य":7078,"धिकरण":7079,"विषयः ":7080,"ल्लेख":7081,"ाश्रित्य":7082,"ब्रह्मण":7083,"ायुध":7084," . .":7085,". प":7086,"पच":7087,"हर्त":7088,"ीरे ":7089," मद":7090,"भावित":7091,"विधाय":7092,"१९४":7093,"अहम् ":7094,"36":7095,"li":7096,"ं॑":7097,"ग् ":7098,"यस्व":7099,"ोपि ":7100,"ितवान":7101,"गु द":7102,"कृतम":7103,"नं न ":7104,"कुश":7105,"ं तत् ":7106,"भक्त्या ":7107,"ान्वित":7108,"ः.":7109,"रा ":7110,"वाज":7111,"ौद्ध":7112,"ादयो ":7113,"कृतं ":7114,"ाभू":7115," स्वाह":7116,"शब्दः ":7117,"जानात":7118,"किमर्थ":7119," घोषण":7120," ः\n":7121,"भिम":7122,"ेभ":7123,"प्रविष्ट":7124,"ायुक्त":7125,"निस":7126,"भवतु":7127,"ेत।\n":7128," शिर":7129,"मुच्यते ":7130," निज":7131,"ः सत्य":7132,"ं विष":7133,"यित्व":7134,"दिनाङ्क":7135," सामाजिक":7136,"इदानी":7137,"वम":7138,"ीच":7139,"क्थ":7140," अग्र":7141,"ालयस्य":7142,"ज्योत":7143," स्थिर":7144,"ल्याण":7145," कृष":7146,"राज्यस्य":7147," पृथिव्य":7148,"कः क":7149,"रः ।\n":7150,"६५":7151,"र्न ":7152," तेन":7153," यतः ":7154,"संघ":7155,"त्ते ":7156,"ाभार":7157,"भेदेन ":7158,"the ":7159,"पृथिवी":7160," .":7161,"दरिद्र":7162,"रति ":7163,"ून् ":7164,"निरी":7165,"त्रयं ":7166," माम":7167,"त्तु":7168,"सम्प्रति ":7169,", न ":7170,"अल्प":7171,"आः ":7172,"क\n":7173,"ु-\n":7174," वक्त":7175,"संस्":7176," विनाश":7177," एम":7178,"ाश्रित":7179,"स्ट्र":7180," युष्म":7181,"ठिन":7182,"बध":7183,"सकल":7184,"विध्य":7185," इतिहास":7186,"श्वास":7187,"ोपाय":7188,"वैद्य":7189,"वादिन":7190,"ान्द":7191,"अतएव":7192," कर्त्त":7193,"ुम् इच्छ":7194,"पुण्यं ":7195,"37":7196,"तश्च":7197,"॑ः":7198,"ा सर्व":7199,"स्य तु":7200,"ज्ञायते ":7201,"मेघ":7202,"चेष्ट":7203,"नेन सह":7204,"लाग":7205,"ाथम":7206," शर":7207,"ीयमान":7208," संसाध":7209," स्वी":7210,"ीपी":7211,"स्पत":7212,"विवरण":7213,"तान् ":7214,"शैल":7215,"िकाल":7216," नाश":7217,"एव ।\n":7218," विप्र":7219," इति च":7220,"पुनः क":7221,"इत्यत्र":7222,"तथा ।\n":7223,"विशेषेण":7224,"चिन्त्य":7225,"स्फोट":7226," कीर्त":7227,"09":7228,"कष्ट":7229,"घोर":7230,"नप":7231,"लज्ज":7232,"िस्थान":7233," पाव":7234," यात्र":7235,"एवं स":7236," भि":7237," यद् ":7238,"धुनिक":7239," दुर्लभ":7240,"टिक":7241,"दम":7242,"दह":7243,"ोढ":7244,"ोवाच":7245,"ं मन":7246," लक्ष्य":7247,"ादिभ्य":7248,"िष्यत":7249," द्विज":7250,"ः - ":7251,"स्मात् पुनर्":7252,"Next":7253,"गङ्ग":7254,"थवा ":7255,"पार्थ":7256,"भान":7257,"यी":7258,"यत्य":7259,"यम् अ":7260,"ीनं ":7261,"ू.":7262,"स्य मह":7263," अग्न":7264," - क":7265,"ध्यते ":7266,"पूर्वोक्त":7267," विशेषण":7268,"वस्तुतः ":7269,"वती ।\n":7270,"ायै नमः ।\n":7271,"विष्णु":7272,"स्मात् पुनर्निर्दिष्टम":7273,"ex":7274,"l\n":7275,"गन्तव्य":7276,"चैव":7277,"जेत":7278,"जन्मन":7279,"नश्य":7280,"पाण्ड":7281,"ं स्थान":7282,"प्रेम":7283,"निन्द":7284,"ावश्य":7285,"ाह ।\n":7286," हेतु":7287,"देशः ":7288," पुष्प":7289," खोज":7290,"१९५":7291,"ज्ञायत":7292," चतुर्थ":7293,"ं\"":7294,"मरु":7295,"माध":7296,"मप्य":7297,"ावृत":7298,"री\n":7299,"२०२":7300,"समुप":7301,"39":7302,"SE":7303,"च \"":7304,"र\n":7305,"ौः":7306,"ं लोक":7307,"ा पर":7308,"ो व्य":7309," माय":7310," प्राधिकरण":7311," - आ":7312,"ागतं ":7313,"िरण्य":7314," (?\n":7315,"ं तप":7316," रक्त":7317,"ण्डित":7318," इत्यादिना ":7319,"निर्णय":7320,"सस्य":7321,"हन्य":7322,"विक्र":7323," वित्त":7324,"ालो":7325,"ेषाम":7326,"था ।\n":7327,"शिश":7328," पद\n":7329," व्यवहार":7330,"गता ":7331,"दै":7332,"न सं":7333,"सञ्च":7334,"ौ प्र":7335," अस":7336," अन्व":7337,"भवन्ति ।\n":7338,"द्भ्य":7339," भवान् ":7340,"किम् ":7341," एतद":7342,"45":7343,"ं-":7344,"वत्त":7345,"ॊक":7346,"५३":7347,"े भेद":7348," त्वा ":7349,"त्रै":7350," इतर":7351,"संवाद":7352,"ेऽस्मिन् ":7353," सुरक्ष":7354,"\" इत्य":7355,"ङि ":7356,"ण्व":7357,"लाप":7358,"वस्थित":7359,"वरिष्ठ":7360,"ाक्त":7361,"े र":7362," सत्त्व":7363," किल":7364," बु":7365,"िण्य":7366,"ापि न ":7367,"ात्मनि ":7368,"गम्यत":7369," सदस्य":7370," H":7371,"हस":7372," सृष्ट":7373,"ाः॥\n":7374," गौ":7375,"ने ॥\n":7376,"साधु":7377,"मेरिका ":7378,"ोर्ट":7379,"ः)\n":7380,"दक्ष":7381,"सृत":7382,"न्तं ":7383,"ते न ":7384,"िकान":7385,"स्वर्ण":7386,"भूता ":7387,"एतद् ":7388,"पश्यत":7389," आत्मन":7390," ग्रन्थ":7391,"'अ":7392,"- '":7393,"चु":7394,"धाम":7395,"नम् अ":7396,"विपरीत":7397," तः ":7398,"न्मे ":7399," वार्त":7400,"योदश":7401,"ेण सह":7402,"एतानि ":7403,"ात्मज":7404,"ीं\n":7405,"दिल्ल":7406,"ार्ट":7407,"सिष्ठ":7408,"इन्द्रिय":7409,"ाम्\n":7410,"ंविध":7411,"कै":7412,"भूप":7413,"रो ":7414,"ः पुन":7415,"ा वै":7416,"क्षीण":7417," वा ।\n":7418,"ोऽस्ति ":7419,"प्रतिपत्त":7420,"तदनु":7421,"ं मय":7422,"कार्य्य":7423,"द्विध":7424,"मिथ":7425," हृदय":7426,"US":7427,"अयम् ":7428,"दात्त":7429,"मत्स्य":7430,"लय् ":7431,"ितानि ":7432," कर्ण":7433,"त्रिम":7434," प्रकरण":7435,"तिम":7436," चेत":7437,"क्राम":7438," उच्यते ।\n":7439,"श्रोत":7440,"ारण्य":7441,". . . . ":7442,"१९६":7443,"वेष्ट":7444,"rchives":7445,"वाक":7446,"वाक्यं ":7447,"ाल्य":7448," विरोध":7449," भोजन":7450,"श्राव":7451,"ब्ज":7452,"ं प्रथम":7453,"भाव्य":7454,"द्विविध":7455,"ो यत्र":7456,"Home \"":7457,"स्पृश":7458," d":7459,"वत्":7460,"ाओ":7461,"ौ ":7462,"ामर्श":7463,"ो विध":7464," कव":7465," शिष्य":7466,"न्यत्र":7467,"ेण ।\n":7468," एव।\n":7469,"र्गत":7470," लघु":7471,"ग्ल":7472,"०००":7473,"धीरे ":7474,"our":7475,"िस्तान":7476," {":7477,"कं च":7478,"नहि ":7479,"क्लि":7480," काय":7481,"भवित":7482,"ं तदा ":7483,"ः अभवत् ।\n":7484,"सामर्थ्य":7485,"म् आसीत् ।\n":7486," भाषण\n":7487,"um":7488,"ं)":7489,"अमेरिक":7490,"़े":7491,"ा/":7492,"ाफ":7493,"ृक्ष":7494," सन्द":7495,"ारे ":7496," एवम":7497,"ात्मना ":7498,"जातीय":7499,"सामाजिक":7500,"वार्षिक":7501,"op":7502,"लक":7503,"ार्व":7504,"निरोध":7505,"ासीत":7506,"ेन क":7507,"व्यु":7508," भार्य":7509,"ाशब्द":7510," उवाच":7511," नाम्न":7512,"बहव":7513," स्नान":7514,"वन ":7515,"वापि ":7516,"ं धर्म":7517,"संग":7518," नै":7519,"्मुख":7520,"ेषु वि":7521,"सि\n":7522,"ानुष":7523,"वाचक":7524,"इदम् ":7525,"स्य प्रथम":7526,"लभते ":7527,". प्र":7528,"औषध":7529,"डी":7530,"नापि ":7531,"सद्य":7532,"६२":7533,"ः _":7534,"ा ज":7535," सकल":7536,"स्य,":7537," वेत":7538,"परायण":7539,"स्वतः ":7540,"मान्य":7541,"भावे ":7542,"ेषु ।\n":7543,"अति ":7544,"कलं ":7545,"खित":7546," सख":7547,"ारित":7548,"निग":7549,"द्दिश्य":7550," नान":7551," नास्ति ":7552," आव":7553," भवतः ":7554,"व्रज":7555,"व्रीह":7556," सिध्य":7557," पीसी":7558,"ad ":7559,"for":7560,"णा ":7561,"पवित्र":7562,"याग":7563,"ोत्":7564,"०२०":7565,"ं पद":7566," शै":7567,"महिल":7568,"ेऽह":7569,"दृष्टान्त":7570,"ोदाह":7571,"अनुवाद":7572,"अहो ":7573," यूयं ":7574,"44":7575,"इमे ":7576,"धेय":7577,"रिति ":7578,"सत्तम":7579,"ं कु":7580,"िकः ":7581,"व्यतिरेक":7582," विद्व":7583," आकाश":7584,"च्छत":7585," बाह्य":7586,"लिखत":7587,"कुर्वन्ति ":7588," धन्यवाद":7589,"ः+":7590,"अयम":7591,"ू-":7592," साध्य":7593,"ाचल":7594,"ः साध":7595,"ेति ॥\n":7596,"बहूनि ":7597,"राधिप":7598," F":7599,") -":7600,"33":7601,"ंध":7602,"गाव":7603,"मिम":7604,"माध्यम":7605,"ृ.":7606,"६८":7607," अल":7608," अन्तर":7609,"िनाम":7610,"ात् प्र":7611,"्यं न ":7612,"ोऽनु":7613,"लोम":7614,"ेषु ":7615,"र्याद":7616,"ं सत्य":7617,"न् ॥\n":7618,"पादान":7619,"दृष्ट्या ":7620,"उच्चारण":7621," इत्यस्य संस्करण":7622,"हः ":7623,"ा#":7624,"्̣":7625,"क्रुद्ध":7626," पुष्ट":7627,"ः अनु":7628,"विशेषः ।\n":7629,"ाप्नो":7630,"श्नु":7631," भगवान":7632,"पत्नी":7633," कृपया ":7634,"(स":7635,"नद":7636,"शक्र":7637,"क्ष्यत":7638,"न्\n":7639,"ासनं ":7640,"मुञ्च":7641,"सुप्त":7642,"ोऽत्र":7643,"शिक्षु":7644,"भेदे ":7645,"सार्व":7646,"वसन्त":7647,"िता ॥\n":7648,"हृदये ":7649,"गोत्र":7650," वर्तत":7651,"ःया ":7652,"कण्ठ":7653,"छाय":7654,"दास्य":7655,"नोप":7656,"हय":7657,"त्र्त":7658," मिथ":7659," - \"":7660," उदाहरण":7661,"ं न च":7662,"सङ्घ":7663,"Tag:":7664,"y\n":7665,"हृष्ट":7666,"विग्रह":7667,"ारं ":7668,"ो ।\n":7669,"त्वं न":7670,"त्वयि ":7671,"स्थाप्य":7672,"ाभूत":7673,"ास्तव":7674,"पुनः\n":7675,"ि,\n":7676,"नाम ।\n":7677,"तेषाम":7678,"तावत् ":7679," ऋष":7680,"यजमान":7681,"त्यक्त्वा ":7682," n":7683,"(iv":7684,"किय":7685,"काक":7686,"तू":7687,"हे":7688,"ीथ":7689,"०९":7690," स एव":7691,"स्य\n":7692,"यः प्र":7693,"गृह्यत":7694,"शुल्क":7695,"ाणि च":7696," वेबसाइट\n":7697,"भोजनं ":7698,"48":7699,"कित":7700,"गतम":7701,"घण्ट":7702,"नेद":7703,"नदी":7704,"पन":7705,"ैर्म":7706,"६४":7707,"ः भवत":7708,"निष्ट":7709,"निर्य":7710," वस":7711," वित":7712," मरण":7713,"ासत":7714,"ं मध्य":7715,"I\n":7716,"अर्ध":7717,"आश":7718,"उवाच":7719,"पद्म":7720,"रल":7721,"ाे":7722,"ृं":7723,"ेरण":7724,"विपर्य":7725,"त्रीणि ":7726,"त्वर":7727,"श्रय":7728,"ान्तरेण":7729,"वयव":7730,"धिष्ठिर":7731,"आगत":7732,"पश":7733,"ं रूप":7734,"म् न ":7735,"ष्कर":7736,"या सह":7737,"ाधीन":7738," हिम":7739," गर्भ":7740,"ल्लभ":7741," भाषा ":7742,"सप्ताह":7743," मातृ":7744," द्रव्य":7745," N":7746,"फोट":7747,"वज्र":7748,"ो स":7749,"क्ष्व":7750," वायु":7751," शोभ":7752,"द्रव":7753," धारण":7754,"अयं वर्ग":7755," पुस्तक":7756,"परिमाण":7757,"Pre":7758,"a\n":7759,"ub":7760,"देय":7761,"ददात":7762,"ध्द":7763,"नह":7764,"षोडश":7765,"सक्त":7766,"ाफल":7767,"७५":7768," अधि":7769,"ापत":7770," विश":7771," चक्र":7772,"िरित्य":7773," प्रतियोग":7774,"सुखद":7775," सम्पूर्ण":7776,"मृत्यु":7777,"os":7778,"ि)\n":7779,"७१":7780," कथम":7781," अस्माक":7782,"ासुर":7783," नास्त":7784,"रुद":7785," निवेद":7786," श्री":7787,"पतित":7788,"द्भुत":7789,"कति":7790,"नक्षत्र":7791,"से ।\n":7792,"ेच":7793,"ं पुरुष":7794,"ारद":7795,"स्य न ":7796,"क्षिक":7797," पि":7798,"न्तः ":7799,"ध्यक्ष":7800,"ष्ठान":7801,"कुम्भ":7802,"ः प्राप्त":7803,"ीनाम":7804,"ाविष्ट":7805,"ed ":7806,"शस्य":7807,"प्रज्ञ":7808,"विक्रम":7809,"ो यस्य":7810," पार्थिव":7811," प्रकार":7812,"समाह":7813,"ेतद":7814," विद":7815," विदेश":7816,"तुर्थ":7817," निवृत्त":7818,"यितुम":7819,"पद्यते ":7820,"नन्व":7821,"मत्र":7822,"६१":7823,"ा सह":7824,"स्य सर्व":7825," पात":7826,"ापक":7827,"ास् ":7828,"ती ।\n":7829,"ता च":7830,"े सप्त":7831," अनुवाद":7832,"मिथ्य":7833,"अपेक्ष":7834,"स्कन्ध":7835,"ड्ड":7836,"पार्थिव":7837,"ेथ":7838,"न्स":7839,"िक् ":7840,"कृतम् ।\n":7841," गत्वा ":7842,"ः सदा ":7843,"ः प्रोक्त":7844,"ानुकूल":7845,"पितर":7846,"ः पाठ":7847,"ततः प्र":7848,"जगति ":7849,"मरः ।\n":7850," $":7851,"34":7852,"ब्य":7853,"यद्":7854,"यन्न":7855,"ाज्":7856,"ि॰":7857,"ेनं ":7858,"ातृ":7859,"ो लोक":7860,"ायत्त":7861,"ेन तु":7862,"पि च":7863," भुव":7864," (स":7865," संभव":7866,"निश्चय":7867,"Home ":7868,"कूट":7869,"ताम् ":7870,"भिन":7871," वह":7872,"समाध":7873,"श्च ।\n":7874,"श्रिय":7875," रक्षण":7876," निवेश":7877,"ः कि":7878,"पूर्वेण":7879,"कर्तु":7880,"ः शिव":7881," षष्ठ":7882,"रावण":7883,"देहि ":7884,"वस्थ":7885,"िद्य":7886,"ूलं ":7887,"प्रेष":7888,"प्राचीन":7889,"विस्तार":7890,"ारब्ध":7891," ताप":7892,"ते तु":7893," वाह":7894,"ेन व":7895," - न ":7896,"एका ":7897," धातु":7898,"ीव्र":7899," श्रद्ध":7900,"नीच":7901," यथार्थ":7902," अध्ययन ":7903," इत्यस्य संस्करणे भेद":7904,"XX":7905,"ter":7906,"इति\n":7907,"िनि":7908,"ैस्तु":7909,"ौ वि":7910,"्वी":7911,"ा इव":7912,"स्तत्":7913," दद":7914," - यदि ":7915,"स्विन":7916,"मुत्तम":7917,"ेन स्व":7918," प्रतिपाद":7919,"र्जन्य":7920," दुष्ट":7921,"म् आर":7922,"शक्यत":7923,"उच्यत":7924,"शाक":7925,"ा यथ":7926," पाक":7927,"परित":7928,"िः\"":7929," नेत":7930,"तुम":7931,"ान्तु":7932,"ं सप्त":7933,"ेति च":7934,"बहून":7935,"युज्यते ।\n":7936," साहित्य":7937,"ंगु":7938,"अधि":7939,"तक":7940,"मेय":7941,"रचित":7942,"्-\n":7943,"े ग":7944,"े तस्य":7945,"न्मुक्त":7946,"सर्वकार":7947,"मानु":7948,"ार्दन":7949,"ः पाप":7950,"कश्चित् ":7951," सङ्ख्य":7952,"युष्माक":7953,"SC":7954,"अक्ष":7955,"िलं ":7956,"ु'":7957,"७६":7958,"ातर":7959,"ामः ।\n":7960," वत्स":7961," इयं ":7962," यत्न":7963,"संकल्प":7964," विमान":7965," संबन्ध":7966," निमित्त":7967,"ेषु प्र":7968,"एताव":7969,"ः किम":7970,"ान्स":7971,"भ्रमण":7972,"प्रशस्त":7973," (),":7974,"लभ्यत":7975," त्याग":7976," ग्र":7977,"मग्न":7978,"याज":7979,"यसि ":7980,"सर्जन":7981,"ं कार्य":7982," सङ्क":7983," इष्ट":7984,"समृद्ध":7985,"स्वाह":7986,"कृत्":7987,"युज्यत":7988,"ब्ल":7989,"ं च ।\n":7990,"पुनर्व":7991,"कोष्ठ":7992," ज्योति":7993,"ददाति ":7994,"अत्यन्त":7995,"उद्ध":7996,"बाण":7997,"वत् ।\n":7998,"षिद्ध":7999,"विकृत":8000," वाप":8001,"परमाण":8002,"संहार":8003," चरण":8004,"न्तुष्ट":8005,"यितव्य":8006,"व्याख्यान":8007,"- त":8008,"आचार्य":8009,"दे ":8010,"दैत्य":8011,"प्रच्छ":8012,"ामृत":8013,"म् =":8014," पार्श्व":8015," वक्तव्य":8016," दय":8017," भिन्न":8018,"मानः ":8019,"हिताय":8020," पूज्य":8021,"े अनु":8022,"र्विध":8023,"oc":8024,"ंज":8025,"ूक":8026,"ा ग":8027,"न जान":8028,"म् इच्छ":8029,"स्तेष":8030," कस्म":8031," पत्":8032," मई":8033," - स":8034," परिप":8035,"भक्ति":8036,"शक्यं ":8037,"मधुर":8038,"खोज":8039,"म ।\n":8040,"षट":8041,"है":8042,"ं कुरु":8043,"ा सा ":8044,"ानी":8045,"क्षीर":8046," याति ":8047,"ात् पूर्व":8048,"ोऽसि ":8049,"मासस्य ":8050,"ल्व":8051,"क्त्व":8052,"एवमुक्त":8053,"नरक":8054,"लिखितान":8055," निर्देश":8056,"उच्यते ।\n":8057,"नू":8058,"े उप":8059,"ा भवत":8060,"ातीत":8061,"ामुप":8062," मनु":8063,"ेन त":8064," - न":8065," संयोग":8066,"महत्वपूर्ण":8067,"स्नात":8068,"ess":8069,"कः स":8070,"मः ":8071,"मस्ति ।\n":8072,"यन् ।\n":8073,"ं काल":8074,"विजय":8075,"स्ततः ":8076," संरक्षण":8077,"च्छिन्न":8078,"ं तेष":8079,"भिचार":8080,"ीन् ":8081," अन्यथा ":8082,"if":8083,"ment":8084,"इतः ":8085,"घर":8086,"ज्वल":8087,"मेद":8088,"मिल":8089,"श्छ":8090,"ं गच्छ":8091,"ासम":8092,"समर्प":8093,"स्माभ":8094,"स्वत":8095,"भावः ":8096,"गतः ।\n":8097," प्रतिदिन":8098," स्यात् ।\n":8099,"ययौ":8100," व्यापार":8101,"ःप":8102,"े भ":8103," सीत":8104," अङ्ग":8105,"त्वात्":8106," विधान":8107,"यं च":8108,"ार्थिन":8109,"श्रान्त":8110," बाध":8111,"ास्त्व":8112,"भ्युप":8113,"लिल":8114,"ुर् ":8115,"and":8116,"पुनरपि ":8117," ठ":8118," →":8119,", आ":8120,"ंतर":8121,"गस्त":8122,"जिह":8123,"ण् ":8124,"मत्त":8125,"षट्":8126,"८९":8127," मौ":8128," दीप":8129," नौ":8130,"पूर्वक":8131," पूजय":8132,"गम्यते ।\n":8133,"जगाम":8134,"अन्तरिक्ष":8135,"गतो ":8136,"बिभ":8137,"यतु":8138,"रचन":8139,"हरि":8140,"ं विध":8141,"ः शब्द":8142,"र्ब्ब":8143,"ित\n":8144,"िते ।\n":8145,"म् प्र":8146," कप":8147,"र्वेद":8148,"संविधान":8149,". (":8150,"ुं॰":8151,"ं चिन्त":8152,"महत्त्व":8153,"तीक्ष":8154,"सम्भाषण":8155,"िलक्षण":8156,"तस्मात्":8157,"किञ्चित् ":8158,"est":8159,"ht":8160,"आनन्द":8161,"उचित":8162,"कूप":8163,"णं ":8164,"यने ":8165,"वत्य":8166,"शाश्व":8167,"होत्र":8168," सञ्च":8169,"स्य ह":8170,"ते इति ":8171," वचनं ":8172," यॊ":8173,"समस्य":8174," भज":8175,"ान्तिक":8176," रो":8177,"महोदय":8178,"म् अत्र":8179,"भिश्च":8180,"समुच्च":8181,"कमल":8182,"ाप्नुव":8183,"डि":8184,"र्यं ":8185,"ाळ":8186,"ः तस्य":8187,"स्य स्व":8188,"संस्करण":8189,"दृशी":8190,"्यत आह":8191,"यथा":8192,"दीक्ष":8193,"सरकार":8194,"चिद् ":8195,"ेत्\n":8196,"id":8197,"चत्वार":8198,"मन ":8199,"ानन्तर":8200," सी":8201,"विम":8202,"न तस्य":8203,"न्त्व":8204," वाद":8205,"ावाप":8206,"ाशुभ":8207," न प्र":8208," समन्व":8209,"मह्यं ":8210,"महान् ":8211,"धारा ":8212,"त्थान":8213,"यावत् ।\n":8214,"ज्ञायते ।\n":8215,"ाम्यह":8216,"्रियते ":8217,"]।\n":8218,"pl":8219,"ईश":8220,"ड्र":8221,"षेक":8222,"६९":8223,"े भव":8224,"ः पु":8225,"त्यधिक":8226,"संदेह":8227," भोग":8228,"ं वर्ण":8229," गोप":8230,"कथितं ":8231," कुमार":8232,"अर":8233,"इक":8234,"तस्तु":8235,"या\n":8236,"े जन":8237," काव्य":8238,". ॐ":8239,"िमात्र":8240,"न्ति च":8241,"जायते ॥\n":8242,"योजित":8243," समाचार\n":8244,"थित":8245,"सा ।\n":8246,"ि क":8247,"र्स":8248,"प्रवाह":8249," केश":8250," मेद":8251," प्रतिक":8252," उभ":8253,"ं वापि ":8254,"अथात":8255,"धर्म्म":8256,"तत्रापि ":8257,"१९३":8258,"चरित":8259,"पूजित":8260," अधिनियम ":8261,"49":8262,"ऊर्ध्व":8263,"नित":8264,"लं":8265,"्याद":8266,"विवाद":8267,"ो राज":8268,"ो गुण":8269,"ालि":8270,"समीक्षा ":8271,"स्वस्थ":8272,"ङ्गु":8273,"ाभिधान":8274,"स्नानं ":8275,"विश्ल":8276,"राजन् ":8277,"(iv)":8278,"धार्मिक":8279,"सरे ":8280,"ोतः ":8281,"ो जात":8282,"स्तम":8283," कुत":8284,"र्व्य":8285,"भवान":8286,"द्रोण":8287,"योगदान":8288,"ं यत्":8289,"ब्रव":8290,"ीणाम":8291,"ञ्जीत":8292," स्नेह":8293,"of ":8294,") (":8295,"Th":8296,"पक्व":8297,"शं":8298,"ी प्र":8299,"ोत्पत्त":8300,"७४":8301,"े ल":8302,"न मे ":8303," ति":8304," वा अ":8305,"त्वं प्र":8306," शस्त्र":8307,"सुरक्ष":8308,"ात्म्य":8309,"ः क्व":8310,"शिल":8311," मुन":8312,"बालकः ":8313," = ":8314,"मित्याह":8315,"हे \"":8316," पर्वत":8317,"()":8318,", न":8319,"46":8320,"चः ":8321,"तर्क":8322,"बे":8323,"्तिक":8324,"ं पुन":8325,"ाति ।\n":8326,"ो भ":8327," तक":8328,"पराध":8329,"ध्येय":8330,"र्जु":8331," स्तु":8332,"अवश्यं ":8333,"वचनम":8334,"ive":8335,"श्रूयत":8336,"धम":8337,"वेष":8338,"ा नि":8339,"स्तौ":8340,"स्तदा ":8341,"ियन ":8342,"गुह्य":8343,"द्वे ":8344,"ेण प्र":8345,"ान्तरं ":8346,"ः सर्ग":8347,"प्रत्ययो ":8348," छु":8349,"नायक":8350,"सौभाग्य":8351,"ान्वय":8352,"आङ्ग्ल":8353,"गेह":8354,"स हि ":8355,"े !\n":8356,"ातिर":8357,"मानेन ":8358," आदेश":8359,"प्रतिज्ञ":8360,"गमनं ":8361,"अनुकूल":8362,"गणित":8363," संख्या ":8364," ग्रहण":8365,"हू":8366,"ा!\n":8367,"्नि":8368," सन्ध":8369,"विचित्र":8370,"न्ति\n":8371,"ेषज":8372,"ीयम":8373,"ार्थम":8374,"सम्पत्त":8375," लब्ध":8376,"ानामपि ":8377," मनो":8378," थ्व":8379,"मिदं ":8380," Archives":8381,"ज्योतिष":8382,"55":8383,"आसीत् ":8384,"ज़":8385,"टक":8386,"वर्य":8387,"्राज्य":8388,"ः ज":8389,"प्राकृत":8390," विभक्त":8391,"तः सर्व":8392,"ोपयोग":8393,"ूल्य":8394,"प्राप्ते ":8395,"ितं ।\n":8396,"न्तरेण":8397,"बहि":8398,"ः शत्र":8399,"लम":8400,"ि त":8401,"ि व":8402,"प्रशिक्षण":8403,"स्याम":8404,"ेवं ":8405,"त्काल":8406,"राक्ष":8407,"स्वीकृत":8408,"ः सन् ":8409,"च्युत":8410," एकः ":8411,"याम आस":8412,"ः सर्वत्र":8413,"वति ":8414,"७९":8415,"र्हित":8416," सः ।\n":8417,"ाद् अ":8418," वरिष्ठ":8419,"ासिद्ध":8420,"क्रमे ":8421,"ाकर्षण":8422," रि":8423," सर्वदा ":8424,"म् अर्ह":8425,"विधिना ":8426,"ः अन्य":8427,"युक्तम":8428,"किम् ?\n":8429," स्पर्श":8430," जायते ":8431,"' इत्य":8432,"47":8433,"is ":8434,"ईदृश":8435,"गे ":8436,"यैव":8437,"रङ्ग":8438,"शिक":8439,"ैश्वर्य":8440,"८६":8441," मृ":8442," याच":8443,"द्योत":8444,"श्चापि ":8445," भोज":8446,"कृत् ":8447,"ात्मकं ":8448,"यथा ।\n":8449," महिल":8450," सूच":8451," वर्षाणि ":8452,"तिष्ठत":8453," माता ":8454,"ादिति ।\n":8455,"अन्वय":8456,"ः सूर्य":8457,"आर्य":8458,"कष":8459,"वमान":8460,"शः\n":8461,"ायते ":8462," क्य":8463," प्रयत्न":8464,"त्वाम":8465,"ागच्छ":8466,"ेदं ":8467,"ं प्रण":8468," बोध":8469,"ाभ्याम् ":8470,"ाविश":8471,"राज्ये ":8472," गुर":8473,"मर्त्य":8474,"यते ।\n":8475,"रेल":8476,"ाञ्जल":8477,"्रीष्ट":8478," तस्मात् ":8479," मयि ":8480," म्ह":8481," आय":8482,"ं साम":8483,"कथम":8484,"ात्प्र":8485,"र्जुन":8486,"स्य प्रयोग":8487," - - -":8488," दिशि ":8489,"St":8490,"जन्":8491,"यस्मिन् ":8492,"ी॑":8493,"न ते ":8494,"स्परम":8495,"स्तेन ":8496," वचन":8497,"तिल":8498,"िवर्ष":8499,"ं यज्ञ":8500,"इत्यर्थ":8501,"पितॄण":8502,"भगवन् ":8503," जुय":8504," पृष्ठान":8505," इत्यस्य संस्करणे भेदः\n":8506,"Ch":8507,"काच":8508,"तदुक्त":8509,"नो व":8510,"बार":8511,"शि ":8512,"ो!\n":8513,"ोत्पाद":8514,"ा भवति ।\n":8515,"म् इत":8516,"ादर":8517,"समवाय":8518,"श्चर्य":8519,"ीतल":8520,"यदि ।\n":8521,"वसर":8522," कथित":8523,"ो न च":8524,"कर्षण":8525,"सन्धान":8526,"करिष्यामि ":8527,"िकीर्त":8528,"ं वर्तते ।\n":8529," सय ":8530,">>":8531,"ver":8532,"अ/":8533,"अन्न":8534,"सर्ज":8535,"हं":8536,"ोत्स":8537,"७२":8538,"स्पृष्ट":8539,"त्र्य":8540,"िकरण":8541,"त्वं न ":8542," गन्ध":8543," रोच":8544,"मम ।\n":8545,"ोदित":8546,"काम्य":8547,"ात्तु":8548,"पश्यति ":8549,"वय्क":8550,"चिदपि ":8551,"निवार्य":8552," रण":8553,"(c":8554,"41":8555,"खः ।\n":8556,"दो":8557,"पर्ण":8558,"ं फल":8559,"र्भाव":8560," साय":8561,"स्य \"":8562," केन ":8563," मित":8564,"संयु":8565,"तु त":8566," भर":8567,"िवार":8568,"ेणैव":8569,"िमाण":8570,"प्रतिबन्ध":8571,"यथा च":8572,"ः पञ्च":8573,"गमन ":8574,"वचने ":8575,"प्रातः ":8576," अधो ":8577,"खल्व":8578,"ं;":8579,"ं.\n":8580,"ी (":8581,"ो भविष्य":8582,"ाय्यं ":8583," कः ":8584," प्रवर्त":8585,"परिण":8586,"ासे ":8587,"स्वयमेव":8588,"ं ततः ":8589,"भूष":8590," स्वीकृत":8591,"भाषा ।\n":8592," भवन्ति ।\n":8593,"यदि च":8594,"यथोक्त":8595,"दूत":8596," सूक्ष्म":8597," सम्प":8598,"हेतव":8599,"बाहु":8600,"यह":8601,"शस्त":8602," मृग":8603," च त":8604,"ं प्रत":8605,"न्दन":8606,"ं नैव":8607,"कोण":8608," वर्षे ":8609,"बहवः ":8610,"त्रिविध":8611," ज्येष्ठ":8612,"br":8613,"to":8614,"ड्व":8615,"तत्स":8616,"धौ":8617,"धेन":8618,"नयन":8619,"पाश":8620,"रान":8621,"रेत":8622,"रिय":8623,"६६":8624,"प्रदाय":8625,"स्य पर":8626," प्राप":8627,"िक-":8628," नृत्य":8629,"हि ॥\n":8630,"एकैक":8631," समये ":8632,"एतदेव":8633,"तस्यैव":8634,"सूचित":8635,"शब्दार्थ":8636,"क्रियमाण":8637,"वसान":8638,"घटन":8639,"ाख्यं ":8640," मेरे ":8641,"- (":8642,"आम":8643,"केषु":8644,"ण्ण":8645,"त इति ":8646,"धू":8647,"बै":8648,"भीम":8649,"य।\n":8650,"यमान":8651,"यम् ॥\n":8652,"लौकिक":8653,"ाजन":8654,"िद्":8655,"ी व":8656,"ोः।\n":8657,"९१":8658,"न्तेय":8659," मार":8660," चिर":8661," ज्या ":8662,"कृता ":8663,"पदस्य":8664,"ेरल":8665,"ा विभक्त":8666,"लील":8667," किम् ":8668," सूचना\n":8669,"कं":8670,"वरण":8671,"श्त":8672,"सल":8673,"ः जात":8674,"ः सुख":8675,"प्रदूषण":8676,"ो हर":8677,"ादशी":8678," अभ्य":8679," इति":8680," संस्":8681,"भावन":8682,"एतच्च":8683,"प्रत्ययः ।\n":8684,"कल्पित":8685,"कोरो":8686,"बिन्द":8687,"ाम्ब":8688," शत्रु":8689,"नेन सह अधो ":8690,"नेन सह अधो लिखितान":8691," R":8692,", य":8693,"आधार":8694,"इति":8695,"उत्प":8696,"गी":8697,"बिल":8698,"भङ्ग":8699,"ौषध":8700,"त्रापि ":8701," प्रो":8702,"कृति":8703,"--\"":8704,"ग्निर":8705," उपाय":8706,"भ्रान्त":8707,"बह्व":8708,"वाञ्छ":8709,"कोष":8710,"खान":8711,"तत्व":8712,"नृ":8713,"ार्ण":8714,"्गु":8715,"्येव":8716,"ा सु":8717,"ान्यं ":8718," सदैव":8719,"न वा ":8720,"स्य नाम":8721,"ते अ":8722,"ापत्य":8723,"द्यते ।\n":8724,"योन":8725," संघ":8726,"परिष":8727," महत्त्व":8728,"दातव्य":8729,"षष्ठी":8730,"भौतिक":8731," J":8732,"pd":8733,"उपरि ":8734,"तित":8735,"त ॥\n":8736,"मेल":8737,"ः भवति ":8738,"ा जात":8739,"ाची":8740," उद्":8741," गाय":8742,"ये तु":8743,"ः,\n":8744,"स्थानं ":8745,"दानव":8746," महोदय":8747,"कारणं ":8748,"पश्यामि ":8749,"जुइ":8750," पर्यावरण":8751,") स":8752,"IS":8753,"pal":8754,"इय":8755,"यागु":8756,"शे ":8757,"हन्ति ":8758,"विमुक्त":8759," को ":8760," अप्र":8761," यौ":8762," नग":8763," नेत्र":8764,"तः _\n":8765,"मुच्य":8766,"ाचष्ट":8767,"ष्यति ":8768,"ोऽथ":8769,"ं प्राण":8770," रज":8771,"शिल्प":8772,"अनन्तर":8773,"ः पठ":8774,"ः पक्ष":8775,"तत्क्षण":8776,"न केवल":8777,"लभ्यते ।\n":8778," जनवर":8779,"ं किञ्च":8780,"ब्रूहि ":8781,"कद":8782,"ग्य":8783,"जह":8784,"यस्त":8785,"८४":8786,"न्मह":8787," वक्ष्य":8788," प्रेम":8789,"ावेव":8790," दार":8791,"संरक्षण":8792," - श":8793," जाग":8794,"ाधीश":8795," तुल":8796,"न्मात्र":8797," महत्वपूर्ण":8798,"अन्यथ":8799," क्रोध":8800,"स्पृह":8801,"मासी":8802," पुरस्कार":8803," शुक्र":8804,"ापेक्षया ":8805,"पदिश्य":8806,"ब्व":8807,"मस":8808,"ून ":8809,"ः सम्":8810," दर":8811,"सर्वेषु":8812,"ाभास":8813," उपरि ":8814,"देवा ":8815,"ः प्रिय":8816,"ं विद":8817,"हुत":8818,"फलानि ":8819,"अनन्त":8820,"वदत् ":8821," योगदान":8822,"गौरव":8823,", प":8824,".)":8825,"आगच्छ":8826,"जिन":8827,"य\n":8828,"ृज्य":8829,"ः ह":8830,"िनः ॥\n":8831,"िना ।\n":8832,"स्मार":8833,"स्वास्थ्य":8834," समन्त":8835,"म् अन्य":8836,"ं कल्प":8837,"शिष":8838," सुवर्ण":8839,"गृहीत्वा ":8840,"े अन्त":8841,"ित्त्व":8842," छन्द":8843," अपेक्ष":8844," न्यून":8845,"च् -":8846,"द्देश्य":8847,"ं व्रज":8848,"एफ":8849,"त ":8850,"याण":8851,"लल":8852,"्ध":8853,"्रत":8854,"्रुव":8855,"ा र":8856,"भवती":8857,"योर्व":8858,"ः सोम":8859,"ः सिद्ध":8860,"शुक्ल":8861,"करणे ":8862,"ृत्यु":8863,"ततोऽ":8864,"ेत्यर्थः ।\n":8865,"ence":8866,"मित्यर्थः ।\n":8867,"दिशि ":8868,"येत्त":8869,"ानि सन्ति ।\n":8870,"60":8871,"ऋतु":8872,"च\n":8873,"ं ब्रह्म":8874," सत्":8875,"ामः ":8876,"न्द्य":8877," विन":8878,"र्माण":8879,"सुध":8880,"ब्ल्य":8881," स्वार्थ":8882," धनं ":8883,"ं क्व":8884,"विषयं ":8885,"सहस्त्र":8886,"ादिष्ट":8887,"१९१":8888,"तत्पर":8889,"वक्तव्यम् ।\n":8890,"ग्वेद":8891,"On":8892,"काण्ड":8893,"च्व":8894,"चारण":8895,"डु":8896,"नम्\n":8897,"ा_":8898," च्व":8899,"ागमन":8900,"सर्वान् ":8901,"युध":8902," एव हि ":8903,"सूत":8904,"ार्ड":8905,"वृण":8906," कुतः ":8907,"ास्यामि ":8908,"येत्":8909," स्मरण":8910,"पश्चात् ":8911,"ेष्वपि ":8912," भाग्य":8913,"पौत्र":8914,"तद्वि":8915,"बाध्य":8916,"प्रस्ताव":8917,"विनि":8918," वाज":8919," मण्डल":8920,"संग्रह":8921,"ाह-":8922,"देवस्य":8923,"वेदना ":8924,"क्रम्य":8925," अन्यतम":8926," मनोर":8927," विशेषतः ।\n":8928,"ाङ्ख्य":8929,"युगे ":8930,"प्राति":8931," हृदयं ":8932,"बंध":8933,"(प":8934,"(इति ":8935,"आदेश":8936,"गर्व":8937,"ट्य":8938,"भाय":8939,"सत्र":8940,"ास्मि ":8941,"ेो":8942,"ोभय":8943,"ं राज":8944,"ं दृष्ट":8945,"ं जात":8946,"र्ड":8947," तार":8948," ताम":8949," पात्र":8950," पाण्ड":8951,"नि\n":8952," वाल":8953," प्रभात":8954,"ागृह":8955,"ं तम":8956,"भूत् ।\n":8957,"रूपाणि ":8958," व्यक्ति ":8959,"जानाम":8960,"साम्":8961,"परमात्म":8962,"ाभिध":8963,"ादृशी":8964,"क्षुद्र":8965," यद्यपि ":8966,"सन्देह":8967," लिङ्ग":8968,"%\n":8969,"ः:":8970,"अभ्यास":8971,"यण":8972,"ो'":8973,"६७":8974," वार्षिक":8975," प्रस":8976,"व्यस":8977," जलं ":8978,"ग्रस्त":8979," स्क":8980,"िल्म":8981,"्,\n":8982,"२०६":8983,"शक्त्या ":8984,"ेत्यर्थ":8985,"viou":8986,"सङ्कल्प":8987,"ावापृथ":8988,"नि ।\n":8989,"ु)":8990,"ॊप":8991,"ोद्":8992,"्थ":8993,"ं छ":8994,"ं बहु":8995,"ा एक":8996,"ा ये ":8997," कक्ष":8998,"ावण":8999,"स्थे ":9000,"योक्तव्य":9001," संवेदन":9002,"श्रोत्र":9003,"ं प्रकाश":9004,"भूतः ":9005,"िदान":9006,"गृहाण":9007," श्रेण":9008,"१९२":9009," सम्भाषण":9010,"ततस्त":9011,"ाई\n":9012,"उत्तरः ":9013," साधारण":9014,"ादिना ।\n":9015,"(अ":9016,"ain":9017,"es ":9018,"od":9019,"ताम् ।\n":9020,"ैति ":9021,"ं हर":9022,"ो विश्व":9023,"ाय प्र":9024,"ादिम":9025,"ादृष्ट":9026,"त्यर्थ":9027," - एव":9028,". '":9029,". एक":9030,"ं प्रार्थ":9031," रिक्त":9032,"जुल":9033,"पाठः ।\n":9034,"मार्गेण":9035,"तिष्ठति ":9036," ऊर्ध्व":9037," K":9038,"\"फलकम":9039,"):":9040,"ख्यं ":9041,"तस्व":9042,"लव":9043,"सन्ति ":9044,"े)\n":9045,"ोs":9046,"ौ न":9047,"ं जल":9048,"प्रविश्य":9049," करुण":9050," मे ।\n":9051,"कारान्त":9052,"योगेन ":9053,"पदानि ":9054,"विधि ":9055,"कालेन ":9056,"नमः ":9057,"वश्यं ":9058," ऑ":9059,"\" इत":9060,"-P":9061,"उत्":9062,"खन":9063,"लत":9064,"ेपि ":9065,"प्रक्रिय":9066," अश्व":9067,"िवृत्त":9068,"युष्":9069,"कुतो ":9070,"िदिव":9071,"ोदर":9072,"विद्यालयस्य":9073," इत्येतद् प्रति संबंधनं कुर्वन्त":9074,"ह्रस्व":9075,"ud":9076,"आवश्यक":9077,"तम् ":9078,"थिल":9079,"म आ":9080,"निहित":9081,"ज्ञेया ":9082,"गुड":9083,"ार्थः ।\n":9084,"ाकर्म":9085,"िदास":9086," स्ट":9087,"अवश्य":9088,"ाभिप्राय":9089,"दत्त्वा ":9090,"ं करोम":9091," वर्तते ।\n":9092,"सभाय":9093,"श्मीर":9094,"चौ":9095,"ी ॥\n":9096,"ोय":9097,"ं जीव":9098,"स्यत":9099,"ते ह":9100,"िकृत":9101,"ेऽहं ":9102,"ज्यते ।\n":9103,"ोषित":9104,"ानुभव":9105,"अधिकरण":9106," स्मर":9107,"स्फुर":9108,"स्मैपद":9109," प्रकृति":9110," आत्मा ":9111,"कुटुम्ब":9112,"अम":9113,"दर्थ":9114,"नात् ":9115,"वोच":9116,"ं बल":9117,"विदित":9118,"स्य।\n":9119,"ादन्य":9120," तादृश":9121," मै":9122," मोह":9123," मोक्ष":9124,"स्थूल":9125,"सर्वज्ञ":9126,"ोऽर्थ":9127," निद्र":9128," निषेध":9129," पुराण":9130,"ात्मिक":9131,"परिहार":9132,"वृत्ति ":9133,"ेर् ":9134,"जानीय":9135,"सदैव":9136," जीवनं ":9137,"जरात":9138," मूर्ख":9139,"देवी सर्व":9140,"Previou":9141,"tion":9142,"तेनैव":9143,"मे ।\n":9144,"्रिक":9145,"ं कार्यं ":9146,"ः तु":9147,"िताय":9148,"ादश्य":9149," पश":9150,"राब":9151,"व्यतिरिक्त":9152,"योप":9153," जगत":9154," संस्कार":9155,"ीतिक":9156,"श्रित":9157," इत्येक":9158,"ज्ञानम":9159,"रे ॥\n":9160,"विश्वविद्यालय":9161,"ः - (":9162,"यययय":9163,"ेट् ":9164," आरम्भ":9165,"न्यूनतम":9166,"SP":9167,"s:":9168,"पत्न":9169,"वाप":9170,"सै":9171,"ुत्तर":9172,"ं '":9173,"ं दश":9174,"ो र":9175," मोद":9176,"ावली":9177,"राट":9178," विष्ण":9179,"ियु":9180,"देवदत्त":9181,"भिष":9182,"भिर्व":9183,"विद्यते ॥\n":9184," कुशल":9185," राज्यं ":9186,"पृथक्":9187," गृह्ण":9188,"विशाल":9189," पितामह":9190," श्वेत":9191,"उपयोगकर्ता समीक्षा ":9192," l":9193,"ail":9194,"ंते ":9195,"अभाव":9196,"खः ":9197,"जनं ":9198,"बर्ह":9199,"८१":9200," स च":9201,"विभव":9202,"न्ट":9203,"ागतम":9204,"पूजन":9205,"ाधर":9206,"लोह":9207,"पदान":9208,"विधेय":9209,"ः अर्थ":9210,"े मध्य":9211,"साधनं ":9212,"वदति ":9213," काले ":9214,"ैतन्य":9215,"सम्यक् ":9216,"विश्लेषण":9217,". क":9218,"पेश":9219,"वाग":9220,"शाप":9221,"ौ स":9222,"े त्रि":9223,"म् एत":9224,"ावधान":9225,"ध्यात्वा ":9226,"मुच्यते ॥\n":9227," संस्थ":9228," ह ।\n":9229,"भाग्यं ":9230,"्\"।\n":9231,"व्यवस्था ":9232," आसन":9233,"संवत्सर":9234,"-msgstr \"":9235,"ip":9236,"कदापि ":9237,"लिक":9238,"ु ":9239,"्द्य":9240,"६३":9241,"ं कार":9242,"क्षयं ":9243,"म् _":9244," पशु":9245,"रा\n":9246,"राशि":9247," विधि":9248,"कारी":9249,"ियान":9250,"म्हार":9251,"मुहूर्त":9252,"सुम":9253," निर्ध":9254," न शक्न":9255," इत्यादि ":9256,"ः अभवत":9257,"ानुमान":9258,". . . ":9259,"ान्\n":9260,"ीपत":9261," एकादश":9262,"क्षेत्रज्ञ":9263,"ant":9264,"निर्मुक्त":9265,"प्रभृत":9266," दृश्यते ।\n":9267," भविष्यति ":9268,"अस्माभ":9269," अध्ययन":9270,"यन्त्रण":9271,"स्तथा ।\n":9272," विवरण":9273," w":9274,"59":9275,"एशिय":9276,"सरण":9277,"॒ः":9278,"ितं च":9279,"विघ्न":9280," यह":9281,"समग्र":9282,"ेण स":9283,"देशिक":9284,"भूत् ":9285,"रूपे ":9286,"धिकृत":9287,"धिकृत्य":9288,"ने च":9289,"वैज्ञानिक":9290,"स्थानानि ":9291,"र्जाल":9292,"षुप्त":9293,"दिवि ":9294,"ायुष":9295,"दुर्बल":9296," भविष्यत":9297,"VER":9298,"og":9299,"ःथ":9300,"एच":9301,"एक्स":9302,"कथा ":9303,"धे":9304,"मार्":9305,"७७":9306,"ः कर्तव्य":9307,"विवेश":9308,"स्यात्":9309," तेषु":9310," प्य":9311," इती":9312,"ेन हि ":9313," चिकित्स":9314,"या स":9315,"ात् पर":9316,"मे ॥\n":9317," लु":9318," श्रवण":9319,"ी,\n":9320," पर्यन्त":9321," परिवार":9322,"भाष्यम":9323,"सृत्य":9324,"ऽपि ":9325,"ुर्व":9326,"ृ॑":9327,"ोयं ":9328,"ं त्र":9329,"निबन्ध":9330," मो":9331,"ीयान":9332,"देवता ":9333," रे":9334,"भूते ":9335,"महत":9336,"तीव्र":9337,"ं यत":9338,"स्थिति":9339,"स्थितः ।\n":9340,"योरपि ":9341,"जिज्ञास":9342,"अच":9343,"वं":9344,"े -":9345," अग्नि":9346," माल":9347," मानुष":9348,"ावन":9349,"व्याह":9350," न स":9351,"एवं त":9352," भयं ":9353,"रोद":9354,"ः प्रधान":9355,"पुनः स":9356,"ः केवल":9357,"ा अप":9358,"ज्ञातव्य":9359,"ध्वनि ":9360,"art":9361,"कर्तव्यम् ।\n":9362,"शोच":9363,"SE: ":9364,") क":9365,"42":9366,"अतीव":9367,"टि":9368,"ड्य":9369,"िा":9370,"ौ\"":9371," सागर":9372,"ामाण":9373,"ते सर्व":9374," वाण":9375," वीर्य":9376," भौ":9377,"द्वेष्ट":9378,"ाधु":9379,"ेण्ड":9380,"ाकाम":9381,"ं प्रिय":9382,"ं चापि ":9383," सर्वेषु":9384,"परिभाषा ":9385,"विशेषतः ।\n":9386,"मिष":9387,"ाभिमुख":9388,"स्य गुण":9389,"ग्रहणं ":9390," जीवन":9391,"दारिद्र":9392," किमर्थ":9393,"प्रातः":9394,"अध्यक्ष":9395,"अध्याय ":9396,"ाशङ्क्य":9397,"एल":9398,"टै":9399,"यन्त्य":9400,"रच":9401,"ी-\n":9402,"्वान":9403," पीत":9404," यद्व":9405,"व्यथ":9406,"स्वयम":9407,"ागत्य":9408," आसीत् ":9409,"जनव":9410,"देव्य":9411," इत्यपि ":9412," सर्वाणि ":9413,"ङ्गम":9414,"नीति":9415,"जगत्":9416,"ैरेव":9417," जनान":9418,"प्राणिन":9419,"000":9420," शक्नुम":9421," y":9422,"\"त":9423,"चाय":9424,"यूप":9425,"शो ":9426,"ीस":9427,"ेयु":9428,"ं पुत्र":9429,"प्रवक्ष्यामि ":9430,"विण":9431,"विहीन":9432,"न कर":9433," तस्मिन् ":9434,"ासम्":9435," नवी":9436," शरी":9437,"र्म्म":9438,"भूति":9439,"ना ॥\n":9440,"लिस":9441,"प्रत्यये ":9442,"राष्ट्रपत":9443,"बहुव्रीह":9444,"बुध्य":9445," कीदृश":9446,"कः अ":9447,"ता":9448,"मति ":9449,"ा भ":9450,"प्रयच्छ":9451," सः ॥\n":9452,"विह":9453,"न प":9454,"ाम्न":9455," पथ":9456," प्राग":9457," प्रसन्न":9458,"ाकी":9459," परन्तु":9460," (उच्चारण":9461," समीक्ष":9462,"इत्यादि ":9463,"रिष्ट":9464,"जाति":9465,"ृण्व":9466,"जगद":9467," = पु":9468,"नेगु":9469,"क्षिप्य":9470," वाप ":9471,"\"क":9472,"ast":9473,"कान् ":9474,"मेन":9475,"सः ॥\n":9476,"ि म":9477," सित":9478," कल्याण":9479," पराज":9480,"श्चित् ":9481," संदेह":9482,"ल्ब":9483,"िमत":9484,"ात्मानं ":9485,"ज्यो":9486,"ान्येव":9487,"तथा ॥\n":9488,"बाल्य":9489,"दारुण":9490,"चित् ॥\n":9491," ऋण":9492,"ः स्यात":9493,"pe":9494,"to ":9495,"अण":9496,"जक":9497,"धक":9498,"धीत":9499,"याऽ":9500,"यान्ति ":9501,"८८":9502,"प्रदेशे ":9503,"स्य (":9504," पृष्ट":9505,"ते त":9506," प्रमुख":9507," शाश्व":9508," शून्य":9509,"ध्यानं ":9510," भग":9511," आनन्द":9512,"ार्थक":9513,"श्रीम":9514,"ं वक्त":9515,"ं वाच":9516,"स्तु त":9517," सुत":9518,"ाज्यं ":9519,"क्षेम":9520,"रक्षति ":9521,"दिवसे ":9522,"स्थापन":9523,"िकीर्ष":9524," इन्द्रिय":9525,"ं सूत्र":9526,"निरूपण":9527,"ोदाहरण":9528,"DF":9529,"बौद्ध":9530,"्याम":9531,"ं गुण":9532,"े पूर्व":9533,"ः पुर":9534,"ा नाम":9535,"र्ट":9536,"न -":9537,"स्य वा ":9538,"स्माद् ":9539,"देशकाल":9540,"ं तत":9541," रे ":9542,"म् अह":9543,"पदेन ":9544,"ं सिद्ध":9545,"सम्ब":9546,"ानुवाद":9547,"अथ वा ":9548,"ेरित":9549,"चिह्न":9550," राक्षस":9551,"वत्सर":9552," क्रमेण":9553," प्रतिशत\n":9554,"करोमि ":9555," सार्व":9556,"(च":9557,"]]":9558,"ङीप":9559,"धिप":9560,"पलाय":9561,"वत्त्व":9562,"सचिव":9563,"िग":9564,"्यते ॥\n":9565,"ः स्मृत":9566,"र्ब":9567," पति":9568,"न्मुख":9569," मधु":9570," प्रविष्ट":9571,"ावयव":9572," देहि ":9573,"न्यस्त":9574,"ानि -":9575,"ान्तरण":9576,"ं प्रमाण":9577," स्वर":9578,"तदेत":9579,"यद्येव":9580,"सप्तम":9581," शक्यते ":9582,"ं वर्तत":9583,"अध्यायः ":9584,"US-P":9585,"घ्नं ":9586,"भिव":9587,"वारण":9588,"ूगु":9589,"्येन ":9590,"्वाद":9591,"प्रदर्श":9592,"क्त्वा ":9593," दुर":9594," विस्तार":9595,"िं\n":9596,"द्रुत":9597,"ोऽयम":9598,"देवेश":9599,"ः प्रकाश":9600,"ः प्रश्न":9601,"ं यदा ":9602,"दिल":9603,"मेव।\n":9604,"ा अधिकार":9605,"ं मन्त्र":9606,"ञ्जय":9607,"ं दक्षिण":9608," पूर्वोक्त":9609,"जुष":9610,"विवक्ष":9611,"जीर्ण":9612,"केनापि ":9613," नरक":9614,"own":9615," v":9616," , ":9617,"UP":9618,"अ॒":9619,"च ॥\n":9620,"चक्षुष":9621,"वं ":9622,"ैकं ":9623,"ॊ ह":9624,"ि (":9625,"प्रमुख":9626,"न ह्य":9627,"स्ततो ":9628,"ादर्श":9629," आगत":9630," इत्यनेन सह अधो लिखितान":9631,"िणः ।\n":9632,"ं सदा ":9633,"भाषिक":9634,"ेऽथ":9635,"फलम":9636," दुर्ग":9637,"वान् ॥\n":9638,"त्वं हि ":9639,"कीर्त्त":9640,"स्य अर्थ":9641,"ासीत् ।\n":9642,"ात्मनः ।\n":9643," अभिन":9644," &":9645,"प् ":9646,"ो दश":9647," मार्च":9648," प्रसाद":9649,"र्षभ":9650,"ोऽव":9651,"ोऽसौ":9652," न भवत":9653,"ज्यते ":9654,"दिन ":9655,"च्या ":9656,"गच्छति ।\n":9657,"ेत्याह":9658,"सरल":9659,"अभिन":9660,"ाऽऽह":9661,"ान्धव":9662," मृत्यु":9663,"\"'":9664,"qu":9665,"खं ":9666,"दाव":9667,"मते ":9668,"य्स":9669,"रम्भ":9670,"वर्द्ध":9671,"शः ॥\n":9672,"ृष्य":9673,"ैते ":9674,"ोर्म":9675,"ानव":9676,"स्य वै":9677,"ति क":9678,"ो भगव":9679,"निष्प":9680,"निग्ध":9681," अति ":9682,"िकाम":9683," दरिद्र":9684,"िने ":9685,"स्वातन्त्र्य":9686,"माने ":9687,"सुन्दर":9688," निश":9689,"ः साक्ष":9690,"दुगु":9691,"पुनः":9692,"यतः ।\n":9693,"िल ।\n":9694,"ं नास्ति ":9695,"िति ॥\n":9696,"े साथ":9697,"तथा हि ":9698," स्तम्भ":9699,"ाभ्याम":9700,"यत्नं ":9701,"वासरे ":9702," जीवित":9703," वृष":9704,"ं गत्वा ":9705," In":9706,"ः॑":9707,"चोद":9708,"नूनं ":9709,"सवर्ण":9710,"िँ":9711,"ोई":9712,"्र्य":9713,"ः उप":9714,"ः पूर्ण":9715,"ा \"":9716,"ा मम":9717,"प्रबन्ध":9718,"ादि ।\n":9719," तर्ह":9720,"त्रयः ":9721,"ावरुण":9722,"संसर्ग":9723,"रुत":9724,"नं ।\n":9725," बाह":9726,"ेषु स":9727,"् अर्थ":9728,"ध्वंस":9729,"चतुर":9730," पुरतः ":9731," किमपि ":9732,"श्लेष":9733,"सन्दर्भ":9734," k":9735,"उच्यते ":9736,"क,":9737,"दं ":9738,"फरव":9739,"मर्ह":9740,"रवि":9741,"वते ":9742,"ीठ":9743,"स्या ":9744,"स्य एक":9745,"ामित्र":9746,"ेत\n":9747,"संपाद":9748," विजय":9749," विरुद्ध":9750," जय":9751,"ेदार":9752,"पूरण":9753," उत्प":9754," परीणाम":9755," \"\n":9756,"ेऽनु":9757,"ं यज":9758,"ग्रहीत":9759,"ं नास्त":9760," तुल्य":9761,"याम्य":9762,"ः स्वयं ":9763,"मन्त्रेण":9764,"चतुष्ट":9765,"वक्त्र":9766,"चलित":9767,"आत्मान":9768," न्यायालय":9769,"ानुसारेण":9770,"समाचार खोज":9771," भाष्य":9772,"समाचार खोज परीणाम":9773," <":9774,"इट":9775,"ेर्व":9776,"्कः ":9777,"ा ते ":9778,"स्यान":9779,"ाव्यं ":9780,"िः-":9781,"ज्ज्ञान":9782," नाय":9783," चर":9784,"ियो ":9785," जन्मन":9786,"क्रमित":9787,"ाकाङ्क्ष":9788,"इति च":9789,"199":9790," पृथक् ":9791," ऊर्ज":9792,"यत्तु":9793,"VERSE: ":9794,"समाचार खोज परीणामः \"":9795,"धित":9796,"पै":9797,"लेप":9798,"श् ":9799,"ाघ्र":9800,"स्य वर्ष":9801,"ो गृह":9802,"क्षमा ":9803,"स्कृत्य":9804," पवित्र":9805,"निम्न":9806," अल्प":9807," अस्माकं ":9808,"िकम":9809,"िकर":9810,"ालम्ब":9811,"क्रत":9812," हल":9813," गीत":9814,"ं प्रकृत":9815,"ं प्रवक्ष्यामि ":9816," स्वास्थ्य":9817,"इत्यर्थः ।\n":9818,"बहुविध":9819,"ं,\n":9820," स्यात्":9821,"कश्चिद":9822,"ाबाह":9823,"Nepal":9824," रुद्र":9825,"log":9826,"lok":9827,"युज्यते ":9828,"दर्पण":9829,"नर्थ":9830,"नैक":9831,"स ":9832,"़ी":9833,"ुत्वा ":9834,"ृच":9835,"७३":9836,"ं पु":9837,"े वै":9838,"स्यास्य":9839,"म् इति ।\n":9840,"म् इव":9841," भु":9842," है":9843,"रोम":9844,"पूर्वमेव":9845,"कथय":9846,"कर्म्मण":9847,"धर्मेण":9848,"स्त्रि":9849,"ब्रूय":9850,"ग्ण":9851,"कारणेन ":9852,"ory":9853,"प्रभृति ":9854,"शालाय":9855,"अभिप्राय":9856,"नारायण":9857,"ं तथा ।\n":9858,"ानुपपत्त":9859,", \"":9860,"99":9861,"o\n":9862,"अवि":9863,"उद्योग":9864,"चर्च":9865,"धे ":9866,"ा\"\n":9867,"ारभ":9868,"स्य कारण":9869,"म् इ":9870," येष":9871,"राचर":9872," - व":9873,"स्मान् ":9874,"न्यस":9875,"था ॥\n":9876,"ेन् ":9877,"ाधर्म":9878," धीर":9879,"रूप्य":9880,"विधौ":9881,"ः कल्प":9882,"सम्पद":9883,"तदैव":9884,"सिध्य":9885,"दिनानि ":9886,"अनुप":9887,"अतः पर":9888,"अर्थात् ":9889," मनसि ":9890," पितर":9891," रुपये\n":9892,"आरम्भ":9893,"इत्युक्त्वा ":9894,"43":9895,"उगु":9896,"खिलं ":9897,"नत्व":9898,"भृत्य":9899,"लिन":9900,"स तव":9901,"ि:":9902," सैन्य":9903,"न भवत":9904," कृत्य":9905,"ुं\n":9906," स्वर्ण":9907,"न्दर्य":9908,"काले च":9909,"ं नर":9910,"वाद्य":9911,"ं पञ्च":9912," अपि च":9913,"कुर्वीत":9914,"नेप":9915," टी":9916,"यिष्यत":9917," योग्य":9918," जनवरी":9919," ध्वनि ":9920," ]":9921,"तैल":9922,"नाल":9923,"शर्म":9924,"िन्न ":9925,"ित् ।\n":9926,"न पर":9927,"ाय स":9928," तात":9929," पद्ध":9930," मत्स्य":9931," विज":9932," - प्र":9933," जक":9934,"ं वार":9935," निरी":9936," समृद्ध":9937,"म् अभवत् ।\n":9938,"वा ॥\n":9939,"भिधान":9940,"शिशु":9941,"ं यावत् ":9942,"इत्याह":9943," भवता ":9944,"सिन्ध":9945,"वर्ष\n":9946,"यथाव":9947,"ान्नि":9948,"जीवने ":9949,"नवीन":9950,"१९०":9951,"वाहन":9952,"प्रशंस":9953,"ाई ":9954,"मित्यर्थ":9955,"सामान्यतः ":9956,"ित्सा ":9957,"oun":9958,"सङ्गीत":9959,"उत्तरा":9960,"गृह्णाति ":9961,"ासंभव":9962," निर्वाच":9963,"ST":9964,"अव्य":9965,"ऊँ":9966,"कय":9967,"दे":9968,"नभ":9969,"नेह":9970,"न संशयः ॥\n":9971,"लकार":9972,"ाष्ठ":9973,"ीभाव":9974,"्̇":9975,"े तव":9976,"प्रकल्प":9977,"म् तर्हि ":9978," तस्मै":9979,"निष्य":9980,"ापन":9981," नागरिक":9982,"मुवाच":9983,"श्विन":9984,"ल्ड":9985,"महाराज":9986," इत्यादि":9987,"यः सर्व":9988,"भ्यः ":9989,"तस्य च":9990," भवन्ति ":9991," कुट":9992,"परमार्थ":9993,"ं निर्व":9994," हृदये ":9995,"-\"":9996,"51":9997,"Pr":9998,"ha":9999,"उभौ":10000,"ङ्म":10001,"दपि ":10002,"नाड":10003,"वल्":10004,"सत्व":10005,"सोऽपि ":10006,"हार्य":10007,"ी/":10008,"ुच्यत":10009,"ैतिक":10010,"ोद्य":10011,"८७":10012,"९९":10013,"्यात् ":10014,"ः पाद":10015,"ेन न ":10016," नद्य":10017,"एव।\n":10018," शन":10019," - इह":10020,"ेदेव":10021," परियोजन":10022," संज्ञ":10023,"ोऽय":10024,"दुर्व":10025,"ीप्स":10026,"षु ।\n":10027,"जायमान":10028,"तस्मिन्न":10029,"गच्छाम":10030,"श्रुत्व":10031,"जुय":10032,"वह्न":10033,"वह्नि":10034,"आदित्य":10035," फरवरी ":10036,"संवत्सरे ":10037,"फ़":10038,"यक्ष":10039,"रेव":10040,"ास्थान":10041,"ॉल":10042,"े कृत":10043," सफल":10044," सचिव":10045,"विक्रय":10046,"ामात्र":10047," कष्ट":10048," अमेरिका ":10049,"ापरि":10050," इमे ":10051,"ेन,":10052," इति क":10053,"रूपम":10054,"ं यस्य":10055,"तद् अ":10056,"परिपूर्ण":10057,"बहुल":10058,"ः - प":10059,"स्कृतिक":10060," स्याद":10061," तथा च":10062,"िह्न":10063," इदं ":10064,"अस्तु":10065,"उपर":10066,"खेद":10067,"नाट":10068,"पाट":10069,"वसु":10070,"साल":10071,"ै नमः ।\n":10072,"समित":10073," विस्त":10074," विहित":10075,"िरपि ":10076," संविधान":10077,"ोऽस्त":10078,"कुर्म":10079,"ः साम":10080,"ाम् एव":10081,"लिख्य":10082,"प्रतिम":10083,"दिग्":10084,"ानुगुण":10085,"परिषद":10086,"प्रत्ययस्य":10087,"ब्राह":10088," व्याख्य":10089," महान":10090,"पृष्ठं निर्म":10091," गृहे ":10092,"पञ्चदश":10093,"प्रतीक्ष":10094," तिथि ":10095," लो":10096,"**":10097,". आ":10098,"उक":10099,"तट":10100,"नन्तरं ":10101,"रश्म":10102,"वा\n":10103,"ं -":10104,"प्रस्तुत":10105,"ो बल":10106,"नियुक्त":10107,"ते _\n":10108,"एवं प्र":10109," विपरीत":10110,"ीये ":10111," भूप":10112,"ाधिष्ठ":10113,"युधिष्ठिर":10114,"ं तत्त्व":10115," बज":10116,"पदिष्ट":10117,"ः अत्र":10118,"कर्तृत्व":10119,"तं दृष्ट्वा ":10120,"वेदन\n":10121,"ः पत":10122,"्\"\n":10123,"अपि तु":10124,"वृद्धि":10125," शक्नु":10126," कदाचित् ":10127," पत्नी":10128,"प्रातिपदिक":10129,"(.":10130,"उत्सव":10131,"कफ":10132,"नात् ।\n":10133,"रद":10134,"वक्ष":10135,"ीत्व":10136,"ेद्व":10137,"ौच":10138,"्वय":10139,"्वि":10140,"ितवान् ":10141,"ायः ":10142,"स्तान":10143,"िकर्म":10144,"सर्वम":10145," रिप":10146," रेल":10147,"म् अभि":10148,"कालः ":10149,"न्ति ते ":10150,"स्थितम् ।\n":10151,"ोदक":10152,"वसत":10153," वैश्व":10154," गृहीत":10155,"यदा तु":10156,"केचन ":10157,"नारी":10158,"--\n":10159,"ide":10160,"rit":10161,"अधिनियम":10162,"आन":10163,"उत्कृष्ट":10164,"कह":10165,"पण्य":10166,"भृश":10167,"य य":10168,"वः ॥\n":10169,"शश":10170,"षड्":10171,"ौ \"":10172,"॒म":10173,"ि स":10174,"म् इद":10175,"ालाप":10176,"व्यपदेश":10177,"म्ल":10178,"ः स एव":10179,"इत्यस्य":10180," सुन्दर":10181,"ब्रवीत":10182,"वानर":10183,"यत् ॥\n":10184,"े तृतीय":10185,"येगु":10186," शक्ति":10187,"यिष्याम":10188," ब्राह्मण":10189," ततॊ":10190,"लोके मह":10191,"ड्ग":10192," निर्दिष्ट":10193," . ":10194,") आ":10195,"- क":10196,"up":10197,"खम":10198,"गरं ":10199,"घो":10200,"जन ":10201,"तच्छ":10202,"वतः ":10203,"वयम":10204,"ो.\n":10205,"ं मु":10206,"विदुष":10207,"स्तन":10208," तानि ":10209," पिब":10210," अभ्यास":10211," प्राचीन":10212," (क":10213,"ं वर्ध":10214," निरा":10215,"इति श्री":10216,"वा ?\n":10217,"सम्भाव":10218,"भागः ":10219,"ो मया ":10220,"वदन्ति ":10221,"भगवतः ":10222," अतीत":10223,"मैत्र":10224,"स्तथैव":10225,"स्लिम":10226,"ाथमिक":10227,"cd":10228,"ep":10229,"ey":10230,"ः-\n":10231,"उष्ण":10232,"केष":10233,"गात्र":10234,"जै":10235,"दग्ध":10236,"मस्म":10237,"यन्म":10238,"शति ":10239,"श. ":10240,"ा उप":10241,"प्रेषण":10242," काश":10243," दद्य":10244,"संस्थाय":10245,"ेशे ":10246,"ियत":10247,"ोऽस्य":10248," गति ":10249,"ं चतु":10250,"योगिन":10251,"तो न ":10252,"इत्यत आह":10253,"कला ":10254," श्रू":10255,"स्पति":10256,"गच्छन्त":10257,"ं दत्त":10258,"अधिकृत":10259,"ard":10260," अन्यत्र":10261,"ा आसीत् ।\n":10262,"ः स्यात् ":10263,"नारद":10264," रात्रौ":10265,"आत्मा ":10266,"ाच्वंगु दु ।\n":10267,"बोध्य":10268,"अयं वर्गः ":10269,"\"न ":10270,", च":10271,"IN":10272,"ob":10273,"तद्ध":10274,"धत्त":10275,"बलि":10276,"रीय":10277,"वर्":10278,"शूर":10279,"प्रवास":10280," सत्र":10281,"विहाय":10282," विस्म":10283," शिश":10284,"द्रुम":10285," (अ":10286,"ं वाक्यं ":10287,"ः कल":10288,"रीक":10289,"ोपकार":10290,"ब्रिट":10291,"दर्शयत":10292,"ोदात्त":10293,"तस्माद् ":10294,"तत्काल":10295," स्त्रीण":10296,"त्थित":10297,"चेतस":10298," सुखद":10299," बालक":10300,"अध्ययन":10301,"काष्ठ":10302,"ish":10303,"तद्यथ":10304,"सञ्ज्ञ":10305,"- आ":10306,"ं'":10307,"ऋग्वेद":10308,"पक्षिण":10309,"बत":10310,"वेल":10311,"हेम":10312,"९५":10313,"े प्रति":10314,"स्य सम":10315,"क्ली":10316," प्रस्ताव":10317,"भवन् ।\n":10318,"द्भु":10319,"ज्ञप्त":10320," भद्र":10321,"नं प्र":10322," परित्य":10323,"ं च त":10324,"योगी":10325,"दिक्षु":10326,"मेव हि ":10327,"स्थानीय":10328,"ं नित्यं ":10329," सहाय":10330," अधिकृत":10331,"व्यक्ति":10332,"येत्\n":10333," साधु":10334,"अतिरिक्त":10335,"भुवि ":10336,"क्षिप्र":10337,"\" ।\n":10338,"ञ् ।\n":10339,"णः ":10340,"वेध":10341,"ाक्र":10342,"ोर्व":10343,"ोपर":10344,"ोच्यत":10345,"॥ M":10346,"विदूष":10347," पान":10348,"न्तम":10349," अय":10350," प्रयच्छ":10351,"परामर्श":10352,"संत":10353," शासन":10354,"करी":10355,"पूर्ब्ब":10356," न वि":10357,"ः सन्त":10358,"मनाम":10359,"ं केवलं ":10360,"ेऽत्र":10361,"ित्यर्थः ।\n":10362,"जातु":10363,"मासे ":10364," विद्यालय":10365," आसन् ।\n":10366,"कोटि":10367," - विकि":10368,"॥ MSS@":10369,"अन्ध":10370,"आधुनिक":10371,"हास्य":10372,"िन्द्र":10373,"प्राप्नोति ":10374,"विद्ध":10375," कट":10376," कोऽपि ":10377," पंच":10378,"र्वत":10379," अक्ष":10380,"ष्टोम":10381,"त्मन":10382,"समयः ":10383,"पुत्त्र":10384,"कृतवान":10385,"िवर्त":10386,"ं तं ":10387,"कर्तुम":10388," व्याकरण":10389,"तथाच":10390," अपि तु":10391,"ं करोति ।\n":10392,"मृष":10393," मानस":10394,"ग्राहक":10395,"अपराध":10396,"आज":10397,"उष":10398,"तं च":10399,"दत":10400,"सा अ":10401,"ीन ":10402,"ोष्ण":10403,"०२":10404,"ः इ":10405,"प्रस्थ":10406,"ाः)":10407," मूर्त":10408,"संवेदन":10409,"पुरु":10410," चि":10411," च प्र":10412,"स्वल्प":10413,"स्वागत":10414,"र्मु":10415," जप":10416,"पूर्ति ":10417,"ल्ट":10418," हिन्द":10419,"मम\n":10420,"कथ्यते ।\n":10421,"मेव च ।\n":10422," राजधान":10423,"नीति ":10424,"चतुर्दश":10425,"संयुक्त राज्य":10426,"सम्मेल":10427," व्यवस्थ":10428,"ग्रीष्":10429,"प्रथमे ":10430," Y":10431,"ः]":10432,"अब":10433,"आधिकारिक":10434,"कपाल":10435,"थे ":10436,"नच":10437,"नृण":10438,"मङ्ग":10439,"सा":10440,"ीर्त":10441,"ु॰":10442,"ॐ ह्र":10443,"प्रकृत्य":10444," सार्ध":10445,"ाये ":10446,"ाः'":10447,"ते हि ":10448," यत्त":10449,"ेषा ":10450,"संयम":10451," नदी":10452," शाख":10453," आधार":10454,"पूर्त":10455," (व":10456,"ल्ह":10457,"क्षणे ":10458,"महास":10459,"चित्य":10460," ल्य":10461,"ं नृप":10462,"यो हि ":10463,"वादने ":10464," ते ॥\n":10465,"कारणम":10466,"ः स्वर्ग":10467," अनन्तर":10468," विश्वास":10469," दिनानि ":10470,"सम्मान":10471," सहस्राणि ":10472,"त्प्रेक्ष":10473," विवेक":10474," कर्मणि ":10475,"ास्पद":10476," नारद":10477,"trans":10478," x":10479,"57":10480,"sa":10481,"ंप":10482,"जत":10483,"तन्न":10484,"ताड":10485,"शाय":10486,"सद्":10487," तो ":10488," पाण":10489,"न्मम":10490," मन्द":10491,"व्याप्य":10492,"पि ॥\n":10493,"न्ये ":10494,"न्या ":10495,"तु ॥\n":10496," एव च ।\n":10497,"ज्ञानेन ":10498," - '":10499,"ं याव":10500,"परिग्रह":10501,"अनुभव":10502,"बलय् ":10503," मुहूर्त":10504,"- n":10505," विद्यमान":10506," शिक्षण":10507,"भौम":10508," यजमान":10509,"ोन्नति ":10510,"sp":10511,"उत्स":10512,"कम्":10513,"दाम":10514,"ने\n":10515,"बिर":10516,"यन\n":10517,"शार":10518,"ुच":10519,"ौ स्त":10520,"प्राप्नोति ।\n":10521,"िता\n":10522,"विर्":10523,"विभाष":10524,"ातप":10525," तन":10526,"ष्कार":10527," अ॒":10528," प्रातः ":10529,"ावास":10530,"त्स्व":10531," न संशयः ॥\n":10532," - य":10533,"र्मह":10534,"गुजरात":10535,"या न":10536,"भूतम":10537,"न्ध्र":10538,"रोज":10539,"हितम":10540,"ानुग्रह":10541,"ः पश्य":10542,"अन्येष":10543," परिच":10544,"जुह":10545,"निरपेक्ष":10546,"मीट":10547,"खु ।\n":10548,"ाराष्ट्रिय":10549," कर्त्तव्य":10550," h":10551,"असौ":10552,"भस्म":10553,"माक":10554,"लङ्क":10555,"वन्द":10556,"वरुण":10557,"शल्य":10558,"सन्ध्य":10559,"ेम्":10560,"ेच्च":10561,"ः [":10562,"ा यथा ":10563,"र्फ":10564,"ितः स":10565,"ितुम":10566,"ातः":10567," तीर्थ":10568," पोर्":10569," अनेन ":10570,"ापन्न":10571," प्रीत":10572,"समन्त":10573,"ाहिक":10574," आद":10575,"ोऽप":10576," एवं वि":10577,"ं वाम":10578,"ात्मने ":10579,"्यते\n":10580,"ज्या ":10581,"रिपु":10582,"्या च":10583," कृषि ":10584,"पश्यन्ति ":10585,"सङ्ग्रह":10586,"अद्यापि ":10587," शीर्ष":10588,"रोचते ":10589," श्रुत्वा ":10590," to ":10591,"ateg":10592,"80":10593,"आद्य":10594,"औपचारिक":10595,"णित":10596,"ाऊ":10597,"िवि":10598,"ीहि ":10599,"ेये ":10600,"८२":10601,"्यो ":10602,"र्छ":10603,"ादिर":10604,"ङ्ख्य":10605,"ाम् अपि ":10606,"रूपिण":10607,"दुहित":10608,"ं कल":10609," लघ":10610," सुविध":10611,"जीवति ":10612,"घटना ":10613,"ो नर":10614," नामानि ":10615,"निरन्तर":10616," [[":10617," स्पर्ध":10618,"प्प":10619,"परिवर्तनं ":10620,"ाच्वंगु":10621,"\"म":10622,", '":10623,"-स":10624,"53":10625,"Al":10626,"iz":10627,"कण":10628,"ङीष":10629,"तनु":10630,"थ ।\n":10631,"भावि":10632,"रत्":10633,"वर्जित":10634,"ाविशेष":10635,"ौढ":10636,"८५":10637,"ं शुभ":10638,"विज्ञाय":10639,"स्य भाव":10640,"ो मन":10641,"ापान":10642,"भव्य":10643,"तिर्":10644,"त्वाच्च":10645,"ेन अ":10646,"संप":10647," विरास":10648,"ग्रेस":10649,"ान् प्र":10650,"ं वृत्त":10651,"राजनि":10652,"लिप्य":10653,"ानुरूप":10654,"परिच":10655,"प्रत्यु":10656,"ाऽह":10657,"े प्रति ":10658,"शक्त्य":10659," अनुभव":10660,"तस्मिन्":10661,"ल्लक्षण":10662,"ाभिमान":10663,"येद्":10664,"पत्ति ":10665," राग":10666,"ासीत् ":10667,"शक्यते ":10668," राष्ट्रिय":10669,"स्कन्द":10670," सम्बन्धि ":10671,"सकलं ":10672,"ook":10673," X":10674,"lation":10675,"इष":10676,"तृण":10677,"दर्":10678,"नाक":10679,"न संशय":10680,"फ्":10681,"मतः ":10682,"ि+":10683,"ेरे ":10684,"े यथ":10685,"स्योप":10686,"ापय":10687,"ावध":10688,"ावहार":10689," नील":10690," विकार":10691,"स्व-":10692,"ात् अ":10693," (--":10694,"ं वाक्य":10695," समाचर":10696,"ं याति ":10697," लाग":10698,"परिचित":10699,"म्बर् ":10700,"दृष्ट्व":10701," स्थल":10702,"चारिण":10703,"हरति ":10704," राजान":10705,"ेत्युक्त":10706,"ers":10707," बहुधा ":10708,"हिन्दु":10709,"विद्यालयं ":10710," g":10711,") त":10712,"ं?\n":10713,"औसत":10714,"ानदार":10715,"ानन्तरं ":10716,"ारम":10717,"स्ति":10718,"िकोण":10719,"ावती":10720," योज":10721,"संभाव":10722,"एवं":10723," शाल":10724,"करिय":10725," च ":10726,"ष्यते ।\n":10727,"च्छन्द":10728,"एकं ":10729,"महा":10730," स्वयमेव":10731,"कृषि ":10732,"ा अस्ति ":10733,"परिश्रम":10734,"यो न ":10735,"जानन्ति ":10736,"तवार":10737,"१०१":10738,"स्पन्द":10739," मुनि":10740,"अहम":10741,"ः आसीत् ":10742,"मित्युक्त":10743,"समन्वित":10744," मेघ":10745," लभते ":10746," गमिष्य":10747,"ाभाविक":10748,"स्ट्रेल":10749,"'s ":10750,"जः ":10751,"देयं ":10752,"ास्थित":10753,"ौ क":10754,"्_":10755,"०१०":10756,"र्कर":10757," सद्य":10758,"स्येति ":10759,"ो यः ":10760," ताल":10761," पाय":10762," प्राकृत":10763,"भवेद":10764,"तु म":10765," आधिकारिक":10766,"ानि च ।\n":10767,"ोऽभव":10768,"कुन्त":10769,"ल्लिङ्ग":10770,"ं वयं ":10771,"लिए":10772,"प्रतिवर्ष":10773,"विद्या ":10774,"नमात्र":10775,"ं पश्च":10776,"ाभ्यन्तरे ":10777,"जगतः ":10778,"अत्रापि ":10779," तदर्थ":10780,"स्य प्रत्य":10781,"प्रायः ":10782,"स्ट् ":10783,"निकट":10784,"इदानीम":10785,"ुनाव":10786,"तिहासिक":10787,"नाम्ना ":10788,"apt":10789,"\" ":10790,"'स":10791,"/)":10792,"}\n":10793,"कतम":10794,"चा ":10795,"जि ":10796,"दव":10797,"ाञ्ज":10798,"ुच्यते ।\n":10799,"ेबसाइट":10800,"्>":10801,"ानेक":10802,"प्रह":10803,"स्य पुत्र":10804,"त्रयोदश":10805," वध":10806," मधुर":10807," दक्ष":10808,"संयुत":10809,"पुरे ":10810," विवाद":10811," - त":10812,"स्मृत्य":10813,"द्विव":10814,"सर्वनाम":10815,"ानि सन्त":10816,"एकस्मिन् ":10817,"भूयः ":10818," ध्रुव":10819,"ः प्रत":10820,"स्थानम":10821,"भविष्यति ॥\n":10822,"रक्षक":10823,"ं देह":10824,"श्रुत्य":10825,"ord":10826,"ाद्वीप":10827," आसपास":10828,"स्य निर्माण":10829," सम्मान":10830,"(यथ":10831,"eb":10832,"ev":10833,"जाम":10834,"तृप्त":10835,"थः ":10836,"नाट्य":10837,"पातु":10838,"मदीय":10839,"यन्तु":10840,"साग":10841,"०१":10842,"ं ख":10843,"ं स्मृत":10844,"ादिद":10845," तट":10846," अर":10847,"ते तव":10848," प्रयुक्त":10849,"िका ।\n":10850,"ेता ":10851,"राघव":10852,"कार्त":10853,"ीयेत":10854,"्मीर":10855,"योनि":10856,"क्रूर":10857,"ाकू":10858," (म":10859,"श्राम":10860,"ान्त्य":10861," इत्यनु":10862," धूम":10863,"ं सौ":10864,"पूर्व्व":10865," व्याप्त":10866," महाबल":10867," एस् ":10868,"तथा \"":10869,"े प्राण":10870,"ाध्ययन":10871,"राष्ट्रपति ":10872,"नी ।\n":10873,"लिखत।\n":10874,"रसाय":10875,"संख्याय":10876,"ि\"\n":10877,"त्रिगुण":10878,"तिर् ":10879,"क्रीडाय":10880,"कश्चन ":10881,"साक्षात्कार":10882,"निवारण":10883,"पुरोहित":10884,"उपयोगकर्ता समीक्षा -":10885,"इ ।\n":10886,"कति ":10887,"काङ्क्ष":10888,"चकार":10889,"णिज":10890,"ताया ":10891,"पण्डित":10892,"वाऽ":10893,"सैव":10894,"सः क":10895,"ी न ":10896,"्स्":10897,"९३":10898,"े देश":10899,"ानपि ":10900," सन्नि":10901,"ातुर":10902,"स्येव":10903," कति":10904,"निह":10905,"समी":10906,"संसद":10907,"ज्झ":10908," नान्य":10909,"पुष्":10910,"ाहित्य":10911,"स्वस्य":10912,"न्यथा ":10913,"ं तद्":10914," रह":10915,"ं च य":10916,"कथयत":10917,"उपचार":10918,"शब्देन":10919,"ं नव":10920,"गम्यते ":10921," राजनि":10922,"पुरस्त":10923,"म् आसीत":10924,"कीर्ण":10925,"कर्तव्यम":10926,"ादीनाम":10927,"पीडित":10928," ि":10929,"56":10930,"तॊ":10931,"े मम":10932," सो":10933," सात":10934,"न कोई":10935,"क्षमत":10936,"म् '":10937,"न्नु":10938,"ते ऽ":10939," देय":10940,"त्वद":10941,"ेन आ":10942,"ेतत् ":10943,"ध्ययन":10944,"ल्स":10945,"ं चक्र":10946,"भाषया ":10947,"ः पश्च":10948," उपकरण":10949," स्तुत":10950,"ind":10951,"मूलं ":10952,"यद्यप्य":10953,"िर्न ":10954,"198":10955," टे":10956," दृश्यत":10957,"ः स्यात् ।\n":10958,"करिष्यत":10959," संशयः ":10960," दिल्ल":10961," ङीष":10962,"सूचना\n":10963,"ra":10964,"अक्षर":10965,"इड":10966,"गन":10967,"चेद":10968,"छेद":10969,"फ् ":10970,"शृङ्ग":10971,"िस्तु":10972,"ूड":10973,"ौ न ":10974,"ं भाव":10975,"ा भवति ":10976,"र्च्य":10977," अक":10978,"ष्टव्य":10979,"तिस्र":10980,"एवं वि":10981," चत्वार":10982,"तुभ्यं ":10983,"ार्थाय":10984,"िरात्र":10985," गमन":10986,"ं प्रधान":10987," इत्यत आह":10988," इत्यस्मात् पुनर्निर्दिष्टम":10989,"एतेषु":10990,"ादिष्व":10991,"कार्यम":10992," महोद":10993,"े सत्य":10994,"पुरुषः ":10995,"वद् ":10996,"र्भुव":10997,"अन्तिम":10998," लोकान":10999,"भुङ्क्त":11000,"सम्बन्धी":11001,"टीसी":11002," रुपए":11003," वय्क":11004,"िक्रम":11005,"िरूपेण":11006,"श्रूयते ":11007," युष्माक":11008,"देवी सर्वभूतेषु":11009,") - ":11010,"500":11011,"ंकर":11012,"ग्म":11013,"लि ":11014,"वस्य":11015,"स य":11016,"सन्ति ।\n":11017,"ेघ":11018,"ौ व":11019,"ौ भव":11020,"े यथा ":11021,"ा ह्य":11022,"ितम्\n":11023,"ारंभ":11024,"ातन":11025,"ो ध":11026," तया ":11027," अत्यन्त":11028," मध":11029,"त्वत्":11030,"िः॥\n":11031,"संध्य":11032," शृणु":11033,"ाहर":11034,"न्यत":11035,"योद्ध":11036,"रुड":11037," जाल":11038,"क्रीत":11039," आर्थिक":11040,"ष्यते ":11041,"ुः\"":11042," उच्यते ॥\n":11043,"च्छाय":11044," न शक्यत":11045," समाध":11046," धु":11047,"भिद्य":11048,"विधीयत":11049,"ता ह":11050,"नामानि ":11051,"वैदिक":11052,"दशम":11053,"अनुमान":11054,"व्यवस्थाप":11055,"सौम्य":11056,"ग्रहणम् ":11057," तत्रैव":11058," इत्यादिन":11059,"अन्वेषण":11060," व्यवस्थाप":11061,"ूयते ।\n":11062,"निवर्त्यताम":11063,"वस्तूनि ":11064,"ies":11065,"इन":11066,"खेन ":11067,"तम् ॥\n":11068,"मल्ल":11069,"वप":11070,"व॒":11071,"ैर्वि":11072,"्यः ":11073,"्यम् ।\n":11074,"प्रयोजनं ":11075," सत्त":11076,"विक्त":11077,"विशुद्ध":11078,"स्तोम":11079," मूढ":11080,"परे ":11081,"भवतीति ":11082,"त्वं म":11083,"रार्थ":11084," च य":11085,"ीयं ":11086,"योर् ":11087,"रुध्य":11088," जित":11089," आग":11090," आन्दोल":11091," बी":11092," पुरो":11093," समर्प":11094,"महं ":11095,"महर्ष":11096,"विधानं ":11097,"ं कदाच":11098,"मम ॥\n":11099," भवत्य":11100,"े च।\n":11101,"अनेन":11102,"१०२":11103,"म्भीर":11104,"वासिन":11105,"संख्यात":11106,"ः समाप्त":11107,"पुनर् ":11108,"रोग्य":11109,"साहस्र":11110,"मत्कार":11111,"ist":11112,"ईश्व":11113,"कः प्र":11114,"दीयत":11115,"नाहं ":11116,"ेति":11117,"ेन्म":11118,"॑स":11119,"ं कुर्वन्त":11120,"े कृते ":11121,"ः ब":11122,"ा ?\n":11123," स॒":11124,"विज्ञात":11125,"म् \"अ":11126,"स्तप":11127," कदा ":11128," तदेव":11129," च वि":11130,"स्वार":11131,"ीयन्त":11132," जी":11133,"िरोध":11134,"ं तद्व":11135,"ं ततो ":11136," बीज":11137,"ः सद":11138," सर्वा ":11139,"न्नड":11140,"र्गृह":11141,"म् अकरोत् ।\n":11142,"दुर्य":11143,"ं केवल":11144,"ं सद":11145,"ं साक्ष":11146,"वर्तन्त":11147,"नमः ॥\n":11148,"वै ।\n":11149,"ं नित्य":11150,"ान्द्र":11151,"ग्न्य":11152,"ीक्ष्ण":11153,"धारय":11154,"तेष्व":11155,"भाजन":11156,"बीसी":11157,"Tag Archives":11158,"नासिक":11159,"भिधीयते ।\n":11160," ङीप् ।\n":11161,") प्र":11162,"ःकरण":11163,"आगम":11164,"नः अ":11165,"म॒":11166,"वत् ॥\n":11167,"ऽऽ":11168,"िक्":11169,"ी:":11170,"ूर्ख":11171,"े यदि ":11172,"स्य भ":11173,"ो भाव":11174,"ायम":11175,"ादाव":11176,"ावान":11177," दिल":11178,"त्पर":11179,"ेन एव":11180,"राठ":11181," शो":11182," चापि ":11183,"तः स्व":11184,"रुह":11185,"ार्थः ":11186,"ान्त्रिक":11187,"ं वह":11188,"ः सामान्य":11189," \"'":11190,"लिष्ट":11191,"ीनि ":11192,"उपदेश":11193,"यथा -":11194,"वेदान्त":11195,"क्षेपण":11196,"जानासि ":11197," उपदेश":11198,"कं ।\n":11199,"बहुध":11200,"जगत् ":11201,"सूत्रेण":11202," इत्यादि ।\n":11203,"ुष्व":11204,"दूरभाष":11205,"सङ्केत":11206,"AT":11207,"au":11208,"चण्ड":11209,"जड":11210,"तेभ्य":11211,"धीम":11212,"यस्मात् ":11213,"षब्द":11214,"७८":11215,"्राष्ट्र":11216,"े जल":11217,"विख्यात":11218,"विलम्ब":11219,"न इति ":11220,"ामीति ":11221,"ो यद":11222," कि ":11223," केन":11224,"ापि\n":11225,"संस्थाप":11226,"ाणि ।\n":11227,"योध":11228,"कृतः ।\n":11229," आचार्य":11230," (न":11231,"च्छब्द":11232,"कुण्ड":11233," न क":11234,"महाम":11235," स्वस्थ":11236,"प्रतिभ":11237,"गुणान":11238," लभ्य":11239,"तदभाव":11240," पूर":11241,"अन्यत् ":11242,"ञ्ञ":11243,"तरस्य":11244," सम्भाव":11245," सम्भवत":11246,"चतुर्व":11247," क्रियते ":11248," कोट":11249," साधन":11250,"ननु च":11251," सम्मेल":11252,"धिष्ठान":11253,"तमे वर्षे ":11254," संसाधन ":11255,"m\n":11256,"पेय":11257,"माम् ":11258,"िद्व":11259,"े कार्य":11260,"स्तिष्ठ":11261," तन्त्र":11262," तत्स":11263,"न्तर्य":11264,"निगम":11265,"न्हु":11266," अज":11267," मि":11268,"ष्टादश":11269,"तिर्य":11270,"तिशय":11271," नाह":11272," शास":11273,"मुद्":11274,"श्रृणु":11275," हि":11276,"िणः ":11277," धार्मिक":11278,"ा अव":11279," खँ":11280,"यथाशक्ति ":11281,"म् आह":11282,"मुक्त्वा ":11283,"तत्सर्व":11284,"यति ॥\n":11285,"ं दद":11286,"गणना ":11287,"गोष्ठ":11288," शिक्षा ":11289,"entence":11290,"पर्यन्तं ":11291," Post":11292,"यतो हि ":11293,"सातव":11294,"मनोरथ":11295," लोप":11296,", व":11297,"58":11298,"Sh":11299,"तेन स":11300,"येय":11301,"लन":11302,"ल्यं ":11303,"सन्":11304,"ु ।\n":11305,"ेद्ध":11306,"ें\n":11307,"ं देश":11308,"ः !\n":11309,"ात\n":11310,"स्य कार्य":11311,"स्य विषये ":11312,"ो ल":11313,"क्षुर":11314,"ाय ":11315,"ादव":11316," कथा ":11317,"ाः-":11318,"त्रिव":11319," मे ॥\n":11320,"परत":11321," येन":11322," यन्त्र":11323,"एवं क":11324,"मुम्ब":11325," परमाण":11326,"एकमेव":11327,"ान् अ":11328,"भिहित":11329,"ात्मनः ":11330,"ं सोम":11331,"नाम\n":11332,"पादप":11333,"े चतु":11334,"ग्नं ":11335,"ास्यत":11336,"इदम":11337,"कर्मणा ":11338," भ्रमण":11339,"पेक्ष्य":11340,"तद्यथा ":11341,"शौच":11342,"-प्र":11343,"ck":11344,"जागर":11345,"थैव":11346,"वरं ":11347,"शत् ":11348,"ाs":11349,"→\n":11350,"ा दश":11351,"विप्रतिषेध":11352,"ामाण्य":11353," कू":11354," वज्र":11355,"िकारण":11356,"पुष":11357," शोध":11358,"स्वकीय":11359,"र्तव्य":11360,"ाचरण":11361,"ेण वि":11362,"ाभिल":11363," उत्सव":11364," धृत":11365,"रोष":11366,"विधीयते ।\n":11367," लक्ष्म":11368,"उपलब्ध":11369,"वैभव":11370,"े अधिक":11371,"च्यु":11372,"वसति ":11373,"ोर् ":11374,"ं दोष":11375," भूय":11376,"कुर्वन्ति ।\n":11377,"नीयम":11378,"सप्तदश":11379,"निरस्त":11380," करोति ।\n":11381,"चेतन":11382,"केचित् ":11383,"राग्य":11384,"हीनं ":11385,"Read ":11386,". य":11387,"ंब":11388,"ं॰":11389,"अग":11390,"आसन":11391,"खाद्य":11392,"छगू":11393,"स न":11394,"ोब":11395,"ं रक्ष":11396,"र्ल":11397,"ति न ":11398,"ादेर":11399," क्त":11400," अतीव":11401," वस्त्र":11402,"िः'":11403," आश":11404,"ान्त्व":11405,"ं ताव":11406,"ं प्राप":11407," समाह":11408,"म् अप":11409,"पदम":11410,"उपस्थित":11411," तुष्ट":11412," महाम":11413," दुग्ध":11414,"प्रशास":11415,"योजनान":11416,"सूत्रे ":11417,"पुनरेव":11418," बुध":11419,"pdf":11420," W":11421," New":11422,"*}":11423,"काणि ":11424,"खे ":11425,"चक्षु":11426,"जाग्र":11427,"झाव":11428,"टिल":11429,"णम":11430,"दर्भ":11431,"नक्त":11432,"पट्ट":11433,"याप":11434,"हिरण्य":11435,"ा+":11436,"ॉप":11437,"ॊध":11438,"ोष्य":11439,"८३":11440,"ा इ":11441,"ा कृत":11442,"र्ने ":11443,"र्ह्य":11444,"ायो":11445," - (":11446," चर्च":11447," भी":11448,"योष":11449,"सर्वथा ":11450,"ुः-":11451,"ाधव":11452," संहित":11453,"ल्फ":11454," निरूप":11455,"यः पठ":11456,"ः प्रयोग":11457,"ः अधिक":11458,"मनीष":11459,"न्ति ॥\n":11460,"रीत्या ":11461,"रिह":11462,"पितॄ":11463,"हरत":11464,"बहुवचन":11465,"ो नित्य":11466,"निश्चित्य":11467,"197":11468," न्यू":11469," सप्तम":11470," स्थाने ":11471,"ो ऽपि ":11472," दर्शन":11473,"देवतान":11474,"ो दण्ड":11475,"लभ्यते ":11476," सम्बन्धी":11477,"ं तथैव":11478," साक्षात्कार":11479," व्रज":11480,"सम्पर्क":11481," स्फुट":11482,"पद्धत":11483," ति ":11484,"-सं":11485,"डल":11486,"य्त":11487,"ों\n":11488,"ा इत":11489,"स्य ग":11490," काच":11491," तन्म":11492," दैत्य":11493,"िः)":11494,"द्यावापृथ":11495,"तः अ":11496,"मुह":11497,"पूर्य":11498," उद्ध":11499,"्नि ":11500,"ल्लोक":11501,"ेषु\n":11502,". . . .\n":11503,"एवं हि ":11504,"वेक्ष्य":11505,"ा वयं ":11506,"ब्रह्माण्ड":11507,"विवर्ज":11508," तमस्य वर्ष":11509," संशोध":11510,"गृह्णीय":11511," अधिनियम\n":11512," निष्कर्ष":11513," व्रत":11514,"लक्ष्मण":11515,"ह्नि":11516,"पुनः प्राप्त":11517,"तस्वीर":11518,"ेबसाइट\n":11519,", प्र":11520,"{*":11521,"ः/":11522,"उन्नत":11523,"तेर":11524,"तात्पर्य":11525,"मयः ":11526,"वास्तु":11527,"सफल":11528,"ि---":11529,"ृध":11530,"९२":11531,"ं स्थाप":11532,"ा जन":11533,"ा मे ":11534,"विभाषा ":11535," कष":11536," ते ।\n":11537," पार्थ":11538," दाय":11539,"ेतौ":11540,"तः क":11541," भास":11542,"कृतार्थ":11543,"सुलभ":11544," (आ":11545,"युध्य":11546," हान":11547," निष":11548,"तम\n":11549,"ं येन ":11550,"ोपम":11551,"ानुग":11552,"कर्मण्य":11553,"विषम":11554,"भारतं ":11555,"सि ?\n":11556," एशिय":11557,"भविष्यन्ति ":11558,"न्वय":11559,"निर्दिश":11560,"ो यज्ञ":11561," = त्रि":11562,"196":11563,"माह ।\n":11564,"तपसा ":11565,"मृदु":11566," प्राणिन":11567,"प्स्य":11568," सौभाग्य":11569," सूत्रेण":11570,"इत्येतद् प्रति संबंधनं कुर्वन्त":11571,"ाएं\n":11572,"ight":11573," सन्देह":11574,"जिह्व":11575," year":11576," न्ह":11577,"52":11578,"ay ":11579,"अद":11580,"चोर":11581,"जर्म":11582,"शङ्ख":11583,"सार्ध":11584,"हे अ":11585,"ास्माक":11586,"ीभूत":11587,"ु?\n":11588,"ूत्र":11589,"ेन्न ":11590,"ै ":11591,"। ":11592,"ि प्र":11593,"ः क्षण":11594,"ः इति ।\n":11595,"विभिन्न":11596,"स्य पूर्व":11597,"ामी":11598,"ो वेद":11599," कह":11600," कै":11601," वस्त":11602,"ालङ्कार":11603,"त्वदीय":11604," चिद":11605,"श्चेति ":11606,"योश्च":11607,"नुमान":11608,"नं कृत्वा ":11609,"देवं ":11610,"िमित्त":11611,"ेषु क":11612," समाप":11613," सर्वद":11614," सर्व एव":11615," स्वातन्त्र्य":11616,"ोपचार":11617,"दिष्य":11618,"कर्मसु":11619,"नमपि ":11620,"नमः\n":11621," एक्स":11622,"विश्वस":11623,"पर्यट":11624,"निर्गुण":11625," परिषद":11626,"िशाच":11627,"कुर्वन् ":11628,"धात्व":11629,"पाठ्य":11630,"पार्व":11631,"ं तथा ॥\n":11632," भ्रात":11633,"द्योगिक":11634,"नास्ति ।\n":11635,"गमिष्यामि ":11636," पृथिवी":11637,"Previous ":11638,"ग्रीष्मे ":11639," U":11640,"e:":11641,"आहार":11642,"कवच":11643,"ढ़":11644,"थःगु":11645,"नागरिक":11646,"ूरु":11647,"ैतद":11648,"ोद्भव":11649,"् +":11650,"प्रभव":11651," ते म":11652,"न्तिम":11653,"ाल्":11654,"त्वमपि ":11655,"भावान":11656,"भावार्थ":11657,"तो वा ":11658,"पुनश्च":11659,"लिङ":11660,"उपसर्ग":11661,"च्यमान":11662," एन":11663," त्वमेव":11664,"सामग्र":11665," श्रम":11666,"ः स्वप्न":11667,"गरीय":11668,"ं शास्त्र":11669,"all":11670,"उत्तरं ":11671,"रेफ":11672," परिभाषा\n":11673,"योर्मध्ये ":11674,"(A":11675,"IV":11676,"एनं ":11677,"जाव":11678,"जनिक":11679,"बाव":11680,"वे ।\n":11681,"वेक":11682,"ृभ":11683,"ोत्य":11684,"ोच्यते ":11685,"ं त्वया ":11686,"े कथ":11687," से ":11688,"विहार":11689,"स्तीति ":11690," कति ":11691,"न्तीति ":11692," प्राह":11693," प्रदर्श":11694,"द्भक्त":11695,"त्सह":11696," भीत":11697," आर्य":11698,"कुम":11699,"कुले ":11700,"कुण्ठ":11701,"ख्याति ":11702,"भिक्षु":11703,"स्तु ।\n":11704,"ः प्रकृत":11705,"सम्भवत":11706,"ं विप्र":11707,"कर्तार":11708,"च्चित्र":11709,"यो म":11710,"जाता ":11711,"र्जन्म":11712," श्रेय":11713,"चिद्":11714,"तत्सम":11715,"ं निर":11716," तथा\n":11717,"ं समाप्त":11718,"निर्वि":11719,"कुर्यात् ":11720,"प्रदेशः ":11721," जायते ।\n":11722,"यौ ॥\n":11723,"दुष्कर":11724,"ावहारिक":11725," ....":11726,"अज्ञान":11727,"लङ्":11728,"ौत":11729,"े ब":11730,"े द्वितीय":11731,"ो जीव":11732," तत् ।\n":11733,"परम् ।\n":11734,"परोक्ष":11735,"ाल्ल":11736,"पुरी":11737," चीन":11738,"स्थाव":11739,"तु य":11740,"द्वैत":11741,"ाचित्र":11742,"म् अर्थ":11743,"ः अह":11744,"इत्यनेन ":11745," भवान":11746,"ान्यपि ":11747,"गतान":11748,"ानुबन्ध":11749,"वैर":11750,"ादिश":11751,"पुत्रेण":11752," वर्षे\n":11753,"ो नैव":11754,"स् त":11755,"ितम\n":11756," भूतान":11757,"ang":11758,"ं शिव":11759,"हस्तेन ":11760," घण्ट":11761,"मीश्वर":11762," ट्र":11763,"शासनं ":11764,"ब्रवीत् ।\n":11765," सम्यक् ":11766,"Sentence":11767,"अनि":11768,"धार्य":11769,"नेति ":11770,"न संशयः ।\n":11771,"म।\n":11772,"लाह":11773,"ले ।\n":11774,"प्रयत्नेन ":11775,"ो देश":11776,"ो वर्ष":11777,"न्स् ":11778,"ते प्र":11779," मन ":11780,"ालाभ":11781," नाप":11782," विकि":11783,"न्यस्य":11784,"क्रु":11785,"मानन्द":11786,"कुलं ":11787," हृ":11788," इति भाव":11789,"ं चित्त":11790,"तीर":11791,"न्देह":11792,"ः प्रभ":11793,"ः कदाच":11794,"ं यत्त":11795,"ा अधिक":11796,"विद्युत":11797," उपलब्ध":11798," श्राद्ध":11799,"तथा\n":11800,"शतक":11801,"पुरुषोत्तम":11802," यथाविध":11803,"दृश्यं ":11804,"मातर":11805,"ग्रामीण":11806,"न्यायालय":11807,"भाषण\n":11808,"व्यापक":11809," पर्याय":11810,"वक्तव्यम":11811," सरल":11812,"ावश्यक":11813,"नो वेबसाइट\n":11814," पोर्नो वेबसाइट\n":11815,"ानदार पोर्नो वेबसाइट\n":11816,"(D":11817,"d)":11818,"आश्र":11819,"उन्न":11820,"धनु":11821,"नैष":11822,"बध्य":11823,"लाष":11824,"वता ":11825,"वीण":11826,"ौघ":11827,"ं दिन":11828,"े नमः ।\n":11829,"ः कर":11830,"र्चित":11831," सनात":11832,"स्य लक्षण":11833,"ाय,":11834,"म् !\n":11835," तास":11836," अर्ह":11837,"ावय":11838,"ासक्त":11839,"ेत,":11840," शक्र":11841," चेष्ट":11842,"ीयन्ते ":11843,"तु न":11844,"मुत":11845,"कृत् ।\n":11846,"ाच्या ":11847," उपर":11848," निर्य":11849,"ं च वि":11850,"ेषु न":11851," धर":11852,"ोः,":11853," सुप्त":11854,"ोमि ":11855,"तथ्य":11856,"दृश्यम् ।\n":11857,"ेभ्यः प्र":11858," वै ।\n":11859,"ं दिव":11860,"मन्त्रि":11861,"ं शरीर":11862,"ग्रामे ":11863,"ज्ज्वल":11864,"उक्तम":11865,"मोच":11866," क्रियत":11867," दृश्यते ":11868,"िसत्त्व":11869," वेग":11870," तेषाम":11871," शक्नुव":11872,"view":11873," पार्व":11874,"यद्वा ":11875,"ं सहस्र":11876," निर्णय":11877,"क्लीब":11878,"ंह":11879,"कः":11880,"कस":11881,"जस":11882,"थमे ":11883,"थुक":11884,"धो":11885,"नूतन":11886,"पन्थ":11887,"यदुक्त":11888,"ैक्य":11889,"ोता ":11890,"े तद":11891,"ा गुण":11892,"ितया ":11893,"विष्ठ":11894," पट":11895," अभवत":11896,"व्यो":11897,"व्यभिचार":11898," नप":11899,"द्यापि ":11900,"म्नि ":11901,"नुज":11902,"मुमु":11903,"सुकृत":11904,"ग्रे ":11905,"ं वर":11906,"महाक":11907," \"आ":11908," \" इत":11909,"यः _":11910,"िणि ":11911,"विधिव":11912,"शुल्":11913,"ार्जन":11914,"विद्याय":11915,"सहसा ":11916," दुष्":11917,"के ॥\n":11918,"ित्वात् ":11919,"कस्यापि ":11920,"ादीन् ":11921,"चतुर्":11922,"पठित":11923,"सततं ":11924," अभिप्राय":11925," हृदि ":11926," अध्यक्ष":11927,"स्वामिन":11928,"इत्यादिना ":11929,". व":11930,"Ex":11931,"जन्तु":11932,"णी":11933,"फे":11934,"शूल":11935,"स ह":11936,"ी?\n":11937,"११०":11938,"ः समु":11939,"ाद्यं ":11940," अतो ":11941," मिश्र":11942,"ालोक":11943,"ष्टम":11944,"ेन म":11945,"ेतन":11946,"ाह -\n":11947,"सर्वपाप":11948,"ेनेति ":11949,"ाध्व":11950,"सुन्द":11951," (←":11952," नियत":11953,"कालं ":11954,"इत्यपि ":11955," भवितव्य":11956,".....":11957,"ब्रूम":11958," व्याघ्र":11959,"नवदिल्ल":11960,"ाभ्युप":11961,"ः शान्त":11962," साम्":11963," मनसा ":11964,"यान्व":11965," षड":11966,"किञ्चिद":11967," तस्माद":11968," अत एव":11969," शक्यं ":11970," संयुक्त राज्य":11971,"ं सूर्य":11972," - शानदार पोर्नो वेबसाइट\n":11973,"Tag Archives:":11974," लिप":11975,"\"व":11976,"\"एक":11977,") य":11978,"krit":11979,"ःस":11980,"उत्पत्त":11981,"कार्":11982,"ददर्श":11983,"नृत":11984,"भयम":11985,"भीर":11986,"लॊ":11987,"९४":11988,"स्याप":11989," तर्क":11990," पा":11991,"संप्र":11992," चकार":11993,"स्मित":11994,"ाधन":11995,"ाभिम":11996,"इति क":11997,"भिन्न ":11998,"पदान्त":11999,"प्रतिबिम्ब":12000,"रिष":12001,"दृष्टि":12002,"साम्राज्य":12003,"् अप":12004,"त्पत":12005," भाषाय":12006,"ित्वेन ":12007,"ः\"\n":12008,"मूर्ध":12009," शिख":12010,"करोत् ":12011," षोडश":12012," पश्चात् ":12013," स्थापना ":12014," निश्चित":12015,"्द्य;":12016,"le ":12017,"ंया ":12018,"ःत":12019,"किरण":12020,"कश्मीर":12021,"नूत":12022,"पङ्क":12023,"मङ्गल":12024,"ौह":12025,"ः स्थित":12026,"ा विश्व":12027,"र्कः ":12028,"प्रकट":12029,"विलक्षण":12030,"विचार्य":12031,"न ग":12032,"ां।\n":12033,"स्य धीम":12034," पित्र":12035,"र्वाद":12036," अच":12037," अभवत् ।\n":12038," वृष्ट":12039,"परिकल्प":12040,"संपूर्ण":12041," न संशय":12042,"ज्ञेयः ":12043,"मानस्य":12044,"लोड":12045," रम":12046," रचन":12047," रेख":12048,"ेषु य":12049,"महता ":12050," इत्युप":12051,"रीत्य":12052,"ोक्तम":12053,"१०८":12054," यथा\n":12055,"लुप्त":12056,"ेश्वरः ।\n":12057,"प्रभु":12058,"न कश्च":12059,"ात्मनः ॥\n":12060,"ेच्छया ":12061," द्विगुण":12062,"ाङ्मुख":12063," मिथ्य":12064,"-म":12065,"जं ":12066,"धीन":12067,"पाख":12068,"भृ":12069,"से ॥\n":12070,"ाविषय":12071,"ूच":12072,"ेते ।\n":12073,"ॊ हि ":12074,"्[":12075,"९७":12076,"्व्य":12077,"े वर्ष":12078,"े तथा ":12079,"ः ,":12080,"प्रीति":12081,"विड":12082,"ादू":12083,"ावसान":12084,"ेन ॥\n":12085,"ज्जय":12086," नद":12087," - विकिपीडिया\n":12088,"ध्याप":12089,"मुत्तर":12090,"ेण\n":12091," परं ":12092,"जननी":12093,"कुत्स":12094," हत":12095,"ं वृद्ध":12096,"ं च।\n":12097,"ं चित्र":12098," बै":12099,"ाषाण":12100," \"स":12101,"स्तु स":12102,"कृत्रिम":12103,"गृहस्थ":12104,"ार्जित":12105,"ण्डलं ":12106," ख्रीष्ट":12107," व्यु":12108," प्रतिभ":12109,"चारी":12110,"निर्दिश्य":12111,"स् तु":12112,"ोऽपि न ":12113,"े किम":12114,"गोविन्द":12115,"विशति ":12116,"भूमि ":12117,"तय्स":12118,"ीत्यर्थ":12119,"अध्याप":12120,"निषिद्ध":12121,"रोचत":12122,"(c)":12123,". म":12124,"ंथ":12125,"आग्न":12126,"जव":12127,"फि":12128,"मिन":12129,"य ॥\n":12130,"यस्त्व":12131,"ोत्थ":12132,"ौ य":12133,"ः द":12134,"प्रपञ्च":12135,"प्रयास":12136,"िति":12137," कान्त":12138,"निदेश":12139," अत्य":12140," अधुना ":12141," वल":12142," वि ":12143,"ेवर":12144,"ेव ।\n":12145,"द्गुण":12146,"स्वेद":12147,"्मान":12148," परम्पर":12149,"ं वाय":12150,"तस्यापि ":12151,"सूर":12152,"कथ्यत":12153,"यथाह":12154,"ादिगण":12155,"१०९":12156,"ाभ्यन्तर":12157,"ितमस्त":12158,"पृथक":12159,"ort":12160,"पत्रिक":12161,"ेष्वेव":12162,"ंगल":12163," जायत":12164,"प्लुत":12165," श्रुति":12166," प्रतीक्ष":12167,"पदिश्यत":12168,"हिन्दी":12169,"ात्त्विक":12170," (--/)":12171," ढ":12172," ,\n":12173,"AR":12174,"IC":12175,"ia":12176,"इंद्र":12177,"कवि":12178,"चक्षण":12179,"जम्म":12180,"पङ्क्त":12181,"वकाश":12182,"श.":12183,"सोप":12184,"हृत्य":12185,"ृ-":12186,"्ं":12187,"्ि":12188,"॑त":12189,"ं युद्ध":12190,"े ते ":12191,"ः .\n":12192,"ः श्र":12193,"प्राप्नोत":12194,"क्षी":12195,"स्तेन":12196,"ादयः ।\n":12197," मल":12198," प्राधान्य":12199,"ासीन":12200,"व्याज":12201," च स":12202,"ाह्ण":12203,"स्मात्":12204,"मुत्त":12205," आयु":12206,"युज":12207,"ं वक्ष्य":12208," गव":12209,"ं प्रात":12210,"भूतो ":12211," न त्व":12212,"पूर्वम":12213,"रे च":12214,"ेयर":12215,"ोग्य":12216," द्वय":12217,"्-\"":12218,"तस्माद्":12219,"ल्लव":12220," कृत्व":12221,"रात्रि":12222,"ं समर्प":12223," विश्वविद्यालय":12224,"मन्यत":12225,"दैवत":12226," विधिव":12227,"प्रधानमन्त्री":12228,"योऽपि ":12229,"र्द्ध्व":12230," गुह":12231,"विस्तृत":12232,"translation":12233,"54":12234,">\n":12235,"अंश":12236,"आच":12237,"कवित":12238,"मनं ":12239,"यः":12240,"यया ":12241,"लस्य":12242,"स-":12243,"ास्फ":12244,"ुम् ।\n":12245,"्यू":12246,"े काल":12247,"ातक":12248,"ाय।\n":12249,"ादन":12250," अगस्त":12251,"ाविति ":12252,"ेतव्य":12253," नास":12254," नीत":12255," विनि":12256," विष्णु":12257," शिल":12258,"द्युत":12259,"स्वती":12260,"स्थात":12261,"ीय-":12262,"ङ्गुल":12263,"योर्य":12264,"द्वये ":12265,"मुत्स":12266,"क्रोश":12267,"ाशास्त्र":12268,"जनार्दन":12269,"एकान्त":12270," एव स":12271," निष्ठ":12272,"स्तुति":12273,"ोपपत्त":12274,"वर्षस्य":12275,"ेयम् ।\n":12276,"ीक्षित":12277,"पृथक् ।\n":12278," भाषा\n":12279,"स्नात्वा ":12280,"प्रायश्चित्त":12281,"प्रकाशित":12282,"शिक्षक":12283,"शिक्षा ":12284,"ाम्यहं ":12285,"जिग":12286,"विद्यालयः ":12287," इत्युच्यते ।\n":12288,", ज":12289,"b)":12290,"man":12291,"ंग्ल":12292,"आदि":12293,"ई-":12294,"नेम":12295,"येद् ":12296,"लाइ":12297,"सन्देश":12298,"ी य":12299,"ेपद":12300,"ॊर":12301,"्:":12302,"ा तस्य":12303,"ति इति ":12304,"ामिति ":12305,"ामुख":12306,"ो भाग":12307,"स्\n":12308," तान् ":12309,"न्तो ":12310," वने ":12311," मिन":12312," मर्त्य":12313,"त्वाद् ":12314,"व्योम":12315," श्ल":12316,"िनः\n":12317,"मुदित":12318," ह।\n":12319,"ङ्गी":12320,"ः प्रण":12321,"लिट":12322,"लिप्त":12323,"गृहपृष्ठ":12324,"कथयामि ":12325,"कर्ता\n":12326,"सीति ":12327,"विद्यार्थ":12328,"दानेन ":12329,"े अप":12330,"ष्णव":12331,"साम्य":12332,"यति -":12333,"अहोरात्र":12334," सम्पन्न":12335," छाय":12336,"अवशिष्ट":12337,"१८८":12338,"ुभु":12339,"पत्राणि ":12340,"ं भवेत":12341,"कर्षेण":12342," प्रशंस":12343," रुपय":12344,"पदार्थः - (":12345,"प्रदीप":12346,"गायत्र":12347," इदानी":12348,"भ्रातृ":12349,"शरीरं ":12350," न शक्यते ।\n":12351,"'क":12352,"BC":12353,"ऋत्व":12354,"काङ्":12355,"च्":12356,"जल्प":12357,"पोष":12358,"यति\n":12359,"ेत्स":12360,"े दिन":12361,"ा इति ।\n":12362,"् इति ":12363,"क्ङ":12364," अन्न":12365," अभय":12366,"परार्थ":12367," इक":12368,"त्वात्त":12369,"राभ्य":12370,"कृतवान् ।\n":12371,"सुप":12372," उद्य":12373,"देवान् ":12374," हन्त":12375,"एक एव":12376,"भूति ":12377," समयः ":12378,"ः सौ":12379,"इति सं":12380,"िणा ":12381,"ित्यर्थ":12382," सुप्रभात":12383,"धर्मार्थ":12384,"िष्यते ।\n":12385,"बन्धु":12386," द्वीप":12387,"सिद्धि":12388," पुनर्व":12389," हि ॥\n":12390," यथाक्रम":12391,"न्ते ॥\n":12392," एतेष":12393,"शिष्ट्य":12394,"बाधित":12395,"सोई":12396,"ातिपदिक":12397," अधिकतम ":12398," अप्रैल":12399,"ःथ्द्य;":12400,"(च)":12401,"apter ":12402,"EN":12403,"by ":12404,"ः!\n":12405,"ताद":12406,"पिप":12407,"मज":12408,"षट् ":12409,"से\n":12410,"िन्म":12411,"ः वा ":12412,"प्रजाप":12413,"विराज":12414," पल":12415," अद":12416," मरु":12417," प्रजाप":12418,"ासित":12419,"ालक":12420,"त्वं व":12421," शोक":12422,"सर्वकारेण":12423,"द्रोह":12424," उन्न":12425,"ष्ठु":12426," परिण":12427," हर्ष":12428," धाव":12429,"ं मनुष्य":12430,"परिष्ट":12431,"परिच्छेद":12432,"विषयः -":12433," तु ।\n":12434,"ाऽहं ":12435,"तत्र च":12436," प्रतिवेदन ":12437," सहसा ":12438,"विशेषतः ":12439," स्तोत्र":12440,"ास्यति ":12441,"ततः पर":12442,"कारणात् ":12443," पृच्छ":12444,"बहू":12445,"ध्वनि":12446," सामग्र":12447,"दक्षिणे ":12448,"end":12449,"मित्येव":12450,"पञ्चम":12451,"इहैव":12452,"195":12453," सप्ताह":12454,"तिथि":12455,"कदाचित्":12456,"श्रीकृष्ण":12457," ज्याझ":12458," जून ":12459," लिखित":12460,"अवस":12461,"खद":12462,"चाप":12463,"तस":12464,"शद":12465,"िधान":12466,"ेफ":12467,"ा ब":12468,"प्राधान्य":12469,"वियोग":12470,"ारि":12471,"स्य समीप":12472,"ाद्या ":12473," पच":12474," वानर":12475," प्रशिक्षु":12476,"समाप":12477,"त्वारः ":12478,"व्यस्त":12479,"कारः ।\n":12480,"तु न ":12481,"सर्वतः ":12482,"िवास":12483,". \"":12484,"देवदेव":12485,"ान्तर्ग":12486," इति प्र":12487," निपात":12488," स्वयम":12489," धइगु":12490,"पुनस्त":12491,"ं सेव":12492,"तदन्त":12493,"हितं ":12494,"ं विहाय":12495,"यथा\n":12496,"ाऽनु":12497," उपस्थित":12498,"शक्तिर":12499,"ैकादश":12500,"बुद्ध्या ":12501,"ो यदा ":12502,"मनुज":12503," अनन्त":12504,"मारु":12505," करोमि ":12506,"रमणीय":12507,"ा आसीत":12508," बहव":12509,"भीषण":12510,"पृच्छत":12511," यायेगु":12512,"वान्\n":12513," आवश्यकता ":12514,"ासम्भव":12515,"(भाष्यम":12516,") \"":12517,"For":12518,"अव्यक्त":12519,"आत":12520,"इयम् ":12521,"उद्य":12522,"के च":12523,"गूढ":12524,"जो":12525,"जिला ":12526,"ताभ्य":12527,"तेऽपि ":12528,"थि ":12529,"पाच":12530,"लॊक":12531,"िड":12532,"ः समुद्र":12533,"स्यात्त":12534,"स्निग्ध":12535,"त्रुट":12536," मैत्र":12537,"ावलोक":12538,"पराक्रम":12539,"ष्टु":12540,"ेन (":12541,"व्यर्थ":12542," - च":12543," चित":12544,"ाह्व":12545,"न्यथ":12546,"ेण्ट":12547,"ं तद् ":12548," स्वतः ":12549,"यद् अ":12550,"ेऽप":12551,"तदनन्तर":12552,"अथे ":12553,"यथैव":12554,"वृत्र":12555," मह्यं ":12556,"भेदः ।\n":12557," पुनराव":12558,"हरित":12559,"जग्म":12560," विद्यु":12561,"पाठः ":12562," रूपेण":12563," भगवान्":12564,"ासी ।\n":12565,"सूर्य्य":12566,"स्तरेण":12567,"लक्ष्यते ।\n":12568,"ः सहस्र":12569," शक्नोत":12570,"वैश्वदेव":12571,"बध्न":12572," ु":12573,"/-":12574,"70":12575,"[[":12576,"अन्त्य":12577,"आवाह":12578,"ण्":12579,"तं प्र":12580,"नन":12581,"वः\n":12582,"ाब्":12583,"ैय":12584,"ो\"":12585,"ः ए":12586,"प्रयोज":12587,"विशत":12588,"स्य ज":12589," कय":12590,"ापराध":12591," वो ":12592,"ज्जु":12593,"ाशी":12594,"पूव":12595,"देवानाम":12596," हजार":12597,"ं चर":12598,"महाभाग":12599,"पदं किम":12600,"दुर्म":12601,"ात्मकः ":12602," - एक":12603,"िदश":12604,"ज्याय":12605,"दिच्छ":12606,"गतं ":12607,"क्रियापद":12608," व्याध":12609,"काश्मीर":12610,"ाक्षिण":12611,"ुरेव":12612," पुनः ।\n":12613,"दूरं ":12614,"गच्छन्ति ":12615,"तदा ।\n":12616,"दाचार":12617,"ग्रहणे ":12618,"उत्तर-":12619," किलो":12620," सप्तदश":12621,"गन्धर्व":12622,"पाकिस्तान":12623,"सङ्ख्यान":12624," उच्चारण":12625,"सावधान":12626,"ज्वाल":12627," मेदि":12628,"ातिरिक्त":12629,"\"अथ":12630,"ib":12631,"उन्म":12632,"गोम":12633,"घान":12634,"ट्व":12635,"नः प्र":12636,"भेषज":12637,"मीम":12638,"ाꣳ":12639,"ी र":12640,"ेब":12641,"ेत्व":12642,"ै,":12643,"ै-\n":12644,"ॊण":12645,"ा यदि ":12646,"र्क्ष":12647,"ारूढ":12648," कमल":12649," तावत् ":12650,"निधि":12651,"द्ब":12652,"ासो ":12653,"ेषित":12654,"ेष्यत":12655," शृण":12656,"िनं ":12657,"िनी ।\n":12658," च म":12659,"न्यजीव":12660,"मान्":12661,"ार्थम् ":12662," उचित":12663," हव":12664," होम":12665,"एकत्र":12666,"महाव":12667,"कालीन":12668,"ात्मनो ":12669,"पाद्य":12670," स्पृ":12671,"ोषि ":12672,"सी\n":12673,"ं मूल":12674,"कर्मक":12675,"धर्माण":12676,"चिष":12677,"तत्पुरुष":12678,"ाश्चैव":12679," पदे ":12680,"and ":12681,"क्षुध":12682,"१५०":12683," देशे ":12684,"निर्विकल्प":12685,"तावद":12686," विधेय":12687," भविष्यति ।\n":12688,"कौशल":12689,"शूद्र":12690," चतुर":12691," पश्यत":12692,"यौवन":12693,"वाणिज्य":12694," { ":12695,"म् आरब्ध":12696,"65":12697,"ET":12698,"con":12699,"ंव":12700,"ंतु":12701,"उत्साह":12702,"भिय":12703,"यन्":12704,"वर्च":12705,"सः स":12706,"ा[":12707,"ोत्प":12708,"ोनि ":12709,"े ?\n":12710," सृज":12711,"विकि":12712,"न भवति ":12713,"स्य प्रति":12714," अयम् ":12715,"ावकाश":12716,"परियोजन":12717," यानि ":12718," यूप":12719,"समक्ष":12720,"संपद":12721," विल":12722," विभिन्न":12723,"ेशान":12724," परत":12725,"जनपद":12726,"श्रोतु":12727," गाव":12728,"ं प्राय":12729," सर्वं ":12730,"प्रतिभास":12731,"सम्बोध":12732,"गृहे ।\n":12733,"रिश्त":12734,"म्बु":12735,"दृष्ट्य":12736," पूजन":12737," व्याख्यात":12738,"ान्नं ":12739,"े प्रिय":12740,"१०३":12741,"१०५":12742," सूचित":12743,"े वयं ":12744,"वासु":12745,"भारतदेश":12746," नमः ":12747,"लुक":12748,"संख्यान":12749,"ाग्रहण":12750," वर्त्त":12751," वर्तते ":12752,"विधानेन ":12753," अवश्य":12754,"बिन्दु":12755,"ं यथा\n":12756,"तीत्यर्थ":12757,"ाघव":12758,"संशोध":12759," दूरे ":12760," फरवरी":12761,"गुह्यं ":12762,"शरीरे ":12763," अन्वेषण":12764," मई ":12765," ् ":12766,", इ":12767,"ie":12768,"आर्थिक":12769,"चुर":12770,"णम् ।\n":12771,"तं व":12772,"नख":12773,"मः ।\n":12774,"मग्र":12775,"मायु":12776,"साथ":12777,"स एष":12778,"ै ।\n":12779,"ोच्यते ।\n":12780,"ौ'":12781,"्---":12782,"ं धन":12783,"ं मित्र":12784,"प्रमाद":12785,"स्य कृते ":12786,"ायते ।\n":12787," तू":12788," अङ्क":12789," वाञ्छ":12790,"क्तिक":12791," याइ":12792,"समेत":12793,"संध":12794," नि ":12795," नूतन":12796,"स्थलं ":12797,"ाभिन":12798," (*":12799,"एकस्य":12800,"ः सनात":12801,"एतौ":12802,"काले अ":12803,"शिक्षित":12804,"ोपकरण":12805,"इत्य् ":12806,"सी ।\n":12807,"िल् ":12808,"कार्यकारण":12809,"बन्धन":12810,"यस्य स":12811,"पर्य्य":12812,"जायत ।\n":12813,"म् आगत":12814,"य् नं ":12815," वैज्ञानिक":12816,"ो नित्यं ":12817,"त्वं तु":12818,"वासर":12819,"लक्षणम":12820,"ा प्रोक्त":12821,"ातुल":12822,"प्रथमं ":12823,"ो भवेत":12824,"अन्तर्":12825," करोड़":12826,"मेरिकाय":12827,"सम्बन्धि ":12828,"ीत्या ":12829,"ेट्र":12830,"itle":12831," ततः पर":12832,"कुरुत":12833,"पारि":12834," चतुर्दश":12835," निर्मित":12836,"ाचरेत् ।\n":12837," आत्मान":12838," कश्चित् ":12839,"उत्पादन ":12840,"anskrit":12841,"The ":12842," संस्कृति ":12843,", उ":12844,"AS":12845,"Com":12846,"उत्पन्न":12847,"ऋच":12848,"च त":12849,"ण् ।\n":12850,"माया ":12851,"वास्त":12852,"साभारः ":12853,"ी त":12854,"ी द":12855,"ीगु":12856,"०११":12857,"ं कारण":12858,"प्राह":12859,"प्रजान":12860,"प्रारम्भ":12861," सदृश":12862,"ातिश":12863,"ातिथ":12864,"स्य अनु":12865,"ाम\n":12866,"ामि\n":12867,"स्खल":12868,"ाय\n":12869," प्रभु":12870,"िकल":12871,"िकया ":12872,"त्वं क":12873,"संसाध":12874,"संपन्न":12875," नष्ट":12876," चार":12877,"गुरो":12878,"रुज":12879,"सर्वस्व":12880,"मुह्य":12881,"र्ण्य":12882,"श्रूष":12883,"ान् \"":12884,"ं च स":12885,"ती\n":12886,"पदिश":12887,"रूपम् ।\n":12888,"ः अप":12889,"ात्म्यं ":12890,"्यतया ":12891,"कृष्य":12892,"ं विद्व":12893,"वर्ष ":12894,"े चैव":12895," सह ।\n":12896," स्थिति ":12897," श्रोत":12898,"राष्ट्रपति":12899,"घट्ट":12900," तदपि ":12901,"ाभिषेक":12902,"भारत-":12903,"लभत":12904," शक्ति\n":12905,"मेरि":12906,"पुस्तकाल":12907,"स्तरीय":12908,"निष्कर्ष":12909," St":12910,"द्विजोत्तम":12911,"ill":12912,"अष्टादश":12913," करिष्यामि ":12914," द्विविध":12915," फरवर":12916,"शृण्व":12917,"ack":12918,"विदेशी":12919,"लेख्य":12920,"ownlo":12921,") इति ।\n":12922,"ww":12923,"yn":12924,"गह":12925,"दाप":12926,"मभ्य":12927,"मर्श":12928,"या":12929,"व ।\n":12930,"वेति ":12931,"हतः ":12932,"ेरु":12933,"े धर्म":12934,"े जात":12935,"ः य":12936,"ा ध":12937,"ा कर":12938,"ा - ":12939,"प्रेक्ष":12940,"ित।\n":12941,"ामहे ":12942,"क्षोभ":12943,"निभ":12944," अभाव":12945,"त्रिभ":12946,"ते इति ।\n":12947," दीन":12948,"ासाद्य":12949," ये च":12950,"ष्टौ":12951,"समीक्ष":12952,"श्च।\n":12953,"सर्वद":12954,"माना ":12955,"ार्थं प्र":12956," हरि":12957,"एकव":12958,"ं वय":12959,"ं वा ।\n":12960,"ं प्रकरण":12961," रक्षित":12962," नियुक्त":12963," निवास":12964," इत्यनेन":12965,"म् अभवत":12966,"मन् ":12967,"ज्ञानिन":12968,"ोः\"":12969,"प्रतिनिध":12970,"तदिद":12971,"कर्तरि ":12972,"यदि न ":12973,"तं ।\n":12974,"ञ्जात":12975,"कामान":12976,"ोरिय":12977,"मिष्ट":12978," वैद्य":12979,"न्वेषण":12980,"गणन":12981,"मूष":12982," कर्तृ":12983,"ो भवेत् ॥\n":12984,"व्यापी":12985," पुरा ":12986,"कौतु":12987,"प्रधानमन्त्र":12988,"गिरि":12989," व्यवस्थित":12990," प्रयोगशाल":12991,"ाधिपत":12992," उत्पादन ":12993,"संहिताय":12994,"प्रतिकूल":12995,"66":12996,"Xxx":12997,"ax":12998,"अन्ते ":12999,"अस्य प्र":13000,"आवेदन ":13001,"उद्यान":13002,"नस":13003,"भक्ष्य":13004,"यतु ।\n":13005,"ाष्य":13006,"ॊक्त":13007,"ः क्रिय":13008,"ानिर्":13009,"म् - ":13010,"स्तोत":13011,"ादुप":13012," तदु":13013," वाग":13014," वंश":13015,"त्सर्व":13016,"त्वस्य":13017," नक्षत्र":13018,"मुत्प":13019," आस्त":13020,"ेन सु":13021,"िवृद्ध":13022,"िरित":13023," परस्परम":13024," निर्ग":13025,"सम्भवति ":13026,"ोपेत":13027,"मम।\n":13028,"दिक्":13029," व्याख्यान":13030,"ग्निर्":13031,"दर्शनम":13032,"सामान्यत":13033,"मध्याह्न":13034,"ो वयं ":13035,"यति -\n":13036,"ैर्यं ":13037,"हेतुम":13038,"रात्रि ":13039," करने ":13040,"ामहे ।\n":13041,"प्रणाल":13042," पर्यट":13043,"ुदात्त":13044,"शिखर":13045," ज्योतिष":13046,"स्ट्रेलिय":13047,") म":13048,"You":13049,"sh":13050,"अयमेव":13051,"कन्द":13052,"ततं ":13053,"नः":13054,"यौ ।\n":13055,"लवण":13056,"ेति\n":13057,"े विश्व":13058,"ः भव":13059,"ः फल":13060,"ः पित":13061,"ा कार्य":13062,"विभाव":13063,"विपक्ष":13064,"क्षाल":13065,"स्तद्व":13066," तद्य":13067," पो":13068," वाक्यं ":13069," मन्दिर":13070,"िकः ।\n":13071," इत्थ":13072," दात":13073," शर्म":13074,"ाणु":13075,"नं नाम":13076," आश्र":13077," आङ्ग्ल":13078,"ेणापि ":13079,"ाभरण":13080," उत्":13081,"एकेन ":13082," रात":13083,"पदि ":13084,"न्ति ?\n":13085,"सम्प्रसारण":13086,"ार्घ":13087,"ा अभि":13088,"विषया ":13089," खण्ड":13090," महत":13091," देवी":13092,"दूरी":13093,"ो नास्त":13094,"वेश्य":13095,"बहिर":13096,"गणेश":13097,"बालिक":13098,"तेषाम् ":13099,"ं शत्र":13100,"स्त्वं ":13101,"स्य च ।\n":13102,"es\n":13103,"ith":13104,"वत्सल":13105," रुच":13106," सौम्य":13107,"शीतल":13108,"पूरयत":13109," क्लेश":13110,"शैली":13111,"विचक्षण":13112,"द्रष्टव्यम् ।\n":13113,"क्लिष्ट":13114,"ब्रवीम":13115,"वय्कलं ":13116,"आक्रमण":13117,"क्यं ":13118,"थ।\n":13119,"पा":13120,"फिल्म":13121,"भुत":13122,"ृपत":13123,"ोश्च":13124,"॒त":13125,"्रज":13126,"र्च्छ":13127,"प्रसू":13128,"प्रासाद":13129," सर्ग":13130,"ामित":13131," पण":13132," प्रकल्प":13133,"ावस्थाय":13134,"भवन् ":13135,"ाले ":13136,"त्वाभाव":13137,"ेन न":13138,"ेन च ।\n":13139,"व्यञ्जन":13140," न\n":13141,"पुरं ":13142,"एवंविध":13143," शैल":13144,"त्ति ":13145,"तुर्":13146,"सर्वलोक":13147,"कृतज्ञ":13148,"द्राक्ष":13149,"मान् ।\n":13150,"ेण सं":13151,"सुहृद":13152,"ं तेज":13153,"ं प्रयच्छ":13154," न श":13155,"राजधान":13156,"ास्तत्र":13157,"मही":13158,"ना च":13159,"तस्या ":13160,"ः कोऽपि ":13161,"ं नगर":13162," एनं ":13163,"कल्पन":13164,"तवान":13165," उपसर्ग":13166," देवि ":13167,"पुरा ।\n":13168,"े वापि ":13169," /\n":13170,"ाखिल":13171,"अर्थः -":13172,"षण्ण":13173,"येथ":13174,"मेतत् ":13175,"कदाचिद":13176,"स्य मूल":13177,"ानि च।\n":13178,"मनुष्याण":13179," अनुसंधान\n":13180," परीक्षण\n":13181," th":13182,"\"ह":13183,"\" इति ।\n":13184,"\" इत्यस्य संस्करणे भेदः\n":13185,"Categ":13186,"by":13187,"किर":13188,"केरल":13189,"तोष":13190,"तन्नि":13191,"भक्षण":13192,"यष्ट":13193,"रति":13194,"रब्ध":13195,"लम्भ":13196,"लङ्घ":13197,"वाप्य":13198,"सः\n":13199,"स त्व":13200,"ा]":13201,"ेs":13202,"ेः,":13203,"ोि":13204,"॥ य":13205,"ारक":13206,"न श":13207,"न भवति ।\n":13208,"ति _\n":13209,"म् उक्त":13210,"म् एतत् ":13211," काक":13212," पातु":13213," वक्ष्यामि ":13214,"ावी":13215,"द्भि":13216,"त्वादिति ":13217,"संवि":13218,"पुरा":13219," विशाल":13220," - तत् ":13221,"ाहत":13222,"द्विप":13223,"सर्वकाम":13224,"ार्थान":13225,"ं तृतीय":13226,"रूपा ":13227,"ं कृप":13228,"ं यद्य":13229,"गतौ":13230,"ानुष्ठान":13231," _ ":13232,"वै ॥\n":13233,"ग्रही":13234,"सह्य":13235,"दीश्वर":13236,"ो वाय":13237,"ो नास्ति ":13238,"ः सर्व्व":13239,"धुन":13240,"पुनः पुन":13241," ईश":13242,"मित्राणि ":13243," लोके ":13244,"यूरोप":13245,"ैषा ":13246,"वाक्":13247," अन्तिम":13248,"मादाय":13249,"सम्पादन":13250,"होवाच":13251,"ितुम् अर्ह":13252," On":13253," the ":13254,"90":13255,"तत् ।\n":13256,"धनव":13257,"पद्":13258,"पाश्च":13259,"बध्यते ।\n":13260,"बान्धव":13261,"भरण":13262,"यान्त":13263,"लै":13264,"ाक्ष्य":13265,"ी>":13266,"ीशु":13267,"ुग":13268,"ॊः":13269,"ाने ":13270,"प्राज्ञ":13271," से":13272," के साथ":13273,"न्ड":13274," अर्ध":13275,"ते !\n":13276," शङ्क":13277,"ाणी":13278,"ीयः ":13279,"द्वित":13280,"क्रीण":13281," संस्थाय":13282,"ं वात":13283,"ं वचनं ":13284," इति पाठ":13285,"ेषु न ":13286," स्वागत":13287," लाल":13288,"ोप्य":13289,"कथं च":13290,"कथयत् ":13291,"स्थित्वा ":13292,"दर्शने ":13293,"विशेष्य":13294,"पुरुषस्य":13295,"भक्तान":13296,"े वर्ण":13297,"ाविरोध":13298,"बहवो ":13299," = न":13300,"लुब्ध":13301,"यत्र यत्र":13302,"१८९":13303,"मूल्यं ":13304,"भूमिक":13305,"भास्कर":13306," इदम् ":13307," उपयोगकर्ता ":13308,"ृगाल":13309," नियम\n":13310,"पत्न्य":13311,"ेन्ट":13312,"ापुरुष":13313,"ापुराण":13314," सम्पाद्यताम":13315,"स्लाम":13316," परिसन्धयः _":13317," परिसन्धयः _ सम्पाद्यताम":13318," in":13319,",\"":13320,"- म":13321,". न":13322,"IT":13323,"अज्ञात":13324,"खात":13325,"खाय":13326,"दो ":13327,"दनु":13328,"धन्व":13329,"पवन":13330,"भाई":13331,"यदु":13332,"लक्षित":13333,"वाव":13334,"सनं ":13335,"स वै":13336,"हता ":13337,"५००":13338,"ानाधिकरण":13339,"प्रचार":13340,"न य":13341,"ामनु":13342,"स्तस्म":13343," तद्वि":13344," अक्षर":13345,"तिश":13346,"सम्व":13347,"त्वेऽपि ":13348,"व्यं ":13349," च सर्व":13350,"स्थौ":13351,"श्च य":13352,"रुचिर":13353,"रुग्ण":13354,"मानाय":13355,"ेदान":13356," उभौ":13357,"िमित":13358,"महाद्वीप":13359,"भ्यो ":13360,"तो ऽ":13361," भवेत् ":13362,"रुष्व":13363,"यदि ते ":13364,"ादिह":13365,"क्रमशः ":13366,"अनित्य":13367,"सिद्ध्य":13368,"द्विजात":13369,"मुक्ति ":13370,"मिन्द्र":13371,"समुद":13372,"ाश्चर्य":13373,"दोषः ।\n":13374,"क्वचित":13375," गृहीत्वा ":13376,"पद्यते ॥\n":13377,"पुनः पुनः ।\n":13378," समुप":13379," समुच्च":13380,"युद्धे ":13381," ()?\n":13382," न्यास":13383," दर्शनं ":13384,"संयुक्त राष्ट्र":13385," औषध":13386,"क्षत्रिय":13387,"यन् ॥\n":13388," जूगु":13389,"मण्डले ":13390,") व":13391,"आचार":13392,"चनम":13393,"जज्ञ":13394,"तज्":13395,"दाश":13396,"पे ":13397,"मर्द":13398,"मर्याद":13399,"रग":13400,"वाट":13401,"सैनिक":13402,"ाघात":13403,"ुर्य":13404,"ोर्ध्व":13405,"्सु":13406,"९६":13407," सकाश":13408,"स्य काल":13409,"ति -":13410,"स्तू":13411," पि ":13412," अव्य":13413," माह":13414," प्रजान":13415,"राहु":13416,"ाहम":13417,"स्वप्":13418,"स्थले ":13419,"तु\n":13420,"रुधिर":13421,"ाकनं ":13422,"जनन":13423," एवेति ":13424,"ं प्रविष्ट":13425," बहि":13426," पुण":13427,"पुनः अ":13428,"प्रतिपक्ष":13429,"हित्वा ":13430,"दिह":13431,"वैय":13432,"ोमेन ":13433,"अन्योन्य":13434," उपचार":13435,"नवास":13436,"मुक्ति":13437," एतादृश":13438,"धारिण":13439," विद्यते ।\n":13440,"ो भवेत् ।\n":13441,"कश्चि":13442,"वाक्यानि ":13443,"सम्बन्धित":13444," पृथक्":13445,"युग्म":13446,"ं जप":13447,"ॊ ऽयं ":13448,"आरब्ध":13449," सम्बद्धानि पृष्ठानि -":13450,"ent.\n":13451,"विरह":13452,"नगरं ":13453,"ाचरेत् ॥\n":13454,"ash":13455,"ेश्वरी":13456,"क्वचित् ॥\n":13457,"विमर्श":13458," भोजनं ":13459,"ब्राह्म":13460,"88":13461,"अक":13462,"अरे ":13463,"आशी":13464,"ईशान":13465,"ओषध":13466,"ट्ठ":13467,"दं":13468,"दः ":13469,"ध्म":13470,"नय् ":13471,"लग":13472,"वस्व":13473,"सः प्र":13474,"सादृश्य":13475,"ुत्त":13476,"ं दु":13477,"ः र":13478,"ितवन्त":13479,"ातथ":13480,"न तत्र":13481,"स्य जन":13482,"ति !\n":13483,"ाम ।\n":13484,"ो जायते ":13485,"ाया अ":13486," तच्च":13487,"र्वाच":13488," प्रकट":13489," यावत् ":13490,"समाय":13491,"व्यप":13492,"संविद":13493,"संकेत":13494," विभ":13495," - म":13496," - तत्र":13497,"ाणि\n":13498,"द्वयम":13499,"द्रक्ष्य":13500,"ेनोप":13501,"ेण व":13502," उत्कृष्ट":13503,"ाकथ":13504,"ैवल्य":13505," न मे ":13506,"ये नमः ।\n":13507," समक्ष":13508,"र्यत":13509,"ं यच्च":13510,"सीम":13511,"स्थितम":13512,"ानुरोध":13513,"भवतः ।\n":13514,"कार्यालय":13515,"दृश्यन्त":13516,"ेल् ":13517,"अहमेव":13518," भूमि":13519,"बालान":13520,"दिवसः ":13521,"नीयम् ।\n":13522,"११८":13523,"श्रुतं ":13524,"क्वचित्":13525,"क्वचित् ।\n":13526," विषयः ":13527,"ं सम्य":13528,"द्वारेण":13529,"ath":13530,"ान्वयन ":13531," टिप्पण":13532,"ं जलं ":13533,"ाम्भ":13534," Sh":13535,"पथ्य":13536,"Tags":13537,"जापान":13538,"िषु ।\n":13539,"स्तथा ॥\n":13540," विश्लेषण\n":13541,"त्रैलोक्य":13542,"(B":13543,"AP":13544,"a)":13545,"खँ":13546,"तंत्र":13547,"भित":13548,"भरत":13549,"यतीति ":13550,"ललित":13551,"स म":13552,"सती":13553,"हरं ":13554,"िध्य":13555,"ीति\n":13556,"ोन्नत":13557,"ोत्कृष्ट":13558,"ं उ":13559,"ा विध":13560,"प्रतं ":13561," सन्देश":13562,"स्य तस्य":13563,"ो दृष्ट":13564,"स्तत":13565,"ादप":13566," पै":13567," पेश":13568," दल":13569," - इ":13570,"स्वीय":13571,"तः \"":13572," भोक्त":13573," ज्व":13574,"मुद्य":13575,"मुद्दिश्य":13576," आगच्छ":13577,"सुन":13578," उत्स":13579," उदाहृत":13580,"िरे ":13581,"ं वीर":13582," गन्तव्य":13583," इति उच्यते ।\n":13584," रहस्य":13585," सर्वज्ञ":13586,"रोत्तम":13587,"पूर्वकं ":13588,"कृपण":13589,"वर्तते ॥\n":13590,"ं मा ":13591,"परिपाल":13592," तुम":13593,"ाऽभाव":13594,"ाऽप्य":13595,"वृथा ":13596,"कल्पिक":13597,"्लाद":13598,"नीश्वर":13599,"जायन्त":13600,"पृथग":13601,"बुद्ध्य":13602," कर्म्म":13603,"रामः ":13604,"र्घ्य":13605,"दायित्व":13606,"यावत":13607," विशेषेण":13608,"न्यायाधीश":13609,"विवक्षित":13610," तत्सम":13611,"केचिद":13612,"प्रणम्य":13613," राष्ट्रीय":13614,"____":13615,"गौर":13616,"ass":13617,"इत्येतत् ":13618,"ौ तौ":13619,"जूगु":13620,"भ्रष्टाचार":13621,"(C":13622,"क ":13623,"यात् ":13624,"व्व":13625,"हत्वा ":13626,"ोन्म":13627,"०४":13628,"९८":13629,"्यन्ते ":13630,"े ह्य":13631,"ः जन":13632,"प्रदत्त":13633," सीम":13634,"म् ए":13635," तत्व":13636," अंश":13637,"भवन्तु":13638,"र्थ्यं ":13639,"व्यत्य":13640,"करः ":13641,"्मास":13642,"श्च त":13643," ज्वल":13644,"सर्वभूत":13645,"ात् \"":13646,"सुभाष":13647,"ाभ्र":13648,"देवः ":13649,"एकल":13650,"ं प्रतिष्ठ":13651," इति पद":13652," निध":13653,"ं चेत":13654,"महत् ":13655," इत्यादौ":13656,"न्नपि ":13657,"ेकं ":13658,"्यतेऽ":13659,"गृहं ":13660,"दिग्ध":13661," महत्व":13662,"ुरिति ":13663,"मध्ये तु":13664," तदनु":13665,"ः स्वाह":13666,"िश्त":13667," ==":13668,"ary":13669,"वतार":13670,"संख्याक":13671,"मया ।\n":13672," राशि ":13673,"साहस":13674,"ेप्स":13675," भ्रष्ट":13676,"धातुक":13677,"षड्व":13678,"तुल्यं ":13679,"ect":13680,"फोटो स":13681,"तीक्ष्ण":13682,"कोरोना ":13683,"75":13684,"Qu":13685,"ः---":13686,"आवश्य":13687,"आन्दोल":13688,"गाथ":13689,"भट":13690,"भित्त":13691,"र-":13692,"शहर":13693,"सेत":13694,"सतत":13695,"ुच्यते ":13696,"ोग्र":13697,"्नु":13698,"े गुण":13699," किय":13700," अम":13701,"ते क":13702,"ापत्र":13703," प्रजापत":13704,"भवद्भ":13705,"संग्राम":13706,"ाहृत":13707,"ियं ":13708,"या देवी सर्वभूतेषु":13709,"मुस्लिम":13710,"सुप्रभात":13711," रसोई":13712,"भूयो ":13713,"राजस्थान":13714,"ङ्गिर":13715,"मनसः ":13716," खर्च":13717,"ाऽन्य":13718,"यो वै":13719,"यथा ॥\n":13720," देवेश":13721,"े मृत":13722,"न्तरिक":13723,"ो न भवत":13724," यथाव":13725," छगू":13726,"बहिर्":13727,"मासाद्य":13728,"पञ्चाश":13729,"सप्तमी":13730,"ं स्वी":13731,"००१":13732,"दिति ।\n":13733," करोम":13734,"केचि":13735," प्रशास":13736,"ानि च ॥\n":13737,"ं कृत्व":13738,"शिष्यते ।\n":13739," गच्छत":13740,"संशयं ":13741,"वाणी":13742,"वेतन":13743,"स्पृश्य":13744,"ाय नमः\n":13745," कुरुते ":13746," वितरण":13747,"Chapter ":13748," कुटुम्ब":13749,"वल्क्य":13750,"(आ":13751,"Post":13752,"iew":13753,"अप्र":13754,"अङ्क":13755,"तीय":13756,"नं":13757,"म ":13758,"मीन":13759,"रता ":13760,"हतो ":13761,"ा---":13762,"ै.":13763,"्री":13764,"ः -\n":13765," सति ":13766,"न न":13767,"स्य अपि ":13768,"ो भूत्वा ":13769,"न्दा ":13770," प्रविश्य":13771," इलय् ":13772,"त्वमिति ":13773,"संज्ञाय":13774," नाग":13775,"तः प":13776,"गुरव":13777,"मुत्पाद":13778,"ाचक्ष":13779," उत्पत्त":13780," परित":13781," संग":13782,"िमा ":13783," रत":13784,"ं चल":13785," बलं ":13786," समाय":13787,"ास्तेष":13788,"मनीय":13789,"प्रतिशत":13790,"वर्षाण":13791,"अथ य":13792,"वैष":13793,"यथाविध":13794,"फलप्रद":13795,"काश्य":13796," श्रोत्र":13797,"१०७":13798,"पुरतः ":13799,"अवलोक":13800,"अवयव":13801," सामर्थ्य":13802,"स्त्वया ":13803,"ः\"।\n":13804,"मारुत":13805," अवकाश":13806,"ाङ्कः ":13807,"ive ":13808,"निष्पाद":13809,"पेक्षया ":13810,"तीत्यर्थः ।\n":13811," पीठ":13812,"कीर्तित":13813,"भिर्य":13814," इत्येतत् ":13815,"बर ":13816,"प्रत्येकं ":13817,"शक्नु":13818," जूगु दु ।\n":13819,"वाच्यम् ।\n":13820," उत्तरा":13821,"भ्रातर":13822,"वृषभ":13823," तमे वर्षे अ":13824,"नलाइ":13825," दिनाङ्के ":13826,"व्युत्पत्त":13827,"(त":13828,"68":13829,"ऊच":13830,"के अ":13831,"दोह":13832,"धैर्य":13833,"म एव":13834,"लयं ":13835,"शतम":13836,"हम् ।\n":13837,"ैौ":13838,"प्रदक्षिण":13839,"विप":13840,"विकल":13841,"ो भगवान् ":13842,"ाद्वा ":13843," पादौ":13844," पद्म":13845,"र्व्व":13846,"ापार":13847," वी":13848," मख":13849," मे स":13850," प्रदूषण":13851,"िकार्य":13852,"ावान् ":13853,"ावतार":13854,"व्यसन":13855," नय":13856," ननु":13857," नः ॥\n":13858," नूत":13859," विपर्य":13860,"मानान":13861,"सुषुप्त":13862,"ार्थं च":13863," ह ॥\n":13864," गतः ।\n":13865,"भूम्य":13866," स्वकीय":13867,"भिमुख":13868,"लिलं ":13869,"कृच्छ्र":13870,"सम्पुट":13871,"ित्येव":13872," लॊ":13873,"ानुभाव":13874,"परिच्छ":13875,"ाजित":13876,"शब्दान":13877,"अन्ये ":13878,"यिता ":13879,"द्विधा ":13880," देवता ":13881,"ैकेन ":13882," अनुप":13883,"ो वर्ण":13884,"भयान":13885,"वदन्त":13886,"भगवन्त":13887,"स्य फल":13888,"ितः _\n":13889," कर्माणि ":13890,"००४":13891,"न कदाच":13892,"विवर्जित":13893,"पिष्ट":13894," थ्य":13895,"वाक्यार्थ":13896,"व्याख्यास्याम":13897,"...]\n":13898,"ick":13899,"यित्वा तु":13900," जनवरी\n":13901,"पौरुष":13902,"पुस्तकानि ":13903,"वार्तिक":13904," नारायण":13905,"च्छ्रुत्वा ":13906," प्रातः":13907," सततं ":13908,"महोदयः ":13909," भौतिक":13910,"द्वेष्टि ":13911,"ON":13912,"ंस्त":13913,"अच्छ":13914,"अतिथ":13915,"येऽ":13916,"शकट":13917,"स॒":13918,"़ो":13919,"ि/":13920,"िङ्ग":13921,"ेर्य":13922,"ेनिश":13923,"्__":13924,"०३":13925,"०५":13926,"प्रेर":13927,"ामण":13928,"ादेक":13929," वश":13930," दौ":13931,"ालिक":13932,"व्यूह":13933,"व्यावृत्त":13934," विचित्र":13935," चत":13936," जिला ":13937,"मुष्ट":13938," आदित्य":13939," उष्ण":13940,"युञ्जीत":13941," गज":13942," गङ्ग":13943," गोल":13944," निगम":13945," न ह":13946,"क्षणं ":13947,"ः सव":13948,"महाराष्ट्र":13949,"एतेन":13950," धाय":13951,"पदव":13952,"विधिन":13953,"लोकान् ":13954,"पूर्वपद":13955,"ममापि ":13956," भवेत":13957,"ं विन":13958,"ं मार्ग":13959,"ं मया ।\n":13960,"शब्दो ":13961,"धर्मज्ञ":13962,"ब्रूत":13963,"त्सर":13964,"सि च":13965,"ग्ग":13966,"कलश":13967,"बलेन ":13968,"वान\n":13969,"ो वापि ":13970,"म् आसीत् ":13971,"कमपि ":13972,"ो मन्त्र":13973," सम्पद":13974,"शय्य":13975,"पृथग्":13976,"ादेशिक":13977," विद्यत":13978,"इह तु":13979," अहम् ":13980," कोरो":13981,"करिष्याम":13982,"ा भवन्त":13983,"स्त्रीलिङ्ग":13984," त्यज":13985,"कुत्रापि ":13986,"ः कृतः ।\n":13987,"क्टर":13988," वर्गीकरण":13989," करणीय":13990,"iki":13991," स्रोत":13992,"दिनाङ्के ":13993,"ाप्नुवन्ति ":13994,"Onlin":13995,"ज्योतिर":13996,"निष्पन्न":13997," विरासत":13998,"new":13999,"गन्तु":14000,"ट् ।\n":14001,"तासु":14002,"तरुण":14003,"दस":14004,"पं":14005,"मना ":14006,"रकार":14007,"वक्र":14008,"साक":14009,"हते ":14010,"हेल":14011,"ाविद्य":14012,"ौ स्व":14013,"प्रसार":14014,"प्रेरण":14015,"ार\n":14016,"स्कूल":14017,"न्तर्":14018,"निम्":14019,"ते न":14020,"ते स्व":14021,"ापाक":14022,"क्त्र":14023,"ावाह":14024,"भवत्येव":14025," दास":14026,"एवं तर्हि ":14027,"द्धर्म":14028,"तः प्रोक्त":14029," भुक्त":14030,"योद":14031,"योरु":14032,"मुच्च":14033,"ानि ॥\n":14034,"सुग्रीव":14035,"जनित":14036,"कुपित":14037," एव प्र":14038,"ं तात":14039," समग्र":14040," समवाय":14041,"महती":14042,"एतस्मिन् ":14043,"योग्यत":14044,"भ्यन्तर":14045,"यदिद":14046,"ः कीदृश":14047,"वर्तन्ते ":14048,"हितम् ।\n":14049,"ान्यथ":14050,"नम\n":14051," खु":14052," प्रतिबन्ध":14053," पुनः":14054,"भक्ति ":14055,"ो मनुष्य":14056," सम्प्रति ":14057,"ं निश्च":14058,"ं निरूप":14059,"श्वर्यं ":14060,"पश्याम":14061," तथा ।\n":14062,"निर्मल":14063,"न्त्येव":14064,"शुभाशुभ":14065,"त्रिषु":14066," विशेषत":14067," . . . ":14068,"निर्णयः ":14069,"पाकिस्थान":14070,"अधिकतम ":14071,"चेत् ?\n":14072," इत्युच्यत":14073,"शैक्षणिक":14074,"उद्घाट":14075,"प्रश्न -":14076,"Next ":14077,"ब्ल्यू":14078,"\"।\n":14079,"77":14080,"CT":14081,"अं":14082,"अभवत् ।\n":14083,"कत्वेन ":14084,"गण्य":14085,"च् च":14086,"छम्ह":14087,"तृ":14088,"ताम् ॥\n":14089,"न.\n":14090,"मत्य":14091,"मलं ":14092,"सव्य":14093,"ाकार्य":14094,"ाज्ज":14095,"िभेद":14096,"ु॥\n":14097,"ुश्च":14098,"ूयं ":14099,"ेरी":14100,"ो)":14101,"े मन":14102,"ः विश्व":14103,"ानन":14104,"न ध":14105,"क्श":14106,"ो ज्ञान":14107,"निविष्ट":14108,"ते म":14109," वरुण":14110," म्":14111," माध्यम":14112,"ावस":14113,"ासाम":14114,"त्वाम् ":14115," विहाय":14116,"िनाश":14117,"द्वित्व":14118,"ाश च":14119,"युवा ":14120,"युतं ":14121,"ोऽस्तु":14122," हार":14123,"ं तस्म":14124,"ात्रा ":14125," न जान":14126,"ः प्राह":14127,"पुनरु":14128,"प्रतिषिद्ध":14129,"वर्त्म":14130,"कथञ्च":14131,"स्थिते ":14132,"िलित":14133,"कर्माण":14134,"ाऽव":14135,"े मास":14136,"जायन्ते ":14137,"भ्रंश":14138,"यत्नः ":14139," भूषण":14140,"ाखण्ड":14141,"मया सह":14142," घृत":14143,"िष्व":14144,"निर्वृत्त":14145,"ं परित्य":14146,"age":14147,"प्रमाणेन ":14148,"ाज्ञवल्क्य":14149," डि":14150,"राजनैतिक":14151,"उदाहरणम् -":14152," वाच्य":14153," आरभ्य":14154,"स्वामी":14155,"परिमित":14156," अतिरिक्त":14157,"ार्दूल":14158," योजय":14159," अनुवाद\n":14160," r":14161," ज्ञ":14162,"(उ":14163,"69":14164,"AN":14165,"ः॒":14166,"इन्द":14167,"कश":14168,"चने ":14169,"चूर्ण":14170,"तं त":14171,"तप्त":14172,"दासी":14173,"न स्य":14174,"नाटक":14175,"पोषण":14176,"मस्तु":14177,"मञ्ज":14178,"रिव":14179,"रसः ":14180,"लेन ":14181,"वव":14182,"वेक्ष":14183,"सज्ज":14184,"ि]":14185,"िर्म":14186,"ै नम":14187,"ौ हि ":14188,"ौ वा ":14189,"्न्य":14190,"१२०":14191,"ं धनं ":14192,"ानिमित्त":14193,"र्द्र":14194,"ो (":14195," ते अ":14196," तीव्र":14197," वापि ":14198," मतदान":14199," प्रयत":14200," प्रभो ":14201,"िका\n":14202,"त्पुरुष":14203,"समाहित":14204," न सं":14205," नोप":14206,"स्वस्त":14207," भो":14208,"कुप्य":14209,"ेषु अ":14210,"महत् ।\n":14211,"ख्याप":14212,"म् अहं ":14213,"एतद्":14214,"ज्ञानस्य":14215,"तस्य प्र":14216," लङ्क":14217,"सून":14218,"स्रोतः ":14219,"े प्रकाश":14220," क्रान्त":14221," श्रिय":14222,"शक्तिम":14223,"१०४":14224,"ाधिकृत":14225,"ज्ञात्व":14226," कार्याणि ":14227,"ग्रहणम":14228,"वय्कः ":14229,"कश्चिद् ":14230,"ं भवेत् ।\n":14231,"श्लाघ":14232,"साक्षिण":14233,"भीष्ट":14234,"भाति ।\n":14235,"एमपी":14236,"वस्तून":14237," ह्रस्व":14238,"दुष्कृत":14239,"रिपोर्ट":14240,"(vi)":14241,"निरीक्षण":14242," एवम उक्त":14243," - एवम् तर्हि ":14244,"300":14245,"98":14246,"ce ":14247,"उff":14248,"क।\n":14249,"टु":14250,"धेयं ":14251,"पेद":14252,"लीन":14253,"शङ्कर":14254,"सच":14255,"िभाव":14256,"िष्ण":14257,"ै?\n":14258,"ैरुप":14259,"ॊ य":14260,"्_\n":14261,"॥ ":14262,"॥ अ":14263,"ं एव":14264,"े देशे ":14265,"ः ग":14266,"प्राच":14267,"प्रेत्य":14268,"ितिष्ठ":14269," साथ":14270,"स्यान्त":14271,"स्तरे ":14272,"ापि ।\n":14273," वास्त":14274," वन्द":14275," माघ":14276,"ावाच":14277,"त्वत्त":14278,"ेतानि ":14279," नाव":14280," न संशयः ।\n":14281," शूर":14282,"स्थित्य":14283,"पूरित":14284," परिमाण":14285," हो ":14286," इति ख्यात":14287,"राजपुत्र":14288,"ेषु अपि ":14289," सर्वतः ":14290,"रोद्ध":14291,"ः प्रति ":14292,"ं कृ":14293,"ममेव":14294,"कथं":14295,"ग्रहाण":14296,"विषाद":14297,"कोड":14298,"े मनुष्य":14299,"ैकदेश":14300,"स्पताल":14301,"पृथ्व":14302," कार्यालय":14303,"ा प्रथम":14304,"प्रसक्त":14305,"रुपेण":14306," भारते ":14307," अधिकरण":14308,"१८५":14309,"विशन्ति ":14310," कोड":14311," शिष्ट":14312," ऋतु":14313,"यत्नतः ।\n":14314,"शून् ":14315,"ं प्रतिपाद":14316,"ात्यन्त":14317," बहून":14318,"विरचित":14319,"भीष्म":14320," कुर्वन्त":14321," वस्तुतः ":14322,"मनोहर":14323,"ाढ्य":14324,"ोत्तरं ":14325," अपराध":14326," दत्त्वा ":14327," द्रष्टव्य":14328,"विस्तरेण":14329,"उfff":14330,"\"उ":14331,"- स":14332,"ps":14333,"ःसा ":14334,"अप्य":14335,"एषु":14336,"ओज":14337,"किन":14338,"यास्य":14339,"लङ्कार":14340,"ऽ इति ":14341,"ाप्राप्त":14342,"िम् ":14343,"ीना ":14344,"ोS":14345,"ोव":14346,"ौप":14347,"े दोष":14348,"ः कर्त":14349,"ः तथा ":14350,"ः कारण":14351,"ानर्थ":14352," सतत":14353,"स्यार्थ":14354,"स्यानु":14355,"ामि":14356,"ो धन":14357,"ाय कल्प":14358,"म् योगदान":14359,"स्ते म":14360," करव":14361," कम्प":14362," तान":14363," पलाय":14364,"निन":14365,"निम":14366," मेल":14367," प्रवाह":14368," प्रकृत्य":14369,"परा ":14370,"द्गत":14371,"त्मान":14372,"ज्जीव":14373," नित":14374," नेप":14375,"पुच्छ":14376," चिक":14377,"ीयात":14378,"ङ्कु":14379,"नुद":14380,"ाभि ":14381," संकल्प":14382,"एकाक":14383,"ं तत्त":14384," इति श्रुत":14385," रिश्त":14386,"दृच्छ":14387," इत्येष":14388,"एतस्मात् ":14389,"इत्यादि":14390,"शुक":14391,"ं विचार":14392,"ान्यत्र":14393,"उपयुक्त":14394,"ं नाश":14395,"िपात":14396," स्थानं ":14397,"दिनेश":14398," सूक्त":14399," एतद् ":14400,"भगवान्":14401,"ा प्रकृत":14402,"ाभावात् ":14403," [...]\n":14404,"बुद":14405,"अन्ततः ":14406,"न कोऽपि ":14407,"स्मृति":14408," परमात्म":14409,"मन्यते ":14410,"यिष्यति ":14411,"करोतु":14412,"स्फु":14413,"दूरस्थ":14414," तमवर्ष":14415,"प्रश्नः ":14416," शुक्ल":14417," बहवः ":14418,"छात्राण":14419,"ोद्धार":14420,"मान्तर":14421,"ISO":14422,"67":14423,"Mor":14424,"Q. ":14425,"ction":14426,"ं॥\n":14427,"गाह":14428,"तं स":14429,"बन्द":14430,"याल":14431,"्स्न":14432,"ं नं ":14433,"ं नम":14434,"ं धार":14435,"ं जन्म":14436,"ः नाम":14437,"ः यत् ":14438,"ः वर्तते ।\n":14439,"ः क्रियत":14440,"विज्ञ":14441,"ाम।\n":14442," कण्ठ":14443,"निपुण":14444," वयम":14445," मेध":14446," मे व":14447,"ावन्त":14448,"संन्यास":14449,"एवं म":14450," शू":14451,"कृतकृत्य":14452," आहार":14453,"ग्रे":14454,"ुं)":14455,"श्रीर":14456,"लोल":14457,"भूतस्य":14458," न कोई":14459," बाण":14460," सर्वनाम":14461,"ङ्ग्य":14462," धी":14463,"ः कस्य":14464,"शेषेण":14465,"िदम":14466,"स्थानक":14467,"ात्स्य":14468," महान् ":14469,"ेरिति ":14470,"े साम":14471,"भूतकाल":14472," 'अ":14473," उपयुक्त":14474,"भेदे ।\n":14475,"ग्ने ":14476," वा ॥\n":14477,"ं दद्य":14478,"पृथ्वी":14479," एतत":14480,"११७":14481,"ar\n":14482,"ायामपि ":14483,"ाभावे ":14484," दृष्टान्त":14485,"ाव्यक्त":14486,"कश्चित्":14487," पर्याप्त":14488,"ा याय":14489,"आदौ":14490,"ातिशय":14491,"आईपी":14492,". स. ":14493,"परित्याग":14494,"घनत्व":14495,"माधव":14496," सिध्यति ।\n":14497,"ॊ हय":14498," years ":14499,"\"य":14500,"\" (":14501,"$ ":14502,"'-":14503,"64":14504,"ile":14505,"ust":14506,"आपण":14507,"आश्चर्य":14508,"एस् ":14509,"केण":14510,"कठिन":14511,"च च":14512,"नाभि":14513,"नात्मक":14514,"फ्त":14515,"मसि ":14516,"रिक":14517,"सो ऽ":14518,"ोस्त":14519,"ोहि ":14520,"ोष्ठ":14521,"॑न्त":14522,"॒ज्ञ":14523,"ं श्र":14524,"ं क्षेत्र":14525,"ं दिव्य":14526,"े इ":14527,"ा यस्य":14528,"् ॥\n":14529,"ित् अ":14530,"ायथ":14531," कद":14532,"ते देव":14533,"ापाद":14534," इंड":14535," यस्म":14536,"ेन ह":14537," नश्य":14538," श्य":14539,"द्वाव":14540,"पूष":14541,"ाके ":14542,"िरिय":14543," एव च":14544,"ये म":14545,"भावः ॥\n":14546," समावेश":14547," स्वायत्त":14548,"म् अस्य":14549,"तो म":14550,"ज्याझ":14551," सुलभ":14552,"हितः ।\n":14553,"विद्यान":14554,"अनया ":14555," सहयोग":14556,"क्ष्यते ।\n":14557,"े सोम":14558,"घटनाय":14559,"शयनं ":14560," भूमौ":14561," जननी":14562,"१८६":14563," फ्र":14564,"००५":14565,"मन्यते ।\n":14566,"150":14567," क्षय":14568,"पुस्तकं ":14569,"साक्षात्":14570," अतएव":14571,"250":14572,"प्रतिष्ठित":14573,"सकलिङ्ग":14574,"विद्वान् ":14575,"ाप्नुयात् ॥\n":14576,"धीरे धीरे ":14577," रिपोर्ट":14578,"\"प्र":14579,"(ब":14580,").":14581,"/नगर":14582,"a.\n":14583,"fr":14584,"ype":14585,"ंस्य":14586,"आवेद":14587,"कन":14588,"तं म":14589,"तृष्ण":14590,"रस्य":14591,"वेत्ति ":14592,"हा ":14593,"िन्ध":14594,"िभि":14595,"ीि":14596,"०६":14597,"्राज":14598,"ं हस्त":14599,"ि अ":14600,"े लोक":14601,"ः पद":14602,"ः पुनर":14603,"प्रान्त":14604," सन् ":14605,"क्म":14606,"ो बहु":14607,"म् -\n":14608,"ाः?\n":14609,"निवस":14610," प्रीति":14611," प्रारम्भ":14612,"िको ":14613,"ावृ":14614," यत् ।\n":14615,"समर्पण":14616,"ेन विना ":14617,"ेतत्":14618,"संक्षेप":14619,"संस्था ":14620,"करे ":14621,"त्ता ":14622,"ागतः ":14623,"ागुण":14624,"िवी":14625,"िवेश":14626,"ात् स":14627,"सुविध":14628,"ार्थम् ।\n":14629," उच्यते ":14630,"ाकल":14631,"जनान् ":14632,"ैव ।\n":14633,"ोऽन्त":14634," बध":14635,"म् अन":14636,"ाम् इति ":14637,"एतत":14638,"लिष्य":14639,"ः कदा ":14640,"िदिन":14641,"ार्चन":14642,"उपकार":14643,"परिहार्य":14644,"यथेष्ट":14645,"यथाक्रम":14646," व्यास":14647,"िष्यामि ":14648,"ोक्तं ":14649,"जीवितं ":14650,"ं पत":14651,"चारु":14652,"ाध्याप":14653," वर्ष ":14654,"ो मृत्य":14655,"कीट":14656,"अवकाश":14657,"कुर्वन्तु ।\n":14658,"क्वापि ":14659,"िह्व":14660,"ं स्वर्ग":14661,"र्कट":14662,"स्टम":14663," तत्क्षण":14664,"कौन्तेय":14665," त्रिविध":14666,"शक्या ":14667,"षिक्त":14668," सेवा ":14669,"ं यथा ।\n":14670,"ं प्रत्यक्ष":14671,"ेन्स":14672," यायेम":14673," केचन ":14674,"ोत्तरे ":14675," मनुष्याण":14676,"थुगु":14677,"ेश्वरं ":14678," (उच्चारणः ":14679," - विकिसूक्त":14680," ख्यात":14681,"' ":14682,"61":14683,": अ":14684,"Ab":14685,"as ":14686,"असम":14687,"काद":14688,"कक्ष्य":14689,"गद्य":14690,"जे ":14691,"जितः ":14692,"दाद":14693,"पञ्ज":14694,"भॊ":14695,"भेस":14696,"मकर":14697,"हरी":14698,"ॊ मह":14699,"ि !\n":14700,"ि नाम":14701,"ः मह":14702,"ा भविष्य":14703,"विसर्ग":14704,"न कार्य":14705,"ामिव":14706,"ामन्त्र":14707,"ो ब":14708," तदान":14709,"निदान":14710,"त्रिय":14711,"भवतो ":14712,"ाल्प":14713,"रुचि":14714,"सर्वस्य":14715," आरक्षण":14716," उद्योग":14717,"देशी":14718," न अ":14719," बौद्ध":14720,"ेषु नि":14721," सर्वस्य":14722,"तीह":14723,"भिज्ञ":14724,"कालिदास":14725," स्कूल":14726,"युक्तम् ।\n":14727,"यो वा ":14728," प्रतिज्ञ":14729,"किमु":14730,"सामग्री":14731,"सामान्यं ":14732,"वाच्यम":14733," वै ॥\n":14734,"अहं त":14735," त्रै":14736," यथाशक्ति ":14737,"पृथक्त्व":14738,"रामायण":14739,"े\"\n":14740," शब्द. प्र":14741,"194":14742,"मार्गे ":14743," कारक":14744," भगवन् ":14745,"लेखक":14746,"जीविन":14747,"प्रताप":14748,"अभि ":14749," - - - -":14750,"संज्ञक":14751," सिद्धान्त":14752," सङ्घ":14753,"िक्रम्य":14754,"ब्रवीत् ":14755,"III":14756,"न अधिनियम":14757,"थुइ":14758,"म्बर ":14759,"Next Post":14760," शैक्षिक":14761," दयेक":14762,"दारिद्र्य":14763," ज्ञाप":14764,"' इति ।\n":14765,"-अर्थ":14766,"::":14767,"AL":14768,"अदृष्ट":14769,"अस्य ":14770,"इत्":14771,"उपर्य":14772,"ऐतिहासिक":14773,"गत्व":14774,"चक":14775,"डाग":14776,"तय् ":14777,"तद्धित":14778,"थान":14779,"धाति ":14780,"न स्व":14781,"बन्त":14782,"येक":14783,"वहार":14784,"सेन ":14785,"ौज":14786,"े _\n":14787,"न और":14788,"न शक्य":14789,"ति (":14790,"ाम्र":14791,"ो यम":14792,"ो दोष":14793," पय":14794," पिण्ड":14795," मंत्र":14796,"परस्मैपद":14797," दह":14798," ददात":14799,"पुण्ड":14800," च सं":14801,"स्वाद":14802,"स्वयं":14803,"र्मुख":14804,"योषित":14805,"कृत्त":14806,"द्रविण":14807,"युते ":14808," हंस":14809,"ं प्रकल्प":14810,"ख्यान":14811," स्वस्त":14812,"दुष्य":14813,"दुरित":14814,"ं यश":14815,"दिग":14816,"ाजिन":14817," खल्व":14818,"िपत":14819,"क्रमश":14820,"अनन्तरं ":14821," देवदेव":14822," पुनः प्र":14823,"इदमेव":14824," सम्पत्त":14825," सम्प्रसारण":14826,"वर्णान":14827,"भगवता ":14828," भाषापाक":14829,"मासस्य":14830,"धुनि":14831,"वेक्षण":14832,"िभिर":14833,"ः सम्य":14834,"येन्न":14835,"शास्त्रीय":14836," तमे संवत्सरे ":14837," क्रियमाण":14838,"ीत्यर्थः ।\n":14839," प्रशस्त":14840,"ा भवन्ति ":14841,"लक्ष्यं ":14842,"ाप्नुवन्त":14843,"वातावरण":14844," बुद्धि":14845," नवीन":14846," प्रणाल":14847,"did":14848,"भिधीयत":14849,"त्रिकोण":14850,"योर्मध्य":14851,"ख्याति प्राप्त":14852,"फोटो साभारः ":14853," of":14854,"<translation":14855,"be":14856,"bo":14857,"oem":14858,"अम्ब":14859,"असत्य":14860,"अयि ":14861,"अमृत":14862,"कापि ":14863,"खग":14864,"ण\n":14865,"तद्र":14866,"धनम":14867,"नानु":14868,"बेर":14869,"रतः ":14870,"रित्य":14871,"वृह":14872,"वेत्त":14873,"सारण":14874,"सद्भाव":14875,"हरे ":14876,"ी वि":14877,"ेनि":14878,"ोहं ":14879,"ो,\n":14880,"३००":14881,"ानित्य":14882,"विगत":14883,"न भव":14884,"ो जग":14885,"ाय \"":14886,"म् भवति ।\n":14887,"ापण":14888," मेर":14889,"समर्पित":14890,"राई":14891,"न्येन ":14892,"नुपूर्व":14893,"रुत्वा ":14894,"मुद्ध":14895," उष":14896," संदेश":14897,"ोऽति":14898,"श्वान":14899,"ं वृक्ष":14900,"ं प्रसिद्ध":14901,"ं च व":14902,"ः स च":14903," सर्वश्रेष्ठ":14904,"काले तु":14905,"ः केन ":14906,"पूर्वस्य":14907,"प्रतिवेदन ":14908,"ा अर्थ":14909,"जातवेद":14910," महा":14911,"ङ्कट":14912,"अन्ये तु":14913,"दशवर्ष":14914,"ाक्षुष":14915,"तथाह":14916,"शतानि ":14917,"बहुषु":14918,"ैकेय":14919," त्रय":14920,"पीछ":14921,"ं निवेद":14922,"पश्यति ।\n":14923,"ं शरण":14924,"ा विभाग":14925," अन्यथ":14926,"ं सर्वत्र":14927,"ाभावात":14928," [।\n":14929,"ाद्वै":14930,"विशारद":14931,"अहं तु":14932,"तिरिति ":14933," क्रियाय":14934," कारणं ":14935,"ity":14936,"ं भज":14937," अभिव्यक्ति ":14938,"ाज्ञाप":14939,"ाबाद":14940," क्वचित् ":14941,"ायै नम":14942," स्थापित":14943,"त्रयाण":14944,"ैर्युक्त":14945,"करणीयम":14946,"ं स्यात् ":14947,"सम्प्रदाय":14948,"ं करिष्यामि ":14949,"परित्यज्य":14950,"पुरातन":14951," गौरव":14952,"वासुदेव":14953," शब्द. प्र. एक":14954,". त":14955,"//":14956,"उद्यम":14957,"गान्ध":14958,"दः ।\n":14959,"धरण":14960,"यता ":14961,"रै":14962,"रॊ":14963,"र॒":14964,"रूढ":14965,"शोषण":14966,"सकं ":14967,"ाक्षेप":14968,"ी॥\n":14969,"ुगु":14970,"ेन्दु":14971,"ोस्तु":14972,"ोच्य":14973,"ौष":14974,"ॐ भू":14975,"ा न च":14976,"प्रजापत":14977,"ित-":14978,"स्य सु":14979," कोप":14980,"त्राण":14981," मस्त":14982," प्रज्ञ":14983," प्रश्":14984," शाक":14985," शतं ":14986," - किम् ":14987,"स्वगृह":14988,"ीयम् ।\n":14989,"नुवर्तत":14990,"द्वाभ्य":14991,"सर्वश्रेष्ठ":14992,"ाधनं ":14993,"ाधारण":14994,"ं वित्त":14995," गान":14996,"ं तदेव":14997,"राजन्":14998," बभूव":14999,"ेषु त":15000," समित":15001," समारोह":15002,"ः किल":15003,"शुचि":15004,"शुष्क":15005,"कथम् ":15006,"कर्त्र":15007,"ान्याय":15008,"ा अह":15009,"अथेह":15010,"यो ऽ":15011,"े अस्त":15012,"जानीम":15013,"अनुवृत्त":15014,"् अव":15015,"१०६":15016,"कामन":15017,"भवति ?\n":15018,"मध्यस्थ":15019," वा प्रदेशः ":15020," तदा\n":15021,"ः सर्वेष":15022,"प्रथमा ":15023,"ं शृणु":15024,"श्रुतम":15025," तथ्य":15026,"अर्थः ":15027,"हस्ते ":15028,"ः समान":15029," राश":15030," तत्काल":15031,"वस्तुतस्तु":15032,"ं भवेत् ॥\n":15033,"कुर्य्य":15034,"पुस्तके ":15035,"दयेक":15036,"िस्ताब्द":15037," पुनः पुनः ।\n":15038,"ः कथं ":15039,"ोऽहम":15040,"वश्यकता ":15041,"गोपाल":15042,"समन्वितः ।\n":15043," L.":15044,"(v)":15045,"\" इत्यस्माद् ":15046,"जनवरी ":15047,"शहर/नगर":15048,"शहर/नगर वा प्रदेशः ":15049,"Ap":15050,"Tr":15051,"fin":15052,"ok":15053,"अती":15054,"इण्ड":15055,"खानि ":15056,"घञ":15057,"जट":15058,"दक":15059,"दध्य":15060,"प॒":15061,"पीय":15062,"पन्नं ":15063,"भाम":15064,"मन्न":15065,"माघ":15066,"येति ":15067,"लेश":15068,"वद्":15069,"वेण":15070,"वल्लभ":15071,"सिक":15072,"ी प":15073,"ी!\n":15074,"ुस्त":15075,"ू॑":15076,"॑म":15077,"॒ष":15078,"४००":15079,"े वर्षे ":15080,"े स्त्रिय":15081," स हि ":15082," सर्प":15083,"विच्छेद":15084,"ारायण":15085,"न ज":15086,"स्य जन्म":15087,"ति न":15088,"ो वृद्ध":15089,"क्षये ":15090,"स्तृत":15091,"स्ततः ।\n":15092," करे ":15093," कवित":15094,"निगल":15095," प्रेष":15096,"िकेट":15097,"ावेद":15098,"संगत":15099," नहि ":15100,"कारादेश":15101,"कारलोप":15102,"श्चर":15103,"श्च वि":15104,"नं कृत":15105,"िवर्ध":15106,". com":15107,"जनत":15108," हु":15109,"ान्तं ":15110,"िमार्ग":15111," गम्य":15112,"ं प्रति ।\n":15113," रघ":15114,"ं च\n":15115,"म् अधिक":15116,"यः स्व":15117," धेन":15118,"दुह":15119,"पुनः प":15120,"ः कृ":15121,"ं सामान्य":15122,"भाषत":15123,"ं यान":15124,"ममैव":15125,"ार्पण":15126,"स्थिति ":15127,"..)":15128,"े अमरः ।\n":15129,"यथा हि ":15130,"जात्य":15131," प्रतिनिध":15132," स्थूल":15133,"े सौ":15134," एका ":15135,"ं पिब":15136,"पुरुषार्थ":15137,"भवति ॥\n":15138,"म्भुव":15139,"साधक":15140,"समुद्भव":15141,"एष एव":15142,"ैरव":15143,"ुपाय":15144,"तेन च":15145,"देहिन":15146,"पश्यन्त":15147," अपवाद":15148,"ong":15149,"व्यक्ति\n":15150,"उत्तरम् -":15151," जगतः ":15152,"बाधक":15153,"तेरे ":15154,"आह्व":15155,"कन्या ":15156," हितकाम्य":15157," अस्माभ":15158,"संस्थाप्य":15159,"ं किमपि ":15160,"xxx":15161," प्रथमे ":15162,"ाप्नोत् ।\n":15163,"परमाणु":15164,"सम्भाषणम":15165," सम्भाषणम् योगदान":15166,"ownload":15167,"MP":15168,"title":15169,"केर":15170,"गृ":15171,"घृण":15172,"ङ्मुख":15173,"जः ।\n":15174,"दह्य":15175,"नः स":15176,"पाहि ":15177,"भानु":15178,"लब्":15179,"वसिष्ठ":15180,"शेन ":15181,"सख्य":15182,"ैतत् ":15183,"ॊ न ":15184,"ौ अ":15185,"ः इव":15186,"ः खलु":15187,"ा गत":15188,"प्रचल":15189," सन्ध्य":15190,"विपाक":15191,"ो दिव":15192,"निग्रह":15193,"निरुद्ध":15194,"ापितर":15195," वसन्त":15196," दै":15197,"तिङ":15198,"त्वादि":15199,"त्वाकर्षण":15200," चोर":15201,"कारित":15202,"ागम्य":15203,"मुचित":15204,"ेदिति ":15205," आचार":15206,"श्यप":15207,"ान्तर्गत":15208," रत्न":15209," निकट":15210," न ।\n":15211,"ं च न":15212,"न्नेव":15213,"मित्यत आह":15214,"ेऽन्य":15215,"इत्यु":15216,"वर्षीय":15217,"उपकरण":15218,"सहज":15219," खः ":15220,"कार्येषु":15221,"न्मन्त्र":15222," महती":15223," द्वन्द्व":15224,"दशरथ":15225,"पुत्रः ":15226," त्वयि ":15227," स्तर":15228,"तरङ्ग":15229,"िता च":15230,"यामः ।\n":15231,"इदं तु":15232,"e =":15233,"ित्वं ":15234,"विषयक":15235," अपत्य":15236,"मात्य":15237,"मूत्र":15238,"किमर्थं ":15239,"ः समास":15240," जीवन्मुक्त":15241,"ं करो":15242,"लब्ध्वा ":15243,"योरेक":15244,"ं कृतवान":15245,"ग्राह्यं ":15246,"उत्तिष्ठ":15247,"ः प्रतिदिन":15248,"हेतुना ":15249,"ानुसारं ":15250,"श्रद्धया ":15251," दूरभाष":15252,"ः कश्चित् ":15253,"ाधान्यं ":15254,"निर्यात":15255,"कृत्स्":15256,"ललाट":15257," ख्य":15258,"ix":15259,"ly":15260,"ंपर":15261,"कॊ":15262,"चेन्न":15263,"तयो":15264,"रभ":15265,"लाव":15266,"लाक":15267,"वनम":15268,"वित् ":15269,"हं त":15270,"िरु":15271,"ोत्साह":15272,"ौर्य":15273,"े इत":15274,"ः /":15275,"ा श":15276,"ितं त":15277,"ितुमर्ह":15278," साक":15279,"विष्":15280,"विनय":15281,"स्य '":15282,"ति स्म ।\n":15283,"ामय":15284,"म् . . ":15285,"स्तो":15286,"ादारभ्य":15287," पक्षिण":15288,"ते वै":15289,"ावाद":15290,"ावसरे ":15291,"ास्र":15292," यस्मिन् ":15293,"ेन \"":15294,"पुष्कर":15295," - यत् ":15296,"िनि ।\n":15297,"ाह।\n":15298,"द्यूत":15299,"ियन् ":15300,"म्स":15301,"गुमनाम":15302,"नं तु":15303,"ाशिव":15304," संप्र":15305,"िमह":15306," गात्र":15307,"ं प्राप्नोति ":15308,"पुनरा":15309,"पुनर्म":15310,"मनः":15311,"ेऽव":15312,"शिशिर":15313,"ोपादान":15314,"इत्येक":15315,"ं विमान":15316,"परिष्कृत":15317,"प्रत्ययेन ":15318," एकदा ":15319,"विशेषत":15320," देवतान":15321,"ाप्यते ।\n":15322,"अनुच्छेद":15323,"दृश्यन्ते ":15324,"अहं च":15325," त्रीणि ":15326,"सुखम":15327," परिपूर्ण":15328,"ं ददात":15329,"indi":15330,"े क्व":15331,"मय्य":15332,"one":15333,"जुगु":15334," विद्युत":15335,"ः समर्थ":15336,"पश्चात्":15337,"यन्ते ।\n":15338," राघव":15339," तत्पर":15340,"वाक्येन ":15341," ततः स":15342,"शत्रूण":15343,"ice":15344,"किञ्चित्":15345,"सभा ":15346,"ददौ":15347," अन्तरिक्ष":15348," बहूनि ":15349,"न प्राप्नोति ।\n":15350,"चनं श्रुत्वा ":15351," पादप":15352,"मधुम":15353," ध्वन":15354,"वर्त्तते ।\n":15355,"oldid":15356,"ाधिपत्य":15357,"ः खोज":15358,"over":15359,"ेषु सर्वेषु":15360," आईपी":15361,"कषाय":15362,"धेनु":15363,"र्भुवः स्व":15364,"पूवंक":15365,"(छ":15366,"(अ)":15367,": \"":15368,"ram":15369,"अभव":15370,"अस्त्र":15371,"उग्र":15372,"उभयं ":15373,"ऐश्वर्य":15374,"थ ॥\n":15375,"बाद":15376,"भासी":15377,"भक्षय":15378,"हिक":15379,"ृम्भ":15380,"ेस्त":15381,"्ा":15382,"॥ सर्व":15383,"११९":15384,"॰।\n":15385,"ाना ":15386,"र्प्य":15387,"स्यैक":15388,"ो मु":15389,"ो घट":15390,"नियन्त्रण":15391,"ापवाद":15392," वेश":15393," इतः ":15394,"तिभ":15395,"त्वं वि":15396," विदुष":15397,"न्यतम":15398,"ात् वर्ष":15399,"ाश् च":15400," होत":15401,"लोहित":15402,"ब्दा ":15403,"न्धकार":15404,"ापि च":15405,"ं किल":15406,"कृषि":15407,"तमि":15408,"ं यो ":15409," लज्ज":15410,"रीरे ":15411,"हिता ":15412,"नमस्त":15413," तु ॥\n":15414,"वृत्य":15415,"ग्धा ":15416,"अनन्य":15417,"क्ष्यमाण":15418,"भूतपूर्व":15419,"कल्पना ":15420,"ाक्षिक":15421,"भवति इति ":15422,"घटित":15423," त्रयोदश":15424," परिभाषा ":15425,"न चैव":15426,"स्य लोक":15427,"देहे ":15428," अप्व":15429,"घ्राण":15430,"१२३":15431,"िषय":15432,"धातून":15433,"निर्वाण":15434,") अधिनियम":15435,"ोड़":15436,"ः नास्त":15437," पाठ्य":15438,"संशयः ":15439," पुनरपि ":15440,"विलास":15441," प्रतिकूल":15442,"oldid=":15443,", र":15444,">#":15445,"ber ":15446,"ee":15447,"ss":15448,"असं":15449,"जमान":15450,"ट\n":15451,"दा":15452,"म्रिय":15453,"यतीति ।\n":15454,"रन्त":15455,"वादि":15456,"हम् ॥\n":15457,"िक्ष":15458,"ीषु":15459,"ॉम":15460,"्ब":15461,"०८":15462,"०१५":15463,"०१३":15464,"॰ प":15465,"ं थ":15466,"ं योग":15467,"ं पुर":15468,"े ख":15469,"ः क्र":15470,"ः श्रुत्वा ":15471,"प्रस्तु":15472,"ितश्च":15473," सा ।\n":15474," सैनिक":15475,"विदा ":15476,"विमो":15477,"ामा ":15478,"ो ॥\n":15479,"ो भविष्यत":15480,"क्ष्ण":15481,"म् क":15482," पाश":15483,"निरु":15484," अग":15485," असौ":15486,"त्रैव":15487," मज":15488," मेष":15489," मार्":15490,"ावर्त्त":15491,"ासङ्ग":15492," यद्":15493,"त्स्थ":15494,"व्ययं ":15495,"ज्जल":15496," शील":15497,"स्वम":15498,"्मीक":15499," भक्ष":15500,"िरे ।\n":15501," हेम":15502,"ान्तरा":15503," निम्न":15504,"ाम् अनु":15505," धयागु":15506,"भिमान":15507,"ः कृष्ण":15508,"----":15509,"शुर":15510,"रिस":15511,"सा ॥\n":15512," तुम्हार":15513,"े अनेक":15514,"ः पश":15515,"कलह":15516,"तथाहि ":15517,"बहुश":15518," कथम् ":15519,"दृश्यमान":15520,"तस्मात्त":15521," सम्प्र":15522,"अपना ":15523,"ाद्धि ":15524,"सौन्दर्य":15525,"ो विप्र":15526," कर्तु":15527,"ाभावात् ।\n":15528,"पत्रं ":15529,"न्यायेन ":15530,"तिष्ठति ।\n":15531,"ाड्य":15532," योग्यत":15533,"ितव्यम":15534," शुल्क":15535," उपयोगकर्त":15536,"ं तथा\n":15537,"व्ययीभाव":15538,"संशोधन":15539,"तत्तु":15540,"पाणिन":15541,"शृणोति ":15542," भिक्ष":15543,"खोजः खोज":15544," न्यूनतम":15545,"दर्श्य":15546," शब्द. प्र. एक\n":15547,"खोजः खोजषब्द":15548," Re":15549,"'आ":15550,").\n":15551,"-काल":15552,"= ":15553,"IP":15554,"PDF":15555,"i\n":15556,"ंजन":15557,"ंतं ":15558,"अभवत":15559,"अरण्य":15560,"औप":15561,"काश्च":15562,"चान":15563,"च् ।\n":15564,"थापि ":15565,"नेषु":15566,"पाथ":15567,"य-":15568,"लिय":15569,"वार्य":15570,"सन्तुष्ट":15571,"ास्ट":15572,"ेस्तु":15573,"ेतिहास":15574,"ैनम":15575,"ैतत्":15576,"ॊ द":15577,"ौ द्वौ":15578,"॑व":15579,"े द्व":15580,"े भाग":15581,"ः +":15582,"ः खण्ड":15583,"र्ज्ज":15584,"प्रयत":15585,"ितपुस्तक":15586," सक":15587,"स्यादिति ":15588,"ो रस":15589,"ाय त":15590," कास":15591," कठिन":15592," तै":15593," अव्यक्त":15594,"ते वा ":15595," मदु":15596," मीट":15597,"ृतम":15598," दूत":15599,"त्कर्म":15600,"त्वं त":15601,"संहर":15602,"स्मिन":15603,"योध्य":15604,"ात् इति ":15605," उद्यम":15606," संस्थाप":15607,"श्रव":15608,"ं वक्तव्य":15609," न त":15610,"ं चेति ":15611,"ः सेव":15612,"पुनरुक्त":15613,"मे च":15614,"रीक्ष":15615,"वर्तिन":15616,"स्थितौ":15617," खाद":15618,"ब्रि":15619," महास":15620,"दर्शनीय":15621,"शीलं ":15622," त्वय":15623,"सारेण":15624,"शताधिक":15625,"राष्ट्रे ":15626,"प्राप्ति":15627,"ितं सर्व":15628,"ाख्याय":15629," वैभव":15630,"जगार":15631,"ं देहि ":15632,"ेत्येव":15633,"ink":15634," एतानि ":15635,"योजना ":15636,"े नर":15637,"ा विश्लेषण":15638,"ा नर":15639,"जुहु":15640," यदि वा ":15641,"निरास":15642,"अन्तः":15643,"ताम्र":15644,"क्रीडा ":15645," पितॄण":15646,"ाङ्गुल":15647,"े निवेश":15648," पश्यति ":15649," सिन्ध":15650," II":15651," सूर्य्य":15652," अधिनियम, ":15653,"सम्यग":15654," कुर्वन्ति ":15655,"स्वीकार":15656," केचिद":15657,"छन्दसि ":15658,"े ऽपि ":15659,"तिक्रम्य":15660,"पुनः कीदृश":15661," वाणिज्य":15662," •":15663,"' (":15664,"Un":15665,"ःगु दु ।\n":15666,"इती":15667,"ई. स. ":15668,"खी":15669,"खंड":15670,"गग":15671,"च छ":15672,"नेन स":15673,"पह":15674,"भ्व":15675,"मायाम":15676,"लप":15677,"सन् ।\n":15678,"हव्य":15679,"ास्थाय":15680,"ुि":15681,"०१९":15682,"्त्र":15683,"ं ह्य":15684,"े कु":15685,"े शब्द":15686,"प्रयोजक":15687,"विन्यास":15688,"विनियोग":15689,"ाराम":15690,"न वै":15691,"स्य ॥\n":15692,"ो जल":15693,"ो दक्षिण":15694,"न्तप":15695,"निमन्त्र":15696," प्रेत":15697,"ाला ":15698,"तिष":15699,"समावेश":15700,"त्वम् अ":15701," नगरे ":15702," विदित":15703," शङ्ख":15704,"स्वच्छ":15705,"ागरे ":15706,"श्च स":15707,"सर्व एव":15708,"िवाह":15709,"श्रेयः ":15710," हो":15711,"ं प्राह":15712,"भूकम्प":15713,"राजस्य":15714," बद्ध":15715," समी":15716," समर्पित":15717,"म् अन्त":15718,"म् अस्म":15719,"भिन्नं ":15720,"दुख":15721,"ात्मकम":15722,"ोः'":15723,"ं सा ":15724,"ं सृज":15725,"तमस":15726," सुहृद":15727,"परिशिष्ट":15728,"परिपक्व":15729,"सा तु":15730,"ं नो ":15731,"त्सर्ग":15732,"क्रिया":15733,"पुत्री":15734," पुनरु":15735,"शततम":15736,"्-'":15737,"ः शास्त्र":15738,"ं शान्त":15739,"जुइगु":15740,"शास्त्रज्ञ":15741,"पूजा ":15742," अहो ":15743,"दाता ":15744," एषा ":15745," दशम":15746," सिद्ध्य":15747,"आरभ्य":15748," भ्रम":15749,"उदाहरण:":15750,"ासंख्य":15751,"सङ्ख्याय":15752," ध्वज":15753," वदत":15754," सम्मुख":15755," प्रधानमन्त्र":15756," उदात्त":15757,"ult":15758," कुत्रापि ":15759,"अन्वयः - हे ":15760," वातावरण":15761,"पदिश्यते ।\n":15762,"ाभिलाष":15763," िव":15764,"(d)":15765,"ID":15766,"M\n":15767,"ial":15768,"अर्जुन":15769,"ई ":15770,"तेव":15771,"भट्ट":15772,"मीर":15773,"मत्वा ":15774,"माध्य":15775,"माश्रित्य":15776,"शप":15777,"शित":15778,"शत्य":15779,"सभ्य":15780,"सकृ":15781,"होत":15782,"िशब्द":15783,"िच्च":15784,"ॊ न":15785,"ोद्देश":15786,"॒ह":15787,"ं लभ":15788,"े गृह":15789,"े नम":15790,"े दृष्ट":15791,"ः शुभ":15792,"प्रामाण्य":15793,"विराम":15794,"विविक्त":15795,"न तेष":15796,"ो मुक्त":15797,"ो रथ":15798," तो":15799," पालय":15800,"ापुर":15801,"िकर्त":15802,"ासते ":15803,"त्वरित":15804,"राध्य":15805,"संदेश":15806," नायक":15807," विज्ञेय":15808," चाल":15809,"ाहुत":15810,"ध्यात":15811,"म्हं ":15812,
[...]
