#version: 0.2
ന ്
ക ്
് ‍
ത ്
ന് ന
്  
ക് ക
. 

ി ല
െ  
് ട
ത് ത
  പ
ു ം
ി യ
ി  
പ ്
  ക
മ ാ
ു ന്ന
് യ
് ച
  സ
  വ
ട ്ട
ി ര
ച ്ച
  ന
് ര
ി ക്ക
ങ ്
പ് പ
ാ ണ
് റ
് .

ം  
ി ച്ച
ണ ്ട
ങ് ങ
ാ യ
  മ
  അ
ാ ര
ാ ന
ി ന്
ു ക
് ല
ാണ ് 
ി ന
ു ട
  ത
ു .

റ ്റ
ി ക
െ യ
  എ
സ ്
ി ൽ
ങ്ങ ള
ക് ക്
വ ര
ത് ര
് ള
ള ്ള
വ ി
 പ ്ര
ട ു
മാ യ
ഞ ്
ര ു
ിര ുന്ന
ഞ് ഞ
  ആ
മ ്
ന് ന്
ര ാ
ക് ഷ
ുട െ 
ാ ല
െ ന്ന
റ െ 
  ഇ
സ ് 
ു ള്ള
  ച
േ ര
ില ്ല
ത്ത ില
് ‌
ുന്ന ത
ു ണ്ട
ദ േ
പ് ര
ോ ട
ല ്ല
 വ ി
പ്പ െ
ദ ്
ി ട്ട
ിന് റെ 
യ ില
ക ര
ുക ള
വ ാ
  ഉ
  ബ
 സ ്
സ് ഥ
ു റ
  ജ
ി പ്പ
ു മ
  ശ
ങ് ക
ത ിര
ു വ
 പ റ
െ ന്ന്
മാ ണ
മ് പ
ുക യ
ിക ള
  ഒ
ാ വ
ി വ
  ര
ാ ക്ക
േ ഷ
ത് ത്
ദേ ശ
ോ ഗ
ന് ത്ര
ായ ിരുന്ന
 സ ം
ത്ത ിയ
ര ി
  ല
ഗ ്ര
ം .

 എ ന്ന
മായ ി 
 ന ട
െ ടു
മ ു
എ ന്ന
ന് ത
ത് യ
മ് മ
ി ന്ന
ിയ ില
ന് ദ
മാ ന
സ ം
ി .

ിക്ക ുന്ന
ും .

ി ട
്റ ്റ
്  ക
്യ ാ
  മാ
ായ ി 
റ ിയ
ോ ള
ാ ട
ത ി
െ  ക
സ്ഥ ാന
 മ ു
 പ ോ
്  പ
സ ി
ം  ക
ക് ത
ൂ ര
ണ ്
ോ ണ
െ  പ
സ ്റ്റ
ക്ക ാര
അ ത
ോ ട്ട
ാ ം
  യ
ച െയ
ൂ ട
ാ ധ
രാ ജ
ന് ധ
ക ള
േ ത
 പറ ഞ്ഞ
ദ ്യ
ാ ർ
ിക്ക ുന്നത
പ്പെ ട്ട
ിച്ച ത
ാ ൻ
ു ര
ത ിയ
േ സ
  ദ
മ യ
സ ര
ി  ന
ഭ ാ
ന്ദ ്ര
ങ്ങ ൾ
ു പ
ക് ര
ക ു
ത്ത െ 
  റ
ി ത
ന് റ
്യ മ
ിച്ച ് 
ഇ ത
ി ഞ്ഞ
ദ് ധ
ീ കര
  ഗ
ഡ ് 
ടു ത്ത
വ ർ
് ത
ത്ത ിൽ
യ ്
ഞ ്ച
ര ണ
ാ ള
ൊ ണ്ട
േ ക്ക്
 വ ര
് ,
ാ ത
ം  ന
ത്ത ിന്
ിട്ട ുണ്ട
ാ മ
േ ണ്ട
 ച െയ
ി  പ
ദേ ഹ
 ഒ രു
ിക്ക ാന
ി ജ
െ ങ്ക
ില െ 
ം ഗ
ില്ല .

േ ന്ദ്ര
ാര ്യ
ി  ക
  ഡ
ല ീ
ഷ ്ട
ിയ ുടെ 
ാ ക
ം  പ
ണ് ണ
 ത ിര
്  ന
 സ് ഥ
  ട
ി എ
ിക്ക ുകയ
ദ് ദേഹ
മാ ര
ത ു
ത ല
2 0
ം  വ
ീ യ
 സ് വ
മാ ക്ക
ോ ര
യ ുടെ 
മാണ ് 
  ഭ
ഴ ിഞ്ഞ
 ന ിന്ന
ത്ത ിന്റെ 
ങ്ങള ില
െ പ
ഞ്ഞ െടു
ായിരുന്ന ു
ണ മ
ത്ത ിന
ു മായി 
വ ീ
ന് ത്യ
 പറ യ
ിന് ന്
ി ം
ം ,
റ്റ ് 
  ഹ
െങ്ക ില
  ഫ
ശ ്യ
ോ ധ
െന്ന ാണ് 
േര ള
െ  ന
ശ ്
ത ി 
പ്പെ ട
െയ ാണ് 
ജ യ
്‍ ,
 ആ ര
െ തിര
ഭാ ഗ
ന് റെ 
 പ േര
ഞ്ഞെടു പ്പ
ിജ െപ
ം  അ
െ  അ
്യ ക്ത
ൂ പ
േ യ
  ഏ
 ന ിന്ന്
ൂ ട്ട
  രാ
ി ക്ക്
ത ീ
സ ിന
ഒ രു
 ക ൊ
ർ ക്ക
ആ ര
േ ാ
ാര ണ
മ ര
 ന ിര
ി  അ
ത ുട
ബ ന്ധ
ാ ത്ത
ാ ൽ
ോ ഴ
 പ രി
ിയ മ
വ േ
സ് വ
യ ിൽ
ത് ഥ
ീ വ
ധ ാന
േ ക്ക
 വ ീ
 ന ി
േ ഖ
ല ിയ
്യാ പ
ന ങ്ങള
 സ ാധ
 ക ു
വി ട
ഭ വ
ന ില
ചെയ ്യ
ി  സ
ോ ദ
വ ില
ത്ത ര
  ഓ
ി .
ന്ന െ 
രാജ ്യ
ുക ൾ
ഗ്ര സ് 
ന ു
വ ശ്യ
ി റ്റ
ിയ ത
ോ പ
ി ,
ാ ഹ
േസ മയ
െ ത്ത
ാ ഴ
്  അ
്യമ ന്ത്ര
ോ ല
  ഈ
അത േസമയ
ട ക്ക
 അ ദ്ദേഹ
ത് വ
ത ിന
ു ല
എന്ന ാല
്  സ
ി സ
യ ു
ി മ
ട ിയ
 ന േത
ാ പ
പ ക്ഷ
സ ില
ീ റ്റ
ഖ ്യമന്ത്ര
ോ ക
 അ വ
ലീ സ് 
ാ ട്ട
 വ െ
ൊ രു
ിവ സ
ിച്ച ിരുന്ന
ി  എ
 ക ോട
ം  ത
ി  വ
ചെയ ്ത
ാ റ
ി പ
ം  ഉ
 ക ോ
ാ ദ
ഷ്ട ്ര
ധ ിക
ം  നട
 ന ില
ക് ട
െ  സ
0 0
മ ന്ത്ര
 ചെയ ്ത
മ െ
ക്ക ുന്ന
ുകള ില
യ ോഗ
ല്ല ാ
ൂ ർ
 സ ര
 ശ ്ര
ൽ ക
ച ര
ഷ ്യ
 ഉ ണ്ട
ി  ജ
ക്ര മ
 സം സ്ഥാന
ന് യ
 ശ േഷ
ത ിക
്‍ .

ാ സ
ും ,
ോട െ 
മ ൂ
പ്പെ ടുത്ത
 പ്ര തി
യ് ക്ക്
െ ട്ട
്യക്ത മാക്ക
 ക ോണ
വ േഷ
ങ്ങ ന
മ ി
യ് ക്ക
 ത ുട
മ േ
ോ ർ
ോട ് 
പ ാട
രു മാന
 പ ു
ൂ ടു
ക ൊ
ിച്ച ു
ട ന
ക ാര
ൈ ന
ഡ ിയ
െ ത്തിയ
 സ െ
ുമ െന്ന
 ക ാര്യ
ജ ന
ഡ ിഎ
്യ ത
ജ ില്ല
ീ പ
ോ ൾ
 മ ന്ത്ര
ുറ ത്ത
േ റ്റ
ീ ഷ
ണ് ഡ
ുവ ന
വി ഡ് 
ോ യ
പ്പ ോള
ഫ ് 
ാ ശ
. .
പ ുര
 പറയ ുന്ന
 സം ഘ
ാക്ക ള
 ക േന്ദ്ര
ശ ോധ
ധ ്യ
ം  സ
ട ്ര
 പ ിന്ന
ിന െ 
 പ ൊ
ിര ിക്ക
െടു ത്ത
ുള്ള ത
ക്ഷ ണ
സം സ്ഥാന
ട്ട ് 
ം  എ
 ര ണ്ട
ശ ്ര
ിര ിക്കുന്നത
പ ര
ീ ര
ന ി
) ,
ശ ന
ങ്ങ ിയ
 ജ ില്ല
 ഇ ട
ാണ്  ക
ന് വേഷ
ാഴ ്ച
ഗ ് 
യ ാള
ഴ ിയ
ിക ൾ
ന്ന ത
 മാ ത്ര
ത് സര
ം  ആ
 തിര ഞ്ഞെടുപ്പ
 ല ഭ
ക് യ
യ ര
 ന ിയമ
 അ ന
 യ ു
ാണ്  ഇ
 ദ ിവസ
ു മായ
ന ിര
റ ഞ്ഞ
വാ സ
വര ുടെ 
 സ്വ ദേശ
വാ ദ
യില െ 
 ക ുറ
 ത െ
വ ണ
 ബ ിജെപ
  ഷ
 ഇ ന്ത്യ
ശ ുപ
ിക്കുകയ ാണ
ുക ൊണ്ട
ബ ിജെപ
 വ ലിയ
  (
ം  ഇ
ത് സ
െ ല്ല
ാ ബ
ന്ത പുര
 ചെയ ്യ
 ന ല
ൃ ത്വ
ശുപ ത്ര
ി റ
ഭ ി
 അ ത
ര ണ്ട
േ ജ
ല ഭ
റ്റ വ
പ ട
ങ്ങള ുടെ 
മ ുണ്ട
ഗ്ര സ
ൂ റ
ർ ത്ത
വർ ത്ത
ി  പ്ര
ാണ്  പ
കു പ്പ
ു വര
്  വ
ുവന ന്തപുര
ൊ ഴ
െ ക്ക
 ന േര
ി  ത
ാ മ്പ
 അ റിയ
 ക േരള
 മ ുന്ന
്  ത
 വ ൈ
െതിര െ 
ൂ ല
േ ട
ം  മ
 എ ന്ന്
ടു ക്ക
സ് ത
 ര ൂപ
ോ ഷ
ുമ െന്ന്
 ആ വശ്യ
ണമ െന്ന
ില്ല െന്ന
 ല ക്ഷ
ീകര ിച്ച
ി ത്ര
ഖ ്യാപ
ു ക്ക
  ഞ
ു ന
ി  (
ിര ു
െ  ത
തുട ര
വി ധ
 പോ ല
ഷ്ട്ര ീയ
 ക ണ്ട
ം 

 വ േണ്ട
 ക ൂട
ര ൂപ
ഇ ന്ത്യ
ര ിക്ക
ു മ്പ
മാ റ
േഖ ല
ണ്ഡ ല
ാ ത്ര
ീ ന
 ക േസ
മ ല
ീ ക്ക
ാഹ ചര
് വ
ോഗ ്യ
രു ത
 പ ങ്ക
ന്വേഷ ണ
1 9
ാണ്  അ
 ജ ന
ുന്ന ത്
മ ുള്ള
പ്പ ോഴ
ിപ്പ ോര
ന േത
ൊ പ്പ
 ത ീ
ം ഭ
െ ല
ക്ഷ േ
ള ള
  രാജ്യ
ത ിയില
ക ഴിഞ്ഞ
പ്പെ ടു
ിയ ായ
ക ിയ
ിയ ിൽ
 ക ൊണ്ട
 മു ഖ്യമന്ത്ര
ൂടു തല
ത മാന
് .
ി ൻ
വി ജയ
െടു ക്ക
ാഹചര ്യ
േഷ ന
ഷ ്
 ഉ പ
ി  മ
ത്തിയ ത
ൊ ക്ക
 എ ത്ത
 ത ന്നെ 
1 0
സ ഭ
 സ മയ
സ്റ്റ ് 
ക ാര്യ
െ  വ
 സ ു
 സം ഭവ
ണ ിക്ക
 ആ യ
 ര ോഗ
ര ോഗ
ണ ക്ക
ി വര
? 

20 1
ദ് ദേശ
 വ േ
ത ൽ
ിക്ക ാൻ
 വ ില
പ െ
 ആ ണ
ി  ആ
 നട ത്ത
ി ത്ത
 പ്ര വര
ാർ ട്ട
േ ക്ഷ
ുക .

ില േക്ക്
 പ ാര
 സ ീറ്റ
ം  ച
ബ ാധ
ോ ക്ക
ാ ം.

 വ ോട്ട
 ത ന്ന
 ശ്ര മ
ക ട
 ക ഴിഞ്ഞ
ു ത
െ  ആ
ഷ േ
ഇ ത്
ുകയ ാണ
വാ ഹ
ു ഴ
മാ ത്ര
ന്റ ് 
വ സ
െയ ുള്ള
വ ന
മാ റ്റ
ം ബ
 ശ തമാന
ിച്ച ിട്ടുണ്ട
സി ഡ
 സ്ഥ ാന
ഫ ീ
ർ ഷ
ൃ ത
ള ര
പ്ര തി
 വി ജയ
ക ൾ
േ ർ
ോ മ
 സ ഹ
ക ന
വി ത
ക േരള
 വ ന്ന
ന ട
 മ ൂ
ാന ുള്ള
ബ ി
  ധ
ം  ചെയ്യ
േ ട്ട
എന്ന ാൽ
 തീ രുമാന
െ ച്ച
വ ധ
ാക്ക ിയ
ൊ ന്ന
ശോധ ന
 ക ാല
ഗ ്
ജ ്
ച ന
ം  എന്ന
 ഇ ത
എ ല
ം  പ്ര
ന്ത ര
ൈ ക്ക
ർ ച്ച
തിര ുവനന്തപുര
ഷേ ധ
മായ ിരുന്ന
 സ ാഹചര്യ
ിര ിക്കുകയാണ
 പ ര
ങ്ങള ിൽ
ം :
ു തിയ
ുട െയ
വി ഡ
്  മ
ി ണ
ദ് ദ
ികള ുടെ 
റ പ്പ
െ  എ
 ക ഴിയ
ത്ത ന
സ് സ
 സ്ഥ ിര
ുക ാര
ോ സ
െ  മ
യ ്യാ
റ യ
ുന്ന ുണ്ട
  -
ർക്ക ാർ
ം പ
ക്ര ട്ട
ാ ന്ധ
ോ സ് 
മ ല്ല
ജ ി
മാ ക
ഖ ്യ
പ്പ ോൾ
 വ ്യക്തമാക്ക
്‍ 

ുന്നത ിന
ോ ൺ
ോ ദ്യ
മു ഖ്യമന്ത്ര
ഷ യ
ീ ം
 പ െ
കള ില
ന ിയ
 വ യ
  രാജ
ാട ് 
കു ട്ട
 സ ുര
 സാധ ്യത
തീ ക്ഷ
ൂ ണ
ട ി
ിപ്പ ിച്ച
േണ്ട ത
ഡിഎ ഫ
ജ ീവ
 വ കുപ്പ
 പോ ക
 ക ാണ
റ െയ
യ്യാ റ
 മാ റ്റ
 പ ുറത്ത
ധ ്യമ
 വ ാ
 സ മ
സ ഭാ
ുകയ ായിരുന്ന
തു ണ
ാ റ്റ
ായ ത
,  
ോ ഡ
 മ ത്സര
ക ാശ
 ക ാരണ
 എ ല്ലാ
േ ക
1 5
റ ില
പ രി
 പ രാ
 കോ ൺ
  ഗ്ര
 മ റ്റ
20 2
 മ ല
ണമ െന്ന്
ാണ െന്ന
ാ ജ
ിന് തുണ
ട്ട ില
 മ േഖല
ാണ്  സ
ധാന മന്ത്ര
ീ ട
ന േര
 അ പ
 പോ ലീസ് 
സ ാര
ഹ ുല
ഗ ര
ന ിക്ക്
ല ക്ഷ
ബ ്ര
ോ ഹ
ി :
ത ികള
സം ഘ
ില്ല െന്ന്
ൊഴ ില
 ക ുട
1 2
  ഐ
സ ്ല
ാണ െന്ന്
ത്തില െ 
ിര ിക്കുന്ന
ിക ി
,  ക
ശ ്ച
ി  ഉ
തിര ഞ്ഞെടുപ്പ
ികി ത്സ
 നട പട
ീ വിത
 സ ൗ
ഷ ന
മു ഖ
  ക്
്  ആ
ുമായി  ബന്ധ
വാ ക്ക
െ ഡ
ോ റ
ത്യ േക
മ ന
ദ ്യാ
ാത െ 
േ ല
സ്വ ദേശ
േ ന
 ട ്ര
മാ ർ
 ആ ശുപത്ര
ി  വി
ഇ ട
ധ്യ ക്ഷ
 പോ യ
ലീ സ
ള ുകള
ോഴ ിക്ക
ി  പറഞ്ഞ
ര ംഗ
 അ ത്
ം ന ല
ം നട ത്ത
ുവ െന്ന
 പ ദ്ധ
യ ്യ
 ക ര
ിപ്പ ോർ
ിട്ട ില്ല.

െ റ
 അ ധിക
ക ാല
ക്കാര ്യ
ീ ല
 പ ല
 പ ാല
 ശ ക്ത
ഷ് ണ
 പിന്ന ാല
ബ ്
യ ാണ് 
ർ ന്ന
ൂ പ്പ
 ഗ ാന്ധ
ിക്ക ല
ി  ച
ഏ റ്റവ
 മ ണ്ഡല
 പ ുറ
 ന ൽക
 മ ന
 സ്ഥ ാപ
്  എ
 വി വര
3 0
 ആര ോപ
ത ി ന
ാ ഥ
െ ക ുറ
ഞ്ച ായ
സ് ത്ര
ദ ു
 ഒ ന്ന
 ച ില
 സ ർ
 ക ൂടുതല
വ ല
ര ിച്ച
യ ായ
് പ റഞ്ഞ
ത ൃ
1 1
ബ ു
ല ോ
ന്യ ൂ
ം  വി
്  പ്ര
ക െ 
 ക ട
പ േര
്  ച
ു ,
ഹ ാര
ു ളള
ണ്ണ ൂര
ുമ െന്നാണ് 
ക ൂട
 തിര ിച്ച
ട ങ്ങ
ണ ാ
 യ ോഗ
 വ ്യക്ത
വി ള
ഇത ിന
ഗ ണ
 നേത ാവ
 രാ ഷ്ട്രീയ
ശ് വാസ
പ്പെടു ത്തിയ
ശ ക്ത
സ ു
 അ വര
ം  പറഞ്ഞ
ദേശ ീയ
ം ഉ ണ്ട
എ ല്ലാ
എ സ് 
ധ ന
ഘ ട്ട
െ .
ഭ രണ
 ച ിത്ര
ക ോണ
ക ല
എ സ്
ം  മു
 സ മ്പ
 നി ർ
ത്ത വണ
ഹ ര
സി പ
 ത ല
ത്ത ിക
 മ റ
 വി ഭാഗ
ു ട്ട
ി  എന്ന
ിക്കുന്ന ത്
ി ജ െ പ
 ബ ന്ധ
ുമായി ബന്ധ പ്പെട്ട
സം ഭവ
2 4
 പു തിയ
ാ ഗ
യ ുണ്ട
 ക ൈ
 വ ്യ
വ െ
ം  ചെയ്ത
5 0
 സെ ക്രട്ട
കു ള
പ്പെട ുന്ന
പ്ര വര
ല ോക
ുവ ദ
 നേത ാക്കള
ായ ിരിക്ക
 അ ഭി
 അ ംഗ
പ്ര ായ
ൈ ല
രാ ള
ിയ െ 
 നട ത്തിയ
ആ ദ്യ
 മാ സ
ി  വര
മ ർ
 ആ ദ്യ
മ ത
 നിന്ന ുള്ള
1 4
മെ ന്റ
ി ക്
 ര ീ
ു .
ീ ക്ഷ
 ക മ്മ
യ റ
 ഉ ള
ീ ക്ഷണ
 അ ന്വേഷണ
അത ിന
 പ്ര വർത്ത
ിണ റ
ശ യ
മ്പ ന
ു ത്ത
 ക ള
 ത യ്യാറ
സ ന
േ ള
സ ഹ
ി  ബ
െ ാ
വ ിലെ 
 ക ാര
ി 

ഴ ്ച
ച ാരണ
ഫ ല
 മു തല
ിയ ാണ് 
ന ായ
 ഗ ു
െങ്ക ിൽ
ങ്ങൾ ക്ക്
 ഇ ന്ന്
 വി ഷയ
 ത ൃ
ാ ങ്ക
 അ നു
ഗ്ര ഹ
ിക്ക ാര
 യ ാത്ര
ഴ ്
വി ട്ട
ഇ ന്ന്
 സാധ ിക്ക
 ക ോള
പ്പെട്ട ത
 എ ന്ത
ില ൂട
്  എന്ന
ം  ലഭ
ാട ക
ഇ വര
 എന്ന ിവ
.. .

േ ടിയ
ക്രമ ണ
്യ ൂ
േ സ് 
ോട െയാണ് 
ൂ ണ്ട
 ന ീക്ക
 ഭ രണ
1 8
പ ിന്ന
ിക ച്ച
നേത ൃത്വ
ിച്ച ് ക
 മു ന
 ഇ ല്ല
ീകര ണ
മ ുന്ന
് ന ട
ാണ ്ട
ിപ്പ ിക്ക
ത്ത കര
ന് ത്
ടി സ്ഥാന
 ക ൂട്ട
 എ ം
ര ോ
ഡിയ ോ
ിച്ച ത്
 മ ോദ
 ഇ ത്
ാമ്പ ത്തിക
ീ സ
ശ ദ
ന്ന ു
 സ ിപ
ച്ച ് 
റ ിപ്പോര
ിൽ  
എ സ
 മ ണിക്ക
ു മാണ് 
1 3
വ ് 
ൂ ക്ഷ
 റ ിപ്പോര
ി ങ
 അ ട
 എന്ന ാണ് 
ീ സ് 
 ഉ റപ്പ
ക ോ
 പ്ര തിക
ൗ ര
 പ ണ
ഉ പ
വ ൈ
ത്തില ുള്ള
 സ ്റ്റ
തീ രുമാന
റ ല
ജില്ല യില
ക ൂ
! 

ം .
 പ്രതി ഷേധ
 പറയ ുന്നത
 പ്ര ഖ്യാപ
 വ ാര
ധ ര
ത്ഥ ികള
ക്ട ര
ഇ ന
റ ോണ
മ േര
ോ ബ
് :
  ന്
ിരുന്ന ു
ഗ ു
 ഒ ഴ
 കു ട്ട
 വ ഴ
ഉ ണ്ട
 പ്ര ദേശ
 ര ംഗ
ുമ്പ ോള
 പ്ര സിഡ
യ െ 
 ഉ ദ്യ
2 5
ക ർ
ിക്കുന്ന ുണ്ട
 ല ോക
 ആര ോഗ്യ
ഹ ൃ
റിയ ിച്ച
 പ ിട
 ച ര
ൂണ്ട ിക്ക
എ ണ്ണ
ത്തില േക്ക്
ശ് ശ
 സ ിന
 സ് ത്ര
 എ ത്തിയ
 പരി ശോധന
ട്ട ിക
പ്പ ുഴ
സ് പ
പ്ര തിക
ൃ ഷ്ണ
ാ സ് 
 ത ര
ുകള ുടെ 
 എന്ന ിവര
ി  രൂപ
 വ ന
ികള ില
 ഇ റ
ശ ങ്ക
ത്തില ാണ് 
 സ മര
ത ന്ത്ര
ിയ ിരുന്ന
ിട െ 
സി റ്റ
്  ബ
 എ ന
ക്ക ാന
പ്ര ദേശ
 വ ർഷ
എ ന
അ ത്
ിണറ ായി 
മേര ിക്ക
വര െ 
ി ന േത
ാല യ
1 6
ന ിയമ
 തുട ര
ക്ഷേ പ
യ ാണ
 സ്ഥ ല
ആ വശ്യ
ഒ ന്ന
ിന്  ശേഷ
1 7
ും 

ിക്കാന ുള്ള
 ഏ റ്റവ
 ഉ ള്ള
 മു മ്പ
ി ഫ
ീ ഡിയ
ുന്നത ിന്
ോട്ട യ
 ച േര
പ്പ ുറ
് 

ീകര ിക്ക
യില േക്ക്
 നട ന്ന
 ജില്ല ാ
ക ോട
േ ദ
ുണ്ട ായ
വ ുമായി 
െയ ്
ഗ ോപ
രാ ഷ്ട്രീയ
ഷ്യ ല
 ന ാല
വേ ശ
ശ േഷ
 ഉ ത്തര
ഭ ാവ
ര ക്ഷ
തിയ ുടെ 
 ജ ോല
ധ ാ
 ല ീ
ക്ക ു
അതേസമയ ം 
 സം ബന്ധ
ിന്  പിന്നാല
 ഉപ യോഗ
 പ ാർട്ട
ആര ോപ
ാ ൾ
 നേത ൃത്വ
ൗ ണ
 പ്ര ശ
ൂടു തൽ
ച ില
  ഖ
അ ദ്ദേഹ
 ത മ്മ
ിയ ന്ത്ര
ണാ കുള
ദ ്ര
ഹ മ്മ
െ ,
 മാ ധ്യമ
് മ
  ഭാഗ
റ ണാകുള
ീഷ ണ
ദ ില്ല
ി ഷ
 അ ഞ്ച
 പ്രതി പക്ഷ
പ ൊ
ഭാ ഷ
 ത ോ
ര ഞ്ഞെടുപ്പ
ഓ ഫീ
ിട്ട ുള്ളത
ാ പ്പ
യ ിരു
ി  ഇ
ക േന്ദ്ര
ിക്ക റ്റ
ഭ ൂ
ില ീപ
ഹമ്മ ദ
 ആവശ്യ പ്പെട്ട
ഞ ാന
 ന ീ
ുണ്ട ായിരുന്ന
 ജ ീവ
ജ ീവിത
വി വര
 വി ള
െക്ക ുറ
ഭ ്യ
ിയില െ 
് -
ൃ ത്യ
ിക്കുന്നത ിന
ീകര ിച്ചത
 കാര്യ ങ്ങള
ുകള ിൽ
ം  സ്ഥിര
ത് മ
 സ ർക്കാർ
 അ റ
ി ള
 ഇ ന
ിവ സം
വ ിൽ
 വി ദ്യാ
സ് വാ
 വ ളര
 ത ാര
ില ുള്ള
 സംഘ ടന
തിര ോധ
ബ ൈ
 പ്ര ത്യേക
 നില പാട
ൂ ചന
ത്ത ോട
 സ ി
ര ിയ
 കൊ ല്ല
ത െ
 ച ോദ്യ
ിന്റെ  പ
ത്ത േക്ക്
മ ോ
ക്ക ുന്നത
മാ സ
പ്ര ധാന
ിക്ക ണ
ം  വര
് പ
ക്ക െതിര
മ റ്റ
ത്ര യ
 വി മാന
വസ ാന
ാർ ത്ഥ
 വി ധ
 ക ല
ിന്റെ  അ
ാമ സ
ല പ്പുഴ
സ ്യ
പ്പ റ
സ െ
 ച ികിത്സ
 ഭ ൂ
സ്ഥ ര
 ഉ ൾ
സ ന്ധ
 അ ടക്ക
 ഉ യര
സ ാന
 സെക്രട്ട റ
ി  ല
ിയില േക്ക്
വിട െ 
എ ന്ത
 മൂ ന്ന്
ുക ൂല
 പ്ര ധാനമന്ത്ര
അത ുകൊണ്ട
 സ് വാ
ൊഴില ാള
ി സി
േ സ്
 ഇ തു
ത ാര
 മ ഴ
ൈക്ക ോട
 ത ട
ോ ം
ന്ദ ര
സ ർ
സ്ഥ ിര
 ത ുറ
േഷ ൻ
 എ തിര
മ െന്ന
ം  രൂപ
എ ം
ന ാട്ട
ശ്ര മ
 അദ്ദേഹ ം പറഞ്ഞ
 സിപ ിഎ
 തിരഞ്ഞെടുപ്പ ില
ോ വ
ീ മ
ജ് ജ
 തുട ങ്ങിയ
യിരു ത്ത
4 0
െത്തിയ ത
 കു റ്റ
യ ാത്ര
ള ി
ക ുന്ന
മ്പ ര
ാക്ക ാന
വി ധാന
ി ഴ
ി മാര
ൗ ണ്ട
 വീ ട
 സഹ ായ
ഭ ്യാ
ല ില
 മാ ര
ഹ ു
മൂ ന്ന്
ജില്ല ാ
ദ ാന
 മ ീഡിയ
 പ്ര തീക്ഷ
 അറിയ ിച്ച
പ ാര
 തെ ള
മു ന
പ ോ
ില്ല ാത്ത
ആര ോഗ്യ
വ ാര
ിപ്പോർ ട്ട
സ ൈ
ിക സന
മായ ി പ
ി സ് 
മാണ െന്ന
2 3
 മ ണ
വ ്വ
ന യ
20 0
് ക ു
ജ നങ്ങള
ാ ഷ്ട്ര
പ് ല
ിന് ദ
പ ല
ത്  
ന ം 
രാജ യ
െയ ാണ
ം ന ൽക
ഗ്  ബ
മൂ ഹ
ു പ്പ
ക ുട
 എന്ന ത
 മു ൻ
 സ മ്മ
നേര ത്തെ 
 എന്ന ി
ശ ാ
ിയ ാണ
ന ക്കാര
ന്ന യ
 പ ഞ്ചായ
പ ണ
 ആ ള
തിയ ിൽ
രാ ഹുല
േഷ ് 
വ ശ
പ്പ ള്ള
ത്ത െ പ
മ രണ
ർ ത്ഥ
ൂ ഹ
2 2
ോ ജ
 ച ോദ
വ ്
്ട ്ര
ത്ത െ ക
ത യ
ട്ട ിയ
 ബ ി
ഭ്യാ സ
ബ ്ല
ര േന്ദ്ര
ദ ിവസ
ത്ത ാവ
ിണറായി  വിജയ
ത ര
 മ രണ
  ക്യ
വർ ക്ക്
ിരു ദ്ധ
ം ത
പ േക്ഷ
ായ ക
 മ ര
ി  ഡ
മാ റിയ
ുക്ക ള
 ദ ിവസം
 അ യ
 കോൺ ഗ്രസ് 
ി വാക്ക
 വീ ണ്ട
ഡിഎ ഫ് 
ണ ങ്ങള
ശ ൂര
ി  മു
 സുര ക്ഷ
ിൽ  നിന്ന്
്  ഇ
സ ാ
േ റ്റ് 
 കൊ വിഡ് 
ന വ
ആ ർ
പ്പ ില
വ യ
ു മാണ
ിക്കുകയ ായിരുന്ന
എ ൽ
എ ഫ
ർ ന്ന്
 ജ യ
ക്ക ിയ
ത്തില ൂട
ഇത ോടെ 
 മണിക്ക ൂറ
 സ്ത്ര ീ
ക് തി
ം  സ്വദേശ
ന ാട
 ന േട്ട
 രാ ഹുല
ത ായി 
ഒ ഴ
 അവ സര
ക േസ
ിൽ  നിന്ന
ി  യ
 ആര ംഭ
ത്ത ു
 കോ വിഡ് 
 വര െ 
പ ാത
പ്ര വർത്ത
ീ ഴ
 ക െ
വ ിന
ൻ ്റ
പ്പെട ുന്നത
 വ ്യാപ
അ ന
രാ ശ
സിപ ിഎ
 ഇ വര
 എ ല
 കോട ി രൂപ
ധാ കര
  ഘട്ട
ച ിത്ര
വ ോട്ട
ങ്ങൾ ക്ക
  ക്ര
ങ് ക്
ങ്ങന െ 
 കോള േജ
്  വര
ുവ ന്ന
ം  ബ
സ്ഥാന ാര
ഉ ത്തര
ിന്  
ൈ ം
ല്ല .

ന്ത ോഷ
,  പ
 പ േർ
അ ടുത്ത
ദ ിന
ൈ സ
ദ്യ ാര
ഗ ത
 രാ ശ
ിച്ച ് പ
ിക്ക ൽ
 ഞ ാന
െ ക ണ്ട
. .

മ റ
ാവ സ്ഥ
മായിരുന്ന ു
ക്ക ര
 സം സാര
ന്ന ല
ത്ത ോള
പെ ട
ോഴിക്ക ോട് 
ൻ സ
ി  സ്വദേശ
 പ ിന്തുണ
 പൊ ലീസ് 
ൊ ല
ിട്ട ുള്ള
ോ ?

ദേ വ
വി വിധ
 ന ിയന്ത്ര
 വ ാഹ
 അ ര
ണ ാടക
ത്തന ംത
ത്തനംത ിട്ട
2 6
 അ തി
ിരുന്ന ത
സം ഗ
 അവ സാന
 ശ്ര ദ്ധ
ോ ഡ് 
 പ ഠ
 അ ല
പ ാല
2 8
ാ ഷ
െ റിയ
ാണ്  ഈ
ിൻ ്റ
  മാന
പ ുതിയ
വ ലിയ
 ഓ ഫീ
 ന മ്മ
 വെ ള്ള
 അപ േക്ഷ
2 7
 സമ ീപ
 വെ ച്ച
ുവ െന്ന്
 സാഹചര്യ ത്തില
ി ബ
സ് സില
 ന ഷ്ട
 ബ ി ജെ പ
 പ്ര കാര
 പ്ര വേശ
ഇ ത്തര
ക ാന
 ന ല്ല
തിന ാല
 ത വണ
 ലഭ ിക്ക
സ ാധ
 മ റ്റ് 
ആര ംഭ
ിച്ച ാല
ക്കാര ിന്റെ 
ൂ .

മ് മാന
വ ്യാപ
മെ ഡ
് പ േര
 രീ തിയില
 ക് ല
കൂ ള
്‍ :
പ്ര തീക്ഷ
ഇത ില
ുട േയ
 ത ാല
 അന ുവദ
മ െന്ന്
ിയ ായി 
അ വ
ീ ഡ
ിന ി (
 വൈ റ
 മറ ുപ
ത ാന
ി  ട
ഇത ുവര
 മു തൽ
ൂണ്ടിക്ക ാട്ട
െ  ച
ാക്ക ൾ
 ര േഖ
ബ് ദ
ക്ക ള
 പ ൂര
ര േഖ
ം  ഏ
 ഒ രാള
 -  
ഡ ്
നു ഷ്യ
്‌ .

ൊ ട്ട
ചെയ്ത ത
ി ർ
ഘ ോഷ
ീ ത
 കോട തി 
സ ുര
 തിര ുവനന്തപുര
ിപ്പ ിച്ചത
ുമ്പ ോൾ
പ്പ ് 
 അ വരുടെ 
ന േ
വാ റ
മ ത്സര
00 0
 അ ഭ
രംഗ ത്ത
ബ ര
ി സ്റ്റ
 മ ത
 ശക്ത മായ
-  
ീ റ്റ് 
മൂ ല
 സ് വര
ക ുറ
റിയ ിപ്പ
 പരി പാട
 ഫ ല
2 1
അ വര
സം സാര
ക്ക്  
മാണ െന്ന്
 ബ ്ര
ോ ഷ്യല
വ ്യ
ഗ്ര സിന
ി ന ിര
ുമ തല
പ ൂര
ഗ്രസ ിന്
 ന യ
 മ ികച്ച
ച ്
ം  ഒരു
 പങ്ക െടുത്ത
 നിര ീക്ഷണ
ൃ ഷ്ട
ന ത്തില
രി ത്ര
ന ാട് 
െ ന
മാ ധ്യമ
ങ്ങ ിയത
ുള്ള വര
ാ ഫ
ച ന്ദ്ര
് ന ല
ു 

 ഇ ര
 എ സ് 
 ബ ു
മൂ ന്ന
മ ീപ
യ ർ
 അ ല്ല
 പ്ര ധാന
 ആ റ
ഉ ദ്യ
 ന ഗര
ന ങ്ങൾ
് ത്
 ഇ ത്തര
ഡ ി
 അ ധ്യക്ഷ
ച് ഛ
  '
പ് റ്റ
ോഴിക്ക ോട
എ ഇ
ര ള
െ ന ട
ാവ ് 
നി ർ
വീ ട
ദ വ
ജ് ഞ
സ ്ര
ാമ ൂഹ
 സ്വ ന്ത
രി പക്ഷ
സംസ്ഥാന ത്ത്
 സം വിധാന
വാ ള
പക്ഷ േ
ം ;
ില ാണ് 
ിക്ക ുമെന്ന
നില വില
ത ന്നെ 
കര ണ
 ക ിട്ട
 വ ർ
ക്ഷേ ത്ര
ന ല
ക ിയത
ാ  
കര ്യ
പിന്ന ീട
ിപ ത്യ
ുന്ന വര
 അധിക ാര
ന ാല
 അ ടുത്ത
ക്ക ാല
ബ ല
ിന് റ
 മു സ്ല
ക്കാര ിന
ക്ട ർ
 രണ്ട ് 
ഗ സ്ഥര
 ബ ാധ
സം ബന്ധ
ക് ല
മാണ ് ക
 മ െഡ
 പോ സ്റ്റ
 മ ോ
ിച്ച ിരിക്കുന്നത
 നില യില
ത ില
െ .

വ ഴ
ാക്ക ിയത
ര ായ
ശ്ര ീ
6 0
 സ ാമ്പത്തിക
 നിര വധ
റ ാ
് പ ോ
രാ ധ
പ്രതിക രണ
ശ്ശ േര
റ സ്റ്റ് 
സ ിന്
 ക ൂടുതൽ
ധിക ാര
 ത ന്റെ 
കൊ ച്ച
ിക്ക േണ്ട
ാത്ത ല
 ഉണ്ട ാക
 പ ്ല
ുമ ുണ്ട
ത ുപ
തിര ിച്ച
 എ റണാകുള
 ആരോപ ണ
ിയ ിട്ടുണ്ട
സ്ത ാവ
പ് യ
ോ ക്ക്
പ് രാ
രേന്ദ്ര  മോദ
 പോ ലീസ
പ്രതി പക്ഷ
 സ ാ
 മൂ ന്ന
 ഗ്ര ൂപ്പ
ത്ത ാന
ർ  
ുകയ ാണ് 
പ ടിയ
ി മാ
േ ഴ
ോ  എന്ന
വീ ട്ട
ൃ ശ്യ
ിപ്പ ിക്കാന
റ ിഞ്ഞ
 വി ട്ട
മ ിന
 ക രു
 വി ദേശ
ൊക്ക െ 
 ഉണ്ട ായിരുന്ന
 മ ഹ
 ജ നങ്ങള
ിട്ട ് 
ശ്ച ാത്തല
ംബ ര
ൃ ത്ത
ം ക ണ്ട
ക ൈ
ിത ാ
തുട ങ്ങിയ
 സമ്പ ർക്ക
2 9
െ റ്റ
ഖ ില
 ക മ്പന
ം ക ൂട
 കേരള ത്തില
തിന ി
 ലഭ ിച്ച
വി റ്റ
 നേര ത്തെ 
ി ഐ
്‍ -
ക്ട റ
െയ ിന
വാ ക
കു മാര
 പ റ്റ
 വ ാർ
 ത ാഴ
ഇ രു
 തെ രഞ്ഞെടുപ്പ
 യ ുവ
മ്മ ന
 സമയ ത്ത്
ആ ശുപത്ര
ന ാഥ
ു രു
ശ്ര ദ്ധ
മെ ന്റ് 
 ശ ര
ശക്ത മായ
ു തി 
സ ി 
ക് സി
െ ക ാണ
ിക്ക ുക.

 പരി ശോധ
െടു ത്ത്
ം നട ത്തിയ
െ  പ്ര
ായി  ക
പ്പെട െയുള്ള
േന്ദ്ര ന
രിക്ക ല
ിപ്പോർ ട്ട് 
വീ ട്ടില
 സംസ്ഥാന ത്ത്
ാ ഞ്ച
ച രണ
ഞ് ജ
 വീ ഡിയോ
 സ്ഥാന ാര
 എ ല്ല
ു  എന്ന
 പ േ
ത്തിന ുള്ള
 പ ുര
െയ ില
 പറഞ്ഞ ത
ി ന ല
ണ യ
യ ോ
ാ ത്
ൈ വ
3 5
ം ക ുറ
ഉ ള്ള
റ ിന
ോദ ര
 പുറ ത്ത്
ജി സ്റ്റ
 ത ീര
ിക ാര
 ര ക്ഷ
 ക ണക്ക
 ച ർച്ച
ക്ക ുമ
 മല യാള
 ആ ളുകള
ൂര ്യ
ണ ിയ
 കമ്മ ിറ്റ
വി വാഹ
 സം ശയ
 ഡ ി എ
ം പ േര
ി -
 ആ ശങ്ക
രി ത
ി ക്ഷ
ർ ജ
ൃത ദേഹ
മ്പ ള
 ജ ീവിത
റ ുകള
വ കുപ്പ
കള ുടെ 
ിക്കുന്ന വര
തീ ര
ിപ്പ ിക്കുന്നത
 പൊ തു
് പ റയ
ച ാര
ധ ീന
ം  മാത്ര
ില്ല െന്നാണ് 
 പ്രതി സന്ധ
ിത്ത ല
ീ ധര
ക്ക ാർ
ിയ ങ്ക
 അവ കാശ
ഇ ക്കാര്യ
 ഇ രു
കള ിൽ
ഞ്ച ാബ
സ ിന്റെ 
ന് മാര
ഭാഗ മായി 
ച ോദ്യ
യ ർന്ന
സ ൗ
ോ ക്
സ് തു
  .

1 00
യ ുള്ള
െ ന ിര
ച യ
െന്ന ിത്തല
ശ് വര
േക്ക ുള്ള
ഗ്രസ ിന്റെ 
െ കുറ ിച്ച് 
4 5
ിട ിച്ച
ാട ന
 ജില്ല യില
 ഉണ്ട ായ
ോ ഭ
 ഇ പ്പോള
 ഡ ി
ചെയ്യ ുന്ന
ത ന്റെ 
 വീ ത
് ക്ക്
 ഡ ോ
 ലീ ഗ
 പ കര
ാധ ിപത്യ
ക്ക െതിരെ 
ി മയ
് ക മ്മ
 തെ റ്റ
ശ ു
ഞ ാൻ
ജ ോല
  "
യു ഡിഎഫ
ദ യ
 സിന ിമ
ിക്കുകയ ാണ് 
ശ് വസ
തുട ർന്ന്
ഇ ത്തവണ
ണ ല
ിപ്പ ിക്കുന്ന
സ്വ ന്ത
രാ ട്ട
മല യാള
 കേസ ില
് ;
്‍ .
ിക്ക ൊണ്ട
 മാത്ര മാണ് 
ായ ി പ
്  വി
) 

ച േര
ാ ഗ്ര
ന ീ
ിന് ത
ുകള ാണ് 
ിച്ച ുള്ള
ങ്ങള ാണ് 
 ഇ തിന
വീ ണ്ട
ിട യില
േ റെ 
 വി ശദ
ഭ്യ ന്തര
പാത ക
 ആ ഗ്രഹ
സ്ഥ ാപ
ം ക ൊണ്ട
ത്  എന്ന
 പ ൂ
 അ തിന
ഓ രോ
 മുന്ന ില
ഷ ൻ
 സ ൈ
 അഭി പ്രായ
ക ടന
ൈന ിക
 അന ുമ
മ ോദ
ി  റ
ച്ച യ
 സ ഖ്യ
 വി വാദ
 രംഗ ത്ത
മു ക്ത
മി ഴ
ു ള
സംഘ ടന
സ്താവ ന
 ന ോക്ക
 മാ റ
 ദ ു
 പ്രസിഡ ന്റ
ങ്ങള െ 
ാവ ശ്യ
ോൺ ഗ്രസ് 
ഉ യര
അ ന്വേഷണ
ത്തിന ായി 
ത്ത ോടെ 
 എ ണ്ണ
ോ ,
ക്ക ട
 മ ൊ
മി ത്
പ കട
 വ രു
ി ന ട
കൊ വിഡ് 
  ,
ല ൈ
 കണ്ട െത്ത
 നടപട ികള
മായ ത
 ഇ ത്തവണ
ു റ്റ
ക്ക ാട് 
ം ഘ
ണമ െന്നാണ് 
 കൊ റോണ
ദ ായ
ടു ത്ത്
െടു പ്പ
 തുട ങ്ങ
ം ക ൊ
 യു ഡിഎഫ
ഇ വിട
ന മ്മ
 ക ാ
ുപ ോക
ഫ േസ്
ഷ ിക
സ്  പ
് ന ിര
തി ന ല
 ദ ിന
ഇ പ്പോള
ല ൈന
ോഹ ന
 എല്ലാ വര
എ ൻ
 മ െ
ോണ ിയ
 വ ാക
ിക്ക ുമെന്ന്
ത്ത നങ്ങള
ം പ രി
രാ മ
ം ന ില
ബ ുക്ക
 ത ാമസ
 വ ്യാ
ട്ട ുകള
ിക്ക ുക
ോട ൊപ്പ
 ബ ാല
ട െ
സഹ ായ
ു വിള
 ക േസ് 
പ രാ
മാ വ
 സ്വദേശ ി (
 എ ന്റെ 
ുമ ുള്ള
3 1
ം ന ിര
സഭാ  തിരഞ്ഞെടുപ്പ
 മേഖല യില
 അ മേരിക്ക
ിന ു
െടുത്ത ത
ിന് റെയ
പര മായ
സ്  ക
 വി വാഹ
ആ യ
ക്ക ാണ് 
ിക്ക പ്പെട്ട
ിക്ക റ്റ് 
 ട െ
ത ന്ന
ദ ി
ിക്ക ണമെന്ന
പ്ര സിഡ
  ദേശീയ
 അ വർ
 ചെയ്ത ിരുന്ന
കേരള ത്തില
  ൽ
ില്ല  എന്ന
ഹാര ാഷ്ട്ര
മ ിത
 ത ാന
 ച ൈന
തുപ ക്ഷ
ണ ം എന്ന
 പ്ര ശ്
ൂര ില
ം വ ്യക്തമാക്ക
ച ികിത്സ
ശ ര
െ 

തിനി ധ
ദ ിലീപ
ില്ല െങ്കില
 ഹ ര
അ ഭി
 ഒ റ്റ
 നട ക്കുന്ന
ാമ ്യ
ോ .
 ആ ക്രമണ
രണ്ട ് 
ര ുടെ 
 ന ാട്ട
വർ ണ
ബു ക്ക്
 ക ില
ിവ െച്ച
ികൾ ക്ക്
ഉപ യോഗ
ള വ
ഇത ിന്
 രാ വിലെ 
 ദിവസ ം 
വ ായ
മ േയ
മു സ്ല
ത രണ
ിന െ പ
മായ ിരിക്ക
മേ ശ
വ സ്ഥ
് ക േസ
ക ണ്ണൂര
ഗ ിക
ൊ ലീസ് 
ിക്ക െതിര
 എ ടുത്ത
റ ിന്റെ 
പ്ര ധാനമന്ത്ര
സ്റ്റ ില
ിച്ച ിട്ട
 ക ണ്ണൂര
ങ്ങള ിലെ 
ദ് ഘ
ം സ്ഥിര ീകരിച്ച
പ്ര ഖ്യാപ
 എന്ന ീ
ഡ ്ര
ക് സിന
 എ ൻ
ുര ന്ത
 എം എല
സ ർക്കാർ
വി ശ്വാസ
ി പ രി
 ശേഷ ം 
 ആ ന
 ഏ റ്റ
 ക ണ്ണ
 കുറ ഞ്ഞ
ഫ ്
 എ ഴ
 ആ ലപ്പുഴ
 ഇ പ്പോഴ
ഗ്ര സില
ായ ാല
 ആശുപത്ര ിയില
േ ബ
ത ുമ
ല ാല
 വി വിധ
രുത ര
ാ തിര
ക്ക ാട
ിയ ാഴ്ച
ബ ി ജെ പ
ഔ ദ്യ
ാവ ുന്ന
ക ാരണ
ഭ ാര്യ
 സ്ഥാപ ന
 സാധ്യത യുണ്ട
എ മാര
ഭ ാര
ാമ െന്ന
പ്പ ട
രള ീധര
ൽ ഹ
 ച ടങ്ങ
 പിന്ന ീട
മർ ശ
  ള
ഗ്ര ാമ
പ്പെടു ത്തിയത
 നട ക്ക
8 0
ുപ ോല
7 0
ഫ ്ര
 അപ കട
ക്ക ുള്ള
എ ന്ന്
ന്ന ി
സ് വര
മു ക്ക്
 പങ്ക െടുക്ക
പ്പ ിച്ച
ി പ ിണറായി വിജയ
 ഞ ാൻ
 പങ്ക ുവ
നട പട
ി  ഹ
േര ിട
േഷ നില
ംഗ ാള
രാജ്യ ത്ത്
ണ ായക
ശ ിവ
 വാ ങ്ങ
ി ;
 പ ാ
 സ ന്തോഷ
ിന െതിര
െയ ായിരുന്നു
വി ഭാഗ
ഇ റ
ൂ ത്ത്
െ ന ിയമ
ത്താവ ള
 ക ിട
പ്പ ാക്ക
 ആണ ് 
ം സ
 സ മ്മാന
േഖ ര
ാറ ില
ുണ്ട ാക
ുപ ോയ
ണ ു
ദ ഗ്
പ ു
ഭ ര
 രാ ത്ര
റ്റ ില
ി വ ന്ന
 സൗ കര്യ
ഴ ുവന
 ക െട്ട
 ഭ ാര
സ്ത്ര ീ
ൂ ച
ല ുകള
ം ത ന്നെ 
 നിയമ സഭ
ട ക
ട ്
 ന ായ
ം  ബാധ
 ലക്ഷ ം രൂപ
 പ്ര വ
മു ൻ
ന ത്ത
ന ത്തിന്
 നി ങ്ങള
ന്ദ ർ
മ ൊരു
 വി മര
ിക്കുന്നത ിന്
 അന ുകൂല
 വിദ്യാ ഭ്യാസ
വില യിരുത്ത
ഹ ിത
ി  രാജ
 ഏ ക
ധിക ൃത
ണ ര
യ റ്റ
സ്ര ായ
ക്ക ായി 
 വ ികസന
 തെള ിവ
ആ റ
ി മു
 വര ുന്ന
ഫ ോണ
ച്ച ത
 പ ട്ടിക
പ്പെട െ 
ട്ട ിഫ
 മ നുഷ്യ
 മല പ്പുറ
ദ ര
ം ത ന്ന
ൊഴിലാള ികള
മിത്  ഷ
ഹു ൽ
ശ ീല
പ െട്ട
വി ദേശ
ച്ച ു
 ദ ിലീപ
 വ ാദ
 പറഞ്ഞ ിരുന്ന
ജ ിസ
ഡ ല
 ഒഴ ിവാക്ക
ക ാ
െ പ ോ
 ഇ ക്കാര്യ
ത്ത്  നിന്ന്
ത്തെ  അ
തുട ങ്ങ
ആ ണ
ര ൂക്ഷ
വശ്യ പ്പെട്ട
ികള ായ
ശ് മ
ധാകര ന
ക െ
ന ുവദ
് '
വ ളര
നേ ഹ
ഘ ടന
ട ിച്ച
ി ങ്ങ
 ക ൃത്യ
ൂട്ട ിച്ച
ി  സ്വ
 സ മൂഹ
ട്ട ിപ്പ
കര മായ
ുവ ിന്റെ 
് ത ന്നെ 
ബി ഗ് ബ
െ പ രി
 വൈ ക
െ ന്റ
മാ ല
ാണ്  മ
 അ ധ
 പു രു
 ഇ ടുക്ക
 ക ീഴ
 സു പ്ര
 സീറ്റ ുകള
 തന്ന െയാണ് 
ഷ കര
ിൽ ക്ക
പര ്യ
പ്രതി ഷേധ
ാഗ്ര ത
മാ ധാന
ിറ ങ്ങ
െക്കുറ ിച്ച് 
 പ്ര ചാരണ
ം ക ാണ
ാ ങ്ക്
 എ ംപ
് ഡ
ിക യ
ഴ യ
വ ്യാ
 ന േട
 വകുപ്പ ് 
ച ൈന
ിക ൂട
സ്  അ
നേത ാക്കള
ാജ രാ
ി വ ്യക്തമാക്ക
ള യ
 ഓ രോ
ങ്ങന െയ
യ ുവ
 പ ാട
ി അ ധ്യക്ഷ
ാ വാ
ിക്ക െതിരെ 
് ക ൊ
ളി പ്പെടുത്ത
ു മാന
 റ ിപ്പോർട്ട
 ലക്ഷ ്യ
ി സ്ഥാന
ി  ഐ
ീകര ിച്ച് 
 ഹ ൈക്കോട
ഴ ിമ
ിന് ദു
ക ൃഷ്ണ
സ ാദ
് പ രി
ത്തിന ു
ൺ കുട്ട
 മ േ
 വീ ട്ട
ഹൃ ത്ത
ബ ായ
സ ുകള
ട്ട ി 
ം  ഗ
മര ിച്ച
ുണ്ട െന്ന
ബിജെപ ി 
 തോ ന്ന
3 6
േ റിയ
ം  ജ
ം അ റിയ
 ക ഴ
 എ നിക്ക്
 ഇ വിട
 തമ്മ ില
  ത്ത
സ ിൽ
സ ൂചന
മാ ത
ാന ാണ് 
വി ശദ
 ഒ പ്പ
ഗണ ന
മ ൊ
ല പാതക
 മറ്റ ൊരു
 വിവര ങ്ങള
 ചികിത്സ യില
ാണ് അ ദ്ദേഹ
 ധ ന
മ ്യ
ചെയ ്ത്
വേ ദ
 സ്ഥാപ നങ്ങള
അ ഞ്ച
 ഫ ോണ
 ചെയ്യ ുന്ന
േ വന
 അ മ്മ
േണ്ട ി വര
 ഇന്ത്യ ന
വെ ള്ള
  ന്ന
4 8
ല്ല ാത
െ സ ു
 ശ്ര ീ
ഡ ില
 പ ട
സ്ഥ ല
ക്ക ൊപ്പ
കൊ ല്ല
ഡ ോ
േ ർത്ത
വി ദ്യാ
വീ സ് 
 ബിജെപ ി 
പ ിഎ
്  റ
ലക്ഷ ്യ
ല മെന്റ
 ച ൂണ്ടിക്കാട്ട
ത്തില ാണ
 കൊ വിഡ
 അനു ഭവ
ിന ുള്ള
 സ ത്യ
പ്പ ന
ില്ല ,
 ഇതു വര
ഹ ായ
 ന െ
ുല ര
ത്ത േ
ത്ത ുന്ന
ം  ഒ
വ ുമായ
 ക രുത
ം എ ന്ന്
ം  റ
ങ്ക ില
 വ ിന
ക ണ്ണ
 സ ൂചന
 ച െല
 പ രാജയ
 ഏ ഴ
 വി ദ്യാര
 മന്ത്ര ാലയ
  ന്യൂ
ക രു
 ബ ൈ
് ന ടക്ക
ചെയ്യ ുന്നത
 സമ്മ േള
 വൈറ സ് 
ത്  കൊണ്ട
ത്ത െയ
 പ്ര ായ
ുവ െന്നാണ് 
ികള െ 
ഷ്യ ൽ
മ ണ്ഡല
വി മാന
മായ ിട്ട
 ജില്ല കളില
 പ ത
ആരോപ ണ
ാ ങ്ങ
േക്ക ാള
 സമ ിത
 ആ ക
 വി തരണ
ഞ്ഞെടു ക്ക
നേതൃത്വ ത്തില
 വ ന്നത
 കു ഞ്ഞ
നു വര
ിന െതിരെ 
 ഉദ്യ ോഗ
ോ പ്പ
ായ ിര
െ ക ൊ
 ജോല ി 
3 4
ഭ യ
ി ദ
െത്തിയ ിരുന്ന
 മാത്ര മേ
മർ ശന
ൃ ഷ
 ച ാണ്ട
പ്ര ത്യേക
ി ന രേന്ദ്ര മോദ
 അ ന്ത
പ്ര ശ
ഇ യാള
എ ന്റെ 
ാത ൊരു
ിലൂട െ 
ട യ
മ ിക
ക്ക ൗണ്ട
ിക്ക ാഴ്ച
 അ സ
കു റ്റ
 ഫ ്ര
ഏ ക
ഗ ള
റ ൽ
്യ ൂട്ട
രാ ത്ര
ി ക ൊ
ഭൂ മ
 വാർ ത്ത
 പര ീക്ഷ
േ റ
ിച്ചിരുന്ന ത
ോസ ഫ
 മീഡിയ യില
സ്രായ േല
വ ്യക്തമാക്ക
ത്തിയ ാക്ക
രംഗ ത്ത്
നില പാട
 തൃ ശൂര
ക ണ്ട
 ത ൊഴില
മ ണ
സ് തിക
പ്ര തിരോധ
ോട്ട ് പ
യ ർത്ത
വി ഷ
 പ്ര തിരോധ
നു സര
ട ി 
 സ ി പ
 ഇ ന്ന
 ഉ റ
സി സ്റ്റ
ം ന ി
കൊ റോണ
സ ാമ്പത്തിക
ിക്ക ാത്ത
 മ ി
 ആ ർ
ലീ സിന
ള ിയ
തീ വ
 പിന്ന ില
ച ോദ
 പ ൂർ
്യ മാക്ക
ായ ിട്ട
 നേര ിട്ട
 മ ുകളില
 അവ സ്ഥ
 കോ വിഡ
ണ മായ
ഭ േദ
അത േ
ീകര ിക്കാന
സ്വ കാര്യ
 സാധ ിച്ച
ഏ ഴ
മ് മാണ
മാത്ര മല്ല
ച്ച ില
തി ക്ക്
െ സ മീപ
3 8
മെഡ ിക്കല
അ ന്ന്
ബ ോധ
ങ് കര
ോള ജ
 വയ സ്സ
7 5
 എ ത്തിയത
സി ദ്ധ
 യ ൂണ
 ഭ ീഷണ
 ഗ്ര ാമ
 അധിക ൃത
െ പ്പ
െ സ ുര
3 2
ദ ീപ
ന ല്ല
േ വ
ടു ള്ള
 ബ ോധ
 സ ജീവ
 മു ഖ
ാ ഭ
 അ ടിസ്ഥാന
 ചെയ്ത ത
ക ൂട്ട
 മാത്ര മല്ല
ോട്ടയ ം 
ിയ ുമായ
ക്ഷ ്യ
 ശ ു
ാക്ക ുന്ന
ദ്ധ ിമു
 വേണ്ട ി 
േഷ്  ഗോപ
ന ീക്ക
ദേശ ിക
 പറയ ാന
 സംബന്ധ ിച്ച
വശ ്യമ
3 9
ൻ സ് 
ുമ്പ ോഴ
അ ടിസ്ഥാന
ക ക്ഷ
 ജീവ നക്കാര
മ ഹ
ക്ക ുറ
ില്ല 

േത ാക്കള
നാട്ട ില
ഇ ര
േ ,
പ്ര കാര
് ?

സ്റ്റ ഡ
 ഏ റെ 
ിയ ുമായി 
ുന്നത െന്ന
െ അ റിയ
ജ റാ
ഹമ്മദ ് 
 നിയന്ത്ര ണ
്യാ ൻ
 സൗ ദ
േ മ
െയ ് 
 വോട്ട ുകള
 ക ണ
ഗ്ര ൂപ്പ
വാസ ികള
ഗ് ദാന
 വ്യ ത്യ
യ ിട
ി  ഗ
ങ്ങന െയാണ് 
 വ ിരുദ്ധ
ാന ല
ില്ല ാത
 നേര ിട
ി  സ്ഥാന
തന്ത്ര ്യ
 ശ ാ
 ഇട പെട
 കുറ ിപ്പ
പ യോഗ
യ ായി 
ക്ക ില
 പ െട്ട
 മ ൂല
 മുന്ന റിയിപ്പ
പ്യ ൂട്ട
ബ ാല
െപ ിസി
എണ്ണ ം 
 പ ൗര
വിട ങ്ങളില
ഗോപ ാല
ഞ ങ്ങള
ിയ ോ
 സംബന്ധ ിച്ച് 
ോട ് പറഞ്ഞ
് ക ൂട
ഹ ത്യ
ത െങ്കില
ിച്ച ാണ് 
 മ ത്സ
 മ രിച്ച
വേ ശന
 പെ ണ
 രാശ ിക്കാര
ിയ ുള്ള
ീഷ ന
െ ബ്ര
 പു തു
ോ ചന
 എ സ
ി പ്ര ഖ്യാപ
ീ ർ
ിയ ോഗ
വാ ങ്ങ
ശ് വ
ക ണ
ടു വില
ുറ ത്ത്
ള ിവ
പ് ത
ുന്നത ാണ
 സ് പ
ജില്ല യിലെ 
ദ്ഘ ാടന
ി ഹ
 പ ത്ര
ിക്ക േണ്ടത
ോട െ ക
 വി ശ്വാസ
ൂല ൈ
സുര ക്ഷ
5 5
 പ ദവ
 ത ദ്ദേശ
ങ്ക ള
ം ഉ റപ്പ
പേര ില
ീസ ണ
അ മ്മ
ജ ് 
 സ്വ യ
ഇ പ്പോഴ
ൻ ,
 മന സ്സില
ത ോ
ച്ച കള
ംഗ ല
 സ്വ കാര്യ
ഗ ീയ
ത ാണ
പ റഞ്ഞ
സ മ്മ
 വ ായ
ക്യ ൂ
ീ ട്ട
 ഡ ്ര
സ് സ് 
ക്കുന്ന ത്
 ച േർ
 പോ രാട്ട
 കൊ ച്ച
സ്ഥിര ീകരിച്ച
3 7
ർ പ്പ
 ത ള്ള
അത ില
കല ാശ
 കുട്ട ികള
ജ ിന
ത ാണ് 
സ ൂ
െ രു
 ന ാള
ൂണ്ടിക്ക ാണ
 വാഹ ന
ഇത ിന് പിന്നാല
 ആയ ിരുന്ന
കോ വിഡ് 
റ ിൽ
 ഉ ട
ൂട െ 
ോമ സ് 
വി മര
സിന ിമ
 നൽക ിയ
ഹ ൈക്കോട
ന്ന ിരുന്ന
ം  രാശ
 വീ ട്ടില
 പു ന
 വേ ദ
4 9
യില ാണ് 
െ പ ോല
ക ോഴിക്കോട
് ന ൽക
 സ്ത്രീ കള
ൻ .

സഭാ  തിരഞ്ഞെടുപ്പില
ന െ 
സ ിയ
െബ്ര ുവര
 സ ാമൂഹ
 നട പടിയ
ോട്ട ് 
ബാധ ിത
ഇ ന്നല
ഏ റ്റ
ഒ റ്റ
ിക െ 
ം ഉ യര
ക്കാര ിന്
ഗ ണിക്ക
ന് ദേശ
 ക ർ
ം  (
 അ ടിയ
 ബ ്ല
എല്ലാ വര
 ക േ
മു ദായ
 കഴിയ ുന്ന
 ന ിക
 ച രിത്ര
 തമ്മ ിലുള്ള
 അദ്ദേഹ ത്തിന്റെ 
 പഞ്ചായ ത്ത്
 പ ട്ട
 സാധ ാരണ
 ഒഴ ിവ
ഘ ടക
 ക ടുത്ത
 സ ീറ്റ് 
പ്പെട്ട ിരുന്ന
 റ ഷ്യ
് സ ീറ്റ
ക്ക ൂട്ട
 ഭ ക്ഷണ
 കാല ാവസ്ഥ
ാഗ ത
ി  സര
 ന വ
ല്ല ുവിള
ാമ ത്തെ 
ബിജെപ ിയുടെ 
ോമ ീറ്റ
 മെഡ ിക്കല
4 7
ഗ ാന
നേത ാവ
ിന െയ
 എ ക
അത ിന്
 ബിജെപ ിയ
 രൂപ യ
യു എഇ
 സംസ്ഥാന ങ്ങളില
ിച്ചു വര
െടുക്ക ാന
  ണ
 സ ോഷ്യല
് ന ില
 വയ സ
മല്ല .

റ ുടെ 
വീ ഡിയോ
പ ത്ര
 ട ്
ംഗ ്ല
ാറ ുണ്ട
 ഭൂ രിപക്ഷ
ഗ റ്റ
ഗ ോഡ് 
മ ുറ
 ആ ത്മ
കലാശ ാല
മാര ുടെ 
േ ഴ്
ുണ്ട ാവ
തിന െ 
െ ത ന്നെ 
 തിരിച്ച ടിയ
ത ാല
 ത കര
െ ം
ഇ ന്ന
ി ശ
ദ് വീ
ം ആ ണ
നിര വധ
! !

്  ജ
ത്ത ിൻ്റ
 മ ുറ
 പ ക്ഷ
മ്പ ോള
 ഞ ങ്ങള
 അഭ ിന
ധ ാവ
 മുൻ പ
ന ിന്ന
സ ല
ം  ആരംഭ
 നി ക്ഷേപ
വ ാന
 ഇ ങ്ങന
വ ുമ
പ് ന
തിയ ായ
ഇത ിന്റെ 
 അദ്ദേഹ ം ക
പ്പറ േഷന
മ േഖല
 ത ീയ
ത്തിന്  ശേഷ
ദ്വീ പ
 സ ൈനിക
വാ വ
ഗ സ്റ്റ് 
പ റയ
 ന ോട്ട
 ആ ഭ്യന്തര
ാക്ക ുന്നത
 നില വില
ഇന്ത്യ ന
3 3
 ജ ാഗ്രത
ായി  അ
പ്പെടുത്ത ാന
സ ിക
 വെ ല്ലുവിള
 മ ടങ്ങ
 ചെയ്യ ാന
 പോക ുന്ന
ശ്ചാത്തല ത്തില
5 00
വ ട
 വ ല
ാണ്  ആ
സി സ
ം പ ിട
സഭ യില
 പ്രതിക രണ
 ഉ ന്നയ
ം ന േട
വാറ ന്റ
ൗ ൺ
ിട െയാണ് 
 ഭ യ
ിന െ ക
 ട ീമ
ത െന്ന
പ ൂർ
പ ിന്തുണ
മ കള
യ ുമായി 
യ ാൾ
ോ  എന്ന്
ില ്യ
ാര ാഷ്ട്ര
മേ ല
 മാധ്യമ ങ്ങള
റ മ്പ
സ ിപ്പ
 റ ിപ്പോർട്ട് 
വർ ഷ
ക്ക ുകയ
മാ ൻ
 അ ഡ
ഹ ാന
ി ഖ
രാജ്യ ത്തെ 
െ ക്രട്ട
 സ േന
ാഴ്ച ്ച
ി പ്ര വര
 വിധ േയ
സ്റ്റഡ ിയില
 ക യറ
 വ ഴിയ
് ക ോട
 ദ ില്ല
ടക്ക മുള്ള
ന ാള
ഹ സ
ൽ പ്പ
ാബ ു
 നമ്മ ുടെ 
 പ്ര ചര
ക്കുന്ന ുണ്ട
 സംഘ ട
അ മേരിക്ക
യ ന
ള ിച്ച
ി  ര
ി  ജയ
ട്ട ികള
ുകൾ ക്ക്
മാണ ് പ
 മുന്ന ണ
ഡ യറ
ക് രി
ട്ട ിയില
രാ ർ
ക്ഷ ന
മി ഷ
 ഇതു വരെ 
െ ള്ള
്വ ാന
വസ ായ
 യോഗ ്യത
െ ഡിയ
ി ന ില
 സീറ്റ ില
ശ്മ ീര
9 0
ഇ പ്പോൾ
ഉ ട
ജ ്യ
 സ ാമ്പ
പ്ര ില
സിറ്റ ീവ
ക ുന്നത
സംസ്ഥാന ത്തെ 
ുമായ ിരുന്ന
ഇതുവര െ 
ടു വ
 ഇ നിയ
ിത മായ
ിത ാവ
ിക്കുകയ ായിരുന്നു
ബി ഐ
ു ;
 ഡ ോള
ി അ റ
 തുട ക്ക
റ ിപ്പോർട്ട
േ ണ
 ഉണ്ട ാവ
 ഇറ ങ്ങ
4 6
പ ാർട്ട
വ ുമായി ബന്ധപ്പെട്ട
ം  ഈ
 ഫ േസ്
ാണ് ക ോണ
പരി ശോധന
ര ്യ
 റ ോഡ
 മണ്ഡല ത്തില
മ റ്റ് 
് ച െന്നിത്തല
  ക്ഷ
ൊ ട
ണ്ട ് 
മായി  അ
ോട്ട റ
ത്ത ുന്നത
ി  ഫ
ി  ശ
ിക്ക ണമെന്ന്
ി അ ംഗ
ി നേത ാക്കള
ി ളുകള
ണക്ക ിന്
ക ൻ
െ  ജ
 അ വിട
 നട ത്തിയത
 ന മ്പ
ിത ീഷ
ിങ ് 
ന ാ
 സ ഞ്ച
കു മാറ
് ത ന്ന
ശ്ച യ
സ മയ
ിന് യ
 ച െറിയ
 ഹ ാജരാ
ിസ ഭ
ക്ഷേ മ
 രംഗ ത്ത്
് )
ുക ാർ
 പ ോള
ഒഴ ിവാക്ക
ച ുമതല
 ക ോഴിക്കോട് 
ിട്ടുണ്ട െന്ന
ി ജ ോര
ട്ര ംപ
 രാജ്യ ങ്ങള
െ കുറ ിച്ച
ിയ ര
ം പ ുറത്ത
നു ഭവ
 ആയ ിരുന്നു
 പുറ മ
എ നിക്ക്
പ്പ ാട
ായ റ
മേശ ് ചെന്നിത്തല
ി ഡ
രു ന്ന്
ക്ഷ ിണ
 റ ണ
ത്തിന് റെയ
 പേര ാണ് 
െ ണ്ണ
ിച്ച ുകൊണ്ട
 സം ര
 അദ്ദേഹ ം 
ലോ ച
 ഒ ര
 മറ്റ ു
ോ വിഡ് 
 ആ ന്റ
ിമ റ
 മറുപ ട
ജിസ്റ്റ ര
ം ക ഴിഞ്ഞ
െ പ ിട
മാക്ക ിയ
 കേസ ുകള
റ ഷ്യ
ിയ േറ്റ
 ക് രി
 പല ര
മറ്റ ൊരു
സ മ്പ
ൂ രു
ോ .

 ദിവസ ങ്ങളില
സാധ ാരണ
ഗറ്റ ീവ
ം  പോല
ം  ശക്ത
 സെ ന്റ
 പൊ ലീസ
ി നേത ാവ
ഗ ോള
ല്ല ാത്ത
ം എന്ന ിവ
ജീവ നക്കാര
 സമ്പ ര
ബ രി
ടു പ്പ
േര ിട്ട
് ക ൊണ്ട
 ച െറ
ത്ത്  നിന്ന
ം നട ന്ന
ധ്യ പ്രദേശ
ആ ലപ്പുഴ
ഡ ുകള
മ ൃതദേഹ
ഇത േ
 പാല ക്കാട് 
തൃ ശൂര
 കട ന്ന
ജ ന്യ
 ത നിക്ക്
 എ ടുക്ക
 പ്ര കടന
തിക ൾ
,  മ
അ ംഗ
ഭ ിന
ട്ട ിക്ക
 ത ീവ
മാണ ിത
 ദ ൃശ്യ
ിച്ചു 

 സിപിഎ മ്മ
ഡ ൽഹ
ി ത്വ
ാമ െന്ന്
ണമ ൂല
ം ഉ ന്നയ
4 2
ന ാണ് 
ൂ ക്ക
 ത ുക
ം ക ഴ
 ഭൂ മ
ി )
 സ മാന
 സ്വദേശ ിനി (
ൈ റ്റ
 ഇ പ്പോൾ
ം അ വസാന
ട്ടിഫ ിക്കറ്റ
ി  യോഗ
 എ ന്ത്
 വില യിരുത്ത
 ശ്രമ ിച്ച
 നിർ ദ്ദേശ
 ഇ ൻ
തുട ക്ക
ബരി മല
ഭ ീഷണ
 ഇ യാള
 ഹ ോട്ട
 സെക്രട്ട റിയ
ക്സി ൻ
ശ േഖര
സൂചന .

ത ി ക
ഹ ൈ
 പ രിക്ക
 പറയുന്ന ത്
 ജന റല
കിയ ിരുന്ന
 സാഹചര്യ ത്തിൽ
േബ ്യ
ള ുപ്പ
 ക ത്ത
 ദ ുരന്ത
 കുറ വ
 വി ശ്വസ
ി  ഒ
 വ ച്ച
 ന േടിയ
 സുര േഷ
 ക ക്ഷ
 സ്ഥിര ീകരിച്ച
 ചോദ ിച്ച
 കില ോമീറ്റ
 ത സ്തിക
6 5
എ ഫ് 
എ ല്ല
എ റണാകുള
വ ന്ന
 ആ ഴ്ച
ക്ട ോബ
ല ര
ഷ ക
് തിര
ാല ോചന
 യു എഇ
19 9
ത ന
ുക  എന്ന
 വി പണ
കര ുടെ 
ി ന േട
തിന ാൽ
ം -
ാ സ്
 കു മാര
 ഗു ണ
ി സ്ത
മാ വധ
െ പ റഞ്ഞ
 പ്രസിഡ ന്റ് 
ത ദ്ദേശ
ശ ാല
്യ മായ
 ഡ െ
ന്യ ായ
തിരഞ്ഞെടുപ്പ ില
ന്ന ാണ് 
 എ ൽ
 രോഗ ം സ്ഥിരീകരിച്ച
  ദേവ
' ;
 വ ിര
ി ന ൽക
 ജന ാധിപത്യ
 കോൺ ഗ്രസ
 ക ോര
െയ ര
 ച െ
മായി  ക
ം പ ാല
പ ഞ്ചായ
രോഗ ം സ്ഥിര
ദ ൃശ്യ
രാ ൾ
മു തല
മു ളള
ഭാഗ ്യ
നിയ ന്ത്ര
  ഊ
പ ിട
 ഇ ന്റ
 പ്രതിക ര
യ ച്ച
 പ ിന
വർ ക്ക
 കുറ ിച്ച
ഗ് ഗ
തൃ ക
ി റ്റ് 
 ക നത്ത
ാസ ർ
 ഗു രുതര
ഭൂ രിപക്ഷ
ത ിക്ക
ബ ് 
ൊ ള്ള
ം ക ൈ
ലോ ക്
ത്തിലൂട െ 
ഓ ഫ് 
സ മര
ക്ര ിയ
 വ്യാ ജ
ന െ
ീ ണ
വി ഷയ
 കൈ മാറ
മ കന
ക് സ
ം വ ോട്ട
ഇന്ത്യ യില
വ്യാപ ന
ിര ിക്കുകയാണ് 
 വീ ണ
കുട്ട ികള
് ക്ക
 സ ൂച
 എ ത്ര
 ഉ ടന
 ശ മ്പള
 അടക്ക മുള്ള
ന ഷ്ട
യില ില
സ ണ
ു മാര
േ ശ
ി സ തീ
 രണ്ട ു
ാണ ിത
 അ ക്രമ
ങ്ങള ായി 
 ല ംഘ
ചെയ്യ ാന
 അധ്യക്ഷ ന
ഥ ികള
ബ ാദ
ീ ഫ
ി  മാറ്റ
 പ്ര തികള
ക്ട ്ര
പര ്യമ
കിയ ിട്ടുണ്ട
 സ്വാ ധീന
ി ള്ള
ർ ക്ക്
 സ ൃഷ്ട
ിഴ ക്ക
ആ ന
രാ വിലെ 
ത്തിന െതിരെ 
ർ മ്മ
ക്യ ൂട്ട
4 3
വ ികസന
 പ്ര ിയങ്ക
 സ്വ ീകരിച്ച
.. .
 പര സ്യ
 വിഷയ ത്തില
എൽ എ
െ കണ്ട െത്ത
ം  സംഭവ
ഹ ൗ
 വി ദഗ്
വാ ഴ്ച
 അഭി മുഖ
അ റ
 സ ോ
ഇ വിടെ 
ഡ ൗണ
ജി ത്
ഇ നിയ
പ ട്ടിക
 സ ന്ദര
മി ഴ്
 മോ ശ
 ഓ ണ
വ ള
വ ഹ
ീ ച്ച
ീ ഫ് 
 ത മിഴ
 ജ ാമ്യ
 ഒ രിക്കല
ാം 

കു ഞ്ഞ
 ഏ ര
 വെ റ
സ മ
ായ കന
 ബ ിരു
ാക്ക ാൻ
മുണ്ട ാക
ം ചെയ്യ ുന്ന
ജീവ ന
ഉള്ള ത
ൂ ത്ത
ിച്ച ിരിക്കുകയാണ
ോഗ ിക
 നടത്ത ുന്ന
  ക്ഷണ
ക മായ
 മ ദ്യ
 ച ിന്ത
 ഭ ാര്യ
ത്തിന െതിര
ക ൃത്യ
ിയ ായിരുന്ന
 എ ം എ
അതേസമയ ം ക
 വേ ഗ
 പ്രതിപക്ഷ  നേതാവ
ശാ സ്ത്ര
 മുതൽ  
ി അറ േബ്യ
സ ്ട്ര
തി ർന്ന
ം വ ന്ന
 തെള ിയ
തീവ ്ര
ഓ ണ
ജ ില
രോഗ ം ബാധ
അ തി
യ ുപ
ാണ െങ്കില
ിന ൊപ്പ
ിറ ക്ക
ദ ണ്ഡ
ു ണ
െ ര
 മ ീറ്റ
ോസ ഫ് 
 മന സില
സംബന്ധ ിച്ച് 
െ  ഉ
 ക െ 
ി ജ ന
ട വ
പ ൂ
ൊ വ്
ിയ ന
 പോ വ
 പുര ോഗ
 പ ത്തനംതിട്ട
 വ ഹ
ം  തിര
ായ ുള്ള
ുക ൂട
 പ്ര സ്താവന
ാണ് ഇ പ്പോള
ാണ് പ രി
മല പ്പുറ
യ ല
 പ ിഴ
 ക ഥ
,  അ
ി ത്
 സീറ്റ ുകളില
 വോട്ട ് 
സ ത്യ
ന്ന ൂര
 പ ാർ
പ്ര തികള
സ്ഥ ിത
 യു ദ്ധ
 ഇന്ത്യ ൻ
നമ്മ ുടെ 
ഫേസ് ബുക്ക്
ങ്കള ാഴ്ച
എ ംപ
ക ർക്ക
സ േന
 നി മിഷ
ഇട പെട
 അയ ച്ച
വാ ർ
 കോട തിയില
ം ച േര
ലക്ഷ ്യമ
 പദ്ധ തികള
ട ന്ന
മ ില്ല.

സ് കാര
 എറണാകുള ം 
അ ധ്യക്ഷ
ഡ ന
 സ ൂര്യ
ോട ് അ
 ഹ ൈ
 ബിജെപ ിക്ക്
 ക്യ ാമ്പ
 പ ി എ
 വ രുമാന
ി ക ഴിഞ്ഞ
വാ ക്സിന
ങ്ങളില േക്ക്
് കു മാര
ക മ്മ
മ ംഗല
വി വാദ
െന്ന ൈ
ില്ല ാതെ 
 നിന്ന്  
 ചെയ്ത ിട്ടുണ്ട
ട്ട്  ചെയ്ത
 സു ഹൃത്ത
4 4
 ബ ാങ്ക
 കണ്ട െത്തിയ
 യോഗ ത്തില
ന ത്തിൽ
 എ സ്
വാദ ിത്ത
ം മു തല
 സിന ിമയ
 തീവ ്ര
ഒ പ്പ
പ്ര ിയ
ിപ്പ ിച്ച് 
 പുറത്ത ു
 തുറ ന്ന
മര ിച്ചത
ുമായ ിരുന്നു
 ബി ഗ് ബ
ം  സംസ്ഥാന
ധ ാര
ഴ ുവ
ം  ല
 അ ഖില
ാണ്  എന്ന
 പ്ര കട
ദ് മ
ിവ ച്ച
 യ ാതൊരു
ുപ ട
 നിന്നുള്ള  
ഹുൽ  ഗാന്ധ
ദ്ധിമു ട്ട
മ ന്റ
 ആ ല
ുണ്ട െന്ന്
മാന േജ
േത ിക
 വയ നാട് 
 തല ത്തില
ന്നി ധ്യ
പ ാ
വര ാണ
 ജ ോര
ത്തിയ ിരുന്ന
ഡ് ജ
ബിഗ് ബ ോസ് 
ക ൃത
 പ്ര ാ
ുമ െല്ല
രാജ ന
ല ിൽ
 പ ീഡ
സ് പ്ര
പ്ര തിനിധ
തി ന ൽക
ഗ സ്ഥ
വ ിരുദ്ധ
് ബ
ം അ നുവദ
 ഓ ട
ട ഞ്ഞ
ി  - 
ായ ിക
രാ ഷ്ട്ര
േരള ത്തില
ോർ ട്ട
ം ആ യ
െന്ന ായിരുന്നു
പ്ര വ
 ല ൈ
െടു ക്കുന്ന
ാദ വ
 പദ്ധ തിയ
 സർ ക്കാര
 ഭാഗ ്യ
ആ ക
ാ ന്റെ 
 മുഖ്യമന്ത്ര ി പിണറായി വിജയ
ാങ്ക േതിക
ി ജ ില്ല
 വേ ള
 ഇന്ന്  
രളീധര ന
ത ാപ
ല ിന
സ മൂഹ
ച്ച ിന
 ച ന്ദ്ര
 ബ ജ
 ലഭ ിച്ചത
ം പ്ര ഖ്യാപ
ഡ െ
മ ികച്ച
ം  ഫ
 ഭ േദ
 ഏ ജന
ജ ു
 വ സ്തു
 ച ല
ല്ല ,
 വി ഷ
 സ്വ ീകര
കാര്യ ത്തില
ീ റ
 ച ുമതല
സൗ ദ
പ്പെട ുകയ
പോ ലീസ് 
ക ോൺ
ൊ തു
 ഉ ച്ച
വാക്ക ള
് നട ത്ത
ൂ ഢ
ം  ശ
േണ്ട ത്
ീ കാര
ാര ായ
 ബ ഹ
ാം ,
േണ്ട ി വന്ന
ാക ിസ്ത
കൊ വിഡ
 വേ ണ
 ലീ ഗ് 
തെ രഞ്ഞെടുപ്പ
  ക്ഷേത്ര
ൻ  പറഞ്ഞ
 മ ിന
ുന്നത ില
െ ന ില
 വൈ റല
 ഡി എ ഫ
 സ ന്ദേശ
 ബ ംഗാള
 ഇട തുപക്ഷ
 രാജ്യ ത്ത്
അതേ  സമയ
ാ ന്റ
തിയ െ സമീപ
ിസ ി ജോര
യ റിയ
 ക ാർ
െ ക ോണ
സ ോ
ൻ ഡ
വര ില
ി വി ട്ട
ഫ് ഗാന
ഭാഗ മായ
 കാര്യ ത്തില
സ് 

 നേത ാക്കൾ
 കാല യ
ൊവ് വാഴ്ച
ത ുറ
ിട്ട ില്ലെന്ന
ദേശ ം 
സ്റ്റ ര
ം നട ത്തിയത
 പ്രതിക രിച്ച
ല ്യ
 ക ള്ള
െ സ ഹായ
എന്നാൽ ,
 സാധ്യത യ
ശ്ച ിമ
 എന്നത ാണ് 
ജ ്ര
 പ്ര സംഗ
നി ങ്ങള
 കേസ ിൽ
ം ഉണ്ട ാക
ായറ ാഴ്ച
ായ ില്ല.

നില വിൽ
ഘ ാത
ാണ ോ
 ഉ യർന്ന
ക്കാര ന
ത്തിന ിട
 പഞ്ചായ ത്ത
വിദ്യാ ഭ്യാസ
ിൽ ക്കുന്ന
െ ത ന്ന
ശീല ന
ില േക്ക
ിന െ അ
േര ത്തെ 
ിവ ൈ
 കാര്യ ങ്ങൾ
 പെ ൺകുട്ട
ഇ വരുടെ 
സ ാഹചര്യ
ഹ ാസ
ി  ഷ
ാണ്  ന
ിന ോട് 
 പ്ര ചരണ
 വി മർശന
 എന്ന ായിരുന്നു
ജില്ല കളില
ംബ ാന
 ഘട്ട ത്തില
 പഠ ന
നുവര ി 
ഴുവ ൻ
' ,
) .

ച ാണ്ട
ത നിക്ക്
പ ദ്ധ
 ക േട്ട
 ന ന്ദ
ിച്ച േക്ക
െയ ിൽ
 മന്ത്ര ി പറഞ്ഞ
 വിമാന ത്താവള
ഫ ോട
ട്ട ിയുടെ 
ട്ട ിമറ
ോട െ പ
ാൻ  കഴിയ
 മുന്ന ോട്ട
ഗ ങ്ങള
ബ ർ
മ െന്നാണ് 
വ കാശ
് ന
 ജ ോ
ങ്ക ുവ
 ഇന്ത്യ യില
് ആ യ
എഫ ്
ക ോട്ടയ
ഗ ാന്ധ
 ജ ല
െ ന ി
 കൂട ി 
ലോ ക്ക്
i n
ഐ എ
ന പക്ഷ
യ ൂണ
െ ക ൊണ്ട
 പേര ുടെ 
സ്വാ ധീന
ച രിത്ര
ിക്ക ാത
 ഇ ല
 ബ െ
 നി ങ്ങളുടെ 
ഇന്ത്യ ൻ
 പിട ിച്ച
ചികിത്സ യില
ട ച്ച
ീ ണ്ട
ം  ചെയ
സ്റ്റ ിസ് 
 സൈ ന്യ
അ വസാന
ിയ െന്ന
 വ ള
 ഒരു മ
ം വ ാങ്ങ
 സ്വ ീകരിക്ക
തുട ർന്ന
ുമായ ുള്ള
 ട്ര െയിന
  ക്രമ
അ വരുടെ 
 അ ന്വേഷ
 സുരക്ഷ ാ
െ പോ ലീസ് 
 ബ ാന
ുവ ൈ
സ്ഥാന ാർത്ഥ
ൂർ ,
ബി സിന
പിന്നീട ് 
ഏ റെ 
പ്പ ണ
 വൈ ദ്യ
ത ുവ
ള വില
ത്ത ി 
ങ്ങ ാട
കു മാർ
പ്പെടുത്ത ുന്ന
4 1
ക ൂടുതല
പ ോല
ോ ന്ന
 ഉ ന്നത
 ധ ാരണ
 മറുപ ടിയ
അ പകട
 കെട്ട ിട
ം  പറയുന്ന
ഗ ാര
ു :
ത്ത ിക്ക
 പ ള്ള
 പ ൈല
 അ ന്ന്
 എ ട്ട
ാല ിറ്റ
ുമ ുട്ട
ം പ ൂര
 അഞ്ച ് 
മെഡ ിക്കൽ
5 6
5 7
 അ ക
 ല ോക്
 നില യിൽ
5 8
ഹ സ്യ
ുന്നതിന ായി 
ൂപ്പ ര
ന ിന്ന്
ിയ െ പ
 സ ീസണ
ഞ്ച ിന
 പരി ഹാര
ച്ഛ ന
 പ ഞ്ചാബ
 സ മി
ല്ല പ്പള്ള
് ക ാല
ത്തെ  തുടര
യ ഥ
 ജില്ല യിലെ 
 അധ ്യാപ
പ ത
ഫ ്റ്റ
ബ ൈല
ശ ിച്ച
്  ഉ
ത്ത ല
ിക്ക ുമെന്നാണ് 
 ശ ിക്ഷ
 പരി ഗണ
കഴിഞ്ഞ  
ആ ക്രമണ
എ ച്ച
സ ഖ്യ
ല്ല െന്ന
ി ക ൂട
മാക്ക ാന
പൊ തു
ഇരു വര
ശ േര
ാ പ്റ്റ
േത ാവ
 അത ിന്റെ 
ുകയാണ െന്ന
 ട്ര ംപ
 തട യ
ം ക
ത്ത കള
 ഇ ന്നല
ത ായ
ി സ്റ്റ് 
ില െത്ത
ിച്ച ാൽ
ാര ോഗ്യ
രു വ
 ഇ ഷ്ട
ി പ ാര
 ഇന്ത്യ യുടെ 
 വ്യ ക്തി
 യാത്ര ക്കാര
  ഘടക
അ റിയ
എ പ
ഡ ിന
ോ  ഗ
 ന മുക്ക്
ിക യാണ
 ഡ ോസ് 
ി സ ു
യു ഡിഎഫ് 
പ്രതി സന്ധ
 ഭരണ കൂട
 അദ്ദേഹം ക ൂട്ടിച്ച
 സാമ്പ ിളുകള
ക്ക െട്ട
ൻ ഡ് 
ത്ത ോട് 
 ത ങ്ങളുടെ 
 വര ുന്നത
 നിയമ ന
ൂറ ോ
ം മ ുന്ന
രുത െന്ന
സഹ ോദര
അ റസ്റ്റ് 
ദ രാ
സ മ്പര
 കുറ ച്ച
 അത ിന്
ദു ബായ
 രീ തിയിൽ
ക ണക്ക
ുന്ന ു
 ഒ ക്ക
ിവ ില
പ്പെട ാന
ിയ ാല
്യ ൂണ
ിക്ക ാർ
ായ ത്
ി പ േര
ി ക ൊണ്ട
മേ ധാവ
 തിരഞ്ഞെടുപ്പ ിൽ
 സഹ ോദര
റെയ ില
ഉദ്യ ോഗ
ഫേസ് ബുക്ക
അ ര
ം ക ോട
 സ്ഥിര ീകരിച്ചത
 വീട ുകളില
അ പേക്ഷ
ഓ ര
പ ുല
ീ ദ
ാക്ക ര
 സ്വ തന്ത്ര
രണ്ട ു
 മണ്ഡല ങ്ങളില
 കൂട്ട ിച്ച
 വിദ്യാ ർത്ഥ
പ്രസിഡ ന്റ
ട ിവ
ഷ ണ
ിയ ായിരുന്നു
 മ ോഹന
 നിര ോധ
 പരി ധ
 ബിജെപ ിയുടെ 
 ധ ര
 വാ ഗ്ദാന
യ ോട
റ ോഡ
ച്ച യായ
ികള ിൽ
െ ക േസ
സ്റ്റ ിറ്റ
 വന്ന ിരുന്ന
 പദ്ധ തി 
 പ്രഖ്യാപ ിച്ച
  ക്ക
 ത ന
യ് ക്കുന്ന
 സ്ഥാന ത്ത
വിത രണ
 നിർ ദേശ
ത ോടെ 
് ക ോണ
ാര്യ ങ്ങള
വീ ണ
ിനെ  തുടര
സിപിഎ മ്മ
മ ൈ
ൊ ടുക്ക
ോ വിഡ
ടു ക്കുന്ന
 ആ ശയ
ുമ ില്ല.

ി ന ി
ിത ാക്കള
 ഒരു പാട
ുന്നതിന ുള്ള
 ആരോപ ിച്ച
എം എല
  ത്ര
ൽ ക്ക
ുവ ന്നത
ാവ ധ
സം ഖ്യ
ുപ േര
 തര ത്തില
 അ ക്കൗണ്ട
ല്ല േ
 രാ ഷ്ട്ര
ം മു മ്പ
േ ഗ
 സ ൂക്ഷ
ിന് ധ്യ
സ് പര
 ആ ഘോഷ
വാഹ ന
 നമ്മ ള
 പേ ർക്ക
സ് പെ
ല്ല െങ്കില
ാത െ പ
 യു ഡിഎഫ് 
 കേസ ിലെ 
മെന്റ ് സ
ക്കാല ിക
ഒ രാള
ിന ാണ് 
 രാജ്യ ങ്ങളില
 കാല ത്ത്
കെ  മാണ
 അനു സര
ാരായ ണ
ഡ ിജ
ൂ ൺ
ൊ ള
 സ ഭ
 ത ൊഴിലാളികള
വി ദ്യാര
ത്തില െത്ത
ബന്ധ പ്പെട്ട
ി പ്ര വർത്ത
 കൊണ്ട ുവര
പരി ധ
ി നേത ൃത്വ
ന ോട്ട
ിയ ാക
ി  ഒരു
 ത ങ്ങള
ിക്കാന ാണ് 
ി ക ുറ
 ഓ ഫ
യോഗ ്യത
െക്കുറ ിച്ച
ഈ  സാഹചര്യത്തില
ക്ക ല
 വ ിക
 ത ന്ത്ര
ങ്ക ാന
ുവ ിന്
 കൊ ടുത്ത
ഭി പ്രായ
 ആവശ്യ മായ
കൂട ാതെ 
ം സ്വദേശ ി (
ന ഗര
് ...

മ്പ ല
 കേന്ദ്ര  സര
ിറ ങ്ങിയ
എസ് പ
അ വിട
 ഒ ട്ട
ോഗ ്യമന്ത്ര
യ്ക്ക ാന
 രോഗ മുക്ത
 എന്നി വിടങ്ങളില
 നിരീക്ഷണ ത്തില
 അധികൃത ര
ല ിക്ക
വ ന്
ക്ക ിടയില
ാവ കാശ
യു ധ
ിവസ േന
ം ചെയ്യ ാന
തിനെ  തുടര
6 8
ം  മാറ്റ
 കു ഴ
 ഓ ര
 അദ്ദേഹ ം വ്യക്തമാക്ക
 വ്യക്തമാക്ക ുന്ന
ബ്ര ാഞ്ച
ആരോപ ിച്ച
സാ ക്ഷ
പ ന
റ ായ
 പ ന്ത
ുക േഷ
ോയ െന്ന
ുകൊണ്ട ് 
ുന ിന്ന
ത കള
ത്ത ക
 സ ോണിയ
 അ കല
 ചിത്ര ങ്ങള
 സി പ ി എ
െപിസി സ
5 9
ട ങ്ങിയ
ോ ക്ത
ത്ത ോടെയാണ് 
 ക ോട്ടയ
വാ സം
 മന്ത്ര ിമാര
ി സ്വദേശ ി (
ഇ ത്രയ
െ ന്ത
 പ ്പ
 മ മത
െ ക ൂട
ണമ െങ്കില
ോസ്  കെ മാണ
 മാന േജ
 മലപ്പുറ ം 
ഡ ര
െയ ോ
 വി സ
് പ ോല
ാധ ്യത
 തിരിച്ച ട
 കൊല്ല ം 
 പേർ ക്ക്
ുന്നത െന്ന്
ഞ്ച ് 
 ഒരു ക്ക
ി അ റിയിച്ച
ഗു ണ
അ ധികാര
ിയ േര
 ക ാറ്റ
 ക ോഴിക്കോട
 വ ാക്ക
ം  തുടര
ം ക ിട്ട
േത ൃത്വ
വേ ള
 ഞ െട്ട
 പരാ മര
 വ്യാപ ാര
 പങ്കുവ െച്ച
ൂലൈ  
,  സ
ഴ ുത
ൃ പ്
 സ മുദായ
ായ ി
 മ ഹാരാഷ്ട്ര
ുപ ിട
 വെ ളിപ്പെടുത്ത
ി വി ഭാഗ
യ്യ ില
അഭി പ്രായ
എ ത്ത
എ ം 
 മ േല
 ശ ിവ
വീ സ
് വ ്യക്തമാക്ക
 സ്ഥാന ാർത്ഥ
 ജീവ ന
ജ ൻസ
പ റ
ഭ ക്ഷണ
ത്ത ർ
 യ ുപ
ൗര വ
കോട തി 
ഐ സ
ജ ാത
 ത രംഗ
 ല ോക്ക്
ലീ ല
നട ത്ത
വ് വേ
െക്രട്ട റ
5 2
ജ ല
ു തു
െ ഹ
 അ ഴിമ
ം ഇ ന്ത്യ
 പെ രു
പ ത്തനംതിട്ട
വ ട്ട
ുന്ന ില്ല.

 ല െ 
 ചെയ ്ത്
ോറ ിറ്റ
ഒഴ ിവ
 പുരു ഷന
 വകുപ്പ്  മന്ത്ര
െബ്രുവര ി 
ത ള്ള
ത െന്ന്
ിയ ്ക്ക്
 പ്ര മേയ
 സ്ഥ ിത
ി വ ൈ
നി ങ്ങളുടെ 
കഴിഞ്ഞ  ദിവസ
 മാസ ം 
ത്  എന്ന്
ക്ക ാക്കര
 പ്ര വേശന
 ച ൂണ്ടിക്കാണ
െ പ റയ
 കൊ ടുക്ക
ം നട ന്നത
ാ ക്ക്
 വി ട
മുഖ്യമന്ത്ര ിയുടെ 
ബ് ദു
 ഇല്ല ാത
വര ണ
 ആ രാധ
ിവ െക്ക
 അത ില
ജിസ ്ട്ര
്‍ ;
ക്ക ണ
 ക ൃഷ്ണ
ാണ്  ത
 ത ട്ടിപ്പ
ങ്ങള ായ
 നട പ്പാക്ക
േയ ുള്ള
 പ്രശ് ന
ഭ ോക്ത
ല െ 
വ ൻ
ി ത്യ
 പ്ര മുഖ
രാ റ
 പോ ര
 ഗ ത
 കുറ യ
ാനുള്ള  ശ്രമ
മിത് ഷ ാ
3 00
ഡ ിറ്റ
 പ ത്ത്
ും ;
 അ ത്തര
ക്ഷ ോഭ
 ഉ മ്മന
ന്ദ ിര
ദ്ധ ര
മുണ്ട ായിരുന്ന
ഠ ന
ൂ മ
 സ േവന
ിക്ക ുമ്പോള
െ അ റസ്റ്റ് 
 സ്വദേശ ിന
അ ന്ത
െ ൽ
്. .

സൈ റ്റ
മ ൃ
 സ ജ്ജ
വേ ണു
ഹൃ ദ
ം ഏ റ്റ
 ഉദ്യോഗ സ്ഥ
ഞ െട്ട
ന ാണ
ബ ീ
ൂ വ
് "
 മ ൊഴ
ോസ ിയ
 വന ിത
േ ശ്വര
ുമ ോ
ീവ ് 
 ഓ ഫ് 
 പങ്ക ാള
 വന ിതാ
ക ോൺഗ്രസ് 
 ജ ൂണ
ോള േജ
ം ആ വശ്യപ്പെട്ട
ശുപത്ര ിയില
ൊഴ ിൽ
 നടപട ികൾ
നേതൃത്വ ത്തിലുള്ള
 അട ച്ച
ുന്ന ണ
്യ മാക
 സ ുന
അത ിന്റെ 
് അ ല
 ബി സിന
എ ക
വ കലാശാല
ഷ ോ
 ക ാത്ത
ിന െ ന
ോട െ അ
 കൊ ലപാതക
 സമ്പർക്ക ം

ച ർച്ച
ർ ട്ട
 അ ന്തര
ജില്ല യിൽ
 സംഭവ ത്തില
ോട്ട് പ ോക
നുസര ിച്ച് 
എ .
ീ ൻ
വാ ട
ിട യിൽ
ചെയ ര
ധന ാഴ്ച
 ഉള്ള ത
 വളര െ 
ി അധ്യക്ഷ ന
 മത്സ ്യ
ഴ ാഴ്ച
ി വാള
ോ ടുള്ള
 ക ാട്ട
ിച്ചത െന്ന
 റ ി
വീ ന
ദി ത്യ
ൂഢ ാലോചന
  റിയ
6 9
w w
മ ഹാരാഷ്ട്ര
 ക ാഴ്ച
ില്ല  എന്ന്
ാക്ക ി 
ാമ റ
ആവശ്യ പ്പെട്ട
ജ ോ
ത് 

ത്ത ൂര
ുട േത
എന്ന ിവ
സം വിധാന
ി ആ യ
 തര ത്തിലുള്ള
 അ തിര
ിവ ാര
ഔദ്യ ോഗിക
അ ത്തര
റ ിന്
ന് മ
 റ െക്ക
 ഭ ാവ
 ശേഷ മാണ് 
 ശതമാന ം പേര
 സിപ ിഐ
സ്ത്രീ കള
ാകിസ്ത ാന
ത്ത ുള്ള
ിയ ുടെയ
മ് മു
 ഇ വിടെ 
യു മായ
ക്യ ാമ്പ
രുത െന്ന്
കൾ ക്ക്
ഭ്യ ര
ഗ ോ
ത ിന്
ന ടക്ക
 പ ുല
ാവ ില്ല.

െ പ ുറത്ത
ീകര ിക്കുന്ന
െ ന ിന്ന
 അനുവദ ിക്ക
 ഡി സം
ഡ ് ക
സ മീപ
 ക ർഷ
മ്പ ോൾ
മ്മ ൂട്ട
ോട്ട ോ
െ എ സ് 
 സുര േഷ് ഗോപ
 കുട ു
 നാല ് 
ോവ ിന്ദ
ഓ ട
ശ തമാന
ു വാ
െ ട
പ്ര മുഖ
ിക്കുന്നത െന്ന
 അവ തര
ികൾ ക്ക
െ ആ ക്രമ
ഗ് ന
 നടപട ി സ്വ
 മുമ്പ ് 
ശ ബ്ദ
ാന ാക
സം ശയ
ക്ര ൈ
 റ ോബ
വർ ണ്ണ
പ്പെടു വ
ഫ ോഴ
ുകള ിലെ 
സ്റ്റ േഷന
രാജ സ്ഥാന
 ഗ വര
ോഹ ൻ
 അറ സ്റ്റില
 രേഖ കള
സൂ ത്ര
അ ല
ആ കെ 
ആ ത്മ
ച ല
ാ സര
 വ ക
 ആശുപത്ര ികളില
 കള ക്ടര
ക ീയ
മ ണിക്ക
ിക്ക ൊപ്പ
 ആ കെ 
ുമ ോ എന്ന
ന്ധ ന
ഞ്ച േര
 ഇത ില
എ തിര
ന ൽക
ും .
ിപ്പ ിക്കാൻ
 ക് വാറന്റ
് കു മാറ
ൊ ന്ന്
 സ ിറ്റ
ത്തില ധിക
ി ന ിയമ
ുകൾ .

 സംസ്ഥാന ങ്ങള
ാണ് ഇ വര
നട ത്തിയ
തിരുവനന്തപുര ം 
ി ഉ ണ്ട
അ ങ്ങന
 പ ിന്
ി  ൽ
ാണ ുള്ളത
ിച്ച െങ്കില
 പ്ര ത്യ
പ്ര ചാരണ
 മാ ല
നില വിലെ 
 യു വാവ
ഇന്ത്യ യുടെ 
 മേഖല കളില
അദ്ദേഹ ത്തിന്റെ 
ില്യ ണ
ശ്ച ിത
എസ് എസ് 
ഗു ജറാ
ഭാവ ന
 നിയന്ത്ര ണങ്ങള
മ ൊഴ
ച്ച വട
 പ്ര തിയ
 ആ ക്രമ
 ച േ
െ പ ിന്തുണ
ം അ റിയിച്ച
ം ച െല
േണ്ടത ുണ്ട
 പരാ തി നല
 പുറ മേ
ം ലഭ ിക്ക
സാധ ്യത
ത്സ വ
ആശുപത്ര ിയില
 പ്രവ ച
6 7
ത യ്യാറ
ിപ്പ ോയ
ുവ ാന
 അവ ധ
 കൂട ിക്കാഴ്ച
 മുഖ്യമന്ത്ര ിയുടെ 
െ ആ ണ
 പ്രദേശ ങ്ങളില
 സ്വാ തന്ത്ര്യ
 സാ ക്ഷ
ത ിക്കാര
യില ുള്ള
സി ദ്ദ
 കൂട ിയ
കൂട ാത
ഭാവ ിക
്തിര ിക്കുന്നത
 ത ൊഴിലാള
 നട പ്പില
ാപ ുര
സഭാ  തെരഞ്ഞെടുപ്പ
ശാ ന്ത
ഞ്ജ ു
് പറയ ുന്ന
ാ  യ
്ര ാ
 ത ൊട്ട
ത്തിൽ  
ി ക ുട
ാണ് പ ോ
 അഭി ഭാഷ
അ വർ
ഖ ണ്ഡ
സ ൂര്യ
ി  ച്ച
 സ മാധാന
ിച്ച ിട്ടില്ല.

 മ ണ്ണ
ി ക േന്ദ്ര
ം വ ്യക്ത
.. ..

ാണ് പ ുതിയ
 കാര ്യമ
യ ോര
 പ തിന
പ്ര ശ്
ുകളില േക്ക്
ലഭ ിക്ക
 മുന്ന േറ്റ
 വാ ക്സിന
 സംഘടന കള
ിബ ാന
 മെഡ ിക്കൽ
  ണ്ട
ൊ ല്ല
ായ ു
 ആ വശ്യമ
 തിര ുവ
 നിര ക്ക
കൊ ലപാതക
സ്ത ക
ബു ദ
 അറ ിഞ്ഞ
എ ങ്കില
വ ്യക്ത
േ ന്ത്യ
ക്ക ുകയാണ
െ  ഇ
ത്ത കന
 ശ രിയ
് പ ാര
ാധ ികാര
ശ് വാസം
ം എല
അ നു
ഹ രിക്ക
ാർ ഥ
 ഡ ിജ
ി എ സ് 
ക്ഷണ ങ്ങള
മുഖ്യമന്ത്ര ി പിണറായി വിജയ
 പെ ട്ര
ക്ക ുട
ക്ക്  വേണ്ട
ത്തിൽ  നിന്ന്
് ന ിയമ
 കൊണ്ട ് 
 വ്യ വസായ
 ഓഫീ സര
ഷ്യൽ  മീഡിയ
ദ ാര
ശ ിക്ഷ
യില ാണ
ം വ ൈ
19 8
 രാജ്യ ത്തെ 
  ഭാഷ
ന ിക
പ ോര
 ക ൗണ
ിര ിക്കുകയ
 ട ിക്കറ്റ
 ദിവസ വ
 പോക ുന്നത
 ചില ര
ൂത്ത്  കോണ
  ങ്ങ
ട ീമ
സ ാമൂഹ
ിയ ോട
 സ ല
 സം വിധ
ം ന േടിയ
യിൽ  നിന്ന
 തന്ന െ ക
 സുര േന്ദ്രന
15 0
സംബന്ധ ിച്ച
െ സുര േന്ദ്രന
5 1
 ലഭ ിക്കുന്ന
ൻ്റ െ 
ചന്ദ്ര ന
ാ  ണ
ജോല ി 
ർ ,
ക്ക േസ
 വ ധ
സി ക്യൂ
ക്ര ൈന
 ഭ ര
 ഏ ത്
ോർ ജ
ീര ിയ
ാണ് ഇ ന്ത്യ
കാല ത്ത്
മാധ്യമ ങ്ങള
ഓ ഫ
ി ഗ
ി ൾ
ക്ക ാൻ
 ക റ
 ഡ ൗണ
 വൈ സ് 
 നടത്തിയ ിരുന്ന
 എന്നിവ യ
ഉ റ
ര ീക്ഷ
 പ ാത
 ക ടക്ക
 ഇ സ്രായേല
ില്ല ായിരുന്ന
 ട ൂറ
സിന േഷന
നിര ീക്ഷണ
സംഘ ട
ധന വ
 പ്രധാനമന്ത്ര ി നരേന്ദ്ര മോദ
 കൃത്യ മായ
ക ോപ
ശ ശ
ൊ രാള
 മാ ർ
റ്റ്  ചെയ്ത
ം എ ന്ത
കോ വിഡ
വൈ റ
 ഫേസ് ബുക്ക
ഏ ത്
ഷ ത്തില
 ഒ ന്ന്
ാക്ക ുകയ
മു ഖ്യ
ിട ുന്നത
ഗ്രസ്  നേതാക്കള
ജന ാധിപത്യ
 ഐ ക്യ
 സൗ ജന്യ
ബ ി 
റ ി 
േ .

ർ മ
ം  തുടങ്ങിയ
് ക ണ്ട
 ഒരു ങ്ങ
ി ത ന്ന
 വ്യക്തമാക്ക ുന്നത
 പോയ ത
ദരാ ബാദ
ച െറ
 മ കന
ഞ്ഞെടു ത്ത
നു മായ
ിറ്റ ല
ഗു രുതര
 വ്യത്യ സ്ത
 സാമൂഹ ിക
7 7
അ ട
ി  പറയുന്ന
 ത ാൻ
 കൊ ല
പര മായി 
മുണ്ട ായ
ഓഫീ സ
 പിന്നീട ് 
,  ആലപ്പുഴ
പ ുറത്ത
 സ ന്ദർ
ം  ഹ
ിച്ച്  വര
 പൊ ല
ി ത ര
ം മ റ
 ഇത േ
ിച്ച് ക ൊണ്ട
ോ  
ൽ  എ
 യ ഥ
 തന്ന െയ
് ആ ണ
അതിന ാല
 ഇല്ല ാത്ത
മുന്ന ണ
പു തു
ം  പറയ
ഇ ടുക്ക
ഗ ്ല
േ ൽ
ത്ത ിക്കുന്ന
ത്ത േക്ക
 ഇ വർ
 റ െ
 സുരക്ഷ ിത
ശര ീര
 ഹൈക്കോട തി 
ഐ .
ഡ ിപ
പ മാന
ബ ിഎ
വ ിയ
ിയ െ അ
 ക ല്ല
 ച ുമ
 സം രക്ഷ
 എന്ന ത്
 ഞ ങ്ങൾ
പ്പെടുത്തിയ ിരുന്ന
ുമായി ബന്ധപ്പെട്ട ് 
മാ ർക്ക
ായ ാണ് 
പ്ര ിയങ്ക
 ശ ശ
മ്പ ത്
ം ക േന്ദ്ര
ം ന ഷ്ട
 മാത്ര മാണ
 മുന്ന ിൽ
ഷ് ഠ
ം വി ള
 വ്യക്ത മായ
അതുകൊണ്ട ് തന്നെ 
 നാട്ട ുകാര
ട ിസ
 എ .
് ക ഴിഞ്ഞ
സി ങ
ലഭ ിച്ചത
െ സു ധാകരന
  രു
ക ോഴിക്കോട് 
ദ ർ
ക്ക ണക്കിന്
 ഇ ളവ
യില ൂട
 മാ റിയ
 റ ദ്ദ
 ഗ ണ
 പ്രതി ഫല
േറ്റ ര
 നേട്ട ങ്ങള
 തിരുവനന്തപുര ം 
 കിട്ട ിയ
കണ്ണ ൂർ
ഭാ  ഗ
 പേര ില
െ മ റ്റ
ി എന്ന ിവര
മറ്റ ു
ജ്ര ിവാള
ഞ ങ്ങൾ
ശ മ്പള
ർ ദ്ദ
 ന ാട
ലീ ഗ
 അദ്ദേഹ ത്തിന്
 സംസ്ഥാന  സര
ിന് പിന്നാല െ 
ു ഡ
 മ േയ
മു ദ്ര
 പോ സ്റ്റ് 
 നിയമ സഭാ തിരഞ്ഞെടുപ്പ
 വിജയ ിച്ച
കൃഷ്ണ ന
 ഗത ാഗത
ധ ്യാപ
മ സ
േ ലിയ
പ്പ ര
ിപ്പ ിച്ചിരുന്ന
് ക േന്ദ്ര
ിഞ്ഞ ാറ
 ഡ ല
വരുടെ  എണ്ണം 
ന്യൂ ഡല
e r
ക ോട്ട
ിയ ാന
 അ ന്ന
 ബ ല
സം ര
ിറ ക്കിയ
 ഗ്ര ഹ
ബ് ബ
രേഖ പ്പെടുത്ത
േ ഡ
്  (
ത്ത ാല
ം  ഡ
ുവ ിന
ം ചെയ്ത ത
 പ്രവർത്ത ന
ഹു മാന
 മണിക്കൂറ ിന
മറ ുപട
  ദേ
പ തി 
മ ില്ലാത്ത
റ ി
വ ി 
്  ഫ
 പ ക്ഷേ
 ല ാഭ
് അ റിയിച്ച
ശന ിയാഴ്ച
ിറ ോസ് 
 കേരള ത്തിൽ
 പോല െ 
 ഇല്ല .

ധികൃത ര
9 9
ദ ുരന്ത
ി തി
 എ വിട
തിര ുവ
് ത വണ
 ബിരു ദ
പ ത്
ുവ െങ്കില
ന്ദ ന
യിൽ  നിന്ന്
ശ്ര യ
പേര ിൽ
പ്പെടുത്തിയ ിട്ടുണ്ട
സംഭവ ത്തില
ഓഫീ സര
ി  സംസ്ഥാന
 ക മല
 ആ ശ
ത്തിന ിടെ 
രാജ്യ ങ്ങള
 വിദ്യാ ർ
ഖ ാന
് /
് പ ുറത്ത
ം ക േരള
കഴിഞ്ഞ  ദിവസം
 തന്ന െ അ
ജി ത്ത്
ഉണ്ട ായ
ക ൃ
മ ഴ
 ത േട
ിപ്പ ൂര
േഷ ്യ
സം രക്ഷ
ം വ ില
ം അ ദ്ദേഹ
ം ആ ദ്മ
 മുഖ്യമന്ത്ര ി പറഞ്ഞ
ുകാര ന
മുന്ന ോട്ട
പ്രതീക്ഷ ിത
മിത് ഷ ായ
ാ  ന
ക്ക ാറ
 ക ാറ
ം  മൂല
 കു ത
ം കുള
ത ാമസ
ബ ംഗാള
യ ുടെയ
വ സര
സ ീറ്റ
ൗ ത്യ
ി  ആര
 സ ിന്ധ്യ
റ്റ ാണ്ട
 ഗ ോപ
ി ക ാണ
ം നടത്ത ുന്ന
ഭരണ ഘടന
് കമ്മ ിറ്റ
 ആഗ്രഹ ിക്കുന്ന
അ റിയിച്ച
ജ െ
വ െച്ച
ീ ന്ദ്ര
 ക മ്പ
ിന്  വേണ്ട
വര ുമാന
 റ െയില
് ന ി
ത്തിന്റെ  പ
 സംഘ ര
 ഇട യ
 ലഭ ്യമാക്ക
ം ഇ ങ്ങന
പ്രതി ജ്ഞ
 അന്വേഷണ  സംഘ
 ശാ സ്ത്ര
 പരിക്ക േറ്റ
െ  ഡ
ിക്ക ുട്ട
 ഇ ദ്ദേഹ
സാ ന്നിധ്യ
 ഇരു വര
 ഡോ ക്ടര
ില െ ക
 പ ുലര
സ്  ആ
ക്കാര ുടെ 
 വര െയുള്ള
യു ക്ത
ൊരു ക്ക
ോഷ ണ
 വീത വ
വിലയിരുത്ത ല
5 4
ക േസ് 
ജ ിയ
ത കര
ബ ിന
ര ുന്ന
 ഉ ദ്ദേശ
 നട ന
ിച്ചത ായി 
 റ ില
 ഇട പാട
 വിന ോദ
5 3
ം  രാജ
ക്ക്  നല
പ്ര സ്താവന
ിപ്പ ിക്കുകയ
മ്മ േള
നി ർത്ത
ബിജെപ ിക്ക്
ിൻ വല
 അംഗ ങ്ങള
 പ്രഖ്യാപ ന
ക രുത
ച ക
ത ൊഴില
 മു തിര
ം ക ോണ
മാക്ക ിയത
 ലക്ഷ ്യമ
 ഭരണ ഘടന
ഇറ ാന
ത മിഴ
രാ ൻ
 ശ ബ്ദ
തിര ഞ്ഞെടുക്ക
 മുഖ്യമന്ത്ര ിയ
 ഗാന്ധ ിയ
 വിവര ങ്ങൾ
ം ലഭ ിച്ച
പിന്ന ാല
വിവര ങ്ങള
ി സതീ ശന
ത ികളുടെ 
ന ുകൂല
ബ ാങ്ക
ൂ ക്ക്
 ക ാന
 എ ക്
 എ യര
ന്ദ ീപ
 കു ത്ത
ദു രിത
 ഗു ജറാ
 ബു ദ്ധിമുട്ട
- ല
ം )
ഉ ന്നത
ജ ൂണ
േ ർക്ക
ിന ായി 
െ പ ല
 ദ ുര
ം പ ാര
 കാണ ാന
മാർ ക്ക്
ഓഫീ സില
 കൊല്ല പ്പെട്ട
a l
 ക യറ്റ
 പ്ര ിയ
 പരി ഗണിക്ക
 നി റ
അവ കാശ
ടെ സ്റ്റ
വ ു
 മ ൃതദേഹ
ത്ത്  
 മു ഴുവന
 പോ ലീസിന
 ഓ ള
ാദ ന
ാണ് ക േന്ദ്ര
 രാജ സ്ഥാന
 ഉറപ്പ ാക്ക
 എന്നി ങ്ങന
ാഷ ണല
പ്രാ ദേശിക
് പരി ശോധന
എഫ് ഐ
ദ ുര
ഹ ിയില
ഹ ോട്ട
ി വിറ്റ
ായ ിക്ക
 മ ോഡ
ദേശ ം നല
തി ങ്കളാഴ്ച
െ പ ാര
 ഹ െല
മര ീ
ലഭ ിച്ച
കഴിഞ്ഞ  തവണ
ബ്ര ിട്ട
സു ഖ
് നട ത്തിയ
 ബ്ര ിട്ട
ഡി സം
 കരു തിയ
 സ്പ ീക്ക
 അടിയ ന്തര
ുള്ള ില
ുറ പ്പ
ിന്ന ീട
ിട ത്ത
ദ്ധ ്യ
യു ദ്ധ
ം ത േട
 ശതമാന വ
ജീവിത ത്തില
 വാഹ നങ്ങള
 ദു ബായ
പ്രസിഡ ന്റ് 
 കണ്ണ ൂർ
4 00
പ ഞ്ചാബ
ല ിന്റെ 
ി  പോലീസ് 
േ ഡ് 
 പ ഴയ
 ക ോഴ
ായ ി പ്ര
 അ ണ
ുണ്ട ായത
 ല ാല
ഇത ിൽ
ം വ ലിയ
ുകൾ ,
 സ്വദേശ ി 
ജനങ്ങള ുടെ 
ബുദ ാബ
- ാം
ത മ്യ
വ റ
സ മാധാന
 ന ൂറ
ം  മാറ
 ശ ോഭ
പ്പെട്ട വര
 അത േ
കേരള ത്തിലെ 
 തീരുമാന ിച്ച
അതിന ിട
നിയന്ത്ര ണ
ത ിൽ
ഴ ി 
സ ോഷ്യല
 പ ിണറായി വിജയ
ഇത ോടെയാണ് 
 വീ ഴ്ച
ാബ ാദ
ം ച ോദ
 നീ ണ്ട
ഒ ര
ക ീഴ
പ ് 
 ന ന്ന
രാ ഴ്ച
ത്തില ായിരുന്നു
ാക ുന്ന
 രാ മ
 പരി ചയ
ിച്ചിരുന്ന ില്ല.

ാണ് ക േരള
സെ ക്രട്ട
സ്ഥിര ീകരിച്ചത
ബ്ല ിക്
 വർ ധ
 ദു രിത
 അഭിന യ
ദ ാസ
ഫ ിയ
ങ്ങ ോട്ട
പ്ര കടന
 ബ ാ
ോഗ ്ര
വേ ണ
 കു മാറ
ചെയ്ത ിരുന്ന
 കാര്യ മാണ
 പോക ാന
് എ ന്ന്
ം ഉണ്ട ായ
ിന്റെ അ ടിസ്ഥാന
7 2
ിയ ിട്ട
 യു എസ് 
ീന ിയര
ണമെന്ന്  ആവശ്യപ്പെട്ട
ലക്ഷ ്മ
 പാല ക്കാട
ാപ്പ ന
 ആരംഭ ിച്ച
 സംര ക്ഷണ
 പ ാസ
 സ് വർണ
 ജ െ
െ ക േരള
ോട്ട ുകള
കള ിലെ 
െ ന ിന്ന്
പാല ക്കാട
ാവാ ക്യ
ഇ വ
റ െ
ോ ന
 പ ിറ
 സ ാങ്കേതിക
 ബ ാങ്ക്
 മു ഹമ്മദ
ിച്ചത െന്ന്
ിച്ചത ോടെ 
 ജന ത
കേരള ത്തിൽ
മാക ുന്ന
 ഗാന്ധ ിയുടെ 
ഉ ള
ബ ില
വ ിന്ദ
ാ ന്യ
 അ പ്പ
വാ ർത്ത
 എന്ന ാല
ം ത െ
 മാത്ര ം 
 സമയ ത്ത
 കാ സര
ഉ മ്മന
ട ത്ത
ണ ൽ
 പ്ര വാസ
 ഇ വരുടെ 
് ക ുറ
അത ിന് ശേഷ
ം ആ ദ്യ
ാണ് സ ാധ്യത
 തട സ്സ
 സമ്മ ത
6 6
റ ി ക
ശ ബരിമല
ാ ശ്വാസ
െ  ഒരു
പ് പ്
 വ ടക്ക
െയ ർ
വി ശേഷ
 സ്വ പ്ന
െ ആ യ
 സഹ കരണ
തെ റ്റ
തെ ളിവ
കേസ ില
7 8
പ കര
ഷ ാജ
ു  പറഞ്ഞ
ു  എന്ന്
 ത ാത്
വി ചാരണ
 ര ൂക്ഷ
ി സ ി സ
 കല ാപ
 പ്രാ ദേശിക
റ ു
ുക ,
വി ഷന
് പ ോയ
 പരി ശീലന
 മന്ത്ര ിസഭ
ൈക്ക മാന
സു പ്ര
ഉ റപ്പ
എ ടുത്ത
ഏ ത
ധ ി
ബ ാ
 മ യ
രു ക്ക
ത്തിന്  
 ഭ ീ
ംബ ർ 
കൂ ൾ
പൊ ലീസ് 
ഒ രിക്കല
ച െല
ൻ  ക
ക്ക േട
ത്ത ാ
 ആ ശ്വാസ
 വര ാന
ാക്കിയ ിരുന്ന
 കാണ ുന്ന
 മാറ്റ ങ്ങള
സ്വദേശ ി (
ായിരിക്ക ണ
ദില്ല ിയില
 ഉൾ പ്പെട
ക ാണ
ച ിത
ഷ ങ്ങള
 ക ൃഷ
 അ ശ
 അ ത്യ
 ത ർക്ക
 മാ സം
ം വ രു
ജന റല
 ആയ ിരിക്ക
വിട്ട ത
 എം എൽഎ
ഗള ൂരു
 വേള യില
ദ ക്ഷിണ
മ ോഹന
ൈ സ് 
ത്ത െത്ത
ിയ ത്
 എ ംബ
 എ ളുപ്പ
 പ്ര തിനിധ
 ല ോട്ടറ
ാക ൃഷ്ണ
ി സ ർ
കാര ിക
െ എ ല്ലാ
മുഖ്യമന്ത്ര ിയ
 തിരിച്ച റിയ
സിപ ിഐ
ത്തിനുള്ള ില
ഇതിന് പിന്നാല െയാണ് 
ത്ത േയ
ല്ല ോ
 ഒ രാൾ
 സം ഗ
 ഗ വ
ം വ ളര
ം നട ക്ക
 പറയുന്ന ുണ്ട
ം ഇ ട
 പര മാവധ
 ആരോപ ണങ്ങള
ഇതിന ിട
ിക്കുന്നതിന ുള്ള
 മഹ ാ
 സമ്മേള ന
  ർ
a n
മ െയ് 
ൈ :
രാ വ
ുമ ു
ാവ ുന്നത
മു മ്പ
 റ ിസ
 ഗ െയ
ത്തിന്  പിന്നാല
 ഡ ിസ
ം വ േ
 ബിഗ് ബ ോസ് 
ഭ ുത
ശ ൈല
സ ികള
 നട ക്കുന്നത
അത ുപോല
മയ ുടെ 
്യമ ുണ്ട
ത്തിന്  വേണ്ട
 ഹ ിന്ദു
 സംസ്ഥാന ത്തെ 
യ്ക്ക്  
 വില ക്ക
 വ്യ വസ്ഥ
്യൂ ഹ
ത്തിലൂട െയാണ് 
ഇന്നല െ 
 പൈല റ്റ
ക ത്ത്
ഷ ത്തെ 
ി സം
രു മായി 
് ക ാണ
യിൽ  
 മന്ത്ര ി 
മാത്ര മേ
പരി ഹാര
 വയസ്സ ുള്ള
ച െ
ഷ ം 
ക്ക ാദ
ദ് വേഷ
മ്മ ൻ
് ക െ
 ഏ തെങ്കില
ി അ റിയ
തിക ര
 തന്ന െയാണ
മാത്ര മാണ് 
മുന്ന ില
ഉണ്ട ായിരുന്ന
പോ സ്റ്റ
് കേസ ുകള
 അന്ത ാരാഷ്ട്ര
 പെട്ട െന്ന്
ഖ ിൽ
 അ ർ
ുകയ ോ
ിവ ാരണ
 മാ തൃക
്യമ ുള്ള
ീഷ ൻ
 സുര േന്ദ്ര
തിരഞ്ഞെടുപ്പ ് 
 വിഭാഗ ത്തില
ട് വീ
 സുഹൃത്ത ുക്കള
മ ണ്ണ
റ ിപ്പോർട്ട് 
ള ിത
ൊ ലീസ
ോ റിയ
്യ ങ്ങള
 വ ി 
 ന ശ
ം  തുടങ്ങ
ായ ്മ
 മ െയ് 
 ച ാനല
ോട ക
ുവ ിനെ 
ിക്കുന്നത െന്ന്
 ഏ ജൻസ
 പുറത്ത ുവന്ന
ജിസ്റ്റ ർ
 ട് വീ
 സമാന മായ
,  ച
ക ോര
ഹ ിന്ദു
 സ മാ
 ത ി
ദേശ ങ്ങള
 ഡ യറ
് സ ു
ം ഉ പയോഗ
യ്ക്ക ായി 
മുണ്ട െന്ന
 കാരണ മായ
ൗര ത്വ
 കുറ്റ പ്പെടുത്ത
കുന്ന േര
 മണ ിക്ക്
 ഓഫീ സ
 ഡി എ ഫ് 
വേദ ന
,  ഇടുക്ക
ജ ി 
ട ിക്ക
ൂ ള
ാണ െന്നാണ് 
വാ ക്സിൻ
ന്റ െയ
ം വ െച്ച
പെ ഷ്യല
 കഴിഞ്ഞ  ദിവസം
വൈ ദ്യ
എന്ത ായാല
ം കണ്ട െത്ത
െ നിര വധ
െപ്പ ോല
6 2
വ െറ
 ക ശ്മീര
 സ ങ്ക
ട്ട ാര
ായ ്
ിന ിര
 ഉ യർത്ത
ികള ാണ് 
സി ക്യൂട്ട
ം വ െ
ബന്ധ ന
പ്പോഴ ാണ് 
് നട ന്ന
 സ്ഥല ങ്ങളില
 ധന മന്ത്ര
,  ന
ന ിൽ
 വ ന്ന്
ാണ ു
ല്ല ാതെ 
 നട ന്നത
ം ക ര
 ആര ോഗ്യമന്ത്ര
ി എ ന്ന്
ം സ ു
 ചെയ്യ ുന്നത
 ധ ാര
ിരിക്കുന്ന ത്
ഇട തുപക്ഷ
ഹൃ ദയ
സ്വാ തന്ത്ര്യ
 വ്യാപ ക
ലൈ ൻ
ഞ്ചിന ീയ
ക പ്പ
ഗ വര
ത ുക
ബ ാര
ോ ശ
 ക പ്പ
 ത ിയ
 ബ ീ
ുമ ൊക്ക
 ശ േഖര
ഇത ു
യുടെ  പ
മുന്ന റിയിപ്പ
ത്തർ പ്രദേശ
ഏ തെങ്കില
ജ െഡ
ര മേശ് ചെന്നിത്തല
സ ുല
േ ത്
ി  യു
ണ്ണ മായ
 ഹ ൃ
ം ഇ ന്ന്
ംഭ രണ
ിക്കുന്നതിന ായി 
സ്വാ മ
െ കാണ ാന
6 4
ഹ ്വാന
്യ ു
ുകയ ായിരുന്നു
 സെ ക്ക
 പൊ ട്ട
ോഹ ിത്
ഇവര ില
 ഉത്തര വ
 സൗകര്യ ങ്ങള
 കർ ണാടക
 ഭേദ ഗ
യ ായിരുന്ന
േ പ്പ
ി ന ിർ
ി ക ണ്ട
ം അ ംഗ
ി ത ന്നെ 
 കണ്ട െത്തിയത
ർച്ച ് 
ഴ ു
സ േവന
ഹ ാറില
ൂ സ
ൾ ക്ക
സ്  എന്ന
ിക്കുന്ന ില്ല.

തിയ െ 
ം സ ൃഷ്ട
 ജന റൽ
 തമ്മ ിൽ
പ്രാ ഥ
ാതിര ിക്കാന
ണ വില
ര സ്യ
ൻ റ
്യ ന
ിക്ക പ്പെട
ിവ േഗ
ത്തിയ ായ
ം പ ൂർ
െല്ല ോ
ൊന്ന ുമ
 വ്യക്തമാക്ക ിയിരുന്ന
 എന്ത െങ്കില
വെള്ള ിയാഴ്ച
ം രാശ ിക്കാര
രോഗം ബാധ ിച്ചത
ഞ ായറാഴ്ച
മ ുട
 ത ക
സ് ത്യ
 ഉ ല
മാണ ് ന
മ്പ ോഴ
എന്ന ിട്ട
ൂർ  
ീഷ ് 
 തിരഞ്ഞെടുപ്പ ് 
രോഗ ം സ്ഥിരീകരിച്ച
 സഹ ിത
 കോളേജ ില
വീട്ട ിൽ
മൊ ത്ത
 ബാന ര
ഖ ് 
പ ുഴ
ടു വിൽ
 ച ൗ
ുമ തി 
ോർ ഡ
ംബ ുല
ം മു ന
 കമ്മ ീഷന
നമ്മ ള
ം ശ
ക ൊണ്ട
ച്ച യില
 ച െന്നിത്തല
 വി ദ്യ
മു ക്ക
 പോ സിറ്റീവ
ം ക ുട
സ്റ്റ ം
ാർ ത്ഥികള
സ്വ യ
 വീ ഴ
ുകൾ ക്ക
ണമെന്ന  ആവശ്യ
രോഗ മുക്ത
 നടത്ത ാന
 തീരുമാന ിച്ചത
 പരാ തിയില
 കൈ മാറിയ
് എന്ന ിവര
 മ തിയ
 ബ ില്ല
സി  പി എ
 സാഹചര്യ ത്തിലാണ് 
 ടെ സ്റ്റ
ഗ ് സ
വ ിര
ി വിട
ങ്ങള െയ
് പ ിട
ംഗ ള
യോഗ ത്തില
കൊ ല
 അത ോറിറ്റ
 പോല ുള്ള
 ഇത ിന്
 നഗര സഭ
ഇ ന്റ
ഉ യർന്ന
ജ ാമ്യ
േ ം
ിന ാല
ഞ്ഞ ു
 ആ യുധ
ാല ക്കുട
ിക്കുന്നത ില
 തൃ ണമൂല
വേണു ഗോപാല
ഫ റ
 ആ ധ
 നി റഞ്ഞ
സംസ്ഥാന  സര
 ആശുപത്ര ിയിൽ
 മണ ിയ
 പ്രവേശ ിപ്പിച്ച
് പോ ലീസ് 
 വ്യത്യ ാസ
ഹൈക്കോട തി 
ാപ്റ്റ ന
സ്റ്റിറ്റ ്യൂട്ട
" ,
6 3
ബ ാങ്ക്
ല ംഘ
ട്ട യ
ിച്ച വര
 ത ുല
 പ്ര തി 
 നിന്ന ാണ് 
 ഹ ിന്ദ
ോർ ഡ് 
 സെ പ്റ്റ
 രണ്ട ് പേര
ബാധ ിച്ച് 
ി ബ ാല
 സ്ഥല ത്ത്
 നിലപാട ് 
, പ ത്തനംതിട്ട
ി '
ി പ്പെടുത്ത
 വ ൃ
ട്ട െ 
പ്പ റ്റ
റ്റ ുപ
 എ സ്പ
 ഇ ത്രയ
ാധ ാന്യ
ിയുടെ  പ
മാര ായ
ത്തിന്റെ  ഭാഗ
ങ്ങളില ൂട
 നിര ക്ക്
ാക്കിയ ിട്ടുണ്ട
 സ്ത്ര ീയ
 വിശദ ീകരണ
അടിസ്ഥാന ത്തില
മൈ ക്ര
എ ട്ട
ഏ പ്രില
ത ാൻ
ഥ ുന
ീ കൃത
 ആ ലോച
 ഭ ക്ഷ്യ
െ ന ടക്ക
ബിജെപ ിയില
ർത്ത ാവ
ത്തിലെ  ഏറ്റവ
 അനുമ തി നല
വ്യാ ജ
ന േട്ട
ൈ വര
് സ
ൗ ദ
 വ ട
ിക്ക ു
 അ ങ്ങന
 ത ു
വര ുന്ന
 പ്ര സ
 വി ചാരണ
മു ഴുവന
െ ക േന്ദ്ര
ി ക ോണ
 മുന്ന ോട
ം പ്ര കട
 നേതാവ ് 
അതിന ിടെ 
 ഉപയോഗ ിച്ച് 
പ്പറ േഷൻ
 ചേർ ന്ന
എ ത്തിയ
ക ഥ
ട ത്ത്
ശ ങ്കര
ഹ ാറ
െയ ുടെ 
ല്ല െന്ന്
ുകയ െന്ന
െ അ റിയിച്ച
 നിര ീക്ഷ
ുന ിക
കഴിഞ്ഞ  ദിവസം 
 പര ീക്ഷണ
പ്രതിക ര
വകുപ്പ ് 
ഇ സ്രായേല
ച െറിയ
യ െയ
റ ോബ
 പ്ര യ
 പ്ര ണയ
മ് പ്ര
 സെ ല
ഗര സഭ
തി ന ട
ഗത ാഗത
 ത മിഴ്
ിജ ു
മാണ്  എന്ന
െതിര ായ
 നി ങ്ങൾ
 നി ർത്ത
ത്സ ാഹ
 പത്ര ിക
പ്രാഥ മിക
ദ ൂര
ൈ നില
മായ ാണ് 
 ര മേശ് ചെന്നിത്തല
 ഭ ീകര
സിന െ 
സംസ്ഥാന ങ്ങളില
ൂറ ു
 നൽക ുന്ന
 അംഗ ീകാര
കർ ക്ക്
 ഉൾ പ്പെടെയുള്ള
െ പിട ികൂട
8 8
ഠ ിന
യ ോടെ 
റ ുക്ക
ക് രാ
 ന മ്പര
ങ്ങ ാട് 
 മ ുട
 അ യാള
പ്ര ദ
ാവ ുന്നതാണ
 റ ാല
ബന്ധ ുക്കള
മന്ത്ര ിമാര
ം മ ന
19 7
അ ന്വേഷ
ആ രാധ
ിയ ോട് 
്യ ാണ
ച്ച ക്ക
ിന ോട
 ത ോമ
 രാ വില
ഗ്രസ്  നേതാവ
ട്ര െയിന
 ഇട പെട്ട
ം ആ വശ്യ
ികളുടെ  എണ്ണ
േണ്ടത ാണ
നേതൃത്വ ത്തിൽ
ി മു തല
തുമ ുന്നണ
 പീഡ ന
ഇ വർ
വ ിക
 സ ഖ
ിക ടക്ക
ാവ ല
 മു തിർന്ന
ത്തിന ൊപ്പ
ോധ ്യ
ാണ് ഇ ന്ന്
 തയ്യാറ ാക
 പൗര ത്വ
 കിലോമീറ്റ ര
ജ ുന
ള ിപ്പ
ഴ ക്ക
െ ണ
 പ േജ
മാ പ്പ
 മ കള
 അ സിസ്റ്റ
സ് ക
ടിയ ന്തര
യ്ക്ക ു
 പൊ ള
ി ത ോമ
ി ആ വശ്യപ്പെട്ട
 സിന ിമാ
 സി ദ്ദ
 കമ്പന ികള
യോ ജന
അ ങ്ങനെ 
ക ോട് 
ൽ .

 ക മന്റ
ം  ട
 എ ങ്ങന
 പ്ര ാധാന്യ
 ആ ക്ഷേപ
മു തിര
തി 

 റ ോയ
് ന േതാക്കള
ം വ ാ
ത്ഥ ിയ
ം ഉ ള്ള
ഷ്യ ാന
 കേരള  കോണ
സ്ല ാമ
 തെളിവ ുകള
 ആത്മ ഹത്യ
,  ജ
ശ ങ്ങള
േ ഡിയ
ി  ക്ക
 പ്ര സാദ
 ബ സ് 
 ഫ ണ്ട
സ്വ പ്ന
 ഷ ോ
 തന്ന െ പ
 ഇറ ാന
 താര ങ്ങള
 തുറ ന്ന്
 രാത്ര ി 
 പ്രവ ൃത്ത
 സാമൂഹ ്യ
ഇ ൻ
ബ ഹ
മ ിച്ച
ര ജിസ്റ്റര
ൂ  എന്ന
ം  തീരുമാന
ുക ു
പ്ര തി 
 ജ യില
ിട ക്കുന്ന
 ഭ ിന്ന
 വെ ച്ച് 
 രോഗ ികള
ഇതിന ായി 
ക്കെതിര ായ
 ക്ല ാസ
ം '
ആ ളുകള
് സ് 
ക്ക ഴിഞ്ഞ
ിയ ോജ
ച്ച ിത്ര
ം  ചെയ്ത്
ിരുന്ന ില്ല.

 ജ ോസഫ
 ര ജിസ്റ്റര
ത്തിൽ  നിന്ന
ം വ ർ
വേഷ ണ
ബി ള
ം മു തൽ
 അധികാര ത്തില
യ െന്ന
ത്ത െ കുറിച്ച് 
 വ ൻ
രാ ട
 ഇ വ
ക്ര ൂട്ട
 ഹ ർജ
വേ ഗ
 മുഖ്യമന്ത്ര ി 
ം ചെയ്യ ുന്നത
 സംസാര ിക്കുകയായിരുന്നു
ക്കാർ ക്ക്
 ഇല ക്ട്ര
എ ത്ര
ദ ല
 തിര ിക
 ഓ ട്ട
ം എ ല്ലാ
 സ്വദേശ ിയായ
് വ ന്ന
ുകയാണ െന്ന്
ം വി ട്ട
ധാ ന്യ
 തോ തില
നിർ ദ്ദേശ
ജിന ീയ
 മുഖ്യമന്ത്രി പിണറായി വിജയ ന
e s
ഇ ദ്ദേഹ
മ മത
മ ക്കള
റ ക്ക
ശ ൂർ
ക്ക ത്ത
 പ ിര
ിഎ സ
ർക്ക ാറ
ം ത ോന്ന
പര ോധ
ാണ് ഇ ക്കാര്യ
ോൺ ഗ്രസ
ട് വിറ്റ
 അഡ ്വ
െല്ലോ  അല
ആ ശങ്ക
ഇ ല
ഒ ട്ട
മ ദ്യ
യ ിന
ാ ന്
േ ടു
്യ മാണ
 സം സ
ക്ത ാവ
 പറഞ്ഞ ത്
ലീ സില
യുടെ  അ
െ അ ദ്ദേഹ
 ഏ ർ
ി വ െച്ച
 മന്ത്ര ി അ
ീര ിക
ിണറ ായ
 ഉത്തര വാദിത്ത
 സി ദ്ധ
സെ ന്റ
ൂൺ  
2 50
ഉ ദ്ഘാടന
ത ുര
ധ ാരണ
ാ റ്റ് 
ങ്ങ ല
ാര ംഭ
 ഏ ത
 പരി ഗണന
 കോ ർ
മന്ത്ര ിസഭ
 സ്ഥാപന ങ്ങളില
8 9
ദ ാസ് 
വ ത്
ിര ീട
രാ ഹുൽ ഗാന്ധ
ിവ യ്ക്ക
ക്ര ൂര
, ക ണ്ണൂര
 ബന്ധ പ്പെട്ട
ു. .

ം സ്വദേശ ിനി (
 മാന സിക
ാത് സംഗ
എ മ്മ
എ ന്ത്
സ ഞ്ച
 സ ീ
ട്ട ിക്ക്
ിച്ച പ്പോള
ാവ ർക്ക
 പരാ തിയ
ബ്ര ാഹ
,  എ
ിച്ച ിട്ടുള്ളത
ാണ്  സംഭവ
 മു ദ്ര
 മു ല്ലപ്പള്ള
് പ ദ്ധ
 ഫ ില
സിന ിമയ
ാണ് ഇ ത്തര
കിയ ിരിക്കുന്നത
, ക ോട്ടയം 
 മൊ ബൈല
 കില ോ
 കഴ ിവ
 സൗദ ി അറേബ്യ
 തീവ്ര വാദ
ത് പ
 പ്ര ക്ഷോഭ
 ദ ശ
ഇത െല്ല
 വര െയ
 ചെയ ്യാൻ
ി ക ോട
 ഡ ൽഹ
വീ സുകള
 തെ ല
മുഖ്യമന്ത്ര ി 
 മേഖല യിൽ
ഗു രു
പ്രധാനമന്ത്ര ി നരേന്ദ്ര മോദ
ആ ള
ല ിന്
 സ ാഹ
 വ സ്ത്ര
 പ്ര കാശ
 ബ ാബ
 ദ ക്ഷിണ
 നി ശ്ചയ
െ കുറ ിച്ചുള്ള
മൂല ്യ
 ആറ ് 
നീ ള
ാവശ്യ പ്പെട്ട
ദ ിവസം
ധ ീര
ാ ഘാത
ീ ത്
ി  രാമ
 ന ിതീഷ
സ് തീ
രു ണ
ം ക ൂടുതല
യ്ക്ക ുള്ള
ം മ ണ്ഡല
നിയമ സഭ
ഇക്കാര്യ ത്തില
ഗ ർ
ത ാഴ
മ നുഷ്യ
ൂ ം
ത്ത റ
 അ ത്ര
രാ ഘ
 ച ാര
ത്തിയ ില
ിച്ചു  എന്ന
ിന് പിന്നാല െയാണ് 
 ക്ല ാസ് 
വിശദ ീകരണ
 നെ ഗറ്റീവ
ഇന്ന ത്തെ 
ഉദ്യോഗ സ്ഥ
)  
അ ന്ന
ആ ഭ്യന്തര
ിച്ച െന്ന
സ് തി 
ത്തില േക്ക
 ര ക്ത
േത ര
ം എ ല
പര ീക്ഷ
ം നടത്ത ാന
 എഴ ുതിയ
ച ിന്ത
ഞ ങ്ങളുടെ 
ത ക
ബ ജ
മ െടുക്ക
ാ ഡ
ൃ ഹ
 സ ൂപ്പര
ായ ് 
 അ ജ
സ്ഥ ത
 ഡ ീസ
ിസ ിപ്പ
ാപ ാത്ര
 ഷ ാജ
ോമ ിന
 വിഷയ ത്തിൽ
ഭാഷ ണ
 ചോദ്യ ം ചെയ്യ
 വായ ്പ
,  വയനാട് 
7 9
ണ ം എന്ന്
പ ട്ട
ൂ ഡ
ൊ ടുത്ത
ം  ഓ
ം  ആര
ിട്ട ില്ല
ം ന ിർ
ി വ ന്നത
ിക്കുകയാണ െന്ന
 അഭി മാന
 ട് വിറ്റ
 നോട്ട ീസ് 
1 20
യ ോജ
ാ ദ്യ
ീ ൽ
േ യ്ക്ക്
ത്ത ിക്കാന
 പ ിസി ജോര
ാണ ്ഡ
സം വിധ
മയ ്യ
ം ന ിയമ
 ചെയ ്യാ
 ഏ പ്രില
ിരു ന്ന്
 വോട്ട ര
 അതി ക്രമ
കൂള ില
മിന ല
 വരു ത്ത
ന ോക്ക
ി വിടങ്ങളില
ു  ക
വി ടു
വി മർശന
 ജ ്യ
സി ക്
െ ന േരിട
 നിയമ സഭാ
നേത ാവ് 
ി മ ത്സര
െ മ റ
കുട്ട ിയുടെ 
 സമ ർപ്പ
 സാധിക്ക ില്ല.

 പ്ല ാന
 നായ ര
 ഒര േ
  ഛ
റ ുകളില
വര െയ
ഞ്ഞ ിര
ചെയ ്യാൻ
 അത ൃപ്
മുണ്ട ായത
ഇന ി 
 എന്നിവര ാണ് 
സിറ്റ ിവിറ്റ
 ദൃശ്യ ങ്ങള
,  പാലക്കാട് 
ത വണ
ഭ ജന
െ റ്റ് 
ോ ടു
 പ ാക്ക
 പ ിണറായി 
ിക്ക ുമ
 എ തി
 എ യർ
സ് ഗ
ക്ഷ ൻ
പ്ര തിയ
യില െത്ത
തി  പറഞ്ഞ
ന്റ ണ
ിജ ന
ം ത ടയ
 പര സ്പര
 വഴ ി 
 മര ുന്ന
 ചെല വ
6 1
 ക േള
 ജ ാത
ാത്ത ത
 വെ ബ
 യു വാക്കള
 എത്ത ിച്ച
സ്ത്ര ക്രിയ
കുറ ഞ്ഞ
ആ ല
മ ത്സ
റ്റ ിൽ
 ബ ിന
ുറ പ്പെടുവ
 ഗ ൂഢാലോചന
 ഹ ോ
അതേസമയ ം സ
 തുട ങ്ങിയത
ഇന്ത്യ യിലെ 
 വകുപ്പ ിന്റെ 
 എത്തിയ ിരുന്ന
പ്പ് 

,  തൃശൂര
റ െക്ക
ൂ നിയ
ിക്ക ര
ില്ല െങ്കിൽ
 ഒ ക്ടോബ
മു ള
സ്ഥാന ത്ത്
ീകര ിക്കുന്നത
ം ന േരിട
നു ബന്ധ
് അ ംഗ
 നില നില
 കേന്ദ്ര ങ്ങളില
ബ്ര ഹ
 കര ാര
 ബന്ധ ുക്കള
കൂ ളുകള
കോട തിയില
െക്കുറ ിച്ചുള്ള
 മാന ദണ്ഡ
ന ി 
ാ കു
ി ഷ്ട
ക് വാ
ന്ന ദ്ധ
 എ ത്രയ
രു മെന്ന
ിന്റെ  ഭാഗമായി 
 നട പ്പ
ചെയ ർ
ി ക േരള
സ്ത വ
 തുറ ക്ക
ളി ത്
െ നട ന്ന
 കരുത ുന്ന
 മാത്രമല്ല ,
ദൃശ്യ ങ്ങള
6 00
പ തിന
ു  കൊണ്ട
്  ല
 വ ികാര
സ്  സ
തി ഷ
 ഹ ൗ
 കാര്യ മായ
മാക ുന്നത
ി സ്വദേശ ിനി (
 കിട ക്ക
ിനുള്ള ില
 സഞ്ച ാര
7 1
അ പ്പോള
ഗ ് ക
ന ായി 
യ ാറ
ഷ ിപ്പ
ു  
ക്ക ോ
 ച ുറ്റ
 ജ യിലില
ിക്കുന്ന ുവെന്ന
യു എസ് 
ാണ് ഇ ത്
, ക ാസര
ബു ധനാഴ്ച
ം ഉണ്ട ായിരുന്ന
ുട്ട ന
സ്പ ീക്ക
 അറ സ്റ്റ് 
ഭാര ത്
മഹ ാ
 നിക ുതി 
 മണിക്കൂറിന ിടെ 
 ഹൃ ദയ
7 4
ത്ത ീ
 പ ി
 ന ാണ
രാ ക
 ജ നുവരി 
ിട ിവ
 റ ഹ
 കേന്ദ്ര ങ്ങള
ബിജെപ ിയ
ി മ ുന്ന
 സു ധാകരന
 വോട്ട െടുപ്പ
പരി പാട
 സർ ക്കാരിന്റെ 
 ഭാഗ ങ്ങളില
 പത ിവ
,  കൊല്ലം 
ച ൊവ്വാഴ്ച
ജ സ്റ്റിസ് 
ത ങ്ങള
ബ ങ്ങള
ശ ോഭ
 പ ാട്ട
 ക യറിയ
ിക്ക ുമ്പോൾ
 പ്ര േക്ഷ
 എന്ന ാൽ
ാത ിരുന്ന
 കു ള
അതേസമയ ം അ
 ബിജെപ ിയില
 എത്ത ുന്ന
െ മ ത്സര
കൂട ിക്കാഴ്ച
 പ്രകാര ം 
വ്യ ക്തി
 പ്രശ് നങ്ങള
മാത ാവ
ഭിന യ
ഭിന ന്ദ
രോഗം സ്ഥിര ീകരിച്ചത
ത ീയ
ര മായ
സ ൈനിക
 പ്ര ൊ
 പ്ര സിദ്ധ
ുവ െച്ച
ൂര പ്പ
ി പ ാർട്ട
പ്പെട ുന്നുണ്ട
ബന്ധ ിത
െത്തിയ ിട്ടുണ്ട
 ഇട ത്
മുള്ള വര
െഡ ്ഡ
 എന്ത ുകൊണ്ട
െയ് ന
 ജനങ്ങള ുടെ 
 ഇടപെട ല
സമ്മ േള
രോഗം സ്ഥിര ീകരിച്ച് 
8 5
ഇ ഷ്ട
ത ങ്ങളുടെ 
ബ ോള
വ ്യൂ
ിയ ർ
ം  തുട
ാര ീരിക
ാന ാവ
ങ്ക ണ
െ ക ൈ
ാക െ 
 തിര ക്ക
 തിര ഞ്ഞെടുക്ക
ഒരു പാട
ി ജ ീവ
ട്ട്  ചെയ്യ
രോഗ ികള
 മേഖല യിലെ 
, ക ോഴിക്കോട് 
ന്യൂ നപക്ഷ
 ഇറ ങ്ങിയ
ഭ്യ ർത്ഥ
ബൈ യില
 ശ്രദ്ധ േയ
 നടപടി സ്വ ീകരിക്ക
ബ ദ്ധ
യ ാതൊരു
വ തര
് ്
ത്ത ിച്ച
വി ദഗ്
ഞ് ജയ
 ച െന്നൈ
ാക ുന്നത
സ്വ പ
ഗ്രസ്  പ്രവര
 സാധ്യത യുള്ള
ശ്ചാത്തല ത്തിൽ
സംര ക്ഷണ
ദ ാഹ
ിക്ക ില്ല.

ം  -
 മ ധ്യപ്രദേശ
 സ് നേഹ
സ്ഥ ാൻ
മാന ദണ്ഡ
മേ ട
 ദിവസ ത്തെ 
 എതിര െ 
പോ ലീസ
 ചടങ്ങ ില
പറയ ുന്നത
ി ജയ രാജന
- ന്
ഗ മന
ഡ ോള
ഭ ീകര
്‍ )
െയ ിൻ
 ച ിര
പ്ര സംഗ
ുവ ില
രി ഭാഗ
വേ ല
അതേസമയ ം പ
സില േക്ക്
ുവര ുന്ന
ചില ര
ഓഫീ സ് 
വ്വ കലാശാല
 കൊറോണ  വൈറസ് 
ജില ന
അ ക്രമ
ഫ ില
ി  വിജയ
 മ ധ്യ
ാല ിക്കുട്ട
 സ്വ പ
വീ ന്ദ്ര
ിമ ിറ്റ
ഷ്യ ന
ം ആ ളുകള
 ഞ ങ്ങളുടെ 
 നടത്ത ുന്നത
വന ിതാ
 വകുപ്പ ുകള
 പരാ തി 
ാണ് സ ു
നേര ത്തേ
വൈ ക
 കണക്ക ില
ഡ ിസ
സ ബ
ീ പ്പ
ത്ത രാ
ി  വീ
വി സ
വി ശ്വസ
ുള്ള ത്
 ര ഹസ്യ
 മു ഹമ്മദ് 
ീകര ിക്കാൻ
ടക്ക ം 
് സ െക്രട്ടറ
 കോട തിയ
് വ ാര
െ വ ൈ
് പ്ര ഖ്യാപ
ഘട്ട ത്തില
 ഖ ാന
അതുകൊണ്ട ് 
 ശര ീര
 പരാജയ പ്പെട്ട
സമ്മ ത
ഒ ക്ടോബ
ഫ ര
യ ോട് 
വി മത
 ബ ോര
 റ ോഡ് 
രാജ്യ ത്തിന്റെ 
 ആയ ിര
വെ ളിപ്പെടുത്ത
 തയ്യാറ ായ
് കു മാർ
 ബൈ ഡന
 പൊല ിസ് 
ാണ് സാധ്യത .

, പത്തനംതിട്ട  
ട ിപ
ഷ ാദ
െ ല്ലാ
ർ ത്തിയ
 വ ാത
 അ മ
ിന േയ
 വി ചാര
െ ക ൊല
നങ്ങള ുടെ 
 പരാ മർശ
ിസി സ
 പരിപാട ികള
 കീഴ ില
പറയ ുന്ന
ാരോഗ്യ  സംഘടന
ക ടുത്ത
ഗ ില
ാ ക്
രാ ർത്ഥ
ിന്റെ  ഭാഗ
 ഉ ദ്ഘാടന
ിയില ായ
ാത ായ
 പരി ഹര
് മ ണ്ഡല
 ആരോഗ്യ  പ്രവര
 എന്നി വരുടെ 
 വ്യാപ ന
ം  സര
ഉ ടന
ക ർഷ
ജ യില
ത ൊട്ട
യ ാദവ
വ െട്ട
ാ ,
ി  -
 ക ോട്ട
ിച്ച ുവെന്ന
 അ ങ്ങ
മു ഹമ്മദ
് ക ിട്ട
ഇത ോട
ി സ ുര
 നിയമ ങ്ങള
 രൂപ യുടെ 
 സംഭവ ത്തിൽ
ി എന്ന ിവ
 കള ക്ടർ
മായിട്ട ാണ് 
 ആന്റ ണ
 അദ്ദേഹം കൂട്ടിച്ച േര
ഇ ങ്ങന
ക ൂടുതൽ
ട ന്ന്
ൻ 

ന് തിര
ുക െട്ട
 പ്ര വാസികള
ില്ല േ
 വി ശേഷ
ായി  മാറ
 ദ ീപ
 അവ ള
 സീറ്റ ുകൾ
 വന്ന ിട്ടുണ്ട
 മത്സര ിക്കാന
രംഗത്ത െത്ത
കുറ ിപ്പ
ം കുറ ഞ്ഞ
ശു ദ്ധ
 പട്ടിക യില
ദിത്യ നാഥ
ഒ ന്ന്
ു സ
ക്ഷ യ
ുവ േണ്ട
സ്ഥാന മായ
ങ്ങൾ ,
ഇത ാണ് 
ീകര ിച്ചിരുന്ന
് അ റിയ
 പൊ തുമ
നി ക്ഷേപ
 അന ൂപ
െല്ല ുവിള
ുവര ുത്ത
് വ െച്ച
 തൃ ശ്ശ
മായി പ രി
ഉത്തര വ
 വർ ദ്ധ
 എഴ ുത
 അന്ത ിമ
ആ ഗ്രഹ
ഴ ുതിയ
ൈ ര്യ
ത്ത െക്കുറിച്ച് 
 സ ിഎ
ട്ട ിക്കൊണ്ട
 അ നില
ത്തിന്റെ  അ
ിമ ുട
ിച്ചു  കൊണ്ട
കാര ന
 ഇന്ത്യ ക്കാര
തിരുവനന്തപുര ത്ത്
ി ഉ യര
 തുടങ്ങിയ വര
പല ര
ിൻ്റ െ 
ര ീ
ല ോട്ടറ
വ സ്തു
 സ തീ
 എ പ്പോഴ
രു ണ്ട
ായിരുന്ന ില്ല.

മു ഹമ്മദ് 
് പ ാർട്ട
കന ായ
ഇന്ന്  
സൈ സ് 
ക്കുമ രുന്ന്
ഇടപെട ല
ത്തീ സ്ഗ
ഒ ടുവില
ഗ ന
ഗ െയ
ബ ാബ
വ ടക്ക
സ ോസിയ
ഹ ോ
 സ ജ
 ന ാടക
ം  തിരിച്ച
 ത ൊഴിൽ
ങ്ങള ുമായി 
െത്ത ുന്ന
 വലിയ ൊരു
 എത്ത ുന്നത
 മൂ ന്നു
ർച്ച യായ
കുട്ട ിയ
ഴ് ത്ത
 അപേക്ഷ ിക്ക
ചോദ്യ ം ചെയ്യ
 പുതു തായി 
അ ഖില
ആ ക്രമ
ഉ ൾ
യ ായിരുന്നു
വ ാണ
് !

ിയ ാര
 ത ോമസ് 
സ് നേഹ
ദേശ ിച്ച
് ക േരള
ം ക ാരണ
ം നട ക്കുന്ന
 കാര്യ ങ്ങളില
െടുത്ത ിട്ടുണ്ട
 ജില്ല കളിൽ
മുണ്ട െന്ന്
ി ത ോമസ് 
ം ച ില
െ ആ ദ്യ
ദ്ദ ീന
 സർ ക്കാരിന
രാശ ര
 കോടി രൂപ യുടെ 
ി ജന റല
ിക്കാർ ക്ക്
  ക്ഷേമ
)  -
ക ിട
ത ാ
വി മർശ
ിട്ട ാണ് 
യില േക്ക
 ബ ിഎ
മാണ ി സ
എന്ന ിവര
ി പ ുറത്ത
ംഗ ാൾ
 രാ ഹുൽ ഗാന്ധ
സ്വ തന്ത്ര
 സെ ന
ുത ന്നെ 
ുകാര ുടെ 
 കട ല
 കോള ജ
 അനുമ തി 
മാത്രമല്ല ,
7 3
ഐ പിഎ
ക മ്പ
ച േർ
ഡ ്വ
ണ ം

ന ൗ
് ..
ക്ക ിട
ല്ല ൂര
 വി ഷ്ണ
ിന്റെ  പ്രതികരണ
 ഒ ടുവില
 മാ പ്പ
 രാ ധ
േക്ക ാൾ
് അ ംബാന
ട്ട്  പ്രഖ്യാപ
 കഴിയ ുന്നത
 താമസ ിക്കുന്ന
 ഭാര വാഹ
 സാമ്പിളുകള ാണ് പരി
, ഇടുക്ക ി 
. in
സ ന്തോഷ
ി ങ്ക
ു ത്തിയ
ത്ത ുട
 ന ാശ
 അ ഴ
ിൽ  ഒരു
മ്പ ാട
ക്കാര ിനെ 
 ഗ ോ
 നി ഷേധ
 അദ്ദേഹ ത്തെ 
ഭി മാന
് വ െ
 വാ ക്സിൻ
 പദ്ധ തിയുടെ 
ാഷ ണൽ
 നഷ്ട പ്പെട്ട
വ്യ ത്യ
 ഏറ്റ ുമുട്ട
ഭര ിക്കുന്ന
ഉട മ
ഫോട ന
, ആലപ്പുഴ  
  റ്റ
ക സ്റ്റഡിയില
മ ിക്ക
ാ ക്ഷ
ൽ  
 ക ോട്ടയം 
 ക ിഴക്ക
 വ ൃത്ത
ം  ജന
റ്റ ുകള
ാക ുമെന്ന
നി ശ്ചിത
 കേരള ത്തിലെ 
ിയിൽ  നിന്ന്
ണക്ക ില
 ഗു രു
 എന്നി ങ്ങനെയാണ് 
വോട്ട ് 
 രംഗത്ത െത്ത
 ബ്ല ോക്ക്
 ഫേസ് ബുക്ക്
ഗ സ്റ്റ
വ ുമാണ
ഹ ിന്ദ
ൻ ഷൻ
ക്ക ുട്ട
ി  ഈ
 ക െ സുരേന്ദ്രന
പ്പ ുകള
സ് വർണ
ാക ാര
 കോട തിയിൽ
വ്യാപ ാര
ി നട ത്തിയ
 ഇക്കാര്യ ത്തില
 ഗ്രാമ പഞ്ചായ
യഥ ാര
ം  സ്വന്ത
ില ധിക
 ശ ബരിമല
 റ ാവ
 ഫ ാ
െട്ട ിട
ാണ് അ വര
പെ ന
ി ആ ക്രമ
 ആദ്യ മായി 
െയ് ക്ക
 നീ തി 
ശാ ന്ത്
 കൃത്യ മായി 
 പുരു ഷ
 ബോധ ്യ
മ ധ്യപ്രദേശ
ക് വാറന്റ
ച്ച യ്ക്ക്
 മ ൃ
ങ്ക ാള
 സം ഭാവന
ങ്ങൾ .

ം വ ീണ്ട
ത്തിന്റെ  ഭാഗമായി 
 കൊ ട്ടാര
ുഴ ലിക്ക
് ബ ാബ
ബൈ ൽ
പ്രധാന മായ
 ഉൾ പ്പെടെ 
 പരിപാട ിയില
 അല്ല െങ്കില
ക്ടറ ുടെ 
മാത ാപ
 ഡെ പ്യൂട്ട
ം  വിജയ
ക ില
ിക്ക ട
ിന്ന ാല
 രൂപ യാണ് 
 അഭ ്യൂഹ
 ചൈന ീസ് 
ഭാര വാഹ
 ബെ ഞ്ച
ക ുകയ
ത ിന്റെ 
റ ിലെ 
ൂ ഡ് 
 പ ൈസ
 സ ിവില
ിച്ച ിരിക്കുന്ന
ിന്  സമീപ
മാന സിക
 പറഞ്ഞ ു
 റ ിപ്പ
ാഥ ാര
സംഭവ ത്തിൽ
 എന ിക്ക
രക്ഷ ാ
പൊ ട്ട
ത്തിൻ്റ െ 
ക്കാദ മ
ദാഹ രണ
ത ട
ന ോ
ബ ത്തില
ിക്ക ാറ
 ത ാൽ
 എ ങ്കില
 ആ സൂത്ര
ാവ ിക
പ്പെട്ട ിട്ടുണ്ട
ിക്കാന ാവ
ി ക െ 
ത്തിന ക
 കു മാർ
െത്ത ുട
ുക്ക ൾ
കാല ിക
ുമെന്നാണ്  പ്രതീക്ഷ
ഇതിന ിടെ 
രേന്ദ്ര മോദ
് കമ്മ ീഷന
ച്ചയ ായി 
പ്രഖ്യാപ ന
 സൈനിക ര
 വേഗ ത്തില
ജ െപ
ഫ ോമ
മ ിട്ട
റ ായി 
ു ഡ് 
 പ ാവ
 ക ാവ
 ശ ക്തി
സ്റ്റ േഷനില
ാൻ  ശ്രമ
ം ന േതാക്കള
ാമ െന്നാണ് 
ം പ ിടിച്ച
യ്ക്ക ല
 മന്ത്ര ിയ
െടുത്ത ിരുന്ന
ം എ ടുക്ക
ി ആ ദിത്യനാഥ
 കഴിഞ്ഞ  ദിവസ
തി ന ിര
ം ലഭ ിച്ചത
 ഉറപ്പ ാണ
 ഇറ ക്കുമ
യാത്ര ക്കാര
 ഭാര ത്
ആ ഗോള
ക ന്റെ 
ഗ വ
ഗ ിര
ഗ ുല
പ ി
ഷ ണല
ങ്ങ ര
ുണ്ട ാക്ക
ുണ്ട െങ്കില
കര ണങ്ങള
 സം വരണ
ി ന േടിയ
ിച്ച്  അ
 നിന്ന്  വന്ന
 പരി സര
ം ത ുറ
മുണ്ട ാക്ക
 വേണ്ട ിയ
 കാരണ മാക
 സൗ ഹൃദ
്യൂ ബ
ക്കു ള
നാല ് 
ഡോ ക്ടര
 സംര ംഭ
ഹൈ ദരാബാദ
മെന്റ് സ ോണ
ഡിപ ിഐ
സ ോണിയ
ാ തി
 പ ാമ്പ
ച്ച  നടത്ത
ം  റിപ്പോര
 മ ക്കള
 അ ഫ്ഗാന
സ്  ബ
 ച ോര
ല്ല െങ്കിൽ
േഷ ന്റെ 
മു തൽ
ാൻ ഡ
ക്ട ് 
െ സ ാധ
 വൈ കുന്നേര
ടങ്ങ ുന്ന
 ഉട ൻ
ഘ കാല
മ ുള്ളത
ഷ മായി 
ാ ന്ത
വി ദ്യ
 ശ നിയ
െ ക ോട
സി ഐ
െ പ രാ
ം വ ഹ
േജ ് 
െല ോട്ട
ി മ റ
 ശതമാന ം വോട്ട
 വിള ിച്ച
മോ ശ
ാഞ്ച േര
ി പരി ചയ
 മുദ്ര ാവാക്യ
ട ൂറ
ീ ബ
മു തിർന്ന
ീകര ിക്കുകയ
െ ന ാല
സിന ിമാ
അതേസമയ ം ഇ
മേ റ്റ
 ജില്ല യിൽ
െ വ ന്ന
ം ച ൂണ്ടിക്കാട്ട
് മ ുന്ന
 തുടര ുകയാണ
 നേതൃത്വ ം നല
 പുര സ
ക ള്ള
ക മ്പന
ജ ൻ
പ േ
മ ില്ലെന്ന
ല ഖ
ല ക്ഷണങ്ങള
സ ിലെ 
ാ ന്ത്
ു  വര
േ ?

ത്ത ിര
 പ ശ്ചാത്തലത്തില
 ച ട്ട
 സം യുക്ത
െ ക ഴിഞ്ഞ
് ന ിർ
 നിന്ന െത്തിയ
് സ ർ
തിക രിച്ച
 നേര െ 
ീല ങ്ക
 ചിത്ര ത്തില
െ നട പട
നിർ ദേശ
 പോലീസ ിന്
,  മലപ്പുറം 
യ െ അ
റ ിസ
ട്ട ര
മ്പ ില
ിവ േഴ
 ദ ൂര
ിത ര
 ട െല
േയ ാണ് 
ോയ െന്ന്
 കേന്ദ്ര സര
 കേന്ദ്ര  കാലാവസ്ഥ
നി ങ്ങൾ
ി മ ണ്ഡല
 കോൺ ഗ്രസിന്
സു ഹൃത്ത
 പരിശോധന യ്ക്ക്
ിന് ശേഷ ം 
അഞ്ച ് 
ഭോക്ത ാക്കള
,  എറണാകുളം 
a m
o r
ഈ  വര
യ ാ
പ്പ ിക്കാന
ം  - 
 ത ൊ
 ആ ർക്ക
ിന്റെ  ആ
കര മാണ
 ബ ാഗ
ിപ്പ ിച്ചിട്ടുണ്ട
് ക ള
െ പ ൊലീസ് 
 ഡ ിഎ
യു വാക്കള
പ്രവർത്ത ന
ഫേസ്ബുക്ക ില
 കുടു ങ്ങ
എ ടുക്ക
ന ീയ
ു ഞ്ഞ
െ  വിള
ിയ െന്ന്
 ക ത്ത്
 ക ൈക്ക
ിര ാജ
ക്ക്  മുമ്പ
മു രളീധരന
് പ ോക
 ദ ൗത്യ
 കൊ ട
കഴിഞ്ഞ  വര
പ്പറ േറ്റ
ക്കട ത്ത്
ം പരി ശോധ
 ഏക ദേശം 
പ്രതിനിധ ികള
ഉ ന്നയ
ച ടങ്ങ
പ ള്ള
ാ മായിരുന്ന
ി ഷന
െ ഗറ്റീവ
ി  ദ
 അ വിടെ 
 അ വർക്ക്
ാല ത്ത്
 ഇ ള
ിപ്പ ിക്കാനുള്ള
േസ ില
ിയുടെ  അ
 കോട ിയ
 സ്റ്റ േഷന
 പ്രഖ്യാപ ിച്ചത
 ബ്ര ാഞ്ച
ധികാര ത്തില
 പങ്കുവ ച്ച
 പട ിഞ്ഞാറ
 സ്വയ ംഭരണ
 വിപണ ിയില
 പ്രതികര ിച്ചത
മെഡിക്കൽ  കോളേജ
സഞ്ച ാര
ം  പ്രവര
ഗ ോഡ
പ ില
റ ഞ്ച
റ ുകൾ
റ ദ്ദ
വ ൃ
 പ ക
ി  രു
ം  ശ്രദ്ധ
 പ്ര സ്ഥാന
 ഇ രിക്ക
 മു ക്ത
ക്കാര ില
 ഗ വർണ
ം വ ്യാപ
 പരി ഷ
 ഇട യില
െ വ ലിയ
 സ്ഥാന ത്ത്
 രാജ ിവെച്ച
 സി ബിഐ
 സംവിധാന ങ്ങള
 അമേരിക്ക ന
ദി വാസ
 വിഷ മ
 ദശ ലക്ഷ
ക ൂര
ഡ ംബര
പ ക
ര മ
ല യ
 അ യ്യ
ുക ൊടുക്ക
 എ ട്ട് 
 ഉ ണ്ണ
ചെയ ്തിരിക്കുന്നത
ുര ോഗ
 റ ൂമ
 ഗ ോവ
 വര െയാണ് 
െ ന േര
ം ത യ്യാറ
 സു ഹൃ
 സ്ഥാന ത്തേക്ക്
ാനുള്ള  സാധ്യത
 ഐ പിഎ
ാങ്ക ള
ിക്കണ ം എന്ന
 സമീപ ന
വീട്ട ിലേക്ക്
 വിദേശ കാര്യ
  ർ 
പ ോള
പ ൗരത്വ
വ ാല
സ് സിന
വര വ
സം സ
ൂര ജ
ാമ ത
ം പ ുന
 അദ്ദേഹ ം അ
ട്ട്  ചെയ്യുന്ന
 കേരള ത്തിന്റെ 
ി ആ ർ
 മത്സര ിച്ച
ി ഉ ള
തിരഞ്ഞെടുപ്പ ിൽ
 പല പ്പോഴ
ബു ദ്ധ
 എന്നിവ ർ
 നീ ങ്ങ
ദിവസ ങ്ങള
ഉത്തര വാദിത്ത
് പോ സിറ്റീവ
 ന്യൂ നപക്ഷ
 വേദ ന
മേഖല യില
ആലപ്പുഴ :
 സമി തിയ
8 3
യ ാന
ഹ ാർ
ൂ ,
മായ ി പ്ര
 ബ സ
 ശ ിവസേന
ിവ െള്ള
 ല ിറ്റ
ം ക ട
ൂര ിലെ 
 ചെയ ര
ം പ ല
 നിര ന്തര
 പു സ്തക
 സംഘ ർഷ
 തെ ക്ക
 കൂട ി ക
 വയ നാട
ോറ ന
 സ്ഥല ത്ത
എന്ത ുകൊണ്ട
താര തമ്യ
 കണ്ടെത്ത ാന
 കാലയ ളവില
 ധാര ാള
സിറ്റിവിറ്റ ി നിര
ാ ക്രമ
മാ ത്യ
ാണ്  പ്ര
ക്ക്  കൂട്ട
ാൻ  സാധിക്ക
 സ്വ ഭാവ
മാണ്  ഈ
മെ ച്ച
 യു വാ
േജ സ്വ
ം മു ഴുവന
്മ ണ
 ഇര ട്ട
 ഇന്നല െ 
 കൂട്ടിച്ച േര
ച െന്നൈ
ജ ിയില
പ ഴയ
ു -
ി  വാ
ം  അത
ിന ി
 പ്ര ോ
 ആ വേശ
 ആ ഗോള
 മു ഖ്യ
െ പ ുതിയ
ന്ധ ്ര
ിക്ക്  
 കൊ ള്ള
ാണ് ഇ പ്പോൾ
ാണ് പ ാര
െക്ക ാന
 രാജ യോഗ
 പരാ തി നൽക
ഇട ത്
തൃ ണമൂല
നാട്ട ിൽ
അന ുവദ
 മെ ട്ര
ബോധ ന
 പുന ര
 ഒരുമ ിച്ച് 
ശൈല ജ
8 4
ന െയ
ീ ട്ട് 
ൊ ണ
െ  യ
 ന ിൽക്ക
ിക്ക പ്പെടുന്ന
ിക്ക ാമെന്ന
 അ മിത് ഷാ
 ഇ ന്ധന
ിട്ട ില്ലെന്ന്
 ജ ോസ് 
തിര ക്ക
രി റ്റ
 ല െ
മായി  മാറ
സി ബിഐ
ം വ ീ
ഒരു  വിഭാഗ
മി ഷന
 പിന്ന ിൽ
് ത ാക്ക
 സു ഖ
ിത്ത ിര
ാനുള്ള  നീക്ക
 കാല ത്ത
പ്രവർത്ത കര
ശ്വര ്യ
യിട ത്ത
7 6
ക ാർ
ള ിഞ്ഞ
ഹ രി
 പ ാറ
ി  മാറ
ം  ചര
 അ ബ്ദ
 ത ുകയ
ക്ക്  ഒരു
വി പണ
രു ള
് പ ല
ം ക ൂട്ട
ക്കാര ായ
െ ന ാട്ട
സ്വ ീകരിച്ച
സിഡ ന്റ
 കോൺ ഗ്രസിന
 സർ ട്ടിഫിക്കറ്റ
 സമ്മേള നത്തില
െപിസി സി
 വസ്തു ക്കള
  ൾ
റ ് 
സ മാ
ി ടു
് മാന
ൽ പ
്  സ്വദേശ
ിയ െയ
ം  ഒന്ന
ക്ഷ മ
ിപ്പ ിട
 ഗ ൗരവ
 ഡ ോസ
 ഡ ാറ്റ
െല ങ്കാന
രോഗ ബാധിത
ഉണ്ട ാക
 രക്ഷ ാ
 ചർച്ച കൾ
 ബാല ചന്ദ്ര
ിക്കെതിര ായ
 ഉദ്യോഗ സ്ഥര
ങ്കുവ െച്ച
ഡ ോസ് 
ഭ ീ
 മ ൈ
ുക ൂട്ട
ിന ാഥ
ില്ല ;
 ജ ൂലൈ 
് ക ാര
െ ക ൂടുതല
ഭാ സ
 ഓ ൺ
ം എ ടുത്ത
ാണ് ഇ വിട
 തെ ര
 മണ്ഡല ത്തിൽ
 പിട ികൂട
ിനെതിര ായ
് നടക്ക ുന്നത
ഡ ിന്റെ 
ത .

ന ിക്ക
മ ോഷ
റ സ്റ്റില
ശ ക്തി
ാ സില
ി തിയ
ു നില
 വ ില്ല
 മാ  യ
 റ െയിൽ
ി ക െ
 ട ി
 ഹ ാര
ം അ വര
് അ ദ്ദേഹ
ി മ ന
 രോഗ ം ബാധ
 സ്വാ ഭാവിക
 കുറ്റ കൃത്യ
സൈ ന്യ
 അപേക്ഷ  ക്ഷണ
രംഗത്ത െത്തിയിരുന്ന
 സിനിമ യില
ാവാ ത്ത
 കൊച്ച ിയില
 കർ ശന
 അനുസര ിച്ച് 
ളിപ്പ റമ്പ
ന ോളജ
ിയ ൻ
 മ ില്യണ
 അ തു
ാര ോപ
ാന ു
 ത ോല
മായ  ഒരു
 ആ വര
പ്ര ണയ
എന്ന ീ
ി ന േരിട
ിലെ  അ
 ട ിക്കറ്റ് 
ൊരു ങ്ങ
ട്ര ോള
ട്ര േലിയ
 രാജ്യ ത്തിന്റെ 
 ഇത ര
ുന്നുണ്ട െന്ന
 വ്യക്തമാക്ക ിയത
 പരിശോധന  നടത്ത
ം വര ുന്ന
 ക്ര ൂര
ാഫ ്ര
ശ്ശേര ി 
 ഡോ ക്ടർ
ചൈന ീസ് 
 വീട്ട ിൽ
എഫ്  ഐ
വൈറ സ് 
അ ങ്ങനെയ
എ ട്ട് 
ബ െ
ല ാണ് 
ൃ ഥ
ക്ക ിയത
ങ്ങള ുടെയ
ിരുന്ന ാല
രാ ഗ
രാ മയ്യ
പ്ര ചരണ
സി ജന
ി പ ട്ടിക
 ഡ ിവൈ
 ഫ ോൺ
െ ന ോക്ക
ി അ ന
േക്ക ുമെന്ന
ി സ ർക്കാർ
 ഈ ട
 നില വാര
മെ ന
19 6
നേത ാക്കൾ
െ ആ കെ 
േട്ട ന
 വാ ങ്ങിയ
 ആശുപത്ര ികള
ം ഉണ്ട ാവ
 എന്ത ിന
 ഉത്തര വാദ
കൈ വശ
 താഴ െ 
സ്ഥാപ ന
രൂക്ഷ മായ
 ഉറ വിട
േവ നങ്ങള
ിന്യ സ
 ഇന്റ ര
  ട്ട
 പ വന
 ക ായിക
ിച്ച ിട്ടുള്ള
മ് മാ
 ച ീഫ് 
പ്ര സ
 വി റ്റ
ങ്ക ിൽ
ാമ ില
 ഫ ോര
െ അ പേക്ഷ
ി എ ടുക്ക
ുന ോക്ക
 ശ്രമ ങ്ങള
ി ഉ പയോഗ
ം നടത്ത ുന്നത
ലോ ചന
് പ്ര ചാരണ
 നേതാക്കള ുടെ 
് എന്ന ാണ് 
ധാകര ൻ
ഇത്തര ത്തില
 കണക്ക ുകള
്' ,
സുരക്ഷ ാ
 ങ്ങ  ള
സാമൂഹ ിക
കരുത ുന്നത
,  ബ
ക ാസർ
ജ റ
ജ െഡിയ
ാ ദേശ
ൈ റ്റ് 
്  സര
 പ്ര േര
ിന്റെ  ക
ിച്ചത ായ
ിച്ചത ിന്
ദ്ധ വ
 തിര ുത്ത
് ന േട
 സ്വ ീകരിച്ചത
ാത്ത വര
അതേസമയ ം
ി എ ം
ി വ കുപ്പ
 കുറ ച്ച് 
ുവര ുന്നത
കേരള ത്തിന്റെ 
 അപ മാന
വാക്ക ുകള
മന സ്സില
നിയമ ന
 മഴ യ്ക്ക്
 ഉറ ച്ച
 ഇങ്ങന െ

 രോഗമുക്ത ി നേട
9 5
അ യ
ട ിക്കറ്റ
ന ൂറ
പ ത്ത്
ക്ക ൾ
 പ യ്യ
 സ ാമ
 സ ്ട്ര
ം  ഭേദ
 ഇ ഡ
 വി വേ
വാ ൻ
സ്ഥ ിതി
് പ േർ
ം ന േതാവ
ിജ െ ജ
 ട ിവ
 ഉണ്ട ാക്ക
ാസ മ്മേള
ം മ റ്റ
 മന സ്സ
ം ചെയ്ത ിരുന്ന
സഹ കര
് നട ന്നത
 പരിശോധന യില
 ചോദ്യ ത്തിന്
 സമ്മ ര
െ ച ോദ്യ
 നിരവധ ി 
ോക്  ഗ
ട്ടിഫ ിക്കറ്റ് 
് കാല ത്ത്
 തെല ങ്കാന
ജ ോസ് കെ മാണ
ബ ിസ
മ റിയ
ശ േഖ
ൗ ല
 സ ില
 സ ച്ചിന
 ന ോ
 മ ട്ട
ാണ്  എന്ന്
യില െ ക
 ബ ാബു
റിയ ാദ
ം ക േസ
 ഈ  രാശിക്കാര
ജന ങ്ങൾ
പെ ണ
ംബ ർ
െ എ ത്ത
 നടപട ി 
 ഉപയോഗ ിച്ച
 തോ റ്റ
 അതി ഥ
 തെറ്റ ായ
 പ്രതിപക്ഷ നേതാവ ് 
 ഡിസം ബ
ി തര ൂര
 മുന്നോട ിയായി 
ഡ ിവൈ
ഫ ോൺ
ര ഹസ്യ
റ േറ്റ
 പ ത്ത
 പ മ്പ
ം  ദ
ാണ്  ഇത
ങ്ങള ാണ
 ആ വ
ിട ുന്ന
അത ിൽ
ം വ ഴ
മാക്ക ിയിട്ടുണ്ട
 കോട തിയുടെ 
ം ഉ ള
 മന്ത്ര ി വ്യക്തമാക്ക
 ഇന്ത്യ യ
 അത ുകൊണ്ട
ിച്ചിട്ടുണ്ട െന്ന
 പെ ന
ൂപ്പ ർ
ന്യൂ ഡൽഹ
 തിരിച്ച െത്ത
 നിർ ണായക
ത്  .

 ചോദ ിക്കുന്ന
ിന്റ േയ
വ്യാ ഴാഴ്ച
 ചേർ ന്ന്
ഷ്യൽ മീഡിയ യിൽ
മാണി സ ി ക
  .
ഫ െബ്രുവരി 
മ ്ര
സ റ
ാ ടു
ാ സ്റ്റ
െ ക്
 സ ാഹചര
 അ റ്റ
മ് പ്യൂട്ട
മാണ െന്നാണ് 
രി ങ്ങ
സം ബോധന
 യ െല്ലോ അല
 ഫ ്ല
െ ന ല
ഗ്രസ്  നേതൃത്വ
പ്പെടുത്ത ാൻ
 കേന്ദ്ര മന്ത്ര
ാണ് ഇ യാള
ിറ ോസ
 കേസ ുകൾ
19 5
ിത്ത ുറ
 ഐ .
 പ്രവർത്ത നങ്ങൾ
ദ്ര വ
 നീ ട്ട
 നമ്മ ൾ
 മൊ ത്ത
 ടെ ക്
 ആന ുകൂല
 മുഖ േന
ംഗ്ല ാദേശ
 ഗുരുതര മായ
ഗസ്ഥ ന
ww w
 ആശ ംസ
8 2
മ ധ്യ
റ ങ്ങ
ശ നങ്ങള
ഷ ാര
ൂ ബ
ക്ക ുഴ
ിയ ാൽ
ി  സി
ക്ക്  ശേഷ
 ജ ോർജ
മ്മ ുടെ 
ഞ്ച േശ്വര
ാമ ന
പ്പെട ുകയായിരുന്ന
യു ക്രൈന
ം ത ള്ള
ിപ ുര
ിപ ിഎ
പ്പെടുത്ത ുന്നത
എസ് ആര
 അന്വേഷണ ം നടത്ത
ീസ ൺ
 അടക്ക മുളള
 ആള ുകൾ
 നിരീക്ഷണ ത്തിലാണ
 ബാധ ്യത
 ജീവിത ത്തില
സിപ്പ ല
 എം എ ല
മുഖ്യമന്ത്രി പിണറായി വിജയ ന
ട ര
ല ാപ
ശ ിവസേന
ി /
ിയ െ ത
ിക്ക ന
 എ ഐ
 എ ച്ച
 പ്ര ാഥ
രാ ത
ുള്ള വർ
ില്ല .
മ്മ ള
ാട ് ക
െ ക ോവിഡ് 
അത ായത്
െ ന യ
 നിന്ന്  പുറത്ത
 കോട ിയുടെ 
 ദിവസ ങ്ങളിൽ
 ഇന്ത്യ യിലെ 
ൊക്ക െയാണ് 
 പോക ുന്നത്
ഇട പെട്ട
ുമെന്നാണ്  സൂചന.

നാട്ട ിലെ 
 ബു ദ്ധ
ത്തിനുള്ള ിൽ
 ഒറ്റ പ്പെട്ട
വിമാന ത്താവള
 യൂണ ിറ്റ
 എൽ ഡിഎഫ
 സ്ഥിത ി 
 കാന ഡ
  ഔ
o n
ജ ന്റ
് മെന്റ
 സ ിങ
 വ േര
ിര ിപ്പ
ിര ാക
 ന െടു
 വി മർശ
വാ ഷ
 ജ ോസ് കെ മാണ
ാവ ൂര
ത്തിയ ിട്ടുണ്ട
െന്നാണ്  സൂചന.

 പേര െയാണ് 
ാണ് ക ഴിഞ്ഞ
ുമായ ി പ
 എന്ന്  പറഞ്ഞ
തുടര ുന്ന
ി ആ ണ
പ്യ ന
ി രാജ േഷ
കരു തല
 വയസ ുള്ള
 വക ഭേദ
സിക്യൂ ഷന
ച ുമ
ജ ോര
യ ാക്ക
ല ാൽ
വ ച
ഹ െല
ാ  ഫല
ി മാർ
ു ...

െ -
ില ാണ
ി  ഓ
 ക െ എസ് 
പ്പ ിച്ചത
 മ െച്ച
 ഇ ത്ര
 വി മത
് ന േതൃത്വ
 അറിയ ിച്ചിരുന്ന
ിൻ റെ 
് മ ണിക്ക
ിഫ ്ബ
 താഴ ്
 പൂ ജ
 എംപ ിമാര
 അധികൃത ർ
ൽ ,
 സ ൂ
 വ ാടക
ിന്  മുമ്പ
ിപ്പ ോള
രി ചയ
 ല ാബ
ഇത ര
ുല ു
മെ ട്ര
ോട്  സംസാര
ഗ്രസ ിലെ 
െടുക്ക ാൻ
ങ്ങളിൽ  നിന്ന്
ഞ്ചായ ത്ത്
 പ്രവർത്ത ിക്കുന്ന
പ്രതിക രിച്ച
 സംഘടന ാ
ഇപ്പോഴ ത്തെ 
തീവ്ര വാദ
സ്പ്ര സ് 
ശ്ചിമ  ബംഗാള
െഹ ്ല
 സംഗ ീത
www .
ി  പറയ
ു തി
ിച്ച ില്ല.

റ്റ ല
ിക ില
 എ എപ
ുള്ള  ഒരു
 ജ ി
മ്പ ുഴ
േഷ ന്
മായി  ബന്ധപ്പെട്ട
ിച്ചത ില
ത്തിന് റ
് ന ിന്ന
ം മ ല
ം പ്ര തീക്ഷ
ുന്നതിന ിട
ം ഉണ്ട ായത
്മ ിന
 എന്നി വിട
ിച്ച് പ റയ
സുര േഷ് ഗോപ
 നിയമസഭ യില
 പുറമ െ 
 ഹോട്ട ല
 വിദഗ് ധ
 കഥ ാപാത്ര
9 1
എ യ
ഡ ീഷ
ഹ ാജരാ
ോ ണ്ട
 ക ുവൈ
 ന ൂ
 ന ാമ
ം  ജില്ലാ
 അ തീവ
ില്ല  എന്നാണ് 
ത്തിന്  ശേഷം 
 ഫ ോട്ടോ
ം അ നുഭവ
 കാര്യ വ
 കണ്ട ത
 കാരണ ം 
നാട്ട ുകാര
 തവണ യ
വീട ുകളില
ദ്ഘ ാട
ഫേസ്ബുക്ക്  പോസ്റ്റ
ച ീഫ് 
റ ിപ്പ
ി ക്രമ
 പ ിഎ
ിയ ിരിക്കുന്നത
 ക ിഷ
 ജ ോയ
എന്ന ാണ് 
ിയില േക്ക
െ പ ോയ
കള ാണ് 
ിക്കുന്നത ാണ
 ഹ രിയ
െ അ ംഗ
 രാ ഹുൽ
വേ റ്റ
 നേര ിയ
 ഉപ േക്ഷ
പെ രു
ങ്ങളിൽ  നിന്ന
ുളള ത
സഹ കരണ
കേന്ദ്ര  സര
 മലയാള ികള
അഭി ഭാഷ
മായി ക ാണ
 ഒട്ട േറെ 
വിന്ദ ് കെ
ഗ ാസ
ഗ ിള
ജ ിത
പ ിതാവ
് ),
ക്ക ൊള്ള
 ക ൺ
 ക െപിസിസ
 വ േഷ
ിക്ക ഴിഞ്ഞ
ുക  എന്നത
െന്ന ു
തിര ിക
ാണ് ക ാണ
 ദിവസ ങ്ങള
ില്ലെന്ന ായിരുന്നു
ിത്ത െറ
തൃ ക്കാക്കര
 കൈ കാര്യ
 പ്രവർത്ത കര
 ആവശ്യപ്പെട്ട ിരുന്ന
 തെള ിഞ്ഞ
 മരണ ങ്ങള
ടെ ക്
ഏക ദേശം 
ി ജില്ല ാ
 അദ്ദേഹം കൂട്ടിച്ച േർത്ത
 വിദ്യാർ ത്ഥികള
ക ോള
ത മിഴ്
ന ാഗ
മ െങ്കില
യ ുട
റ ാണ
റ ോഡ് 
ി ണ്ട
ി  പോ
ക് വ
 പ െയ
 ക ൂ
 സ ബ
ിര ണ
ം  ഭ
 മ ുണ്ട
 അ ട്ടിമറ
ത്തിയ ാക
് പ ോള
 ഗ വേഷണ
് ന ാല
 നിര ക്കില
പക്ഷ െ 
ം ത കര
ി വ ോട്ട
ം സ ീറ്റ
ിയിൽ  നിന്ന
െറ ിഞ്ഞ
ലോ ഡ് 
ം വര െ 
ശാ ഖ
 മണിക്കൂറ ില
അന ുമ
 പിന്തുണ യ
 യുവ തിയ
സി  വേണുഗോപാല
ടെ ക
ില്യ ൺ
 വൈദ്യ ുതി 
 രാധ ാകൃഷ്ണ
a r
ന ന
ന ടന
െ  മാറ്റ
ിയ ്ക്ക
ച്ച  ചെയ്യ
 മ ിസ
ിന ി 
വി ശ്വാസം
ഞ് ജന
 ബ ഹുമാന
തി റ്റാണ്ട
െ ക ുട
 മു ഴുവൻ
ൂര ിൽ
ാം :
ി ക ൂട്ടിച്ച
ോര മ
മൂ ന്നു
ിരിക്ക ണ
ാണ് ക േസ
്വ ന്റ
ിലേക്ക്  മാറ്റ
കൾ ക്ക
ിക്കുന്നുണ്ട െന്ന
ിയിലേക്ക്  മാറ്റ
ണാടക യില
 പ്രവേശ ിപ്പിച്ചത
 റിപ്പോർട്ട്  ചെയ്ത
ി ജയ രാജ
 മറുപട ി നല
ഷ്യാന െറ്റ് 
8 1
ഇ ക്കഴിഞ്ഞ
ഐ ക്യ
ഫ ്യൂ
 പ ിതാവ
 വ ണ്ട
 ആ പ്പ
ുള്ള  
വാ ഗ്ദാന
ുവ ീ
മാന ത്താവള
ം ക ള
തല ത്തില
 ഫ െബ്രുവരി 
 കോട ിയേര
ാദ ിത്യ
 നില വിലെ 
നട ന്ന
ുന്നതിന ാല
ി ച ോദ
ി ച െറിയ
് എന്ന ിവ
 നീക്ക ങ്ങള
 മറുപ ടി
കാ സര
 പട്ട േല
 ദില്ല ിയില
െണ്ണ ല
 പ്രയ ാസ
ആ വശ്യമ
ക ണമെന്ന
ജ ോസഫ് 
ട ിച്ച് 
മ ൊന്ന
ല െ
ി ദ്ധ
ീ .

്‍ /
്‍ ),
ക്ക റ്റ
 സ േ
 മ രുന്ന്
 ആ ംബുല
 ച ാട
 എന്ന  നിലയില
് ക ൈ
െന്നാണ്  വിവര
 നിര ാശ
ണക്ക ടത്ത്
െ മ രണ
 പല ത
 നൽക ിയത
ത്തോട ൊപ്പ
 അല്ല െങ്കിൽ
ക്ടറ േറ്റ
 നേരിട ുന്ന
ബിസിന സ് 
 ഫേസ്ബുക്ക ില
സ്റ്റം സ് 
ത്തരാ ഖണ്ഡ
8 6
ീ ള
ോ ച
ത്  എന്നാണ് 
 ന ര
ം  ര
ാന ിരിക്കുന്ന
 ആ ം ആദ്മ
ായിരുന്ന  
ന്റ ില
 ഗ ര
ിട്ടുണ്ട െന്ന്
ം പ േർ
ുമെന്ന ായിരുന്നു
ംഭ ീര
ം എന്ന ീ
് മ ണ
 കഴിയ ാത്ത
 പ്രവർത്ത നങ്ങള
പ്രതിപക്ഷ  നേതാവ
ചോദ ിച്ച
െക്രട്ട റിയ
 കിലോമീറ്റ ർ
ാണ് പോ ലീസ് 
 തി ങ്കളാഴ്ച
  ന്യായ
അ പ്പോഴ
ഓ ട്ട
 പ ന
 സ ച്ച
ാന ിയ
പ്ര ീ
പ്ര ിൽ 
ിവ ിൽ
മ്മ ിറ്റ
ിന്ന ല
ിക്കുന്ന  ഒരു
ണ് ഠ
 യ ൂത്ത് കോണ
ത്തിന്  പിന്നില
ിക്കാന ായി 
ം വ േണ്ട
 ഫ ോട്ട
 വീ ഡിയ
 സംഭവ ങ്ങള
പ്രതി ദിന
 കാല ാവധ
െ എ ന്ത
 ഐ സ
ുട്ട ികള
 ഇന ി 
ഡ്ര ൈ
 പാട ില്ല.

 പുരോഗ മ
 ജോ ലിയ
ിരാക ാശ
  ടു
ജ നുവരി 
ത യുടെ 
ന ിതീഷ
പ ി 
വ ന്നത
ൊ വ്വ
 ക ുന്ന
മാ ന്റ
 മ മ്മൂട്ട
 അ സ്വ
രാ ധന
വാ റ്റുപ
 സ് വർണ്ണ
മായി  ബാധ
മ്മ യ
് അ വസാന
ജില്ല കളിൽ
 ഇട ിവ
ഇന്ത്യ യിൽ
 ആണ െന്ന
 പെ ര
 മറ്റ ുള്ളവര
ഇതിന ു
 നിർ മ്മ
 കമ്മ ്യൂണ
 രീതിയില ുള്ള
വ്യ വസ്ഥ
 ഇത്തര ത്തില
് പറയ ുന്നത
െ സുര േന്ദ്ര
ി ഗ ോവിന്ദ
 സീസണ ില
ം മുന്ന ോട്ട
ദ്ധര ിച്ച് 
പ ത്ത
ബ ാക്കിയ
മ ില്ലാത
ൗ ഡ
ർ മാർ
്  ഷ
ിക്ക പ്പെട്ടത
ന്ന്  
 ച ുവ
 ച ുരു
ിട്ട ത
ം ക ാല
 യ ൂത്ത്
ി ന ടക്ക
ാമ ര
ാമ ത്
മാക്ക ുന്നത
 ഹ ാജ
 നി ങ്ങൾക്ക്
ി സ ഖ്യ
രാജ്യ സഭ
് അ ന
മേ ൽ
 ജന കീയ
ജി ദ
് ആ ശുപത്ര
് ച ന്ദ്ര
എസ് എസ
എസ് ആർ
അതിന ാൽ
ഗ്രാമ പഞ്ചായ
 അറസ്റ്റില ായ
ദുരിത ാശ്വാസ
ം തെ ളിയ
ട്ടയ ാട
ബ വ
സ ിയുടെ 
ർ മാര
 വ ാട
 മ ില്ല
 അ മരീ
ിൽ  പറയുന്ന
 ഇ യാൾ
ത്തില ായ
 ശ ത്ര
സി ബ
 ട ി സ
തു മായ
 പരി ഹരിക്ക
വരുടെ  എണ്ണ
രണ്ട ് പേര
 ഞ ായറാഴ്ച
മുഖ്യമന്ത്ര ി സ്ഥാന
പ്പെടുത്തിയ ിരിക്കുന്നത
് നട ത്തിയത
 മനസ്സില ാക്ക
ഉട ൻ
ി സതീ ശ
 മീറ്റ ര
 ചല ച്ചിത്ര
 വട കര
വാറ്റുപ ുഴ
ം  പറയുന്നത
ഗ ിന്
ത ിവ
മ ീഡിയ
ര ായി 
ഷ ുറ
ാ ഖ
 പ ിൻവല
ും ?

 ന രേന്ദ്ര മോദ
 മ ധ
 ഇ ംഗ്ല
 ച ൊവ്വാഴ്ച
യില ുള്ളത
ത്തിയ ാക്കിയ
ിയില ാണ് 
് ക ണ
ുപ റമ്പ
െത്ത ി 
യ്ക്ക്  ശേഷ
സംസ്ഥാന  അധ്യക്ഷന
 വന്ന ാല
മാറിയ ത
 കോവിഡ്  സ്ഥിരീകരിച്ച
ആത്മ ഹത്യ
9 4
:  
ത യില
ത ോല
ാ ഫല
ി മാറ്റ
 ക ന
 വ ാസ
ിക്ക േറ്റ
 എ ടുത്ത്
ക്ക്  സമ്പര
രു ത്തര
 ജ ോസഫ് 
ാക്ക ോ
മു ഴുവൻ
െ ക ൂട്ട
ഞ്ച ാവ
ാമ ുക
ിക്കാന ാക
ിലെ  സ
തിന ു
ി വ ി 
ി ജ ലീല
്വ ല്ല
ുകയാണ െങ്കില
കേരള  കോണ
 പരാ തികള
 വ്യക്ത ിയ
മുന്ന ോട്ട് പോക
 വർഷ ത്തെ 
 എതിര ാള
ബ്ല ്യു
ിഹ ാദ
ഡയറ ക്ടര
 അകല ം പാല
)  എന്നിവര
9 2
ം  സ്ഥാപ
ഖ ത്തര
ട ിട
ഡ ി 
പ ഠന
ക്ക ോട
 ക െ സുധാകരന
 വ ിക്കറ്റ
പ്ര വാസ
 ഉ ളള
സി സ് 
ഞ്ച ്വ
ിജ ാബ
ങ്ങളില ായി 
 അദ്ദേഹ ം പറയുന്ന
ിമ ുറ
 വെ ട്ട
 കൂട ിയാണ് 
് മ ത്സര
 കാരണ ങ്ങള
ന്യൂ സ് 
 തൃ ക്കാക്കര
 ശു ഭ
ഇതേ  തുടര
 ആരാധ കര
 കമ്പ നിയ
ൃഥ ്വ
a t
ക ഴ
ട ല
ത ാവ
ത ാത്
സ മിത
 പ ിള്ള
ിക്ക ിട
ിച്ച  
 ആ ഹ്വാന
 ജ സ്റ്റിസ് 
ിപ്പ ് 
ം ക ാഴ്ച
 യ ുക
ി ന േരിട്ട
തല ശേര
 പേര ിൽ
തീ ഷ
ി ത ുറ
 അറിയ ിച്ചിട്ടുണ്ട
ുന്നതിന ു
 കുട ിയേറ്റ
 വിഷയ ങ്ങളില
 തുടര ുന്ന
ീഷണ ര
വ്വ ഹ
 താല ിബാന
െ നട പടിയ
 മേ ധാവ
 അമ്മ യ
കണ്ട െത്ത
തോ ന്ന
 തീയ തി 
 കൂട്ടിച്ച േർത്ത
ുകേഷ ് അംബാന
ം  സംബന്ധിച്ച
ഫ ോര
ബ ത്തിന്
യ ൂത്ത് കോണ
ിക്ക ട്ട
ിന്റെ  പേര
ിപ്പ ിക്കുന്നത്
തിര ഞ്ഞെടുത്ത
ാവ ുകയ
ാട കര
ം പ ാർട്ട
ണമ െങ്കിൽ
ം നട ക്കുന്നത
 കേന്ദ്ര ത്തില
ാണ് ക ോട
 നിയമ സഭാ തിരഞ്ഞെടുപ്പില
 നേര ിട്ട് 
 വേണ്ട ിയാണ് 
കാര്യ ങ്ങള
നട പടിയ
ുന്നതിന ിടെയാണ് 
 പിന്നാല െ 
ഭരണ കൂട
ി എന്ന ീ
 തട ഞ്ഞ
ചിത്ര ങ്ങള
കാന ഡ
റിഞ്ഞ ത
 മനുഷ്യ ര
 ഫ്ര ണ്ട
രാത്ര ി 
ലോക് സഭ
പ്രവ ചന
 ലോക് സഭ
ം ...

ക ൃഷ
ച െന്ന
മ ടഞ്ഞ
ഷ ള
ി ശു
ൈ ൻ
ൻ പ
ക്ക ുകയായിരുന്ന
ിയ ുണ്ട
ി  തുടങ്ങിയ
 വ ാഴ
പ്പ ര്യ
ക്ക്  അനുകൂല
െ ക ുറ്റ
െ പ ാർട്ട
 വര െ സ
ത്തിന ാണ് 
പ്പെടുത്ത ുകയ
ഡിയ ിൽ
ുന്നത്  എന്ന
 ശ്രമ ിക്കുന്നത
റെയ ിൽ
സംഘ ര
 വിഷയ ങ്ങള
 മണിക്ക ൂര
 പഞ്ചായ ത്തില
ആറ ് 
ക്യൂ രിറ്റ
 ഡ്ര ൈവ
 കക്ഷ ികള
 ദേവ സ്വ
സ്ഥിത ി 
ഡിജ ിപ
െ ആക്രമ ിച്ച
്മിന ിസ
  /
  ൻ
എ യര
ഗ ോവ
റ ികള
ാ  ഗാന്ധ
ന്ന ുള്ള
ത്ത േര
 റ ൂട്ട
ഡ്  ട്രംപ
ജയ ് 
േക്ക ാണ് 
വിട െയ
 നില വിൽ
രണ്ട ാമത്തെ 
 കൂട ിയായ
െടുക്ക ുന്നത
 രോഗ ം സ്ഥിര
 വാ ക്ക്
് ബ ാബു
രേഖ പ്പെടുത്തിയത
ി പരി ഗണ
 സാധ്യതയുണ്ട െന്ന്
 ആത്മ വിശ്വാസ
 പുറത്തു വിട്ട
സ്തീ ന
ധ ോണ
റ ിനെ 
ു വിട്ട
ർ .

 ക യ്യ
 ന ാദ
 മ ടങ്ങിയ
 അ ംബാന
ാന ായി 
 ത േ
 ച ാന
പ്ര േക്ഷ
ിന്റെ  പേരില
 ര മേശ
 ഗ ള
ി പ ൊലീസ് 
 ഒരു  വിഭാഗ
 ഒരു പോല
ി എ ംപ
 അറിയ ിച്ചത
 യോഗ ത്തിൽ
േടിയ െത്ത
 ചോദ്യ ങ്ങള
 കല ക്ടര
 മൂന്ന്  പേര
 ഉണ്ടായിരുന്ന ത
 രംഗത്ത െത്തിയിരുന്ന
 പാ ഠ
ഫോണ ില
 ജാഗ്രത  പാല
അന്ത ാരാഷ്ട്ര
 ഹരിയ ാന
ം വകുപ്പ
ത ൂക്ക
ഫ ്ല
ബ ോസ് 
ഹ ർജ
ോ സില
്  ഒരു
ി  കള
 സ ദ
 ആ വർത്ത
 ച ീഫ
പ്ര ത്യ
 ബ ാറ്റ
ിപ്പ ുറ
 ശ േഖ
 ല ഹര
 മാ ള
 ഫ െ
 നി ധ
ന്യ ാ
 പ്രതി ദിന
 ഉപ ാധ
 വില ക്ക്
മല്ല ാത്ത
 കോൺ ഗ്ര
 മര ിച്ചത
 വെള്ള ിയാഴ്ച
ന്നി ധാന
ിയോജ ക
ഞ്ഞിര പ്പള്ള
  ദേശ
e  
o v
ക രാ
ജ ൂലൈ 
ന ടിയ
ബ ത്തിന്റെ 
വ ികാര
 പ േട
ച്ച േര
ച്ച ടക്ക
ിക്ക ായി 
 അ ബ്ദു
ക്ക്  നേര
വി ശ്യ
വി ഷ്ണ
ടു പുഴ
 ഇ ങ്ങനെ 
ോട ് പ
അത ാണ് 
ി ക ിട്ട
ചെയ്യ ുകയ
ം എ ത്ത
്വ ല
ിൻ സിപ്പ
ിരിക്കുകയാണ െന്ന
െ മ ുന്ന
 നിർ ബന്ധ
ക്കെതിര െയ
ം നൽക ിയ
യോ  ഗ
ന്മാര ുടെ 
കൊറോണ  വൈറസ് 
ഇപ്പോഴ ിതാ
ശശ ീന്ദ്ര
ം  പോലീസ് 
എ ഴ
ന ിൽക്ക
ല മെന്റ് 
ള വിൽ
ു  എന്നാണ് 
ത്ത ുനിന്ന
ിയ േയ
 സ ന്ദീപ
 അ പ്രതീക്ഷിത
 ത ിയേറ്റ
രു മായ
 ബ ാക്കിയ
 വര െ ക
ിജ ്യ
വീ ത
് സ മര
 ഉണ്ട െന്ന
 ഉണ്ട െന്ന്
 അത് ഭുത
വ്  വര
 അറ സ്റ്റ
ൊല പാതക
 വിശദ മായ
 പുരു ഷൻ
ഷകര ുടെ 
 ജോലി  ചെയ്യുന്ന
േഴ് സ് 
 ഹാജരാ ക്ക
പ്രവ ൃത്ത
പത്തനംതിട്ട :
 റെക്ക ോര
 സംവിധ ായകന
ഉറ വിട
 ശനിയ ാഴ്ച
1 10
9 7
ം ?

അ ഴിമ
എ തി
ച ൗ
പ ാർ
മ ില്ല
വ േണ്ടത
 പ ാകിസ്താന
 ക ൃ
 ക ൗൺ
ിക്ക ാതെ 
ങ്ങ ാന
 മ ീന
ാണ്  ബ
പ്ര ൊ
 ഉ യ
 ബ േബ
മു രളീധര
ിയില ൂട
െ ക ോവിഡ
കള ിലേക്ക്
 ട ീച്ച
ിക്കുകയ ോ
 ആര െയ
ി അ ര
 ലക്ഷ ദ്വീപ
ബു ദ്ധിമുട്ട
 അട ിച്ച
 പ്രദേശ ങ്ങള
 തട സ
 ക്യ ാമറ
ത്തു  നിന്ന
ി നട ത്ത
ികയ ായിരുന്ന
 പുന ഃ
െഡിയ ൂരപ്പ
യഥ ാർത്ഥ
പറ േഷന
 സ്വദേശിന ി 
നിക ുതി 
ൊണ ാള
0 1
0 5
മ ീന
ൾ പ്പെടെയുള്ള
മാ തൃക
 സ ്ര
ച്ച ിൽ
ല്ല ില
ികള െയ
 സം ഭാഷണ
എന്ന ിരുന്നാല
 ദ മ്പ
ാത െ ക
 തിര ുമാന
 ഭ ക്ത
ി സ െ
ം ത ട
.. ..
ട്ര േറ്റ
 വോട്ട ുകൾ
 സഹ കര
ഗോപ ാൽ
 മാധ്യമ പ്രവര
 സംസാര ിച്ച
ം മാത്ര മാണ് 
 അഭിമുഖ ത്തില
 വഹ ിച്ച
ഫേസ്ബുക്ക്  കുറിപ്പ
 അർ ഹ
മാതാപ ിതാക്കള
8 7
എ ത്തിയത
ജ ോസ് 
ട ിച്ചത
ര ഹിത
ി ‌
ി  പറ
്  ഗ
 പ ങ്ക്
ിയ ിട
 ക രാറ
ച്ച ന
 ശ രിക്ക
 ഹ രി
ഗ്രസ്  അധ്യക്ഷ
ാണ് ക ണ്ട
 കേസ ുകളില
 കൊണ്ട ുവന്ന
 സാധ്യത .

 പരാ തി
നേര ത്തെ ക
ഹര ിയാന
ിച്ച് ക ഴിഞ്ഞ
 ഇല്ല െന്ന
കർ ണാടക
മാസ ം 
കേസ ിൽ
ക്സി ക്യൂട്ട
 അനുമ തിയ
ിക്കുക  എന്ന
 മുന്നറിയിപ്പ ് നല
വിഷയ ത്തില
മ്മു  കശ്മീര
 റദ്ദ ാക്ക
ി ആക്രമ ിക്കപ്പെട്ട
8 00
9 6
ഇ ല്ലാത
ണ ം 
യ ുക
ഷ ൂട്ട
ു  പോക
ോ -
 ക ുര
 മ ിക
 ത യാറ
വി ഭജന
രു മെന്ന്
 വി ദ്വേഷ
 യ ോജ
ചെയ ്യാ
ത്തിന്  കാരണ
ി എ ന
ി എ ടുത്ത
മി ഥുന
 വകുപ്പ ് അറിയിച്ച
 രാഷ്ട്രീയ ത്തില
 പ്രശ ാന്ത്
സെ പ്റ്റ
 സ്വാ ഗത
 വീട ുകള
 കോടി രൂപ യ
മാത ാക്കള
ഗള ൂര
ഹൗ സില
സൗദ ി അറേബ്യ
ധി ക്ഷേപ
ാഫ്ര ിക്ക
 പ്രാഥ മിക
അ പ്പ
ഈ  മാസം 
ട െല
യ ൂത്ത്
ര ക്ത
സ ന്ദര
ി ),
ി  പോയ
ക്ക ത്തിലൂടെ 
 പ ാക
ിയ ്
ി  മുഖ്യമന്ത്ര
ി  ക്കു
ങ് മൂല
ുക ര
സ് മയ
വി പ്പ
പ്ര കാശ
ക്കാര ുകള
ം ന ിയന്ത്ര
 തിര ിച്ചു
 തിര ിച്ചുവര
ിറ്റ ൽ
ശോധ ിച്ചത
ാബ ിന
ഭി ണ
ഇന്ത്യ യ
ണക്ക െട്ട
ദ്ദേശ ം നല
 സർ ക്കാരിന്
ിന് ശേഷ മാണ് 
പ്ല ാന
 നഷ്ട പരിഹാര
സിന് ധ്യ
ം അറിയ ിച്ചത
മണ്ഡല ത്തില
 പത ാക
ിദ ംബര
ി കൊ ടുക്ക
 അഭിന ന്ദ
ഐ ട
ക ി 
ജ യിലില
ത യുണ്ട
ാ ശ്ശേര
ൊ സൈറ്റ
ന് ദേ
പ് ഷന
 ന ിവാരണ
ിക്ക രുത
 മ ുകളിൽ
 ആ ൾ
ത്തില േറെ 
ുന്നത ാണ് 
കര ന
ിവ ്യ
 ഒരു ക്കിയ
തു ല
 നേര ത്തേ
ുകളുടെ  എണ്ണ
ം നൽക ുന്ന
ൊല ിസ് 
ീഡ ന
 ശക്തമായ  കാറ്റ
ജ്ഞ ാപ
ാവശ്യ മായ
 പ്രശ് നങ്ങൾ
വളര െ 
െ കൊ ല്ല
 ശു ച
 നാള െ 
 മാല ിന്യ
ഞ്ചിനീയ റ
അ തിര
ക ത്ത
ഫ ാ
ൃ ദ്ധ
ത്ത ുന
്യ വ
ിക്ക േഷന
ം  ബിജെപ
ം  ശക്തമായ
ം  തീര
വര ാണ് 
രാ വസ്ഥ
ക്ഷ ത്ര
 വി പുല
 സ് കൂള
തിര ിച്ചു
ുവ ഴ
ുവ ച്ച
റിയ ാസ് 
സി ക്ക്
ങ്ങൾ 

 ഗ ്ല
േണ്ട ി വന്നത
 സാധ നങ്ങള
സില ര
നിര പ്പ് 
ം മ ണ
ിരു ദ
 രോഗ ബാധിത
ോഴിക്ക ോട്ട
ദേശീയ  നേതൃത്വ
ീകരണ ങ്ങള
ുന്നതിന്  മുമ്പ
രംഗത്ത െത്തിയ
ിക്കേണ്ട ത്
പ്രാ ധാന്യ
ായി ക ണ്ട
സംഘടന ാ
 പങ്കെടുക്ക ാന
 സംഘട ിപ്പിച്ച
 ക്വാറന്റ ൈനില
ം വ്യക്ത മല്ല.

 പിണറായി വിജയ ന
ഗ ്ട
ത െലങ്കാന
ഷ റ
ഹ ൈക്കമാന
െ :
ന് മാർ
്  ഈ
 പ ദ
 പ ൂട്ട
 ക സ്റ്റഡിയില
മാ ന്യ
 പ്ര കോപ
 ജ െഡിയ
രി ഫ് 
െ പ ോക
േത ന
ഇത ുമായി ബന്ധപ്പെട്ട
വില .

മി ക്
നി വാസ
ാണ് അ ന്വേഷണ
ി മ േഖല
ുത ന്ന
സിഡ ന്റ് 
, ക ോട്ടയ
 ശക്ത മായി 
 തയ്യാറ ാക്ക
ിച്ചത്  
ിഫ ്റ്റ
വ് വീസ് 
 മണിക്കൂറ ിൽ 
 എസ്  എസ് 
് പോ സിറ്റിവിറ്റി നിര
സ് പ റഞ്ഞ
പ്പട െ 
ലമെന്റ ില
 ഡോള ര
 സഞ്ച ര
 ഊ ര
ലോക്ക്  ഡൗണ
 ഡിസം ബര
മഹാ മാര
,  ആ
- ൽ
യ െ പ
ശ രിക്ക
ി വാ
 ക രാർ
 സ ാര
ിക്ക ുള്ള
ുവ ശ
 മു ട്ട
ാമ ്യാപ
േണ്ട ിവര
െന്നാണ്  റിപ്പോര
രാജ്യ ങ്ങളില
ം ത െറ്റ
 പു ഴ
ൊക്ക െയ
 ശ്രമ ിച്ചത
 ശതമാന ം 
ഡിഎഫ ിന്
ആദ്യ ത്തെ 
ിലൂട െയാണ് 
മോ ക്രാ
ധാകര ന്റെ 
 അതി ജീവിത
ിന്റ േത
സൗ കര്യ
ം കൊ ടുത്ത
ദിലീപ ിന്റെ 
 വൈക ിട്ട
വിദ്യാ ർത്ഥ
 പരിധ ിയില
 ഡീസ ല
നുബന്ധ ിച്ച് 
ാമ്യാപ േക്ഷ
ഗ ൗരവ
ജ ോസഫ
ന ുമ
ന ന്ദ
റ ോള
ാ  ര
ു  വ
് മി
്‍ '
 പ ൈ
ുക ഴിഞ്ഞ
രാ മര
്‌ ,
ിവ ാര്യ
 എന്ന െ 
മു ല്ലപ്പള്ള
ുപ റയ
ഡ്  അ
ഞ്ച ര
ം ന ീണ്ട
ണ്ണ ായക
ം വ ീട
നില വാര
 വെ ളി
 കാര്യ ത്തിൽ
ം പ്ര വർത്ത
 വ്യക്ത ികള
 ഉറപ്പ ുവരുത്ത
 നാല ു
 ഉൾ പ്പെടുന്ന
െന ീഷ
 ശര ിയായ
 യുഡിഎഫ ിന്
് കൊ ല്ല
കക്ഷ ിയായ
 ഉട മ
 മീറ്റ ർ
 പന്ത ില
മണിക്ക ൂറ
 പാക്ക േജ
ഇ ഡ
ക േ
ജ ഡ്ജ
െ രഞ്ഞെടുപ്പ
ിയ ാണെന്ന
മാ സം
 സ ന്നദ്ധ
 ന ദ
ിക ോ
രാ ക്ക
ത്തില െത്തിയ
 ഉ ത്തർപ്രദേശ
 പറഞ്ഞ ് 
കു മ്പോള
 റ െഡ്ഡ
 വര െ ന
ി പ ിട
ിലെ  ഒരു
ി ക േസ
ലീ ഗ് 
 തിര ച്ചില
ി എ ന്ത
 കോട തിയെ സമീപ
യ്ക്ക ുന്നത
 സംഘ വ
 അറിയ ില്ല.

് ത ുറ
ശോധന യ്ക്ക്
് ആ ശുപത്രിയില
 രീ തിയ
ഉണ്ട ാവ
 കോടതി  വിധ
ായി ക ാണ
രാമ ത്ത്
 മത്സ രാർത്ഥ
 വിദഗ് ധര
ുവാ ൻ
പ്രശ് ന
ബിഎ സ്പ
ഈ  സാഹചര്യത്തിൽ
ക ുമെന്ന
ച േ
ത ട്ടിപ്പ
ാ സിന
െ ൺകുട്ട
ത്  സ
ന്ന ിട്ടുണ്ട
ത്ത ാണ് 
ിയ റ
 ക െ പ
മാ തൃ
 സ ർക്കാറ
 ന ിയോഗ
ുക ിട
 ത ുര
റ്റ ുനോക്ക
െയ ധിക
പ്ര വേശന
മാണ്  ഇത
മര ുന്ന
മന്ത്ര ാലയ
 ആവശ്യ ങ്ങള
ുന ര
ാണ് അ പകട
 പുറത്ത ിറങ്ങ
 പദ്ധ തിയില
ം ഉണ്ട ാക്ക
 പ്രവർത്ത കർ
സൈ റ്റ് 
ായക ൻ
 ആരംഭ ിച്ചത
പാല ക്കാട് 
വ്യാപ ക
വ്യാപ നം 
 അഭ യ
 പരിശോധ ിച്ച
 ടെ ക
നടപട ികള
ി ഹ ൈക്കോട
െ കൊ വിഡ് 
രംഗത്ത്  വന്ന
 സാധിച്ച ില്ല.

സമയ ത്ത്
സംവിധ ായകന
ം "
ഊ ര
ഓ ള
ച ട്ട
ദ ന
ഭ ർത്താവ
ക്ക രണ
ക്ക ുമ്പോള
ക്ക ത്തിലൂടെയാണ് 
 പ ശ്ചാത്തല
 സ ി സ
ം  ഒഴിവാക്ക
 അ ക്കാദമ
ിൽ  നിന്നുള്ള
ക്ക്  വലിയ
ുമ ല്ല
 ശ സ്ത്രക്രിയ
 ഒ രാഴ്ച
സി  പ
േത ാക്കൾ
ക്ര ീന
ം ന ാല
ം ന ോക്ക
ി പ ങ്ക
 ഓ ക
ിസ ഭാ
െ മ ന
കാല ാവസ്ഥ
 ആരോപ ിക്കുന്ന
 കമ്മ ീഷൻ
 എന്ത ാണ് 
ആരോഗ്യ  പ്രവര
 നിരവധ ി പേര
 പ്ല ാറ്റ
 യുവ തി 
മ്യ ൂണ
ഭൂമ ി 
െരു മാറ
 ബജ റ്റ
ായ് മയ
എ ത്രയ
ങ ് 
ഡ ുകളില
ത െക്ക
ന േട
മ ീ
യ േല
െ ...

ില ോ
 ക ടുവ
 വ സ
 വ ച്ച് 
ിക്ക ള
 അ ച്ഛന
 പ്ര ളയ
 ഇ ട്ട
 ഇ ക്കുറ
വാ ങ്മൂല
 ഉ പരോധ
 ശ ുപ
മു ട്ട
് ക ുട
ം പ ുതിയ
യുടെ  ഭാഗ
യാള ുടെ 
 അന ധികൃത
ിറ ങ്ങിയത
ാണ് പ റയ
് വ യ
 നേര ത്തെ പ
ിയായ ിരിക്ക
 ഇത ിന്റെ 
െ. .

അതിന ു
 പ്രസിഡ ന
എൽ എമാര
ശ്രദ്ധ േയ
ആയ ിര
ന്ദർ ശ
ം തന്ന െയാണ് 
 തോന്ന ുന്ന
 ന്ന  ത
ഇര ട്ട
ഹസ ിച്ച
 ഇന്റ ർ
 ചല ഞ്ച
 പ്പ െ 
 സന്ദർ ശ
ലംഘ ന
 കൊട്ടാര ക്കര
 സാഹചര ്യമ
ുവീ ഴ്ച
ഈ  സമയത്ത്
ഡ േ
ന ാഷണല
സ ീ
ായ ംകുള
 മ ോഹൻ
 അ ഭ്യര
 അ സുഖ
 ത ാക്ക
ടു വയ
രു ണാ
ത്തില ായിരുന്ന
 ഉ യർ
 ജ ഡ്ജ
 ശ ാരീരിക
 സം ഖ്യ
 ല ൈന
കു ല
വർ ധ
ം ന െഗറ്റീവ
ംഗ ്
ത്ഥ ത്തില
 ഓ ഗസ്റ്റ് 
യു വാവ
 ഉണ്ട ായത
 ആവശ്യ പ്പെട്ടത
 ഉപ തിരഞ്ഞെടുപ്പ
 എത്ത ാന
ദ്ദേശ ങ്ങള
മാത്ര ം 
സ്സ ിൽ
ോഡ ല
പരി ശോധ
 സൗ കര
ി വി ള
ി ച ികിത്സ
തൃ ശ്ശ
് പ്ര കാര
ലോക ത്ത്
14 0
ത്തകര ുടെ 
രാഹുല ിന്റെ 
 ഘട്ട ത്തിൽ
ഇത്തര മൊരു
 പ്രധാന പ്പെട്ട
ക്കാരിന െതിരെ 
ശക്തമായ  മഴ
ം നടത്തിയ ിരുന്ന
 വ്യാ ഴാഴ്ച
ഡ്ര ൈവ
 ആന ന്ദ
ഡെ പ്യൂട്ട
ജ ക്ട
മ ില്ലെന്ന്
യ ാക
ൊ ത്ത
ക്ക ുകള
ില െ പ
െ  ബ
ത്ത ുക
ിയ മ്മ
ിന്  നല
 ത ീപ
 എ  ഇ
 ബ ാര
ിപ്പ ൂരില
ങ്ക ല
 റ ോള
ം ന ാട്ട
ം പ ര
 ഫ ിറോസ് 
 പൊ ലീസിന
 ലഭ ിച്ചിരുന്ന
 ഷ ൂട്ട
ിക്കുകയാണ െന്ന്
് വ ്യ
 ലക്ഷ ം കോട
ംബ റില
 വന്ന ു
ാട്  സ്വദേശ
 മണ്ഡല ങ്ങള
 വിഭാഗ ങ്ങള
 എന്നിവ ർക്ക
 കുറ്റ പത്ര
വയ നാട
കേസ ിലെ 
 അര ങ്ങ
 അനുവദ ിച്ച
വീട്ട ുകാര
 ത്ത ി ല
9 8
എ എപ
ക ുവൈ
ട ിക്കറ്റ് 
പ ാറ
യ േറ്റ
വ ൂര
വ ഴിയ
ത്ത ായ
ിയ ാക്ക
 ക മ
 ന ി 
 ന ാഗ
ായ ിടത്ത
 അ മ്പ
സ് മ
രാ ഗത
രാ ഹുൽ
ങ്ക ാര
 യ ാദവ
ി ന ഷ്ട
ാള യ
ം ന േര
ത്തിന്  സമീപ
വേ ഗത
ാഴ ്
അതേസമയ ം മ
ുള്ളത ാണ
നിര ോധ
നിര പേക്ഷ
 രാജ്യ സഭ
പ്രതി ഫല
 മത്സര ത്തില
ലക്ഷ ദ്വീപ
കാല ാവധ
ി വര ുന്ന
 ജില്ലാ  കളക്ടര
 അടക്ക ം 
 ആരംഭ ിക്ക
 സൈ ബര
 പ്രത്യ ക്ഷ
കണ്ണൂർ :
 ഗുജറാ ത്ത്
മ്മൻ ചാണ്ട
ഇ .
ക ന്ന
ന ാന
വ ുമാണ് 
െ  ന്ന
 സ ൈക്ക
 മ ോഷണ
 എ ഫ് 
പ്ര ണ്ട
മ്പ രാഗത
്യാ ന്തര
 യ ൂറോ
 ഗ ുണ്ട
ം വ കുപ്പ
െ ന ിയന്ത്ര
 വില യില
 ശ്രമ ിക്കുന്ന
 രാജ ്
് പറഞ്ഞ ത
ഉണ്ട ായത
ആരോപ ണങ്ങള
 മാധ്യമ ങ്ങളില
ജീവിത ത്തിൽ
അന ുകൂല
ീഡ ിപ്പിച്ച
കുറ ച്ച
ബല ാത്സംഗ
 എല്ല ാവർക്ക
 മൂല ്യ
ബാല ചന്ദ്ര
സിനിമ യില
യുപ ിയില
കമ്മ ിറ്റ
ഒട്ട േറെ 
9 3
ഇ ങ്ങനെ 
ഇ യാൾ
ഉ ച്ച
എ യർ
ക ം 
ക ോട്ടയം 
മ ില്ലാതെ 
വ ക
സ ച്ചിന
ാ ക്രമണ
ൂ ങ്ങ
ോ യില
ൗ ള
 ക ന്ന
 ക ിറ്റ
ിക്ക ണമെന്നാണ് 
പ്പ ാറ
 ച ൂട
 ബ ഹു
 ജ നുവര
മു യര
ണ്ണ ൂർ
മാക്ക ുന്ന
േക്ക ബ
 ഓ ഹര
 കേന്ദ്ര സർക്കാർ
ം സ മര
ട്ര ോൾ
ഭി മുഖ
 കഴിഞ്ഞ ിരുന്ന
ാക്കിയ ത്
 പരാ തിക്കാര
വിവര ങ്ങൾ
 തുടങ്ങിയ വ
പ്രവർത്ത കർ
 ബി ജെ പ ി 
 കാലാവസ്ഥ ാ
വട കര
 തെളിയ ിക്കുന്ന
ലക്ഷ്യമ ിടുന്നത
വന്  
ം വൈ ക
ഇല ക്ട്ര
  ള്ള
,  തിരുവനന്തപുരം 
ഭ ിന്ന
യ ട
വ േണ്ട
സ ീറ്റ് 
ാ .

ന്ന ാല
ക്ക ാട്ട
ില െത്തിയ
 പ ണമ
 ക  ര
 ക ച്ചവട
 എ ങ്ങനെ 
സ് മാന
ക്ക്  മുന്നില
പ്ര ളയ
ോട ് ക
സ്റ്റ ഡിയിൽ
ുര ക്ഷ
 ദ ൈവ
ഇത ൊരു
 പറയ ാൻ
ാത്ത ത്
 സാധ ിക്കുന്ന
അതേസമയ ം ത
 കോട ി 
ക്യ ാപ്റ്റന
 കേരള ത്തിന്
 ലക്ഷ ്മ
19 4
 വേ റെ 
 ധ രിക്ക
ലോക ത്തെ 
 രീ തി 
ി നേത ാവ് 
ുണ്ടായിരുന്ന ത
സ്വാ ഗത
എന്ത െങ്കില
മാധ്യമ പ്രവര
 പോലീസ ുകാര
ധികൃത ർ
 വൈക ീട്ട
വിശദ മായ
 ചെല വഴ
 ജോലി  ചെയ്യ
നുസര ിച്ച
 ശാ ന്ത
െ കണ്ടെത്ത ാന
 സിനിമയ ുടെ 
സാമൂഹ ്യ
 ടൂറ ിസം
  മായ
അ ബുദാബ
ത ാൽ
മ െടുത്ത
റ ീന
ി വി
ോ സിന
 വ ശ
 വ ാണ
ങ്ങ ുന്ന
റ്റ ിക്
െയ ുളള
 പ്ര തിയായ
വാ ങ്ങിയ
സി എ
ം ന ിന്ന
ാര്യ ങ്ങൾ
 ആര െങ്കില
െ അ ഞ്ച
ഭവ ന
യു മാണ് 
ടിയ േറ്റ
ക്യ ാമറ
 സ്വദേശ ികളായ
 അത ിൽ
ുന ല
 വേ ഗത
ം ച േർ
 ധ ൈര്യ
 തിരിച്ച െത്തിയ
 പ്രതീക്ഷ ിക്കുന്ന
ം ഏ ര
ഗ്രസിന െ 
 നയ തന്ത്ര
 ബു ദ്ധിമു
 പ്ല സ് 
ം കൊണ്ട ് 
 അസ ോസിയ
ഏഴ ് 
 ഡ്ര ൈ
 അന്തര ീക്ഷ
മഹാരാഷ്ട്ര യില
ായു ധ
ഡിസം ബര
ിസിപ്പ ാലിറ്റ
െഹ്ല ോട്ട
ം !

അ ഫ്ഗാന
ക യ
ഫ െ
ു  പോയ
െ ക
െ ഴുത
ർ  സ
ി  വിട
പ്പ ിസ
 എ ഫ
രാ മന
െ പ റ്റ
 യ ി ല
 പറഞ്ഞ ാല
ാൻ  കഴിഞ്ഞ
കു ഴ
ം പ ൊ
 ഫ ോറ
ശ് വന
ി സ െന്റ
ി വ െ
കൊ ള്ള
ട്ര േഷന
 രണ്ട ാമത്തെ 
ാണ് പ ുറത്ത
ഷ് കര
െ മ ോശ
 സർ വീസ് 
് ച ോദ
ഗണ േഷ
തെ ര
ദാന ന്തര
 തിരുവനന്തപുര ത്ത്
ം റ ദ്ദ
 ബൈ ഡ
 ജില്ലകളില ായി 
ുക എന്ന ത്
 പങ്കാള ിത്ത
 റി ക്രൂട്ട
 സീ താര
ികോ പ്റ്റ
  ഔദ്യ
h an
ഒ രാഴ്ച
റ ാണ് 
വ േയ
ീ ശ്വര
ു '
ർ ണ
്‍ ...

ത്ത ത
 പ ാന
ും :
ിക്ക ില്ലെന്ന
 ജ െ ഡ
ുമ ൊക്കെ 
സ്റ്റ ർ
ി ന ോക്ക
ഇത ോടൊപ്പ
ാള ില
ം ന േരത്തെ 
ാപ നില
ാണ് ഇ ത്തവണ
 ബിജെപ ി നേതാക്കള
 ആണ െന്ന്
 പദ്ധ തികൾ
 ചില ർ
സു ഹൃ
ധന മന്ത്ര
ഴ് സ
രിയ ാര
അതുകൊണ്ട ് തന്ന
താര ങ്ങള
 എസ്  പ
 പേ രു
രണ്ട്  ദിവസ
ഉപയോഗ ിച്ച് 
ഭാര്യ യ
 സി പ ി ഐ
ശ്വ സ്ത
 ഒഴിവ ുകള
 കനത്ത  മഴ
 മറുപടിയ ുമായി 
സബ ് വാര
7 00
ഗ ് പ
ത േട
ദ ് പ
ധ ിക്ക
മ മ്മൂട്ട
റ ോ
റ േഷന
ി ദ്ധര
ൂ യ
ന്ന ൂർ
്  .

്  സിങ
 പ ഴ
 പ ാണ്ഡ
 ക ാസർ
മാ ട
 വ ംശ
 മ ഞ്ഞ
സ് ജിദ
 ആ ത്
 ആ ക്ക
 ജ ോണ
 ഒ ളിവ
 നട ക്കാന
ിത ാവ് 
 ഗ ാന
ിയുടെ  പ്രതികരണ
 പേര െ 
േക്ക ുമെന്നാണ് 
ി എ ംഎല
െ ആ ശുപത്ര
വാഹ നങ്ങള
 മത്സര ാര
പേര ് 
 തിരിച്ച റിഞ്ഞ
 വ്യക്ത മാണ
പ്രദേശ ില
 ഇത്തര മൊരു
 ഇതിന ോടക
 അഭിപ്രായ പ്പെട്ട
സ്ഥല ത്ത്
ി കൊ ടുത്ത
