{"\n":0," ":1,"!":2,"\"":3,"#":4,"$":5,"%":6,"&":7,"'":8,"(":9,")":10,"*":11,"+":12,",":13,"-":14,".":15,"/":16,"0":17,"1":18,"2":19,"3":20,"4":21,"5":22,"6":23,"7":24,"8":25,"9":26,":":27,";":28,"<":29,"=":30,">":31,"?":32,"@":33,"A":34,"B":35,"C":36,"D":37,"E":38,"F":39,"G":40,"H":41,"I":42,"J":43,"K":44,"L":45,"M":46,"N":47,"O":48,"P":49,"Q":50,"R":51,"S":52,"T":53,"U":54,"V":55,"W":56,"X":57,"Y":58,"Z":59,"[":60,"\\":61,"]":62,"^":63,"_":64,"`":65,"a":66,"b":67,"c":68,"d":69,"e":70,"f":71,"g":72,"h":73,"i":74,"j":75,"k":76,"l":77,"m":78,"n":79,"o":80,"p":81,"q":82,"r":83,"s":84,"t":85,"u":86,"v":87,"w":88,"x":89,"y":90,"z":91,"{":92,"}":93,"":94,"¡":95,"£":96,"¤":97,"§":98,"¨":99,"©":100,"­":101,"®":102,"°":103,"±":104,"²":105,"³":106,"µ":107,"·":108,"¸":109,"¹":110,"º":111,"¼":112,"½":113,"¿":114,"À":115,"Á":116,"Ä":117,"Å":118,"Ç":119,"È":120,"É":121,"Í":122,"Î":123,"Ð":124,"Ò":125,"Ó":126,"Ô":127,"Ö":128,"×":129,"Ø":130,"Ú":131,"Ü":132,"ß":133,"à":134,"á":135,"â":136,"ã":137,"ä":138,"å":139,"ç":140,"è":141,"é":142,"ê":143,"ë":144,"ì":145,"í":146,"î":147,"ï":148,"ð":149,"ñ":150,"ò":151,"ó":152,"ô":153,"õ":154,"ö":155,"ø":156,"ù":157,"ú":158,"û":159,"ü":160,"ý":161,"ā":162,"ă":163,"ą":164,"Ć":165,"ć":166,"ĉ":167,"Č":168,"č":169,"Ď":170,"Đ":171,"đ":172,"ē":173,"ė":174,"ę":175,"ě":176,"ğ":177,"İ":178,"ı":179,"ľ":180,"Ł":181,"ł":182,"ń":183,"ň":184,"ō":185,"ő":186,"ř":187,"Ś":188,"ś":189,"Ş":190,"ş":191,"Š":192,"š":193,"ţ":194,"ū":195,"ů":196,"ź":197,"ż":198,"Ž":199,"ž":200,"Ƙ":201,"ȃ":202,"ȉ":203,"ȑ":204,"ȗ":205,"ș":206,"ț":207,"ə":208,"˚":209,"˝":210,"́":211,"̌":212,"̣":213,"Ω":214,"έ":215,"ή":216,"α":217,"δ":218,"μ":219,"ο":220,"π":221,"ρ":222,"ς":223,"τ":224,"υ":225,"χ":226,"ω":227,"ό":228,"К":229,"а":230,"е":231,"л":232,"н":233,"о":234,"ь":235,"і":236,"ј":237,"Ґ":238,"ӣ":239,"ӧ":240,"ི":241,"ྀ":242,"ᵉ":243,"ᵒ":244,"ᵛ":245,"ᵤ":246,"ᵧ":247,"ᶫ":248,"ṓ":249,"ṣ":250,"ọ":251,"ố":252,"ἀ":253,"‍":254,"‎":255,"‐":256,"‑":257,"‒":258,"―":259,"‖":260,"‟":261,"•":262,"‰":263,"′":264,"″":265,"‼":266,"⁄":267,"⁠":268,"⁰":269,"₂":270,"ₒ":271,"€":272,"™":273,"↑":274,"⇒":275,"−":276,"∶":277,"⏱":278,"■":279,"▪":280,"▶":281,"►":282,"○":283,"●":284,"☀":285,"☃":286,"☑":287,"☘":288,"☺":289,"♀":290,"♡":291,"♥":292,"♦":293,"♬":294,"⚠":295,"⚤":296,"⚫":297,"⚽":298,"✓":299,"✔":300,"✠":301,"✨":302,"❄":303,"❤":304,"シ":305,"传":306,"多":307,"陈":308,"":309,"":310,"ﬁ":311,"️":312,"🇦":313,"🇧":314,"🇫":315,"🇬":316,"🇭":317,"🇮":318,"🇱":319,"🇵":320,"🇷":321,"🇸":322,"🇺":323,"🇾":324,"🌋":325,"🌐":326,"🌠":327,"🌧":328,"🌨":329,"🌸":330,"🌺":331,"🌻":332,"🍉":333,"🍊":334,"🎀":335,"🎁":336,"🎗":337,"🏡":338,"🏻":339,"🐄":340,"🐥":341,"🐦":342,"🐱":343,"🐶":344,"👀":345,"👁":346,"👇":347,"👣":348,"👶":349,"💅":350,"💋":351,"💎":352,"💕":353,"💘":354,"💙":355,"💚":356,"💟":357,"💪":358,"💯":359,"📌":360,"📢":361,"📱":362,"📸":363,"🔄":364,"🔥":365,"🔹":366,"🕓":367,"🕷":368,"🕸":369,"🖥":370,"😀":371,"😁":372,"😂":373,"😅":374,"😉":375,"😊":376,"😍":377,"😎":378,"😏":379,"😬":380,"😭":381,"🙂":382,"🙌":383,"🙏":384,"🛁":385,"🟡":386,"🟨":387,"🤍":388,"🤔":389,"🤢":390,"🤦":391,"🤩":392,"🤪":393,"🤯":394,"🥚":395,"🥥":396,"🥰":397,"🥲":398,"🥹":399,"🥺":400,"🦟":401,"🩹":402,"🩺":403,"🪐":404,"🫒":405,"🫠":406,"🫶":407,"a ":408,"e ":409,"i ":410,"o ":411,"u ":412,"je":413,"je ":414,"ra":415,", ":416,"st":417,".\n":418,"ko":419,"ni":420,"na":421,"re":422,"po":423,"ro":424,"m ":425,"ri":426,"an":427,"od":428,"na ":429,"li":430,"no":431,"vi":432,"va":433,"ka":434,"ti":435,"te":436,"la":437,"vo":438,"da ":439,"ja":440,"ca":441,"ne":442,"ta":443,"ma":444,"bi":445,"ci":446,"ti ":447,"sk":448,"li ":449,"za":450,"en":451,"do":452,"se ":453,"ja ":454,"di":455,"ne ":456,"la ":457,"mo":458,"ve":459,"ko ":460,"g ":461,"lj":462,"ma ":463,"h ":464,"iz":465,"sa":466,"lo":467,"ru":468,"mi":469,"pro":470,"no ":471,"su ":472,"to":473,"pre":474,"ju ":475,"da":476,"sta":477,"s ":478,"za ":479,"to ":480,"go":481,"pri":482,"j ":483,"k ":484,"ron":485,"in":486,"le":487,"caron":488,"me":489,"caron;":490,"bo":491,"jed":492,"ji ":493,"pa":494,"te ":495,"ji":496,"r ":497,"si":498,"mo ":499,"va ":500,"ka ":501,"ni ":502,"t ":503,"su":504,"gra":505,"sti":506,"d ":507,"lu":508,"od ":509,"se":510,"zi":511,"n ":512,"o je ":513,"odi":514,"će ":515,"ve ":516,"pi":517,"pu":518,"če":519,"ku":520,"ra ":521,"ba":522,"sko":523,", a ":524,"či":525,"cu":526,"lje":527,"ju":528,"de":529,"ob":530,"tu":531,"&c":532,"nu":533,"&ccaron;":534,"an ":535,"ga":536,"ta ":537,"godi":538,"što ":539,"lo ":540,"mje":541,". ":542,"vr":543,"vje":544,"koji ":545,"ži":546,"nje":547,"ga ":548,"van":549,"cute":550,"ca ":551,"cacute":552,"&cacute":553,"ke ":554,"jo":555,"sto":556,"\",":557,"du":558,"tre":559,"pra":560,"pe":561,"&cacute;":562,"ć ":563,"ki":564,"- ":565,"ča":566,"vi ":567,"rva":568,"nih ":569,"dru":570,"lju":571,"nu ":572,"vo ":573,"svo":574,"nije ":575,"gu":576,"zna":577,"raz":578,"or":579,"nom ":580,"ku ":581,"ce":582,"dje":583,"ci ":584,"z ":585,"nog ":586,"le ":587,"&z":588,"kako ":589,"&zcaron;":590,"ći ":591,"bi ":592,"os":593,"tra":594,"tsk":595,"v ":596,"iz ":597,"ža":598,"ri ":599,": ":600,"nost":601,"20":602,"ih ":603,"kao ":604,"še ":605,"Ma":606,"že":607,"nim ":608,"da je ":609,"be":610,"ša":611,"nji":612,"fi":613,"me ":614,"naj":615,"pos":616," =":617," =>":618,"stra":619,"ce ":620,"do ":621,", a":622,"š ":623,"sam ":624,"rije":625,"vije":626,"men":627,"gi":628,"pr":629,"lja":630,"gla":631,"ši":632,"kra":633,"lji":634,"tu ":635,"će":636,"ze":637,"pred":638,"Na":639,"ki ":640,"U ":641,"sa ":642,"kon ":643,"ho":644,"stu":645,"spo":646,"kom ":647,"dr":648,"bu":649,"ima":650,"govo":651,"Za":652,"Hrva":653,", ali ":654,"di ":655,"ske ":656,"smo ":657,"vod":658,"ski ":659,"še":660,"la je ":661,"Ka":662,"že ":663,"Po":664,"so":665,"vu ":666,"mu ":667,"anje ":668,"nje ":669,"l ":670,"biti ":671,"cije":672,"zo":673,"pla":674,"ke":675,"pa ":676,"ano":677,"koje ":678,"jedni":679,"tak":680," [":681,"de ":682,"ana ":683,"ot":684,"stav":685,"bro":686,"mu":687,"Mi":688,"kon":689,"više ":690,"nja":691,"ća ":692,"koja ":693,"im ":694,"m, ":695,"ili ":696,"oda":697,"ar":698,"nja ":699,"cija ":700,"sni":701,"skog ":702,"sre":703,"sve ":704,"on":705,"da se ":706,"bio ":707,"nakon ":708,"ge":709,"kri":710,"tvr":711,"ća":712,"i po":713,"\" ":714,"gle":715,"st ":716,"c ":717,"00":718,"slu":719,"eu":720,"re ":721,"\"\",":722,"lje ":723,"ma.\n":724,"ru ":725,"sti ":726,"\":":727,"al":728,"gu ":729,"telj":730,"lja ":731,"ma, ":732,"dra":733,"kre":734,"\":\"":735,"cije ":736,"is":737,"tro":738,"tje":739,"tiv":740,"ven":741,"cija":742,"sto ":743,"jem ":744,"je po":745,"noj ":746,"vla":747,"er":748,"ču":749,"jer ":750,"lu ":751,"i o":752,"sli":753,", po":754,"igra":755,"mi ":756,"man":757,"zbo":758,"tni":759,"zu":760,"ska ":761,"je u ":762,"gre":763,"koli":764,"m.\n":765,"pje":766,"du ":767,"stro":768,"po ":769," po":770,"obi":771,"je.\n":772,"fe":773,"sla":774,"op":775,"još ":776,"stva":777,"ge ":778,"joj ":779,"li su ":780,"veli":781,"cu ":782,"sje":783,"Hrvatsk":784,"št":785,"samo ":786,"ran":787,"nosti ":788,"..":789,"ba ":790,"go ":791,"nost ":792,"đen":793,"lije":794,"Ne":795,"na, ":796,"au":797,"skom ":798,"đe":799,"drža":800,"vre":801,"ći":802,"vom ":803,"bli":804,"zbog ":805,"dio ":806,"na.\n":807,"jav":808,"anja ":809,"sjedni":810,"godine ":811,"osta":812,"je, ":813,"27":814,"ona":815,"ako ":816,"bra":817,"poli":818,"javi":819,"šte":820,"tno ":821,"pli":822,"kovi":823,"us":824,"ste ":825,"202":826,") ":827,"čin":828,"hi":829,"svi":830,"tom ":831,"?\n":832,"što je ":833,"19":834,"mije":835,"hva":836,"međ":837,"br":838,"sku":839,"nos":840,"Bi":841,"ak":842,"tr":843,"sigu":844,"Ra":845,"nik ":846,"nas ":847,"jedi":848,"laz":849,"u ko":850,"klju":851,"vra":852,"ha":853,"kaza":854,"10":855,"u po":856,"sva":857,"sta ":858,"ima ":859,"kad ":860,"skoj ":861,"bila ":862,"k;":863,"dje ":864,"strok;":865,"hrva":866,"takmi":867,"Re":868,"Sa":869,"dstrok;":870,"&cacute;e ":871,"&dstrok;":872,", u":873,"ti.\n":874,"Ni":875,"koji je ":876,"i u ":877,"nici ":878,"skih ":879,"koliko ":880,"Da":881,"i u":882,"živo":883,"vu":884,"tije":885,"Mo":886,"ško":887,"doda":888,"đa":889,"bilo ":890,"jp":891,".jp":892,"predsjedni":893,"vanje ":894,"rek":895,"dok ":896,"već ":897,"ije":898,"svoji":899,"stup":900,"utakmi":901,"Eu":902,"njego":903,"en ":904,"he":905,"tko ":906,"na po":907,"lan":908,"novi":909,"Do":910,".jpg":911,"nika ":912,"No":913,"ne.\n":914,"40":915,"ne, ":916,"par":917,"&ccaron;e":918,"Ko":919,"rop":920,"izbo":921,"godiš":922,"Me":923,"ću ":924,"Pre":925,"Di":926,"da su ":927,"Na ":928,"prema ":929,"može ":930,"žu":931,"dije":932,"rad":933,"tič":934,"ra.\n":935,"for":936,"č ":937,"reka":938,"slo":939,"vno ":940,"prije ":941,"jedan ":942,"šti":943,"radi":944,"ka, ":945,"ciju ":946,"tako ":947,"inte":948,"stavi":949,"naš":950,"vanja ":951,"ka.\n":952,"či ":953,"nju ":954,"stru":955,"odlu":956,"vog ":957,"y ":958,"vati ":959,"put ":960,"fina":961,"tiv ":962,"nji ":963,", o":964,"ljed":965,"tak ":966,"Ve":967,"mogu":968,"treba":969,"gleda":970,"gdje ":971,"&ccaron;i":972,"kori":973,"12":974,"t će ":975,"met":976,"\".\n":977,"Pe":978,"ma i ":979,"čko":980,"da će ":981,"Bo":982,"rati ":983,"klu":984,"stan":985,"A ":986,"pozna":987,"fo":988,"mla":989,"sve":990,"Ha":991,"bje":992,"Zagre":993,"vrije":994,"protiv ":995,"Pa":996,"Ja":997,"onal":998,"ć, ":999,"cij":1000,"rekao je ":1001,"kup":1002,"be ":1003,"ja.\n":1004,"god":1005,"osob":1006,"nam ":1007,"nica ":1008,"om ":1009,"vez":1010,"o u ":1011,"ta.\n":1012,"njiho":1013,"svje":1014,"mili":1015,"dana ":1016,"je o":1017,"uz ":1018,"ju.\n":1019,"d]":1020,"jući ":1021,"ra, ":1022,"!\n":1023,"ble":1024,"ja, ":1025,"Ba":1026,"zem":1027,"jek":1028,"Pro":1029,"minu":1030,"Pri":1031,"),":1032,"-a ":1033,"I ":1034,"Vi":1035,"ši ":1036,"tri":1037,"če ":1038,"el":1039,"gi ":1040,"An":1041,"nosti":1042,"je u":1043,"prav":1044,"žen":1045,"auto":1046,"tri ":1047,"pisa":1048,"je i ":1049,"hrvatsk":1050,"Ta":1051," (":1052,"bez ":1053,"kih ":1054,"voj":1055,"kan":1056,"koji su ":1057,"telji":1058,"Hrvat":1059,"jima ":1060,"mogu ":1061,"ste":1062,"jom ":1063,"dva ":1064,"iza":1065,"ren":1066,"među ":1067,"mora":1068,"Va":1069,"bri":1070,"tan":1071,"Je":1072,"pravi":1073,"nego ":1074,"oko ":1075,"Li":1076,"skim ":1077,"prije":1078,"Du":1079,"ča ":1080,"zdra":1081,"ova":1082,"nisu ":1083,"mog":1084,"Mar":1085,"dar":1086,"čki ":1087,"njih ":1088,"trenu":1089,"šta":1090,"Jo":1091,"ć.\n":1092,"vih ":1093,"bili ":1094,"uz":1095,"bod":1096,"kim ":1097,"čno ":1098,"mini":1099,"&zcaron;i":1100,"sigur":1101,"jte ":1102,"svije":1103,"tvo":1104,"ciji ":1105,"šta ":1106,"lo je ":1107,"svoje ":1108,"publi":1109,"k, ":1110,"godina ":1111,"dvo":1112,"den":1113,"cima ":1114,"u.\n":1115,"meta":1116," i ":1117,"puno ":1118,"lano":1119,"voj ":1120,"odr":1121,"tira":1122,"poče":1123,"kro":1124,"čke ":1125,"sezo":1126,"tem":1127,"zra":1128,"un":1129,"ju, ":1130,"napa":1131,"pan":1132,"sku ":1133,"društ":1134,"len":1135,"mjese":1136,"stva ":1137,"stvo ":1138,"rom ":1139,"i na ":1140,"tim ":1141,"proble":1142,"cen":1143,"Ru":1144,"Be":1145,"tar":1146,"prili":1147,"kva":1148,"medi":1149,"30":1150,"ti, ":1151,"rav":1152,"nice ":1153,"To":1154,"nije":1155,"inu ":1156,"jan":1157,"sr":1158,"no, ":1159,"vić ":1160,"šen":1161,"dan ":1162,"i za":1163,"oz":1164,"pravo ":1165,"la.\n":1166,"obra":1167," eu":1168,"i na":1169,"ver":1170,"...\n":1171,"ti u ":1172,"15":1173,"&ccaron;a":1174,"vodi":1175,"proš":1176,"volj":1177,"govori":1178,"mno":1179,"u, ":1180,"dese":1181,"pot":1182,"mr":1183," sa":1184,"ove ":1185,"kod ":1186,"ini ":1187,"vijek ":1188,"sna":1189,"lek":1190,"bu ":1191,"vrijeme ":1192,"dan":1193,"oba":1194,"vim ":1195,"uspje":1196,"toga ":1197,"ta, ":1198,"lju ":1199,"por":1200,"kako bi ":1201,"Su":1202,"ben":1203,"Dina":1204,"nekoliko ":1205,"Ju":1206,"fa":1207,"ša ":1208,"ner":1209,"proiz":1210,"rod":1211,"prija":1212,"ran ":1213,"čen":1214,"kaz":1215,"najbo":1216,"pru":1217,"seb":1218,"vaju ":1219,"spor":1220,"-a":1221,"pod":1222,"otkri":1223,"80":1224,"kada ":1225,"vni ":1226,"je na ":1227,"rijed":1228,"je za":1229,"pet ":1230,"miliju":1231,"gani":1232,"nogo":1233,"In":1234,"ter":1235,"tra ":1236,", u ":1237,"uči":1238,"Europ":1239,"koju ":1240,"kom":1241,"ljudi ":1242,"cr":1243,"tka ":1244,"se u ":1245,"Bu":1246,"meri":1247,"tako":1248,"vara":1249,"važ":1250,"pozi":1251,"va.\n":1252,"la u ":1253,"ti na ":1254,"dio":1255,"li smo ":1256,"osje":1257,"ćen":1258,"zul":1259,"th":1260,"p ":1261,"ca.\n":1262,"lom ":1263,"Lu":1264,"dvi":1265,"in ":1266,"služ":1267,"ca, ":1268,"ime":1269,"grad":1270,"gro":1271,"Nakon ":1272,"la, ":1273,"gen":1274,"projek":1275,"prez":1276,"Rije":1277,"o na ":1278,"tijekom ":1279,"o i ":1280,"tne ":1281,"je na":1282,"vreme":1283,"van ":1284,"kar":1285,"kr":1286,"zira":1287,"S ":1288,"lno ":1289,"niti ":1290,"hra":1291,"Go":1292,"je do":1293,"Gra":1294,"jih ":1295,"Nje":1296,"prvi ":1297,"istra":1298,"log ":1299,"&zcaron;e":1300,"zdrav":1301,"sada ":1302,"O ":1303,"na i ":1304,"Mari":1305,"đu":1306,"nešto ":1307,"ali":1308,"spe":1309,"k.\n":1310,"201":1311,"potre":1312,"malo ":1313,"pomo":1314,"enta":1315,"u S":1316,"organi":1317,"red":1318,"risti":1319,"Vla":1320,"manje ":1321,"&cacute; ":1322,"zavr":1323,"u o":1324,"čak ":1325,"danas ":1326,"' ":1327,"cional":1328,"kru":1329,"stri":1330,"vima ":1331,"spa":1332,"kin":1333,"ni.\n":1334,"Pu":1335,"star":1336,"va, ":1337,"on ":1338,"nov":1339,"poslo":1340,"knu":1341,"50":1342,"rezul":1343,"b ":1344,"drugo":1345,"prote":1346,"vozi":1347,"vam ":1348,"teš":1349,"ćemo ":1350,"si ":1351,"nedje":1352,"vni":1353,". godi":1354,"kako je ":1355,"no.\n":1356,"doga":1357,"jedna ":1358,"ig":1359,"jedno ":1360,"tur":1361,"&zcaron;a":1362,": \"":1363,"treba ":1364,"bor":1365,"poru":1366,"telji ":1367,"11":1368,"dob":1369,"nosi":1370,"nira":1371,"dovolj":1372,"već":1373,"jdu":1374,", na":1375,"mjesto ":1376,"&cacute;e":1377,": '":1378,"tua":1379,"goto":1380,"kul":1381,"izra":1382,"fil":1383,"t.\n":1384,"vao ":1385,"plo":1386,"isto":1387,"ti i ":1388,"tio ":1389,"pred ":1390,"gao ":1391,"nema ":1392,"nama ":1393,"tku ":1394,"vjero":1395,"obja":1396,"forma":1397,"to je ":1398,"može":1399,"vremen":1400,"tome ":1401,"ni, ":1402,"prezenta":1403,"objavi":1404,"o.\n":1405,"kraj":1406,"kuša":1407,"uze":1408,"otvo":1409,"vija":1410,"sno ":1411,"druč":1412,"Le":1413,"kak":1414,"djelo":1415,"mre":1416,"vši ":1417,"doma":1418,"ur":1419,"posta":1420,"milijuna ":1421,"stu ":1422,"dobi":1423,"Za ":1424,"na je ":1425,"Se":1426,"više od ":1427,"dvije ":1428,"rezulta":1429,"ras":1430,"đer ":1431,"lne ":1432,"272":1433,"posto":1434,"Te":1435,"tiri ":1436,"koja je ":1437,"imaju ":1438,"Hajdu":1439,"co":1440,").\n":1441,"se na":1442,"razli":1443,"predstav":1444,"sluča":1445,"da bi ":1446,"se po":1447,"pera":1448,"taj ":1449,"rekao ":1450,"odnos":1451,"posljed":1452,"krenu":1453,"uvijek ":1454,"druge ":1455,"oče":1456,"&cacute;i ":1457,"kla":1458,"mod":1459,"la i ":1460,"jim ":1461,"situa":1462,"La":1463,"kli":1464,"misli":1465,"loka":1466,"Ne ":1467,"Kako ":1468,"14":1469,"između ":1470,"rbi":1471,"ce, ":1472,"-godiš":1473,"teri":1474,"t, ":1475,"prosto":1476,"dom ":1477,"reprezenta":1478,"dola":1479,"pani":1480,"De":1481,"svi ":1482,"smje":1483,"kvali":1484,"vodi ":1485,"'\n":1486,"kaže ":1487,"li u ":1488,"vrlo ":1489,"18":1490,"nim":1491,"glav":1492,"svojim ":1493,"isti":1494,"Lo":1495,"tere":1496,"Au":1497,"natje":1498,"svoj ":1499,"telj ":1500,"kroz ":1501,"',":1502,"grafi":1503,"čka ":1504,"nici":1505,"predsjednik ":1506,"16":1507,"svoju ":1508,"broj":1509,"čel":1510,"titi ":1511,"271":1512,"sma":1513,"Ako ":1514,"san":1515,"progra":1516,"ten":1517,"jako ":1518,"tar ":1519,"pak ":1520,"kog ":1521,"nad":1522,"Si":1523,"čan":1524," posto ":1525,"ce.\n":1526,"radi ":1527,"bije":1528,"Osi":1529,"o po":1530,"Ga":1531,"ch":1532,"vlje":1533,"pad":1534,"Hrvatska ":1535,"dalje ":1536,"lim ":1537,"četvr":1538,".,":1539,"stvo":1540,"raž":1541,"tni ":1542,"jednom ":1543,"sad ":1544,"13":1545,"cje":1546,"ku.\n":1547,"ke.\n":1548,"čkog ":1549,"nima ":1550,"što se ":1551,"govor":1552,"kao i ":1553,"kandi":1554,"Fi":1555,"na ko":1556,"mom":1557,"dre":1558,"su se ":1559,"jeg ":1560,"lar":1561,"gotovo ":1562,"staknu":1563,"da, ":1564,"uvje":1565,"samo":1566,"pit":1567,"na o":1568,"bro ":1569,"ne i ":1570,"novi ":1571,"vala ":1572,"njem ":1573,"sko ":1574,"također ":1575,"glu":1576,"smi":1577,"tih ":1578,"prven":1579,"ek":1580,"it":1581,"tin":1582,"Ima":1583,"stano":1584,"pusti":1585,"17":1586,"neće ":1587,"dogodi":1588,"per":1589,"Spli":1590,"tu.\n":1591,"tima ":1592,"odno":1593,"Pr":1594,"čne ":1595,"ide":1596,"ković ":1597,"umje":1598,"HD":1599,"000":1600,"mobi":1601,"vin":1602,"tali":1603,"tori":1604,"vo je ":1605,"održa":1606,"vidje":1607,"na u ":1608,"žu ":1609,"pob":1610,"ke, ":1611,":\n":1612,"prva":1613,"glaz":1614,"una":1615,"vanju ":1616," milijuna ":1617,"tog ":1618,"&zcaron;e ":1619,"koji se ":1620,"128":1621,"tisu":1622,"lji ":1623,"će se ":1624,"komen":1625,"raču":1626,"ga, ":1627,"sred":1628,"europ":1629," na":1630,"vrijed":1631,"102":1632,". godine ":1633,"finan":1634,"220":1635,"e, ":1636,"rin":1637,"glasi":1638,"koje su ":1639,"To ":1640,"budu":1641,"rje":1642," rekao je ":1643,"zajedni":1644,"Ku":1645,"proizvod":1646,"kandida":1647,"pe ":1648,"ži ":1649,"četiri ":1650,"nosi ":1651,"480":1652,"da.\n":1653,"miš":1654,"340":1655,"je bio ":1656,"Ro":1657,"način":1658,"200":1659,"640":1660,"e.\n":1661,"ji.\n":1662,"obzi":1663,"lag":1664,"Naj":1665,"ra i ":1666,"prem":1667,"HDZ":1668,"jedno":1669,"telja ":1670,"Fran":1671,"istaknu":1672,"o, ":1673,"nali":1674,"vjeroja":1675,"odnosno ":1676,"lop":1677,"mpi":1678,"u u":1679,"nio ":1680,"r.\n":1681,"tskog ":1682,"ener":1683,"li, ":1684,"ted]":1685,"proda":1686,"Hrvatske ":1687,"susta":1688,"zašti":1689,"držav":1690,"regi":1691,"se na ":1692,"foto":1693,"tor ":1694,"skoj":1695,"šao ":1696,"dne":1697,"neki ":1698,"primje":1699,"rodi":1700,"susre":1701,"mu je ":1702,"r, ":1703,"ID":1704,"uda":1705,"kazu":1706,"što su ":1707,"Ar":1708,"Ivan":1709,"dobro ":1710,"najve":1711,"pita":1712,"promje":1713,"niji ":1714,"li.\n":1715,"ji, ":1716,"raždi":1717,"s.\n":1718,"Varaždi":1719,"Ca":1720,"grado":1721,"DP":1722,"part":1723,"piše ":1724,"Euro":1725,"trene":1726,"no je ":1727,"lan ":1728,"teh":1729,"broj ":1730," ([":1731,"pora":1732,"ma u ":1733,"stran":1734,"sin":1735,"ct":1736,"inter":1737,"ved":1738,"izvo":1739,"Tu":1740,"protec":1741,"protected]":1742,":protected]":1743,"logi":1744,"đi":1745,"liko ":1746,"nove ":1747,"sek":1748,"ani ":1749,"informa":1750,"ka i ":1751,"lazi ":1752,"ljudi":1753,"s, ":1754,"vali ":1755,"pod ":1756,"24":1757,"loš":1758,"sman":1759,"To je ":1760,"25":1761,"Iz":1762,"kada je ":1763,"tek":1764,"zi ":1765,"tke ":1766,"ra u ":1767,"napravi":1768,"Al":1769,"puta ":1770,"preko ":1771,"riti ":1772,"svim ":1773,"ksi":1774,"ljuba":1775,"odre":1776,"ku, ":1777,"26":1778,"utje":1779,"ga je ":1780,"bio je ":1781,"Vo":1782,"ovje":1783,"ss ":1784,"ro ":1785,"drugi ":1786,"doš":1787,"te.\n":1788,"va i ":1789,"tu, ":1790," u ":1791,"viso":1792,"stig":1793,"brz":1794,"Ti":1795,"na u":1796,"as":1797,"muš":1798,"ski":1799,"sum":1800,"poseb":1801,"čkih ":1802,"aktiv":1803,"odu":1804,"govara":1805,"svih ":1806,"htje":1807,"mp":1808,"onda ":1809,"politi":1810,"miro":1811,"Milano":1812,"la na ":1813,"veče":1814,"oj ":1815,"Tre":1816,"Hrvatskoj ":1817,"ća, ":1818,"moguć":1819,"njezi":1820,"tek ":1821,"posje":1822,", ali i ":1823,"...":1824,"Ši":1825,"tru":1826,"misi":1827,"događa":1828,"sigura":1829,"govor ":1830,"bol":1831,"lin":1832,"gori":1833,"dam ":1834,"liš":1835,"mi je ":1836,"ulo":1837,"oni ":1838,"konce":1839,"srp":1840,"odluči":1841,"šu":1842,"zu ":1843,"dro":1844,"kvalite":1845,"pp":1846,"lni ":1847,"tran":1848," - ":1849,"nesre":1850,"prona":1851,"zaklju":1852,"slobod":1853,"anju ":1854,"nova":1855,"tan ":1856,"ure":1857,"zor":1858,"stve":1859,"kupi":1860,"organiza":1861,"oto":1862,"Plen":1863,"rno ":1864,"Obje":1865,"Njema":1866,"ja i ":1867,"mora ":1868," posto":1869,"društve":1870,"čkom ":1871,"ljem ":1872,"teme":1873,"ameri":1874,"ci.\n":1875,"vlja":1876,"supru":1877,"isk":1878,"pozo":1879,"tnih ":1880,"mo, ":1881,"otvore":1882,"ovaj ":1883,"momča":1884,"gospo":1885,"Object":1886,"rima ":1887,"cije.\n":1888,"fotografi":1889,"te, ":1890,"maj":1891,"Od":1892,"Dra":1893," godina ":1894,"Pod":1895,"VID":1896,"item":1897,"ovi":1898,"voza":1899,"uklju":1900,"nad ":1901,"21":1902,"zatvo":1903,"ta i ":1904,"izgu":1905,"nu.\n":1906,"Vu":1907,"vne ":1908,"vas ":1909,"mogao ":1910,"pripre":1911,"ane ":1912,"surad":1913,"njeg ":1914,"izbor":1915,"stven":1916,"tna ":1917," godi":1918,"građ":1919,"ga.\n":1920,"imati ":1921,"sredi":1922,"Slo":1923,"odma":1924,"da u ":1925,"drugi":1926,"li i ":1927,"Sve ":1928,"ve.\n":1929,"ci, ":1930,"Iako ":1931,"Op":1932,"rak ":1933,"klo":1934,"bilj":1935,"lazi":1936,"skupi":1937,"čita":1938,"mir ":1939," a ":1940,"kojeg ":1941,"panjo":1942,"dri":1943,"ju i ":1944,"politič":1945,"tor":1946,"priča":1947,"čni ":1948,"u kojem ":1949,"karije":1950,"razi":1951,"Dubro":1952,"Tru":1953,"se i ":1954,"tski ":1955,"svom ":1956,"cira":1957,"rado":1958,"odje":1959,"direk":1960,"le su ":1961,"cama ":1962,"com ":1963,"prome":1964,"baš ":1965,"ru.\n":1966,"smr":1967,"skup":1968,"je za ":1969,"đa ":1970,"&cacute;a":1971,"kara":1972,"zahva":1973,"zad":1974,"-o":1975,"daš":1976,"le, ":1977,"Pi":1978,"nika":1979,"nicu ":1980,"lj ":1981,"stoji ":1982,"ogra":1983,"Ho":1984,"je to ":1985,"kav ":1986,"pjes":1987,"kraju ":1988,"gru":1989,"subo":1990,"vlasni":1991,"VIDE":1992,"u kojoj ":1993,"Cla":1994,"o sam ":1995,"pove":1996,"stre":1997,"nija ":1998,"načel":1999,"knji":2000,"Mini":2001,"neke ":2002,"Od ":2003,"hu":2004,"Lju":2005,"isku":2006,"m i ":2007,"vijesti":2008,"navija":2009,"E ":2010,"vlasti":2011,"ve, ":2012,"struk":2013,"jemo ":2014,"nova ":2015,"ple":2016,"ban":2017,"vode ":2018,"turi":2019,"&cacute;a ":2020,"c.\n":2021,"radio ":2022,"prizna":2023,"pokuša":2024,"poput ":2025,"traži":2026,"mladi":2027,"istraži":2028,"govi":2029,"f ":2030,"raspo":2031,"pore":2032,"panjol":2033,"nu, ":2034,"dok je ":2035,"dobro":2036,"RT":2037,"nastu":2038,"područ":2039,"nera":2040,"vrh":2041,"osvoji":2042,"el ":2043,". minu":2044,"unu":2045," \"":2046,"laze ":2047,"lio ":2048,"va u ":2049,"So":2050,"će biti ":2051,"baci":2052,"javlje":2053,"intere":2054,"name":2055,"man ":2056,"nogomet":2057,"ca i ":2058,"kojima ":2059,"23":2060,"razu":2061,"ska":2062,"vide":2063,"inu":2064,"šest ":2065,"li na ":2066,"elek":2067,"il":2068,"jednu ":2069,"spek":2070,"tske ":2071,"čkoj ":2072,"novina":2073,"obo":2074,"Poli":2075,"tvrdi":2076,"duž":2077,"bih ":2078,"ta u ":2079,"drš":2080,"ća.\n":2081,"jedan od ":2082,"čaj":2083,"stvari":2084,"dugo":2085,"Co":2086,"poda":2087,"lip":2088,"limpi":2089,"Među":2090,"ljede":2091,"i ne":2092,"Fa":2093,"ovog ":2094,"h, ":2095,"up":2096,"te u ":2097,"vizi":2098,"ćem ":2099,"Dinamo ":2100,"završi":2101,"AD":2102,"tele":2103,"sudjelo":2104,"i to ":2105,"mor":2106,", a u ":2107,"mož":2108,"Prema ":2109,"zak ":2110,"c, ":2111,"tkom ":2112,"kako se ":2113,"ze ":2114,"ovo ":2115,"vjetni":2116,"nosti.\n":2117,"imao ":2118,"Cr":2119,"jske ":2120,"nisam ":2121,"nagra":2122,"pobjed":2123,"više":2124,"kazne":2125,"k_":2126,"bole":2127,"tnu ":2128,"stvu ":2129,"su na ":2130,"osoba ":2131,"n je ":2132,"često ":2133,"utakmice ":2134,"đe ":2135,"28":2136,"Ki":2137,"na za ":2138,"ra na ":2139,"Rusi":2140,"novno ":2141,"Dr":2142,"prove":2143," st":2144,"tim, ":2145,"vlada":2146,"100":2147,"stavlja":2148,"osjeća":2149,"90":2150,"Srbi":2151,"lovi":2152,"pokaza":2153,"id]":2154,"LE":2155,"Sla":2156,"dCla":2157,"ss Object":2158,"dClass Object":2159,"sne ":2160,"oti":2161,"cu.\n":2162,"potreb":2163,"kontro":2164,"optu":2165,"redo":2166,"njegov ":2167,"da i ":2168," stdClass Object":2169,"sprem":2170,"ispo":2171,"Što ":2172,"njim ":2173,"trži":2174,"sira":2175,"staviti ":2176,"Izra":2177,"vaj ":2178,"rekla je ":2179,"čovje":2180,"koj ":2181,") [":2182,"22":2183,"lnih ":2184,"g, ":2185,"mjesta ":2186,"osigura":2187,"kolo":2188,"natjec":2189,"nin":2190,"stari":2191,"gor":2192,"gova":2193,"krajin":2194,"o_":2195,"ov":2196,"che":2197,"NA":2198,"Ri":2199,"h_":2200,"K ":2201,"PO":2202,"sni ":2203,"Kad ":2204,"pp_":2205,"ništa ":2206,"ma, a ":2207,"bude ":2208,"način ":2209,"ću":2210,"snije ":2211,"bora":2212,"Veli":2213,"promet":2214,"jski ":2215,"veliki ":2216,"pitanje ":2217,"ne bi ":2218,"Dru":2219,"eki":2220,"re.\n":2221,"čnja":2222,"popu":2223,"o da ":2224,"hla":2225,"nema":2226,"njoj ":2227,"cije, ":2228,"nam je ":2229,"uli":2230,"fun":2231,"valu":2232,"utjeca":2233,"Ameri":2234,"Bar":2235,"biv":2236,"neza":2237,"taj":2238,"ne u ":2239,"ka u ":2240,"teško ":2241,"njegova ":2242,"ču ":2243,"produ":2244,"Sve":2245,"nike ":2246,"tada ":2247,"inf":2248,"seri":2249,"Mu":2250,"partne":2251,"nena":2252,"skla":2253,"proce":2254,"No, ":2255,"Republi":2256,"star ":2257,"odli":2258,"slavi":2259,"h.\n":2260,"ju u ":2261," do ":2262,"kor":2263,"vrati":2264,"Ukra":2265,"HN":2266,"je iz":2267,"su u ":2268,"36":2269,"iako ":2270,"čkim ":2271,"greba":2272,"prošle ":2273,"mira":2274,"pitan":2275,"tskom ":2276,"ty":2277,"priop":2278,"njega ":2279,"ipak ":2280,"jedna":2281,"Že":2282,"mar":2283,"lo.\n":2284,"odigra":2285,"Sta":2286,"ža ":2287,"o je.\n":2288,"rea":2289,"svog ":2290,"i da ":2291,"Ivan ":2292,"sjeti":2293,"Kra":2294,"mogli ":2295,"bira":2296,"šnja":2297,"neda":2298,"automobi":2299,"ime, ":2300,"zlo":2301,"o se ":2302,"sljede":2303,"mom ":2304,"govori ":2305,"predsjednika ":2306,"kilo":2307,"odmah ":2308,"demo":2309,"koncer":2310,"profe":2311,"službe":2312,"tisuća ":2313,"tnog ":2314,"odgovor":2315,"čeka":2316,"prava ":2317,"bla":2318,"dove":2319,"svaki ":2320,"name]":2321,"kole":2322,"možete ":2323,"she":2324,"bit će ":2325,"toj ":2326,"koja se ":2327,"cija.\n":2328," milijuna eu":2329,"Trum":2330,"izvje":2331,"vnog ":2332,"na, a ":2333,"ha ":2334,"najviše ":2335,"Kri":2336,"čna ":2337,"koristi":2338,"Osim ":2339,"la sam ":2340,"Hrvatskoj":2341,"stitu":2342,"se, ":2343,"feren":2344,"obitelj":2345,"isko":2346,"ono ":2347,"prihva":2348,"deset ":2349,"toliko ":2350,"vrši":2351,"energi":2352,"oči":2353,"mani":2354,"jednog ":2355,", pa ":2356,"kazao je ":2357,"je da ":2358,"hod":2359,"komu":2360,"obraz":2361,"Fe":2362,"ruči":2363,"nimlji":2364,"izgle":2365,"peratu":2366,"i za ":2367,"nasta":2368,"obzirom ":2369,"-u ":2370,"sja":2371,"puto":2372,"lje.\n":2373,"opa":2374,"zagreba":2375,"ra za ":2376,"o tome ":2377,"upozo":2378,"župani":2379,"Kon":2380,"čnih ":2381,"živje":2382,"strane ":2383,"gr":2384,"čku ":2385,"što":2386,"izi":2387,"gosti":2388,"jednostav":2389,"jer je ":2390,"pjeva":2391,"EU":2392,"godinu ":2393,"kola ":2394,"posa":2395,"bolje ":2396,"imamo ":2397,"He":2398,"podu":2399,"k i ":2400,"stvari ":2401,"Pred":2402,"gri":2403,"rio ":2404,"Ukraji":2405,"poja":2406,"lih ":2407,"cijama ":2408,"29":2409,"tradi":2410,"ona ":2411,"različi":2412,".h":2413,"Uz ":2414,"naše ":2415,"suda":2416,"šeg ":2417,"kova":2418,"menu":2419,"Ministar":2420,"manda":2421,"polu":2422,"koje je ":2423,"izazo":2424,". godine.\n":2425,"ru, ":2426,"hrvatski ":2427,"lamen":2428,"sezone ":2429,"st, ":2430," [name]":2431,"Če":2432,"mina":2433,"publishe":2434,"sun":2435,"re, ":2436,"skr":2437,"dosta":2438,"m da ":2439,"lak":2440,"alias":2441,"published]":2442,"alias]":2443,"drug":2444,"reći ":2445,"člano":2446,"sa.\n":2447,"prave ":2448,"kojim ":2449,"t u ":2450,"uspješ":2451,"at":2452,"ova ":2453,"nom":2454,"pada ":2455,"svojoj ":2456,"-a.\n":2457,"ukup":2458,"deta":2459,"sen":2460,"posla":2461,"199":2462,"Josi":2463,"vjerojatno ":2464,"l.\n":2465,"izjavi":2466,"činje":2467,"sud":2468,"jar":2469,"promije":2470,"troga":2471,"ista ":2472,"priva":2473,"sigurno ":2474,"rješen":2475,"Ali ":2476,"kate":2477,"tnim ":2478,"ćeg ":2479,"funk":2480,"se u":2481," na ":2482,"me, ":2483,"Da ":2484,"diti ":2485,"genera":2486,"mjestu ":2487,"menta":2488," O":2489,"SDP":2490,"vidi":2491,"ćih ":2492,"njima ":2493,"na na ":2494,"uprav":2495,"&ccaron;u":2496,"očeki":2497,"renje ":2498,"zahtje":2499,"preda":2500,"t i ":2501,"Zo":2502,"lnog ":2503,"du.\n":2504,"mogla ":2505,"zastup":2506,"dr&zcaron;a":2507,"očeku":2508,"zgra":2509,"prati":2510,"cu, ":2511,"r i ":2512,"tual":2513,"te i ":2514,"gospodar":2515,"movi":2516,"ring":2517,"ovo":2518,"oru":2519,"ljanje ":2520,"lnim ":2521,"netko ":2522,"ke i ":2523,"Gla":2524,"lna ":2525,"rić ":2526,"noga ":2527,"me.\n":2528,"druga ":2529,"cio":2530,"pravo":2531,"kraja ":2532,"značaj":2533,"ljen ":2534,"djevoj":2535,"čan ":2536,"kira":2537," [alias]":2538,"prvom ":2539,"zva":2540,"&cacute;i":2541,"temperatu":2542,"neu":2543,"premije":2544,"le.\n":2545,"o s ":2546,"trav":2547,"lja.\n":2548,"ruj":2549,"; ":2550,"nakon što je ":2551,"korisni":2552,"srijed":2553,"kasnije ":2554,"boga":2555,"tnom ":2556,"listo":2557,"tivno ":2558,"ozbilj":2559,"&dstrok;e":2560,"60":2561,"he ":2562,"ljo":2563,"loga ":2564,"v.\n":2565,"u Zagre":2566,"nave":2567,"boj":2568,"st.\n":2569,"tic":2570,"'.\n":2571,"ćete ":2572,"smatra ":2573,"Francu":2574,"novu ":2575,"bar ":2576,"parlamen":2577,"nosti, ":2578,"ti za ":2579,"čić ":2580,"trenutku ":2581,"eko":2582,"orde":2583,"nja.\n":2584,"nedjelja":2585,"nacional":2586,"prosje":2587,"prijed":2588,"bur":2589,"Mod":2590,"ne može ":2591,"sije":2592,"društvenim ":2593,"odvjetni":2594,"dija":2595,"dana":2596,"de.\n":2597,"razdob":2598,"imali ":2599,"Ja ":2600,"cat":2601,"njegovo":2602," [published]":2603,"možemo ":2604,"jezi":2605,"donije":2606,"veći":2607,"Tako":2608,"ck":2609,"bijedi":2610,"pri ":2611,"komentira":2612,"sa, ":2613,"Tako ":2614,"ne po":2615,"cijske ":2616,"Španjol":2617,"zajedno ":2618,"group":2619,"glazbe":2620,"obli":2621,"gradonačel":2622,"m u ":2623,"mir":2624,"sfe":2625,"naslo":2626,"kvi":2627,"znači ":2628,"vremena ":2629,"jan ":2630,"snim":2631,"svojih ":2632,"lić ":2633,"la da ":2634,"one ":2635,"zna ":2636,"zako":2637,"ja u ":2638,"zapo":2639,"posle":2640,"Dal":2641,"njez":2642,"velike ":2643,"Zbo":2644,"cijski ":2645,"tlji":2646,"je od ":2647,"u i ":2648,"iznena":2649,"Jadra":2650,"m, a ":2651,"doku":2652,"brani":2653,"pute":2654,"type":2655,"g.\n":2656,"o za ":2657," [orde":2658,"u u ":2659,"Milanovi":2660,"šan":2661,"li da ":2662,"iza ":2663,"izno":2664,"o u":2665,"buduć":2666,"nicima ":2667,"bilje":2668,"drugom ":2669,"ljan":2670,"obu":2671,"se o":2672,"lo, ":2673,"ponu":2674,"e i ":2675,"pokre":2676,"Andre":2677,"ni i ":2678,"vjeru":2679,"smatra":2680,"o je u ":2681,"Bra":2682,"n, ":2683,"namje":2684,"riječ ":2685,"dno ":2686,"sho":2687,")\n":2688,"la se ":2689," eura ":2690,"kultu":2691,"deve":2692,"fika":2693,"ring]":2694," [ordering]":2695,"ju na ":2696,"djela":2697,"-godišnja":2698,"group]":2699,"Naime, ":2700,"value":2701,"pis":2702,"oko":2703,"uži":2704,"nastav":2705,"ber":2706,"studi":2707,"spli":2708,"sasta":2709,"sedam ":2710,"Gr":2711,"te na ":2712,"sno":2713,"turni":2714,"objasni":2715,"Plenkovi":2716,"stude":2717,"unarod":2718,"DA":2719,"rođen":2720,"movin":2721,"sko-":2722,"nijih ":2723,"podrš":2724,"te je ":2725,"ry":2726,"tencija":2727,"izbje":2728,"vatroga":2729,"bila je ":2730,"društvenim mre":2731,"jskih ":2732,"moti":2733,"šim ":2734,"ni su ":2735,"- rekao je ":2736,"gan":2737,"sna ":2738,"nor":2739,"tera":2740,"prepozna":2741,"uspo":2742,"w ":2743,"hrvatske ":2744,"value]":2745,"Bri":2746,"[group]":2747,"ne, a ":2748,"savje":2749,"čega ":2750,"type]":2751,"vesti":2752,"lja, ":2753,"d.\n":2754,"kov":2755,"nske ":2756," eura.\n":2757,"me&dstrok;":2758,"rt":2759,"dobio ":2760,"No ":2761,"Ch":2762,"Sva":2763,"Zbog ":2764,"lica ":2765,"možda ":2766,", ako ":2767,"bolj":2768,"festi":2769,"čini ":2770,"obitelji ":2771,"utakmica ":2772,"uni":2773,"traj":2774,"d, ":2775,"zapad":2776,"l, ":2777,"Ovo je ":2778,"para":2779,"u kojima ":2780," je ":2781,"\"\n":2782,"nju":2783,"de, ":2784,"svako":2785,"dijeli":2786,"ćan":2787,"šić ":2788,"spi":2789,"lice ":2790,"bi se ":2791,"Misli":2792,"Vje":2793,"povije":2794,"odgovori":2795,"thod":2796,"čnu ":2797,"vu.\n":2798,"Ivana ":2799,"SAD":2800,"ranije ":2801,"nazi":2802,"ći u ":2803,"se da ":2804,"dovoljno ":2805,"Međutim, ":2806,"32":2807,"prve ":2808,"kraj ":2809,"rica ":2810,"liječ":2811,"&dstrok;en":2812,"Bro":2813,"vna ":2814,"lje, ":2815,"vijez":2816,"n.\n":2817,"uče":2818,"štu ":2819,"novo":2820,"lazak ":2821,"prvo ":2822,"ispla":2823,"emo":2824,"njo":2825,"lu.\n":2826,"šo":2827,"šu ":2828,"je bila ":2829,"pobje":2830,"sebno ":2831,"brzo ":2832,"viti ":2833,"kama ":2834,"turisti":2835,"nja, ":2836,"priliku ":2837,"psi":2838,"ispu":2839,"-a, ":2840,"Svje":2841,", uz ":2842,"zaba":2843,"glavnom ":2844,"Gor":2845,"nismo ":2846,"peri":2847,"upravo ":2848,"čko ":2849,"napo":2850,"sti.\n":2851,"nje.\n":2852,"vode":2853,"35":2854,"idu":2855,"kako su ":2856,"tehno":2857,"ori":2858,"nak ":2859,"lira":2860,"cijom ":2861,"su, ":2862,"želi ":2863," [type]":2864,"ser":2865,"RH":2866,"shva":2867,"tamo ":2868,"obilje":2869,"ist":2870,"zla":2871,"glaso":2872,"trener ":2873,"Nije ":2874,"zadovolj":2875,"šem ":2876,"slav ":2877,"ele":2878,"gnu":2879,"Man":2880,"dlji":2881,"sim ":2882,"Iz ":2883,"grada ":2884,"rizi":2885,"ma\n":2886,"ti s ":2887,"Pos":2888,"nesta":2889,"jedin":2890,"teljica ":2891,"ren ":2892,"vio ":2893,"mo&zcaron;e ":2894,"plat":2895,"ispred ":2896,"nikad ":2897,"Zagreba":2898,"Dalma":2899,"premi":2900,"velika ":2901,"sebe ":2902,"postoji ":2903,"prva ":2904,"dati ":2905,"utakmicu ":2906,"&zcaron;ivo":2907,"Osije":2908,"j, ":2909,"bile ":2910,"joj je ":2911,"uspi":2912,"BiH":2913,"lnu ":2914,"45":2915,"te se ":2916,"nije bilo ":2917,"nost.\n":2918,"žena ":2919,") i ":2920,"gledajte ":2921,"kategori":2922,"ime ":2923,"rad ":2924,"čujući ":2925,"Jed":2926,"cija, ":2927,"zaključi":2928,"osobe ":2929,"jskog ":2930,"pog":2931,"Ci":2932,"moći ":2933,"k je ":2934,"institu":2935,"t &cacute;e ":2936,"će, ":2937,"O: ":2938,"upu":2939,"loba":2940,"prethod":2941,"du, ":2942,"Rea":2943,"drugih ":2944,"ti da ":2945,"izvr":2946,"ve i ":2947,"zvo":2948,"obzirom na ":2949,"agen":2950,"investi":2951,"od naj":2952,"svib":2953,"moglo ":2954,"i dalje ":2955,"jasno ":2956,"zau":2957,"vac ":2958,"la za ":2959,"uzro":2960,"sjaj":2961,"ide ":2962,"m\n":2963,"mu.\n":2964,"slučaju ":2965," tisuća ":2966,"nar":2967,"diza":2968,"petak ":2969,"blje":2970,"žno ":2971,"kojih ":2972,"če, ":2973,"Vr":2974,"gom ":2975,"svega ":2976,"mnogi ":2977,"nac ":2978,"izja":2979,"som ":2980,"ozlije":2981,"objavlje":2982,"s o":2983,"oduše":2984,"ljud":2985,"stručnja":2986,"moguće ":2987,"mis":2988,"Ča":2989,"kaže":2990,"tion":2991,"dugo ":2992,"koje se ":2993,"godine.\n":2994,"još uvijek ":2995,"sce":2996,"nica":2997,"pret":2998,"privre":2999,"trebao ":3000,"Drža":3001,"najbolje ":3002,"lima ":3003,"pak, ":3004,"te da ":3005," radio ":3006,"rana ":3007,"rovi":3008,"ljanja ":3009,"koji će ":3010,"posjeti":3011," radio [group]":3012,"OT":3013,"ina":3014,"ris ":3015,"vođen":3016,"ne zna":3017,"jedne ":3018,"r u ":3019,"isto ":3020,"&cacute;u ":3021,"ove godine ":3022,"novog ":3023,"imala ":3024,"šte ":3025,"rem ":3026,"novih ":3027,"napada":3028,"nedavno ":3029,"plan":3030,"t za ":3031,"čini":3032,"čica ":3033,"prak":3034,"ća i ":3035," sati ":3036,"zvijez":3037,"la je.\n":3038,"r je ":3039,"Svi ":3040,"Zna":3041,"fizi":3042,"lišta ":3043,"suko":3044,"milijar":3045,"emisi":3046,"ranje ":3047,"kona":3048,"Marko ":3049,"problem ":3050,"medici":3051,"34":3052,"ra, a ":3053,"lini":3054,"putem ":3055,"red ":3056,"zapravo ":3057,"j.\n":3058,"pušte":3059,"ne samo ":3060,"izlo":3061,"građa":3062,"razvo":3063,"dijelu ":3064,"drugim ":3065,"Kar":3066,"međunarod":3067,"terija":3068,"79":3069,"dobiti ":3070,"Marti":3071,"čnim ":3072,"metara ":3073,"Por":3074,"nata ":3075,"za u":3076,"njema":3077,"posebno ":3078,"88":3079,"to, ":3080,"kretni":3081,"Gu":3082,"anali":3083,". i ":3084,"t ćemo ":3085,"čuje ":3086,"&dstrok;a":3087,"đu ":3088,"teni":3089,"da po":3090,"dosta ":3091,"prin":3092,"ken":3093,"skoro ":3094,"njegove ":3095,"hrvatskih ":3096,". godine, ":3097,"dručju ":3098,"31":3099,"Ovaj ":3100,"am":3101,"dina":3102,"ve&cacute; ":3103,"FF":3104,"[value]":3105,"im":3106,"kle":3107,"vnom ":3108,"ciju.\n":3109,"ja je ":3110,"moraju ":3111,"svoje":3112,"VIDEO: ":3113,"poduze":3114,"ovu ":3115,"život ":3116,"TE ":3117,"kam":3118,"nosti i ":3119,"Foto":3120,"o je i ":3121,"ravna":3122,"C ":3123,"Doda":3124,"lnom ":3125,"oča":3126,"gradi":3127,"čima ":3128,"obe":3129,"nedosta":3130,"prvog ":3131,"Šibe":3132,"dva":3133,"gdje je ":3134,"Mla":3135,"želje":3136,"da je to ":3137,"će.\n":3138,"hote":3139,"vnih ":3140,"čla":3141,"zaposle":3142,"tskih ":3143,"Mi ":3144,"stagra":3145,"ljoprivre":3146,"veći ":3147,"hrvatskog ":3148,"janje ":3149,"poslje":3150,"zamje":3151,"ne mogu ":3152,"tora ":3153,"zema":3154,"Har":3155,"glavni ":3156,"TV":3157,"ts":3158,"telje ":3159,"žiti ":3160,"igrača ":3161,"nom, ":3162,"žene ":3163," minu":3164,"Ovo ":3165,"prosin":3166,"prvi put ":3167,"mbe":3168,"opera":3169,"time ":3170,"va na ":3171,"teljima ":3172,"nika.\n":3173,"izgleda":3174,"zato ":3175,"dal":3176,"mišlje":3177,"sumnji":3178,"povje":3179,"indu":3180,"su.\n":3181,"pravi ":3182,"riješi":3183,"ministar ":3184,"Pla":3185,"biste ":3186,"mo.\n":3187,"su po":3188,"osoba":3189,"posob":3190,"Sr":3191,"socija":3192,"vidjeti ":3193,"ći.\n":3194,"POG":3195,"želi":3196,"Os":3197,"Tr":3198,"svjedo":3199,"Instagra":3200,"hin":3201,"a, ":3202,"mene ":3203,"među":3204,"odnosu na ":3205,". minuti ":3206,"djece ":3207,"Kao ":3208,", uklju":3209,"je s ":3210,"ti, a ":3211,"li se ":3212,"današ":3213,"primi":3214,". - ":3215,"er, ":3216,"društvenim mreža":3217,"reak":3218,"demokra":3219,"Tra":3220,"gira":3221,"tehni":3222,"DAJ":3223,"zan":3224,"kriti":3225,"obrazo":3226,"POGLE":3227,"moj ":3228,"prisu":3229,"trenutno ":3230,"kluba ":3231,"struktu":3232," OFF":3233,"POGLEDAJ":3234,"Domovin":3235,"mjeseci ":3236,"Predsjedni":3237," OFF [type]":3238,"ll":3239,"niz ":3240,"oruž":3241,"pada":3242,"Republike ":3243,"POGLEDAJTE ":3244,"din":3245,"seli":3246,"klub ":3247,"služben":3248,"Olimpi":3249,"zanimlji":3250,"nu i ":3251,"Or":3252,"nika, ":3253,"dale":3254,"isklju":3255,"70":3256,"za po":3257,"mnogo ":3258,"muškar":3259,"\" i ":3260,"subotu ":3261,"sklop":3262,"nogometa":3263,"vanjem ":3264,"đena ":3265,"Tomi":3266,"nitko ":3267,"djelu":3268,"osobi":3269,"raditi ":3270,"njihove ":3271,"brinu":3272,"tjed":3273,"bismo ":3274,"dostup":3275,"sim":3276,"anom ":3277,"Item":3278,"je pre":3279,"P ":3280,"ne u":3281,"opće ":3282,"pu ":3283,"čnog ":3284,"razmiš":3285,"ku i ":3286,"nikada ":3287,"teško":3288,"skri":3289,"dalj":3290,"cije i ":3291,"trgovi":3292,"68":3293,", no ":3294,"druga":3295,"Ge":3296,"The ":3297,"ovom ":3298,"rira":3299,"lova":3300,"dar ":3301,"Dje":3302,"ht":3303,"potpuno ":3304,"Njego":3305,"umjetni":3306,"provje":3307,"192":3308,"Ke":3309,"poma":3310,"bivši ":3311,"grad ":3312,"voda ":3313," k":3314,"čine ":3315,"&ccaron;i ":3316,"vi.\n":3317,"ge.\n":3318,"krša":3319,"ponovno ":3320,"veza":3321,"tvrt":3322,"tvrdi ":3323,"slijed":3324,"&ccaron;e ":3325,"šar":3326,"Pari":3327,"dvoji":3328,"Grada ":3329,"glasa":3330,"vu, ":3331,"okru":3332,"žalo":3333,"je bilo ":3334,"leti":3335,"gita":3336,"škol":3337,"teta ":3338,"se.\n":3339,"ispod ":3340,"ci su ":3341,"ističe ":3342,"Sje":3343,"izo":3344,"organizira":3345,"vali":3346,"tila ":3347,"stup ":3348,"prijatelj":3349,"vak ":3350,"re i ":3351,"svjet":3352,"gradu ":3353,"nje, ":3354,"norma":3355,"dalma":3356,"njihov ":3357,"Grad ":3358,"Hajduk ":3359,"liza":3360,"ovak":3361,"u Spli":3362,"EU ":3363,"Tije":3364,"čiji ":3365,"napisa":3366," doda":3367,"stabi":3368,"sus":3369,"&zcaron;en":3370,"posljednjih ":3371,"komenta":3372,"Žu":3373,"treb":3374,"svakodne":3375," kilo":3376,"Itali":3377,"nasi":3378,"vama ":3379,"konferen":3380,"mirovi":3381,";,":3382,"vić, ":3383,"stava ":3384,"nekad ":3385,"Ste":3386,"konku":3387,"Ber":3388,"i s ":3389,"je se ":3390,"sten":3391,"i osta":3392,"novo ":3393,"grani":3394,"ca u ":3395,"žele ":3396,"we":3397,"stra ":3398,"bilo je ":3399,"popular":3400,"Her":3401,"Kre":3402,"zatim ":3403,"vijesti ":3404,"Luka ":3405,"FOT":3406,"Spor":3407,"lako ":3408,"lu, ":3409,"razgovara":3410,"Ži":3411,"govora ":3412,"krea":3413,"Ze":3414,"kojom ":3415,"na\n":3416,"da na ":3417,"čnom ":3418,"koga ":3419,"pokazu":3420,"prilikom ":3421,"San":3422,"elektri":3423,"posljedi":3424,"plje":3425,"lle":3426,"češ":3427,"demi":3428,"postup":3429,"nato":3430,"odra":3431,"su i ":3432,"ton ":3433,"čiti ":3434,"korište":3435,"33":3436,"kora":3437,"podi":3438,"t je ":3439,"nedjelju ":3440,"Image":3441,"con":3442,"la s ":3443,"tska ":3444,"finalu ":3445,"smanje":3446,"Zla":3447,"redu ":3448,"vi, ":3449,"ni u ":3450,"pomoć ":3451,"materija":3452,"priča ":3453,"cijeli ":3454,"/ ":3455,"kna":3456,"dao ":3457,"platfor":3458,"dana.\n":3459,". do ":3460,"cijen":3461,"kultur":3462,"osam ":3463,"narod":3464,"iznim":3465,"planira":3466,"utakmici ":3467,"defi":3468,"stavlje":3469,"Prije ":3470,"nedjeljak ":3471," kaže ":3472,"85":3473,"smije":3474,"doći ":3475,"kad je ":3476,"izgrad":3477,"zemlje ":3478,"neka ":3479,"&ccaron;ki ":3480,"be.\n":3481,"ranju ":3482,"tiče ":3483,"Milanović ":3484,"profesi":3485,"ta na ":3486,"Danas ":3487,"sposob":3488,"vrti":3489,"nekretni":3490,"do kraja ":3491,"tivne ":3492,"Hrvatski ":3493,"glumi":3494,"kle ":3495,"tjedna ":3496,"mu, ":3497,"Par":3498,"moć":3499,"smanji":3500,"rena ":3501,"\":\"\"\",":3502,"svijetu ":3503,"ter ":3504,"sadaš":3505,"godine, ":3506,"obitelji":3507,"trenin":3508,"denti":3509,"muškara":3510,"JE":3511,"naro":3512,"đene ":3513,"situacija ":3514,"Fili":3515,"nari":3516,"vajući ":3517,"car":3518,"ju je ":3519,"država ":3520,"Ova ":3521,"rade ":3522,"pogo":3523,"juče":3524,"t će se ":3525,"prirod":3526,"trebali ":3527,"prošlo":3528,"televizi":3529,"gno":3530,"koho":3531,"uslu":3532,"čemu ":3533,"ispriča":3534,"izabra":3535,"Sto":3536,"qu":3537,"o da je ":3538,"dozvo":3539,"greš":3540,"žuj":3541,"klubo":3542,"moramo ":3543,"vnim ":3544,"ka je ":3545,"dodatno ":3546,"u na":3547,"dobar ":3548,"prila":3549,"&ccaron;no ":3550,"rekor":3551,"javlju":3552,"vica ":3553,"gu.\n":3554,"veliku ":3555,"đen ":3556,"tvor":3557,"industri":3558,"ri.\n":3559,"vira":3560,"stavlja ":3561,"reali":3562,"se ne ":3563,"ispi":3564,"njom ":3565,"sprije":3566,"niku ":3567,"noš":3568,"tvrtke ":3569,"Još ":3570,"ka na ":3571,"Plenković ":3572,"bre":3573,"ira":3574,"ula":3575,"stupa":3576,"problema ":3577,"dizaj":3578,"god ":3579,", a po":3580,"kako bi se ":3581,"kombi":3582,"hlad":3583,"Bje":3584,"tko":3585,"priti":3586,"putni":3587,"objek":3588,"Raz":3589,"Foto: ":3590,"jskim ":3591,"da sam ":3592,"stadio":3593,"trebala ":3594,"kakve ":3595,"ovih ":3596,"opet ":3597,"kada se ":3598,"par ":3599,"bu.\n":3600,"trebalo ":3601,"zvao ":3602,"savr":3603,"strana":3604,"Podsjeti":3605,"Bru":3606,", na ":3607,"no-":3608,"profi":3609,"šao u ":3610,"vremenu ":3611,"je li ":3612,"koplo":3613,"renja ":3614,"torak ":3615,"traja":3616,"catItem":3617,"ck ":3618,"fran":3619,"iš":3620,"nost i ":3621,"svima ":3622,"na području ":3623,"nogome":3624,"izrael":3625,"pen":3626,"ray":3627,"dozna":3628,"fri":3629,"festiva":3630,"47":3631,"da ne ":3632,"pad ":3633,"ve u ":3634,"RTL":3635,"pobijedi":3636,"ce i ":3637,"Mora":3638,"stavio ":3639,"kinu":3640,"eks":3641,"uzi":3642,"reda":3643,"dobili ":3644,"dić ":3645,"konkuren":3646,"rast ":3647,"mari":3648,"ostvari":3649,"liko":3650,"viken":3651,"panije ":3652,"ta za ":3653,"stva.\n":3654,"Europske ":3655,"pobjedni":3656,"omogu":3657,"naš ":3658,"zabra":3659,"govore ":3660,"Jedan ":3661,"san ":3662,"ri, ":3663,"sebi":3664,"najbolji ":3665,"koju je ":3666,"pi ":3667,"nosni":3668,"velja":3669,"sadrža":3670,"mode":3671,"sustav ":3672,"je o ":3673,"paž":3674,"radio":3675,"najbolj":3676,"VIDEO ":3677,";.\n":3678,"blo":3679,"toga, ":3680,"barem ":3681,"stvar":3682,"RI":3683,"uo":3684,"u Hrvatskoj ":3685,"nekim ":3686,"upozna":3687,"stvi":3688,"potencija":3689,"ljubi":3690,"pl":3691,"der":3692,"igrač ":3693,"stanovni":3694,"Cro":3695,"ster":3696,"diljem ":3697,"boo":3698,"lo se ":3699,"Sin":3700,"nski ":3701,"r za ":3702,"jedinje":3703,"Pra":3704,"x ":3705,"dolazi ":3706,"stolje":3707,"pa je ":3708,"siječ":3709,"na kraju ":3710,"mo u ":3711,"ge, ":3712," rekla je ":3713,"On ":3714,"gar":3715,"Puti":3716,"momčad ":3717,"Dubrovni":3718,"55":3719,"ja za ":3720,"mosfe":3721,"Boži":3722,"jska ":3723,"sti, ":3724,"-godišnji ":3725,"Sre":3726,"mati":3727,"veza ":3728,"le i ":3729,"pomoći ":3730,"pis ":3731,"godinama ":3732,"spomenu":3733,"štvo ":3734,"500":3735,"ruko":3736,". lip":3737,"osnov":3738,"e u ":3739,"projekt ":3740,"show":3741,"% ":3742,"deset":3743,"Super":3744,"njihova ":3745,"vozila ":3746,"pam":3747,"će u ":3748,"&ccaron;a ":3749,"priopćen":3750,"En":3751,"nicama ":3752,"izmje":3753,"lo u ":3754,"POGLEDAJTE VIDEO: ":3755,"izvijesti":3756,"šava ":3757,"posve":3758,"cijene ":3759,"brojne ":3760,"talijan":3761,"optuž":3762,"iskoristi":3763,"sjever":3764,"igra ":3765,"Tijekom ":3766,"a.\n":3767,"okup":3768,"Sti":3769,"povra":3770,"kupa":3771,"&ccaron; ":3772,"vanja.\n":3773,"snaž":3774,"snage ":3775,"tehnologi":3776,"vo, ":3777,"jutr":3778,"stoj":3779,"naših ":3780,"potvr":3781,"bio":3782,"kun":3783,"ljep":3784,"znan":3785,"predvi":3786,"rac ":3787,"ka za ":3788,"Grad":3789,"ostva":3790,"lije ":3791,"kažu ":3792,"plani":3793,"to nije ":3794,"odmo":3795,"vodno ":3796,"nom.\n":3797,"tili ":3798,"min":3799,"preuze":3800,"zrakoplo":3801,"TO":3802,"naša ":3803,"Zagreb ":3804,"drugog ":3805,", uključujući ":3806,"dopri":3807,"HNL":3808,"obla":3809,"Evo ":3810,"ep":3811,"zni":3812,"kolu ":3813,"preporu":3814,"vidi ":3815,"var":3816,"sazna":3817,"s i ":3818,"djecu ":3819,"ondo":3820,"izbori":3821,"ministar":3822,"vi i ":3823,"alkoho":3824,"kame":3825,"direktor ":3826,"je pro":3827,"čeku":3828,"najmanje ":3829,"tru ":3830,"se s ":3831,"igrati ":3832,"sjeve":3833,"energe":3834,"zvu":3835,"vož":3836,"prekrša":3837,"mun":3838,"inten":3839,"Še":3840,"vamo ":3841,"ciju, ":3842,"pregle":3843,"sti i ":3844,"Zagreb":3845,"stranke ":3846,"infra":3847,"sklopu ":3848,"ću, ":3849,"đar":3850,"njen ":3851,"vjer":3852,"njemu ":3853,"ljude ":3854,"prvo":3855,"prvu ":3856,"ispa":3857,"jer su ":3858,"čak i ":3859,"dokumen":3860,"by ":3861,"ku od ":3862," Ar":3863,"osu":3864,"započe":3865,"ci i ":3866,"novim ":3867,"sudjelova":3868,"riječ o ":3869,"najavi":3870,"asi":3871,"slijedi":3872,"tradicional":3873,"njezin ":3874,"Ccaron;":3875,"ćim ":3876,"protiv":3877,"zer":3878,"konti":3879,"čitajte ":3880,"francu":3881,"migra":3882,"gubi":3883,"Tur":3884,"žrt":3885,"izvan ":3886,"legen":3887,"ou":3888,"i i ":3889,"i su ":3890,"u ovom ":3891,"reno ":3892,"odbo":3893,"Dob":3894,"vnik ":3895,"sekun":3896,"stupi":3897,"predstavlja ":3898,"prošle godine ":3899,"Kr":3900,"utr":3901,"vić.\n":3902,"procje":3903,"previše ":3904,"sud ":3905,"njegovu ":3906,"strije":3907,"tet ":3908,"ča.\n":3909,"ći, ":3910,"da će se ":3911,"kojem ":3912,"ano ":3913,"tim":3914,"tuga":3915,"kontak":3916,"financij":3917,"Ben":3918,"Mno":3919,"vaju":3920,"ja, a ":3921,"proraču":3922,"gol ":3923,"tskim ":3924,"vijest ":3925,"opas":3926,"ukupno ":3927,"FOTO ":3928,"ceboo":3929,"Može":3930,"Novi ":3931,"finale ":3932,"Hrvatskog ":3933," bod":3934,"HRT":3935,"ini":3936,"mlje":3937,"Šu":3938,"stan ":3939,"se za ":3940,"jednoj ":3941,"održ":3942,"globa":3943,"resto":3944,"natjecan":3945,"ne na ":3946,"ju da ":3947,"supro":3948,".hr":3949,"Rob":3950,"plu":3951,"taka ":3952,"koristi ":3953,"zdravstve":3954,"ograni":3955,"Dan":3956,"Pa ":3957,"bolji ":3958,"i ovo ":3959,"izrazi":3960,"nastupi":3961," Array":3962,"lnoj ":3963,"priro":3964,"zemlji":3965,"Što se ":3966,"OV":3967,"pote":3968,"potro":3969,"ciju":3970,"zaslu":3971,"celo":3972,"prvoj ":3973,"anog ":3974,"&Ccaron;":3975,"uhi":3976,"Ša":3977,"čime ":3978,"nost, ":3979,"standar":3980,"ruši":3981,"vjen":3982,"nakon što ":3983,"prvaka ":3984,"Car":3985,"sva ":3986,"ra\n":3987,"drav":3988,"troško":3989,"devet ":3990,"kada su ":3991,"sama ":3992,"mira ":3993,"odabra":3994,"lazi u ":3995,"završ":3996,"seksu":3997,"jednostavno ":3998,"me&dstrok;u ":3999,"onih ":4000,"lon":4001,"ljaju ":4002,"prijet":4003,"izvješ":4004,"Ce":4005,"Gru":4006,"novom ":4007,", a na ":4008,"policija ":4009,"ff":4010,"jama ":4011,"Ob":4012,"poveć":4013,". kolo":4014,"vremeno ":4015,"lac ":4016,"sta.\n":4017,"stigao ":4018,"kuće ":4019,"ća u ":4020,"poža":4021,"bici":4022,"prehra":4023,"jugo":4024,"dvora":4025,"Vlade ":4026,"donosi ":4027,"razvoj ":4028,"poslu":4029,"Ipak, ":4030,"vjedni":4031,"odob":4032,"profesional":4033,"voza ":4034,"per ":4035,"sigurnos":4036,"ukrajin":4037,"inci":4038,"lega":4039,"i poli":4040,"stane ":4041,"anga":4042,"meda":4043,"te za ":4044,"građe":4045,"najveći ":4046,"mirovlje":4047,"atmosfe":4048,"da smo ":4049,"interne":4050," posto.\n":4051,"Faceboo":4052,"Jan":4053,"se pri":4054,"može biti ":4055,"ciji.\n":4056,"iznad ":4057,"lež":4058,"Slove":4059,"rice ":4060,"di.\n":4061,"promi":4062,"osva":4063,"a i ":4064,"ja na ":4065,"ljev":4066,"ih je ":4067,"Lige ":4068,"moder":4069,"ovdje ":4070,"kampan":4071,"Bel":4072,"dana, ":4073,"ćine ":4074,"Real ":4075,"jana ":4076,"stao ":4077,"kazao ":4078,"prilike ":4079,"kape":4080,"savez":4081,"pisu":4082,". listo":4083,"Madri":4084,"tnoj ":4085,"anti":4086,"ka, a ":4087,"izda":4088,"golo":4089,"njak ":4090,"vene ":4091,"godišnje ":4092,"vrhun":4093,"izgleda ":4094,"ožuj":4095,"sci":4096,"ću.\n":4097,"ner ":4098,"žio ":4099,"dijelo":4100,"program ":4101,"tjedan ":4102,"kana":4103,"matra":4104,". srp":4105,"radi o ":4106,"ad":4107,"nije, ":4108,"t na ":4109,"stvarno ":4110," u":4111," milijar":4112,"vru":4113,"rila ":4114,"cilj ":4115,"Sabo":4116,"nos ":4117,"te po":4118,"ru i ":4119,"dok su ":4120,"seksual":4121,"Gi":4122,"ali ":4123,"djeca ":4124,"prije nego ":4125,"mladih ":4126,"Do ":4127,"den ":4128,"ska, ":4129,"vor":4130,"zada":4131,"topli":4132,"kako će ":4133,"im je ":4134,"specija":4135,"Prvi ":4136,"matič":4137,"sta, ":4138,". ruj":4139,"ljujući ":4140,"presi":4141,"sudio":4142,"n i ":4143,"Dok ":4144,"unutar ":4145,"desetlje":4146,"protu":4147,"ć i ":4148,"u pot":4149,"795":4150,"identi":4151,"ta, a ":4152,"čar":4153,"sa i ":4154,"osobito ":4155,"intenzi":4156,"39":4157,"Gos":4158,"Stu":4159,"ktiv":4160,"tac ":4161,"bom ":4162,"tu i ":4163,"cijena ":4164,"\" u ":4165,"Ot":4166,"nastavi":4167,"image":4168,"taknu":4169,"re u ":4170,"stvara":4171,"usmje":4172,"godišnji ":4173,"pom ":4174,"proši":4175,"k za ":4176,"va za ":4177,"65":4178,"vnika ":4179,"kata ":4180,"zdravstven":4181,"promijeni":4182,"Ukrajin":4183,"ps":4184,"naba":4185,"preki":4186,"preminu":4187,"mjesec ":4188,"Policija ":4189,"jskom ":4190,"Kla":4191,"maksi":4192,". trav":4193,"38":4194,"EP":4195,"la da je ":4196,"sao ":4197,"što sam ":4198,"govoru ":4199,"izlož":4200,"Dak":4201,"regu":4202,"malo":4203,"s obzirom na ":4204,"svojom ":4205,"ravno":4206,"ton":4207,"stalno ":4208,"bar":4209,"ćina ":4210,"tren":4211,"drugu ":4212,"&zcaron;u":4213,"Mati":4214,"aktual":4215,"Radi":4216,"Cit":4217,"blag":4218,"reži":4219,"lizira":4220,"Samo ":4221,"pitanja ":4222," napisa":4223,"37":4224,"tskoj ":4225,"jevi":4226,"teo":4227,"suz":4228,"škole ":4229,"&ccaron;in":4230,"svakom ":4231,"tako da ":4232,"vati u ":4233,"ne za ":4234,"ju se ":4235,". u ":4236,"ga i ":4237,"čaj ":4238,"djela ":4239,"Pročitajte ":4240,"civi":4241,"sklo":4242,"su bili ":4243,"to.\n":4244,"ozljed":4245,"kvalifika":4246,"kazi":4247,"ske, ":4248,"dubo":4249,"foku":4250,"Rijeka ":4251,"Hu":4252,"Zcaron;":4253,"staja":4254,"&ccaron;en":4255,", poput ":4256,"Više ":4257,"potpo":4258,"48":4259,"uopće ":4260,"&ccaron;ke ":4261,"manja ":4262,"198":4263,"rekao je.\n":4264,"četvrtak ":4265,"novac ":4266,"AT":4267,"la, a ":4268,"poveća":4269,"izjavio je ":4270,"rao ":4271,"vi u ":4272,"napraviti ":4273,"ozna":4274,"snu ":4275,"ćen ":4276,"sa svojim ":4277,"istaknuo je ":4278,"cep":4279,"desetak ":4280,"redovi":4281,"tkin":4282,"stvom ":4283,"odla":4284,"tirati ":4285,"prenosi ":4286,"će li ":4287,"der ":4288,"vanja, ":4289,"predme":4290,"Cije":4291,"St":4292,"Ukraj":4293,"ba.\n":4294,"Kova":4295,"odluku ":4296,"veze ":4297,"Vladi":4298,"čen ":4299,"ško ":4300,"stin":4301,"navi":4302,"diplo":4303,"ni na ":4304,"tu u ":4305,"dr.\n":4306,"sporta":4307,"Zdrav":4308,"ti\n":4309,"nen":4310,"sebi ":4311,"gu, ":4312,"studen":4313,"Josip ":4314,"Pročitajte i ovo ":4315,"We":4316,"lo na ":4317,", ali je ":4318,"Hrvatsku ":4319,"centra":4320,"prijatelji":4321,"kće":4322,"bes":4323,"Modri":4324,"djelatni":4325,"Tko ":4326,"nose ":4327,"da je u ":4328,"jedini ":4329,"Peri":4330," eura, ":4331,"mogućnost ":4332,"ono što ":4333,"Fo":4334,"Hr":4335,"rada ":4336,"ja\n":4337,"no i ":4338,"bu, ":4339,"činkovi":4340,"porta":4341,"kata":4342,"zašto ":4343,"mjesti":4344,". svib":4345,"gledati ":4346,"Bos":4347,"Ina":4348,"ulogu ":4349,"komunika":4350,"Bla":4351,"koma":4352,"rili ":4353,"milje":4354,"tori ":4355,"primije":4356,"pisi":4357,"ravno, ":4358,"premijer ":4359,"kol":4360,"osim ":4361,"vod ":4362,"je, a ":4363,"proba":4364,"razumije":4365,"nekih ":4366,"ju za ":4367,"o je na ":4368,"stoti":4369,"Mate":4370,"be, ":4371,"sjeća":4372,"scen":4373,"ma za ":4374,"s po":4375,"bene ":4376,"tle":4377,"tero":4378,"koji je u ":4379,"Trump ":4380,"42":4381,"Vije":4382,"\\/":4383,"povi":4384,"k u ":4385,"razlo":4386,"albu":4387,"voditi ":4388,"gradonačelnik ":4389,"olimpi":4390,"snog ":4391,"cima.\n":4392,"čeka ":4393,"lo i ":4394,"drugo ":4395,"velikim ":4396,"mjeseca ":4397,"listi":4398,"bili su ":4399,"Mir":4400,"Veče":4401,"poruči":4402,"Tu ":4403,"ssi":4404,"ravno ":4405,"mijenja":4406,"srijedu ":4407,"janja ":4408,"pati":4409,"automo":4410,"trenuta":4411,"objašnja":4412,"rezultat ":4413,"Zoran ":4414,"Uni":4415,"koje":4416,"odo":4417,"presu":4418,"koji bi ":4419,"gosto":4420,"cijelu ":4421,"cije u ":4422,"momčadi ":4423,"infrastruktu":4424,"Rober":4425,"ćin":4426,"borav":4427,"nije bio ":4428,"razloga ":4429,"Vukova":4430,"Takođ":4431,"Herce":4432,"Br":4433,"bru":4434,"vori":4435,"digita":4436,"pisan":4437,". stude":4438,"dijete ":4439,"Portuga":4440,"Don":4441,"fa ":4442,"stanje ":4443,"ven ":4444,"smis":4445,"priprema":4446,"Ono ":4447,"tnosti ":4448,"povez":4449,"prijavi":4450,"vana ":4451,"bliz":4452,"nici.\n":4453,"Podsjetimo, ":4454,"pso":4455,"tora":4456,"za sve ":4457,"skoga ":4458,"plika":4459,"crk":4460,"klasi":4461,"aktivnosti ":4462,"Vin":4463,"nin ":4464,"kakav ":4465,"dolaze ":4466,"boji":4467,"budu ":4468,"-a i ":4469,"300":4470,"D ":4471,"Val":4472,"sc":4473,"je ne":4474,"izved":4475,"sag":4476,"lo do ":4477,"života ":4478,"početka ":4479,"fakul":4480,"jedna od ":4481,"gluma":4482,"mbi":4483,"košar":4484,"caj":4485,"ma na ":4486,"nu u ":4487,"vrata ":4488,"Austri":4489,"neće biti ":4490,"Cen":4491,"ćoj ":4492,"cima, ":4493,"st i ":4494,"cionira":4495,"ošte":4496,"talen":4497,"li s ":4498,"pacijen":4499,"vješta":4500,"vidlji":4501,"pripad":4502,"vrš":4503,"pisao ":4504,"ske":4505,"mjesto":4506,"Maksi":4507,"finala ":4508,"Ove ":4509,"snih ":4510,"jeva ":4511,"odgovara":4512,"takav ":4513,"kao što su ":4514,"Nisam ":4515,"mladi ":4516,"financira":4517,"tnost ":4518,"čnoj ":4519,"nastup":4520,"živi":4521,"tak, ":4522,"Beogra":4523,"Oni ":4524,"Per":4525,"raš":4526,"napu":4527,"nacija ":4528,"nega":4529,"česti":4530,"šati ":4531,"spasi":4532,"središ":4533,"&Zcaron;":4534,"Fu":4535,"vnu ":4536,"zapa":4537,"ne su ":4538,"sami ":4539,"Ustav":4540,"navodi ":4541,"ligen":4542,"vođa":4543,"Polju":4544,"jer se ":4545,"običa":4546,"đeni ":4547,"Neki ":4548,"javno ":4549,"svake ":4550,"gdje su ":4551,"Anto":4552,"drugoj ":4553,"44":4554,"ko, ":4555,"moto":4556,"imam ":4557,"životi":4558,"elen":4559,"KO":4560,"dra ":4561,"liga":4562,"plasira":4563,"interv":4564,"B ":4565,"snim ":4566,"upa":4567,"konzu":4568,"reagira":4569,"AR":4570,"kom.\n":4571,"ni za ":4572,"znati ":4573,"vodom ":4574,"son ":4575,"ru u ":4576,"nici, ":4577,"nemaju ":4578,"the":4579,"ka\n":4580,"na kojem ":4581,"bolni":4582,"natoč ":4583,"odgo":4584,"liti ":4585,"nje i ":4586,"vlasti ":4587,"njezina ":4588,"d_":4589,"spu":4590,"ye":4591,"vese":4592,"nudi ":4593,"Nikola ":4594,"loški ":4595,"v, ":4596,"đeno ":4597,"čenje ":4598,"projekta ":4599,"Želj":4600,"epiz":4601,"UN":4602,"okoli":4603,"kom, ":4604,"pozor":4605,"vid ":4606,"dovi":4607,"ći na ":4608,"li su se ":4609,"štvu ":4610,"eli":4611,"cilje":4612,"la je u ":4613,"New ":4614,"čovjek ":4615,"Po ":4616,"str":4617,"&cacute;en":4618,"prvih ":4619,"završe":4620,"objavio ":4621,"plju":4622,"ne\n":4623,"izve":4624,"iznosi":4625,"minali":4626,"top":4627,"ga u ":4628,"gresi":4629,"brzi":4630,"u ponedjeljak ":4631,"posljednje ":4632,"opre":4633,"rup":4634,"ča, ":4635,"krajem ":4636," poruči":4637,"Bilo je ":4638,"&cacute;emo ":4639," godina.\n":4640,"Barcelo":4641,"svlada":4642,"koali":4643,"poljoprivre":4644,"dječ":4645,"traš":4646,"Polj":4647,"godin":4648,"našeg ":4649,"statu":4650,"važno ":4651,"napusti":4652,"mo&zcaron;e":4653,"te su ":4654,"sub":4655,"sed":4656,"nja u ":4657,"godini ":4658,"karak":4659,"daleko ":4660,"naglasi":4661,"polo":4662,"odgovor ":4663,"đenje ":4664,"inteligen":4665,"NATO":4666,"dodi":4667,"član ":4668,"izla":4669,"oba ":4670,"Ljuba":4671,"ino":4672,"spre":4673,"kova ":4674,"izuze":4675,"odluke ":4676,"napad ":4677,"ljudima ":4678,"Predsjednik ":4679,"inicija":4680,"inciden":4681,"avi":4682,"nas":4683,"nama.\n":4684,"moja ":4685,"pozitiv":4686,"film ":4687,"Lasag":4688,"simbo":4689,"asisten":4690,"što smo ":4691,"ljivo ":4692,"odluka ":4693,"mnoge ":4694,"manje od ":4695,"pitanju ":4696,"jest ":4697,"kome ":4698,"korak ":4699,"le u ":4700,"slu&zcaron;":4701,"hrvatskom ":4702,"com":4703,"je\n":4704,"an.\n":4705,"nošen":4706,"vanje u ":4707,"cem ":4708,"oslo":4709,"ras ":4710,"real":4711,"sabor":4712,"o je da ":4713,"razini ":4714,"Nema ":4715,"196":4716,"škog ":4717,"Zagreba ":4718,"stvo.\n":4719,"Dne":4720,"gin":4721,"pan ":4722,"mon":4723,"toli":4724,". prosin":4725,"najveć":4726,"strane, ":4727,"tribi":4728,"uređa":4729,"vanje.\n":4730,"sjedi":4731,"Bran":4732,"danje ":4733,"vila ":4734,"kasni":4735,"zani":4736,"dvobo":4737,"mnogi":4738,"isti ":4739,"kla ":4740,"tkovi":4741,"ška ":4742,"son":4743,"otvara":4744,"je poče":4745,"67":4746,"letje":4747,"druži":4748,"najvaž":4749,"dok se ":4750,"Turu":4751,"informacije ":4752,"Alek":4753,"Je ":4754,"°C":4755,"jutro ":4756,"ksa":4757,"našim ":4758,"ljestvi":4759,"eura ":4760,"Bije":4761,"rano ":4762,"vele":4763,"kredi":4764,"trans":4765,"090":4766,"ponaš":4767,"zabilje":4768,"tom, ":4769,"mu se ":4770,"držati ":4771,"najboljih ":4772,"AN":4773,"nau":4774,"reni ":4775,"jam ":4776,"dobila ":4777,"od njih ":4778,"sigurnosti ":4779,"drugači":4780,"036":4781,"fek":4782,"crve":4783,"tima, ":4784,"sam":4785,"va je ":4786,"Pogledajte ":4787,"tjele":4788,"197":4789,"Ban":4790,"cha":4791,"okre":4792,"utvr":4793,"nije.\n":4794,"li za ":4795,"čio ":4796,"Zako":4797,"dijela ":4798,"Baby ":4799,"Dinamo":4800,"gan ":4801,"mana ":4802,"plano":4803,"redi":4804,"Medi":4805,"turiz":4806,"57":4807,"T ":4808,"edu":4809,"hoda":4810,"ll ":4811,"izvan":4812,"predi":4813,"ci u ":4814,"ri i ":4815,"žev":4816," [_":4817,"štva ":4818,"vrijednosti ":4819,"Hrvatskoj.\n":4820,"Bal":4821,"II":4822,"ch ":4823,"član":4824,"su od ":4825,"zom ":4826,"pa i ":4827,"i pol ":4828,"obitelj ":4829,"trebaju ":4830,"zemalja ":4831,"rija ":4832,"ti o ":4833,"lju, ":4834,"više nego ":4835,"veni ":4836,"unutar":4837,"inozem":4838,"58":4839,"91":4840,"fan":4841,"niza":4842,"tima.\n":4843,"ske.\n":4844,", a ne ":4845,"ljena ":4846,"tuž":4847,"tvrtka ":4848,"mi se ":4849,"autobu":4850,"proizvođa":4851,"the ":4852,"Tomislav ":4853,"bren":4854,"evo ":4855,"fu":4856,"na tere":4857,"ji i ":4858,"lju.\n":4859,"inače ":4860,"Župani":4861,"Is":4862,"sami":4863,"te li ":4864,"ke u ":4865,"nika u ":4866,"bjed":4867,"vicar":4868,"stiga":4869,"izbora ":4870,"večer ":4871,"nado":4872,"privla":4873,"dužnosni":4874,"Ministarstva ":4875,"988":4876,"nite ":4877,"tica":4878,"ciona":4879,"županije ":4880,"Riječ ":4881,"postati ":4882,"prvenstva ":4883,"pripremi":4884,"uglavnom ":4885,"nama, ":4886,"mali ":4887,"gol":4888,"cije za ":4889,"potrebe ":4890,"mislim ":4891,"sustava ":4892,"kapa":4893,"zaista ":4894,"vrnu":4895,"koriste ":4896,"hrvatska ":4897,"Tali":4898,"profeso":4899,"-u":4900,"jni ":4901,"ć\n":4902,"va&zcaron;":4903,"ti, ali ":4904,"kić ":4905,"meni ":4906,"nja i ":4907,"zbog toga ":4908,"rekla ":4909,"Loko":4910,"Sveuči":4911,"dže":4912,"s_":4913,"pola ":4914,"tuži":4915,"družen":4916,"znam ":4917,"mlade ":4918,"Andrej ":4919,"znanstve":4920,"automobila ":4921,"69":4922,"Nor":4923,"ka&zcaron;e ":4924,"270":4925,"kad se ":4926,"regional":4927," za ":4928,"nastaviti ":4929,"ju&cacute;i ":4930,"Bio je ":4931,"našu ":4932,"Ante ":4933,"početkom ":4934,"titu":4935,"jutro":4936,"koji je po":4937,"stom ":4938,"Ale":4939,"inova":4940,"rta":4941,"da ga ":4942,"Liva":4943,"upozora":4944,"lakše ":4945,"Wil":4946,"rata ":4947,"odvo":4948,"nomi":4949,"vara ":4950,"da &cacute;e ":4951,"tari":4952,"mo se ":4953,"življa":4954,"velikom ":4955,"britan":4956," godina, ":4957,"Izrael ":4958,"El":4959,"vri":4960,"wi":4961,"tom.\n":4962,"zu.\n":4963,"Koliko ":4964,"ljubav ":4965,"suradnji ":4966,"parlamentar":4967,"49":4968,"bano":4969,"uboj":4970,"ć: ":4971,"ćanja ":4972,"moli":4973,"veće ":4974,"toč":4975,"bom":4976,"broja ":4977,"artic":4978,"učini":4979,"četvrt":4980,"Izrae":4981,"strani ":4982,"ments":4983,"ze.\n":4984,"ostati ":4985,"Joh":4986,"Bor":4987,"har":4988,"španjol":4989,"da za ":4990,"ciji, ":4991,"kazala je ":4992,"u Zagrebu ":4993,"ju, a ":4994,"Mađar":4995,"kriminali":4996,"stva, ":4997,"Kopri":4998,"iskustvo ":4999,"htt":5000,"Gre":5001,"Ima ":5002,"uprave ":5003,"vaše ":5004,"zabio ":5005,"se o ":5006,"loj ":5007,"mjere ":5008,"žava ":5009,"cija za ":5010,"nakon toga ":5011,"manji":5012,"Ministarstvo ":5013,"dalmatin":5014,"05":5015,"Nji":5016,"Pau":5017,"osno":5018,"tički ":5019,"Sigu":5020,"Ja sam ":5021,"Yor":5022,"nikak":5023,"ti od ":5024,"pronaš":5025,"pa.\n":5026,"osni":5027,", posebno ":5028,"svakog ":5029,"našoj ":5030,"programa ":5031,"ne&cacute;e ":5032,"zira ":5033,"javnosti ":5034,"smješta":5035,"rješa":5036,"građana ":5037,"skupine ":5038,"donijeti ":5039,"66":5040,"tiča":5041,"ster ":5042,"računa":5043,"Donal":5044,"snom ":5045,"čano":5046,"po&ccaron;e":5047,"zakon":5048,"susret ":5049,"osvojio ":5050,"poduzetni":5051,"Je li ":5052,"-u.\n":5053,"om, ":5054,"ya":5055,"rake":5056,"vatre":5057,"dose":5058,"kuha":5059,"Vide":5060,"pokrenu":5061,"voz":5062,"zabora":5063,"lov":5064,"razlog ":5065,"želim ":5066,"ment ":5067,"svakako ":5068,"gdje se ":5069,"svemu ":5070,"s:protected]":5071,"ni, a ":5072,"pojedi":5073,"neko ":5074,"zamije":5075,"presta":5076,"cijele ":5077,"brodo":5078,"tivni ":5079,"Već ":5080,"obuhva":5081,"na o ":5082,"moje ":5083,"ruke ":5084,"vanje, ":5085,"cija u ":5086,"njihovu ":5087,"dvije godine ":5088,"torica ":5089,"pronaći ":5090,"građani ":5091,"vo.\n":5092,"ma, ali ":5093,"predsta":5094,"Taj ":5095,"svijet ":5096,"Mje":5097,"nase":5098,"nagla":5099,"ju s ":5100,"čina ":5101,"pravu ":5102,"tijelo ":5103,"150":5104,"okol":5105,"psiho":5106,"eksplo":5107,"US":5108,"Wi":5109,"oni":5110,"pros":5111,"zirati ":5112,"će i ":5113,"ku u ":5114,"drži ":5115,"mlađ":5116,"ozlje":5117,"Mario ":5118,"defini":5119," kazao je ":5120,"u do":5121,"ize":5122,"bori":5123,"bak":5124,"sigurnost ":5125,"nijeti ":5126,"Dinama ":5127,"&cacute;ete ":5128,"prvenstvu ":5129,"cioni":5130,"poginu":5131,"52":5132,"je pri":5133,"tivi":5134,"kine":5135,"anja u ":5136,"Mož":5137,"siječnja ":5138,"sor":5139,"sada je ":5140,"minima":5141,"sredstva ":5142,"Baby Lasag":5143,"jima.\n":5144,"ljetni":5145,"Toma":5146,"ekonom":5147,"kapaci":5148,"BC":5149,"dira":5150,"podne":5151,"thor":5152,"nadlež":5153,"ljudi.\n":5154,"raspolo":5155,"jučer ":5156,"da u":5157,"sastan":5158,"točno ":5159,"vjež":5160,"ceste ":5161,"Zadar":5162,"reprezentacije ":5163,"tenisa":5164,"Hercegovi":5165,"blizini ":5166,"zin":5167,"reci":5168,"na od ":5169,"noći ":5170,"s je ":5171,"mer":5172,"imate ":5173,"zbor":5174,"još jedan ":5175,"mediji ":5176,"iznimno ":5177,"Engle":5178,"imovi":5179,"sob":5180,"an, ":5181,"cijo":5182,"prosla":5183,"k od ":5184,"sustav":5185,"nom i ":5186,"Zato ":5187,"mur":5188,"muze":5189,"velikog ":5190,"slučaj ":5191,"smjeru ":5192,"supruga ":5193,"&dstrok;er ":5194,"razmišlja":5195,"plan ":5196,"juž":5197,"godina, ":5198,"mjestu":5199,"traže ":5200,"kao što je ":5201,"plaća":5202,"slu&ccaron;a":5203,"slije":5204,"svaka ":5205,"centar ":5206,"potpu":5207,"Marija ":5208,"film":5209,"psolu":5210,"130":5211,"Ser":5212,"lana ":5213,"kojoj ":5214,"daju ":5215,"inspi":5216,"velikih ":5217,"mlado":5218,"bez obzi":5219,"objavila ":5220,"va, a ":5221,"nepo":5222,"nevjeroja":5223,"graf":5224,"sti u ":5225,"Hrvatske.\n":5226,"države ":5227,"zemlja":5228,"tržiš":5229,"Mi smo ":5230,"New Yor":5231,"Tro":5232,"ta\n":5233,"zara":5234,"žava":5235,"195":5236,"Sara":5237,"mobite":5238,"budući ":5239,"\"O":5240,"//":5241,"75":5242,"ciji":5243,"engle":5244,"sabo":5245,"parkira":5246,"klub":5247,"teritori":5248,"isključi":5249,"IN":5250,"hu ":5251,"šen ":5252,"podijeli":5253,"dala ":5254,"obvez":5255,"godina.\n":5256,"pa se ":5257,"đenih ":5258,"Rado":5259,"koliko je ":5260,"Zagrebu ":5261,"otkrio ":5262,"poslova ":5263,"pjesmu ":5264,"o: \"":5265,"ugro":5266,"line ":5267,"licu ":5268,"vi na ":5269,"takve ":5270,"konkre":5271,"Dali":5272,"tko je ":5273,"svijeta ":5274,"Odlu":5275,"Mnogi ":5276,"maksima":5277,"For":5278,"nska ":5279,"ol":5280,"wa":5281,"rela":5282,"čiš":5283,"njegovim ":5284,"češće ":5285,"https":5286,"Igo":5287,"Lije":5288,"ati":5289,"u odnosu na ":5290,"pogodi":5291,"di, ":5292,"sporazu":5293,"ševi":5294,"Kada ":5295,"gled ":5296,"onaj ":5297,"vodio ":5298,"čenja ":5299,"kompani":5300,"RA":5301,"ta je ":5302,"plaća ":5303,"opskr":5304,"čko-":5305,"situaciju ":5306,"Imamo ":5307,"u utorak ":5308,"video ":5309,"epizod":5310,"Bli":5311,"Ist":5312,"jskoj ":5313,"spje":5314,"nik, ":5315,"dali ":5316,"Nacional":5317,"vodu ":5318,"Proš":5319,"Njiho":5320,"počin":5321,"potvrdi":5322,"vaš ":5323,"s u ":5324,"treći ":5325,"i op":5326,"klear":5327,"Lokomoti":5328,"y, ":5329,"poraz":5330,"obrane ":5331,"izgubio ":5332,"Mislim ":5333,"Sjever":5334,"Igra":5335,"ret":5336,"jak ":5337,"verzi":5338,"noć ":5339,"laž":5340,"ja sam ":5341,"pristup ":5342,"supar":5343,"n u ":5344,". ožuj":5345,"vi su ":5346,"naši ":5347," sati.\n":5348,"infla":5349,"skladu ":5350,"temperatura ":5351,"podršku ":5352,"Aleksan":5353,"da nije ":5354,"zabrinu":5355,"desti":5356,"vješti":5357,"eura.\n":5358,"prilično ":5359,"europskih ":5360,"Tik":5361,"Slobod":5362,"agresi":5363,"boda":5364,"fti":5365,"bitno ":5366,"papi":5367,"če.\n":5368,"čice ":5369,"ficira":5370,"sluša":5371,"Nove ":5372,"informacija ":5373,"njegovom ":5374,"većina ":5375,"uspio ":5376," ko":5377,"adre":5378,"sak ":5379,"pa, ":5380,"juće ":5381,"dubro":5382,"hoće li ":5383,"tivnih ":5384,"prošlog ":5385,"običaje":5386,"DV":5387,"nskog ":5388,"zbi":5389,"to ne ":5390,"čevi":5391,"konstruk":5392,"đenja ":5393,"izborima ":5394,"Petro":5395,"cijskih ":5396,"trenutak ":5397,"uzbu":5398,"fakulte":5399,"Stra":5400,"t]":5401,"zvati ":5402,"ške ":5403,"promo":5404,"puca":5405,"praz":5406,"la je i ":5407,"l i ":5408,"koja će ":5409,"uspjeli ":5410,"Budi":5411," posto, ":5412,"Dakle, ":5413,"Ljubav ":5414,"ustano":5415,"ba, ":5416,"predstavi":5417,"javlji":5418,"dvostru":5419,"u ovoj ":5420,"Austra":5421,"područja ":5422,"snogovor":5423,"dodje":5424,"uš":5425,"lige ":5426,"volje":5427,"iznosi ":5428,"mo na ":5429,"luk":5430,"kuhin":5431,"znatno ":5432,"drž":5433,"Rad":5434,"njezine ":5435,"done":5436,"prekinu":5437,"jednim ":5438,"pisu ":5439,"što bi ":5440,"djete":5441,"čuju ":5442,"stupnje":5443,"Hama":5444,"borbi ":5445,"Zelen":5446,"mlja":5447,"o&ccaron;e":5448,"ruske ":5449,"progla":5450,"lena ":5451,"pisa ":5452,"46":5453,"Kor":5454,"la\n":5455,"sati ":5456,"sutra ":5457,"gina":5458,"i obi":5459,"&ccaron;etiri ":5460,"odusta":5461,"At":5462,"pin":5463,"s\n":5464,"anjem ":5465,"došao ":5466,"obr":5467,"an i ":5468,"euro":5469,"ković, ":5470,"terna":5471,"Hajduka ":5472,"nastupa ":5473,"BiH ":5474,"umjesto ":5475,"ugovor ":5476,"izdan":5477,"izjedna":5478,"nuklear":5479,"de i ":5480,"gedi":5481,"đuje ":5482,"dolazi":5483,"natjeca":5484,"Nizo":5485,"tz":5486,"ški ":5487,"vari":5488,"voli":5489,"mag":5490,"veri":5491,"to da ":5492,"njena ":5493,"predlo":5494,"bude":5495,"javnog ":5496,"vratiti ":5497,"otkrila ":5498,"teške ":5499,"na kojoj ":5500,"Ljudi ":5501,"Pje":5502,"okupi":5503,"kaz ":5504,"tsku ":5505,"ske i ":5506,"usob":5507,"njegovo ":5508,"promjene ":5509,"Također, ":5510," m":5511,"Kod ":5512,"ulag":5513,"polovi":5514,"kamp":5515,"za.\n":5516,"prista":5517,"grama ":5518,"Gori":5519,"prostori":5520,"društvenim mrežama ":5521,"Istra":5522,"čni":5523,"rom":5524,"negdje ":5525,"sura":5526,"poslije ":5527,"Europe":5528,"pjesme ":5529,"ite":5530,"ovim ":5531,"sin ":5532,"je rekao ":5533,"masli":5534,"dobri":5535,"dosad ":5536,"izvu":5537,"stira":5538,"predsjednica ":5539,"Doma":5540,"građan":5541,"zahvaljujući ":5542,"TV ":5543,"osigu":5544,"of ":5545,"morati ":5546,"loše ":5547,"progno":5548,"od strane ":5549,"hvali":5550,"centru ":5551,"objavio je ":5552,"ideal":5553,"temelju ":5554,"novinar":5555,"izbjega":5556,"://":5557,"postig":5558,"jam":5559,"nepozna":5560,"stoga ":5561,"glas":5562,"zor ":5563,"Premi":5564,"Bez ":5565,"S druge ":5566,"interven":5567,".)":5568,"Cel":5569,"Ol":5570,"ured":5571,"kola":5572,"meni":5573,"ve na ":5574,"poslije":5575,"veliko ":5576,"u povijesti ":5577,"poznati":5578,"majka ":5579,"osjećaj ":5580,"posao ":5581,"Domovinskog ":5582,"Er":5583,"GA":5584,"Vuči":5585,"tić ":5586,"centra ":5587,"imeno":5588,"Hrvatskoj, ":5589,"TikTo":5590,"400":5591,"idu ":5592,"k, a ":5593,"ty ":5594,"u na ":5595,"noć":5596,"mala ":5597,"dođe ":5598,"sekto":5599,"On je ":5600,"vidio ":5601,"tisti":5602,"živi ":5603,"ki, ":5604,"temelj":5605,"CM":5606,"ale":5607,"aplika":5608,"dne ":5609,"zvan":5610,"š, ":5611,"bija":5612,"no u ":5613,"prikup":5614,", poli":5615,"igrači ":5616,"filmo":5617,"reprezentacija ":5618,"kazuje ":5619,"Char":5620,"uoči ":5621,"kontinu":5622,"bron":5623,"dž":5624,"nan":5625,"tara ":5626,"sata ":5627,"rijet":5628,"lu i ":5629,"&dstrok;u":5630," ()":5631,"društvo ":5632,"otiš":5633,"članovi ":5634," S":5635,"one":5636,"ulaz":5637,"zah":5638,"plas":5639,"Hrvatske, ":5640,"stoji u ":5641,". lipnja ":5642,"kriminalisti":5643,"eksplozi":5644,"Bre":5645,"Stru":5646,"sra":5647,"ljepo":5648,"širo":5649,"Hrvatske":5650,"njihovim ":5651,"dobre ":5652,"Izrael":5653,"vatrogas":5654," milijardi ":5655,"bespla":5656,"dubrova":5657,"jsku ":5658,"nju, ":5659,"sme":5660,"t\n":5661,"vnoj ":5662,"anke":5663,"razmje":5664,"strate":5665,"do sada ":5666,"stva i ":5667,"istom ":5668,"link":5669,"pobjede ":5670,"stabil":5671,"SS":5672,"fon":5673,"ocje":5674,"osumnji":5675,"vjed":5676,"pobolj":5677,"miri":5678,"staro":5679,"indi":5680,"jima, ":5681,"tsko ":5682,"sam se ":5683,"arhi":5684,"osje&cacute;a":5685,"Vjeru":5686,"54":5687,"htio ":5688,"mlji":5689,"skan":5690,"pri&ccaron;a":5691,"an je ":5692,"Jugo":5693,"Rijeke ":5694,"nedjelj":5695,"lištu ":5696,"različitih ":5697,".o":5698,"DO":5699,"Slu":5700,"okvi":5701,"ry ":5702,"yer":5703,"šnje":5704,"paro":5705,"mo da ":5706,"čić, ":5707,"koje će ":5708,"ostali ":5709,"klubu ":5710,"ovako ":5711,"pogoda":5712," minuta ":5713,"inicijati":5714,"Con":5715,"ction":5716,"m_":5717,"nica.\n":5718,"napre":5719,"pojavi":5720,"telja.\n":5721,"riječi":5722,"je potreb":5723,"događa ":5724,"igre ":5725," '":5726," zaključi":5727,"uve":5728,"o kako ":5729,"nice, ":5730,"siro":5731,"plasti":5732,"tvrde ":5733,"itle":5734,"Brazi":5735,"Sli":5736,"nju.\n":5737,"sh":5738,"s kojim ":5739,"trofe":5740,"obično ":5741,"smrti ":5742,"humani":5743,"elektro":5744,"A-":5745,"Ivica ":5746,"Kro":5747,"chi":5748,"far":5749,"s]":5750,"čana ":5751,"tira ":5752,"neovi":5753,"s kojima ":5754,"ima i ":5755,"Sad ":5756,"njihovih ":5757,"da bi se ":5758,"Iako je ":5759,"kategoriji ":5760,"žalost, ":5761,"article":5762," °C":5763,"tnije ":5764,"je \"":5765,"reda ":5766,"mo i ":5767,"vanje":5768,"traži ":5769,"Poče":5770,"snimi":5771,"sve do ":5772,"Split ":5773,"odnos ":5774,"Hi":5775,"Var":5776,"lori":5777,"propusti":5778,"proslavi":5779,"to su ":5780,"gostu":5781,"stiže ":5782,"ve za ":5783,"čeki":5784,"gama ":5785,"što će ":5786,"žila ":5787,"nijela ":5788,"Europskog ":5789,"CI":5790,"ugosti":5791,"umirovlje":5792,"jete ":5793,"novoj ":5794,"prolje":5795,"duho":5796,"najvi":5797,"nakon što su ":5798,"ciju i ":5799,"dvoje ":5800,"dan.\n":5801,"uspjeh ":5802,"brojni ":5803,"HDZ-o":5804,"Europi":5805,"zadnjih ":5806,"Mislim da ":5807,"košarka":5808,"43":5809,"gh":5810,"kolek":5811,"nakna":5812,"m se ":5813,"sasvim ":5814,"v za ":5815,"spomi":5816,"cija i ":5817,"festa":5818,"javnost ":5819,"vanja i ":5820,"Primora":5821,"grom":5822,"klima":5823,"prostor ":5824,"stvo, ":5825,"o:\n":5826,"se dogodi":5827,"prigod":5828,"Među ":5829,"jednako ":5830,"godinu dana ":5831,"razdoblju ":5832,"Dan ":5833,"štu":5834,"korup":5835,"inspek":5836,"od kojih ":5837,"traje ":5838,"Maj":5839,"trgova":5840,"proizvoda ":5841,"dovesti ":5842,"koristiti ":5843,"ovoga ":5844,"RE":5845,"jefti":5846,"pribli":5847,"derbi":5848,"c i ":5849,"li su iz ":5850,"Nova ":5851,"izaš":5852,"postaje ":5853,"programu ":5854,"samom ":5855,"dugoro":5856,"opo":5857,"simp":5858,"kuć":5859,"žić":5860,"želj":5861,"du i ":5862,"zbog čega ":5863,"na poče":5864,"kreativ":5865,"Qu":5866,"rlji":5867,"nić ":5868,"rene ":5869,"vina ":5870,"ted":5871,"sudjelu":5872,"ce u ":5873,"tako&dstrok;er ":5874,"Rusija ":5875,"bivšeg ":5876,"Riječ je o ":5877,"ote":5878,"nica, ":5879,"ca\n":5880,"ca, a ":5881,"dosadaš":5882,"propa":5883,"priprema ":5884,"obje":5885,"javlja ":5886,"nostima ":5887,"ženi ":5888,"sezonu ":5889,"očekuje ":5890,"zapovjedni":5891,"ginu":5892,"rijetko ":5893,"stupa ":5894,"gled":5895,"vlada ":5896,"slava ":5897,"nika i ":5898,"na kojima ":5899,"HDZ ":5900,"restora":5901,"han":5902,"sen ":5903,"ko.\n":5904,"kov ":5905,"niju ":5906,"recep":5907,"dovo":5908,"ša, ":5909,"men ":5910,"brojnim ":5911,"tisuće ":5912,"vrhu ":5913,"aka":5914,"klije":5915,"o, a ":5916,"vlja ":5917,"Ško":5918,"dopu":5919,"nih i ":5920,"traž":5921,"posred":5922,"broju ":5923,"-ak ":5924,"Europskom ":5925,"izbornik ":5926,"konačno ":5927,"Filip ":5928,"RIJ":5929,"k\n":5930,"ših ":5931,"neka":5932,"strada":5933,"kemi":5934,"Mosk":5935,"mrt":5936,"posljednji ":5937,"ekipa ":5938,"Festi":5939,"Također ":5940,"intervju":5941,"64":5942,"Spa":5943,"nik.\n":5944,"jati ":5945,"stupak ":5946,"ostavi":5947,"Damir ":5948,"formira":5949,"Jaki":5950,"Ange":5951,"vrijednost ":5952,"Trenu":5953,"priopći":5954,"detalj":5955,"Posljed":5956,"eduka":5957,"ukra":5958,"vdje ":5959,"roman":5960,"odgova":5961,"voli ":5962,"djelo ":5963,"zelen":5964,"cijeni":5965,"glavnog ":5966," bodova":5967,"Što se tiče ":5968,"Mer":5969,"ly ":5970,"volu":5971,"dok":5972,"izme&dstrok;u ":5973,"stala ":5974,"lestin":5975,"sur":5976,"o je da je ":5977,"nović ":5978,"minuta ":5979,"minira":5980,"&ccaron;ak ":5981,"beni ":5982,"ćenja ":5983,"roditelji ":5984,"došli ":5985,"fron":5986,"tost ":5987,"pet":5988,"filma ":5989,"istraživanje ":5990,"bolesti ":5991,"naslov ":5992,"oduševlje":5993,"u potpu":5994,"ovoj ":5995,"nae":5996,"tica ":5997,"lijepo ":5998,"sezoni ":5999,"Indi":6000,"susreta ":6001,"prijedlog ":6002,"legendar":6003,"Klu":6004,"Men":6005,"jno ":6006,"opor":6007,"ljeni ":6008,"anovi":6009,"krimina":6010,"ostale ":6011,"dijelom ":6012,"mom&ccaron;a":6013," milijuna eura.\n":6014,"omogući":6015,"Nizozem":6016,"Che":6017,"Jako ":6018,"Londo":6019,"e-":6020,"nior":6021,"nekog ":6022,"preci":6023,"to i ":6024,"kupu":6025,"ljeta ":6026,"znaju ":6027,", pogotovo ":6028,"jedino ":6029,"moguću":6030,"uspješno ":6031,"Brita":6032,"servi":6033,"fanta":6034,"tima":6035,"ne smi":6036,"veća ":6037,"zim":6038,"cesta":6039,"šao je ":6040,"Milo":6041,"je doš":6042,"zdravlje ":6043,"izvođa":6044,"mogućnosti ":6045,"Real Madri":6046,"u&ccaron;i":6047,"telja, ":6048,"tam":6049,"zadrža":6050,"prihod":6051,"ce\n":6052,"l u ":6053,"izazva":6054,"Nakon što je ":6055,"uključi":6056,"zvala ":6057,"Švicar":6058,"pake":6059,"suda ":6060,"&ccaron;ne ":6061,"li su u ":6062,") - ":6063,"životu ":6064,"zemlja ":6065,"SP":6066,"uskoro ":6067,"nome ":6068,"neku ":6069,"li da je ":6070,"doživje":6071,"stvar ":6072,"učiniti ":6073,"sank":6074,"Treba ":6075,"u kojoj je ":6076,"zajedno s ":6077,"nošću ":6078,"scipli":6079,"Af":6080,"ST":6081,"wit":6082,"šlja":6083,"ver ":6084,"prima":6085,"ke, a ":6086,"Osim toga, ":6087,"Jadranu ":6088,"službeno ":6089,"konferenciji ":6090,"MO":6091,"gli":6092,"domo":6093,"kupo":6094,"sve više ":6095,"favori":6096,"ljudi, ":6097,"HA":6098,"okrenu":6099,"zlije":6100,"č, ":6101,"rom.\n":6102,"m na ":6103,"veća":6104,"privu":6105,"galle":6106,"velik ":6107,") u ":6108,"lište ":6109," milijuna eura ":6110,"očekivan":6111,"nikom ":6112,"vija ":6113,"discipli":6114,"sina ":6115,"vraća":6116,"svaku ":6117,"svijeta.\n":6118,"grupe ":6119,"gallery":6120,"41":6121,"89":6122,"Gal":6123,"Tor":6124,"canje ":6125,"tanje ":6126,"lista ":6127,"prekra":6128,". kola ":6129,"prati ":6130,"Davo":6131,"Nogo":6132,"Bayer":6133,"janju ":6134,"samog ":6135,"fal":6136,"ostav":6137,"tpuno ":6138,"navod":6139,"listi ":6140,"da to ":6141,"da ih ":6142,"maši":6143,"sat ":6144,"i ove ":6145,"još jednom ":6146,"reprezentati":6147,"terapi":6148,"obeća":6149,"51":6150,"Kan":6151,"gli ":6152,"ir":6153,"obje ":6154,"nije u ":6155,"bez":6156,"koji je bio ":6157,"&ccaron;etvr":6158,"govorio ":6159,"ćenje ":6160,"lokalne ":6161,"Slavo":6162,"članova ":6163,"sjevero":6164,"Osta":6165,"ska.\n":6166,"bi, ":6167,"g i ":6168,"save":6169,"ruku ":6170,"miru ":6171,"meteo":6172,"smo se ":6173,"kazala ":6174,"Vatre":6175,"Međunarod":6176,"sudac ":6177,"susjed":6178,"redovito ":6179,"320":6180,"er ":6181,"rezer":6182,"moć ":6183,"vanjskih ":6184,"ca na ":6185,"ostala ":6186,"prvenstvo ":6187,"Dubrovnik ":6188,"iznos ":6189,"Mon":6190,"iste ":6191,"o od ":6192,"cifi":6193,"ljanju ":6194,"lom, ":6195,"znak ":6196,"Gat":6197,"LERIJ":6198,"izvješta":6199,"njegovoj ":6200,"GALERIJ":6201,"Fer":6202,"sruši":6203,"upi":6204,"čanje ":6205,"nice.\n":6206,"an za ":6207,"le na ":6208,"ković.\n":6209,"vanja u ":6210,"šta, ":6211,"probleme ":6212,"trenera ":6213,"...'\n":6214,"zatvore":6215,"njegovog ":6216,"On":6217,"apsolu":6218,"jne ":6219,"t_":6220,"tadaš":6221,"cilj":6222,"proved":6223,"ku, a ":6224,"&ccaron;kog ":6225,"ša.\n":6226,"vu i ":6227,"kreve":6228,"tjeca":6229,"ostao ":6230,"iga":6231,"naru":6232,"vač ":6233,"teži":6234,"jasni":6235,"ćima ":6236,"Radi ":6237,"Kore":6238,", osim ":6239,"postao ":6240,"smješte":6241,"HDZ-a ":6242,"zaštitu ":6243,"trud":6244,"manifesta":6245,". srpnja ":6246,"objašnjava ":6247,"120":6248,"53":6249,"Spo":6250,"Ta ":6251,"Tri":6252,"Unatoč ":6253,"ubije":6254,"nijim ":6255,"podrža":6256,"ruka":6257,"razno":6258,"šeće":6259,"mislim da ":6260,"stranka ":6261,". listopada ":6262,"Inače, ":6263,"je da je ":6264,"nila ":6265,"jača":6266,"davno ":6267,"tragedi":6268,"biti u ":6269,"blizu ":6270,"stanu ":6271,"hrvatskim ":6272,"državnog ":6273,"najveća ":6274," od ":6275," dana ":6276,"yja ":6277,"na, ali ":6278,"lici ":6279,"la od ":6280,"zi.\n":6281,"kući ":6282,"vrste ":6283,"ćena ":6284,"stavljanje ":6285,"onako ":6286,"njegovih ":6287,"Na kraju ":6288,"Vlada ":6289,"Lin":6290,"NK ":6291,"Tvr":6292,"atra":6293,"m, ali ":6294,"ćanje ":6295,"špi":6296,"izbaci":6297,"putu ":6298,"tak.\n":6299,"cijama, ":6300,"međusob":6301,"&cacute;e se ":6302,"parti":6303,", on ":6304,"Dubra":6305,"Njemačkoj ":6306,"Josipa ":6307,"izvanred":6308,"Stje":6309,"stvr":6310,"komisi":6311,"daje ":6312,"božić":6313,"sudu ":6314,"- kaže ":6315,"Nada":6316,"kojeg je ":6317,"Manche":6318,"Im":6319,"cho":6320,"naja":6321,"laga":6322,"ciljem ":6323,"čet":6324,"žili ":6325,"riječi ":6326,"ostaje ":6327,"prometne ":6328,"Gattu":6329,"Dar":6330,", i ":6331,"namir":6332,"vati.\n":6333,"logu ":6334,"proje":6335,"priori":6336,"ljene ":6337,"ljeno ":6338,"ju\n":6339,"čast ":6340,"straš":6341,"vratio ":6342,"formi":6343,"Jutar":6344,"Dubrova":6345,"mlije":6346,"sjed":6347,"u tom ":6348,"je ovo ":6349,"tvori":6350,"potpisa":6351,"Goran ":6352,"dobra ":6353,"europske ":6354,"RO":6355,"Stoga ":6356,"ala":6357,"te da je ":6358,"Mat":6359,"190":6360,"kvadra":6361,"milijun ":6362,"78":6363,"Ton":6364,"co ":6365,"radu ":6366,"nisti":6367,"doj":6368,"ma s ":6369,"&ccaron;ka ":6370,"treće ":6371,"ćeni":6372,"prednost ":6373,"ispita":6374,"pješa":6375,"ako se ":6376,"cijska ":6377,"napada ":6378,"Tele":6379,"skoj, ":6380,"trenutačno ":6381," meta":6382,"600":6383,"Title":6384,"tsko-":6385,"kovi ":6386,"vide ":6387,"ti su ":6388,"ruski ":6389,"stav ":6390,"d i ":6391,"vrsta ":6392,"otpa":6393,"pravlja":6394,"Ligi ":6395,"nositi ":6396,"telefo":6397,"natjecanja ":6398,"proces ":6399,"CO":6400,"Gar":6401,"Kos":6402,"tona ":6403,"šić, ":6404,"soli":6405,"pravila ":6406,"Fil":6407,"Varaždin ":6408,"vozač ":6409,"tržištu ":6410,"isključivo ":6411,"humanitar":6412,"UP":6413,"ćom ":6414,"dočeka":6415,"doista ":6416,"ri u ":6417,"Mal":6418,"Zahva":6419,"već u ":6420,"Budu":6421,"nagradu ":6422,"Hezbo":6423,"smatraju ":6424,"trašnjo":6425,"63":6426,"Ana ":6427,"of":6428,"t, a ":6429,"rasta ":6430,"nio":6431,"volim ":6432,"policije ":6433,"godišnjeg ":6434,"dolaze":6435,"glum":6436,"interesira":6437,"jedinstven":6438,"BA ":6439,"kove ":6440,"niste ":6441,"rice, ":6442,"vije ":6443,"nekom ":6444,"t ću ":6445,"vanja":6446,"sve to ":6447,"onda je ":6448,"ha.\n":6449,"nici su ":6450,"tijela ":6451,"slobodna":6452,"Com":6453,"potrebno ":6454,"lazak u ":6455,"Srp":6456,". kolovoza ":6457,"59":6458,"Kli":6459,"našem ":6460,"voka":6461,"desni":6462,"zerva":6463,"gleda ":6464,"tom i ":6465,"filmu ":6466,"stavljaju ":6467,"Križev":6468,"Valen":6469,"\".":6470,"Sun":6471,"nskih ":6472,"no, a ":6473,"valo ":6474,"zadar":6475,"se nije ":6476,"se može ":6477,"leri":6478,"&zcaron;i ":6479,"života.\n":6480,"navede":6481,"\" i \"":6482,"dalmacija":6483,"Sport ":6484,"Večer":6485,"Video":6486,"ela ":6487,"loda":6488,"{\"":6489,"niz":6490,"navodno ":6491,"invali":6492,"pala":6493,"kući":6494,"kao da ":6495,"još nije ":6496,"čin ":6497,"108":6498,"svijetu.\n":6499,"čeni ":6500,"slučaje":6501,"Euroson":6502,"dokumenta":6503,"RH ":6504,"Uvijek ":6505,"sc.\n":6506,"kop":6507,"rez":6508,"inde":6509,"pular":6510,"bavi ":6511,". siječnja ":6512,"zele":6513,"trgo":6514,"tako i ":6515," sati, ":6516,"susretu ":6517,"sumnje ":6518,"u kojem je ":6519,"upravlja":6520,"neugod":6521,"muškarac ":6522,"Saraje":6523,"Godi":6524,"nima.\n":6525,"naju":6526,"val ":6527,"ma: ":6528,"dila ":6529,"- rekla je ":6530,"vodo":6531,"ća na ":6532,"koja su ":6533,"194":6534,"nekoliko dana ":6535,"primjer ":6536,"Šiben":6537,"scenari":6538,"savršen":6539,"likop":6540,". travnja ":6541,"poklo":6542,"bili":6543,"izgra":6544,"ziva ":6545,"glasnogovor":6546,"Petra ":6547,"Juž":6548,"S obzirom na ":6549,"postoje ":6550,"kupiti ":6551,"građane ":6552," godine ":6553,"th ":6554,"rom, ":6555,"n za ":6556,"Net":6557,"pruža":6558,"bijedio ":6559,"najveće ":6560,"kaznenog ":6561,"različite ":6562,"značajno ":6563,"nastavku ":6564,"conta":6565,"strategi":6566,"61":6567,"Upravo ":6568,"žan":6569,"žen ":6570,"napla":6571,"odve":6572,"vice ":6573,"skre":6574,"bašti":6575,"&ccaron;in ":6576,"cesti ":6577,"New":6578,"njegovi ":6579,"Međi":6580,"nji li":6581,"ekstre":6582,"zgrade ":6583,"fantasti":6584,"Oli":6585,"Pan":6586,"Sch":6587,"Vra":6588,"stvu.\n":6589,"nima, ":6590,"odradi":6591,"ve&cacute;":6592,"info":6593,"suoča":6594,"cijskog ":6595,"je osvoji":6596,"odr&zcaron;a":6597,"europskim ":6598,"članica ":6599,"kombina":6600,"izuzetno ":6601,"-u, ":6602,"Obi":6603,"omilje":6604,"ss":6605,"voje ":6606,"doslo":6607,"&zcaron;u ":6608,"šiben":6609,"škola":6610,"klup":6611,"dobru ":6612,"čelnik ":6613,"produk":6614,"Modrić ":6615,"vjerujem ":6616,"EF":6617,"Mc":6618,"glji":6619,"posto ":6620,"and ":6621,"za, ":6622,"priče ":6623,"ce, a ":6624,"izbor ":6625,"sezone.\n":6626,"koju su ":6627,"predstavlja":6628,"financi":6629,"pravosu":6630,"zahtije":6631," rekao je.\n":6632,"š.\n":6633,"pona":6634,"oda ":6635,"preven":6636,"pristup":6637,"bio u ":6638," eura":6639,"događ":6640,"Njemač":6641,"vlasnik ":6642,"načelnik ":6643,"ispiti":6644,"\"}":6645,"Zvo":6646,"Či":6647,"rat ":6648,"nauči":6649,"kama":6650,". stolje":6651,"stože":6652,"čar ":6653,"razne ":6654,"anost ":6655,"ha, ":6656,"žup":6657,"sloven":6658,"speri":6659,"brojnih ":6660,"premijera ":6661,"psihi":6662,"even":6663,"nih":6664,"vima.\n":6665,"ti se ":6666,"mojte ":6667,"datu":6668,"pritom ":6669,"guž":6670,"me i ":6671,", pozna":6672,"državni ":6673,"Primor":6674,"najbolja ":6675,"transfe":6676,"Njemačko":6677,"korištenje ":6678,"platformi ":6679,"Ukrajini ":6680,"katastro":6681,"Willi":6682,"87":6683,"Gro":6684,"ići ":6685,"ustav":6686,"ponos":6687,"telja":6688,"zam ":6689,"preuzi":6690,"sred ":6691,"odigrao ":6692,"doći do ":6693,"smislu ":6694,"Ad":6695,"Are":6696,"oku":6697,"udar":6698,"raka ":6699,"ni\n":6700,"rok ":6701,"na - ":6702,"dogovori":6703,"dika":6704,"mog ":6705,"dama ":6706,"zima ":6707,"čić.\n":6708,"svoja ":6709,"im se ":6710,"re za ":6711,"ostalih ":6712,"Jedi":6713,"komp":6714,"itemImage":6715,"iskustva ":6716,"činjenica ":6717,"regula":6718,"dodije":6719," metara ":6720,"olak":6721,"sv.\n":6722,"i ne ":6723,"s (":6724,"ki.\n":6725,"kraljev":6726,"svjetskog ":6727,"Author":6728,"zaštite ":6729,"Drugi ":6730,"Nu":6731,"smo":6732,"č.\n":6733,"pogreš":6734,"vita":6735,"maso":6736,"mena":6737,"bolje":6738,"mjera ":6739,"stranici ":6740,"u polu":6741,"Dani":6742,"njihovo ":6743,"društva ":6744,"društvu ":6745,"otkriva ":6746,"grob":6747,"klih ":6748,"ozljede ":6749,"diploma":6750,"77":6751,"IV":6752,"Tak":6753,"č":6754,"igre":6755,"klan":6756,"kore":6757,"sad":6758,"min ":6759,"super":6760,"gađa":6761,"dru&ccaron;":6762,"najljep":6763,"še.\n":6764,"Kada je ":6765,"ke\n":6766,"igrao ":6767,"zu, ":6768,"feno":6769,"Rela":6770,"odlu&ccaron;i":6771,"vrijeme.\n":6772,"tri godine ":6773,"vremenom ":6774,"kinja ":6775,"Treba":6776,"događaja ":6777,"odlučio ":6778,"Općine ":6779,"Svaki ":6780,"reče":6781,"ode":6782,"doba ":6783,"s kojom ":6784,"te u":6785,"- kazao je ":6786,"prje":6787,"kratko ":6788,"geo":6789,"cijama.\n":6790,"ostalim ":6791,"stanju ":6792,"Pav":6793,"mogle ":6794,"ministra":6795,"prošli ":6796,"istra&zcaron;i":6797,"model ":6798,"nastavlja ":6799,"razvoja ":6800,"bez obzira na ":6801," stupnje":6802,"Sma":6803,"Umjesto ":6804,"tanja ":6805,"jem.\n":6806,"neg":6807,"male ":6808,"prof":6809,"priču ":6810,"j i ":6811,"padu ":6812,"Mami":6813,"takvih ":6814,"otprilike ":6815,"Bila je ":6816,"nice i ":6817,"varaž":6818,"održati ":6819,"građevin":6820,"Turudi":6821," sekun":6822,"afe":6823,"oprav":6824,"bi.\n":6825,"bolja ":6826,"te doda":6827,"seg":6828,"- doda":6829,"osvrnu":6830,"tražiti ":6831,"grmlja":6832,"Ova":6833,"kli ":6834,"otac ":6835,"yo":6836,"nalazi ":6837,"na (":6838,"teže ":6839,"njene ":6840,"nije bila ":6841,"ze, ":6842,"sa u ":6843,"prvaka.\n":6844,"smanju":6845,"okola":6846,". svibnja ":6847,"Manchester ":6848,"Ir":6849,"cke":6850,"ligi":6851,"moz":6852,"Naravno, ":6853,"Kara":6854,"mi smo ":6855,"cu i ":6856,"borbe ":6857,"promet ":6858,"nogometnog ":6859,"izvrš":6860,"slobodnadalmacija":6861,"-i":6862,"76":6863,"DJE":6864,"Vodi":6865,"bo ":6866,"popla":6867,"timi":6868,"gosti ":6869,"či, ":6870,"tu, a ":6871,"lo da ":6872,"cer":6873,"dr. ":6874,"da se radi o ":6875,"rekla":6876,"održivo":6877,"Rumun":6878,"pretpo":6879,"images":6880,"Ali":6881,"R ":6882,"jesen":6883,"gore ":6884,"jica ":6885,"snaga ":6886,"krš":6887,"postoje":6888,"razliku od ":6889,"šokira":6890,"suradnji s ":6891,"plasman ":6892,"este":6893,"učinkovi":6894,"Šo":6895,"la do ":6896,"tom":6897,"prisi":6898,"meha":6899,"sebe.\n":6900,"čito ":6901,"drže ":6902,"moram ":6903,"problemi":6904,"sportski ":6905,"Trumpo":6906,"itekako ":6907,"S druge strane, ":6908,"imu":6909,"šta.\n":6910,"visi":6911,"ti?\n":6912,"bal":6913,"trenut":6914,"dvori":6915,"podsje":6916,"Europe ":6917,"Kako je ":6918,"unato":6919,"organizaciji ":6920,"video":6921,"ekonomi":6922,"hing":6923,"u Splitu ":6924,"smanjenje ":6925,"motoci":6926,"-om ":6927,"71":6928,"hd_":6929,"snu":6930,"pomi":6931,"tati ":6932,"dio je ":6933,"more ":6934,"log":6935,"mice ":6936,"prolaz":6937,"čim ":6938,"vrše":6939,"peto":6940,"-a u ":6941,"mogu biti ":6942,"podne ":6943,"vremena.\n":6944,"dolara ":6945,"Prva ":6946,"Varaždinske ":6947,"Vol":6948,"istraživanja ":6949,"nastupa":6950,"G ":6951,"ds":6952,"y.\n":6953,"povu":6954,"lić, ":6955,"vani":6956,"tegor":6957,"dili ":6958,"znamo ":6959,"snima":6960,"Nikoli":6961,"Auto":6962,"državlja":6963,"ski, ":6964,"američki ":6965,"skupina ":6966,"promijeniti ":6967,"fak":6968,"i pre":6969,"prosti":6970,"r na ":6971,"putu":6972,"godine":6973,"nu za ":6974,"sve što ":6975,"javio ":6976,"zemlji ":6977,"com.\n":6978,"europski ":6979,"politički ":6980,"prihvatlji":6981,"želimo ":6982,"zdravstvene ":6983,"skladu s ":6984,"\"S":6985,"Ujedinje":6986,"olu":6987,"je iz ":6988,"oduze":6989,"vis":6990,"dopusti":6991,"dari":6992,"ca za ":6993,"trener":6994,"razvija":6995,"že.\n":6996,"\" - ":6997,"igraju ":6998,"li su i ":6999,"siguran ":7000,"&dstrok;a ":7001,"mjesto u ":7002,"objavila je ":7003,"prvenstven":7004,"bolnici ":7005,"zadnje ":7006,"riješiti ":7007,"sebice ":7008,"slobodnadalmacija.hr":7009,"250":7010,"NI":7011,"ugod":7012,"čvr":7013,"tite ":7014,"lum":7015,"što znači ":7016,"cesta ":7017,"osmi":7018,"tivnim ":7019,"ran.\n":7020,"već i ":7021,"ću i ":7022,"Slaven ":7023,"Njegova ":7024,"Zu":7025,"eg":7026,"nio je ":7027,"pouz":7028,"čije ":7029,"šao na ":7030,"cijelog ":7031,"pa su ":7032,"jedina ":7033,"utakmice.\n":7034,"land ":7035,"napadu ":7036,"mnog":7037,"Severi":7038,"natječa":7039,"izvor ":7040,"Amerikan":7041,"Republike Hrvatske ":7042," ali ":7043,"Dana ":7044,"Han":7045,"u za ":7046,"maš":7047,"bil":7048,"zasta":7049,"zadovo":7050,"provodi ":7051,"statisti":7052,"ing ":7053,"čević ":7054,"stoje ":7055,"ili su ":7056,"lazi na ":7057,"šenje ":7058,"većih ":7059,"Prvo ":7060,"večeras ":7061,"ozlijeđe":7062,"tvrtki ":7063,"Belgi":7064,"jsko ":7065,"lli":7066,"vnici ":7067,"lak ":7068,"mama ":7069,"pazi":7070,"te s ":7071,"že, ":7072,"šević ":7073,"voditelj ":7074,"prijatelja ":7075,"Europski ":7076,"specifi":7077,"samosta":7078,"skupini ":7079,"planira ":7080,"Igor ":7081,"nekadaš":7082,"Ara":7083,"v. ":7084,"pretje":7085,"pamet":7086,"deći ":7087,". velja":7088,"slike":7089,"ight":7090,"udara":7091,"visoke ":7092,"interes ":7093,"Željko ":7094,"Ide":7095,"Ona ":7096,"iste":7097,"lti":7098,"onoga ":7099,"Šved":7100,"raste ":7101,"ciklu":7102,"li ste ":7103,"loši":7104,"preva":7105,"in_":7106,"razinu ":7107,"ku na ":7108,"ljim ":7109,"snije":7110,"javni ":7111,"štetu ":7112,"život.\n":7113,"helikop":7114,"morao ":7115,"snagu ":7116,"pobjedu ":7117,"nezadovolj":7118,"Jedna ":7119,"odbora ":7120,"karakte":7121,"Očeku":7122,"can":7123,"kaž":7124,"magi":7125,"i uz ":7126,"nju i ":7127,"njihovi ":7128,"vojne ":7129,"boda ":7130,"Belu":7131,". godine, a ":7132,"otvori":7133,"elektra":7134,"Cilj ":7135,"kaže, ":7136,"okružen":7137,"jskim igra":7138,"blagdan":7139," /":7140,"ET":7141,"\\u":7142,"šanje ":7143,"jesu ":7144,"ranje":7145,"nada":7146,"rob":7147,"odgovo":7148,"vima, ":7149,"j u ":7150,"dječa":7151,"optere":7152,"&cacute;e biti ":7153,"vanje i ":7154,"doga&dstrok;a":7155,"čane ":7156,"čani ":7157,"politike ":7158,"Veliki ":7159,"-godišnjak ":7160,"elemen":7161,"Jedan od ":7162,"Ali, ":7163,"oči ":7164,"rski ":7165,"udruge ":7166,"vale ":7167,"vajte ":7168,"tad ":7169,"ku\n":7170,"ministri":7171,"pravo na ":7172,"je dobio ":7173,"borbu ":7174,"političke ":7175,"knjige ":7176,"navijača ":7177,"nogometne ":7178,"obožava":7179,"Velika ":7180,"većinom ":7181,"Njegov ":7182,"pisuje ":7183,"Koprivni":7184,"Međimur":7185,"Zrin":7186,"onima ":7187,"oglasi":7188,"tno":7189,"odnosi":7190,"vid":7191,"li o ":7192,"ka od ":7193,"selje":7194,"jom, ":7195,"razgova":7196,"cijelo ":7197,"anović ":7198,"nas je ":7199,"Vik":7200,"skupšti":7201,"vlasništvu ":7202,"duboko ":7203,"u potpunosti ":7204,"Uprav":7205,"ly":7206,"vci ":7207,"površi":7208,"pošto":7209,"tine ":7210,"zauze":7211,"propu":7212,"met ":7213,", au":7214,"koje bi ":7215,"takva ":7216,"kreće ":7217,"je poli":7218,"vrijeme, ":7219,"dolazak ":7220,"udarac ":7221,"američke ":7222,"podacima ":7223,"automobil ":7224,"blago":7225,"priopćenju ":7226,"Ex":7227,"Plu":7228,"Tho":7229,"Ču":7230,"mo&zcaron;":7231,"mikro":7232,"jedva ":7233,"sig":7234,"ka s ":7235,"ziv ":7236,"čem ":7237,"stoja":7238,"duze":7239,"ordina":7240,"vijeća ":7241,"spon":7242,"koncentra":7243,"miješa":7244,"izbori ":7245,"ministra ":7246,"poziv ":7247,"funkcionira":7248,"prepoznatlji":7249,"uzroko":7250,"komplek":7251,"Was":7252,"cy":7253,"nskom ":7254,"naf":7255,"rović ":7256,"lija ":7257,"liste ":7258,"se od ":7259,"jutar":7260,"ca je ":7261,"raznih ":7262,"i poče":7263,"i oni ":7264,"manju ":7265,"policaj":7266,"početak ":7267,"sljedeće ":7268,"iznosu od ":7269,"emisiji ":7270,"Robert ":7271,"hr":7272,"mra":7273,"stvima ":7274,"kota":7275,"pogleda":7276,"vili ":7277,"nemi":7278,"doja":7279,"div":7280,"dima ":7281,"la su ":7282,"izrav":7283,"ljeto ":7284,"Zanimlji":7285,"kontek":7286,"Rafa":7287,"kad su ":7288,"u Srbi":7289,"spaša":7290,"reprezentativ":7291,"odgovornost ":7292,"istinu ":7293,"zaustavi":7294,"Berli":7295,"MA":7296,"Mor":7297,"Uprave ":7298,"jo ":7299,"omoguću":7300,"war":7301,"zbu":7302,"štraj":7303,"nara":7304,"postro":7305,"va\n":7306,"vater":7307,"stići ":7308,"čelu ":7309,"nije i ":7310,"tijeku ":7311,"loptu ":7312,"razdoblje ":7313,"smanjiti ":7314,"spriječi":7315,"simpto":7316,"Galle":7317," izjavio je ":7318,"98":7319,"Adri":7320,"Jen":7321,"bija ":7322,"golom ":7323,"nih u ":7324,"posloda":7325,"stranih ":7326,"mu i ":7327,"manji ":7328,"štan":7329,"kazati ":7330,"&dstrok;i":7331,"svjetski ":7332,"važnost ":7333,"To su ":7334,"kazuju ":7335,"zapošlja":7336,"razvoju ":7337,"lski ":7338,"ys":7339,"zgod":7340,", koji je ":7341,"kami":7342,"tema ":7343,"tama ":7344,"se za":7345,"iznaj":7346,"s druge ":7347,"dera":7348,"Posao ":7349,"Miha":7350,"više ne ":7351,"tnik ":7352,"Bide":7353,"Biden ":7354,"pet godina ":7355,"kakvu ":7356,"državne ":7357,"Podrav":7358,"koncert ":7359,"param":7360,"zvijezda ":7361," koše":7362,"028":7363,"Ak":7364,"Kur":7365,"gle ":7366,"rama ":7367,"enzi":7368,"dom, ":7369,"lom.\n":7370,"legi":7371,"zija ":7372,"bama ":7373,"žive ":7374,"nije mogao ":7375,"posjed":7376,"plaće ":7377,"Bož":7378,"njihovom ":7379,"Bero":7380,"proteklih ":7381,"kakva ":7382,"kladno ":7383,"-godišnjeg ":7384,"sredstava ":7385,"nesreće ":7386,"dinami":7387,"USKO":7388," objasni":7389," https":7390,"62":7391,"PU ":7392,"svr":7393,"snoj ":7394,"upisa":7395,", koji ":7396,"laže ":7397,"dom.\n":7398,"ve&ccaron;e":7399,", a to ":7400,"nu od ":7401,"razgovoru ":7402,"najnovi":7403,"krat":7404,"službe ":7405,"com, ":7406,"kandidatkin":7407,"Alba":7408,"serije ":7409,"različitim ":7410,"temperature ":7411,"obitelji.\n":7412,"luksuz":7413,"meteoro":7414,"Kije":7415,"žni ":7416,"tina ":7417,"vole ":7418,"caja":7419,"skra":7420,"s nji":7421,"gola ":7422,"spored":7423,"nje u ":7424,"tvrdio ":7425,"nam se ":7426,"komple":7427,"đuju ":7428,"mreže ":7429,"-godišnja ":7430,"poraza ":7431,"društvenih ":7432,"budućnosti ":7433,"kapetan ":7434,"City ":7435,"destina":7436,"preciz":7437,"280":7438,"Kru":7439,"M ":7440,"voz ":7441,"neobi":7442,"sak":7443,"t ćete ":7444,"što je po":7445,"Mili":7446,"koja je u ":7447,"ćene ":7448,"gradske ":7449,"projekti":7450,"dogodilo ":7451,"skladi":7452,".hr.\n":7453,"prince":7454,"Otkri":7455,"ternati":7456,"kontinuira":7457,"227":7458,"Hvala ":7459,"Kristi":7460,"PS":7461,"kta":7462,"nicom ":7463,"nama":7464,"doba":7465,"ne treba ":7466,"o je kako ":7467,", a za ":7468,"osvje":7469,"nakon čega ":7470,"ska i ":7471,"Libano":7472,"Juri":7473,"ljudi koji ":7474,"krugu ":7475,"poruku ":7476,"zajednice ":7477,"skoj.\n":7478,"ovdje":7479,"prilago":7480,". rujna ":7481,"Zakona o ":7482,"Talijan":7483,"tegory":7484,"Washing":7485,"dvoj":7486,"šoj ":7487,", dok ":7488,"namije":7489,"navode ":7490,"kari":7491,"tiš":7492,"toga":7493,"orke":7494,"Petar ":7495," sati u ":7496,"imena ":7497,"domaće ":7498,"vidjeli ":7499,"prvak ":7500,"bacio ":7501,"vodeći ":7502,"ne znam ":7503,"problema s ":7504,"Gran":7505,"Utakmi":7506,"jem, ":7507,"zakon ":7508,"bolo":7509,"sve je ":7510,"halji":7511,"But":7512,"detalje ":7513,"svakodnevno ":7514,"prosvjed":7515,"Chi":7516,"opora":7517,"zvali ":7518,"rani ":7519,"nili ":7520,"da ćemo ":7521,"zaosta":7522,"donio ":7523,"les ":7524,"pišu ":7525,"mentira":7526,"koja bi ":7527,"\" (":7528,"škola ":7529,"morate ":7530,"domać":7531,"147":7532,"registri":7533,"organizacije ":7534,"očekivati ":7535,"angaži":7536,". prosinca ":7537,"DH":7538,"Lje":7539,"Sal":7540,"Sjedinje":7541,"uhva":7542,"škovi":7543,"nal ":7544,"maju ":7545,"run":7546,"zi, ":7547,"ke na ":7548,"- napisa":7549,"Mac":7550,"vijeć":7551,"skupa ":7552,"izbore ":7553,"Taj":7554,"promjena ":7555,"izgubila ":7556,"razine ":7557,"nadokna":7558,"Sveučilišta ":7559,"'s ":7560,"il ":7561,"pti":7562,"vski ":7563,"na: ":7564,"dite ":7565,"savjetni":7566,"baz":7567,"ljevi":7568,"Bilo ":7569,"Vele":7570,"sveuči":7571,"osobno ":7572,"situacije ":7573,"ističu ":7574,"europskog ":7575,"radova ":7576,"na početku ":7577,"uma":7578,"rima.\n":7579,"tine":7580,"saj":7581,"kuli":7582,"audi":7583,"Novo":7584,"godišnja ":7585,"ste, ":7586,"sno o ":7587,"loške ":7588,"majsto":7589,"rasporedu ":7590,"porez":7591,"liječni":7592,"pažnju ":7593,"osigurati ":7594,"56":7595,"DI":7596,"Isu":7597,"Top":7598,"crije":7599,"utorak ":7600,"u pri":7601,"repor":7602,"taba":7603,"cima i ":7604,"skinu":7605,"zat":7606,"dakle ":7607,"gura":7608,"kako biste ":7609,"gim":7610,"ćeva ":7611,"vodstvo ":7612,"de za ":7613,"odabi":7614,"liječen":7615,"Moj ":7616,"poznati ":7617,". minuti.\n":7618,"Instagram ":7619,"položa":7620,"dr. sc.\n":7621,"Cu":7622,"fondo":7623,"čno.\n":7624,"Đo":7625,"jem":7626,"nih, ":7627,"zainteresira":7628,"doživlja":7629,"boksa":7630,"ka iz ":7631,"suge":7632,"kao \"":7633,"glas ":7634,"lu u ":7635,"đenim ":7636,"da će biti ":7637,"Hrvatskom ":7638,"prilika ":7639," eura, a ":7640,"čene ":7641,"došlo do ":7642,"političa":7643,"utjecaj ":7644,"komuna":7645,"naveden":7646,"vođenje ":7647,"OVDJE":7648,"pljusko":7649,"EN":7650,"Reu":7651,"so ":7652,"t-":7653,"tno, ":7654,"valj":7655,"laz ":7656,"neo":7657,"vena ":7658,"baj":7659,"cijela ":7660,"da se u ":7661,"tvrd":7662,"lja i ":7663,"Proble":7664,"ste.\n":7665,"sezona ":7666,"je završi":7667,"Sil":7668,"bolnice ":7669,"transpa":7670,"suprug ":7671,"području ":7672,"više.\n":7673,"grija":7674,"građanima ":7675,"Martin ":7676,"slijedi ":7677,"spješ":7678,"reprezentativac ":7679,"Grbi":7680,"dd":7681,"i, ":7682,"ugovo":7683,"naći ":7684,"rip":7685,"limo ":7686,"da \"":7687,"to u ":7688,". godini ":7689,"znači":7690,"raznim ":7691,"razoča":7692,"trag ":7693,"nosti po":7694,"prvim ":7695,"anje u ":7696,"de u ":7697,"kriv":7698,"morali ":7699,"Jer ":7700,"u SAD":7701,"novca ":7702,"krenuo ":7703,"Ne znam ":7704,"kandidata ":7705,"Varaždin":7706,"itemRela":7707,"suradnju ":7708,"cijski službe":7709,"jedinstve":7710,"pokazuje ":7711,"Croati":7712,"itemRelated":7713,"99":7714,"Glu":7715,"ujedno ":7716,"to što ":7717,"&ccaron;kom ":7718,"jom.\n":7719,"tra&zcaron;i":7720,"Naša ":7721,"troša":7722,"austri":7723,"počeo ":7724,"društvene ":7725,"dan, ":7726,"osjetlji":7727,"postala ":7728,"situaciji ":7729,"tinj":7730,"mora biti ":7731,"Ministar ":7732,"Policijske ":7733,"osvaja":7734,"\"Po":7735,"Lau":7736,"Ur":7737,"Udruge ":7738,"mski ":7739,"rne ":7740,"menad":7741,"va s ":7742,"cija je ":7743,"krivlje":7744,"&cacute;em ":7745,"162":7746,"račun ":7747,"vatrogasa":7748,"683":7749,"Geor":7750,"V ":7751,"li, a ":7752,"palestin":7753,"obljetni":7754,"njeno ":7755,"stoje":7756,"djeci ":7757,"tra.\n":7758,"Zadar ":7759,"plaka":7760,"tivna ":7761,"i oko ":7762,"centri":7763,"čano ":7764,"kazneno ":7765,"njezinu ":7766,"potroša":7767,"poljoprivred":7768,"dovesti do ":7769,"Isto ":7770,"lla":7771,"pto":7772,"rastu":7773,"potom ":7774,"anu ":7775,"vec ":7776,"pak":7777,"t s ":7778,"o je za ":7779,"&ccaron;kih ":7780,"stop":7781,"ri su ":7782,"šić.\n":7783,"kratko":7784,"Nadam ":7785,"takvim ":7786,"ran, ":7787,"javne ":7788,"Pena":7789,"vozilo ":7790,"veden ":7791,"269":7792,"iduće ":7793,"impresi":7794,"854":7795,"bicikli":7796,"tabase":7797,"427":7798,"IC":7799,"pokri":7800,"procije":7801,"tome, ":7802,"pe.\n":7803,"&cacute;u":7804,"najčešće ":7805,"U tom ":7806,"Raki":7807,"svako ":7808,"medija ":7809,"pomoć":7810,"prometni":7811,"zadnji ":7812,"Živo":7813,"OŠ":7814,"danja ":7815,"fano":7816,"poni":7817,"cama, ":7818,"promatra":7819,"kućan":7820,"peti":7821,"djece.\n":7822,"kom i ":7823,"ge i ":7824,"štiti ":7825,"vrijeme":7826,"obavješta":7827,"nesreća ":7828,"odlično ":7829,"emocional":7830,"Olimpijskim igra":7831,"MZ":7832,"ć":7833,"emi":7834,"korije":7835,"vača ":7836,"tex":7837,"nekoga ":7838,"kula":7839,"nu, a ":7840,"tragi":7841,"platiti ":7842,"slavi ":7843,"javnom ":7844,"brzo":7845,"njihovoj ":7846,"karijere ":7847,"poreme":7848,"govori o ":7849,"upozori":7850,"glumica ":7851,"tsko-dalmatin":7852,"unatoč ":7853,"Ele":7854,"Gri":7855,"Oni su ":7856,"Sha":7857,"canja ":7858,"i naj":7859,"u svom ":7860,"je sve ":7861,"rova ":7862,"dow":7863,"miši":7864,"tova ":7865,"dalje.\n":7866,"r (":7867,"gram ":7868,"luen":7869,"njeni ":7870,"Maro":7871,"žem ":7872,"isprav":7873,"Bivši ":7874,"aktivi":7875,"rekli ":7876,"šenja ":7877,"Teško ":7878,"fotografije ":7879,"pripreme ":7880,"Općin":7881,"nogometni ":7882,"administra":7883,"Vladimir ":7884,"Dobi":7885,"Rima":7886,"Rus":7887,"eska":7888,"gnosti":7889,"hor":7890,"uobičaje":7891,"je: \"":7892,"rava ":7893,"stvu, ":7894,"košta":7895,"nai":7896,"poko":7897,"veden":7898,"no za ":7899,"pratiti ":7900,"nom u ":7901,"ci za ":7902,"kako bismo ":7903,"nim i ":7904,"ste li ":7905,"Bit će ":7906,"Kola":7907,"kupno ":7908," sati na ":7909,"nastavak ":7910,"Australi":7911," ili ":7912,"' i ":7913,"HR":7914,"es":7915,"snost ":7916,"nikakve ":7917,"nekako ":7918,"stojan":7919,"trenira":7920,"fir":7921,"prije svega ":7922,"sezone, ":7923,"čeno ":7924,"Nakon toga ":7925,"prostoru ":7926,"savjeto":7927,"zato što ":7928,"žalost ":7929,"realiza":7930,"Putin ":7931,"definitivno ":7932," g ":7933,"800":7934,"ER":7935,"azi":7936,"čokola":7937,"nima":7938,"republi":7939,"tamo":7940,"presti":7941,"skoči":7942,"ljenje ":7943,"kao što ":7944,"hoto":7945,"imao je ":7946,"šef ":7947,"da se ne ":7948,"hrvatskoj ":7949,"&ccaron;el":7950,"&ccaron;eka":7951,"Primje":7952,"pandemi":7953,"rezultati ":7954,"Lovr":7955,"Drugo":7956,"utjecati na ":7957,"marke":7958,"shvati":7959,", a potom ":7960,"ravnote":7961,"Zdravlje ":7962,"transparen":7963,"Gle":7964,"Wal":7965,"blji":7966,"ilega":7967,"ci, a ":7968,"dogovo":7969,"no što ":7970,"debi":7971,"kedo":7972,"lani ":7973,"da su se ":7974,"žuje ":7975,"je oko ":7976,"Andri":7977,"važan ":7978,"domaći ":7979,"četiri godine ":7980,"poslao ":7981,"Glavni ":7982,"obliku ":7983,"mnogim ":7984,"Dvo":7985,"Isto":7986,"Mr":7987,"OCM":7988,"glo":7989,"ujutro ":7990,"čno, ":7991,"potaknu":7992,"kapita":7993,"dobr":7994,"ja s ":7995,"&ccaron;ni ":7996,"njega.\n":7997,"du&zcaron;":7998,"djetinj":7999,"hom ":8000,"Pozna":8001,"koja je po":8002,"Nismo ":8003,"vojska ":8004,"rekao da ":8005,"uvjetima ":8006,"kandidatu":8007,"Crk":8008,"seriji ":8009,"Šibenik ":8010,"Norve":8011,"Serge":8012," J":8013,"432":8014,"nice":8015,"sam, ":8016,"s ciljem ":8017,"vi za ":8018,"rije.\n":8019,"še, ":8020,"kriteri":8021,"rekla je.\n":8022,"dana u ":8023,"hrvatsku ":8024,"uspjela ":8025,"pruža ":8026,"Goo":8027,".hr ":8028,"Zorana ":8029,"Instagramu ":8030,"klijen":8031,"!'\n":8032,"814":8033,"Dodi":8034,"shi":8035,"size":8036,"viden":8037,"kali":8038,"bit":8039,"vere":8040,"satima ":8041,"čija ":8042,"ga za ":8043,"vani ":8044,"bi u ":8045,"la je na ":8046,"Miro":8047,"ru za ":8048,"ostalo ":8049,"dodao ":8050,"Na pitanje ":8051,"svjesni ":8052,"če na ":8053,"većanje ":8054,"rezultate ":8055,"terenu ":8056,"cjelo":8057,"izgubili ":8058,"Muš":8059,"budućnost ":8060,"am ":8061,"navečer ":8062,"rite ":8063,"title":8064,"tera ":8065,"te, a ":8066,"neposred":8067,"la iz ":8068,"proći ":8069,"sima ":8070,"pu.\n":8071,"čega je ":8072,"&cacute; i ":8073,"l je ":8074,"\" na ":8075,"svatko ":8076,"je uvijek ":8077,"domaćih ":8078,"eksperi":8079,"napravio ":8080,"uključujući ":8081,"izbornoj ":8082,"spektak":8083," poručio je ":8084,"Vjerujem ":8085,"611":8086,"teža":8087,"zalju":8088,"ve, a ":8089,"stara ":8090,"pić ":8091,"ževa":8092,"otpor":8093,"stavljen ":8094,"više nije ":8095,"Sada ":8096,"je on ":8097,"centi":8098,"hrane ":8099,"vam je ":8100,"dobio je ":8101,"na oto":8102,"Britan":8103,"istin":8104,"migran":8105,"Reuter":8106,"010":8107,"72":8108,"Fra":8109,"NA ":8110,"Van":8111,"gana ":8112,"utvrdi":8113,"znu":8114,"nov ":8115,"vil":8116,"kao":8117,"bit ":8118,"din ":8119,"provodi":8120,"priprem":8121,"pala ":8122,"te da se ":8123,". kolu ":8124,"koji nisu ":8125,"ćem, ":8126,"cijeloj ":8127,"plati":8128,"vlast ":8129,"igrači":8130,"Raspu":8131,"Može ":8132,"ciju u ":8133,"Petri":8134,"dane ":8135,"ša i ":8136,"kompli":8137,"perspek":8138,". godine u ":8139,"američkog ":8140,"ovisi ":8141,"plesa":8142,"stariji ":8143,"pokazuju ":8144,"prilagod":8145,"kontinen":8146," napisao je ":8147,"varaždin":8148,"-ih ":8149,"rgi":8150,"čno":8151,"nalazi":8152,"vazi":8153,"moru ":8154,"boje ":8155,"strateš":8156,"prednosti ":8157,"ska u ":8158,"Marka ":8159,"nijeg ":8160,"ćeni ":8161,"određene ":8162,"Ukrajina ":8163,"SDP-a ":8164,"rizik od ":8165,"scrip":8166,"kapacite":8167,"arhitek":8168,"GALERIJA ":8169,"Dor":8170,"Osje":8171,"Uz":8172,"ekra":8173,"fra":8174,"upora":8175,"a u ":8176,", odnosno ":8177,"nija":8178,"ti - ":8179,"sku po":8180,"dokaz":8181,"za vrijeme ":8182,"ni sud ":8183,"suđen":8184,"eura, ":8185,"slabi":8186,"&ccaron;esto ":8187,"Projek":8188,"koji su se ":8189,"borba ":8190,"ski.\n":8191,"fotografiju ":8192,"Slova":8193,"karijeri ":8194,"karijeru ":8195,"podatke ":8196,"bivša ":8197,"zane":8198,"Davor ":8199,"74":8200,"BC ":8201,"Cha":8202,"Dva ":8203,"Ira":8204,"Stan":8205,"niji, ":8206,"počini":8207,"postupak ":8208,"vede":8209,"same ":8210,"prepu":8211,"to vrijeme ":8212,"ni od ":8213,"najpoznati":8214,"sa svojom ":8215,"cije na ":8216,"tirao ":8217,"zračne ":8218,"nekoliko godina ":8219,"vam se ":8220,"Ako se ":8221,"knjiž":8222,"više, ":8223,"sukoba ":8224,"voda za ":8225,"Moramo ":8226,"Andrej Plenković ":8227,"Radi se o ":8228,"As":8229,"sle":8230,"ć, a ":8231,"sti po":8232,"kosti":8233,"nički ":8234,"rima, ":8235,"tal":8236,"malih ":8237,"veću ":8238,"da, a ":8239,"gole":8240,"infek":8241,"pije":8242,"pilo":8243,"kuje ":8244,"bana":8245,"Naš ":8246,"Pokuša":8247,"dodatne ":8248,"na pozor":8249,"radnika ":8250,"metaši ":8251,"vremena, ":8252,"spava":8253,"kandidat ":8254,"spremni ":8255,"iako je ":8256,"Andreja ":8257,"tjelesne ":8258,"zaboravi":8259,"Gallery":8260,"J ":8261,"Tim ":8262,"ks":8263,"opisa":8264,"je: ":8265,"stje":8266,"refor":8267,"limu":8268,"kafi":8269,"se da je ":8270,"proglasi":8271,"želio ":8272,"stranicama ":8273,"ća\n":8274,"nik u ":8275,"zemlju ":8276,"Europska ":8277,"posljednja ":8278,"prostora ":8279,"smija":8280,"prodaju ":8281,"uključuje ":8282,"&cacute;a.\n":8283,"izgradnju ":8284,"transforma":8285,"Primorac ":8286,"slobodnadalmacija.hr/":8287," te ":8288,"avan":8289,"škom ":8290,"na&ccaron;in ":8291,"na koji ":8292,"da mu ":8293,"stambe":8294,"bavi":8295,"Kate ":8296,"takvu ":8297,"stvara ":8298,"kazališ":8299," sata ":8300,"osjeti":8301,"domaći":8302,"rezultatom ":8303,"jednom trenutku ":8304,"partner":8305,"Dragan ":8306,"bogat":8307,"kulture ":8308,"Domovinski ":8309,"posljedica ":8310,"zemljama ":8311,"KBC":8312,"ogla":8313,"oču":8314,"svu ":8315,"um ":8316,"stvu":8317,"rija":8318,"prisje":8319,"čena ":8320,"obnov":8321,"num_":8322,"&ccaron;ku ":8323,"pe, ":8324,"Posebno ":8325,"vlači":8326,"lansira":8327,"istoj ":8328,"se pojavi":8329,"ideo":8330,"Hrvatske i ":8331,"stigla ":8332,"temelji":8333,"pjesma ":8334,"Kraljev":8335,"origina":8336,"nikada nije ":8337,"Kreši":8338,"LA":8339,"je - ":8340,"nama i ":8341,"ruskog ":8342,"invazi":8343,". na ":8344,"kiš":8345,"šali":8346,", ali ne ":8347,"Kak":8348,"vlašte":8349,"velikoj ":8350,"samo na ":8351,"&dstrok;e ":8352,"uzvra":8353,"Rujevi":8354,"Marin ":8355,"ljubavi ":8356,"utjecajem ":8357,"vidimo ":8358,"strijelac ":8359,"Wid":8360,"& ":8361,"Em":8362,"mske ":8363,"ogrom":8364,"jedana":8365,"nastup ":8366,"rezo":8367,"odred":8368,"tion ":8369,"teori":8370,"bit &cacute;e ":8371,"nude ":8372,"živio ":8373,"&cacute; (":8374,"znanja ":8375,"trajek":8376,"riječima ":8377,"multi":8378,", pod":8379,"nego u ":8380,"počela ":8381,"ražen ":8382,"kvalitetu ":8383,"Njemačka ":8384,"razumi":8385,"javljuje ":8386,"ostvariti ":8387,"avio":8388,") po":8389,"Isti":8390,"Kona":8391,"Ronal":8392,"tpo":8393,"rato":8394,"nadi":8395,"zatraži":8396,"donosi":8397,"priklju":8398,"kuću ":8399,"&ccaron;koj ":8400,"ćev ":8401,"je pozna":8402,"sjeda":8403,"Niko":8404,"David ":8405,"može se ":8406,"fazi ":8407,"umjet":8408,"srednjo":8409,"proizvodnju ":8410,"napravili ":8411,"koncep":8412,"iskre":8413,"središtu ":8414,"ono što je ":8415,"pobjedom ":8416,"Harris ":8417,"tjedana ":8418,"ekstrem":8419,"Width":8420," ljudi ":8421," piše ":8422,"95":8423,"947":8424,"Kne":8425,"S-a ":8426,"You":8427,"ho ":8428,"rna ":8429,"uklo":8430,"o \"":8431,"je nakon ":8432,"resur":8433,"dija ":8434,"sel":8435,"ljivo":8436,"šet":8437," [se":8438,"troje ":8439,"Med":8440,"ciju za ":8441,"kluba.\n":8442,"zraka ":8443,"Europsko ":8444,"večeri ":8445,"pored ":8446,"kontrolira":8447,"iskori":8448,"pjevačica ":8449,"mandata ":8450,"Zbog toga ":8451,"UR":8452,"dži":8453,"ed":8454,"tla":8455,"wo":8456,"ž ":8457,"rala ":8458,"redom ":8459,"da im ":8460,"ing":8461,"pravom ":8462,", ali nije ":8463,"nici i ":8464,"Domi":8465,"Vene":8466,"nica u ":8467,"potrebu ":8468,"poruke ":8469,"Najviše ":8470,"roditelji":8471,"iskus":8472,"spreman ":8473,"zloči":8474,"vidim ":8475,"Osijek ":8476,"ravnatelj ":8477,"mjesec dana ":8478,". ožujka ":8479,"Mosta":8480,"bran":8481,"o ne":8482,"niji":8483,"nat":8484,"poo":8485,"pogledajte ":8486,"tabli":8487,"to se ":8488,"pridru":8489,"sugovor":8490,"jum":8491,"&ccaron;ovje":8492,"ci na ":8493,"kralji":8494,"Zašto ":8495,"Zadra":8496," [image":8497,"slav":8498,"Pred ":8499,"Boru":8500,"cijskom ":8501,". godine":8502,"većinu ":8503,"objave ":8504,"Argen":8505,"odlučili ":8506,"otvoreno ":8507,"grupa ":8508,"nemamo ":8509,"zagrebačkom ":8510,"ozbiljno ":8511,"nacionalne ":8512,"Budući ":8513,"bodi":8514,"rske ":8515,"o čemu ":8516,"vizu":8517,"vaku":8518,"katoli":8519,"dite":8520,"ljana ":8521,"prolazi":8522,"j za ":8523,"obro":8524,"gur":8525,"ima.\n":8526,"Kašte":8527,"gu i ":8528,"drago ":8529,"ispra":8530,"hrvat":8531,"školi ":8532,"Nova":8533,"turne":8534,"roditelj":8535,"poveza":8536,"vlastite ":8537,"kolege ":8538,"funkcioni":8539,"gradonačelnika ":8540,"Unite":8541,"mjesto.\n":8542,"ction]":8543,"SD":8544,"dni ":8545,"hod ":8546,"udruga ":8547,"ww":8548,"raspa":8549,"naca ":8550,"nadolaze":8551,"na ru":8552,"nećemo ":8553,"donošen":8554,"ra je ":8555,"vane ":8556,"Nažalost, ":8557,"spome":8558,"lja u ":8559,"rekli su ":8560,"stavila ":8561,"stanka ":8562,"teljice ":8563,"prijelaz":8564,"ove sezone ":8565,"Jur":8566,"&cacute;a, ":8567,"subotu, ":8568," milijuna eura, ":8569,"Konferen":8570,"snimke ":8571,"nazivom ":8572,"Europske u":8573,"dokumentar":8574,"Hezbola":8575,"Anu":8576,"Star":8577,"Wa":8578,"mbene ":8579,"zbilj":8580,"ror":8581,"lima, ":8582,"cama.\n":8583,"la o ":8584,"logo":8585,"proto":8586,"preko":8587,"to da je ":8588,"granice ":8589,"baviti ":8590,"tu\n":8591,"&cacute;ih ":8592,"ima, ":8593,"Zad":8594,"ger ":8595,"tivnog ":8596,"zbog ne":8597,"hitne ":8598,"Regi":8599,"Moja ":8600,"Zagrep":8601,"Jela":8602,"medijima ":8603,"voditeljica ":8604,"najbolje":8605,"izravno ":8606,"lokalnih ":8607,"spekta":8608,"Srbija ":8609,"rješenja ":8610,"inspira":8611,"tzv. ":8612,"akademi":8613,"epi":8614,"vca ":8615,"žne ":8616,"potica":8617,"lina ":8618,"linije ":8619,"kau":8620,"zavi":8621,"od toga ":8622,"nuti ":8623,"mjesta.\n":8624,"vjetar ":8625,"koji se na":8626,"djelu ":8627,"v i ":8628,"zove ":8629,"Micha":8630,"vlade ":8631,"i umje":8632,"mogući":8633,"nadzor":8634,"Splita ":8635,"ideja ":8636,"odlučila ":8637,"kvalitete ":8638,"slobodno ":8639,"dobro.\n":8640,"tržište ":8641,"prometnoj ":8642,"iznenađen":8643,"dvojica ":8644,"link]":8645,"luence":8646,"Am":8647,"Gvar":8648,"Ža":8649,"re&cacute;i ":8650,"pohva":8651,"rit":8652,"doma ":8653,"sinoć ":8654,"d u ":8655,"žim ":8656,"šavaju ":8657,"Nitko ":8658,"be i ":8659,"svjetske ":8660,"brinja":8661,"četvrti ":8662,"điva":8663,"Olimpijske ":8664,"nogometaš ":8665,"slijed ":8666,"angaž":8667,"Facebook ":8668,"unutarnjih ":8669,"razgovarati ":8670,"Afri":8671,"IT":8672,"d.o":8673,"jna ":8674,"ugovora ":8675,"čvo":8676,"odras":8677,"bile su ":8678,"sastoj":8679,"lozo":8680,"s tim ":8681,"tune":8682,"nu\n":8683,"&ccaron;kim ":8684,"koji ima ":8685,"stom":8686,"razvi":8687,"najprije ":8688,"šeta":8689,"cijelom ":8690,"i on ":8691,"mlađe ":8692,"njihovog ":8693,"uzor":8694,"proizvode ":8695,"Turisti":8696,"komunici":8697,"EU-a ":8698,"obilježa":8699,"kritizira":8700,"obitelji, ":8701,"Cor":8702,"Ver":8703,"cvje":8704,"Đa":8705,"Đur":8706,"je kao ":8707,"radom ":8708,"stana ":8709,"kono":8710,"nirati ":8711,"domina":8712,"ru, a ":8713,"živa":8714,"bi od ":8715,"bi biti ":8716,"ljak ":8717,"Naime":8718,"iscr":8719,"Europi ":8720,"predstavnici ":8721,"na ovom ":8722,"sumnja":8723,"prethodno ":8724,"misle ":8725,"status ":8726,"Alex":8727,"vrijedan ":8728,"Borussi":8729,"dbre":8730,"šnje ":8731,"odvija":8732,"viša ":8733,"vaša ":8734,"table":8735,"zadu":8736,"dona":8737,"g [":8738,"izlaz":8739,"ron ":8740,"mo o ":8741,"će na ":8742,"vrh ":8743,"nije samo ":8744,"fiel":8745,"Hrvatsku.\n":8746,"na pozi":8747,"minute ":8748,"automa":8749,"Lei":8750,"Voza":8751,"Odbo":8752,"završiti ":8753,"izjavila je ":8754,"web ":8755,"povećanje ":8756,"Možda ":8757,"Film ":8758,"86":8759,"Pit":8760,"sprje":8761,"u prvom ":8762,"nači":8763,"nas.\n":8764,"poe":8765,"na s ":8766,"lima.\n":8767,"ti\" ":8768,"telje":8769,"ma?\n":8770,"li iz ":8771,"su u":8772,"od početka ":8773,"&cacute;i u ":8774,"posla ":8775,"bila u ":8776,"državnom ":8777,"provede":8778,"upravljanja ":8779,"komentirao je ":8780,"čiji je ":8781,"Cropi":8782,"Zoran Milanović ":8783,"osumnjiče":8784,"eventual":8785,"Slaven Belu":8786,"Gvardio":8787,"83":8788,"L ":8789,"m\" ":8790,"ns":8791,"ovo je ":8792,"u, a ":8793,"nima i ":8794,"revi":8795,"podije":8796,"postavlje":8797,"domovi":8798,"dopušte":8799,"ruskih ":8800,"jima i ":8801,"ra s ":8802,"baca":8803,"cu, a ":8804,"bi s ":8805,"Mag":8806,"najja":8807,"kazao je.\n":8808,"u ponedjelja":8809,"života, ":8810,"školu ":8811,"godišnji":8812,"nica i ":8813,"Vidi":8814,"održi":8815,"obavlja":8816,"chen":8817,"pustio ":8818,"Trump":8819,"prihvati":8820,".),":8821,"81":8822,"L: ":8823,"Tri ":8824,"flek":8825,"ope":8826,"je da se ":8827,"stre ":8828,"niji.\n":8829,"ponen":8830,"mac ":8831,"bijan":8832,"izdanje ":8833,"stana":8834,"bateri":8835,"skom, ":8836,"U po":8837,"dro ":8838,", poče":8839,"nici u ":8840,"Tamo ":8841,"Inter":8842,"igru ":8843,"glavna ":8844,"rujnu ":8845,"napokon ":8846,"željezni":8847,"međuvremenu ":8848,"održana ":8849,"dvorani ":8850,"potporu ":8851,"Periši":8852,"glumac ":8853,"mjestu.\n":8854,"images/":8855,",{\"":8856,"A: ":8857,"bjedni":8858,"drije":8859,"et ":8860,"g/":8861,"is ":8862,"ld ":8863,"tka":8864,"vašem ":8865,"te\n":8866,"doče":8867,"veo ":8868,"saveza ":8869,"prošao ":8870,"vjetro":8871,"ke za ":8872,"dubi":8873,"razgovor ":8874,"ski predsjednik ":8875,"ondje ":8876,"svakoj ":8877,"Davi":8878,"tko će ":8879,"žu, ":8880,"Bari":8881,"elle":8882,"vojni ":8883,"pruž":8884,"istog ":8885,"prodava":8886,"raspolag":8887,"pokazati ":8888,"bivše ":8889,"sastav ":8890,"mišljenje ":8891,"osoba.\n":8892,"Zlatko ":8893,"sposobnost ":8894,"jugozapad":8895,"konferenciji za ":8896,"\"},{\"":8897,"kršćan":8898,".slobodnadalmacija.hr/":8899,"04":8900,"Mur":8901,"Svo":8902,"zale":8903,"su za ":8904,"stavo":8905,"pridruži":8906,"an u ":8907,"koji imaju ":8908,"tram":8909,"de na ":8910,"manj":8911,"braku ":8912,"beno ":8913,"sportske ":8914,"tako, ":8915,"Coun":8916,"starije ":8917,"Čak ":8918,"Ovo su ":8919,"Stručnja":8920,"! - ":8921,"ae":8922,"aspek":8923,"iran":8924,"ovi ":8925,"snosti ":8926,"um":8927,"ničke ":8928,"remi":8929,"povodom ":8930,"la kako ":8931,"pregleda":8932,"kuća ":8933,"mjesta":8934,"l za ":8935,"ća, a ":8936,"tivan ":8937,"cu u ":8938,"vratak ":8939,"kad sam ":8940,", uvijek ":8941,"gdje će ":8942,"Institu":8943,"Kako se ":8944,"Hrvatska je ":8945,"zajednica ":8946,"suradnje ":8947,"Crne ":8948,"dijagnosti":8949,". studenog ":8950,"Kroz ":8951,"73":8952,"apart":8953,"ks ":8954,"m/":8955,"mbur":8956,"rni ":8957,"rita":8958,"toga.\n":8959,"te od ":8960,"kular":8961,"čića ":8962,"- zaklju":8963,"svojem ":8964,"raz ":8965,"njih.\n":8966,"posve ":8967,"sof":8968,"biti na ":8969,"skup ":8970,"u koje":8971,"Kori":8972,"godišnjem ":8973,"Vidje":8974,"Viso":8975,"nego i ":8976,"uspjeha ":8977,"sport ":8978,"Goto":8979,"on je ":8980,"između osta":8981,"dolara.\n":8982,"taliza":8983,"financijski ":8984,"tranzi":8985,"fotografija ":8986,"ekipe ":8987,"kolegi":8988,"Zagreba.\n":8989,"agencija ":8990," kilometa":8991,"Možemo":8992,"najvećih ":8993,"atraktiv":8994,"Centa":8995,"PA":8996,"ošt":8997,"osvoje":8998,"tre ":8999,"no, ali ":9000,"tive ":9001,"temu ":9002,"volon":9003,"nes":9004,"malu ":9005,"zasad ":9006,"ma je ":9007,"izva":9008,"static":9009,"s njim ":9010,"prijavlje":9011,"pacije":9012,"sukladno ":9013,"pira":9014,"gastro":9015,"nost po":9016,"vodstvom ":9017,"Kana":9018,"Kalini":9019,"Potom ":9020,"otvara ":9021,"sretan ":9022,"akcije ":9023,"Jadro":9024,"svijet":9025,"proizvodi":9026,"istoku ":9027,"Los ":9028,"idemo ":9029,"prijedlo":9030,"povjeren":9031,"Zem":9032,"realizira":9033,"stadionu ":9034,"savrše":9035,"SuperSport ":9036,". kolovoza":9037,"mo&zcaron;ete ":9038,"Domovinski pokre":9039,".slobodnadalmacija.hr/images/":9040,"static.slobodnadalmacija.hr/images/":9041,"./":9042,"700":9043,"96":9044,"Bun":9045,"HZ":9046,"efi":9047,"kći ":9048,"o\n":9049,"plji":9050,"o iz ":9051,"nina ":9052,"ka&zcaron;e":9053,"la: \"":9054,"loškog ":9055,"pali":9056,"ljenih ":9057,"ć (":9058,"onda se ":9059,"online ":9060,"Nedavno ":9061,"Danije":9062,"dodajući ":9063,"Boris ":9064,"Jame":9065,"Japan":9066,"Liver":9067,"bodova ":9068,"počeli ":9069,"uvjerlji":9070,"itemAuthor":9071,"kontrolu ":9072,"deset godina ":9073,"studija ":9074,"praktič":9075,"nitko nije ":9076," kilogra":9077,"prije nego što ":9078,"kojega ":9079,"Ono što ":9080,"kasnije, ":9081,"o&ccaron;eki":9082,"Domovinskog pokre":9083,"Jugoslavi":9084,"92":9085,"Agen":9086,"N ":9087,"Spe":9088,"VAR":9089,"gha":9090,"upla":9091,"zin ":9092,"nikako ":9093,"renju ":9094,"revolu":9095,"neto ":9096,"biti.\n":9097,"zamisli":9098,"stižu ":9099,"luzi":9100,"error":9101,"u kori":9102,"dodajte ":9103,"predsjednikom ":9104,"godišnjoj ":9105,", oni ":9106,"krenula ":9107,"stanovnika ":9108,"srednje ":9109,"obzir ":9110,"osvojiti ":9111,"čovjeka ":9112,"Barba":9113,"kolega ":9114,"jednog od ":9115,"djevojči":9116,"sastanak ":9117,"normal":9118,"Celzi":9119,"grmljavi":9120,"her":9121,", dok je ":9122,"nalaze ":9123,"mah ":9124,"ti sve ":9125,"zašto je ":9126,"vezu":9127,"k na ":9128,"inu.\n":9129,"pula":9130,"trećem ":9131,"z na ":9132,"bera":9133,"nji.\n":9134,"Zapad":9135,"Katari":9136,"anja i ":9137,"brza":9138,"Novom ":9139,"cijskim ":9140,"svjetskih ":9141,"ženo ":9142,"zdravi":9143,"predstavljaju ":9144,"sredinom ":9145,"Dubrovnika ":9146,"jedan od naj":9147,"zastupnika ":9148,"misli ":9149,"Osca":9150,"normalno ":9151,"sjevernom ":9152,"ministarstvo ":9153,"teroristi":9154,"apsolutno ":9155,"priorite":9156,"DHMZ":9157,"La ":9158,"Ore":9159,"ONA":9160,"oli":9161,"nimalo ":9162,"rekonstruk":9163,"ponekad ":9164,"la kao ":9165,"prosvje":9166,"prepre":9167,"ju od ":9168,"silo":9169,"ture ":9170,"dulje ":9171,"tu je ":9172,"ske županije ":9173,"srebr":9174,"veno ":9175,"Netan":9176,"ključni ":9177,"radnih ":9178,"stavili ":9179,", ona ":9180,"svečano":9181,"Tay":9182,"Dugo":9183,"kvar":9184,"srca ":9185,"đivanje ":9186,"njezino ":9187,"kupio ":9188,"podataka ":9189,"komentirao ":9190,"godinu.\n":9191,"Meni ":9192,"sjeverozapad":9193,"segmen":9194,"\"U":9195,"BDP":9196,"Fin":9197,"SK":9198,"Što je ":9199,"naprijed":9200,"odu ":9201,"maga":9202,"ci\n":9203,"zaro":9204,"zapos":9205,"probu":9206,"cu\n":9207,"U ovom ":9208,"konzerva":9209,", poruči":9210,"trbu":9211,"Database":9212,"stupan":9213,"dijeli ":9214,"radili ":9215,"bodova":9216,"nice za ":9217,"zdravstva ":9218,"krumpi":9219,"otvorio ":9220,"održava ":9221,"Najbolji ":9222,"sustavu ":9223,"neki od ":9224,"Time ":9225,"interesa ":9226,"vođenja ":9227,"identite":9228,"kampanje ":9229,"contai":9230,"Cropix":9231,"Hva":9232,"Muze":9233,"krva":9234,"oprez":9235,"rnih ":9236,"Đu":9237,"i od ":9238,"koni":9239,"posu":9240,"teren":9241,"provode ":9242,"tova":9243,"praved":9244,"razvije":9245,"horo":9246,"mu u ":9247,"sti na ":9248,"li su na ":9249,"radne ":9250,"stane":9251,"stero":9252,"nešto više od ":9253,"predstavnika ":9254,"Gabri":9255,"vrijedi ":9256,"bolnicu ":9257,"u kojoj su ":9258,"knjiže":9259,"navijači ":9260,"očito ":9261,"društvenim mre&zcaron;a":9262,"pritisak ":9263,"ulogu u ":9264,"!\",":9265,"HG":9266,"Tom ":9267,"Time":9268,"ade":9269,"gla ":9270,"ikada ":9271,"nj":9272,"uza":9273,"čnici ":9274,"list ":9275,"vina":9276,"zadi":9277,"su to ":9278,"preokre":9279,"ka (":9280,". rođen":9281,"žesto":9282,"želja ":9283,"strana ":9284,"Kali":9285,"pa u ":9286,"kritič":9287,"tivnu ":9288,"samo u ":9289,"đenog ":9290,"među kojima ":9291,".jpg [":9292,"radnog ":9293,"poznata ":9294,"ženje ":9295,"steri":9296,"srce ":9297,"proizvodi ":9298,"nedjelje ":9299,"prodaje ":9300,"regiji ":9301,"suprugom ":9302,"Kine":9303,"izgled ":9304,"u Zagrebu.\n":9305,"turističke ":9306,"zadovoljni ":9307,"analitiča":9308,"Organi":9309,"Parizu ":9310,"plod":9311,"napad na ":9312,"slike/":9313,"static.slobodnadalmacija.hr/images/slike/":9314,"DC":9315,"MI":9316,"dnu ":9317,"fer":9318,"lla ":9319,"žrta":9320,"jeze":9321,"m za ":9322,"lin ":9323,"prete":9324,"danima ":9325,"s na ":9326,"s [value]":9327,"sebe":9328,"custom":9329,"petak, ":9330,"Makar":9331,"Makedo":9332,"dru ":9333,"Kaza":9334,"mula":9335,"gledu ":9336,"troši":9337," poe":9338,"Neka ":9339,"ostavio ":9340,"škoj ":9341,"bez i":9342,"vaju u ":9343,"krug ":9344,"proizvodnje ":9345,"procedu":9346,"Sredi":9347,"vjenča":9348,"City":9349,"pozornost ":9350,"invalidite":9351,"params_":9352,"customparams_":9353,"D-a ":9354,"FI":9355,"Ple":9356,"tva":9357,"u\n":9358,"ra&ccaron;u":9359,"vozu ":9360,"s ne":9361,"pristupa":9362,"boriti ":9363,"te ih ":9364,"pušt":9365,"njež":9366,"- poruči":9367,"nije po":9368,"Naravno ":9369,"ker":9370,"šte.\n":9371,"sku.\n":9372,"žu.\n":9373,"Baš ":9374,"mjeseci.\n":9375,"istrage ":9376,"&cacute; je ":9377,"vjerovati ":9378,"odnosu ":9379,"zajednički ":9380,"prometa ":9381,"Horva":9382,"osvojila ":9383,"SDP ":9384,"pomaže ":9385,"showa ":9386,"neko vrijeme ":9387,"Vartek":9388,"ysq":9389,"Los Ange":9390,"Displa":9391,"VI":9392,"m?\n":9393,"plije":9394,"umr":9395,"nik":9396,"nazo":9397,"na to ":9398,"kao je ":9399,"lako":9400,"maji":9401,"ne zna ":9402,"sastav":9403,"lec":9404,"super ":9405,", a onda ":9406,"či.\n":9407,"Zakon ":9408,"Postoji ":9409,"zon":9410,"sve od ":9411,"jer sam ":9412,"obilaz":9413,"hero":9414,"trenutka ":9415,"rom i ":9416,"vić i ":9417,"obavijesti":9418,"telji su ":9419,"dobiva ":9420,"kaže da ":9421,"smrt ":9422,"kojima je ":9423,"NACI":9424,"Velike ":9425,"sudbi":9426,"festivala ":9427,"vožnje ":9428,"skanda":9429,"Ari":9430,"al ":9431,"jnog ":9432,"mano":9433,"upra":9434,"zmi":9435,"rado ":9436,"rastu ":9437,"povolj":9438,"veseli":9439,"izdvoji":9440,"ruž":9441,"preživje":9442,"za to ":9443,"insta":9444,"&ccaron;na ":9445,"znao ":9446,"fici":9447,"najbli":9448,"rijen":9449,"Hrvati ":9450,"Nema":9451,"državi ":9452,"hito":9453,"svira":9454,"ključnih ":9455,"Rezul":9456,"da su u ":9457,"mogući ":9458,"izazi":9459,"kakvih ":9460,"lokalnim ":9461,"istaknula je ":9462,"obori":9463,"podaci ":9464,"kontrover":9465,"tržišta ":9466,"popula":9467,"nemam ":9468,"zastupnik ":9469,"pobjeda ":9470,"glasova ":9471,"želite ":9472,"que":9473,"osnovne ":9474,"preuzeti ":9475,"&Ccaron;e":9476,"mercija":9477,"Pjeva":9478,"Netanya":9479,"Display":9480,"Glaz":9481,"Istaknu":9482,"alar":9483,"c]":9484,"goda":9485,"uskla":9486,"viru":9487,"ka: ":9488,"tima i ":9489,"mina ":9490,"pretra":9491,"Navija":9492,"anoj ":9493,"koje smo ":9494,"lije&ccaron;":9495,"javnim ":9496,"je, na":9497,"dodaje ":9498,"integra":9499,"vezane ":9500,"Baturi":9501,"početi ":9502,"početku ":9503,"kroni":9504,"Rijeci ":9505,"nešto što ":9506,"poruka ":9507,"Selak ":9508,"ting ":9509,"umjeren ":9510,"sindika":9511,"društvenoj ":9512,"direktorica ":9513,"Velikoj ":9514,"rješenje ":9515,"pri čemu ":9516,"napadač ":9517,"fizički ":9518,"ambi":9519,"društvenim mrežama.\n":9520,"definira":9521,"rukomet":9522,"Centra ":9523,"simboli":9524,"predizbor":9525,"Trenutno ":9526,"jesu li ":9527,"Rodi":9528,"Sa ":9529,"dna ":9530,"i \"":9531,"nas, ":9532,"reme":9533,"kal":9534,"dikata ":9535,"ruka ":9536,"stak":9537,"piti ":9538,"časo":9539,"nu na ":9540,"vo i ":9541,"djece, ":9542,"tra, ":9543,"cije, a ":9544,"šteta ":9545,"Samo":9546,"&dstrok;en ":9547,"Dalić ":9548,"životu.\n":9549,"zemlje.\n":9550,"Prija":9551,"Tama":9552,"ćeno ":9553,"Ludbre":9554,"vozila.\n":9555,"vozilom ":9556,"financijske ":9557,"vozača ":9558,"Kad je ":9559,"svaki dan ":9560,"posljedice ":9561,"korištenja ":9562,"trajati ":9563,"prvoliga":9564,".hr\n":9565,"Sigur":9566,"title]":9567," K":9568,"(od ":9569,"Ovdje ":9570,"Vrije":9571,"ex":9572,"tho":9573,"nared":9574,"nes ":9575,"mate":9576,"mail":9577,"goj ":9578,"pripada":9579,"inc":9580,"bolji":9581,"čisti":9582,"kiru":9583,"žavaju ":9584,"stranu ":9585,"i pokuša":9586,"igrače ":9587,"Patri":9588,"vezi ":9589,"publika ":9590,"Grado":9591,"mreža":9592,"održavanje ":9593,"buduće ":9594,"istaknuo ":9595,"večer":9596,"srpski ":9597,"Srbije ":9598,"prometna ":9599,"tajnik ":9600,"producen":9601,"službenim ":9602,"povijest ":9603,"učenika ":9604,"Bjelova":9605,". studeno":9606,"je potrebno ":9607,"\"U ":9608,"027":9609,"Can":9610,"HO":9611,"Lon":9612,"ny ":9613,"oc":9614,"je, ali ":9615,"ništa":9616,"vom.\n":9617,"category":9618,"ru\n":9619,"ra iz ":9620,"što je u ":9621,"prat":9622,"le za ":9623,"le su se ":9624,"do kra":9625,"takvo ":9626,"fer ":9627,"hidra":9628,"brže ":9629,"trebamo ":9630,"fol":9631,"mlada ":9632,"Anđe":9633,"svijetu, ":9634,"tar.\n":9635,"Europskoj ":9636,"poslovne ":9637,"stvoriti ":9638,"način.\n":9639,"primjerice ":9640,"ljubav":9641,"mogao biti ":9642,"Sloven":9643,"stvari.\n":9644,"dugotraj":9645,"Španjolska ":9646,"sjajno ":9647,"međutim ":9648," dodao je.\n":9649,"pendi":9650,"potez ":9651,"Ove godine ":9652,"Zvoni":9653,"OVDJE.\n":9654,"adekva":9655,"NACIONA":9656,",\n":9657,"Far":9658,"Flori":9659,"Uskr":9660,"evaku":9661,"ir ":9662,"kana ":9663,"p, ":9664,"usta":9665,"u Za":9666,"ja: ":9667,"ma\" ":9668,"cir":9669,"ve&cacute;i":9670,"milo":9671,"tov":9672,"za na ":9673,"nuž":9674,"ga na ":9675,"- od ":9676,"druk":9677,"Malo ":9678,"prvu":9679,"optimi":9680,"joj se ":9681,"u koju ":9682,"tičke ":9683,"mreži ":9684,"Ne mogu ":9685,"nicima, ":9686,"roditelja ":9687,"stigli ":9688,"Ljubi":9689,"provesti ":9690,"natjecanju ":9691,"generacije ":9692,"listopadu ":9693,"odvjetnik ":9694,"one koji ":9695,"žrtve ":9696,"postignu":9697,"Liverpoo":9698," stoji u ":9699,"Jer":9700,"Lan":9701,"NBA ":9702,"Stri":9703,"Te ":9704,"t:protected]":9705,"ška":9706,"jela ":9707,"lić.\n":9708,"vidu":9709,"mađar":9710,"ve\n":9711,"inzi":9712,"boja":9713,"galeri":9714,"vjez":9715,"vanje po":9716,"čava ":9717,"la je da ":9718,"Karo":9719,"cijenu ":9720,"plaće":9721,"ger":9722,"tniji ":9723,"halj":9724,"Mogu ":9725,"stru&ccaron;":9726,"briga":9727,"pravil":9728,"prijevoz":9729,"koja je bila ":9730,"odnosa ":9731,"mirovin":9732,"raspore":9733,"potrebne ":9734,"serija ":9735,"Svaka ":9736,"ispunja":9737,"planu ":9738,"daljnje ":9739,"izgradnje ":9740,". listopa":9741,"Ustavnog ":9742,"iznajmlji":9743,"OŠ ":9744,"EL":9745,"ES":9746,"kto":9747,"ljedni":9748,"slan":9749,"či po":9750,"šin":9751,"u nedjelju ":9752,"je od":9753,"raj":9754,"najavlje":9755,"ode ":9756,"da o":9757,"mali":9758,"mi, ":9759,"mi.\n":9760,"stare ":9761,"te o ":9762,"pun ":9763,"čemu je ":9764,"- poru":9765,"Master":9766,"ćem.\n":9767,"spoji":9768,"di i ":9769,"tnici ":9770,"stvaranje ":9771,"Nikad ":9772,"obranu ":9773,"informacijama ":9774,"partner ":9775,"gostima ":9776,"Ministarstvu ":9777,"naslova ":9778,"zaključio je ":9779,"njemački ":9780,"Ukrajinu ":9781,"Jakirovi":9782,"180":9783,"mpe":9784,"ya ":9785,"nicu.\n":9786,"ponovi":9787,"na ne":9788,"dova ":9789,"bori ":9790,"puha":9791,"tuma":9792,"nije imao ":9793,"strah ":9794,"sa so":9795,"vodi u ":9796,"stavite ":9797,"rati na ":9798,"cijsku ":9799,"nica za ":9800,"problema.\n":9801,"protek":9802,"kako je to ":9803,"pustiti ":9804,"natjecanje ":9805,"procjenju":9806,"Hrvoje ":9807,"Turudić ":9808,"trašnjosti ":9809,"Lar":9810,"Ope":9811,"Pja":9812,"Wol":9813,"blje ":9814,"hodi":9815,"uboji":9816,"stanja ":9817,"napreda":9818,"linija ":9819,"ka, ali ":9820,"kama.\n":9821,"neko":9822,"ti da je ":9823,"donose ":9824,"ne želi ":9825,"su bile ":9826,"s A":9827,"priu":9828,"memo":9829,"o je s ":9830,"pul":9831," [c":9832,"tivnom ":9833,"još u ":9834,"akcija ":9835,"Ništa ":9836,"Da, ":9837,"Dail":9838,"vezu ":9839,"poziva ":9840,"Građ":9841,"nadzo":9842,"svibnju ":9843,"svojevr":9844,"najavio ":9845,"suprot":9846,"Više od ":9847,"čestita":9848,"završetka ":9849,"Gleda":9850,"OP":9851,"She":9852,"istu ":9853,"kan ":9854,"tki":9855,"u svojoj ":9856,"koc":9857,"rele":9858,"listu ":9859,"vati, ":9860,"kar ":9861,"li da se ":9862,"vero":9863,"vezi":9864,"sala":9865,"skoko":9866,"stoji":9867,"želju ":9868,"kraje":9869,"dramatič":9870,"ako je ":9871,"brat ":9872,"policija.\n":9873,"hidro":9874,"vraća ":9875,"&ccaron;ica ":9876,"Petkovi":9877,"prijeti ":9878," sati":9879,"prijatelj ":9880,"sportskih ":9881,"Luke ":9882,"u okvi":9883,"posljednjem ":9884,"loških ":9885,"Izvor":9886,"Voj":9887,"američkih ":9888,"tor: ":9889,"direktno ":9890,"obitelji i ":9891,"od najvećih ":9892,"muškarca ":9893," dodao je ":9894," kilometara ":9895,"prilagodi":9896,"blokira":9897,"zdravstvenih ":9898,"Jandro":9899,"oporav":9900,"odgovara ":9901,"glasnogovornik ":9902,"Europski parlamen":9903,"%,":9904,"cvije":9905,"uža":9906,"žo":9907,"robo":9908,"laska ":9909,"da ima ":9910,"ene ":9911,"s - ":9912,"goste ":9913,"prikaz":9914,"primar":9915,"intim":9916,"pao ":9917,"suo":9918,"puta":9919,"činio ":9920,"svoga ":9921,"bi i ":9922,"osloba":9923," [ma":9924,"Milan ":9925,"kreta":9926,"auten":9927,"hit ":9928,"utakmice, ":9929,"Mel":9930,", ovaj ":9931,"mogu&cacute;":9932,"koji su bili ":9933,"gradskog ":9934,"zdravlja ":9935,"&cacute;eg ":9936,"krajnje ":9937,"Imam ":9938,"visoko ":9939,"kojima se ":9940,"očekuju ":9941,"naziva ":9942,"server":9943,"povjerenje ":9944,"međutim, ":9945,"usluge ":9946,"Brux":9947,"portal ":9948,"Poljudu ":9949,"svake godine ":9950,"Donalda ":9951,"Mislim da je ":9952,"Bob":9953,"Iran ":9954,"o, ali ":9955,"s-":9956,"ul":9957,"usred ":9958,"jaka ":9959,"ler":9960,"menata ":9961,"grada.\n":9962,"&ccaron;an ":9963,"gasi":9964,"petka ":9965,"Pot":9966,"otva":9967,"brojem ":9968,"bio na ":9969,"nakon što se ":9970,"dok će ":9971,"parki":9972,"klupi ":9973,"uz pomoć ":9974,"Važ":9975,"Ligu ":9976,"vrijeme za ":9977,"reprezentaciju ":9978,"jako puno ":9979,"sumnja ":9980,"srpnju ":9981,"nesreći ":9982,"političkih ":9983,"istraživa":9984,"dobrom ":9985,"zagrebačkoj ":9986,"trebao biti ":9987,"sukob ":9988,"socijalne ":9989,"okolnosti ":9990," zaključio je ":9991,"najboljeg ":9992,"Selak Raspu":9993,"NACIONAL: ":9994,"':":9995,"84":9996,"Otvo":9997,"Udruga ":9998,"Z ":9999}