#version: 0.2
் க
் த
ம ்
ல ்
ன ்
  ப
க ்க
் ட
  க
ர ்
த ்த
  வ
  ம
ப ்
. 

  த
ி ய
ு ம்
  ச
ள ்
ந ்த
  அ
ப் ப
த ு
ி ல்
ர ு
ட ்ட
  ந
  இ
  எ
ங ்க
ை ய
ா க
ற ்
த ி
ி ற
க்க ு
ி ன்
ட ு
் ச
ற ு
ள் ள
  உ
ண ்ட
ா ர்
ி ர
ா ர
த்த ு
ி ல
  ஆ
ா ன
ட ி
 ம ு
 ச ெ
வ ி
ற் ற
ர ்க
ல ை
ி க
 எ ன்
 வ ி
ர ி
ட்ட ு
ந்த ு
ி ரு
 க ு
வ ு
ா ல்
ள ை
 இ ரு
 செ ய
ச ்ச
ற ி
க ்
ா வ
ஸ ்
  ஒ
த ்
  ர
 ப ோ
ப்ப ு
ன ர்
த்த ில்
ைய ில்
ன ை
ள ு
ா ன்
ா ல
 க ொ
ல் ல
ம ை
 ம ா
 ப ெ
 ந ட
வ ர்
ா ய
 த ொ
ற ்க
க்க ும்
ு க
 க ூ
ர்க ள்
 வ ே
ம ி
வ ர
ன் ற
ப்ப ட்ட
ம் ப
ட ்ச
ிற து
ா ள
ு வ
 இ ந்த
 த ே
ா த
ற் ப
 உ ள்ள
க ு
  ஏ
ட ிய
 வ ெ
ி ட
க ள்
ண ்
ன் ன
ள ில்
ி க்க
ி ன
 ப ே
 த ெ
ண்ட ு
 எ ன
ங்க ள்
 ப ா
ா ம
 அ தி
 ப ிர
ச ்
ம ாக
ற ை
ட ்
ளு க்கு
வ ே
்க ள்
 க ா
டு த்த
 ந ா
த ிய
த்த ை
த ாக
 ஒ ரு
ர ச
வ ில்
ம ான
் ய
 என் று
ண ி
 ம ற்ற
 வ ழ
 தொ ட
ர ிய
 வ ரு
 க ோ
ட ை
 செய ்த
ி ட்ட
ற் று
இ ந்த
த ற்க
ழ ு
 ந ில
ச ி
 மற்ற ும்
வ ை
ள்ள து
ம ு
ர ா
த ை
 என் ற
்த ்த
 வ ர
  ஜ
வ ும்
ன் று
ட ும்
ட ன்
 அ ரச
ண்ட ும்
 ப ொ
ப ி
ோ து
. .

ா ம்
ப ு
 ம ே
ம ா
ன ால்
 ப ு
ைய ும்
டு க
 அ வ
த ல்
ப்ப ட்டு
 அ மை
 வ ீ
ள ி
 அதி க
ின் ற
ந ா
ழ ்
ள ின்
த ே
 ம ீ
 கு றி
 வ ா
 செய ்ய
ன ி
ிற ார்
ம ே
 க ே
ிற ்க
 ந ி
ிய ில்
ிரு க்க
 ந ீ
 தெ ரி
 த லை
 ச ு
 ச ே
ன ு
ண் ண
ந ில
ர ை
 தொட ர்
க ளை
 இரு ந்த
 ப ல
 வரு க
 என் ப
ைய ை
டு த்து
வ ா
 ம ூ
 வ ை
 தெரி வி
ச ிய
 வே ண்டும்
 எ தி
ிரு ந்த
ப ெ
 ஏ ற்ப
 இ ட
த ில்
ிக ள்
ாய ்
2 0
ப ா
ார ண
 ப ய
 இரு க்க
  ட
ார ்கள்
 ந ே
ிய ு
த்த ின்
க ா
 ந ிற
 க ட
ய ்
 ப ார
  ய
 ச ி
 த ு
 ச ொ
ம ுக
 ச ிற
 த ிரு
த்த ிய
 அ வர்
 அ றி
? 

 மு தல்
டி க்க
ங்க ு
ல ி
ஸ ்ட
 த மி
ிற்க ு
ர ும்
ட்ச ி
ள ிய
  ஓ
ங்க ளில்
 இந்த ிய
 வ ந்த
ட்ட ி
ள்ள ார்
த ன்
  "
ங்க ள
ப்ப ட
 த ீ
ர் வ
ல ா
தற்க ு
வ ர்க
 ப ி
ஞ ்ச
ிய ை
 ம க்க
 ர ா
ஆ னால்
ர ே
ப்ப ா
ம ைய
வ து
ர ்த
வ ர்கள்
 ஆ க
 கொ ண்ட
வில் லை
ன ா
வ ்
 வெ ளிய
ல ும்
ப ோ
ா து
ங்க ளை
ரு க்கு
ண ை
 அ ந்த
க்க ிய
ல ில்
ல ு
த்த ி
 நட ை
ழ க
ோ ம்
  ல
ற்ற ி
ிக ்
ில ும்
ழ ை
 ப ண
்க ்க
ரி க்க
ரு த்து
ச ெ
 உ ய
இ து
ம ன்ற
டு க்க
 வழ ங்க
  ஹ
 இரு ந்து
 த ா
 ச ில
 அமை ச்ச
ே ன்
ட ைய
 நில ையில்
 ச ம
ப்ப ி
ூ ர்
  (
ல க
ப்பட்ட து
ர ாக
  ஊ
 இ ர
 மு டி
 ச ந்த
ஷ ்
0 0
 க ால
 த ன
ர் ந்த
த ும்
 மு டிய
 மு ன்ன
ல ம்
வி ட்ட
 அரச ு
ும் ப
 கூ ற
 ப ிற
! 

ிட ம்
இ த
ர ோ
ள ும்
ிய ல்
ப்ப டும்
க வ
 ச ட்ட
ின்ற னர்
ம ர்
 நடை பெ
ிய ின்
ஸ ்த
 செய்த ு
ல ாம்
ாம ல்
த ால்
த ா
ப்ப டுக
 த ி
ர ்த்த
 தே ர்த
ாவ ில்
ட்ட ில்
ாவ ட்ட
 ப கு
ச ா
 அ னு
ாள ர்
ிர ி
ன ம்
த்த ார்
 ம ோ
ன் ப
ர ம்
 ச ா
ங்க ி
ப்ப டி
 ப தி
 ம ாவட்ட
ர ில்
 க ிட
வு க்கு
ட ்க
 போ ல
 இ து
ன் னை
த்த ிற்கு
ப்ப ோது
ழ ி
 உள்ள து
க ி
 மா நில
 த ிட்ட
ிய ா
 ஆ ண்ட
ந்த து
 க ை
ல் லை
வர ை
ர வ
ால ும்
த ம்
 வி ச
 கூ ட்ட
க ளில்
த ான்
 தொடர் ப
ல ங்க
 ம ிக
 ச ீ
 க ட்ட
ஜ க
ிய ாக
ல ்க
 அ ம
வ ீ
ொ ரு
 ப ூ
 குறி த்து
 ஆ ண்டு
 அ ள
ிரு ந்து
 க ாரண
 ஆக ிய
ட ம்
ட்ட ை
ரு க
்ச ்ச
. .
 பொ ரு
 ர ூ
 இரு க்கும்
க்க ி
 எ ழு
ந்த ிர
 என் ன
ழ ந்த
ின்ற ன
ச ு
ாவ ின்
க்க ம்
 த ான்
ம ும்
 அதிக ார
ற ைய
க்க ான
ர் ச்ச
 ந ிக
. க
 வி வ
ப்ப ை
 கொ ண்டு
 மு ன்
 நிற ுவ
  ஈ
 அ னை
ிற ார்கள்
ள்ள னர்
க ர்
 த ிர
ங ்
த்த ிர
ப்பட்டு ள்ளது
ங்க ளுக்கு
 உ று
ொ ண்ட
 என்ப து
று க
தி க்க
 க ட்ச
 க ல
 ச ூ
எ ஸ்
க ம்
 ம ருத்து
 பொ து
 தே தி
 கட ந்த
ைய ே
 க ண
வ ாக
 ப ின்
ிய து
  -
ள ாக
 ந ெ
க ்த
 கிட ை
ாவ து
 உ ட
ப்ப ோ
 வருக ிறது
ட் ப
ப்படுக ிறது
 ச ம்ப
 இரு ப்ப
 நீ தி
 க ிர
 த ர
வ ிர
 மே ற்க
ண ம்
 இ ய
 சே ர்ந்த
 ஆ த
த வி
்த ான்
வ ம்
 பா ஜக
 வர ும்
 தன து
ின ார்
 அ டி
 ம ணி
. ..

 என்ற ும்
வ ெ
ப்ப டுத்த
ந ீ
க ார
ைய ா
மே லும்
  ஐ
 பே ச
 இ ல்லை
 க ி
 மா ண
 போ ட்ட
ங்க ிர
ஆ ம்
 கூ றி
 மக்க ள்
ம் ம
த ல
திய ில்
 கு றை
 க ரு
ெ ல்ல
ப தி
 மு க்கிய
வ டிக்க
 பிர த
து கா
 நட வடிக்க
ொ ள்ள
ெ ய
ே ய
தே ச
20 2
ழ் நா
 வி ள
ப ோது
 ப ழ
க ை
த்து க்கு
 வ ிர
 தெரிவி த்து
வர ும்
ம ார்
 வர ை
ோ த
 ம ட்டு
 உ ண
ழ ்ச்ச
 எதி ர்
டு வ
 அறி வி
தாக வும்
 ப ர
 ந ோ
ன ்க
 மீ து
ர்க ்க
 பா துகா
 அமைச்ச ர்
ாத ார
ற்ப ோது
 ப ுக
 குறி ப்ப
 த கவ
அ ந்த
 ரா ஜ
ார ி
  '
 மூ லம்
 பெ ற்ற
 நே ர
 வ ந்து
ர் ந்து
ரி ச
 செ ல்ல
 போல ீ
ய ில்
 ப ால
 க ாவ
 ப ட
 உ ரு
" ,
 த ோ
க ள
ல் ப
ந ்
 பெ ய
 ஆண்ட ுக
ர்க ளை
 தொடர் ந்து
 கு ற்ற
ழ ுவ
ிருக்க ிறது
 சொ ல்ல
 அ வர
 தெ ரிய
வ் வ
ம ீ
 போ ன்ற
 எ ந்த
 கா ங்கிர
ர்க ளுக்கு
 தலை வர்
 பிற கு
அ த
 செ ன்ற
 ஆ ர
  டி
ற ும்
ர் வு
ாக ி
க்க ள்
ூ க
 நடவடிக்க ை
ப ர்
 என ்க
 உள்ள ிட்ட
மு றை
ன ார்
 அ ல்ல
ைய ின்
ோ ர்
எ ன
ஜ ி
 கூ றுக
ர்க ள
1 0
ங்க ே
 இ ல்ல
 இ ன்று
 வே ண்ட
க்க ாக
 நிறுவ ன
 வ ய
 தொ ழ
ரா ஜ
 வ ில
 கூ ட
 பார ்த்த
 தமி ழக
  ஷ
ில ிருந்து
க்க ூ
ர ீ
ப்ப ில்
ட ா
 அ ண
1 9
ர ின்
வே று
க ட
தற்க ாக
 நட த்த
 வே லை
்த ு
த்த ர
த ான
 போ து
 அ ணி
ை க்கு
 வ க
ாள ர்கள்
 மருத்து வ
டும் ப
 வ ாய்
 த ூ
ெ ரிக்க
ல் வ
ிக ளை
 மு ய
  ஸ்ட
 உ லக
ஸ ்க
ப ார
 விச ாரண
ண ைய
  `
க்க ப்பட்ட
 ஏற்ப டுத்த
 பே சிய
ோ டு
 கு ழந்த
 க வ
 ஒ ன்ற
வி ட
ப்ப து
 எ டுத்து
 க ண்ட
ா ள்
வ ில
ர்க ளின்
ிருக்க ிறார்
டு ப
 வ ார
 போ ரா
 காங்கிர ஸ்
 வை த்து
 வ ள
 சந்த ி
  ஸ்
 ந ான்
 க ட்சி
ாவ ை
 மா ற்ற
 பய ன்ப
தற்க ான
 ம க
ை கள்
 ம த்திய
ப டி
 தொட ங்க
 வெ ளி
 இருக்க ிறது
 மா த
 அ ழை
ற ிய
ெ ன
 அ ல
 செய ்
ய ில
த மி
த்த து
ேய ே
 சம ூக
 அ து
ல் வேறு
 செ ன்று
ீ ர்
ப்ப ின
 த ய
 தேர்த ல்
 கு டும்ப
இத னால்
 அவ ர்கள்
 நில ை
 பெ ரும்
 அரச ியல்
 நி னை
 மு தல
ச்ச ி
 ச ார்
ியு ள்ளது
ள ்க
ா ங்க
ப்பட்டு ள்ள
 ஆ ய
ப ர
 நில ைய
 வழ க்க
ு க்கு
ட்ட ும்
20 1
 இர ண்டு
 கல ந்து
வ ின்
 பெ ரிய
 பே ர்
வி ட்டு
 ந ம்ப
 ஆ ய்
 எ ண்ண
 ந க
ப்ப ாக
 பார ்க்க
 பிரத மர்
 ப ல்வேறு
 வழ க்கு
 எ ம்
ம து
 இ ணை
 ம ொ
 பகு தி
 அ ளி
ப ிர
 கொ ள்ள
 நீதி மன்ற
 த ின
 தமி ழ்நா
ஷ ்ய
ந ி
 வி ழ
 பு திய
ந ாய
 கா ண
ந்த ி
க ளுக்கு
 வா ழ
ப ே
 வழ ி
 ல ட்ச
 இ லங்க
 நடைபெ ற்ற
 ப க்த
 நட ந்த
ெ ட்
 க ட்டு
 த ற்போது
 நி ர்வ
ள்ள ி
 க ீ
க ோ
ட்ட ம்
ர ான
 பிர ி
கட ந்த
த வ
 திரு ம
 தொடர்ப ாக
டு கள்
 அதி முக
 மீ ண்டும்
 எ டுக்க
ளு டன்
 இந்திய ா
ச ிக
 இ ற
 மு றை
 அதிக ரி
 பெ ரு
 க ெ
 மட்டு மே
ைய ாக
 தி முக
 ஈ டுப
 செய ல
ஜ ்
 அம ெரிக்க
ட்ட ிய
த்து றை
ல் வி
 ந டி
ிற ேன்
ி ட்டு
. பி
 முதல் வர்
 தெரிவி த்தார்
 உ த்தர
 ம ன
 வெ ற்றி
ய ா
ஒ ரு
 பெ ற்று
 அவர து
 தீ ர்
வ ரு
 பெ ண
 நட ந்தது
ிருந்த ார்
அ தே
 பாதுகா ப்பு
டிய ாக
 கே ள்
செ ன்னை
ளு க்கும்
 பொ று
 காரண மாக
ம தி
ச ை
 த ங்க
 வீ ர
 பயன்ப டுத்த
 எ ல்ல
 ஆ ம்
ளு மன்ற
ல ோ
ட ப்பா
ஷ ்ட
ிரு க்கும்
நில ையில்
 என்ப தை
 வக ையில்
த்த ம்
 இருந்த து
 வா க்கு
 நிக ழ்ச்ச
 த ிற
 செய ல்ப
ச்ச ு
ல ிய
 சிற ப்பு
 நிர்வ ாக
ட்ட ின்
 ந ாள
 பா தி
அ தன்
 கூறி னார்
அ து
ப ட
 இ ஸ்
 அல்ல து
 வை த்த
ிற ோம்
க ொ
 க ார
வ ான
 ஏற்ப ட்ட
 வருக ின்றனர்
 வரு வ
டை ந்த
 ரூ ப
 என்ற ார்
 நே ற்று
 நிற ை
 முடி வு
இ தில்
 க ருத்து
 கு ழு
 தே சிய
த்து டன்
 கை து
ல ்கள்
 அ ருக
ய ம்
 அனை த்து
அ ப்போது
மைய ான
 ப டி
ள ாதார
 ந ிய
டப்பா டி
க ிறது
 வெளிய ே
 செ லு
இ ந்
ஸ்ட ்
ி னர்
 இ ன்ன
ற் ச
ிய ும்
ச ாய
ரு க்க
ம்ப ி
ந ே
திய ாக
க ே
ட க
ச ார
. எ
 து றை
 தெரிவி த்த
ைய டுத்து
்ட ்
 அறி க்க
 ஆ ட்ச
 வி ஷ
ண ுவ
ிய ர்
ற்ற ை
ிக ி
 தா க்கு
 நா டுக
மைய ாக
- ம்
த ொ
வ ன்
ர் ம
 மா தம்
ப ின்
 முடிய ும்
 செ ன்னை
னா தி
இந்த ிய
 வ ச
 கேள் வி
 உரு வா
ள வு
 அ தை
 அ க
. மு
 ம று
லு க்கு
ச்ச ை
 மிக வும்
 வ ல
 ச ுவ
 கிர ாம
ற ையில்
 ர ஷ்ய
 ந ல்ல
 அல ுவ
ிரு ப்ப
ைய ான
 வி டு
 செய்ய ப்பட்ட
ச ிர
ச ில
 மு ழு
டிய ோ
அ தி
ில ேயே
3 0
வர்க ளுக்கு
 சிற ு
 த னி
 குறி த்த
ாக ு
ள ம்
 வாய் ப்பு
ால ின்
  ஃ
்க ு
 தொ கு
 மு க
டு ப்ப
 பி டி
தி ரு
 ச ோ
ள ா
 ப ணி
 வி மான
க ளின்
 பதி வு
 எ ப்படி
 வா ங்க
வி ழ
 விசாரண ை
ொ ண்டு
 ப ற்றி
ற் சி
 தே வ
 ப ார்
ப்ப ெ
 முடிய ாது
 பொரு ளாதார
ந ர்
 காவ ல
 என்க ிறார்
 த வ
 விவ கார
ில ான
1 5
ம ூ
 அ டுத்த
 மருத்துவ ம
னி த
இந் நிலையில்
 கோ டி
ா மி
 எ டப்பாடி
 தலை மை
 வி ரு
ப ால
சா மி
ப ை
 மு ழுவ
ா ட்டு
 ச ாத
ச ே
 எதி ராக
ற்ற ிய
ச ன
 வி மர்
 ச ிக்க
 பெ ண்
1 2
 தா க்க
 பழ னி
 உ ரி
ிருந்த து
ண்ட ்
ா ட
 வி ட
ிக்க ை
 உ ற
 தகவ ல்
ல ாக
அ வர்
கு றி
 நட ந்து
 க டை
 அ ங்கு
 பூ ஜ
 குறிப்ப ிட
 தெரிவி க்க
 ஆ ளு
த்து வ
 மணி க்கு
 ஜ னாதி
மை ச்ச
 முன்ன ாள்
 செய் வ
 தேர்த லில்
 ம ர
 நா ட்க
 பகு தியில்
திய ை
பி எஸ்
ிக ளில்
ப ல
ப ்ட
 இ ல
 கே ட்ட
 முன் பு
 கொ டுத்த
 ஒரு வர்
செ ய
 பா திக்க
இ ரு
 விவ சாய
ை ப்பட
 ஒ ன்று
 குழந்த ை
ங்க ளின்
 நிற ு
ச ார்
ரோ னா
 அ தன்
 ம தி
 தீ விர
 வ ாக
னு க்கு
ம ையில்
 ம ின்
 ம ெ
 உண வு
 ப தவி
 பய ண
நில ை
ியு ள்ளார்
ீ டு
 நட த்தி
ன்ன ு
 சார் ப
 பிர ச்
 ச ிகி
ர்ச்ச ி
 நா ம்
என வே
ஆ ர்
ஷ ே
த்த ால்
 ஆய் வு
த்து ள்ளது
ம ோ
 தொழ ில்
ஸ்த ான்
 ட ெ
 அ த
 நிக ழ்
ார ்க
ஸ்த ான
 மூ ல
. எஸ்
 பக்த ர்கள்
 அ ரு
த்த ிற்க
 உள்ள ன
ன ே
 அ ங்க
லை க்க
 ம ட்டும்
 ஜ ெய
 அதிகார ிகள்
 ப ரி
 ஆ ர்
ன ின்
ம ொ
 வை க்க
 கூற ிய
 ம து
 வ ங்க
ியு ள்ள
 வேண்ட ிய
ப்ப ே
 எதி ர்க
ந்த ்
 கோ வில
 வீ டியோ
 பா ட
. ஜ
ர்த்த ு
 ரா ணுவ
 உய ர்
ீ ர
5 0
ு டன்
வ்வ ொரு
 இலங்க ை
1 1
 நட க்க
த லை
 குறிப்ப ிட்ட
 க டி
ச ன்
ன ில்
 ந ான
 ச ங்க
ட்ட த்தில்
 த டை
ரி டம்
 நி தி
த்த ான்
த்த ையும்
 ர ாம
 சொ ன்ன
த்த ா
இ தன்
 ஆய ிர
 த ன்
 செ ல
 முழுவ தும்
ப்பு கள்
  ட்
 மூ ன்று
 அ பி
 கா லை
 சூ ழ
 ஸ் ரீ
ெல்ல ி
ண்ட ி
 விள ையா
ன ும்
ம்ம ன்
 செ ல்
 வி ட்டு
டிய ே
நி தி
 ப ட்ட
 க ன
 வே று
 பெ ற
 தமிழ்நா டு
ன ்கள்
 க டு
 கொ டுக்க
ப ூ
 இட ங்களில்
ந ான்
 த ந்த
ப்ப ிர
 காவல ்து
 இஸ் ரே
 ஆத ரவ
 நேர த்தில்
 ஜ ன
20 0
00 0
ட ்கள்
 மே லும்
 தெரிவித்து ள்ளார்
 தொழ ில
டா ளுமன்ற
க்க ெ
க்க ோ
 கொ ள்க
க ர
 சம்ப வம்
 ரூப ாய்
அ தில்
 ந ிர
 வி ஜ
 செய்ய ும்
 சி வ
 ஆ ட்சி
 சு ற்று
 ம னை
 இ த
 உ தவி
 உறு தி
 அ ண்ண
 க ல்ல
ிக ளுக்கு
ெல்ல ாம்
 ஊ ழ
 வய து
ஸ் வர
 ஒ ப்ப
 போட்ட ிய
 ந ு
 லட்ச ம்
ந்து ள்ளது
 ப ங்கே
போ ல
 விர ும்ப
வ ருக்கு
 து ணை
 ப ள்ள
 ச ரிய
ப்ப டுவ
 உ ச்ச
 அலுவ லக
a n
 அ வரை
வர ாக
ப த்தில்
க ளும்
 த விர
 தே ர்வு
ரு ந்து
த்த க்க
ுக ள்
 நா ள்
நா ட்டு
 உய ிரி
 கீ ழ்
ம்ப ர்
ளை ஞ
ா டு
 சம்ப வ
 தொடர்ப ான
 காரண ம்
 ய ார
 இட ையே
 ய ா
ப ொ
 இ ப்போது
 ஆ ணைய
 பார்த்த ு
ர வு
விட்ட து
 ` `
ளு க்கான
 நா ங்கள்
 கோ வில்
 ஒ ரே
தொ ட
வர்க ளை
 ஜனாதி பதி
ின ால்
இத ையடுத்து
 மோ ச
 தமி ழ
று த்த
 அடி ப்பட
க்கு றி
 கே ட்டு
த்த க
ின ி
 விழ ா
 தே வை
 உட ல்
 வருக ிறார்
 மே ற்ப
 ய ோ
 எதிர் பார
 கூற ப்படுகிறது
 ஆ லோ
 அ டை
ா ட்ட
 க ல்வி
ரச ு
 போலீ ஸ
இ தை
ரிக்க ை
வர ின்
 மாவட்ட ம்
ல ைய
 கோ யில
 அள ிக்க
த்த ிலும்
ம ெ
 பிர தேச
ரு க்கும்
 உறு ப்பின
 வி தி
ோத னை
 அவ ருக்கு
 உ ண்
ா ச
 த ங்கள்
ும்ப ோது
க்க ொண்ட
 அ ர
ள் வ
 ஸ்ட ாலின்
 இர ண்ட
்ட ர்
ல ின்
 ஜ ூ
அ தை
த்த னர்
 சு மார்
 வாக ன
 ம ைய
ர ல்
ர்வ தேச
 உ த
 இ ளைஞ
ப்ப ின்
 க ண்டு
 விஷ ய
1 8
 பே ர
 கொ லை
த லில்
ட்டு க்கு
 சிகி ச்சை
வர்க ளின்
 இன்ன ும்
 வீ ட்டில்
 மேற்க ொள்ள
 ஜ ெ
 போ க
ஷ் ண
 க ள
ிய ார்
ழ மை
்க ளை
 ஏ ன்
நீ தி
இ தற்கு
 கொ ரோனா
ங்க ும்
 சார்ப ில்
 ர யில்
 கா ந்தி
 மோ டி
 கோ யில்
்க ா
 உ ட்ப
ம ையை
ிக ள
 நா டாளுமன்ற
 இ ந்து
ச ீ
ான து
தாக க்
 வந்த து
 கூட்ட ணி
 க ாய
 நடைபெற்ற து
 பிரச் னை
 வே ட்ப
ங்கள ும்
 மட்டு ம
 அள வில்
க்க ில்
 ஏற்ப ட்டு
 இ ணைய
ம்ப ெ
 ஏ ற்க
 மே ல்
த ெ
ற்ற ில்
 ச ரி
க்க ளை
 ச த
ூ ட
 பய ி
 த ுவ
தில் லை
ம் மா
 மு றைய
 கிடை க்க
 பு ற
ல ே
 ப ந்து
 வ ட
 வி ட்ட
 ர ாகு
 செய்த ி
ங்க ிய
ன ையில்
க்க த்தில்
 தமி ழ்
ிட ையே
 அழை த்து
ு ள்ள
ண ிய
மு தல்
தமி ழ்நா
 கூறுக ிறார்
 அ டைய
 கட்ச ியின்
1 4
ஃ ப்
ச ோ
 என க்கு
 அருக ே
த ோ
 ப டை
 ஏ ற்று
 ப தவ
 ஒ து
 அரச ாங்க
 வாழ ்க்க
 ம த
 திர ும்ப
ல்க ளை
க் ரை
 ந ூ
மைச்ச ர்
ஷ ன்
 கொ டுத்து
பு ரம்
i n
க்க ள
 ம ி
 வெ ள்ள
பா டு
வி ன
 கு டிய
 அ ப்ப
 பின் னர்
 செய ல்
வ் வா
ண் ப
ம க்கள்
ந ாத
 இ று
 பு து
 அனு ப்ப
 ம னித
த்த ும்
ரு வ
 ந ப
த்து க்
ஞ்ச ா
 தீர் மான
 அனு மதி
 ம ண்ட
 வா ழ்
 கல்ல ூ
 ட ிர
 விர ை
 அரச ின்
 அ ற
ார ்த்த
 என வும்
 பெண ்கள்
த ற்போது
ர் ப்ப
 வ கு
 எதி ர்க்க
 சி ங்
 இ ன்
 நெ ருக்க
 ஆலோ ச
ாக ்
 வில ை
ள்ள ன
 செயல ாளர்
 என்ற ால்
 பல ்க
ந ு
தி கள்
 ப ரிச
 கிடை க்கும்
 ம கி
ச ம்
 உள்ள னர்
 காவ ல்
 செ ல்வ
த ள
 பர பர
 ந ம்
ர ம
 ஒ வ்வொரு
 பிர ச்ச
று வ
வு டன்
தமி ழக
 குறி ப்பி
 தய ார
 அரச ிய
 நிறை வே
 சொ ந்த
 இல்ல ாத
 வர லா
ல ர்
 அதி பர்
 எ து
பி சி
 ச க
 அனு ம
 கி ள
பின் னர்
ிக ளின்
 ப ாத
ப்ப ாளர்
ச ூ
 புக ார்
 பண ம்
 ர சிக
 செய்த னர்
க்க ொள்ள
 கு ரு
 வே க
டுக ளை
ம்ப ு
 ஜ ோ
 மக்க ள
 சுவ ாமி
ன்ன ி
க்க ிர
 இ ழ
வர்க ள
1 6
ற்ற ம்
 எ டுத்த
ர் ப
த்தை ச்
ர்க ளும்
 பாதி ப்பு
ால ி
 போரா ட்ட
 ர ீ
 அமை ப்பு
 திட்ட ம்
ர ையா
 மேற்ப ட்ட
 தொட ங்கி
ப ்த
 உரி மை
1 3
 ம ை
 பே ச்ச
ந க
 ச ுக
ிரு ஷ்ண
க ன்
இ லங்க
வு கள்
 கு டி
 ப ை
 வல ியு
 குறிப்பிட த்தக்க
க்க ொ
ிய ாள
ா ண்ட
 என க்
ண ா
 ஓ பிஎஸ்
 த ள
 க ண்ண
 வரு ட
க்கூ டிய
க்கு ள்
 ப ாகி
 நீதி பதி
ர ிக
ப்ப ூ
 வி ற்ப
ஹ ி
ட்ட ர்
ிர ே
 மா லை
 இருக்க ிறார்
2 5
ார ம்
மா று
ு த
வ ாள
கள ையும்
த்து ள்ளார்
 வருக ின்றன
ிய ான
. ஏ
 க ைய
 மு ன்ப
 ந ாய
 ச ர்வதேச
e r
 உட ன
 ம ழை
ன்ன ீர்
 ஏற்ப டும்
 ஊ டக
 ப த்திர
 இர வு
 இய க்கு
க ொண்ட
 குற்ற ம்
 ஈடுப ட்ட
 வெ ற்ற
 நே ரம்
 ந ல
த்த ீ
ப்பி னர்
 நா டு
 போலீ சார்
வி ரு
ில ்தான்
 இட த்தில்
ிய ே
 என்ப தால்
 அதிக மாக
 தொடர் பு
க்கூ ட
லைக்க ழக
மை ப்பு
ர்த்த ி
 ஆகிய ோர்
நீதி மன்ற
 செய ்க
 வே ண்டு
ாத ம்
 கண ்கா
 த ிட
 வை ர
ோ க
 நடைபெ றும்
1 7
 க ாத
 ச ின்
ிற ு
1 00
2 4
டுத்து வ
ஜ ா
 சே வை
 கே ட்க
 அ தற்கு
 ஆ ப
 செலு த்த
 வர வே
 உ ள்
த்தி னர்
 ப ீ
த்த ியில்
ார ா
ந ோ
மான து
 பழனி சாமி
 அடிப்பட ையில்
 எதி ரான
 அ ட
த்தை ப்
 மனை வி
ப்ப ான
 நட த்திய
 கவ ன
ங்க ில
ாம லை
 குற்ற ச்ச
ா ண
வி னர்
 போலீஸ ார்
 செல்ல ும்
த ந்திர
 ப ங்க
 நக ர
 எதிர் ப்பு
அ தற்கு
 இ தை
 வெளிய ிட்டு
த்த ொ
ர ாள
த்த ிட்ட
ப ிற
 க லை
க்கு ப்
 பூஜ ை
 இ டை
 ஆ சிர
க்த ி
.எ ல்
 திட்ட மி
ில ோ
்த்த ு
ப்பட்டுள்ள ன
 வழக்க ில்
ம ார
 ஆளு நர்
 த ற்க
டு வது
ா டி
வ ரி
ட்ட ா
ே ஷ்
ில் லிய
a t
ல ாம
ரா ட்சி
க்கு ழு
 ப ள்ளி
த ீ
 ர ோ
த்தை க்
 பார ா
 பல்க லைக்கழக
திய ின்
 பிற ந்த
 த ண்ட
ிருந்த னர்
 பகுதி களில்
 கால த்தில்
 வி ழு
ாள ராக
 நிறுவ னம்
ம ற்ற
 ஆ ட்ட
 மூ த்த
விட்ட ார்
அத னால்
 ரஷ்ய ா
 மே ம்ப
டு க்கும்
 ஆர ம்பி
ந்த ில்
 போ ர்
 இட ம்
ட ல்
 ஆ வ
 திரும ணம்
 பய ணம்
்க ளுக்கு
 அதிக ம்
 சீ ன
ாவ ும்
ர க
 கா ட்ட
எ ன்
க்க ண
த்த ின
ன்னு டைய
 அ தே
 உ ற்ப
ிய ர்கள்
 பிர தி
இ ர
 ம றை
 ஆத ரவு
 ம னு
 போ ல்
 வெளிய ிட்ட
வர து
 ய ார்
போ ல்
 கட்டு ப்பா
 மருத்துவம னை
 பெ ண்ண
ற்க ு
 வெளிய ாக
ங்கி ணை
 திர ைப்பட
க்க ப்பட்டு
ப்பட வில்லை
 இணை ந்து
ர ங்க
ள ிக்க
வ ற்றை
 ப ரவ
 உ தவ
க்க ே
 க ர்
 ஆண்டுக ளுக்கு
வ ிய
ீ ர்கள்
ங்கள ாக
 எ ச்ச
 குறிப்பிடத்தக்க து
 திரு ப்ப
  ,
ந கர்
ர்கள ிடம்
. ப
எ ல்
த ையும்
ஷ ி
ப்பட்ட ன
 நோ ய
 அவ சிய
நாய க
ிக ை
ாய ம்
 திரு விழ
 நடைபெ ற
 கூட ாது
க்க ை
 இ ள
 நடைபெ ற்று
 அளி த்த
 வ லை
ன் றி
ட ாக
நு ட்ப
 பால ியல்
 செய்த ார்
 இது வரை
வ்வ ளவு
 முய ற்சி
ச ிக்க
 ய ூ
 தாக்கு தல்
 ச ர்ச்ச
ளு க்காக
 முன்ன ே
o n
 திரும ண
த ன
 நீ ண்ட
 நீதிமன்ற ம்
 செய்ய ப்பட்டு
 பதி ல
அ ரச
க ால
ன் பு
 இல்ல ாமல்
 அ தில்
 அடைய ாள
 நா டுகள்
 சத வீ
 மாண வர்கள்
க்குறி ப்பு
 உட்ப ட
4 0
 ட ெல்லி
ொ லை
 மாண வி
 இந்த ப்
 நீ ர்
 எ ஸ்
 வி ப
ப்ப டை
ள்ள தாக
ம ில்
ெ ய்
 இட ம்பெ
 தன ியார்
ட்ட ிற்கு
 கூறுக ையில்
ந்த ிய
த மாக
 பண ியா
 ஆ ன
டிய ில்
 தய ாரி
ங்கள ிலும்
பட க்குறிப்பு
தொட ர்ந்து
பி டி
 வ சி
 அறிக்க ை
 உள்ள ார்
 கோ ரிக்கை
 நீ ங்கள்
ம ணி
கு தி
 ப த
 வரு மான
2 3
 க டும்
 அ லங்க
 ஒரு ங்கிணை
 விச ாரி
ப ட்ட
 த ரிச
 சுக ாதார
 ப ங்கு
ம ான்
ழ ்த்த
 போ ட்டி
 பின் ன
 கா ட்ச
 இருந்த ாலும்
ிர ா
 தலை மைய
 இ ங்கு
வ்வா று
 அ ழு
 நட க்கும்
க்க ார
 வ ிரி
 நா ட்டின்
ண ியில்
 பெய ர்
ஷ ா
ன் ஸ்
 உ ங்கள்
 இருந்த ார்
 இஸ்ரே ல்
 இ ப்படி
 சந்தி த்து
ப ம்
த்த ன
 மா ட்ட
 முடிய ாத
 தொகு தி
 போ ட்டு
 தாக்க ல்
 ஆண்டுக ளாக
 மா தி
 எதிர்பார ்க்க
இ ன்று
 கு ழுவ
 மா ற
 கூட்ட ம்
 இருப்ப தாக
ழ க்கு
மு றைய
 சட்ட மன்ற
a r
ப்பு ற
இத ன
 மீ தான
 பு ரி
 வ டி
 எ ரி
2 2
 மகி ழ்ச்ச
வ ைய
 தலை மையில்
ப ார்
ைய ிலான
 ர ெ
 போ க்கு
 ய ு
 ஜ ி
 உருவா க்க
 நான ்கு
 கூ டிய
ஷே கம்
 பல ர்
அ வர்கள்
த ார
 வீ டு
 எல்ல ாம்
 நிகழ்ச்ச ி
. சி
 தெரிவித்து ள்ளது
 எண்ண ிக்கை
 வ ிக்
ர வை
க்க ல்
ய ூ
 த ண்ண
 நிறு த்த
 க ார்
ங்க ா
 மக்க ளுக்கு
 பிரி வு
ிக ா
 சில ர்
 ஆண்ட ில்
ப்பின ும்
  ரி
 அ ன்று
 ட ீ
ியு டன்
ிய ன்
 ஆர ம்ப
 அவ ர்களின்
்க ளில்
 ராகு ல்
ா ட்சி
ாள ி
 தலை வர்கள்
 சட்ட ம்
உ லக
ர த்தில்
நா ள்
 ஒது க்க
ன்ன ையில்
 உ க்ரை
ான ா
 வெ டி
 அதிகரி த்து
 குறிப்பி ட்டு
ராள மான
 வே ல
 அனை வரும்
இரு ப்பினும்
டிய ை
 முன்ன ிட்டு
அதி முக
ில்லிய ன்
 த ிக
 சந்த ிர
வெ ளி
ன்க ளை
 வ ன்
. தி
ன வே
 ச ோதனை
 வெளிய ிட
ரே ந்திர
 அமை க்க
த்த ே
ான ி
 அனும திக்க
 வ ரி
 வந்த ார்
ஞ்ச ி
ர ூ
 ஒப்ப ந்த
 ஆலோச னை
ெ டுக்க
 கூற ியுள்ளார்
ர ள
 பல ரும்
ற ையை
ி ழமை
 தவ ற
 அள வுக்கு
த ாவது
ிக ளும்
 நிய மி
குறி த்து
அ ங்கு
ரு டன்
 அறி வு
 ம ார்
 அமெரிக்க ா
ஜ ரா
அத ாவது
ஞ ர்
ம ின்
வ ச
 கூ டு
வு ன்
 சொல்ல ி
ய ி
 ஆ ன்
 சு தந்திர
 ஏற்பட்ட து
க ிறார்
திய ான
 தகவ ல்கள்
ப்ப டிய
 முக்கிய மான
ன்னீர் செ
ய ்ய
 ஆ று
இ ப்போது
 போரா ட்டம்
ள வில்
 ச ர
ன்ற ால்
நாய கர்
 ஆயிர ம்
 தொழில் நுட்ப
) ,
 பொரு ட்க
 அ டிக்க
 காவல்து றை
. ஆர்
 மாவட்ட த்தில்
ில ை
 தொ லை
அ ம
ந ிய
ப்ப ும்
ால ையில்
 க டன்
ங்கள ையும்
ில ுள்ள
 கடு மையாக
 ஆ ர்வ
வி டம்
` `
க ிர
ர ன்
 ப தில்
 போ ன
 ஆண்டுக ள்
 அறி முக
 தர ப்பு
ட்ட ிக்க
இத னை
 அறிவி க்க
ியு ள்ளனர்
 க ழி
 அனு ப
 வ ான
 கோவில ில்
 குற்றச்ச ாட்டு
வ ால்
 என் னை
 மா றி
சி ங்க
நா டு
ய ர்
 விற்ப னை
ர் மா
க் ஸ்
e n
 ப டம்
வரு க்கும்
 ம த்தியில்
 ஆர ாய
 ஒ ப்பு
 இறு தி
எ ன்று
மு ன்ன
 ஆ தி
 மே ல
 க ிலோ
 தே டி
 வெ ள
 உயிரி ழந்த
 உடன டியாக
வ ார
டு ப்பு
 போலீ ஸ்
ஜ ெ
களை ப்
 பாதிக்க ப்பட்ட
க்க ால
 கூட்ட த்தில்
 ம ண
 எழு ந்த
ச ல்
 பு தி
ப்போ தும்
 இருப்ப து
. ,
. டி
ப ொரு
 மு றையில்
 மக ன்
o r
டை ந்து
 குறை ந்த
ப ட்ச
 ச ை
 ஏ ராளமான
 அவ ர்களுக்கு
 சந்த ே
 முன் வை
 கிர ிக்க
ம டைந்த
வி டும்
 பு ல
 கவ னம்
 முதல மைச்சர்
ந ெ
 முறைய ாக
வ ால
 உ ற்ச
ஸ்த ிரே
2 1
பொ து
 ந கர்
ண்ட ை
 தெ ளி
ற வு
ர ான்
 த ாய்
 அ ம்ப
 சம ய
 ப ண்ண
 ர ன்கள்
 பே சி
 ப கி
 இ வர்
நா த்
 இருந்த ால்
 வி ளை
போ ன்ற
 நீதிமன்ற த்தில்
சா லை
 ப ற்றிய
.. ..
இந்த ியா
 இந்திய ாவில்
வ ந்த
செய ்ய
க்கூட ாது
 சின் ன
 மாநில ம்
 எது வும்
ீ ஸ்
 சம ீ
 ஓ ய்
எ ன்ன
 க ால்
 க ான்
 மருத்துவம னையில்
 ஹ ி
a l
ு ம
 வ ண
 விவகார ம்
 ப ற
நா டக
 அனு ப்பி
 ந ண்ப
ட ே
 ஈடுப ட்டு
 அந்த ப்
த்த னை
 நா ட்டில்
ிய ம்
 ந ரேந்திர
த் ய
வு க
 பி பிசி
 முடிய வில்லை
 சா லை
 மக்க ளின்
 பண ிய
பா ஜக
 இரு வரும்
 தேவ ையான
 கண்கா ணி
இ வர்
ச ர
ச்ச ே
 மேற்க ொண்ட
 வேண்ட ாம்
 நி திய
 ஹ ெ
 கை ப்ப
நீ ர்
ப்பெ ரிய
ங்க ை
 கு ழ
 சீ னா
குறி ப்பாக
த்தக ைய
க்கண க்கான
 ப கவ
 ம ார
ப்ப தி
ன ோ
 அ க்க
ிட ்
 நா ட்கள்
 ப ட்டிய
 க ழக
 இந்திய ாவின்
 மூ ன்ற
 ட ாக
 வ கை
வ ோ
ட் பு
 பிரத ம
 அ ப
 கால ம்
 ஆகிய ோ
ால ்தான்
தற்க ும்
 குறிப்பிட்ட ார்
ர ாம
 அதி ர்ச்ச
  லா
 பாரா ளுமன்ற
 சே ர்க்க
வர்க ளில்
ுக ிறது
ர ்ட
ஹ ா
ன ாக
 ச ிர
 த ன்னுடைய
வா தி
 த ாய
 நடக்க ிறது
 மா ற்று
 அதிகார ி
 ஒன்ற ை
வ ாய்
ற்க ை
 கா ட்டு
றைய ினர்
அ வ
ஞ ான
ராஜ ்
ஆ க
 கா த்த
 ம ிர
 அவ ்
பிற கு
 தெ ாட
டுக ிறது
 முய ற்ச
  ஸ்க
ட ர்
 வ ன
 சிற ப்பாக
 நிறைவே ற்ற
- ஆம்
ப்ப ிய
 ஆ னால்
ு மா
 ந ாக
 சே ர்ந்து
 விமர் சி
 த ற்ப
 அ ம்மன்
ங்கள து
 ப றி
ா லை
 ப ால்
வு களை
 த ான
ன் மை
மா ள்
ற்ற ின்
 நா ளை
நா ட்டில்
 ஏற்ப ட
 ஷ ா
 ர ே
ள ையும்
 ப க்க
னை கள்
 புக ைப்பட
ீர ென
ூ ரில்
த்திர ை
ம ்தான்
இ ல்
ஸ் லி
 க ப்ப
 மிக ப்பெரிய
ரு மான
 செய்ய ப்பட்டது
ம க்கு
ழ ும்
த்தை த்
பு ண
 போட்ட ியில்
 சக ோத
ட ன
ம ிக
ுவ ார்த்த
ப ய
ர ையில்
ழ ில்
 இ ன
ிருக்க ிறார்கள்
 உய ிர
 பேச ினார்
 வீர ர்கள்
ான ை
ம த்திய
 ப ்
 அத னை
 இ ன்ற
 அவ ர்களை
 அவர ின்
ல லி
ா ண்டு
த்த ிலிருந்து
ாக ும்
ிரு ப்பது
 க த
 குழந்த ைகள்
 ம ாக
 செய் வது
க்க ொண்டு
வர த்து
 சட்ட ச
 நோ க்கி
 விஜ ய
வ ியல்
ப்ப ூர்
 க ும்ப
 த ாம
ல்ல ா
 மேற்க ு
ச ர்
வ ருக
மி ட
 வார ்த்த
ப்ப ர்
 சொ ல்க
ப ான்
 உ டன்
ுக ளை
 கோயில ில்
ன ைய
வி த
 மட்டும ல்ல
 இ தில்
 வழங்க ுவ
ப்படுக ின்றன
இந்த ப்
 மது ரை
ின்ற து
க ூ
ந்து ள்ள
 க ல்
 த ரு
 ர ண
த்து வம்
 ம ருந்து
த்திற்க ும்
 யார ும்
 உ டை
 செய்த து
 ஆய ுத
 அண்ண ாமலை
 தொ ண்ட
 சே ர்த்து
 வி திக்க
 ஹ ோ
 அள வு
 க ௌ
ளி த்த
 சிற ந்த
 பண ிகள்
 எ ங்கள்
 கொ ல்ல
வே ண்டும்
 ஆக ும்
 பயி ற்சி
 போ ய்
ரா சிர
 நி புண
த ூ
கார ா
வ ாத
ர ்ட்
 வா ங்கி
 இய க்க
 மாற்ற ம்
 அ டைந்த
ற்ற ும்
வர ா
 தெ ன்
 ஐ ந்து
 இருக்க ிற
  லி
இ ப்படி
 தரிச னம்
பு ற
 ம கா
 பேச்ச ுவார்த்த
ன ையை
  S
ெ ழு
 த ன்னை
ச ிற
 முடி ந்த
 எழு திய
 க ணி
ம லை
ிருக்க ின்றனர்
அ ப்படி
 என து
 வழ ியாக
 செய்த ியாள
ாம ா
 வி ண்ண
 வி க்கெ
 கு மார்
 மின் சார
 இ தற்கு
ஞ்ச ம்
 அ ச்ச
ப்ப ம்
ைய ோ
 இந்த க்
 ராஜ ப
 நம்ப ிக்கை
 கடு மையான
 பாகி ஸ்தான்
த்து ள்ள
 விரு து
 நடை முறை
 த டுப்ப
 மு ருக
அம ெரிக்க
 என த்
 தே ர்
ழி ப்பு
 பிர பல
 சூ ழ்
 வலியு று
2 7
6 0
 த ிருக்க
ும்ப ை
 ட் விட்ட
ரிய ா
 தந்த ை
ம க்க
 ப க்கம்
 இ னி
 மாநில த்தில்
இ தே
 விடு தலை
- வது
 க ும்
 என்க ிற
 மொ த்த
ல் வம்
 ச சிக
 கிடை த்த
 உயிரி ழ
 திருவிழ ா
க ்ச
 க லா
 பிர ச்சி
 பந்து வீ
 வ ாய
 நிர்வாக ிகள்
ப்ப தாக
க மாக
 நு ழை
e s
ை ப்
ர்க ளில்
ய ு
 அ ச
 இந்த த்
அதன் படி
 கரு த
ல ூர்
 எ ளி
நில ைய
 ஆராய ்ச்ச
 வள ர்ச்சி
த்த ல்
 பு ர
வீ ன
 பால ா
 விவகார த்தில்
 எதிர்க்க ட்ச
 அ வை
ட் ஸ்
 அறிக்க ையில்
 வெ ன்ற
ண ு
ம ம்
 ந கை
 கிட ைய
ற் சிய
 மா நக
ரிய ில்
 சுற்று லா
 தின ம்
்ட ோ
 அபி விரு
 சொ த்து
 கொ ள்வ
 பண ியில்
 கண்ட ி
 தொ ற்று
 ஏ ற்ற
 எதிர்க ால
த்த ூர்
இது குறித்து
ல ையில்
 ப ட்
 ஏற்ப ா
 உறு ப்பினர்
கா ங்கிர
 பொது மக்கள்
இ ங்கு
க் ரே
19 9
 துவ ங்க
ண ்கள்
- ல்
 சிற ுவ
்து றை
நே ற்று
 மு தலில்
 மேற்க ொண்டு
 குறித்த ும்
 உற்ப த்தி
ஷே க
 வகு ப்பு
ந்த ர
ப்ப தற்கு
ங்க ல்
 சூ ரிய
 ஆண்டுக ளில்
2 8
ண்ட ிய
மி த்
. ஐ
2 6
 த ை
 நாட்க ளுக்கு
 மோ தி
 சூழ லில்
இ தற்க
 கு ஜரா
 பே ராசிர
 விரை வில்
 கிடைய ாது
 ச ப
 கு வி
 வழங்க ப்படும்
 மாக ாண
  A
 வ ங்கி
தி முக
 வி வர
 தலை வராக
 வ ியா
 கிரிக்க ெட்
ச ரி
 அ ம்மா
ீ ன்
 க தை
கு தியில்
அ டுத்த
 ப டைய
 அ மர்
 நா ட்டு
 தெரிவித்த னர்
 புரி ந்து
 உ ரிய
 ஏற்படுத்த ி
  டை
அ வரது
ட ெல்லி
 நிறுவன ங்கள்
பால ான
 ந வ
 அ ந்
 பே ருந்து
ன்னீர்செ ல்வம்
.. .
ச ியில்
தி லும்
 கடை சி
வ தற்கு
 அ ம்
 உ ங்களுக்கு
 மக்க ளை
ந்த ர்
 பின் ப
 டாக ்டர்
்ட ு
 க ர
 நிலைய த்தில்
 ஆய் வ
பா பி
ன்க ொ
ப ீ
 ந பர்
தை ப்
 வர ்த்த
 பகு தியை
 தற்க ொலை
ுவ ை
 நெ ரு
இந்திய ாவில்
இ ஸ்
ன ிய
 அதிகரி க்கும்
 திட ீரென
5 00
ம ன
ழ ்க
 த டுக்க
 அருக ில்
 ஆவ ண
 வலை தள
 ட ா
ீ ட்டு
 பெண ்க
அதே போல
 அரு ள்
ந்த ார்
 ந ிற்க
 என ும்
 வந்த னர்
 தொடங்க ிய
பிர த
 ரூப ாய
 ச தவி
 அ ம்ம
த ர்
 குடிய ரசு
 தலைமைய ிலான
த ோடு
ன ல்
 சு ய
 வருக ிறார்கள்
 தர ப்பில்
 ஏற்பட்டு ள்ளது
எ ம்
ர் ண
 அ ரி
 சதவி கி
வ தாக
 இருக்க லாம்
 அறிவி ப்பு
 மர ண
 மதி ப்ப
 இரண்ட ாவது
ா ந்து
 சிற ிய
 விழ ாவில்
 வ ட்ட
ரு டைய
 கீ ழ
 ர த்து
 தெ ரிக
ஷ் மீ
 பயன்படுத்த ி
எ தி
ங்கள ால்
 பேச ுக
 மற்ற ொரு
 அதிக மான
நா ங்கள்
 கொண்ட ிருந்த
வ ார்
 விள க்க
 மு தன்
 பே ட்ட
ப்படுத்த ி
 முய ன்ற
 பரி ந்து
ள ே
ா ரு
 வ ளாக
 செய ற்ப
காரா ஷ்ட
 க ிருஷ்ண
ரிய ாத
 ம லை
ின ும்
இந்த ச்
 வா க்க
ாவ ிற்கு
 அவசிய ம்
 வச தி
 மார் ச்
ைய ிலும்
 ட ே
ளு டைய
 நிற ைய
 கல்லூ ரி
 மு ஸ்லி
 பிர ிட்ட
 வெளிய ாகி
 ஆட்ச ியில்
 பார் வைய
ஸ ின்
ப்பட்ட ார்
 நம்ப ிக்க
 நாள ில்
 எ ங்களுக்கு
ாள ைய
 தொடர்ப ில்
 ர த்த
பெ ற்ற
 உ ண்டு
 ஏ மா
 ரண ில்
ண ்க
 வி த்திய
 ல ே
 தெரிய வ
i s
பி டிக்க
 ந மது
 பிர ே
களை க்
 ரா சி
 அதி ர
 ப வு
 வீ ட்டு
கவ ின்
 நினை க்க
 வழக்க றி
 மாவட்ட ங்களில்
கள ிலும்
ு ங்கள்
 க ம
ப்ப ிக்க
 போக்கு வரத்து
 ப ண்ட
 ப ற்ற
 தே ர்ந்த
ட் ரோ
 அதிக ரிக்க
 விப த்து
ச்ச ெய
 அ ழ
 நடி கர்
ூ ர
 உ ட்க
 இரு க்கு
 சா ப்ப
 பெரு மாள்
 தெரிய வில்லை
ம ண
ழ க்க
ப ால்
 போ ட
 சம்ப ந்த
 நிகழ்ச்ச ியில்
 ஒ த்து
 அரசு க்கு
 தெரிய ும்
 அழை க்க
 நிர்வாக ம்
 கொள்க ை
 ஜூ லை
ப டுத்த
 ஒ ழு
 சு ட்டிக்க
 ரசிக ர்கள்
 செய்ய ப்பட்டுள்ளது
 மாநில ங்களில்
 தொடங்க ியது
ஸ ில்
 பொறு த்த
 தண்ண ீர்
 கூடு தல்
ம ிருந்து
 க ள்ள
 ட ால
 சிற ை
 அண ியின்
 ஆ ஸ்திரே
 செ ன்னையில்
 பிர சார
 பரபர ப்பை
 தண்ட னை
  B
ஸ ை
வே ன்
 அவ ர்கள
ோத ைய
 த ட
 உ ரையா
 விஜ ய்
ற ையும்
 க மி
ங்களை ப்
 வெளி நாட்டு
 விளையா ட்டு
ரா ட்ச
டுக ளில்
 புக ார
 பெற்ற ோ
 வாழ்க்க ை
 விக் ரம
ம ிற
 இருக்க ின்றன
ப்பா டு
 பொறு ப்பு
ஸ்வர ர்
 ஏற்க னவே
எல் ஏ
. வி
 கட்ச ிய
 சரிய ாக
 உக்ரை ன்
 ப ண்
 நி ச்ச
 நாடுக ளில்
 க ாம
 இஸ் லாம
 பங்கே ற்ற
 தெரிக ிறது
 வித்திய ாச
வ ிற்கு
 த ள்ள
 து ப்பா
 கு ண
ாள ர்களை
 தமிழக த்தில்
க ொள்ள
ம க
ி ங்
ிய ம்மன்
 உ த்த
 உரு வாக
 தமிழ்நா ட்டில்
 உண் மை
 சந்தி த்த
ட ோ
 தன க்கு
இலங்க ை
 பொது க்குழு
 வில க
 திரு வ
 மாண வ
 அவ் வ
 ப ாக
விட்ட ால்
 சரிய ான
வ ையில்
 ச க்தி
 ஏற்ப ாடு
ாய ி
 பு த்தக
 சந்த ிக்க
 விமர் ச
 நிய ூ
 ஜூ ன்
 உத ய
 ப க்கத்தில்
 க ம்ப
ப் ரல்
ங்க ம்
 நட ்ச
 ஜ ே
ப்படுத்த ும்
 செல வு
 ச ான்
லா க்க
ரவ ரி
 கும் பாபி
 நட்ச த்திர
றைய ின்
 ஜன நாயக
 வ லி
வி க்க
 நிறுவன த்தின்
ச ில்
 செ ல்க
 கூ ட்டு
ஞ்ச ு
 எல்ல ா
 கள மிற
ர ால்
ப் ரவரி
 எதி ர்த்து
 சில ை
 கண்ட றிய
 வீ ட்டுக்கு
 தவ று
 அ ப்படி
டு மை
ர்க ளாக
ிருக்க ின்றன
 முழு மையாக
  t
ச்ச ார
 பேச ுவ
 கி ழக்கு
 பகி ர்ந்து
 கட ற்ப
 வழங்க ும்
i t
 சு ற்றி
ஸ்ட ாலின்
ிக ர
 வழங்க ி
 கட்ச ிகள்
 பரிந்து ரை
 க ையில்
தமிழ்நா ட்டில்
த்த ிலேயே
மாக க்
பா த்
ாதார ம்
மொ த்த
ன ாலும்
 சொ ல்
லை ன்
 பிடி த்து
 இயக்கு நர்
 அபிவிரு த்தி
 உய ர்த்த
 அ றிய
 ஓ ட்டு
 சா தி
 ல ெ
ந்திர ன்
 அலங்க ார
ற்ப ு
 கலந்து ரையா
 ப ஞ்சா
ந்த ா
க்கு ச்
 கொண்ட னர்
 கடி தம்
  C
மாக ும்
வர்க ளும்
 நிலை மை
 மொ ழ
ோ ட
மா ஸ்
 மீ ன
 பெய ரில்
 எம் எல்ஏ
 அங்க ீ
2 9
ம ழை
ு மி
நா ட்டின்
 வழங்க ிய
 ஹ ே
றுக ிறது
ர ஷ்ய
 த ங்களது
மா ண
 செயல் பா
 திக தி
  M
 ச ினி
 அ டுத்து
 எ ல்லை
 பெ ரி
இந்த க்
 தடுப்ப ூ
i c
 ந ன்ற
வி ட்
 நேர டியாக
ைய ுடன்
 தொ கை
 ஆகிய வ
க்கூ டும்
 ஆளு ந
 நாட்க ளில்
 மதி ப்பு
 ஜெய லலி
க ாவ
ர்க ளுடன்
 தீ ர்வு
செய ்த
 நெருக்க டி
a m
ந்த ை
 வி த
 பே ச்சு
 தீர் ப்பு
 கர் நாடக
காங்கிர ஸ்
ிருந்த ால்
 த ம்ப
த்து ள்ளனர்
 உத்தர வு
 சகோத ர
 அ க்
 ஆ டி
 நே ரில்
 உறுப்பின ர்கள்
 சட்டச பை
வ ாய
 த ன்ன
 எ ங்க
 சிற ையில்
 திட்ட த்தை
ிருப்ப தாக
 பிரதி நிதி
ல த்தில்
ன் ட்
 வ ரிச
 எ வ்வளவு
பு ரி
ென வே
ஏ ன
 முன்ன ெ
்கு மார்
 குற்றம் சா
 சந்தே க
ு ந்த
 ந ின்
 எ ப்போதும்
 பே ட்டி
 மருத்து வர்
க ிரி
ய ோ
 அ ழக
 ஒ லி
 ஆகிய வை
ராஜ ன்
 க ட்டி
 சார் ந்த
இ ன்ன
 ப டுக
 வ லு
 கே ப்ட
ியை ப்
ங்களை க்
 மொ த்தம்
 இடம்பெ ற்ற
ள்ள ை
 குற்ற வாள
த்திற்க ாக
 மோச மான
 வ கி
 ஒ ளி
ப்பட்ட னர்
 வீ ழ்த்த
 ஏற்படுத்த ியுள்ளது
 மூல மாக
தமிழ்நா டு
 ச ன
கள ால்
 பரிச ோதனை
க ல்
 வெளிய ான
 பண த்தை
 ம ில்லியன்
 ச னி
 வழ க்கம்
 நடவடிக்கை கள்
பிரத மர்
 உ ள
 பெ றுவ
ம்ப ர
 வருவ தாக
 க வுன்
 ர க
ளி ர்
 மீ ட்க
 ஒன்ற ாக
7 0
 பெரும் பாலான
ச ம
ி ர்
 த ிரி
 அ ப்பா
ையை ப்
 நோ க்க
பெ ரும்
.எ ன்
ப்பதி வு
 ஒத்து ழை
 தெரி ந்து
மொ ழி
 ரீ தியாக
டி த்து
வ க
ிக்க ொண்ட
 சா த்திய
 அண ுக
எ ந்த
ந ட
க்க ர்
 இ தன்
ல்க ளில்
 ந டு
 என்ப வர்
ாரண ம்
 செயல்ப ட்டு
ெ ன்றால்
 பய ங்க
 கலந்து கொண்ட
 வன் முறை
அ னை
 எழு ப்ப
அதே போல்
  T
ஜ ூ
ைய ொ
ிக்க ப்பட்ட
 தோ ல்வ
 தோ ல்வி
மா நில
தே ர்த
போ தும்
த்து க்கும்
ஸ்ட ர்
 திர ா
 சசிக லா
ச ுவ
ஹ ்
 ப ஞ்ச
 ஓ ர்
மில் லை
்டோ பர்
 ம ற
ண் மை
ின ம்
 விவசாய ிகள்
 அழைத்து ச்
 நோ ய்
 முதல ீ
 அரசாங்க ம்
 மீ ன்
ம் ஸ்
 நி மிட
 உ ண்ட
்க்க ு
 பொரு ட்கள்
ு ல்
க்க ட்ட
 ஊழ ிய
 வடி வ
ில ிருந்த
 கிர க
  P
ந ிக
ம ்த
டிய ும்
பு து
 இருப்ப தால்
 ஆதரவ ாக
 விமர் சன
 பிரச்ச னை
 ம ட
 அ று
வர ையும்
 கார ்த்த
 நடத்தி னர்
 போட்டிய ிட
 கண்டு பிடி
ஏ ற்க
ம ல்ல
 ர ொ
 கொ டுப்ப
ம்ப ா
 கட ல்
 நிகழ் வு
தி ல
 உள்ள ே
 கே ரள
 சூழ ல்
 வி நாயகர்
 கா ப்பா
 சி ங்க
 உற வின
ஃ ப
 விவ ாத
க ும்
க்க ெட்
 கா ஷ்மீ
ம ்க
வ ட
ெல்ல ியில்
 கௌ ரவ
தி க
ன்ன ா
பு ர
 திட்ட த்தின்
 கவ லை
ன ியா
ை க்
ம்ப ரம்
 கோ வை
ையை க்
 ஆணைய ம்
 விக்ரம சிங்க
ச மீ
ள் வது
 பக்த ர்களுக்கு
ல ாளர்
 ஆ ளும்
ிருக்க லாம்
அத ன
 தீவிர மாக
 மாதி ரி
ண்ட ர்
வே ளை
 போட்ட ிகளில்
 பொருட்க ளை
3 5
க ரி
 உள்ள தாக
 சேர்ந்த வர்
 வலியு றுத்த
 மூல ாதாரம்
வர ான
 செய்த ுக
ாய் வு
 ஊ ர்வ
 பர ாம
 க ிட்ட
ப்ப ொரு
 கா ட்சி
 முழு க்க
 வெ ங்க
 பே ருக்கு
 பதி விட்டு
 ஏற்படுத்த ும்
 முதல ீடு
 முடிவு கள்
ல மாக
க்கு ழுவ
 கொண்ட ார்
 அடி த்து
 பிரச்சி னை
 ச ட
 செ ந்தில்
ரி மை
 வேக மாக
 முன்ப ாக
 சமீ பத்தில்
. ஜி
 ச வால
 பய ன்
 கொண்ட ாட
 மோ தல்
 செயல்ப டுத்த
 விஷ யம்
இ தற்காக
வு க்கும்
 த லைய
ும் பி
 ஆ ல
 பி டிக்க
 கட்ச ியில்
ஷ ம்
த்த ான
 பட த்தில்
 உள்ள ாட்சி
 ஆத ார
 ஃ ப
 ம ரியாத
 நினை வு
 அடையாள ம்
ச ம்பர்
 பா ஜ
 அலுவலக த்தில்
தமிழக த்தில்
 அடிக்க டி
 வெள ியு
 பேச்சுவார்த்த ை
 நா ட்டை
 தயார ாக
3 1
ீ ப்
 இ ழு
 வி டுத்து
நீ ங்கள்
 பங்கே ற்க
 பாகி ஸ்தான
" 

ப்ப ன்
ப்பு க்கு
 ஜ ா
.க ே
 கண வர்
 கு ள
 ஐ க்கிய
 இல வச
i on
 இ ல்
ார ாய
 இற ந்த
 இத னை
 சதவீ த
ண்ட ே
பு திய
 இருக்க ிறார்கள்
 அமைச்ச ர்கள்
 கண க்கு
 ஒன்ற ில்
 வல ுவ
ம் மு
ிற ி
 அவ சர
 சு ற்ற
 சட்ட த்தின்
 எதிர் பார்
ப்ப டுத்து
 என ப்
 அவ ருடைய
 அந்த க்
 விள க்கம்
 பழ ைய
ஒ வ்வொரு
க ளுடன்
 ப ான
 அ ழி
டு க்கு
ிக ைய
 திரு த்த
 அறிவி த்த
 மொ ழி
 ஹ ை
ஜி த்
 வை க்கப்பட்ட
 குறை க்க
19 8
 வார ம்
 உற வு
 சே ர்த்த
 ய ாத
 வழி பாடு
ைய ால்
ிக ு
ிக்க ிழமை
 இது போன்ற
 ம ால
 அ மித்
இந்த த்
 தொடர் ச்ச
 கட்ட ண
ந ல
 ப டிக்க
 ஏ ப்ரல்
 வண ிக
டன ான
 பேராசிர ியர்
 எழு தி
 க ன்ன
களை த்
 கிராம த்தில்
 ம ான
 உ ழை
  N
ங்க ில்
வை த்
 தொகு தியில்
 எழுந்த ரு
ச்சே ரி
 உயர் நீதிமன்ற
. மீ
 வீ ட்ட
நாய க்க
 வ ிய
ப்ப தற்காக
 ர யில
ண் மையில்
ரிய ான
 வழங்க ப்பட்டது
ன ்த
 த க்க
 வெ றும்
 அணி க்கு
நே ரம்
 கண்டு பிடிக்க
 வேட்ப ாளர்
  I
ம ணிய
 ப ல்ல
 அனை த்தும்
 வெளியு றவு
அ த்துடன்
ரு ப்த
 சென்ற னர்
4 5
ஞ ்
 ஆ ங்கில
 கு ர
டுக ிறார்
பூ ர்வ
 பதவ ியை
ம ன்
ா ட்
க்கு மார்
ட்ச ிய
 எண்ண ிக்க
 விரும்ப ுக
இதன ிடையே
  .

ச ாம
ம ர
ஸ் வ
 வீ ச
 பண ிகளை
7 5
த ைய
ள ால்
 த ரும்
 வி நிய
 கட்ச ியை
 பிடி த்த
 இரண்ட ாம்
ட ெ
 ம ரு
 ச பா
 அ ப்போது
 எ ப்போது
று வது
ச்ச ெ
விட்ட னர்
 கூட்ட ண
மூ லம்
ிய ிருக்கிறது
 இ தே
 இட ையிலான
 எண்ண ெய்
 நின் று
உ ட
ரோ க்கிய
அத ோடு
ந ாம்
ந்த ைய
 வி டுத்த
 வைர ஸ்
 விக்கெ ட்டு
ண ும்
ப ழ
 போ தும்
கு ரு
 முக்கிய த்துவம்
அ ரசு
 ச ல
ச்ச ூ
 தொ க
ிற்க ும்
ப்பட ாத
 கூறுக ின்றனர்
ப்ட ம்பர்
 வரு வது
 முடிய ாமல்
 வீர ர்
 அபி ஷேகம்
 ஓய் வு
 ம கள்
 குறை வாக
 அ ணை
 பெ றும்
 முக மது
 நிர ூ
இர ண்டு
 த ியாக
வே ல்
 ஒப்ப டை
 வ ல்ல
 ம ய
வர ில்
ப்பூ ர்வ
ார ாம்
 அதி ருப்த
 சி ந்த
 தகவ ல்களை
8 0
 ர வி
கொ ரோனா
 இளைஞ ர்
 பெ ட்ரோ
ாள ர்களுக்கு
 கோ ரிக்க
 வீ தி
 பெய ரை
த ர
 நாட்க ளாக
ம் ப்
ர்க ளுக்கும்
ாத னை
 சென்ற ார்
 ஏற்படுத்த ியது
 போரா ட்டத்தில்
 கடி த
 திட்டமி ட்டு
 ச து
ஸ் ரீ
 பிர ச
 முடி வுக்கு
 நடவடிக்கை களை
முன்ன தாக
a s
ய ின்
 த ப்பி
ில ி
 பய ணி
 தவிர ்க்க
ழும் பு
ண ன்
 க ்
திய ம்
 இற ந்து
 ஆட்ச ியை
 ஒருங்கிணை ப்பாளர்
 வர்த்த க
 மு ற்ற
 செல் போ
ச ம்ப
 அ லை
ன்ற ைய
 செய்ய ப்படும்
 பழ ங்கு
 திரா விட
ீ ன
கு ழந்த
ட னும்
 கோ ரி
 திற ந்து
 வார்த்த ை
 பாலா ஜி
 பொறுத்த வரை
 அ ன்ப
 பெ ங்கள
 ஏ ழு
 வெ ப்ப
 இருந்த னர்
 அடி ப்படை
  ஞ
 ஆ த்
 போ ய
 உள்ள ூர்
 அம லாக்க
 கிடை த்தது
.எ ம்
 மைய ம்
க்க ா
 ம ல
ின ோம்
 என்ற ாலும்
 உரி மைய
ச ட்ட
 ஆ ந்திர
 வி தமாக
 பிர ா
 பெற்ற து
என க்கு
 மாத த்தில்
 அரசிய லில்
க ின்றனர்
ின் றி
 ஓ டி
 போல வே
வ கு
ே ஷ
ப்ப டுத்துவ
ஸ ா
 ம ன்ன
 கா ந்த
 பதி லாக
 வள ர்ச்ச
 நக ரில்
 மருத்துவமனை க்கு
இஸ் ரே
ட்ட ல்
 இ சை
 வீ ட்டிற்கு
 திட்ட ங்கள்
 பூஜ ைகள்
க ட்ட
 எ ட்ட
 அடி த்த
ர்கள ால்
 பகவ ான்
ார ிக்க
 எடுத்து க்
எ ன்ற
த ாம்
 கு ண்ட
 ர ன்களை
 பதி வாக
ப்பிர மணிய
ஸ ி
வு ட்
தை த்
 கட ந்து
 பொது ச்செய
 த மது
 உ ப
ழு து
 வருக ை
 பி ப்ரவரி
 தெரிவித்து ள்ளனர்
 மோச டி
 மை தான
, 

ன ையும்
 ந மக்கு
வி டுவ
 மா ற்றி
 ம ும்பை
 ந ன்மை
 தொ ழி
 உய ர
 ஆ ச்ச
ிக ளுடன்
 சொ ல்வ
 பொரு த்த
 ஷ ி
 கெ ா
 உச்ச நீதிமன்ற
ண ர்வு
ென ில்
 தின மும்
 தெரியவ ந்தது
ர ெ
ியுள்ள ன
h e
 ஆ ஜ
ாவ ்
 அதி ர்ச்சி
 ஆக ஸ்ட்
உ க்ரை
ப ாகி
ல ால்
ா சி
ரா ணுவ
தை க்
 வய தான
 ஒன்ற ிய
 வாக்கு கள்
 வலைதள ங்களில்
 எ க்ஸ்
 செ வ்வ
 மா ள
 நட ்
ின ாமா
 கொண்ட ே
 குறிப்பிட்டு ள்ளார்
  ?

 நட த்து
 வீ சிய
 தீ ர்த்த
 அழை ப்பு
ர்ப ாக
 துவங்க ியது
ஜ ன்
னு டன்
 கவ னி
 நிலைய ம்
 வருமான ம்
 நன்ற ாக
i l
 ச பை
 அ ன்ன
 தொட ர
 என்க ிறார்கள்
ப்பிர ிக்க
 குஜரா த்
ஆ னாலும்
ந ிற
த்த ட்ட
 அ ல்
ப்ப டுவது
 கொ டி
ையை த்
ழ ல்
 ஆ ரோக்கிய
மு ள்ள
 அண ிய
 பயண ிகள்
ர வி
 க தா
 அ றை
த்து ல
 நா ண
ிருக்க ிற
 ல ீ
 விசாரண ைக்கு
 சிகி ச்ச
ங்க ளுடன்
த்து ப்
 கா ட்டி
மு ருக
 மே லாக
 சதவீ தம்
 இஸ்லாம ிய
ு ள்ளார்
ிருக்க ிறோம்
த்த ோடு
 ச ிக்
 அதி ப
 மீ ட்பு
 சு ம
 ய ாக
 கால மாக
 கடி ன
ல ன்
 ச ஞ்ச
 என்ற ே
 இருந்த ன
 உய ிர்
 அனை வருக்கும்
தல ாக
 வாழ ்த்து
 ஊழ ியர்கள்
 ட்விட்ட ர்
ிய ோ
 அ ஞ்ச
 இ ம்
 இ ங்கில
 கொ டுக்கும்
 மீ ட்டர்
 மிக ுந்த
 ஜனாதி ப
புற ம்
ப்ப ோம்
று ப்பு
 வி ண்
ராஜ ா
 தூ க்கி
9 0
உ த
உ த்தர
 த ர்ம
ிய ாளர்கள்
ப்ப ான்
 மு ட
த் ரா
 தெ ய்
 ட ோ
 முன் னர்
த்திர ம்
 சிறு ம
த்தொ ட
ள ிலும்
டி வி
 சி த்த
 வழக்க ை
 ரயில் வே
க்கிர மி
 பங்க ளி
 ஒதுக்க ீடு
ாளைய ம்
ந ான
ர ையும்
ிக்க ாக
 நல்ல து
. ஸ்டாலின்
 அ ச்சு
 ஒ ற்றை
மது ரை
.ப ன்னீர்செல்வம்
  s
 ர ன்க
ம்ப ரிய
 ஏ வுக
 தெ லு
 பிரத ான
 தமிழக ம்
 செயல்ப ட
 பள்ள ியில்
 பத்திர ிகைய
  ஸ்தான
ரி ட
கு மார்
 அமைச்ச ரவை
 ராஜ ினாமா
 நடி த்த
 தற்ப ோதைய
 த ல
வி வ
வர ்த்த
மு தலில்
 சி த
 தன ியாக
க்க ப்பட்டது
 த டுப்பு
க்கி ழமை
 அங்க ிருந்து
: 

ால ின
 நடி க
 ஜன வரி
 சாப்ப ிட
ையொ ட்டி
வ ூ
ட்ட ோ
ங்க ோ
 நி வ
 தெரிவிக்க ப்பட்டுள்ளது
 ஊழ ல்
அதை த்
 ச ர்மா
 அ ரை
 ஒ ட்டு
ப்பட்ட ிருக்கிறது
னு டைய
 மாத ங்களுக்கு
த்திற்க ான
3 00
r e
ீ ங்க
 அ ன்பு
 ஹ மாஸ்
 முடி ந்தது
 விச ாரிக்க
 கூறுக ிறது
 விசாரண ையில்
ர ம்ப
வ ன
 த க
 யு க்ரே
த ாய
 இ வர்கள்
 செய்து ள்ளார்
 நம்ப ுக
 வட்ட ார
ல ான
்த ்
ங்க ுவ
ார்க ்
 மாநக ராட்சி
 விமர்ச னம்
 தொடர்ச்ச ியாக
ல ாத
ப்பி டி
 புக ழ்
 நூ ற்ற
 தெளி வாக
 ச வு
க்கு த்
க த்தில்
 வ ன்கொ
 அ தற்கான
 து றையில்
 தீ ப
 டி சம்பர்
 பழனி ச்ச
ப்பிர தேச
 ஆட்சி க்கு
 அரசிய ல
 த வி
 வா ச
 கரு ணா
 எதிர்க ொள்ள
 எதிர்க்க ட்சி
்ச ி
 தெரி ந்த
 சிற ி
 பார்க்க லாம்
 பெண ்களுக்கு
கர ன்
ப ூர்
 ந ின்ற
 இ ளம்
ில ில்
ாள ர்களின்
பி சிய
அத னை
என ினும்
யா ண
 தீர்மான ம்
 வழக்கறி ஞர்
ல ெ
ப்ப தற்கான
 ந ன்றி
 என்ப தே
 பி ள
 சா ட்ட
 விசாரி த்த
ட்ட ார்
க்கு வ
 கு தி
 தா ண்டி
ப்பட்டுள்ள தாக
 வச ூ
 எச்ச ரிக்கை
 கைப்ப ற்ற
ய ல்
ங்க ளுக்கும்
 பே ரும்
 ய ானை
 கட்ட ணம்
19 7
 வாய்ப்பு கள்
 விரு ப்ப
 பதவ ியே
 இ ங்கே
தே சிய
 வை த்தார்
 சீ ரிய
 வாய் ந்த
 கு று
ால ே
ப்பட்டு ள்ளனர்
 முன்னே ற்ற
a d
வ ொரு
க்க ர
 திர ும்பி
 ஒழு ங்கு
 பஞ்சா ப்
வி டு
டிய ின்
 செய்து ள்ளனர்
 மாண வர்களுக்கு
 நெ டு
 உள் பட
 சம்பந்த ப்பட்ட
 ச ற்று
ரிய ும்
ையை ச்
 முன்ன ில
 சா ப்பி
 வரலா ற்று
 இ டி
 ஆ க்கிரமி
 கொ ட
ங்கள ிடம்
 உய ர்வு
ப்போ கிறது
 கரு து
 நடி கை
ந்த ோ
 பி ற்ப
 ஐ ரோ
 இன்ன ொரு
 நாடுக ளின்
ிட மிருந்து
 கட வு
ழி வு
 வாக்கு று
 ம காராஷ்ட
 பு னித
 முடி ந்து
 மாண வர்
ன்க ு
 ஆசிர ிய
 கீழ ே
 கேப்ட ன்
  ‛
ம டைந்து
ல ாமல்
 வ ிகி
ப்பட்ட தாக
 ஆக ி
க ளுக்கும்
ட ையில்
ல ர்கள்
ில் லை
 பே ால
 சாத ாரண
 கோ ப்பை
 செய்து ள்ளது
ன்ப து
 சாத னை
 இல க்கு
 மனை வ
 மூன்ற ாவது
ஸ ார்
 இருக்க ாது
 குடும்ப த்தினர்
 வட க்கு
ார ்ட்
 ஆ ஃப்
திய ும்
நா ட
 நீ ட்
லு டன்
 நடைபெ றுகிறது
 துப்பா க்கி
ச ொ
ஜ ின
த ற்ப
ய ான
 பா ஸ்
மாக ி
மாக ப்
 கண்ட றி
வரு மான
 அற நிலைய
 வசி க்கும்
  R
ஜ ன
ல ிக்க
ண்ண ாமலை
 கால ி
 புதி தாக
- க்கும்
க ிருஷ்ண
ஜ ெய
 க ல்வ
.. !

 வய தில்
 இளைஞ ர்கள்
ண ிக்க
ள ையில்
 இந்த ச்
 கட ற்க
 தயார ிக்க
 வன்கொ டுமை
 செய லக
 ஜ ென
 கெ ாண்ட
வர்கள ிடம்
 அறிவு றுத்த
ங்களை ச்
மீ து
கொ ண்டு
 காவல்து றையினர்
ப ாலும்
 க ற்ப
 கொ ஞ்சம்
மி க்க
டிய ூ
 உண ர்வு
 பர வி
 சம்பவ ங்கள்
 ஆசிர ியர்
 த ங்களுக்கு
 இ ழந்த
ப்பு களை
 பே ரை
ண்டு க்கல்
மா ற
 கட்ட ாய
 பெய ்ய
 மேம்ப டுத்த
தன து
 வான ிலை
தேர்த ல்
 நாண ய
அ வருக்கு
வ ங்க
க்க ணி
 ச மா
 கு ரல்
ான் ஸ்
 கோ ப
 அதிக ாலை
 ஜெயலலி தா
க ின்றன
ிய ூ
ஸ் பெ
 தொட ரில்
 முதல் வராக
 தனி ப்பட்ட
 ஆதரவ ாளர்கள்
 தொடர்பு டைய
ம ட்டு
 த ருவ
 இ றை
 அமை ப்பின்
வில ான
 ஆஸ்திரே லிய
e d
அ வரை
உ ங்கள்
ே ட
ல் ஸ்
 க ண்
 ச ாலையில்
 இ ந்
 எ ம்பி
 அவ ற்றை
 ஓ ட்ட
ர் ப்பு
 ரா சிக்க
 மக ளிர்
சீ ன
 சொந்த மான
 ரக சிய
o u
ே ாது
்ட ில்
 எ டுப்ப
 உய ர்ந்து
 தய ார்
இந்திய ாவின்
 அக ்டோபர்
 வங்க தேச
an d
 க ிறி
 ச ர்
 கொண்ட ா
 பொது ச்
 இருப்ப தாகவும்
ஸ்க ்
 தாக்கு த
நாத ன்
ஸ ுக்கு
ண்ட ா
ச்ச ா
நா ளை
 தி ணை
 நிறை வு
்க ானி
த்த ிடம்
 ஆ ற்ற
ங்களை த்
 மருத்து வர்கள்
 பெட்ரோ ல்
ப ன்
 க ற்று
 வெ ல்ல
 அமை ந்த
ியை க்
 முடி வெ
 முக ாம
 பார் வை
 பிரதேச த்தில்
ந ல்ல
 வி ஞ்
 அவ ரிடம்
 உலக ம்
 ஆய ு
 நிறு த்தி
க்குறி ச்சி
ம ருத்து
 ப ந்த
 அ ங்கே
 திரு ச்சி
 அமைச்ச ராக
ல ியா
 வ ிக
 அணி ந்து
 குடும்ப த்தின
 பொறு ப்பே
 காத ல்
 நிச்ச யம்
த்த ள
 அ ர்
பி ஐ
 ஆகிய வற்றை
 பட த்தின்
 வெளி ப்படுத்த
 கட்டு ப்படுத்த
 சிக்க ி
 தடுப்பூ சி
 கவுன் சில
 ராசிக்க ார
வி ள
வை த்து
 பார ம்பரிய
 சர்ச்ச ை
 பந்துவீ ச்ச
 பேசுக ையில்
ப்ப ால்
ப்ப ிரி
 ஆ சிய
 சே த
 உட லை
 வேலை வாய்
 வியா பார
 ஏ தாவது
 இந்தியா வுக்கு
 தங்க ம்
 அண்ண ா
இர ண்ட
இதற்க ிடையே
க ிறார்கள்
ட ான
 ப சு
வா க்கு
க்கிய து
 எழு த
 உலக ின்
 தேர்ந்த ெடுக்க
 ஏவுக ணை
 ச மு
ர்க ்
 பிர ிய
 சார்ப ாக
 நீதிபதி கள்
 செ ப்டம்பர்
றி த
ட்ச ுமி
ின ார்கள்
 வருக ிறோம்
விர ோத
கார ம்
 ஜன தா
 அழு த்த
 ஆத் மி
c t
 மீ ட்ட
 ட ெல்லியில்
 கூற ியது
 கல வர
 பெற்ற ோர்
 வரலா று
க ண
 ந ொ
 இ ராஜ
ங்க ுக
 வி ழிப்பு
 பராம ரி
 ப கிர
 ச ௌ
ந்த னர்
 ந ாம
வி னை
மே ற்கு
ியை த்
விட்ட தாக
 கூட்ட ணியில்
 போட்டிய ிட்ட
ம ய
ச்ச ல்
 அறி ந்து
இது வரை
 உறு தியாக
 பால ி
 அண ியில்
 டெ ஸ்ட்
க ளாக
ந கர
 போ ன்று
 உள்ள ட
 உறு திய
 மண்ட ல
 பாஜ கவின்
 இ ப்ப
ளி த்தார்
 நவ ம்பர்
  V
  ரு
எ ங்கள்
க ூட
ை க்க
 ச க்த
ப்ப ார்
 ர ன்
ால ிக
மி டம்
மாக வும்
 முடி வ
 நினை த்த
 இற க்கு
 அழு த்தம்
 அதிர டி
 சினி மா
o l
ம ிக்
ே ா
 ஆ ண்
வா ச
 திர ைய
சே னா
 ஈடுபட்ட னர்
 முருக ன்
க டை
தி ன
 நா ட்ட
ற்று நோ
 ட ொ
 தங்க ளின்
 அறு வை
 முன்னில ையில்
 த குதி
 அ ஸ்
ப்ப தை
ிரு ப்பு
 வே த
 தேர்த லை
 கட்ட ட
 சொன்ன ார்
 வெளியிட்டு ள்ள
 அனுப வ
இ னி
க ிற
 தே ச
 சா மி
 வந்து ள்ளது
 அப்ப டியே
 உற்ச ாக
 பே ரில்
 கா ப்ப
ரா ம்
 அமை ந்துள்ளது
ப்படுவ தாக
in g
 ந வீன
 போ தை
ன்ற ும்
 வருக ிற
பா ச
 பய ன
 கொண்ட து
 அதிகார ம்
 நான ்க
 தவற ான
 ஒப்பு தல்
 வளாக த்தில்
  D
ள ான
 வை த்திய
 செலு த்தி
விழ ா
 உள ்துறை
ண ாம
ே ஸ்வர
 ப ருவ
மு டி
 அறி ந்த
 முன்ன ோ
 ஃ ப்
 முன்ப ே
 ராசி க்கு
ந ாள
ப ாக
 கோ லி
 அறி வியல்
 உட னே
ஸ்க ர்
 அலுவலக ம்
 அற ிகு
" "
 ஆ ப்
 கே து
 முடி வை
 கொண்டு வர
 நேர ங்களில்
 வக ையான
டியே ற்ற
 நப ர்கள்
 ம ணிய
ப்ப ார்கள்
க்கு றை
 தொட க்க
ரிய ை
 சம ூ
 கட்சி க்கு
 வெளியே றி
 ஏற்க ெனவே
 வசி த்து
முறைய ாக
 குடியரசு த்
 கும்பாபி ஷேகம்
o m
ப வர்கள்
நாத ர்
 எதிர்பார்க்க ப்படுகிறது
ோ வில்
 க வி
து றை
 வழ ியில்
ளி க்கும்
 செய்ய லாம்
சா த்
ம னை
 ப ில்லியன்
ந்து ள்ளனர்
 கொ டு
 இருந்த ும்
பா பு
 தீ பார
 வலியுறு த்தி
ள ியில்
ிரு க்கு
 பு ள்ள
 சு ழ
 அதிர்ச்ச ியை
க ்ட
 க வு
 ம ஞ்ச
 மு த்து
ிட்ட ல்
 பி பிசிய
 பகு தியாக
க்கப்பட்ட ார்
 அதிகரி த்துள்ளது
 சிறு மி
 கைய ெழு
க ார்
 க ம்
 அ ப்போ
ட்ட ியில்
வு ள்ளது
மை க்க
 ஜ ாம
 இட ையில்
 மேற்க ொ
 சந்தி ப்பு
ஜா ப்
 வெள ியில்
டிய ா
 கால ங்களில்
 உலக க்
 திற க்க
 அத ாவது
 ராணுவ ம்
 ஆன் லைன்
 ஆராய்ச்ச ி
 விண் வெளி
ந்த ும்
 மு ர
 போ ன்
 வெ ன்று
களை ச்
 பொரு ள்
 பெரும் பான்
 எல்ல ோ
 இணைய தள
 ஒப்பந்த ம்
சமீ பத்தில்
 பிரா ந்திய
  ஸ்த
ச ிறு
க்க ளின்
 ம சூ
 என ப்படும்
 வந்த ால்
 ராஜ ா
 ராஜ ்
 இடை க்கால
 உதய நிதி
) .

இ வர்கள்
ர த்
ர ிகள்
ாவ ா
 பொ ங்கல்
 குறை ந்து
க்கொ ள்க
 சிர ம
 மரியாத ை
) 

 இ ச
 அமை த்து
 மூ ட
 முதல மைச்ச
 வாங்க ிய
3 6
்க ்
ாத ா
 அமை ந்துள்ள
கோ வை
 பவு ண்ட
 உ ங்க
ட்ச ியின்
 தெ ற்கு
 நீ க்க
 சு ரங்க
 விச ேட
 தெரிய ாது
 துறை முக
 அக ில
 தேவ ையில்
ாயி ற்று
ச ின்
ிய ாளர்
 குறிப்ப ாக
 வேலை த்திட்ட
 கண்ட னம்
 மர ணம்
 ஆணைய ர்
  டிக்க
வா று
 சி வா
ரும் பு
 ஓ வரில்
 படி த்து
 ராஜப க்ச
  c
எ டப்பாடி
ற ான
ே ந்திர
ப்ப தில்
 என் னுடைய
ட்ச ்
ிட்ட ி
en t
 பட்டிய லில்
a y
ஒ ரே
ூ ரு
 உ ர
வி ச
 வி பத்தில்
 செய ற்கை
 அமை தி
த்துக்கு டி
 செய்யப்பட்ட ார்
 அபி ஷேக
 க வர்
 க ழு
 ம ண்ண
 த கு
ின ேன்
 வழ ிக
செ ன்னையில்
செய ்து
 திட ீர்
த்த ிரி
 அ மைய
 செய்த ால்
பெ ரிய
ங்கள ே
ியை ச்
 சா ம்ப
 வெளி ப்பட
 விமான ம்
பால ி
 ஆயிர க்கணக்கான
 மட்டும ின்றி
 ஒட்டு மொத்த
ீ வ்
 ம ர்ம
 அ ன
மு றையை
 பேச ும்
 எடுக்க ப்படும்
 மன ோ
 தமிழ ர்
வர ்த
 பெரு மை
 கேள்வி க்கு
 சுவ ாம
 பரி சு
 சான் றித
ம்த ா
ம ென
ர ிக்
 மு து
ால ய
 மே யர்
 அம ர்ந்த
 அறிவி த்துள்ளது
 ராஜ ஸ்தான்
 பெற்ற ார்
 உத்தர விட்டு
 யாத வ்
 சமா ஜ்
  E
ஜ ிட்டல்
ந ாக
ப ந்த
 சே வ
 பங்கே ற்று
இன்ன ும்
 பழனிச்ச ாமி
ஆ வது
ு ரிமை
 ச ிரி
வு ள்ள
 நட த்துவ
 செய்த ிகள்
 வை க்கும்
 திட்ட ங்களை
 நிர ாக
  p
 எ த்தனை
க் ஷ
ாவ ால்
 ஒ ற்று
ரோ டு
 வெளி நா
இதன ையடுத்து
 எரி பொரு
 சமீ ப
 செய்தியாள ர்களை
 கலந்துரையா ட
 கிட்ட த்தட்ட
எ ல்ல
ர ாய
ிய ால்
 வி க்கெட்
 வீ ட்டை
ிருக்க ிறேன்
 கூற ப்பட்டுள்ளது
த்திற்கு ப்
 கட்டு மான
 அங்கு ள்ள
 கள த்தில்
 இழ ந்து
 அச்சு றுத்த
 எ வ்வாறு
ண் முக
கா லை
 கூற ும்
 ஷ ே
 அக ற்ற
 வேண்டு மெ
 ச ூர்
 அ ட்ட
டுக ளுக்கு
 மீ றி
 ஊ க்கு
 மிக ப்
 அம ல்ப
.. ..

 தமிழ ிடம்
இலங்க ையில்
த்தீ வு
ன ிடம்
ை த்
 த ள்ளி
 அண ு
 ஆட்ச ியர்
ஜ ு
ம ல
 ப த்து
 ப ின
ைய ையும்
 பல ன்
 இட த்திற்கு
லா ந்து
 எழு ந்துள்ளது
அந்த ப்
 செயல ாள
ம று
ள ோ
 வ லம்
 த ஞ்ச
 மு னை
 வே ளா
 நினை த்து
 இலங்க ையில்
 விடு முறை
 சதவிகி த
 முஸ்லி ம்
இ வை
வ ான்
 ஆ ழ
 நில ைக்கு
 திரு ப்பி
 முன்ன ணி
 பாஜக வுக்கு
l e
ப்ப ாள
 அதிக பட்ச
 இட த்தை
 ஊ ர்
 கிடைக்க வில்லை
மின் றி
  ஞான
4 8
க ளுக்கான
க ்டர்
ுக ோ
ுக ளில்
 தெ ரு
 ஜ ீ
 சேர்ந்த வர்கள்
 பட ங்கள்
 நிய ாய
 ஒலி ம்ப
த ெல்லாம்
ப ாய
 வ ில்
 ம ன்ற
 பார ாட்டு
 பாதுகா க்க
 கூறிய ிருந்தார்
 பரபர ப்பு
 வெளியாக ியுள்ளது
ர ளா
 பா ண்ட
போ ர்
 என்பது தான்
 விட்ட து
 செய்தியாள ர்களிடம்
- வின்
இ ந்து
த ரா
ே ட்
ார ின்
டி கள்
ட்டு கள்
 கொண்ட ிருக்கிறது
 அமைச்ச கம்
 ஊ டாக
 சந்த ோ
 நடத்த ப்பட்ட
தான ம்
 பயன்ப டுத்து
முருக ன்
க ரிக்க
ப ன
வ ள
ிய டைந்த
ப்ப ையும்
டி த்த
னி தா
 நி ர்ண
பா ஸ்
ரவ ையில்
 பட த்தை
 திற ன்
 ஏற்று மதி
க ரு
க ாத
ய ிர
 வே ற
 பொ றிய
 சட்ட ப்பே
த்திற்கு ள்
 தர ப்பின
 கட்சி த்
 காட்ச ிகள்
வ ழி
 ம ழ
ழ் வு
 து ரை
 உய ர்ந்த
 கால க
 முய ற்சிய
 தண்ண ீ
 எதிர்க்கட்ச ிகள்
சம ூக
 ரொ ம்ப
நாட கா
ர ைய
 வ ண்ண
 ர ாய
 பா ட்ட
 முடி த்து
 நிறை ந்த
சோ தா
 பகுதியை ச்
 எ ட்டு
ாக ப்
ான ின்
ாள ிகள்
 வெ ள்ளி
 ஜ ான்
 இர ட்டை
 அளி த்து
 வாகன த்தில்
யூ னி
ச க்தி
த ்க
 ச ாம
வு கிறது
த் ரி
 நடத்த ப்பட்டது
 மாத ங்களில்
 சிக்க ல்
 பதில டி
 கப்ப ல்
ச ந்திர
ப கவ
வ ாரி
ெ ன்ன
 ஆ டை
 மா நாட்டில்
ாம ல
மாக வே
ிருந்த ன
 வருவ தாகவும்
ிகள ையும்
 இயக்கு ந
 மகிழ்ச்ச ி
 சுட்டிக்க ாட்ட
அ க
ந டுக்க
்க ூட
 ம ன்னி
ப்ப ிற்கு
 ஆ சை
ப்பட்ட ிருந்தது
மா ட்ட
ஏற்க னவே
க மான
ப ட்டு
ற து
 ந ாராய
ார ை
 என்ன வெ
 விள க்கு
 இற ங்கி
 தற்க ாலிக
 எ ல்
தி ட
லை க்
 பே சு
 நில ம்
 சூ ப்பர்
 சென்ற து
 குடும்ப ம்
 பிரி வில்
 நாடுக ளுக்கு
சீ னா
 வல்ல ு
 க னி
 க ஷ்ட
 த லா
 பார்க்க ும்
 வழக்கு கள்
ப்பூ ரில்
அரச ியல்
 இன்ற ைய
 பயங்க ர
த்த ிற
ால ா
ிக்க ொள்ள
 கே ம
ரே ப
 திட்ட த்தில்
 இய ற்கை
 நிகழ் வில்
 குழுவ ின்
 ஏற்பா டுகளை
 கம ல்
 ச ாய்
வி ஜ
 சே லம்
 என்ப தில்
 கட்ட ிய
றைய ின
 வாங்க ுவ
 குழந்தை களுக்கு
 கோவில ுக்கு
 க ற்க
 ந ம்ம
 கு மார
ற்று வ
மு தல
 அமைச்ச ின்
 இணைய த்தில்
  L
ப ாய்
ார ்க்க
 ஒ ன்றி
ாத தால்
 தீ ய
 ரா சியில்
 சட்ட விரோத
 நாடாளுமன்ற த்தில்
  G
 க ிரி
 மு ன்த
 மு ந்தைய
மு க்கிய
 வெளியிட்டு ள்ளது
 திரைப்பட ம்
 அறிமுக ப்படுத்த
 குழ ப்ப
 அமர் ந்து
ஆ ளு
 இ ப்போ
கு டும்ப
 அளி க்கும்
ஹி த்
 மணிய ளவில்
4 00
ிருந்த ாலும்
ாரண மாக
தா ஸ்
க்கோ ட்டை
 வரவே ற்பு
 எச்ச ரி
 ஆர்வ ம்
 குற்றம்சா ட்ட
ப ான
ய ார்
 வ ிற்க
து க்க
 மீ தும்
யில ாடு
 தாக்க ரே
 எதிர்பார ்த்த
 அம் ச
த மான
மு டிய
ரை ச்
வா ங்க
 தாக்கு தலை
 நகர் ப்புற
 கலா சார
 வரிச ையில்
 பிபிசிய ிடம்
ச ர்வதேச
ள ்கள்
 ச ால
ண்ட ன்
 என்ப தற்காக
 அதிமுக வில்
 போக ும்
 வேட்ப ாள
 வெற்ற ிகர
அதன ால்தான்
ப ிக்
ய மாக
்ட ி
 எ ண்
 ல ோ
 வாழ ும்
 வைத்த னர்
 கோயில ுக்கு
 வேண்டு மான
 விழு ந்த
ா தி
 ம ச
டுக ின்றனர்
ஸ்ட ி
 பகு திய
 இலங்க ைக்கு
ார்க ளா
 கவன ிக்க
 விஞ் ஞான
3 2
உ ள்ள
ர் ஜி
ற்ற ைய
 பா ரு
 ல க்
 சந்த ை
 என்ன ிடம்
 ஏற்படுத்த ிய
 பட்ட ியல்
 தொண்ட ர்கள்
 இறக்கு மதி
  ரிச
ப்ப ொ
ப்ப டு
 அமை ப்புகள்
 வா டிக்க
 செய்ய வில்லை
 ஆண்ட ின்
 வழி பா
வரு டைய
 ட் வீ
 காய ்ச்ச
வருக ிறது
உக்ரை ன்
ம ல்
 அ தான
ப்பு ரம்
 ஒரு வரை
ஜ் ரி
15 0
 போட்டிய ி
 பதவ ியில்
ஜெ ன்
நெ ல்
ம க்கள
க்க ிறது
 ம ட்ட
ால த்தில்
ியாக ும
ல்க த்தா
ச னை
வர்க ளாக
 கேட்டு க்
 பொதுச்செய லாளர்
ச ங்க
ப ண
ே ல்
 இ த்தகைய
 ஏ றி
ரிய ாக
 தலை நகர்
 நிறை வ
மூ ர்த்தி
 ஆர் ப்பா
 ராம ர்
 பயி ற்சிய
 பத ற்ற
 சமய த்தில்
 ஒத்துழை ப்பு
 இங்கில ாந்து
ம றை
 ஆ ட
 வெ கு
வா திகள்
 வழங்க ினார்
 பெரும் பாலும்
 பெற்று ள்ளது
 விஷய ங்கள்
 ஆப த்து
 உள் நாட்டு
 பெரி தாக
அனை த்து
 சபா நாயகர்
 கம் யூனி
 ம சோதா
ால ோ
ின்ற ார்
 மீ ட்டு
ிற்க ான
 இருக்க ின்றனர்
 ஷ ெ
 எடுத்து ச்
 தொழில ாளர்கள்
 உண் மையான
 ஜெ ய்
ப்படிய ான
 கும்ப ல்
i k
ப ட்டி
 ப க
 ம ஹி
 ச ண்டை
 அ ப்
 ஆ ட்டம்
ிரு த்த
ாவ ிய
 பெ று
ிட ும்
தே னும்
ரோ ன
 பார்த்த ால்
ஸ்க ே
 நிர ந்தர
 பிரச்னை கள்
முன்ன ாள்
 திருக்க ோ
 பின்ப ற்ற
 இராஜ ாங்க
5 5
 ஒ ழிப்பு
 தீ ர்க்க
 உரு வான
 தெரிய ுமா
 செயல்ப ட்ட
 பந்து களில்
 வாழ்க்க ையில்
 பணியா ற்றி
 விக்கெட்டு களை
 அறிகு ற
 முன்த ினம்
இ வ்வாறு
 ப ாவ
 ம ெட்
 ர ாம்
 கட்ட ிட
முதல் வர்
 சட்டமன்ற த்
 பழங்கு டிய
  in
 உ ளவு
 ஆ ட்டத்தில்
 கோ ட்ட
கா ஷ்
 செய்து ள்ள
 படி த்த
 திட்டமி ட்ட
 காப்பா ற்ற
விச ாரண
ழ ிக்க
த்த ினால்
 வ ாத
 அ த்திய
 அ ரேப
ப்ப டியாக
 இ வ்வாறு
 எ டுக்கும்
 இந்த ி
ாத ே
 சம ர்
 இலங்க ையின்
வ ய
 அ ர்ச்ச
ாக வே
 உட லில்
 முறை கே
 விடு வி
 அடை ந்து
 எச்ச ரிக்க
3 3
ஜ னாதி
ா ட்டி
 அ ர்த்த
ரச ி
பி எல்
ழ்ச்ச ி
என து
 அனுப்ப ிய
 டீ சல்
க ெ
ஸ ்கள்
சு மார்
 பொது க்குழுவ
 வெளியே ற
 பாட ல்
 உத வும்
 நிபுண ர்கள்
உட னே
வ ல
க்கு க்
ால ம்
 நில ையை
 பு ற்றுநோ
ங்கள ா
ும்ப டி
 தூ த
 வழி பட்ட
நே ர
பொது வாக
 உறவின ர்கள்
ந டை
ங்க ்
 சு ட்டு
 பி ள்ளை
 இருப்ப தை
 வேண்ட ியது
 இற ங்க
 ஊடக ங்களில்
 ஜென ரல்
 காலக ட்டத்தில்
ஜ ெட்
 ப ரு
ிய ையும்
 ச ர்க்க
 இ ராணுவ
க்கு மா
ார ும்
 மு திய
 சீ ர
 வருவ தால்
க்கொண்ட ார்
ஆக வே
 மின்சார ம்
 கொட ூர
. அ
 கொ ழும்பு
ிக்க ான
மு றையில்
 சே கரி
 முடிய ுமா
 எந்த வொரு
 போரா டி
 குழு வினர்
 விழு ந்து
 மாணவி கள்
' ,
ன ையாக
 வ ாரி
 இ ண
 தே திய
 அரச ை
பி ள்
 என்ப தும்
 மூ ழ்க
ர்கள ே
 பாட சாலை
 கன மழை
வர்த ன
த்த ன்மை
ிய ிடம்
 அ லி
 கொ ள்
 தே ர்வ
 நில வும்
 இருந்த ே
 தெரிய ாமல்
 மருத்துவ க்
 ரெ ட்டி
 மட்டுமல்ல ாமல்
 அக் னி
ஏன ெனில்
ம னம்
ி த
ில ே
 போ தே
சி த்து
 வர வில்லை
 தலை வரும்
 ஊ ர
 சட்ட த்தை
 இய ந்திர
 டி ஜிட்டல்
 நடத்த ும்
 வாக னம்
 செய்துக ொண்ட
 அமல்ப டுத்த
ஓ பிஎஸ்
ம ையும்
 ச ண்ட
ப்ப ய
 வி டுக்க
 பு த்த
 தேர்த லுக்கு
 மோ கன்
ரவ ாத
 எழு ந்து
 சிறு த்தை
 கிள ம்ப
3 7
 ந டிக்க
 மு டிக்க
19 6
 நிலைய ில்தான்
 வேட்ப ாளராக
 அப ்து
ஏன ென்றால்
 நட் பு
  லை
இ ய
க ாரணம்
 வ ளை
 ம லைய
 ச ன்ன
ற் சிக
 உ லா
ிக்க ொண்டு
 பிற ப்பி
 பொது மக்க
 நண்ப ர்கள்
 வெளிப்பட ையாக
i d
ல ின
 உ த்திய
 என்ப தையும்
 வழங்க ப்பட்ட
அந்த க்
 உள்ளிட்ட ோர்
அது மட்டு
 இத ய
 ஆட்ட மி
 முற்ற ிலும்
  F
ைய ிலிருந்து
 செ ன்ன
சி வ
 பொ ன்
 நே ரு
 எந்த வித
 சிக்க ிய
மொ ழ
 ஏற்று க்கொள்ள
 பண் ணி
ப்ப தால்
 எ ழ
 மு ற்ப
வி ந்த்
வை க்
 இட ங்கள்
 சம யம்
 கண க்கெ
 குறை வான
அதி லும்
 சோ ழ
ஸ்தான ில்
 ஆப ்கானி
 சொல் வது
 நூற்ற ாண்ட
 போல ீ
r a
ந டி
ரு க்கான
 ஒரு முறை
 பு ள்ளி
மே ஷ்
ரை க்
 தா க்கி
ட்க ளை
 அம ையும்
 ஆட்ச ிய
க்கார ர்கள்
 படுக ொலை
e l
ஜ ை
வ ாதம்
த்த லை
 ஆ ண்டும்
 ஏ ழை
பெ ரு
 கொண்ட ிருக்கும்
 நடத்த ப்படும்
 வார ்ட
வ தை
 ம ம்தா
ஸ் பு
 நில நடுக்க
னி வா
 கூற ியுள்ளது
 நெ ட்டி
 நிலை ப்பா
 நடந்து ள்ளது
 கதா பா
e w
வ ையும்
த்து க்காக
ாவ ூர்
 ர ெய
கர் நாடக
 கரு த்தில்
 வாழ ்த்த
 சாத கமாக
 பட்ட ா
 யூ ன
ஜ ே
க்க ளுக்கு
 த டுத்து
 அ சோ
 து ணி
 கண க்கில்
 போன்ற வை
 கொள்ள லாம்
 அடுத்த டுத்து
 அவர்கள து
 திணை க்கள
க ன
வ ரிடம்
 ச ாக
ம்ப ே
ிட மும்
 ஒரு நாள்
 கட்ட மை
வீ ர்கள்
 அனை த்தையும்
 ஆத ரி
 விள ம்பர
ர்கள ான
 பெண ்களை
 திட்டமி ட
 அரி சி
இ று
ாய ிர
 பா பு
 வரு டம்
ளி த்து
 பட க
 சொல்ல ப்படுகிறது
 பறி முதல்
 காஷ்மீ ர்
i v
ஜ ோ
 த ட்டு
 அ பர
 சே ர
 பூ ம
 அண ியை
வரு டன்
 வச திகள்
 கடற்ப டை
ம தா
ம னித
 கூ டும்
மே ல்
ராக ுல்
வெ ளியில்
 முக்கிய ம்
 நிறுவன த்தில்
 அறிக்க ையை
ப்பே ாது
 சந்தே கம்
 ஒளி பர
ெ டுத்த
 ம ன்
 அ ட்
 அ ட்டை
 கோ ப்ப
 செய்ய ப்பட
லக ிரி
 செயல ாளராக
 வெளியே ற்ற
 மறு த்து
ிகள ிடம்
 வைர ல
 வலை த்தள
 கழி த்து
 முயற்ச ிகள்
 திருக்க ல்
 பெண்க ளின்
4 4
ப்ப குதியில்
ுக ை
 முன்ன ெடுக்க
 தி ண்டுக்கல்
 தங்க ிய
 சுற்று ச்சூ
 பாத ை
 விநிய ோக
 ராஜபக்ச ே
க த்தின்
 ஏ தேனும்
வ் வேறு
போ தே
 வந்து ள்ளார்
 சந்தி த்தார்
 மாற்ற ங்கள்
 உருவா க்கி
போல ீ
 புற க்கணி
 விசாரி த்து
ஜ ீ
ந ூ
ல ையும்
ு மாறு
ாவ ள
 பே ரு
பு ரத்தில்
 கண்ட ன
அதே நேரம்
 செல் வது
 சிவ சேனா
 யோ கம்
 பிரதேச ம்
 கண்காணி ப்பு
வரா ஜ்
 அம்ம னுக்கு
 கருணா நிதி
ட கை
ள ாவிய
ெ டி
த்த ன்
தி களை
 வி டுவ
ாத து
 ஏ க்கர்
மா க்க
 சு ரே
 சு ப்பிரமணிய
 காண ொ
 வைத்த ிருந்த
 கார ில்
 தெரிவித்த ிருந்தார்
 கூறிய ிருக்கிறார்
 யா ருக்கும்
 ஏற்பட்டு ள்ள
 உற்ப த்திய
 ஆரம்ப ிக்க
 சதவிகி தம்
 சமர் ப்பி
இ தற்கான
 க ாள
 ச ாவ
டு தல்
மா ற்றம்
 கட த்த
 அள விலான
19 5
 மாத ங்கள்
 யா ருக்கு
 பல்கலைக்கழக த்தின்
 நியமி க்க
 மார ியம்மன்
 தெய் வ
விவ சாய
 இ வை
 மா று
 வீ டுகள்
 கே ரளா
 அளி த்தார்
 மக்கள ிடம்
 ஹி ஜாப்
 சிறி து
 மஞ்ச ள்
 மன்னி ப்பு
o t
ம ண்ட
ு க்கும்
ொ ன்று
 கு றைய
ாவ ளி
வர்க ளுக்கும்
ர்கள ையும்
 நக ராட்சி
 நடந்த ன
 கொடுத்த ார்
 இள ைய
 பிரிட்ட ன்
 அவ்வ ப்போது
 மாள ிக
யிலாடு துறை
3 8
o f
க ீ
ட ீ
 அ ய்ய
 ஆ ப்பிரிக்க
ளு க்க
ல்ல ி
 மா நாடு
 பல ி
கா சி
 வெளிய ானது
 முடி வில்
 போது மான
 மன தில்
இஸ்ரே ல்
 நிவ ாரண
ப ிக்க
 ப ிக்
 தொ லைக்க
ரா ச
 தா க்கிய
விட்ட ன
 நோ ட்ட
நாத புரம்
 பெண்ண ை
வ தற்கான
ங்க ளுக்கான
ந்து வீ
 தெ ன்க
 வரு த்த
மே த
 பல த்த
சிய ை
 ரூ பா
 கரு தி
மீ ண்டும்
 தூ க்க
 வள ர்க்க
அது வும்
 பழனி சாம
 பெண்ண ின்
குழந்த ை
நெல் வே
அ ங்க
அ தற்காக
ஜ ர்
 ச ோத
 ஆ ண
டுக ிறார்கள்
 வீ சி
 நி ர்ம
 முன்ன தாக
 வில கி
 இணை ந்த
 ஈடுப ட
 துணை த்
 இறு தியில்
 வலுவ ான
 கிறி ஸ்த
 தேவையில் லை
ாயிற்று க்கிழமை
ம ும்பை
 வி வா
ச்ச ின்
ரிய ின்
 பொ லி
ட்டி ங்
 தெரிவித்த ிருக்கிறார்
 மின் ன
 இடையே யான
 யோ கி
 டால ர்
 தள்ள ு
ஆ னா
ச ீர
 மு ழ
 போ ரில்
னை ப்
 வீ ரா
 காண ப்படும்
 கார ிய
 பொருளாதார ம்
 உறுதி ப்படுத்த
 அர பு
 வெள்ள ை
த்தே ர்த
 கட்சிய ினர்
 பயன் பா
ஒ துக்க
ப ில்
 ப ௌ
 ப ாய்
 இ வ்வளவு
ழ் ந்த
ஸ்ட ிக்
 அறிவி த்தார்
ர்கள ா
 கொள்ள ும்
 கன வு
 ஆரம்பி த்து
 மாட்ட ார்கள்
 பங்கேற்ற னர்
 விவா திக்க
க்க ளில்
 ம ண்
தி க்கு
ிட ையில்
 பிர ியா
 தொட ரும்
 இந்திய ாவை
 கால நிலை
 தோ ன்ற
 வாகன ங்கள்
 தள பதி
ப டியே
 ச ரவ
ைய ெல்லாம்
ிர வு
ன்ற ை
 கே ட்ப
லி த்
 பி ள்ள
 உண ர்ந்த
 ஸ்ட ாலின
 நாள ித
 தவிர ்த்து
 நம் மை
ஞ்சி புரம்
 லே ச
 ஆல ய
 ‛ ‛
 கம்யூனி ஸ்ட்
ந ம்
ம காராஷ்ட
 போ திலும்
 ஏ தோ
தாக த்
னு க்கும்
 இட து
 தீர் ப்ப
 புது ச்சேரி
 ஆதி த்ய
 பிரதம ராக
 ராஜப க்ஷ
  v
க ள்ள
்த ொ
ாக வும்
வி ருக்க
சிய ா
ள்க ளை
 அமெரிக்க ாவின்
 தாக்கு தலில்
 செய்வ தற்கு
 ஆயிர த்து
 செய்தி த்
சுவ ாமி
ல ீ
ழ ில
ங்க ுகள்
ண்ட ில்
ாம ன்
வே லு
டை ந்தது
மு த்து
 நீ ங்க
 இருந்த தால்
 பி ளா
ப்படுக ின்றது
 நோ க்கம்
 வரவே ற்க
 ட்விட்ட ரில்
 ஏற்பா டுகள்
 பிரசார ம்
 அலங்கார த்தில்
 கலந்துகொண்ட னர்
நிற ுவ
 அரசியல மைப்பு
இ த்தகைய
ப க்த
 அ சை
 எ ங்கே
ர்க ளுக்கான
ற்ப ுத
 சிற ப்பான
 கி ழ
 தூ து
 சந்தி ப்பில்
 பணி ப்பாளர்
சன ்கள்
 கல்லூ ரியில்
 டிர ம்ப்
 விரை ந்து
 வரலா ற்றில்
 பான ர்ஜி
3 4
e t
இ ரவு
எ ஸ்கே
க த்தை
வ ழ
வ ழக்க
ிக ளாக
வு படுத்த
த் ர
ாத ன
ண்ண ு
 இட ங்களிலும்
 து ன்பு
 அமைச்ச ு
 அள விற்கு
 அதிகார ப்பூர்வ
 அறிவி க்கப்பட்ட
அதன் பிறகு
 உருவா க்கு
 தாக்க த்தை
 ஜெய க்குமார்
 நாடாளுமன்ற த்
 குடி நீர்
 பணிய ாளர்கள்
 ஆய்வ ாளர்
. ம
 ம தியம்
 ச ப்
 எ தையும்
ச்ச ல
 கொ டியேற்ற
 மா ய
 ஏ ற்றி
ின ாலும்
மா ற்ற
 பய ிர
 ய ான
லி த்து
 ரா ணி
 அந்த த்
லு க்கான
 பண ியை
 அனு ப்பு
 தர ப்ப
 சொல்ல ும்
 மாத ங்களாக
தமி ழ்
 வெற்ற ியை
 அட ங்கிய
 பணியா ற்ற
ன்னீர்செ ல்வ
 அவ்வ ளவு
மிக் ரான்
க ுவ
 ம ும்ப
 ம கள
 கு ல
 தா க்கம்
 இது தான்
 ஆதரவ ாள
 பதில ளித்த
 ஆச்ச ரிய
 ஊக்கு வி
 அதான ி
ஆ ன்
 ம தம்
 எ டை
 மா டல்
 வீ டுகளில்
 நே ர்
 சி வில்
 ஓ ரா
 எடுக்க ப்பட்ட
 அலுவ லர்
 கன டா
 இன் றி
 இழ ப்ப
 தொலை பே
 ஷி ண்டே
ஜனாதி பதி
  டு
 க ரை
 ச ார
 ஜ ப்பான்
மா லை
 இருக்க ிறோம்
 சி பிஐ
 பண ியாள
 முடி த்த
 மண்ட பத்தில்
 கலை ஞ
 கூடு தலாக
 பணிய ிட
 தொட ர்ந்து
 இன்ற ும்
 மாநக ராட்ச
ியாகும ரி
ப வர்
ப ற்றி
 அ ரிய
ிற ீர்கள்
கு ஜரா
 ஏ தும்
வை ப்
 சே மி
 தொடர் ந்த
 ஊ ட
 கல ந்த
 பின் னால்
 கரு த்தை
 தொடங்க ினார்
கே ரள
 தொகுதி களில்
க ர்கள்
ட ங்கு
ண த்தில்
ை ச்
 ப ன்னீர்செல்வம்
 த ளம்
 ஆ ணை
ாத ான
ிக்க ொ
 கா ற்று
தாக ும்
 வா டகை
 சு ப்
 ஏற்ப டுத்து
 ல ோக
வெ ளிய
 வய ி
 நிய மனம்
 உரிமை கள்
 செய்க ிறார்
 கலை ஞர்
at ion
 மாதி ரியான
த்தொட ர்ந்து
 தெலு ங்கு
 வாடிக்க ைய
 மஹி ந்த
இ ன்
ஐ டி
ி ழ
 வ ட்டி
க்கு மாறு
 தே னி
 மீ னா
 எழு த்த
 கண க்க
 பழ க்க
 தோ ற்ற
 விஷய த்தில்
 கர் நாடகா
மருத்து வ
 தீபார ாதனை
c h
்ட ன்
 வ ான்
ம்ப ெய
ுவ ில்
ாத ீர்கள்
மாக த்
 இருந்த போது
 தா ங்கள்
 சம்ப ளம்
 இய க்கம்
 ஐ ந்த
 பெரிய ார்
 படி க்கும்
 வேண்டு மென
லாம ா
 தொலை வில்
பொரு ளாதார
  H
  and
. சு
த ல்ல
ர் ஷ்ட
 த ாவ
 செ ன்
ரை ப்
 து ரு
 பர ப்ப
 மட்டும ்தான்
 அலங்க ாரம்
 அறிமுக ம்
 சிக் ஸ
  f
n d
 ந ை
 செ ங்க
முறை கள்
யில ில்
ப்பட்டுள்ள தாகவும்
 கெ ஜ்ரி
 கேள் வ
 டிர ை
 கட்டுப்பா ட்டில்
 அறிவிக்க ப்பட்டுள்ளது
அ மைச்சர்
ம ாய்
வ ற்றில்
 த னு
ட்ட ிக்
ங்க லம்
 மு கா
ர்க ா
 வந்த ாலும்
 செலு த்து
 மறு க்க
னே ஷ்
ரஷ்ய ா
 சமு தாய
  w
o d
u s
எ ன்னை
ப ுக
ிய ல
 ச மேத
 மா றிய
 வெ ட்டி
 மே லா
 ல ிட்ட
 ஹ ா
 குறித்து ப்
 பணி புரி
 விளையா டி
தெ ாட
 குறைந்த பட்ச
 மூன்ற ாம்
 விண்ண ப்ப
 கருத ப்படுகிறது
 பேட்ட ியில்
 ஐரோ ப்பிய
ப ாள
ம ாத
வ தில்லை
 ச க்கர
 முடி கிறது
ராஜ ர்
 காண ாமல்
திரு வ
க்கொ ள்வ
 வாய ில
ட ையும்
ப ஞ்சா
ற ல்
 ம ந்திர
 ச ன்
 ச மைய
ப்பு டன்
 வெ வ்வேறு
மூ ல
 வாழ் ந்து
 பை டன்
 நடைமுறை ப்படுத்த
பாகி ஸ்தான்
 உத்திய ோக
3 9
ண ிகள்
வ ட்ட
்க ளின்
ங்க ளுக்காக
ிற தா
ிக ளுக்கும்
 வி தை
 வி டும்
 வர ைய
 பார திய
 ஹ ீ
 மாநில த்தின்
தொ ழில்
 உட்ப ட்ட
ிகள ிலும்
தெ ன்
 திரும்ப ிய
 எளி தாக
 பட் ஜெட்
 வித்தியாச த்தில்
 எரிபொரு ள்
த்த ில்தான்
 ஆ ண்கள்
 கு ண்டு
த் யா
ாய ில்
 இட ைய
கா ச
 வழங்க ப்பட
 கால ையில்
தல ்கள்
 செயல ாளர்கள்
 பாதி ப்பை
திரு மண
 குற்றச்சாட்டு கள்
 ஆய்வ ாளர்கள்
 மைதான த்தில்
6 5
உ ண
ந மது
லை ப்
றி வு
மா ண்ட
 கை விட
 கட்ட ாயம்
 வேண்ட ி
அதி க
பை ல்
 இத னால்
 விரும்ப வில்லை
 குழுவ ில்
 லா ப
 விழிப்பு ணர்வு
4 1
 த ந்து
 செ ஸ்
 போ லி
வை க்க
 எதி ர
 கட மை
 ஐ ய
 தெரிய ாத
 அதிகரி த்த
 பெரு ம
 வருவ ாய்
தோ றும்
 இன் ஸ்ட
 ஆஸ்திரே லியா
 இம் ரான்
க ிறேன்
ம ிய
 அ ஜித்
ிர ாம்
த்து க்கான
நா டாளுமன்ற
 ஆத ரவை
 பேசிய து
 வழக்கு ப்பதிவு
 வழி வகு
 உணவு ப்
 அங்க ிருந்த
தொட ர்பாக
 ஏமா ற்ற
 பதிவிட்டு ள்ளார்
 ஒன்றி ணை
அ வை
ஏ ன்
ா விட்டால்
ைய ன்
ாவ ிலும்
 பிர ம்ம
 மே ாடி
 வீ ட்டின்
 சு ப
 ஆண்டு க்கு
யா ணம்
 நூ ற்று
 சூழ் நிலையில்
 அந் நாட்டு
 கமி ஷ
 வடிவ மை
 அறநிலைய த்துறை
 ப ட்ச
 ப ழக
ண்ட ல்
ார ே
ச்ச ியில்
ாம ே
 ஓ வர்களில்
 சந்த ர்ப்ப
 சம்ப ள
ிருப்ப தாகவும்
 சங்க ம்
 செல் வாக்கு
 மோச மாக
 வேலைவாய் ப்பு
 க தி
 மு கம்
தே வி
 நீ டி
போ ன்று
 பாதுகா ப்பாக
 முய ற்சிக
 ஒன்ற ும்
 செயல்ப டும்
 ரஷ்ய ாவின்
 தெரிவிக்க ின்றன
 வேட்ப ாளர்கள்
 ஆண்டுகளுக்கு ப்
 மாற ியது
 கிலோ மீ
 லா பம்
 தாய ார்
 தான ே
 தேர் வில்
. ச
u r
அ ப்ப
அ ன்று
க ளுக்காக
ஷ ்க
 ம ிக்க
ந்த ம்
 ஆ ச
 பெ ாரு
தற்க ட்ட
இது போன்ற
 விளையா ட
 சம்பவ த்தில்
 வாழ் வ
 சுதந்திர ம்
? !

ம யம்
ல ிகா
 ச ில்
ான ே
ம்ப ிக்க
ாத ்க
 து றையின்
 எழு ப்பிய
 கொண்டு ள்ளது
 நிகழ்ச்ச ிகள்
 சீன ாவின்
 திருப்ப தி
 மார ்க்க
 வேளா ண்
- க்கு
தி ரி
 பா மக
டுத்த ப்பட்ட
 நா டாக
 தெரிவி த்தது
கி ழக்கு
 கட்ட த்தில்
 வயது க்கு
 காய ம்
 வரவே ற்ப
 புதி ன்
  K
4 7
 ம னம்
 ச ம்ம
 ஒ டி
கு றை
 பா ம்ப
சி த்த
 இட ங்களை
 கூற ப்பட்டது
வீ ன்
 என்ன ும்
 சொல்ல ிய
 சுவ ார
 கல்லூ ர
 புல ன
 படைய ினர்
 வழக்கறி ஞ
 செவ்வ ாய்
உ ய
ட லில்
ம த
 த ருக
 ந ன்கு
 கொ ன்ற
 வே ட்பு
ப்பட்ட ால்
 தே ரோ
 பிர முக
 சே கர்
 கொண்ட ுவ
 சந்த ையில்
 தொடர்ப ாளர்
 சீ தார
 எழு ந்தது
 நெ ல்
 மாண வர்களின்
 தோ ட்ட
 நாய ு
 அருள் பாலி
  O
அ வர்களுக்கு
ண ர்
 ம ெல்ல
ற் சாலை
 ஒ த்தி
 போ கிறது
 பா ச
 அவ ன்
 ஹ ரி
வீ ர
 குறை ந்தது
 பர ப்பு
 எல்ல ையில்
 மட ங்கு
 கேம ரா
ல ிலும்
 ம ஹ
 அ ற்புத
 எ ங்கு
தி ரா
 ஆ ற்றில்
 மீ ம்
 இட த்துக்கு
 கட லில்
 வழங்க ப்பட்டுள்ளது
 பேச ினோம்
 குறை வு
 அறிவி த்தது
 டி கிரி
 அணி ந்த
 வைத்து க்
 எதிர்க ொண்ட
0 5
ந ிறு
ீ னம்
 அ ன்
ாவ சிய
 கொ ரோன
ட்ச ை
 பு த்தா
 பூ மி
 என்ன ென்ன
ப்படுத்த ிய
 பர ீ
 காவ ிரி
 பயன்ப டுத்துவ
 நாடுக ளும்
 அத னால்
 செல் வம்
 வாழ்க்க ையை
 வேக த்தில்
 புகைப்பட ம்
மிக ு
 நிபுண ர்
 அமலாக்க த்துறை
ணாம ுல்
  d
உ ச்ச
த ாலும்
ா று
ந்த ின்
ப்ப தாகவும்
ள்ள ோம்
ற்ற ால்
 வழ ங்கு
 என்ற னர்
 ஜ ம்மு
ிற்க ாக
 இட ஒதுக்க
 சி வன்
மைய ா
 அரசு ப்
 வள ர்ந்து
 குடும்ப த்தில்
 நம்ப ி
 அதிமுக வின்
 கெ ாண்டு
ஷ்ட ி
 மறு சீர
 நான ும்
 ஆரம்பி த்த
 பத ற்றம்
 அணுக ு
 ஜாம ீன்
ச னி
ம் மை
 ம ார்க
 ஆ க்
ஸ் வரி
வே க
 கோ ல்
 கோ ட்டை
 நில வி
 நில வர
 பு தை
 தி சை
 போட்ட ோ
 போட்ட ிகள்
 இல்ல ையா
 நிறுவன ங்களின்
 வில க்கு
 வாய் ப்பை
 உலக ில்
 வார ிய
திரு ம
 பின்ன ணி
 பிரிட்ட ி
  of
வ தால்
ெ டுத்து
ே ாம்
்ட ்ட
 வ து
ப்ப ர
 மு த்த
வை ச்
மு ழு
 மிக க்
 எழு ப்பி
 பகுதி கள்
 நடி த்து
 திற ந்த
 பரிச ீ
 செய்க ிறது
 தரு ம
 ஹோ மம்
 இழு த்து
ப்பிரி வு
 வழிக ாட்டு
 வீரா ங்க
ப ையில்
ந்த ன்
 அ ண்மையில்
 வா க்கள
 நீ க்கம்
பெ ங்கள
 பிற கும்
 அனை வரையும்
 நடத்த ப்பட்டு
 நாடுக ளை
 விட ய
 பதவி க்கு
 உண் மையில்
 துவ ங்கி
 நாய கம்
 ஊடக ங்கள்
 ஆசிர ியர்கள்
 அனுப வம்
 ஓய் வூ
 முதன் மை
காவ ல
 அதிருப்த ி
 மகாராஷ்ட ிரா
த னி
ட்டு ப்
 ஏ ற
 ஏ ழ
 நா ட
 செய்த ிருந்தனர்
 பல ாத்க
 கிர ாம்
 பழ மையான
 உண ர
 அறிவி த்து
 உரு வ
 எடுத்து க்கொள்ள
ஒரு வேளை
ப்படுவ ார்கள்
 காய மடைந்த
 பிரச்ச ார
 சேவை கள்
 அமர் வு
 கும்பாபி ஷேக
 உண்ட ாகும்
 கோரிக்க ையை
 விகி தம்
 நெட்டி சன்கள்
இ ன்றைய
 ப ாய
ாவ ாக
ுவ து
வே ண்டிய
 ஒரு வருக்கு
 ஜ ாத
டுக ின்றன
ர்த ான்
 ல ஞ்ச
 நிக ழ்த்த
 வேலை க்கு
 தொடங்க ும்
 பெற்று க்
சே கர்
 மதி ப்பெ
 அற க்கட்ட
 மேம்ப ாட்டு
அரச ாங்க
 பற்ற ியும்
ப்பொரு ள்
 கதாபா த்திர
  b
 க ர்ப்ப
 த ங்கி
ார ில்
 ஆ பாச
ுவ ின்
ிக்க ிறது
வே லை
 இருக்க ிறேன்
டுவ தற்கு
 நேர டி
 ஜெ ர்ம
 ரீ தியில்
 இள வர
 ஆன து
 அனுப வி
 சிறுவ ன்
 தை ரிய
 முஸ்லி ம
4 6
அ வரின்
அ வர்களின்
ச ல
ம ாவட்ட
 த ம்பி
க்கு ள்ள
ில ு
 மு ற்று
ல்ல ிக்க
ப்பட்ட ிருந்த
 பொ ய்ய
 அமை ப்பை
பா டுகள்
 நே ர்த்த
 சம ர்ப்ப
 பாஜக வில்
 கூறி னர்
 கரு வி
இதை த்
 அங்கீ காரம்
 விநிய ோ
4 9
அ தற்க
அ ப்போ
வ ியா
 எ ங்களை
்ச பா
வர ்தான்
 வர வு
 வர ையிலான
 பு த
 நீ ரா
 ட ூ
 அதிகார ிகளுக்கு
 விசாரண ையை
 வள ர்ந்த
 கைது செய்ய
 இன்ன ிங்
ையான து
 ஃ பே
 பயி ற்ச
 விட்ட ார்
 மறை ந்த
நெல்வே லி
  h
ல ட்சுமி
 ப டுக்க
 ம ந்த
ங்க ர்
 உ ண்ண
 கோ ர
 இந்திய ர்கள்
 தின சரி
 விழ ாவை
சில ாந்து
 கேட்ட ார்
 பிரச்சி னைகள்
 எதிர்க்கட்சி த்
ா ப
ோ ருக்கு
 ச ாம்
 அ ர்ப்ப
 எ லி
ைய ு
 கு றையும்
ால ேயே
 தி ண
 பதி விட்ட
விர ை
பே ர
 அமெரிக்க ாவில்
 சிறு பான்
விழ ாவில்
 விவசாய ம்
 நிகழ் வுகள்
 ஜெ க
 மேற்பட்ட ோர்
 வேல ையை
 தற்ப ோது
 வியா ழ
 பற்ற ா
 உத்த ரவ
ந ாம
ெ ன்று
 த டு
 ஏ ர்
 மே லே
 கே ாவ
 நீ ங்கும்
பா துகா
கா ந்த்
 பார த்
 பார ாட்ட
போ ன
 எழு த்து
வெ ள்ள
 பேச ும்போது
 பெய ர்ச்சி
 நாள ான
 பாதி க்கும்
 கவன மாக
 மிர ட்டல்
 சஞ்ச ய்
 பத்திரிகைய ாளர்
க்க ளும்
 ச ிரே
 மு றையை
 பே ா
 சே ன
 இர ான்
 பூ ர்த்தி
 உண வக
ன்க ூ
 இல ட்ச
 பரவ ல்
வரா த்திரி
 செல்போ ன்
 க ையா
ள் வி
 அ ண்டை
ப்ப ாத
ட்ட ையில்
 எ மது
 கூ டி
ட்ச ியில்
பு ர்
 பல முறை
த்துக்கு ப்
 புக ார்கள்
 வேண்ட ுகோ
 வெற்றி பெ
 உருவா க்கப்பட்ட
 அண்ண ன்
 தீர்மான ி
 முன்னே ற்றம்
 பணியா ற்றிய
 சை க்கி
 சாப்ப ிட்ட
ஏற்க ெனவே
 உள்ளாட்சி த்
 எதிர்பார் ப்பு
 எழுந்தரு ளி
 ஞ ாயிற்றுக்கிழமை
 தூத ரக
ச ூர்
ட த்தில்
 ப னி
 க ளம்
ிய ிலிருந்து
னை க்
 வர லாம்
 அமை க்கப்பட்ட
நா ட்ட
 நெ கி
 தூ த்துக்குடி
 தள த்தில்
 வருட ங்களாக
 கொல்ல ப்பட்ட
 கணி ச
 மொத்த மாக
 கண்டி த்து
ந்துவீ ச்ச
 தள்ளு படி
  ம்
4 2
t er
அ ண்ண
க ல
 ப ஸ்
த்த ிருக்கிறார்
றி வாள
 தே வி
 தெ ாகு
 கா ப்பு
 கா ட்டிய
 அவ ர்களிடம்
இது தான்
 சீ மான்
ஸ்க ோ
 என்பதை ப்
 கேட்ட போது
 யா த்திரை
 விஷய ங்களை
 பேர ூ
ேஸ்வர ம்
 வெற்றிகர மாக
. இ
க த
ன ியில்
ப லி
ந்த ூர்
ாவ ிலிருந்து
 ர ை
 ர ம்
 வே ளையில்
ராக ்
கவ லை
 பொது வாக
 இய ல்ப
19 4
 பயண த்தை
ப்பே ட்டை
 கள்ள க்குறிச்சி
 மீன வர்கள்
பகவ ான்
i r
o v
ஆ ரம்ப
ப ல்
 ந ண்
ச்ச ார்
 தெ லங்க
 பு ஷ்
 சு த்த
 ஊ ராட்சி
 கட்ச ிகளும்
 தகவ லை
 தின ேஷ்
 பணி பு
சூ ரிய
 நடத்திய து
 முதலீ ட்ட
 கடித த்தில்
ண ியை
ந ர்கள்
 ச ண்முக
சி பி
 து ண்ட
 வந்த ன
ர்வ ்
ணை ப்பு
 சூ டு
 தன் மை
 புற ப்பட்டு
 வாழ் ந்த
 ரோ ஹித்
 திருப்ப ூர்
 உற்ச வ
 உற்ச வம்
 சப ையின்
 பேட்டி ங்
 பெங்கள ூரு
ew s
  W
எ ன்க
 ப ாகு
 எ ப்படிய
 ஒரு போதும்
ப்பட ாமல்
 முக்கிய மானது
 ஆர ாய்
ைக்கு ரிய
 தூ ரம்
 பார்க்க ப்படுகிறது
 நிய மன
மூ ன்று
ஞ்சா லை
 நெருக்க மான
 முயற்ச ியில்
 பிரதிநிதி கள்
 அப்போ தைய
 பிரிட்டி ஷ்
 சிரே ஷ்ட
- வுக்கு
ன ையின்
ாவ ே
 நட ன
 கூ ற்று
 உள்ள தாகவும்
 நி பந்த
பெ ண்கள்
 நே ரி
 ஓ ர
 பட ங்களில்
 பிரி வின்
 உத்தர விட
 பெற்று க்கொள்ள
 பயன்படுத்த ும்
 கார ்க
 செய்வ தற்கான
 குழந்தை களை
 அரசாங்க த்தின்
 தயாரி ப்பு
 விரி வாக
தில ிருந்து
B C
வ தற்காக
க்க லை
க்க டை
 க ில்
 ம ல்ல
 வி ண்க
ச்ச ந்திரன்
 போ த
 பெ ட்ட
 பு யல்
 அவ தூ
 பல வீன
 கூற ியுள்ளனர்
 மாற்ற ிய
 கருத்து க்களை
at an
 விரி வான
 கழக ம்
 உத்த வ்
 சினி ம
 நிரூ பி
 குதி ரை
ாவள வன்
  a
0 1
ஹ ெ
 ம ெய
த்து றையினர்
 வி க்கிர
 செய லி
க் நாத்
ாவ ோ
 ஒ ட்ட
 அவ ற்றின்
 நி ம்ம
 மாநில ங்கள
ல்க ளுக்கு
ல்க ளும்
 இருக்கும் போது
 பாஜக வை
 கொள்ள ை
 பாதுகாப்பு ப்
 கேள்வி கள்
 காய ்க
 கைப்ப ற்றி
யு க்ரே
 எதிர்கால த்தில்
 பட் ஜெ
 தொக ையை
 புலன ாய்வு
அ ங்கே
 க ன்
 த ரம்
ப்ப குதி
ைய ிலேயே
 உ ங்களை
ாவ தி
சி டிவி
 மாண வர்களை
ிகளை ப்
 கட்டு ரை
ட்டிய ே
 சங்க த்தின்
 அர விந்த்
 பாத ையில்
இதற்க ிடையில்
 பிரிய ங்கா
 நிர்ம லா
லிகா ப்ட
  டன்
  ....
ந ேய
ற ேன்
 த ர்
 உ டைய
 மு றையும்
 ர ங்க
 ர ாக
க்கும் போது
மு டைய
சிய ாக
 ஏற்ப டுகிறது
 நே ற்றைய
 நக ரம்
 பகுதி க்கு
ிருப்ப தால்
 அப ாய
 விமர்சி த்து
இதே போல்
 அழ கு
 மற ந்து
ைக்க ால்
 மச ோத
ஃ பி
க ால்
ச ுக
ல ான்
ீ ஷ்
 ப த்
 ப ழி
 ப ட்டம்
ிர ாவில்
 வே லு
டிய ான
 பே ட்
வை கள்
டுக ள
 சி எஸ்கே
 து ர
தா ப
 கிடை த்து
 முய ன்று
 லட்ச ுமி
 செய்வ தற்காக
 உடல் நிலை
 பின்ன டை
அமெரிக்க ா
 சூழ் நிலை
 செயற்ப ா
 எக்ஸ் பிர
ik atan
னிவா சன்
ம னு
வ ார்கள்
 ந ள்ள
 ர வீ
 பெ ாது
 தொட க்கத்தில்
 இருந்த வர்
 வை த்தது
 சி த்திரை
ரே ஷன்
.. ...

 பால ஸ்த
லோ ர
 கார ை
 செலு த்திய
சில ர்
 படை கள்
 குடிய ிருப்பு
 உதவ ியுடன்
 அம்ப ே
ட்ஸ் மே
நிக ழ்
 தொழி ற்சாலை
கடை சி
 சட்டப்பே ரவை
 வேண்டுமான ாலும்
 வைரல ாகி
 வாயில ாக
  m
ர ண
 க ஞ்சா
 ஆ டிய
ரி ஸ்
க் ர
ஸ் வர்
 கொ ஞ்ச
 நா ளுக்கு
வா க்க
 ஊ க்க
 பூ ச்ச
 போன்ற வற்றை
 அண ிகள்
 உலக க்கோ
 உத்தர ப்பிரதேச
 வல து
 குறிப்பிட ப்பட்டுள்ளது
கூ ட்ட
 காந்த ியின்
 காய்ச்ச ல்
6 00
c e
உ ங்களுக்கு
ஜ ினி
த ையடுத்து
மி ட்ட
 கோ ட்டா
 விவ ாதம்
 இருப்ப ார்கள்
 பெய ்து
 நாள ாக
 குழு ம
 குழு க்கள்
 இஸ்ரே லிய
 யா ரு
இதற்கு ப்
த்தீ ன
 குற்றச்ச ா
 விழு ப்புரம்
 இள ம்பெ
இதனை த்
 விளை வாக
வாய ு
 வாக்கள ிக்க
அ தற்கான
ஆ ப
ோ ரின்
 ச தி
 எ வ்
 ஒ ன்பது
 ர மேஷ்
திய ு
 சம ாதான
 சீ சன
 டி வி
 வீர ர்களை
 வருவ தற்கு
 கொள்க ிறேன்
 கண்காணி ப்பாளர்
 சொல்க ிறார்
 ஹோ ட்ட
எதி ர்க்க
 ஊர்வ லம்
தற்ப ோதைய
 ராசிக்கார ர்களுக்கு
 நிராக ரி
 எழு து
 தர ப்பினர்
வெ ட்டு
 ஸ் பெ
அதன் பின்
நே ரத்தில்
 மறு ப
 முழு மையான
 வாய்ப்பு ள்ளது
 மறை முக
ஜூ ன்
 ஜனாதிப தியின்
 நோட்ட ீஸ்
o s
ப ள்ள
 அ றையில்
ார ோ
 மா த்திர
 உள்ள தால்
 கா ண்ப
 வர ும்போது
 பல ம்
லி ங்க
 மக்க ளும்
 கொண்ட ிருந்தார்
 இர வில்
வுக்கு ப்
 நடத்த ினார்
 அளி த்துள்ளார்
 இல்லாத தால்
 ரீ தியான
 தவற ாக
 சன ிக்கிழமை
 மற க்க
 N ews
 செவ்வ ாய
 யுக்ரே ன்
 சாம்ப ியன்
தரா பாத்
 கொடியேற்ற த்துடன்
 கிலோமீ ட்டர்
4 3
i a
எ ங்க
க லை
ல ்தான்
ஹ ோ
 வ ர்
 அ ன்ற
ரு ம
 ர ாவ
 கொ ள்வது
மி ர்
 பிர சாத்
 வர வ
 சு ரு
ப்போ கிறார்
 வெளி ச்ச
 தமிழ்நா ட்டின்
 லட்ச த்து
 பிடி க்கும்
 பொருளாதார த்தை
 வைக்க ப்பட்டது
மெ ண்ட்
 மேல் முறைய
 ஆன ந்த்
 தரிச ன
 வேல ையில்
 முயற்ச ிகளை
 ஆஜ ராக
 ஷே க்
 சுட்டிக்காட்ட ினார்
 அம்பே த்க
  ஸார்
0 6
க ிட்ட
ீ ர்களா
ிர ்த
ற்ற ையும்
ஸ் ப
 ஒ ப்பி
 மா ட
ப்பட்ட ி
 நில வுகிறது
 அரச ும்
 பொ ய்
ர்வ ாக
 கொண்ட ாடி
 தா ங்க
விட்ட ேன்
 தி ச
 கட்ட ப்பட்ட
 உத்தர வை
 மன ுவை
 பணி க்கு
 பள்ள ிகளில்
 உறுப்பின ராக
வ்வா றான
ர்ப ான
 யூ டியூ
 தொழில்நுட்ப ம்
 காட்டு கிறது
 கல் யாண
 வித மான
 திரி ணாமுல்
 சுற்றுச்சூ ழல்
. நா
க ங்கள்
த்த ையே
ப் ரா
 த ங்களை
 ச ல்
க் ஸ
 என ச்
றுக ிய
 பட ப்பிடி
 பெய ்த
 நிறுவன மான
ாவை ச்
 கொள்ள ைய
 பிரி ந்து
 தெரிவிக்க ின்றனர்
 வீடியோ வில்
 வீடியோ வை
 பல்கலைக்கழக த்தில்
யி ர்
 சொல்க ிறார்கள்
 நெரு ங்கிய
 மீன் பிடி
 வரவ ழை
க ட்சி
ீ ல்
ீ ட்டை
 ப ட்டு
 ச ாய
 ச த்தம்
 ஆ ளாக
வி மான
மு னை
 ஹ ர்த
ஸ்த ிர
 கல ெ
ட்ப ட்ட
 இருப்ப ார்
 கி ங்
 இல்ல ைய
 ஏற்று க்
க்கிர ன்
 அறிவிக்க ப்பட்டது
 பயங்க ரவாத
 பராமரி ப்பு
 அத்திய ாவசிய
அதுமட்டு மல்ல
ர ாத
வ ோம்
 ப த்த
 ச ர்வ
 இரு வர்
 பெ ர்
 ஏ னைய
 நா ட்டிற்கு
 மே டையில்
 ஹ ாரி
 கட்ச ிகளின்
நீ ட்
த்துக்கு ள்
ல்ப ட்டு
 சென்று ள்ளார்
 பாதி ப்புகள்
 செலு த்தும்
 ராம தாஸ்
 இடம்பெ ற்று
 ரி ஷ
ஜெய லலி
. ரவி
க ிறோம்
த த்தை
த ாய்
த விர
ள ைய
வ ியில்
 அ மு
ங்க ால
ள்ள தாகவும்
த்து றையின்
 திரு ந
போ ன்
 இய ற்க
 உருவா க்கிய
 எதிர்க ொ
 நம் மிடம்
 பின்ன ணியில்
 ஹி ந்து
 பாராளுமன்ற த்தில்
 அம்மா நில
 உச்சநீதிமன்ற ம்
 நாயு டு
இ ல்ல
ச ாரி
ே ந்திரன்
ன் ம
க்க ப்படும்
 க ழ
 கு ளி
வை த்த
 ஓ ரி
 கி ளை
 தின கரன்
 தீர் ப்பை
 படி ப்பு
 அர ங்கே
 நோய ாள
 ஆவண ங்கள்
 ஸ்தான த்தில்
 தக ரா
 என்னவெ ன்றால்
 தேதிய ன்று
- இல்
ப ல்வேறு
த்த ிலுள்ள
 ம ில்
று கள்
த்து றையில்
வி ருக்கும்
ிக ே
 கொ ல்கத்தா
 இந்த ிரா
 வெ று
 பே ட்ஸ்மே
நா ட்டை
 ஊ ருக்கு
 காரண ங்கள்
 கலந்து கொண்டு
 முடிவு களை
மோ கன்
 பள்ள ிக்க
 யோ சனை
ிகள ால்
 வெள்ள ிக்கிழமை
த்தொ கை
 பிரபல மான
எதி ர்
 அபர ாதம்
 சுரே ஷ்
அ டுத்து
த ங்கள்
ப ந்து
ொ லி
ர் வா
 ந ந்த
ங்க ியது
ச்ச ுவ
 ஒ ட்டி
 மா றும்
 தெ ா
மாக ்
 அமை ந்தது
 தலை வரான
பா த்தில்
ப்பட லாம்
 பால ின
 தோ ற்க
 முதல ே
 உத்தர விட்டார்
 வாங்க ும்
 டெ ல்
 சூரிய ன்
 செயல்பா டுகள்
நிக ழ்ச்ச
 ஊர்வ லமாக
அ ல்ல
ன ெ
ப் ள
 இ ங்க
ங்க ாவ
 உ பய
 கொ டுமை
 கூ றுவ
ுவ தற்கு
பி பிசி
 செய்ய ப்படுகிறது
பா ட
 பி ழை
 முன்ன ுரிமை
ஸ்த ு
 மோ திய
 கண வன்
 பின் பு
 நெ ரிச
 என்க ிறது
 குழந்த ையை
 வழி ப
 வழி நட
 சோ னியா
 இல க்க
 தொழில ாளர்
 சிகிச்சை க்காக
 கட்டுப்பா டுகள்
ஷி ப்
கிர ாம
 உயர்ந்து ள்ளது
எ ப்படி
 த ாலி
து வாக
 ஆ ற
கு டிய
ரே ட்
 கண பதி
 ஆத ீன
 எந்த ப்
 இணை ப்பு
 வாக்கு ப்பதிவு
 தேசிய க்
 மறு த்த
 விரு ப்பம்
இரு ந்த
 செய்க ிறார்கள்
 நீண்ட கால
 மாட்ட ோம்
 ஹெ லிகாப்ட
 ஜெயலலி த
ம்க ூட
 நெடு ஞ்சாலை
உ டல்
ப ள்ளி
ம டை
ய ும்
 ஆ சி
ற்ற ொ
 தொ ல்லை
மு ன்
 வெளிய ி
ராக ு
 முன்ன ிலை
ந்திர ா
 புக ு
 தோ னி
ஸ்க ி
வில ில்
 சாத ிய
ியுள்ள தாக
 விரை வாக
 ஆதி க்கம்
 அழைக்க ப்படும்
 t he
 சகோதர ர்
தர ப்பு
 சுவாம ிகள்
 லோக ்சபா
 அர்ப்ப ணி
ல ிருந்து
ப்ப ெய
 இ வருக்கு
ிக ர்
 என் னால்
ம்ப ோ
ாள ிக்க
 கிடை த்துள்ளது
நீ ண்ட
 பழ க்கம்
 வில ையில்
 நிர்வ ாகி
 சிறு நீ
சே கர
 பள்ள ிகள்
க்கள ப்பு
 ஜோ தி
 மக்கள வை
அதிமுக வில்
 சுய ே
 உட்க ார்
 சட ல
இ வரது
எ ன்னுடைய
ன ீ
ப த்து
 ப து
து ரை
ிக ார்
 கு த்த
 கொ ந்த
ுக ளுக்கு
கு ற்ற
தாக ச்
 அவ ருடன்
 மணி ப்பூர்
 ஐ பிஎல்
 நடவடிக்க ையை
 வில ையை
 உலக ளாவிய
 வழக்கு ப்
 துறை களில்
 தமிழ ர்கள்
 மக்கள வைத்
 வரவே ற்ற
 காட்ச ிய
 மாட்ட ேன்
 கால் நடை
இரண்ட ாவது
 டிக்க ெட்
 வழிபட்ட னர்
 சர்க்க ரை
" .

9 9
அ வர்களை
ய ே
ய ான்
ி னை
ந்த ே
 செய்ய வும்
 நோ க்கில்
 இல க்கிய
நக ரில்
மற்ற ொரு
யி ற்சி
 கிரிக்க ெ
 விண்ண ப்பி
 விளக்க ம
 பண்ட ிகை
 அழ ிக்க
 நன்மை கள்
 ஒற்று மை
 சந்தோ ஷ
 பழங்குடிய ின
2 50
ஹ ை
 ப ச்சை
 இ த்த
 மு ன்கூ
 பே ரி
 செய்த ியாளர்
 சு ந்த
 ல ார
 கிட ந்த
சு க்கு
 கரு ப்பு
 கூறுக ிறார்கள்
 வக ையிலும்
 ஸ்ட ்
ார்க ள
 மைய த்தில்
 கண்ண ீர்
 ட்வீ ட்
' 

i g
அ க்
ச ாத
வ ந்து
ர் ஸ்
த்த ோ
 த ரை
 அ த்து
ப்ப தில்லை
 ந ுக
 எ லும்
ைய மை
 ஒரு வரின்
 பு ண்ண
 சு ர
 கட லோர
 உய ிரு
 வழங்க ியுள்ளது
 மோ டியை
 மோ டியின்
 இய க்கத்தில்
 எதிர் வரும்
 போலீ சார
 தமிழக த்தின்
 திற ப்பு
கே ஷ்
 விடு விக்க
 ஃ பார்
 மர ப
 வங்க ியின்
 நிதி ஷ்
 திரும்ப ப்
 வெள்ள ம்
 ஆப த்தான
 அறிவு று
 ப் ள
 திருவ ள்ள
 மாணவ ியின்
ி ண
 க ான
 த லையில்
 ச வால்
 அ வி
 ர ாவ்
 ர ஜின
ல்ல ிய
 செய்த தாக
ளி ப்பு
 ட க்
 சி சிடிவி
 வழங்க ியது
 சம ாளிக்க
ப்படுக ிறார்
 சீ ட்
 கல ச
 ஐ டி
தேச மயம்
அதி கார
 விரு ந்த
 கொடுத்த து
இரு வரும்
 பங்கே ற்ப
மெ ன்ட்
 கண்ண ாடி
நோ ய
 போன து
 டா ஸ்
 அன்ன தானம்
 சமர்ப்ப ிக்க
த ஞ்ச
 ம திக்க
ான ில்
 செ ள
ஸ் ஸ
 பெ ன்
 கூ றுவது
 தே ர்ச்சி
 பு ரிய
 தலை வருமான
மைய ின்
லு க்கும்
ஸ்த ி
 கட்ட மாக
வாக ும்
 கி ஷ
 நாடுக ளுக்கும்
 உருவா க்கும்
 கோவில ்களில்
 உடல் நல
 வருட ங்களுக்கு
 பகி ர்ந்த
 உடை த்து
 லீ க்
 பதவியே ற்ற
ஆளு நர்
திரா விட
 எக்ஸ்பிர ஸ்
ண ியின்
 ப ுவ
 ந டுத்த
 கு றிய
 ஏ க்நாத்
 செய்ய ப்பட்டுள்ள
வர்க ளுடன்
ியாக ி
 நெ ல்லை
 ராஜ ்ய
10 8
 ஷ ர்மா
 உத்தர விட்டது
 பயன்படுத்த ிய
திரு ச்சி
 விமான ங்கள்
இதன் படி
இதன் மூலம்
 பார்த்து க்
 எதிர்பார ாத
 சுகாதார த்துறை
 வென்ற து
 புகார ின்
 நியூ சிலாந்து
த்திற ன
 நிலநடுக்க ம்
 ஹீ ரோ
 ம ின
 இ ரும்பு
வி னால்
ம்ப ட்டி
 மீ ள
 வா க்கெ
 வா ட்ஸ்
 செய்ய ாமல்
 கட த்தல்
லி ங்கம்
இது தொடர்பாக
ப்படுக ிறார்கள்
 மாவட்ட ச்
 பொது வான
 இருப்ப வர்கள்
 நிறுவன ங்களில்
 படி ப்படியாக
 நு ழ
 அப்ப குதி
 போராட்ட ங்கள்
 வேல ூர்
 உயிரிழந்த ார்
ஜூ லை
 கடின மான
 தாக்குத லுக்கு
ல க்
ே சன்
 ப ந்தில்
த்த வர்
 ந ன்கொ
 கு ட
்ய ா
 நில க்க
ழி சை
 சீ ர்க
 பூ ர்வ
 கூறி ன
 விர தம்
பிர தேச
 நிகழ் ந்த
 மது பான
 செல வில்
க்கொண்ட ே
மார ்ட்
 ஸ்க ூ
 மசூ தி
 போலீ சார்
எ ல்லா
ச பா
ட ாவில்
ற ாக
ஹ ே
 ப ன்னீர்
 த ால
 ஆ ல்
ிக ோ
 பிர மாண்ட
 நா ட்டுக்கு
சி த்தி
 பொ ன்ன
ரை த்
 நே ர்க
 உய ர்க
 கூற ப்படும்
 மாநில த்
 ஈ டு
 பொது க்கூ
 கரு த்த
 மொ பைல்
 இல க்கை
 வெளியிட்ட து
 அக்க ட்சியின்
 நுழை ந்த
இன்ன ொரு
 கடற்க ரை
 ஆதித்ய நாத்
u l
ச ான்
ப ாத
ிய ான்
 அ வு
 ந ய
ற்று க்கு
 அவ மான
 தலை வர்களும்
 இட ங்களுக்கு
 வந்த போது
 அந்த ச்
 சில ைகள்
 உத்தர விட்ட
 என்பதை க்
 கருத்து கள்
 நு ண்ண
 முறைய ான
 பிரச்ச ின
 பிறந்த நாள்
 ஆட்ட ோ
 சர ண்
 தெரியவ ந்துள்ளது
 நினைக்க ிறேன்
 கமி ட்டி
 போட்டியிட ும்
 பட்ச த்தில்
 எவ் வித
ச ின
ஜ ின்
ம கன்
ர ையை
ள ிடம்
 ம லே
 கு ம
ச்ச த்து
 கொ ரிய
 பிர ப
 பொ ழுது
 பண ிகளில்
 மோ த
 இய ங்கி
 கி ண
 விர ாட்
மீ க
ாவை ப்
 வழக்க மான
 கார ்ட
 அதை ப்
ிருப்ப ார்
 தெரிவிக்க ப்பட்டது
 விவசாய ிகளுக்கு
 சங்க ர்
ஸ்வர ன்
ஷ்ண ு
 தொடங்கி னர்
இலங்க ையின்
த்திட்ட ம்
 மகிழ்ச்ச ியாக
 சர ண
நிய ூ
ஸ்திரே லிய
 தான ம்
 வழங்குவ து
 மதிப்ப ிலான
 உயர்நீதிமன்ற ம்
உத ாரணமாக
 கொள் முதல்
 கெஜ்ரி வால்
 பலாத்க ாரம்
5 8
t h
ட ிர
றி ந்த
 தே ங்க
 தொட ர்க
 கோ ரிய
 வா சி
 சி ற்ப
ஞ்ச ்
த்தி னை
 சில ி
 சீ ர்த
 விவ ரி
 முன் மொழி
 தர வு
 விர ோத
 என்க ின்றனர்
ிகளை க்
குறி த்த
 சொன்ன து
 விளையா டிய
 ஊழ ியர்
 பரவ லாக
 சர த்
 அச்ச ம்
 கடற்ப டைய
உத ய
 பவுண்ட ரி
 சீதார ாமன்
 நண் பர்
அல்ல து
த ால்தான்
ம ட்ட
ூ ரி
 அ யோ
 பா க்கிய
 பிர ிக்க
 பிர ான்ஸ்
 கோ ய
 அவ ர்க
வா சி
 சி தை
மைய ுடன்
ியா ட்
 உறு ப்பு
டுவ தை
 பாதுகா ப்பான
 தூ ங்க
 வழக்க ின்
பே ாது
 விமான த்தில்
 பார் வ
 விமர் சிக்க
 நிதிய மைச்சர்
 எழுதிய ுள்ளார்
 வலியுறு த்திய
 கலா நிதி
சமீ ப
 சுற்ற ியுள்ள
 உப கர
 ஊட கவ
 மேலா ண்மை
 லிட்ட ர்
- வில்
அ மைச்ச
ண ங்கள்
த்த ிட
 அ டுக்கு
 மு த
கு ண்ட
 கா க்க
 கோ ட்
 என்ப தற்கு
 மூ ளை
சிய ின்
கா சம்
 ல ூ
 ஈ ரோடு
எஸ் எஸ்
 கைய ாள
 உயிரிழ ந்து
 தம்ப தி
 சித ம்பரம்
 சமூ கம்
 சான்றித ழ்
 முன்கூ ட்டியே
. ஆ
 ப டுத்த
ாக ிருஷ்ண
ிக ேய
 ர கு
 கா ஞ்சிபுரம்
 மே ய
மா டி
 செய்ய ப்பட்டுள்ளன
 சே ரும்
 து றையினர்
 அம ர
 உள்ளிட்ட வை
 நாள ்களுக்கு
 குழந்தை களின்
 தொழில தி
 போராட்ட த்தை
 கண்கா ணிக்க
 பாரா ட்டி
 எரி வாயு
 வலியுறுத்த ினார்
 ஊர டங்கு
பஞ்சா ப்
விரை வில்
5 6
எ ஸ்டி
க ்ட்
ம ாய
 ப ர்
 ப வார்
த்த ெ
ப்ப ாளர்கள்
ைய ிற
வா டி
 சட்ட த்தில்
 இது வே
 திர ை
அத ையடுத்து
 ஏற்படுத்த ியிருக்கிறது
 குழந்த ையின்
 வேண்டிய ிருந்தது
 அடிப்பட ையாக
 ஜெ கன்
 அப்ப குதியில்
 செய்யப்பட்டு ள்ளார்
 இருக்கிற தா
 அதிர டியாக
 t o
 அங்கீ கரிக்க
 அமித் ஷா
 எழுந்தரு ள
 பங்களி ப்பு
 பொறுப்பே ற்ற
விள க்கு
ல ையை
 ம ல்
 ச த்திய
 ஆ வது
ுவ ையில்
 பா டி
 செய்த ிருக்கிறார்
ிருந்த ேன்
ப்பட ம்
 ஆண்டு தோறும்
 எந்த த்
 விதி முறை
 சூர் யா
 ரிச ர்வ்
0 8
அ ப்படிய
இ க்கோ
ம ழ
 ஆ டியோ
வி க்
 வி ன
ச்ச ரி
ற்ப ா
 பிர ார்த்த
 ஜ டே
ராக வும்
ல்க ளின்
 பாதுகா ப்பை
தமி ழ
வரு மே
 பயன்படுத்த ப்படும்
 வங்க ிக்
 எண்ணிக்க ையில்
 விரும்புக ிறேன்
 கவனி த்து
 செய்தியாளர்களை ச்
ம ால
ற ாங்க
ோ ரை
 த ரி
ப்ப ேன்
ங்க ானா
 கொ ழு
ிட த்தில்
 கா ச
 கா ணி
 வர த
னு க்காக
 ஊ ரில்
 ஈ ர்க்க
 குறை த்து
 வந்து ள்ளனர்
 வழக்க மாக
 பகுதி களை
 நாள ்கள்
அப்போது தான்
 கிராம த்தைச்
 உத வு
 வெளியிட்ட ார்
 வன த்துறை
 எம்எல்ஏ க்கள்
ப்படுத்து வது
 பசு மை
 உள்ளட க்கிய
 மேற்கொ ள்வ
 இன்ஸ்ட ாக
5 1
i m
எ ங்களுக்கு
க ாய
ா ருக்கு
க்க த்தை
 க ந்த
 இ லை
டி க்கு
 வி ஸ்வ
 ர ாய்
ாம ில்
 ஜ ய
ப்பட்டு ள்ளார்
 தலை வர்களை
த்தின் போது
 வழங்க ப்பட்டு
 சம ாளி
 பதி வில்
 விவ ாக
 ஈ ரான்
கார ்த்த
 ஆய் வில்
 சாத கமான
 மெ ா
 தமிழ ில்
 யோ க
 அறிவு ரை
 உயிர ின
 லெ பன
 பிற்ப டுத்தப்பட்ட
 பெரும்பான் மை
 ஆட்டமி ழந்த
 ஆப்கானி ஸ்தான்
- ந்
0 7
அ வருடைய
அ ப்போது
 வ று
 உ ப்பு
ட்டு களை
 செய்த ிருந்தார்
டுக ளின்
 அவ மதி
 அமை தியாக
ழ் ப்பா
வர்க ளுக்கான
போ ரா
லு க்காக
 செய்து விட்டு
 அறிவி த்துள்ளார்
 ராஜ ீவ்
 வள ர்
 கெ ட்ட
 வெற்றி க்கு
 பிரே த
 ஆயு ள்
 V ikatan
 சமூ கவலை
 அகில ேஷ்
விஜ ய்
 அசோ க்
 திருக்கல் யாண
 ஓரி ரு
0 2
இ ப்ப
ழ ும்ப
வ ிலும்
ீ த
ல் ட்
 ப ில்
 க ளை
ப்ப ிட்ட
க்கு ரிய
 வெ ற்றிய
நில ையை
 திரு ப்பு
 சில ருக்கு
 சென்ற போது
 பொறு த்து
 நாள ும்
வான ி
ிருப்ப தை
ப்பெ ரு
மூ ன்ற
 பயண ிக்க
 சின் னம்
 சர்ச்ச ையை
 முன்வை க்க
 ரூபாய ்க்கு
 வெப்ப நிலை
 எதிர்கொள்ள ும்
 துன்பு றுத்த
க ையில்
ன ங்கள்
ல ையே
 அ வுட்
 உ ல
 தெ ன்ன
 கோ பம்
டுக ளும்
 வருக ின்ற
ிக் ஸ்
 நெ றி
 ஆத ீனம்
டுவ தாக
 குழந்த ைக்கு
 இணை க்க
 பிரி வின
 பெரு ந்த
 கருத்து களை
 கடை கள்
 ட் ர
 சுற்று ப்பய
 விரும்ப ுவ
 அளிக்க ப்பட்டது
 மண்ட பம்
 ஆலோச க
 பட்டிய லின
 நிற்க ும்
 விடுத்து ள்ளார்
 ஆற்ற ல்
ாவா சை
 முழ ங்க
 ஓரா ண்டு
 இழப்ப ீடு
5 9
இ ப்போ
ஹ ர்
 ம ஹா
ப்ப வர்கள்
 போ திய
 அமை ந்து
 வை ப
 து ல்லிய
 வழங்க ப்படுகிறது
டைய ே
விட்ட ாலும்
 கிர ா
 கி ளா
 தோ ழ
 வாய் ப்ப
 வார ங்களுக்கு
 திமுக வின்
 அலுவ ல்கள்
 தவ றி
 தயார ாகி
 இழ ப்பு
 இயக்கு னர்
 குற்றச்சாட்டு களை
 கண்டி ப்பாக
 அன்பு மணி
 வேத னை
 சமீப த்திய
 விஞ்ஞான ிகள்
 நிலைப்பா ட்டை
 தொலைக்க ாட்சி
e m
அ ல
ம க்களை
த்த ேன்
 இ தற்கான
 கு டியே
 இரு வருக்கும்
 ஒ வ்வ
 தே ட
மாக ச்
 கோ ஷ
 ஜ ின்
 பு தன்
 வருக ிறேன்
பா ண்ட
 கட னை
 இது குறித்து
 சீ னிவாசன்
வீ தி
 பொரு ள
 ஈ பிஎஸ்
 மருத்து வம்
 மேற்க ெ
டுவ ோம்
 நிறுவன ங்களுக்கு
 அணி வகு
 மக ேஷ்
 மறு ப்பு
சே லம்
 மிர ட்ட
 பேசுவ து
 வெளியுறவு த்துறை
 திரைய ரங்க
 சூர் ய
 புற்றுநோ ய்
 தேரோ ட்டம்
அ ம்மா
உ ண்மையில்
ம் ச
 மு ட்டை
 மு ழக்க
மை ப்பின்
 மா சு
ம்ப ிய
 நில த்தை
 அமை க்கும்
 கே ா
 சு த்தம்
 பல ருக்கும்
 கட த்தி
 கட ற்றொ
லி ங்
 தீ ட்சி
போ ர்ட்
 அமைச்ச ரவையில்
 பூ ங்கா
 தர ையிற
 உண ர்ந்து
 அவர ால்
 வாழ ்க
 அக மது
 பிரச் னையை
 சிவ ப்பு
 நகர ங்களில்
 விவர ங்கள்
 தியாக ராஜன்
 சிறுத்தை கள்
குஜரா த்
 இடைய ூ
 சுவார ஸ்
0 9
1 20
ஸ ும்
 ம ான்
ட்ட த்தை
 செ ந்த
ாவ தாக
 வெ யில்
 வெ குவ
 வீ ச்ச
பெ ண்
 நே பாள
 ஓ மிக்ரான்
்க்க ும்
 தொடர்ப ுக
 கட்ட மைப்பு
 புக ை
 டி டிவி
 சமூக த்தில்
 வழி பட
 திரும ாவளவன்
 முழுவ து
 உற வுகளை
 மி ஸ்
 நம் முடைய
உலக ின்
 புல ிகள்
மக்க ளின்
 விவர ங்களை
 வீழ்த்த ி
 கன்ன ியாகுமரி
 மான ிய
 ஒற்றை த்
 அறிகுற ிகள்
 ஓய்வூ திய
பாதுகா ப்பு
 நடுத்த ர
்க ளும்
 ம ஸ்க்
ப்ப ாளராக
 எ ளிய
 எ ங்களிடம்
 ஆ லை
லை த்
 வெ றுப்பு
 பிர ம்மா
 பண வீ
த்திற்கு ச்
கார ில்
 வாக்கு களை
 வைத்த ிருக்க
 செய்யப்பட்ட னர்
 செய்வ தாக
 கூறிய தாவது
 போட்டிய ிட்டு
 குறிப்பி டுகிறார்
 வருட ங்கள்
 முன்வை த்து
 அக்க ட்சி
யு த்த
 பெற்றோ ர்கள்
உத்தர ப்பிரதேச
5 2
a k
அ தேசமயம்
க ல்வி
ட ெல்லியில்
ர த்து
 த ார
 த ில
ார ிடம்
ான ிய
 கு றுகிய
 போ ஸ்ட
 போ ர்க்க
 மா நகர
 கூ கு
வர ே
 கோ த்த
 ஜ ு
 மே டை
 நீ ள
 ஓ வர்கள்
ஞ்ச ல்
 பதி வான
க்கப்பட்ட ன
 பார்க்க ும்போது
 லட்ச க்கணக்கான
 மன ுவில்
 சிக்க ல்கள்
 அளிக்க ிறது
 குடிய ிரு
 தீர்மான ிக்க
 பீ கார்
 இடை த்தேர்த
 பல்கலைக்கழக ம்
 மருந்து கள்
 சசிக ல
 எளி தில்
ிலிருந்த ும்
 யூன ியன்
 அத்து மீ
a p
ப வர்களுக்கு
 ப ூர்
 ச த்ய
ட்ட மைப்பு
 இரு வரையும்
 ர த்
 அரச ால்
 அரச ிடம்
வா ழ
 து ரி
 திரு த்தம்
 பி ளவு
 அம ாவாசை
 பூ ங்க
.. ?

 போட்ட ியை
 வார த்தில்
 காண ப்படுகிறது
களுக்கு ப்
கொ ழும்பு
 உற வுகள்
 மேற்கொள்ள ப்பட்டு
 குழுவ ை
 மேற்கொண்ட ார்
 பஞ்ச ாய
 நிவ ாரணம்
 ஒலிம்ப ியாட்
 தொலைபே சி
 மறுசீர மைப்பு
0 3
7 7
த ந்த
வ னை
வ தில்
 ச ிக
 ச தம்
 அ ன்றைய
 மு ளை
றி க்க
ட்ச ியை
 உள்ள வர்கள்
 அதிக ளவில்
 கே ாவில்
 நி மி
 நீ லகிரி
 சு ந்தர
செ ன்ன
 வழங்க ுக
விட்ட ார்கள்
 பிற ப்பிக்க
 பாஜக வினர்
 பிறகு தான்
 வார ்டு
 நீதிமன்ற த்தின்
 தேசிய வாத
 வெளியே றிய
 தேவ ஸ்தான
 மதி ப்பில்
 ஆய்வு கள்
 அடை க்க
 விதி கள்
 வெள்ள த்தில்
நோ ய்
 கட்டுப்பா ட்டு
ரூ ப்
 மேல திக
 உயிரிழந்த னர்
 திருவ ண்ணாமலை
ன்னா ப்பிரிக்க
 நிரூ பிக்க
 புகழ் பெற்ற
கிருஷ்ண ன்
  &
க்க ின்
 ச த்த
 ந ஷ்ட
ளு க்கே
ன்ற ே
மான ார்
 து ரோ
 து றைய
 கொண்ட ாட்ட
சு ற்று
 அல்ல ாத
 செலு த்தினர்
 கேள்வி களை
 பழனி வேல்
 நிர ப்ப
 விரும்ப ும்
 ஆணைய த்தின்
 அர ங்க
 மேற்கொள்ள ப்பட்ட
விரு து
 B BC
 களமிற ங்கிய
நான ும்
மாற ாக
 எல்லோ ரும்
 கமிஷ னர்
0 4
அ ரு
ஜ ியின்
ர யில்
வ ியின்
ஷ ்குமார்
 உ ங்களின்
 மு தற்கட்ட
 வி சா
 எதி ர்த்த
பே ரில்
 வாக்கு வாதம்
களின் படி
 பாதிக்க ப்பட்டு
 எதிர்க ொண்டு
 நல ன்
 வெளியிட்டு ள்ளார்
 சந்தித்து ப்
 ஆகியோ ரின்
 சாப்பி ட்டு
 ரெய ்டு
ார்கள ாம்
வ ல்
வ தாகவும்
ா சிய
ல் பு
 ப ாக்
 க ங்க
 நட மா
 வெ ட்ட
 கா ற்ற
 செய்த ியாளர்கள்
 இருந்த தாக
ப்படுக ின்றனர்
 அறிவி ப்பை
 பேசிய ுள்ளார்
 வைத்து ள்ளது
 தொடங்க ியுள்ளது
 திற மை
 தனி த்தன
 ட் ரோ
 இன் ஸ்பெ
ன்னி ந்திய
 எடுத்த ார்
 ஹே ம
 நிமிட ங்கள்
 அர்த்த ம்
 மீனா ட்சி
 நேர்க ாண
இ ற
க ைய
த ர்கள்
த முள்ள
வ லி
வ சம்
ா க்க
்த ே
 ப ந்தை
 க ன்னி
த்த ிருக்கிறது
 ந வீன்
 உ த்திர
 செ ால்
 தொ ட்ட
 தொ ல்ல
 பிர சித்தி
 வர ையில்
 தெரி வு
 தெரிவி க்கும்
கா ண்ட்
 தமி ழிசை
மைய ன்று
 மாநில ங்கள்
 மேற்க த்திய
நீ ங்க
 குறை ந்துள்ளது
டுவ ார்கள்
 தேவை ப்படும்
வர்கள ால்
 காத லி
 உக்ரை னில்
 ஆலோசனை க்
வார ூர்
 விண்ண ப்பிக்க
 சுற்றுலா ப்
 பெரி தும்
 ஆச்ச ர்
 அஞ்ச லி
 தீய ணைப்பு
 அரேப ிய
கள்ள க்குறிச்சி
 உயிரு டன்
o p
எ ழு
த ாம
 அ ஷ்ட
தி கார
 உ ரை
 ஆ ள்
 கு ப்பை
வு டனான
ுக ளின்
வர லா
 நில ுவையில்
சி ங்
 நீ ர்ம
டிக்க ை
இது பற்றி
சா ந்த்
 ஆண்டு க்கான
 சூ தா
ப்போ கும்
 பால ம்
 பால த்தீன
 உரு வெ
ரீ தியாக
பார ா
 எண்ண ம்
 முறை ப்படி
 மறு நாள்
 தனி த்து
 மண்ட ப
 பங்கு னி
 முன்னெ டுத்து
 கார்த்த ிக்
ct or
 நிர்ண ய
நிகழ் வில்
 சீர்த ிருத்த
ந வ
ம லைய
ல ியின்
ீ ஸ்வரர்
க்க ல்ல
ப் ஸ்
 த டைய
 அ தற்காக
ப்ப றை
 ந ம
ில ா
 செ க்
ற்ற ல்
 வி டை
றி ந்து
ாவ ையும்
 ர வு
 மா ம
 கூ ட்டி
 பா ம்பு
 ஜ ப்பான
 மூ டி
 ஓ ட
 ஓ விய
 இந்திய ப்
ரிக்க ப்பட்ட
 ஹ வு
 தேர்த லின்
 எழு ப்பு
 அதிகார ிகளை
விட ாமல்
பிர ிட்ட
 இற க்க
 உதவி களை
 கிடைக்க ிறது
 கண்ண ன்
ப்புற ம்
 ரெ ண்டு
 நியமி க்கப்பட்ட
 பற க்க
 குழ ப்பம்
 ஆந்திர ா
 பொதுச்செய ல
 அப்து ல்
நடி கர்
 சமைய ல்
 இடஒதுக்க ீடு
  +
8 5
உ டன
ப து
த்த வர்கள்
 அ ய
ார் ஜ்
வு க்கான
ாத னைகள்
வே ச
சி சி
ரா து
 திரு ப்த
 அதிகரி ப்பு
 ஆட்ச ே
 மது ரையில்
 தொழில ாள
 விஷய த்தை
 அற ங்காவ
 அட ங்கும்
த்தொ ழில்
 ஜனநாயக க்
 இச ையமை
சின் ன
iv e
 தட்டு ப்பாடு
 பிளா ஸ்டிக்
 நூற்று க்கணக்கான
 தெலங்க ானா
ர்வா ண
ச ால
த ய
த ையே
ந லம்
ெ ன்
ோ ன்
 வ ார்
 ம ாலையில்
 த ாம்
ட்ட ியின்
 ஆ ம்பு
 போ டும்
 ஒரு வரான
 கோ வி
வா ழ்வு
ப்பா க்கம்
 ஒன்ற ரை
 நிலைய ங்களில்
 பகுதி களிலும்
கோ வில்
த்துவ த்தை
 ராம நாதபுரம்
பூ ஜை
 டிர ா
 சக ல
ங்கா ங்கே
 மிர ட்டி
 குற்றவாள ிகள்
 சரவ ணன்
ீ ட்டில்
 ப வர்
 க த்திய
 ம லர்
ிய லாளர்
 ஆ த்திர
 மு ர்
 கோ விட்
ிட்ட ார்
 பு ல்
 வா ழை
 திரு நெல்வேலி
ங்கள ்தான்
 ராஜ ேந்திர
 வைத்து ள்ளார்
 மாற்ற த்தை
யில ை
 கார ைக்கால்
 அதை ச்
 நிறு த்திய
 காவல்து றையின
 தொழில ில்
 வாகன ங்களில்
 மி தமான
 ஆகியோ ரை
 ஆகியோ ரும்
மிக வும்
 சட்டச பையில்
 தாம ரை
 பராம ரிக்க
 ரயில ில்
 சல சல
ார்க்க ண்ட்
ாயிர ம்
 அறக்கட்ட ளை
 பணிபு ரியும்
 சமூகவலை தள
  U
ந பர்
ட்ட ாக
 இ வ்
க்கு ற
டு ப்பது
 பெ றுக
 பிர பு
 கா சி
 அவ ள்
மே ற்க
ண்ண ை
போ க
செ வ்வ
க்கி ங்
ேய ும்
த்துக்கு ள்ள
 உண வை
 பேசிய ிருக்கிறார்
 வழக்கு களில்
 எடுக்க வில்லை
 வெற்றி பெற்ற
 அதை த்
 அர ைய
 நூ று
ப்த ா
 உதவ ிய
ஷி ங
 ஆன ந்த
ச்சே ரியில்
 உயிரிழ ப்பு
 நுழை வு
 சாத்திய ம்
 பழங்கு டி
 நடத்து வது
 ரன்க ளுக்கு
 கடவு ள்
தின மும்
 பொலி ஸ்
 நேர்த்த ிக்க
 வேண்டுகோ ள்
8 00
அ வர்களில்
ச சிக
த்த தாக
 அ பே
 இ த்தனை
ாள ரும்
 தொட க்கம்
பி எ
 நீ க்கி
சு தந்திர
 நிறுவ னர்
 குறை பாடு
 தெரிவித்து க்
ன்க ிழமை
 தூ ண்ட
 தூ ய்
 கலந்து கொள்ள
 அளி த்துள்ளது
 நிகழ்ச்ச ிகளில்
 விரு ந்து
 உற வில்
 எனக்கு த்
 மனித ர்கள்
 அரசிய லை
த்தொ டர்
 மேற்கொண்ட னர்
ராம ன்
 ஆகியவ ற்றின்
வக ையில்
 விமர்சன ங்கள்
 வட்டார த்தில்
 போதை ப்பொருள்
 பொறிய ியல்
 பாரு ங்கள்
அ ப்
க டன்
ச பெ
ஜ ெய்
த ங்க
த ம்பரம்
ம கா
வ றை
ைய ற்ற
ிற ை
 மு றிய
ுக ா
 தே சம்
 உள்ள தா
 நி ற்ப
 பிற கே
ல்க ளையும்
 காரண த்தால்
 கட்ச ியும்
 ஆத ரிக்க
 எதிர் ப்பை
 புக ழ
 எண்ண ெய
பிர ே
 பிரி த்து
 கைது செய்த
 செலு த்துவ
 இஸ்ரே லுக்கு
 சிவ க
 ஆலோ சன
 மேற்கொள்ள ும்
 கிள ம்பி
விய த்
.ப ன்னீர்செல்வ
 பொருட்க ளின்
ர்ட ்ட
 கலா ச்சார
 இடம்பெற்ற து
 அதிப ராக
 விக டன்
 தென்க ாசி
பக்த ர்கள்
u m
அ டி
க ன்ன
த ளம்
ப க
ப த்
 ப ன்
 க சி
 வ ண்ட
 ச ஸ்பெ
 ஆ ண்க
வி ஸ்
வி வர
ஸ் வி
 நட ப்பது
 பிர காஷ்
 என்று தான்
 பு ட
ழ் ந்து
 குறி வைத்து
 தலை மறை
 நீதி ப
மார் ச்
 பாதுகா ப்ப
 ஒன்ற ான
 பெரு ங்க
 நிகழ்ச்ச ியை
த்துவ ருக
 அரு ண
மொ த்தம்
த்தக்க து
 அர ங்கில்
 பேர றிவாள
 பிரச்னை களை
 நெருக்க டியை
 சொல்க ிறது
 ஆயுத ங்கள்
 வலியுறு த்து
 கர ூர்
 கட்சிய ின
 சிங்க ப்பூர்
 ஒப்படை க்க
 நான்க ாவது
விருக்க ிறது
 மும்ப ையில்
 விக்கிர ம
  ஸ
7 6
a v
இ வ்
ர ணி
 ப ல்
 ச ாகு
 உ றை
 போ ரை
 பா த்திர
 நீ டிக்க
 ட ெல்ல
 கட்ட ளை
 பர வும்
 வந்து ள்ள
 பட ங்களை
 ஷ ூ
 பேசிய போது
 வள ர்ப்பு
 நிலை ப்பாடு
 இன்ன மும்
 தெரிவிக்க ிறது
 அரு ண்
 கொள்க ையை
 மி ள
 ஆலோச கர்
 பணியா ற்றும்
 எதிர்கால ம்
 கேரள ாவில்
 சல ுகை
ப்பிரமணிய ன்
 பாண்ட ியன்
 அருள்பாலி த்தார்
 சீசன ில்
ஜெயலலி தா
குடிய ரசு
 பேரி டர்
 விருந்த ின
 உயர்க ல்வி
" ..

ய ை
ைய ில
 உ ச்சி
 ஒ ய்
 கொ ன்று
ட்ச ிகள்
 பா றை
 நா டக
 கோ ளா
மா றி
 கட ையில்
 வந்த தும்
 சா ந்தி
 காரண ங்களால்
 நெ ய்
 பட ேல்
 வள ர்த்து
 பெற்று ள்ளார்
 ஏற்பட்ட ிருக்கிறது
 உரி மையை
ப்படுவ தாகவும்
சிற ப்பு
es t
எதி ர்க
 வாக்க ளி
 நூற்ற ாண்டு
வங்க தேச
7 00
க ல்ல
ண ்களை
ய ாக
வ ையாக
ஷ னல்
ஹ ான்
 ஆ க்க
ரிய ானா
 கோ லாக
 வீ டுகளை
 வா தி
 நீ ரி
 தலை முறை
 இருந்த ேன்
 கால ில்
 மாவட்ட ங்கள்
 மாவட்ட த்தின்
 அள வை
ர்களை க்
 தெரிய வந்த
 சந்தி க்கும்
 அளி த்தனர்
 இற ப்பு
கொ ள்வ
ிருப்ப ார்கள்
 உணவு கள்
 இத ர
ரம ணிய
 ஆட்ட த்தை
 மாற ாக
ையோ ர
am il
 வாக்குறு தி
 இணையதள த்தில்
 வல்லு நர்கள்
மண்ட ல
a i
ஃ பா
ப டியாக
ா ள்ள
 ர த்தம்
ம்ப ூர்
கு மார
 பிர பாக
 கோ வையில்
வா ழ்
 சி ம்ம
 து ய
 " "
 கால த்திற்கு
 சட்ட ப்படி
 மிக ச்
ப்போ ன
 இய ங்க
 இய ங்கும்
 இய ல்பு
தான ே
 ஏற்பட்ட ால்
 உருவா க்குவ
 கிராம ங்களில்
 தனி த்துவ
 தீவிர ம்
 பரி வர்த்த
 உதவி கள்
 யா த்திர
 கல்வி க்
 நிறைவே ற்றி
 ஜோ டி
 கேட்க ும்
 சர்ச்ச ைக்குரிய
 விரி வு
 கழி வு
 டாக ்ட
 மாகாண த்தில்
 நம்பிக்க ையை
 குண வர்தன
 அரை ச
 தேர்ந்தெடுக்க ப்பட்ட
 துரை முருகன்
 தகரா று
 அரைய ிறு
  ல்
? "

u n
க ட்டு
ச ிகள்
ஜ ிய
த ார்
ல ியில்
ா ்
 ப ச
க்க ப்
 த லித்
க்கு றைய
லை னில்
 வி நாயக
 இரு தரப்பு
ச்ச ாவ
க் ரோ
 வே கம்
ம்ப ை
 பே ச்சை
 அதி ர்ஷ்ட
 கோ டை
 அமை த்த
 கட லூர்
 அந்த ந்த
 ஊ ட்ட
 தேர்த ல்களில்
ியாக வும்
 விவ ரிக்க
 போன்ற வ
ைக்கு ப்
 கொள்ள ுங்கள்
 வைத்த ிருக்கும்
 சாத னையை
 செய்வ தால்
 செயல் பாடு
 எது வு
வர்கள ையும்
 பை க்
 பள்ளி க்கு
க்கப்பட்டு ள்ளார்
 செய்யப்பட்டு ள்ளனர்
க்கார ர்
 வெடி த்து
 சை பர்
 விருது நகர்
இதே வேளை
மறு புறம்
 கட்டிய ெழு
 தூது வர்
 முகா மை
 மீம் ஸ்க
! "
இ ட
இ வருக்கு
உ ங்க
க ண்ண
ம ாம்
ா ஸ்
ு ங்க
் ரீ
்த ீப்
 த டுக்கும்
 ச ச்சின்
 ஒ ட்டிய
னை த்
 பெ றுவது
 கா ண்
 கா சா
ற்று வது
பி ஷேகம்
 நி ஜ
ண்ண ெய்
 பல ியான
 பார தி
 திரு ட
 ஹ ர்
சா தி
 அதிகார த்தை
நீ க்கம்
 கரு ப்ப
 தெரிவித்து ள்ள
 தூ ர
 வெளி வந்த
 இணை த்து
 பாட ல்கள்
 அரசிய லுக்கு
 கட்டுப்பா டு
 ஆறு தல்
 ஆர்வ லர்கள்
 வகை கள்
 தரு ண
 கருத ப்படும்
 புத்தக த்தில்
 மாள ிகை
 தீப ாவளி
 சமாஜ் வாதி
 அதிகபட்ச மாக
 நாராய ண
 பொதுக்குழுவ ில்
 எலி சபெ
 கூற்று ப்படி
உடன டியாக
o w
ஸ ்சி
 அ ஜ
 ந ாய்
 மா சி
டிய து
 பா டம்
 கா ட்டும்
 அரச ுகள்
 வை கோ
பா ஜ
 சி த்தா
ப்பட ையில்
 தேர்த லுக்கான
ொரு வர்
 சம்ப ா
வெ ங்க
 கண்ட ிக்க
 வைத்து ள்ளனர்
 பொறு ப்பை
 காவல ர்கள்
 விட ாமல்
 உற வை
 உணவு களை
 வங்க ிகள்
 செல வுகள்
 வேண்டு மா
 வெளியாக ும்
 நோய ்கள்
 போக்கு வர
வருக ின்றனர்
மக்க ளுக்கு
 முன்னெ ச்ச
 இதன் போது
வர்த்த ி
 உத்தரவிட்டு ள்ளது
 உத்தியோக த்த
 விநியோ கம்
 மசோத ாவை
 ஹர்த ிக்
ாகிருஷ்ண ன்
  .
6 6
ல ையா
 த சா
 எ ங்கும்
ைய ோடு
ண்ட ோ
 வி ற்று
 வி னா
ாவ ிற்கும்
 வே தன
நா சி
பெ ய
 பார ிய
 வந்த ிருக்கிறது
 ரா க்கெட்
 கொண்ட ிருந்தனர்
வீ டு
 வார ியம்
 முதல ாவது
 தங்க ளுடைய
 வருவ ாய
 தனி ப்படை
 ஃ பை
 அடுத்த டுத்த
 இஸ்ரே லின்
 யார ாவது
க்கள ையும்
 மக்கள ிடையே
 முன்ப தி
 கவன த்தை
 ஆவ ார்
 சேர்க்க ை
 பேராசிர ிய
 டா ப்
 கர்நாடக ாவில்
 தம்ப திய
 தொழி ற்ச
 முடிவெ டுக்க
 முஸ்லிம ்கள்
 பாலஸ்த ீன
 முர் மு
எ து
ய த்தில்
ல னை
 ப ங்கள
த்த ாக
 ச ம்
 ச மை
 ச ன்னி
ந்த ன
 அ த்தகைய
ைய ில்தான்
ச்ச ர்
 கொ டியை
 கூ லி
 ஏ க்க
 கோ புர
 செய்ய ுங்கள்
 நி ர்மா
 பய ந்து
 ரா ஷ்ட
போ க்கு
 தா ண்ட
விட்ட ோம்
ல்க ா
 உறு தியான
திக்க ப்பட்ட
 பொது க்
 கி மீ
ஜி ஆர்
 ஷ ோ
 அணி வி
 எடுக்க ப்பட்டு
 படி ப்பை
 முக த்தில்
 காவல ர்
மோ ச
 பரி தாப
 செல்வ தற்கு
 மேம்ப டுத்துவ
 வெளியாக ியுள்ளன
தன ியார்
 பிரதம ரின்
 அப ாயம்
 புகைப்பட ங்கள்
 அடைந்த னர்
 நுழை ந்து
 ரூபாய ை
 உரிமைய ாளர்
 கடின மாக
க்கொள்க ிறேன்
 ஆர்ப்பா ட்டம்
 ஜடே ஜா
ட ில்
ன வு
ம யிலாடுதுறை
ீ ம்
 ம ார்க்
 ச த்தீ
டு ங்கள்
 செய ற்கு
 கா து
 செய்த ல்
 வீ டியே
 நி தியை
 சு க்கிரன்
 கொண்ட ிருக்கிறார்
ருக்கு ப்
விட்ட தால்
 பொரு ள்களை
 சம்ப ாதி
ப்படுத்த ப்பட்ட
 போட்ட ியின்
 தகவ லின்
 டி வியில்
 விவகார த்தை
 பத்திர ிகை
 பிரதி ஷ்ட
ளிக்க ிறது
 வெளியிட ப்பட்டது
 ஆகியோ ருக்கு
ர்ட ்டில்
 கள்ள ச்சார
 நிச்ச யமாக
 உருவாக ும்
 செல்க ின்றனர்
புது ச்சேரி
 சிந்த னை
 தஞ்ச ாவூர்
 முறைகே டு
 கோட்டா பய
- க்கள்
9 5
ச ப
ச ப்
ச ாக
ள ஸ்
ு டைய
 மா பெரும்
மி ட்டு
ாள ரான
 செய்த ியை
 மக்க ளுக்கும்
 ல ால்
 ஹ ார்
 ஊ திய
ியாக ும்
 கட்ச ிகளுக்கு
 உட லுக்கு
 நடவடிக்க ையும்
ஜி பி
 காரணமாக வே
 வைக்க ப்பட்டு
 கடி னம்
 தடை கள்
 பெற லாம்
 மேற்ப ார்
 பேர ையும்
 மேற்கொள்ள ப்படும்
 கழக த்தின்
ர்ட ு
இப்படி ப்பட்ட
 டை ட்ட
 வண்ண ம்
முக்கிய மாக
வய து
 பிரம்ம ோ
 பற்றா க்குறை
6 8
அ றி
ஆ யிர
ன ான
ம ிர
 ப வ
 ப ன்ன
வி கள்
 கு டிக்க
 ர ஞ்சி
 ர ஜினி
 போ வதாக
ான் ற
ால ு
 என வே
 பா ண்டிய
 மீ ற
ப்பி டிக்க
 ஊ ற்றி
 நிக ழ
 ஸ் மார்ட்
 முதல ீட்டு
 அருக ிலுள்ள
 கிராம ப்புற
ஸ்தான ின்
ாலி னை
ட்டா சி
 வெளியிட ப்பட்ட
 மாற்று த்திறன
 தன்ன ார்
 குற்றவாள ி
 காஷ்மீ ரில்
ஸ்வ தி
 சாட்ட ப்பட்ட
ஸ்பு க்
 யான ைகள்
உண வு
குறை ந்த
 காய்க ற
 வெகுவ ாக
6 3
6 7
ஷ ின்
ஷ ியல்
ொ ன்ற
த்த ில
 ம ங்கள
ப்ப ணி
 இ வரது
 எ டப்பா
ச்ச ிக
 ஒ ன்
ப்பு களில்
வே ந்திர
 செய்த ியில்
 மூ ச்சு
ங்கு ன்ற
 இந்திய ன்
ஞ்ச ிய
 சீ க்கிய
 வைத்து ள்ள
 அதிகரி த்தது
 பொறு ப்பில்
 எல்ல ாவ
 கிராம ம்
 கேட்ட து
ஷே க்
பூ ரில்
ப்படுவ தை
ப்படுவ தில்லை
 அர ண்
 பெண்ண ுக்கு
 பரவ ியது
 ஆன் மிக
 தெளி வுபடுத்த
 உயிரிழ ந்துள்ளனர்
 விவர ம்
 புரிந்து கொள்ள
 அந் நிய
 கம லா
 புகார ில்
 ஆகியவ ற்றில்
 குற்றம்சா ட்டி
 கூட்டண ியின்
 விடுத்த ார்
விவ கார
 நம்புக ிறேன்
ந்தோ றும்
 சேவ ையை
 தொல்ல ியல்
பாரா ளுமன்ற
ச ினி
ப ற்ற
ற ா
ு லக
ௌ பதி
க்க ாடு
 அ றுவ
 எ ம
 ஆ டு
ளை ப்
 கொ ட்ட
ாள ம்
 நில த்தில்
 பொ ம்மை
 பு ன
 பு ய
 ஏற்ப டுத்துவ
 பய ம்
 வந்த ிருக்கிறார்
 பர ிக
 ஸ்ட ே
 வருவ தை
ற்ச வ
 செய்வ ார்
மெ ன்
 உண் மைய
 ஏற்று க்கொண்ட
 ஒது க்கி
 பிரச்ச ாரம்
ரங்க ம்
தார ர்கள்
வெளி நாட்டு
 படைய ின
 கூட்டு றவு
 கூட்டண ிக்
 தெலு ங்கானா
 சீரிய ல்
 தரப்பின ரும்
 கணக்கெ டுப்பு
 ஓர ளவு
 சல் மான்
ஆ ஸ்திரேலிய
ச ிக்
ந ப
ன ியின்
ற ே
ள வுக்கு
ோ தி
 ந லம்
 இ டிக்க
டி ங்
ற்ற ினார்
 ர ாத
மி தா
தை க்கு
பு தி
வா ஸ்
வா சல்
 தா த்தா
 ஆண்டுக ளுக்கும்
 சென்று ள்ளனர்
 தின ங்களுக்கு
 வச ிக்க
 தலைமை ச்
பால ா
 ஜெய ந்தி
 விதி த்து
 கொடுத்து ள்ளார்
 வரலா ற்றை
 கிள ப்ப
 நல த்திட்ட
 பதில ளிக்க
 உட்க ட்சி
பெரும் பாலான
 அரேப ியா
த்தலை வர்
நிறுவ ன
நிறு த்த
 அம்பேத்க ர்
ிகேய ன்
6 9
த த்தில்
 ம யிலாடுதுறை
 ந ிரு
 இ தற்காக
 எ ட்டி
க்கு வது
ற்க ால
ப்பட்ட தால்
 ஏ லம்
டிய ுடன்
 பிர த்ய
 கோ பி
 நி ர்வாண
 நீ ரை
 நீ ர்வ
 சு ங்க
 இட த்திலும்
 நே ட்டோ
 உய ரம்
 பதி வே
வீ ட்டில்
ர்களை ப்
 கூறுக ின்றன
19 3
 தமிழ்நா ட்டை
பே ட்டை
 திரும ஞ்ச
 நாள ்க
 செய்யப்பட்ட ன
 செய்வ ார்கள்
 கேட்ட ால்
 சொன்ன ால்
 சம்பவ த்தை
 நாய க
 செய்க ின்றனர்
தீ விர
 பரவ ிய
 மாட்ட ார்
உலக ம்
க்கால ம்
 வசதி களை
 அவர்கள ால்
 சது ர்த்தி
 மாளிக ையில்
 கல்லூர ிகளில்
 புகு ந்து
 நிலக்க ரி
இ த்தனை
ச ும்
ஜ ம்மு
ண ்களுக்கு
ந ாராய
வ ண
வ கை
ஷ ல்
ூ ன்
 ச ரம
ப்ப ள்ளி
 ந ரசி
த்து விட்டு
 வி வாதி
 பெ ருக
ாத ான்
வே சம்
வில் லி
 செய்த ேன்
மா றும்
 மீ ம்ஸ்
னி ங்
 சே கரிக்க
 வை ப்பது
 பிற ப்பு
 கூட்ட த்தை
 இருப்ப தாகக்
விட லாம்
 சமூக த்தைச்
 நிலை மையை
 பயன்படுத்த ிக்
 விவசாய ி
 சங்க ர
 சூழ லை
 அடை ந்தது
 புது ப்பிக்க
 டிர ெ
 கோரிக்கை களை
 ஆறு முக
 அதிர்ச்ச ியடைந்த
 ஏற்பட வில்லை
 ஆராய்ச்ச ியாளர்கள்
 கார்த்த ி
 ஆங்கில ேய
 சிறும ியை
 மனோ ஜ்
 உருவான து
  g
  க்கும்
7 2
ப ஸ்
ய ன்
 வ ற
 அ த்தனை
ட்ட ால்
டு ங்க
ஸ் லீ
ம்ப ில்
ாத ீங்க
கு டி
ட் ரி
ரா சரி
தே வ
 மீ ண்டு
 கொண்ட ிருந்தது
 திட்ட த்திற்கு
ல்க த்த
 பொரு ள்கள்
 உட ற்ப
 உண ர்
 உண ர்த்த
 எந்த க்
 நிறுவன த்தை
ிகளை த்
 சமூக த்தின்
 நிலைய ான
 நக ராட்ச
ியுள்ள ோம்
 விட்ட னர்
 வாழ் வில்
er s
வரி ட
 காட்ட ிலும்
 ஒருங்கிணை ந்த
 ஈடுபட்டு ள்ளனர்
 விமர்சி த்த
 விக்கெ ட்டை
 ஊழிய ர்களுக்கு
 வசூ லிக்க
 நான்க ாம்
 சிறுபான் மைய
 நுழ ைய
u p
இ வரின்
க ும்ப
த ூர்
ல ார்
ள த்தில்
 ப கல்
 வ ால்
 ம ௌ
 ம னி
 அ டியில்
ப்ப தன்
 வி தம்
 வி ஷ்ணு
 கொ ட்டி
ல்ல ாம்
 வே ல்
 தெ ப்ப
 பிர ான்
சி ஸ்
 அவ காசம்
 அமை ப்பில்
 அமை ப்பினர்
 தெரி ந்தது
கா ஷ்மீ
 ய ுக
 முதல் முறையாக
 தீ வு
 ஹ சீனா
 சில ையை
விட்ட ர்
 மணி நேர
 ஆர ்டர்
 ஆர ாதனை
 குடும்ப ங்கள்
 நிலைய த்திற்கு
 குழு வின
ப்பெ ரும்
சே ன
 ஒன்று க்கு
 நடக்க வில்லை
 ஒப்ப ிட
 அட ையும்
 சந்திர பாபு
 சமய ங்களில்
 அக்க றை
 பட்டிய லை
 ஏற்பட லாம்
அமெரிக்க ாவின்
 உருவாக ி
 கவுன் சில்
 சவால ்கள்
 தலைய ிட
 பாஜ கவ
 பெங்கள ூர்
 துப்பாக்கி ச்
தற்ப ோது
 அஸ் வின்
 மெட் ரோ
 வியாழ க்கிழமை
- ஐ
6 4
D o
ந ொ
ப ிரி
ப ணம்
ஹ ஸ்தி
 வ க்
 ந ாவ
தி ருக்க
 ஆ ங்காங்கே
 தே ர
 தெ ற்க
 நில ப்பர
ரா சா
 பு த்தி
மே ன்
 பல ன்கள்
 மூ ர்த்த
ியு மான
சு ர
 மேற்க ோ
கள ே
ராஜ ஸ்தான்
 நினை வில்
 தின த்த
 நடைபெற்ற ன
 வெளியே றும்
 நல்ல ா
 பிடி ஆர்
 செய்வ தில்
மோ டி
 கன க
 அண்ண ாமல
ப்படுவ தற்கு
 நெருக்க மாக
 புல ம்பெய
 வண ங்க
 ஆயுத ங்களை
 நம்பிக்க ையில்
பழ நி
 நெடு ஞ்ச
 பிற்ப கல்
