{
  "version": "1.0",
  "truncation": null,
  "padding": null,
  "added_tokens": [],
  "normalizer": null,
  "pre_tokenizer": {
    "type": "Sequence",
    "pretokenizers": [
      {
        "type": "Split",
        "pattern": {
          "Regex": "[^\\r\\n\\p{L}\\p{N}]?[\\p{Lu}\\p{Lt}\\p{Lm}\\p{Lo}\\p{M}]*[\\p{Ll}\\p{Lm}\\p{Lo}\\p{M}]+|[^\\r\\n\\p{L}\\p{N}]?[\\p{Lu}\\p{Lt}\\p{Lm}\\p{Lo}\\p{M}]+[\\p{Ll}\\p{Lm}\\p{Lo}\\p{M}]*|\\p{N}{1,3}| ?[^\\s\\p{L}\\p{N}]+[\\r\\n/]*|\\s*[\\r\\n]+|\\s+(?!\\S)|\\s+"
        },
        "behavior": "Isolated",
        "invert": false
      }
    ]
  },
  "post_processor": null,
  "decoder": null,
  "model": {
    "type": "BPE",
    "dropout": null,
    "unk_token": null,
    "continuing_subword_prefix": null,
    "end_of_word_suffix": null,
    "fuse_unk": false,
    "byte_fallback": false,
    "ignore_merges": false,
    "vocab": {
      "\n": 0,
      " ": 1,
      "!": 2,
      "\"": 3,
      "#": 4,
      "$": 5,
      "%": 6,
      "&": 7,
      "'": 8,
      "(": 9,
      ")": 10,
      "*": 11,
      "+": 12,
      ",": 13,
      "-": 14,
      ".": 15,
      "/": 16,
      "0": 17,
      "1": 18,
      "2": 19,
      "3": 20,
      "4": 21,
      "5": 22,
      "6": 23,
      "7": 24,
      "8": 25,
      "9": 26,
      ":": 27,
      ";": 28,
      "<": 29,
      "=": 30,
      ">": 31,
      "?": 32,
      "@": 33,
      "A": 34,
      "B": 35,
      "C": 36,
      "D": 37,
      "E": 38,
      "F": 39,
      "G": 40,
      "H": 41,
      "I": 42,
      "J": 43,
      "K": 44,
      "L": 45,
      "M": 46,
      "N": 47,
      "O": 48,
      "P": 49,
      "Q": 50,
      "R": 51,
      "S": 52,
      "T": 53,
      "U": 54,
      "V": 55,
      "W": 56,
      "X": 57,
      "Y": 58,
      "Z": 59,
      "[": 60,
      "\\": 61,
      "]": 62,
      "^": 63,
      "_": 64,
      "`": 65,
      "a": 66,
      "b": 67,
      "c": 68,
      "d": 69,
      "e": 70,
      "f": 71,
      "g": 72,
      "h": 73,
      "i": 74,
      "j": 75,
      "k": 76,
      "l": 77,
      "m": 78,
      "n": 79,
      "o": 80,
      "p": 81,
      "q": 82,
      "r": 83,
      "s": 84,
      "t": 85,
      "u": 86,
      "v": 87,
      "w": 88,
      "x": 89,
      "y": 90,
      "z": 91,
      "{": 92,
      "}": 93,
      "~": 94,
      "£": 95,
      "§": 96,
      "¨": 97,
      "­": 98,
      "®": 99,
      "°": 100,
      "·": 101,
      "½": 102,
      "Á": 103,
      "×": 104,
      "å": 105,
      "é": 106,
      "í": 107,
      "ñ": 108,
      "ô": 109,
      "õ": 110,
      "ö": 111,
      "÷": 112,
      "ł": 113,
      "ō": 114,
      "š": 115,
      "ʻ": 116,
      "إ": 117,
      "ا": 118,
      "د": 119,
      "ر": 120,
      "س": 121,
      "ل": 122,
      "م": 123,
      "ه": 124,
      "و": 125,
      "ي": 126,
      "ं": 127,
      "अ": 128,
      "आ": 129,
      "इ": 130,
      "ई": 131,
      "उ": 132,
      "ए": 133,
      "औ": 134,
      "क": 135,
      "ख": 136,
      "ग": 137,
      "घ": 138,
      "च": 139,
      "छ": 140,
      "ज": 141,
      "ट": 142,
      "ड": 143,
      "ण": 144,
      "त": 145,
      "थ": 146,
      "द": 147,
      "ध": 148,
      "न": 149,
      "प": 150,
      "फ": 151,
      "ब": 152,
      "भ": 153,
      "म": 154,
      "य": 155,
      "र": 156,
      "ल": 157,
      "व": 158,
      "श": 159,
      "ष": 160,
      "स": 161,
      "ह": 162,
      "़": 163,
      "ा": 164,
      "ि": 165,
      "ी": 166,
      "ु": 167,
      "ू": 168,
      "े": 169,
      "ै": 170,
      "ो": 171,
      "ौ": 172,
      "्": 173,
      "ड़": 174,
      "।": 175,
      "અ": 176,
      "આ": 177,
      "ઉ": 178,
      "ઓ": 179,
      "ક": 180,
      "ખ": 181,
      "જ": 182,
      "ટ": 183,
      "ણ": 184,
      "ત": 185,
      "થ": 186,
      "દ": 187,
      "ન": 188,
      "પ": 189,
      "ફ": 190,
      "ભ": 191,
      "મ": 192,
      "ય": 193,
      "ર": 194,
      "લ": 195,
      "વ": 196,
      "સ": 197,
      "ા": 198,
      "િ": 199,
      "ી": 200,
      "ે": 201,
      "ો": 202,
      "્": 203,
      "ஃ": 204,
      "அ": 205,
      "ஆ": 206,
      "இ": 207,
      "ஈ": 208,
      "உ": 209,
      "ஊ": 210,
      "எ": 211,
      "ஏ": 212,
      "ஐ": 213,
      "ஒ": 214,
      "ஓ": 215,
      "ஔ": 216,
      "க": 217,
      "ங": 218,
      "ச": 219,
      "ஜ": 220,
      "ஞ": 221,
      "ட": 222,
      "ண": 223,
      "த": 224,
      "ந": 225,
      "ன": 226,
      "ப": 227,
      "ம": 228,
      "ய": 229,
      "ர": 230,
      "ற": 231,
      "ல": 232,
      "ள": 233,
      "ழ": 234,
      "வ": 235,
      "ஶ": 236,
      "ஷ": 237,
      "ஸ": 238,
      "ஹ": 239,
      "ா": 240,
      "ி": 241,
      "ீ": 242,
      "ு": 243,
      "ூ": 244,
      "ெ": 245,
      "ே": 246,
      "ை": 247,
      "ொ": 248,
      "ோ": 249,
      "ௌ": 250,
      "்": 251,
      "௦": 252,
      "௧": 253,
      "௨": 254,
      "௩": 255,
      "௫": 256,
      "௬": 257,
      "௭": 258,
      "௹": 259,
      "‌": 260,
      "‍": 261,
      "‎": 262,
      "‛": 263,
      "‟": 264,
      "•": 265,
      "″": 266,
      "⁠": 267,
      "₂": 268,
      "€": 269,
      "₹": 270,
      "℅": 271,
      "⏩": 272,
      "●": 273,
      "◾": 274,
      "★": 275,
      "❔": 276,
      "⦁": 277,
      "": 278,
      "": 279,
      "": 280,
      "": 281,
      "": 282,
      "": 283,
      "": 284,
      "�": 285,
      "👇": 286,
      "💥": 287,
      "😂": 288,
      "😊": 289,
      "😐": 290,
      "😲": 291,
      "🛩": 292,
      "்க": 293,
      "்த": 294,
      "ம்": 295,
      "ல்": 296,
      "ன்": 297,
      " ப": 298,
      "க்க": 299,
      "்ட": 300,
      " க": 301,
      "ர்": 302,
      "த்த": 303,
      " வ": 304,
      " ம": 305,
      "ப்": 306,
      ".\n": 307,
      " த": 308,
      "ிய": 309,
      "ும்": 310,
      " ச": 311,
      "ள்": 312,
      "ந்த": 313,
      " அ": 314,
      "ப்ப": 315,
      "து": 316,
      "ில்": 317,
      "ரு": 318,
      "ட்ட": 319,
      " ந": 320,
      " இ": 321,
      " எ": 322,
      "ங்க": 323,
      "ைய": 324,
      "ாக": 325,
      "ற்": 326,
      "தி": 327,
      "ிற": 328,
      "க்கு": 329,
      "ின்": 330,
      "டு": 331,
      "்ச": 332,
      "று": 333,
      "ள்ள": 334,
      " உ": 335,
      "ண்ட": 336,
      "ார்": 337,
      "ிர": 338,
      "ார": 339,
      "த்து": 340,
      "ில": 341,
      " ஆ": 342,
      "ான": 343,
      "டி": 344,
      " மு": 345,
      " செ": 346,
      "வி": 347,
      "ற்ற": 348,
      "ர்க": 349,
      "லை": 350,
      "ிக": 351,
      " என்": 352,
      " வி": 353,
      "ரி": 354,
      "ட்டு": 355,
      "ந்து": 356,
      "ிரு": 357,
      " கு": 358,
      "வு": 359,
      "ால்": 360,
      "ளை": 361,
      " இரு": 362,
      " செய": 363,
      "ச்ச": 364,
      "றி": 365,
      "க்": 366,
      "ாவ": 367,
      "ஸ்": 368,
      " ஒ": 369,
      "த்": 370,
      " ர": 371,
      " போ": 372,
      "ப்பு": 373,
      "னர்": 374,
      "த்தில்": 375,
      "ையில்": 376,
      "னை": 377,
      "ளு": 378,
      "ான்": 379,
      "ால": 380,
      " கொ": 381,
      "ல்ல": 382,
      "மை": 383,
      " மா": 384,
      " பெ": 385,
      " நட": 386,
      "வர்": 387,
      "ாய": 388,
      " தொ": 389,
      "ற்க": 390,
      "க்கும்": 391,
      "ுக": 392,
      " கூ": 393,
      "ர்கள்": 394,
      " வே": 395,
      "மி": 396,
      "வர": 397,
      "ன்ற": 398,
      "ப்பட்ட": 399,
      "ம்ப": 400,
      "ட்ச": 401,
      "ிறது": 402,
      "ாள": 403,
      "ுவ": 404,
      " இந்த": 405,
      " தே": 406,
      "ாத": 407,
      "ற்ப": 408,
      " உள்ள": 409,
      "கு": 410,
      " ஏ": 411,
      "டிய": 412,
      " வெ": 413,
      "ிட": 414,
      "கள்": 415,
      "ண்": 416,
      "ன்ன": 417,
      "ளில்": 418,
      "ிக்க": 419,
      "ின": 420,
      " பே": 421,
      " தெ": 422,
      "ண்டு": 423,
      " என": 424,
      "ங்கள்": 425,
      " பா": 426,
      "ாம": 427,
      " அதி": 428,
      " பிர": 429,
      "ச்": 430,
      "மாக": 431,
      "றை": 432,
      "ட்": 433,
      "ளுக்கு": 434,
      "வே": 435,
      "்கள்": 436,
      " கா": 437,
      "டுத்த": 438,
      " நா": 439,
      "திய": 440,
      "த்தை": 441,
      "தாக": 442,
      " ஒரு": 443,
      "ரச": 444,
      "வில்": 445,
      "மான": 446,
      "்ய": 447,
      " என்று": 448,
      "ணி": 449,
      " மற்ற": 450,
      " வழ": 451,
      " தொட": 452,
      "ரிய": 453,
      " வரு": 454,
      " கோ": 455,
      "டை": 456,
      " செய்த": 457,
      "ிட்ட": 458,
      "ற்று": 459,
      "இந்த": 460,
      "தற்க": 461,
      "ழு": 462,
      " நில": 463,
      "சி": 464,
      " மற்றும்": 465,
      "வை": 466,
      "ள்ளது": 467,
      "மு": 468,
      "ரா": 469,
      "தை": 470,
      " என்ற": 471,
      "்த்த": 472,
      " வர": 473,
      " ஜ": 474,
      "வும்": 475,
      "ன்று": 476,
      "டும்": 477,
      "டன்": 478,
      " அரச": 479,
      "ண்டும்": 480,
      " பொ": 481,
      "பி": 482,
      "ோது": 483,
      "..\n": 484,
      "ாம்": 485,
      "பு": 486,
      " மே": 487,
      "மா": 488,
      "னால்": 489,
      " பு": 490,
      "ையும்": 491,
      "டுக": 492,
      " அவ": 493,
      "தல்": 494,
      "ப்பட்டு": 495,
      " அமை": 496,
      " வீ": 497,
      "ளி": 498,
      " அதிக": 499,
      "ின்ற": 500,
      "நா": 501,
      "ழ்": 502,
      "ளின்": 503,
      "தே": 504,
      " மீ": 505,
      " குறி": 506,
      " வா": 507,
      " செய்ய": 508,
      "னி": 509,
      "ிறார்": 510,
      "மே": 511,
      " கே": 512,
      "ிற்க": 513,
      " நி": 514,
      "ியில்": 515,
      "ிருக்க": 516,
      " நீ": 517,
      " தெரி": 518,
      " தலை": 519,
      " சு": 520,
      " சே": 521,
      "னு": 522,
      "ண்ண": 523,
      "நில": 524,
      "ரை": 525,
      " தொடர்": 526,
      "களை": 527,
      " இருந்த": 528,
      " பல": 529,
      " வருக": 530,
      " என்ப": 531,
      "ையை": 532,
      "டுத்து": 533,
      "வா": 534,
      " மூ": 535,
      " வை": 536,
      " தெரிவி": 537,
      "சிய": 538,
      " வேண்டும்": 539,
      " எதி": 540,
      "ிருந்த": 541,
      "பெ": 542,
      " ஏற்ப": 543,
      " இட": 544,
      "தில்": 545,
      "ிகள்": 546,
      "ாய்": 547,
      "20": 548,
      "பா": 549,
      "ாரண": 550,
      " பய": 551,
      " இருக்க": 552,
      " ட": 553,
      "ார்கள்": 554,
      " நே": 555,
      "ியு": 556,
      "த்தின்": 557,
      "கா": 558,
      " நிற": 559,
      " கட": 560,
      "ய்": 561,
      " பார": 562,
      " ய": 563,
      " சி": 564,
      " து": 565,
      " சொ": 566,
      "முக": 567,
      " சிற": 568,
      " திரு": 569,
      "த்திய": 570,
      " அவர்": 571,
      " அறி": 572,
      "?\n": 573,
      " முதல்": 574,
      "டிக்க": 575,
      "ங்கு": 576,
      "லி": 577,
      "ஸ்ட": 578,
      " தமி": 579,
      "ிற்கு": 580,
      "ரும்": 581,
      "ட்சி": 582,
      "ளிய": 583,
      " ஓ": 584,
      "ங்களில்": 585,
      " இந்திய": 586,
      " வந்த": 587,
      "ட்டி": 588,
      "ள்ளார்": 589,
      "தன்": 590,
      " \"": 591,
      "ங்கள": 592,
      "ப்பட": 593,
      " தீ": 594,
      "ர்வ": 595,
      "லா": 596,
      "தற்கு": 597,
      "வர்க": 598,
      " பி": 599,
      "ஞ்ச": 600,
      "ியை": 601,
      " மக்க": 602,
      " ரா": 603,
      "ஆனால்": 604,
      "ரே": 605,
      "ப்பா": 606,
      "மைய": 607,
      "வது": 608,
      "ர்த": 609,
      "வர்கள்": 610,
      " ஆக": 611,
      " கொண்ட": 612,
      "வில்லை": 613,
      "னா": 614,
      "வ்": 615,
      " வெளிய": 616,
      "லும்": 617,
      "போ": 618,
      "ாது": 619,
      "ங்களை": 620,
      "ருக்கு": 621,
      "ணை": 622,
      " அந்த": 623,
      "க்கிய": 624,
      "லில்": 625,
      "லு": 626,
      "த்தி": 627,
      " நடை": 628,
      "ழக": 629,
      "ோம்": 630,
      " ல": 631,
      "ற்றி": 632,
      "ிக்": 633,
      "ிலும்": 634,
      "ழை": 635,
      " பண": 636,
      "்க்க": 637,
      "ரிக்க": 638,
      "ருத்து": 639,
      "செ": 640,
      " உய": 641,
      "இது": 642,
      "மன்ற": 643,
      "டுக்க": 644,
      " வழங்க": 645,
      " ஹ": 646,
      " இருந்து": 647,
      " தா": 648,
      " சில": 649,
      " அமைச்ச": 650,
      "ேன்": 651,
      "டைய": 652,
      " நிலையில்": 653,
      " சம": 654,
      "ப்பி": 655,
      "ூர்": 656,
      " (": 657,
      "லக": 658,
      "ப்பட்டது": 659,
      "ராக": 660,
      " ஊ": 661,
      " இர": 662,
      " முடி": 663,
      " சந்த": 664,
      "ஷ்": 665,
      "00": 666,
      " கால": 667,
      " தன": 668,
      "ர்ந்த": 669,
      "தும்": 670,
      " முடிய": 671,
      " முன்ன": 672,
      "லம்": 673,
      "விட்ட": 674,
      " அரசு": 675,
      "ும்ப": 676,
      " கூற": 677,
      " பிற": 678,
      "!\n": 679,
      "ிடம்": 680,
      "இத": 681,
      "ரோ": 682,
      "ளும்": 683,
      "ியல்": 684,
      "ப்படும்": 685,
      "கவ": 686,
      " சட்ட": 687,
      "ின்றனர்": 688,
      "மர்": 689,
      " நடைபெ": 690,
      "ியின்": 691,
      "ஸ்த": 692,
      " செய்து": 693,
      "லாம்": 694,
      "ாமல்": 695,
      "தால்": 696,
      "தா": 697,
      "ப்படுக": 698,
      " தி": 699,
      "ர்த்த": 700,
      " தேர்த": 701,
      "ாவில்": 702,
      "ட்டில்": 703,
      "ாவட்ட": 704,
      " பகு": 705,
      "சா": 706,
      " அனு": 707,
      "ாளர்": 708,
      "ிரி": 709,
      "னம்": 710,
      "த்தார்": 711,
      " மோ": 712,
      "ன்ப": 713,
      "ரம்": 714,
      " சா": 715,
      "ங்கி": 716,
      "ப்படி": 717,
      " பதி": 718,
      " மாவட்ட": 719,
      "ரில்": 720,
      " கிட": 721,
      "வுக்கு": 722,
      "ட்க": 723,
      " போல": 724,
      " இது": 725,
      "ன்னை": 726,
      "த்திற்கு": 727,
      "ப்போது": 728,
      "ழி": 729,
      " உள்ளது": 730,
      "கி": 731,
      " மாநில": 732,
      " திட்ட": 733,
      "ியா": 734,
      " ஆண்ட": 735,
      "ந்தது": 736,
      " கை": 737,
      "ல்லை": 738,
      "வரை": 739,
      "ரவ": 740,
      "ாலும்": 741,
      "தம்": 742,
      " விச": 743,
      " கூட்ட": 744,
      "களில்": 745,
      "தான்": 746,
      " தொடர்ப": 747,
      "லங்க": 748,
      " மிக": 749,
      " சீ": 750,
      " கட்ட": 751,
      "ஜக": 752,
      "ியாக": 753,
      "ல்க": 754,
      " அம": 755,
      "வீ": 756,
      "ொரு": 757,
      " பூ": 758,
      " குறித்து": 759,
      " ஆண்டு": 760,
      " அள": 761,
      "ிருந்து": 762,
      " காரண": 763,
      " ஆகிய": 764,
      "டம்": 765,
      "ட்டை": 766,
      "ருக": 767,
      "்ச்ச": 768,
      "..": 769,
      " பொரு": 770,
      " ரூ": 771,
      " இருக்கும்": 772,
      "க்கி": 773,
      " எழு": 774,
      "ந்திர": 775,
      " என்ன": 776,
      "ழந்த": 777,
      "ின்றன": 778,
      "சு": 779,
      "ாவின்": 780,
      "க்கம்": 781,
      " தான்": 782,
      "மும்": 783,
      " அதிகார": 784,
      "றைய": 785,
      "க்கான": 786,
      "ர்ச்ச": 787,
      " நிக": 788,
      ".க": 789,
      " விவ": 790,
      "ப்பை": 791,
      " கொண்டு": 792,
      " முன்": 793,
      " நிறுவ": 794,
      " ஈ": 795,
      " அனை": 796,
      "ிறார்கள்": 797,
      "ள்ளனர்": 798,
      "கர்": 799,
      " திர": 800,
      "ங்": 801,
      "த்திர": 802,
      "ப்பட்டுள்ளது": 803,
      "ங்களுக்கு": 804,
      " உறு": 805,
      "ொண்ட": 806,
      " என்பது": 807,
      "றுக": 808,
      "திக்க": 809,
      " கட்ச": 810,
      " கல": 811,
      " சூ": 812,
      "எஸ்": 813,
      "கம்": 814,
      " மருத்து": 815,
      " பொது": 816,
      " தேதி": 817,
      " கடந்த": 818,
      "ையே": 819,
      " கண": 820,
      "வாக": 821,
      " பின்": 822,
      "ியது": 823,
      " -": 824,
      "ளாக": 825,
      " நெ": 826,
      "க்த": 827,
      " கிடை": 828,
      "ாவது": 829,
      " உட": 830,
      "ப்போ": 831,
      " வருகிறது": 832,
      "ட்ப": 833,
      "ப்படுகிறது": 834,
      " சம்ப": 835,
      " இருப்ப": 836,
      " நீதி": 837,
      " கிர": 838,
      " தர": 839,
      "விர": 840,
      " மேற்க": 841,
      "ணம்": 842,
      " இய": 843,
      " சேர்ந்த": 844,
      " ஆத": 845,
      "தவி": 846,
      "்தான்": 847,
      "வம்": 848,
      " பாஜக": 849,
      " வரும்": 850,
      " தனது": 851,
      "ினார்": 852,
      " அடி": 853,
      " மணி": 854,
      "...\n": 855,
      " என்றும்": 856,
      "வெ": 857,
      "ப்படுத்த": 858,
      "நீ": 859,
      "கார": 860,
      "ையா": 861,
      "மேலும்": 862,
      " ஐ": 863,
      " பேச": 864,
      " இல்லை": 865,
      " கி": 866,
      " மாண": 867,
      " போட்ட": 868,
      "ங்கிர": 869,
      "ஆம்": 870,
      " கூறி": 871,
      " மக்கள்": 872,
      "ம்ம": 873,
      "தல": 874,
      "தியில்": 875,
      " குறை": 876,
      " கரு": 877,
      "ெல்ல": 878,
      "பதி": 879,
      " முக்கிய": 880,
      "வடிக்க": 881,
      " பிரத": 882,
      "துகா": 883,
      " நடவடிக்க": 884,
      "ொள்ள": 885,
      "ெய": 886,
      "ேய": 887,
      "தேச": 888,
      "202": 889,
      "ழ்நா": 890,
      " விள": 891,
      "போது": 892,
      " பழ": 893,
      "கை": 894,
      "த்துக்கு": 895,
      " விர": 896,
      " தெரிவித்து": 897,
      "வரும்": 898,
      "மார்": 899,
      " வரை": 900,
      "ோத": 901,
      " மட்டு": 902,
      " உண": 903,
      "ழ்ச்ச": 904,
      " எதிர்": 905,
      "டுவ": 906,
      " அறிவி": 907,
      "தாகவும்": 908,
      " பர": 909,
      " நோ": 910,
      "ன்க": 911,
      " மீது": 912,
      "ர்க்க": 913,
      " பாதுகா": 914,
      " அமைச்சர்": 915,
      "ாதார": 916,
      "ற்போது": 917,
      " புக": 918,
      " குறிப்ப": 919,
      " தகவ": 920,
      "அந்த": 921,
      " ராஜ": 922,
      "ாரி": 923,
      " '": 924,
      " மூலம்": 925,
      " பெற்ற": 926,
      " நேர": 927,
      " வந்து": 928,
      "ர்ந்து": 929,
      "ரிச": 930,
      " செல்ல": 931,
      " போலீ": 932,
      "யில்": 933,
      " பால": 934,
      " காவ": 935,
      " பட": 936,
      " உரு": 937,
      "\",": 938,
      " தோ": 939,
      "கள": 940,
      "ல்ப": 941,
      "ந்": 942,
      " பெய": 943,
      " ஆண்டுக": 944,
      "ர்களை": 945,
      " தொடர்ந்து": 946,
      " குற்ற": 947,
      "ழுவ": 948,
      "ிருக்கிறது": 949,
      " சொல்ல": 950,
      " அவர": 951,
      " தெரிய": 952,
      "வ்வ": 953,
      "மீ": 954,
      " போன்ற": 955,
      " எந்த": 956,
      " காங்கிர": 957,
      "ர்களுக்கு": 958,
      " தலைவர்": 959,
      " பிறகு": 960,
      "அத": 961,
      " சென்ற": 962,
      " ஆர": 963,
      " டி": 964,
      "றும்": 965,
      "ர்வு": 966,
      "ாகி": 967,
      "க்கள்": 968,
      "ூக": 969,
      " நடவடிக்கை": 970,
      "பர்": 971,
      " என்க": 972,
      " உள்ளிட்ட": 973,
      "முறை": 974,
      "னார்": 975,
      " அல்ல": 976,
      "ையின்": 977,
      "ோர்": 978,
      "என": 979,
      "ஜி": 980,
      " கூறுக": 981,
      "ர்கள": 982,
      "10": 983,
      "ங்கே": 984,
      " இல்ல": 985,
      " இன்று": 986,
      " வேண்ட": 987,
      "க்காக": 988,
      " நிறுவன": 989,
      " வய": 990,
      " தொழ": 991,
      "ராஜ": 992,
      " வில": 993,
      " கூட": 994,
      " பார்த்த": 995,
      " தமிழக": 996,
      " ஷ": 997,
      "ிலிருந்து": 998,
      "க்கூ": 999,
      "ரீ": 1000,
      "ப்பில்": 1001,
      "டா": 1002,
      " அண": 1003,
      "19": 1004,
      "ரின்": 1005,
      "வேறு": 1006,
      "கட": 1007,
      "தற்காக": 1008,
      " நடத்த": 1009,
      " வேலை": 1010,
      "்து": 1011,
      "த்தர": 1012,
      "தான": 1013,
      " போது": 1014,
      " அணி": 1015,
      "ைக்கு": 1016,
      " வக": 1017,
      "ாளர்கள்": 1018,
      " மருத்துவ": 1019,
      "டும்ப": 1020,
      " வாய்": 1021,
      " தூ": 1022,
      "ெரிக்க": 1023,
      "ல்வ": 1024,
      "ிகளை": 1025,
      " முய": 1026,
      " ஸ்ட": 1027,
      " உலக": 1028,
      "ஸ்க": 1029,
      "பார": 1030,
      " விசாரண": 1031,
      "ணைய": 1032,
      " `": 1033,
      "க்கப்பட்ட": 1034,
      " ஏற்படுத்த": 1035,
      " பேசிய": 1036,
      "ோடு": 1037,
      " குழந்த": 1038,
      " கவ": 1039,
      " ஒன்ற": 1040,
      "விட": 1041,
      "ப்பது": 1042,
      " எடுத்து": 1043,
      " கண்ட": 1044,
      "ாள்": 1045,
      "வில": 1046,
      "ர்களின்": 1047,
      "ிருக்கிறார்": 1048,
      "டுப": 1049,
      " வார": 1050,
      " போரா": 1051,
      " காங்கிரஸ்": 1052,
      " வைத்து": 1053,
      " வள": 1054,
      " சந்தி": 1055,
      " ஸ்": 1056,
      " நான்": 1057,
      " கட்சி": 1058,
      "ாவை": 1059,
      " மாற்ற": 1060,
      " பயன்ப": 1061,
      "தற்கான": 1062,
      " மக": 1063,
      "ைகள்": 1064,
      " மத்திய": 1065,
      "படி": 1066,
      " தொடங்க": 1067,
      " வெளி": 1068,
      " இருக்கிறது": 1069,
      " மாத": 1070,
      " அழை": 1071,
      "றிய": 1072,
      "ென": 1073,
      " அல": 1074,
      " செய்": 1075,
      "யில": 1076,
      "தமி": 1077,
      "த்தது": 1078,
      "ேயே": 1079,
      " சமூக": 1080,
      " அது": 1081,
      "ல்வேறு": 1082,
      " சென்று": 1083,
      "ீர்": 1084,
      "ப்பின": 1085,
      " தய": 1086,
      " தேர்தல்": 1087,
      " குடும்ப": 1088,
      "இதனால்": 1089,
      " அவர்கள்": 1090,
      " நிலை": 1091,
      " பெரும்": 1092,
      " அரசியல்": 1093,
      " நினை": 1094,
      " முதல": 1095,
      "ச்சி": 1096,
      " சார்": 1097,
      "ியுள்ளது": 1098,
      "ள்க": 1099,
      "ாங்க": 1100,
      "ப்பட்டுள்ள": 1101,
      " ஆய": 1102,
      "பர": 1103,
      " நிலைய": 1104,
      " வழக்க": 1105,
      "ுக்கு": 1106,
      "ட்டும்": 1107,
      "201": 1108,
      " இரண்டு": 1109,
      " கலந்து": 1110,
      "வின்": 1111,
      " பெரிய": 1112,
      " பேர்": 1113,
      "விட்டு": 1114,
      " நம்ப": 1115,
      " ஆய்": 1116,
      " எண்ண": 1117,
      " நக": 1118,
      "ப்பாக": 1119,
      " பார்க்க": 1120,
      " பிரதமர்": 1121,
      " பல்வேறு": 1122,
      " வழக்கு": 1123,
      " எம்": 1124,
      "மது": 1125,
      " இணை": 1126,
      " மொ": 1127,
      " பகுதி": 1128,
      " அளி": 1129,
      "பிர": 1130,
      " கொள்ள": 1131,
      " நீதிமன்ற": 1132,
      " தின": 1133,
      " தமிழ்நா": 1134,
      "ஷ்ய": 1135,
      "நி": 1136,
      " விழ": 1137,
      " புதிய": 1138,
      "நாய": 1139,
      " காண": 1140,
      "ந்தி": 1141,
      "களுக்கு": 1142,
      " வாழ": 1143,
      "பே": 1144,
      " வழி": 1145,
      " லட்ச": 1146,
      " இலங்க": 1147,
      " நடைபெற்ற": 1148,
      " பக்த": 1149,
      " நடந்த": 1150,
      "ெட்": 1151,
      " கட்டு": 1152,
      " தற்போது": 1153,
      " நிர்வ": 1154,
      "ள்ளி": 1155,
      " கீ": 1156,
      "கோ": 1157,
      "ட்டம்": 1158,
      "ரான": 1159,
      " பிரி": 1160,
      "கடந்த": 1161,
      "தவ": 1162,
      " திரும": 1163,
      " தொடர்பாக": 1164,
      "டுகள்": 1165,
      " அதிமுக": 1166,
      " மீண்டும்": 1167,
      " எடுக்க": 1168,
      "ளுடன்": 1169,
      " இந்தியா": 1170,
      "சிக": 1171,
      " இற": 1172,
      " முறை": 1173,
      " அதிகரி": 1174,
      " பெரு": 1175,
      " கெ": 1176,
      " மட்டுமே": 1177,
      "ையாக": 1178,
      " திமுக": 1179,
      " ஈடுப": 1180,
      " செயல": 1181,
      "ஜ்": 1182,
      " அமெரிக்க": 1183,
      "ட்டிய": 1184,
      "த்துறை": 1185,
      "ல்வி": 1186,
      " நடி": 1187,
      "ிறேன்": 1188,
      "ிட்டு": 1189,
      ".பி": 1190,
      " முதல்வர்": 1191,
      " தெரிவித்தார்": 1192,
      " உத்தர": 1193,
      " மன": 1194,
      " வெற்றி": 1195,
      "யா": 1196,
      "ஒரு": 1197,
      " பெற்று": 1198,
      " அவரது": 1199,
      " தீர்": 1200,
      "வரு": 1201,
      " பெண": 1202,
      " நடந்தது": 1203,
      "ிருந்தார்": 1204,
      "அதே": 1205,
      " பாதுகாப்பு": 1206,
      "டியாக": 1207,
      " கேள்": 1208,
      "சென்னை": 1209,
      "ளுக்கும்": 1210,
      " பொறு": 1211,
      " காரணமாக": 1212,
      "மதி": 1213,
      "சை": 1214,
      " தங்க": 1215,
      " வீர": 1216,
      " பயன்படுத்த": 1217,
      " எல்ல": 1218,
      " ஆம்": 1219,
      "ளுமன்ற": 1220,
      "லோ": 1221,
      "டப்பா": 1222,
      "ஷ்ட": 1223,
      "ிருக்கும்": 1224,
      "நிலையில்": 1225,
      " என்பதை": 1226,
      " வகையில்": 1227,
      "த்தம்": 1228,
      " இருந்தது": 1229,
      " வாக்கு": 1230,
      " நிகழ்ச்ச": 1231,
      " திற": 1232,
      " செயல்ப": 1233,
      "ச்சு": 1234,
      "லிய": 1235,
      " சிறப்பு": 1236,
      " நிர்வாக": 1237,
      "ட்டின்": 1238,
      " நாள": 1239,
      " பாதி": 1240,
      "அதன்": 1241,
      " கூறினார்": 1242,
      "அது": 1243,
      "பட": 1244,
      " இஸ்": 1245,
      " அல்லது": 1246,
      " வைத்த": 1247,
      "ிறோம்": 1248,
      "கொ": 1249,
      " கார": 1250,
      "வான": 1251,
      " ஏற்பட்ட": 1252,
      " வருகின்றனர்": 1253,
      " வருவ": 1254,
      "டைந்த": 1255,
      " ரூப": 1256,
      " என்றார்": 1257,
      " நேற்று": 1258,
      " நிறை": 1259,
      " முடிவு": 1260,
      "இதில்": 1261,
      " கருத்து": 1262,
      " குழு": 1263,
      " தேசிய": 1264,
      "த்துடன்": 1265,
      " கைது": 1266,
      "ல்கள்": 1267,
      " அருக": 1268,
      "யம்": 1269,
      " அனைத்து": 1270,
      "அப்போது": 1271,
      "மையான": 1272,
      " படி": 1273,
      "ளாதார": 1274,
      " நிய": 1275,
      "டப்பாடி": 1276,
      "கிறது": 1277,
      " வெளியே": 1278,
      " செலு": 1279,
      "இந்": 1280,
      "ஸ்ட்": 1281,
      "ினர்": 1282,
      " இன்ன": 1283,
      "ற்ச": 1284,
      "ியும்": 1285,
      "சாய": 1286,
      "ருக்க": 1287,
      "ம்பி": 1288,
      "நே": 1289,
      "தியாக": 1290,
      "கே": 1291,
      "டக": 1292,
      "சார": 1293,
      ".எ": 1294,
      " துறை": 1295,
      " தெரிவித்த": 1296,
      "ையடுத்து": 1297,
      "்ட்": 1298,
      " அறிக்க": 1299,
      " ஆட்ச": 1300,
      " விஷ": 1301,
      "ணுவ": 1302,
      "ியர்": 1303,
      "ற்றை": 1304,
      "ிகி": 1305,
      " தாக்கு": 1306,
      " நாடுக": 1307,
      "மையாக": 1308,
      "-ம்": 1309,
      "தொ": 1310,
      "வன்": 1311,
      "ர்ம": 1312,
      " மாதம்": 1313,
      "பின்": 1314,
      " முடியும்": 1315,
      " சென்னை": 1316,
      "னாதி": 1317,
      "இந்திய": 1318,
      " வச": 1319,
      " கேள்வி": 1320,
      " உருவா": 1321,
      "ளவு": 1322,
      " அதை": 1323,
      " அக": 1324,
      ".மு": 1325,
      " மறு": 1326,
      "லுக்கு": 1327,
      "ச்சை": 1328,
      " மிகவும்": 1329,
      " வல": 1330,
      " சுவ": 1331,
      " கிராம": 1332,
      "றையில்": 1333,
      " ரஷ்ய": 1334,
      " நல்ல": 1335,
      " அலுவ": 1336,
      "ிருப்ப": 1337,
      "ையான": 1338,
      " விடு": 1339,
      " செய்யப்பட்ட": 1340,
      "சிர": 1341,
      "சில": 1342,
      " முழு": 1343,
      "டியோ": 1344,
      "அதி": 1345,
      "ிலேயே": 1346,
      "30": 1347,
      "வர்களுக்கு": 1348,
      " சிறு": 1349,
      " தனி": 1350,
      " குறித்த": 1351,
      "ாகு": 1352,
      "ளம்": 1353,
      " வாய்ப்பு": 1354,
      "ாலின்": 1355,
      " ஃ": 1356,
      "்கு": 1357,
      " தொகு": 1358,
      " முக": 1359,
      "டுப்ப": 1360,
      " பிடி": 1361,
      "திரு": 1362,
      " சோ": 1363,
      "ளா": 1364,
      " பணி": 1365,
      " விமான": 1366,
      "களின்": 1367,
      " பதிவு": 1368,
      " எப்படி": 1369,
      " வாங்க": 1370,
      "விழ": 1371,
      " விசாரணை": 1372,
      "ொண்டு": 1373,
      " பற்றி": 1374,
      "ற்சி": 1375,
      " தேவ": 1376,
      " பார்": 1377,
      "ப்பெ": 1378,
      " முடியாது": 1379,
      " பொருளாதார": 1380,
      "நர்": 1381,
      " காவல": 1382,
      " என்கிறார்": 1383,
      " தவ": 1384,
      " விவகார": 1385,
      "ிலான": 1386,
      "15": 1387,
      "மூ": 1388,
      " அடுத்த": 1389,
      " மருத்துவம": 1390,
      "னித": 1391,
      "இந்நிலையில்": 1392,
      " கோடி": 1393,
      "ாமி": 1394,
      " எடப்பாடி": 1395,
      " தலைமை": 1396,
      " விரு": 1397,
      "பால": 1398,
      "சாமி": 1399,
      "பை": 1400,
      " முழுவ": 1401,
      "ாட்டு": 1402,
      " சாத": 1403,
      "சே": 1404,
      " எதிராக": 1405,
      "ற்றிய": 1406,
      "சன": 1407,
      " விமர்": 1408,
      " சிக்க": 1409,
      " பெண்": 1410,
      "12": 1411,
      " தாக்க": 1412,
      " பழனி": 1413,
      " உரி": 1414,
      "ிருந்தது": 1415,
      "ண்ட்": 1416,
      "ாட": 1417,
      " விட": 1418,
      "ிக்கை": 1419,
      " உற": 1420,
      " தகவல்": 1421,
      "லாக": 1422,
      "அவர்": 1423,
      "குறி": 1424,
      " நடந்து": 1425,
      " கடை": 1426,
      " அங்கு": 1427,
      " பூஜ": 1428,
      " குறிப்பிட": 1429,
      " தெரிவிக்க": 1430,
      " ஆளு": 1431,
      "த்துவ": 1432,
      " மணிக்கு": 1433,
      " ஜனாதி": 1434,
      "மைச்ச": 1435,
      " முன்னாள்": 1436,
      " செய்வ": 1437,
      " தேர்தலில்": 1438,
      " மர": 1439,
      " நாட்க": 1440,
      " பகுதியில்": 1441,
      "தியை": 1442,
      "பிஎஸ்": 1443,
      "ிகளில்": 1444,
      "பல": 1445,
      "ப்ட": 1446,
      " இல": 1447,
      " கேட்ட": 1448,
      " முன்பு": 1449,
      " கொடுத்த": 1450,
      " ஒருவர்": 1451,
      "செய": 1452,
      " பாதிக்க": 1453,
      "இரு": 1454,
      " விவசாய": 1455,
      "ைப்பட": 1456,
      " ஒன்று": 1457,
      " குழந்தை": 1458,
      "ங்களின்": 1459,
      " நிறு": 1460,
      "சார்": 1461,
      "ரோனா": 1462,
      " அதன்": 1463,
      " மதி": 1464,
      " தீவிர": 1465,
      " வாக": 1466,
      "னுக்கு": 1467,
      "மையில்": 1468,
      " மின்": 1469,
      " மெ": 1470,
      " உணவு": 1471,
      " பதவி": 1472,
      " பயண": 1473,
      "நிலை": 1474,
      "ியுள்ளார்": 1475,
      "ீடு": 1476,
      " நடத்தி": 1477,
      "ன்னு": 1478,
      " சார்ப": 1479,
      " பிரச்": 1480,
      " சிகி": 1481,
      "ர்ச்சி": 1482,
      " நாம்": 1483,
      "எனவே": 1484,
      "ஆர்": 1485,
      "ஷே": 1486,
      "த்தால்": 1487,
      " ஆய்வு": 1488,
      "த்துள்ளது": 1489,
      "மோ": 1490,
      " தொழில்": 1491,
      "ஸ்தான்": 1492,
      " டெ": 1493,
      " அத": 1494,
      " நிகழ்": 1495,
      "ார்க": 1496,
      "ஸ்தான": 1497,
      " மூல": 1498,
      ".எஸ்": 1499,
      " பக்தர்கள்": 1500,
      " அரு": 1501,
      "த்திற்க": 1502,
      " உள்ளன": 1503,
      "னே": 1504,
      " அங்க": 1505,
      "லைக்க": 1506,
      " மட்டும்": 1507,
      " ஜெய": 1508,
      " அதிகாரிகள்": 1509,
      " பரி": 1510,
      " ஆர்": 1511,
      "னின்": 1512,
      "மொ": 1513,
      " வைக்க": 1514,
      " கூறிய": 1515,
      " மது": 1516,
      " வங்க": 1517,
      "ியுள்ள": 1518,
      " வேண்டிய": 1519,
      "ப்பே": 1520,
      " எதிர்க": 1521,
      "ந்த்": 1522,
      " கோவில": 1523,
      " வீடியோ": 1524,
      " பாட": 1525,
      ".ஜ": 1526,
      "ர்த்து": 1527,
      " ராணுவ": 1528,
      " உயர்": 1529,
      "ீர": 1530,
      "50": 1531,
      "ுடன்": 1532,
      "வ்வொரு": 1533,
      " இலங்கை": 1534,
      "11": 1535,
      " நடக்க": 1536,
      "தலை": 1537,
      " குறிப்பிட்ட": 1538,
      " கடி": 1539,
      "சன்": 1540,
      "னில்": 1541,
      " நான": 1542,
      " சங்க": 1543,
      "ட்டத்தில்": 1544,
      " தடை": 1545,
      "ரிடம்": 1546,
      " நிதி": 1547,
      "த்தான்": 1548,
      "த்தையும்": 1549,
      " ராம": 1550,
      " சொன்ன": 1551,
      "த்தா": 1552,
      "இதன்": 1553,
      " ஆயிர": 1554,
      " தன்": 1555,
      " செல": 1556,
      " முழுவதும்": 1557,
      "ப்புகள்": 1558,
      " ட்": 1559,
      " மூன்று": 1560,
      " அபி": 1561,
      " காலை": 1562,
      " சூழ": 1563,
      " ஸ்ரீ": 1564,
      "ெல்லி": 1565,
      "ண்டி": 1566,
      " விளையா": 1567,
      "னும்": 1568,
      "ம்மன்": 1569,
      " செல்": 1570,
      " விட்டு": 1571,
      "டியே": 1572,
      "நிதி": 1573,
      " பட்ட": 1574,
      " கன": 1575,
      " வேறு": 1576,
      " பெற": 1577,
      " தமிழ்நாடு": 1578,
      "ன்கள்": 1579,
      " கடு": 1580,
      " கொடுக்க": 1581,
      "பூ": 1582,
      " இடங்களில்": 1583,
      "நான்": 1584,
      " தந்த": 1585,
      "ப்பிர": 1586,
      " காவல்து": 1587,
      " இஸ்ரே": 1588,
      " ஆதரவ": 1589,
      " நேரத்தில்": 1590,
      " ஜன": 1591,
      "200": 1592,
      "000": 1593,
      "ட்கள்": 1594,
      " மேலும்": 1595,
      " தெரிவித்துள்ளார்": 1596,
      " தொழில": 1597,
      "டாளுமன்ற": 1598,
      "க்கெ": 1599,
      "க்கோ": 1600,
      " கொள்க": 1601,
      "கர": 1602,
      " சம்பவம்": 1603,
      " ரூபாய்": 1604,
      "அதில்": 1605,
      " நிர": 1606,
      " விஜ": 1607,
      " செய்யும்": 1608,
      " சிவ": 1609,
      " ஆட்சி": 1610,
      " சுற்று": 1611,
      " மனை": 1612,
      " இத": 1613,
      " உதவி": 1614,
      " உறுதி": 1615,
      " அண்ண": 1616,
      " கல்ல": 1617,
      "ிகளுக்கு": 1618,
      "ெல்லாம்": 1619,
      " ஊழ": 1620,
      " வயது": 1621,
      "ஸ்வர": 1622,
      " ஒப்ப": 1623,
      " போட்டிய": 1624,
      " நு": 1625,
      " லட்சம்": 1626,
      "ந்துள்ளது": 1627,
      " பங்கே": 1628,
      "போல": 1629,
      " விரும்ப": 1630,
      "வருக்கு": 1631,
      " துணை": 1632,
      " பள்ள": 1633,
      " சரிய": 1634,
      "ப்படுவ": 1635,
      " உச்ச": 1636,
      " அலுவலக": 1637,
      "an": 1638,
      " அவரை": 1639,
      "வராக": 1640,
      "பத்தில்": 1641,
      "களும்": 1642,
      " தவிர": 1643,
      " தேர்வு": 1644,
      "ருந்து": 1645,
      "த்தக்க": 1646,
      "ுகள்": 1647,
      " நாள்": 1648,
      "நாட்டு": 1649,
      " உயிரி": 1650,
      " கீழ்": 1651,
      "ம்பர்": 1652,
      "ளைஞ": 1653,
      "ாடு": 1654,
      " சம்பவ": 1655,
      " தொடர்பான": 1656,
      " காரணம்": 1657,
      " யார": 1658,
      " இடையே": 1659,
      " யா": 1660,
      "பொ": 1661,
      " இப்போது": 1662,
      " ஆணைய": 1663,
      " பார்த்து": 1664,
      "ரவு": 1665,
      "விட்டது": 1666,
      " ``": 1667,
      "ளுக்கான": 1668,
      " நாங்கள்": 1669,
      " கோவில்": 1670,
      " ஒரே": 1671,
      "தொட": 1672,
      "வர்களை": 1673,
      " ஜனாதிபதி": 1674,
      "ினால்": 1675,
      "இதையடுத்து": 1676,
      " மோச": 1677,
      " தமிழ": 1678,
      "றுத்த": 1679,
      " அடிப்பட": 1680,
      "க்குறி": 1681,
      " கேட்டு": 1682,
      "த்தக": 1683,
      "ினி": 1684,
      " விழா": 1685,
      " தேவை": 1686,
      " உடல்": 1687,
      " வருகிறார்": 1688,
      " மேற்ப": 1689,
      " யோ": 1690,
      " எதிர்பார": 1691,
      " கூறப்படுகிறது": 1692,
      " ஆலோ": 1693,
      " அடை": 1694,
      "ாட்ட": 1695,
      " கல்வி": 1696,
      "ரசு": 1697,
      " போலீஸ": 1698,
      "இதை": 1699,
      "ரிக்கை": 1700,
      "வரின்": 1701,
      " மாவட்டம்": 1702,
      "லைய": 1703,
      " கோயில": 1704,
      " அளிக்க": 1705,
      "த்திலும்": 1706,
      "மெ": 1707,
      " பிரதேச": 1708,
      "ருக்கும்": 1709,
      " உறுப்பின": 1710,
      " விதி": 1711,
      "ோதனை": 1712,
      " அவருக்கு": 1713,
      " உண்": 1714,
      "ாச": 1715,
      " தங்கள்": 1716,
      "ும்போது": 1717,
      "க்கொண்ட": 1718,
      " அர": 1719,
      "ள்வ": 1720,
      " ஸ்டாலின்": 1721,
      " இரண்ட": 1722,
      "்டர்": 1723,
      "லின்": 1724,
      " ஜூ": 1725,
      "அதை": 1726,
      "த்தனர்": 1727,
      " சுமார்": 1728,
      " வாகன": 1729,
      " மைய": 1730,
      "ரல்": 1731,
      "ர்வதேச": 1732,
      " உத": 1733,
      " இளைஞ": 1734,
      "ப்பின்": 1735,
      " கண்டு": 1736,
      " விஷய": 1737,
      "18": 1738,
      " பேர": 1739,
      " கொலை": 1740,
      "தலில்": 1741,
      "ட்டுக்கு": 1742,
      " சிகிச்சை": 1743,
      "வர்களின்": 1744,
      " இன்னும்": 1745,
      " வீட்டில்": 1746,
      " மேற்கொள்ள": 1747,
      " ஜெ": 1748,
      " போக": 1749,
      "ஷ்ண": 1750,
      " கள": 1751,
      "ியார்": 1752,
      "ழமை": 1753,
      "்களை": 1754,
      " ஏன்": 1755,
      "நீதி": 1756,
      "இதற்கு": 1757,
      " கொரோனா": 1758,
      "ங்கும்": 1759,
      " சார்பில்": 1760,
      " ரயில்": 1761,
      " காந்தி": 1762,
      " மோடி": 1763,
      " கோயில்": 1764,
      "்கா": 1765,
      " உட்ப": 1766,
      "மையை": 1767,
      "ிகள": 1768,
      " நாடாளுமன்ற": 1769,
      " இந்து": 1770,
      "சீ": 1771,
      "ானது": 1772,
      "தாகக்": 1773,
      " வந்தது": 1774,
      " கூட்டணி": 1775,
      " காய": 1776,
      " நடைபெற்றது": 1777,
      " பிரச்னை": 1778,
      " வேட்ப": 1779,
      "ங்களும்": 1780,
      " மட்டும": 1781,
      " அளவில்": 1782,
      "க்கில்": 1783,
      " ஏற்பட்டு": 1784,
      " இணைய": 1785,
      "ம்பெ": 1786,
      " ஏற்க": 1787,
      " மேல்": 1788,
      "தெ": 1789,
      "ற்றில்": 1790,
      " சரி": 1791,
      "க்களை": 1792,
      " சத": 1793,
      "ூட": 1794,
      " பயி": 1795,
      " துவ": 1796,
      "தில்லை": 1797,
      "ம்மா": 1798,
      " முறைய": 1799,
      " கிடைக்க": 1800,
      " புற": 1801,
      "லே": 1802,
      " பந்து": 1803,
      " வட": 1804,
      " விட்ட": 1805,
      " ராகு": 1806,
      " செய்தி": 1807,
      "ங்கிய": 1808,
      "னையில்": 1809,
      "க்கத்தில்": 1810,
      " தமிழ்": 1811,
      "ிடையே": 1812,
      " அழைத்து": 1813,
      "ுள்ள": 1814,
      "ணிய": 1815,
      "முதல்": 1816,
      "தமிழ்நா": 1817,
      " கூறுகிறார்": 1818,
      " அடைய": 1819,
      " கட்சியின்": 1820,
      "14": 1821,
      "ஃப்": 1822,
      "சோ": 1823,
      " எனக்கு": 1824,
      " அருகே": 1825,
      "தோ": 1826,
      " படை": 1827,
      " ஏற்று": 1828,
      " பதவ": 1829,
      " ஒது": 1830,
      " அரசாங்க": 1831,
      " வாழ்க்க": 1832,
      " மத": 1833,
      " திரும்ப": 1834,
      "ல்களை": 1835,
      "க்ரை": 1836,
      " நூ": 1837,
      "மைச்சர்": 1838,
      "ஷன்": 1839,
      " கொடுத்து": 1840,
      "புரம்": 1841,
      "in": 1842,
      "க்கள": 1843,
      " மி": 1844,
      " வெள்ள": 1845,
      "பாடு": 1846,
      "வின": 1847,
      " குடிய": 1848,
      " அப்ப": 1849,
      " பின்னர்": 1850,
      " செயல்": 1851,
      "வ்வா": 1852,
      "ண்ப": 1853,
      "மக்கள்": 1854,
      "நாத": 1855,
      " இறு": 1856,
      " புது": 1857,
      " அனுப்ப": 1858,
      " மனித": 1859,
      "த்தும்": 1860,
      "ருவ": 1861,
      " நப": 1862,
      "த்துக்": 1863,
      "ஞ்சா": 1864,
      " தீர்மான": 1865,
      " அனுமதி": 1866,
      " மண்ட": 1867,
      " வாழ்": 1868,
      " கல்லூ": 1869,
      " டிர": 1870,
      " விரை": 1871,
      " அரசின்": 1872,
      " அற": 1873,
      "ார்த்த": 1874,
      " எனவும்": 1875,
      " பெண்கள்": 1876,
      "தற்போது": 1877,
      "ர்ப்ப": 1878,
      " வகு": 1879,
      " எதிர்க்க": 1880,
      " சிங்": 1881,
      " இன்": 1882,
      " நெருக்க": 1883,
      " ஆலோச": 1884,
      "ாக்": 1885,
      " விலை": 1886,
      "ள்ளன": 1887,
      " செயலாளர்": 1888,
      " என்றால்": 1889,
      " பல்க": 1890,
      "நு": 1891,
      "திகள்": 1892,
      " பரிச": 1893,
      " கிடைக்கும்": 1894,
      " மகி": 1895,
      "சம்": 1896,
      " உள்ளனர்": 1897,
      " காவல்": 1898,
      " செல்வ": 1899,
      "தள": 1900,
      " பரபர": 1901,
      " நம்": 1902,
      "ரம": 1903,
      " ஒவ்வொரு": 1904,
      " பிரச்ச": 1905,
      "றுவ": 1906,
      "வுடன்": 1907,
      "தமிழக": 1908,
      " குறிப்பி": 1909,
      " தயார": 1910,
      " அரசிய": 1911,
      " நிறைவே": 1912,
      " சொந்த": 1913,
      " இல்லாத": 1914,
      " வரலா": 1915,
      "லர்": 1916,
      " அதிபர்": 1917,
      " எது": 1918,
      "பிசி": 1919,
      " சக": 1920,
      " அனும": 1921,
      " கிள": 1922,
      "பின்னர்": 1923,
      "ிகளின்": 1924,
      " பாத": 1925,
      "ப்பாளர்": 1926,
      "சூ": 1927,
      " புகார்": 1928,
      " பணம்": 1929,
      " ரசிக": 1930,
      " செய்தனர்": 1931,
      "க்கொள்ள": 1932,
      " குரு": 1933,
      " வேக": 1934,
      "டுகளை": 1935,
      "ம்பு": 1936,
      " ஜோ": 1937,
      " மக்கள": 1938,
      " சுவாமி": 1939,
      "ன்னி": 1940,
      "க்கிர": 1941,
      " இழ": 1942,
      "வர்கள": 1943,
      "16": 1944,
      "ற்றம்": 1945,
      " எடுத்த": 1946,
      "ர்ப": 1947,
      "த்தைச்": 1948,
      "ர்களும்": 1949,
      " பாதிப்பு": 1950,
      "ாலி": 1951,
      " போராட்ட": 1952,
      " ரீ": 1953,
      " அமைப்பு": 1954,
      " திட்டம்": 1955,
      "ரையா": 1956,
      " மேற்பட்ட": 1957,
      " தொடங்கி": 1958,
      "ப்த": 1959,
      " உரிமை": 1960,
      "13": 1961,
      " மை": 1962,
      " பேச்ச": 1963,
      "நக": 1964,
      " சுக": 1965,
      "ிருஷ்ண": 1966,
      "கன்": 1967,
      "இலங்க": 1968,
      "வுகள்": 1969,
      " குடி": 1970,
      " பை": 1971,
      " வலியு": 1972,
      " குறிப்பிடத்தக்க": 1973,
      "க்கொ": 1974,
      "ியாள": 1975,
      "ாண்ட": 1976,
      " எனக்": 1977,
      "ணா": 1978,
      " ஓபிஎஸ்": 1979,
      " தள": 1980,
      " கண்ண": 1981,
      " வருட": 1982,
      "க்கூடிய": 1983,
      "க்குள்": 1984,
      " பாகி": 1985,
      " நீதிபதி": 1986,
      "ரிக": 1987,
      "ப்பூ": 1988,
      " விற்ப": 1989,
      "ஹி": 1990,
      "ட்டர்": 1991,
      "ிரே": 1992,
      " மாலை": 1993,
      " இருக்கிறார்": 1994,
      "25": 1995,
      "ாரம்": 1996,
      "மாறு": 1997,
      "ுத": 1998,
      "வாள": 1999,
      "களையும்": 2000,
      "த்துள்ளார்": 2001,
      " வருகின்றன": 2002,
      "ியான": 2003,
      ".ஏ": 2004,
      " கைய": 2005,
      " முன்ப": 2006,
      " நாய": 2007,
      " சர்வதேச": 2008,
      "er": 2009,
      " உடன": 2010,
      " மழை": 2011,
      "ன்னீர்": 2012,
      " ஏற்படும்": 2013,
      " ஊடக": 2014,
      " பத்திர": 2015,
      " இரவு": 2016,
      " இயக்கு": 2017,
      "கொண்ட": 2018,
      " குற்றம்": 2019,
      " ஈடுபட்ட": 2020,
      " வெற்ற": 2021,
      " நேரம்": 2022,
      " நல": 2023,
      "த்தீ": 2024,
      "ப்பினர்": 2025,
      " நாடு": 2026,
      " போலீசார்": 2027,
      "விரு": 2028,
      "ில்தான்": 2029,
      " இடத்தில்": 2030,
      "ியே": 2031,
      " என்பதால்": 2032,
      " அதிகமாக": 2033,
      " தொடர்பு": 2034,
      "க்கூட": 2035,
      "லைக்கழக": 2036,
      "மைப்பு": 2037,
      "ர்த்தி": 2038,
      " ஆகியோர்": 2039,
      "நீதிமன்ற": 2040,
      " செய்க": 2041,
      " வேண்டு": 2042,
      "ாதம்": 2043,
      " கண்கா": 2044,
      " திட": 2045,
      " வைர": 2046,
      "ோக": 2047,
      " நடைபெறும்": 2048,
      "17": 2049,
      " காத": 2050,
      " சின்": 2051,
      "ிறு": 2052,
      "100": 2053,
      "24": 2054,
      "டுத்துவ": 2055,
      "ஜா": 2056,
      " சேவை": 2057,
      " கேட்க": 2058,
      " அதற்கு": 2059,
      " ஆப": 2060,
      " செலுத்த": 2061,
      " வரவே": 2062,
      " உள்": 2063,
      "த்தினர்": 2064,
      " பீ": 2065,
      "த்தியில்": 2066,
      "ாரா": 2067,
      "நோ": 2068,
      "மானது": 2069,
      " பழனிசாமி": 2070,
      " அடிப்படையில்": 2071,
      " எதிரான": 2072,
      " அட": 2073,
      "த்தைப்": 2074,
      " மனைவி": 2075,
      "ப்பான": 2076,
      " நடத்திய": 2077,
      " கவன": 2078,
      "ங்கில": 2079,
      "ாமலை": 2080,
      " குற்றச்ச": 2081,
      "ாண": 2082,
      "வினர்": 2083,
      " போலீஸார்": 2084,
      " செல்லும்": 2085,
      "தந்திர": 2086,
      " பங்க": 2087,
      " நகர": 2088,
      " எதிர்ப்பு": 2089,
      "அதற்கு": 2090,
      " இதை": 2091,
      " வெளியிட்டு": 2092,
      "த்தொ": 2093,
      "ராள": 2094,
      "த்திட்ட": 2095,
      "பிற": 2096,
      " கலை": 2097,
      "க்குப்": 2098,
      " பூஜை": 2099,
      " இடை": 2100,
      " ஆசிர": 2101,
      "க்தி": 2102,
      ".எல்": 2103,
      " திட்டமி": 2104,
      "ிலோ": 2105,
      "்த்து": 2106,
      "ப்பட்டுள்ளன": 2107,
      " வழக்கில்": 2108,
      "மார": 2109,
      " ஆளுநர்": 2110,
      " தற்க": 2111,
      "டுவது": 2112,
      "ாடி": 2113,
      "வரி": 2114,
      "ட்டா": 2115,
      "ேஷ்": 2116,
      "ில்லிய": 2117,
      "at": 2118,
      "லாம": 2119,
      "ராட்சி": 2120,
      "க்குழு": 2121,
      " பள்ளி": 2122,
      "தீ": 2123,
      " ரோ": 2124,
      "த்தைக்": 2125,
      " பாரா": 2126,
      " பல்கலைக்கழக": 2127,
      "தியின்": 2128,
      " பிறந்த": 2129,
      " தண்ட": 2130,
      "ிருந்தனர்": 2131,
      " பகுதிகளில்": 2132,
      " காலத்தில்": 2133,
      " விழு": 2134,
      "ாளராக": 2135,
      " நிறுவனம்": 2136,
      "மற்ற": 2137,
      " ஆட்ட": 2138,
      " மூத்த": 2139,
      "விட்டார்": 2140,
      "அதனால்": 2141,
      " ரஷ்யா": 2142,
      " மேம்ப": 2143,
      "டுக்கும்": 2144,
      " ஆரம்பி": 2145,
      "ந்தில்": 2146,
      " போர்": 2147,
      " இடம்": 2148,
      "டல்": 2149,
      " ஆவ": 2150,
      " திருமணம்": 2151,
      " பயணம்": 2152,
      "்களுக்கு": 2153,
      " அதிகம்": 2154,
      " சீன": 2155,
      "ாவும்": 2156,
      "ரக": 2157,
      " காட்ட": 2158,
      "என்": 2159,
      "க்கண": 2160,
      "த்தின": 2161,
      "ன்னுடைய": 2162,
      " அதே": 2163,
      " உற்ப": 2164,
      "ியர்கள்": 2165,
      " பிரதி": 2166,
      "இர": 2167,
      " மறை": 2168,
      " ஆதரவு": 2169,
      " மனு": 2170,
      " போல்": 2171,
      " வெளியிட்ட": 2172,
      "வரது": 2173,
      " யார்": 2174,
      "போல்": 2175,
      " கட்டுப்பா": 2176,
      " மருத்துவமனை": 2177,
      " பெண்ண": 2178,
      "ற்கு": 2179,
      " வெளியாக": 2180,
      "ங்கிணை": 2181,
      " திரைப்பட": 2182,
      "க்கப்பட்டு": 2183,
      "ப்படவில்லை": 2184,
      " இணைந்து": 2185,
      "ரங்க": 2186,
      "ளிக்க": 2187,
      "வற்றை": 2188,
      " பரவ": 2189,
      " உதவ": 2190,
      "க்கே": 2191,
      " கர்": 2192,
      " ஆண்டுகளுக்கு": 2193,
      "விய": 2194,
      "ீர்கள்": 2195,
      "ங்களாக": 2196,
      " எச்ச": 2197,
      " குறிப்பிடத்தக்கது": 2198,
      " திருப்ப": 2199,
      " ,": 2200,
      "நகர்": 2201,
      "ர்களிடம்": 2202,
      ".ப": 2203,
      "எல்": 2204,
      "தையும்": 2205,
      "ஷி": 2206,
      "ப்பட்டன": 2207,
      " நோய": 2208,
      " அவசிய": 2209,
      "நாயக": 2210,
      "ிகை": 2211,
      "ாயம்": 2212,
      " திருவிழ": 2213,
      " நடைபெற": 2214,
      " கூடாது": 2215,
      "க்கை": 2216,
      " இள": 2217,
      " நடைபெற்று": 2218,
      " அளித்த": 2219,
      " வலை": 2220,
      "ன்றி": 2221,
      "டாக": 2222,
      "நுட்ப": 2223,
      " பாலியல்": 2224,
      " செய்தார்": 2225,
      " இதுவரை": 2226,
      "வ்வளவு": 2227,
      " முயற்சி": 2228,
      "சிக்க": 2229,
      " யூ": 2230,
      " தாக்குதல்": 2231,
      " சர்ச்ச": 2232,
      "ளுக்காக": 2233,
      " முன்னே": 2234,
      "on": 2235,
      " திருமண": 2236,
      "தன": 2237,
      " நீண்ட": 2238,
      " நீதிமன்றம்": 2239,
      " செய்யப்பட்டு": 2240,
      " பதில": 2241,
      "அரச": 2242,
      "கால": 2243,
      "ன்பு": 2244,
      " இல்லாமல்": 2245,
      " அதில்": 2246,
      " அடையாள": 2247,
      " நாடுகள்": 2248,
      " சதவீ": 2249,
      " மாணவர்கள்": 2250,
      "க்குறிப்பு": 2251,
      " உட்பட": 2252,
      "40": 2253,
      " டெல்லி": 2254,
      "ொலை": 2255,
      " மாணவி": 2256,
      " இந்தப்": 2257,
      " நீர்": 2258,
      " எஸ்": 2259,
      " விப": 2260,
      "ப்படை": 2261,
      "ள்ளதாக": 2262,
      "மில்": 2263,
      "ெய்": 2264,
      " இடம்பெ": 2265,
      " தனியார்": 2266,
      "ட்டிற்கு": 2267,
      " கூறுகையில்": 2268,
      "ந்திய": 2269,
      "தமாக": 2270,
      " பணியா": 2271,
      " ஆன": 2272,
      "டியில்": 2273,
      " தயாரி": 2274,
      "ங்களிலும்": 2275,
      "படக்குறிப்பு": 2276,
      "தொடர்ந்து": 2277,
      "பிடி": 2278,
      " வசி": 2279,
      " அறிக்கை": 2280,
      " உள்ளார்": 2281,
      " கோரிக்கை": 2282,
      " நீங்கள்": 2283,
      "மணி": 2284,
      "குதி": 2285,
      " பத": 2286,
      " வருமான": 2287,
      "23": 2288,
      " கடும்": 2289,
      " அலங்க": 2290,
      " ஒருங்கிணை": 2291,
      " விசாரி": 2292,
      "பட்ட": 2293,
      " தரிச": 2294,
      " சுகாதார": 2295,
      " பங்கு": 2296,
      "மான்": 2297,
      "ழ்த்த": 2298,
      " போட்டி": 2299,
      " பின்ன": 2300,
      " காட்ச": 2301,
      " இருந்தாலும்": 2302,
      "ிரா": 2303,
      " தலைமைய": 2304,
      " இங்கு": 2305,
      "வ்வாறு": 2306,
      " அழு": 2307,
      " நடக்கும்": 2308,
      "க்கார": 2309,
      " விரி": 2310,
      " நாட்டின்": 2311,
      "ணியில்": 2312,
      " பெயர்": 2313,
      "ஷா": 2314,
      "ன்ஸ்": 2315,
      " உங்கள்": 2316,
      " இருந்தார்": 2317,
      " இஸ்ரேல்": 2318,
      " இப்படி": 2319,
      " சந்தித்து": 2320,
      "பம்": 2321,
      "த்தன": 2322,
      " மாட்ட": 2323,
      " முடியாத": 2324,
      " தொகுதி": 2325,
      " போட்டு": 2326,
      " தாக்கல்": 2327,
      " ஆண்டுகளாக": 2328,
      " மாதி": 2329,
      " எதிர்பார்க்க": 2330,
      "இன்று": 2331,
      " குழுவ": 2332,
      " மாற": 2333,
      " கூட்டம்": 2334,
      " இருப்பதாக": 2335,
      "ழக்கு": 2336,
      "முறைய": 2337,
      " சட்டமன்ற": 2338,
      "ar": 2339,
      "ப்புற": 2340,
      "இதன": 2341,
      " மீதான": 2342,
      " புரி": 2343,
      " வடி": 2344,
      " எரி": 2345,
      "22": 2346,
      " மகிழ்ச்ச": 2347,
      "வைய": 2348,
      " தலைமையில்": 2349,
      "பார்": 2350,
      "ையிலான": 2351,
      " ரெ": 2352,
      " போக்கு": 2353,
      " யு": 2354,
      " ஜி": 2355,
      " உருவாக்க": 2356,
      " நான்கு": 2357,
      " கூடிய": 2358,
      "ஷேகம்": 2359,
      " பலர்": 2360,
      "அவர்கள்": 2361,
      "தார": 2362,
      " வீடு": 2363,
      " எல்லாம்": 2364,
      " நிகழ்ச்சி": 2365,
      ".சி": 2366,
      " தெரிவித்துள்ளது": 2367,
      " எண்ணிக்கை": 2368,
      " விக்": 2369,
      "ரவை": 2370,
      "க்கல்": 2371,
      "யூ": 2372,
      " தண்ண": 2373,
      " நிறுத்த": 2374,
      " கார்": 2375,
      "ங்கா": 2376,
      " மக்களுக்கு": 2377,
      " பிரிவு": 2378,
      "ிகா": 2379,
      " சிலர்": 2380,
      " ஆண்டில்": 2381,
      "ப்பினும்": 2382,
      " ரி": 2383,
      " அன்று": 2384,
      " டீ": 2385,
      "ியுடன்": 2386,
      "ியன்": 2387,
      " ஆரம்ப": 2388,
      " அவர்களின்": 2389,
      "்களில்": 2390,
      " ராகுல்": 2391,
      "ாட்சி": 2392,
      "ாளி": 2393,
      " தலைவர்கள்": 2394,
      " சட்டம்": 2395,
      "உலக": 2396,
      "ரத்தில்": 2397,
      "நாள்": 2398,
      " ஒதுக்க": 2399,
      "ன்னையில்": 2400,
      " உக்ரை": 2401,
      "ானா": 2402,
      " வெடி": 2403,
      " அதிகரித்து": 2404,
      " குறிப்பிட்டு": 2405,
      "ராளமான": 2406,
      " வேல": 2407,
      " அனைவரும்": 2408,
      "இருப்பினும்": 2409,
      "டியை": 2410,
      " முன்னிட்டு": 2411,
      "அதிமுக": 2412,
      "ில்லியன்": 2413,
      " திக": 2414,
      " சந்திர": 2415,
      "வெளி": 2416,
      "ன்களை": 2417,
      " வன்": 2418,
      ".தி": 2419,
      "னவே": 2420,
      " சோதனை": 2421,
      " வெளியிட": 2422,
      "ரேந்திர": 2423,
      " அமைக்க": 2424,
      "த்தே": 2425,
      "ானி": 2426,
      " அனுமதிக்க": 2427,
      " வரி": 2428,
      " வந்தார்": 2429,
      "ஞ்சி": 2430,
      "ரூ": 2431,
      " ஒப்பந்த": 2432,
      " ஆலோசனை": 2433,
      "ெடுக்க": 2434,
      " கூறியுள்ளார்": 2435,
      "ரள": 2436,
      " பலரும்": 2437,
      "றையை": 2438,
      "ிழமை": 2439,
      " தவற": 2440,
      " அளவுக்கு": 2441,
      "தாவது": 2442,
      "ிகளும்": 2443,
      " நியமி": 2444,
      "குறித்து": 2445,
      "அங்கு": 2446,
      "ருடன்": 2447,
      " அறிவு": 2448,
      " மார்": 2449,
      " அமெரிக்கா": 2450,
      "ஜரா": 2451,
      "அதாவது": 2452,
      "ஞர்": 2453,
      "மின்": 2454,
      "வச": 2455,
      " கூடு": 2456,
      "வுன்": 2457,
      " சொல்லி": 2458,
      "யி": 2459,
      " ஆன்": 2460,
      " சுதந்திர": 2461,
      " ஏற்பட்டது": 2462,
      "கிறார்": 2463,
      "தியான": 2464,
      " தகவல்கள்": 2465,
      "ப்படிய": 2466,
      " முக்கியமான": 2467,
      "ன்னீர்செ": 2468,
      "ய்ய": 2469,
      " ஆறு": 2470,
      "இப்போது": 2471,
      " போராட்டம்": 2472,
      "ளவில்": 2473,
      " சர": 2474,
      "ன்றால்": 2475,
      "நாயகர்": 2476,
      " ஆயிரம்": 2477,
      " தொழில்நுட்ப": 2478,
      "),": 2479,
      " பொருட்க": 2480,
      " அடிக்க": 2481,
      " காவல்துறை": 2482,
      ".ஆர்": 2483,
      " மாவட்டத்தில்": 2484,
      "ிலை": 2485,
      " தொலை": 2486,
      "அம": 2487,
      "நிய": 2488,
      "ப்பும்": 2489,
      "ாலையில்": 2490,
      " கடன்": 2491,
      "ங்களையும்": 2492,
      "ிலுள்ள": 2493,
      " கடுமையாக": 2494,
      " ஆர்வ": 2495,
      "விடம்": 2496,
      "``": 2497,
      "கிர": 2498,
      "ரன்": 2499,
      " பதில்": 2500,
      " போன": 2501,
      " ஆண்டுகள்": 2502,
      " அறிமுக": 2503,
      " தரப்பு": 2504,
      "ட்டிக்க": 2505,
      "இதனை": 2506,
      " அறிவிக்க": 2507,
      "ியுள்ளனர்": 2508,
      " கழி": 2509,
      " அனுப": 2510,
      " வான": 2511,
      " கோவிலில்": 2512,
      " குற்றச்சாட்டு": 2513,
      "வால்": 2514,
      " என்னை": 2515,
      " மாறி": 2516,
      "சிங்க": 2517,
      "நாடு": 2518,
      "யர்": 2519,
      " விற்பனை": 2520,
      "ர்மா": 2521,
      "க்ஸ்": 2522,
      "en": 2523,
      " படம்": 2524,
      "வருக்கும்": 2525,
      " மத்தியில்": 2526,
      " ஆராய": 2527,
      " ஒப்பு": 2528,
      " இறுதி": 2529,
      "என்று": 2530,
      "முன்ன": 2531,
      " ஆதி": 2532,
      " மேல": 2533,
      " கிலோ": 2534,
      " தேடி": 2535,
      " வெள": 2536,
      " உயிரிழந்த": 2537,
      " உடனடியாக": 2538,
      "வார": 2539,
      "டுப்பு": 2540,
      " போலீஸ்": 2541,
      "ஜெ": 2542,
      "களைப்": 2543,
      " பாதிக்கப்பட்ட": 2544,
      "க்கால": 2545,
      " கூட்டத்தில்": 2546,
      " மண": 2547,
      " எழுந்த": 2548,
      "சல்": 2549,
      " புதி": 2550,
      "ப்போதும்": 2551,
      " இருப்பது": 2552,
      ".,": 2553,
      ".டி": 2554,
      "பொரு": 2555,
      " முறையில்": 2556,
      " மகன்": 2557,
      "or": 2558,
      "டைந்து": 2559,
      " குறைந்த": 2560,
      "பட்ச": 2561,
      " சை": 2562,
      " ஏராளமான": 2563,
      " அவர்களுக்கு": 2564,
      " சந்தே": 2565,
      " முன்வை": 2566,
      " கிரிக்க": 2567,
      "மடைந்த": 2568,
      "விடும்": 2569,
      " புல": 2570,
      " கவனம்": 2571,
      " முதலமைச்சர்": 2572,
      "நெ": 2573,
      " முறையாக": 2574,
      "வால": 2575,
      " உற்ச": 2576,
      "ஸ்திரே": 2577,
      "21": 2578,
      "பொது": 2579,
      " நகர்": 2580,
      "ண்டை": 2581,
      " தெளி": 2582,
      "றவு": 2583,
      "ரான்": 2584,
      " தாய்": 2585,
      " அம்ப": 2586,
      " சமய": 2587,
      " பண்ண": 2588,
      " ரன்கள்": 2589,
      " பேசி": 2590,
      " பகி": 2591,
      " இவர்": 2592,
      "நாத்": 2593,
      " இருந்தால்": 2594,
      " விளை": 2595,
      "போன்ற": 2596,
      " நீதிமன்றத்தில்": 2597,
      "சாலை": 2598,
      " பற்றிய": 2599,
      "....": 2600,
      "இந்தியா": 2601,
      " இந்தியாவில்": 2602,
      "வந்த": 2603,
      "செய்ய": 2604,
      "க்கூடாது": 2605,
      " சின்ன": 2606,
      " மாநிலம்": 2607,
      " எதுவும்": 2608,
      "ீஸ்": 2609,
      " சமீ": 2610,
      " ஓய்": 2611,
      "என்ன": 2612,
      " கால்": 2613,
      " கான்": 2614,
      " மருத்துவமனையில்": 2615,
      " ஹி": 2616,
      "al": 2617,
      "ும": 2618,
      " வண": 2619,
      " விவகாரம்": 2620,
      " பற": 2621,
      "நாடக": 2622,
      " அனுப்பி": 2623,
      " நண்ப": 2624,
      "டே": 2625,
      " ஈடுபட்டு": 2626,
      " அந்தப்": 2627,
      "த்தனை": 2628,
      " நாட்டில்": 2629,
      "ியம்": 2630,
      " நரேந்திர": 2631,
      "த்ய": 2632,
      "வுக": 2633,
      " பிபிசி": 2634,
      " முடியவில்லை": 2635,
      " சாலை": 2636,
      " மக்களின்": 2637,
      " பணிய": 2638,
      "பாஜக": 2639,
      " இருவரும்": 2640,
      " தேவையான": 2641,
      " கண்காணி": 2642,
      "இவர்": 2643,
      "சர": 2644,
      "ச்சே": 2645,
      " மேற்கொண்ட": 2646,
      " வேண்டாம்": 2647,
      " நிதிய": 2648,
      " ஹெ": 2649,
      " கைப்ப": 2650,
      "நீர்": 2651,
      "ப்பெரிய": 2652,
      "ங்கை": 2653,
      " குழ": 2654,
      " சீனா": 2655,
      "குறிப்பாக": 2656,
      "த்தகைய": 2657,
      "க்கணக்கான": 2658,
      " பகவ": 2659,
      " மார": 2660,
      "ப்பதி": 2661,
      "னோ": 2662,
      " அக்க": 2663,
      "ிட்": 2664,
      " நாட்கள்": 2665,
      " பட்டிய": 2666,
      " கழக": 2667,
      " இந்தியாவின்": 2668,
      " மூன்ற": 2669,
      " டாக": 2670,
      " வகை": 2671,
      "வோ": 2672,
      "ட்பு": 2673,
      " பிரதம": 2674,
      " அப": 2675,
      " காலம்": 2676,
      " ஆகியோ": 2677,
      "ால்தான்": 2678,
      "தற்கும்": 2679,
      " குறிப்பிட்டார்": 2680,
      "ராம": 2681,
      " அதிர்ச்ச": 2682,
      " லா": 2683,
      " பாராளுமன்ற": 2684,
      " சேர்க்க": 2685,
      "வர்களில்": 2686,
      "ுகிறது": 2687,
      "ர்ட": 2688,
      "ஹா": 2689,
      "னாக": 2690,
      " சிர": 2691,
      " தன்னுடைய": 2692,
      "வாதி": 2693,
      " தாய": 2694,
      " நடக்கிறது": 2695,
      " மாற்று": 2696,
      " அதிகாரி": 2697,
      " ஒன்றை": 2698,
      "வாய்": 2699,
      "ற்கை": 2700,
      " காட்டு": 2701,
      "றையினர்": 2702,
      "அவ": 2703,
      "ஞான": 2704,
      "ராஜ்": 2705,
      "ஆக": 2706,
      " காத்த": 2707,
      " மிர": 2708,
      " அவ்": 2709,
      "பிறகு": 2710,
      " தொட": 2711,
      "டுகிறது": 2712,
      " முயற்ச": 2713,
      " ஸ்க": 2714,
      "டர்": 2715,
      " வன": 2716,
      " சிறப்பாக": 2717,
      " நிறைவேற்ற": 2718,
      "-ஆம்": 2719,
      "ப்பிய": 2720,
      " ஆனால்": 2721,
      "ுமா": 2722,
      " நாக": 2723,
      " சேர்ந்து": 2724,
      " விமர்சி": 2725,
      " தற்ப": 2726,
      " அம்மன்": 2727,
      "ங்களது": 2728,
      " பறி": 2729,
      "ாலை": 2730,
      " பால்": 2731,
      "வுகளை": 2732,
      " தான": 2733,
      "ன்மை": 2734,
      "மாள்": 2735,
      "ற்றின்": 2736,
      " நாளை": 2737,
      "நாட்டில்": 2738,
      " ஏற்பட": 2739,
      " ஷா": 2740,
      " ரே": 2741,
      "ளையும்": 2742,
      " பக்க": 2743,
      "னைகள்": 2744,
      " புகைப்பட": 2745,
      "ீரென": 2746,
      "ூரில்": 2747,
      "த்திரை": 2748,
      "ம்தான்": 2749,
      "இல்": 2750,
      "ஸ்லி": 2751,
      " கப்ப": 2752,
      " மிகப்பெரிய": 2753,
      "ருமான": 2754,
      " செய்யப்பட்டது": 2755,
      "மக்கு": 2756,
      "ழும்": 2757,
      "த்தைத்": 2758,
      "புண": 2759,
      " போட்டியில்": 2760,
      " சகோத": 2761,
      "டன": 2762,
      "மிக": 2763,
      "ுவார்த்த": 2764,
      "பய": 2765,
      "ரையில்": 2766,
      "ழில்": 2767,
      " இன": 2768,
      "ிருக்கிறார்கள்": 2769,
      " உயிர": 2770,
      " பேசினார்": 2771,
      " வீரர்கள்": 2772,
      "ானை": 2773,
      "மத்திய": 2774,
      " ப்": 2775,
      " அதனை": 2776,
      " இன்ற": 2777,
      " அவர்களை": 2778,
      " அவரின்": 2779,
      "லலி": 2780,
      "ாண்டு": 2781,
      "த்திலிருந்து": 2782,
      "ாகும்": 2783,
      "ிருப்பது": 2784,
      " கத": 2785,
      " குழந்தைகள்": 2786,
      " மாக": 2787,
      " செய்வது": 2788,
      "க்கொண்டு": 2789,
      "வரத்து": 2790,
      " சட்டச": 2791,
      " நோக்கி": 2792,
      " விஜய": 2793,
      "வியல்": 2794,
      "ப்பூர்": 2795,
      " கும்ப": 2796,
      " தாம": 2797,
      "ல்லா": 2798,
      " மேற்கு": 2799,
      "சர்": 2800,
      "வருக": 2801,
      "மிட": 2802,
      " வார்த்த": 2803,
      "ப்பர்": 2804,
      " சொல்க": 2805,
      "பான்": 2806,
      " உடன்": 2807,
      "ுகளை": 2808,
      " கோயிலில்": 2809,
      "னைய": 2810,
      "வித": 2811,
      " மட்டுமல்ல": 2812,
      " இதில்": 2813,
      " வழங்குவ": 2814,
      "ப்படுகின்றன": 2815,
      "இந்தப்": 2816,
      " மதுரை": 2817,
      "ின்றது": 2818,
      "கூ": 2819,
      "ந்துள்ள": 2820,
      " கல்": 2821,
      " தரு": 2822,
      " ரண": 2823,
      "த்துவம்": 2824,
      " மருந்து": 2825,
      "த்திற்கும்": 2826,
      " யாரும்": 2827,
      " உடை": 2828,
      " செய்தது": 2829,
      " ஆயுத": 2830,
      " அண்ணாமலை": 2831,
      " தொண்ட": 2832,
      " சேர்த்து": 2833,
      " விதிக்க": 2834,
      " ஹோ": 2835,
      " அளவு": 2836,
      " கௌ": 2837,
      "ளித்த": 2838,
      " சிறந்த": 2839,
      " பணிகள்": 2840,
      " எங்கள்": 2841,
      " கொல்ல": 2842,
      "வேண்டும்": 2843,
      " ஆகும்": 2844,
      " பயிற்சி": 2845,
      " போய்": 2846,
      "ராசிர": 2847,
      " நிபுண": 2848,
      "தூ": 2849,
      "காரா": 2850,
      "வாத": 2851,
      "ர்ட்": 2852,
      " வாங்கி": 2853,
      " இயக்க": 2854,
      " மாற்றம்": 2855,
      " அடைந்த": 2856,
      "ற்றும்": 2857,
      "வரா": 2858,
      " தென்": 2859,
      " ஐந்து": 2860,
      " இருக்கிற": 2861,
      " லி": 2862,
      "இப்படி": 2863,
      " தரிசனம்": 2864,
      "புற": 2865,
      " மகா": 2866,
      " பேச்சுவார்த்த": 2867,
      "னையை": 2868,
      " S": 2869,
      "ெழு": 2870,
      " தன்னை": 2871,
      "சிற": 2872,
      " முடிந்த": 2873,
      " எழுதிய": 2874,
      " கணி": 2875,
      "மலை": 2876,
      "ிருக்கின்றனர்": 2877,
      "அப்படி": 2878,
      " எனது": 2879,
      " வழியாக": 2880,
      " செய்தியாள": 2881,
      "ாமா": 2882,
      " விண்ண": 2883,
      " விக்கெ": 2884,
      " குமார்": 2885,
      " மின்சார": 2886,
      " இதற்கு": 2887,
      "ஞ்சம்": 2888,
      " அச்ச": 2889,
      "ப்பம்": 2890,
      "ையோ": 2891,
      " இந்தக்": 2892,
      " ராஜப": 2893,
      " நம்பிக்கை": 2894,
      " கடுமையான": 2895,
      " பாகிஸ்தான்": 2896,
      "த்துள்ள": 2897,
      " விருது": 2898,
      " நடைமுறை": 2899,
      " தடுப்ப": 2900,
      " முருக": 2901,
      "அமெரிக்க": 2902,
      " எனத்": 2903,
      " தேர்": 2904,
      "ழிப்பு": 2905,
      " பிரபல": 2906,
      " சூழ்": 2907,
      " வலியுறு": 2908,
      "27": 2909,
      "60": 2910,
      " திருக்க": 2911,
      "ும்பை": 2912,
      " ட்விட்ட": 2913,
      "ரியா": 2914,
      " தந்தை": 2915,
      "மக்க": 2916,
      " பக்கம்": 2917,
      " இனி": 2918,
      " மாநிலத்தில்": 2919,
      "இதே": 2920,
      " விடுதலை": 2921,
      "-வது": 2922,
      " கும்": 2923,
      " என்கிற": 2924,
      " மொத்த": 2925,
      "ல்வம்": 2926,
      " சசிக": 2927,
      " கிடைத்த": 2928,
      " உயிரிழ": 2929,
      " திருவிழா": 2930,
      "க்ச": 2931,
      " கலா": 2932,
      " பிரச்சி": 2933,
      " பந்துவீ": 2934,
      " வாய": 2935,
      " நிர்வாகிகள்": 2936,
      "ப்பதாக": 2937,
      "கமாக": 2938,
      " நுழை": 2939,
      "es": 2940,
      "ைப்": 2941,
      "ர்களில்": 2942,
      "யு": 2943,
      " அச": 2944,
      " இந்தத்": 2945,
      "அதன்படி": 2946,
      " கருத": 2947,
      "லூர்": 2948,
      " எளி": 2949,
      "நிலைய": 2950,
      " ஆராய்ச்ச": 2951,
      " வளர்ச்சி": 2952,
      "த்தல்": 2953,
      " புர": 2954,
      "வீன": 2955,
      " பாலா": 2956,
      " விவகாரத்தில்": 2957,
      " எதிர்க்கட்ச": 2958,
      " அவை": 2959,
      "ட்ஸ்": 2960,
      " அறிக்கையில்": 2961,
      " வென்ற": 2962,
      "ணு": 2963,
      "மம்": 2964,
      " நகை": 2965,
      " கிடைய": 2966,
      "ற்சிய": 2967,
      " மாநக": 2968,
      "ரியில்": 2969,
      " சுற்றுலா": 2970,
      " தினம்": 2971,
      "்டோ": 2972,
      " அபிவிரு": 2973,
      " சொத்து": 2974,
      " கொள்வ": 2975,
      " பணியில்": 2976,
      " கண்டி": 2977,
      " தொற்று": 2978,
      " ஏற்ற": 2979,
      " எதிர்கால": 2980,
      "த்தூர்": 2981,
      "இதுகுறித்து": 2982,
      "லையில்": 2983,
      " பட்": 2984,
      " ஏற்பா": 2985,
      " உறுப்பினர்": 2986,
      "காங்கிர": 2987,
      " பொதுமக்கள்": 2988,
      "இங்கு": 2989,
      "க்ரே": 2990,
      "199": 2991,
      " துவங்க": 2992,
      "ண்கள்": 2993,
      "-ல்": 2994,
      " சிறுவ": 2995,
      "்துறை": 2996,
      "நேற்று": 2997,
      " முதலில்": 2998,
      " மேற்கொண்டு": 2999,
      " குறித்தும்": 3000,
      " உற்பத்தி": 3001,
      "ஷேக": 3002,
      " வகுப்பு": 3003,
      "ந்தர": 3004,
      "ப்பதற்கு": 3005,
      "ங்கல்": 3006,
      " சூரிய": 3007,
      " ஆண்டுகளில்": 3008,
      "28": 3009,
      "ண்டிய": 3010,
      "மித்": 3011,
      ".ஐ": 3012,
      "26": 3013,
      " தை": 3014,
      " நாட்களுக்கு": 3015,
      " மோதி": 3016,
      " சூழலில்": 3017,
      "இதற்க": 3018,
      " குஜரா": 3019,
      " பேராசிர": 3020,
      " விரைவில்": 3021,
      " கிடையாது": 3022,
      " சப": 3023,
      " குவி": 3024,
      " வழங்கப்படும்": 3025,
      " மாகாண": 3026,
      " A": 3027,
      " வங்கி": 3028,
      "திமுக": 3029,
      " விவர": 3030,
      " தலைவராக": 3031,
      " வியா": 3032,
      " கிரிக்கெட்": 3033,
      "சரி": 3034,
      " அம்மா": 3035,
      "ீன்": 3036,
      " கதை": 3037,
      "குதியில்": 3038,
      "அடுத்த": 3039,
      " படைய": 3040,
      " அமர்": 3041,
      " நாட்டு": 3042,
      " தெரிவித்தனர்": 3043,
      " புரிந்து": 3044,
      " உரிய": 3045,
      " ஏற்படுத்தி": 3046,
      " டை": 3047,
      "அவரது": 3048,
      "டெல்லி": 3049,
      " நிறுவனங்கள்": 3050,
      "பாலான": 3051,
      " நவ": 3052,
      " அந்": 3053,
      " பேருந்து": 3054,
      "ன்னீர்செல்வம்": 3055,
      "...": 3056,
      "சியில்": 3057,
      "திலும்": 3058,
      " கடைசி": 3059,
      "வதற்கு": 3060,
      " அம்": 3061,
      " உங்களுக்கு": 3062,
      " மக்களை": 3063,
      "ந்தர்": 3064,
      " பின்ப": 3065,
      " டாக்டர்": 3066,
      "்டு": 3067,
      " கர": 3068,
      " நிலையத்தில்": 3069,
      " ஆய்வ": 3070,
      "பாபி": 3071,
      "ன்கொ": 3072,
      "பீ": 3073,
      " நபர்": 3074,
      "தைப்": 3075,
      " வர்த்த": 3076,
      " பகுதியை": 3077,
      " தற்கொலை": 3078,
      "ுவை": 3079,
      " நெரு": 3080,
      "இந்தியாவில்": 3081,
      "இஸ்": 3082,
      "னிய": 3083,
      " அதிகரிக்கும்": 3084,
      " திடீரென": 3085,
      "500": 3086,
      "மன": 3087,
      "ழ்க": 3088,
      " தடுக்க": 3089,
      " அருகில்": 3090,
      " ஆவண": 3091,
      " வலைதள": 3092,
      " டா": 3093,
      "ீட்டு": 3094,
      " பெண்க": 3095,
      "அதேபோல": 3096,
      " அருள்": 3097,
      "ந்தார்": 3098,
      " நிற்க": 3099,
      " எனும்": 3100,
      " வந்தனர்": 3101,
      " தொடங்கிய": 3102,
      "பிரத": 3103,
      " ரூபாய": 3104,
      " சதவி": 3105,
      " அம்ம": 3106,
      "தர்": 3107,
      " குடியரசு": 3108,
      " தலைமையிலான": 3109,
      "தோடு": 3110,
      "னல்": 3111,
      " சுய": 3112,
      " வருகிறார்கள்": 3113,
      " தரப்பில்": 3114,
      " ஏற்பட்டுள்ளது": 3115,
      "எம்": 3116,
      "ர்ண": 3117,
      " அரி": 3118,
      " சதவிகி": 3119,
      "வதாக": 3120,
      " இருக்கலாம்": 3121,
      " அறிவிப்பு": 3122,
      " மரண": 3123,
      " மதிப்ப": 3124,
      " இரண்டாவது": 3125,
      "ாந்து": 3126,
      " சிறிய": 3127,
      " விழாவில்": 3128,
      " வட்ட": 3129,
      "ருடைய": 3130,
      " கீழ": 3131,
      " ரத்து": 3132,
      " தெரிக": 3133,
      "ஷ்மீ": 3134,
      " பயன்படுத்தி": 3135,
      "எதி": 3136,
      "ங்களால்": 3137,
      " பேசுக": 3138,
      " மற்றொரு": 3139,
      " அதிகமான": 3140,
      "நாங்கள்": 3141,
      " கொண்டிருந்த": 3142,
      "வார்": 3143,
      " விளக்க": 3144,
      " முதன்": 3145,
      " பேட்ட": 3146,
      "ப்படுத்தி": 3147,
      " முயன்ற": 3148,
      " பரிந்து": 3149,
      "ளே": 3150,
      "ாரு": 3151,
      " வளாக": 3152,
      " செயற்ப": 3153,
      "காராஷ்ட": 3154,
      " கிருஷ்ண": 3155,
      "ரியாத": 3156,
      " மலை": 3157,
      "ினும்": 3158,
      "இந்தச்": 3159,
      " வாக்க": 3160,
      "ாவிற்கு": 3161,
      " அவசியம்": 3162,
      " வசதி": 3163,
      " மார்ச்": 3164,
      "ையிலும்": 3165,
      " டே": 3166,
      "ளுடைய": 3167,
      " நிறைய": 3168,
      " கல்லூரி": 3169,
      " முஸ்லி": 3170,
      " பிரிட்ட": 3171,
      " வெளியாகி": 3172,
      " ஆட்சியில்": 3173,
      " பார்வைய": 3174,
      "ஸின்": 3175,
      "ப்பட்டார்": 3176,
      " நம்பிக்க": 3177,
      " நாளில்": 3178,
      " எங்களுக்கு": 3179,
      "ாளைய": 3180,
      " தொடர்பில்": 3181,
      " ரத்த": 3182,
      "பெற்ற": 3183,
      " உண்டு": 3184,
      " ஏமா": 3185,
      " ரணில்": 3186,
      "ண்க": 3187,
      " வித்திய": 3188,
      " லே": 3189,
      " தெரியவ": 3190,
      "is": 3191,
      "பிடிக்க": 3192,
      " நமது": 3193,
      " பிரே": 3194,
      "களைக்": 3195,
      " ராசி": 3196,
      " அதிர": 3197,
      " பவு": 3198,
      " வீட்டு": 3199,
      "கவின்": 3200,
      " நினைக்க": 3201,
      " வழக்கறி": 3202,
      " மாவட்டங்களில்": 3203,
      "களிலும்": 3204,
      "ுங்கள்": 3205,
      " கம": 3206,
      "ப்பிக்க": 3207,
      " போக்குவரத்து": 3208,
      " பண்ட": 3209,
      " பற்ற": 3210,
      " தேர்ந்த": 3211,
      "ட்ரோ": 3212,
      " அதிகரிக்க": 3213,
      " விபத்து": 3214,
      "ச்செய": 3215,
      " அழ": 3216,
      " நடிகர்": 3217,
      "ூர": 3218,
      " உட்க": 3219,
      " இருக்கு": 3220,
      " சாப்ப": 3221,
      " பெருமாள்": 3222,
      " தெரியவில்லை": 3223,
      "மண": 3224,
      "ழக்க": 3225,
      "பால்": 3226,
      " போட": 3227,
      " சம்பந்த": 3228,
      " நிகழ்ச்சியில்": 3229,
      " ஒத்து": 3230,
      " அரசுக்கு": 3231,
      " தெரியும்": 3232,
      " அழைக்க": 3233,
      " நிர்வாகம்": 3234,
      " கொள்கை": 3235,
      " ஜூலை": 3236,
      "படுத்த": 3237,
      " ஒழு": 3238,
      " சுட்டிக்க": 3239,
      " ரசிகர்கள்": 3240,
      " செய்யப்பட்டுள்ளது": 3241,
      " மாநிலங்களில்": 3242,
      " தொடங்கியது": 3243,
      "ஸில்": 3244,
      " பொறுத்த": 3245,
      " தண்ணீர்": 3246,
      " கூடுதல்": 3247,
      "மிருந்து": 3248,
      " கள்ள": 3249,
      " டால": 3250,
      " சிறை": 3251,
      " அணியின்": 3252,
      " ஆஸ்திரே": 3253,
      " சென்னையில்": 3254,
      " பிரசார": 3255,
      " பரபரப்பை": 3256,
      " தண்டனை": 3257,
      " B": 3258,
      "ஸை": 3259,
      "வேன்": 3260,
      " அவர்கள": 3261,
      "ோதைய": 3262,
      " தட": 3263,
      " உரையா": 3264,
      " விஜய்": 3265,
      "றையும்": 3266,
      " கமி": 3267,
      "ங்களைப்": 3268,
      " வெளிநாட்டு": 3269,
      " விளையாட்டு": 3270,
      "ராட்ச": 3271,
      "டுகளில்": 3272,
      " புகார": 3273,
      " பெற்றோ": 3274,
      " வாழ்க்கை": 3275,
      " விக்ரம": 3276,
      "மிற": 3277,
      " இருக்கின்றன": 3278,
      "ப்பாடு": 3279,
      " பொறுப்பு": 3280,
      "ஸ்வரர்": 3281,
      " ஏற்கனவே": 3282,
      "எல்ஏ": 3283,
      ".வி": 3284,
      " கட்சிய": 3285,
      " சரியாக": 3286,
      " உக்ரைன்": 3287,
      " பண்": 3288,
      " நிச்ச": 3289,
      " நாடுகளில்": 3290,
      " காம": 3291,
      " இஸ்லாம": 3292,
      " பங்கேற்ற": 3293,
      " தெரிகிறது": 3294,
      " வித்தியாச": 3295,
      "விற்கு": 3296,
      " தள்ள": 3297,
      " துப்பா": 3298,
      " குண": 3299,
      "ாளர்களை": 3300,
      " தமிழகத்தில்": 3301,
      "கொள்ள": 3302,
      "மக": 3303,
      "ிங்": 3304,
      "ியம்மன்": 3305,
      " உத்த": 3306,
      " உருவாக": 3307,
      " தமிழ்நாட்டில்": 3308,
      " உண்மை": 3309,
      " சந்தித்த": 3310,
      "டோ": 3311,
      " தனக்கு": 3312,
      "இலங்கை": 3313,
      " பொதுக்குழு": 3314,
      " விலக": 3315,
      " திருவ": 3316,
      " மாணவ": 3317,
      " அவ்வ": 3318,
      " பாக": 3319,
      "விட்டால்": 3320,
      " சரியான": 3321,
      "வையில்": 3322,
      " சக்தி": 3323,
      " ஏற்பாடு": 3324,
      "ாயி": 3325,
      " புத்தக": 3326,
      " சந்திக்க": 3327,
      " விமர்ச": 3328,
      " நியூ": 3329,
      " ஜூன்": 3330,
      " உதய": 3331,
      " பக்கத்தில்": 3332,
      " கம்ப": 3333,
      "ப்ரல்": 3334,
      "ங்கம்": 3335,
      " நட்ச": 3336,
      " ஜே": 3337,
      "ப்படுத்தும்": 3338,
      " செலவு": 3339,
      " சான்": 3340,
      "லாக்க": 3341,
      "ரவரி": 3342,
      " கும்பாபி": 3343,
      " நட்சத்திர": 3344,
      "றையின்": 3345,
      " ஜனநாயக": 3346,
      " வலி": 3347,
      "விக்க": 3348,
      " நிறுவனத்தின்": 3349,
      "சில்": 3350,
      " செல்க": 3351,
      " கூட்டு": 3352,
      "ஞ்சு": 3353,
      " எல்லா": 3354,
      " களமிற": 3355,
      "ரால்": 3356,
      "ப்ரவரி": 3357,
      " எதிர்த்து": 3358,
      " சிலை": 3359,
      " கண்டறிய": 3360,
      " வீட்டுக்கு": 3361,
      " தவறு": 3362,
      " அப்படி": 3363,
      "டுமை": 3364,
      "ர்களாக": 3365,
      "ிருக்கின்றன": 3366,
      " முழுமையாக": 3367,
      " t": 3368,
      "ச்சார": 3369,
      " பேசுவ": 3370,
      " கிழக்கு": 3371,
      " பகிர்ந்து": 3372,
      " கடற்ப": 3373,
      " வழங்கும்": 3374,
      "it": 3375,
      " சுற்றி": 3376,
      "ஸ்டாலின்": 3377,
      "ிகர": 3378,
      " வழங்கி": 3379,
      " கட்சிகள்": 3380,
      " பரிந்துரை": 3381,
      " கையில்": 3382,
      "தமிழ்நாட்டில்": 3383,
      "த்திலேயே": 3384,
      "மாகக்": 3385,
      "பாத்": 3386,
      "ாதாரம்": 3387,
      "மொத்த": 3388,
      "னாலும்": 3389,
      " சொல்": 3390,
      "லைன்": 3391,
      " பிடித்து": 3392,
      " இயக்குநர்": 3393,
      " அபிவிருத்தி": 3394,
      " உயர்த்த": 3395,
      " அறிய": 3396,
      " ஓட்டு": 3397,
      " சாதி": 3398,
      " லெ": 3399,
      "ந்திரன்": 3400,
      " அலங்கார": 3401,
      "ற்பு": 3402,
      " கலந்துரையா": 3403,
      " பஞ்சா": 3404,
      "ந்தா": 3405,
      "க்குச்": 3406,
      " கொண்டனர்": 3407,
      " கடிதம்": 3408,
      " C": 3409,
      "மாகும்": 3410,
      "வர்களும்": 3411,
      " நிலைமை": 3412,
      " மொழ": 3413,
      "ோட": 3414,
      "மாஸ்": 3415,
      " மீன": 3416,
      " பெயரில்": 3417,
      " எம்எல்ஏ": 3418,
      " அங்கீ": 3419,
      "29": 3420,
      "மழை": 3421,
      "ுமி": 3422,
      "நாட்டின்": 3423,
      " வழங்கிய": 3424,
      " ஹே": 3425,
      "றுகிறது": 3426,
      "ரஷ்ய": 3427,
      " தங்களது": 3428,
      "மாண": 3429,
      " செயல்பா": 3430,
      " திகதி": 3431,
      " M": 3432,
      " சினி": 3433,
      " அடுத்து": 3434,
      " எல்லை": 3435,
      " பெரி": 3436,
      "இந்தக்": 3437,
      " தடுப்பூ": 3438,
      "ic": 3439,
      " நன்ற": 3440,
      "விட்": 3441,
      " நேரடியாக": 3442,
      "ையுடன்": 3443,
      " தொகை": 3444,
      " ஆகியவ": 3445,
      "க்கூடும்": 3446,
      " ஆளுந": 3447,
      " நாட்களில்": 3448,
      " மதிப்பு": 3449,
      " ஜெயலலி": 3450,
      "காவ": 3451,
      "ர்களுடன்": 3452,
      " தீர்வு": 3453,
      "செய்த": 3454,
      " நெருக்கடி": 3455,
      "am": 3456,
      "ந்தை": 3457,
      " வித": 3458,
      " பேச்சு": 3459,
      " தீர்ப்பு": 3460,
      " கர்நாடக": 3461,
      "காங்கிரஸ்": 3462,
      "ிருந்தால்": 3463,
      " தம்ப": 3464,
      "த்துள்ளனர்": 3465,
      " உத்தரவு": 3466,
      " சகோதர": 3467,
      " அக்": 3468,
      " ஆடி": 3469,
      " நேரில்": 3470,
      " உறுப்பினர்கள்": 3471,
      " சட்டசபை": 3472,
      "வாய": 3473,
      " தன்ன": 3474,
      " எங்க": 3475,
      " சிறையில்": 3476,
      " திட்டத்தை": 3477,
      "ிருப்பதாக": 3478,
      " பிரதிநிதி": 3479,
      "லத்தில்": 3480,
      "ன்ட்": 3481,
      " வரிச": 3482,
      " எவ்வளவு": 3483,
      "புரி": 3484,
      "ெனவே": 3485,
      "ஏன": 3486,
      " முன்னெ": 3487,
      "்குமார்": 3488,
      " குற்றம்சா": 3489,
      " சந்தேக": 3490,
      "ுந்த": 3491,
      " நின்": 3492,
      " எப்போதும்": 3493,
      " பேட்டி": 3494,
      " மருத்துவர்": 3495,
      "கிரி": 3496,
      "யோ": 3497,
      " அழக": 3498,
      " ஒலி": 3499,
      " ஆகியவை": 3500,
      "ராஜன்": 3501,
      " கட்டி": 3502,
      " சார்ந்த": 3503,
      "இன்ன": 3504,
      " படுக": 3505,
      " வலு": 3506,
      " கேப்ட": 3507,
      "ியைப்": 3508,
      "ங்களைக்": 3509,
      " மொத்தம்": 3510,
      " இடம்பெற்ற": 3511,
      "ள்ளை": 3512,
      " குற்றவாள": 3513,
      "த்திற்காக": 3514,
      " மோசமான": 3515,
      " வகி": 3516,
      " ஒளி": 3517,
      "ப்பட்டனர்": 3518,
      " வீழ்த்த": 3519,
      " ஏற்படுத்தியுள்ளது": 3520,
      " மூலமாக": 3521,
      "தமிழ்நாடு": 3522,
      " சன": 3523,
      "களால்": 3524,
      " பரிசோதனை": 3525,
      "கல்": 3526,
      " வெளியான": 3527,
      " பணத்தை": 3528,
      " மில்லியன்": 3529,
      " சனி": 3530,
      " வழக்கம்": 3531,
      " நடவடிக்கைகள்": 3532,
      "பிரதமர்": 3533,
      " உள": 3534,
      " பெறுவ": 3535,
      "ம்பர": 3536,
      " வருவதாக": 3537,
      " கவுன்": 3538,
      " ரக": 3539,
      "ளிர்": 3540,
      " மீட்க": 3541,
      " ஒன்றாக": 3542,
      "70": 3543,
      " பெரும்பாலான": 3544,
      "சம": 3545,
      "ிர்": 3546,
      " திரி": 3547,
      " அப்பா": 3548,
      "ையைப்": 3549,
      " நோக்க": 3550,
      "பெரும்": 3551,
      ".என்": 3552,
      "ப்பதிவு": 3553,
      " ஒத்துழை": 3554,
      " தெரிந்து": 3555,
      "மொழி": 3556,
      " ரீதியாக": 3557,
      "டித்து": 3558,
      "வக": 3559,
      "ிக்கொண்ட": 3560,
      " சாத்திய": 3561,
      " அணுக": 3562,
      "எந்த": 3563,
      "நட": 3564,
      "க்கர்": 3565,
      " இதன்": 3566,
      "ல்களில்": 3567,
      " நடு": 3568,
      " என்பவர்": 3569,
      "ாரணம்": 3570,
      " செயல்பட்டு": 3571,
      "ென்றால்": 3572,
      " பயங்க": 3573,
      " கலந்துகொண்ட": 3574,
      " வன்முறை": 3575,
      "அனை": 3576,
      " எழுப்ப": 3577,
      "அதேபோல்": 3578,
      " T": 3579,
      "ஜூ": 3580,
      "ையொ": 3581,
      "ிக்கப்பட்ட": 3582,
      " தோல்வ": 3583,
      " தோல்வி": 3584,
      "மாநில": 3585,
      "தேர்த": 3586,
      "போதும்": 3587,
      "த்துக்கும்": 3588,
      "ஸ்டர்": 3589,
      " திரா": 3590,
      " சசிகலா": 3591,
      "சுவ": 3592,
      "ஹ்": 3593,
      " பஞ்ச": 3594,
      " ஓர்": 3595,
      "மில்லை": 3596,
      "்டோபர்": 3597,
      " மற": 3598,
      "ண்மை": 3599,
      "ினம்": 3600,
      " விவசாயிகள்": 3601,
      " அழைத்துச்": 3602,
      " நோய்": 3603,
      " முதலீ": 3604,
      " அரசாங்கம்": 3605,
      " மீன்": 3606,
      "ம்ஸ்": 3607,
      " நிமிட": 3608,
      " உண்ட": 3609,
      "்க்கு": 3610,
      " பொருட்கள்": 3611,
      "ுல்": 3612,
      "க்கட்ட": 3613,
      " ஊழிய": 3614,
      " வடிவ": 3615,
      "ிலிருந்த": 3616,
      " கிரக": 3617,
      " P": 3618,
      "நிக": 3619,
      "ம்த": 3620,
      "டியும்": 3621,
      "புது": 3622,
      " இருப்பதால்": 3623,
      " ஆதரவாக": 3624,
      " விமர்சன": 3625,
      " பிரச்சனை": 3626,
      " மட": 3627,
      " அறு": 3628,
      "வரையும்": 3629,
      " கார்த்த": 3630,
      " நடத்தினர்": 3631,
      " போட்டியிட": 3632,
      " கண்டுபிடி": 3633,
      "ஏற்க": 3634,
      "மல்ல": 3635,
      " ரொ": 3636,
      " கொடுப்ப": 3637,
      "ம்பா": 3638,
      " கடல்": 3639,
      " நிகழ்வு": 3640,
      "தில": 3641,
      " உள்ளே": 3642,
      " கேரள": 3643,
      " சூழல்": 3644,
      " விநாயகர்": 3645,
      " காப்பா": 3646,
      " சிங்க": 3647,
      " உறவின": 3648,
      "ஃப": 3649,
      " விவாத": 3650,
      "கும்": 3651,
      "க்கெட்": 3652,
      " காஷ்மீ": 3653,
      "ம்க": 3654,
      "வட": 3655,
      "ெல்லியில்": 3656,
      " கௌரவ": 3657,
      "திக": 3658,
      "ன்னா": 3659,
      "புர": 3660,
      " திட்டத்தின்": 3661,
      " கவலை": 3662,
      "னியா": 3663,
      "ைக்": 3664,
      "ம்பரம்": 3665,
      " கோவை": 3666,
      "ையைக்": 3667,
      " ஆணையம்": 3668,
      " விக்ரமசிங்க": 3669,
      "சமீ": 3670,
      "ள்வது": 3671,
      " பக்தர்களுக்கு": 3672,
      "லாளர்": 3673,
      " ஆளும்": 3674,
      "ிருக்கலாம்": 3675,
      "அதன": 3676,
      " தீவிரமாக": 3677,
      " மாதிரி": 3678,
      "ண்டர்": 3679,
      "வேளை": 3680,
      " போட்டிகளில்": 3681,
      " பொருட்களை": 3682,
      "35": 3683,
      "கரி": 3684,
      " உள்ளதாக": 3685,
      " சேர்ந்தவர்": 3686,
      " வலியுறுத்த": 3687,
      " மூலாதாரம்": 3688,
      "வரான": 3689,
      " செய்துக": 3690,
      "ாய்வு": 3691,
      " ஊர்வ": 3692,
      " பராம": 3693,
      " கிட்ட": 3694,
      "ப்பொரு": 3695,
      " காட்சி": 3696,
      " முழுக்க": 3697,
      " வெங்க": 3698,
      " பேருக்கு": 3699,
      " பதிவிட்டு": 3700,
      " ஏற்படுத்தும்": 3701,
      " முதலீடு": 3702,
      " முடிவுகள்": 3703,
      "லமாக": 3704,
      "க்குழுவ": 3705,
      " கொண்டார்": 3706,
      " அடித்து": 3707,
      " பிரச்சினை": 3708,
      " சட": 3709,
      " செந்தில்": 3710,
      "ரிமை": 3711,
      " வேகமாக": 3712,
      " முன்பாக": 3713,
      " சமீபத்தில்": 3714,
      ".ஜி": 3715,
      " சவால": 3716,
      " பயன்": 3717,
      " கொண்டாட": 3718,
      " மோதல்": 3719,
      " செயல்படுத்த": 3720,
      " விஷயம்": 3721,
      "இதற்காக": 3722,
      "வுக்கும்": 3723,
      " தலைய": 3724,
      "ும்பி": 3725,
      " ஆல": 3726,
      " பிடிக்க": 3727,
      " கட்சியில்": 3728,
      "ஷம்": 3729,
      "த்தான": 3730,
      " படத்தில்": 3731,
      " உள்ளாட்சி": 3732,
      " ஆதார": 3733,
      " ஃப": 3734,
      " மரியாத": 3735,
      " நினைவு": 3736,
      " அடையாளம்": 3737,
      "சம்பர்": 3738,
      " பாஜ": 3739,
      " அலுவலகத்தில்": 3740,
      "தமிழகத்தில்": 3741,
      " அடிக்கடி": 3742,
      " வெளியு": 3743,
      " பேச்சுவார்த்தை": 3744,
      " நாட்டை": 3745,
      " தயாராக": 3746,
      "31": 3747,
      "ீப்": 3748,
      " இழு": 3749,
      " விடுத்து": 3750,
      "நீங்கள்": 3751,
      " பங்கேற்க": 3752,
      " பாகிஸ்தான": 3753,
      "\"\n": 3754,
      "ப்பன்": 3755,
      "ப்புக்கு": 3756,
      " ஜா": 3757,
      ".கே": 3758,
      " கணவர்": 3759,
      " குள": 3760,
      " ஐக்கிய": 3761,
      " இலவச": 3762,
      "ion": 3763,
      " இல்": 3764,
      "ாராய": 3765,
      " இறந்த": 3766,
      " இதனை": 3767,
      " சதவீத": 3768,
      "ண்டே": 3769,
      "புதிய": 3770,
      " இருக்கிறார்கள்": 3771,
      " அமைச்சர்கள்": 3772,
      " கணக்கு": 3773,
      " ஒன்றில்": 3774,
      " வலுவ": 3775,
      "ம்மு": 3776,
      "ிறி": 3777,
      " அவசர": 3778,
      " சுற்ற": 3779,
      " சட்டத்தின்": 3780,
      " எதிர்பார்": 3781,
      "ப்படுத்து": 3782,
      " எனப்": 3783,
      " அவருடைய": 3784,
      " அந்தக்": 3785,
      " விளக்கம்": 3786,
      " பழைய": 3787,
      "ஒவ்வொரு": 3788,
      "களுடன்": 3789,
      " பான": 3790,
      " அழி": 3791,
      "டுக்கு": 3792,
      "ிகைய": 3793,
      " திருத்த": 3794,
      " அறிவித்த": 3795,
      " மொழி": 3796,
      " ஹை": 3797,
      "ஜித்": 3798,
      " வைக்கப்பட்ட": 3799,
      " குறைக்க": 3800,
      "198": 3801,
      " வாரம்": 3802,
      " உறவு": 3803,
      " சேர்த்த": 3804,
      " யாத": 3805,
      " வழிபாடு": 3806,
      "ையால்": 3807,
      "ிகு": 3808,
      "ிக்கிழமை": 3809,
      " இதுபோன்ற": 3810,
      " மால": 3811,
      " அமித்": 3812,
      "இந்தத்": 3813,
      " தொடர்ச்ச": 3814,
      " கட்டண": 3815,
      "நல": 3816,
      " படிக்க": 3817,
      " ஏப்ரல்": 3818,
      " வணிக": 3819,
      "டனான": 3820,
      " பேராசிரியர்": 3821,
      " எழுதி": 3822,
      " கன்ன": 3823,
      "களைத்": 3824,
      " கிராமத்தில்": 3825,
      " மான": 3826,
      " உழை": 3827,
      " N": 3828,
      "ங்கில்": 3829,
      "வைத்": 3830,
      " தொகுதியில்": 3831,
      " எழுந்தரு": 3832,
      "ச்சேரி": 3833,
      " உயர்நீதிமன்ற": 3834,
      ".மீ": 3835,
      " வீட்ட": 3836,
      "நாயக்க": 3837,
      " விய": 3838,
      "ப்பதற்காக": 3839,
      " ரயில": 3840,
      "ண்மையில்": 3841,
      "ரியான": 3842,
      " வழங்கப்பட்டது": 3843,
      "ன்த": 3844,
      " தக்க": 3845,
      " வெறும்": 3846,
      " அணிக்கு": 3847,
      "நேரம்": 3848,
      " கண்டுபிடிக்க": 3849,
      " வேட்பாளர்": 3850,
      " I": 3851,
      "மணிய": 3852,
      " பல்ல": 3853,
      " அனைத்தும்": 3854,
      " வெளியுறவு": 3855,
      "அத்துடன்": 3856,
      "ருப்த": 3857,
      " சென்றனர்": 3858,
      "45": 3859,
      "ஞ்": 3860,
      " ஆங்கில": 3861,
      " குர": 3862,
      "டுகிறார்": 3863,
      "பூர்வ": 3864,
      " பதவியை": 3865,
      "மன்": 3866,
      "ாட்": 3867,
      "க்குமார்": 3868,
      "ட்சிய": 3869,
      " எண்ணிக்க": 3870,
      " விரும்புக": 3871,
      "இதனிடையே": 3872,
      " .\n": 3873,
      "சாம": 3874,
      "மர": 3875,
      "ஸ்வ": 3876,
      " வீச": 3877,
      " பணிகளை": 3878,
      "75": 3879,
      "தைய": 3880,
      "ளால்": 3881,
      " தரும்": 3882,
      " விநிய": 3883,
      " கட்சியை": 3884,
      " பிடித்த": 3885,
      " இரண்டாம்": 3886,
      "டெ": 3887,
      " மரு": 3888,
      " சபா": 3889,
      " அப்போது": 3890,
      " எப்போது": 3891,
      "றுவது": 3892,
      "ச்செ": 3893,
      "விட்டனர்": 3894,
      " கூட்டண": 3895,
      "மூலம்": 3896,
      "ியிருக்கிறது": 3897,
      " இதே": 3898,
      " இடையிலான": 3899,
      " எண்ணெய்": 3900,
      " நின்று": 3901,
      "உட": 3902,
      "ரோக்கிய": 3903,
      "அதோடு": 3904,
      "நாம்": 3905,
      "ந்தைய": 3906,
      " விடுத்த": 3907,
      " வைரஸ்": 3908,
      " விக்கெட்டு": 3909,
      "ணும்": 3910,
      "பழ": 3911,
      " போதும்": 3912,
      "குரு": 3913,
      " முக்கியத்துவம்": 3914,
      "அரசு": 3915,
      " சல": 3916,
      "ச்சூ": 3917,
      " தொக": 3918,
      "ிற்கும்": 3919,
      "ப்படாத": 3920,
      " கூறுகின்றனர்": 3921,
      "ப்டம்பர்": 3922,
      " வருவது": 3923,
      " முடியாமல்": 3924,
      " வீரர்": 3925,
      " அபிஷேகம்": 3926,
      " ஓய்வு": 3927,
      " மகள்": 3928,
      " குறைவாக": 3929,
      " அணை": 3930,
      " பெறும்": 3931,
      " முகமது": 3932,
      " நிரூ": 3933,
      "இரண்டு": 3934,
      " தியாக": 3935,
      "வேல்": 3936,
      " ஒப்படை": 3937,
      " வல்ல": 3938,
      " மய": 3939,
      "வரில்": 3940,
      "ப்பூர்வ": 3941,
      "ாராம்": 3942,
      " அதிருப்த": 3943,
      " சிந்த": 3944,
      " தகவல்களை": 3945,
      "80": 3946,
      " ரவி": 3947,
      "கொரோனா": 3948,
      " இளைஞர்": 3949,
      " பெட்ரோ": 3950,
      "ாளர்களுக்கு": 3951,
      " கோரிக்க": 3952,
      " வீதி": 3953,
      " பெயரை": 3954,
      "தர": 3955,
      " நாட்களாக": 3956,
      "ம்ப்": 3957,
      "ர்களுக்கும்": 3958,
      "ாதனை": 3959,
      " சென்றார்": 3960,
      " ஏற்படுத்தியது": 3961,
      " போராட்டத்தில்": 3962,
      " கடித": 3963,
      " திட்டமிட்டு": 3964,
      " சது": 3965,
      "ஸ்ரீ": 3966,
      " பிரச": 3967,
      " முடிவுக்கு": 3968,
      " நடவடிக்கைகளை": 3969,
      "முன்னதாக": 3970,
      "as": 3971,
      "யின்": 3972,
      " தப்பி": 3973,
      "ிலி": 3974,
      " பயணி": 3975,
      " தவிர்க்க": 3976,
      "ழும்பு": 3977,
      "ணன்": 3978,
      " க்": 3979,
      "தியம்": 3980,
      " இறந்து": 3981,
      " ஆட்சியை": 3982,
      " ஒருங்கிணைப்பாளர்": 3983,
      " வர்த்தக": 3984,
      " முற்ற": 3985,
      " செல்போ": 3986,
      "சம்ப": 3987,
      " அலை": 3988,
      "ன்றைய": 3989,
      " செய்யப்படும்": 3990,
      " பழங்கு": 3991,
      " திராவிட": 3992,
      "ீன": 3993,
      "குழந்த": 3994,
      "டனும்": 3995,
      " கோரி": 3996,
      " திறந்து": 3997,
      " வார்த்தை": 3998,
      " பாலாஜி": 3999,
      " பொறுத்தவரை": 4000,
      " அன்ப": 4001,
      " பெங்கள": 4002,
      " ஏழு": 4003,
      " வெப்ப": 4004,
      " இருந்தனர்": 4005,
      " அடிப்படை": 4006,
      " ஞ": 4007,
      " ஆத்": 4008,
      " போய": 4009,
      " உள்ளூர்": 4010,
      " அமலாக்க": 4011,
      " கிடைத்தது": 4012,
      ".எம்": 4013,
      " மையம்": 4014,
      "க்கா": 4015,
      " மல": 4016,
      "ினோம்": 4017,
      " என்றாலும்": 4018,
      " உரிமைய": 4019,
      "சட்ட": 4020,
      " ஆந்திர": 4021,
      " விதமாக": 4022,
      " பிரா": 4023,
      " பெற்றது": 4024,
      "எனக்கு": 4025,
      " மாதத்தில்": 4026,
      " அரசியலில்": 4027,
      "கின்றனர்": 4028,
      "ின்றி": 4029,
      " ஓடி": 4030,
      " போலவே": 4031,
      "வகு": 4032,
      "ேஷ": 4033,
      "ப்படுத்துவ": 4034,
      "ஸா": 4035,
      " மன்ன": 4036,
      " காந்த": 4037,
      " பதிலாக": 4038,
      " வளர்ச்ச": 4039,
      " நகரில்": 4040,
      " மருத்துவமனைக்கு": 4041,
      "இஸ்ரே": 4042,
      "ட்டல்": 4043,
      " இசை": 4044,
      " வீட்டிற்கு": 4045,
      " திட்டங்கள்": 4046,
      " பூஜைகள்": 4047,
      "கட்ட": 4048,
      " எட்ட": 4049,
      " அடித்த": 4050,
      "ர்களால்": 4051,
      " பகவான்": 4052,
      "ாரிக்க": 4053,
      " எடுத்துக்": 4054,
      "என்ற": 4055,
      "தாம்": 4056,
      " குண்ட": 4057,
      " ரன்களை": 4058,
      " பதிவாக": 4059,
      "ப்பிரமணிய": 4060,
      "ஸி": 4061,
      "வுட்": 4062,
      "தைத்": 4063,
      " கடந்து": 4064,
      " பொதுச்செய": 4065,
      " தமது": 4066,
      " உப": 4067,
      "ழுது": 4068,
      " வருகை": 4069,
      " பிப்ரவரி": 4070,
      " தெரிவித்துள்ளனர்": 4071,
      " மோசடி": 4072,
      " மைதான": 4073,
      ",\n": 4074,
      "னையும்": 4075,
      " நமக்கு": 4076,
      "விடுவ": 4077,
      " மாற்றி": 4078,
      " மும்பை": 4079,
      " நன்மை": 4080,
      " தொழி": 4081,
      " உயர": 4082,
      " ஆச்ச": 4083,
      "ிகளுடன்": 4084,
      " சொல்வ": 4085,
      " பொருத்த": 4086,
      " ஷி": 4087,
      " கொ": 4088,
      " உச்சநீதிமன்ற": 4089,
      "ணர்வு": 4090,
      "ெனில்": 4091,
      " தினமும்": 4092,
      " தெரியவந்தது": 4093,
      "ரெ": 4094,
      "ியுள்ளன": 4095,
      "he": 4096,
      " ஆஜ": 4097,
      "ாவ்": 4098,
      " அதிர்ச்சி": 4099,
      " ஆகஸ்ட்": 4100,
      "உக்ரை": 4101,
      "பாகி": 4102,
      "லால்": 4103,
      "ாசி": 4104,
      "ராணுவ": 4105,
      "தைக்": 4106,
      " வயதான": 4107,
      " ஒன்றிய": 4108,
      " வாக்குகள்": 4109,
      " வலைதளங்களில்": 4110,
      " எக்ஸ்": 4111,
      " செவ்வ": 4112,
      " மாள": 4113,
      " நட்": 4114,
      "ினாமா": 4115,
      " கொண்டே": 4116,
      " குறிப்பிட்டுள்ளார்": 4117,
      " ?\n": 4118,
      " நடத்து": 4119,
      " வீசிய": 4120,
      " தீர்த்த": 4121,
      " அழைப்பு": 4122,
      "ர்பாக": 4123,
      " துவங்கியது": 4124,
      "ஜன்": 4125,
      "னுடன்": 4126,
      " கவனி": 4127,
      " நிலையம்": 4128,
      " வருமானம்": 4129,
      " நன்றாக": 4130,
      "il": 4131,
      " சபை": 4132,
      " அன்ன": 4133,
      " தொடர": 4134,
      " என்கிறார்கள்": 4135,
      "ப்பிரிக்க": 4136,
      " குஜராத்": 4137,
      "ஆனாலும்": 4138,
      "நிற": 4139,
      "த்தட்ட": 4140,
      " அல்": 4141,
      "ப்படுவது": 4142,
      " கொடி": 4143,
      "ையைத்": 4144,
      "ழல்": 4145,
      " ஆரோக்கிய": 4146,
      "முள்ள": 4147,
      " அணிய": 4148,
      " பயணிகள்": 4149,
      "ரவி": 4150,
      " கதா": 4151,
      " அறை": 4152,
      "த்துல": 4153,
      " நாண": 4154,
      "ிருக்கிற": 4155,
      " லீ": 4156,
      " விசாரணைக்கு": 4157,
      " சிகிச்ச": 4158,
      "ங்களுடன்": 4159,
      "த்துப்": 4160,
      " காட்டி": 4161,
      "முருக": 4162,
      " மேலாக": 4163,
      " சதவீதம்": 4164,
      " இஸ்லாமிய": 4165,
      "ுள்ளார்": 4166,
      "ிருக்கிறோம்": 4167,
      "த்தோடு": 4168,
      " சிக்": 4169,
      " அதிப": 4170,
      " மீட்பு": 4171,
      " சும": 4172,
      " யாக": 4173,
      " காலமாக": 4174,
      " கடின": 4175,
      "லன்": 4176,
      " சஞ்ச": 4177,
      " என்றே": 4178,
      " இருந்தன": 4179,
      " உயிர்": 4180,
      " அனைவருக்கும்": 4181,
      "தலாக": 4182,
      " வாழ்த்து": 4183,
      " ஊழியர்கள்": 4184,
      " ட்விட்டர்": 4185,
      "ியோ": 4186,
      " அஞ்ச": 4187,
      " இம்": 4188,
      " இங்கில": 4189,
      " கொடுக்கும்": 4190,
      " மீட்டர்": 4191,
      " மிகுந்த": 4192,
      " ஜனாதிப": 4193,
      "புறம்": 4194,
      "ப்போம்": 4195,
      "றுப்பு": 4196,
      " விண்": 4197,
      "ராஜா": 4198,
      " தூக்கி": 4199,
      "90": 4200,
      "உத": 4201,
      "உத்தர": 4202,
      " தர்ம": 4203,
      "ியாளர்கள்": 4204,
      "ப்பான்": 4205,
      " முட": 4206,
      "த்ரா": 4207,
      " தெய்": 4208,
      " டோ": 4209,
      " முன்னர்": 4210,
      "த்திரம்": 4211,
      " சிறும": 4212,
      "த்தொட": 4213,
      "ளிலும்": 4214,
      "டிவி": 4215,
      " சித்த": 4216,
      " வழக்கை": 4217,
      " ரயில்வே": 4218,
      "க்கிரமி": 4219,
      " பங்களி": 4220,
      " ஒதுக்கீடு": 4221,
      "ாளையம்": 4222,
      "நான": 4223,
      "ரையும்": 4224,
      "ிக்காக": 4225,
      " நல்லது": 4226,
      ".ஸ்டாலின்": 4227,
      " அச்சு": 4228,
      " ஒற்றை": 4229,
      "மதுரை": 4230,
      ".பன்னீர்செல்வம்": 4231,
      " s": 4232,
      " ரன்க": 4233,
      "ம்பரிய": 4234,
      " ஏவுக": 4235,
      " தெலு": 4236,
      " பிரதான": 4237,
      " தமிழகம்": 4238,
      " செயல்பட": 4239,
      " பள்ளியில்": 4240,
      " பத்திரிகைய": 4241,
      " ஸ்தான": 4242,
      "ரிட": 4243,
      "குமார்": 4244,
      " அமைச்சரவை": 4245,
      " ராஜினாமா": 4246,
      " நடித்த": 4247,
      " தற்போதைய": 4248,
      " தல": 4249,
      "விவ": 4250,
      "வர்த்த": 4251,
      "முதலில்": 4252,
      " சித": 4253,
      " தனியாக": 4254,
      "க்கப்பட்டது": 4255,
      " தடுப்பு": 4256,
      "க்கிழமை": 4257,
      " அங்கிருந்து": 4258,
      ":\n": 4259,
      "ாலின": 4260,
      " நடிக": 4261,
      " ஜனவரி": 4262,
      " சாப்பிட": 4263,
      "ையொட்டி": 4264,
      "வூ": 4265,
      "ட்டோ": 4266,
      "ங்கோ": 4267,
      " நிவ": 4268,
      " தெரிவிக்கப்பட்டுள்ளது": 4269,
      " ஊழல்": 4270,
      "அதைத்": 4271,
      " சர்மா": 4272,
      " அரை": 4273,
      " ஒட்டு": 4274,
      "ப்பட்டிருக்கிறது": 4275,
      "னுடைய": 4276,
      " மாதங்களுக்கு": 4277,
      "த்திற்கான": 4278,
      "300": 4279,
      "re": 4280,
      "ீங்க": 4281,
      " அன்பு": 4282,
      " ஹமாஸ்": 4283,
      " முடிந்தது": 4284,
      " விசாரிக்க": 4285,
      " கூறுகிறது": 4286,
      " விசாரணையில்": 4287,
      "ரம்ப": 4288,
      "வன": 4289,
      " தக": 4290,
      " யுக்ரே": 4291,
      "தாய": 4292,
      " இவர்கள்": 4293,
      " செய்துள்ளார்": 4294,
      " நம்புக": 4295,
      " வட்டார": 4296,
      "லான": 4297,
      "்த்": 4298,
      "ங்குவ": 4299,
      "ார்க்": 4300,
      " மாநகராட்சி": 4301,
      " விமர்சனம்": 4302,
      " தொடர்ச்சியாக": 4303,
      "லாத": 4304,
      "ப்பிடி": 4305,
      " புகழ்": 4306,
      " நூற்ற": 4307,
      " தெளிவாக": 4308,
      " சவு": 4309,
      "க்குத்": 4310,
      "கத்தில்": 4311,
      " வன்கொ": 4312,
      " அதற்கான": 4313,
      " துறையில்": 4314,
      " தீப": 4315,
      " டிசம்பர்": 4316,
      " பழனிச்ச": 4317,
      "ப்பிரதேச": 4318,
      " ஆட்சிக்கு": 4319,
      " அரசியல": 4320,
      " தவி": 4321,
      " வாச": 4322,
      " கருணா": 4323,
      " எதிர்கொள்ள": 4324,
      " எதிர்க்கட்சி": 4325,
      "்சி": 4326,
      " தெரிந்த": 4327,
      " சிறி": 4328,
      " பார்க்கலாம்": 4329,
      " பெண்களுக்கு": 4330,
      "கரன்": 4331,
      "பூர்": 4332,
      " நின்ற": 4333,
      " இளம்": 4334,
      "ிலில்": 4335,
      "ாளர்களின்": 4336,
      "பிசிய": 4337,
      "அதனை": 4338,
      "எனினும்": 4339,
      "யாண": 4340,
      " தீர்மானம்": 4341,
      " வழக்கறிஞர்": 4342,
      "லெ": 4343,
      "ப்பதற்கான": 4344,
      " நன்றி": 4345,
      " என்பதே": 4346,
      " பிள": 4347,
      " சாட்ட": 4348,
      " விசாரித்த": 4349,
      "ட்டார்": 4350,
      "க்குவ": 4351,
      " குதி": 4352,
      " தாண்டி": 4353,
      "ப்பட்டுள்ளதாக": 4354,
      " வசூ": 4355,
      " எச்சரிக்கை": 4356,
      " கைப்பற்ற": 4357,
      "யல்": 4358,
      "ங்களுக்கும்": 4359,
      " பேரும்": 4360,
      " யானை": 4361,
      " கட்டணம்": 4362,
      "197": 4363,
      " வாய்ப்புகள்": 4364,
      " விருப்ப": 4365,
      " பதவியே": 4366,
      " இங்கே": 4367,
      "தேசிய": 4368,
      " வைத்தார்": 4369,
      " சீரிய": 4370,
      " வாய்ந்த": 4371,
      " குறு": 4372,
      "ாலே": 4373,
      "ப்பட்டுள்ளனர்": 4374,
      " முன்னேற்ற": 4375,
      "ad": 4376,
      "வொரு": 4377,
      "க்கர": 4378,
      " திரும்பி": 4379,
      " ஒழுங்கு": 4380,
      " பஞ்சாப்": 4381,
      "விடு": 4382,
      "டியின்": 4383,
      " செய்துள்ளனர்": 4384,
      " மாணவர்களுக்கு": 4385,
      " நெடு": 4386,
      " உள்பட": 4387,
      " சம்பந்தப்பட்ட": 4388,
      " சற்று": 4389,
      "ரியும்": 4390,
      "ையைச்": 4391,
      " முன்னில": 4392,
      " சாப்பி": 4393,
      " வரலாற்று": 4394,
      " இடி": 4395,
      " ஆக்கிரமி": 4396,
      " கொட": 4397,
      "ங்களிடம்": 4398,
      " உயர்வு": 4399,
      "ப்போகிறது": 4400,
      " கருது": 4401,
      " நடிகை": 4402,
      "ந்தோ": 4403,
      " பிற்ப": 4404,
      " ஐரோ": 4405,
      " இன்னொரு": 4406,
      " நாடுகளின்": 4407,
      "ிடமிருந்து": 4408,
      " கடவு": 4409,
      "ழிவு": 4410,
      " வாக்குறு": 4411,
      " மகாராஷ்ட": 4412,
      " புனித": 4413,
      " முடிந்து": 4414,
      " மாணவர்": 4415,
      "ன்கு": 4416,
      " ஆசிரிய": 4417,
      " கீழே": 4418,
      " கேப்டன்": 4419,
      " ‛": 4420,
      "மடைந்து": 4421,
      "லாமல்": 4422,
      " விகி": 4423,
      "ப்பட்டதாக": 4424,
      " ஆகி": 4425,
      "களுக்கும்": 4426,
      "டையில்": 4427,
      "லர்கள்": 4428,
      "ில்லை": 4429,
      " போல": 4430,
      " சாதாரண": 4431,
      " கோப்பை": 4432,
      " செய்துள்ளது": 4433,
      "ன்பது": 4434,
      " சாதனை": 4435,
      " இலக்கு": 4436,
      " மனைவ": 4437,
      " மூன்றாவது": 4438,
      "ஸார்": 4439,
      " இருக்காது": 4440,
      " குடும்பத்தினர்": 4441,
      " வடக்கு": 4442,
      "ார்ட்": 4443,
      " ஆஃப்": 4444,
      "தியும்": 4445,
      "நாட": 4446,
      " நீட்": 4447,
      "லுடன்": 4448,
      " நடைபெறுகிறது": 4449,
      " துப்பாக்கி": 4450,
      "சொ": 4451,
      "ஜின": 4452,
      "தற்ப": 4453,
      "யான": 4454,
      " பாஸ்": 4455,
      "மாகி": 4456,
      "மாகப்": 4457,
      " கண்டறி": 4458,
      "வருமான": 4459,
      " அறநிலைய": 4460,
      " வசிக்கும்": 4461,
      " R": 4462,
      "ஜன": 4463,
      "லிக்க": 4464,
      "ண்ணாமலை": 4465,
      " காலி": 4466,
      " புதிதாக": 4467,
      "-க்கும்": 4468,
      "கிருஷ்ண": 4469,
      "ஜெய": 4470,
      " கல்வ": 4471,
      "..!\n": 4472,
      " வயதில்": 4473,
      " இளைஞர்கள்": 4474,
      "ணிக்க": 4475,
      "ளையில்": 4476,
      " இந்தச்": 4477,
      " கடற்க": 4478,
      " தயாரிக்க": 4479,
      " வன்கொடுமை": 4480,
      " செயலக": 4481,
      " ஜென": 4482,
      " கொண்ட": 4483,
      "வர்களிடம்": 4484,
      " அறிவுறுத்த": 4485,
      "ங்களைச்": 4486,
      "மீது": 4487,
      "கொண்டு": 4488,
      " காவல்துறையினர்": 4489,
      "பாலும்": 4490,
      " கற்ப": 4491,
      " கொஞ்சம்": 4492,
      "மிக்க": 4493,
      "டியூ": 4494,
      " உணர்வு": 4495,
      " பரவி": 4496,
      " சம்பவங்கள்": 4497,
      " ஆசிரியர்": 4498,
      " தங்களுக்கு": 4499,
      " இழந்த": 4500,
      "ப்புகளை": 4501,
      " பேரை": 4502,
      "ண்டுக்கல்": 4503,
      "மாற": 4504,
      " கட்டாய": 4505,
      " பெய்ய": 4506,
      " மேம்படுத்த": 4507,
      "தனது": 4508,
      " வானிலை": 4509,
      "தேர்தல்": 4510,
      " நாணய": 4511,
      "அவருக்கு": 4512,
      "வங்க": 4513,
      "க்கணி": 4514,
      " சமா": 4515,
      " குரல்": 4516,
      "ான்ஸ்": 4517,
      " கோப": 4518,
      " அதிகாலை": 4519,
      " ஜெயலலிதா": 4520,
      "கின்றன": 4521,
      "ியூ": 4522,
      "ஸ்பெ": 4523,
      " தொடரில்": 4524,
      " முதல்வராக": 4525,
      " தனிப்பட்ட": 4526,
      " ஆதரவாளர்கள்": 4527,
      " தொடர்புடைய": 4528,
      "மட்டு": 4529,
      " தருவ": 4530,
      " இறை": 4531,
      " அமைப்பின்": 4532,
      "விலான": 4533,
      " ஆஸ்திரேலிய": 4534,
      "ed": 4535,
      "அவரை": 4536,
      "உங்கள்": 4537,
      "ேட": 4538,
      "ல்ஸ்": 4539,
      " கண்": 4540,
      " சாலையில்": 4541,
      " இந்": 4542,
      " எம்பி": 4543,
      " அவற்றை": 4544,
      " ஓட்ட": 4545,
      "ர்ப்பு": 4546,
      " ராசிக்க": 4547,
      " மகளிர்": 4548,
      "சீன": 4549,
      " சொந்தமான": 4550,
      " ரகசிய": 4551,
      "ou": 4552,
      "ோது": 4553,
      "்டில்": 4554,
      " எடுப்ப": 4555,
      " உயர்ந்து": 4556,
      " தயார்": 4557,
      "இந்தியாவின்": 4558,
      " அக்டோபர்": 4559,
      " வங்கதேச": 4560,
      "and": 4561,
      " கிறி": 4562,
      " சர்": 4563,
      " கொண்டா": 4564,
      " பொதுச்": 4565,
      " இருப்பதாகவும்": 4566,
      "ஸ்க்": 4567,
      " தாக்குத": 4568,
      "நாதன்": 4569,
      "ஸுக்கு": 4570,
      "ண்டா": 4571,
      "ச்சா": 4572,
      "நாளை": 4573,
      " திணை": 4574,
      " நிறைவு": 4575,
      "்கானி": 4576,
      "த்திடம்": 4577,
      " ஆற்ற": 4578,
      "ங்களைத்": 4579,
      " மருத்துவர்கள்": 4580,
      " பெட்ரோல்": 4581,
      "பன்": 4582,
      " கற்று": 4583,
      " வெல்ல": 4584,
      " அமைந்த": 4585,
      "ியைக்": 4586,
      " முடிவெ": 4587,
      " முகாம": 4588,
      " பார்வை": 4589,
      " பிரதேசத்தில்": 4590,
      "நல்ல": 4591,
      " விஞ்": 4592,
      " அவரிடம்": 4593,
      " உலகம்": 4594,
      " ஆயு": 4595,
      " நிறுத்தி": 4596,
      "க்குறிச்சி": 4597,
      "மருத்து": 4598,
      " பந்த": 4599,
      " அங்கே": 4600,
      " திருச்சி": 4601,
      " அமைச்சராக": 4602,
      "லியா": 4603,
      " விக": 4604,
      " அணிந்து": 4605,
      " குடும்பத்தின": 4606,
      " பொறுப்பே": 4607,
      " காதல்": 4608,
      " நிச்சயம்": 4609,
      "த்தள": 4610,
      " அர்": 4611,
      "பிஐ": 4612,
      " ஆகியவற்றை": 4613,
      " படத்தின்": 4614,
      " வெளிப்படுத்த": 4615,
      " கட்டுப்படுத்த": 4616,
      " சிக்கி": 4617,
      " தடுப்பூசி": 4618,
      " கவுன்சில": 4619,
      " ராசிக்கார": 4620,
      "விள": 4621,
      "வைத்து": 4622,
      " பாரம்பரிய": 4623,
      " சர்ச்சை": 4624,
      " பந்துவீச்ச": 4625,
      " பேசுகையில்": 4626,
      "ப்பால்": 4627,
      "ப்பிரி": 4628,
      " ஆசிய": 4629,
      " சேத": 4630,
      " உடலை": 4631,
      " வேலைவாய்": 4632,
      " வியாபார": 4633,
      " ஏதாவது": 4634,
      " இந்தியாவுக்கு": 4635,
      " தங்கம்": 4636,
      " அண்ணா": 4637,
      "இரண்ட": 4638,
      "இதற்கிடையே": 4639,
      "கிறார்கள்": 4640,
      "டான": 4641,
      " பசு": 4642,
      "வாக்கு": 4643,
      "க்கியது": 4644,
      " எழுத": 4645,
      " உலகின்": 4646,
      " தேர்ந்தெடுக்க": 4647,
      " ஏவுகணை": 4648,
      " சமு": 4649,
      "ர்க்": 4650,
      " பிரிய": 4651,
      " சார்பாக": 4652,
      " நீதிபதிகள்": 4653,
      " செப்டம்பர்": 4654,
      "றித": 4655,
      "ட்சுமி": 4656,
      "ினார்கள்": 4657,
      " வருகிறோம்": 4658,
      "விரோத": 4659,
      "காரம்": 4660,
      " ஜனதா": 4661,
      " அழுத்த": 4662,
      " ஆத்மி": 4663,
      "ct": 4664,
      " மீட்ட": 4665,
      " டெல்லியில்": 4666,
      " கூறியது": 4667,
      " கலவர": 4668,
      " பெற்றோர்": 4669,
      " வரலாறு": 4670,
      "கண": 4671,
      " நொ": 4672,
      " இராஜ": 4673,
      "ங்குக": 4674,
      " விழிப்பு": 4675,
      " பராமரி": 4676,
      " பகிர": 4677,
      " சௌ": 4678,
      "ந்தனர்": 4679,
      " நாம": 4680,
      "வினை": 4681,
      "மேற்கு": 4682,
      "ியைத்": 4683,
      "விட்டதாக": 4684,
      " கூட்டணியில்": 4685,
      " போட்டியிட்ட": 4686,
      "மய": 4687,
      "ச்சல்": 4688,
      " அறிந்து": 4689,
      "இதுவரை": 4690,
      " உறுதியாக": 4691,
      " பாலி": 4692,
      " அணியில்": 4693,
      " டெஸ்ட்": 4694,
      "களாக": 4695,
      "நகர": 4696,
      " போன்று": 4697,
      " உள்ளட": 4698,
      " உறுதிய": 4699,
      " மண்டல": 4700,
      " பாஜகவின்": 4701,
      " இப்ப": 4702,
      "ளித்தார்": 4703,
      " நவம்பர்": 4704,
      " V": 4705,
      " ரு": 4706,
      "எங்கள்": 4707,
      "கூட": 4708,
      "ைக்க": 4709,
      " சக்த": 4710,
      "ப்பார்": 4711,
      " ரன்": 4712,
      "ாலிக": 4713,
      "மிடம்": 4714,
      "மாகவும்": 4715,
      " முடிவ": 4716,
      " நினைத்த": 4717,
      " இறக்கு": 4718,
      " அழுத்தம்": 4719,
      " அதிரடி": 4720,
      " சினிமா": 4721,
      "ol": 4722,
      "மிக்": 4723,
      "ோ": 4724,
      " ஆண்": 4725,
      "வாச": 4726,
      " திரைய": 4727,
      "சேனா": 4728,
      " ஈடுபட்டனர்": 4729,
      " முருகன்": 4730,
      "கடை": 4731,
      "தின": 4732,
      " நாட்ட": 4733,
      "ற்றுநோ": 4734,
      " டொ": 4735,
      " தங்களின்": 4736,
      " அறுவை": 4737,
      " முன்னிலையில்": 4738,
      " தகுதி": 4739,
      " அஸ்": 4740,
      "ப்பதை": 4741,
      "ிருப்பு": 4742,
      " வேத": 4743,
      " தேர்தலை": 4744,
      " கட்டட": 4745,
      " சொன்னார்": 4746,
      " வெளியிட்டுள்ள": 4747,
      " அனுபவ": 4748,
      "இனி": 4749,
      "கிற": 4750,
      " தேச": 4751,
      " சாமி": 4752,
      " வந்துள்ளது": 4753,
      " அப்படியே": 4754,
      " உற்சாக": 4755,
      " பேரில்": 4756,
      " காப்ப": 4757,
      "ராம்": 4758,
      " அமைந்துள்ளது": 4759,
      "ப்படுவதாக": 4760,
      "ing": 4761,
      " நவீன": 4762,
      " போதை": 4763,
      "ன்றும்": 4764,
      " வருகிற": 4765,
      "பாச": 4766,
      " பயன": 4767,
      " கொண்டது": 4768,
      " அதிகாரம்": 4769,
      " நான்க": 4770,
      " தவறான": 4771,
      " ஒப்புதல்": 4772,
      " வளாகத்தில்": 4773,
      " D": 4774,
      "ளான": 4775,
      " வைத்திய": 4776,
      " செலுத்தி": 4777,
      "விழா": 4778,
      " உள்துறை": 4779,
      "ணாம": 4780,
      "ேஸ்வர": 4781,
      " பருவ": 4782,
      "முடி": 4783,
      " அறிந்த": 4784,
      " முன்னோ": 4785,
      " ஃப்": 4786,
      " முன்பே": 4787,
      " ராசிக்கு": 4788,
      "நாள": 4789,
      "பாக": 4790,
      " கோலி": 4791,
      " அறிவியல்": 4792,
      " உடனே": 4793,
      "ஸ்கர்": 4794,
      " அலுவலகம்": 4795,
      " அறிகு": 4796,
      "\"\"": 4797,
      " ஆப்": 4798,
      " கேது": 4799,
      " முடிவை": 4800,
      " கொண்டுவர": 4801,
      " நேரங்களில்": 4802,
      " வகையான": 4803,
      "டியேற்ற": 4804,
      " நபர்கள்": 4805,
      " மணிய": 4806,
      "ப்பார்கள்": 4807,
      "க்குறை": 4808,
      " தொடக்க": 4809,
      "ரியை": 4810,
      " சமூ": 4811,
      " கட்சிக்கு": 4812,
      " வெளியேறி": 4813,
      " ஏற்கெனவே": 4814,
      " வசித்து": 4815,
      "முறையாக": 4816,
      " குடியரசுத்": 4817,
      " கும்பாபிஷேகம்": 4818,
      "om": 4819,
      "பவர்கள்": 4820,
      "நாதர்": 4821,
      " எதிர்பார்க்கப்படுகிறது": 4822,
      "ோவில்": 4823,
      " கவி": 4824,
      "துறை": 4825,
      " வழியில்": 4826,
      "ளிக்கும்": 4827,
      " செய்யலாம்": 4828,
      "சாத்": 4829,
      "மனை": 4830,
      " பில்லியன்": 4831,
      "ந்துள்ளனர்": 4832,
      " கொடு": 4833,
      " இருந்தும்": 4834,
      "பாபு": 4835,
      " தீபார": 4836,
      " வலியுறுத்தி": 4837,
      "ளியில்": 4838,
      "ிருக்கு": 4839,
      " புள்ள": 4840,
      " சுழ": 4841,
      " அதிர்ச்சியை": 4842,
      "க்ட": 4843,
      " கவு": 4844,
      " மஞ்ச": 4845,
      " முத்து": 4846,
      "ிட்டல்": 4847,
      " பிபிசிய": 4848,
      " பகுதியாக": 4849,
      "க்கப்பட்டார்": 4850,
      " அதிகரித்துள்ளது": 4851,
      " சிறுமி": 4852,
      " கையெழு": 4853,
      "கார்": 4854,
      " கம்": 4855,
      " அப்போ": 4856,
      "ட்டியில்": 4857,
      "வுள்ளது": 4858,
      "மைக்க": 4859,
      " ஜாம": 4860,
      " இடையில்": 4861,
      " மேற்கொ": 4862,
      " சந்திப்பு": 4863,
      "ஜாப்": 4864,
      " வெளியில்": 4865,
      "டியா": 4866,
      " காலங்களில்": 4867,
      " உலகக்": 4868,
      " திறக்க": 4869,
      " அதாவது": 4870,
      " ராணுவம்": 4871,
      " ஆன்லைன்": 4872,
      " ஆராய்ச்சி": 4873,
      " விண்வெளி": 4874,
      "ந்தும்": 4875,
      " முர": 4876,
      " போன்": 4877,
      " வென்று": 4878,
      "களைச்": 4879,
      " பொருள்": 4880,
      " பெரும்பான்": 4881,
      " எல்லோ": 4882,
      " இணையதள": 4883,
      " ஒப்பந்தம்": 4884,
      "சமீபத்தில்": 4885,
      " பிராந்திய": 4886,
      " ஸ்த": 4887,
      "சிறு": 4888,
      "க்களின்": 4889,
      " மசூ": 4890,
      " எனப்படும்": 4891,
      " வந்தால்": 4892,
      " ராஜா": 4893,
      " ராஜ்": 4894,
      " இடைக்கால": 4895,
      " உதயநிதி": 4896,
      ").\n": 4897,
      "இவர்கள்": 4898,
      "ரத்": 4899,
      "ரிகள்": 4900,
      "ாவா": 4901,
      " பொங்கல்": 4902,
      " குறைந்து": 4903,
      "க்கொள்க": 4904,
      " சிரம": 4905,
      " மரியாதை": 4906,
      ")\n": 4907,
      " இச": 4908,
      " அமைத்து": 4909,
      " மூட": 4910,
      " முதலமைச்ச": 4911,
      " வாங்கிய": 4912,
      "36": 4913,
      "்க்": 4914,
      "ாதா": 4915,
      " அமைந்துள்ள": 4916,
      "கோவை": 4917,
      " பவுண்ட": 4918,
      " உங்க": 4919,
      "ட்சியின்": 4920,
      " தெற்கு": 4921,
      " நீக்க": 4922,
      " சுரங்க": 4923,
      " விசேட": 4924,
      " தெரியாது": 4925,
      " துறைமுக": 4926,
      " அகில": 4927,
      " தேவையில்": 4928,
      "ாயிற்று": 4929,
      "சின்": 4930,
      "ியாளர்": 4931,
      " குறிப்பாக": 4932,
      " வேலைத்திட்ட": 4933,
      " கண்டனம்": 4934,
      " மரணம்": 4935,
      " ஆணையர்": 4936,
      " டிக்க": 4937,
      "வாறு": 4938,
      " சிவா": 4939,
      "ரும்பு": 4940,
      " ஓவரில்": 4941,
      " படித்து": 4942,
      " ராஜபக்ச": 4943,
      " c": 4944,
      "எடப்பாடி": 4945,
      "றான": 4946,
      "ேந்திர": 4947,
      "ப்பதில்": 4948,
      " என்னுடைய": 4949,
      "ட்ச்": 4950,
      "ிட்டி": 4951,
      "ent": 4952,
      " பட்டியலில்": 4953,
      "ay": 4954,
      "ஒரே": 4955,
      "ூரு": 4956,
      " உர": 4957,
      "விச": 4958,
      " விபத்தில்": 4959,
      " செயற்கை": 4960,
      " அமைதி": 4961,
      "த்துக்குடி": 4962,
      " செய்யப்பட்டார்": 4963,
      " அபிஷேக": 4964,
      " கவர்": 4965,
      " கழு": 4966,
      " மண்ண": 4967,
      " தகு": 4968,
      "ினேன்": 4969,
      " வழிக": 4970,
      "சென்னையில்": 4971,
      "செய்து": 4972,
      " திடீர்": 4973,
      "த்திரி": 4974,
      " அமைய": 4975,
      " செய்தால்": 4976,
      "பெரிய": 4977,
      "ங்களே": 4978,
      "ியைச்": 4979,
      " சாம்ப": 4980,
      " வெளிப்பட": 4981,
      " விமானம்": 4982,
      "பாலி": 4983,
      " ஆயிரக்கணக்கான": 4984,
      " மட்டுமின்றி": 4985,
      " ஒட்டுமொத்த": 4986,
      "ீவ்": 4987,
      " மர்ம": 4988,
      " அன": 4989,
      "முறையை": 4990,
      " பேசும்": 4991,
      " எடுக்கப்படும்": 4992,
      " மனோ": 4993,
      " தமிழர்": 4994,
      "வர்த": 4995,
      " பெருமை": 4996,
      " கேள்விக்கு": 4997,
      " சுவாம": 4998,
      " பரிசு": 4999,
      " சான்றித": 5000,
      "ம்தா": 5001,
      "மென": 5002,
      "ரிக்": 5003,
      " முது": 5004,
      "ாலய": 5005,
      " மேயர்": 5006,
      " அமர்ந்த": 5007,
      " அறிவித்துள்ளது": 5008,
      " ராஜஸ்தான்": 5009,
      " பெற்றார்": 5010,
      " உத்தரவிட்டு": 5011,
      " யாதவ்": 5012,
      " சமாஜ்": 5013,
      " E": 5014,
      "ஜிட்டல்": 5015,
      "நாக": 5016,
      "பந்த": 5017,
      " சேவ": 5018,
      " பங்கேற்று": 5019,
      "இன்னும்": 5020,
      " பழனிச்சாமி": 5021,
      "ஆவது": 5022,
      "ுரிமை": 5023,
      " சிரி": 5024,
      "வுள்ள": 5025,
      " நடத்துவ": 5026,
      " செய்திகள்": 5027,
      " வைக்கும்": 5028,
      " திட்டங்களை": 5029,
      " நிராக": 5030,
      " p": 5031,
      " எத்தனை": 5032,
      "க்ஷ": 5033,
      "ாவால்": 5034,
      " ஒற்று": 5035,
      "ரோடு": 5036,
      " வெளிநா": 5037,
      "இதனையடுத்து": 5038,
      " எரிபொரு": 5039,
      " சமீப": 5040,
      " செய்தியாளர்களை": 5041,
      " கலந்துரையாட": 5042,
      " கிட்டத்தட்ட": 5043,
      "எல்ல": 5044,
      "ராய": 5045,
      "ியால்": 5046,
      " விக்கெட்": 5047,
      " வீட்டை": 5048,
      "ிருக்கிறேன்": 5049,
      " கூறப்பட்டுள்ளது": 5050,
      "த்திற்குப்": 5051,
      " கட்டுமான": 5052,
      " அங்குள்ள": 5053,
      " களத்தில்": 5054,
      " இழந்து": 5055,
      " அச்சுறுத்த": 5056,
      " எவ்வாறு": 5057,
      "ண்முக": 5058,
      "காலை": 5059,
      " கூறும்": 5060,
      " ஷே": 5061,
      " அகற்ற": 5062,
      " வேண்டுமெ": 5063,
      " சூர்": 5064,
      " அட்ட": 5065,
      "டுகளுக்கு": 5066,
      " மீறி": 5067,
      " ஊக்கு": 5068,
      " மிகப்": 5069,
      " அமல்ப": 5070,
      "....\n": 5071,
      " தமிழிடம்": 5072,
      "இலங்கையில்": 5073,
      "த்தீவு": 5074,
      "னிடம்": 5075,
      "ைத்": 5076,
      " தள்ளி": 5077,
      " அணு": 5078,
      " ஆட்சியர்": 5079,
      "ஜு": 5080,
      "மல": 5081,
      " பத்து": 5082,
      " பின": 5083,
      "ையையும்": 5084,
      " பலன்": 5085,
      " இடத்திற்கு": 5086,
      "லாந்து": 5087,
      " எழுந்துள்ளது": 5088,
      "அந்தப்": 5089,
      " செயலாள": 5090,
      "மறு": 5091,
      "ளோ": 5092,
      " வலம்": 5093,
      " தஞ்ச": 5094,
      " முனை": 5095,
      " வேளா": 5096,
      " நினைத்து": 5097,
      " இலங்கையில்": 5098,
      " விடுமுறை": 5099,
      " சதவிகித": 5100,
      " முஸ்லிம்": 5101,
      "இவை": 5102,
      "வான்": 5103,
      " ஆழ": 5104,
      " நிலைக்கு": 5105,
      " திருப்பி": 5106,
      " முன்னணி": 5107,
      " பாஜகவுக்கு": 5108,
      "le": 5109,
      "ப்பாள": 5110,
      " அதிகபட்ச": 5111,
      " இடத்தை": 5112,
      " ஊர்": 5113,
      " கிடைக்கவில்லை": 5114,
      "மின்றி": 5115,
      " ஞான": 5116,
      "48": 5117,
      "களுக்கான": 5118,
      "க்டர்": 5119,
      "ுகோ": 5120,
      "ுகளில்": 5121,
      " தெரு": 5122,
      " ஜீ": 5123,
      " சேர்ந்தவர்கள்": 5124,
      " படங்கள்": 5125,
      " நியாய": 5126,
      " ஒலிம்ப": 5127,
      "தெல்லாம்": 5128,
      "பாய": 5129,
      " வில்": 5130,
      " மன்ற": 5131,
      " பாராட்டு": 5132,
      " பாதுகாக்க": 5133,
      " கூறியிருந்தார்": 5134,
      " பரபரப்பு": 5135,
      " வெளியாகியுள்ளது": 5136,
      "ரளா": 5137,
      " பாண்ட": 5138,
      "போர்": 5139,
      " என்பதுதான்": 5140,
      " விட்டது": 5141,
      " செய்தியாளர்களிடம்": 5142,
      "-வின்": 5143,
      "இந்து": 5144,
      "தரா": 5145,
      "ேட்": 5146,
      "ாரின்": 5147,
      "டிகள்": 5148,
      "ட்டுகள்": 5149,
      " கொண்டிருக்கிறது": 5150,
      " அமைச்சகம்": 5151,
      " ஊடாக": 5152,
      " சந்தோ": 5153,
      " நடத்தப்பட்ட": 5154,
      "தானம்": 5155,
      " பயன்படுத்து": 5156,
      "முருகன்": 5157,
      "கரிக்க": 5158,
      "பன": 5159,
      "வள": 5160,
      "ியடைந்த": 5161,
      "ப்பையும்": 5162,
      "டித்த": 5163,
      "னிதா": 5164,
      " நிர்ண": 5165,
      "பாஸ்": 5166,
      "ரவையில்": 5167,
      " படத்தை": 5168,
      " திறன்": 5169,
      " ஏற்றுமதி": 5170,
      "கரு": 5171,
      "காத": 5172,
      "யிர": 5173,
      " வேற": 5174,
      " பொறிய": 5175,
      " சட்டப்பே": 5176,
      "த்திற்குள்": 5177,
      " தரப்பின": 5178,
      " கட்சித்": 5179,
      " காட்சிகள்": 5180,
      "வழி": 5181,
      " மழ": 5182,
      "ழ்வு": 5183,
      " துரை": 5184,
      " உயர்ந்த": 5185,
      " காலக": 5186,
      " முயற்சிய": 5187,
      " தண்ணீ": 5188,
      " எதிர்க்கட்சிகள்": 5189,
      "சமூக": 5190,
      " ரொம்ப": 5191,
      "நாடகா": 5192,
      "ரைய": 5193,
      " வண்ண": 5194,
      " ராய": 5195,
      " பாட்ட": 5196,
      " முடித்து": 5197,
      " நிறைந்த": 5198,
      "சோதா": 5199,
      " பகுதியைச்": 5200,
      " எட்டு": 5201,
      "ாகப்": 5202,
      "ானின்": 5203,
      "ாளிகள்": 5204,
      " வெள்ளி": 5205,
      " ஜான்": 5206,
      " இரட்டை": 5207,
      " அளித்து": 5208,
      " வாகனத்தில்": 5209,
      "யூனி": 5210,
      "சக்தி": 5211,
      "த்க": 5212,
      " சாம": 5213,
      "வுகிறது": 5214,
      "த்ரி": 5215,
      " நடத்தப்பட்டது": 5216,
      " மாதங்களில்": 5217,
      " சிக்கல்": 5218,
      " பதிலடி": 5219,
      " கப்பல்": 5220,
      "சந்திர": 5221,
      "பகவ": 5222,
      "வாரி": 5223,
      "ென்ன": 5224,
      " ஆடை": 5225,
      " மாநாட்டில்": 5226,
      "ாமல": 5227,
      "மாகவே": 5228,
      "ிருந்தன": 5229,
      " வருவதாகவும்": 5230,
      "ிகளையும்": 5231,
      " இயக்குந": 5232,
      " மகிழ்ச்சி": 5233,
      " சுட்டிக்காட்ட": 5234,
      "அக": 5235,
      "நடுக்க": 5236,
      "்கூட": 5237,
      " மன்னி": 5238,
      "ப்பிற்கு": 5239,
      " ஆசை": 5240,
      "ப்பட்டிருந்தது": 5241,
      "மாட்ட": 5242,
      "ஏற்கனவே": 5243,
      "கமான": 5244,
      "பட்டு": 5245,
      "றது": 5246,
      " நாராய": 5247,
      "ாரை": 5248,
      " என்னவெ": 5249,
      " விளக்கு": 5250,
      " இறங்கி": 5251,
      " தற்காலிக": 5252,
      " எல்": 5253,
      "திட": 5254,
      "லைக்": 5255,
      " பேசு": 5256,
      " நிலம்": 5257,
      " சூப்பர்": 5258,
      " சென்றது": 5259,
      " குடும்பம்": 5260,
      " பிரிவில்": 5261,
      " நாடுகளுக்கு": 5262,
      "சீனா": 5263,
      " வல்லு": 5264,
      " கனி": 5265,
      " கஷ்ட": 5266,
      " தலா": 5267,
      " பார்க்கும்": 5268,
      " வழக்குகள்": 5269,
      "ப்பூரில்": 5270,
      "அரசியல்": 5271,
      " இன்றைய": 5272,
      " பயங்கர": 5273,
      "த்திற": 5274,
      "ாலா": 5275,
      "ிக்கொள்ள": 5276,
      " கேம": 5277,
      "ரேப": 5278,
      " திட்டத்தில்": 5279,
      " இயற்கை": 5280,
      " நிகழ்வில்": 5281,
      " குழுவின்": 5282,
      " ஏற்பாடுகளை": 5283,
      " கமல்": 5284,
      " சாய்": 5285,
      "விஜ": 5286,
      " சேலம்": 5287,
      " என்பதில்": 5288,
      " கட்டிய": 5289,
      "றையின": 5290,
      " வாங்குவ": 5291,
      " குழந்தைகளுக்கு": 5292,
      " கோவிலுக்கு": 5293,
      " கற்க": 5294,
      " நம்ம": 5295,
      " குமார": 5296,
      "ற்றுவ": 5297,
      "முதல": 5298,
      " அமைச்சின்": 5299,
      " இணையத்தில்": 5300,
      " L": 5301,
      "பாய்": 5302,
      "ார்க்க": 5303,
      " ஒன்றி": 5304,
      "ாததால்": 5305,
      " தீய": 5306,
      " ராசியில்": 5307,
      " சட்டவிரோத": 5308,
      " நாடாளுமன்றத்தில்": 5309,
      " G": 5310,
      " கிரி": 5311,
      " முன்த": 5312,
      " முந்தைய": 5313,
      "முக்கிய": 5314,
      " வெளியிட்டுள்ளது": 5315,
      " திரைப்படம்": 5316,
      " அறிமுகப்படுத்த": 5317,
      " குழப்ப": 5318,
      " அமர்ந்து": 5319,
      "ஆளு": 5320,
      " இப்போ": 5321,
      "குடும்ப": 5322,
      " அளிக்கும்": 5323,
      "ஹித்": 5324,
      " மணியளவில்": 5325,
      "400": 5326,
      "ிருந்தாலும்": 5327,
      "ாரணமாக": 5328,
      "தாஸ்": 5329,
      "க்கோட்டை": 5330,
      " வரவேற்பு": 5331,
      " எச்சரி": 5332,
      " ஆர்வம்": 5333,
      " குற்றம்சாட்ட": 5334,
      "பான": 5335,
      "யார்": 5336,
      " விற்க": 5337,
      "துக்க": 5338,
      " மீதும்": 5339,
      "யிலாடு": 5340,
      " தாக்கரே": 5341,
      " எதிர்பார்த்த": 5342,
      " அம்ச": 5343,
      "தமான": 5344,
      "முடிய": 5345,
      "ரைச்": 5346,
      "வாங்க": 5347,
      " தாக்குதலை": 5348,
      " நகர்ப்புற": 5349,
      " கலாசார": 5350,
      " வரிசையில்": 5351,
      " பிபிசியிடம்": 5352,
      "சர்வதேச": 5353,
      "ள்கள்": 5354,
      " சால": 5355,
      "ண்டன்": 5356,
      " என்பதற்காக": 5357,
      " அதிமுகவில்": 5358,
      " போகும்": 5359,
      " வேட்பாள": 5360,
      " வெற்றிகர": 5361,
      "அதனால்தான்": 5362,
      "பிக்": 5363,
      "யமாக": 5364,
      "்டி": 5365,
      " எண்": 5366,
      " லோ": 5367,
      " வாழும்": 5368,
      " வைத்தனர்": 5369,
      " கோயிலுக்கு": 5370,
      " வேண்டுமான": 5371,
      " விழுந்த": 5372,
      "ாதி": 5373,
      " மச": 5374,
      "டுகின்றனர்": 5375,
      "ஸ்டி": 5376,
      " பகுதிய": 5377,
      " இலங்கைக்கு": 5378,
      "ார்களா": 5379,
      " கவனிக்க": 5380,
      " விஞ்ஞான": 5381,
      "32": 5382,
      "உள்ள": 5383,
      "ர்ஜி": 5384,
      "ற்றைய": 5385,
      " பாரு": 5386,
      " லக்": 5387,
      " சந்தை": 5388,
      " என்னிடம்": 5389,
      " ஏற்படுத்திய": 5390,
      " பட்டியல்": 5391,
      " தொண்டர்கள்": 5392,
      " இறக்குமதி": 5393,
      " ரிச": 5394,
      "ப்பொ": 5395,
      "ப்படு": 5396,
      " அமைப்புகள்": 5397,
      " வாடிக்க": 5398,
      " செய்யவில்லை": 5399,
      " ஆண்டின்": 5400,
      " வழிபா": 5401,
      "வருடைய": 5402,
      " ட்வீ": 5403,
      " காய்ச்ச": 5404,
      "வருகிறது": 5405,
      "உக்ரைன்": 5406,
      "மல்": 5407,
      " அதான": 5408,
      "ப்புரம்": 5409,
      " ஒருவரை": 5410,
      "ஜ்ரி": 5411,
      "150": 5412,
      " போட்டியி": 5413,
      " பதவியில்": 5414,
      "ஜென்": 5415,
      "நெல்": 5416,
      "மக்கள": 5417,
      "க்கிறது": 5418,
      " மட்ட": 5419,
      "ாலத்தில்": 5420,
      "ியாகும": 5421,
      "ல்கத்தா": 5422,
      "சனை": 5423,
      "வர்களாக": 5424,
      " கேட்டுக்": 5425,
      " பொதுச்செயலாளர்": 5426,
      "சங்க": 5427,
      "பண": 5428,
      "ேல்": 5429,
      " இத்தகைய": 5430,
      " ஏறி": 5431,
      "ரியாக": 5432,
      " தலைநகர்": 5433,
      " நிறைவ": 5434,
      "மூர்த்தி": 5435,
      " ஆர்ப்பா": 5436,
      " ராமர்": 5437,
      " பயிற்சிய": 5438,
      " பதற்ற": 5439,
      " சமயத்தில்": 5440,
      " ஒத்துழைப்பு": 5441,
      " இங்கிலாந்து": 5442,
      "மறை": 5443,
      " ஆட": 5444,
      " வெகு": 5445,
      "வாதிகள்": 5446,
      " வழங்கினார்": 5447,
      " பெரும்பாலும்": 5448,
      " பெற்றுள்ளது": 5449,
      " விஷயங்கள்": 5450,
      " ஆபத்து": 5451,
      " உள்நாட்டு": 5452,
      " பெரிதாக": 5453,
      "அனைத்து": 5454,
      " சபாநாயகர்": 5455,
      " கம்யூனி": 5456,
      " மசோதா": 5457,
      "ாலோ": 5458,
      "ின்றார்": 5459,
      " மீட்டு": 5460,
      "ிற்கான": 5461,
      " இருக்கின்றனர்": 5462,
      " ஷெ": 5463,
      " எடுத்துச்": 5464,
      " தொழிலாளர்கள்": 5465,
      " உண்மையான": 5466,
      " ஜெய்": 5467,
      "ப்படியான": 5468,
      " கும்பல்": 5469,
      "ik": 5470,
      "பட்டி": 5471,
      " பக": 5472,
      " மஹி": 5473,
      " சண்டை": 5474,
      " அப்": 5475,
      " ஆட்டம்": 5476,
      "ிருத்த": 5477,
      "ாவிய": 5478,
      " பெறு": 5479,
      "ிடும்": 5480,
      "தேனும்": 5481,
      "ரோன": 5482,
      " பார்த்தால்": 5483,
      "ஸ்கே": 5484,
      " நிரந்தர": 5485,
      " பிரச்னைகள்": 5486,
      "முன்னாள்": 5487,
      " திருக்கோ": 5488,
      " பின்பற்ற": 5489,
      " இராஜாங்க": 5490,
      "55": 5491,
      " ஒழிப்பு": 5492,
      " தீர்க்க": 5493,
      " உருவான": 5494,
      " தெரியுமா": 5495,
      " செயல்பட்ட": 5496,
      " பந்துகளில்": 5497,
      " வாழ்க்கையில்": 5498,
      " பணியாற்றி": 5499,
      " விக்கெட்டுகளை": 5500,
      " அறிகுற": 5501,
      " முன்தினம்": 5502,
      "இவ்வாறு": 5503,
      " பாவ": 5504,
      " மெட்": 5505,
      " ராம்": 5506,
      " கட்டிட": 5507,
      "முதல்வர்": 5508,
      " சட்டமன்றத்": 5509,
      " பழங்குடிய": 5510,
      " in": 5511,
      " உளவு": 5512,
      " ஆட்டத்தில்": 5513,
      " கோட்ட": 5514,
      "காஷ்": 5515,
      " செய்துள்ள": 5516,
      " படித்த": 5517,
      " திட்டமிட்ட": 5518,
      " காப்பாற்ற": 5519,
      "விசாரண": 5520,
      "ழிக்க": 5521,
      "த்தினால்": 5522,
      " வாத": 5523,
      " அத்திய": 5524,
      " அரேப": 5525,
      "ப்படியாக": 5526,
      " இவ்வாறு": 5527,
      " எடுக்கும்": 5528,
      " இந்தி": 5529,
      "ாதே": 5530,
      " சமர்": 5531,
      " இலங்கையின்": 5532,
      "வய": 5533,
      " அர்ச்ச": 5534,
      "ாகவே": 5535,
      " உடலில்": 5536,
      " முறைகே": 5537,
      " விடுவி": 5538,
      " அடைந்து": 5539,
      " எச்சரிக்க": 5540,
      "33": 5541,
      "ஜனாதி": 5542,
      "ாட்டி": 5543,
      " அர்த்த": 5544,
      "ரசி": 5545,
      "பிஎல்": 5546,
      "ழ்ச்சி": 5547,
      "எனது": 5548,
      " அனுப்பிய": 5549,
      " டீசல்": 5550,
      "கெ": 5551,
      "ஸ்கள்": 5552,
      "சுமார்": 5553,
      " பொதுக்குழுவ": 5554,
      " வெளியேற": 5555,
      " பாடல்": 5556,
      " உதவும்": 5557,
      " நிபுணர்கள்": 5558,
      "உடனே": 5559,
      "வல": 5560,
      "க்குக்": 5561,
      "ாலம்": 5562,
      " நிலையை": 5563,
      " புற்றுநோ": 5564,
      "ங்களா": 5565,
      "ும்படி": 5566,
      " தூத": 5567,
      " வழிபட்ட": 5568,
      "நேர": 5569,
      "பொதுவாக": 5570,
      " உறவினர்கள்": 5571,
      "நடை": 5572,
      "ங்க்": 5573,
      " சுட்டு": 5574,
      " பிள்ளை": 5575,
      " இருப்பதை": 5576,
      " வேண்டியது": 5577,
      " இறங்க": 5578,
      " ஊடகங்களில்": 5579,
      " ஜெனரல்": 5580,
      " காலகட்டத்தில்": 5581,
      "ஜெட்": 5582,
      " பரு": 5583,
      "ியையும்": 5584,
      " சர்க்க": 5585,
      " இராணுவ": 5586,
      "க்குமா": 5587,
      "ாரும்": 5588,
      " முதிய": 5589,
      " சீர": 5590,
      " வருவதால்": 5591,
      "க்கொண்டார்": 5592,
      "ஆகவே": 5593,
      " மின்சாரம்": 5594,
      " கொடூர": 5595,
      ".அ": 5596,
      " கொழும்பு": 5597,
      "ிக்கான": 5598,
      "முறையில்": 5599,
      " சேகரி": 5600,
      " முடியுமா": 5601,
      " எந்தவொரு": 5602,
      " போராடி": 5603,
      " குழுவினர்": 5604,
      " விழுந்து": 5605,
      " மாணவிகள்": 5606,
      "',": 5607,
      "னையாக": 5608,
      " வாரி": 5609,
      " இண": 5610,
      " தேதிய": 5611,
      " அரசை": 5612,
      "பிள்": 5613,
      " என்பதும்": 5614,
      " மூழ்க": 5615,
      "ர்களே": 5616,
      " பாடசாலை": 5617,
      " கனமழை": 5618,
      "வர்தன": 5619,
      "த்தன்மை": 5620,
      "ியிடம்": 5621,
      " அலி": 5622,
      " கொள்": 5623,
      " தேர்வ": 5624,
      " நிலவும்": 5625,
      " இருந்தே": 5626,
      " தெரியாமல்": 5627,
      " மருத்துவக்": 5628,
      " ரெட்டி": 5629,
      " மட்டுமல்லாமல்": 5630,
      " அக்னி": 5631,
      "ஏனெனில்": 5632,
      "மனம்": 5633,
      "ித": 5634,
      "ிலே": 5635,
      " போதே": 5636,
      "சித்து": 5637,
      " வரவில்லை": 5638,
      " தலைவரும்": 5639,
      " ஊர": 5640,
      " சட்டத்தை": 5641,
      " இயந்திர": 5642,
      " டிஜிட்டல்": 5643,
      " நடத்தும்": 5644,
      " வாகனம்": 5645,
      " செய்துகொண்ட": 5646,
      " அமல்படுத்த": 5647,
      "ஓபிஎஸ்": 5648,
      "மையும்": 5649,
      " சண்ட": 5650,
      "ப்பய": 5651,
      " விடுக்க": 5652,
      " புத்த": 5653,
      " தேர்தலுக்கு": 5654,
      " மோகன்": 5655,
      "ரவாத": 5656,
      " எழுந்து": 5657,
      " சிறுத்தை": 5658,
      " கிளம்ப": 5659,
      "37": 5660,
      " நடிக்க": 5661,
      " முடிக்க": 5662,
      "196": 5663,
      " நிலையில்தான்": 5664,
      " வேட்பாளராக": 5665,
      " அப்து": 5666,
      "ஏனென்றால்": 5667,
      " நட்பு": 5668,
      " லை": 5669,
      "இய": 5670,
      "காரணம்": 5671,
      " வளை": 5672,
      " மலைய": 5673,
      " சன்ன": 5674,
      "ற்சிக": 5675,
      " உலா": 5676,
      "ிக்கொண்டு": 5677,
      " பிறப்பி": 5678,
      " பொதுமக்க": 5679,
      " நண்பர்கள்": 5680,
      " வெளிப்படையாக": 5681,
      "id": 5682,
      "லின": 5683,
      " உத்திய": 5684,
      " என்பதையும்": 5685,
      " வழங்கப்பட்ட": 5686,
      "அந்தக்": 5687,
      " உள்ளிட்டோர்": 5688,
      "அதுமட்டு": 5689,
      " இதய": 5690,
      " ஆட்டமி": 5691,
      " முற்றிலும்": 5692,
      " F": 5693,
      "ையிலிருந்து": 5694,
      " சென்ன": 5695,
      "சிவ": 5696,
      " பொன்": 5697,
      " நேரு": 5698,
      " எந்தவித": 5699,
      " சிக்கிய": 5700,
      "மொழ": 5701,
      " ஏற்றுக்கொள்ள": 5702,
      " பண்ணி": 5703,
      "ப்பதால்": 5704,
      " எழ": 5705,
      " முற்ப": 5706,
      "விந்த்": 5707,
      "வைக்": 5708,
      " இடங்கள்": 5709,
      " சமயம்": 5710,
      " கணக்கெ": 5711,
      " குறைவான": 5712,
      "அதிலும்": 5713,
      " சோழ": 5714,
      "ஸ்தானில்": 5715,
      " ஆப்கானி": 5716,
      " சொல்வது": 5717,
      " நூற்றாண்ட": 5718,
      " போலீ": 5719,
      "ra": 5720,
      "நடி": 5721,
      "ருக்கான": 5722,
      " ஒருமுறை": 5723,
      " புள்ளி": 5724,
      "மேஷ்": 5725,
      "ரைக்": 5726,
      " தாக்கி": 5727,
      "ட்களை": 5728,
      " அமையும்": 5729,
      " ஆட்சிய": 5730,
      "க்காரர்கள்": 5731,
      " படுகொலை": 5732,
      "el": 5733,
      "ஜை": 5734,
      "வாதம்": 5735,
      "த்தலை": 5736,
      " ஆண்டும்": 5737,
      " ஏழை": 5738,
      "பெரு": 5739,
      " கொண்டிருக்கும்": 5740,
      " நடத்தப்படும்": 5741,
      " வார்ட": 5742,
      "வதை": 5743,
      " மம்தா": 5744,
      "ஸ்பு": 5745,
      " நிலநடுக்க": 5746,
      "னிவா": 5747,
      " கூறியுள்ளது": 5748,
      " நெட்டி": 5749,
      " நிலைப்பா": 5750,
      " நடந்துள்ளது": 5751,
      " கதாபா": 5752,
      "ew": 5753,
      "வையும்": 5754,
      "த்துக்காக": 5755,
      "ாவூர்": 5756,
      " ரெய": 5757,
      "கர்நாடக": 5758,
      " கருத்தில்": 5759,
      " வாழ்த்த": 5760,
      " சாதகமாக": 5761,
      " பட்டா": 5762,
      " யூன": 5763,
      "ஜே": 5764,
      "க்களுக்கு": 5765,
      " தடுத்து": 5766,
      " அசோ": 5767,
      " துணி": 5768,
      " கணக்கில்": 5769,
      " போன்றவை": 5770,
      " கொள்ளலாம்": 5771,
      " அடுத்தடுத்து": 5772,
      " அவர்களது": 5773,
      " திணைக்கள": 5774,
      "கன": 5775,
      "வரிடம்": 5776,
      " சாக": 5777,
      "ம்பே": 5778,
      "ிடமும்": 5779,
      " ஒருநாள்": 5780,
      " கட்டமை": 5781,
      "வீர்கள்": 5782,
      " அனைத்தையும்": 5783,
      " ஆதரி": 5784,
      " விளம்பர": 5785,
      "ர்களான": 5786,
      " பெண்களை": 5787,
      " திட்டமிட": 5788,
      " அரிசி": 5789,
      "இறு": 5790,
      "ாயிர": 5791,
      " பாபு": 5792,
      " வருடம்": 5793,
      "ளித்து": 5794,
      " படக": 5795,
      " சொல்லப்படுகிறது": 5796,
      " பறிமுதல்": 5797,
      " காஷ்மீர்": 5798,
      "iv": 5799,
      "ஜோ": 5800,
      " தட்டு": 5801,
      " அபர": 5802,
      " சேர": 5803,
      " பூம": 5804,
      " அணியை": 5805,
      "வருடன்": 5806,
      " வசதிகள்": 5807,
      " கடற்படை": 5808,
      "மதா": 5809,
      "மனித": 5810,
      " கூடும்": 5811,
      "மேல்": 5812,
      "ராகுல்": 5813,
      "வெளியில்": 5814,
      " முக்கியம்": 5815,
      " நிறுவனத்தில்": 5816,
      " அறிக்கையை": 5817,
      "ப்போது": 5818,
      " சந்தேகம்": 5819,
      " ஒளிபர": 5820,
      "ெடுத்த": 5821,
      " மன்": 5822,
      " அட்": 5823,
      " அட்டை": 5824,
      " கோப்ப": 5825,
      " செய்யப்பட": 5826,
      "லகிரி": 5827,
      " செயலாளராக": 5828,
      " வெளியேற்ற": 5829,
      " மறுத்து": 5830,
      "ிகளிடம்": 5831,
      " வைரல": 5832,
      " வலைத்தள": 5833,
      " கழித்து": 5834,
      " முயற்சிகள்": 5835,
      " திருக்கல்": 5836,
      " பெண்களின்": 5837,
      "44": 5838,
      "ப்பகுதியில்": 5839,
      "ுகை": 5840,
      " முன்னெடுக்க": 5841,
      " திண்டுக்கல்": 5842,
      " தங்கிய": 5843,
      " சுற்றுச்சூ": 5844,
      " பாதை": 5845,
      " விநியோக": 5846,
      " ராஜபக்சே": 5847,
      "கத்தின்": 5848,
      " ஏதேனும்": 5849,
      "வ்வேறு": 5850,
      "போதே": 5851,
      " வந்துள்ளார்": 5852,
      " சந்தித்தார்": 5853,
      " மாற்றங்கள்": 5854,
      " உருவாக்கி": 5855,
      "போலீ": 5856,
      " புறக்கணி": 5857,
      " விசாரித்து": 5858,
      "ஜீ": 5859,
      "நூ": 5860,
      "லையும்": 5861,
      "ுமாறு": 5862,
      "ாவள": 5863,
      " பேரு": 5864,
      "புரத்தில்": 5865,
      " கண்டன": 5866,
      "அதேநேரம்": 5867,
      " செல்வது": 5868,
      " சிவசேனா": 5869,
      " யோகம்": 5870,
      " பிரதேசம்": 5871,
      " கண்காணிப்பு": 5872,
      "வராஜ்": 5873,
      " அம்மனுக்கு": 5874,
      " கருணாநிதி": 5875,
      "டகை": 5876,
      "ளாவிய": 5877,
      "ெடி": 5878,
      "த்தன்": 5879,
      "திகளை": 5880,
      " விடுவ": 5881,
      "ாதது": 5882,
      " ஏக்கர்": 5883,
      "மாக்க": 5884,
      " சுரே": 5885,
      " சுப்பிரமணிய": 5886,
      " காணொ": 5887,
      " வைத்திருந்த": 5888,
      " காரில்": 5889,
      " தெரிவித்திருந்தார்": 5890,
      " கூறியிருக்கிறார்": 5891,
      " யாருக்கும்": 5892,
      " ஏற்பட்டுள்ள": 5893,
      " உற்பத்திய": 5894,
      " ஆரம்பிக்க": 5895,
      " சதவிகிதம்": 5896,
      " சமர்ப்பி": 5897,
      "இதற்கான": 5898,
      " காள": 5899,
      " சாவ": 5900,
      "டுதல்": 5901,
      "மாற்றம்": 5902,
      " கடத்த": 5903,
      " அளவிலான": 5904,
      "195": 5905,
      " மாதங்கள்": 5906,
      " யாருக்கு": 5907,
      " பல்கலைக்கழகத்தின்": 5908,
      " நியமிக்க": 5909,
      " மாரியம்மன்": 5910,
      " தெய்வ": 5911,
      "விவசாய": 5912,
      " இவை": 5913,
      " மாறு": 5914,
      " வீடுகள்": 5915,
      " கேரளா": 5916,
      " அளித்தார்": 5917,
      " மக்களிடம்": 5918,
      " ஹிஜாப்": 5919,
      " சிறிது": 5920,
      " மஞ்சள்": 5921,
      " மன்னிப்பு": 5922,
      "ot": 5923,
      "மண்ட": 5924,
      "ுக்கும்": 5925,
      "ொன்று": 5926,
      " குறைய": 5927,
      "ாவளி": 5928,
      "வர்களுக்கும்": 5929,
      "ர்களையும்": 5930,
      " நகராட்சி": 5931,
      " நடந்தன": 5932,
      " கொடுத்தார்": 5933,
      " இளைய": 5934,
      " பிரிட்டன்": 5935,
      " அவ்வப்போது": 5936,
      " மாளிக": 5937,
      "யிலாடுதுறை": 5938,
      "38": 5939,
      "of": 5940,
      "கீ": 5941,
      "டீ": 5942,
      " அய்ய": 5943,
      " ஆப்பிரிக்க": 5944,
      "ளுக்க": 5945,
      "ல்லி": 5946,
      " மாநாடு": 5947,
      " பலி": 5948,
      "காசி": 5949,
      " வெளியானது": 5950,
      " முடிவில்": 5951,
      " போதுமான": 5952,
      " மனதில்": 5953,
      "இஸ்ரேல்": 5954,
      " நிவாரண": 5955,
      "பிக்க": 5956,
      " பிக்": 5957,
      " தொலைக்க": 5958,
      "ராச": 5959,
      " தாக்கிய": 5960,
      "விட்டன": 5961,
      " நோட்ட": 5962,
      "நாதபுரம்": 5963,
      " பெண்ணை": 5964,
      "வதற்கான": 5965,
      "ங்களுக்கான": 5966,
      "ந்துவீ": 5967,
      " தென்க": 5968,
      " வருத்த": 5969,
      "மேத": 5970,
      " பலத்த": 5971,
      "சியை": 5972,
      " ரூபா": 5973,
      " கருதி": 5974,
      "மீண்டும்": 5975,
      " தூக்க": 5976,
      " வளர்க்க": 5977,
      "அதுவும்": 5978,
      " பழனிசாம": 5979,
      " பெண்ணின்": 5980,
      "குழந்தை": 5981,
      "நெல்வே": 5982,
      "அங்க": 5983,
      "அதற்காக": 5984,
      "ஜர்": 5985,
      " சோத": 5986,
      " ஆண": 5987,
      "டுகிறார்கள்": 5988,
      " வீசி": 5989,
      " நிர்ம": 5990,
      " முன்னதாக": 5991,
      " விலகி": 5992,
      " இணைந்த": 5993,
      " ஈடுபட": 5994,
      " துணைத்": 5995,
      " இறுதியில்": 5996,
      " வலுவான": 5997,
      " கிறிஸ்த": 5998,
      " தேவையில்லை": 5999,
      "ாயிற்றுக்கிழமை": 6000,
      "மும்பை": 6001,
      " விவா": 6002,
      "ச்சின்": 6003,
      "ரியின்": 6004,
      " பொலி": 6005,
      "ட்டிங்": 6006,
      " தெரிவித்திருக்கிறார்": 6007,
      " மின்ன": 6008,
      " இடையேயான": 6009,
      " யோகி": 6010,
      " டாலர்": 6011,
      " தள்ளு": 6012,
      "ஆனா": 6013,
      "சீர": 6014,
      " முழ": 6015,
      " போரில்": 6016,
      "னைப்": 6017,
      " வீரா": 6018,
      " காணப்படும்": 6019,
      " காரிய": 6020,
      " பொருளாதாரம்": 6021,
      " உறுதிப்படுத்த": 6022,
      " அரபு": 6023,
      " வெள்ளை": 6024,
      "த்தேர்த": 6025,
      " கட்சியினர்": 6026,
      " பயன்பா": 6027,
      "ஒதுக்க": 6028,
      "பில்": 6029,
      " பௌ": 6030,
      " பாய்": 6031,
      " இவ்வளவு": 6032,
      "ழ்ந்த": 6033,
      "ஸ்டிக்": 6034,
      " அறிவித்தார்": 6035,
      "ர்களா": 6036,
      " கொள்ளும்": 6037,
      " கனவு": 6038,
      " ஆரம்பித்து": 6039,
      " மாட்டார்கள்": 6040,
      " பங்கேற்றனர்": 6041,
      " விவாதிக்க": 6042,
      "க்களில்": 6043,
      " மண்": 6044,
      "திக்கு": 6045,
      "ிடையில்": 6046,
      " பிரியா": 6047,
      " தொடரும்": 6048,
      " இந்தியாவை": 6049,
      " காலநிலை": 6050,
      " தோன்ற": 6051,
      " வாகனங்கள்": 6052,
      " தளபதி": 6053,
      "படியே": 6054,
      " சரவ": 6055,
      "ையெல்லாம்": 6056,
      "ிரவு": 6057,
      "ன்றை": 6058,
      " கேட்ப": 6059,
      "லித்": 6060,
      " பிள்ள": 6061,
      " உணர்ந்த": 6062,
      " ஸ்டாலின": 6063,
      " நாளித": 6064,
      " தவிர்த்து": 6065,
      " நம்மை": 6066,
      "ஞ்சிபுரம்": 6067,
      " லேச": 6068,
      " ஆலய": 6069,
      " ‛‛": 6070,
      " கம்யூனிஸ்ட்": 6071,
      "நம்": 6072,
      "மகாராஷ்ட": 6073,
      " போதிலும்": 6074,
      " ஏதோ": 6075,
      "தாகத்": 6076,
      "னுக்கும்": 6077,
      " இடது": 6078,
      " தீர்ப்ப": 6079,
      " புதுச்சேரி": 6080,
      " ஆதித்ய": 6081,
      " பிரதமராக": 6082,
      " ராஜபக்ஷ": 6083,
      " v": 6084,
      "கள்ள": 6085,
      "்தொ": 6086,
      "ாகவும்": 6087,
      "விருக்க": 6088,
      "சியா": 6089,
      "ள்களை": 6090,
      " அமெரிக்காவின்": 6091,
      " தாக்குதலில்": 6092,
      " செய்வதற்கு": 6093,
      " ஆயிரத்து": 6094,
      " செய்தித்": 6095,
      "சுவாமி": 6096,
      "லீ": 6097,
      "ழில": 6098,
      "ங்குகள்": 6099,
      "ண்டில்": 6100,
      "ாமன்": 6101,
      "வேலு": 6102,
      "டைந்தது": 6103,
      "முத்து": 6104,
      " நீங்க": 6105,
      " இருந்ததால்": 6106,
      " பிளா": 6107,
      "ப்படுகின்றது": 6108,
      " நோக்கம்": 6109,
      " வரவேற்க": 6110,
      " ட்விட்டரில்": 6111,
      " ஏற்பாடுகள்": 6112,
      " பிரசாரம்": 6113,
      " அலங்காரத்தில்": 6114,
      " கலந்துகொண்டனர்": 6115,
      "நிறுவ": 6116,
      " அரசியலமைப்பு": 6117,
      "இத்தகைய": 6118,
      "பக்த": 6119,
      " அசை": 6120,
      " எங்கே": 6121,
      "ர்களுக்கான": 6122,
      "ற்புத": 6123,
      " சிறப்பான": 6124,
      " கிழ": 6125,
      " தூது": 6126,
      " சந்திப்பில்": 6127,
      " பணிப்பாளர்": 6128,
      "சன்கள்": 6129,
      " கல்லூரியில்": 6130,
      " டிரம்ப்": 6131,
      " விரைந்து": 6132,
      " வரலாற்றில்": 6133,
      " பானர்ஜி": 6134,
      "34": 6135,
      "et": 6136,
      "இரவு": 6137,
      "எஸ்கே": 6138,
      "கத்தை": 6139,
      "வழ": 6140,
      "வழக்க": 6141,
      "ிகளாக": 6142,
      "வுபடுத்த": 6143,
      "த்ர": 6144,
      "ாதன": 6145,
      "ண்ணு": 6146,
      " இடங்களிலும்": 6147,
      " துன்பு": 6148,
      " அமைச்சு": 6149,
      " அளவிற்கு": 6150,
      " அதிகாரப்பூர்வ": 6151,
      " அறிவிக்கப்பட்ட": 6152,
      "அதன்பிறகு": 6153,
      " உருவாக்கு": 6154,
      " தாக்கத்தை": 6155,
      " ஜெயக்குமார்": 6156,
      " நாடாளுமன்றத்": 6157,
      " குடிநீர்": 6158,
      " பணியாளர்கள்": 6159,
      " ஆய்வாளர்": 6160,
      ".ம": 6161,
      " மதியம்": 6162,
      " சப்": 6163,
      " எதையும்": 6164,
      "ச்சல": 6165,
      " கொடியேற்ற": 6166,
      " மாய": 6167,
      " ஏற்றி": 6168,
      "ினாலும்": 6169,
      "மாற்ற": 6170,
      " பயிர": 6171,
      " யான": 6172,
      "லித்து": 6173,
      " ராணி": 6174,
      " அந்தத்": 6175,
      "லுக்கான": 6176,
      " பணியை": 6177,
      " அனுப்பு": 6178,
      " தரப்ப": 6179,
      " சொல்லும்": 6180,
      " மாதங்களாக": 6181,
      "தமிழ்": 6182,
      " வெற்றியை": 6183,
      " அடங்கிய": 6184,
      " பணியாற்ற": 6185,
      "ன்னீர்செல்வ": 6186,
      " அவ்வளவு": 6187,
      "மிக்ரான்": 6188,
      "குவ": 6189,
      " மும்ப": 6190,
      " மகள": 6191,
      " குல": 6192,
      " தாக்கம்": 6193,
      " இதுதான்": 6194,
      " ஆதரவாள": 6195,
      " பதிலளித்த": 6196,
      " ஆச்சரிய": 6197,
      " ஊக்குவி": 6198,
      " அதானி": 6199,
      "ஆன்": 6200,
      " மதம்": 6201,
      " எடை": 6202,
      " மாடல்": 6203,
      " வீடுகளில்": 6204,
      " நேர்": 6205,
      " சிவில்": 6206,
      " ஓரா": 6207,
      " எடுக்கப்பட்ட": 6208,
      " அலுவலர்": 6209,
      " கனடா": 6210,
      " இன்றி": 6211,
      " இழப்ப": 6212,
      " தொலைபே": 6213,
      " ஷிண்டே": 6214,
      "ஜனாதிபதி": 6215,
      " டு": 6216,
      " கரை": 6217,
      " சார": 6218,
      " ஜப்பான்": 6219,
      "மாலை": 6220,
      " இருக்கிறோம்": 6221,
      " சிபிஐ": 6222,
      " பணியாள": 6223,
      " முடித்த": 6224,
      " மண்டபத்தில்": 6225,
      " கலைஞ": 6226,
      " கூடுதலாக": 6227,
      " பணியிட": 6228,
      " தொடர்ந்து": 6229,
      " இன்றும்": 6230,
      " மாநகராட்ச": 6231,
      "ியாகுமரி": 6232,
      "பவர்": 6233,
      "பற்றி": 6234,
      " அரிய": 6235,
      "ிறீர்கள்": 6236,
      "குஜரா": 6237,
      " ஏதும்": 6238,
      "வைப்": 6239,
      " சேமி": 6240,
      " தொடர்ந்த": 6241,
      " ஊட": 6242,
      " கலந்த": 6243,
      " பின்னால்": 6244,
      " கருத்தை": 6245,
      " தொடங்கினார்": 6246,
      "கேரள": 6247,
      " தொகுதிகளில்": 6248,
      "கர்கள்": 6249,
      "டங்கு": 6250,
      "ணத்தில்": 6251,
      "ைச்": 6252,
      " பன்னீர்செல்வம்": 6253,
      " தளம்": 6254,
      " ஆணை": 6255,
      "ாதான": 6256,
      "ிக்கொ": 6257,
      " காற்று": 6258,
      "தாகும்": 6259,
      " வாடகை": 6260,
      " சுப்": 6261,
      " ஏற்படுத்து": 6262,
      " லோக": 6263,
      "வெளிய": 6264,
      " வயி": 6265,
      " நியமனம்": 6266,
      " உரிமைகள்": 6267,
      " செய்கிறார்": 6268,
      " கலைஞர்": 6269,
      "ation": 6270,
      " மாதிரியான": 6271,
      "த்தொடர்ந்து": 6272,
      " தெலுங்கு": 6273,
      " வாடிக்கைய": 6274,
      " மஹிந்த": 6275,
      "இன்": 6276,
      "ஐடி": 6277,
      "ிழ": 6278,
      " வட்டி": 6279,
      "க்குமாறு": 6280,
      " தேனி": 6281,
      " மீனா": 6282,
      " எழுத்த": 6283,
      " கணக்க": 6284,
      " பழக்க": 6285,
      " தோற்ற": 6286,
      " விஷயத்தில்": 6287,
      " கர்நாடகா": 6288,
      "மருத்துவ": 6289,
      " தீபாராதனை": 6290,
      "ch": 6291,
      "்டன்": 6292,
      " வான்": 6293,
      "ம்பெய": 6294,
      "ுவில்": 6295,
      "ாதீர்கள்": 6296,
      "மாகத்": 6297,
      " இருந்தபோது": 6298,
      " தாங்கள்": 6299,
      " சம்பளம்": 6300,
      " இயக்கம்": 6301,
      " ஐந்த": 6302,
      " பெரியார்": 6303,
      " படிக்கும்": 6304,
      " வேண்டுமென": 6305,
      "லாமா": 6306,
      " தொலைவில்": 6307,
      "பொருளாதார": 6308,
      " H": 6309,
      " and": 6310,
      ".சு": 6311,
      "தல்ல": 6312,
      "ர்ஷ்ட": 6313,
      " தாவ": 6314,
      " சென்": 6315,
      "ரைப்": 6316,
      " துரு": 6317,
      " பரப்ப": 6318,
      " மட்டும்தான்": 6319,
      " அலங்காரம்": 6320,
      " அறிமுகம்": 6321,
      " சிக்ஸ": 6322,
      " f": 6323,
      "nd": 6324,
      " நை": 6325,
      " செங்க": 6326,
      "முறைகள்": 6327,
      "யிலில்": 6328,
      "ப்பட்டுள்ளதாகவும்": 6329,
      " கெஜ்ரி": 6330,
      " கேள்வ": 6331,
      " டிரை": 6332,
      " கட்டுப்பாட்டில்": 6333,
      " அறிவிக்கப்பட்டுள்ளது": 6334,
      "அமைச்சர்": 6335,
      "மாய்": 6336,
      "வற்றில்": 6337,
      " தனு": 6338,
      "ட்டிக்": 6339,
      "ங்கலம்": 6340,
      " முகா": 6341,
      "ர்கா": 6342,
      " வந்தாலும்": 6343,
      " செலுத்து": 6344,
      " மறுக்க": 6345,
      "னேஷ்": 6346,
      "ரஷ்யா": 6347,
      " சமுதாய": 6348,
      " w": 6349,
      "od": 6350,
      "us": 6351,
      "என்னை": 6352,
      "புக": 6353,
      "ியல": 6354,
      " சமேத": 6355,
      " மாறிய": 6356,
      " வெட்டி": 6357,
      " மேலா": 6358,
      " லிட்ட": 6359,
      " ஹா": 6360,
      " குறித்துப்": 6361,
      " பணிபுரி": 6362,
      " விளையாடி": 6363,
      "தொட": 6364,
      " குறைந்தபட்ச": 6365,
      " மூன்றாம்": 6366,
      " விண்ணப்ப": 6367,
      " கருதப்படுகிறது": 6368,
      " பேட்டியில்": 6369,
      " ஐரோப்பிய": 6370,
      "பாள": 6371,
      "மாத": 6372,
      "வதில்லை": 6373,
      " சக்கர": 6374,
      " முடிகிறது": 6375,
      "ராஜர்": 6376,
      " காணாமல்": 6377,
      "திருவ": 6378,
      "க்கொள்வ": 6379,
      " வாயில": 6380,
      "டையும்": 6381,
      "பஞ்சா": 6382,
      "றல்": 6383,
      " மந்திர": 6384,
      " சன்": 6385,
      " சமைய": 6386,
      "ப்புடன்": 6387,
      " வெவ்வேறு": 6388,
      "மூல": 6389,
      " வாழ்ந்து": 6390,
      " பைடன்": 6391,
      " நடைமுறைப்படுத்த": 6392,
      "பாகிஸ்தான்": 6393,
      " உத்தியோக": 6394,
      "39": 6395,
      "ணிகள்": 6396,
      "வட்ட": 6397,
      "்களின்": 6398,
      "ங்களுக்காக": 6399,
      "ிறதா": 6400,
      "ிகளுக்கும்": 6401,
      " விதை": 6402,
      " விடும்": 6403,
      " வரைய": 6404,
      " பாரதிய": 6405,
      " ஹீ": 6406,
      " மாநிலத்தின்": 6407,
      "தொழில்": 6408,
      " உட்பட்ட": 6409,
      "ிகளிலும்": 6410,
      "தென்": 6411,
      " திரும்பிய": 6412,
      " எளிதாக": 6413,
      " பட்ஜெட்": 6414,
      " வித்தியாசத்தில்": 6415,
      " எரிபொருள்": 6416,
      "த்தில்தான்": 6417,
      " ஆண்கள்": 6418,
      " குண்டு": 6419,
      "த்யா": 6420,
      "ாயில்": 6421,
      " இடைய": 6422,
      "காச": 6423,
      " வழங்கப்பட": 6424,
      " காலையில்": 6425,
      "தல்கள்": 6426,
      " செயலாளர்கள்": 6427,
      " பாதிப்பை": 6428,
      "திருமண": 6429,
      " குற்றச்சாட்டுகள்": 6430,
      " ஆய்வாளர்கள்": 6431,
      " மைதானத்தில்": 6432,
      "65": 6433,
      "உண": 6434,
      "நமது": 6435,
      "லைப்": 6436,
      "றிவு": 6437,
      "மாண்ட": 6438,
      " கைவிட": 6439,
      " கட்டாயம்": 6440,
      " வேண்டி": 6441,
      "அதிக": 6442,
      "பைல்": 6443,
      " இதனால்": 6444,
      " விரும்பவில்லை": 6445,
      " குழுவில்": 6446,
      " லாப": 6447,
      " விழிப்புணர்வு": 6448,
      "41": 6449,
      " தந்து": 6450,
      " செஸ்": 6451,
      " போலி": 6452,
      "வைக்க": 6453,
      " எதிர": 6454,
      " கடமை": 6455,
      " ஐய": 6456,
      " தெரியாத": 6457,
      " அதிகரித்த": 6458,
      " பெரும": 6459,
      " வருவாய்": 6460,
      "தோறும்": 6461,
      " இன்ஸ்ட": 6462,
      " ஆஸ்திரேலியா": 6463,
      " இம்ரான்": 6464,
      "கிறேன்": 6465,
      "மிய": 6466,
      " அஜித்": 6467,
      "ிராம்": 6468,
      "த்துக்கான": 6469,
      "நாடாளுமன்ற": 6470,
      " ஆதரவை": 6471,
      " பேசியது": 6472,
      " வழக்குப்பதிவு": 6473,
      " வழிவகு": 6474,
      " உணவுப்": 6475,
      " அங்கிருந்த": 6476,
      "தொடர்பாக": 6477,
      " ஏமாற்ற": 6478,
      " பதிவிட்டுள்ளார்": 6479,
      " ஒன்றிணை": 6480,
      "அவை": 6481,
      "ஏன்": 6482,
      "ாவிட்டால்": 6483,
      "ையன்": 6484,
      "ாவிலும்": 6485,
      " பிரம்ம": 6486,
      " மோடி": 6487,
      " வீட்டின்": 6488,
      " சுப": 6489,
      " ஆண்டுக்கு": 6490,
      "யாணம்": 6491,
      " நூற்று": 6492,
      " சூழ்நிலையில்": 6493,
      " அந்நாட்டு": 6494,
      " கமிஷ": 6495,
      " வடிவமை": 6496,
      " அறநிலையத்துறை": 6497,
      " பட்ச": 6498,
      " பழக": 6499,
      "ண்டல்": 6500,
      "ாரே": 6501,
      "ச்சியில்": 6502,
      "ாமே": 6503,
      " ஓவர்களில்": 6504,
      " சந்தர்ப்ப": 6505,
      " சம்பள": 6506,
      "ிருப்பதாகவும்": 6507,
      " சங்கம்": 6508,
      " செல்வாக்கு": 6509,
      " மோசமாக": 6510,
      " வேலைவாய்ப்பு": 6511,
      " கதி": 6512,
      " முகம்": 6513,
      "தேவி": 6514,
      " நீடி": 6515,
      "போன்று": 6516,
      " பாதுகாப்பாக": 6517,
      " முயற்சிக": 6518,
      " ஒன்றும்": 6519,
      " செயல்படும்": 6520,
      " ரஷ்யாவின்": 6521,
      " தெரிவிக்கின்றன": 6522,
      " வேட்பாளர்கள்": 6523,
      " ஆண்டுகளுக்குப்": 6524,
      " மாறியது": 6525,
      " கிலோமீ": 6526,
      " லாபம்": 6527,
      " தாயார்": 6528,
      " தானே": 6529,
      " தேர்வில்": 6530,
      ".ச": 6531,
      "ur": 6532,
      "அப்ப": 6533,
      "அன்று": 6534,
      "களுக்காக": 6535,
      "ஷ்க": 6536,
      " மிக்க": 6537,
      "ந்தம்": 6538,
      " ஆச": 6539,
      " பொரு": 6540,
      "தற்கட்ட": 6541,
      "இதுபோன்ற": 6542,
      " விளையாட": 6543,
      " சம்பவத்தில்": 6544,
      " வாழ்வ": 6545,
      " சுதந்திரம்": 6546,
      "?!\n": 6547,
      "மயம்": 6548,
      "லிகா": 6549,
      " சில்": 6550,
      "ானே": 6551,
      "ம்பிக்க": 6552,
      "ாத்க": 6553,
      " துறையின்": 6554,
      " எழுப்பிய": 6555,
      " கொண்டுள்ளது": 6556,
      " நிகழ்ச்சிகள்": 6557,
      " சீனாவின்": 6558,
      " திருப்பதி": 6559,
      " மார்க்க": 6560,
      " வேளாண்": 6561,
      "-க்கு": 6562,
      "திரி": 6563,
      " பாமக": 6564,
      "டுத்தப்பட்ட": 6565,
      " நாடாக": 6566,
      " தெரிவித்தது": 6567,
      "கிழக்கு": 6568,
      " கட்டத்தில்": 6569,
      " வயதுக்கு": 6570,
      " காயம்": 6571,
      " வரவேற்ப": 6572,
      " புதின்": 6573,
      " K": 6574,
      "47": 6575,
      " மனம்": 6576,
      " சம்ம": 6577,
      " ஒடி": 6578,
      "குறை": 6579,
      " பாம்ப": 6580,
      "சித்த": 6581,
      " இடங்களை": 6582,
      " கூறப்பட்டது": 6583,
      "வீன்": 6584,
      " என்னும்": 6585,
      " சொல்லிய": 6586,
      " சுவார": 6587,
      " கல்லூர": 6588,
      " புலன": 6589,
      " படையினர்": 6590,
      " வழக்கறிஞ": 6591,
      " செவ்வாய்": 6592,
      "உய": 6593,
      "டலில்": 6594,
      "மத": 6595,
      " தருக": 6596,
      " நன்கு": 6597,
      " கொன்ற": 6598,
      " வேட்பு": 6599,
      "ப்பட்டால்": 6600,
      " தேரோ": 6601,
      " பிரமுக": 6602,
      " சேகர்": 6603,
      " கொண்டுவ": 6604,
      " சந்தையில்": 6605,
      " தொடர்பாளர்": 6606,
      " சீதார": 6607,
      " எழுந்தது": 6608,
      " நெல்": 6609,
      " மாணவர்களின்": 6610,
      " தோட்ட": 6611,
      " நாயு": 6612,
      " அருள்பாலி": 6613,
      " O": 6614,
      "அவர்களுக்கு": 6615,
      "ணர்": 6616,
      " மெல்ல": 6617,
      "ற்சாலை": 6618,
      " ஒத்தி": 6619,
      " போகிறது": 6620,
      " பாச": 6621,
      " அவன்": 6622,
      " ஹரி": 6623,
      "வீர": 6624,
      " குறைந்தது": 6625,
      " பரப்பு": 6626,
      " எல்லையில்": 6627,
      " மடங்கு": 6628,
      " கேமரா": 6629,
      "லிலும்": 6630,
      " மஹ": 6631,
      " அற்புத": 6632,
      " எங்கு": 6633,
      "திரா": 6634,
      " ஆற்றில்": 6635,
      " மீம்": 6636,
      " இடத்துக்கு": 6637,
      " கடலில்": 6638,
      " வழங்கப்பட்டுள்ளது": 6639,
      " பேசினோம்": 6640,
      " குறைவு": 6641,
      " அறிவித்தது": 6642,
      " டிகிரி": 6643,
      " அணிந்த": 6644,
      " வைத்துக்": 6645,
      " எதிர்கொண்ட": 6646,
      "05": 6647,
      "நிறு": 6648,
      "ீனம்": 6649,
      " அன்": 6650,
      "ாவசிய": 6651,
      " கொரோன": 6652,
      "ட்சை": 6653,
      " புத்தா": 6654,
      " பூமி": 6655,
      " என்னென்ன": 6656,
      "ப்படுத்திய": 6657,
      " பரீ": 6658,
      " காவிரி": 6659,
      " பயன்படுத்துவ": 6660,
      " நாடுகளும்": 6661,
      " அதனால்": 6662,
      " செல்வம்": 6663,
      " வாழ்க்கையை": 6664,
      " வேகத்தில்": 6665,
      " புகைப்படம்": 6666,
      "மிகு": 6667,
      " நிபுணர்": 6668,
      " அமலாக்கத்துறை": 6669,
      "ணாமுல்": 6670,
      " d": 6671,
      "உச்ச": 6672,
      "தாலும்": 6673,
      "ாறு": 6674,
      "ந்தின்": 6675,
      "ப்பதாகவும்": 6676,
      "ள்ளோம்": 6677,
      "ற்றால்": 6678,
      " வழங்கு": 6679,
      " என்றனர்": 6680,
      " ஜம்மு": 6681,
      "ிற்காக": 6682,
      " இடஒதுக்க": 6683,
      " சிவன்": 6684,
      "மையா": 6685,
      " அரசுப்": 6686,
      " வளர்ந்து": 6687,
      " குடும்பத்தில்": 6688,
      " நம்பி": 6689,
      " அதிமுகவின்": 6690,
      " கொண்டு": 6691,
      "ஷ்டி": 6692,
      " மறுசீர": 6693,
      " நானும்": 6694,
      " ஆரம்பித்த": 6695,
      " பதற்றம்": 6696,
      " அணுகு": 6697,
      " ஜாமீன்": 6698,
      "சனி": 6699,
      "ம்மை": 6700,
      " மார்க": 6701,
      " ஆக்": 6702,
      "ஸ்வரி": 6703,
      "வேக": 6704,
      " கோல்": 6705,
      " கோட்டை": 6706,
      " நிலவி": 6707,
      " நிலவர": 6708,
      " புதை": 6709,
      " திசை": 6710,
      " போட்டோ": 6711,
      " போட்டிகள்": 6712,
      " இல்லையா": 6713,
      " நிறுவனங்களின்": 6714,
      " விலக்கு": 6715,
      " வாய்ப்பை": 6716,
      " உலகில்": 6717,
      " வாரிய": 6718,
      "திரும": 6719,
      " பின்னணி": 6720,
      " பிரிட்டி": 6721,
      " of": 6722,
      "வதால்": 6723,
      "ெடுத்து": 6724,
      "ோம்": 6725,
      "்ட்ட": 6726,
      " வது": 6727,
      "ப்பர": 6728,
      " முத்த": 6729,
      "வைச்": 6730,
      "முழு": 6731,
      " மிகக்": 6732,
      " எழுப்பி": 6733,
      " பகுதிகள்": 6734,
      " நடித்து": 6735,
      " திறந்த": 6736,
      " பரிசீ": 6737,
      " செய்கிறது": 6738,
      " தரும": 6739,
      " ஹோமம்": 6740,
      " இழுத்து": 6741,
      "ப்பிரிவு": 6742,
      " வழிகாட்டு": 6743,
      " வீராங்க": 6744,
      "பையில்": 6745,
      "ந்தன்": 6746,
      " அண்மையில்": 6747,
      " வாக்கள": 6748,
      " நீக்கம்": 6749,
      "பெங்கள": 6750,
      " பிறகும்": 6751,
      " அனைவரையும்": 6752,
      " நடத்தப்பட்டு": 6753,
      " நாடுகளை": 6754,
      " விடய": 6755,
      " பதவிக்கு": 6756,
      " உண்மையில்": 6757,
      " துவங்கி": 6758,
      " நாயகம்": 6759,
      " ஊடகங்கள்": 6760,
      " ஆசிரியர்கள்": 6761,
      " அனுபவம்": 6762,
      " ஓய்வூ": 6763,
      " முதன்மை": 6764,
      "காவல": 6765,
      " அதிருப்தி": 6766,
      " மகாராஷ்டிரா": 6767,
      "தனி": 6768,
      "ட்டுப்": 6769,
      " ஏற": 6770,
      " ஏழ": 6771,
      " நாட": 6772,
      " செய்திருந்தனர்": 6773,
      " பலாத்க": 6774,
      " கிராம்": 6775,
      " பழமையான": 6776,
      " உணர": 6777,
      " அறிவித்து": 6778,
      " உருவ": 6779,
      " எடுத்துக்கொள்ள": 6780,
      "ஒருவேளை": 6781,
      "ப்படுவார்கள்": 6782,
      " காயமடைந்த": 6783,
      " பிரச்சார": 6784,
      " சேவைகள்": 6785,
      " அமர்வு": 6786,
      " கும்பாபிஷேக": 6787,
      " உண்டாகும்": 6788,
      " கோரிக்கையை": 6789,
      " விகிதம்": 6790,
      " நெட்டிசன்கள்": 6791,
      "இன்றைய": 6792,
      " பாய": 6793,
      "ாவாக": 6794,
      "ுவது": 6795,
      "வேண்டிய": 6796,
      " ஒருவருக்கு": 6797,
      " ஜாத": 6798,
      "டுகின்றன": 6799,
      "ர்தான்": 6800,
      " லஞ்ச": 6801,
      " நிகழ்த்த": 6802,
      " வேலைக்கு": 6803,
      " தொடங்கும்": 6804,
      " பெற்றுக்": 6805,
      "சேகர்": 6806,
      " மதிப்பெ": 6807,
      " அறக்கட்ட": 6808,
      " மேம்பாட்டு": 6809,
      "அரசாங்க": 6810,
      " பற்றியும்": 6811,
      "ப்பொருள்": 6812,
      " கதாபாத்திர": 6813,
      " b": 6814,
      " கர்ப்ப": 6815,
      " தங்கி": 6816,
      "ாரில்": 6817,
      " ஆபாச": 6818,
      "ுவின்": 6819,
      "ிக்கிறது": 6820,
      "வேலை": 6821,
      " இருக்கிறேன்": 6822,
      "டுவதற்கு": 6823,
      " நேரடி": 6824,
      " ஜெர்ம": 6825,
      " ரீதியில்": 6826,
      " இளவர": 6827,
      " ஆனது": 6828,
      " அனுபவி": 6829,
      " சிறுவன்": 6830,
      " தைரிய": 6831,
      " முஸ்லிம": 6832,
      "46": 6833,
      "அவரின்": 6834,
      "அவர்களின்": 6835,
      "சல": 6836,
      "மாவட்ட": 6837,
      " தம்பி": 6838,
      "க்குள்ள": 6839,
      "ிலு": 6840,
      " முற்று": 6841,
      "ல்லிக்க": 6842,
      "ப்பட்டிருந்த": 6843,
      " பொய்ய": 6844,
      " அமைப்பை": 6845,
      "பாடுகள்": 6846,
      " நேர்த்த": 6847,
      " சமர்ப்ப": 6848,
      " பாஜகவில்": 6849,
      " கூறினர்": 6850,
      " கருவி": 6851,
      "இதைத்": 6852,
      " அங்கீகாரம்": 6853,
      " விநியோ": 6854,
      "49": 6855,
      "அதற்க": 6856,
      "அப்போ": 6857,
      "வியா": 6858,
      " எங்களை": 6859,
      "்சபா": 6860,
      "வர்தான்": 6861,
      " வரவு": 6862,
      " வரையிலான": 6863,
      " புத": 6864,
      " நீரா": 6865,
      " டூ": 6866,
      " அதிகாரிகளுக்கு": 6867,
      " விசாரணையை": 6868,
      " வளர்ந்த": 6869,
      " கைதுசெய்ய": 6870,
      " இன்னிங்": 6871,
      "ையானது": 6872,
      " ஃபே": 6873,
      " பயிற்ச": 6874,
      " விட்டார்": 6875,
      " மறைந்த": 6876,
      "நெல்வேலி": 6877,
      " h": 6878,
      "லட்சுமி": 6879,
      " படுக்க": 6880,
      " மந்த": 6881,
      "ங்கர்": 6882,
      " உண்ண": 6883,
      " கோர": 6884,
      " இந்தியர்கள்": 6885,
      " தினசரி": 6886,
      " விழாவை": 6887,
      "சிலாந்து": 6888,
      " கேட்டார்": 6889,
      " பிரச்சினைகள்": 6890,
      " எதிர்க்கட்சித்": 6891,
      "ாப": 6892,
      "ோருக்கு": 6893,
      " சாம்": 6894,
      " அர்ப்ப": 6895,
      " எலி": 6896,
      "ையு": 6897,
      " குறையும்": 6898,
      "ாலேயே": 6899,
      " திண": 6900,
      " பதிவிட்ட": 6901,
      "விரை": 6902,
      "பேர": 6903,
      " அமெரிக்காவில்": 6904,
      " சிறுபான்": 6905,
      "விழாவில்": 6906,
      " விவசாயம்": 6907,
      " நிகழ்வுகள்": 6908,
      " ஜெக": 6909,
      " மேற்பட்டோர்": 6910,
      " வேலையை": 6911,
      " தற்போது": 6912,
      " வியாழ": 6913,
      " பற்றா": 6914,
      " உத்தரவ": 6915,
      "நாம": 6916,
      "ென்று": 6917,
      " தடு": 6918,
      " ஏர்": 6919,
      " மேலே": 6920,
      " கோவ": 6921,
      " நீங்கும்": 6922,
      "பாதுகா": 6923,
      "காந்த்": 6924,
      " பாரத்": 6925,
      " பாராட்ட": 6926,
      "போன": 6927,
      " எழுத்து": 6928,
      "வெள்ள": 6929,
      " பேசும்போது": 6930,
      " பெயர்ச்சி": 6931,
      " நாளான": 6932,
      " பாதிக்கும்": 6933,
      " கவனமாக": 6934,
      " மிரட்டல்": 6935,
      " சஞ்சய்": 6936,
      " பத்திரிகையாளர்": 6937,
      "க்களும்": 6938,
      " சிரே": 6939,
      " முறையை": 6940,
      " போ": 6941,
      " சேன": 6942,
      " இரான்": 6943,
      " பூர்த்தி": 6944,
      " உணவக": 6945,
      "ன்கூ": 6946,
      " இலட்ச": 6947,
      " பரவல்": 6948,
      "வராத்திரி": 6949,
      " செல்போன்": 6950,
      " கையா": 6951,
      "ள்வி": 6952,
      " அண்டை": 6953,
      "ப்பாத": 6954,
      "ட்டையில்": 6955,
      " எமது": 6956,
      " கூடி": 6957,
      "ட்சியில்": 6958,
      "புர்": 6959,
      " பலமுறை": 6960,
      "த்துக்குப்": 6961,
      " புகார்கள்": 6962,
      " வேண்டுகோ": 6963,
      " வெற்றிபெ": 6964,
      " உருவாக்கப்பட்ட": 6965,
      " அண்ணன்": 6966,
      " தீர்மானி": 6967,
      " முன்னேற்றம்": 6968,
      " பணியாற்றிய": 6969,
      " சைக்கி": 6970,
      " சாப்பிட்ட": 6971,
      "ஏற்கெனவே": 6972,
      " உள்ளாட்சித்": 6973,
      " எதிர்பார்ப்பு": 6974,
      " எழுந்தருளி": 6975,
      " ஞாயிற்றுக்கிழமை": 6976,
      " தூதரக": 6977,
      "சூர்": 6978,
      "டத்தில்": 6979,
      " பனி": 6980,
      " களம்": 6981,
      "ியிலிருந்து": 6982,
      "னைக்": 6983,
      " வரலாம்": 6984,
      " அமைக்கப்பட்ட": 6985,
      "நாட்ட": 6986,
      " நெகி": 6987,
      " தூத்துக்குடி": 6988,
      " தளத்தில்": 6989,
      " வருடங்களாக": 6990,
      " கொல்லப்பட்ட": 6991,
      " கணிச": 6992,
      " மொத்தமாக": 6993,
      " கண்டித்து": 6994,
      "ந்துவீச்ச": 6995,
      " தள்ளுபடி": 6996,
      " ம்": 6997,
      "42": 6998,
      "ter": 6999,
      "அண்ண": 7000,
      "கல": 7001,
      " பஸ்": 7002,
      "த்திருக்கிறார்": 7003,
      "றிவாள": 7004,
      " தேவி": 7005,
      " தொகு": 7006,
      " காப்பு": 7007,
      " காட்டிய": 7008,
      " அவர்களிடம்": 7009,
      "இதுதான்": 7010,
      " சீமான்": 7011,
      "ஸ்கோ": 7012,
      " என்பதைப்": 7013,
      " கேட்டபோது": 7014,
      " யாத்திரை": 7015,
      " விஷயங்களை": 7016,
      " பேரூ": 7017,
      "ேஸ்வரம்": 7018,
      " வெற்றிகரமாக": 7019,
      ".இ": 7020,
      "கத": 7021,
      "னியில்": 7022,
      "பலி": 7023,
      "ந்தூர்": 7024,
      "ாவிலிருந்து": 7025,
      " ரை": 7026,
      " ரம்": 7027,
      " வேளையில்": 7028,
      "ராக்": 7029,
      "கவலை": 7030,
      " பொதுவாக": 7031,
      " இயல்ப": 7032,
      "194": 7033,
      " பயணத்தை": 7034,
      "ப்பேட்டை": 7035,
      " கள்ளக்குறிச்சி": 7036,
      " மீனவர்கள்": 7037,
      "பகவான்": 7038,
      "ir": 7039,
      "ov": 7040,
      "ஆரம்ப": 7041,
      "பல்": 7042,
      " நண்": 7043,
      "ச்சார்": 7044,
      " தெலங்க": 7045,
      " புஷ்": 7046,
      " சுத்த": 7047,
      " ஊராட்சி": 7048,
      " கட்சிகளும்": 7049,
      " தகவலை": 7050,
      " தினேஷ்": 7051,
      " பணிபு": 7052,
      "சூரிய": 7053,
      " நடத்தியது": 7054,
      " முதலீட்ட": 7055,
      " கடிதத்தில்": 7056,
      "ணியை": 7057,
      "நர்கள்": 7058,
      " சண்முக": 7059,
      "சிபி": 7060,
      " துண்ட": 7061,
      " வந்தன": 7062,
      "ர்வ்": 7063,
      "ணைப்பு": 7064,
      " சூடு": 7065,
      " தன்மை": 7066,
      " புறப்பட்டு": 7067,
      " வாழ்ந்த": 7068,
      " ரோஹித்": 7069,
      " திருப்பூர்": 7070,
      " உற்சவ": 7071,
      " உற்சவம்": 7072,
      " சபையின்": 7073,
      " பேட்டிங்": 7074,
      " பெங்களூரு": 7075,
      "ews": 7076,
      " W": 7077,
      "என்க": 7078,
      " பாகு": 7079,
      " எப்படிய": 7080,
      " ஒருபோதும்": 7081,
      "ப்படாமல்": 7082,
      " முக்கியமானது": 7083,
      " ஆராய்": 7084,
      "ைக்குரிய": 7085,
      " தூரம்": 7086,
      " பார்க்கப்படுகிறது": 7087,
      " நியமன": 7088,
      "மூன்று": 7089,
      "ஞ்சாலை": 7090,
      " நெருக்கமான": 7091,
      " முயற்சியில்": 7092,
      " பிரதிநிதிகள்": 7093,
      " அப்போதைய": 7094,
      " பிரிட்டிஷ்": 7095,
      " சிரேஷ்ட": 7096,
      "-வுக்கு": 7097,
      "னையின்": 7098,
      "ாவே": 7099,
      " நடன": 7100,
      " கூற்று": 7101,
      " உள்ளதாகவும்": 7102,
      " நிபந்த": 7103,
      "பெண்கள்": 7104,
      " நேரி": 7105,
      " ஓர": 7106,
      " படங்களில்": 7107,
      " பிரிவின்": 7108,
      " உத்தரவிட": 7109,
      " பெற்றுக்கொள்ள": 7110,
      " பயன்படுத்தும்": 7111,
      " கார்க": 7112,
      " செய்வதற்கான": 7113,
      " குழந்தைகளை": 7114,
      " அரசாங்கத்தின்": 7115,
      " தயாரிப்பு": 7116,
      " விரிவாக": 7117,
      "திலிருந்து": 7118,
      "BC": 7119,
      "வதற்காக": 7120,
      "க்கலை": 7121,
      "க்கடை": 7122,
      " கில்": 7123,
      " மல்ல": 7124,
      " விண்க": 7125,
      "ச்சந்திரன்": 7126,
      " போத": 7127,
      " பெட்ட": 7128,
      " புயல்": 7129,
      " அவதூ": 7130,
      " பலவீன": 7131,
      " கூறியுள்ளனர்": 7132,
      " மாற்றிய": 7133,
      " கருத்துக்களை": 7134,
      "atan": 7135,
      " விரிவான": 7136,
      " கழகம்": 7137,
      " உத்தவ்": 7138,
      " சினிம": 7139,
      " நிரூபி": 7140,
      " குதிரை": 7141,
      "ாவளவன்": 7142,
      " a": 7143,
      "01": 7144,
      "ஹெ": 7145,
      " மெய": 7146,
      "த்துறையினர்": 7147,
      " விக்கிர": 7148,
      " செயலி": 7149,
      "க்நாத்": 7150,
      "ாவோ": 7151,
      " ஒட்ட": 7152,
      " அவற்றின்": 7153,
      " நிம்ம": 7154,
      " மாநிலங்கள": 7155,
      "ல்களுக்கு": 7156,
      "ல்களும்": 7157,
      " இருக்கும்போது": 7158,
      " பாஜகவை": 7159,
      " கொள்ளை": 7160,
      " பாதுகாப்புப்": 7161,
      " கேள்விகள்": 7162,
      " காய்க": 7163,
      " கைப்பற்றி": 7164,
      "யுக்ரே": 7165,
      " எதிர்காலத்தில்": 7166,
      " பட்ஜெ": 7167,
      " தொகையை": 7168,
      " புலனாய்வு": 7169,
      "அங்கே": 7170,
      " கன்": 7171,
      " தரம்": 7172,
      "ப்பகுதி": 7173,
      "ையிலேயே": 7174,
      " உங்களை": 7175,
      "ாவதி": 7176,
      "சிடிவி": 7177,
      " மாணவர்களை": 7178,
      "ிகளைப்": 7179,
      " கட்டுரை": 7180,
      "ட்டியே": 7181,
      " சங்கத்தின்": 7182,
      " அரவிந்த்": 7183,
      " பாதையில்": 7184,
      "இதற்கிடையில்": 7185,
      " பிரியங்கா": 7186,
      " நிர்மலா": 7187,
      "லிகாப்ட": 7188,
      " டன்": 7189,
      " ....": 7190,
      "நேய": 7191,
      "றேன்": 7192,
      " தர்": 7193,
      " உடைய": 7194,
      " முறையும்": 7195,
      " ரங்க": 7196,
      " ராக": 7197,
      "க்கும்போது": 7198,
      "முடைய": 7199,
      "சியாக": 7200,
      " ஏற்படுகிறது": 7201,
      " நேற்றைய": 7202,
      " நகரம்": 7203,
      " பகுதிக்கு": 7204,
      "ிருப்பதால்": 7205,
      " அபாய": 7206,
      " விமர்சித்து": 7207,
      "இதேபோல்": 7208,
      " அழகு": 7209,
      " மறந்து": 7210,
      "ைக்கால்": 7211,
      " மசோத": 7212,
      "ஃபி": 7213,
      "கால்": 7214,
      "சுக": 7215,
      "லான்": 7216,
      "ீஷ்": 7217,
      " பத்": 7218,
      " பழி": 7219,
      " பட்டம்": 7220,
      "ிராவில்": 7221,
      " வேலு": 7222,
      "டியான": 7223,
      " பேட்": 7224,
      "வைகள்": 7225,
      "டுகள": 7226,
      " சிஎஸ்கே": 7227,
      " துர": 7228,
      "தாப": 7229,
      " கிடைத்து": 7230,
      " முயன்று": 7231,
      " லட்சுமி": 7232,
      " செய்வதற்காக": 7233,
      " உடல்நிலை": 7234,
      " பின்னடை": 7235,
      "அமெரிக்கா": 7236,
      " சூழ்நிலை": 7237,
      " செயற்பா": 7238,
      " எக்ஸ்பிர": 7239,
      "ikatan": 7240,
      "னிவாசன்": 7241,
      "மனு": 7242,
      "வார்கள்": 7243,
      " நள்ள": 7244,
      " ரவீ": 7245,
      " பொது": 7246,
      " தொடக்கத்தில்": 7247,
      " இருந்தவர்": 7248,
      " வைத்தது": 7249,
      " சித்திரை": 7250,
      "ரேஷன்": 7251,
      ".....\n": 7252,
      " பாலஸ்த": 7253,
      "லோர": 7254,
      " காரை": 7255,
      " செலுத்திய": 7256,
      "சிலர்": 7257,
      " படைகள்": 7258,
      " குடியிருப்பு": 7259,
      " உதவியுடன்": 7260,
      " அம்பே": 7261,
      "ட்ஸ்மே": 7262,
      "நிகழ்": 7263,
      " தொழிற்சாலை": 7264,
      "கடைசி": 7265,
      " சட்டப்பேரவை": 7266,
      " வேண்டுமானாலும்": 7267,
      " வைரலாகி": 7268,
      " வாயிலாக": 7269,
      " m": 7270,
      "ரண": 7271,
      " கஞ்சா": 7272,
      " ஆடிய": 7273,
      "ரிஸ்": 7274,
      "க்ர": 7275,
      "ஸ்வர்": 7276,
      " கொஞ்ச": 7277,
      " நாளுக்கு": 7278,
      "வாக்க": 7279,
      " ஊக்க": 7280,
      " பூச்ச": 7281,
      " போன்றவற்றை": 7282,
      " அணிகள்": 7283,
      " உலகக்கோ": 7284,
      " உத்தரப்பிரதேச": 7285,
      " வலது": 7286,
      " குறிப்பிடப்பட்டுள்ளது": 7287,
      "கூட்ட": 7288,
      " காந்தியின்": 7289,
      " காய்ச்சல்": 7290,
      "600": 7291,
      "ce": 7292,
      "உங்களுக்கு": 7293,
      "ஜினி": 7294,
      "தையடுத்து": 7295,
      "மிட்ட": 7296,
      " கோட்டா": 7297,
      " விவாதம்": 7298,
      " இருப்பார்கள்": 7299,
      " பெய்து": 7300,
      " நாளாக": 7301,
      " குழும": 7302,
      " குழுக்கள்": 7303,
      " இஸ்ரேலிய": 7304,
      " யாரு": 7305,
      "இதற்குப்": 7306,
      "த்தீன": 7307,
      " குற்றச்சா": 7308,
      " விழுப்புரம்": 7309,
      " இளம்பெ": 7310,
      "இதனைத்": 7311,
      " விளைவாக": 7312,
      "வாயு": 7313,
      " வாக்களிக்க": 7314,
      "அதற்கான": 7315,
      "ஆப": 7316,
      "ோரின்": 7317,
      " சதி": 7318,
      " எவ்": 7319,
      " ஒன்பது": 7320,
      " ரமேஷ்": 7321,
      "தியு": 7322,
      " சமாதான": 7323,
      " சீசன": 7324,
      " டிவி": 7325,
      " வீரர்களை": 7326,
      " வருவதற்கு": 7327,
      " கொள்கிறேன்": 7328,
      " கண்காணிப்பாளர்": 7329,
      " சொல்கிறார்": 7330,
      " ஹோட்ட": 7331,
      "எதிர்க்க": 7332,
      " ஊர்வலம்": 7333,
      "தற்போதைய": 7334,
      " ராசிக்காரர்களுக்கு": 7335,
      " நிராகரி": 7336,
      " எழுது": 7337,
      " தரப்பினர்": 7338,
      "வெட்டு": 7339,
      " ஸ்பெ": 7340,
      "அதன்பின்": 7341,
      "நேரத்தில்": 7342,
      " மறுப": 7343,
      " முழுமையான": 7344,
      " வாய்ப்புள்ளது": 7345,
      " மறைமுக": 7346,
      "ஜூன்": 7347,
      " ஜனாதிபதியின்": 7348,
      " நோட்டீஸ்": 7349,
      "os": 7350,
      "பள்ள": 7351,
      " அறையில்": 7352,
      "ாரோ": 7353,
      " மாத்திர": 7354,
      " உள்ளதால்": 7355,
      " காண்ப": 7356,
      " வரும்போது": 7357,
      " பலம்": 7358,
      "லிங்க": 7359,
      " மக்களும்": 7360,
      " கொண்டிருந்தார்": 7361,
      " இரவில்": 7362,
      "வுக்குப்": 7363,
      " நடத்தினார்": 7364,
      " அளித்துள்ளார்": 7365,
      " இல்லாததால்": 7366,
      " ரீதியான": 7367,
      " தவறாக": 7368,
      " சனிக்கிழமை": 7369,
      " மறக்க": 7370,
      " News": 7371,
      " செவ்வாய": 7372,
      " யுக்ரேன்": 7373,
      " சாம்பியன்": 7374,
      "தராபாத்": 7375,
      " கொடியேற்றத்துடன்": 7376,
      " கிலோமீட்டர்": 7377,
      "43": 7378,
      "ia": 7379,
      "எங்க": 7380,
      "கலை": 7381,
      "ல்தான்": 7382,
      "ஹோ": 7383,
      " வர்": 7384,
      " அன்ற": 7385,
      "ரும": 7386,
      " ராவ": 7387,
      " கொள்வது": 7388,
      "மிர்": 7389,
      " பிரசாத்": 7390,
      " வரவ": 7391,
      " சுரு": 7392,
      "ப்போகிறார்": 7393,
      " வெளிச்ச": 7394,
      " தமிழ்நாட்டின்": 7395,
      " லட்சத்து": 7396,
      " பிடிக்கும்": 7397,
      " பொருளாதாரத்தை": 7398,
      " வைக்கப்பட்டது": 7399,
      "மெண்ட்": 7400,
      " மேல்முறைய": 7401,
      " ஆனந்த்": 7402,
      " தரிசன": 7403,
      " வேலையில்": 7404,
      " முயற்சிகளை": 7405,
      " ஆஜராக": 7406,
      " ஷேக்": 7407,
      " சுட்டிக்காட்டினார்": 7408,
      " அம்பேத்க": 7409,
      " ஸார்": 7410,
      "06": 7411,
      "கிட்ட": 7412,
      "ீர்களா": 7413,
      "ிர்த": 7414,
      "ற்றையும்": 7415,
      "ஸ்ப": 7416,
      " ஒப்பி": 7417,
      " மாட": 7418,
      "ப்பட்டி": 7419,
      " நிலவுகிறது": 7420,
      " அரசும்": 7421,
      " பொய்": 7422,
      "ர்வாக": 7423,
      " கொண்டாடி": 7424,
      " தாங்க": 7425,
      "விட்டேன்": 7426,
      " திச": 7427,
      " கட்டப்பட்ட": 7428,
      " உத்தரவை": 7429,
      " மனுவை": 7430,
      " பணிக்கு": 7431,
      " பள்ளிகளில்": 7432,
      " உறுப்பினராக": 7433,
      "வ்வாறான": 7434,
      "ர்பான": 7435,
      " யூடியூ": 7436,
      " தொழில்நுட்பம்": 7437,
      " காட்டுகிறது": 7438,
      " கல்யாண": 7439,
      " விதமான": 7440,
      " திரிணாமுல்": 7441,
      " சுற்றுச்சூழல்": 7442,
      ".நா": 7443,
      "கங்கள்": 7444,
      "த்தையே": 7445,
      "ப்ரா": 7446,
      " தங்களை": 7447,
      " சல்": 7448,
      "க்ஸ": 7449,
      " எனச்": 7450,
      "றுகிய": 7451,
      " படப்பிடி": 7452,
      " பெய்த": 7453,
      " நிறுவனமான": 7454,
      "ாவைச்": 7455,
      " கொள்ளைய": 7456,
      " பிரிந்து": 7457,
      " தெரிவிக்கின்றனர்": 7458,
      " வீடியோவில்": 7459,
      " வீடியோவை": 7460,
      " பல்கலைக்கழகத்தில்": 7461,
      "யிர்": 7462,
      " சொல்கிறார்கள்": 7463,
      " நெருங்கிய": 7464,
      " மீன்பிடி": 7465,
      " வரவழை": 7466,
      "கட்சி": 7467,
      "ீல்": 7468,
      "ீட்டை": 7469,
      " பட்டு": 7470,
      " சாய": 7471,
      " சத்தம்": 7472,
      " ஆளாக": 7473,
      "விமான": 7474,
      "முனை": 7475,
      " ஹர்த": 7476,
      "ஸ்திர": 7477,
      " கலெ": 7478,
      "ட்பட்ட": 7479,
      " இருப்பார்": 7480,
      " கிங்": 7481,
      " இல்லைய": 7482,
      " ஏற்றுக்": 7483,
      "க்கிரன்": 7484,
      " அறிவிக்கப்பட்டது": 7485,
      " பயங்கரவாத": 7486,
      " பராமரிப்பு": 7487,
      " அத்தியாவசிய": 7488,
      "அதுமட்டுமல்ல": 7489,
      "ராத": 7490,
      "வோம்": 7491,
      " பத்த": 7492,
      " சர்வ": 7493,
      " இருவர்": 7494,
      " பெர்": 7495,
      " ஏனைய": 7496,
      " நாட்டிற்கு": 7497,
      " மேடையில்": 7498,
      " ஹாரி": 7499,
      " கட்சிகளின்": 7500,
      "நீட்": 7501,
      "த்துக்குள்": 7502,
      "ல்பட்டு": 7503,
      " சென்றுள்ளார்": 7504,
      " பாதிப்புகள்": 7505,
      " செலுத்தும்": 7506,
      " ராமதாஸ்": 7507,
      " இடம்பெற்று": 7508,
      " ரிஷ": 7509,
      "ஜெயலலி": 7510,
      ".ரவி": 7511,
      "கிறோம்": 7512,
      "தத்தை": 7513,
      "தாய்": 7514,
      "தவிர": 7515,
      "ளைய": 7516,
      "வியில்": 7517,
      " அமு": 7518,
      "ங்கால": 7519,
      "ள்ளதாகவும்": 7520,
      "த்துறையின்": 7521,
      " திருந": 7522,
      "போன்": 7523,
      " இயற்க": 7524,
      " உருவாக்கிய": 7525,
      " எதிர்கொ": 7526,
      " நம்மிடம்": 7527,
      " பின்னணியில்": 7528,
      " ஹிந்து": 7529,
      " பாராளுமன்றத்தில்": 7530,
      " அம்மாநில": 7531,
      " உச்சநீதிமன்றம்": 7532,
      " நாயுடு": 7533,
      "இல்ல": 7534,
      "சாரி": 7535,
      "ேந்திரன்": 7536,
      "ன்ம": 7537,
      "க்கப்படும்": 7538,
      " கழ": 7539,
      " குளி": 7540,
      "வைத்த": 7541,
      " ஓரி": 7542,
      " கிளை": 7543,
      " தினகரன்": 7544,
      " தீர்ப்பை": 7545,
      " படிப்பு": 7546,
      " அரங்கே": 7547,
      " நோயாள": 7548,
      " ஆவணங்கள்": 7549,
      " ஸ்தானத்தில்": 7550,
      " தகரா": 7551,
      " என்னவென்றால்": 7552,
      " தேதியன்று": 7553,
      "-இல்": 7554,
      "பல்வேறு": 7555,
      "த்திலுள்ள": 7556,
      " மில்": 7557,
      "றுகள்": 7558,
      "த்துறையில்": 7559,
      "விருக்கும்": 7560,
      "ிகே": 7561,
      " கொல்கத்தா": 7562,
      " இந்திரா": 7563,
      " வெறு": 7564,
      " பேட்ஸ்மே": 7565,
      "நாட்டை": 7566,
      " ஊருக்கு": 7567,
      " காரணங்கள்": 7568,
      " கலந்துகொண்டு": 7569,
      " முடிவுகளை": 7570,
      "மோகன்": 7571,
      " பள்ளிக்க": 7572,
      " யோசனை": 7573,
      "ிகளால்": 7574,
      " வெள்ளிக்கிழமை": 7575,
      "த்தொகை": 7576,
      " பிரபலமான": 7577,
      "எதிர்": 7578,
      " அபராதம்": 7579,
      " சுரேஷ்": 7580,
      "அடுத்து": 7581,
      "தங்கள்": 7582,
      "பந்து": 7583,
      "ொலி": 7584,
      "ர்வா": 7585,
      " நந்த": 7586,
      "ங்கியது": 7587,
      "ச்சுவ": 7588,
      " ஒட்டி": 7589,
      " மாறும்": 7590,
      " தொ": 7591,
      "மாக்": 7592,
      " அமைந்தது": 7593,
      " தலைவரான": 7594,
      "பாத்தில்": 7595,
      "ப்படலாம்": 7596,
      " பாலின": 7597,
      " தோற்க": 7598,
      " முதலே": 7599,
      " உத்தரவிட்டார்": 7600,
      " வாங்கும்": 7601,
      " டெல்": 7602,
      " சூரியன்": 7603,
      " செயல்பாடுகள்": 7604,
      "நிகழ்ச்ச": 7605,
      " ஊர்வலமாக": 7606,
      "அல்ல": 7607,
      "னெ": 7608,
      "ப்ள": 7609,
      " இங்க": 7610,
      "ங்காவ": 7611,
      " உபய": 7612,
      " கொடுமை": 7613,
      " கூறுவ": 7614,
      "ுவதற்கு": 7615,
      "பிபிசி": 7616,
      " செய்யப்படுகிறது": 7617,
      "பாட": 7618,
      " பிழை": 7619,
      " முன்னுரிமை": 7620,
      "ஸ்து": 7621,
      " மோதிய": 7622,
      " கணவன்": 7623,
      " பின்பு": 7624,
      " நெரிச": 7625,
      " என்கிறது": 7626,
      " குழந்தையை": 7627,
      " வழிப": 7628,
      " வழிநட": 7629,
      " சோனியா": 7630,
      " இலக்க": 7631,
      " தொழிலாளர்": 7632,
      " சிகிச்சைக்காக": 7633,
      " கட்டுப்பாடுகள்": 7634,
      "ஷிப்": 7635,
      "கிராம": 7636,
      " உயர்ந்துள்ளது": 7637,
      "எப்படி": 7638,
      " தாலி": 7639,
      "துவாக": 7640,
      " ஆற": 7641,
      "குடிய": 7642,
      "ரேட்": 7643,
      " கணபதி": 7644,
      " ஆதீன": 7645,
      " எந்தப்": 7646,
      " இணைப்பு": 7647,
      " வாக்குப்பதிவு": 7648,
      " தேசியக்": 7649,
      " மறுத்த": 7650,
      " விருப்பம்": 7651,
      "இருந்த": 7652,
      " செய்கிறார்கள்": 7653,
      " நீண்டகால": 7654,
      " மாட்டோம்": 7655,
      " ஹெலிகாப்ட": 7656,
      " ஜெயலலித": 7657,
      "ம்கூட": 7658,
      " நெடுஞ்சாலை": 7659,
      "உடல்": 7660,
      "பள்ளி": 7661,
      "மடை": 7662,
      "யும்": 7663,
      " ஆசி": 7664,
      "ற்றொ": 7665,
      " தொல்லை": 7666,
      "முன்": 7667,
      " வெளியி": 7668,
      "ராகு": 7669,
      " முன்னிலை": 7670,
      "ந்திரா": 7671,
      " புகு": 7672,
      " தோனி": 7673,
      "ஸ்கி": 7674,
      "விலில்": 7675,
      " சாதிய": 7676,
      "ியுள்ளதாக": 7677,
      " விரைவாக": 7678,
      " ஆதிக்கம்": 7679,
      " அழைக்கப்படும்": 7680,
      " the": 7681,
      " சகோதரர்": 7682,
      "தரப்பு": 7683,
      " சுவாமிகள்": 7684,
      " லோக்சபா": 7685,
      " அர்ப்பணி": 7686,
      "லிருந்து": 7687,
      "ப்பெய": 7688,
      " இவருக்கு": 7689,
      "ிகர்": 7690,
      " என்னால்": 7691,
      "ம்போ": 7692,
      "ாளிக்க": 7693,
      " கிடைத்துள்ளது": 7694,
      "நீண்ட": 7695,
      " பழக்கம்": 7696,
      " விலையில்": 7697,
      " நிர்வாகி": 7698,
      " சிறுநீ": 7699,
      "சேகர": 7700,
      " பள்ளிகள்": 7701,
      "க்களப்பு": 7702,
      " ஜோதி": 7703,
      " மக்களவை": 7704,
      "அதிமுகவில்": 7705,
      " சுயே": 7706,
      " உட்கார்": 7707,
      " சடல": 7708,
      "இவரது": 7709,
      "என்னுடைய": 7710,
      "னீ": 7711,
      "பத்து": 7712,
      " பது": 7713,
      "துரை": 7714,
      "ிகார்": 7715,
      " குத்த": 7716,
      " கொந்த": 7717,
      "ுகளுக்கு": 7718,
      "குற்ற": 7719,
      "தாகச்": 7720,
      " அவருடன்": 7721,
      " மணிப்பூர்": 7722,
      " ஐபிஎல்": 7723,
      " நடவடிக்கையை": 7724,
      " விலையை": 7725,
      " உலகளாவிய": 7726,
      " வழக்குப்": 7727,
      " துறைகளில்": 7728,
      " தமிழர்கள்": 7729,
      " மக்களவைத்": 7730,
      " வரவேற்ற": 7731,
      " காட்சிய": 7732,
      " மாட்டேன்": 7733,
      " கால்நடை": 7734,
      "இரண்டாவது": 7735,
      " டிக்கெட்": 7736,
      " வழிபட்டனர்": 7737,
      " சர்க்கரை": 7738,
      "\".\n": 7739,
      "99": 7740,
      "அவர்களை": 7741,
      "யே": 7742,
      "யான்": 7743,
      "ினை": 7744,
      "ந்தே": 7745,
      " செய்யவும்": 7746,
      " நோக்கில்": 7747,
      " இலக்கிய": 7748,
      "நகரில்": 7749,
      "மற்றொரு": 7750,
      "யிற்சி": 7751,
      " கிரிக்கெ": 7752,
      " விண்ணப்பி": 7753,
      " விளக்கம": 7754,
      " பண்டிகை": 7755,
      " அழிக்க": 7756,
      " நன்மைகள்": 7757,
      " ஒற்றுமை": 7758,
      " சந்தோஷ": 7759,
      " பழங்குடியின": 7760,
      "250": 7761,
      "ஹை": 7762,
      " பச்சை": 7763,
      " இத்த": 7764,
      " முன்கூ": 7765,
      " பேரி": 7766,
      " செய்தியாளர்": 7767,
      " சுந்த": 7768,
      " லார": 7769,
      " கிடந்த": 7770,
      "சுக்கு": 7771,
      " கருப்பு": 7772,
      " கூறுகிறார்கள்": 7773,
      " வகையிலும்": 7774,
      " ஸ்ட்": 7775,
      "ார்கள": 7776,
      " மையத்தில்": 7777,
      " கண்ணீர்": 7778,
      " ட்வீட்": 7779,
      "'\n": 7780,
      "ig": 7781,
      "அக்": 7782,
      "சாத": 7783,
      "வந்து": 7784,
      "ர்ஸ்": 7785,
      "த்தோ": 7786,
      " தரை": 7787,
      " அத்து": 7788,
      "ப்பதில்லை": 7789,
      " நுக": 7790,
      " எலும்": 7791,
      "ையமை": 7792,
      " ஒருவரின்": 7793,
      " புண்ண": 7794,
      " சுர": 7795,
      " கடலோர": 7796,
      " உயிரு": 7797,
      " வழங்கியுள்ளது": 7798,
      " மோடியை": 7799,
      " மோடியின்": 7800,
      " இயக்கத்தில்": 7801,
      " எதிர்வரும்": 7802,
      " போலீசார": 7803,
      " தமிழகத்தின்": 7804,
      " திறப்பு": 7805,
      "கேஷ்": 7806,
      " விடுவிக்க": 7807,
      " ஃபார்": 7808,
      " மரப": 7809,
      " வங்கியின்": 7810,
      " நிதிஷ்": 7811,
      " திரும்பப்": 7812,
      " வெள்ளம்": 7813,
      " ஆபத்தான": 7814,
      " அறிவுறு": 7815,
      " ப்ள": 7816,
      " திருவள்ள": 7817,
      " மாணவியின்": 7818,
      "ிண": 7819,
      " கான": 7820,
      " தலையில்": 7821,
      " சவால்": 7822,
      " அவி": 7823,
      " ராவ்": 7824,
      " ரஜின": 7825,
      "ல்லிய": 7826,
      " செய்ததாக": 7827,
      "ளிப்பு": 7828,
      " டக்": 7829,
      " சிசிடிவி": 7830,
      " வழங்கியது": 7831,
      " சமாளிக்க": 7832,
      "ப்படுகிறார்": 7833,
      " சீட்": 7834,
      " கலச": 7835,
      " ஐடி": 7836,
      "தேசமயம்": 7837,
      "அதிகார": 7838,
      " விருந்த": 7839,
      " கொடுத்தது": 7840,
      "இருவரும்": 7841,
      " பங்கேற்ப": 7842,
      "மென்ட்": 7843,
      " கண்ணாடி": 7844,
      "நோய": 7845,
      " போனது": 7846,
      " டாஸ்": 7847,
      " அன்னதானம்": 7848,
      " சமர்ப்பிக்க": 7849,
      "தஞ்ச": 7850,
      " மதிக்க": 7851,
      "ானில்": 7852,
      " செள": 7853,
      "ஸ்ஸ": 7854,
      " பென்": 7855,
      " கூறுவது": 7856,
      " தேர்ச்சி": 7857,
      " புரிய": 7858,
      " தலைவருமான": 7859,
      "மையின்": 7860,
      "லுக்கும்": 7861,
      "ஸ்தி": 7862,
      " கட்டமாக": 7863,
      "வாகும்": 7864,
      " கிஷ": 7865,
      " நாடுகளுக்கும்": 7866,
      " உருவாக்கும்": 7867,
      " கோவில்களில்": 7868,
      " உடல்நல": 7869,
      " வருடங்களுக்கு": 7870,
      " பகிர்ந்த": 7871,
      " உடைத்து": 7872,
      " லீக்": 7873,
      " பதவியேற்ற": 7874,
      "ஆளுநர்": 7875,
      "திராவிட": 7876,
      " எக்ஸ்பிரஸ்": 7877,
      "ணியின்": 7878,
      " புவ": 7879,
      " நடுத்த": 7880,
      " குறிய": 7881,
      " ஏக்நாத்": 7882,
      " செய்யப்பட்டுள்ள": 7883,
      "வர்களுடன்": 7884,
      "ியாகி": 7885,
      " நெல்லை": 7886,
      " ராஜ்ய": 7887,
      "108": 7888,
      " ஷர்மா": 7889,
      " உத்தரவிட்டது": 7890,
      " பயன்படுத்திய": 7891,
      "திருச்சி": 7892,
      " விமானங்கள்": 7893,
      "இதன்படி": 7894,
      "இதன்மூலம்": 7895,
      " பார்த்துக்": 7896,
      " எதிர்பாராத": 7897,
      " சுகாதாரத்துறை": 7898,
      " வென்றது": 7899,
      " புகாரின்": 7900,
      " நியூசிலாந்து": 7901,
      "த்திறன": 7902,
      " நிலநடுக்கம்": 7903,
      " ஹீரோ": 7904,
      " மின": 7905,
      " இரும்பு": 7906,
      "வினால்": 7907,
      "ம்பட்டி": 7908,
      " மீள": 7909,
      " வாக்கெ": 7910,
      " வாட்ஸ்": 7911,
      " செய்யாமல்": 7912,
      " கடத்தல்": 7913,
      "லிங்கம்": 7914,
      "இதுதொடர்பாக": 7915,
      "ப்படுகிறார்கள்": 7916,
      " மாவட்டச்": 7917,
      " பொதுவான": 7918,
      " இருப்பவர்கள்": 7919,
      " நிறுவனங்களில்": 7920,
      " படிப்படியாக": 7921,
      " நுழ": 7922,
      " அப்பகுதி": 7923,
      " போராட்டங்கள்": 7924,
      " வேலூர்": 7925,
      " உயிரிழந்தார்": 7926,
      "ஜூலை": 7927,
      " கடினமான": 7928,
      " தாக்குதலுக்கு": 7929,
      "லக்": 7930,
      "ேசன்": 7931,
      " பந்தில்": 7932,
      "த்தவர்": 7933,
      " நன்கொ": 7934,
      " குட": 7935,
      "்யா": 7936,
      " நிலக்க": 7937,
      "ழிசை": 7938,
      " சீர்க": 7939,
      " பூர்வ": 7940,
      " கூறின": 7941,
      " விரதம்": 7942,
      "பிரதேச": 7943,
      " நிகழ்ந்த": 7944,
      " மதுபான": 7945,
      " செலவில்": 7946,
      "க்கொண்டே": 7947,
      "மார்ட்": 7948,
      " ஸ்கூ": 7949,
      " மசூதி": 7950,
      " போலீசார்": 7951,
      "எல்லா": 7952,
      "சபா": 7953,
      "டாவில்": 7954,
      "றாக": 7955,
      "ஹே": 7956,
      " பன்னீர்": 7957,
      " தால": 7958,
      " ஆல்": 7959,
      "ிகோ": 7960,
      " பிரமாண்ட": 7961,
      " நாட்டுக்கு": 7962,
      "சித்தி": 7963,
      " பொன்ன": 7964,
      "ரைத்": 7965,
      " நேர்க": 7966,
      " உயர்க": 7967,
      " கூறப்படும்": 7968,
      " மாநிலத்": 7969,
      " ஈடு": 7970,
      " பொதுக்கூ": 7971,
      " கருத்த": 7972,
      " மொபைல்": 7973,
      " இலக்கை": 7974,
      " வெளியிட்டது": 7975,
      " அக்கட்சியின்": 7976,
      " நுழைந்த": 7977,
      "இன்னொரு": 7978,
      " கடற்கரை": 7979,
      " ஆதித்யநாத்": 7980,
      "ul": 7981,
      "சான்": 7982,
      "பாத": 7983,
      "ியான்": 7984,
      " அவு": 7985,
      " நய": 7986,
      "ற்றுக்கு": 7987,
      " அவமான": 7988,
      " தலைவர்களும்": 7989,
      " இடங்களுக்கு": 7990,
      " வந்தபோது": 7991,
      " அந்தச்": 7992,
      " சிலைகள்": 7993,
      " உத்தரவிட்ட": 7994,
      " என்பதைக்": 7995,
      " கருத்துகள்": 7996,
      " நுண்ண": 7997,
      " முறையான": 7998,
      " பிரச்சின": 7999,
      " பிறந்தநாள்": 8000,
      " ஆட்டோ": 8001,
      " சரண்": 8002,
      " தெரியவந்துள்ளது": 8003,
      " நினைக்கிறேன்": 8004,
      " கமிட்டி": 8005,
      " போட்டியிடும்": 8006,
      " பட்சத்தில்": 8007,
      " எவ்வித": 8008,
      "சின": 8009,
      "ஜின்": 8010,
      "மகன்": 8011,
      "ரையை": 8012,
      "ளிடம்": 8013,
      " மலே": 8014,
      " கும": 8015,
      "ச்சத்து": 8016,
      " கொரிய": 8017,
      " பிரப": 8018,
      " பொழுது": 8019,
      " பணிகளில்": 8020,
      " மோத": 8021,
      " இயங்கி": 8022,
      " கிண": 8023,
      " விராட்": 8024,
      "மீக": 8025,
      "ாவைப்": 8026,
      " வழக்கமான": 8027,
      " கார்ட": 8028,
      " அதைப்": 8029,
      "ிருப்பார்": 8030,
      " தெரிவிக்கப்பட்டது": 8031,
      " விவசாயிகளுக்கு": 8032,
      " சங்கர்": 8033,
      "ஸ்வரன்": 8034,
      "ஷ்ணு": 8035,
      " தொடங்கினர்": 8036,
      "இலங்கையின்": 8037,
      "த்திட்டம்": 8038,
      " மகிழ்ச்சியாக": 8039,
      " சரண": 8040,
      "நியூ": 8041,
      "ஸ்திரேலிய": 8042,
      " தானம்": 8043,
      " வழங்குவது": 8044,
      " மதிப்பிலான": 8045,
      " உயர்நீதிமன்றம்": 8046,
      "உதாரணமாக": 8047,
      " கொள்முதல்": 8048,
      " கெஜ்ரிவால்": 8049,
      " பலாத்காரம்": 8050,
      "58": 8051,
      "th": 8052,
      "டிர": 8053,
      "றிந்த": 8054,
      " தேங்க": 8055,
      " தொடர்க": 8056,
      " கோரிய": 8057,
      " வாசி": 8058,
      " சிற்ப": 8059,
      "ஞ்ச்": 8060,
      "த்தினை": 8061,
      " சிலி": 8062,
      " சீர்த": 8063,
      " விவரி": 8064,
      " முன்மொழி": 8065,
      " தரவு": 8066,
      " விரோத": 8067,
      " என்கின்றனர்": 8068,
      "ிகளைக்": 8069,
      "குறித்த": 8070,
      " சொன்னது": 8071,
      " விளையாடிய": 8072,
      " ஊழியர்": 8073,
      " பரவலாக": 8074,
      " சரத்": 8075,
      " அச்சம்": 8076,
      " கடற்படைய": 8077,
      "உதய": 8078,
      " பவுண்டரி": 8079,
      " சீதாராமன்": 8080,
      " நண்பர்": 8081,
      "அல்லது": 8082,
      "தால்தான்": 8083,
      "மட்ட": 8084,
      "ூரி": 8085,
      " அயோ": 8086,
      " பாக்கிய": 8087,
      " பிரிக்க": 8088,
      " பிரான்ஸ்": 8089,
      " கோய": 8090,
      " அவர்க": 8091,
      "வாசி": 8092,
      " சிதை": 8093,
      "மையுடன்": 8094,
      "ியாட்": 8095,
      " உறுப்பு": 8096,
      "டுவதை": 8097,
      " பாதுகாப்பான": 8098,
      " தூங்க": 8099,
      " வழக்கின்": 8100,
      "போது": 8101,
      " விமானத்தில்": 8102,
      " பார்வ": 8103,
      " விமர்சிக்க": 8104,
      " நிதியமைச்சர்": 8105,
      " எழுதியுள்ளார்": 8106,
      " வலியுறுத்திய": 8107,
      " கலாநிதி": 8108,
      "சமீப": 8109,
      " சுற்றியுள்ள": 8110,
      " உபகர": 8111,
      " ஊடகவ": 8112,
      " மேலாண்மை": 8113,
      " லிட்டர்": 8114,
      "-வில்": 8115,
      "அமைச்ச": 8116,
      "ணங்கள்": 8117,
      "த்திட": 8118,
      " அடுக்கு": 8119,
      " முத": 8120,
      "குண்ட": 8121,
      " காக்க": 8122,
      " கோட்": 8123,
      " என்பதற்கு": 8124,
      " மூளை": 8125,
      "சியின்": 8126,
      "காசம்": 8127,
      " லூ": 8128,
      " ஈரோடு": 8129,
      "எஸ்எஸ்": 8130,
      " கையாள": 8131,
      " உயிரிழந்து": 8132,
      " தம்பதி": 8133,
      " சிதம்பரம்": 8134,
      " சமூகம்": 8135,
      " சான்றிதழ்": 8136,
      " முன்கூட்டியே": 8137,
      ".ஆ": 8138,
      " படுத்த": 8139,
      "ாகிருஷ்ண": 8140,
      "ிகேய": 8141,
      " ரகு": 8142,
      " காஞ்சிபுரம்": 8143,
      " மேய": 8144,
      "மாடி": 8145,
      " செய்யப்பட்டுள்ளன": 8146,
      " சேரும்": 8147,
      " துறையினர்": 8148,
      " அமர": 8149,
      " உள்ளிட்டவை": 8150,
      " நாள்களுக்கு": 8151,
      " குழந்தைகளின்": 8152,
      " தொழிலதி": 8153,
      " போராட்டத்தை": 8154,
      " கண்காணிக்க": 8155,
      " பாராட்டி": 8156,
      " எரிவாயு": 8157,
      " வலியுறுத்தினார்": 8158,
      " ஊரடங்கு": 8159,
      "பஞ்சாப்": 8160,
      "விரைவில்": 8161,
      "56": 8162,
      "எஸ்டி": 8163,
      "க்ட்": 8164,
      "மாய": 8165,
      " பர்": 8166,
      " பவார்": 8167,
      "த்தெ": 8168,
      "ப்பாளர்கள்": 8169,
      "ையிற": 8170,
      "வாடி": 8171,
      " சட்டத்தில்": 8172,
      " இதுவே": 8173,
      " திரை": 8174,
      "அதையடுத்து": 8175,
      " ஏற்படுத்தியிருக்கிறது": 8176,
      " குழந்தையின்": 8177,
      " வேண்டியிருந்தது": 8178,
      " அடிப்படையாக": 8179,
      " ஜெகன்": 8180,
      " அப்பகுதியில்": 8181,
      " செய்யப்பட்டுள்ளார்": 8182,
      " இருக்கிறதா": 8183,
      " அதிரடியாக": 8184,
      " to": 8185,
      " அங்கீகரிக்க": 8186,
      " அமித்ஷா": 8187,
      " எழுந்தருள": 8188,
      " பங்களிப்பு": 8189,
      " பொறுப்பேற்ற": 8190,
      "விளக்கு": 8191,
      "லையை": 8192,
      " மல்": 8193,
      " சத்திய": 8194,
      " ஆவது": 8195,
      "ுவையில்": 8196,
      " பாடி": 8197,
      " செய்திருக்கிறார்": 8198,
      "ிருந்தேன்": 8199,
      "ப்படம்": 8200,
      " ஆண்டுதோறும்": 8201,
      " எந்தத்": 8202,
      " விதிமுறை": 8203,
      " சூர்யா": 8204,
      " ரிசர்வ்": 8205,
      "08": 8206,
      "அப்படிய": 8207,
      "இக்கோ": 8208,
      "மழ": 8209,
      " ஆடியோ": 8210,
      "விக்": 8211,
      " வின": 8212,
      "ச்சரி": 8213,
      "ற்பா": 8214,
      " பிரார்த்த": 8215,
      " ஜடே": 8216,
      "ராகவும்": 8217,
      "ல்களின்": 8218,
      " பாதுகாப்பை": 8219,
      "தமிழ": 8220,
      "வருமே": 8221,
      " பயன்படுத்தப்படும்": 8222,
      " வங்கிக்": 8223,
      " எண்ணிக்கையில்": 8224,
      " விரும்புகிறேன்": 8225,
      " கவனித்து": 8226,
      " செய்தியாளர்களைச்": 8227,
      "மால": 8228,
      "றாங்க": 8229,
      "ோரை": 8230,
      " தரி": 8231,
      "ப்பேன்": 8232,
      "ங்கானா": 8233,
      " கொழு": 8234,
      "ிடத்தில்": 8235,
      " காச": 8236,
      " காணி": 8237,
      " வரத": 8238,
      "னுக்காக": 8239,
      " ஊரில்": 8240,
      " ஈர்க்க": 8241,
      " குறைத்து": 8242,
      " வந்துள்ளனர்": 8243,
      " வழக்கமாக": 8244,
      " பகுதிகளை": 8245,
      " நாள்கள்": 8246,
      "அப்போதுதான்": 8247,
      " கிராமத்தைச்": 8248,
      " உதவு": 8249,
      " வெளியிட்டார்": 8250,
      " வனத்துறை": 8251,
      " எம்எல்ஏக்கள்": 8252,
      "ப்படுத்துவது": 8253,
      " பசுமை": 8254,
      " உள்ளடக்கிய": 8255,
      " மேற்கொள்வ": 8256,
      " இன்ஸ்டாக": 8257,
      "51": 8258,
      "im": 8259,
      "எங்களுக்கு": 8260,
      "காய": 8261,
      "ாருக்கு": 8262,
      "க்கத்தை": 8263,
      " கந்த": 8264,
      " இலை": 8265,
      "டிக்கு": 8266,
      " விஸ்வ": 8267,
      " ராய்": 8268,
      "ாமில்": 8269,
      " ஜய": 8270,
      "ப்பட்டுள்ளார்": 8271,
      " தலைவர்களை": 8272,
      "த்தின்போது": 8273,
      " வழங்கப்பட்டு": 8274,
      " சமாளி": 8275,
      " பதிவில்": 8276,
      " விவாக": 8277,
      " ஈரான்": 8278,
      "கார்த்த": 8279,
      " ஆய்வில்": 8280,
      " சாதகமான": 8281,
      " மொ": 8282,
      " தமிழில்": 8283,
      " யோக": 8284,
      " அறிவுரை": 8285,
      " உயிரின": 8286,
      " லெபன": 8287,
      " பிற்படுத்தப்பட்ட": 8288,
      " பெரும்பான்மை": 8289,
      " ஆட்டமிழந்த": 8290,
      " ஆப்கானிஸ்தான்": 8291,
      "-ந்": 8292,
      "07": 8293,
      "அவருடைய": 8294,
      "அப்போது": 8295,
      " வறு": 8296,
      " உப்பு": 8297,
      "ட்டுகளை": 8298,
      " செய்திருந்தார்": 8299,
      "டுகளின்": 8300,
      " அவமதி": 8301,
      " அமைதியாக": 8302,
      "ழ்ப்பா": 8303,
      "வர்களுக்கான": 8304,
      "போரா": 8305,
      "லுக்காக": 8306,
      " செய்துவிட்டு": 8307,
      " அறிவித்துள்ளார்": 8308,
      " ராஜீவ்": 8309,
      " வளர்": 8310,
      " கெட்ட": 8311,
      " வெற்றிக்கு": 8312,
      " பிரேத": 8313,
      " ஆயுள்": 8314,
      " Vikatan": 8315,
      " சமூகவலை": 8316,
      " அகிலேஷ்": 8317,
      "விஜய்": 8318,
      " அசோக்": 8319,
      " திருக்கல்யாண": 8320,
      " ஓரிரு": 8321,
      "02": 8322,
      "இப்ப": 8323,
      "ழும்ப": 8324,
      "விலும்": 8325,
      "ீத": 8326,
      "ல்ட்": 8327,
      " பில்": 8328,
      " களை": 8329,
      "ப்பிட்ட": 8330,
      "க்குரிய": 8331,
      " வெற்றிய": 8332,
      "நிலையை": 8333,
      " திருப்பு": 8334,
      " சிலருக்கு": 8335,
      " சென்றபோது": 8336,
      " பொறுத்து": 8337,
      " நாளும்": 8338,
      "வானி": 8339,
      "ிருப்பதை": 8340,
      "ப்பெரு": 8341,
      "மூன்ற": 8342,
      " பயணிக்க": 8343,
      " சின்னம்": 8344,
      " சர்ச்சையை": 8345,
      " முன்வைக்க": 8346,
      " ரூபாய்க்கு": 8347,
      " வெப்பநிலை": 8348,
      " எதிர்கொள்ளும்": 8349,
      " துன்புறுத்த": 8350,
      "கையில்": 8351,
      "னங்கள்": 8352,
      "லையே": 8353,
      " அவுட்": 8354,
      " உல": 8355,
      " தென்ன": 8356,
      " கோபம்": 8357,
      "டுகளும்": 8358,
      " வருகின்ற": 8359,
      "ிக்ஸ்": 8360,
      " நெறி": 8361,
      " ஆதீனம்": 8362,
      "டுவதாக": 8363,
      " குழந்தைக்கு": 8364,
      " இணைக்க": 8365,
      " பிரிவின": 8366,
      " பெருந்த": 8367,
      " கருத்துகளை": 8368,
      " கடைகள்": 8369,
      " ட்ர": 8370,
      " சுற்றுப்பய": 8371,
      " விரும்புவ": 8372,
      " அளிக்கப்பட்டது": 8373,
      " மண்டபம்": 8374,
      " ஆலோசக": 8375,
      " பட்டியலின": 8376,
      " நிற்கும்": 8377,
      " விடுத்துள்ளார்": 8378,
      " ஆற்றல்": 8379,
      "ாவாசை": 8380,
      " முழங்க": 8381,
      " ஓராண்டு": 8382,
      " இழப்பீடு": 8383,
      "59": 8384,
      "இப்போ": 8385,
      "ஹர்": 8386,
      " மஹா": 8387,
      "ப்பவர்கள்": 8388,
      " போதிய": 8389,
      " அமைந்து": 8390,
      " வைப": 8391,
      " துல்லிய": 8392,
      " வழங்கப்படுகிறது": 8393,
      "டையே": 8394,
      "விட்டாலும்": 8395,
      " கிரா": 8396,
      " கிளா": 8397,
      " தோழ": 8398,
      " வாய்ப்ப": 8399,
      " வாரங்களுக்கு": 8400,
      " திமுகவின்": 8401,
      " அலுவல்கள்": 8402,
      " தவறி": 8403,
      " தயாராகி": 8404,
      " இழப்பு": 8405,
      " இயக்குனர்": 8406,
      " குற்றச்சாட்டுகளை": 8407,
      " கண்டிப்பாக": 8408,
      " அன்புமணி": 8409,
      " வேதனை": 8410,
      " சமீபத்திய": 8411,
      " விஞ்ஞானிகள்": 8412,
      " நிலைப்பாட்டை": 8413,
      " தொலைக்காட்சி": 8414,
      "em": 8415,
      "அல": 8416,
      "மக்களை": 8417,
      "த்தேன்": 8418,
      " இதற்கான": 8419,
      " குடியே": 8420,
      " இருவருக்கும்": 8421,
      " ஒவ்வ": 8422,
      " தேட": 8423,
      "மாகச்": 8424,
      " கோஷ": 8425,
      " ஜின்": 8426,
      " புதன்": 8427,
      " வருகிறேன்": 8428,
      "பாண்ட": 8429,
      " கடனை": 8430,
      " இதுகுறித்து": 8431,
      " சீனிவாசன்": 8432,
      "வீதி": 8433,
      " பொருள": 8434,
      " ஈபிஎஸ்": 8435,
      " மருத்துவம்": 8436,
      " மேற்கெ": 8437,
      "டுவோம்": 8438,
      " நிறுவனங்களுக்கு": 8439,
      " அணிவகு": 8440,
      " மகேஷ்": 8441,
      " மறுப்பு": 8442,
      "சேலம்": 8443,
      " மிரட்ட": 8444,
      " பேசுவது": 8445,
      " வெளியுறவுத்துறை": 8446,
      " திரையரங்க": 8447,
      " சூர்ய": 8448,
      " புற்றுநோய்": 8449,
      " தேரோட்டம்": 8450,
      "அம்மா": 8451,
      "உண்மையில்": 8452,
      "ம்ச": 8453,
      " முட்டை": 8454,
      " முழக்க": 8455,
      "மைப்பின்": 8456,
      " மாசு": 8457,
      "ம்பிய": 8458,
      " நிலத்தை": 8459,
      " அமைக்கும்": 8460,
      " கோ": 8461,
      " சுத்தம்": 8462,
      " பலருக்கும்": 8463,
      " கடத்தி": 8464,
      " கடற்றொ": 8465,
      "லிங்": 8466,
      " தீட்சி": 8467,
      "போர்ட்": 8468,
      " அமைச்சரவையில்": 8469,
      " பூங்கா": 8470,
      " தரையிற": 8471,
      " உணர்ந்து": 8472,
      " அவரால்": 8473,
      " வாழ்க": 8474,
      " அகமது": 8475,
      " பிரச்னையை": 8476,
      " சிவப்பு": 8477,
      " நகரங்களில்": 8478,
      " விவரங்கள்": 8479,
      " தியாகராஜன்": 8480,
      " சிறுத்தைகள்": 8481,
      "குஜராத்": 8482,
      " இடையூ": 8483,
      " சுவாரஸ்": 8484,
      "09": 8485,
      "120": 8486,
      "ஸும்": 8487,
      " மான்": 8488,
      "ட்டத்தை": 8489,
      " செந்த": 8490,
      "ாவதாக": 8491,
      " வெயில்": 8492,
      " வெகுவ": 8493,
      " வீச்ச": 8494,
      "பெண்": 8495,
      " நேபாள": 8496,
      " ஓமிக்ரான்": 8497,
      "்க்கும்": 8498,
      " தொடர்புக": 8499,
      " கட்டமைப்பு": 8500,
      " புகை": 8501,
      " டிடிவி": 8502,
      " சமூகத்தில்": 8503,
      " வழிபட": 8504,
      " திருமாவளவன்": 8505,
      " முழுவது": 8506,
      " உறவுகளை": 8507,
      " மிஸ்": 8508,
      " நம்முடைய": 8509,
      "உலகின்": 8510,
      " புலிகள்": 8511,
      "மக்களின்": 8512,
      " விவரங்களை": 8513,
      " வீழ்த்தி": 8514,
      " கன்னியாகுமரி": 8515,
      " மானிய": 8516,
      " ஒற்றைத்": 8517,
      " அறிகுறிகள்": 8518,
      " ஓய்வூதிய": 8519,
      "பாதுகாப்பு": 8520,
      " நடுத்தர": 8521,
      "்களும்": 8522,
      " மஸ்க்": 8523,
      "ப்பாளராக": 8524,
      " எளிய": 8525,
      " எங்களிடம்": 8526,
      " ஆலை": 8527,
      "லைத்": 8528,
      " வெறுப்பு": 8529,
      " பிரம்மா": 8530,
      " பணவீ": 8531,
      "த்திற்குச்": 8532,
      "காரில்": 8533,
      " வாக்குகளை": 8534,
      " வைத்திருக்க": 8535,
      " செய்யப்பட்டனர்": 8536,
      " செய்வதாக": 8537,
      " கூறியதாவது": 8538,
      " போட்டியிட்டு": 8539,
      " குறிப்பிடுகிறார்": 8540,
      " வருடங்கள்": 8541,
      " முன்வைத்து": 8542,
      " அக்கட்சி": 8543,
      "யுத்த": 8544,
      " பெற்றோர்கள்": 8545,
      "உத்தரப்பிரதேச": 8546,
      "52": 8547,
      "ak": 8548,
      "அதேசமயம்": 8549,
      "கல்வி": 8550,
      "டெல்லியில்": 8551,
      "ரத்து": 8552,
      " தார": 8553,
      " தில": 8554,
      "ாரிடம்": 8555,
      "ானிய": 8556,
      " குறுகிய": 8557,
      " போஸ்ட": 8558,
      " போர்க்க": 8559,
      " மாநகர": 8560,
      " கூகு": 8561,
      "வரே": 8562,
      " கோத்த": 8563,
      " ஜு": 8564,
      " மேடை": 8565,
      " நீள": 8566,
      " ஓவர்கள்": 8567,
      "ஞ்சல்": 8568,
      " பதிவான": 8569,
      "க்கப்பட்டன": 8570,
      " பார்க்கும்போது": 8571,
      " லட்சக்கணக்கான": 8572,
      " மனுவில்": 8573,
      " சிக்கல்கள்": 8574,
      " அளிக்கிறது": 8575,
      " குடியிரு": 8576,
      " தீர்மானிக்க": 8577,
      " பீகார்": 8578,
      " இடைத்தேர்த": 8579,
      " பல்கலைக்கழகம்": 8580,
      " மருந்துகள்": 8581,
      " சசிகல": 8582,
      " எளிதில்": 8583,
      "ிலிருந்தும்": 8584,
      " யூனியன்": 8585,
      " அத்துமீ": 8586,
      "ap": 8587,
      "பவர்களுக்கு": 8588,
      " பூர்": 8589,
      " சத்ய": 8590,
      "ட்டமைப்பு": 8591,
      " இருவரையும்": 8592,
      " ரத்": 8593,
      " அரசால்": 8594,
      " அரசிடம்": 8595,
      "வாழ": 8596,
      " துரி": 8597,
      " திருத்தம்": 8598,
      " பிளவு": 8599,
      " அமாவாசை": 8600,
      " பூங்க": 8601,
      "..?\n": 8602,
      " போட்டியை": 8603,
      " வாரத்தில்": 8604,
      " காணப்படுகிறது": 8605,
      "களுக்குப்": 8606,
      "கொழும்பு": 8607,
      " உறவுகள்": 8608,
      " மேற்கொள்ளப்பட்டு": 8609,
      " குழுவை": 8610,
      " மேற்கொண்டார்": 8611,
      " பஞ்சாய": 8612,
      " நிவாரணம்": 8613,
      " ஒலிம்பியாட்": 8614,
      " தொலைபேசி": 8615,
      " மறுசீரமைப்பு": 8616,
      "03": 8617,
      "77": 8618,
      "தந்த": 8619,
      "வனை": 8620,
      "வதில்": 8621,
      " சிக": 8622,
      " சதம்": 8623,
      " அன்றைய": 8624,
      " முளை": 8625,
      "றிக்க": 8626,
      "ட்சியை": 8627,
      " உள்ளவர்கள்": 8628,
      " அதிகளவில்": 8629,
      " கோவில்": 8630,
      " நிமி": 8631,
      " நீலகிரி": 8632,
      " சுந்தர": 8633,
      "சென்ன": 8634,
      " வழங்குக": 8635,
      "விட்டார்கள்": 8636,
      " பிறப்பிக்க": 8637,
      " பாஜகவினர்": 8638,
      " பிறகுதான்": 8639,
      " வார்டு": 8640,
      " நீதிமன்றத்தின்": 8641,
      " தேசியவாத": 8642,
      " வெளியேறிய": 8643,
      " தேவஸ்தான": 8644,
      " மதிப்பில்": 8645,
      " ஆய்வுகள்": 8646,
      " அடைக்க": 8647,
      " விதிகள்": 8648,
      " வெள்ளத்தில்": 8649,
      "நோய்": 8650,
      " கட்டுப்பாட்டு": 8651,
      "ரூப்": 8652,
      " மேலதிக": 8653,
      " உயிரிழந்தனர்": 8654,
      " திருவண்ணாமலை": 8655,
      "ன்னாப்பிரிக்க": 8656,
      " நிரூபிக்க": 8657,
      " புகழ்பெற்ற": 8658,
      "கிருஷ்ணன்": 8659,
      " &": 8660,
      "க்கின்": 8661,
      " சத்த": 8662,
      " நஷ்ட": 8663,
      "ளுக்கே": 8664,
      "ன்றே": 8665,
      "மானார்": 8666,
      " துரோ": 8667,
      " துறைய": 8668,
      " கொண்டாட்ட": 8669,
      "சுற்று": 8670,
      " அல்லாத": 8671,
      " செலுத்தினர்": 8672,
      " கேள்விகளை": 8673,
      " பழனிவேல்": 8674,
      " நிரப்ப": 8675,
      " விரும்பும்": 8676,
      " ஆணையத்தின்": 8677,
      " அரங்க": 8678,
      " மேற்கொள்ளப்பட்ட": 8679,
      "விருது": 8680,
      " BBC": 8681,
      " களமிறங்கிய": 8682,
      "நானும்": 8683,
      "மாறாக": 8684,
      " எல்லோரும்": 8685,
      " கமிஷனர்": 8686,
      "04": 8687,
      "அரு": 8688,
      "ஜியின்": 8689,
      "ரயில்": 8690,
      "வியின்": 8691,
      "ஷ்குமார்": 8692,
      " உங்களின்": 8693,
      " முதற்கட்ட": 8694,
      " விசா": 8695,
      " எதிர்த்த": 8696,
      "பேரில்": 8697,
      " வாக்குவாதம்": 8698,
      "களின்படி": 8699,
      " பாதிக்கப்பட்டு": 8700,
      " எதிர்கொண்டு": 8701,
      " நலன்": 8702,
      " வெளியிட்டுள்ளார்": 8703,
      " சந்தித்துப்": 8704,
      " ஆகியோரின்": 8705,
      " சாப்பிட்டு": 8706,
      " ரெய்டு": 8707,
      "ார்களாம்": 8708,
      "வல்": 8709,
      "வதாகவும்": 8710,
      "ாசிய": 8711,
      "ல்பு": 8712,
      " பாக்": 8713,
      " கங்க": 8714,
      " நடமா": 8715,
      " வெட்ட": 8716,
      " காற்ற": 8717,
      " செய்தியாளர்கள்": 8718,
      " இருந்ததாக": 8719,
      "ப்படுகின்றனர்": 8720,
      " அறிவிப்பை": 8721,
      " பேசியுள்ளார்": 8722,
      " வைத்துள்ளது": 8723,
      " தொடங்கியுள்ளது": 8724,
      " திறமை": 8725,
      " தனித்தன": 8726,
      " ட்ரோ": 8727,
      " இன்ஸ்பெ": 8728,
      "ன்னிந்திய": 8729,
      " எடுத்தார்": 8730,
      " ஹேம": 8731,
      " நிமிடங்கள்": 8732,
      " அர்த்தம்": 8733,
      " மீனாட்சி": 8734,
      " நேர்காண": 8735,
      "இற": 8736,
      "கைய": 8737,
      "தர்கள்": 8738,
      "தமுள்ள": 8739,
      "வலி": 8740,
      "வசம்": 8741,
      "ாக்க": 8742,
      "்தே": 8743,
      " பந்தை": 8744,
      " கன்னி": 8745,
      "த்திருக்கிறது": 8746,
      " நவீன்": 8747,
      " உத்திர": 8748,
      " சொல்": 8749,
      " தொட்ட": 8750,
      " தொல்ல": 8751,
      " பிரசித்தி": 8752,
      " வரையில்": 8753,
      " தெரிவு": 8754,
      " தெரிவிக்கும்": 8755,
      "காண்ட்": 8756,
      " தமிழிசை": 8757,
      "மையன்று": 8758,
      " மாநிலங்கள்": 8759,
      " மேற்கத்திய": 8760,
      "நீங்க": 8761,
      " குறைந்துள்ளது": 8762,
      "டுவார்கள்": 8763,
      " தேவைப்படும்": 8764,
      "வர்களால்": 8765,
      " காதலி": 8766,
      " உக்ரைனில்": 8767,
      " ஆலோசனைக்": 8768,
      "வாரூர்": 8769,
      " விண்ணப்பிக்க": 8770,
      " சுற்றுலாப்": 8771,
      " பெரிதும்": 8772,
      " ஆச்சர்": 8773,
      " அஞ்சலி": 8774,
      " தீயணைப்பு": 8775,
      " அரேபிய": 8776,
      "கள்ளக்குறிச்சி": 8777,
      " உயிருடன்": 8778,
      "op": 8779,
      "எழு": 8780,
      "தாம": 8781,
      " அஷ்ட": 8782,
      "திகார": 8783,
      " உரை": 8784,
      " ஆள்": 8785,
      " குப்பை": 8786,
      "வுடனான": 8787,
      "ுகளின்": 8788,
      "வரலா": 8789,
      " நிலுவையில்": 8790,
      "சிங்": 8791,
      " நீர்ம": 8792,
      "டிக்கை": 8793,
      "இதுபற்றி": 8794,
      "சாந்த்": 8795,
      " ஆண்டுக்கான": 8796,
      " சூதா": 8797,
      "ப்போகும்": 8798,
      " பாலம்": 8799,
      " பாலத்தீன": 8800,
      " உருவெ": 8801,
      "ரீதியாக": 8802,
      "பாரா": 8803,
      " எண்ணம்": 8804,
      " முறைப்படி": 8805,
      " மறுநாள்": 8806,
      " தனித்து": 8807,
      " மண்டப": 8808,
      " பங்குனி": 8809,
      " முன்னெடுத்து": 8810,
      " கார்த்திக்": 8811,
      "ctor": 8812,
      " நிர்ணய": 8813,
      "நிகழ்வில்": 8814,
      " சீர்திருத்த": 8815,
      "நவ": 8816,
      "மலைய": 8817,
      "லியின்": 8818,
      "ீஸ்வரர்": 8819,
      "க்கல்ல": 8820,
      "ப்ஸ்": 8821,
      " தடைய": 8822,
      " அதற்காக": 8823,
      "ப்பறை": 8824,
      " நம": 8825,
      "ிலா": 8826,
      " செக்": 8827,
      "ற்றல்": 8828,
      " விடை": 8829,
      "றிந்து": 8830,
      "ாவையும்": 8831,
      " ரவு": 8832,
      " மாம": 8833,
      " கூட்டி": 8834,
      " பாம்பு": 8835,
      " ஜப்பான": 8836,
      " மூடி": 8837,
      " ஓட": 8838,
      " ஓவிய": 8839,
      " இந்தியப்": 8840,
      "ரிக்கப்பட்ட": 8841,
      " ஹவு": 8842,
      " தேர்தலின்": 8843,
      " எழுப்பு": 8844,
      " அதிகாரிகளை": 8845,
      "விடாமல்": 8846,
      "பிரிட்ட": 8847,
      " இறக்க": 8848,
      " உதவிகளை": 8849,
      " கிடைக்கிறது": 8850,
      " கண்ணன்": 8851,
      "ப்புறம்": 8852,
      " ரெண்டு": 8853,
      " நியமிக்கப்பட்ட": 8854,
      " பறக்க": 8855,
      " குழப்பம்": 8856,
      " ஆந்திரா": 8857,
      " பொதுச்செயல": 8858,
      " அப்துல்": 8859,
      "நடிகர்": 8860,
      " சமையல்": 8861,
      " இடஒதுக்கீடு": 8862,
      " +": 8863,
      "85": 8864,
      "உடன": 8865,
      "பது": 8866,
      "த்தவர்கள்": 8867,
      " அய": 8868,
      "ார்ஜ்": 8869,
      "வுக்கான": 8870,
      "ாதனைகள்": 8871,
      "வேச": 8872,
      "சிசி": 8873,
      "ராது": 8874,
      " திருப்த": 8875,
      " அதிகரிப்பு": 8876,
      " ஆட்சே": 8877,
      " மதுரையில்": 8878,
      " தொழிலாள": 8879,
      " விஷயத்தை": 8880,
      " அறங்காவ": 8881,
      " அடங்கும்": 8882,
      "த்தொழில்": 8883,
      " ஜனநாயகக்": 8884,
      " இசையமை": 8885,
      "சின்ன": 8886,
      "ive": 8887,
      " தட்டுப்பாடு": 8888,
      " பிளாஸ்டிக்": 8889,
      " நூற்றுக்கணக்கான": 8890,
      " தெலங்கானா": 8891,
      "ர்வாண": 8892,
      "சால": 8893,
      "தய": 8894,
      "தையே": 8895,
      "நலம்": 8896,
      "ென்": 8897,
      "ோன்": 8898,
      " வார்": 8899,
      " மாலையில்": 8900,
      " தாம்": 8901,
      "ட்டியின்": 8902,
      " ஆம்பு": 8903,
      " போடும்": 8904,
      " ஒருவரான": 8905,
      " கோவி": 8906,
      "வாழ்வு": 8907,
      "ப்பாக்கம்": 8908,
      " ஒன்றரை": 8909,
      " நிலையங்களில்": 8910,
      " பகுதிகளிலும்": 8911,
      "கோவில்": 8912,
      "த்துவத்தை": 8913,
      " ராமநாதபுரம்": 8914,
      "பூஜை": 8915,
      " டிரா": 8916,
      " சகல": 8917,
      "ங்காங்கே": 8918,
      " மிரட்டி": 8919,
      " குற்றவாளிகள்": 8920,
      " சரவணன்": 8921,
      "ீட்டில்": 8922,
      " பவர்": 8923,
      " கத்திய": 8924,
      " மலர்": 8925,
      "ியலாளர்": 8926,
      " ஆத்திர": 8927,
      " முர்": 8928,
      " கோவிட்": 8929,
      "ிட்டார்": 8930,
      " புல்": 8931,
      " வாழை": 8932,
      " திருநெல்வேலி": 8933,
      "ங்கள்தான்": 8934,
      " ராஜேந்திர": 8935,
      " வைத்துள்ளார்": 8936,
      " மாற்றத்தை": 8937,
      "யிலை": 8938,
      " காரைக்கால்": 8939,
      " அதைச்": 8940,
      " நிறுத்திய": 8941,
      " காவல்துறையின": 8942,
      " தொழிலில்": 8943,
      " வாகனங்களில்": 8944,
      " மிதமான": 8945,
      " ஆகியோரை": 8946,
      " ஆகியோரும்": 8947,
      "மிகவும்": 8948,
      " சட்டசபையில்": 8949,
      " தாமரை": 8950,
      " பராமரிக்க": 8951,
      " ரயிலில்": 8952,
      " சலசல": 8953,
      "ார்க்கண்ட்": 8954,
      "ாயிரம்": 8955,
      " அறக்கட்டளை": 8956,
      " பணிபுரியும்": 8957,
      " சமூகவலைதள": 8958,
      " U": 8959,
      "நபர்": 8960,
      "ட்டாக": 8961,
      " இவ்": 8962,
      "க்குற": 8963,
      "டுப்பது": 8964,
      " பெறுக": 8965,
      " பிரபு": 8966,
      " காசி": 8967,
      " அவள்": 8968,
      "மேற்க": 8969,
      "ண்ணை": 8970,
      "போக": 8971,
      "செவ்வ": 8972,
      "க்கிங்": 8973,
      "ேயும்": 8974,
      "த்துக்குள்ள": 8975,
      " உணவை": 8976,
      " பேசியிருக்கிறார்": 8977,
      " வழக்குகளில்": 8978,
      " எடுக்கவில்லை": 8979,
      " வெற்றிபெற்ற": 8980,
      " அதைத்": 8981,
      " அரைய": 8982,
      " நூறு": 8983,
      "ப்தா": 8984,
      " உதவிய": 8985,
      "ஷிங": 8986,
      " ஆனந்த": 8987,
      "ச்சேரியில்": 8988,
      " உயிரிழப்பு": 8989,
      " நுழைவு": 8990,
      " சாத்தியம்": 8991,
      " பழங்குடி": 8992,
      " நடத்துவது": 8993,
      " ரன்களுக்கு": 8994,
      " கடவுள்": 8995,
      "தினமும்": 8996,
      " பொலிஸ்": 8997,
      " நேர்த்திக்க": 8998,
      " வேண்டுகோள்": 8999,
      "800": 9000,
      "அவர்களில்": 9001,
      "சசிக": 9002,
      "த்ததாக": 9003,
      " அபே": 9004,
      " இத்தனை": 9005,
      "ாளரும்": 9006,
[...]
