{
  "version": "1.0",
  "truncation": null,
  "padding": null,
  "added_tokens": [
    {
      "id": 10000,
      "content": "[UNK]",
      "single_word": false,
      "lstrip": false,
      "rstrip": false,
      "normalized": false,
      "special": true
    }
  ],
  "normalizer": null,
  "pre_tokenizer": {
    "type": "Sequence",
    "pretokenizers": [
      {
        "type": "Split",
        "pattern": {
          "Regex": "\\p{N}{1,3}| ?[^\\s\\p{L}\\p{N}]{2,}[\\r\\n/]*| +(?!\\S)"
        },
        "behavior": "Isolated",
        "invert": false
      }
    ]
  },
  "post_processor": null,
  "decoder": null,
  "model": {
    "type": "BPE",
    "dropout": null,
    "unk_token": null,
    "continuing_subword_prefix": null,
    "end_of_word_suffix": null,
    "fuse_unk": false,
    "byte_fallback": false,
    "ignore_merges": false,
    "vocab": {
      "\n": 0,
      " ": 1,
      "!": 2,
      "\"": 3,
      "#": 4,
      "$": 5,
      "%": 6,
      "&": 7,
      "'": 8,
      "(": 9,
      ")": 10,
      "*": 11,
      "+": 12,
      ",": 13,
      "-": 14,
      ".": 15,
      "/": 16,
      "0": 17,
      "1": 18,
      "2": 19,
      "3": 20,
      "4": 21,
      "5": 22,
      "6": 23,
      "7": 24,
      "8": 25,
      "9": 26,
      ":": 27,
      ";": 28,
      "<": 29,
      "=": 30,
      ">": 31,
      "?": 32,
      "@": 33,
      "A": 34,
      "B": 35,
      "C": 36,
      "D": 37,
      "E": 38,
      "F": 39,
      "G": 40,
      "H": 41,
      "I": 42,
      "J": 43,
      "K": 44,
      "L": 45,
      "M": 46,
      "N": 47,
      "O": 48,
      "P": 49,
      "Q": 50,
      "R": 51,
      "S": 52,
      "T": 53,
      "U": 54,
      "V": 55,
      "W": 56,
      "X": 57,
      "Y": 58,
      "Z": 59,
      "[": 60,
      "\\": 61,
      "]": 62,
      "^": 63,
      "_": 64,
      "a": 65,
      "b": 66,
      "c": 67,
      "d": 68,
      "e": 69,
      "f": 70,
      "g": 71,
      "h": 72,
      "i": 73,
      "j": 74,
      "k": 75,
      "l": 76,
      "m": 77,
      "n": 78,
      "o": 79,
      "p": 80,
      "q": 81,
      "r": 82,
      "s": 83,
      "t": 84,
      "u": 85,
      "v": 86,
      "w": 87,
      "x": 88,
      "y": 89,
      "z": 90,
      "{": 91,
      "}": 92,
      "~": 93,
      "¡": 94,
      "¢": 95,
      "£": 96,
      "¤": 97,
      "¥": 98,
      "¦": 99,
      "§": 100,
      "©": 101,
      "¬": 102,
      "®": 103,
      "°": 104,
      "±": 105,
      "¶": 106,
      "·": 107,
      "¿": 108,
      "À": 109,
      "Á": 110,
      "Â": 111,
      "Ã": 112,
      "Å": 113,
      "Æ": 114,
      "Ç": 115,
      "È": 116,
      "É": 117,
      "Ê": 118,
      "Ë": 119,
      "Ì": 120,
      "Í": 121,
      "Î": 122,
      "Ï": 123,
      "Ð": 124,
      "Ò": 125,
      "Ó": 126,
      "Õ": 127,
      "Ö": 128,
      "×": 129,
      "Ø": 130,
      "Ú": 131,
      "Û": 132,
      "Ü": 133,
      "Þ": 134,
      "ß": 135,
      "à": 136,
      "á": 137,
      "â": 138,
      "ã": 139,
      "ä": 140,
      "å": 141,
      "æ": 142,
      "ç": 143,
      "è": 144,
      "é": 145,
      "ê": 146,
      "ë": 147,
      "ì": 148,
      "í": 149,
      "î": 150,
      "ï": 151,
      "ð": 152,
      "ñ": 153,
      "ò": 154,
      "ó": 155,
      "ô": 156,
      "õ": 157,
      "ö": 158,
      "÷": 159,
      "ø": 160,
      "ù": 161,
      "ú": 162,
      "û": 163,
      "ü": 164,
      "ý": 165,
      "þ": 166,
      "ÿ": 167,
      "Ā": 168,
      "ā": 169,
      "ă": 170,
      "ą": 171,
      "ć": 172,
      "ĉ": 173,
      "Ċ": 174,
      "č": 175,
      "ē": 176,
      "ĕ": 177,
      "ė": 178,
      "Ę": 179,
      "ę": 180,
      "ě": 181,
      "ğ": 182,
      "Ī": 183,
      "ī": 184,
      "į": 185,
      "İ": 186,
      "ı": 187,
      "Ķ": 188,
      "ł": 189,
      "ń": 190,
      "ŋ": 191,
      "Ō": 192,
      "ō": 193,
      "Ŏ": 194,
      "ŏ": 195,
      "Œ": 196,
      "œ": 197,
      "ř": 198,
      "Ś": 199,
      "ś": 200,
      "Ş": 201,
      "ş": 202,
      "Š": 203,
      "š": 204,
      "ť": 205,
      "ū": 206,
      "Ů": 207,
      "ų": 208,
      "Ÿ": 209,
      "Ż": 210,
      "ż": 211,
      "Ž": 212,
      "ž": 213,
      "ƒ": 214,
      "ư": 215,
      "ǀ": 216,
      "ǁ": 217,
      "Ǒ": 218,
      "ǒ": 219,
      "ǔ": 220,
      "ȧ": 221,
      "Ȩ": 222,
      "ȯ": 223,
      "ɑ": 224,
      "ɒ": 225,
      "ɔ": 226,
      "ə": 227,
      "ɛ": 228,
      "ɜ": 229,
      "ɡ": 230,
      "ɪ": 231,
      "ʁ": 232,
      "ʃ": 233,
      "ʈ": 234,
      "ʉ": 235,
      "ʊ": 236,
      "ʋ": 237,
      "ʌ": 238,
      "ʏ": 239,
      "ʒ": 240,
      "ʟ": 241,
      "ʻ": 242,
      "ʼ": 243,
      "ʿ": 244,
      "ˆ": 245,
      "ˈ": 246,
      "ˌ": 247,
      "ˎ": 248,
      "ː": 249,
      "ˑ": 250,
      "́": 251,
      "̃": 252,
      "̄": 253,
      "̆": 254,
      "̇": 255,
      "̈": 256,
      "̊": 257,
      "̍": 258,
      "̐": 259,
      "̕": 260,
      "̖": 261,
      "̠": 262,
      "̣": 263,
      "̥": 264,
      "̧": 265,
      "̪": 266,
      "̶": 267,
      "Ά": 268,
      "Δ": 269,
      "Ι": 270,
      "Κ": 271,
      "Μ": 272,
      "Ο": 273,
      "Σ": 274,
      "Φ": 275,
      "Ψ": 276,
      "Ω": 277,
      "ά": 278,
      "ή": 279,
      "α": 280,
      "β": 281,
      "δ": 282,
      "ε": 283,
      "ζ": 284,
      "η": 285,
      "θ": 286,
      "ι": 287,
      "κ": 288,
      "μ": 289,
      "ν": 290,
      "ο": 291,
      "π": 292,
      "ρ": 293,
      "ς": 294,
      "σ": 295,
      "τ": 296,
      "φ": 297,
      "χ": 298,
      "ω": 299,
      "ό": 300,
      "І": 301,
      "Ј": 302,
      "А": 303,
      "Б": 304,
      "В": 305,
      "Д": 306,
      "Е": 307,
      "З": 308,
      "И": 309,
      "Й": 310,
      "К": 311,
      "Л": 312,
      "М": 313,
      "Н": 314,
      "О": 315,
      "П": 316,
      "Р": 317,
      "С": 318,
      "Т": 319,
      "У": 320,
      "Ф": 321,
      "Х": 322,
      "Ц": 323,
      "Ч": 324,
      "Э": 325,
      "Ю": 326,
      "Я": 327,
      "а": 328,
      "б": 329,
      "в": 330,
      "г": 331,
      "д": 332,
      "е": 333,
      "ж": 334,
      "з": 335,
      "и": 336,
      "й": 337,
      "к": 338,
      "л": 339,
      "м": 340,
      "н": 341,
      "о": 342,
      "п": 343,
      "р": 344,
      "с": 345,
      "т": 346,
      "у": 347,
      "ф": 348,
      "х": 349,
      "ц": 350,
      "ч": 351,
      "ш": 352,
      "щ": 353,
      "ы": 354,
      "ь": 355,
      "э": 356,
      "ю": 357,
      "я": 358,
      "ё": 359,
      "є": 360,
      "і": 361,
      "ї": 362,
      "ј": 363,
      "ў": 364,
      "ҫ": 365,
      "ү": 366,
      "ә": 367,
      "Ө": 368,
      "Ե": 369,
      "Կ": 370,
      "Հ": 371,
      "ա": 372,
      "ե": 373,
      "ն": 374,
      "ր": 375,
      "ւ": 376,
      "ַ": 377,
      "א": 378,
      "ב": 379,
      "ג": 380,
      "ד": 381,
      "ה": 382,
      "ו": 383,
      "ט": 384,
      "י": 385,
      "כ": 386,
      "ל": 387,
      "ם": 388,
      "מ": 389,
      "ן": 390,
      "נ": 391,
      "ס": 392,
      "ע": 393,
      "ף": 394,
      "פ": 395,
      "צ": 396,
      "ק": 397,
      "ר": 398,
      "ש": 399,
      "ת": 400,
      "ײ": 401,
      "؞": 402,
      "ء": 403,
      "آ": 404,
      "أ": 405,
      "إ": 406,
      "ئ": 407,
      "ا": 408,
      "ب": 409,
      "ة": 410,
      "ت": 411,
      "ج": 412,
      "ح": 413,
      "خ": 414,
      "د": 415,
      "ذ": 416,
      "ر": 417,
      "ز": 418,
      "س": 419,
      "ش": 420,
      "ص": 421,
      "ط": 422,
      "ع": 423,
      "غ": 424,
      "ف": 425,
      "ق": 426,
      "ك": 427,
      "ل": 428,
      "م": 429,
      "ن": 430,
      "ه": 431,
      "و": 432,
      "ى": 433,
      "ي": 434,
      "ً": 435,
      "ُ": 436,
      "ِ": 437,
      "٫": 438,
      "٬": 439,
      "ٰ": 440,
      "ٹ": 441,
      "ټ": 442,
      "پ": 443,
      "چ": 444,
      "ڌ": 445,
      "ک": 446,
      "ڪ": 447,
      "گ": 448,
      "ں": 449,
      "ڼ": 450,
      "ھ": 451,
      "ہ": 452,
      "ۂ": 453,
      "ۆ": 454,
      "ۇ": 455,
      "ی": 456,
      "۔": 457,
      "ە": 458,
      "ܐ": 459,
      "ܒ": 460,
      "ܕ": 461,
      "ܘ": 462,
      "ܚ": 463,
      "ܛ": 464,
      "ܟ": 465,
      "ܠ": 466,
      "ܣ": 467,
      "ܦ": 468,
      "ܪ": 469,
      "ܬ": 470,
      "ँ": 471,
      "ं": 472,
      "ः": 473,
      "ऄ": 474,
      "अ": 475,
      "आ": 476,
      "इ": 477,
      "ई": 478,
      "उ": 479,
      "ऊ": 480,
      "ऋ": 481,
      "ऌ": 482,
      "ऍ": 483,
      "ऎ": 484,
      "ए": 485,
      "ऐ": 486,
      "ऑ": 487,
      "ऒ": 488,
      "ओ": 489,
      "औ": 490,
      "क": 491,
      "ख": 492,
      "ग": 493,
      "घ": 494,
      "ङ": 495,
      "च": 496,
      "छ": 497,
      "ज": 498,
      "झ": 499,
      "ञ": 500,
      "ट": 501,
      "ठ": 502,
      "ड": 503,
      "ढ": 504,
      "ण": 505,
      "त": 506,
      "थ": 507,
      "द": 508,
      "ध": 509,
      "न": 510,
      "ऩ": 511,
      "प": 512,
      "फ": 513,
      "ब": 514,
      "भ": 515,
      "म": 516,
      "य": 517,
      "र": 518,
      "ऱ": 519,
      "ल": 520,
      "ळ": 521,
      "ऴ": 522,
      "व": 523,
      "श": 524,
      "ष": 525,
      "स": 526,
      "ह": 527,
      "ऺ": 528,
      "ऻ": 529,
      "़": 530,
      "ऽ": 531,
      "ा": 532,
      "ि": 533,
      "ी": 534,
      "ु": 535,
      "ू": 536,
      "ृ": 537,
      "ॄ": 538,
      "ॅ": 539,
      "ॆ": 540,
      "े": 541,
      "ै": 542,
      "ॉ": 543,
      "ॊ": 544,
      "ो": 545,
      "ौ": 546,
      "्": 547,
      "ॐ": 548,
      "॑": 549,
      "॒": 550,
      "॓": 551,
      "॔": 552,
      "ॠ": 553,
      "ॡ": 554,
      "ॢ": 555,
      "।": 556,
      "॥": 557,
      "०": 558,
      "१": 559,
      "२": 560,
      "३": 561,
      "४": 562,
      "५": 563,
      "६": 564,
      "७": 565,
      "८": 566,
      "९": 567,
      "॰": 568,
      "ॱ": 569,
      "ॵ": 570,
      "ॺ": 571,
      "ॼ": 572,
      "ॾ": 573,
      "ॿ": 574,
      "ং": 575,
      "আ": 576,
      "ই": 577,
      "উ": 578,
      "এ": 579,
      "ক": 580,
      "খ": 581,
      "গ": 582,
      "ঘ": 583,
      "চ": 584,
      "ছ": 585,
      "জ": 586,
      "ট": 587,
      "ঠ": 588,
      "ড": 589,
      "ঢ": 590,
      "ণ": 591,
      "ত": 592,
      "থ": 593,
      "দ": 594,
      "ধ": 595,
      "ন": 596,
      "প": 597,
      "ব": 598,
      "ম": 599,
      "য": 600,
      "র": 601,
      "ল": 602,
      "ষ": 603,
      "স": 604,
      "হ": 605,
      "়": 606,
      "া": 607,
      "ি": 608,
      "ী": 609,
      "ু": 610,
      "ৃ": 611,
      "ে": 612,
      "ো": 613,
      "্": 614,
      "০": 615,
      "৩": 616,
      "৭": 617,
      "ৰ": 618,
      "ৱ": 619,
      "৷": 620,
      "ਂ": 621,
      "ਅ": 622,
      "ਇ": 623,
      "ਊ": 624,
      "ਏ": 625,
      "ਕ": 626,
      "ਖ": 627,
      "ਗ": 628,
      "ਜ": 629,
      "ਟ": 630,
      "ਡ": 631,
      "ਣ": 632,
      "ਤ": 633,
      "ਦ": 634,
      "ਨ": 635,
      "ਪ": 636,
      "ਬ": 637,
      "ਮ": 638,
      "ਰ": 639,
      "ਲ": 640,
      "ਸ": 641,
      "਼": 642,
      "ਾ": 643,
      "ਿ": 644,
      "ੀ": 645,
      "ੁ": 646,
      "ੂ": 647,
      "ੇ": 648,
      "ੋ": 649,
      "੍": 650,
      "ੰ": 651,
      "ੱ": 652,
      "ં": 653,
      "ઃ": 654,
      "અ": 655,
      "આ": 656,
      "ઈ": 657,
      "ઉ": 658,
      "એ": 659,
      "ઓ": 660,
      "ક": 661,
      "ખ": 662,
      "ગ": 663,
      "ચ": 664,
      "છ": 665,
      "જ": 666,
      "ઝ": 667,
      "ઞ": 668,
      "ટ": 669,
      "ઠ": 670,
      "ડ": 671,
      "ણ": 672,
      "ત": 673,
      "થ": 674,
      "દ": 675,
      "ધ": 676,
      "ન": 677,
      "પ": 678,
      "ફ": 679,
      "બ": 680,
      "ભ": 681,
      "મ": 682,
      "ય": 683,
      "ર": 684,
      "લ": 685,
      "ળ": 686,
      "વ": 687,
      "શ": 688,
      "ષ": 689,
      "સ": 690,
      "હ": 691,
      "઼": 692,
      "ા": 693,
      "િ": 694,
      "ી": 695,
      "ુ": 696,
      "ૂ": 697,
      "ૃ": 698,
      "ે": 699,
      "ો": 700,
      "્": 701,
      "ૐ": 702,
      "ૠ": 703,
      "૦": 704,
      "૧": 705,
      "૨": 706,
      "૩": 707,
      "૪": 708,
      "૫": 709,
      "૬": 710,
      "૭": 711,
      "૮": 712,
      "૯": 713,
      "ଃ": 714,
      "ଆ": 715,
      "ଓ": 716,
      "କ": 717,
      "ଖ": 718,
      "ଡ": 719,
      "ତ": 720,
      "ପ": 721,
      "ଭ": 722,
      "ର": 723,
      "ଲ": 724,
      "଼": 725,
      "ା": 726,
      "ି": 727,
      "େ": 728,
      "୍": 729,
      "ୟ": 730,
      "அ": 731,
      "ஆ": 732,
      "இ": 733,
      "உ": 734,
      "எ": 735,
      "ஐ": 736,
      "க": 737,
      "ச": 738,
      "ஜ": 739,
      "ட": 740,
      "ண": 741,
      "த": 742,
      "ந": 743,
      "ன": 744,
      "ப": 745,
      "ம": 746,
      "ய": 747,
      "ர": 748,
      "ற": 749,
      "ல": 750,
      "ள": 751,
      "ழ": 752,
      "வ": 753,
      "ஶ": 754,
      "ஷ": 755,
      "ஸ": 756,
      "ஹ": 757,
      "ா": 758,
      "ி": 759,
      "ீ": 760,
      "ு": 761,
      "ூ": 762,
      "ெ": 763,
      "ே": 764,
      "ை": 765,
      "ொ": 766,
      "ோ": 767,
      "்": 768,
      "ం": 769,
      "అ": 770,
      "ఉ": 771,
      "ఎ": 772,
      "ఓ": 773,
      "క": 774,
      "చ": 775,
      "జ": 776,
      "డ": 777,
      "త": 778,
      "ద": 779,
      "ధ": 780,
      "న": 781,
      "ప": 782,
      "ఫ": 783,
      "భ": 784,
      "మ": 785,
      "య": 786,
      "ర": 787,
      "ల": 788,
      "వ": 789,
      "శ": 790,
      "ష": 791,
      "స": 792,
      "హ": 793,
      "ా": 794,
      "ి": 795,
      "ు": 796,
      "ె": 797,
      "ే": 798,
      "ై": 799,
      "ో": 800,
      "్": 801,
      "ಂ": 802,
      "ಃ": 803,
      "ಅ": 804,
      "ಇ": 805,
      "ಉ": 806,
      "ಎ": 807,
      "ಕ": 808,
      "ಗ": 809,
      "ಚ": 810,
      "ಜ": 811,
      "ಟ": 812,
      "ಠ": 813,
      "ಡ": 814,
      "ತ": 815,
      "ದ": 816,
      "ನ": 817,
      "ಪ": 818,
      "ಬ": 819,
      "ಭ": 820,
      "ಮ": 821,
      "ಯ": 822,
      "ರ": 823,
      "ಲ": 824,
      "ಳ": 825,
      "ವ": 826,
      "ಶ": 827,
      "ಸ": 828,
      "ಹ": 829,
      "ಾ": 830,
      "ಿ": 831,
      "ೀ": 832,
      "ು": 833,
      "ೂ": 834,
      "ೃ": 835,
      "ೆ": 836,
      "ೇ": 837,
      "ೊ": 838,
      "ೋ": 839,
      "್": 840,
      "೦": 841,
      "೧": 842,
      "೨": 843,
      "೩": 844,
      "೪": 845,
      "ೲ": 846,
      "ം": 847,
      "അ": 848,
      "ആ": 849,
      "ഇ": 850,
      "ഈ": 851,
      "ഉ": 852,
      "എ": 853,
      "ക": 854,
      "ഖ": 855,
      "ഗ": 856,
      "ങ": 857,
      "ച": 858,
      "ഛ": 859,
      "ജ": 860,
      "ഞ": 861,
      "ട": 862,
      "ഠ": 863,
      "ണ": 864,
      "ത": 865,
      "ഥ": 866,
      "ദ": 867,
      "ധ": 868,
      "ന": 869,
      "പ": 870,
      "ബ": 871,
      "ഭ": 872,
      "മ": 873,
      "യ": 874,
      "ര": 875,
      "റ": 876,
      "ല": 877,
      "ള": 878,
      "ഴ": 879,
      "വ": 880,
      "ശ": 881,
      "ഷ": 882,
      "സ": 883,
      "ഹ": 884,
      "ാ": 885,
      "ി": 886,
      "ീ": 887,
      "ു": 888,
      "ൂ": 889,
      "ൃ": 890,
      "െ": 891,
      "േ": 892,
      "ൈ": 893,
      "ൊ": 894,
      "ോ": 895,
      "്": 896,
      "ൻ": 897,
      "ർ": 898,
      "ൽ": 899,
      "ൾ": 900,
      "ක": 901,
      "ග": 902,
      "ත": 903,
      "ද": 904,
      "න": 905,
      "ප": 906,
      "ම": 907,
      "ය": 908,
      "ල": 909,
      "ව": 910,
      "ශ": 911,
      "ස": 912,
      "්": 913,
      "ා": 914,
      "ි": 915,
      "ො": 916,
      "ค": 917,
      "ง": 918,
      "ด": 919,
      "ต": 920,
      "น": 921,
      "บ": 922,
      "พ": 923,
      "ฟ": 924,
      "ม": 925,
      "ร": 926,
      "ห": 927,
      "อ": 928,
      "ฮ": 929,
      "ั": 930,
      "า": 931,
      "ิ": 932,
      "ี": 933,
      "เ": 934,
      "โ": 935,
      "่": 936,
      "้": 937,
      "་": 938,
      "།": 939,
      "༔": 940,
      "༡": 941,
      "༣": 942,
      "༨": 943,
      "ཁ": 944,
      "ག": 945,
      "ང": 946,
      "ཊ": 947,
      "ཐ": 948,
      "ན": 949,
      "པ": 950,
      "བ": 951,
      "མ": 952,
      "ཚ": 953,
      "ཝ": 954,
      "ཟ": 955,
      "ཡ": 956,
      "ལ": 957,
      "ཥ": 958,
      "ས": 959,
      "ཧ": 960,
      "ཱ": 961,
      "ི": 962,
      "ུ": 963,
      "ྀ": 964,
      "ྒ": 965,
      "ྥ": 966,
      "ྨ": 967,
      "ྭ": 968,
      "ྱ": 969,
      "ྲ": 970,
      "ླ": 971,
      "၊": 972,
      "ა": 973,
      "გ": 974,
      "დ": 975,
      "ე": 976,
      "ვ": 977,
      "ზ": 978,
      "თ": 979,
      "ი": 980,
      "ლ": 981,
      "ნ": 982,
      "რ": 983,
      "ს": 984,
      "უ": 985,
      "ც": 986,
      "ᄉ": 987,
      "ᄌ": 988,
      "ᅩ": 989,
      "ᆬ": 990,
      "ሉ": 991,
      "ሕ": 992,
      "ሩ": 993,
      "በ": 994,
      "ብ": 995,
      "ቮ": 996,
      "እ": 997,
      "ኳ": 998,
      "ዝ": 999,
      "ገ": 1000,
      "ጻ": 1001,
      "ፂ": 1002,
      "ፃ": 1003,
      "፪": 1004,
      "ᒃ": 1005,
      "ᒄ": 1006,
      "ᒎ": 1007,
      "ᓚ": 1008,
      "ᗢ": 1009,
      "ᘏ": 1010,
      "ᚨ": 1011,
      "ᚩ": 1012,
      "ᚻ": 1013,
      "ᚾ": 1014,
      "ᛁ": 1015,
      "ᛋ": 1016,
      "ᛏ": 1017,
      "ᛖ": 1018,
      "ᛗ": 1019,
      "ᛚ": 1020,
      "ᛞ": 1021,
      "᛫": 1022,
      "ᭅ": 1023,
      "᭠": 1024,
      "᭭": 1025,
      "ᮩ": 1026,
      "᮰": 1027,
      "ᱧ": 1028,
      "Ჱ": 1029,
      "᳒": 1030,
      "᳖": 1031,
      "᳘": 1032,
      "᳚": 1033,
      "ᳪ": 1034,
      "ᳬ": 1035,
      "᳭": 1036,
      "ᳲ": 1037,
      "ᴀ": 1038,
      "ᴇ": 1039,
      "ḍ": 1040,
      "ḏ": 1041,
      "ḥ": 1042,
      "Ḩ": 1043,
      "ṁ": 1044,
      "ṃ": 1045,
      "ṅ": 1046,
      "ṇ": 1047,
      "Ṛ": 1048,
      "ṛ": 1049,
      "ṝ": 1050,
      "ṣ": 1051,
      "ṭ": 1052,
      "ắ": 1053,
      "ế": 1054,
      "ệ": 1055,
      "Ủ": 1056,
      "Ἀ": 1057,
      "ὁ": 1058,
      "ὕ": 1059,
      "ὸ": 1060,
      "ῖ": 1061,
      "‐": 1062,
      "‒": 1063,
      "―": 1064,
      "‖": 1065,
      "†": 1066,
      "‡": 1067,
      "•": 1068,
      " ": 1069,
      "‰": 1070,
      "′": 1071,
      "‹": 1072,
      "›": 1073,
      "※": 1074,
      "⁄": 1075,
      "₩": 1076,
      "€": 1077,
      "₹": 1078,
      "⃣": 1079,
      "←": 1080,
      "↑": 1081,
      "→": 1082,
      "↓": 1083,
      "↔": 1084,
      "↕": 1085,
      "↗": 1086,
      "↩": 1087,
      "↲": 1088,
      "⇄": 1089,
      "⇏": 1090,
      "⇒": 1091,
      "⇔": 1092,
      "∅": 1093,
      "∆": 1094,
      "∈": 1095,
      "−": 1096,
      "∕": 1097,
      "∖": 1098,
      "∙": 1099,
      "√": 1100,
      "∝": 1101,
      "∠": 1102,
      "∩": 1103,
      "∫": 1104,
      "∴": 1105,
      "∵": 1106,
      "≈": 1107,
      "≍": 1108,
      "≠": 1109,
      "≡": 1110,
      "≤": 1111,
      "≥": 1112,
      "≦": 1113,
      "⊂": 1114,
      "⊃": 1115,
      "⊕": 1116,
      "⋆": 1117,
      "⋙": 1118,
      "⏳": 1119,
      "▀": 1120,
      "▁": 1121,
      "■": 1122,
      "□": 1123,
      "▪": 1124,
      "▲": 1125,
      "△": 1126,
      "▶": 1127,
      "▷": 1128,
      "►": 1129,
      "▼": 1130,
      "◄": 1131,
      "◆": 1132,
      "◇": 1133,
      "◉": 1134,
      "◊": 1135,
      "◌": 1136,
      "◎": 1137,
      "●": 1138,
      "◦": 1139,
      "☀": 1140,
      "☁": 1141,
      "★": 1142,
      "☆": 1143,
      "☑": 1144,
      "☘": 1145,
      "☝": 1146,
      "☰": 1147,
      "☸": 1148,
      "☹": 1149,
      "☺": 1150,
      "♀": 1151,
      "♂": 1152,
      "♈": 1153,
      "♉": 1154,
      "♡": 1155,
      "♣": 1156,
      "♥": 1157,
      "♦": 1158,
      "♫": 1159,
      "♻": 1160,
      "⚏": 1161,
      "⚕": 1162,
      "⚡": 1163,
      "⚪": 1164,
      "⚫": 1165,
      "⛅": 1166,
      "⛈": 1167,
      "⛳": 1168,
      "⛹": 1169,
      "✅": 1170,
      "✌": 1171,
      "✍": 1172,
      "✒": 1173,
      "✓": 1174,
      "✔": 1175,
      "✖": 1176,
      "✥": 1177,
      "✦": 1178,
      "✧": 1179,
      "✨": 1180,
      "✪": 1181,
      "✳": 1182,
      "✴": 1183,
      "✹": 1184,
      "✺": 1185,
      "✼": 1186,
      "✿": 1187,
      "❁": 1188,
      "❇": 1189,
      "❌": 1190,
      "❍": 1191,
      "❑": 1192,
      "❗": 1193,
      "❣": 1194,
      "❤": 1195,
      "❯": 1196,
      "➖": 1197,
      "➛": 1198,
      "➜": 1199,
      "➞": 1200,
      "➡": 1201,
      "➢": 1202,
      "➤": 1203,
      "➥": 1204,
      "➦": 1205,
      "➧": 1206,
      "➨": 1207,
      "⟶": 1208,
      "⟷": 1209,
      "⠀": 1210,
      "⦁": 1211,
      "⭐": 1212,
      "⭕": 1213,
      "、": 1214,
      "。": 1215,
      "〈": 1216,
      "《": 1217,
      "》": 1218,
      "「": 1219,
      "」": 1220,
      "【": 1221,
      "】": 1222,
      "あ": 1223,
      "い": 1224,
      "う": 1225,
      "お": 1226,
      "か": 1227,
      "が": 1228,
      "き": 1229,
      "く": 1230,
      "け": 1231,
      "げ": 1232,
      "ご": 1233,
      "さ": 1234,
      "ざ": 1235,
      "し": 1236,
      "す": 1237,
      "た": 1238,
      "だ": 1239,
      "ち": 1240,
      "っ": 1241,
      "つ": 1242,
      "て": 1243,
      "で": 1244,
      "と": 1245,
      "ど": 1246,
      "な": 1247,
      "に": 1248,
      "の": 1249,
      "は": 1250,
      "ひ": 1251,
      "ま": 1252,
      "み": 1253,
      "む": 1254,
      "め": 1255,
      "も": 1256,
      "ゃ": 1257,
      "や": 1258,
      "よ": 1259,
      "ら": 1260,
      "る": 1261,
      "れ": 1262,
      "を": 1263,
      "ん": 1264,
      "ア": 1265,
      "ィ": 1266,
      "イ": 1267,
      "エ": 1268,
      "オ": 1269,
      "ク": 1270,
      "グ": 1271,
      "コ": 1272,
      "シ": 1273,
      "ジ": 1274,
      "ス": 1275,
      "ズ": 1276,
      "セ": 1277,
      "ゼ": 1278,
      "ソ": 1279,
      "タ": 1280,
      "チ": 1281,
      "ッ": 1282,
      "ツ": 1283,
      "テ": 1284,
      "デ": 1285,
      "ト": 1286,
      "ナ": 1287,
      "ネ": 1288,
      "ノ": 1289,
      "バ": 1290,
      "パ": 1291,
      "ヒ": 1292,
      "ピ": 1293,
      "プ": 1294,
      "ボ": 1295,
      "ポ": 1296,
      "マ": 1297,
      "ャ": 1298,
      "ョ": 1299,
      "ラ": 1300,
      "リ": 1301,
      "ル": 1302,
      "ロ": 1303,
      "ン": 1304,
      "・": 1305,
      "ー": 1306,
      "一": 1307,
      "七": 1308,
      "三": 1309,
      "上": 1310,
      "不": 1311,
      "与": 1312,
      "世": 1313,
      "中": 1314,
      "为": 1315,
      "义": 1316,
      "习": 1317,
      "乱": 1318,
      "了": 1319,
      "事": 1320,
      "二": 1321,
      "于": 1322,
      "互": 1323,
      "五": 1324,
      "亦": 1325,
      "京": 1326,
      "亲": 1327,
      "人": 1328,
      "介": 1329,
      "从": 1330,
      "仕": 1331,
      "代": 1332,
      "份": 1333,
      "休": 1334,
      "伟": 1335,
      "位": 1336,
      "何": 1337,
      "余": 1338,
      "作": 1339,
      "你": 1340,
      "使": 1341,
      "依": 1342,
      "修": 1343,
      "個": 1344,
      "倒": 1345,
      "健": 1346,
      "僕": 1347,
      "元": 1348,
      "入": 1349,
      "全": 1350,
      "八": 1351,
      "六": 1352,
      "其": 1353,
      "具": 1354,
      "円": 1355,
      "册": 1356,
      "决": 1357,
      "出": 1358,
      "切": 1359,
      "划": 1360,
      "列": 1361,
      "利": 1362,
      "别": 1363,
      "到": 1364,
      "副": 1365,
      "加": 1366,
      "助": 1367,
      "化": 1368,
      "北": 1369,
      "十": 1370,
      "卍": 1371,
      "卐": 1372,
      "南": 1373,
      "印": 1374,
      "叉": 1375,
      "反": 1376,
      "发": 1377,
      "口": 1378,
      "句": 1379,
      "可": 1380,
      "各": 1381,
      "合": 1382,
      "同": 1383,
      "名": 1384,
      "后": 1385,
      "吗": 1386,
      "吥": 1387,
      "吸": 1388,
      "告": 1389,
      "员": 1390,
      "和": 1391,
      "咒": 1392,
      "哉": 1393,
      "哥": 1394,
      "哲": 1395,
      "哷": 1396,
      "唯": 1397,
      "喝": 1398,
      "嘅": 1399,
      "器": 1400,
      "四": 1401,
      "因": 1402,
      "図": 1403,
      "固": 1404,
      "国": 1405,
      "國": 1406,
      "地": 1407,
      "域": 1408,
      "堂": 1409,
      "報": 1410,
      "境": 1411,
      "增": 1412,
      "声": 1413,
      "处": 1414,
      "复": 1415,
      "外": 1416,
      "多": 1417,
      "夜": 1418,
      "夢": 1419,
      "大": 1420,
      "天": 1421,
      "奖": 1422,
      "奪": 1423,
      "好": 1424,
      "如": 1425,
      "威": 1426,
      "婆": 1427,
      "孕": 1428,
      "字": 1429,
      "存": 1430,
      "学": 1431,
      "安": 1432,
      "官": 1433,
      "定": 1434,
      "宦": 1435,
      "寝": 1436,
      "尊": 1437,
      "小": 1438,
      "少": 1439,
      "尔": 1440,
      "尼": 1441,
      "属": 1442,
      "岂": 1443,
      "工": 1444,
      "师": 1445,
      "席": 1446,
      "常": 1447,
      "年": 1448,
      "广": 1449,
      "应": 1450,
      "废": 1451,
      "度": 1452,
      "康": 1453,
      "廬": 1454,
      "异": 1455,
      "引": 1456,
      "弥": 1457,
      "当": 1458,
      "影": 1459,
      "彼": 1460,
      "得": 1461,
      "徹": 1462,
      "忘": 1463,
      "念": 1464,
      "性": 1465,
      "惑": 1466,
      "意": 1467,
      "愛": 1468,
      "感": 1469,
      "憶": 1470,
      "成": 1471,
      "我": 1472,
      "戻": 1473,
      "所": 1474,
      "执": 1475,
      "投": 1476,
      "摩": 1477,
      "收": 1478,
      "改": 1479,
      "政": 1480,
      "故": 1481,
      "效": 1482,
      "整": 1483,
      "文": 1484,
      "新": 1485,
      "方": 1486,
      "无": 1487,
      "日": 1488,
      "时": 1489,
      "星": 1490,
      "是": 1491,
      "显": 1492,
      "普": 1493,
      "晴": 1494,
      "更": 1495,
      "書": 1496,
      "最": 1497,
      "月": 1498,
      "有": 1499,
      "朝": 1500,
      "期": 1501,
      "杂": 1502,
      "東": 1503,
      "果": 1504,
      "某": 1505,
      "染": 1506,
      "查": 1507,
      "栄": 1508,
      "格": 1509,
      "械": 1510,
      "梵": 1511,
      "检": 1512,
      "模": 1513,
      "権": 1514,
      "機": 1515,
      "款": 1516,
      "止": 1517,
      "此": 1518,
      "母": 1519,
      "比": 1520,
      "民": 1521,
      "氣": 1522,
      "永": 1523,
      "求": 1524,
      "汇": 1525,
      "没": 1526,
      "泊": 1527,
      "流": 1528,
      "消": 1529,
      "添": 1530,
      "灭": 1531,
      "然": 1532,
      "熟": 1533,
      "父": 1534,
      "牙": 1535,
      "猫": 1536,
      "现": 1537,
      "班": 1538,
      "球": 1539,
      "理": 1540,
      "生": 1541,
      "用": 1542,
      "由": 1543,
      "疆": 1544,
      "痛": 1545,
      "発": 1546,
      "發": 1547,
      "白": 1548,
      "的": 1549,
      "益": 1550,
      "直": 1551,
      "相": 1552,
      "知": 1553,
      "研": 1554,
      "破": 1555,
      "祖": 1556,
      "离": 1557,
      "秘": 1558,
      "程": 1559,
      "稱": 1560,
      "究": 1561,
      "立": 1562,
      "章": 1563,
      "第": 1564,
      "答": 1565,
      "简": 1566,
      "类": 1567,
      "紅": 1568,
      "素": 1569,
      "終": 1570,
      "続": 1571,
      "網": 1572,
      "繁": 1573,
      "维": 1574,
      "者": 1575,
      "而": 1576,
      "肉": 1577,
      "能": 1578,
      "自": 1579,
      "花": 1580,
      "若": 1581,
      "英": 1582,
      "茶": 1583,
      "葬": 1584,
      "薩": 1585,
      "處": 1586,
      "蛟": 1587,
      "蝶": 1588,
      "衆": 1589,
      "行": 1590,
      "表": 1591,
      "西": 1592,
      "见": 1593,
      "观": 1594,
      "视": 1595,
      "觉": 1596,
      "解": 1597,
      "言": 1598,
      "記": 1599,
      "訳": 1600,
      "試": 1601,
      "語": 1602,
      "論": 1603,
      "讓": 1604,
      "计": 1605,
      "讨": 1606,
      "许": 1607,
      "论": 1608,
      "话": 1609,
      "语": 1610,
      "说": 1611,
      "诸": 1612,
      "贪": 1613,
      "越": 1614,
      "足": 1615,
      "身": 1616,
      "車": 1617,
      "转": 1618,
      "辦": 1619,
      "达": 1620,
      "过": 1621,
      "运": 1622,
      "返": 1623,
      "追": 1624,
      "通": 1625,
      "逝": 1626,
      "進": 1627,
      "遣": 1628,
      "那": 1629,
      "都": 1630,
      "释": 1631,
      "量": 1632,
      "金": 1633,
      "鉄": 1634,
      "错": 1635,
      "长": 1636,
      "間": 1637,
      "间": 1638,
      "闻": 1639,
      "阿": 1640,
      "除": 1641,
      "陸": 1642,
      "障": 1643,
      "雨": 1644,
      "電": 1645,
      "靈": 1646,
      "非": 1647,
      "面": 1648,
      "韩": 1649,
      "音": 1650,
      "響": 1651,
      "願": 1652,
      "页": 1653,
      "须": 1654,
      "颂": 1655,
      "飞": 1656,
      "飲": 1657,
      "首": 1658,
      "龙": 1659,
      "꣡": 1660,
      "꣢": 1661,
      "꣣": 1662,
      "꣫": 1663,
      "꣯": 1664,
      "ꣲ": 1665,
      "ꣳ": 1666,
      "가": 1667,
      "간": 1668,
      "감": 1669,
      "개": 1670,
      "게": 1671,
      "고": 1672,
      "공": 1673,
      "과": 1674,
      "교": 1675,
      "국": 1676,
      "금": 1677,
      "급": 1678,
      "기": 1679,
      "깨": 1680,
      "나": 1681,
      "낱": 1682,
      "냐": 1683,
      "녹": 1684,
      "는": 1685,
      "니": 1686,
      "다": 1687,
      "달": 1688,
      "대": 1689,
      "더": 1690,
      "동": 1691,
      "두": 1692,
      "듬": 1693,
      "따": 1694,
      "뜨": 1695,
      "라": 1696,
      "락": 1697,
      "레": 1698,
      "력": 1699,
      "로": 1700,
      "름": 1701,
      "리": 1702,
      "만": 1703,
      "말": 1704,
      "망": 1705,
      "맵": 1706,
      "몸": 1707,
      "못": 1708,
      "뭐": 1709,
      "민": 1710,
      "받": 1711,
      "발": 1712,
      "백": 1713,
      "번": 1714,
      "법": 1715,
      "봇": 1716,
      "브": 1717,
      "비": 1718,
      "사": 1719,
      "산": 1720,
      "상": 1721,
      "서": 1722,
      "성": 1723,
      "세": 1724,
      "수": 1725,
      "술": 1726,
      "쉬": 1727,
      "슈": 1728,
      "스": 1729,
      "승": 1730,
      "시": 1731,
      "신": 1732,
      "아": 1733,
      "어": 1734,
      "없": 1735,
      "에": 1736,
      "염": 1737,
      "영": 1738,
      "예": 1739,
      "완": 1740,
      "외": 1741,
      "요": 1742,
      "우": 1743,
      "운": 1744,
      "월": 1745,
      "위": 1746,
      "을": 1747,
      "음": 1748,
      "의": 1749,
      "이": 1750,
      "인": 1751,
      "임": 1752,
      "입": 1753,
      "있": 1754,
      "자": 1755,
      "적": 1756,
      "전": 1757,
      "절": 1758,
      "정": 1759,
      "조": 1760,
      "좀": 1761,
      "주": 1762,
      "중": 1763,
      "증": 1764,
      "지": 1765,
      "째": 1766,
      "청": 1767,
      "크": 1768,
      "키": 1769,
      "탄": 1770,
      "탑": 1771,
      "터": 1772,
      "트": 1773,
      "특": 1774,
      "팅": 1775,
      "파": 1776,
      "하": 1777,
      "학": 1778,
      "한": 1779,
      "함": 1780,
      "합": 1781,
      "허": 1782,
      "효": 1783,
      "히": 1784,
      "힌": 1785,
      "힘": 1786,
      "︎": 1787,
      "️": 1788,
      "�": 1789,
      "𑆤": 1790,
      "𑌏": 1791,
      "𑌥": 1792,
      "𑌫": 1793,
      "𑌮": 1794,
      "𑌸": 1795,
      "𑐎": 1796,
      "𑐕": 1797,
      "𑐫": 1798,
      "𑐮": 1799,
      "𑐰": 1800,
      "𑐴": 1801,
      "𑐵": 1802,
      "𑑀": 1803,
      "𑑂": 1804,
      "𑑄": 1805,
      "𑑅": 1806,
      "🅰": 1807,
      "🇦": 1808,
      "🇮": 1809,
      "🇱": 1810,
      "🇳": 1811,
      "🇵": 1812,
      "🇸": 1813,
      "🇹": 1814,
      "🇺": 1815,
      "🌀": 1816,
      "🌃": 1817,
      "🌄": 1818,
      "🌅": 1819,
      "🌈": 1820,
      "🌉": 1821,
      "🌍": 1822,
      "🌎": 1823,
      "🌏": 1824,
      "🌖": 1825,
      "🌙": 1826,
      "🌛": 1827,
      "🌝": 1828,
      "🌞": 1829,
      "🌟": 1830,
      "🌠": 1831,
      "🌰": 1832,
      "🌱": 1833,
      "🌴": 1834,
      "🌷": 1835,
      "🌸": 1836,
      "🌹": 1837,
      "🌺": 1838,
      "🌻": 1839,
      "🌼": 1840,
      "🌿": 1841,
      "🍀": 1842,
      "🍁": 1843,
      "🍃": 1844,
      "🍋": 1845,
      "🍥": 1846,
      "🍾": 1847,
      "🎂": 1848,
      "🎃": 1849,
      "🎉": 1850,
      "🎊": 1851,
      "🎋": 1852,
      "🎎": 1853,
      "🎓": 1854,
      "🎖": 1855,
      "🎤": 1856,
      "🎯": 1857,
      "🎵": 1858,
      "🎶": 1859,
      "🎼": 1860,
      "🏀": 1861,
      "🏃": 1862,
      "🏏": 1863,
      "🏠": 1864,
      "🏮": 1865,
      "🏷": 1866,
      "🏹": 1867,
      "🏻": 1868,
      "🏽": 1869,
      "🐕": 1870,
      "🐙": 1871,
      "🐯": 1872,
      "👆": 1873,
      "👇": 1874,
      "👈": 1875,
      "👉": 1876,
      "👌": 1877,
      "👍": 1878,
      "👏": 1879,
      "👞": 1880,
      "👣": 1881,
      "👦": 1882,
      "👧": 1883,
      "👨": 1884,
      "👩": 1885,
      "👫": 1886,
      "👱": 1887,
      "👴": 1888,
      "💄": 1889,
      "💏": 1890,
      "💐": 1891,
      "💑": 1892,
      "💓": 1893,
      "💔": 1894,
      "💕": 1895,
      "💖": 1896,
      "💗": 1897,
      "💘": 1898,
      "💚": 1899,
      "💛": 1900,
      "💝": 1901,
      "💠": 1902,
      "💥": 1903,
      "💦": 1904,
      "💧": 1905,
      "💫": 1906,
      "💮": 1907,
      "💰": 1908,
      "💱": 1909,
      "💵": 1910,
      "📂": 1911,
      "📌": 1912,
      "📎": 1913,
      "📏": 1914,
      "📕": 1915,
      "📖": 1916,
      "📚": 1917,
      "📝": 1918,
      "📢": 1919,
      "📣": 1920,
      "📰": 1921,
      "📱": 1922,
      "📳": 1923,
      "📸": 1924,
      "📺": 1925,
      "🔅": 1926,
      "🔊": 1927,
      "🔍": 1928,
      "🔐": 1929,
      "🔔": 1930,
      "🔗": 1931,
      "🔟": 1932,
      "🔥": 1933,
      "🔰": 1934,
      "🔱": 1935,
      "🔶": 1936,
      "🔷": 1937,
      "🔸": 1938,
      "🔹": 1939,
      "🔺": 1940,
      "🔻": 1941,
      "🕉": 1942,
      "🕔": 1943,
      "🖊": 1944,
      "🖱": 1945,
      "🗃": 1946,
      "🗒": 1947,
      "🗣": 1948,
      "🗳": 1949,
      "😀": 1950,
      "😂": 1951,
      "😃": 1952,
      "😄": 1953,
      "😅": 1954,
      "😇": 1955,
      "😉": 1956,
      "😊": 1957,
      "😌": 1958,
      "😍": 1959,
      "😎": 1960,
      "😒": 1961,
      "😔": 1962,
      "😘": 1963,
      "😜": 1964,
      "😝": 1965,
      "😞": 1966,
      "😡": 1967,
      "😢": 1968,
      "😩": 1969,
      "😳": 1970,
      "🙁": 1971,
      "🙂": 1972,
      "🙅": 1973,
      "🙆": 1974,
      "🙌": 1975,
      "🙍": 1976,
      "🙎": 1977,
      "🙏": 1978,
      "🚑": 1979,
      "🚩": 1980,
      "🚷": 1981,
      "🛑": 1982,
      "🛡": 1983,
      "🤔": 1984,
      "🤗": 1985,
      "🤝": 1986,
      "🤦": 1987,
      "🤩": 1988,
      "🤪": 1989,
      "🤲": 1990,
      "🥀": 1991,
      "🥂": 1992,
      "🥇": 1993,
      "🥰": 1994,
      "🦂": 1995,
      "🧐": 1996,
      "🧜": 1997,
      "🩸": 1998,
      "🪔": 1999,
      "्य": 2000,
      "्र": 2001,
      "।\n": 2002,
      "्त": 2003,
      "ं ": 2004,
      "ि ": 2005,
      "्व": 2006,
      "े ": 2007,
      "ः ": 2008,
      "ा ": 2009,
      "् ": 2010,
      "ान": 2011,
      "र्": 2012,
      "प्र": 2013,
      "ित": 2014,
      " स": 2015,
      "वि": 2016,
      "ार": 2017,
      "ात": 2018,
      "न ": 2019,
      "ां": 2020,
      "स्य": 2021,
      "ति ": 2022,
      "क्": 2023,
      "ाम": 2024,
      "ो ": 2025,
      "क्ष": 2026,
      "स्": 2027,
      "ाय": 2028,
      "म् ": 2029,
      "स्त": 2030,
      "ाद": 2031,
      " क": 2032,
      "॥\n": 2033,
      " त": 2034,
      " प": 2035,
      "ष्": 2036,
      "न्त": 2037,
      "ाः": 2038,
      "नि": 2039,
      "न्": 2040,
      "र्व": 2041,
      " अ": 2042,
      "त्य": 2043,
      "त्र": 2044,
      "ते ": 2045,
      "ाप": 2046,
      " ।\n": 2047,
      " व": 2048,
      " म": 2049,
      "क्त": 2050,
      "ेव": 2051,
      " प्र": 2052,
      "िक": 2053,
      "ाव": 2054,
      "ृत": 2055,
      "पर": 2056,
      "भव": 2057,
      " इ": 2058,
      "द्": 2059,
      "्च": 2060,
      " द": 2061,
      "ास": 2062,
      " य": 2063,
      "ः ।\n": 2064,
      "ाल": 2065,
      "ष्ट": 2066,
      "ेष": 2067,
      "त्": 2068,
      "ति": 2069,
      "सम": 2070,
      "त्व": 2071,
      "ेन ": 2072,
      "र्थ": 2073,
      "ेत": 2074,
      "रा": 2075,
      "व्य": 2076,
      "िः": 2077,
      "सं": 2078,
      "ज्": 2079,
      " न": 2080,
      "पु": 2081,
      "एव": 2082,
      "पि ": 2083,
      " वि": 2084,
      "द्ध": 2085,
      " श": 2086,
      " -": 2087,
      "िं": 2088,
      "ाण": 2089,
      "िन": 2090,
      "कर": 2091,
      " च": 2092,
      "ाह": 2093,
      "स्म": 2094,
      "ेश": 2095,
      "द्य": 2096,
      "स्व": 2097,
      "त्त": 2098,
      "कार": 2099,
      "र्म": 2100,
      "ज्ञ": 2101,
      "स्थ": 2102,
      "तः ": 2103,
      "न्य": 2104,
      "ीय": 2105,
      "्म": 2106,
      "ाग": 2107,
      "िय": 2108,
      "श्च": 2109,
      "ि।\n": 2110,
      "ङ्": 2111,
      "ध्य": 2112,
      "तु": 2113,
      "त् ": 2114,
      " भ": 2115,
      "यो": 2116,
      "म्": 2117,
      "गु": 2118,
      "नु": 2119,
      "म् ।\n": 2120,
      "्।\n": 2121,
      "रु": 2122,
      "या ": 2123,
      "द्व": 2124,
      " ज": 2125,
      "सर्व": 2126,
      "र्त": 2127,
      "मु": 2128,
      "क्र": 2129,
      "कृत": 2130,
      "था ": 2131,
      "द्र": 2132,
      "नं ": 2133,
      "यं ": 2134,
      "हि ": 2135,
      "मान": 2136,
      "ेद": 2137,
      "ाच": 2138,
      " आ": 2139,
      "ेन": 2140,
      "ति ।\n": 2141,
      "ष्य": 2142,
      "िव": 2143,
      "?\n": 2144,
      "ात् ": 2145,
      ". ": 2146,
      "ुः": 2147,
      "ाश": 2148,
      "पू": 2149,
      "ाध": 2150,
      "्छ": 2151,
      "ेण": 2152,
      "ानि ": 2153,
      "्यं ": 2154,
      "र्ष": 2155,
      "सु": 2156,
      "ाभ": 2157,
      "ार्थ": 2158,
      " उ": 2159,
      "ः\n": 2160,
      "ाक": 2161,
      "िर": 2162,
      "ष्ठ": 2163,
      ".\n": 2164,
      "ग्र": 2165,
      "्न": 2166,
      " पर": 2167,
      "ः।\n": 2168,
      " (": 2169,
      " सं": 2170,
      "जन": 2171,
      "ैव": 2172,
      "ूप": 2173,
      "यु": 2174,
      "ते ।\n": 2175,
      "च्छ": 2176,
      "ीत": 2177,
      " ॥\n": 2178,
      "ुं": 2179,
      "श्य": 2180,
      "ि ।\n": 2181,
      "ोऽ": 2182,
      "देव": 2183,
      "श्व": 2184,
      "र्ण": 2185,
      "कु": 2186,
      "रण": 2187,
      "ल्": 2188,
      "श्र": 2189,
      " ह": 2190,
      "लो": 2191,
      "एक": 2192,
      "ान्त": 2193,
      "देश": 2194,
      " एव": 2195,
      "ान् ": 2196,
      "े।\n": 2197,
      "िम": 2198,
      "ं व": 2199,
      "ब्": 2200,
      " ग": 2201,
      "ं त": 2202,
      "ं प्र": 2203,
      " इति ": 2204,
      " र": 2205,
      "दृ": 2206,
      "भू": 2207,
      "दा ": 2208,
      " नि": 2209,
      "ात्र": 2210,
      " न ": 2211,
      "राज": 2212,
      "ं च": 2213,
      " ब": 2214,
      "ये ": 2215,
      "भाव": 2216,
      "ेषु": 2217,
      " पु": 2218,
      "क्षण": 2219,
      " सम": 2220,
      "र्य": 2221,
      "ास्त": 2222,
      "ः स": 2223,
      "मह": 2224,
      "ख्य": 2225,
      " इत्य": 2226,
      " सर्व": 2227,
      "ङ्ग": 2228,
      "ाष": 2229,
      "न्न": 2230,
      " स्व": 2231,
      "ती": 2232,
      "ैः": 2233,
      "ृह": 2234,
      "र्ग": 2235,
      "न्द": 2236,
      "म् अ": 2237,
      "इति ": 2238,
      "मित": 2239,
      "ाम् ": 2240,
      "एत": 2241,
      " \"": 2242,
      "यः ": 2243,
      "िण": 2244,
      "योग": 2245,
      " ध": 2246,
      "वा ": 2247,
      "भ्य": 2248,
      "न्ध": 2249,
      "रो": 2250,
      "भि": 2251,
      "पद": 2252,
      "्वा ": 2253,
      "रूप": 2254,
      "ना ": 2255,
      "_\n": 2256,
      "विध": 2257,
      "दु": 2258,
      "े ।\n": 2259,
      "ापि ": 2260,
      "तो ": 2261,
      "स्तु": 2262,
      "ः प्र": 2263,
      "यम": 2264,
      "यद": 2265,
      "काल": 2266,
      "ः अ": 2267,
      "पुन": 2268,
      "लोक": 2269,
      "मन": 2270,
      "ात्म": 2271,
      "ता ": 2272,
      "ः ॥\n": 2273,
      "ज्ञान": 2274,
      "ाप्त": 2275,
      "-\n": 2276,
      "चित": 2277,
      "तस्य": 2278,
      "लि": 2279,
      "लं ": 2280,
      "्ड": 2281,
      "ब्द": 2282,
      "ः क": 2283,
      "ेक": 2284,
      "ञ्च": 2285,
      "ीन": 2286,
      "शेष": 2287,
      "मे ": 2288,
      "ीव": 2289,
      "ं क": 2290,
      "ोः": 2291,
      "ं स": 2292,
      " - ": 2293,
      "धिक": 2294,
      "पूर्व": 2295,
      "्यत": 2296,
      "ीं": 2297,
      "म् ॥\n": 2298,
      "न्ति ": 2299,
      "भाष": 2300,
      "िद": 2301,
      "ेत् ": 2302,
      "ल्प": 2303,
      "ा\n": 2304,
      "प्त": 2305,
      "प्रति": 2306,
      "र्श": 2307,
      "कृ": 2308,
      "ेऽ": 2309,
      "शि": 2310,
      "ा।\n": 2311,
      "तम": 2312,
      "रे ": 2313,
      "पृ": 2314,
      "सम्": 2315,
      "!\n": 2316,
      "न्त्र": 2317,
      "गुण": 2318,
      "ित्य": 2319,
      "ं य": 2320,
      " ल": 2321,
      "री": 2322,
      "ोप": 2323,
      "मम": 2324,
      "--": 2325,
      "भाग": 2326,
      "न् ": 2327,
      "ि,": 2328,
      "ज्य": 2329,
      "ृत्त": 2330,
      "वर्त": 2331,
      "इत्य": 2332,
      "तद": 2333,
      "नाम": 2334,
      "सू": 2335,
      " सु": 2336,
      "हित": 2337,
      "गृह": 2338,
      "यत": 2339,
      "शु": 2340,
      "े\n": 2341,
      "रि": 2342,
      "दि": 2343,
      "करण": 2344,
      "कथ": 2345,
      " भव": 2346,
      "पाद": 2347,
      " स्": 2348,
      "मेव": 2349,
      "ं वि": 2350,
      "न्द्र": 2351,
      "कर्त": 2352,
      "ार्": 2353,
      "ान्य": 2354,
      "ा अ": 2355,
      "ः,": 2356,
      "ोष": 2357,
      "सि": 2358,
      "ा ।\n": 2359,
      "सी": 2360,
      "स्थित": 2361,
      "वर्ष": 2362,
      "ने ": 2363,
      "गत": 2364,
      ")\n": 2365,
      "उप": 2366,
      "त् ।\n": 2367,
      "ार्य": 2368,
      "ानु": 2369,
      "ं म": 2370,
      "िल": 2371,
      "विद्य": 2372,
      "ेय": 2373,
      "्,": 2374,
      "ण्ड": 2375,
      "कर्म": 2376,
      "ेह": 2377,
      "हु": 2378,
      "े च": 2379,
      "ामि ": 2380,
      "परि": 2381,
      "धान": 2382,
      "सा ": 2383,
      "ारण": 2384,
      "ाज": 2385,
      " _": 2386,
      "थम": 2387,
      "नम": 2388,
      "युक्त": 2389,
      "अथ": 2390,
      "वै": 2391,
      "ग्रह": 2392,
      "शब्द": 2393,
      "म्ब": 2394,
      "रुष": 2395,
      "ेः": 2396,
      "धर्म": 2397,
      "विष": 2398,
      "स्थान": 2399,
      "..": 2400,
      "सह": 2401,
      "ाणि ": 2402,
      "यदि ": 2403,
      "प्रत्य": 2404,
      "ं न": 2405,
      " ख": 2406,
      "यथ": 2407,
      "भवत": 2408,
      " तु": 2409,
      "ात्": 2410,
      "फल": 2411,
      "ा,": 2412,
      ". . ": 2413,
      "स्त्र": 2414,
      "ादि": 2415,
      "ूल": 2416,
      "ुक्त": 2417,
      "कार्य": 2418,
      "च्च": 2419,
      "ब्र": 2420,
      "दान": 2421,
      "ाऽ": 2422,
      "ेति ": 2423,
      "त्स": 2424,
      "यो ": 2425,
      "तं ": 2426,
      "दृष्ट": 2427,
      "र्ध": 2428,
      " पू": 2429,
      "े अ": 2430,
      "वृ": 2431,
      "तत्र": 2432,
      "िप": 2433,
      "क्रिय": 2434,
      "पित": 2435,
      "े,": 2436,
      "हं ": 2437,
      "भार": 2438,
      "न्म": 2439,
      "वृत्त": 2440,
      "वाद": 2441,
      "सि ": 2442,
      " व्य": 2443,
      "यथा ": 2444,
      "रं ": 2445,
      "ोग": 2446,
      "वेद": 2447,
      "ान्": 2448,
      "िष्य": 2449,
      "ीप": 2450,
      "विष्य": 2451,
      "च्य": 2452,
      "क्रम": 2453,
      "जात": 2454,
      "ग्": 2455,
      " मह": 2456,
      "अन": 2457,
      " प्रति": 2458,
      " सह": 2459,
      "क्ष्य": 2460,
      "ुद्ध": 2461,
      "न्तु": 2462,
      "ुत": 2463,
      "कः ": 2464,
      "ोक्त": 2465,
      " ए": 2466,
      "ि\n": 2467,
      "दर्श": 2468,
      "स्र": 2469,
      "ोद": 2470,
      "बन्ध": 2471,
      "ेर": 2472,
      "ोम": 2473,
      "िति ": 2474,
      "जीव": 2475,
      "गव": 2476,
      "ङ्क": 2477,
      " द्व": 2478,
      "क्षे": 2479,
      " स्थ": 2480,
      "ीर": 2481,
      "े स": 2482,
      "चन": 2483,
      "काश": 2484,
      "्या ": 2485,
      "ष्ण": 2486,
      "ीड": 2487,
      "२०": 2488,
      "ष्ट्र": 2489,
      " एक": 2490,
      "ः प": 2491,
      " कु": 2492,
      "अन्य": 2493,
      "त्त्व": 2494,
      "ं न ": 2495,
      "जान": 2496,
      "तथा ": 2497,
      "िन् ": 2498,
      "ोध": 2499,
      "20": 2500,
      "भूत": 2501,
      " '": 2502,
      "ह्य": 2503,
      "र्ज": 2504,
      "कल्प": 2505,
      "त्तर": 2506,
      "दश": 2507,
      "पुत्र": 2508,
      "ं प": 2509,
      "े प्र": 2510,
      "ाक्ष": 2511,
      "तव": 2512,
      "चार": 2513,
      "्ल": 2514,
      "यित": 2515,
      " उप": 2516,
      "तः ।\n": 2517,
      "सिद्ध": 2518,
      "माण": 2519,
      "ञ्": 2520,
      "कल": 2521,
      "ुव": 2522,
      "द्वि": 2523,
      "ोत": 2524,
      "शी": 2525,
      "विशेष": 2526,
      "भेद": 2527,
      "ं\n": 2528,
      " त्व": 2529,
      "दिन": 2530,
      " क्र": 2531,
      "त्वा ": 2532,
      " देव": 2533,
      "को": 2534,
      "ाप्य": 2535,
      " स्त": 2536,
      "स्ति ": 2537,
      "स्मिन् ": 2538,
      "गम": 2539,
      "कं ": 2540,
      "ुर": 2541,
      "सार": 2542,
      "ृत्य": 2543,
      "अनु": 2544,
      "कि": 2545,
      "ते ॥\n": 2546,
      "साम": 2547,
      "ात् ।\n": 2548,
      "ाध्य": 2549,
      " पुन": 2550,
      "विश्व": 2551,
      "हार": 2552,
      "हर": 2553,
      "बल": 2554,
      "प्य": 2555,
      " श्र": 2556,
      "यस्य": 2557,
      "तथ": 2558,
      "ृष्ट": 2559,
      "शत": 2560,
      "पुरुष": 2561,
      "ुम": 2562,
      "धि": 2563,
      "् अ": 2564,
      "दू": 2565,
      "्-": 2566,
      "तर": 2567,
      "नव": 2568,
      "ाति ": 2569,
      "पूर्ण": 2570,
      "े म": 2571,
      "शक्त": 2572,
      "ृद": 2573,
      "वस": 2574,
      "भविष्य": 2575,
      ", ": 2576,
      "िता ": 2577,
      "राष्ट्र": 2578,
      "ास्य": 2579,
      " राज": 2580,
      "क्षिण": 2581,
      "१०": 2582,
      "क्य": 2583,
      "पर्य": 2584,
      "ग्न": 2585,
      "वाच": 2586,
      " सू": 2587,
      "नी": 2588,
      "काम": 2589,
      "ित्र": 2590,
      "चि": 2591,
      "प्राप्त": 2592,
      " दु": 2593,
      "१९": 2594,
      "ाद्य": 2595,
      "सः ": 2596,
      "बहु": 2597,
      "ाभ्य": 2598,
      "परम": 2599,
      "ितं ": 2600,
      "ैक": 2601,
      "वान": 2602,
      "ाधिक": 2603,
      "दी": 2604,
      "भवति ": 2605,
      "ततः ": 2606,
      "वान् ": 2607,
      "मध्य": 2608,
      "स्प": 2609,
      " अनु": 2610,
      "के ": 2611,
      "षु": 2612,
      "ोर": 2613,
      " हि ": 2614,
      "न्तर": 2615,
      "याम": 2616,
      "म्भ": 2617,
      " वा ": 2618,
      "त्तम": 2619,
      "ः -": 2620,
      "ो व": 2621,
      " कथ": 2622,
      "दृश्य": 2623,
      "ेल": 2624,
      "पुर": 2625,
      "न्ति ।\n": 2626,
      "साध": 2627,
      "भवति ।\n": 2628,
      "जाय": 2629,
      " इत": 2630,
      "ाख्य": 2631,
      "म् आ": 2632,
      "स्ति ।\n": 2633,
      " मु": 2634,
      " ते ": 2635,
      "मुक्त": 2636,
      "ृण": 2637,
      "तस्म": 2638,
      "गच्छ": 2639,
      "मि": 2640,
      "मा ": 2641,
      "य् ": 2642,
      "समु": 2643,
      " यद": 2644,
      "ेध": 2645,
      "ा-": 2646,
      "ं,": 2647,
      "क्षेत्र": 2648,
      "तत्": 2649,
      "ून": 2650,
      "ेभ्य": 2651,
      "भक्त": 2652,
      " वै": 2653,
      " वर्ष": 2654,
      "रक्ष": 2655,
      "ेख": 2656,
      "इद": 2657,
      "यति ": 2658,
      "जल": 2659,
      "कारण": 2660,
      "न्व": 2661,
      "घट": 2662,
      "अह": 2663,
      "भय": 2664,
      "ेक्ष": 2665,
      "ेत् ।\n": 2666,
      "ाश्च": 2667,
      " तस्य": 2668,
      "जग": 2669,
      "निर्": 2670,
      "ल्य": 2671,
      "अत्र": 2672,
      "ो न ": 2673,
      "ेवल": 2674,
      "े व": 2675,
      "त्प": 2676,
      "ा च": 2677,
      "ार्ग": 2678,
      "ाः\n": 2679,
      "कम": 2680,
      "एष": 2681,
      "ैर": 2682,
      "ास्त्र": 2683,
      "्\"": 2684,
      "भ्र": 2685,
      "ीक्ष": 2686,
      " त्र": 2687,
      "ो न": 2688,
      "ो म": 2689,
      "त्वं ": 2690,
      "वेश": 2691,
      "सुख": 2692,
      "वद": 2693,
      " सम्": 2694,
      "यत्": 2695,
      "ज्ञात": 2696,
      "ित्त": 2697,
      "जय": 2698,
      "ुप": 2699,
      "ाट": 2700,
      " __": 2701,
      " यथ": 2702,
      "् ।\n": 2703,
      "ीम": 2704,
      "लिख": 2705,
      "मिति ": 2706,
      "वर्ण": 2707,
      " तद": 2708,
      "ोति ": 2709,
      " परि": 2710,
      "वार": 2711,
      "अप": 2712,
      "तत": 2713,
      "्वर": 2714,
      "ितीय": 2715,
      " नाम": 2716,
      "वास": 2717,
      "स् ": 2718,
      "ः स्व": 2719,
      "ं द": 2720,
      " छ": 2721,
      "नाय": 2722,
      "न्ते ": 2723,
      "ोऽपि ": 2724,
      "ाठ": 2725,
      "ेत्य": 2726,
      "की": 2727,
      "ावि": 2728,
      "ः सर्व": 2729,
      "ितम": 2730,
      "ह्म": 2731,
      " /": 2732,
      "ाथ": 2733,
      "ल्ल": 2734,
      "स्कृत": 2735,
      "ाइ": 2736,
      "पृष्ठ": 2737,
      "तेन ": 2738,
      "र्हि ": 2739,
      "एवं ": 2740,
      " --": 2741,
      "ण्य": 2742,
      "शय": 2743,
      " पृ": 2744,
      "er": 2745,
      "न च": 2746,
      "अपि ": 2747,
      "नियम": 2748,
      "नेन ": 2749,
      "रस": 2750,
      "पृथ": 2751,
      " कृत": 2752,
      "मुख": 2753,
      "ात्त": 2754,
      "बह": 2755,
      "म्\n": 2756,
      "अव": 2757,
      " भू": 2758,
      " कार्य": 2759,
      "ाभि": 2760,
      "in": 2761,
      "ब्ध": 2762,
      " इति ।\n": 2763,
      " जन": 2764,
      "र्ह": 2765,
      "गण": 2766,
      "राण": 2767,
      "पत": 2768,
      "ति\n": 2769,
      "लक्षण": 2770,
      " एत": 2771,
      "भगव": 2772,
      "ीः": 2773,
      "ाद्": 2774,
      "भारत": 2775,
      "अत": 2776,
      "ीण": 2777,
      "अधिक": 2778,
      " पूर्व": 2779,
      "ेम": 2780,
      "गर": 2781,
      "स्य ": 2782,
      "ेन्द्र": 2783,
      "e ": 2784,
      "ाः।\n": 2785,
      "ि-": 2786,
      "ः श": 2787,
      " भाष": 2788,
      "मास": 2789,
      "े तु": 2790,
      "ः आ": 2791,
      "मन्त्र": 2792,
      "बुद्ध": 2793,
      "स्य प्र": 2794,
      "धार": 2795,
      "ा प्र": 2796,
      "पी": 2797,
      "st": 2798,
      "व्यव": 2799,
      "्स": 2800,
      "बाल": 2801,
      "तया ": 2802,
      " अपि ": 2803,
      "पक्ष": 2804,
      "अतः ": 2805,
      "ो य": 2806,
      "दिव": 2807,
      "ित्व": 2808,
      "ं नि": 2809,
      "तेष": 2810,
      "दृश": 2811,
      "ाक्य": 2812,
      "तदा ": 2813,
      "पाल": 2814,
      " कृ": 2815,
      "स्माक": 2816,
      "धु": 2817,
      "दोष": 2818,
      "िश": 2819,
      "और": 2820,
      "यत् ": 2821,
      " =": 2822,
      "ोह": 2823,
      "ादश": 2824,
      " पद": 2825,
      " नम": 2826,
      "कुर्व": 2827,
      "े क": 2828,
      "ातु": 2829,
      "सौ": 2830,
      "ानं ": 2831,
      "े ॥\n": 2832,
      "रोध": 2833,
      "वाह": 2834,
      "हेत": 2835,
      "ाश्र": 2836,
      "वे": 2837,
      " स्य": 2838,
      "मपि ": 2839,
      " प्रत्य": 2840,
      "र्भ": 2841,
      "्?\n": 2842,
      "म्य": 2843,
      "ध्व": 2844,
      "मात्र": 2845,
      "ीति ": 2846,
      "ें": 2847,
      "ितः ": 2848,
      "प्रश": 2849,
      "10": 2850,
      " साम": 2851,
      "योजन": 2852,
      "an": 2853,
      "इत": 2854,
      "रात्र": 2855,
      "- ": 2856,
      "ाम् ।\n": 2857,
      "पण": 2858,
      "रव": 2859,
      "प्रथम": 2860,
      "नीय": 2861,
      "दाच": 2862,
      "ेऽपि ": 2863,
      "्ट": 2864,
      "ी,": 2865,
      "े न": 2866,
      "विषय": 2867,
      "हृद": 2868,
      " कर्म": 2869,
      "श्वर": 2870,
      "देह": 2871,
      "नि ": 2872,
      "पश्य": 2873,
      "ाख": 2874,
      " तथा ": 2875,
      "११": 2876,
      "राज्य": 2877,
      "ं श": 2878,
      "ो वि": 2879,
      "ादृ": 2880,
      "ी ": 2881,
      "राम": 2882,
      "ाद् ": 2883,
      "मय": 2884,
      "ालय": 2885,
      "प्रस": 2886,
      "अस्य": 2887,
      "ं तु": 2888,
      "दाह": 2889,
      "र्घ": 2890,
      "रुप": 2891,
      " अप": 2892,
      "स्त्व": 2893,
      "मत": 2894,
      "ेष्ठ": 2895,
      "लु": 2896,
      "प्रति ": 2897,
      "स्थाप": 2898,
      "ित् ": 2899,
      "घ्र": 2900,
      " स्त्र": 2901,
      "द् ": 2902,
      "ा वि": 2903,
      "ितः ।\n": 2904,
      "ा न": 2905,
      "क्षु": 2906,
      "गो": 2907,
      "on": 2908,
      "तः ॥\n": 2909,
      "ः\"": 2910,
      "वाय": 2911,
      "श्रु": 2912,
      "स्न": 2913,
      "ध्याय": 2914,
      "ग्रहण": 2915,
      "ar": 2916,
      "ाई": 2917,
      "क्व": 2918,
      "व्र": 2919,
      "चर": 2920,
      " भार": 2921,
      "वृद्ध": 2922,
      "िद्ध": 2923,
      "ंस": 2924,
      "यात": 2925,
      "मनु": 2926,
      " मम": 2927,
      "शिष्ट": 2928,
      " तथ": 2929,
      "कस्य": 2930,
      "ा स": 2931,
      "अर्थ": 2932,
      " गृह": 2933,
      "ासु": 2934,
      "मात": 2935,
      "यत्र": 2936,
      "ेत् ॥\n": 2937,
      "दत्त": 2938,
      "ान्तर": 2939,
      "ोज": 2940,
      " अन्य": 2941,
      "त्थ": 2942,
      "ः पर": 2943,
      "__\n": 2944,
      "लभ": 2945,
      "हस्त": 2946,
      " मध्य": 2947,
      " अधिक": 2948,
      " विष": 2949,
      "जु": 2950,
      " सम्ब": 2951,
      "दक्षिण": 2952,
      "पात": 2953,
      " तत्र": 2954,
      "ा व": 2955,
      "s ": 2956,
      "े वि": 2957,
      "ेश्वर": 2958,
      "निर्म": 2959,
      "तिक": 2960,
      "ने": 2961,
      ". . .\n": 2962,
      "्ण": 2963,
      "मू": 2964,
      "ि?\n": 2965,
      " कर्त": 2966,
      " यदि ": 2967,
      "201": 2968,
      "धन": 2969,
      "िभ": 2970,
      "ां\n": 2971,
      "वत": 2972,
      "किम": 2973,
      "न्त्य": 2974,
      "ानाम": 2975,
      "ब्रह्म": 2976,
      "en": 2977,
      "पद्य": 2978,
      "दाय": 2979,
      "द्वितीय": 2980,
      "नाश": 2981,
      "ाप्न": 2982,
      "ं सम": 2983,
      "ेयं ": 2984,
      "न\n": 2985,
      "े त": 2986,
      "१२": 2987,
      " काल": 2988,
      " धर्म": 2989,
      "द्वार": 2990,
      "वर": 2991,
      "१८": 2992,
      " अन": 2993,
      "or": 2994,
      "न्थ": 2995,
      "षेध": 2996,
      "मित्य": 2997,
      " ?\n": 2998,
      "संख्य": 2999,
      "्)": 3000,
      "परिव": 3001,
      "ायाम": 3002,
      "ग्राम": 3003,
      "मया ": 3004,
      " यथा ": 3005,
      "व्यक्त": 3006,
      "at": 3007,
      "वय": 3008,
      "ेवलं ": 3009,
      "स्य च": 3010,
      "ृतीय": 3011,
      "पञ्च": 3012,
      ",\n": 3013,
      "ास्ति ": 3014,
      " पुत्र": 3015,
      "ं सर्व": 3016,
      "िह": 3017,
      "यद्य": 3018,
      "ली": 3019,
      "सप्त": 3020,
      "ादेश": 3021,
      "सर": 3022,
      "ित्यं ": 3023,
      "षण": 3024,
      "ाया ": 3025,
      " विद्य": 3026,
      " मन": 3027,
      " फ": 3028,
      "ञ्ज": 3029,
      "वी": 3030,
      "उत्तर": 3031,
      "१५": 3032,
      "यदा ": 3033,
      "ः सम": 3034,
      "ितम् ।\n": 3035,
      "ाभाव": 3036,
      " दृ": 3037,
      "ये": 3038,
      "प्राय": 3039,
      "ष्म": 3040,
      "यान": 3041,
      "शास्त्र": 3042,
      "ि\"": 3043,
      "इह": 3044,
      "ं स्व": 3045,
      "िना ": 3046,
      "पाप": 3047,
      "निर": 3048,
      "हे ": 3049,
      "ुभ": 3050,
      "पत्र": 3051,
      "ूत": 3052,
      "वन": 3053,
      "ु।\n": 3054,
      "चित्र": 3055,
      "कर्तव्य": 3056,
      "तत् ": 3057,
      " स्म": 3058,
      "ेज": 3059,
      "ो भव": 3060,
      ". .\n": 3061,
      "सद": 3062,
      "ं ।\n": 3063,
      "मार": 3064,
      " जीव": 3065,
      "कृत्य": 3066,
      "याव": 3067,
      "अयं ": 3068,
      " विश्व": 3069,
      "कास": 3070,
      "ति ॥\n": 3071,
      " [": 3072,
      "क्ल": 3073,
      " कि": 3074,
      "पत्त": 3075,
      "ादीन": 3076,
      "सहस्र": 3077,
      "ीयत": 3078,
      "इति ।\n": 3079,
      "ी।\n": 3080,
      "यन": 3081,
      "चतु": 3082,
      "००": 3083,
      "े\"": 3084,
      "om": 3085,
      "प्रिय": 3086,
      "रत": 3087,
      "पुनः ": 3088,
      " देश": 3089,
      "्'": 3090,
      " समु": 3091,
      "येन ": 3092,
      "शो": 3093,
      "शुभ": 3094,
      "ज्ज": 3095,
      "ाद्व": 3096,
      " शब्द": 3097,
      "बु": 3098,
      "उक्त": 3099,
      "त्रि": 3100,
      "प्राण": 3101,
      " वृ": 3102,
      "प्रभ": 3103,
      "िर्": 3104,
      " शक्त": 3105,
      "ं वा ": 3106,
      "काले ": 3107,
      "रीर": 3108,
      "निश्च": 3109,
      "ागत": 3110,
      "वच": 3111,
      " अथ": 3112,
      "लिङ्ग": 3113,
      "कृत्वा ": 3114,
      "ाचार": 3115,
      "अन्त": 3116,
      "न क": 3117,
      "िः\n": 3118,
      "दित": 3119,
      "त्पाद": 3120,
      " घ": 3121,
      "ोजन": 3122,
      " तव": 3123,
      "स्मृत": 3124,
      "पश्च": 3125,
      " विशेष": 3126,
      "ान्व": 3127,
      "तन्त्र": 3128,
      "यन्त": 3129,
      "ं कर": 3130,
      "१४": 3131,
      " रा": 3132,
      "श्": 3133,
      "िका ": 3134,
      "ेन स": 3135,
      "वक्त": 3136,
      "न्याय": 3137,
      "संस्कृत": 3138,
      "वान् ।\n": 3139,
      "ौ ।\n": 3140,
      "क्षम": 3141,
      "ेष्ट": 3142,
      "र्थः ।\n": 3143,
      "िष": 3144,
      "विव": 3145,
      " __\n": 3146,
      "धात": 3147,
      "ूर": 3148,
      "ों": 3149,
      " ई": 3150,
      "च्यत": 3151,
      "ाङ्ग": 3152,
      "र्प": 3153,
      "ी\n": 3154,
      "स्य स": 3155,
      "मित्र": 3156,
      "सत्य": 3157,
      "सूत्र": 3158,
      "र्क": 3159,
      "बोध": 3160,
      "वन्त": 3161,
      "ादि ": 3162,
      "निर्व": 3163,
      "सीत": 3164,
      "नर": 3165,
      "स्य अ": 3166,
      "कान": 3167,
      "युद्ध": 3168,
      "पुनर": 3169,
      "ेषण": 3170,
      "विश": 3171,
      "िष्ठ": 3172,
      "ंश": 3173,
      "ज्ञाय": 3174,
      "पूज": 3175,
      " लोक": 3176,
      "19": 3177,
      "ं पर": 3178,
      "ाग्र": 3179,
      "अहं ": 3180,
      "्॥\n": 3181,
      " और": 3182,
      "पाठ": 3183,
      "ागर": 3184,
      "ले ": 3185,
      "ि॒": 3186,
      "प्रयोग": 3187,
      "न्नि": 3188,
      "स्ट": 3189,
      "तिर": 3190,
      "योज": 3191,
      " परम": 3192,
      "मन्य": 3193,
      "ः-": 3194,
      "कर्मण": 3195,
      "ः सं": 3196,
      "al": 3197,
      "प्न": 3198,
      "मार्ग": 3199,
      "१७": 3200,
      "मे": 3201,
      "ायु": 3202,
      " वर्त": 3203,
      "ादौ": 3204,
      " करो": 3205,
      "कार्यं ": 3206,
      "i)": 3207,
      "का ": 3208,
      "मो": 3209,
      "es": 3210,
      " !\n": 3211,
      "भु": 3212,
      " कार": 3213,
      "दार": 3214,
      "धा ": 3215,
      " मे ": 3216,
      "तिष्ठ": 3217,
      "१३": 3218,
      "भाषण": 3219,
      "ः \"": 3220,
      "िन्न": 3221,
      "मुप": 3222,
      "मी": 3223,
      "क् ": 3224,
      "जन्म": 3225,
      " तमे ": 3226,
      "ा॒": 3227,
      "मेर": 3228,
      " दृष्ट": 3229,
      "विधान": 3230,
      " प्रथम": 3231,
      " तत्": 3232,
      " _\n": 3233,
      "सीत् ।\n": 3234,
      "गुरु": 3235,
      "न् ।\n": 3236,
      "मूल": 3237,
      "00": 3238,
      "ाह्य": 3239,
      "र्च": 3240,
      "च्यते ।\n": 3241,
      "गु ख": 3242,
      "ताव": 3243,
      "ृप": 3244,
      "ा.": 3245,
      " क्रिय": 3246,
      "यः ।\n": 3247,
      " अह": 3248,
      "क्ष्म": 3249,
      "नः ": 3250,
      " अव": 3251,
      " ()": 3252,
      "दैव": 3253,
      " ट": 3254,
      "यज्ञ": 3255,
      " इव": 3256,
      " को": 3257,
      "निक": 3258,
      "वचन": 3259,
      "यिष्य": 3260,
      "ाड": 3261,
      "बि": 3262,
      "िव्य": 3263,
      " कारण": 3264,
      " न्य": 3265,
      "शुद्ध": 3266,
      "भूम": 3267,
      "वस्तु": 3268,
      "सङ्": 3269,
      "ादिक": 3270,
      "ag": 3271,
      "ं ग": 3272,
      "चिन्त": 3273,
      "ताम": 3274,
      "ादृश": 3275,
      "ाण्ड": 3276,
      "१६": 3277,
      "क्षित": 3278,
      " सप्त": 3279,
      "चेत": 3280,
      "11": 3281,
      "\"\n": 3282,
      "ासन": 3283,
      "ः (": 3284,
      "चित् ": 3285,
      "लिखित": 3286,
      "मित्त": 3287,
      " सुख": 3288,
      " रूप": 3289,
      "ाव्य": 3290,
      "वयं ": 3291,
      "ा-\n": 3292,
      "दृष्ट्वा ": 3293,
      "पि": 3294,
      " तदा ": 3295,
      "व्याप": 3296,
      "ततो ": 3297,
      "देशे ": 3298,
      " दिन": 3299,
      "क्रीड": 3300,
      "रम": 3301,
      "पठ": 3302,
      "ेति ।\n": 3303,
      "ग्रन्थ": 3304,
      "वर्षे ": 3305,
      "ीकृत": 3306,
      "तिथ": 3307,
      "त्म": 3308,
      "प्रकाश": 3309,
      "स्कार": 3310,
      " भगव": 3311,
      " बहु": 3312,
      "कश्च": 3313,
      "तय": 3314,
      "लेख": 3315,
      "शाल": 3316,
      "स्पर": 3317,
      "अभि": 3318,
      "ष्प": 3319,
      "वर्ग": 3320,
      "ा न ": 3321,
      "को ": 3322,
      "ं ह": 3323,
      "से ": 3324,
      "माह": 3325,
      "विभाग": 3326,
      "ग्नि": 3327,
      "स्वरूप": 3328,
      "के": 3329,
      "दुर्": 3330,
      "सामान्य": 3331,
      "12": 3332,
      " स्थान": 3333,
      "िज": 3334,
      " शि": 3335,
      " पुर": 3336,
      " गुण": 3337,
      "नय": 3338,
      " थ": 3339,
      "ा आ": 3340,
      "दात": 3341,
      "ोल": 3342,
      " पित": 3343,
      " आह": 3344,
      " पुरुष": 3345,
      "दिष्ट": 3346,
      "ैल": 3347,
      "काय": 3348,
      "चना ": 3349,
      " कर": 3350,
      " यु": 3351,
      "चित्त": 3352,
      " एष": 3353,
      "केवल": 3354,
      "ध्यान": 3355,
      "दिश": 3356,
      "अध": 3357,
      "श्रुत": 3358,
      "ात्मक": 3359,
      "न्न ": 3360,
      "येत": 3361,
      "लब्ध": 3362,
      "सेव": 3363,
      "रोग": 3364,
      "ि.": 3365,
      "भा": 3366,
      "वाक्य": 3367,
      "त्वम": 3368,
      "सम्बन्ध": 3369,
      "ं भव": 3370,
      "ासी": 3371,
      "बी": 3372,
      "िः।\n": 3373,
      "वर्तत": 3374,
      "रुण": 3375,
      "ीत्य": 3376,
      "बस": 3377,
      " इद": 3378,
      "अद्य": 3379,
      " प्राप्त": 3380,
      "ाङ्": 3381,
      "लाभ": 3382,
      "हास": 3383,
      " विध": 3384,
      " दृश्य": 3385,
      "रूपेण": 3386,
      "यम् ": 3387,
      "ित्": 3388,
      "स्मात् ": 3389,
      " पृथ": 3390,
      "कट": 3391,
      "नो ": 3392,
      "हत": 3393,
      "ं हि ": 3394,
      " काम": 3395,
      "इदान": 3396,
      "सूर्य": 3397,
      "संधान": 3398,
      " भारत": 3399,
      " जु": 3400,
      "च ।\n": 3401,
      "न्ते ।\n": 3402,
      "करो": 3403,
      "ाइट": 3404,
      "ं सं": 3405,
      "कुर्य": 3406,
      "इव": 3407,
      "स्य व": 3408,
      "युग": 3409,
      "ं अ": 3410,
      "ाप्": 3411,
      " भविष्य": 3412,
      "दीर्घ": 3413,
      "माय": 3414,
      "यय": 3415,
      "ेनैव": 3416,
      "जी": 3417,
      "ानि पृष्ठ": 3418,
      " प्रति ": 3419,
      "नान": 3420,
      " आस": 3421,
      "ूह": 3422,
      "\"अ": 3423,
      "िथ": 3424,
      "ेट": 3425,
      "विद": 3426,
      "तर्हि ": 3427,
      "ा\"": 3428,
      "प्रकृत": 3429,
      "it": 3430,
      "ण्डल": 3431,
      ") ": 3432,
      " . .\n": 3433,
      "र् ": 3434,
      "द्भ": 3435,
      "र्द": 3436,
      " ऽ": 3437,
      "ेष्व": 3438,
      " च ।\n": 3439,
      "ो हि ": 3440,
      "दाहरण": 3441,
      "ं भ": 3442,
      "18": 3443,
      "ी-": 3444,
      "स्फ": 3445,
      "विष्ट": 3446,
      " साध": 3447,
      "ः॥\n": 3448,
      "मिद": 3449,
      "प्रत": 3450,
      "वण": 3451,
      " ततः ": 3452,
      "ाकार": 3453,
      "घु": 3454,
      "सर्ग": 3455,
      "ग्ध": 3456,
      "ुं,": 3457,
      "सत": 3458,
      "प्रमाण": 3459,
      "ं ज": 3460,
      "लोप": 3461,
      "तप": 3462,
      "्यते ": 3463,
      "्मण": 3464,
      "15": 3465,
      "वृक्ष": 3466,
      " ब्र": 3467,
      " इत्याद": 3468,
      "म् ?\n": 3469,
      "ास्तु": 3470,
      "वः ": 3471,
      "े प": 3472,
      "त्वेन ": 3473,
      "विज्ञान": 3474,
      " ऋ": 3475,
      "ाँ": 3476,
      "ी ।\n": 3477,
      "े नि": 3478,
      " ष": 3479,
      "चल": 3480,
      "परि ": 3481,
      " क्ष": 3482,
      "ुष": 3483,
      "व्याख्य": 3484,
      " की": 3485,
      "ा॑": 3486,
      "कुरु": 3487,
      "चिद": 3488,
      "मृ": 3489,
      "राग": 3490,
      "्यते ।\n": 3491,
      " योग": 3492,
      "रुद्ध": 3493,
      "ीयते ।\n": 3494,
      "ो वा ": 3495,
      "ामह": 3496,
      "ो ऽ": 3497,
      "iv": 3498,
      "इन्द्र": 3499,
      "कौ": 3500,
      " तत": 3501,
      "प्रधान": 3502,
      "िस": 3503,
      "ाङ्क": 3504,
      "ीकरण": 3505,
      "स्मै": 3506,
      "पुस्त": 3507,
      "ैत": 3508,
      "ैर्": 3509,
      " शक्य": 3510,
      "र्वि": 3511,
      "फलं ": 3512,
      " अभि": 3513,
      "रथ": 3514,
      "भारतीय": 3515,
      "यि ": 3516,
      "प्रण": 3517,
      "ख्यात": 3518,
      "यति ।\n": 3519,
      "वश्य": 3520,
      " भाव": 3521,
      " दर्श": 3522,
      "ानाम् ": 3523,
      "रः ": 3524,
      "यू": 3525,
      "बसाइट": 3526,
      "तीति ": 3527,
      "कर्ष": 3528,
      "वह": 3529,
      "भाषा ": 3530,
      "रित": 3531,
      " केवल": 3532,
      "केन ": 3533,
      "सर्वे ": 3534,
      "कूल": 3535,
      ": ": 3536,
      "यः ॥\n": 3537,
      "शक्य": 3538,
      "ीक्षा ": 3539,
      "शिव": 3540,
      " भाग": 3541,
      "रक्षण": 3542,
      "कुल": 3543,
      "िणाम": 3544,
      "नित्य": 3545,
      "ोत्र": 3546,
      "ं यथ": 3547,
      "अभ": 3548,
      "देवत": 3549,
      "भिन्न": 3550,
      "वत्स": 3551,
      " राज्य": 3552,
      "इच्छ": 3553,
      "मृत": 3554,
      "म्प": 3555,
      "ms": 3556,
      "ः च": 3557,
      " वे": 3558,
      "मुख्य": 3559,
      "मेत": 3560,
      "स्तर": 3561,
      "ः स्य": 3562,
      "ानि\n": 3563,
      "ात्मन": 3564,
      " मान": 3565,
      "दर्शन": 3566,
      "ितव्य": 3567,
      " - -": 3568,
      " पृष्ठ": 3569,
      "एतत् ": 3570,
      "कः ।\n": 3571,
      "च्यते ": 3572,
      "े न ": 3573,
      "म् उ": 3574,
      "त्वात् ": 3575,
      " मात": 3576,
      "विषये ": 3577,
      "...\n": 3578,
      "टी": 3579,
      "निष्": 3580,
      "समुद्र": 3581,
      "ाकृत": 3582,
      "हि": 3583,
      "यते ": 3584,
      "ाधिकार": 3585,
      "द्द": 3586,
      "स्थाय": 3587,
      "कथं ": 3588,
      "यत्न": 3589,
      " पर्य": 3590,
      " जग": 3591,
      "धिनियम": 3592,
      "कृते ": 3593,
      "कदाच": 3594,
      "धी": 3595,
      "वित": 3596,
      "सन्त": 3597,
      " दश": 3598,
      "स्य वि": 3599,
      "त्वया ": 3600,
      " उक्त": 3601,
      "ौ च": 3602,
      "ाम्": 3603,
      " - अ": 3604,
      "ारा ": 3605,
      "शिक्षण": 3606,
      "बद्ध": 3607,
      "d ": 3608,
      "प्रकार": 3609,
      " सन्त": 3610,
      "मल": 3611,
      "शत्र": 3612,
      ") अ": 3613,
      "घात": 3614,
      " किम": 3615,
      "ेत्त": 3616,
      "दूर": 3617,
      "ाम् ॥\n": 3618,
      "भवत् ।\n": 3619,
      "च्छेद": 3620,
      "पन्न": 3621,
      "ः सु": 3622,
      "str": 3623,
      "संज्ञ": 3624,
      "]\n": 3625,
      "ाच्च": 3626,
      "ेन सह": 3627,
      "अस्म": 3628,
      "येत् ।\n": 3629,
      "ा ॥\n": 3630,
      "श्री": 3631,
      "शिक्ष": 3632,
      "गुर": 3633,
      "ाम्य": 3634,
      "प्रत्यय": 3635,
      " प्राण": 3636,
      "धनं ": 3637,
      "् च": 3638,
      "बाध": 3639,
      " तम": 3640,
      "ुक": 3641,
      "र्त्त": 3642,
      "धिकार": 3643,
      "...": 3644,
      "ान्न": 3645,
      "त्न": 3646,
      "संयुक्त": 3647,
      "ोट": 3648,
      "शू": 3649,
      "ैष": 3650,
      "े आ": 3651,
      " नमः ।\n": 3652,
      " प्रश": 3653,
      "सन्ध": 3654,
      " जात": 3655,
      "करिष्य": 3656,
      "re": 3657,
      "ो\n": 3658,
      "ो द": 3659,
      "y ": 3660,
      "द्रष्ट": 3661,
      "ou": 3662,
      "पार": 3663,
      "प्रात": 3664,
      "ुण": 3665,
      " सम्बद्ध": 3666,
      "ताय": 3667,
      "वर्तमान": 3668,
      "समान": 3669,
      "म् -": 3670,
      "14": 3671,
      "तः\n": 3672,
      "ॊ ऽ": 3673,
      " जल": 3674,
      "ा'": 3675,
      "े'": 3676,
      "ः अस्त": 3677,
      "रिष्य": 3678,
      "स्य म": 3679,
      "लभ्य": 3680,
      "ा म": 3681,
      "भाग्य": 3682,
      "अन्यथा ": 3683,
      "म्ह": 3684,
      "प्रश्न": 3685,
      "पेक्ष": 3686,
      "ाधिकरण": 3687,
      "वा": 3688,
      "न ।\n": 3689,
      " तेष": 3690,
      " स्थित": 3691,
      "ते\n": 3692,
      "द्रव्य": 3693,
      ", अ": 3694,
      "स्माकं ": 3695,
      "ोर्": 3696,
      "ादेव": 3697,
      "पर्व": 3698,
      "ं प्रति": 3699,
      "ोच": 3700,
      "ायण": 3701,
      "त् ॥\n": 3702,
      "श्रेष्ठ": 3703,
      "ः'": 3704,
      "२२": 3705,
      "ीक्षण": 3706,
      "ात् ॥\n": 3707,
      " द्र": 3708,
      "ानि च": 3709,
      "सन": 3710,
      "सम्भव": 3711,
      "म् एव": 3712,
      "३०": 3713,
      "ु,": 3714,
      "न हि ": 3715,
      "ic": 3716,
      "करोति ": 3717,
      "रिक्त": 3718,
      "वर्तते ।\n": 3719,
      " बाल": 3720,
      "दय": 3721,
      " ज्ञान": 3722,
      "नगर": 3723,
      "े य": 3724,
      "शील": 3725,
      " स्प": 3726,
      "ा य": 3727,
      " संशय": 3728,
      "ुन": 3729,
      "---": 3730,
      "किञ्च": 3731,
      "ा क": 3732,
      "ि॑": 3733,
      "ोड": 3734,
      " संश": 3735,
      "am": 3736,
      "विकल्प": 3737,
      "ो अ": 3738,
      " चतु": 3739,
      " राष्ट्र": 3740,
      "प्रदेश": 3741,
      "मण": 3742,
      "ते च": 3743,
      "ाः,": 3744,
      "२०१": 3745,
      " सिद्ध": 3746,
      "योर": 3747,
      "२५": 3748,
      "स्य क": 3749,
      "ा भव": 3750,
      "ी.": 3751,
      "ाश्व": 3752,
      " पञ्च": 3753,
      " त्रि": 3754,
      "िकाय": 3755,
      "तत्त्व": 3756,
      "स्क": 3757,
      "ाह्मण": 3758,
      "ार्थं ": 3759,
      "स्त्रिय": 3760,
      "प्": 3761,
      "द्वादश": 3762,
      ") इति ": 3763,
      "क्स": 3764,
      "दीय": 3765,
      "ं।\n": 3766,
      "िन्": 3767,
      "गिर": 3768,
      " गत": 3769,
      " S": 3770,
      "ारः ": 3771,
      " यत्र": 3772,
      "सर्वत्र": 3773,
      "ार्ध": 3774,
      "ाऽऽ": 3775,
      "त्स्य": 3776,
      "तिहास": 3777,
      "परिवर्त": 3778,
      " रुप": 3779,
      "उपयोग": 3780,
      "एस": 3781,
      " भवत": 3782,
      "पदार्थ": 3783,
      "ं कथ": 3784,
      "अस्मिन् ": 3785,
      "ः)": 3786,
      " दु ।\n": 3787,
      "तेन": 3788,
      "ि'": 3789,
      " अर्थ": 3790,
      "ील": 3791,
      "ावरण": 3792,
      "कर्ता ": 3793,
      " +": 3794,
      "तृतीय": 3795,
      "्.": 3796,
      " ज्य": 3797,
      "म् अपि ": 3798,
      "आर": 3799,
      " इह": 3800,
      "msg": 3801,
      " सा ": 3802,
      "msgstr": 3803,
      "श्ल": 3804,
      "यित्वा ": 3805,
      "ितो ": 3806,
      "शल": 3807,
      "सभ": 3808,
      "ाज्ञ": 3809,
      "न्यास": 3810,
      "योऽ": 3811,
      "वाम": 3812,
      "ि)": 3813,
      "ii)": 3814,
      "साह": 3815,
      "नैव": 3816,
      "्ठ": 3817,
      "२४": 3818,
      "क्षय": 3819,
      "दिव्य": 3820,
      "ंत": 3821,
      " हृद": 3822,
      "नार": 3823,
      " फल": 3824,
      "अत एव": 3825,
      "वक्ष्य": 3826,
      " सत्य": 3827,
      "ोषण": 3828,
      "ीष": 3829,
      "13": 3830,
      "ृद्ध": 3831,
      "ैश्च": 3832,
      "कृष्ण": 3833,
      "सम्म": 3834,
      "र्द्ध": 3835,
      "ं कृत": 3836,
      "वसाय": 3837,
      "तीत्य": 3838,
      "िन्त": 3839,
      "े॒": 3840,
      "ननु": 3841,
      "पथ": 3842,
      "जि": 3843,
      " दक्षिण": 3844,
      "स्त्री": 3845,
      "े \"": 3846,
      "ान्म": 3847,
      "ादित": 3848,
      "ु॒": 3849,
      "िकी": 3850,
      " ,": 3851,
      "ुट": 3852,
      " सम्बद्धानि पृष्ठ": 3853,
      "शः ": 3854,
      "ि-\n": 3855,
      "अस्त": 3856,
      "वर्ध": 3857,
      "या ।\n": 3858,
      "ानि ।\n": 3859,
      " -\n": 3860,
      "तथापि ": 3861,
      "17": 3862,
      "े-": 3863,
      " रक्ष": 3864,
      " ड": 3865,
      "ृज": 3866,
      " के ": 3867,
      "ion": 3868,
      "निर्देश": 3869,
      "दद": 3870,
      " A": 3871,
      " अन्त": 3872,
      "ं सु": 3873,
      " अध्य": 3874,
      " शु": 3875,
      "िस्त": 3876,
      "ात्य": 3877,
      "स्य नि": 3878,
      "उच्च": 3879,
      " त्य": 3880,
      "ंग": 3881,
      "२१": 3882,
      "msgstr \"": 3883,
      "्रिय": 3884,
      "एते ": 3885,
      "ं मह": 3886,
      "ोभ": 3887,
      "ूढ": 3888,
      " बह": 3889,
      "ृणु": 3890,
      "ीडिय": 3891,
      "ेप": 3892,
      "ं तथा ": 3893,
      "ेभ्यः ": 3894,
      " ॐ": 3895,
      "ाब": 3896,
      "स्करण": 3897,
      "लोके ": 3898,
      "िष्ट": 3899,
      "अन्व": 3900,
      "तान": 3901,
      "ं कर्म": 3902,
      "भोग": 3903,
      "ूम": 3904,
      " पश्य": 3905,
      "ग्राह": 3906,
      "अध्य": 3907,
      " तेन ": 3908,
      "वश": 3909,
      "विक": 3910,
      "न प्र": 3911,
      " कल": 3912,
      "समास": 3913,
      "ागम": 3914,
      "वती": 3915,
      " अत्र": 3916,
      "पुनर्": 3917,
      "कोई": 3918,
      "स्मि ": 3919,
      " परिव": 3920,
      " ऊ": 3921,
      "सङ्ग": 3922,
      "वेदन": 3923,
      "ंत्र": 3924,
      " सम्बन्ध": 3925,
      "जित": 3926,
      "ते": 3927,
      "त ।\n": 3928,
      "साक्ष": 3929,
      " जाय": 3930,
      "le": 3931,
      "शान्त": 3932,
      " सि": 3933,
      "निमित्त": 3934,
      "्यम": 3935,
      "ं प्रति ": 3936,
      "ः?\n": 3937,
      "ी च": 3938,
      " पश्च": 3939,
      "त्पत्त": 3940,
      " सामान्य": 3941,
      "ेत्": 3942,
      "नं च": 3943,
      "ट् ": 3944,
      "ि च": 3945,
      "ार्त": 3946,
      " दिव": 3947,
      "म् इति ": 3948,
      "िः,": 3949,
      "प्रद": 3950,
      "अथवा ": 3951,
      "े स्व": 3952,
      "यज": 3953,
      "यामि ": 3954,
      "२७": 3955,
      "ो ह": 3956,
      "राज्ञ": 3957,
      "शीघ्र": 3958,
      "विन": 3959,
      " व्यव": 3960,
      "भास": 3961,
      "यन्ति ": 3962,
      "ोति": 3963,
      "ेस": 3964,
      "कत्व": 3965,
      " भाषण": 3966,
      "Ne": 3967,
      "मानव": 3968,
      "ः _\n": 3969,
      "ो नि": 3970,
      "ेन च": 3971,
      "नन्द": 3972,
      "विरोध": 3973,
      "th": 3974,
      "दन": 3975,
      "षष्ठ": 3976,
      "स्य न": 3977,
      " तर्हि ": 3978,
      " पी": 3979,
      "प्ल": 3980,
      "ोति ।\n": 3981,
      "ुल": 3982,
      " ---": 3983,
      "२००": 3984,
      "ेच्छ": 3985,
      "ुः\n": 3986,
      "ूर्त": 3987,
      "्वल": 3988,
      "इम": 3989,
      "े॥\n": 3990,
      "सव": 3991,
      "ं त्व": 3992,
      "आह": 3993,
      "ुद": 3994,
      "व्या": 3995,
      "धन्य": 3996,
      "ाग्": 3997,
      "लक्ष": 3998,
      "नुष्य": 3999,
      "कृप": 4000,
      "Tag": 4001,
      "ंच": 4002,
      "ादिन": 4003,
      "धारण": 4004,
      "जाप": 4005,
      "धर": 4006,
      "ध्र": 4007,
      "ेहि ": 4008,
      "पुण्य": 4009,
      "शरीर": 4010,
      "हीन": 4011,
      "यमेव": 4012,
      "ent": 4013,
      "विर": 4014,
      " पाप": 4015,
      "ान् ।\n": 4016,
      "तद्व": 4017,
      "स्ते ": 4018,
      "द्विज": 4019,
      "16": 4020,
      "ितः ॥\n": 4021,
      "ो देव": 4022,
      "गु दु ।\n": 4023,
      " पूर्ण": 4024,
      "म\n": 4025,
      " भ्र": 4026,
      " रु": 4027,
      "ाञ्च": 4028,
      "त्सव": 4029,
      "प्रत्यक्ष": 4030,
      "व्यवहार": 4031,
      "नस्य": 4032,
      "२६": 4033,
      "ाप्नु": 4034,
      "िनी": 4035,
      "प्रतिषेध": 4036,
      "तद्": 4037,
      "शक": 4038,
      " वर": 4039,
      "धि ": 4040,
      "सुर": 4041,
      "ौ।\n": 4042,
      " मया ": 4043,
      "संभव": 4044,
      "किन्तु": 4045,
      "विना ": 4046,
      "तः स": 4047,
      " सम्बद्धानि पृष्ठानि\n": 4048,
      "तौ": 4049,
      "वात": 4050,
      " शत": 4051,
      "क्षेप": 4052,
      "ः न": 4053,
      "निष्ठ": 4054,
      "Hom": 4055,
      "ch": 4056,
      "ा)": 4057,
      "ाप्र": 4058,
      " शक्": 4059,
      "ीयते ": 4060,
      "सेन": 4061,
      " शुभ": 4062,
      "भौ": 4063,
      "ता ।\n": 4064,
      "गु खः ।\n": 4065,
      "अग्न": 4066,
      " सर्वे ": 4067,
      " कृते ": 4068,
      "ब्राह्मण": 4069,
      "कम् ।\n": 4070,
      "चनं ": 4071,
      "मध्ये ": 4072,
      "साय": 4073,
      " तत् ": 4074,
      "ं वै": 4075,
      "ूं": 4076,
      "समर्थ": 4077,
      "ोदय": 4078,
      "ाप्नोति ": 4079,
      "धुना ": 4080,
      " I": 4081,
      " जान": 4082,
      "ात्मा ": 4083,
      "ादिति ": 4084,
      " अभ": 4085,
      " जन्म": 4086,
      "तद् ": 4087,
      " पुनः ": 4088,
      "यच्छ": 4089,
      "यौ": 4090,
      "तीव": 4091,
      "पीड": 4092,
      "मेक": 4093,
      "विचार": 4094,
      "केवलं ": 4095,
      "मर": 4096,
      "संसार": 4097,
      "स्वप्न": 4098,
      "ोत्तर": 4099,
      "राध": 4100,
      "म् अस्ति ।\n": 4101,
      "पृष्ट": 4102,
      "ा अपि ": 4103,
      "नम् ।\n": 4104,
      "ाघ": 4105,
      "lo": 4106,
      "ि.\n": 4107,
      "ूय": 4108,
      "त्यन्त": 4109,
      "मान् ": 4110,
      "ः कथ": 4111,
      "निश": 4112,
      "वक्तव्य": 4113,
      "पान": 4114,
      "ं प्राप्त": 4115,
      "मनुष्य": 4116,
      " तस्म": 4117,
      " वेद": 4118,
      " प्रकृत": 4119,
      "ोऽयं ": 4120,
      "मेरिक": 4121,
      "२३": 4122,
      "ाविध": 4123,
      " इत्यस्य": 4124,
      " स्न": 4125,
      " वर्ण": 4126,
      "राजन": 4127,
      "री ": 4128,
      "गीत": 4129,
      "माद": 4130,
      " संस्कृत": 4131,
      "ये ।\n": 4132,
      "शिष्य": 4133,
      " कर्तव्य": 4134,
      "सर्वेष": 4135,
      "__": 4136,
      "त्या ": 4137,
      "कृष्ट": 4138,
      "अति": 4139,
      "षि": 4140,
      " सेव": 4141,
      " मूल": 4142,
      "ज्ञाप": 4143,
      " क्व": 4144,
      " . . ": 4145,
      "स्था ": 4146,
      " एवं ": 4147,
      " सर": 4148,
      "ः अपि ": 4149,
      " सूर्य": 4150,
      "दिवस": 4151,
      "करोत": 4152,
      "पे": 4153,
      "ेतु": 4154,
      "नित्यं ": 4155,
      "स्यापि ": 4156,
      "े वा ": 4157,
      "ापर": 4158,
      "तन": 4159,
      "सि ।\n": 4160,
      "न्नं ": 4161,
      "क्ति ": 4162,
      "भविष्यत": 4163,
      " .\n": 4164,
      "धातु": 4165,
      "नग": 4166,
      "च् ": 4167,
      "ोण": 4168,
      " प्रिय": 4169,
      "श्रुत्वा ": 4170,
      "ः इति ": 4171,
      "ायै": 4172,
      " न च": 4173,
      "उत्त": 4174,
      "ोक्ष": 4175,
      " यत": 4176,
      "यतः ": 4177,
      "ाच्व": 4178,
      " जनव": 4179,
      "स्त्य": 4180,
      " रात्र": 4181,
      "उद": 4182,
      "न तु": 4183,
      " वृद्ध": 4184,
      "नम् ": 4185,
      "यम् ।\n": 4186,
      "द्भव": 4187,
      "पुनः ।\n": 4188,
      " द्वितीय": 4189,
      "ात्व": 4190,
      "गन्ध": 4191,
      "भूय": 4192,
      "घ्न": 4193,
      "त।\n": 4194,
      "रक्त": 4195,
      " मुक्त": 4196,
      " पठ": 4197,
      "ामेव": 4198,
      "द्योग": 4199,
      "भारतस्य": 4200,
      "निवृत्त": 4201,
      "दण्ड": 4202,
      "युज्य": 4203,
      "छात्र": 4204,
      "निर्ण": 4205,
      "लाय": 4206,
      "षध": 4207,
      " स्थाप": 4208,
      " सौ": 4209,
      "विद्याल": 4210,
      "ा एव": 4211,
      "मव": 4212,
      " सहस्र": 4213,
      "चार्य": 4214,
      "ैन्य": 4215,
      "स्स": 4216,
      "त्प्र": 4217,
      "ा.\n": 4218,
      "ार्श्व": 4219,
      "इयं ": 4220,
      "पर्यन्त": 4221,
      "श्म": 4222,
      "ादित्य": 4223,
      "ः एव": 4224,
      "ुः।\n": 4225,
      "२८": 4226,
      "पाक": 4227,
      "ः प्रति": 4228,
      "धाय": 4229,
      "कीर्त": 4230,
      "िते ": 4231,
      " निर्म": 4232,
      "माल": 4233,
      "ोत्तम": 4234,
      "ं देव": 4235,
      "30": 4236,
      "मद": 4237,
      "लम्ब": 4238,
      "५०": 4239,
      "रिक्ष": 4240,
      " वय": 4241,
      "ट्ट": 4242,
      " तमे वर्षे ": 4243,
      " गु": 4244,
      "निज": 4245,
      "ासि ": 4246,
      "नात": 4247,
      "ः ?\n": 4248,
      "उदाहरण": 4249,
      "गृह्ण": 4250,
      "बुध": 4251,
      "ित्स": 4252,
      "राश": 4253,
      " गच्छ": 4254,
      " स्त्रिय": 4255,
      " यत् ": 4256,
      "प्रोक्त": 4257,
      "ईश्वर": 4258,
      "केन": 4259,
      "सम्पाद": 4260,
      "रज": 4261,
      " सर्वत्र": 4262,
      "भी": 4263,
      "सोम": 4264,
      "हाय": 4265,
      "ासं": 4266,
      "खण्ड": 4267,
      "थ्य": 4268,
      "ो॒": 4269,
      " अत": 4270,
      "s\n": 4271,
      "ला ": 4272,
      "विशिष्ट": 4273,
      "श्रम": 4274,
      " सद": 4275,
      " P": 4276,
      "ीह": 4277,
      "भवन्त": 4278,
      "समये ": 4279,
      " अस्त": 4280,
      " दी": 4281,
      " संख्य": 4282,
      " बुद्ध": 4283,
      "ेि": 4284,
      "ापेक्ष": 4285,
      "साधन": 4286,
      " दोष": 4287,
      " हे ": 4288,
      "ं तद": 4289,
      "202": 4290,
      "पितृ": 4291,
      "गमन": 4292,
      " पत": 4293,
      "स्वभाव": 4294,
      "स्वर्ग": 4295,
      " उपयोग": 4296,
      "गर्भ": 4297,
      "चिक": 4298,
      "प्रवृत्त": 4299,
      " क्रम": 4300,
      "हेतु": 4301,
      "दा ।\n": 4302,
      "क्रमण": 4303,
      "तो": 4304,
      "इत्युक्त": 4305,
      "कुर्वन्त": 4306,
      "भाष्य": 4307,
      "े पर": 4308,
      "कर्त्त": 4309,
      "o ": 4310,
      "25": 4311,
      "भिर": 4312,
      "याय": 4313,
      "ं यथा ": 4314,
      "ाचर": 4315,
      "रणं ": 4316,
      "ीश": 4317,
      "ग्री": 4318,
      "राजा ": 4319,
      " विषय": 4320,
      " ये ": 4321,
      "तु ।\n": 4322,
      "्यं च": 4323,
      "सीत् ": 4324,
      " नर": 4325,
      "दृढ": 4326,
      "(क": 4327,
      " हर": 4328,
      "तथा च": 4329,
      "il": 4330,
      "खलु": 4331,
      "ताप": 4332,
      " उत्तर": 4333,
      "जायते ": 4334,
      " नव": 4335,
      "ं तस्य": 4336,
      "ात्मान": 4337,
      "आत्": 4338,
      "ास्थ": 4339,
      "ं ब": 4340,
      "क्तव्य": 4341,
      "समाप्त": 4342,
      "ाद्ध": 4343,
      "त\n": 4344,
      "ादु": 4345,
      " बल": 4346,
      " ओ": 4347,
      "ं \"": 4348,
      "ड्": 4349,
      "ोऽह": 4350,
      "तथैव": 4351,
      "अनेक": 4352,
      " क्षेत्र": 4353,
      "ुम् ": 4354,
      "मुद्र": 4355,
      "ं तथ": 4356,
      "िपीडिय": 4357,
      " अधिकार": 4358,
      "ि॥\n": 4359,
      "कू": 4360,
      "पौ": 4361,
      "न्तरं ": 4362,
      " प्रयोग": 4363,
      "प्रती": 4364,
      "स्य आ": 4365,
      "्+": 4366,
      " वयं ": 4367,
      "ितम् ॥\n": 4368,
      "यद्यपि ": 4369,
      "का": 4370,
      "ीति": 4371,
      "िति ।\n": 4372,
      "न्ह्य": 4373,
      ". .": 4374,
      "्ये ": 4375,
      "ित्वा ": 4376,
      "पुष्प": 4377,
      "्ः": 4378,
      " अध": 4379,
      "व्यापार": 4380,
      "न्मन": 4381,
      "िन्य": 4382,
      " अनुसंधान": 4383,
      "दन्त": 4384,
      "कुत्र": 4385,
      "भ्यास": 4386,
      "भुव": 4387,
      " साक्ष": 4388,
      "र्पण": 4389,
      " इत्येत": 4390,
      "ारम्भ": 4391,
      "ाता ": 4392,
      "बर": 4393,
      "खल": 4394,
      "ह्र": 4395,
      " मित्र": 4396,
      "यामास": 4397,
      "इदं ": 4398,
      "ाध्याय": 4399,
      "vi": 4400,
      " यदा ": 4401,
      " गण": 4402,
      "यद् ": 4403,
      " वेबसाइट": 4404,
      "र्ध्व": 4405,
      "मृत्य": 4406,
      "स एव": 4407,
      "भविष्यति ": 4408,
      "प्रभाव": 4409,
      "पुराण": 4410,
      "आस": 4411,
      " सर्वेष": 4412,
      ";\n": 4413,
      "ुख": 4414,
      "ूष": 4415,
      "ाक्यं ": 4416,
      "िप्": 4417,
      "िध": 4418,
      "गृहीत": 4419,
      " निर्": 4420,
      "ing": 4421,
      "a ": 4422,
      "चिर": 4423,
      "भयं ": 4424,
      "ृग": 4425,
      "ु-": 4426,
      " कल्प": 4427,
      "रह": 4428,
      "षि ": 4429,
      " सः ": 4430,
      " पार": 4431,
      " नियम": 4432,
      " लक्षण": 4433,
      "विशेषण": 4434,
      "शास": 4435,
      "ावत् ": 4436,
      "स्वयं ": 4437,
      "ण्ठ": 4438,
      "तेषु": 4439,
      " प्रण": 4440,
      " न्याय": 4441,
      "े?\n": 4442,
      "२९": 4443,
      "प्रसिद्ध": 4444,
      " पाठ": 4445,
      "मुन": 4446,
      "आद": 4447,
      "ै।\n": 4448,
      "लघु": 4449,
      "ाकर": 4450,
      "प्रार्थ": 4451,
      "ं प्रत्य": 4452,
      "भाषाय": 4453,
      " पूज": 4454,
      "कर्ण": 4455,
      "गौ": 4456,
      "रि ": 4457,
      "as": 4458,
      "ed": 4459,
      "यन्त्र": 4460,
      "परीत": 4461,
      "व्यय": 4462,
      " शी": 4463,
      "चक्र": 4464,
      " वाच": 4465,
      " नित्य": 4466,
      "ाऽपि ": 4467,
      "' इति ": 4468,
      "..\n": 4469,
      " औ": 4470,
      "येत् ॥\n": 4471,
      "र्न": 4472,
      "े.": 4473,
      "क्रोध": 4474,
      "प्रतिष्ठ": 4475,
      "(ग": 4476,
      "दीप": 4477,
      "यात्र": 4478,
      " हस्त": 4479,
      "थ्व": 4480,
      "अष्ट": 4481,
      "सो": 4482,
      "/\n": 4483,
      "साध्य": 4484,
      " अधिनियम": 4485,
      " घट": 4486,
      "तेऽ": 4487,
      "४०": 4488,
      "क्षि": 4489,
      "वश्यक": 4490,
      "ण्ट": 4491,
      "ाण्य": 4492,
      " अहं ": 4493,
      "िया ": 4494,
      "द्वय": 4495,
      "िश्च": 4496,
      "ो मह": 4497,
      "ं तव": 4498,
      "ानुसार": 4499,
      "200": 4500,
      "ेते ": 4501,
      "ad": 4502,
      "ाज्य": 4503,
      "स्तार": 4504,
      "क्रान्त": 4505,
      "संश": 4506,
      "इत्येव": 4507,
      " प्रतिशत": 4508,
      "बं": 4509,
      "स्थिर": 4510,
      " मध्ये ": 4511,
      "ूण": 4512,
      "ृष": 4513,
      " शक": 4514,
      " स्मृत": 4515,
      "राव": 4516,
      "क्क": 4517,
      "ग्व": 4518,
      "ः अस्ति ।\n": 4519,
      "ादिषु": 4520,
      "सर्व्व": 4521,
      "ूनि ": 4522,
      "स्ताव": 4523,
      "यव": 4524,
      "शीत": 4525,
      "स्य त": 4526,
      "ामि ।\n": 4527,
      "वित्र": 4528,
      "ा?\n": 4529,
      "ाय् ": 4530,
      "अधिकतम": 4531,
      "्क": 4532,
      "विष्ण": 4533,
      " पाद": 4534,
      "प्रत्येक": 4535,
      "ञ्छ": 4536,
      "सम्य": 4537,
      " संस्करण": 4538,
      "स्पर्श": 4539,
      "क्षत्र": 4540,
      " इत्यत्र": 4541,
      " प्रकाश": 4542,
      "ेन ।\n": 4543,
      "ज्ञेय": 4544,
      "ाम् अ": 4545,
      "कीय": 4546,
      "क्षर": 4547,
      "म्म": 4548,
      "शिर": 4549,
      "ातः ": 4550,
      "िषु": 4551,
      " मन्त्र": 4552,
      "विद्यते ।\n": 4553,
      "ः न ": 4554,
      "प्रवेश": 4555,
      "पुस्तक": 4556,
      "पृथिव": 4557,
      "चेत् ": 4558,
      "द्देश": 4559,
      "पृच्छ": 4560,
      "स च": 4561,
      "ङ्कार": 4562,
      "ेन\n": 4563,
      "ान्न ": 4564,
      "गाय": 4565,
      "यतो ": 4566,
      "वत् ": 4567,
      "ास्व": 4568,
      "ab": 4569,
      "वित्त": 4570,
      "िच्छ": 4571,
      "द्म": 4572,
      " दिश": 4573,
      "ं वद": 4574,
      "तस्मात् ": 4575,
      "ाहं ": 4576,
      "चन्द्र": 4577,
      "जर": 4578,
      "र्जन": 4579,
      "प्रयोजन": 4580,
      "त्रय": 4581,
      "चाल": 4582,
      " इन्द्र": 4583,
      " इत्येव": 4584,
      "t ": 4585,
      "अपर": 4586,
      "(ख": 4587,
      "21": 4588,
      "तार": 4589,
      "सति ": 4590,
      "ृत्व": 4591,
      "ाहि ": 4592,
      "पश्चिम": 4593,
      ":\n": 4594,
      " भवति ": 4595,
      "निर्दिष्ट": 4596,
      "चि ": 4597,
      "क्रियत": 4598,
      "वा ।\n": 4599,
      "ंक": 4600,
      "ौक": 4601,
      "स्वर": 4602,
      "स्पष्ट": 4603,
      " यत्": 4604,
      " विषये ": 4605,
      "ा इति ": 4606,
      "म् (": 4607,
      " दि": 4608,
      "स्नान": 4609,
      "ामपि ": 4610,
      "स्तथा ": 4611,
      " आत्": 4612,
      "ाब्द": 4613,
      "्)\n": 4614,
      "ंति ": 4615,
      "यन् ": 4616,
      "क्षा ": 4617,
      "समीप": 4618,
      "वर्तते ": 4619,
      "देवान": 4620,
      "ाग्न": 4621,
      " इत्युक्त": 4622,
      "24": 4623,
      "दुष्ट": 4624,
      "वे ": 4625,
      "निध": 4626,
      "त्वार": 4627,
      "ाष्ट्र": 4628,
      "ं ध": 4629,
      "सङ्ख्य": 4630,
      "\" इति ": 4631,
      "ैर्य": 4632,
      "िनः ": 4633,
      "ाजिक": 4634,
      "is": 4635,
      "तत्त": 4636,
      "मध": 4637,
      "र्ख": 4638,
      "निव": 4639,
      "न्तव्य": 4640,
      " समर्थ": 4641,
      "दुक्त": 4642,
      "आप": 4643,
      "निष": 4644,
      "भ्रम": 4645,
      "बाह": 4646,
      "प्राप्य": 4647,
      "संबन्ध": 4648,
      "म् अस्त": 4649,
      "स्यात": 4650,
      "मिव": 4651,
      "यश": 4652,
      "वो ": 4653,
      "पूर": 4654,
      " संयुक्त": 4655,
      "भवतः ": 4656,
      "े.\n": 4657,
      "लक्ष्य": 4658,
      "वीर": 4659,
      "३१": 4660,
      ") ।\n": 4661,
      "ेद्य": 4662,
      "प्रज": 4663,
      "मन्द": 4664,
      "ेड": 4665,
      " कुर्व": 4666,
      "An": 4667,
      "SS": 4668,
      "अस्ति ": 4669,
      " सोम": 4670,
      " यद्य": 4671,
      "गुल": 4672,
      "मानस": 4673,
      "नाद": 4674,
      "मस्त": 4675,
      "ोक": 4676,
      "्ह": 4677,
      " सूत्र": 4678,
      "पृथिव्य": 4679,
      "नै": 4680,
      " विकास": 4681,
      "ध्यत": 4682,
      "हृदय": 4683,
      "बीज": 4684,
      " उच्च": 4685,
      "मौ": 4686,
      "ा हि ": 4687,
      " सदा ": 4688,
      " पक्ष": 4689,
      " परस्पर": 4690,
      "....": 4691,
      "शून्य": 4692,
      "तानि ": 4693,
      " युद्ध": 4694,
      " लेख": 4695,
      "अनेन ": 4696,
      "स्तत्र": 4697,
      "ce": 4698,
      "ार्म": 4699,
      "न्दु": 4700,
      "रोच": 4701,
      " स्त्री": 4702,
      "पय": 4703,
      " क्रीड": 4704,
      " ङ": 4705,
      "ाच्छ": 4706,
      "कन्य": 4707,
      "्.\n": 4708,
      "इत्येत": 4709,
      "क्रियते ": 4710,
      "ैत्य": 4711,
      "भर": 4712,
      "ार्ष": 4713,
      "र्थं ": 4714,
      " ध्व": 4715,
      "ाि": 4716,
      "े॑": 4717,
      "३३": 4718,
      "भवान् ": 4719,
      " शत्र": 4720,
      "म्पर": 4721,
      "गल": 4722,
      "श्न": 4723,
      "साद": 4724,
      "कव": 4725,
      " इच्छ": 4726,
      "Home": 4727,
      "नेन": 4728,
      "भात": 4729,
      "साव": 4730,
      "द्यत": 4731,
      " M": 4732,
      "(घ": 4733,
      "उत्तम": 4734,
      "यन ": 4735,
      "पुण": 4736,
      "क्रमेण": 4737,
      "मोह": 4738,
      "ध्ये ": 4739,
      "भूव": 4740,
      "मै": 4741,
      "स्मरण": 4742,
      "ना ।\n": 4743,
      "वर्त्त": 4744,
      "िनि ": 4745,
      " समाचार": 4746,
      " वद": 4747,
      "चित्": 4748,
      "नो": 4749,
      "सान": 4750,
      "ेन्द्रिय": 4751,
      "आत्म": 4752,
      "स्नेह": 4753,
      "स्तस्य": 4754,
      "यत्त": 4755,
      "राज्यं ": 4756,
      "ेषु च": 4757,
      "प्रकरण": 4758,
      " कौ": 4759,
      "ावृत्त": 4760,
      "परं ": 4761,
      "स्म ।\n": 4762,
      "ज्र": 4763,
      "ः प्रत्य": 4764,
      "सर्वं ": 4765,
      " भवति ।\n": 4766,
      "ं सू": 4767,
      "ितः\n": 4768,
      " सम्म": 4769,
      "विद्यालय": 4770,
      "एम": 4771,
      "न्ह": 4772,
      " यज्ञ": 4773,
      "ं तत्र": 4774,
      "स्थाने ": 4775,
      " आर": 4776,
      "ास्म": 4777,
      " वस्तु": 4778,
      "श्रद्ध": 4779,
      "ॄण": 4780,
      " करिष्य": 4781,
      "संयोग": 4782,
      "रात्रौ": 4783,
      " ...\n": 4784,
      "de": 4785,
      "पट": 4786,
      " विव": 4787,
      "ः कृत": 4788,
      "िकल्प": 4789,
      "म् अनु": 4790,
      " कर्मण": 4791,
      "निर्माण": 4792,
      "त्वे ": 4793,
      " ण": 4794,
      "ारी": 4795,
      "स्तव": 4796,
      " यो ": 4797,
      " समुद्र": 4798,
      "े)": 4799,
      "वक्ष्यामि ": 4800,
      " सङ्": 4801,
      "सूचना ": 4802,
      "परिणाम": 4803,
      "ंड": 4804,
      "ं वर्त": 4805,
      "ङ्ग्ल": 4806,
      "ोन": 4807,
      "ा ह": 4808,
      " यान": 4809,
      "स्वी": 4810,
      "स्थल": 4811,
      " पर्व": 4812,
      "ol": 4813,
      "ंद": 4814,
      "वाल": 4815,
      " हित": 4816,
      " दुर्": 4817,
      "गोप": 4818,
      "नास्त": 4819,
      "गृह्य": 4820,
      "ं आ": 4821,
      " कदाच": 4822,
      "िक्र": 4823,
      "दूषण": 4824,
      "त्पन्न": 4825,
      "पति": 4826,
      "िच": 4827,
      "े द": 4828,
      " पुस्त": 4829,
      " ऐ": 4830,
      "सो ": 4831,
      "स त": 4832,
      "(ग)": 4833,
      " प्रधान": 4834,
      "समय": 4835,
      " धन": 4836,
      "शक्": 4837,
      "विभ": 4838,
      " प्रमाण": 4839,
      "ाचीन": 4840,
      "बाह्य": 4841,
      "मोद": 4842,
      "े ह": 4843,
      "न स": 4844,
      "सङ्क": 4845,
      "सृष्ट": 4846,
      "ार्ह": 4847,
      " प्रज": 4848,
      "परस्पर": 4849,
      "स्वाम": 4850,
      "सक": 4851,
      "३२": 4852,
      "विप्र": 4853,
      "ाति": 4854,
      "त्\n": 4855,
      "धिष्ठ": 4856,
      "कुमार": 4857,
      " स्वर्ग": 4858,
      "रिद्र": 4859,
      "कोट": 4860,
      "िट": 4861,
      "विश्य": 4862,
      " यस्य": 4863,
      "ेद् ": 4864,
      "ाधिप": 4865,
      "त एव": 4866,
      "िरूप": 4867,
      "बृह": 4868,
      "र्त्य": 4869,
      "ज्योति": 4870,
      "प्रथ": 4871,
      "स्तथ": 4872,
      "जीवित": 4873,
      " यू": 4874,
      " शरीर": 4875,
      " निष्": 4876,
      "पाय": 4877,
      " केवलं ": 4878,
      "धाव": 4879,
      "ेत्र": 4880,
      "म् _\n": 4881,
      " विक": 4882,
      "ागु": 4883,
      "े ज": 4884,
      "मानुष": 4885,
      "ान्ति ": 4886,
      "ये च": 4887,
      "एतद": 4888,
      "सित": 4889,
      "स्मर": 4890,
      " जू": 4891,
      "याति ": 4892,
      "विनाश": 4893,
      "ादिव": 4894,
      " कश्च": 4895,
      "नाम्न": 4896,
      "दृश्यते ।\n": 4897,
      "पत्": 4898,
      "ीक": 4899,
      "ञ्जन": 4900,
      "ार्थिव": 4901,
      "दुर्लभ": 4902,
      "23": 4903,
      "्न ": 4904,
      "ा तु": 4905,
      "त्याग": 4906,
      " मार्ग": 4907,
      " भेद": 4908,
      "वध": 4909,
      "ाधि": 4910,
      " C": 4911,
      "े श": 4912,
      " समान": 4913,
      " दू": 4914,
      " समीप": 4915,
      "ाष्ट": 4916,
      "त्यक्त": 4917,
      "वार्त": 4918,
      "युष्म": 4919,
      "आई": 4920,
      "यः स": 4921,
      "ः त": 4922,
      "युव": 4923,
      "जायत": 4924,
      "(ख)": 4925,
      "नास्ति ": 4926,
      " वृत्त": 4927,
      " मास": 4928,
      "मध्यम": 4929,
      "of": 4930,
      "se": 4931,
      "गति": 4932,
      "नीत": 4933,
      "दृश्यत": 4934,
      " क्षण": 4935,
      "उत्पाद": 4936,
      "ेन्": 4937,
      "ेगु": 4938,
      "े एव": 4939,
      " प्रभाव": 4940,
      " देह": 4941,
      "क्षिप": 4942,
      "ौं": 4943,
      "ौ त": 4944,
      "र्जित": 4945,
      "इगु": 4946,
      "जाल": 4947,
      "ा॥\n": 4948,
      " दीर्घ": 4949,
      "(घ)": 4950,
      "ाक्रम": 4951,
      "ं व्य": 4952,
      "वल": 4953,
      "सत्त्व": 4954,
      " अस्य": 4955,
      "ब्रवी": 4956,
      " मुख्य": 4957,
      "भग": 4958,
      "भोज": 4959,
      "कारेण": 4960,
      "प्रतिपाद": 4961,
      "भविष्यति ।\n": 4962,
      "न्ध्य": 4963,
      "ः--": 4964,
      "े सम": 4965,
      "कारः ": 4966,
      "मण्डल": 4967,
      " नं ": 4968,
      "रिष्ठ": 4969,
      "दृश्यते ": 4970,
      " m": 4971,
      "केन्द्र": 4972,
      " द्वारा ": 4973,
      "नार्थ": 4974,
      "याद": 4975,
      "ी'": 4976,
      "म् \"": 4977,
      " अस्म": 4978,
      "27": 4979,
      "हृत": 4980,
      " भक्त": 4981,
      "ान्ध": 4982,
      "ीर्य": 4983,
      "ूँ": 4984,
      "ो,": 4985,
      "ो नाम": 4986,
      " वाक्य": 4987,
      "ं विश्व": 4988,
      " संशयः ॥\n": 4989,
      "पि ।\n": 4990,
      "दध": 4991,
      "श च": 4992,
      "गच्छत": 4993,
      "निवेश": 4994,
      " वर्तमान": 4995,
      "त्येव": 4996,
      "परिम": 4997,
      "समन्व": 4998,
      "िण्ड": 4999,
      " पुनर": 5000,
      "श्लोक": 5001,
      " क्ल": 5002,
      "ष्व": 5003,
      "ं भवत": 5004,
      "ुमर्ह": 5005,
      "चय": 5006,
      "र्षण": 5007,
      "ऋण": 5008,
      "खिल": 5009,
      "िब": 5010,
      "ेर्": 5011,
      "संस्थ": 5012,
      "नेक": 5013,
      "हो": 5014,
      " विभाग": 5015,
      "नया ": 5016,
      " युक्त": 5017,
      "सहित": 5018,
      "हान": 5019,
      "ह्न": 5020,
      " पत्र": 5021,
      " अति": 5022,
      "ः सू": 5023,
      "मनो": 5024,
      " व्र": 5025,
      "तोऽ": 5026,
      "र्थ्य": 5027,
      "नुम": 5028,
      "यः -": 5029,
      "लिप": 5030,
      "स्य ।\n": 5031,
      "वायु": 5032,
      "विद्यमान": 5033,
      "द्धि ": 5034,
      "गमिष्य": 5035,
      "(क)": 5036,
      "- \"": 5037,
      "ड़": 5038,
      "ु॑": 5039,
      " राम": 5040,
      "साधारण": 5041,
      "शान": 5042,
      "द्वारा ": 5043,
      " मा ": 5044,
      "ङ्गल": 5045,
      "ःगु": 5046,
      "ः उ": 5047,
      " तप": 5048,
      "ाकाल": 5049,
      "रण्य": 5050,
      "क्षस": 5051,
      "त्वात": 5052,
      "मिति ।\n": 5053,
      "्यताम": 5054,
      "यद्व": 5055,
      "़ा": 5056,
      "योग्य": 5057,
      "वाच्य": 5058,
      "सन्द": 5059,
      "े मह": 5060,
      " साह": 5061,
      " सूचना ": 5062,
      " ब्रह्म": 5063,
      "हल": 5064,
      "३६": 5065,
      " दूर": 5066,
      "िणी": 5067,
      "एषा ": 5068,
      "26": 5069,
      "तेज": 5070,
      "भ्यं ": 5071,
      "परीक्ष": 5072,
      " श्व": 5073,
      "शङ्क": 5074,
      "ापू": 5075,
      "गान": 5076,
      "्द": 5077,
      "वेदन ": 5078,
      "दास": 5079,
      "येत् ": 5080,
      "ः वि": 5081,
      "ो भवत": 5082,
      " तृतीय": 5083,
      "तीति ।\n": 5084,
      " p": 5085,
      "अध्याय": 5086,
      "यास": 5087,
      "ं नाम": 5088,
      "योक्त": 5089,
      "दिश्य": 5090,
      "चरण": 5091,
      "ाए": 5092,
      "ः =": 5093,
      " याय": 5094,
      "गम्य": 5095,
      " कृत्वा ": 5096,
      "तदेव": 5097,
      "त्वमेव": 5098,
      " न तु": 5099,
      "न्दर": 5100,
      "भगवान् ": 5101,
      "िप्पण": 5102,
      "वाण": 5103,
      "िद्र": 5104,
      " या ": 5105,
      "िर्य": 5106,
      "वृत": 5107,
      "३५": 5108,
      " अतः ": 5109,
      "ाहार": 5110,
      "ं मया ": 5111,
      "पिता ": 5112,
      "ैर्व": 5113,
      "े (": 5114,
      "पूज्य": 5115,
      "स्तुत": 5116,
      "स्यैव": 5117,
      "संस्कार": 5118,
      "शस्त्र": 5119,
      "् आ": 5120,
      "क्ट": 5121,
      "ोऽहं ": 5122,
      "ल्क": 5123,
      "50": 5124,
      "समाचार": 5125,
      "ध्रुव": 5126,
      "तस्मिन् ": 5127,
      "ास्": 5128,
      "ते स": 5129,
      " मे": 5130,
      " निर": 5131,
      " च ॥\n": 5132,
      "येन": 5133,
      "ो ज": 5134,
      "ाकाश": 5135,
      "22": 5136,
      "नास": 5137,
      "स्य प": 5138,
      "ज्ञात्वा ": 5139,
      " तिथ": 5140,
      "त्त्र": 5141,
      " अधिकतम": 5142,
      "\" सम्बद्धानि पृष्ठानि\n": 5143,
      "अल": 5144,
      "४५": 5145,
      " नार": 5146,
      " निर्व": 5147,
      "ौर": 5148,
      " मू": 5149,
      "त्वाद": 5150,
      "तः प्र": 5151,
      "एकः ": 5152,
      " लाभ": 5153,
      "प्रसङ्ग": 5154,
      "विवेक": 5155,
      "श्लेषण": 5156,
      " L": 5157,
      "ातन्त्र": 5158,
      "दुर्ग": 5159,
      "३७": 5160,
      "त्साह": 5161,
      " सूचन": 5162,
      "नेव": 5163,
      "ितान": 5164,
      "ेष्य": 5165,
      "देवी": 5166,
      "भावः ।\n": 5167,
      "करणीय": 5168,
      " भारतीय": 5169,
      "नानि ": 5170,
      "ि ॥\n": 5171,
      " द्वि": 5172,
      "पत्य": 5173,
      "ा द": 5174,
      "निवर्त": 5175,
      "द्वीप": 5176,
      "03": 5177,
      "ं स्य": 5178,
      "ायाम् ": 5179,
      "त्सु": 5180,
      "ं किम": 5181,
      "ट्": 5182,
      "निषेध": 5183,
      " प्रत": 5184,
      " विना ": 5185,
      "मुद": 5186,
      "न्नत": 5187,
      " / ": 5188,
      "ामु": 5189,
      " का ": 5190,
      "चन ": 5191,
      "क्षत": 5192,
      "अस": 5193,
      "खु": 5194,
      "भोजन": 5195,
      " अयं ": 5196,
      "ेयः ": 5197,
      "ा (": 5198,
      "ो यथा ": 5199,
      "समाज": 5200,
      "ाढ": 5201,
      " आत्म": 5202,
      "च्छ्र": 5203,
      "च्यते ॥\n": 5204,
      "िता ।\n": 5205,
      "सीद": 5206,
      "स्य श": 5207,
      "र्थे ": 5208,
      "पि न ": 5209,
      " T": 5210,
      "ैं": 5211,
      "श्चैव": 5212,
      "श्रवण": 5213,
      " वृक्ष": 5214,
      "वस्त": 5215,
      "ं ते ": 5216,
      "ायोग": 5217,
      "नाथ": 5218,
      "यॊ": 5219,
      "ायत": 5220,
      "करोम": 5221,
      "श्वेत": 5222,
      "शिख": 5223,
      "अधिकार": 5224,
      "मथ": 5225,
      "ि--": 5226,
      "त्वात् ।\n": 5227,
      "युत": 5228,
      " भूत": 5229,
      "मोक्ष": 5230,
      "ाच्वं": 5231,
      "Ans": 5232,
      "्!\n": 5233,
      "सूचन": 5234,
      "ाख्यात": 5235,
      "शोभ": 5236,
      " शिक्ष": 5237,
      "el": 5238,
      "ाप्नोति ।\n": 5239,
      "ं पठ": 5240,
      "tr": 5241,
      " सन्ति ।\n": 5242,
      " एव ।\n": 5243,
      " इत्यु": 5244,
      " कार्यं ": 5245,
      "आग": 5246,
      " वर्ग": 5247,
      " द्वार": 5248,
      "अग्र": 5249,
      "ाबल": 5250,
      "िन ": 5251,
      "ीत्वा ": 5252,
      "व्रत": 5253,
      "(ii)": 5254,
      "यनं ": 5255,
      "ः म": 5256,
      "व्यवसाय": 5257,
      "पुट": 5258,
      " निश्च": 5259,
      "नः ।\n": 5260,
      "र्भव": 5261,
      " मृत्य": 5262,
      "di": 5263,
      "शासन": 5264,
      "ं मम": 5265,
      "चिव": 5266,
      "ही": 5267,
      "िर् ": 5268,
      "ा,\n": 5269,
      "२०७": 5270,
      "नाव": 5271,
      "भज": 5272,
      "म् उप": 5273,
      "रोप": 5274,
      "ाध्यम": 5275,
      "यूयं ": 5276,
      "अतो ": 5277,
      "षड": 5278,
      "ाद्र": 5279,
      "शीर्ष": 5280,
      "हम": 5281,
      "ोलिखित": 5282,
      "ाधार": 5283,
      "राणि ": 5284,
      "ap": 5285,
      "ं कृत्वा ": 5286,
      "यस्म": 5287,
      "ितर": 5288,
      "त्यज": 5289,
      "द्भाव": 5290,
      " मुख": 5291,
      "रहित": 5292,
      " शीघ्र": 5293,
      "दूष": 5294,
      "ा -": 5295,
      " वाय": 5296,
      "ेन प्र": 5297,
      "कारक": 5298,
      " परीक्षण": 5299,
      "लः ": 5300,
      "ेनापि ": 5301,
      "दुर": 5302,
      "इत्याद": 5303,
      " व्यक्त": 5304,
      " श्रु": 5305,
      "गत्वा ": 5306,
      "ूः": 5307,
      "ं र": 5308,
      "विकास": 5309,
      "परिभाष": 5310,
      "ात्\n": 5311,
      "भारते ": 5312,
      "II": 5313,
      "ी अ": 5314,
      "स्तद": 5315,
      " के": 5316,
      "ावत": 5317,
      "Re": 5318,
      " प्राय": 5319,
      "ं विद्य": 5320,
      "कृपया ": 5321,
      "े सर्व": 5322,
      ". अ": 5323,
      " इदान": 5324,
      "कुत": 5325,
      "भूतान": 5326,
      "दि ": 5327,
      " ततो ": 5328,
      " युव": 5329,
      "इतर": 5330,
      "ेयम": 5331,
      "अग्नि": 5332,
      "ः पूर्व": 5333,
      "विद्व": 5334,
      " परीक्षा ": 5335,
      " प्रश्न": 5336,
      "घृत": 5337,
      "पल": 5338,
      "श् च": 5339,
      "ैः\n": 5340,
      " नैव": 5341,
      "तीर्थ": 5342,
      " B": 5343,
      "जू": 5344,
      "ी स": 5345,
      "ावर्त": 5346,
      " हेत": 5347,
      " स्वरूप": 5348,
      " किन्तु": 5349,
      "ी\"": 5350,
      "तुल्य": 5351,
      "दा ॥\n": 5352,
      "ीर्ण": 5353,
      "अय": 5354,
      "सं ": 5355,
      "ो भवति ": 5356,
      " ः ": 5357,
      "ः काल": 5358,
      " अध्याय": 5359,
      "विविध": 5360,
      "ay": 5361,
      "वेत": 5362,
      "सन्न": 5363,
      "ो।\n": 5364,
      "ङ्क्त": 5365,
      "दर": 5366,
      "मं ": 5367,
      "यश्च": 5368,
      "भिध": 5369,
      "ः कर्म": 5370,
      "अनुसंधान": 5371,
      "तद्य": 5372,
      "त आह": 5373,
      "ीष्ट": 5374,
      "िरिति ": 5375,
      "केत": 5376,
      "पाव": 5377,
      "हृ": 5378,
      "त्वपूर्ण": 5379,
      "कुट": 5380,
      "जानाति ": 5381,
      " संशयः ।\n": 5382,
      "वः ।\n": 5383,
      "ृश": 5384,
      " उत्त": 5385,
      " ईश्वर": 5386,
      "पात्र": 5387,
      " तथापि ": 5388,
      "४४": 5389,
      "ं वेद": 5390,
      "िला ": 5391,
      "इष्ट": 5392,
      "ि;": 5393,
      " उत्पाद": 5394,
      " ह्र": 5395,
      "सागर": 5396,
      "ानन्द": 5397,
      "राह": 5398,
      "मानं ": 5399,
      "गृहे ": 5400,
      "माम": 5401,
      "लय": 5402,
      "ितु": 5403,
      "परमेश्वर": 5404,
      "ोत्त": 5405,
      "विरुद्ध": 5406,
      " करण": 5407,
      "िकार": 5408,
      "उभय": 5409,
      "ां,": 5410,
      " यज": 5411,
      "ग्राह्य": 5412,
      "विधि": 5413,
      "गू": 5414,
      "भृत": 5415,
      "रे": 5416,
      "लित": 5417,
      "न अ": 5418,
      "ो यथ": 5419,
      " मनुष्य": 5420,
      " द्य": 5421,
      "रोह": 5422,
      "द्विष": 5423,
      "मि ": 5424,
      "28": 5425,
      "इतिहास": 5426,
      "ैन": 5427,
      "निय": 5428,
      "बालक": 5429,
      "ची": 5430,
      "् एव": 5431,
      " सर्व्व": 5432,
      " दृष्ट्वा ": 5433,
      "विभक्त": 5434,
      "देवि ": 5435,
      "प्रसाद": 5436,
      "भवेत": 5437,
      " ह्य": 5438,
      "गोल": 5439,
      "प्रभात": 5440,
      "केश": 5441,
      "जार": 5442,
      "हन": 5443,
      "े!\n": 5444,
      "ारु": 5445,
      " तिष्ठ": 5446,
      "िकं ": 5447,
      "क्रय": 5448,
      "तस्माद": 5449,
      " (प": 5450,
      "ताल": 5451,
      "येष": 5452,
      "रेण": 5453,
      "ाङ": 5454,
      " सय": 5455,
      " सम्य": 5456,
      "ं कि": 5457,
      "दापि ": 5458,
      "शक्ति": 5459,
      " झ": 5460,
      "ot": 5461,
      "४१": 5462,
      "ायक": 5463,
      "सर्वाणि ": 5464,
      "ः कश्च": 5465,
      "ow": 5466,
      "ानि": 5467,
      " सार": 5468,
      "मयि ": 5469,
      "फ्र": 5470,
      "५५": 5471,
      " अपर": 5472,
      "दुष्": 5473,
      "अस्माक": 5474,
      "हिम": 5475,
      "संहित": 5476,
      "सि ॥\n": 5477,
      "समुदाय": 5478,
      "ऋष": 5479,
      "यं": 5480,
      "्लोक": 5481,
      " समास": 5482,
      "ः पुरुष": 5483,
      "पूर्वं ": 5484,
      "न्तु ।\n": 5485,
      "ं पश्य": 5486,
      "राष्ट्रिय": 5487,
      " फरव": 5488,
      "ृष्ण": 5489,
      "विल": 5490,
      "तिरिक्त": 5491,
      " शेष": 5492,
      "ः सह": 5493,
      " t": 5494,
      "दुप": 5495,
      " येन ": 5496,
      "स्मिन्न": 5497,
      "भ्रात": 5498,
      "ig": 5499,
      "नृप": 5500,
      "भो ": 5501,
      "४७": 5502,
      "ापु": 5503,
      "ियुक्त": 5504,
      "परिवार": 5505,
      "नक": 5506,
      "हन्त": 5507,
      "ं कर्त": 5508,
      "त्कृष्ट": 5509,
      " उद": 5510,
      " धन्य": 5511,
      " छात्र": 5512,
      "लाल": 5513,
      "्;": 5514,
      " तं ": 5515,
      " अद्य": 5516,
      " च।\n": 5517,
      "ं वर्ष": 5518,
      " भवन्त": 5519,
      "े च ।\n": 5520,
      "नमः ।\n": 5521,
      " अनेक": 5522,
      "नेत": 5523,
      "पाण": 5524,
      "ा:": 5525,
      "ायं ": 5526,
      " तद्व": 5527,
      "ान्ते ": 5528,
      " रोग": 5529,
      "SS@": 5530,
      "02": 5531,
      "xx": 5532,
      "मर्थ": 5533,
      "शर": 5534,
      " तत्त्व": 5535,
      "मुनि": 5536,
      " उत्तम": 5537,
      "८०": 5538,
      "संशय": 5539,
      "म् अस्ति ": 5540,
      "नेत्र": 5541,
      "धृत": 5542,
      "भार्य": 5543,
      "ल् ": 5544,
      "ेन्न": 5545,
      "स्पृ": 5546,
      " प्रत्येक": 5547,
      "ो॑": 5548,
      "ा त": 5549,
      "थु": 5550,
      "न।\n": 5551,
      "य्य": 5552,
      "शृण": 5553,
      "रुद्र": 5554,
      " गो": 5555,
      " कुर्य": 5556,
      " मुद्र": 5557,
      "पद्यत": 5558,
      "दौ": 5559,
      "सृज": 5560,
      " वाम": 5561,
      "िनः ।\n": 5562,
      "सूक्ष्म": 5563,
      "वृष्ट": 5564,
      "श्रू": 5565,
      " समाज": 5566,
      " विकल्प": 5567,
      "ेन सं": 5568,
      "परीक्षण": 5569,
      "ट्र": 5570,
      "शै": 5571,
      "ुर्": 5572,
      "विमान": 5573,
      "तुल": 5574,
      "अस्ति ।\n": 5575,
      "माप": 5576,
      " प्रदेश": 5577,
      " स्वयं ": 5578,
      "04": 5579,
      "ोद्ध": 5580,
      " चिन्त": 5581,
      "ज्ञानं ": 5582,
      "सदस्य": 5583,
      "ार्थे ": 5584,
      "भागे ": 5585,
      "चतुर्थ": 5586,
      "मा": 5587,
      "ं गत": 5588,
      "न्द्व": 5589,
      "परन्तु": 5590,
      " इत्यर्थ": 5591,
      "un": 5592,
      "कोप": 5593,
      "४९": 5594,
      "विहित": 5595,
      "निरूप": 5596,
      "ालये ": 5597,
      "कृति ": 5598,
      "ation": 5599,
      "e\n": 5600,
      "नौ": 5601,
      "भद्र": 5602,
      " मन्य": 5603,
      "१९९": 5604,
      "01": 5605,
      "म् एक": 5606,
      "निपात": 5607,
      "ावद": 5608,
      "लोक्य": 5609,
      "सूक्त": 5610,
      "ृते ": 5611,
      "े त्व": 5612,
      "ायात": 5613,
      " शिव": 5614,
      "ङ्घ": 5615,
      " इत्यर्थः ।\n": 5616,
      "एषः ": 5617,
      "ाटक": 5618,
      "सदा ": 5619,
      "ो ह्य": 5620,
      "ाय नमः ।\n": 5621,
      "er ": 5622,
      " कोई": 5623,
      "ेग": 5624,
      "६०": 5625,
      "विन्द": 5626,
      "तदान": 5627,
      "कल्य": 5628,
      "(i)": 5629,
      "शिय": 5630,
      " इति ॥\n": 5631,
      "SF": 5632,
      "ac": 5633,
      "िक्त": 5634,
      " नगर": 5635,
      "जनान": 5636,
      "मिह": 5637,
      "ीद": 5638,
      " दत्त": 5639,
      "संवत्स": 5640,
      "म्न": 5641,
      "विद्यत": 5642,
      "et": 5643,
      "जप": 5644,
      "श्यं ": 5645,
      "सख": 5646,
      "ं जग": 5647,
      " पुण्य": 5648,
      "म्बर": 5649,
      "टिप्पण": 5650,
      "रू": 5651,
      "ं मे ": 5652,
      "जीवन": 5653,
      "मन्त्री": 5654,
      "क्षुष": 5655,
      "ना": 5656,
      "यत् ।\n": 5657,
      "जायते ।\n": 5658,
      " विकिपीडिय": 5659,
      "कम्प": 5660,
      "माव": 5661,
      "ृप्त": 5662,
      "र्थिक": 5663,
      " चित्र": 5664,
      "ाचार्य": 5665,
      " करोत": 5666,
      " *": 5667,
      "आव": 5668,
      "३८": 5669,
      "न्यून": 5670,
      "ur": 5671,
      "ः ख": 5672,
      "ारूप": 5673,
      "ः अस्ति ": 5674,
      "ार्द": 5675,
      " व्याप": 5676,
      "छन्द": 5677,
      "न म": 5678,
      "ादपि ": 5679,
      "भवत् ": 5680,
      " योजन": 5681,
      "े अपि ": 5682,
      "ेभ्यो ": 5683,
      "योजनं ": 5684,
      "ं गृह": 5685,
      "एतेन ": 5686,
      "उद्": 5687,
      "विज": 5688,
      "ो भवति ।\n": 5689,
      "जानामि ": 5690,
      "निर्मित": 5691,
      ", स": 5692,
      "आय": 5693,
      "ूनं ": 5694,
      " शान्त": 5695,
      "तः पर": 5696,
      "ं मन्य": 5697,
      " दान": 5698,
      " कृप": 5699,
      " शक्यत": 5700,
      "वीत": 5701,
      "र्दश": 5702,
      " परा": 5703,
      " समाप्त": 5704,
      "ी)": 5705,
      "ून्य": 5706,
      "३४": 5707,
      "स्य सं": 5708,
      " वन": 5709,
      "द्यु": 5710,
      "सुत": 5711,
      "ाक् ": 5712,
      "रणे ": 5713,
      "सम्प्र": 5714,
      "यामि ।\n": 5715,
      "ाश्रय": 5716,
      "जन्य": 5717,
      "सोऽ": 5718,
      " आसीत् ।\n": 5719,
      "एतेष": 5720,
      "क्लेश": 5721,
      "वचनं ": 5722,
      "कर्मणि ": 5723,
      "ूर्ण": 5724,
      "्यर्थ": 5725,
      "म् च": 5726,
      "ाभिर": 5727,
      "दर्शनं ": 5728,
      " तथैव": 5729,
      "ास्थ्य": 5730,
      "नाह": 5731,
      "भर्त": 5732,
      "ाकरण": 5733,
      "ा वा ": 5734,
      "ो ग": 5735,
      "त्वं च": 5736,
      "पूजय": 5737,
      "ब्ब": 5738,
      "पदे ": 5739,
      "रक्षित": 5740,
      "अपि च": 5741,
      "तादृश": 5742,
      "से": 5743,
      "िन्द": 5744,
      " प्रार्थ": 5745,
      " परीक्ष": 5746,
      "शुक्र": 5747,
      "३९": 5748,
      "ये ॥\n": 5749,
      "सम्पूर्ण": 5750,
      "ज्येष्ठ": 5751,
      "ं विना ": 5752,
      "वदत": 5753,
      "मूल्य": 5754,
      "ार्मिक": 5755,
      "'\n": 5756,
      "्/": 5757,
      "द्वयं ": 5758,
      " s": 5759,
      ". स": 5760,
      "em": 5761,
      "ंभ": 5762,
      "ःः": 5763,
      "भवेत् ।\n": 5764,
      "वृत्ति": 5765,
      "व्याख्यात": 5766,
      "ज्यत": 5767,
      "ोत्सव": 5768,
      "ार्च": 5769,
      "प्रकारेण": 5770,
      "अधुना ": 5771,
      "आकाश": 5772,
      "व्याध": 5773,
      "स्पर्ध": 5774,
      " प्रत्यक्ष": 5775,
      "कप": 5776,
      "धीर": 5777,
      "शृणु": 5778,
      "ुः,": 5779,
      "तीत": 5780,
      "ी न": 5781,
      " पे": 5782,
      " अस्ति ।\n": 5783,
      " प्राप्य": 5784,
      "ान्तरे ": 5785,
      "कृष": 5786,
      "सम्प": 5787,
      "ादिभ": 5788,
      "नेपाल": 5789,
      " पश्चिम": 5790,
      "ो वै": 5791,
      "नुव": 5792,
      "ाधान": 5793,
      " (=": 5794,
      " स्वप्न": 5795,
      "यदि वा ": 5796,
      "उपयोगकर्ता ": 5797,
      "विदेश": 5798,
      "िद् ": 5799,
      "ं यत् ": 5800,
      "ाग्नि": 5801,
      "29": 5802,
      "कस्म": 5803,
      "किल": 5804,
      "भीत": 5805,
      "लक्ष्म": 5806,
      "वि ": 5807,
      "40": 5808,
      "विकार": 5809,
      "पुष्ट": 5810,
      "ङ्ख": 5811,
      "शब्देन ": 5812,
      "प्रश्न ": 5813,
      "-अ": 5814,
      "- अ": 5815,
      "com": 5816,
      "े ऽ": 5817,
      " इत्याह": 5818,
      " कथं ": 5819,
      "ाश्रम": 5820,
      "प्रसारण": 5821,
      "यिष्यामि ": 5822,
      "चीन": 5823,
      "ाय नम": 5824,
      " मात्र": 5825,
      "तिरेक": 5826,
      "ear": 5827,
      "ोच्च": 5828,
      "४६": 5829,
      "ासौ": 5830,
      "िन्व": 5831,
      "गुह": 5832,
      "रूपं ": 5833,
      "ह्": 5834,
      "े स्थित": 5835,
      "ो धर्म": 5836,
      "म् इत्य": 5837,
      "न्तरे ": 5838,
      "ापद": 5839,
      "त्वेन": 5840,
      "अन्यत्र": 5841,
      "किमपि ": 5842,
      "तिथि ": 5843,
      "पीत": 5844,
      "याच": 5845,
      "ीर्थ": 5846,
      "ुम्ब": 5847,
      "प्रयुक्त": 5848,
      "ात्वा ": 5849,
      " पिता ": 5850,
      "ाङ्क्ष": 5851,
      "ेक्षण": 5852,
      "ाली": 5853,
      "व्याप्त": 5854,
      " संसार": 5855,
      "ोऽस्म": 5856,
      " समय": 5857,
      "ew": 5858,
      "ीति ।\n": 5859,
      "ेँ": 5860,
      "देशस्य": 5861,
      "पुनः प्र": 5862,
      "पित्र": 5863,
      "ङ् ": 5864,
      "न त": 5865,
      "ाह्न": 5866,
      " गति": 5867,
      " धार": 5868,
      "ं सह": 5869,
      "शक्ति ": 5870,
      "उभ": 5871,
      " कन्य": 5872,
      "मेध": 5873,
      "वने ": 5874,
      "्यमान": 5875,
      "े,\n": 5876,
      " पृथिव": 5877,
      " D": 5878,
      "ul": 5879,
      "नत": 5880,
      "ति स": 5881,
      " यः ": 5882,
      "समस्त": 5883,
      "तमेव": 5884,
      " भूम": 5885,
      "पर्वत": 5886,
      "नगरे ": 5887,
      "अत्य": 5888,
      "णि ": 5889,
      "येद": 5890,
      " प्रशिक्षण": 5891,
      "श्वर्य": 5892,
      "ास्ते ": 5893,
      " कुरु": 5894,
      "ीश्वर": 5895,
      "४८": 5896,
      "ः इत्य": 5897,
      " अस्ति ": 5898,
      "कुशल": 5899,
      "बुद्धि": 5900,
      "कोऽ": 5901,
      "रास": 5902,
      " मत": 5903,
      "ं तत्": 5904,
      " खलु": 5905,
      "अधोलिखित": 5906,
      "ने ।\n": 5907,
      "यानि ": 5908,
      "लान": 5909,
      "षद": 5910,
      "ौ ॥\n": 5911,
      "स्यात् ": 5912,
      "ति ?\n": 5913,
      "निद्र": 5914,
      " प्रवेश": 5915,
      "रुक्त": 5916,
      "श्रेय": 5917,
      " श्रेष्ठ": 5918,
      "हरण": 5919,
      "ेया ": 5920,
      " परिवर्त": 5921,
      "इत्थ": 5922,
      "लाख": 5923,
      "योर्": 5924,
      "चित् ।\n": 5925,
      " श्रुत": 5926,
      "यत्नेन ": 5927,
      "व्याघ्र": 5928,
      "us": 5929,
      "चर्य": 5930,
      "ं भवति ।\n": 5931,
      "निर्वाच": 5932,
      "ादयः ": 5933,
      "स्वतन्त्र": 5934,
      "ात्कार": 5935,
      "मूर्त": 5936,
      " न्ह्य": 5937,
      "अश्व": 5938,
      "र्पित": 5939,
      "शत्रु": 5940,
      "उत": 5941,
      "मरण": 5942,
      "ा प": 5943,
      "िरेव": 5944,
      "क्षिप्त": 5945,
      "-'": 5946,
      "चक्ष": 5947,
      "कारिण": 5948,
      "योजय": 5949,
      " रथ": 5950,
      " तद् ": 5951,
      "दिक": 5952,
      "न व": 5953,
      "स्यात् ।\n": 5954,
      "ाः\"": 5955,
      " शुद्ध": 5956,
      " शास्त्र": 5957,
      "द्वै": 5958,
      " गिर": 5959,
      "वृष": 5960,
      "१००": 5961,
      "कीदृश": 5962,
      "गते ": 5963,
      "लग्न": 5964,
      "७०": 5965,
      "ं (": 5966,
      " नित्यं ": 5967,
      "कथित": 5968,
      " सम्पाद": 5969,
      "ं करिष्य": 5970,
      " V": 5971,
      "जलं ": 5972,
      "यस्तु": 5973,
      "वस्त्र": 5974,
      "्यै": 5975,
      "ा मह": 5976,
      "परीक्षा ": 5977,
      " विविध": 5978,
      ", त": 5979,
      "मेष": 5980,
      "राय": 5981,
      "्--": 5982,
      "े सं": 5983,
      " --\n": 5984,
      " स्यात": 5985,
      "ागरिक": 5986,
      "ov": 5987,
      "गाम": 5988,
      "हत्य": 5989,
      "ी म": 5990,
      "न आ": 5991,
      " रस": 5992,
      "ाम् आ": 5993,
      "पुनः ॥\n": 5994,
      "लघ": 5995,
      "ाक्": 5996,
      "श्रेण": 5997,
      "मन्व": 5998,
      "४२": 5999,
      "ष्क": 6000,
      "निर्ग": 6001,
      " आप": 6002,
      " एस": 6003,
      " त्वं ": 6004,
      "दिने ": 6005,
      "मृग": 6006,
      " ग्रह": 6007,
      "खाद": 6008,
      "दित्य": 6009,
      "सन्नि": 6010,
      "ाणाम": 6011,
      "व्यवस्थ": 6012,
      "व्यवस्थित": 6013,
      "म अ": 6014,
      "ये\n": 6015,
      "ेश्व": 6016,
      " भा": 6017,
      "श्यत": 6018,
      " धात": 6019,
      "सूच": 6020,
      "े सति ": 6021,
      " कुत्र": 6022,
      "ीणि ": 6023,
      " पदार्थ": 6024,
      "मति": 6025,
      "निवेद": 6026,
      "करुण": 6027,
      "ध्यते ।\n": 6028,
      "ानि स": 6029,
      "विद्यते ": 6030,
      " देवान": 6031,
      "ोडश": 6032,
      "05": 6033,
      "हि ।\n": 6034,
      "काव्य": 6035,
      "ानुप": 6036,
      "यावत् ": 6037,
      "तच्च": 6038,
      "पति ": 6039,
      "ाराष्ट्र": 6040,
      "न वि": 6041,
      " प्रती": 6042,
      "हृदयं ": 6043,
      " लि": 6044,
      "अङ्ग": 6045,
      "भाज": 6046,
      "सदृश": 6047,
      "ैः।\n": 6048,
      "परम्पर": 6049,
      " विश्लेषण": 6050,
      " . . .\n": 6051,
      ", क": 6052,
      "ौ तु": 6053,
      "५७": 6054,
      "ः एक": 6055,
      "प्रो": 6056,
      "िरण": 6057,
      " सम्भव": 6058,
      "बभूव": 6059,
      "ः व": 6060,
      "स्रोत": 6061,
      "बिम्ब": 6062,
      "wer": 6063,
      "अस्माकं ": 6064,
      "जन्त": 6065,
      "शोध": 6066,
      " भय": 6067,
      "कुर": 6068,
      " निर्ण": 6069,
      "ार्द्ध": 6070,
      "चारिक": 6071,
      "नन्तर": 6072,
      "स तु": 6073,
      "५९": 6074,
      "स्कर": 6075,
      " प्रयोजन": 6076,
      "व्यम": 6077,
      "या च": 6078,
      "गद": 6079,
      "भाति ": 6080,
      " आसीत": 6081,
      "न-": 6082,
      "हर्ष": 6083,
      "ीक्ष्य": 6084,
      "े-\n": 6085,
      "ैत्र": 6086,
      "ानर": 6087,
      "स्य उ": 6088,
      "ेत ।\n": 6089,
      " परिणाम": 6090,
      "करोति ।\n": 6091,
      "Nex": 6092,
      " गुरु": 6093,
      "माग": 6094,
      "े हि ": 6095,
      "ारोह": 6096,
      "दाहृत": 6097,
      "ाप्नोत": 6098,
      "व्याकरण": 6099,
      "07": 6100,
      "े देव": 6101,
      "ा स्व": 6102,
      "रुच": 6103,
      "पिब": 6104,
      "टल": 6105,
      "ितम् ": 6106,
      "द्यान": 6107,
      "तिक्र": 6108,
      "निवास": 6109,
      "पुल": 6110,
      " चैव": 6111,
      "पदि": 6112,
      " कुल": 6113,
      "ाक्षर": 6114,
      " तमे वर्ष": 6115,
      "कम् ॥\n": 6116,
      "पार्श्व": 6117,
      "ी॒": 6118,
      "ाभाग": 6119,
      "ा अनु": 6120,
      "शब्दे ": 6121,
      " द्वादश": 6122,
      "जा ": 6123,
      "णे ": 6124,
      "नम् ॥\n": 6125,
      "मस्य": 6126,
      "य ।\n": 6127,
      "यन्ति ।\n": 6128,
      "संबं": 6129,
      " विचार": 6130,
      "ग्रीव": 6131,
      "मनस": 6132,
      "स्तोत्र": 6133,
      " प्रात": 6134,
      " प्रोक्त": 6135,
      "समूह": 6136,
      "*\n": 6137,
      "ost": 6138,
      "शतं ": 6139,
      "स्य य": 6140,
      "ादिना ": 6141,
      "ावर": 6142,
      "ालयं ": 6143,
      " नेव": 6144,
      "द्यते ": 6145,
      "पदं ": 6146,
      "प्रत्ययः ": 6147,
      "ाय ।\n": 6148,
      " तद्": 6149,
      "यथार्थ": 6150,
      "भगवान": 6151,
      "ादृश्य": 6152,
      " शक्ति ": 6153,
      "शरी": 6154,
      "५२": 6155,
      " वर्ध": 6156,
      "ावह": 6157,
      " ने": 6158,
      "स्म।\n": 6159,
      " परिभाष": 6160,
      "av": 6161,
      "गतः ": 6162,
      "घोष": 6163,
      "ागार": 6164,
      "मुच्यते ।\n": 6165,
      "ं व्र": 6166,
      " इत्यनेन ": 6167,
      " स्वय": 6168,
      "भिक्ष": 6169,
      "भिप्राय": 6170,
      "ं॒": 6171,
      " सव": 6172,
      "ापित": 6173,
      " मृत": 6174,
      "ाकु": 6175,
      "क्रियते ।\n": 6176,
      "ष्णु": 6177,
      "सहस्राणि ": 6178,
      "रात": 6179,
      "सय": 6180,
      "त्वम् ": 6181,
      "स्वार्थ": 6182,
      "मातृ": 6183,
      " युग": 6184,
      " सरकार": 6185,
      "मप": 6186,
      "्वः ": 6187,
      "न ह": 6188,
      " स्वभाव": 6189,
      "मनसा ": 6190,
      "स्त्रीण": 6191,
      "वेबसाइट": 6192,
      "यः\n": 6193,
      "ा इत्य": 6194,
      " पीड": 6195,
      "ास्ति ।\n": 6196,
      "ः काम": 6197,
      "कोश": 6198,
      "ातन्त्र्य": 6199,
      "हूर्त": 6200,
      "स्ल": 6201,
      "ादी": 6202,
      "त्क": 6203,
      "ate": 6204,
      "साहित्य": 6205,
      " f": 6206,
      "ंट": 6207,
      "कः ॥\n": 6208,
      "रौ": 6209,
      "ादान": 6210,
      "वर्षाणि ": 6211,
      "दल": 6212,
      "ूट": 6213,
      " पाल": 6214,
      " इम": 6215,
      "ब्रुव": 6216,
      "तस्मै": 6217,
      "कदाचित् ": 6218,
      " शक्न": 6219,
      " b": 6220,
      "धिय": 6221,
      "मण्ड": 6222,
      "ः कार्य": 6223,
      "द्रूप": 6224,
      "ans": 6225,
      "35": 6226,
      "ीकृत्य": 6227,
      "ं यदि ": 6228,
      "ङ्कर": 6229,
      "भूत्वा ": 6230,
      "शाख": 6231,
      "सः ।\n": 6232,
      "े--": 6233,
      "ोन्य": 6234,
      "ति च": 6235,
      "निरा": 6236,
      " दिव्य": 6237,
      " नह": 6238,
      " लभ": 6239,
      " त्वया ": 6240,
      "ाप्स्य": 6241,
      "In": 6242,
      "ंकार": 6243,
      "कम् ": 6244,
      "तमे ": 6245,
      "नष्ट": 6246,
      "हव": 6247,
      "़्": 6248,
      "विवाह": 6249,
      "ामान्य": 6250,
      " इति\n": 6251,
      "ज्जन": 6252,
      "योज्य": 6253,
      "एकदा ": 6254,
      "पीठ": 6255,
      "कः\n": 6256,
      "तरण": 6257,
      "प्रदान": 6258,
      "भवत्य": 6259,
      " लक्ष": 6260,
      "वैश्व": 6261,
      "द्विगुण": 6262,
      "Answer": 6263,
      "ff": 6264,
      "५१": 6265,
      "ः भवति ।\n": 6266,
      "भवन्ति ": 6267,
      " याव": 6268,
      "सर्वदा ": 6269,
      "एकादश": 6270,
      "ता ॥\n": 6271,
      "दर्शित": 6272,
      "हिन्द": 6273,
      "ir": 6274,
      "नल": 6275,
      "भुक्त": 6276,
      "ह्व": 6277,
      "िकित्स": 6278,
      "सहाय": 6279,
      "ाट्य": 6280,
      "वान्": 6281,
      "ा उ": 6282,
      " समस्त": 6283,
      "िदं ": 6284,
      "मेव ।\n": 6285,
      "पृथक् ": 6286,
      "100": 6287,
      " दिनाङ्क": 6288,
      "ः;": 6289,
      " द्वौ": 6290,
      "राष्ट्रीय": 6291,
      "मिच्छ": 6292,
      "वेग": 6293,
      "स्फुट": 6294,
      "ak": 6295,
      "कानि ": 6296,
      "ता\n": 6297,
      "ीतः ": 6298,
      "५६": 6299,
      "मान्त": 6300,
      "भूषण": 6301,
      " \"अ": 6302,
      "ार्क": 6303,
      " प्रत्यय": 6304,
      " मानव": 6305,
      " ग्राम": 6306,
      "चत": 6307,
      "नः\n": 6308,
      "ाभव": 6309,
      "दुग्ध": 6310,
      "गच्छति ": 6311,
      "  ": 6312,
      "ले": 6313,
      "िभ्य": 6314,
      "प्रम": 6315,
      " सत": 6316,
      " कस्य": 6317,
      " ताव": 6318,
      "ासः ": 6319,
      "ान् ॥\n": 6320,
      "दुष": 6321,
      "ER": 6322,
      "im": 6323,
      "अ)": 6324,
      "कोऽपि ": 6325,
      "भो": 6326,
      "स\n": 6327,
      "ा--": 6328,
      "विच": 6329,
      " केन्द्र": 6330,
      "जीवनं ": 6331,
      "नाप": 6332,
      "मात्म": 6333,
      "होम": 6334,
      "िज्य": 6335,
      "ियोग": 6336,
      " एते ": 6337,
      "ञ्जल": 6338,
      "पक्षे ": 6339,
      "ं निर्म": 6340,
      "संख्या ": 6341,
      " जनवरी ": 6342,
      "ः.\n": 6343,
      "के ।\n": 6344,
      "तास": 6345,
      "प्रतिक": 6346,
      "न एव": 6347,
      " प्रसिद्ध": 6348,
      " शीत": 6349,
      "ोरात्र": 6350,
      " एतत् ": 6351,
      " =>": 6352,
      "घव": 6353,
      "ा)\n": 6354,
      "ाहित": 6355,
      "धिकारिक": 6356,
      "अ -": 6357,
      "आसीत् ।\n": 6358,
      "गत्य": 6359,
      "सत्": 6360,
      "भवता ": 6361,
      "संस्थान": 6362,
      "ं प्राप्य": 6363,
      "फलकम": 6364,
      "ध्वज": 6365,
      "ौकिक": 6366,
      "ाञ्छ": 6367,
      "्प": 6368,
      "प्रयत्न": 6369,
      " प्ल": 6370,
      "त्रिक": 6371,
      "ं चैव": 6372,
      " प्रतिष्ठ": 6373,
      "नील": 6374,
      " पेपर": 6375,
      " ध्यान": 6376,
      "ड् ": 6377,
      "य एव": 6378,
      "शरण": 6379,
      " प्रवृत्त": 6380,
      "द्वौ": 6381,
      "प्रतीत": 6382,
      " क्षम": 6383,
      "काण": 6384,
      "खर": 6385,
      "ना\n": 6386,
      "न्देश": 6387,
      "श्चित्त": 6388,
      "ोऽन्य": 6389,
      "ज्ञानिक": 6390,
      " वर्ष\n": 6391,
      "&\n": 6392,
      "ik": 6393,
      "तै": 6394,
      "ैनं ": 6395,
      "ो मे ": 6396,
      "ष्कृत": 6397,
      "ज्ञा ": 6398,
      " स्वाम": 6399,
      " लाख": 6400,
      "ोपदेश": 6401,
      " हि ।\n": 6402,
      "पीसी": 6403,
      " >": 6404,
      "शंस": 6405,
      "ं परम": 6406,
      "नियत": 6407,
      " स्फ": 6408,
      " #": 6409,
      "oo": 6410,
      "णु": 6411,
      "दस्य": 6412,
      "नाग": 6413,
      "मंत्र": 6414,
      "हस्य": 6415,
      "े सु": 6416,
      "ः परम": 6417,
      "ारोप": 6418,
      "पराज": 6419,
      " स्वतन्त्र": 6420,
      "सा च": 6421,
      "कः -": 6422,
      " देवत": 6423,
      "धन्यवाद": 6424,
      "शक्न": 6425,
      " विकिपीडिया\n": 6426,
      "pr": 6427,
      "ौ,": 6428,
      "ान\n": 6429,
      "ो यदि ": 6430,
      "नियोग": 6431,
      "तुष्ट": 6432,
      "भूमि": 6433,
      "एतस्य": 6434,
      " खेल": 6435,
      "निश्चित": 6436,
      "\"आ": 6437,
      "ec": 6438,
      "शौ": 6439,
      "ं परि": 6440,
      "रिप": 6441,
      "पुरा ": 6442,
      " द्रष्ट": 6443,
      ", म": 6444,
      "पशु": 6445,
      "शन": 6446,
      "शव": 6447,
      " नो ": 6448,
      "ाधान्य": 6449,
      "न्दिर": 6450,
      "भिर्": 6451,
      "तदाह": 6452,
      " राजन": 6453,
      "(ङ": 6454,
      "आयु": 6455,
      "कान्त": 6456,
      "दीन": 6457,
      "धुर": 6458,
      "बलं ": 6459,
      " सन्ति ": 6460,
      "ीयते ॥\n": 6461,
      "कुतः ": 6462,
      "भूतं ": 6463,
      "ा अस्त": 6464,
      " शक्यते ।\n": 6465,
      "ऋत": 6466,
      "नन्त": 6467,
      "मस्ति ": 6468,
      " दैव": 6469,
      "र्ति ": 6470,
      "म् अव": 6471,
      " कृष्ण": 6472,
      "प्रसन्न": 6473,
      "द्रष्टव्य": 6474,
      "ोन्न": 6475,
      "द्यम": 6476,
      "ीया ": 6477,
      "ेन सम": 6478,
      "पितामह": 6479,
      "पद्यते ।\n": 6480,
      "ाद्वि": 6481,
      "स्य र": 6482,
      " अस्मिन् ": 6483,
      "ते ?\n": 6484,
      "त्वम् ।\n": 6485,
      "ज्ञेयं ": 6486,
      "तुर": 6487,
      "या ॥\n": 6488,
      "ं वच": 6489,
      "ः प्रथम": 6490,
      "भूतेषु": 6491,
      " ङीप": 6492,
      "तः": 6493,
      "भवेत् ": 6494,
      "ियम": 6495,
      "िवाद": 6496,
      "ाशङ्क": 6497,
      "े प्रथम": 6498,
      " ...": 6499,
      "शति": 6500,
      "ाउ": 6501,
      "ि:\n": 6502,
      "ेः\n": 6503,
      "न ॥\n": 6504,
      " अमेरिक": 6505,
      " बन्ध": 6506,
      "ः आसीत् ।\n": 6507,
      "08": 6508,
      "ं.": 6509,
      "े;": 6510,
      "ः पुत्र": 6511,
      "प्राप": 6512,
      " तर": 6513,
      "एवम": 6514,
      "ं तर्हि ": 6515,
      " सुर": 6516,
      "कार्याणि ": 6517,
      "Answer:": 6518,
      "तन्म": 6519,
      "नः ॥\n": 6520,
      " नृप": 6521,
      "लोकान": 6522,
      "मात्रेण": 6523,
      "स्थापित": 6524,
      "द् प्रति ": 6525,
      "सैन्य": 6526,
      "न्ती": 6527,
      "पुरो": 6528,
      " - वि": 6529,
      " भर्त": 6530,
      "कर्त्तव्य": 6531,
      "क-": 6532,
      "कदा ": 6533,
      "मत्": 6534,
      "षित": 6535,
      "ृङ्ग": 6536,
      "ं पूर्व": 6537,
      "ोऽध्याय": 6538,
      "क्ष्यामि ": 6539,
      "\"स": 6540,
      "(i": 6541,
      "ाय च": 6542,
      " कम": 6543,
      "भवितव्य": 6544,
      " दण्ड": 6545,
      " यात": 6546,
      "ालयः ": 6547,
      "ष्यत": 6548,
      " व्यवसाय": 6549,
      "क्वचित् ": 6550,
      "प्रकृति": 6551,
      "पास": 6552,
      "े इति ": 6553,
      "प्रेत": 6554,
      " साल": 6555,
      "भवन": 6556,
      "ाहु": 6557,
      "कार्यक्रम": 6558,
      "ut": 6559,
      "क् ।\n": 6560,
      "नद्य": 6561,
      "ी.\n": 6562,
      "ोचित": 6563,
      "्]": 6564,
      "ः परि": 6565,
      " सङ्ग": 6566,
      "न (": 6567,
      " संस्थान": 6568,
      "न्दोल": 6569,
      "पर्याप्त": 6570,
      "ानि पृष्ठानि ": 6571,
      "ापूर्व": 6572,
      "गरे ": 6573,
      "भोक्त": 6574,
      "शः ।\n": 6575,
      "सर्प": 6576,
      "ु.": 6577,
      "ेद्": 6578,
      "ौ\n": 6579,
      "ं कुर्व": 6580,
      "ासाद": 6581,
      " न हि ": 6582,
      " परिसन्ध": 6583,
      "पेपर": 6584,
      "षष्ट": 6585,
      "िमान": 6586,
      "एवं च": 6587,
      "एवमेव": 6588,
      "गः ": 6589,
      "वर्ज": 6590,
      "ाच्य": 6591,
      "पित्त": 6592,
      "कल्याण": 6593,
      "जगत": 6594,
      "धिर": 6595,
      "धान्य": 6596,
      "यस": 6597,
      "्यन्त": 6598,
      "ं भवति ": 6599,
      "कर्म्म": 6600,
      "ाध्यक्ष": 6601,
      "ादीनि ": 6602,
      "खेल": 6603,
      "ीज": 6604,
      " सेन": 6605,
      "परित्य": 6606,
      "िनो ": 6607,
      "कारस्य": 6608,
      "द्वन्द्व": 6609,
      "मुच्यत": 6610,
      " गम": 6611,
      "ास्याम": 6612,
      "ूतन": 6613,
      " रुपये ": 6614,
      "ग्रीष्म": 6615,
      " c": 6616,
      "सन् ": 6617,
      "े '": 6618,
      "न्तरिक्ष": 6619,
      " मय": 6620,
      " चित्त": 6621,
      "स्मिन्": 6622,
      "क्षणिक": 6623,
      "ः अस्म": 6624,
      "ं काम": 6625,
      "१९७": 6626,
      "भ्रष्ट": 6627,
      " लिख": 6628,
      "दिति ": 6629,
      "सञ्": 6630,
      "ृति ": 6631,
      "भावेन ": 6632,
      "ब्रू": 6633,
      "ाभ्यास": 6634,
      "मेरे ": 6635,
      " निर्माण": 6636,
      "मधु": 6637,
      "शम": 6638,
      "सात": 6639,
      "ोपरि ": 6640,
      "ं दृष्ट्वा ": 6641,
      "व्यास": 6642,
      "ाशु": 6643,
      " समूह": 6644,
      " राजा ": 6645,
      "ततश्च": 6646,
      "श्रुति": 6647,
      "शोक": 6648,
      "धनं कुर्वन्त": 6649,
      "संबंधनं कुर्वन्त": 6650,
      "न द": 6651,
      " विवाह": 6652,
      "कर्माणि ": 6653,
      "क्रिया ": 6654,
      "पुरस्कार": 6655,
      "ं करोत": 6656,
      "जापत": 6657,
      "द् प्रति संबंधनं कुर्वन्त": 6658,
      "घन": 6659,
      "्\n": 6660,
      "ायन": 6661,
      "द्व्य": 6662,
      "प्रतियोग": 6663,
      "ः आसीत": 6664,
      "न केवलं ": 6665,
      "णीय": 6666,
      "यति": 6667,
      "ि!\n": 6668,
      "माता ": 6669,
      "ार्षिक": 6670,
      "घाट": 6671,
      "व्यायाम": 6672,
      "स्वय": 6673,
      "ियोजन": 6674,
      "शेषः ।\n": 6675,
      " किञ्च": 6676,
      " जुल": 6677,
      "06": 6678,
      "तदु": 6679,
      "प्स": 6680,
      " वीर": 6681,
      "ेतर": 6682,
      "तीन": 6683,
      " धक": 6684,
      "मनसि ": 6685,
      "भाषित": 6686,
      " प्रतिषेध": 6687,
      " स्पष्ट": 6688,
      "chiv": 6689,
      "ंद्र": 6690,
      "गज": 6691,
      "ैनिक": 6692,
      "प्रीत": 6693,
      "गुप्त": 6694,
      " जि": 6695,
      "जनक": 6696,
      "ं करोति ": 6697,
      "ऊर्ज": 6698,
      "धूम": 6699,
      "ुज": 6700,
      "ाराज": 6701,
      "भवेत् ॥\n": 6702,
      " यतो ": 6703,
      "राक्षस": 6704,
      "महान": 6705,
      "च।\n": 6706,
      "जाग": 6707,
      "ो-": 6708,
      "्यह": 6709,
      " मिल": 6710,
      "संस्थित": 6711,
      "ेण च": 6712,
      "दीप्त": 6713,
      "क्षेत्रे ": 6714,
      "32": 6715,
      "भक्ष": 6716,
      "न त्व": 6717,
      "ो मम": 6718,
      "ावेश": 6719,
      "ात्पर": 6720,
      "अधोलिखितानि पृष्ठानि ": 6721,
      "] ।\n": 6722,
      "पो": 6723,
      "ं यद": 6724,
      "ा देव": 6725,
      "ेषु सर्व": 6726,
      "एतत्": 6727,
      "दु ।\n": 6728,
      "त्थाय": 6729,
      " करोति ": 6730,
      " O": 6731,
      "अभ्य": 6732,
      "ो.": 6733,
      " तेज": 6734,
      " वार": 6735,
      "ावपि ": 6736,
      "ं यत्र": 6737,
      "ाख्यान": 6738,
      "वेद्य": 6739,
      " राज्ञ": 6740,
      "आसीत": 6741,
      "म्र": 6742,
      "सृ": 6743,
      "सत्त": 6744,
      "ं ल": 6745,
      "ं ज्ञान": 6746,
      "ः '": 6747,
      " कान": 6748,
      " तय": 6749,
      "ज्ञास": 6750,
      "ाशक्त": 6751,
      "ाभावि": 6752,
      "र्य्य": 6753,
      "मनोर": 6754,
      "शुच": 6755,
      "क्रियाय": 6756,
      "ुमिच्छ": 6757,
      "ाप्नुय": 6758,
      " मूल्य": 6759,
      "टिप्पणिय": 6760,
      "४३": 6761,
      "स्याद": 6762,
      "ेन।\n": 6763,
      "वादी": 6764,
      " व्यायाम": 6765,
      " पुनर्": 6766,
      "एन": 6767,
      "कि ": 6768,
      "घोषण": 6769,
      "णि": 6770,
      "पिण्ड": 6771,
      "वंश": 6772,
      "ू॒": 6773,
      " धारा ": 6774,
      " E": 6775,
      "गति ": 6776,
      "ज्वर": 6777,
      "नान्य": 6778,
      "ैस्त": 6779,
      "्यान": 6780,
      "ारभ्य": 6781,
      " पौ": 6782,
      "द्वेष": 6783,
      " //": 6784,
      "ात्त्व": 6785,
      "तस्त": 6786,
      "ं सुख": 6787,
      "प्राग": 6788,
      "ादय": 6789,
      "राजान": 6790,
      "ार्ज": 6791,
      "विद्यु": 6792,
      "हृदि ": 6793,
      " मध्यम": 6794,
      " पितृ": 6795,
      " द्वारा टिप्पणिय": 6796,
      "ज्व": 6797,
      "टि ": 6798,
      "न,": 6799,
      "रक": 6800,
      "ा॰": 6801,
      "ं जन": 6802,
      "ः कु": 6803,
      " तत्त": 6804,
      " उभय": 6805,
      "यमपि ": 6806,
      "े प्राप्त": 6807,
      " //\n": 6808,
      "मूर्ख": 6809,
      "आत्मन": 6810,
      "(ङ)": 6811,
      "वनं ": 6812,
      "ी)\n": 6813,
      "ु\"": 6814,
      "ान्यत": 6815,
      "प्रय": 6816,
      " स्र": 6817,
      " तौ": 6818,
      "ेन वि": 6819,
      "ाभारः ": 6820,
      "श्याम": 6821,
      "बहुधा ": 6822,
      " भगवान् ": 6823,
      "कुरुते ": 6824,
      "मभि": 6825,
      "रय": 6826,
      "ीः\n": 6827,
      "्नं ": 6828,
      "९०": 6829,
      "ो जन": 6830,
      " प्रथ": 6831,
      "िके ": 6832,
      " यम": 6833,
      " विज्ञान": 6834,
      " च\n": 6835,
      " संस्थित": 6836,
      " अथवा ": 6837,
      "योजक": 6838,
      ":-": 6839,
      "गन्त": 6840,
      "छु": 6841,
      "े उ": 6842,
      "ा सम": 6843,
      "ेन वा ": 6844,
      " बि": 6845,
      "ेऽप्य": 6846,
      "न्द्रिय": 6847,
      "पुरात": 6848,
      "अन्वयः -": 6849,
      "पंच": 6850,
      "ीदृश": 6851,
      "ो यो ": 6852,
      " दिवस": 6853,
      "रहस्य": 6854,
      "31": 6855,
      "कक्ष": 6856,
      "रेख": 6857,
      "ितवान् ।\n": 6858,
      "स्य द": 6859,
      "ादाय": 6860,
      "ापत्त": 6861,
      "एवम् ": 6862,
      "् अपि ": 6863,
      "पर्याय": 6864,
      "भूमौ": 6865,
      "ञ् ": 6866,
      " वात": 6867,
      " नु": 6868,
      " बृह": 6869,
      " स्यात् ": 6870,
      " समुदाय": 6871,
      "गु खँ": 6872,
      "चिकित्स": 6873,
      "rchiv": 6874,
      "तल": 6875,
      "पद्ध": 6876,
      "िश्र": 6877,
      "ो-\n": 6878,
      " वास": 6879,
      "करूप": 6880,
      "मानि ": 6881,
      " उत": 6882,
      "न्नाम": 6883,
      ". . .": 6884,
      "गोचर": 6885,
      " परमेश्वर": 6886,
      "करोत् ।\n": 6887,
      "एससी": 6888,
      "मयं ": 6889,
      "ु.\n": 6890,
      "ेक्ष्य": 6891,
      " वच": 6892,
      "ावल": 6893,
      "योर्म": 6894,
      "महोद": 6895,
      "कालिक": 6896,
      "ा अस्ति ।\n": 6897,
      "विश्वास": 6898,
      "दूरे ": 6899,
      "दद्य": 6900,
      "पचारिक": 6901,
      "मन्त": 6902,
      "ृथ": 6903,
      "५८": 6904,
      "्याय": 6905,
      "ं दर्श": 6906,
      "विस्तर": 6907,
      "निल": 6908,
      "ोऽप्य": 6909,
      "िदपि ": 6910,
      "ं विशेष": 6911,
      " खः ।\n": 6912,
      "ात्पर्य": 6913,
      "MSS@": 6914,
      "अज": 6915,
      "कत": 6916,
      "नृत्य": 6917,
      "ोतु": 6918,
      "निर्ध": 6919,
      "द्धित": 6920,
      "ाकुल": 6921,
      "ः प्राण": 6922,
      "ैरपि ": 6923,
      "मन्त्रिण": 6924,
      "भुज": 6925,
      "प्लव": 6926,
      "निर्दिष्टम": 6927,
      "ीते ": 6928,
      "नुष": 6929,
      "कृत्व": 6930,
      "लोभ": 6931,
      " गते ": 6932,
      "ं प्रोक्त": 6933,
      "एतादृश": 6934,
      "अतीत": 6935,
      "नाभ": 6936,
      "फु": 6937,
      "ा;": 6938,
      "५४": 6939,
      "े ध": 6940,
      "न्यू": 6941,
      "ाशक्ति ": 6942,
      " समस्य": 6943,
      "सम्पन्न": 6944,
      "तदपि ": 6945,
      "उपाय": 6946,
      " भारतस्य": 6947,
      "वन्तः ।\n": 6948,
      "ुँ": 6949,
      "ोः\n": 6950,
      "ं कुर्य": 6951,
      "द्ग": 6952,
      " शरण": 6953,
      " - अथ": 6954,
      "ं वस्तु": 6955,
      "प्रतिदिन": 6956,
      "पितु": 6957,
      " नेपाल": 6958,
      " ज्ञात": 6959,
      ") इत्य": 6960,
      "हो ": 6961,
      "हंस": 6962,
      "िप्र": 6963,
      "ा सं": 6964,
      "विस्त": 6965,
      "ातव्य": 6966,
      "ाणाम् ": 6967,
      " आई": 6968,
      "ोऽस्मि ": 6969,
      " धीम": 6970,
      "पदिक": 6971,
      "ं पाप": 6972,
      "पर्यावरण": 6973,
      "विद्यालये ": 6974,
      "lin": 6975,
      "पदेश": 6976,
      "ृ॒": 6977,
      " सभ": 6978,
      " चन्द्र": 6979,
      " उच्यत": 6980,
      "कर्तृ": 6981,
      " जुइ": 6982,
      "मन्दिर": 6983,
      "38": 6984,
      "बो": 6985,
      " सहित": 6986,
      "क्ख": 6987,
      "ाशय": 6988,
      "लोचन": 6989,
      "सिद्धान्त": 6990,
      " अनुकूल": 6991,
      " फलं ": 6992,
      " दृढ": 6993,
      " G": 6994,
      "-आ": 6995,
      "अन्तर": 6996,
      "मद्य": 6997,
      "यच्च": 6998,
      "िर्व": 6999,
      "स्माद": 7000,
      "र्षिक": 7001,
      "ार्थी": 7002,
      "तत्रैव": 7003,
      "ुवाच": 7004,
      "),": 7005,
      "सः अ": 7006,
      "़ि": 7007,
      "विस्म": 7008,
      "स्तम्भ": 7009,
      " चल": 7010,
      "नुप": 7011,
      "ं साध": 7012,
      "सम्बद्ध": 7013,
      "ोधन": 7014,
      "ैर् ": 7015,
      "ध्वन": 7016,
      "मूढ": 7017,
      "व्यक्ति ": 7018,
      "ीट": 7019,
      "े एक": 7020,
      "ानेन ": 7021,
      " कार्यक्रम": 7022,
      "ेत्ति ": 7023,
      "New": 7024,
      "(iii)": 7025,
      "तात": 7026,
      "भि ": 7027,
      "ाझ": 7028,
      "ाज्ञान": 7029,
      "ं ॥\n": 7030,
      "म् ,": 7031,
      " अष्ट": 7032,
      "त्यु": 7033,
      " यश": 7034,
      "ः सप्त": 7035,
      "मिश्र": 7036,
      "तरं ": 7037,
      "ोश": 7038,
      "्यु": 7039,
      "द्रु": 7040,
      "देशीय": 7041,
      "ं तेन ": 7042,
      "ात्स": 7043,
      "भूतानि ": 7044,
      "यितु": 7045,
      "\"न": 7046,
      "(v": 7047,
      "टे": 7048,
      "हण": 7049,
      "ेः।\n": 7050,
      "प्रवर्त": 7051,
      " यो": 7052,
      "ेश्च": 7053,
      " आवश्यक": 7054,
      "ेन सर्व": 7055,
      "तदर्थ": 7056,
      "शब्दस्य": 7057,
      "विकिपीडिय": 7058,
      "तम् ।\n": 7059,
      "नात्र": 7060,
      "रत्न": 7061,
      "ी क": 7062,
      "ावस्थ": 7063,
      "त्वय": 7064,
      "१९८": 7065,
      "ततः स": 7066,
      "वीर्य": 7067,
      "पि\n": 7068,
      "ी भव": 7069,
      "ाय्य": 7070,
      "निवार": 7071,
      " प्रभ": 7072,
      " विशिष्ट": 7073,
      " श्लोक": 7074,
      "सुवर्ण": 7075,
      "ाभेद": 7076,
      "श्राद्ध": 7077,
      " न शक्य": 7078,
      "धिकरण": 7079,
      "विषयः ": 7080,
      "ल्लेख": 7081,
      "ाश्रित्य": 7082,
      "ब्रह्मण": 7083,
      "ायुध": 7084,
      " . .": 7085,
      ". प": 7086,
      "पच": 7087,
      "हर्त": 7088,
      "ीरे ": 7089,
      " मद": 7090,
      "भावित": 7091,
      "विधाय": 7092,
      "१९४": 7093,
      "अहम् ": 7094,
      "36": 7095,
      "li": 7096,
      "ं॑": 7097,
      "ग् ": 7098,
      "यस्व": 7099,
      "ोपि ": 7100,
      "ितवान": 7101,
      "गु द": 7102,
      "कृतम": 7103,
      "नं न ": 7104,
      "कुश": 7105,
      "ं तत् ": 7106,
      "भक्त्या ": 7107,
      "ान्वित": 7108,
      "ः.": 7109,
      "रा ": 7110,
      "वाज": 7111,
      "ौद्ध": 7112,
      "ादयो ": 7113,
      "कृतं ": 7114,
      "ाभू": 7115,
      " स्वाह": 7116,
      "शब्दः ": 7117,
      "जानात": 7118,
      "किमर्थ": 7119,
      " घोषण": 7120,
      " ः\n": 7121,
      "भिम": 7122,
      "ेभ": 7123,
      "प्रविष्ट": 7124,
      "ायुक्त": 7125,
      "निस": 7126,
      "भवतु": 7127,
      "ेत।\n": 7128,
      " शिर": 7129,
      "मुच्यते ": 7130,
      " निज": 7131,
      "ः सत्य": 7132,
      "ं विष": 7133,
      "यित्व": 7134,
      "दिनाङ्क": 7135,
      " सामाजिक": 7136,
      "इदानी": 7137,
      "वम": 7138,
      "ीच": 7139,
      "क्थ": 7140,
      " अग्र": 7141,
      "ालयस्य": 7142,
      "ज्योत": 7143,
      " स्थिर": 7144,
      "ल्याण": 7145,
      " कृष": 7146,
      "राज्यस्य": 7147,
      " पृथिव्य": 7148,
      "कः क": 7149,
      "रः ।\n": 7150,
      "६५": 7151,
      "र्न ": 7152,
      " तेन": 7153,
      " यतः ": 7154,
      "संघ": 7155,
      "त्ते ": 7156,
      "ाभार": 7157,
      "भेदेन ": 7158,
      "the ": 7159,
      "पृथिवी": 7160,
      " .": 7161,
      "दरिद्र": 7162,
      "रति ": 7163,
      "ून् ": 7164,
      "निरी": 7165,
      "त्रयं ": 7166,
      " माम": 7167,
      "त्तु": 7168,
      "सम्प्रति ": 7169,
      ", न ": 7170,
      "अल्प": 7171,
      "आः ": 7172,
      "क\n": 7173,
      "ु-\n": 7174,
      " वक्त": 7175,
      "संस्": 7176,
      " विनाश": 7177,
      " एम": 7178,
      "ाश्रित": 7179,
      "स्ट्र": 7180,
      " युष्म": 7181,
      "ठिन": 7182,
      "बध": 7183,
      "सकल": 7184,
      "विध्य": 7185,
      " इतिहास": 7186,
      "श्वास": 7187,
      "ोपाय": 7188,
      "वैद्य": 7189,
      "वादिन": 7190,
      "ान्द": 7191,
      "अतएव": 7192,
      " कर्त्त": 7193,
      "ुम् इच्छ": 7194,
      "पुण्यं ": 7195,
      "37": 7196,
      "तश्च": 7197,
      "॑ः": 7198,
      "ा सर्व": 7199,
      "स्य तु": 7200,
      "ज्ञायते ": 7201,
      "मेघ": 7202,
      "चेष्ट": 7203,
      "नेन सह": 7204,
      "लाग": 7205,
      "ाथम": 7206,
      " शर": 7207,
      "ीयमान": 7208,
      " संसाध": 7209,
      " स्वी": 7210,
      "ीपी": 7211,
      "स्पत": 7212,
      "विवरण": 7213,
      "तान् ": 7214,
      "शैल": 7215,
      "िकाल": 7216,
      " नाश": 7217,
      "एव ।\n": 7218,
      " विप्र": 7219,
      " इति च": 7220,
      "पुनः क": 7221,
      "इत्यत्र": 7222,
      "तथा ।\n": 7223,
      "विशेषेण": 7224,
      "चिन्त्य": 7225,
      "स्फोट": 7226,
      " कीर्त": 7227,
      "09": 7228,
      "कष्ट": 7229,
      "घोर": 7230,
      "नप": 7231,
      "लज्ज": 7232,
      "िस्थान": 7233,
      " पाव": 7234,
      " यात्र": 7235,
      "एवं स": 7236,
      " भि": 7237,
      " यद् ": 7238,
      "धुनिक": 7239,
      " दुर्लभ": 7240,
      "टिक": 7241,
      "दम": 7242,
      "दह": 7243,
      "ोढ": 7244,
      "ोवाच": 7245,
      "ं मन": 7246,
      " लक्ष्य": 7247,
      "ादिभ्य": 7248,
      "िष्यत": 7249,
      " द्विज": 7250,
      "ः - ": 7251,
      "स्मात् पुनर्": 7252,
      "Next": 7253,
      "गङ्ग": 7254,
      "थवा ": 7255,
      "पार्थ": 7256,
      "भान": 7257,
      "यी": 7258,
      "यत्य": 7259,
      "यम् अ": 7260,
      "ीनं ": 7261,
      "ू.": 7262,
      "स्य मह": 7263,
      " अग्न": 7264,
      " - क": 7265,
      "ध्यते ": 7266,
      "पूर्वोक्त": 7267,
      " विशेषण": 7268,
      "वस्तुतः ": 7269,
      "वती ।\n": 7270,
      "ायै नमः ।\n": 7271,
      "विष्णु": 7272,
      "स्मात् पुनर्निर्दिष्टम": 7273,
      "ex": 7274,
      "l\n": 7275,
      "गन्तव्य": 7276,
      "चैव": 7277,
      "जेत": 7278,
      "जन्मन": 7279,
      "नश्य": 7280,
      "पाण्ड": 7281,
      "ं स्थान": 7282,
      "प्रेम": 7283,
      "निन्द": 7284,
      "ावश्य": 7285,
      "ाह ।\n": 7286,
      " हेतु": 7287,
      "देशः ": 7288,
      " पुष्प": 7289,
      " खोज": 7290,
      "१९५": 7291,
      "ज्ञायत": 7292,
      " चतुर्थ": 7293,
      "ं\"": 7294,
      "मरु": 7295,
      "माध": 7296,
      "मप्य": 7297,
      "ावृत": 7298,
      "री\n": 7299,
      "२०२": 7300,
      "समुप": 7301,
      "39": 7302,
      "SE": 7303,
      "च \"": 7304,
      "र\n": 7305,
      "ौः": 7306,
      "ं लोक": 7307,
      "ा पर": 7308,
      "ो व्य": 7309,
      " माय": 7310,
      " प्राधिकरण": 7311,
      " - आ": 7312,
      "ागतं ": 7313,
      "िरण्य": 7314,
      " (?\n": 7315,
      "ं तप": 7316,
      " रक्त": 7317,
      "ण्डित": 7318,
      " इत्यादिना ": 7319,
      "निर्णय": 7320,
      "सस्य": 7321,
      "हन्य": 7322,
      "विक्र": 7323,
      " वित्त": 7324,
      "ालो": 7325,
      "ेषाम": 7326,
      "था ।\n": 7327,
      "शिश": 7328,
      " पद\n": 7329,
      " व्यवहार": 7330,
      "गता ": 7331,
      "दै": 7332,
      "न सं": 7333,
      "सञ्च": 7334,
      "ौ प्र": 7335,
      " अस": 7336,
      " अन्व": 7337,
      "भवन्ति ।\n": 7338,
      "द्भ्य": 7339,
      " भवान् ": 7340,
      "किम् ": 7341,
      " एतद": 7342,
      "45": 7343,
      "ं-": 7344,
      "वत्त": 7345,
      "ॊक": 7346,
      "५३": 7347,
      "े भेद": 7348,
      " त्वा ": 7349,
      "त्रै": 7350,
      " इतर": 7351,
      "संवाद": 7352,
      "ेऽस्मिन् ": 7353,
      " सुरक्ष": 7354,
      "\" इत्य": 7355,
      "ङि ": 7356,
      "ण्व": 7357,
      "लाप": 7358,
      "वस्थित": 7359,
      "वरिष्ठ": 7360,
      "ाक्त": 7361,
      "े र": 7362,
      " सत्त्व": 7363,
      " किल": 7364,
      " बु": 7365,
      "िण्य": 7366,
      "ापि न ": 7367,
      "ात्मनि ": 7368,
      "गम्यत": 7369,
      " सदस्य": 7370,
      " H": 7371,
      "हस": 7372,
      " सृष्ट": 7373,
      "ाः॥\n": 7374,
      " गौ": 7375,
      "ने ॥\n": 7376,
      "साधु": 7377,
      "मेरिका ": 7378,
      "ोर्ट": 7379,
      "ः)\n": 7380,
      "दक्ष": 7381,
      "सृत": 7382,
      "न्तं ": 7383,
      "ते न ": 7384,
      "िकान": 7385,
      "स्वर्ण": 7386,
      "भूता ": 7387,
      "एतद् ": 7388,
      "पश्यत": 7389,
      " आत्मन": 7390,
      " ग्रन्थ": 7391,
      "'अ": 7392,
      "- '": 7393,
      "चु": 7394,
      "धाम": 7395,
      "नम् अ": 7396,
      "विपरीत": 7397,
      " तः ": 7398,
      "न्मे ": 7399,
      " वार्त": 7400,
      "योदश": 7401,
      "ेण सह": 7402,
      "एतानि ": 7403,
      "ात्मज": 7404,
      "ीं\n": 7405,
      "दिल्ल": 7406,
      "ार्ट": 7407,
      "सिष्ठ": 7408,
      "इन्द्रिय": 7409,
      "ाम्\n": 7410,
      "ंविध": 7411,
      "कै": 7412,
      "भूप": 7413,
      "रो ": 7414,
      "ः पुन": 7415,
      "ा वै": 7416,
      "क्षीण": 7417,
      " वा ।\n": 7418,
      "ोऽस्ति ": 7419,
      "प्रतिपत्त": 7420,
      "तदनु": 7421,
      "ं मय": 7422,
      "कार्य्य": 7423,
      "द्विध": 7424,
      "मिथ": 7425,
      " हृदय": 7426,
      "US": 7427,
      "अयम् ": 7428,
      "दात्त": 7429,
      "मत्स्य": 7430,
      "लय् ": 7431,
      "ितानि ": 7432,
      " कर्ण": 7433,
      "त्रिम": 7434,
      " प्रकरण": 7435,
      "तिम": 7436,
      " चेत": 7437,
      "क्राम": 7438,
      " उच्यते ।\n": 7439,
      "श्रोत": 7440,
      "ारण्य": 7441,
      ". . . . ": 7442,
      "१९६": 7443,
      "वेष्ट": 7444,
      "rchives": 7445,
      "वाक": 7446,
      "वाक्यं ": 7447,
      "ाल्य": 7448,
      " विरोध": 7449,
      " भोजन": 7450,
      "श्राव": 7451,
      "ब्ज": 7452,
      "ं प्रथम": 7453,
      "भाव्य": 7454,
      "द्विविध": 7455,
      "ो यत्र": 7456,
      "Home \"": 7457,
      "स्पृश": 7458,
      " d": 7459,
      "वत्": 7460,
      "ाओ": 7461,
      "ौ ": 7462,
      "ामर्श": 7463,
      "ो विध": 7464,
      " कव": 7465,
      " शिष्य": 7466,
      "न्यत्र": 7467,
      "ेण ।\n": 7468,
      " एव।\n": 7469,
      "र्गत": 7470,
      " लघु": 7471,
      "ग्ल": 7472,
      "०००": 7473,
      "धीरे ": 7474,
      "our": 7475,
      "िस्तान": 7476,
      " {": 7477,
      "कं च": 7478,
      "नहि ": 7479,
      "क्लि": 7480,
      " काय": 7481,
      "भवित": 7482,
      "ं तदा ": 7483,
      "ः अभवत् ।\n": 7484,
      "सामर्थ्य": 7485,
      "म् आसीत् ।\n": 7486,
      " भाषण\n": 7487,
      "um": 7488,
      "ं)": 7489,
      "अमेरिक": 7490,
      "़े": 7491,
      "ा/": 7492,
      "ाफ": 7493,
      "ृक्ष": 7494,
      " सन्द": 7495,
      "ारे ": 7496,
      " एवम": 7497,
      "ात्मना ": 7498,
      "जातीय": 7499,
      "सामाजिक": 7500,
      "वार्षिक": 7501,
      "op": 7502,
      "लक": 7503,
      "ार्व": 7504,
      "निरोध": 7505,
      "ासीत": 7506,
      "ेन क": 7507,
      "व्यु": 7508,
      " भार्य": 7509,
      "ाशब्द": 7510,
      " उवाच": 7511,
      " नाम्न": 7512,
      "बहव": 7513,
      " स्नान": 7514,
      "वन ": 7515,
      "वापि ": 7516,
      "ं धर्म": 7517,
      "संग": 7518,
      " नै": 7519,
      "्मुख": 7520,
      "ेषु वि": 7521,
      "सि\n": 7522,
      "ानुष": 7523,
      "वाचक": 7524,
      "इदम् ": 7525,
      "स्य प्रथम": 7526,
      "लभते ": 7527,
      ". प्र": 7528,
      "औषध": 7529,
      "डी": 7530,
      "नापि ": 7531,
      "सद्य": 7532,
      "६२": 7533,
      "ः _": 7534,
      "ा ज": 7535,
      " सकल": 7536,
      "स्य,": 7537,
      " वेत": 7538,
      "परायण": 7539,
      "स्वतः ": 7540,
      "मान्य": 7541,
      "भावे ": 7542,
      "ेषु ।\n": 7543,
      "अति ": 7544,
      "कलं ": 7545,
      "खित": 7546,
      " सख": 7547,
      "ारित": 7548,
      "निग": 7549,
      "द्दिश्य": 7550,
      " नान": 7551,
      " नास्ति ": 7552,
      " आव": 7553,
      " भवतः ": 7554,
      "व्रज": 7555,
      "व्रीह": 7556,
      " सिध्य": 7557,
      " पीसी": 7558,
      "ad ": 7559,
      "for": 7560,
      "णा ": 7561,
      "पवित्र": 7562,
      "याग": 7563,
      "ोत्": 7564,
      "०२०": 7565,
      "ं पद": 7566,
      " शै": 7567,
      "महिल": 7568,
      "ेऽह": 7569,
      "दृष्टान्त": 7570,
      "ोदाह": 7571,
      "अनुवाद": 7572,
      "अहो ": 7573,
      " यूयं ": 7574,
      "44": 7575,
      "इमे ": 7576,
      "धेय": 7577,
      "रिति ": 7578,
      "सत्तम": 7579,
      "ं कु": 7580,
      "िकः ": 7581,
      "व्यतिरेक": 7582,
      " विद्व": 7583,
      " आकाश": 7584,
      "च्छत": 7585,
      " बाह्य": 7586,
      "लिखत": 7587,
      "कुर्वन्ति ": 7588,
      " धन्यवाद": 7589,
      "ः+": 7590,
      "अयम": 7591,
      "ू-": 7592,
      " साध्य": 7593,
      "ाचल": 7594,
      "ः साध": 7595,
      "ेति ॥\n": 7596,
      "बहूनि ": 7597,
      "राधिप": 7598,
      " F": 7599,
      ") -": 7600,
      "33": 7601,
      "ंध": 7602,
      "गाव": 7603,
      "मिम": 7604,
      "माध्यम": 7605,
      "ृ.": 7606,
      "६८": 7607,
      " अल": 7608,
      " अन्तर": 7609,
      "िनाम": 7610,
      "ात् प्र": 7611,
      "्यं न ": 7612,
      "ोऽनु": 7613,
      "लोम": 7614,
      "ेषु ": 7615,
      "र्याद": 7616,
      "ं सत्य": 7617,
      "न् ॥\n": 7618,
      "पादान": 7619,
      "दृष्ट्या ": 7620,
      "उच्चारण": 7621,
      " इत्यस्य संस्करण": 7622,
      "हः ": 7623,
      "ा#": 7624,
      "्̣": 7625,
      "क्रुद्ध": 7626,
      " पुष्ट": 7627,
      "ः अनु": 7628,
      "विशेषः ।\n": 7629,
      "ाप्नो": 7630,
      "श्नु": 7631,
      " भगवान": 7632,
      "पत्नी": 7633,
      " कृपया ": 7634,
      "(स": 7635,
      "नद": 7636,
      "शक्र": 7637,
      "क्ष्यत": 7638,
      "न्\n": 7639,
      "ासनं ": 7640,
      "मुञ्च": 7641,
      "सुप्त": 7642,
      "ोऽत्र": 7643,
      "शिक्षु": 7644,
      "भेदे ": 7645,
      "सार्व": 7646,
      "वसन्त": 7647,
      "िता ॥\n": 7648,
      "हृदये ": 7649,
      "गोत्र": 7650,
      " वर्तत": 7651,
      "ःया ": 7652,
      "कण्ठ": 7653,
      "छाय": 7654,
      "दास्य": 7655,
      "नोप": 7656,
      "हय": 7657,
      "त्र्त": 7658,
      " मिथ": 7659,
      " - \"": 7660,
      " उदाहरण": 7661,
      "ं न च": 7662,
      "सङ्घ": 7663,
      "Tag:": 7664,
      "y\n": 7665,
      "हृष्ट": 7666,
      "विग्रह": 7667,
      "ारं ": 7668,
      "ो ।\n": 7669,
      "त्वं न": 7670,
      "त्वयि ": 7671,
      "स्थाप्य": 7672,
      "ाभूत": 7673,
      "ास्तव": 7674,
      "पुनः\n": 7675,
      "ि,\n": 7676,
      "नाम ।\n": 7677,
      "तेषाम": 7678,
      "तावत् ": 7679,
      " ऋष": 7680,
      "यजमान": 7681,
      "त्यक्त्वा ": 7682,
      " n": 7683,
      "(iv": 7684,
      "किय": 7685,
      "काक": 7686,
      "तू": 7687,
      "हे": 7688,
      "ीथ": 7689,
      "०९": 7690,
      " स एव": 7691,
      "स्य\n": 7692,
      "यः प्र": 7693,
      "गृह्यत": 7694,
      "शुल्क": 7695,
      "ाणि च": 7696,
      " वेबसाइट\n": 7697,
      "भोजनं ": 7698,
      "48": 7699,
      "कित": 7700,
      "गतम": 7701,
      "घण्ट": 7702,
      "नेद": 7703,
      "नदी": 7704,
      "पन": 7705,
      "ैर्म": 7706,
      "६४": 7707,
      "ः भवत": 7708,
      "निष्ट": 7709,
      "निर्य": 7710,
      " वस": 7711,
      " वित": 7712,
      " मरण": 7713,
      "ासत": 7714,
      "ं मध्य": 7715,
      "I\n": 7716,
      "अर्ध": 7717,
      "आश": 7718,
      "उवाच": 7719,
      "पद्म": 7720,
      "रल": 7721,
      "ाे": 7722,
      "ृं": 7723,
      "ेरण": 7724,
      "विपर्य": 7725,
      "त्रीणि ": 7726,
      "त्वर": 7727,
      "श्रय": 7728,
      "ान्तरेण": 7729,
      "वयव": 7730,
      "धिष्ठिर": 7731,
      "आगत": 7732,
      "पश": 7733,
      "ं रूप": 7734,
      "म् न ": 7735,
      "ष्कर": 7736,
      "या सह": 7737,
      "ाधीन": 7738,
      " हिम": 7739,
      " गर्भ": 7740,
      "ल्लभ": 7741,
      " भाषा ": 7742,
      "सप्ताह": 7743,
      " मातृ": 7744,
      " द्रव्य": 7745,
      " N": 7746,
      "फोट": 7747,
      "वज्र": 7748,
      "ो स": 7749,
      "क्ष्व": 7750,
      " वायु": 7751,
      " शोभ": 7752,
      "द्रव": 7753,
      " धारण": 7754,
      "अयं वर्ग": 7755,
      " पुस्तक": 7756,
      "परिमाण": 7757,
      "Pre": 7758,
      "a\n": 7759,
      "ub": 7760,
      "देय": 7761,
      "ददात": 7762,
      "ध्द": 7763,
      "नह": 7764,
      "षोडश": 7765,
      "सक्त": 7766,
      "ाफल": 7767,
      "७५": 7768,
      " अधि": 7769,
      "ापत": 7770,
      " विश": 7771,
      " चक्र": 7772,
      "िरित्य": 7773,
      " प्रतियोग": 7774,
      "सुखद": 7775,
      " सम्पूर्ण": 7776,
      "मृत्यु": 7777,
      "os": 7778,
      "ि)\n": 7779,
      "७१": 7780,
      " कथम": 7781,
      " अस्माक": 7782,
      "ासुर": 7783,
      " नास्त": 7784,
      "रुद": 7785,
      " निवेद": 7786,
      " श्री": 7787,
      "पतित": 7788,
      "द्भुत": 7789,
      "कति": 7790,
      "नक्षत्र": 7791,
      "से ।\n": 7792,
      "ेच": 7793,
      "ं पुरुष": 7794,
      "ारद": 7795,
      "स्य न ": 7796,
      "क्षिक": 7797,
      " पि": 7798,
      "न्तः ": 7799,
      "ध्यक्ष": 7800,
      "ष्ठान": 7801,
      "कुम्भ": 7802,
      "ः प्राप्त": 7803,
      "ीनाम": 7804,
      "ाविष्ट": 7805,
      "ed ": 7806,
      "शस्य": 7807,
      "प्रज्ञ": 7808,
      "विक्रम": 7809,
      "ो यस्य": 7810,
      " पार्थिव": 7811,
      " प्रकार": 7812,
      "समाह": 7813,
      "ेतद": 7814,
      " विद": 7815,
      " विदेश": 7816,
      "तुर्थ": 7817,
      " निवृत्त": 7818,
      "यितुम": 7819,
      "पद्यते ": 7820,
      "नन्व": 7821,
      "मत्र": 7822,
      "६१": 7823,
      "ा सह": 7824,
      "स्य सर्व": 7825,
      " पात": 7826,
      "ापक": 7827,
      "ास् ": 7828,
      "ती ।\n": 7829,
      "ता च": 7830,
      "े सप्त": 7831,
      " अनुवाद": 7832,
      "मिथ्य": 7833,
      "अपेक्ष": 7834,
      "स्कन्ध": 7835,
      "ड्ड": 7836,
      "पार्थिव": 7837,
      "ेथ": 7838,
      "न्स": 7839,
      "िक् ": 7840,
      "कृतम् ।\n": 7841,
      " गत्वा ": 7842,
      "ः सदा ": 7843,
      "ः प्रोक्त": 7844,
      "ानुकूल": 7845,
      "पितर": 7846,
      "ः पाठ": 7847,
      "ततः प्र": 7848,
      "जगति ": 7849,
      "मरः ।\n": 7850,
      " $": 7851,
      "34": 7852,
      "ब्य": 7853,
      "यद्": 7854,
      "यन्न": 7855,
      "ाज्": 7856,
      "ि॰": 7857,
      "ेनं ": 7858,
      "ातृ": 7859,
      "ो लोक": 7860,
      "ायत्त": 7861,
      "ेन तु": 7862,
      "पि च": 7863,
      " भुव": 7864,
      " (स": 7865,
      " संभव": 7866,
      "निश्चय": 7867,
      "Home ": 7868,
      "कूट": 7869,
      "ताम् ": 7870,
      "भिन": 7871,
      " वह": 7872,
      "समाध": 7873,
      "श्च ।\n": 7874,
      "श्रिय": 7875,
      " रक्षण": 7876,
      " निवेश": 7877,
      "ः कि": 7878,
      "पूर्वेण": 7879,
      "कर्तु": 7880,
      "ः शिव": 7881,
      " षष्ठ": 7882,
      "रावण": 7883,
      "देहि ": 7884,
      "वस्थ": 7885,
      "िद्य": 7886,
      "ूलं ": 7887,
      "प्रेष": 7888,
      "प्राचीन": 7889,
      "विस्तार": 7890,
      "ारब्ध": 7891,
      " ताप": 7892,
      "ते तु": 7893,
      " वाह": 7894,
      "ेन व": 7895,
      " - न ": 7896,
      "एका ": 7897,
      " धातु": 7898,
      "ीव्र": 7899,
      " श्रद्ध": 7900,
      "नीच": 7901,
      " यथार्थ": 7902,
      " अध्ययन ": 7903,
      " इत्यस्य संस्करणे भेद": 7904,
      "XX": 7905,
      "ter": 7906,
      "इति\n": 7907,
      "िनि": 7908,
      "ैस्तु": 7909,
      "ौ वि": 7910,
      "्वी": 7911,
      "ा इव": 7912,
      "स्तत्": 7913,
      " दद": 7914,
      " - यदि ": 7915,
      "स्विन": 7916,
      "मुत्तम": 7917,
      "ेन स्व": 7918,
      " प्रतिपाद": 7919,
      "र्जन्य": 7920,
      " दुष्ट": 7921,
      "म् आर": 7922,
      "शक्यत": 7923,
      "उच्यत": 7924,
      "शाक": 7925,
      "ा यथ": 7926,
      " पाक": 7927,
      "परित": 7928,
      "िः\"": 7929,
      " नेत": 7930,
      "तुम": 7931,
      "ान्तु": 7932,
      "ं सप्त": 7933,
      "ेति च": 7934,
      "बहून": 7935,
      "युज्यते ।\n": 7936,
      " साहित्य": 7937,
      "ंगु": 7938,
      "अधि": 7939,
      "तक": 7940,
      "मेय": 7941,
      "रचित": 7942,
      "्-\n": 7943,
      "े ग": 7944,
      "े तस्य": 7945,
      "न्मुक्त": 7946,
      "सर्वकार": 7947,
      "मानु": 7948,
      "ार्दन": 7949,
      "ः पाप": 7950,
      "कश्चित् ": 7951,
      " सङ्ख्य": 7952,
      "युष्माक": 7953,
      "SC": 7954,
      "अक्ष": 7955,
      "िलं ": 7956,
      "ु'": 7957,
      "७६": 7958,
      "ातर": 7959,
      "ामः ।\n": 7960,
      " वत्स": 7961,
      " इयं ": 7962,
      " यत्न": 7963,
      "संकल्प": 7964,
      " विमान": 7965,
      " संबन्ध": 7966,
      " निमित्त": 7967,
      "ेषु प्र": 7968,
      "एताव": 7969,
      "ः किम": 7970,
      "ान्स": 7971,
      "भ्रमण": 7972,
      "प्रशस्त": 7973,
      " (),": 7974,
      "लभ्यत": 7975,
      " त्याग": 7976,
      " ग्र": 7977,
      "मग्न": 7978,
      "याज": 7979,
      "यसि ": 7980,
      "सर्जन": 7981,
      "ं कार्य": 7982,
      " सङ्क": 7983,
      " इष्ट": 7984,
      "समृद्ध": 7985,
      "स्वाह": 7986,
      "कृत्": 7987,
      "युज्यत": 7988,
      "ब्ल": 7989,
      "ं च ।\n": 7990,
      "पुनर्व": 7991,
      "कोष्ठ": 7992,
      " ज्योति": 7993,
      "ददाति ": 7994,
      "अत्यन्त": 7995,
      "उद्ध": 7996,
      "बाण": 7997,
      "वत् ।\n": 7998,
      "षिद्ध": 7999,
      "विकृत": 8000,
      " वाप": 8001,
      "परमाण": 8002,
      "संहार": 8003,
      " चरण": 8004,
      "न्तुष्ट": 8005,
      "यितव्य": 8006,
      "व्याख्यान": 8007,
      "- त": 8008,
      "आचार्य": 8009,
      "दे ": 8010,
      "दैत्य": 8011,
      "प्रच्छ": 8012,
      "ामृत": 8013,
      "म् =": 8014,
      " पार्श्व": 8015,
      " वक्तव्य": 8016,
      " दय": 8017,
      " भिन्न": 8018,
      "मानः ": 8019,
      "हिताय": 8020,
      " पूज्य": 8021,
      "े अनु": 8022,
      "र्विध": 8023,
      "oc": 8024,
      "ंज": 8025,
      "ूक": 8026,
      "ा ग": 8027,
      "न जान": 8028,
      "म् इच्छ": 8029,
      "स्तेष": 8030,
      " कस्म": 8031,
      " पत्": 8032,
      " मई": 8033,
      " - स": 8034,
      " परिप": 8035,
      "भक्ति": 8036,
      "शक्यं ": 8037,
      "मधुर": 8038,
      "खोज": 8039,
      "म ।\n": 8040,
      "षट": 8041,
      "है": 8042,
      "ं कुरु": 8043,
      "ा सा ": 8044,
      "ानी": 8045,
      "क्षीर": 8046,
      " याति ": 8047,
      "ात् पूर्व": 8048,
      "ोऽसि ": 8049,
      "मासस्य ": 8050,
      "ल्व": 8051,
      "क्त्व": 8052,
      "एवमुक्त": 8053,
      "नरक": 8054,
      "लिखितान": 8055,
      " निर्देश": 8056,
      "उच्यते ।\n": 8057,
      "नू": 8058,
      "े उप": 8059,
      "ा भवत": 8060,
      "ातीत": 8061,
      "ामुप": 8062,
      " मनु": 8063,
      "ेन त": 8064,
      " - न": 8065,
      " संयोग": 8066,
      "महत्वपूर्ण": 8067,
      "स्नात": 8068,
      "ess": 8069,
      "कः स": 8070,
      "मः ": 8071,
      "मस्ति ।\n": 8072,
      "यन् ।\n": 8073,
      "ं काल": 8074,
      "विजय": 8075,
      "स्ततः ": 8076,
      " संरक्षण": 8077,
      "च्छिन्न": 8078,
      "ं तेष": 8079,
      "भिचार": 8080,
      "ीन् ": 8081,
      " अन्यथा ": 8082,
      "if": 8083,
      "ment": 8084,
      "इतः ": 8085,
      "घर": 8086,
      "ज्वल": 8087,
      "मेद": 8088,
      "मिल": 8089,
      "श्छ": 8090,
      "ं गच्छ": 8091,
      "ासम": 8092,
      "समर्प": 8093,
      "स्माभ": 8094,
      "स्वत": 8095,
      "भावः ": 8096,
      "गतः ।\n": 8097,
      " प्रतिदिन": 8098,
      " स्यात् ।\n": 8099,
      "ययौ": 8100,
      " व्यापार": 8101,
      "ःप": 8102,
      "े भ": 8103,
      " सीत": 8104,
      " अङ्ग": 8105,
      "त्वात्": 8106,
      " विधान": 8107,
      "यं च": 8108,
      "ार्थिन": 8109,
      "श्रान्त": 8110,
      " बाध": 8111,
      "ास्त्व": 8112,
      "भ्युप": 8113,
      "लिल": 8114,
      "ुर् ": 8115,
      "and": 8116,
      "पुनरपि ": 8117,
      " ठ": 8118,
      " →": 8119,
      ", आ": 8120,
      "ंतर": 8121,
      "गस्त": 8122,
      "जिह": 8123,
      "ण् ": 8124,
      "मत्त": 8125,
      "षट्": 8126,
      "८९": 8127,
      " मौ": 8128,
      " दीप": 8129,
      " नौ": 8130,
      "पूर्वक": 8131,
      " पूजय": 8132,
      "गम्यते ।\n": 8133,
      "जगाम": 8134,
      "अन्तरिक्ष": 8135,
      "गतो ": 8136,
      "बिभ": 8137,
      "यतु": 8138,
      "रचन": 8139,
      "हरि": 8140,
      "ं विध": 8141,
      "ः शब्द": 8142,
      "र्ब्ब": 8143,
      "ित\n": 8144,
      "िते ।\n": 8145,
      "म् प्र": 8146,
      " कप": 8147,
      "र्वेद": 8148,
      "संविधान": 8149,
      ". (": 8150,
      "ुं॰": 8151,
      "ं चिन्त": 8152,
      "महत्त्व": 8153,
      "तीक्ष": 8154,
      "सम्भाषण": 8155,
      "िलक्षण": 8156,
      "तस्मात्": 8157,
      "किञ्चित् ": 8158,
      "est": 8159,
      "ht": 8160,
      "आनन्द": 8161,
      "उचित": 8162,
      "कूप": 8163,
      "णं ": 8164,
      "यने ": 8165,
      "वत्य": 8166,
      "शाश्व": 8167,
      "होत्र": 8168,
      " सञ्च": 8169,
      "स्य ह": 8170,
      "ते इति ": 8171,
      " वचनं ": 8172,
      " यॊ": 8173,
      "समस्य": 8174,
      " भज": 8175,
      "ान्तिक": 8176,
      " रो": 8177,
      "महोदय": 8178,
      "म् अत्र": 8179,
      "भिश्च": 8180,
      "समुच्च": 8181,
      "कमल": 8182,
      "ाप्नुव": 8183,
      "डि": 8184,
      "र्यं ": 8185,
      "ाळ": 8186,
      "ः तस्य": 8187,
      "स्य स्व": 8188,
      "संस्करण": 8189,
      "दृशी": 8190,
      "्यत आह": 8191,
      "यथा": 8192,
      "दीक्ष": 8193,
      "सरकार": 8194,
      "चिद् ": 8195,
      "ेत्\n": 8196,
      "id": 8197,
      "चत्वार": 8198,
      "मन ": 8199,
      "ानन्तर": 8200,
      " सी": 8201,
      "विम": 8202,
      "न तस्य": 8203,
      "न्त्व": 8204,
      " वाद": 8205,
      "ावाप": 8206,
      "ाशुभ": 8207,
      " न प्र": 8208,
      " समन्व": 8209,
      "मह्यं ": 8210,
      "महान् ": 8211,
      "धारा ": 8212,
      "त्थान": 8213,
      "यावत् ।\n": 8214,
      "ज्ञायते ।\n": 8215,
      "ाम्यह": 8216,
      "्रियते ": 8217,
      "]।\n": 8218,
      "pl": 8219,
      "ईश": 8220,
      "ड्र": 8221,
      "षेक": 8222,
      "६९": 8223,
      "े भव": 8224,
      "ः पु": 8225,
      "त्यधिक": 8226,
      "संदेह": 8227,
      " भोग": 8228,
      "ं वर्ण": 8229,
      " गोप": 8230,
      "कथितं ": 8231,
      " कुमार": 8232,
      "अर": 8233,
      "इक": 8234,
      "तस्तु": 8235,
      "या\n": 8236,
      "े जन": 8237,
      " काव्य": 8238,
      ". ॐ": 8239,
      "िमात्र": 8240,
      "न्ति च": 8241,
      "जायते ॥\n": 8242,
      "योजित": 8243,
      " समाचार\n": 8244,
      "थित": 8245,
      "सा ।\n": 8246,
      "ि क": 8247,
      "र्स": 8248,
      "प्रवाह": 8249,
      " केश": 8250,
      " मेद": 8251,
      " प्रतिक": 8252,
      " उभ": 8253,
      "ं वापि ": 8254,
      "अथात": 8255,
      "धर्म्म": 8256,
      "तत्रापि ": 8257,
      "१९३": 8258,
      "चरित": 8259,
      "पूजित": 8260,
      " अधिनियम ": 8261,
      "49": 8262,
      "ऊर्ध्व": 8263,
      "नित": 8264,
      "लं": 8265,
      "्याद": 8266,
      "विवाद": 8267,
      "ो राज": 8268,
      "ो गुण": 8269,
      "ालि": 8270,
      "समीक्षा ": 8271,
      "स्वस्थ": 8272,
      "ङ्गु": 8273,
      "ाभिधान": 8274,
      "स्नानं ": 8275,
      "विश्ल": 8276,
      "राजन् ": 8277,
      "(iv)": 8278,
      "धार्मिक": 8279,
      "सरे ": 8280,
      "ोतः ": 8281,
      "ो जात": 8282,
      "स्तम": 8283,
      " कुत": 8284,
      "र्व्य": 8285,
      "भवान": 8286,
      "द्रोण": 8287,
      "योगदान": 8288,
      "ं यत्": 8289,
      "ब्रव": 8290,
      "ीणाम": 8291,
      "ञ्जीत": 8292,
      " स्नेह": 8293,
      "of ": 8294,
      ") (": 8295,
      "Th": 8296,
      "पक्व": 8297,
      "शं": 8298,
      "ी प्र": 8299,
      "ोत्पत्त": 8300,
      "७४": 8301,
      "े ल": 8302,
      "न मे ": 8303,
      " ति": 8304,
      " वा अ": 8305,
      "त्वं प्र": 8306,
      " शस्त्र": 8307,
      "सुरक्ष": 8308,
      "ात्म्य": 8309,
      "ः क्व": 8310,
      "शिल": 8311,
      " मुन": 8312,
      "बालकः ": 8313,
      " = ": 8314,
      "मित्याह": 8315,
      "हे \"": 8316,
      " पर्वत": 8317,
      "()": 8318,
      ", न": 8319,
      "46": 8320,
      "चः ": 8321,
      "तर्क": 8322,
      "बे": 8323,
      "्तिक": 8324,
      "ं पुन": 8325,
      "ाति ।\n": 8326,
      "ो भ": 8327,
      " तक": 8328,
      "पराध": 8329,
      "ध्येय": 8330,
      "र्जु": 8331,
      " स्तु": 8332,
      "अवश्यं ": 8333,
      "वचनम": 8334,
      "ive": 8335,
      "श्रूयत": 8336,
      "धम": 8337,
      "वेष": 8338,
      "ा नि": 8339,
      "स्तौ": 8340,
      "स्तदा ": 8341,
      "ियन ": 8342,
      "गुह्य": 8343,
      "द्वे ": 8344,
      "ेण प्र": 8345,
      "ान्तरं ": 8346,
      "ः सर्ग": 8347,
      "प्रत्ययो ": 8348,
      " छु": 8349,
      "नायक": 8350,
      "सौभाग्य": 8351,
      "ान्वय": 8352,
      "आङ्ग्ल": 8353,
      "गेह": 8354,
      "स हि ": 8355,
      "े !\n": 8356,
      "ातिर": 8357,
      "मानेन ": 8358,
      " आदेश": 8359,
      "प्रतिज्ञ": 8360,
      "गमनं ": 8361,
      "अनुकूल": 8362,
      "गणित": 8363,
      " संख्या ": 8364,
      " ग्रहण": 8365,
      "हू": 8366,
      "ा!\n": 8367,
      "्नि": 8368,
      " सन्ध": 8369,
      "विचित्र": 8370,
      "न्ति\n": 8371,
      "ेषज": 8372,
      "ीयम": 8373,
      "ार्थम": 8374,
      "सम्पत्त": 8375,
      " लब्ध": 8376,
      "ानामपि ": 8377,
      " मनो": 8378,
      " थ्व": 8379,
      "मिदं ": 8380,
      " Archives": 8381,
      "ज्योतिष": 8382,
      "55": 8383,
      "आसीत् ": 8384,
      "ज़": 8385,
      "टक": 8386,
      "वर्य": 8387,
      "्राज्य": 8388,
      "ः ज": 8389,
      "प्राकृत": 8390,
      " विभक्त": 8391,
      "तः सर्व": 8392,
      "ोपयोग": 8393,
      "ूल्य": 8394,
      "प्राप्ते ": 8395,
      "ितं ।\n": 8396,
      "न्तरेण": 8397,
      "बहि": 8398,
      "ः शत्र": 8399,
      "लम": 8400,
      "ि त": 8401,
      "ि व": 8402,
      "प्रशिक्षण": 8403,
      "स्याम": 8404,
      "ेवं ": 8405,
      "त्काल": 8406,
      "राक्ष": 8407,
      "स्वीकृत": 8408,
      "ः सन् ": 8409,
      "च्युत": 8410,
      " एकः ": 8411,
      "याम आस": 8412,
      "ः सर्वत्र": 8413,
      "वति ": 8414,
      "७९": 8415,
      "र्हित": 8416,
      " सः ।\n": 8417,
      "ाद् अ": 8418,
      " वरिष्ठ": 8419,
      "ासिद्ध": 8420,
      "क्रमे ": 8421,
      "ाकर्षण": 8422,
      " रि": 8423,
      " सर्वदा ": 8424,
      "म् अर्ह": 8425,
      "विधिना ": 8426,
      "ः अन्य": 8427,
      "युक्तम": 8428,
      "किम् ?\n": 8429,
      " स्पर्श": 8430,
      " जायते ": 8431,
      "' इत्य": 8432,
      "47": 8433,
      "is ": 8434,
      "ईदृश": 8435,
      "गे ": 8436,
      "यैव": 8437,
      "रङ्ग": 8438,
      "शिक": 8439,
      "ैश्वर्य": 8440,
      "८६": 8441,
      " मृ": 8442,
      " याच": 8443,
      "द्योत": 8444,
      "श्चापि ": 8445,
      " भोज": 8446,
      "कृत् ": 8447,
      "ात्मकं ": 8448,
      "यथा ।\n": 8449,
      " महिल": 8450,
      " सूच": 8451,
      " वर्षाणि ": 8452,
      "तिष्ठत": 8453,
      " माता ": 8454,
      "ादिति ।\n": 8455,
      "अन्वय": 8456,
      "ः सूर्य": 8457,
      "आर्य": 8458,
      "कष": 8459,
      "वमान": 8460,
      "शः\n": 8461,
      "ायते ": 8462,
      " क्य": 8463,
      " प्रयत्न": 8464,
      "त्वाम": 8465,
      "ागच्छ": 8466,
      "ेदं ": 8467,
      "ं प्रण": 8468,
      " बोध": 8469,
      "ाभ्याम् ": 8470,
      "ाविश": 8471,
      "राज्ये ": 8472,
      " गुर": 8473,
      "मर्त्य": 8474,
      "यते ।\n": 8475,
      "रेल": 8476,
      "ाञ्जल": 8477,
      "्रीष्ट": 8478,
      " तस्मात् ": 8479,
      " मयि ": 8480,
      " म्ह": 8481,
      " आय": 8482,
      "ं साम": 8483,
      "कथम": 8484,
      "ात्प्र": 8485,
      "र्जुन": 8486,
      "स्य प्रयोग": 8487,
      " - - -": 8488,
      " दिशि ": 8489,
      "St": 8490,
      "जन्": 8491,
      "यस्मिन् ": 8492,
      "ी॑": 8493,
      "न ते ": 8494,
      "स्परम": 8495,
      "स्तेन ": 8496,
      " वचन": 8497,
      "तिल": 8498,
      "िवर्ष": 8499,
      "ं यज्ञ": 8500,
      "इत्यर्थ": 8501,
      "पितॄण": 8502,
      "भगवन् ": 8503,
      " जुय": 8504,
      " पृष्ठान": 8505,
      " इत्यस्य संस्करणे भेदः\n": 8506,
      "Ch": 8507,
      "काच": 8508,
      "तदुक्त": 8509,
      "नो व": 8510,
      "बार": 8511,
      "शि ": 8512,
      "ो!\n": 8513,
      "ोत्पाद": 8514,
      "ा भवति ।\n": 8515,
      "म् इत": 8516,
      "ादर": 8517,
      "समवाय": 8518,
      "श्चर्य": 8519,
      "ीतल": 8520,
      "यदि ।\n": 8521,
      "वसर": 8522,
      " कथित": 8523,
      "ो न च": 8524,
      "कर्षण": 8525,
      "सन्धान": 8526,
      "करिष्यामि ": 8527,
      "िकीर्त": 8528,
      "ं वर्तते ।\n": 8529,
      " सय ": 8530,
      ">>": 8531,
      "ver": 8532,
      "अ/": 8533,
      "अन्न": 8534,
      "सर्ज": 8535,
      "हं": 8536,
      "ोत्स": 8537,
      "७२": 8538,
      "स्पृष्ट": 8539,
      "त्र्य": 8540,
      "िकरण": 8541,
      "त्वं न ": 8542,
      " गन्ध": 8543,
      " रोच": 8544,
      "मम ।\n": 8545,
      "ोदित": 8546,
      "काम्य": 8547,
      "ात्तु": 8548,
      "पश्यति ": 8549,
      "वय्क": 8550,
      "चिदपि ": 8551,
      "निवार्य": 8552,
      " रण": 8553,
      "(c": 8554,
      "41": 8555,
      "खः ।\n": 8556,
      "दो": 8557,
      "पर्ण": 8558,
      "ं फल": 8559,
      "र्भाव": 8560,
      " साय": 8561,
      "स्य \"": 8562,
      " केन ": 8563,
      " मित": 8564,
      "संयु": 8565,
      "तु त": 8566,
      " भर": 8567,
      "िवार": 8568,
      "ेणैव": 8569,
      "िमाण": 8570,
      "प्रतिबन्ध": 8571,
      "यथा च": 8572,
      "ः पञ्च": 8573,
      "गमन ": 8574,
      "वचने ": 8575,
      "प्रातः ": 8576,
      " अधो ": 8577,
      "खल्व": 8578,
      "ं;": 8579,
      "ं.\n": 8580,
      "ी (": 8581,
      "ो भविष्य": 8582,
      "ाय्यं ": 8583,
      " कः ": 8584,
      " प्रवर्त": 8585,
      "परिण": 8586,
      "ासे ": 8587,
      "स्वयमेव": 8588,
      "ं ततः ": 8589,
      "भूष": 8590,
      " स्वीकृत": 8591,
      "भाषा ।\n": 8592,
      " भवन्ति ।\n": 8593,
      "यदि च": 8594,
      "यथोक्त": 8595,
      "दूत": 8596,
      " सूक्ष्म": 8597,
      " सम्प": 8598,
      "हेतव": 8599,
      "बाहु": 8600,
      "यह": 8601,
      "शस्त": 8602,
      " मृग": 8603,
      " च त": 8604,
      "ं प्रत": 8605,
      "न्दन": 8606,
      "ं नैव": 8607,
      "कोण": 8608,
      " वर्षे ": 8609,
      "बहवः ": 8610,
      "त्रिविध": 8611,
      " ज्येष्ठ": 8612,
      "br": 8613,
      "to": 8614,
      "ड्व": 8615,
      "तत्स": 8616,
      "धौ": 8617,
      "धेन": 8618,
      "नयन": 8619,
      "पाश": 8620,
      "रान": 8621,
      "रेत": 8622,
      "रिय": 8623,
      "६६": 8624,
      "प्रदाय": 8625,
      "स्य पर": 8626,
      " प्राप": 8627,
      "िक-": 8628,
      " नृत्य": 8629,
      "हि ॥\n": 8630,
      "एकैक": 8631,
      " समये ": 8632,
      "एतदेव": 8633,
      "तस्यैव": 8634,
      "सूचित": 8635,
      "शब्दार्थ": 8636,
      "क्रियमाण": 8637,
      "वसान": 8638,
      "घटन": 8639,
      "ाख्यं ": 8640,
      " मेरे ": 8641,
      "- (": 8642,
      "आम": 8643,
      "केषु": 8644,
      "ण्ण": 8645,
      "त इति ": 8646,
      "धू": 8647,
      "बै": 8648,
      "भीम": 8649,
      "य।\n": 8650,
      "यमान": 8651,
      "यम् ॥\n": 8652,
      "लौकिक": 8653,
      "ाजन": 8654,
      "िद्": 8655,
      "ी व": 8656,
      "ोः।\n": 8657,
      "९१": 8658,
      "न्तेय": 8659,
      " मार": 8660,
      " चिर": 8661,
      " ज्या ": 8662,
      "कृता ": 8663,
      "पदस्य": 8664,
      "ेरल": 8665,
      "ा विभक्त": 8666,
      "लील": 8667,
      " किम् ": 8668,
      " सूचना\n": 8669,
      "कं": 8670,
      "वरण": 8671,
      "श्त": 8672,
      "सल": 8673,
      "ः जात": 8674,
      "ः सुख": 8675,
      "प्रदूषण": 8676,
      "ो हर": 8677,
      "ादशी": 8678,
      " अभ्य": 8679,
      " इति": 8680,
      " संस्": 8681,
      "भावन": 8682,
      "एतच्च": 8683,
      "प्रत्ययः ।\n": 8684,
      "कल्पित": 8685,
      "कोरो": 8686,
      "बिन्द": 8687,
      "ाम्ब": 8688,
      " शत्रु": 8689,
      "नेन सह अधो ": 8690,
      "नेन सह अधो लिखितान": 8691,
      " R": 8692,
      ", य": 8693,
      "आधार": 8694,
      "इति": 8695,
      "उत्प": 8696,
      "गी": 8697,
      "बिल": 8698,
      "भङ्ग": 8699,
      "ौषध": 8700,
      "त्रापि ": 8701,
      " प्रो": 8702,
      "कृति": 8703,
      "--\"": 8704,
      "ग्निर": 8705,
      " उपाय": 8706,
      "भ्रान्त": 8707,
      "बह्व": 8708,
      "वाञ्छ": 8709,
      "कोष": 8710,
      "खान": 8711,
      "तत्व": 8712,
      "नृ": 8713,
      "ार्ण": 8714,
      "्गु": 8715,
      "्येव": 8716,
      "ा सु": 8717,
      "ान्यं ": 8718,
      " सदैव": 8719,
      "न वा ": 8720,
      "स्य नाम": 8721,
      "ते अ": 8722,
      "ापत्य": 8723,
      "द्यते ।\n": 8724,
      "योन": 8725,
      " संघ": 8726,
      "परिष": 8727,
      " महत्त्व": 8728,
      "दातव्य": 8729,
      "षष्ठी": 8730,
      "भौतिक": 8731,
      " J": 8732,
      "pd": 8733,
      "उपरि ": 8734,
      "तित": 8735,
      "त ॥\n": 8736,
      "मेल": 8737,
      "ः भवति ": 8738,
      "ा जात": 8739,
      "ाची": 8740,
      " उद्": 8741,
      " गाय": 8742,
      "ये तु": 8743,
      "ः,\n": 8744,
      "स्थानं ": 8745,
      "दानव": 8746,
      " महोदय": 8747,
      "कारणं ": 8748,
      "पश्यामि ": 8749,
      "जुइ": 8750,
      " पर्यावरण": 8751,
      ") स": 8752,
      "IS": 8753,
      "pal": 8754,
      "इय": 8755,
      "यागु": 8756,
      "शे ": 8757,
      "हन्ति ": 8758,
      "विमुक्त": 8759,
      " को ": 8760,
      " अप्र": 8761,
      " यौ": 8762,
      " नग": 8763,
      " नेत्र": 8764,
      "तः _\n": 8765,
      "मुच्य": 8766,
      "ाचष्ट": 8767,
      "ष्यति ": 8768,
      "ोऽथ": 8769,
      "ं प्राण": 8770,
      " रज": 8771,
      "शिल्प": 8772,
      "अनन्तर": 8773,
      "ः पठ": 8774,
      "ः पक्ष": 8775,
      "तत्क्षण": 8776,
      "न केवल": 8777,
      "लभ्यते ।\n": 8778,
      " जनवर": 8779,
      "ं किञ्च": 8780,
      "ब्रूहि ": 8781,
      "कद": 8782,
      "ग्य": 8783,
      "जह": 8784,
      "यस्त": 8785,
      "८४": 8786,
      "न्मह": 8787,
      " वक्ष्य": 8788,
      " प्रेम": 8789,
      "ावेव": 8790,
      " दार": 8791,
      "संरक्षण": 8792,
      " - श": 8793,
      " जाग": 8794,
      "ाधीश": 8795,
      " तुल": 8796,
      "न्मात्र": 8797,
      " महत्वपूर्ण": 8798,
      "अन्यथ": 8799,
      " क्रोध": 8800,
      "स्पृह": 8801,
      "मासी": 8802,
      " पुरस्कार": 8803,
      " शुक्र": 8804,
      "ापेक्षया ": 8805,
      "पदिश्य": 8806,
      "ब्व": 8807,
      "मस": 8808,
      "ून ": 8809,
      "ः सम्": 8810,
      " दर": 8811,
      "सर्वेषु": 8812,
      "ाभास": 8813,
      " उपरि ": 8814,
      "देवा ": 8815,
      "ः प्रिय": 8816,
      "ं विद": 8817,
      "हुत": 8818,
      "फलानि ": 8819,
      "अनन्त": 8820,
      "वदत् ": 8821,
      " योगदान": 8822,
      "गौरव": 8823,
      ", प": 8824,
      ".)": 8825,
      "आगच्छ": 8826,
      "जिन": 8827,
      "य\n": 8828,
      "ृज्य": 8829,
      "ः ह": 8830,
      "िनः ॥\n": 8831,
      "िना ।\n": 8832,
      "स्मार": 8833,
      "स्वास्थ्य": 8834,
      " समन्त": 8835,
      "म् अन्य": 8836,
      "ं कल्प": 8837,
      "शिष": 8838,
      " सुवर्ण": 8839,
      "गृहीत्वा ": 8840,
      "े अन्त": 8841,
      "ित्त्व": 8842,
      " छन्द": 8843,
      " अपेक्ष": 8844,
      " न्यून": 8845,
      "च् -": 8846,
      "द्देश्य": 8847,
      "ं व्रज": 8848,
      "एफ": 8849,
      "त ": 8850,
      "याण": 8851,
      "लल": 8852,
      "्ध": 8853,
      "्रत": 8854,
      "्रुव": 8855,
      "ा र": 8856,
      "भवती": 8857,
      "योर्व": 8858,
      "ः सोम": 8859,
      "ः सिद्ध": 8860,
      "शुक्ल": 8861,
      "करणे ": 8862,
      "ृत्यु": 8863,
      "ततोऽ": 8864,
      "ेत्यर्थः ।\n": 8865,
      "ence": 8866,
      "मित्यर्थः ।\n": 8867,
      "दिशि ": 8868,
      "येत्त": 8869,
      "ानि सन्ति ।\n": 8870,
      "60": 8871,
      "ऋतु": 8872,
      "च\n": 8873,
      "ं ब्रह्म": 8874,
      " सत्": 8875,
      "ामः ": 8876,
      "न्द्य": 8877,
      " विन": 8878,
      "र्माण": 8879,
      "सुध": 8880,
      "ब्ल्य": 8881,
      " स्वार्थ": 8882,
      " धनं ": 8883,
      "ं क्व": 8884,
      "विषयं ": 8885,
      "सहस्त्र": 8886,
      "ादिष्ट": 8887,
      "१९१": 8888,
      "तत्पर": 8889,
      "वक्तव्यम् ।\n": 8890,
      "ग्वेद": 8891,
      "On": 8892,
      "काण्ड": 8893,
      "च्व": 8894,
      "चारण": 8895,
      "डु": 8896,
      "नम्\n": 8897,
      "ा_": 8898,
      " च्व": 8899,
      "ागमन": 8900,
      "सर्वान् ": 8901,
      "युध": 8902,
      " एव हि ": 8903,
      "सूत": 8904,
      "ार्ड": 8905,
      "वृण": 8906,
      " कुतः ": 8907,
      "ास्यामि ": 8908,
      "येत्": 8909,
      " स्मरण": 8910,
      "पश्चात् ": 8911,
      "ेष्वपि ": 8912,
      " भाग्य": 8913,
      "पौत्र": 8914,
      "तद्वि": 8915,
      "बाध्य": 8916,
      "प्रस्ताव": 8917,
      "विनि": 8918,
      " वाज": 8919,
      " मण्डल": 8920,
      "संग्रह": 8921,
      "ाह-": 8922,
      "देवस्य": 8923,
      "वेदना ": 8924,
      "क्रम्य": 8925,
      " अन्यतम": 8926,
      " मनोर": 8927,
      " विशेषतः ।\n": 8928,
      "ाङ्ख्य": 8929,
      "युगे ": 8930,
      "प्राति": 8931,
      " हृदयं ": 8932,
      "बंध": 8933,
      "(प": 8934,
      "(इति ": 8935,
      "आदेश": 8936,
      "गर्व": 8937,
      "ट्य": 8938,
      "भाय": 8939,
      "सत्र": 8940,
      "ास्मि ": 8941,
      "ेो": 8942,
      "ोभय": 8943,
      "ं राज": 8944,
      "ं दृष्ट": 8945,
      "ं जात": 8946,
      "र्ड": 8947,
      " तार": 8948,
      " ताम": 8949,
      " पात्र": 8950,
      " पाण्ड": 8951,
      "नि\n": 8952,
      " वाल": 8953,
      " प्रभात": 8954,
      "ागृह": 8955,
      "ं तम": 8956,
      "भूत् ।\n": 8957,
      "रूपाणि ": 8958,
      " व्यक्ति ": 8959,
      "जानाम": 8960,
      "साम्": 8961,
      "परमात्म": 8962,
      "ाभिध": 8963,
      "ादृशी": 8964,
      "क्षुद्र": 8965,
      " यद्यपि ": 8966,
      "सन्देह": 8967,
      " लिङ्ग": 8968,
      "%\n": 8969,
      "ः:": 8970,
      "अभ्यास": 8971,
      "यण": 8972,
      "ो'": 8973,
      "६७": 8974,
      " वार्षिक": 8975,
      " प्रस": 8976,
      "व्यस": 8977,
      " जलं ": 8978,
      "ग्रस्त": 8979,
      " स्क": 8980,
      "िल्म": 8981,
      "्,\n": 8982,
      "२०६": 8983,
      "शक्त्या ": 8984,
      "ेत्यर्थ": 8985,
      "viou": 8986,
      "सङ्कल्प": 8987,
      "ावापृथ": 8988,
      "नि ।\n": 8989,
      "ु)": 8990,
      "ॊप": 8991,
      "ोद्": 8992,
      "्थ": 8993,
      "ं छ": 8994,
      "ं बहु": 8995,
      "ा एक": 8996,
      "ा ये ": 8997,
      " कक्ष": 8998,
      "ावण": 8999,
      "स्थे ": 9000,
      "योक्तव्य": 9001,
      " संवेदन": 9002,
      "श्रोत्र": 9003,
      "ं प्रकाश": 9004,
      "भूतः ": 9005,
      "िदान": 9006,
      "गृहाण": 9007,
      " श्रेण": 9008,
      "१९२": 9009,
      " सम्भाषण": 9010,
      "ततस्त": 9011,
      "ाई\n": 9012,
      "उत्तरः ": 9013,
      " साधारण": 9014,
      "ादिना ।\n": 9015,
      "(अ": 9016,
      "ain": 9017,
      "es ": 9018,
      "od": 9019,
      "ताम् ।\n": 9020,
      "ैति ": 9021,
      "ं हर": 9022,
      "ो विश्व": 9023,
      "ाय प्र": 9024,
      "ादिम": 9025,
      "ादृष्ट": 9026,
      "त्यर्थ": 9027,
      " - एव": 9028,
      ". '": 9029,
      ". एक": 9030,
      "ं प्रार्थ": 9031,
      " रिक्त": 9032,
      "जुल": 9033,
      "पाठः ।\n": 9034,
      "मार्गेण": 9035,
      "तिष्ठति ": 9036,
      " ऊर्ध्व": 9037,
      " K": 9038,
      "\"फलकम": 9039,
      "):": 9040,
      "ख्यं ": 9041,
      "तस्व": 9042,
      "लव": 9043,
      "सन्ति ": 9044,
      "े)\n": 9045,
      "ोs": 9046,
      "ौ न": 9047,
      "ं जल": 9048,
      "प्रविश्य": 9049,
      " करुण": 9050,
      " मे ।\n": 9051,
      "कारान्त": 9052,
      "योगेन ": 9053,
      "पदानि ": 9054,
      "विधि ": 9055,
      "कालेन ": 9056,
      "नमः ": 9057,
      "वश्यं ": 9058,
      " ऑ": 9059,
      "\" इत": 9060,
      "-P": 9061,
      "उत्": 9062,
      "खन": 9063,
      "लत": 9064,
      "ेपि ": 9065,
      "प्रक्रिय": 9066,
      " अश्व": 9067,
      "िवृत्त": 9068,
      "युष्": 9069,
      "कुतो ": 9070,
      "िदिव": 9071,
      "ोदर": 9072,
      "विद्यालयस्य": 9073,
      " इत्येतद् प्रति संबंधनं कुर्वन्त": 9074,
      "ह्रस्व": 9075,
      "ud": 9076,
      "आवश्यक": 9077,
      "तम् ": 9078,
      "थिल": 9079,
      "म आ": 9080,
      "निहित": 9081,
      "ज्ञेया ": 9082,
      "गुड": 9083,
      "ार्थः ।\n": 9084,
      "ाकर्म": 9085,
      "िदास": 9086,
      " स्ट": 9087,
      "अवश्य": 9088,
      "ाभिप्राय": 9089,
      "दत्त्वा ": 9090,
      "ं करोम": 9091,
      " वर्तते ।\n": 9092,
      "सभाय": 9093,
      "श्मीर": 9094,
      "चौ": 9095,
      "ी ॥\n": 9096,
      "ोय": 9097,
      "ं जीव": 9098,
      "स्यत": 9099,
      "ते ह": 9100,
      "िकृत": 9101,
      "ेऽहं ": 9102,
      "ज्यते ।\n": 9103,
      "ोषित": 9104,
      "ानुभव": 9105,
      "अधिकरण": 9106,
      " स्मर": 9107,
      "स्फुर": 9108,
      "स्मैपद": 9109,
      " प्रकृति": 9110,
      " आत्मा ": 9111,
      "कुटुम्ब": 9112,
      "अम": 9113,
      "दर्थ": 9114,
      "नात् ": 9115,
      "वोच": 9116,
      "ं बल": 9117,
      "विदित": 9118,
      "स्य।\n": 9119,
      "ादन्य": 9120,
      " तादृश": 9121,
      " मै": 9122,
      " मोह": 9123,
      " मोक्ष": 9124,
      "स्थूल": 9125,
      "सर्वज्ञ": 9126,
      "ोऽर्थ": 9127,
      " निद्र": 9128,
      " निषेध": 9129,
      " पुराण": 9130,
      "ात्मिक": 9131,
      "परिहार": 9132,
      "वृत्ति ": 9133,
      "ेर् ": 9134,
      "जानीय": 9135,
      "सदैव": 9136,
      " जीवनं ": 9137,
      "जरात": 9138,
      " मूर्ख": 9139,
      "देवी सर्व": 9140,
      "Previou": 9141,
      "tion": 9142,
      "तेनैव": 9143,
      "मे ।\n": 9144,
      "्रिक": 9145,
      "ं कार्यं ": 9146,
      "ः तु": 9147,
      "िताय": 9148,
      "ादश्य": 9149,
      " पश": 9150,
      "राब": 9151,
      "व्यतिरिक्त": 9152,
      "योप": 9153,
      " जगत": 9154,
      " संस्कार": 9155,
      "ीतिक": 9156,
      "श्रित": 9157,
      " इत्येक": 9158,
      "ज्ञानम": 9159,
      "रे ॥\n": 9160,
      "विश्वविद्यालय": 9161,
      "ः - (": 9162,
      "यययय": 9163,
      "ेट् ": 9164,
      " आरम्भ": 9165,
      "न्यूनतम": 9166,
      "SP": 9167,
      "s:": 9168,
      "पत्न": 9169,
      "वाप": 9170,
      "सै": 9171,
      "ुत्तर": 9172,
      "ं '": 9173,
      "ं दश": 9174,
      "ो र": 9175,
      " मोद": 9176,
      "ावली": 9177,
      "राट": 9178,
      " विष्ण": 9179,
      "ियु": 9180,
      "देवदत्त": 9181,
      "भिष": 9182,
      "भिर्व": 9183,
      "विद्यते ॥\n": 9184,
      " कुशल": 9185,
      " राज्यं ": 9186,
      "पृथक्": 9187,
      " गृह्ण": 9188,
      "विशाल": 9189,
      " पितामह": 9190,
      " श्वेत": 9191,
      "उपयोगकर्ता समीक्षा ": 9192,
      " l": 9193,
      "ail": 9194,
      "ंते ": 9195,
      "अभाव": 9196,
      "खः ": 9197,
      "जनं ": 9198,
      "बर्ह": 9199,
      "८१": 9200,
      " स च": 9201,
      "विभव": 9202,
      "न्ट": 9203,
      "ागतम": 9204,
      "पूजन": 9205,
      "ाधर": 9206,
      "लोह": 9207,
      "पदान": 9208,
      "विधेय": 9209,
      "ः अर्थ": 9210,
      "े मध्य": 9211,
      "साधनं ": 9212,
      "वदति ": 9213,
      " काले ": 9214,
      "ैतन्य": 9215,
      "सम्यक् ": 9216,
      "विश्लेषण": 9217,
      ". क": 9218,
      "पेश": 9219,
      "वाग": 9220,
      "शाप": 9221,
      "ौ स": 9222,
      "े त्रि": 9223,
      "म् एत": 9224,
      "ावधान": 9225,
      "ध्यात्वा ": 9226,
      "मुच्यते ॥\n": 9227,
      " संस्थ": 9228,
      " ह ।\n": 9229,
      "भाग्यं ": 9230,
      "्\"।\n": 9231,
      "व्यवस्था ": 9232,
      " आसन": 9233,
      "संवत्सर": 9234,
      "-msgstr \"": 9235,
      "ip": 9236,
      "कदापि ": 9237,
      "लिक": 9238,
      "ु ": 9239,
      "्द्य": 9240,
      "६३": 9241,
      "ं कार": 9242,
      "क्षयं ": 9243,
      "म् _": 9244,
      " पशु": 9245,
      "रा\n": 9246,
      "राशि": 9247,
      " विधि": 9248,
      "कारी": 9249,
      "ियान": 9250,
      "म्हार": 9251,
      "मुहूर्त": 9252,
      "सुम": 9253,
      " निर्ध": 9254,
      " न शक्न": 9255,
      " इत्यादि ": 9256,
      "ः अभवत": 9257,
      "ानुमान": 9258,
      ". . . ": 9259,
      "ान्\n": 9260,
      "ीपत": 9261,
      " एकादश": 9262,
      "क्षेत्रज्ञ": 9263,
      "ant": 9264,
      "निर्मुक्त": 9265,
      "प्रभृत": 9266,
      " दृश्यते ।\n": 9267,
      " भविष्यति ": 9268,
      "अस्माभ": 9269,
      " अध्ययन": 9270,
      "यन्त्रण": 9271,
      "स्तथा ।\n": 9272,
      " विवरण": 9273,
      " w": 9274,
      "59": 9275,
      "एशिय": 9276,
      "सरण": 9277,
      "॒ः": 9278,
      "ितं च": 9279,
      "विघ्न": 9280,
      " यह": 9281,
      "समग्र": 9282,
      "ेण स": 9283,
      "देशिक": 9284,
      "भूत् ": 9285,
      "रूपे ": 9286,
      "धिकृत": 9287,
      "धिकृत्य": 9288,
      "ने च": 9289,
      "वैज्ञानिक": 9290,
      "स्थानानि ": 9291,
      "र्जाल": 9292,
      "षुप्त": 9293,
      "दिवि ": 9294,
      "ायुष": 9295,
      "दुर्बल": 9296,
      " भविष्यत": 9297,
      "VER": 9298,
      "og": 9299,
      "ःथ": 9300,
      "एच": 9301,
      "एक्स": 9302,
      "कथा ": 9303,
      "धे": 9304,
      "मार्": 9305,
      "७७": 9306,
      "ः कर्तव्य": 9307,
      "विवेश": 9308,
      "स्यात्": 9309,
      " तेषु": 9310,
      " प्य": 9311,
      " इती": 9312,
      "ेन हि ": 9313,
      " चिकित्स": 9314,
      "या स": 9315,
      "ात् पर": 9316,
      "मे ॥\n": 9317,
      " लु": 9318,
      " श्रवण": 9319,
      "ी,\n": 9320,
      " पर्यन्त": 9321,
      " परिवार": 9322,
      "भाष्यम": 9323,
      "सृत्य": 9324,
      "ऽपि ": 9325,
      "ुर्व": 9326,
      "ृ॑": 9327,
      "ोयं ": 9328,
      "ं त्र": 9329,
      "निबन्ध": 9330,
      " मो": 9331,
      "ीयान": 9332,
      "देवता ": 9333,
      " रे": 9334,
      "भूते ": 9335,
      "महत": 9336,
      "तीव्र": 9337,
      "ं यत": 9338,
      "स्थिति": 9339,
      "स्थितः ।\n": 9340,
      "योरपि ": 9341,
      "जिज्ञास": 9342,
      "अच": 9343,
      "वं": 9344,
      "े -": 9345,
      " अग्नि": 9346,
      " माल": 9347,
      " मानुष": 9348,
      "ावन": 9349,
      "व्याह": 9350,
      " न स": 9351,
      "एवं त": 9352,
      " भयं ": 9353,
      "रोद": 9354,
      "ः प्रधान": 9355,
      "पुनः स": 9356,
      "ः केवल": 9357,
      "ा अप": 9358,
      "ज्ञातव्य": 9359,
      "ध्वनि ": 9360,
      "art": 9361,
      "कर्तव्यम् ।\n": 9362,
      "शोच": 9363,
      "SE: ": 9364,
      ") क": 9365,
      "42": 9366,
      "अतीव": 9367,
      "टि": 9368,
      "ड्य": 9369,
      "िा": 9370,
      "ौ\"": 9371,
      " सागर": 9372,
      "ामाण": 9373,
      "ते सर्व": 9374,
      " वाण": 9375,
      " वीर्य": 9376,
      " भौ": 9377,
      "द्वेष्ट": 9378,
      "ाधु": 9379,
      "ेण्ड": 9380,
      "ाकाम": 9381,
      "ं प्रिय": 9382,
      "ं चापि ": 9383,
      " सर्वेषु": 9384,
      "परिभाषा ": 9385,
      "विशेषतः ।\n": 9386,
      "मिष": 9387,
      "ाभिमुख": 9388,
      "स्य गुण": 9389,
      "ग्रहणं ": 9390,
      " जीवन": 9391,
      "दारिद्र": 9392,
      " किमर्थ": 9393,
      "प्रातः": 9394,
      "अध्यक्ष": 9395,
      "अध्याय ": 9396,
      "ाशङ्क्य": 9397,
      "एल": 9398,
      "टै": 9399,
      "यन्त्य": 9400,
      "रच": 9401,
      "ी-\n": 9402,
      "्वान": 9403,
      " पीत": 9404,
      " यद्व": 9405,
      "व्यथ": 9406,
      "स्वयम": 9407,
      "ागत्य": 9408,
      " आसीत् ": 9409,
      "जनव": 9410,
      "देव्य": 9411,
      " इत्यपि ": 9412,
      " सर्वाणि ": 9413,
      "ङ्गम": 9414,
      "नीति": 9415,
      "जगत्": 9416,
      "ैरेव": 9417,
      " जनान": 9418,
      "प्राणिन": 9419,
      "000": 9420,
      " शक्नुम": 9421,
      " y": 9422,
      "\"त": 9423,
      "चाय": 9424,
      "यूप": 9425,
      "शो ": 9426,
      "ीस": 9427,
      "ेयु": 9428,
      "ं पुत्र": 9429,
      "प्रवक्ष्यामि ": 9430,
      "विण": 9431,
      "विहीन": 9432,
      "न कर": 9433,
      " तस्मिन् ": 9434,
      "ासम्": 9435,
      " नवी": 9436,
      " शरी": 9437,
      "र्म्म": 9438,
      "भूति": 9439,
      "ना ॥\n": 9440,
      "लिस": 9441,
      "प्रत्यये ": 9442,
      "राष्ट्रपत": 9443,
      "बहुव्रीह": 9444,
      "बुध्य": 9445,
      " कीदृश": 9446,
      "कः अ": 9447,
      "ता": 9448,
      "मति ": 9449,
      "ा भ": 9450,
      "प्रयच्छ": 9451,
      " सः ॥\n": 9452,
      "विह": 9453,
      "न प": 9454,
      "ाम्न": 9455,
      " पथ": 9456,
      " प्राग": 9457,
      " प्रसन्न": 9458,
      "ाकी": 9459,
      " परन्तु": 9460,
      " (उच्चारण": 9461,
      " समीक्ष": 9462,
      "इत्यादि ": 9463,
      "रिष्ट": 9464,
      "जाति": 9465,
      "ृण्व": 9466,
      "जगद": 9467,
      " = पु": 9468,
      "नेगु": 9469,
      "क्षिप्य": 9470,
      " वाप ": 9471,
      "\"क": 9472,
      "ast": 9473,
      "कान् ": 9474,
      "मेन": 9475,
      "सः ॥\n": 9476,
      "ि म": 9477,
      " सित": 9478,
      " कल्याण": 9479,
      " पराज": 9480,
      "श्चित् ": 9481,
      " संदेह": 9482,
      "ल्ब": 9483,
      "िमत": 9484,
      "ात्मानं ": 9485,
      "ज्यो": 9486,
      "ान्येव": 9487,
      "तथा ॥\n": 9488,
      "बाल्य": 9489,
      "दारुण": 9490,
      "चित् ॥\n": 9491,
      " ऋण": 9492,
      "ः स्यात": 9493,
      "pe": 9494,
      "to ": 9495,
      "अण": 9496,
      "जक": 9497,
      "धक": 9498,
      "धीत": 9499,
      "याऽ": 9500,
      "यान्ति ": 9501,
      "८८": 9502,
      "प्रदेशे ": 9503,
      "स्य (": 9504,
      " पृष्ट": 9505,
      "ते त": 9506,
      " प्रमुख": 9507,
      " शाश्व": 9508,
      " शून्य": 9509,
      "ध्यानं ": 9510,
      " भग": 9511,
      " आनन्द": 9512,
      "ार्थक": 9513,
      "श्रीम": 9514,
      "ं वक्त": 9515,
      "ं वाच": 9516,
      "स्तु त": 9517,
      " सुत": 9518,
      "ाज्यं ": 9519,
      "क्षेम": 9520,
      "रक्षति ": 9521,
      "दिवसे ": 9522,
      "स्थापन": 9523,
      "िकीर्ष": 9524,
      " इन्द्रिय": 9525,
      "ं सूत्र": 9526,
      "निरूपण": 9527,
      "ोदाहरण": 9528,
      "DF": 9529,
      "बौद्ध": 9530,
      "्याम": 9531,
      "ं गुण": 9532,
      "े पूर्व": 9533,
      "ः पुर": 9534,
      "ा नाम": 9535,
      "र्ट": 9536,
      "न -": 9537,
      "स्य वा ": 9538,
      "स्माद् ": 9539,
      "देशकाल": 9540,
      "ं तत": 9541,
      " रे ": 9542,
      "म् अह": 9543,
      "पदेन ": 9544,
      "ं सिद्ध": 9545,
      "सम्ब": 9546,
      "ानुवाद": 9547,
      "अथ वा ": 9548,
      "ेरित": 9549,
      "चिह्न": 9550,
      " राक्षस": 9551,
      "वत्सर": 9552,
      " क्रमेण": 9553,
      " प्रतिशत\n": 9554,
      "करोमि ": 9555,
      " सार्व": 9556,
      "(च": 9557,
      "]]": 9558,
      "ङीप": 9559,
      "धिप": 9560,
      "पलाय": 9561,
      "वत्त्व": 9562,
      "सचिव": 9563,
      "िग": 9564,
      "्यते ॥\n": 9565,
      "ः स्मृत": 9566,
      "र्ब": 9567,
      " पति": 9568,
      "न्मुख": 9569,
      " मधु": 9570,
      " प्रविष्ट": 9571,
      "ावयव": 9572,
      " देहि ": 9573,
      "न्यस्त": 9574,
      "ानि -": 9575,
      "ान्तरण": 9576,
      "ं प्रमाण": 9577,
      " स्वर": 9578,
      "तदेत": 9579,
      "यद्येव": 9580,
      "सप्तम": 9581,
      " शक्यते ": 9582,
      "ं वर्तत": 9583,
      "अध्यायः ": 9584,
      "US-P": 9585,
      "घ्नं ": 9586,
      "भिव": 9587,
      "वारण": 9588,
      "ूगु": 9589,
      "्येन ": 9590,
      "्वाद": 9591,
      "प्रदर्श": 9592,
      "क्त्वा ": 9593,
      " दुर": 9594,
      " विस्तार": 9595,
      "िं\n": 9596,
      "द्रुत": 9597,
      "ोऽयम": 9598,
      "देवेश": 9599,
      "ः प्रकाश": 9600,
      "ः प्रश्न": 9601,
      "ं यदा ": 9602,
      "दिल": 9603,
      "मेव।\n": 9604,
      "ा अधिकार": 9605,
      "ं मन्त्र": 9606,
      "ञ्जय": 9607,
      "ं दक्षिण": 9608,
      " पूर्वोक्त": 9609,
      "जुष": 9610,
      "विवक्ष": 9611,
      "जीर्ण": 9612,
      "केनापि ": 9613,
      " नरक": 9614,
      "own": 9615,
      " v": 9616,
      " , ": 9617,
      "UP": 9618,
      "अ॒": 9619,
      "च ॥\n": 9620,
      "चक्षुष": 9621,
      "वं ": 9622,
      "ैकं ": 9623,
      "ॊ ह": 9624,
      "ि (": 9625,
      "प्रमुख": 9626,
      "न ह्य": 9627,
      "स्ततो ": 9628,
      "ादर्श": 9629,
      " आगत": 9630,
      " इत्यनेन सह अधो लिखितान": 9631,
      "िणः ।\n": 9632,
      "ं सदा ": 9633,
      "भाषिक": 9634,
      "ेऽथ": 9635,
      "फलम": 9636,
      " दुर्ग": 9637,
      "वान् ॥\n": 9638,
      "त्वं हि ": 9639,
      "कीर्त्त": 9640,
      "स्य अर्थ": 9641,
      "ासीत् ।\n": 9642,
      "ात्मनः ।\n": 9643,
      " अभिन": 9644,
      " &": 9645,
      "प् ": 9646,
      "ो दश": 9647,
      " मार्च": 9648,
      " प्रसाद": 9649,
      "र्षभ": 9650,
      "ोऽव": 9651,
      "ोऽसौ": 9652,
      " न भवत": 9653,
      "ज्यते ": 9654,
      "दिन ": 9655,
      "च्या ": 9656,
      "गच्छति ।\n": 9657,
      "ेत्याह": 9658,
      "सरल": 9659,
      "अभिन": 9660,
      "ाऽऽह": 9661,
      "ान्धव": 9662,
      " मृत्यु": 9663,
      "\"'": 9664,
      "qu": 9665,
      "खं ": 9666,
      "दाव": 9667,
      "मते ": 9668,
      "य्स": 9669,
      "रम्भ": 9670,
      "वर्द्ध": 9671,
      "शः ॥\n": 9672,
      "ृष्य": 9673,
      "ैते ": 9674,
      "ोर्म": 9675,
      "ानव": 9676,
      "स्य वै": 9677,
      "ति क": 9678,
      "ो भगव": 9679,
      "निष्प": 9680,
      "निग्ध": 9681,
      " अति ": 9682,
      "िकाम": 9683,
      " दरिद्र": 9684,
      "िने ": 9685,
      "स्वातन्त्र्य": 9686,
      "माने ": 9687,
      "सुन्दर": 9688,
      " निश": 9689,
      "ः साक्ष": 9690,
      "दुगु": 9691,
      "पुनः": 9692,
      "यतः ।\n": 9693,
      "िल ।\n": 9694,
      "ं नास्ति ": 9695,
      "िति ॥\n": 9696,
      "े साथ": 9697,
      "तथा हि ": 9698,
      " स्तम्भ": 9699,
      "ाभ्याम": 9700,
      "यत्नं ": 9701,
      "वासरे ": 9702,
      " जीवित": 9703,
      " वृष": 9704,
      "ं गत्वा ": 9705,
      " In": 9706,
      "ः॑": 9707,
      "चोद": 9708,
      "नूनं ": 9709,
      "सवर्ण": 9710,
      "िँ": 9711,
      "ोई": 9712,
      "्र्य": 9713,
      "ः उप": 9714,
      "ः पूर्ण": 9715,
      "ा \"": 9716,
      "ा मम": 9717,
      "प्रबन्ध": 9718,
      "ादि ।\n": 9719,
      " तर्ह": 9720,
      "त्रयः ": 9721,
      "ावरुण": 9722,
      "संसर्ग": 9723,
      "रुत": 9724,
      "नं ।\n": 9725,
      " बाह": 9726,
      "ेषु स": 9727,
      "् अर्थ": 9728,
      "ध्वंस": 9729,
      "चतुर": 9730,
      " पुरतः ": 9731,
      " किमपि ": 9732,
      "श्लेष": 9733,
      "सन्दर्भ": 9734,
      " k": 9735,
      "उच्यते ": 9736,
      "क,": 9737,
      "दं ": 9738,
      "फरव": 9739,
      "मर्ह": 9740,
      "रवि": 9741,
      "वते ": 9742,
      "ीठ": 9743,
      "स्या ": 9744,
      "स्य एक": 9745,
      "ामित्र": 9746,
      "ेत\n": 9747,
      "संपाद": 9748,
      " विजय": 9749,
      " विरुद्ध": 9750,
      " जय": 9751,
      "ेदार": 9752,
      "पूरण": 9753,
      " उत्प": 9754,
      " परीणाम": 9755,
      " \"\n": 9756,
      "ेऽनु": 9757,
      "ं यज": 9758,
      "ग्रहीत": 9759,
      "ं नास्त": 9760,
      " तुल्य": 9761,
      "याम्य": 9762,
      "ः स्वयं ": 9763,
      "मन्त्रेण": 9764,
      "चतुष्ट": 9765,
      "वक्त्र": 9766,
      "चलित": 9767,
      "आत्मान": 9768,
      " न्यायालय": 9769,
      "ानुसारेण": 9770,
      "समाचार खोज": 9771,
      " भाष्य": 9772,
      "समाचार खोज परीणाम": 9773,
      " <": 9774,
      "इट": 9775,
      "ेर्व": 9776,
      "्कः ": 9777,
      "ा ते ": 9778,
      "स्यान": 9779,
      "ाव्यं ": 9780,
      "िः-": 9781,
      "ज्ज्ञान": 9782,
      " नाय": 9783,
      " चर": 9784,
      "ियो ": 9785,
      " जन्मन": 9786,
      "क्रमित": 9787,
      "ाकाङ्क्ष": 9788,
      "इति च": 9789,
      "199": 9790,
      " पृथक् ": 9791,
      " ऊर्ज": 9792,
      "यत्तु": 9793,
      "VERSE: ": 9794,
      "समाचार खोज परीणामः \"": 9795,
      "धित": 9796,
      "पै": 9797,
      "लेप": 9798,
      "श् ": 9799,
      "ाघ्र": 9800,
      "स्य वर्ष": 9801,
      "ो गृह": 9802,
      "क्षमा ": 9803,
      "स्कृत्य": 9804,
      " पवित्र": 9805,
      "निम्न": 9806,
      " अल्प": 9807,
      " अस्माकं ": 9808,
      "िकम": 9809,
      "िकर": 9810,
      "ालम्ब": 9811,
      "क्रत": 9812,
      " हल": 9813,
      " गीत": 9814,
      "ं प्रकृत": 9815,
      "ं प्रवक्ष्यामि ": 9816,
      " स्वास्थ्य": 9817,
      "इत्यर्थः ।\n": 9818,
      "बहुविध": 9819,
      "ं,\n": 9820,
      " स्यात्": 9821,
      "कश्चिद": 9822,
      "ाबाह": 9823,
      "Nepal": 9824,
      " रुद्र": 9825,
      "log": 9826,
      "lok": 9827,
      "युज्यते ": 9828,
      "दर्पण": 9829,
      "नर्थ": 9830,
      "नैक": 9831,
      "स ": 9832,
      "़ी": 9833,
      "ुत्वा ": 9834,
      "ृच": 9835,
      "७३": 9836,
      "ं पु": 9837,
      "े वै": 9838,
      "स्यास्य": 9839,
      "म् इति ।\n": 9840,
      "म् इव": 9841,
      " भु": 9842,
      " है": 9843,
      "रोम": 9844,
      "पूर्वमेव": 9845,
      "कथय": 9846,
      "कर्म्मण": 9847,
      "धर्मेण": 9848,
      "स्त्रि": 9849,
      "ब्रूय": 9850,
      "ग्ण": 9851,
      "कारणेन ": 9852,
      "ory": 9853,
      "प्रभृति ": 9854,
      "शालाय": 9855,
      "अभिप्राय": 9856,
      "नारायण": 9857,
      "ं तथा ।\n": 9858,
      "ानुपपत्त": 9859,
      ", \"": 9860,
      "99": 9861,
      "o\n": 9862,
      "अवि": 9863,
      "उद्योग": 9864,
      "चर्च": 9865,
      "धे ": 9866,
      "ा\"\n": 9867,
      "ारभ": 9868,
      "स्य कारण": 9869,
      "म् इ": 9870,
      " येष": 9871,
      "राचर": 9872,
      " - व": 9873,
      "स्मान् ": 9874,
      "न्यस": 9875,
      "था ॥\n": 9876,
      "ेन् ": 9877,
      "ाधर्म": 9878,
      " धीर": 9879,
      "रूप्य": 9880,
      "विधौ": 9881,
      "ः कल्प": 9882,
      "सम्पद": 9883,
      "तदैव": 9884,
      "सिध्य": 9885,
      "दिनानि ": 9886,
      "अनुप": 9887,
      "अतः पर": 9888,
      "अर्थात् ": 9889,
      " मनसि ": 9890,
      " पितर": 9891,
      " रुपये\n": 9892,
      "आरम्भ": 9893,
      "इत्युक्त्वा ": 9894,
      "43": 9895,
      "उगु": 9896,
      "खिलं ": 9897,
      "नत्व": 9898,
      "भृत्य": 9899,
      "लिन": 9900,
      "स तव": 9901,
      "ि:": 9902,
      " सैन्य": 9903,
      "न भवत": 9904,
      " कृत्य": 9905,
      "ुं\n": 9906,
      " स्वर्ण": 9907,
      "न्दर्य": 9908,
      "काले च": 9909,
      "ं नर": 9910,
      "वाद्य": 9911,
      "ं पञ्च": 9912,
      " अपि च": 9913,
      "कुर्वीत": 9914,
      "नेप": 9915,
      " टी": 9916,
      "यिष्यत": 9917,
      " योग्य": 9918,
      " जनवरी": 9919,
      " ध्वनि ": 9920,
      " ]": 9921,
      "तैल": 9922,
      "नाल": 9923,
      "शर्म": 9924,
      "िन्न ": 9925,
      "ित् ।\n": 9926,
      "न पर": 9927,
      "ाय स": 9928,
      " तात": 9929,
      " पद्ध": 9930,
      " मत्स्य": 9931,
      " विज": 9932,
      " - प्र": 9933,
      " जक": 9934,
      "ं वार": 9935,
      " निरी": 9936,
      " समृद्ध": 9937,
      "म् अभवत् ।\n": 9938,
      "वा ॥\n": 9939,
      "भिधान": 9940,
      "शिशु": 9941,
      "ं यावत् ": 9942,
      "इत्याह": 9943,
      " भवता ": 9944,
      "सिन्ध": 9945,
      "वर्ष\n": 9946,
      "यथाव": 9947,
      "ान्नि": 9948,
      "जीवने ": 9949,
      "नवीन": 9950,
      "१९०": 9951,
      "वाहन": 9952,
      "प्रशंस": 9953,
      "ाई ": 9954,
      "मित्यर्थ": 9955,
      "सामान्यतः ": 9956,
      "ित्सा ": 9957,
      "oun": 9958,
      "सङ्गीत": 9959,
      "उत्तरा": 9960,
      "गृह्णाति ": 9961,
      "ासंभव": 9962,
      " निर्वाच": 9963,
      "ST": 9964,
      "अव्य": 9965,
      "ऊँ": 9966,
      "कय": 9967,
      "दे": 9968,
      "नभ": 9969,
      "नेह": 9970,
      "न संशयः ॥\n": 9971,
      "लकार": 9972,
      "ाष्ठ": 9973,
      "ीभाव": 9974,
      "्̇": 9975,
      "े तव": 9976,
      "प्रकल्प": 9977,
      "म् तर्हि ": 9978,
      " तस्मै": 9979,
      "निष्य": 9980,
      "ापन": 9981,
      " नागरिक": 9982,
      "मुवाच": 9983,
      "श्विन": 9984,
      "ल्ड": 9985,
      "महाराज": 9986,
      " इत्यादि": 9987,
      "यः सर्व": 9988,
      "भ्यः ": 9989,
      "तस्य च": 9990,
      " भवन्ति ": 9991,
      " कुट": 9992,
      "परमार्थ": 9993,
      "ं निर्व": 9994,
      " हृदये ": 9995,
      "-\"": 9996,
      "51": 9997,
      "Pr": 9998,
      "ha": 9999
    },
    "merges": [
      [
        "्",
        "य"
      ],
      [
        "्",
        "र"
      ],
      [
        "।",
        "\n"
      ],
      [
        "्",
        "त"
      ],
      [
        "ं",
        " "
      ],
      [
        "ि",
        " "
      ],
      [
        "्",
        "व"
      ],
      [
        "े",
        " "
      ],
      [
        "ः",
        " "
      ],
      [
        "ा",
        " "
      ],
      [
        "्",
        " "
      ],
      [
        "ा",
        "न"
      ],
      [
        "र",
        "्"
      ],
      [
        "प",
        "्र"
      ],
      [
        "ि",
        "त"
      ],
      [
        " ",
        "स"
      ],
      [
        "व",
        "ि"
      ],
      [
        "ा",
        "र"
      ],
      [
        "ा",
        "त"
      ],
      [
        "न",
        " "
      ],
      [
        "ा",
        "ं"
      ],
      [
        "स",
        "्य"
      ],
      [
        "त",
        "ि "
      ],
      [
        "क",
        "्"
      ],
      [
        "ा",
        "म"
      ],
      [
        "ो",
        " "
      ],
      [
        "क्",
        "ष"
      ],
      [
        "स",
        "्"
      ],
      [
        "ा",
        "य"
      ],
      [
        "म",
        "् "
      ],
      [
        "स",
        "्त"
      ],
      [
        "ा",
        "द"
      ],
      [
        " ",
        "क"
      ],
      [
        "॥",
        "\n"
      ],
      [
        " ",
        "त"
      ],
      [
        " ",
        "प"
      ],
      [
        "ष",
        "्"
      ],
      [
        "न",
        "्त"
      ],
      [
        "ा",
        "ः"
      ],
      [
        "न",
        "ि"
      ],
      [
        "न",
        "्"
      ],
      [
        "र",
        "्व"
      ],
      [
        " ",
        "अ"
      ],
      [
        "त",
        "्य"
      ],
      [
        "त",
        "्र"
      ],
      [
        "त",
        "े "
      ],
      [
        "ा",
        "प"
      ],
      [
        " ",
        "।\n"
      ],
      [
        " ",
        "व"
      ],
      [
        " ",
        "म"
      ],
      [
        "क",
        "्त"
      ],
      [
        "े",
        "व"
      ],
      [
        " ",
        "प्र"
      ],
      [
        "ि",
        "क"
      ],
      [
        "ा",
        "व"
      ],
      [
        "ृ",
        "त"
      ],
      [
        "प",
        "र"
      ],
      [
        "भ",
        "व"
      ],
      [
        " ",
        "इ"
      ],
      [
        "द",
        "्"
      ],
      [
        "्",
[...]
