{"\n":0," ":1,"!":2,"\"":3,"#":4,"$":5,"%":6,"&":7,"'":8,"(":9,")":10,"*":11,"+":12,",":13,"-":14,".":15,"/":16,"0":17,"1":18,"2":19,"3":20,"4":21,"5":22,"6":23,"7":24,"8":25,"9":26,":":27,";":28,"<":29,"=":30,">":31,"?":32,"@":33,"A":34,"B":35,"C":36,"D":37,"E":38,"F":39,"G":40,"H":41,"I":42,"J":43,"K":44,"L":45,"M":46,"N":47,"O":48,"P":49,"Q":50,"R":51,"S":52,"T":53,"U":54,"V":55,"W":56,"X":57,"Y":58,"Z":59,"[":60,"\\":61,"]":62,"_":63,"`":64,"a":65,"b":66,"c":67,"d":68,"e":69,"f":70,"g":71,"h":72,"i":73,"j":74,"k":75,"l":76,"m":77,"n":78,"o":79,"p":80,"q":81,"r":82,"s":83,"t":84,"u":85,"v":86,"w":87,"x":88,"y":89,"z":90,"~":91,"":92,"":93,"":94,"¡":95,"¤":96,"§":97,"©":98,"­":99,"®":100,"°":101,"±":102,"³":103,"µ":104,"¶":105,"·":106,"¼":107,"½":108,"À":109,"Á":110,"Â":111,"Ã":112,"Ä":113,"Å":114,"Æ":115,"Ç":116,"É":117,"Í":118,"Ò":119,"Ó":120,"Õ":121,"Ö":122,"×":123,"Ø":124,"Ú":125,"Û":126,"Ü":127,"Þ":128,"ß":129,"à":130,"á":131,"â":132,"ã":133,"ä":134,"å":135,"æ":136,"ç":137,"è":138,"é":139,"ê":140,"ë":141,"ì":142,"í":143,"î":144,"ï":145,"ð":146,"ñ":147,"ò":148,"ó":149,"ô":150,"õ":151,"ö":152,"ø":153,"ú":154,"û":155,"ü":156,"ý":157,"ÿ":158,"ā":159,"ă":160,"ą":161,"ć":162,"Č":163,"č":164,"đ":165,"ē":166,"ė":167,"ę":168,"ě":169,"ğ":170,"ģ":171,"ī":172,"İ":173,"ı":174,"Ķ":175,"ľ":176,"Ł":177,"ł":178,"ń":179,"ņ":180,"ň":181,"ō":182,"ŏ":183,"œ":184,"ř":185,"ś":186,"ş":187,"Š":188,"š":189,"ū":190,"ů":191,"ų":192,"ź":193,"ż":194,"Ž":195,"ž":196,"ǎ":197,"Ș":198,"ș":199,"ț":200,"ə":201,"˗":202,"́":203,"̈":204,"α":205,"μ":206,"А":207,"Б":208,"В":209,"Д":210,"Ж":211,"З":212,"И":213,"К":214,"Л":215,"Н":216,"О":217,"П":218,"С":219,"Т":220,"Ф":221,"Ш":222,"Э":223,"а":224,"б":225,"в":226,"г":227,"д":228,"е":229,"ж":230,"з":231,"и":232,"й":233,"к":234,"л":235,"м":236,"н":237,"о":238,"п":239,"р":240,"с":241,"т":242,"у":243,"ф":244,"х":245,"ц":246,"ч":247,"ш":248,"щ":249,"ы":250,"ь":251,"э":252,"ю":253,"я":254,"ỏ":255,"ố":256,"‍":257,"‑":258,"‒":259,"•":260,"‰":261,"″":262,"⁣":263,"₁":264,"₂":265,"€":266,"℃":267,"⅓":268,"−":269,"∞":270,"■":271,"●":272,"★":273,"⭐":274,"😂":275,"🤌":276,"n ":277,"a ":278,"is":279,"ta":280,"i ":281,"ll":282,"en ":283,".\n":284,"ä ":285,"tt":286,"in":287,"ka":288,"va":289,"en":290,", ":291,"t ":292,"in ":293,"st":294,"it":295,"ma":296,"ko":297,"el":298,"an":299,"ss":300,"an ":301,"ku":302,"er":303,"ks":304,"uo":305,"e ":306,"on ":307,"to":308,"tu":309,"ja ":310,"al":311,"il":312,"ää":313,"jo":314,"si":315,"ke":316,"ol":317,"ist":318,"uu":319,"te":320,"a.\n":321,"vi":322,"s ":323,"ki":324,"ar":325,"ti":326,"ett":327,"ssa ":328,"mu":329,"ra":330,"ik":331,"sta":332,"sa":333,"vä":334,"ell":335,"nn":336,"ja":337,"la":338,"pa":339,"im":340,"se":341,"est":342,"tä":343,"ill":344,"vo":345,"än ":346,"yö":347,"tta":348,"hd":349,"on":350,"mm":351,"itt":352,"pu":353,"sa ":354,"inen ":355,"he":356,"vat ":357,"ut ":358,", ett":359,"jä":360,"mi":361,"id":362,"ul":363,"kä":364,"oll":365,"et ":366,"o ":367,"ty":368,"ha":369,", että ":370,"li":371,"ro":372,"vuo":373,"ksi ":374,"ei ":375,"mis":376,"ään ":377,"ri":378,"us":379,"ne":380,"a, ":381,"ta ":382,"ih":383,"le":384,"ka ":385,"ker":386,"kan":387,"ista ":388,"än":389,"lo":390,"ä.\n":391,"re":392,"ai":393,"oli ":394,"ed":395,"sta ":396,"uks":397,"kaan ":398,"iin ":399,"tta ":400,"een ":401,"lla ":402,"ky":403,"mp":404,", jo":405,"po":406,"so":407,"un":408,"val":409,"pää":410,"lä":411,"yy":412,"ia ":413,"ais":414,"kin ":415,"ess":416,"u ":417,"et":418,"nä":419,"ur":420,"yt ":421,"no":422,"pä":423,"i.\n":424,"per":425,"kau":426,"ano":427,"isi ":428,"si ":429,"ista":430,"itta":431,"pal":432,"myö":433,"ttä":434,"un ":435,"issa ":436,"en.\n":437,"aa":438,"llä ":439,"yh":440,"lu":441,"isen ":442,"iss":443,"au":444,"essa ":445,"mukaan ":446,"uom":447,"su":448,"kerto":449,"muu":450,"kes":451,"pi":452,"iden ":453,"hän ":454,"ään":455,"aan ":456,"yks":457,"maan ":458,"den ":459,"pel":460,"ho":461,"20":462,"enn":463,"puo":464,"or":465,"kuu":466,"lle ":467,"an.\n":468,"ttel":469,"in.\n":470,"- ":471,"mä":472,"tar":473,"käy":474,"til":475,"ir":476,"itä ":477,"ki ":478,"hta":479,"ina ":480,"oli":481,"hy":482,"Suom":483,"ivä":484,"myös ":485,"oi":486,"pit":487,"sti ":488,"isest":489,"y ":490,"ko ":491,"alu":492,"se ":493,"sano":494,"man ":495,"e.\n":496,"ella ":497,"tti ":498,"ää ":499,"men":500,"ys":501,"min":502,"inn":503,"ssa.\n":504,"mer":505,"ovat ":506,"tä ":507,"saa":508,"mutta ":509,"uk":510,"istä ":511,"toim":512,"utu":513,"tö":514,"ä, ":515,"par":516,"nut ":517,"istu":518,"kil":519,"suu":520,"anta":521,"jen ":522,"kun ":523,"suo":524,"ust":525,"maa":526,"ole ":527,"ve":528,"van ":529,"ut":530,"taan ":531,"pe":532,"me":533,"ita ":534,"asi":535,"all":536,"eh":537,"oh":538,": ":539,"va ":540,"lis":541,"sen ":542,"ssä ":543,"van":544,"ti ":545,"iko":546,"assa ":547,"mo":548,"emm":549,"ika":550,"nyt ":551,"jan ":552,"uh":553,"hän":554,"sä ":555,"huo":556,"es":557,"isi":558,"isuu":559,"den":560,"kka":561,"sy":562,"tuo":563,"usta":564,"ver":565,"ta.\n":566,"ille ":567,"00":568,"tapa":569,"illa ":570,"ien ":571,"kö":572,"sen":573,"ann":574,"ia":575,"jäl":576,"yr":577,"esi":578,"kä ":579,"en, ":580,"kir":581,"ollut ":582,"ina":583,"esta ":584,"vai":585,"ttaa ":586,"vasta":587,"us ":588,"työ":589,"var":590,"enä":591,"yst":592,"läh":593,"op":594,"as":595,"ole":596,"ä on ":597,"man":598,"kon":599,"Jo":600,"isten ":601,"li ":602,"sin":603,"sta.\n":604,"isesti ":605,"sel":606,"ast":607,"ri ":608,"äm":609,"de":610,"jär":611,"oike":612,"am":613,"kun":614,"ken":615,"isto":616,"ie":617,"jälke":618,"elle ":619,"voi ":620,"aa ":621,"Ka":622,"ksen ":623,"kos":624,"hall":625,"kunn":626,"iv":627,":n ":628,"tai ":629,"olla ":630,"i, ":631,"ele":632,"vall":633,"essä ":634,"Hän ":635,"uro":636,"kuin ":637,"viim":638,"in, ":639,"jo ":640,"ulu":641,"itse":642,"johta":643,"do":644,"vät ":645,"jä ":646,"ura":647,"htu":648,"hen":649,"ttu":650,"yhte":651,"mmä":652,"yty":653,"ita":654,"Venä":655,"tka":656,"sin ":657,"ito":658,"kol":659,"ise":660,"La":661,"ellä ":662,"ituks":663,"väl":664,"äär":665,"Sa":666,"tti":667,"202":668,"nna ":669,"ni":670,"ivät ":671,"ala":672,"enkin ":673,"ei ole ":674,"hu":675,"kor":676,"luo":677,"Suomen ":678,"ter":679,"ud":680,"Ko":681,"mmen":682,"a ja ":683,"vel":684,"hyv":685,"syy":686,"stä ":687,"kaik":688,"osa":689,"tun":690,"na":691,"o.\n":692,"tur":693,"kis":694,"aja":695,"issä ":696,"mala":697,"tie":698,"niin ":699,"jul":700,"tule":701,"kul":702,"har":703,"ikka":704,"kra":705,"tte":706,"ksi.\n":707,"hä":708,"aika":709," on ":710,"ppu":711,"kuit":712,"ma ":713,"kuva":714,"ali":715,"ivat ":716,"jouk":717,"an, ":718,"tied":719,"iset ":720,"as ":721,"kin":722,"päivä":723,"ön ":724,"itti ":725,"poli":726,"elä":727,"jest":728,"täm":729,"tto":730,"Ma":731,"isin ":732,"pro":733,"teen ":734,"merki":735,"mit":736,"ru":737,"ity":738,"Ta":739,"taa ":740,"ili":741,"isä":742,"eri ":743,"sä":744,"alais":745,"vuonna ":746,"olisi ":747,"ittä":748,"yhd":749,"ten ":750,"miel":751,"neet ":752,"a, jo":753,"kesku":754,"eet ":755,"ksi":756,"jän ":757,", joka ":758,"tapahtu":759,"kko":760,"minen ":761,"mon":762,"To":763,"sit":764,"järjest":765,"elä ":766,"auto":767,". ":768,"sekä ":769,"ttu ":770,"een":771,"ilu":772,"teh":773,"tin ":774,", mutta ":775,"Il":776,"use":777,"epä":778,"at ":779,"jan":780,"kas":781,"issa.\n":782,"resi":783,"residen":784,"lö":785,"llo":786,"ttiin ":787,"jat":788,"ino":789,"pp":790,"kertoo ":791,"puol":792,"Mar":793,"ima":794,"hdoll":795,"asta":796,"ottel":797,"ava":798,"puolu":799,"hänen ":800,"eli ":801,"hi":802,"ikka ":803,"seura":804,"näy":805,"han":806," ja ":807,"ase":808,"ensi":809,"hel":810,"tan":811,"ssa":812,"vuoden ":813,"rin ":814,"t.\n":815,"massa ":816,"alo":817,"määr":818,"pun":819,"ihin ":820,"ymp":821,"ing":822,"paika":823,"ja.\n":824,"joukku":825,"a on ":826,"Hel":827,"vielä ":828,"jälkeen ":829,"ttää ":830,"es ":831,"tunn":832,"je":833,"pan":834,"estä ":835,"illä ":836,"e, ":837,"valta":838,"Vi":839,"kat":840,"alue":841,"viime ":842,"minist":843,"kann":844,"me ":845,"ikä ":846,"vu":847,"ttö":848,"vain ":849,"ista.\n":850,"mahdoll":851,"- ja ":852,"vah":853,"issa":854,"presiden":855,"-vuo":856,"vaa":857,"är":858,"lii":859,"Ukra":860,"vir":861,"mme ":862,"yd":863,"kuitenkin ":864,"Se ":865,"asta ":866,"mma":867,"met":868,"euro":869,"hdo":870,"onn":871,"19":872,"isia ":873,"ensä ":874,"ityks":875,"viiko":876,"aikan":877,"iso":878,"uud":879,"?\n":880,"Ku":881,"hte":882,"ton":883,"kki":884,"merkiksi ":885,"elu":886,"ään.\n":887,"her":888,"-vuoti":889,"maal":890,"ju":891,"hti":892,"mil":893,"vaiku":894,"ran":895,"kirjo":896,"lau":897,"halu":898,"ile":899,"noin ":900,"ensimmä":901,"een.\n":902,"Tä":903,"misen ":904,"ittaa ":905,"ssa, ":906,"is ":907,"san":908,"alka":909,"lisä":910,"tut":911,"kilpa":912,"ny":913,"neen ":914,"vä ":915,"sitt":916,"kohta":917,"jat ":918,"essa.\n":919,"he ":920,"tiedo":921,"kertoi ":922,"nä ":923,"kel":924,"jää":925,"Ro":926,"tty":927,"liik":928,"tta.\n":929,"Yhd":930,"ikko":931,"pelaa":932,"aal":933,"iä ":934,"kilö":935,"liitt":936,"hti ":937,"ite":938,"ensa ":939,"kaa":940,"tor":941,"M-":942,"iin":943,"eivät ":944,"nim":945,"gin ":946,"vara":947,"kär":948,"io":949,"llä":950,"ira":951,"hyö":952,"suomala":953,"An":954,"talo":955,"voitt":956,"Venäjän ":957,"yn ":958,"keski":959,"yle":960,"teke":961,"tal":962,"muka":963,"sto":964,"yl":965,"ton ":966,"Pa":967,"tulo":968,"mar":969,"ennen ":970,"uss":971,"kuussa ":972,"iste":973,"lap":974,"201":975,"het":976,"kaupun":977,") ":978,"tio":979,"lähe":980,"hden ":981,"kanssa ":982,"ettiin ":983,"tod":984,"Le":985,"d ":986,"henkilö":987,"maan":988,"palvel":989,"nel":990,"uksen ":991,"into":992,"jel":993,"kar":994,"tieto":995,"malla ":996,"sai ":997,"puhe":998,"tilan":999,"n mu":1000,"sar":1001,"hyvä":1002,"maail":1003,"sillä ":1004,"ö ":1005,"ulko":1006,"a, että ":1007,"mään ":1008,"alla ":1009,"utta":1010,"sija":1011,"ena ":1012,"prosen":1013,"it ":1014,"on.\n":1015,"uu ":1016,"isiin ":1017,"kke":1018,"er ":1019,"asu":1020,"Yhdys":1021,"koti":1022,"jon ":1023,"rump":1024,"lle.\n":1025,"tka ":1026,"emmin ":1027,"tää ":1028,", kun ":1029,"ika ":1030,"Trump":1031,"tään ":1032,"vast":1033,"mista":1034,"arvi":1035,"n muassa ":1036,"änyt ":1037,"Ilta":1038,"Helsin":1039,"os":1040,"uut":1041,"mieh":1042,"esimerkiksi ":1043,"Se":1044,"nuo":1045,"sanoo.\n":1046,"perust":1047,"tote":1048,"itä":1049,"uot":1050,"maa ":1051,"sil":1052,"iseen ":1053,"laa":1054,"inta":1055,"Har":1056,"pid":1057,"maks":1058,"muks":1059,"Na":1060,"arvo":1061,"ihmis":1062,"vaal":1063,"ic":1064,"urhe":1065,"pol":1066,"riko":1067,"juo":1068,"kommen":1069,"eksi ":1070,"antaina ":1071,"Ol":1072,"s on ":1073,"000":1074,"Va":1075,"julka":1076,"Li":1077,"yli ":1078,"kään ":1079,"tuks":1080,"itus":1081,"että ":1082,"aihe":1083,"muun muassa ":1084,"tehd":1085,"ska":1086,"eri":1087,", ja ":1088,"Täm":1089,"lla.\n":1090,"rke":1091,"usi ":1092,"ese":1093,"olivat ":1094,"pa ":1095,"uvo":1096,"johtaja ":1097,"voima":1098,"itus ":1099,"Val":1100,"pitää ":1101,"kuun ":1102,"ikä":1103,"ansa ":1104,"paljon ":1105,"ian ":1106,"len":1107,"ettu ":1108,"sisä":1109,"olo":1110,"myy":1111,"mitä ":1112,"ää.\n":1113,"to ":1114,"ila":1115,"katso":1116,"pien":1117,"mat ":1118,"vaan ":1119,"tiin ":1120,"vän ":1121,"kohd":1122,"and":1123,"Is":1124,"edusta":1125,"edell":1126,"vaih":1127,"vier":1128,"elo":1129,"utta ":1130,"tulee ":1131,"lopu":1132,"koko":1133,"sell":1134,"saira":1135,"ille.\n":1136,"tul":1137,"ak":1138,"lle":1139,"päätö":1140,", ettei ":1141,"vaa ":1142,"ilmo":1143,"Ukrain":1144,"Poli":1145,", jossa ":1146,"kauden ":1147,"suur":1148,"viest":1149,"las":1150,"n.\n":1151,"kaksi ":1152,"päiv":1153,"loppu":1154,"usta ":1155,"idän ":1156,"ttä ":1157,"En":1158,"sitä ":1159,"Te":1160,"sitten ":1161,"kk":1162,"kuul":1163,"ia.\n":1164,"nka ":1165,"ine":1166,"koko ":1167,"suunn":1168,"Nä":1169,"menta":1170,"ajo":1171,"\" ":1172,"saan":1173,"puu":1174,"inä ":1175,"ituksen ":1176,"eikä ":1177,"tutki":1178,"in ja ":1179,"ent":1180,"lin":1181,"jien ":1182,"i on ":1183,"han ":1184,"Si":1185,"t ovat ":1186,"He":1187,"kanna":1188,"sää":1189,"sopi":1190,"tus":1191,"mista ":1192,"t, ":1193,"Euro":1194,"ruu":1195,"Myö":1196,"Par":1197,"Jos ":1198,"taka":1199,"kysy":1200,"siir":1201,"a\n":1202,"stu":1203,"hkö":1204,"toi ":1205,"yli":1206,"eks":1207,"In":1208,"staan ":1209,"kier":1210,"odo":1211,"via ":1212,"bb":1213,"ossa ":1214,"viime":1215,"saa ":1216," prosen":1217,"ivo":1218,"istö":1219,"iti":1220,"med":1221,"isessa ":1222,"kea ":1223,"\".\n":1224,"di":1225,"mat":1226,"Sal":1227,"terve":1228,"rin":1229,"Ra":1230,"kymmen":1231,"kell":1232,"enemm":1233,"kaud":1234,"män ":1235,"joon":1236,"kanssa.\n":1237,"ppa":1238,"usko":1239,"Kan":1240,"lta ":1241,"teki":1242,"koska ":1243,"ku ":1244,"mist":1245,"e on ":1246,"rä":1247,"itse ":1248,"So":1249,"por":1250,"tällä ":1251,"Hän":1252,"juu":1253,"Ruot":1254,"tarko":1255,"lloin ":1256,"yllä":1257,"hyvin ":1258,"gel":1259,"mpa":1260,"da ":1261,"yksi ":1262,"keh":1263,"ilais":1264,"ran ":1265,"kaikki ":1266,"Kun ":1267,"vien ":1268,"pitä":1269,"o, että ":1270,"hemm":1271,"kkä":1272,"ber":1273,"Ar":1274,"tel":1275,"uko":1276,"ehdo":1277,"tuli ":1278,"ainen ":1279,"otta":1280,"Stu":1281,"isyy":1282,"haasta":1283,"tä.\n":1284,"miljoon":1285,"ohjel":1286,"asti ":1287,"uun ":1288,"pys":1289,"vapa":1290,"10":1291,"unta":1292,"mies ":1293,"ottelu":1294,"ella.\n":1295,"matka":1296,"tin":1297,"tull":1298,"mien ":1299,"kunnan ":1300,"alko":1301,"ilma":1302,"joutu":1303,"mpi ":1304,"inti":1305,"sa.\n":1306,"siih":1307,"inno":1308,"alle ":1309,", jotka ":1310,"kerro":1311,"in mukaan ":1312,"sten ":1313,"aan.\n":1314,"kesä":1315,"Ha":1316,"täy":1317,"aikana ":1318,"inen.\n":1319,"alta ":1320,"esta.\n":1321,"ten":1322,"näkö":1323,"isti ":1324,"Poh":1325,"puheen":1326,"ven":1327,"juh":1328,"ilta ":1329,"tämän ":1330,"vaikka ":1331,"Ky":1332,"Stubb":1333,"tilante":1334,"mur":1335,"ssä.\n":1336,"vuosi":1337,"a, mutta ":1338,"ne ":1339,"Ne":1340,"miten ":1341,"Lu":1342,"isu":1343,"pyst":1344,"neuvo":1345," euro":1346,"unut ":1347,"jon":1348,", jonka ":1349,"Myös ":1350,"löyty":1351,"ras":1352,"ty ":1353,"mesta":1354,"Vuo":1355,"Lo":1356,"turvall":1357,"kka ":1358,"15":1359,"Kes":1360,"keskust":1361,"etta ":1362,"vasti ":1363,"ryh":1364,"illa.\n":1365,"syö":1366,"nais":1367,"kaan":1368,"200":1369,"ttele":1370,"sanoi ":1371,"ttelu":1372,"muo":1373,"perhe":1374,"eläm":1375,"iva":1376,"etu":1377,"vuotta ":1378,"asia":1379,"Per":1380,"osall":1381,"mall":1382,"voitta":1383,"ina.\n":1384,"iton ":1385,"valmenta":1386,"Nyt ":1387,"esta":1388,"et.\n":1389,"vansa ":1390,"mill":1391,"Al":1392,"staa ":1393,"Tur":1394,"kenn":1395,"ttia ":1396,"isen":1397,"koke":1398,"Mi":1399,"i, että ":1400,"aiko":1401,"rael":1402,"aina ":1403,"Re":1404,"lisäksi ":1405,"on ollut ":1406,"Suomessa ":1407,"yhti":1408,"jatko":1409,"tärke":1410,"Sano":1411,"perä":1412,"ystä":1413,"ettu":1414,"ut.\n":1415,"min ":1416,"i-":1417,"ppi":1418,"ja, ":1419,"syn":1420,"elle.\n":1421,"Kar":1422,"poh":1423,"ch":1424,"sähkö":1425,"sanoo ":1426,"m ":1427,"vide":1428,"nope":1429,"kirja":1430,"kseen ":1431,"että":1432,"ero":1433,"mio":1434,"vi ":1435,"väli":1436,"ulun ":1437,"näky":1438,"MM-":1439,"äänest":1440,"kahd":1441,"muuto":1442,"oso":1443,"Suo":1444,"mä ":1445,"arvio":1446,"ta, ":1447,"emme ":1448,"alku":1449,"liitty":1450,"kiel":1451,"aan":1452,"Ukrainan ":1453,"tarv":1454,"Israel":1455,"puhu":1456,"ministeri ":1457,"30":1458,"oma":1459,"tunti":1460,"ag":1461,"kiinn":1462,"se on ":1463,"iseksi ":1464,"a-":1465,"Ke":1466,"vin ":1467,"s.\n":1468,"hui":1469,"Su":1470,"nyky":1471,"lää":1472,"yy ":1473,"tarjo":1474,"yleis":1475,"tell":1476,"ita.\n":1477,"Kuva":1478,"ikko ":1479,"toimi":1480,"Ei ":1481,"kansa":1482,"mistä ":1483,"yttä":1484,"nnunta":1485,"ihan ":1486,"hetke":1487,"itu":1488,"osallistu":1489,"k ":1490,"nuor":1491,"julk":1492,"Nor":1493,"12":1494,"perj":1495,"tois":1496,"isesta ":1497,"ihin.\n":1498,"vaar":1499,"at":1500,"kertoo.\n":1501,"mia ":1502,"ä ja ":1503,"ikki":1504,"in, että ":1505,"joukkue":1506,"työn":1507,"nta":1508,"inte":1509,"suhte":1510,"Ki":1511,"kiso":1512,"o on ":1513,"gra":1514,"inä":1515,"jois":1516,"Iltale":1517,"ongel":1518,"tehtä":1519,"ikke":1520,"kulu":1521,"itä, ":1522,"en ja ":1523,"inut ":1524,"voim":1525,"Helsingin ":1526,"istä":1527,"Var":1528,"jopa ":1529,"la ":1530,"pyy":1531,"kilo":1532,"vuod":1533,"vasta ":1534,"issä.\n":1535,"huoma":1536,", jos ":1537,"tyi ":1538,"stus":1539,"ruo":1540,"kerta":1541,"itel":1542,"ah":1543,"etään ":1544,"enää ":1545,"HL":1546,"liig":1547,"yhteis":1548,"olymp":1549,"kan ":1550,"kie":1551,"et ovat ":1552,"hal":1553,"sia ":1554,"erity":1555,"lla on ":1556,"parha":1557,"turvallisuu":1558,"tu ":1559,"ensi ":1560,"puole":1561,"kana ":1562,"tämä ":1563,"anne ":1564,"dan ":1565,"nnö":1566,"menn":1567,"käyttö":1568,"enne":1569,"llä.\n":1570,"En ":1571,"uden ":1572,"vaati":1573,"kon ":1574,"korke":1575,"ittää ":1576,"käsi":1577,"pist":1578,"Me":1579,"kap":1580,"nau":1581,"ris":1582,"ste":1583,"elta ":1584,"Tuo":1585,"etty":1586,"ene":1587,"men ":1588,"aiemmin ":1589,"käyttä":1590,"onnistu":1591,"ratka":1592,"up":1593,"Pel":1594,"aj":1595,"ja ja ":1596,"koulu":1597,"ry":1598,"tava":1599,"olevan ":1600,"enemmän ":1601,"etty ":1602,"kyl":1603,"inta ":1604,"itte":1605,"aina":1606,"siitä":1607,"osa ":1608,"istä.\n":1609,"erä":1610,"uuden ":1611,"Poliisi ":1612,"aika ":1613,"ssi":1614,"Ti":1615,"etto":1616,"innan ":1617,"selv":1618,"g ":1619,"kulje":1620,"Mon":1621,"jaa ":1622,"pyö":1623,"tas":1624,"jälkeen.\n":1625,"ulo":1626,"mi ":1627,"Pe":1628,"din ":1629,"iri":1630,"isuud":1631,"lähte":1632,"nen ":1633,"jaks":1634,"kello ":1635,"rau":1636,"elee ":1637,"kev":1638,"ajan ":1639,"Lisä":1640,"saanut ":1641,"-vuotias ":1642,"määrä":1643,"valti":1644,"ään, ":1645,"harjo":1646,"sunnunta":1647,"Sen ":1648,"viä ":1649,"Euroop":1650,"lan":1651,"kuulu":1652,"onen ":1653,"pela":1654,"jatka":1655,"Lap":1656,"tettiin ":1657,"suosi":1658,"mene":1659,"kolme ":1660,"huu":1661,"EU":1662,"kusta":1663,"ilun ":1664,"Put":1665,"ike":1666,"Viim":1667,"kaikki":1668,"rall":1669,"Ja":1670,"äjä":1671,"en, että ":1672,"18":1673,"maailman":1674,"seur":1675,"muksen ":1676,"kuten ":1677,"ja on ":1678,"tuntu":1679,"inen, ":1680,"tiista":1681,"kasva":1682,"torsta":1683,"essä.\n":1684,"isty":1685,"myks":1686,"a, kun ":1687,"Po":1688,"ff":1689,"lais":1690," miljoon":1691,"ide":1692,"isiä ":1693,"imme ":1694,"kilpailu":1695,"vaike":1696," S":1697,"palvelu":1698,"masta ":1699,"nsä ":1700,"ei ollut ":1701,"sal":1702,"kyse":1703,"Vir":1704,"teki ":1705,"50":1706,"raken":1707,"i ja ":1708,"Or":1709,"sosi":1710,"aamu":1711,"selvi":1712," -":1713,"kokon":1714,"enkaan ":1715,"vahv":1716,"ikki ":1717,"presidentti ":1718,"kko ":1719,"joulu":1720,"tehdä ":1721,"jö":1722,"salais":1723,"jäsen":1724,"mitään ":1725,"teen":1726,"stä":1727,"ikkon":1728,"rakenn":1729,"Hänen ":1730,"On ":1731,"kö ":1732,"tää":1733,"ille":1734,"sarja":1735,"Lä":1736,"paikka":1737,"raha":1738,"kertaa ":1739,"Ni":1740,"Yhdysvalta":1741,"kki ":1742,"ull":1743,"Min":1744,"ttua ":1745,"tek":1746,"Es":1747,"uksessa ":1748,"siitä, että ":1749,"käytö":1750,"eseen ":1751,"tässä ":1752,"Tämä ":1753,"Lisäksi ":1754,"Yl":1755,"todella ":1756,"ministeri":1757,"huol":1758,"ikin ":1759,"muuta":1760,"ilman ":1761,"yrityks":1762,"kunta":1763,"mitta":1764,"mmär":1765,"nnut ":1766,"ampu":1767,"Kuva: ":1768,"lämp":1769,"Ale":1770,"sijo":1771,"run":1772,"istaa ":1773,"eriko":1774,"tasa":1775,"täys":1776,"laito":1777,"tiiv":1778,"palja":1779,"mässä ":1780,"Vä":1781,"assa.\n":1782,"asian":1783,"isku":1784,"erin ":1785,"toivo":1786,"taki":1787,"No":1788,"iston ":1789,"att":1790,"eur":1791,"vat":1792,"17":1793,"bo":1794,"jar":1795,"ttanut ":1796,"hallituksen ":1797,"pö":1798,"peruste":1799,"vin":1800,"vaihe":1801,"Hall":1802,"\"\n":1803,"elle":1804,"istori":1805,"Pohjois":1806,"siitä ":1807,"toimitta":1808,"hie":1809,"vil":1810,"matta ":1811,"anoma":1812,"pitkä":1813,"vähän ":1814,"16":1815,"!\n":1816,"iin.\n":1817,"kuuta ":1818,"lähes ":1819,"juuri ":1820,"isto ":1821,"hetkellä ":1822,"maan.\n":1823,"fina":1824,"tavall":1825,"västi ":1826,"kuitenkaan ":1827,"Kor":1828,"hto":1829,"uksia ":1830,"Haa":1831,"ksi, ":1832,"hyvä ":1833,"vali":1834,"onin ":1835,"ista, ":1836,"Venäjä":1837,"näh":1838,"Lin":1839,"Puo":1840,"eltä ":1841,"ympär":1842,"kierro":1843,"ilta":1844,"ittäin ":1845,"Olen ":1846,"ivi":1847,"viera":1848,"järjestel":1849,"sotil":1850,"lan ":1851,"jatku":1852,"ettomuu":1853,"illä on ":1854,"voitti ":1855,"tullut ":1856,"hol":1857,"olen ":1858,"synty":1859,"vih":1860,"sur":1861,"itä.\n":1862,"IS":1863,"Se on ":1864,"Syy":1865,"lisää":1866,"11":1867,"Pal":1868,"tty ":1869,"ityst":1870,"eensa ":1871,"/ ":1872,"amma":1873,"pitäisi ":1874,"Suomi ":1875,"jal":1876,"esiin":1877,"avat ":1878,"kaupung":1879,"yn":1880,"sta, ":1881,"mikä ":1882,"kut":1883,"t ja ":1884,"keskivi":1885,"der":1886,"koro":1887,"ilo":1888,"ymmär":1889,"Mutta ":1890,"dennäkö":1891,"mel":1892,"vastaan ":1893,"lleen ":1894,"rav":1895,"kunta ":1896,"vaka":1897,"maali":1898,"ittel":1899,"suora":1900,"piste":1901,"hava":1902,"ig":1903,"sis":1904,"pysty":1905,"taas ":1906,"inka ":1907,"erg":1908,"kertoo, että ":1909,"hän on ":1910,"ää, ":1911,"voisi ":1912,"toinen ":1913,"kee ":1914,"tiedotte":1915,"minu":1916,"ainakin ":1917,"lento":1918,"jäi ":1919,"keske":1920,"mpan":1921,"pur":1922,"misesta ":1923,"löy":1924,"essaan ":1925,"vaale":1926,"kään":1927,"Hy":1928,"onsa ":1929,"tojen ":1930,"Er":1931,"ken ":1932,"pyr":1933,"14":1934,"Et":1935,"pallo":1936,"olleet ":1937,"Näin ":1938,"Ran":1939,"aa.\n":1940,"kkin":1941,"varo":1942,"Saks":1943,"istel":1944,"alainen ":1945,"matto":1946,"poliitt":1947,"idaan ":1948,"ttun":1949,"edus":1950,"metrin ":1951,"yksen ":1952,"kas ":1953,"stö":1954,"Asi":1955,"tall":1956,"kautta ":1957,"el ":1958,"lainen ":1959,"puolis":1960,"kku":1961,"voitto":1962,"sijaitse":1963,"rist":1964,"on, ":1965,"Ilta-":1966,"inin ":1967,"ttänyt ":1968,"epäil":1969,"kirjoitta":1970,"Ilta-Sano":1971,"tän":1972,"Hä":1973,"sky":1974,"täll":1975,"miseen ":1976,"pääll":1977,"saada ":1978,"13":1979,"prin":1980,"paino":1981,"eno":1982,"teho":1983,"ksu":1984,"kaudella ":1985,"isim":1986,"ön":1987,"aikaan ":1988,"Yhdysvaltain ":1989,"kaa ":1990,"käynn":1991,"Kau":1992,"itsi ":1993,"kansan":1994,"NHL":1995,"itto":1996,"Trumpin ":1997,"vuos":1998,"politi":1999,"ved":2000,"ys ":2001,"rid":2002,"paikall":2003,"mahdollisuu":2004,"kin.\n":2005,"isessä ":2006,"Pää":2007,"päivän ":2008,"ad":2009,"todennäkö":2010,"tien ":2011,"ly":2012,"siitä, ":2013,"ista ja ":2014,"venä":2015,"nno":2016,"illa on ":2017,"nähd":2018,"teen.\n":2019,"asio":2020,"täyty":2021,"ssa on ":2022,"joukkueen ":2023,"a, ja ":2024,"sul":2025,"puoli":2026,"kolma":2027,"suomalais":2028,"Insta":2029,").\n":2030,"av":2031,"histori":2032,"pall":2033,"pain":2034,"aisen ":2035,"ehto":2036,"Instagra":2037,"Ri":2038,"ä, että ":2039,"an ja ":2040,"Muu":2041,"kuinka ":2042,"tuom":2043,"valmis":2044,"miehen ":2045,"kal":2046,"eksi.\n":2047,"vaihto":2048,"muistu":2049,"nor":2050,"suor":2051,"hyväks":2052,"vaikutta":2053,"anna ":2054,"viikon ":2055,"ili ":2056,"Ed":2057,"avi":2058,"estä.\n":2059,"louk":2060,"-lu":2061,"tele":2062,"stä.\n":2063,"tetaan ":2064,"ston ":2065,"tunte":2066,"Mu":2067,"iki":2068,"väki":2069,"tus ":2070,"mus":2071,"tteli":2072,"ssi ":2073,"kuole":2074,"rad":2075,"minuu":2076,"iten ":2077,"sosiaal":2078,"hin":2079,"saapu":2080,"oikeus ":2081,"taan.\n":2082,"helpo":2083,"Tu":2084,"opp":2085," kilo":2086,"keutu":2087,"edelleen ":2088,"vää ":2089,"Mä":2090,"Kir":2091,"ere":2092,"poliisi ":2093,"mmat ":2094,"isesti.\n":2095,"Pohjois-":2096,"herä":2097,"se, että ":2098,"imi":2099,"alkoi ":2100,"viranoma":2101,"myöhemm":2102,"kkö":2103,"siis ":2104,"urheilu":2105,"Oulun ":2106,"ttuu":2107,"heidän ":2108,"hieman ":2109,"25":2110,"sivat ":2111,"sanoi.\n":2112,"on ja ":2113,"uus":2114,"puhel":2115,"merkittä":2116,"Euroopan ":2117,"Ho":2118,"issa on ":2119,"ren":2120,"ohja":2121,"amaan ":2122,"neljä":2123,"da":2124,"auton ":2125,"ale":2126,"hyvin":2127,"h ":2128,"gen":2129,"metri":2130,"apu":2131,"vassa ":2132,"New":2133,"oman ":2134,"tis":2135,"kur":2136,"tänä ":2137,"itys ":2138,"ilee ":2139,"hoito":2140,"kast":2141,"koul":2142,"venälä":2143,"aivan ":2144,"aiheutta":2145,"issa, ":2146,"kommento":2147,"Stubb ":2148,"etti ":2149,"hil":2150," prosenttia ":2151,"alkaa ":2152,"isivat ":2153,"ven ":2154,"Harr":2155,"kommentoi ":2156,"Kol":2157,"),":2158,"mielen":2159,"Mo":2160,"useita ":2161,"voivat ":2162,"koske":2163,"raja":2164,"myön":2165,"piir":2166,"tosi ":2167,"poikke":2168,"vau":2169,"ssaan ":2170,"uusi ":2171,"Itä":2172,"jun":2173,"kr":2174,"voi olla ":2175,"tehnyt ":2176,"Kä":2177,"aikaa ":2178,"päätty":2179,"istyö":2180,"mista.\n":2181,"jota":2182,"syks":2183,"kuljetta":2184,"mo ":2185,"raho":2186,"Ju":2187,"na ":2188,"petta":2189,"valtio":2190,"keskiviikkon":2191,"Ja ":2192,"kahden ":2193,"epäill":2194,"esiinty":2195,"Vo":2196,"taan":2197,"onal":2198,"Viime ":2199,"ukku":2200,"Tim":2201,"Vaikka ":2202,"kkää":2203,"Yhdysvall":2204,"ksia ":2205,"ottelun ":2206,"jalka":2207,"siinä ":2208,"euron ":2209,"kah":2210,"usu":2211,"yksity":2212,"valo":2213,"kaks":2214,"mukana ":2215,"itys":2216,"Sar":2217,"Ve":2218,"urheili":2219,"pare":2220,"vero":2221,"main":2222,"Kos":2223,"saar":2224,"ista on ":2225,"antaa ":2226,"työnteki":2227,"täysin ":2228,"uttaa ":2229,"ä, mutta ":2230,"jana ":2231,"hiih":2232,"aikana.\n":2233,"haastattelu":2234,"koo":2235,"huomio":2236,"ser":2237,"voit":2238,"änä ":2239,"annut ":2240,"edes ":2241,"uhti":2242,"\",":2243,"Pi":2244,"niitä ":2245,"Ruotsin ":2246,"toiminta":2247,"Hän on ":2248,"kiekko":2249,"mus ":2250,"Leh":2251,"isestä ":2252,"usta.\n":2253,"inen ja ":2254,"Trump ":2255,"Orp":2256,"masti ":2257,"ttava":2258,"huoli":2259,"Venäjä ":2260,"ä\n":2261,"en\n":2262,"joka ":2263,"uden":2264,"pysy":2265,"puolestaan ":2266,"ikään ":2267,"tavoitt":2268,"puolustus":2269,"iä.\n":2270,"ltä ":2271,"huippu":2272,"ottaa ":2273,"piti ":2274,"een, ":2275,"Kat":2276,"nnen ":2277,"lähd":2278,"alla.\n":2279,"ittu":2280,"tilais":2281,"määrä ":2282,"si.\n":2283,"kset ":2284,"suunnitel":2285,"199":2286,"isella ":2287,"joiden ":2288,"uutta ":2289,"siihen ":2290,"ria ":2291,"pysä":2292,"tre":2293,"tausta":2294,"itsen":2295,"puheenjohtaja ":2296,"asiantunti":2297,"Esi":2298,"anne":2299,"vänsä ":2300,"ppo":2301,"ani ":2302,"tuli":2303,"elämä":2304,"sti.\n":2305,"ily":2306,"yhdessä ":2307,"sta ja ":2308,"a, joka ":2309,"40":2310,"insa ":2311,"Ukraina":2312,"udu":2313,"poliis":2314,"kaantu":2315,"työs":2316,"näke":2317,"Suu":2318,"kerran ":2319,"ttämä":2320,"joukko":2321,"aista ":2322,"ittiin ":2323,"osta":2324,"teko":2325,"esti ":2326,"yhä ":2327,"ikan ":2328,"ukset ":2329,"mokra":2330,"viikon":2331,"tta, ":2332,"ac":2333,"mmin ":2334,"korja":2335,"kinn":2336,"heti ":2337,"näin ":2338,"kansain":2339,"jen":2340,"iltan":2341,"itell":2342,"ihm":2343,"issa ja ":2344,"Etelä":2345,"et, ":2346,"on mukaan ":2347,"jää ":2348,"yhteistyö":2349,"yhden ":2350,"K:n ":2351,"käyte":2352,"akin ":2353,"yhteyd":2354,"Car":2355,"iksi ":2356,"laj":2357,"erittäin ":2358,"hänet ":2359,"vastaan.\n":2360,"aino":2361,"korva":2362,"Mer":2363,"tettu ":2364,"perjanta":2365,"org":2366,"sivu":2367,"kuuta.\n":2368,"ut, ":2369,"esty":2370,"iden":2371,"pako":2372,"sio":2373,"tyy":2374,"usein ":2375,"jä.\n":2376,"olympia":2377,"pois ":2378,"ravinto":2379,"Rovan":2380,"Lue ":2381,"tuke":2382,", joten ":2383,"Tar":2384,"onnettomuu":2385,"Ga":2386,"kohte":2387,"musi":2388,"ida ":2389,"hoita":2390,"He ":2391,"ellä.\n":2392,"mmi":2393,"kokonais":2394,"ääri":2395,"olla.\n":2396,"olog":2397,"omista":2398,"mukaansa ":2399,"ron":2400,"tuul":2401,"tulla ":2402,"esten ":2403,"pääse":2404,"jouko":2405,"seitse":2406,"Suomala":2407,"isuuden ":2408,"finaal":2409,"lauanta":2410,"Salon ":2411,"Maa":2412,"saattaa ":2413,"Tamp":2414,"alueella ":2415,"isenä ":2416,"astus":2417,"uutis":2418,"jos ":2419,"ket":2420,"unto":2421,"ikku":2422,"häntä ":2423,"kappal":2424,"ennä":2425,"alueen ":2426,"seuraa":2427,"toisen ":2428," B":2429,"otti ":2430,"asti.\n":2431,"siirty":2432," euroa.\n":2433,"ttava ":2434,"käytä":2435,"luonn":2436,"Hi":2437,"missä ":2438,"valvo":2439,"kuussa.\n":2440,"kanen ":2441,"en, kun ":2442,"Israelin ":2443,"kymmenen ":2444," oli ":2445,"hin ":2446,"rajo":2447,"aste":2448,"usten ":2449,"ruoka":2450,"Joh":2451,"ellinen ":2452,"kyllä ":2453,"pari ":2454,"näyttää ":2455,"koskaan ":2456,"vaali":2457," (":2458,"ellä on ":2459,"ia ja ":2460,"käräjä":2461,"hyökkä":2462,"siv":2463,"eni ":2464,"uomala":2465,"kone":2466,"yrittä":2467,"ander ":2468,"kiinno":2469,"mpaa ":2470,"kump":2471,"pudo":2472,"lauantaina ":2473,"lämpö":2474,"hyvinvo":2475,"ajan":2476,"palo":2477,"kutsu":2478,"päällik":2479,"e, että ":2480," miljoonaa ":2481,"liiton ":2482,"puheenjohta":2483,"isellä ":2484,"22":2485,"ensimmäinen ":2486,"vie":2487,"lehd":2488,"lisää: ":2489,"tätä ":2490,"tyks":2491,"ihd":2492,"tali":2493,"Lue lisää: ":2494,"ei kuitenkaan ":2495,"syys":2496,"kkäy":2497,"neljä ":2498,"käsit":2499,"vuoro":2500,"puolue":2501,"lopulta ":2502,"Ny":2503,"rö":2504,"isena ":2505,", joka on ":2506,"ssa\n":2507,"mestaruu":2508,"Au":2509,"alan ":2510,"essä on ":2511,"tila":2512,"perjantaina ":2513,"ttavat ":2514,"hallitus ":2515,"uutiso":2516,"yliop":2517,"tuu":2518,"pala":2519,"läp":2520,": \"":2521,"kää":2522,"kuvan ":2523,"väär":2524,"illä.\n":2525,"poliisin ":2526,"änsi":2527,"peli":2528,"Pu":2529,"s, ":2530,"niiden ":2531,"lain":2532,"palau":2533,"Saar":2534,"ilu ":2535,"menne":2536,"missa ":2537,"lupa":2538,"kuoli ":2539,"yhtä ":2540,"sarjan ":2541,"Ter":2542,"vaim":2543,"änsä ":2544,"lähtö":2545,"Juh":2546,"24":2547,"ensimmäisen ":2548,"ine ":2549,"Lau":2550,"viikko":2551,"tänyt ":2552,"luki":2553,"media":2554,"koh":2555,"välis":2556,"kahdeks":2557,"Yle":2558,"nousi ":2559,"terveys":2560,"voidaan ":2561,", jota ":2562,"dy":2563,"valmista":2564,"Kär":2565,"pen":2566,"meni ":2567,"keskustelu":2568,"Ann":2569,"lapsi":2570,"sisäl":2571,"Esimerkiksi ":2572,"vanhe":2573,"ire":2574,"iska":2575,"lad":2576,"tuleva":2577,"Ver":2578,"vuosina ":2579,"TV":2580,"tiet":2581,"The ":2582,"erilais":2583,"vyy":2584,"päätöks":2585,"tann":2586,"Hen":2587,"äit":2588,"On":2589,"Ur":2590,"stään ":2591,"uun":2592,"verkko":2593,"liikku":2594,"kansanedusta":2595,"enna":2596,"vastusta":2597,"23":2598,"s ja ":2599,"yllättä":2600,"hon ":2601,"ha ":2602,"ät ":2603,"gais":2604,"him":2605,"liian ":2606,"mö":2607,"illaan ":2608,"kerä":2609,"tekee ":2610,"vun ":2611,"nti":2612,"tuksen ":2613,"merk":2614,"tällä hetkellä ":2615,"asiasta ":2616,"huono":2617,"Lind":2618,"voi":2619,"21":2620,"etaan ":2621,"sä.\n":2622,"v ":2623,"miseen.\n":2624,"lisää ":2625,"Tor":2626,"kl":2627,"oo":2628,"sota":2629,"ystä ":2630,"mielestä ":2631,"minen on ":2632,"m-":2633,"ellisen ":2634,"sellais":2635,"erityisesti ":2636,"Tan":2637,"saman":2638,"Van":2639,"iken":2640,"vaikuttaa ":2641,"valio":2642,")\n":2643,"io ":2644,"joka":2645,"kaupungin ":2646,"raa":2647,"taa":2648,"laki":2649,"kulttuu":2650,"sijaan ":2651,"sson ":2652,"Sil":2653,"kunto":2654,"nainen ":2655,"olympi":2656,"Alex":2657,"El":2658,"mman ":2659,"viikolla ":2660,"Jar":2661,"aati":2662,"muist":2663,"leikka":2664,"tappi":2665,"yhteensä ":2666,"posit":2667,"EM-":2668,"elin":2669,"kysymyks":2670,"lyh":2671,"my":2672,"hir":2673,"loukkaantu":2674,"ia, ":2675,"kri":2676,"Yksi ":2677,"äni ":2678,"käyttää ":2679,"Mie":2680,"ittanut ":2681,"Por":2682,"osu":2683,"isista ":2684,"ämään ":2685,"rann":2686,"ilä":2687,"ttavasti ":2688,"oikeud":2689,"presidentt":2690,"rikoks":2691,"ykkö":2692,"liikenne":2693,"iassa ":2694,"tä, ":2695,"sala":2696,"alle.\n":2697,"ussuomala":2698,"Kuu":2699,"olle":2700,"kauppa":2701,"samalla ":2702,"eli":2703,"tku":2704,"suure":2705,"hyökkäy":2706,"teo":2707,"ityksen ":2708,"meidän ":2709,"näyttä":2710,"perusteella ":2711,"Kon":2712,"liikke":2713,"valmentaja ":2714,"vakuu":2715,"mies":2716,"taso":2717,"paho":2718,"marras":2719,"iselle ":2720,"maan, ":2721,"jälleen ":2722,"loka":2723,"hoid":2724,"Pä":2725,"Kaikki ":2726,"inko":2727,"päivänä ":2728,"inf":2729,"ana ":2730,"jen mukaan ":2731,"ita ja ":2732,"olle ":2733,"ehkä ":2734,"Bri":2735,"demokra":2736,"kampan":2737,"ain":2738,"lääkä":2739,"Nato":2740,"jät ":2741,"turva":2742,"iä":2743,"touko":2744,"torstaina ":2745,"Pari":2746,"murha":2747,"tuho":2748,"hevo":2749,"dä ":2750,"myös":2751,"osuu":2752,"moo":2753,"Til":2754,"go":2755,"inen on ":2756,"esit":2757,"riittä":2758,"helmi":2759,"iltä ":2760,"myöhemmin ":2761,"vallan ":2762,"muodo":2763,"mb":2764,"vuoksi ":2765,"kisa":2766,"yhdist":2767,"nu":2768,"tun ":2769,"sien ":2770,"onko ":2771,"sku":2772,"ippu":2773,"vanke":2774,"co":2775,"ille, ":2776,"suku":2777,"kaver":2778,"sti":2779,"hänelle ":2780,"s oli ":2781,"kumppan":2782,"Bo":2783,"miin ":2784,"ra ":2785,"tänään ":2786,"Hu":2787,"jia ":2788,"oin ":2789,"johto":2790,"tv":2791,"ää, että ":2792,"tähän ":2793,"maananta":2794,"jaan ":2795,"puh":2796,"markkin":2797,"kohdistu":2798,"aine":2799,"myr":2800,"parla":2801,"joutui ":2802,"SM-":2803,"perinte":2804,"keskusta":2805,"yhtiö":2806,"nouse":2807,"100":2808,"fan":2809,"Ai":2810,"haluaa ":2811,"kän ":2812,"tui ":2813,"uri ":2814,"naisten ":2815,"lopp":2816,"vana ":2817,"huone":2818,"hyväksy":2819,"pano":2820,"TT":2821,"Tämän ":2822,"tervey":2823,"sunnuntaina ":2824,"ssa ja ":2825,"Etelä-":2826,"vastuu":2827,"Ole":2828,"siellä ":2829,"ittu ":2830,"luke":2831,"utui ":2832," vuotta ":2833,"z ":2834,"Työ":2835,"joukkue ":2836,"60":2837,"Bar":2838,"rangais":2839,"on, että ":2840,"rikos":2841,"Sam":2842,"törke":2843,"fi":2844,"miesten ":2845,"ita, ":2846,"kannattaa ":2847,"ammatt":2848,"Donal":2849,"vähen":2850,"miksi ":2851,"olleen ":2852,"ut, että ":2853,"a, jossa ":2854,"Antti ":2855,"jatkaa ":2856,"kanta":2857,"talous":2858,"heinä":2859,"maalis":2860,"lah":2861,"jotain ":2862,"vase":2863,"päästä ":2864,", jotta ":2865,"tan ":2866,"hyökkää":2867,"puolusta":2868,"paikan ":2869,"maanantaina ":2870,"kad":2871,"Helsing":2872,"uksesta ":2873,"Vil":2874,"kannatta":2875,"ipu":2876,"kin, ":2877,"ylä":2878,"kuning":2879,"löytyy ":2880,"ba":2881,"paiko":2882,"aiku":2883,"metsä":2884,"kuuluu ":2885,"linja":2886,"mpia ":2887,"itsee ":2888,"eivät ole ":2889,"Pekka ":2890,"mie":2891,"luku":2892,"ttia.\n":2893,"eseen.\n":2894,"tiistaina ":2895,"De":2896,"Lei":2897,"ssin ":2898,"tarpe":2899,"haa":2900,"opis":2901,"Yhdysval":2902,"lle, ":2903,"pääss":2904,"X:":2905,"ksia.\n":2906,"pyörä":2907,"a ei ":2908,"video":2909,"oper":2910,"viisi ":2911,"nne":2912,"Ensi":2913,"vy":2914,"hake":2915,"välillä ":2916,"keskiviikkona ":2917,"rien ":2918,"tusta ":2919,"taist":2920,"tulisi ":2921,"keskustel":2922,"kierroks":2923,"Kiin":2924,"virhe":2925,"Ylen ":2926,"viid":2927,"syd":2928,"ottelussa ":2929,"pil":2930,"vuosien ":2931,"Biden":2932,"toimin":2933,"vuodesta ":2934,"turvallisuus":2935,"lann":2936,"mukaan.\n":2937,"tammi":2938,"hau":2939,"tapahtui ":2940,"kok":2941,"kävi ":2942,"sodan ":2943,"Kyse":2944,"ympäristö":2945,"maailman ":2946,"ulkoma":2947,"isissa ":2948,"hän oli ":2949,"tilanne ":2950,"Ker":2951,"amis":2952,"von ":2953,"istaan ":2954,"mieli":2955,"itti":2956,"lun":2957,"iso ":2958,"Ranska":2959,"tteen ":2960,"kolm":2961,"Keski":2962,"New ":2963,"vol":2964,"markkino":2965,"ga":2966,"vissa ":2967,"kansalais":2968,"valmi":2969,"ennust":2970,"viin ":2971,"muita ":2972,"mmisto":2973,"rast":2974,"Suomeen ":2975,"julkaisi ":2976,"äällä ":2977,"oma ":2978,"hyvinvointi":2979,"tuotte":2980,"Pit":2981,"yksik":2982,"vastaa":2983,"puolella ":2984,"27":2985,"usa":2986,"itty":2987,"a oli ":2988,"llaan ":2989,"tuki":2990,"Gaz":2991,"hur":2992,"öl":2993,"pele":2994,"osoitta":2995,"Kur":2996,"ttil":2997,"kolmen ":2998,"hilja":2999,"tiety":3000,"jutu":3001,"suunta":3002,"Tällä ":3003,"pakka":3004,"ukseen ":3005,"isuudessa ":3006,"uka":3007,"jään":3008,"yllä ":3009,"valla ":3010,"pois":3011,"näytteli":3012,"toimitus":3013,"Nuo":3014,"Tul":3015,"aan, ":3016,"Tässä ":3017,"yhtiö ":3018,"Ul":3019,"liike":3020,"kirjoittaa ":3021,"oikeuden ":3022,"vaiheessa ":3023,"tarvi":3024,"alle":3025,"tuloks":3026,"suoja":3027,"(kok":3028,"P:n ":3029,"tästä ":3030,"Sitt":3031,"llinen ":3032,"ttor":3033,"mällä ":3034,"anen ":3035,"astaan ":3036,"huhti":3037,"pohti":3038,"kesk":3039,"tteli ":3040,"ohj":3041,"Oulu":3042,"aali":3043,"Vuonna ":3044,"kiinni ":3045,"rakenta":3046,"miett":3047,"o ja ":3048,"essa, ":3049,"etelä":3050,"siihen, että ":3051,"yksityis":3052,"ck":3053,"mik":3054,"llis":3055,"tilo":3056,"Niin":3057,"kinen ":3058,"in\n":3059,"suurin ":3060,"Tämä on ":3061,"mat\n":3062,"pääsi ":3063,"kkaan ":3064,"kus":3065,"toista":3066,", joita ":3067,"uhka":3068,"varmasti ":3069,"uudessa ":3070,"-ohjel":3071,"kansa ":3072,"rmä":3073,"maiden ":3074," C":3075,"x-":3076,"muiden ":3077,"konen ":3078,"Puolu":3079,"bi":3080,"mukan":3081,"neensä ":3082,"aie":3083,"lle ja ":3084,"silti ":3085,"nosta":3086,"muuta ":3087,"tuore":3088,"PS":3089,"massa.\n":3090,"keino":3091,"lähett":3092,"palvelu ":3093,"elokuva":3094,"Haav":3095,"viikonloppu":3096,"neensa ":3097,"syyte":3098,"insä ":3099,"kala":3100,"mppa":3101,"astuslaito":3102,"i\n":3103,"presidentin ":3104,"enä ":3105,"huolimatta ":3106,"aiemm":3107,"Donald ":3108,"vell":3109,"tilann":3110,"vuoksi.\n":3111,"un.\n":3112,"poliisi":3113,"asiakka":3114,"ennäty":3115,"Un":3116,"seksu":3117,"tehty ":3118,"198":3119,"valtion ":3120,"kausi ":3121,"immä":3122,"konser":3123,"Pur":3124,"puolust":3125,"juhla":3126,"cup":3127,"välttämä":3128,"EU-":3129,"son ":3130,"kasvo":3131,"Kuo":3132,"ittain ":3133,"ä, kun ":3134,"for":3135,"- Ilta-Sano":3136,"Tut":3137,"an mukaan ":3138,"asto":3139,"ilmi":3140,"ilta.\n":3141,"lähti ":3142,"turna":3143,"mal":3144,"ante":3145,"silloin ":3146,"kysel":3147,"Iltalehd":3148,"- Ilta-Sanomat\n":3149,"it.\n":3150,"itsell":3151,"rikko":3152,"us on ":3153,"sairaala":3154,"lista":3155,"päivi":3156,"Britann":3157,"be":3158,"ihin, ":3159,"Presiden":3160,"vat.\n":3161,"tyh":3162,"koulutu":3163,".)":3164,"For":3165,"kyky":3166,"i-iltan":3167,"Pett":3168,"yt":3169,"Naton ":3170,"laske":3171,"ttuna ":3172,"tuotta":3173,"Mik":3174,"nä.\n":3175,"keho":3176,"entinen ":3177,"työsken":3178,"Her":3179,"lla oli ":3180,"vista ":3181,"elen":3182,"uun.\n":3183,"pitkään ":3184,"iem":3185,"ssä":3186,"put":3187,"SA":3188,"ttaa.\n":3189,"ihmiset ":3190,"ot":3191,"vit":3192,"alta.\n":3193,"tynyt ":3194,"saavu":3195,"miljar":3196,"suurim":3197,"takaisin ":3198,"poikkeuks":3199,"utunut ":3200,"ille ja ":3201,"br":3202,"utti ":3203,"tyä ":3204,"valmist":3205,"kall":3206,"- \"":3207,"tutu":3208,"voinut ":3209,"rik":3210,"ineen ":3211,"joku ":3212,"luon":3213,"yhdeks":3214,"26":3215,"ppar":3216,"todell":3217,"normaal":3218,"kenut ":3219,"lämm":3220,"tavalla ":3221,"naa":3222,"kestä":3223,"matkusta":3224,"yleisö":3225,"Siin":3226,"sivät ":3227,", jolloin ":3228,"paris":3229,"selke":3230,"r ":3231,"minkä ":3232,"Iltalehden ":3233,"olais":3234,"ona ":3235,"misesta.\n":3236,"tilanne":3237,"pyrki":3238,"Oike":3239,"ke ":3240,"ukka ":3241,"sen mukaan ":3242,"olevansa ":3243,"rapor":3244,"Ander":3245,"Ensimmä":3246,"energ":3247,"maa.\n":3248,"tarkoitus ":3249,"Yhdysvallo":3250,"Toi":3251,"asta.\n":3252,"doll":3253,"isia.\n":3254,"tonen ":3255,"Täll":3256,"pelin ":3257,"heng":3258,"avaus":3259,"mistä.\n":3260," euron ":3261,"Espan":3262,"todennäköisesti ":3263,"-Suomen ":3264,"Rau":3265,"ban":3266,"vuosi ":3267,"hka":3268,"ttelee ":3269,"Salo":3270,"vähemm":3271,"tävä":3272,"ress":3273,"mansa ":3274,"htiin ":3275,"voittanut ":3276,"nnössä ":3277,"avu":3278,"ian":3279,"visi":3280,"inkin ":3281,"rauh":3282,"imä":3283,"log":3284,"uter":3285,"Seura":3286,"Jär":3287,"laisen ":3288,"ossa.\n":3289,"kohti ":3290,"ta on ":3291,"kuva ":3292,"29":3293,"mpu":3294,"muuttu":3295,"saad":3296,"suuri ":3297,"ilija ":3298,"sopimuks":3299,"Alexander ":3300,"jänn":3301,"isiin.\n":3302,"tiedotteessa.\n":3303,"Instagram-":3304,"pääministeri ":3305,"kustann":3306,"ps":3307,"toiminn":3308,"Tapa":3309,"ajan.\n":3310,"Flo":3311,"sinn":3312,"antoi ":3313,"yhtey":3314,"virka":3315,"parlamen":3316,"ttamaan ":3317,"rit ":3318,"nouss":3319,"alussa ":3320,"BC":3321,"Jul":3322,"Will":3323,"opa":3324,"s\n":3325,"ruot":3326,"Kul":3327,"tyyty":3328,"levi":3329,"varsin":3330,"nyt.\n":3331,"ilmoitti ":3332,"u on ":3333,"pelasi ":3334,"ukka":3335,"hallinto":3336,"arin ":3337,"ympä":3338,"kuud":3339,"maahan":3340,"kuukauden ":3341,"iehdo":3342,"talon ":3343,"menee ":3344,"etenkin ":3345,"Mikko ":3346,"ittele":3347,", joiden ":3348,"uni":3349,"Kil":3350,"lyö":3351,"komis":3352,"nne ":3353,"voin ":3354,"minen.\n":3355,"ren ":3356,"ttu.\n":3357,"uudell":3358," euroa ":3359,"kovin ":3360,"positi":3361,"puoli ":3362,"veto":3363,"28":3364,"Luo":3365,"f ":3366,"Hal":3367,"itettiin ":3368,"laista ":3369,"us.\n":3370,"ikon ":3371,"asunto":3372,"kansainväl":3373,"olemme ":3374,"löyd":3375,"35":3376,"Af":3377,"Onn":3378,"uusia ":3379,"in, kun ":3380,"liigan ":3381,"Putin ":3382,"takia ":3383,"tra":3384,"uku":3385,"asiaa ":3386,"teria":3387,"Sitten ":3388,"Co":3389,"kaupa":3390,"muut ":3391,", joissa ":3392,"ääntö":3393,"ä, ja ":3394,"kist":3395,"inen":3396,"ensimmäistä ":3397,"taloud":3398,"Turun ":3399,"asiassa ":3400,"Ranta":3401,"osin ":3402,"Yor":3403,"aur":3404,"mmu":3405,"uusi":3406,"kuukau":3407,"oire":3408,"rool":3409,"ce ":3410,"jä on ":3411,"sa, ":3412,"sanoo, että ":3413,"Sill":3414,"vis":3415,"kaiki":3416,"aisia ":3417,"kaikkien ":3418,"yhty":3419,"pyör":3420,":lle ":3421,"tähti":3422,"o oli ":3423,"veit":3424,"eng":3425,"sitä, että ":3426,"ttely":3427,"ellisesti ":3428,"myötä ":3429,"alaisten ":3430,"liiken":3431," vuo":3432,"Man":3433,"käy ":3434,"Ruots":3435,"P ":3436,"vet":3437,"naisen ":3438,"kentä":3439,"tietojen mukaan ":3440,"ministeriön ":3441,"llisen ":3442,"era":3443,"tetta":3444,"paikalla ":3445,"juhli":3446,"kasta":3447,"vuonn":3448,"vesi":3449,"issaan ":3450,"vuu":3451,"ollaan ":3452,"tyttö":3453,"perusta":3454,"perussuomala":3455,"Yr":3456,"kanssa, ":3457,"yhtiön ":3458,"te ":3459,"än.\n":3460,"usto":3461,"täytyy ":3462,"Juss":3463,"ssa, että ":3464,"vahing":3465,"arvioi":3466,"aatio":3467,"kaupunki":3468,"virall":3469,"i, mutta ":3470,"ihmisten ":3471,"ija":3472,"ppä":3473,"pitänyt ":3474,"saata":3475,"verta":3476,"verra":3477,"Ge":3478,"ttiin.\n":3479,"yhteydessä ":3480,"New Yor":3481,"sol":3482,"tinen ":3483,"kest":3484,":n mukaan ":3485,", josta ":3486,"lähi":3487,"minister":3488,"suoraan ":3489,"ttivat ":3490,"Kre":3491,"keskuksen ":3492,"Hänen mukaansa ":3493,"poistu":3494,"valko":3495,"tuotan":3496,"tuomio":3497,"vapaa":3498,"viesti":3499,"skus ":3500,"lasten ":3501,"hah":3502,"kirjoitti ":3503,"pide":3504,"pidä":3505,"Petteri ":3506,"vai ":3507,"klo ":3508,"ab":3509,"sty":3510,"kuvi":3511,"musta ":3512,"tuolloin ":3513,"berg ":3514,"toista ":3515,"ella, ":3516,"estä":3517,"onkin ":3518,"perheen ":3519,"Lapin ":3520,"mero":3521,"presidentin":3522,"toimii ":3523,"Kr":3524,"oikein ":3525,"ratkaisu":3526,"tekn":3527,"i oli ":3528,"ensin ":3529,"puolueen ":3530,"nopeasti ":3531,"ea ":3532,"kiinte":3533,"isuus":3534,"laula":3535,"Ah":3536,"Itali":3537,"STT":3538,"san ":3539,"paikko":3540,"alaisen ":3541,"uransa ":3542,"se oli ":3543,"paras ":3544,"vaikea ":3545,"Se oli ":3546,"pian ":3547,"vihre":3548,"90":3549,"Char":3550,"nin ":3551,"johtu":3552,"tit ":3553,"paikka ":3554,"ennen kuin ":3555,"-vuotiaan ":3556,"pallon ":3557,"inkerta":3558,"strö":3559,"luu":3560,"ttä.\n":3561,"päätti ":3562,"suoj":3563,"aloitti ":3564,"vaarall":3565,"runsaa":3566,"saun":3567,"uksia.\n":3568,"iemen ":3569,"lapse":3570,"juoks":3571,"ota ":3572,"illeen ":3573,"nähtiin ":3574,"Hän oli ":3575,"..":3576,"s-":3577,"ola":3578,"misestä ":3579,"jana.\n":3580,"80":3581,"ella on ":3582,"utuu ":3583,"olympialais":3584,"Elo":3585,"tähti ":3586,"Kaar":3587,"syytä ":3588,"Mic":3589,"täyd":3590,"lyhy":3591,"Fo":3592,"tekemään ":3593,"EU:n ":3594,"tarkast":3595,"tuo ":3596,"häir":3597,"Poliisin ":3598,"tehtävä":3599,"Putinin ":3600,":lle.\n":3601,"itettu ":3602,"oleva ":3603,"in, mutta ":3604,"tutkin":3605,"500":3606,"Vanta":3607,"samo":3608,"lähti":3609,"ulkopuol":3610,"lle, että ":3611,"NHL-":3612,"päällikkö ":3613,"kaan.\n":3614,"mas ":3615,"jassa ":3616,"et ja ":3617,"at ovat ":3618,"tön ":3619,"juonta":3620," miljoonaa euro":3621,"läpi ":3622,"omaa ":3623,"oikeus":3624,"tunnel":3625,"häiri":3626,"de ":3627,"ja oli ":3628,"Ch":3629,"ästä ":3630,"ehti ":3631,"pelaaja":3632,"mole":3633,"aivo":3634,"esityks":3635,"julkaistu":3636,"del":3637,"Kyllä ":3638,"loh":3639,"äänty":3640,"Ukraina ":3641,"eiden ":3642,"saan ":3643,"keskuks":3644,"tee":3645,"asian ":3646,"luotta":3647,"Ilma":3648,"puhelim":3649," k":3650,"kkina":3651,"Kim":3652,"mmo":3653,"tapahtuma":3654,"vaalien ":3655,"kokoon":3656,"stui ":3657,"Espo":3658,"kolmann":3659,":\n":3660,"tion ":3661,"loma":3662,"seuraava":3663,"Olemme ":3664,"70":3665,"Huo":3666,"Rä":3667,"kuusi ":3668,"etsi":3669,"nuorten ":3670,"Mc":3671,"elta.\n":3672,"istä, ":3673,"ihmistä ":3674,"löytyi ":3675,"Minu":3676,"ope":3677,"elle, ":3678,"ettua ":3679,"Mitä ":3680,"uran ":3681,"toimi ":3682,"Kore":3683,"nyt":3684,"esta, ":3685,"Reuter":3686,"seitsemän ":3687,"tv-":3688,"ytti ":3689,"ön.\n":3690,"tä, että ":3691,"ittänyt ":3692,"pub":3693,"sessa ":3694,"ura ":3695,"järjestä":3696,"metriä ":3697,"parin ":3698,"hallinn":3699,"Jä":3700,"itu ":3701,"al ":3702,"perus":3703,"tänä vuonna ":3704,"oita":3705,"päivää ":3706,"pelaaj":3707,") ja ":3708,"viisu":3709,"kunin":3710,"hallitus":3711,"järjestö":3712,"voimien ":3713,"Nato-":3714,"Aal":3715,"ellaan ":3716,"neiden ":3717,"mät ":3718,"deksi ":3719,"maksu":3720,"Gu":3721,"Ih":3722,"istön ":3723,"hallituks":3724,"i, kun ":3725,"viestin":3726,"uutisoi ":3727,"Pan":3728,", on ":3729,"mia.\n":3730,"hieno":3731,"ing ":3732,"aikoo ":3733,"suhta":3734,"takia.\n":3735,"eteen":3736,"ir ":3737,"ikäli ":3738,"vaatii ":3739,"sata":3740,"selvästi ":3741,"toteaa.\n":3742,"koi ":3743,"toja ":3744,"menest":3745,"Iltalehti ":3746,"Pet":3747,"ville ":3748,"naura":3749,"miehe":3750,"jäänyt ":3751,"llisyy":3752,"sillo":3753,"lehti ":3754,"mäki ":3755,"aiheuttaa ":3756,"äänestä":3757,"täällä ":3758,"star":3759,"järky":3760,"lasku":3761,"ehdokka":3762,"Siinä ":3763,"istö ":3764,"varsin ":3765,"ämä ":3766,"jälkeen, kun ":3767,"keskitty":3768,"eni":3769,"nnyt ":3770,"kilpail":3771,"kalta":3772,"kkau":3773,"hde":3774,"yleensä ":3775,"illa, ":3776,"Tied":3777,"tia ":3778,"oni ":3779,"yyn ":3780,"aikais":3781,"räjä":3782,"MM-kiso":3783,"toimittaja ":3784,"ts":3785,"itusta ":3786,"ei voi ":3787,"nostaa ":3788,"ennakko":3789,"tti.\n":3790,"olin ":3791,"että.\n":3792,"dia":3793,"sor":3794,"verran ":3795,"Pohjan":3796,"mestari ":3797,"pohja":3798,"Varsin":3799,"pla":3800,"yttää ":3801,"Yhdysvaltojen ":3802,"Ulko":3803,"seksuaal":3804,"ani":3805,"kesän ":3806,"niin, että ":3807,"halua ":3808,"välttämättä ":3809,"vähin":3810,"desta.\n":3811,"tehdään ":3812,"cast":3813,"nämä ":3814,"tapauksessa ":3815,"samaan ":3816,"Be":3817,"Elä":3818,", joista ":3819,"jälj":3820,"emu":3821,", sillä ":3822,"istää ":3823,"Tappar":3824,"epäillään ":3825,"Do":3826,", hän ":3827,"materia":3828,"meno":3829,"saavat ":3830,"tuomi":3831,"markkina":3832,"hiihto":3833,"A-":3834,"t-":3835,"t olivat ":3836,"saivat ":3837,"suosit":3838,"Mies ":3839,"kla":3840,"lla ja ":3841,"lik":3842,"esti":3843,"kana":3844,"lähellä ":3845,"hävi":3846,"seurauks":3847,"lähety":3848,"Amer":3849,"ini":3850,"valtu":3851,"isille ":3852,"näkyy ":3853,"ute":3854,"art":3855,"ihin":3856,"päivä ":3857,"ive":3858,"py":3859,"tua ":3860,"poika":3861,"as.\n":3862,"ma on ":3863,"kokoo":3864,"Orpo ":3865,"lämpötil":3866,"Biden ":3867,"Oh":3868,"aar":3869,"kky":3870,"e ja ":3871,"lausu":3872,"mita":3873,"maatt":3874,"ski":3875,"inan ":3876,"koulun ":3877,"jat ovat ":3878,"vaihtoehto":3879,"Pir":3880,"Sitä ":3881,"ge":3882,"skin ":3883,"riippu":3884,"palkka":3885,"kertonut ":3886,"olosuhte":3887,"sse":3888,"ttaa, että ":3889,"päin ":3890,"vaikutuks":3891,"sosiaalisessa ":3892,"kahdeksan ":3893,"oikeuden":3894,"Sel":3895,"liha":3896,"arvioi ":3897,"hyökkäyks":3898," vuoden ":3899,"tähd":3900,"tapauks":3901,"kene":3902,"pääsee ":3903,"paljo":3904,"muutta":3905,"niistä ":3906,"tämään ":3907,"Koi":3908,"a: ":3909,"illan ":3910,"ratkais":3911,"Auto":3912,"Jenn":3913,"ppo ":3914,"viime vuonna ":3915,"uudistu":3916,"sattu":3917,"vuokra":3918,"ksiä ":3919,"aloitta":3920,"lapsen ":3921,"-luvu":3922,"publi":3923,"Vlad":3924,"tissa ":3925,"uima":3926,"tehtäv":3927,"Urhe":3928,"pahoin":3929,"Vasta":3930,"lla, ":3931,"lehden ":3932,"post":3933,"Matti ":3934,"Holl":3935,"aksi ":3936,"lin ":3937,"re ":3938,"sitä, ":3939,"IF":3940,"Jää":3941,"atar":3942,"l ":3943,"sate":3944,"esiin ":3945,"prose":3946,"Kansa":3947,"publikaan":3948,"avoim":3949,"hinn":3950,"opetta":3951,"itetty ":3952,"koir":3953,"pake":3954,"tuoma":3955,"aktiiv":3956,"jättä":3957,"kerrotaan ":3958,"rauha":3959,"vastaano":3960,"ystävä":3961,"kein ":3962,"illa ja ":3963,"toistaiseksi ":3964,"hinta":3965,"rio":3966,"Samalla ":3967,"eena ":3968,"lie":3969,"ta ja ":3970,"ajaa ":3971,"median ":3972,"yliopisto":3973,"Paika":3974,"kai":3975,"tuu ":3976,"pitkän ":3977,"neuvottelu":3978,"Da":3979,"Mur":3980,"Ne ":3981,"ini ":3982,"kate":3983,"sille ":3984,"ime":3985,"uda":3986,"Oll":3987,"Use":3988,"asia ":3989,"isuus ":3990,"koton":3991,"kanut ":3992,"ustelu":3993,"esta ja ":3994,"mediassa ":3995,"päättyi ":3996,"Bidenin ":3997,"mon ":3998,"pikku":3999,"ma.\n":4000,"tut ":4001,"niin sano":4002,"Nyky":4003,"jy":4004,"pan ":4005,"ttuu ":4006,"pelannut ":4007,"-luvun ":4008,"tuotanto":4009,"jaksi ":4010,"sta on ":4011,"Norjan ":4012,"Willia":4013,"kti":4014,"ron ":4015,"kukaan ":4016,"viis":4017,"ihme":4018,"hotell":4019,"selvä":4020,"auto ":4021,"pill":4022,"toimisto ":4023,"tilanteessa ":4024,"alin ":4025,"ola ":4026,"Olymp":4027,"Vide":4028,"Eng":4029,"jalkapallo":4030,"gar":4031,"itään ":4032,"urg":4033,"45":4034,"enin ":4035,"johd":4036,"super":4037,"ori ":4038,"ohje":4039,"197":4040,"maalin ":4041,"jääkiekko":4042,"vasemmisto":4043,"imp":4044,"päättä":4045,"hän ei ":4046,"mättö":4047,"-vuotiaan":4048,"mennä ":4049,"huolto":4050,"Alu":4051,"öö":4052,"kuoll":4053,"palkin":4054,"kuun lopu":4055,"kappale":4056,"iha":4057,"iksi.\n":4058,"ena.\n":4059,"Ru":4060,"muisto":4061,"Tutki":4062,"positiiv":4063," metrin ":4064,"nut.\n":4065,"rinta":4066,"menett":4067,"avio":4068,"ehd":4069,"sään ":4070,"kova":4071,"musta":4072,"llä, ":4073,"Tamper":4074,"kato":4075,"rat":4076,"vähä":4077,"kautta.\n":4078,"jan mukaan ":4079,"Epä":4080,"Hur":4081,"Sai":4082,"mään.\n":4083,"itin ":4084,"johtaa ":4085,"jille ":4086,"tyn ":4087,"und":4088,"a, jos ":4089,"ihmisiä ":4090,"ahd":4091,"kuor":4092,"mielest":4093,"nähdään ":4094,"le ":4095,"paljon":4096,"harra":4097,"Saksan ":4098,"Vladim":4099,"syyttä":4100,"moni ":4101,"inti ":4102,"ilmoitta":4103,"erikois":4104,"ija ":4105,"voiton ":4106,"essään ":4107,"työntekijö":4108,"Ennen ":4109,"olta ":4110,"lehti":4111,"sen jälkeen, kun ":4112,"kaiken ":4113,"itetaan ":4114,"olisivat ":4115,"innut ":4116,"a, jotka ":4117,"Tuu":4118,"kien ":4119,"ellään ":4120,"mpien ":4121,"arvost":4122,"Silloin ":4123,"Länsi":4124,"ri.\n":4125,"ash":4126,"ravintola":4127,"Toivo":4128,"Florid":4129,"Ala":4130,"son":4131,"x ":4132,"an\n":4133,"sitten.\n":4134,"a?\n":4135,"ilm":4136,"kulta":4137,"tarvitse ":4138,"Laa":4139,"t on ":4140,"tunut ":4141,"toiminut ":4142,"koron":4143,"kysym":4144,"Ad":4145,"Kal":4146,"fess":4147,"kkel":4148,"eniten ":4149,"osaa ":4150,"mpi":4151,"liittyy ":4152,"erityisen ":4153,"kirjoittaa.\n":4154,"ansio":4155,"liika":4156,"pelkä":4157,"törmä":4158,"vahvista":4159,"muutaman ":4160,"musiikki":4161,"käytännössä ":4162,"K ":4163,"ssä, ":4164,"kantaa ":4165,"liitto":4166,"asunn":4167,"ht":4168,"ansa":4169,"oita.\n":4170,"paikalle ":4171,"väkivalta":4172,"hinta ":4173,"raska":4174,"tutkimuks":4175,"melko ":4176,"K-":4177,"eva":4178,"gi":4179,"ro ":4180,"perin ":4181,"lähten":4182,"tehtiin ":4183,"peräti ":4184,"vähintään ":4185,"amer":4186,"länsi":4187,"ttunut ":4188,"isen mukaan ":4189,"ather":4190," kilometrin ":4191,"häv":4192,"hätä":4193,"kilpailun ":4194,"neljän ":4195,"tarkoituks":4196,"myöskään ":4197,"tyytyvä":4198,"Zelen":4199,"dcast":4200,"n, ":4201,"stunut ":4202,"arme":4203,"nous":4204,"en, mutta ":4205,"Lat":4206,"eläin":4207,"saadaan ":4208,"häiriö":4209,"Mal":4210,"neita ":4211,"Lopu":4212,"asiantuntija ":4213,"Jussi ":4214,"Huu":4215,"enkään ":4216,"jalle ":4217,"päässyt ":4218,"toimitusjohtaja ":4219,"i-iltana ":4220,"Met":4221,"Mos":4222,"kuo":4223,"MTV":4224,"Sau":4225,"amme ":4226,"zz":4227,"poika ":4228,"iemi ":4229,"isyyd":4230,"muoto":4231,"usti ":4232,"matta.\n":4233,"vill":4234,"isuutta ":4235,"hyvin.\n":4236,"olisi ollut ":4237,"kasvu":4238,"jatkuu ":4239,"kod":4240,"laisia ":4241,"kärsi":4242,"tilanteen ":4243,"presidenttiehdo":4244,", johon ":4245,"peri":4246,"maajoukkue":4247,"julkaise":4248,"ymmärr":4249,"Timo ":4250,"Janne ":4251,"kasta ":4252,"tuhan":4253,"tävät ":4254,"järjestö ":4255,"taan, että ":4256,"It":4257,"äid":4258,"ja\n":4259,"jaa.\n":4260,"innin ":4261,"pohjois":4262,"miä ":4263,"päässä ":4264,"istä ja ":4265,"vang":4266,"Stubbin ":4267,"anin ":4268,"alta":4269,"suun":4270,"kkaa ":4271,"Ilve":4272,"ihin ja ":4273,"kärki":4274,"iho":4275,"And":4276,"ylläty":4277,"ästi ":4278,"Helsinki":4279,"sääd":4280,"kaupungin":4281,"mman":4282,"so ":4283,"tyttä":4284,"unsa ":4285,"se ei ":4286,"esin ":4287,"Leijon":4288,"Sä":4289,"t\n":4290,"ttivät ":4291,"uno":4292,"rauhall":4293,"Vladimir ":4294,"ineet ":4295,"lei":4296,"etene":4297,"nost":4298,"Suomessa.\n":4299,"Nel":4300,"last":4301,"tulevat ":4302,"Kun":4303,"asen":4304,"ikan":4305,"kään.\n":4306,"Euroopa":4307,"välierä":4308,"Fin":4309,"ssään ":4310,"vär":4311,"minun ":4312,"varust":4313,"kunnassa ":4314,"ttori":4315,"lapsen":4316,"eduskun":4317,"aalta ":4318,"vat, että ":4319,"mikä on ":4320,"o, ":4321,"kuollut ":4322,"ttuja ":4323,"tule ":4324,"televisi":4325,"Paa":4326,"taan, ":4327,"tto ":4328,"kova ":4329,"miseksi.\n":4330,"lope":4331,"iseksi.\n":4332,"kannalta ":4333,"Iran":4334,"sito":4335,"tahan":4336,"an, että ":4337,"ittelu":4338,"potku":4339,"aiset ":4340,"ulos ":4341,"Zelensky":4342,"ja sen ":4343,"hänellä ":4344,"saapui ":4345,"pin ":4346,"Toinen ":4347,"säännö":4348,"Di":4349,"Osa ":4350,"ex-":4351,"tetty ":4352,"paha":4353,", jolla ":4354,"itystä ":4355,"loppuun ":4356,"sso":4357,"kumen":4358,"ila ":4359,"one":4360,"pääst":4361,"pär":4362,"vastaa ":4363,"totesi ":4364,"viiden ":4365,"mma ":4366,"kesällä ":4367,"elämän":4368,"Syyttä":4369,"Halu":4370,"Oli ":4371,"Uut":4372,"suom":4373,"ki.\n":4374,"kiire":4375,"laus":4376,"piha":4377,"moni":4378,"sivust":4379,":ssä ":4380,"sod":4381,"issä, ":4382,"osalta ":4383,"seuran ":4384,"Sveit":4385,"voito":4386,"valta ":4387,"säily":4388,"Paul":4389,"sellainen ":4390,"ryhmä":4391,"mennyt ":4392,"tuntuu ":4393,"sääntö":4394,"llisesti ":4395,"sall":4396,"kohtaa ":4397," minuu":4398,"otte":4399,"käs":4400,"yys":4401,"yhdys":4402,"liitto ":4403,"politiikan ":4404,"Me ":4405,"lain ":4406,"tyy ":4407,"ihmisen ":4408,"kaupunki ":4409,"pudotus":4410,"noussut ":4411,"esto":4412,"Charle":4413,"sanoi, että ":4414,"toimen":4415,"ksi, että ":4416,"-vuotia":4417,"Sami ":4418,"miljard":4419,"minä ":4420,"aikaa.\n":4421,"Tampere":4422,"lopetta":4423,"kaikkea ":4424,"näytti ":4425,"tunnetu":4426,", jotka ovat ":4427,"inalais":4428,"neesta ":4429,"änen ":4430,"jälki":4431,"petty":4432,"issä on ":4433,"udun ":4434,"mahdollista ":4435,"harjoituks":4436,"Viime":4437,"ma-":4438,"teoll":4439,"tien":4440,"iin ja ":4441,"mpi.\n":4442,"voimakka":4443,"ympäri ":4444,"Cather":4445,"takan":4446,"syyll":4447,"Puolustus":4448,"Med":4449,"kkiä ":4450,"Pariisin ":4451,"opiskel":4452,"Nuor":4453,"Iso":4454,"pite":4455,"karsin":4456,"joen ":4457,"väh":4458,"kylä":4459,"Mark":4460,"mahdollisesti ":4461,"asukka":4462,"epäilty":4463,"31":4464,"ksi ja ":4465,"isesti, ":4466,"järven ":4467,"siirto":4468,"radio":4469,"c ":4470,"kissa ":4471,"pä ":4472,"Toim":4473,"vaatte":4474,"ssa, mutta ":4475,"Valko":4476,"ryhmän ":4477,"Asiasta ":4478,"isimman ":4479,"vaki":4480,"olu":4481,"Koti":4482,"pohjo":4483,"ger":4484,"össä ":4485,"este":4486,"säästö":4487,"San":4488,"kit":4489,"joita ":4490,"immill":4491,"mpää ":4492,"suu ":4493,"Lauri ":4494,"alkohol":4495,"palvelu X:":4496,"tuttu ":4497,"nneet ":4498,"Hama":4499,"energia":4500," se":4501,"Ba":4502,"Ville ":4503,"ni ":4504,"osta ":4505,"puisto":4506,"käynyt ":4507,"y on ":4508,"monta ":4509,"henkilökohta":4510,"mahdollisuus ":4511,"hke":4512,"y-":4513,"taulu":4514,"pelastuslaito":4515,"entistä ":4516,"tarkoittaa ":4517,"Orpon ":4518,"osto":4519,"jätti ":4520,"olemaan ":4521,"aminen ":4522,"määrin ":4523,"juhl":4524," pist":4525,"kans":4526,"suomalaisten ":4527," prosenttia.\n":4528,"maailmancup":4529,"män":4530,"mihin ":4531,"desta":4532,"viime vuoden ":4533,"torju":4534,"itsenä":4535,"taistelu":4536,"Kall":4537,"jala":4538,"istään ":4539,"valmenn":4540,"etin ":4541,"huon":4542,"an, mutta ":4543,"jatkuva":4544,"berg":4545,"Mika ":4546,"katu":4547,"kyse ":4548,"podcast":4549,"keskus ":4550,"pelaaja ":4551,"SD":4552,"ytä":4553,"kävi":4554,"kosar":4555,"jä ja ":4556,"lauta":4557,"sopimuksen ":4558,"odotta":4559,"C ":4560,"Tik":4561,"ilme":4562,"kiell":4563,"arti":4564,"miestä ":4565,"yksittä":4566,"tark":4567,"ukra":4568,"vanha":4569,"varmuu":4570,"profess":4571,"hankke":4572,"lauka":4573,"sanon":4574,"AF":4575,"Mann":4576,"ap":4577,"bud":4578,"ällä ":4579,"areen":4580,"stadi":4581,"utua ":4582,"a, jonka ":4583,"hyvää ":4584,"avo":4585,"isistä ":4586,"toki ":4587,"una ":4588,"kertovat ":4589,"välitt":4590,"akti":4591,"iltapäivä":4592,"300":4593,"vyö":4594,"isar":4595,"tust":4596,"illään ":4597,"yritti ":4598,"avaa ":4599,"tietoa ":4600,"keväällä ":4601,"minulle ":4602,"ji":4603,"iski ":4604,"imen ":4605,"johtajan ":4606,"Br":4607,"kinnan ":4608,"osaa":4609,"vei ":4610,"inaan ":4611,"anal":4612,"kesken ":4613,"taryh":4614,"elee.\n":4615,"kiekon ":4616,"Jukka ":4617,"Oli":4618,"on jo ":4619,"henki":4620,"tanen ":4621,"Pro":4622,"paik":4623,"syytte":4624,"aloittaa ":4625,"kiinteistö":4626,"ömä":4627,"tap":4628,"stra":4629,"saatu ":4630,"astu":4631,"hteen ":4632,"kossa ":4633,"some":4634,"puolen ":4635,"it ovat ":4636,"Halla-":4637,"pukeutu":4638,"iden mukaan ":4639,"poliit":4640,"ppi ":4641,"liikenn":4642,"sarjassa ":4643,"valmis ":4644,"kansainvälis":4645,"vähemmän ":4646,"vuonna.\n":4647,"ot ":4648,"upe":4649,"saman ":4650,"mättä ":4651,"sairaal":4652,"ajoi ":4653,"dollar":4654,"Olympia":4655,"Ruo":4656,"yvä":4657,"komit":4658,"uhu":4659,"kulku":4660,"Fac":4661,"Hann":4662,"Nämä ":4663,"isä ":4664,"kalu":4665,"ston":4666,"itiin ":4667,"republikaan":4668,"hoit":4669,"tunnin ":4670,"halunnut ":4671,"Vuoden ":4672,"Han":4673,"lata":4674,"pito":4675,"varha":4676,"kunnall":4677,"joutuu ":4678,"Venäjällä ":4679,"ck ":4680,"laaja":4681,"a, sillä ":4682,"mana ":4683,"ssaan.\n":4684,"maksaa ":4685,"lähteä ":4686,"sotilaa":4687,"Sim":4688,"oi ":4689,"pron":4690,"on myös ":4691,"toteutu":4692,"nähty ":4693,"hell":4694,"int":4695,"päin.\n":4696,"toisella ":4697,"Georg":4698,"ja ei ":4699,"rekist":4700,"saakka":4701,"paran":4702,"Siitä ":4703,"yliopiston ":4704,"75":4705,"Vor":4706,"osan":4707,"jaka":4708,"tetään ":4709,"issä":4710,"oppil":4711,"400":4712,"Sc":4713,"jään ":4714,"viett":4715,"vira":4716,"heiken":4717,"päälle ":4718,"päivyst":4719,"pahoinpit":4720,"psy":4721,", koska ":4722,"err":4723,"suomalainen ":4724,"pieni ":4725,"Teemu":4726,"halusi ":4727,"IS:n ":4728,"ote":4729,"ttää.\n":4730,"inä.\n":4731,"muista":4732,"kyy":4733,"mahdollisimman ":4734,"hyöd":4735,"Onko ":4736,"HS":4737,"Ste":4738,"kaall":4739,"keä ":4740,"osan ":4741,"(ps":4742,"Hau":4743,"Ben":4744,"Kas":4745,"brid":4746,"en mukaan ":4747,"esittä":4748,"tämä on ":4749,"monet ":4750,"vaaleissa ":4751,"Tanska":4752,"Jon":4753,"ju ":4754,"rinn":4755,"terro":4756," ast":4757,"land":4758,"ost":4759,"kohti":4760,"luva":4761,"tarka":4762,"ystä.\n":4763,"istetaan ":4764,"yhdysvalta":4765,"Us":4766,"linn":4767,"isa ":4768,"puhd":4769,"päävalmenta":4770,"hope":4771,"ivät":4772,"autojen ":4773,"aikoina ":4774,"CN":4775,"ussa ":4776,"itetään ":4777,"joskus ":4778,"essä, ":4779,"tarke":4780,"ydin":4781,"talouden ":4782,"Ken":4783,"mol":4784,"rajan ":4785,"väitt":4786,"julkais":4787,"liiga":4788,"runsaasti ":4789,"BBC":4790,"t eivät ":4791,"teatt":4792,"huomi":4793,"muutoks":4794,"kulutta":4795,"yhdeksän ":4796,"Nie":4797,"ilö":4798,"test":4799,"ttelun ":4800,"tera":4801,"syy ":4802,"saaneet ":4803,"Pol":4804,"SS":4805,"ttien ":4806,"koho":4807,"e oli ":4808,"jättää ":4809,"ia on ":4810,"pitkä ":4811,"Joe ":4812,"itakin ":4813," prosentin ":4814,"riski":4815,"Yhdysvallat ":4816,"viestipalvelu X:":4817,"olf":4818,"maassa ":4819,"tonta ":4820,"siihen, ":4821,"kisojen ":4822,"sijoittu":4823,"kruu":4824,"ino ":4825,"kado":4826,"kovan ":4827,"laisten ":4828,"Kata":4829,"tanss":4830,"lääkke":4831,"lähtee ":4832,"kriti":4833,"Aa":4834,"Yhte":4835,"kamppa":4836,"tytä":4837,"päävalmentaja ":4838,"sen jälkeen ":4839,"es-":4840,"osassa ":4841,"proje":4842,"laatu":4843,"ottanut ":4844,"kierroksen ":4845,"ykkös":4846,"demokraatt":4847,"Os":4848,"e-":4849,"iaamu":4850,"sivi":4851,"paina":4852,"kertoi, että ":4853,"mästä ":4854,"Liban":4855,"isi.\n":4856,"alist":4857,"kipu":4858,"antanut ":4859,"krit":4860,"Rovanper":4861,"valiokunnan ":4862,"Tampereen ":4863,"Kale":4864,"Oy":4865,"vään ":4866,"ero ":4867,"laiset ":4868,"itto ":4869,"reag":4870,"Olin ":4871,"Väl":4872,"Tal":4873,"oivat ":4874,"matkan ":4875,"myrsky":4876,"Varsinais":4877,"Je":4878,"Tun":4879,"tensa ":4880,"taite":4881,"essa on ":4882,"järv":4883,"kisan ":4884,"Tois":4885,"poltto":4886,"erilaisia ":4887,"(kok) ":4888,"Gran":4889,"pään ":4890,"mahta":4891,"uuteen ":4892,"haaste":4893,"- tai ":4894,"keskus":4895,"haastattelussa ":4896,"ainoa ":4897,"paljon.\n":4898,"Luu":4899,"mor":4900,"maton ":4901,"etti":4902,"edust":4903,"tieteen ":4904,"ilainen ":4905,"viimeisen ":4906,"Putin":4907," miljoonan ":4908,"ten.\n":4909,"koto":4910,"sama ":4911,"imin":4912,"käd":4913,"ystävä ":4914,"huomautta":4915,"venäläis":4916,"kansanedustaja ":4917,"omat ":4918,"äly":4919,"valle ":4920,"ttavan ":4921,"istä on ":4922,"alueella.\n":4923,"uudesta ":4924,"Meillä on ":4925,"prinsessa ":4926,"itsensä ":4927,"pelaa ":4928,"kevään ":4929,"sijaitsee ":4930,"ansa.\n":4931,"tukea ":4932,"saisi ":4933,"jä, ":4934,"pää ":4935,"kuvailee ":4936,"suomalaiset ":4937,"elämän ":4938,"65":4939,"k-":4940,"kkä ":4941,"uteen ":4942,"essaan.\n":4943,"varain":4944,"boo":4945,"moottor":4946,"Aiemmin ":4947,"A ":4948,"pin":4949,"yll":4950,"matka ":4951,"legen":4952,"tapahtunut ":4953,"tavoit":4954,"maino":4955,"saatiin ":4956,"ammu":4957,"tehty":4958,"juttu":4959,"Kai":4960,"Pul":4961,"Yli":4962,"ther":4963,"vesto":4964,"sto ":4965,"lakko":4966,"miseksi ":4967,"missään ":4968,"kilä":4969,"ia\n":4970,"puolet ":4971,"laati":4972,"odottaa ":4973,"työskenn":4974,"-A":4975,"34":4976,"ranta":4977,"yo":4978,"tetty":4979,"nny":4980,"Kaksi ":4981,"talo ":4982,"vasti.\n":4983,"sotilas":4984,"ainoastaan ":4985,"kkuu":4986,"ov":4987,"kin on ":4988,"meillä ":4989,"ilaito":4990,"puuttu":4991,"amerikka":4992,"taistel":4993,"asiat ":4994,"kokemuks":4995,"tarvitta":4996,"kadu":4997,"zb":4998,"olle.\n":4999,"kehitty":5000,"muutama ":5001,"mennessä ":5002,"Sanna ":5003,"in on ":5004,"illut ":5005,"pääty":5006,"alusta ":5007,"elemaan ":5008,"Mad":5009,"pystyy ":5010,"julkisuu":5011,"kylän ":5012,"tietysti ":5013,"ensimmäistä kertaa ":5014,"Len":5015,"amm":5016,"ske":5017,"oikeisto":5018,"tunnettu ":5019,"aks":5020,"tenkin ":5021,"raal":5022,"a, hän ":5023,"iden ja ":5024,"vastasi ":5025,"kilpaili":5026,"nime":5027,"urheilun ":5028,"Suomi":5029,"yrityksen ":5030,"län":5031,"si, että ":5032,"itteli ":5033,"lev":5034,"konf":5035,"ylivoima":5036,"Sen jälkeen ":5037,"Ranskan ":5038,"eduskuntaryh":5039,"hun ":5040,"testa":5041,"muse":5042,"remon":5043,"suhd":5044,"toiminta ":5045,"issa\n":5046,"maansa ":5047,"ohjelman ":5048,"vuosikymmen":5049,"syntyi ":5050,"prinssi ":5051,"viranomaiset ":5052,"treen":5053,"CNN":5054,"usi":5055,"va.\n":5056,"kuvia ":5057,"aisi ":5058,"Pat":5059,"Tuolloin ":5060,"Juha ":5061,"kulttuuri":5062,"Prin":5063,"Wal":5064,"dään ":5065,"itaan ":5066,"tala":5067,"unel":5068,"paremmin ":5069,"esimer":5070,"Israel ":5071,"omasta ":5072,"Aleks":5073," A":5074,"Voi":5075,"hkä ":5076,"qu":5077,"kalo":5078,"vas":5079,"ikö ":5080,"aan ja ":5081,"ehti":5082,"Hän ei ":5083,"viikonloppuna ":5084,"Halla-ah":5085,"ou":5086,"lla":5087,"kari ":5088,"kävel":5089,"issut ":5090,"luopu":5091,"Siksi ":5092,"kertaa.\n":5093,"onnistui ":5094,"enemmän kuin ":5095,"palasi ":5096,"oikeudessa ":5097,"nousee ":5098,"jalta ":5099,"riste":5100,"tode":5101,"paine":5102,"yön ":5103,"peru":5104,"assa on ":5105,"luovu":5106,"presidentti":5107,"nyt, ":5108,"asunno":5109,"vauhd":5110,"törkeästä ":5111,"naapu":5112,"Uuden":5113,"ässä ":5114,"tauo":5115,"mann":5116,"nosti ":5117,"järvi ":5118,"jansa ":5119,"myynti":5120,"ilmoituks":5121,"Helsingin Sano":5122,"Face":5123,"hankki":5124,"ihmett":5125,"kiinnosta":5126,"Kiinan ":5127,"ruotsalais":5128,"Kel":5129,"kehu":5130,"reen":5131,"uksien ":5132,"velvo":5133,"vieste":5134,"mpi kuin ":5135,"näkökul":5136,"paljasta":5137,"assa, ":5138,"dp":5139,"kainen ":5140,"paa ":5141,"sytty":5142,"yrittää ":5143,"pidä ":5144,"urheil":5145,"käsittel":5146,"Moni ":5147,"nähdä ":5148,"Mir":5149,"Vali":5150,"don ":5151,"itä ja ":5152,"Kys":5153,"buss":5154,"hää":5155,"ja-":5156,"heiko":5157,"Joukku":5158,"tarkoitta":5159,"joutunut ":5160,"käräjäoikeus ":5161,"Helsingissä ":5162,"Mil":5163,"kisen ":5164,"mainen ":5165,"erän ":5166,"ttain ":5167,"itti.\n":5168,"miin":5169,"potil":5170,"seuraa ":5171,"ssain ":5172,"elle, että ":5173,"Tän":5174,"aja ":5175,"pomm":5176,"i, ja ":5177,"toteaa ":5178,"julkaisu":5179,"käyttäyty":5180,"NHL:n ":5181,"Nis":5182,"ee":5183,"jyr":5184,"stel":5185,"teg":5186,"laitte":5187,"ido":5188,"kasv":5189,"talv":5190,"pahoinpitel":5191,"Lon":5192,"kt":5193,"vistä ":5194,"mala ":5195,"uus ":5196,"sop":5197,"välillä.\n":5198,"laad":5199,"organ":5200,"rill":5201,"ssar":5202,"toisi":5203,"väest":5204,"edessä ":5205,"Suomea ":5206,"vahinko":5207,"Näy":5208,"käyttöön ":5209,"vaurio":5210,"Yleis":5211,"hirve":5212,"ily ":5213,"samaa ":5214,"pika":5215,"hovi":5216,"uutistoimisto ":5217,"terveyden":5218,"lannin ":5219,"Faceboo":5220,"Fran":5221,"Nur":5222,"mikään ":5223,"eläkke":5224,"osallistui ":5225,"finaali":5226,"asioita ":5227,"Sir":5228,"Tie":5229,"ttaja ":5230,"missa.\n":5231,"perhe ":5232,"houku":5233,"ilee.\n":5234,"ottelua ":5235,"jonkin ":5236,"Päiv":5237,"tai":5238,"vien":5239,"hyp":5240,"päätöksen ":5241,"rahaa ":5242,"Kaa":5243,"gno":5244,"vissä ":5245,"äl":5246,"vat, ":5247,"anno":5248,"samassa ":5249,"yönä ":5250,"päätt":5251,"syr":5252,"kuvaa ":5253,"kapteen":5254,"ratkaise":5255,"valtuust":5256,"32":5257,"htä":5258,"nukku":5259,"investo":5260,"toiseksi ":5261,"ssa oli ":5262,"vaihd":5263,"koski ":5264,"dokumen":5265,"välinen ":5266,", joka oli ":5267,"Maria ":5268,"neli":5269,"eräs ":5270,"esitut":5271,"aurinko":5272,"hahmo":5273,"Aja":5274,"bu":5275,"én ":5276,"tosi":5277,", etteivät ":5278,"päällä ":5279,"puolella.\n":5280,"kaikkia ":5281,"viikkoa ":5282,"rekister":5283,"Jor":5284,"a, koska ":5285,"piiri":5286,"hor":5287,"mahdollista":5288,"-vuotiaa":5289,"voitto ":5290,"ainakaan ":5291,"Ts":5292,"koe":5293,"kuol":5294,"kuka ":5295,"tyyl":5296,"peli ":5297,"meille ":5298,"verko":5299,"varmaan ":5300,"Mac":5301,"Maan":5302,"ministerin ":5303,"edustaja ":5304,"havainto":5305,"historian ":5306,"hiihtä":5307,"Slo":5308,"ve ":5309,"isilla ":5310,"joudu":5311,"ksi\n":5312,"päivityks":5313,"kiertu":5314,"syksy":5315,"palkinto":5316,"33":5317,"Jo ":5318,"iä, ":5319,"isin.\n":5320,"kai ":5321,"keen ":5322,"mital":5323,"ajatell":5324,"Liik":5325,"helposti ":5326,"isän":5327,"intä ":5328,"rian ":5329,"nouda":5330,"hetki":5331,"ajoneuvo":5332,"maalivah":5333,"mille ":5334,"kaar":5335,"tosin ":5336,"alis":5337,"een ja ":5338,"pääsi":5339,"auttaa ":5340,"monen ":5341,"maale":5342,"Hizb":5343,"taaks":5344,"Uud":5345,"ee ":5346,"spe":5347,"reiden ":5348,"ehtin":5349,"ajatuks":5350,"häl":5351,"a, joten ":5352,"minen ja ":5353,"196":5354,"nykyään ":5355,"neljänn":5356,"rauhan":5357,"Instagram-til":5358,"budj":5359,"Hizboll":5360,"Lar":5361,"Sdp":5362,"th":5363,"vamma":5364,"eltä":5365,"tol":5366,"heitä ":5367,"mää ":5368,"veren":5369,"lääke":5370,"kyseessä ":5371,"tilanne on ":5372,"kuninkaall":5373,"Dani":5374,"Puu":5375,"heim":5376,"oikeasti ":5377,"kunnio":5378,"nuore":5379,"tavalla.\n":5380,"tappio":5381,"Presidentti ":5382,"Leijonien ":5383,"36":5384,"Jyvä":5385,"viha":5386,"ssiiv":5387,"sydän":5388,"Hon":5389,"etä":5390,"kot":5391,"itseään ":5392,"yhteisö":5393,"tekst":5394,"Aust":5395,"Fre":5396,"S-":5397,"immat ":5398,"lippu":5399,"näitä ":5400,"lähesty":5401,"ottelu ":5402,"huolest":5403,"politiikka":5404,"viranomaisten ":5405,"äiti ":5406,"Gazan ":5407,"pois.\n":5408,"sinne ":5409,"llisuu":5410,"tiim":5411,"sammu":5412,"minen, ":5413,"ukko":5414,"varr":5415,"manin ":5416,"presidenti":5417,"turvallisuuden ":5418,"Japan":5419,"Botta":5420,"Miten ":5421,"Yks":5422,"lit":5423,"alun ":5424,"vo ":5425,"kaupan ":5426,"sen sijaan ":5427,"jatkossa ":5428,"ettyä ":5429,"kokonaan ":5430,"pör":5431,"Erity":5432,"Kaupun":5433,"Itä-":5434,"kriitt":5435,"liikente":5436,"Koiv":5437,"Olli ":5438," P":5439,"Krist":5440,"USA":5441,"nyr":5442,"saks":5443,"ittivat ":5444,"tarkka":5445,"jakso":5446,"runkosar":5447,"Britannian ":5448,"Hizbollah":5449,"As":5450,"Du":5451,"Jaa":5452,"Niin ":5453,"imaan ":5454,"ttävä ":5455,"an, kun ":5456,"Tästä ":5457,"huume":5458,"syntynyt ":5459,"epäilty ":5460,"suojelu":5461,"koneen ":5462,"siko":5463,"ard":5464,"toimia ":5465,"vanho":5466,"suomalaisen ":5467,"Perj":5468,"Meidän ":5469,"eduskunnan ":5470,"vaimonsa ":5471,"kunnia":5472,"viimeinen ":5473,"ministeriö ":5474,"kampanja":5475,"kierroksella ":5476,"Vaa":5477,"u.\n":5478,"takana ":5479,"reiss":5480,"palaa ":5481,"toiminnan ":5482,"vaalit":5483,"rakennus":5484," aste":5485,"ilman":5486,"voita":5487,"siirtyi ":5488,"Mieh":5489,"aikojen ":5490,"tärkeä ":5491,"pöyd":5492,"37":5493,"Enn":5494,"akaan ":5495,"zin ":5496,"tavara":5497,"teiden ":5498,"ellä, ":5499,"haus":5500,"sovi":5501,"y C":5502,"ei ole vielä ":5503,"korkea":5504,"tuomittiin ":5505,"kysely":5506,"& ":5507,"HIF":5508,"K:":5509,"Sin":5510,"kea":5511,"leik":5512,"alusta":5513,"ille on ":5514,"nähnyt ":5515,"Loi":5516,"isissä ":5517,"antunti":5518,"kuv":5519,"ellyt ":5520,"suju":5521,"ovat olleet ":5522,"enomaan ":5523,"Uusi ":5524,"ppe":5525,"kamer":5526,"joko ":5527,"kiinto":5528,"lai":5529,"neet.\n":5530,"varti":5531,"päivittä":5532,"New York ":5533,"ilmesty":5534,"Red":5535,"if":5536,"kuun":5537,"toistu":5538,"laittaa ":5539,"käydä ":5540,"lisäänty":5541,"yrityst":5542,"kola ":5543,"kokouks":5544,"entisen ":5545,"Suur":5546,"aali- ja ":5547,"komite":5548,"Hie":5549,"tavo":5550,"enä.\n":5551,"ole.\n":5552,"vankil":5553,"ttoi ":5554,"puolue ":5555,"asema":5556,"tunnetaan ":5557,"ilmasto":5558,"löytää ":5559,"syksyllä ":5560,"Mel":5561,"di ":5562,"ta, että ":5563,"paan ":5564,"hybrid":5565,"Joen":5566,"naim":5567,"Tätä ":5568,"Kansain":5569,"w ":5570,"alussa.\n":5571,"järjestetään ":5572,"ttömyy":5573,"vahvasti ":5574,"ensimmäisenä ":5575,"seura ":5576,"Kis":5577,"Oul":5578,"telee ":5579,"vät":5580,"estiin":5581,"summa":5582,"maasto":5583,"uudet ":5584,"päätös ":5585,"Siellä ":5586,"Tapahtu":5587,"perussuomalaisten ":5588,"YK:n ":5589,"jista ":5590,"kre":5591,", mitä ":5592,"västä ":5593,"paper":5594,"sep":5595,"vuoteen ":5596,"inase":5597,"kunnes ":5598,"in, ja ":5599,"tonin ":5600,"lenno":5601,"hyökkääjä ":5602,"ström ":5603,"Vantaan ":5604,"Bro":5605,"Mus":5606,"Ruu":5607,"gn":5608,"gre":5609,"hid":5610,"milla ":5611,"issään ":5612,"töitä ":5613,"alueiden ":5614,"Kanad":5615,"valtion":5616,"politiika":5617,"Yhdysvalloissa ":5618,"molemmat ":5619,"-,":5620,"ijo":5621,"nti ":5622,"ihto":5623,"lop":5624,"assa ja ":5625,"ajattel":5626,"tiedä, ":5627,"Vielä ":5628,"näkemyks":5629," ei ":5630,"tteri ":5631,"stit":5632,"nnyty":5633,"ista\n":5634,"kertoi.\n":5635,"tilasto":5636,"yhteen ":5637,"tutkinn":5638,"huija":5639,"kisoissa ":5640,"ijan ":5641,"on kuitenkin ":5642,"ala ":5643,"von":5644,"harvin":5645,"järjestön ":5646,"nimenomaan ":5647,"pidetään ":5648,"jatkaa.\n":5649,"Edus":5650,"moottori":5651,"Tällä hetkellä ":5652,"tilannetta ":5653,"Krem":5654,"Ca":5655,"ehdoll":5656,"ellä":5657,"mmi ":5658,"mppu":5659,"Venälä":5660,"sisäll":5661,"parhaan ":5662,"Pelic":5663,"Hil":5664,"sää ":5665,"stä, ":5666,"elin ":5667,"joh":5668,"käytössä ":5669,"Harrisin ":5670,"Harris ":5671,"tyypill":5672,"Hir":5673,"St":5674,"vammo":5675,", niin ":5676,"maksi ":5677,"tiin":5678,"ennyt ":5679,"alueelle ":5680,"hetken ":5681,"matkalla ":5682,"vene":5683,"itselleen ":5684,"viestintä":5685,"Ric":5686,"Wil":5687,"fyys":5688,"hö":5689,"omis":5690,"iä ja ":5691,"kohdalla ":5692,"mpaan ":5693,"avust":5694,"näyttelijä ":5695,"Juu":5696,"Pen":5697,"ski ":5698,"ääkä":5699,"kesänä ":5700,"menesty":5701,"väline":5702,"osavaltio":5703,"usea":5704,"kkien ":5705,"huomattavasti ":5706,"luonto":5707,"Inn":5708,"gas":5709,"omaan ":5710,"vinen ":5711,"kseen.\n":5712,"urallaan ":5713,"hänen mukaansa ":5714,"sisällä ":5715,"lopun ":5716,"puuko":5717,"En ole ":5718,"ammattilais":5719,"Ihmis":5720,"Ex":5721,"Riko":5722,"itsi":5723,"ity ":5724,"istaan.\n":5725,"Kaks":5726,"Heik":5727,"matku":5728,"Haavisto ":5729,"diagno":5730,"38":5731,"Jess":5732,"koira":5733,"kuull":5734,"luokka":5735,"tärkeää ":5736,"tiedotteessa ":5737,"luonnon":5738,"Aalto":5739,"saakka.\n":5740,"ava ":5741,"ttia":5742,"maise":5743,"nnön ":5744,"muuten ":5745,"julkis":5746,"apua ":5747,"öljy":5748,"avulla ":5749," sen":5750,"55":5751,"ostaa ":5752,"must":5753,"uksi":5754,"suhteen ":5755,"pelasta":5756,"ella ja ":5757,"Nainen ":5758,"harjoitus":5759,"Kyseessä on ":5760,"avan ":5761,"amisen ":5762,"y.\n":5763,"ede":5764,"luokan ":5765,"Koko ":5766,"alkuperä":5767,"tasolla ":5768,"arvioi, että ":5769,"Lop":5770,"Vih":5771,"tava ":5772,"kolle":5773,"ell ":5774,"ittelee ":5775,"mäen ":5776,"Ei ole ":5777,"Andersson ":5778,"taloudell":5779,"artikkel":5780,"Mesta":5781,"jalais":5782,"sti, ":5783,"mahdo":5784,"ellut ":5785,"ei olisi ":5786,"ita on ":5787,"tietää ":5788,"jäsenyy":5789,"keskellä ":5790,"Ehkä ":5791,"omia ":5792,"viitta":5793,"lipu":5794,"kerra":5795,"ys.\n":5796,"moti":5797,"kolme":5798,"Marko ":5799,"koko ajan ":5800,"Heikki ":5801,"vahvistaa ":5802,"Ty":5803,"s -":5804,"ikkun":5805,"seka":5806,"idät ":5807,"päätyi ":5808,"tekijö":5809,"hallinnon ":5810,"lähtenyt ":5811,"kritiso":5812,"ua ":5813,"isänsä ":5814,"tulossa ":5815,"etukä":5816,"organis":5817,"yt.\n":5818,"llista ":5819,"tilla ":5820,"haki":5821,"et\n":5822,"nousu":5823,"maan ja ":5824,"vieras":5825,"tarvitse":5826,"Anna ":5827,"hku":5828,"sd":5829,"sieltä ":5830,"raju":5831,", joilla ":5832,"maalla ":5833,"lisää.\n":5834,"aa ja ":5835,"tavoitte":5836,"Kilpa":5837,"uudelleen ":5838,"miehet ":5839,"ashing":5840,"Iranin ":5841," G":5842,".-":5843,"P-":5844,"Tall":5845,"kaava":5846,"maista ":5847,"paitsi ":5848,"ri, ":5849,"sellaista ":5850,"tenä ":5851,"korosta":5852,"huomiota ":5853,"Jari ":5854,"Poliisin mukaan ":5855,"kaus":5856,"toisessa ":5857,"miet":5858,"reil":5859,"muun ":5860,"paranta":5861,"jen ja ":5862,"lähinn":5863,"Kalle ":5864,"kaatu":5865,"toteutta":5866,"aiheutti ":5867,"myynn":5868,"Pohjois-Kore":5869,"Pelican":5870,"Davi":5871,"Mika":5872,"nutta ":5873,"omassa ":5874,"of ":5875,"ina, ":5876,"ens":5877,"riittää ":5878,"aatte":5879,"yksinkerta":5880,"Suomi on ":5881,"kaikista ":5882,"eensä ":5883,"työnanta":5884,"suosikki":5885,"Käräjä":5886,"lähinnä ":5887,"47":5888,"sän":5889,"ves":5890,"tti, että ":5891,"ppa ":5892,"hien":5893,"siltä, että ":5894,"selvittä":5895,"ministeriö":5896,"tällais":5897,"syyllisty":5898,"Saa":5899,"Washing":5900,"tki":5901,"unen ":5902,"yhtään ":5903,"tön":5904,"taan ja ":5905,"odotetaan ":5906,"bergin ":5907,"ivat":5908,"laitoksen ":5909,"pelkästään ":5910,"39":5911,"Emme ":5912,"Jan":5913,"tke":5914,"vuotta.\n":5915,"kymp":5916,"kertoivat ":5917,"nimittäin ":5918,"mista, ":5919,"Vain ":5920,"vaihta":5921,"helmikuussa ":5922," vuotta.\n":5923,"Spor":5924,"komp":5925,"toive":5926,"paid":5927,"ihan":5928,"ään, että ":5929,"tehokka":5930,"muistuttaa, että ":5931," miljoonaa euroa.\n":5932,"Bry":5933,"Tele":5934,"UM":5935,"Vol":5936,"a, ettei ":5937,"ylö":5938,"ttim":5939,"kumma":5940,"siin":5941,"urn":5942,"maajoukkueen ":5943,"hänellä on ":5944,"ssa, kun ":5945,"tämän vuoden ":5946,"tkä":5947,"y, ":5948,"kohtu":5949,"ihty":5950,"näkee ":5951,"kuuden ":5952,"hauta":5953,"sosiaalisessa mediassa ":5954,"ska ":5955,"kuvan":5956,"kiito":5957,"vuoden":5958,"Somer":5959,"vuotta sitten ":5960,"Sen sijaan ":5961,"kaupungissa ":5962,"kokoomuksen ":5963,"Hol":5964,"Jas":5965,"pon":5966,"stuu ":5967,"miele":5968,"mitali":5969,"ulos":5970,"ei saa ":5971,"unais":5972,"muutti ":5973,"syystä ":5974,"ssakin ":5975,"kerrottiin ":5976,"jatkoi ":5977,"kaikkiaan ":5978,"Lopulta ":5979,"-vuotiaiden ":5980,"Bor":5981,"Mole":5982,"Win":5983,"aje":5984,"kkos":5985,"vauhti":5986,"imäär":5987,"seko":5988,"kuvassa ":5989,"suunnitell":5990,"enemmän":5991,"haastattelussa.\n":5992,"omin":5993,"its":5994,"kohtaan ":5995,"Katso":5996,"lliset ":5997,"maku":5998,"teen, ":5999,"vied":6000,"sade":6001,"työn ":6002,"Venäjä on ":6003,"Suomen ja ":6004,"odote":6005,"Koskel":6006,"Pall":6007,"tisen ":6008,"llan ":6009,"jona":6010,"sta\n":6011,"on\n":6012,"ihmistä.\n":6013,"valittiin ":6014,"etä ":6015,"esittää ":6016,"150":6017,"kaikille ":6018,"harrasta":6019," - ":6020,"akseen ":6021,"ho ":6022,"tie ":6023,"huolis":6024,"kulke":6025,"Liig":6026,"Ukrainassa ":6027,"jaksossa ":6028,"Hallitus ":6029,"Koska ":6030,"hyödyn":6031,"Toisaalta ":6032,"ler":6033,"puku":6034,"poi":6035,"tekevät ":6036,"lähetyks":6037,"sairastu":6038,"Rovaniem":6039,"kuningas ":6040,"95":6041,"tau":6042,"ttaan ":6043,"rof":6044,"una":6045,"muuttaa ":6046,"hän sanoo.\n":6047,"mälä":6048,"htaa ":6049,"kysyi ":6050,"tuntia ":6051,"käynnissä ":6052,"sulj":6053,"Terve":6054,"kalli":6055,"mikäli ":6056,"llon ":6057,"kaike":6058,"vielä":6059,"ina, että ":6060,"metr":6061,"kannata ":6062,"kehittä":6063,"tilanteesta ":6064,"pyytää ":6065,"Pelastuslaito":6066,"historiall":6067,"onnettomuud":6068,"keskustan ":6069,"Purra ":6070,"professori ":6071,"Sie":6072,"kodin ":6073,"toa ":6074,"misessa ":6075,"ukseen.\n":6076,"sope":6077,"illa oli ":6078,"Ruotsi":6079,"vuosia ":6080,"äänestys":6081,"kuuluvat ":6082,"Yle ":6083,"löysi ":6084,"haavoitt":6085,"tteen mukaan ":6086,"välittömä":6087,"strateg":6088,"44":6089,"eivät":6090,"tää.\n":6091,"ssonin ":6092,"tori":6093,"keitti":6094,"isti":6095,"yhtä":6096,"sula":6097,"elle ja ":6098,"useam":6099,"päätös":6100,"eksi, ":6101,"Neuvo":6102,"Kann":6103,"millä ":6104,"sho":6105,"vaikka":6106,"imman ":6107,"näki":6108,"hymy":6109,"ikon":6110,"varmista":6111,"Kamala ":6112,"ksiin.\n":6113,"tapahtuu ":6114,"talvi":6115,"Paimi":6116,"tällä kaudella ":6117,"kilpailussa ":6118,"pystynyt ":6119,"sisältö":6120,"toimintaa ":6121,"vala":6122,"heik":6123,"ihen ":6124,"itse.\n":6125,"Sunnunta":6126,"muistuttaa ":6127,"ilmiö":6128,"Kie":6129,"ek":6130,"äänsä ":6131,"hyviä ":6132,"ydinase":6133,"kaasu":6134,"lapsi ":6135,"joulukuussa ":6136,"tavoitteen":6137,"lasten":6138,"press":6139,"ryö":6140,"teli ":6141,"elta":6142,"altaan ":6143,"tian ":6144,"estä, ":6145,"kentällä ":6146,"kunno":6147,"nappa":6148,"jän mukaan ":6149,"akku":6150,"Kesku":6151,"Riikka ":6152,"vastaava ":6153,"Hamasin ":6154,"pronss":6155,"Bu":6156,"Vase":6157,"bul":6158,"ison ":6159,"kome":6160,"tiellä ":6161,"ilmoituksen ":6162,"Sosi":6163,"pysty ":6164,"Harry ":6165,"kuljettaja ":6166,"fiil":6167,"tarvitaan ":6168,"Linn":6169,"Nic":6170,"Tänä ":6171,"eil":6172,"hty":6173,"lon ":6174,"sb":6175,"sprin":6176,"viikko ":6177,"viihd":6178,"ario ":6179,"miin.\n":6180,"essä":6181,"lle on ":6182,"hänestä ":6183,"man.\n":6184,"Laine ":6185,"määrän ":6186,"laps":6187,"Nord":6188,"varsinkin ":6189,"Raa":6190,"jensa ":6191,"tista ":6192,"vää":6193,"kit ":6194,"väitte":6195,"käynti":6196,"suuren ":6197,"ohjelmassa ":6198,"välier":6199,"kiinni.\n":6200,"Lähi":6201,"puolisonsa ":6202,"mielenkiinto":6203,"aiempaa ":6204,"Onnettomuu":6205,"vahingo":6206,"tustilais":6207,"Gre":6208,"HJ":6209,"kelu":6210,"alkanut ":6211,"mun":6212,"seer":6213,"pojan ":6214,"sovell":6215,"yksilö":6216,"esitys ":6217,"äärimmä":6218,"epäillyn ":6219,"jia.\n":6220,"musten ":6221,"riitt":6222,"meren ":6223,"emmin.\n":6224,"Kaikki":6225,"he ovat ":6226,"Rober":6227,"hemmin ":6228,"Asiantunti":6229,"veden ":6230,"luonnoll":6231,"tkut ":6232,"Ber":6233,"Jer":6234,"Tö":6235,"din":6236,"ltä.\n":6237,"ry ":6238,"vällä ":6239,"puhta":6240,"leir":6241,"hän.\n":6242,"yritys ":6243,"Kaik":6244,"säil":6245,"helppo":6246,"torj":6247,"tutustu":6248,"ehkä":6249,"destaan ":6250,"Matt":6251,"hyvän ":6252,"nuori ":6253,"tuskin ":6254,"isyys":6255,"sähköpost":6256,"IS ":6257,"Sähkö":6258,"osi":6259,", eikä ":6260,"toiseen ":6261,"ilan ":6262,"nnan ":6263,"läs":6264,"ki on ":6265,"kolar":6266,"hämmä":6267,"operaatio":6268," M":6269,"48":6270,"Tra":6271,"bän":6272,"tään.\n":6273,"haita":6274,"saattavat ":6275,"maat ":6276,"turha":6277,"kinta":6278,"Kana":6279,"hoidon ":6280,"lähtien.\n":6281,"tyttär":6282,"Ir":6283,"myst":6284,"a tai ":6285,"isal":6286,"itur":6287,"jossain ":6288,"tella ":6289,"tävä ":6290,"vetäyty":6291,"välisen ":6292,"aikaan.\n":6293,"aseen ":6294,"Heleni":6295,"katsoa ":6296,"kkinen ":6297,"Keski-":6298,"Espanjan ":6299,"ga ":6300,"gan":6301,"kele":6302,"tsa":6303,"tkin ":6304,"masta.\n":6305,"totu":6306,"viita":6307,"ark":6308,"till":6309,"muista ":6310,"laitto":6311,"kilön ":6312,"kin, että ":6313,"Super":6314,"tahansa ":6315,"eivätkä ":6316," alka":6317,"Tai":6318,"puu ":6319,"malle ":6320,"ettö":6321,"riin ":6322,"pien ":6323,"kuvaili ":6324,"tansa ":6325,"laaj":6326,"tutkimus":6327,"kesäkuussa ":6328,"vierailu":6329,"metriä.\n":6330,"vankeus":6331,"britt":6332,"materiaal":6333,"hävisi ":6334,"Austr":6335,"Innes-":6336,"(vas":6337,"iaan ":6338,"jun ":6339,"kovi":6340,"kov ":6341,"ric":6342,"kaus ":6343,"vaati ":6344,"Lähe":6345,"(sd":6346,"Nu":6347,"Yhti":6348,"dra":6349,"otettu ":6350,"majo":6351,"erino":6352,"ei enää ":6353,"suojel":6354,"meillä on ":6355,"isiko ":6356,"varma":6357,"olevat ":6358,". joulu":6359,"Hänet ":6360,"Miksi ":6361,"William":6362,"ukrainalais":6363,"ehtinyt ":6364,"Finn":6365,"Kais":6366,"Ras":6367,"der ":6368,"ena on ":6369,"palaa":6370,"varten.\n":6371,"ksia, ":6372,"aan, että ":6373,"poliittisen ":6374,"teknolog":6375,") on ":6376,"800":6377,"ittamaan ":6378,"hyl":6379,"sotila":6380,"valmistu":6381,"tammikuussa ":6382,"poikkeuksellisen ":6383,"kritiikki":6384,":lle, että ":6385,"Bal":6386,"Emil":6387,"Jun":6388,"kovaa ":6389,"te-":6390,"vässä ":6391,"näiden ":6392,"istan":6393,"isen median ":6394,"alle, ":6395,"esille ":6396,"tteja ":6397,"euroop":6398,"Harki":6399,"tekijä":6400,"isuudesta ":6401,"kyseessä on ":6402,"lähde ":6403,"perjantaina.\n":6404,"estaan ":6405,"p ":6406,"tehta":6407,"jasta ":6408,"hdyks":6409,"poista":6410,"usta, ":6411,"kunnan":6412,"perustu":6413,"silmä":6414,"videon ":6415,"puhui ":6416,"parhaillaan ":6417,"Henrik":6418,"Iltalehdelle ":6419,"seurauksena ":6420,"Talo":6421,"Vik":6422,"lta":6423,"omalla ":6424,"vaa.\n":6425,"ksessa ":6426,"keikka":6427,"jäte":6428,"käv":6429,"uksista ":6430,"ustaa ":6431,"versi":6432,"työtä ":6433,"Vier":6434,"ranska":6435,"alla on ":6436,"siirr":6437,"liittyvät ":6438,"pyysi ":6439,"tuntui ":6440,"Rovaniemen ":6441,"Alexander Stubb ":6442,"suhtautu":6443,"sijoittui ":6444,"Ham":6445,"Kiv":6446,"iku":6447,"katka":6448,"ilante":6449,"johti ":6450,"hehku":6451,"paluu":6452,"kuukaud":6453,"lähettä":6454,"mieltä ":6455,"isena.\n":6456,"Uudenmaan ":6457,"Uh":6458,"fo":6459,"erila":6460,"tio ":6461,"misestä.\n":6462,"et, että ":6463,"tarina":6464,"innyt ":6465,"liikunta":6466,"tiedotustilais":6467,"enemmän.\n":6468,"Kesä":6469,"Noki":6470,"mielenoso":6471,"karin ":6472,"teor":6473,"mun ":6474,"set ":6475,"seks":6476,"rohke":6477,"rii":6478,"ihminen ":6479,"piene":6480,"ottamaan ":6481,"muutos ":6482,"Mill":6483,"Tuom":6484,"lta.\n":6485,"na.\n":6486,"et eivät ":6487,"rive":6488,"myöhä":6489,"istuu ":6490,"itoim":6491,"tietoja ":6492,"maksa":6493,"juoksu":6494,"vaatimuks":6495,"lääkäri ":6496,"Teemu ":6497,"\" ja ":6498,"Mikäli ":6499,"cher":6500,"ttuun ":6501,"on tullut ":6502,"jälkeen, ":6503,"Hän kertoo ":6504,"viime vuosina ":6505,"elokuvan ":6506,"Kaner":6507,"ettu.\n":6508,"Kari ":6509,"paikkaa ":6510,"minua ":6511,"haave":6512,"Itse ":6513,"tapa ":6514,"eltaan ":6515,"uuden":6516,"laita":6517,"läpi":6518,"päi":6519,"maahan ":6520,"-vuotiasta ":6521,"Tähän ":6522,"misen jälkeen ":6523,"täynn":6524,"puoliväl":6525,"kommentoi.\n":6526,"kuningatar":6527,"yksikkö":6528,"etta":6529,"lä ":6530,"pi ":6531,"yttä ":6532,"iskun ":6533,"vaja":6534,"istettu ":6535,"vie ":6536,"väit":6537,"mäki":6538,"tila ":6539,"niihin ":6540,"helppo ":6541,"jäädä ":6542,"syöttö":6543,"yleisön ":6544,"käytetään ":6545,"ood":6546,"rangaistuks":6547,"hiljattain ":6548,"Micha":6549,"Ihan ":6550,"Pö":6551,"Yo":6552,"uteen.\n":6553,"kokenut ":6554,"ja, mutta ":6555,"henkilön ":6556,"mitään.\n":6557,"tunnista":6558,"llä, että ":6559,"Poliisi":6560,"tutkimuksen ":6561,"mies oli ":6562,"tason ":6563,"pitkäaika":6564,"väkivall":6565,"Carol":6566,"Kuopi":6567,"kkonen ":6568,"pinn":6569,"vist":6570,"en, joka ":6571,"killä ":6572,"ar ":6573,"laitt":6574,"et olivat ":6575,"issaan.\n":6576,"kirjoituks":6577,"ssa, ja ":6578,"pelaajat ":6579,"keskimäärin ":6580,"ryhmä ":6581,"ch ":6582,"Häkkä":6583,"tuomitsi ":6584,"Niinistö ":6585,"komisario ":6586,"Ilmatieteen ":6587,"demokraattien ":6588,"kelä":6589,"siksi ":6590,"istettiin ":6591,"illä, ":6592,"puto":6593,"som":6594,"peto":6595,"asiall":6596,"Joker":6597,"Tod":6598," prosentti":6599,"ne ovat ":6600,"Kuvassa ":6601,"kevään":6602,"tällainen ":6603,"Voi ":6604,"verkkosivu":6605,"puhuu ":6606,"lahjo":6607,"S ":6608,"ttää, ":6609,"kassa ":6610,"kohu":6611,"tta kai ":6612,"autta":6613,"Samu":6614,", jonka mukaan ":6615,"Monet ":6616,"Oulussa ":6617,"lohko":6618,"otettiin ":6619,"tenn":6620,"tussa ":6621,"ilin ":6622,"joul":6623,"viittaa ":6624,"ti.\n":6625,"raiska":6626,"paa":6627,"usin ":6628,"tilan ":6629,"terä":6630,"vuodelta ":6631,"tisano":6632,"tietenkin ":6633,"bast":6634,"vettä ":6635,"mme, ":6636,"meri":6637,"uhrin ":6638,"kuntien ":6639,"niin ikään ":6640,"teen ja ":6641,"ensimmäisessä ":6642,"Päivä":6643,"operaati":6644,"immillaan ":6645,"hälyty":6646,"Loppu":6647,"nsa ":6648,"nut, että ":6649,"kov":6650,"ksien ":6651,"tuh":6652,"seen ":6653,"etsin":6654,"inakin ":6655,"puolesta ":6656,"Vic":6657,"haluavat ":6658,"ensimmäisellä ":6659,"uskoo, että ":6660,"tarvitsee ":6661,"enee ":6662,"tavano":6663,"siitä, miten ":6664,"Pulju":6665,"pri":6666,"vasto":6667,", vaikka ":6668,"toon ":6669,"istiin ":6670,"rata":6671,"uli ":6672,"leika":6673,"oliiton ":6674,"alue ":6675,"sanoa ":6676,"vahva ":6677,"vaikutu":6678,"Ensi ":6679,"sähköauto":6680,"liigassa ":6681,"syyskuussa ":6682,"verrattuna ":6683,"gas ":6684,"vian ":6685,"estään ":6686,"illaan.\n":6687,"olla, ":6688,"haast":6689,"ri-":6690,"lob":6691,"etel":6692,"lähtien ":6693,"ajalla ":6694,"ttomasti ":6695,"varasto":6696,"suunnittel":6697,"mista ja ":6698,"Perussuomala":6699,"käsittely":6700,"yhteyttä ":6701,"juontaja ":6702,"-auto":6703,"jalainen ":6704,"tapo":6705,"kata":6706,"kori":6707,"pul":6708,"äminen ":6709,"kisassa ":6710,"site":6711,"tin mukaan ":6712,"neuvottel":6713,"pisteen ":6714,"Tiista":6715,"imiel":6716,"äitinsä ":6717,"Tshe":6718,"Ab":6719,"golf":6720,"ib":6721,"itusten ":6722,"istelu":6723,"elleen ":6724,"jalla ":6725,"yksessä ":6726,"hypp":6727,"istui ":6728,"palvelun ":6729,"ettävä ":6730,"erässä ":6731,"kurss":6732,"poliisilaito":6733,"ominais":6734,"Dall":6735,"Pär":6736,"vutu":6737,"jono":6738,"jaan.\n":6739,"uhkaa ":6740,"asin ":6741,"pelaajien ":6742,"\" - ":6743,"stetaan ":6744,"rakente":6745,"joukkojen ":6746,"Pitkä":6747,"maahanmuu":6748,"Star":6749,"Sch":6750,"mahtu":6751,"anti":6752,"are":6753,"jakoi ":6754,"jän":6755,"tyt ":6756,"meneh":6757,"tiedotti ":6758,"alkoh":6759,"osui ":6760,"tuhansia ":6761,"Juus":6762,"kro":6763,"lon":6764,"rön":6765,"tulle":6766,"johdo":6767,"u ja ":6768,"et: ":6769,"issa oli ":6770,"oliig":6771,"suuria ":6772,"alla, ":6773,"oping":6774,"kunti":6775,"ongelma":6776,"kuoleman":6777,"Merc":6778,"Suomalais":6779,"pyrkii ":6780,"Metsä":6781,"Men":6782,"eksi":6783,"ran.\n":6784,"iske":6785,"ela ":6786,"nnitel":6787,"ulta ":6788,"kyn":6789,"pesu":6790,"esityksen ":6791,"ttiin, että ":6792,"tämän":6793,"Myöhemmin ":6794,"jonkin":6795,"ryhm":6796,"peräkkä":6797,"vatko ":6798,"lainsääd":6799,"kruun":6800,"Nik":6801,"Sisä":6802,"asuu ":6803,"far":6804,"miste":6805,"yssä ":6806,"ssa, jossa ":6807,"staan.\n":6808,"reilu":6809,"edull":6810,"ttujen ":6811,"Taka":6812,"kuun alussa ":6813,"Euroviisu":6814,"pyyd":6815,"keskiviikko":6816,"lauantain ":6817,"tulevaisuu":6818,"lokakuussa ":6819,"-luvulla ":6820,"46":6821,"Lan":6822,"Linnan ":6823,"Tes":6824,"gh":6825,"gu":6826,"kkil":6827,"tappa":6828,"siivo":6829,"haku":6830,"uksesta.\n":6831,"Tapi":6832,"olisi voinut ":6833,"viikolla.\n":6834,"laajen":6835,"pidemm":6836,"rikoksen ":6837,"Paris":6838,"kerrosta":6839,"voittaja ":6840,"kolmannen ":6841,"toukokuussa ":6842,"lapset ":6843,"Vasemmisto":6844,"Tuk":6845,"gin":6846,"sä, ":6847,"tr":6848,"ttää":6849,"ttinen ":6850,"stud":6851,"massa":6852,"komenta":6853,"villa ":6854,"voittaa ":6855,"pääsy":6856,"muu ":6857,"yksin ":6858,"kuukautta ":6859,"ut\n":6860,"tuoda ":6861,"oikea ":6862,"an, ja ":6863,"Toyo":6864,"alkavat ":6865,"tulos ":6866,"kehitys":6867,"Lindt":6868,"kestää ":6869,"stadion":6870,"Varsinais-Suomen ":6871,"stituu":6872,"RK":6873,"len ":6874,"vire":6875,"kiit":6876,"hakea ":6877,"päätte":6878,"henkilö ":6879,"kokouksessa ":6880,"suurta ":6881,"kuului ":6882,"aiheuttanut ":6883,"Suurin ":6884,"poikkeuksell":6885,"Bel":6886,"sson":6887,"imer":6888,"mme.\n":6889,"rec":6890,"Suomen":6891,"saattoi ":6892,"ttomuu":6893,"ttyä ":6894,", jossa hän ":6895,"elämä ":6896,"avusta":6897,"Muun muassa ":6898,"hyökkäyksen ":6899,"maanantaina.\n":6900,"Järjest":6901,"Joensuu":6902,"Pes":6903,"a - ":6904,"isel":6905,"mara":6906,"raivo":6907,"työmarkkina":6908,"Vuor":6909,"onnistunut ":6910,"tiistaina.\n":6911,"Viron ":6912,"valiko":6913,"voisi olla ":6914,"lehdistö":6915,"kulttuur":6916,"liikenteen ":6917,"Ruotsissa ":6918,"lausunno":6919,"Zelenskyi ":6920,"aali- ja terveys":6921,"600":6922,"C-":6923,"it, ":6924,"maisen ":6925,"tusti ":6926,"iltaan ":6927,"sie":6928,"villä ":6929,"jaksi.\n":6930,"heille ":6931,"palo ":6932,"toimisto":6933,"utumis":6934,"ustel":6935,"hyvin, ":6936,"kotiin ":6937,"juhann":6938,"puhutaan ":6939,"rauho":6940,"jokainen ":6941,"Sanna Mar":6942,"haavoittu":6943," miljard":6944,"gall":6945,"nut, ":6946,"simme ":6947,"uli":6948,"päättää ":6949,"tilaa ":6950,"istunut ":6951,"aseman ":6952,"Siihen ":6953,"Pari ":6954,"matko":6955,"Näytteli":6956,"vaikkapa ":6957," ihmistä ":6958,"festi":6959,"kiist":6960,"jäivät ":6961,"tyssä ":6962,"uksen.\n":6963,"henkilöstö":6964,"ulkoministeri ":6965,"kkejä ":6966,"Harris":6967,"kuule":6968,"Lou":6969,"videolla ":6970,"pelata ":6971,"merkittävä ":6972,"ketju":6973,"demokraa":6974,"Länsi-":6975,"voitaisiin ":6976,"omien ":6977,"öin ":6978,"maton":6979,"ssan ":6980,"olainen ":6981,"valtaa ":6982,"per ":6983,"istan ":6984,"irtisano":6985,"ia-":6986,"Joon":6987,"kisat ":6988,". kesä":6989,"Mari":6990,"määrä on ":6991,"viime aikoina ":6992,"esiintyi ":6993,"Veikka":6994,"siirtyy ":6995,"mestaruuden ":6996,"hävittä":6997,"Huuhka":6998," asteen ":6999,"Mai":7000,"Yli ":7001,"tuen ":7002,"sast":7003,"vuor":7004,"us, ":7005,"päästö":7006,"vaikutti ":7007,"väliaika":7008,"rakenne":7009,"aikaisemmin ":7010,"Cha":7011,"bin ":7012,"tavoin ":7013,"erill":7014,"uksissa ":7015,"uksessa.\n":7016,"perin":7017,"pitkin ":7018,"aluksi ":7019,"uste":7020,"asun":7021,"asti, ":7022,"Angel":7023,"ylpe":7024,"todista":7025,"sopimus ":7026,"Noin ":7027,"sijaitsevan ":7028,"kolmas ":7029,"liki ":7030,"41":7031,"42":7032,"matala":7033,"ksesta ":7034,"on saanut ":7035,"ista oli ":7036,"isiä.\n":7037,"varjo":7038,"eläke":7039,"een\n":7040,"kasvaa ":7041,"tää, että ":7042,"Tunn":7043,"marraskuussa ":7044,"Donald Trumpin ":7045,"klass":7046,"Daily ":7047,"Epäil":7048,"Tänään ":7049,"Blo":7050,"wa":7051,"muihin ":7052,"vät.\n":7053,"essa\n":7054,"näistä ":7055,"aa, että ":7056,"inne ":7057,"veri ":7058,"viimeksi ":7059,"eet ovat ":7060,"maksamaan ":7061,"elokuussa ":7062,"Heidän ":7063,"Inter":7064,"alkoivat ":7065,"Päätö":7066,"myös, että ":7067,"Tikto":7068,"49":7069,"Pie":7070,"tion":7071,"väsy":7072,"pakko ":7073,"heistä ":7074,"harrast":7075,"aikataulu":7076,"tiedustelu":7077,"alaiset ":7078,"tapahtumien ":7079,"pelaajan ":7080,"hetkell":7081,"kieltäyty":7082,"nykyinen ":7083,"syksyn ":7084,"Versta":7085,"Italian ":7086,"televisio":7087,"Colo":7088,"ge ":7089,"noll":7090,"oulu":7091,"sen.\n":7092,"isivät ":7093,"tuha":7094,"stan":7095,"miseen, ":7096,"mpö":7097,"perso":7098,"kautta":7099,"maata ":7100,"niin paljon ":7101,"tulevan ":7102,"tällä kertaa ":7103,"Suomessa on ":7104,"ettuja ":7105,"liittyviä ":7106,"Pelto":7107,"ennako":7108,"Elina ":7109,"maaliskuussa ":7110,"kokoonpano":7111,"molemm":7112,"Niskanen ":7113,"katast":7114,"enkä ":7115,"heittä":7116,"ään ja ":7117,"neeseen ":7118,"soitti ":7119,"yritys":7120,"turvapa":7121,"kkit":7122,"Alku":7123,"Miel":7124,"julkisuudessa ":7125,"kohta ":7126,"työskentele":7127,"E-":7128,"lti ":7129,"utta.\n":7130,"mas":7131,"loista":7132,"ttelu ":7133,"esitti ":7134,"askel":7135,". touko":7136,"sukupol":7137,"suuntaan.\n":7138,"komissi":7139,"projek":7140,"teorolog":7141,"Verstapp":7142,"Rai":7143,"po ":7144,"uvol":7145,"isku ":7146,"taito":7147,"aro":7148,"ut ovat ":7149,"lumi":7150,"pelä":7151,"käytti ":7152,"pitki":7153,"isesti ja ":7154,"ei ole ollut ":7155,"Mat":7156,"Toki ":7157,"lapsuu":7158,"pitää olla ":7159,"puutte":7160,"tarjolla ":7161,"torstaina.\n":7162,"jalan ":7163,"Pääministeri ":7164,"suositu":7165,"We":7166,"dro":7167,"en ole ":7168,"eren":7169,"lasta ":7170,"ollut.\n":7171,"aat ":7172,"Suomeen.\n":7173,"ohella ":7174,"varten ":7175,"opposit":7176,"stä ja ":7177,"onnell":7178,"Valtteri ":7179,"entisest":7180,"milloin ":7181,"ppien ":7182,"arvioi.\n":7183,"puhua ":7184,"pelataan ":7185,"Niko ":7186,"tasavallan ":7187,"Hallituksen ":7188,"viljel":7189,"ammatti":7190,"Häme":7191,"Mäk":7192,"parempi ":7193,"heinäkuussa ":7194,"poikansa ":7195,"Hanna ":7196,"uta":7197,"kaun":7198,"an-":7199,"isemp":7200,"tapahtuman ":7201,". elo":7202,"intojen ":7203,"yllätyks":7204,"pitäisi olla ":7205,"myöhemmin.\n":7206,"prosess":7207,"maailmancupin ":7208,"Kell":7209,"Rak":7210,"Tau":7211,"tait":7212,"ssa, jo":7213,"kiv":7214,"lakkau":7215,"hdin ":7216,"hylä":7217,"Kokoo":7218," on ollut ":7219,". heinä":7220,"tutkii ":7221,"ristiri":7222,"kahta ":7223,"päällikkö":7224,"käsitel":7225,"Krista ":7226,"Ohjel":7227,"Aamu":7228,"Juo":7229,"Pan ":7230,"iina ":7231,"i, ettei ":7232,"tena ":7233,"il ":7234,"ika on ":7235,"va ja ":7236,"ytyy ":7237,"järjestää ":7238,"kohtaan.\n":7239,"ikäy":7240,"löytynyt ":7241,"lääkär":7242,"Meillä ":7243,"nautti":7244,"kevää":7245,"palveluiden ":7246,"kyseen":7247,"paljast":7248,"keskiviikkona.\n":7249,"ennätyks":7250,"seuraavan ":7251,"Torsta":7252,"Vorn":7253,"Tukhol":7254,"Jal":7255,"Rall":7256,"Sus":7257,"ntö":7258,"pest":7259,"taju":7260,"taide":7261,"kakko":7262,"elää ":7263,"olan ":7264,"virast":7265,"kille ":7266,"rainen ":7267,"ikinä ":7268,"seudu":7269,"heikko":7270,"vuori ":7271,"inainen ":7272,"ttoman ":7273,"itys on ":7274,"tenti":7275,"elämänsä ":7276,"ystävänsä ":7277,"kevy":7278,"surull":7279,"poliittinen ":7280,"Espoon ":7281,"Sdp:n ":7282," / ":7283,"oks":7284,"uha":7285,"malta ":7286,"kumo":7287,"ihän ":7288,"Suomesta ":7289,"lähetti ":7290,"Tour":7291,"perustus":7292,"pysyy ":7293,"ampuma":7294,"Puha":7295,"mielestään ":7296,"Rovanperä ":7297,"Telegra":7298,"Koh":7299,"Tho":7300,"u, ":7301,"ikymp":7302,"pahim":7303,"oli jo ":7304,"keskuud":7305,"uhte":7306,"tapaan ":7307,"sen, että ":7308,"korko":7309,"järjeste":7310,"tehneet ":7311,"julkaissut ":7312,"pienen ":7313,"sääst":7314,"asiakas":7315,"vaikuttavat ":7316,"Top":7317,"aito":7318,"bis":7319,"jalo":7320,"tte ":7321,"ttaisiin ":7322,"ään\n":7323,"kosken ":7324,"päivänä.\n":7325,"näytö":7326,"isoja ":7327,"Meg":7328,"Katso ":7329,"sosiaalisessa media":7330,"Jani ":7331,"TPS":7332,"tah":7333,"on on ":7334,"tus on ":7335,"idenkin ":7336,"palon ":7337,"uhre":7338,"ttuaan ":7339,"Lass":7340,"haluaisi ":7341,"perustel":7342,"ohjelma":7343,"syöpä":7344,"nähtä":7345,"Libanon":7346,"Ferr":7347,"Sää":7348,"Sell":7349,"kkon":7350,"mään, ":7351,"pter":7352,"tauko":7353,"ite ":7354,"olet ":7355,"miell":7356,"neista ":7357,"huollon ":7358,"monia ":7359,"pitävät ":7360,"täysi":7361,"mestar":7362,"Lapissa ":7363,"sosiaalisen median ":7364,"elämää ":7365,"turnauksen ":7366,"Markku ":7367,"Mikael ":7368,"Minä ":7369,"Sta":7370,"pyh":7371,"vii":7372,"sekunn":7373,"voida ":7374,"kanssa":7375,"palkinn":7376,"tiedon ":7377,". syys":7378,"tutkija ":7379,"huuma":7380,"kasvanut ":7381,"pohtii.\n":7382,"Rantanen ":7383,"samaan aikaan ":7384,"-vuotiaana ":7385,"korona":7386," miljoonan euron ":7387,"tug":7388,"tee ":7389,"ari ":7390,"sein":7391,"ttaisi ":7392,"ohi":7393,"tapasi ":7394,"iemi":7395,"Tasa":7396,"tanssi":7397,"sunnuntain ":7398,"myönsi ":7399,"Viime vuonna ":7400,"voimaan ":7401,"Donald Trump":7402,"julkaistu ":7403,"silloin, kun ":7404,"Kuning":7405,"äärimmäisen ":7406,"torjunta":7407,"B-":7408,"b ":7409,"doping":7410,"mys ":7411,"äkin ":7412,"iltä.\n":7413,"sakko":7414,"se, ":7415,"seiso":7416,"ttavaa ":7417,"ei tarvitse ":7418,"essa, että ":7419,"kauan ":7420,"kesken":7421,"hän sai ":7422,"istuksen ":7423,"isiin, ":7424,"iaan.\n":7425,"sinu":7426,"deb":7427,"naista ":7428,"asta, ":7429,"195":7430,"jää.\n":7431,"rauta":7432,"ille, että ":7433,"järjestelmän ":7434,"Instagramissa ":7435,"huippu-":7436,"ajanut ":7437,"Tilanne ":7438,"numero":7439,"lukuisia ":7440,"Leijona":7441,"mukana.\n":7442,"menettel":7443,"SDP:n ":7444,"nyrkke":7445,"ata ":7446,"ois":7447,"instituu":7448,"isti.\n":7449,"via.\n":7450,"ja, jotka ":7451,"valtuu":7452,"or ":7453,"kone ":7454,"herättänyt ":7455,"hyökkäysso":7456,"kentän ":7457,"vapaaehto":7458,"ikympp":7459,"-arvo":7460,"54":7461,"Air":7462,"Go":7463,"Mor":7464,"Sy":7465,"tic":7466,"pelissä ":7467,"ina on ":7468,"tuote":7469,"hallitse":7470,"ajattele":7471,"iin, että ":7472,"it ja ":7473,"miehensä ":7474,"Valtonen ":7475,"melkein ":7476,"käynnisty":7477,"viikonlopun ":7478,"käytettä":7479,"kiinnost":7480,"keräsi ":7481,"paikoin ":7482,"Panther":7483,"huono ":7484,"52":7485,"A:n ":7486,"Gar":7487,"M ":7488,"aa, ":7489,"fe":7490,"kise":7491,"o, ettei ":7492,"pell":7493,"ilta, ":7494,"vuoti":7495,"neitä ":7496,"aike":7497,"pelastus":7498,"vesi ":7499,"olemassa ":7500,". loka":7501,"lle\n":7502,"kymmeniä ":7503,"millään ":7504,"chest":7505,"Ilta-Sanomien ":7506,"sellaisia ":7507,"ttila ":7508,"toimenpite":7509,"Kut":7510,"nur":7511,"iluo":7512,"rakasta":7513,"jakaa ":7514,"ut ja ":7515,"res":7516,"soker":7517,"pääosin ":7518,"hallin ":7519,"sin mukaan ":7520,"tiedä ":7521,"epäonnistu":7522,"ingin ":7523,"tonsa ":7524,"ilemaan ":7525,"hetki ":7526,"media ":7527,"uskoo ":7528,"huipu":7529,"lauantaina.\n":7530,"yhdistyksen ":7531,"yksikö":7532,"Donald Trump ":7533,"AFP":7534,"ensa.\n":7535,"toipu":7536,"tävän ":7537,"palestiin":7538,"sanoa, että ":7539,"tapauksen ":7540,"järke":7541,"uudessa.\n":7542,"toiselle ":7543,"surma":7544," kilometriä ":7545,"merkittävä":7546,"urheilijo":7547,"olympialaisten ":7548,"aiemmin.\n":7549,"tyhj":7550,"Express":7551,"jan.\n":7552,"Ään":7553,"isa":7554,"inen\n":7555,"soh":7556,"kaiken":7557,"hermo":7558,"iossa ":7559,"hyödy":7560,"juoksi":7561,"Jac":7562,"suorituks":7563,"merkittävästi ":7564,"Lehti":7565,"valvonta":7566,"Forec":7567,"eurooppal":7568,"All":7569,"Myy":7570,"keli ":7571,"kuvat ":7572,"ette ":7573,"immista ":7574,"haki ":7575,"aira":7576,"enne ":7577,"peh":7578,"us ja ":7579,"oppi":7580,"ttiin, ":7581,"päivä.\n":7582,"löi ":7583,"paikalta ":7584,"Ruotsi ":7585,"kkää ":7586,"yttävä ":7587,"Tuomas ":7588,"käänty":7589,"keskustelua ":7590,"syytetään ":7591,"Laaks":7592,"evakuo":7593,"eduskuntaryhmän ":7594,"reilut ":7595,"At":7596,"Asu":7597,"Eli ":7598,"Pho":7599,"pinta":7600,"the ":7601,"malla.\n":7602,"kolog":7603,"jokin ":7604,"olisin ":7605,"etta ja ":7606,"jänä ":7607,"hajo":7608,"neessa ":7609,"potenti":7610,"ina ja ":7611,". marras":7612,"194":7613,"Kunn":7614,"kohtalo":7615,"kärsin":7616,"upin ":7617,"Eurooppa":7618,"myönte":7619,"lääkäri":7620,"-ohjelman ":7621,"Musta":7622,"vaun":7623,"maala":7624,"kiu":7625,"laina":7626,"uksiin ":7627,"sota ":7628,"nähden ":7629,"enna ":7630,"alueilla ":7631,"kirjoitti.\n":7632,"totesi.\n":7633,"puun ":7634,"haltu":7635,"rakentaa ":7636,"tekni":7637,"ttuna.\n":7638,"valtiovarain":7639,"kansainvälisen ":7640,"Paimion ":7641,"alkoholi":7642,"nto":7643,"kaiva":7644,"t -":7645,"nneen ":7646,"laul":7647,"haitta":7648,"kyyd":7649,"poru":7650,"kausi":7651,"parasta ":7652,"ohi ":7653,"näyttö":7654,"maalia ":7655,"asuin":7656,"puolesta.\n":7657,"melko":7658,"viranomais":7659,"esiintyy ":7660,"tulivat ":7661,"lajin ":7662,"Silti ":7663,"kadun ":7664,"raporto":7665,"työskennellyt ":7666,"Daily Ma":7667," metriä ":7668,"City":7669,"Tulo":7670,"teon ":7671,"sain ":7672,"ollinen ":7673,"hakeutu":7674,"a, vaikka ":7675,"llä on ":7676,"vetää ":7677,"asiaan ":7678,"huolta ":7679,"ama ":7680,"Hän kertoi ":7681,"kolmo":7682,"korvaa":7683,"Kommen":7684,"hark":7685,"kuvailee.\n":7686,"Sebast":7687,"Naisten ":7688,"löytä":7689,"finaalissa ":7690,"Johanna ":7691,"Torni":7692,"lausunto":7693,"speku":7694,"komitean ":7695,"imäärä":7696,"43":7697,"Aki ":7698,"Palo":7699,"lo ":7700,"stön ":7701,"koste":7702,"täs":7703,", joihin ":7704,"hyväl":7705,"pitämään ":7706,"inna ":7707,"voi tulla ":7708,"kolmi":7709,"tiete":7710,"Tamm":7711,"eri puol":7712,"Entinen ":7713,"valmistautu":7714,"Petteri Orpon ":7715,"liikaa ":7716,"periaatte":7717,"Uutis":7718,"Stan":7719,"Serg":7720,"Yllä":7721,"Ykkö":7722,"car":7723,"isin":7724,"kaksi":7725,"mat.\n":7726,"kore":7727,"jako":7728,"jätt":7729,"rooli":7730,"levy":7731,"kertoa ":7732,"koskee ":7733,"ilijo":7734,"vuoden aikana ":7735,"viime viikolla ":7736,"halutaan ":7737,", kun hän ":7738,"Tek":7739,"miljoonaa ":7740,"a, joka on ":7741,"yhteydessä.\n":7742,"Kinn":7743,"niko":7744,"varmis":7745,"amista ":7746,"kulkee ":7747,"at ja ":7748,"Sekä ":7749,"tekijä ":7750,"tarjoaa ":7751,"sunnuntaina.\n":7752,"järjestelmä":7753,"seitsemä":7754,"palaute":7755,"loukkaantui ":7756,"Kyseessä ":7757,"Haavisto":7758,"Andre":7759,"Lähi-":7760,"hill":7761,"nett":7762,"ntiin ":7763,"uu.\n":7764,"vio":7765,"kimp":7766,"roko":7767,"kuuro":7768,"minut ":7769,"ver ":7770,"vaihdo":7771,"välittä":7772,"hämmen":7773,"vahvisti ":7774,"tallen":7775,"yllättäen ":7776,"Jenni ":7777,"Fa":7778,"Hor":7779,"yt, ":7780,"katto":7781,"pohd":7782,"palkan":7783,"ääni":7784,"pelien ":7785,"Joulu":7786,"issä ja ":7787,"Viest":7788,"sairaus":7789,"sopimu":7790,"kielto":7791,"huuto":7792,"Viranoma":7793,"minulla ":7794,"Muuta":7795,"ei kuitenkaan ole ":7796,"laulaja ":7797,"(ps) ":7798,"59":7799,"Mis":7800,"X-":7801,"mmassa ":7802,"itta ":7803,"net":7804,"kauppo":7805,"irto":7806,"vastaisena ":7807,"niin":7808,"punais":7809,"hteeri ":7810,"ander":7811,"vaihte":7812,"saaneensa ":7813,"nuoret ":7814,"vieraili ":7815,"Henkilö":7816,"puhunut ":7817,"Valioliig":7818,"huolissaan ":7819,"Ainakin ":7820,"Reh":7821,"eteen ":7822,"lenn":7823,"kuolle":7824,"tähden ":7825,"ollen ":7826,"sov":7827,"htaa.\n":7828,"asia.\n":7829,"asti":7830,"ajat ":7831,"järjestettiin ":7832,". huhti":7833,"kasvi":7834,"mukaisesti ":7835,"kotitalo":7836,"kokouksen ":7837,"sairaalan ":7838,"jonkun ":7839,"agen":7840,"rakennuksen ":7841,"Venäjälle ":7842,"tilaisuu":7843,"Jyväs":7844,"Het":7845,"Osa":7846,"takaa":7847,"en kanssa ":7848,"stä on ":7849,"tos":7850,"viin":7851,"ikkö":7852,"pull":7853,"kää ":7854,"olleensa ":7855,"ham":7856,"ei tule ":7857,"rikaan":7858,"käydään ":7859,"Suome":7860,"menivät ":7861,"parkki":7862,"uhri":7863,"konkre":7864,"oikeastaan ":7865,"kenttä":7866,"Sauli ":7867,"niin kuin ":7868,"estä ja ":7869,"alueell":7870,"Pajar":7871,"ussaan ":7872,"arvon":7873,"Sof":7874,"muutoksen ":7875,"suhteessa ":7876,"erityis":7877,"hoitaa ":7878,"lähettää ":7879,"iaamuna ":7880,"katastrof":7881,"huumausa":7882,"My":7883,"N ":7884,"päälle.\n":7885,"merkki":7886,"jat.\n":7887,"mmalla ":7888,"kärj":7889,"Harri ":7890,"edellisen ":7891,"tekivät ":7892,"rasis":7893,"kokemu":7894,"käytön ":7895,"miseen ja ":7896,"oppila":7897,"ensimmäisen kerran ":7898,"Ensimmäinen ":7899,"Pohjanmaan ":7900,"asunnon ":7901,"Pyr":7902,"Tš":7903,"dy ":7904,"my ":7905,"yso":7906,"itulo":7907,"eltä.\n":7908,"tusta.\n":7909,"ik ":7910,"tys":7911,"ei vielä ":7912,"kyse on ":7913,"sote-":7914,"yksi":7915,"yksiä ":7916,"seurasi ":7917,"vaatin":7918,"Kansan":7919,"juur":7920,"tehtävä ":7921,"kuts":7922,"pystyi ":7923,"käytetty ":7924,"ihdon ":7925,"mennessä.\n":7926,"riittävän ":7927,"huomauttaa, että ":7928,"Pärmä":7929,"Far":7930,"Täällä ":7931,"ci":7932,"du":7933,"yä ":7934,"kakkos":7935,"va, ":7936,"koki ":7937,"elim":7938,"keks":7939,"sau":7940,"väle":7941,"reak":7942,"päähän ":7943,"myönn":7944,"suih":7945,"kuunn":7946,"hyvät ":7947,"kon, että ":7948,"yhdisty":7949,"avasi ":7950,"onne":7951,"noin kello ":7952,"kärsi ":7953,"voimat ":7954,"tällä viikolla ":7955,"rallin ":7956,"ille\n":7957,"mattomuu":7958,"taustalla ":7959,"perjantain ":7960,"pariskunta ":7961,"Euroopassa ":7962,"konflik":7963,"hyppää":7964,"viedä ":7965,"Jyr":7966,"at.\n":7967,"isillä ":7968,"ited":7969,"kot ":7970,"kus ":7971,"on nyt ":7972,"estää ":7973,"putosi ":7974,"roma":7975,"näki ":7976,"ysä":7977,"kunnossa.\n":7978,"ituksia ":7979,"epäile":7980,"a on ollut ":7981,"mestari":7982,"osallistuu ":7983,"Montre":7984,"pyritään ":7985,"paikallis":7986,"herättä":7987,"Käytä":7988,"Pien":7989,"lahja":7990,"Iltalehdelle.\n":7991,"dollarin ":7992,"lopettaa ":7993,"a\" ":7994,"i myös ":7995,"teet ":7996,"mme":7997,"pula":7998,"kyllä":7999,"valite":8000,"hyll":8001,"meteorolog":8002,"päivällä ":8003,"a, jota ":8004,"Viro":8005,"aikanaan ":8006,"asuva ":8007,"eseen, ":8008,"teksti":8009,"tällaista ":8010,"Juttua ":8011,"rik ":8012,"ie ":8013,"viä.\n":8014,"illalla ":8015,"hedel":8016,"nou":8017,"tti on ":8018,"toimivat ":8019,"vallan":8020,"dow":8021,"kohtaisesti ":8022,"Los ":8023,"kahdesta ":8024,"pitkälti ":8025,"mattoman ":8026,"tilaisuudessa ":8027,"John ":8028,"Alexander Stubb":8029,"väestö":8030,"harvinais":8031,"51":8032,"Ven":8033,"ce":8034,"dan":8035,"pime":8036,"matta":8037,"torin ":8038,"tuki ":8039,"väittel":8040,"tyyli":8041,"vanhemm":8042,"isempi ":8043,"ties ":8044,"Kuva ":8045,"usko, että ":8046,"neuvoston ":8047,"pisteet ":8048,"tasapaino":8049,"vaaleissa.\n":8050,"Kolme ":8051,"poliisin mukaan ":8052,"Etelä-Kore":8053,"Video":8054,"mielestäni ":8055,"ilmeisesti ":8056,"Aika":8057,"kissa.\n":8058,"taa.\n":8059,"en on ":8060,"kara":8061,"ssel":8062,"vointi":8063,"mia, ":8064,"misen.\n":8065,"yyn.\n":8066,"myöh":8067,"yht":8068,"isia, ":8069,"henk":8070,"isännö":8071,"avaja":8072,"jäävät ":8073,"jakson ":8074,"Post":8075,"aamulla ":8076,"puheenjohtajan ":8077,"voiman ":8078,"otsiko":8079,"kaikkien aikojen ":8080,"700":8081,"Stor":8082,"Uusi":8083,"rus":8084,"en, jossa ":8085,"eltään ":8086,"eraan":8087,"albu":8088,"ardi":8089,"laulu":8090,"ester":8091,"tytö":8092,"nousta ":8093,"piilo":8094,"vanha ":8095,"am ":8096,"huma":8097,"ennen kaikkea ":8098,"sarja ":8099,"päivää.\n":8100,"Manchest":8101,"Latval":8102,"Finland":8103,"Erityisesti ":8104,"Mäkelä ":8105," jo":8106,"58":8107,"Elis":8108,"Hyö":8109,"Jalka":8110,"Raja":8111,"tko ":8112,"illeen.\n":8113,"vastaan, ":8114,"iset ovat ":8115,"a, joista ":8116,"epäilee ":8117,"tonb":8118,"Miesten ":8119,"lisäksi myös ":8120,"Suz":8121,"kilometrin ":8122,"Lähte":8123,"itystä.\n":8124,"Mäki":8125,"kaksikko ":8126,"Ukrainalle ":8127,"jutussa ":8128,"miljardin ":8129,"Aftonb":8130,"Tapparan ":8131,"New York Tim":8132,"-lehden ":8133,"Grön":8134,"aisten ":8135,"tren":8136,"kaan, ":8137,"ja hänen ":8138,"josta":8139,"sata ":8140,"laiva":8141,"ei välttämättä ":8142,"soitta":8143,"ikopter":8144,"huoneen ":8145,"mielessä ":8146,"tunne":8147,"katsomo":8148,"kaudella.\n":8149,"murhan ":8150,"esta\n":8151,"selvittää ":8152,"lämpimä":8153,"Musi":8154,"yllättävän ":8155,"Portug":8156,"tarpeeksi ":8157,"valmiiksi ":8158,"republikaanien ":8159,"maalivahti ":8160,"alun perin ":8161,"Kiekko":8162,"nappasi ":8163,"Kio":8164,"do ":8165,"kite":8166,"os ":8167,"tiivi":8168,"illä":8169,"tä ja ":8170,"uhri ":8171,"yhden":8172,"Valta":8173,"katsoi ":8174,"Pohjo":8175,"nopeasti.\n":8176,"Kiina":8177,"paljastaa ":8178,"voivat olla ":8179,"puolustaja ":8180,"sydäm":8181,"brän":8182,"suuntaan ":8183,"Lento":8184,"Halla-aho ":8185,"Sosiaal":8186,"Australi":8187,"Ajo":8188,"Uni":8189,"asi ":8190,"ster":8191,"iler":8192,"voit ":8193,"liito":8194,"pääse ":8195,"essa ja ":8196,"oita, ":8197,"vanh":8198,"huolehti":8199,"esillä ":8200,"elle on ":8201,"Laura ":8202,"niissä ":8203,"sitä.\n":8204,". helmi":8205,"katsel":8206,"kanssa ja ":8207,"isyyden ":8208,"Kivi":8209,"mietti":8210,"Salossa ":8211,"varsinais":8212,"häirin":8213,"Englannin ":8214,"Käräjäoikeus ":8215,"Jat":8216,"don":8217,"hita":8218,"rikka":8219,"tter":8220,"alta, ":8221,"isteli ":8222,"imen":8223,"tälle ":8224,"vuosin":8225,"uton ":8226,"itsekin ":8227,"kultaa ":8228,"Matka":8229,"viestin ":8230,"ettävästi ":8231,"Hyvin":8232,"käynnist":8233,"puolueiden ":8234,"kesken.\n":8235,"United":8236,"Afri":8237,"Haluan ":8238,"Robert ":8239,"57":8240,"II":8241,"Penn":8242,"] ":8243,"gan ":8244,", vaan ":8245,"laki ":8246,"idä":8247,"luvassa ":8248,"pelast":8249,"menetti ":8250,"varus":8251,"Kain":8252,"olla on ":8253,"hengen":8254,"Mati":8255,"paikalle.\n":8256,"lisätä ":8257,"tuksia ":8258,"ilmoittanut ":8259,"kansallis":8260,"käytöks":8261,"tyypp":8262,"numer":8263,"avulla.\n":8264,"kuukausi":8265,"sattui ":8266,"Kysy":8267,"keittiö":8268,"p-":8269,"w'":8270,"kaal":8271,"ella":8272,"illis":8273,"valit":8274,"ennen":8275,"se ei ole ":8276,"tapaa ":8277,"vastaava":8278,"itali":8279,"harm":8280,", mutta ei ":8281,"aloittanut ":8282,"mahdollisuud":8283,"-vuotias.\n":8284,"hyöty":8285,"päätöstä ":8286,"Ensin ":8287,"herättää ":8288,"saattaa olla ":8289,"valvon":8290,"kutsui ":8291,"huhtikuussa ":8292,"kustannuks":8293,"Kanadan ":8294,"56":8295,"Lö":8296,"sonin ":8297,"ukan ":8298,"llisia ":8299,"tti, ":8300,"anut ":8301,"e -":8302,"radan ":8303,"ihmist":8304,"työttömyy":8305,". maalis":8306,"pelaamaan ":8307,"siitä, mitä ":8308,"käräjäoikeuden ":8309,"ööri ":8310,"armeijan ":8311,"viettää ":8312,"Oy:n ":8313,"tavoitteena on ":8314,"-ajo":8315,"Aika ":8316,"Lund":8317,"gy":8318,"ityö":8319,"ttua.\n":8320,"Lah":8321,". tammi":8322,"ilevat ":8323,"itus on ":8324,"Salminen ":8325,"ongelmia ":8326,"seuraava ":8327,"Tämän jälkeen ":8328,"mukanaan ":8329,"luonte":8330,"yhtyeen ":8331,"Guardi":8332,"kansli":8333,"jatkuvasti ":8334,"yritysten ":8335,"täynnä ":8336,"kauni":8337,"tiuka":8338,"radi":8339,"ikkaan ":8340,"ittämään ":8341,"valittu ":8342,"muutenkin ":8343,"vanhan ":8344,"Samaan ":8345,"alaikä":8346,"kulki":8347,"olisi pitänyt ":8348,"kasvoi ":8349,"asta ja ":8350,"laatio":8351,"akin.\n":8352,"laskeutu":8353,"land ":8354,"lämpim":8355,"pysäkö":8356,"ajankohta":8357,"lainkaan ":8358,"hyökkäys":8359,"Christ":8360,"eteenpäin.\n":8361,"kotona ":8362,"Sveitsin ":8363,"Jesse ":8364,"Nais":8365,"ei.\n":8366,"jus":8367,"isuo":8368,"en: ":8369,"tilla.\n":8370,"palki":8371,"lum":8372,"isiin":8373,"annan ":8374,"kirjan ":8375,"selkä":8376,"hull":8377,"pana ":8378,"vaikutus":8379,"tiedottaja ":8380,"muistelee ":8381,"Haaviston ":8382,"menestyks":8383,"opiskeli":8384,"Molemmat ":8385,"Vornanen ":8386,"Pian ":8387,"plo":8388,"tuista ":8389,"viil":8390,"ettiin.\n":8391,"muitakin ":8392,"resur":8393,"een mukaan ":8394,"mpiin ":8395,"minnäki":8396,"merkki ":8397,"tuoll":8398,"kirj":8399,"syytö":8400,"tunnusta":8401,"suomalaista ":8402,"eloku":8403,"isyys ":8404,"nykyisin ":8405,"pyyntö":8406,"Hiihto":8407,"vaalit ":8408,"sisältää ":8409,"metsäst":8410,"auring":8411,"artist":8412,"Urheilu":8413,"päättyy ":8414,"Ell":8415,"Ton":8416,"gaal":8417,"ion ":8418,"osti ":8419,"kasa":8420,"ksy":8421,"rakkau":8422,"lassa ":8423,"pure":8424,"ulkon":8425,"neu":8426,"unda":8427,"pääminister":8428,"päin":8429,"tarin":8430,"sen ja ":8431,"Tay":8432,"Marc":8433,"mmasta ":8434,"tukset ":8435,"sitä miel":8436,"takaa ":8437,"naiset ":8438,"tasolla.\n":8439,"tässä vaiheessa ":8440,"paljasti ":8441,"sulke":8442,"tuomittu ":8443,"samana ":8444,"lund ":8445,"Unkarin ":8446,"...\n":8447,"Chr":8448,"työntekijöiden ":8449,"Tanskan ":8450,"Cor":8451,"Uuden ":8452,"Ves":8453,"af":8454,"ktiiv":8455,"määri":8456,"isimme ":8457,"tahto":8458,"variko":8459,"kove":8460,"ksiin ":8461,"toivat ":8462,"tu.\n":8463,"edistä":8464,"kynn":8465,"valitse":8466,"peliä ":8467,"us oli ":8468,"tti: ":8469,"kaatui ":8470,"varautu":8471,"kaupunkise":8472,"haastattele":8473,"kerrotaan, että ":8474,"Kiur":8475,"sijoitta":8476,"Suomalainen ":8477," Bull":8478,"käräjäoikeudessa ":8479,"himo":8480,"parlamentin ":8481,"...":8482,"Pirkan":8483,"varhain ":8484,"Hämeen":8485,"humacher":8486,"Aino":8487,"MV":8488,"Män":8489,"Op":8490,"Ser":8491,"grill":8492,"iin, ":8493,"ruk":8494,"vess":8495,"äiti":8496,"ka-":8497,"in kanssa ":8498,"tusten ":8499,"alas":8500,"kia ":8501,"kivi":8502,"aio ":8503,"edusti ":8504,"auki":8505,"mana.\n":8506,"ilijoiden ":8507,"viime kaudella ":8508,"euroa.\n":8509,"Tältä ":8510,"kaappa":8511,"ivat.\n":8512,"Mielen":8513,"osallistua ":8514,"eduskunta":8515,"voittoon ":8516,"herätti ":8517,"Daniel ":8518,"Perjantaina ":8519,".f":8520,"Asia ":8521,"otetaan ":8522,"ph":8523,"Äit":8524,"ta\n":8525,"massaan ":8526,"ara":8527,"ria.\n":8528,"u oli ":8529,"kuntaa ":8530,"kaikissa ":8531,"elämässä ":8532,". - ":8533,"asumis":8534,"Käy":8535,"Juku":8536,"välisenä ":8537,"jokaisen ":8538,"jutun ":8539,"'s ":8540,"kkanen ":8541,"mä on ":8542,"tein":8543,"sase":8544,"seuro":8545,"heidät ":8546,"mia ja ":8547,"mihin":8548,"lukuun ":8549,"kuulla ":8550,"tarino":8551,"meitä ":8552,"sen, ":8553,"perustuu ":8554,"pidetty ":8555,"Perhe":8556,"ensi vuoden ":8557,"inen, mutta ":8558,"Niitä ":8559,"Katri ":8560,"pääsevät ":8561,"seuraavana ":8562,"Laula":8563,"Kärpä":8564,"päätöksen":8565,"mies.\n":8566,"Charles ":8567,"Britt":8568,"ääkäri ":8569,"Kaisa ":8570,"oppositio":8571,"IL":8572,"sh":8573,"vuuden ":8574,"iky":8575,"voisivat ":8576,"tytön ":8577,"kaune":8578,"se olisi ":8579,"antain ":8580,"syl":8581,"en, ja ":8582,"Joskus ":8583,"jälkeen":8584,"liiku":8585,"onneksi ":8586,", jossa on ":8587,"dig":8588,"sosiaali- ja terveys":8589,"iltana ":8590,"Tällainen ":8591,"kolmanneksi ":8592,"oneuvo":8593,"nnytys":8594,"Vel":8595,"bon":8596,"blog":8597,"gand":8598,"taita":8599,"anss":8600,"ima ":8601,"a, niin ":8602,"auta":8603,"kertoo, ":8604,"tuonut ":8605,"vaiva":8606,"vartio":8607,"olevien ":8608,"ellä oli ":8609,"velj":8610,"Mari ":8611,"määrää ":8612,"valtava ":8613,"sarjo":8614,"mallin ":8615,"toimiva ":8616,"parhaat ":8617,"vaihtoeh":8618,"saapunut ":8619,"Yhdysvalto":8620,"tuomioistu":8621,"Kimmo ":8622,"vasemmistoliiton ":8623,"Syyttäjä ":8624,"vähenn":8625,"reago":8626,"syksynä ":8627,"huolestutta":8628,"David ":8629,"keväänä ":8630,"85":8631,"Maan ":8632,"Niska":8633,"Ph":8634,"telu":8635,"laid":8636,"ittäm":8637,"ista ei ":8638,"saapuu ":8639,"ttu, ":8640,"itukset ":8641,"eläim":8642,"ensimmäiset ":8643,"Hein":8644,"malli ":8645,"jatkoi.\n":8646,"äänestää ":8647,"muutoksia ":8648,"suhteen.\n":8649,"Pelaa":8650,"havainno":8651,"Etenkin ":8652,"musiikin ":8653,"vietiin ":8654,"ennuste":8655,"Catherine ":8656,"Markkanen ":8657,"THL":8658,"hun":8659,"kään, ":8660,"nis":8661,"iton":8662,"and ":8663,"vä.\n":8664,"lailla ":8665,"imuo":8666,"mme, että ":8667,"tuore ":8668,"tapahtuneesta ":8669,"tekemis":8670,"maksoi ":8671,"julkaistiin ":8672,"edellyty":8673,"vaihtele":8674,"täytty":8675,"aana ":8676,"Kemi":8677,"julkisen ":8678,"EU:":8679,"Niiden ":8680,"yhteistyötä ":8681,"sitoutu":8682,"välittömästi ":8683,"Aur":8684,"Berg":8685,"Volo":8686,"ipe":8687,"nö":8688,"nut":8689,"taks":8690,"kat ":8691,"vihdo":8692,"a, eikä ":8693,"änä.\n":8694,"valinn":8695,"pir":8696,"irro":8697,"ohi.\n":8698,"uhr":8699,"kirist":8700,"kuva\n":8701,"a, jolloin ":8702,"autoa ":8703,"Heinä":8704,"asiaa.\n":8705,"nykyisen ":8706,"nuoriso":8707,"vaaran ":8708,"vaaranta":8709,"Varhan ":8710,"Puolan ":8711,"eduskunn":8712,"mielenosoitta":8713,"Mikkel":8714," km":8715,"viraston ":8716,"suhde ":8717,"potentiaal":8718," hän ":8719,"Ase":8720,"Kyl":8721,"fir":8722,"iselta ":8723,"ana":8724,"rak":8725,"o ei ":8726,"poseer":8727,"valinta ":8728,"kirkko":8729,"vastauks":8730,"itsestään ":8731,"itoista ":8732,"minen oli ":8733,"järjestyks":8734,"asetta":8735,"katko":8736,"isia ja ":8737,"iteett":8738,"itety":8739,"katsoo ":8740,"päivinä ":8741,"suunnittele":8742,"isyyttä ":8743,"itui ":8744,"ikkonen ":8745,"huolta":8746,"selkeästi ":8747,"Oikeus ":8748,"eteenpäin ":8749,"järkytty":8750,"MM-kisoissa ":8751,"tyytyväinen ":8752,"äidin ":8753,"iltapäivällä ":8754,"Red Bull":8755,"Joonas ":8756,"Esit":8757,"Kulu":8758,"Kääri":8759,"Li ":8760,"Nim":8761,"jille.\n":8762,"kalen":8763,"ankku":8764,"kesi ":8765,"ittivät ":8766,"nä, ":8767,"käyttänyt ":8768,"keneet ":8769,"Lahd":8770,"useiden ":8771,"Markus ":8772,"kelta":8773,"osittain ":8774,"edustaa ":8775,"lopussa ":8776,"suunna":8777,"mentaar":8778,"juuri":8779,"ottelussa.\n":8780,"tullaan ":8781,"Virta ":8782,"selviää ":8783,"muutamia ":8784,"kuun lopussa ":8785,"Slovaki":8786,"Loimaan ":8787,"Sebastian ":8788,"Manchester ":8789,"-a":8790,"NB":8791,"amo":8792,"jiä ":8793,"qvis":8794,"sissa ":8795,"siksi, että ":8796,"uusien ":8797,"arv":8798,"mutka":8799,"laitta":8800,"käsi ":8801,"tyl":8802,"roman":8803,"mistaan ":8804,"leh":8805,"kerta ":8806,"pääs":8807,"eteni ":8808,"myötä.\n":8809,"orin ":8810,"tilaa":8811,"isija":8812,"isi, että ":8813,"ustaan ":8814,"tapausta ":8815,"keng":8816,"kinä":8817,"a, jotta ":8818,"alueelle.\n":8819,"issa, mutta ":8820,"vaate":8821,"sopii ":8822,"mies on ":8823,"toisensa ":8824,"käsittele":8825,"vahvistu":8826,"puhelin":8827,"yrittäjä ":8828,"impia ":8829,"analyy":8830,"(kesk":8831,"Odo":8832,"amassa ":8833,"skan":8834,"alha":8835,"uutu":8836,"viivä":8837,"viiva":8838,"tiin.\n":8839,"väitti ":8840,"jättänyt ":8841,"mian ":8842,"aita":8843,"kautu":8844,"kuusta ":8845,"tuollo":8846,"kunnossa ":8847,"Sata":8848,"Roman":8849,"Trump on ":8850,"Väli":8851,"asioiden ":8852,"kuljettajan ":8853,"SM-liig":8854,"Kaarinan ":8855,"sanonut ":8856,"Lonto":8857,"sosiaalisessa mediassa.\n":8858,"Ari ":8859,"akka":8860,"war":8861,"isemmin ":8862,"taul":8863,"taho":8864,"inen, että ":8865,"sikko ":8866,"kiva ":8867,"nnä":8868,"estä on ":8869,"yöllä ":8870,"on, mutta ":8871,"kauhe":8872,"isen ja ":8873,"ään, mutta ":8874,"annettu ":8875,"työllisyy":8876,"kunnon ":8877,"elevat ":8878,"alaista ":8879,"ilijat ":8880,". \"":8881,"kilpailu ":8882,"hyvän":8883,"rikost":8884,"lentä":8885,"tulleet ":8886,"vuodessa ":8887,"runsa":8888,"puolivälierä":8889,"myöntää ":8890,"Sara ":8891,"pakotte":8892,"tarvikke":8893,"Madrid":8894,"Patrik ":8895,"Neuvost":8896,"persoon":8897,"Mikä ":8898,"Olis":8899,"ako ":8900,"bio":8901,"nte":8902,"t: ":8903,"ze":8904,", ei ":8905,"kesti ":8906,"että, ":8907,"muille ":8908,"seudun ":8909,"esti.\n":8910,"Kouvol":8911,"puolelle.\n":8912,"tiedot ":8913,"hyökä":8914,"ylimäärä":8915,"vaihtaa ":8916,"ensi vuonna ":8917,"pyöri":8918,"ampui ":8919,"ksi, mutta ":8920,"jalan":8921,"sijaitseva ":8922,"Muuto":8923,"Tilasto":8924,"rangaistus":8925,"yt, että ":8926,"putke":8927,"täydell":8928,"järkyttä":8929,"sopeutu":8930,"Sunnuntaina ":8931,"Michael ":8932,"meteorologi ":8933,"FC ":8934,"Pih":8935,"T-":8936,"umero":8937,"taipu":8938,"in-":8939,", kertoo ":8940,"tukee ":8941,"las ":8942,"loun":8943,"edeltä":8944,"ista, mutta ":8945,"palkki":8946,"ennus":8947,"tarkasta":8948,"Suomess":8949,"suoran":8950,"veron":8951,"yhteinen ":8952,"ilijä ":8953,"ksiä.\n":8954,"Martin ":8955,"vaikuttanut ":8956,"sittemmin ":8957,"tiedottaa ":8958,"ico":8959,"tehdä.\n":8960,"ilmaston":8961,"harjoittel":8962,"Lauantaina ":8963,"levittä":8964,"kapteeni ":8965,"virasto ":8966,"Taylo":8967," K":8968," ihmistä.\n":8969,"Bra":8970,"ekin ":8971,"v-":8972,"tahd":8973,"massa, ":8974,"alen":8975,"keika":8976,"sadan ":8977,"seikka":8978,"leve":8979,"kyvy":8980,"poissa ":8981,"poissa":8982,"muuttuu ":8983,"muuttunut ":8984,"merkin ":8985,"es.\n":8986,"annen ":8987,"jo ennen ":8988,"luotto":8989,"tulehd":8990,"juttu ":8991,"suomalaisia ":8992,"veny":8993,"Nyt on ":8994,"selvää, että ":8995,"Hämälä":8996,"hirvi":8997,"kavere":8998,"valmistel":8999,"vuosi sitten ":9000,"ympäri":9001,"samoin ":9002,"kaipa":9003,"analyso":9004,"osana ":9005,"Mestarien ":9006," W":9007,"Ee":9008,"Gra":9009,"Ryd":9010,"kkun":9011,"tri":9012,"on määrä ":9013,"siinä":9014,"olo ":9015,"tille ":9016,"puiston ":9017,"neelle ":9018,"un ja ":9019,"prote":9020,"miltä ":9021,"isiin ja ":9022,"isenä.\n":9023,"arvioidaan ":9024,"vaara":9025,"Läh":9026,"misesta ja ":9027,"puoliso":9028,"venäläisten ":9029,"annetaan ":9030,"John":9031,"kerännyt ":9032,"merkityks":9033,"vähentää ":9034,"ulkomaalais":9035,"i-iltana.\n":9036,"Petri ":9037,"tytär ":9038,"gressiiv":9039,"Finnai":9040,"Ottelun ":9041,"taid":9042,"kein":9043,"sa, että ":9044,"pass":9045,"kerää":9046,"reilun ":9047,"oli myös ":9048,"tilainen ":9049,"ustyö":9050,"asioita.\n":9051,"johtaja, ":9052,"ei ole mitään ":9053,"ilijan ":9054,"juoma":9055,"pientä ":9056,"käyttö ":9057,"ettyjä ":9058,"Jame":9059,"purka":9060,"hyvinkin ":9061,"kahteen ":9062,"veteraan":9063,"pudotuspele":9064,"pelastuslaitoksen ":9065,"kuolin":9066,"pörss":9067,"hieno ":9068,"Pelastuslaitos ":9069,"Tänä vuonna ":9070," miljardia ":9071,"lukuun otta":9072,"Don":9073,"Mol":9074,"Sw":9075,"ippa":9076,"iski":9077,"nee ":9078,"päih":9079,"minkään":9080,"asioita":9081,"ellä ja ":9082,"tala ":9083,"alla ja ":9084,"ihmisiä.\n":9085,"Olisi ":9086,"ylipää":9087,"kaudesta ":9088,"vapautta":9089,"kerrotaan.\n":9090,"näkyi ":9091,"etty.\n":9092,"paljastui ":9093,"holm ":9094,"Kirja":9095,"onnettomuuden ":9096,"lupaa ":9097,"Iltalehdelle, että ":9098,"seuraavaksi ":9099,"Helsinki-":9100,"Benja":9101,"Colorad":9102,"Photo":9103,"Ali":9104,"Tha":9105,"desta ":9106,"rän":9107,"yden ":9108,"kuiva":9109,"kello":9110,"viile":9111,"muissa ":9112,"edessä.\n":9113,"valmiste":9114,"tarttu":9115,"isi, ":9116,"turnau":9117,"joukko ":9118,"Toki":9119,"järjestettä":9120,"jatkuu":9121,"halua":9122,"kkeen ":9123,"laaje":9124,"kokee ":9125,"käyttöön.\n":9126,"asianaja":9127,"mpana ":9128,"Ilta-Sanomat ":9129,"He ovat ":9130,"vaimo ":9131,"osuus ":9132,"Pitää ":9133,"suurimman ":9134,"vihreiden ":9135,"tytär":9136,"rekisterö":9137,"varrella ":9138,"konkreett":9139,"Chi":9140,"Yh":9141,"cel":9142,"kaista":9143,"al-":9144,"savu":9145,"tta\n":9146,"neet, ":9147,"a, mitä ":9148,"yhtenä ":9149,"issä\n":9150,"iseen.\n":9151,"luonno":9152,"mitään, ":9153,"Ukrainaan ":9154,"Rav":9155,"täyttä":9156,"perheen":9157,"kansall":9158,"vuodessa.\n":9159,"suoritta":9160,"Petteri Orpo ":9161,"karsinta":9162,"hämmäst":9163,"kalenter":9164,"77":9165,"Eikä ":9166,"Net":9167,"bri":9168,"nanta":9169,"spor":9170,"vaksi ":9171,"kehy":9172,"tessaan ":9173,"arki":9174,"rakka":9175,"seinä":9176,"vern":9177,"anne on ":9178,"monen":9179,"helikopter":9180,"mahdollinen ":9181,"läheisyyd":9182,"todellinen ":9183,"Lehden ":9184,"pienemm":9185,"edellis":9186,"viimeistään ":9187,"Netan":9188,"Lounais":9189,"perheensä ":9190,"Syyri":9191,"tallin ":9192,"liikkeen ":9193,"keskustassa ":9194,"Yrittä":9195,"Tampereella ":9196,"Valko-":9197,"useamman ":9198,"-nim":9199,"Gol":9200,"Kuk":9201,"Ronal":9202,"che":9203,"fy":9204,"hön ":9205,"saavutu":9206,"syty":9207,"olevia ":9208,"alijää":9209,"hankala":9210,"vaikutus ":9211,"tutkinnan ":9212,"tietojen ":9213,"Kyse on ":9214,"arvioid":9215,"ikkona ":9216,"Minist":9217,"Minun ":9218,"minuuttia ":9219,"Henri ":9220,"myr ":9221,"parlamentaar":9222,"Nato-jäsenyy":9223,"Pitt":9224,"Ry":9225,"blo":9226,"della ":9227,"go ":9228,"tensä ":9229,"stään.\n":9230,"itusta.\n":9231,"keih":9232,"kiisti ":9233,"rahan ":9234,"rooli ":9235,"ittaja ":9236,"pelotta":9237,"hoide":9238,"se voi ":9239,"van.\n":9240,"annin ":9241,"yrittänyt ":9242,"kunnolla ":9243,"Helena ":9244,"sana":9245,"tieto ":9246,"toteu":9247,"Arto ":9248,"täyttää ":9249,"/ Z":9250,"vakavasti ":9251,"musiik":9252,"gatiiv":9253,"Räikkö":9254,"takana.\n":9255,"viestipalvelu X:ssä.\n":9256,"Suomi-":9257,"tauon ":9258,"Ajattel":9259,"Volody":9260,"Netanja":9261,"F-":9262,"Gro":9263,"Kro":9264,"upo":9265,"toisin ":9266,"rab":9267,"ellista ":9268,"nnin ":9269,"miaan ":9270,"leikki":9271,"ka on ":9272,"valinta":9273,"yyn":9274,"kautensa ":9275,"anomista":9276,"aattor":9277,"iassa.\n":9278,"ambul":9279,"kaikkein ":9280,"Tommi ":9281,"virta":9282,"liittolais":9283,"stoim":9284,"hetk":9285,"Seinä":9286,"lintu":9287,"viimeiset ":9288,"terveyd":9289,"matkaa ":9290,"millaan ":9291,"kahdessa ":9292,"vaikeaa ":9293,"voittoa ":9294,"minuutin ":9295,"hoitoon ":9296,"Anna-":9297,"hevos":9298,"muodosta":9299,"fane":9300,"ilmi, että ":9301,"Nykyään ":9302,"lataus":9303,"Facebook-":9304,"Pietar":9305,"Kuten ":9306,"69":9307,"Aar":9308,"Bas":9309,"Ren":9310,"pih":9311,"taud":9312,"intaan ":9313,"insa.\n":9314,"imo ":9315,"tänne ":9316,"oli ollut ":9317,"kyv":9318,"etri":9319,"pitkään.\n":9320,"y ja ":9321,"menettä":9322,"työll":9323,"vahve":9324,"haluan ":9325,"nyttä ":9326,"hyvässä ":9327,"kuulunut ":9328,"Kyll":9329,"Turku":9330,"kasvatta":9331,"Syyrian ":9332,"palata ":9333,"tietää, ":9334,"yksikön ":9335,"neliö":9336,"Liikenne":9337,"Window":9338,"sitä mieltä, että ":9339,"Bla":9340,"Huss":9341,"Oma":9342,"Pun":9343,"mess":9344,"anneet ":9345,"kevä":9346,"sa\n":9347,"ellin ":9348,"idensa ":9349,"kansala":9350,"äntö":9351,"ia vastaan ":9352,"hyppä":9353,"manag":9354,"Lahden ":9355,"ter ":9356,"jatke":9357,"herku":9358,"kotima":9359,"Liettu":9360,"Sopi":9361,"miljoonan ":9362,"ystävi":9363,"täntö":9364,"suoritus":9365,"Edmon":9366,"jalkapallon ":9367,"mestaruus":9368,"elinkeino":9369,"vakuutus":9370,"Seuraava":9371,"presidenttiehdokas ":9372,"suomen":9373,"velvoll":9374,"eilen ":9375,"Perussuomalaisten ":9376," €":9377,"Bi":9378,"Otta":9379,"Pikku":9380,"Wall":9381,"jur":9382,"tisi ":9383,"äis":9384,"kuolleen ":9385,"toni":9386,"s ei ":9387,"arke":9388,"raka":9389,"rake":9390,"laje":9391,"imme":9392,"vat ja ":9393,"hamma":9394,"a, vaan ":9395,"mpiä ":9396,"kaukalo":9397,"johtanut ":9398,"välttä":9399,"Savol":9400,"tapahtuma ":9401,"tiedotteen mukaan ":9402,"kaatoi ":9403,"nimi ":9404,"palvelut ":9405,"viesti ":9406,"tutkimu":9407,"kerrottu ":9408,"vuotta sitten.\n":9409,"nuoren ":9410,"vaara ":9411,"puoliso ":9412,"kaksois":9413,"vanhemmat ":9414,"sydä":9415,"itsenäisyys":9416,"Kremlin ":9417,"Tiistaina ":9418,"Leijonat ":9419,"-ikä":9420,"Areen":9421,"Blu":9422,"huhu":9423,"yistä ":9424,"is-":9425,"tavan ":9426,"stil":9427,"koti ":9428,"kovassa ":9429,"anjohtaja ":9430,"si, ":9431,"kemi":9432,"kiusa":9433,"sasi":9434,"heti":9435,"lemp":9436,"poiki":9437,"sotaa ":9438,"päättänyt ":9439,"auki ":9440,"piä ":9441,"tarha":9442,"menossa ":9443,"jältä ":9444,"kolan ":9445,"Laineen ":9446,"ttoma":9447,"issakin ":9448,"tietoa.\n":9449,"voimassa ":9450,"Heid":9451,", jotka eivät ":9452,"menevät ":9453,"htori ":9454,"Venäjää ":9455,"löytänyt ":9456,"Saksassa ":9457,"suomalaisista ":9458,"ttavaksi ":9459,"rastruk":9460,"saavutta":9461,"tuomari ":9462,"yllätys":9463,"Vladimir Putin ":9464,"Hannu ":9465,"siviili":9466,"yhtenä":9467,"Volodymyr ":9468,"Lis":9469,"Meri":9470,"Pa ":9471,"R-":9472,"Toni ":9473,"aid":9474,"cha":9475,"e\n":9476,"mää":9477,"no ":9478,"rn":9479,"ula":9480,"n ja ":9481,"ksista ":9482,"ja tai ":9483,"joita":9484,"sad":9485,"pagand":9486,"misesta, ":9487,"oliko ":9488,"suos":9489,"iaa ":9490,"Joka":9491,"a, joissa ":9492,"joukkuetta ":9493,"misen ja ":9494,"juoksi ":9495,"sääti":9496,"Luc":9497,"etu ":9498,"välikohta":9499,"ongelma ":9500,"ongelmat ":9501,"Virtanen ":9502,"IS:lle ":9503,"skylä":9504,"Riih":9505,"finaalin ":9506,"lääkärin ":9507,"suurin osa ":9508,"kuski ":9509,"työskentelee ":9510,"löydettiin ":9511,"kysymys ":9512,"Syyttäjän mukaan ":9513,"mahdollista, että ":9514,"organisaatio":9515,". joulukuuta ":9516,"arvonlisä":9517," eur":9518,"Pla":9519,"Sha":9520,"Ylä":9521,"aksi.\n":9522,"ball":9523,"ppal":9524,"vää.\n":9525,"tuska":9526,"ääne":9527,"viettä":9528,"ravi":9529,"väri":9530,"laill":9531,"ittää.\n":9532,"kerrall":9533,"mpi, ":9534,", jolla on ":9535,"alas ":9536,"tapahtumat ":9537,"takaisin.\n":9538,"haastattel":9539,"kahdesti ":9540,"selvityksen ":9541,"menety":9542,"tavallista ":9543,"kommentoinut ":9544,"piirte":9545,"kahvi":9546,"läpi.\n":9547,"mielipite":9548,"englann":9549,"presidentinvaalien ":9550,"räjähd":9551,"tuomion ":9552,"-vuotiaana.\n":9553,"yhdysvaltalais":9554,"litra":9555,"etukäteen ":9556,"kiusaa":9557,"ikymmen":9558,"qvist ":9559," henkilö":9560,"Last":9561,"Oiler":9562,"län ":9563,"ali ":9564,"mmin.\n":9565,"heitti ":9566,"tyrmä":9567,"pääministerin ":9568,"kkar":9569,"tapaamis":9570,"ysten ":9571,"todiste":9572,"maailmassa ":9573,"toteaa, että ":9574,"rasili":9575,"tärkeä":9576,"nykyistä ":9577,"tellut ":9578,"itua ":9579,"pyrkin":9580,"vuosittain ":9581,"mahdollisuuksia ":9582,"Juhani ":9583,"tulevaisuudessa ":9584,"muistelee.\n":9585,"ranniko":9586,"Vilppa":9587,"hakemuks":9588,"pariskunnan ":9589,"Floridan ":9590,"presidenttiehdokka":9591,"USA:n ":9592,"päivien ":9593,"120":9594,"Aina ":9595,"Con":9596,"Eli":9597,"San ":9598,"huom":9599,"ner ":9600,"pisto":9601,"tsi":9602,"sillä, että ":9603,"täh":9604,"on-":9605,"jäll":9606,"jäsen ":9607,"et on ":9608,"usko ":9609,"reun":9610,"valita ":9611,"essään.\n":9612,"maah":9613,"maast":9614,"sen verran ":9615,"Joka ":9616,"pande":9617,"uudessaan ":9618,"laaju":9619,"Häntä ":9620,"ehdokas ":9621,"kahdella ":9622,"ampuma-":9623,"Ranger":9624,"mahdollisuutta ":9625,"daar":9626,"annes ":9627,"käänn":9628,"infrastruk":9629,"muuttui ":9630,"tutkinta":9631,"lausunn":9632,"Kalevan ":9633,"julkisuuteen ":9634,"johto ":9635,"Hamil":9636,"Käytännössä ":9637,"Keh":9638,"Sand":9639,"Tär":9640,"linnan ":9641,"nä on ":9642,"tse":9643,"olta.\n":9644,"sta, mutta ":9645,"satoja ":9646,"vät, ":9647,"lasta.\n":9648,"illään.\n":9649,"käte":9650,"ollessa ":9651,"edellä ":9652,"luvan ":9653,"ehtä":9654,"vastaaj":9655,"täminen ":9656,"Tavoitt":9657,"yhdistel":9658,"panssar":9659,"jääkiekon ":9660,"yn ja ":9661,"todettiin ":9662,"Helsinki ":9663,"elokuva ":9664,"matkailu":9665,"riski ":9666,"STT:lle.\n":9667," O":9668,"Eriko":9669,"Mas":9670,"aih":9671,"chi":9672,"dio":9673,"kari":9674,"kasi ":9675,"kovia ":9676,"kesto":9677,"puss":9678,"liin":9679,"ley ":9680,"päin, ":9681,"saamaan ":9682,"häneltä ":9683,"tuotann":9684,"selittää ":9685,"ytyi ":9686,"minen ei ":9687,"joukkueensa ":9688,"pane":9689,"valtavan ":9690,"talven ":9691,"Naval":9692,"polku":9693,"pieniä ":9694,"suurlähett":9695,"liittyi ":9696,"Poliisi on ":9697,"Ukrainaa ":9698,"väärin":9699,"iläinen ":9700,"Pariisissa ":9701,"kaikilla ":9702,"olaito":9703,"Ilveksen ":9704,"osannut ":9705,"näkökulmasta ":9706,"Kaksikko ":9707,"Häkkänen ":9708,"Suzanne ":9709,"Luk":9710,"Tol":9711,"isän ":9712,"itusta":9713,"muistaa ":9714,"sataa ":9715,"itty ":9716,"heitto":9717,"usar":9718,"kaan ei ":9719,"potila":9720,"meren":9721,"kuntia ":9722,"turvaa":9723,"ajatus":9724,"ikkaa ":9725,"häne":9726,"useat ":9727,"panen ":9728,"sijalla ":9729,"sopimus":9730,"kehityks":9731,"Arvo":9732,"kuuluva ":9733,"Korja":9734,"lehdelle.\n":9735,"Puhe":9736,"viidenne":9737,"ölj":9738,"yhteyden":9739,"lämpötila ":9740,"Englan":9741,"Mielest":9742,"Tasavallan ":9743,"vihdoin ":9744,"250":9745,"avar":9746,"tit":9747,"tamme ":9748,"ins":9749,"kattu ":9750,"tover":9751,"ari":9752,"rou":9753,"lemm":9754,"ley C":9755,"reit":9756,"uth":9757,"metall":9758,"olevaa ":9759,"här":9760,"tapahtuneen ":9761,"puolelle ":9762,"helsin":9763,"kki.\n":9764,"Lepp":9765,"arvion mukaan ":9766,"yllätty":9767,"murska":9768,"mestarin ":9769,"Turkin ":9770,"osallistunut ":9771,"maalia.\n":9772,"kuoleman ":9773,"kaksikon ":9774,"pysäyttä":9775,"poliisille ":9776,"Anne ":9777,"valiokunta ":9778,"leikkauks":9779,"Onneksi ":9780,"naurahtaa.\n":9781,"kanavan ":9782,"Vladimir Putinin ":9783,"jonkin verran ":9784,"tyttärensä ":9785,"erinoma":9786,"Veikkaus":9787,"Ampu":9788,"fli":9789,"kista ":9790,"luks":9791,"misten ":9792,"n, että ":9793,"ting":9794,"vuutta ":9795,"maissa ":9796,"ana.\n":9797,"on tarkoitus ":9798,"alt":9799,"sill":9800,"oltava ":9801,"viih":9802,"sama":9803,"olla, että ":9804,"tapaus ":9805,"ien ja ":9806,"vastaan":9807,"vastannut ":9808,"ope ":9809,"opti":9810,"isee ":9811,"osast":9812,"propagand":9813,"yhdessä.\n":9814,"seuraaja":9815,"hankin":9816,"rikoll":9817,"misti ":9818,"Ruotsalais":9819,"mpaa.\n":9820,"venno":9821,"ilta ja ":9822,"selvisi ":9823,"180":9824,"maailmanmestari ":9825,"nähty":9826,"junio":9827,"työntekijä":9828,"huomioon ":9829,"Maailman ":9830,"johtuu ":9831,"Toivottavasti ":9832,"kamppailu":9833,"Juuri ":9834,"(sd) ":9835,"kerrostalo":9836,"Näyttelijä ":9837,"Jyväskylän ":9838,"Samaan aikaan ":9839,"74":9840,"99":9841,"Bil":9842,"Erä":9843,"Sillä ":9844,"Tyn":9845,"kkan":9846,"ksella ":9847,"isten":9848,"kipe":9849,"lahd":9850,"sek":9851,"kenties ":9852,"iin\n":9853,"laski ":9854,"kysyn":9855,"Salo ":9856,"Hänellä on ":9857,"ilaisen ":9858,"uun ja ":9859,"Ukrainan sodan ":9860,"yhteiskunnan ":9861,"ryt":9862,"tavaro":9863,"apua.\n":9864,"poikkeus":9865,"kahden vuoden ":9866,"ravintolo":9867,"joukot ":9868,"aikuis":9869,"ennätys":9870," minuuttia ":9871,"Ruoka":9872,"Libanonin ":9873,"tarvittaessa ":9874,"syttyi ":9875,"Juuso ":9876,"kyseenalais":9877,"Aftonblad":9878,"53":9879,"hjel":9880,"ottivat ":9881,"vimm":9882,"elleet ":9883,"kälä":9884,"rie":9885,"essa, jossa ":9886,"perun":9887,"homm":9888,"versio":9889,", joka ei ":9890,"kärä":9891,"silta ":9892,", ettei hän ":9893,"Alan":9894,"osoitte":9895,"syntymä":9896,"ymmärtää ":9897,"muistuttaa.\n":9898,"Silvenno":9899,"näyttävät ":9900,"työskenteli ":9901,"vitsa":9902,"olympialaisissa ":9903,"Reuters\n":9904,"Jääkiekko":9905,"johdon ":9906,"Alue":9907," sekunn":9908,"konferen":9909,"Benjamin ":9910,"-sarjan ":9911,"NR":9912,"Vero":9913,"bor":9914,"krist":9915,"pann":9916,"ttyy ":9917,"inko ":9918,"kiin":9919,"tittel":9920,"valin":9921,"päällä.\n":9922,"länn":9923,"näissä ":9924,"si ja ":9925,"peen":9926,"tapauksesta ":9927,"johtaja":9928,"Max ":9929,"Totta kai ":9930,"vaad":9931,"aikana, ":9932,"jat ja ":9933,"keskiarvo":9934,"ena oli ":9935,"miehelle ":9936,"ah ":9937,"presidentti Joe ":9938,"eduskunnassa ":9939,"saaren ":9940,"taustalla on ":9941,"Aivan ":9942,"keskustelu ":9943,"Amerika":9944,"törmäsi ":9945,"Bottas ":9946,"Hizbollahin ":9947,"Pohjois-Korean ":9948,"Koskela ":9949,"nöyr":9950,"Vau":9951,"draa":9952,"hu ":9953,"sken":9954,"kalla ":9955,"kasta.\n":9956,"kukka":9957,"teko ":9958,"myötä":9959,"ustuo":9960,"ssä ja ":9961,"est ":9962,"tuomar":9963,"kunsa ":9964,"keni ":9965,"osasto":9966,"Ilkka ":9967,"hiil":9968,"ton.\n":9969,"Kymmen":9970,"Kiito":9971,"ympärillä ":9972,"rajoitta":9973,"virallisesti ":9974," miljoonaa euroa ":9975,"kysymys":9976,"polttoaine":9977,"lerc":9978,"päätteeksi ":9979,"KT":9980,"Mä ":9981,"gen ":9982,"iko ":9983,"ussa.\n":9984,"xin ":9985,"yw":9986,"kala ":9987,"en-":9988,"anta ":9989,"jotenkin ":9990,"puna":9991,"negatiiv":9992,"kuukaus":9993,"minkä":9994,"vars":9995,"Samo":9996,"ppuu ":9997,"asetel":9998,"Se ei ":9999}