{
  "version": "1.0",
  "truncation": null,
  "padding": null,
  "added_tokens": [],
  "normalizer": null,
  "pre_tokenizer": {
    "type": "Sequence",
    "pretokenizers": [
      {
        "type": "Split",
        "pattern": {
          "Regex": "[^\\r\\n\\p{L}\\p{N}]?[\\p{Lu}\\p{Lt}\\p{Lm}\\p{Lo}\\p{M}]*[\\p{Ll}\\p{Lm}\\p{Lo}\\p{M}]+|[^\\r\\n\\p{L}\\p{N}]?[\\p{Lu}\\p{Lt}\\p{Lm}\\p{Lo}\\p{M}]+[\\p{Ll}\\p{Lm}\\p{Lo}\\p{M}]*|\\p{N}{1,3}| ?[^\\s\\p{L}\\p{N}]+[\\r\\n/]*|\\s*[\\r\\n]+|\\s+(?!\\S)|\\s+"
        },
        "behavior": "Isolated",
        "invert": false
      }
    ]
  },
  "post_processor": null,
  "decoder": null,
  "model": {
    "type": "BPE",
    "dropout": null,
    "unk_token": null,
    "continuing_subword_prefix": null,
    "end_of_word_suffix": null,
    "fuse_unk": false,
    "byte_fallback": false,
    "ignore_merges": false,
    "vocab": {
      "\n": 0,
      " ": 1,
      "!": 2,
      "\"": 3,
      "#": 4,
      "$": 5,
      "%": 6,
      "&": 7,
      "'": 8,
      "(": 9,
      ")": 10,
      "*": 11,
      "+": 12,
      ",": 13,
      "-": 14,
      ".": 15,
      "/": 16,
      "0": 17,
      "1": 18,
      "2": 19,
      "3": 20,
      "4": 21,
      "5": 22,
      "6": 23,
      "7": 24,
      "8": 25,
      "9": 26,
      ":": 27,
      ";": 28,
      "<": 29,
      "=": 30,
      ">": 31,
      "?": 32,
      "@": 33,
      "A": 34,
      "B": 35,
      "C": 36,
      "D": 37,
      "E": 38,
      "F": 39,
      "G": 40,
      "H": 41,
      "I": 42,
      "J": 43,
      "K": 44,
      "L": 45,
      "M": 46,
      "N": 47,
      "O": 48,
      "P": 49,
      "Q": 50,
      "R": 51,
      "S": 52,
      "T": 53,
      "U": 54,
      "V": 55,
      "W": 56,
      "X": 57,
      "Y": 58,
      "Z": 59,
      "[": 60,
      "\\": 61,
      "]": 62,
      "^": 63,
      "_": 64,
      "`": 65,
      "a": 66,
      "b": 67,
      "c": 68,
      "d": 69,
      "e": 70,
      "f": 71,
      "g": 72,
      "h": 73,
      "i": 74,
      "j": 75,
      "k": 76,
      "l": 77,
      "m": 78,
      "n": 79,
      "o": 80,
      "p": 81,
      "q": 82,
      "r": 83,
      "s": 84,
      "t": 85,
      "u": 86,
      "v": 87,
      "w": 88,
      "x": 89,
      "y": 90,
      "z": 91,
      "{": 92,
      "}": 93,
      "": 94,
      "¡": 95,
      "£": 96,
      "¤": 97,
      "§": 98,
      "¨": 99,
      "©": 100,
      "­": 101,
      "®": 102,
      "°": 103,
      "±": 104,
      "²": 105,
      "³": 106,
      "µ": 107,
      "·": 108,
      "¸": 109,
      "¹": 110,
      "º": 111,
      "¼": 112,
      "½": 113,
      "¿": 114,
      "À": 115,
      "Á": 116,
      "Ä": 117,
      "Å": 118,
      "Ç": 119,
      "È": 120,
      "É": 121,
      "Í": 122,
      "Î": 123,
      "Ð": 124,
      "Ò": 125,
      "Ó": 126,
      "Ô": 127,
      "Ö": 128,
      "×": 129,
      "Ø": 130,
      "Ú": 131,
      "Ü": 132,
      "ß": 133,
      "à": 134,
      "á": 135,
      "â": 136,
      "ã": 137,
      "ä": 138,
      "å": 139,
      "ç": 140,
      "è": 141,
      "é": 142,
      "ê": 143,
      "ë": 144,
      "ì": 145,
      "í": 146,
      "î": 147,
      "ï": 148,
      "ð": 149,
      "ñ": 150,
      "ò": 151,
      "ó": 152,
      "ô": 153,
      "õ": 154,
      "ö": 155,
      "ø": 156,
      "ù": 157,
      "ú": 158,
      "û": 159,
      "ü": 160,
      "ý": 161,
      "ā": 162,
      "ă": 163,
      "ą": 164,
      "Ć": 165,
      "ć": 166,
      "ĉ": 167,
      "Č": 168,
      "č": 169,
      "Ď": 170,
      "Đ": 171,
      "đ": 172,
      "ē": 173,
      "ė": 174,
      "ę": 175,
      "ě": 176,
      "ğ": 177,
      "İ": 178,
      "ı": 179,
      "ľ": 180,
      "Ł": 181,
      "ł": 182,
      "ń": 183,
      "ň": 184,
      "ō": 185,
      "ő": 186,
      "ř": 187,
      "Ś": 188,
      "ś": 189,
      "Ş": 190,
      "ş": 191,
      "Š": 192,
      "š": 193,
      "ţ": 194,
      "ū": 195,
      "ů": 196,
      "ź": 197,
      "ż": 198,
      "Ž": 199,
      "ž": 200,
      "Ƙ": 201,
      "ȃ": 202,
      "ȉ": 203,
      "ȑ": 204,
      "ȗ": 205,
      "ș": 206,
      "ț": 207,
      "ə": 208,
      "˚": 209,
      "˝": 210,
      "́": 211,
      "̌": 212,
      "̣": 213,
      "Ω": 214,
      "έ": 215,
      "ή": 216,
      "α": 217,
      "δ": 218,
      "μ": 219,
      "ο": 220,
      "π": 221,
      "ρ": 222,
      "ς": 223,
      "τ": 224,
      "υ": 225,
      "χ": 226,
      "ω": 227,
      "ό": 228,
      "К": 229,
      "а": 230,
      "е": 231,
      "л": 232,
      "н": 233,
      "о": 234,
      "ь": 235,
      "і": 236,
      "ј": 237,
      "Ґ": 238,
      "ӣ": 239,
      "ӧ": 240,
      "ི": 241,
      "ྀ": 242,
      "ᵉ": 243,
      "ᵒ": 244,
      "ᵛ": 245,
      "ᵤ": 246,
      "ᵧ": 247,
      "ᶫ": 248,
      "ṓ": 249,
      "ṣ": 250,
      "ọ": 251,
      "ố": 252,
      "ἀ": 253,
      "‍": 254,
      "‎": 255,
      "‐": 256,
      "‑": 257,
      "‒": 258,
      "―": 259,
      "‖": 260,
      "‟": 261,
      "•": 262,
      "‰": 263,
      "′": 264,
      "″": 265,
      "‼": 266,
      "⁄": 267,
      "⁠": 268,
      "⁰": 269,
      "₂": 270,
      "ₒ": 271,
      "€": 272,
      "™": 273,
      "↑": 274,
      "⇒": 275,
      "−": 276,
      "∶": 277,
      "⏱": 278,
      "■": 279,
      "▪": 280,
      "▶": 281,
      "►": 282,
      "○": 283,
      "●": 284,
      "☀": 285,
      "☃": 286,
      "☑": 287,
      "☘": 288,
      "☺": 289,
      "♀": 290,
      "♡": 291,
      "♥": 292,
      "♦": 293,
      "♬": 294,
      "⚠": 295,
      "⚤": 296,
      "⚫": 297,
      "⚽": 298,
      "✓": 299,
      "✔": 300,
      "✠": 301,
      "✨": 302,
      "❄": 303,
      "❤": 304,
      "シ": 305,
      "传": 306,
      "多": 307,
      "陈": 308,
      "": 309,
      "": 310,
      "ﬁ": 311,
      "️": 312,
      "🇦": 313,
      "🇧": 314,
      "🇫": 315,
      "🇬": 316,
      "🇭": 317,
      "🇮": 318,
      "🇱": 319,
      "🇵": 320,
      "🇷": 321,
      "🇸": 322,
      "🇺": 323,
      "🇾": 324,
      "🌋": 325,
      "🌐": 326,
      "🌠": 327,
      "🌧": 328,
      "🌨": 329,
      "🌸": 330,
      "🌺": 331,
      "🌻": 332,
      "🍉": 333,
      "🍊": 334,
      "🎀": 335,
      "🎁": 336,
      "🎗": 337,
      "🏡": 338,
      "🏻": 339,
      "🐄": 340,
      "🐥": 341,
      "🐦": 342,
      "🐱": 343,
      "🐶": 344,
      "👀": 345,
      "👁": 346,
      "👇": 347,
      "👣": 348,
      "👶": 349,
      "💅": 350,
      "💋": 351,
      "💎": 352,
      "💕": 353,
      "💘": 354,
      "💙": 355,
      "💚": 356,
      "💟": 357,
      "💪": 358,
      "💯": 359,
      "📌": 360,
      "📢": 361,
      "📱": 362,
      "📸": 363,
      "🔄": 364,
      "🔥": 365,
      "🔹": 366,
      "🕓": 367,
      "🕷": 368,
      "🕸": 369,
      "🖥": 370,
      "😀": 371,
      "😁": 372,
      "😂": 373,
      "😅": 374,
      "😉": 375,
      "😊": 376,
      "😍": 377,
      "😎": 378,
      "😏": 379,
      "😬": 380,
      "😭": 381,
      "🙂": 382,
      "🙌": 383,
      "🙏": 384,
      "🛁": 385,
      "🟡": 386,
      "🟨": 387,
      "🤍": 388,
      "🤔": 389,
      "🤢": 390,
      "🤦": 391,
      "🤩": 392,
      "🤪": 393,
      "🤯": 394,
      "🥚": 395,
      "🥥": 396,
      "🥰": 397,
      "🥲": 398,
      "🥹": 399,
      "🥺": 400,
      "🦟": 401,
      "🩹": 402,
      "🩺": 403,
      "🪐": 404,
      "🫒": 405,
      "🫠": 406,
      "🫶": 407,
      "je": 408,
      " s": 409,
      " p": 410,
      "na": 411,
      "ra": 412,
      " i": 413,
      "ko": 414,
      "ni": 415,
      "ti": 416,
      " d": 417,
      " o": 418,
      " u": 419,
      "li": 420,
      "no": 421,
      ".\n": 422,
      " je": 423,
      "re": 424,
      "ro": 425,
      "ta": 426,
      "la": 427,
      "va": 428,
      "ri": 429,
      "ja": 430,
      " na": 431,
      "ka": 432,
      "ne": 433,
      " po": 434,
      "te": 435,
      "ma": 436,
      "vi": 437,
      "to": 438,
      " z": 439,
      "vo": 440,
      " b": 441,
      "ca": 442,
      " m": 443,
      "ju": 444,
      "di": 445,
      "ve": 446,
      "ji": 447,
      " za": 448,
      " ko": 449,
      "ci": 450,
      "da": 451,
      "lo": 452,
      "go": 453,
      " se": 454,
      " da": 455,
      " su": 456,
      " a": 457,
      " do": 458,
      "st": 459,
      "ru": 460,
      "mo": 461,
      "le": 462,
      " ne": 463,
      "ki": 464,
      "nje": 465,
      " od": 466,
      " ka": 467,
      "nu": 468,
      "ku": 469,
      " iz": 470,
      " bi": 471,
      "me": 472,
      " t": 473,
      " pro": 474,
      "sta": 475,
      "ga": 476,
      "ke": 477,
      " sa": 478,
      "će": 479,
      "sti": 480,
      "ron": 481,
      "caron": 482,
      " ra": 483,
      " pre": 484,
      "mi": 485,
      " pri": 486,
      "lu": 487,
      "bi": 488,
      "zi": 489,
      "lje": 490,
      "nja": 491,
      "či": 492,
      "de": 493,
      "če": 494,
      " mo": 495,
      "po": 496,
      " š": 497,
      "pa": 498,
      " g": 499,
      " k": 500,
      "tu": 501,
      "cu": 502,
      "ce": 503,
      "ba": 504,
      "bo": 505,
      "si": 506,
      " to": 507,
      " go": 508,
      " S": 509,
      " te": 510,
      " ni": 511,
      " M": 512,
      " re": 513,
      "sko": 514,
      "že": 515,
      " v": 516,
      "za": 517,
      "ča": 518,
      "sa": 519,
      " koji": 520,
      "ski": 521,
      "ći": 522,
      "še": 523,
      "ccaron": 524,
      " B": 525,
      "ži": 526,
      "du": 527,
      "lja": 528,
      "do": 529,
      "sto": 530,
      "pi": 531,
      " P": 532,
      "gu": 533,
      " će": 534,
      " H": 535,
      "gra": 536,
      "jo": 537,
      " D": 538,
      " mi": 539,
      " no": 540,
      "lju": 541,
      "nji": 542,
      " ve": 543,
      "se": 544,
      "&ccaron": 545,
      ";e": 546,
      " vi": 547,
      " e": 548,
      "cute": 549,
      "cacute": 550,
      "nom": 551,
      "\",": 552,
      " pa": 553,
      "ća": 554,
      "rva": 555,
      "rije": 556,
      " što": 557,
      "nog": 558,
      " ta": 559,
      " -": 560,
      " godi": 561,
      "nih": 562,
      "ža": 563,
      " K": 564,
      " f": 565,
      "ša": 566,
      "tra": 567,
      "vje": 568,
      "nim": 569,
      " \"": 570,
      "cije": 571,
      "lji": 572,
      "pu": 573,
      "su": 574,
      " ob": 575,
      " A": 576,
      " ma": 577,
      "ske": 578,
      " R": 579,
      "vr": 580,
      "&cacute": 581,
      " li": 582,
      "Na": 583,
      " h": 584,
      "be": 585,
      "ši": 586,
      "cija": 587,
      "gi": 588,
      "pe": 589,
      "zcaron": 590,
      " V": 591,
      " svo": 592,
      "so": 593,
      " me": 594,
      "ge": 595,
      "nju": 596,
      "rvat": 597,
      "vu": 598,
      " tre": 599,
      " (": 600,
      " ima": 601,
      "dni": 602,
      "20": 603,
      "or": 604,
      ";i": 605,
      " vo": 606,
      "lj": 607,
      " kako": 608,
      "ze": 609,
      "sje": 610,
      "đe": 611,
      " T": 612,
      " di": 613,
      " pu": 614,
      " koje": 615,
      "vije": 616,
      " dru": 617,
      "dje": 618,
      " raz": 619,
      " =": 620,
      " G": 621,
      " =>": 622,
      "Za": 623,
      " naj": 624,
      " sta": 625,
      "kom": 626,
      " L": 627,
      "&zcaron": 628,
      " bo": 629,
      " Ma": 630,
      " ti": 631,
      "mje": 632,
      " I": 633,
      " nije": 634,
      "kon": 635,
      " in": 636,
      " &": 637,
      " va": 638,
      " pred": 639,
      " ja": 640,
      "ska": 641,
      " nje": 642,
      " si": 643,
      " sve": 644,
      "vno": 645,
      "zo": 646,
      "ho": 647,
      " kao": 648,
      "mu": 649,
      " [": 650,
      " ali": 651,
      "tak": 652,
      ";a": 653,
      " O": 654,
      " J": 655,
      "dno": 656,
      "pre": 657,
      " E": 658,
      " pr": 659,
      " N": 660,
      "stu": 661,
      " sam": 662,
      "pra": 663,
      " de": 664,
      " is": 665,
      "ran": 666,
      " če": 667,
      " C": 668,
      "rati": 669,
      " gra": 670,
      "nije": 671,
      " godine": 672,
      " ku": 673,
      " mje": 674,
      " st": 675,
      "vni": 676,
      "zu": 677,
      " pos": 678,
      "zna": 679,
      "rža": 680,
      "Po": 681,
      "ar": 682,
      " smo": 683,
      " zna": 684,
      "bu": 685,
      "tni": 686,
      "vić": 687,
      " pod": 688,
      " biti": 689,
      " pot": 690,
      " pi": 691,
      " koja": 692,
      "đu": 693,
      " jo": 694,
      "skog": 695,
      " dje": 696,
      " Hrvat": 697,
      "tno": 698,
      "govo": 699,
      "nta": 700,
      "ču": 701,
      "dio": 702,
      "liko": 703,
      " F": 704,
      "vlja": 705,
      " nakon": 706,
      " ot": 707,
      "đa": 708,
      "ina": 709,
      " pla": 710,
      " samo": 711,
      " ili": 712,
      " dana": 713,
      " više": 714,
      "00": 715,
      " stra": 716,
      " pra": 717,
      "\"\",": 718,
      " lju": 719,
      " U": 720,
      "sni": 721,
      "sno": 722,
      " kon": 723,
      "rno": 724,
      "\":": 725,
      "kao": 726,
      " us": 727,
      " prije": 728,
      "an": 729,
      "\":\"": 730,
      " gla": 731,
      " mu": 732,
      " bio": 733,
      " nji": 734,
      " tu": 735,
      " uz": 736,
      " tra": 737,
      " eu": 738,
      "šta": 739,
      "ste": 740,
      " jed": 741,
      "dan": 742,
      " igra": 743,
      "ako": 744,
      " svi": 745,
      "čki": 746,
      "ije": 747,
      "rt": 748,
      " ga": 749,
      "vanje": 750,
      "tiv": 751,
      "gre": 752,
      " Za": 753,
      " tako": 754,
      " '": 755,
      " Mi": 756,
      " ovo": 757,
      " pe": 758,
      " ži": 759,
      "bog": 760,
      "skoj": 761,
      " kra": 762,
      "ću": 763,
      "gle": 764,
      "tje": 765,
      " može": 766,
      "vati": 767,
      " jer": 768,
      "al": 769,
      " be": 770,
      " još": 771,
      " du": 772,
      "skom": 773,
      "dst": 774,
      " ru": 775,
      "skih": 776,
      " poli": 777,
      "dra": 778,
      "-a": 779,
      " ba": 780,
      "nici": 781,
      " že": 782,
      "gla": 783,
      "žu": 784,
      " osta": 785,
      "fi": 786,
      "vio": 787,
      "..": 788,
      "nda": 789,
      "nti": 790,
      "bro": 791,
      "sku": 792,
      "telji": 793,
      "bje": 794,
      " rekao": 795,
      "ha": 796,
      " treba": 797,
      "he": 798,
      "mije": 799,
      " mogu": 800,
      "nt": 801,
      "ciju": 802,
      " godina": 803,
      "rni": 804,
      " zbog": 805,
      "vali": 806,
      " posto": 807,
      " spo": 808,
      "godi": 809,
      "fe": 810,
      "šte": 811,
      "27": 812,
      "rok": 813,
      " či": 814,
      " slu": 815,
      "št": 816,
      "Ne": 817,
      "ona": 818,
      "on": 819,
      "202": 820,
      " sva": 821,
      "vanja": 822,
      "stra": 823,
      " Š": 824,
      "?\n": 825,
      " bilo": 826,
      "om": 827,
      "19": 828,
      "vlje": 829,
      "lije": 830,
      "nosti": 831,
      "lni": 832,
      " bu": 833,
      "sjedni": 834,
      "stva": 835,
      " vr": 836,
      " lo": 837,
      " bro": 838,
      " vrije": 839,
      " obja": 840,
      "in": 841,
      "kla": 842,
      "vom": 843,
      "10": 844,
      "rija": 845,
      "kra": 846,
      " oso": 847,
      "čko": 848,
      " os": 849,
      " veli": 850,
      "reme": 851,
      " vje": 852,
      " ro": 853,
      " oko": 854,
      " eura": 855,
      "takmi": 856,
      " obi": 857,
      "red": 858,
      "tom": 859,
      "dstrok": 860,
      "er": 861,
      " cije": 862,
      "&dstrok": 863,
      " dobi": 864,
      " dok": 865,
      "pli": 866,
      " hrvat": 867,
      " vla": 868,
      "jp": 869,
      "čno": 870,
      "jom": 871,
      " utakmi": 872,
      "tro": 873,
      "kri": 874,
      " doda": 875,
      "telj": 876,
      " već": 877,
      ";u": 878,
      " au": 879,
      ".jp": 880,
      ".jpg": 881,
      "uro": 882,
      "vori": 883,
      "joj": 884,
      "što": 885,
      "klju": 886,
      " bila": 887,
      " tri": 888,
      "van": 889,
      " posta": 890,
      "kre": 891,
      "lim": 892,
      "40": 893,
      "rom": 894,
      " radi": 895,
      "il": 896,
      "nika": 897,
      "lno": 898,
      " izbo": 899,
      "pri": 900,
      "nica": 901,
      " c": 902,
      " živo": 903,
      " kada": 904,
      "viti": 905,
      " op": 906,
      " Z": 907,
      "nci": 908,
      " mora": 909,
      " nas": 910,
      " tije": 911,
      "tko": 912,
      "bli": 913,
      "nima": 914,
      " predsjedni": 915,
      "Ka": 916,
      " njego": 917,
      "ter": 918,
      " ju": 919,
      "skim": 920,
      "vara": 921,
      "vima": 922,
      " sto": 923,
      " iza": 924,
      "vih": 925,
      "el": 926,
      "kti": 927,
      " č": 928,
      " ljudi": 929,
      " Po": 930,
      " prema": 931,
      "risti": 932,
      "šti": 933,
      "To": 934,
      "ško": 935,
      "ner": 936,
      " svoje": 937,
      "ali": 938,
      "pro": 939,
      "Do": 940,
      " odlu": 941,
      "voj": 942,
      "sla": 943,
      " drža": 944,
      " neko": 945,
      "jući": 946,
      "hi": 947,
      "nost": 948,
      "12": 949,
      " odno": 950,
      "spo": 951,
      "rani": 952,
      "lazi": 953,
      "ven": 954,
      "\".\n": 955,
      " dva": 956,
      " Euro": 957,
      "stvo": 958,
      " la": 959,
      " ih": 960,
      "vim": 961,
      " protiv": 962,
      " kri": 963,
      " ze": 964,
      "čke": 965,
      "iz": 966,
      " Bo": 967,
      "pisa": 968,
      " ova": 969,
      " auto": 970,
      "ble": 971,
      " njiho": 972,
      " bez": 973,
      " nasta": 974,
      " nam": 975,
      "!\n": 976,
      "cima": 977,
      " jedan": 978,
      "),": 979,
      " poče": 980,
      " drugi": 981,
      "ciji": 982,
      "tar": 983,
      " gdje": 984,
      " rije": 985,
      " nego": 986,
      " sre": 987,
      "met": 988,
      " kre": 989,
      "ruč": 990,
      " Zagre": 991,
      "rao": 992,
      "godiš": 993,
      "No": 994,
      "njem": 995,
      "tka": 996,
      "ndi": 997,
      " klu": 998,
      "nuti": 999,
      " sla": 1000,
      "lom": 1001,
      "pje": 1002,
      " kad": 1003,
      " mili": 1004,
      "sre": 1005,
      " sada": 1006,
      " Pe": 1007,
      "vila": 1008,
      "kup": 1009,
      "jte": 1010,
      "ng": 1011,
      " mla": 1012,
      " ce": 1013,
      " nema": 1014,
      " pomo": 1015,
      "for": 1016,
      "tvr": 1017,
      "vao": 1018,
      " pita": 1019,
      "aj": 1020,
      "dne": 1021,
      "šao": 1022,
      "nd": 1023,
      " dije": 1024,
      " tr": 1025,
      " Re": 1026,
      " pobje": 1027,
      " ki": 1028,
      " toga": 1029,
      " svje": 1030,
      "dna": 1031,
      "pla": 1032,
      " im": 1033,
      " nisu": 1034,
      " sje": 1035,
      " trenu": 1036,
      " pove": 1037,
      "stup": 1038,
      "gleda": 1039,
      "vaju": 1040,
      "bno": 1041,
      "jek": 1042,
      " Pa": 1043,
      " pje": 1044,
      "dom": 1045,
      " broj": 1046,
      "nuo": 1047,
      " vrijeme": 1048,
      " dobro": 1049,
      " prija": 1050,
      "Da": 1051,
      " tvr": 1052,
      " sigu": 1053,
      " Ba": 1054,
      " Ja": 1055,
      " sma": 1056,
      " poka": 1057,
      " upra": 1058,
      " Ko": 1059,
      " ci": 1060,
      " svije": 1061,
      " lije": 1062,
      " Sa": 1063,
      " među": 1064,
      "pada": 1065,
      "tim": 1066,
      "rga": 1067,
      "sli": 1068,
      " ča": 1069,
      "ren": 1070,
      " stu": 1071,
      " ove": 1072,
      " popu": 1073,
      "rima": 1074,
      "Mo": 1075,
      " društ": 1076,
      "lova": 1077,
      " predsta": 1078,
      " proble": 1079,
      "nski": 1080,
      "vog": 1081,
      " Ka": 1082,
      " pozi": 1083,
      "nice": 1084,
      " Mo": 1085,
      "jem": 1086,
      "jim": 1087,
      " fina": 1088,
      "meta": 1089,
      " politi": 1090,
      "30": 1091,
      " on": 1092,
      " še": 1093,
      " novi": 1094,
      " taj": 1095,
      " W": 1096,
      " ako": 1097,
      "it": 1098,
      " sti": 1099,
      " Ra": 1100,
      "star": 1101,
      " sezo": 1102,
      "rio": 1103,
      " obra": 1104,
      "Pro": 1105,
      "log": 1106,
      " zaje": 1107,
      "bra": 1108,
      "...\n": 1109,
      "15": 1110,
      " dio": 1111,
      " kod": 1112,
      "vijek": 1113,
      "tjeca": 1114,
      " oz": 1115,
      " proš": 1116,
      "Mi": 1117,
      "rta": 1118,
      " Da": 1119,
      "onal": 1120,
      "nik": 1121,
      " ide": 1122,
      "tem": 1123,
      " par": 1124,
      "ška": 1125,
      " Be": 1126,
      " zdra": 1127,
      " Va": 1128,
      "zira": 1129,
      " koju": 1130,
      " Du": 1131,
      "diti": 1132,
      "gao": 1133,
      "noj": 1134,
      " mjese": 1135,
      "sam": 1136,
      " Li": 1137,
      " nekoliko": 1138,
      "kto": 1139,
      " upo": 1140,
      " stva": 1141,
      " potre": 1142,
      "niji": 1143,
      " fo": 1144,
      "bije": 1145,
      " proiz": 1146,
      " le": 1147,
      "vija": 1148,
      "lan": 1149,
      " zah": 1150,
      " danas": 1151,
      " so": 1152,
      "nira": 1153,
      " zavr": 1154,
      " Mar": 1155,
      " drugo": 1156,
      "cij": 1157,
      " tje": 1158,
      " poru": 1159,
      " medi": 1160,
      "80": 1161,
      " sati": 1162,
      "voji": 1163,
      " sna": 1164,
      " pose": 1165,
      "čio": 1166,
      "dar": 1167,
      " ško": 1168,
      " najbo": 1169,
      " neki": 1170,
      "čin": 1171,
      "vne": 1172,
      " miliju": 1173,
      "lano": 1174,
      "vala": 1175,
      " zem": 1176,
      "klo": 1177,
      " bili": 1178,
      " uspje": 1179,
      "meri": 1180,
      " oba": 1181,
      " Ru": 1182,
      " poslje": 1183,
      "Pre": 1184,
      " Do": 1185,
      "hu": 1186,
      "pan": 1187,
      "vna": 1188,
      " ste": 1189,
      "stve": 1190,
      " otkri": 1191,
      "tku": 1192,
      " osi": 1193,
      "dnji": 1194,
      "čka": 1195,
      "zul": 1196,
      "kraji": 1197,
      " ho": 1198,
      " prili": 1199,
      "đer": 1200,
      " Ne": 1201,
      "lek": 1202,
      "nosi": 1203,
      " kro": 1204,
      " orga": 1205,
      " izra": 1206,
      "vši": 1207,
      " kaže": 1208,
      " sr": 1209,
      " fa": 1210,
      " kori": 1211,
      "sjeti": 1212,
      " lje": 1213,
      " isto": 1214,
      "rne": 1215,
      "žbe": 1216,
      "vore": 1217,
      "Nakon": 1218,
      " jedno": 1219,
      " tome": 1220,
      " Hrvatske": 1221,
      " proizvo": 1222,
      " odgovo": 1223,
      " prvi": 1224,
      " tijekom": 1225,
      " isti": 1226,
      " nešto": 1227,
      "rak": 1228,
      " vreme": 1229,
      "Bi": 1230,
      "Je": 1231,
      "zao": 1232,
      " doma": 1233,
      "telja": 1234,
      " zapo": 1235,
      " istra": 1236,
      " pozna": 1237,
      "vnog": 1238,
      "tan": 1239,
      "kupi": 1240,
      " nogo": 1241,
      " Jo": 1242,
      " puno": 1243,
      " To": 1244,
      " sigurno": 1245,
      "nija": 1246,
      "201": 1247,
      " Hrvatskoj": 1248,
      " umje": 1249,
      "menta": 1250,
      "Sa": 1251,
      " kom": 1252,
      "Iz": 1253,
      " malo": 1254,
      "volj": 1255,
      "ković": 1256,
      " uvijek": 1257,
      "vili": 1258,
      " žu": 1259,
      "vla": 1260,
      " prva": 1261,
      " dvije": 1262,
      " izme": 1263,
      " Dina": 1264,
      " Gra": 1265,
      "man": 1266,
      " put": 1267,
      "Me": 1268,
      " Me": 1269,
      "op": 1270,
      " vozi": 1271,
      " organi": 1272,
      "50": 1273,
      " slo": 1274,
      " inte": 1275,
      "din": 1276,
      "nistar": 1277,
      "zulta": 1278,
      " pono": 1279,
      " Go": 1280,
      "dru": 1281,
      " nad": 1282,
      " poja": 1283,
      " kojima": 1284,
      " njezi": 1285,
      "ur": 1286,
      "gađa": 1287,
      "Ra": 1288,
      "len": 1289,
      "11": 1290,
      "dova": 1291,
      "nio": 1292,
      " Ve": 1293,
      "gli": 1294,
      "ted": 1295,
      " milijuna": 1296,
      "ver": 1297,
      " nika": 1298,
      " Bi": 1299,
      " Lu": 1300,
      "tne": 1301,
      " održa": 1302,
      "bri": 1303,
      "bio": 1304,
      "publi": 1305,
      "lne": 1306,
      "Od": 1307,
      " sad": 1308,
      " Na": 1309,
      "tua": 1310,
      " kojem": 1311,
      "vnom": 1312,
      "šu": 1313,
      " br": 1314,
      "tiri": 1315,
      "en": 1316,
      "niti": 1317,
      "vreme": 1318,
      " pogo": 1319,
      " dr": 1320,
      " Ro": 1321,
      " ona": 1322,
      "zenta": 1323,
      "nama": 1324,
      "dnje": 1325,
      "rje": 1326,
      " jedna": 1327,
      "ajdu": 1328,
      " napra": 1329,
      " ri": 1330,
      "više": 1331,
      "đi": 1332,
      " Ni": 1333,
      " oče": 1334,
      "vodi": 1335,
      " rekla": 1336,
      "stru": 1337,
      "pak": 1338,
      " neće": 1339,
      "-u": 1340,
      "kr": 1341,
      " tro": 1342,
      " imaju": 1343,
      " fil": 1344,
      "Ko": 1345,
      " područ": 1346,
      "com": 1347,
      " rezulta": 1348,
      "272": 1349,
      "čkog": 1350,
      "tre": 1351,
      " najve": 1352,
      " uklju": 1353,
      " kojoj": 1354,
      " dvo": 1355,
      "kli": 1356,
      " Spli": 1357,
      "smo": 1358,
      ").\n": 1359,
      "rana": 1360,
      " Ju": 1361,
      " dalje": 1362,
      "Ima": 1363,
      "tovo": 1364,
      " sluča": 1365,
      " onda": 1366,
      " govori": 1367,
      "leda": 1368,
      " svoj": 1369,
      " vrlo": 1370,
      " uvje": 1371,
      "ime": 1372,
      "forma": 1373,
      " između": 1374,
      "prezenta": 1375,
      " No": 1376,
      " euro": 1377,
      "Ni": 1378,
      "kovi": 1379,
      " ope": 1380,
      " jako": 1381,
      " situa": 1382,
      " budu": 1383,
      "tri": 1384,
      "jan": 1385,
      " mre": 1386,
      " La": 1387,
      "14": 1388,
      " dan": 1389,
      "id": 1390,
      "čne": 1391,
      " pet": 1392,
      "-godiš": 1393,
      " osje": 1394,
      "Ma": 1395,
      "zne": 1396,
      " tek": 1397,
      " dese": 1398,
      " reprezenta": 1399,
      " Vi": 1400,
      " vam": 1401,
      " ćemo": 1402,
      " voj": 1403,
      " razli": 1404,
      " događa": 1405,
      " prosto": 1406,
      "tke": 1407,
      "žno": 1408,
      " Vla": 1409,
      "'\n": 1410,
      "18": 1411,
      " veći": 1412,
      " svojim": 1413,
      "dri": 1414,
      "stri": 1415,
      " Bu": 1416,
      " susta": 1417,
      " smje": 1418,
      "nera": 1419,
      "jih": 1420,
      " projek": 1421,
      " svoju": 1422,
      " kroz": 1423,
      "',": 1424,
      "im": 1425,
      "kle": 1426,
      "čni": 1427,
      "16": 1428,
      "Re": 1429,
      "Kako": 1430,
      " njih": 1431,
      " čak": 1432,
      "nj": 1433,
      " naše": 1434,
      "ss": 1435,
      "271": 1436,
      " oni": 1437,
      " joj": 1438,
      " dola": 1439,
      " poku": 1440,
      " progra": 1441,
      "roja": 1442,
      "riti": 1443,
      "stak": 1444,
      " poslo": 1445,
      "rbi": 1446,
      " mom": 1447,
      "co": 1448,
      "rali": 1449,
      "vanju": 1450,
      "nske": 1451,
      " ču": 1452,
      " tak": 1453,
      ".,": 1454,
      " predsjednik": 1455,
      "ški": 1456,
      " četvr": 1457,
      "raž": 1458,
      "čić": 1459,
      " kvali": 1460,
      " također": 1461,
      "13": 1462,
      " gu": 1463,
      " loka": 1464,
      "vac": 1465,
      " ak": 1466,
      " mjesto": 1467,
      " gleda": 1468,
      "nk": 1469,
      " puta": 1470,
      " veliki": 1471,
      "vnosti": 1472,
      " poput": 1473,
      " minu": 1474,
      " ula": 1475,
      "Ako": 1476,
      " ono": 1477,
      "Ve": 1478,
      " pora": 1479,
      " ras": 1480,
      " pripre": 1481,
      "šli": 1482,
      " zajedni": 1483,
      " Europ": 1484,
      "vor": 1485,
      " Hajdu": 1486,
      " poz": 1487,
      " Ž": 1488,
      " prven": 1489,
      "Pri": 1490,
      " vra": 1491,
      "nače": 1492,
      "čiti": 1493,
      " osoba": 1494,
      "17": 1495,
      "nka": 1496,
      " zašti": 1497,
      " svjet": 1498,
      " glaz": 1499,
      "ry": 1500,
      "dije": 1501,
      " uda": 1502,
      " građa": 1503,
      "ut": 1504,
      " prona": 1505,
      " Le": 1506,
      " osigu": 1507,
      "uze": 1508,
      "ncija": 1509,
      "vijesti": 1510,
      " jednom": 1511,
      "000": 1512,
      " koliko": 1513,
      " izja": 1514,
      " Rije": 1515,
      " kandi": 1516,
      "čili": 1517,
      " vodi": 1518,
      "ks": 1519,
      "movi": 1520,
      " napa": 1521,
      ":\n": 1522,
      " ge": 1523,
      "vede": 1524,
      " grad": 1525,
      "bora": 1526,
      " društve": 1527,
      " An": 1528,
      "govara": 1529,
      "128": 1530,
      " bra": 1531,
      " Se": 1532,
      "Vi": 1533,
      "štu": 1534,
      "nula": 1535,
      " konce": 1536,
      " mnog": 1537,
      "čkih": 1538,
      " ovaj": 1539,
      " način": 1540,
      " utakmice": 1541,
      "gro": 1542,
      " četiri": 1543,
      " sli": 1544,
      " zat": 1545,
      " tada": 1546,
      "102": 1547,
      "ct": 1548,
      " tisu": 1549,
      " ime": 1550,
      " pret": 1551,
      " druge": 1552,
      " dugo": 1553,
      " smatra": 1554,
      "šnje": 1555,
      "220": 1556,
      "Tako": 1557,
      "rna": 1558,
      " jedi": 1559,
      " nastu": 1560,
      "ćem": 1561,
      "cijama": 1562,
      " Lo": 1563,
      " osvoji": 1564,
      " odnosno": 1565,
      " neka": 1566,
      "hva": 1567,
      "ksi": 1568,
      "nke": 1569,
      "sao": 1570,
      "mpa": 1571,
      "DZ": 1572,
      "nali": 1573,
      " radio": 1574,
      " In": 1575,
      "480": 1576,
      " europ": 1577,
      "340": 1578,
      "nova": 1579,
      " istak": 1580,
      " Ga": 1581,
      " vidje": 1582,
      "200": 1583,
      " službe": 1584,
      "640": 1585,
      "tima": 1586,
      " preko": 1587,
      " naja": 1588,
      " vrati": 1589,
      " Su": 1590,
      "sle": 1591,
      "rac": 1592,
      " spa": 1593,
      "sne": 1594,
      "stvu": 1595,
      " ši": 1596,
      "tio": 1597,
      " ure": 1598,
      "vesti": 1599,
      "rica": 1600,
      "slu": 1601,
      " sura": 1602,
      "plo": 1603,
      "menti": 1604,
      "tna": 1605,
      "per": 1606,
      "oj": 1607,
      "sije": 1608,
      " piše": 1609,
      " lu": 1610,
      " zra": 1611,
      " glu": 1612,
      " foto": 1613,
      " pokuša": 1614,
      " kandida": 1615,
      " obitelji": 1616,
      "tor": 1617,
      "vnih": 1618,
      "njak": 1619,
      " razi": 1620,
      " bli": 1621,
      " dogodi": 1622,
      " Ukraji": 1623,
      "šnji": 1624,
      "Ja": 1625,
      "pusti": 1626,
      "čkom": 1627,
      " sezone": 1628,
      "tec": 1629,
      "cional": 1630,
      " imao": 1631,
      " tko": 1632,
      "mati": 1633,
      " pokre": 1634,
      " ulo": 1635,
      " tom": 1636,
      "mobi": 1637,
      "as": 1638,
      "čkoj": 1639,
      " želi": 1640,
      " promje": 1641,
      "ranje": 1642,
      "ltu": 1643,
      " akti": 1644,
      " zdrav": 1645,
      "dam": 1646,
      " fi": 1647,
      " strane": 1648,
      " spre": 1649,
      "pozna": 1650,
      "ljivo": 1651,
      " manje": 1652,
      " nu": 1653,
      " skupi": 1654,
      " ([": 1655,
      " susre": 1656,
      " cr": 1657,
      "ljede": 1658,
      "vra": 1659,
      "lima": 1660,
      " primje": 1661,
      " mladi": 1662,
      " pone": 1663,
      "glasi": 1664,
      " natjeca": 1665,
      "tected": 1666,
      " regi": 1667,
      ":pro": 1668,
      " Pu": 1669,
      ":protected": 1670,
      "dila": 1671,
      "ške": 1672,
      " vremena": 1673,
      "rala": 1674,
      "ch": 1675,
      " zaklju": 1676,
      "men": 1677,
      " vije": 1678,
      " bor": 1679,
      " župa": 1680,
      " pokaza": 1681,
      "sna": 1682,
      "24": 1683,
      "đen": 1684,
      " život": 1685,
      " vlasti": 1686,
      "25": 1687,
      " završi": 1688,
      "čer": 1689,
      " vas": 1690,
      "žda": 1691,
      " ener": 1692,
      " odre": 1693,
      " mjesta": 1694,
      " potvr": 1695,
      " koristi": 1696,
      " poveća": 1697,
      "pru": 1698,
      " navija": 1699,
      " al": 1700,
      " inter": 1701,
      "dili": 1702,
      "Sve": 1703,
      "26": 1704,
      " Vu": 1705,
      " svih": 1706,
      "mir": 1707,
      " pravo": 1708,
      "cama": 1709,
      "teta": 1710,
      "ljem": 1711,
      " imati": 1712,
      " neo": 1713,
      " pote": 1714,
      "jedi": 1715,
      " sasta": 1716,
      " svako": 1717,
      "ID": 1718,
      " unu": 1719,
      "mogu": 1720,
      " Ha": 1721,
      " kraju": 1722,
      " njega": 1723,
      " Varaž": 1724,
      "Su": 1725,
      "šla": 1726,
      "mr": 1727,
      " HDZ": 1728,
      " automobi": 1729,
      " EU": 1730,
      " rad": 1731,
      " kru": 1732,
      " gotovo": 1733,
      "rod": 1734,
      "ovje": 1735,
      " fotogra": 1736,
      " informa": 1737,
      "Naj": 1738,
      " ostva": 1739,
      " ljuba": 1740,
      " poda": 1741,
      " Č": 1742,
      " tere": 1743,
      "raju": 1744,
      " Iva": 1745,
      " bri": 1746,
      " teško": 1747,
      "...": 1748,
      "čna": 1749,
      " oda": 1750,
      " vode": 1751,
      " Fran": 1752,
      " sudje": 1753,
      " potpu": 1754,
      "fa": 1755,
      "čaj": 1756,
      "čan": 1757,
      " viso": 1758,
      "cio": 1759,
      "Ovo": 1760,
      "pnja": 1761,
      "rovi": 1762,
      " bude": 1763,
      "jemo": 1764,
      "pravo": 1765,
      "snije": 1766,
      "rane": 1767,
      " kr": 1768,
      "nskog": 1769,
      " bit": 1770,
      " Zagrebu": 1771,
      "-o": 1772,
      " kazao": 1773,
      "zni": 1774,
      "dovi": 1775,
      " Ku": 1776,
      " suda": 1777,
      "logi": 1778,
      "kova": 1779,
      " ovom": 1780,
      "jema": 1781,
      " proda": 1782,
      "Ova": 1783,
      " odu": 1784,
      "rka": 1785,
      "šić": 1786,
      " naši": 1787,
      " uči": 1788,
      " rje": 1789,
      " mogao": 1790,
      " teh": 1791,
      " prati": 1792,
      " Obje": 1793,
      " isku": 1794,
      " Object": 1795,
      "Ta": 1796,
      " polu": 1797,
      "hvati": 1798,
      " kultu": 1799,
      " kojeg": 1800,
      " posebno": 1801,
      " Hrvatska": 1802,
      "Hrvat": 1803,
      "kve": 1804,
      " nesre": 1805,
      " supru": 1806,
      " nagra": 1807,
      " teme": 1808,
      " momča": 1809,
      "novi": 1810,
      " De": 1811,
      " kolo": 1812,
      " ameri": 1813,
      "pp": 1814,
      " godinu": 1815,
      " organiza": 1816,
      "prije": 1817,
      " kazne": 1818,
      "kav": 1819,
      "riji": 1820,
      "pred": 1821,
      " obitelj": 1822,
      "Pa": 1823,
      "item": 1824,
      "bor": 1825,
      "ck": 1826,
      "21": 1827,
      "šnja": 1828,
      " gospo": 1829,
      " part": 1830,
      "vica": 1831,
      " premije": 1832,
      " izgu": 1833,
      " knji": 1834,
      " glazbe": 1835,
      "blje": 1836,
      " fe": 1837,
      "rić": 1838,
      " podr": 1839,
      " ovog": 1840,
      " odma": 1841,
      " stude": 1842,
      "slim": 1843,
      "tara": 1844,
      " nedje": 1845,
      " vide": 1846,
      "Iako": 1847,
      " tim": 1848,
      " dra": 1849,
      " prvo": 1850,
      " djela": 1851,
      " one": 1852,
      " sredi": 1853,
      " obo": 1854,
      " ništa": 1855,
      " Dinamo": 1856,
      "EO": 1857,
      "titi": 1858,
      " napisa": 1859,
      "mpe": 1860,
      "panjo": 1861,
      " podu": 1862,
      "mp": 1863,
      " karije": 1864,
      " svom": 1865,
      " Milano": 1866,
      " napada": 1867,
      " mode": 1868,
      "čku": 1869,
      "Što": 1870,
      " mjestu": 1871,
      "lio": 1872,
      "zak": 1873,
      "govi": 1874,
      " nosi": 1875,
      "cje": 1876,
      " baš": 1877,
      " Al": 1878,
      "jka": 1879,
      " sport": 1880,
      " neke": 1881,
      "che": 1882,
      "vnim": 1883,
      " ok": 1884,
      "jske": 1885,
      "ty": 1886,
      " dire": 1887,
      "tali": 1888,
      " zado": 1889,
      "IDEO": 1890,
      " pru": 1891,
      " posla": 1892,
      " pitanje": 1893,
      " muška": 1894,
      " financi": 1895,
      " sebe": 1896,
      "Ali": 1897,
      "Među": 1898,
      "nzi": 1899,
      " posti": 1900,
      " odra": 1901,
      " upozo": 1902,
      " vidi": 1903,
      " Ar": 1904,
      "loga": 1905,
      " Si": 1906,
      " važ": 1907,
      "fo": 1908,
      "lna": 1909,
      " klju": 1910,
      " osjeća": 1911,
      "tet": 1912,
      " prizna": 1913,
      "čima": 1914,
      " Au": 1915,
      " tran": 1916,
      " deset": 1917,
      " subo": 1918,
      "tkom": 1919,
      " uli": 1920,
      "tki": 1921,
      "som": 1922,
      "glo": 1923,
      "mina": 1924,
      "žiti": 1925,
      "gom": 1926,
      " uspo": 1927,
      "čkim": 1928,
      " šest": 1929,
      "ele": 1930,
      "rojatno": 1931,
      " pjes": 1932,
      " slobo": 1933,
      "panjol": 1934,
      "nicu": 1935,
      " čeka": 1936,
      "DP": 1937,
      "ment": 1938,
      " izda": 1939,
      " nove": 1940,
      " minuti": 1941,
      " često": 1942,
      "ljak": 1943,
      "TO": 1944,
      " izgleda": 1945,
      "bar": 1946,
      "kuje": 1947,
      " stvari": 1948,
      "nata": 1949,
      " opo": 1950,
      " otvore": 1951,
      " rea": 1952,
      " osno": 1953,
      "lić": 1954,
      "dnja": 1955,
      " naš": 1956,
      " rodi": 1957,
      " priča": 1958,
      "Tre": 1959,
      " pomoć": 1960,
      " najbolji": 1961,
      " raspo": 1962,
      " Plen": 1963,
      " Ši": 1964,
      "valu": 1965,
      " bih": 1966,
      "23": 1967,
      " oti": 1968,
      "lnik": 1969,
      " svim": 1970,
      " promet": 1971,
      " obzi": 1972,
      " ponu": 1973,
      " njegovo": 1974,
      " kraja": 1975,
      "up": 1976,
      " Iz": 1977,
      "ćih": 1978,
      "fina": 1979,
      "govor": 1980,
      " njima": 1981,
      " Njema": 1982,
      " spe": 1983,
      "šlja": 1984,
      " novina": 1985,
      "digra": 1986,
      " dosta": 1987,
      " nisam": 1988,
      "limpi": 1989,
      "bre": 1990,
      "nde": 1991,
      " napo": 1992,
      " imali": 1993,
      " predsjednika": 1994,
      " dobio": 1995,
      "vjetni": 1996,
      "greba": 1997,
      " Dubro": 1998,
      " vlasni": 1999,
      " svijetu": 2000,
      " gru": 2001,
      " bolje": 2002,
      " vozila": 2003,
      "njoj": 2004,
      " utjeca": 2005,
      " grado": 2006,
      "stro": 2007,
      " ministar": 2008,
      "njima": 2009,
      " minuta": 2010,
      " istraži": 2011,
      " pobije": 2012,
      " života": 2013,
      " optu": 2014,
      "Te": 2015,
      "ton": 2016,
      "Cla": 2017,
      " uo": 2018,
      " Tu": 2019,
      " stru": 2020,
      "Prema": 2021,
      " utakmica": 2022,
      "Go": 2023,
      "lnih": 2024,
      " upravo": 2025,
      " poma": 2026,
      "name": 2027,
      " dodao": 2028,
      "rili": 2029,
      " fu": 2030,
      "28": 2031,
      " navo": 2032,
      "tego": 2033,
      "kva": 2034,
      "nuli": 2035,
      " uključu": 2036,
      "rem": 2037,
      "lina": 2038,
      " djece": 2039,
      "ima": 2040,
      "jski": 2041,
      "100": 2042,
      "vnika": 2043,
      " kraj": 2044,
      "90": 2045,
      " druga": 2046,
      " Fi": 2047,
      "spe": 2048,
      "jima": 2049,
      "gova": 2050,
      " svaki": 2051,
      "AD": 2052,
      " možda": 2053,
      " bole": 2054,
      "Class": 2055,
      " pona": 2056,
      "ranja": 2057,
      " opa": 2058,
      "ved": 2059,
      " raču": 2060,
      " Dra": 2061,
      " bla": 2062,
      " njegov": 2063,
      "kako": 2064,
      "pio": 2065,
      "bili": 2066,
      "čila": 2067,
      " std": 2068,
      "vnik": 2069,
      " njegova": 2070,
      "nca": 2071,
      "rice": 2072,
      "nga": 2073,
      "vca": 2074,
      "opće": 2075,
      " tisuća": 2076,
      "poru": 2077,
      " trži": 2078,
      " zajedno": 2079,
      "22": 2080,
      "slo": 2081,
      "tnih": 2082,
      "ciona": 2083,
      "Osi": 2084,
      "Uz": 2085,
      "jna": 2086,
      "rvi": 2087,
      " ipak": 2088,
      "rina": 2089,
      "san": 2090,
      " Ivan": 2091,
      " nalazi": 2092,
      " prvaka": 2093,
      " tele": 2094,
      " čovje": 2095,
      "nča": 2096,
      "laz": 2097,
      "šku": 2098,
      " predstavlja": 2099,
      "ratu": 2100,
      " poči": 2101,
      "rava": 2102,
      " omogu": 2103,
      " uče": 2104,
      "nović": 2105,
      "mom": 2106,
      "sija": 2107,
      " So": 2108,
      "dnika": 2109,
      " uži": 2110,
      " stano": 2111,
      "ktu": 2112,
      " problem": 2113,
      " neza": 2114,
      " struč": 2115,
      " vrijedno": 2116,
      " kasnije": 2117,
      " Tru": 2118,
      "žio": 2119,
      "šlo": 2120,
      " Di": 2121,
      " odmah": 2122,
      " smi": 2123,
      " hrvatski": 2124,
      "zem": 2125,
      "zima": 2126,
      ";no": 2127,
      " ukup": 2128,
      " izvo": 2129,
      " kaza": 2130,
      "Kad": 2131,
      " idu": 2132,
      "vdje": 2133,
      " dolazi": 2134,
      " nogomet": 2135,
      " sklo": 2136,
      " kole": 2137,
      " sred": 2138,
      " području": 2139,
      " pol": 2140,
      " elek": 2141,
      " utakmicu": 2142,
      " ponovno": 2143,
      "rke": 2144,
      "ll": 2145,
      "kama": 2146,
      " nedo": 2147,
      "vez": 2148,
      " jednu": 2149,
      " kla": 2150,
      " kontro": 2151,
      " odigra": 2152,
      " proce": 2153,
      " Fa": 2154,
      "LE": 2155,
      "36": 2156,
      "tori": 2157,
      " prošle": 2158,
      "nena": 2159,
      " mogli": 2160,
      "šće": 2161,
      "veo": 2162,
      "love": 2163,
      " znači": 2164,
      "vaja": 2165,
      "ktor": 2166,
      "PO": 2167,
      " zapa": 2168,
      "zuje": 2169,
      " iako": 2170,
      " kvalite": 2171,
      " svog": 2172,
      "čnih": 2173,
      " usta": 2174,
      "teljima": 2175,
      " sud": 2176,
      " odje": 2177,
      " možete": 2178,
      "voljno": 2179,
      "vjet": 2180,
      " hi": 2181,
      "đena": 2182,
      "laze": 2183,
      " osobe": 2184,
      "rma": 2185,
      " inf": 2186,
      " Zagreba": 2187,
      "Nije": 2188,
      "mbe": 2189,
      " imamo": 2190,
      " plaća": 2191,
      " zagreba": 2192,
      "dnjih": 2193,
      " osu": 2194,
      " niti": 2195,
      "kaza": 2196,
      "she": 2197,
      " sljede": 2198,
      " javno": 2199,
      " odli": 2200,
      " komu": 2201,
      " voza": 2202,
      " sce": 2203,
      " djelo": 2204,
      " jednog": 2205,
      " trenutku": 2206,
      "bom": 2207,
      "mperatu": 2208,
      "Naime": 2209,
      "plit": 2210,
      " čini": 2211,
      " kilo": 2212,
      " upravlja": 2213,
      " zlo": 2214,
      " neu": 2215,
      " And": 2216,
      " Republi": 2217,
      "lovi": 2218,
      "piti": 2219,
      ";ki": 2220,
      "ravno": 2221,
      "lih": 2222,
      " Ca": 2223,
      "Nje": 2224,
      "hr": 2225,
      " najviše": 2226,
      "đenje": 2227,
      " Ta": 2228,
      "jeva": 2229,
      " Y": 2230,
      "liti": 2231,
      " eki": 2232,
      " novo": 2233,
      " ž": 2234,
      "br": 2235,
      " zato": 2236,
      "stitu": 2237,
      "renje": 2238,
      "rila": 2239,
      "dina": 2240,
      " izgra": 2241,
      " posao": 2242,
      " trener": 2243,
      " toliko": 2244,
      " Je": 2245,
      "ksu": 2246,
      " grada": 2247,
      "stima": 2248,
      "Osim": 2249,
      " postoji": 2250,
      " kar": 2251,
      " profe": 2252,
      " energi": 2253,
      "deri": 2254,
      "ris": 2255,
      " publi": 2256,
      "nike": 2257,
      " obzirom": 2258,
      " zako": 2259,
      " kojim": 2260,
      " moguć": 2261,
      "vizi": 2262,
      " Ho": 2263,
      " Zagreb": 2264,
      "telje": 2265,
      " for": 2266,
      " ranije": 2267,
      " prava": 2268,
      " zahtje": 2269,
      " Pri": 2270,
      "nce": 2271,
      "nac": 2272,
      " Ti": 2273,
      " reći": 2274,
      " pomoći": 2275,
      "nska": 2276,
      " ponedje": 2277,
      "29": 2278,
      "šenje": 2279,
      " ozbi": 2280,
      " kluba": 2281,
      " unutar": 2282,
      " tamo": 2283,
      "lica": 2284,
      " policija": 2285,
      "bija": 2286,
      " mjeseci": 2287,
      " zašto": 2288,
      " gol": 2289,
      " igrača": 2290,
      " izazo": 2291,
      " mnogi": 2292,
      "shed": 2293,
      " manda": 2294,
      "teljica": 2295,
      " mno": 2296,
      " iznena": 2297,
      "published": 2298,
      "Jo": 2299,
      "čica": 2300,
      " Sla": 2301,
      " petak": 2302,
      " sum": 2303,
      " isko": 2304,
      "alias": 2305,
      " svijeta": 2306,
      "Vo": 2307,
      " neda": 2308,
      " produ": 2309,
      " riječ": 2310,
      " jednosta": 2311,
      ".hr": 2312,
      "lnim": 2313,
      "zda": 2314,
      "lar": 2315,
      "drža": 2316,
      " una": 2317,
      " čega": 2318,
      "vića": 2319,
      " zapravo": 2320,
      " svojoj": 2321,
      " ozlije": 2322,
      "dnju": 2323,
      "tin": 2324,
      "veli": 2325,
      "mor": 2326,
      "lnog": 2327,
      " osob": 2328,
      " utvr": 2329,
      " objavio": 2330,
      "cijom": 2331,
      "đeno": 2332,
      "kad": 2333,
      "ćeg": 2334,
      " Sve": 2335,
      " tradi": 2336,
      " zahva": 2337,
      " problema": 2338,
      "stava": 2339,
      " zau": 2340,
      "199": 2341,
      " smr": 2342,
      "nak": 2343,
      " Bar": 2344,
      " Hrvatsku": 2345,
      " raditi": 2346,
      "Va": 2347,
      " netko": 2348,
      " deta": 2349,
      "troga": 2350,
      " klub": 2351,
      " brzo": 2352,
      " upu": 2353,
      " temperatu": 2354,
      "nad": 2355,
      " Vo": 2356,
      " zdravstve": 2357,
      " ovi": 2358,
      " HN": 2359,
      " Ri": 2360,
      " fotografi": 2361,
      "Pred": 2362,
      " kola": 2363,
      "lost": 2364,
      " srije": 2365,
      "cat": 2366,
      "mira": 2367,
      " pore": 2368,
      " imala": 2369,
      " ću": 2370,
      " preda": 2371,
      " bolni": 2372,
      "spi": 2373,
      "šću": 2374,
      " svega": 2375,
      "vnu": 2376,
      "rnik": 2377,
      " vidjeti": 2378,
      " opre": 2379,
      " komenti": 2380,
      " mreža": 2381,
      " nepo": 2382,
      " možemo": 2383,
      " zemlje": 2384,
      " oto": 2385,
      " ša": 2386,
      " velika": 2387,
      "vre": 2388,
      " navodi": 2389,
      "On": 2390,
      " gospodar": 2391,
      " tog": 2392,
      " promije": 2393,
      "dija": 2394,
      " nesta": 2395,
      " mogla": 2396,
      " misli": 2397,
      " sedam": 2398,
      " člano": 2399,
      "sfe": 2400,
      " subotu": 2401,
      "sci": 2402,
      "tnu": 2403,
      " korisni": 2404,
      "nicima": 2405,
      "tić": 2406,
      " veza": 2407,
      " prvom": 2408,
      " sja": 2409,
      " zgra": 2410,
      " zastup": 2411,
      " pravi": 2412,
      "zma": 2413,
      " eks": 2414,
      " intere": 2415,
      " vjerojatno": 2416,
      "Kada": 2417,
      " oči": 2418,
      " djevoj": 2419,
      " pjeva": 2420,
      " najbolje": 2421,
      "gled": 2422,
      "tnika": 2423,
      " slučaju": 2424,
      " ovdje": 2425,
      " osam": 2426,
      " izno": 2427,
      " razvo": 2428,
      " ar": 2429,
      "dnik": 2430,
      " demo": 2431,
      "60": 2432,
      " brani": 2433,
      " posjeti": 2434,
      "rtu": 2435,
      " emi": 2436,
      " izvan": 2437,
      " razdo": 2438,
      " poduze": 2439,
      "voje": 2440,
      " veliko": 2441,
      " mene": 2442,
      "'.\n": 2443,
      "nskih": 2444,
      " vjeru": 2445,
      "Tu": 2446,
      " podi": 2447,
      "den": 2448,
      " SAD": 2449,
      " stvara": 2450,
      " film": 2451,
      "nin": 2452,
      "TE": 2453,
      "pisu": 2454,
      " društvenim": 2455,
      "terija": 2456,
      " listo": 2457,
      " funk": 2458,
      "nove": 2459,
      " pola": 2460,
      " komenta": 2461,
      " eko": 2462,
      " trav": 2463,
      " priliku": 2464,
      "rba": 2465,
      " sko": 2466,
      "boj": 2467,
      "kuplja": 2468,
      " priva": 2469,
      " rada": 2470,
      " ispo": 2471,
      " potpuno": 2472,
      " priro": 2473,
      "ndar": 2474,
      " opet": 2475,
      "fika": 2476,
      "dering": 2477,
      " Zo": 2478,
      " odvjetni": 2479,
      " Grad": 2480,
      "mišlja": 2481,
      " drugih": 2482,
      "taka": 2483,
      " vlada": 2484,
      "group": 2485,
      " sudjelo": 2486,
      "ista": 2487,
      " udru": 2488,
      " izvje": 2489,
      "vrše": 2490,
      " očeki": 2491,
      " nedjelju": 2492,
      "th": 2493,
      " Pi": 2494,
      " svojih": 2495,
      " Co": 2496,
      " tru": 2497,
      " genera": 2498,
      " ozbilj": 2499,
      " boga": 2500,
      " drugom": 2501,
      " pogleda": 2502,
      "šava": 2503,
      " biv": 2504,
      "ranu": 2505,
      " puto": 2506,
      " Ministar": 2507,
      "žava": 2508,
      " sprem": 2509,
      "Međutim": 2510,
      " zaba": 2511,
      "gen": 2512,
      " vrhu": 2513,
      "dić": 2514,
      " bile": 2515,
      "tog": 2516,
      "žić": 2517,
      "Bo": 2518,
      " Op": 2519,
      " tjedna": 2520,
      " doku": 2521,
      " domaći": 2522,
      " podije": 2523,
      "type": 2524,
      " smije": 2525,
      " dosa": 2526,
      " odnosu": 2527,
      " Varaždin": 2528,
      "son": 2529,
      " stoji": 2530,
      "tica": 2531,
      ";ivo": 2532,
      "ster": 2533,
      " povje": 2534,
      " uto": 2535,
      " namje": 2536,
      "stupa": 2537,
      " istaknuo": 2538,
      " snim": 2539,
      " turni": 2540,
      " parla": 2541,
      " Srbi": 2542,
      " SDP": 2543,
      "pita": 2544,
      "Pod": 2545,
      "manje": 2546,
      "Sva": 2547,
      " jezi": 2548,
      " povije": 2549,
      "voza": 2550,
      "osta": 2551,
      "čnu": 2552,
      " gradonače": 2553,
      " povra": 2554,
      " hrvatske": 2555,
      " Mu": 2556,
      " Te": 2557,
      " igrati": 2558,
      " kona": 2559,
      "biti": 2560,
      " objasni": 2561,
      "Kao": 2562,
      ")\n": 2563,
      " uslu": 2564,
      " dovoljno": 2565,
      " prosje": 2566,
      " mini": 2567,
      "ordering": 2568,
      " nogometa": 2569,
      " ponedjeljak": 2570,
      "lin": 2571,
      "value": 2572,
      "jno": 2573,
      "dana": 2574,
      " Mari": 2575,
      " donije": 2576,
      " Šibe": 2577,
      " /": 2578,
      " ugo": 2579,
      "ksa": 2580,
      "nte": 2581,
      " ogra": 2582,
      " Niko": 2583,
      " trebao": 2584,
      " mije": 2585,
      "zor": 2586,
      " proje": 2587,
      " godini": 2588,
      " pisa": 2589,
      "AJ": 2590,
      "De": 2591,
      "vrši": 2592,
      " Fe": 2593,
      "rži": 2594,
      " čla": 2595,
      " vatroga": 2596,
      "tion": 2597,
      "sima": 2598,
      "čar": 2599,
      "đenja": 2600,
      ";er": 2601,
      " Josi": 2602,
      " ovu": 2603,
      " turisti": 2604,
      " žena": 2605,
      " ža": 2606,
      "Lju": 2607,
      " nastupa": 2608,
      " katego": 2609,
      " zaposle": 2610,
      "tine": 2611,
      " skla": 2612,
      "slav": 2613,
      "tnog": 2614,
      " Ameri": 2615,
      " Izra": 2616,
      " potom": 2617,
      " Ki": 2618,
      "šno": 2619,
      "dite": 2620,
      " obilje": 2621,
      " prome": 2622,
      "stavlja": 2623,
      " sami": 2624,
      "dese": 2625,
      " djecu": 2626,
      " šte": 2627,
      " posve": 2628,
      " iznosi": 2629,
      " hla": 2630,
      "vlju": 2631,
      " bije": 2632,
      " rata": 2633,
      " Pre": 2634,
      "dnici": 2635,
      " ispri": 2636,
      " izbora": 2637,
      " Split": 2638,
      " sije": 2639,
      " prve": 2640,
      "đeni": 2641,
      " lop": 2642,
      " srijedu": 2643,
      " bira": 2644,
      " kriti": 2645,
      " Đ": 2646,
      " dijete": 2647,
      "lnu": 2648,
      " kuće": 2649,
      "nskom": 2650,
      "jar": 2651,
      "oto": 2652,
      " zara": 2653,
      "misli": 2654,
      " Dinama": 2655,
      " nova": 2656,
      "\"\n": 2657,
      " dne": 2658,
      "gor": 2659,
      "sob": 2660,
      " turi": 2661,
      " nismo": 2662,
      " osim": 2663,
      ";io": 2664,
      " pretho": 2665,
      " mnogo": 2666,
      "kata": 2667,
      " jasno": 2668,
      " planira": 2669,
      " aktivnosti": 2670,
      "32": 2671,
      " potencija": 2672,
      "dnom": 2673,
      "njeg": 2674,
      " bivši": 2675,
      " putem": 2676,
      " poveza": 2677,
      "dnu": 2678,
      "tt": 2679,
      "dak": 2680,
      "glasio": 2681,
      " buduć": 2682,
      "njom": 2683,
      " preki": 2684,
      " Dal": 2685,
      " bodova": 2686,
      "šlje": 2687,
      "rano": 2688,
      " pojedi": 2689,
      " Pro": 2690,
      " sata": 2691,
      " znam": 2692,
      " veče": 2693,
      "lnosti": 2694,
      "rp": 2695,
      "kar": 2696,
      "žili": 2697,
      "vljen": 2698,
      " upozna": 2699,
      "tual": 2700,
      " maj": 2701,
      "Hrvatska": 2702,
      "bila": 2703,
      "Pu": 2704,
      " emo": 2705,
      " prote": 2706,
      "35": 2707,
      "Zbog": 2708,
      "čnim": 2709,
      "rea": 2710,
      " ban": 2711,
      "govora": 2712,
      "nicama": 2713,
      " dijelu": 2714,
      " nikad": 2715,
      " prepozna": 2716,
      "Ba": 2717,
      " stranke": 2718,
      " postoje": 2719,
      "nas": 2720,
      " posje": 2721,
      "Prije": 2722,
      "bina": 2723,
      " obu": 2724,
      "vanjem": 2725,
      "Rije": 2726,
      "čita": 2727,
      " ćete": 2728,
      "NA": 2729,
      "Zna": 2730,
      "tic": 2731,
      " nama": 2732,
      " festi": 2733,
      " kojih": 2734,
      " rezultat": 2735,
      " metara": 2736,
      " došao": 2737,
      " izbje": 2738,
      " slije": 2739,
      "veza": 2740,
      " ispu": 2741,
      " velike": 2742,
      "kna": 2743,
      "ntra": 2744,
      "ogra": 2745,
      "tnom": 2746,
      " povijesti": 2747,
      " razu": 2748,
      " srp": 2749,
      " potra": 2750,
      " ispred": 2751,
      " poseb": 2752,
      "lija": 2753,
      " doži": 2754,
      " značaj": 2755,
      "vama": 2756,
      " zemlji": 2757,
      "tina": 2758,
      "Svi": 2759,
      "rena": 2760,
      " dobiti": 2761,
      "ple": 2762,
      " doći": 2763,
      " potro": 2764,
      "štva": 2765,
      " utakmici": 2766,
      " nazi": 2767,
      " kampa": 2768,
      "šenja": 2769,
      "kvi": 2770,
      "45": 2771,
      "dima": 2772,
      " zamje": 2773,
      " Kri": 2774,
      " moguće": 2775,
      "zija": 2776,
      " Hajduk": 2777,
      "vremeno": 2778,
      "Pe": 2779,
      " priprema": 2780,
      " utorak": 2781,
      " Grada": 2782,
      " Francu": 2783,
      " deve": 2784,
      " razini": 2785,
      " tehno": 2786,
      "vora": 2787,
      "zam": 2788,
      "sak": 2789,
      "jedno": 2790,
      "kić": 2791,
      " split": 2792,
      " nado": 2793,
      " spome": 2794,
      " Hrva": 2795,
      "nciji": 2796,
      " sjeve": 2797,
      " Republike": 2798,
      "is": 2799,
      "tivno": 2800,
      "der": 2801,
      "les": 2802,
      " svima": 2803,
      "vci": 2804,
      " at": 2805,
      "pis": 2806,
      " mirovi": 2807,
      "nić": 2808,
      " svib": 2809,
      " Plenković": 2810,
      " oru": 2811,
      "vite": 2812,
      " zo": 2813,
      " ha": 2814,
      " drugim": 2815,
      " mjeseca": 2816,
      " Ivana": 2817,
      " institu": 2818,
      " kup": 2819,
      "loba": 2820,
      " cijene": 2821,
      " škole": 2822,
      " Milanović": 2823,
      " zla": 2824,
      " uhi": 2825,
      " poslije": 2826,
      "rnoj": 2827,
      "tnoj": 2828,
      " Splitu": 2829,
      "ljiva": 2830,
      "how": 2831,
      " osvojio": 2832,
      " ig": 2833,
      " time": 2834,
      " He": 2835,
      " investi": 2836,
      " obrazo": 2837,
      "gh": 2838,
      "kor": 2839,
      " osobi": 2840,
      " momčad": 2841,
      "renja": 2842,
      " zanim": 2843,
      "kretni": 2844,
      " donosi": 2845,
      " Kra": 2846,
      " šu": 2847,
      " glaso": 2848,
      " Španjol": 2849,
      "gnu": 2850,
      " čita": 2851,
      " pak": 2852,
      " glasa": 2853,
      " obli": 2854,
      "rnost": 2855,
      " godinama": 2856,
      " županije": 2857,
      "đene": 2858,
      " otvori": 2859,
      " anali": 2860,
      "žan": 2861,
      ";ete": 2862,
      " ističe": 2863,
      "lnom": 2864,
      " rizi": 2865,
      "lle": 2866,
      "limpij": 2867,
      "lov": 2868,
      "žen": 2869,
      " pozor": 2870,
      " šo": 2871,
      " gradu": 2872,
      " mrežama": 2873,
      " izlo": 2874,
      " prosi": 2875,
      " uključujući": 2876,
      " suko": 2877,
      " psi": 2878,
      "šiti": 2879,
      " cijena": 2880,
      "lnoj": 2881,
      " nedosta": 2882,
      " VIDEO": 2883,
      " nacional": 2884,
      " izbor": 2885,
      "34": 2886,
      " dobar": 2887,
      " rade": 2888,
      "tnosti": 2889,
      " dolara": 2890,
      " ljude": 2891,
      " pobjedu": 2892,
      " tvrtke": 2893,
      "Također": 2894,
      "tora": 2895,
      " zvije": 2896,
      " niz": 2897,
      " tih": 2898,
      "line": 2899,
      "lak": 2900,
      " moći": 2901,
      " Hajduka": 2902,
      "mio": 2903,
      " traja": 2904,
      " moraju": 2905,
      "svje": 2906,
      " moglo": 2907,
      " njemu": 2908,
      " glavni": 2909,
      " milijar": 2910,
      "79": 2911,
      ";ko": 2912,
      " projekt": 2913,
      " okru": 2914,
      " pobjede": 2915,
      " međuna": 2916,
      " snage": 2917,
      " sustav": 2918,
      "dnih": 2919,
      " naro": 2920,
      "Si": 2921,
      " njegove": 2922,
      " tvrdi": 2923,
      " nedavno": 2924,
      "88": 2925,
      "čenje": 2926,
      " lipnja": 2927,
      "tnim": 2928,
      "pom": 2929,
      " hrvatskih": 2930,
      " član": 2931,
      "žnje": 2932,
      "tih": 2933,
      "ban": 2934,
      " napraviti": 2935,
      "ngle": 2936,
      " javnosti": 2937,
      " ut": 2938,
      "31": 2939,
      " koli": 2940,
      "štvo": 2941,
      "ljena": 2942,
      " Insta": 2943,
      " savje": 2944,
      "ženje": 2945,
      "Gra": 2946,
      " zatim": 2947,
      " medici": 2948,
      " njema": 2949,
      " čemu": 2950,
      "Dru": 2951,
      "toč": 2952,
      " poručio": 2953,
      "FF": 2954,
      " novih": 2955,
      " ovoj": 2956,
      "riju": 2957,
      " prvog": 2958,
      "Vje": 2959,
      " sebi": 2960,
      " dobili": 2961,
      " izaz": 2962,
      "vljena": 2963,
      " postao": 2964,
      "jopri": 2965,
      " objavila": 2966,
      " trgovi": 2967,
      " Andre": 2968,
      "Be": 2969,
      "reni": 2970,
      " poža": 2971,
      " prvu": 2972,
      " žele": 2973,
      " hote": 2974,
      " Vlade": 2975,
      " gr": 2976,
      "ntar": 2977,
      " program": 2978,
      "Ro": 2979,
      " zaslu": 2980,
      "zuju": 2981,
      " hrvatskog": 2982,
      "vlada": 2983,
      "Doda": 2984,
      " ovih": 2985,
      " toj": 2986,
      ";emo": 2987,
      " video": 2988,
      "gdje": 2989,
      "kcije": 2990,
      "vela": 2991,
      "zije": 2992,
      " obje": 2993,
      "cijski": 2994,
      " dogodilo": 2995,
      "LED": 2996,
      " ad": 2997,
      " cilj": 2998,
      "fije": 2999,
      "loški": 3000,
      "vku": 3001,
      "ram": 3002,
      " nada": 3003,
      "port": 3004,
      "niju": 3005,
      " biste": 3006,
      " kva": 3007,
      " diza": 3008,
      " Ce": 3009,
      " otvara": 3010,
      "tivne": 3011,
      "učili": 3012,
      " novog": 3013,
      "glavnom": 3014,
      "žila": 3015,
      " želje": 3016,
      " situacija": 3017,
      "Ru": 3018,
      " postup": 3019,
      " trenutno": 3020,
      "JE": 3021,
      "nila": 3022,
      " nasi": 3023,
      " došlo": 3024,
      "mija": 3025,
      "dove": 3026,
      " podrža": 3027,
      " nikada": 3028,
      "Ovaj": 3029,
      " Marko": 3030,
      "tinu": 3031,
      " trebalo": 3032,
      " prošlo": 3033,
      "ljan": 3034,
      "rancu": 3035,
      " dija": 3036,
      " izjavio": 3037,
      " Ze": 3038,
      " svijet": 3039,
      " izvr": 3040,
      "čak": 3041,
      "pušta": 3042,
      " svjedo": 3043,
      "čnom": 3044,
      "siji": 3045,
      "krša": 3046,
      "POG": 3047,
      " prosla": 3048,
      " nitko": 3049,
      "-godišnja": 3050,
      " fizi": 3051,
      " travnja": 3052,
      " sku": 3053,
      "ramo": 3054,
      " novu": 3055,
      " Gr": 3056,
      " vaše": 3057,
      " siječ": 3058,
      "lobo": 3059,
      " sustava": 3060,
      " sredst": 3061,
      "AJTE": 3062,
      "zvo": 3063,
      "čnog": 3064,
      " plo": 3065,
      " pogi": 3066,
      " popula": 3067,
      " otkrila": 3068,
      "lila": 3069,
      "laga": 3070,
      " he": 3071,
      " OFF": 3072,
      "dro": 3073,
      "tova": 3074,
      " poslu": 3075,
      " očekuje": 3076,
      " ispod": 3077,
      " Instagra": 3078,
      "POGLED": 3079,
      "RT": 3080,
      " bismo": 3081,
      " mislim": 3082,
      " činje": 3083,
      " započe": 3084,
      " suo": 3085,
      "stre": 3086,
      "stan": 3087,
      " meda": 3088,
      " zemlja": 3089,
      " otkrio": 3090,
      "POGLEDAJTE": 3091,
      " zabio": 3092,
      "mini": 3093,
      " Bra": 3094,
      " manji": 3095,
      " organizira": 3096,
      " Ch": 3097,
      "vljaju": 3098,
      "matra": 3099,
      "leko": 3100,
      "čina": 3101,
      "70": 3102,
      " izborima": 3103,
      " w": 3104,
      "jne": 3105,
      " hit": 3106,
      "vnoj": 3107,
      " strana": 3108,
      "ktora": 3109,
      " ponaša": 3110,
      " pobo": 3111,
      "tera": 3112,
      " ravna": 3113,
      " razvoj": 3114,
      " vanj": 3115,
      " sporta": 3116,
      " potreb": 3117,
      " muškar": 3118,
      "nsko": 3119,
      " teni": 3120,
      " djeca": 3121,
      " njihove": 3122,
      "ljeća": 3123,
      "Mislim": 3124,
      "žba": 3125,
      " onih": 3126,
      " terenu": 3127,
      "Bu": 3128,
      "igra": 3129,
      "gama": 3130,
      " isklju": 3131,
      "Item": 3132,
      " kak": 3133,
      "vka": 3134,
      " snima": 3135,
      "od": 3136,
      "mica": 3137,
      "vnici": 3138,
      " momčadi": 3139,
      "blja": 3140,
      "lac": 3141,
      " razmišlja": 3142,
      " države": 3143,
      "68": 3144,
      " igre": 3145,
      " provo": 3146,
      "ljen": 3147,
      "baci": 3148,
      " Sta": 3149,
      " igrač": 3150,
      "ćen": 3151,
      " plat": 3152,
      "vice": 3153,
      "ćine": 3154,
      "192": 3155,
      " crve": 3156,
      " bolji": 3157,
      " indu": 3158,
      "jni": 3159,
      "žni": 3160,
      " partne": 3161,
      " poljopri": 3162,
      " kojom": 3163,
      "pisao": 3164,
      " oduše": 3165,
      "tili": 3166,
      " Ke": 3167,
      " konfe": 3168,
      " trebali": 3169,
      " Domovi": 3170,
      "kcija": 3171,
      "zom": 3172,
      " kli": 3173,
      "rve": 3174,
      " prisu": 3175,
      " kući": 3176,
      " potrebno": 3177,
      " natje": 3178,
      " jedne": 3179,
      " ukraji": 3180,
      "dnoj": 3181,
      " njihov": 3182,
      "Že": 3183,
      " novac": 3184,
      " poslova": 3185,
      " bolesti": 3186,
      "njo": 3187,
      "lnika": 3188,
      "nstve": 3189,
      "cem": 3190,
      "đuje": 3191,
      "vljeni": 3192,
      " životu": 3193,
      " promjene": 3194,
      "šća": 3195,
      " prenosi": 3196,
      " uni": 3197,
      "sjednik": 3198,
      " ljudima": 3199,
      " stvar": 3200,
      " ljud": 3201,
      " rujna": 3202,
      "dnog": 3203,
      " posljednjih": 3204,
      "snu": 3205,
      "Če": 3206,
      " šan": 3207,
      "Ipak": 3208,
      "tere": 3209,
      " provje": 3210,
      " lako": 3211,
      "nijih": 3212,
      " opera": 3213,
      " svakodne": 3214,
      " škola": 3215,
      " prilikom": 3216,
      " brzi": 3217,
      " najveći": 3218,
      ";,": 3219,
      "OTO": 3220,
      " kame": 3221,
      " Sr": 3222,
      " smanji": 3223,
      " mijenja": 3224,
      "vča": 3225,
      " stadio": 3226,
      " policije": 3227,
      "sjetimo": 3228,
      "ou": 3229,
      " dro": 3230,
      " zadovolj": 3231,
      "Oni": 3232,
      " pitanja": 3233,
      " prostor": 3234,
      " četvrtak": 3235,
      "lice": 3236,
      " izvijesti": 3237,
      " odgovor": 3238,
      " kažu": 3239,
      " ulaga": 3240,
      " premijer": 3241,
      " napre": 3242,
      " rekli": 3243,
      " smanje": 3244,
      " projekta": 3245,
      "jskog": 3246,
      " pada": 3247,
      " konku": 3248,
      "metara": 3249,
      "ly": 3250,
      " trebala": 3251,
      " Pari": 3252,
      "cijske": 3253,
      " razloga": 3254,
      " ispla": 3255,
      " zema": 3256,
      "gan": 3257,
      " umjetni": 3258,
      " Luka": 3259,
      "33": 3260,
      "gne": 3261,
      "nite": 3262,
      " dao": 3263,
      " odgovara": 3264,
      " Har": 3265,
      " Kar": 3266,
      "rske": 3267,
      "ray": 3268,
      " doče": 3269,
      " posljedi": 3270,
      " cijeli": 3271,
      " Europe": 3272,
      " stvarno": 3273,
      " New": 3274,
      " ožu": 3275,
      "sjeća": 3276,
      "Bilo": 3277,
      " iznim": 3278,
      " računa": 3279,
      " ukupno": 3280,
      "Tije": 3281,
      " cje": 3282,
      "bla": 3283,
      " uzro": 3284,
      "85": 3285,
      " prora": 3286,
      " parki": 3287,
      " srpnja": 3288,
      " živi": 3289,
      " socija": 3290,
      " napisao": 3291,
      " prijed": 3292,
      " per": 3293,
      " korište": 3294,
      " pobolj": 3295,
      "tac": 3296,
      " elektri": 3297,
      " nekretni": 3298,
      "Poli": 3299,
      "nese": 3300,
      "miti": 3301,
      " dodatno": 3302,
      " Modri": 3303,
      " sklopu": 3304,
      " listopada": 3305,
      " materija": 3306,
      " država": 3307,
      "Image": 3308,
      " pruža": 3309,
      " Fili": 3310,
      " ispriča": 3311,
      "upa": 3312,
      " NA": 3313,
      "lazak": 3314,
      " moj": 3315,
      " bes": 3316,
      "Foto": 3317,
      " premi": 3318,
      "\":\"\"\",": 3319,
      " žene": 3320,
      "lika": 3321,
      " pripa": 3322,
      " Kon": 3323,
      " Gu": 3324,
      "čuje": 3325,
      " vrata": 3326,
      " umi": 3327,
      " stre": 3328,
      "Danas": 3329,
      " nevje": 3330,
      " kupa": 3331,
      " mlade": 3332,
      " dati": 3333,
      " rast": 3334,
      " tiče": 3335,
      "rama": 3336,
      " uvo": 3337,
      " reda": 3338,
      " reprezentacije": 3339,
      "qu": 3340,
      " show": 3341,
      " am": 3342,
      "-godišnji": 3343,
      " lige": 3344,
      " moramo": 3345,
      " tjedan": 3346,
      "raca": 3347,
      "koho": 3348,
      " početka": 3349,
      " opasno": 3350,
      "ras": 3351,
      " epi": 3352,
      " sadrža": 3353,
      " Marija": 3354,
      " Dalma": 3355,
      " Her": 3356,
      " razgovara": 3357,
      " ostati": 3358,
      " građana": 3359,
      " mladih": 3360,
      " ovim": 3361,
      " dozna": 3362,
      " previše": 3363,
      " uglavnom": 3364,
      " kolu": 3365,
      " Dan": 3366,
      " predvi": 3367,
      "ya": 3368,
      " obe": 3369,
      " Tomi": 3370,
      " Ukrajini": 3371,
      " podršku": 3372,
      " jednostavno": 3373,
      " pacije": 3374,
      "pušte": 3375,
      "Pi": 3376,
      "rvo": 3377,
      "ljeni": 3378,
      " god": 3379,
      "šio": 3380,
      " Europi": 3381,
      " hoće": 3382,
      "lnici": 3383,
      "razu": 3384,
      "VIDEO": 3385,
      " ple": 3386,
      " zada": 3387,
      " koša": 3388,
      " preuze": 3389,
      " rekor": 3390,
      " RT": 3391,
      " barem": 3392,
      " automobila": 3393,
      "FOTO": 3394,
      " dozvo": 3395,
      "mili": 3396,
      " Slove": 3397,
      "Bio": 3398,
      " trans": 3399,
      " zemalja": 3400,
      "ber": 3401,
      " prijatelj": 3402,
      " drugog": 3403,
      "struktu": 3404,
      " vodst": 3405,
      " nekim": 3406,
      " ulogu": 3407,
      "klu": 3408,
      "mosfe": 3409,
      " važno": 3410,
      " dodaje": 3411,
      "Sta": 3412,
      " veliku": 3413,
      " Bri": 3414,
      " strate": 3415,
      " sigurnosti": 3416,
      " kolovoza": 3417,
      " Por": 3418,
      " vrijednosti": 3419,
      " priti": 3420,
      " prvenstva": 3421,
      " ograni": 3422,
      "niku": 3423,
      " Svjet": 3424,
      "vjeti": 3425,
      " defi": 3426,
      " najmanje": 3427,
      " odluku": 3428,
      " polo": 3429,
      " kuća": 3430,
      "vremenu": 3431,
      "47": 3432,
      "vina": 3433,
      " susje": 3434,
      "tske": 3435,
      " dobila": 3436,
      "jutro": 3437,
      " završe": 3438,
      " gubi": 3439,
      "fu": 3440,
      "snih": 3441,
      " prima": 3442,
      " norma": 3443,
      "tiva": 3444,
      "žena": 3445,
      " vike": 3446,
      " uopće": 3447,
      "skoro": 3448,
      " projekti": 3449,
      "tski": 3450,
      " navede": 3451,
      " čovjek": 3452,
      " iskoristi": 3453,
      " Rijeke": 3454,
      "slje": 3455,
      "vid": 3456,
      "mila": 3457,
      " mobi": 3458,
      ";.\n": 3459,
      " ošte": 3460,
      "like": 3461,
      " dalj": 3462,
      ";ena": 3463,
      " okoli": 3464,
      " počinje": 3465,
      "Du": 3466,
      "bilje": 3467,
      " velja": 3468,
      "-i": 3469,
      "gno": 3470,
      " umjesto": 3471,
      "Ca": 3472,
      " Ber": 3473,
      " doka": 3474,
      " diljem": 3475,
      " programa": 3476,
      " polufina": 3477,
      "skr": 3478,
      "kul": 3479,
      " hu": 3480,
      " treni": 3481,
      "Ju": 3482,
      "by": 3483,
      "rova": 3484,
      "pad": 3485,
      " odluka": 3486,
      " brojne": 3487,
      " izrael": 3488,
      "škom": 3489,
      " njezin": 3490,
      " Europske": 3491,
      "Di": 3492,
      "lla": 3493,
      " profi": 3494,
      ";en": 3495,
      " troško": 3496,
      "Još": 3497,
      "55": 3498,
      " loše": 3499,
      " različi": 3500,
      " Rijeka": 3501,
      "jedinje": 3502,
      " direktor": 3503,
      " svibnja": 3504,
      " uze": 3505,
      " dogovo": 3506,
      "stina": 3507,
      "luje": 3508,
      "čen": 3509,
      " gro": 3510,
      " kompa": 3511,
      " prila": 3512,
      " putu": 3513,
      " stari": 3514,
      " lak": 3515,
      " njihova": 3516,
      " televizi": 3517,
      " X": 3518,
      "500": 3519,
      "Se": 3520,
      "vlji": 3521,
      "teo": 3522,
      " priopće": 3523,
      " reali": 3524,
      ";iti": 3525,
      "kove": 3526,
      "tru": 3527,
      "nili": 3528,
      " naša": 3529,
      " mjesec": 3530,
      " dopri": 3531,
      " sazna": 3532,
      " bivše": 3533,
      " naba": 3534,
      "ćeni": 3535,
      "šati": 3536,
      " meni": 3537,
      "vana": 3538,
      " izbore": 3539,
      " nastaviti": 3540,
      " raspra": 3541,
      " shvati": 3542,
      " presu": 3543,
      " područja": 3544,
      " natjecanja": 3545,
      " reagi": 3546,
      ";ke": 3547,
      "RI": 3548,
      "snim": 3549,
      "ćina": 3550,
      " Drža": 3551,
      "štvu": 3552,
      " alkoho": 3553,
      " naših": 3554,
      "ns": 3555,
      "nskim": 3556,
      "tija": 3557,
      "čeni": 3558,
      "mer": 3559,
      "snog": 3560,
      "tije": 3561,
      " traži": 3562,
      " profesi": 3563,
      " ozna": 3564,
      " blo": 3565,
      "dal": 3566,
      "mima": 3567,
      " posljednje": 3568,
      " žrt": 3569,
      " Ste": 3570,
      " zrako": 3571,
      " zausta": 3572,
      " tehnologi": 3573,
      "val": 3574,
      "Nema": 3575,
      " oruž": 3576,
      "kinja": 3577,
      " prosvje": 3578,
      "rastruktu": 3579,
      " nagla": 3580,
      " napusti": 3581,
      "ljev": 3582,
      "Jedan": 3583,
      " devet": 3584,
      " oku": 3585,
      " ugovor": 3586,
      " prika": 3587,
      " gola": 3588,
      "ing": 3589,
      " ljubav": 3590,
      " Gor": 3591,
      "kro": 3592,
      " jedin": 3593,
      "njuje": 3594,
      " obrane": 3595,
      " stručnja": 3596,
      "tlji": 3597,
      "šni": 3598,
      " prekrša": 3599,
      " hra": 3600,
      " pitanju": 3601,
      "Tijekom": 3602,
      " San": 3603,
      "spje": 3604,
      " zabra": 3605,
      " znaju": 3606,
      " duž": 3607,
      " dostup": 3608,
      "žemo": 3609,
      "mbo": 3610,
      "tila": 3611,
      "podne": 3612,
      " napad": 3613,
      " atmosfe": 3614,
      " RTL": 3615,
      " seku": 3616,
      " redu": 3617,
      "formi": 3618,
      "BC": 3619,
      "đar": 3620,
      "boo": 3621,
      "tnost": 3622,
      " igrao": 3623,
      " cijelo": 3624,
      " jugo": 3625,
      "Dok": 3626,
      "kta": 3627,
      "mana": 3628,
      "stom": 3629,
      " tijelo": 3630,
      "godišnji": 3631,
      " sat": 3632,
      "ela": 3633,
      " dre": 3634,
      " okre": 3635,
      " zadrža": 3636,
      "Ccaron": 3637,
      "var": 3638,
      " preh": 3639,
      "čenja": 3640,
      " liječ": 3641,
      "stao": 3642,
      " gosti": 3643,
      " cent": 3644,
      "Li": 3645,
      " zdravlje": 3646,
      " iznad": 3647,
      " ruko": 3648,
      "blju": 3649,
      " asi": 3650,
      "čine": 3651,
      " proraču": 3652,
      "mani": 3653,
      " priop": 3654,
      " događaja": 3655,
      "žalost": 3656,
      " vraća": 3657,
      "celo": 3658,
      " odluke": 3659,
      "mpo": 3660,
      "mpi": 3661,
      " pli": 3662,
      " tijela": 3663,
      " njegovu": 3664,
      " iskustvo": 3665,
      "čitajte": 3666,
      "dran": 3667,
      "vak": 3668,
      " sigurnost": 3669,
      " vratiti": 3670,
      " energe": 3671,
      " Bru": 3672,
      " voli": 3673,
      " stigao": 3674,
      " zabora": 3675,
      " francu": 3676,
      " ostao": 3677,
      " Jadra": 3678,
      "Samo": 3679,
      " sprije": 3680,
      " jest": 3681,
      " sutra": 3682,
      "ceboo": 3683,
      "Raz": 3684,
      " infrastruktu": 3685,
      "La": 3686,
      "jska": 3687,
      " ujutro": 3688,
      "vilo": 3689,
      " korak": 3690,
      " traže": 3691,
      " ostali": 3692,
      " cesta": 3693,
      " izrazi": 3694,
      ";ak": 3695,
      " kuha": 3696,
      " kontak": 3697,
      " početkom": 3698,
      "žne": 3699,
      " finala": 3700,
      "Podsjetimo": 3701,
      " zakon": 3702,
      " prvoj": 3703,
      " majka": 3704,
      "čića": 3705,
      " koriste": 3706,
      "Treba": 3707,
      "kov": 3708,
      " zanima": 3709,
      " sudio": 3710,
      " najva": 3711,
      " boda": 3712,
      " Hrvatskog": 3713,
      "fici": 3714,
      " Array": 3715,
      " smrti": 3716,
      " mediji": 3717,
      " energije": 3718,
      " naz": 3719,
      " strani": 3720,
      " zele": 3721,
      " informacije": 3722,
      "ir": 3723,
      "mac": 3724,
      " TV": 3725,
      " identi": 3726,
      " Lige": 3727,
      "Le": 3728,
      " Sto": 3729,
      " tema": 3730,
      " upa": 3731,
      "dama": 3732,
      " pristup": 3733,
      "por": 3734,
      " Zadar": 3735,
      " borbe": 3736,
      " navodno": 3737,
      " ca": 3738,
      " ke": 3739,
      "ps": 3740,
      " nave": 3741,
      "čice": 3742,
      " stanje": 3743,
      " ispa": 3744,
      " uspio": 3745,
      " čime": 3746,
      " blizi": 3747,
      " siječnja": 3748,
      " ubr": 3749,
      " Osije": 3750,
      "Sada": 3751,
      " prvenstvu": 3752,
      " najavio": 3753,
      " interne": 3754,
      " zvu": 3755,
      "sio": 3756,
      " Ge": 3757,
      " Njemačkoj": 3758,
      "Au": 3759,
      " učin": 3760,
      " globa": 3761,
      " završio": 3762,
      " došli": 3763,
      " hrane": 3764,
      "ćim": 3765,
      " prijet": 3766,
      "vljeno": 3767,
      " klubo": 3768,
      " prosinca": 3769,
      " ski": 3770,
      "njen": 3771,
      " skupine": 3772,
      "mnji": 3773,
      "ol": 3774,
      " posu": 3775,
      " HRT": 3776,
      " dolaze": 3777,
      " aktual": 3778,
      " Že": 3779,
      "ćima": 3780,
      "gita": 3781,
      " svemu": 3782,
      " HNL": 3783,
      "vrije": 3784,
      " poh": 3785,
      " anti": 3786,
      ";em": 3787,
      " proizvoda": 3788,
      " nju": 3789,
      " nau": 3790,
      " daleko": 3791,
      " izmje": 3792,
      " centra": 3793,
      "jnu": 3794,
      " seksu": 3795,
      " resto": 3796,
      " novim": 3797,
      " evo": 3798,
      " čet": 3799,
      " tehni": 3800,
      "vale": 3801,
      " age": 3802,
      " protu": 3803,
      " rado": 3804,
      "gna": 3805,
      "tnici": 3806,
      " dodala": 3807,
      "jam": 3808,
      " proti": 3809,
      " Zla": 3810,
      " demokra": 3811,
      "rite": 3812,
      "cep": 3813,
      " sezonu": 3814,
      " procje": 3815,
      " mišlje": 3816,
      " odlučio": 3817,
      " nastavlja": 3818,
      "rku": 3819,
      "nina": 3820,
      " mr": 3821,
      " preporu": 3822,
      " tvrtka": 3823,
      " zahvalju": 3824,
      "sh": 3825,
      "ljene": 3826,
      "tnik": 3827,
      " omogući": 3828,
      "rin": 3829,
      " rat": 3830,
      "čević": 3831,
      " iste": 3832,
      " Vladi": 3833,
      " uoči": 3834,
      " noći": 3835,
      " lege": 3836,
      " ljeta": 3837,
      " slučaj": 3838,
      " supruga": 3839,
      "Dina": 3840,
      "ćoj": 3841,
      ";in": 3842,
      " znanstve": 3843,
      "bur": 3844,
      " čiji": 3845,
      "Mar": 3846,
      "žbi": 3847,
      "kuju": 3848,
      " osvaja": 3849,
      "kovića": 3850,
      "Gla": 3851,
      "renciji": 3852,
      "lega": 3853,
      " kape": 3854,
      " radova": 3855,
      " standar": 3856,
      " krea": 3857,
      " prostora": 3858,
      "lili": 3859,
      " nače": 3860,
      " zabri": 3861,
      " mani": 3862,
      " vjero": 3863,
      " #": 3864,
      " of": 3865,
      " RH": 3866,
      " polica": 3867,
      " kazali": 3868,
      "rine": 3869,
      "čeno": 3870,
      " NATO": 3871,
      " Bje": 3872,
      " Usta": 3873,
      " postala": 3874,
      " situaciju": 3875,
      "ćom": 3876,
      " savrše": 3877,
      " The": 3878,
      "čnoj": 3879,
      " kandidata": 3880,
      " komunika": 3881,
      " doba": 3882,
      " proši": 3883,
      "ser": 3884,
      " obzira": 3885,
      " sposob": 3886,
      " osobito": 3887,
      "jskih": 3888,
      "vici": 3889,
      "uth": 3890,
      "-om": 3891,
      " nastup": 3892,
      " pridru": 3893,
      "grama": 3894,
      " koali": 3895,
      "stoji": 3896,
      " mjere": 3897,
      " Upra": 3898,
      " pokazuje": 3899,
      " uprave": 3900,
      "ženi": 3901,
      ";enje": 3902,
      " plaće": 3903,
      "795": 3904,
      "nsku": 3905,
      "rska": 3906,
      " sni": 3907,
      "rović": 3908,
      "vamo": 3909,
      " odgo": 3910,
      " kratko": 3911,
      "39": 3912,
      "nos": 3913,
      "dinu": 3914,
      " sunča": 3915,
      " presta": 3916,
      " vezi": 3917,
      " Madri": 3918,
      " Beogra": 3919,
      " mogućnost": 3920,
      "JA": 3921,
      " savez": 3922,
      " ispra": 3923,
      " ruke": 3924,
      " kazala": 3925,
      "ncu": 3926,
      "mena": 3927,
      " Bro": 3928,
      " maksi": 3929,
      " jednoj": 3930,
      "cionira": 3931,
      " okvi": 3932,
      " drugači": 3933,
      " parlamenta": 3934,
      "65": 3935,
      " svakom": 3936,
      " životi": 3937,
      " nadle": 3938,
      " primjer": 3939,
      " upi": 3940,
      " zi": 3941,
      " prometa": 3942,
      " prihvati": 3943,
      "ziju": 3944,
      " razgovo": 3945,
      " prilika": 3946,
      " našim": 3947,
      "ana": 3948,
      " ek": 3949,
      " gradonačelnik": 3950,
      "RA": 3951,
      " koma": 3952,
      "38": 3953,
      " zabilje": 3954,
      " priče": 3955,
      " svojom": 3956,
      " Lju": 3957,
      " Od": 3958,
      " nogome": 3959,
      "Ona": 3960,
      "rski": 3961,
      " uskoro": 3962,
      " održi": 3963,
      "siju": 3964,
      " riječi": 3965,
      "ity": 3966,
      "image": 3967,
      " Srbije": 3968,
      "nicija": 3969,
      " nakna": 3970,
      " skup": 3971,
      "valo": 3972,
      " naravno": 3973,
      " imam": 3974,
      " traje": 3975,
      " društva": 3976,
      " smjeru": 3977,
      ";ni": 3978,
      " vese": 3979,
      " specija": 3980,
      "37": 3981,
      "Zcaron": 3982,
      "jedna": 3983,
      " Par": 3984,
      " jučer": 3985,
      "štine": 3986,
      "stiti": 3987,
      "zacije": 3988,
      " ljubi": 3989,
      " dijela": 3990,
      " zaključio": 3991,
      "Sto": 3992,
      "dnim": 3993,
      " inače": 3994,
      " poklo": 3995,
      " sjeća": 3996,
      "Pročitajte": 3997,
      " filma": 3998,
      " minute": 3999,
      ";ne": 4000,
      "nku": 4001,
      " supro": 4002,
      " sabor": 4003,
      "sen": 4004,
      " visoko": 4005,
      "jeve": 4006,
      " ino": 4007,
      " imovi": 4008,
      " pala": 4009,
      " Šu": 4010,
      " društvo": 4011,
      " pokazala": 4012,
      " napisala": 4013,
      "cha": 4014,
      "raz": 4015,
      " ozlje": 4016,
      " fotografije": 4017,
      " dokumenta": 4018,
      "48": 4019,
      " površi": 4020,
      " preu": 4021,
      " stabi": 4022,
      "198": 4023,
      " klubu": 4024,
      " susret": 4025,
      " koristiti": 4026,
      "In": 4027,
      "Prvi": 4028,
      " zaista": 4029,
      " veze": 4030,
      " stvori": 4031,
      " nemaju": 4032,
      " pokazao": 4033,
      " foku": 4034,
      " zadovo": 4035,
      " pjesme": 4036,
      " ap": 4037,
      " odo": 4038,
      "zirati": 4039,
      "zan": 4040,
      " vrti": 4041,
      " državlja": 4042,
      " intenzi": 4043,
      "rnih": 4044,
      "listi": 4045,
      "reno": 4046,
      "čena": 4047,
      " pobjeda": 4048,
      " studi": 4049,
      " nekih": 4050,
      " susreta": 4051,
      " Faceboo": 4052,
      " poljoprivre": 4053,
      " drugu": 4054,
      " inci": 4055,
      "bru": 4056,
      "ćenja": 4057,
      " priho": 4058,
      "deo": 4059,
      " vru": 4060,
      "čara": 4061,
      "tle": 4062,
      "yo": 4063,
      " otac": 4064,
      " stati": 4065,
      "Dakle": 4066,
      "Ot": 4067,
      "um": 4068,
      "žnju": 4069,
      "kade": 4070,
      ";ili": 4071,
      " početku": 4072,
      " kvalifika": 4073,
      " radni": 4074,
      " njezina": 4075,
      " novca": 4076,
      " dubo": 4077,
      " građani": 4078,
      " rješenje": 4079,
      " klasi": 4080,
      " umiro": 4081,
      ";an": 4082,
      "rnosti": 4083,
      "Lu": 4084,
      "ul": 4085,
      "tira": 4086,
      " ugro": 4087,
      " anga": 4088,
      " kće": 4089,
      " takav": 4090,
      "ljka": 4091,
      " postaje": 4092,
      " primije": 4093,
      " postati": 4094,
      " ići": 4095,
      " dobri": 4096,
      "dera": 4097,
      " trenera": 4098,
      ";ava": 4099,
      "Više": 4100,
      " Izrael": 4101,
      "Dinamo": 4102,
      "St": 4103,
      "zbo": 4104,
      " uboj": 4105,
      " izd": 4106,
      " mali": 4107,
      " rođen": 4108,
      " ovak": 4109,
      " moje": 4110,
      "ćuje": 4111,
      "škog": 4112,
      " napravio": 4113,
      " našeg": 4114,
      "šnjava": 4115,
      " kilometara": 4116,
      "gencije": 4117,
      " pogre": 4118,
      " sama": 4119,
      " ozljede": 4120,
      "Hrvatski": 4121,
      " karijere": 4122,
      " okupi": 4123,
      " novom": 4124,
      "Evo": 4125,
      "Mnog": 4126,
      " dođe": 4127,
      " Bel": 4128,
      " provodi": 4129,
      "min": 4130,
      " prihva": 4131,
      " stanju": 4132,
      " velikim": 4133,
      " albu": 4134,
      " ljubavi": 4135,
      " javnost": 4136,
      "Ti": 4137,
      " treći": 4138,
      "Zato": 4139,
      "tivna": 4140,
      " uspješ": 4141,
      "42": 4142,
      "\\/": 4143,
      "laska": 4144,
      " Gla": 4145,
      "Ono": 4146,
      "jati": 4147,
      " Polju": 4148,
      " pojača": 4149,
      " navode": 4150,
      " ska": 4151,
      " dobra": 4152,
      "plika": 4153,
      "nose": 4154,
      "znu": 4155,
      ";eni": 4156,
      " para": 4157,
      " ostaje": 4158,
      "đenih": 4159,
      " obeća": 4160,
      "kada": 4161,
      " svakako": 4162,
      " cijelu": 4163,
      " drugoj": 4164,
      " mnoge": 4165,
      " stanovni": 4166,
      "tuga": 4167,
      " potrebe": 4168,
      " koncert": 4169,
      " blag": 4170,
      "Policija": 4171,
      "wa": 4172,
      "tek": 4173,
      " Tr": 4174,
      " Itali": 4175,
      " utje": 4176,
      "dilo": 4177,
      " izuze": 4178,
      "Neki": 4179,
      " pogotovo": 4180,
      " profeso": 4181,
      " naru": 4182,
      "ljeno": 4183,
      " ožujka": 4184,
      " blizini": 4185,
      "Ho": 4186,
      "vju": 4187,
      "veze": 4188,
      "nulo": 4189,
      "miru": 4190,
      ";ila": 4191,
      ";aj": 4192,
      " škol": 4193,
      "kola": 4194,
      " dvoji": 4195,
      " potica": 4196,
      " tali": 4197,
      " promjena": 4198,
      " Trump": 4199,
      " mogućnosti": 4200,
      "300": 4201,
      "Cije": 4202,
      " Dali": 4203,
      " njim": 4204,
      "brani": 4205,
      " plu": 4206,
      "dnije": 4207,
      " uslije": 4208,
      " Ša": 4209,
      " počeo": 4210,
      " snaga": 4211,
      " rezultate": 4212,
      " kulture": 4213,
      " izgubio": 4214,
      "the": 4215,
      " naglasio": 4216,
      "Naravno": 4217,
      " Car": 4218,
      " igrali": 4219,
      " ovako": 4220,
      " fakul": 4221,
      " jedini": 4222,
      " Herce": 4223,
      " seksual": 4224,
      "KO": 4225,
      "est": 4226,
      " skri": 4227,
      "nal": 4228,
      "teri": 4229,
      "ler": 4230,
      " Dru": 4231,
      " digita": 4232,
      " uspjeli": 4233,
      " uređa": 4234,
      " pjesmu": 4235,
      " eksplo": 4236,
      "ye": 4237,
      " nao": 4238,
      " noć": 4239,
      "ger": 4240,
      " politike": 4241,
      " pronaći": 4242,
      " pokreta": 4243,
      " došla": 4244,
      "bama": 4245,
      " redo": 4246,
      "stoj": 4247,
      " sina": 4248,
      " ovoga": 4249,
      " probleme": 4250,
      " sin": 4251,
      " sezoni": 4252,
      "Vla": 4253,
      " asiste": 4254,
      " povo": 4255,
      " plan": 4256,
      " broja": 4257,
      " centar": 4258,
      " gosto": 4259,
      "njih": 4260,
      " krajem": 4261,
      "ght": 4262,
      ";be": 4263,
      "ker": 4264,
      " radu": 4265,
      "zin": 4266,
      " derbi": 4267,
      " sredstva": 4268,
      " Parizu": 4269,
      "cka": 4270,
      "jskom": 4271,
      " ubije": 4272,
      " svake": 4273,
      " Real": 4274,
      " finale": 4275,
      " ljeto": 4276,
      "44": 4277,
      "vda": 4278,
      " porta": 4279,
      " znamo": 4280,
      "drav": 4281,
      " medija": 4282,
      " vratio": 4283,
      " dosad": 4284,
      "rnica": 4285,
      " budućnosti": 4286,
      "rie": 4287,
      " nase": 4288,
      " htje": 4289,
      " stro": 4290,
      " kombina": 4291,
      " poraza": 4292,
      " Župa": 4293,
      " intervju": 4294,
      "tost": 4295,
      " kata": 4296,
      "ćena": 4297,
      " obno": 4298,
      " City": 4299,
      " podru": 4300,
      " usmje": 4301,
      " naslov": 4302,
      " stup": 4303,
      " najvaž": 4304,
      "Lo": 4305,
      "Taj": 4306,
      " okuplja": 4307,
      " topli": 4308,
      " reži": 4309,
      " većina": 4310,
      "ments": 4311,
      "snom": 4312,
      "rup": 4313,
      " priču": 4314,
      " mandata": 4315,
      " ocje": 4316,
      "ljep": 4317,
      "sad": 4318,
      "šića": 4319,
      " prvih": 4320,
      " česti": 4321,
      "štaj": 4322,
      " automobil": 4323,
      " raspore": 4324,
      " zanimlji": 4325,
      " svlada": 4326,
      " udar": 4327,
      " trebaju": 4328,
      "lnost": 4329,
      " Lasa": 4330,
      "jama": 4331,
      " izved": 4332,
      " prvenstvo": 4333,
      " objasnio": 4334,
      " epizo": 4335,
      "boru": 4336,
      " redovi": 4337,
      " nudi": 4338,
      "mla": 4339,
      "minali": 4340,
      " građe": 4341,
      " roditelji": 4342,
      " ekipa": 4343,
      "gri": 4344,
      " postu": 4345,
      "voru": 4346,
      " imate": 4347,
      " Lon": 4348,
      " Fo": 4349,
      " hrvatskom": 4350,
      " ukra": 4351,
      " simbo": 4352,
      " trenutak": 4353,
      " Kova": 4354,
      " društvu": 4355,
      " iznimno": 4356,
      "BA": 4357,
      "sk": 4358,
      " moja": 4359,
      ";eli": 4360,
      "vnost": 4361,
      " stranka": 4362,
      " završ": 4363,
      " ulaz": 4364,
      " najboljih": 4365,
      " Ministarstva": 4366,
      " talijan": 4367,
      "djela": 4368,
      "đuju": 4369,
      "gledajte": 4370,
      " zatvore": 4371,
      " unije": 4372,
      "vile": 4373,
      " zavo": 4374,
      " Gru": 4375,
      " pokazuju": 4376,
      "Nisam": 4377,
      "Pla": 4378,
      "lacije": 4379,
      " našu": 4380,
      " kojemu": 4381,
      " prijevo": 4382,
      " vjenča": 4383,
      " poziva": 4384,
      " uspjeh": 4385,
      " zajednice": 4386,
      " Super": 4387,
      " glasova": 4388,
      "vit": 4389,
      " konzu": 4390,
      " uzbu": 4391,
      " Splita": 4392,
      "žnosni": 4393,
      " suradnji": 4394,
      " učiniti": 4395,
      "Sre": 4396,
      "vcu": 4397,
      "tive": 4398,
      " iskre": 4399,
      " dječ": 4400,
      "pr": 4401,
      " povu": 4402,
      " zamije": 4403,
      "pora": 4404,
      "skoga": 4405,
      "šević": 4406,
      " ele": 4407,
      " cilje": 4408,
      "šnjeg": 4409,
      " temperatura": 4410,
      "VD": 4411,
      "naca": 4412,
      " nega": 4413,
      "njena": 4414,
      "zozem": 4415,
      " finalu": 4416,
      " inteli": 4417,
      " osigura": 4418,
      " nesreće": 4419,
      "Dje": 4420,
      "ds": 4421,
      "mrt": 4422,
      "tfina": 4423,
      "žna": 4424,
      " agre": 4425,
      " avio": 4426,
      " dose": 4427,
      " vid": 4428,
      " statu": 4429,
      " loptu": 4430,
      "Ove": 4431,
      " igrači": 4432,
      " dvoje": 4433,
      " situacije": 4434,
      "nec": 4435,
      "kim": 4436,
      " predi": 4437,
      "zirao": 4438,
      " regu": 4439,
      " vaš": 4440,
      " potpisa": 4441,
      "196": 4442,
      "rci": 4443,
      "rnu": 4444,
      " the": 4445,
      " migra": 4446,
      " pam": 4447,
      " razlog": 4448,
      "tković": 4449,
      " trenuta": 4450,
      " informacija": 4451,
      " svr": 4452,
      " poko": 4453,
      " daje": 4454,
      "čaje": 4455,
      " Tur": 4456,
      " Gi": 4457,
      " Maksi": 4458,
      " znati": 4459,
      "Jedna": 4460,
      "mova": 4461,
      "njim": 4462,
      " inicija": 4463,
      " lijepo": 4464,
      " zaštite": 4465,
      " imena": 4466,
      "mentu": 4467,
      " iskustva": 4468,
      " Josip": 4469,
      " jedinstve": 4470,
      "67": 4471,
      "Tko": 4472,
      " bolnici": 4473,
      " autobu": 4474,
      " reprezentacija": 4475,
      " Jadranu": 4476,
      "nskoj": 4477,
      " Hu": 4478,
      " Kla": 4479,
      " ceste": 4480,
      " očito": 4481,
      "kati": 4482,
      "vec": 4483,
      "ziva": 4484,
      " visi": 4485,
      " diplo": 4486,
      " Jan": 4487,
      "-godišnjak": 4488,
      " otišao": 4489,
      " popra": 4490,
      " odnos": 4491,
      "090": 4492,
      " objek": 4493,
      " posljednji": 4494,
      " ulici": 4495,
      " tržištu": 4496,
      " lakše": 4497,
      "Isto": 4498,
      " iska": 4499,
      " vele": 4500,
      "put": 4501,
      " Ci": 4502,
      " tvrde": 4503,
      " ljest": 4504,
      " zraka": 4505,
      " Če": 4506,
      "036": 4507,
      "ak": 4508,
      " opra": 4509,
      " poe": 4510,
      "cikli": 4511,
      " točno": 4512,
      " govore": 4513,
      " poznati": 4514,
      " obla": 4515,
      "197": 4516,
      " zvijezda": 4517,
      " navi": 4518,
      " list": 4519,
      " osvojila": 4520,
      " potvrdio": 4521,
      "vani": 4522,
      " Sin": 4523,
      " prakti": 4524,
      " ruku": 4525,
      " okolnosti": 4526,
      " kandidat": 4527,
      " Dubrovnik": 4528,
      "Predsjednik": 4529,
      " Instagramu": 4530,
      "57": 4531,
      "sc": 4532,
      " super": 4533,
      " Bre": 4534,
      " [_": 4535,
      " karijeri": 4536,
      " razumije": 4537,
      " poboljša": 4538,
      " javlja": 4539,
      " odnosi": 4540,
      " sed": 4541,
      " kreta": 4542,
      " inozem": 4543,
      "58": 4544,
      "91": 4545,
      " lice": 4546,
      "ljko": 4547,
      " svaka": 4548,
      " Sara": 4549,
      " prilago": 4550,
      "hom": 4551,
      " proizvođa": 4552,
      "vljuje": 4553,
      " priopćenju": 4554,
      "tona": 4555,
      " komi": 4556,
      "zaciju": 4557,
      "rnice": 4558,
      " unutra": 4559,
      " razdoblju": 4560,
      "komo": 4561,
      "laže": 4562,
      " Vr": 4563,
      " kupo": 4564,
      "govarati": 4565,
      " razvoja": 4566,
      "Tra": 4567,
      " nepri": 4568,
      " obrani": 4569,
      " dužnosni": 4570,
      " scena": 4571,
      " incide": 4572,
      "988": 4573,
      "ff": 4574,
      "jsku": 4575,
      "sigu": 4576,
      " meta": 4577,
      "tivnih": 4578,
      "ntima": 4579,
      " postavlja": 4580,
      "proda": 4581,
      " istraživanje": 4582,
      " Zoran": 4583,
      "Is": 4584,
      "SS": 4585,
      "tte": 4586,
      "yer": 4587,
      "nuta": 4588,
      " stoga": 4589,
      "slava": 4590,
      " poraz": 4591,
      "ssi": 4592,
      " DP": 4593,
      " Mate": 4594,
      " Udru": 4595,
      " ostale": 4596,
      " hrvatska": 4597,
      " onaj": 4598,
      " zrakoplo": 4599,
      "OR": 4600,
      " zad": 4601,
      " kapa": 4602,
      "gara": 4603,
      " gre": 4604,
      "nijeg": 4605,
      "brova": 4606,
      " vidjeli": 4607,
      " povijest": 4608,
      " zatra": 4609,
      " kora": 4610,
      " karak": 4611,
      " izvor": 4612,
      " moru": 4613,
      "zacija": 4614,
      " vidio": 4615,
      " razo": 4616,
      " bora": 4617,
      "vniku": 4618,
      " želim": 4619,
      " različiti": 4620,
      " dogodila": 4621,
      "69": 4622,
      "rnog": 4623,
      "dit": 4624,
      " moto": 4625,
      " teren": 4626,
      "solu": 4627,
      "270": 4628,
      " tenisa": 4629,
      " njoj": 4630,
      " osjeti": 4631,
      " radnika": 4632,
      "ženo": 4633,
      "gije": 4634,
      " stigla": 4635,
      " komentirao": 4636,
      "Prvo": 4637,
      " gori": 4638,
      " strada": 4639,
      "rnika": 4640,
      " velikom": 4641,
      "koliko": 4642,
      " upisa": 4643,
      " serije": 4644,
      " klima": 4645,
      "čari": 4646,
      " edu": 4647,
      " stalno": 4648,
      " govorio": 4649,
      " partner": 4650,
      " raste": 4651,
      " veće": 4652,
      ";enja": 4653,
      "dnica": 4654,
      " prijatelji": 4655,
      " sezona": 4656,
      " zatvora": 4657,
      " nekada": 4658,
      " borbi": 4659,
      " pohvali": 4660,
      "us": 4661,
      "reda": 4662,
      " popla": 4663,
      " privla": 4664,
      " more": 4665,
      "bav": 4666,
      " listi": 4667,
      " održati": 4668,
      "49": 4669,
      "NI": 4670,
      "nche": 4671,
      "rira": 4672,
      "vine": 4673,
      "pisi": 4674,
      " Eu": 4675,
      " Poli": 4676,
      " odgovorio": 4677,
      " svakog": 4678,
      " zakona": 4679,
      " unatoč": 4680,
      " Nikola": 4681,
      " psiho": 4682,
      " skr": 4683,
      " Don": 4684,
      " rješenja": 4685,
      " našoj": 4686,
      "Riječ": 4687,
      "ljenje": 4688,
      " sveča": 4689,
      " razliku": 4690,
      " našem": 4691,
      " zgrade": 4692,
      " spremni": 4693,
      " Portuga": 4694,
      "RO": 4695,
      "kciju": 4696,
      "sca": 4697,
      "stvom": 4698,
      " top": 4699,
      " vina": 4700,
      " nastupi": 4701,
      "Inače": 4702,
      "jana": 4703,
      " kakav": 4704,
      " španjol": 4705,
      ";ene": 4706,
      " odusta": 4707,
      " vrijednost": 4708,
      " osumnji": 4709,
      " umirovlje": 4710,
      "05": 4711,
      "isto": 4712,
      "macija": 4713,
      " bespla": 4714,
      "Ob": 4715,
      "am": 4716,
      "naj": 4717,
      "tice": 4718,
      " odmo": 4719,
      " ter": 4720,
      " titu": 4721,
      " vatre": 4722,
      " kine": 4723,
      " poznato": 4724,
      " kilograma": 4725,
      "žnja": 4726,
      " sru": 4727,
      " golova": 4728,
      " školu": 4729,
      " Anto": 4730,
      " nagradu": 4731,
      " temelju": 4732,
      " Sveučili": 4733,
      " turnira": 4734,
      " milijardi": 4735,
      "66": 4736,
      "we": 4737,
      "zno": 4738,
      "lesti": 4739,
      " Turu": 4740,
      "TA": 4741,
      "kona": 4742,
      "rene": 4743,
      "tetu": 4744,
      " cijele": 4745,
      " Yor": 4746,
      " Slavo": 4747,
      " međunaro": 4748,
      " centru": 4749,
      "ntu": 4750,
      " dom": 4751,
      "pić": 4752,
      " Pla": 4753,
      ";etiri": 4754,
      " treće": 4755,
      " kriminali": 4756,
      " njihovu": 4757,
      " srca": 4758,
      " vremenu": 4759,
      " programu": 4760,
      " Barcelo": 4761,
      " ugosti": 4762,
      " Olimpij": 4763,
      " počela": 4764,
      " zaštitu": 4765,
      " priopći": 4766,
      "tama": 4767,
      "par": 4768,
      " Še": 4769,
      " skupina": 4770,
      ".o": 4771,
      "yja": 4772,
      " donio": 4773,
      " Ante": 4774,
      " navijača": 4775,
      " karijeru": 4776,
      "zmu": 4777,
      "dimo": 4778,
      ";ati": 4779,
      " ostala": 4780,
      " halji": 4781,
      " pribli": 4782,
      " Alek": 4783,
      "vljene": 4784,
      "150": 4785,
      "Fi": 4786,
      "jica": 4787,
      " Cro": 4788,
      " gledati": 4789,
      "cionalno": 4790,
      " navečer": 4791,
      "bacio": 4792,
      "čava": 4793,
      ";etvr": 4794,
      " policij": 4795,
      " premijera": 4796,
      " kategoriji": 4797,
      " Ć": 4798,
      "52": 4799,
      ";ka": 4800,
      "GA": 4801,
      "liga": 4802,
      " dovesti": 4803,
      " prista": 4804,
      "Bila": 4805,
      " osjećaj": 4806,
      " iznos": 4807,
      " budućnost": 4808,
      "Mla": 4809,
      " teri": 4810,
      ";uje": 4811,
      " soli": 4812,
      " takve": 4813,
      "Već": 4814,
      " vijest": 4815,
      "ret": 4816,
      "kin": 4817,
      "njeva": 4818,
      "ćenje": 4819,
      " km": 4820,
      " obrati": 4821,
      " htio": 4822,
      " nesreća": 4823,
      " proces": 4824,
      " omi": 4825,
      " izjedna": 4826,
      "ženja": 4827,
      " Bran": 4828,
      " godišnje": 4829,
      ";aju": 4830,
      " strije": 4831,
      " stoljeća": 4832,
      " mlado": 4833,
      " poruku": 4834,
      " europskih": 4835,
      "Či": 4836,
      "šle": 4837,
      " og": 4838,
      " uka": 4839,
      " neiz": 4840,
      " bitno": 4841,
      " rasta": 4842,
      " trene": 4843,
      " izbori": 4844,
      " međunarod": 4845,
      "Mnogi": 4846,
      "timi": 4847,
      " pošto": 4848,
      " minima": 4849,
      " igraju": 4850,
      " ostalim": 4851,
      " početak": 4852,
      " uvjetima": 4853,
      " pogledajte": 4854,
      " mobite": 4855,
      " dobre": 4856,
      "stoje": 4857,
      " razvija": 4858,
      " Osi": 4859,
      "Pose": 4860,
      " poziv": 4861,
      "Koliko": 4862,
      " kapaci": 4863,
      "Ci": 4864,
      " novča": 4865,
      " školi": 4866,
      " zapovje": 4867,
      " Hercegovi": 4868,
      "130": 4869,
      "Dra": 4870,
      "har": 4871,
      "šen": 4872,
      " jutro": 4873,
      " medije": 4874,
      "Nji": 4875,
      "Una": 4876,
      " ravno": 4877,
      " male": 4878,
      " Toma": 4879,
      " drži": 4880,
      " smatraju": 4881,
      " podataka": 4882,
      " grupe": 4883,
      " odigrao": 4884,
      " članova": 4885,
      " donijeti": 4886,
      "nisti": 4887,
      " provede": 4888,
      " staja": 4889,
      " plas": 4890,
      " muze": 4891,
      " čine": 4892,
      "195": 4893,
      " Kopri": 4894,
      " zahvaljujući": 4895,
      "uthor": 4896,
      "75": 4897,
      " ugovo": 4898,
      "nov": 4899,
      " boje": 4900,
      " povećanje": 4901,
      "Ku": 4902,
      "rnim": 4903,
      " ulazi": 4904,
      " naglasi": 4905,
      " kome": 4906,
      "mice": 4907,
      "šan": 4908,
      " Vin": 4909,
      " zahvali": 4910,
      " Rijeci": 4911,
      " adre": 4912,
      " industri": 4913,
      "nirati": 4914,
      "lacija": 4915,
      "kih": 4916,
      " odr": 4917,
      " poznat": 4918,
      " njezine": 4919,
      " velikih": 4920,
      " Tomislav": 4921,
      " ujedno": 4922,
      " nalaze": 4923,
      "godio": 4924,
      " tera": 4925,
      " Mla": 4926,
      " dina": 4927,
      " objašnjava": 4928,
      " budući": 4929,
      " sredstava": 4930,
      "ttps": 4931,
      "jskim": 4932,
      " potak": 4933,
      " zadnje": 4934,
      "nut": 4935,
      "siti": 4936,
      " Pr": 4937,
      "bert": 4938,
      " inspi": 4939,
      " njegovim": 4940,
      " raspolo": 4941,
      "Ži": 4942,
      " Tra": 4943,
      "ham": 4944,
      " četvrtfina": 4945,
      " maksima": 4946,
      "Kra": 4947,
      "ine": 4948,
      "vimo": 4949,
      " tuži": 4950,
      "terna": 4951,
      " studenog": 4952,
      "lli": 4953,
      "šo": 4954,
      "link": 4955,
      " preo": 4956,
      " Stu": 4957,
      " engle": 4958,
      " tale": 4959,
      "Novi": 4960,
      "klear": 4961,
      " Ukrajine": 4962,
      " završila": 4963,
      " usluga": 4964,
      "tovi": 4965,
      "graf": 4966,
      "nijeti": 4967,
      " lani": 4968,
      " laga": 4969,
      " istaknula": 4970,
      " blizu": 4971,
      " igru": 4972,
      "mlja": 4973,
      "prija": 4974,
      "lizira": 4975,
      "lon": 4976,
      "moć": 4977,
      " nepozna": 4978,
      "dnice": 4979,
      " prednost": 4980,
      "ncima": 4981,
      " Peri": 4982,
      " obavlja": 4983,
      "Mu": 4984,
      "noga": 4985,
      " Sti": 4986,
      " poruka": 4987,
      " udarac": 4988,
      " skladu": 4989,
      " promo": 4990,
      " rake": 4991,
      " lista": 4992,
      " jača": 4993,
      " žive": 4994,
      " izbornik": 4995,
      " autoce": 4996,
      " pravosu": 4997,
      " podacima": 4998,
      " njegovom": 4999,
      " bolnice": 5000,
      " udruge": 5001,
      "Njiho": 5002,
      " odbora": 5003,
      " papi": 5004,
      " Ana": 5005,
      " prošlog": 5006,
      " čovjeka": 5007,
      "Op": 5008,
      "Osta": 5009,
      "svim": 5010,
      " propusti": 5011,
      " stana": 5012,
      " spomi": 5013,
      " istraživanja": 5014,
      " pobijedio": 5015,
      " velikog": 5016,
      "čeki": 5017,
      ";ao": 5018,
      " djeci": 5019,
      " nastavku": 5020,
      "Imamo": 5021,
      " promijeniti": 5022,
      "-e": 5023,
      "šnjem": 5024,
      "ranju": 5025,
      "tivi": 5026,
      ";ima": 5027,
      "žuje": 5028,
      " vrsta": 5029,
      "Možda": 5030,
      " neovi": 5031,
      " dosada": 5032,
      ";na": 5033,
      " plju": 5034,
      " košta": 5035,
      "bičaje": 5036,
      "pije": 5037,
      " kuću": 5038,
      " članovi": 5039,
      " košarka": 5040,
      "tivni": 5041,
      "rigi": 5042,
      " naju": 5043,
      "voren": 5044,
      " Vije": 5045,
      "nijela": 5046,
      " samosta": 5047,
      "snogovo": 5048,
      "illi": 5049,
      " Vlada": 5050,
      " rješa": 5051,
      " nagrade": 5052,
      "//": 5053,
      "Jer": 5054,
      "bice": 5055,
      "ljivi": 5056,
      " znak": 5057,
      " prijatelja": 5058,
      " Ban": 5059,
      " baze": 5060,
      " medijima": 5061,
      " filmu": 5062,
      " Andrej": 5063,
      "46": 5064,
      "ld": 5065,
      "šnjoj": 5066,
      " naći": 5067,
      "tosti": 5068,
      " servi": 5069,
      " izvu": 5070,
      " volje": 5071,
      " staro": 5072,
      " odnose": 5073,
      "Izra": 5074,
      " prostoru": 5075,
      "Video": 5076,
      " pao": 5077,
      "šten": 5078,
      " poznata": 5079,
      "ljom": 5080,
      " um": 5081,
      "nes": 5082,
      " progno": 5083,
      " voda": 5084,
      " predlo": 5085,
      " prednosti": 5086,
      " pravila": 5087,
      " igrače": 5088,
      " riječima": 5089,
      " novinar": 5090,
      " isključi": 5091,
      "naro": 5092,
      " vu": 5093,
      " Bal": 5094,
      " tijeku": 5095,
      " mandat": 5096,
      " arhi": 5097,
      "dbe": 5098,
      "šne": 5099,
      " postupa": 5100,
      " prido": 5101,
      " Hr": 5102,
      " Polj": 5103,
      " nadzor": 5104,
      " ekonom": 5105,
      "Ljubav": 5106,
      " stupnjeva": 5107,
      " °": 5108,
      "AR": 5109,
      " bre": 5110,
      "lovima": 5111,
      ";ini": 5112,
      " Ope": 5113,
      " konkre": 5114,
      " vlade": 5115,
      " jedino": 5116,
      " Ukrajinu": 5117,
      "ticle": 5118,
      "šna": 5119,
      " ratu": 5120,
      "zama": 5121,
      " smislu": 5122,
      " Amerika": 5123,
      "Kon": 5124,
      "Qu": 5125,
      " aplika": 5126,
      " prio": 5127,
      " reze": 5128,
      " indi": 5129,
      " slika": 5130,
      " dogoditi": 5131,
      " sudac": 5132,
      " organizacije": 5133,
      " opora": 5134,
      " ušao": 5135,
      "lici": 5136,
      " bru": 5137,
      " morati": 5138,
      " javnog": 5139,
      "tnice": 5140,
      "snost": 5141,
      " baca": 5142,
      ";uju": 5143,
      " poziciju": 5144,
      " pozvao": 5145,
      " nevjeroja": 5146,
      " Osijek": 5147,
      "://": 5148,
      "slije": 5149,
      "liki": 5150,
      "toj": 5151,
      "strije": 5152,
      " rastu": 5153,
      " masli": 5154,
      " broju": 5155,
      " najvećih": 5156,
      " situaciji": 5157,
      " muškarac": 5158,
      ".)": 5159,
      "ndo": 5160,
      " zadnjih": 5161,
      " odvija": 5162,
      " progla": 5163,
      " prigo": 5164,
      " Mario": 5165,
      " mjera": 5166,
      " napadu": 5167,
      " Varaždina": 5168,
      "Tada": 5169,
      " funkcionira": 5170,
      " Domovinskog": 5171,
      "fri": 5172,
      "rbe": 5173,
      "lit": 5174,
      "Ministar": 5175,
      " izbjega": 5176,
      "400": 5177,
      " Kali": 5178,
      " ruske": 5179,
      " ostalo": 5180,
      " sluša": 5181,
      " roku": 5182,
      " Jadran": 5183,
      " uspješno": 5184,
      " istom": 5185,
      " mreže": 5186,
      " skupini": 5187,
      " obožava": 5188,
      "Bez": 5189,
      " dizaj": 5190,
      " sino": 5191,
      "festa": 5192,
      " Lokomo": 5193,
      " spreman": 5194,
      " nuklear": 5195,
      " susretu": 5196,
      " rizik": 5197,
      " postupak": 5198,
      "Upravo": 5199,
      "lira": 5200,
      " zbi": 5201,
      " prošao": 5202,
      " Per": 5203,
      " godišnji": 5204,
      " Mađar": 5205,
      " destina": 5206,
      " znatno": 5207,
      "itle": 5208,
      " Ben": 5209,
      " odgovornost": 5210,
      " jednako": 5211,
      " tisuće": 5212,
      " temperature": 5213,
      " ()": 5214,
      " znanja": 5215,
      " velik": 5216,
      " co": 5217,
      " morao": 5218,
      " odluči": 5219,
      " Hama": 5220,
      " postigao": 5221,
      "pisuje": 5222,
      "Ljudi": 5223,
      " kriminalisti": 5224,
      "Jako": 5225,
      " dali": 5226,
      " sudu": 5227,
      " preži": 5228,
      " Ale": 5229,
      " puca": 5230,
      " razmje": 5231,
      "zora": 5232,
      "Poslje": 5233,
      " njihovim": 5234,
      " Joh": 5235,
      " pokazati": 5236,
      " potpunosti": 5237,
      "tinui": 5238,
      "Bit": 5239,
      "žnom": 5240,
      " olak": 5241,
      "rov": 5242,
      " dogodio": 5243,
      "zapa": 5244,
      "tivnim": 5245,
      " riješiti": 5246,
      "Radi": 5247,
      " uvjete": 5248,
      " blago": 5249,
      "Bra": 5250,
      " uki": 5251,
      " napla": 5252,
      " privu": 5253,
      "munj": 5254,
      "tnica": 5255,
      " sjever": 5256,
      " regiji": 5257,
      " pokazali": 5258,
      "linu": 5259,
      "roma": 5260,
      " nami": 5261,
      "zio": 5262,
      "gija": 5263,
      " Gre": 5264,
      " perio": 5265,
      " Petro": 5266,
      " ljepo": 5267,
      "Kod": 5268,
      " ponekad": 5269,
      " Tik": 5270,
      " različitih": 5271,
      "54": 5272,
      " smrt": 5273,
      " povr": 5274,
      " mrt": 5275,
      " eli": 5276,
      " ispita": 5277,
      "vnica": 5278,
      " sporazu": 5279,
      " vozilo": 5280,
      " usluge": 5281,
      "ction": 5282,
      "ft": 5283,
      "nar": 5284,
      " proba": 5285,
      "stoja": 5286,
      "šak": 5287,
      "peri": 5288,
      " volim": 5289,
      " kontinui": 5290,
      " glavu": 5291,
      " igrama": 5292,
      " kreće": 5293,
      " brojni": 5294,
      " favori": 5295,
      " prvak": 5296,
      " pogodio": 5297,
      " elektro": 5298,
      " prijedlog": 5299,
      " alkohola": 5300,
      " sekundi": 5301,
      "šnjo": 5302,
      "gov": 5303,
      " neku": 5304,
      "vjela": 5305,
      ";ina": 5306,
      " dubrova": 5307,
      " Baby": 5308,
      "Može": 5309,
      " Wa": 5310,
      " We": 5311,
      " zahtjev": 5312,
      " detalj": 5313,
      " Srbiji": 5314,
      "uzda": 5315,
      " olimpij": 5316,
      " koga": 5317,
      " pregleda": 5318,
      " gostu": 5319,
      "intere": 5320,
      " njihovih": 5321,
      " ističu": 5322,
      " građane": 5323,
      " Milanovi": 5324,
      "scipli": 5325,
      " zvijez": 5326,
      " šanse": 5327,
      "sve": 5328,
      "lović": 5329,
      " serija": 5330,
      " dakle": 5331,
      "strija": 5332,
      " jednim": 5333,
      " prošli": 5334,
      "Bro": 5335,
      "Igra": 5336,
      "rskoj": 5337,
      "wi": 5338,
      "zme": 5339,
      " osni": 5340,
      "lum": 5341,
      " Bije": 5342,
      " Kr": 5343,
      " starije": 5344,
      " granice": 5345,
      " odlučili": 5346,
      " Nove": 5347,
      " vijeća": 5348,
      " konačno": 5349,
      " inova": 5350,
      " polovi": 5351,
      " prolazi": 5352,
      " teške": 5353,
      " Donal": 5354,
      "Sad": 5355,
      " aktivi": 5356,
      " grupa": 5357,
      " formi": 5358,
      "Vjeru": 5359,
      "Istra": 5360,
      "land": 5361,
      " bron": 5362,
      "morac": 5363,
      " Dne": 5364,
      " trage": 5365,
      "-ak": 5366,
      " srce": 5367,
      " napravili": 5368,
      "đimu": 5369,
      "limo": 5370,
      " odmor": 5371,
      " bilje": 5372,
      "dobno": 5373,
      " vodio": 5374,
      " Zadru": 5375,
      " osvr": 5376,
      " vjetar": 5377,
      " Europskog": 5378,
      " sudjelova": 5379,
      " pjesma": 5380,
      " sumnja": 5381,
      " Križe": 5382,
      " naroda": 5383,
      "43": 5384,
      "CI": 5385,
      "Euro": 5386,
      "ys": 5387,
      " uma": 5388,
      " sasvim": 5389,
      "miju": 5390,
      " otkriva": 5391,
      " knjige": 5392,
      " rođendan": 5393,
      " doista": 5394,
      "njeni": 5395,
      " teški": 5396,
      "čaja": 5397,
      "ših": 5398,
      " najvi": 5399,
      " Fu": 5400,
      " samom": 5401,
      " ovogodiš": 5402,
      "raždin": 5403,
      " uključuje": 5404,
      "-ih": 5405,
      "rti": 5406,
      "tove": 5407,
      " zag": 5408,
      " dokaza": 5409,
      "minira": 5410,
      "bano": 5411,
      "sira": 5412,
      " niko": 5413,
      "gram": 5414,
      "hat": 5415,
      " prvenstve": 5416,
      "deset": 5417,
      " konferen": 5418,
      "Stoga": 5419,
      "jevima": 5420,
      "juće": 5421,
      " doga": 5422,
      "ziti": 5423,
      " desni": 5424,
      " Cel": 5425,
      "vnice": 5426,
      " US": 5427,
      " nekog": 5428,
      " Petra": 5429,
      " tvrtki": 5430,
      " međutim": 5431,
      " Varaždinu": 5432,
      " podatke": 5433,
      " krvi": 5434,
      "Drugi": 5435,
      " zemljama": 5436,
      "žem": 5437,
      " vre": 5438,
      " menta": 5439,
      " postoja": 5440,
      " reprezentaciju": 5441,
      " Trumpa": 5442,
      " skoro": 5443,
      " prometu": 5444,
      " konferenciji": 5445,
      " bivšeg": 5446,
      " redovito": 5447,
      "dy": 5448,
      "tti": 5449,
      "nior": 5450,
      " kop": 5451,
      " simp": 5452,
      " tribi": 5453,
      " četvrti": 5454,
      " dugoro": 5455,
      " primjerice": 5456,
      "ravak": 5457,
      " ugovora": 5458,
      "kala": 5459,
      " pokri": 5460,
      " akade": 5461,
      " dodje": 5462,
      " fon": 5463,
      " UN": 5464,
      " dijelom": 5465,
      " snagu": 5466,
      " nagrada": 5467,
      "fti": 5468,
      " upla": 5469,
      "lini": 5470,
      " inspe": 5471,
      " znanosti": 5472,
      "alno": 5473,
      " politički": 5474,
      " Gori": 5475,
      " bolnicu": 5476,
      " razvoju": 5477,
      " veljače": 5478,
      " učinkovi": 5479,
      "MA": 5480,
      " onima": 5481,
      "ror": 5482,
      " povla": 5483,
      "šili": 5484,
      " Nor": 5485,
      " učenika": 5486,
      "jskoj": 5487,
      "rata": 5488,
      " anke": 5489,
      "ture": 5490,
      " EP": 5491,
      " gradi": 5492,
      " potpred": 5493,
      " Mir": 5494,
      " ostalih": 5495,
      " glumica": 5496,
      "Najbo": 5497,
      " iznosu": 5498,
      "Umje": 5499,
      " Bla": 5500,
      " večer": 5501,
      " planu": 5502,
      " Ško": 5503,
      " pretpo": 5504,
      " porez": 5505,
      " zastupnika": 5506,
      " Hrvata": 5507,
      "64": 5508,
      "pt": 5509,
      "njeno": 5510,
      " raka": 5511,
      " ligi": 5512,
      "čuju": 5513,
      "snosti": 5514,
      " nastavio": 5515,
      " Europskom": 5516,
      " priznao": 5517,
      " profesional": 5518,
      " prekra": 5519,
      "žene": 5520,
      "grafi": 5521,
      " Kor": 5522,
      " najpo": 5523,
      " stambe": 5524,
      " kupu": 5525,
      " glas": 5526,
      " razinu": 5527,
      " prodaje": 5528,
      "prijed": 5529,
      " narod": 5530,
      " pogodi": 5531,
      " rela": 5532,
      " vodu": 5533,
      " Tre": 5534,
      " El": 5535,
      " glavnog": 5536,
      " prilike": 5537,
      "sjetio": 5538,
      " proizvodnje": 5539,
      " kvalitete": 5540,
      " fotografiju": 5541,
      " festivala": 5542,
      " Sport": 5543,
      "šim": 5544,
      " poruke": 5545,
      " Rusija": 5546,
      " sumnje": 5547,
      " Brita": 5548,
      "Vr": 5549,
      "ttu": 5550,
      " pritom": 5551,
      "luju": 5552,
      "demo": 5553,
      " far": 5554,
      " vole": 5555,
      " objave": 5556,
      " odlučila": 5557,
      " poni": 5558,
      " korup": 5559,
      " procije": 5560,
      ";eno": 5561,
      ";ica": 5562,
      " For": 5563,
      " Ži": 5564,
      " želimo": 5565,
      " tržište": 5566,
      " stanovnika": 5567,
      " potroša": 5568,
      " apsolu": 5569,
      ";da": 5570,
      " novoj": 5571,
      " stranici": 5572,
      " Jugo": 5573,
      " govoriti": 5574,
      " temelj": 5575,
      " interesa": 5576,
      " položa": 5577,
      "UP": 5578,
      " vama": 5579,
      " logi": 5580,
      " zdravlja": 5581,
      " partnera": 5582,
      " Austra": 5583,
      " interes": 5584,
      " platformi": 5585,
      "RIJA": 5586,
      "ljenja": 5587,
      " Ser": 5588,
      " recep": 5589,
      "dovolj": 5590,
      " https": 5591,
      " najljep": 5592,
      " osobno": 5593,
      "čnost": 5594,
      " pozdra": 5595,
      " građanima": 5596,
      "slobo": 5597,
      " humani": 5598,
      "He": 5599,
      "Hajdu": 5600,
      " dobru": 5601,
      "let": 5602,
      " teži": 5603,
      " potpo": 5604,
      " svaku": 5605,
      " telef": 5606,
      " fotografija": 5607,
      "Unatoč": 5608,
      " zadnji": 5609,
      " nekom": 5610,
      " šta": 5611,
      " pad": 5612,
      " samog": 5613,
      "hani": 5614,
      " vrste": 5615,
      " satima": 5616,
      " milijun": 5617,
      " utjecaj": 5618,
      " simpto": 5619,
      "kt": 5620,
      "jete": 5621,
      " oču": 5622,
      " supa": 5623,
      "stio": 5624,
      "Zašto": 5625,
      " znao": 5626,
      " pravu": 5627,
      " opro": 5628,
      " opskr": 5629,
      " područje": 5630,
      " odabra": 5631,
      " račun": 5632,
      "Ameri": 5633,
      "RE": 5634,
      "žnog": 5635,
      "stara": 5636,
      "činu": 5637,
      " moć": 5638,
      " pišu": 5639,
      " oslobo": 5640,
      " krimina": 5641,
      " vozač": 5642,
      ";kog": 5643,
      "An": 5644,
      " sank": 5645,
      " gor": 5646,
      " mir": 5647,
      ";ine": 5648,
      " potporu": 5649,
      " ideja": 5650,
      " luksu": 5651,
      " model": 5652,
      " detalje": 5653,
      "llery": 5654,
      " ulaganja": 5655,
      " Filip": 5656,
      "Sla": 5657,
      " ote": 5658,
      " jela": 5659,
      "logu": 5660,
      " Var": 5661,
      " vodo": 5662,
      "fere": 5663,
      " obično": 5664,
      " stopa": 5665,
      " trgova": 5666,
      " obranu": 5667,
      " zemlju": 5668,
      " rezultati": 5669,
      " lokalne": 5670,
      " navijači": 5671,
      " večeri": 5672,
      " večeras": 5673,
      "41": 5674,
      "89": 5675,
      "gnuti": 5676,
      " uklo": 5677,
      "vaca": 5678,
      "dine": 5679,
      "zil": 5680,
      " čija": 5681,
      "Mogu": 5682,
      " direkto": 5683,
      " ulice": 5684,
      " prometne": 5685,
      " nekretnine": 5686,
      "shi": 5687,
      " sv": 5688,
      "nilo": 5689,
      "vač": 5690,
      "manti": 5691,
      "leti": 5692,
      " Bayer": 5693,
      " tjele": 5694,
      " najveća": 5695,
      ";ivot": 5696,
      " slijedi": 5697,
      "51": 5698,
      "ševa": 5699,
      " KBC": 5700,
      " najče": 5701,
      " boji": 5702,
      " duho": 5703,
      " šeće": 5704,
      " svjetski": 5705,
      " tradicional": 5706,
      " Char": 5707,
      "tivan": 5708,
      " poti": 5709,
      " postro": 5710,
      "bit": 5711,
      " reci": 5712,
      " pake": 5713,
      " Kre": 5714,
      " cijenu": 5715,
      " cesti": 5716,
      " transfe": 5717,
      " članica": 5718,
      " sjevero": 5719,
      " vanjskih": 5720,
      "320": 5721,
      "Sport": 5722,
      "vce": 5723,
      " posa": 5724,
      " Pra": 5725,
      "pula": 5726,
      " Milo": 5727,
      "štima": 5728,
      " odnosa": 5729,
      " brojnim": 5730,
      " ciljem": 5731,
      " njegovog": 5732,
      " njegovoj": 5733,
      " putovanja": 5734,
      " štetu": 5735,
      " ocije": 5736,
      " jesu": 5737,
      " teo": 5738,
      " tero": 5739,
      "Poče": 5740,
      " hrvatskim": 5741,
      " županija": 5742,
      " završiti": 5743,
      " drago": 5744,
      " Dubrovnika": 5745,
      "Grad": 5746,
      " izuzetno": 5747,
      " svu": 5748,
      "ćeno": 5749,
      "čaka": 5750,
      " veća": 5751,
      "ntasti": 5752,
      " Zadra": 5753,
      "skup": 5754,
      " nikak": 5755,
      " borbu": 5756,
      " ostvari": 5757,
      "...'\n": 5758,
      "LERIJA": 5759,
      " manifesta": 5760,
      " isključivo": 5761,
      "_ar": 5762,
      "pto": 5763,
      " ured": 5764,
      " napu": 5765,
      " bje": 5766,
      "vero": 5767,
      " pripada": 5768,
      " pristupa": 5769,
      " izjavila": 5770,
      "cionalni": 5771,
      " ozbiljno": 5772,
      " povratak": 5773,
      " sme": 5774,
      " naveo": 5775,
      " zalju": 5776,
      "đenju": 5777,
      " Indi": 5778,
      " kuhi": 5779,
      "prilike": 5780,
      " državnog": 5781,
      " Ligi": 5782,
      " suradnju": 5783,
      " razine": 5784,
      " Vukova": 5785,
      " pratiti": 5786,
      " Ministarstvo": 5787,
      " konkuren": 5788,
      "GALERIJA": 5789,
      "120": 5790,
      "53": 5791,
      "Fe": 5792,
      "et": 5793,
      " mlije": 5794,
      " zaosta": 5795,
      " propisa": 5796,
      " prese": 5797,
      ";esto": 5798,
      " izab": 5799,
      " drugima": 5800,
      " stiže": 5801,
      " knjiže": 5802,
      " obrazovanja": 5803,
      "-po": 5804,
      "kali": 5805,
      " niste": 5806,
      " Bli": 5807,
      " predsjednica": 5808,
      " počeli": 5809,
      " krenuo": 5810,
      " europske": 5811,
      " muškaraca": 5812,
      " vjerujem": 5813,
      " udruga": 5814,
      " generacije": 5815,
      " građevi": 5816,
      "Smatra": 5817,
      "cy": 5818,
      "kte": 5819,
      "mda": 5820,
      "sr": 5821,
      "jić": 5822,
      " pogodak": 5823,
      " spek": 5824,
      " bogat": 5825,
      " vikenda": 5826,
      "dže": 5827,
      "žbu": 5828,
      " nažalost": 5829,
      "cifi": 5830,
      "letio": 5831,
      " saveza": 5832,
      "hoto": 5833,
      " Engle": 5834,
      "alle": 5835,
      " njegovih": 5836,
      " forma": 5837,
      " Općine": 5838,
      " Župani": 5839,
      " eduka": 5840,
      "Ga": 5841,
      "Lije": 5842,
      " podno": 5843,
      "dište": 5844,
      " kor": 5845,
      " doj": 5846,
      " kana": 5847,
      "padu": 5848,
      "snika": 5849,
      " Rea": 5850,
      " osobama": 5851,
      " osigurati": 5852,
      " prodaju": 5853,
      " sljedeće": 5854,
      " šoki": 5855,
      "EF": 5856,
      " zaintere": 5857,
      " atra": 5858,
      " preci": 5859,
      "njaka": 5860,
      "čene": 5861,
      "zanje": 5862,
      " stan": 5863,
      " Or": 5864,
      " hoda": 5865,
      " onoga": 5866,
      " zajednica": 5867,
      " neobi": 5868,
      " kvalitetu": 5869,
      " razdoblje": 5870,
      " Londo": 5871,
      "Stra": 5872,
      "tskih": 5873,
      "vajući": 5874,
      " nadam": 5875,
      " sekto": 5876,
      "deći": 5877,
      " cilja": 5878,
      " rezultata": 5879,
      " oružja": 5880,
      " agencija": 5881,
      "rskog": 5882,
      "vano": 5883,
      "vot": 5884,
      " apa": 5885,
      " propa": 5886,
      "mić": 5887,
      "ljiv": 5888,
      ";im": 5889,
      " Rusije": 5890,
      " dvobo": 5891,
      " dvostru": 5892,
      " uvjer": 5893,
      " Dubrovniku": 5894,
      " Josipa": 5895,
      " pozornost": 5896,
      " trenutačno": 5897,
      "sse": 5898,
      "vski": 5899,
      " zao": 5900,
      " teku": 5901,
      " Mer": 5902,
      " pažnju": 5903,
      " hranu": 5904,
      " djeteta": 5905,
      "snik": 5906,
      "190": 5907,
      "imna": 5908,
      " vijesti": 5909,
      "78": 5910,
      "tirati": 5911,
      " dala": 5912,
      "sama": 5913,
      " van": 5914,
      " Švica": 5915,
      "ština": 5916,
      " političke": 5917,
      " umjetnosti": 5918,
      " Ange": 5919,
      " natjecanje": 5920,
      " ovisi": 5921,
      "600": 5922,
      "Prva": 5923,
      "han": 5924,
      " zauze": 5925,
      "move": 5926,
      " pristu": 5927,
      " Dje": 5928,
      " otpada": 5929,
      " postane": 5930,
      " nastavak": 5931,
      " upotre": 5932,
      " domaće": 5933,
      " trofe": 5934,
      " pripreme": 5935,
      "hvaća": 5936,
      " službeno": 5937,
      " Milanovića": 5938,
      " vlasnik": 5939,
      " sukoba": 5940,
      " Modrić": 5941,
      " Poljudu": 5942,
      "NK": 5943,
      "isti": 5944,
      " ulja": 5945,
      " uzima": 5946,
      "rij": 5947,
      "ljenih": 5948,
      " svoja": 5949,
      " stavlja": 5950,
      "gledu": 5951,
      " spor": 5952,
      " vrh": 5953,
      " radili": 5954,
      " njegovi": 5955,
      "nitivno": 5956,
      "vremena": 5957,
      " zdravstva": 5958,
      " Opći": 5959,
      " festival": 5960,
      " we": 5961,
      " legenda": 5962,
      "The": 5963,
      "ny": 5964,
      " pored": 5965,
      " odlazi": 5966,
      " Sre": 5967,
      " najpozna": 5968,
      "snio": 5969,
      " morali": 5970,
      " najveće": 5971,
      " uključi": 5972,
      " utjecati": 5973,
      " korisnika": 5974,
      " ministra": 5975,
      " značajno": 5976,
      " činjenica": 5977,
      "63": 5978,
      "cho": 5979,
      " opisa": 5980,
      " zim": 5981,
      " kolek": 5982,
      " isho": 5983,
      " Martin": 5984,
      " neugo": 5985,
      " preminuo": 5986,
      " različite": 5987,
      " ubrzo": 5988,
      " ogrom": 5989,
      "Sje": 5990,
      " uru": 5991,
      "manu": 5992,
      " policiji": 5993,
      " kombi": 5994,
      " glum": 5995,
      " briga": 5996,
      " očekivati": 5997,
      " projekata": 5998,
      "dalmacija": 5999,
      "59": 6000,
      "tska": 6001,
      "wit": 6002,
      "žnim": 6003,
      " ite": 6004,
      " olu": 6005,
      "menu": 6006,
      " pregovo": 6007,
      " Bor": 6008,
      "njuju": 6009,
      " Uni": 6010,
      " kreve": 6011,
      " kiša": 6012,
      " siguran": 6013,
      " tjedana": 6014,
      " fazi": 6015,
      " organizaciji": 6016,
      " vodstvo": 6017,
      "\".": 6018,
      "So": 6019,
      "jku": 6020,
      "ndu": 6021,
      " nacija": 6022,
      " tam": 6023,
      "sur": 6024,
      " važan": 6025,
      " javne": 6026,
      " Cen": 6027,
      " plasti": 6028,
      "snoj": 6029,
      " državni": 6030,
      " Kate": 6031,
      " Možemo": 6032,
      " voditelj": 6033,
      "pustiti": 6034,
      " Ča": 6035,
      " roditelja": 6036,
      " nasilja": 6037,
      " unutrašnjo": 6038,
      "{\"": 6039,
      "šnju": 6040,
      "žnih": 6041,
      " zadar": 6042,
      "stvr": 6043,
      " špi": 6044,
      " voditi": 6045,
      " božić": 6046,
      " II": 6047,
      "108": 6048,
      " studija": 6049,
      " najbolja": 6050,
      " regional": 6051,
      " pogledati": 6052,
      " rok": 6053,
      "AT": 6054,
      "tivac": 6055,
      " našao": 6056,
      "davno": 6057,
      " gore": 6058,
      " testi": 6059,
      "šajte": 6060,
      " invali": 6061,
      " gradova": 6062,
      " otka": 6063,
      " bavi": 6064,
      " Doma": 6065,
      " desetak": 6066,
      " uobičaje": 6067,
      " poena": 6068,
      "Ukraji": 6069,
      "ati": 6070,
      "vred": 6071,
      " neprija": 6072,
      " klije": 6073,
      "194": 6074,
      " osmi": 6075,
      " che": 6076,
      " optimi": 6077,
      " Zele": 6078,
      " međuvremenu": 6079,
      " pokušao": 6080,
      " suradnje": 6081,
      " turizma": 6082,
      " itekako": 6083,
      " cu": 6084,
      "Pra": 6085,
      "Title": 6086,
      " neto": 6087,
      "mit": 6088,
      " ver": 6089,
      "Pozna": 6090,
      " moram": 6091,
      " pobjedom": 6092,
      " liječni": 6093,
      " Kata": 6094,
      " politika": 6095,
      " Dubra": 6096,
      " Među": 6097,
      " temelji": 6098,
      "teoro": 6099,
      " Beogradu": 6100,
      "čnije": 6101,
      "jevi": 6102,
      " tvo": 6103,
      " gostima": 6104,
      " bori": 6105,
      " predvo": 6106,
      " glasnogovo": 6107,
      " objavi": 6108,
      " Božić": 6109,
      " pješa": 6110,
      " sobom": 6111,
      " posebice": 6112,
      " kaznenog": 6113,
      " Plenkovi": 6114,
      "61": 6115,
      "CM": 6116,
      "Oče": 6117,
      "Uvijek": 6118,
      "lama": 6119,
      "nule": 6120,
      " Ivica": 6121,
      " Olimpi": 6122,
      "likop": 6123,
      "Rekao": 6124,
      " jedina": 6125,
      " poslao": 6126,
      " emisiji": 6127,
      " igara": 6128,
      "lated": 6129,
      "lena": 6130,
      " kakve": 6131,
      " proveo": 6132,
      " prikaza": 6133,
      " vlast": 6134,
      " komentara": 6135,
      " podijelila": 6136,
      " korištenje": 6137,
      " policaj": 6138,
      "čnosti": 6139,
      "lie": 6140,
      " ala": 6141,
      " domu": 6142,
      "lue": 6143,
      " naslova": 6144,
      " proizvode": 6145,
      " europskim": 6146,
      " suprugom": 6147,
      " usposta": 6148,
      " vlasništvu": 6149,
      " struktu": 6150,
      " izvođa": 6151,
      " gospodarstva": 6152,
      " Lasagna": 6153,
      " plasman": 6154,
      "blji": 6155,
      "chi": 6156,
      "plek": 6157,
      "lana": 6158,
      "mojte": 6159,
      " proved": 6160,
      " morate": 6161,
      " posljed": 6162,
      " šibe": 6163,
      " ostvariti": 6164,
      " podrške": 6165,
      " kolege": 6166,
      ";ku": 6167,
      "Split": 6168,
      " podnije": 6169,
      " koševa": 6170,
      "lozi": 6171,
      "lea": 6172,
      " Br": 6173,
      " liste": 6174,
      " najte": 6175,
      " stranu": 6176,
      " državi": 6177,
      " Kore": 6178,
      "metaši": 6179,
      " Novi": 6180,
      " suprug": 6181,
      " vjeruje": 6182,
      " Šibenik": 6183,
      " kampanje": 6184,
      " muškarca": 6185,
      " stadionu": 6186,
      " mišljenje": 6187,
      " povodom": 6188,
      "\"}": 6189,
      "lite": 6190,
      "laca": 6191,
      " dovo": 6192,
      " mala": 6193,
      " Ita": 6194,
      " podsjeća": 6195,
      "terpo": 6196,
      " njihovo": 6197,
      " obavijesti": 6198,
      " Nacional": 6199,
      " američki": 6200,
      " publika": 6201,
      " kvadra": 6202,
      "IP": 6203,
      "Iza": 6204,
      " namije": 6205,
      "vena": 6206,
      " zadu": 6207,
      " preva": 6208,
      "ženju": 6209,
      ";aja": 6210,
      " današnji": 6211,
      " stože": 6212,
      " vidimo": 6213,
      " odlično": 6214,
      " pjevačica": 6215,
      " naglašava": 6216,
      "87": 6217,
      "Tri": 6218,
      "udi": 6219,
      "rove": 6220,
      "žite": 6221,
      " Tali": 6222,
      " razno": 6223,
      " čije": 6224,
      " objavili": 6225,
      " takva": 6226,
      " takvih": 6227,
      " svjetskog": 6228,
      " braku": 6229,
      " širo": 6230,
      "tkinja": 6231,
      " grmlja": 6232,
      " cjelo": 6233,
      " Jugosla": 6234,
      "OS": 6235,
      "_in": 6236,
      " sc": 6237,
      "kan": 6238,
      " dodije": 6239,
      " radovi": 6240,
      ";ih": 6241,
      " vožnje": 6242,
      " kupiti": 6243,
      " osobu": 6244,
      " prijateljima": 6245,
      " Večer": 6246,
      " dolazak": 6247,
      " Gazi": 6248,
      " sportski": 6249,
      " jezika": 6250,
      " psihi": 6251,
      " ispričao": 6252,
      "Author": 6253,
      "dbi": 6254,
      "Čak": 6255,
      "gori": 6256,
      " ruski": 6257,
      "štena": 6258,
      " Dani": 6259,
      "klih": 6260,
      " Primorac": 6261,
      " kapetan": 6262,
      "tite": 6263,
      " dvori": 6264,
      " proći": 6265,
      " marke": 6266,
      " lica": 6267,
      "Nažalost": 6268,
      " meto": 6269,
      " Hrvatskom": 6270,
      " čast": 6271,
      " Damir": 6272,
      " izgubili": 6273,
      " pomaže": 6274,
      " ministri": 6275,
      " duboko": 6276,
      "77": 6277,
      "kru": 6278,
      " ubo": 6279,
      "tam": 6280,
      "dića": 6281,
      " pretra": 6282,
      " prisi": 6283,
      "posla": 6284,
      " red": 6285,
      " bom": 6286,
      " platiti": 6287,
      "teljice": 6288,
      " Net": 6289,
      " istoku": 6290,
      " udara": 6291,
      "ash": 6292,
      " britan": 6293,
      " izgubila": 6294,
      " Alba": 6295,
      " direk": 6296,
      " važnost": 6297,
      "Njegova": 6298,
      " energiju": 6299,
      " Instagram": 6300,
      "KA": 6301,
      "ad": 6302,
      "tiji": 6303,
      " negdje": 6304,
      ";ite": 6305,
      " bod": 6306,
      " boja": 6307,
      " sindi": 6308,
      " Miro": 6309,
      " Mos": 6310,
      " uspjela": 6311,
      " sloven": 6312,
      " reprezentativac": 6313,
      " informacijama": 6314,
      "logije": 6315,
      " poslijepodne": 6316,
      " svakodnevno": 6317,
      " smanjiti": 6318,
      " zadovoljni": 6319,
      "spa": 6320,
      "novo": 6321,
      " poreme": 6322,
      " datu": 6323,
      "lesa": 6324,
      "vjeli": 6325,
      "presi": 6326,
      " Cr": 6327,
      " otprilike": 6328,
      "dravlje": 6329,
      " bana": 6330,
      " šire": 6331,
      " pokret": 6332,
      " otići": 6333,
      " ekipe": 6334,
      " izvješta": 6335,
      " kompanija": 6336,
      "vrijeme": 6337,
      "hd": 6338,
      "prje": 6339,
      "šom": 6340,
      " polju": 6341,
      " nepre": 6342,
      " kaznu": 6343,
      " izlazi": 6344,
      " prirod": 6345,
      " razne": 6346,
      " ispi": 6347,
      " prave": 6348,
      " državne": 6349,
      " mlađi": 6350,
      " pobjedni": 6351,
      " Nizozem": 6352,
      " uspore": 6353,
      "Budu": 6354,
      " opravda": 6355,
      "kse": 6356,
      "okola": 6357,
      " preosta": 6358,
      "mjese": 6359,
      " Crve": 6360,
      " živjeti": 6361,
      "Dobro": 6362,
      " nekad": 6363,
      " podaci": 6364,
      " vidim": 6365,
      "spekti": 6366,
      " uživa": 6367,
      " poduzetni": 6368,
      " banke": 6369,
      "que": 6370,
      " preuzima": 6371,
      "slobodna": 6372,
      " Italije": 6373,
      "xt": 6374,
      "ravaju": 6375,
      " ući": 6376,
      "tanje": 6377,
      "vane": 6378,
      " izre": 6379,
      " prete": 6380,
      " Gar": 6381,
      " naslo": 6382,
      " Jaki": 6383,
      " vojske": 6384,
      " projekte": 6385,
      " imeno": 6386,
      " ambi": 6387,
      "images": 6388,
      " katastro": 6389,
      "slobodnadalmacija": 6390,
      "76": 6391,
      "ot": 6392,
      "grad": 6393,
      " mar": 6394,
      " fantasti": 6395,
      " sustavu": 6396,
      " svjetlo": 6397,
      " koncerta": 6398,
      " nositi": 6399,
      " publiku": 6400,
      " domaćin": 6401,
      " Osijeka": 6402,
      " preokre": 6403,
      " nape": 6404,
      " naime": 6405,
      "menata": 6406,
      " prolaz": 6407,
      "bić": 6408,
      "ziv": 6409,
      " gi": 6410,
      " PU": 6411,
      "sub": 6412,
      "genti": 6413,
      "đenim": 6414,
      " discipli": 6415,
      " uskla": 6416,
      " čvr": 6417,
      " njihovi": 6418,
      " klupi": 6419,
      " potez": 6420,
      "ovjek": 6421,
      " upozorava": 6422,
      " otvoreno": 6423,
      " ekono": 6424,
      "Svaki": 6425,
      "Sigu": 6426,
      " započeo": 6427,
      " daju": 6428,
      "njaci": 6429,
      " vezu": 6430,
      " putnika": 6431,
      " tima": 6432,
      " znali": 6433,
      " vrijedi": 6434,
      "klanja": 6435,
      " idemo": 6436,
      " očekuju": 6437,
      " visoke": 6438,
      " kontrolu": 6439,
      " institucije": 6440,
      " obliku": 6441,
      " Harris": 6442,
      " Uprave": 6443,
      " razgovoru": 6444,
      "Izrael": 6445,
      "lti": 6446,
      " istu": 6447,
      " ogla": 6448,
      " udo": 6449,
      " naf": 6450,
      " kakva": 6451,
      "tura": 6452,
      " Stra": 6453,
      "čani": 6454,
      "Zahva": 6455,
      " rukama": 6456,
      " cijeni": 6457,
      " kriv": 6458,
      " razlike": 6459,
      " akcije": 6460,
      " zatvor": 6461,
      "Najve": 6462,
      "-ov": 6463,
      " nesreći": 6464,
      " ponavlja": 6465,
      " kontroli": 6466,
      " zdravstvene": 6467,
      " status": 6468,
      "ORH": 6469,
      "71": 6470,
      "tla": 6471,
      "tao": 6472,
      " poje": 6473,
      " an": 6474,
      "cent": 6475,
      "ljive": 6476,
      " isporu": 6477,
      " Fer": 6478,
      "škoj": 6479,
      "cijskih": 6480,
      " glumac": 6481,
      " pobijediti": 6482,
      " zlostavlja": 6483,
      " sjaj": 6484,
      " posljedica": 6485,
      "Umjesto": 6486,
      "Al": 6487,
      "Ivan": 6488,
      "Spo": 6489,
      "pti": 6490,
      "rat": 6491,
      " jelo": 6492,
      "dim": 6493,
      " ispiti": 6494,
      " brojnih": 6495,
      " poseban": 6496,
      " zapošlja": 6497,
      " interven": 6498,
      " pomalo": 6499,
      "tegory": 6500,
      " kolega": 6501,
      " normalno": 6502,
      " životinja": 6503,
      "zv": 6504,
      " oca": 6505,
      " jese": 6506,
      " suz": 6507,
      " donese": 6508,
      " nemogu": 6509,
      "tivnu": 6510,
      "Nogo": 6511,
      " kiše": 6512,
      " Rusiji": 6513,
      " analiti": 6514,
      " trgovine": 6515,
      " potrebna": 6516,
      " profesiona": 6517,
      " ozljeda": 6518,
      " blagdan": 6519,
      " ,": 6520,
      " Sje": 6521,
      "žavaju": 6522,
      "plici": 6523,
      " vojnika": 6524,
      " većinom": 6525,
      " ulazak": 6526,
      " nekako": 6527,
      " krugu": 6528,
      "logiju": 6529,
      " nedjelje": 6530,
      " desetljeća": 6531,
      " upravljanja": 6532,
      " hotela": 6533,
      " diploma": 6534,
      "'s": 6535,
      "250": 6536,
      "nsi": 6537,
      "čem": 6538,
      ";ama": 6539,
      " prate": 6540,
      " Zakona": 6541,
      " osvoje": 6542,
      " kredi": 6543,
      " proizvodnju": 6544,
      " održava": 6545,
      " pokušava": 6546,
      " ulozi": 6547,
      " Varaždinske": 6548,
      " posljedice": 6549,
      " cestama": 6550,
      " prijevoz": 6551,
      "Par": 6552,
      " origi": 6553,
      " zu": 6554,
      " bar": 6555,
      " oduze": 6556,
      " izla": 6557,
      " prince": 6558,
      " mogle": 6559,
      " rezul": 6560,
      "dovima": 6561,
      " misle": 6562,
      " samou": 6563,
      " cijelog": 6564,
      " Boži": 6565,
      " sigurni": 6566,
      " Bide": 6567,
      " vojska": 6568,
      " feno": 6569,
      " tržišta": 6570,
      " poreza": 6571,
      " proračuna": 6572,
      " statisti": 6573,
      "fal": 6574,
      "narod": 6575,
      "tivu": 6576,
      " zate": 6577,
      "zati": 6578,
      " bolja": 6579,
      "Posao": 6580,
      " Hrvatski": 6581,
      " prav": 6582,
      " centi": 6583,
      " civi": 6584,
      " šef": 6585,
      " letje": 6586,
      "ence": 6587,
      " desetlje": 6588,
      " gradonačelnika": 6589,
      " Kine": 6590,
      " zanimljivo": 6591,
      " pritisak": 6592,
      " Osijeku": 6593,
      "Hajduk": 6594,
      "cke": 6595,
      "tta": 6596,
      "rek": 6597,
      " zasta": 6598,
      "gore": 6599,
      "pović": 6600,
      " Mc": 6601,
      " razgovarati": 6602,
      " Jako": 6603,
      "tarnji": 6604,
      " Goran": 6605,
      " europski": 6606,
      " podrška": 6607,
      " prirode": 6608,
      " Hezbo": 6609,
      "ight": 6610,
      "žnji": 6611,
      "ting": 6612,
      "lića": 6613,
      " ostavio": 6614,
      " izabra": 6615,
      " krenuli": 6616,
      " poziciji": 6617,
      "Odlu": 6618,
      " događaj": 6619,
      " udario": 6620,
      " terena": 6621,
      " nadokna": 6622,
      "jaca": 6623,
      " poto": 6624,
      "viju": 6625,
      "sić": 6626,
      " Ton": 6627,
      " kraljev": 6628,
      " postignu": 6629,
      " nogometnog": 6630,
      " zgrada": 6631,
      " Festi": 6632,
      " vatrogasci": 6633,
      " skupa": 6634,
      " smanjenje": 6635,
      "VDJE": 6636,
      "_article": 6637,
      "OV": 6638,
      "tala": 6639,
      " promatra": 6640,
      " Pred": 6641,
      " fron": 6642,
      " javni": 6643,
      "ard": 6644,
      " pis": 6645,
      "tivnog": 6646,
      "kladno": 6647,
      " prilično": 6648,
      " Robert": 6649,
      " osvojili": 6650,
      " poluvremenu": 6651,
      " otvorena": 6652,
      " snimke": 6653,
      " ošt": 6654,
      " uku": 6655,
      "ćene": 6656,
      " štra": 6657,
      " Sjedinje": 6658,
      "Pogledajte": 6659,
      " stranicama": 6660,
      " jedva": 6661,
      " prijave": 6662,
      " Međimu": 6663,
      "mente": 6664,
      " turnir": 6665,
      " opasnosti": 6666,
      " rasporedu": 6667,
      "Cilj": 6668,
      "Tru": 6669,
      "ncije": 6670,
      " pože": 6671,
      "loge": 6672,
      " agencije": 6673,
      "ćeva": 6674,
      " predme": 6675,
      " kupi": 6676,
      " opći": 6677,
      " ciklu": 6678,
      " Willi": 6679,
      " stigli": 6680,
      " vremenom": 6681,
      " pokazalo": 6682,
      " nogometne": 6683,
      " objasnila": 6684,
      ";koj": 6685,
      " sunčano": 6686,
      " drugačije": 6687,
      " Maksimiru": 6688,
      " najčešće": 6689,
      ";nost": 6690,
      "spu": 6691,
      "ranih": 6692,
      "voda": 6693,
      " nepro": 6694,
      " Dar": 6695,
      "Nada": 6696,
      " kojega": 6697,
      "konstru": 6698,
      " kuna": 6699,
      "redbi": 6700,
      " opcija": 6701,
      " istrage": 6702,
      " društvenih": 6703,
      " natjecanju": 6704,
      " sudaca": 6705,
      " oporbe": 6706,
      " Slaven": 6707,
      " dužnosti": 6708,
      " njom": 6709,
      "Hvala": 6710,
      " ustvr": 6711,
      "jača": 6712,
      "dia": 6713,
      " danima": 6714,
      " prolje": 6715,
      " vino": 6716,
      " čelu": 6717,
      " plasi": 6718,
      " rujnu": 6719,
      "onte": 6720,
      " Zvo": 6721,
      " uspjeha": 6722,
      " komplek": 6723,
      " Dinamu": 6724,
      " američke": 6725,
      " specifi": 6726,
      " dnevno": 6727,
      " Španjolske": 6728,
      " prošlosti": 6729,
      " načina": 6730,
      "vinu": 6731,
      "dini": 6732,
      "ruža": 6733,
      " pamet": 6734,
      " radimo": 6735,
      "ilm": 6736,
      " troje": 6737,
      " većinu": 6738,
      " guž": 6739,
      " brat": 6740,
      " želite": 6741,
      " Njemačke": 6742,
      "Njegov": 6743,
      " sumnji": 6744,
      " putovanje": 6745,
      " jezik": 6746,
      " helikop": 6747,
      " showa": 6748,
      " klubova": 6749,
      "Obja": 6750,
      ";nosti": 6751,
      "Cro": 6752,
      "tljivo": 6753,
      " ug": 6754,
      "jac": 6755,
      "mail": 6756,
      " vez": 6757,
      " djecom": 6758,
      "ntro": 6759,
      " hrvatsku": 6760,
      " nekoga": 6761,
      " klup": 6762,
      "slike": 6763,
      " politiku": 6764,
      " Belu": 6765,
      " optuž": 6766,
      " publike": 6767,
      " otoku": 6768,
      " emisije": 6769,
      " platfor": 6770,
      " kćeri": 6771,
      "sigurno": 6772,
      " sinoć": 6773,
      "LI": 6774,
      "Obi": 6775,
      "čnici": 6776,
      " sk": 6777,
      "lično": 6778,
      " doslo": 6779,
      " dojam": 6780,
      " prit": 6781,
      " Stje": 6782,
      " Slobo": 6783,
      " maso": 6784,
      " Tor": 6785,
      "Zanim": 6786,
      " duga": 6787,
      " postali": 6788,
      " otkrili": 6789,
      " napokon": 6790,
      " uživati": 6791,
      " scene": 6792,
      " odvjetnik": 6793,
      " ispričala": 6794,
      "Fa": 6795,
      "lik": 6796,
      "nema": 6797,
      "veni": 6798,
      "lori": 6799,
      " save": 6800,
      " prera": 6801,
      "lub": 6802,
      " noge": 6803,
      "vješta": 6804,
      " najmla": 6805,
      " stanja": 6806,
      " jaja": 6807,
      " brod": 6808,
      "Nova": 6809,
      " prekršaja": 6810,
      " sposobnosti": 6811,
      "98": 6812,
      "EP": 6813,
      "LA": 6814,
      "jsko": 6815,
      "liza": 6816,
      "vača": 6817,
      "loške": 6818,
      " seriji": 6819,
      " šteta": 6820,
      ";eki": 6821,
      " fri": 6822,
      " OVDJE": 6823,
      " kontek": 6824,
      " službenici": 6825,
      " pobijedila": 6826,
      " izvora": 6827,
      " vozača": 6828,
      " Primor": 6829,
      "Dva": 6830,
      "rskom": 6831,
      "nis": 6832,
      " orke": 6833,
      "licu": 6834,
      " kazna": 6835,
      " Tro": 6836,
      " razgovor": 6837,
      " boksa": 6838,
      " Er": 6839,
      " stranih": 6840,
      " Bog": 6841,
      " Vale": 6842,
      " dvorani": 6843,
      " mreži": 6844,
      "-godišnjeg": 6845,
      " Budi": 6846,
      " posloda": 6847,
      " Plenkovića": 6848,
      " izazov": 6849,
      " otoka": 6850,
      "rams": 6851,
      " različitim": 6852,
      " gostiju": 6853,
      "allery": 6854,
      " +": 6855,
      "028": 6856,
      " nara": 6857,
      "mar": 6858,
      "main": 6859,
      " seg": 6860,
      " iznaj": 6861,
      "gallery": 6862,
      "sobno": 6863,
      " Manche": 6864,
      " Ujedinje": 6865,
      "fer": 6866,
      " njihovom": 6867,
      " širi": 6868,
      " proteklih": 6869,
      " zove": 6870,
      " požara": 6871,
      " uništi": 6872,
      "burg": 6873,
      " Sveučilišta": 6874,
      "ashing": 6875,
      "62": 6876,
      "Njema": 6877,
      "Tvr": 6878,
      " uhvati": 6879,
      " poča": 6880,
      "volu": 6881,
      " domovi": 6882,
      "stvima": 6883,
      "kula": 6884,
      " tzv": 6885,
      " rijetko": 6886,
      " komple": 6887,
      " operati": 6888,
      " koncentra": 6889,
      " Gattu": 6890,
      " videu": 6891,
      " napomi": 6892,
      " Marin": 6893,
      " požar": 6894,
      " Facebooku": 6895,
      " portal": 6896,
      "lski": 6897,
      " ista": 6898,
      " selu": 6899,
      "num": 6900,
      " bilj": 6901,
      " Tele": 6902,
      " Oli": 6903,
      " osla": 6904,
      " svjesni": 6905,
      "Jedno": 6906,
      " Nova": 6907,
      " ponudu": 6908,
      " spomenuti": 6909,
      " definitivno": 6910,
      " žrtve": 6911,
      "KOK": 6912,
      "280": 6913,
      "tr": 6914,
      " popis": 6915,
      "malo": 6916,
      "vida": 6917,
      " same": 6918,
      " temu": 6919,
      " teška": 6920,
      " Maro": 6921,
      " igračima": 6922,
      "tivnom": 6923,
      " cijela": 6924,
      " austri": 6925,
      " osvojiti": 6926,
      " crkve": 6927,
      " regije": 6928,
      " borba": 6929,
      "novića": 6930,
      " knjiga": 6931,
      " sudjelovati": 6932,
      " nadolaze": 6933,
      "Dodao": 6934,
      " dinami": 6935,
      " unutrašnjosti": 6936,
      "227": 6937,
      "tinj": 6938,
      " nepra": 6939,
      "size": 6940,
      "šila": 6941,
      " kuć": 6942,
      " djeluje": 6943,
      " ruka": 6944,
      " naslje": 6945,
      " početi": 6946,
      " uprava": 6947,
      " njezinu": 6948,
      " reakcije": 6949,
      " napome": 6950,
      " operacije": 6951,
      "Os": 6952,
      "vke": 6953,
      "nava": 6954,
      "vari": 6955,
      "risa": 6956,
      "tero": 6957,
      "loj": 6958,
      " and": 6959,
      " prof": 6960,
      " goste": 6961,
      " golom": 6962,
      "sata": 6963,
      "tniji": 6964,
      " Pau": 6965,
      " mrežu": 6966,
      " događaju": 6967,
      " pronašli": 6968,
      " parlament": 6969,
      " nogometaš": 6970,
      " opasnost": 6971,
      " okoliša": 6972,
      " tehnologije": 6973,
      "Posebno": 6974,
      ";kom": 6975,
      " uza": 6976,
      " pošte": 6977,
      " izbaci": 6978,
      " san": 6979,
      " pretje": 6980,
      " Pan": 6981,
      " magi": 6982,
      " linije": 6983,
      " vodom": 6984,
      " Che": 6985,
      " mjestima": 6986,
      " Zri": 6987,
      " tijelu": 6988,
      "godišnje": 6989,
      " rezultatom": 6990,
      " geo": 6991,
      "-ova": 6992,
      " kazneno": 6993,
      "vljuju": 6994,
      " ponašanje": 6995,
      " ravnatelj": 6996,
      " vrtića": 6997,
      "Mje": 6998,
      "hla": 6999,
      "rnom": 7000,
      "vat": 7001,
      " popri": 7002,
      " dono": 7003,
      " Igor": 7004,
      " znate": 7005,
      " Miha": 7006,
      " želja": 7007,
      " autor": 7008,
      " slavi": 7009,
      " nemamo": 7010,
      " proizvodi": 7011,
      "147": 7012,
      " Putin": 7013,
      " otvorio": 7014,
      " izvijestio": 7015,
      "NE": 7016,
      "mpu": 7017,
      "tov": 7018,
      " kota": 7019,
      " kosti": 7020,
      "ziji": 7021,
      " Slova": 7022,
      " Areni": 7023,
      " potpisao": 7024,
      " Marka": 7025,
      " korist": 7026,
      " društvene": 7027,
      " važna": 7028,
      " slobodno": 7029,
      " roditeljima": 7030,
      " počini": 7031,
      "desetak": 7032,
      " imu": 7033,
      " ovla": 7034,
      "taba": 7035,
      " pogled": 7036,
      " priklju": 7037,
      " glavna": 7038,
      "jekt": 7039,
      "Malo": 7040,
      "službe": 7041,
      " organizacija": 7042,
      " modela": 7043,
      " vjerovati": 7044,
      " angaži": 7045,
      "kovima": 7046,
      "nel": 7047,
      "goj": 7048,
      " odlazak": 7049,
      " šali": 7050,
      "sila": 7051,
      " real": 7052,
      "žim": 7053,
      "dnost": 7054,
      "feren": 7055,
      " Davor": 7056,
      "veden": 7057,
      " župani": 7058,
      " odabi": 7059,
      " novinarima": 7060,
      " zahtjeva": 7061,
      " ovisno": 7062,
      " kategorije": 7063,
      " mirovinu": 7064,
      " utrke": 7065,
      " savjeto": 7066,
      " medalje": 7067,
      " Željko": 7068,
      " ugostitelj": 7069,
      "56": 7070,
      " okri": 7071,
      " sestra": 7072,
      " doja": 7073,
      "rus": 7074,
      " provesti": 7075,
      " savjetni": 7076,
      " mira": 7077,
      "set": 7078,
      " varaždin": 7079,
      " sveučili": 7080,
      " kul": 7081,
      " mjeri": 7082,
      " vijeć": 7083,
      "financi": 7084,
      " komuna": 7085,
      " razdoblja": 7086,
      " sudjelovao": 7087,
      " povjerenje": 7088,
      " titulu": 7089,
      " web": 7090,
      " Centra": 7091,
      "uter": 7092,
      "meni": 7093,
      " vaterpo": 7094,
      " crije": 7095,
      "šković": 7096,
      " Vatre": 7097,
      " Biden": 7098,
      " izjave": 7099,
      " zatvara": 7100,
      "šnjih": 7101,
      " sceni": 7102,
      " zastupnik": 7103,
      " admini": 7104,
      " nekretnina": 7105,
      " napustio": 7106,
      ";nih": 7107,
      "\\u": 7108,
      "rate": 7109,
      "ranom": 7110,
      " ikad": 7111,
      " jefti": 7112,
      "roz": 7113,
      " nare": 7114,
      "vent": 7115,
      "jice": 7116,
      " moz": 7117,
      " gimna": 7118,
      " linija": 7119,
      " Jele": 7120,
      " usred": 7121,
      " Rafa": 7122,
      " zatvori": 7123,
      " Dubrova": 7124,
      " donijela": 7125,
      " izvijestila": 7126,
      "dalmati": 7127,
      " Udruge": 7128,
      "ed": 7129,
      "jmo": 7130,
      "žnu": 7131,
      "leta": 7132,
      " prou": 7133,
      " SP": 7134,
      " mehani": 7135,
      " prvim": 7136,
      " grani": 7137,
      " dobiva": 7138,
      "Moramo": 7139,
      " predstavnika": 7140,
      " Rado": 7141,
      " malolje": 7142,
      " uvjeti": 7143,
      "Related": 7144,
      " poslove": 7145,
      "Trenu": 7146,
      " procesu": 7147,
      ";kih": 7148,
      " doživlja": 7149,
      " naziva": 7150,
      " Saraje": 7151,
      " pljusko": 7152,
      " humanitar": 7153,
      "99": 7154,
      "Vrije": 7155,
      "cki": 7156,
      "tsku": 7157,
      " uža": 7158,
      "tovima": 7159,
      " izo": 7160,
      "čini": 7161,
      "pone": 7162,
      " Sal": 7163,
      ";eka": 7164,
      "zerva": 7165,
      " staviti": 7166,
      " stanova": 7167,
      "kraj": 7168,
      " radila": 7169,
      " financija": 7170,
      " domaćih": 7171,
      "Nismo": 7172,
      " takvim": 7173,
      " osiguranje": 7174,
      " europskog": 7175,
      " Ukrajina": 7176,
      " iduće": 7177,
      " sjajno": 7178,
      " igri": 7179,
      " Aleksa": 7180,
      " John": 7181,
      "Plen": 7182,
      "gni": 7183,
      "vide": 7184,
      " suvreme": 7185,
      "kedo": 7186,
      " lip": 7187,
      " raznih": 7188,
      " jak": 7189,
      " svatko": 7190,
      "zirali": 7191,
      "162": 7192,
      " ulica": 7193,
      " publici": 7194,
      " turniru": 7195,
      " vatrogasa": 7196,
      "Rijeka": 7197,
      "683": 7198,
      " preuzeo": 7199,
      "iner": 7200,
      "lci": 7201,
      " zasad": 7202,
      " suge": 7203,
      " proma": 7204,
      "čito": 7205,
      " Sjeve": 7206,
      "stop": 7207,
      " obve": 7208,
      " tražiti": 7209,
      "ćuju": 7210,
      " baci": 7211,
      " sadr": 7212,
      " napravila": 7213,
      "đivati": 7214,
      " obzir": 7215,
      " izgradnju": 7216,
      " zvijezde": 7217,
      "-dalmati": 7218,
      "Sti": 7219,
      "Slu": 7220,
      "my": 7221,
      " oglasi": 7222,
      "rita": 7223,
      "rića": 7224,
      "torija": 7225,
      " zaigra": 7226,
      " koor": 7227,
      "lor": 7228,
      " ape": 7229,
      " presti": 7230,
      "duše": 7231,
      " veću": 7232,
      " Kije": 7233,
      " oblje": 7234,
      " razgovora": 7235,
      "đani": 7236,
      " crno": 7237,
      " pobjednik": 7238,
      " kise": 7239,
      "cijskog": 7240,
      " Veliko": 7241,
      " razlika": 7242,
      " slično": 7243,
      "269": 7244,
      " Izraela": 7245,
      "854": 7246,
      " vikend": 7247,
      "tabase": 7248,
      "427": 7249,
      "žo": 7250,
      "rona": 7251,
      "vene": 7252,
      "njene": 7253,
      " SD": 7254,
      " vita": 7255,
      " menad": 7256,
      " valja": 7257,
      " javnom": 7258,
      " petka": 7259,
      " Šo": 7260,
      " općine": 7261,
      " slučajeva": 7262,
      " vojne": 7263,
      " sastav": 7264,
      " ponude": 7265,
      " pobijedili": 7266,
      " institucija": 7267,
      " milijarde": 7268,
      " predviđa": 7269,
      " Facebook": 7270,
      "Utakmi": 7271,
      "Zdravlje": 7272,
      "tskog": 7273,
      " ikada": 7274,
      "tike": 7275,
      " izgle": 7276,
      " rekonstru": 7277,
      "dugo": 7278,
      " pande": 7279,
      "žak": 7280,
      "pera": 7281,
      "đenog": 7282,
      "stupan": 7283,
      " njihovoj": 7284,
      " online": 7285,
      " obrambe": 7286,
      " vozilom": 7287,
      " poslovanja": 7288,
      " županiji": 7289,
      " HNS": 7290,
      " spomenu": 7291,
      " album": 7292,
      " Olimpijskim": 7293,
      " iznajm": 7294,
      "gnosti": 7295,
      "xa": 7296,
      "toli": 7297,
      "ley": 7298,
      " radom": 7299,
      " mikro": 7300,
      "Nadam": 7301,
      " dijeli": 7302,
      " predstavio": 7303,
      " problemima": 7304,
      "cijska": 7305,
      " pretvori": 7306,
      " neod": 7307,
      " krug": 7308,
      " nezadovolj": 7309,
      " Srbija": 7310,
      " birača": 7311,
      " Hrvati": 7312,
      " iskoristiti": 7313,
      " troškova": 7314,
      " regula": 7315,
      "Dan": 7316,
      "trije": 7317,
      "vanjima": 7318,
      " dona": 7319,
      " tona": 7320,
      " nizu": 7321,
      " Hi": 7322,
      " Ad": 7323,
      " raznim": 7324,
      " stav": 7325,
      " Nije": 7326,
      " uzne": 7327,
      " ostane": 7328,
      " jutar": 7329,
      " krenuti": 7330,
      "rtava": 7331,
      " obavije": 7332,
      " Rusi": 7333,
      " posljednja": 7334,
      " nikakve": 7335,
      "publika": 7336,
      " Lov": 7337,
      " izdanje": 7338,
      " sudjelovali": 7339,
      " nedostaje": 7340,
      " bloki": 7341,
      " četvero": 7342,
      " zadovoljan": 7343,
      "dbu": 7344,
      "rs": 7345,
      "vrati": 7346,
      " poštu": 7347,
      " zamisli": 7348,
      " odbio": 7349,
      " bicikli": 7350,
      " Kristi": 7351,
      " hrana": 7352,
      " meč": 7353,
      " najma": 7354,
      ";anje": 7355,
      " otpa": 7356,
      "fenzi": 7357,
      " hrvatskoj": 7358,
      " obrana": 7359,
      " Rumunj": 7360,
      " Seve": 7361,
      " mnogim": 7362,
      " novinara": 7363,
      " Dalmaciji": 7364,
      " načelnik": 7365,
      " prihoda": 7366,
      " Policijske": 7367,
      " tjelesne": 7368,
      "rent": 7369,
      " kama": 7370,
      "gana": 7371,
      " pregled": 7372,
      "zila": 7373,
      " Kli": 7374,
      "šavaju": 7375,
      " Rima": 7376,
      " Gran": 7377,
      " gluma": 7378,
      " ostvario": 7379,
      " utjecajem": 7380,
      " detalji": 7381,
      " obrazovanje": 7382,
      " transpa": 7383,
      " strijelac": 7384,
      " Sjever": 7385,
      "800": 7386,
      ";nu": 7387,
      "HDZ": 7388,
      "nstva": 7389,
      "strem": 7390,
      " izgled": 7391,
      " motivi": 7392,
      " nov": 7393,
      " Ara": 7394,
      " Mal": 7395,
      " jugu": 7396,
      " Washing": 7397,
      " zaštiti": 7398,
      " braka": 7399,
      " upozorenje": 7400,
      " otišla": 7401,
      " ministarstvo": 7402,
      " You": 7403,
      " pojedina": 7404,
      " plesa": 7405,
      " lipnju": 7406,
      "\"U": 7407,
      " poza": 7408,
      "torica": 7409,
      "metra": 7410,
      "lus": 7411,
      " kći": 7412,
      "turu": 7413,
      " vete": 7414,
      " men": 7415,
      " plani": 7416,
      " čokola": 7417,
      " krenula": 7418,
      " Bero": 7419,
      " istaknuti": 7420,
      " Vuko": 7421,
      " odab": 7422,
      " Šibeniku": 7423,
      " hotel": 7424,
      " oružje": 7425,
      " zabrinu": 7426,
      "Stu": 7427,
      "rajući": 7428,
      "rirati": 7429,
      "ding": 7430,
      " kapita": 7431,
      "bala": 7432,
      " even": 7433,
      "šavanja": 7434,
      " limu": 7435,
      " insta": 7436,
      " djetinj": 7437,
      " bak": 7438,
      " Šved": 7439,
      " stolje": 7440,
      "Proble": 7441,
      " nećemo": 7442,
      " projektu": 7443,
      "Primje": 7444,
      " vlastite": 7445,
      " postupka": 7446,
      " trening": 7447,
      " dvojica": 7448,
      " htjeli": 7449,
      " veleposla": 7450,
      " sektoru": 7451,
      "432": 7452,
      "ogle": 7453,
      "tskom": 7454,
      "tskim": 7455,
      " plina": 7456,
      "title": 7457,
      "zina": 7458,
      "zali": 7459,
      "dow": 7460,
      " liga": 7461,
      " Ivo": 7462,
      "dnosti": 7463,
      " gastro": 7464,
      "Moj": 7465,
      " pozicije": 7466,
      " Libano": 7467,
      " Zorana": 7468,
      " prethodno": 7469,
      " nacionalne": 7470,
      " rekord": 7471,
      " stručnjaci": 7472,
      " Madrid": 7473,
      " ubojstvo": 7474,
      "!'\n": 7475,
      "814": 7476,
      "elu": 7477,
      "ssa": 7478,
      " sen": 7479,
      "šena": 7480,
      "grada": 7481,
      "žavanja": 7482,
      " kontine": 7483,
      " tragi": 7484,
      " ostavlja": 7485,
      " slavio": 7486,
      " istina": 7487,
      "Bivši": 7488,
      " smještaj": 7489,
      " američkog": 7490,
      " otvorenom": 7491,
      " bolest": 7492,
      " stručnjak": 7493,
      " djevojka": 7494,
      " štete": 7495,
      " zlato": 7496,
      " potrebne": 7497,
      " uzroko": 7498,
      " zadatak": 7499,
      " polufinalu": 7500,
      " kompanije": 7501,
      "Europ": 7502,
      " telefon": 7503,
      " zainteresi": 7504,
      " Manchester": 7505,
      "bne": 7506,
      " or": 7507,
      "vosti": 7508,
      " nes": 7509,
      " takti": 7510,
      "Naša": 7511,
      " ondje": 7512,
      " Liva": 7513,
      " umjeren": 7514,
      " Jutarnji": 7515,
      " kvalitet": 7516,
      " želio": 7517,
      " branitelja": 7518,
      " pisali": 7519,
      " majke": 7520,
      " mirovine": 7521,
      " infrastrukture": 7522,
      " imovine": 7523,
      "scri": 7524,
      "611": 7525,
      "au": 7526,
      " nai": 7527,
      " nared": 7528,
      " doveo": 7529,
      "mora": 7530,
      " prikuplja": 7531,
      " malih": 7532,
      " boriti": 7533,
      " benzi": 7534,
      " bur": 7535,
      " Luke": 7536,
      " zaključila": 7537,
      " priznala": 7538,
      " eksperi": 7539,
      " svibnju": 7540,
      " kakvu": 7541,
      " intervjuu": 7542,
      "010": 7543,
      "72": 7544,
      "MZ": 7545,
      "tika": 7546,
      "telju": 7547,
      " izosta": 7548,
      "ćev": 7549,
      "čicu": 7550,
      " gole": 7551,
      " nose": 7552,
      " pas": 7553,
      " palesti": 7554,
      " bore": 7555,
      " infe": 7556,
      " ostavku": 7557,
      " dodatne": 7558,
      " izašao": 7559,
      " sretan": 7560,
      " dolaska": 7561,
      " glumi": 7562,
      " registri": 7563,
      " upozorio": 7564,
      "Tek": 7565,
      " upravljanje": 7566,
      " komentarima": 7567,
      " medalju": 7568,
      " cijeloj": 7569,
      "Luka": 7570,
      " kćer": 7571,
      "Hoće": 7572,
      "tnije": 7573,
      "jeg": 7574,
      " nazo": 7575,
      "stili": 7576,
      " rano": 7577,
      " tad": 7578,
      "šica": 7579,
      " Grbi": 7580,
      " tip": 7581,
      " slab": 7582,
      " obali": 7583,
      "ških": 7584,
      " određene": 7585,
      " sastanak": 7586,
      " središtu": 7587,
      " gospodarstvo": 7588,
      "Puno": 7589,
      " partneri": 7590,
      " poljoprivred": 7591,
      " uzeti": 7592,
      " vidljivo": 7593,
      " ljestvici": 7594,
      "Drža": 7595,
      " ise": 7596,
      " ilega": 7597,
      "ritet": 7598,
      " Han": 7599,
      "šavanje": 7600,
      " mama": 7601,
      "sona": 7602,
      " tren": 7603,
      " dis": 7604,
      " Isu": 7605,
      " dug": 7606,
      " policijski": 7607,
      "šteni": 7608,
      " čišće": 7609,
      "lnica": 7610,
      " izbornoj": 7611,
      " mlađe": 7612,
      " predstavni": 7613,
      " ideal": 7614,
      " Domi": 7615,
      " Joe": 7616,
      " akcija": 7617,
      " alterna": 7618,
      " pomaga": 7619,
      " Andreja": 7620,
      " dresu": 7621,
      " nogometni": 7622,
      " intelige": 7623,
      " agresi": 7624,
      " goriva": 7625,
      "74": 7626,
      "tirao": 7627,
      " upita": 7628,
      " upisao": 7629,
      "novima": 7630,
      " zapri": 7631,
      "luence": 7632,
      " otvoren": 7633,
      "stero": 7634,
      " dobit": 7635,
      " područjima": 7636,
      " voditeljica": 7637,
      " Gaze": 7638,
      "Tamo": 7639,
      " Austri": 7640,
      "Teško": 7641,
      " bivša": 7642,
      " Šibenika": 7643,
      " sukob": 7644,
      " medalja": 7645,
      " okviru": 7646,
      "Otkri": 7647,
      " spektak": 7648,
      "Kre": 7649,
      "TI": 7650,
      "_c": 7651,
      "vicu": 7652,
      " avan": 7653,
      " hid": 7654,
      "gić": 7655,
      "dnicima": 7656,
      " najsta": 7657,
      " otkako": 7658,
      " postaju": 7659,
      " tajnik": 7660,
      " Dana": 7661,
      " srpnju": 7662,
      " atmosferu": 7663,
      " Italiji": 7664,
      "Vjerujem": 7665,
      "č": 7666,
      "remo": 7667,
      "vajte": 7668,
      " povremeno": 7669,
      " zamo": 7670,
      " dovodi": 7671,
      " kafi": 7672,
      " Sch": 7673,
      "šenju": 7674,
      " mane": 7675,
      " predmet": 7676,
      " Jen": 7677,
      " radim": 7678,
      " Sabora": 7679,
      " problemi": 7680,
      " povećati": 7681,
      " kršća": 7682,
      " reakcija": 7683,
      " majsto": 7684,
      " transforma": 7685,
      " nogometu": 7686,
      "Zahvalju": 7687,
      "Gallery": 7688,
      "Ha": 7689,
      "TV": 7690,
      " ina": 7691,
      "kog": 7692,
      "teh": 7693,
      " suigra": 7694,
      " mog": 7695,
      " kg": 7696,
      "sea": 7697,
      ";eg": 7698,
      "sova": 7699,
      ";ali": 7700,
      ";ala": 7701,
      "ntan": 7702,
      " glavi": 7703,
      " baviti": 7704,
      " ostalog": 7705,
      " optere": 7706,
      " sreću": 7707,
      " poručila": 7708,
      "đivanje": 7709,
      " pokušaj": 7710,
      " Kupa": 7711,
      " studenoga": 7712,
      " raspolaga": 7713,
      " gradovima": 7714,
      " hrabro": 7715,
      " arhite": 7716,
      "tanja": 7717,
      " zare": 7718,
      " zaro": 7719,
      " HA": 7720,
      "trag": 7721,
      " stare": 7722,
      ";ana": 7723,
      "Pot": 7724,
      "Potre": 7725,
      ";upa": 7726,
      " Raspu": 7727,
      " istoj": 7728,
      " očeku": 7729,
      " čuti": 7730,
      " glazbu": 7731,
      " gradske": 7732,
      " uloge": 7733,
      " direktora": 7734,
      " kolegi": 7735,
      " listopadu": 7736,
      " odvjetnika": 7737,
      " Đo": 7738,
      " profilu": 7739,
      " dužnost": 7740,
      " najvažnije": 7741,
      " osumnjiče": 7742,
      " oglasio": 7743,
      "jak": 7744,
      "mah": 7745,
      " Spa": 7746,
      " trend": 7747,
      " glave": 7748,
      " glavom": 7749,
      " službi": 7750,
      " Pav": 7751,
      "Moja": 7752,
      " takvu": 7753,
      " Hajduku": 7754,
      " slobodu": 7755,
      " unutarnjih": 7756,
      " natječaj": 7757,
      " školama": 7758,
      " Slovenije": 7759,
      " liječnika": 7760,
      " htjela": 7761,
      "Ovi": 7762,
      "Ri": 7763,
      "jnog": 7764,
      "ralo": 7765,
      " jedana": 7766,
      "tana": 7767,
      " odbija": 7768,
      " bici": 7769,
      " eska": 7770,
      "djelo": 7771,
      " stanu": 7772,
      " jam": 7773,
      " Ol": 7774,
      " granica": 7775,
      "rijama": 7776,
      "ily": 7777,
      " Europu": 7778,
      " automa": 7779,
      " mjesecima": 7780,
      " istovremeno": 7781,
      " pojavila": 7782,
      " jedinici": 7783,
      " potvrdila": 7784,
      " čekaju": 7785,
      " omogućuje": 7786,
      " srednje": 7787,
      " Francuske": 7788,
      " potpore": 7789,
      "Wid": 7790,
      "Ši": 7791,
      " probu": 7792,
      "zivanje": 7793,
      " Kur": 7794,
      " Jur": 7795,
      " slavlje": 7796,
      " pobjedi": 7797,
      " trenucima": 7798,
      " trenutka": 7799,
      " parti": 7800,
      " Marti": 7801,
      " pogor": 7802,
      " priprem": 7803,
      "mentima": 7804,
      "Super": 7805,
      " utjecaja": 7806,
      " kampanju": 7807,
      " prosincu": 7808,
      " spriječiti": 7809,
      "Width": 7810,
      ".slobodnadalmacija": 7811,
      "95": 7812,
      "947": 7813,
      "rca": 7814,
      "raka": 7815,
      "dile": 7816,
      " dopu": 7817,
      "ziran": 7818,
      " licu": 7819,
      ";inje": 7820,
      "đenom": 7821,
      "Zagre": 7822,
      " instru": 7823,
      ";ani": 7824,
      "Pobje": 7825,
      " Petar": 7826,
      " pogotka": 7827,
      " napade": 7828,
      "šnjim": 7829,
      " napadač": 7830,
      " subote": 7831,
      " uputio": 7832,
      " nazivom": 7833,
      " izložbe": 7834,
      "-godišnjaka": 7835,
      " ponašanja": 7836,
      " sjećanja": 7837,
      " ubojstva": 7838,
      " skanda": 7839,
      " asistencija": 7840,
      "tit": 7841,
      " ulje": 7842,
      "loškog": 7843,
      "gović": 7844,
      "kinje": 7845,
      " resur": 7846,
      "Naš": 7847,
      " Tri": 7848,
      "djeli": 7849,
      "Poku": 7850,
      " pjesama": 7851,
      " čuli": 7852,
      " jedinica": 7853,
      " struje": 7854,
      " zagrebačkom": 7855,
      " neuspje": 7856,
      " utvrđeno": 7857,
      " komentirala": 7858,
      " velikoj": 7859,
      "ispla": 7860,
      " zadovoljstvo": 7861,
      " jutros": 7862,
      "šnog": 7863,
      " Sil": 7864,
      "duje": 7865,
      "section": 7866,
      " obveza": 7867,
      " Adri": 7868,
      " Air": 7869,
      " Van": 7870,
      " Isla": 7871,
      " Istre": 7872,
      " otpo": 7873,
      " praz": 7874,
      "žuju": 7875,
      " loši": 7876,
      " romanti": 7877,
      " dodajući": 7878,
      " nastala": 7879,
      " predstavnici": 7880,
      " ponovo": 7881,
      " smješta": 7882,
      " akciju": 7883,
      " uloga": 7884,
      " navijačima": 7885,
      " kolovo": 7886,
      " učenici": 7887,
      ";kim": 7888,
      " opreme": 7889,
      ";ivota": 7890,
      " hitne": 7891,
      " stadiona": 7892,
      " razgovarali": 7893,
      " Geor": 7894,
      " teritori": 7895,
      "jma": 7896,
      "zra": 7897,
      "nosa": 7898,
      " jeze": 7899,
      "tenti": 7900,
      " sela": 7901,
      " sufinanci": 7902,
      " dogovor": 7903,
      "šem": 7904,
      "pija": 7905,
      "berta": 7906,
      " imat": 7907,
      " putni": 7908,
      ";ad": 7909,
      " uzrok": 7910,
      " državnom": 7911,
      " prijava": 7912,
      " proizvod": 7913,
      " Vele": 7914,
      " nikako": 7915,
      " onako": 7916,
      "Najviše": 7917,
      " nezavi": 7918,
      " srednjo": 7919,
      " komunici": 7920,
      " izvanred": 7921,
      " uhićen": 7922,
      " korištenja": 7923,
      " skija": 7924,
      "Struč": 7925,
      " skrb": 7926,
      "ls": 7927,
      " okon": 7928,
      "tović": 7929,
      "ves": 7930,
      " odlaska": 7931,
      " prepu": 7932,
      "čenju": 7933,
      " motor": 7934,
      "tuje": 7935,
      "dov": 7936,
      " eg": 7937,
      " obvez": 7938,
      "Napo": 7939,
      " Taj": 7940,
      " strah": 7941,
      "kupno": 7942,
      " nemam": 7943,
      " upora": 7944,
      " lokacija": 7945,
      " svjetske": 7946,
      " financijski": 7947,
      " ulicama": 7948,
      " ponuda": 7949,
      " ekipu": 7950,
      " prometnoj": 7951,
      " izazvao": 7952,
      " objekti": 7953,
      " napredak": 7954,
      "porter": 7955,
      " stajali": 7956,
      " origina": 7957,
      "Gu": 7958,
      "Ki": 7959,
      "dbre": 7960,
      "wo": 7961,
      "rale": 7962,
      "liju": 7963,
      "ling": 7964,
      " zabrani": 7965,
      " dane": 7966,
      "lesu": 7967,
      "čaju": 7968,
      "stojan": 7969,
      " Tho": 7970,
      " pun": 7971,
      " vaša": 7972,
      " samopo": 7973,
      " dulje": 7974,
      " osvje": 7975,
      " mlada": 7976,
      " lokalnih": 7977,
      " zajednički": 7978,
      " koncer": 7979,
      " HNK": 7980,
      " nazvao": 7981,
      "atia": 7982,
      "cm": 7983,
      "nstvo": 7984,
      "ts": 7985,
      " ika": 7986,
      "stica": 7987,
      " prikupi": 7988,
      " gri": 7989,
      "čana": 7990,
      " glasi": 7991,
      " turne": 7992,
      " vrijedan": 7993,
      "ins": 7994,
      " prošla": 7995,
      " pojavio": 7996,
      " pokušati": 7997,
      " sadržaja": 7998,
      " preuzeti": 7999,
      " troškove": 8000,
      " apsolutno": 8001,
      "istinu": 8002,
      ";nim": 8003,
      "nc": 8004,
      "ninu": 8005,
      " olimpi": 8006,
      "tati": 8007,
      " popisu": 8008,
      "danje": 8009,
      " dal": 8010,
      " preven": 8011,
      "bara": 8012,
      " teže": 8013,
      " listu": 8014,
      " trenin": 8015,
      "ntna": 8016,
      " služba": 8017,
      " objavlje": 8018,
      "škol": 8019,
      " njihovog": 8020,
      " pitao": 8021,
      " ideo": 8022,
      " žup": 8023,
      " održavanje": 8024,
      " rezultatima": 8025,
      " porast": 8026,
      " aktivno": 8027,
      "vrata": 8028,
      " uživo": 8029,
      " Trumpo": 8030,
      " angaž": 8031,
      " uređaja": 8032,
      " razoča": 8033,
      " prvenstveno": 8034,
      "Budući": 8035,
      "Zanimljivo": 8036,
      ";ju": 8037,
      "Pjeva": 8038,
      "con": 8039,
      "efi": 8040,
      " skre": 8041,
      " ušli": 8042,
      "vači": 8043,
      "ljenog": 8044,
      "njava": 8045,
      "pix": 8046,
      " nogu": 8047,
      " Mia": 8048,
      " ruskog": 8049,
      " cijelom": 8050,
      " postavio": 8051,
      " predsjednikom": 8052,
      " vratar": 8053,
      " luka": 8054,
      " sprema": 8055,
      " nude": 8056,
      " izazove": 8057,
      " podijelio": 8058,
      " podržava": 8059,
      " definira": 8060,
      "Gleda": 8061,
      "ć": 8062,
      "tmu": 8063,
      "kana": 8064,
      " domina": 8065,
      "mid": 8066,
      "porta": 8067,
      " inva": 8068,
      " kontra": 8069,
      " trebamo": 8070,
      " vježba": 8071,
      " Zu": 8072,
      " ideje": 8073,
      "Meni": 8074,
      " Europski": 8075,
      " zatvoru": 8076,
      " dramati": 8077,
      " procesa": 8078,
      " dokaz": 8079,
      " omogućiti": 8080,
      " Euru": 8081,
      " Norve": 8082,
      " apart": 8083,
      ".com": 8084,
      ";nom": 8085,
      "Time": 8086,
      "lozo": 8087,
      "pova": 8088,
      "sor": 8089,
      ";anja": 8090,
      "Potom": 8091,
      " izborni": 8092,
      " pobjednika": 8093,
      " Saboru": 8094,
      " poručili": 8095,
      "panj": 8096,
      " Med": 8097,
      " radionice": 8098,
      " poteško": 8099,
      " kontrole": 8100,
      " travnju": 8101,
      " povjeren": 8102,
      " zaposlenika": 8103,
      " vodstvom": 8104,
      "vardio": 8105,
      " savršeno": 8106,
      " sposobnost": 8107,
      "86": 8108,
      ";nog": 8109,
      "UR": 8110,
      "drije": 8111,
      "zlo": 8112,
      " iš": 8113,
      " uklanja": 8114,
      "jani": 8115,
      "teru": 8116,
      "mara": 8117,
      "vod": 8118,
      " bal": 8119,
      "ruje": 8120,
      "mes": 8121,
      "donače": 8122,
      "gura": 8123,
      ";eš": 8124,
      " razreda": 8125,
      " uzor": 8126,
      " peti": 8127,
      " sreće": 8128,
      " Reuter": 8129,
      " popular": 8130,
      " Kašte": 8131,
      " Gore": 8132,
      " situacijama": 8133,
      "Veliki": 8134,
      " predstavljaju": 8135,
      " upravljao": 8136,
      " turista": 8137,
      " festivalu": 8138,
      " crveni": 8139,
      " postroj": 8140,
      "83": 8141,
      "Ge": 8142,
      "Glu": 8143,
      "SA": 8144,
      "lip": 8145,
      "likom": 8146,
      "veno": 8147,
      " zasigurno": 8148,
      " vizu": 8149,
      "djeti": 8150,
      " vani": 8151,
      " siroma": 8152,
      " pilo": 8153,
      " policiju": 8154,
      " morala": 8155,
      " trgo": 8156,
      " Ruje": 8157,
      " istog": 8158,
      " istragu": 8159,
      " održana": 8160,
      "mpati": 8161,
      " kandidati": 8162,
      " izgradnje": 8163,
      " sudjelovanje": 8164,
      " izdvoji": 8165,
      " Dalić": 8166,
      " eventual": 8167,
      ".),": 8168,
      "81": 8169,
      " uveli": 8170,
      "las": 8171,
      " zanema": 8172,
      " korije": 8173,
      " Dr": 8174,
      "vjeroja": 8175,
      " Anu": 8176,
      "pen": 8177,
      " Iran": 8178,
      "vljenje": 8179,
      " pitali": 8180,
      "smom": 8181,
      "Nitko": 8182,
      " dugotra": 8183,
      " svakoj": 8184,
      " ostvarili": 8185,
      " student": 8186,
      " osnovne": 8187,
      " izazovima": 8188,
      " upoznati": 8189,
      " mijenjati": 8190,
      " materijala": 8191,
      " veljači": 8192,
      "ćenito": 8193,
      " sudionika": 8194,
      "Glavni": 8195,
      " stanovništva": 8196,
      " Alex": 8197,
      " potpredsjedni": 8198,
      ",{\"": 8199,
      "/images": 8200,
      "Ovdje": 8201,
      "Prija": 8202,
      "bna": 8203,
      "hra": 8204,
      "ngu": 8205,
      " sprje": 8206,
      "nicom": 8207,
      " seks": 8208,
      " sub": 8209,
      " afe": 8210,
      " dođu": 8211,
      " donose": 8212,
      "movima": 8213,
      " nerije": 8214,
      " neću": 8215,
      ";evi": 8216,
      " stariji": 8217,
      "prema": 8218,
      " želju": 8219,
      "Neka": 8220,
      " Pod": 8221,
      " šet": 8222,
      " potrebu": 8223,
      " izravno": 8224,
      " promjenu": 8225,
      " Či": 8226,
      " vašem": 8227,
      " konkurenciji": 8228,
      " daljnje": 8229,
      " Eura": 8230,
      " Serge": 8231,
      "\"},{\"": 8232,
      " Rimac": 8233,
      "04": 8234,
      "Pr": 8235,
      "žja": 8236,
      " okup": 8237,
      " uga": 8238,
      "vaku": 8239,
      " nat": 8240,
      " privreme": 8241,
      "zivanja": 8242,
      "politi": 8243,
      "cea": 8244,
      "šeno": 8245,
      ";enju": 8246,
      " trećem": 8247,
      " Cha": 8248,
      "snici": 8249,
      "fiel": 8250,
      "ntne": 8251,
      " vjetro": 8252,
      " svojem": 8253,
      " odgovornosti": 8254,
      " osigurava": 8255,
      " kulturu": 8256,
      " važnosti": 8257,
      " vlasnika": 8258,
      " Jela": 8259,
      " očekivanja": 8260,
      " iznosila": 8261,
      " kemi": 8262,
      " USKOK": 8263,
      " grmljavi": 8264,
      "Plenković": 8265,
      "-s": 8266,
      "ONA": 8267,
      "mske": 8268,
      " psa": 8269,
      "kos": 8270,
      "koni": 8271,
      " tla": 8272,
      " Sha": 8273,
      " Kne": 8274,
      "šice": 8275,
      " Chi": 8276,
      " grama": 8277,
      " mješta": 8278,
      " gar": 8279,
      " kralji": 8280,
      " čim": 8281,
      " broda": 8282,
      " dodajte": 8283,
      "verpo": 8284,
      " vojni": 8285,
      " takvo": 8286,
      " djelatnosti": 8287,
      " sportske": 8288,
      " vidite": 8289,
      " važne": 8290,
      " skokova": 8291,
      " kampanji": 8292,
      " fizički": 8293,
      " siječnju": 8294,
      " perspekti": 8295,
      " Dalmacije": 8296,
      " doprinos": 8297,
      " površine": 8298,
      " odobre": 8299,
      " inozemstvu": 8300,
      " zapovjednik": 8301,
      " sjevernom": 8302,
      "Najbolji": 8303,
      " glasnogovornik": 8304,
      "73": 8305,
      "Ili": 8306,
      "kciji": 8307,
      "ura": 8308,
      "šnih": 8309,
      " jedni": 8310,
      "res": 8311,
      "mera": 8312,
      " prepre": 8313,
      "pana": 8314,
      " She": 8315,
      " Marina": 8316,
      "zolu": 8317,
      " lansi": 8318,
      " krei": 8319,
      " sjednici": 8320,
      " župan": 8321,
      " gledatelja": 8322,
      "Velika": 8323,
      " priznanje": 8324,
      " Premi": 8325,
      " dijagnosti": 8326,
      " provode": 8327,
      " nevjerojatno": 8328,
      " sadržaj": 8329,
      " Vladimir": 8330,
      " Hercegovine": 8331,
      "plova": 8332,
      "šći": 8333,
      "žom": 8334,
      " najo": 8335,
      "nela": 8336,
      " kože": 8337,
      "gora": 8338,
      " sukladno": 8339,
      "static": 8340,
      "ljenim": 8341,
      " mate": 8342,
      " najbli": 8343,
      " tur": 8344,
      " objavu": 8345,
      " dobije": 8346,
      " Pogledajte": 8347,
      "Imali": 8348,
      " slobode": 8349,
      " novinare": 8350,
      " parlamentu": 8351,
      " zaposlenih": 8352,
      " parkirali": 8353,
      " tehnologija": 8354,
      " zagrija": 8355,
      " doslovno": 8356,
      "./": 8357,
      "700": 8358,
      "96": 8359,
      "nter": 8360,
      " ubio": 8361,
      "rišta": 8362,
      " Crne": 8363,
      " potpi": 8364,
      " konstru": 8365,
      "error": 8366,
      "Doma": 8367,
      " prijavu": 8368,
      " leđa": 8369,
      " Gradu": 8370,
      " pripremi": 8371,
      " Lei": 8372,
      " suprugu": 8373,
      " tranzi": 8374,
      " djevojke": 8375,
      " muškarci": 8376,
      " atmosfera": 8377,
      " ubrza": 8378,
      " prijetnje": 8379,
      "Marko": 8380,
      " utječe": 8381,
      "\"Ne": 8382,
      "&Ccaron": 8383,
      "92": 8384,
      "HMZ": 8385,
      "Kri": 8386,
      "koviti": 8387,
      "vate": 8388,
      " zrak": 8389,
      "posle": 8390,
      "turi": 8391,
      " govor": 8392,
      "don": 8393,
      "dović": 8394,
      " obr": 8395,
      " hvala": 8396,
      " bol": 8397,
      " isc": 8398,
      " konzerva": 8399,
      ";utim": 8400,
      " Bosne": 8401,
      " nastavila": 8402,
      " Raki": 8403,
      " poznate": 8404,
      " njezino": 8405,
      " održat": 8406,
      " svjetskih": 8407,
      " odigrali": 8408,
      " Španjolska": 8409,
      " industrije": 8410,
      " zrakoplov": 8411,
      " motoci": 8412,
      " skrbi": 8413,
      "pularni": 8414,
      " dalmati": 8415,
      "Obo": 8416,
      " dvoj": 8417,
      " ora": 8418,
      "renju": 8419,
      " popodne": 8420,
      "teme": 8421,
      " kono": 8422,
      " kore": 8423,
      " proto": 8424,
      " progovo": 8425,
      "zite": 8426,
      " šut": 8427,
      " ekra": 8428,
      " pau": 8429,
      " Afri": 8430,
      " Em": 8431,
      " ispro": 8432,
      " pije": 8433,
      " uzvra": 8434,
      " izaći": 8435,
      "rgani": 8436,
      " Dugo": 8437,
      " Ligu": 8438,
      "lanovi": 8439,
      " mnogima": 8440,
      " ureda": 8441,
      " sredinom": 8442,
      " ključni": 8443,
      " prometna": 8444,
      " Njemačka": 8445,
      " jeziku": 8446,
      " prekida": 8447,
      " Turudić": 8448,
      "zapadni": 8449,
      " direktorica": 8450,
      "_co": 8451,
      "riraju": 8452,
      " pobu": 8453,
      " dopušte": 8454,
      "letje": 8455,
      " kami": 8456,
      " proče": 8457,
      "stav": 8458,
      "mišlje": 8459,
      " trenira": 8460,
      "Nedavno": 8461,
      " cvije": 8462,
      " Wal": 8463,
      " dvoboj": 8464,
      " luke": 8465,
      " knjiž": 8466,
      " ponudi": 8467,
      " mnogih": 8468,
      " člana": 8469,
      " potencijal": 8470,
      " polufinale": 8471,
      " ekstrem": 8472,
      " kapaciteta": 8473,
      " kontekstu": 8474,
      "IN": 8475,
      "Kroz": 8476,
      "ws": 8477,
      " ist": 8478,
      "liku": 8479,
      " navrata": 8480,
      "kat": 8481,
      "viji": 8482,
      "vidu": 8483,
      "dala": 8484,
      "mon": 8485,
      "ćevoj": 8486,
      "biji": 8487,
      "šali": 8488,
      " ispada": 8489,
      "Pono": 8490,
      "ntainer": 8491,
      " plana": 8492,
      " tram": 8493,
      " ruskih": 8494,
      "teljstvo": 8495,
      "Database": 8496,
      " zahvati": 8497,
      " filmova": 8498,
      " uvjeta": 8499,
      "Nikad": 8500,
      " događanja": 8501,
      " vratila": 8502,
      " postići": 8503,
      " turizam": 8504,
      "droli": 8505,
      " pacijenata": 8506,
      " zrakoplova": 8507,
      " zaustaviti": 8508,
      "Muška": 8509,
      "Vrlo": 8510,
      "Ču": 8511,
      "nea": 8512,
      " privremeno": 8513,
      "zisti": 8514,
      " OŠ": 8515,
      "nijeli": 8516,
      " znala": 8517,
      " prijeti": 8518,
      " hrvatsko": 8519,
      " nasmija": 8520,
      " dijelovima": 8521,
      " trgu": 8522,
      " dobrom": 8523,
      " reprezentativ": 8524,
      " Žu": 8525,
      " zaključuje": 8526,
      " radnih": 8527,
      " vjeruju": 8528,
      " prosjeku": 8529,
      " otvoriti": 8530,
      " započela": 8531,
      "kluzi": 8532,
      " uzbud": 8533,
      " ljestvice": 8534,
      "Trenutno": 8535,
      "!\",": 8536,
      "/slike": 8537,
      "ET": 8538,
      "ZO": 8539,
      " opisu": 8540,
      "list": 8541,
      "ree": 8542,
      "jum": 8543,
      " propu": 8544,
      " Star": 8545,
      " AI": 8546,
      " Ronal": 8547,
      " najja": 8548,
      " inde": 8549,
      " današnje": 8550,
      " pravom": 8551,
      " Zaje": 8552,
      " bura": 8553,
      "ell": 8554,
      " križa": 8555,
      " dionica": 8556,
      " istraga": 8557,
      " Novom": 8558,
      " većini": 8559,
      " lokalnim": 8560,
      " slike": 8561,
      " korisnici": 8562,
      " doživio": 8563,
      "Druga": 8564,
      " prisustvo": 8565,
      " završetka": 8566,
      " karakte": 8567,
      " Olimpijske": 8568,
      " Vukovara": 8569,
      " Qu": 8570,
      "war": 8571,
      " ugra": 8572,
      "renu": 8573,
      "redo": 8574,
      "tari": 8575,
      "nej": 8576,
      " sestre": 8577,
      " neslužbe": 8578,
      " radne": 8579,
      "dekva": 8580,
      "custo": 8581,
      " obna": 8582,
      " obnove": 8583,
      "giju": 8584,
      " Osca": 8585,
      " stje": 8586,
      "čuna": 8587,
      " ženama": 8588,
      " živote": 8589,
      " trbu": 8590,
      " otkriti": 8591,
      " Splića": 8592,
      " većine": 8593,
      " poslovanje": 8594,
      "mparams": 8595,
      " neočeki": 8596,
      " krumpi": 8597,
      " studenti": 8598,
      " ustanova": 8599,
      "Svaka": 8600,
      " zamjenik": 8601,
      " željezni": 8602,
      " ukrajinske": 8603,
      "Auto": 8604,
      " stvoriti": 8605,
      " naselja": 8606,
      " incident": 8607,
      " osvrnuo": 8608,
      " Križevci": 8609,
      "ferenci": 8610,
      "customparams": 8611,
      "at": 8612,
      " onim": 8613,
      "taciju": 8614,
      "cida": 8615,
      " nez": 8616,
      " radno": 8617,
      "zirani": 8618,
      "pati": 8619,
      " treća": 8620,
      "đenu": 8621,
      " boli": 8622,
      " njen": 8623,
      " češće": 8624,
      " mjesti": 8625,
      " stranci": 8626,
      " glavnom": 8627,
      " traga": 8628,
      " Mile": 8629,
      " žesto": 8630,
      "sport": 8631,
      " slabo": 8632,
      "plasi": 8633,
      " smanjuje": 8634,
      "Bili": 8635,
      " reprezentaciji": 8636,
      "lly": 8637,
      " žrtava": 8638,
      " hladno": 8639,
      " izbjegli": 8640,
      " Svjetskom": 8641,
      " zadržati": 8642,
      " zaboraviti": 8643,
      " restorana": 8644,
      " proizvođača": 8645,
      "Istraži": 8646,
      "ysq": 8647,
      "Ide": 8648,
      "Istak": 8649,
      "Spa": 8650,
      "mno": 8651,
      " urba": 8652,
      " pop": 8653,
      "mak": 8654,
      " sektora": 8655,
      "bijan": 8656,
      "ževa": 8657,
      " Kru": 8658,
      "pet": 8659,
      " silo": 8660,
      " Ex": 8661,
      "ntains": 8662,
      " ostaviti": 8663,
      " ovakve": 8664,
      " Radić": 8665,
      " potreba": 8666,
      " obavješta": 8667,
      "tanya": 8668,
      " Europsko": 8669,
      "Pritom": 8670,
      " društvenoj": 8671,
      " nastupiti": 8672,
      " moderni": 8673,
      " procedu": 8674,
      " nogometaša": 8675,
      " trajati": 8676,
      " zaljublje": 8677,
      " Velikoj": 8678,
      " zaredom": 8679,
      "tanyahu": 8680,
      "Isti": 8681,
      "OCM": 8682,
      "Ze": 8683,
      "laciju": 8684,
      " pomi": 8685,
      " podje": 8686,
      " prire": 8687,
      "dor": 8688,
      "Zatim": 8689,
      " Makedo": 8690,
      "Postoji": 8691,
      " časo": 8692,
      " Kana": 8693,
      " političkih": 8694,
      " obraća": 8695,
      " potresa": 8696,
      " osiguranja": 8697,
      " ponegdje": 8698,
      " potvrdili": 8699,
      " navijače": 8700,
      " ključnih": 8701,
      " izdanju": 8702,
      " ministarstva": 8703,
      " sljedeći": 8704,
      " zločina": 8705,
      " turističke": 8706,
      " kupnju": 8707,
      " zlata": 8708,
      "mercija": 8709,
      " stručnjaka": 8710,
      " profesor": 8711,
      " Tomašević": 8712,
      " vatrogasaca": 8713,
      "Ar": 8714,
      "Displa": 8715,
      "Vu": 8716,
      "Španjol": 8717,
      " jesti": 8718,
      " poha": 8719,
      " prezi": 8720,
      " revolu": 8721,
      "čao": 8722,
      " DORH": 8723,
      " Gri": 8724,
      " javnim": 8725,
      " Ore": 8726,
      " NBA": 8727,
      " tražio": 8728,
      " rijeke": 8729,
      " spaja": 8730,
      " radnog": 8731,
      " pomažu": 8732,
      " formu": 8733,
      " slijede": 8734,
      " njemački": 8735,
      " izazvala": 8736,
      " neizvje": 8737,
      "Display": 8738,
      "MO": 8739,
      "ption": 8740,
      "vko": 8741,
      "žnoj": 8742,
      " it": 8743,
      " ofenzi": 8744,
      " uistinu": 8745,
      "liji": 8746,
      "varu": 8747,
      "dica": 8748,
      "gani": 8749,
      " sastoj": 8750,
      "zaciji": 8751,
      " DVD": 8752,
      " pame": 8753,
      "ljda": 8754,
      " sviđa": 8755,
      "ncijom": 8756,
      " počelo": 8757,
      "godišnja": 8758,
      " Red": 8759,
      " poslovne": 8760,
      " pronašao": 8761,
      " povećava": 8762,
      " financijske": 8763,
      " otišli": 8764,
      "cionalnoj": 8765,
      "loških": 8766,
      " šansu": 8767,
      " prikazuje": 8768,
      " infrastrukturu": 8769,
      " fokusi": 8770,
      "Vlada": 8771,
      "CIONA": 8772,
      " poremeća": 8773,
      " Hezbola": 8774,
      "Cropix": 8775,
      "Ce": 8776,
      "kvu": 8777,
      "xel": 8778,
      " smeta": 8779,
      " svla": 8780,
      " skuplja": 8781,
      "ranog": 8782,
      " iran": 8783,
      " onog": 8784,
      "tacije": 8785,
      "vaj": 8786,
      " ae": 8787,
      "king": 8788,
      " pregle": 8789,
      " Srp": 8790,
      " republika": 8791,
      " vrt": 8792,
      ";ega": 8793,
      ";inu": 8794,
      " startu": 8795,
      " otkaza": 8796,
      "mijer": 8797,
      ";una": 8798,
      " državu": 8799,
      " Europa": 8800,
      " problemati": 8801,
      " završava": 8802,
      "Izbo": 8803,
      " tekst": 8804,
      " vidjela": 8805,
      " prvoliga": 8806,
      " odjela": 8807,
      " Ministarstvu": 8808,
      " Kraljev": 8809,
      " rizika": 8810,
      " postupku": 8811,
      " stadion": 8812,
      " Harry": 8813,
      " doznajemo": 8814,
      " rukomet": 8815,
      "burgu": 8816,
      " ciljeve": 8817,
      " inteligencije": 8818,
      " York": 8819,
      "027": 8820,
      "Francu": 8821,
      "Oko": 8822,
      "ara": 8823,
      "ljo": 8824,
      " snijeg": 8825,
      "namje": 8826,
      " ubla": 8827,
      "rit": 8828,
      " suca": 8829,
      " izvla": 8830,
      "sili": 8831,
      " rečeno": 8832,
      " table": 8833,
      " fra": 8834,
      " najdra": 8835,
      "ranj": 8836,
      " plane": 8837,
      " dugi": 8838,
      " trebate": 8839,
      " predsjedniku": 8840,
      " trenutke": 8841,
      " šesto": 8842,
      " Vene": 8843,
      " održao": 8844,
      " Juri": 8845,
      "Većina": 8846,
      " sliku": 8847,
      " neposre": 8848,
      " korisnicima": 8849,
      " Francuska": 8850,
      " nasilje": 8851,
      " stranaka": 8852,
      " ožujku": 8853,
      " prihvatiti": 8854,
      " komisije": 8855,
      " rezervi": 8856,
      ",\n": 8857,
      "Bar": 8858,
      "dr": 8859,
      "krati": 8860,
      "tonu": 8861,
      " dove": 8862,
      " ode": 8863,
      "čera": 8864,
      " evaku": 8865,
      " strp": 8866,
      " plaću": 8867,
      " planove": 8868,
      "teljstva": 8869,
      " autenti": 8870,
      " onome": 8871,
      " Europskoj": 8872,
      " pronašla": 8873,
      " Institu": 8874,
      " vratili": 8875,
      " učinio": 8876,
      " knjigu": 8877,
      " kolegama": 8878,
      " stvaranje": 8879,
      " izvješću": 8880,
      " kamere": 8881,
      " razgovarao": 8882,
      " projektima": 8883,
      " plus": 8884,
      " ulaznice": 8885,
      " ciljeva": 8886,
      " Kreši": 8887,
      " teroristi": 8888,
      "CIONAL": 8889,
      "And": 8890,
      "Dr": 8891,
      "Ke": 8892,
      "Svje": 8893,
      "Slobo": 8894,
      "TP": 8895,
      "_id": 8896,
      "ltra": 8897,
      "rskih": 8898,
      " pomisli": 8899,
      "terije": 8900,
      " izvori": 8901,
      "mene": 8902,
      " primi": 8903,
      " Time": 8904,
      " razvije": 8905,
      " podne": 8906,
      "sniji": 8907,
      " brojem": 8908,
      " pozitivno": 8909,
      " osigurao": 8910,
      " Vučić": 8911,
      " obiteljske": 8912,
      " odigrati": 8913,
      " emisija": 8914,
      "reated": 8915,
      " posebnu": 8916,
      " napredo": 8917,
      ";om": 8918,
      "Co": 8919,
      "chu": 8920,
      "knuti": 8921,
      "rd": 8922,
      "use": 8923,
      "zz": 8924,
      "tijeva": 8925,
      " poro": 8926,
      " nere": 8927,
      " tj": 8928,
      "stila": 8929,
      " pregovara": 8930,
      "šeni": 8931,
      " druk": 8932,
      " Cor": 8933,
      "štinu": 8934,
      " Sabor": 8935,
      " studije": 8936,
      " Martina": 8937,
      " obale": 8938,
      " pokušavaju": 8939,
      " izgubi": 8940,
      " ključna": 8941,
      " polako": 8942,
      " aktivnostima": 8943,
      " Svjetskog": 8944,
      " dres": 8945,
      " albuma": 8946,
      " derbiju": 8947,
      "180": 8948,
      "Sin": 8949,
      "Zo": 8950,
      "rizo": 8951,
      "vin": 8952,
      "vost": 8953,
      " suve": 8954,
      " sugovo": 8955,
      "ženih": 8956,
      "gur": 8957,
      " efe": 8958,
      "žavanje": 8959,
      " volio": 8960,
      " Gro": 8961,
      " prste": 8962,
      " der": 8963,
      " prat": 8964,
      "omments": 8965,
      " roka": 8966,
      " odlukom": 8967,
      " ovakav": 8968,
      " nastavi": 8969,
      " pjesmom": 8970,
      " Buga": 8971,
      " Los": 8972,
      " natjecanjima": 8973,
      " sastavu": 8974,
      " učinak": 8975,
      " djelatnika": 8976,
      " sportskih": 8977,
      "Voza": 8978,
      " tradicionalno": 8979,
      "Baš": 8980,
      " srpski": 8981,
      " treninga": 8982,
      " uzeo": 8983,
      " oznaka": 8984,
      " liječnici": 8985,
      " Ustavnog": 8986,
      " Yorku": 8987,
      " Gattuso": 8988,
      "Primjerice": 8989,
      "-ne": 8990,
      "Cou": 8991,
      "dle": 8992,
      "ph": 8993,
      "uta": 8994,
      "ušti": 8995,
      "Še": 8996,
      "nia": 8997,
      "lian": 8998,
      "dice": 8999,
      "veća": 9000,
      " sugla": 9001,
      "rur": 9002,
      " BDP": 9003,
      "ston": 9004,
      " intim": 9005,
      " Milan": 9006,
      " bave": 9007,
      " ostatak": 9008,
      " opse": 9009,
      " svojevr": 9010,
      " dijele": 9011,
      " predstaviti": 9012,
      " pozitivan": 9013,
      " Dodi": 9014,
      " koncertu": 9015,
      " vratima": 9016,
      " pokušaja": 9017,
      " omoguća": 9018,
      " nezabora": 9019,
      " ustanove": 9020,
      " hitno": 9021,
      " zagrebačkoj": 9022,
      " djelovanja": 9023,
      " sredstvima": 9024,
      " Dalmacija": 9025,
      " Sloveniji": 9026,
      " uslijed": 9027,
      " William": 9028,
      "Oba": 9029,
      "Onda": 9030,
      "blo": 9031,
      "es": 9032,
      "šoj": 9033,
      " aspe": 9034,
      " odla": 9035,
      " premda": 9036,
      "bine": 9037,
      "grafije": 9038,
      " miro": 9039,
      "sezo": 9040,
      "šanje": 9041,
      " svoga": 9042,
      " uspi": 9043,
      " cijenama": 9044,
      " dodatnih": 9045,
      " Mosta": 9046,
      " David": 9047,
      "sjetila": 9048,
      "Imam": 9049,
      " mladima": 9050,
      " sastanka": 9051,
      " kaznena": 9052,
      " oboje": 9053,
      " usporedbi": 9054,
      " spekta": 9055,
      " Turisti": 9056,
      " kontrover": 9057,
      " karte": 9058,
      " članice": 9059,
      " utrci": 9060,
      " ravnatelja": 9061,
      " brzine": 9062,
      " okoliš": 9063,
      " reagirao": 9064,
      "Mladi": 9065,
      " Donalda": 9066,
      " invalidite": 9067,
      " posljednjem": 9068,
      "%,": 9069,
      "IS": 9070,
      "rsko": 9071,
      "kore": 9072,
      "daka": 9073,
      " ate": 9074,
      " moji": 9075,
      " motiva": 9076,
      "povi": 9077,
      "sel": 9078,
      " pat": 9079,
      " mađar": 9080,
      " Voj": 9081,
      " najza": 9082,
      " Makar": 9083,
      " inzisti": 9084,
      " Micha": 9085,
      " utakmicama": 9086,
      " kripto": 9087,
      " Kara": 9088,
      " politička": 9089,
      " stil": 9090,
      " kažem": 9091,
      " srcu": 9092,
      " lokacije": 9093,
      " lokaciji": 9094,
      " istaknu": 9095,
      " izgublje": 9096,
      " upozoravaju": 9097,
      " zdravstvenih": 9098,
      " nestabi": 9099,
      " posjetitelje": 9100,
      " konačnici": 9101,
      " Americi": 9102,
      "NACIONAL": 9103,
      " količine": 9104,
      " doznaje": 9105,
      " Zlatko": 9106,
      " zabrinutost": 9107,
      "jnim": 9108,
      "kne": 9109,
      "klom": 9110,
      "znim": 9111,
      " sugra": 9112,
      " dostojan": 9113,
      " promovi": 9114,
      " sanja": 9115,
      " niza": 9116,
      " Mje": 9117,
      "ševi": 9118,
      " HG": 9119,
      " tabli": 9120,
      " Af": 9121,
      "sjeda": 9122,
      ";avaju": 9123,
      " Evo": 9124,
      "šteno": 9125,
      "vljenih": 9126,
      " odnosima": 9127,
      " stižu": 9128,
      "Rezulta": 9129,
      " osigurali": 9130,
      " kazneni": 9131,
      " oporavak": 9132,
      "Trener": 9133,
      " krajnje": 9134,
      " vezano": 9135,
      " posjetitelja": 9136,
      " nacionalnih": 9137,
      " poboljšati": 9138,
      " električne": 9139,
      " ulaznica": 9140,
      " iskreno": 9141,
      " praktički": 9142,
      " teritorija": 9143,
      " maksimalno": 9144,
      " invaliditetom": 9145,
      "':": 9146,
      "84": 9147,
      "VA": 9148,
      "tskoj": 9149,
      " ske": 9150,
      " ura": 9151,
      " našli": 9152,
      " napušta": 9153,
      "ten": 9154,
      "torima": 9155,
      " as": 9156,
      " primio": 9157,
      "pisima": 9158,
      " mirno": 9159,
      "šima": 9160,
      " stavio": 9161,
      " javio": 9162,
      " javila": 9163,
      " deba": 9164,
      " znanje": 9165,
      " tuma": 9166,
      " mogući": 9167,
      " vrtić": 9168,
      " stotine": 9169,
      " krene": 9170,
      "Prošle": 9171,
      "Misli": 9172,
      " zahtijeva": 9173,
      " snazi": 9174,
      " Toni": 9175,
      " umjetne": 9176,
      " govorili": 9177,
      " razina": 9178,
      " napadača": 9179,
      " influence": 9180,
      " iznenađenje": 9181,
      " generacija": 9182,
      " Kekin": 9183,
      " Bjelo": 9184,
      "server": 9185,
      " dobrih": 9186,
      " zamijeniti": 9187,
      " Croatia": 9188,
      " teškim": 9189,
      " udio": 9190,
      " jede": 9191,
      "vito": 9192,
      " komo": 9193,
      "lona": 9194,
      "bolje": 9195,
      " Mur": 9196,
      "zanja": 9197,
      "čajan": 9198,
      "ljaka": 9199,
      "sov": 9200,
      " Gvardio": 9201,
      " Mac": 9202,
      " Kama": 9203,
      " mjesečno": 9204,
      " izjava": 9205,
      " Ham": 9206,
      " visokim": 9207,
      " Argenti": 9208,
      " oblik": 9209,
      " provoditi": 9210,
      " izvijestili": 9211,
      " socijalne": 9212,
      " izrazio": 9213,
      " prihvaća": 9214,
      "ries": 9215,
      " odmora": 9216,
      " spominje": 9217,
      " elektroni": 9218,
      " relativno": 9219,
      " direktno": 9220,
      " Predsjedni": 9221,
      "Trump": 9222,
      " Raspudić": 9223,
      "OK": 9224,
      "gr": 9225,
      "žljivo": 9226,
      " ušla": 9227,
      " umr": 9228,
      "rilo": 9229,
      " našla": 9230,
      " povolj": 9231,
      "lect": 9232,
      " preveze": 9233,
      " krva": 9234,
      " težak": 9235,
      " niže": 9236,
      " remi": 9237,
      " meso": 9238,
      " meteoro": 9239,
      "đenjem": 9240,
      " stavo": 9241,
      " Maja": 9242,
      " val": 9243,
      ";ar": 9244,
      " Ovo": 9245,
      "193": 9246,
      " vješta": 9247,
      " dodatni": 9248,
      "štini": 9249,
      " rijetki": 9250,
      " kreću": 9251,
      " Kola": 9252,
      "Jeste": 9253,
      " brže": 9254,
      " pripremiti": 9255,
      "pustio": 9256,
      " odakle": 9257,
      " američkih": 9258,
      " nosila": 9259,
      " upozorenja": 9260,
      " domaćina": 9261,
      " otvorila": 9262,
      " objekata": 9263,
      " partnerima": 9264,
      " fokus": 9265,
      " talenti": 9266,
      " Lokomotive": 9267,
      " nikoga": 9268,
      " konferencije": 9269,
      " kolovozu": 9270,
      "Srbi": 9271,
      "znih": 9272,
      "vera": 9273,
      " izlaz": 9274,
      "ćeve": 9275,
      "mine": 9276,
      "dent": 9277,
      ";ela": 9278,
      ";ele": 9279,
      " pale": 9280,
      " mari": 9281,
      " malim": 9282,
      " ligu": 9283,
      " hrani": 9284,
      "pendi": 9285,
      " vagi": 9286,
      " javnih": 9287,
      " stranice": 9288,
      " Zapa": 9289,
      " duže": 9290,
      " osloba": 9291,
      "Date": 9292,
      " cilju": 9293,
      " liječenje": 9294,
      " politici": 9295,
      " Google": 9296,
      " poslovni": 9297,
      " lokalno": 9298,
      " kandidi": 9299,
      " Inter": 9300,
      " sudjeluju": 9301,
      " roditelje": 9302,
      " otok": 9303,
      " povratka": 9304,
      " poginuli": 9305,
      " zavoda": 9306,
      " individu": 9307,
      " recimo": 9308,
      " Zelenski": 9309,
      "ffe": 9310,
      " brak": 9311,
      " promica": 9312,
      " sala": 9313,
      " prekri": 9314,
      "činje": 9315,
      " BBC": 9316,
      "pila": 9317,
      "sena": 9318,
      " lik": 9319,
      " med": 9320,
      " prijela": 9321,
      " peto": 9322,
      " ženu": 9323,
      " objavljena": 9324,
      " Komi": 9325,
      " Wi": 9326,
      " integra": 9327,
      " izjavi": 9328,
      " izjavu": 9329,
      " Selak": 9330,
      " sportskog": 9331,
      " izgledati": 9332,
      " uključuju": 9333,
      " Dragan": 9334,
      " šalje": 9335,
      " Splitsko": 9336,
      " investicije": 9337,
      " utrka": 9338,
      " Konferenci": 9339,
      "qui": 9340,
      "razumije": 9341,
      " Bruxel": 9342,
      " fakulteta": 9343,
      "Čini": 9344,
      " pravde": 9345,
      "ontent": 9346,
      " hidro": 9347,
      "DV": 9348,
      " išao": 9349,
      "nijom": 9350,
      "tal": 9351,
      " navela": 9352,
      " naprijed": 9353,
      "dici": 9354,
      " kosu": 9355,
      " radnici": 9356,
      "dex": 9357,
      " grija": 9358,
      " memo": 9359,
      ";ita": 9360,
      " pušta": 9361,
      " JDatabase": 9362,
      "prem": 9363,
      "tnicu": 9364,
      "Nekoliko": 9365,
      "inc": 9366,
      " dodavši": 9367,
      " stoje": 9368,
      " stope": 9369,
[...]
