#version: 0.2
  б
  х
и й
а а
а й
э э
. 

  т
а н
а р
о л
  н
у у
 б ай
а л
  г
ий н
ү ү
э н
а г
э г
  д
э р
о н
ү й
  с
э л
  а
  з
 б ол
и л
ы н
ө ө
а х
  м
о р
и н
э д
э х
г үй
 н ь
г аа
ий г
  ч
о о
 х ү
уу л
а д
с ан
  ш
  ү
н а
а м
  у
ө р
ө н
ээ р
  я
  ю
о г
э ж
о х
о й
 б и
у р
ы г
аа р
 бай на
ө г
э й
с эн
и р
э м
т ай
 ю м
т эй
ж ил
 б ү
уу д
и х
ө л
г ийн
о д
  ор
н ий
  ц
а с
и г
  л
 бай гаа
үү л
н д
д аг
өө р
г а
 г эж
н э
 х эр
н ы
о м
. .
 х у
э в
эн э
а в
 т у
т г
 а в
л аг
д аа
  ө
а ж
ээ д
 х ар
 г ар
 бай х
и д
үй л
он г
 н эг
аа с
 м эд
т ой
ээ с
 а м
 хэр эг
? 

  өөр
с он
  эр
үү д
ө х
аа д
ө в
 х о
а т
э с
  ол
 х ам
 б у
 х ий
 х эл
 а жил
  энэ
Э нэ
ж ээ
ээ л
 бай сан
е р
ал т
  ир
ь д
 хү н
л с
х ан
 я в
и м
  ал
.. .

  он
 с ай
  "
д ээ
л аа
  уу
д эг
  ар
н о
а я
  в
  их
 ху в
 с ан
о в
үү х
 ү з
 бол ох
үү н
  Б
ан д
онг ол
э сэн
 хү р
д ал
2 0
 д ар
 б од
  ж
д өр
ч л
у л
үү с
  к
ий м
өн г
 д ээр
  өг
  эх
эн д
 б ар
г ээ
  Х
г ээр
  М
а ш
 т ал
  үйл
 бү р
 у лс
  жил
 т эр
гаа р
 бол но
 г эд
уу р
г уул
 а с
о ор
 ү е
м ар
  А
х ий
а з
 т өр
 ц аг
 ч ад
 в э
 бай даг
л ах
ч их
 д ээ
 з үйл
 би д
л ээ
х ай
ү р
э тг
л г
  ил
 т ог
ц аа
с өн
м н
 ю у
о ж
  ан
 т а
 т ан
ин ь
м үүс
л эг
 г эсэн
ч ил
  Т
 с ур
 з өв
уул ах
 х эм
 у р
үү р
Б и
 я р
у т
д л
г ал
ар ын
 бү х
 ол он
аа н
ш иг
  -
 ш үү
ё р
 г аз
ү н
 хү мүүс
ж л
ч ин
  ё
аг д
 я мар
ох и
 б аг
ом ж
өө д
 ё с
 т өл
 ү н
ин ий
 би ш
о с
оо д
 ш ин
и ж
 з ар
 ту с
  ...

д в
  эм
ах гүй
 г эр
л эл
 ам ьд
г ийг
Т эр
 м аш
и с
ол д
 хо ёр
л ийн
н г
о т
эг д
он д
л д
  ой
 х үүх
 хү с
ө д
 бол омж
лаг а
 ө мн
 х ол
 эр х
у й
  С
  У
 гэд эг
в эл
э т
ч ид
  өр
ай р
 ас ууд
ан ай
 бай гуул
аа л
 н ар
 хам гийн
 хэрэг тэй
  өн
э ц
 бол он
оо с
 ү р
  эс
Х ар
 д ах
г д
 сай н
х эн
 бол г
эх дээ
т ээ
ай л
р ал
үүл эх
 з ор
 дар аа
20 1
 ш иг
 х эд
л эх
 с он
 бол сон
 ту хай
 н ий
! 

и к
 т ав
и ш
 хол б
- ын
 н эр
 хий х
  од
д ог
Т эг
 а шиг
 бу с
б ар
 д аа
 ан х
дв эр
  (
 ёс той
 с этг
в ал
 бол ов
 у даа
ч д
л ог
г эл
и у
 өмн ө
уул ж
 т эд
 х ур
е н
га цаа
 ш ий
 тал аар
 бай ж
ч ир
л өг
1 0
 ч инь
г эж
ам ж
ээ н
Б ид
  үү
Т а
 ху гацаа
д оо
л аж
 д у
 х ор
өнг ө
 д эл
 н ам
 ав ах
  Н
 үе д
 бол ж
 д уу
  о
 д ур
 з ур
эг тэй
  р
үүн ийг
 мэд ээл
ая р
 з ас
 М онгол
эх ээр
  Д
и т
э з
у с
в ар
 х уул
 н ас
 у н
ан г
ол ц
  и
 с у
 т ү
үү ний
 ө дөр
 газ ар
  З
 од оо
 би е
 т ом
 бай р
 ил үү
Хар ин
ан а
 хэм жээ
 с онг
ийн х
 хам т
 би ч
аар д
 х я
ээ ж
ө с
 б өг
 з ал
г эд
 он ы
л оо
ил ц
ан ц
эх гүй
  эд
 н өх
 б ас
  п
Е р
 ү г
 т од
ай г
эм ж
 хий ж
  Э
с н
  Г
 бу й
 г ээд
 а ж
эл т
 т эм
 жил ийн
  ин
 хув ьд
 ш аард
т ын
л ал
 х эн
 х өг
  ийм
 с арын
и ул
  ер
өн хий
е с
  О
ан ы
 г эх
Х эр
д р
ь ж
 ав ч
 бөг өөд
 тог т
М онгол
өө с
 шин э
 к ом
г эн
ог д
ө м
 ой лг
х ал
 б эл
  ай
Г эхдээ
Т ийм
и в
 с ал
өл өө
 з охи
 ний т
о он
х ийн
а сан
 з ах
ай н
 он д
 х он
 хү нд
.. .
л ын
х өн
1 9
д аж
у н
 м инь
 нэг эн
 би з
ад аг
 байх гүй
 б ил
 хү лээ
 сэтг эл
т эл
аа гүй
 ө в
 ал б
п ан
 с уу
 т өс
 б ий
р ын
 х аа
лаг аа
и ч
 т оо
 с ар
 д от
н ийг
ш ин
 амьд рал
ор х
н ууд
т ад
ү гээр
 д ав
 н ай
ч ийн
 хү ний
 г ад
га ж
аг аад
Т эд
 з ам
тг эл
в ан
 х эв
л ыг
0 0
 а жл
А Н
с д
 асууд ал
 г иш
уул сан
 х айр
 сан ал
 б э
 улс ын
 ш ал
  аа
х аа
 сай хан
г ах
ар т
т р
 х эс
О доо
 хув ь
 х ой
 н эм
үүл ж
ох ир
 хүүх д
  өнг
 м иний
өө дөр
 т охи
Э р
орх ой
  .

х үү
  И
 ажил лагаа
 н ад
 ар га
 м анай
 х ал
 бай дл
 бил ээ
 т ат
 хон ог
Ө өр
" 

 ху дал
М өн
 боломж той
ч үүд
алт ын
 д аг
 төл өө
  уул
 б аяр
 бай лаа
 у л
д сан
 м өн
о ол
 н ут
ө ж
 тод орхой
 т ур
 ком пан
 эх эл
гаа н
ис т
 тог л
 ор олц
о ё
и а
жил т
 х анд
ч ууд
 ту лд
 у т
 ир гэд
 бү тээ
өл т
д ах
  эн
 б ат
 гэд гийг
 бү т
 сан аа
уу н
ч р
ир х
 бай дал
 т эг
 өнг өр
 ор он
 хо ол
й м
 хүр тэл
ил г
у г
 хэр хэн
 хэд эн
 т өг
 эс вэл
 өөр чл
  ид
д ан
т ан
  аг
 у д
 б а
 г эв
 м аан
i n
 з аа
 т ийм
ур хан
 г ур
 ч у
 ажил л
 тан ы
 у чр
 х ө
 а х
в р
Ер өнхий
 маан ь
 хү ч
чил гээ
 зал уу
: 

 д ол
л ан
 х өр
 ү нд
ар аа
o n
 г анц
 дах ь
аг ч
 тур ш
 дах ин
г эр
  К
е к
 холб оо
20 0
л ийг
ар ч
 болох гүй
 үйл двэр
 х ич
өл д
 д эмж
 эм эгтэй
  ээ
e r
н х
ол той
 я л
и ал
 ир сэн
М анай
 ар д
 анх аар
 ө др
е м
аг т
ол т
 тохи олд
 м өр
) 

х н
өд өл
 гар ч
аг ад
а к
 сур гуул
 з эр
 өөр ийн
ээр ээ
Ү үн
- д
л он
у д
с р
 үр гэл
г өө
г ой
 хам гаа
 чу хал
 ч ан
 чад ахгүй
х и
лага тай
  ох
ү х
 хэм ээн
 ү нэ
ээ гүй
И нг
 ш ил
эз ээ
 хой ш
 ду нд
И йм
М иний
 бү гд
б өр
- ийн
эх эд
 а я
аа т
 ший двэр
эл ц
 үн эн
 бү с
 сон с
- р
 г ай
 т үр
 хүүх эд
 г ол
Ө н
т ал
 ч и
 т эн
 У лс
 ам ь
 өг өх
Тийм ээс
 а д
 хий сэн
м ын
И Х
и з
 у чир
 хо т
 м уу
 сон ирх
ал тай
 ав сан
 өн дөр
 р уу
 хар иу
  үүс
Х ү
 с ая
и ад
аг үй
 н ом
 ал ь
ийг өө
 баг а
аар ай
О р
 з ээл
 маш ин
эх үү
  эз
о сон
 хэс эг
гаа д
 т үүний
А р
 м эт
ин о
Н эг
 зар им
аар аа
  ф
аа ш
 бай в
ог т
 ч ам
ч им
 д үр
 төр ийн
д ын
 уул з
 мэдээл эл
ууд ыг
л ж
 г энэ
га сан
 бус ад
 алб ан
  /
 ажил лаж
үүл сэн
 төл өв
 х ан
 өөр өө
 бод ож
 хөг ж
a n
 х эзээ
 зөв хөн
 хуул ь
т ер
  Ш
 б ур
х он
ь е
. Б
 учр аас
 у с
 эх л
Хэр эв
д өг
эг ч
 А Н
 м өнгө
 д үн
 ун ш
 т е
 хугацаа нд
 с үүл
 дуу с
ууд ын
 о ч
эв ч
  Ү
 т өв
 т үүх
 т ар
 х анг
 я аж
 с эр
А м
 над ад
 зор иул
н аас
ю у
 г үй
 ший д
ал д
 он ц
н ээс
 тэм ц
  Ч
 ай м
эт эл
 болох оор
у гаар
 т айл
 д эв
 ор ж
  Ж
л өө
 т охир
 ч иг
ах ад
  эц
 з ог
  үүр
ох гүй
 я ах
  эл
а ц
 х өдөл
оон ы
 зөв ш
гаа с
я тад
 я агаад
 ан г
 хар агд
 м онгол
 байх ад
  үүнийг
о п
 у х
 х ийг
 ш алт
 уд ир
д өө
ү г
 з үй
 нам айг
лөг ч
 я г
 ажл ын
м ийн
ас гийн
А л
 хэл ж
 ох ин
 н өлөө
 хэл б
 яв ж
л эж
 м эр
г оор
 зог с
 ор уул
о ц
 ол г
  S
 ажил лах
 т үүнийг
эв эр
 өр г
р ах
 ту л
 м агад
  энд
ю ул
 ад ил
им т
, 

 нөх ц
" -
эд эг
 зөвш өөр
a r
 дар га
 ү гүй
 өөр сд
 хэрэг ж
у в
н ес
 ө м
 газ рын
 шал г
лаа н
 зур аг
Г этэл
 ө с
  Ц
 зэр эг
эр хий
 ам жилт
даг гүй
ор онд
 уу р
 ол ж
  ээж
 най з
ь сан
 бид ний
од ог
 үнд эс
 и тг
 мэд эх
үү нд
Э д
 х ая
е т
 сай д
 холбоо той
эл д
 холб огд
ү д
 сонг уул
 хэл элц
 болов ср
o r
  Е
ш ил
  Л
ол гой
 м өнг
 м энд
 байгаа г
  Ерөнхий
үүд ийн
Х ам
 үйл чилгээ
м аар
т эн
 ир эх
  П
 с уур
 тэм дэг
г ан
он о
 яв ах
 п р
Д эл
 өн өөдөр
 х өл
 байгуул лаг
 зор илг
1 2
Тэг ээд
г ай
 газ р
 дот ор
ж иг
х ам
е й
  _
 у г
 дур тай
чд ын
 су дал
 бур уу
 үн эхээр
 ир ээд
 бүр эн
 хө т
с ний
 тан илц
1 1
 а юул
 гиш үүн
гд эх
д сэн
аал т
 хар ь
 т аа
 ас уу
 дэл хийн
 хэл сэн
ан к
 х үү
 н ийг
 з аг
үүд ийг
1 5
 хар ж
 өг сөн
 гур ван
 ү лд
 эд ийн
 х ууд
я а
 бол оод
 тү м
 бол дог
 бай вал
о к
с ийн
т өн
ар гал
 зөв л
ээс ээ
 з ов
е л
 сан агд
 хүр г
Я мар
 ш ат
 хүлээ н
 т анд
 м ин
 ду гаар
ар га
ээ нд
 гар сан
д угаар
ал ын
e n
  M
 бу юу
 сал бар
! !
эг т
лөг өө
лэл ийн
 Б урхан
10 0
он ы
 мэд эгд
 өөр ийгөө
өр ийн
ер ик
т аа
 ү л
 шаард лагатай
 нэм эгд
р ам
аат ар
п ор
 х ад
 м я
аас аа
чл эн
3 0
 асууд лыг
 үе ийн
 ас уул
 гүй ц
 зохи он
н ө
 ал д
 г эм
 гар уй
 төр лийн
Г эвч
 мэр гэж
Т аны
 бай н
  Ө
 зас гийн
ин ы
ар тай
г оо
г ээд
ин д
 Б и
 бод лог
Өн өөдөр
д энэ
 тоо ц
 з өр
с аар
Д араа
хай н
өг өө
в ээ
Х үүх
ээр эй
үүд эд
 дол оо
л ох
л асан
Х үн
Ү ү
 зүйл ийг
у м
ийнх өө
 хар ин
Ч и
 хо оронд
 х ав
л и
 гар ах
р ийн
ой р
 ой р
 улс ад
 бүс гүй
s t
с т
 х ай
 ч өлөө
 бар имт
 яр илц
М эд
 бүт ээл
 д ор
 ш ууд
 мин ут
 бол лоо
 бу т
 биз нес
л эн
 мэд эхгүй
 ин гэж
ен т
 а ч
 з үгээр
 нас тай
И р
 болов ч
 байгаа д
 эр үүл
 н уу
 бүтээ гдэх
 тогт оо
 гэв эл
  A
 ү х
аг с
Үүн ийг
l e
б ээр
 болг ох
З ар
эл тэй
 байдл аар
 У ИХ
 З асгийн
р эг
 төг с
 х эц
өө н
 бүх эн
с гал
Э н
 ар г
 хөр өнгө
уул даг
  C
 яв дал
 гар гах
б ал
 н үүр
 ил эрхий
 бат ал
ил т
 ав т
 м ар
 мэд ээ
Тэг вэл
 бол жээ
ин э
 аа в
үүн ээс
1 8
 ер өнхий
 ав на
оо гүй
 т ай
өг д
 яр ьж
 с ол
 х ат
 ам ар
х ээ
 АН У
аг н
 чад вар
 үз үүл
 д үүр
ин г
о ёр
 ор онд
 болг он
 н аад
 д оо
 ир гэн
 даг уу
Г эр
 өг ч
 д өр
 ор ох
  .
 хүн ийг
 гар гаж
р ан
 х эт
ю ут
ам с
өл бөр
  Я
 сар д
т өө
 мэд р
 шалт гаан
 хэц үү
 гэх эд
 ир ж
 хү чин
эх ийг
 хич ээл
  P
 т ас
й л
 и тгэл
ил цаа
 өнгөр сөн
 нөхц өл
 т ам
 хий дэг
 анх ны
 өөрчл өлт
 хариу ц
 хя н
уул ан
ар сан
Зар им
 дэл хий
 ц эвэр
a t
У г
ол ог
 хар иул
л уур
 чад ах
Т үүний
ъ я
г ий
 бү л
ист ем
 Улс ын
 те хн
a l
г ч
 б уур
 компан и
вр оп
ор ж
Ү н
р өг
 өр өө
 т аар
ш гүй
 бод дог
 тайл бар
5 0
 бай жээ
 д ээд
 д амж
б аатар
л алт
н з
  эв
Б ү
 ул ам
ээ х
д лаа
ч иг
 хүлээ ж
 хад гал
 хэрэг гүй
 б ая
 тухай н
 тог лоо
20 2
 тэд ний
 ал га
иж иг
 ж ин
О лон
с ны
 хэрэг лэг
 м у
 ц ааш
 яр их
д ийн
н эл
o o
 эс рэг
 зас аг
Хам гийн
чд ийн
 судал гаа
 мэд дэг
ийнх ээ
 ашиг лах
г ын
 үз эж
 хуул ийн
 баг ш
г үүр
даа д
иш ээ
 хүмүүс ийн
  э
Эд гээр
 ц ах
 Монгол ын
 хар илцаа
агд сан
r e
 яр ь
үүл эг
 ж агс
 А р
 гад аад
 байгаа гүй
 О р
Т у
 нут гийн
 гүйц этг
в эр
 дараа х
Э х
 д ан
 с ү
 тохиолд олд
  I
 с т
 хам аар
ол оо
 магад гүй
 т олгой
 с истем
 сур г
 бүр ийн
 а з
  огт
и ар
 ту ш
 ш үүх
 б үү
1 4
л адаг
ар х
 хэл эх
өм ж
б ай
 цаг ийн
 зах ир
Ц аг
. Э
 өдр ийн
м аа
Хэр вээ
  В
 А м
  айл
  Энэ
о б
эн х
 гар гасан
Б үх
 Х ятад
алт тай
Ө мн
л эдэг
 зүйл с
Н ам
 хэрэг с
 сан хүү
 ор чин
 ц эр
 сүүл ийн
  Р
Тэр ээр
З өв
 бол чих
 бар аг
 з ав
Я агаад
л эсэн
 дээр х
төн ц
 н эв
 үн эл
 эд гээр
. "

 хүүхд үүд
 бар ил
 хамгаа лах
 ү с
н ээ
уу ны
ж ин
уул на
 хоног ийн
  N
 үз эх
 ор сон
 хар ах
 төг рөг
уул га
өх өөр
  B
эл ээ
 х аан
  Ф
 цаг т
 чан ар
 хөт өлбөр
a c
 бут луур
 нэг д
o u
ууд ад
иу д
 гэр ээ
 боломж гүй
 заа вал
 тан ь
 ур ьд
ч ээ
ал даа
 харь ц
  T
У лс
ал з
өм б
 бү хий
 н арын
 гад на
 хэмжээ ний
 ту н
i t
 т ойр
лаг дсан
 төр өл
 г оё
 ц эц
т ийн
 б ос
Тэг эхээр
тг ий
- нд
v v
 дээр ээ
олц оо
 мя нг
 ух аан
 чад на
 к ино
чил ж
 б ор
м ан
 гар г
Эн эхүү
 худал даа
м д
 нам ын
аа хан
 төл бөр
х ар
 мэд эж
 р үү
 эн эхүү
чил сан
 тү в
с ай
 ал даа
У чир
 яв сан
 эм нэл
 ор ны
б аяр
 х ийн
чих сан
Э м
лал аа
 эхэл сэн
онг ос
 ав аад
 д ууд
тэй гээ
 хууд ас
; 

 нөх өр
 болох ыг
өн ө
ол ын
 бэл эн
 б анк
лаг ын
 ж аргал
 эх ний
 нас ны
 ер төнц
 з ан
 байх даа
 тэр г
 бид энд
г уй
 бу ц
 хүс сэн
 ут ас
 с эд
 бич иг
в ор
өр сөн
Х оёр
 хэлб эр
i c
 хаа на
  онг
 м ал
хал тай
 хур дан
 Э р
 д ут
 ор нууд
 н айр
 ц уг
 бүр тг
ал ц
ах ыг
 н үд
 он оос
 үргэл ж
 удир д
м эл
өө л
 мянг ан
1 6
 т ээ
 я нз
v й
o m
Т ус
 хүмүүс т
Н ий
 сай т
 асууд л
үүл эн
 д ай
 хув ийн
я н
 ту лг
 хув ц
Инг ээд
 амьд арч
  ...
 г эхдээ
 к ин
 шил ж
гүй гээр
үр х
Монгол ын
1 7
л ээд
 үе эр
н ыг
ог рам
 хор иг
 м арт
 яв ц
н эр
 ажл ыг
Үү ний
и о
м ж
 ажил д
 болг ож
- аас
 х аг
өө ц
 н ис
 ор лог
үүл нэ
Х эд
 б ууд
 ж ижиг
 д үг
ал ин
  G
ог ц
 шаард лаг
З а
 амьдрал ын
.Б ат
Я г
р уулах
 у гаа
Мэд ээж
 тогл олт
сн ыг
 нуу ц
х эг
а б
 аюул гүй
 шин ж
 бич сэн
19 9
 ор ч
 хайр тай
 амьд ар
 ол ох
с аа
 з ү
Тэр бээр
пор т
 үйл д
 б эр
чл эг
д ол
 хүс ч
 с онгол
ээл т
л аад
 хо тын
 х өөр
 сай ж
 зорилг о
Х эн
 з ай
  D
1 3
 х өн
 ун т
 хөдөл гөө
 их энх
 асуул т
 тоглоо м
в өн
 т үүнд
 байдл ыг
- ны
  [
 т ов
 хэлб эл
х гүй
ь ю
 байх ыг
омж той
өмб өг
 аж лаа
 шаард лага
эн дээ
 ирээд үй
e s
 ах уй
  F
.Э нх
 мэдээл лийг
 Т а
 нэв тр
А в
 ор уулах
Дэл хийн
 заг вар
Бид ний
 өмн өх
 айм гийн
 ц ар
ш их
уул алт
 хэмжээ нд
 үргэл жл
 зохи ц
 зориул сан
 г элээ
 аг аар
 ажилл адаг
х ийг
Ө нг
 бол олтой
Э нд
х энэ
 төр сөн
 ур т
Ш инэ
 с оё
 чиг лэл
з гаар
л өх
 бар их
Б ус
 бод ох
Б ар
л айн
аа ны
уул аад
өхөөр өмж
Б ас
 өөр төө
 н өгөө
m n
 сонгол т
ү жиг
ан т
С үүл
Х А
 өг лөө
У ИХ
 эх нэр
 тэг ээд
? ?
ек с
гаа ны
агд аж
аг а
 эмэгтэй чүүд
е в
дэг гүй
 гур ав
 т энд
ол онгос
 м е
ам д
 удаа н
 яв даг
г ээс
лаг д
 нийт ийн
 чам айг
ад ад
 тус л
И х
 бүр д
 ор чим
н ээр
Н үүр
с ээр
аш ин
л ар
 мэд нэ
 дээ ш
сан д
у яа
 цаг даа
 гиш үүд
 т өхөөрөмж
 эз эм
 ар ай
х ны
 үйл чл
У р
 гэд гээ
 ор д
 хүүхд ийн
с г
 бү лийн
 үз сэн
жл ийн
уу чин
 хя згаар
Эр дэнэ
 зар ц
 би тгий
 бүтээгдэх үүн
в арын
 б уу
 тан ыг
 д ал
 өөр ийнхөө
 түм эн
 үнд сэн
 дүг н
 ор ой
 ж ур
2 4
  H
 м ат
 о юут
 техн олог
 пр ограм
 хийн э
 түв шин
 г уй
гаа ш
 гэдэг т
ү нд
 төлөв лөгөө
2 5
Үүн ээс
 шил дэг
 бар ьж
 д эх
 ур ан
өөс өө
ц ээ
 эр гэл
 өн өө
г ар
 хэрэг лэх
 суур ь
. mn
аа х
Б ай
 хэд ий
ик ийн
 б өх
этг эл
аг ийн
ол б
 удаа гийн
ес с
 хувц ас
 гай х
лаг ч
Х ятад
 н эл
 гэм т
уд арга
 эр т
 хөг жил
 бай л
 бод ит
a m
Х У
 эх лэх
 хоног т
 оч иж
 х ил
 нут аг
 т он
эн тэй
гаар аа
 ту т
л жээ
 ам р
 суу ж
 хүр т
эн гүй
АН У
 өг нө
 Ам ерик
и п
 баг т
 амьд рах
 эц эг
 нийг эм
эг үй
 м од
  ээл
агд ах
р а
 бай гал
 с ав
 Е вроп
С ан
 ав даг
к с
 г ом
ох ой
 хал дв
 сур алц
вр ийн
  W
. .

с өлд
 т ос
 хийг ээд
 бар иг
 байгуул лага
 ял гаа
м ээр
 н я
 ашиг лаж
 төлөв л
Г ад
 х уур
 бодлог о
 М АН
эгд сэн
 тус лах
 ч иний
 зүй н
 Ор ос
тай гаа
 өв ч
 байдаг гүй
п он
4 0
 у хаа
 ул ир
е д
 хэрэг лээ
лөг чийн
г үү
л уулах
ид е
 эм ч
н оо
 бү лэг
 хам р
  R
 сонирх олтой
  t
Хү мүүс
 минут ын
г vй
ь я
эл ж
 и жил
  E
 би члэг
лэг ч
дл ыг
 гэр тээ
 өөрчл өгд
 байн га
н үүд
r o
* *
 я д
эс т
 ар ил
 сургуул ь
б арын
 ш ир
 сэтг үүл
  ,
 жил д
 худал даж
ан даа
 үүр эг
ив аа
у нд
эр ч
 тусл амж
 арг агүй
с ү
 ц алин
жил гээ
 а жээ
С ур
 батал гаа
в ол
ер иал
өд өө
  v
 өг дөг
эгд эл
 н өөц
 худал дан
оо хон
 зах иал
л ам
 чад даг
 дөр вөн
 м ах
ө сөн
 ор уулж
i s
л бар
т ор
 яв аа
д эж
 д ас
 ш агн
 тав ан
с ыг
 гай халтай
 ойлг ож
 хүр ээнд
 иргэд ийн
 ху лг
аа сан
Тэд ний
u n
 ш ү
үүл дэг
 тохиолд ол
 с ул
 хар илц
 эн гийн
 нут агт
h e
 г эхээр
 з айл
 х охир
 өг өө
 ц эг
 дот оод
 тав ьж
Өнг өрсөн
- н
 гэж ээ
 өр сөлд
Б урхан
 хар аад
/ 

х оо
 Ерөнхий лөгч
 з үрх
ю ун
 с уул
 хүс эл
б и
м аас
 би чих
 хув ил
д эх
 юм аа
 онг оц
 тав их
 эхл ээд
о ф
 бэр х
 тэр ээр
 тэр б
Өөр өөр
 туш аал
аг ш
 я ам
 чад сан
 салбар т
  L
  өнгө
ак ц
 үе дээ
 хүмүүс ийг
А нх
е ж
 нийг мийн
эс ний
Ту хайн
Д ээр
Ор ос
нд аа
 сон ин
Т үүн
 д үү
 хам аагүй
с эг
  үүд
г эх
 з о
 м ор
 өрг өн
