{"\n":0," ":1,"!":2,"\"":3,"#":4,"$":5,"%":6,"&":7,"'":8,"(":9,")":10,"*":11,"+":12,",":13,"-":14,".":15,"/":16,"0":17,"1":18,"2":19,"3":20,"4":21,"5":22,"6":23,"7":24,"8":25,"9":26,":":27,";":28,"<":29,"=":30,">":31,"?":32,"@":33,"A":34,"B":35,"C":36,"D":37,"E":38,"F":39,"G":40,"H":41,"I":42,"J":43,"K":44,"L":45,"M":46,"N":47,"O":48,"P":49,"Q":50,"R":51,"S":52,"T":53,"U":54,"V":55,"W":56,"X":57,"Y":58,"Z":59,"[":60,"\\":61,"]":62,"^":63,"_":64,"a":65,"b":66,"c":67,"d":68,"e":69,"f":70,"g":71,"h":72,"i":73,"j":74,"k":75,"l":76,"m":77,"n":78,"o":79,"p":80,"q":81,"r":82,"s":83,"t":84,"u":85,"v":86,"w":87,"x":88,"y":89,"z":90,"{":91,"|":92,"}":93,"~":94,"¢":95,"£":96,"¤":97,"¥":98,"¦":99,"§":100,"©":101,"¬":102,"®":103,"°":104,"±":105,"¶":106,"·":107,"¿":108,"À":109,"Á":110,"Â":111,"Ã":112,"Ä":113,"Æ":114,"Ç":115,"È":116,"É":117,"Ê":118,"Ë":119,"Ì":120,"Í":121,"Î":122,"Ð":123,"Ñ":124,"Ò":125,"Ô":126,"Õ":127,"Ö":128,"×":129,"Ø":130,"Ü":131,"Ý":132,"ß":133,"à":134,"á":135,"â":136,"ã":137,"ä":138,"å":139,"æ":140,"ç":141,"è":142,"é":143,"ê":144,"ë":145,"ì":146,"í":147,"î":148,"ï":149,"ð":150,"ñ":151,"ò":152,"ó":153,"ô":154,"õ":155,"ö":156,"÷":157,"ø":158,"ú":159,"û":160,"ü":161,"ý":162,"þ":163,"ÿ":164,"Ā":165,"ā":166,"ă":167,"ć":168,"Č":169,"č":170,"đ":171,"ē":172,"ĕ":173,"Ė":174,"ė":175,"ę":176,"ě":177,"ğ":178,"ī":179,"Į":180,"İ":181,"ı":182,"ĸ":183,"ľ":184,"Ł":185,"ł":186,"ń":187,"ň":188,"ō":189,"Œ":190,"œ":191,"ř":192,"ś":193,"Ş":194,"ş":195,"š":196,"ť":197,"ŧ":198,"ū":199,"ů":200,"Ž":201,"Ɗ":202,"ƒ":203,"ư":204,"ǎ":205,"ǐ":206,"ǿ":207,"ɇ":208,"ɐ":209,"ɑ":210,"ə":211,"ɪ":212,"ɲ":213,"ɴ":214,"ɵ":215,"ʀ":216,"ʏ":217,"ʜ":218,"ʟ":219,"ˈ":220,"ˌ":221,"ː":222,"˗":223,"̀":224,"́":225,"̄":226,"̈":227,"̌":228,"̵":229,"̷":230,"̸":231,"͜":232,"͞":233,"Δ":234,"Η":235,"Κ":236,"Μ":237,"Ο":238,"Τ":239,"Φ":240,"Ψ":241,"Ω":242,"ά":243,"ή":244,"ί":245,"α":246,"β":247,"γ":248,"δ":249,"ε":250,"η":251,"θ":252,"ι":253,"κ":254,"λ":255,"μ":256,"ν":257,"ο":258,"π":259,"ρ":260,"ς":261,"σ":262,"τ":263,"υ":264,"φ":265,"ω":266,"ό":267,"ύ":268,"ώ":269,"Ё":270,"Ђ":271,"Є":272,"Ѕ":273,"І":274,"Ї":275,"Ћ":276,"Ќ":277,"Ў":278,"Џ":279,"А":280,"Б":281,"В":282,"Г":283,"Д":284,"Е":285,"Ж":286,"З":287,"И":288,"Й":289,"К":290,"Л":291,"М":292,"Н":293,"О":294,"П":295,"Р":296,"С":297,"Т":298,"У":299,"Ф":300,"Х":301,"Ц":302,"Ч":303,"Ш":304,"Щ":305,"Ъ":306,"Ы":307,"Ь":308,"Э":309,"Ю":310,"Я":311,"а":312,"б":313,"в":314,"г":315,"д":316,"е":317,"ж":318,"з":319,"и":320,"й":321,"к":322,"л":323,"м":324,"н":325,"о":326,"п":327,"р":328,"с":329,"т":330,"у":331,"ф":332,"х":333,"ц":334,"ч":335,"ш":336,"щ":337,"ъ":338,"ы":339,"ь":340,"э":341,"ю":342,"я":343,"ѐ":344,"ё":345,"ђ":346,"ѓ":347,"є":348,"ѕ":349,"і":350,"ї":351,"ј":352,"њ":353,"ћ":354,"ќ":355,"ў":356,"џ":357,"Ѳ":358,"ѳ":359,"҉":360,"Ґ":361,"ґ":362,"ғ":363,"ҕ":364,"Җ":365,"җ":366,"Қ":367,"қ":368,"ҡ":369,"Ң":370,"ң":371,"Ҥ":372,"ҥ":373,"Ү":374,"ү":375,"Ұ":376,"ұ":377,"Ҳ":378,"ҳ":379,"ҷ":380,"Һ":381,"һ":382,"Ӏ":383,"ӄ":384,"Ӈ":385,"ӈ":386,"ӑ":387,"ӓ":388,"Ә":389,"ә":390,"ӝ":391,"ӣ":392,"ӧ":393,"Ө":394,"ө":395,"ӯ":396,"ӱ":397,"Ա":398,"Գ":399,"Ե":400,"Ո":401,"ա":402,"դ":403,"ե":404,"զ":405,"ը":406,"ի":407,"լ":408,"խ":409,"կ":410,"ղ":411,"մ":412,"յ":413,"ն":414,"ո":415,"չ":416,"ս":417,"վ":418,"տ":419,"ր":420,"ց":421,"ւ":422,"ք":423,"א":424,"ב":425,"ג":426,"ה":427,"ו":428,"ז":429,"ט":430,"י":431,"ל":432,"מ":433,"נ":434,"ע":435,"פ":436,"ר":437,"ת":438,"،":439,"؟":440,"أ":441,"إ":442,"ا":443,"ب":444,"ة":445,"ت":446,"ج":447,"ح":448,"خ":449,"د":450,"ذ":451,"ر":452,"ز":453,"س":454,"ش":455,"ص":456,"ض":457,"ط":458,"ع":459,"غ":460,"ف":461,"ق":462,"ك":463,"ل":464,"م":465,"ن":466,"ه":467,"و":468,"ى":469,"ي":470,"َ":471,"ک":472,"ہ":473,"ۇ":474,"ی":475,"ە":476,"ं":477,"इ":478,"ए":479,"क":480,"ज":481,"ब":482,"र":483,"ल":484,"़":485,"ा":486,"ि":487,"ै":488,"१":489,"४":490,"७":491,"९":492,"অ":493,"ই":494,"ক":495,"চ":496,"ত":497,"দ":498,"ন":499,"ব":500,"র":501,"া":502,"ি":503,"ু":504,"ে":505,"্":506,"ਂ":507,"ਕ":508,"ਟ":509,"ਪ":510,"ਮ":511,"ਰ":512,"ਸ":513,"ਹ":514,"ਾ":515,"ਿ":516,"ੀ":517,"ੂ":518,"ੈ":519,"ੌ":520,"க":521,"ட":522,"ழ":523,"ா":524,"ி":525,"ூ":526,"ை":527,"்":528,"ೋ":529,"ก":530,"ค":531,"ง":532,"จ":533,"ซ":534,"ด":535,"ต":536,"ท":537,"น":538,"ฝ":539,"พ":540,"ฟ":541,"ภ":542,"ม":543,"ย":544,"ล":545,"ว":546,"ษ":547,"ส":548,"ห":549,"ฬ":550,"อ":551,"ั":552,"า":553,"ิ":554,"ี":555,"ึ":556,"เ":557,"แ":558,"โ":559,"ใ":560,"ไ":561,"่":562,"้":563,"์":564,"྆":565,"࿐":566,"တ":567,"န":568,"မ":569,"လ":570,"သ":571,"ဦ":572,"ိ":573,"ု":574,"ေ":575,"့":576,"း":577,"္":578,"်":579,"ြ":580,"၊":581,"ᄀ":582,"ᄂ":583,"ᄅ":584,"ᄆ":585,"ᄇ":586,"ᄋ":587,"ᄏ":588,"ᄒ":589,"ᅮ":590,"ᅲ":591,"ᅳ":592,"ᅵ":593,"ᆞ":594,"ᐉ":595,"᠋":596,"ᠠ":597,"ᠡ":598,"ᠢ":599,"ᠤ":600,"ᠥ":601,"ᠦ":602,"ᠨ":603,"ᠫ":604,"ᠬ":605,"ᠭ":606,"ᠮ":607,"ᠯ":608,"ᠰ":609,"ᠱ":610,"ᠳ":611,"ᠴ":612,"ᠵ":613,"ᠶ":614,"ᠷ":615,"ᠹ":616,"ᠻ":617,"ᠼ":618,"᭄":619,"ᴀ":620,"ᴄ":621,"ᴇ":622,"ᴍ":623,"ᴜ":624,"ᴠ":625,"ᵯ":626,"ᵴ":627,"ḍ":628,"ḥ":629,"ṃ":630,"ṅ":631,"ṇ":632,"ṭ":633,"ẙ":634,"ầ":635,"ắ":636,"ằ":637,"ế":638,"ễ":639,"ớ":640,"ờ":641,"ἰ":642,"‐":643,"―":644,"‖":645,"†":646,"‡":647,"•":648,"‣":649," ":650,"‰":651,"′":652,"‹":653,"›":654,"※":655,"⁄":656,"₩":657,"₪":658,"€":659,"₮":660,"₹":661,"₽":662,"⃣":663,"←":664,"↑":665,"→":666,"↓":667,"↔":668,"↖":669,"↙":670,"↳":671,"⇒":672,"⇨":673,"∂":674,"∆":675,"∈":676,"−":677,"∙":678,"√":679,"∞":680,"≈":681,"≠":682,"≤":683,"≥":684,"≫":685,"⋆":686,"⋯":687,"⌚":688,"⎪":689,"⏱":690,"│":691,"╒":692,"╘":693,"╟":694,"╢":695,"█":696,"▍":697,"■":698,"□":699,"▨":700,"▪":701,"▲":702,"▶":703,"►":704,"▼":705,"◆":706,"◇":707,"◊":708,"○":709,"●":710,"◦":711,"☀":712,"☂":713,"★":714,"☆":715,"☈":716,"☎":717,"☑":718,"☔":719,"☕":720,"☘":721,"☛":722,"☝":723,"☞":724,"☤":725,"☮":726,"☹":727,"☺":728,"☻":729,"♀":730,"♂":731,"♏":732,"♔":733,"♚":734,"♛":735,"♠":736,"♡":737,"♣":738,"♥":739,"♦":740,"♪":741,"♫":742,"♻":743,"⚃":744,"⚕":745,"⚙":746,"⚠":747,"⚡":748,"⚫":749,"⚽":750,"✅":751,"✈":752,"✌":753,"✍":754,"✓":755,"✔":756,"✞":757,"✨":758,"✯":759,"✿":760,"❀":761,"❂":762,"❃":763,"❄":764,"❏":765,"❖":766,"❗":767,"❤":768,"❷":769,"❹":770,"❼":771,"➜":772,"➡":773,"➢":774,"➥":775,"➳":776,"⠀":777,"⦁":778,"⭐":779,"⿱":780,"、":781,"。":782,"《":783,"》":784,"「":785,"」":786,"『":787,"』":788,"【":789,"】":790,"〓":791,"あ":792,"い":793,"う":794,"え":795,"お":796,"か":797,"が":798,"き":799,"ぎ":800,"く":801,"ぐ":802,"け":803,"げ":804,"こ":805,"ご":806,"さ":807,"ざ":808,"し":809,"じ":810,"す":811,"せ":812,"そ":813,"た":814,"だ":815,"ち":816,"っ":817,"つ":818,"て":819,"で":820,"と":821,"ど":822,"な":823,"に":824,"ぬ":825,"の":826,"は":827,"ば":828,"ひ":829,"ぶ":830,"べ":831,"ほ":832,"ま":833,"み":834,"め":835,"も":836,"ゃ":837,"や":838,"ゅ":839,"ゆ":840,"ょ":841,"よ":842,"ら":843,"り":844,"る":845,"れ":846,"ろ":847,"わ":848,"を":849,"ん":850,"ィ":851,"イ":852,"ウ":853,"カ":854,"ガ":855,"キ":856,"ギ":857,"ク":858,"ゲ":859,"コ":860,"ゴ":861,"サ":862,"シ":863,"ジ":864,"セ":865,"ゼ":866,"ソ":867,"タ":868,"ダ":869,"チ":870,"ツ":871,"ヅ":872,"デ":873,"ド":874,"ナ":875,"ニ":876,"ハ":877,"バ":878,"ヒ":879,"ビ":880,"フ":881,"ブ":882,"ベ":883,"ペ":884,"マ":885,"ミ":886,"ム":887,"モ":888,"ャ":889,"ョ":890,"ラ":891,"リ":892,"ル":893,"ン":894,"・":895,"ー":896,"ㄍ":897,"ㄎ":898,"ㄟ":899,"ㄨ":900,"一":901,"七":902,"万":903,"三":904,"上":905,"下":906,"不":907,"世":908,"业":909,"个":910,"中":911,"么":912,"乐":913,"也":914,"二":915,"云":916,"互":917,"交":918,"京":919,"人":920,"今":921,"介":922,"仔":923,"他":924,"付":925,"代":926,"们":927,"件":928,"任":929,"企":930,"伊":931,"休":932,"众":933,"会":934,"位":935,"住":936,"何":937,"作":938,"你":939,"使":940,"便":941,"係":942,"保":943,"信":944,"修":945,"俺":946,"們":947,"停":948,"健":949,"側":950,"僕":951,"優":952,"儿":953,"元":954,"光":955,"克":956,"免":957,"八":958,"公":959,"内":960,"册":961,"再":962,"冯":963,"出":964,"分":965,"划":966,"別":967,"前":968,"势":969,"動":970,"勖":971,"務":972,"勧":973,"包":974,"化":975,"北":976,"医":977,"十":978,"午":979,"华":980,"南":981,"博":982,"卡":983,"参":984,"古":985,"叫":986,"召":987,"台":988,"号":989,"合":990,"名":991,"向":992,"吗":993,"君":994,"员":995,"周":996,"味":997,"命":998,"和":999,"品":1000,"唐":1001,"售":1002,"唱":1003,"商":1004,"問":1005,"喵":1006,"器":1007,"回":1008,"団":1009,"図":1010,"国":1011,"图":1012,"國":1013,"圖":1014,"地":1015,"址":1016,"型":1017,"基":1018,"場":1019,"塑":1020,"塚":1021,"士":1022,"声":1023,"夂":1024,"変":1025,"夕":1026,"夜":1027,"夢":1028,"天":1029,"太":1030,"奇":1031,"奋":1032,"好":1033,"妹":1034,"委":1035,"姿":1036,"娱":1037,"子":1038,"字":1039,"学":1040,"宅":1041,"安":1042,"宗":1043,"定":1044,"室":1045,"宽":1046,"密":1047,"导":1048,"小":1049,"少":1050,"局":1051,"展":1052,"属":1053,"履":1054,"山":1055,"岩":1056,"峮":1057,"州":1058,"巡":1059,"巣":1060,"工":1061,"帝":1062,"带":1063,"帮":1064,"帯":1065,"平":1066,"年":1067,"庆":1068,"府":1069,"康":1070,"建":1071,"开":1072,"异":1073,"弦":1074,"当":1075,"录":1076,"形":1077,"彩":1078,"後":1079,"御":1080,"心":1081,"必":1082,"志":1083,"忘":1084,"忙":1085,"快":1086,"怎":1087,"恩":1088,"悔":1089,"您":1090,"悲":1091,"情":1092,"意":1093,"愛":1094,"憎":1095,"我":1096,"戒":1097,"戰":1098,"戸":1099,"手":1100,"打":1101,"払":1102,"抢":1103,"拶":1104,"指":1105,"挨":1106,"探":1107,"掲":1108,"提":1109,"改":1110,"故":1111,"文":1112,"斗":1113,"斥":1114,"斯":1115,"新":1116,"族":1117,"日":1118,"早":1119,"时":1120,"昌":1121,"星":1122,"是":1123,"昴":1124,"時":1125,"普":1126,"暲":1127,"曜":1128,"曲":1129,"更":1130,"書":1131,"會":1132,"月":1133,"有":1134,"望":1135,"朝":1136,"本":1137,"机":1138,"李":1139,"村":1140,"松":1141,"林":1142,"査":1143,"株":1144,"格":1145,"椰":1146,"楫":1147,"業":1148,"楽":1149,"概":1150,"構":1151,"横":1152,"機":1153,"歌":1154,"止":1155,"歳":1156,"残":1157,"毛":1158,"民":1159,"气":1160,"気":1161,"水":1162,"永":1163,"江":1164,"沖":1165,"没":1166,"河":1167,"治":1168,"沿":1169,"法":1170,"注":1171,"泰":1172,"洛":1173,"洞":1174,"流":1175,"浙":1176,"浜":1177,"淮":1178,"済":1179,"渡":1180,"湖":1181,"漏":1182,"演":1183,"点":1184,"照":1185,"燼":1186,"版":1187,"牛":1188,"特":1189,"玉":1190,"现":1191,"理":1192,"甘":1193,"生":1194,"用":1195,"田":1196,"町":1197,"画":1198,"留":1199,"発":1200,"登":1201,"百":1202,"的":1203,"皇":1204,"盘":1205,"眉":1206,"码":1207,"破":1208,"礦":1209,"社":1210,"祉":1211,"祐":1212,"神":1213,"福":1214,"离":1215,"私":1216,"秘":1217,"称":1218,"稳":1219,"站":1220,"等":1221,"简":1222,"管":1223,"米":1224,"糞":1225,"紀":1226,"紇":1227,"経":1228,"給":1229,"線":1230,"红":1231,"线":1232,"网":1233,"美":1234,"翻":1235,"考":1236,"者":1237,"聲":1238,"胡":1239,"能":1240,"腕":1241,"臨":1242,"自":1243,"舞":1244,"航":1245,"良":1246,"華":1247,"葵":1248,"蒙":1249,"藏":1250,"藤":1251,"蘭":1252,"蛋":1253,"蠟":1254,"行":1255,"衛":1256,"表":1257,"袖":1258,"裏":1259,"製":1260,"西":1261,"要":1262,"見":1263,"視":1264,"親":1265,"见":1266,"解":1267,"言":1268,"証":1269,"話":1270,"誉":1271,"誌":1272,"語":1273,"説":1274,"諸":1275,"識":1276,"讃":1277,"计":1278,"让":1279,"记":1280,"译":1281,"语":1282,"请":1283,"读":1284,"课":1285,"豚":1286,"象":1287,"貸":1288,"費":1289,"賃":1290,"資":1291,"賞":1292,"责":1293,"趋":1294,"路":1295,"身":1296,"車":1297,"軒":1298,"載":1299,"輝":1300,"软":1301,"载":1302,"辉":1303,"输":1304,"辺":1305,"込":1306,"达":1307,"运":1308,"近":1309,"返":1310,"还":1311,"迴":1312,"迹":1313,"送":1314,"通":1315,"逢":1316,"連":1317,"進":1318,"過":1319,"達":1320,"選":1321,"郑":1322,"部":1323,"都":1324,"配":1325,"里":1326,"重":1327,"金":1328,"鈴":1329,"鑑":1330,"钱":1331,"银":1332,"镇":1333,"长":1334,"間":1335,"関":1336,"门":1337,"问":1338,"间":1339,"阒":1340,"际":1341,"陝":1342,"险":1343,"陳":1344,"随":1345,"際":1346,"雑":1347,"電":1348,"面":1349,"革":1350,"韬":1351,"音":1352,"響":1353,"題":1354,"類":1355,"颚":1356,"駅":1357,"马":1358,"高":1359,"鵬":1360,"麦":1361,"黄":1362,"黑":1363,"龙":1364,"龶":1365,"꧁":1366,"꧂":1367,"가":1368,"갑":1369,"갤":1370,"거":1371,"걸":1372,"것":1373,"게":1374,"겠":1375,"격":1376,"경":1377,"계":1378,"고":1379,"골":1380,"공":1381,"과":1382,"관":1383,"교":1384,"구":1385,"국":1386,"굴":1387,"권":1388,"규":1389,"긋":1390,"기":1391,"긱":1392,"김":1393,"끼":1394,"나":1395,"남":1396,"내":1397,"너":1398,"노":1399,"뉴":1400,"는":1401,"니":1402,"다":1403,"단":1404,"달":1405,"답":1406,"대":1407,"더":1408,"도":1409,"돈":1410,"동":1411,"둥":1412,"딩":1413,"떻":1414,"또":1415,"뚜":1416,"뚝":1417,"라":1418,"랑":1419,"래":1420,"랫":1421,"러":1422,"렘":1423,"려":1424,"로":1425,"루":1426,"룬":1427,"룰":1428,"류":1429,"르":1430,"를":1431,"리":1432,"린":1433,"림":1434,"릿":1435,"마":1436,"만":1437,"말":1438,"매":1439,"먹":1440,"메":1441,"며":1442,"명":1443,"모":1444,"몽":1445,"무":1446,"문":1447,"뭘":1448,"뮤":1449,"미":1450,"민":1451,"바":1452,"반":1453,"밥":1454,"배":1455,"백":1456,"밴":1457,"버":1458,"번":1459,"법":1460,"베":1461,"벼":1462,"변":1463,"병":1464,"보":1465,"부":1466,"불":1467,"뷔":1468,"브":1469,"븐":1470,"블":1471,"비":1472,"빈":1473,"뻐":1474,"뿌":1475,"사":1476,"상":1477,"새":1478,"생":1479,"서":1480,"석":1481,"선":1482,"설":1483,"섭":1484,"성":1485,"세":1486,"송":1487,"수":1488,"숙":1489,"스":1490,"슨":1491,"습":1492,"승":1493,"시":1494,"식":1495,"신":1496,"실":1497,"싼":1498,"쌍":1499,"아":1500,"안":1501,"알":1502,"야":1503,"양":1504,"어":1505,"업":1506,"없":1507,"에":1508,"엘":1509,"엥":1510,"여":1511,"역":1512,"연":1513,"열":1514,"영":1515,"예":1516,"오":1517,"올":1518,"옷":1519,"와":1520,"왔":1521,"외":1522,"요":1523,"용":1524,"우":1525,"울":1526,"웆":1527,"워":1528,"원":1529,"월":1530,"유":1531,"윤":1532,"율":1533,"으":1534,"은":1535,"을":1536,"응":1537,"의":1538,"이":1539,"인":1540,"일":1541,"있":1542,"자":1543,"잘":1544,"장":1545,"재":1546,"저":1547,"적":1548,"전":1549,"정":1550,"제":1551,"조":1552,"죄":1553,"죻":1554,"주":1555,"즈":1556,"지":1557,"직":1558,"진":1559,"짓":1560,"짱":1561,"찌":1562,"찡":1563,"차":1564,"창":1565,"찾":1566,"채":1567,"청":1568,"체":1569,"초":1570,"최":1571,"침":1572,"칩":1573,"칫":1574,"카":1575,"커":1576,"케":1577,"코":1578,"콕":1579,"콧":1580,"크":1581,"키":1582,"탄":1583,"탓":1584,"태":1585,"탠":1586,"터":1587,"토":1588,"통":1589,"튜":1590,"트":1591,"티":1592,"틴":1593,"팅":1594,"팝":1595,"퍼":1596,"펄":1597,"평":1598,"폰":1599,"푸":1600,"플":1601,"픽":1602,"하":1603,"학":1604,"한":1605,"함":1606,"항":1607,"해":1608,"햄":1609,"혀":1610,"현":1611,"혜":1612,"호":1613,"홈":1614,"홍":1615,"화":1616,"횊":1617,"회":1618,"횒":1619,"횗":1620,"횜":1621,"후":1622,"훈":1623,"흐":1624,"흥":1625,"희":1626,"︎":1627,"️":1628,"￼":1629,"�":1630,"𖢘":1631,"🆕":1632,"🇫":1633,"🇰":1634,"🇲":1635,"🇳":1636,"🇷":1637,"🇸":1638,"🇺":1639,"🇽":1640,"🌃":1641,"🌄":1642,"🌅":1643,"🌈":1644,"🌍":1645,"🌐":1646,"🌙":1647,"🌟":1648,"🌡":1649,"🌱":1650,"🌳":1651,"🌸":1652,"🌻":1653,"🍀":1654,"🍁":1655,"🍇":1656,"🍑":1657,"🍞":1658,"🍩":1659,"🍯":1660,"🍰":1661,"🍱":1662,"🍷":1663,"🍹":1664,"🍽":1665,"🍾":1666,"🎀":1667,"🎁":1668,"🎄":1669,"🎧":1670,"🎬":1671,"🎯":1672,"🎶":1673,"🏆":1674,"🏋":1675,"🏠":1676,"🏣":1677,"🏦":1678,"🏻":1679,"🏼":1680,"👀":1681,"👉":1682,"👍":1683,"👎":1684,"👏":1685,"👐":1686,"👑":1687,"👦":1688,"👧":1689,"👨":1690,"👩":1691,"👷":1692,"👽":1693,"💀":1694,"💁":1695,"💃":1696,"💅":1697,"💉":1698,"💋":1699,"💎":1700,"💐":1701,"💔":1702,"💕":1703,"💙":1704,"💚":1705,"💜":1706,"💝":1707,"💡":1708,"💢":1709,"💥":1710,"💩":1711,"💪":1712,"💫":1713,"💯":1714,"💰":1715,"💵":1716,"💸":1717,"💻":1718,"💼":1719,"📁":1720,"📅":1721,"📌":1722,"📍":1723,"📎":1724,"📕":1725,"📖":1726,"📞":1727,"📣":1728,"📦":1729,"📱":1730,"📲":1731,"📷":1732,"🔄":1733,"🔅":1734,"🔊":1735,"🔌":1736,"🔑":1737,"🔥":1738,"🔬":1739,"🔰":1740,"🔴":1741,"🔵":1742,"🔶":1743,"🔸":1744,"🔹":1745,"🕑":1746,"🕘":1747,"🕯":1748,"🖐":1749,"🖤":1750,"🗃":1751,"🗓":1752,"😀":1753,"😁":1754,"😂":1755,"😃":1756,"😄":1757,"😅":1758,"😆":1759,"😇":1760,"😈":1761,"😉":1762,"😊":1763,"😋":1764,"😍":1765,"😎":1766,"😐":1767,"😑":1768,"😓":1769,"😔":1770,"😘":1771,"😛":1772,"😜":1773,"😝":1774,"😡":1775,"😢":1776,"😥":1777,"😦":1778,"😩":1779,"😫":1780,"😭":1781,"😮":1782,"😰":1783,"😱":1784,"😲":1785,"😶":1786,"😷":1787,"🙁":1788,"🙂":1789,"🙃":1790,"🙆":1791,"🙋":1792,"🙌":1793,"🙎":1794,"🙏":1795,"🚀":1796,"🚗":1797,"🚘":1798,"🚩":1799,"🚫":1800,"🛍":1801,"🛑":1802,"🛒":1803,"🛡":1804,"🛫":1805,"🤍":1806,"🤑":1807,"🤓":1808,"🤔":1809,"🤗":1810,"🤘":1811,"🤟":1812,"🤡":1813,"🤣":1814,"🤩":1815,"🤪":1816,"🤫":1817,"🤮":1818,"🥄":1819,"🥇":1820,"🥰":1821,"🥳":1822,"🥺":1823,"🦉":1824,"🦊":1825,"🦋":1826,"🦸":1827,"🧤":1828,"🧨":1829,"🧼":1830," б":1831," х":1832,"ий":1833,"аа":1834,"ай":1835,"ээ":1836,".\n":1837," т":1838,"ан":1839,"ар":1840,"ол":1841," н":1842,"уу":1843," бай":1844,"ал":1845," г":1846,"ийн":1847,"үү":1848,"эн":1849,"аг":1850,"эг":1851," д":1852,"эр":1853,"он":1854,"үй":1855," с":1856,"эл":1857," а":1858," з":1859," бол":1860,"ил":1861,"ын":1862,"өө":1863,"ах":1864," м":1865,"ор":1866,"ин":1867,"эд":1868,"эх":1869,"гүй":1870," нь":1871,"гаа":1872,"ийг":1873," ч":1874,"оо":1875," хү":1876,"уул":1877,"ад":1878,"сан":1879," ш":1880," ү":1881,"на":1882,"ам":1883," у":1884,"өр":1885,"өн":1886,"ээр":1887," я":1888," ю":1889,"ог":1890,"эж":1891,"ох":1892,"ой":1893," би":1894,"ур":1895,"ыг":1896,"аар":1897," байна":1898,"өг":1899,"эй":1900,"сэн":1901,"ир":1902,"эм":1903,"тай":1904," юм":1905,"тэй":1906,"жил":1907," бү":1908,"ууд":1909,"их":1910,"өл":1911,"гийн":1912,"од":1913," ор":1914,"ний":1915," ц":1916,"ас":1917,"иг":1918," л":1919," байгаа":1920,"үүл":1921,"нд":1922,"даг":1923,"өөр":1924,"га":1925," гэж":1926,"нэ":1927," хэр":1928,"ны":1929,"ом":1930,"..":1931," ху":1932,"эв":1933,"энэ":1934,"ав":1935," ту":1936,"тг":1937," ав":1938,"лаг":1939,"даа":1940," ө":1941,"аж":1942,"ээд":1943," хар":1944," гар":1945," байх":1946,"ид":1947,"үйл":1948,"онг":1949," нэг":1950,"аас":1951," мэд":1952,"той":1953,"ээс":1954," ам":1955," хэрэг":1956,"?\n":1957," өөр":1958,"сон":1959," эр":1960,"үүд":1961,"өх":1962,"аад":1963,"өв":1964," хо":1965,"ат":1966,"эс":1967," ол":1968," хам":1969," бу":1970," хий":1971," хэл":1972," ажил":1973," энэ":1974,"Энэ":1975,"жээ":1976,"ээл":1977," байсан":1978,"ер":1979,"алт":1980," ир":1981,"ьд":1982," хүн":1983,"лс":1984,"хан":1985," яв":1986,"им":1987," ал":1988,"...\n":1989," он":1990," сай":1991," \"":1992,"дээ":1993,"лаа":1994," уу":1995,"дэг":1996," ар":1997,"но":1998,"ая":1999," в":2000," их":2001," хув":2002," сан":2003,"ов":2004,"үүх":2005," үз":2006," болох":2007,"үүн":2008," Б":2009,"анд":2010,"онгол":2011,"эсэн":2012," хүр":2013,"дал":2014,"20":2015," дар":2016," бод":2017," ж":2018,"дөр":2019,"чл":2020,"ул":2021,"үүс":2022," к":2023,"ийм":2024,"өнг":2025," дээр":2026," өг":2027," эх":2028,"энд":2029," бар":2030,"гээ":2031," Х":2032,"гээр":2033," М":2034,"аш":2035," тал":2036," үйл":2037," бүр":2038," улс":2039," жил":2040," тэр":2041,"гаар":2042," болно":2043," гэд":2044,"уур":2045,"гуул":2046," ас":2047,"оор":2048," үе":2049,"мар":2050," А":2051,"хий":2052,"аз":2053," төр":2054," цаг":2055," чад":2056," вэ":2057," байдаг":2058,"лах":2059,"чих":2060," дээ":2061," зүйл":2062," бид":2063,"лээ":2064,"хай":2065,"үр":2066,"этг":2067,"лг":2068," ил":2069," тог":2070,"цаа":2071,"сөн":2072,"мн":2073," юу":2074,"ож":2075," ан":2076," та":2077," тан":2078,"инь":2079,"мүүс":2080,"лэг":2081," гэсэн":2082,"чил":2083," Т":2084," сур":2085," зөв":2086,"уулах":2087," хэм":2088," ур":2089,"үүр":2090,"Би":2091," яр":2092,"ут":2093,"дл":2094,"гал":2095,"арын":2096," бүх":2097," олон":2098,"аан":2099,"шиг":2100," -":2101," шүү":2102,"ёр":2103," газ":2104,"үн":2105," хүмүүс":2106,"жл":2107,"чин":2108," ё":2109,"агд":2110," ямар":2111,"охи":2112," баг":2113,"омж":2114,"өөд":2115," ёс":2116," төл":2117," үн":2118,"иний":2119," биш":2120,"ос":2121,"оод":2122," шин":2123,"иж":2124," зар":2125," тус":2126," ...\n":2127,"дв":2128," эм":2129,"ахгүй":2130," гэр":2131,"лэл":2132," амьд":2133,"гийг":2134,"Тэр":2135," маш":2136,"ис":2137,"олд":2138," хоёр":2139,"лийн":2140,"нг":2141,"от":2142,"эгд":2143,"онд":2144,"лд":2145," ой":2146," хүүх":2147," хүс":2148,"өд":2149," боломж":2150,"лага":2151," өмн":2152," хол":2153," эрх":2154,"уй":2155," С":2156," У":2157," гэдэг":2158,"вэл":2159,"эт":2160,"чид":2161," өр":2162,"айр":2163," асууд":2164,"анай":2165," байгуул":2166,"аал":2167," нар":2168," хамгийн":2169," хэрэгтэй":2170," өн":2171,"эц":2172," болон":2173,"оос":2174," үр":2175," эс":2176,"Хар":2177," дах":2178,"гд":2179," сайн":2180,"хэн":2181," болг":2182,"эхдээ":2183,"тээ":2184,"айл":2185,"рал":2186,"үүлэх":2187," зор":2188," дараа":2189,"201":2190," шиг":2191," хэд":2192,"лэх":2193," сон":2194," болсон":2195," тухай":2196," ний":2197,"!\n":2198,"ик":2199," тав":2200,"иш":2201," холб":2202,"-ын":2203," нэр":2204," хийх":2205," од":2206,"дог":2207,"Тэг":2208," ашиг":2209," бус":2210,"бар":2211," даа":2212," анх":2213,"двэр":2214," (":2215," ёстой":2216," сэтг":2217,"вал":2218," болов":2219," удаа":2220,"чд":2221,"лог":2222,"гэл":2223,"иу":2224," өмнө":2225,"уулж":2226," тэд":2227," хур":2228,"ен":2229,"гацаа":2230," ший":2231," талаар":2232," байж":2233,"чир":2234,"лөг":2235,"10":2236," чинь":2237,"гэж":2238,"амж":2239,"ээн":2240,"Бид":2241," үү":2242,"Та":2243," хугацаа":2244,"доо":2245,"лаж":2246," ду":2247," хор":2248,"өнгө":2249," дэл":2250," нам":2251," авах":2252," Н":2253," үед":2254," болж":2255," дуу":2256," о":2257," дур":2258," зур":2259,"эгтэй":2260," р":2261,"үүнийг":2262," мэдээл":2263,"аяр":2264," зас":2265," Монгол":2266,"эхээр":2267," Д":2268,"ит":2269,"эз":2270,"ус":2271,"вар":2272," хуул":2273," нас":2274," ун":2275,"анг":2276,"олц":2277," и":2278," су":2279," тү":2280,"үүний":2281," өдөр":2282," газар":2283," З":2284," одоо":2285," бие":2286," том":2287," байр":2288," илүү":2289,"Харин":2290,"ана":2291," хэмжээ":2292," сонг":2293,"ийнх":2294," хамт":2295," бич":2296,"аард":2297," хя":2298,"ээж":2299,"өс":2300," бөг":2301," зал":2302,"гэд":2303," оны":2304,"лоо":2305,"илц":2306,"анц":2307,"эхгүй":2308," эд":2309," нөх":2310," бас":2311," п":2312,"Ер":2313," үг":2314," тод":2315,"айг":2316,"эмж":2317," хийж":2318," Э":2319,"сн":2320," Г":2321," буй":2322," гээд":2323," аж":2324,"элт":2325," тэм":2326," жилийн":2327," ин":2328," хувьд":2329," шаард":2330,"тын":2331,"лал":2332," хэн":2333," хөг":2334," ийм":2335," сарын":2336,"иул":2337," ер":2338,"өнхий":2339,"ес":2340," О":2341,"аны":2342," гэх":2343,"Хэр":2344,"др":2345,"ьж":2346," авч":2347," бөгөөд":2348," тогт":2349,"Монгол":2350,"өөс":2351," шинэ":2352," ком":2353,"гэн":2354,"огд":2355,"өм":2356," ойлг":2357,"хал":2358," бэл":2359," ай":2360,"Гэхдээ":2361,"Тийм":2362,"ив":2363," сал":2364,"өлөө":2365," зохи":2366," нийт":2367,"оон":2368,"хийн":2369,"асан":2370," зах":2371,"айн":2372," онд":2373," хон":2374," хүнд":2375,"...":2376,"лын":2377,"хөн":2378,"19":2379,"даж":2380,"ун":2381," минь":2382," нэгэн":2383," биз":2384,"адаг":2385," байхгүй":2386," бил":2387," хүлээ":2388," сэтгэл":2389,"тэл":2390,"аагүй":2391," өв":2392," алб":2393,"пан":2394," суу":2395," төс":2396," бий":2397,"рын":2398," хаа":2399,"лагаа":2400,"ич":2401," тоо":2402," сар":2403," дот":2404,"нийг":2405,"шин":2406," амьдрал":2407,"орх":2408,"нууд":2409,"тад":2410,"үгээр":2411," дав":2412," най":2413,"чийн":2414," хүний":2415," гад":2416,"гаж":2417,"агаад":2418,"Тэд":2419," зам":2420,"тгэл":2421,"ван":2422," хэв":2423,"лыг":2424,"00":2425," ажл":2426,"АН":2427,"сд":2428," асуудал":2429," гиш":2430,"уулсан":2431," хайр":2432," санал":2433," бэ":2434," улсын":2435," шал":2436," аа":2437,"хаа":2438," сайхан":2439,"гах":2440,"арт":2441,"тр":2442," хэс":2443,"Одоо":2444," хувь":2445," хой":2446," нэм":2447,"үүлж":2448,"охир":2449," хүүхд":2450," өнг":2451," миний":2452,"өөдөр":2453," тохи":2454,"Эр":2455,"орхой":2456," .\n":2457,"хүү":2458," И":2459," ажиллагаа":2460," над":2461," арга":2462," манай":2463," хал":2464," байдл":2465," билээ":2466," тат":2467," хоног":2468,"Өөр":2469,"\"\n":2470," худал":2471,"Мөн":2472," боломжтой":2473,"чүүд":2474,"алтын":2475," даг":2476," төлөө":2477," уул":2478," баяр":2479," байлаа":2480," ул":2481,"дсан":2482," мөн":2483,"оол":2484," нут":2485,"өж":2486," тодорхой":2487," тур":2488," компан":2489," эхэл":2490,"гаан":2491,"ист":2492," тогл":2493," оролц":2494,"оё":2495,"иа":2496,"жилт":2497," ханд":2498,"чууд":2499," тулд":2500," ут":2501," иргэд":2502," бүтээ":2503,"өлт":2504,"дах":2505," эн":2506," бат":2507," гэдгийг":2508," бүт":2509," санаа":2510,"уун":2511,"чр":2512,"ирх":2513," байдал":2514," тэг":2515," өнгөр":2516," орон":2517," хоол":2518,"йм":2519," хүртэл":2520,"илг":2521,"уг":2522," хэрхэн":2523," хэдэн":2524," төг":2525," эсвэл":2526," өөрчл":2527," ид":2528,"дан":2529,"тан":2530," аг":2531," уд":2532," ба":2533," гэв":2534," маан":2535,"in":2536," заа":2537," тийм":2538,"урхан":2539," гур":2540," чу":2541," ажилл":2542," таны":2543," учр":2544," хө":2545," ах":2546,"вр":2547,"Ерөнхий":2548," маань":2549," хүч":2550,"чилгээ":2551," залуу":2552,":\n":2553," дол":2554,"лан":2555," хөр":2556," үнд":2557,"араа":2558,"on":2559," ганц":2560," дахь":2561,"агч":2562," турш":2563," дахин":2564,"гэр":2565," К":2566,"ек":2567," холбоо":2568,"200":2569,"лийг":2570,"арч":2571," болохгүй":2572," үйлдвэр":2573," хич":2574,"өлд":2575," дэмж":2576," эмэгтэй":2577," ээ":2578,"er":2579,"нх":2580,"олтой":2581," ял":2582,"иал":2583," ирсэн":2584,"Манай":2585," ард":2586," анхаар":2587," өдр":2588,"ем":2589,"агт":2590,"олт":2591," тохиолд":2592," мөр":2593,")\n":2594,"хн":2595,"өдөл":2596," гарч":2597,"агад":2598,"ак":2599," сургуул":2600," зэр":2601," өөрийн":2602,"ээрээ":2603,"Үүн":2604,"-д":2605,"лон":2606,"уд":2607,"ср":2608," үргэл":2609,"гөө":2610,"гой":2611," хамгаа":2612," чухал":2613," чан":2614," чадахгүй":2615,"хи":2616,"лагатай":2617," ох":2618,"үх":2619," хэмээн":2620," үнэ":2621,"ээгүй":2622,"Инг":2623," шил":2624,"эзээ":2625," хойш":2626," дунд":2627,"Ийм":2628,"Миний":2629," бүгд":2630,"бөр":2631,"-ийн":2632,"эхэд":2633," ая":2634,"аат":2635," шийдвэр":2636,"элц":2637," үнэн":2638," бүс":2639," сонс":2640,"-р":2641," гай":2642," түр":2643," хүүхэд":2644," гол":2645,"Өн":2646,"тал":2647," чи":2648," тэн":2649," Улс":2650," амь":2651," өгөх":2652,"Тиймээс":2653," ад":2654," хийсэн":2655,"мын":2656,"ИХ":2657,"из":2658," учир":2659," хот":2660," муу":2661," сонирх":2662,"алтай":2663," авсан":2664," өндөр":2665," руу":2666," хариу":2667," үүс":2668,"Хү":2669," сая":2670,"иад":2671,"агүй":2672," ном":2673," аль":2674,"ийгөө":2675," бага":2676,"аарай":2677,"Ор":2678," зээл":2679," машин":2680,"эхүү":2681," эз":2682,"осон":2683," хэсэг":2684,"гаад":2685," түүний":2686,"Ар":2687," мэт":2688,"ино":2689,"Нэг":2690," зарим":2691,"аараа":2692," ф":2693,"ааш":2694," байв":2695,"огт":2696," чам":2697,"чим":2698," дүр":2699," төрийн":2700,"дын":2701," уулз":2702," мэдээлэл":2703,"уудыг":2704,"лж":2705," гэнэ":2706,"гасан":2707," бусад":2708," албан":2709," /":2710," ажиллаж":2711,"үүлсэн":2712," төлөв":2713," хан":2714," өөрөө":2715," бодож":2716," хөгж":2717,"an":2718," хэзээ":2719," зөвхөн":2720," хууль":2721,"тер":2722," Ш":2723," бур":2724,"хон":2725,"ье":2726,".Б":2727," учраас":2728," ус":2729," эхл":2730,"Хэрэв":2731,"дөг":2732,"эгч":2733," АН":2734," мөнгө":2735," дүн":2736," унш":2737," те":2738," хугацаанд":2739," сүүл":2740," дуус":2741,"уудын":2742," оч":2743,"эвч":2744," Ү":2745," төв":2746," түүх":2747," тар":2748," ханг":2749," яаж":2750," сэр":2751,"Ам":2752," надад":2753," зориул":2754,"наас":2755,"юу":2756," гүй":2757," шийд":2758,"алд":2759," онц":2760,"нээс":2761," тэмц":2762," Ч":2763," айм":2764,"этэл":2765," болохоор":2766,"угаар":2767," тайл":2768," дэв":2769," орж":2770," Ж":2771,"лөө":2772," тохир":2773," чиг":2774,"ахад":2775," эц":2776," зог":2777," үүр":2778,"охгүй":2779," яах":2780," эл":2781,"ац":2782," хөдөл":2783,"ооны":2784," зөвш":2785,"гаас":2786,"ятад":2787," яагаад":2788," анг":2789," харагд":2790," монгол":2791," байхад":2792," үүнийг":2793,"оп":2794," ух":2795," хийг":2796," шалт":2797," удир":2798,"дөө":2799,"үг":2800," зүй":2801," намайг":2802,"лөгч":2803," яг":2804," ажлын":2805,"мийн":2806,"асгийн":2807,"Ал":2808," хэлж":2809," охин":2810," нөлөө":2811," хэлб":2812," явж":2813,"лэж":2814," мэр":2815,"гоор":2816," зогс":2817," оруул":2818,"оц":2819," олг":2820," S":2821," ажиллах":2822," түүнийг":2823,"эвэр":2824," өрг":2825,"рах":2826," тул":2827," магад":2828," энд":2829,"юул":2830," адил":2831,"имт":2832,",\n":2833," нөхц":2834,"\"-":2835,"эдэг":2836," зөвшөөр":2837,"ar":2838," дарга":2839," үгүй":2840," өөрсд":2841," хэрэгж":2842,"ув":2843,"нес":2844," өм":2845," газрын":2846," шалг":2847,"лаан":2848," зураг":2849,"Гэтэл":2850," өс":2851," Ц":2852," зэрэг":2853,"эрхий":2854," амжилт":2855,"даггүй":2856,"оронд":2857," уур":2858," олж":2859," ээж":2860," найз":2861,"ьсан":2862," бидний":2863,"одог":2864," үндэс":2865," итг":2866," мэдэх":2867,"үүнд":2868,"Эд":2869," хая":2870,"ет":2871," сайд":2872," холбоотой":2873,"элд":2874," холбогд":2875,"үд":2876," сонгуул":2877," хэлэлц":2878," боловср":2879,"or":2880," Е":2881,"шил":2882," Л":2883,"олгой":2884," мөнг":2885," мэнд":2886," байгааг":2887," Ерөнхий":2888,"үүдийн":2889,"Хам":2890," үйлчилгээ":2891,"маар":2892,"тэн":2893," ирэх":2894," П":2895," суур":2896," тэмдэг":2897,"ган":2898,"оно":2899," явах":2900," пр":2901,"Дэл":2902," өнөөдөр":2903," хөл":2904," байгууллаг":2905," зорилг":2906,"12":2907,"Тэгээд":2908,"гай":2909," газр":2910," дотор":2911,"жиг":2912,"хам":2913,"ей":2914," _":2915," уг":2916," дуртай":2917,"чдын":2918," судал":2919," буруу":2920," үнэхээр":2921," ирээд":2922," бүрэн":2923," хөт":2924,"сний":2925," танилц":2926,"11":2927," аюул":2928," гишүүн":2929,"гдэх":2930,"дсэн":2931,"аалт":2932," харь":2933," таа":2934," асуу":2935," дэлхийн":2936," хэлсэн":2937,"анк":2938," хүү":2939," нийг":2940," заг":2941,"үүдийг":2942,"15":2943," харж":2944," өгсөн":2945," гурван":2946," үлд":2947," эдийн":2948," хууд":2949,"яа":2950," болоод":2951," түм":2952," болдог":2953," байвал":2954,"ок":2955,"сийн":2956,"төн":2957,"аргал":2958," зөвл":2959,"ээсээ":2960," зов":2961,"ел":2962," санагд":2963," хүрг":2964,"Ямар":2965," шат":2966," хүлээн":2967," танд":2968," мин":2969," дугаар":2970,"арга":2971,"ээнд":2972," гарсан":2973,"дугаар":2974,"алын":2975,"en":2976," M":2977," буюу":2978," салбар":2979,"!!":2980,"эгт":2981,"лөгөө":2982,"лэлийн":2983," Бурхан":2984,"100":2985,"оны":2986," мэдэгд":2987," өөрийгөө":2988,"өрийн":2989,"ерик":2990,"таа":2991," үл":2992," шаардлагатай":2993," нэмэгд":2994,"рам":2995,"аатар":2996,"пор":2997," хад":2998," мя":2999,"аасаа":3000,"члэн":3001,"30":3002," асуудлыг":3003," үеийн":3004," асуул":3005," гүйц":3006," зохион":3007,"нө":3008," алд":3009," гэм":3010," гаруй":3011," төрлийн":3012,"Гэвч":3013," мэргэж":3014,"Таны":3015," байн":3016," Ө":3017," засгийн":3018,"ины":3019,"артай":3020,"гоо":3021,"гээд":3022,"инд":3023," Би":3024," бодлог":3025,"Өнөөдөр":3026,"дэнэ":3027," тооц":3028," зөр":3029,"саар":3030,"Дараа":3031,"хайн":3032,"өгөө":3033,"вээ":3034,"Хүүх":3035,"ээрэй":3036,"үүдэд":3037," долоо":3038,"лох":3039,"ласан":3040,"Хүн":3041,"Үү":3042," зүйлийг":3043,"ум":3044,"ийнхөө":3045," харин":3046,"Чи":3047," хооронд":3048," хав":3049,"ли":3050," гарах":3051,"рийн":3052,"ойр":3053," ойр":3054," улсад":3055," бүсгүй":3056,"st":3057,"ст":3058," хай":3059," чөлөө":3060," баримт":3061," ярилц":3062,"Мэд":3063," бүтээл":3064," дор":3065," шууд":3066," минут":3067," боллоо":3068," бут":3069," бизнес":3070,"лэн":3071," мэдэхгүй":3072," ингэж":3073,"ент":3074," ач":3075," зүгээр":3076," настай":3077,"Ир":3078," боловч":3079," байгаад":3080," эрүүл":3081," нуу":3082," бүтээгдэх":3083," тогтоо":3084," гэвэл":3085," A":3086," үх":3087,"агс":3088,"Үүнийг":3089,"le":3090,"бээр":3091," болгох":3092,"Зар":3093,"элтэй":3094," байдлаар":3095," УИХ":3096," Засгийн":3097,"рэг":3098," төгс":3099," хэц":3100,"өөн":3101," бүхэн":3102,"сгал":3103,"Эн":3104," арг":3105," хөрөнгө":3106,"уулдаг":3107," C":3108," явдал":3109," гаргах":3110,"бал":3111," нүүр":3112," илэрхий":3113," батал":3114,"илт":3115," авт":3116," мар":3117," мэдээ":3118,"Тэгвэл":3119," болжээ":3120,"инэ":3121," аав":3122,"үүнээс":3123,"18":3124," ерөнхий":3125," авна":3126,"оогүй":3127," тай":3128,"өгд":3129," ярьж":3130," сол":3131," хат":3132," амар":3133,"хээ":3134," АНУ":3135,"агн":3136," чадвар":3137," үзүүл":3138," дүүр":3139,"инг":3140,"оёр":3141," оронд":3142," болгон":3143," наад":3144," доо":3145," иргэн":3146," дагуу":3147,"Гэр":3148," өгч":3149," дөр":3150," орох":3151," .":3152," хүнийг":3153," гаргаж":3154,"ран":3155," хэт":3156,"юут":3157,"амс":3158,"өлбөр":3159," Я":3160," сард":3161,"төө":3162," мэдр":3163," шалтгаан":3164," хэцүү":3165," гэхэд":3166," ирж":3167," хүчин":3168,"эхийг":3169," хичээл":3170," P":3171," тас":3172,"йл":3173," итгэл":3174,"илцаа":3175," өнгөрсөн":3176," нөхцөл":3177," там":3178," хийдэг":3179," анхны":3180," өөрчлөлт":3181," хариуц":3182," хян":3183,"уулан":3184,"арсан":3185,"Зарим":3186," дэлхий":3187," цэвэр":3188,"at":3189,"Уг":3190,"олог":3191," хариул":3192,"луур":3193," чадах":3194,"Түүний":3195,"ъя":3196,"гий":3197," бүл":3198,"истем":3199," Улсын":3200," техн":3201,"al":3202,"гч":3203," буур":3204," компани":3205,"вроп":3206,"орж":3207,"Үн":3208,"рөг":3209," өрөө":3210," таар":3211,"шгүй":3212," боддог":3213," тайлбар":3214,"50":3215," байжээ":3216," дээд":3217," дамж":3218,"баатар":3219,"лалт":3220,"нз":3221," эв":3222,"Бү":3223," улам":3224,"ээх":3225,"длаа":3226,"чиг":3227," хүлээж":3228," хадгал":3229," хэрэггүй":3230," бая":3231," тухайн":3232," тоглоо":3233,"202":3234," тэдний":3235," алга":3236,"ижиг":3237," жин":3238,"Олон":3239,"сны":3240," хэрэглэг":3241," му":3242," цааш":3243," ярих":3244,"дийн":3245,"нэл":3246,"oo":3247," эсрэг":3248," засаг":3249,"Хамгийн":3250,"чдийн":3251," судалгаа":3252," мэддэг":3253,"ийнхээ":3254," ашиглах":3255,"гын":3256," үзэж":3257," хуулийн":3258," багш":3259,"гүүр":3260,"даад":3261,"ишээ":3262," хүмүүсийн":3263," э":3264,"Эдгээр":3265," цах":3266," Монголын":3267," харилцаа":3268,"агдсан":3269,"re":3270," ярь":3271,"үүлэг":3272," жагс":3273," Ар":3274," гадаад":3275," байгаагүй":3276," Ор":3277,"Ту":3278," нутгийн":3279," гүйцэтг":3280,"вэр":3281," дараах":3282,"Эх":3283," дан":3284," сү":3285," тохиолдолд":3286," I":3287," ст":3288," хамаар":3289,"олоо":3290," магадгүй":3291," толгой":3292," систем":3293," сург":3294," бүрийн":3295," аз":3296," огт":3297,"иар":3298," туш":3299," шүүх":3300," бүү":3301,"14":3302,"ладаг":3303,"арх":3304," хэлэх":3305,"өмж":3306,"бай":3307," цагийн":3308," захир":3309,"Цаг":3310,".Э":3311," өдрийн":3312,"маа":3313,"Хэрвээ":3314," В":3315," Ам":3316," айл":3317," Энэ":3318,"об":3319,"энх":3320," гаргасан":3321,"Бүх":3322," Хятад":3323,"алттай":3324,"Өмн":3325,"лэдэг":3326," зүйлс":3327,"Нам":3328," хэрэгс":3329," санхүү":3330," орчин":3331," цэр":3332," сүүлийн":3333," Р":3334,"Тэрээр":3335,"Зөв":3336," болчих":3337," бараг":3338," зав":3339,"Яагаад":3340,"лэсэн":3341," дээрх":3342,"төнц":3343," нэв":3344," үнэл":3345," эдгээр":3346,".\"\n":3347," хүүхдүүд":3348," барил":3349," хамгаалах":3350," үс":3351,"нээ":3352,"ууны":3353,"жин":3354,"уулна":3355," хоногийн":3356," N":3357," үзэх":3358," орсон":3359," харах":3360," төгрөг":3361,"уулга":3362,"өхөөр":3363," B":3364,"элээ":3365," хаан":3366," Ф":3367," цагт":3368," чанар":3369," хөтөлбөр":3370,"ac":3371," бутлуур":3372," нэгд":3373,"ou":3374,"уудад":3375,"иуд":3376," гэрээ":3377," боломжгүй":3378," заавал":3379," тань":3380," урьд":3381,"чээ":3382,"алдаа":3383," харьц":3384," T":3385,"Улс":3386,"алз":3387,"өмб":3388," бүхий":3389," нарын":3390," гадна":3391," хэмжээний":3392," тун":3393,"it":3394," тойр":3395,"лагдсан":3396," төрөл":3397," гоё":3398," цэц":3399,"тийн":3400," бос":3401,"Тэгэхээр":3402,"тгий":3403,"-нд":3404,"vv":3405," дээрээ":3406,"олцоо":3407," мянг":3408," ухаан":3409," чадна":3410," кино":3411,"чилж":3412," бор":3413,"ман":3414," гарг":3415,"Энэхүү":3416," худалдаа":3417,"мд":3418," намын":3419,"аахан":3420," төлбөр":3421,"хар":3422," мэдэж":3423," рүү":3424," энэхүү":3425,"чилсан":3426," түв":3427,"сай":3428," алдаа":3429,"Учир":3430," явсан":3431," эмнэл":3432," орны":3433,"баяр":3434," хийн":3435,"чихсан":3436,"Эм":3437,"лалаа":3438," эхэлсэн":3439,"онгос":3440," аваад":3441," дууд":3442,"тэйгээ":3443," хуудас":3444,";\n":3445," нөхөр":3446," болохыг":3447,"өнө":3448,"олын":3449," бэлэн":3450," банк":3451,"лагын":3452," жаргал":3453," эхний":3454," насны":3455," ертөнц":3456," зан":3457," байхдаа":3458," тэрг":3459," бидэнд":3460,"гуй":3461," буц":3462," хүссэн":3463," утас":3464," сэд":3465," бичиг":3466,"вор":3467,"өрсөн":3468,"Хоёр":3469," хэлбэр":3470,"ic":3471," хаана":3472," онг":3473," мал":3474,"халтай":3475," хурдан":3476," Эр":3477," дут":3478," орнууд":3479," найр":3480," цуг":3481," бүртг":3482,"алц":3483,"ахыг":3484," нүд":3485," оноос":3486," үргэлж":3487," удирд":3488,"мэл":3489,"өөл":3490," мянган":3491,"16":3492," тээ":3493," янз":3494,"vй":3495,"om":3496,"Тус":3497," хүмүүст":3498,"Ний":3499," сайт":3500," асуудл":3501,"үүлэн":3502," дай":3503," хувийн":3504,"ян":3505," тулг":3506," хувц":3507,"Ингээд":3508," амьдарч":3509," ...":3510," гэхдээ":3511," кин":3512," шилж":3513,"гүйгээр":3514,"үрх":3515,"Монголын":3516,"17":3517,"лээд":3518," үеэр":3519,"ныг":3520,"ограм":3521," хориг":3522," март":3523," явц":3524,"нэр":3525," ажлыг":3526,"Үүний":3527,"ио":3528,"мж":3529," ажилд":3530," болгож":3531,"-аас":3532," хаг":3533,"өөц":3534," нис":3535," орлог":3536,"үүлнэ":3537,"Хэд":3538," бууд":3539," жижиг":3540," дүг":3541,"алин":3542," G":3543,"огц":3544," шаардлаг":3545,"За":3546," амьдралын":3547,".Бат":3548,"Яг":3549,"руулах":3550," угаа":3551,"Мэдээж":3552," тоглолт":3553,"сныг":3554," нууц":3555,"хэг":3556,"аб":3557," аюулгүй":3558," шинж":3559," бичсэн":3560,"199":3561," орч":3562," хайртай":3563," амьдар":3564," олох":3565,"саа":3566," зү":3567,"Тэрбээр":3568,"порт":3569," үйлд":3570," бэр":3571,"члэг":3572,"дол":3573," хүсч":3574," сонгол":3575,"ээлт":3576,"лаад":3577," хотын":3578," хөөр":3579," сайж":3580," зорилго":3581,"Хэн":3582," зай":3583," D":3584,"13":3585," хөн":3586," унт":3587," хөдөлгөө":3588," ихэнх":3589," асуулт":3590," тоглоом":3591,"вөн":3592," түүнд":3593," байдлыг":3594,"-ны":3595," [":3596," тов":3597," хэлбэл":3598,"хгүй":3599,"ью":3600," байхыг":3601,"омжтой":3602,"өмбөг":3603," ажлаа":3604," шаардлага":3605,"эндээ":3606," ирээдүй":3607,"es":3608," ахуй":3609," F":3610,".Энх":3611," мэдээллийг":3612," Та":3613," нэвтр":3614,"Ав":3615," оруулах":3616,"Дэлхийн":3617," загвар":3618,"Бидний":3619," өмнөх":3620," аймгийн":3621," цар":3622,"ших":3623,"уулалт":3624," хэмжээнд":3625," үргэлжл":3626," зохиц":3627," зориулсан":3628," гэлээ":3629," агаар":3630," ажилладаг":3631,"хийг":3632,"Өнг":3633," бололтой":3634,"Энд":3635,"хэнэ":3636," төрсөн":3637," урт":3638,"Шинэ":3639," соё":3640," чиглэл":3641,"згаар":3642,"лөх":3643," барих":3644,"Бус":3645," бодох":3646,"Бар":3647,"лайн":3648,"ааны":3649,"уулаад":3650,"өхөөрөмж":3651,"Бас":3652," өөртөө":3653," нөгөө":3654,"mn":3655," сонголт":3656,"үжиг":3657,"ант":3658,"Сүүл":3659,"ХА":3660," өглөө":3661,"УИХ":3662," эхнэр":3663," тэгээд":3664,"??":3665,"екс":3666,"гааны":3667,"агдаж":3668,"ага":3669," эмэгтэйчүүд":3670,"ев":3671,"дэггүй":3672," гурав":3673," тэнд":3674,"олонгос":3675," ме":3676,"амд":3677," удаан":3678," явдаг":3679,"гээс":3680,"лагд":3681," нийтийн":3682," чамайг":3683,"адад":3684," тусл":3685,"Их":3686," бүрд":3687," орчим":3688,"нээр":3689,"Нүүр":3690,"сээр":3691,"ашин":3692,"лар":3693," мэднэ":3694," дээш":3695,"санд":3696,"уяа":3697," цагдаа":3698," гишүүд":3699," төхөөрөмж":3700," эзэм":3701," арай":3702,"хны":3703," үйлчл":3704,"Ур":3705," гэдгээ":3706," орд":3707," хүүхдийн":3708,"сг":3709," бүлийн":3710," үзсэн":3711,"жлийн":3712,"уучин":3713," хязгаар":3714,"Эрдэнэ":3715," зарц":3716," битгий":3717," бүтээгдэхүүн":3718,"варын":3719," буу":3720," таныг":3721," дал":3722," өөрийнхөө":3723," түмэн":3724," үндсэн":3725," дүгн":3726," орой":3727," жур":3728,"24":3729," H":3730," мат":3731," оюут":3732," технолог":3733," програм":3734," хийнэ":3735," түвшин":3736," гуй":3737,"гааш":3738," гэдэгт":3739,"үнд":3740," төлөвлөгөө":3741,"25":3742,"Үүнээс":3743," шилдэг":3744," барьж":3745," дэх":3746," уран":3747,"өөсөө":3748,"цээ":3749," эргэл":3750," өнөө":3751,"гар":3752," хэрэглэх":3753," суурь":3754,".mn":3755,"аах":3756,"Бай":3757," хэдий":3758,"икийн":3759," бөх":3760,"этгэл":3761,"агийн":3762,"олб":3763," удаагийн":3764,"есс":3765," хувцас":3766," гайх":3767,"лагч":3768,"Хятад":3769," нэл":3770," гэмт":3771,"ударга":3772," эрт":3773," хөгжил":3774," байл":3775," бодит":3776,"am":3777,"ХУ":3778," эхлэх":3779," хоногт":3780," очиж":3781," хил":3782," нутаг":3783," тон":3784,"энтэй":3785,"гаараа":3786," тут":3787,"лжээ":3788," амр":3789," сууж":3790," хүрт":3791,"энгүй":3792,"АНУ":3793," өгнө":3794," Америк":3795,"ип":3796," багт":3797," амьдрах":3798," эцэг":3799," нийгэм":3800,"эгүй":3801," мод":3802," ээл":3803,"агдах":3804,"ра":3805," байгал":3806," сав":3807," Европ":3808,"Сан":3809," авдаг":3810,"кс":3811," гом":3812,"охой":3813," халдв":3814," суралц":3815,"врийн":3816," W":3817,"..\n":3818,"сөлд":3819," тос":3820," хийгээд":3821," бариг":3822," байгууллага":3823," ялгаа":3824,"мээр":3825," ня":3826," ашиглаж":3827," төлөвл":3828,"Гад":3829," хуур":3830," бодлого":3831," МАН":3832,"эгдсэн":3833," туслах":3834," чиний":3835," зүйн":3836," Орос":3837,"тайгаа":3838," өвч":3839," байдаггүй":3840,"пон":3841,"40":3842," ухаа":3843," улир":3844,"ед":3845," хэрэглээ":3846,"лөгчийн":3847,"гүү":3848,"луулах":3849,"иде":3850," эмч":3851,"ноо":3852," бүлэг":3853," хамр":3854," R":3855," сонирхолтой":3856," t":3857,"Хүмүүс":3858," минутын":3859,"гvй":3860,"ья":3861,"элж":3862," ижил":3863," E":3864," бичлэг":3865,"лэгч":3866,"длыг":3867," гэртээ":3868," өөрчлөгд":3869," байнга":3870,"нүүд":3871,"ro":3872,"**":3873," яд":3874,"эст":3875," арил":3876," сургууль":3877,"барын":3878," шир":3879," сэтгүүл":3880," ,":3881," жилд":3882," худалдаж":3883,"андаа":3884," үүрэг":3885,"иваа":3886,"унд":3887,"эрч":3888," тусламж":3889," аргагүй":3890,"сү":3891," цалин":3892,"жилгээ":3893," ажээ":3894,"Сур":3895," баталгаа":3896,"вол":3897,"ериал":3898,"өдөө":3899," v":3900," өгдөг":3901,"эгдэл":3902," нөөц":3903," худалдан":3904,"оохон":3905," захиал":3906,"лам":3907," чаддаг":3908," дөрвөн":3909," мах":3910,"өсөн":3911," оруулж":3912,"is":3913,"лбар":3914,"тор":3915," яваа":3916,"дэж":3917," дас":3918," шагн":3919," таван":3920,"сыг":3921," гайхалтай":3922," ойлгож":3923," хүрээнд":3924," иргэдийн":3925," хулг":3926,"аасан":3927,"Тэдний":3928,"un":3929," шү":3930,"үүлдэг":3931," тохиолдол":3932," сул":3933," харилц":3934," энгийн":3935," нутагт":3936,"he":3937," гэхээр":3938," зайл":3939," хохир":3940," өгөө":3941," цэг":3942," дотоод":3943," тавьж":3944,"Өнгөрсөн":3945,"-н":3946," гэжээ":3947," өрсөлд":3948,"Бурхан":3949," хараад":3950,"/\n":3951,"хоо":3952," Ерөнхийлөгч":3953," зүрх":3954,"юун":3955," суул":3956," хүсэл":3957,"би":3958,"маас":3959," бичих":3960," хувил":3961,"дэх":3962," юмаа":3963," онгоц":3964," тавих":3965," эхлээд":3966,"оф":3967," бэрх":3968," тэрээр":3969," тэрб":3970,"Өөрөөр":3971," тушаал":3972,"агш":3973," яам":3974," чадсан":3975," салбарт":3976," L":3977," өнгө":3978,"акц":3979," үедээ":3980," хүмүүсийг":3981,"Анх":3982,"еж":3983," нийгмийн":3984,"эсний":3985,"Тухайн":3986,"Дээр":3987,"Орос":3988,"ндаа":3989," сонин":3990,"Түүн":3991," дүү":3992," хамаагүй":3993,"сэг":3994," үүд":3995,"гэх":3996," зо":3997," мор":3998," өргөн":3999}