#version: 0.2
  ا
  ب
  م
  د
  ک
ا ن
ا ی
ا ر
س ت
. 

ن د
  و
  ر
  ت
  ه
 د ر
ی ن
  ن
  ش
 م ی
 ب ه
و د
ی د
  س
  آ
 ک ه
  خ
 ا ز
 ر ا
 ا ست
ا د
ا ل
ر د
ا م
 ب ا
 ب ر
  ی
  پ
و ر
 ا ین
ا ه
  ج
ی ر
  ف
  ح
  گ
ا ت
ی م
ش ت
 آ ن
  ع
ل ی
ه ا
  ز
م ا
ه ای
 ی ک
و ان
ا ب
 ک ن
  چ
ر ی
  ق
و ن
 بر ای
ا ز
 ه م
د ه
ف ت
س ی
و ل
و ی
 ه ای
گ ر
 ک رد
م ی
ت ر
ر و
 ا ن
م ان
 م و
ار ی
 د ار
 خ ود
د ر
ر ا
 م ن
ت ی
اد ه
ک ن
ل ا
 خ و
 ب ود
  ط
 ن ی
 ش ما
 ر و
 با ش
 ک ار
‌ های
ی ت
  ص
 ی ا
ای ن
گ ی
ان ی
ز ی
 ب ی
 ت ا
ا شت
خ ت
ا س
 ش ده
 ت و
 ش د
 د ه
 ه ا
ای د
ای ی
 س ال
ب ه
 ا ی
ب ر
ی ا
ر ک
 م ا
 ه ست
 د و
 ک ند
ب ی
 د ی
 کن ید
ان ه
 ا و
ف ر
  (
‌ ها
 ش ود
 ا م
 م ح
 ت وان
 آ م
ا ق
 کن ند
 م ت
 ف ر
 خو اه
ب ا
 پ ی
 ه ر
 م ع
گ اه
 د اشت
ل ه
ن گ
ا و
ق ی
د ی
ن ی
ب ت
ع ی
 د ست
 باش د
 دار د
  ل
ک ه
ت وان
ش ان
ا ف
 ن می
 س ر
م ای
اد ی
و ز
  غ
 ب اید
ار د
فت ه
 ق ر
 ح ال
ف اده
ک ی
ه م
 ت ر
خ و
ار ه
ند ه
؟ 

 ک م
ج ه
ر ف
 م ش
 است فاده
ور ی
ام ه
 آن ها
 ا ر
ان د
 ک ش
ز ار
  ،
ج ود
 گ ر
 ب د
‌ ش
 چ ی
ع ه
 م د
ج ام
 ا س
 دی گر
 هست ند
ا ست
ا خت
 ن ظ
 ا ند
 مو رد
ه ر
 ب سی
ک ر
د ید
ع د
م ن
 کرد ه
 چ ه
  «
 م س
 ان جام
 م ر
ی ل
 ا ل
 د ان
 ز مان
 ت ح
ع ت
ش ی
ن ین
 نی ست
 رو ز
 پی ش
 ن و
 د اد
 ا ما
م ل
و م
ال ی
‌ ک
 و جود
و ند
 با ز
 ا ف
 م ق
‌ توان
 ج ه
ق ت
گ یر
ن وان
 ز ند
خ ص
 نی ز
م ین
 ب ین
چ ه
 م رد
  ند
 ا ج
 ت ن
 ان ت
‌ کن
 بی شت
 ر س
ری ک
رک ت
 قر ار
تر ین
 ت م
ید ه
 ب ز
ون ه
 داشت ه
 ا ح
ام ل
ک ل
 ع نوان
. .
 تو س
ن امه
 گ ذ
 ر وی
ی ک
 خواه د
د ا
 ز ی
 هم ه
م کن
و ه
ش ن
 ا ت
 کش ور
ا گر
خ ی
ا ص
 ده د
ش د
 زند گی
ام ی
ق ه
ر گ
‌ ای
ط ر
! 

ست ان
 ب خ
 و اق
ی چ
م و
 نظ ر
 س از
 را ه
ای ت
 د اده
 ت ج
 دان ش
 م مکن
 دار ند
 س ی
 بسی ار
ر س
‌ ی
 ت ص
گ ان
 م ج
» 

 ج م
و ش
د م
 کرد ن
ان ند
  .

 گ فت
 نی از
ک ان
ز ش
و ا
ک ار
 ا ط
 بیشت ر
آ ن
ام ا
ق ط
خو اه
ع ات
چ نین
ور ت
 با زی
2 0
ح ی
از ه
ار ت
 ش رکت
 پ س
 بز رگ
 ج دید
ا ک
شت ه
و ق
م ند
غ ی
 ا گر
 آم ریک
ت ان
‌ش ود
 م ط
و ید
ص د
اب ر
 ب ال
ز ای
 ک س
e r
 کم ک
 ن ام
 د ور
 ا ص
 توان د
اد ر
س ه
ل ام
س ان
 ک و
‌ک ند
 ا فر
ب ان
ش ه
 بر نامه
 س اخت
غی یر
ج ا
 ه یچ
 ا ع
 ن شان
 ح د
 ک ل
 ش ن
رد ه
 پ ای
 م ث
 ط ور
 م اه
 چ ند
ر ه
ل ب
 ا ول
ل ف
ی ه
 تن ها
 ت غییر
 ن ه
ب اره
را ئ
‌ گ
ا خ
ض ر
 ش وند
 و ی
 کن یم
 مرد م
  "
ج اد
 توس ط
ین ه
.. .

 ن ق
 چی زی
م ت
ات ی
 ز ن
 ق ب
اب ل
. »

 واق ع
ست م
 ب ار
 ا د
 آ ز
 یک ی
 ا یر
  S
 ای جاد
 ز یر
ک ت
 ج ن
ب ود
 پ رو
 د ن
پ س
‌ ده
i n
ژ ی
های ی
 س و
گ ونه
 ص ورت
ث ر
ون ی
 ط ول
 ب یم
 پ ر
 جه ان
‌ اند
خ اب
 باش ید
 آم وز
ست ه
ن ه
ض ی
ک س
س ر
 چی ز
م ال
 ت ب
ن ج
د ان
ب و
 ب ل
از ی
 تم ام
o n
 ت ول
 م ص
 د ل
ا ح
 ز مین
ب ین
  C
 ن ش
 ف ع
 ت ع
 این که
 ن س
 م انند
 ار ت
 انت خاب
 بی ش
ب ال
‌کن ند
ر سی
ت اب
لی ل
ژ ه
 ش ر
ا ش
قی ق
 ا خ
 افر اد
گ ری
 غ یر
گیر ی
  ك
ا ً
 اط لا
 آمریک ا
ز ه
و ع
 ت ق
a n
 ف قط
ی لی
بر ای
 ی اد
و س
 ه ن
 ر فت
 ن م
ب ار
 ب عد
زای ش
  A
 گر فت
  ث
اب ی
 آ ی
: 

 باش ند
ری ق
م د
 ایر ان
 خ ان
ف ی
ا ط
د ام
 اف زایش
ط ور
 ا ش
 در صد
 ج ای
 ن ا
 م هم
م ه
 س ه
 د ول
گ ز
 ده ید
ل و
مای ش
 هم چنین
ای ل
 تول ید
 ده ند
 م ه
 ش خص
 ک ود
ع یت
  ذ
ید ا
 غ ذ
 ا رائ
 م شت
 ب گ
 ارائ ه
س اس
 م را
ئ ی
 بود ه
ید ن
 بسی اری
 آ ب
 م خت
 می لی
) 

 زمان ی
 اطلا عات
 بخ ش
 ب ن
د ار
 خ ار
ز ینه
 ش ب
 دو ست
ج ی
 ک تاب
 ت ش
 ف یل
 س یا
و رد
 ح ق
  M
 زی ادی
 ح تی
 بود ند
 فع ال
 کرد ند
 توان ید
 های ی
 مد یر
a r
 کن م
ش م
 هم ان
و لی
ت ما
اه ش
 تو جه
 گر فته
را حی
۲ ۰
 مش کل
‌توان د
 ع مل
 هم ین
 شد ن
 ح ا
ق ل
 ف رو
ی شه
 ش هر
 پ یدا
رو ع
1 9
 ف کر
 ک سی
 گ رو
و ت
 ع ل
ب ط
ا سی
  P
 ساز مان
 ف رد
ذ یر
م ول
پ ی
0 0
 ن فر
و ص
 مخت لف
 بر خی
ر اه
 بد ون
 در باره
 ک اهش
ک رد
ست ی
ین ی
ف ق
 ه د
لی ه
ش ما
یم ی
 ع م
رو ز
 ج نگ
  ژ
 ق در
o r
 گرو ه
 ش روع
ال ات
 سی ستم
گ ه
 خ ر
 ا قت
 خ انه
وی ی
ر ین
 خو ب
 در یا
 س ا
 آ ل
 مت ح
 ک ام
 دی گری
ود ی
رک ز
 ت رک
س ال
 ق ابل
ج ر
 ا ه
 ح س
ب ن
ر ات
 اقت ص
ف ا
با ط
و ار
آ یا
  -
 دار ید
ع ث
 اح ساس
 در مان
ث یر
e n
 ب رد
 ند ارد
 گ رد
 ا یم
 می ان
 مط ال
‌ تر
ابر این
 م ست
ف او
ه ن
 و ر
  B
 کس ب
20 1
 من ط
 دول ت
 ان سان
 مو ض
 ن ز
  “
 ص ح
ی ف
 با عث
 س ایت
ا ور
 خ یلی
د ن
 ش ک
 من ت
 کو چ
 د لیل
و ب
ا ئ
 ح رف
‌های ی
س م
ا پ
 فیل م
م یم
 ا رو
a l
a t
 ت اری
لا ش
 چ گونه
  T
  –
 گذ شته
ت و
 م خ
 تج ر
 اج تما
ش ر
 ط ریق
 قب ل
ص ول
 مو فق
ظ ه
 ز بان
 چ نین
 رو ش
 ارت باط
 ا ق
ه نگ
 توس عه
اف ی
e s
 د ید
 قدر ت
د ود
 ا عت
  D
 جه انی
 ارو پ
ا طر
‌ آ
 س ط
 ان گ
مای ه
‌ ‌
 دن بال
 خان و
ند ی
 گ و
ف اق
ری ان
 خ دم
 ش امل
 خ دا
 مد ت
وی س
 خ اص
 ع لا
 گ یر
عد اد
 اص لی
ن ت
 ب ع
 ط راحی
 اجتما عی
 آی نده
اس ب
 س ری
  ض
 ا شت
‌ده د
 ت لاش
 اح ت
 پ اس
 به ترین
 ق ان
 هم یشه
 پ رد
 چ را
 مح صول
ت ن
 و ق
 ک اری
ای ر
ب رد
 آ ر
 و ب
 به تر
 مع مول
 بد ن
 دریا فت
 ات فاق
 اول ین
فاو ت
 خواه ند
ر م
  I
 نو ع
 اد امه
 تر ین
 ا فت
ض ای
 ش م
و ست
 ع ر
 حا ضر
 کنند ه
 نس بت
 خواه ید
ز ند
دی ل
ان س
 دانش گاه
 داد ن
 ت أ
 سر مایه
 هن وز
ی ب
 تجر به
 خر ید
مل لی
تر ل
 حال ی
 ب گیر
 دار ای
 کوچ ک
 ند ار
ت ری
 مص رف
ز ان
 م الی
ای ط
 فرو ش
 مس ئ
 هم راه
ش ار
ن ان
کن ون
 تص میم
ار ان
 گ فته
 اند ازه
 منط قه
 ر شد
 ا ب
گ رد
  H
 ه نگ
 ج ز
 و ا
 میلی ون
 نز دی
  لی
می ت
 سا عت
 آن چه
 خو بی
تی جه
 ن یر
 ک امل
 خانو اده
  G
ید ی
 حد ود
۱ ۹
 زن ان
 ر ی
گر ان
ل س
 ا ض
 کن ترل
ک و
 بر رسی
  :
 د اخ
لا ح
 تب دیل
 ه فته
 ج ام
 توان ند
مان ی
 شر ایط
 ب توان
 تح ت
 فعال یت
 ب ده
 آموز ش
از م
 تح قیق
زار ش
‌ خواه
 م در
 ک لی
 بال ا
 خ ص
اه ی
 پاس خ
ح ال
 هد ف
 گ ی
 آ غ
 خ طر
ن ا
 احت مال
ت ا
  ظ
 و ارد
ب اید
i t
 ه زینه
 گ ست
 ط بی
 زیر ا
 خ اطر
 ش ه
اب ت
‌ د
خو است
 م ل
 پ شت
 ص ف
 چه ار
ح ه
 ح ل
 سط ح
  [
 صح بت
 خ د
 ق ط
ند گان
l e
 دور ه
ع نی
 ار زش
 پ زش
 بیشت ری
 بیم اری
 با زار
 خص وص
 ه زار
گاه ی
 دل ار
 ص ن
بر ان
خ انه
i c
 و قت
ک اری
 واق عی
 موض وع
آن ها
 هست ید
 آغ از
  R
ر ژی
 ص د
هم چنین
 متح ده
 مو اد
 ن تیجه
 آ سی
 بر ابر
 س ب
غ لب
 پ نج
" 

  E
 مث ال
ب ری
بو ط
گ و
 پ ذیر
 ش کل
 جم له
 اج ازه
 بل که
 گ زارش
 مدیر یت
ق ر
 پای ان
‌ک رد
ی ط
  L
 مر بوط
 م غ
 پ ول
s t
 آ ورد
 س خ
 ای الات
 س ن
 شد ند
 ند اشت
ب ع
 م ف
 و ض
ب ور
 وق تی
ح تی
 آ یا
 س ف
 خو است
یر ه
ذ ار
بت ه
 ک می
 ن مای
 دن یا
 خ ط
 ن بود
 ف ی
 خ وان
 چ شم
 اروپ ا
 ط رف
 ح مای
» .

  F
ال ه
‌ش وند
ض ا
 من اسب
اخت ه
ز ن
ق ات
 ا بت
1 0
د اشت
ول و
 ت ه
وی ت
 و لی
 اس اس
 ک ان
] 

 ت عداد
ق در
 ام کان
‌ ترین
 زمین ه
ای ج
 مح دود
 دیگر ان
ش ید
  W
 نزدی ک
اق ل
 حمای ت
 ع مو
ر خ
 ان رژی
 مو جود
یم ت
 س لام
 در ست
 س را
 اقتص ادی
 مر ت
 ب ح
 ام ن
 پرو ژه
 ن گه
 مش خص
 مطال عه
است ان
 م ک
  ...

 یا فت
 شب که
 ا خت
ص ل
 مث ل
وق تی
 پ یر
اه ای
 خدم ات
خو رد
 ک افی
 ام روز
 دار یم
 من ظ
 چ ین
 ا غلب
ری با
 آ خ
 اع لام
) .

 جم ه
ئی س
ج وی
 سیا سی
 ن خواه
 تاری خ
 ر ه
 پیش ر
 کام لا
 تا ثیر
20 0
 ت یم
 ه وا
 ش و
 ل ازم
و های
لا ف
 م لی
هم ه
سی ه
  ضر
ت ح
ش ین
ود ه
 را بط
 خو ش
 خ ون
 س ل
r o
 سری ع
 شخص ی
 ش وید
ن و
ظ ار
ب خ
 تو ص
ام بر
ک تر
 کرد م
 در ک
 به بود
۰ ۰
 کس انی
ب ل
‌ س
  N
ات ر
 چ ون
r e
 خو اب
ر ان
 ك ه
 ج ان
 ح ی
 ال مللی
 طبی عی
 ساخت ه
 س ایر
 ن مایش
 این جا
 کم تر
 م ادر
 دار م
دی گر
 مو ارد
ف ظ
 جام عه
او ند
بن ابراین
 آز مایش
ص ر
اب د
 مح یط
ئ ن
 س اده
 کود کان
 عمو می
 خار ج
 قان ون
 مر گ
‌ ن
 م ذ
‌توان ید
و یر
‌ ال
 ا ک
h e
 س فر
 ج وان
 کود ک
 کن ار
 ت ک
 ج و
 ا ثر
 ن کن
 س خت
ون ت
ج و
ار ک
 م ان
ر ب
 ت کن
 ل ح
 د خ
۲۰ ۱
 انت ق
 اق دام
با شد
 ن گاه
) ،
 بود ن
را ف
 ن ف
 رس ید
 ح فظ
 حق وق
 رابط ه
 ق د
 ط ر
ک ند
 فر ص
 ب ان
م ز
 ر نگ
 نق ش
ب د
 گ ونه
 ق یمت
ع ا
ی ز
. "

 ت ما
ت ق
 ح قی
گی رد
 آم اده
ل ق
وی ند
غ ان
 ا ید
a c
 صف حه
 انت ظار
 مو ق
  ست
ال ت
اه ده
 ر ق
اب ه
 مشکل ات
اب ع
 موفق یت
 آن جا
 ب بین
 پرد اخت
 ق ادر
 رو سیه
مند ان
i on
 وی ژه
 س وی
 فر زند
 رفت ار
 بر س
خص ص
 انگ لی
 بد ان
 پ در
 ح رکت
 هر گز
 دو م
 ع و
 هم چ
ل م
 د قیق
 ه و
 غذ ایی
 حرف ه
 ا یده
 ر ای
‌توان ند
 سیا ست
گ ار
آ مد
 کشور های
ولو ژی
 مت فاوت
ند ان
اف ه
 ج لو
گ فت
 ی عنی
ا ع
 ب پ
 تق ریبا
 ح ک
 سرا سر
 سر عت
م ع
 مج مو
 خار جی
چ را
‌ پ
 ج ست
ب ات
 ص رف
 دو باره
 ساز ی
” 

 د استان
 حد اقل
o m
 د ش
 ن خ
ب از
اب ط
e l
 گذ اری
 هست یم
کی ل
 گذ اشت
 ج ا
 ع لیه
 ش ی
ق ان
 دست گاه
 آز اد
ظ ت
ظ ر
ست گی
 ده ه
 ع ض
 بی ان
 ه ی
 آسی ب
اه م
وری ه
ی کی
 ح م
 یا فته
 تج اری
 طول انی
 می زان
 افر ادی
 آمریک ایی
 ط ی
 کو ت
 ن ت
 زی اد
 خ ور
اف ق
و اره
o u
ب انی
  ‌
in g
 ح ض
 پای ین
 نش ده
 د یده
 اخ یر
 منت شر
 ب یر
 م بت
ر ش
ال بته
 شن اخته
 ت خ
ج ب
ظ یم
 ج ایی
 دست رسی
ق ا
ق یم
م اد
 ر خ
 ت ف
 پ رس
 آم ده
 ج ذ
ق ای
 پیش نه
 بیم ار
 این تر
 آن ان
 بر گ
ب اه
ا فر
ای ه
ل ح
 ط ب
 مش اهده
ش ود
i s
 ت ل
 تص ویر
 امن یت
 با ور
 مس یر
 مت و
 وض عیت
ام پ
 م کان
ال ب
 عم لی
 ف شار
 مع ن
e t
س انی
 بن ابراین
 اب زار
 ع الی
 مع نی
 س پ
 نظ امی
ل مان
 مشت ریان
 بود م
 بخ شی
ي ن
 آ ش
 اض افه
 ح مل
 خد اوند
ت ل
‌ دان
 د قی
 هنگ ام
ام ین
 حض ور
 مه ارت
د و
ه یچ
 چی ست
 ن ور
ت ش
 آم د
ه مان
 ع کس
 ت لف
 محصول ات
 ب و
 سال ه
 ا کنون
 ک یف
 شن اس
 فرص ت
ح له
 ر ئیس
اد ل
‌ رس
 حقی قت
ان ت
ذ اری
ش ق
 در خواست
 س نگ
 هن ر
 س مت
 نیست ند
 گی رد
ر بی
 ن باید
 خ ش
 هم کاری
کن ان
 اش اره
  O
د اری
 واقع ا
 جن سی
م ح
 هست م
 داشت ن
 دخ تر
 م بار
 است رات
لا س
ر یم
o l
 اقتص اد
ت ور
 ب س
 خو رد
 فر اهم
 من جر
 دقی قه
 ش ور
 ف را
وا ج
 ث بت
ائ ل
اه د
 داخ لی
 جم ع
 من ابع
گ ل
 فر ان
  U
 خود ش
 رو شن
 غذ ا
ا فت
س ل
 در د
 توان ایی
وان ی
ع لا
a m
 معمول ا
 ش اید
 اس رائ
ای ش
خی ص
 متو جه
م رد
 بگیر ید
ار س
 مد ل
 تم رکز
ن اه
 ش غ
و یم
 مح ل
 عمل کرد
 رس انه
ت م
ری ف
 داشت ند
 تش کیل
 حم له
‌کن م
 م رکز
 خ بر
های ت
 رو ابط
‌کن ید
 پیشنه اد
ط ان
 گ وش
 علا قه
م ئن
 خود تان
 نو شت
ب سی
 گیر ی
اص له
ص یل
 اشت باه
5 0
ضی ح
 ت ان
 ن ک
 ان گی
 مو سی
۱ ۰
‌ ام
 نت ایج
 باش یم
 ندار ند
i l
 بع دی
 اعت ماد
 طر ح
م ون
 اف غان
 حس اب
لا ق
 خواه یم
 ل ذ
 ک شت
 اه د
 تر س
ل این
 توص یه
 صن عت
 اج ر
ب ح
 ده یم
 ج ل
 ب چه
می ز
 جه ت
 مست قیم
ا ج
 گرفت ن
ح ت
 پی ام
وا ع
ب عد
 تش خیص
 پیشر فت
 است خ
 رو ند
 رس د
 انگلی سی
 م اند
 با قی
بی ه
لی غ
 ن گر
 و سی
 ک ال
عی ین
 مشت ری
 م ها
خ ه
 مق دار
 ام ر
 مجمو عه
ال یا
 گست رده
ژ یم
 ع ب
 د نی
 ام ید
 ه وش
ق ب
و ط
 س عی
 ات اق
a s
 پ وست
 ات ح
 اس ل
 کوت اه
  V
  /
لی س
 باز اری
 تغییر ات
 بر خورد
 مت ن
 مرت بط
 ما شین
e d
 گ زینه
‌گ وید
 پ وش
 مر حله
 ب خواه
م س
ا ول
 نخ ست
 ک دام
… 

 ن فت
 نو شته
اص ل
گ ون
 ب سته
 ج ریان
‌ ر
 به ره
‌ اش
 مش ابه
a d
س مت
ن م
 س وریه
لی ت
 اف ز
مین ان
‌ده ند
 بع ضی
 ت عیین
ام ت
 یک دیگر
را ک
 بل ند
o o
شن اس
 بیر ون
 فر م
 اس پ
 س وم
 کار بران
 ای شان
c h
 اج را
‌کن یم
 منظ ور
ری ه
 تم رین
د واج
 گ وید
بر خی
 تو ضیح
 سخ ن
ام وش
 ی ه
 آ وری
 آن لاین
غ ذ
 نم ود
 مدر سه
ژ گی
اد ت
اد گی
 ان قل
ج مه
 می کن
 او لیه
 تب لیغ
 داخ ل
 و زن
 شد ید
اند ارد
 شک ست
 دو ستان
 نکن ید
 اهد اف
 من اط
 آز ادی
 تو افق
 آل مان
 پ اک
 مح لی
 پزش کی
اد ا
 ته دید
‌ و
 ن ویس
ز یر
 ق وی
 حال ت
ش اید
پ یم
کت ه
 مغ ز
 س پس
 سلام ت
 جلو گیری
ف ه
 ر ود
چ ار
 گ ل
 مح اف
هنگ امی
 ا پ
 ر ژیم
 در ی
 در آمد
 سف ید
 هست ه
ج م
 لذ ت
 خصوص ی
 ت ای
 آ سان
1 8
 ظ اه
آ م
را ق
 عر ض
 بح ث
 نخواه د
انی ا
کر ات
س ک
م ق
 جمه وری
 همچ نان
 خ ی
رف ی
 مرد ان
۲۰ ۰
، 

گ شت
 س ود
 مق ام
چ ند
اه ا
 ن رم
یب انی
 ن هایت
علا وه
 اخ تی
 سر طان
 می ل
آ ی
 سال م
 پی چ
1 2
ال د
 کیف یت
 افغان ستان
 ف وق
 مسئ له
س و
 تأ ثیر
 سل ول
‌ تان
 چند ین
 فی زی
 کش ف
 داد ند
 ذ هن
فا ع
 م ال
 ج دا
م ش
 ل ب
 اه میت
و رده
 آ ور
 است اندارد
 ز نده
 دور ان
 مط مئن
 اینتر نت
ج ات
o f
قط ه
 آموز ان
و تر
 کام پی
‌ طور
خص وص
 اسرائ یل
 موسی قی
 از دواج
 واقع یت
 ج دی
 قر ن
 جدید ی
 گست رش
 بان ک
 فران سه
‌ بین
 ابت دا
م ر
 ن ص
خت ه
ریک ا
 اع ضای
 آر ام
 نس خه
بسی اری
. ”

چ ی
 تحقیق ات
 هم سر
 ور زش
 ق سمت
 اط مینان
 تج ارت
 او قات
 ب ندی
 ار سال
 و یر
وان ین
 ع شق
 ان واع
جوی ان
 انتق ال
 را ست
س ازی
ژ وه
 ک ی
 مس ائل
 خواه م
 کنند گان
 وی ژگی
 مناط ق
اب ق
از د
 بازاری ابی
 ع د
 نم ونه
 تم امی
 مها جر
 مق اله
 رفت ن
 پشت یبانی
 تکن ولوژی
چ گونه
 ن یم
 کرد یم
‌ش د
دان ش
ح ل
3 0
 تن ظیم
و بی
 ی ابد
طر ح
 مشت رک
 ت ازه
ین گ
 ن قطه
 مو ا
  t
 کار های
 میلی ارد
ز مان
ئ و
 فر هنگ
 اختی ار
وز ه
 مق ابل
 ترک یه
 آخ رین
 به داشت
 مج بور
رو ت
ک ش
پ ر
 ان سانی
 خود م
 مبار زه
ز و
ل ود
 ام نی
 ش بیه
 قد یمی
 تما س
 ف لس
 ص لح
وس ط
انی ه
 ک ره
 ق صد
تن ها
ز ب
 استرات ژی
 پ اد
 ب بر
‌ که
 شخص یت
 ق لب
کن ش
ادی ه
 ب ش
 د چار
وی زی
ن اک
ص ه
 بگ ذار
1 5
ج ان
 ا له
 نش انه
 آ تش
 دنی ای
ت ون
 ه ند
i v
 مت خصص
 نیر وهای
‌ خ
 عل می
 در ون
 رس یدن
an d
 ع راق
 تح لیل
ای ع
 ساخت مان
م ث
 ش یر
 دار و
 ت ض
 هنگ امی
 ب شر
ز د
ف ع
 هوا پیم
 موق عیت
؛ 

 آ س
 مق ای
 سی اه
 یاد گیری
 مت ع
 امنی تی
 ه فت
 آ ید
 بر قر
 گ اهی
 سو ال
 نداشت ه
i d
ک م
 مقای سه
a y
ای ند
 ح اصل
 ق وانین
 اع مال
 بز ر
  K
ن تی
 رس می
 ز ود
 در و
آ وری
 دست رس
 مث بت
 مف ید
عه د
 رس یده
 مذ ا
‌ شان
 مع تق
.. .
ل ال
 ع ن
 اک ثر
س یم
 پ ار
ولی ت
 بین ی
en t
م ات
 می توان
ور تی
زی ابی
 مرا ق
ج یت
 ای ست
 کان ادا
ن گی
 ب نی
 ف ضای
 مع رفی
ق قان
ع اده
لا ً
وی ه
 جای گز
 تلف ن
 عب ارت
 ت اب
 مو س
 مو ثر
 نیر وی
 ن اب
 ف ض
 تص ور
 باز دید
 مح تو
م مکن
 شد ت
 اط راف
 فرد ی
 دست ور
 ع ص
 ده نده
 آ دم
 ل و
وم ت
م ط
 بر ند
 جست جو
 ت فاوت
ل ت
 ب مان
 دی جیت
اش ق
 ش ان
و زی
 را حتی
 ر وان
هن گی
 ع می
 ترک یب
u s
 گرد د
س ب
 روز انه
 خاص ی
ز مین
 ال له
 تل ویزی
 خود شان
 گر م
i g
 و س
 تر وری
 ژ اپ
سی س
رو زه
 ص بح
 و ظ
 دول تی
 لب اس
‌ش ن
 اسل امی
ز ا
 ن امه
وی ید
 احتمال ا
 ص ادر
 ر فته
 شناس ایی
 چ قدر
 ض د
 اتح ادیه
 و ح
 قان ونی
 حی وان
ر ض
 ذ خ
o t
ه د
 اشت راک
 م سی
 نق ل
 گو گل
 بزر گی
 پ ژوه
 م طرح
ری ب
 ت کر
 در جه
 تر امپ
  J
ئ م
 موا جه
 نک رده
ع تی
ست ند
 دور بین
 مراق بت
 ع امل
 عض و
 ف ل
1 00
‌ ب
رو ف
ذ ف
ف قط
 ق ل
او یر
 ار زیابی
 جم عیت
 شه رو
 بزرگ ترین
 آخ ر
 مو جب
 کم پ
 ح زب
 فر هنگی
‌رس د
 س رد
ال ش
 باز گشت
ژ ن
 اف س
شن اسی
 د ندان
 خود رو
 مبت لا
 ک جا
 ش ش
 کامپی وتر
 ن کرد
a g
 هد ایت
شت ر
س پس
 برگ زار
 ضر وری
 ا بر
 د مو
 ر یا
 مت وسط
 پای ه
 ن ار
 هوش مند
 اس اسی
 عر ب
 من ح
 تع ریف
 آ ف
 مش اور
 ب ارد
 می ز
گرد ان
  ؟

اب قه
اف ع
 لح ظه
 جذ ب
ت ص
ئ ین
 پرو از
 ث ابت
ک ید
 د ع
 د فاع
 ن ح
 ال کتر
 م تر
ور ان
 آموز شی
 شم الی
 سب ک
 دست ی
  )
‌ اید
 جمه ور
 خورد ن
 تح صیل
 زی ب
 ع دم
u r
 مو تور
 زی ست
 ف وت
 ام ور
  of
 ب گیرد
غ ال
 فر اموش
می ل
 بخ وان
ـ ـ
 ک لاس
 است ر
 ح وزه
 پیچ یده
نا وری
ور یت
 چیز هایی
لا گ
 ح ذف
او م
س ون
و ح
 ن جات
 ور ود
o w
وق ف
 معتق د
 م ؤ
 پرو ت
 گیر ند
19 9
 کل مه
ل ند
 و اح
 مدر ن
 محاف ظت
 ز ده
کت ری
 کل یدی
 انقل اب
ن ام
 پ ست
 پزش ک
 ف صل
 ت مای
 تر تی
 قر آن
 علا ئم
 م رک
 چ طور
 توان یم
 انتخاب ات
ا ظ
 اجر ای
 وا کنش
ز مانی
ي د
ک سی
ف کر
 چ رخ
 بدان ید
 ظاه ر
e c
 رو ح
 مخ ال
  p
 ث روت
 دانش جویان
آی ند
۵ ۰
 ک شته
 چ الش
 من بع
 ک ر
 و یت
 ع اشق
 ف ار
 ش یمی
 بال ای
 بتوان د
 بر یت
 ف ایل
 کار برد
 پس ر
u n
 بر ج
 مت وقف
 عل ت
‌ ع
1 6
 معن ای
‌ال مللی
خ ش
 آن که
 مطال عات
 مل ل
 ف ناوری
 شغ ل
 اص لاح
e m
 ببین ید
 شی وه
 ساخت ار
ان و
 مس لمان
ش ا
 حال ا
 آ شن
 پ ا
 ق ض
 مه می
 محتو ای
 زی با
 جن وبی
u t
‌ مان
 ش گفت
 گ از
ست انی
 قر ارد
 نا شی
 اخت ص
 حک ومت
گ انه
‌ است
 ن گران
 مح بو
 ره بری
 ف اصله
 ذخ یره
 واح د
ار کت
 من فی
 ست اره
 بز ن
 آف ریق
 ترتی ب
ع ده
 مج از
کار ان
اب ان
 کشور ها
 جایگز ین
د ری
 د یدن
 ت ست
1 1
 ام ریکا
 مح ت
ن می
ش ک
 ماه ی
 S t
 آ ورده
ز م
‌ گیر
 درمان ی
ق اد
 کار ت
 رق ابت
 خش ونت
 فر مان
مرد م
ام ید
 باش م
 عمی ق
ن ش
اح ت
 ارت ش
 مسئ ول
اول ین
 خوان دن
 هو ایی
 آ قای
 رو ید
4 0
‌گ ذاری
 د ائ
at ion
 ا یت
ما ز
 تص اویر
را ج
 عرض ه
er s
 برد اشت
 گ ویند
 ق اب
الد ین
 مع رض
 ار شد
ح ات
س از
 ب ک
 نیاز های
 بال اتر
 قط ع
ل ات
ین ک
 وسی له
  s
ب ازی
 اف زار
 تاری خی
1 3
i m
 پ لیس
 جز ئی
اد های
 خدم ت
 لی ست
گ ذار
ول ت
 پرد از
 ن وز
 قب لی
 عم ر
 مسئ ولیت
 صد ای
 م اده
 ام ام
 ن هایی
 بیم اران
رو ش
 م ز
ظه ار
ور ش
 دش من
 است رس
 ع ف
 شد م
 نگر انی
a p
‌ باشد
 تکر ار
ا شی
ژ یک
 اقدام ات
 برس د
 سر ویس
 تق ویت
 ص ورتی
‌ای م
 مه ند
 و زیر
ول ه
 بگیر ند
م رکز
 ز دن
‌ش ده
 دیجیت ال
 مر ز
حال ا
 س ع
 ف هم
 مش غ
دار ان
 دید گاه
 ر شته
i r
 آ گاه
 اختص اص
ای ان
 ذ کر
 ظ رف
 عو امل
س ا
 مرک زی
 محبو ب
 اح تر
 افت اد
 بر ادر
 مان ده
 د کتر
ست ر
 ایم یل
 کاملا ً
 فیزی کی
وی ش
 کار بر
 ه شت
بع ضی
 دش وار
 س لاح
 فر آیند
عی ف
 ته یه
د اد
گ ذ
 معمول اً
 ری زی
چ ون
شن به
ک رو
اص ر
 شم اره
  :

 پ ارک
بر نامه
 مج د
و ف
شد ار
 ز د
سی ون
ل ط
 ر د
 عل م
قی ه
 ایر انی
 اطلاعات ی
 نص ب
 ق دم
 مست قل
 پژوه ش
و ک
 خواست ه
‌ گیرد
ست ن
 ا ظهار
 خ لق
 مختلف ی
 عملی ات
خ ود
 ن کته
 اس لام
 زند ان
ور ک
‌کرد ند
  c
ن س
 ش ا
 خود مان
 غ ربی
 قب ول
o c
 I n
 آورد ن
 ج شن
 موض و
 پوش ش
. [
ا ض
 خ لاق
 نخست ین
 سال گی
 مش ارکت
 رای گان
 ت ور
 کار کنان
 و عده
 تق سیم
 فرزند ان
 عو ض
 مشغ ول
ر ت
غ ن
م یر
 آش کار
 ب ند
 ک یل
 ش ع
 قدرت مند
 منح صر
ا کنون
 س ق
اند ن
 ال بته
ی عنی
‌کن نده
ری ت
 برقر ار
 گذاشت ه
ش ب
 ن توان
 ن باشد
 متح د
‌گ ذ
 م ي
 می شود
زار ت
 م لا
 ح فا
کر ه
 سلام تی
 کشت ی
 ا کت
 چ ینی
 نس ل
 لح اظ
ب یر
 م زای
 احساس ات
 نف س
۳ ۰
 اروپ ایی
است فاده
 حیوان ات
 T he
 تای ید
 مس افر
 درو غ
 هم واره
 کش اور
 عل وم
 جو اب
م ار
ان گی
 دست ه
u l
 ص ند
 و اب
 ده م
ب ش
 نوشت ن
ر انی
جه یز
هر ه
 ال عاده
وی ق
اد ث
فت ر
س لام
ش رکت
ک لی
 ک ف
 فع لی
 اعت قاد
 مذ ه
 و زارت
خی لی
 اد اره
 اق امت
 قاب لیت
م اری
 ک د
بی ل
 ژ و
 بح ران
ک ری
 ص اح
 نمای ند
 تلویزی ون
گ ن
 ن شد
 انت شار
 نم اید
 م ای
 اع تر
گون گی
1 7
د ست
 ن رخ
 محدود یت
 صن عتی
 ج الب
‌ گیری
 ه تل
ون ا
 داشت م
 ژاپ ن
 را حت
 م من
 ج راحی
بی شتر
اح به
 گرد ش
 ع لی
 ج د
ط ی
 می کند
 تض مین
 انگی ز
۱ ۵
 بر ق
  m
ک ا
عد ادی
 افز ود
 گو شی
 کل مات
‌س ازی
 طب ق
  ”
2 5
را ح
 مق ر
ب اری
د س
 ا ين
 زیب ایی
 م ب
 ه شدار
به ترین
 غ رب
اگر چه
 م ار
 نظ ام
 د اری
u m
 پ ناه
 راه ی
 شیمی ایی
6 0
 ع ادی
ری زی
 نا پ
گ ذاری
لا ک
 روز نامه
 بده ید
ج ایی
 س گ
 خ رو
 منت قل
t er
ب ز
 ساز د
 خور شید
 طب قه
‌ رو
ط ب
 ش مال
 من افع
 پی اده
 واقع اً
 شم ار
 استر الیا
 و الدین
تم ام
تح ان
ید م
 نظ ارت
 احتر ام
o s
 خ اک
بخ ش
 می ده
 ان ج
ف انه
 گر ان
 بد ست
 ک وه
 قر بانی
 د ام
 در س
 گذ ار
  ي
 می دان
 مک انی
 ف ن
حی ه
 مقام ات
 تح ریم
 سب ز
ر وی
 گفت ند
 ت س
ش اه
م ب
‌ع نوان
ام روز
 ق ه
ق ق
 ب ای
 ت جهیز
را فی
 پیشر فته
 ر نج
 نیاز مند
 تول د
o d
‌د اد
 امید وار
 بریت انیا
 ا ث
 فر ست
 حفا ظت
 جل سه
 ت ری
ول د
 بود جه
 بتوان ند
 آ پ
 ی ون
‌توان یم
‌گ ویند
 تمای ل
ز ل
‌ گر
 آ گاهی
 پ و
 ام تحان
 جن وب
گز اری
 تبلیغ ات
 علا وه
1 4
۱ ۲
 ر انند
 ایم نی
es s
 ش اهد
 خ یر
 ع جی
 مت صل
س ین
و تی
 چ اپ
‌آ ید
 دل ایل
i a
‌گ رد
 ار ز
حی ح
‌خواه د
ص ورت
 ن با
 ع قب
 چ گونگی
 ب ف
 ت امین
رد گی
 پ ل
‌ر ود
 قه وه
چ سب
 د ین
 د قت
 تر جی
 ب اره
 ایم ان
هد ف
ج ای
 تع ط
یف ه
 بیمار ستان
 دری ایی
 فلس ط
گ وی
را سی
 مح ققان
 نق اط
 ف ق
 در خت
وی ل
 داد گاه
تن اب
 نگه داری
 خوش حال
 توص یف
 کار ها
 دانش مندان
همان طور
 ت خصص
 کن ی
 فی س
 جذ اب
؟ !

ک ود
۱ ۸
 فر ود
00 0
 شه ری
 نام یده
 عرب ستان
ج وان
 مع ت
 صح نه
ت به
 د ا
 مص احبه
 برد ن
 بود یم
 منت ظر
 اتفاق ی
 مح س
 دع وت
م ج
ی سی
 ب ستگی
 م خصوص
 پ اید
یم ان
نو عی
گ انی
 م ایل
 نو عی
 توان ست
او مت
 اند از
 پ نه
 افت د
 نویس نده
 ع بور
 خان م
 شو یم
ک ال
۱ ۰۰
 ملا قات
» ،
 را دی
ع کس
 به تری
 ط وری
مو لی
آن چه
 آس مان
ان جام
 بر وید
اب له
ضر ت
 عف ونت
 ت عهد
 مخ اط
 ره بران
غذ یه
ار های
 حمل ات
 یه ودی
 میل ادی
خ ار
ض ح
گ ین
 د فتر
 است اد
 اله ی
 نح وه
 نوز اد
ج ع
 س ین
 خ لا
 او ایل
 مف ه
 ش اه
 و ید
ام له
 جای زه
 انگ ل
 فروش گاه
 طبی عت
 مهاجر ت
بز رگ
 بر وز
19 8
 قرارد اد
 ب ید
 اص ل
 بگ ذ
دا ک
 ح اف
وی ورک
 برخورد ار
 م ام
 آ فر
 اض افی
 کار گران
ت امبر
م هم
 ف ضا
 جن به
 هزار ان
 م گر
ان ویه
 شما ست
 سر زمین
ج د
 سو خت
 افت اده
 مط لب
t h
ش ند
 ع ق
فر انس
مد ت
 توجه ی
 وب لاگ
 فر ض
 بتوان ید
  f
ع ف
و اق
ای م
 مق ابله
م الی
پ ار
پی ش
 شغ لی
 مت مرکز
 بده د
 گی اه
 ر تبه
 اد عا
 قل بی
 بر نده
 ث انیه
 اض طر
س ن
 در گیر
 توان م
 بگ ویید
 تش ویق
 ش ف
 ف نی
 چ پ
 ص دا
 اند ازی
 ارتباط ات
 جز یره
‌خواه ید
 سخ تی
 سع ودی
 ع ه
 رو زی
 گروه ی
a b
 پ دید
زی ع
 مد اوم
" .

ث ار
رد از
c e
 در ستی
 ح ر
 اه ل
 خرید اری
 کان ال
 ره بر
 ویت امین
 آشن ا
  X
ص یلی
 ر ح
 این ها
 مش ه
 دان م
 مخال ف
 ب کن
 گ ام
 ط ل
 فر ایند
 مع مولی
ن ز
 رو غن
 گذ شت
 بزرگ تر
2 4
ید ند
 آ بی
 رو ست
 اج تناب
 عه ده
زی ه
 خطر ناک
 تکن یک
ژ انس
 مع روف
 مق اومت
 بخ ور
 نیم ه
ه ی
 ب قیه
 سر گر
 تعط یل
ب رو
 هی جان
  d
 پ خش
 فر اتر
هر ان
 بگ ویم
و ذ
 ک ری
 تر جمه
 چ ربی
 اص ول
o p
س اخت
 ن اد
 س ای
 قر مز
 سپ تامبر
س ور
 د یر
 ت ئ
 ح و
 ق هر
 س ابق
 خ ویش
چی زی
 شهرو ندان
 ترجی ح
  !

 ر ها
 گ ناه
 ع ادت
را حت
 بگذار ید
گ اری
ی س
‌ ف
 بر آ
فر م
ن ظ
 یافت ن
 بخوان ید
 زند انی
a v
 ع ین
 نی ویورک
 ب یت
 ال ان
خ د
لا قی
 پیر وزی
ح الی
ای ق
 انگی زه
 محس وب
 ل ط
 کل ید
 قب لا
 حا وی
در س
اخ تی
 بارد اری
 ا رد
 ا ور
 ب رده
 تجهیز ات
ئ ت
 ج ع
 آز مون
 تقریبا ً
 پنه ان
 ر ض
ه می
ع م
و ال
 م بل
 ر ست
 ت غذیه
 خ اور
ات یک
 تا کید
 ا ون
 م ى
 و ل
  نده
 ك ن
 نظ ریه
فاو تی
  Y
 روی کرد
 ژ ن
ح دود
 سر باز
داک ثر
‌ خواست
 است ان
 مل ت
غ م
ند ن
 ص حیح
 سی اره
 انگل ستان
 کرد ید
 نیر و
ک راسی
‌ برد
 تو زیع
 تق ا
  .
 پذیر ش
ع مل
ک ده
 ری سک
ق ابل
پ رس
 مت عد
  b
 مزای ای
 س ک
 س اح
 چیز های
ئ ید
ف یل
 مح ک
 تن هایی
 پر ورش
 مالی ات
 ت عدادی
ور و
 تا کنون
 ام پ
کت اب
 جن بش
r i
ق وه
 ک ا
 هم اه
کن نده
 با غ
 اخت لال
 بخواه ید
 جزئی ات
اد ق
بی ش
 جست جوی
و می
نگ تن
 مبت نی
 محت وا
 چ هره
 ام تی
 مر ور
‌پ ذیر
آ ور
ال م
 فر ار
 وظ یفه
 ل ینک
 مدیر ان
 سف ار
 ابت د
 افس ردگی
ب اب
هم ین
 ور ز
 خی ابان
 فوت بال
 حاف ظه
 د س
ام ات
 پی وند
او رد
دان لود
 اطلا ع
 دقیق ا
 فض ایی
 ب طور
اد ار
 ف در
 کار آ
 اخت لاف
راف یک
 بهداشت ی
 مذا کره
پ زش
 و اش
 ر ز
 ر مز
 چ ش
 بیشتر ین
 شن اخت
 مرا حل
 ق تل
بی ات
 کلی ک
 ن ات
 اعت بار
 ض عیف
 نمای ید
  لا
ط ه
 گ م
وی سی
 ل غ
 باز داشت
 بپ رس
 ببر ید
 ح اک
 پرس ش
 پ ن
ری ح
 بیم ه
 ع ک
ده ی
 بال قوه
 پاک ستان
 مع امله
او ت
 دان ند
 ات ص
 ندار ید
 نبود ه
  ‏
ط لاح
 کم تری
 مال ک
 ممن وع
چ یز
وی یم
خ یر
ذ ی
 م هر
 تا سیس
 ام سال
 مج وز
 سو ء
it y
 نف وذ
ac k
ک ز
 ز م
 دی وار
 ات وم
 استخ دام
  »
 فرم ود
 انج من
 س ند
 س ام
ط رف
 گرفت ند
ظ اه
 م ند
 ن ادر
 تج زیه
 بزرگ سال
 مص ر
 خان گی
 سن تی
 پروت ئین
می انه
خو اب
 تخ م
 ایت الیا
 پاید ار
رو م
 بی اور
 ار زان
 عجی ب
g le
o g
 س ؤ
 اخ لاقی
نو شت
  ,
ی ید
 ل ندن
 موضو عات
 رانند گی
e w
 ت ز
 مس اله
ا عت
گ ویی
 ع رو
 اف کار
 موق ع
همی شه
 بر تر
 واب سته
 س نت
 روز های
 گذ ر
 مسی ح
 آ ثار
 برج سته
 می وه
 ی خ
 ج س
 ج اده
 دید ار
چ رخ
 کن فرانس
 تح مل
 ندار م
 ام ضا
 فر انس
 تع امل
 تک میل
؟ »

ل وم
 بر می
 سق وط
 کار هایی
 ما ست
 فار غ
 مذه بی
ن مای
 ت میز
 بر گرد
بی ند
 دان ید
شناس ان
‌بین ی
 دار ایی
 بد تر
 وا ضح
ب له
س ای
ک ات
 ت هران
 ش ای
 س ان
 ان ع
 مو ب
 نزدی کی
 کشاور زی
 اکت بر
ز ده
۱ ۳
 د م
ar d
 تف کر
د ولت
 ب اد
 نیاز ی
 نم وده
 میکن ند
r a
 ن ماز
 ف هر
 باز سازی
 گفت ن
اخ ر
 دستی ابی
 ن ژ
 ز ودی
 سال انه
لاف اصله
 مشه ور
 خاور میانه
و پ
 کار گر
ش ای
 ح تما
 نا گه
 سه ام
 ج اری
 چهار م
 سخن رانی
 بید ار
 د او
 و یدی
اری س
 نق شه
 گو شت
‌خواه م
بد ون
oo gle
 من اس
 ام روزه
 کیل وم
 ش رک
 ح داکثر
اس ا
 اثر ات
 مان ع
 امتی از
خ ر
خ دا
ن ظر
ور ه
 تأ یید
 مفه وم
 ش انس
 چ نان
 حی ات
 ناب ود
طب ق
 هم انند
 هم زمان
 ص ادق
 اص لا
تح صیل
 شور ای
 به شت
مع مول
غ ل
 ب دی
 تح صیلی
 مص نوعی
 ترک ی
 مذا کرات
 اس م
‌گیر ند
 ت دری
اه یم
 آل مانی
 ر یشه
 ن یمی
 آ میز
 کار خانه
19 7
‌د انند
 همچ ون
 ویر وس
مان ند
 ساخت ن
قل ال
 واش نگتن
ح ق
م ام
 م ول
 م ارس
 خش ک
 عد د
 دمو کرات
8 0
o b
ف س
 ص بر
ونی کی
 ح ضرت
 مع نا
 جای گاه
 ه ویت
 ك رد
‌خواه ند
  ـ
 ت یر
 پای گاه
نم ایی
 رض ایت
ج عه
ان ده
 بازی کن
 مشاور ه
 مهند سی
ج است
و سی
 س رک
 گفت م
 بس از
 اجر ایی
 دس امبر
 کم بود
ظه ور
ف ل
 ک لا
 ی اب
 روید اد
  i
 مع ماری
اک ثر
 موس سه
 مو زه
 غ ر
 سنگ ین
 ش اد
 ده ان
 نو جوان
۱۹ ۹
 هواپیم ا
 کار شناسی
 فرانس وی
 شر قی
 ژ انویه
 ندار یم
ام روزه
 اح تی
اق ع
 مت قا
 تاب ستان
 بزن ید
! !

. )

 آ هنگ
 معت بر
 ای الت
 تحقیق اتی
 ه ور
 رو برو
 نو شید
 همان طور
 اپ ل
 الکتر ونیکی
u p
 مد ارس
 نو امبر
 دهند گان
 افت خار
iv e
‌ جمه
ان گ
لی لی
 کار مندان
 مرا جعه
al l
 سب ب
! »

­ ‌
 ش ریک
es t
 وح شت
 پرداز ش
س ایت
 ح جم
 بار ها
 خ الی
 ط راح
 گفت گو
نج ی
میت ه
 محک وم
ج نگ
 او اخر
 ت رد
 خ ال
 اول ویت
 عم ده
 انگلی س
 مجد د
 ژو ئن
ای ف
 A n
 سط وح
 موب ایل
ا ي
ح د
 آ زار
 کش وری
 انگ شت
د نی
ش و
ق بل
۴ ۰
 ک ات
 یک سان
ه نی
 ت را
 ع زی
 مد تی
 مق دس
 ع ذ
کن ندگان
 مع ی
 پرو نده
 مرا سم
ل ین
م پ
 [ …
خ وان
 س ادگی
وی ب
کن ند
 ورز شی
i f
‌ اف
 د ف
 و ن
 ت سل
 خ ل
 عن اصر
 عص بی
مط ال
c t
o v
ن اد
 است قلال
 ج لب
in e
 صف حات
 فهر ست
ب یت
 آ هن
ar t
9 0
ب اما
 آ درس
زند گی
 t he
 ب لافاصله
یر ی
 ق الب
 شن یده
 نق اشی
 ارزش مند
 کاربرد ی
 ناد یده
  and
 ب ور
 ج ر
 هم کاران
 اص طلاح
 غذ اهای
 نز د
 منظ م
‌شن اس
 رست وران
 ج رم
 ق ا
تی ک
‌توان م
at e
 مخ فی
 احتمال اً
e x
 ط لا
 زن ج
 خواست ار
کی ه
 اعتر اض
 خ سته
 پ اریس
 سی گار
 تص اد
 مج لس
 C h
 ارتباط ی
 متع لق
و قی
 ت ون
 آم ار
 سو ئ
 آرام ش
 پاد شاه
 شف اف
‌ افت
 سر ور
 دان ست
 بازی کنان
پ اس
 [… ]

u b
 گ اه
 مت ولد
 باز گرد
 حک م
ب ند
ر ار
 ن اخ
 س وز
 ج اد
 ز خ
 هست ی
تو جه
 پنج ره
 ر وانی
 ع یسی
 شهر های
 خد ای
 هو ای
 ع صر
 مس ابقه
 هن ری
غ یر
پ ل
 د اند
ار دی
 تص ویب
 بال ایی
 جنگ ل
 ایست گاه
 صاح ب
a k
a st
‌ جا
 با فت
 ط ال
زی ک
 داد م
بو ک
 نش ست
مد یر
‌آ ور
 اتص ال
و گر
 خ شم
انی ایی
 آم و
ز ر
 آ ژانس
 باش گاه
دی ه
 مش کلی
 صد ها
 اسپ انیا
 آفریق ا
م ور
چ ین
 پ ان
 ع ظیم
 بگ وید
 جوان ان
 مجاز ات
ص اب
‌ ت
ای ید
 ش ار
 کتاب خانه
 عد الت
 دمو کراسی
 اث بات
۱ ۱
 ت وی
 ش وم
 غ نی
عد ام
 ط یف
 مت فاوتی
‌کنند گان
 وس ایل
h t
ی اد
 ت رافیک
 چ ای
 چ ار
 دان یم
 نش ود
 خرو ج
و اری
 ما ج
ج ویی
سی ستم
 تح ویل
 خار جه
 صن ایع
 دار وهای
 ریا ست
  ...
ا کی
ط اف
ار ات
 کش ید
 دان لود
 پزش کان
 مک مل
 دائ می
  »

 ن ر
 خو رده
 نه اد
 شر ق
اسی ون
‌ بر
‌ تری
 هر گونه
‌‌ ‌‌
or d
 ابت لا
 بمان د
 ش یط
 بر ود
 منط قی
 خانو ادگی
 ترکی بی
  …

د ل
 بی انیه
 تح ول
مو رد
ان وس
 چ ک
 تح ریک
 مج له
 ارت قا
 انتق اد
el l
 انقل ابی
  w
آ ز
 مو شک
 کش یدن
 مر بی
 بال ات
 حق وقی
آ ر
ش یدی
گر ه
 تأ مین
 نوشید نی
۱ ۴
 د ک
 بر چسب
 ی ك
اس اس
 ور ودی
 خوان ده
ادث ه
ش وند
 خ رد
 با تری
 محیط ی
7 0
 ج ور
 پر ست
 چیز ها
 کوچ کی
 عر بی
 ظرف یت
 بی ست
 نیست م
 بن ا
 آش پ
 متخصص ان
مث ل
س ات
و ج
 پی امبر
 رس اند
 نا حیه
 بن ویس
 مجمو ع
 کا غذ
‌ دار
 مسی حی
e v
غ ام
ک ام
 ت ی
 استرات ژیک
c om
ور ا
 کش یده
 آی ند
 ا عدام
 بد ین
 اخ تر
 مرا کز
 احت مالی
 صادر ات
پ لم
 " 

 جان بی
 صند لی
گ ا
 بگیر یم
ج ز
چ نان
 ه رک
گر وه
مان ه
 G oogle
‌دان م
 دختر ان
 ریا ضی
i p
 کمپ انی
 پ لا
 کود کی
انگی ز
O S
e y
‌ ‏
 است راحت
 پ ولی
 کار بری
 سری ال
 شرایط ی
افر اد
 ثروت مند
 قهر مان
 س هم
 تو ق
 غذ ای
  ­
پ در
 ن برد
اد ن
رو زی
 ال تحصیل
 گذ ارد
مح ققان
۶ ۰
 داشت یم
عی تی
 تع ادل
 مناس بی
 ب له
ست یک
19 6
‌خواه یم
 میتوان د
 وظ ایف
 ا ذ
 روز ه
 نو آوری
 نق ض
وار ض
 خور شیدی
 مسلمان ان
‌گرد د
2 2
N A
i st
ای ده
 ف ری
لی ک
لی کی
 اک ث
 تروری ستی
آ قای
س ف
او ز
 جام ع
 پاد اش
 ب مب
 با کتری
از گی
 من زل
 مع امل
‌کرد م
 برگ شت
‌ب ندی
  in
ث ی
 ر ایج
ید ان
سی ل
 P ro
ط لب
 ا قی
 دی ابت
 ات و
 وی ند
 صرف ه
 فرود گاه
 انع طاف
و ایی
 ق لم
 بی ند
 مر غ
ریک ایی
 دانش کده
 طال بان
ي ت
ک شی
 را ضی
 ح ادثه
 شور وی
گن ال
 خ لاف
 آسی ا
 بگذ ارد
ل ز
 نو ش
 است ث
 نظ یر
 پذیر فته
تق ریبا
 چرخ ه
احت مال
ا ون
اس به
 ال کتری
‌گ فت
 نمایش گاه
زیر ا
 بف هم
 و ام
 آم دن
 فدر ال
 س یم
 آ یه
 گر س
 نیست ید
 ذ هنی
 آور ند
  ظهور
 س ابقه
 آ یت
 ل ایه
 کم ونی
 تج دید
 ژ نتی
 مدر ک
ود گی
 ح ساس
ّ ت
۲ ۵
کر این
 شن اسی
 گرد ید
 وض ع
 کمپ ین
رو ید
 راه نمایی
 سو الات
بو س
لو ب
خد اوند
 او باما
‌گ ذار
فا عی
 معتقد ند
امید وار
 ویند وز
 ک اخ
 ح رک
 وا ژه
‌د اند
 ابزار های
 بزرگسال ان
e b
 ش کن
ام لی
لام ت
 فیل تر
 شو هر
2 1
د استان
 م ارک
 مو ش
 دید م
 جدا گانه
 آ فت
ده م
 دو مین
 تع جب
 قط عا
تح قیق
il l
 کش د
الی ایی
 باز نش
5 00
د وست
 ق ول
 تعطیل ات
 مح مد
 ل بخ
‌توان ست
اخ ره
 نژ اد
م ره
 و جه
 ش کر
ما س
 خود کار
 آمریک ای
 برد اری
پ رو
 ه دیه
 در از
 ق ی
 اینتر نتی
  …
ص رف
 د اع
 ک میته
 خ ام
 خ بری
 مج ازی
 رق م
ب یم
خ ا
ط بی
پ ذیر
 می کرو
or t
 مخ در
 پذیر ی
  Z
ح س
ط ل
ال له
۱۹ ۸
فیل م
 کیلوم تر
 ر فع
قی اس
 روز ها
 مرد ی
 پیر وی
‌دان یم
 سؤ ال
ت ع
ت عداد
ن کته
 و اس
 ع وارض
ون گ
 مو قت
اف قت
an g
ع ایت
‌ ریزی
 بر گزاری
 کن گره
‌گ ونه
 جن گی
 اخ بار
۱۹ ۷
س یر
 ا در
 م اد
 ج ی
 دی پلم
 دست گیر
 وق وع
 تک امل
 نف ع
 تبلیغ اتی
 اله ام
 کف ش
لیکی شن
ند گی
 می ر
 گ شت
 خواه ان
بخ شی
ف ج
ي م
 مرد ه
 شن به
ای شان
 مح اسبه
 سی گنال
ec t
وان ه
 مت هم
 مد اخ
 شا خص
 اضطر اب
س ری
در ست
an t
 کارآ فر
خ بر
گ فته
 بر اساس
 بی اید
 خط وط
 نخواه ند
 بان کی
 سفار ش
­ های
آ خ
 م ور
 اند کی
لس ات
 میده د
. »
و قت
ي ر
 و ف
 بده ند
 فرص تی
 بخواه د
خ اص
 ف وری
 کن ونی
20 2
B A
ش ور
 د عا
 ر ان
 را ز
اس فانه
 مت عهد
توان د
 مه مان
 بپ رداز
 ماند ن
 کال ج
 ک اب
 ی ورو
 ح دی
 تش کر
مش کل
 قض اوت
 عک اسی
 داع ش
؟ ؟
ل ر
ی ش
۱ ۶
 او کراین
خو ش
 اح س
 امکان ات
 فلس فه
 مقر رات
o st
ز اده
ف رد
ن ک
بر گ
 فرد ا
 بارد ار
 تئ وری
 الکتری کی
I S
ت غییر
۱ ۷
اه ایی
 ج غ
ول ین
 او ست
 اد ع
e p
س عی
” .

 ا کس
 مس لح
‌آ ورد
 حی اتی
 دام نه
( ع
 بد انند
 مق دم
 مهم ترین
 ض عف
 نمای نده
 رای انه
 زود تر
، ‌
ز ین
ما ً
 مو افقت
 نق د
 بده ی
 آزمایش گاه
 ببین ند
 بو ک
 مبل غ
 نده ید
 ح ج
 مع لم
 مط ابق
 ایم ن
 دانشگاه ی
 اتح اد
ساز مان
پاس خ
 می خواه
 ان ح
in d
 م قیاس
 ر ون
 ش ادی
می لی
چرخ ه
خا ذ
ت ب
 است ع
 روز مره
 غیر ه
 لبخ ند
ن ق
 در گیری
 ن گاهی
 استخ وان
 اتوم بیل
آ ب
چ وب
ک ول
 ت ازگی
 س ینه
 دوست ی
ایر ان
ou r
 ترد ید
 اقی انوس
 ب برد
 ر عایت
 را جع
ال تی
فر مای
ارت مان
 یاد آوری
2 3
e g
ا غلب
س ایه
 ا لی
 م ری
 ر مان
 است ق
ام ع
 ز ا
وی ز
 مع ادل
 سر نوشت
 ات خاذ
ایت خت
 لغ و
م وز
ان م
 ع قل
 ل بن
هن وز
 تأ کید
آخ رین
 ب اری
 د مای
 ن اه
اب تی
.. ..
 تما شا
 سرک وب
3 00
 ف س
 ح ین
 مو های
 سر خ
 غ ل
 اند اخت
 نظر ات
 ضر به
فع ال
 احس اسی
د لال
 ف ال
 پی وست
 گر به
 نمای ندگان
آم وز
 تحصیل ات
 بپرس ید
u e
 پ لت
 مد ار
 ال ز
on t
 دل اری
 خر اب
 آل ودگی
 آوری ل
 بنی اد
‌افت د
  له
 ب بیند
 م أ
 ج لسات
فت ن
 رو شی
 S p
 آل وده
 مطال ب
 حل قه
 مؤ ثر
‎ های
 آ لب
 داد یم
 B l
2 8
ست ری
 گ ری
 آن تی
 ال کل
 ث بات
‌دان ید
 کلا سی
‌ زن
ین و
 کن ون
 مو اردی
 کار مند
 ال گو
 تح قق
‌ک ار
 زمین ی
۱۹ ۶
 قط عه
 ببین یم
 اپ لیکیشن
 نار احت
 فلسط ینی
 ساح ل
 ب کار
19 4
 شو اهد
 U n
 ابر از
 خلا صه
ب را
ص ف
ای مان
 ف قر
 S h
 شک لی
ابد اری
 جل وی
 ارد و
 چش مان
 به ینه
 دو ز
 نش سته
اط لا
 تف سیر
 استاندارد های
خ ب
م اه
ن ویس
ال عمل
 ی و
 ف وریه
 هم گی
در باره
اح تی
 برد ار
 خوان د
خ لاف
ش هر
ك ن
 س ئو
 آ ه
 ع اط
تر س
 شد یم
 شک ایت
ضا ع
‌ ­
 محدود ه
 تز ریق
 شیط ان
  n
ر ئیس
 د ون
 است عداد
ون یک
دانش گاه
 برقر اری
 تروری سم
 جع به
u d
 ت خت
 ت ظاه
 ن کند
 ز نی
 غ م
وم ه
 ساز نده
 شر ح
 ری یس
 هنر مند
ت ه
 ر دی
 ع لامت
 مش ا
 ماه واره
 ض بط
‌جمه ور
 ا ي
 تو پ
 ل وله
on e
ar k
 وید ئ
 زنج یره
غ ه
 تن وع
 گرفت م
بن ای
3 5
r y
ت یم
ت اس
اب قات
 اس ناد
 پیش گیری
 چند ان
نت ایج
 مرت ب
‌و کار
a in
 ار اده
 جم عه
ر نگ
۲ ۴
 آ ک
 بر زی
 ف ول
 آن قدر
بر ت
 مشابه ی
 ب شناس
 در مورد
 خ لی
 چ اق
 برای ش
 سازمان ی
‌آ وری
برد اری
 حالی که
 موجود ات
 بو می
ن خ
پ رد
ان سان
 ق سم
 ها ست
 ات می
‌آ ی
 رود خانه
s e
ط وری
م ادر
 ن ي
ات ور
 آن جایی
این ها
19 5
آم ریکا
ig ht
ت ها
اب ری
 مو ج
خو ب
 ار م
 نسبت ا
 حقی قی
 پ یمان
 های شان
 کار شناسان
 سال ی
 پی گیری
 ل ات
کس انی
 آر ز
 جو امع
 تما شای
 پدر ش
 اخیر ا
 فق یر
ج ن
د کتر
 م ون
 ت وده
 گ ونا
 مع لوم
 جم عی
 نبا شید
 مخاط بان
 مام وریت
 اکث ریت
p p
ب تی
چه ار
 بگ وییم
 [ +
قر ار
 کال ری
oc k
 صند وق
 هور مون
ق یمت
 و ار
 مغ زی
 بک شد
 سرگر م
 سک وت
 احتی اج
- ]

د های
گ زار
 ز وج
 اگر چه
 [ -]

‌خ وان
 در خ
 آ د
 خود کشی
 مرا قب
 مست ند
 وب سایت
 گذاشت ن
 شکن جه
 اس کن
 ند رت
 اج اره
 تج اوز
 تخصص ی
P S
 ب وی
 ب شن
 س ایه
 بنی ان
 شار ژ
. com
 ر م
 حس ابداری
ص ری
 و اک
 ه ید
 است دلال
هر چند
‌ال عاده
قان ونی
 فیزی ک
i b
ز نان
م ایی
 ه ار
 ن ویسی
 پ ایتخت
 خود ت
 A l
‌ال له
 [+ ]

  +
ز اری
پ نج
۸ ۰
 برای م
 مد نی
en d
 فلسط ین
 اختر اع
ش کل
ف ون
ه زینه
 ک الی
 ک پی
 س یر
 هم دیگر
 مو افق
 مس ابقات
 مق الات
انت خاب
 عن صر
 مالک یت
 د بیر
 ز رد
 باش ه
 طر ز
 استخ راج
 مجد دا
 بخور ید
تحقیق ات
د وم
ل یم
و ارد
 ش به
 گ ریه
 بد ترین
 پیش ین
 بز ند
 سل ط
 ژاپ نی
 مب نی
2 6
ب ای
 ف کری
 یک پار
 من ص
 کو ین
 شر ط
کو پ
 سرا غ
 ش کار
 ق ند
الی سم
 مرد می
مو ض
 قط عات
 بازار های
 تلویزی ونی
 عاط فی
 این ست
شت ی
 غ لط
 مق صد
 نم اد
 سا کن
 میز بان
 یهودی ان
 تقا ضای
 لبن ان
ّ ا
ای لی
فر ان
رف ه
 جن ایت
 نداشت ند
ou n
افر ادی
ت ول
 ن از
 گ مان
وی ا
را س
قی ب
 اس ب
 زم ستان
 کلاسی ک
ک ور
ول ا
 ان فج
 آم ادگی
 خبر نگ
 آور ید
 عق یده
 پدید ه
 ناگه انی
i z
 ش لو
 خ نده
 اس ید
 نظ ری
 ات ه
 سو سی
 هی ئت
 تصویر ی
 کر بن
e ar
ت اری
ن یا
ن تیجه
ار تی
 بر طرف
 پ ره
 آن را
 اعت باری
 دموکرات یک
 توق ف
 معامل ات
  h
i e
م گر
ار ا
 ق طر
 تاری ک
 جغ رافی
 ن ع
 با ستان
 ف اج
 او ضاع
 اش غال
 بع نوان
 H T
 هماه نگی
گ ند
ست ین
 به ار
 ص فر
 بی فت
 پرو رد
فی ف
 بتوان یم
 آمد ند
 دستور العمل
 مخال فت
  ​
­ ها
گ وریت
 دو چرخه
هر گز
 ناپ دید
معمول ا
M L
ض ه
 گذ اران
 معن است
 وسی ع
امیدوار م
 ک اند
 ت ایل
خت ن
خت انه
 دی گه
 رس انی
‌ی ابد
‌ده ید
 پر ت
 تع میر
ولی ک
 P l
 تصمیم ات
 اک سی
 نوش یدن
 فاج عه
ز نی
 ک لیه
 برای تان
 دار ه
‌ده یم
 حس ین
مث لا
 گیاه ان
 ابتد ایی
 دک مه
اطلا عات
 ر أ
 ف ریب
 ص وتی
 قر ص
 ات مام
سه یل
 ك ار
هنگ ام
 تخ ریب
زو ئ
ش ده
 ر نگی
 در ب
من ت
 کوچک تر
‌د اری
 قط ار
بل که
مز د
 کوت اهی
مس ئ
 دشمن ان
حد اقل
 اح مق
 بازی گر
 وی زای
 نق ص
 ك ند
 دریا چه
 گرد ن
 ببر ند
 سرباز ان
 امپ رات
 یاب ند
 مشا غل
  Q
* *
ک دام
‌ با
 د لیلی
 ت د
 آ سانی
کار گردان
 T r
قدر ت
 بدان یم
‌ م
 ر ف
 ت نگ
 ع الم
 ل مس
 موس سات
 متعد دی
  &
  l
ي ه
ک ب
 در ونی
 می را
 ع ظ
 هم سایه
ول ای
وی ج
 ط لاق
 هر چند
 اش یا
 اش خاص
 تجر بیات
 سب زی
 مک ال
 خلاق یت
 تسل یم
 ک ابل
 ان ب
 ان کار
 سال های
 باز رگ
 ند اده
 کمی سیون
 یون ان
 متعد د
4 5
ئ ه
ب ول
ه وش
 م دی
 د ینی
 و ال
‌های ش
 اج باری
 متن وع
 حو ادث
2 7
ذ ا
 ی اری
 A r
 عر صه
 E n
 فرست اده
  |
ط راحی
ل ع
پ ول
 در حال
 ی من
 مح قق
 بخ اطر
 I P
 رفتار های
 تخ مین
 جشن واره
 برآ ورده
S A
 ن رس
اد می
‌های شان
 ام ریکایی
 پنج م
 نویس ندگان
 آشپ ز
 مداخ له
 خلی ج
ع اد
و سته
 ج فت
من ظ
 سو ار
وت ری
 مرز های
 سرگر می
i an
گ ام
اد له
 ج اس
 ف ش
 تو ج
 کلی سا
 برس اند
 وید ئو
 ویدی و
 فس اد
g e
و ای
چ م
 باش ی
 مس کو
زای نده
 یاد داشت
 خر ج
 E x
 برس ند
 وسی عی
ag e
‌گذ ارد
خ انو
ر فت
س خ
 این گونه
 کار آمد
فر ست
 پیر وز
کش ور
ل ان
 خ اموش
 ح امی
 هر چه
مند ی
 غیر قابل
 اشت غال
 خاطر ات
ic e
 همسر ش
 گردش گری
 بای ست
‌اف زار
. .

u re
پ ا
 ن ان
اد یر
گذ شت
 قربانی ان
 نوجوان ان
 د فاعی
 ط لب
این که
 خواه ر
 کل اه
 A d
 طرف داران
 نخواه ید
 میکن م
 دارو ها
 ایست اده
 تروری ست
 ون زوئ
 اتو بوس
 ژنتی کی
 آفت اب
آ ورد
ز ات
 م ضر
 ش جا
 ش اخ
 آن هایی
 رو سی
 سر انجام
 نیست یم
 پرس ید
 فرا وانی
 مهاجر ان
 ناپ ذیر
 تس لی
  >
د لیل
 ت ویی
 ت سهیل
ید گی
 ح ریم
یم ز
 اد غام
 C l
کو ک
 وض وح
 اشتباه ات
 تقا ضا
 برزی ل
f f
 است ودی
 ف زاینده
در صد
وش ید
 مط لق
 S E
ar e
 رسید گی
 رق ص
قان ون
 میتوان ید
 موتور های
 تدری س
  a
) :
i re
ط ا
‌ زند
 پ وند
 پر نده
 تع لق
وس ف
 بش ری
 هماه نگ
 بساز ید
i k
م بار
پ یر
 من ع
 خواه ی
 راه نمای
آن ان
 غیر قانونی
‌س ازد
 دقیق اً
 نار احتی
 مؤ س
 زخ م
 آلب وم
 ​ ​
n e
س افت
 م جه
 ر بات
 نی ک
 اند یشه
ac t
 نک ات
as s
 پار لمان
 برآ ورد
 داو طلب
خانو اده
ر ز
 بر وند
شن اخته
 اش کال
 بالات رین
 ران نده
ك ه
 ال سلام
شن ه
 اخ راج
 میان گین
 گو اهی
 خطر ات
اج ازه
 اسل حه
 شیر ین
 عبارت ند
 برداشت ه
 ابتد ای
 حاک م
 چار چوب
I V
۷ ۰
 س ور
ال ان
 ع ز
 ز نگ
اک ت
 شن اختی
 بار ان
 پر تاب
 C om
 مادر ش
 استق بال
 کالی فر
گوریت م
 میرا ث
از ده
oo k
 طل ایی
 اکسی ژن
  v
گ زارش
۲ ۱
 در حالی
ین ا
 ش ام
 بر و
رو ح
به تر
 ند اد
 تن ش
 ساز گار
 سی ب
 رفت م
 مرت کب
‌ن ویس
 بپ ذیر
 ایت الیایی
ز بان
س نجی
 س نی
اد اری
اد ایی
 شب انه
۰۰ ۰
 شع ر
 خال ص
o x
ر ون
ص دی
م یمی
ول ان
 مو اقع
 بخ شد
خواه ی
 قب لاً
 ضر ورت
 افز وده
 سای بری
 عزی ز
m an
د ین
 ر ک
 کار کرد
 او ج
‌ش وید
‌گ ویم
 رفت اری
 بگذار ند
l d
‌ خو
 ب صورت
 مس دود
 انگ ار
 تأ سیس
 نکن ند
 دخ الت
 تمرین ات
 کامپی وتری
 روح انی
‌آی ند
ب س
 م بنای
 ر ده
 سال ن
 دست مزد
اک س
 ماه ه
 پروت کل
 اصلاح ات
تاری خ
h er
u st
آ گاه
د رو
 مح اسب
 اخ لاق
 رفت ند
it e
‌رو ند
 التحصیل ان
 واس طه
 گونا گون
 هید رو
 یکپار چه
S S
 م اس
 های ش
 خود داری
 مع دنی
اح ساس
or e
 گو اه
ac e
 عض لات
کرو سافت
 شای سته
 شرک تی
 عذ اب
خ تر
ش یر
ای ا
 خ س
ام ون
اشت ه
 دست اورد
 آی ات
 شهر ها
 ض من
 بده یم
 سخ نان
 تنظیم ات
کود کان
4 00
و ین
’ s
 حس اسی
 عملی اتی
 دری ای
 سین ما
پزش ک
2 9
p t
q u
ک شان
‌ ،
 م کر
 د گر
 س یل
ال با
 رو ایت
 تو مور
 ل نز
 سر قت
 سر تاس
 مق داری
 نام زد
 قد رد
 شهرو ند
 لط ف
 ونزوئ لا
ت اح
خ لا
 ک رب
 رو به
 بی ام
 مح کم
سر مایه
 ارت فاع
 پشت ی
 ببین م
 معن وی
ــ ــ
تول ید
ر ید
ق ول
 ب ي
 د وی
 ای فا
 نظ م
‌ده نده
نج ان
 مشکل اتی
 مل ک
 هنر مندان
ذی رد
 جغرافی ایی
 کالیفر نیا
  )

M A
 ا قل
 م لاح
 ک لام
 آ و
 دار ویی
 ده ی
 مت مای
 ند یده
 شن یدن
 بگ و
بخ تی
 مرور گر
 ارم غان
P A
b er
د ور
ع ب
 د انه
ار ستان
 با بت
زای ر
 عم ق
ادل انه
 رح م
آموز ش
i o
ب ندی
ذ به
ع لی
 بر وم
 مع دن
اف زایش
 غ البا
 ال تها
 مق ادیر
 سازمان دهی
 اتفاق ات
 بده م
 نبود ند
 جان ب
 وح شی
 افس انه
 دا غ
 آشپز خانه
 توج یه
" ،
ئ یه
ب چه
د رد
ف صل
ي ل
 می باشد
 ز ایمان
 ط عم
 سال ها
 عم وم
 کان ادایی
 بو جود
 آپ ارتمان
 ماج را
 لات ین
  g
  ؛
‌ بار
 خ ونی
رد ازد
 ع مد
 مع لمان
نی از
 اف را
 اف سر
 اش ک
 چرا غ
 U S
 اسپ انیایی
 ظاه را
 صاح بان
 فری اد
ع ود
۵ ۰۰
 می د
‌اند از
 شه ادت
بسی ار
 قض یه
 بای ستی
 تصاد فی
 سوئ د
 پرورد گار
 سرتاس ر
. (
C A
و شی
 ب ست
 ت که
 ن گ
یت ان
 مح ور
 بل وک
 بگ ویند
or k
‌آ موز
 مف اهیم
 انتظار ات
 فرا وان
‌ر فت
 جد ایی
 فیس بوک
مطال عات
د ودی
ک می
 ش یشه
این جا
 مع اصر
 آر زو
 سپ ری
 دائ م
لط فا
و ض
 س م
 ف یلی
در مان
 ص لاح
 توان ستند
 پی وسته
وز یر
 بین ید
 نظر سنجی
دم ه
 بال اخره
 منط ق
 مالی اتی
 وس ط
 آفریق ای
 زندانی ان
 متقا عد
 متقا ضی
1 50
ش خص
ه زار
 ه لند
 ج ویی
 ج بران
 ان س
 مح رک
 مح روم
اق ت
 گر ما
 کشور هایی
اط ع
 شه رد
بور گ
 گوش ه
 مجه ز
 م ین
ای ز
گر چه
کت ور
 شهر ت
 اب عاد
 صد ور
 خواست م
 سریع تر
 روان شناسی
واق عا
 رأ ی
ا ئی
م ئ
ّ ه
 ج اب
 ج نین
 ق ائل
 مح ض
 مح بت
مای شی
 اد اری
 مربوط ه
‌س از
 ست ون
 موضو عی
 حرک ات
 آک ادمی
 بیفت د
D A
ر ق
ی تی
 در دن
 توان سته
 وی زا
 فرو خته
۱۹ ۴
... .

 تعهد ات
 نادر ست
 بیاور ید
خر ید
 بنویس ید
۲ ۲
 د ز
 را ستی
تر امپ
 مت غیر
 آی فون
نو شته
 دیجیت الی
 کمونی ست
 غل به
 تویی تر
ز اب
ار زش
 ت لا
 گ او
 او ت
‌ها ست
بین ی
 مغ ذی
 جس می
 ویدئ ویی
خلا صه
P N
a x
v er
 ک ت
 و کیل
 ت ند
 ت ها
 پ ال
او ا
 مد عی
م را
پ ین
 بر گز
 گ ویی
اق د
 مد ارک
 سو ئیس
 شک سته
i x
چ طور
‌ صورت
اد ات
 پ لی
 ج ولای
مو س
 جن س
پی وند
 سپ اس
 عص بانی
 بمان ید
ماز ون
 مأ م
 انفج ار
! !!

ا ى
ّ ی
گ وست
‌ انگیز
 ک ور
ین امه
اند ازی
 ال گوریتم
 پرو ف
 مک زیک
 تض عیف
 ژو ئیه
l y
p er
س کی
 د ای
 گ نج
 ق ایق
 رس اندن
 فرزند تان
 اسرائ یلی
 آفر ین
 گرس نگی
خ ل
ر ال
 ک اف
 یک بار
 رو م
بر رسی
 بد اند
 کل ین
 سو گند
 کتاب ی
ستی کی
 خط ا
 بمان ند
E S
o in
ز وم
‌ قدر
 می شوند
 چ وب
 ق اره
 ط وف
 اس باب
مت اسفانه
گه ی
 افت تاح
 جز و
 مغ ازه
 مادر م
وط ه
 مخصوص ا
 حر ارت
 ارتقا ء
منظ ور
3 6
ج نس
ق ین
 در بار
 گ لو
 مس کن
مین ی
 رس میت
 تب ادل
 نات و
موض وع
  ؟
ش ون
م شت
ن یر
‌ مند
 ا ئت
 م وان
 می گ
 پ رده
وی سم
 خد است
 سف ارت
‌س ایت
 بنی ادی
 تایل ند
 رف اه
ع ل
 ب صری
 بر سان
مل ل
 زند گ
19 3
بن ا
 وا جد
اع ده
دانش مندان
 بک شید
 خرو جی
 اضطر اری
 تظاه رات
أ له
م ود
 ب اند
 خ رده
 است ی
 ق وم
 دو شنبه
 سر ما
است انی
‌ده م
 پر چم
 گی اهی
 خور اکی
سون گ
i al
ت جر
ع شق
۹ ۰
 تا خیر
 مط لوب
 اد بیات
 بگیر م
 لی زر
oo d
 اعتر اف
 درخت ان
 کارآفر ین
ب ک
چ اق
ار ف
 ف و
از ن
مان د
یا فته
 مست قر
مط مئن
 لط فا
 فال ون
C C
M S
a w
 ر وده
 ف اقد
 ع بار
 غ ری
 تر ویج
19 2
 جا ذبه
 حم ام
 میکن ید
 رادی و
 ناه ار
  '
7 5
‎ ها
ان ا
 ن اک
 می شه
ات ل
ری ز
به ه
رس د
 لی بی
ro s
 رق ابتی
‌خ ور
کود ک
 سبزی جات
ل ازم
ای جاد
 ج وش
سی له
می ان
 رو س
 رو حی
 ص لی
 بی اب
 نظر م
 نا شناخته
 P r
 مکال مه
 شاخ ه
T he
 ب شود
 خ ستگی
 پ اپ
 ز لز
 کن س
 کن ه
 دانش جویی
 مط لع
 P h
 مخ لو
 D e
داشت ن
 تل قی
 بزن ند
 غر ق
خ دم
د ختر
 ر غم
 س نین
 مش ورت
 اند روید
 تم دن
 زیر ساخت
‌اند ازی
 نفت ی
 اختصاص ی
 زلز له
m a
ت لاش
ش اهی
و ظ
 ب ت
 ک ریم
ان ش
ار ها
 آ ینه
 تا ک
وت ین
 سا کنان
 موض ع
 بیر ونی
 خی انت
‌شد ند
 مز من
 مسافر ت
 حاک میت
 طراح ان
‌بر ند
T A
خ ره
ط ری
و جود
پ وش
۳ ۵
 م اسا
 ک اپ
 می کرد
 ح امل
 ام لاک
 ل ای
توان ید
 T h
۱۹ ۵
 کلی سای
 مشخص ی
ولوژی کی
تم امی
 مال زی
 هواپیم ای
 فرمان ده
 نع مت
 حساسی ت
E D
د یر
ف روش
 و ین
ری ش
 دانش جوی
 اه دا
 گو یم
گرد انی
 خلاق انه
 مذه ب
 ناگه ان
p l
 د ي
 د اف
 آ ذ
 آ ند
ام د
 مح اک
 بد نی
 مس جد
 ماه یت
 سیا ستم
سم س
 وارد ات
خواست ه
 خون ریزی
 ست ار
انت ظار
 t o
 مز یت
ت فاوت
ظ ات
ق د
م ک
 ز بانی
 ال گوی
 بال غ
 مث بتی
‌آ میز
 الکتر ونیک
 روید ادهای
 قدرد انی
 ه ل
 از ای
 اند ام
 نه ادهای
۱۹ ۳
گفت م
 ویت نام
 ي ک
 ادر ار
 پره یز
 گواه ینامه
مئ نا
س ط
‏ 

 ب لاک
 ت کان
 ش ایع
تی اد
 مح له
 فر مول
 غ ی
خو شب
‌ک شد
اگر ام
 اص لاً
 نداشت م
 راست ای
 مخاط ب
3 2
? 

m ent
چ قدر
‌ نگ
 در سی
 س رو
اه و
 بی ایید
اق ب
 شن ا
 مشت اق
 برس ید
پر ست
 صبح انه
 نمایند گی
ح قی
ر ای
ن وع
 پ ورت
سی است
 بی اورد
 مح دودی
الی ستی
مو سی
 تج ویز
 کو با
 سا عات
 ویر ایش
 کی ست
ستر ول
 مای کروسافت
i le
ص لی
پ ه
چ شم
 م ظ
 د ود
ان واع
 که کشان
 خ شن
 خ نک
 ع سل
 ق بر
را ست
 کار فرمای
اف ل
 کم ال
شی ه
 انت های
 A pp
 نفر ت
 پدر م
 تلف نی
 جنسی ت
 نص ف
 جایگز ینی
 سق ف
 اردو گاه
 امپرات وری
خ ط
پ ت
 ک بد
ای ست
 ن او
 ن وری
 می انه
 آ مازون
 ع ده
 پیش رو
 بین یم
 مث لا
 S c
 آر امی
ic s
 R e
 اخت ل
 لو ازم
‌مان د
 عرو سی
مطال عه
 استث ن
 آه سته
: «
پ ای
 ب خصوص
 ک امی
 با ستانی
 گ ال
 خو اص
 ام روزی
 تن فس
 انتخاب ی
 H IV
 فی بر
 رسید ند
 دش واری
iv ers
 مهر بان
 قلم رو
 بازرگ انی
 دردن اک
E R
i es
ن شان
ک ین
‌ چیز
 بر ف
 مر ات
‌ک س
 پس ران
 تغییر اتی
 حا شیه
 گرد ند
 گیر ید
 I S
ic k
 خواست ند
‌دان ست
 کشت ن
سو ال
مج مو
نظ امی
 آمو خت
 متمای ز
ح م
س ام
ژ انت
‌ نامه
 م ایع
 پ تان
ده د
 کار ایی
فر ض
 ل زو
 ضر ر
مدیر یت
 بیام وز
ج زه
س وم
س مه
پ اد
‌ حل
 ا مان
 ا عداد
 آ قا
ام ام
 با ب
 برای شان
با ح
 اس کات
 پر ندگان
کس ل
an s
یمی شن
or y
 شه ید
 بش ریت
 مسافر ان
 تئ اتر
ا حی
 و ادار
 ت یره
 است رو
 است ارت
 ف نجان
 بود ید
 توان ستم
 تح میل
وه ید
 دانش جو
 بازی گران
 مط بو
 حد س
 تب عی
 دریافت ند
 خوان نده
 جوان ی
مق امات
 ناب ودی
 پژوه شی
 دا وری
 کری سمس
 موان ع
تجر به
r ess
ت ج
 ش یک
ام ن
 ی ار
ون زی
 بی کاری
اس ط
 غذ اها
 گیر نده
 پذیر فت
 فول اد
خوشب ختانه
د وره
ای ات
 ت کیه
 پ ید
 غ ول
 اس ک
 تغییر ی
 پرو سه
 نا امید
 اعت صاب
 H D
 فرست اد
1 20
I C
ا ا
‌ .

 ب لی
 س نج
 ج بهه
 من ف
بر چسب
 بل و
بال ه
 A s
 تاری کی
‌آ مد
 قط عی
 پیر امون
 محاف ظه
 خل بان
 اذ یت
‌با شند
ح اف
 م ستم
 با هوش
 پ اره
 ام ت
 پی کر
 نق لیه
 دوست انه
 پیشنه ادی
 دیپلم اتیک
 مخلو ط
حقی قت
E C
I T
 ه ندی
 ع بد
 ق فل
 دی وانه
 آنها ست
 اع تیاد
 آز مایشی
 شک اف
 اروپ ای
 جز ء
‌بین ید
تص میم
 نیرو گاه
 واک سن
  $
3 1
r am
ش یم
‌ دید
 ب کند
می زی
شان د
 مس أله
الی ست
19 0
 فروش نده
is h
گذار ید
 ائت لاف
ب سته
ت وس
 ب کش
 د استانی
 ک اش
 ر ؤ
 ت وری
 ن اسا
 بر نج
 مد افع
 راه کار
 تش دید
ar y
 مخ رب
 D NA
 سوم ین
 واب ستگی
 كن ند
 سلط نتی
 طوف ان
 پتان سیل
  =
ر ها
ر ایی
ز ام
ف ورد
م در
چ ال
 ک وش
 آ گوست
 دو ام
 مع ده
نی ز
من ط
 ساز ند
 بعد ها
or ld
 طرف دار
of t
مر حله
 پاد شاهی
 رح مت
احتمال ا
 عمد تا
ف ان
‌ ك
ان ید
 ش لیک
 به انه
ال ث
 مس ن
مو فق
 تق ل
 بعد ا
 آورد ند
‌ن ام
 ترس ناک
 کال ا
 خودرو های
 قض ایی
پرد اخت
 اختل الات
I N
و ها
پ و
۲ ۳
 م اری
 ت ام
 آ گهی
 ف ور
وی ض
اق تص
 ل زوم
 اح زاب
 نگر ش
 نوزاد ان
 روست ایی
 ساح لی
 سفار شی
وهید رات
أ س
‌ چه
 ش انه
 هم کار
 کار گردان
 فر مت
عد م
 حا کی
سال ه
 سط حی
 خرید اران
 ظ هر
 همسر تان
 جد ول
 f or
‌پذیر ی
برا ساس
 اینست اگرام
T P
ح ر
ش ع
پ شت
 بر ه
یر ت
اب قت
 کرد ی
 کار تان
 ها ي
 دی کت
 شهر ستان
 بهبود ی
om e
 تخ لیه
 آشن ایی
 ردی ابی
3 3
A S
ا گو
‌ وی
 ب نده
ات ح
 اند ک
 نو ار
 ماه انه
on g
 حق ایق
en ce
 برد ند
 مل که
 نگر فته
as h
 ابر اهیم
‌داد ند
وتی ک
 رک ورد
 ملاح ظه
 داف ا
 ستار گان
 تبعی ض
9 9
خ ور
 د وری
 او اسط
 کم ترین
 مر بع
 مط ابقت
 غیر ممکن
اپ ذیر
 اب زاری
فعال یت
S t
ا پی
ل انی
‌ گاه
 ک است
 و رد
 ر بط
 ن ما
لی ام
 پای انی
it h
 صرف اً
 مواجه ه
 فل ور
تص ور
‌ف هم
 تصاد ف
 پلت فرم
 محاک مه
  #
a h
س فر
 و ج
 ش تاب
 خ ند
 بر ویم
 ف ارس
رو سیه
 کار ش
 مع جزه
 مش رو
 اس د
 کل سترول
 گرفت ار
اط یسی
 بخواه یم
id e
 قا چاق
 قی امت
 انح ص
 دون الد
 فش رده
A N
I D
ئ ون
ط انی
ل ذا
پ ژوه
 و سو
 در گذشت
 ن گار
ال بی
 آن گاه
بان ک
 نم ک
 اشت ب
 مادر ان
 امیدوار م
واق عیت
 بکن ید
 پلا ستیکی
 بازنش ستگی
 له ستان
E B
ض ان
م خ
م صرف
پ وست
 س می
ال و
 ع ج
 غ افل
 کش ی
 ال مپ
 باز خورد
 M an
‌ن ظر
بد ین
od e
  re
5 5
س ایر
ف ار
‌ حال
 و یل
 ز باله
می تی
 دی وید
نگ وی
 زن انی
‌‌ ‌
 خط اب
 ویر ان
مث لاً
‌گذ اران
 وحشت ناک
I P
u g
ا ثر
 ب غ
اد اران
 بر لین
 ز ور
 دی سک
اند از
 اس رار
 اج زای
دا ع
ارت باط
 C on
 روش نی
 رادی ویی
 رز رو
 سام سونگ
  —
I n
 ب بند
ین ت
 ق یم
گر فته
 دو ش
 تح سین
 مه ار
 مدیر یتی
رات ور
 لی بر
 خوان ندگان
 بخواه ند
 قل عه
 گذار ند
 آمو خته
  *
o y
u c
ئ ل
 پ ي
 پ مپ
ات و
اس م
 مس ا
 تج ار
 شن ید
 S er
 اخ ذ
 غیر نظامی
 تولید ی
 قان ع
 آر ژانت
 قد یم
 فهم ید
 ادع ای
m er
؟ »
ر های
ش کر
 س وا
 آ تی
 خ ات
 پ ری
 ف رک
 ع ادلانه
 کن ج
 مت قابل
 مت شکل
با ور
 ل ر
 کم کی
 گر ه
 مق اوم
 زن ند
ro m
‌و قت
 کی سه
 چرخ ش
 عک اس
 جاد ویی
 درخ شان
o h
د یم
ش ینی
م ست
ک لا
 س لو
‌ها ي
 مع بد
 داشت ید
جه ان
 دان ستن
 نفر ه
 نسبت اً
 شور شی
 کال اهای
 متع ادل
 نکرد ند
 عاشق انه
 آفریق ایی
 اشیا ء
R L
آ ل
ت خ
ت ونی
ج می
ج لس
ف را
م ونی
ن ما
 ع ام
 یک شنبه
ون م
 ام یر
 دست ش
 گفت ار
اک تور
 ث الث
مد ل
 شک م
 اشت یا
 مشخص ات
 عض لانی
 برادر ان
 اکت ش
 نبا شند
 دربار ۀ
 المپ یک
ا ضی
ن ل
ّ َ
۲ ۷
‌ ست
 ه ج
 ف ت
 ف ایده
 کار گری
 گر چه
 باز تاب
سر ت
 مهم تر
 صرف ا
 جل وه
 آگاه انه
 معی ار
 ماد ری
 تسلی حات
 کنس ول
3 4
3 9
y n
ر مانه
س الی
ش روع
م رگ
ن مایش
ای تی
 و ری
 ش ست
 ش اع
ال ح
 بر خلاف
 گ زار
 مت اب
 بین ند
 بین ایی
 تع ویض
گو گل
مق اله
 درو ازه
 زیب ای
 مب ادله
 شرک ای
 عظ یمی
6 00
i ew
آ دم
ع امل
 ک جاست
 ت یمی
 ت ابع
 ن ازی
 آ ست
 پ ه
 ام وال
با ع
 اص رار
 شب اه
 لی گ
 بتوان م
 ضر ب
 گل وله
 زد ند
 نتوان ست
 آفر یده
 عذ ر
 اته ام
 جاس وسی
 کرب وهیدرات
 کاف ئین
e e
o k
۳ ۰۰
 ع هد
 ان یمیشن
را قی
 ل س
 سر طانی
 مس ل
 باز رسی
 جه نم
 زی ان
 اط اعت
an k
19 1
 حس ن
زن ش
 اید ئ
 مسیر ی
 میکن یم
 فار سی
 قطع نامه
 پناه ندگان
 زخ می
 پلا ستیک
 التها ب
 اشتب اهی
4 8
A C
ظ ره
‌ زد
 س که
 این طور
 گ یت
 ز ح
 ق بیل
بی ایید
 نو بت
 راه برد
 ماه ر
 V PN
 میز بانی
 شع ار
‌گر فت
پژوه ش
 ت طبی
 ان ق
 اند ونزی
 تص ریح
 بازی ابی
 نام ن
‌د ارد
 چهار شنبه
 نخواه یم
 عو اقب
 روشن ایی
 کشت ار
 متن اسب
 میتوان ند
ow s
 بریت انیایی
im e
 شلو غ
أس فانه
9 5
o ol
‌ خورد
 م گ
ست ون
 س ید
 ح سی
 ح بس
 گ ز
کن ید
 بی ایند
 تا ج
 مع اون
 غ ریب
خو رده
 نو احی
 مج سمه
 همراه ی
 نمود ند
جم له
 تیر اندازی
حس اب
 آو از
 صلاح یت
6 5
T S
ج الب
خ انم
ل زم
گ ونی
‌ چنین
 ب بخ
 ت ث
 خ ج
ات وری
 مر زی
 رس ول
 بال ینی
 نم ره
 M ic
ac h
 تخ فیف
 توافق نامه
‌شن اسی
 تور م
 خلا ص
مبار ان
 خس ارت
 بلی ط
] .

p e
۴ ۵
 ب وش
 ب وت
ور ن
 ج سم
ها ست
 های تان
اس رائ
 فر ق
 سو اری
 مست لزم
 پرد اخته
 پنج اه
باز گشت
ou s
 هواپیم ایی
بزرگ ترین
 الز امات
 مکر ر
 مأم وریت
 مرات ب
 مستم ر
p h
ب ایی
ح تما
د امی
ـ ه
ل امی
‌ ان
 ر هایی
 بر تری
 بر اي
 دار وی
 من عکس
 گر ایش
الی ز
خص ی
 انتخاب اتی
or g
 اق لیت
 پاسخ گویی
 قط ب
 شکل ات
 تاثیر ات
 بس ازد
تص ویر
 فرک انس
 ب ام
 ب نگ
 بر ش
 ق ومی
می زان
مان ده
 خو شم
 ام ارات
‌ش ویم
 ایر لند
 نش وید
اط ه
۱۹ ۲
ولو ژیک
 پیام دهای
 اظهار ات
ex t
‌زن ند
خ وانی
پ ورت
ک اهش
 م ض
 ن گیر
 خ ز
 بر ابری
 خود روی
 تر بیت
 نو ک
 اح اطه
 ساخت اری
 ذ رات
 نح وی
سا عت
 روست ا
 ماسا ژ
 قیم تی
س رد
ص ت
ف ش
چ ش
ک وس
ند م
 در صدی
 ن اس
 ش شم
 س وره
 بر م
 ق وت
گر ا
 ص دمه
 او لی
 ام واج
 مش کوک
 باز گ
in k
سر عت
 نا ام
 چرا که
 اب د
 ری زش
 مرت به
نم ونه
 تکر اری
 گردش گران
ter n
صف حه
 سوا حل
 اشتیا ق
  ستم
  st
ا ين
ب ستگی
ج ین
ن شین
‌ را
 ب ستر
 بر قی
لی ون
 اند وه
 ال ق
 کل مب
انس ون
 خاطر ه
 طرف ی
 شو خی
 N ew
 محاف ظ
‌بین یم
 هوشمند انه
 بند ر
 شاه زاده
 صادق انه
 تحول ات
 آرز وی
 HT ML
ج ستان
ر ابط
س کو
م دی
ژ و
۱ ۵۰
فر ه
اق ض
توان ند
 مق ط
مو زی
غی ب
 یاد آور
 M ar
۱۹ ۱
نا کی
 حی وانی
 سرد رد
 ممنوع یت
 دبیر ستان
  r
ظ م
ن گر
پ لیس
 ب پیوند
 د بی
 ک رم
ود ر
رد ن
 بر انگیز
 ی قین
 این جاست
 ع ادات
فت گی
یت لر
خت ری
 تر ور
مل ات
رس انی
 اع ضا
 قب ال
 دل م
 A c
 اجتما ع
ic al
ou t
 پیچ یدگی
 قطع اً
 استان بول
 بیند از
 زا ویه
2 50
ا ژ
ب دی
ت کن
 ب فرست
 ب مباران
 ت ار
 ه در
 بر عکس
 ج وی
 ج یمز
 ز انو
وی چ
 ار ث
 اع طا
 همین طور
 فرو شی
 آل رژی
 علا ق
قر آن
 نکن یم
 عض ویت
 بو سیله
‌رس ید
 دنی ایی
‌خواست م
 اختلاف ات
 گم راه
 ماس ک
وض عیت
3 7
3 8
t on
ط وب
۲ ۶
‌ ه
ان ورد
 ه کر
ام کان
 سر زنش
 اند اخته
on d
بین ید
 شر م
گرد د
ابت دا
 آزمایش ات
 تل خ
 متن فر
 خی ال
‌خ اطر
پزش کی
 بالات ری
 وف ادار
توس عه
l l
ت وص
پ ولی
‌ ز
 پ ستان
 ج راح
هم سر
من ان
 دانش مند
فی س
هن ر
 وق ایع
 سن اری
 سپ رده
 یخ چال
 ویدی ویی
 آد می
 SE O
 محاسب ات
 پشتی بان
د ت
ر عه
ط و
ع ان
 و صل
 ن رو
 ج زایر
 ف اکتور
 ع راقی
 هم ۀ
 ص در
 دست ان
 تح رک
 مرد مان
وا ک
 بن شین
 B e
 انسان ها
‌کرد یم
بع دی
 چشم گیری
 تاثیر ی
 جنسی تی
 بازدید کنندگان
un d
 ي ا
 امپ ری
 شفاف یت
 ریاضی ات
 خبرنگ اران
 استودی و
 تها جمی
ر ي
” ،
ای الات
اه دی
گر ایی
 تا پ
 ساز گاری
رس انه
er t
 ك رده
 ساعت ه
 W ar
مح صول
 تای مز
 شهرو ندی
 محبوب یت
 فق دان
 جاد و
 بازنش سته
خدم ات
  ِ
  ‎
r on
ع نوان
ه ین
های ش
 کل م
 نش ستن
 تع بیر
 نا خواسته
 T e
 W h
 سل طه
 موق عیتی
شب که
ul t
‌برد اری
 مول کول
‌آور ند
 جور ج
 Un ivers
 مطبو عات
موفق یت
s h
ج انی
ک اش
‌ بخش
 ف ورا
 گ را
 رو حیه
 بی گانه
 سر م
 مق صر
‌کن ی
 رس انده
 فعال ان
 ابت کار
 سپ اه
 مهند س
 جع لی
آز مایش
 پیوست ن
 الگو های
 بردار ید
 قسم تی
 کامی ون
 ورد پرس
N S
ث ری
ش ایی
ان گار
ال ف
 ق وا
 هم جنس
یا ط
 ام ری
 رس ند
 متح دان
‌تر س
 خدم اتی
 خد ایی
 آسی ایی
 نف ری
 برس یم
 عب ادت
 متع ال
 نح و
 مای کل
 سند رم
 حتما ً
 قا ضی
 مسیحی ان
  e
8 5
­ ی
ب دن
خ طر
ظ ی
ک اس
 ج البی
 خود ی
در حالی
‌های م
 مح تر
 فر شته
 تر غیب
 مد ام
ارت ین
er n
 دل ایلی
 مدیر ه
at h
شر ایط
 پیر ی
 اقدام اتی
 مستقیم ا
مش خص
 راست ا
زمین ی
 وف اداری
 اکتش اف
 تطبی ق
A R
ر از
غ ر
ن هایت
 در آورد
 پ اهای
 ل پ
من ین
 مر طوب
 دوست ش
ائ لی
‌د ست
 شخصی تی
 مسئول ان
 میده ند
 تون ل
بیم اری
 بپرداز ید
 کاند ید
 آفرین ش
اقتص اد
H D
s on
ا گون
ح ک
ز ون
ص ح
 م باح
 به م
 پ ایی
 هم سای
گر ام
 ای التی
عه ده
 نو آور
 مج مع
 حد ودی
 نق ره
پی شنه
جر ای
 اه میتی
 مغ ن
 خواب یدن
 مذ کور
 متر و
 پژوهش گران
 پو ستی
 دیر وز
 ناخ ود
 پان زده
 گرس نه
A T
ج ت
 ا بو
 ک ول
ست ات
 در آم
 بر ون
 پ تر
 کار شان
 بی ستم
سان س
 هیچ گاه
‌د اشت
 باور ند
دو ین
 مستقیم اً
جان به
کم ک
نز دی
 معی ارهای
 تسل ط
 اکس ید
 نامن اسب
4 4
ط ئه
۲ ۸
 ا لا
 نی ت
 دو ازده
 چه ل
‌ک م
 اب ری
 وا گذار
 N et
 هو شی
‌دان ستم
 یون انی
 ول ایت
 اتوم اتیک
مجمو عه
u al
ج ور
 ب قای
 ک وان
 و ز
 با هم
ها ي
 من ز
بر خلاف
 بد ل
است اد
 تع لیم
an c
or m
لس کوپ
 شکست ن
 سود مند
 مز رعه
 فرمود ند
‌جمه وری
نویس نده
موسی قی
 کلمب یا
M I
O N
خ یم
ص ب
م اده
ن ون
و ام
‌ بی
 ا کر
 ک یه
 خ یره
 است وار
 بر انگی
 ح ش
تر نت
 ص اف
 ص عود
 ام ّا
من ستان
 مر جع
 اع صاب
اط مینان
گز ینه
لو ت
 ذ ات
 بخش ید
 - 

 تجر بی
 پاس خی
 نمای ان
 اساس ا
 شو ک
 بپ ردازد
ol og
 ترکیب ات
 کات ولیک
‌گذار ند
س پ
ن ور
ن باید
ِ ی
پ ایان
 ا دی
 د ما
 س وری
 پ له
 پ هن
 تو اف
 مع تر
 ار ایه
 زی ستی
 دل خواه
 روش های
 آسی ای
 مف صل
 خط ای
 تهدید ات
‌بین م
ig n
 پرداز نده
پرو ژه
ث ه
ذ یب
ف سه
ه فته
ژ ول
‌ فرم
 ک او
ای انه
 خ م
 پ یم
 این قدر
 نی ا
 نی وز
 شد یدی
 سر ش
 قر ون
 گر جستان
 باز می
 تم دید
اص د
 بخش یدن
 M BA
 P C
at t
 W i
 لح ظات
‌پ رداز
am e
 نمود ار
 ببر یم
 فرآیند های
 نات وانی
 سام انه
معمول اً
 بپرداز ند
 مری خ
 آرژانت ین
ع لیه
ك ت
 م صد
ان تق
 خ ن
 پ را
 ج ین
فر زند
 مح ص
 آم اری
‌ده ندگان
 تع قیب
 حرف ی
 E d
 سن سور
 خوش بختی
 انتق ادی
 هنر های
راج ویی
 قهر مانی
 سان تی
 تدری ج
 An d
وگر افی
ind ows
 غری به
 آست انه
 شباه ت
اسرائ یل
R M
y st
ت ک
ن گاه
‌ در
 د ال
 ر قیب
 ه یل
 در ای
اه ل
 ج ک
وی ژگی
 ای کس
نگ اری
 غ زه
 غ الب
 ات م
 نام حدود
 فروش ندگان
 H e
 منظ ر
رب ستان
 اعتراض ات
 کارآفر ینی
نخ ستین
 گزار شی
ح ضرت
ص بح
ع اً
ن ای
ي ا
‌ بوک
 را برت
 ق ار
رو ند
 ص ریح
 مح وطه
 مع کوس
 ، 

 گر گ
 بین ش
 اع زام
 سو زی
ائ و
اپ ور
 شم اری
 G r
‌کرد ن
 هو اداران
 یه ود
 ذخ ایر
 مشاور ان
 بیاور ند
 آشپ زی
‌وی ژه
 عج له
 ناخود آگاه
  x
S L
؟ "

ب اتی
ع ید
غ د
م م
ِ ن
پ ک
پ اشی
‌ بیند
‏ ها
رد و
 با طل
 بر ی
 پ ند
 پ ور
 تا کسی
 مس ائلی
 جه ش
گیر انه
 اش عه
en s
 خرید ار
لس له
 R es
 آزمایش گاهی
 آزاد انه
 هی ات
 پوش یده
 لو کس
 فل ز
 فل زی
 واحد های
 حو اس
 مغن اطیسی
  k
4 7
ض من
‌ زده
 ا چ
 ا کو
 ر خت
 ه ک
اد و
ال ین
 ی ابی
 ف اش
 گ ن
 گ ور
لی ق
اب ند
 چ رب
وز ارت
 مورد ی
 مر یم
اص لا
 بخ رید
سر انجام
 شر اب
 نگه بان
 خوش حالی
ion s
 کشاور زان
 مار کس
 مخالف ان
 Y ou
 دف ن
 سلو لی
 مقط ع
i er
p le
د اده
و ئید
ک د
‌ بود
ار و
 بر ید
 بر اى
 پ کن
 ح یرت
 ع ط
های شان
 هم یش
تی شن
 نی ام
 کار گاه
 تو طئه
 ار گانی
 نو ین
 پس رش
 مث لاً
 گرفت یم
 آر ایش
 گی ج
رب ایج
 بیان گر
 تف ری
 شور ش
 U RL
‌بین ند
ow er
 منص فانه
 حامل گی
  on
F i
t e
ذ کر
م ص
پ ات
ک وه
 ه یتلر
 س ار
 آ ری
ال ص
ام تر
 ق بی
 ق صه
 هم ت
 بود ی
 فر از
 گر ایی
‌توان ستم
 سو پر
 C ol
 ك م
 اق دامی
 پرد ازد
 I I
 ظ ریف
 جا ود
مرد ان
 پار چه
 وح دت
 خشم گین
 بشناس ید
 استثن ایی
 وسو سه
رابط ه
a z
­ شود
د ون
ر ند
ر مان
ف ند
ف یه
‌ توجه
 ب خواب
 ق اتل
گر م
 مع ل
نگ ری
 ال ماس
دا خل
بال اخره
 آی ین
 هد فی
 آغ وش
 مبار زات
il d
 تای پ
 همسر م
 تاب ستانی
 بکن ند
 قی ام
تغییر ات
 کارفرمای ان
 خات مه
توص یه
E T
M P
أ ت
ص یر
ف ور
م من
ی و
‎ ‎
‏ ‌
 ب طری
 م وی
 ن ابر
یم ا
 ع اقل
 ق اطع
رو شی
 کار اک
 کار شناس
یت ون
 مح رمانه
 مع قول
دید ه
دا ول
 ساز ه
 راه نما
 جدید ترین
پی ام
 سخ نگوی
 چشم گیر
 ست ایش
 برس انند
 مسیر های
 ظاه ری
 آخر ت
لاگ ین
 برداشت ن
 اور اق
 سک ونت
پزش کان
 کیلوم تری
 بازگرد اندن
 ماج راجویی
 حرک تی
 نرس یده
 غالبا ً
 تلا شی
 برسان ید
 بکش ند
B C
ف ال
ست می
 ت دوین
 ن اق
 ن اش
اه میت
 آن جلس
 های م
بر ادر
 مت ری
 مع ین
 روی ای
مو اد
 ساخت مانی
 خد ایان
خورد گی
 شو اهدی
 پرس یده
 توضیح ات
 بگذار یم
 عق اید
 عز ت
 زح مت
لامی ه
! )

6 4
R P
ط ن
م سی
 م به
 د اور
یم ه
شت گان
لی ف
 ق اعده
 رو بات
بر ند
 مت اسفانه
 سر نگ
جام عه
 تح ق
بو ت
 C D
 متح رک
at ch
مح دود
تص اویر
 مقر ون
oun t
 آذ ربایج
 تجار ب
C O
ه رک
 پ یت
 گ ونگ
ون ز
انی اهو
 تو به
 مح و
 غ بار
 ال ح
وا ژه
 C ar
 گرد یده
تو ضیح
 قد ری
 ترس یم
 مناط قی
 ورزش کاران
پر ستی
 هواپیم اهای
رافی کی
 بور س
 شجا عت
 افرا طی
 US B
 شهرد اری
 پروف ایل
 کلین تون
 همیش گی
' s
a f
ف ن
ه وا
١ ٩
‌ مدت
 ب ول
 پ راک
 این چ
 ج ریم
 ف از
 دست گیری
 نو بل
 مق اصد
 روی ه
 گفت یم
 وی لیام
 سو پ
 بن زین
 فیل می
 وا ژ
باز ار
 شی عی
دو ستان
همان ند
 O ne
‌ر وی
 تهدید ی
 معتق دم
 نکرد م
 گاز های
 نتوان سته
 همکاران ش
نق ش
 احمق انه
 نوآور انه
نزدی ک
H P
R I
S D
خ ان
ق اب
ن گاهی
‌ 

‌ روز
 و ای
 ر بود
 ت په
 ن شن
 پ ویا
یم ن
وان سیون
 من ش
 بی ه
فر ما
کی و
 مد ال
 نشان گر
 شن وایی
 چند انی
 سو الی
 نس بی
 A D
 کام لی
en c
 ری خته
 F r
‌ن ظ
 فرا گیر
 پیشنهاد ات
 کیل وگر
 عجی بی
پرس ش
 انب وه
 قبی له
 جریم ه
  ”

ا گه
۲ ۹
 د فع
 ر صد
 خ وی
 خ رس
اد امه
 بر جام
 ع ینک
 کن گ
 ق م
 کار گردانی
 تو هین
 آم دید
 قر ض
کی ف
 تر انه
 نق شی
‌ده ی
 نش وند
دن بال
it ion
 نداشت یم
 W orld
 خوش ب
re e
 بس پار
 پوش یدن
 بلند مدت
 خی اب
 قرارد ادهای
ation al
 نوز دهم
 روست ای
 هرک سی
 مارک سی
 داوطلب انه
 انس ولین
 تقل ید
 انحص اری
 تث بیت
C D
« من
آ فر
ب گذارید
 ب ادی
 م ادی
 س لسله
 بر ن
 بر عهده
یر غم
 چ وبی
 چ سب
تر انه
 من اق
 دان ستم
 تص فیه
 هیچ کس
 بل ژیک
 عل ل
 “ 

ائ ین
وست ون
 وض عیتی
 شی عه
ou d
 محت وی
 كن ید
 فدر اسیون
 رمز گذاری
 رمز نگاری
 نر مال
مسئ له
 فیلی پین
 IS O
 پراک نده
آ ش
ي س
ان ج
 ه ری
 پ ات
 پ نت
اه ن
 فر ش
 تن اسب
 کشور ش
اص ره
 تص میمی
 شرکت های
 مخ ل
 پیر وان
 بش که
مث ال
 شا گردان
کا وی
 مفه ومی
 ژن رال
 احتی اط
آز ادی
 رون مایی
 چاق ی
ros oft
 خن ثی
  y
- -
P C
د ش
س خت
م نی
و و
‌ ح
ای شی
 ت لسکوپ
 ن انو
 می ک
ود ن
 پ خت
 گ وی
 ع طر
 هم گان
 ان ص
 ص هی
 سال گرد
 فر قه
 ل ین
 تر میم
 باز ه
ارت ان
 کو ک
اخ یر
 بار سل
دان ان
 نش ریه
 تع لیق
 آب اد
 آل ات
 B r
ائ ه
 نبود م
 تاریخ چه
ro w
‌پ رس
بات رین
 اسپ رم
چند ین
 محتو ایی
نس خه
 بف رو
 بخور ند
 اقل یمی
 عذر خواهی
! "

T C
خ ون
ر شد
ص ن
ي ان
‌ به
 ک رو
 ک یک
ار ن
 ت رو
 ه لی
 ه راس
 آ را
ده نده
تر و
کی ک
 ال ملل
مو ق
 هیچ وقت
 نا خوش
گز اس
 دید ند
 ری ز
 مل حق
 خط ی
 انتق ام
بح ث
 افز ونه
 دستور ات
 وح ش
ow n
 حر ام
 پن یر
 انگشت ان
 ناخ الص
 دگر گون
P I
ب نی
 ک اشت
ار ید
ار ائه
 ه ول
 ش وی
ات فاق
اق ی
 مع اهده
کار بران
فی ق
۲۰ ۲
 فرو پاشی
وت ا
at a
ic h
 منظ ومه
 سفر های
ol d
 تض اد
 پار امتر
 هشت م
 بکن م
 استث نا
 انداخت ن
 ناز ل
 برگز یده
 دای ره
 سیاستم داران
سط ح
 شاع ر
غد غه
8 00
B S
a il
ف ری
ق وانین
م غ
‌ اکنون
ان رژی
 بر گردان
اه یر
 ز شت
 کن سرت
را ً
کن م
 ما ژول
فر اموش
 ام شب
 ل به
وز ن
اند ان
اند ازه
 بخ ار
قط عا
 بازی افت
 نه فته
an n
 M y
 پنج شنبه
 سف یر
خورد ن
 مرگ بار
مع رفی
 شی وع
 فرا خوان
 استخ ر
 مها ج
‌و گو
 هند و
 In st
 مقر ر
 رانند گان
 دف عه
مشکل ات
 یو گا
درو اقع
 شیک اگو
 محتر م
! !
4 9
] ]
l and
آ ری
۶ ۵
 ب میر
ای ب
 ت فاوتی
 پ لاس
 این کار
 ج یب
 من و
 ص میم
اس ف
بر ابر
 دی وان
 ل که
توان ایی
 پس ند
مت ح
 A ir
 ث انویه
at or
 تأ خیر
 سن گی
 تک میلی
یز ید
 O r
اهد ات
 آسان سور
 نکرد ن
 ساختار های
 اذ عان
تقریبا ً
.» [
 میخواه ید
 شجا ع
 تاک تیک
 لزو ما
 لیبر ال
y s
ت عدادی
ج وانی
و ود
پ ال
 م ُ
ار ض
 ت سک
 ه الی
فت ی
 دو گانه
کل ین
 زیر زمینی
 پرو ستات
 بل غ
 فع الی
 مخت ل
 متح مل
 شم شیر
قا ضی
 افز اری
18 0
‌ب ایست
 جذاب یت
 جس مانی
 ناخ ن
‌نویس د
 گال ری
 خج الت
 همسای گان
S c
­ کند
ذ ر
ز ایی
ع ن
ق سمت
م اید
ک ولی
‌ جای
 ا غ
 ر گ
 ت ال
 ف ای
 ان ز
 مو ف
اس د
 مت داول
‌ش دن
 اس رایی
است رات
 باز گردان
 زی رد
مت ن
مت خصص
 زن انه
 پر تو
کس ون
 C O
وت و
 ژ ان
 تاثیر گذار
 جان به
باز اری
 O n
مق دار
 فض اهای
 فض انورد
 دستی ار
 دکتر ا
 گناه ان
 پرست ار
 حامی ان
 متقاضی ان
منط قه
 بغ داد
 متاب ولی
 کیلوگر م
 صهی ونی
c o
د ها
ن ح
ک ونی
۴ ۰۰
 ب قا
 م کت
 آ ت
 ع اش
 چ ت
 ق له
در خواست
یت ور
 ال ع
 ال ف
 مرد انه
 ساز ندگان
وش ند
بان یت
ره بران
an ce
 خار ق
 گرو گان
 دنبال ه
۱۹ ۰
ic ation
 موجود ی
 هی پ
 اخیر اً
مرد ی
 فرم اید
 متخصص ین
 تور ن
ul l
 سین مایی
 کری ست
 ارد ن
 تاسیس ات
 مسیح یت
ak e
میلی ون
 سور اخ
 امت داد
طو بت
 خیاب انی
7 7
ت ین
ج ل
ج ست
ج شن
ج ریه
ق دم
 ت گزاس
 س اکت
 بر خ
 ج اوا
 گ رافیک
 ع ی
 کن وانسیون
سی لی
 ان بار
فر هنگ
 مع این
نی ک
 ل امپ
 تر از
 گر امی
 اند ی
من بع
 بز نم
 مط مئنا
 نش ر
تا ژ
 L e
 F or
 ضر بان
ing s
as e
 دوستان م
مش اهده
 پو سته
 دانم ارک
 دف اتر
نخ ست
 خبرنگ ار
( ص
- C
E L
R A
R E
آ میز
ب لی
ض ع
م سل
چ ک
 ب وس
 م بد
 م ایه
 ک روم
 ن ج
 س کته
 ی وسف
 پ ش
 ف ورد
 کن تر
 هم بستگی
ده ند
اری ا
آن جا
جا ع
 S k
 گیر یم
 چهار مین
 حمای تی
 F l
دانش جویان
کم تر
 ارز های
طل بان
 مجددا ً
سخ ن
آ گاهی
ز دی
ق ام
ن رخ
ه فت
ي ز
 م ات
ان قل
 است ن
 ان ها
کن یم
‌های تان
 تا جر
 مح اصره
 پی غام
هر چه
 تح لیلی
 نو از
وم تی
 کل ان
مت أسفانه
تو می
 اب داع
 W indows
 یافت ند
 تک ذیب
 نویس د
گذ شته
‌گذ رد
 بارسل ونا
 ناخوش ایند
9 00
j ect
ر ست
ش وی
م زای
 می اد
ات اق
 ز غال
 ق فسه
تر جمه
 ام ضای
 فر شتگان
هم راه
 روی اهای
 تص دی
خواه د
on s
 فیل سو
 P re
کرد ن
 مصرف ی
 بح رانی
 مادر بزرگ
 جو اه
 اید ز
 خور ند
 تف نگ
 سنگ اپور
 گل خانه
آی نده
 آور یم
 عص ب
گذ اران
 نتوان د
 آفر ید
 جر ایم
‌گفت ند
 Pl ay
نح وه
4 6
P h
] [
p en
؟ ”

ب اد
ک او
 ک افه
 ک افر
 و یک
 ر ضا
 ت دار
 آ وی
اد ش
 گ ارد
لی قه
رو ب
 دار ا
 بی ل
 پی امی
 داشت نی
ارد و
آن گاه
er y
 اع لامیه
کس ب
 تع رفه
پی امبر
 قدر تی
al e
 دید یم
 جام د
 R ed
 کودک انی
 نظامی ان
 درد سر
 محل ول
تم رکز
 تان ک
مش ده
 بانک داری
 مکانی ک
 امیدوار یم
 پن ل
 ژنتی ک
 استع فا
دوم ین
 تد اوم
 دستاورد های
 صلی ب
 دي گر
 علاق مند
 Univers ity
 تواف قی
 آذربایج ان
7 00
I M
b ox
د لم
ذ ب
ش ش
ِ ر
‌ سی
 ب خو
 د انی
 خ اندان
ام ّا
ور زش
از دواج
 نی جریه
 تو الت
 ام تن
اف س
 پیش برد
صد ای
‌گ ویید
 زمانی که
 D r
تا ثیر
le y
 خوان دم
 بدان م
 تای وان
 ارز شی
 موش کی
 مقدم ه
 مقدم اتی
ح ض
َ ل
پ ن
 م ود
 ر ج
 س ي
 پ لاگین
 ف ین
تر کی
تر کیه
را فت
تی و
کن ی
اشت باه
 مع ص
 سر شار
دید گاه
شی و
 بین م
 ات ریش
ایت ان
 مج اهد
 کل سیم
‌گ وییم
 بعد اً
 بن ظر
 M e
 منت خب
 وا ژن
 صد اقت
 نمای شی
‌ن اپذیر
is s
 مهند سان
دست گاه
 مکانی کی
 اث ری
 رادی کال
 هور مونی
 ناز ک
 اته امات
‌آموز ان
 عبار ات
 بیاب ید
 ایدئ ولوژی
 پایی ز
 نیام ده
 کاراک تر
: "
I F
a i
ك ر
 ب ندگان
 ب ستن
 م ارتین
 د غدغه
 ر یچ
 می گیر
 می شد
 خ ب
 گ ش
 گ وسف
 ع ید
 بی ولوژیکی
 پی شتر
او ار
 دست کاری
 کم دی
 دان ستند
 داد ید
‌ک اری
 گذ ران
 جم اهیر
 شن اور
 نق دی
in ess
 بل د
اح ب
 ك شور
 منت ق
 خدم ه
 دریافت ی
le ct
جو اب
 تف ریح
 میلیارد ها
تون م
 آس مانی
 هفت م
 زود رس
وزی لند
مدت اً
 امپ را
 نژ ادی
 قا عد
 Q u
 مؤس سه
دور بین
 لای حه
پیشنه اد
‌فرم اید
 کاو ش
 موف قی
استرات ژی
؟ ؟

ب یا
ُ ر
ان دی
 در خش
 ش ری
 ش فا
 آ می
 با قیم
 چ اره
ری ایی
از دهم
 ص میمی
 تو ازن
 فر ام
‌ش وم
 اند رو
 تج مع
مند انه
ابر سی
 سو ژه
اط مه
 صح ت
 بع ید
 حک مت
 گذاشت ند
 تف اهم
افت د
 خصوصی ات
 فل ج
ab le
‌خواست ند
 تخم ک
 سپاس گزار
 مباح ث
 حش رات
l es
m in
ا ء
ح رف
ر انند
ش ویی
ط ول
ط وف
پ ایه
 ا گه
 ر کود
 پ رف
 پ وتین
از ل
کن ترل
نگ ه
مای ت
 ار منستان
 اند یش
 دان سته
 نو جوانی
 سی ستمی
 مج روح
 S ch
 نش ینی
 اطلا عی
 ذ ره
 مست ق
 نداشت ن
 طرف ین
 نخواه م
 پرس نل
is e
 مبار ک
 مها جم
 تأثیر ات
 افس رده
فکر ان
دست رسی
 پاید اری
 توانست یم
 مهر بانی
 خل قت
 هرک دام
 هار وارد
 پرت غال
 خز انه
 قوا عد
) )
1 40
6 6
i el
i um
u ct
ح اتی
ك ی
ه ند
 ب چ
 ک ث
 س حر
 آ لی
رد ی
رد ید
 ج انسون
 ح روف
های تا
 داد ستان
‌ک رده
 واق عه
 تب لت
 تولید کنندگان
 سا عتی
 کوچک ترین
 اب دی
 هدف مند
 صد ایی
am es
تم رین
 بخوان د
 سؤ الات
 جس د
‌‌‌‌ ‌‌‌‌
طبی عی
 مظ نون
 کوش ش
اتح ادیه
yst em
 تحق یر
متح ده
5 1
C S
د قیق
ف سی
‌ تنها
 ر ول
 ر طوبت
 می گیرد
 س ز
 ف ا
 ح ما
 گ ویید
ما شین
رو ابط
 توان ی
 اس میت
است ر
 مر ج
 اف شا
کل ید
کار شناسان
 نام ش
 بن وشید
 عم لا
 آر مان
 فعالیت های
 پاسخ گو
 عمو ما
تح لیل
 جلو تر
اع ضای
 انگی زی
 لذ ا
 سود ان
مش اور
 فل زات
 تمای ز
 افتاد ن
 پارک ینگ
 خوشحال م
 فرض یه
 d e
 گم رک
 امتیاز ات
چنان چه
 جاب جایی
 نگیر ید
 تفری حی
 ناق ص
 تسک ین
 امتن اع
 باقیم انده
E A
آ یت
ت ز
ح زب
ر ود
ع لت
ق هر
‌ می
 ب لا
 ب خورد
 و ات
 در ه
 می ش
 خ تم
 خ فیف
 پ د
 ج اهای
 ح اد
 گ مشده
 ان طب
 مح ف
 اط رافی
 نام گذاری
 بار گذاری
 عل ایم
 P S
 شک و
 مل زم
 E v
‌ن ویسی
 حک ومتی
 ابزار ها
 ویر وسی
 موس وم
 عمی قی
us iness
‌شن به
 بخوان ند
 طبق اتی
 مکانی سم
 تس ری
 پو شان
 خال ق
 بفهم ید
 ني ز
 دیکت اتوری
  %
D F
p s
t s
ك ل
م خصوص
و میت
٢ ٠
چ اله
‬ ‬
 ب در
 ک یم
 ت ابل
 می خ
 گ یم
 چ نگ
 دو یدن
 توان مند
 مت کی
 مع اف
 ل ینو
 مس کونی
 تن اس
کل ت
 مدیر عامل
 ژ نو
بن ابر
 برد م
گفت ند
 عض له
 تلف ات
 سنگ ینی
 فران ک
آم ریکایی
 سلول های
 شیر ینی
سیس کو
 بزن یم
‌گیر ید
 کارآ موزی
 بساز یم
up er
 بفهم یم
oun d
مشت ریان
حاف ظی
 Mic rosoft
چش مه
4 1
: ‌
آ ید
ت ست
ث بات
ح مایت
ض ل
م وزه
ُ م
 ب جای
 می رسد
 س قط
ام یک
 ع مدتاً
لی سی
 ز ائ
 ق وه
گر های
این ترنت
دی گران
 رس م
 گذ رد
 روی ا
 زی باترین
 نام ید
 ارت قای
 M ed
 فرو خت
 حس ابرسی
شر فت
 دید نی
 محصول اتی
it al
ro id
 معن ایی
‌رس ند
ad e
 پاک سازی
 کاربرد های
 پناه ندگی
 داو ود
 انح راف
 تظاه ر
فران سه
 منف جر
 بلو غ
 مسا وی
s p
w ork
آ ورده
ب انه
ب بینید
ت أ
م ها
ن ر
َ ن
 ا ژ
 ا ورش
 در ج
 ن گاری
 می خو
 به ای
 س ون
 از جمله
 ف دا
 ف تح
 آن ف
 ع ث
 یک م
 یک سانی
 نی وزیلند
زی ی
 کم ر
 گر ین
 اس کی
‌توان ستند
مو تور
کار های
خواه ید
 تب ریک
 تولید کننده
 M ac
روز نامه
en g
 لی تر
 بح رین
 منظ ره
 خش کی
مح مد
 هفت گی
 ریا ض
 منح رف
 فار کس
 ماهی چه
 شمار ش
 نده د
 گذر اندن
 مول کولی
 یاب ید
 قهرمان ان
 شورشی ان
محصول ات
انج من
 مخل وق
 سز اوار
- A
4 3
B M
I A
u k
آ شن
ض م
ط ای
ط ار
گ م
‎ شود
‏ های
 ب شم
 م از
 م مل
 ک اس
 در های
 ش کی
 که ن
 بر گه
شت ن
 نی فت
زی ست
 بد نه
دید ن
من ابع
 روز گار
طور ه
 مخت ص
شم اره
 D es
 وق فه
 لی ستی
 جان شین
دو باره
‌رس اند
 کال اها
 فرم وده
‌شد ت
 فلس فی
 نار اضی
 مزای ا
 اعتقاد ات
 حر ارتی
عم لی
 زم ستانی
 كرد ن
 کاغذ ی
‌خوان د
 شکار چی
 میگ وید
 اسکات لند
مدر سه
 ربط ی
 مبه م
 شیعی ان
کیف یت
 پنت اگون
 انطب اق
 اورش لیم
C h
C l
E M
c l
خ تی
ر ح
ش اگر
ّ ل
پ یدا
۶ ۰۰
۷ ۵
‌ ات
 ا هر
 د ختری
 آ دام
 پ خته
 ف اشی
 گ وار
اب زار
 مو ها
 نی افت
 غ ار
 اند ازد
 تص رف
سان در
پس ر
 تق لب
 A ut
 ذ اتی
 مخت صر
al t
 I T
 لی وان
 بپ و
 خور اک
 پرس یدم
 فشار های
 دختر ش
 دع وا
 فرمان دهی
 پدید ار
 نیرو ها
 بساز ند
 عزی زان
پل نت
یاد گیری
 ادر اک
 Bl ack
oh n
مست قیم
 رخت خواب
انقل اب
c ess
e ed
ؤ منین
ت ای
ت وسط
ر اب
س نگ
گ های
گ وش
۳ ۴
‌ وزیر
 ن وی
 ج اه
 ح لی
 گ رافیکی
 ز اده
 ز یتون
 ق ریب
سی ب
کن ه
گی ل
 ل ع
 غ روب
 مس لط
 نو به
 کشور مان
 تج سم
 مج زا
 زن بور
 پر ین
 تع املی
 تق ویم
 نا شناس
 I m
 شم سی
وست رون
 H P
 خاطر نشان
 پدر ان
 سخن ران
 نمود ن
 عص بانیت
مط لب
16 0
 شگفت ی
 گذر اند
 دم کرات
 چنان چه
 قطر ه
 بازگ شته
تکن ولوژی
 قار چ
حض ور
 قاعد گی
 لینو کس
w w
د ای
ر ژیم
ك ان
م ادی
پ رداز
۹ ۹
‌ یک
 م م
 و حی
 آ سم
 با يد
 ع ش
انی ان
 بی وتیک
 شد گان
 مع مار
او ین
 سر پرست
 ار جاع
شی ند
 مج ت
 مث ابه
 سو ابق
 غیر منت
 بن ویسم
 M S
تما س
 شک وه
at ive
 پاس پورت
