{
  "version": "1.0",
  "truncation": null,
  "padding": null,
  "added_tokens": [],
  "normalizer": null,
  "pre_tokenizer": {
    "type": "Sequence",
    "pretokenizers": [
      {
        "type": "Split",
        "pattern": {
          "Regex": "[^\\r\\n\\p{L}\\p{N}]?[\\p{Lu}\\p{Lt}\\p{Lm}\\p{Lo}\\p{M}]*[\\p{Ll}\\p{Lm}\\p{Lo}\\p{M}]+|[^\\r\\n\\p{L}\\p{N}]?[\\p{Lu}\\p{Lt}\\p{Lm}\\p{Lo}\\p{M}]+[\\p{Ll}\\p{Lm}\\p{Lo}\\p{M}]*|\\p{N}{1,3}| ?[^\\s\\p{L}\\p{N}]+[\\r\\n/]*|\\s*[\\r\\n]+|\\s+(?!\\S)|\\s+"
        },
        "behavior": "Isolated",
        "invert": false
      }
    ]
  },
  "post_processor": null,
  "decoder": null,
  "model": {
    "type": "BPE",
    "dropout": null,
    "unk_token": null,
    "continuing_subword_prefix": null,
    "end_of_word_suffix": null,
    "fuse_unk": false,
    "byte_fallback": false,
    "ignore_merges": false,
    "vocab": {
      "\n": 0,
      " ": 1,
      "!": 2,
      "\"": 3,
      "#": 4,
      "$": 5,
      "%": 6,
      "&": 7,
      "'": 8,
      "(": 9,
      ")": 10,
      "*": 11,
      "+": 12,
      ",": 13,
      "-": 14,
      ".": 15,
      "/": 16,
      "0": 17,
      "1": 18,
      "2": 19,
      "3": 20,
      "4": 21,
      "5": 22,
      "6": 23,
      "7": 24,
      "8": 25,
      "9": 26,
      ":": 27,
      ";": 28,
      "<": 29,
      "=": 30,
      ">": 31,
      "?": 32,
      "@": 33,
      "A": 34,
      "B": 35,
      "C": 36,
      "D": 37,
      "E": 38,
      "F": 39,
      "G": 40,
      "H": 41,
      "I": 42,
      "J": 43,
      "K": 44,
      "L": 45,
      "M": 46,
      "N": 47,
      "O": 48,
      "P": 49,
      "Q": 50,
      "R": 51,
      "S": 52,
      "T": 53,
      "U": 54,
      "V": 55,
      "W": 56,
      "X": 57,
      "Y": 58,
      "Z": 59,
      "[": 60,
      "\\": 61,
      "]": 62,
      "^": 63,
      "_": 64,
      "`": 65,
      "a": 66,
      "b": 67,
      "c": 68,
      "d": 69,
      "e": 70,
      "f": 71,
      "g": 72,
      "h": 73,
      "i": 74,
      "j": 75,
      "k": 76,
      "l": 77,
      "m": 78,
      "n": 79,
      "o": 80,
      "p": 81,
      "q": 82,
      "r": 83,
      "s": 84,
      "t": 85,
      "u": 86,
      "v": 87,
      "w": 88,
      "x": 89,
      "y": 90,
      "z": 91,
      "{": 92,
      "|": 93,
      "}": 94,
      "~": 95,
      "": 96,
      "": 97,
      "": 98,
      "": 99,
      "": 100,
      "": 101,
      "": 102,
      "": 103,
      "": 104,
      "": 105,
      "": 106,
      "": 107,
      "": 108,
      "": 109,
      "": 110,
      " ": 111,
      "¡": 112,
      "¢": 113,
      "£": 114,
      "¤": 115,
      "¥": 116,
      "§": 117,
      "¨": 118,
      "©": 119,
      "ª": 120,
      "«": 121,
      "¬": 122,
      "­": 123,
      "®": 124,
      "°": 125,
      "±": 126,
      "²": 127,
      "´": 128,
      "µ": 129,
      "·": 130,
      "¹": 131,
      "º": 132,
      "»": 133,
      "¼": 134,
      "½": 135,
      "¾": 136,
      "Á": 137,
      "Â": 138,
      "Ã": 139,
      "Ä": 140,
      "Å": 141,
      "Ç": 142,
      "É": 143,
      "Ô": 144,
      "Ö": 145,
      "×": 146,
      "Ø": 147,
      "Ü": 148,
      "ß": 149,
      "à": 150,
      "á": 151,
      "â": 152,
      "ã": 153,
      "ä": 154,
      "å": 155,
      "æ": 156,
      "ç": 157,
      "è": 158,
      "é": 159,
      "ê": 160,
      "ë": 161,
      "ì": 162,
      "í": 163,
      "î": 164,
      "ï": 165,
      "ð": 166,
      "ñ": 167,
      "ò": 168,
      "ó": 169,
      "ô": 170,
      "ö": 171,
      "÷": 172,
      "ø": 173,
      "ú": 174,
      "ü": 175,
      "ý": 176,
      "þ": 177,
      "ā": 178,
      "ć": 179,
      "ē": 180,
      "ğ": 181,
      "ī": 182,
      "İ": 183,
      "ı": 184,
      "ł": 185,
      "ń": 186,
      "ŋ": 187,
      "œ": 188,
      "Ş": 189,
      "ş": 190,
      "š": 191,
      "ū": 192,
      "ű": 193,
      "Ž": 194,
      "ƒ": 195,
      "ǎ": 196,
      "ɔ": 197,
      "ə": 198,
      "ɛ": 199,
      "ɜ": 200,
      "ɨ": 201,
      "ɪ": 202,
      "ʀ": 203,
      "ʁ": 204,
      "ʊ": 205,
      "ʺ": 206,
      "ˈ": 207,
      "ˌ": 208,
      "ˏ": 209,
      "ː": 210,
      "˙": 211,
      "˚": 212,
      "˛": 213,
      "˝": 214,
      "́": 215,
      "̃": 216,
      "̈": 217,
      "̊": 218,
      "̋": 219,
      "̏": 220,
      "̨": 221,
      "̵": 222,
      "̈́": 223,
      "Α": 224,
      "Δ": 225,
      "Ε": 226,
      "Μ": 227,
      "Φ": 228,
      "Ω": 229,
      "α": 230,
      "β": 231,
      "γ": 232,
      "ε": 233,
      "ζ": 234,
      "θ": 235,
      "κ": 236,
      "λ": 237,
      "μ": 238,
      "ν": 239,
      "ο": 240,
      "ρ": 241,
      "ς": 242,
      "τ": 243,
      "φ": 244,
      "ω": 245,
      "Б": 246,
      "Г": 247,
      "З": 248,
      "И": 249,
      "К": 250,
      "М": 251,
      "О": 252,
      "П": 253,
      "С": 254,
      "Т": 255,
      "а": 256,
      "б": 257,
      "г": 258,
      "д": 259,
      "е": 260,
      "и": 261,
      "й": 262,
      "к": 263,
      "л": 264,
      "м": 265,
      "н": 266,
      "о": 267,
      "р": 268,
      "с": 269,
      "т": 270,
      "у": 271,
      "ф": 272,
      "х": 273,
      "ы": 274,
      "ь": 275,
      "я": 276,
      "ё": 277,
      "ћ": 278,
      "ה": 279,
      "ח": 280,
      "י": 281,
      "כ": 282,
      "מ": 283,
      "פ": 284,
      "ש": 285,
      "،": 286,
      "؛": 287,
      "؟": 288,
      "ء": 289,
      "آ": 290,
      "أ": 291,
      "ؤ": 292,
      "إ": 293,
      "ئ": 294,
      "ا": 295,
      "ب": 296,
      "ة": 297,
      "ت": 298,
      "ث": 299,
      "ج": 300,
      "ح": 301,
      "خ": 302,
      "د": 303,
      "ذ": 304,
      "ر": 305,
      "ز": 306,
      "س": 307,
      "ش": 308,
      "ص": 309,
      "ض": 310,
      "ط": 311,
      "ظ": 312,
      "ع": 313,
      "غ": 314,
      "ـ": 315,
      "ف": 316,
      "ق": 317,
      "ك": 318,
      "ل": 319,
      "م": 320,
      "ن": 321,
      "ه": 322,
      "و": 323,
      "ى": 324,
      "ي": 325,
      "ً": 326,
      "ٌ": 327,
      "ٍ": 328,
      "َ": 329,
      "ُ": 330,
      "ِ": 331,
      "ّ": 332,
      "ْ": 333,
      "ٓ": 334,
      "ٔ": 335,
      "٠": 336,
      "١": 337,
      "٢": 338,
      "٣": 339,
      "٤": 340,
      "٥": 341,
      "٦": 342,
      "٧": 343,
      "٨": 344,
      "٩": 345,
      "٪": 346,
      "٫": 347,
      "٬": 348,
      "ٰ": 349,
      "ٴ": 350,
      "ٶ": 351,
      "ٸ": 352,
      "پ": 353,
      "ٿ": 354,
      "څ": 355,
      "چ": 356,
      "ژ": 357,
      "ک": 358,
      "ڪ": 359,
      "ګ": 360,
      "گ": 361,
      "ڵ": 362,
      "ں": 363,
      "ھ": 364,
      "ۀ": 365,
      "ہ": 366,
      "ۂ": 367,
      "ۃ": 368,
      "ۆ": 369,
      "ی": 370,
      "ێ": 371,
      "ے": 372,
      "۔": 373,
      "ە": 374,
      "۰": 375,
      "۱": 376,
      "۲": 377,
      "۳": 378,
      "۴": 379,
      "۵": 380,
      "۶": 381,
      "۷": 382,
      "۸": 383,
      "۹": 384,
      "ܔ": 385,
      "ܜ": 386,
      "ก": 387,
      "ง": 388,
      "แ": 389,
      "ა": 390,
      "გ": 391,
      "ე": 392,
      "ვ": 393,
      "თ": 394,
      "ი": 395,
      "ლ": 396,
      "მ": 397,
      "ნ": 398,
      "ო": 399,
      "რ": 400,
      "ს": 401,
      "უ": 402,
      "ქ": 403,
      "Ḥ": 404,
      "ṇ": 405,
      "ṯ": 406,
      "ủ": 407,
      "ἐ": 408,
      "ἥ": 409,
      "Ἴ": 410,
      "ῖ": 411,
      " ": 412,
      " ": 413,
      " ": 414,
      " ": 415,
      "​": 416,
      "‌": 417,
      "‍": 418,
      "‎": 419,
      "‏": 420,
      "–": 421,
      "—": 422,
      "―": 423,
      "‘": 424,
      "’": 425,
      "‚": 426,
      "“": 427,
      "”": 428,
      "„": 429,
      "†": 430,
      "•": 431,
      "…": 432,
      " ": 433,
      " ": 434,
      "‪": 435,
      "‫": 436,
      "‬": 437,
      "‭": 438,
      " ": 439,
      "′": 440,
      "″": 441,
      "‹": 442,
      "›": 443,
      "※": 444,
      "‼": 445,
      "⁄": 446,
      "⁉": 447,
      "⁠": 448,
      "⁣": 449,
      "⁧": 450,
      "⁩": 451,
      "⁪": 452,
      "⁭": 453,
      "⁮": 454,
      "⁯": 455,
      "⁰": 456,
      "₂": 457,
      "₩": 458,
      "€": 459,
      "₹": 460,
      "⃣": 461,
      "℃": 462,
      "№": 463,
      "™": 464,
      "Ⅲ": 465,
      "←": 466,
      "↑": 467,
      "→": 468,
      "↓": 469,
      "⇆": 470,
      "⇐": 471,
      "⇔": 472,
      "∀": 473,
      "∆": 474,
      "∈": 475,
      "−": 476,
      "∗": 477,
      "∘": 478,
      "√": 479,
      "∴": 480,
      "≈": 481,
      "≠": 482,
      "≡": 483,
      "≤": 484,
      "≥": 485,
      "⊞": 486,
      "⋆": 487,
      "⌘": 488,
      "⏳": 489,
      "⏺": 490,
      "▐": 491,
      "■": 492,
      "□": 493,
      "▪": 494,
      "▫": 495,
      "▬": 496,
      "▲": 497,
      "▶": 498,
      "►": 499,
      "◀": 500,
      "◄": 501,
      "◇": 502,
      "◊": 503,
      "○": 504,
      "●": 505,
      "◦": 506,
      "◽": 507,
      "◾": 508,
      "★": 509,
      "☆": 510,
      "☚": 511,
      "☺": 512,
      "☼": 513,
      "♊": 514,
      "♒": 515,
      "♡": 516,
      "♥": 517,
      "♦": 518,
      "♪": 519,
      "♫": 520,
      "♬": 521,
      "♯": 522,
      "⚡": 523,
      "⚽": 524,
      "✅": 525,
      "✋": 526,
      "✍": 527,
      "✓": 528,
      "✔": 529,
      "✕": 530,
      "✤": 531,
      "✭": 532,
      "✳": 533,
      "✵": 534,
      "❇": 535,
      "❌": 536,
      "❗": 537,
      "❤": 538,
      "➌": 539,
      "➐": 540,
      "➕": 541,
      "➖": 542,
      "⟨": 543,
      "⟩": 544,
      "⦁": 545,
      "⬅": 546,
      "《": 547,
      "》": 548,
      "「": 549,
      "か": 550,
      "き": 551,
      "ど": 552,
      "ま": 553,
      "メ": 554,
      "モ": 555,
      "ヤ": 556,
      "㎡": 557,
      "一": 558,
      "东": 559,
      "事": 560,
      "人": 561,
      "件": 562,
      "前": 563,
      "十": 564,
      "台": 565,
      "命": 566,
      "坛": 567,
      "外": 568,
      "天": 569,
      "子": 570,
      "孫": 571,
      "將": 572,
      "撫": 573,
      "斐": 574,
      "旗": 575,
      "日": 576,
      "月": 577,
      "朝": 578,
      "本": 579,
      "樹": 580,
      "湾": 581,
      "灣": 582,
      "爱": 583,
      "生": 584,
      "甲": 585,
      "碌": 586,
      "神": 587,
      "臺": 588,
      "英": 589,
      "蔼": 590,
      "语": 591,
      "谷": 592,
      "軍": 593,
      "锦": 594,
      "门": 595,
      "革": 596,
      "도": 597,
      "라": 598,
      "아": 599,
      "장": 600,
      "티": 601,
      "": 602,
      "": 603,
      "": 604,
      "": 605,
      "": 606,
      "": 607,
      "": 608,
      "": 609,
      "": 610,
      "": 611,
      "": 612,
      "": 613,
      "": 614,
      "": 615,
      "": 616,
      "": 617,
      "": 618,
      "": 619,
      "": 620,
      "": 621,
      "": 622,
      "": 623,
      "": 624,
      "": 625,
      "": 626,
      "": 627,
      "": 628,
      "": 629,
      "": 630,
      "": 631,
      "": 632,
      "ﮔ": 633,
      "ﮥ": 634,
      "﴾": 635,
      "﴿": 636,
      "ﷲ": 637,
      "️": 638,
      "ﹼ": 639,
      "ﺁ": 640,
      "ﺄ": 641,
      "ﺇ": 642,
      "ﺌ": 643,
      "ﺎ": 644,
      "ﺗ": 645,
      "ﺳ": 646,
      "ﻄ": 647,
      "ﻜ": 648,
      "ﻢ": 649,
      "ﻣ": 650,
      "ﻤ": 651,
      "ﻦ": 652,
      "ﻧ": 653,
      "ﻨ": 654,
      "ﻪ": 655,
      "ﻫ": 656,
      "ﻮ": 657,
      "ﻯ": 658,
      "ﻲ": 659,
      "ﻴ": 660,
      "﻿": 661,
      "：": 662,
      "�": 663,
      "🇩": 664,
      "🇪": 665,
      "🇬": 666,
      "🇷": 667,
      "🇺": 668,
      "🌀": 669,
      "🌐": 670,
      "🌬": 671,
      "🌲": 672,
      "🌷": 673,
      "🌸": 674,
      "🌺": 675,
      "🍁": 676,
      "🍃": 677,
      "🍳": 678,
      "🎁": 679,
      "🎄": 680,
      "🎥": 681,
      "🎬": 682,
      "🐶": 683,
      "👈": 684,
      "👌": 685,
      "👏": 686,
      "👑": 687,
      "👻": 688,
      "💎": 689,
      "💕": 690,
      "💜": 691,
      "💟": 692,
      "💫": 693,
      "💳": 694,
      "📈": 695,
      "📌": 696,
      "📍": 697,
      "📑": 698,
      "📝": 699,
      "📣": 700,
      "📱": 701,
      "📽": 702,
      "🔎": 703,
      "🔔": 704,
      "🔥": 705,
      "🔴": 706,
      "🔵": 707,
      "🔶": 708,
      "🔷": 709,
      "🔸": 710,
      "🔹": 711,
      "🔺": 712,
      "🔻": 713,
      "🗽": 714,
      "😀": 715,
      "😁": 716,
      "😂": 717,
      "😅": 718,
      "😉": 719,
      "😊": 720,
      "😌": 721,
      "😍": 722,
      "😎": 723,
      "😏": 724,
      "😐": 725,
      "😒": 726,
      "😔": 727,
      "😕": 728,
      "😗": 729,
      "😙": 730,
      "😛": 731,
      "😢": 732,
      "😥": 733,
      "😭": 734,
      "😳": 735,
      "😵": 736,
      "😶": 737,
      "🙁": 738,
      "🙂": 739,
      "🙏": 740,
      "🚀": 741,
      "🚫": 742,
      "🤔": 743,
      "🤗": 744,
      "🥇": 745,
      " ا": 746,
      " ب": 747,
      " م": 748,
      " د": 749,
      " ک": 750,
      "ان": 751,
      "ای": 752,
      "ار": 753,
      "ست": 754,
      ".\n": 755,
      "ند": 756,
      " و": 757,
      " ر": 758,
      " ت": 759,
      " ه": 760,
      " در": 761,
      "ین": 762,
      " ن": 763,
      " ش": 764,
      " می": 765,
      " به": 766,
      "ود": 767,
      "ید": 768,
      " س": 769,
      " آ": 770,
      " که": 771,
      " خ": 772,
      " از": 773,
      " را": 774,
      " است": 775,
      "اد": 776,
      "ال": 777,
      "رد": 778,
      "ام": 779,
      " با": 780,
      " بر": 781,
      " ی": 782,
      " پ": 783,
      "ور": 784,
      " این": 785,
      "اه": 786,
      " ج": 787,
      "یر": 788,
      " ف": 789,
      " ح": 790,
      " گ": 791,
      "ات": 792,
      "یم": 793,
      "شت": 794,
      " آن": 795,
      " ع": 796,
      "لی": 797,
      "ها": 798,
      " ز": 799,
      "ما": 800,
      "های": 801,
      " یک": 802,
      "وان": 803,
      "اب": 804,
      " کن": 805,
      " چ": 806,
      "ری": 807,
      " ق": 808,
      "ون": 809,
      " برای": 810,
      "از": 811,
      " هم": 812,
      "ده": 813,
      "فت": 814,
      "سی": 815,
      "ول": 816,
      "وی": 817,
      " های": 818,
      "گر": 819,
      " کرد": 820,
      "می": 821,
      "تر": 822,
      "رو": 823,
      " ان": 824,
      "مان": 825,
      " مو": 826,
      "اری": 827,
      " دار": 828,
      " خود": 829,
      "در": 830,
      "را": 831,
      " من": 832,
      "تی": 833,
      "اده": 834,
      "کن": 835,
      "لا": 836,
      " خو": 837,
      " بود": 838,
      " ط": 839,
      " نی": 840,
      " شما": 841,
      " رو": 842,
      " باش": 843,
      " کار": 844,
      "‌های": 845,
      "یت": 846,
      " ص": 847,
      " یا": 848,
      "این": 849,
      "گی": 850,
      "انی": 851,
      "زی": 852,
      " بی": 853,
      " تا": 854,
      "اشت": 855,
      "خت": 856,
      "اس": 857,
      " شده": 858,
      " تو": 859,
      " شد": 860,
      " ده": 861,
      " ها": 862,
      "اید": 863,
      "ایی": 864,
      " سال": 865,
      "به": 866,
      " ای": 867,
      "بر": 868,
      "یا": 869,
      "رک": 870,
      " ما": 871,
      " هست": 872,
      " دو": 873,
      " کند": 874,
      "بی": 875,
      " دی": 876,
      " کنید": 877,
      "انه": 878,
      " او": 879,
      "فر": 880,
      " (": 881,
      "‌ها": 882,
      " شود": 883,
      " ام": 884,
      " مح": 885,
      " توان": 886,
      " آم": 887,
      "اق": 888,
      " کنند": 889,
      " مت": 890,
      " فر": 891,
      " خواه": 892,
      "با": 893,
      " پی": 894,
      " هر": 895,
      " مع": 896,
      "گاه": 897,
      " داشت": 898,
      "له": 899,
      "نگ": 900,
      "او": 901,
      "قی": 902,
      "دی": 903,
      "نی": 904,
      "بت": 905,
      "عی": 906,
      " دست": 907,
      " باشد": 908,
      " دارد": 909,
      " ل": 910,
      "که": 911,
      "توان": 912,
      "شان": 913,
      "اف": 914,
      " نمی": 915,
      " سر": 916,
      "مای": 917,
      "ادی": 918,
      "وز": 919,
      " غ": 920,
      " باید": 921,
      "ارد": 922,
      "فته": 923,
      " قر": 924,
      " حال": 925,
      "فاده": 926,
      "کی": 927,
      "هم": 928,
      " تر": 929,
      "خو": 930,
      "اره": 931,
      "نده": 932,
      "؟\n": 933,
      " کم": 934,
      "جه": 935,
      "رف": 936,
      " مش": 937,
      " استفاده": 938,
      "وری": 939,
      "امه": 940,
      " آنها": 941,
      " ار": 942,
      "اند": 943,
      " کش": 944,
      "زار": 945,
      " ،": 946,
      "جود": 947,
      " گر": 948,
      " بد": 949,
      "‌ش": 950,
      " چی": 951,
      "عه": 952,
      " مد": 953,
      "جام": 954,
      " اس": 955,
      " دیگر": 956,
      " هستند": 957,
      "است": 958,
      "اخت": 959,
      " نظ": 960,
      " اند": 961,
      " مورد": 962,
      "هر": 963,
      " بسی": 964,
      "کر": 965,
      "دید": 966,
      "عد": 967,
      "من": 968,
      " کرده": 969,
      " چه": 970,
      " «": 971,
      " مس": 972,
      " انجام": 973,
      " مر": 974,
      "یل": 975,
      " ال": 976,
      " دان": 977,
      " زمان": 978,
      " تح": 979,
      "عت": 980,
      "شی": 981,
      "نین": 982,
      " نیست": 983,
      " روز": 984,
      " پیش": 985,
      " نو": 986,
      " داد": 987,
      " اما": 988,
      "مل": 989,
      "وم": 990,
      "الی": 991,
      "‌ک": 992,
      " وجود": 993,
      "وند": 994,
      " باز": 995,
      " اف": 996,
      " مق": 997,
      "‌توان": 998,
      " جه": 999,
      "قت": 1000,
      "گیر": 1001,
      "نوان": 1002,
      " زند": 1003,
      "خص": 1004,
      " نیز": 1005,
      "مین": 1006,
      " بین": 1007,
      "چه": 1008,
      " مرد": 1009,
      " ند": 1010,
      " اج": 1011,
      " تن": 1012,
      " انت": 1013,
      "‌کن": 1014,
      " بیشت": 1015,
      " رس": 1016,
      "ریک": 1017,
      "رکت": 1018,
      " قرار": 1019,
      "ترین": 1020,
      " تم": 1021,
      "یده": 1022,
      " بز": 1023,
      "ونه": 1024,
      " داشته": 1025,
      " اح": 1026,
      "امل": 1027,
      "کل": 1028,
      " عنوان": 1029,
      "..": 1030,
      " توس": 1031,
      "نامه": 1032,
      " گذ": 1033,
      " روی": 1034,
      "یک": 1035,
      " خواهد": 1036,
      "دا": 1037,
      " زی": 1038,
      " همه": 1039,
      "مکن": 1040,
      "وه": 1041,
      "شن": 1042,
      " ات": 1043,
      " کشور": 1044,
      "اگر": 1045,
      "خی": 1046,
      "اص": 1047,
      " دهد": 1048,
      "شد": 1049,
      " زندگی": 1050,
      "امی": 1051,
      "قه": 1052,
      "رگ": 1053,
      "‌ای": 1054,
      "طر": 1055,
      "!\n": 1056,
      "ستان": 1057,
      " بخ": 1058,
      " واق": 1059,
      "یچ": 1060,
      "مو": 1061,
      " نظر": 1062,
      " ساز": 1063,
      " راه": 1064,
      "ایت": 1065,
      " داده": 1066,
      " تج": 1067,
      " دانش": 1068,
      " ممکن": 1069,
      " دارند": 1070,
      " سی": 1071,
      " بسیار": 1072,
      "رس": 1073,
      "‌ی": 1074,
      " تص": 1075,
      "گان": 1076,
      " مج": 1077,
      "»\n": 1078,
      " جم": 1079,
      "وش": 1080,
      "دم": 1081,
      " کردن": 1082,
      "انند": 1083,
      " .\n": 1084,
      " گفت": 1085,
      " نیاز": 1086,
      "کان": 1087,
      "زش": 1088,
      "وا": 1089,
      "کار": 1090,
      " اط": 1091,
      " بیشتر": 1092,
      "آن": 1093,
      "اما": 1094,
      "قط": 1095,
      "خواه": 1096,
      "عات": 1097,
      "چنین": 1098,
      "ورت": 1099,
      " بازی": 1100,
      "20": 1101,
      "حی": 1102,
      "ازه": 1103,
      "ارت": 1104,
      " شرکت": 1105,
      " پس": 1106,
      " بزرگ": 1107,
      " جدید": 1108,
      "اک": 1109,
      "شته": 1110,
      "وق": 1111,
      "مند": 1112,
      "غی": 1113,
      " اگر": 1114,
      " آمریک": 1115,
      "تان": 1116,
      "‌شود": 1117,
      " مط": 1118,
      "وید": 1119,
      "صد": 1120,
      "ابر": 1121,
      " بال": 1122,
      "زای": 1123,
      " کس": 1124,
      "er": 1125,
      " کمک": 1126,
      " نام": 1127,
      " دور": 1128,
      " اص": 1129,
      " تواند": 1130,
      "ادر": 1131,
      "سه": 1132,
      "لام": 1133,
      "سان": 1134,
      " کو": 1135,
      "‌کند": 1136,
      " افر": 1137,
      "بان": 1138,
      "شه": 1139,
      " برنامه": 1140,
      " ساخت": 1141,
      "غییر": 1142,
      "جا": 1143,
      " هیچ": 1144,
      " اع": 1145,
      " نشان": 1146,
      " حد": 1147,
      " کل": 1148,
      " شن": 1149,
      "رده": 1150,
      " پای": 1151,
      " مث": 1152,
      " طور": 1153,
      " ماه": 1154,
      " چند": 1155,
      "ره": 1156,
      "لب": 1157,
      " اول": 1158,
      "لف": 1159,
      "یه": 1160,
      " تنها": 1161,
      " تغییر": 1162,
      " نه": 1163,
      "باره": 1164,
      "رائ": 1165,
      "‌گ": 1166,
      "اخ": 1167,
      "ضر": 1168,
      " شوند": 1169,
      " وی": 1170,
      " کنیم": 1171,
      " مردم": 1172,
      " \"": 1173,
      "جاد": 1174,
      " توسط": 1175,
      "ینه": 1176,
      "...\n": 1177,
      " نق": 1178,
      " چیزی": 1179,
      "مت": 1180,
      "اتی": 1181,
      " زن": 1182,
      " قب": 1183,
      "ابل": 1184,
      ".»\n": 1185,
      " واقع": 1186,
      "ستم": 1187,
      " بار": 1188,
      " اد": 1189,
      " آز": 1190,
      " یکی": 1191,
      " ایر": 1192,
      " S": 1193,
      " ایجاد": 1194,
      " زیر": 1195,
      "کت": 1196,
      " جن": 1197,
      "بود": 1198,
      " پرو": 1199,
      " دن": 1200,
      "پس": 1201,
      "‌ده": 1202,
      "in": 1203,
      "ژی": 1204,
      "هایی": 1205,
      " سو": 1206,
      "گونه": 1207,
      " صورت": 1208,
      "ثر": 1209,
      "ونی": 1210,
      " طول": 1211,
      " بیم": 1212,
      " پر": 1213,
      " جهان": 1214,
      "‌اند": 1215,
      "خاب": 1216,
      " باشید": 1217,
      " آموز": 1218,
      "سته": 1219,
      "نه": 1220,
      "ضی": 1221,
      "کس": 1222,
      "سر": 1223,
      " چیز": 1224,
      "مال": 1225,
      " تب": 1226,
      "نج": 1227,
      "دان": 1228,
      "بو": 1229,
      " بل": 1230,
      "ازی": 1231,
      " تمام": 1232,
      "on": 1233,
      " تول": 1234,
      " مص": 1235,
      " دل": 1236,
      "اح": 1237,
      " زمین": 1238,
      "بین": 1239,
      " C": 1240,
      " نش": 1241,
      " فع": 1242,
      " تع": 1243,
      " اینکه": 1244,
      " نس": 1245,
      " مانند": 1246,
      " ارت": 1247,
      " انتخاب": 1248,
      " بیش": 1249,
      "بال": 1250,
      "‌کنند": 1251,
      "رسی": 1252,
      "تاب": 1253,
      "لیل": 1254,
      "ژه": 1255,
      " شر": 1256,
      "اش": 1257,
      "قیق": 1258,
      " اخ": 1259,
      " افراد": 1260,
      "گری": 1261,
      " غیر": 1262,
      "گیری": 1263,
      " ك": 1264,
      "اً": 1265,
      " اطلا": 1266,
      " آمریکا": 1267,
      "زه": 1268,
      "وع": 1269,
      " تق": 1270,
      "an": 1271,
      " فقط": 1272,
      "یلی": 1273,
      "برای": 1274,
      " یاد": 1275,
      "وس": 1276,
      " هن": 1277,
      " رفت": 1278,
      " نم": 1279,
      "بار": 1280,
      " بعد": 1281,
      "زایش": 1282,
      " A": 1283,
      " گرفت": 1284,
      " ث": 1285,
      "ابی": 1286,
      " آی": 1287,
      ":\n": 1288,
      " باشند": 1289,
      "ریق": 1290,
      "مد": 1291,
      " ایران": 1292,
      " خان": 1293,
      "فی": 1294,
      "اط": 1295,
      "دام": 1296,
      " افزایش": 1297,
      "طور": 1298,
      " اش": 1299,
      " درصد": 1300,
      " جای": 1301,
      " نا": 1302,
      " مهم": 1303,
      "مه": 1304,
      " سه": 1305,
      " دول": 1306,
      "گز": 1307,
      " دهید": 1308,
      "لو": 1309,
      "مایش": 1310,
      " همچنین": 1311,
      "ایل": 1312,
      " تولید": 1313,
      " دهند": 1314,
      " مه": 1315,
      " شخص": 1316,
      " کود": 1317,
      "عیت": 1318,
      " ذ": 1319,
      "یدا": 1320,
      " غذ": 1321,
      " ارائ": 1322,
      " مشت": 1323,
      " بگ": 1324,
      " ارائه": 1325,
      "ساس": 1326,
      " مرا": 1327,
      "ئی": 1328,
      " بوده": 1329,
      "یدن": 1330,
      " بسیاری": 1331,
      " آب": 1332,
      " مخت": 1333,
      " میلی": 1334,
      ")\n": 1335,
      " زمانی": 1336,
      " اطلاعات": 1337,
      " بخش": 1338,
      " بن": 1339,
      "دار": 1340,
      " خار": 1341,
      "زینه": 1342,
      " شب": 1343,
      " دوست": 1344,
      "جی": 1345,
      " کتاب": 1346,
      " تش": 1347,
      " فیل": 1348,
      " سیا": 1349,
      "ورد": 1350,
      " حق": 1351,
      " M": 1352,
      " زیادی": 1353,
      " حتی": 1354,
      " بودند": 1355,
      " فعال": 1356,
      " کردند": 1357,
      " توانید": 1358,
      " هایی": 1359,
      " مدیر": 1360,
      "ar": 1361,
      " کنم": 1362,
      "شم": 1363,
      " همان": 1364,
      "ولی": 1365,
      "تما": 1366,
      "اهش": 1367,
      " توجه": 1368,
      " گرفته": 1369,
      "راحی": 1370,
      "۲۰": 1371,
      " مشکل": 1372,
      "‌تواند": 1373,
      " عمل": 1374,
      " همین": 1375,
      " شدن": 1376,
      " حا": 1377,
      "قل": 1378,
      " فرو": 1379,
      "یشه": 1380,
      " شهر": 1381,
      " پیدا": 1382,
      "روع": 1383,
      "19": 1384,
      " فکر": 1385,
      " کسی": 1386,
      " گرو": 1387,
      "وت": 1388,
      " عل": 1389,
      "بط": 1390,
      "اسی": 1391,
      " P": 1392,
      " سازمان": 1393,
      " فرد": 1394,
      "ذیر": 1395,
      "مول": 1396,
      "پی": 1397,
      "00": 1398,
      " نفر": 1399,
      "وص": 1400,
      " مختلف": 1401,
      " برخی": 1402,
      "راه": 1403,
      " بدون": 1404,
      " درباره": 1405,
      " کاهش": 1406,
      "کرد": 1407,
      "ستی": 1408,
      "ینی": 1409,
      "فق": 1410,
      " هد": 1411,
      "لیه": 1412,
      "شما": 1413,
      "یمی": 1414,
      " عم": 1415,
      "روز": 1416,
      " جنگ": 1417,
      " ژ": 1418,
      " قدر": 1419,
      "or": 1420,
      " گروه": 1421,
      " شروع": 1422,
      "الات": 1423,
      " سیستم": 1424,
      "گه": 1425,
      " خر": 1426,
      " اقت": 1427,
      " خانه": 1428,
      "ویی": 1429,
      "رین": 1430,
      " خوب": 1431,
      " دریا": 1432,
      " سا": 1433,
      " آل": 1434,
      " متح": 1435,
      " کام": 1436,
      " دیگری": 1437,
      "ودی": 1438,
      "رکز": 1439,
      " ترک": 1440,
      "سال": 1441,
      " قابل": 1442,
      "جر": 1443,
      " اه": 1444,
      " حس": 1445,
      "بن": 1446,
      "رات": 1447,
      " اقتص": 1448,
      "فا": 1449,
      "باط": 1450,
      "وار": 1451,
      "آیا": 1452,
      " -": 1453,
      " دارید": 1454,
      "عث": 1455,
      " احساس": 1456,
      " درمان": 1457,
      "ثیر": 1458,
      "en": 1459,
      " برد": 1460,
      " ندارد": 1461,
      " گرد": 1462,
      " ایم": 1463,
      " میان": 1464,
      " مطال": 1465,
      "‌تر": 1466,
      "ابراین": 1467,
      " مست": 1468,
      "فاو": 1469,
      "هن": 1470,
      " ور": 1471,
      " B": 1472,
      " کسب": 1473,
      "201": 1474,
      " منط": 1475,
      " دولت": 1476,
      " انسان": 1477,
      " موض": 1478,
      " نز": 1479,
      " “": 1480,
      " صح": 1481,
      "یف": 1482,
      " باعث": 1483,
      " سایت": 1484,
      "اور": 1485,
      " خیلی": 1486,
      "دن": 1487,
      " شک": 1488,
      " منت": 1489,
      " کوچ": 1490,
      " دلیل": 1491,
      "وب": 1492,
      "ائ": 1493,
      " حرف": 1494,
      "‌هایی": 1495,
      "سم": 1496,
      "اپ": 1497,
      " فیلم": 1498,
      "میم": 1499,
      " ارو": 1500,
      "al": 1501,
      "at": 1502,
      " تاری": 1503,
      "لاش": 1504,
      " چگونه": 1505,
      " T": 1506,
      " –": 1507,
      " گذشته": 1508,
      "تو": 1509,
      " مخ": 1510,
      " تجر": 1511,
      " اجتما": 1512,
      "شر": 1513,
      " طریق": 1514,
      " قبل": 1515,
      "صول": 1516,
      " موفق": 1517,
      "ظه": 1518,
      " زبان": 1519,
      " چنین": 1520,
      " روش": 1521,
      " ارتباط": 1522,
      " اق": 1523,
      "هنگ": 1524,
      " توسعه": 1525,
      "افی": 1526,
      "es": 1527,
      " دید": 1528,
      " قدرت": 1529,
      "دود": 1530,
      " اعت": 1531,
      " D": 1532,
      " جهانی": 1533,
      " اروپ": 1534,
      "اطر": 1535,
      "‌آ": 1536,
      " سط": 1537,
      " انگ": 1538,
      "مایه": 1539,
      "‌‌": 1540,
      " دنبال": 1541,
      " خانو": 1542,
      "ندی": 1543,
      " گو": 1544,
      "فاق": 1545,
      "ریان": 1546,
      " خدم": 1547,
      " شامل": 1548,
      " خدا": 1549,
      " مدت": 1550,
      "ویس": 1551,
      " خاص": 1552,
      " علا": 1553,
      " گیر": 1554,
      "عداد": 1555,
      " اصلی": 1556,
      "نت": 1557,
      " بع": 1558,
      " طراحی": 1559,
      " اجتماعی": 1560,
      " آینده": 1561,
      "اسب": 1562,
      " سری": 1563,
      " ض": 1564,
      " اشت": 1565,
      "‌دهد": 1566,
      " تلاش": 1567,
      " احت": 1568,
      " پاس": 1569,
      " بهترین": 1570,
      " قان": 1571,
      " همیشه": 1572,
      " پرد": 1573,
      " چرا": 1574,
      " محصول": 1575,
      "تن": 1576,
      " وق": 1577,
      " کاری": 1578,
      "ایر": 1579,
      "برد": 1580,
      " آر": 1581,
      " وب": 1582,
      " بهتر": 1583,
      " معمول": 1584,
      " بدن": 1585,
      " دریافت": 1586,
      " اتفاق": 1587,
      " اولین": 1588,
      "فاوت": 1589,
      " خواهند": 1590,
      "رم": 1591,
      " I": 1592,
      " نوع": 1593,
      " ادامه": 1594,
      " ترین": 1595,
      " افت": 1596,
      "ضای": 1597,
      " شم": 1598,
      "وست": 1599,
      " عر": 1600,
      " حاضر": 1601,
      " کننده": 1602,
      " نسبت": 1603,
      " خواهید": 1604,
      "زند": 1605,
      "دیل": 1606,
      "انس": 1607,
      " دانشگاه": 1608,
      " دادن": 1609,
      " تأ": 1610,
      " سرمایه": 1611,
      " هنوز": 1612,
      "یب": 1613,
      " تجربه": 1614,
      " خرید": 1615,
      "مللی": 1616,
      "ترل": 1617,
      " حالی": 1618,
      " بگیر": 1619,
      " دارای": 1620,
      " کوچک": 1621,
      " ندار": 1622,
      "تری": 1623,
      " مصرف": 1624,
      "زان": 1625,
      " مالی": 1626,
      "ایط": 1627,
      " فروش": 1628,
      " مسئ": 1629,
      " همراه": 1630,
      "شار": 1631,
      "نان": 1632,
      "کنون": 1633,
      " تصمیم": 1634,
      "اران": 1635,
      " گفته": 1636,
      " اندازه": 1637,
      " منطقه": 1638,
      " رشد": 1639,
      " اب": 1640,
      "گرد": 1641,
      " H": 1642,
      " هنگ": 1643,
      " جز": 1644,
      " وا": 1645,
      " میلیون": 1646,
      " نزدی": 1647,
      " لی": 1648,
      "میت": 1649,
      " ساعت": 1650,
      " آنچه": 1651,
      " خوبی": 1652,
      "تیجه": 1653,
      " نیر": 1654,
      " کامل": 1655,
      " خانواده": 1656,
      " G": 1657,
      "یدی": 1658,
      " حدود": 1659,
      "۱۹": 1660,
      " زنان": 1661,
      " ری": 1662,
      "گران": 1663,
      "لس": 1664,
      " اض": 1665,
      " کنترل": 1666,
      "کو": 1667,
      " بررسی": 1668,
      " :": 1669,
      " داخ": 1670,
      "لاح": 1671,
      " تبدیل": 1672,
      " هفته": 1673,
      " جام": 1674,
      " توانند": 1675,
      "مانی": 1676,
      " شرایط": 1677,
      " بتوان": 1678,
      " تحت": 1679,
      " فعالیت": 1680,
      " بده": 1681,
      " آموزش": 1682,
      "ازم": 1683,
      " تحقیق": 1684,
      "زارش": 1685,
      "‌خواه": 1686,
      " مدر": 1687,
      " کلی": 1688,
      " بالا": 1689,
      " خص": 1690,
      "اهی": 1691,
      " پاسخ": 1692,
      "حال": 1693,
      " هدف": 1694,
      " گی": 1695,
      " آغ": 1696,
      " خطر": 1697,
      "نا": 1698,
      " احتمال": 1699,
      "تا": 1700,
      " ظ": 1701,
      " وارد": 1702,
      "باید": 1703,
      "it": 1704,
      " هزینه": 1705,
      " گست": 1706,
      " طبی": 1707,
      " زیرا": 1708,
      " خاطر": 1709,
      " شه": 1710,
      "ابت": 1711,
      "‌د": 1712,
      "خواست": 1713,
      " مل": 1714,
      " پشت": 1715,
      " صف": 1716,
      " چهار": 1717,
      "حه": 1718,
      " حل": 1719,
      " سطح": 1720,
      " [": 1721,
      " صحبت": 1722,
      " خد": 1723,
      " قط": 1724,
      "ندگان": 1725,
      "le": 1726,
      " دوره": 1727,
      "عنی": 1728,
      " ارزش": 1729,
      " پزش": 1730,
      " بیشتری": 1731,
      " بیماری": 1732,
      " بازار": 1733,
      " خصوص": 1734,
      " هزار": 1735,
      "گاهی": 1736,
      " دلار": 1737,
      " صن": 1738,
      "بران": 1739,
      "خانه": 1740,
      "ic": 1741,
      " وقت": 1742,
      "کاری": 1743,
      " واقعی": 1744,
      " موضوع": 1745,
      "آنها": 1746,
      " هستید": 1747,
      " آغاز": 1748,
      " R": 1749,
      "رژی": 1750,
      " صد": 1751,
      "همچنین": 1752,
      " متحده": 1753,
      " مواد": 1754,
      " نتیجه": 1755,
      " آسی": 1756,
      " برابر": 1757,
      " سب": 1758,
      "غلب": 1759,
      " پنج": 1760,
      "\"\n": 1761,
      " E": 1762,
      " مثال": 1763,
      "بری": 1764,
      "بوط": 1765,
      "گو": 1766,
      " پذیر": 1767,
      " شکل": 1768,
      " جمله": 1769,
      " اجازه": 1770,
      " بلکه": 1771,
      " گزارش": 1772,
      " مدیریت": 1773,
      "قر": 1774,
      " پایان": 1775,
      "‌کرد": 1776,
      "یط": 1777,
      " L": 1778,
      " مربوط": 1779,
      " مغ": 1780,
      " پول": 1781,
      "st": 1782,
      " آورد": 1783,
      " سخ": 1784,
      " ایالات": 1785,
      " سن": 1786,
      " شدند": 1787,
      " نداشت": 1788,
      "بع": 1789,
      " مف": 1790,
      " وض": 1791,
      "بور": 1792,
      " وقتی": 1793,
      "حتی": 1794,
      " آیا": 1795,
      " سف": 1796,
      " خواست": 1797,
      "یره": 1798,
      "ذار": 1799,
      "بته": 1800,
      " کمی": 1801,
      " نمای": 1802,
      " دنیا": 1803,
      " خط": 1804,
      " نبود": 1805,
      " فی": 1806,
      " خوان": 1807,
      " چشم": 1808,
      " اروپا": 1809,
      " طرف": 1810,
      " حمای": 1811,
      "».\n": 1812,
      " F": 1813,
      "اله": 1814,
      "‌شوند": 1815,
      "ضا": 1816,
      " مناسب": 1817,
      "اخته": 1818,
      "زن": 1819,
      "قات": 1820,
      " ابت": 1821,
      "10": 1822,
      "داشت": 1823,
      "ولو": 1824,
      " ته": 1825,
      "ویت": 1826,
      " ولی": 1827,
      " اساس": 1828,
      " کان": 1829,
      "]\n": 1830,
      " تعداد": 1831,
      "قدر": 1832,
      " امکان": 1833,
      "‌ترین": 1834,
      " زمینه": 1835,
      "ایج": 1836,
      " محدود": 1837,
      " دیگران": 1838,
      "شید": 1839,
      " W": 1840,
      " نزدیک": 1841,
      "اقل": 1842,
      " حمایت": 1843,
      " عمو": 1844,
      "رخ": 1845,
      " انرژی": 1846,
      " موجود": 1847,
      "یمت": 1848,
      " سلام": 1849,
      " درست": 1850,
      " سرا": 1851,
      " اقتصادی": 1852,
      " مرت": 1853,
      " بح": 1854,
      " امن": 1855,
      " پروژه": 1856,
      " نگه": 1857,
      " مشخص": 1858,
      " مطالعه": 1859,
      "استان": 1860,
      " مک": 1861,
      " ...\n": 1862,
      " یافت": 1863,
      " شبکه": 1864,
      " اخت": 1865,
      "صل": 1866,
      " مثل": 1867,
      "وقتی": 1868,
      " پیر": 1869,
      "اهای": 1870,
      " خدمات": 1871,
      "خورد": 1872,
      " کافی": 1873,
      " امروز": 1874,
      " داریم": 1875,
      " منظ": 1876,
      " چین": 1877,
      " اغلب": 1878,
      "ریبا": 1879,
      " آخ": 1880,
      " اعلام": 1881,
      ").\n": 1882,
      " جمه": 1883,
      "ئیس": 1884,
      "جوی": 1885,
      " سیاسی": 1886,
      " نخواه": 1887,
      " تاریخ": 1888,
      " ره": 1889,
      " پیشر": 1890,
      " کاملا": 1891,
      " تاثیر": 1892,
      "200": 1893,
      " تیم": 1894,
      " هوا": 1895,
      " شو": 1896,
      " لازم": 1897,
      "وهای": 1898,
      "لاف": 1899,
      " ملی": 1900,
      "همه": 1901,
      "سیه": 1902,
      " ضر": 1903,
      "تح": 1904,
      "شین": 1905,
      "وده": 1906,
      " رابط": 1907,
      " خوش": 1908,
      " خون": 1909,
      " سل": 1910,
      "ro": 1911,
      " سریع": 1912,
      " شخصی": 1913,
      " شوید": 1914,
      "نو": 1915,
      "ظار": 1916,
      "بخ": 1917,
      " توص": 1918,
      "امبر": 1919,
      "کتر": 1920,
      " کردم": 1921,
      " درک": 1922,
      " بهبود": 1923,
      "۰۰": 1924,
      " کسانی": 1925,
      "بل": 1926,
      "‌س": 1927,
      " N": 1928,
      "اتر": 1929,
      " چون": 1930,
      "re": 1931,
      " خواب": 1932,
      "ران": 1933,
      " كه": 1934,
      " جان": 1935,
      " حی": 1936,
      " المللی": 1937,
      " طبیعی": 1938,
      " ساخته": 1939,
      " سایر": 1940,
      " نمایش": 1941,
      " اینجا": 1942,
      " کمتر": 1943,
      " مادر": 1944,
      " دارم": 1945,
      "دیگر": 1946,
      " موارد": 1947,
      "فظ": 1948,
      " جامعه": 1949,
      "اوند": 1950,
      "بنابراین": 1951,
      " آزمایش": 1952,
      "صر": 1953,
      "ابد": 1954,
      " محیط": 1955,
      "ئن": 1956,
      " ساده": 1957,
      " کودکان": 1958,
      " عمومی": 1959,
      " خارج": 1960,
      " قانون": 1961,
      " مرگ": 1962,
      "‌ن": 1963,
      " مذ": 1964,
      "‌توانید": 1965,
      "ویر": 1966,
      "‌ال": 1967,
      " اک": 1968,
      "he": 1969,
      " سفر": 1970,
      " جوان": 1971,
      " کودک": 1972,
      " کنار": 1973,
      " تک": 1974,
      " جو": 1975,
      " اثر": 1976,
      " نکن": 1977,
      " سخت": 1978,
      "ونت": 1979,
      "جو": 1980,
      "ارک": 1981,
      " مان": 1982,
      "رب": 1983,
      " تکن": 1984,
      " لح": 1985,
      " دخ": 1986,
      "۲۰۱": 1987,
      " انتق": 1988,
      " اقدام": 1989,
      "باشد": 1990,
      " نگاه": 1991,
      ")،": 1992,
      " بودن": 1993,
      "راف": 1994,
      " نف": 1995,
      " رسید": 1996,
      " حفظ": 1997,
      " حقوق": 1998,
      " رابطه": 1999,
      " قد": 2000,
      " طر": 2001,
      "کند": 2002,
      " فرص": 2003,
      " بان": 2004,
      "مز": 2005,
      " رنگ": 2006,
      " نقش": 2007,
      "بد": 2008,
      " گونه": 2009,
      " قیمت": 2010,
      "عا": 2011,
      "یز": 2012,
      ".\"\n": 2013,
      " تما": 2014,
      "تق": 2015,
      " حقی": 2016,
      "گیرد": 2017,
      " آماده": 2018,
      "لق": 2019,
      "ویند": 2020,
      "غان": 2021,
      " اید": 2022,
      "ac": 2023,
      " صفحه": 2024,
      " انتظار": 2025,
      " موق": 2026,
      " ست": 2027,
      "الت": 2028,
      "اهده": 2029,
      " رق": 2030,
      "ابه": 2031,
      " مشکلات": 2032,
      "ابع": 2033,
      " موفقیت": 2034,
      " آنجا": 2035,
      " ببین": 2036,
      " پرداخت": 2037,
      " قادر": 2038,
      " روسیه": 2039,
      "مندان": 2040,
      "ion": 2041,
      " ویژه": 2042,
      " سوی": 2043,
      " فرزند": 2044,
      " رفتار": 2045,
      " برس": 2046,
      "خصص": 2047,
      " انگلی": 2048,
      " بدان": 2049,
      " پدر": 2050,
      " حرکت": 2051,
      " هرگز": 2052,
      " دوم": 2053,
      " عو": 2054,
      " همچ": 2055,
      "لم": 2056,
      " دقیق": 2057,
      " هو": 2058,
      " غذایی": 2059,
      " حرفه": 2060,
      " ایده": 2061,
      " رای": 2062,
      "‌توانند": 2063,
      " سیاست": 2064,
      "گار": 2065,
      "آمد": 2066,
      " کشورهای": 2067,
      "ولوژی": 2068,
      " متفاوت": 2069,
      "ندان": 2070,
      "افه": 2071,
      " جلو": 2072,
      "گفت": 2073,
      " یعنی": 2074,
      "اع": 2075,
      " بپ": 2076,
      " تقریبا": 2077,
      " حک": 2078,
      " سراسر": 2079,
      " سرعت": 2080,
      "مع": 2081,
      " مجمو": 2082,
      " خارجی": 2083,
      "چرا": 2084,
      "‌پ": 2085,
      " جست": 2086,
      "بات": 2087,
      " صرف": 2088,
      " دوباره": 2089,
      " سازی": 2090,
      "”\n": 2091,
      " داستان": 2092,
      " حداقل": 2093,
      "om": 2094,
      " دش": 2095,
      " نخ": 2096,
      "باز": 2097,
      "ابط": 2098,
      "el": 2099,
      " گذاری": 2100,
      " هستیم": 2101,
      "کیل": 2102,
      " گذاشت": 2103,
      " جا": 2104,
      " علیه": 2105,
      " شی": 2106,
      "قان": 2107,
      " دستگاه": 2108,
      " آزاد": 2109,
      "ظت": 2110,
      "ظر": 2111,
      "ستگی": 2112,
      " دهه": 2113,
      " عض": 2114,
      " بیان": 2115,
      " هی": 2116,
      " آسیب": 2117,
      "اهم": 2118,
      "وریه": 2119,
      "یکی": 2120,
      " حم": 2121,
      " یافته": 2122,
      " تجاری": 2123,
      " طولانی": 2124,
      " میزان": 2125,
      " افرادی": 2126,
      " آمریکایی": 2127,
      " طی": 2128,
      " کوت": 2129,
      " نت": 2130,
      " زیاد": 2131,
      " خور": 2132,
      "افق": 2133,
      "واره": 2134,
      "ou": 2135,
      "بانی": 2136,
      " ‌": 2137,
      "ing": 2138,
      " حض": 2139,
      " پایین": 2140,
      " نشده": 2141,
      " دیده": 2142,
      " اخیر": 2143,
      " منتشر": 2144,
      " بیر": 2145,
      " مبت": 2146,
      "رش": 2147,
      "البته": 2148,
      " شناخته": 2149,
      " تخ": 2150,
      "جب": 2151,
      "ظیم": 2152,
      " جایی": 2153,
      " دسترسی": 2154,
      "قا": 2155,
      "قیم": 2156,
      "ماد": 2157,
      " رخ": 2158,
      " تف": 2159,
      " پرس": 2160,
      " آمده": 2161,
      " جذ": 2162,
      "قای": 2163,
      " پیشنه": 2164,
      " بیمار": 2165,
      " اینتر": 2166,
      " آنان": 2167,
      " برگ": 2168,
      "باه": 2169,
      "افر": 2170,
      "ایه": 2171,
      "لح": 2172,
      " طب": 2173,
      " مشاهده": 2174,
      "شود": 2175,
      "is": 2176,
      " تل": 2177,
      " تصویر": 2178,
      " امنیت": 2179,
      " باور": 2180,
      " مسیر": 2181,
      " متو": 2182,
      " وضعیت": 2183,
      "امپ": 2184,
      " مکان": 2185,
      "الب": 2186,
      " عملی": 2187,
      " فشار": 2188,
      " معن": 2189,
      "et": 2190,
      "سانی": 2191,
      " بنابراین": 2192,
      " ابزار": 2193,
      " عالی": 2194,
      " معنی": 2195,
      " سپ": 2196,
      " نظامی": 2197,
      "لمان": 2198,
      " مشتریان": 2199,
      " بودم": 2200,
      " بخشی": 2201,
      "ين": 2202,
      " آش": 2203,
      " اضافه": 2204,
      " حمل": 2205,
      " خداوند": 2206,
      "تل": 2207,
      "‌دان": 2208,
      " دقی": 2209,
      " هنگام": 2210,
      "امین": 2211,
      " حضور": 2212,
      " مهارت": 2213,
      "دو": 2214,
      "هیچ": 2215,
      " چیست": 2216,
      " نور": 2217,
      "تش": 2218,
      " آمد": 2219,
      "همان": 2220,
      " عکس": 2221,
      " تلف": 2222,
      " محصولات": 2223,
      " بو": 2224,
      " ساله": 2225,
      " اکنون": 2226,
      " کیف": 2227,
      " شناس": 2228,
      " فرصت": 2229,
      "حله": 2230,
      " رئیس": 2231,
      "ادل": 2232,
      "‌رس": 2233,
      " حقیقت": 2234,
      "انت": 2235,
      "ذاری": 2236,
      "شق": 2237,
      " درخواست": 2238,
      " سنگ": 2239,
      " هنر": 2240,
      " سمت": 2241,
      " نیستند": 2242,
      " گیرد": 2243,
      "ربی": 2244,
      " نباید": 2245,
      " خش": 2246,
      " همکاری": 2247,
      "کنان": 2248,
      " اشاره": 2249,
      " O": 2250,
      "داری": 2251,
      " واقعا": 2252,
      " جنسی": 2253,
      "مح": 2254,
      " هستم": 2255,
      " داشتن": 2256,
      " دختر": 2257,
      " مبار": 2258,
      " استرات": 2259,
      "لاس": 2260,
      "ریم": 2261,
      "ol": 2262,
      " اقتصاد": 2263,
      "تور": 2264,
      " بس": 2265,
      " خورد": 2266,
      " فراهم": 2267,
      " منجر": 2268,
      " دقیقه": 2269,
      " شور": 2270,
      " فرا": 2271,
      "واج": 2272,
      " ثبت": 2273,
      "ائل": 2274,
      "اهد": 2275,
      " داخلی": 2276,
      " جمع": 2277,
      " منابع": 2278,
      "گل": 2279,
      " فران": 2280,
      " U": 2281,
      " خودش": 2282,
      " روشن": 2283,
      " غذا": 2284,
      "افت": 2285,
      "سل": 2286,
      " درد": 2287,
      " توانایی": 2288,
      "وانی": 2289,
      "علا": 2290,
      "am": 2291,
      " معمولا": 2292,
      " شاید": 2293,
      " اسرائ": 2294,
      "ایش": 2295,
      "خیص": 2296,
      " متوجه": 2297,
      "مرد": 2298,
      " بگیرید": 2299,
      "ارس": 2300,
      " مدل": 2301,
      " تمرکز": 2302,
      "ناه": 2303,
      " شغ": 2304,
      "ویم": 2305,
      " محل": 2306,
      " عملکرد": 2307,
      " رسانه": 2308,
      "تم": 2309,
      "ریف": 2310,
      " داشتند": 2311,
      " تشکیل": 2312,
      " حمله": 2313,
      "‌کنم": 2314,
      " مرکز": 2315,
      " خبر": 2316,
      "هایت": 2317,
      " روابط": 2318,
      "‌کنید": 2319,
      " پیشنهاد": 2320,
      "طان": 2321,
      " گوش": 2322,
      " علاقه": 2323,
      "مئن": 2324,
      " خودتان": 2325,
      " نوشت": 2326,
      "بسی": 2327,
      " گیری": 2328,
      "اصله": 2329,
      "صیل": 2330,
      " اشتباه": 2331,
      "50": 2332,
      "ضیح": 2333,
      " تان": 2334,
      " نک": 2335,
      " انگی": 2336,
      " موسی": 2337,
      "۱۰": 2338,
      "‌ام": 2339,
      " نتایج": 2340,
      " باشیم": 2341,
      " ندارند": 2342,
      "il": 2343,
      " بعدی": 2344,
      " اعتماد": 2345,
      " طرح": 2346,
      "مون": 2347,
      " افغان": 2348,
      " حساب": 2349,
      "لاق": 2350,
      " خواهیم": 2351,
      " لذ": 2352,
      " کشت": 2353,
      " اهد": 2354,
      " ترس": 2355,
      "لاین": 2356,
      " توصیه": 2357,
      " صنعت": 2358,
      " اجر": 2359,
      "بح": 2360,
      " دهیم": 2361,
      " جل": 2362,
      " بچه": 2363,
      "میز": 2364,
      " جهت": 2365,
      " مستقیم": 2366,
      "اج": 2367,
      " گرفتن": 2368,
      "حت": 2369,
      " پیام": 2370,
      "واع": 2371,
      "بعد": 2372,
      " تشخیص": 2373,
      " پیشرفت": 2374,
      " استخ": 2375,
      " روند": 2376,
      " رسد": 2377,
      " انگلیسی": 2378,
      " ماند": 2379,
      " باقی": 2380,
      "بیه": 2381,
      "لیغ": 2382,
      " نگر": 2383,
      " وسی": 2384,
      " کال": 2385,
      "عیین": 2386,
      " مشتری": 2387,
      " مها": 2388,
      "خه": 2389,
      " مقدار": 2390,
      " امر": 2391,
      " مجموعه": 2392,
      "الیا": 2393,
      " گسترده": 2394,
      "ژیم": 2395,
      " عب": 2396,
      " دنی": 2397,
      " امید": 2398,
      " هوش": 2399,
      "قب": 2400,
      "وط": 2401,
      " سعی": 2402,
      " اتاق": 2403,
      "as": 2404,
      " پوست": 2405,
      " اتح": 2406,
      " اسل": 2407,
      " کوتاه": 2408,
      " V": 2409,
      " /": 2410,
      "لیس": 2411,
      " بازاری": 2412,
      " تغییرات": 2413,
      " برخورد": 2414,
      " متن": 2415,
      " مرتبط": 2416,
      " ماشین": 2417,
      "ed": 2418,
      " گزینه": 2419,
      "‌گوید": 2420,
      " پوش": 2421,
      " مرحله": 2422,
      " بخواه": 2423,
      "مس": 2424,
      "اول": 2425,
      " نخست": 2426,
      " کدام": 2427,
      "…\n": 2428,
      " نفت": 2429,
      " نوشته": 2430,
      "اصل": 2431,
      "گون": 2432,
      " بسته": 2433,
      " جریان": 2434,
      "‌ر": 2435,
      " بهره": 2436,
      "‌اش": 2437,
      " مشابه": 2438,
      "ad": 2439,
      "سمت": 2440,
      "نم": 2441,
      " سوریه": 2442,
      "لیت": 2443,
      " افز": 2444,
      "مینان": 2445,
      "‌دهند": 2446,
      " بعضی": 2447,
      " تعیین": 2448,
      "امت": 2449,
      " یکدیگر": 2450,
      "راک": 2451,
      " بلند": 2452,
      "oo": 2453,
      "شناس": 2454,
      " بیرون": 2455,
      " فرم": 2456,
      " اسپ": 2457,
      " سوم": 2458,
      " کاربران": 2459,
      " ایشان": 2460,
      "ch": 2461,
      " اجرا": 2462,
      "‌کنیم": 2463,
      " منظور": 2464,
      "ریه": 2465,
      " تمرین": 2466,
      "دواج": 2467,
      " گوید": 2468,
      "برخی": 2469,
      " توضیح": 2470,
      " سخن": 2471,
      "اموش": 2472,
      " یه": 2473,
      " آوری": 2474,
      " آنلاین": 2475,
      "غذ": 2476,
      " نمود": 2477,
      " مدرسه": 2478,
      "ژگی": 2479,
      "ادت": 2480,
      "ادگی": 2481,
      " انقل": 2482,
      "جمه": 2483,
      " میکن": 2484,
      " اولیه": 2485,
      " تبلیغ": 2486,
      " داخل": 2487,
      " وزن": 2488,
      " شدید": 2489,
      "اندارد": 2490,
      " شکست": 2491,
      " دوستان": 2492,
      " نکنید": 2493,
      " اهداف": 2494,
      " مناط": 2495,
      " آزادی": 2496,
      " توافق": 2497,
      " آلمان": 2498,
      " پاک": 2499,
      " محلی": 2500,
      " پزشکی": 2501,
      "ادا": 2502,
      " تهدید": 2503,
      "‌و": 2504,
      " نویس": 2505,
      "زیر": 2506,
      " قوی": 2507,
      " حالت": 2508,
      "شاید": 2509,
      "پیم": 2510,
      "کته": 2511,
      " مغز": 2512,
      " سپس": 2513,
      " سلامت": 2514,
      " جلوگیری": 2515,
      "فه": 2516,
      " رود": 2517,
      "چار": 2518,
      " گل": 2519,
      " محاف": 2520,
      "هنگامی": 2521,
      " اپ": 2522,
      " رژیم": 2523,
      " دری": 2524,
      " درآمد": 2525,
      " سفید": 2526,
      " هسته": 2527,
      "جم": 2528,
      " لذت": 2529,
      " خصوصی": 2530,
      " تای": 2531,
      " آسان": 2532,
      "18": 2533,
      " ظاه": 2534,
      "آم": 2535,
      "راق": 2536,
      " عرض": 2537,
      " بحث": 2538,
      " نخواهد": 2539,
      "انیا": 2540,
      "کرات": 2541,
      "سک": 2542,
      "مق": 2543,
      " جمهوری": 2544,
      " همچنان": 2545,
      " خی": 2546,
      "رفی": 2547,
      " مردان": 2548,
      "۲۰۰": 2549,
      "،\n": 2550,
      "گشت": 2551,
      " سود": 2552,
      " مقام": 2553,
      "چند": 2554,
      "اها": 2555,
      " نرم": 2556,
      "یبانی": 2557,
      " نهایت": 2558,
      "علاوه": 2559,
      " اختی": 2560,
      " سرطان": 2561,
      " میل": 2562,
      "آی": 2563,
      " سالم": 2564,
      " پیچ": 2565,
      "12": 2566,
      "الد": 2567,
      " کیفیت": 2568,
      " افغانستان": 2569,
      " فوق": 2570,
      " مسئله": 2571,
      "سو": 2572,
      " تأثیر": 2573,
      " سلول": 2574,
      "‌تان": 2575,
      " چندین": 2576,
      " فیزی": 2577,
      " کشف": 2578,
      " دادند": 2579,
      " ذهن": 2580,
      "فاع": 2581,
      " مال": 2582,
      " جدا": 2583,
      "مش": 2584,
      " لب": 2585,
      " اهمیت": 2586,
      "ورده": 2587,
      " آور": 2588,
      " استاندارد": 2589,
      " زنده": 2590,
      " دوران": 2591,
      " مطمئن": 2592,
      " اینترنت": 2593,
      "جات": 2594,
      "of": 2595,
      "قطه": 2596,
      " آموزان": 2597,
      "وتر": 2598,
      " کامپی": 2599,
      "‌طور": 2600,
      "خصوص": 2601,
      " اسرائیل": 2602,
      " موسیقی": 2603,
      " ازدواج": 2604,
      " واقعیت": 2605,
      " جدی": 2606,
      " قرن": 2607,
      " جدیدی": 2608,
      " گسترش": 2609,
      " بانک": 2610,
      " فرانسه": 2611,
      "‌بین": 2612,
      " ابتدا": 2613,
      "مر": 2614,
      " نص": 2615,
      "خته": 2616,
      "ریکا": 2617,
      " اعضای": 2618,
      " آرام": 2619,
      " نسخه": 2620,
      "بسیاری": 2621,
      ".”\n": 2622,
      "چی": 2623,
      " تحقیقات": 2624,
      " همسر": 2625,
      " ورزش": 2626,
      " قسمت": 2627,
      " اطمینان": 2628,
      " تجارت": 2629,
      " اوقات": 2630,
      " بندی": 2631,
      " ارسال": 2632,
      " ویر": 2633,
      "وانین": 2634,
      " عشق": 2635,
      " انواع": 2636,
      "جویان": 2637,
      " انتقال": 2638,
      " راست": 2639,
      "سازی": 2640,
      "ژوه": 2641,
      " کی": 2642,
      " مسائل": 2643,
      " خواهم": 2644,
      " کنندگان": 2645,
      " ویژگی": 2646,
      " مناطق": 2647,
      "ابق": 2648,
      "ازد": 2649,
      " بازاریابی": 2650,
      " عد": 2651,
      " نمونه": 2652,
      " تمامی": 2653,
      " مهاجر": 2654,
      " مقاله": 2655,
      " رفتن": 2656,
      " پشتیبانی": 2657,
      " تکنولوژی": 2658,
      "چگونه": 2659,
      " نیم": 2660,
      " کردیم": 2661,
      "‌شد": 2662,
      "دانش": 2663,
      "حل": 2664,
      "30": 2665,
      " تنظیم": 2666,
      "وبی": 2667,
      " یابد": 2668,
      "طرح": 2669,
      " مشترک": 2670,
      " تازه": 2671,
      "ینگ": 2672,
      " نقطه": 2673,
      " موا": 2674,
      " t": 2675,
      " کارهای": 2676,
      " میلیارد": 2677,
      "زمان": 2678,
      "ئو": 2679,
      " فرهنگ": 2680,
      " اختیار": 2681,
      "وزه": 2682,
      " مقابل": 2683,
      " ترکیه": 2684,
      " آخرین": 2685,
      " بهداشت": 2686,
      " مجبور": 2687,
      "روت": 2688,
      "کش": 2689,
      "پر": 2690,
      " انسانی": 2691,
      " خودم": 2692,
      " مبارزه": 2693,
      "زو": 2694,
      "لود": 2695,
      " امنی": 2696,
      " شبیه": 2697,
      " قدیمی": 2698,
      " تماس": 2699,
      " فلس": 2700,
      " صلح": 2701,
      "وسط": 2702,
      "انیه": 2703,
      " کره": 2704,
      " قصد": 2705,
      "تنها": 2706,
      "زب": 2707,
      " استراتژی": 2708,
      " پاد": 2709,
      " ببر": 2710,
      "‌که": 2711,
      " شخصیت": 2712,
      " قلب": 2713,
      "کنش": 2714,
      "ادیه": 2715,
      " بش": 2716,
      " دچار": 2717,
      "ویزی": 2718,
      "ناک": 2719,
      "صه": 2720,
      " بگذار": 2721,
      "15": 2722,
      "جان": 2723,
      " اله": 2724,
      " نشانه": 2725,
      " آتش": 2726,
      " دنیای": 2727,
      "تون": 2728,
      " هند": 2729,
      "iv": 2730,
      " متخصص": 2731,
      " نیروهای": 2732,
      "‌خ": 2733,
      " علمی": 2734,
      " درون": 2735,
      " رسیدن": 2736,
      "and": 2737,
      " عراق": 2738,
      " تحلیل": 2739,
      "ایع": 2740,
      " ساختمان": 2741,
      "مث": 2742,
      " شیر": 2743,
      " دارو": 2744,
      " تض": 2745,
      " هنگامی": 2746,
      " بشر": 2747,
      "زد": 2748,
      "فع": 2749,
      " هواپیم": 2750,
      " موقعیت": 2751,
      "؛\n": 2752,
      " آس": 2753,
      " مقای": 2754,
      " سیاه": 2755,
      " یادگیری": 2756,
      " متع": 2757,
      " امنیتی": 2758,
      " هفت": 2759,
      " آید": 2760,
      " برقر": 2761,
      " گاهی": 2762,
      " سوال": 2763,
      " نداشته": 2764,
      "id": 2765,
      "کم": 2766,
      " مقایسه": 2767,
      "ay": 2768,
      "ایند": 2769,
      " حاصل": 2770,
      " قوانین": 2771,
      " اعمال": 2772,
      " بزر": 2773,
      " K": 2774,
      "نتی": 2775,
      " رسمی": 2776,
      " زود": 2777,
      " درو": 2778,
      "آوری": 2779,
      " دسترس": 2780,
      " مثبت": 2781,
      " مفید": 2782,
      "عهد": 2783,
      " رسیده": 2784,
      " مذا": 2785,
      "‌شان": 2786,
      " معتق": 2787,
      "...": 2788,
      "لال": 2789,
      " عن": 2790,
      " اکثر": 2791,
      "سیم": 2792,
      " پار": 2793,
      "ولیت": 2794,
      " بینی": 2795,
      "ent": 2796,
      "مات": 2797,
      " میتوان": 2798,
      "ورتی": 2799,
      "زیابی": 2800,
      " مراق": 2801,
      "جیت": 2802,
      " ایست": 2803,
      " کانادا": 2804,
      "نگی": 2805,
      " بنی": 2806,
      " فضای": 2807,
      " معرفی": 2808,
      "ققان": 2809,
      "عاده": 2810,
      "لاً": 2811,
      "ویه": 2812,
      " جایگز": 2813,
      " تلفن": 2814,
      " عبارت": 2815,
      " تاب": 2816,
      " موس": 2817,
      " موثر": 2818,
      " نیروی": 2819,
      " ناب": 2820,
      " فض": 2821,
      " تصور": 2822,
      " بازدید": 2823,
      " محتو": 2824,
      "ممکن": 2825,
      " شدت": 2826,
      " اطراف": 2827,
      " فردی": 2828,
      " دستور": 2829,
      " عص": 2830,
      " دهنده": 2831,
      " آدم": 2832,
      " لو": 2833,
      "ومت": 2834,
      "مط": 2835,
      " برند": 2836,
      " جستجو": 2837,
      " تفاوت": 2838,
      "لت": 2839,
      " بمان": 2840,
      " دیجیت": 2841,
      "اشق": 2842,
      " شان": 2843,
      "وزی": 2844,
      " راحتی": 2845,
      " روان": 2846,
      "هنگی": 2847,
      " عمی": 2848,
      " ترکیب": 2849,
      "us": 2850,
      " گردد": 2851,
      "سب": 2852,
      " روزانه": 2853,
      " خاصی": 2854,
      "زمین": 2855,
      " الله": 2856,
      " تلویزی": 2857,
      " خودشان": 2858,
      " گرم": 2859,
      "ig": 2860,
      " وس": 2861,
      " تروری": 2862,
      " ژاپ": 2863,
      "سیس": 2864,
      "روزه": 2865,
      " صبح": 2866,
      " وظ": 2867,
      " دولتی": 2868,
      " لباس": 2869,
      "‌شن": 2870,
      " اسلامی": 2871,
      "زا": 2872,
      " نامه": 2873,
      "ویید": 2874,
      " احتمالا": 2875,
      " صادر": 2876,
      " رفته": 2877,
      " شناسایی": 2878,
      " چقدر": 2879,
      " ضد": 2880,
      " اتحادیه": 2881,
      " وح": 2882,
      " قانونی": 2883,
      " حیوان": 2884,
      "رض": 2885,
      " ذخ": 2886,
      "ot": 2887,
      "هد": 2888,
      " اشتراک": 2889,
      " مسی": 2890,
      " نقل": 2891,
      " گوگل": 2892,
      " بزرگی": 2893,
      " پژوه": 2894,
      " مطرح": 2895,
      "ریب": 2896,
      " تکر": 2897,
      " درجه": 2898,
      " ترامپ": 2899,
      " J": 2900,
      "ئم": 2901,
      " مواجه": 2902,
      " نکرده": 2903,
      "عتی": 2904,
      "ستند": 2905,
      " دوربین": 2906,
      " مراقبت": 2907,
      " عامل": 2908,
      " عضو": 2909,
      " فل": 2910,
      "100": 2911,
      "‌ب": 2912,
      "روف": 2913,
      "ذف": 2914,
      "فقط": 2915,
      " قل": 2916,
      "اویر": 2917,
      " ارزیابی": 2918,
      " جمعیت": 2919,
      " شهرو": 2920,
      " بزرگترین": 2921,
      " آخر": 2922,
      " موجب": 2923,
      " کمپ": 2924,
      " حزب": 2925,
      " فرهنگی": 2926,
      "‌رسد": 2927,
      " سرد": 2928,
      "الش": 2929,
      " بازگشت": 2930,
      "ژن": 2931,
      " افس": 2932,
      "شناسی": 2933,
      " دندان": 2934,
      " خودرو": 2935,
      " مبتلا": 2936,
      " کجا": 2937,
      " شش": 2938,
      " کامپیوتر": 2939,
      " نکرد": 2940,
      "ag": 2941,
      " هدایت": 2942,
      "شتر": 2943,
      "سپس": 2944,
      " برگزار": 2945,
      " ضروری": 2946,
      " ابر": 2947,
      " دمو": 2948,
      " ریا": 2949,
      " متوسط": 2950,
      " پایه": 2951,
      " نار": 2952,
      " هوشمند": 2953,
      " اساسی": 2954,
      " عرب": 2955,
      " منح": 2956,
      " تعریف": 2957,
      " آف": 2958,
      " مشاور": 2959,
      " بارد": 2960,
      " میز": 2961,
      "گردان": 2962,
      " ؟\n": 2963,
      "ابقه": 2964,
      "افع": 2965,
      " لحظه": 2966,
      " جذب": 2967,
      "تص": 2968,
      "ئین": 2969,
      " پرواز": 2970,
      " ثابت": 2971,
      "کید": 2972,
      " دع": 2973,
      " دفاع": 2974,
      " نح": 2975,
      " الکتر": 2976,
      " متر": 2977,
      "وران": 2978,
      " آموزشی": 2979,
      " شمالی": 2980,
      " سبک": 2981,
      " دستی": 2982,
      " )": 2983,
      "‌اید": 2984,
      " جمهور": 2985,
      " خوردن": 2986,
      " تحصیل": 2987,
      " زیب": 2988,
      " عدم": 2989,
      "ur": 2990,
      " موتور": 2991,
      " زیست": 2992,
      " فوت": 2993,
      " امور": 2994,
      " of": 2995,
      " بگیرد": 2996,
      "غال": 2997,
      " فراموش": 2998,
      "میل": 2999,
      " بخوان": 3000,
      "ــ": 3001,
      " کلاس": 3002,
      " استر": 3003,
      " حوزه": 3004,
      " پیچیده": 3005,
      "ناوری": 3006,
      "وریت": 3007,
      " چیزهایی": 3008,
      "لاگ": 3009,
      " حذف": 3010,
      "اوم": 3011,
      "سون": 3012,
      "وح": 3013,
      " نجات": 3014,
      " ورود": 3015,
      "ow": 3016,
      "وقف": 3017,
      " معتقد": 3018,
      " مؤ": 3019,
      " پروت": 3020,
      " گیرند": 3021,
      "199": 3022,
      " کلمه": 3023,
      "لند": 3024,
      " واح": 3025,
      " مدرن": 3026,
      " محافظت": 3027,
      " زده": 3028,
      "کتری": 3029,
      " کلیدی": 3030,
      " انقلاب": 3031,
      "نام": 3032,
      " پست": 3033,
      " پزشک": 3034,
      " فصل": 3035,
      " تمای": 3036,
      " ترتی": 3037,
      " قرآن": 3038,
      " علائم": 3039,
      " مرک": 3040,
      " چطور": 3041,
      " توانیم": 3042,
      " انتخابات": 3043,
      "اظ": 3044,
      " اجرای": 3045,
      " واکنش": 3046,
      "زمانی": 3047,
      "يد": 3048,
      "کسی": 3049,
      "فکر": 3050,
      " چرخ": 3051,
      " بدانید": 3052,
      " ظاهر": 3053,
      "ec": 3054,
      " روح": 3055,
      " مخال": 3056,
      " p": 3057,
      " ثروت": 3058,
      " دانشجویان": 3059,
      "آیند": 3060,
      "۵۰": 3061,
      " کشته": 3062,
      " چالش": 3063,
      " منبع": 3064,
      " کر": 3065,
      " ویت": 3066,
      " عاشق": 3067,
      " فار": 3068,
      " شیمی": 3069,
      " بالای": 3070,
      " بتواند": 3071,
      " بریت": 3072,
      " فایل": 3073,
      " کاربرد": 3074,
      " پسر": 3075,
      "un": 3076,
      " برج": 3077,
      " متوقف": 3078,
      " علت": 3079,
      "‌ع": 3080,
      "16": 3081,
      " معنای": 3082,
      "‌المللی": 3083,
      "خش": 3084,
      " آنکه": 3085,
      " مطالعات": 3086,
      " ملل": 3087,
      " فناوری": 3088,
      " شغل": 3089,
      " اصلاح": 3090,
      "em": 3091,
      " ببینید": 3092,
      " شیوه": 3093,
      " ساختار": 3094,
      "انو": 3095,
      " مسلمان": 3096,
      "شا": 3097,
      " حالا": 3098,
      " آشن": 3099,
      " پا": 3100,
      " قض": 3101,
      " مهمی": 3102,
      " محتوای": 3103,
      " زیبا": 3104,
      " جنوبی": 3105,
      "ut": 3106,
      "‌مان": 3107,
      " شگفت": 3108,
      " گاز": 3109,
      "ستانی": 3110,
      " قرارد": 3111,
      " ناشی": 3112,
      " اختص": 3113,
      " حکومت": 3114,
      "گانه": 3115,
      "‌است": 3116,
      " نگران": 3117,
      " محبو": 3118,
      " رهبری": 3119,
      " فاصله": 3120,
      " ذخیره": 3121,
      " واحد": 3122,
      "ارکت": 3123,
      " منفی": 3124,
      " ستاره": 3125,
      " بزن": 3126,
      " آفریق": 3127,
      " ترتیب": 3128,
      "عده": 3129,
      " مجاز": 3130,
      "کاران": 3131,
      "ابان": 3132,
      " کشورها": 3133,
      " جایگزین": 3134,
      "دری": 3135,
      " دیدن": 3136,
      " تست": 3137,
      "11": 3138,
      " امریکا": 3139,
      " محت": 3140,
      "نمی": 3141,
      "شک": 3142,
      " ماهی": 3143,
      " St": 3144,
      " آورده": 3145,
      "زم": 3146,
      "‌گیر": 3147,
      " درمانی": 3148,
      "قاد": 3149,
      " کارت": 3150,
      " رقابت": 3151,
      " خشونت": 3152,
      " فرمان": 3153,
      "مردم": 3154,
      "امید": 3155,
      " باشم": 3156,
      " عمیق": 3157,
      "نش": 3158,
      "احت": 3159,
      " ارتش": 3160,
      " مسئول": 3161,
      "اولین": 3162,
      " خواندن": 3163,
      " هوایی": 3164,
      " آقای": 3165,
      " روید": 3166,
      "40": 3167,
      "‌گذاری": 3168,
      " دائ": 3169,
      "ation": 3170,
      " ایت": 3171,
      "ماز": 3172,
      " تصاویر": 3173,
      "راج": 3174,
      " عرضه": 3175,
      "ers": 3176,
      " برداشت": 3177,
      " گویند": 3178,
      " قاب": 3179,
      "الدین": 3180,
      " معرض": 3181,
      " ارشد": 3182,
      "حات": 3183,
      "ساز": 3184,
      " بک": 3185,
      " نیازهای": 3186,
      " بالاتر": 3187,
      " قطع": 3188,
      "لات": 3189,
      "ینک": 3190,
      " وسیله": 3191,
      " s": 3192,
      "بازی": 3193,
      " افزار": 3194,
      " تاریخی": 3195,
      "13": 3196,
      "im": 3197,
      " پلیس": 3198,
      " جزئی": 3199,
      "ادهای": 3200,
      " خدمت": 3201,
      " لیست": 3202,
      "گذار": 3203,
      "ولت": 3204,
      " پرداز": 3205,
      " نوز": 3206,
      " قبلی": 3207,
      " عمر": 3208,
      " مسئولیت": 3209,
      " صدای": 3210,
      " ماده": 3211,
      " امام": 3212,
      " نهایی": 3213,
      " بیماران": 3214,
      "روش": 3215,
      " مز": 3216,
      "ظهار": 3217,
      "ورش": 3218,
      " دشمن": 3219,
      " استرس": 3220,
      " عف": 3221,
      " شدم": 3222,
      " نگرانی": 3223,
      "ap": 3224,
      "‌باشد": 3225,
      " تکرار": 3226,
      "اشی": 3227,
      "ژیک": 3228,
      " اقدامات": 3229,
      " برسد": 3230,
      " سرویس": 3231,
      " تقویت": 3232,
      " صورتی": 3233,
      "‌ایم": 3234,
      " مهند": 3235,
      " وزیر": 3236,
      "وله": 3237,
      " بگیرند": 3238,
      "مرکز": 3239,
      " زدن": 3240,
      "‌شده": 3241,
      " دیجیتال": 3242,
      " مرز": 3243,
      "حالا": 3244,
      " سع": 3245,
      " فهم": 3246,
      " مشغ": 3247,
      "داران": 3248,
      " دیدگاه": 3249,
      " رشته": 3250,
      "ir": 3251,
      " آگاه": 3252,
      " اختصاص": 3253,
      "ایان": 3254,
      " ذکر": 3255,
      " ظرف": 3256,
      " عوامل": 3257,
      "سا": 3258,
      " مرکزی": 3259,
      " محبوب": 3260,
      " احتر": 3261,
      " افتاد": 3262,
      " برادر": 3263,
      " مانده": 3264,
      " دکتر": 3265,
      "ستر": 3266,
      " ایمیل": 3267,
      " کاملاً": 3268,
      " فیزیکی": 3269,
      "ویش": 3270,
      " کاربر": 3271,
      " هشت": 3272,
      "بعضی": 3273,
      " دشوار": 3274,
      " سلاح": 3275,
      " فرآیند": 3276,
      "عیف": 3277,
      " تهیه": 3278,
      "داد": 3279,
      "گذ": 3280,
      " معمولاً": 3281,
      " ریزی": 3282,
      "چون": 3283,
      "شنبه": 3284,
      "کرو": 3285,
      "اصر": 3286,
      " شماره": 3287,
      " :\n": 3288,
      " پارک": 3289,
      "برنامه": 3290,
      " مجد": 3291,
      "وف": 3292,
      "شدار": 3293,
      " زد": 3294,
      "سیون": 3295,
      "لط": 3296,
      " رد": 3297,
      " علم": 3298,
      "قیه": 3299,
      " ایرانی": 3300,
      " اطلاعاتی": 3301,
      " نصب": 3302,
      " قدم": 3303,
      " مستقل": 3304,
      " پژوهش": 3305,
      "وک": 3306,
      " خواسته": 3307,
      "‌گیرد": 3308,
      "ستن": 3309,
      " اظهار": 3310,
      " خلق": 3311,
      " مختلفی": 3312,
      " عملیات": 3313,
      "خود": 3314,
      " نکته": 3315,
      " اسلام": 3316,
      " زندان": 3317,
      "ورک": 3318,
      "‌کردند": 3319,
      " c": 3320,
      "نس": 3321,
      " شا": 3322,
      " خودمان": 3323,
      " غربی": 3324,
      " قبول": 3325,
      "oc": 3326,
      " In": 3327,
      " آوردن": 3328,
      " جشن": 3329,
      " موضو": 3330,
      " پوشش": 3331,
      ".[": 3332,
      "اض": 3333,
      " خلاق": 3334,
      " نخستین": 3335,
      " سالگی": 3336,
      " مشارکت": 3337,
      " رایگان": 3338,
      " تور": 3339,
      " کارکنان": 3340,
      " وعده": 3341,
      " تقسیم": 3342,
      " فرزندان": 3343,
      " عوض": 3344,
      " مشغول": 3345,
      "رت": 3346,
      "غن": 3347,
      "میر": 3348,
      " آشکار": 3349,
      " بند": 3350,
      " کیل": 3351,
      " شع": 3352,
      " قدرتمند": 3353,
      " منحصر": 3354,
      "اکنون": 3355,
      " سق": 3356,
      "اندن": 3357,
      " البته": 3358,
      "یعنی": 3359,
      "‌کننده": 3360,
      "ریت": 3361,
      " برقرار": 3362,
      " گذاشته": 3363,
      "شب": 3364,
      " نتوان": 3365,
      " نباشد": 3366,
      " متحد": 3367,
      "‌گذ": 3368,
      " مي": 3369,
      " میشود": 3370,
      "زارت": 3371,
      " ملا": 3372,
      " حفا": 3373,
      "کره": 3374,
      " سلامتی": 3375,
      " کشتی": 3376,
      " اکت": 3377,
      " چینی": 3378,
      " نسل": 3379,
      " لحاظ": 3380,
      "بیر": 3381,
      " مزای": 3382,
      " احساسات": 3383,
      " نفس": 3384,
      "۳۰": 3385,
      " اروپایی": 3386,
      "استفاده": 3387,
      " حیوانات": 3388,
      " The": 3389,
      " تایید": 3390,
      " مسافر": 3391,
      " دروغ": 3392,
      " همواره": 3393,
      " کشاور": 3394,
      " علوم": 3395,
      " جواب": 3396,
      "مار": 3397,
      "انگی": 3398,
      " دسته": 3399,
      "ul": 3400,
      " صند": 3401,
      " واب": 3402,
      " دهم": 3403,
      "بش": 3404,
      " نوشتن": 3405,
      "رانی": 3406,
      "جهیز": 3407,
      "هره": 3408,
      " العاده": 3409,
      "ویق": 3410,
      "ادث": 3411,
      "فتر": 3412,
      "سلام": 3413,
      "شرکت": 3414,
      "کلی": 3415,
      " کف": 3416,
      " فعلی": 3417,
      " اعتقاد": 3418,
      " مذه": 3419,
      " وزارت": 3420,
      "خیلی": 3421,
      " اداره": 3422,
      " اقامت": 3423,
      " قابلیت": 3424,
      "ماری": 3425,
      " کد": 3426,
      "بیل": 3427,
      " ژو": 3428,
      " بحران": 3429,
      "کری": 3430,
      " صاح": 3431,
      " نمایند": 3432,
      " تلویزیون": 3433,
      "گن": 3434,
      " نشد": 3435,
      " انتشار": 3436,
      " نماید": 3437,
      " مای": 3438,
      " اعتر": 3439,
      "گونگی": 3440,
      "17": 3441,
      "دست": 3442,
      " نرخ": 3443,
      " محدودیت": 3444,
      " صنعتی": 3445,
      " جالب": 3446,
      "‌گیری": 3447,
      " هتل": 3448,
      "ونا": 3449,
      " داشتم": 3450,
      " ژاپن": 3451,
      " راحت": 3452,
      " ممن": 3453,
      " جراحی": 3454,
      "بیشتر": 3455,
      "احبه": 3456,
      " گردش": 3457,
      " علی": 3458,
      " جد": 3459,
      "طی": 3460,
      " میکند": 3461,
      " تضمین": 3462,
      " انگیز": 3463,
      "۱۵": 3464,
      " برق": 3465,
      " m": 3466,
      "کا": 3467,
      "عدادی": 3468,
      " افزود": 3469,
      " گوشی": 3470,
      " کلمات": 3471,
      "‌سازی": 3472,
      " طبق": 3473,
      " ”": 3474,
      "25": 3475,
      "راح": 3476,
      " مقر": 3477,
      "باری": 3478,
      "دس": 3479,
      " اين": 3480,
      " زیبایی": 3481,
      " مب": 3482,
      " هشدار": 3483,
      "بهترین": 3484,
      " غرب": 3485,
      "اگرچه": 3486,
      " مار": 3487,
      " نظام": 3488,
      " داری": 3489,
      "um": 3490,
      " پناه": 3491,
      " راهی": 3492,
      " شیمیایی": 3493,
      "60": 3494,
      " عادی": 3495,
      "ریزی": 3496,
      " ناپ": 3497,
      "گذاری": 3498,
      "لاک": 3499,
      " روزنامه": 3500,
      " بدهید": 3501,
      "جایی": 3502,
      " سگ": 3503,
      " خرو": 3504,
      " منتقل": 3505,
      "ter": 3506,
      "بز": 3507,
      " سازد": 3508,
      " خورشید": 3509,
      " طبقه": 3510,
      "‌رو": 3511,
      "طب": 3512,
      " شمال": 3513,
      " منافع": 3514,
      " پیاده": 3515,
      " واقعاً": 3516,
      " شمار": 3517,
      " استرالیا": 3518,
      " والدین": 3519,
      "تمام": 3520,
      "تحان": 3521,
      "یدم": 3522,
      " نظارت": 3523,
      " احترام": 3524,
      "os": 3525,
      " خاک": 3526,
      "بخش": 3527,
      " میده": 3528,
      " انج": 3529,
      "فانه": 3530,
      " گران": 3531,
      " بدست": 3532,
      " کوه": 3533,
      " قربانی": 3534,
      " دام": 3535,
      " درس": 3536,
      " گذار": 3537,
      " ي": 3538,
      " میدان": 3539,
      " مکانی": 3540,
      " فن": 3541,
      "حیه": 3542,
      " مقامات": 3543,
      " تحریم": 3544,
      " سبز": 3545,
      "روی": 3546,
      " گفتند": 3547,
      " تس": 3548,
      "شاه": 3549,
      "مب": 3550,
      "‌عنوان": 3551,
      "امروز": 3552,
      " قه": 3553,
      "قق": 3554,
      " بای": 3555,
      " تجهیز": 3556,
      "رافی": 3557,
      " پیشرفته": 3558,
      " رنج": 3559,
      " نیازمند": 3560,
      " تولد": 3561,
      "od": 3562,
      "‌داد": 3563,
      " امیدوار": 3564,
      " بریتانیا": 3565,
      " اث": 3566,
      " فرست": 3567,
      " حفاظت": 3568,
      " جلسه": 3569,
      " تری": 3570,
      "ولد": 3571,
      " بودجه": 3572,
      " بتوانند": 3573,
      " آپ": 3574,
      " یون": 3575,
      "‌توانیم": 3576,
      "‌گویند": 3577,
      " تمایل": 3578,
      "زل": 3579,
      "‌گر": 3580,
      " آگاهی": 3581,
      " پو": 3582,
      " امتحان": 3583,
      " جنوب": 3584,
      "گزاری": 3585,
      " تبلیغات": 3586,
      " علاوه": 3587,
      "14": 3588,
      "۱۲": 3589,
      " رانند": 3590,
      " ایمنی": 3591,
      "ess": 3592,
      " شاهد": 3593,
      " خیر": 3594,
      " عجی": 3595,
      " متصل": 3596,
      "سین": 3597,
      "وتی": 3598,
      " چاپ": 3599,
      "‌آید": 3600,
      " دلایل": 3601,
      "ia": 3602,
      "‌گرد": 3603,
      " ارز": 3604,
      "حیح": 3605,
      "‌خواهد": 3606,
      "صورت": 3607,
      " نبا": 3608,
      " عقب": 3609,
      " چگونگی": 3610,
      " بف": 3611,
      " تامین": 3612,
      "ردگی": 3613,
      " پل": 3614,
      "‌رود": 3615,
      " قهوه": 3616,
      "چسب": 3617,
      " دین": 3618,
      " دقت": 3619,
      " ترجی": 3620,
      " باره": 3621,
      " ایمان": 3622,
      "هدف": 3623,
      "جای": 3624,
      " تعط": 3625,
      "یفه": 3626,
      " بیمارستان": 3627,
      " دریایی": 3628,
      " فلسط": 3629,
      "گوی": 3630,
      "راسی": 3631,
      " محققان": 3632,
      " نقاط": 3633,
      " فق": 3634,
      " درخت": 3635,
      "ویل": 3636,
      " دادگاه": 3637,
      "تناب": 3638,
      " نگهداری": 3639,
      " خوشحال": 3640,
      " توصیف": 3641,
      " کارها": 3642,
      " دانشمندان": 3643,
      "همانطور": 3644,
      " تخصص": 3645,
      " کنی": 3646,
      " فیس": 3647,
      " جذاب": 3648,
      "؟!\n": 3649,
      "کود": 3650,
      "۱۸": 3651,
      " فرود": 3652,
      "000": 3653,
      " شهری": 3654,
      " نامیده": 3655,
      " عربستان": 3656,
      "جوان": 3657,
      " معت": 3658,
      " صحنه": 3659,
      "تبه": 3660,
      " دا": 3661,
      " مصاحبه": 3662,
      " بردن": 3663,
      " بودیم": 3664,
      " منتظر": 3665,
      " اتفاقی": 3666,
      " محس": 3667,
      " دعوت": 3668,
      "مج": 3669,
      "یسی": 3670,
      " بستگی": 3671,
      " مخصوص": 3672,
      " پاید": 3673,
      "یمان": 3674,
      "نوعی": 3675,
      "گانی": 3676,
      " مایل": 3677,
      " نوعی": 3678,
      " توانست": 3679,
      "اومت": 3680,
      " انداز": 3681,
      " پنه": 3682,
      " افتد": 3683,
      " نویسنده": 3684,
      " عبور": 3685,
      " خانم": 3686,
      " شویم": 3687,
      "کال": 3688,
      "۱۰۰": 3689,
      " ملاقات": 3690,
      "»،": 3691,
      " رادی": 3692,
      "عکس": 3693,
      " بهتری": 3694,
      " طوری": 3695,
      "مولی": 3696,
      "آنچه": 3697,
      " آسمان": 3698,
      "انجام": 3699,
      " بروید": 3700,
      "ابله": 3701,
      "ضرت": 3702,
      " عفونت": 3703,
      " تعهد": 3704,
      " مخاط": 3705,
      " رهبران": 3706,
      "غذیه": 3707,
      "ارهای": 3708,
      " حملات": 3709,
      " یهودی": 3710,
      " میلادی": 3711,
      "خار": 3712,
      "ضح": 3713,
      "گین": 3714,
      " دفتر": 3715,
      " استاد": 3716,
      " الهی": 3717,
      " نحوه": 3718,
      " نوزاد": 3719,
      "جع": 3720,
      " سین": 3721,
      " خلا": 3722,
      " اوایل": 3723,
      " مفه": 3724,
      " شاه": 3725,
      " وید": 3726,
      "امله": 3727,
      " جایزه": 3728,
      " انگل": 3729,
      " فروشگاه": 3730,
      " طبیعت": 3731,
      " مهاجرت": 3732,
      "بزرگ": 3733,
      " بروز": 3734,
      "198": 3735,
      " قرارداد": 3736,
      " بید": 3737,
      " اصل": 3738,
      " بگذ": 3739,
      "داک": 3740,
      " حاف": 3741,
      "ویورک": 3742,
      " برخوردار": 3743,
      " مام": 3744,
      " آفر": 3745,
      " اضافی": 3746,
      " کارگران": 3747,
      "تامبر": 3748,
      "مهم": 3749,
      " فضا": 3750,
      " جنبه": 3751,
      " هزاران": 3752,
      " مگر": 3753,
      "انویه": 3754,
      " شماست": 3755,
      " سرزمین": 3756,
      "جد": 3757,
      " سوخت": 3758,
      " افتاده": 3759,
      " مطلب": 3760,
      "th": 3761,
      "شند": 3762,
      " عق": 3763,
      "فرانس": 3764,
      "مدت": 3765,
      " توجهی": 3766,
      " وبلاگ": 3767,
      " فرض": 3768,
      " بتوانید": 3769,
      " f": 3770,
      "عف": 3771,
      "واق": 3772,
      "ایم": 3773,
      " مقابله": 3774,
      "مالی": 3775,
      "پار": 3776,
      "پیش": 3777,
      " شغلی": 3778,
      " متمرکز": 3779,
      " بدهد": 3780,
      " گیاه": 3781,
      " رتبه": 3782,
      " ادعا": 3783,
      " قلبی": 3784,
      " برنده": 3785,
      " ثانیه": 3786,
      " اضطر": 3787,
      "سن": 3788,
      " درگیر": 3789,
      " توانم": 3790,
      " بگویید": 3791,
      " تشویق": 3792,
      " شف": 3793,
      " فنی": 3794,
      " چپ": 3795,
      " صدا": 3796,
      " اندازی": 3797,
      " ارتباطات": 3798,
      " جزیره": 3799,
      "‌خواهید": 3800,
      " سختی": 3801,
      " سعودی": 3802,
      " عه": 3803,
      " روزی": 3804,
      " گروهی": 3805,
      "ab": 3806,
      " پدید": 3807,
      "زیع": 3808,
      " مداوم": 3809,
      "\".\n": 3810,
      "ثار": 3811,
      "رداز": 3812,
      "ce": 3813,
      " درستی": 3814,
      " حر": 3815,
      " اهل": 3816,
      " خریداری": 3817,
      " کانال": 3818,
      " رهبر": 3819,
      " ویتامین": 3820,
      " آشنا": 3821,
      " X": 3822,
      "صیلی": 3823,
      " رح": 3824,
      " اینها": 3825,
      " مشه": 3826,
      " دانم": 3827,
      " مخالف": 3828,
      " بکن": 3829,
      " گام": 3830,
      " طل": 3831,
      " فرایند": 3832,
      " معمولی": 3833,
      "نز": 3834,
      " روغن": 3835,
      " گذشت": 3836,
      " بزرگتر": 3837,
      "24": 3838,
      "یدند": 3839,
      " آبی": 3840,
      " روست": 3841,
      " اجتناب": 3842,
      " عهده": 3843,
      "زیه": 3844,
      " خطرناک": 3845,
      " تکنیک": 3846,
      "ژانس": 3847,
      " معروف": 3848,
      " مقاومت": 3849,
      " بخور": 3850,
      " نیمه": 3851,
      "هی": 3852,
      " بقیه": 3853,
      " سرگر": 3854,
      " تعطیل": 3855,
      "برو": 3856,
      " هیجان": 3857,
      " d": 3858,
      " پخش": 3859,
      " فراتر": 3860,
      "هران": 3861,
      " بگویم": 3862,
      "وذ": 3863,
      " کری": 3864,
      " ترجمه": 3865,
      " چربی": 3866,
      " اصول": 3867,
      "op": 3868,
      "ساخت": 3869,
      " ناد": 3870,
      " سای": 3871,
      " قرمز": 3872,
      " سپتامبر": 3873,
      "سور": 3874,
      " دیر": 3875,
      " تئ": 3876,
      " حو": 3877,
      " قهر": 3878,
      " سابق": 3879,
      " خویش": 3880,
      "چیزی": 3881,
      " شهروندان": 3882,
      " ترجیح": 3883,
      " !\n": 3884,
      " رها": 3885,
      " گناه": 3886,
      " عادت": 3887,
      "راحت": 3888,
      " بگذارید": 3889,
      "گاری": 3890,
      "یس": 3891,
      "‌ف": 3892,
      " برآ": 3893,
      "فرم": 3894,
      "نظ": 3895,
      " یافتن": 3896,
      " بخوانید": 3897,
      " زندانی": 3898,
      "av": 3899,
      " عین": 3900,
      " نیویورک": 3901,
      " بیت": 3902,
      " الان": 3903,
      "خد": 3904,
      "لاقی": 3905,
      " پیروزی": 3906,
      "حالی": 3907,
      "ایق": 3908,
      " انگیزه": 3909,
      " محسوب": 3910,
      " لط": 3911,
      " کلید": 3912,
      " قبلا": 3913,
      " حاوی": 3914,
      "درس": 3915,
      "اختی": 3916,
      " بارداری": 3917,
      " ارد": 3918,
      " اور": 3919,
      " برده": 3920,
      " تجهیزات": 3921,
      "ئت": 3922,
      " جع": 3923,
      " آزمون": 3924,
      " تقریباً": 3925,
      " پنهان": 3926,
      " رض": 3927,
      "همی": 3928,
      "عم": 3929,
      "وال": 3930,
      " مبل": 3931,
      " رست": 3932,
      " تغذیه": 3933,
      " خاور": 3934,
      "اتیک": 3935,
      " تاکید": 3936,
      " اون": 3937,
      " مى": 3938,
      " ول": 3939,
      " نده": 3940,
      " كن": 3941,
      " نظریه": 3942,
      "فاوتی": 3943,
      " Y": 3944,
      " رویکرد": 3945,
      " ژن": 3946,
      "حدود": 3947,
      " سرباز": 3948,
      "داکثر": 3949,
      "‌خواست": 3950,
      " استان": 3951,
      " ملت": 3952,
      "غم": 3953,
      "ندن": 3954,
      " صحیح": 3955,
      " سیاره": 3956,
      " انگلستان": 3957,
      " کردید": 3958,
      " نیرو": 3959,
      "کراسی": 3960,
      "‌برد": 3961,
      " توزیع": 3962,
      " تقا": 3963,
      " .": 3964,
      " پذیرش": 3965,
      "عمل": 3966,
      "کده": 3967,
      " ریسک": 3968,
      "قابل": 3969,
      "پرس": 3970,
      " متعد": 3971,
      " b": 3972,
      " مزایای": 3973,
      " سک": 3974,
      " ساح": 3975,
      " چیزهای": 3976,
      "ئید": 3977,
      "فیل": 3978,
      " محک": 3979,
      " تنهایی": 3980,
      " پرورش": 3981,
      " مالیات": 3982,
      " تعدادی": 3983,
      "ورو": 3984,
      " تاکنون": 3985,
      " امپ": 3986,
      "کتاب": 3987,
      " جنبش": 3988,
      "ri": 3989,
      "قوه": 3990,
      " کا": 3991,
      " هماه": 3992,
      "کننده": 3993,
      " باغ": 3994,
      " اختلال": 3995,
      " بخواهید": 3996,
      " جزئیات": 3997,
      "ادق": 3998,
      "بیش": 3999,
      " جستجوی": 4000,
      "ومی": 4001,
      "نگتن": 4002,
      " مبتنی": 4003,
      " محتوا": 4004,
      " چهره": 4005,
      " امتی": 4006,
      " مرور": 4007,
      "‌پذیر": 4008,
      "آور": 4009,
      "الم": 4010,
      " فرار": 4011,
      " وظیفه": 4012,
      " لینک": 4013,
      " مدیران": 4014,
      " سفار": 4015,
      " ابتد": 4016,
      " افسردگی": 4017,
      "باب": 4018,
      "همین": 4019,
      " ورز": 4020,
      " خیابان": 4021,
      " فوتبال": 4022,
      " حافظه": 4023,
      " دس": 4024,
      "امات": 4025,
      " پیوند": 4026,
      "اورد": 4027,
      "دانلود": 4028,
      " اطلاع": 4029,
      " دقیقا": 4030,
      " فضایی": 4031,
      " بطور": 4032,
      "ادار": 4033,
      " فدر": 4034,
      " کارآ": 4035,
      " اختلاف": 4036,
      "رافیک": 4037,
      " بهداشتی": 4038,
      " مذاکره": 4039,
      "پزش": 4040,
      " واش": 4041,
      " رز": 4042,
      " رمز": 4043,
      " چش": 4044,
      " بیشترین": 4045,
      " شناخت": 4046,
      " مراحل": 4047,
      " قتل": 4048,
      "بیات": 4049,
      " کلیک": 4050,
      " نات": 4051,
      " اعتبار": 4052,
      " ضعیف": 4053,
      " نمایید": 4054,
      " لا": 4055,
      "طه": 4056,
      " گم": 4057,
      "ویسی": 4058,
      " لغ": 4059,
      " بازداشت": 4060,
      " بپرس": 4061,
      " ببرید": 4062,
      " حاک": 4063,
      " پرسش": 4064,
      " پن": 4065,
      "ریح": 4066,
      " بیمه": 4067,
      " عک": 4068,
      "دهی": 4069,
      " بالقوه": 4070,
      " پاکستان": 4071,
      " معامله": 4072,
      "اوت": 4073,
      " دانند": 4074,
      " اتص": 4075,
      " ندارید": 4076,
      " نبوده": 4077,
      " ‏": 4078,
      "طلاح": 4079,
      " کمتری": 4080,
      " مالک": 4081,
      " ممنوع": 4082,
      "چیز": 4083,
      "وییم": 4084,
      "خیر": 4085,
      "ذی": 4086,
      " مهر": 4087,
      " تاسیس": 4088,
      " امسال": 4089,
      " مجوز": 4090,
      " سوء": 4091,
      "ity": 4092,
      " نفوذ": 4093,
      "ack": 4094,
      "کز": 4095,
      " زم": 4096,
      " دیوار": 4097,
      " اتوم": 4098,
      " استخدام": 4099,
      " »": 4100,
      " فرمود": 4101,
      " انجمن": 4102,
      " سند": 4103,
      " سام": 4104,
      "طرف": 4105,
      " گرفتند": 4106,
      "ظاه": 4107,
      " مند": 4108,
      " نادر": 4109,
      " تجزیه": 4110,
      " بزرگسال": 4111,
      " مصر": 4112,
      " خانگی": 4113,
      " سنتی": 4114,
      " پروتئین": 4115,
      "میانه": 4116,
      "خواب": 4117,
      " تخم": 4118,
      " ایتالیا": 4119,
      " پایدار": 4120,
      "روم": 4121,
      " بیاور": 4122,
      " ارزان": 4123,
      " عجیب": 4124,
      "gle": 4125,
      "og": 4126,
      " سؤ": 4127,
      " اخلاقی": 4128,
      "نوشت": 4129,
      " ,": 4130,
      "یید": 4131,
      " لندن": 4132,
      " موضوعات": 4133,
      " رانندگی": 4134,
      "ew": 4135,
      " تز": 4136,
      " مساله": 4137,
      "اعت": 4138,
      "گویی": 4139,
      " عرو": 4140,
      " افکار": 4141,
      " موقع": 4142,
      "همیشه": 4143,
      " برتر": 4144,
      " وابسته": 4145,
      " سنت": 4146,
      " روزهای": 4147,
      " گذر": 4148,
      " مسیح": 4149,
      " آثار": 4150,
      " برجسته": 4151,
      " میوه": 4152,
      " یخ": 4153,
      " جس": 4154,
      " جاده": 4155,
      " دیدار": 4156,
      "چرخ": 4157,
      " کنفرانس": 4158,
      " تحمل": 4159,
      " ندارم": 4160,
      " امضا": 4161,
      " فرانس": 4162,
      " تعامل": 4163,
      " تکمیل": 4164,
      "؟»\n": 4165,
      "لوم": 4166,
      " برمی": 4167,
      " سقوط": 4168,
      " کارهایی": 4169,
      " ماست": 4170,
      " فارغ": 4171,
      " مذهبی": 4172,
      "نمای": 4173,
      " تمیز": 4174,
      " برگرد": 4175,
      "بیند": 4176,
      " دانید": 4177,
      "شناسان": 4178,
      "‌بینی": 4179,
      " دارایی": 4180,
      " بدتر": 4181,
      " واضح": 4182,
      "بله": 4183,
      "سای": 4184,
      "کات": 4185,
      " تهران": 4186,
      " شای": 4187,
      " سان": 4188,
      " انع": 4189,
      " موب": 4190,
      " نزدیکی": 4191,
      " کشاورزی": 4192,
      " اکتبر": 4193,
      "زده": 4194,
      "۱۳": 4195,
      " دم": 4196,
      "ard": 4197,
      " تفکر": 4198,
      "دولت": 4199,
      " باد": 4200,
      " نیازی": 4201,
      " نموده": 4202,
      " میکنند": 4203,
      "ra": 4204,
      " نماز": 4205,
      " فهر": 4206,
      " بازسازی": 4207,
      " گفتن": 4208,
      "اخر": 4209,
      " دستیابی": 4210,
      " نژ": 4211,
      " زودی": 4212,
      " سالانه": 4213,
      "لافاصله": 4214,
      " مشهور": 4215,
      " خاورمیانه": 4216,
      "وپ": 4217,
      " کارگر": 4218,
      "شای": 4219,
      " حتما": 4220,
      " ناگه": 4221,
      " سهام": 4222,
      " جاری": 4223,
      " چهارم": 4224,
      " سخنرانی": 4225,
      " بیدار": 4226,
      " داو": 4227,
      " ویدی": 4228,
      "اریس": 4229,
      " نقشه": 4230,
      " گوشت": 4231,
      "‌خواهم": 4232,
      "بدون": 4233,
      "oogle": 4234,
      " مناس": 4235,
      " امروزه": 4236,
      " کیلوم": 4237,
      " شرک": 4238,
      " حداکثر": 4239,
      "اسا": 4240,
      " اثرات": 4241,
      " مانع": 4242,
      " امتیاز": 4243,
      "خر": 4244,
      "خدا": 4245,
      "نظر": 4246,
      "وره": 4247,
      " تأیید": 4248,
      " مفهوم": 4249,
      " شانس": 4250,
      " چنان": 4251,
      " حیات": 4252,
      " نابود": 4253,
      "طبق": 4254,
      " همانند": 4255,
      " همزمان": 4256,
      " صادق": 4257,
      " اصلا": 4258,
      "تحصیل": 4259,
      " شورای": 4260,
      " بهشت": 4261,
      "معمول": 4262,
      "غل": 4263,
      " بدی": 4264,
      " تحصیلی": 4265,
      " مصنوعی": 4266,
      " ترکی": 4267,
      " مذاکرات": 4268,
      " اسم": 4269,
      "‌گیرند": 4270,
      " تدری": 4271,
      "اهیم": 4272,
      " آلمانی": 4273,
      " ریشه": 4274,
      " نیمی": 4275,
      " آمیز": 4276,
      " کارخانه": 4277,
      "197": 4278,
      "‌دانند": 4279,
      " همچون": 4280,
      " ویروس": 4281,
      "مانند": 4282,
      " ساختن": 4283,
      "قلال": 4284,
      " واشنگتن": 4285,
      "حق": 4286,
      "مام": 4287,
      " مول": 4288,
      " مارس": 4289,
      " خشک": 4290,
      " عدد": 4291,
      " دموکرات": 4292,
      "80": 4293,
      "ob": 4294,
      "فس": 4295,
      " صبر": 4296,
      "ونیکی": 4297,
      " حضرت": 4298,
      " معنا": 4299,
      " جایگاه": 4300,
      " هویت": 4301,
      " كرد": 4302,
      "‌خواهند": 4303,
      " ـ": 4304,
      " تیر": 4305,
      " پایگاه": 4306,
      "نمایی": 4307,
      " رضایت": 4308,
      "جعه": 4309,
      "انده": 4310,
      " بازیکن": 4311,
      " مشاوره": 4312,
      " مهندسی": 4313,
      "جاست": 4314,
      "وسی": 4315,
      " سرک": 4316,
      " گفتم": 4317,
      " بساز": 4318,
      " اجرایی": 4319,
      " دسامبر": 4320,
      " کمبود": 4321,
      "ظهور": 4322,
      "فل": 4323,
      " کلا": 4324,
      " یاب": 4325,
      " رویداد": 4326,
      " i": 4327,
      " معماری": 4328,
      "اکثر": 4329,
      " موسسه": 4330,
      " موزه": 4331,
      " غر": 4332,
      " سنگین": 4333,
      " شاد": 4334,
      " دهان": 4335,
      " نوجوان": 4336,
      "۱۹۹": 4337,
      " هواپیما": 4338,
      " کارشناسی": 4339,
      " فرانسوی": 4340,
      " شرقی": 4341,
      " ژانویه": 4342,
      " نداریم": 4343,
      "امروزه": 4344,
      " احتی": 4345,
      "اقع": 4346,
      " متقا": 4347,
      " تابستان": 4348,
      " بزنید": 4349,
      "!!\n": 4350,
      ".)\n": 4351,
      " آهنگ": 4352,
      " معتبر": 4353,
      " ایالت": 4354,
      " تحقیقاتی": 4355,
      " هور": 4356,
      " روبرو": 4357,
      " نوشید": 4358,
      " همانطور": 4359,
      " اپل": 4360,
      " الکترونیکی": 4361,
      "up": 4362,
      " مدارس": 4363,
      " نوامبر": 4364,
      " دهندگان": 4365,
      " افتخار": 4366,
      "ive": 4367,
      "‌جمه": 4368,
      "انگ": 4369,
      "لیلی": 4370,
      " کارمندان": 4371,
      " مراجعه": 4372,
      "all": 4373,
      " سبب": 4374,
      "!»\n": 4375,
      "­‌": 4376,
      " شریک": 4377,
      "est": 4378,
      " وحشت": 4379,
      " پردازش": 4380,
      "سایت": 4381,
      " حجم": 4382,
      " بارها": 4383,
      " خالی": 4384,
      " طراح": 4385,
      " گفتگو": 4386,
      "نجی": 4387,
      "میته": 4388,
      " محکوم": 4389,
      "جنگ": 4390,
      " اواخر": 4391,
      " ترد": 4392,
      " خال": 4393,
      " اولویت": 4394,
      " عمده": 4395,
      " انگلیس": 4396,
      " مجدد": 4397,
      " ژوئن": 4398,
      "ایف": 4399,
      " An": 4400,
      " سطوح": 4401,
      " موبایل": 4402,
      "اي": 4403,
      "حد": 4404,
      " آزار": 4405,
      " کشوری": 4406,
      " انگشت": 4407,
      "دنی": 4408,
      "شو": 4409,
      "قبل": 4410,
      "۴۰": 4411,
      " کات": 4412,
      " یکسان": 4413,
      "هنی": 4414,
      " ترا": 4415,
      " عزی": 4416,
      " مدتی": 4417,
      " مقدس": 4418,
      " عذ": 4419,
      "کنندگان": 4420,
      " معی": 4421,
      " پرونده": 4422,
      " مراسم": 4423,
      "لین": 4424,
      "مپ": 4425,
      " […": 4426,
      "خوان": 4427,
      " سادگی": 4428,
      "ویب": 4429,
      "کنند": 4430,
      " ورزشی": 4431,
      "if": 4432,
      "‌اف": 4433,
      " دف": 4434,
      " ون": 4435,
      " تسل": 4436,
      " خل": 4437,
      " عناصر": 4438,
      " عصبی": 4439,
      "مطال": 4440,
      "ct": 4441,
      "ov": 4442,
      "ناد": 4443,
      " استقلال": 4444,
      " جلب": 4445,
      "ine": 4446,
      " صفحات": 4447,
      " فهرست": 4448,
      "بیت": 4449,
      " آهن": 4450,
      "art": 4451,
      "90": 4452,
      "باما": 4453,
      " آدرس": 4454,
      "زندگی": 4455,
      " the": 4456,
      " بلافاصله": 4457,
      "یری": 4458,
      " قالب": 4459,
      " شنیده": 4460,
      " نقاشی": 4461,
      " ارزشمند": 4462,
      " کاربردی": 4463,
      " نادیده": 4464,
      " and": 4465,
      " بور": 4466,
      " جر": 4467,
      " همکاران": 4468,
      " اصطلاح": 4469,
      " غذاهای": 4470,
      " نزد": 4471,
      " منظم": 4472,
      "‌شناس": 4473,
      " رستوران": 4474,
      " جرم": 4475,
      " قا": 4476,
      "تیک": 4477,
      "‌توانم": 4478,
      "ate": 4479,
      " مخفی": 4480,
      " احتمالاً": 4481,
      "ex": 4482,
      " طلا": 4483,
      " زنج": 4484,
      " خواستار": 4485,
      "کیه": 4486,
      " اعتراض": 4487,
      " خسته": 4488,
      " پاریس": 4489,
      " سیگار": 4490,
      " تصاد": 4491,
      " مجلس": 4492,
      " Ch": 4493,
      " ارتباطی": 4494,
      " متعلق": 4495,
      "وقی": 4496,
      " تون": 4497,
      " آمار": 4498,
      " سوئ": 4499,
      " آرامش": 4500,
      " پادشاه": 4501,
      " شفاف": 4502,
      "‌افت": 4503,
      " سرور": 4504,
      " دانست": 4505,
      " بازیکنان": 4506,
      "پاس": 4507,
      " […]\n": 4508,
      "ub": 4509,
      " گاه": 4510,
      " متولد": 4511,
      " بازگرد": 4512,
      " حکم": 4513,
      "بند": 4514,
      "رار": 4515,
      " ناخ": 4516,
      " سوز": 4517,
      " جاد": 4518,
      " زخ": 4519,
      " هستی": 4520,
      "توجه": 4521,
      " پنجره": 4522,
      " روانی": 4523,
      " عیسی": 4524,
      " شهرهای": 4525,
      " خدای": 4526,
      " هوای": 4527,
      " عصر": 4528,
      " مسابقه": 4529,
      " هنری": 4530,
      "غیر": 4531,
      "پل": 4532,
      " داند": 4533,
      "اردی": 4534,
      " تصویب": 4535,
      " بالایی": 4536,
      " جنگل": 4537,
      " ایستگاه": 4538,
      " صاحب": 4539,
      "ak": 4540,
      "ast": 4541,
      "‌جا": 4542,
      " بافت": 4543,
      " طال": 4544,
      "زیک": 4545,
      " دادم": 4546,
      "بوک": 4547,
      " نشست": 4548,
      "مدیر": 4549,
      "‌آور": 4550,
      " اتصال": 4551,
      "وگر": 4552,
      " خشم": 4553,
      "انیایی": 4554,
      " آمو": 4555,
      "زر": 4556,
      " آژانس": 4557,
      " باشگاه": 4558,
      "دیه": 4559,
      " مشکلی": 4560,
      " صدها": 4561,
      " اسپانیا": 4562,
      " آفریقا": 4563,
      "مور": 4564,
      "چین": 4565,
      " پان": 4566,
      " عظیم": 4567,
      " بگوید": 4568,
      " جوانان": 4569,
      " مجازات": 4570,
      "صاب": 4571,
      "‌ت": 4572,
      "ایید": 4573,
      " شار": 4574,
      " کتابخانه": 4575,
      " عدالت": 4576,
      " دموکراسی": 4577,
      " اثبات": 4578,
      "۱۱": 4579,
      " توی": 4580,
      " شوم": 4581,
      " غنی": 4582,
      "عدام": 4583,
      " طیف": 4584,
      " متفاوتی": 4585,
      "‌کنندگان": 4586,
      " وسایل": 4587,
      "ht": 4588,
      "یاد": 4589,
      " ترافیک": 4590,
      " چای": 4591,
      " چار": 4592,
      " دانیم": 4593,
      " نشود": 4594,
      " خروج": 4595,
      "واری": 4596,
      " ماج": 4597,
      "جویی": 4598,
      "سیستم": 4599,
      " تحویل": 4600,
      " خارجه": 4601,
      " صنایع": 4602,
      " داروهای": 4603,
      " ریاست": 4604,
      " ...": 4605,
      "اکی": 4606,
      "طاف": 4607,
      "ارات": 4608,
      " کشید": 4609,
      " دانلود": 4610,
      " پزشکان": 4611,
      " مکمل": 4612,
      " دائمی": 4613,
      " »\n": 4614,
      " نر": 4615,
      " خورده": 4616,
      " نهاد": 4617,
      " شرق": 4618,
      "اسیون": 4619,
      "‌بر": 4620,
      "‌تری": 4621,
      " هرگونه": 4622,
      "‌‌‌‌": 4623,
      "ord": 4624,
      " ابتلا": 4625,
      " بماند": 4626,
      " شیط": 4627,
      " برود": 4628,
      " منطقی": 4629,
      " خانوادگی": 4630,
      " ترکیبی": 4631,
      " …\n": 4632,
      "دل": 4633,
      " بیانیه": 4634,
      " تحول": 4635,
      "مورد": 4636,
      "انوس": 4637,
      " چک": 4638,
      " تحریک": 4639,
      " مجله": 4640,
      " ارتقا": 4641,
      " انتقاد": 4642,
      "ell": 4643,
      " انقلابی": 4644,
      " w": 4645,
      "آز": 4646,
      " موشک": 4647,
      " کشیدن": 4648,
      " مربی": 4649,
      " بالات": 4650,
      " حقوقی": 4651,
      "آر": 4652,
      "شیدی": 4653,
      "گره": 4654,
      " تأمین": 4655,
      " نوشیدنی": 4656,
      "۱۴": 4657,
      " دک": 4658,
      " برچسب": 4659,
      " یك": 4660,
      "اساس": 4661,
      " ورودی": 4662,
      " خوانده": 4663,
      "ادثه": 4664,
      "شوند": 4665,
      " خرد": 4666,
      " باتری": 4667,
      " محیطی": 4668,
      "70": 4669,
      " جور": 4670,
      " پرست": 4671,
      " چیزها": 4672,
      " کوچکی": 4673,
      " عربی": 4674,
      " ظرفیت": 4675,
      " بیست": 4676,
      " نیستم": 4677,
      " بنا": 4678,
      " آشپ": 4679,
      " متخصصان": 4680,
      "مثل": 4681,
      "سات": 4682,
      "وج": 4683,
      " پیامبر": 4684,
      " رساند": 4685,
      " ناحیه": 4686,
      " بنویس": 4687,
      " مجموع": 4688,
      " کاغذ": 4689,
      "‌دار": 4690,
      " مسیحی": 4691,
      "ev": 4692,
      "غام": 4693,
      "کام": 4694,
      " تی": 4695,
      " استراتژیک": 4696,
      "com": 4697,
      "ورا": 4698,
      " کشیده": 4699,
      " آیند": 4700,
      " اعدام": 4701,
      " بدین": 4702,
      " اختر": 4703,
      " مراکز": 4704,
      " احتمالی": 4705,
      " صادرات": 4706,
      "پلم": 4707,
      " \"\n": 4708,
      " جانبی": 4709,
      " صندلی": 4710,
      "گا": 4711,
      " بگیریم": 4712,
      "جز": 4713,
      "چنان": 4714,
      " هرک": 4715,
      "گروه": 4716,
      "مانه": 4717,
      " Google": 4718,
      "‌دانم": 4719,
      " دختران": 4720,
      " ریاضی": 4721,
      "ip": 4722,
      " کمپانی": 4723,
      " پلا": 4724,
      " کودکی": 4725,
      "انگیز": 4726,
      "OS": 4727,
      "ey": 4728,
      "‌‏": 4729,
      " استراحت": 4730,
      " پولی": 4731,
      " کاربری": 4732,
      " سریال": 4733,
      " شرایطی": 4734,
      "افراد": 4735,
      " ثروتمند": 4736,
      " قهرمان": 4737,
      " سهم": 4738,
      " توق": 4739,
      " غذای": 4740,
      " ­": 4741,
      "پدر": 4742,
      " نبرد": 4743,
      "ادن": 4744,
      "روزی": 4745,
      " التحصیل": 4746,
      " گذارد": 4747,
      "محققان": 4748,
      "۶۰": 4749,
      " داشتیم": 4750,
      "عیتی": 4751,
      " تعادل": 4752,
      " مناسبی": 4753,
      " بله": 4754,
      "ستیک": 4755,
      "196": 4756,
      "‌خواهیم": 4757,
      " میتواند": 4758,
      " وظایف": 4759,
      " اذ": 4760,
      " روزه": 4761,
      " نوآوری": 4762,
      " نقض": 4763,
      "وارض": 4764,
      " خورشیدی": 4765,
      " مسلمانان": 4766,
      "‌گردد": 4767,
      "22": 4768,
      "NA": 4769,
      "ist": 4770,
      "ایده": 4771,
      " فری": 4772,
      "لیک": 4773,
      "لیکی": 4774,
      " اکث": 4775,
      " تروریستی": 4776,
      "آقای": 4777,
      "سف": 4778,
      "اوز": 4779,
      " جامع": 4780,
      " پاداش": 4781,
      " بمب": 4782,
      " باکتری": 4783,
      "ازگی": 4784,
      " منزل": 4785,
      " معامل": 4786,
      "‌کردم": 4787,
      " برگشت": 4788,
      "‌بندی": 4789,
      " in": 4790,
      "ثی": 4791,
      " رایج": 4792,
      "یدان": 4793,
      "سیل": 4794,
      " Pro": 4795,
      "طلب": 4796,
      " اقی": 4797,
      " دیابت": 4798,
      " اتو": 4799,
      " ویند": 4800,
      " صرفه": 4801,
      " فرودگاه": 4802,
      " انعطاف": 4803,
      "وایی": 4804,
      " قلم": 4805,
      " بیند": 4806,
      " مرغ": 4807,
      "ریکایی": 4808,
      " دانشکده": 4809,
      " طالبان": 4810,
      "يت": 4811,
      "کشی": 4812,
      " راضی": 4813,
      " حادثه": 4814,
      " شوروی": 4815,
      "گنال": 4816,
      " خلاف": 4817,
      " آسیا": 4818,
      " بگذارد": 4819,
      "لز": 4820,
      " نوش": 4821,
      " استث": 4822,
      " نظیر": 4823,
      " پذیرفته": 4824,
      "تقریبا": 4825,
      " چرخه": 4826,
      "احتمال": 4827,
      "اون": 4828,
      "اسبه": 4829,
      " الکتری": 4830,
      "‌گفت": 4831,
      " نمایشگاه": 4832,
      "زیرا": 4833,
      " بفهم": 4834,
      " وام": 4835,
      " آمدن": 4836,
      " فدرال": 4837,
      " سیم": 4838,
      " آیه": 4839,
      " گرس": 4840,
      " نیستید": 4841,
      " ذهنی": 4842,
      " آورند": 4843,
      " ظهور": 4844,
      " سابقه": 4845,
      " آیت": 4846,
      " لایه": 4847,
      " کمونی": 4848,
      " تجدید": 4849,
      " ژنتی": 4850,
      " مدرک": 4851,
      "ودگی": 4852,
      " حساس": 4853,
      "ّت": 4854,
      "۲۵": 4855,
      "کراین": 4856,
      " شناسی": 4857,
      " گردید": 4858,
      " وضع": 4859,
      " کمپین": 4860,
      "روید": 4861,
      " راهنمایی": 4862,
      " سوالات": 4863,
      "بوس": 4864,
      "لوب": 4865,
      "خداوند": 4866,
      " اوباما": 4867,
      "‌گذار": 4868,
      "فاعی": 4869,
      " معتقدند": 4870,
      "امیدوار": 4871,
      " ویندوز": 4872,
      " کاخ": 4873,
      " حرک": 4874,
      " واژه": 4875,
      "‌داند": 4876,
      " ابزارهای": 4877,
      " بزرگسالان": 4878,
      "eb": 4879,
      " شکن": 4880,
      "املی": 4881,
      "لامت": 4882,
      " فیلتر": 4883,
      " شوهر": 4884,
      "21": 4885,
      "داستان": 4886,
      " مارک": 4887,
      " موش": 4888,
      " دیدم": 4889,
      " جداگانه": 4890,
      " آفت": 4891,
      "دهم": 4892,
      " دومین": 4893,
      " تعجب": 4894,
      " قطعا": 4895,
      "تحقیق": 4896,
      "ill": 4897,
      " کشد": 4898,
      "الیایی": 4899,
      " بازنش": 4900,
      "500": 4901,
      "دوست": 4902,
      " قول": 4903,
      " تعطیلات": 4904,
      " محمد": 4905,
      " لبخ": 4906,
      "‌توانست": 4907,
      "اخره": 4908,
      " نژاد": 4909,
      "مره": 4910,
      " وجه": 4911,
      " شکر": 4912,
      "ماس": 4913,
      " خودکار": 4914,
      " آمریکای": 4915,
      " برداری": 4916,
      "پرو": 4917,
      " هدیه": 4918,
      " دراز": 4919,
      " قی": 4920,
      " اینترنتی": 4921,
      " …": 4922,
      "صرف": 4923,
      " داع": 4924,
      " کمیته": 4925,
      " خام": 4926,
      " خبری": 4927,
      " مجازی": 4928,
      " رقم": 4929,
      "بیم": 4930,
      "خا": 4931,
      "طبی": 4932,
      "پذیر": 4933,
      " میکرو": 4934,
      "ort": 4935,
      " مخدر": 4936,
      " پذیری": 4937,
      " Z": 4938,
      "حس": 4939,
      "طل": 4940,
      "الله": 4941,
      "۱۹۸": 4942,
      "فیلم": 4943,
      " کیلومتر": 4944,
      " رفع": 4945,
      "قیاس": 4946,
      " روزها": 4947,
      " مردی": 4948,
      " پیروی": 4949,
      "‌دانیم": 4950,
      " سؤال": 4951,
      "تع": 4952,
      "تعداد": 4953,
      "نکته": 4954,
      " واس": 4955,
      " عوارض": 4956,
      "ونگ": 4957,
      " موقت": 4958,
      "افقت": 4959,
      "ang": 4960,
      "عایت": 4961,
      "‌ریزی": 4962,
      " برگزاری": 4963,
      " کنگره": 4964,
      "‌گونه": 4965,
      " جنگی": 4966,
      " اخبار": 4967,
      "۱۹۷": 4968,
      "سیر": 4969,
      " ادر": 4970,
      " ماد": 4971,
      " جی": 4972,
      " دیپلم": 4973,
      " دستگیر": 4974,
      " وقوع": 4975,
      " تکامل": 4976,
      " نفع": 4977,
      " تبلیغاتی": 4978,
      " الهام": 4979,
      " کفش": 4980,
      "لیکیشن": 4981,
      "ندگی": 4982,
      " میر": 4983,
      " گشت": 4984,
      " خواهان": 4985,
      "بخشی": 4986,
      "فج": 4987,
      "يم": 4988,
      " مرده": 4989,
      " شنبه": 4990,
      "ایشان": 4991,
      " محاسبه": 4992,
      " سیگنال": 4993,
      "ect": 4994,
      "وانه": 4995,
      " متهم": 4996,
      " مداخ": 4997,
      " شاخص": 4998,
      " اضطراب": 4999,
      "سری": 5000,
      "درست": 5001,
      "ant": 5002,
      " کارآفر": 5003,
      "خبر": 5004,
      "گفته": 5005,
      " براساس": 5006,
      " بیاید": 5007,
      " خطوط": 5008,
      " نخواهند": 5009,
      " بانکی": 5010,
      " سفارش": 5011,
      "­های": 5012,
      "آخ": 5013,
      " مور": 5014,
      " اندکی": 5015,
      "لسات": 5016,
      " میدهد": 5017,
      ".»": 5018,
      "وقت": 5019,
      "ير": 5020,
      " وف": 5021,
      " بدهند": 5022,
      " فرصتی": 5023,
      " بخواهد": 5024,
      "خاص": 5025,
      " فوری": 5026,
      " کنونی": 5027,
      "202": 5028,
      "BA": 5029,
      "شور": 5030,
      " دعا": 5031,
      " ران": 5032,
      " راز": 5033,
      "اسفانه": 5034,
      " متعهد": 5035,
      "تواند": 5036,
      " مهمان": 5037,
      " بپرداز": 5038,
      " ماندن": 5039,
      " کالج": 5040,
      " کاب": 5041,
      " یورو": 5042,
      " حدی": 5043,
      " تشکر": 5044,
      "مشکل": 5045,
      " قضاوت": 5046,
      " عکاسی": 5047,
      " داعش": 5048,
      "؟؟": 5049,
      "لر": 5050,
      "یش": 5051,
      "۱۶": 5052,
      " اوکراین": 5053,
      "خوش": 5054,
      " احس": 5055,
      " امکانات": 5056,
      " فلسفه": 5057,
      " مقررات": 5058,
      "ost": 5059,
      "زاده": 5060,
      "فرد": 5061,
      "نک": 5062,
      "برگ": 5063,
      " فردا": 5064,
      " باردار": 5065,
      " تئوری": 5066,
      " الکتریکی": 5067,
      "IS": 5068,
      "تغییر": 5069,
      "۱۷": 5070,
      "اهایی": 5071,
      " جغ": 5072,
      "ولین": 5073,
      " اوست": 5074,
      " ادع": 5075,
      "ep": 5076,
      "سعی": 5077,
      "”.\n": 5078,
      " اکس": 5079,
      " مسلح": 5080,
      "‌آورد": 5081,
      " حیاتی": 5082,
      " دامنه": 5083,
      "(ع": 5084,
      " بدانند": 5085,
      " مقدم": 5086,
      " مهمترین": 5087,
      " ضعف": 5088,
      " نماینده": 5089,
      " رایانه": 5090,
      " زودتر": 5091,
      "،‌": 5092,
      "زین": 5093,
      "ماً": 5094,
      " موافقت": 5095,
      " نقد": 5096,
      " بدهی": 5097,
      " آزمایشگاه": 5098,
      " ببینند": 5099,
      " بوک": 5100,
      " مبلغ": 5101,
      " ندهید": 5102,
      " حج": 5103,
      " معلم": 5104,
      " مطابق": 5105,
      " ایمن": 5106,
      " دانشگاهی": 5107,
      " اتحاد": 5108,
      "سازمان": 5109,
      "پاسخ": 5110,
      " میخواه": 5111,
      " انح": 5112,
      "ind": 5113,
      " مقیاس": 5114,
      " رون": 5115,
      " شادی": 5116,
      "میلی": 5117,
      "چرخه": 5118,
      "خاذ": 5119,
      "تب": 5120,
      " استع": 5121,
      " روزمره": 5122,
      " غیره": 5123,
      " لبخند": 5124,
      "نق": 5125,
      " درگیری": 5126,
      " نگاهی": 5127,
      " استخوان": 5128,
      " اتومبیل": 5129,
      "آب": 5130,
      "چوب": 5131,
      "کول": 5132,
      " تازگی": 5133,
      " سینه": 5134,
      " دوستی": 5135,
      "ایران": 5136,
      "our": 5137,
      " تردید": 5138,
      " اقیانوس": 5139,
      " ببرد": 5140,
      " رعایت": 5141,
      " راجع": 5142,
      "التی": 5143,
      "فرمای": 5144,
      "ارتمان": 5145,
      " یادآوری": 5146,
      "23": 5147,
      "eg": 5148,
      "اغلب": 5149,
      "سایه": 5150,
      " الی": 5151,
      " مری": 5152,
      " رمان": 5153,
      " استق": 5154,
      "امع": 5155,
      " زا": 5156,
      "ویز": 5157,
      " معادل": 5158,
      " سرنوشت": 5159,
      " اتخاذ": 5160,
      "ایتخت": 5161,
      " لغو": 5162,
      "موز": 5163,
      "انم": 5164,
      " عقل": 5165,
      " لبن": 5166,
      "هنوز": 5167,
      " تأکید": 5168,
      "آخرین": 5169,
      " باری": 5170,
      " دمای": 5171,
      " ناه": 5172,
      "ابتی": 5173,
      "....": 5174,
      " تماشا": 5175,
      " سرکوب": 5176,
      "300": 5177,
      " فس": 5178,
      " حین": 5179,
      " موهای": 5180,
      " سرخ": 5181,
      " غل": 5182,
      " انداخت": 5183,
      " نظرات": 5184,
      " ضربه": 5185,
      "فعال": 5186,
      " احساسی": 5187,
      "دلال": 5188,
      " فال": 5189,
      " پیوست": 5190,
      " گربه": 5191,
      " نمایندگان": 5192,
      "آموز": 5193,
      " تحصیلات": 5194,
      " بپرسید": 5195,
      "ue": 5196,
      " پلت": 5197,
      " مدار": 5198,
      " الز": 5199,
      "ont": 5200,
      " دلاری": 5201,
      " خراب": 5202,
      " آلودگی": 5203,
      " آوریل": 5204,
      " بنیاد": 5205,
      "‌افتد": 5206,
      " له": 5207,
      " ببیند": 5208,
      " مأ": 5209,
      " جلسات": 5210,
      "فتن": 5211,
      " روشی": 5212,
      " Sp": 5213,
      " آلوده": 5214,
      " مطالب": 5215,
      " حلقه": 5216,
      " مؤثر": 5217,
      "‎های": 5218,
      " آلب": 5219,
      " دادیم": 5220,
      " Bl": 5221,
      "28": 5222,
      "ستری": 5223,
      " گری": 5224,
      " آنتی": 5225,
      " الکل": 5226,
      " ثبات": 5227,
      "‌دانید": 5228,
      " کلاسی": 5229,
      "‌زن": 5230,
      "ینو": 5231,
      " کنون": 5232,
      " مواردی": 5233,
      " کارمند": 5234,
      " الگو": 5235,
      " تحقق": 5236,
      "‌کار": 5237,
      " زمینی": 5238,
      "۱۹۶": 5239,
      " قطعه": 5240,
      " ببینیم": 5241,
      " اپلیکیشن": 5242,
      " ناراحت": 5243,
      " فلسطینی": 5244,
      " ساحل": 5245,
      " بکار": 5246,
      "194": 5247,
      " شواهد": 5248,
      " Un": 5249,
      " ابراز": 5250,
      " خلاصه": 5251,
      "برا": 5252,
      "صف": 5253,
      "ایمان": 5254,
      " فقر": 5255,
      " Sh": 5256,
      " شکلی": 5257,
      "ابداری": 5258,
      " جلوی": 5259,
      " اردو": 5260,
      " چشمان": 5261,
      " بهینه": 5262,
      " دوز": 5263,
      " نشسته": 5264,
      "اطلا": 5265,
      " تفسیر": 5266,
      " استانداردهای": 5267,
      "خب": 5268,
      "ماه": 5269,
      "نویس": 5270,
      "العمل": 5271,
      " یو": 5272,
      " فوریه": 5273,
      " همگی": 5274,
      "درباره": 5275,
      "احتی": 5276,
      " بردار": 5277,
      " خواند": 5278,
      "خلاف": 5279,
      "شهر": 5280,
      "كن": 5281,
      " سئو": 5282,
      " آه": 5283,
      " عاط": 5284,
      "ترس": 5285,
      " شدیم": 5286,
      " شکایت": 5287,
      "ضاع": 5288,
      "‌­": 5289,
      " محدوده": 5290,
      " تزریق": 5291,
      " شیطان": 5292,
      " n": 5293,
      "رئیس": 5294,
      " دون": 5295,
      " استعداد": 5296,
      "ونیک": 5297,
      "دانشگاه": 5298,
      " برقراری": 5299,
      " تروریسم": 5300,
      " جعبه": 5301,
      "ud": 5302,
      " تخت": 5303,
      " تظاه": 5304,
      " نکند": 5305,
      " زنی": 5306,
      " غم": 5307,
      "ومه": 5308,
      " سازنده": 5309,
      " شرح": 5310,
      " رییس": 5311,
      " هنرمند": 5312,
      "ته": 5313,
      " ردی": 5314,
      " علامت": 5315,
      " مشا": 5316,
      " ماهواره": 5317,
      " ضبط": 5318,
      "‌جمهور": 5319,
      " اي": 5320,
      " توپ": 5321,
      " لوله": 5322,
      "one": 5323,
      "ark": 5324,
      " ویدئ": 5325,
      " زنجیره": 5326,
      "غه": 5327,
      " تنوع": 5328,
      " گرفتم": 5329,
      "بنای": 5330,
      "35": 5331,
      "ry": 5332,
      "تیم": 5333,
      "تاس": 5334,
      "ابقات": 5335,
      " اسناد": 5336,
      " پیشگیری": 5337,
      " چندان": 5338,
      "نتایج": 5339,
      " مرتب": 5340,
      "‌وکار": 5341,
      "ain": 5342,
      " اراده": 5343,
      " جمعه": 5344,
      "رنگ": 5345,
      "۲۴": 5346,
      " آک": 5347,
      " برزی": 5348,
      " فول": 5349,
      " آنقدر": 5350,
      "برت": 5351,
      " مشابهی": 5352,
      " بشناس": 5353,
      " درمورد": 5354,
      " خلی": 5355,
      " چاق": 5356,
      " برایش": 5357,
      " سازمانی": 5358,
      "‌آوری": 5359,
      "برداری": 5360,
      " حالیکه": 5361,
      " موجودات": 5362,
      " بومی": 5363,
      "نخ": 5364,
      "پرد": 5365,
      "انسان": 5366,
      " قسم": 5367,
      " هاست": 5368,
      " اتمی": 5369,
      "‌آی": 5370,
      " رودخانه": 5371,
      "se": 5372,
      "طوری": 5373,
      "مادر": 5374,
      " ني": 5375,
      "اتور": 5376,
      " آنجایی": 5377,
      "اینها": 5378,
      "195": 5379,
      "آمریکا": 5380,
      "ight": 5381,
      "تها": 5382,
      "ابری": 5383,
      " موج": 5384,
      "خوب": 5385,
      " ارم": 5386,
      " نسبتا": 5387,
      " حقیقی": 5388,
      " پیمان": 5389,
      " هایشان": 5390,
      " کارشناسان": 5391,
      " سالی": 5392,
      " پیگیری": 5393,
      " لات": 5394,
      "کسانی": 5395,
      " آرز": 5396,
      " جوامع": 5397,
      " تماشای": 5398,
      " پدرش": 5399,
      " اخیرا": 5400,
      " فقیر": 5401,
      "جن": 5402,
      "دکتر": 5403,
      " مون": 5404,
      " توده": 5405,
      " گونا": 5406,
      " معلوم": 5407,
      " جمعی": 5408,
      " نباشید": 5409,
      " مخاطبان": 5410,
      " ماموریت": 5411,
      " اکثریت": 5412,
      "pp": 5413,
      "بتی": 5414,
      "چهار": 5415,
      " بگوییم": 5416,
      " [+": 5417,
      "قرار": 5418,
      " کالری": 5419,
      "ock": 5420,
      " صندوق": 5421,
      " هورمون": 5422,
      "قیمت": 5423,
      " وار": 5424,
      " مغزی": 5425,
      " بکشد": 5426,
      " سرگرم": 5427,
      " سکوت": 5428,
      " احتیاج": 5429,
      "-]\n": 5430,
      "دهای": 5431,
      "گزار": 5432,
      " زوج": 5433,
      " اگرچه": 5434,
      " [-]\n": 5435,
      "‌خوان": 5436,
      " درخ": 5437,
      " آد": 5438,
      " خودکشی": 5439,
      " مراقب": 5440,
      " مستند": 5441,
      " وبسایت": 5442,
      " گذاشتن": 5443,
      " شکنجه": 5444,
      " اسکن": 5445,
      " ندرت": 5446,
      " اجاره": 5447,
      " تجاوز": 5448,
      " تخصصی": 5449,
      "PS": 5450,
      " بوی": 5451,
      " بشن": 5452,
      " سایه": 5453,
      " بنیان": 5454,
      " شارژ": 5455,
      ".com": 5456,
      " رم": 5457,
      " حسابداری": 5458,
      "صری": 5459,
      " واک": 5460,
      " هید": 5461,
      " استدلال": 5462,
      "هرچند": 5463,
      "‌العاده": 5464,
      "قانونی": 5465,
      " فیزیک": 5466,
      "ib": 5467,
      "زنان": 5468,
      "مایی": 5469,
      " هار": 5470,
      " نویسی": 5471,
      " پایتخت": 5472,
      " خودت": 5473,
      " Al": 5474,
      "‌الله": 5475,
      " [+]\n": 5476,
      " +": 5477,
      "زاری": 5478,
      "پنج": 5479,
      "۸۰": 5480,
      " برایم": 5481,
      " مدنی": 5482,
      "end": 5483,
      " فلسطین": 5484,
      " اختراع": 5485,
      "شکل": 5486,
      "فون": 5487,
      "هزینه": 5488,
      " کالی": 5489,
      " کپی": 5490,
      " سیر": 5491,
      " همدیگر": 5492,
      " موافق": 5493,
      " مسابقات": 5494,
      " مقالات": 5495,
      "انتخاب": 5496,
      " عنصر": 5497,
      " مالکیت": 5498,
      " دبیر": 5499,
      " زرد": 5500,
      " باشه": 5501,
      " طرز": 5502,
      " استخراج": 5503,
      " مجددا": 5504,
      " بخورید": 5505,
      "تحقیقات": 5506,
      "دوم": 5507,
      "لیم": 5508,
      "وارد": 5509,
      " شبه": 5510,
      " گریه": 5511,
      " بدترین": 5512,
      " پیشین": 5513,
      " بزند": 5514,
      " سلط": 5515,
      " ژاپنی": 5516,
      " مبنی": 5517,
      "26": 5518,
      "بای": 5519,
      " فکری": 5520,
      " یکپار": 5521,
      " منص": 5522,
      " کوین": 5523,
      " شرط": 5524,
      "کوپ": 5525,
      " سراغ": 5526,
      " شکار": 5527,
      " قند": 5528,
      "الیسم": 5529,
      " مردمی": 5530,
      "موض": 5531,
      " قطعات": 5532,
      " بازارهای": 5533,
      " تلویزیونی": 5534,
      " عاطفی": 5535,
      " اینست": 5536,
      "شتی": 5537,
      " غلط": 5538,
      " مقصد": 5539,
      " نماد": 5540,
      " ساکن": 5541,
      " میزبان": 5542,
      " یهودیان": 5543,
      " تقاضای": 5544,
      " لبنان": 5545,
      "ّا": 5546,
      "ایلی": 5547,
      "فران": 5548,
      "رفه": 5549,
      " جنایت": 5550,
      " نداشتند": 5551,
      "oun": 5552,
      "افرادی": 5553,
      "تول": 5554,
      " ناز": 5555,
      " گمان": 5556,
      "ویا": 5557,
      "راس": 5558,
      "قیب": 5559,
      " اسب": 5560,
      " زمستان": 5561,
      " کلاسیک": 5562,
      "کور": 5563,
      "ولا": 5564,
      " انفج": 5565,
      " آمادگی": 5566,
      " خبرنگ": 5567,
      " آورید": 5568,
      " عقیده": 5569,
      " پدیده": 5570,
      " ناگهانی": 5571,
      "iz": 5572,
      " شلو": 5573,
      " خنده": 5574,
      " اسید": 5575,
      " نظری": 5576,
      " اته": 5577,
      " سوسی": 5578,
      " هیئت": 5579,
      " تصویری": 5580,
      " کربن": 5581,
      "ear": 5582,
      "تاری": 5583,
      "نیا": 5584,
      "نتیجه": 5585,
      "ارتی": 5586,
      " برطرف": 5587,
      " پره": 5588,
      " آنرا": 5589,
      " اعتباری": 5590,
      " دموکراتیک": 5591,
      " توقف": 5592,
      " معاملات": 5593,
      " h": 5594,
      "ie": 5595,
      "مگر": 5596,
      "ارا": 5597,
      " قطر": 5598,
      " تاریک": 5599,
      " جغرافی": 5600,
      " نع": 5601,
      " باستان": 5602,
      " فاج": 5603,
      " اوضاع": 5604,
      " اشغال": 5605,
      " بعنوان": 5606,
      " HT": 5607,
      " هماهنگی": 5608,
      "گند": 5609,
      "ستین": 5610,
      " بهار": 5611,
      " صفر": 5612,
      " بیفت": 5613,
      " پرورد": 5614,
      "فیف": 5615,
      " بتوانیم": 5616,
      " آمدند": 5617,
      " دستورالعمل": 5618,
      " مخالفت": 5619,
      " ​": 5620,
      "­ها": 5621,
      "گوریت": 5622,
      " دوچرخه": 5623,
      "هرگز": 5624,
      " ناپدید": 5625,
      "معمولا": 5626,
      "ML": 5627,
      "ضه": 5628,
      " گذاران": 5629,
      " معناست": 5630,
      " وسیع": 5631,
      "امیدوارم": 5632,
      " کاند": 5633,
      " تایل": 5634,
      "ختن": 5635,
      "ختانه": 5636,
      " دیگه": 5637,
      " رسانی": 5638,
      "‌یابد": 5639,
      "‌دهید": 5640,
      " پرت": 5641,
      " تعمیر": 5642,
      "ولیک": 5643,
      " Pl": 5644,
      " تصمیمات": 5645,
      " اکسی": 5646,
      " نوشیدن": 5647,
      " فاجعه": 5648,
      "زنی": 5649,
      " کلیه": 5650,
      " برایتان": 5651,
      " داره": 5652,
      "‌دهیم": 5653,
      " حسین": 5654,
      "مثلا": 5655,
      " گیاهان": 5656,
      " ابتدایی": 5657,
      " دکمه": 5658,
      "اطلاعات": 5659,
      " رأ": 5660,
      " فریب": 5661,
      " صوتی": 5662,
      " قرص": 5663,
      " اتمام": 5664,
      "سهیل": 5665,
      " كار": 5666,
      "هنگام": 5667,
      " تخریب": 5668,
      "زوئ": 5669,
      "شده": 5670,
      " رنگی": 5671,
      " درب": 5672,
      "منت": 5673,
      " کوچکتر": 5674,
      "‌داری": 5675,
      " قطار": 5676,
      "بلکه": 5677,
      "مزد": 5678,
      " کوتاهی": 5679,
      "مسئ": 5680,
      " دشمنان": 5681,
      "حداقل": 5682,
      " احمق": 5683,
      " بازیگر": 5684,
      " ویزای": 5685,
      " نقص": 5686,
      " كند": 5687,
      " دریاچه": 5688,
      " گردن": 5689,
      " ببرند": 5690,
      " سربازان": 5691,
      " امپرات": 5692,
      " یابند": 5693,
      " مشاغل": 5694,
      " Q": 5695,
      "**": 5696,
      "کدام": 5697,
      "‌با": 5698,
      " دلیلی": 5699,
      " تد": 5700,
      " آسانی": 5701,
      "کارگردان": 5702,
      " Tr": 5703,
      "قدرت": 5704,
      " بدانیم": 5705,
      "‌م": 5706,
      " رف": 5707,
      " تنگ": 5708,
      " عالم": 5709,
      " لمس": 5710,
      " موسسات": 5711,
      " متعددی": 5712,
      " &": 5713,
      " l": 5714,
      "يه": 5715,
      "کب": 5716,
      " درونی": 5717,
      " میرا": 5718,
      " عظ": 5719,
      " همسایه": 5720,
      "ولای": 5721,
      "ویج": 5722,
      " طلاق": 5723,
      " هرچند": 5724,
      " اشیا": 5725,
      " اشخاص": 5726,
      " تجربیات": 5727,
      " سبزی": 5728,
      " مکال": 5729,
      " خلاقیت": 5730,
      " تسلیم": 5731,
      " کابل": 5732,
      " انب": 5733,
      " انکار": 5734,
      " سالهای": 5735,
      " بازرگ": 5736,
      " نداده": 5737,
      " کمیسیون": 5738,
      " یونان": 5739,
      " متعدد": 5740,
      "45": 5741,
      "ئه": 5742,
      "بول": 5743,
      "هوش": 5744,
      " مدی": 5745,
      " دینی": 5746,
      " وال": 5747,
      "‌هایش": 5748,
      " اجباری": 5749,
      " متنوع": 5750,
      " حوادث": 5751,
      "27": 5752,
      "ذا": 5753,
      " یاری": 5754,
      " Ar": 5755,
      " عرصه": 5756,
      " En": 5757,
      " فرستاده": 5758,
      " |": 5759,
      "طراحی": 5760,
      "لع": 5761,
      "پول": 5762,
      " درحال": 5763,
      " یمن": 5764,
      " محقق": 5765,
      " بخاطر": 5766,
      " IP": 5767,
      " رفتارهای": 5768,
      " تخمین": 5769,
      " جشنواره": 5770,
      " برآورده": 5771,
      "SA": 5772,
      " نرس": 5773,
      "ادمی": 5774,
      "‌هایشان": 5775,
      " امریکایی": 5776,
      " پنجم": 5777,
      " نویسندگان": 5778,
      " آشپز": 5779,
      " مداخله": 5780,
      " خلیج": 5781,
      "عاد": 5782,
      "وسته": 5783,
      " جفت": 5784,
      "منظ": 5785,
      " سوار": 5786,
      "وتری": 5787,
      " مرزهای": 5788,
      " سرگرمی": 5789,
      "ian": 5790,
      "گام": 5791,
      "ادله": 5792,
      " جاس": 5793,
      " فش": 5794,
      " توج": 5795,
      " کلیسا": 5796,
      " برساند": 5797,
      " ویدئو": 5798,
      " ویدیو": 5799,
      " فساد": 5800,
      "ge": 5801,
      "وای": 5802,
      "چم": 5803,
      " باشی": 5804,
      " مسکو": 5805,
      "زاینده": 5806,
      " یادداشت": 5807,
      " خرج": 5808,
      " Ex": 5809,
      " برسند": 5810,
      " وسیعی": 5811,
      "age": 5812,
      "‌گذارد": 5813,
      "خانو": 5814,
      "رفت": 5815,
      "سخ": 5816,
      " اینگونه": 5817,
      " کارآمد": 5818,
      "فرست": 5819,
      " پیروز": 5820,
      "کشور": 5821,
      "لان": 5822,
      " خاموش": 5823,
      " حامی": 5824,
      " هرچه": 5825,
      "مندی": 5826,
      " غیرقابل": 5827,
      " اشتغال": 5828,
      " خاطرات": 5829,
      "ice": 5830,
      " همسرش": 5831,
      " گردشگری": 5832,
      " بایست": 5833,
      "‌افزار": 5834,
      "..\n": 5835,
      "ure": 5836,
      "پا": 5837,
      " نان": 5838,
      "ادیر": 5839,
      "گذشت": 5840,
      " قربانیان": 5841,
      " نوجوانان": 5842,
      " دفاعی": 5843,
      " طلب": 5844,
      "اینکه": 5845,
      " خواهر": 5846,
      " کلاه": 5847,
      " Ad": 5848,
      " طرفداران": 5849,
      " نخواهید": 5850,
      " میکنم": 5851,
      " داروها": 5852,
      " ایستاده": 5853,
      " تروریست": 5854,
      " ونزوئ": 5855,
      " اتوبوس": 5856,
      " ژنتیکی": 5857,
      " آفتاب": 5858,
      "آورد": 5859,
      "زات": 5860,
      " مضر": 5861,
      " شجا": 5862,
      " شاخ": 5863,
      " آنهایی": 5864,
      " روسی": 5865,
      " سرانجام": 5866,
      " نیستیم": 5867,
      " پرسید": 5868,
      " فراوانی": 5869,
      " مهاجران": 5870,
      " ناپذیر": 5871,
      " تسلی": 5872,
      " >": 5873,
      "دلیل": 5874,
      " تویی": 5875,
      " تسهیل": 5876,
      "یدگی": 5877,
      " حریم": 5878,
      "یمز": 5879,
      " ادغام": 5880,
      " Cl": 5881,
      "کوک": 5882,
      " وضوح": 5883,
      " اشتباهات": 5884,
      " تقاضا": 5885,
      " برزیل": 5886,
      "ff": 5887,
      " استودی": 5888,
      " فزاینده": 5889,
      "درصد": 5890,
      "وشید": 5891,
      " مطلق": 5892,
      " SE": 5893,
      "are": 5894,
      " رسیدگی": 5895,
      " رقص": 5896,
      "قانون": 5897,
      " میتوانید": 5898,
      " موتورهای": 5899,
      " تدریس": 5900,
      " a": 5901,
      "):": 5902,
      "ire": 5903,
      "طا": 5904,
      "‌زند": 5905,
      " پوند": 5906,
      " پرنده": 5907,
      " تعلق": 5908,
      "وسف": 5909,
      " بشری": 5910,
      " هماهنگ": 5911,
      " بسازید": 5912,
      "ik": 5913,
      "مبار": 5914,
      "پیر": 5915,
      " منع": 5916,
      " خواهی": 5917,
      " راهنمای": 5918,
      "آنان": 5919,
      " غیرقانونی": 5920,
      "‌سازد": 5921,
      " دقیقاً": 5922,
      " ناراحتی": 5923,
      " مؤس": 5924,
      " زخم": 5925,
      " آلبوم": 5926,
      " ​​": 5927,
      "ne": 5928,
      "سافت": 5929,
      " مجه": 5930,
      " ربات": 5931,
      " نیک": 5932,
      " اندیشه": 5933,
      "act": 5934,
      " نکات": 5935,
      "ass": 5936,
      " پارلمان": 5937,
      " برآورد": 5938,
      " داوطلب": 5939,
      "خانواده": 5940,
      "رز": 5941,
      " بروند": 5942,
      "شناخته": 5943,
      " اشکال": 5944,
      " بالاترین": 5945,
      " راننده": 5946,
      "كه": 5947,
      " السلام": 5948,
      "شنه": 5949,
      " اخراج": 5950,
      " میانگین": 5951,
      " گواهی": 5952,
      " خطرات": 5953,
      "اجازه": 5954,
      " اسلحه": 5955,
      " شیرین": 5956,
      " عبارتند": 5957,
      " برداشته": 5958,
      " ابتدای": 5959,
      " حاکم": 5960,
      " چارچوب": 5961,
      "IV": 5962,
      "۷۰": 5963,
      " سور": 5964,
      "الان": 5965,
      " عز": 5966,
      " زنگ": 5967,
      "اکت": 5968,
      " شناختی": 5969,
      " باران": 5970,
      " پرتاب": 5971,
      " Com": 5972,
      " مادرش": 5973,
      " استقبال": 5974,
      " کالیفر": 5975,
      "گوریتم": 5976,
      " میراث": 5977,
      "ازده": 5978,
      "ook": 5979,
      " طلایی": 5980,
      " اکسیژن": 5981,
      " v": 5982,
      "گزارش": 5983,
      "۲۱": 5984,
      " درحالی": 5985,
      "ینا": 5986,
      " شام": 5987,
      " برو": 5988,
      "روح": 5989,
      "بهتر": 5990,
      " نداد": 5991,
      " تنش": 5992,
      " سازگار": 5993,
      " سیب": 5994,
      " رفتم": 5995,
      " مرتکب": 5996,
      "‌نویس": 5997,
      " بپذیر": 5998,
      " ایتالیایی": 5999,
      "زبان": 6000,
      "سنجی": 6001,
      " سنی": 6002,
      "اداری": 6003,
      "ادایی": 6004,
      " شبانه": 6005,
      "۰۰۰": 6006,
      " شعر": 6007,
      " خالص": 6008,
      "ox": 6009,
      "رون": 6010,
      "صدی": 6011,
      "میمی": 6012,
      "ولان": 6013,
      " مواقع": 6014,
      " بخشد": 6015,
      "خواهی": 6016,
      " قبلاً": 6017,
      " ضرورت": 6018,
      " افزوده": 6019,
      " سایبری": 6020,
      " عزیز": 6021,
      "man": 6022,
      "دین": 6023,
      " رک": 6024,
      " کارکرد": 6025,
      " اوج": 6026,
      "‌شوید": 6027,
      "‌گویم": 6028,
      " رفتاری": 6029,
      " بگذارند": 6030,
      "ld": 6031,
      "‌خو": 6032,
      " بصورت": 6033,
      " مسدود": 6034,
      " انگار": 6035,
      " تأسیس": 6036,
      " نکنند": 6037,
      " دخالت": 6038,
      " تمرینات": 6039,
      " کامپیوتری": 6040,
      " روحانی": 6041,
      "‌آیند": 6042,
      "بس": 6043,
      " مبنای": 6044,
      " رده": 6045,
      " سالن": 6046,
      " دستمزد": 6047,
      "اکس": 6048,
      " ماهه": 6049,
      " پروتکل": 6050,
      " اصلاحات": 6051,
      "تاریخ": 6052,
      "her": 6053,
      "ust": 6054,
      "آگاه": 6055,
      "درو": 6056,
      " محاسب": 6057,
      " اخلاق": 6058,
      " رفتند": 6059,
      "ite": 6060,
      "‌روند": 6061,
      " التحصیلان": 6062,
      " واسطه": 6063,
      " گوناگون": 6064,
      " هیدرو": 6065,
      " یکپارچه": 6066,
      "SS": 6067,
      " ماس": 6068,
      " هایش": 6069,
      " خودداری": 6070,
      " معدنی": 6071,
      "احساس": 6072,
      "ore": 6073,
      " گواه": 6074,
      "ace": 6075,
      " عضلات": 6076,
      "کروسافت": 6077,
      " شایسته": 6078,
      " شرکتی": 6079,
      " عذاب": 6080,
      "ختر": 6081,
      "شیر": 6082,
      "ایا": 6083,
      " خس": 6084,
      "امون": 6085,
      "اشته": 6086,
      " دستاورد": 6087,
      " آیات": 6088,
      " شهرها": 6089,
      " ضمن": 6090,
      " بدهیم": 6091,
      " سخنان": 6092,
      " تنظیمات": 6093,
      "کودکان": 6094,
      "400": 6095,
      "وین": 6096,
      "’s": 6097,
      " حساسی": 6098,
      " عملیاتی": 6099,
      " دریای": 6100,
      " سینما": 6101,
      "پزشک": 6102,
      "29": 6103,
      "pt": 6104,
      "qu": 6105,
      "کشان": 6106,
      "‌،": 6107,
      " مکر": 6108,
      " دگر": 6109,
      " سیل": 6110,
      "البا": 6111,
      " روایت": 6112,
      " تومور": 6113,
      " لنز": 6114,
      " سرقت": 6115,
      " سرتاس": 6116,
      " مقداری": 6117,
      " نامزد": 6118,
      " قدرد": 6119,
      " شهروند": 6120,
      " لطف": 6121,
      " ونزوئلا": 6122,
      "تاح": 6123,
      "خلا": 6124,
      " کرب": 6125,
      " روبه": 6126,
      " بیام": 6127,
      " محکم": 6128,
      "سرمایه": 6129,
      " ارتفاع": 6130,
      " پشتی": 6131,
      " ببینم": 6132,
      " معنوی": 6133,
      "ــــ": 6134,
      "تولید": 6135,
      "رید": 6136,
      "قول": 6137,
      " بي": 6138,
      " دوی": 6139,
      " ایفا": 6140,
      " نظم": 6141,
      "‌دهنده": 6142,
      "نجان": 6143,
      " مشکلاتی": 6144,
      " ملک": 6145,
      " هنرمندان": 6146,
      "ذیرد": 6147,
      " جغرافیایی": 6148,
      " کالیفرنیا": 6149,
      " )\n": 6150,
      "MA": 6151,
      " اقل": 6152,
      " ملاح": 6153,
      " کلام": 6154,
      " آو": 6155,
      " دارویی": 6156,
      " دهی": 6157,
      " متمای": 6158,
      " ندیده": 6159,
      " شنیدن": 6160,
      " بگو": 6161,
      "بختی": 6162,
      " مرورگر": 6163,
      " ارمغان": 6164,
      "PA": 6165,
      "ber": 6166,
      "دور": 6167,
      "عب": 6168,
      " دانه": 6169,
      "ارستان": 6170,
      " بابت": 6171,
      "زایر": 6172,
      " عمق": 6173,
      "ادلانه": 6174,
      " رحم": 6175,
      "آموزش": 6176,
      "io": 6177,
      "بندی": 6178,
      "ذبه": 6179,
      "علی": 6180,
      " بروم": 6181,
      " معدن": 6182,
      "افزایش": 6183,
      " غالبا": 6184,
      " التها": 6185,
      " مقادیر": 6186,
      " سازماندهی": 6187,
      " اتفاقات": 6188,
      " بدهم": 6189,
      " نبودند": 6190,
      " جانب": 6191,
      " وحشی": 6192,
      " افسانه": 6193,
      " داغ": 6194,
      " آشپزخانه": 6195,
      " توجیه": 6196,
      "\"،": 6197,
      "ئیه": 6198,
      "بچه": 6199,
      "درد": 6200,
      "فصل": 6201,
      "يل": 6202,
      " میباشد": 6203,
      " زایمان": 6204,
      " طعم": 6205,
      " سالها": 6206,
      " عموم": 6207,
      " کانادایی": 6208,
      " بوجود": 6209,
      " آپارتمان": 6210,
      " ماجرا": 6211,
      " لاتین": 6212,
      " g": 6213,
      " ؛": 6214,
      "‌بار": 6215,
      " خونی": 6216,
      "ردازد": 6217,
      " عمد": 6218,
      " معلمان": 6219,
      "نیاز": 6220,
      " افرا": 6221,
      " افسر": 6222,
      " اشک": 6223,
      " چراغ": 6224,
      " US": 6225,
      " اسپانیایی": 6226,
      " ظاهرا": 6227,
      " صاحبان": 6228,
      " فریاد": 6229,
      "عود": 6230,
      "۵۰۰": 6231,
      " مید": 6232,
      "‌انداز": 6233,
      " شهادت": 6234,
      "بسیار": 6235,
      " قضیه": 6236,
      " بایستی": 6237,
      " تصادفی": 6238,
      " سوئد": 6239,
      " پروردگار": 6240,
      " سرتاسر": 6241,
      ".(": 6242,
      "CA": 6243,
      "وشی": 6244,
      " بست": 6245,
      " تکه": 6246,
      " نگ": 6247,
      "یتان": 6248,
      " محور": 6249,
      " بلوک": 6250,
      " بگویند": 6251,
      "ork": 6252,
      "‌آموز": 6253,
      " مفاهیم": 6254,
      " انتظارات": 6255,
      " فراوان": 6256,
      "‌رفت": 6257,
      " جدایی": 6258,
      " فیسبوک": 6259,
      "مطالعات": 6260,
      "دودی": 6261,
      "کمی": 6262,
      " شیشه": 6263,
      "اینجا": 6264,
      " معاصر": 6265,
      " آرزو": 6266,
      " سپری": 6267,
      " دائم": 6268,
      "لطفا": 6269,
      "وض": 6270,
      " سم": 6271,
      " فیلی": 6272,
      "درمان": 6273,
      " صلاح": 6274,
      " توانستند": 6275,
      " پیوسته": 6276,
      "وزیر": 6277,
      " بینید": 6278,
      " نظرسنجی": 6279,
      "دمه": 6280,
      " بالاخره": 6281,
      " منطق": 6282,
      " مالیاتی": 6283,
      " وسط": 6284,
      " آفریقای": 6285,
      " زندانیان": 6286,
      " متقاعد": 6287,
      " متقاضی": 6288,
      "150": 6289,
      "شخص": 6290,
      "هزار": 6291,
      " هلند": 6292,
      " جویی": 6293,
      " جبران": 6294,
      " انس": 6295,
      " محرک": 6296,
      " محروم": 6297,
      "اقت": 6298,
      " گرما": 6299,
      " کشورهایی": 6300,
      "اطع": 6301,
      " شهرد": 6302,
      "بورگ": 6303,
      " گوشه": 6304,
      " مجهز": 6305,
      " مین": 6306,
      "ایز": 6307,
      "گرچه": 6308,
      "کتور": 6309,
      " شهرت": 6310,
      " ابعاد": 6311,
      " صدور": 6312,
      " خواستم": 6313,
      " سریعتر": 6314,
      " روانشناسی": 6315,
      "واقعا": 6316,
      " رأی": 6317,
      "ائی": 6318,
      "مئ": 6319,
      "ّه": 6320,
      " جاب": 6321,
      " جنین": 6322,
      " قائل": 6323,
      " محض": 6324,
      " محبت": 6325,
      "مایشی": 6326,
      " اداری": 6327,
      " مربوطه": 6328,
      "‌ساز": 6329,
      " ستون": 6330,
      " موضوعی": 6331,
      " حرکات": 6332,
      " آکادمی": 6333,
      " بیفتد": 6334,
      "DA": 6335,
      "رق": 6336,
      "یتی": 6337,
      " دردن": 6338,
      " توانسته": 6339,
      " ویزا": 6340,
      " فروخته": 6341,
      "۱۹۴": 6342,
      "....\n": 6343,
      " تعهدات": 6344,
      " نادرست": 6345,
      " بیاورید": 6346,
      "خرید": 6347,
      " بنویسید": 6348,
      "۲۲": 6349,
      " دز": 6350,
      " راستی": 6351,
      "ترامپ": 6352,
      " متغیر": 6353,
      " آیفون": 6354,
      "نوشته": 6355,
      " دیجیتالی": 6356,
      " کمونیست": 6357,
      " غلبه": 6358,
      " توییتر": 6359,
      "زاب": 6360,
      "ارزش": 6361,
      " تلا": 6362,
      " گاو": 6363,
      " اوت": 6364,
      "‌هاست": 6365,
      "بینی": 6366,
      " مغذی": 6367,
      " جسمی": 6368,
      " ویدئویی": 6369,
      "خلاصه": 6370,
      "PN": 6371,
      "ax": 6372,
      "ver": 6373,
      " کت": 6374,
      " وکیل": 6375,
      " تند": 6376,
      " تها": 6377,
      " پال": 6378,
      "اوا": 6379,
      " مدعی": 6380,
      "مرا": 6381,
      "پین": 6382,
      " برگز": 6383,
      " گویی": 6384,
      "اقد": 6385,
      " مدارک": 6386,
      " سوئیس": 6387,
      " شکسته": 6388,
      "ix": 6389,
      "چطور": 6390,
      "‌صورت": 6391,
      "ادات": 6392,
      " پلی": 6393,
      " جولای": 6394,
      "موس": 6395,
      " جنس": 6396,
      "پیوند": 6397,
      " سپاس": 6398,
      " عصبانی": 6399,
      " بمانید": 6400,
      "مازون": 6401,
      " مأم": 6402,
      " انفجار": 6403,
      "!!!\n": 6404,
      "اى": 6405,
      "ّی": 6406,
      "گوست": 6407,
      "‌انگیز": 6408,
      " کور": 6409,
      "ینامه": 6410,
      "اندازی": 6411,
      " الگوریتم": 6412,
      " پروف": 6413,
      " مکزیک": 6414,
      " تضعیف": 6415,
      " ژوئیه": 6416,
      "ly": 6417,
      "per": 6418,
      "سکی": 6419,
      " دای": 6420,
      " گنج": 6421,
      " قایق": 6422,
      " رساندن": 6423,
      " فرزندتان": 6424,
      " اسرائیلی": 6425,
      " آفرین": 6426,
      " گرسنگی": 6427,
      "خل": 6428,
      "رال": 6429,
      " کاف": 6430,
      " یکبار": 6431,
      " روم": 6432,
      "بررسی": 6433,
      " بداند": 6434,
      " کلین": 6435,
      " سوگند": 6436,
      " کتابی": 6437,
      "ستیکی": 6438,
      " خطا": 6439,
      " بمانند": 6440,
      "ES": 6441,
      "oin": 6442,
      "زوم": 6443,
      "‌قدر": 6444,
      " میشوند": 6445,
      " چوب": 6446,
      " قاره": 6447,
      " طوف": 6448,
      " اسباب": 6449,
      "متاسفانه": 6450,
      "گهی": 6451,
      " افتتاح": 6452,
      " جزو": 6453,
      " مغازه": 6454,
      " مادرم": 6455,
      "وطه": 6456,
      " مخصوصا": 6457,
      " حرارت": 6458,
      " ارتقاء": 6459,
      "منظور": 6460,
      "36": 6461,
      "جنس": 6462,
      "قین": 6463,
      " دربار": 6464,
      " گلو": 6465,
      " مسکن": 6466,
      "مینی": 6467,
      " رسمیت": 6468,
      " تبادل": 6469,
      " ناتو": 6470,
      "موضوع": 6471,
      " ؟": 6472,
      "شون": 6473,
      "مشت": 6474,
      "نیر": 6475,
      "‌مند": 6476,
      " ائت": 6477,
      " موان": 6478,
      " میگ": 6479,
      " پرده": 6480,
      "ویسم": 6481,
      " خداست": 6482,
      " سفارت": 6483,
      "‌سایت": 6484,
      " بنیادی": 6485,
      " تایلند": 6486,
      " رفاه": 6487,
      "عل": 6488,
      " بصری": 6489,
      " برسان": 6490,
      "ملل": 6491,
      " زندگ": 6492,
      "193": 6493,
      "بنا": 6494,
      " واجد": 6495,
      "اعده": 6496,
      "دانشمندان": 6497,
      " بکشید": 6498,
      " خروجی": 6499,
      " اضطراری": 6500,
      " تظاهرات": 6501,
      "أله": 6502,
      "مود": 6503,
      " باند": 6504,
      " خرده": 6505,
      " استی": 6506,
      " قوم": 6507,
      " دوشنبه": 6508,
      " سرما": 6509,
      "استانی": 6510,
      "‌دهم": 6511,
      " پرچم": 6512,
      " گیاهی": 6513,
      " خوراکی": 6514,
      "سونگ": 6515,
      "ial": 6516,
      "تجر": 6517,
      "عشق": 6518,
      "۹۰": 6519,
      " تاخیر": 6520,
      " مطلوب": 6521,
      " ادبیات": 6522,
      " بگیرم": 6523,
      " لیزر": 6524,
      "ood": 6525,
      " اعتراف": 6526,
      " درختان": 6527,
      " کارآفرین": 6528,
      "بک": 6529,
      "چاق": 6530,
      "ارف": 6531,
      " فو": 6532,
      "ازن": 6533,
      "ماند": 6534,
      "یافته": 6535,
      " مستقر": 6536,
      "مطمئن": 6537,
      " لطفا": 6538,
      " فالون": 6539,
      "CC": 6540,
      "MS": 6541,
      "aw": 6542,
      " روده": 6543,
      " فاقد": 6544,
      " عبار": 6545,
      " غری": 6546,
      " ترویج": 6547,
      "192": 6548,
      " جاذبه": 6549,
      " حمام": 6550,
      " میکنید": 6551,
      " رادیو": 6552,
      " ناهار": 6553,
      " '": 6554,
      "75": 6555,
      "‎ها": 6556,
      "انا": 6557,
      " ناک": 6558,
      " میشه": 6559,
      "اتل": 6560,
      "ریز": 6561,
      "بهه": 6562,
      "رسد": 6563,
      " لیبی": 6564,
      "ros": 6565,
      " رقابتی": 6566,
      "‌خور": 6567,
      "کودک": 6568,
      " سبزیجات": 6569,
      "لازم": 6570,
      "ایجاد": 6571,
      " جوش": 6572,
      "سیله": 6573,
      "میان": 6574,
      " روس": 6575,
      " روحی": 6576,
      " صلی": 6577,
      " بیاب": 6578,
      " نظرم": 6579,
      " ناشناخته": 6580,
      " Pr": 6581,
      " مکالمه": 6582,
      " شاخه": 6583,
      "The": 6584,
      " بشود": 6585,
      " خستگی": 6586,
      " پاپ": 6587,
      " زلز": 6588,
      " کنس": 6589,
      " کنه": 6590,
      " دانشجویی": 6591,
      " مطلع": 6592,
      " Ph": 6593,
      " مخلو": 6594,
      " De": 6595,
      "داشتن": 6596,
      " تلقی": 6597,
      " بزنند": 6598,
      " غرق": 6599,
      "خدم": 6600,
      "دختر": 6601,
      " رغم": 6602,
      " سنین": 6603,
      " مشورت": 6604,
      " اندروید": 6605,
      " تمدن": 6606,
      " زیرساخت": 6607,
      "‌اندازی": 6608,
      " نفتی": 6609,
      " اختصاصی": 6610,
      " زلزله": 6611,
      "ma": 6612,
      "تلاش": 6613,
      "شاهی": 6614,
      "وظ": 6615,
      " بت": 6616,
      " کریم": 6617,
      "انش": 6618,
      "ارها": 6619,
      " آینه": 6620,
      " تاک": 6621,
      "وتین": 6622,
      " ساکنان": 6623,
      " موضع": 6624,
      " بیرونی": 6625,
      " خیانت": 6626,
      "‌شدند": 6627,
      " مزمن": 6628,
      " مسافرت": 6629,
      " حاکمیت": 6630,
      " طراحان": 6631,
      "‌برند": 6632,
      "TA": 6633,
      "خره": 6634,
      "طری": 6635,
      "وجود": 6636,
      "پوش": 6637,
      "۳۵": 6638,
      " ماسا": 6639,
      " کاپ": 6640,
      " میکرد": 6641,
      " حامل": 6642,
      " املاک": 6643,
      " لای": 6644,
      "توانید": 6645,
      " Th": 6646,
      "۱۹۵": 6647,
      " کلیسای": 6648,
      " مشخصی": 6649,
      "ولوژیکی": 6650,
      "تمامی": 6651,
      " مالزی": 6652,
      " هواپیمای": 6653,
      " فرمانده": 6654,
      " نعمت": 6655,
      " حساسیت": 6656,
      "ED": 6657,
      "دیر": 6658,
      "فروش": 6659,
      " وین": 6660,
      "ریش": 6661,
      " دانشجوی": 6662,
      " اهدا": 6663,
      " گویم": 6664,
      "گردانی": 6665,
      " خلاقانه": 6666,
      " مذهب": 6667,
      " ناگهان": 6668,
      "pl": 6669,
      " دي": 6670,
      " داف": 6671,
      " آذ": 6672,
      " آند": 6673,
      "امد": 6674,
      " محاک": 6675,
      " بدنی": 6676,
      " مسجد": 6677,
      " ماهیت": 6678,
      " سیاستم": 6679,
      "سمس": 6680,
      " واردات": 6681,
      "خواسته": 6682,
      " خونریزی": 6683,
      " ستار": 6684,
      "انتظار": 6685,
      " to": 6686,
      " مزیت": 6687,
      "تفاوت": 6688,
      "ظات": 6689,
      "قد": 6690,
      "مک": 6691,
      " زبانی": 6692,
      " الگوی": 6693,
      " بالغ": 6694,
      " مثبتی": 6695,
      "‌آمیز": 6696,
      " الکترونیک": 6697,
      " رویدادهای": 6698,
      " قدردانی": 6699,
      " هل": 6700,
      " ازای": 6701,
      " اندام": 6702,
      " نهادهای": 6703,
      "۱۹۳": 6704,
      "گفتم": 6705,
      " ویتنام": 6706,
      " يک": 6707,
      " ادرار": 6708,
      " پرهیز": 6709,
      " گواهینامه": 6710,
      "مئنا": 6711,
      "سط": 6712,
      "‏\n": 6713,
      " بلاک": 6714,
      " تکان": 6715,
      " شایع": 6716,
      "تیاد": 6717,
      " محله": 6718,
      " فرمول": 6719,
      " غی": 6720,
      "خوشب": 6721,
      "‌کشد": 6722,
      "اگرام": 6723,
      " اصلاً": 6724,
      " نداشتم": 6725,
      " راستای": 6726,
      " مخاطب": 6727,
      "32": 6728,
      "?\n": 6729,
      "ment": 6730,
      "چقدر": 6731,
      "‌نگ": 6732,
      " درسی": 6733,
      " سرو": 6734,
      "اهو": 6735,
      " بیایید": 6736,
      "اقب": 6737,
      " شنا": 6738,
      " مشتاق": 6739,
      " برسید": 6740,
      "پرست": 6741,
      " صبحانه": 6742,
      " نمایندگی": 6743,
      "حقی": 6744,
      "رای": 6745,
      "نوع": 6746,
      " پورت": 6747,
      "سیاست": 6748,
      " بیاورد": 6749,
      " محدودی": 6750,
      "الیستی": 6751,
      "موسی": 6752,
      " تجویز": 6753,
      " کوبا": 6754,
      " ساعات": 6755,
      " ویرایش": 6756,
      " کیست": 6757,
      "سترول": 6758,
      " مایکروسافت": 6759,
      "ile": 6760,
      "صلی": 6761,
      "په": 6762,
      "چشم": 6763,
      " مظ": 6764,
      " دود": 6765,
      "انواع": 6766,
      " کهکشان": 6767,
      " خشن": 6768,
      " خنک": 6769,
      " عسل": 6770,
      " قبر": 6771,
      "راست": 6772,
      " کارفرمای": 6773,
      "افل": 6774,
      " کمال": 6775,
      "شیه": 6776,
      " انتهای": 6777,
      " App": 6778,
      " نفرت": 6779,
      " پدرم": 6780,
      " تلفنی": 6781,
      " جنسیت": 6782,
      " نصف": 6783,
      " جایگزینی": 6784,
      " سقف": 6785,
      " اردوگاه": 6786,
      " امپراتوری": 6787,
      "خط": 6788,
      "پت": 6789,
      " کبد": 6790,
      "ایست": 6791,
      " ناو": 6792,
      " نوری": 6793,
      " میانه": 6794,
      " آمازون": 6795,
      " عده": 6796,
      " پیشرو": 6797,
      " بینیم": 6798,
      " مثلا": 6799,
      " Sc": 6800,
      " آرامی": 6801,
      "ics": 6802,
      " Re": 6803,
      " اختل": 6804,
      " لوازم": 6805,
      "‌ماند": 6806,
      " عروسی": 6807,
      "مطالعه": 6808,
      " استثن": 6809,
      " آهسته": 6810,
      ":«": 6811,
      "پای": 6812,
      " بخصوص": 6813,
      " کامی": 6814,
      " باستانی": 6815,
      " گال": 6816,
      " خواص": 6817,
      " امروزی": 6818,
      " تنفس": 6819,
      " انتخابی": 6820,
      " HIV": 6821,
      " فیبر": 6822,
      " رسیدند": 6823,
      " دشواری": 6824,
      "ivers": 6825,
      " مهربان": 6826,
      " قلمرو": 6827,
      " بازرگانی": 6828,
      " دردناک": 6829,
      "ER": 6830,
      "ies": 6831,
      "نشان": 6832,
      "کین": 6833,
      "‌چیز": 6834,
      " برف": 6835,
      " مرات": 6836,
      "‌کس": 6837,
      " پسران": 6838,
      " تغییراتی": 6839,
      " حاشیه": 6840,
      " گردند": 6841,
      " گیرید": 6842,
      " IS": 6843,
      "ick": 6844,
      " خواستند": 6845,
      "‌دانست": 6846,
      " کشتن": 6847,
      "سوال": 6848,
      "مجمو": 6849,
      "نظامی": 6850,
      " آموخت": 6851,
      " متمایز": 6852,
      "حم": 6853,
      "سام": 6854,
      "ژانت": 6855,
      "‌نامه": 6856,
      " مایع": 6857,
      " پتان": 6858,
      "دهد": 6859,
      " کارایی": 6860,
      "فرض": 6861,
      " لزو": 6862,
      " ضرر": 6863,
      "مدیریت": 6864,
      " بیاموز": 6865,
      "جزه": 6866,
      "سوم": 6867,
      "سمه": 6868,
      "پاد": 6869,
      "‌حل": 6870,
      " امان": 6871,
      " اعداد": 6872,
      " آقا": 6873,
      "امام": 6874,
      " باب": 6875,
      " برایشان": 6876,
      "باح": 6877,
      " اسکات": 6878,
      " پرندگان": 6879,
      "کسل": 6880,
      "ans": 6881,
      "یمیشن": 6882,
      "ory": 6883,
      " شهید": 6884,
      " بشریت": 6885,
      " مسافران": 6886,
      " تئاتر": 6887,
      "احی": 6888,
      " وادار": 6889,
      " تیره": 6890,
      " استرو": 6891,
      " استارت": 6892,
      " فنجان": 6893,
      " بودید": 6894,
      " توانستم": 6895,
      " تحمیل": 6896,
      "وهید": 6897,
      " دانشجو": 6898,
      " بازیگران": 6899,
      " مطبو": 6900,
      " حدس": 6901,
      " تبعی": 6902,
      " دریافتند": 6903,
      " خواننده": 6904,
      " جوانی": 6905,
      "مقامات": 6906,
      " نابودی": 6907,
      " پژوهشی": 6908,
      " داوری": 6909,
      " کریسمس": 6910,
      " موانع": 6911,
      "تجربه": 6912,
      "ress": 6913,
      "تج": 6914,
      " شیک": 6915,
      "امن": 6916,
      " یار": 6917,
      "ونزی": 6918,
      " بیکاری": 6919,
      "اسط": 6920,
      " غذاها": 6921,
      " گیرنده": 6922,
      " پذیرفت": 6923,
      " فولاد": 6924,
      "خوشبختانه": 6925,
      "دوره": 6926,
      "ایات": 6927,
      " تکیه": 6928,
      " پید": 6929,
      " غول": 6930,
      " اسک": 6931,
      " تغییری": 6932,
      " پروسه": 6933,
      " ناامید": 6934,
      " اعتصاب": 6935,
      " HD": 6936,
      " فرستاد": 6937,
      "120": 6938,
      "IC": 6939,
      "اا": 6940,
      "‌.\n": 6941,
      " بلی": 6942,
      " سنج": 6943,
      " جبهه": 6944,
      " منف": 6945,
      "برچسب": 6946,
      " بلو": 6947,
      "باله": 6948,
      " As": 6949,
      " تاریکی": 6950,
      "‌آمد": 6951,
      " قطعی": 6952,
      " پیرامون": 6953,
      " محافظه": 6954,
      " خلبان": 6955,
      " اذیت": 6956,
      "‌باشند": 6957,
      "حاف": 6958,
      " مستم": 6959,
      " باهوش": 6960,
      " پاره": 6961,
      " امت": 6962,
      " پیکر": 6963,
      " نقلیه": 6964,
      " دوستانه": 6965,
      " پیشنهادی": 6966,
      " دیپلماتیک": 6967,
      " مخلوط": 6968,
      "حقیقت": 6969,
      "EC": 6970,
      "IT": 6971,
      " هندی": 6972,
      " عبد": 6973,
      " قفل": 6974,
      " دیوانه": 6975,
      " آنهاست": 6976,
      " اعتیاد": 6977,
      " آزمایشی": 6978,
      " شکاف": 6979,
      " اروپای": 6980,
      " جزء": 6981,
      "‌بینید": 6982,
      "تصمیم": 6983,
      " نیروگاه": 6984,
      " واکسن": 6985,
      " $": 6986,
      "31": 6987,
      "ram": 6988,
      "شیم": 6989,
      "‌دید": 6990,
      " بکند": 6991,
      "میزی": 6992,
      "شاند": 6993,
      " مسأله": 6994,
      "الیست": 6995,
      "190": 6996,
      " فروشنده": 6997,
      "ish": 6998,
      "گذارید": 6999,
      " ائتلاف": 7000,
      "بسته": 7001,
      "توس": 7002,
      " بکش": 7003,
      " داستانی": 7004,
      " کاش": 7005,
      " رؤ": 7006,
      " توری": 7007,
      " ناسا": 7008,
      " برنج": 7009,
      " مدافع": 7010,
      " راهکار": 7011,
      " تشدید": 7012,
      "ary": 7013,
      " مخرب": 7014,
      " DNA": 7015,
      " سومین": 7016,
      " وابستگی": 7017,
      " كنند": 7018,
      " سلطنتی": 7019,
      " طوفان": 7020,
      " پتانسیل": 7021,
      " =": 7022,
      "رها": 7023,
      "رایی": 7024,
      "زام": 7025,
      "فورد": 7026,
      "مدر": 7027,
      "چال": 7028,
      " کوش": 7029,
      " آگوست": 7030,
      " دوام": 7031,
      " معده": 7032,
      "نیز": 7033,
      "منط": 7034,
      " سازند": 7035,
      " بعدها": 7036,
      "orld": 7037,
      " طرفدار": 7038,
      "oft": 7039,
      "مرحله": 7040,
      " پادشاهی": 7041,
      " رحمت": 7042,
      "احتمالا": 7043,
      " عمدتا": 7044,
      "فان": 7045,
      "‌ك": 7046,
      "انید": 7047,
      " شلیک": 7048,
      " بهانه": 7049,
      "الث": 7050,
      " مسن": 7051,
      "موفق": 7052,
      " تقل": 7053,
      " بعدا": 7054,
      " آوردند": 7055,
      "‌نام": 7056,
      " ترسناک": 7057,
      " کالا": 7058,
      " خودروهای": 7059,
      " قضایی": 7060,
      "پرداخت": 7061,
      " اختلالات": 7062,
      "IN": 7063,
      "وها": 7064,
      "پو": 7065,
      "۲۳": 7066,
      " ماری": 7067,
      " تام": 7068,
      " آگهی": 7069,
      " فور": 7070,
      "ویض": 7071,
      "اقتص": 7072,
      " لزوم": 7073,
      " احزاب": 7074,
      " نگرش": 7075,
      " نوزادان": 7076,
      " روستایی": 7077,
      " ساحلی": 7078,
      " سفارشی": 7079,
      "وهیدرات": 7080,
      "أس": 7081,
      "‌چه": 7082,
      " شانه": 7083,
      " همکار": 7084,
      " کارگردان": 7085,
      " فرمت": 7086,
      "عدم": 7087,
      " حاکی": 7088,
      "ساله": 7089,
      " سطحی": 7090,
      " خریداران": 7091,
      " ظهر": 7092,
      " همسرتان": 7093,
      " جدول": 7094,
      " for": 7095,
      "‌پذیری": 7096,
      "براساس": 7097,
      " اینستاگرام": 7098,
      "TP": 7099,
      "حر": 7100,
      "شع": 7101,
      "پشت": 7102,
      " بره": 7103,
      "یرت": 7104,
      "ابقت": 7105,
      " کردی": 7106,
      " کارتان": 7107,
      " هاي": 7108,
      " دیکت": 7109,
      " شهرستان": 7110,
      " بهبودی": 7111,
      "ome": 7112,
      " تخلیه": 7113,
      " آشنایی": 7114,
      " ردیابی": 7115,
      "33": 7116,
      "AS": 7117,
      "اگو": 7118,
      "‌وی": 7119,
      " بنده": 7120,
      "اتح": 7121,
      " اندک": 7122,
      " نوار": 7123,
      " ماهانه": 7124,
      "ong": 7125,
      " حقایق": 7126,
      "ence": 7127,
      " بردند": 7128,
      " ملکه": 7129,
      " نگرفته": 7130,
      "ash": 7131,
      " ابراهیم": 7132,
      "‌دادند": 7133,
      "وتیک": 7134,
      " رکورد": 7135,
      " ملاحظه": 7136,
      " دافا": 7137,
      " ستارگان": 7138,
      " تبعیض": 7139,
      "99": 7140,
      "خور": 7141,
      " دوری": 7142,
      " اواسط": 7143,
      " کمترین": 7144,
      " مربع": 7145,
      " مطابقت": 7146,
      " غیرممکن": 7147,
      "اپذیر": 7148,
      " ابزاری": 7149,
      "فعالیت": 7150,
      "St": 7151,
      "اپی": 7152,
      "لانی": 7153,
      "‌گاه": 7154,
      " کاست": 7155,
      " ورد": 7156,
      " ربط": 7157,
      " نما": 7158,
      "لیام": 7159,
      " پایانی": 7160,
      "ith": 7161,
      " صرفاً": 7162,
      " مواجهه": 7163,
      " فلور": 7164,
      "تصور": 7165,
      "‌فهم": 7166,
      " تصادف": 7167,
      " پلتفرم": 7168,
      " محاکمه": 7169,
      " #": 7170,
      "ah": 7171,
      "سفر": 7172,
      " وج": 7173,
      " شتاب": 7174,
      " خند": 7175,
      " برویم": 7176,
      " فارس": 7177,
      "روسیه": 7178,
      " کارش": 7179,
      " معجزه": 7180,
      " مشرو": 7181,
      " اسد": 7182,
      " کلسترول": 7183,
      " گرفتار": 7184,
      "اطیسی": 7185,
      " بخواهیم": 7186,
      "ide": 7187,
      " قاچاق": 7188,
      " قیامت": 7189,
      " انحص": 7190,
      " دونالد": 7191,
      " فشرده": 7192,
      "AN": 7193,
      "ID": 7194,
      "ئون": 7195,
      "طانی": 7196,
      "لذا": 7197,
      "پژوه": 7198,
      " وسو": 7199,
      " درگذشت": 7200,
      " نگار": 7201,
      "البی": 7202,
      " آنگاه": 7203,
      "بانک": 7204,
      " نمک": 7205,
      " اشتب": 7206,
      " مادران": 7207,
      " امیدوارم": 7208,
      "واقعیت": 7209,
      " بکنید": 7210,
      " پلاستیکی": 7211,
      " بازنشستگی": 7212,
      " لهستان": 7213,
      "EB": 7214,
      "ضان": 7215,
      "مخ": 7216,
      "مصرف": 7217,
      "پوست": 7218,
      " سمی": 7219,
      "الو": 7220,
      " عج": 7221,
      " غافل": 7222,
      " کشی": 7223,
      " المپ": 7224,
      " بازخورد": 7225,
      " Man": 7226,
      "‌نظر": 7227,
      "بدین": 7228,
      "ode": 7229,
      " re": 7230,
      "55": 7231,
      "سایر": 7232,
      "فار": 7233,
      "‌حال": 7234,
      " ویل": 7235,
      " زباله": 7236,
      "میتی": 7237,
      " دیوید": 7238,
      "نگوی": 7239,
      " زنانی": 7240,
      "‌‌‌": 7241,
      " خطاب": 7242,
      " ویران": 7243,
      "مثلاً": 7244,
      "‌گذاران": 7245,
      " وحشتناک": 7246,
      "IP": 7247,
      "ug": 7248,
      "اثر": 7249,
      " بغ": 7250,
      "اداران": 7251,
      " برلین": 7252,
      " زور": 7253,
      " دیسک": 7254,
      "انداز": 7255,
      " اسرار": 7256,
      " اجزای": 7257,
      "داع": 7258,
      "ارتباط": 7259,
      " Con": 7260,
      " روشنی": 7261,
      " رادیویی": 7262,
      " رزرو": 7263,
      " سامسونگ": 7264,
      " —": 7265,
      "In": 7266,
      " ببند": 7267,
      "ینت": 7268,
      " قیم": 7269,
      "گرفته": 7270,
      " دوش": 7271,
      " تحسین": 7272,
      " مهار": 7273,
      " مدیریتی": 7274,
      "راتور": 7275,
      " لیبر": 7276,
      " خوانندگان": 7277,
      " بخواهند": 7278,
      " قلعه": 7279,
      " گذارند": 7280,
      " آموخته": 7281,
      " *": 7282,
      "oy": 7283,
      "uc": 7284,
      "ئل": 7285,
      " پي": 7286,
      " پمپ": 7287,
      "اتو": 7288,
      "اسم": 7289,
      " مسا": 7290,
      " تجار": 7291,
      " شنید": 7292,
      " Ser": 7293,
      " اخذ": 7294,
      " غیرنظامی": 7295,
      " تولیدی": 7296,
      " قانع": 7297,
      " آرژانت": 7298,
      " قدیم": 7299,
      " فهمید": 7300,
      " ادعای": 7301,
      "mer": 7302,
      "؟»": 7303,
      "رهای": 7304,
      "شکر": 7305,
      " سوا": 7306,
      " آتی": 7307,
      " خات": 7308,
      " پری": 7309,
      " فرک": 7310,
      " عادلانه": 7311,
      " کنج": 7312,
      " متقابل": 7313,
      " متشکل": 7314,
      "باور": 7315,
      " لر": 7316,
      " کمکی": 7317,
      " گره": 7318,
      " مقاوم": 7319,
      " زنند": 7320,
      "rom": 7321,
      "‌وقت": 7322,
      " کیسه": 7323,
      " چرخش": 7324,
      " عکاس": 7325,
      " جادویی": 7326,
      " درخشان": 7327,
      "oh": 7328,
      "دیم": 7329,
      "شینی": 7330,
      "مست": 7331,
      "کلا": 7332,
      " سلو": 7333,
      "‌هاي": 7334,
      " معبد": 7335,
      " داشتید": 7336,
      "جهان": 7337,
      " دانستن": 7338,
      " نفره": 7339,
      " نسبتاً": 7340,
      " شورشی": 7341,
      " کالاهای": 7342,
      " متعادل": 7343,
      " نکردند": 7344,
      " عاشقانه": 7345,
      " آفریقایی": 7346,
      " اشیاء": 7347,
      "RL": 7348,
      "آل": 7349,
      "تخ": 7350,
      "تونی": 7351,
      "جمی": 7352,
      "جلس": 7353,
      "فرا": 7354,
      "مونی": 7355,
      "نما": 7356,
      " عام": 7357,
      " یکشنبه": 7358,
      "ونم": 7359,
      " امیر": 7360,
      " دستش": 7361,
      " گفتار": 7362,
      "اکتور": 7363,
      " ثالث": 7364,
      "مدل": 7365,
      " شکم": 7366,
      " اشتیا": 7367,
      " مشخصات": 7368,
      " عضلانی": 7369,
      " برادران": 7370,
      " اکتش": 7371,
      " نباشند": 7372,
      " دربارۀ": 7373,
      " المپیک": 7374,
      "اضی": 7375,
      "نل": 7376,
      "َّ": 7377,
      "۲۷": 7378,
      "‌ست": 7379,
      " هج": 7380,
      " فت": 7381,
      " فایده": 7382,
      " کارگری": 7383,
      " گرچه": 7384,
      " بازتاب": 7385,
      "سرت": 7386,
      " مهمتر": 7387,
      " صرفا": 7388,
      " جلوه": 7389,
      " آگاهانه": 7390,
      " معیار": 7391,
      " مادری": 7392,
      " تسلیحات": 7393,
      " کنسول": 7394,
      "34": 7395,
      "39": 7396,
      "yn": 7397,
      "رمانه": 7398,
      "سالی": 7399,
      "شروع": 7400,
      "مرگ": 7401,
      "نمایش": 7402,
      "ایتی": 7403,
      " وری": 7404,
      " شست": 7405,
      " شاع": 7406,
      "الح": 7407,
      " برخلاف": 7408,
      " گزار": 7409,
      " متاب": 7410,
      " بینند": 7411,
      " بینایی": 7412,
      " تعویض": 7413,
      "گوگل": 7414,
      "مقاله": 7415,
      " دروازه": 7416,
      " زیبای": 7417,
      " مبادله": 7418,
      " شرکای": 7419,
      " عظیمی": 7420,
      "600": 7421,
      "iew": 7422,
      "آدم": 7423,
      "عامل": 7424,
      " کجاست": 7425,
      " تیمی": 7426,
      " تابع": 7427,
      " نازی": 7428,
      " آست": 7429,
      " په": 7430,
      " اموال": 7431,
      "باع": 7432,
      " اصرار": 7433,
      " شباه": 7434,
      " لیگ": 7435,
      " بتوانم": 7436,
      " ضرب": 7437,
      " گلوله": 7438,
      " زدند": 7439,
      " نتوانست": 7440,
      " آفریده": 7441,
      " عذر": 7442,
      " اتهام": 7443,
      " جاسوسی": 7444,
      " کربوهیدرات": 7445,
      " کافئین": 7446,
      "ee": 7447,
      "ok": 7448,
      "۳۰۰": 7449,
      " عهد": 7450,
      " انیمیشن": 7451,
      "راقی": 7452,
      " لس": 7453,
      " سرطانی": 7454,
      " مسل": 7455,
      " بازرسی": 7456,
      " جهنم": 7457,
      " زیان": 7458,
      " اطاعت": 7459,
      "ank": 7460,
      "191": 7461,
      " حسن": 7462,
      "زنش": 7463,
      " ایدئ": 7464,
      " مسیری": 7465,
      " میکنیم": 7466,
      " فارسی": 7467,
      " قطعنامه": 7468,
      " پناهندگان": 7469,
      " زخمی": 7470,
      " پلاستیک": 7471,
      " التهاب": 7472,
      " اشتباهی": 7473,
      "48": 7474,
      "AC": 7475,
      "ظره": 7476,
      "‌زد": 7477,
      " سکه": 7478,
      " اینطور": 7479,
      " گیت": 7480,
      " زح": 7481,
      " قبیل": 7482,
      "بیایید": 7483,
      " نوبت": 7484,
      " راهبرد": 7485,
      " ماهر": 7486,
      " VPN": 7487,
      " میزبانی": 7488,
      " شعار": 7489,
      "‌گرفت": 7490,
      "پژوهش": 7491,
      " تطبی": 7492,
      " انق": 7493,
      " اندونزی": 7494,
      " تصریح": 7495,
      " بازیابی": 7496,
      " نامن": 7497,
      "‌دارد": 7498,
      " چهارشنبه": 7499,
      " نخواهیم": 7500,
      " عواقب": 7501,
      " روشنایی": 7502,
      " کشتار": 7503,
      " متناسب": 7504,
      " میتوانند": 7505,
      "ows": 7506,
      " بریتانیایی": 7507,
      "ime": 7508,
      " شلوغ": 7509,
      "أسفانه": 7510,
      "95": 7511,
      "ool": 7512,
      "‌خورد": 7513,
      " مگ": 7514,
      "ستون": 7515,
      " سید": 7516,
      " حسی": 7517,
      " حبس": 7518,
      " گز": 7519,
      "کنید": 7520,
      " بیایند": 7521,
      " تاج": 7522,
      " معاون": 7523,
      " غریب": 7524,
      "خورده": 7525,
      " نواحی": 7526,
      " مجسمه": 7527,
      " همراهی": 7528,
      " نمودند": 7529,
      "جمله": 7530,
      " تیراندازی": 7531,
      "حساب": 7532,
      " آواز": 7533,
      " صلاحیت": 7534,
      "65": 7535,
      "TS": 7536,
      "جالب": 7537,
      "خانم": 7538,
      "لزم": 7539,
      "گونی": 7540,
      "‌چنین": 7541,
      " ببخ": 7542,
      " تث": 7543,
      " خج": 7544,
      "اتوری": 7545,
      " مرزی": 7546,
      " رسول": 7547,
      " بالینی": 7548,
      " نمره": 7549,
      " Mic": 7550,
      "ach": 7551,
      " تخفیف": 7552,
      " توافقنامه": 7553,
      "‌شناسی": 7554,
      " تورم": 7555,
      " خلاص": 7556,
      "مباران": 7557,
      " خسارت": 7558,
      " بلیط": 7559,
      "].\n": 7560,
      "pe": 7561,
      "۴۵": 7562,
      " بوش": 7563,
      " بوت": 7564,
      "ورن": 7565,
      " جسم": 7566,
      "هاست": 7567,
      " هایتان": 7568,
      "اسرائ": 7569,
      " فرق": 7570,
      " سواری": 7571,
      " مستلزم": 7572,
      " پرداخته": 7573,
      " پنجاه": 7574,
      "بازگشت": 7575,
      "ous": 7576,
      " هواپیمایی": 7577,
      "بزرگترین": 7578,
      " الزامات": 7579,
      " مکرر": 7580,
      " مأموریت": 7581,
      " مراتب": 7582,
      " مستمر": 7583,
      "ph": 7584,
      "بایی": 7585,
      "حتما": 7586,
      "دامی": 7587,
      "ـه": 7588,
      "لامی": 7589,
      "‌ان": 7590,
      " رهایی": 7591,
      " برتری": 7592,
      " براي": 7593,
      " داروی": 7594,
      " منعکس": 7595,
      " گرایش": 7596,
      "الیز": 7597,
      "خصی": 7598,
      " انتخاباتی": 7599,
      "org": 7600,
      " اقلیت": 7601,
      " پاسخگویی": 7602,
      " قطب": 7603,
      " شکلات": 7604,
      " تاثیرات": 7605,
      " بسازد": 7606,
      "تصویر": 7607,
      " فرکانس": 7608,
      " بام": 7609,
      " بنگ": 7610,
      " برش": 7611,
      " قومی": 7612,
      "میزان": 7613,
      "مانده": 7614,
      " خوشم": 7615,
      " امارات": 7616,
      "‌شویم": 7617,
      " ایرلند": 7618,
      " نشوید": 7619,
      "اطه": 7620,
      "۱۹۲": 7621,
      "ولوژیک": 7622,
      " پیامدهای": 7623,
      " اظهارات": 7624,
      "ext": 7625,
      "‌زنند": 7626,
      "خوانی": 7627,
      "پورت": 7628,
      "کاهش": 7629,
      " مض": 7630,
      " نگیر": 7631,
      " خز": 7632,
      " برابری": 7633,
      " خودروی": 7634,
      " تربیت": 7635,
      " نوک": 7636,
      " احاطه": 7637,
      " ساختاری": 7638,
      " ذرات": 7639,
      " نحوی": 7640,
      "ساعت": 7641,
      " روستا": 7642,
      " ماساژ": 7643,
      " قیمتی": 7644,
      "سرد": 7645,
      "صت": 7646,
      "فش": 7647,
      "چش": 7648,
      "کوس": 7649,
      "ندم": 7650,
      " درصدی": 7651,
      " ناس": 7652,
      " ششم": 7653,
      " سوره": 7654,
      " برم": 7655,
      " قوت": 7656,
      "گرا": 7657,
      " صدمه": 7658,
      " اولی": 7659,
      " امواج": 7660,
      " مشکوک": 7661,
      " بازگ": 7662,
      "ink": 7663,
      "سرعت": 7664,
      " ناام": 7665,
      " چراکه": 7666,
      " ابد": 7667,
      " ریزش": 7668,
      " مرتبه": 7669,
      "نمونه": 7670,
      " تکراری": 7671,
      " گردشگران": 7672,
      "tern": 7673,
      "صفحه": 7674,
      " سواحل": 7675,
      " اشتیاق": 7676,
      " ستم": 7677,
      " st": 7678,
      "اين": 7679,
      "بستگی": 7680,
      "جین": 7681,
      "نشین": 7682,
      "‌را": 7683,
      " بستر": 7684,
      " برقی": 7685,
      "لیون": 7686,
      " اندوه": 7687,
      " الق": 7688,
      " کلمب": 7689,
      "انسون": 7690,
      " خاطره": 7691,
      " طرفی": 7692,
      " شوخی": 7693,
      " New": 7694,
      " محافظ": 7695,
      "‌بینیم": 7696,
      " هوشمندانه": 7697,
      " بندر": 7698,
      " شاهزاده": 7699,
      " صادقانه": 7700,
      " تحولات": 7701,
      " آرزوی": 7702,
      " HTML": 7703,
      "جستان": 7704,
      "رابط": 7705,
      "سکو": 7706,
      "مدی": 7707,
      "ژو": 7708,
      "۱۵۰": 7709,
      "فره": 7710,
      "اقض": 7711,
      "توانند": 7712,
      " مقط": 7713,
      "موزی": 7714,
      "غیب": 7715,
      " یادآور": 7716,
      " Mar": 7717,
      "۱۹۱": 7718,
      "ناکی": 7719,
      " حیوانی": 7720,
      " سردرد": 7721,
      " ممنوعیت": 7722,
      " دبیرستان": 7723,
      " r": 7724,
      "ظم": 7725,
      "نگر": 7726,
      "پلیس": 7727,
      " بپیوند": 7728,
      " دبی": 7729,
      " کرم": 7730,
      "ودر": 7731,
      "ردن": 7732,
      " برانگیز": 7733,
      " یقین": 7734,
      " اینجاست": 7735,
      " عادات": 7736,
      "فتگی": 7737,
      "یتلر": 7738,
      "ختری": 7739,
      " ترور": 7740,
      "ملات": 7741,
      "رسانی": 7742,
      " اعضا": 7743,
      " قبال": 7744,
      " دلم": 7745,
      " Ac": 7746,
      " اجتماع": 7747,
      "ical": 7748,
      "out": 7749,
      " پیچیدگی": 7750,
      " قطعاً": 7751,
      " استانبول": 7752,
      " بینداز": 7753,
      " زاویه": 7754,
      "250": 7755,
      "اژ": 7756,
      "بدی": 7757,
      "تکن": 7758,
      " بفرست": 7759,
      " بمباران": 7760,
      " تار": 7761,
      " هدر": 7762,
      " برعکس": 7763,
      " جوی": 7764,
      " جیمز": 7765,
      " زانو": 7766,
      "ویچ": 7767,
      " ارث": 7768,
      " اعطا": 7769,
      " همینطور": 7770,
      " فروشی": 7771,
      " آلرژی": 7772,
      " علاق": 7773,
      "قرآن": 7774,
      " نکنیم": 7775,
      " عضویت": 7776,
      " بوسیله": 7777,
      "‌رسید": 7778,
      " دنیایی": 7779,
      "‌خواستم": 7780,
      " اختلافات": 7781,
      " گمراه": 7782,
      " ماسک": 7783,
      "وضعیت": 7784,
      "37": 7785,
      "38": 7786,
      "ton": 7787,
      "طوب": 7788,
      "۲۶": 7789,
      "‌ه": 7790,
      "انورد": 7791,
      " هکر": 7792,
      "امکان": 7793,
      " سرزنش": 7794,
      " انداخته": 7795,
      "ond": 7796,
      "بینید": 7797,
      " شرم": 7798,
      "گردد": 7799,
      "ابتدا": 7800,
      " آزمایشات": 7801,
      " تلخ": 7802,
      " متنفر": 7803,
      " خیال": 7804,
      "‌خاطر": 7805,
      "پزشکی": 7806,
      " بالاتری": 7807,
      " وفادار": 7808,
      "توسعه": 7809,
      "ll": 7810,
      "توص": 7811,
      "پولی": 7812,
      "‌ز": 7813,
      " پستان": 7814,
      " جراح": 7815,
      "همسر": 7816,
      "منان": 7817,
      " دانشمند": 7818,
      "فیس": 7819,
      "هنر": 7820,
      " وقایع": 7821,
      " سناری": 7822,
      " سپرده": 7823,
      " یخچال": 7824,
      " ویدیویی": 7825,
      " آدمی": 7826,
      " SEO": 7827,
      " محاسبات": 7828,
      " پشتیبان": 7829,
      "دت": 7830,
      "رعه": 7831,
      "طو": 7832,
      "عان": 7833,
      " وصل": 7834,
      " نرو": 7835,
      " جزایر": 7836,
      " فاکتور": 7837,
      " عراقی": 7838,
      " همۀ": 7839,
      " صدر": 7840,
      " دستان": 7841,
      " تحرک": 7842,
      " مردمان": 7843,
      "واک": 7844,
      " بنشین": 7845,
      " Be": 7846,
      " انسانها": 7847,
      "‌کردیم": 7848,
      "بعدی": 7849,
      " چشمگیری": 7850,
      " تاثیری": 7851,
      " جنسیتی": 7852,
      " بازدیدکنندگان": 7853,
      "und": 7854,
      " يا": 7855,
      " امپری": 7856,
      " شفافیت": 7857,
      " ریاضیات": 7858,
      " خبرنگاران": 7859,
      " استودیو": 7860,
      " تهاجمی": 7861,
      "ري": 7862,
      "”،": 7863,
      "ایالات": 7864,
      "اهدی": 7865,
      "گرایی": 7866,
      " تاپ": 7867,
      " سازگاری": 7868,
      "رسانه": 7869,
      "ert": 7870,
      " كرده": 7871,
      " ساعته": 7872,
      " War": 7873,
      "محصول": 7874,
      " تایمز": 7875,
      " شهروندی": 7876,
      " محبوبیت": 7877,
      " فقدان": 7878,
      " جادو": 7879,
      " بازنشسته": 7880,
      "خدمات": 7881,
      " ِ": 7882,
      " ‎": 7883,
      "ron": 7884,
      "عنوان": 7885,
      "هین": 7886,
      "هایش": 7887,
      " کلم": 7888,
      " نشستن": 7889,
      " تعبیر": 7890,
      " ناخواسته": 7891,
      " Te": 7892,
      " Wh": 7893,
      " سلطه": 7894,
      " موقعیتی": 7895,
      "شبکه": 7896,
      "ult": 7897,
      "‌برداری": 7898,
      " مولکول": 7899,
      "‌آورند": 7900,
      " جورج": 7901,
      " Univers": 7902,
      " مطبوعات": 7903,
      "موفقیت": 7904,
      "sh": 7905,
      "جانی": 7906,
      "کاش": 7907,
      "‌بخش": 7908,
      " فورا": 7909,
      " گرا": 7910,
      " روحیه": 7911,
      " بیگانه": 7912,
      " سرم": 7913,
      " مقصر": 7914,
      "‌کنی": 7915,
      " رسانده": 7916,
      " فعالان": 7917,
      " ابتکار": 7918,
      " سپاه": 7919,
      " مهندس": 7920,
      " جعلی": 7921,
      "آزمایش": 7922,
      " پیوستن": 7923,
      " الگوهای": 7924,
      " بردارید": 7925,
      " قسمتی": 7926,
      " کامیون": 7927,
      " وردپرس": 7928,
      "NS": 7929,
      "ثری": 7930,
      "شایی": 7931,
      "انگار": 7932,
      "الف": 7933,
      " قوا": 7934,
      " همجنس": 7935,
      "یاط": 7936,
      " امری": 7937,
      " رسند": 7938,
      " متحدان": 7939,
      "‌ترس": 7940,
      " خدماتی": 7941,
      " خدایی": 7942,
      " آسیایی": 7943,
      " نفری": 7944,
      " برسیم": 7945,
      " عبادت": 7946,
      " متعال": 7947,
      " نحو": 7948,
      " مایکل": 7949,
      " سندرم": 7950,
      " حتماً": 7951,
      " قاضی": 7952,
      " مسیحیان": 7953,
      " e": 7954,
      "85": 7955,
      "­ی": 7956,
      "بدن": 7957,
      "خطر": 7958,
      "ظی": 7959,
      "کاس": 7960,
      " جالبی": 7961,
      " خودی": 7962,
      "درحالی": 7963,
      "‌هایم": 7964,
      " محتر": 7965,
      " فرشته": 7966,
      " ترغیب": 7967,
      " مدام": 7968,
      "ارتین": 7969,
      "ern": 7970,
      " دلایلی": 7971,
      " مدیره": 7972,
      "ath": 7973,
      "شرایط": 7974,
      " پیری": 7975,
      " اقداماتی": 7976,
      " مستقیما": 7977,
      "مشخص": 7978,
      " راستا": 7979,
      "زمینی": 7980,
      " وفاداری": 7981,
      " اکتشاف": 7982,
      " تطبیق": 7983,
      "AR": 7984,
      "راز": 7985,
      "غر": 7986,
      "نهایت": 7987,
      " درآورد": 7988,
      " پاهای": 7989,
      " لپ": 7990,
      "منین": 7991,
      " مرطوب": 7992,
      " دوستش": 7993,
      "ائلی": 7994,
      "‌دست": 7995,
      " شخصیتی": 7996,
      " مسئولان": 7997,
      " میدهند": 7998,
      " تونل": 7999,
      "بیماری": 8000,
      " بپردازید": 8001,
      " کاندید": 8002,
      " آفرینش": 8003,
      "اقتصاد": 8004,
      "HD": 8005,
      "son": 8006,
      "اگون": 8007,
      "حک": 8008,
      "زون": 8009,
      "صح": 8010,
      " مباح": 8011,
      " بهم": 8012,
      " پایی": 8013,
      " همسای": 8014,
      "گرام": 8015,
      " ایالتی": 8016,
      "عهده": 8017,
      " نوآور": 8018,
      " مجمع": 8019,
      " حدودی": 8020,
      " نقره": 8021,
      "پیشنه": 8022,
      "جرای": 8023,
      " اهمیتی": 8024,
      " مغن": 8025,
      " خوابیدن": 8026,
      " مذکور": 8027,
      " مترو": 8028,
      " پژوهشگران": 8029,
      " پوستی": 8030,
      " دیروز": 8031,
      " ناخود": 8032,
      " پانزده": 8033,
      " گرسنه": 8034,
      "AT": 8035,
      "جت": 8036,
      " ابو": 8037,
      " کول": 8038,
      "ستات": 8039,
      " درآم": 8040,
      " برون": 8041,
      " پتر": 8042,
      " کارشان": 8043,
      " بیستم": 8044,
      "سانس": 8045,
      " هیچگاه": 8046,
      "‌داشت": 8047,
      " باورند": 8048,
      "دوین": 8049,
      " مستقیماً": 8050,
      "جانبه": 8051,
      "کمک": 8052,
      "نزدی": 8053,
      " معیارهای": 8054,
      " تسلط": 8055,
      " اکسید": 8056,
      " نامناسب": 8057,
      "44": 8058,
      "طئه": 8059,
      "۲۸": 8060,
      " الا": 8061,
      " نیت": 8062,
      " دوازده": 8063,
      " چهل": 8064,
      "‌کم": 8065,
      " ابری": 8066,
      " واگذار": 8067,
      " Net": 8068,
      " هوشی": 8069,
      "‌دانستم": 8070,
      " یونانی": 8071,
      " ولایت": 8072,
      " اتوماتیک": 8073,
      "مجموعه": 8074,
      "ual": 8075,
      "جور": 8076,
      " بقای": 8077,
      " کوان": 8078,
      " وز": 8079,
      " باهم": 8080,
      "هاي": 8081,
      " منز": 8082,
      "برخلاف": 8083,
      " بدل": 8084,
      "استاد": 8085,
      " تعلیم": 8086,
      "anc": 8087,
      "orm": 8088,
      "لسکوپ": 8089,
      " شکستن": 8090,
      " سودمند": 8091,
      " مزرعه": 8092,
      " فرمودند": 8093,
      "‌جمهوری": 8094,
      "نویسنده": 8095,
      "موسیقی": 8096,
      " کلمبیا": 8097,
      "MI": 8098,
      "ON": 8099,
      "خیم": 8100,
      "صب": 8101,
      "ماده": 8102,
      "نون": 8103,
      "وام": 8104,
      "‌بی": 8105,
      " اکر": 8106,
      " کیه": 8107,
      " خیره": 8108,
      " استوار": 8109,
      " برانگی": 8110,
      " حش": 8111,
      "ترنت": 8112,
      " صاف": 8113,
      " صعود": 8114,
      " امّا": 8115,
      "منستان": 8116,
      " مرجع": 8117,
      " اعصاب": 8118,
      "اطمینان": 8119,
      "گزینه": 8120,
      "لوت": 8121,
      " ذات": 8122,
      " بخشید": 8123,
      " -\n": 8124,
      " تجربی": 8125,
      " پاسخی": 8126,
      " نمایان": 8127,
      " اساسا": 8128,
      " شوک": 8129,
      " بپردازد": 8130,
      "olog": 8131,
      " ترکیبات": 8132,
      " کاتولیک": 8133,
      "‌گذارند": 8134,
      "سپ": 8135,
      "نور": 8136,
      "نباید": 8137,
      "ِی": 8138,
      "پایان": 8139,
      " ادی": 8140,
      " دما": 8141,
      " سوری": 8142,
      " پله": 8143,
      " پهن": 8144,
      " تواف": 8145,
      " معتر": 8146,
      " ارایه": 8147,
      " زیستی": 8148,
      " دلخواه": 8149,
      " روشهای": 8150,
      " آسیای": 8151,
      " مفصل": 8152,
      " خطای": 8153,
      " تهدیدات": 8154,
      "‌بینم": 8155,
      "ign": 8156,
      " پردازنده": 8157,
      "پروژه": 8158,
      "ثه": 8159,
      "ذیب": 8160,
      "فسه": 8161,
      "هفته": 8162,
      "ژول": 8163,
      "‌فرم": 8164,
      " کاو": 8165,
      "ایانه": 8166,
      " خم": 8167,
      " پیم": 8168,
      " اینقدر": 8169,
      " نیا": 8170,
      " نیوز": 8171,
      " شدیدی": 8172,
      " سرش": 8173,
      " قرون": 8174,
      " گرجستان": 8175,
      " بازمی": 8176,
      " تمدید": 8177,
      "اصد": 8178,
      " بخشیدن": 8179,
      " MBA": 8180,
      " PC": 8181,
      "att": 8182,
      " Wi": 8183,
      " لحظات": 8184,
      "‌پرداز": 8185,
      "ame": 8186,
      " نمودار": 8187,
      " ببریم": 8188,
      " فرآیندهای": 8189,
      " ناتوانی": 8190,
      " سامانه": 8191,
      "معمولاً": 8192,
      " بپردازند": 8193,
      " مریخ": 8194,
      " آرژانتین": 8195,
      "علیه": 8196,
      "كت": 8197,
      " مصد": 8198,
      "انتق": 8199,
      " خن": 8200,
      " پرا": 8201,
      " جین": 8202,
      "فرزند": 8203,
      " محص": 8204,
      " آماری": 8205,
      "‌دهندگان": 8206,
      " تعقیب": 8207,
      " حرفی": 8208,
      " Ed": 8209,
      " سنسور": 8210,
      " خوشبختی": 8211,
      " انتقادی": 8212,
      " هنرهای": 8213,
      "راجویی": 8214,
      " قهرمانی": 8215,
      " سانتی": 8216,
      " تدریج": 8217,
      " And": 8218,
      "وگرافی": 8219,
      "indows": 8220,
      " غریبه": 8221,
      " آستانه": 8222,
      " شباهت": 8223,
      "اسرائیل": 8224,
      "RM": 8225,
      "yst": 8226,
      "تک": 8227,
      "نگاه": 8228,
      "‌در": 8229,
      " دال": 8230,
      " رقیب": 8231,
      " هیل": 8232,
      " درای": 8233,
      "اهل": 8234,
      " جک": 8235,
      "ویژگی": 8236,
      " ایکس": 8237,
      "نگاری": 8238,
      " غزه": 8239,
      " غالب": 8240,
      " اتم": 8241,
      " نامحدود": 8242,
      " فروشندگان": 8243,
      " He": 8244,
      " منظر": 8245,
      "ربستان": 8246,
      " اعتراضات": 8247,
      " کارآفرینی": 8248,
      "نخستین": 8249,
      " گزارشی": 8250,
      "حضرت": 8251,
      "صبح": 8252,
      "عاً": 8253,
      "نای": 8254,
      "يا": 8255,
      "‌بوک": 8256,
      " رابرت": 8257,
      " قار": 8258,
      "روند": 8259,
      " صریح": 8260,
      " محوطه": 8261,
      " معکوس": 8262,
      " ،\n": 8263,
      " گرگ": 8264,
      " بینش": 8265,
      " اعزام": 8266,
      " سوزی": 8267,
      "ائو": 8268,
      "اپور": 8269,
      " شماری": 8270,
      " Gr": 8271,
      "‌کردن": 8272,
      " هواداران": 8273,
      " یهود": 8274,
      " ذخایر": 8275,
      " مشاوران": 8276,
      " بیاورند": 8277,
      " آشپزی": 8278,
      "‌ویژه": 8279,
      " عجله": 8280,
      " ناخودآگاه": 8281,
      " x": 8282,
      "SL": 8283,
      "؟\"\n": 8284,
      "باتی": 8285,
      "عید": 8286,
      "غد": 8287,
      "مم": 8288,
      "ِن": 8289,
      "پک": 8290,
      "پاشی": 8291,
      "‌بیند": 8292,
      "‏ها": 8293,
      "ردو": 8294,
      " باطل": 8295,
      " بری": 8296,
      " پند": 8297,
      " پور": 8298,
      " تاکسی": 8299,
      " مسائلی": 8300,
      " جهش": 8301,
      "گیرانه": 8302,
      " اشعه": 8303,
      "ens": 8304,
      " خریدار": 8305,
      "لسله": 8306,
      " Res": 8307,
      " آزمایشگاهی": 8308,
      " آزادانه": 8309,
      " هیات": 8310,
      " پوشیده": 8311,
      " لوکس": 8312,
      " فلز": 8313,
      " فلزی": 8314,
      " واحدهای": 8315,
      " حواس": 8316,
      " مغناطیسی": 8317,
      " k": 8318,
      "47": 8319,
      "ضمن": 8320,
      "‌زده": 8321,
      " اچ": 8322,
      " اکو": 8323,
      " رخت": 8324,
      " هک": 8325,
      "ادو": 8326,
      "الین": 8327,
      " یابی": 8328,
      " فاش": 8329,
      " گن": 8330,
      " گور": 8331,
      "لیق": 8332,
      "ابند": 8333,
      " چرب": 8334,
      "وزارت": 8335,
      " موردی": 8336,
      " مریم": 8337,
      "اصلا": 8338,
      " بخرید": 8339,
      "سرانجام": 8340,
      " شراب": 8341,
      " نگهبان": 8342,
      " خوشحالی": 8343,
      "ions": 8344,
      " کشاورزان": 8345,
      " مارکس": 8346,
      " مخالفان": 8347,
      " You": 8348,
      " دفن": 8349,
      " سلولی": 8350,
      " مقطع": 8351,
      "ier": 8352,
      "ple": 8353,
      "داده": 8354,
      "وئید": 8355,
      "کد": 8356,
      "‌بود": 8357,
      "ارو": 8358,
      " برید": 8359,
      " براى": 8360,
      " پکن": 8361,
      " حیرت": 8362,
      " عط": 8363,
      "هایشان": 8364,
      " همیش": 8365,
      "تیشن": 8366,
      " نیام": 8367,
      " کارگاه": 8368,
      " توطئه": 8369,
      " ارگانی": 8370,
      " نوین": 8371,
      " پسرش": 8372,
      " مثلاً": 8373,
      " گرفتیم": 8374,
      " آرایش": 8375,
      " گیج": 8376,
      "ربایج": 8377,
      " بیانگر": 8378,
      " تفری": 8379,
      " شورش": 8380,
      " URL": 8381,
      "‌بینند": 8382,
      "ower": 8383,
      " منصفانه": 8384,
      " حاملگی": 8385,
      " on": 8386,
      "Fi": 8387,
      "te": 8388,
      "ذکر": 8389,
      "مص": 8390,
      "پات": 8391,
      "کوه": 8392,
      " هیتلر": 8393,
      " سار": 8394,
      " آری": 8395,
      "الص": 8396,
      "امتر": 8397,
      " قبی": 8398,
      " قصه": 8399,
      " همت": 8400,
      " بودی": 8401,
      " فراز": 8402,
      " گرایی": 8403,
      "‌توانستم": 8404,
      " سوپر": 8405,
      " Col": 8406,
      " كم": 8407,
      " اقدامی": 8408,
      " پردازد": 8409,
      " II": 8410,
      " ظریف": 8411,
      " جاود": 8412,
      "مردان": 8413,
      " پارچه": 8414,
      " وحدت": 8415,
      " خشمگین": 8416,
      " بشناسید": 8417,
      " استثنایی": 8418,
      " وسوسه": 8419,
      "رابطه": 8420,
      "az": 8421,
      "­شود": 8422,
      "دون": 8423,
      "رند": 8424,
      "رمان": 8425,
      "فند": 8426,
      "فیه": 8427,
      "‌توجه": 8428,
      " بخواب": 8429,
      " قاتل": 8430,
      "گرم": 8431,
      " معل": 8432,
      "نگری": 8433,
      " الماس": 8434,
      "داخل": 8435,
      "بالاخره": 8436,
      " آیین": 8437,
      " هدفی": 8438,
      " آغوش": 8439,
      " مبارزات": 8440,
      "ild": 8441,
      " تایپ": 8442,
      " همسرم": 8443,
      " تابستانی": 8444,
      " بکنند": 8445,
      " قیام": 8446,
      "تغییرات": 8447,
      " کارفرمایان": 8448,
      " خاتمه": 8449,
      "توصیه": 8450,
      "ET": 8451,
      "MP": 8452,
      "أت": 8453,
      "صیر": 8454,
      "فور": 8455,
      "ممن": 8456,
      "یو": 8457,
      "‎‎": 8458,
      "‏‌": 8459,
      " بطری": 8460,
      " موی": 8461,
      " نابر": 8462,
      "یما": 8463,
      " عاقل": 8464,
      " قاطع": 8465,
      "روشی": 8466,
      " کاراک": 8467,
      " کارشناس": 8468,
      "یتون": 8469,
      " محرمانه": 8470,
      " معقول": 8471,
      "دیده": 8472,
      "داول": 8473,
      " سازه": 8474,
      " راهنما": 8475,
      " جدیدترین": 8476,
      "پیام": 8477,
      " سخنگوی": 8478,
      " چشمگیر": 8479,
      " ستایش": 8480,
      " برسانند": 8481,
      " مسیرهای": 8482,
      " ظاهری": 8483,
      " آخرت": 8484,
      "لاگین": 8485,
      " برداشتن": 8486,
      " اوراق": 8487,
      " سکونت": 8488,
      "پزشکان": 8489,
      " کیلومتری": 8490,
      " بازگرداندن": 8491,
      " ماجراجویی": 8492,
      " حرکتی": 8493,
      " نرسیده": 8494,
      " غالباً": 8495,
      " تلاشی": 8496,
      " برسانید": 8497,
      " بکشند": 8498,
      "BC": 8499,
      "فال": 8500,
      "ستمی": 8501,
      " تدوین": 8502,
      " ناق": 8503,
      " ناش": 8504,
      "اهمیت": 8505,
      " آنجلس": 8506,
      " هایم": 8507,
      "برادر": 8508,
      " متری": 8509,
      " معین": 8510,
      " رویای": 8511,
      "مواد": 8512,
      " ساختمانی": 8513,
      " خدایان": 8514,
      "خوردگی": 8515,
      " شواهدی": 8516,
      " پرسیده": 8517,
      " توضیحات": 8518,
      " بگذاریم": 8519,
      " عقاید": 8520,
      " عزت": 8521,
      " زحمت": 8522,
      "لامیه": 8523,
      "!)\n": 8524,
      "64": 8525,
      "RP": 8526,
      "طن": 8527,
      "مسی": 8528,
      " مبه": 8529,
      " داور": 8530,
      "یمه": 8531,
      "شتگان": 8532,
      "لیف": 8533,
      " قاعده": 8534,
      " روبات": 8535,
      "برند": 8536,
      " متاسفانه": 8537,
      " سرنگ": 8538,
      "جامعه": 8539,
      " تحق": 8540,
      "بوت": 8541,
      " CD": 8542,
      " متحرک": 8543,
      "atch": 8544,
      "محدود": 8545,
      "تصاویر": 8546,
      " مقرون": 8547,
      "ount": 8548,
      " آذربایج": 8549,
      " تجارب": 8550,
      "CO": 8551,
      "هرک": 8552,
      " پیت": 8553,
      " گونگ": 8554,
      "ونز": 8555,
      "انیاهو": 8556,
      " توبه": 8557,
      " محو": 8558,
      " غبار": 8559,
      " الح": 8560,
      "واژه": 8561,
      " Car": 8562,
      " گردیده": 8563,
      "توضیح": 8564,
      " قدری": 8565,
      " ترسیم": 8566,
      " مناطقی": 8567,
      " ورزشکاران": 8568,
      "پرستی": 8569,
      " هواپیماهای": 8570,
      "رافیکی": 8571,
      " بورس": 8572,
      " شجاعت": 8573,
      " افراطی": 8574,
      " USB": 8575,
      " شهرداری": 8576,
      " پروفایل": 8577,
      " کلینتون": 8578,
      " همیشگی": 8579,
      "'s": 8580,
      "af": 8581,
      "فن": 8582,
      "هوا": 8583,
      "١٩": 8584,
      "‌مدت": 8585,
      " بول": 8586,
      " پراک": 8587,
      " اینچ": 8588,
      " جریم": 8589,
      " فاز": 8590,
      " دستگیری": 8591,
      " نوبل": 8592,
      " مقاصد": 8593,
      " رویه": 8594,
      " گفتیم": 8595,
      " ویلیام": 8596,
      " سوپ": 8597,
      " بنزین": 8598,
      " فیلمی": 8599,
      " واژ": 8600,
      "بازار": 8601,
      " شیعی": 8602,
      "دوستان": 8603,
      "همانند": 8604,
      " One": 8605,
      "‌روی": 8606,
      " تهدیدی": 8607,
      " معتقدم": 8608,
      " نکردم": 8609,
      " گازهای": 8610,
      " نتوانسته": 8611,
      " همکارانش": 8612,
      "نقش": 8613,
      " احمقانه": 8614,
      " نوآورانه": 8615,
      "نزدیک": 8616,
      "HP": 8617,
      "RI": 8618,
      "SD": 8619,
      "خان": 8620,
      "قاب": 8621,
      "نگاهی": 8622,
      "‌\n": 8623,
      "‌روز": 8624,
      " وای": 8625,
      " ربود": 8626,
      " تپه": 8627,
      " نشن": 8628,
      " پویا": 8629,
      "یمن": 8630,
      "وانسیون": 8631,
      " منش": 8632,
      " بیه": 8633,
      "فرما": 8634,
      "کیو": 8635,
      " مدال": 8636,
      " نشانگر": 8637,
      " شنوایی": 8638,
      " چندانی": 8639,
      " سوالی": 8640,
      " نسبی": 8641,
      " AD": 8642,
      " کاملی": 8643,
      "enc": 8644,
      " ریخته": 8645,
      " Fr": 8646,
      "‌نظ": 8647,
      " فراگیر": 8648,
      " پیشنهادات": 8649,
      " کیلوگر": 8650,
      " عجیبی": 8651,
      "پرسش": 8652,
      " انبوه": 8653,
      " قبیله": 8654,
      " جریمه": 8655,
      " ”\n": 8656,
      "اگه": 8657,
      "۲۹": 8658,
      " دفع": 8659,
      " رصد": 8660,
      " خوی": 8661,
      " خرس": 8662,
      "ادامه": 8663,
      " برجام": 8664,
      " عینک": 8665,
      " کنگ": 8666,
      " قم": 8667,
      " کارگردانی": 8668,
      " توهین": 8669,
      " آمدید": 8670,
      " قرض": 8671,
      "کیف": 8672,
      " ترانه": 8673,
      " نقشی": 8674,
      "‌دهی": 8675,
      " نشوند": 8676,
      "دنبال": 8677,
      "ition": 8678,
      " نداشتیم": 8679,
      " World": 8680,
      " خوشب": 8681,
      "ree": 8682,
      " بسپار": 8683,
      " پوشیدن": 8684,
      " بلندمدت": 8685,
      " خیاب": 8686,
      " قراردادهای": 8687,
      "ational": 8688,
      " نوزدهم": 8689,
      " روستای": 8690,
      " هرکسی": 8691,
      " مارکسی": 8692,
      " داوطلبانه": 8693,
      " انسولین": 8694,
      " تقلید": 8695,
      " انحصاری": 8696,
      " تثبیت": 8697,
      "CD": 8698,
      "«من": 8699,
      "آفر": 8700,
      "بگذارید": 8701,
      " بادی": 8702,
      " مادی": 8703,
      " سلسله": 8704,
      " برن": 8705,
      " برعهده": 8706,
      "یرغم": 8707,
      " چوبی": 8708,
      " چسب": 8709,
      "ترانه": 8710,
      " مناق": 8711,
      " دانستم": 8712,
      " تصفیه": 8713,
      " هیچکس": 8714,
      " بلژیک": 8715,
      " علل": 8716,
      " “\n": 8717,
      "ائین": 8718,
      "وستون": 8719,
      " وضعیتی": 8720,
      " شیعه": 8721,
      "oud": 8722,
      " محتوی": 8723,
      " كنید": 8724,
      " فدراسیون": 8725,
      " رمزگذاری": 8726,
      " رمزنگاری": 8727,
      " نرمال": 8728,
      "مسئله": 8729,
      " فیلیپین": 8730,
      " ISO": 8731,
      " پراکنده": 8732,
      "آش": 8733,
      "يس": 8734,
      "انج": 8735,
      " هری": 8736,
      " پات": 8737,
      " پنت": 8738,
      "اهن": 8739,
      " فرش": 8740,
      " تناسب": 8741,
      " کشورش": 8742,
      "اصره": 8743,
      " تصمیمی": 8744,
      " شرکتهای": 8745,
      " مخل": 8746,
      " پیروان": 8747,
      " بشکه": 8748,
      "مثال": 8749,
      " شاگردان": 8750,
      "کاوی": 8751,
      " مفهومی": 8752,
      " ژنرال": 8753,
      " احتیاط": 8754,
      "آزادی": 8755,
      " رونمایی": 8756,
      " چاقی": 8757,
      "rosoft": 8758,
      " خنثی": 8759,
      " y": 8760,
      "--": 8761,
      "PC": 8762,
      "دش": 8763,
      "سخت": 8764,
      "منی": 8765,
      "وو": 8766,
      "‌ح": 8767,
      "ایشی": 8768,
      " تلسکوپ": 8769,
      " نانو": 8770,
      " میک": 8771,
      "ودن": 8772,
      " پخت": 8773,
      " گوی": 8774,
      " عطر": 8775,
      " همگان": 8776,
      " انص": 8777,
      " صهی": 8778,
      " سالگرد": 8779,
      " فرقه": 8780,
      " لین": 8781,
      " ترمیم": 8782,
      " بازه": 8783,
      "ارتان": 8784,
      " کوک": 8785,
      "اخیر": 8786,
      " بارسل": 8787,
      "دانان": 8788,
      " نشریه": 8789,
      " تعلیق": 8790,
      " آباد": 8791,
      " آلات": 8792,
      " Br": 8793,
      "ائه": 8794,
      " نبودم": 8795,
      " تاریخچه": 8796,
      "row": 8797,
      "‌پرس": 8798,
      "باترین": 8799,
      " اسپرم": 8800,
      "چندین": 8801,
      " محتوایی": 8802,
      "نسخه": 8803,
      " بفرو": 8804,
      " بخورند": 8805,
      " اقلیمی": 8806,
      " عذرخواهی": 8807,
      "!\"\n": 8808,
      "TC": 8809,
      "خون": 8810,
      "رشد": 8811,
      "صن": 8812,
      "يان": 8813,
      "‌به": 8814,
      " کرو": 8815,
      " کیک": 8816,
      "ارن": 8817,
      " ترو": 8818,
      " هلی": 8819,
      " هراس": 8820,
      " آرا": 8821,
      "دهنده": 8822,
      "ترو": 8823,
      "کیک": 8824,
      " الملل": 8825,
      "موق": 8826,
      " هیچوقت": 8827,
      " ناخوش": 8828,
      "گزاس": 8829,
      " دیدند": 8830,
      " ریز": 8831,
      " ملحق": 8832,
      " خطی": 8833,
      " انتقام": 8834,
      "بحث": 8835,
      " افزونه": 8836,
      " دستورات": 8837,
      " وحش": 8838,
      "own": 8839,
      " حرام": 8840,
      " پنیر": 8841,
      " انگشتان": 8842,
      " ناخالص": 8843,
      " دگرگون": 8844,
      "PI": 8845,
      "بنی": 8846,
      " کاشت": 8847,
      "ارید": 8848,
      "ارائه": 8849,
      " هول": 8850,
      " شوی": 8851,
      "اتفاق": 8852,
      "اقی": 8853,
      " معاهده": 8854,
      "کاربران": 8855,
      "فیق": 8856,
      "۲۰۲": 8857,
      " فروپاشی": 8858,
      "وتا": 8859,
      "ata": 8860,
      "ich": 8861,
      " منظومه": 8862,
      " سفرهای": 8863,
      "old": 8864,
      " تضاد": 8865,
      " پارامتر": 8866,
      " هشتم": 8867,
      " بکنم": 8868,
      " استثنا": 8869,
      " انداختن": 8870,
      " نازل": 8871,
      " برگزیده": 8872,
      " دایره": 8873,
      " سیاستمداران": 8874,
      "سطح": 8875,
      " شاعر": 8876,
      "غدغه": 8877,
      "800": 8878,
      "BS": 8879,
      "ail": 8880,
      "فری": 8881,
      "قوانین": 8882,
      "مغ": 8883,
      "‌اکنون": 8884,
      "انرژی": 8885,
      " برگردان": 8886,
      "اهیر": 8887,
      " زشت": 8888,
      " کنسرت": 8889,
      "راً": 8890,
      "کنم": 8891,
      " ماژول": 8892,
      "فراموش": 8893,
      " امشب": 8894,
      " لبه": 8895,
      "وزن": 8896,
      "اندان": 8897,
      "اندازه": 8898,
      " بخار": 8899,
      "قطعا": 8900,
      " بازیافت": 8901,
      " نهفته": 8902,
      "ann": 8903,
      " My": 8904,
      " پنجشنبه": 8905,
      " سفیر": 8906,
      "خوردن": 8907,
      " مرگبار": 8908,
      "معرفی": 8909,
      " شیوع": 8910,
      " فراخوان": 8911,
      " استخر": 8912,
      " مهاج": 8913,
      "‌وگو": 8914,
      " هندو": 8915,
      " Inst": 8916,
      " مقرر": 8917,
      " رانندگان": 8918,
      " دفعه": 8919,
      "مشکلات": 8920,
      " یوگا": 8921,
      "درواقع": 8922,
      " شیکاگو": 8923,
      " محترم": 8924,
      "!!": 8925,
      "49": 8926,
      "]]": 8927,
      "land": 8928,
      "آری": 8929,
      "۶۵": 8930,
      " بمیر": 8931,
      "ایب": 8932,
      " تفاوتی": 8933,
      " پلاس": 8934,
      " اینکار": 8935,
      " جیب": 8936,
      " منو": 8937,
      " صمیم": 8938,
      "اسف": 8939,
      "برابر": 8940,
      " دیوان": 8941,
      " لکه": 8942,
      "توانایی": 8943,
      " پسند": 8944,
      "متح": 8945,
      " Air": 8946,
      " ثانویه": 8947,
      "ator": 8948,
      " تأخیر": 8949,
      " سنگی": 8950,
      " تکمیلی": 8951,
      "یزید": 8952,
      " Or": 8953,
      "اهدات": 8954,
      " آسانسور": 8955,
      " نکردن": 8956,
      " ساختارهای": 8957,
      " اذعان": 8958,
      "تقریباً": 8959,
      ".»[": 8960,
      " میخواهید": 8961,
      " شجاع": 8962,
      " تاکتیک": 8963,
      " لزوما": 8964,
      " لیبرال": 8965,
      "ys": 8966,
      "تعدادی": 8967,
      "جوانی": 8968,
      "وود": 8969,
      "پال": 8970,
      " مُ": 8971,
      "ارض": 8972,
      " تسک": 8973,
      " هالی": 8974,
      "فتی": 8975,
      " دوگانه": 8976,
      "کلین": 8977,
      " زیرزمینی": 8978,
      " پروستات": 8979,
      " بلغ": 8980,
      " فعالی": 8981,
      " مختل": 8982,
      " متحمل": 8983,
      " شمشیر": 8984,
      "قاضی": 8985,
      " افزاری": 8986,
      "180": 8987,
      "‌بایست": 8988,
      " جذابیت": 8989,
      " جسمانی": 8990,
      " ناخن": 8991,
      "‌نویسد": 8992,
      " گالری": 8993,
      " خجالت": 8994,
      " همسایگان": 8995,
      "Sc": 8996,
      "­کند": 8997,
      "ذر": 8998,
      "زایی": 8999,
      "عن": 9000,
      "قسمت": 9001,
      "ماید": 9002,
      "کولی": 9003,
      "‌جای": 9004,
      " اغ": 9005,
      " رگ": 9006,
      " تال": 9007,
      " فای": 9008,
      " انز": 9009,
      " موف": 9010,
      "اسد": 9011,
      " متداول": 9012,
      "‌شدن": 9013,
      " اسرایی": 9014,
      "استرات": 9015,
      " بازگردان": 9016,
      " زیرد": 9017,
      "متن": 9018,
      "متخصص": 9019,
      " زنانه": 9020,
      " پرتو": 9021,
      "کسون": 9022,
      " CO": 9023,
      "وتو": 9024,
      " ژان": 9025,
      " تاثیرگذار": 9026,
      " جانبه": 9027,
      "بازاری": 9028,
      " On": 9029,
      "مقدار": 9030,
      " فضاهای": 9031,
      " فضانورد": 9032,
      " دستیار": 9033,
      " دکترا": 9034,
      " گناهان": 9035,
      " پرستار": 9036,
      " حامیان": 9037,
      " متقاضیان": 9038,
      "منطقه": 9039,
      " بغداد": 9040,
      " متابولی": 9041,
      " کیلوگرم": 9042,
      " صهیونی": 9043,
      "co": 9044,
      "دها": 9045,
      "نح": 9046,
      "کونی": 9047,
      "۴۰۰": 9048,
      " بقا": 9049,
      " مکت": 9050,
      " آت": 9051,
      " عاش": 9052,
      " چت": 9053,
      " قله": 9054,
      "درخواست": 9055,
      "یتور": 9056,
      " الع": 9057,
      " الف": 9058,
      " مردانه": 9059,
      " سازندگان": 9060,
      "وشند": 9061,
      "بانیت": 9062,
      "رهبران": 9063,
      "ance": 9064,
      " خارق": 9065,
      " گروگان": 9066,
      " دنباله": 9067,
      "۱۹۰": 9068,
      "ication": 9069,
      " موجودی": 9070,
      " هیپ": 9071,
      " اخیراً": 9072,
      "مردی": 9073,
      " فرماید": 9074,
      " متخصصین": 9075,
      " تورن": 9076,
      "ull": 9077,
      " سینمایی": 9078,
      " کریست": 9079,
      " اردن": 9080,
      " تاسیسات": 9081,
      " مسیحیت": 9082,
      "ake": 9083,
      "میلیون": 9084,
      " سوراخ": 9085,
      " امتداد": 9086,
      "طوبت": 9087,
      " خیابانی": 9088,
      "77": 9089,
      "تین": 9090,
      "جل": 9091,
      "جست": 9092,
      "جشن": 9093,
      "جریه": 9094,
      "قدم": 9095,
      " تگزاس": 9096,
      " ساکت": 9097,
      " برخ": 9098,
      " جاوا": 9099,
      " گرافیک": 9100,
      " عی": 9101,
      " کنوانسیون": 9102,
      "سیلی": 9103,
      " انبار": 9104,
      "فرهنگ": 9105,
      " معاین": 9106,
      "نیک": 9107,
      " لامپ": 9108,
      " تراز": 9109,
      " گرامی": 9110,
      " اندی": 9111,
      "منبع": 9112,
      " بزنم": 9113,
      " مطمئنا": 9114,
      " نشر": 9115,
      "تاژ": 9116,
      " Le": 9117,
      " For": 9118,
      " ضربان": 9119,
      "ings": 9120,
      "ase": 9121,
      " دوستانم": 9122,
      "مشاهده": 9123,
      " پوسته": 9124,
      " دانمارک": 9125,
      " دفاتر": 9126,
      "نخست": 9127,
      " خبرنگار": 9128,
      "(ص": 9129,
      "-C": 9130,
      "EL": 9131,
      "RA": 9132,
      "RE": 9133,
      "آمیز": 9134,
      "بلی": 9135,
      "ضع": 9136,
      "مسل": 9137,
      "چک": 9138,
      " بوس": 9139,
      " مبد": 9140,
      " مایه": 9141,
      " کروم": 9142,
      " نج": 9143,
      " سکته": 9144,
      " یوسف": 9145,
      " پش": 9146,
      " فورد": 9147,
      " کنتر": 9148,
      " همبستگی": 9149,
      "دهند": 9150,
      "اریا": 9151,
      "آنجا": 9152,
      "جاع": 9153,
      " Sk": 9154,
      " گیریم": 9155,
      " چهارمین": 9156,
      " حمایتی": 9157,
      " Fl": 9158,
      "دانشجویان": 9159,
      "کمتر": 9160,
      " ارزهای": 9161,
      "طلبان": 9162,
      " مجدداً": 9163,
      "سخن": 9164,
      "آگاهی": 9165,
      "زدی": 9166,
      "قام": 9167,
      "نرخ": 9168,
      "هفت": 9169,
      "يز": 9170,
      " مات": 9171,
      "انقل": 9172,
      " استن": 9173,
      " انها": 9174,
      "کنیم": 9175,
      "‌هایتان": 9176,
      " تاجر": 9177,
      " محاصره": 9178,
      " پیغام": 9179,
      "هرچه": 9180,
      " تحلیلی": 9181,
      " نواز": 9182,
      "ومتی": 9183,
      " کلان": 9184,
      "متأسفانه": 9185,
      "تومی": 9186,
      " ابداع": 9187,
      " Windows": 9188,
      " یافتند": 9189,
      " تکذیب": 9190,
      " نویسد": 9191,
      "گذشته": 9192,
      "‌گذرد": 9193,
      " بارسلونا": 9194,
      " ناخوشایند": 9195,
      "900": 9196,
      "ject": 9197,
      "رست": 9198,
      "شوی": 9199,
      "مزای": 9200,
      " میاد": 9201,
      "اتاق": 9202,
      " زغال": 9203,
      " قفسه": 9204,
      "ترجمه": 9205,
      " امضای": 9206,
      " فرشتگان": 9207,
      "همراه": 9208,
      " رویاهای": 9209,
      " تصدی": 9210,
      "خواهد": 9211,
      "ons": 9212,
      " فیلسو": 9213,
      " Pre": 9214,
      "کردن": 9215,
      " مصرفی": 9216,
      " بحرانی": 9217,
      " مادربزرگ": 9218,
      " جواه": 9219,
      " ایدز": 9220,
      " خورند": 9221,
      " تفنگ": 9222,
      " سنگاپور": 9223,
      " گلخانه": 9224,
      "آینده": 9225,
      " آوریم": 9226,
      " عصب": 9227,
      "گذاران": 9228,
      " نتواند": 9229,
      " آفرید": 9230,
      " جرایم": 9231,
      "‌گفتند": 9232,
      " Play": 9233,
      "نحوه": 9234,
      "46": 9235,
      "Ph": 9236,
      "][": 9237,
      "pen": 9238,
      "؟”\n": 9239,
      "باد": 9240,
      "کاو": 9241,
      " کافه": 9242,
      " کافر": 9243,
      " ویک": 9244,
      " رضا": 9245,
      " تدار": 9246,
      " آوی": 9247,
      "ادش": 9248,
      " گارد": 9249,
      "لیقه": 9250,
      "روب": 9251,
      " دارا": 9252,
      " بیل": 9253,
      " پیامی": 9254,
      " داشتنی": 9255,
      "اردو": 9256,
      "آنگاه": 9257,
      "ery": 9258,
      " اعلامیه": 9259,
      "کسب": 9260,
      " تعرفه": 9261,
      "پیامبر": 9262,
      " قدرتی": 9263,
      "ale": 9264,
      " دیدیم": 9265,
      " جامد": 9266,
      " Red": 9267,
      " کودکانی": 9268,
      " نظامیان": 9269,
      " دردسر": 9270,
      " محلول": 9271,
      "تمرکز": 9272,
      " تانک": 9273,
      "مشده": 9274,
      " بانکداری": 9275,
      " مکانیک": 9276,
      " امیدواریم": 9277,
      " پنل": 9278,
      " ژنتیک": 9279,
      " استعفا": 9280,
      "دومین": 9281,
      " تداوم": 9282,
      " دستاوردهای": 9283,
      " صلیب": 9284,
      " ديگر": 9285,
      " علاقمند": 9286,
      " University": 9287,
      " توافقی": 9288,
      " آذربایجان": 9289,
      "700": 9290,
      "IM": 9291,
      "box": 9292,
      "دلم": 9293,
      "ذب": 9294,
      "شش": 9295,
      "ِر": 9296,
      "‌سی": 9297,
      " بخو": 9298,
      " دانی": 9299,
      " خاندان": 9300,
      "امّا": 9301,
      "ورزش": 9302,
      "ازدواج": 9303,
      " نیجریه": 9304,
      " توالت": 9305,
      " امتن": 9306,
      "افس": 9307,
      " پیشبرد": 9308,
      "صدای": 9309,
      "‌گویید": 9310,
      " زمانیکه": 9311,
      " Dr": 9312,
      "تاثیر": 9313,
      "ley": 9314,
      " خواندم": 9315,
      " بدانم": 9316,
      " تایوان": 9317,
      " ارزشی": 9318,
      " موشکی": 9319,
      " مقدمه": 9320,
      " مقدماتی": 9321,
      "حض": 9322,
      "َل": 9323,
      "پن": 9324,
      " مود": 9325,
      " رج": 9326,
      " سي": 9327,
      " پلاگین": 9328,
      " فین": 9329,
      "ترکی": 9330,
      "ترکیه": 9331,
      "رافت": 9332,
      "تیو": 9333,
      "کنی": 9334,
      "اشتباه": 9335,
      " معص": 9336,
      " سرشار": 9337,
      "دیدگاه": 9338,
      "شیو": 9339,
      " بینم": 9340,
      " اتریش": 9341,
      "ایتان": 9342,
      " مجاهد": 9343,
      " کلسیم": 9344,
      "‌گوییم": 9345,
      " بعداً": 9346,
      " بنظر": 9347,
      " Me": 9348,
      " منتخب": 9349,
      " واژن": 9350,
      " صداقت": 9351,
      " نمایشی": 9352,
      "‌ناپذیر": 9353,
      "iss": 9354,
      " مهندسان": 9355,
      "دستگاه": 9356,
      " مکانیکی": 9357,
      " اثری": 9358,
      " رادیکال": 9359,
      " هورمونی": 9360,
      " نازک": 9361,
      " اتهامات": 9362,
      "‌آموزان": 9363,
      " عبارات": 9364,
      " بیابید": 9365,
      " ایدئولوژی": 9366,
      " پاییز": 9367,
      " نیامده": 9368,
      " کاراکتر": 9369,
      ":\"": 9370,
      "IF": 9371,
      "ai": 9372,
      "كر": 9373,
      " بندگان": 9374,
      " بستن": 9375,
      " مارتین": 9376,
      " دغدغه": 9377,
      " ریچ": 9378,
      " میگیر": 9379,
      " میشد": 9380,
      " خب": 9381,
      " گش": 9382,
      " گوسف": 9383,
      " عید": 9384,
      " بیولوژیکی": 9385,
      " پیشتر": 9386,
      "اوار": 9387,
      " دستکاری": 9388,
      " کمدی": 9389,
      " دانستند": 9390,
      " دادید": 9391,
      "‌کاری": 9392,
      " گذران": 9393,
      " جماهیر": 9394,
      " شناور": 9395,
      " نقدی": 9396,
      "iness": 9397,
      " بلد": 9398,
      "احب": 9399,
      " كشور": 9400,
      " منتق": 9401,
      " خدمه": 9402,
      " دریافتی": 9403,
      "lect": 9404,
      "جواب": 9405,
      " تفریح": 9406,
      " میلیاردها": 9407,
      "تونم": 9408,
      " آسمانی": 9409,
      " هفتم": 9410,
      " زودرس": 9411,
      "وزیلند": 9412,
      "مدتاً": 9413,
      " امپرا": 9414,
      " نژادی": 9415,
      " قاعد": 9416,
      " Qu": 9417,
      " مؤسسه": 9418,
      "دوربین": 9419,
      " لایحه": 9420,
      "پیشنهاد": 9421,
      "‌فرماید": 9422,
      " کاوش": 9423,
      " موفقی": 9424,
      "استراتژی": 9425,
      "؟؟\n": 9426,
      "بیا": 9427,
      "ُر": 9428,
      "اندی": 9429,
      " درخش": 9430,
      " شری": 9431,
      " شفا": 9432,
      " آمی": 9433,
      " باقیم": 9434,
      " چاره": 9435,
      "ریایی": 9436,
      "ازدهم": 9437,
      " صمیمی": 9438,
      " توازن": 9439,
      " فرام": 9440,
      "‌شوم": 9441,
      " اندرو": 9442,
      " تجمع": 9443,
      "مندانه": 9444,
      "ابرسی": 9445,
      " سوژه": 9446,
      "اطمه": 9447,
      " صحت": 9448,
      " بعید": 9449,
      " حکمت": 9450,
      " گذاشتند": 9451,
      " تفاهم": 9452,
      "افتد": 9453,
      " خصوصیات": 9454,
      " فلج": 9455,
      "able": 9456,
      "‌خواستند": 9457,
      " تخمک": 9458,
      " سپاسگزار": 9459,
      " مباحث": 9460,
      " حشرات": 9461,
      "les": 9462,
      "min": 9463,
      "اء": 9464,
      "حرف": 9465,
      "رانند": 9466,
      "شویی": 9467,
      "طول": 9468,
      "طوف": 9469,
      "پایه": 9470,
      " اگه": 9471,
      " رکود": 9472,
      " پرف": 9473,
      " پوتین": 9474,
      "ازل": 9475,
      "کنترل": 9476,
      "نگه": 9477,
      "مایت": 9478,
      " ارمنستان": 9479,
      " اندیش": 9480,
      " دانسته": 9481,
      " نوجوانی": 9482,
      " سیستمی": 9483,
      " مجروح": 9484,
      " Sch": 9485,
      " نشینی": 9486,
      " اطلاعی": 9487,
      " ذره": 9488,
      " مستق": 9489,
      " نداشتن": 9490,
      " طرفین": 9491,
      " نخواهم": 9492,
      " پرسنل": 9493,
      "ise": 9494,
      " مبارک": 9495,
      " مهاجم": 9496,
      " تأثیرات": 9497,
      " افسرده": 9498,
      "فکران": 9499,
      "دسترسی": 9500,
      " پایداری": 9501,
      " توانستیم": 9502,
      " مهربانی": 9503,
      " خلقت": 9504,
      " هرکدام": 9505,
      " هاروارد": 9506,
      " پرتغال": 9507,
      " خزانه": 9508,
      " قواعد": 9509,
      "))": 9510,
      "140": 9511,
      "66": 9512,
      "iel": 9513,
      "ium": 9514,
      "uct": 9515,
      "حاتی": 9516,
      "كی": 9517,
      "هند": 9518,
      " بچ": 9519,
      " کث": 9520,
      " سحر": 9521,
      " آلی": 9522,
      "ردی": 9523,
      "ردید": 9524,
      " جانسون": 9525,
      " حروف": 9526,
      "هایتا": 9527,
      " دادستان": 9528,
      "‌کرده": 9529,
      " واقعه": 9530,
      " تبلت": 9531,
      " تولیدکنندگان": 9532,
      " ساعتی": 9533,
      " کوچکترین": 9534,
      " ابدی": 9535,
      " هدفمند": 9536,
      " صدایی": 9537,
      "ames": 9538,
      "تمرین": 9539,
      " بخواند": 9540,
      " سؤالات": 9541,
      " جسد": 9542,
      "‌‌‌‌‌‌‌‌": 9543,
      "طبیعی": 9544,
      " مظنون": 9545,
      " کوشش": 9546,
      "اتحادیه": 9547,
      "ystem": 9548,
      " تحقیر": 9549,
      "متحده": 9550,
      "51": 9551,
      "CS": 9552,
      "دقیق": 9553,
      "فسی": 9554,
      "‌تنها": 9555,
      " رول": 9556,
      " رطوبت": 9557,
      " میگیرد": 9558,
      " سز": 9559,
      " فا": 9560,
      " حما": 9561,
      " گویید": 9562,
      "ماشین": 9563,
      "روابط": 9564,
      " توانی": 9565,
      " اسمیت": 9566,
      "استر": 9567,
      " مرج": 9568,
      " افشا": 9569,
      "کلید": 9570,
      "کارشناسان": 9571,
      " نامش": 9572,
      " بنوشید": 9573,
      " عملا": 9574,
      " آرمان": 9575,
      " فعالیتهای": 9576,
      " پاسخگو": 9577,
      " عموما": 9578,
      "تحلیل": 9579,
      " جلوتر": 9580,
      "اعضای": 9581,
      " انگیزی": 9582,
      " لذا": 9583,
      " سودان": 9584,
      "مشاور": 9585,
      " فلزات": 9586,
      " تمایز": 9587,
      " افتادن": 9588,
      " پارکینگ": 9589,
      " خوشحالم": 9590,
      " فرضیه": 9591,
      " de": 9592,
      " گمرک": 9593,
      " امتیازات": 9594,
      "چنانچه": 9595,
      " جابجایی": 9596,
      " نگیرید": 9597,
      " تفریحی": 9598,
      " ناقص": 9599,
      " تسکین": 9600,
      " امتناع": 9601,
      " باقیمانده": 9602,
      "EA": 9603,
      "آیت": 9604,
      "تز": 9605,
      "حزب": 9606,
      "رود": 9607,
      "علت": 9608,
      "قهر": 9609,
      "‌می": 9610,
      " بلا": 9611,
      " بخورد": 9612,
      " وات": 9613,
      " دره": 9614,
      " میش": 9615,
      " ختم": 9616,
      " خفیف": 9617,
      " پد": 9618,
      " جاهای": 9619,
      " حاد": 9620,
      " گمشده": 9621,
      " انطب": 9622,
      " محف": 9623,
      " اطرافی": 9624,
      " نامگذاری": 9625,
      " بارگذاری": 9626,
      " علایم": 9627,
      " PS": 9628,
      " شکو": 9629,
      " ملزم": 9630,
      " Ev": 9631,
      "‌نویسی": 9632,
      " حکومتی": 9633,
      " ابزارها": 9634,
      " ویروسی": 9635,
      " موسوم": 9636,
      " عمیقی": 9637,
      "usiness": 9638,
      "‌شنبه": 9639,
      " بخوانند": 9640,
      " طبقاتی": 9641,
      " مکانیسم": 9642,
      " تسری": 9643,
      " پوشان": 9644,
      " خالق": 9645,
      " بفهمید": 9646,
      " نيز": 9647,
      " دیکتاتوری": 9648,
      " %": 9649,
      "DF": 9650,
      "ps": 9651,
      "ts": 9652,
      "كل": 9653,
      "مخصوص": 9654,
      "ومیت": 9655,
      "٢٠": 9656,
      "چاله": 9657,
      "‬‬": 9658,
      " بدر": 9659,
      " کیم": 9660,
      " تابل": 9661,
      " میخ": 9662,
      " گیم": 9663,
      " چنگ": 9664,
      " دویدن": 9665,
      " توانمند": 9666,
      " متکی": 9667,
      " معاف": 9668,
      " لینو": 9669,
      " مسکونی": 9670,
      " تناس": 9671,
      "کلت": 9672,
      " مدیرعامل": 9673,
      " ژنو": 9674,
      "بنابر": 9675,
      " بردم": 9676,
      "گفتند": 9677,
      " عضله": 9678,
      " تلفات": 9679,
      " سنگینی": 9680,
      " فرانک": 9681,
      "آمریکایی": 9682,
      " سلولهای": 9683,
      " شیرینی": 9684,
      "سیسکو": 9685,
      " بزنیم": 9686,
      "‌گیرید": 9687,
      " کارآموزی": 9688,
      " بسازیم": 9689,
      "uper": 9690,
      " بفهمیم": 9691,
      "ound": 9692,
      "مشتریان": 9693,
      "حافظی": 9694,
      " Microsoft": 9695,
      "چشمه": 9696,
      "41": 9697,
      ":‌": 9698,
      "آید": 9699,
      "تست": 9700,
      "ثبات": 9701,
      "حمایت": 9702,
      "ضل": 9703,
      "موزه": 9704,
      "ُم": 9705,
      " بجای": 9706,
      " میرسد": 9707,
      " سقط": 9708,
      "امیک": 9709,
      " عمدتاً": 9710,
      "لیسی": 9711,
      " زائ": 9712,
      " قوه": 9713,
      "گرهای": 9714,
      "اینترنت": 9715,
      "دیگران": 9716,
      " رسم": 9717,
      " گذرد": 9718,
      " رویا": 9719,
      " زیباترین": 9720,
      " نامید": 9721,
      " ارتقای": 9722,
      " Med": 9723,
      " فروخت": 9724,
      " حسابرسی": 9725,
      "شرفت": 9726,
      " دیدنی": 9727,
      " محصولاتی": 9728,
      "ital": 9729,
      "roid": 9730,
      " معنایی": 9731,
      "‌رسند": 9732,
      "ade": 9733,
      " پاکسازی": 9734,
      " کاربردهای": 9735,
      " پناهندگی": 9736,
      " داوود": 9737,
      " انحراف": 9738,
      " تظاهر": 9739,
      "فرانسه": 9740,
      " منفجر": 9741,
      " بلوغ": 9742,
      " مساوی": 9743,
      "sp": 9744,
      "work": 9745,
      "آورده": 9746,
      "بانه": 9747,
      "ببینید": 9748,
      "تأ": 9749,
      "مها": 9750,
      "نر": 9751,
      "َن": 9752,
      " اژ": 9753,
      " اورش": 9754,
      " درج": 9755,
      " نگاری": 9756,
      " میخو": 9757,
      " بهای": 9758,
      " سون": 9759,
      " ازجمله": 9760,
      " فدا": 9761,
      " فتح": 9762,
      " آنف": 9763,
      " عث": 9764,
      " یکم": 9765,
      " یکسانی": 9766,
      " نیوزیلند": 9767,
      "زیی": 9768,
      " کمر": 9769,
      " گرین": 9770,
      " اسکی": 9771,
      "‌توانستند": 9772,
      "موتور": 9773,
      "کارهای": 9774,
      "خواهید": 9775,
      " تبریک": 9776,
      " تولیدکننده": 9777,
      " Mac": 9778,
      "روزنامه": 9779,
      "eng": 9780,
      " لیتر": 9781,
      " بحرین": 9782,
      " منظره": 9783,
      " خشکی": 9784,
      "محمد": 9785,
      " هفتگی": 9786,
      " ریاض": 9787,
      " منحرف": 9788,
[...]
