{
  "version": "1.0",
  "truncation": null,
  "padding": null,
  "added_tokens": [],
  "normalizer": null,
  "pre_tokenizer": {
    "type": "Sequence",
    "pretokenizers": [
      {
        "type": "Split",
        "pattern": {
          "Regex": "[^\\r\\n\\p{L}\\p{N}]?[\\p{Lu}\\p{Lt}\\p{Lm}\\p{Lo}\\p{M}]*[\\p{Ll}\\p{Lm}\\p{Lo}\\p{M}]+|[^\\r\\n\\p{L}\\p{N}]?[\\p{Lu}\\p{Lt}\\p{Lm}\\p{Lo}\\p{M}]+[\\p{Ll}\\p{Lm}\\p{Lo}\\p{M}]*|\\p{N}{1,3}| ?[^\\s\\p{L}\\p{N}]+[\\r\\n/]*|\\s*[\\r\\n]+|\\s+(?!\\S)|\\s+"
        },
        "behavior": "Isolated",
        "invert": false
      }
    ]
  },
  "post_processor": null,
  "decoder": null,
  "model": {
    "type": "BPE",
    "dropout": null,
    "unk_token": null,
    "continuing_subword_prefix": null,
    "end_of_word_suffix": null,
    "fuse_unk": false,
    "byte_fallback": false,
    "ignore_merges": false,
    "vocab": {
      "\n": 0,
      " ": 1,
      "!": 2,
      "\"": 3,
      "#": 4,
      "$": 5,
      "%": 6,
      "&": 7,
      "'": 8,
      "(": 9,
      ")": 10,
      "*": 11,
      "+": 12,
      ",": 13,
      "-": 14,
      ".": 15,
      "/": 16,
      "0": 17,
      "1": 18,
      "2": 19,
      "3": 20,
      "4": 21,
      "5": 22,
      "6": 23,
      "7": 24,
      "8": 25,
      "9": 26,
      ":": 27,
      ";": 28,
      "<": 29,
      "=": 30,
      ">": 31,
      "?": 32,
      "@": 33,
      "A": 34,
      "B": 35,
      "C": 36,
      "D": 37,
      "E": 38,
      "F": 39,
      "G": 40,
      "H": 41,
      "I": 42,
      "J": 43,
      "K": 44,
      "L": 45,
      "M": 46,
      "N": 47,
      "O": 48,
      "P": 49,
      "Q": 50,
      "R": 51,
      "S": 52,
      "T": 53,
      "U": 54,
      "V": 55,
      "W": 56,
      "X": 57,
      "Y": 58,
      "Z": 59,
      "[": 60,
      "\\": 61,
      "]": 62,
      "_": 63,
      "`": 64,
      "a": 65,
      "b": 66,
      "c": 67,
      "d": 68,
      "e": 69,
      "f": 70,
      "g": 71,
      "h": 72,
      "i": 73,
      "j": 74,
      "k": 75,
      "l": 76,
      "m": 77,
      "n": 78,
      "o": 79,
      "p": 80,
      "q": 81,
      "r": 82,
      "s": 83,
      "t": 84,
      "u": 85,
      "v": 86,
      "w": 87,
      "x": 88,
      "y": 89,
      "z": 90,
      "~": 91,
      "": 92,
      "": 93,
      "": 94,
      "¡": 95,
      "¤": 96,
      "§": 97,
      "©": 98,
      "­": 99,
      "®": 100,
      "°": 101,
      "±": 102,
      "³": 103,
      "µ": 104,
      "¶": 105,
      "·": 106,
      "¼": 107,
      "½": 108,
      "À": 109,
      "Á": 110,
      "Â": 111,
      "Ã": 112,
      "Ä": 113,
      "Å": 114,
      "Æ": 115,
      "Ç": 116,
      "É": 117,
      "Í": 118,
      "Ò": 119,
      "Ó": 120,
      "Õ": 121,
      "Ö": 122,
      "×": 123,
      "Ø": 124,
      "Ú": 125,
      "Û": 126,
      "Ü": 127,
      "Þ": 128,
      "ß": 129,
      "à": 130,
      "á": 131,
      "â": 132,
      "ã": 133,
      "ä": 134,
      "å": 135,
      "æ": 136,
      "ç": 137,
      "è": 138,
      "é": 139,
      "ê": 140,
      "ë": 141,
      "ì": 142,
      "í": 143,
      "î": 144,
      "ï": 145,
      "ð": 146,
      "ñ": 147,
      "ò": 148,
      "ó": 149,
      "ô": 150,
      "õ": 151,
      "ö": 152,
      "ø": 153,
      "ú": 154,
      "û": 155,
      "ü": 156,
      "ý": 157,
      "ÿ": 158,
      "ā": 159,
      "ă": 160,
      "ą": 161,
      "ć": 162,
      "Č": 163,
      "č": 164,
      "đ": 165,
      "ē": 166,
      "ė": 167,
      "ę": 168,
      "ě": 169,
      "ğ": 170,
      "ģ": 171,
      "ī": 172,
      "İ": 173,
      "ı": 174,
      "Ķ": 175,
      "ľ": 176,
      "Ł": 177,
      "ł": 178,
      "ń": 179,
      "ņ": 180,
      "ň": 181,
      "ō": 182,
      "ŏ": 183,
      "œ": 184,
      "ř": 185,
      "ś": 186,
      "ş": 187,
      "Š": 188,
      "š": 189,
      "ū": 190,
      "ů": 191,
      "ų": 192,
      "ź": 193,
      "ż": 194,
      "Ž": 195,
      "ž": 196,
      "ǎ": 197,
      "Ș": 198,
      "ș": 199,
      "ț": 200,
      "ə": 201,
      "˗": 202,
      "́": 203,
      "̈": 204,
      "α": 205,
      "μ": 206,
      "А": 207,
      "Б": 208,
      "В": 209,
      "Д": 210,
      "Ж": 211,
      "З": 212,
      "И": 213,
      "К": 214,
      "Л": 215,
      "Н": 216,
      "О": 217,
      "П": 218,
      "С": 219,
      "Т": 220,
      "Ф": 221,
      "Ш": 222,
      "Э": 223,
      "а": 224,
      "б": 225,
      "в": 226,
      "г": 227,
      "д": 228,
      "е": 229,
      "ж": 230,
      "з": 231,
      "и": 232,
      "й": 233,
      "к": 234,
      "л": 235,
      "м": 236,
      "н": 237,
      "о": 238,
      "п": 239,
      "р": 240,
      "с": 241,
      "т": 242,
      "у": 243,
      "ф": 244,
      "х": 245,
      "ц": 246,
      "ч": 247,
      "ш": 248,
      "щ": 249,
      "ы": 250,
      "ь": 251,
      "э": 252,
      "ю": 253,
      "я": 254,
      "ỏ": 255,
      "ố": 256,
      "‍": 257,
      "‑": 258,
      "‒": 259,
      "•": 260,
      "‰": 261,
      "″": 262,
      "⁣": 263,
      "₁": 264,
      "₂": 265,
      "€": 266,
      "℃": 267,
      "⅓": 268,
      "−": 269,
      "∞": 270,
      "■": 271,
      "●": 272,
      "★": 273,
      "⭐": 274,
      "😂": 275,
      "🤌": 276,
      "en": 277,
      "ta": 278,
      "is": 279,
      "in": 280,
      "an": 281,
      " k": 282,
      "ll": 283,
      ".\n": 284,
      " o": 285,
      "tt": 286,
      "sa": 287,
      "si": 288,
      " j": 289,
      "va": 290,
      " m": 291,
      " p": 292,
      " t": 293,
      "ka": 294,
      "it": 295,
      "es": 296,
      "el": 297,
      "än": 298,
      "er": 299,
      "ut": 300,
      "uo": 301,
      " s": 302,
      " h": 303,
      "us": 304,
      "ik": 305,
      " v": 306,
      "un": 307,
      " e": 308,
      "on": 309,
      "al": 310,
      "as": 311,
      "ti": 312,
      " l": 313,
      " ja": 314,
      "oi": 315,
      "tä": 316,
      " on": 317,
      "il": 318,
      "lla": 319,
      "et": 320,
      "ma": 321,
      " a": 322,
      "uk": 323,
      " va": 324,
      "li": 325,
      "een": 326,
      "ja": 327,
      "os": 328,
      "ää": 329,
      " n": 330,
      "ra": 331,
      "uu": 332,
      "ttä": 333,
      "ist": 334,
      " ta": 335,
      "lle": 336,
      "ul": 337,
      "ko": 338,
      "ar": 339,
      "ki": 340,
      "ista": 341,
      "te": 342,
      "sä": 343,
      "den": 344,
      "mm": 345,
      "isi": 346,
      " y": 347,
      " ko": 348,
      "aa": 349,
      "tti": 350,
      " jo": 351,
      "inen": 352,
      "to": 353,
      "llä": 354,
      "ri": 355,
      "yö": 356,
      "vat": 357,
      " ka": 358,
      "ksi": 359,
      "vä": 360,
      " S": 361,
      " mu": 362,
      "ys": 363,
      " si": 364,
      "yt": 365,
      "ke": 366,
      "le": 367,
      "ur": 368,
      "ks": 369,
      " sa": 370,
      " vi": 371,
      "hd": 372,
      "taa": 373,
      "mi": 374,
      " että": 375,
      "vi": 376,
      "pa": 377,
      "ei": 378,
      "kaan": 379,
      "ään": 380,
      "kin": 381,
      " ei": 382,
      "uks": 383,
      "ih": 384,
      "issa": 385,
      "utta": 386,
      "isen": 387,
      " se": 388,
      "mp": 389,
      "ku": 390,
      " oli": 391,
      "la": 392,
      " r": 393,
      "äh": 394,
      " K": 395,
      "ina": 396,
      "uh": 397,
      "assa": 398,
      "essa": 399,
      "jo": 400,
      " ma": 401,
      "ie": 402,
      " M": 403,
      "op": 404,
      "taan": 405,
      " ku": 406,
      " ker": 407,
      "de": 408,
      "yn": 409,
      "im": 410,
      " vuo": 411,
      " en": 412,
      "or": 413,
      "ee": 414,
      " T": 415,
      "ir": 416,
      "tu": 417,
      " hän": 418,
      " P": 419,
      "är": 420,
      " H": 421,
      "unn": 422,
      "usta": 423,
      " al": 424,
      "ann": 425,
      "ot": 426,
      "itä": 427,
      "uom": 428,
      " te": 429,
      "ty": 430,
      "esta": 431,
      "kä": 432,
      " to": 433,
      "mä": 434,
      "istä": 435,
      "ia": 436,
      " pää": 437,
      "ttu": 438,
      "yös": 439,
      "iin": 440,
      "at": 441,
      "ttel": 442,
      " la": 443,
      "jan": 444,
      " V": 445,
      "van": 446,
      " ole": 447,
      " ra": 448,
      " mukaan": 449,
      "man": 450,
      "maan": 451,
      "oit": 452,
      "äl": 453,
      " kä": 454,
      " L": 455,
      " A": 456,
      "yy": 457,
      " tä": 458,
      "ala": 459,
      "asta": 460,
      " po": 461,
      "äi": 462,
      "jä": 463,
      "ika": 464,
      "ossa": 465,
      "llis": 466,
      " -": 467,
      " R": 468,
      "oin": 469,
      "vät": 470,
      "pp": 471,
      " pa": 472,
      " voi": 473,
      "20": 474,
      "mis": 475,
      " ha": 476,
      "sia": 477,
      "uol": 478,
      " myös": 479,
      " kes": 480,
      "se": 481,
      "ussa": 482,
      " san": 483,
      "ne": 484,
      "esti": 485,
      " per": 486,
      "na": 487,
      "ssa": 488,
      " J": 489,
      " kan": 490,
      "re": 491,
      "oa": 492,
      "ten": 493,
      "jen": 494,
      "ol": 495,
      "elä": 496,
      "ien": 497,
      "ui": 498,
      " nä": 499,
      " E": 500,
      " kun": 501,
      "sta": 502,
      " val": 503,
      " N": 504,
      " ol": 505,
      "essä": 506,
      " ovat": 507,
      "uksen": 508,
      "ike": 509,
      "up": 510,
      "llut": 511,
      " I": 512,
      "tta": 513,
      " hy": 514,
      "sin": 515,
      "he": 516,
      "ua": 517,
      " mutta": 518,
      "eri": 519,
      "ana": 520,
      " toi": 521,
      "ssä": 522,
      "min": 523,
      "oo": 524,
      "eli": 525,
      "eh": 526,
      " li": 527,
      "estä": 528,
      " yh": 529,
      "ön": 530,
      "ttiin": 531,
      " pal": 532,
      "om": 533,
      " as": 534,
      " B": 535,
      " läh": 536,
      "issä": 537,
      " mi": 538,
      "toi": 539,
      "itt": 540,
      "ise": 541,
      " tar": 542,
      " saa": 543,
      "ikka": 544,
      "kka": 545,
      " tul": 546,
      "ha": 547,
      "taja": 548,
      "ust": 549,
      "ime": 550,
      "osta": 551,
      " pel": 552,
      "ro": 553,
      " kerto": 554,
      " il": 555,
      " esi": 556,
      "lta": 557,
      "stä": 558,
      "vin": 559,
      "ken": 560,
      "Hän": 561,
      "tan": 562,
      "iten": 563,
      "mme": 564,
      "iko": 565,
      "men": 566,
      "lo": 567,
      "00": 568,
      "kk": 569,
      " par": 570,
      "iksi": 571,
      "eet": 572,
      " ih": 573,
      "ve": 574,
      " pit": 575,
      "iden": 576,
      " Suom": 577,
      "tö": 578,
      " ollut": 579,
      "etta": 580,
      "da": 581,
      "yks": 582,
      "hti": 583,
      "ura": 584,
      "ky": 585,
      "kon": 586,
      "tka": 587,
      " jäl": 588,
      "isten": 589,
      " tuo": 590,
      "keen": 591,
      "rin": 592,
      "isä": 593,
      " tai": 594,
      " kuin": 595,
      " kuu": 596,
      " kertoo": 597,
      "mer": 598,
      " er": 599,
      "isia": 600,
      "itse": 601,
      " tu": 602,
      " joka": 603,
      " ki": 604,
      " ar": 605,
      "oh": 606,
      " C": 607,
      "teen": 608,
      "maa": 609,
      "vän": 610,
      "ytt": 611,
      "uut": 612,
      " (": 613,
      "uus": 614,
      " O": 615,
      " ti": 616,
      "enä": 617,
      "hin": 618,
      "tin": 619,
      "män": 620,
      " puol": 621,
      " tapa": 622,
      "mmin": 623,
      " var": 624,
      "ila": 625,
      "vaa": 626,
      ":n": 627,
      " he": 628,
      "ita": 629,
      "ikä": 630,
      "vo": 631,
      "minen": 632,
      " tie": 633,
      " \"": 634,
      "hdo": 635,
      " sen": 636,
      "mat": 637,
      "vuo": 638,
      " jälkeen": 639,
      " vas": 640,
      " men": 641,
      "di": 642,
      " osa": 643,
      "sti": 644,
      "nna": 645,
      "uun": 646,
      "ikki": 647,
      "isin": 648,
      "anta": 649,
      "iset": 650,
      "tty": 651,
      "lleen": 652,
      "isesti": 653,
      " viime": 654,
      "mista": 655,
      " kanssa": 656,
      "ud": 657,
      "kö": 658,
      " U": 659,
      "ran": 660,
      " puh": 661,
      "unut": 662,
      "rit": 663,
      " na": 664,
      "jän": 665,
      " niin": 666,
      "ella": 667,
      " ed": 668,
      "mmä": 669,
      "202": 670,
      " so": 671,
      "kan": 672,
      " us": 673,
      " maa": 674,
      " kir": 675,
      "inn": 676,
      "yh": 677,
      " huo": 678,
      "mmen": 679,
      "ton": 680,
      "voi": 681,
      " suo": 682,
      "pä": 683,
      " työ": 684,
      " vä": 685,
      "tään": 686,
      "mään": 687,
      "illa": 688,
      "uud": 689,
      "sen": 690,
      " F": 691,
      "do": 692,
      "me": 693,
      "kil": 694,
      "ille": 695,
      " lop": 696,
      "joit": 697,
      "kko": 698,
      " kor": 699,
      " olisi": 700,
      "Se": 701,
      "tto": 702,
      " ensi": 703,
      "jon": 704,
      "est": 705,
      "ärj": 706,
      " Y": 707,
      "asti": 708,
      "aan": 709,
      " ke": 710,
      "kaa": 711,
      " päi": 712,
      " sanoo": 713,
      " asi": 714,
      " vuonna": 715,
      "ili": 716,
      "val": 717,
      "isto": 718,
      " sai": 719,
      "ellä": 720,
      "elle": 721,
      "so": 722,
      "kra": 723,
      " G": 724,
      "Tä": 725,
      "uden": 726,
      "ukku": 727,
      " D": 728,
      " min": 729,
      "massa": 730,
      " teh": 731,
      " kol": 732,
      " kuiten": 733,
      " til": 734,
      " is": 735,
      " jul": 736,
      "uuta": 737,
      " yli": 738,
      "yttä": 739,
      " sel": 740,
      "hta": 741,
      " ky": 742,
      "ksen": 743,
      " eur": 744,
      " olla": 745,
      "eita": 746,
      "joi": 747,
      " kul": 748,
      "kun": 749,
      " suu": 750,
      "uomala": 751,
      " aik": 752,
      "vel": 753,
      " kos": 754,
      "oli": 755,
      " kys": 756,
      " luo": 757,
      "Ka": 758,
      "ea": 759,
      " enn": 760,
      " hal": 761,
      "tte": 762,
      "han": 763,
      "isiin": 764,
      " sekä": 765,
      "ali": 766,
      "ikko": 767,
      "rä": 768,
      "kki": 769,
      "jat": 770,
      "uksia": 771,
      "ni": 772,
      "osen": 773,
      "siden": 774,
      " aika": 775,
      "oja": 776,
      "residen": 777,
      " Venä": 778,
      " ni": 779,
      " vielä": 780,
      " hen": 781,
      " kertoi": 782,
      "mpi": 783,
      " hall": 784,
      " jä": 785,
      "tää": 786,
      "isti": 787,
      " poli": 788,
      "una": 789,
      " pi": 790,
      "uttaa": 791,
      " hänen": 792,
      "pu": 793,
      " tapah": 794,
      " yhte": 795,
      " oike": 796,
      " uu": 797,
      " yksi": 798,
      " ver": 799,
      " Sa": 800,
      "gin": 801,
      "inä": 802,
      " su": 803,
      " koko": 804,
      "iste": 805,
      "uva": 806,
      " vuoden": 807,
      "pi": 808,
      " kil": 809,
      " nyt": 810,
      " ul": 811,
      " Suomen": 812,
      "malla": 813,
      " miel": 814,
      "alta": 815,
      "ru": 816,
      "ite": 817,
      " seura": 818,
      "itta": 819,
      "tiin": 820,
      " tur": 821,
      "misen": 822,
      " vain": 823,
      "uto": 824,
      "päi": 825,
      "änyt": 826,
      "jaa": 827,
      "koi": 828,
      "merk": 829,
      "En": 830,
      " lö": 831,
      "eiden": 832,
      "ed": 833,
      "lan": 834,
      " siitä": 835,
      "usi": 836,
      " lä": 837,
      " hyvin": 838,
      "ulla": 839,
      " kuitenkin": 840,
      " no": 841,
      "ynyt": 842,
      "all": 843,
      "ari": 844,
      "vää": 845,
      "iken": 846,
      "-vuo": 847,
      " väh": 848,
      " W": 849,
      "nut": 850,
      "kas": 851,
      " jat": 852,
      " sy": 853,
      "ast": 854,
      "ue": 855,
      "iv": 856,
      "ap": 857,
      "ttää": 858,
      " mahdo": 859,
      "uv": 860,
      " f": 861,
      "oita": 862,
      " van": 863,
      " tiet": 864,
      "ihe": 865,
      " an": 866,
      "ele": 867,
      "19": 868,
      " le": 869,
      "nä": 870,
      "ystä": 871,
      " kuo": 872,
      " sitä": 873,
      " os": 874,
      "hde": 875,
      " tut": 876,
      " ri": 877,
      "?\n": 878,
      "kunn": 879,
      "merkiksi": 880,
      "am": 881,
      " tunn": 882,
      " elä": 883,
      "della": 884,
      "kään": 885,
      "mia": 886,
      " mon": 887,
      " oh": 888,
      "htaja": 889,
      "-vuoti": 890,
      " har": 891,
      "istu": 892,
      " kat": 893,
      "dän": 894,
      " hyvä": 895,
      " vasta": 896,
      "llinen": 897,
      " presiden": 898,
      "hdys": 899,
      "tten": 900,
      "mo": 901,
      " ensimmä": 902,
      "anne": 903,
      " jossa": 904,
      " kaikki": 905,
      " sanoi": 906,
      "minist": 907,
      "yr": 908,
      "llo": 909,
      " kesk": 910,
      " ne": 911,
      " b": 912,
      " aikana": 913,
      "dä": 914,
      " myö": 915,
      " jon": 916,
      "itus": 917,
      " tun": 918,
      " jos": 919,
      " kann": 920,
      " noin": 921,
      " aina": 922,
      " itse": 923,
      "din": 924,
      "lä": 925,
      "uksi": 926,
      "upun": 927,
      " pr": 928,
      " koh": 929,
      "emm": 930,
      "ttei": 931,
      "ihin": 932,
      "elin": 933,
      "lloin": 934,
      "yty": 935,
      "ttia": 936,
      "nyt": 937,
      " paljon": 938,
      " kas": 939,
      "oon": 940,
      "ilta": 941,
      "tun": 942,
      "erä": 943,
      "ula": 944,
      "jel": 945,
      "pail": 946,
      " mie": 947,
      " vaik": 948,
      " ennen": 949,
      "isäksi": 950,
      " syy": 951,
      "Vi": 952,
      "kilö": 953,
      "tui": 954,
      " eivät": 955,
      " lo": 956,
      "ver": 957,
      "kis": 958,
      " sitten": 959,
      "uste": 960,
      "tanut": 961,
      "via": 962,
      "uksessa": 963,
      " kiin": 964,
      "uuden": 965,
      " re": 966,
      "Sa": 967,
      "201": 968,
      " pys": 969,
      " suomala": 970,
      "pal": 971,
      "ig": 972,
      " ai": 973,
      " epä": 974,
      " sillä": 975,
      "äärä": 976,
      " käy": 977,
      "tio": 978,
      " vaa": 979,
      " kaksi": 980,
      "utu": 981,
      " Ukra": 982,
      " teke": 983,
      " kuul": 984,
      "llista": 985,
      " ottel": 986,
      "Suom": 987,
      " keh": 988,
      " väl": 989,
      "esk": 990,
      "elsin": 991,
      " keski": 992,
      " ilm": 993,
      " muun": 994,
      " järj": 995,
      "johtaja": 996,
      "otta": 997,
      " eri": 998,
      "uutta": 999,
      "ch": 1000,
      " maan": 1001,
      " ettei": 1002,
      " ään": 1003,
      "ikon": 1004,
      " muassa": 1005,
      " Mar": 1006,
      " An": 1007,
      " lap": 1008,
      " jää": 1009,
      "lin": 1010,
      " mil": 1011,
      "tuu": 1012,
      "lais": 1013,
      "rump": 1014,
      "son": 1015,
      " me": 1016,
      "mien": 1017,
      " tuli": 1018,
      " mer": 1019,
      "elta": 1020,
      "isiä": 1021,
      " las": 1022,
      "ikke": 1023,
      "valta": 1024,
      " kuva": 1025,
      "uot": 1026,
      "ministeri": 1027,
      "isa": 1028,
      " esimerkiksi": 1029,
      " vastaan": 1030,
      " väli": 1031,
      " hä": 1032,
      "san": 1033,
      "ven": 1034,
      "yttää": 1035,
      " Ma": 1036,
      " pelaa": 1037,
      "ojen": 1038,
      "uka": 1039,
      "je": 1040,
      "llisen": 1041,
      "len": 1042,
      "erin": 1043,
      "kkä": 1044,
      " liitt": 1045,
      "valla": 1046,
      "iseen": 1047,
      " voit": 1048,
      "olla": 1049,
      " ede": 1050,
      " La": 1051,
      "onen": 1052,
      " toimin": 1053,
      " tote": 1054,
      " tulee": 1055,
      "tteli": 1056,
      "unta": 1057,
      " tule": 1058,
      "oku": 1059,
      " Ka": 1060,
      " nuo": 1061,
      "oike": 1062,
      " aie": 1063,
      " lis": 1064,
      "urhe": 1065,
      "llisesti": 1066,
      " prosen": 1067,
      "000": 1068,
      " henkilö": 1069,
      "ustel": 1070,
      "pan": 1071,
      " maail": 1072,
      "ukset": 1073,
      " ihm": 1074,
      "ksa": 1075,
      " pitää": 1076,
      " hyö": 1077,
      " kommen": 1078,
      "iti": 1079,
      " toimi": 1080,
      " olivat": 1081,
      "ian": 1082,
      " mitä": 1083,
      "eksi": 1084,
      "Ta": 1085,
      " ulko": 1086,
      "hden": 1087,
      " kunn": 1088,
      " sija": 1089,
      " hel": 1090,
      "yksen": 1091,
      "vasti": 1092,
      "alla": 1093,
      "lli": 1094,
      "To": 1095,
      "istö": 1096,
      "tar": 1097,
      " maal": 1098,
      " euroa": 1099,
      " luk": 1100,
      "ssi": 1101,
      "mma": 1102,
      "st": 1103,
      " alu": 1104,
      "oma": 1105,
      " ve": 1106,
      "eseen": 1107,
      " het": 1108,
      " tehd": 1109,
      "inan": 1110,
      "era": 1111,
      "ikan": 1112,
      "ttua": 1113,
      "yttö": 1114,
      " asia": 1115,
      " pien": 1116,
      " vuotta": 1117,
      " kut": 1118,
      "tia": 1119,
      "Jos": 1120,
      " muu": 1121,
      " paika": 1122,
      " hei": 1123,
      " julka": 1124,
      "ing": 1125,
      " jotka": 1126,
      "its": 1127,
      "po": 1128,
      " el": 1129,
      "Va": 1130,
      " ter": 1131,
      "uomi": 1132,
      "änä": 1133,
      " Venäjän": 1134,
      "ho": 1135,
      " kär": 1136,
      " arvi": 1137,
      "emmän": 1138,
      "der": 1139,
      " mies": 1140,
      " nel": 1141,
      "ttom": 1142,
      " vah": 1143,
      "jien": 1144,
      " uh": 1145,
      "Kun": 1146,
      "tyi": 1147,
      " toim": 1148,
      "On": 1149,
      " yle": 1150,
      "eltä": 1151,
      "uuri": 1152,
      "uro": 1153,
      " uut": 1154,
      "kona": 1155,
      "ity": 1156,
      "eella": 1157,
      " ajan": 1158,
      " jonka": 1159,
      " eli": 1160,
      "dan": 1161,
      "uta": 1162,
      "enn": 1163,
      "matta": 1164,
      " joh": 1165,
      " kaupun": 1166,
      "uudessa": 1167,
      "yyn": 1168,
      "ukseen": 1169,
      "kia": 1170,
      " eikä": 1171,
      "llan": 1172,
      "ito": 1173,
      "mpia": 1174,
      " aihe": 1175,
      "Poli": 1176,
      " met": 1177,
      " saan": 1178,
      "antaina": 1179,
      "ker": 1180,
      " kansa": 1181,
      " tuk": 1182,
      " turva": 1183,
      "arr": 1184,
      " kon": 1185,
      "ihen": 1186,
      " sop": 1187,
      " käsi": 1188,
      " op": 1189,
      "viä": 1190,
      " joukku": 1191,
      "La": 1192,
      " yhd": 1193,
      "llaan": 1194,
      "kseen": 1195,
      "til": 1196,
      "ale": 1197,
      " hi": 1198,
      "pää": 1199,
      "inta": 1200,
      "Ko": 1201,
      " koul": 1202,
      "joon": 1203,
      " vuosi": 1204,
      " Trump": 1205,
      "miseen": 1206,
      "bb": 1207,
      " kau": 1208,
      "-a": 1209,
      " et": 1210,
      "hen": 1211,
      " yllä": 1212,
      "uksesta": 1213,
      "oihin": 1214,
      "ansa": 1215,
      "yky": 1216,
      "sar": 1217,
      "ttävä": 1218,
      "isessa": 1219,
      "Nä": 1220,
      "vien": 1221,
      " vaikka": 1222,
      "nn": 1223,
      "\".\n": 1224,
      "dot": 1225,
      " lisää": 1226,
      " tämän": 1227,
      " aut": 1228,
      "ano": 1229,
      "ärke": 1230,
      "tion": 1231,
      " Helsin": 1232,
      " koska": 1233,
      " siir": 1234,
      "ans": 1235,
      "iseksi": 1236,
      " puo": 1237,
      " raken": 1238,
      " olevan": 1239,
      "kke": 1240,
      "var": 1241,
      "istel": 1242,
      " mit": 1243,
      "neet": 1244,
      "ren": 1245,
      " laa": 1246,
      " tor": 1247,
      " suunn": 1248,
      "kel": 1249,
      "ustus": 1250,
      " seuraa": 1251,
      "oiden": 1252,
      " tö": 1253,
      " teki": 1254,
      " sil": 1255,
      "kuussa": 1256,
      "kul": 1257,
      "ttele": 1258,
      "paa": 1259,
      " vaih": 1260,
      "ope": 1261,
      "gel": 1262,
      " Ta": 1263,
      "ukka": 1264,
      " aja": 1265,
      "iä": 1266,
      " miljoon": 1267,
      "ino": 1268,
      "10": 1269,
      "Jo": 1270,
      "ria": 1271,
      " pitä": 1272,
      " talo": 1273,
      "misesta": 1274,
      "um": 1275,
      " syn": 1276,
      "pe": 1277,
      "tel": 1278,
      " aiemmin": 1279,
      "erg": 1280,
      " siihen": 1281,
      " miten": 1282,
      "puol": 1283,
      " Yhdys": 1284,
      " vir": 1285,
      "Myös": 1286,
      "oitti": 1287,
      "kir": 1288,
      "uja": 1289,
      "asto": 1290,
      "oilla": 1291,
      "yys": 1292,
      " tilan": 1293,
      "annut": 1294,
      " tapahtu": 1295,
      "llään": 1296,
      "ett": 1297,
      " näh": 1298,
      " jota": 1299,
      "mman": 1300,
      " päätö": 1301,
      " enemmän": 1302,
      " tutki": 1303,
      "tubb": 1304,
      "ga": 1305,
      " kar": 1306,
      " muuta": 1307,
      "usti": 1308,
      " tällä": 1309,
      "janta": 1310,
      "ettu": 1311,
      " Sal": 1312,
      " tämä": 1313,
      "ituksen": 1314,
      " muut": 1315,
      "ter": 1316,
      "ym": 1317,
      "llisuus": 1318,
      "oitta": 1319,
      " juo": 1320,
      "jassa": 1321,
      " in": 1322,
      " kirjoit": 1323,
      " tarko": 1324,
      " Ilta": 1325,
      "ittaa": 1326,
      " presidentti": 1327,
      "15": 1328,
      "utui": 1329,
      " maailman": 1330,
      " lisäksi": 1331,
      "Suomen": 1332,
      " kesä": 1333,
      "alu": 1334,
      "ytö": 1335,
      "nan": 1336,
      "kea": 1337,
      "änn": 1338,
      "Tämä": 1339,
      "masta": 1340,
      "don": 1341,
      "200": 1342,
      "tila": 1343,
      " Ro": 1344,
      "oissa": 1345,
      "iku": 1346,
      "itsi": 1347,
      "este": 1348,
      " In": 1349,
      "hi": 1350,
      " yrit": 1351,
      "tyy": 1352,
      " nous": 1353,
      "yi": 1354,
      "yksi": 1355,
      " määrä": 1356,
      " yl": 1357,
      "toa": 1358,
      " kolm": 1359,
      " puheen": 1360,
      "kuu": 1361,
      "ein": 1362,
      "ota": 1363,
      "pel": 1364,
      "kesk": 1365,
      "jana": 1366,
      "osti": 1367,
      " haasta": 1368,
      " kertaa": 1369,
      " kannat": 1370,
      "joukku": 1371,
      " vaan": 1372,
      " lopp": 1373,
      " mikä": 1374,
      "ukana": 1375,
      "järj": 1376,
      "ähkö": 1377,
      "kunnan": 1378,
      "uroop": 1379,
      "ine": 1380,
      "daan": 1381,
      "Pa": 1382,
      " Suomessa": 1383,
      "Nyt": 1384,
      " taka": 1385,
      " kohd": 1386,
      "Ei": 1387,
      "eensa": 1388,
      " mitään": 1389,
      "isille": 1390,
      " näy": 1391,
      "ttö": 1392,
      "mus": 1393,
      "kellä": 1394,
      "Si": 1395,
      " tärke": 1396,
      "Kuva": 1397,
      " kyse": 1398,
      "eensä": 1399,
      " ent": 1400,
      "estaan": 1401,
      " len": 1402,
      "sina": 1403,
      " tiedo": 1404,
      " d": 1405,
      " pääs": 1406,
      "ost": 1407,
      "sra": 1408,
      " Jo": 1409,
      " mei": 1410,
      " Ra": 1411,
      " ava": 1412,
      "Ma": 1413,
      " vara": 1414,
      " lau": 1415,
      "ppi": 1416,
      "oista": 1417,
      " urhe": 1418,
      "-S": 1419,
      "30": 1420,
      " koti": 1421,
      "utti": 1422,
      "kuun": 1423,
      "kunta": 1424,
      " syö": 1425,
      "von": 1426,
      " jopa": 1427,
      "tys": 1428,
      " suosi": 1429,
      " täh": 1430,
      "ikin": 1431,
      "unnunta": 1432,
      "mässä": 1433,
      "lainen": 1434,
      "osa": 1435,
      " kolme": 1436,
      " Pa": 1437,
      " ihan": 1438,
      " kommentoi": 1439,
      " osall": 1440,
      "miin": 1441,
      " sää": 1442,
      " kis": 1443,
      " sisä": 1444,
      " usko": 1445,
      " päivä": 1446,
      "ic": 1447,
      " prosenttia": 1448,
      "-vuotias": 1449,
      "ulun": 1450,
      " nyky": 1451,
      "istaa": 1452,
      "12": 1453,
      "voin": 1454,
      "vit": 1455,
      "mää": 1456,
      " saira": 1457,
      " esiin": 1458,
      " vaike": 1459,
      " MM": 1460,
      " vastaa": 1461,
      " tehdä": 1462,
      " perjanta": 1463,
      " kilpail": 1464,
      "ulta": 1465,
      "ile": 1466,
      "nte": 1467,
      "isu": 1468,
      "väl": 1469,
      "ani": 1470,
      " enää": 1471,
      "yd": 1472,
      "llin": 1473,
      " kuuka": 1474,
      " kaa": 1475,
      "Poliisi": 1476,
      " sis": 1477,
      "gen": 1478,
      "gra": 1479,
      " vo": 1480,
      " auto": 1481,
      " ymp": 1482,
      "jois": 1483,
      "iton": 1484,
      " juh": 1485,
      "llen": 1486,
      " hui": 1487,
      " suh": 1488,
      "tien": 1489,
      "HL": 1490,
      " kerro": 1491,
      " yri": 1492,
      " viikon": 1493,
      "haa": 1494,
      "utin": 1495,
      "uri": 1496,
      " Venäjä": 1497,
      "palvel": 1498,
      "ksan": 1499,
      " sella": 1500,
      " lähes": 1501,
      "isella": 1502,
      " erity": 1503,
      "He": 1504,
      "ustaja": 1505,
      " tal": 1506,
      "älä": 1507,
      " mo": 1508,
      " kier": 1509,
      "itel": 1510,
      " pala": 1511,
      "toja": 1512,
      " muo": 1513,
      " lähe": 1514,
      "olo": 1515,
      "kkin": 1516,
      " ty": 1517,
      "ytyy": 1518,
      " uusi": 1519,
      "kuuta": 1520,
      "jia": 1521,
      "utus": 1522,
      " mukana": 1523,
      "opp": 1524,
      " liik": 1525,
      " terve": 1526,
      "lleet": 1527,
      " sähkö": 1528,
      " kymmen": 1529,
      " saat": 1530,
      " koke": 1531,
      " ihmis": 1532,
      " vide": 1533,
      "keä": 1534,
      " vaati": 1535,
      " oly": 1536,
      "tynyt": 1537,
      " tarv": 1538,
      " lu": 1539,
      "isesta": 1540,
      "tik": 1541,
      "Sen": 1542,
      "mmat": 1543,
      " pois": 1544,
      "ju": 1545,
      " ven": 1546,
      " ehdo": 1547,
      " kats": 1548,
      " alku": 1549,
      " todella": 1550,
      "su": 1551,
      " kello": 1552,
      " saanut": 1553,
      " tilante": 1554,
      " ho": 1555,
      "Ra": 1556,
      " jal": 1557,
      "ase": 1558,
      "mar": 1559,
      " han": 1560,
      " joul": 1561,
      " pol": 1562,
      " oma": 1563,
      "Mi": 1564,
      " rii": 1565,
      "yä": 1566,
      "toon": 1567,
      " Ruot": 1568,
      "ilu": 1569,
      " Ha": 1570,
      " Ne": 1571,
      "mistä": 1572,
      "ttaa": 1573,
      "ynn": 1574,
      " py": 1575,
      " arvioi": 1576,
      " pitkä": 1577,
      "tävä": 1578,
      "vänä": 1579,
      "mpaa": 1580,
      "uvo": 1581,
      " vuoksi": 1582,
      "-l": 1583,
      "etaan": 1584,
      "kit": 1585,
      "Vuo": 1586,
      "ukko": 1587,
      " ik": 1588,
      " ruo": 1589,
      " aikaa": 1590,
      "iselle": 1591,
      " poliisi": 1592,
      " poh": 1593,
      " ase": 1594,
      " sunnunta": 1595,
      "yllä": 1596,
      " peruste": 1597,
      "ttäin": 1598,
      "istui": 1599,
      " mat": 1600,
      "id": 1601,
      " ratka": 1602,
      "mon": 1603,
      " jatka": 1604,
      "voit": 1605,
      " huol": 1606,
      "iston": 1607,
      "kku": 1608,
      " halu": 1609,
      "vassa": 1610,
      "18": 1611,
      " täys": 1612,
      " jäi": 1613,
      " yleis": 1614,
      " tuh": 1615,
      " kuten": 1616,
      "tiiv": 1617,
      " kautta": 1618,
      "essaan": 1619,
      "vansa": 1620,
      "Viime": 1621,
      " kaik": 1622,
      "lu": 1623,
      "jet": 1624,
      " olen": 1625,
      "äjä": 1626,
      "ff": 1627,
      "ini": 1628,
      " puoli": 1629,
      "Venä": 1630,
      " tässä": 1631,
      " vähän": 1632,
      " Ukrainan": 1633,
      "anna": 1634,
      " yhteis": 1635,
      " juuri": 1636,
      "tettiin": 1637,
      " perus": 1638,
      " tiista": 1639,
      "tteen": 1640,
      " torsta": 1641,
      " suur": 1642,
      "tojen": 1643,
      " onn": 1644,
      "por": 1645,
      "isena": 1646,
      "har": 1647,
      " Euroop": 1648,
      "unsa": 1649,
      " sar": 1650,
      "jö": 1651,
      " aikaan": 1652,
      "50": 1653,
      "viik": 1654,
      "mentaja": 1655,
      "riä": 1656,
      " tarjo": 1657,
      "Ja": 1658,
      "kos": 1659,
      " voisi": 1660,
      " alle": 1661,
      " Le": 1662,
      " Na": 1663,
      "per": 1664,
      " de": 1665,
      " valta": 1666,
      "Hänen": 1667,
      " liitty": 1668,
      "ce": 1669,
      "ksin": 1670,
      ":lle": 1671,
      " rauh": 1672,
      " neljä": 1673,
      " nim": 1674,
      " ken": 1675,
      " tuomi": 1676,
      " tullut": 1677,
      "usten": 1678,
      "onsa": 1679,
      " lähte": 1680,
      "iva": 1681,
      " sä": 1682,
      "tyn": 1683,
      " kiinni": 1684,
      "kkaa": 1685,
      "ostaa": 1686,
      "asi": 1687,
      "ttelee": 1688,
      " vahv": 1689,
      "oittaa": 1690,
      "Lisäksi": 1691,
      "kus": 1692,
      "ron": 1693,
      "ikolla": 1694,
      "elen": 1695,
      " Stubb": 1696,
      " siinä": 1697,
      "ulle": 1698,
      " sin": 1699,
      " palvel": 1700,
      " edus": 1701,
      "missa": 1702,
      " alkoi": 1703,
      " hyökkä": 1704,
      "isista": 1705,
      " lin": 1706,
      "kana": 1707,
      " eh": 1708,
      " joten": 1709,
      "antun": 1710,
      "mmär": 1711,
      " Li": 1712,
      "raa": 1713,
      "eto": 1714,
      " muist": 1715,
      "yyttä": 1716,
      " työs": 1717,
      "jät": 1718,
      " av": 1719,
      " pain": 1720,
      " halua": 1721,
      " matka": 1722,
      " otta": 1723,
      " nope": 1724,
      "uksista": 1725,
      " Ar": 1726,
      "alin": 1727,
      " ä": 1728,
      "jasta": 1729,
      " suuri": 1730,
      " käyttä": 1731,
      " ilman": 1732,
      " mur": 1733,
      " eloku": 1734,
      "yl": 1735,
      "tunut": 1736,
      " yhteen": 1737,
      "ikkaa": 1738,
      "össä": 1739,
      " ongel": 1740,
      " sosia": 1741,
      "tal": 1742,
      "Val": 1743,
      " käyttö": 1744,
      "ilee": 1745,
      "usa": 1746,
      "alan": 1747,
      "hemmin": 1748,
      "estel": 1749,
      "17": 1750,
      "uudesta": 1751,
      " kauden": 1752,
      "ttelussa": 1753,
      "näkö": 1754,
      " To": 1755,
      " parha": 1756,
      "eilla": 1757,
      "\"\n": 1758,
      "ettiin": 1759,
      "uole": 1760,
      " selvi": 1761,
      " saada": 1762,
      "gi": 1763,
      "ohjois": 1764,
      " taas": 1765,
      " hetkellä": 1766,
      " lisä": 1767,
      " liiken": 1768,
      "omet": 1769,
      "16": 1770,
      "!\n": 1771,
      " edelleen": 1772,
      "ona": 1773,
      "Olen": 1774,
      "laa": 1775,
      "kie": 1776,
      " pare": 1777,
      "eille": 1778,
      " huomi": 1779,
      " takia": 1780,
      " kuitenkaan": 1781,
      " Tur": 1782,
      "ppu": 1783,
      "no": 1784,
      " Isra": 1785,
      "jär": 1786,
      " vuod": 1787,
      " ro": 1788,
      " katso": 1789,
      "ttämä": 1790,
      " lää": 1791,
      " pitäisi": 1792,
      "kkää": 1793,
      "yhti": 1794,
      "kkö": 1795,
      " toinen": 1796,
      " /": 1797,
      "kohta": 1798,
      "visi": 1799,
      " Ki": 1800,
      " löy": 1801,
      " Helsingin": 1802,
      "11": 1803,
      "isissa": 1804,
      "oim": 1805,
      " keskustel": 1806,
      "ikos": 1807,
      "Li": 1808,
      "kor": 1809,
      " nuor": 1810,
      " onne": 1811,
      " Suomi": 1812,
      " hie": 1813,
      " tavalla": 1814,
      "kasta": 1815,
      "kee": 1816,
      "dennäkö": 1817,
      " Val": 1818,
      "ttelu": 1819,
      "ber": 1820,
      "sson": 1821,
      " pu": 1822,
      "ck": 1823,
      " jäsen": 1824,
      "Al": 1825,
      "antunti": 1826,
      "llon": 1827,
      "vasta": 1828,
      "tua": 1829,
      "Mutta": 1830,
      "ohjel": 1831,
      "isenä": 1832,
      " vie": 1833,
      ":ssä": 1834,
      "kiin": 1835,
      " EU": 1836,
      " perä": 1837,
      " ainakin": 1838,
      "valtain": 1839,
      "uttu": 1840,
      "jaan": 1841,
      "iss": 1842,
      "tetty": 1843,
      " voitti": 1844,
      "äär": 1845,
      "koh": 1846,
      " ilma": 1847,
      "ela": 1848,
      "utun": 1849,
      " medi": 1850,
      " un": 1851,
      "uon": 1852,
      " tasa": 1853,
      " olleet": 1854,
      " Nor": 1855,
      " kään": 1856,
      " asti": 1857,
      "Kys": 1858,
      "estö": 1859,
      " tila": 1860,
      " sano": 1861,
      "14": 1862,
      "uku": 1863,
      "paan": 1864,
      "inväl": 1865,
      "mies": 1866,
      "utki": 1867,
      "eelle": 1868,
      "ppo": 1869,
      "kset": 1870,
      " valm": 1871,
      "ill": 1872,
      "yden": 1873,
      " merki": 1874,
      " kiinn": 1875,
      "utunut": 1876,
      " eten": 1877,
      " yhdessä": 1878,
      " ras": 1879,
      " tör": 1880,
      " vaka": 1881,
      "nteki": 1882,
      "hoit": 1883,
      "eillä": 1884,
      " perjantaina": 1885,
      "lehti": 1886,
      "ttänyt": 1887,
      " Ko": 1888,
      " uuden": 1889,
      " näin": 1890,
      " riko": 1891,
      " pide": 1892,
      "astaan": 1893,
      " viera": 1894,
      " piste": 1895,
      "astus": 1896,
      "13": 1897,
      " uutis": 1898,
      " kansan": 1899,
      " tode": 1900,
      "äri": 1901,
      " puheenjohtaja": 1902,
      " mahdollis": 1903,
      "isessä": 1904,
      " Putin": 1905,
      " g": 1906,
      "jää": 1907,
      "-Sano": 1908,
      "ket": 1909,
      " lauantaina": 1910,
      "oni": 1911,
      " perh": 1912,
      " pyö": 1913,
      "teet": 1914,
      " seur": 1915,
      "tyä": 1916,
      "Per": 1917,
      "Esi": 1918,
      " iso": 1919,
      " hallitus": 1920,
      "uko": 1921,
      "Min": 1922,
      "sky": 1923,
      " kilomet": 1924,
      " tiedotte": 1925,
      " saman": 1926,
      "itto": 1927,
      "iska": 1928,
      " ymmär": 1929,
      "päivä": 1930,
      " mar": 1931,
      "itsee": 1932,
      " tilanne": 1933,
      "viikkona": 1934,
      "urin": 1935,
      " amp": 1936,
      "aika": 1937,
      " sopim": 1938,
      "iltä": 1939,
      " hava": 1940,
      " kaupungin": 1941,
      " Z": 1942,
      "ääri": 1943,
      "vaan": 1944,
      " her": 1945,
      "tetaan": 1946,
      " perin": 1947,
      "ltä": 1948,
      "istori": 1949,
      " kirjoittaa": 1950,
      ").\n": 1951,
      " kyllä": 1952,
      "estin": 1953,
      "stagra": 1954,
      " lämp": 1955,
      "-kis": 1956,
      " johta": 1957,
      " yhden": 1958,
      " presidentin": 1959,
      "uma": 1960,
      " toisen": 1961,
      " edusta": 1962,
      " miljoonaa": 1963,
      " kaudella": 1964,
      " päästä": 1965,
      "res": 1966,
      " vali": 1967,
      " hallituksen": 1968,
      " kuinka": 1969,
      "Na": 1970,
      " heti": 1971,
      " kyl": 1972,
      "imo": 1973,
      " pah": 1974,
      "uki": 1975,
      "ikuussa": 1976,
      " erila": 1977,
      "talo": 1978,
      " niitä": 1979,
      " alka": 1980,
      " hieman": 1981,
      "ussi": 1982,
      " pan": 1983,
      "vänsä": 1984,
      " tän": 1985,
      "Kor": 1986,
      "utuu": 1987,
      "uke": 1988,
      " täysin": 1989,
      "itos": 1990,
      " kahden": 1991,
      " alkaa": 1992,
      " välillä": 1993,
      " X": 1994,
      " epäi": 1995,
      " väi": 1996,
      " siis": 1997,
      " yhtä": 1998,
      " ryh": 1999,
      " viikolla": 2000,
      " vast": 2001,
      " jatku": 2002,
      "ba": 2003,
      "alainen": 2004,
      " näky": 2005,
      "uuteen": 2006,
      "tettu": 2007,
      " tehnyt": 2008,
      " eriko": 2009,
      " Or": 2010,
      " vai": 2011,
      " ystä": 2012,
      " heidän": 2013,
      " tänä": 2014,
      " mielestä": 2015,
      " korke": 2016,
      " Se": 2017,
      " Instagra": 2018,
      " häntä": 2019,
      "ranoma": 2020,
      "äjäoike": 2021,
      " i": 2022,
      "yyd": 2023,
      " miehen": 2024,
      "25": 2025,
      "Pää": 2026,
      " nor": 2027,
      " palj": 2028,
      " its": 2029,
      "uli": 2030,
      "kar": 2031,
      "uksissa": 2032,
      " Ale": 2033,
      " vier": 2034,
      "vir": 2035,
      " myöhemmin": 2036,
      "nin": 2037,
      " maksa": 2038,
      "ukkaan": 2039,
      " varm": 2040,
      "viin": 2041,
      " missä": 2042,
      "äni": 2043,
      " jatkaa": 2044,
      " huu": 2045,
      " useita": 2046,
      " pääsi": 2047,
      "ilä": 2048,
      " kerran": 2049,
      "ttui": 2050,
      " piti": 2051,
      " sur": 2052,
      "isuus": 2053,
      "esty": 2054,
      "uksiin": 2055,
      " edes": 2056,
      " aam": 2057,
      "kkaan": 2058,
      " epäil": 2059,
      " todennäkö": 2060,
      " lento": 2061,
      " He": 2062,
      " sosiaal": 2063,
      "las": 2064,
      "mieh": 2065,
      "estar": 2066,
      " mielen": 2067,
      " torstaina": 2068,
      " puu": 2069,
      "llisia": 2070,
      " pyy": 2071,
      " vaal": 2072,
      " joukkue": 2073,
      "vinto": 2074,
      "johta": 2075,
      " nähd": 2076,
      " meni": 2077,
      " julk": 2078,
      "Ilta": 2079,
      "hdelle": 2080,
      "-vuotia": 2081,
      " suun": 2082,
      "isk": 2083,
      "uttanut": 2084,
      " kysym": 2085,
      "kän": 2086,
      " tavoi": 2087,
      "),": 2088,
      " kuole": 2089,
      " Ukraina": 2090,
      " oman": 2091,
      " euron": 2092,
      " Harr": 2093,
      "Näin": 2094,
      " näyttää": 2095,
      " arvo": 2096,
      " Trumpin": 2097,
      " siv": 2098,
      "Tuo": 2099,
      " herä": 2100,
      " tava": 2101,
      "ytyi": 2102,
      "hän": 2103,
      "esin": 2104,
      "ehto": 2105,
      "ttuna": 2106,
      "kossa": 2107,
      " myön": 2108,
      " tulo": 2109,
      " maanantaina": 2110,
      " tiistaina": 2111,
      "her": 2112,
      "ttuu": 2113,
      " poikke": 2114,
      " ohjel": 2115,
      " aivan": 2116,
      "illaan": 2117,
      "udessa": 2118,
      " voivat": 2119,
      " huoli": 2120,
      " peli": 2121,
      "yvä": 2122,
      "Vaikka": 2123,
      " keskiviikkona": 2124,
      " alussa": 2125,
      " saap": 2126,
      " voin": 2127,
      " muka": 2128,
      "oille": 2129,
      " omista": 2130,
      " perhe": 2131,
      "ryh": 2132,
      " Har": 2133,
      " Es": 2134,
      " kuoli": 2135,
      " joita": 2136,
      " mahdollista": 2137,
      " hänet": 2138,
      " tiedot": 2139,
      " mene": 2140,
      " usein": 2141,
      " sul": 2142,
      " puolestaan": 2143,
      " venälä": 2144,
      "istun": 2145,
      " koskaan": 2146,
      "vissa": 2147,
      "menta": 2148,
      " pro": 2149,
      " käytö": 2150,
      " alueella": 2151,
      " lain": 2152,
      " otti": 2153,
      "arin": 2154,
      "-luv": 2155,
      " tuu": 2156,
      "sivat": 2157,
      " lei": 2158,
      " Pohjois": 2159,
      "\",": 2160,
      "uista": 2161,
      " kie": 2162,
      " yksity": 2163,
      "perä": 2164,
      " sunnuntaina": 2165,
      " amma": 2166,
      "lliset": 2167,
      "kut": 2168,
      " Al": 2169,
      " viesti": 2170,
      " maks": 2171,
      " mieh": 2172,
      " kävi": 2173,
      " odot": 2174,
      " nousi": 2175,
      "yssä": 2176,
      "tee": 2177,
      " kamp": 2178,
      "Ar": 2179,
      " Pe": 2180,
      " hoi": 2181,
      "ira": 2182,
      "ksia": 2183,
      "joukkue": 2184,
      "puole": 2185,
      " Lin": 2186,
      "isellä": 2187,
      " ottaa": 2188,
      "vaksi": 2189,
      " Vir": 2190,
      "vana": 2191,
      "joiden": 2192,
      " perusteella": 2193,
      "astaa": 2194,
      "Ne": 2195,
      "isestä": 2196,
      " ala": 2197,
      " julkis": 2198,
      "Kaikki": 2199,
      "paika": 2200,
      "miä": 2201,
      " toteaa": 2202,
      " ir": 2203,
      "ude": 2204,
      "uteen": 2205,
      " siellä": 2206,
      " pur": 2207,
      " aiko": 2208,
      "gan": 2209,
      " puolustus": 2210,
      "Yksi": 2211,
      " väki": 2212,
      "ältä": 2213,
      " Biden": 2214,
      " huoma": 2215,
      "ly": 2216,
      " toista": 2217,
      " tätä": 2218,
      "vaal": 2219,
      " asiasta": 2220,
      "199": 2221,
      "ittää": 2222,
      "ily": 2223,
      " pe": 2224,
      " yhä": 2225,
      " por": 2226,
      " Kar": 2227,
      "Ha": 2228,
      "ensa": 2229,
      "tali": 2230,
      "Yhdys": 2231,
      " syks": 2232,
      " tälla": 2233,
      " Re": 2234,
      "dia": 2235,
      " silloin": 2236,
      "ppa": 2237,
      " hyväks": 2238,
      "liig": 2239,
      "ola": 2240,
      "itys": 2241,
      "kat": 2242,
      "kapa": 2243,
      " vih": 2244,
      "llik": 2245,
      "ilja": 2246,
      "40": 2247,
      "ksiä": 2248,
      "miseksi": 2249,
      " Iltale": 2250,
      "hdot": 2251,
      " rakenn": 2252,
      "ge": 2253,
      " arv": 2254,
      "ttoa": 2255,
      " jään": 2256,
      "onn": 2257,
      "ulo": 2258,
      "illä": 2259,
      "änsi": 2260,
      "maal": 2261,
      "toin": 2262,
      " NHL": 2263,
      "mokra": 2264,
      " viikko": 2265,
      " pä": 2266,
      "yhtiö": 2267,
      "Kes": 2268,
      "ry": 2269,
      "hall": 2270,
      " vanhe": 2271,
      " työsken": 2272,
      " uud": 2273,
      "äällä": 2274,
      "ilun": 2275,
      " ympäri": 2276,
      " käyt": 2277,
      "telä": 2278,
      "tur": 2279,
      " suk": 2280,
      " ap": 2281,
      " fina": 2282,
      "estari": 2283,
      " työnteki": 2284,
      " mukaansa": 2285,
      " kansainväl": 2286,
      " asu": 2287,
      " ensimmäinen": 2288,
      "äneet": 2289,
      "issaan": 2290,
      " ehkä": 2291,
      " tied": 2292,
      " kirja": 2293,
      " tehty": 2294,
      "Ensi": 2295,
      " poi": 2296,
      "innan": 2297,
      " tiedotteessa": 2298,
      "Ki": 2299,
      "nö": 2300,
      " saattaa": 2301,
      " tyy": 2302,
      " ilmoit": 2303,
      " sijaan": 2304,
      "Asi": 2305,
      "tiet": 2306,
      "istunut": 2307,
      "mper": 2308,
      " ihmistä": 2309,
      "uor": 2310,
      "kär": 2311,
      "teita": 2312,
      " Ke": 2313,
      "misestä": 2314,
      " ran": 2315,
      "eeksi": 2316,
      " do": 2317,
      "Lue": 2318,
      " tien": 2319,
      " muita": 2320,
      "ihto": 2321,
      " Ja": 2322,
      " pysty": 2323,
      "eihin": 2324,
      " joissa": 2325,
      " vel": 2326,
      "ata": 2327,
      " Ga": 2328,
      " jolla": 2329,
      "ukse": 2330,
      " suora": 2331,
      " kasv": 2332,
      "eraa": 2333,
      "uha": 2334,
      " enna": 2335,
      " selvä": 2336,
      " mel": 2337,
      "Kyse": 2338,
      " pysä": 2339,
      " erittäin": 2340,
      " jotta": 2341,
      " keske": 2342,
      "berg": 2343,
      "vas": 2344,
      " ilta": 2345,
      " jälleen": 2346,
      " josta": 2347,
      "ittaja": 2348,
      "Il": 2349,
      "alais": 2350,
      "iheessa": 2351,
      " odo": 2352,
      "kem": 2353,
      "jille": 2354,
      " ajo": 2355,
      " tapahtui": 2356,
      " tänään": 2357,
      "Var": 2358,
      "pah": 2359,
      "onal": 2360,
      " menn": 2361,
      " New": 2362,
      "io": 2363,
      "määrä": 2364,
      " kokona": 2365,
      " olympia": 2366,
      "kti": 2367,
      "pol": 2368,
      "hing": 2369,
      " vaikuttaa": 2370,
      " Suomeen": 2371,
      "kilpail": 2372,
      "tetään": 2373,
      "joitus": 2374,
      " tekee": 2375,
      " täy": 2376,
      "ers": 2377,
      " neljän": 2378,
      "ydessä": 2379,
      " pitkään": 2380,
      "kse": 2381,
      "opim": 2382,
      " lopulta": 2383,
      " jotain": 2384,
      " takaisin": 2385,
      "ilija": 2386,
      " tähän": 2387,
      "Mar": 2388,
      " poliitt": 2389,
      "stö": 2390,
      " Euroopan": 2391,
      "ros": 2392,
      " lapsi": 2393,
      "An": 2394,
      " kahde": 2395,
      "suomala": 2396,
      " kuulu": 2397,
      "22": 2398,
      " sotil": 2399,
      " it": 2400,
      " pidä": 2401,
      " tutkin": 2402,
      "yksessä": 2403,
      " antaa": 2404,
      " järjestä": 2405,
      " kaup": 2406,
      " käynn": 2407,
      " myy": 2408,
      "pon": 2409,
      "Pel": 2410,
      " seitse": 2411,
      " käyttää": 2412,
      "imi": 2413,
      " ain": 2414,
      " vuosina": 2415,
      "kerta": 2416,
      " myötä": 2417,
      "Sal": 2418,
      " yhteist": 2419,
      "ulu": 2420,
      " sijaitse": 2421,
      " main": 2422,
      " tuleva": 2423,
      " auton": 2424,
      " niiden": 2425,
      " Haa": 2426,
      " pyr": 2427,
      "osin": 2428,
      " syys": 2429,
      " ensimmäisen": 2430,
      " kohtaa": 2431,
      " suorit": 2432,
      "Suomala": 2433,
      "päin": 2434,
      "reen": 2435,
      "uksella": 2436,
      " ottelun": 2437,
      " järjeste": 2438,
      "Ukra": 2439,
      " kai": 2440,
      " ur": 2441,
      " samalla": 2442,
      " voidaan": 2443,
      "arras": 2444,
      "par": 2445,
      " hänelle": 2446,
      " puolu": 2447,
      " lasten": 2448,
      "järjestel": 2449,
      " huolimatta": 2450,
      "utkin": 2451,
      "liiton": 2452,
      "ser": 2453,
      " opp": 2454,
      " ajat": 2455,
      "24": 2456,
      " lapsen": 2457,
      "tit": 2458,
      "anen": 2459,
      "llyt": 2460,
      "joitti": 2461,
      " anta": 2462,
      "kusta": 2463,
      "Ti": 2464,
      "istuu": 2465,
      " yö": 2466,
      " turvallisuus": 2467,
      " nopeasti": 2468,
      " voima": 2469,
      " hyvinvoin": 2470,
      " loukkaan": 2471,
      "anska": 2472,
      " eteen": 2473,
      " maahan": 2474,
      "teessa": 2475,
      " käräjäoike": 2476,
      " Yhdysvaltain": 2477,
      " haluaa": 2478,
      "Esimerkiksi": 2479,
      "mät": 2480,
      "sy": 2481,
      " voitto": 2482,
      " liian": 2483,
      "Ku": 2484,
      "edia": 2485,
      " elämän": 2486,
      " vaihto": 2487,
      "met": 2488,
      " päätty": 2489,
      " tulla": 2490,
      "ander": 2491,
      " pud": 2492,
      "mu": 2493,
      "öl": 2494,
      "ottaa": 2495,
      " huon": 2496,
      "istää": 2497,
      " jär": 2498,
      "mmi": 2499,
      "ire": 2500,
      "yksiä": 2501,
      " huh": 2502,
      " vapa": 2503,
      "laisen": 2504,
      " joutui": 2505,
      "mpiala": 2506,
      " läpi": 2507,
      " puhu": 2508,
      "Mies": 2509,
      "inna": 2510,
      " kesken": 2511,
      " löytyy": 2512,
      "23": 2513,
      "jista": 2514,
      "onin": 2515,
      "kiä": 2516,
      "tuo": 2517,
      "ttila": 2518,
      " erityisesti": 2519,
      "iso": 2520,
      "pit": 2521,
      " uude": 2522,
      " joukko": 2523,
      "olta": 2524,
      "uraa": 2525,
      " ihmisiä": 2526,
      "Par": 2527,
      "otus": 2528,
      " laus": 2529,
      "vara": 2530,
      "tteet": 2531,
      "mppan": 2532,
      " ikä": 2533,
      " Il": 2534,
      "ii": 2535,
      "alle": 2536,
      "utua": 2537,
      "ville": 2538,
      " kohta": 2539,
      "ksua": 2540,
      " kerrotaan": 2541,
      "21": 2542,
      "-Sanomat": 2543,
      " luonn": 2544,
      " paik": 2545,
      " toiv": 2546,
      " hoit": 2547,
      "tor": 2548,
      " viikonl": 2549,
      " tehtä": 2550,
      " yhteensä": 2551,
      " raja": 2552,
      " puole": 2553,
      " kymmenen": 2554,
      " jolloin": 2555,
      " nainen": 2556,
      "valmentaja": 2557,
      " yhteydessä": 2558,
      " äänestä": 2559,
      "hy": 2560,
      " tan": 2561,
      "olm": 2562,
      " lähti": 2563,
      " kuuluu": 2564,
      "rik": 2565,
      " asiaa": 2566,
      "kön": 2567,
      "uissa": 2568,
      " tosi": 2569,
      ")\n": 2570,
      " vapaa": 2571,
      " poliisin": 2572,
      " aiheutta": 2573,
      "Venäjän": 2574,
      "Hall": 2575,
      " valtion": 2576,
      " suunnitel": 2577,
      "vallan": 2578,
      "-ilta": 2579,
      "ustaa": 2580,
      " kansaned": 2581,
      " viisi": 2582,
      " näk": 2583,
      " varsin": 2584,
      "ttain": 2585,
      " liig": 2586,
      "nen": 2587,
      " kahd": 2588,
      "ves": 2589,
      " osaa": 2590,
      " yliop": 2591,
      " joiden": 2592,
      "puh": 2593,
      " Ho": 2594,
      "ban": 2595,
      " laps": 2596,
      "ttävän": 2597,
      " kerton": 2598,
      " valmista": 2599,
      " tästä": 2600,
      " help": 2601,
      "pelaa": 2602,
      "ilan": 2603,
      "ete": 2604,
      "koa": 2605,
      " Mä": 2606,
      " Ruotsin": 2607,
      "co": 2608,
      " mitta": 2609,
      "ero": 2610,
      " vaikutta": 2611,
      "iaa": 2612,
      "siin": 2613,
      " meidän": 2614,
      "istus": 2615,
      " kilpa": 2616,
      "hä": 2617,
      "tilan": 2618,
      "tyksen": 2619,
      "kinen": 2620,
      "tanen": 2621,
      " terveys": 2622,
      " myyn": 2623,
      "ttäjä": 2624,
      "Tämän": 2625,
      " tieto": 2626,
      " tausta": 2627,
      "ttämään": 2628,
      " nimi": 2629,
      "vy": 2630,
      " histori": 2631,
      " lyh": 2632,
      "riin": 2633,
      "Pal": 2634,
      "voima": 2635,
      "pahtu": 2636,
      "vista": 2637,
      "isko": 2638,
      "isuudessa": 2639,
      " kuljet": 2640,
      " ihmiset": 2641,
      "llisuuden": 2642,
      " ympär": 2643,
      " Kan": 2644,
      " koi": 2645,
      " sään": 2646,
      "eena": 2647,
      "Ro": 2648,
      "siv": 2649,
      " viranoma": 2650,
      " saav": 2651,
      "muksen": 2652,
      "öy": 2653,
      "kaup": 2654,
      " Ri": 2655,
      " jaks": 2656,
      " vähen": 2657,
      " kannattaa": 2658,
      "tele": 2659,
      "ttien": 2660,
      "bo": 2661,
      " musi": 2662,
      "ehti": 2663,
      " pari": 2664,
      " ruoka": 2665,
      "Te": 2666,
      " krit": 2667,
      " marras": 2668,
      " El": 2669,
      " kierro": 2670,
      "uton": 2671,
      "ksella": 2672,
      " En": 2673,
      "aton": 2674,
      "kaupun": 2675,
      "Kä": 2676,
      " valtio": 2677,
      " tulisi": 2678,
      "uvos": 2679,
      "itoksen": 2680,
      " vaikea": 2681,
      " hien": 2682,
      "asin": 2683,
      " Oulun": 2684,
      " näyttä": 2685,
      " mole": 2686,
      " onko": 2687,
      " yksin": 2688,
      "Suomessa": 2689,
      " toiminta": 2690,
      "läh": 2691,
      "konen": 2692,
      "laista": 2693,
      " runsa": 2694,
      " Itä": 2695,
      " kirjoitti": 2696,
      "kanen": 2697,
      " osallistu": 2698,
      "usto": 2699,
      "fi": 2700,
      " taso": 2701,
      "ehdo": 2702,
      "ttyä": 2703,
      "ttunut": 2704,
      " lämpö": 2705,
      " erä": 2706,
      "Helsin": 2707,
      "yksestä": 2708,
      " minkä": 2709,
      " ura": 2710,
      "rien": 2711,
      " Kor": 2712,
      " koske": 2713,
      "uur": 2714,
      " naisten": 2715,
      " ilmoitti": 2716,
      "sissa": 2717,
      " prin": 2718,
      "änsä": 2719,
      "ksesta": 2720,
      "100": 2721,
      "aleissa": 2722,
      "jun": 2723,
      "tänyt": 2724,
      "joita": 2725,
      "att": 2726,
      " EM": 2727,
      " päivän": 2728,
      " kal": 2729,
      "matto": 2730,
      "iha": 2731,
      " rikos": 2732,
      " sota": 2733,
      " suurin": 2734,
      "onald": 2735,
      "kymmen": 2736,
      " moni": 2737,
      "änen": 2738,
      "Ni": 2739,
      " tek": 2740,
      " kolmen": 2741,
      "istaan": 2742,
      " loka": 2743,
      "kää": 2744,
      " ratkais": 2745,
      "Lap": 2746,
      "tteita": 2747,
      "jar": 2748,
      " joista": 2749,
      " päälle": 2750,
      " työn": 2751,
      "Ruot": 2752,
      " Israelin": 2753,
      "Ke": 2754,
      " keskusta": 2755,
      "kissa": 2756,
      "etin": 2757,
      "60": 2758,
      "isilla": 2759,
      " kohti": 2760,
      "ttivät": 2761,
      " kaiken": 2762,
      " tunte": 2763,
      "dy": 2764,
      "jalla": 2765,
      " tuke": 2766,
      " ravinto": 2767,
      " totesi": 2768,
      "ps": 2769,
      " olleen": 2770,
      "yön": 2771,
      " yhti": 2772,
      "ykset": 2773,
      "-P": 2774,
      "vissä": 2775,
      " ris": 2776,
      " maali": 2777,
      " Ukrain": 2778,
      "hte": 2779,
      "iemi": 2780,
      "annetta": 2781,
      " julkaisi": 2782,
      " pohti": 2783,
      " kapp": 2784,
      " ulos": 2785,
      "rö": 2786,
      "ttelun": 2787,
      " Var": 2788,
      " asun": 2789,
      " uutisoi": 2790,
      " Ve": 2791,
      " helm": 2792,
      "ineen": 2793,
      "-p": 2794,
      "ynä": 2795,
      "palvelu": 2796,
      "tis": 2797,
      "ikku": 2798,
      " vaiheessa": 2799,
      " muiden": 2800,
      " tehtävä": 2801,
      " onnettom": 2802,
      " pako": 2803,
      " metsä": 2804,
      " nime": 2805,
      " suure": 2806,
      " verran": 2807,
      "järjestö": 2808,
      "-Suomen": 2809,
      "aston": 2810,
      "eijon": 2811,
      " päätt": 2812,
      " sodan": 2813,
      " neuvo": 2814,
      " oikeus": 2815,
      " uutta": 2816,
      "vali": 2817,
      "kal": 2818,
      " Va": 2819,
      " tamm": 2820,
      "mpp": 2821,
      " vaikut": 2822,
      " som": 2823,
      "matka": 2824,
      " jouk": 2825,
      "väli": 2826,
      " viestin": 2827,
      "sel": 2828,
      " viiden": 2829,
      "mäki": 2830,
      " heinä": 2831,
      " muistuttaa": 2832,
      "Ol": 2833,
      " kah": 2834,
      " muuto": 2835,
      "und": 2836,
      "tetta": 2837,
      "mpien": 2838,
      " Ch": 2839,
      " oikein": 2840,
      " vesi": 2841,
      "antuntija": 2842,
      "ose": 2843,
      " Joh": 2844,
      "Läh": 2845,
      "iki": 2846,
      "ihd": 2847,
      " joku": 2848,
      " elin": 2849,
      " takana": 2850,
      "mästä": 2851,
      " maalis": 2852,
      "-sar": 2853,
      "Le": 2854,
      " hir": 2855,
      "ttävät": 2856,
      " Da": 2857,
      "ttävästi": 2858,
      "oili": 2859,
      " silti": 2860,
      " perinte": 2861,
      " use": 2862,
      " muod": 2863,
      "gissä": 2864,
      " miksi": 2865,
      "kok": 2866,
      " asioita": 2867,
      " haastattelussa": 2868,
      "kauden": 2869,
      " sair": 2870,
      " Leh": 2871,
      " edessä": 2872,
      "Tällä": 2873,
      " kärsi": 2874,
      " perheen": 2875,
      "Me": 2876,
      "uksena": 2877,
      "uilla": 2878,
      "isuuden": 2879,
      "ess": 2880,
      " vanke": 2881,
      "tava": 2882,
      "mana": 2883,
      "kau": 2884,
      " johtaja": 2885,
      "vio": 2886,
      "kansa": 2887,
      "estys": 2888,
      " mediassa": 2889,
      "Vir": 2890,
      " hänellä": 2891,
      " näkö": 2892,
      " varmasti": 2893,
      " alue": 2894,
      " ulkoma": 2895,
      "cup": 2896,
      " liikenne": 2897,
      " ohj": 2898,
      " tuolloin": 2899,
      "Van": 2900,
      "27": 2901,
      "paikka": 2902,
      " asian": 2903,
      " Alex": 2904,
      " lähtö": 2905,
      "mällä": 2906,
      " tietoa": 2907,
      "-ar": 2908,
      "iks": 2909,
      " paikka": 2910,
      "uper": 2911,
      "pin": 2912,
      "ör": 2913,
      "assi": 2914,
      "istön": 2915,
      " antoi": 2916,
      "annin": 2917,
      " seitsemän": 2918,
      " täällä": 2919,
      " leikka": 2920,
      " juhli": 2921,
      " ykkö": 2922,
      " kampan": 2923,
      "hon": 2924,
      " olympiala": 2925,
      " pääministeri": 2926,
      " mieli": 2927,
      "yhte": 2928,
      " loppu": 2929,
      "-iltana": 2930,
      "Osa": 2931,
      "tissa": 2932,
      "olin": 2933,
      " päivänä": 2934,
      " päätös": 2935,
      " tarvitse": 2936,
      "Tur": 2937,
      " pelasi": 2938,
      "maton": 2939,
      "Trump": 2940,
      " haa": 2941,
      " Etelä": 2942,
      " ennä": 2943,
      " ottelussa": 2944,
      " Salon": 2945,
      "astusla": 2946,
      "laisia": 2947,
      "residentti": 2948,
      "tsa": 2949,
      "mpää": 2950,
      "mansa": 2951,
      " IS": 2952,
      " toimitus": 2953,
      "puolella": 2954,
      " tapahtun": 2955,
      " demokra": 2956,
      " Van": 2957,
      "-ta": 2958,
      "enkin": 2959,
      " jalkapa": 2960,
      "-A": 2961,
      "vina": 2962,
      "isuutta": 2963,
      "Tar": 2964,
      " yhde": 2965,
      " teko": 2966,
      "ikaa": 2967,
      "poli": 2968,
      "raken": 2969,
      " Kr": 2970,
      " miesten": 2971,
      "llikkö": 2972,
      "umer": 2973,
      "aste": 2974,
      "oiv": 2975,
      "imen": 2976,
      " markkin": 2977,
      "go": 2978,
      " vase": 2979,
      "vet": 2980,
      "oitus": 2981,
      "ttelijä": 2982,
      "huo": 2983,
      " liikku": 2984,
      "Vuonna": 2985,
      "Mon": 2986,
      " etsi": 2987,
      " Lap": 2988,
      " laske": 2989,
      " ääri": 2990,
      "kier": 2991,
      "ykseen": 2992,
      " kevä": 2993,
      " luki": 2994,
      " johon": 2995,
      " Rovan": 2996,
      "luo": 2997,
      "aat": 2998,
      " kaikke": 2999,
      " inn": 3000,
      "ritan": 3001,
      " Per": 3002,
      " tarkoitus": 3003,
      "So": 3004,
      "ujen": 3005,
      " pist": 3006,
      "tie": 3007,
      " usea": 3008,
      "jetta": 3009,
      " The": 3010,
      "Venäjä": 3011,
      "Tässä": 3012,
      "hoi": 3013,
      " luke": 3014,
      " kuts": 3015,
      " talous": 3016,
      "IS": 3017,
      " laj": 3018,
      "198": 3019,
      " joukkueen": 3020,
      " suunni": 3021,
      " sisäl": 3022,
      "politi": 3023,
      "Oli": 3024,
      " Lo": 3025,
      " pian": 3026,
      " vaara": 3027,
      "tän": 3028,
      "Kir": 3029,
      " Hä": 3030,
      "suo": 3031,
      " kertonut": 3032,
      "Kyllä": 3033,
      "TV": 3034,
      "ena": 3035,
      "tavat": 3036,
      " Kos": 3037,
      "intään": 3038,
      "kkos": 3039,
      " Car": 3040,
      " verkko": 3041,
      " välttämä": 3042,
      " Tamper": 3043,
      " kr": 3044,
      " kri": 3045,
      "kien": 3046,
      "mille": 3047,
      "tteja": 3048,
      "ttely": 3049,
      " suomalais": 3050,
      " tuom": 3051,
      "ister": 3052,
      " tod": 3053,
      "dio": 3054,
      " avaus": 3055,
      "Sitt": 3056,
      " hinta": 3057,
      "oimin": 3058,
      "jala": 3059,
      " lähellä": 3060,
      " mistä": 3061,
      " kuollut": 3062,
      "TT": 3063,
      "mit": 3064,
      "pen": 3065,
      "ull": 3066,
      " Mikko": 3067,
      "essään": 3068,
      " hyvinvointi": 3069,
      " tarp": 3070,
      ".)": 3071,
      "jalta": 3072,
      " kuvaa": 3073,
      "oitu": 3074,
      " valmi": 3075,
      "kot": 3076,
      " kisa": 3077,
      " SM": 3078,
      " suoraan": 3079,
      "imm": 3080,
      " tiedä": 3081,
      " ydin": 3082,
      "sit": 3083,
      "Oike": 3084,
      " tapaa": 3085,
      "Puol": 3086,
      "Suomi": 3087,
      "htiin": 3088,
      " toimii": 3089,
      "Maa": 3090,
      "alo": 3091,
      "ysti": 3092,
      "ohjan": 3093,
      " tietojen": 3094,
      "neen": 3095,
      " ilmi": 3096,
      " ero": 3097,
      "ttori": 3098,
      " voinut": 3099,
      " tyh": 3100,
      " Yle": 3101,
      " poika": 3102,
      "Siin": 3103,
      "urs": 3104,
      "hdist": 3105,
      "lamen": 3106,
      " Me": 3107,
      " Ba": 3108,
      " For": 3109,
      " etelä": 3110,
      "26": 3111,
      " sanoa": 3112,
      " kuusi": 3113,
      "hyö": 3114,
      " hur": 3115,
      " hilja": 3116,
      "Kar": 3117,
      "tinen": 3118,
      "ttun": 3119,
      " alla": 3120,
      "ttiä": 3121,
      " Iltalehdelle": 3122,
      " tv": 3123,
      " kuning": 3124,
      "udu": 3125,
      "can": 3126,
      "misessa": 3127,
      "tonen": 3128,
      " melko": 3129,
      "tyks": 3130,
      "eitä": 3131,
      "käri": 3132,
      " Vi": 3133,
      " korja": 3134,
      " olevansa": 3135,
      " seksua": 3136,
      " uusia": 3137,
      " syytä": 3138,
      " sairaala": 3139,
      " paras": 3140,
      " rea": 3141,
      "ät": 3142,
      " alkoh": 3143,
      " entinen": 3144,
      " todennäköisesti": 3145,
      " Gaz": 3146,
      "ivo": 3147,
      " tekemään": 3148,
      "olog": 3149,
      " Pari": 3150,
      " di": 3151,
      " Te": 3152,
      "kenut": 3153,
      " isä": 3154,
      "Ole": 3155,
      "lly": 3156,
      " tee": 3157,
      " olemme": 3158,
      " puhel": 3159,
      " vanh": 3160,
      " pelaaja": 3161,
      "lliseen": 3162,
      " vuosien": 3163,
      " urheil": 3164,
      "Siinä": 3165,
      "eidän": 3166,
      " alusta": 3167,
      "joitta": 3168,
      " vaali": 3169,
      " nosta": 3170,
      " tuttu": 3171,
      " Yhdysval": 3172,
      "use": 3173,
      " yön": 3174,
      " lah": 3175,
      " miljar": 3176,
      "joukkueen": 3177,
      " kuukauden": 3178,
      "gissa": 3179,
      " aset": 3180,
      " minuu": 3181,
      " löyt": 3182,
      " jääkie": 3183,
      " lauanta": 3184,
      "gn": 3185,
      " oikeuden": 3186,
      " meillä": 3187,
      " kilometrin": 3188,
      "29": 3189,
      "ktiiv": 3190,
      " maalin": 3191,
      "iemen": 3192,
      " aloitti": 3193,
      " Antti": 3194,
      " merkit": 3195,
      " tietää": 3196,
      "asen": 3197,
      "ännössä": 3198,
      "Ensimmä": 3199,
      "yrit": 3200,
      "Tie": 3201,
      " puolesta": 3202,
      " hyökkäys": 3203,
      " uudelleen": 3204,
      " Nato": 3205,
      "eor": 3206,
      "teiden": 3207,
      " uhka": 3208,
      " näkyy": 3209,
      " yritys": 3210,
      "Yle": 3211,
      "ule": 3212,
      "lehden": 3213,
      " osalta": 3214,
      " euro": 3215,
      "koko": 3216,
      " Lind": 3217,
      "ip": 3218,
      "ukoku": 3219,
      " yleisö": 3220,
      "kari": 3221,
      "olle": 3222,
      " kei": 3223,
      " asunn": 3224,
      " korva": 3225,
      "markkin": 3226,
      "sien": 3227,
      " hallin": 3228,
      " metrin": 3229,
      "Koko": 3230,
      "juo": 3231,
      " ruu": 3232,
      "inin": 3233,
      "istoim": 3234,
      "äiri": 3235,
      " menee": 3236,
      " löytyi": 3237,
      " media": 3238,
      "alis": 3239,
      " tappi": 3240,
      " mennessä": 3241,
      "ttor": 3242,
      "malle": 3243,
      " puolue": 3244,
      " ensimmäistä": 3245,
      " nimen": 3246,
      " mestar": 3247,
      " kuvan": 3248,
      " päätti": 3249,
      " No": 3250,
      "ooli": 3251,
      " Instagram": 3252,
      " päiv": 3253,
      " huipp": 3254,
      "28": 3255,
      " oleva": 3256,
      " kyseessä": 3257,
      " määr": 3258,
      " poikkeukse": 3259,
      "nassa": 3260,
      "mir": 3261,
      "muut": 3262,
      " ympäristö": 3263,
      "35": 3264,
      "yyden": 3265,
      " Fa": 3266,
      " paikalla": 3267,
      "Re": 3268,
      " tehdään": 3269,
      " tilanteessa": 3270,
      "for": 3271,
      "itin": 3272,
      " naisen": 3273,
      "Nor": 3274,
      " loppuun": 3275,
      " vaatii": 3276,
      " kahdeksan": 3277,
      "uita": 3278,
      " mieltä": 3279,
      "ytti": 3280,
      " up": 3281,
      "Lop": 3282,
      "milla": 3283,
      " kerä": 3284,
      " ihme": 3285,
      " kannalta": 3286,
      "tämään": 3287,
      " ensin": 3288,
      " kuvailee": 3289,
      "uoli": 3290,
      " So": 3291,
      "estään": 3292,
      " käyttöön": 3293,
      "Har": 3294,
      "eesta": 3295,
      " Mer": 3296,
      " harr": 3297,
      " selvästi": 3298,
      "jal": 3299,
      " osta": 3300,
      "isteri": 3301,
      "aran": 3302,
      " kovin": 3303,
      "BC": 3304,
      "eista": 3305,
      "uni": 3306,
      " ruot": 3307,
      " lähet": 3308,
      " aiku": 3309,
      " pyrki": 3310,
      " vastusta": 3311,
      "lon": 3312,
      " hake": 3313,
      " pitänyt": 3314,
      " Yor": 3315,
      " normaal": 3316,
      "liitto": 3317,
      "sessa": 3318,
      "udesta": 3319,
      " jatkuu": 3320,
      "llistä": 3321,
      "Kaksi": 3322,
      "sää": 3323,
      " raa": 3324,
      " rah": 3325,
      " tuotan": 3326,
      " kaikkien": 3327,
      "Työ": 3328,
      "bi": 3329,
      " tapauksessa": 3330,
      " ikään": 3331,
      "llisten": 3332,
      "isemmin": 3333,
      " opet": 3334,
      " äiti": 3335,
      "jalle": 3336,
      "Isra": 3337,
      "musta": 3338,
      "tähti": 3339,
      "ikkoja": 3340,
      "etteri": 3341,
      "ivi": 3342,
      " klo": 3343,
      "elma": 3344,
      " palaa": 3345,
      " lähtien": 3346,
      " päivää": 3347,
      " jonkin": 3348,
      " vuodesta": 3349,
      " mihin": 3350,
      "teissa": 3351,
      " nähtiin": 3352,
      " Por": 3353,
      "uksien": 3354,
      " perussuomala": 3355,
      "PS": 3356,
      " naa": 3357,
      " perust": 3358,
      " dolla": 3359,
      "Sitten": 3360,
      " vet": 3361,
      "ulussa": 3362,
      " kova": 3363,
      " tarkoittaa": 3364,
      "Meillä": 3365,
      "hto": 3366,
      "isivat": 3367,
      "opea": 3368,
      "irin": 3369,
      " aloit": 3370,
      " politi": 3371,
      "Hy": 3372,
      " vil": 3373,
      "tävät": 3374,
      "paikan": 3375,
      " kevää": 3376,
      " verra": 3377,
      "htaa": 3378,
      "ttuuri": 3379,
      "ca": 3380,
      " juttu": 3381,
      "ettava": 3382,
      " tärkeä": 3383,
      " tyyty": 3384,
      " etenkin": 3385,
      " omaa": 3386,
      " kotiin": 3387,
      " vii": 3388,
      " pääse": 3389,
      " poliis": 3390,
      "Mo": 3391,
      "esi": 3392,
      "inaan": 3393,
      "insa": 3394,
      "neksi": 3395,
      " Donald": 3396,
      "Niin": 3397,
      " sata": 3398,
      "bri": 3399,
      "peli": 3400,
      "ikenne": 3401,
      " asiakka": 3402,
      " u": 3403,
      " paikalle": 3404,
      "del": 3405,
      " joilla": 3406,
      "mari": 3407,
      "tajat": 3408,
      " energ": 3409,
      "vallo": 3410,
      "etun": 3411,
      "deksi": 3412,
      " Hen": 3413,
      " harjoit": 3414,
      " paremmin": 3415,
      "mättä": 3416,
      " tuore": 3417,
      "stään": 3418,
      " niistä": 3419,
      " päättyi": 3420,
      "ris": 3421,
      "anskan": 3422,
      " Israel": 3423,
      " yhteistyö": 3424,
      "Kat": 3425,
      " tavoit": 3426,
      "menn": 3427,
      "-vuotiaan": 3428,
      "ministeriön": 3429,
      "anin": 3430,
      "uiden": 3431,
      " varten": 3432,
      "ens": 3433,
      "isaa": 3434,
      " kur": 3435,
      "istan": 3436,
      " luon": 3437,
      "90": 3438,
      "voimien": 3439,
      " suhteen": 3440,
      "-ti": 3441,
      "veri": 3442,
      " rapor": 3443,
      "gaist": 3444,
      " paris": 3445,
      " aikoo": 3446,
      " suuntaan": 3447,
      "mur": 3448,
      " mennä": 3449,
      "kunnassa": 3450,
      " Naton": 3451,
      "oppuna": 3452,
      "-o": 3453,
      "vistä": 3454,
      "..": 3455,
      "ts": 3456,
      " ry": 3457,
      " Bo": 3458,
      " uk": 3459,
      "80": 3460,
      "gl": 3461,
      "alissa": 3462,
      " tärkeää": 3463,
      "dyn": 3464,
      "aren": 3465,
      " Mo": 3466,
      " täytyy": 3467,
      " isku": 3468,
      "vist": 3469,
      " lähi": 3470,
      " milla": 3471,
      " jatko": 3472,
      " tuntuu": 3473,
      "mmista": 3474,
      " minuut": 3475,
      " vasemm": 3476,
      "osuh": 3477,
      " taa": 3478,
      "laiset": 3479,
      " rahaa": 3480,
      " kasva": 3481,
      " yleensä": 3482,
      "prin": 3483,
      "ähän": 3484,
      " kantaa": 3485,
      " saapui": 3486,
      "500": 3487,
      "rän": 3488,
      "kassa": 3489,
      " itsen": 3490,
      "tra": 3491,
      "vos": 3492,
      "isku": 3493,
      " eniten": 3494,
      "äiriö": 3495,
      "sut": 3496,
      " hyvää": 3497,
      " juon": 3498,
      "my": 3499,
      "isyys": 3500,
      " Tim": 3501,
      " kertovat": 3502,
      " Alexander": 3503,
      "ksista": 3504,
      " vira": 3505,
      "Poliisin": 3506,
      "gas": 3507,
      "Til": 3508,
      "eria": 3509,
      " ohi": 3510,
      "oikeus": 3511,
      " aiheuttaa": 3512,
      " urheili": 3513,
      " sellainen": 3514,
      "miel": 3515,
      " paran": 3516,
      "delle": 3517,
      "alia": 3518,
      "Voi": 3519,
      " päällä": 3520,
      "hka": 3521,
      "itetty": 3522,
      " ihmisten": 3523,
      " avulla": 3524,
      "Po": 3525,
      " pot": 3526,
      " nämä": 3527,
      "päätö": 3528,
      "valle": 3529,
      "atin": 3530,
      " voittanut": 3531,
      ":\n": 3532,
      " Mi": 3533,
      " hallit": 3534,
      " jatkoi": 3535,
      "istelee": 3536,
      " ui": 3537,
      "70": 3538,
      "and": 3539,
      " run": 3540,
      " tapahtunut": 3541,
      " jäänyt": 3542,
      "llisi": 3543,
      " Un": 3544,
      " jatkossa": 3545,
      "Olemme": 3546,
      "teeseen": 3547,
      " laitt": 3548,
      " teho": 3549,
      " lähde": 3550,
      " nuori": 3551,
      "auto": 3552,
      " mik": 3553,
      " nostaa": 3554,
      "kkiä": 3555,
      "-s": 3556,
      "Mitä": 3557,
      " minulle": 3558,
      " Turun": 3559,
      " kappal": 3560,
      " kusta": 3561,
      "tenä": 3562,
      " tuotta": 3563,
      " pahoin": 3564,
      "uttua": 3565,
      "ikoi": 3566,
      "nettom": 3567,
      " luku": 3568,
      "yteen": 3569,
      " nuorten": 3570,
      " toistaiseksi": 3571,
      " seksuaal": 3572,
      " sijoi": 3573,
      " kohtaan": 3574,
      "tön": 3575,
      " etu": 3576,
      " Par": 3577,
      " korkea": 3578,
      "keskus": 3579,
      " koton": 3580,
      " lopussa": 3581,
      " pieni": 3582,
      " kolmann": 3583,
      "Kesk": 3584,
      "Pit": 3585,
      "Sitä": 3586,
      "tteiden": 3587,
      "istua": 3588,
      " epäillään": 3589,
      "Kos": 3590,
      " Su": 3591,
      " nähty": 3592,
      " mö": 3593,
      " epäilty": 3594,
      "uskin": 3595,
      " kanta": 3596,
      "äärin": 3597,
      " päävalmentaja": 3598,
      "olan": 3599,
      "Vä": 3600,
      " tas": 3601,
      " nähdään": 3602,
      " anne": 3603,
      "mei": 3604,
      " Pal": 3605,
      " rahoit": 3606,
      " pääsee": 3607,
      "Helsingin": 3608,
      "valio": 3609,
      "hun": 3610,
      "tilais": 3611,
      " luotta": 3612,
      " puna": 3613,
      " toukoku": 3614,
      " tilannetta": 3615,
      "ministeriö": 3616,
      " pistettä": 3617,
      "lassa": 3618,
      " sama": 3619,
      " suhta": 3620,
      "Ed": 3621,
      "Kär": 3622,
      "isteli": 3623,
      "uttamaan": 3624,
      " Co": 3625,
      " huomatta": 3626,
      "päivän": 3627,
      " miljoonan": 3628,
      "Ul": 3629,
      " aino": 3630,
      " tuki": 3631,
      " samaan": 3632,
      " välttämättä": 3633,
      "-liig": 3634,
      "alassa": 3635,
      " länsi": 3636,
      "kanut": 3637,
      " nähdä": 3638,
      "kr": 3639,
      " mä": 3640,
      " kausi": 3641,
      "laisten": 3642,
      " valmis": 3643,
      " Ur": 3644,
      " Ander": 3645,
      "dotta": 3646,
      "meen": 3647,
      " Po": 3648,
      " saakka": 3649,
      " esit": 3650,
      " kiinte": 3651,
      " pääss": 3652,
      " säil": 3653,
      " minuuttia": 3654,
      " Mika": 3655,
      "Hä": 3656,
      "bli": 3657,
      "sitiiv": 3658,
      "vaik": 3659,
      " Oy": 3660,
      " julkais": 3661,
      " tapahtuma": 3662,
      "ene": 3663,
      " om": 3664,
      " sala": 3665,
      " Kat": 3666,
      " pakka": 3667,
      " halunn": 3668,
      "ttuja": 3669,
      " Bar": 3670,
      "jone": 3671,
      " Ylen": 3672,
      " saivat": 3673,
      "ritanni": 3674,
      "astu": 3675,
      " puhe": 3676,
      " ottelua": 3677,
      " sukup": 3678,
      " Pi": 3679,
      " Saksa": 3680,
      " esiinty": 3681,
      " jätti": 3682,
      " uskoo": 3683,
      " puolella": 3684,
      "Es": 3685,
      "het": 3686,
      "eloku": 3687,
      " alueen": 3688,
      " sopi": 3689,
      " toimitusjohtaja": 3690,
      "ger": 3691,
      " sisällä": 3692,
      "ere": 3693,
      " ylä": 3694,
      " kokoon": 3695,
      " vähintään": 3696,
      "Ho": 3697,
      "työ": 3698,
      "ttinen": 3699,
      " rä": 3700,
      "valloissa": 3701,
      "teli": 3702,
      " kunnossa": 3703,
      " Helsingissä": 3704,
      " rakenta": 3705,
      "johtajan": 3706,
      " lie": 3707,
      "tär": 3708,
      " minä": 3709,
      " virka": 3710,
      "Stubb": 3711,
      " rik": 3712,
      " vähemmän": 3713,
      " kaikkea": 3714,
      "lää": 3715,
      "llist": 3716,
      "utettu": 3717,
      "illia": 3718,
      " Putinin": 3719,
      " vahing": 3720,
      " halusi": 3721,
      " kannatta": 3722,
      "Ih": 3723,
      "ttelua": 3724,
      "konaan": 3725,
      " jouluk": 3726,
      " sosiaalisessa": 3727,
      " tyttö": 3728,
      "hdon": 3729,
      " kukaan": 3730,
      " Ham": 3731,
      " ollaan": 3732,
      " kokoom": 3733,
      "dc": 3734,
      "zz": 3735,
      "ute": 3736,
      "alue": 3737,
      " päässä": 3738,
      " kiel": 3739,
      " johtaa": 3740,
      " vaku": 3741,
      " muista": 3742,
      "uran": 3743,
      " puolis": 3744,
      " linja": 3745,
      " Sch": 3746,
      "estön": 3747,
      " toimitta": 3748,
      " Kiin": 3749,
      " päätöksen": 3750,
      " lyhy": 3751,
      "uti": 3752,
      "ikk": 3753,
      " ajoi": 3754,
      " kap": 3755,
      "yttänyt": 3756,
      " pysy": 3757,
      "SA": 3758,
      "villa": 3759,
      " tarvi": 3760,
      "lori": 3761,
      " tekn": 3762,
      "hu": 3763,
      "pposi": 3764,
      "toista": 3765,
      " saata": 3766,
      " saatu": 3767,
      " pelannut": 3768,
      " liitto": 3769,
      " liittyy": 3770,
      " sarja": 3771,
      "Us": 3772,
      " vaim": 3773,
      "ladi": 3774,
      " Hi": 3775,
      " maailmanm": 3776,
      "-ma": 3777,
      "publi": 3778,
      " toimittaja": 3779,
      "iskeli": 3780,
      " odottaa": 3781,
      "rilla": 3782,
      "Mikä": 3783,
      "Sie": 3784,
      "ytys": 3785,
      "non": 3786,
      "oida": 3787,
      "istään": 3788,
      " toivo": 3789,
      " liike": 3790,
      " eteenpäin": 3791,
      "-Kor": 3792,
      " hu": 3793,
      "ikö": 3794,
      " vei": 3795,
      "yneet": 3796,
      " Is": 3797,
      "Silloin": 3798,
      " Pekka": 3799,
      "Kyseessä": 3800,
      "publikaan": 3801,
      "In": 3802,
      "sivät": 3803,
      " ehdot": 3804,
      "Samalla": 3805,
      "keskuksen": 3806,
      " kokonaan": 3807,
      " maassa": 3808,
      " toiminut": 3809,
      "llia": 3810,
      "kein": 3811,
      "otto": 3812,
      "kiel": 3813,
      " Kes": 3814,
      "atta": 3815,
      " liikke": 3816,
      " taloude": 3817,
      " kohdalla": 3818,
      " keväällä": 3819,
      "ean": 3820,
      " kesän": 3821,
      "toihin": 3822,
      "maalla": 3823,
      " itä": 3824,
      "hei": 3825,
      "vittä": 3826,
      "annan": 3827,
      " tehtiin": 3828,
      "-luvun": 3829,
      " moo": 3830,
      "ilman": 3831,
      "alaisen": 3832,
      " pela": 3833,
      " ihmisen": 3834,
      " pitkän": 3835,
      " hiih": 3836,
      " kesällä": 3837,
      "kkääjä": 3838,
      "Euroop": 3839,
      "lö": 3840,
      " STT": 3841,
      "strö": 3842,
      "miehen": 3843,
      "muka": 3844,
      " ehti": 3845,
      "ilpail": 3846,
      "koja": 3847,
      " sam": 3848,
      "uston": 3849,
      "istettu": 3850,
      " vastasi": 3851,
      "ksän": 3852,
      " matkusta": 3853,
      " vär": 3854,
      " Vil": 3855,
      " voitta": 3856,
      " kutsu": 3857,
      "päällikkö": 3858,
      "län": 3859,
      "pur": 3860,
      " seli": 3861,
      " es": 3862,
      " Lu": 3863,
      "hansa": 3864,
      " Ku": 3865,
      " Ver": 3866,
      "voim": 3867,
      " johto": 3868,
      " tapahtuu": 3869,
      " ykkös": 3870,
      "jään": 3871,
      "ard": 3872,
      " c": 3873,
      " taistel": 3874,
      " teo": 3875,
      " laula": 3876,
      " järjestel": 3877,
      "45": 3878,
      " saadaan": 3879,
      " suor": 3880,
      "197": 3881,
      " prosentin": 3882,
      " Char": 3883,
      " huono": 3884,
      "-vuotiaana": 3885,
      " Petteri": 3886,
      " näkem": 3887,
      " tarkas": 3888,
      "Is": 3889,
      " turvallis": 3890,
      " muutos": 3891,
      " viikonloppuna": 3892,
      " päässyt": 3893,
      "Kan": 3894,
      "Päi": 3895,
      "mitta": 3896,
      " Tor": 3897,
      " sanon": 3898,
      " ansi": 3899,
      " juhla": 3900,
      "usin": 3901,
      "utuvat": 3902,
      "järvi": 3903,
      " Sano": 3904,
      "innon": 3905,
      " olisivat": 3906,
      " mahdollisuus": 3907,
      " yksityis": 3908,
      " Ukrainassa": 3909,
      " Br": 3910,
      " päin": 3911,
      " apua": 3912,
      " ruotsa": 3913,
      "Aie": 3914,
      "Mie": 3915,
      "ikkaan": 3916,
      "mattom": 3917,
      " käynyt": 3918,
      " saavat": 3919,
      "Ennen": 3920,
      " sinne": 3921,
      " hin": 3922,
      " ohja": 3923,
      " tukea": 3924,
      " tilanteen": 3925,
      " käytännössä": 3926,
      "kelä": 3927,
      "inti": 3928,
      " näi": 3929,
      " Pur": 3930,
      "sarjan": 3931,
      "Oh": 3932,
      " pih": 3933,
      " onkin": 3934,
      " suoja": 3935,
      " kansanedustaja": 3936,
      "Nyky": 3937,
      " De": 3938,
      "ralla": 3939,
      " tuntia": 3940,
      "rah": 3941,
      " Puol": 3942,
      " ilo": 3943,
      " riittää": 3944,
      "tteena": 3945,
      "ladimir": 3946,
      " emme": 3947,
      "oivat": 3948,
      "istossa": 3949,
      " sarjan": 3950,
      "Lä": 3951,
      "Su": 3952,
      "pot": 3953,
      "sille": 3954,
      " Suomea": 3955,
      "merikka": 3956,
      " tuntu": 3957,
      " tulevat": 3958,
      " metriä": 3959,
      " alkaen": 3960,
      "Tutki": 3961,
      "ant": 3962,
      " luva": 3963,
      " Si": 3964,
      "uudet": 3965,
      "Vide": 3966,
      " siltä": 3967,
      " ainoa": 3968,
      " vuoteen": 3969,
      " miestä": 3970,
      "vallat": 3971,
      " takaa": 3972,
      " positiiv": 3973,
      " elämä": 3974,
      "Toinen": 3975,
      " konser": 3976,
      " näytti": 3977,
      "tella": 3978,
      "teeksi": 3979,
      "issään": 3980,
      "Iltalehti": 3981,
      " vau": 3982,
      "pain": 3983,
      " kysel": 3984,
      " hätä": 3985,
      " erityisen": 3986,
      " Espan": 3987,
      " järky": 3988,
      "istoimisto": 3989,
      " ex": 3990,
      "ttävää": 3991,
      "tola": 3992,
      " kunin": 3993,
      " kehitt": 3994,
      "mb": 3995,
      "maksi": 3996,
      " rooli": 3997,
      " Haav": 3998,
      "osoit": 3999,
      "elevisi": 4000,
      "gh": 4001,
      "uuksia": 4002,
      " myöskään": 4003,
      "uksensa": 4004,
      "dion": 4005,
      " muutaman": 4006,
      " lähteä": 4007,
      " törkeä": 4008,
      " estä": 4009,
      "Maan": 4010,
      "ulan": 4011,
      " Mon": 4012,
      " Niin": 4013,
      " vuosikymmen": 4014,
      " Pel": 4015,
      " valmentaja": 4016,
      " lähten": 4017,
      "istetaan": 4018,
      " uhkaa": 4019,
      "eja": 4020,
      " Leijon": 4021,
      "olf": 4022,
      " parlamen": 4023,
      " lopet": 4024,
      "Seuraa": 4025,
      " Saar": 4026,
      " töitä": 4027,
      " synty": 4028,
      " peräti": 4029,
      " kilometriä": 4030,
      " Bidenin": 4031,
      " pil": 4032,
      "ytön": 4033,
      "joja": 4034,
      " teks": 4035,
      " tulos": 4036,
      " eduskun": 4037,
      "ji": 4038,
      "Kol": 4039,
      " aktiiv": 4040,
      " taustalla": 4041,
      " äi": 4042,
      "pyö": 4043,
      " treen": 4044,
      "rain": 4045,
      " lauka": 4046,
      "genda": 4047,
      "ell": 4048,
      "ppaa": 4049,
      "htä": 4050,
      "moit": 4051,
      "tällä": 4052,
      " amm": 4053,
      " puolusta": 4054,
      " kerrottiin": 4055,
      "ss": 4056,
      "kainen": 4057,
      "tilla": 4058,
      "ölj": 4059,
      " lenn": 4060,
      " rikko": 4061,
      " valko": 4062,
      " pelin": 4063,
      " kieltä": 4064,
      " asiassa": 4065,
      " minun": 4066,
      " piir": 4067,
      " joskus": 4068,
      " kaupunki": 4069,
      " tyytyvä": 4070,
      " viikkoa": 4071,
      " kustann": 4072,
      "alueen": 4073,
      " noussut": 4074,
      "ttömä": 4075,
      " lasta": 4076,
      " heiken": 4077,
      " Reut": 4078,
      "iri": 4079,
      "isistä": 4080,
      " nos": 4081,
      " Mc": 4082,
      "manin": 4083,
      " selkeä": 4084,
      " yhtiö": 4085,
      "Er": 4086,
      "ustaan": 4087,
      " monta": 4088,
      " kasvat": 4089,
      "Paika": 4090,
      " maksaa": 4091,
      "empi": 4092,
      "itti": 4093,
      " put": 4094,
      "vell": 4095,
      "Tälla": 4096,
      "ukuussa": 4097,
      "enne": 4098,
      "killä": 4099,
      "imä": 4100,
      " paikan": 4101,
      "isaalta": 4102,
      "Kon": 4103,
      " jut": 4104,
      " St": 4105,
      " Hal": 4106,
      " palkin": 4107,
      " selvit": 4108,
      " vähä": 4109,
      " reil": 4110,
      " pyöri": 4111,
      "Lo": 4112,
      "kista": 4113,
      " vuoro": 4114,
      " harvina": 4115,
      " koulut": 4116,
      " odotta": 4117,
      "ukan": 4118,
      "ath": 4119,
      " tunnettu": 4120,
      " ohjaa": 4121,
      " Orpo": 4122,
      " itsensä": 4123,
      " aloittaa": 4124,
      " parin": 4125,
      " ihminen": 4126,
      "Kuu": 4127,
      "fa": 4128,
      "zin": 4129,
      "Pari": 4130,
      "det": 4131,
      "ulos": 4132,
      "unnossa": 4133,
      " asiat": 4134,
      " työntekijö": 4135,
      "Oulun": 4136,
      "ilma": 4137,
      " suomalainen": 4138,
      " siirty": 4139,
      "gar": 4140,
      "juh": 4141,
      "essi": 4142,
      " olemaan": 4143,
      "kkeen": 4144,
      "telee": 4145,
      " yhdeksän": 4146,
      "én": 4147,
      "erve": 4148,
      " avaa": 4149,
      "kkaasti": 4150,
      " itseään": 4151,
      "Ukrainan": 4152,
      "kso": 4153,
      "imin": 4154,
      " Ran": 4155,
      " kysyi": 4156,
      " entistä": 4157,
      " pohjois": 4158,
      "elensky": 4159,
      "ento": 4160,
      " tulossa": 4161,
      "piir": 4162,
      "Yhdysvaltain": 4163,
      "hdin": 4164,
      " kerta": 4165,
      " valit": 4166,
      " toimintaa": 4167,
      " vetä": 4168,
      " Yhdysvaltojen": 4169,
      "mpaan": 4170,
      "ulula": 4171,
      "kov": 4172,
      "jäsen": 4173,
      " tutkim": 4174,
      " pudotus": 4175,
      " musiikki": 4176,
      "liin": 4177,
      " siksi": 4178,
      " verta": 4179,
      "urva": 4180,
      " lai": 4181,
      " kesänä": 4182,
      " maananta": 4183,
      " ongelma": 4184,
      " huomiota": 4185,
      " Kir": 4186,
      "udun": 4187,
      "wa": 4188,
      " huom": 4189,
      " perusta": 4190,
      " Jussi": 4191,
      " hyvän": 4192,
      " toimia": 4193,
      "voja": 4194,
      " vastuu": 4195,
      "pide": 4196,
      " käytössä": 4197,
      " kokonais": 4198,
      " runsaasti": 4199,
      "llö": 4200,
      "kuva": 4201,
      "ttelut": 4202,
      " kunto": 4203,
      "-vi": 4204,
      " Venäjällä": 4205,
      " onnistu": 4206,
      "tyneet": 4207,
      "-as": 4208,
      "Hen": 4209,
      "ttelin": 4210,
      " näkee": 4211,
      " hote": 4212,
      "koti": 4213,
      " kerr": 4214,
      " Pet": 4215,
      "omer": 4216,
      "päivänä": 4217,
      " itselleen": 4218,
      " lupa": 4219,
      " hankki": 4220,
      "ongel": 4221,
      "sori": 4222,
      " halunnut": 4223,
      "Mä": 4224,
      "Syyttä": 4225,
      " super": 4226,
      "yne": 4227,
      " olet": 4228,
      " varsina": 4229,
      "kilä": 4230,
      " luov": 4231,
      " urheilu": 4232,
      " tilanteesta": 4233,
      " verrattuna": 4234,
      "-t": 4235,
      " res": 4236,
      "kkoa": 4237,
      " lähtee": 4238,
      " yönä": 4239,
      "fina": 4240,
      "muna": 4241,
      "ilin": 4242,
      "rian": 4243,
      "ukselle": 4244,
      "unnitel": 4245,
      " maailmancup": 4246,
      " Helen": 4247,
      "anneet": 4248,
      " pelastusla": 4249,
      " ilme": 4250,
      "dät": 4251,
      " kolmas": 4252,
      "urinko": 4253,
      "sto": 4254,
      "tala": 4255,
      "sal": 4256,
      "vahti": 4257,
      " Mos": 4258,
      "ointi": 4259,
      " heitä": 4260,
      "Sil": 4261,
      "joen": 4262,
      " Tu": 4263,
      "mäen": 4264,
      "upaa": 4265,
      " tiede": 4266,
      " mahdollisesti": 4267,
      " huippu": 4268,
      "Siellä": 4269,
      "Hal": 4270,
      "elan": 4271,
      " yhdys": 4272,
      " kaun": 4273,
      "järven": 4274,
      " pyörä": 4275,
      " kauppa": 4276,
      "Kul": 4277,
      "vinen": 4278,
      "iselta": 4279,
      "uosi": 4280,
      "ilen": 4281,
      "miset": 4282,
      " Iran": 4283,
      "innä": 4284,
      "-luvulla": 4285,
      "jiä": 4286,
      " Her": 4287,
      " Itali": 4288,
      " pelkä": 4289,
      "udet": 4290,
      " kaikille": 4291,
      "31": 4292,
      "llyn": 4293,
      " luu": 4294,
      " Sve": 4295,
      " nouse": 4296,
      "Siitä": 4297,
      "estäni": 4298,
      "valtu": 4299,
      " kasvan": 4300,
      " maalia": 4301,
      " syntyi": 4302,
      "pall": 4303,
      " toki": 4304,
      " keskellä": 4305,
      " inf": 4306,
      "Presidentti": 4307,
      "dp": 4308,
      "dun": 4309,
      "iskanen": 4310,
      " puke": 4311,
      " tahansa": 4312,
      " kuuden": 4313,
      " armei": 4314,
      " Ca": 4315,
      " mennyt": 4316,
      " pohjo": 4317,
      " erilaisia": 4318,
      "Asiasta": 4319,
      "-ra": 4320,
      "net": 4321,
      "kausi": 4322,
      "jansa": 4323,
      " Rä": 4324,
      " ennakko": 4325,
      "Muut": 4326,
      "Ver": 4327,
      "nasta": 4328,
      "kasti": 4329,
      "tiä": 4330,
      "-kisoissa": 4331,
      "vil": 4332,
      " kauh": 4333,
      "mpö": 4334,
      " minua": 4335,
      " Willia": 4336,
      "ystävä": 4337,
      " monet": 4338,
      "Elä": 4339,
      "FK": 4340,
      "tos": 4341,
      " Kana": 4342,
      " vuokra": 4343,
      "jänä": 4344,
      " sydän": 4345,
      " huomauttaa": 4346,
      "dassa": 4347,
      " musta": 4348,
      " Af": 4349,
      " kulttuuri": 4350,
      "ressi": 4351,
      "Asia": 4352,
      "tteri": 4353,
      " tunnin": 4354,
      " or": 4355,
      " iski": 4356,
      " sellaista": 4357,
      " Instagramissa": 4358,
      " luonnon": 4359,
      "ös": 4360,
      " itsenä": 4361,
      "Uuden": 4362,
      "ent": 4363,
      "onta": 4364,
      " joutuu": 4365,
      " sille": 4366,
      "eellä": 4367,
      " raha": 4368,
      "peä": 4369,
      " median": 4370,
      " myr": 4371,
      "iem": 4372,
      " mita": 4373,
      "llisena": 4374,
      "mmaksi": 4375,
      " meille": 4376,
      "FP": 4377,
      "ak": 4378,
      " pes": 4379,
      " suom": 4380,
      " sijoit": 4381,
      " vuosia": 4382,
      " toisella": 4383,
      "uivat": 4384,
      "maatt": 4385,
      " naura": 4386,
      " minulla": 4387,
      "yttävä": 4388,
      "Pi": 4389,
      "tse": 4390,
      " Ky": 4391,
      " liikaa": 4392,
      "ester": 4393,
      " eläin": 4394,
      "utuminen": 4395,
      " henkilökohta": 4396,
      "Moni": 4397,
      " kumppan": 4398,
      " yksittä": 4399,
      " lisään": 4400,
      "terve": 4401,
      " osallistui": 4402,
      "Tor": 4403,
      "teista": 4404,
      "mmo": 4405,
      " julkaise": 4406,
      " yritti": 4407,
      "300": 4408,
      "Aina": 4409,
      " ajaa": 4410,
      " Vladimir": 4411,
      " Aal": 4412,
      "ttöm": 4413,
      " vuodessa": 4414,
      " helposti": 4415,
      " &": 4416,
      " kel": 4417,
      " televisi": 4418,
      "alti": 4419,
      "välin": 4420,
      " viik": 4421,
      " onnistui": 4422,
      " kuljetta": 4423,
      " fan": 4424,
      " lapsia": 4425,
      " pienen": 4426,
      " puolueen": 4427,
      " Andersson": 4428,
      "Or": 4429,
      "ittä": 4430,
      "ub": 4431,
      "yneen": 4432,
      " kasvoi": 4433,
      "teria": 4434,
      " väkivalta": 4435,
      "Uusi": 4436,
      "mpa": 4437,
      "uin": 4438,
      "etyn": 4439,
      " rinta": 4440,
      " olin": 4441,
      " hypp": 4442,
      " uskon": 4443,
      "innut": 4444,
      "ario": 4445,
      " vasemmisto": 4446,
      "DP": 4447,
      "kula": 4448,
      "maks": 4449,
      "yksellä": 4450,
      " pohtii": 4451,
      "rosen": 4452,
      "ksiin": 4453,
      " saisi": 4454,
      "dellä": 4455,
      " kysy": 4456,
      "iky": 4457,
      "ukkaa": 4458,
      " asukka": 4459,
      " Os": 4460,
      "voitto": 4461,
      " nousee": 4462,
      " uransa": 4463,
      "kuo": 4464,
      " ved": 4465,
      "jaksi": 4466,
      " valmenta": 4467,
      " varmaan": 4468,
      " vahvistaa": 4469,
      " viestipalvelu": 4470,
      "tista": 4471,
      "astui": 4472,
      "unnan": 4473,
      "tansa": 4474,
      " suomalaisten": 4475,
      " tanssi": 4476,
      " lapset": 4477,
      " pääkaupun": 4478,
      "Keski": 4479,
      "As": 4480,
      "taryh": 4481,
      "alueella": 4482,
      "Yli": 4483,
      " pikku": 4484,
      " olemassa": 4485,
      " kein": 4486,
      " virhe": 4487,
      " kuoleman": 4488,
      "llisimman": 4489,
      "Syy": 4490,
      "uoto": 4491,
      "orin": 4492,
      " seurauksena": 4493,
      " kaikkia": 4494,
      " torj": 4495,
      "kur": 4496,
      "oimaan": 4497,
      "ukon": 4498,
      " toiseksi": 4499,
      " rakka": 4500,
      " helpo": 4501,
      " näyttelijä": 4502,
      " säästö": 4503,
      " runko": 4504,
      "Ve": 4505,
      "tsi": 4506,
      " sor": 4507,
      " lista": 4508,
      "lia": 4509,
      " sal": 4510,
      " Kon": 4511,
      " republikaan": 4512,
      " voiton": 4513,
      " saaneet": 4514,
      " tuho": 4515,
      " helmikuussa": 4516,
      "75": 4517,
      "Pan": 4518,
      " Sil": 4519,
      " aloitta": 4520,
      " päähän": 4521,
      " kulutta": 4522,
      " kotima": 4523,
      " syksyllä": 4524,
      "uvosto": 4525,
      " Lapin": 4526,
      "ukä": 4527,
      " Jon": 4528,
      "dian": 4529,
      " pystyy": 4530,
      "400": 4531,
      "ttik": 4532,
      "käyn": 4533,
      " varha": 4534,
      " jättää": 4535,
      " missään": 4536,
      " tasolla": 4537,
      " istu": 4538,
      "mmassa": 4539,
      " Man": 4540,
      " Vä": 4541,
      " perustel": 4542,
      " turna": 4543,
      "Ulko": 4544,
      "ohjelman": 4545,
      " kansanedusta": 4546,
      " illa": 4547,
      " häl": 4548,
      "alaista": 4549,
      " asiantunti": 4550,
      " isän": 4551,
      " koulun": 4552,
      " Yhdysvalloissa": 4553,
      "Pe": 4554,
      "fes": 4555,
      "mist": 4556,
      "eng": 4557,
      " omat": 4558,
      " auki": 4559,
      "mpiin": 4560,
      " puolen": 4561,
      " mahdollisimman": 4562,
      " lämpötila": 4563,
      "ska": 4564,
      "yhdist": 4565,
      " pika": 4566,
      "viikon": 4567,
      " valmenn": 4568,
      " monen": 4569,
      "tiota": 4570,
      " aikoina": 4571,
      "ley": 4572,
      " juoks": 4573,
      " ukrain": 4574,
      "pään": 4575,
      "ännyt": 4576,
      "Onko": 4577,
      " ymmärtää": 4578,
      "ssin": 4579,
      "tille": 4580,
      "ilua": 4581,
      " Gu": 4582,
      " kruun": 4583,
      "-tili": 4584,
      "saa": 4585,
      "vaih": 4586,
      "unen": 4587,
      " jälj": 4588,
      "koihin": 4589,
      " sijaitsee": 4590,
      " vieras": 4591,
      " sotilas": 4592,
      "vaaleissa": 4593,
      "ikuuta": 4594,
      "isty": 4595,
      " sito": 4596,
      "joista": 4597,
      " lehd": 4598,
      " yllättä": 4599,
      " terveyden": 4600,
      " huolta": 4601,
      "Lin": 4602,
      "Toi": 4603,
      " ajone": 4604,
      " Timo": 4605,
      " palkka": 4606,
      " häir": 4607,
      "Hallitus": 4608,
      "isillä": 4609,
      " alas": 4610,
      "käyttö": 4611,
      "lliseksi": 4612,
      " parhaa": 4613,
      " alueelle": 4614,
      " kysymys": 4615,
      "Puh": 4616,
      "bor": 4617,
      "mmasta": 4618,
      " kävel": 4619,
      "upäi": 4620,
      "önen": 4621,
      " tiedon": 4622,
      " lopulla": 4623,
      " ottelu": 4624,
      " ongelmia": 4625,
      " parempi": 4626,
      " lääkär": 4627,
      " ystävä": 4628,
      "rakenn": 4629,
      "Olin": 4630,
      " tilaa": 4631,
      "tteeseen": 4632,
      " kuljettaja": 4633,
      " yhdysvalta": 4634,
      "eeseen": 4635,
      "sk": 4636,
      " loh": 4637,
      "tuvat": 4638,
      " tarke": 4639,
      " joulukuussa": 4640,
      " ampuma": 4641,
      "uska": 4642,
      "innassa": 4643,
      " tietysti": 4644,
      " harjoi": 4645,
      " opiskeli": 4646,
      " laajen": 4647,
      " nähnyt": 4648,
      " sisään": 4649,
      " tiedossa": 4650,
      "No": 4651,
      "atar": 4652,
      "eessa": 4653,
      "zb": 4654,
      "ukin": 4655,
      " saar": 4656,
      "eemu": 4657,
      "llisesta": 4658,
      "dalla": 4659,
      " Saksan": 4660,
      "elemaan": 4661,
      " rek": 4662,
      "henkilö": 4663,
      "-B": 4664,
      " ollen": 4665,
      " Anna": 4666,
      " saatiin": 4667,
      "valmenta": 4668,
      "istettiin": 4669,
      " karsin": 4670,
      "talon": 4671,
      " Orpon": 4672,
      "uoka": 4673,
      " jaka": 4674,
      " alun": 4675,
      " artik": 4676,
      " puolust": 4677,
      " suomalaiset": 4678,
      " täysi": 4679,
      " säännö": 4680,
      "ström": 4681,
      "NN": 4682,
      "otti": 4683,
      "kua": 4684,
      " Tuom": 4685,
      "omista": 4686,
      " aikaisemmin": 4687,
      " käsite": 4688,
      " dia": 4689,
      "fessori": 4690,
      "ler": 4691,
      "tapa": 4692,
      " Ah": 4693,
      "vaara": 4694,
      "tieteen": 4695,
      " Hel": 4696,
      "maansa": 4697,
      " viimeisen": 4698,
      " vahvasti": 4699,
      " palasi": 4700,
      " hovi": 4701,
      " vahvista": 4702,
      "vonen": 4703,
      "taso": 4704,
      " San": 4705,
      " työtä": 4706,
      "Nämä": 4707,
      " muutama": 4708,
      " kotona": 4709,
      "kes": 4710,
      " meri": 4711,
      " samaa": 4712,
      " syystä": 4713,
      "lässä": 4714,
      " hiihto": 4715,
      " rakenne": 4716,
      " presidenttiehdo": 4717,
      "Sel": 4718,
      "Siksi": 4719,
      "nes": 4720,
      "vyys": 4721,
      "ya": 4722,
      "tapahtu": 4723,
      " sytt": 4724,
      " vauri": 4725,
      "koon": 4726,
      " toiseen": 4727,
      " Ville": 4728,
      " Janne": 4729,
      "tonin": 4730,
      " löyty": 4731,
      " kuukausi": 4732,
      " ottanut": 4733,
      " ammattila": 4734,
      " tammikuussa": 4735,
      "Aiemmin": 4736,
      " pöy": 4737,
      "jojen": 4738,
      "veä": 4739,
      "minister": 4740,
      "ttomasti": 4741,
      " nykyään": 4742,
      "issut": 4743,
      "mö": 4744,
      " auttaa": 4745,
      " nopea": 4746,
      " rann": 4747,
      " Kur": 4748,
      " haas": 4749,
      " kuule": 4750,
      "uvon": 4751,
      "aleja": 4752,
      "kela": 4753,
      " yrittää": 4754,
      "Tuolloin": 4755,
      "vaalien": 4756,
      " ainoastaan": 4757,
      "65": 4758,
      " tyttä": 4759,
      "alaisten": 4760,
      " kana": 4761,
      " Stubbin": 4762,
      " ampu": 4763,
      "mmalla": 4764,
      "oksen": 4765,
      "ttil": 4766,
      "ksestä": 4767,
      "merkki": 4768,
      "ellaan": 4769,
      "itetään": 4770,
      " vanha": 4771,
      " hyödyn": 4772,
      "poliitt": 4773,
      "omaan": 4774,
      " muistelee": 4775,
      "mpana": 4776,
      " Kär": 4777,
      "alaiset": 4778,
      "ehden": 4779,
      "mmät": 4780,
      " yliopiston": 4781,
      " vaar": 4782,
      " tap": 4783,
      "uttava": 4784,
      "yhty": 4785,
      " edellis": 4786,
      " vettä": 4787,
      "34": 4788,
      " Pir": 4789,
      " Juha": 4790,
      "ood": 4791,
      "kilön": 4792,
      " suuren": 4793,
      "oikeuden": 4794,
      "puolu": 4795,
      "osassa": 4796,
      " riippu": 4797,
      " Iltalehden": 4798,
      "vuus": 4799,
      "öi": 4800,
      " sivi": 4801,
      "iaan": 4802,
      " ide": 4803,
      " työskenne": 4804,
      " käräjäoikeus": 4805,
      " mikään": 4806,
      "boo": 4807,
      "mil": 4808,
      "pist": 4809,
      "ähti": 4810,
      " osaval": 4811,
      " tutkimus": 4812,
      "sinais": 4813,
      " reag": 4814,
      " +": 4815,
      "pro": 4816,
      "istin": 4817,
      " Er": 4818,
      " syntynyt": 4819,
      " video": 4820,
      "dcast": 4821,
      "viranoma": 4822,
      " elämää": 4823,
      "sarjassa": 4824,
      " tarvitta": 4825,
      " Norjan": 4826,
      "hol": 4827,
      " nosti": 4828,
      " päätyi": 4829,
      " ansa": 4830,
      "Mole": 4831,
      "pitel": 4832,
      " kamer": 4833,
      "ähkön": 4834,
      " Jar": 4835,
      " iltapäivä": 4836,
      "Kansa": 4837,
      "etut": 4838,
      " kestä": 4839,
      " Nä": 4840,
      " siirtyi": 4841,
      "ttelemaan": 4842,
      " Joe": 4843,
      " kuukautta": 4844,
      " kriti": 4845,
      "desta": 4846,
      "sty": 4847,
      "rille": 4848,
      "para": 4849,
      " roh": 4850,
      " sovi": 4851,
      " antanut": 4852,
      " osoitta": 4853,
      " hetken": 4854,
      " ennätys": 4855,
      " huomattavasti": 4856,
      " eduskuntaryh": 4857,
      "Epä": 4858,
      " kovaa": 4859,
      "operaa": 4860,
      " voittaa": 4861,
      " joukossa": 4862,
      "Kolm": 4863,
      "isissä": 4864,
      "kais": 4865,
      " kaver": 4866,
      "dettiin": 4867,
      " AFP": 4868,
      " Ed": 4869,
      " esille": 4870,
      " käydä": 4871,
      "ologi": 4872,
      " kiinnosta": 4873,
      " arvos": 4874,
      "pite": 4875,
      " oll": 4876,
      " varmista": 4877,
      " And": 4878,
      " kunnan": 4879,
      " kansalais": 4880,
      "ustilais": 4881,
      " tähti": 4882,
      " tuhan": 4883,
      " huhtik": 4884,
      "Pohjois": 4885,
      "vall": 4886,
      "täjä": 4887,
      " sekunn": 4888,
      "imet": 4889,
      " ensimmäisenä": 4890,
      " etteivät": 4891,
      " muuten": 4892,
      " murh": 4893,
      "ryhmän": 4894,
      " tarvitaan": 4895,
      " Lat": 4896,
      "toimin": 4897,
      "töä": 4898,
      " kuningas": 4899,
      " Face": 4900,
      " numer": 4901,
      " elämään": 4902,
      " kasvaa": 4903,
      " aiheutti": 4904,
      "Lau": 4905,
      " Venäjälle": 4906,
      "Kesä": 4907,
      " kilpaili": 4908,
      " törkeästä": 4909,
      "les": 4910,
      " tra": 4911,
      " Koiv": 4912,
      " kuvia": 4913,
      "toim": 4914,
      " tunne": 4915,
      " puoliväli": 4916,
      " keskustelua": 4917,
      " Harris": 4918,
      " syyskuussa": 4919,
      " prinssi": 4920,
      "be": 4921,
      "hkä": 4922,
      " osin": 4923,
      "mpan": 4924,
      " kertoivat": 4925,
      "ministerin": 4926,
      " vaikutus": 4927,
      " uutistoimisto": 4928,
      "Ker": 4929,
      "Mat": 4930,
      "enin": 4931,
      " Ste": 4932,
      " viittaa": 4933,
      " oikeasti": 4934,
      "itettiin": 4935,
      " loma": 4936,
      "Vuoden": 4937,
      " tuomio": 4938,
      "pua": 4939,
      "ste": 4940,
      " oir": 4941,
      "utetta": 4942,
      "aliin": 4943,
      " lyö": 4944,
      " vall": 4945,
      " kuka": 4946,
      " Ti": 4947,
      "missi": 4948,
      " astetta": 4949,
      " päivit": 4950,
      " tietoja": 4951,
      " voittaja": 4952,
      "utuneet": 4953,
      "yväsky": 4954,
      "Mer": 4955,
      "kussa": 4956,
      "kosta": 4957,
      "hdi": 4958,
      "kumen": 4959,
      " raj": 4960,
      " näitä": 4961,
      " videon": 4962,
      " katsoi": 4963,
      " paljastaa": 4964,
      " demokraa": 4965,
      " näke": 4966,
      "omo": 4967,
      " Sami": 4968,
      " kunnia": 4969,
      " kokem": 4970,
      " löytää": 4971,
      " kritis": 4972,
      "Use": 4973,
      "bin": 4974,
      "nim": 4975,
      "uihin": 4976,
      " heh": 4977,
      " hinn": 4978,
      " haki": 4979,
      "vuoden": 4980,
      " bri": 4981,
      " seuran": 4982,
      " viikonlop": 4983,
      " marraskuussa": 4984,
      " kevään": 4985,
      " uus": 4986,
      "Ri": 4987,
      "sil": 4988,
      " sol": 4989,
      " joutunut": 4990,
      " nuore": 4991,
      "kirjoit": 4992,
      " rauhan": 4993,
      "lun": 4994,
      " tah": 4995,
      "teg": 4996,
      " kakkos": 4997,
      "kumppan": 4998,
      " valvon": 4999,
      "htia": 5000,
      " viimeinen": 5001,
      " nais": 5002,
      " osu": 5003,
      " kesäkuussa": 5004,
      " Ukrainaan": 5005,
      " myöntää": 5006,
      " molemmat": 5007,
      "isiko": 5008,
      "kille": 5009,
      " päättää": 5010,
      " lopetta": 5011,
      " alkoholi": 5012,
      "IFK": 5013,
      "illut": 5014,
      "kt": 5015,
      "kys": 5016,
      "kala": 5017,
      " hoita": 5018,
      "istuva": 5019,
      " samassa": 5020,
      "missä": 5021,
      "Vielä": 5022,
      "Joukku": 5023,
      " yrittä": 5024,
      "bert": 5025,
      " vaalit": 5026,
      "-i": 5027,
      "Itse": 5028,
      "Jul": 5029,
      " ali": 5030,
      " pakko": 5031,
      " yhtään": 5032,
      " puolet": 5033,
      " edustaja": 5034,
      " asiantuntija": 5035,
      " tuntui": 5036,
      " merkittävä": 5037,
      " eräs": 5038,
      "ttömästi": 5039,
      "käsi": 5040,
      " kuvaili": 5041,
      "huone": 5042,
      " toukokuussa": 5043,
      "Aika": 5044,
      "lik": 5045,
      " veto": 5046,
      " maajoukkue": 5047,
      " tunnet": 5048,
      "Ur": 5049,
      "uttavat": 5050,
      " laki": 5051,
      "estiin": 5052,
      "kkinen": 5053,
      " Flori": 5054,
      "Tästä": 5055,
      "johtajana": 5056,
      "ritannian": 5057,
      "32": 5058,
      "västi": 5059,
      " MTV": 5060,
      " hyviä": 5061,
      " suj": 5062,
      "ikseen": 5063,
      " pahoinpitel": 5064,
      " esitutkin": 5065,
      ":ssa": 5066,
      " komp": 5067,
      "ikassa": 5068,
      " paitsi": 5069,
      "seet": 5070,
      " Jukka": 5071,
      "joille": 5072,
      " oikea": 5073,
      " hyväksi": 5074,
      " talon": 5075,
      " katsoa": 5076,
      "Salon": 5077,
      " kiinteistö": 5078,
      " kuninkaa": 5079,
      "reiden": 5080,
      "tikuussa": 5081,
      "za": 5082,
      " jun": 5083,
      " my": 5084,
      "ilo": 5085,
      " johd": 5086,
      " toimen": 5087,
      " mieleen": 5088,
      " ainakaan": 5089,
      " ilmasto": 5090,
      " havai": 5091,
      " prinsessa": 5092,
      " opposi": 5093,
      " Tap": 5094,
      " lait": 5095,
      " rajoit": 5096,
      "ilainen": 5097,
      " korvaa": 5098,
      " ilmoitta": 5099,
      " Kaar": 5100,
      " kärki": 5101,
      "ettänyt": 5102,
      " ikkun": 5103,
      " törmä": 5104,
      " lokakuussa": 5105,
      "Jää": 5106,
      "tettä": 5107,
      " hänestä": 5108,
      " aikata": 5109,
      "istiin": 5110,
      " mietti": 5111,
      "sani": 5112,
      "33": 5113,
      "Uut": 5114,
      "uneet": 5115,
      "teisiin": 5116,
      " sieltä": 5117,
      " lakko": 5118,
      " laittaa": 5119,
      " esittää": 5120,
      "mpiä": 5121,
      " näkökul": 5122,
      "Hel": 5123,
      "JK": 5124,
      " neli": 5125,
      "kinä": 5126,
      "estaru": 5127,
      "kkanen": 5128,
      " heik": 5129,
      "rity": 5130,
      " päivi": 5131,
      "ellään": 5132,
      " tunnel": 5133,
      "yhtiön": 5134,
      " sulje": 5135,
      "-ko": 5136,
      "Elo": 5137,
      "Kr": 5138,
      "gg": 5139,
      "isan": 5140,
      "intoja": 5141,
      " tosin": 5142,
      "ety": 5143,
      " aurinko": 5144,
      " tavoin": 5145,
      "mmän": 5146,
      " vien": 5147,
      " maini": 5148,
      " asteen": 5149,
      " hyväksy": 5150,
      "ius": 5151,
      "ttoi": 5152,
      "unto": 5153,
      " vauh": 5154,
      " maasto": 5155,
      "ärä": 5156,
      "valtaa": 5157,
      "196": 5158,
      " keskus": 5159,
      " veden": 5160,
      "Minulla": 5161,
      " vaihtoehto": 5162,
      " kierroksella": 5163,
      "zbolla": 5164,
      "Kiin": 5165,
      "ija": 5166,
      "muu": 5167,
      "ror": 5168,
      " aje": 5169,
      "ukot": 5170,
      " viid": 5171,
      " Ter": 5172,
      " Fin": 5173,
      " Mad": 5174,
      " helppo": 5175,
      " yllätys": 5176,
      " sähköp": 5177,
      "varain": 5178,
      "isö": 5179,
      "ikuun": 5180,
      "ulut": 5181,
      "teki": 5182,
      " muistaa": 5183,
      "oitiin": 5184,
      " kehitys": 5185,
      " lopput": 5186,
      " vaikeaa": 5187,
      " rauha": 5188,
      " Ukrainalle": 5189,
      " käynnissä": 5190,
      " hallinto": 5191,
      " ele": 5192,
      "-Suomessa": 5193,
      "36": 5194,
      "rem": 5195,
      " olosuh": 5196,
      "ham": 5197,
      " fyys": 5198,
      " asiakas": 5199,
      " tuomittiin": 5200,
      " York": 5201,
      " vin": 5202,
      "mmissa": 5203,
      " hah": 5204,
      " käytetty": 5205,
      " järjest": 5206,
      " kunni": 5207,
      " järjestetään": 5208,
      "fan": 5209,
      "ltaan": 5210,
      "udella": 5211,
      "hdet": 5212,
      "paikkaa": 5213,
      " rajan": 5214,
      "land": 5215,
      " välit": 5216,
      " yhdist": 5217,
      "Da": 5218,
      "Harr": 5219,
      "Ven": 5220,
      "veli": 5221,
      "ostaan": 5222,
      " voita": 5223,
      " olo": 5224,
      "vinä": 5225,
      " tunnetaan": 5226,
      " videolla": 5227,
      " matk": 5228,
      " tarjolla": 5229,
      " maaliskuussa": 5230,
      " Pariisin": 5231,
      " tuotanto": 5232,
      "ersin": 5233,
      " saun": 5234,
      "pallo": 5235,
      " Mari": 5236,
      " YK": 5237,
      " henkilöä": 5238,
      " merkittävästi": 5239,
      " illan": 5240,
      " ölj": 5241,
      "peri": 5242,
      "isyyd": 5243,
      " jänn": 5244,
      " saapu": 5245,
      " ministeri": 5246,
      " eduskunnan": 5247,
      " ravintola": 5248,
      "Nel": 5249,
      "kisen": 5250,
      " of": 5251,
      " lih": 5252,
      "ysten": 5253,
      " Bu": 5254,
      "taneen": 5255,
      " maata": 5256,
      "koski": 5257,
      "paikalla": 5258,
      " Faceboo": 5259,
      "-h": 5260,
      " joko": 5261,
      "villä": 5262,
      "uhan": 5263,
      " Ben": 5264,
      "ustr": 5265,
      "kyky": 5266,
      " nautti": 5267,
      " Lauri": 5268,
      " entisen": 5269,
      " elokuva": 5270,
      "Nainen": 5271,
      " mukaisesti": 5272,
      "turna": 5273,
      " sairaalaan": 5274,
      " lähtenyt": 5275,
      "by": 5276,
      "put": 5277,
      " sekun": 5278,
      " some": 5279,
      "Tilanne": 5280,
      " Kiinan": 5281,
      "Itä": 5282,
      "kaut": 5283,
      " lupaa": 5284,
      "oilta": 5285,
      "kselle": 5286,
      " Kansa": 5287,
      " asioista": 5288,
      "dossa": 5289,
      "piste": 5290,
      "tisti": 5291,
      " avi": 5292,
      " Tä": 5293,
      "käynn": 5294,
      " lata": 5295,
      "miselle": 5296,
      "mistaan": 5297,
      " tulipal": 5298,
      " ulkopuol": 5299,
      " elokuussa": 5300,
      "ohjelmassa": 5301,
      "37": 5302,
      "Erity": 5303,
      " pen": 5304,
      "mpu": 5305,
      " räjä": 5306,
      " korostaa": 5307,
      " toiminnan": 5308,
      " selvittää": 5309,
      "opimuksen": 5310,
      "inne": 5311,
      " avio": 5312,
      "ynnä": 5313,
      " ennuste": 5314,
      " suomalaisen": 5315,
      "ganisaa": 5316,
      " vihre": 5317,
      " perussuomalaisten": 5318,
      "Miten": 5319,
      "Meidän": 5320,
      "yrkke": 5321,
      " sopimus": 5322,
      "rinen": 5323,
      "ws": 5324,
      " amerikka": 5325,
      " yhtenä": 5326,
      " Matti": 5327,
      " hetki": 5328,
      "kirja": 5329,
      " Haavisto": 5330,
      " ann": 5331,
      "Hi": 5332,
      "hään": 5333,
      "eltaan": 5334,
      "ikkojen": 5335,
      " hengen": 5336,
      " anal": 5337,
      " inves": 5338,
      " pidetään": 5339,
      " uran": 5340,
      "Putin": 5341,
      " naim": 5342,
      "stit": 5343,
      " venäläis": 5344,
      " sanonut": 5345,
      "bla": 5346,
      "jiin": 5347,
      "ang": 5348,
      " kuol": 5349,
      " väärin": 5350,
      " paino": 5351,
      " tiedotti": 5352,
      "puheen": 5353,
      " viestintä": 5354,
      " este": 5355,
      "tul": 5356,
      "itään": 5357,
      " muuttaa": 5358,
      " muutti": 5359,
      "jöitä": 5360,
      " sosiaali": 5361,
      "puolelle": 5362,
      "kertainen": 5363,
      "uvoston": 5364,
      "ksessä": 5365,
      "lain": 5366,
      " Länsi": 5367,
      "rella": 5368,
      " selvää": 5369,
      "anneksi": 5370,
      " epäonn": 5371,
      "Ky": 5372,
      "Suu": 5373,
      "Vasta": 5374,
      "huol": 5375,
      " ju": 5376,
      " väär": 5377,
      "paus": 5378,
      "oaan": 5379,
      "ikkiä": 5380,
      " Geor": 5381,
      " veren": 5382,
      " Marin": 5383,
      " kunnes": 5384,
      " virh": 5385,
      " toivoo": 5386,
      "bur": 5387,
      "jaks": 5388,
      " samm": 5389,
      " Mic": 5390,
      " voimaan": 5391,
      " perään": 5392,
      " huone": 5393,
      " heng": 5394,
      " remon": 5395,
      "sarja": 5396,
      " katsoo": 5397,
      " tuul": 5398,
      " ammatti": 5399,
      " julkisuudessa": 5400,
      "-,": 5401,
      "Ehkä": 5402,
      "Tun": 5403,
      "sista": 5404,
      " Halla": 5405,
      " ehtin": 5406,
      " törke": 5407,
      " vakavasti": 5408,
      "Perus": 5409,
      "bu": 5410,
      "eta": 5411,
      " Vor": 5412,
      " poissa": 5413,
      "ussaan": 5414,
      "iaamuna": 5415,
      " tait": 5416,
      " nuoren": 5417,
      " tarjoa": 5418,
      "estyksen": 5419,
      " tavoitteena": 5420,
      " yhtiön": 5421,
      " nimenomaan": 5422,
      "San": 5423,
      "Sar": 5424,
      " häiriö": 5425,
      "rat": 5426,
      "uho": 5427,
      " Ni": 5428,
      " Be": 5429,
      " puhua": 5430,
      " kulu": 5431,
      " mielessä": 5432,
      " kuolleen": 5433,
      " tytär": 5434,
      " parhaan": 5435,
      "bergin": 5436,
      " odotetaan": 5437,
      "kauppa": 5438,
      " muutoksia": 5439,
      "kierro": 5440,
      "aut": 5441,
      "enni": 5442,
      "maiden": 5443,
      "llisuutta": 5444,
      "rangaist": 5445,
      " lopu": 5446,
      " tekevät": 5447,
      "Yrit": 5448,
      "vik": 5449,
      "isuuteen": 5450,
      " kertoa": 5451,
      " työmarkkin": 5452,
      " kulta": 5453,
      " sydä": 5454,
      " tutus": 5455,
      " Helsinki": 5456,
      " taakse": 5457,
      " kuk": 5458,
      "ohja": 5459,
      " ulkopuolella": 5460,
      " Zelensky": 5461,
      " lainkaan": 5462,
      "tiksi": 5463,
      "vun": 5464,
      " rei": 5465,
      " materia": 5466,
      " alkanut": 5467,
      "ttelyn": 5468,
      "töjä": 5469,
      "media": 5470,
      " levi": 5471,
      "uksilla": 5472,
      " heille": 5473,
      " siirto": 5474,
      " yrityksen": 5475,
      "yksiin": 5476,
      " näytteli": 5477,
      "Perjanta": 5478,
      " John": 5479,
      "Katso": 5480,
      "ukäteen": 5481,
      " otettu": 5482,
      "äneen": 5483,
      " hom": 5484,
      "mälä": 5485,
      " Oulussa": 5486,
      " heistä": 5487,
      " kauan": 5488,
      " alkuperä": 5489,
      " täyde": 5490,
      "rei": 5491,
      "oton": 5492,
      "tteluun": 5493,
      " Bor": 5494,
      " vastu": 5495,
      "itettu": 5496,
      " konf": 5497,
      " aamulla": 5498,
      " tiedustel": 5499,
      "oilija": 5500,
      " vaimonsa": 5501,
      "Euroopan": 5502,
      " William": 5503,
      "38": 5504,
      "empää": 5505,
      "usen": 5506,
      "vinnyt": 5507,
      "Kaupun": 5508,
      " harjoitus": 5509,
      " keskuste": 5510,
      "kuljet": 5511,
      " talouden": 5512,
      " kaikista": 5513,
      " jaksossa": 5514,
      "pyörä": 5515,
      "Luo": 5516,
      "kistä": 5517,
      " alta": 5518,
      " sotila": 5519,
      " selvisi": 5520,
      " syyllist": 5521,
      " ratkaise": 5522,
      "Rovan": 5523,
      "55": 5524,
      "hl": 5525,
      "pun": 5526,
      "aseen": 5527,
      " käs": 5528,
      "llisessa": 5529,
      " esitys": 5530,
      "kene": 5531,
      " poliit": 5532,
      "igan": 5533,
      " kisan": 5534,
      " pyytää": 5535,
      " varsinkin": 5536,
      "ci": 5537,
      "dissa": 5538,
      "ny": 5539,
      " johti": 5540,
      " kadon": 5541,
      "vällä": 5542,
      "mpään": 5543,
      " Kuo": 5544,
      " Mal": 5545,
      " toisessa": 5546,
      " kirj": 5547,
      "Tätä": 5548,
      "kast": 5549,
      " bi": 5550,
      " epäilee": 5551,
      " merkittä": 5552,
      " kriitt": 5553,
      "säädän": 5554,
      " uima": 5555,
      " Keski": 5556,
      " Tik": 5557,
      "hallin": 5558,
      " Gran": 5559,
      " bud": 5560,
      " operaa": 5561,
      "Koti": 5562,
      " rakennus": 5563,
      " dollaria": 5564,
      " kato": 5565,
      "paik": 5566,
      " Vuo": 5567,
      "helle": 5568,
      " kiire": 5569,
      " sellaisia": 5570,
      "ejä": 5571,
      "pes": 5572,
      "yle": 5573,
      "teesta": 5574,
      " palo": 5575,
      " äänestys": 5576,
      "Toisaalta": 5577,
      "uomio": 5578,
      " liittyen": 5579,
      " uni": 5580,
      " Gazan": 5581,
      " omia": 5582,
      "ash": 5583,
      "uudella": 5584,
      "hdista": 5585,
      " Mann": 5586,
      " Tar": 5587,
      " Hy": 5588,
      " arvon": 5589,
      "ikansa": 5590,
      "Ruotsin": 5591,
      " hiljattain": 5592,
      "-m": 5593,
      "ima": 5594,
      "ivan": 5595,
      "sikko": 5596,
      " ilmen": 5597,
      " poliisille": 5598,
      " vang": 5599,
      " kannata": 5600,
      "kkejä": 5601,
      " kiinnost": 5602,
      " sopimuksen": 5603,
      "ryhmä": 5604,
      " huhtikuussa": 5605,
      " myynti": 5606,
      "Israelin": 5607,
      "Prin": 5608,
      "muksesta": 5609,
      " ohe": 5610,
      "ashing": 5611,
      "isivät": 5612,
      "ksessa": 5613,
      "kone": 5614,
      " tiiv": 5615,
      " niihin": 5616,
      " hävisi": 5617,
      " toimintaan": 5618,
      "Joka": 5619,
      " nähden": 5620,
      " ehdokka": 5621,
      " löysi": 5622,
      " heinäkuussa": 5623,
      " iltapäivällä": 5624,
      "Emme": 5625,
      "mite": 5626,
      "isar": 5627,
      "ttin": 5628,
      "vään": 5629,
      " Syy": 5630,
      " roma": 5631,
      " Jor": 5632,
      " yhteyttä": 5633,
      " tutkinnan": 5634,
      ".-": 5635,
      "EU": 5636,
      "Myö": 5637,
      "isit": 5638,
      "mpär": 5639,
      " maiden": 5640,
      "Hänellä": 5641,
      " vahva": 5642,
      " hid": 5643,
      " suosikki": 5644,
      " rool": 5645,
      "-vuotiaiden": 5646,
      "lympia": 5647,
      " kuuluvat": 5648,
      " loukkaantui": 5649,
      " kampanja": 5650,
      " löytynyt": 5651,
      " kokoomuksen": 5652,
      "-Ma": 5653,
      "Etelä": 5654,
      "hön": 5655,
      "mys": 5656,
      "ow": 5657,
      "öyr": 5658,
      " mah": 5659,
      " lähinnä": 5660,
      " tuolla": 5661,
      " keskust": 5662,
      " juhl": 5663,
      " pelkästään": 5664,
      "dään": 5665,
      "llissa": 5666,
      "onnut": 5667,
      " vaaleissa": 5668,
      " tapaan": 5669,
      " Lapp": 5670,
      "urovi": 5671,
      " jalka": 5672,
      "Iltalehden": 5673,
      " kiekko": 5674,
      " nimittäin": 5675,
      "47": 5676,
      "Ihan": 5677,
      "ikaan": 5678,
      "yttelijä": 5679,
      "kalta": 5680,
      "kojen": 5681,
      " asiaan": 5682,
      " kilpailun": 5683,
      " ratkaisu": 5684,
      "Israel": 5685,
      " Niinistö": 5686,
      "tisen": 5687,
      "eni": 5688,
      " tuskin": 5689,
      "äneensä": 5690,
      "utetaan": 5691,
      "taalla": 5692,
      " Mur": 5693,
      " valtu": 5694,
      " henkilön": 5695,
      " kaikkiaan": 5696,
      " juoksi": 5697,
      " onnistunut": 5698,
      " parhaillaan": 5699,
      " sotilaa": 5700,
      "-Pohjan": 5701,
      " Ä": 5702,
      "39": 5703,
      "enna": 5704,
      "oika": 5705,
      "aakko": 5706,
      " Ker": 5707,
      " kii": 5708,
      " osan": 5709,
      " Yhdysvallat": 5710,
      " Ruotsissa": 5711,
      " haavoi": 5712,
      " tyytyväinen": 5713,
      "Ede": 5714,
      "teri": 5715,
      " voittoa": 5716,
      "vellä": 5717,
      " Fran": 5718,
      " etukäteen": 5719,
      " katsom": 5720,
      " suunta": 5721,
      " tiedottaa": 5722,
      " Tampereen": 5723,
      " Q": 5724,
      "dulla": 5725,
      "pelin": 5726,
      "ttop": 5727,
      " ton": 5728,
      "kalla": 5729,
      "alit": 5730,
      "tiellä": 5731,
      " nukku": 5732,
      "istuksen": 5733,
      " Hu": 5734,
      "meren": 5735,
      " isänsä": 5736,
      "sonin": 5737,
      " edell": 5738,
      " tarvitsee": 5739,
      " ryhmä": 5740,
      " tyypi": 5741,
      " star": 5742,
      " varo": 5743,
      "joukko": 5744,
      " näki": 5745,
      " kapteen": 5746,
      "Lu": 5747,
      " olle": 5748,
      " hää": 5749,
      "tiossa": 5750,
      "maali": 5751,
      " pitkin": 5752,
      " käytetään": 5753,
      " terv": 5754,
      " moti": 5755,
      " selviää": 5756,
      " raska": 5757,
      " julkisuuteen": 5758,
      " liiga": 5759,
      " jalkapall": 5760,
      "Lopulta": 5761,
      "Venälä": 5762,
      " kalta": 5763,
      " Suomesta": 5764,
      "uutensa": 5765,
      " vero": 5766,
      "utumaan": 5767,
      "utumista": 5768,
      " etene": 5769,
      " itsestään": 5770,
      " myönsi": 5771,
      "glannin": 5772,
      "Car": 5773,
      "ston": 5774,
      "ttäneet": 5775,
      " mää": 5776,
      "etys": 5777,
      " kunta": 5778,
      "erässä": 5779,
      "määrin": 5780,
      " valittiin": 5781,
      " vaihtoeh": 5782,
      " asunto": 5783,
      " minuutin": 5784,
      "öitä": 5785,
      " siten": 5786,
      " sade": 5787,
      "paino": 5788,
      " Lon": 5789,
      " valio": 5790,
      " suru": 5791,
      " finaali": 5792,
      "con": 5793,
      "hr": 5794,
      " tavan": 5795,
      " kokenut": 5796,
      "västä": 5797,
      " Nur": 5798,
      "kkit": 5799,
      "kkonen": 5800,
      " vaikutti": 5801,
      " loukkaantu": 5802,
      " [": 5803,
      "sd": 5804,
      "tre": 5805,
      " soitti": 5806,
      " Teemu": 5807,
      " toisin": 5808,
      "oinut": 5809,
      " kulke": 5810,
      " suuria": 5811,
      "allin": 5812,
      " jossain": 5813,
      " pystynyt": 5814,
      " jäädä": 5815,
      " julkaistu": 5816,
      "tilanne": 5817,
      "-aho": 5818,
      "150": 5819,
      " Valko": 5820,
      "hyökkä": 5821,
      " jääkiekko": 5822,
      " vauhd": 5823,
      " Mosko": 5824,
      " kasvanut": 5825,
      "Sunnunta": 5826,
      "Yh": 5827,
      "muutta": 5828,
      "she": 5829,
      "elän": 5830,
      "urn": 5831,
      "ohj": 5832,
      " haluavat": 5833,
      "Koska": 5834,
      " sekuntia": 5835,
      "Nuor": 5836,
      "eissa": 5837,
      " omaan": 5838,
      " puto": 5839,
      "kata": 5840,
      "etsä": 5841,
      " kalli": 5842,
      "alaisia": 5843,
      " Ranta": 5844,
      " kans": 5845,
      " pelata": 5846,
      "log": 5847,
      " ylivoima": 5848,
      " keskitty": 5849,
      " hyökkää": 5850,
      "ttömän": 5851,
      "95": 5852,
      "Ale": 5853,
      "poon": 5854,
      "vaihto": 5855,
      "ulju": 5856,
      " ru": 5857,
      " kestää": 5858,
      " tarkka": 5859,
      " erin": 5860,
      " puhui": 5861,
      "innin": 5862,
      "kkien": 5863,
      " väliin": 5864,
      " elo": 5865,
      " kirjoitta": 5866,
      " riski": 5867,
      "suojel": 5868,
      " puhelim": 5869,
      "atherin": 5870,
      "Tän": 5871,
      "Tänä": 5872,
      " mun": 5873,
      " Jari": 5874,
      " eroa": 5875,
      " Cup": 5876,
      " mikäli": 5877,
      " talvi": 5878,
      " aikojen": 5879,
      " keskustan": 5880,
      "Haa": 5881,
      "SS": 5882,
      "hel": 5883,
      " omasta": 5884,
      " vied": 5885,
      " Kall": 5886,
      " Ny": 5887,
      "yksistä": 5888,
      "Käräjäoike": 5889,
      "44": 5890,
      "Tähän": 5891,
      "asu": 5892,
      " joudu": 5893,
      " Kam": 5894,
      "vuoro": 5895,
      "udulla": 5896,
      " Dani": 5897,
      " kehit": 5898,
      " kehittä": 5899,
      " huija": 5900,
      " matkan": 5901,
      " käynnist": 5902,
      " puhutaan": 5903,
      " luonno": 5904,
      " puolelle": 5905,
      " kierroksen": 5906,
      " iä": 5907,
      " ket": 5908,
      "tiop": 5909,
      "uuhka": 5910,
      " riste": 5911,
      " Paa": 5912,
      " Di": 5913,
      " selv": 5914,
      " aiempaa": 5915,
      " Euroopassa": 5916,
      "kaudella": 5917,
      "yo": 5918,
      " järke": 5919,
      "vala": 5920,
      " koki": 5921,
      " parissa": 5922,
      " turha": 5923,
      " kuor": 5924,
      " ääni": 5925,
      "immillaan": 5926,
      " tyr": 5927,
      " tapp": 5928,
      " Pat": 5929,
      " touko": 5930,
      " täyden": 5931,
      " tilanteeseen": 5932,
      " yleisurhe": 5933,
      " verkkosiv": 5934,
      "pul": 5935,
      "snä": 5936,
      " soi": 5937,
      " katu": 5938,
      " kiusa": 5939,
      " osuus": 5940,
      " kansallis": 5941,
      " huolissaan": 5942,
      " vuodelta": 5943,
      " miehet": 5944,
      "Pelastusla": 5945,
      "Monet": 5946,
      " sijoittui": 5947,
      " Reuters": 5948,
      " illalla": 5949,
      "kila": 5950,
      "lund": 5951,
      "karin": 5952,
      "usk": 5953,
      " rinna": 5954,
      " rakas": 5955,
      " välittömästi": 5956,
      " pyysi": 5957,
      "Biden": 5958,
      "hat": 5959,
      " Sanna": 5960,
      " laul": 5961,
      "Toki": 5962,
      " Paimi": 5963,
      " pitkäaika": 5964,
      " erikois": 5965,
      " joukkoon": 5966,
      "py": 5967,
      "teo": 5968,
      "ustan": 5969,
      "ikoksesta": 5970,
      " puhuu": 5971,
      " aio": 5972,
      " Laine": 5973,
      " petty": 5974,
      " liigan": 5975,
      " viranomaiset": 5976,
      " jutussa": 5977,
      "Auto": 5978,
      "ottelussa": 5979,
      "syy": 5980,
      " totta": 5981,
      "iksen": 5982,
      "ttivat": 5983,
      " henkir": 5984,
      " epäillyn": 5985,
      " mielenkiin": 5986,
      " vankeus": 5987,
      "mmaa": 5988,
      "ttilä": 5989,
      "alaa": 5990,
      "osan": 5991,
      "joa": 5992,
      " täytt": 5993,
      "uille": 5994,
      "ome": 5995,
      " naur": 5996,
      "idassa": 5997,
      "tyneen": 5998,
      " dokumen": 5999,
      " vapaaehto": 6000,
      " energia": 6001,
      "glan": 6002,
      "ass": 6003,
      " vamm": 6004,
      " CNN": 6005,
      "joilla": 6006,
      " lämm": 6007,
      " edellisen": 6008,
      " siirre": 6009,
      " Liban": 6010,
      "pelaaja": 6011,
      "Oikeus": 6012,
      "ek": 6013,
      "jul": 6014,
      "lliin": 6015,
      "tilo": 6016,
      " Sir": 6017,
      " muutta": 6018,
      " aluksi": 6019,
      " olevat": 6020,
      " voim": 6021,
      "seja": 6022,
      " BBC": 6023,
      " jälki": 6024,
      " tietä": 6025,
      "Tapahtu": 6026,
      " etsin": 6027,
      " saattavat": 6028,
      " ajatus": 6029,
      "perin": 6030,
      "vis": 6031,
      "utusta": 6032,
      "ets": 6033,
      "teja": 6034,
      " saksa": 6035,
      " Ranskan": 6036,
      " suojel": 6037,
      " tietenkin": 6038,
      " osoittaa": 6039,
      "jek": 6040,
      "-Stubb": 6041,
      " väitti": 6042,
      " paljasti": 6043,
      " yliopisto": 6044,
      " joulukuuta": 6045,
      "48": 6046,
      "Nuo": 6047,
      "th": 6048,
      "vuutta": 6049,
      "iskel": 6050,
      " jakoi": 6051,
      " aih": 6052,
      " risti": 6053,
      " Jal": 6054,
      "uksessaan": 6055,
      "Saksa": 6056,
      " epävar": 6057,
      " elää": 6058,
      "nnes": 6059,
      " pysäh": 6060,
      " käräjäoikeudessa": 6061,
      " tuomitsi": 6062,
      " w": 6063,
      "Pien": 6064,
      " joihin": 6065,
      " sprin": 6066,
      " Bra": 6067,
      " tarina": 6068,
      " Olli": 6069,
      "Kaik": 6070,
      "päivää": 6071,
      " elämässä": 6072,
      " hämmä": 6073,
      " tarkoit": 6074,
      "ustrali": 6075,
      "qvist": 6076,
      " omalla": 6077,
      "uth": 6078,
      "uneen": 6079,
      " liha": 6080,
      "ostu": 6081,
      " Spor": 6082,
      " kuun": 6083,
      "misario": 6084,
      "ikkaus": 6085,
      "ikohta": 6086,
      "mmäisen": 6087,
      " maaliin": 6088,
      " ylös": 6089,
      " ranga": 6090,
      " tulevaisuudessa": 6091,
      " lauantain": 6092,
      "Joh": 6093,
      "ner": 6094,
      "puoli": 6095,
      "öt": 6096,
      "ttynyt": 6097,
      "alist": 6098,
      " vallan": 6099,
      " My": 6100,
      " jokainen": 6101,
      " syr": 6102,
      " eivätkä": 6103,
      " hämmen": 6104,
      " edellä": 6105,
      " uhrin": 6106,
      " kannatus": 6107,
      " suurta": 6108,
      " liittyvät": 6109,
      " lentoken": 6110,
      " oppila": 6111,
      " Chr": 6112,
      " luvassa": 6113,
      "-ikä": 6114,
      "intaan": 6115,
      "utuksen": 6116,
      " sta": 6117,
      " Hann": 6118,
      "Hänet": 6119,
      " ohje": 6120,
      " ajate": 6121,
      "estejä": 6122,
      "Kuvassa": 6123,
      " sisältä": 6124,
      "lleni": 6125,
      " matkalla": 6126,
      " unoh": 6127,
      " sanotaan": 6128,
      " vieraili": 6129,
      " Hizbolla": 6130,
      "gon": 6131,
      "yri": 6132,
      "enkään": 6133,
      " etä": 6134,
      "vid": 6135,
      " toisia": 6136,
      " sanot": 6137,
      " parasta": 6138,
      " tilasto": 6139,
      " muuttu": 6140,
      " huolto": 6141,
      " Harrisin": 6142,
      " tällainen": 6143,
      "Ukraina": 6144,
      "-Korean": 6145,
      " näiden": 6146,
      " Purra": 6147,
      " ehtinyt": 6148,
      "asia": 6149,
      "mestari": 6150,
      " jyr": 6151,
      "itu": 6152,
      "asemm": 6153,
      "komite": 6154,
      " hyl": 6155,
      "uuto": 6156,
      " läp": 6157,
      "-vuotiasta": 6158,
      "Onnettom": 6159,
      " kaupung": 6160,
      " kohdistu": 6161,
      " huolest": 6162,
      "Tiet": 6163,
      "800": 6164,
      " muisto": 6165,
      "ettavasti": 6166,
      " naiset": 6167,
      " yksilö": 6168,
      "pio": 6169,
      " keskimäärin": 6170,
      " huum": 6171,
      " ohjelmassa": 6172,
      " poikkeuksellisen": 6173,
      " yllättäen": 6174,
      " äl": 6175,
      "-urhe": 6176,
      "jalainen": 6177,
      " Hon": 6178,
      " vastan": 6179,
      " suomalaista": 6180,
      " aamu": 6181,
      " urallaan": 6182,
      " keväänä": 6183,
      "De": 6184,
      "isuudesta": 6185,
      "matieteen": 6186,
      "viikko": 6187,
      "ynen": 6188,
      " Joon": 6189,
      " Bl": 6190,
      "allinen": 6191,
      " liikunta": 6192,
      " hieno": 6193,
      "maat": 6194,
      " Sto": 6195,
      " viis": 6196,
      " Laa": 6197,
      " poista": 6198,
      " eurolla": 6199,
      " läsnä": 6200,
      " Trumpia": 6201,
      " yrittäjä": 6202,
      " är": 6203,
      "Miksi": 6204,
      "Por": 6205,
      "rot": 6206,
      "llisiä": 6207,
      " ep": 6208,
      "tim": 6209,
      " Kal": 6210,
      " rat": 6211,
      " pojan": 6212,
      " Jyväsky": 6213,
      "tena": 6214,
      "isempi": 6215,
      " naista": 6216,
      " tunnista": 6217,
      "emmistö": 6218,
      " Mac": 6219,
      " syksynä": 6220,
      " tarkemmin": 6221,
      "öö": 6222,
      "ennä": 6223,
      "onnettom": 6224,
      "ieme": 6225,
      "opi": 6226,
      " kiito": 6227,
      " tapaus": 6228,
      "ytyä": 6229,
      " pelaajat": 6230,
      " kommentoin": 6231,
      " muuttunut": 6232,
      " kaupungissa": 6233,
      " kokee": 6234,
      " ikinä": 6235,
      " huomioon": 6236,
      " alkavat": 6237,
      " historian": 6238,
      "-sarjan": 6239,
      "tilaisuudessa": 6240,
      "vaikutta": 6241,
      "KP": 6242,
      "Tap": 6243,
      "tissä": 6244,
      "erra": 6245,
      "kaansa": 6246,
      " hakea": 6247,
      " ulkoministeri": 6248,
      "ituksena": 6249,
      " lähesty": 6250,
      "riksson": 6251,
      "Saa": 6252,
      " asuu": 6253,
      "yksissä": 6254,
      " On": 6255,
      " monia": 6256,
      " pron": 6257,
      " esiintyi": 6258,
      " lääke": 6259,
      " sulke": 6260,
      "vaalit": 6261,
      "Lapin": 6262,
      " jalkapallo": 6263,
      "itinsä": 6264,
      "ug": 6265,
      "itun": 6266,
      " eva": 6267,
      "uusa": 6268,
      " kuvat": 6269,
      "unnon": 6270,
      "ttujen": 6271,
      " lakka": 6272,
      " milloin": 6273,
      " koron": 6274,
      " eläkke": 6275,
      " Marko": 6276,
      " kymmeniä": 6277,
      "Sosia": 6278,
      "valiokunnan": 6279,
      " rekister": 6280,
      "-siv": 6281,
      ":s": 6282,
      "Yhti": 6283,
      "nön": 6284,
      " Sar": 6285,
      " Botta": 6286,
      " noud": 6287,
      " myöhä": 6288,
      " kuului": 6289,
      " nuoret": 6290,
      " tiedotustilais": 6291,
      " tuuli": 6292,
      "Mikäli": 6293,
      " erinoma": 6294,
      "Yl": 6295,
      "che": 6296,
      " otsi": 6297,
      "osto": 6298,
      "arvo": 6299,
      " katka": 6300,
      " ren": 6301,
      "assaan": 6302,
      " teatt": 6303,
      " käyn": 6304,
      " paina": 6305,
      "vuori": 6306,
      "kkiin": 6307,
      " jättä": 6308,
      "-kisojen": 6309,
      " keitti": 6310,
      " ohella": 6311,
      "For": 6312,
      "pres": 6313,
      "teitä": 6314,
      " muihin": 6315,
      "äluo": 6316,
      " täynnä": 6317,
      " USA": 6318,
      " korjaa": 6319,
      "ttoman": 6320,
      " osui": 6321,
      "stro": 6322,
      " laaj": 6323,
      "Väli": 6324,
      " Iranin": 6325,
      "The": 6326,
      "set": 6327,
      " stra": 6328,
      " raiska": 6329,
      "tuivat": 6330,
      "ottavasti": 6331,
      "tilaa": 6332,
      " jatkuvasti": 6333,
      " yksityisko": 6334,
      " kaupan": 6335,
      " hoito": 6336,
      " hyökkäysso": 6337,
      "Urhe": 6338,
      "NHL": 6339,
      "pitä": 6340,
      " otettiin": 6341,
      " psy": 6342,
      "mainen": 6343,
      "kkänen": 6344,
      " pystyi": 6345,
      "voiton": 6346,
      " sarjassa": 6347,
      " mielenosoit": 6348,
      " peliä": 6349,
      " määrää": 6350,
      " Urhe": 6351,
      "Eli": 6352,
      "Muun": 6353,
      "yyt": 6354,
      " osi": 6355,
      " terä": 6356,
      " seka": 6357,
      " täyttä": 6358,
      " näistä": 6359,
      "voimat": 6360,
      " väliaika": 6361,
      " aiheuttanut": 6362,
      " laad": 6363,
      " vastaava": 6364,
      " talven": 6365,
      " tutkinta": 6366,
      "Edus": 6367,
      " kokoonpan": 6368,
      "Halu": 6369,
      "Las": 6370,
      "Tal": 6371,
      " avoim": 6372,
      "teessä": 6373,
      "vian": 6374,
      " Kari": 6375,
      " Ad": 6376,
      " paikkaa": 6377,
      " hyvät": 6378,
      " ensimmäisessä": 6379,
      " tekijä": 6380,
      "Siihen": 6381,
      " sairaus": 6382,
      " riipp": 6383,
      " erässä": 6384,
      " Varsinais": 6385,
      "ashington": 6386,
      " pei": 6387,
      "kap": 6388,
      " koto": 6389,
      "rillä": 6390,
      " SDP": 6391,
      " muille": 6392,
      " kerää": 6393,
      "neuvo": 6394,
      " tuoda": 6395,
      " ensimmäisellä": 6396,
      " heillä": 6397,
      " koira": 6398,
      " tarpeeksi": 6399,
      "ov": 6400,
      " jaksa": 6401,
      " salli": 6402,
      "ppoa": 6403,
      " Jär": 6404,
      " kirjassa": 6405,
      "korva": 6406,
      " valmistel": 6407,
      " poliisila": 6408,
      "Järj": 6409,
      "jalan": 6410,
      "itsin": 6411,
      "tian": 6412,
      " Sta": 6413,
      "viera": 6414,
      "oping": 6415,
      "oten": 6416,
      " Ruotsi": 6417,
      "basti": 6418,
      "kn": 6419,
      "pros": 6420,
      " sähkön": 6421,
      " liki": 6422,
      " tallen": 6423,
      " kot": 6424,
      "mppu": 6425,
      "vuodesta": 6426,
      "koita": 6427,
      "ikenteen": 6428,
      " epäsel": 6429,
      " Maria": 6430,
      "Vain": 6431,
      " vahvisti": 6432,
      " maksamaan": 6433,
      " pyrkii": 6434,
      "Myöhemmin": 6435,
      "ep": 6436,
      "hot": 6437,
      " pose": 6438,
      "eltu": 6439,
      "istele": 6440,
      "ksissa": 6441,
      "ttelyssä": 6442,
      " Läh": 6443,
      "hah": 6444,
      "vella": 6445,
      " varrella": 6446,
      " heikko": 6447,
      " menesty": 6448,
      "palkin": 6449,
      " ympärillä": 6450,
      " voittoon": 6451,
      "-il": 6452,
      "-kul": 6453,
      "Iso": 6454,
      "holm": 6455,
      "kto": 6456,
      "isyyttä": 6457,
      " spe": 6458,
      "laan": 6459,
      " Ari": 6460,
      " esitti": 6461,
      " paikallis": 6462,
      " sope": 6463,
      " kolmannen": 6464,
      " selittää": 6465,
      "El": 6466,
      "Tul": 6467,
      "ottu": 6468,
      "prosen": 6469,
      "siantuntija": 6470,
      "alista": 6471,
      "istoa": 6472,
      " kasa": 6473,
      " viih": 6474,
      " Ranska": 6475,
      "tteessa": 6476,
      " Wa": 6477,
      " autoa": 6478,
      " Salossa": 6479,
      " alkoivat": 6480,
      " hoitaa": 6481,
      " uudet": 6482,
      ".fi": 6483,
      "ysa": 6484,
      " seksi": 6485,
      " Ala": 6486,
      " valinta": 6487,
      " meneh": 6488,
      " viimeksi": 6489,
      " niissä": 6490,
      " kaupa": 6491,
      " käytöstä": 6492,
      " päih": 6493,
      " tapahtuneesta": 6494,
      " Tampereella": 6495,
      " puolisonsa": 6496,
      " lopettaa": 6497,
      "Jal": 6498,
      "Tunn": 6499,
      "Toim": 6500,
      "Yhte": 6501,
      " luv": 6502,
      "oil": 6503,
      "sään": 6504,
      "hdus": 6505,
      " Päi": 6506,
      "kkain": 6507,
      " tehneet": 6508,
      " kiloa": 6509,
      " lämmin": 6510,
      " pros": 6511,
      " Martin": 6512,
      " palkinto": 6513,
      " tavanoma": 6514,
      "Suo": 6515,
      "em": 6516,
      "iil": 6517,
      "pito": 6518,
      "eltään": 6519,
      " ves": 6520,
      "väki": 6521,
      " pääty": 6522,
      " Red": 6523,
      "ppien": 6524,
      " tuon": 6525,
      " varoit": 6526,
      "ttelevat": 6527,
      " tärkein": 6528,
      " entisestä": 6529,
      " kokemus": 6530,
      " lumi": 6531,
      " peräkkä": 6532,
      " irtis": 6533,
      "Tiista": 6534,
      "tamaan": 6535,
      " omassa": 6536,
      "tter": 6537,
      "uone": 6538,
      " kome": 6539,
      " kahta": 6540,
      " Mat": 6541,
      "eellinen": 6542,
      " lasku": 6543,
      " terror": 6544,
      "jöiden": 6545,
      "politiikan": 6546,
      " valmiiksi": 6547,
      " voitaisiin": 6548,
      "-kana": 6549,
      "46": 6550,
      "ison": 6551,
      " ota": 6552,
      " sav": 6553,
      " Min": 6554,
      "oliti": 6555,
      " valoku": 6556,
      " hybri": 6557,
      " hevos": 6558,
      " Gr": 6559,
      " isoja": 6560,
      " kulttuu": 6561,
      "puri": 6562,
      " uhri": 6563,
      " haluaisi": 6564,
      "Pääministeri": 6565,
      "virasto": 6566,
      " tällaista": 6567,
      " merkitystä": 6568,
      "fia": 6569,
      "tunn": 6570,
      "annen": 6571,
      " esillä": 6572,
      "apan": 6573,
      " uuteen": 6574,
      " siirtyy": 6575,
      " kesäkuuta": 6576,
      " Harry": 6577,
      " järjestää": 6578,
      "hteeri": 6579,
      "jältä": 6580,
      " län": 6581,
      " muistu": 6582,
      "hdessä": 6583,
      "miaan": 6584,
      " ranska": 6585,
      "ilais": 6586,
      " huomaa": 6587,
      " verot": 6588,
      " lähd": 6589,
      " Wal": 6590,
      " pysyy": 6591,
      " jäivät": 6592,
      " ottamaan": 6593,
      "Trumpin": 6594,
      "Ylen": 6595,
      "keli": 6596,
      " viest": 6597,
      " enempää": 6598,
      "eett": 6599,
      " Tuk": 6600,
      "käytö": 6601,
      " hau": 6602,
      "ittänyt": 6603,
      "kenn": 6604,
      "materia": 6605,
      "kuntaa": 6606,
      " kunnolla": 6607,
      " kaupp": 6608,
      " pelataan": 6609,
      " kerrosta": 6610,
      "Tänään": 6611,
      "Jä": 6612,
      " puk": 6613,
      "alvel": 6614,
      "tias": 6615,
      "ostun": 6616,
      " sie": 6617,
      "ikasta": 6618,
      " saattoi": 6619,
      " suos": 6620,
      " vaikkapa": 6621,
      " Salo": 6622,
      " eteni": 6623,
      " ilmoittanut": 6624,
      "Paris": 6625,
      " vaikuttavat": 6626,
      " yksinkerta": 6627,
      " Rovanperä": 6628,
      "oiminta": 6629,
      " moottor": 6630,
      "llöin": 6631,
      "-tilillään": 6632,
      "Suurin": 6633,
      "-jäsen": 6634,
      "600": 6635,
      " km": 6636,
      "saar": 6637,
      " pään": 6638,
      " puut": 6639,
      "esse": 6640,
      "mmilla": 6641,
      " kaksin": 6642,
      " Slo": 6643,
      "ytynyt": 6644,
      "leh": 6645,
      "uransa": 6646,
      " valitsi": 6647,
      " versi": 6648,
      " osoit": 6649,
      " kuvassa": 6650,
      " henkilöstö": 6651,
      " varap": 6652,
      " pohja": 6653,
      " tänne": 6654,
      " työskentele": 6655,
      " Leijonien": 6656,
      "Perussuomala": 6657,
      "lti": 6658,
      "uttiin": 6659,
      " Kil": 6660,
      "iro": 6661,
      " Hanna": 6662,
      " laita": 6663,
      " Linnan": 6664,
      "kkaita": 6665,
      " Ol": 6666,
      " tietty": 6667,
      " sote": 6668,
      " Win": 6669,
      " itsekin": 6670,
      " pelaamaan": 6671,
      " tutkii": 6672,
      " vakava": 6673,
      " sosiaalisen": 6674,
      " väkivallan": 6675,
      "ppasi": 6676,
      " viranomaisten": 6677,
      "Maailman": 6678,
      " laulaja": 6679,
      " äidin": 6680,
      " näkökulmasta": 6681,
      "Vasemm": 6682,
      "pele": 6683,
      "siä": 6684,
      "simme": 6685,
      "etu": 6686,
      " vahin": 6687,
      "oston": 6688,
      " kolle": 6689,
      " ros": 6690,
      "llisuudessa": 6691,
      " Ber": 6692,
      " erän": 6693,
      " keikka": 6694,
      "residentin": 6695,
      " kohden": 6696,
      "utumisen": 6697,
      " laski": 6698,
      " rakentaa": 6699,
      " kerrottu": 6700,
      " ruokaa": 6701,
      " lääkäri": 6702,
      "karsin": 6703,
      " kamppail": 6704,
      " Riikka": 6705,
      " keskustassa": 6706,
      " maalivahti": 6707,
      " pisteen": 6708,
      "Puolustus": 6709,
      " miljardia": 6710,
      "nia": 6711,
      "tkä": 6712,
      " testa": 6713,
      " soit": 6714,
      " lan": 6715,
      "kejä": 6716,
      " HS": 6717,
      " päättä": 6718,
      " Niskanen": 6719,
      "hael": 6720,
      "teena": 6721,
      " työelä": 6722,
      "itetaan": 6723,
      " mukanaan": 6724,
      " sunnuntain": 6725,
      " olympialaisissa": 6726,
      " euroopp": 6727,
      " määrän": 6728,
      " tavoite": 6729,
      "Op": 6730,
      "Sam": 6731,
      " omien": 6732,
      "istop": 6733,
      " Star": 6734,
      " Hur": 6735,
      " toiselle": 6736,
      "kkoja": 6737,
      " syyt": 6738,
      " osto": 6739,
      " tulevan": 6740,
      " muuttui": 6741,
      " toimeen": 6742,
      " syöttö": 6743,
      " juhann": 6744,
      " paljastui": 6745,
      " omistaja": 6746,
      " sijaitsevan": 6747,
      " kaipaa": 6748,
      " harrasta": 6749,
      "Hyvin": 6750,
      " yhteistyötä": 6751,
      "-ka": 6752,
      "Koh": 6753,
      "Minä": 6754,
      "etti": 6755,
      " jän": 6756,
      " yks": 6757,
      " viita": 6758,
      " ranta": 6759,
      " Juus": 6760,
      " edistä": 6761,
      " seuraavan": 6762,
      " liittyviä": 6763,
      " rangaist": 6764,
      " päätteeksi": 6765,
      " estää": 6766,
      "41": 6767,
      "42": 6768,
      "Heidän": 6769,
      "Lää": 6770,
      "MA": 6771,
      "vys": 6772,
      " pus": 6773,
      " länn": 6774,
      " avoi": 6775,
      " vaimo": 6776,
      " Ex": 6777,
      "ape": 6778,
      "nytys": 6779,
      " Angel": 6780,
      " kolmanneksi": 6781,
      " Heikki": 6782,
      " päättyy": 6783,
      "Ken": 6784,
      "ssia": 6785,
      "wan": 6786,
      " st": 6787,
      "unni": 6788,
      " totu": 6789,
      "ustyö": 6790,
      " Fo": 6791,
      "ilijä": 6792,
      "Ensin": 6793,
      "how": 6794,
      " tiedotteessaan": 6795,
      " näkyi": 6796,
      "Uudenmaan": 6797,
      " tyttären": 6798,
      " tuhansia": 6799,
      "49": 6800,
      "Mu": 6801,
      "Noin": 6802,
      " lit": 6803,
      " viha": 6804,
      " Kale": 6805,
      " Th": 6806,
      "ppä": 6807,
      "netty": 6808,
      " tapahtumia": 6809,
      " nykyinen": 6810,
      " polttoa": 6811,
      " hyökkäyksen": 6812,
      " kahdesti": 6813,
      " tekoäl": 6814,
      "hyökkääjä": 6815,
      "estaruutta": 6816,
      "stituut": 6817,
      " elokuuta": 6818,
      " toukokuuta": 6819,
      "-va": 6820,
      "wi": 6821,
      "liik": 6822,
      "istoon": 6823,
      " mahdollinen": 6824,
      " miettiä": 6825,
      "Päätö": 6826,
      " paikoin": 6827,
      " kappaletta": 6828,
      " teksti": 6829,
      " viikossa": 6830,
      "Aut": 6831,
      "MM": 6832,
      "Voit": 6833,
      "des": 6834,
      "ikot": 6835,
      "osu": 6836,
      " taite": 6837,
      "detty": 6838,
      "stapp": 6839,
      "roon": 6840,
      "merkin": 6841,
      " presidentiksi": 6842,
      " järjestö": 6843,
      " vetää": 6844,
      " muualla": 6845,
      "Miel": 6846,
      " puuttu": 6847,
      " kielle": 6848,
      " heinäkuuta": 6849,
      "Juh": 6850,
      "ivat": 6851,
      "rika": 6852,
      " matala": 6853,
      " poistu": 6854,
      " asen": 6855,
      " asiana": 6856,
      " nousta": 6857,
      "Tai": 6858,
      " uhr": 6859,
      " eduskunnassa": 6860,
      " mielenterve": 6861,
      "ihdon": 6862,
      " maailmancupin": 6863,
      " evakuo": 6864,
      "-le": 6865,
      "vyö": 6866,
      "öyh": 6867,
      "int": 6868,
      "pakka": 6869,
      "paikkoja": 6870,
      " voimassa": 6871,
      " asetta": 6872,
      " paranta": 6873,
      " kiir": 6874,
      " tapausta": 6875,
      " kilpailu": 6876,
      " yhteisö": 6877,
      " käyttöä": 6878,
      " melkein": 6879,
      " onnettomuus": 6880,
      " Hamasin": 6881,
      " vankeusrangaist": 6882,
      "dosta": 6883,
      "gren": 6884,
      "inaa": 6885,
      "uring": 6886,
      " asuva": 6887,
      " isänn": 6888,
      " Sara": 6889,
      " toimivat": 6890,
      " ohjelman": 6891,
      " irti": 6892,
      " omina": 6893,
      " eduskuntaryhmän": 6894,
      "emme": 6895,
      "yli": 6896,
      "vainen": 6897,
      " kodin": 6898,
      " Pie": 6899,
      " käd": 6900,
      " Roo": 6901,
      " haita": 6902,
      " Nie": 6903,
      " yhty": 6904,
      " kulkee": 6905,
      "Tamper": 6906,
      " esiintyy": 6907,
      " lähetti": 6908,
      "uoneen": 6909,
      "ketin": 6910,
      " väittää": 6911,
      " mielestään": 6912,
      " kuningatar": 6913,
      " moottori": 6914,
      "-Uudenmaan": 6915,
      "Vo": 6916,
      "silla": 6917,
      " jakaa": 6918,
      " HIFK": 6919,
      " lauta": 6920,
      " Am": 6921,
      " potila": 6922,
      "llise": 6923,
      " Niko": 6924,
      " kyseen": 6925,
      " käytti": 6926,
      "-auto": 6927,
      " äitinsä": 6928,
      " suomen": 6929,
      " investoin": 6930,
      " Kamala": 6931,
      "cen": 6932,
      "dit": 6933,
      "tman": 6934,
      " oulula": 6935,
      " apu": 6936,
      " Sdp": 6937,
      "keino": 6938,
      " mahdot": 6939,
      " voida": 6940,
      " Eurovi": 6941,
      " paljasta": 6942,
      " kirjan": 6943,
      "istoria": 6944,
      " julkaissut": 6945,
      " kilpaile": 6946,
      "kohtaisesti": 6947,
      " perässä": 6948,
      "yydestä": 6949,
      " Heik": 6950,
      " professori": 6951,
      "huollon": 6952,
      " normaalisti": 6953,
      " strateg": 6954,
      "Hyvä": 6955,
      "Tule": 6956,
      "gian": 6957,
      "immat": 6958,
      " enkä": 6959,
      "ointia": 6960,
      " haaste": 6961,
      " Nik": 6962,
      " puoliso": 6963,
      "tonsa": 6964,
      " löi": 6965,
      "kunnalle": 6966,
      " alueilla": 6967,
      " osallistua": 6968,
      " kaatui": 6969,
      " tasavallan": 6970,
      "opimus": 6971,
      "Ohjel": 6972,
      " lehdistö": 6973,
      "BA": 6974,
      "chin": 6975,
      "lisä": 6976,
      "kinta": 6977,
      " vuor": 6978,
      " poikansa": 6979,
      " perustus": 6980,
      " tapasi": 6981,
      "elegra": 6982,
      " kohtuu": 6983,
      " prosentti": 6984,
      "oissaan": 6985,
      " perjantain": 6986,
      " lisäsi": 6987,
      " mestaruus": 6988,
      " lukuisia": 6989,
      "Vih": 6990,
      "llisiin": 6991,
      " avoin": 6992,
      "opar": 6993,
      " pelasta": 6994,
      " keskuudessa": 6995,
      " suomalaisia": 6996,
      " vaadi": 6997,
      " halutaan": 6998,
      "Torsta": 6999,
      " ristiri": 7000,
      " entisestään": 7001,
      "tävän": 7002,
      "istys": 7003,
      "mmillaan": 7004,
      " jokin": 7005,
      " pake": 7006,
      "selle": 7007,
      " erään": 7008,
      " Yo": 7009,
      "iver": 7010,
      " urheilija": 7011,
      " ehdokas": 7012,
      " yleisön": 7013,
      "Hallituksen": 7014,
      "dcastissa": 7015,
      " määrit": 7016,
      " kyy": 7017,
      "teko": 7018,
      " TV": 7019,
      " toden": 7020,
      "seura": 7021,
      " Innes": 7022,
      " mitali": 7023,
      "töjen": 7024,
      " harmi": 7025,
      " Anton": 7026,
      " pitävät": 7027,
      " muutenkin": 7028,
      " lokakuuta": 7029,
      " hyvinvointialu": 7030,
      "-al": 7031,
      "cin": 7032,
      "histori": 7033,
      "ysi": 7034,
      " haus": 7035,
      " olisin": 7036,
      " hymy": 7037,
      "omas": 7038,
      "koneen": 7039,
      " varma": 7040,
      " Ul": 7041,
      " ostaa": 7042,
      " valtava": 7043,
      " herättänyt": 7044,
      " Viron": 7045,
      " uudestaan": 7046,
      " syyskuuta": 7047,
      " ilmiö": 7048,
      "Video": 7049,
      "-kilpail": 7050,
      "Her": 7051,
      "Sähkö": 7052,
      "dien": 7053,
      "mann": 7054,
      "pas": 7055,
      " kärj": 7056,
      "utettiin": 7057,
      "osissa": 7058,
      "istosta": 7059,
      "hdoin": 7060,
      "tug": 7061,
      "annes": 7062,
      "vesi": 7063,
      "ohjo": 7064,
      " anteeksi": 7065,
      " välinen": 7066,
      " tulivat": 7067,
      " kone": 7068,
      " vuosittain": 7069,
      " laaja": 7070,
      " laaje": 7071,
      " perjantai": 7072,
      "voittaja": 7073,
      " keräsi": 7074,
      "Molemmat": 7075,
      ":stä": 7076,
      "Kilpail": 7077,
      "Talo": 7078,
      "Vastaa": 7079,
      "into": 7080,
      "väs": 7081,
      "vide": 7082,
      " Vol": 7083,
      "ppal": 7084,
      " askel": 7085,
      " naisia": 7086,
      " loista": 7087,
      "palo": 7088,
      "igh": 7089,
      " pelaajia": 7090,
      " nuoria": 7091,
      " muuttuu": 7092,
      " tutkija": 7093,
      " varapuheen": 7094,
      " joulu": 7095,
      " todetaan": 7096,
      " kahdeksa": 7097,
      " juontaja": 7098,
      "Kolme": 7099,
      "Teh": 7100,
      "Uh": 7101,
      " akti": 7102,
      "istit": 7103,
      "kson": 7104,
      "laki": 7105,
      " Je": 7106,
      " tarkasti": 7107,
      " Catherin": 7108,
      " puhunut": 7109,
      " puhelin": 7110,
      "195": 7111,
      " kisassa": 7112,
      " sairaalassa": 7113,
      " houku": 7114,
      "-Sanomien": 7115,
      " syksyn": 7116,
      " suoritus": 7117,
      "Ruotsa": 7118,
      "komitean": 7119,
      " gra": 7120,
      "heen": 7121,
      " hil": 7122,
      " Pro": 7123,
      " tuote": 7124,
      "voiman": 7125,
      " korona": 7126,
      " koskee": 7127,
      "kkia": 7128,
      " seurasi": 7129,
      " syytetään": 7130,
      " tiedotteen": 7131,
      " lähettää": 7132,
      "liigan": 7133,
      "Suomalais": 7134,
      "hoidon": 7135,
      "54": 7136,
      "Oma": 7137,
      "Suuri": 7138,
      "bet": 7139,
      "lop": 7140,
      "anoma": 7141,
      "saira": 7142,
      " Lie": 7143,
      "llisyys": 7144,
      " kuntoon": 7145,
      " kiva": 7146,
      " Do": 7147,
      "tteesta": 7148,
      " hallitse": 7149,
      " Sam": 7150,
      " varaa": 7151,
      " päiväko": 7152,
      " arvioidaan": 7153,
      "laatu": 7154,
      " julkisesti": 7155,
      " elämänsä": 7156,
      " marraskuuta": 7157,
      "Syyttäjä": 7158,
      "kurssi": 7159,
      " artikkel": 7160,
      " Näin": 7161,
      " muistutti": 7162,
      "52": 7163,
      "Un": 7164,
      "eistä": 7165,
      "jin": 7166,
      "kunut": 7167,
      " mas": 7168,
      "maalin": 7169,
      "rajan": 7170,
      " koken": 7171,
      "mpänä": 7172,
      "töön": 7173,
      "ittasi": 7174,
      " syyttä": 7175,
      " opetta": 7176,
      " suunnite": 7177,
      " päätöstä": 7178,
      "järjestön": 7179,
      " pitkälle": 7180,
      " lääkke": 7181,
      " Virta": 7182,
      "hallituksen": 7183,
      "anther": 7184,
      " reilut": 7185,
      " Guar": 7186,
      "-osa": 7187,
      ":llä": 7188,
      "Bri": 7189,
      "Muuta": 7190,
      "kuk": 7191,
      "elee": 7192,
      "ulin": 7193,
      " sattui": 7194,
      "pallon": 7195,
      " Mik": 7196,
      " Pu": 7197,
      " pääosin": 7198,
      "konä": 7199,
      " sotaa": 7200,
      " minut": 7201,
      " tekemistä": 7202,
      " kärsin": 7203,
      "puolue": 7204,
      " keskustelu": 7205,
      " kritiikkiä": 7206,
      "mpäristö": 7207,
      "-turna": 7208,
      "tus": 7209,
      "veto": 7210,
      "utensa": 7211,
      " sana": 7212,
      " kiih": 7213,
      " tapauksesta": 7214,
      "unais": 7215,
      " ajanut": 7216,
      " meteor": 7217,
      "ico": 7218,
      " puoliväl": 7219,
      "matonta": 7220,
      " Saksassa": 7221,
      "ikympp": 7222,
      "Leijon": 7223,
      "kosen": 7224,
      "ski": 7225,
      "udi": 7226,
      " kori": 7227,
      "joissa": 7228,
      " Peli": 7229,
      " lailla": 7230,
      " palestiin": 7231,
      " oikeudessa": 7232,
      "edustaja": 7233,
      " jatkoa": 7234,
      " meitä": 7235,
      "istuneet": 7236,
      " kansainvälisen": 7237,
      " organisaa": 7238,
      "Epäil": 7239,
      " viedä": 7240,
      "Jat": 7241,
      "ajan": 7242,
      "osi": 7243,
      "pari": 7244,
      "ras": 7245,
      "rann": 7246,
      "usia": 7247,
      "isiksi": 7248,
      "ilas": 7249,
      "etyt": 7250,
      "mausa": 7251,
      "isiv": 7252,
      "ihla": 7253,
      " Kesk": 7254,
      " Hein": 7255,
      " kesti": 7256,
      " Cha": 7257,
      " huole": 7258,
      " fiil": 7259,
      " bän": 7260,
      " aikanaan": 7261,
      " käydään": 7262,
      "jetti": 7263,
      " Kalle": 7264,
      "keskukseen": 7265,
      " dra": 7266,
      " eduskunta": 7267,
      " todettiin": 7268,
      " vankeuteen": 7269,
      "murha": 7270,
      " työskennellyt": 7271,
      "detta": 7272,
      "immä": 7273,
      "nista": 7274,
      "unda": 7275,
      " tav": 7276,
      "tudi": 7277,
      "ärmä": 7278,
      " haittaa": 7279,
      " esityksen": 7280,
      " ison": 7281,
      "istian": 7282,
      "194": 7283,
      " Matt": 7284,
      " silmä": 7285,
      " päivässä": 7286,
      "aseman": 7287,
      " tarjoaa": 7288,
      " painottaa": 7289,
      " lisätä": 7290,
      " lausunnossa": 7291,
      " kahdesta": 7292,
      " päivys": 7293,
      "Aja": 7294,
      "isyy": 7295,
      " vakuu": 7296,
      "ostuu": 7297,
      "opet": 7298,
      "detään": 7299,
      " laitoksen": 7300,
      "llisella": 7301,
      "misella": 7302,
      " menet": 7303,
      " menest": 7304,
      "pät": 7305,
      "tteitä": 7306,
      " ba": 7307,
      " Max": 7308,
      " kisaa": 7309,
      "ilemaan": 7310,
      " suhteessa": 7311,
      " säily": 7312,
      "talous": 7313,
      " äänestää": 7314,
      " Pariisissa": 7315,
      " politiikan": 7316,
      " Charles": 7317,
      "kise": 7318,
      "muo": 7319,
      "ova": 7320,
      "pala": 7321,
      " määri": 7322,
      "kella": 7323,
      "kuvan": 7324,
      " laiva": 7325,
      " tiuka": 7326,
      " euroon": 7327,
      " lev": 7328,
      " jonkun": 7329,
      " aivo": 7330,
      " hyökkääjä": 7331,
      " pieniä": 7332,
      " järjestettiin": 7333,
      "Käyt": 7334,
      " somessa": 7335,
      " äärimmäisen": 7336,
      "ologia": 7337,
      "Uskon": 7338,
      " Puolustus": 7339,
      "mpötila": 7340,
      " putosi": 7341,
      "mun": 7342,
      "radio": 7343,
      "tolan": 7344,
      "iekko": 7345,
      " päävalmenta": 7346,
      "ttuun": 7347,
      "pparan": 7348,
      " tark": 7349,
      " edusti": 7350,
      "voimaa": 7351,
      " minkään": 7352,
      " haltu": 7353,
      " oikeastaan": 7354,
      " mielestäni": 7355,
      " löyd": 7356,
      " ilmaston": 7357,
      " heidät": 7358,
      " pidetty": 7359,
      " koiran": 7360,
      " mestaruuden": 7361,
      "Silti": 7362,
      "iemelä": 7363,
      "43": 7364,
      "ds": 7365,
      " pir": 7366,
      "äältä": 7367,
      "istusta": 7368,
      " tall": 7369,
      " maala": 7370,
      " Vuor": 7371,
      " periaa": 7372,
      " Britannian": 7373,
      " tulosta": 7374,
      " pelastus": 7375,
      "ritään": 7376,
      " vastaisena": 7377,
      " ilmoittaa": 7378,
      " osallistuu": 7379,
      " valtiovarain": 7380,
      " todista": 7381,
      " ansiosta": 7382,
      " jäljellä": 7383,
      "ckin": 7384,
      "ghan": 7385,
      "kik": 7386,
      "ttynä": 7387,
      "eraan": 7388,
      "ttäisiin": 7389,
      "urna": 7390,
      " Hir": 7391,
      "yössä": 7392,
      " poik": 7393,
      "misessä": 7394,
      "Sekä": 7395,
      " hyvältä": 7396,
      " töihin": 7397,
      "umb": 7398,
      "utuivat": 7399,
      " avasi": 7400,
      " riittävän": 7401,
      "asiassa": 7402,
      " unel": 7403,
      "tuotta": 7404,
      " dollarin": 7405,
      " sukupol": 7406,
      "ylä": 7407,
      "ensä": 7408,
      " puuta": 7409,
      "täminen": 7410,
      "lian": 7411,
      " täs": 7412,
      " kuulla": 7413,
      " osoitti": 7414,
      " riitä": 7415,
      " kanna": 7416,
      "verta": 7417,
      " kuuluva": 7418,
      " sopii": 7419,
      "varti": 7420,
      " seuraava": 7421,
      " tekivät": 7422,
      "järvellä": 7423,
      " samana": 7424,
      " kohtalo": 7425,
      " Espanjan": 7426,
      " murhasta": 7427,
      " Daniel": 7428,
      "Vasemmisto": 7429,
      "epä": 7430,
      "ottelu": 7431,
      "yp": 7432,
      "entia": 7433,
      "issi": 7434,
      " the": 7435,
      "mmun": 7436,
      "ttelyä": 7437,
      " Vic": 7438,
      "ppiin": 7439,
      " pallon": 7440,
      " Jenni": 7441,
      "oottori": 7442,
      "hinta": 7443,
      " varuste": 7444,
      " nau": 7445,
      " kohteeksi": 7446,
      "Kuning": 7447,
      "kosken": 7448,
      " matkaa": 7449,
      "hoito": 7450,
      " Mäkelä": 7451,
      " suurempi": 7452,
      "-arvo": 7453,
      " Lapissa": 7454,
      "Ensimmäinen": 7455,
      " selkeästi": 7456,
      "Juttua": 7457,
      "car": 7458,
      "fin": 7459,
      "uan": 7460,
      "ish": 7461,
      " klas": 7462,
      " taj": 7463,
      "uru": 7464,
      " Mor": 7465,
      " lauk": 7466,
      " Bel": 7467,
      " Oli": 7468,
      "ilaisen": 7469,
      " liittyi": 7470,
      "Sillä": 7471,
      " vieressä": 7472,
      "hallitus": 7473,
      "Ukrain": 7474,
      " Ukrainaa": 7475,
      "'s": 7476,
      "59": 7477,
      "Peli": 7478,
      "ismin": 7479,
      "mian": 7480,
      " ryös": 7481,
      " Kas": 7482,
      "imon": 7483,
      "ttelusta": 7484,
      " As": 7485,
      " millä": 7486,
      " kyky": 7487,
      "alioli": 7488,
      "Entinen": 7489,
      "mmalle": 7490,
      " saaneensa": 7491,
      "tilas": 7492,
      " silmin": 7493,
      " pitämään": 7494,
      " nähtä": 7495,
      " tuomion": 7496,
      " toisensa": 7497,
      " lainsäädän": 7498,
      " huhtikuuta": 7499,
      "Mur": 7500,
      "lossa": 7501,
      "ttyy": 7502,
      " eilen": 7503,
      " lunta": 7504,
      " lum": 7505,
      " aa": 7506,
      " vaatin": 7507,
      " sattu": 7508,
      " rakasta": 7509,
      "misti": 7510,
      " tapauksen": 7511,
      " suoj": 7512,
      "uudestaan": 7513,
      "kseni": 7514,
      "Tasa": 7515,
      " yrityksestä": 7516,
      " pyritään": 7517,
      "miehet": 7518,
      " menivät": 7519,
      "järjestelmä": 7520,
      " Kaner": 7521,
      "Viranoma": 7522,
      "Kokoom": 7523,
      " Sanomien": 7524,
      "piteitä": 7525,
      " Lähi": 7526,
      "Ex": 7527,
      "Totta": 7528,
      "auton": 7529,
      "dasta": 7530,
      " tenn": 7531,
      "eriin": 7532,
      " hor": 7533,
      "ikop": 7534,
      "kimo": 7535,
      "rikaan": 7536,
      " muissa": 7537,
      " Krem": 7538,
      " kiisti": 7539,
      " Venäjää": 7540,
      " yhteyden": 7541,
      " maailmaa": 7542,
      " tuloksen": 7543,
      " olleensa": 7544,
      "ttömyys": 7545,
      " demokraattien": 7546,
      "-Sa": 7547,
      "ettua": 7548,
      " pos": 7549,
      "erissä": 7550,
      "usko": 7551,
      "tellä": 7552,
      "ksellä": 7553,
      "vii": 7554,
      " Pohjan": 7555,
      "ttelyyn": 7556,
      " edu": 7557,
      " väestö": 7558,
      "Seura": 7559,
      " suhde": 7560,
      " toimiva": 7561,
      "Tapa": 7562,
      " paikalta": 7563,
      " koulua": 7564,
      "nanen": 7565,
      "yksikkö": 7566,
      " huumausa": 7567,
      " alkoholin": 7568,
      " Tikto": 7569,
      "-jo": 7570,
      "Kut": 7571,
      "Pur": 7572,
      "Täällä": 7573,
      "hia": 7574,
      "ksu": 7575,
      "tuen": 7576,
      " Aho": 7577,
      "hamin": 7578,
      "ikoista": 7579,
      " välissä": 7580,
      " Ann": 7581,
      " ulkopuolelle": 7582,
      " yllättävän": 7583,
      "teltiin": 7584,
      " kesäkuun": 7585,
      " Rantanen": 7586,
      "Henkilö": 7587,
      " rohke": 7588,
      "Haluan": 7589,
      "Sää": 7590,
      " oven": 7591,
      " lue": 7592,
      " katta": 7593,
      "lee": 7594,
      " maku": 7595,
      " rata": 7596,
      " Jas": 7597,
      " Oul": 7598,
      "valvon": 7599,
      " leviä": 7600,
      " hetk": 7601,
      " murha": 7602,
      " vaalien": 7603,
      " herättää": 7604,
      " työntekijä": 7605,
      " muitakin": 7606,
      " ennakoi": 7607,
      "mätön": 7608,
      " monipuol": 7609,
      "Miehen": 7610,
      " ilmeisesti": 7611,
      " spekul": 7612,
      "Näi": 7613,
      "Tu": 7614,
      "honen": 7615,
      "ketta": 7616,
      "pyyn": 7617,
      "inut": 7618,
      "kate": 7619,
      "mmille": 7620,
      " sein": 7621,
      " Kuus": 7622,
      " Penn": 7623,
      " tälle": 7624,
      " Jan": 7625,
      "tenkin": 7626,
      "rov": 7627,
      " Washington": 7628,
      " for": 7629,
      " puheenjohtajan": 7630,
      " kisojen": 7631,
      " alkua": 7632,
      " Turussa": 7633,
      " vanhemmat": 7634,
      "hypp": 7635,
      " lauantai": 7636,
      " annettu": 7637,
      " naimisiin": 7638,
      "Ranska": 7639,
      "poo": 7640,
      " ahd": 7641,
      "kola": 7642,
      "rid": 7643,
      " Sie": 7644,
      " Telegra": 7645,
      " paha": 7646,
      " hylä": 7647,
      " kiv": 7648,
      " Fre": 7649,
      " kevy": 7650,
      " selke": 7651,
      " hallinn": 7652,
      "chester": 7653,
      "Näyttelijä": 7654,
      " syöpä": 7655,
      " kilpailussa": 7656,
      " kylmä": 7657,
      " mennään": 7658,
      " lapsille": 7659,
      " hoitoon": 7660,
      " asunnon": 7661,
      " luonto": 7662,
      " luonne": 7663,
      " pudotuspel": 7664,
      "Lind": 7665,
      "isy": 7666,
      "ttinä": 7667,
      " pul": 7668,
      " peh": 7669,
      "alisti": 7670,
      "rab": 7671,
      "ukseksi": 7672,
      "eellisesti": 7673,
      " alkan": 7674,
      " pelkää": 7675,
      "ytty": 7676,
      " kanssaan": 7677,
      " huolehti": 7678,
      " ilmes": 7679,
      "ttelemään": 7680,
      "olora": 7681,
      " pitkälti": 7682,
      " pahasti": 7683,
      "mattoman": 7684,
      "-sarjassa": 7685,
      " räj": 7686,
      "Kansan": 7687,
      "moituksen": 7688,
      "Ainakin": 7689,
      " konflik": 7690,
      "51": 7691,
      "jäl": 7692,
      "kisi": 7693,
      "še": 7694,
      " man": 7695,
      "ostui": 7696,
      "ytyksen": 7697,
      "alalla": 7698,
      " tarjoi": 7699,
      "yhä": 7700,
      " tapahtumista": 7701,
      " kuukaudessa": 7702,
      "tynä": 7703,
      " palvelu": 7704,
      " katsomaan": 7705,
      " valita": 7706,
      " valittu": 7707,
      " Aleksan": 7708,
      " miljardin": 7709,
      " Times": 7710,
      " kysyttiin": 7711,
      "kysym": 7712,
      " puolivälissä": 7713,
      "Sella": 7714,
      " kus": 7715,
      " mestari": 7716,
      "tälle": 7717,
      "mmas": 7718,
      "kkään": 7719,
      " menossa": 7720,
      " sovell": 7721,
      " väit": 7722,
      " kyyn": 7723,
      " kuulunut": 7724,
      "chen": 7725,
      "ling": 7726,
      " vaihtaa": 7727,
      " pyör": 7728,
      " purka": 7729,
      " ilmoituksen": 7730,
      " myynn": 7731,
      "Olisi": 7732,
      " olympialaisten": 7733,
      " republikaanien": 7734,
      " varhain": 7735,
      " viikonlopun": 7736,
      "Erityisesti": 7737,
      "700": 7738,
      "Hui": 7739,
      "imme": 7740,
      " kyn": 7741,
      " suol": 7742,
      " kad": 7743,
      " kata": 7744,
      "laus": 7745,
      "llisista": 7746,
      "lleensa": 7747,
      "ilijat": 7748,
      " maailmassa": 7749,
      " arvion": 7750,
      " kisoissa": 7751,
      " rikosil": 7752,
      " golf": 7753,
      " voimakkaasti": 7754,
      " todist": 7755,
      " maailmanmestari": 7756,
      " armeijan": 7757,
      " Andre": 7758,
      "58": 7759,
      "nat": 7760,
      "ppaan": 7761,
      " kyt": 7762,
      "kattu": 7763,
      "elu": 7764,
      " vaki": 7765,
      "kohd": 7766,
      "tellaan": 7767,
      " sain": 7768,
      " kuunn": 7769,
      "tyksiä": 7770,
      "usteen": 7771,
      "ettavissa": 7772,
      "tonbla": 7773,
      " keino": 7774,
      " kysyy": 7775,
      "ojaan": 7776,
      " turvallisuuden": 7777,
      " konkr": 7778,
      " koulu": 7779,
      " seuraavaksi": 7780,
      " nousu": 7781,
      "harjoit": 7782,
      "mokraa": 7783,
      "turva": 7784,
      " naapur": 7785,
      " Sanomat": 7786,
      " työntekijöiden": 7787,
      "Jot": 7788,
      "fer": 7789,
      "vyyttä": 7790,
      "yota": 7791,
      "llit": 7792,
      "utiin": 7793,
      "tettua": 7794,
      " Tan": 7795,
      " Pen": 7796,
      " Pes": 7797,
      " Nel": 7798,
      "kkaat": 7799,
      " nappasi": 7800,
      " Don": 7801,
      " vanhan": 7802,
      "hiih": 7803,
      " tarvetta": 7804,
      " haluan": 7805,
      "uontaja": 7806,
      " havainn": 7807,
      "järjestelmän": 7808,
      " Elina": 7809,
      " helmikuuta": 7810,
      " lahja": 7811,
      "Pitää": 7812,
      " Zelenskyi": 7813,
      "iemellä": 7814,
      "'n": 7815,
      ":ta": 7816,
      "Toiv": 7817,
      "kitse": 7818,
      " mut": 7819,
      "kaver": 7820,
      "itiin": 7821,
      " sup": 7822,
      "ikul": 7823,
      "ikana": 7824,
      "ties": 7825,
      "eenan": 7826,
      "rainen": 7827,
      "eir": 7828,
      " Pulju": 7829,
      " liiton": 7830,
      " esityks": 7831,
      " Col": 7832,
      "kkoon": 7833,
      " hallinnon": 7834,
      " ulkonä": 7835,
      "astr": 7836,
      " suomalaisista": 7837,
      " ajankohta": 7838,
      " tapahtuman": 7839,
      " tutkimuksen": 7840,
      " viettää": 7841,
      " tiedottaja": 7842,
      " huomasi": 7843,
      "Men": 7844,
      "muksia": 7845,
      "sten": 7846,
      " otetaan": 7847,
      " pärj": 7848,
      " tup": 7849,
      "rata": 7850,
      "koul": 7851,
      "ytel": 7852,
      " Tra": 7853,
      " Juli": 7854,
      " paluu": 7855,
      "merellä": 7856,
      " poliisia": 7857,
      "dässä": 7858,
      " nykyisin": 7859,
      " lähettä": 7860,
      " sähköauto": 7861,
      " arvost": 7862,
      " lyhyt": 7863,
      " marraskuun": 7864,
      "Niiden": 7865,
      " maaliskuuta": 7866,
      " kutsui": 7867,
      " aloittanut": 7868,
      " samoin": 7869,
      "Käräjäoikeus": 7870,
      " rangaistus": 7871,
      "ilaa": 7872,
      "kian": 7873,
      " käsin": 7874,
      " rehe": 7875,
      "iga": 7876,
      " toteutta": 7877,
      " toimit": 7878,
      " seuraavana": 7879,
      " tarkoituksena": 7880,
      " vene": 7881,
      " riittävästi": 7882,
      "korot": 7883,
      " tulokset": 7884,
      " asuin": 7885,
      " Vantaan": 7886,
      " parantaa": 7887,
      " valvonta": 7888,
      "57": 7889,
      "Alu": 7890,
      "Kal": 7891,
      "malta": 7892,
      " pat": 7893,
      "usu": 7894,
      "usse": 7895,
      "altaan": 7896,
      " onni": 7897,
      " katoa": 7898,
      "käyttä": 7899,
      " Air": 7900,
      " hauta": 7901,
      "keni": 7902,
      "ikoksen": 7903,
      "konser": 7904,
      " jokaisen": 7905,
      " varus": 7906,
      "mmäksi": 7907,
      " summa": 7908,
      " sijalla": 7909,
      "Joskus": 7910,
      " avaja": 7911,
      " uskoa": 7912,
      " tuomittu": 7913,
      " menetti": 7914,
      " hienoa": 7915,
      " lenno": 7916,
      " hinnat": 7917,
      " Tukhol": 7918,
      "Mikko": 7919,
      "ze": 7920,
      "ineet": 7921,
      "istyö": 7922,
      "koulun": 7923,
      "tehtä": 7924,
      "riassa": 7925,
      "yste": 7926,
      " Kim": 7927,
      " mahta": 7928,
      " Tuu": 7929,
      " Pall": 7930,
      "estarin": 7931,
      " Vik": 7932,
      " rauta": 7933,
      " Aki": 7934,
      "massaan": 7935,
      " Marinin": 7936,
      " julkaistiin": 7937,
      " Robert": 7938,
      " sairaalan": 7939,
      " voisivat": 7940,
      " käänne": 7941,
      " mahdollisuutta": 7942,
      "kilpailun": 7943,
      " käräjäoikeuden": 7944,
      " tammikuuta": 7945,
      " poliisit": 7946,
      "-liigan": 7947,
      " Italian": 7948,
      " osittain": 7949,
      "56": 7950,
      "Ran": 7951,
      "ft": 7952,
      "vuuden": 7953,
      "iski": 7954,
      " pun": 7955,
      " sän": 7956,
      "ilää": 7957,
      "ukea": 7958,
      "jari": 7959,
      " nyrkke": 7960,
      " kove": 7961,
      " päättänyt": 7962,
      " Luo": 7963,
      "taneensa": 7964,
      " osassa": 7965,
      " päivinä": 7966,
      " arvokis": 7967,
      "paikalle": 7968,
      " kappale": 7969,
      " kahteen": 7970,
      " mielipide": 7971,
      " laji": 7972,
      " Gazassa": 7973,
      " ajoneuvo": 7974,
      " mielenkiinto": 7975,
      "Etenkin": 7976,
      "yistä": 7977,
      "östä": 7978,
      " pör": 7979,
      "ityksen": 7980,
      "ukkonen": 7981,
      "raali": 7982,
      "laitt": 7983,
      " Kä": 7984,
      "elämän": 7985,
      " tuoma": 7986,
      " arvel": 7987,
      " väs": 7988,
      " väle": 7989,
      " vankil": 7990,
      " kasvo": 7991,
      " hävi": 7992,
      "oikeisto": 7993,
      " aiheesta": 7994,
      " säästä": 7995,
      " mahdollisuuksia": 7996,
      " saapunut": 7997,
      " maksoi": 7998,
      "Niitä": 7999,
      " sisältää": 8000,
      " perustuu": 8001,
      " rahoitus": 8002,
      " naurahtaa": 8003,
      " parhaat": 8004,
      "SM": 8005,
      "Sisä": 8006,
      "Tuli": 8007,
      "neensä": 8008,
      "rosta": 8009,
      "utuksia": 8010,
      " autta": 8011,
      "toh": 8012,
      " kaas": 8013,
      " Lan": 8014,
      " millään": 8015,
      " kertoja": 8016,
      " Suomelle": 8017,
      "udin": 8018,
      " keksi": 8019,
      "tteisiin": 8020,
      "näki": 8021,
      "utumis": 8022,
      " johtuu": 8023,
      " johtoon": 8024,
      " sairaal": 8025,
      " palata": 8026,
      " Valtonen": 8027,
      "Alku": 8028,
      " herätti": 8029,
      " alaikä": 8030,
      " maahanmuu": 8031,
      " maailmanmestar": 8032,
      " työmarkkina": 8033,
      "-lehden": 8034,
      "Donald": 8035,
      "Mika": 8036,
      "cia": 8037,
      "itaan": 8038,
      "misten": 8039,
      "pla": 8040,
      "eltiin": 8041,
      " sinä": 8042,
      "tori": 8043,
      " Sin": 8044,
      " Stan": 8045,
      " sijoitus": 8046,
      "keh": 8047,
      "kesi": 8048,
      "hdessa": 8049,
      " sekin": 8050,
      " Juh": 8051,
      "olosuh": 8052,
      "loh": 8053,
      " City": 8054,
      "maail": 8055,
      "dilla": 8056,
      " ketään": 8057,
      " kunnian": 8058,
      "keskustel": 8059,
      " kaikilla": 8060,
      " puhd": 8061,
      " poikkeus": 8062,
      "lähett": 8063,
      " tiedetään": 8064,
      "-Kar": 8065,
      "Hyö": 8066,
      "Sin": 8067,
      "ecan": 8068,
      "kann": 8069,
      "vitse": 8070,
      "Ään": 8071,
      " pime": 8072,
      "oillaan": 8073,
      " viile": 8074,
      "mie": 8075,
      " Jani": 8076,
      " valitse": 8077,
      "haasta": 8078,
      " esittä": 8079,
      " tuonut": 8080,
      " välisenä": 8081,
      " ajaksi": 8082,
      " tapahtumien": 8083,
      " tyl": 8084,
      " liiket": 8085,
      " edustaa": 8086,
      " onneksi": 8087,
      " finaalissa": 8088,
      " tyyli": 8089,
      " Carl": 8090,
      " pääsevät": 8091,
      "Espan": 8092,
      "Kansainväl": 8093,
      "Leh": 8094,
      "Länsi": 8095,
      "Muu": 8096,
      "Ter": 8097,
      "Valta": 8098,
      "gu": 8099,
      "mela": 8100,
      "plo": 8101,
      "ttili": 8102,
      " muse": 8103,
      " piha": 8104,
      "itosta": 8105,
      " vään": 8106,
      "uno": 8107,
      "etyssä": 8108,
      "are": 8109,
      "säh": 8110,
      " kauka": 8111,
      " Emil": 8112,
      " palki": 8113,
      " tullaan": 8114,
      " senttiä": 8115,
      "koil": 8116,
      " myöhään": 8117,
      "ulaja": 8118,
      " opiskel": 8119,
      " autojen": 8120,
      " palautetta": 8121,
      " kaikissa": 8122,
      "udelle": 8123,
      "...\n": 8124,
      "yhdistyksen": 8125,
      " Kuopi": 8126,
      " varapresidentti": 8127,
      " cup": 8128,
      " määrin": 8129,
      " vaja": 8130,
      " Tes": 8131,
      " Tshe": 8132,
      " Pri": 8133,
      " Hie": 8134,
      " Las": 8135,
      "ettaisiin": 8136,
      " arki": 8137,
      "itali": 8138,
      " Sai": 8139,
      " Sauli": 8140,
      "ames": 8141,
      " ensimmäiset": 8142,
      " laskee": 8143,
      " pelaajien": 8144,
      " prosenttiin": 8145,
      "määr": 8146,
      " omakoti": 8147,
      " ottamatta": 8148,
      " etenee": 8149,
      "umach": 8150,
      "Yhdysvalta": 8151,
      " vähentää": 8152,
      " musiikin": 8153,
      " pariskunta": 8154,
      "...": 8155,
      "Perjantaina": 8156,
      "jilla": 8157,
      "terin": 8158,
      "viksi": 8159,
      "sas": 8160,
      " juna": 8161,
      " väärä": 8162,
      " Kurs": 8163,
      " alus": 8164,
      " teon": 8165,
      "ather": 8166,
      " käyttänyt": 8167,
      " Ferra": 8168,
      " Yli": 8169,
      " koste": 8170,
      "päivys": 8171,
      " pienempi": 8172,
      " muotoi": 8173,
      " sunnuntai": 8174,
      "-Pe": 8175,
      " vasemmistoliiton": 8176,
      "Sunnuntaina": 8177,
      "hotos": 8178,
      "cel": 8179,
      "dr": 8180,
      "daa": 8181,
      "jas": 8182,
      "kri": 8183,
      "misia": 8184,
      "vosen": 8185,
      "iseltä": 8186,
      "iltaan": 8187,
      "mahdo": 8188,
      " auring": 8189,
      "isija": 8190,
      " komissi": 8191,
      " jolle": 8192,
      " Maa": 8193,
      " Puha": 8194,
      " tosia": 8195,
      " Ven": 8196,
      " näytö": 8197,
      " tuen": 8198,
      "dille": 8199,
      " edeltä": 8200,
      " monim": 8201,
      " vaikuttanut": 8202,
      "Samaan": 8203,
      " lukuun": 8204,
      " hetke": 8205,
      " pientä": 8206,
      " paikassa": 8207,
      "Kommen": 8208,
      " muutamia": 8209,
      " suosit": 8210,
      " nykyisen": 8211,
      " ryhmän": 8212,
      " saapuu": 8213,
      "New": 8214,
      " kasvu": 8215,
      " suunniteltu": 8216,
      " luottamus": 8217,
      "Syyttäjän": 8218,
      " iku": 8219,
      " uudesta": 8220,
      "Vaa": 8221,
      "ble": 8222,
      "ms": 8223,
      "suh": 8224,
      " kyyd": 8225,
      "vah": 8226,
      " pär": 8227,
      " lien": 8228,
      " au": 8229,
      " salo": 8230,
      " lipp": 8231,
      "isinä": 8232,
      " kuluttua": 8233,
      " luopu": 8234,
      "tiola": 8235,
      " julkaist": 8236,
      "suunnitel": 8237,
      "inio": 8238,
      " tiistai": 8239,
      " parhaimmillaan": 8240,
      " vietiin": 8241,
      " tilalle": 8242,
      " lämpimä": 8243,
      " hirveä": 8244,
      " ulkomailla": 8245,
      " lajin": 8246,
      " liikkeelle": 8247,
      " ruotsalais": 8248,
      " Kanadan": 8249,
      " katastro": 8250,
      "Kas": 8251,
      "Kana": 8252,
      "puu": 8253,
      "tas": 8254,
      " tytön": 8255,
      "estaa": 8256,
      " seis": 8257,
      " malli": 8258,
      "sella": 8259,
      "itty": 8260,
      " jälke": 8261,
      " vastaus": 8262,
      " loppua": 8263,
      " jatkuvat": 8264,
      " pysäkö": 8265,
      " vaikutuksia": 8266,
      " raportoi": 8267,
      " pelastuslaitos": 8268,
      " Michael": 8269,
      "dat": 8270,
      " osti": 8271,
      " tot": 8272,
      "asan": 8273,
      " rahan": 8274,
      " maajoukkueen": 8275,
      "ttoon": 8276,
      "kunsa": 8277,
      " yhteinen": 8278,
      " rive": 8279,
      " jonne": 8280,
      " ihmet": 8281,
      "tarv": 8282,
      " tukee": 8283,
      " yllätyks": 8284,
      " saatta": 8285,
      " pyyt": 8286,
      "-kisat": 8287,
      "kilpailussa": 8288,
      " huonosti": 8289,
      " sairast": 8290,
      "-Amer": 8291,
      "ggressi": 8292,
      " pärjää": 8293,
      "85": 8294,
      "Vil": 8295,
      "sul": 8296,
      "utoa": 8297,
      "ilussa": 8298,
      " vala": 8299,
      " kovan": 8300,
      "paine": 8301,
      " parkki": 8302,
      " tulleet": 8303,
      "tteista": 8304,
      " legenda": 8305,
      " elämästä": 8306,
      " välierä": 8307,
      " vanhempien": 8308,
      " oikeudenkäyn": 8309,
      "Pekka": 8310,
      "Jääkie": 8311,
      " toisiaan": 8312,
      " tiedotustilaisuudessa": 8313,
      " Euroviisu": 8314,
      "TP": 8315,
      "eissä": 8316,
      "jistä": 8317,
      "isee": 8318,
      "vaiheessa": 8319,
      " etten": 8320,
      "onissa": 8321,
      "liike": 8322,
      " joutun": 8323,
      " Somer": 8324,
      "mpikin": 8325,
      " Kul": 8326,
      "ustalla": 8327,
      "ttuaan": 8328,
      " olevien": 8329,
      " pahi": 8330,
      " Jää": 8331,
      " näe": 8332,
      "vuosi": 8333,
      "valmista": 8334,
      " syistä": 8335,
      " far": 8336,
      " neuv": 8337,
      " jäävät": 8338,
      " joukkuetta": 8339,
      " päätöksiä": 8340,
      " julkisen": 8341,
      " tavallista": 8342,
      " kiekon": 8343,
      " Unite": 8344,
      " Verstapp": 8345,
      " Tuomas": 8346,
      "bastian": 8347,
      "-Mar": 8348,
      "tutki": 8349,
      " tren": 8350,
      " eden": 8351,
      "tillä": 8352,
      "oid": 8353,
      " sitte": 8354,
      "mättö": 8355,
      " lähete": 8356,
      " viimeiset": 8357,
      " maat": 8358,
      " minister": 8359,
      " suih": 8360,
      " seurata": 8361,
      " turvaa": 8362,
      "versi": 8363,
      " Markku": 8364,
      " henkilöitä": 8365,
      "yynä": 8366,
      " ajatella": 8367,
      " Salminen": 8368,
      " tähden": 8369,
      " neljäs": 8370,
      "ohjelma": 8371,
      " Nord": 8372,
      " surma": 8373,
      " paikkansa": 8374,
      " neuvottel": 8375,
      " mihinkään": 8376,
      "glann": 8377,
      " potentia": 8378,
      " ollenkaan": 8379,
      "Eri": 8380,
      "ehdot": 8381,
      "jilta": 8382,
      " pyyn": 8383,
      "tic": 8384,
      "raja": 8385,
      "aro": 8386,
      " koe": 8387,
      " vihdoin": 8388,
      "hdella": 8389,
      "tuin": 8390,
      " laitta": 8391,
      " Jer": 8392,
      " lähelle": 8393,
      " erikseen": 8394,
      " hedel": 8395,
      "ilijoiden": 8396,
      "yttämään": 8397,
      " kuolle": 8398,
      "yrsky": 8399,
      " ampui": 8400,
      " näyttävät": 8401,
      " kruunun": 8402,
      " kommentoinut": 8403,
      "MK": 8404,
      "Man": 8405,
      "vyt": 8406,
      "voa": 8407,
      " ajassa": 8408,
      "mital": 8409,
      "mppa": 8410,
      " vuodeksi": 8411,
      " Ph": 8412,
      " Panther": 8413,
      " aloi": 8414,
      "ttejä": 8415,
      " jättänyt": 8416,
      "piiri": 8417,
      "allas": 8418,
      " meta": 8419,
      " haastattele": 8420,
      "-Sanomille": 8421,
      "mentaar": 8422,
      " vihreiden": 8423,
      " sijaitseva": 8424,
      "Suomalainen": 8425,
      "toimittaja": 8426,
      " päivittäin": 8427,
      " uudessa": 8428,
      "öiden": 8429,
      "essin": 8430,
      "utia": 8431,
      "uoh": 8432,
      " vit": 8433,
      " jar": 8434,
      " ah": 8435,
      " vatsa": 8436,
      " kovasti": 8437,
      " maasta": 8438,
      "dell": 8439,
      "eellis": 8440,
      "otuo": 8441,
      " tein": 8442,
      "attaa": 8443,
      " Ros": 8444,
      " valti": 8445,
      " menestys": 8446,
      " ulkona": 8447,
      " nolla": 8448,
      " syynä": 8449,
      " eläke": 8450,
      "Viikon": 8451,
      " toiminnasta": 8452,
      " kaatoi": 8453,
      " suhtee": 8454,
      " uusien": 8455,
      " ymmärre": 8456,
      " kysymyksiä": 8457,
      " tiennyt": 8458,
      " merkitys": 8459,
      " iloinen": 8460,
      " musiikkia": 8461,
      "Orpo": 8462,
      " roolissa": 8463,
      "pressen": 8464,
      " sittemmin": 8465,
      "Jon": 8466,
      "pui": 8467,
      "tro": 8468,
      "sian": 8469,
      "jamin": 8470,
      "mpin": 8471,
      "anni": 8472,
      " olevia": 8473,
      " valo": 8474,
      " Berg": 8475,
      "dalle": 8476,
      " artisti": 8477,
      " kunnon": 8478,
      " yllättävä": 8479,
      " syntyy": 8480,
      " Joens": 8481,
      " arvioida": 8482,
      " asema": 8483,
      "iläinen": 8484,
      " nimeä": 8485,
      " toukokuun": 8486,
      "Keh": 8487,
      "PK": 8488,
      "Yllä": 8489,
      "dista": 8490,
      "gia": 8491,
      "moa": 8492,
      "neensa": 8493,
      "erit": 8494,
      "ussin": 8495,
      "unin": 8496,
      "rauh": 8497,
      " satoja": 8498,
      " kera": 8499,
      "veksen": 8500,
      " meren": 8501,
      " kaudeksi": 8502,
      "perhe": 8503,
      " katsotaan": 8504,
      " Kokko": 8505,
      " jatkui": 8506,
      " vaihde": 8507,
      "Yhdysvallat": 8508,
      "estarien": 8509,
      " ainut": 8510,
      "Miesten": 8511,
      " inno": 8512,
      " useamman": 8513,
      " tyhjen": 8514,
      " Sveitsin": 8515,
      " vaaranta": 8516,
      " kritisoi": 8517,
      " kapteeni": 8518,
      "Pelastuslaitos": 8519,
      " pronssi": 8520,
      " meteorologi": 8521,
      "AK": 8522,
      "Han": 8523,
      "Kann": 8524,
      "Laa": 8525,
      "Os": 8526,
      "gor": 8527,
      "jossa": 8528,
      "énin": 8529,
      "iskun": 8530,
      "salo": 8531,
      " mm": 8532,
      " täältä": 8533,
      "itystä": 8534,
      "kol": 8535,
      "arit": 8536,
      " kauni": 8537,
      "pako": 8538,
      "lamentaar": 8539,
      " maise": 8540,
      "käs": 8541,
      "mani": 8542,
      " Ab": 8543,
      " täyttää": 8544,
      " pall": 8545,
      " Nyt": 8546,
      " tuomar": 8547,
      "vuor": 8548,
      " edestä": 8549,
      " useiden": 8550,
      "ttomia": 8551,
      "astossa": 8552,
      " syytetty": 8553,
      " liikenteen": 8554,
      " Valtteri": 8555,
      " todellinen": 8556,
      "Naisten": 8557,
      " paljast": 8558,
      " kahdessa": 8559,
      "muutos": 8560,
      "Ihmiset": 8561,
      "Lauantaina": 8562,
      " jum": 8563,
      " jutun": 8564,
      "kadun": 8565,
      " aine": 8566,
      " joulun": 8567,
      "joella": 8568,
      " häneltä": 8569,
      " alkuun": 8570,
      "anneen": 8571,
      "oog": 8572,
      "hdolla": 8573,
      " Gar": 8574,
      " osoi": 8575,
      " osana": 8576,
      " bussi": 8577,
      " äänesti": 8578,
      " heitti": 8579,
      " mitenkään": 8580,
      " instituut": 8581,
      " kohdistun": 8582,
      "olod": 8583,
      "Valtio": 8584,
      " epäiltynä": 8585,
      "uloksen": 8586,
      " jostain": 8587,
      " syyskuun": 8588,
      " loukkaantun": 8589,
      " vaikutusta": 8590,
      "Olet": 8591,
      " Johanna": 8592,
      " vauhtia": 8593,
      "-T": 8594,
      "Pian": 8595,
      "pöy": 8596,
      "usar": 8597,
      "vaus": 8598,
      "kaista": 8599,
      "ikir": 8600,
      " leh": 8601,
      " kovia": 8602,
      " kaukana": 8603,
      " kakso": 8604,
      "millä": 8605,
      " Kap": 8606,
      " kerännyt": 8607,
      " HJK": 8608,
      "oitui": 8609,
      " hym": 8610,
      "velle": 8611,
      " Gro": 8612,
      " Wil": 8613,
      " muutosta": 8614,
      " jalan": 8615,
      "utkinnan": 8616,
      " perusteli": 8617,
      " pelastuslaitoksen": 8618,
      " itsenäisyys": 8619,
      " syttyi": 8620,
      " Facebook": 8621,
      "isilta": 8622,
      " myyd": 8623,
      "kautta": 8624,
      " jot": 8625,
      "leikka": 8626,
      " sauna": 8627,
      " viisu": 8628,
      " kuussa": 8629,
      " ens": 8630,
      " Hall": 8631,
      " paremm": 8632,
      " puolustaja": 8633,
      " varoittaa": 8634,
      "mmälle": 8635,
      "ilijan": 8636,
      "velvo": 8637,
      " loppup": 8638,
      "ylän": 8639,
      " huomion": 8640,
      " News": 8641,
      " näkynyt": 8642,
      "mppuun": 8643,
      " tapahtuneen": 8644,
      "Eikä": 8645,
      "Kur": 8646,
      "Ottelun": 8647,
      "dika": 8648,
      "seen": 8649,
      "isina": 8650,
      "ttit": 8651,
      "ese": 8652,
      "istänyt": 8653,
      "mmia": 8654,
      " kaveri": 8655,
      " Mel": 8656,
      " pääministerin": 8657,
      " Vii": 8658,
      " iloit": 8659,
      " korosti": 8660,
      " ennalta": 8661,
      " piil": 8662,
      "vero": 8663,
      " pelaajan": 8664,
      " autoja": 8665,
      "istelu": 8666,
      " löydettiin": 8667,
      " perheensä": 8668,
      " ohjelma": 8669,
      " menevät": 8670,
      " hoide": 8671,
      "Antti": 8672,
      "lähetys": 8673,
      " kotonaan": 8674,
      " suorana": 8675,
      " havaittu": 8676,
      " analys": 8677,
      "Bar": 8678,
      "Kil": 8679,
      "cke": 8680,
      "dor": 8681,
      "tuh": 8682,
      "isää": 8683,
      "kamer": 8684,
      "malli": 8685,
      "arissa": 8686,
      " Serg": 8687,
      "kselta": 8688,
      " mall": 8689,
      " Mir": 8690,
      " sanoin": 8691,
      " näyttö": 8692,
      "yksenä": 8693,
      "oliiton": 8694,
      " kokouksessa": 8695,
      " merkki": 8696,
      "uomion": 8697,
      "kerr": 8698,
      " yhdellä": 8699,
      "kkeja": 8700,
      " vaihtele": 8701,
      " Tai": 8702,
      " kartan": 8703,
      " doping": 8704,
      " Joker": 8705,
      " yrittänyt": 8706,
      "tikuva": 8707,
      " kahdella": 8708,
      " ydinas": 8709,
      " Mikael": 8710,
      "lääkäri": 8711,
      " Väli": 8712,
      "Lauanta": 8713,
      "-Pekka": 8714,
      "Kuo": 8715,
      "Terve": 8716,
      "uis": 8717,
      "utuva": 8718,
      "ukilpail": 8719,
      " nur": 8720,
      "llei": 8721,
      "koista": 8722,
      " Iso": 8723,
      " miet": 8724,
      " tarjon": 8725,
      " esitteli": 8726,
      "dows": 8727,
      " ylimäärä": 8728,
      " katson": 8729,
      "Mielen": 8730,
      "kkaana": 8731,
      "Pelaa": 8732,
      "kymmentä": 8733,
      " löytänyt": 8734,
      " tappio": 8735,
      " selvityksen": 8736,
      " tarvittaessa": 8737,
      " vastannut": 8738,
      "Muista": 8739,
      "ksä": 8740,
      "kni": 8741,
      " vyö": 8742,
      " amb": 8743,
      " kotio": 8744,
      " Tea": 8745,
      " valmen": 8746,
      " kuuli": 8747,
      " Cr": 8748,
      "ittain": 8749,
      " hyvinkin": 8750,
      " syytö": 8751,
      " reilun": 8752,
      "ttelija": 8753,
      " ihmisille": 8754,
      "Toista": 8755,
      " veti": 8756,
      " koulutus": 8757,
      "kkeet": 8758,
      " töissä": 8759,
      " tapahtumat": 8760,
      " yrite": 8761,
      " puheenjohtajana": 8762,
      " kaava": 8763,
      " suurimman": 8764,
      " sanottu": 8765,
      " raskaan": 8766,
      "Minun": 8767,
      " julkista": 8768,
      " käytön": 8769,
      " poliittinen": 8770,
      "Hovi": 8771,
      " perustelee": 8772,
      "puolueen": 8773,
      " kuolin": 8774,
      " Grön": 8775,
      "77": 8776,
      "Luu": 8777,
      "tajan": 8778,
      " pelä": 8779,
      " tel": 8780,
      " tytö": 8781,
      "alinen": 8782,
      " vaat": 8783,
      "väksi": 8784,
      "joki": 8785,
      " maksan": 8786,
      "tyvät": 8787,
      " pelissä": 8788,
      " ilmaan": 8789,
      "mene": 8790,
      "ettavaa": 8791,
      "matkan": 8792,
      "kans": 8793,
      " tehop": 8794,
      " yhteys": 8795,
      " veron": 8796,
      "ottavaa": 8797,
      " helppoa": 8798,
      " yllätti": 8799,
      " torstain": 8800,
      " elokuun": 8801,
      " parhaiten": 8802,
      " valmist": 8803,
      "tuotan": 8804,
      " naapuri": 8805,
      "dionilla": 8806,
      " ollessa": 8807,
      " varmistaa": 8808,
      " jänni": 8809,
      " Catherine": 8810,
      "skin": 8811,
      " oppi": 8812,
      " pett": 8813,
      " historia": 8814,
      " vamma": 8815,
      " sillo": 8816,
      " sate": 8817,
      " Los": 8818,
      "netään": 8819,
      "haki": 8820,
      " viimeistään": 8821,
      "udan": 8822,
      " iske": 8823,
      " kuulustel": 8824,
      " äänistä": 8825,
      "poossa": 8826,
      "tyivät": 8827,
      " uutisia": 8828,
      " autosta": 8829,
      " Tapparan": 8830,
      "tela": 8831,
      "gatiiv": 8832,
      " kentällä": 8833,
      " mahdollisuuden": 8834,
      "assiiv": 8835,
      " Krista": 8836,
      " Meghan": 8837,
      "yrityksen": 8838,
      " jatkossakin": 8839,
      " annetaan": 8840,
      "Nykyään": 8841,
      " aikataul": 8842,
      " hahmo": 8843,
      "isyydessä": 8844,
      "-alu": 8845,
      "Pu": 8846,
      "eva": 8847,
      "fr": 8848,
      "kisto": 8849,
      "yan": 8850,
      " Sus": 8851,
      "keja": 8852,
      " seikka": 8853,
      "ähet": 8854,
      " Hol": 8855,
      "käy": 8856,
      "olassa": 8857,
      " tarken": 8858,
      "tanja": 8859,
      " suojaa": 8860,
      "elleet": 8861,
      "kuntaan": 8862,
      " luona": 8863,
      " niillä": 8864,
      " jäte": 8865,
      " pii": 8866,
      "istuin": 8867,
      " johtanut": 8868,
      " nykyistä": 8869,
      "iskasen": 8870,
      " erilainen": 8871,
      "estyksessä": 8872,
      "kaupan": 8873,
      " muodosta": 8874,
      " jalkapallon": 8875,
      " Ylelle": 8876,
      " minuutilla": 8877,
      " parlamentin": 8878,
      " asianaja": 8879,
      "Epäilty": 8880,
      "kelin": 8881,
      "tai": 8882,
      "vaihe": 8883,
      "ikuu": 8884,
      " sadan": 8885,
      " kerralla": 8886,
      "eemme": 8887,
      "tuminen": 8888,
      " Pärmä": 8889,
      "oinnin": 8890,
      " Jun": 8891,
      " Jaakko": 8892,
      " Elo": 8893,
      " toivon": 8894,
      "ikoksista": 8895,
      "kky": 8896,
      "valtion": 8897,
      " Du": 8898,
      "allup": 8899,
      " lehdelle": 8900,
      " syyte": 8901,
      "Suomeen": 8902,
      "ottava": 8903,
      "chard": 8904,
      "Joul": 8905,
      "ymyr": 8906,
      " hankala": 8907,
      " elokuvan": 8908,
      "Perhe": 8909,
      " johtajan": 8910,
      " työskenteli": 8911,
      " Henri": 8912,
      " rikosta": 8913,
      " Bottas": 8914,
      " varapuheenjohtaja": 8915,
      "Kuten": 8916,
      " €": 8917,
      "-maa": 8918,
      "69": 8919,
      "Sy": 8920,
      "lista": 8921,
      "mossa": 8922,
      "mukset": 8923,
      "reita": 8924,
      "isön": 8925,
      " oy": 8926,
      " oire": 8927,
      "one": 8928,
      "uken": 8929,
      "ravinto": 8930,
      "ksistä": 8931,
      " seinä": 8932,
      " ret": 8933,
      " Mia": 8934,
      "sojen": 8935,
      " niille": 8936,
      "uver": 8937,
      " tunnusta": 8938,
      " hyvässä": 8939,
      "Saar": 8940,
      " kehuu": 8941,
      " vahve": 8942,
      "itoista": 8943,
      "päällik": 8944,
      " Helsinkiin": 8945,
      " tapahtua": 8946,
      "ymistä": 8947,
      " tiistain": 8948,
      "kkaaksi": 8949,
      " palvelun": 8950,
      " Kiina": 8951,
      " aamupäi": 8952,
      " kuolemaan": 8953,
      "tilanteessa": 8954,
      " kaikkein": 8955,
      " parisuh": 8956,
      " alijää": 8957,
      " Tappara": 8958,
      " lataus": 8959,
      " Nieminen": 8960,
      "olodymyr": 8961,
      " ää": 8962,
      ":sta": 8963,
      "hal": 8964,
      "tosen": 8965,
      "uel": 8966,
      "utaan": 8967,
      "isal": 8968,
      "vapa": 8969,
      "uktuu": 8970,
      " Selän": 8971,
      "lauta": 8972,
      " Kot": 8973,
      " maissa": 8974,
      "kästi": 8975,
      " sanat": 8976,
      " oliko": 8977,
      " tarvin": 8978,
      "ustin": 8979,
      "roja": 8980,
      "kyv": 8981,
      " kimppuun": 8982,
      " kevät": 8983,
      " europar": 8984,
      "Taka": 8985,
      "-luo": 8986,
      " linjaa": 8987,
      " uudist": 8988,
      " markkina": 8989,
      " Fors": 8990,
      " sukupuol": 8991,
      " putoa": 8992,
      "maattisesti": 8993,
      "Tiistaina": 8994,
      "Rikos": 8995,
      "cans": 8996,
      "tystä": 8997,
      "vosta": 8998,
      "taminen": 8999,
      "isinaan": 9000,
      " von": 9001,
      "tioita": 9002,
      "ilyn": 9003,
      "teks": 9004,
      "pat": 9005,
      " Mil": 9006,
      " At": 9007,
      " paper": 9008,
      "nettiin": 9009,
      "Häntä": 9010,
      "konsa": 9011,
      " tulle": 9012,
      " Olympia": 9013,
      "istetty": 9014,
      "allisen": 9015,
      " prot": 9016,
      " kaksikko": 9017,
      " kong": 9018,
      "kkeiden": 9019,
      "puolustus": 9020,
      "osaa": 9021,
      "utkinta": 9022,
      " hirve": 9023,
      " rahat": 9024,
      " Katri": 9025,
      "neturva": 9026,
      " sekunnin": 9027,
      "-eloku": 9028,
      "Itali": 9029,
      "myyn": 9030,
      "oto": 9031,
      "upp": 9032,
      "xin": 9033,
      "llessaan": 9034,
      "iteen": 9035,
      "etus": 9036,
      " vauva": 9037,
      "koinen": 9038,
      "vion": 9039,
      " MV": 9040,
      " lakie": 9041,
      " laitos": 9042,
      " Ali": 9043,
      "misa": 9044,
      " Eur": 9045,
      " toipu": 9046,
      " kieli": 9047,
      " lopuksi": 9048,
      " tehot": 9049,
      "usiikki": 9050,
      " mahdollisia": 9051,
      "amma": 9052,
      " tunnissa": 9053,
      " toteuttaa": 9054,
      " kiertu": 9055,
      " käyttämään": 9056,
      " presidentinvaalien": 9057,
      " väkivaltaa": 9058,
      " työskentelee": 9059,
      " Schumach": 9060,
      " Sveitsi": 9061,
      " miettii": 9062,
      "Jotkut": 9063,
      "astruktuu": 9064,
      "Aam": 9065,
      "Kaa": 9066,
      "sh": 9067,
      "uman": 9068,
      "zanne": 9069,
      "kalaa": 9070,
      " hum": 9071,
      " aggressi": 9072,
      "pagan": 9073,
      "eellisen": 9074,
      " rajaa": 9075,
      " osapuol": 9076,
      " sodassa": 9077,
      " harvoin": 9078,
      "ulais": 9079,
      "Sama": 9080,
      " ääntä": 9081,
      " Kimmo": 9082,
      " Espoon": 9083,
      " venäläisten": 9084,
      " finaaliin": 9085,
      " järjestetty": 9086,
      "Vantaan": 9087,
      " arvonlisä": 9088,
      " Paimion": 9089,
      "-la": 9090,
      "mina": 9091,
      "ryn": 9092,
      "vaaran": 9093,
      " ehd": 9094,
      "oimi": 9095,
      "ostin": 9096,
      "kolog": 9097,
      " viestejä": 9098,
      " Hor": 9099,
      "ttelen": 9100,
      " Vaa": 9101,
      " näissä": 9102,
      " suori": 9103,
      " kysyn": 9104,
      " tunnelma": 9105,
      " monin": 9106,
      " käytä": 9107,
      " keho": 9108,
      " asiakir": 9109,
      " tarkoitta": 9110,
      " uskotta": 9111,
      " liikkuu": 9112,
      " kokemusta": 9113,
      " ehdottomasti": 9114,
      " rauhassa": 9115,
      "uolella": 9116,
      "tteluissa": 9117,
      " ymmärrä": 9118,
      " tasolle": 9119,
      " Koskela": 9120,
      "ologian": 9121,
      " aktiivisesti": 9122,
      "Paikalla": 9123,
      "ikymmen": 9124,
      " diagn": 9125,
      "-tähti": 9126,
      "HS": 9127,
      "som": 9128,
      "yer": 9129,
      "kaisi": 9130,
      " sei": 9131,
      " siiv": 9132,
      "ihan": 9133,
      " Män": 9134,
      "otul": 9135,
      " paikkoja": 9136,
      " Juk": 9137,
      "uillaan": 9138,
      " palannut": 9139,
      " Bla": 9140,
      "ikotiin": 9141,
      " miehelle": 9142,
      " syyttäjä": 9143,
      " järjesti": 9144,
      "ukasta": 9145,
      "-aika": 9146,
      " juokse": 9147,
      " vastaavan": 9148,
      " havaintoja": 9149,
      " edustalla": 9150,
      " pyrkin": 9151,
      " Mäki": 9152,
      " lokakuun": 9153,
      " Vesa": 9154,
      " useat": 9155,
      " opettaja": 9156,
      "120": 9157,
      "Flori": 9158,
      "ttimet": 9159,
      "ystee": 9160,
      "ukselta": 9161,
      "ähtää": 9162,
      " Hil": 9163,
      " toistuva": 9164,
      "estiva": 9165,
      "ustusta": 9166,
      " esimerkki": 9167,
      " tuotteita": 9168,
      " puolelta": 9169,
      " iskun": 9170,
      " Savo": 9171,
      "apaa": 9172,
      "-vuotiaa": 9173,
      " pysyvä": 9174,
      "jekti": 9175,
      " osallistunut": 9176,
      " yleisradio": 9177,
      " rikoksista": 9178,
      "viraston": 9179,
      " aikoinaan": 9180,
      "isuudessaan": 9181,
      " työnanta": 9182,
      " onnettomuuden": 9183,
      " leikkaus": 9184,
      " Rovaniemen": 9185,
      " yritysten": 9186,
      "Norjan": 9187,
      " hiihtä": 9188,
      " parlamentti": 9189,
      " valmennus": 9190,
      " lääkärin": 9191,
      "lerc": 9192,
      "Juuri": 9193,
      "Rä": 9194,
      "Äiti": 9195,
      "vaun": 9196,
      " pö": 9197,
      " ly": 9198,
      " tak": 9199,
      "ordin": 9200,
      " Raa": 9201,
      " olikin": 9202,
      " oltava": 9203,
      " peliin": 9204,
      " Uusi": 9205,
      "oliitto": 9206,
      "edusta": 9207,
      " osannut": 9208,
      " kohteena": 9209,
      " keskiviikko": 9210,
      " merk": 9211,
      " Laura": 9212,
      "ostunut": 9213,
      " Virtanen": 9214,
      " käytänn": 9215,
      "tietojen": 9216,
      " lapsensa": 9217,
      " yöllä": 9218,
      " sairastu": 9219,
      "Keskustel": 9220,
      " saatavilla": 9221,
      " myrsky": 9222,
      " oireita": 9223,
      "Perussuomalaisten": 9224,
      "-lehti": 9225,
      "Lehden": 9226,
      "jalais": 9227,
      "kyn": 9228,
      " kynn": 9229,
      "ityn": 9230,
      "tied": 9231,
      " luom": 9232,
      "raha": 9233,
      "ttäminen": 9234,
      " tappa": 9235,
      "aria": 9236,
      " TPS": 9237,
      " Jos": 9238,
      "ikolle": 9239,
      " ihast": 9240,
      "kangas": 9241,
      " usei": 9242,
      " korot": 9243,
      " minusta": 9244,
      " kehottaa": 9245,
      " välttää": 9246,
      " Anne": 9247,
      " Lahden": 9248,
      " miljoona": 9249,
      " takavar": 9250,
      " autolla": 9251,
      " valtavan": 9252,
      " jotenkin": 9253,
      "ssonin": 9254,
      " valmistu": 9255,
      " rikoksen": 9256,
      " Englannin": 9257,
      "Kaksikko": 9258,
      " raaka": 9259,
      "Pitkä": 9260,
      " avoimesti": 9261,
      " mahdotonta": 9262,
      "Käytännössä": 9263,
      "sähkö": 9264,
      "Lopp": 9265,
      "Lento": 9266,
      "Metsä": 9267,
      "Pro": 9268,
      "qu": 9269,
      "isyyden": 9270,
      " pinta": 9271,
      " muuttanut": 9272,
      "yöstä": 9273,
      " olevaa": 9274,
      " All": 9275,
      " pomm": 9276,
      "ustuksen": 9277,
      "uduttu": 9278,
      "estissä": 9279,
      "valan": 9280,
      " kylä": 9281,
      " leikkaa": 9282,
      " synn": 9283,
      "vointi": 9284,
      " allekir": 9285,
      " Kivi": 9286,
      "ukoko": 9287,
      " Harri": 9288,
      "nöö": 9289,
      " lausun": 9290,
      " paikkaan": 9291,
      "poliisi": 9292,
      " normaalia": 9293,
      " rakennettu": 9294,
      " suostu": 9295,
      " viitaten": 9296,
      "Mielestäni": 9297,
      "atherinen": 9298,
      "250": 9299,
      "Presidentin": 9300,
      "fe": 9301,
      "fo": 9302,
      "häiriö": 9303,
[...]
