#version: 0.2
  ה
  ל
  א
י ם
ו ת
  מ
  ש
  ב
. 

  ע
  ו
  כ
נ י
 ש ל
ו ר
  י
ו ל
נ ו
 א ת
י ת
ר ו
 ה מ
ו ד
ר י
 ל ה
י ה
  ח
י ו
 ל א
י ל
ב ר
נ ה
ד י
ו א
  ת
ז ה
  נ
 ע ל
ו ב
י ר
  פ
י ות
 ה א
  ק
מ ו
ר א
י ש
מ ה
  ג
י ן
ת י
כ ל
ו ן
  ס
י א
נ ים
ו מ
ל י
  ר
מ ש
י ב
י ד
  ד
ו פ
נ ות
ש ר
 מ ה
ל א
א ת
ל ו
? 

ל ה
 ש ה
 ה ש
 א ח
 ב א
י ק
י ים
 ה ח
  ז
  צ
 א ו
ר ים
י ע
ב ו
 ה ע
  זה
ש ה
ת ו
ו ם
 כ ל
 ב מ
ב ל
ס פ
כ ול
 ו ה
 מ א
 ה וא
ש ים
ו ק
 מ ש
  ט
 ה ת
 ב ע
ר ה
 ל ע
ו ח
י נ
 ל מ
ו ג
 ע ם
ר ב
י פ
 ה פ
 ה ב
 א ות
 י ש
י ט
  "
  (
ר ג
ות ר
ו ע
 ל ש
ר כ
י מ
ת ח
 ש א
 ב ש
י ס
 ה ק
ש ו
ו ס
ני ת
 י ותר
ו ש
י נו
" .

 מ ע
 ה ג
י צ
נ ת
 י כול
 ל פ
 ה ה
מ י
מ ת
  רו
 ל ב
כ ו
 ה ס
 ה יא
ד ים
י ח
 ב ה
ול ם
ב ע
 ה יה
ד ר
 ל ח
א ני
 ג ם
כ ם
מ צ
א י
מ ע
 מ ס
ו צ
א ם
 מ ת
 מ ח
ט ר
נ ס
ל ק
נ ח
 ה צ
ר ח
ו כ
 מ ק
מ ן
 כ י
ש ות
ח ר
ו ו
2 0
 ל ק
מ ים
מ ר
ש ת
ב ים
ב ה
ל ים
י ית
  נו
ר ט
 ב ח
 ה כ
ד ם
נ ט
ר ת
  -
 א י
יו ם
ד ה
כ ה
 ל י
 ה ז
 ו א
ע ות
צ ה
כ ן
א ים
 ה נ
ור ה
 לה יות
 כ א
 ה ד
ה ם
  –
 א ל
 ה ם
א ה
 מ צ
א ות
ע ת
ע ה
נ שים
ב י
פ י
ש י
ל ח
 כ די
יר ות
" 

יות ר
ח ק
ב ור
ו ף
נח נו
ק ה
בר ים
 ר ק
ד ו
ע ם
 א ני
ב וד
כ ת
 אח ד
ספ ר
 ו מ
מ ות
ע ל
פ ר
 א ם
 ב ס
1 9
יל ה
 ע צ
ח ד
 ו ב
 ו ל
יו ן
נ ג
 ה ט
ע ים
ור ים
ו י
ש א
ו ז
 צ רי
 א פ
 ש מ
ה וא
ר ות
ס ט
יר ה
ש וב
ד ול
ח ת
ל ב
כ ים
 ל ג
ח ה
ב ות
 ב יותר
רא ל
פ ה
ח ות
 של ך
 מ ב
 ב ת
ב ת
יל ו
 ב ק
 כ מו
מ יד
 ה רא
 כ ך
 את ה
יש ה
י ני
י ג
כ ות
  ני
ל ת
ל ות
 ט וב
 י ה
כ ש
. .
א ו
 ל ת
ל ט
 א בל
 א מ
ר ק
 ל ו
! 

ר צ
ס ק
 לה ת
0 0
 ב כל
נ ק
 המ ש
 י די
 ה זה
ב א
e r
רא ה
י רו
ומ ר
 אות ו
 ב פ
 ע ד
ו ט
 ה יו
י י
ז ור
 מ פ
 מ ג
 של י
 ז את
 של ו
 ב ג
כ ך
 של נו
את ה
ז ו
מ א
מ ד
 ל ד
 ז ו
 מ י
 ב ב
ני ות
i n
מ וד
רב ה
 ב ין
 מא וד
ד ות
ופ ן
 מ מ
 ה יית
א בל
20 1
 ח ד
רו ן
  רא
 ל צ
 ש נ
 מ די
ו ני
פ ת
 ל ך
ה אם
 ב ד
ש ב
" ,
ס ף
 מ כ
o n
 ל נו
ול ה
 ח י
ר ך
פ ו
 ש ע
נ ד
יל ים
 פ ע
 ע בור
a n
ול י
מ ק
ט ים
ג ם
בר ה
 כ מה
 לע שות
 מ ד
 א ינ
) .

פ ק
ל ך
  די
א ר
ק ר
ס י
 ב ר
 ב ט
ע ד
ו נים
 ה ר
 שה וא
א ל
פ שר
יר ים
כ ון
דר ך
  S
 ע ו
ני ה
 ב ו
 י וד
 הא ח
יה ם
תו ך
יב ה
צ ים
 ב צ
בוד ה
 א נשים
 לפ ני
 ש ב
ק ים
 צרי ך
: 

 ד בר
ית י
 לה ג
ה מ
 כ בר
פ ות
 ו לא
 של הם
 ב ני
 של א
 ב כ
 ה כל
 א שר
 ה רבה
 ג דול
 יש ראל
ח ים
פ ט
ח ו
 המ ק
 א מר
ית ה
 ע וד
ב ד
י מו
ס ים
) 

ור ת
  A
ט ור
כ א
ו נ
ת ה
יק ה
 א ז
 מ מש
 ל ס
  C
כ נ
רי ק
יל ות
 ש ני
 ש נים
נית ן
.. .

 ב מש
רו ב
20 0
פ ל
 רו צה
 בא ופן
ק ות
. "

 ה י
 ו ש
ת ק
 א ך
a r
 של ה
 א לה
ור ך
 א לו
o r
מ ית
ס ת
בר ת
יד ע
א ז
 א דם
פ ים
 י צ
ג ר
ט י
 ש יש
ב ח
וו ה
 ש בו
ו ה
ול ים
ול וג
e n
 אח ר
יע ה
צ ע
ש ון
ב רי
כ י
 ו ע
 ש ם
 אח ת
 א נחנו
a l
רא ות
צ ת
 לא חר
 י ל
e s
 יכול ים
 ת ק
a t
 לה ם
שה ו
י ך
  M
ג ע
 ו ח
 י ד
 א ין
נ צ
 הע ולם
ר ד
ה א
 ז מן
ה ה
ימ ים
  ות
 במ ק
 ח לק
 מ ז
 ה יום
ב ק
ור ות
  T
 ש ק
 אות ם
ו ות
 מ יל
 כ ול
 נ ש
ה ים
כש יו
א נחנו
ו כל
ר ס
 היית ה
ג ד
 ל מש
די ין
ע י
 ל כל
 ב מה
ח י
ב ט
ה יא
שו ט
 ו לה
 א נו
ל ית
 א יש
 שא ני
 של כם
ב ש
 יה יה
 ח וש
ומ י
יב ות
פ ש
ור י
רכ ת
 את ם
פ ע
תי ים
 אח רים
  P
 כ ש
 ק ט
צ ב
שו נה
צ ר
 כא שר
 מ תח
 ב ל
די נה
 שה ם
ר ץ
י נים
 מ ט
  '
ופ ה
יד ה
רכ ז
פ ור
 המ ע
ני ים
 ת ה
כ נס
וד ה
h e
 ה נו
 ה רו
 פ עם
ו נה
 אח רי
 ה ל
 י ום
יש ראל
 אות ה
 המ ח
יו חד
וב ה
ומ ים
ד ת
 ל ל
וח ות
 ב נו
 כ ן
ג ל
יפ ה
י ז
פ ס
את ם
 נ ע
 ל ט
 ש נה
 למ ע
 מ וצ
 כא ן
 ב ז
לו ם
  B
 י ח
 ב ית
ד ש
 בע ולם
ני ין
א מ
א ין
" ה
 ב י
 נ מצ
ק ט
 הא מ
 הג דול
 ר בים
 ב רי
1 0
 מ שהו
 מ ספ
" ב
פ תח
רו נות
ו ץ
) ,
 אפ שר
 י ע
 ח ז
 ל כם
 מ ספר
i c
 ת מיד
 מש ת
יפ ור
 ח שוב
בו ע
מע ות
 ת ח
 ש ת
  נה
 נ ק
מ ח
 א לא
רו ם
 א ומר
 ע דיין
 בא מצ
 ר צ
 ח ש
י נה
ט ה
ב יר
 ל לא
ימו ש
 ל ראות
 ש כ
 ש ח
i t
 הת ק
  ניתן
רי ך
 ע וב
ק ת
ה ש
ומ ות
וד ים
יב ור
 פ שוט
ג ים
 אי ך
רג יש
 ד רך
ס ה
ה ח
יל דים
צ ות
 הרא שון
ו מה
ה ב
 בא מת
מו נה
מ ל
  D
 ש אתה
 אות י
 לה ב
 נו ספ
מ נו
ה ת
ש ית
ל פ
 לה שת
יר ת
  I
ל ל
פ רי
צ יה
ו ך
לי ך
וד ות
אי ך
ל ם
וד י
 לה צ
  W
 ע שו
 ל כ
 ש זה
בר ית
ב יב
מו ק
 פ י
 הז מן
מע ט
ב יל
ול ות
 ו את
 ח יים
 הש ני
 המ ס
בר ות
 ה ול
רב ות
s t
מ ור
 מש פ
 ב תח
 בב ית
יפ ול
 ה תי
 הא דם
ג ה
 א ף
נ ש
יצ ד
א נו
1 8
l e
 ה ספר
יס טור
ש ם
 חי יב
  רי
 יוד ע
  H
 ו כ
א ן
 נ פ
 בש נת
 ה ן
כ נית
ר מ
 ת ש
 המ ת
 כ ת
יצ ור
 מ וכ
יק ר
 נ ח
 ג בו
טר נט
י יה
 הח יים
רי ות
כ ר
o u
ו נות
 לק בל
 ר ג
צ וע
ה ע
 א ינו
צ י
ול יט
  G
ק ו
 באמצ עות
  L
 מק ום
 כל ל
ימ ות
r e
 שה יא
ד ור
ט רה
פ א
 ה יתה
 למ צ
ח ון
מ ס
 ר ח
רכ ים
וד ש
ל מה
מ ין
תו צ
יט ה
 אפ ילו
צ מ
ר ע
ג ור
ישה ו
 ת ע
ב רו
 א ומ
וא ה
 מ לא
 ה יח
ל סט
  R
רצ ות
 ש י
יע ים
 ה ופ
ימ ת
  [
 צרי כים
 ח וק
 עצ מ
 מס ו
 הרא שונה
יו ק
 מ וד
 ה רג
וב ן
o m
 ב דרך
ז ר
ות ו
 הא לה
 יכול ה
 לה ש
 ד ברים
 הת ח
 ר ע
 מ ן
 ק ור
  F
ז רח
נ ע
ב ס
ינו י
" ל
 ל ז
 חד ש
ק י
 במה לך
ינ לא
 ש בה
] 

 א רו
1 5
 מ וס
 ש וב
יו ון
 א נ
ב ית
ט ו
 ע כשיו
  E
ת ם
 מס וג
בר ס
ל ד
 ק שה
 נ גד
מש ך
 ה די
 הכ י
לב ד
 ב ן
 ת וכ
 פ חות
 ר ב
פק יד
  .

ה ס
ח ור
ת ר
מו ן
 ל מה
i s
 רו צים
  t
 כ מ
 י וצ
ג ו
 ב לי
 א ס
תו ח
? "

 א ית
 ס וג
ק ד
 מ כל
כנ ולוג
נו ע
לח מה
צ ל
יע ו
ל יה
ור ג
 ס ט
 המ א
רי ים
יני ים
 עצ מו
 מ וש
 א לי
 כ שה
יש י
ב מ
 ד ול
i on
ע ו
 ש ש
וס ט
ומ ת
לי ים
 ה לא
ה י
ק ס
יל ת
 הז ו
יל ד
 ג ור
כ ב
 מש מעות
, 

 ה יש
 מה ם
 פ ני
 עו שה
 אות ך
נ א
 ע סק
 ק רו
  “
ק ש
ני ס
 ה ברית
 מיל יון
e l
 יל דים
00 0
 נ ראה
 צ ע
 הא ם
 אי רו
 מ ל
r o
 אלו הים
 הת ע
ק ל
ומ ית
יו ני
כ מו
חק ר
in g
19 9
תו נים
 מ ידע
תי ד
 ש ונים
 הט וב
א ח
נו ן
 ס פר
ח לט
 כ מעט
וד ם
 למצ וא
 ר בות
 המ צ
יח ס
 בל תי
 ס י
 במש ך
 לה ע
כ מה
נ ם
נ ן
 המ דינה
 הח ברה
ש תי
 הש ת
דו בר
1 2
 מ נה
יא ות
מ פ
 נ ת
ב נו
י די
 ע בודה
  N
3 0
ינ טרנט
וא ר
 במק ום
מש לה
רג ון
e t
 ה רי
ד בר
 לד עת
מ נות
ה פ
 הז את
כא שר
לא חר
 להשת מש
 ש תי
 ב תוך
ב ול
 ל כך
א לה
 כול ל
לו ט
כו יות
וח ר
ינ ג
 מ וע
 ס פ
o f
ר ש
 ק בו
 ש ום
רג ע
 א ה
לי ט
רט ים
 ב מו
 יוד עים
ל מיד
 א ד
ז ק
 ב רח
רו נה
" אני
די נות
 מא ז
ג ות
 לה ח
 מ בו
ינ ת
  O
 היית י
 תה יה
 פ רו
רא ש
 חוש ב
ג ת
 בש ביל
 בט וח
 בד יוק
 ח ס
 בצ ורה
ט ח
 אח רת
שר ים
a c
ז את
 כ פי
כ ור
את ר
 לה תח
רב ים
i l
 בה ם
 בז מן
 כ זה
 על יו
יית י
 א ש
יב ים
" א
 ב יט
רו ש
רי ה
 כ ה
 י ת
מש יך
ז רה
כת ב
 במ יוחד
יסטור יה
 ו ס
 נ כון
 הע בודה
 לג בי
פ חה
ור ק
 במ ח
פו ך
רי קה
מש ים
 בע לי
 ו פ
ג ש
 לע צ
כו נה
 מספ יק
י ף
 ק י
 מא שר
 מש חק
o l
נס ה
 ו ק
 הש נה
 דול ר
e d
 שא נחנו
 טוב ה
 במ ע
 ה לי
 בה ת
ול ד
 הע יר
 לה כ
 הב רי
ע ר
 האמ ריק
 י ק
רו א
א פשר
לי ח
וק ים
 מ נת
 ב יום
 נ ס
ופ י
 ב יק
מו ך
 ב לבד
 אות נו
 בג לל
 ו נ
י כ
 א ור
 להג יע
 ק צת
 י חד
ינ ם
וד שים
 הד ברים
5 0
ג רים
 ר ש
 הד בר
 ק ל
 מ ור
 ני ס
 מ תוך
 ה וד
 להב ין
ג יע
 ש אתם
מ יים
 ה ני
a m
 ע ומ
 לפ ע
 וה וא
א ך
 ה תו
מי נים
ה ו
וב ות
 ש עות
 נ א
 אינ ם
 י מים
  ,
 ל זה
שר ה
 ב ישראל
 מ ופ
 הח ד
י ין
יב ל
ר פ
ות ה
” 

1 7
 מ וג
 מ כן
 הה ת
כול ם
ס טר
 אח רות
ספ ק
ה ק
י מה
ל מ
 ו גם
יא ה
 א ולי
 מ וז
 לה ס
 ט בע
 ש ירות
 ה ור
ל כן
 כ סף
 נמצ א
 ה ו
1 6
 מת ק
o o
 ש מע
רג יה
ס ם
ע וד
 ח ופ
 או ה
ד ל
 או כל
 ו מש
רכ ות
 כ ולם
 א ב
 לפ חות
 אי נה
c h
 ת וך
שי מה
 עו שים
 הא ירו
מר ות
שוב ה
 המש פט
a s
יט ת
 הל לו
 מק בל
 ל מו
כ ח
 הש ל
 הב ית
וא י
1 1
 ד ו
 הב יט
וק ה
an d
 מע רכת
 ח ברת
 לק חת
 ו אני
 פ ת
מו נות
 כ יצד
ב מק
ז יה
 מ יו
יק ט
ס יה
 הא רץ
מ ט
יח וד
 נ שים
 לע בוד
רב ית
 ת וכל
 לת ת
ל ון
 שה יה
ופ ו
 ק ש
 המ ט
 רו ב
ה צ
כ ס
ינו ך
 לל מוד
 מ זה
 לד בר
 ה ספ
 הפ ע
 יד ע
ש ל
א ולי
ח לק
 ש יע
 ב די
 במ ס
 ו על
  of
 מ רו
יל י
נ תי
ר פת
 פ ר
ית וח
ד ע
צ רים
פ ון
 ש ימוש
 ה דרך
תוצ אה
א ב
ל ע
  /
 לע זור
יב י
 רא ש
 הח וק
יו נות
' .

נ ראה
 נ ות
ק ב
 ו זה
 נ שא
ז ון
צ ריך
 מ רגיש
 הא נו
כת וב
 נ ג
ג ון
 גדול ה
 מ ול
שב ון
1 4
 ל ומר
 בע צ
יד ים
 הא נשים
 ו ג
נה ל
 המ וצ
לו הים
1 3
ור ט
 ד קות
יס ט
 אפ ש
ה ג
ת ים
 הרא שו
 א רב
 פע מים
en t
 ק רי
 מע ל
 הח לט
 ה לב
 מ תו
 הש נים
 נו סף
 ב תי
 פ ה
רכ ה
 ק ול
 המ משלה
וס ר
a d
נט ים
 האח רון
 ח יו
 ל יצור
 מ ישהו
ד ק
 לפ י
 מח דש
 ת א
 רו אה
a y
 לע ולם
 ה כול
 פ רי
 הב א
ר ם
 ב תו
 של וש
ומ יים
 לב ד
 ש כל
 הנ ש
לח ה
פ ילו
 בפ ני
ופ ים
 מצ ב
כל ה
 קרו בות
 פ רט
ז יק
 ס יפ
 מ וק
 ש נות
 הח ל
 גבו ה
כו נות
 ע ש
 ק שר
יע ות
ב וא
 א ופ
בנו סף
 נוספ ים
 הע וב
 מק צוע
ו יות
 מ תי
 חד שים
 ת ג
וב יל
 צרי כה
ה ול
ינו יים
 יה יו
ג רת
נג לית
" מ
וני ברס
י נית
רא ו
 ס וף
 ת חת
ור יה
 יל ד
 ח מ
 שה ת
 פע ולה
 ב יצ
מ רי
 כ וח
ומ רים
 ל ר
 בכל ל
 הק ט
1 00
 לב ית
 אז רח
 ח ודשים
שי ג
ו נג
לו ח
 בע יקר
 ו ד
 שא ין
 מע ט
 ז ק
 בתח ום
ה מש
 מס ת
 ש ונות
 צ ורך
ס ון
 הב ע
 לה פ
 ח בר
o w
כ די
בו צה
 ג יל
וע ל
 ס פק
מי כה
ב נה
 הפ לסט
וג מה
 ב רו
" ח
ב כל
 ר פ
i v
ד מנות
i g
בל ת
 כא לה
 ש מו
יח ות
יס ה
 ו מת
ימ י
 הב ינלא
 ח ל
א לי
 הח דש
יח ד
 T he
 או הב
 מ יוחד
 ס רט
שר ת
מ נים
ופ ת
 א צל
19 8
מ תי
 ק ורה
לק ט
ז ם
 בע ל
 ברח בי
o t
 הש פ
 ש פ
 ו מע
” .

 ס ביב
ינ ט
רא י
 קט ן
 ה רכ
 כ גון
 פ רס
 רו ח
 ש נת
 ר כ
ס וף
נט י
 מדי נות
ב יבה
ד רה
 ו מו
 בס יס
 חד שה
 ש מש
וכ ר
 כ יום
 המש חק
 הג וף
 ה ילדים
 ב אתר
זה ו
ז כ
 בש ל
ה יה
 ש ונה
 וה ת
לח מת
 לל כת
ע ש
למיד ים
 ו י
 ת וצ
 עוב ד
לו וי
ק ור
 מ ים
 ב כך
2 5
i d
ל מרות
  V
יש ים
א נשים
 פ וליט
 הע סק
 מ וח
ס יק
 מ רכז
 לת ק
 ו מה
ור ר
נס ות
וו יר
u s
ט וב
 א רה
 עצ מי
 ו כל
 המ וד
בו קר
 ה רצ
כול ת
 ל נ
א מר
 לא ח
 לש מור
ל תי
 הא ד
וו ים
וצ יא
19 4
  U
ב ין
ג ן
י ץ
 אח וז
בש נת
 מ ר
ה ל
  ?

 לה שיג
מצ א
רו יות
… 

 מפ ני
19 7
 ממ נו
 בר ור
ק בות
 למ ח
צ ו
לוט ין
יש אר
א ף
 ק ר
רט יס
ב יא
 לה פוך
4 0
 וה ח
ס ל
 מב ט
מוק רט
ש ני
 לק רוא
 מה מ
יט ב
רכ ו
וד ת
 לח לוטין
.. .
יצ וב
כנולוג יה
 לה י
 לש נות
 שלו שה
 יד וע
 t he
א ית
 ת פ
מו ש
 מ ו
 לב ין
ש ורת
 ש בע
יצ ר
יש ות
ני ק
כל ו
יק ום
ס ית
בו ק
 ש נו
 ש יו
רו ע
 ת רו
וד ית
שר ות
at ion
ז ל
די ר
 למ ק
 לב צע
כ ני
 מ ומ
 הט בע
 שא נו
 טוב ים
 ש ג
רח ב
א ס
טר ות
 הא ל
 המ וע
 הע ל
 נ ור
 מש ום
יפ ות
ע כשיו
יר אן
" ר
 מ כו
 לא ורך
 הא יש
 כ כל
 מא פשר
a g
צ יות
פר ס
 כמ ובן
וס יף
 ת לו
וס ים
 לח שוב
 בע וד
א ג
ד אי
 הב ח
ב ן
 בא זור
ז מן
ל פי
 ו בע
 הה ש
לפ ני
 ק ודם
19 6
מוד ד
 בק רב
; 

 להת ק
 בת ק
 פ ור
 ח יי
 כ דור
יה יה
 אמ רה
 את כם
 אל יו
 ג ל
 ס ימ
 בח יים
 י וכל
u t
א ט
ופ ר
 הול ך
מו ע
 נ כנס
לפ ון
ת ף
ול ט
יח ה
כ נה
 לח יות
 ב נ
u r
כ יצד
רב י
שא לה
ו ון
. [
מ נה
רא ת
 עוב דים
 מא ד
 בש ם
אח רי
נו עה
 האח רונות
 מ יד
דר ת
ו יים
רו פ
 השני יה
 ו יש
נ אי
 ל וק
 ט יפ
 עשו י
 א רצות
 מש נה
 בש נה
ד ן
רח ק
נ אים
 הג יע
ז רת
 ר בה
 הח ש
 בא ותו
 הס רט
נג ד
 גבו הה
לווי זיה
מ כ
 ה נה
 מג יע
כא ן
 המ רכז
 ז כויות
ב חר
ו זה
 על י
וח ים
 נ צ
ה ליך
 ו עד
ט רי
 I n
ית ים
ט ג
וז ר
ול ח
לק וחות
 הא מת
 הצ יבור
 ד ור
 רו אים
 נוספ ת
ש בים
 בי די
 ח ברות
כל י
ק שה
 מ דובר
 בע יר
' י
 י ורק
 ל ימ
' ,
i r
וב ת
 כת ב
 ע בוד
ס יס
 מח קר
 ש מת
 ב ינלא
 ול כן
 מע ור
 מ נו
ע תי
ב ני
רא ים
פע מים
יפ וש
 כ ח
 המ צב
ירו ש
- א
יה ן
וב י
לו ו
 עצ מה
 אמ ריק
 לה סת
מה לך
 ש ומ
פתח ות
6 0
 ת צ
 הא ו
מש ל
ט ל
 פע ילות
 עצמ ם
 הגדול ה
רו ג
 ת ת
וצ ה
ה ילה
 להתח יל
 ה רב
 המ שת
 בע יות
 למש ל
 ק ו
נצ ח
 פ לסט
 מש פט
 לח זור
 המש פחה
ני ח
מ דה
 הק ש
יו ע
  ...

י רי
  J
ט ון
 ב רצ
t er
א חד
 ל יד
רא לי
 לע תים
 אומ רת
ב לו
ס ר
 ש ט
תוצ אות
 על יהם
מנו יות
 ב ספ
מ ך
 חד שות
ברי ו
נ ר
 ל רו
 וה ש
 לג רום
 א כ
 מ וב
וד נטים
ק ול
 ש ינוי
 מע בר
 בנו שא
i m
2 4
צ יפ
 מש ק
בל ות
 לה משיך
 ק רה
 בג יל
 ל תוך
 ש ית
 מ שר
 ב יני
 S t
יא ון
 וה יא
 מב ין
רק ע
 מא ח
ע בור
 ד ומה
 הע יק
 ברי אות
 מה ר
ה ד
נ דר
 לב חור
וכ ן
 הע ול
u n
 ש ר
 המ ידע
 וה מ
ס ס
u m
 מד וע
ופ ול
וע ים
פ ג
 ת פקיד
 מ רג
 ק לי
 בע יה
 הג בו
ז ע
 משת משים
 הפ ר
ופ ות
e c
 ת יא
יד ו
 וה א
 למ רות
  p
  s
וב ל
כ שה
וא ל
 יה ודים
 אומ רים
ו וח
י יס
 כ פ
ני ברס
 מח וץ
 מדי נה
 ד יו
ה וב
 ו ט
 כא ילו
 פ ג
כו י
ל מע
 כל פי
 לג מרי
ש ע
  f
 וא ז
 למע שה
ב ורה
ט ניה
 מ ות
פס יק
י נות
 בע בר
 הע צ
  :
ול ת
 ט ע
מד וע
 החד שה
 ט יפול
 אות ן
 ני צ
ש וא
 לש חק
יג ה
רמ ניה
 ש ס
מוד ים
די ף
יד ות
 פ ל
 חייב ים
 הס י
 מק ור
ש אים
 א ג
 ב זה
 וה ם
 וה ע
 הר ע
בט יח
 י פה
וק ר
 שבו ע
 בא ירו
ה נה
 שמ ח
 מ בי
 הר פ
 בס דר
 המ ג
 ח ברים
 שה ח
ק רים
 בא רה
 ל רא
 האח רונה
" י
ש בות
 רא שון
 נמצ אים
 ו צ
יפ ים
וד ל
די ניות
, "
 ב רא
נ רגיה
 מ את
 כ לי
 י ס
 ק צר
 הצ ד
רח ש
 א צ
 בא רץ
ולוג יה
לי ק
ט ית
מ ול
יב ית
בל תי
יג ים
נו ק
 נ תונים
 בה חלט
מ יות
 ל ספק
מש ת
 ה ילד
 המ כ
 לא נשים
 מיל יא
 שי כול
 הצ ע
  K
ל ול
 המ וס
 ח ול
 בא י
 מתח יל
  c
e m
וק א
 לצ את
 הרו ח
  d
א ור
 למע ן
 ש חק
נה גות
ת ג
נד ון
 להב יא
 למ נוע
 להת מודד
ה בה
 ק יים
 ה וצ
 צ י
 מא ות
ה יום
מ לי
 ג ר
 ש על
 ע ולם
 על ינו
יב ת
 בע ת
רי ז
 הע ם
- ידי
 ש ות
 אה בה
כ ום
רו צים
 מה ע
נצ יא
 פ ול
 הב אה
 ל רכ
מ בר
חר ות
 אל ף
 כ נראה
 נע שה
מ ובן
סי יע
ל ס
 ב לו
 כ עת
ב לה
כל ית
o c
 ה יטב
 המ אה
 הא ינטרנט
רא מפ
 ס יפור
! "

ב צע
 ג ברים
 הת א
 הברי אות
רו ך
יק ים
וו י
ב תי
נס ים
 מה ח
רוש לים
וא ז
 הת ג
מו צע
] .

פשר ות
 ל כתוב
 מ נסה
 שה יו
 אי כות
 ה נח
 ק יבל
 יוד עת
ל ג
 איש י
 בא ינטרנט
 מש א
19 5
o s
 תוכ נית
 ע רך
ה ט
 ע מו
 וה פ
 מ כך
 המ ל
 מע ולם
ב אי
ה מו
 המ ה
 להג יד
א ולם
ב מהלך
 המ לחמה
 מא וחר
ור ד
 המ וש
 נו ס
רו נים
 לפ ג
er s
 לא כול
 הש ק
 מ מה
לי טה
 ד א
יצ וני
וט נציא
 מד ע
  and
שב תי
" כ
 ול ע
 המק ום
r a
 שנ ע
 א רג
 הב יתה
 לש א
 מש ות
 ט וע
 יכול ות
 המ חקר
 ק יב
 הפ ס
 אי זה
 ו לח
 וע וד
 מסו ימים
ה כ
es s
כו נים
 ול ש
על ות
פור ט
וב ע
פ וי
 צ בע
 ה יע
ופ ט
 ט ר
 מת ע
 מתח ת
 בהת אם
 אנ שי
א ק
פ ח
 כ ב
רו ס
 ח וו
 לה ק
 ע ניין
ב יע
ל נד
מ ם
 ו כן
מא ז
 במה ירות
 ע שה
 י ג
יש ית
" זה
 מח ו
 לק נות
ז ים
וד עה
 עשו יים
ית ר
 לע צמ
בע ה
 אינ ט
נת ה
 הה ג
 מז ון
 ה יד
 ש וק
 הא י
יית ה
 בס וף
 הראשו נים
יט ות
 היה ודים
  m
 י ית
 י יש
רא ית
 צ בא
 היח ידה
 עסק ים
  Y
נ דה
 המ ד
 תה ליך
8 0
אמ ין
 למ ד
 היח יד
 מ דו
 לה רגיש
 בא ותה
 מ ני
 שה ע
 לע בור
 ל יה
רי ון
 מה ש
 משפ חה
לקט רו
2 1
ט ות
 ח ברה
וא ם
 מ דה
 חוש בים
 המ וח
ש בה
 כ וחות
 ת רבות
 ר גע
ג וד
 לפ ת
 על יך
 הפ ך
ד יו
רו ק
זו הי
. .

ח וק
בו ם
 הפ וליט
a b
רא לים
 ב ינו
 מסוג ל
 ק צ
תח יל
 לב נות
 להי כנס
- ה
 ד רכים
  b
יש ור
בל ים
 התע ופה
 תוכל ו
 ה רח
 מ לחמת
 ע ולה
 הה צ
 אמ ית
מ יה
 כ מות
 לש ם
טר ף
עי ף
צמ בר
 מ יני
 מא מין
נ די
 של ום
 לה ישאר
 מת כו
 נ מ
 על יה
ניה ול
 הביט חון
כול נו
ת מיד
ני יה
מצ ב
" ש
 הש ימוש
 הר ש
 משת מש
t h
 שה מ
ז ב
 פ רק
 ג ישה
 ה נס
 ת כ
 גדול ים
 הב ט
 הז דמנות
ו נית
ה ייתי
נו יות
 ז וג
 ע ק
 במ דינה
 מיליא רד
י ינו
 ת ומ
לי חה
 הצ בא
7 0
בר תי
נק ים
 קט נה
ד מות
 וא ח
 להג ן
 א ק
 מד ברים
פ ן
יל ום
 מסו ים
 אירו פה
 ש את
 ע ור
i a
פ וס
 ש יח
 ת וש
רו ח
 הא ינ
 ב יחד
 המ וז
 נ מו
לי טים
 לש לם
רו ץ
א ום
 הא תר
 ח ודש
 הפ רט
 אמ יתי
 אוה בים
ו שר
יש ון
 הש בוע
c e
 א רגון
 פ וע
שי יה
צ ית
 נ ד
 ק רוב
שא ר
במ בר
2 2
ז רו
רי כה
 הא לו
 הע תי
 הה ז
 ממש לת
. ”

 ל נסות
 ח ק
ספ ים
 משמעות י
 עומ ד
o p
א לו
ז יר
שו יות
 אפש רי
ס ור
ת ן
ני ינים
 המ דינות
 הא ור
 ס ג
פ יע
 מק רה
 מד בר
א רק
ו מו
לו ש
 אמ ריקה
 למע לה
 גור ם
 א וב
 ר שת
 הפ עם
 מב ח
  w
פ יה
וב ים
 ס יבה
 לרא שונה
מק ום
 ו יותר
רו יקט
 הי ינו
 ד ם
 שה א
 צ יבור
ט א
ר ית
 פ נים
 די ן
 ק וד
 הדי ן
 לה ימ
 פ ס
ומ יות
 הב אים
כש יר
ל מים
 ל ילדים
 מדי נת
 שבו עות
ח ית
 כ דאי
 במ צב
 מא מינים
 המ ים
 שא לות
 עצמ ך
 הא וויר
 הכ נס
 הנ תונים
נש יא
 את ר
 ז וכ
 חז ק
 הנש יא
למע שה
 ל תח
 הש ם
 הט ובה
 ת ופ
 בע קבות
" לא
 ש רי
 נ דר
לו שה
תח לה
 היה ודי
 נוספ ות
פ ול
ש יים
 ב וד
חר ת
 מ נ
 ו בה
 הא ש
לח ת
 בנו גע
ב ולות
ג יט
 ח וסר
 צ ד
מיד ה
 אית ו
u l
ה ר
ע בר
פ חות
צ א
תו נה
וח ה
 הק רו
 בא רצות
 ט י
פ שים
 ש יהיה
 מוצ רים
r i
 ז מ
 לש מוע
 תק ופה
2 3
ח דים
פ ני
 א ישה
 לע ומת
 קט נים
 שבה ם
 ע ול
 ע יר
פר ק
 ממש י
o v
 ה וכ
 כ כה
 לק וחות
ירות ים
" ם
 הא וכל
יכ רון
' 

יק טים
 הח ולים
 לח ץ
ו בר
 ל תו
 ש צריך
ומ ד
 הח שוב
 איש ית
 ה וק
 ו לק
טר ור
 הנו כ
 כל לי
 הת פ
רג ל
 מב לי
  in
כ תי
 כ ות
 י רושלים
 נ ט
 ממ נה
 במק רה
 כ רטיס
 הק רי
 ל וח
 ש נק
 ש ווה
וד ו
 לה ז
מי נה
 בת ור
 מלא ה
 ה כו
יד ת
 הס יבה
 בעצ ם
פ עם
 שא לה
 בה ן
 מדי ניות
 יוצ א
ig h
ה ן
 ת י
ומ דים
יד ן
וע ה
 הק ור
 הבע יה
יי ך
 רח ב
 לפע ול
 א ולם
 הש אלה
 ז כות
 האח רונים
 מוכ ן
ה יו
ע ון
 ל ספר
 ל נק
 ניס יון
ז ית
 ר כב
 ד עת
 צ פו
 הבינלא ומי
ד ון
 שה צ
a p
 ל ישראל
 שה ש
 ני הול
 א נג
 ח ברי
לי ף
 בש בוע
בע ות
 כ זו
 הט יפול
 א יראן
יל וב
 מע רכות
 מצ ד
ולח ן
 אל פי
 אנ רגיה
 תוצ אות
 באירו פה
ת ית
 ה לו
 צ וות
כנ ן
n e
ז וב
 כ וכ
 מה א
ל ין
 לע מוד
מא ס
 דו וקא
 המ לא
 לש פר
 ש צ
 ת מונות
 יה ודי
 ש בא
 ש גם
לו נות
אי זה
סי כול
ב ג
 ה ים
תי יחס
 הכ סף
  —
T he
ח ם
ל פעמים
 ע בר
 ע רב
 הא זרח
 הג יעו
 התי כון
 משר ד
ב ירה
 ל שים
 מ וט
ור ף
 י רי
ופ ש
 הס יפור
 מק ווה
19 3
 הופ ך
מו נים
ב צ
 ע תי
 ע מד
מש ו
i e
כ יר
ר תי
ני סט
ומ ט
 מת א
יש ת
ילו יות
 חוש בת
" אנחנו
9 0
ספ ת
 הה יסטוריה
על ם
חי נה
ו נת
ח תי
ית נו
 ג ופ
 או ניברס
דר ות
סיכול וג
ור ו
 הא ופ
 ומ ח
 אמ רו
ט מבר
 א יט
 כ לום
וג ל
 ני ו
ת ודה
ו וא
ז יקה
ש ום
 מ זו
it y
כ בר
ע לי
 ש תו
צ יב
 א זור
ומ ן
 הק וד
 מאח ורי
ה כל
 ת מ
כל ומר
 מה ת
רכ י
 הס ת
 אמ א
חלט ה
א ש
 לא ור
 בק לות
 ש ניתן
 ט ראמפ
 נש מע
דו מה
 אוה בת
 מקבל ים
ו נו
 ה וג
 מה ס
 הק ד
לט ון
בוא ו
o g
ג רי
יב וש
 אפשר ות
 למק ום
 מ לחמה
 ח וז
 שה ג
 במ צ
 בש וק
 נו שא
 נש יא
 ה יצ
 ש וא
יו נים
 בש נים
וס ייה
5 00
ה רי
 על ול
es t
 ספ רים
ו יח
 לה יפ
בע ת
ברו אר
 א יב
 ע וצ
ית ונ
יד או
 מג יעים
א יפה
וש י
in d
מ חה
 צ רפת
 לפ תח
 לג לות
ה דבר
 א כן
 לה בטיח
 מי יצ
 קבו צה
 טבע י
 ת ס
לו ק
 הצ ה
 בפ עם
 כול ו
 השל ישי
מ דו
 ס ין
 לע יתים
יט ר
טר ת
בט חה
ל מי
 א מת
ני סה
די ים
 או ו
in e
ש לום
פל גה
 כ ע
 הב סיס
 שא פשר
ָ ה
 ו רק
 י וש
 ח מש
יד ול
 היש ראלי
כ יום
מו ס
 בא וק
 שא ינם
 הס ט
 וש ל
 הגדול ים
 הא ס
 הי כולת
 המע רכת
 לא דם
חו ץ
 נות ן
ד ברים
י כול
כ בים
 מצ ו
 תש ומת
2 6
 ש עה
 ח ג
 מע וני
 יק רה
יל וס
 בס ופו
 ארו ך
 לבד וק
 א ודות
 ב בוקר
 מא יתנו
 וא ף
מק ד
a v
די רה
 השפ עה
מ אות
רו ד
רי כים
 וה צ
 הק ול
טו בר
 ב וח
 או ט
יפ ורים
2 8
 הד רו
 המוד ר
א פילו
 ב יד
 ב נק
 לה יר
כו נית
 ה ימ
 ל כן
 המ שי
 ח ולים
מי חה
מ דובר
ות ם
 ת מיכה
 פ יז
בע יה
טר ך
 הנ כון
 לצ ד
 המ בו
 מנה יג
שת ה
נג דות
 בע תיד
 למ ס
 נמצ את
 נק ודות
 צע ירים
מ כים
 הטוב ים
כ ניות
ל ש
 א יפה
 המ פ
יצ ה
נט ית
 ארב עה
3 5
א ד
פ יים
וב דים
 ק רא
בו ש
 נשא ר
- מ
ק רא
 י יע
רי שות
 ס מ
יב ורי
אי רו
 מכ יוון
2 7
 ש יק
 ו מצ
 ח ת
 נ פר
 ס פורט
 יצ א
 א מצ
לק וח
 רח וק
  נית
ס קה
 המ נה
מו יות
 הח לק
יע י
 וה ג
 ארב ע
! !

ח שוב
 ת יק
 להע ביר
מ דים
 ב לב
 לה ור
 שא נשים
 הל ילה
 מסוג לים
 קבו צות
 מוק דם
 תלו י
ה ז
ינ נס
 לש עבר
ou r
 לפע מים
כ וח
ס ות
 ב בר
לא ות
 מג וון
 אינ טרנט
 הג רמ
 לאח רונה
ב אות
 מ רי
 בא וניברס
בו צות
ספ רים
 הה ס
 מצ א
 ש ינויים
יש ורים
 בע יני
וג ה
 הפ ני
 בס רט
 המק ור
ירוש לים
ש בו
וד אי
יב ו
נצ ל
 המ דע
מו ם
וע דה
 העל יון
' ר
 מ ראש
 ע וז
 האירו פי
a k
 ט כנולוג
 חז רה
ק רי
 ה בו
 שא ם
 ל סייע
די נת
i f
n d
 ה וש
 מ ילים
בע ים
o d
 ה בר
 ח יל
 חי יו
ל יות
מ ץ
 ש יר
 ש כן
יט ים
שי מוש
לח ץ
 להת ע
 העוב דה
 המ ון
 ז כ
 ב יו
 ולא חר
 הלא ומי
 מ מוק
 ב ראש
ור א
רג ה
 ומ ס
ט ן
 ת נו
ימ ס
לק ת
יל יא
 וא פילו
 ל נצח
 ב פי
 הח לו
 הק הילה
בד ל
ה תח
ע דה
ת נו
רא יתי
 בא פרי
 במ רכז
יס ות
 בח ברה
זו נה
 בר שת
 כ יוון
 ח צי
וג וסט
יס בוק
 הק שר
 אל יה
סק ים
ar d
 הק בוצה
 הכ וח
מוקרט יה
ב דרך
ק סט
 ע נק
וס ף
 הנ פ
לד וגמה
 תרו פות
מ חים
 ה ישראל
 ה יסטור
 לב קר
ד יה
וד א
 הס כם
 פת רון
 יית כן
כ נת
 א ר
 ע זרה
iv e
 בינו אר
א רי
ק וב
וב דה
 הא רגון
 לש ימוש
al l
ית ון
 מסו ימת
במק ום
א לא
יק ור
 האח רים
 במס גרת
צ רו
 בח ודש
 בני ו
 חס ר
ז ורים
ל ץ
מ ספר
 ה יר
 הש מש
 בע צמ
 הג ור
מע רכת
19 1
 בר מה
 אחרי ות
 יח סים
 אס טר
 יוכל ו
ו נס
ת ות
 ה ינו
 מת אים
 מפ תח
 מכ יר
 משפ חת
igh t
ד מנויות
 א בא
 ק בוע
 ס ק
 הש חק
 שכ בר
 לז כור
" ג
נה ג
 הנוכ חי
א ינ
וא ו
 מה ן
 הע תיד
רג ו
 מח יר
 קי ימת
ל מת
 ת ודה
 לע בודה
 הפ ל
כו הול
 תוכ ניות
 צע יר
 לשא ול
ב נות
 ל תי
יו ס
די מה
וש ת
 נק רא
 להכ יר
נ שי
 ש ד
 ש רו
 ע בד
 ס וכ
 ז יה
 אמ ור
 ע שר
 המ לך
 הח מ
 כל ומר
רח ים
 C h
 ו ו
יו נ
 ג ד
שו ואה
 חש בו
כ פי
 ל ני
 יש ירות
 לצ פות
 גדול ות
כנ ע
 האמ יתי
 האד מה
 במ אי
 בע רך
 הפ ת
 לב וא
המ ח
 הרכ ב
ד ית
כ מובן
 י א
 לא פשר
יפ ת
יט י
 לח פש
פי ין
 וב א
מא ל
oo k
 מ מו
 ו בר
 הס כ
 טוב ות
פור סם
 משחק ים
 המוצ ר
" ?

o b
וא ני
 הח ינוך
 היה ודית
