{"\n":0," ":1,"!":2,"\"":3,"#":4,"$":5,"%":6,"&":7,"'":8,"(":9,")":10,"*":11,"+":12,",":13,"-":14,".":15,"/":16,"0":17,"1":18,"2":19,"3":20,"4":21,"5":22,"6":23,"7":24,"8":25,"9":26,":":27,";":28,"<":29,"=":30,">":31,"?":32,"@":33,"A":34,"B":35,"C":36,"D":37,"E":38,"F":39,"G":40,"H":41,"I":42,"J":43,"K":44,"L":45,"M":46,"N":47,"O":48,"P":49,"Q":50,"R":51,"S":52,"T":53,"U":54,"V":55,"W":56,"X":57,"Y":58,"Z":59,"[":60,"\\":61,"]":62,"^":63,"_":64,"`":65,"a":66,"b":67,"c":68,"d":69,"e":70,"f":71,"g":72,"h":73,"i":74,"j":75,"k":76,"l":77,"m":78,"n":79,"o":80,"p":81,"q":82,"r":83,"s":84,"t":85,"u":86,"v":87,"w":88,"x":89,"y":90,"z":91,"{":92,"|":93,"}":94,"~":95,"":96,"":97,"":98,"":99,"":100,"":101,"":102,"":103,"":104,"":105,"":106,"":107," ":108,"¡":109,"¢":110,"£":111,"¦":112,"§":113,"¨":114,"©":115,"ª":116,"«":117,"¬":118,"­":119,"®":120,"¯":121,"°":122,"±":123,"²":124,"´":125,"¶":126,"·":127,"º":128,"»":129,"¼":130,"½":131,"¿":132,"Á":133,"Ç":134,"È":135,"É":136,"Ë":137,"Î":138,"Ó":139,"Ö":140,"×":141,"Ø":142,"Ú":143,"Û":144,"Ü":145,"ß":146,"à":147,"á":148,"â":149,"ã":150,"ä":151,"å":152,"æ":153,"ç":154,"è":155,"é":156,"ê":157,"ë":158,"í":159,"ï":160,"ð":161,"ñ":162,"ò":163,"ó":164,"ô":165,"õ":166,"ö":167,"÷":168,"ø":169,"ù":170,"ú":171,"û":172,"ü":173,"ý":174,"ÿ":175,"ā":176,"ă":177,"ć":178,"Č":179,"č":180,"Đ":181,"ę":182,"ğ":183,"Ġ":184,"ħ":185,"ī":186,"İ":187,"Ł":188,"ł":189,"ň":190,"ŋ":191,"ō":192,"ő":193,"œ":194,"Ś":195,"ś":196,"ş":197,"Š":198,"š":199,"ţ":200,"ū":201,"Ÿ":202,"Ż":203,"ż":204,"Ž":205,"ž":206,"ư":207,"ș":208,"ț":209,"ɒ":210,"ɓ":211,"ə":212,"ɛ":213,"ɸ":214,"ɾ":215,"ʉ":216,"ʊ":217,"ʌ":218,"ʻ":219,"ʼ":220,"ˈ":221,"ˌ":222,"ː":223,"́":224,"Α":225,"Β":226,"Δ":227,"Ε":228,"Θ":229,"Κ":230,"Σ":231,"Τ":232,"Φ":233,"Χ":234,"Ψ":235,"Ω":236,"ά":237,"έ":238,"ή":239,"ί":240,"α":241,"β":242,"γ":243,"δ":244,"ε":245,"η":246,"θ":247,"ι":248,"κ":249,"λ":250,"μ":251,"ν":252,"ο":253,"π":254,"ρ":255,"ς":256,"σ":257,"τ":258,"υ":259,"φ":260,"χ":261,"ω":262,"ό":263,"ϑ":264,"ϕ":265,"Б":266,"В":267,"Д":268,"К":269,"Н":270,"О":271,"П":272,"Р":273,"С":274,"Т":275,"Ы":276,"Я":277,"а":278,"в":279,"г":280,"д":281,"е":282,"ж":283,"и":284,"й":285,"к":286,"л":287,"н":288,"о":289,"п":290,"р":291,"с":292,"т":293,"у":294,"ф":295,"х":296,"ц":297,"ч":298,"ш":299,"ы":300,"я":301,"і":302,"Ҫ":303,"Ӑ":304,"Ӗ":305,"ӝ":306,"Ӳ":307,"Ե":308,"Խ":309,"Յ":310,"Ս":311,"֖":312,"֥":313,"ְ":314,"ֱ":315,"ֲ":316,"ֳ":317,"ִ":318,"ֵ":319,"ֶ":320,"ַ":321,"ָ":322,"ֹ":323,"ֺ":324,"ֻ":325,"ּ":326,"ֽ":327,"־":328,"ֿ":329,"ׁ":330,"ׂ":331,"׃":332,"ׅ":333,"א":334,"ב":335,"ג":336,"ד":337,"ה":338,"ו":339,"ז":340,"ח":341,"ט":342,"י":343,"ך":344,"כ":345,"ל":346,"ם":347,"מ":348,"ן":349,"נ":350,"ס":351,"ע":352,"ף":353,"פ":354,"ץ":355,"צ":356,"ק":357,"ר":358,"ש":359,"ת":360,"װ":361,"ױ":362,"׳":363,"״":364,"آ":365,"أ":366,"إ":367,"ئ":368,"ا":369,"ب":370,"ة":371,"ت":372,"ث":373,"ج":374,"ح":375,"خ":376,"د":377,"ذ":378,"ر":379,"س":380,"ش":381,"ص":382,"ط":383,"ع":384,"ف":385,"ق":386,"ك":387,"ل":388,"م":389,"ن":390,"ه":391,"و":392,"ى":393,"ي":394,"َ":395,"ُ":396,"ِ":397,"ْ":398,"٠":399,"١":400,"٢":401,"٨":402,"٩":403,"ٰ":404,"ٹ":405,"چ":406,"ھ":407,"ی":408,"ߟ":409,"ߡ":410,"ं":411,"औ":412,"ग":413,"त":414,"द":415,"न":416,"ब":417,"ल":418,"ा":419,"ि":420,"ी":421,"े":422,"्":423,"ં":424,"ગ":425,"બ":426,"લ":427,"ો":428,"༓":429,"ខ":430,"ភ":431,"ម":432,"រ":433,"ស":434,"ា":435,"ែ":436,"្":437,"ṅ":438,"ạ":439,"ả":440,"ἀ":441,"ὥ":442,"ῦ":443," ":444," ":445," ":446,"​":447,"‌":448,"‍":449,"‎":450,"‏":451,"‐":452,"‑":453,"‒":454,"–":455,"—":456,"―":457,"‘":458,"’":459,"‚":460,"“":461,"”":462,"„":463,"†":464,"‡":465,"•":466,"…":467," ":468," ":469,"‪":470,"‫":471,"‬":472,"‭":473,"‮":474," ":475,"‰":476,"′":477,"″":478,"‹":479,"›":480,"⁠":481,"⁡":482,"⁨":483,"⁩":484,"⁻":485,"₪":486,"€":487,"₹":488,"№":489,"℠":490,"™":491,"Ⅰ":492,"Ⅲ":493,"←":494,"↑":495,"→":496,"↓":497,"↩":498,"⇒":499,"∀":500,"∂":501,"∆":502,"∈":503,"−":504,"∗":505,"∘":506,"∙":507,"√":508,"∞":509,"∽":510,"≠":511,"≥":512,"≪":513,"≿":514,"⋅":515,"⋯":516,"Ⓘ":517,"─":518,"■":519,"□":520,"▪":521,"▲":522,"▶":523,"▸":524,"►":525,"▼":526,"▾":527,"◄":528,"●":529,"◻":530,"◼":531,"☀":532,"★":533,"☆":534,"☚":535,"☝":536,"☺":537,"♔":538,"♠":539,"♣":540,"♥":541,"♦":542,"♪":543,"♫":544,"⚡":545,"✌":546,"✔":547,"✯":548,"✰":549,"❁":550,"❓":551,"❤":552,"❷":553,"❻":554,"❼":555,"❽":556,"❾":557,"➝":558,"⟨":559,"⟩":560,"⟵":561,"⦁":562,"⬅":563,"⭐":564,"、":565,"の":566,"ア":567,"ギ":568,"コ":569,"シ":570,"ス":571,"ド":572,"ュ":573,"ル":574,"ー":575,"㪗":576,"三":577,"东":578,"主":579,"九":580,"京":581,"介":582,"以":583,"会":584,"元":585,"列":586,"反":587,"古":588,"名":589,"士":590,"大":591,"学":592,"川":593,"工":594,"幕":595,"广":596,"府":597,"式":598,"徳":599,"慢":600,"拾":601,"日":602,"旦":603,"本":604,"来":605,"株":606,"民":607,"浪":608,"海":609,"点":610,"理":611,"疽":612,"社":613,"穂":614,"空":615,"章":616,"第":617,"简":618,"算":619,"絵":620,"義":621,"聲":622,"航":623,"色":624,"茶":625,"蒙":626,"術":627,"襲":628,"詞":629,"赤":630,"逆":631,"道":632,"都":633,"鈴":634,"院":635,"髓":636,"黑":637,"黒":638,"랙":639,"블":640,"엠":641,"":642,"":643,"":644,"":645,"":646,"":647,"":648,"":649,"":650,"":651,"":652,"":653,"":654,"":655,"":656,"ﬠ":657,"אַ":658,"בּ":659,"הּ":660,"וּ":661,"פּ":662,"תּ":663,"וֹ":664,"﴾":665,"﴿":666,"️":667,"﻿":668,"（":669,"）":670,"，":671,"：":672,"￼":673,"�":674,"🇸":675,"🇾":676,"🌈":677,"🌎":678,"🍻":679,"🎉":680,"🎶":681,"🏽":682,"🐔":683,"👈":684,"👉":685,"👑":686,"💉":687,"💔":688,"💖":689,"💜":690,"💫":691,"📁":692,"📄":693,"🔥":694,"😀":695,"😁":696,"😂":697,"😃":698,"😄":699,"😅":700,"😆":701,"😈":702,"😉":703,"😊":704,"😍":705,"😏":706,"😐":707,"😒":708,"😚":709,"😛":710,"😜":711,"😦":712,"🙁":713,"🙂":714,"🙌":715,"🚖":716,"🚘":717,"🤔":718,"🤨":719,"🦁":720,"🧼":721," ה":722," ל":723," א":724,"ים":725,"ות":726," מ":727," ש":728," ב":729,".\n":730," ע":731," ו":732," כ":733,"ני":734," של":735,"ור":736," י":737,"ול":738,"נו":739," את":740,"ית":741,"רו":742," המ":743,"וד":744,"רי":745," לה":746,"יה":747," ח":748,"יו":749," לא":750,"יל":751,"בר":752,"נה":753,"די":754,"וא":755," ת":756,"זה":757," נ":758," על":759,"וב":760,"יר":761," פ":762,"יות":763," הא":764," ק":765,"מו":766,"רא":767,"יש":768,"מה":769," ג":770,"ין":771,"תי":772,"כל":773,"ון":774," ס":775,"יא":776,"נים":777,"ומ":778,"לי":779," ר":780,"מש":781,"יב":782,"יד":783," ד":784,"ופ":785,"נות":786,"שר":787," מה":788,"לא":789,"את":790,"לו":791,"?\n":792,"לה":793," שה":794," הש":795," אח":796," בא":797,"יק":798,"יים":799," הח":800," ז":801," צ":802," או":803,"רים":804,"יע":805,"בו":806," הע":807," זה":808,"שה":809,"תו":810,"ום":811," כל":812," במ":813,"בל":814,"ספ":815,"כול":816," וה":817," מא":818," הוא":819,"שים":820,"וק":821," מש":822," ט":823," הת":824," בע":825,"רה":826," לע":827,"וח":828,"ינ":829," למ":830,"וג":831," עם":832,"רב":833,"יפ":834," הפ":835," הב":836," אות":837," יש":838,"יט":839," \"":840," (":841,"רג":842,"ותר":843,"וע":844," לש":845,"רכ":846,"ימ":847,"תח":848," שא":849," בש":850,"יס":851," הק":852,"שו":853,"וס":854,"נית":855," יותר":856,"וש":857,"ינו":858,"\".\n":859," מע":860," הג":861,"יצ":862,"נת":863," יכול":864," לפ":865," הה":866,"מי":867,"מת":868," רו":869," לב":870,"כו":871," הס":872," היא":873,"דים":874,"יח":875," בה":876,"ולם":877,"בע":878," היה":879,"דר":880," לח":881,"אני":882," גם":883,"כם":884,"מצ":885,"אי":886,"מע":887," מס":888,"וצ":889,"אם":890," מת":891," מח":892,"טר":893,"נס":894,"לק":895,"נח":896," הצ":897,"רח":898,"וכ":899," מק":900,"מן":901," כי":902,"שות":903,"חר":904,"וו":905,"20":906," לק":907,"מים":908,"מר":909,"שת":910,"בים":911,"בה":912,"לים":913,"יית":914," נו":915,"רט":916," בח":917," הכ":918,"דם":919,"נט":920,"רת":921," -":922," אי":923,"יום":924,"דה":925,"כה":926," לי":927," הז":928," וא":929,"עות":930,"צה":931,"כן":932,"אים":933," הנ":934,"ורה":935," להיות":936," כא":937," הד":938,"הם":939," –":940," אל":941," הם":942,"אה":943," מצ":944,"אות":945,"עת":946,"עה":947,"נשים":948,"בי":949,"פי":950,"שי":951,"לח":952," כדי":953,"ירות":954,"\"\n":955,"יותר":956,"חק":957,"בור":958,"וף":959,"נחנו":960,"קה":961,"ברים":962," רק":963,"דו":964,"עם":965," אני":966,"בוד":967,"כת":968," אחד":969,"ספר":970," ומ":971,"מות":972,"על":973,"פר":974," אם":975," בס":976,"19":977,"ילה":978," עצ":979,"חד":980," וב":981," ול":982,"יון":983,"נג":984," הט":985,"עים":986,"ורים":987,"וי":988,"שא":989,"וז":990," צרי":991," אפ":992," שמ":993,"הוא":994,"רות":995,"סט":996,"ירה":997,"שוב":998,"דול":999,"חת":1000,"לב":1001,"כים":1002," לג":1003,"חה":1004,"בות":1005," ביותר":1006,"ראל":1007,"פה":1008,"חות":1009," שלך":1010," מב":1011," בת":1012,"בת":1013,"ילו":1014," בק":1015," כמו":1016,"מיד":1017," הרא":1018," כך":1019," אתה":1020,"ישה":1021,"יני":1022,"יג":1023,"כות":1024," ני":1025,"לת":1026,"לות":1027," טוב":1028," יה":1029,"כש":1030,"..":1031,"או":1032," לת":1033,"לט":1034," אבל":1035," אמ":1036,"רק":1037," לו":1038,"!\n":1039,"רצ":1040,"סק":1041," להת":1042,"00":1043," בכל":1044,"נק":1045," המש":1046," ידי":1047," הזה":1048,"בא":1049,"er":1050,"ראה":1051,"ירו":1052,"ומר":1053," אותו":1054," בפ":1055," עד":1056,"וט":1057," היו":1058,"יי":1059,"זור":1060," מפ":1061," מג":1062," שלי":1063," זאת":1064," שלו":1065," בג":1066,"כך":1067," שלנו":1068,"אתה":1069,"זו":1070,"מא":1071,"מד":1072," לד":1073," זו":1074," מי":1075," בב":1076,"ניות":1077,"in":1078,"מוד":1079,"רבה":1080," בין":1081," מאוד":1082,"דות":1083,"ופן":1084," ממ":1085," היית":1086,"אבל":1087,"201":1088," חד":1089,"רון":1090," רא":1091," לצ":1092," שנ":1093," מדי":1094,"וני":1095,"פת":1096," לך":1097,"האם":1098," בד":1099,"שב":1100,"\",":1101,"סף":1102," מכ":1103,"on":1104," לנו":1105,"ולה":1106," חי":1107,"רך":1108,"פו":1109," שע":1110,"נד":1111,"ילים":1112," פע":1113," עבור":1114,"an":1115,"ולי":1116,"מק":1117,"טים":1118,"גם":1119,"ברה":1120," כמה":1121," לעשות":1122," מד":1123," אינ":1124,").\n":1125,"פק":1126,"לך":1127," די":1128,"אר":1129,"קר":1130,"סי":1131," בר":1132," בט":1133,"עד":1134,"ונים":1135," הר":1136," שהוא":1137,"אל":1138,"פשר":1139,"ירים":1140,"כון":1141,"דרך":1142," S":1143," עו":1144,"ניה":1145," בו":1146," יוד":1147," האח":1148,"יהם":1149,"תוך":1150,"יבה":1151,"צים":1152," בצ":1153,"בודה":1154," אנשים":1155," לפני":1156," שב":1157,"קים":1158," צריך":1159,":\n":1160," דבר":1161,"יתי":1162," להג":1163,"המ":1164," כבר":1165,"פות":1166," ולא":1167," שלהם":1168," בני":1169," שלא":1170," בכ":1171," הכל":1172," אשר":1173," הרבה":1174," גדול":1175," ישראל":1176,"חים":1177,"פט":1178,"חו":1179," המק":1180," אמר":1181,"יתה":1182," עוד":1183,"בד":1184,"ימו":1185,"סים":1186,")\n":1187,"ורת":1188," A":1189,"טור":1190,"כא":1191,"ונ":1192,"תה":1193,"יקה":1194," אז":1195," ממש":1196," לס":1197," C":1198,"כנ":1199,"ריק":1200,"ילות":1201," שני":1202," שנים":1203,"ניתן":1204,"...\n":1205," במש":1206,"רוב":1207,"200":1208,"פל":1209," רוצה":1210," באופן":1211,"קות":1212,".\"\n":1213," הי":1214," וש":1215,"תק":1216," אך":1217,"ar":1218," שלה":1219," אלה":1220,"ורך":1221," אלו":1222,"or":1223,"מית":1224,"סת":1225,"ברת":1226,"ידע":1227,"אז":1228," אדם":1229,"פים":1230," יצ":1231,"גר":1232,"טי":1233," שיש":1234,"בח":1235,"ווה":1236," שבו":1237,"וה":1238,"ולים":1239,"ולוג":1240,"en":1241," אחר":1242,"יעה":1243,"צע":1244,"שון":1245,"ברי":1246,"כי":1247," וע":1248," שם":1249," אחת":1250," אנחנו":1251,"al":1252,"ראות":1253,"צת":1254," לאחר":1255," יל":1256,"es":1257," יכולים":1258," תק":1259,"at":1260," להם":1261,"שהו":1262,"יך":1263," M":1264,"גע":1265," וח":1266," יד":1267," אין":1268,"נצ":1269," העולם":1270,"רד":1271,"הא":1272," זמן":1273,"הה":1274,"ימים":1275," ות":1276," במק":1277," חלק":1278," מז":1279," היום":1280,"בק":1281,"ורות":1282," T":1283," שק":1284," אותם":1285,"וות":1286," מיל":1287," כול":1288," נש":1289,"הים":1290,"כשיו":1291,"אנחנו":1292,"וכל":1293,"רס":1294," הייתה":1295,"גד":1296," למש":1297,"דיין":1298,"עי":1299," לכל":1300," במה":1301,"חי":1302,"בט":1303,"היא":1304,"שוט":1305," ולה":1306," אנו":1307,"לית":1308," איש":1309," שאני":1310," שלכם":1311,"בש":1312," יהיה":1313," חוש":1314,"ומי":1315,"יבות":1316,"פש":1317,"ורי":1318,"רכת":1319," אתם":1320,"פע":1321,"תיים":1322," אחרים":1323," P":1324," כש":1325," קט":1326,"צב":1327,"שונה":1328,"צר":1329," כאשר":1330," מתח":1331," בל":1332,"דינה":1333," שהם":1334,"רץ":1335,"ינים":1336," מט":1337," '":1338,"ופה":1339,"ידה":1340,"רכז":1341,"פור":1342," המע":1343,"ניים":1344," תה":1345,"כנס":1346,"ודה":1347,"he":1348," הנו":1349," הרו":1350," פעם":1351,"ונה":1352," אחרי":1353," הל":1354," יום":1355,"ישראל":1356," אותה":1357," המח":1358,"יוחד":1359,"ובה":1360,"ומים":1361,"דת":1362," לל":1363,"וחות":1364," בנו":1365," כן":1366,"גל":1367,"יפה":1368,"יז":1369,"פס":1370,"אתם":1371," נע":1372," לט":1373," שנה":1374," למע":1375," מוצ":1376," כאן":1377," בז":1378,"לום":1379," B":1380," יח":1381," בית":1382,"דש":1383," בעולם":1384,"ניין":1385,"אמ":1386,"אין":1387,"\"ה":1388," בי":1389," נמצ":1390,"קט":1391," האמ":1392," הגדול":1393," רבים":1394," ברי":1395,"10":1396," משהו":1397," מספ":1398,"\"ב":1399,"פתח":1400,"רונות":1401,"וץ":1402,"),":1403," אפשר":1404," יע":1405," חז":1406," לכם":1407," מספר":1408,"ic":1409," תמיד":1410," משת":1411,"יפור":1412," חשוב":1413,"בוע":1414,"מעות":1415," תח":1416," שת":1417," נה":1418," נק":1419,"מח":1420," אלא":1421,"רום":1422," אומר":1423," עדיין":1424," באמצ":1425," רצ":1426," חש":1427,"ינה":1428,"טה":1429,"ביר":1430," ללא":1431,"ימוש":1432," לראות":1433," שכ":1434," שח":1435,"it":1436," התק":1437," ניתן":1438,"ריך":1439," עוב":1440,"קת":1441,"הש":1442,"ומות":1443,"ודים":1444,"יבור":1445," פשוט":1446,"גים":1447," איך":1448,"רגיש":1449," דרך":1450,"סה":1451,"הח":1452,"ילדים":1453,"צות":1454," הראשון":1455,"ומה":1456,"הב":1457," באמת":1458,"מונה":1459,"מל":1460," D":1461," שאתה":1462," אותי":1463," להב":1464," נוספ":1465,"מנו":1466,"הת":1467,"שית":1468,"לפ":1469," להשת":1470,"ירת":1471," I":1472,"לל":1473,"פרי":1474,"ציה":1475,"וך":1476,"ליך":1477,"ודות":1478,"איך":1479,"לם":1480,"ודי":1481," להצ":1482," W":1483," עשו":1484," לכ":1485," שזה":1486,"ברית":1487,"ביב":1488,"מוק":1489," פי":1490," הזמן":1491,"מעט":1492,"ביל":1493,"ולות":1494," ואת":1495," חיים":1496," השני":1497," המס":1498,"ברות":1499," הול":1500,"רבות":1501,"st":1502,"מור":1503," משפ":1504," בתח":1505," בבית":1506,"יפול":1507," התי":1508," האדם":1509,"גה":1510," אף":1511,"נש":1512,"יצד":1513,"אנו":1514,"18":1515,"le":1516," הספר":1517,"יסטור":1518,"שם":1519," חייב":1520," רי":1521," יודע":1522," H":1523," וכ":1524,"אן":1525," נפ":1526," בשנת":1527," הן":1528,"כנית":1529,"רמ":1530," תש":1531," המת":1532," כת":1533,"יצור":1534," מוכ":1535,"יקר":1536," נח":1537," גבו":1538,"טרנט":1539,"ייה":1540," החיים":1541,"ריות":1542,"כר":1543,"ou":1544,"ונות":1545," לקבל":1546," רג":1547,"צוע":1548,"הע":1549," אינו":1550,"צי":1551,"וליט":1552," G":1553,"קו":1554," באמצעות":1555," L":1556," מקום":1557," כלל":1558,"ימות":1559,"re":1560," שהיא":1561,"דור":1562,"טרה":1563,"פא":1564," היתה":1565," למצ":1566,"חון":1567,"מס":1568," רח":1569,"רכים":1570,"ודש":1571,"למה":1572,"מין":1573,"תוצ":1574,"יטה":1575," אפילו":1576,"צמ":1577,"רע":1578,"גור":1579,"ישהו":1580," תע":1581,"ברו":1582," אומ":1583,"ואה":1584," מלא":1585," היח":1586,"לסט":1587," R":1588,"רצות":1589," שי":1590,"יעים":1591," הופ":1592,"ימת":1593," [":1594," צריכים":1595," חוק":1596," עצמ":1597," מסו":1598," הראשונה":1599,"יוק":1600," מוד":1601," הרג":1602,"ובן":1603,"om":1604," בדרך":1605,"זר":1606,"ותו":1607," האלה":1608," יכולה":1609," להש":1610," דברים":1611," התח":1612," רע":1613," מן":1614," קור":1615," F":1616,"זרח":1617,"נע":1618,"בס":1619,"ינוי":1620,"\"ל":1621," לז":1622," חדש":1623,"קי":1624," במהלך":1625,"ינלא":1626," שבה":1627,"]\n":1628," ארו":1629,"15":1630," מוס":1631," שוב":1632,"יוון":1633," אנ":1634,"בית":1635,"טו":1636," עכשיו":1637," E":1638,"תם":1639," מסוג":1640,"ברס":1641,"לד":1642," קשה":1643," נגד":1644,"משך":1645," הדי":1646," הכי":1647,"לבד":1648," בן":1649," תוכ":1650," פחות":1651," רב":1652,"פקיד":1653," .\n":1654,"הס":1655,"חור":1656,"תר":1657,"מון":1658," למה":1659,"is":1660," רוצים":1661," t":1662," כמ":1663," יוצ":1664,"גו":1665," בלי":1666," אס":1667,"תוח":1668,"?\"\n":1669," אית":1670," סוג":1671,"קד":1672," מכל":1673,"כנולוג":1674,"נוע":1675,"לחמה":1676,"צל":1677,"יעו":1678,"ליה":1679,"ורג":1680," סט":1681," המא":1682,"ריים":1683,"יניים":1684," עצמו":1685," מוש":1686," אלי":1687," כשה":1688,"ישי":1689,"במ":1690," דול":1691,"ion":1692,"עו":1693," שש":1694,"וסט":1695,"ומת":1696,"ליים":1697," הלא":1698,"הי":1699,"קס":1700,"ילת":1701," הזו":1702,"ילד":1703," גור":1704,"כב":1705," משמעות":1706,",\n":1707," היש":1708," מהם":1709," פני":1710," עושה":1711," אותך":1712,"נא":1713," עסק":1714," קרו":1715," “":1716,"קש":1717,"ניס":1718," הברית":1719," מיליון":1720,"el":1721," ילדים":1722,"000":1723," נראה":1724," צע":1725," האם":1726," אירו":1727," מל":1728,"ro":1729," אלוהים":1730," התע":1731,"קל":1732,"ומית":1733,"יוני":1734,"כמו":1735,"חקר":1736,"ing":1737,"199":1738,"תונים":1739," מידע":1740,"תיד":1741," שונים":1742," הטוב":1743,"אח":1744,"נון":1745," ספר":1746,"חלט":1747," כמעט":1748,"ודם":1749," למצוא":1750," רבות":1751," המצ":1752,"יחס":1753," בלתי":1754," סי":1755," במשך":1756," להע":1757,"כמה":1758,"נם":1759,"נן":1760," המדינה":1761," החברה":1762,"שתי":1763," השת":1764,"דובר":1765,"12":1766," מנה":1767,"יאות":1768,"מפ":1769," נת":1770,"בנו":1771,"ידי":1772," עבודה":1773," N":1774,"30":1775,"ינטרנט":1776,"ואר":1777," במקום":1778,"משלה":1779,"רגון":1780,"et":1781," הרי":1782,"דבר":1783," לדעת":1784,"מנות":1785,"הפ":1786," הזאת":1787,"כאשר":1788,"לאחר":1789," להשתמש":1790," שתי":1791," בתוך":1792,"בול":1793," לכך":1794,"אלה":1795," כולל":1796,"לוט":1797,"כויות":1798,"וחר":1799,"ינג":1800," מוע":1801," ספ":1802,"of":1803,"רש":1804," קבו":1805," שום":1806,"רגע":1807," אה":1808,"ליט":1809,"רטים":1810," במו":1811," יודעים":1812,"למיד":1813," אד":1814,"זק":1815," ברח":1816,"רונה":1817,"\"אני":1818,"דינות":1819," מאז":1820,"גות":1821," להח":1822," מבו":1823,"ינת":1824," O":1825," הייתי":1826," תהיה":1827," פרו":1828,"ראש":1829," חושב":1830,"גת":1831," בשביל":1832," בטוח":1833," בדיוק":1834," חס":1835," בצורה":1836,"טח":1837," אחרת":1838,"שרים":1839,"ac":1840,"זאת":1841," כפי":1842,"כור":1843,"אתר":1844," להתח":1845,"רבים":1846,"il":1847," בהם":1848," בזמן":1849," כזה":1850," עליו":1851,"ייתי":1852," אש":1853,"יבים":1854,"\"א":1855," ביט":1856,"רוש":1857,"ריה":1858," כה":1859," ית":1860,"משיך":1861,"זרה":1862,"כתב":1863," במיוחד":1864,"יסטוריה":1865," וס":1866," נכון":1867," העבודה":1868," לגבי":1869,"פחה":1870,"ורק":1871," במח":1872,"פוך":1873,"ריקה":1874,"משים":1875," בעלי":1876," ופ":1877,"גש":1878," לעצ":1879,"כונה":1880," מספיק":1881,"יף":1882," קי":1883," מאשר":1884," משחק":1885,"ol":1886,"נסה":1887," וק":1888," השנה":1889," דולר":1890,"ed":1891," שאנחנו":1892," טובה":1893," במע":1894," הלי":1895," בהת":1896,"ולד":1897," העיר":1898," להכ":1899," הברי":1900,"ער":1901," האמריק":1902," יק":1903,"רוא":1904,"אפשר":1905,"ליח":1906,"וקים":1907," מנת":1908," ביום":1909," נס":1910,"ופי":1911," ביק":1912,"מוך":1913," בלבד":1914," אותנו":1915," בגלל":1916," ונ":1917,"יכ":1918," אור":1919," להגיע":1920," קצת":1921," יחד":1922,"ינם":1923,"ודשים":1924," הדברים":1925,"50":1926,"גרים":1927," רש":1928," הדבר":1929," קל":1930," מור":1931," ניס":1932," מתוך":1933," הוד":1934," להבין":1935,"גיע":1936," שאתם":1937,"מיים":1938," הני":1939,"am":1940," עומ":1941," לפע":1942," והוא":1943,"אך":1944," התו":1945,"מינים":1946,"הו":1947,"ובות":1948," שעות":1949," נא":1950," אינם":1951," ימים":1952," ,":1953," לזה":1954,"שרה":1955," בישראל":1956," מופ":1957," החד":1958,"יין":1959,"יבל":1960,"רפ":1961,"ותה":1962,"”\n":1963,"17":1964," מוג":1965," מכן":1966," ההת":1967,"כולם":1968,"סטר":1969," אחרות":1970,"ספק":1971,"הק":1972,"ימה":1973,"למ":1974," וגם":1975,"יאה":1976," אולי":1977," מוז":1978," להס":1979," טבע":1980," שירות":1981," הור":1982,"לכן":1983," כסף":1984," נמצא":1985," הו":1986,"16":1987," מתק":1988,"oo":1989," שמע":1990,"רגיה":1991,"סם":1992,"עוד":1993," חופ":1994," אוה":1995,"דל":1996," אוכל":1997," ומש":1998,"רכות":1999," כולם":2000," אב":2001," לפחות":2002," אינה":2003,"ch":2004," תוך":2005,"שימה":2006," עושים":2007," האירו":2008,"מרות":2009,"שובה":2010," המשפט":2011,"as":2012,"יטת":2013," הללו":2014," מקבל":2015," למו":2016,"כח":2017," השל":2018," הבית":2019,"ואי":2020,"11":2021," דו":2022," הביט":2023,"וקה":2024,"and":2025," מערכת":2026," חברת":2027," לקחת":2028," ואני":2029," פת":2030,"מונות":2031," כיצד":2032,"במק":2033,"זיה":2034," מיו":2035,"יקט":2036,"סיה":2037," הארץ":2038,"מט":2039,"יחוד":2040," נשים":2041," לעבוד":2042,"רבית":2043," תוכל":2044," לתת":2045,"לון":2046," שהיה":2047,"ופו":2048," קש":2049," המט":2050," רוב":2051,"הצ":2052,"כס":2053,"ינוך":2054," ללמוד":2055," מזה":2056," לדבר":2057," הספ":2058," הפע":2059," ידע":2060,"של":2061,"אולי":2062,"חלק":2063," שיע":2064," בדי":2065," במס":2066," ועל":2067," of":2068," מרו":2069,"ילי":2070,"נתי":2071,"רפת":2072," פר":2073,"יתוח":2074,"דע":2075,"צרים":2076,"פון":2077," שימוש":2078," הדרך":2079,"תוצאה":2080,"אב":2081,"לע":2082," /":2083," לעזור":2084,"יבי":2085," ראש":2086," החוק":2087,"יונות":2088,"'.\n":2089,"נראה":2090," נות":2091,"קב":2092," וזה":2093," נשא":2094,"זון":2095,"צריך":2096," מרגיש":2097," האנו":2098,"כתוב":2099," נג":2100,"גון":2101," גדולה":2102," מול":2103,"שבון":2104,"14":2105," לומר":2106," בעצ":2107,"ידים":2108," האנשים":2109," וג":2110,"נהל":2111," המוצ":2112,"לוהים":2113,"13":2114,"ורט":2115," דקות":2116,"יסט":2117," אפש":2118,"הג":2119,"תים":2120," הראשו":2121," ארב":2122," פעמים":2123,"ent":2124," קרי":2125," מעל":2126," החלט":2127," הלב":2128," מתו":2129," השנים":2130," נוסף":2131," בתי":2132," פה":2133,"רכה":2134," קול":2135," הממשלה":2136,"וסר":2137,"ad":2138,"נטים":2139," האחרון":2140," חיו":2141," ליצור":2142," מישהו":2143,"דק":2144," לפי":2145," מחדש":2146," תא":2147," רואה":2148,"ay":2149," לעולם":2150," הכול":2151," פרי":2152," הבא":2153,"רם":2154," בתו":2155," שלוש":2156,"ומיים":2157," לבד":2158," שכל":2159," הנש":2160,"לחה":2161,"פילו":2162," בפני":2163,"ופים":2164," מצב":2165,"כלה":2166," קרובות":2167," פרט":2168,"זיק":2169," סיפ":2170," מוק":2171," שנות":2172," החל":2173," גבוה":2174,"כונות":2175," עש":2176," קשר":2177,"יעות":2178,"בוא":2179," אופ":2180,"בנוסף":2181," נוספים":2182," העוב":2183," מקצוע":2184,"ויות":2185," מתי":2186," חדשים":2187," תג":2188,"וביל":2189," צריכה":2190,"הול":2191,"ינויים":2192," יהיו":2193,"גרת":2194,"נגלית":2195,"\"מ":2196,"וניברס":2197,"ינית":2198,"ראו":2199," סוף":2200," תחת":2201,"וריה":2202," ילד":2203," חמ":2204," שהת":2205," פעולה":2206," ביצ":2207,"מרי":2208," כוח":2209,"ומרים":2210," לר":2211," בכלל":2212," הקט":2213,"100":2214," לבית":2215," אזרח":2216," חודשים":2217,"שיג":2218,"ונג":2219,"לוח":2220," בעיקר":2221," וד":2222," שאין":2223," מעט":2224," זק":2225," בתחום":2226,"המש":2227," מסת":2228," שונות":2229," צורך":2230,"סון":2231," הבע":2232," להפ":2233," חבר":2234,"ow":2235,"כדי":2236,"בוצה":2237," גיל":2238,"ועל":2239," ספק":2240,"מיכה":2241,"בנה":2242," הפלסט":2243,"וגמה":2244," ברו":2245,"\"ח":2246,"בכל":2247," רפ":2248,"iv":2249,"דמנות":2250,"ig":2251,"בלת":2252," כאלה":2253," שמו":2254,"יחות":2255,"יסה":2256," ומת":2257,"ימי":2258," הבינלא":2259," חל":2260,"אלי":2261," החדש":2262,"יחד":2263," The":2264," אוהב":2265," מיוחד":2266," סרט":2267,"שרת":2268,"מנים":2269,"ופת":2270," אצל":2271,"198":2272,"מתי":2273," קורה":2274,"לקט":2275,"זם":2276," בעל":2277," ברחבי":2278,"ot":2279," השפ":2280," שפ":2281," ומע":2282,"”.\n":2283," סביב":2284,"ינט":2285,"ראי":2286," קטן":2287," הרכ":2288," כגון":2289," פרס":2290," רוח":2291," שנת":2292," רכ":2293,"סוף":2294,"נטי":2295," מדינות":2296,"ביבה":2297,"דרה":2298," ומו":2299," בסיס":2300," חדשה":2301," שמש":2302,"וכר":2303," כיום":2304," המשחק":2305," הגוף":2306," הילדים":2307," באתר":2308,"זהו":2309,"זכ":2310," בשל":2311,"היה":2312," שונה":2313," והת":2314,"לחמת":2315," ללכת":2316,"עש":2317,"למידים":2318," וי":2319," תוצ":2320," עובד":2321,"לווי":2322,"קור":2323," מים":2324," בכך":2325,"25":2326,"id":2327,"למרות":2328," V":2329,"ישים":2330,"אנשים":2331," פוליט":2332," העסק":2333," מוח":2334,"סיק":2335," מרכז":2336," לתק":2337," ומה":2338,"ורר":2339,"נסות":2340,"וויר":2341,"us":2342,"טוב":2343," ארה":2344," עצמי":2345," וכל":2346," המוד":2347,"בוקר":2348," הרצ":2349,"כולת":2350," לנ":2351,"אמר":2352," לאח":2353," לשמור":2354,"לתי":2355," האד":2356,"ווים":2357,"וציא":2358,"194":2359," U":2360,"בין":2361,"גן":2362,"יץ":2363," אחוז":2364,"בשנת":2365," מר":2366,"הל":2367," ?\n":2368," להשיג":2369,"מצא":2370,"רויות":2371,"…\n":2372," מפני":2373,"197":2374," ממנו":2375," ברור":2376,"קבות":2377," למח":2378,"צו":2379,"לוטין":2380,"ישאר":2381,"אף":2382," קר":2383,"רטיס":2384,"ביא":2385," להפוך":2386,"40":2387," והח":2388,"סל":2389," מבט":2390,"מוקרט":2391,"שני":2392," לקרוא":2393," מהמ":2394,"יטב":2395,"רכו":2396,"ודת":2397," לחלוטין":2398,"...":2399,"יצוב":2400,"כנולוגיה":2401," להי":2402," לשנות":2403," שלושה":2404," ידוע":2405," the":2406,"אית":2407," תפ":2408,"מוש":2409," מו":2410," לבין":2411,"שורת":2412," שבע":2413,"יצר":2414,"ישות":2415,"ניק":2416,"כלו":2417,"יקום":2418,"סית":2419,"בוק":2420," שנו":2421," שיו":2422,"רוע":2423," תרו":2424,"ודית":2425,"שרות":2426,"ation":2427,"זל":2428,"דיר":2429," למק":2430," לבצע":2431,"כני":2432," מומ":2433," הטבע":2434," שאנו":2435," טובים":2436," שג":2437,"רחב":2438,"אס":2439,"טרות":2440," האל":2441," המוע":2442," העל":2443," נור":2444," משום":2445,"יפות":2446,"עכשיו":2447,"יראן":2448,"\"ר":2449," מכו":2450," לאורך":2451," האיש":2452," ככל":2453," מאפשר":2454,"ag":2455,"ציות":2456,"פרס":2457," כמובן":2458,"וסיף":2459," תלו":2460,"וסים":2461," לחשוב":2462," בעוד":2463,"אג":2464,"דאי":2465," הבח":2466,"בן":2467," באזור":2468,"זמן":2469,"לפי":2470," ובע":2471," ההש":2472,"לפני":2473," קודם":2474,"196":2475,"מודד":2476," בקרב":2477,";\n":2478," להתק":2479," בתק":2480," פור":2481," חיי":2482," כדור":2483,"יהיה":2484," אמרה":2485," אתכם":2486," אליו":2487," גל":2488," סימ":2489," בחיים":2490," יוכל":2491,"ut":2492,"אט":2493,"ופר":2494," הולך":2495,"מוע":2496," נכנס":2497,"לפון":2498,"תף":2499,"ולט":2500,"יחה":2501,"כנה":2502," לחיות":2503," בנ":2504,"ur":2505,"כיצד":2506,"רבי":2507,"שאלה":2508,"וון":2509,".[":2510,"מנה":2511,"ראת":2512," עובדים":2513," מאד":2514," בשם":2515,"אחרי":2516,"נועה":2517," האחרונות":2518," מיד":2519,"דרת":2520,"ויים":2521,"רופ":2522," השנייה":2523," ויש":2524,"נאי":2525," לוק":2526," טיפ":2527," עשוי":2528," ארצות":2529," משנה":2530," בשנה":2531,"דן":2532,"רחק":2533,"נאים":2534," הגיע":2535,"זרת":2536," רבה":2537," החש":2538," באותו":2539," הסרט":2540,"נגד":2541," גבוהה":2542,"לוויזיה":2543,"מכ":2544," הנה":2545," מגיע":2546,"כאן":2547," המרכז":2548," זכויות":2549,"בחר":2550,"וזה":2551," עלי":2552,"וחים":2553," נצ":2554,"הליך":2555," ועד":2556,"טרי":2557," In":2558,"יתים":2559,"טג":2560,"וזר":2561,"ולח":2562,"לקוחות":2563," האמת":2564," הציבור":2565," דור":2566," רואים":2567," נוספת":2568,"שבים":2569," בידי":2570," חברות":2571,"כלי":2572,"קשה":2573," מדובר":2574," בעיר":2575,"'י":2576," יורק":2577," לימ":2578,"',":2579,"ir":2580,"ובת":2581," כתב":2582," עבוד":2583,"סיס":2584," מחקר":2585," שמת":2586," בינלא":2587," ולכן":2588," מעור":2589," מנו":2590,"עתי":2591,"בני":2592,"ראים":2593,"פעמים":2594,"יפוש":2595," כח":2596," המצב":2597,"ירוש":2598,"-א":2599,"יהן":2600,"ובי":2601,"לוו":2602," עצמה":2603," אמריק":2604," להסת":2605,"מהלך":2606," שומ":2607,"פתחות":2608,"60":2609," תצ":2610," האו":2611,"משל":2612,"טל":2613," פעילות":2614," עצמם":2615," הגדולה":2616,"רוג":2617," תת":2618,"וצה":2619,"הילה":2620," להתחיל":2621," הרב":2622," המשת":2623," בעיות":2624," למשל":2625," קו":2626,"נצח":2627," פלסט":2628," משפט":2629," לחזור":2630," המשפחה":2631,"ניח":2632,"מדה":2633," הקש":2634,"יוע":2635," ...\n":2636,"ירי":2637," J":2638,"טון":2639," ברצ":2640,"ter":2641,"אחד":2642," ליד":2643,"ראלי":2644," לעתים":2645," אומרת":2646,"בלו":2647,"סר":2648," שט":2649,"תוצאות":2650," עליהם":2651,"מנויות":2652," בספ":2653,"מך":2654," חדשות":2655,"בריו":2656,"נר":2657," לרו":2658," והש":2659," לגרום":2660," אכ":2661," מוב":2662,"ודנטים":2663,"קול":2664," שינוי":2665," מעבר":2666," בנושא":2667,"im":2668,"24":2669,"ציפ":2670," משק":2671,"בלות":2672," להמשיך":2673," קרה":2674," בגיל":2675," לתוך":2676," שית":2677," משר":2678," ביני":2679," St":2680,"יאון":2681," והיא":2682," מבין":2683,"רקע":2684," מאח":2685,"עבור":2686," דומה":2687," העיק":2688," בריאות":2689," מהר":2690,"הד":2691,"נדר":2692," לבחור":2693,"וכן":2694," העול":2695,"un":2696," שר":2697," המידע":2698," והמ":2699,"סס":2700,"um":2701," מדוע":2702,"ופול":2703,"ועים":2704,"פג":2705," תפקיד":2706," מרג":2707," קלי":2708," בעיה":2709," הגבו":2710,"זע":2711," משתמשים":2712," הפר":2713,"ופות":2714,"ec":2715," תיא":2716,"ידו":2717," והא":2718," למרות":2719," p":2720," s":2721,"ובל":2722,"כשה":2723,"ואל":2724," יהודים":2725," אומרים":2726,"ווח":2727,"ייס":2728," כפ":2729,"ניברס":2730," מחוץ":2731," מדינה":2732," דיו":2733,"הוב":2734," וט":2735," כאילו":2736," פג":2737,"כוי":2738,"למע":2739," כלפי":2740," לגמרי":2741,"שע":2742," f":2743," ואז":2744," למעשה":2745,"בורה":2746,"טניה":2747," מות":2748,"פסיק":2749,"ינות":2750," בעבר":2751," העצ":2752," :":2753,"ולת":2754," טע":2755,"מדוע":2756," החדשה":2757," טיפול":2758," אותן":2759," ניצ":2760,"שוא":2761," לשחק":2762,"יגה":2763,"רמניה":2764," שס":2765,"מודים":2766,"דיף":2767,"ידות":2768," פל":2769," חייבים":2770," הסי":2771," מקור":2772,"שאים":2773," אג":2774," בזה":2775," והם":2776," והע":2777," הרע":2778,"בטיח":2779," יפה":2780,"וקר":2781," שבוע":2782," באירו":2783,"הנה":2784," שמח":2785," מבי":2786," הרפ":2787," בסדר":2788," המג":2789," חברים":2790," שהח":2791,"קרים":2792," בארה":2793," לרא":2794," האחרונה":2795,"\"י":2796,"שבות":2797," ראשון":2798," נמצאים":2799," וצ":2800,"יפים":2801,"ודל":2802,"דיניות":2803,",\"":2804," ברא":2805,"נרגיה":2806," מאת":2807," כלי":2808," יס":2809," קצר":2810," הצד":2811,"רחש":2812," אצ":2813," בארץ":2814,"ולוגיה":2815,"ליק":2816,"טית":2817,"מול":2818,"יבית":2819,"בלתי":2820,"יגים":2821,"נוק":2822," נתונים":2823," בהחלט":2824,"מיות":2825," לספק":2826,"משת":2827," הילד":2828," המכ":2829," לאנשים":2830," מיליא":2831," שיכול":2832," הצע":2833," K":2834,"לול":2835," המוס":2836," חול":2837," באי":2838," מתחיל":2839," c":2840,"em":2841,"וקא":2842," לצאת":2843," הרוח":2844," d":2845,"אור":2846," למען":2847," שחק":2848,"נהגות":2849,"תג":2850,"נדון":2851," להביא":2852," למנוע":2853," להתמודד":2854,"הבה":2855," קיים":2856," הוצ":2857," צי":2858," מאות":2859,"היום":2860,"מלי":2861," גר":2862," שעל":2863," עולם":2864," עלינו":2865,"יבת":2866," בעת":2867,"ריז":2868," העם":2869,"-ידי":2870," שות":2871," אהבה":2872,"כום":2873,"רוצים":2874," מהע":2875,"נציא":2876," פול":2877," הבאה":2878," לרכ":2879,"מבר":2880,"חרות":2881," אלף":2882," כנראה":2883," נעשה":2884,"מובן":2885,"סייע":2886,"לס":2887," בלו":2888," כעת":2889,"בלה":2890,"כלית":2891,"oc":2892," היטב":2893," המאה":2894," האינטרנט":2895,"ראמפ":2896," סיפור":2897,"!\"\n":2898,"בצע":2899," גברים":2900," התא":2901," הבריאות":2902,"רוך":2903,"יקים":2904,"ווי":2905,"בתי":2906,"נסים":2907," מהח":2908,"רושלים":2909,"ואז":2910," התג":2911,"מוצע":2912,"].\n":2913,"פשרות":2914," לכתוב":2915," מנסה":2916," שהיו":2917," איכות":2918," הנח":2919," קיבל":2920," יודעת":2921,"לג":2922," אישי":2923," באינטרנט":2924," משא":2925,"195":2926,"os":2927," תוכנית":2928," ערך":2929,"הט":2930," עמו":2931," והפ":2932," מכך":2933," המל":2934," מעולם":2935,"באי":2936,"המו":2937," המה":2938," להגיד":2939,"אולם":2940,"במהלך":2941," המלחמה":2942," מאוחר":2943,"ורד":2944," המוש":2945," נוס":2946,"רונים":2947," לפג":2948,"ers":2949," לאכול":2950," השק":2951," ממה":2952,"ליטה":2953," דא":2954,"יצוני":2955,"וטנציא":2956," מדע":2957," and":2958,"שבתי":2959,"\"כ":2960," ולע":2961," המקום":2962,"ra":2963," שנע":2964," ארג":2965," הביתה":2966," לשא":2967," משות":2968," טוע":2969," יכולות":2970," המחקר":2971," קיב":2972," הפס":2973," איזה":2974," ולח":2975," ועוד":2976," מסוימים":2977,"הכ":2978,"ess":2979,"כונים":2980," ולש":2981,"עלות":2982,"פורט":2983,"ובע":2984,"פוי":2985," צבע":2986," היע":2987,"ופט":2988," טר":2989," מתע":2990," מתחת":2991," בהתאם":2992," אנשי":2993,"אק":2994,"פח":2995," כב":2996,"רוס":2997," חוו":2998," להק":2999," עניין":3000,"ביע":3001,"לנד":3002,"מם":3003," וכן":3004,"מאז":3005," במהירות":3006," עשה":3007," יג":3008,"ישית":3009,"\"זה":3010," מחו":3011," לקנות":3012,"זים":3013,"ודעה":3014," עשויים":3015,"יתר":3016," לעצמ":3017,"בעה":3018," אינט":3019,"נתה":3020," ההג":3021," מזון":3022," היד":3023," שוק":3024," האי":3025,"ייתה":3026," בסוף":3027," הראשונים":3028,"יטות":3029," היהודים":3030," m":3031," יית":3032," ייש":3033,"ראית":3034," צבא":3035," היחידה":3036," עסקים":3037," Y":3038,"נדה":3039," המד":3040," תהליך":3041,"80":3042,"אמין":3043," למד":3044," היחיד":3045," מדו":3046," להרגיש":3047," באותה":3048," מני":3049," שהע":3050," לעבור":3051," ליה":3052,"ריון":3053," מהש":3054," משפחה":3055,"לקטרו":3056,"21":3057,"טות":3058," חברה":3059,"ואם":3060," מדה":3061," חושבים":3062," המוח":3063,"שבה":3064," כוחות":3065," תרבות":3066," רגע":3067,"גוד":3068," לפת":3069," עליך":3070," הפך":3071,"דיו":3072,"רוק":3073,"זוהי":3074,"..\n":3075,"חוק":3076,"בום":3077," הפוליט":3078,"ab":3079,"ראלים":3080," בינו":3081," מסוגל":3082," קצ":3083,"תחיל":3084," לבנות":3085," להיכנס":3086,"-ה":3087," דרכים":3088," b":3089,"ישור":3090,"בלים":3091," התעופה":3092," תוכלו":3093," הרח":3094," מלחמת":3095," עולה":3096," ההצ":3097," אמית":3098,"מיה":3099," כמות":3100," לשם":3101,"טרף":3102,"עיף":3103,"צמבר":3104," מיני":3105," מאמין":3106,"נדי":3107," שלום":3108," להישאר":3109," מתכו":3110," נמ":3111," עליה":3112,"ניהול":3113," הביטחון":3114,"כולנו":3115,"תמיד":3116,"נייה":3117,"מצב":3118,"\"ש":3119," השימוש":3120," הרש":3121," משתמש":3122,"th":3123," שהמ":3124,"זב":3125," פרק":3126," גישה":3127," הנס":3128," תכ":3129," גדולים":3130," הבט":3131," הזדמנות":3132,"ונית":3133,"הייתי":3134,"נויות":3135," זוג":3136," עק":3137," במדינה":3138," מיליארד":3139,"יינו":3140," תומ":3141,"ליחה":3142," הצבא":3143,"70":3144,"ברתי":3145,"נקים":3146," קטנה":3147,"דמות":3148," ואח":3149," להגן":3150," אק":3151," מדברים":3152,"פן":3153,"ילום":3154," מסוים":3155," אירופה":3156," שאת":3157," עור":3158,"ia":3159,"פוס":3160," שיח":3161," תוש":3162,"רוח":3163," האינ":3164," ביחד":3165," המוז":3166," נמו":3167,"ליטים":3168," לשלם":3169,"רוץ":3170,"אום":3171," האתר":3172," חודש":3173," הפרט":3174," אמיתי":3175," אוהבים":3176,"ושר":3177,"ישון":3178," השבוע":3179,"ce":3180," ארגון":3181," פוע":3182,"שייה":3183,"צית":3184," נד":3185," קרוב":3186,"שאר":3187,"במבר":3188,"22":3189,"זרו":3190,"ריכה":3191," האלו":3192," העתי":3193," ההז":3194," ממשלת":3195,".”\n":3196," לנסות":3197," חק":3198,"ספים":3199," משמעותי":3200," עומד":3201,"op":3202,"אלו":3203,"זיר":3204,"שויות":3205," אפשרי":3206,"סור":3207,"תן":3208,"ניינים":3209," המדינות":3210," האור":3211," סג":3212,"פיע":3213," מקרה":3214," מדבר":3215,"ארק":3216,"ומו":3217,"לוש":3218," אמריקה":3219," למעלה":3220," גורם":3221," אוב":3222," רשת":3223," הפעם":3224," מבח":3225," w":3226,"פיה":3227,"ובים":3228," סיבה":3229," לראשונה":3230,"מקום":3231," ויותר":3232,"רויקט":3233," היינו":3234," דם":3235," שהא":3236," ציבור":3237,"טא":3238,"רית":3239," פנים":3240," דין":3241," קוד":3242," הדין":3243," להימ":3244," פס":3245,"ומיות":3246," הבאים":3247,"כשיר":3248,"למים":3249," לילדים":3250," מדינת":3251," שבועות":3252,"חית":3253," כדאי":3254," במצב":3255," מאמינים":3256," המים":3257," שאלות":3258," עצמך":3259," האוויר":3260," הכנס":3261," הנתונים":3262,"נשיא":3263," אתר":3264," זוכ":3265," חזק":3266," הנשיא":3267,"למעשה":3268," לתח":3269," השם":3270," הטובה":3271," תופ":3272," בעקבות":3273,"\"לא":3274," שרי":3275," נדר":3276,"לושה":3277,"תחלה":3278," היהודי":3279," נוספות":3280,"פול":3281,"שיים":3282," בוד":3283,"חרת":3284," מנ":3285," ובה":3286," האש":3287,"לחת":3288," בנוגע":3289,"בולות":3290,"גיט":3291," חוסר":3292," צד":3293,"מידה":3294," איתו":3295,"ul":3296,"הר":3297,"עבר":3298,"פחות":3299,"צא":3300,"תונה":3301,"וחה":3302," הקרו":3303," בארצות":3304," טי":3305,"פשים":3306," שיהיה":3307," מוצרים":3308,"ri":3309," זמ":3310," לשמוע":3311," תקופה":3312,"23":3313,"חדים":3314,"פני":3315," אישה":3316," לעומת":3317," קטנים":3318," שבהם":3319," עול":3320," עיר":3321,"פרק":3322," ממשי":3323,"ov":3324," הוכ":3325," ככה":3326," לקוחות":3327,"ירותים":3328,"\"ם":3329," האוכל":3330,"יכרון":3331,"'\n":3332,"יקטים":3333," החולים":3334," לחץ":3335,"ובר":3336," לתו":3337," שצריך":3338,"ומד":3339," החשוב":3340," אישית":3341," הוק":3342," ולק":3343,"טרור":3344," הנוכ":3345," כללי":3346," התפ":3347,"רגל":3348," מבלי":3349," in":3350,"כתי":3351," כות":3352," ירושלים":3353," נט":3354," ממנה":3355," במקרה":3356," כרטיס":3357," הקרי":3358," לוח":3359," שנק":3360," שווה":3361,"ודו":3362," להז":3363,"מינה":3364," בתור":3365," מלאה":3366," הכו":3367,"ידת":3368," הסיבה":3369," בעצם":3370,"פעם":3371," שאלה":3372," בהן":3373," מדיניות":3374," יוצא":3375,"igh":3376,"הן":3377," תי":3378,"ומדים":3379,"ידן":3380,"ועה":3381," הקור":3382," הבעיה":3383,"ייך":3384," רחב":3385," לפעול":3386," אולם":3387," השאלה":3388," זכות":3389," האחרונים":3390," מוכן":3391,"היו":3392,"עון":3393," לספר":3394," לנק":3395," ניסיון":3396,"זית":3397," רכב":3398," דעת":3399," צפו":3400," הבינלאומי":3401,"דון":3402," שהצ":3403,"ap":3404," לישראל":3405," שהש":3406," ניהול":3407," אנג":3408," חברי":3409,"ליף":3410," בשבוע":3411,"בעות":3412," כזו":3413," הטיפול":3414," איראן":3415,"ילוב":3416," מערכות":3417," מצד":3418,"ולחן":3419," אלפי":3420," אנרגיה":3421," תוצאות":3422," באירופה":3423,"תית":3424," הלו":3425," צוות":3426,"כנן":3427,"ne":3428,"זוב":3429," כוכ":3430," מהא":3431,"לין":3432," לעמוד":3433,"מאס":3434," דווקא":3435," המלא":3436," לשפר":3437," שצ":3438," תמונות":3439," יהודי":3440," שבא":3441," שגם":3442,"לונות":3443,"איזה":3444,"סיכול":3445,"בג":3446," הים":3447,"תייחס":3448," הכסף":3449," —":3450,"The":3451,"חם":3452,"לפעמים":3453," עבר":3454," ערב":3455," האזרח":3456," הגיעו":3457," התיכון":3458," משרד":3459,"בירה":3460," לשים":3461," מוט":3462,"ורף":3463," ירי":3464,"ופש":3465," הסיפור":3466," מקווה":3467,"193":3468," הופך":3469,"מונים":3470,"בצ":3471," עתי":3472," עמד":3473,"משו":3474,"ie":3475,"כיר":3476,"רתי":3477,"ניסט":3478,"ומט":3479," מתא":3480,"ישת":3481,"ילויות":3482," חושבת":3483,"\"אנחנו":3484,"90":3485,"ספת":3486," ההיסטוריה":3487,"עלם":3488,"חינה":3489,"ונת":3490,"חתי":3491,"יתנו":3492," גופ":3493," אוניברס":3494,"דרות":3495,"סיכולוג":3496,"ורו":3497," האופ":3498," ומח":3499," אמרו":3500,"טמבר":3501," איט":3502," כלום":3503,"וגל":3504," ניו":3505,"תודה":3506,"ווא":3507,"זיקה":3508,"שום":3509," מזו":3510,"ity":3511,"כבר":3512,"עלי":3513," שתו":3514,"ציב":3515," אזור":3516,"ומן":3517," הקוד":3518," מאחורי":3519,"הכל":3520," תמ":3521,"כלומר":3522," מהת":3523,"רכי":3524," הסת":3525," אמא":3526,"חלטה":3527,"אש":3528," לאור":3529," בקלות":3530," שניתן":3531," טראמפ":3532," נשמע":3533,"דומה":3534," אוהבת":3535," מקבלים":3536,"ונו":3537," הוג":3538," מהס":3539," הקד":3540,"לטון":3541,"בואו":3542,"og":3543,"גרי":3544,"יבוש":3545," אפשרות":3546," למקום":3547," מלחמה":3548," חוז":3549," שהג":3550," במצ":3551," בשוק":3552," נושא":3553," נשיא":3554," היצ":3555," שוא":3556,"יונים":3557," בשנים":3558,"וסייה":3559,"500":3560,"הרי":3561," עלול":3562,"est":3563," ספרים":3564,"ויח":3565," להיפ":3566,"בעת":3567,"ברואר":3568," איב":3569," עוצ":3570,"יתונ":3571,"ידאו":3572," מגיעים":3573,"איפה":3574,"ושי":3575,"ind":3576,"מחה":3577," צרפת":3578," לפתח":3579," לגלות":3580,"הדבר":3581," אכן":3582," להבטיח":3583," מייצ":3584," קבוצה":3585," טבעי":3586," תס":3587,"לוק":3588," הצה":3589," בפעם":3590," כולו":3591," השלישי":3592,"מדו":3593," סין":3594," לעיתים":3595,"יטר":3596,"טרת":3597,"בטחה":3598,"למי":3599," אמת":3600,"ניסה":3601,"דיים":3602," אוו":3603,"ine":3604,"שלום":3605,"פלגה":3606," כע":3607," הבסיס":3608," שאפשר":3609,"ָה":3610," ורק":3611," יוש":3612," חמש":3613,"ידול":3614," הישראלי":3615,"כיום":3616,"מוס":3617," באוק":3618," שאינם":3619," הסט":3620," ושל":3621," הגדולים":3622," האס":3623," היכולת":3624," המערכת":3625," לאדם":3626,"חוץ":3627," נותן":3628,"דברים":3629,"יכול":3630,"כבים":3631," מצו":3632," תשומת":3633,"26":3634," שעה":3635," חג":3636," מעוני":3637," יקרה":3638,"ילוס":3639," בסופו":3640," ארוך":3641," לבדוק":3642," אודות":3643," בבוקר":3644," מאיתנו":3645," ואף":3646,"מקד":3647,"av":3648,"דירה":3649," השפעה":3650,"מאות":3651,"רוד":3652,"ריכים":3653," והצ":3654," הקול":3655,"טובר":3656," בוח":3657," אוט":3658,"יפורים":3659,"28":3660," הדרו":3661," המודר":3662,"אפילו":3663," ביד":3664," בנק":3665," להיר":3666,"כונית":3667," הימ":3668," לכן":3669," המשי":3670," חולים":3671,"מיחה":3672,"מדובר":3673,"ותם":3674," תמיכה":3675," פיז":3676,"בעיה":3677,"טרך":3678," הנכון":3679," לצד":3680," המבו":3681," מנהיג":3682,"שתה":3683,"נגדות":3684," בעתיד":3685," למס":3686," נמצאת":3687," נקודות":3688," צעירים":3689,"מכים":3690," הטובים":3691,"כניות":3692,"לש":3693," איפה":3694," המפ":3695,"יצה":3696,"נטית":3697," ארבעה":3698,"35":3699,"אד":3700,"פיים":3701,"ובדים":3702," קרא":3703,"בוש":3704," נשאר":3705,"-מ":3706,"קרא":3707," ייע":3708,"רישות":3709," סמ":3710,"יבורי":3711,"אירו":3712," מכיוון":3713,"27":3714," שיק":3715," ומצ":3716," חת":3717," נפר":3718," ספורט":3719," יצא":3720," אמצ":3721,"לקוח":3722," רחוק":3723," נית":3724,"סקה":3725," המנה":3726,"מויות":3727," החלק":3728,"יעי":3729," והג":3730," ארבע":3731,"!!\n":3732,"חשוב":3733," תיק":3734," להעביר":3735,"מדים":3736," בלב":3737," להור":3738," שאנשים":3739," הלילה":3740," מסוגלים":3741," קבוצות":3742," מוקדם":3743," תלוי":3744,"הז":3745,"יננס":3746," לשעבר":3747,"our":3748," לפעמים":3749,"כוח":3750,"סות":3751," בבר":3752,"לאות":3753," מגוון":3754," אינטרנט":3755," הגרמ":3756," לאחרונה":3757,"באות":3758," מרי":3759," באוניברס":3760,"בוצות":3761,"ספרים":3762," ההס":3763," מצא":3764," שינויים":3765,"ישורים":3766," בעיני":3767,"וגה":3768," הפני":3769," בסרט":3770," המקור":3771,"ירושלים":3772,"שבו":3773,"ודאי":3774,"יבו":3775,"נצל":3776," המדע":3777,"מום":3778,"ועדה":3779," העליון":3780,"'ר":3781," מראש":3782," עוז":3783," האירופי":3784,"ak":3785," טכנולוג":3786," חזרה":3787,"קרי":3788," הבו":3789," שאם":3790," לסייע":3791,"דינת":3792,"if":3793,"nd":3794," הוש":3795," מילים":3796,"בעים":3797,"od":3798," הבר":3799," חיל":3800," חייו":3801,"ליות":3802,"מץ":3803," שיר":3804," שכן":3805,"יטים":3806,"שימוש":3807,"לחץ":3808," להתע":3809," העובדה":3810," המון":3811," זכ":3812," ביו":3813," ולאחר":3814," הלאומי":3815," ממוק":3816," בראש":3817,"ורא":3818,"רגה":3819," ומס":3820,"טן":3821," תנו":3822,"ימס":3823,"לקת":3824,"יליא":3825," ואפילו":3826," לנצח":3827," בפי":3828," החלו":3829," הקהילה":3830,"בדל":3831,"התח":3832,"עדה":3833,"תנו":3834,"ראיתי":3835," באפרי":3836," במרכז":3837,"יסות":3838," בחברה":3839,"זונה":3840," ברשת":3841," כיוון":3842," חצי":3843,"וגוסט":3844,"יסבוק":3845," הקשר":3846," אליה":3847,"סקים":3848,"ard":3849," הקבוצה":3850," הכוח":3851,"מוקרטיה":3852,"בדרך":3853,"קסט":3854," ענק":3855,"וסף":3856," הנפ":3857,"לדוגמה":3858," תרופות":3859,"מחים":3860," הישראל":3861," היסטור":3862," לבקר":3863,"דיה":3864,"ודא":3865," הסכם":3866," פתרון":3867," ייתכן":3868,"כנת":3869," אר":3870," עזרה":3871,"ive":3872," בינואר":3873,"ארי":3874,"קוב":3875,"ובדה":3876," הארגון":3877," לשימוש":3878,"all":3879,"יתון":3880," מסוימת":3881,"במקום":3882,"אלא":3883,"יקור":3884," האחרים":3885," במסגרת":3886,"צרו":3887," בחודש":3888," בניו":3889," חסר":3890,"זורים":3891,"לץ":3892,"מספר":3893," היר":3894," השמש":3895," בעצמ":3896," הגור":3897,"מערכת":3898,"191":3899," ברמה":3900," אחריות":3901," יחסים":3902," אסטר":3903," יוכלו":3904,"ונס":3905,"תות":3906," הינו":3907," מתאים":3908," מפתח":3909," מכיר":3910," משפחת":3911,"ight":3912,"דמנויות":3913," אבא":3914," קבוע":3915," סק":3916," השחק":3917," שכבר":3918," לזכור":3919,"\"ג":3920,"נהג":3921," הנוכחי":3922,"אינ":3923,"ואו":3924," מהן":3925," העתיד":3926,"רגו":3927," מחיר":3928," קיימת":3929,"למת":3930," תודה":3931," לעבודה":3932," הפל":3933,"כוהול":3934," תוכניות":3935," צעיר":3936," לשאול":3937,"בנות":3938," לתי":3939,"יוס":3940,"דימה":3941,"ושת":3942," נקרא":3943," להכיר":3944,"נשי":3945," שד":3946," שרו":3947," עבד":3948," סוכ":3949," זיה":3950," אמור":3951," עשר":3952," המלך":3953," החמ":3954," כלומר":3955,"רחים":3956," Ch":3957," וו":3958,"יונ":3959," גד":3960,"שוואה":3961," חשבו":3962,"כפי":3963," לני":3964," ישירות":3965," לצפות":3966," גדולות":3967,"כנע":3968," האמיתי":3969," האדמה":3970," במאי":3971," בערך":3972," הפת":3973," לבוא":3974,"המח":3975," הרכב":3976,"דית":3977,"כמובן":3978," יא":3979," לאפשר":3980,"יפת":3981,"יטי":3982," לחפש":3983,"פיין":3984," ובא":3985,"מאל":3986,"ook":3987," ממו":3988," ובר":3989," הסכ":3990," טובות":3991,"פורסם":3992," משחקים":3993," המוצר":3994,"\"?\n":3995,"ob":3996,"ואני":3997," החינוך":3998," היהודית":3999}