{
  "version": "1.0",
  "truncation": null,
  "padding": null,
  "added_tokens": [],
  "normalizer": null,
  "pre_tokenizer": {
    "type": "Sequence",
    "pretokenizers": [
      {
        "type": "Split",
        "pattern": {
          "Regex": "[^\\r\\n\\p{L}\\p{N}]?[\\p{Lu}\\p{Lt}\\p{Lm}\\p{Lo}\\p{M}]*[\\p{Ll}\\p{Lm}\\p{Lo}\\p{M}]+|[^\\r\\n\\p{L}\\p{N}]?[\\p{Lu}\\p{Lt}\\p{Lm}\\p{Lo}\\p{M}]+[\\p{Ll}\\p{Lm}\\p{Lo}\\p{M}]*|\\p{N}{1,3}| ?[^\\s\\p{L}\\p{N}]+[\\r\\n/]*|\\s*[\\r\\n]+|\\s+(?!\\S)|\\s+"
        },
        "behavior": "Isolated",
        "invert": false
      }
    ]
  },
  "post_processor": null,
  "decoder": null,
  "model": {
    "type": "BPE",
    "dropout": null,
    "unk_token": null,
    "continuing_subword_prefix": null,
    "end_of_word_suffix": null,
    "fuse_unk": false,
    "byte_fallback": false,
    "ignore_merges": false,
    "vocab": {
      "\n": 0,
      " ": 1,
      "!": 2,
      "\"": 3,
      "#": 4,
      "$": 5,
      "%": 6,
      "&": 7,
      "'": 8,
      "(": 9,
      ")": 10,
      "*": 11,
      "+": 12,
      ",": 13,
      "-": 14,
      ".": 15,
      "/": 16,
      "0": 17,
      "1": 18,
      "2": 19,
      "3": 20,
      "4": 21,
      "5": 22,
      "6": 23,
      "7": 24,
      "8": 25,
      "9": 26,
      ":": 27,
      ";": 28,
      "<": 29,
      "=": 30,
      ">": 31,
      "?": 32,
      "@": 33,
      "A": 34,
      "B": 35,
      "C": 36,
      "D": 37,
      "E": 38,
      "F": 39,
      "G": 40,
      "H": 41,
      "I": 42,
      "J": 43,
      "K": 44,
      "L": 45,
      "M": 46,
      "N": 47,
      "O": 48,
      "P": 49,
      "Q": 50,
      "R": 51,
      "S": 52,
      "T": 53,
      "U": 54,
      "V": 55,
      "W": 56,
      "X": 57,
      "Y": 58,
      "Z": 59,
      "[": 60,
      "\\": 61,
      "]": 62,
      "^": 63,
      "_": 64,
      "`": 65,
      "a": 66,
      "b": 67,
      "c": 68,
      "d": 69,
      "e": 70,
      "f": 71,
      "g": 72,
      "h": 73,
      "i": 74,
      "j": 75,
      "k": 76,
      "l": 77,
      "m": 78,
      "n": 79,
      "o": 80,
      "p": 81,
      "q": 82,
      "r": 83,
      "s": 84,
      "t": 85,
      "u": 86,
      "v": 87,
      "w": 88,
      "x": 89,
      "y": 90,
      "z": 91,
      "{": 92,
      "|": 93,
      "}": 94,
      "~": 95,
      "": 96,
      "": 97,
      "": 98,
      "": 99,
      "": 100,
      "": 101,
      "": 102,
      "": 103,
      "": 104,
      "": 105,
      "": 106,
      "": 107,
      "": 108,
      " ": 109,
      "¡": 110,
      "¢": 111,
      "£": 112,
      "¤": 113,
      "¥": 114,
      "§": 115,
      "¨": 116,
      "©": 117,
      "«": 118,
      "¬": 119,
      "­": 120,
      "®": 121,
      "°": 122,
      "±": 123,
      "²": 124,
      "³": 125,
      "´": 126,
      "µ": 127,
      "¶": 128,
      "·": 129,
      "¹": 130,
      "º": 131,
      "»": 132,
      "¼": 133,
      "½": 134,
      "¾": 135,
      "¿": 136,
      "À": 137,
      "Á": 138,
      "Â": 139,
      "Ã": 140,
      "Ä": 141,
      "Å": 142,
      "Æ": 143,
      "Ç": 144,
      "É": 145,
      "Ë": 146,
      "Í": 147,
      "Î": 148,
      "Ð": 149,
      "Ñ": 150,
      "Ò": 151,
      "Ó": 152,
      "Õ": 153,
      "Ö": 154,
      "×": 155,
      "Ø": 156,
      "Ú": 157,
      "Ü": 158,
      "Ý": 159,
      "Þ": 160,
      "ß": 161,
      "à": 162,
      "á": 163,
      "â": 164,
      "ã": 165,
      "ä": 166,
      "å": 167,
      "æ": 168,
      "ç": 169,
      "è": 170,
      "é": 171,
      "ê": 172,
      "ë": 173,
      "ì": 174,
      "í": 175,
      "î": 176,
      "ï": 177,
      "ð": 178,
      "ñ": 179,
      "ò": 180,
      "ó": 181,
      "ô": 182,
      "õ": 183,
      "ö": 184,
      "÷": 185,
      "ø": 186,
      "ù": 187,
      "ú": 188,
      "û": 189,
      "ü": 190,
      "ý": 191,
      "þ": 192,
      "ÿ": 193,
      "Ā": 194,
      "ā": 195,
      "Ă": 196,
      "ă": 197,
      "ą": 198,
      "ć": 199,
      "Č": 200,
      "č": 201,
      "Đ": 202,
      "đ": 203,
      "ē": 204,
      "ė": 205,
      "ę": 206,
      "ě": 207,
      "ğ": 208,
      "ī": 209,
      "İ": 210,
      "ı": 211,
      "ķ": 212,
      "ĺ": 213,
      "Ł": 214,
      "ł": 215,
      "ń": 216,
      "ō": 217,
      "ő": 218,
      "œ": 219,
      "Ś": 220,
      "ś": 221,
      "Ş": 222,
      "ş": 223,
      "Š": 224,
      "š": 225,
      "ţ": 226,
      "ū": 227,
      "ų": 228,
      "Ż": 229,
      "ż": 230,
      "Ž": 231,
      "ž": 232,
      "ƒ": 233,
      "ơ": 234,
      "ư": 235,
      "ǎ": 236,
      "ǒ": 237,
      "ǔ": 238,
      "ǧ": 239,
      "ș": 240,
      "ɑ": 241,
      "ɒ": 242,
      "ə": 243,
      "ɛ": 244,
      "ɡ": 245,
      "ɣ": 246,
      "ɸ": 247,
      "ʹ": 248,
      "ʼ": 249,
      "ˆ": 250,
      "ˈ": 251,
      "ˌ": 252,
      "ː": 253,
      "˚": 254,
      "ˮ": 255,
      "́": 256,
      "̂": 257,
      "̃": 258,
      "̈": 259,
      "̊": 260,
      "̶": 261,
      "·": 262,
      "Α": 263,
      "Β": 264,
      "Γ": 265,
      "Δ": 266,
      "Ε": 267,
      "Θ": 268,
      "Μ": 269,
      "Π": 270,
      "Σ": 271,
      "Φ": 272,
      "Ω": 273,
      "ά": 274,
      "ή": 275,
      "ί": 276,
      "α": 277,
      "β": 278,
      "γ": 279,
      "δ": 280,
      "ε": 281,
      "η": 282,
      "θ": 283,
      "ι": 284,
      "κ": 285,
      "λ": 286,
      "μ": 287,
      "ν": 288,
      "ο": 289,
      "π": 290,
      "ρ": 291,
      "ς": 292,
      "σ": 293,
      "τ": 294,
      "φ": 295,
      "χ": 296,
      "ω": 297,
      "ό": 298,
      "ύ": 299,
      "А": 300,
      "Б": 301,
      "В": 302,
      "Г": 303,
      "Д": 304,
      "Е": 305,
      "И": 306,
      "К": 307,
      "Н": 308,
      "О": 309,
      "П": 310,
      "С": 311,
      "Т": 312,
      "Э": 313,
      "Я": 314,
      "а": 315,
      "в": 316,
      "г": 317,
      "д": 318,
      "е": 319,
      "и": 320,
      "й": 321,
      "л": 322,
      "м": 323,
      "н": 324,
      "о": 325,
      "р": 326,
      "с": 327,
      "т": 328,
      "ц": 329,
      "ы": 330,
      "ј": 331,
      "Ґ": 332,
      "ӓ": 333,
      "ӧ": 334,
      "א": 335,
      "ד": 336,
      "צ": 337,
      "ا": 338,
      "ة": 339,
      "ت": 340,
      "ث": 341,
      "ج": 342,
      "ح": 343,
      "د": 344,
      "ر": 345,
      "س": 346,
      "ص": 347,
      "ع": 348,
      "ك": 349,
      "ل": 350,
      "م": 351,
      "ن": 352,
      "ه": 353,
      "و": 354,
      "ي": 355,
      "ڤ": 356,
      "ނ": 357,
      "ތ": 358,
      "ަ": 359,
      "ާ": 360,
      "ก": 361,
      "ข": 362,
      "ต": 363,
      "ธ": 364,
      "น": 365,
      "ย": 366,
      "ร": 367,
      "ส": 368,
      "ะ": 369,
      "ั": 370,
      "ิ": 371,
      "ี": 372,
      "ุ": 373,
      "เ": 374,
      "ი": 375,
      "რ": 376,
      "უ": 377,
      "ც": 378,
      "ხ": 379,
      "Ḥ": 380,
      "ḥ": 381,
      "ḳ": 382,
      "ṅ": 383,
      "ṇ": 384,
      "ṛ": 385,
      "Ṣ": 386,
      "ṣ": 387,
      "Ṭ": 388,
      "ṭ": 389,
      "ạ": 390,
      "ả": 391,
      "ầ": 392,
      "ẹ": 393,
      "ễ": 394,
      "ệ": 395,
      "ỉ": 396,
      "ị": 397,
      "ọ": 398,
      "ờ": 399,
      "ủ": 400,
      "ἀ": 401,
      "ἐ": 402,
      " ": 403,
      " ": 404,
      " ": 405,
      " ": 406,
      " ": 407,
      " ": 408,
      " ": 409,
      " ": 410,
      "​": 411,
      "‌": 412,
      "‍": 413,
      "‎": 414,
      "‏": 415,
      "‐": 416,
      "‑": 417,
      "‒": 418,
      "–": 419,
      "—": 420,
      "―": 421,
      "‘": 422,
      "’": 423,
      "‚": 424,
      "“": 425,
      "”": 426,
      "„": 427,
      "†": 428,
      "‡": 429,
      "•": 430,
      "‣": 431,
      "…": 432,
      " ": 433,
      " ": 434,
      "‬": 435,
      "‭": 436,
      " ": 437,
      "′": 438,
      "″": 439,
      "‹": 440,
      "›": 441,
      "※": 442,
      "⁃": 443,
      "⁄": 444,
      "⁰": 445,
      "⁴": 446,
      "₂": 447,
      "₤": 448,
      "€": 449,
      "℃": 450,
      "ℏ": 451,
      "№": 452,
      "℠": 453,
      "™": 454,
      "Ω": 455,
      "⅔": 456,
      "←": 457,
      "↑": 458,
      "→": 459,
      "↓": 460,
      "↩": 461,
      "↵": 462,
      "⇑": 463,
      "⇒": 464,
      "⇨": 465,
      "∈": 466,
      "∑": 467,
      "−": 468,
      "∙": 469,
      "√": 470,
      "∞": 471,
      "≈": 472,
      "≤": 473,
      "≥": 474,
      "⋅": 475,
      "①": 476,
      "⑵": 477,
      "▌": 478,
      "■": 479,
      "□": 480,
      "▪": 481,
      "▲": 482,
      "▶": 483,
      "▷": 484,
      "▸": 485,
      "►": 486,
      "▼": 487,
      "▽": 488,
      "▾": 489,
      "◄": 490,
      "◆": 491,
      "◊": 492,
      "○": 493,
      "●": 494,
      "◦": 495,
      "◾": 496,
      "★": 497,
      "☆": 498,
      "☐": 499,
      "☒": 500,
      "☕": 501,
      "☝": 502,
      "☟": 503,
      "☭": 504,
      "☺": 505,
      "♡": 506,
      "♣": 507,
      "♥": 508,
      "♦": 509,
      "♧": 510,
      "♪": 511,
      "♫": 512,
      "⚘": 513,
      "✅": 514,
      "✌": 515,
      "✎": 516,
      "✓": 517,
      "✔": 518,
      "✗": 519,
      "✰": 520,
      "❑": 521,
      "❓": 522,
      "❤": 523,
      "❥": 524,
      "➜": 525,
      "➥": 526,
      "⟵": 527,
      "⟶": 528,
      "⦁": 529,
      "⭐": 530,
      "　": 531,
      "オ": 532,
      "コ": 533,
      "ニ": 534,
      "ビ": 535,
      "リ": 536,
      "ン": 537,
      "・": 538,
      "㎡": 539,
      "万": 540,
      "世": 541,
      "中": 542,
      "主": 543,
      "五": 544,
      "人": 545,
      "会": 546,
      "光": 547,
      "公": 548,
      "共": 549,
      "军": 550,
      "华": 551,
      "协": 552,
      "協": 553,
      "台": 554,
      "司": 555,
      "命": 556,
      "和": 557,
      "团": 558,
      "国": 559,
      "國": 560,
      "大": 561,
      "山": 562,
      "岁": 563,
      "式": 564,
      "春": 565,
      "會": 566,
      "月": 567,
      "有": 568,
      "株": 569,
      "楚": 570,
      "民": 571,
      "江": 572,
      "海": 573,
      "湾": 574,
      "灣": 575,
      "狂": 576,
      "球": 577,
      "界": 578,
      "社": 579,
      "秋": 580,
      "空": 581,
      "箇": 582,
      "級": 583,
      "级": 584,
      "结": 585,
      "联": 586,
      "聯": 587,
      "臺": 588,
      "航": 589,
      "言": 590,
      "賽": 591,
      "赛": 592,
      "超": 593,
      "足": 594,
      "軍": 595,
      "鈥": 596,
      "锦": 597,
      "镜": 598,
      "际": 599,
      "限": 600,
      "集": 601,
      "革": 602,
      "낍": 603,
      "눉": 604,
      "책": 605,
      "": 606,
      "": 607,
      "": 608,
      "": 609,
      "": 610,
      "": 611,
      "": 612,
      "": 613,
      "": 614,
      "": 615,
      "": 616,
      "": 617,
      "": 618,
      "": 619,
      "": 620,
      "": 621,
      "": 622,
      "": 623,
      "": 624,
      "": 625,
      "": 626,
      "": 627,
      "": 628,
      "": 629,
      "": 630,
      "": 631,
      "": 632,
      "": 633,
      "": 634,
      "": 635,
      "": 636,
      "": 637,
      "": 638,
      "": 639,
      "": 640,
      "": 641,
      "": 642,
      "": 643,
      "": 644,
      "": 645,
      "珞": 646,
      "ﬀ": 647,
      "ﬁ": 648,
      "ﬂ": 649,
      "ﬄ": 650,
      "ﷺ": 651,
      "︎": 652,
      "️": 653,
      "﻿": 654,
      "（": 655,
      "）": 656,
      "：": 657,
      "￼": 658,
      "�": 659,
      "🇨": 660,
      "🌞": 661,
      "🌷": 662,
      "🌸": 663,
      "🍀": 664,
      "🍦": 665,
      "🍰": 666,
      "🍳": 667,
      "🍴": 668,
      "🎁": 669,
      "🎈": 670,
      "🎉": 671,
      "🎨": 672,
      "🎶": 673,
      "🎼": 674,
      "🏆": 675,
      "🏻": 676,
      "🏼": 677,
      "🏽": 678,
      "🐞": 679,
      "🐲": 680,
      "🐴": 681,
      "🐾": 682,
      "👁": 683,
      "👇": 684,
      "👌": 685,
      "👍": 686,
      "👏": 687,
      "💔": 688,
      "💕": 689,
      "💖": 690,
      "💙": 691,
      "💚": 692,
      "💜": 693,
      "💤": 694,
      "💥": 695,
      "💪": 696,
      "💰": 697,
      "📌": 698,
      "📚": 699,
      "📷": 700,
      "🔸": 701,
      "🖤": 702,
      "🗞": 703,
      "😀": 704,
      "😁": 705,
      "😂": 706,
      "😃": 707,
      "😄": 708,
      "😅": 709,
      "😆": 710,
      "😇": 711,
      "😉": 712,
      "😊": 713,
      "😋": 714,
      "😍": 715,
      "😎": 716,
      "😔": 717,
      "😕": 718,
      "😖": 719,
      "😘": 720,
      "😛": 721,
      "😜": 722,
      "😝": 723,
      "😞": 724,
      "😠": 725,
      "😢": 726,
      "😦": 727,
      "😫": 728,
      "😬": 729,
      "😭": 730,
      "😳": 731,
      "😶": 732,
      "🙁": 733,
      "🙂": 734,
      "🙆": 735,
      "🙈": 736,
      "🙉": 737,
      "🙌": 738,
      "🙏": 739,
      "🤔": 740,
      "🤗": 741,
      "🤙": 742,
      "🤛": 743,
      "🤣": 744,
      "🤩": 745,
      "🤯": 746,
      "🥂": 747,
      "🥇": 748,
      "🦋": 749,
      "🦌": 750,
      "🧡": 751,
      "🧩": 752,
      "er": 753,
      "en": 754,
      " s": 755,
      "ar": 756,
      "an": 757,
      "in": 758,
      "et": 759,
      " d": 760,
      " f": 761,
      ".\n": 762,
      " a": 763,
      "ll": 764,
      "tt": 765,
      " o": 766,
      " m": 767,
      "ör": 768,
      "ti": 769,
      "är": 770,
      " v": 771,
      " h": 772,
      "om": 773,
      " k": 774,
      "st": 775,
      " b": 776,
      "ch": 777,
      " p": 778,
      "ig": 779,
      "on": 780,
      " för": 781,
      " och": 782,
      "or": 783,
      " att": 784,
      "de": 785,
      "ing": 786,
      "na": 787,
      "ka": 788,
      " i": 789,
      "än": 790,
      "ra": 791,
      "ed": 792,
      " en": 793,
      " är": 794,
      " in": 795,
      "ag": 796,
      " g": 797,
      " l": 798,
      " t": 799,
      " av": 800,
      " ti": 801,
      " u": 802,
      " som": 803,
      "el": 804,
      " n": 805,
      "is": 806,
      "ta": 807,
      " till": 808,
      "ter": 809,
      "te": 810,
      "re": 811,
      " det": 812,
      "ck": 813,
      " på": 814,
      " e": 815,
      "lig": 816,
      " med": 817,
      "ro": 818,
      "pp": 819,
      " de": 820,
      "ning": 821,
      "der": 822,
      "ån": 823,
      " vi": 824,
      "as": 825,
      " an": 826,
      "am": 827,
      "al": 828,
      "ver": 829,
      " den": 830,
      " var": 831,
      "un": 832,
      "år": 833,
      " j": 834,
      "at": 835,
      "kt": 836,
      "ri": 837,
      " om": 838,
      " st": 839,
      " inte": 840,
      "ss": 841,
      " har": 842,
      "tion": 843,
      "il": 844,
      "ett": 845,
      "da": 846,
      "ller": 847,
      "em": 848,
      "äl": 849,
      "and": 850,
      "li": 851,
      " du": 852,
      "sk": 853,
      " r": 854,
      "ätt": 855,
      " ut": 856,
      "ade": 857,
      " kan": 858,
      "ande": 859,
      " ett": 860,
      "ur": 861,
      " be": 862,
      "lla": 863,
      "åg": 864,
      "are": 865,
      "het": 866,
      " fr": 867,
      "it": 868,
      "ad": 869,
      "omm": 870,
      "den": 871,
      "Det": 872,
      "ol": 873,
      " sk": 874,
      " ö": 875,
      "för": 876,
      " jag": 877,
      "ska": 878,
      " S": 879,
      "sta": 880,
      "äg": 881,
      "?\n": 882,
      " upp": 883,
      "ot": 884,
      "ång": 885,
      " komm": 886,
      " eller": 887,
      " så": 888,
      "si": 889,
      " re": 890,
      "ut": 891,
      " ska": 892,
      " från": 893,
      "änd": 894,
      "es": 895,
      "ak": 896,
      "itt": 897,
      "ort": 898,
      "äm": 899,
      "ent": 900,
      " un": 901,
      " pro": 902,
      "ma": 903,
      "ek": 904,
      "inn": 905,
      " A": 906,
      "ans": 907,
      "um": 908,
      " sp": 909,
      " M": 910,
      " (": 911,
      "ens": 912,
      "us": 913,
      " någ": 914,
      "la": 915,
      "fter": 916,
      "isk": 917,
      "Jag": 918,
      "iv": 919,
      "yck": 920,
      " kommer": 921,
      "ligt": 922,
      " över": 923,
      "ud": 924,
      "era": 925,
      " sam": 926,
      "var": 927,
      "va": 928,
      "dra": 929,
      "ina": 930,
      "äll": 931,
      " när": 932,
      " all": 933,
      "liga": 934,
      "og": 935,
      "änn": 936,
      " gör": 937,
      " C": 938,
      "ram": 939,
      " bar": 940,
      "ster": 941,
      " kon": 942,
      "sa": 943,
      " B": 944,
      "ff": 945,
      "ul": 946,
      "jäl": 947,
      "ser": 948,
      "!\n": 949,
      "ik": 950,
      "le": 951,
      "ell": 952,
      " ar": 953,
      "ste": 954,
      "sp": 955,
      " E": 956,
      "bet": 957,
      " P": 958,
      "Vi": 959,
      " sig": 960,
      "sl": 961,
      "äng": 962,
      "iska": 963,
      " T": 964,
      "rä": 965,
      " min": 966,
      " vara": 967,
      "kti": 968,
      "ker": 969,
      "dig": 970,
      " G": 971,
      "del": 972,
      " å": 973,
      " anv": 974,
      " under": 975,
      " man": 976,
      "20": 977,
      " dig": 978,
      "så": 979,
      "ull": 980,
      " H": 981,
      " F": 982,
      "ven": 983,
      " han": 984,
      "att": 985,
      " D": 986,
      "arna": 987,
      "yg": 988,
      "ers": 989,
      "je": 990,
      "uk": 991,
      " år": 992,
      " beh": 993,
      " må": 994,
      "bb": 995,
      " men": 996,
      " gen": 997,
      " I": 998,
      "ft": 999,
      " här": 1000,
      "pa": 1001,
      "se": 1002,
      " hel": 1003,
      " där": 1004,
      "ve": 1005,
      "ci": 1006,
      "tal": 1007,
      "inns": 1008,
      " ny": 1009,
      " alla": 1010,
      "gi": 1011,
      "ga": 1012,
      "ger": 1013,
      "ne": 1014,
      " efter": 1015,
      " L": 1016,
      "od": 1017,
      " vär": 1018,
      "art": 1019,
      " kun": 1020,
      " ock": 1021,
      "erna": 1022,
      " bli": 1023,
      "all": 1024,
      " tr": 1025,
      " också": 1026,
      "ats": 1027,
      "ok": 1028,
      "sam": 1029,
      " ha": 1030,
      "ill": 1031,
      "De": 1032,
      " ver": 1033,
      " finns": 1034,
      "För": 1035,
      " fl": 1036,
      " andra": 1037,
      "ic": 1038,
      " vill": 1039,
      "ningen": 1040,
      " K": 1041,
      " R": 1042,
      " del": 1043,
      "Den": 1044,
      " gr": 1045,
      "ling": 1046,
      " din": 1047,
      "ycket": 1048,
      "for": 1049,
      " än": 1050,
      " mig": 1051,
      " N": 1052,
      "öj": 1053,
      " c": 1054,
      " or": 1055,
      " mer": 1056,
      "ilj": 1057,
      "kl": 1058,
      " sl": 1059,
      " vis": 1060,
      " genom": 1061,
      " se": 1062,
      " ä": 1063,
      "öd": 1064,
      "os": 1065,
      " ex": 1066,
      "ningar": 1067,
      "id": 1068,
      " er": 1069,
      " detta": 1070,
      " dess": 1071,
      " dag": 1072,
      " dem": 1073,
      "itet": 1074,
      " bör": 1075,
      "..": 1076,
      " hon": 1077,
      "edan": 1078,
      "ord": 1079,
      " mycket": 1080,
      "terna": 1081,
      " fram": 1082,
      "ligen": 1083,
      "erson": 1084,
      " na": 1085,
      "yn": 1086,
      " bara": 1087,
      "und": 1088,
      "ist": 1089,
      "En": 1090,
      "ark": 1091,
      "tiv": 1092,
      "hå": 1093,
      "sö": 1094,
      " väl": 1095,
      "per": 1096,
      " vid": 1097,
      "gen": 1098,
      "land": 1099,
      "ånga": 1100,
      "ce": 1101,
      "ja": 1102,
      " få": 1103,
      "mer": 1104,
      " tv": 1105,
      " vad": 1106,
      " vil": 1107,
      " \"": 1108,
      " ing": 1109,
      "rå": 1110,
      " mot": 1111,
      " verk": 1112,
      "vis": 1113,
      "00": 1114,
      " göra": 1115,
      " någon": 1116,
      " J": 1117,
      " arbet": 1118,
      " sin": 1119,
      " ta": 1120,
      "tioner": 1121,
      "est": 1122,
      "eras": 1123,
      "Men": 1124,
      "Om": 1125,
      "ella": 1126,
      "änder": 1127,
      "ju": 1128,
      "ulle": 1129,
      " pl": 1130,
      " själ": 1131,
      " person": 1132,
      " hur": 1133,
      "cka": 1134,
      "ring": 1135,
      "sen": 1136,
      " po": 1137,
      "lem": 1138,
      "opp": 1139,
      "ld": 1140,
      " denna": 1141,
      " oss": 1142,
      " spel": 1143,
      " bet": 1144,
      "lighet": 1145,
      "som": 1146,
      " ber": 1147,
      " liv": 1148,
      "ru": 1149,
      " kl": 1150,
      "sti": 1151,
      " säg": 1152,
      "yr": 1153,
      " skulle": 1154,
      " W": 1155,
      " vår": 1156,
      "ant": 1157,
      " li": 1158,
      "dag": 1159,
      " rätt": 1160,
      " hö": 1161,
      "skap": 1162,
      " -": 1163,
      " sätt": 1164,
      "nan": 1165,
      " allt": 1166,
      "tat": 1167,
      " använd": 1168,
      "rig": 1169,
      " nu": 1170,
      "ber": 1171,
      "äk": 1172,
      " männ": 1173,
      "pl": 1174,
      " stor": 1175,
      " behö": 1176,
      " kv": 1177,
      "nad": 1178,
      " kom": 1179,
      "ende": 1180,
      "öl": 1181,
      "aren": 1182,
      "ken": 1183,
      " V": 1184,
      "ket": 1185,
      "ön": 1186,
      "yd": 1187,
      "ier": 1188,
      " br": 1189,
      "Och": 1190,
      "Du": 1191,
      " även": 1192,
      "ställ": 1193,
      " for": 1194,
      " U": 1195,
      "19": 1196,
      " ”": 1197,
      "ock": 1198,
      " vet": 1199,
      " måste": 1200,
      "ts": 1201,
      " många": 1202,
      "öm": 1203,
      " får": 1204,
      "etag": 1205,
      "ress": 1206,
      "In": 1207,
      "tid": 1208,
      " hade": 1209,
      "201": 1210,
      "ara": 1211,
      "sm": 1212,
      " utan": 1213,
      "kel": 1214,
      " något": 1215,
      "du": 1216,
      " barn": 1217,
      " –": 1218,
      " då": 1219,
      "veck": 1220,
      " hjäl": 1221,
      "äst": 1222,
      " människ": 1223,
      "bil": 1224,
      " bil": 1225,
      " bra": 1226,
      "åra": 1227,
      "des": 1228,
      "vär": 1229,
      " första": 1230,
      "yst": 1231,
      "gt": 1232,
      "ering": 1233,
      "det": 1234,
      " tid": 1235,
      " dessa": 1236,
      " le": 1237,
      "ost": 1238,
      "rar": 1239,
      "ann": 1240,
      "av": 1241,
      "ända": 1242,
      "ick": 1243,
      "im": 1244,
      "ion": 1245,
      "äker": 1246,
      "erade": 1247,
      "tionen": 1248,
      " bl": 1249,
      " inne": 1250,
      "ala": 1251,
      "lika": 1252,
      "sätt": 1253,
      "op": 1254,
      "ästa": 1255,
      " inom": 1256,
      " gång": 1257,
      " ser": 1258,
      "verk": 1259,
      "uro": 1260,
      " två": 1261,
      "ia": 1262,
      " sina": 1263,
      " själv": 1264,
      " O": 1265,
      "heter": 1266,
      " möj": 1267,
      "upp": 1268,
      "ott": 1269,
      " fort": 1270,
      " först": 1271,
      "ass": 1272,
      "man": 1273,
      " of": 1274,
      "håll": 1275,
      " ju": 1276,
      "Detta": 1277,
      "str": 1278,
      "ika": 1279,
      "åt": 1280,
      "ellan": 1281,
      " hå": 1282,
      "jän": 1283,
      " människor": 1284,
      "ov": 1285,
      "ets": 1286,
      "nat": 1287,
      "lden": 1288,
      " hem": 1289,
      "ast": 1290,
      " ri": 1291,
      "tro": 1292,
      "digt": 1293,
      "sion": 1294,
      " sm": 1295,
      "ystem": 1296,
      "När": 1297,
      "else": 1298,
      "kon": 1299,
      " utveck": 1300,
      " åt": 1301,
      "ölj": 1302,
      " hand": 1303,
      "riv": 1304,
      " ni": 1305,
      " fråg": 1306,
      " nya": 1307,
      "org": 1308,
      "gång": 1309,
      " sta": 1310,
      " fun": 1311,
      "ack": 1312,
      " ditt": 1313,
      "lev": 1314,
      "ytt": 1315,
      " mellan": 1316,
      "Han": 1317,
      "nings": 1318,
      "iga": 1319,
      "nar": 1320,
      " sak": 1321,
      " ra": 1322,
      " behöver": 1323,
      "ym": 1324,
      " ma": 1325,
      "forma": 1326,
      " börj": 1327,
      " våra": 1328,
      " olika": 1329,
      " w": 1330,
      " säker": 1331,
      "ef": 1332,
      "Hur": 1333,
      "”\n": 1334,
      "jär": 1335,
      " pre": 1336,
      " företag": 1337,
      "ägg": 1338,
      "tis": 1339,
      "ien": 1340,
      " led": 1341,
      "fr": 1342,
      " milj": 1343,
      " vä": 1344,
      "duk": 1345,
      "he": 1346,
      "mar": 1347,
      "Vad": 1348,
      " hela": 1349,
      " läng": 1350,
      ").\n": 1351,
      " ka": 1352,
      "oll": 1353,
      " hög": 1354,
      " världen": 1355,
      " vikti": 1356,
      "Var": 1357,
      " dina": 1358,
      " lag": 1359,
      " sitt": 1360,
      " gj": 1361,
      " säger": 1362,
      " int": 1363,
      "lar": 1364,
      "heten": 1365,
      ":\n": 1366,
      " mo": 1367,
      " sedan": 1368,
      "pel": 1369,
      " åter": 1370,
      " några": 1371,
      " stör": 1372,
      " deras": 1373,
      "fatt": 1374,
      "ub": 1375,
      " varje": 1376,
      "andet": 1377,
      " gå": 1378,
      "ära": 1379,
      "gr": 1380,
      " di": 1381,
      " In": 1382,
      ")\n": 1383,
      " sen": 1384,
      " pr": 1385,
      "\"\n": 1386,
      "men": 1387,
      "erar": 1388,
      " förb": 1389,
      "anska": 1390,
      " kän": 1391,
      "gram": 1392,
      "sök": 1393,
      " per": 1394,
      " gl": 1395,
      "tur": 1396,
      " blir": 1397,
      "ekt": 1398,
      "ob": 1399,
      "edel": 1400,
      "dan": 1401,
      "200": 1402,
      " kö": 1403,
      " te": 1404,
      " enda": 1405,
      "ygg": 1406,
      " ty": 1407,
      "ir": 1408,
      "formation": 1409,
      " sv": 1410,
      "tera": 1411,
      "min": 1412,
      " skall": 1413,
      " res": 1414,
      " ro": 1415,
      " honom": 1416,
      "ang": 1417,
      " ig": 1418,
      "eg": 1419,
      "erad": 1420,
      "änner": 1421,
      " hitt": 1422,
      "dom": 1423,
      "par": 1424,
      "nas": 1425,
      "net": 1426,
      " alltid": 1427,
      "usi": 1428,
      "ös": 1429,
      " fin": 1430,
      " sj": 1431,
      "...\n": 1432,
      "svar": 1433,
      "vet": 1434,
      " slut": 1435,
      "pro": 1436,
      " äl": 1437,
      "di": 1438,
      "ys": 1439,
      "arbet": 1440,
      "tor": 1441,
      " går": 1442,
      "ål": 1443,
      " el": 1444,
      " mark": 1445,
      " samma": 1446,
      " par": 1447,
      "alt": 1448,
      "äs": 1449,
      "ation": 1450,
      " bå": 1451,
      "tiska": 1452,
      " väg": 1453,
      "ank": 1454,
      "äd": 1455,
      " tro": 1456,
      "ske": 1457,
      "pe": 1458,
      "sb": 1459,
      "igt": 1460,
      ",\n": 1461,
      " hen": 1462,
      " vän": 1463,
      "olk": 1464,
      " helt": 1465,
      " hans": 1466,
      "Så": 1467,
      "uv": 1468,
      " änd": 1469,
      "gar": 1470,
      "10": 1471,
      " grund": 1472,
      "far": 1473,
      "nader": 1474,
      "blem": 1475,
      "äller": 1476,
      " varit": 1477,
      "skar": 1478,
      "dre": 1479,
      "ät": 1480,
      " vilket": 1481,
      "ebb": 1482,
      "lin": 1483,
      "ba": 1484,
      " Gud": 1485,
      " lång": 1486,
      " ur": 1487,
      "cent": 1488,
      "ellt": 1489,
      "skil": 1490,
      "ättre": 1491,
      " best": 1492,
      " information": 1493,
      "An": 1494,
      "sten": 1495,
      "utom": 1496,
      "orde": 1497,
      " läm": 1498,
      "ingen": 1499,
      " samt": 1500,
      " kunna": 1501,
      "komm": 1502,
      " använda": 1503,
      "ow": 1504,
      "äck": 1505,
      " eg": 1506,
      " läg": 1507,
      "akt": 1508,
      " mitt": 1509,
      "Att": 1510,
      " so": 1511,
      "bar": 1512,
      "vänd": 1513,
      " bästa": 1514,
      " tre": 1515,
      " ger": 1516,
      " ingen": 1517,
      " svar": 1518,
      " pen": 1519,
      " rel": 1520,
      "älla": 1521,
      " bättre": 1522,
      "anden": 1523,
      " fil": 1524,
      " trä": 1525,
      "ab": 1526,
      "anis": 1527,
      "gör": 1528,
      "gifter": 1529,
      "ingar": 1530,
      " ge": 1531,
      " följ": 1532,
      " annan": 1533,
      "ie": 1534,
      " tjän": 1535,
      " kr": 1536,
      " tän": 1537,
      " erb": 1538,
      "tiva": 1539,
      "ldrig": 1540,
      "eci": 1541,
      " arti": 1542,
      "ekn": 1543,
      " produk": 1544,
      "ten": 1545,
      " ly": 1546,
      "empel": 1547,
      "iskt": 1548,
      " förs": 1549,
      " al": 1550,
      "tar": 1551,
      "kten": 1552,
      "slut": 1553,
      " igen": 1554,
      " kra": 1555,
      "olog": 1556,
      " reg": 1557,
      "istor": 1558,
      " annat": 1559,
      " bi": 1560,
      "ug": 1561,
      " mest": 1562,
      "lek": 1563,
      "andling": 1564,
      " lite": 1565,
      " förv": 1566,
      "tra": 1567,
      "äns": 1568,
      " vin": 1569,
      "ator": 1570,
      "vs": 1571,
      " aldrig": 1572,
      "ung": 1573,
      " webb": 1574,
      " van": 1575,
      "naden": 1576,
      "enter": 1577,
      " sö": 1578,
      "talet": 1579,
      " Euro": 1580,
      " eff": 1581,
      "nabb": 1582,
      "tionella": 1583,
      " hos": 1584,
      "tta": 1585,
      " gra": 1586,
      " speci": 1587,
      "tiskt": 1588,
      "met": 1589,
      " on": 1590,
      " ord": 1591,
      " akti": 1592,
      "led": 1593,
      "uta": 1594,
      "ades": 1595,
      " fall": 1596,
      " förl": 1597,
      " si": 1598,
      "orna": 1599,
      "tag": 1600,
      "mans": 1601,
      " produ": 1602,
      " mål": 1603,
      "anta": 1604,
      "rätt": 1605,
      " tar": 1606,
      "erat": 1607,
      " komma": 1608,
      "uvud": 1609,
      " ch": 1610,
      " flera": 1611,
      "oka": 1612,
      "nen": 1613,
      "eller": 1614,
      " fär": 1615,
      "jer": 1616,
      " lever": 1617,
      "jekt": 1618,
      "ropp": 1619,
      "Med": 1620,
      "teg": 1621,
      " stora": 1622,
      "br": 1623,
      " bort": 1624,
      "Dess": 1625,
      "gär": 1626,
      " kvinn": 1627,
      " snabb": 1628,
      "baka": 1629,
      " eftersom": 1630,
      " dom": 1631,
      " egen": 1632,
      " medlem": 1633,
      " öpp": 1634,
      "tu": 1635,
      " problem": 1636,
      "kom": 1637,
      "SA": 1638,
      "ote": 1639,
      "ke": 1640,
      " blev": 1641,
      "ard": 1642,
      "obb": 1643,
      " plan": 1644,
      " ve": 1645,
      "fl": 1646,
      " val": 1647,
      "kta": 1648,
      " pa": 1649,
      " ofta": 1650,
      "unt": 1651,
      " exempel": 1652,
      " An": 1653,
      "ex": 1654,
      "kor": 1655,
      " mis": 1656,
      "pt": 1657,
      "rum": 1658,
      ".”\n": 1659,
      "Är": 1660,
      "yl": 1661,
      "Un": 1662,
      "ånd": 1663,
      " org": 1664,
      " verkligen": 1665,
      "med": 1666,
      "yra": 1667,
      " tror": 1668,
      " enligt": 1669,
      " skri": 1670,
      " tillbaka": 1671,
      " tidig": 1672,
      "pen": 1673,
      " krä": 1674,
      "oli": 1675,
      "ektiv": 1676,
      "amilj": 1677,
      "oner": 1678,
      " gäller": 1679,
      "Ett": 1680,
      "han": 1681,
      " innan": 1682,
      " sn": 1683,
      " tekn": 1684,
      "ärskil": 1685,
      "elser": 1686,
      " lär": 1687,
      " komp": 1688,
      "Har": 1689,
      " mat": 1690,
      "sför": 1691,
      " kall": 1692,
      " hjär": 1693,
      " häl": 1694,
      " off": 1695,
      " pra": 1696,
      "På": 1697,
      "ust": 1698,
      "atser": 1699,
      "ultat": 1700,
      "rid": 1701,
      " hör": 1702,
      "ående": 1703,
      "farande": 1704,
      " full": 1705,
      " lig": 1706,
      " fick": 1707,
      " sjuk": 1708,
      " natur": 1709,
      " syn": 1710,
      " vatt": 1711,
      "tig": 1712,
      "fin": 1713,
      " områ": 1714,
      "ata": 1715,
      "sak": 1716,
      "ess": 1717,
      "eh": 1718,
      "ren": 1719,
      " ner": 1720,
      "iver": 1721,
      " män": 1722,
      " rö": 1723,
      " dire": 1724,
      "nes": 1725,
      "jud": 1726,
      "lägg": 1727,
      "plats": 1728,
      " intress": 1729,
      "sammans": 1730,
      "derna": 1731,
      "cess": 1732,
      " plats": 1733,
      "las": 1734,
      " bok": 1735,
      "ler": 1736,
      "nade": 1737,
      " rå": 1738,
      "Där": 1739,
      ".\"\n": 1740,
      "if": 1741,
      " berätt": 1742,
      "eb": 1743,
      " kunde": 1744,
      "teri": 1745,
      "bild": 1746,
      " föränd": 1747,
      " kanske": 1748,
      "och": 1749,
      "ner": 1750,
      " huvud": 1751,
      "sh": 1752,
      " god": 1753,
      " land": 1754,
      "Alla": 1755,
      " sådan": 1756,
      " nam": 1757,
      " väx": 1758,
      "kar": 1759,
      "Kan": 1760,
      "mär": 1761,
      "sin": 1762,
      "kade": 1763,
      "Hon": 1764,
      "älj": 1765,
      " tra": 1766,
      " Ch": 1767,
      " mö": 1768,
      " forsk": 1769,
      "räck": 1770,
      "io": 1771,
      " kär": 1772,
      " både": 1773,
      "konom": 1774,
      " stöd": 1775,
      " använder": 1776,
      " möjlighet": 1777,
      "sn": 1778,
      "ender": 1779,
      " sy": 1780,
      " särskil": 1781,
      " hjälp": 1782,
      "alitet": 1783,
      " program": 1784,
      " utveckling": 1785,
      " histor": 1786,
      " kropp": 1787,
      " em": 1788,
      "rist": 1789,
      " lå": 1790,
      " dra": 1791,
      " bland": 1792,
      " erbju": 1793,
      " artikel": 1794,
      " fle": 1795,
      " saker": 1796,
      " met": 1797,
      " lä": 1798,
      " familj": 1799,
      "giv": 1800,
      " form": 1801,
      " lätt": 1802,
      "pan": 1803,
      "samhet": 1804,
      " lik": 1805,
      "Till": 1806,
      "),": 1807,
      " redan": 1808,
      "ycker": 1809,
      "15": 1810,
      " säga": 1811,
      " mina": 1812,
      " jobb": 1813,
      "årt": 1814,
      "”.\n": 1815,
      " poli": 1816,
      " gam": 1817,
      " .\n": 1818,
      "ister": 1819,
      " idag": 1820,
      " ekonom": 1821,
      " regi": 1822,
      " hän": 1823,
      " dö": 1824,
      "Som": 1825,
      " personer": 1826,
      "ry": 1827,
      " fortfarande": 1828,
      "enskap": 1829,
      " mindre": 1830,
      " risk": 1831,
      " bek": 1832,
      "form": 1833,
      "terar": 1834,
      " dock": 1835,
      " tidigare": 1836,
      "sf": 1837,
      "äv": 1838,
      " St": 1839,
      " gjort": 1840,
      " interna": 1841,
      "Här": 1842,
      "ret": 1843,
      "slag": 1844,
      "18": 1845,
      "tik": 1846,
      "tet": 1847,
      " enkel": 1848,
      " ligger": 1849,
      "red": 1850,
      " tillsammans": 1851,
      "aste": 1852,
      " lö": 1853,
      " fri": 1854,
      " kontro": 1855,
      " väldigt": 1856,
      " ställ": 1857,
      " vissa": 1858,
      " endast": 1859,
      " red": 1860,
      "orm": 1861,
      "spro": 1862,
      "stånd": 1863,
      " tal": 1864,
      " skyd": 1865,
      "gon": 1866,
      "Efter": 1867,
      "lag": 1868,
      " system": 1869,
      " im": 1870,
      "oh": 1871,
      " ob": 1872,
      " inkl": 1873,
      "ivå": 1874,
      " håll": 1875,
      " soci": 1876,
      "rott": 1877,
      "ument": 1878,
      " procent": 1879,
      " Vi": 1880,
      "amma": 1881,
      " förstå": 1882,
      " rör": 1883,
      " EU": 1884,
      "Denna": 1885,
      " inneb": 1886,
      " fast": 1887,
      "häll": 1888,
      "ivers": 1889,
      "gäng": 1890,
      " dr": 1891,
      "Varför": 1892,
      " hjälpa": 1893,
      " möjligt": 1894,
      "ind": 1895,
      " längre": 1896,
      " inter": 1897,
      " fak": 1898,
      " folk": 1899,
      " USA": 1900,
      " ytt": 1901,
      "jur": 1902,
      " fortsätt": 1903,
      "Nu": 1904,
      " bak": 1905,
      "Sk": 1906,
      " kor": 1907,
      "män": 1908,
      " hus": 1909,
      "000": 1910,
      " sa": 1911,
      " pengar": 1912,
      "från": 1913,
      " Y": 1914,
      "All": 1915,
      " [": 1916,
      " organis": 1917,
      " tiden": 1918,
      " största": 1919,
      "ämp": 1920,
      " and": 1921,
      "klar": 1922,
      "bart": 1923,
      " läk": 1924,
      "spel": 1925,
      " försö": 1926,
      " tag": 1927,
      " kons": 1928,
      "fi": 1929,
      " värld": 1930,
      "anc": 1931,
      " pris": 1932,
      " fel": 1933,
      "ris": 1934,
      "ari": 1935,
      "olag": 1936,
      "yndig": 1937,
      " data": 1938,
      " äg": 1939,
      "ård": 1940,
      " vatten": 1941,
      "ligare": 1942,
      "drag": 1943,
      " bestäm": 1944,
      " produkter": 1945,
      " kost": 1946,
      " fler": 1947,
      "håller": 1948,
      "väg": 1949,
      " därför": 1950,
      "me": 1951,
      "Fr": 1952,
      " känner": 1953,
      " kli": 1954,
      "ps": 1955,
      " sex": 1956,
      " kvinnor": 1957,
      "oende": 1958,
      "30": 1959,
      "uter": 1960,
      " vårt": 1961,
      " flyg": 1962,
      " förm": 1963,
      " ansvar": 1964,
      " resultat": 1965,
      " fem": 1966,
      " ener": 1967,
      "tisk": 1968,
      " bety": 1969,
      "12": 1970,
      "\".\n": 1971,
      " främ": 1972,
      "äpp": 1973,
      " to": 1974,
      " beslut": 1975,
      " skapa": 1976,
      "bland": 1977,
      " kul": 1978,
      "ige": 1979,
      "ay": 1980,
      " henne": 1981,
      " En": 1982,
      "St": 1983,
      "ubli": 1984,
      " används": 1985,
      "till": 1986,
      " tim": 1987,
      "bo": 1988,
      " före": 1989,
      " sid": 1990,
      " und": 1991,
      "alis": 1992,
      " utt": 1993,
      " förbätt": 1994,
      "ästan": 1995,
      "pi": 1996,
      "änk": 1997,
      " funk": 1998,
      "Under": 1999,
      "ej": 2000,
      "tering": 2001,
      " dagar": 2002,
      "so": 2003,
      " flesta": 2004,
      " nog": 2005,
      "ac": 2006,
      "fri": 2007,
      "...": 2008,
      " stud": 2009,
      "ha": 2010,
      "ev": 2011,
      " viktigt": 2012,
      " rikti": 2013,
      "port": 2014,
      " jäm": 2015,
      " veck": 2016,
      " nära": 2017,
      " räd": 2018,
      "cis": 2019,
      "one": 2020,
      "Ut": 2021,
      " säkerhet": 2022,
      " stu": 2023,
      " runt": 2024,
      "kan": 2025,
      " bygg": 2026,
      "vit": 2027,
      " fot": 2028,
      " öka": 2029,
      " pla": 2030,
      " hitta": 2031,
      " tillgäng": 2032,
      " kort": 2033,
      " gjorde": 2034,
      "åga": 2035,
      " visar": 2036,
      "van": 2037,
      " död": 2038,
      " större": 2039,
      "ften": 2040,
      "tas": 2041,
      "föra": 2042,
      " lika": 2043,
      "yt": 2044,
      "50": 2045,
      "vent": 2046,
      " länder": 2047,
      " star": 2048,
      " själva": 2049,
      "ännu": 2050,
      "bara": 2051,
      " samhäll": 2052,
      ":s": 2053,
      "sig": 2054,
      " kvar": 2055,
      " trans": 2056,
      "ission": 2057,
      "andra": 2058,
      "äder": 2059,
      "Vil": 2060,
      "andel": 2061,
      " stat": 2062,
      "sst": 2063,
      "val": 2064,
      " allmän": 2065,
      " gem": 2066,
      " ännu": 2067,
      "line": 2068,
      " namn": 2069,
      " ih": 2070,
      "ons": 2071,
      "ew": 2072,
      " grupp": 2073,
      "dar": 2074,
      " innebär": 2075,
      " dri": 2076,
      " händer": 2077,
      "ffär": 2078,
      "terade": 2079,
      "ationer": 2080,
      " börjar": 2081,
      " hennes": 2082,
      " senaste": 2083,
      "tade": 2084,
      " tred": 2085,
      " konta": 2086,
      "vä": 2087,
      "ansi": 2088,
      " ung": 2089,
      " vilken": 2090,
      " omfatt": 2091,
      "elsen": 2092,
      "merik": 2093,
      "otell": 2094,
      " bor": 2095,
      " sti": 2096,
      "igheter": 2097,
      "Man": 2098,
      "gel": 2099,
      " ön": 2100,
      "jus": 2101,
      "bel": 2102,
      "varande": 2103,
      "vi": 2104,
      " kommun": 2105,
      " viktiga": 2106,
      "fär": 2107,
      " marknad": 2108,
      " enkelt": 2109,
      "ringar": 2110,
      " bas": 2111,
      " “": 2112,
      " styr": 2113,
      "tr": 2114,
      "yll": 2115,
      "ong": 2116,
      " samarbet": 2117,
      " hålla": 2118,
      "ras": 2119,
      " lös": 2120,
      " hopp": 2121,
      " För": 2122,
      "rev": 2123,
      " direkt": 2124,
      "tidigt": 2125,
      " varför": 2126,
      "verka": 2127,
      " Sver": 2128,
      " fråga": 2129,
      "hör": 2130,
      "gräns": 2131,
      "terial": 2132,
      " aktiv": 2133,
      " ned": 2134,
      "por": 2135,
      "ity": 2136,
      "satt": 2137,
      "xt": 2138,
      " nöd": 2139,
      "tivt": 2140,
      " ad": 2141,
      "dade": 2142,
      "örer": 2143,
      " fått": 2144,
      " blivit": 2145,
      "Dessa": 2146,
      " små": 2147,
      " betal": 2148,
      "fer": 2149,
      " tycker": 2150,
      " erbjuder": 2151,
      "ori": 2152,
      "unk": 2153,
      "ge": 2154,
      " inför": 2155,
      " nästan": 2156,
      "inner": 2157,
      " älskar": 2158,
      " stra": 2159,
      "eter": 2160,
      " skol": 2161,
      " byg": 2162,
      "cke": 2163,
      " typ": 2164,
      " prof": 2165,
      " åtgär": 2166,
      " bed": 2167,
      "skri": 2168,
      " inve": 2169,
      "illar": 2170,
      " vilka": 2171,
      " projekt": 2172,
      " behandling": 2173,
      " nytt": 2174,
      "råk": 2175,
      "peiska": 2176,
      " tjänster": 2177,
      "ice": 2178,
      "iten": 2179,
      " särskilt": 2180,
      "our": 2181,
      " står": 2182,
      " ind": 2183,
      " nät": 2184,
      "dens": 2185,
      " inget": 2186,
      "ars": 2187,
      "unkt": 2188,
      " Un": 2189,
      " livet": 2190,
      " The": 2191,
      " loka": 2192,
      " rapp": 2193,
      " förh": 2194,
      " arbete": 2195,
      " op": 2196,
      " skap": 2197,
      " ytter": 2198,
      " bef": 2199,
      " ögon": 2200,
      "ständ": 2201,
      " rum": 2202,
      "lan": 2203,
      " ter": 2204,
      " länge": 2205,
      " kam": 2206,
      "yk": 2207,
      "uella": 2208,
      " senare": 2209,
      "över": 2210,
      "hus": 2211,
      " konst": 2212,
      " tillgång": 2213,
      " energi": 2214,
      " et": 2215,
      "iner": 2216,
      "16": 2217,
      "onen": 2218,
      " &": 2219,
      "Pro": 2220,
      " uppf": 2221,
      " just": 2222,
      "res": 2223,
      "samma": 2224,
      " mas": 2225,
      " Europa": 2226,
      " bel": 2227,
      " miljoner": 2228,
      "100": 2229,
      " samman": 2230,
      " gånger": 2231,
      " amerik": 2232,
      " funger": 2233,
      "ligtvis": 2234,
      " euro": 2235,
      "sett": 2236,
      " musi": 2237,
      "rik": 2238,
      "to": 2239,
      "Även": 2240,
      " via": 2241,
      " icke": 2242,
      "raf": 2243,
      "ral": 2244,
      " uppt": 2245,
      "öst": 2246,
      "dent": 2247,
      " webbplats": 2248,
      "olen": 2249,
      " fyra": 2250,
      "sättning": 2251,
      "oder": 2252,
      "ran": 2253,
      " affär": 2254,
      "199": 2255,
      "skriv": 2256,
      " kärlek": 2257,
      " Det": 2258,
      " utbild": 2259,
      " miljö": 2260,
      "orn": 2261,
      " id": 2262,
      " kör": 2263,
      "unda": 2264,
      " fanta": 2265,
      "11": 2266,
      "ron": 2267,
      " dagen": 2268,
      " spela": 2269,
      "okus": 2270,
      "Allt": 2271,
      "faren": 2272,
      "mat": 2273,
      "rukt": 2274,
      " part": 2275,
      "cker": 2276,
      " förlor": 2277,
      " tredje": 2278,
      "ins": 2279,
      " faktiskt": 2280,
      "denti": 2281,
      " cent": 2282,
      " ci": 2283,
      "enom": 2284,
      " gick": 2285,
      "inna": 2286,
      "förs": 2287,
      " veta": 2288,
      " frågor": 2289,
      " behov": 2290,
      "Min": 2291,
      "ött": 2292,
      " lu": 2293,
      " nödvänd": 2294,
      " kri": 2295,
      "cen": 2296,
      "ighet": 2297,
      "ton": 2298,
      "sikt": 2299,
      "usive": 2300,
      "Inte": 2301,
      " tog": 2302,
      "uss": 2303,
      " kunder": 2304,
      " började": 2305,
      "]\n": 2306,
      "ställa": 2307,
      "els": 2308,
      " stort": 2309,
      " såg": 2310,
      "dera": 2311,
      " tur": 2312,
      " posi": 2313,
      " sade": 2314,
      " far": 2315,
      "rupp": 2316,
      " teknik": 2317,
      "17": 2318,
      "Vis": 2319,
      "fäll": 2320,
      " Sverige": 2321,
      " str": 2322,
      "itu": 2323,
      "fall": 2324,
      "no": 2325,
      " steg": 2326,
      "-p": 2327,
      " rekomm": 2328,
      " effektiv": 2329,
      "lick": 2330,
      " delar": 2331,
      " rep": 2332,
      "14": 2333,
      " lära": 2334,
      "yp": 2335,
      " Re": 2336,
      " egna": 2337,
      "vid": 2338,
      " Ar": 2339,
      " varandra": 2340,
      "ration": 2341,
      " uppgifter": 2342,
      " finansi": 2343,
      "ux": 2344,
      "co": 2345,
      " sjukdom": 2346,
      " Mar": 2347,
      " gången": 2348,
      " fann": 2349,
      " förut": 2350,
      "ternativ": 2351,
      "cy": 2352,
      "ond": 2353,
      "spr": 2354,
      " framti": 2355,
      " tillämp": 2356,
      " båda": 2357,
      "fråg": 2358,
      "ings": 2359,
      " nästa": 2360,
      " Jag": 2361,
      " medan": 2362,
      " köpa": 2363,
      " arbetar": 2364,
      " träff": 2365,
      " månader": 2366,
      " snabbt": 2367,
      " emot": 2368,
      "tionell": 2369,
      "nande": 2370,
      "get": 2371,
      "orer": 2372,
      " välja": 2373,
      "enti": 2374,
      " myndig": 2375,
      " invester": 2376,
      "ou": 2377,
      "stad": 2378,
      " behand": 2379,
      "Någ": 2380,
      "asin": 2381,
      " liten": 2382,
      "Då": 2383,
      "delse": 2384,
      " håller": 2385,
      " vänner": 2386,
      "ork": 2387,
      " mänsk": 2388,
      " besök": 2389,
      " ol": 2390,
      " beg": 2391,
      " svårt": 2392,
      " minska": 2393,
      "13": 2394,
      " tillräck": 2395,
      "lam": 2396,
      " vack": 2397,
      "under": 2398,
      " precis": 2399,
      "ses": 2400,
      "ningarna": 2401,
      " blod": 2402,
      "icka": 2403,
      " hjälper": 2404,
      " nå": 2405,
      " framgång": 2406,
      "kte": 2407,
      "dern": 2408,
      "vik": 2409,
      " pri": 2410,
      "enhet": 2411,
      " disk": 2412,
      "hålla": 2413,
      " förvän": 2414,
      " erfaren": 2415,
      " föräl": 2416,
      "ap": 2417,
      " timmar": 2418,
      "ita": 2419,
      " handlar": 2420,
      "lad": 2421,
      "elef": 2422,
      " djur": 2423,
      "Komm": 2424,
      " fokus": 2425,
      "ktiv": 2426,
      "pul": 2427,
      " innehåller": 2428,
      " riktigt": 2429,
      "kur": 2430,
      " reger": 2431,
      " hal": 2432,
      "rat": 2433,
      "ine": 2434,
      " ytterligare": 2435,
      "ite": 2436,
      " näm": 2437,
      " dator": 2438,
      "alen": 2439,
      " stad": 2440,
      "Många": 2441,
      "yss": 2442,
      "its": 2443,
      " online": 2444,
      "”,": 2445,
      " publi": 2446,
      " skill": 2447,
      " pass": 2448,
      " process": 2449,
      " app": 2450,
      "eln": 2451,
      " ljus": 2452,
      "unden": 2453,
      "ktyg": 2454,
      " början": 2455,
      " the": 2456,
      " lycka": 2457,
      "ror": 2458,
      " sett": 2459,
      " fantasti": 2460,
      " glob": 2461,
      " ne": 2462,
      "cep": 2463,
      " inga": 2464,
      " fördel": 2465,
      " sådana": 2466,
      "25": 2467,
      " året": 2468,
      " /": 2469,
      "ember": 2470,
      "olu": 2471,
      " tills": 2472,
      " nivå": 2473,
      "teras": 2474,
      " fungerar": 2475,
      " kvalitet": 2476,
      " pati": 2477,
      " inklusive": 2478,
      " desig": 2479,
      " bild": 2480,
      "sra": 2481,
      "ölja": 2482,
      "Sam": 2483,
      "vän": 2484,
      " Pro": 2485,
      " inf": 2486,
      "kän": 2487,
      "öv": 2488,
      " följande": 2489,
      "uppgifter": 2490,
      "\",": 2491,
      " bud": 2492,
      " känna": 2493,
      "up": 2494,
      "orden": 2495,
      "ana": 2496,
      " fi": 2497,
      " forskning": 2498,
      "iet": 2499,
      " produkt": 2500,
      " ab": 2501,
      " användning": 2502,
      "fik": 2503,
      " by": 2504,
      " sista": 2505,
      "snitt": 2506,
      " förbättra": 2507,
      " öv": 2508,
      " ann": 2509,
      " begräns": 2510,
      " långt": 2511,
      " antal": 2512,
      " offent": 2513,
      "ox": 2514,
      " betyder": 2515,
      "går": 2516,
      " identi": 2517,
      " kraft": 2518,
      "..\n": 2519,
      " ute": 2520,
      " ac": 2521,
      " borde": 2522,
      " köp": 2523,
      " :": 2524,
      "borg": 2525,
      " mäng": 2526,
      " minuter": 2527,
      " helst": 2528,
      "ssta": 2529,
      " förhåll": 2530,
      " Ma": 2531,
      " Fr": 2532,
      " användas": 2533,
      " vidare": 2534,
      " roll": 2535,
      " ens": 2536,
      "räd": 2537,
      " perf": 2538,
      " avsl": 2539,
      " världens": 2540,
      " mil": 2541,
      "äss": 2542,
      "ösa": 2543,
      "eder": 2544,
      " fakt": 2545,
      "rit": 2546,
      " åtgärder": 2547,
      "tes": 2548,
      " gamla": 2549,
      " gillar": 2550,
      " ren": 2551,
      " verksamhet": 2552,
      " samtidigt": 2553,
      "Se": 2554,
      "olis": 2555,
      "icin": 2556,
      " sidan": 2557,
      "int": 2558,
      "handa": 2559,
      " minst": 2560,
      " haft": 2561,
      "spek": 2562,
      "juk": 2563,
      " ang": 2564,
      "ruktur": 2565,
      "ök": 2566,
      "use": 2567,
      " internationella": 2568,
      " sym": 2569,
      "Ja": 2570,
      " krig": 2571,
      " inb": 2572,
      " anal": 2573,
      " go": 2574,
      " tack": 2575,
      "tions": 2576,
      " univers": 2577,
      " värde": 2578,
      "lade": 2579,
      "stitu": 2580,
      " äm": 2581,
      " fas": 2582,
      "bas": 2583,
      " material": 2584,
      "ubb": 2585,
      " släpp": 2586,
      " läsa": 2587,
      "stället": 2588,
      " gemens": 2589,
      "esus": 2590,
      "len": 2591,
      " fa": 2592,
      " New": 2593,
      "sprung": 2594,
      " tillfäll": 2595,
      "tem": 2596,
      "ordning": 2597,
      "dagen": 2598,
      "system": 2599,
      " fru": 2600,
      " börja": 2601,
      " flytt": 2602,
      " tyd": 2603,
      " verkar": 2604,
      " högre": 2605,
      " viktig": 2606,
      "anna": 2607,
      " mär": 2608,
      "issionen": 2609,
      " natt": 2610,
      " kontroller": 2611,
      "tim": 2612,
      "ore": 2613,
      "avsett": 2614,
      " Guds": 2615,
      " fatt": 2616,
      " någonsin": 2617,
      " vem": 2618,
      "grupp": 2619,
      " tank": 2620,
      " Go": 2621,
      " De": 2622,
      "by": 2623,
      "sol": 2624,
      "Vid": 2625,
      " elekt": 2626,
      "ya": 2627,
      " mag": 2628,
      " visa": 2629,
      " innehåll": 2630,
      " gener": 2631,
      "ännande": 2632,
      " situ": 2633,
      " fanns": 2634,
      " Her": 2635,
      "drar": 2636,
      " ganska": 2637,
      " anställ": 2638,
      "unn": 2639,
      "iteten": 2640,
      " rekommender": 2641,
      "lats": 2642,
      " enlighet": 2643,
      " cir": 2644,
      " %": 2645,
      " blog": 2646,
      " kar": 2647,
      "ns": 2648,
      " skicka": 2649,
      " bilder": 2650,
      " tillhanda": 2651,
      "ester": 2652,
      " defin": 2653,
      "Därför": 2654,
      "ater": 2655,
      "kn": 2656,
      " såsom": 2657,
      " sag": 2658,
      " mör": 2659,
      " alternativ": 2660,
      "stå": 2661,
      " bo": 2662,
      " råd": 2663,
      "kv": 2664,
      "…\n": 2665,
      "staur": 2666,
      " indiv": 2667,
      "diga": 2668,
      " orsak": 2669,
      "-talet": 2670,
      "fil": 2671,
      " sociala": 2672,
      " y": 2673,
      " gar": 2674,
      " tem": 2675,
      " uppn": 2676,
      "märk": 2677,
      " utman": 2678,
      " genomför": 2679,
      "fte": 2680,
      "cer": 2681,
      " Z": 2682,
      "Läs": 2683,
      "Upp": 2684,
      " film": 2685,
      " kallas": 2686,
      "40": 2687,
      " sven": 2688,
      " lämna": 2689,
      "ationen": 2690,
      "Eller": 2691,
      "lo": 2692,
      "nam": 2693,
      " kunskap": 2694,
      " komb": 2695,
      "ting": 2696,
      "tals": 2697,
      "Re": 2698,
      "Sedan": 2699,
      "rust": 2700,
      " tänka": 2701,
      " framför": 2702,
      " kol": 2703,
      "uti": 2704,
      " alltså": 2705,
      " hemma": 2706,
      " inv": 2707,
      " Sh": 2708,
      " spelar": 2709,
      " historia": 2710,
      "rade": 2711,
      " sol": 2712,
      "ansk": 2713,
      " ål": 2714,
      "kter": 2715,
      " registr": 2716,
      " dröm": 2717,
      "bi": 2718,
      "ium": 2719,
      " kopp": 2720,
      " extra": 2721,
      " test": 2722,
      "emang": 2723,
      "lex": 2724,
      " skriv": 2725,
      "ui": 2726,
      " kräver": 2727,
      "atur": 2728,
      "söka": 2729,
      " låg": 2730,
      " resa": 2731,
      " utbildning": 2732,
      "derar": 2733,
      "usen": 2734,
      "ism": 2735,
      " jord": 2736,
      " landet": 2737,
      "gift": 2738,
      "lament": 2739,
      "gå": 2740,
      " hotell": 2741,
      " idé": 2742,
      " heller": 2743,
      " meddel": 2744,
      "verkar": 2745,
      " musik": 2746,
      "igh": 2747,
      "amp": 2748,
      " vilja": 2749,
      "mark": 2750,
      " låt": 2751,
      " krävs": 2752,
      " vå": 2753,
      " utanför": 2754,
      " träd": 2755,
      "sla": 2756,
      " föd": 2757,
      " koll": 2758,
      " använ": 2759,
      " popul": 2760,
      " staden": 2761,
      " marknaden": 2762,
      " ursprung": 2763,
      " tillräckligt": 2764,
      "inci": 2765,
      "ummer": 2766,
      " arbeta": 2767,
      "lien": 2768,
      "ssystem": 2769,
      "ligheten": 2770,
      " kontroll": 2771,
      " sek": 2772,
      " jämför": 2773,
      " ibland": 2774,
      "ph": 2775,
      "ryck": 2776,
      "indra": 2777,
      " ovan": 2778,
      " försöker": 2779,
      "Av": 2780,
      " skydd": 2781,
      "band": 2782,
      "undra": 2783,
      " Sk": 2784,
      " hår": 2785,
      " känn": 2786,
      "iss": 2787,
      " Fa": 2788,
      " känsl": 2789,
      "Varje": 2790,
      "ulla": 2791,
      " anled": 2792,
      "Vill": 2793,
      "nova": 2794,
      "ikation": 2795,
      " mode": 2796,
      "stag": 2797,
      " Ro": 2798,
      "ferens": 2799,
      " medvet": 2800,
      " uppnå": 2801,
      " tradi": 2802,
      "Ska": 2803,
      " su": 2804,
      " Le": 2805,
      " utveckla": 2806,
      "Ar": 2807,
      " arbets": 2808,
      " rappor": 2809,
      "ätta": 2810,
      "tre": 2811,
      "Kon": 2812,
      " äta": 2813,
      " mobil": 2814,
      " vide": 2815,
      "eri": 2816,
      " konkur": 2817,
      " områden": 2818,
      "dor": 2819,
      " rättigheter": 2820,
      " ville": 2821,
      " Al": 2822,
      " maj": 2823,
      "komst": 2824,
      "lut": 2825,
      "tigt": 2826,
      " presen": 2827,
      " insta": 2828,
      " ändå": 2829,
      " hund": 2830,
      "smedel": 2831,
      " ko": 2832,
      "ppa": 2833,
      "chen": 2834,
      "skaper": 2835,
      "skt": 2836,
      " kyr": 2837,
      " ins": 2838,
      "Genom": 2839,
      " räk": 2840,
      "60": 2841,
      " utom": 2842,
      "plan": 2843,
      "ionen": 2844,
      "vice": 2845,
      " lo": 2846,
      " villkor": 2847,
      " teck": 2848,
      " vägen": 2849,
      "24": 2850,
      "Vem": 2851,
      "vara": 2852,
      " Co": 2853,
      "Dessutom": 2854,
      " lämp": 2855,
      "qu": 2856,
      " leva": 2857,
      " Mo": 2858,
      " fortsätta": 2859,
      "tiga": 2860,
      " åren": 2861,
      "ever": 2862,
      " lev": 2863,
      " älska": 2864,
      " Man": 2865,
      " spelare": 2866,
      " vetenskap": 2867,
      " fortsätter": 2868,
      " sagt": 2869,
      " profess": 2870,
      "stri": 2871,
      " effek": 2872,
      " Stor": 2873,
      "rådet": 2874,
      " ihåg": 2875,
      " upplev": 2876,
      " grän": 2877,
      "skatt": 2878,
      "bl": 2879,
      "uld": 2880,
      "öjd": 2881,
      "Ingen": 2882,
      " vanliga": 2883,
      " snart": 2884,
      " ant": 2885,
      "inne": 2886,
      " kväll": 2887,
      " sida": 2888,
      " slag": 2889,
      "fier": 2890,
      " följa": 2891,
      " handel": 2892,
      " skriver": 2893,
      " prakti": 2894,
      " funktion": 2895,
      " dok": 2896,
      " trän": 2897,
      "tighet": 2898,
      "her": 2899,
      " exper": 2900,
      "ich": 2901,
      "ologi": 2902,
      "bu": 2903,
      " bäst": 2904,
      " norm": 2905,
      " medicin": 2906,
      "mal": 2907,
      " dju": 2908,
      "orgon": 2909,
      " slutet": 2910,
      "ogle": 2911,
      " skriva": 2912,
      " läkem": 2913,
      " kultur": 2914,
      " allvar": 2915,
      " lägga": 2916,
      "entligen": 2917,
      " öppna": 2918,
      "cera": 2919,
      "öcker": 2920,
      "urser": 2921,
      "sikti": 2922,
      "räff": 2923,
      "tan": 2924,
      " vecka": 2925,
      " amerikanska": 2926,
      "väm": 2927,
      " dör": 2928,
      " tänker": 2929,
      "dant": 2930,
      " hittar": 2931,
      " telef": 2932,
      " inklu": 2933,
      "be": 2934,
      "åter": 2935,
      " förklar": 2936,
      " stand": 2937,
      " regel": 2938,
      " medel": 2939,
      " språk": 2940,
      "lingar": 2941,
      " ers": 2942,
      " fys": 2943,
      " kn": 2944,
      " fred": 2945,
      "program": 2946,
      " ,": 2947,
      "ancer": 2948,
      "stans": 2949,
      " lyss": 2950,
      "väl": 2951,
      "napp": 2952,
      " redo": 2953,
      " fören": 2954,
      " påverka": 2955,
      "kra": 2956,
      "läg": 2957,
      "lös": 2958,
      " eget": 2959,
      " gär": 2960,
      " kommit": 2961,
      "omen": 2962,
      "Låt": 2963,
      " klass": 2964,
      " aktivitet": 2965,
      "age": 2966,
      "mare": 2967,
      "ors": 2968,
      "ograf": 2969,
      "ey": 2970,
      " X": 2971,
      "öll": 2972,
      " event": 2973,
      " verktyg": 2974,
      "tjän": 2975,
      " Den": 2976,
      "ydd": 2977,
      " glöm": 2978,
      "platser": 2979,
      " innova": 2980,
      " indu": 2981,
      "står": 2982,
      " titt": 2983,
      "ER": 2984,
      " klar": 2985,
      " akt": 2986,
      "repp": 2987,
      " ev": 2988,
      "kla": 2989,
      " ap": 2990,
      "seende": 2991,
      " sluta": 2992,
      " ändra": 2993,
      "!!\n": 2994,
      "etter": 2995,
      " Du": 2996,
      "198": 2997,
      " hoppas": 2998,
      " säl": 2999,
      "ela": 3000,
      " co": 3001,
      "göra": 3002,
      "eringen": 3003,
      "vin": 3004,
      " Ad": 3005,
      "ycka": 3006,
      "visa": 3007,
      "Från": 3008,
      "äcka": 3009,
      "örj": 3010,
      " gratis": 3011,
      "öt": 3012,
      " försök": 3013,
      "aga": 3014,
      " utför": 3015,
      " san": 3016,
      " försv": 3017,
      "pass": 3018,
      " kroppen": 3019,
      "växt": 3020,
      "minist": 3021,
      "bud": 3022,
      "gra": 3023,
      "öp": 3024,
      " bakom": 3025,
      " skatt": 3026,
      " kontakt": 3027,
      " platser": 3028,
      "tegi": 3029,
      " väljer": 3030,
      " hälsa": 3031,
      " brott": 3032,
      " uppda": 3033,
      "när": 3034,
      " gav": 3035,
      "otenti": 3036,
      " Fin": 3037,
      "ec": 3038,
      "po": 3039,
      "ement": 3040,
      " användare": 3041,
      "Enligt": 3042,
      " års": 3043,
      " ekonomiska": 3044,
      " ...\n": 3045,
      " färg": 3046,
      "ida": 3047,
      " ps": 3048,
      "företag": 3049,
      " månad": 3050,
      " behövs": 3051,
      "efär": 3052,
      " bygga": 3053,
      " området": 3054,
      "ham": 3055,
      " Jesus": 3056,
      " erfarenhet": 3057,
      "följ": 3058,
      " version": 3059,
      " typer": 3060,
      " vux": 3061,
      "ont": 3062,
      " ålder": 3063,
      " Ö": 3064,
      "iti": 3065,
      "rän": 3066,
      "sed": 3067,
      " egentligen": 3068,
      " medlemssta": 3069,
      "Ta": 3070,
      "kring": 3071,
      "anda": 3072,
      "stift": 3073,
      "bruk": 3074,
      "olm": 3075,
      "otter": 3076,
      "äkring": 3077,
      " upptäck": 3078,
      " defini": 3079,
      "dde": 3080,
      "full": 3081,
      "oci": 3082,
      " sh": 3083,
      "äkra": 3084,
      " tjänst": 3085,
      "rip": 3086,
      " fav": 3087,
      " beroende": 3088,
      " säkert": 3089,
      " Joh": 3090,
      "Tack": 3091,
      "efter": 3092,
      " bolag": 3093,
      "lever": 3094,
      "arder": 3095,
      " punkt": 3096,
      " gott": 3097,
      " relig": 3098,
      "mi": 3099,
      "ly": 3100,
      "fika": 3101,
      " rikt": 3102,
      "ollar": 3103,
      "ea": 3104,
      " pas": 3105,
      "lit": 3106,
      " oro": 3107,
      "orit": 3108,
      " skyl": 3109,
      "delser": 3110,
      "ög": 3111,
      "kas": 3112,
      "eck": 3113,
      " kvinna": 3114,
      "ies": 3115,
      "kin": 3116,
      "ysk": 3117,
      " dist": 3118,
      " mor": 3119,
      " förn": 3120,
      " istället": 3121,
      " finnas": 3122,
      " försälj": 3123,
      "EN": 3124,
      "klart": 3125,
      " tillgängliga": 3126,
      "pon": 3127,
      " övert": 3128,
      " äldre": 3129,
      " gått": 3130,
      " erbjud": 3131,
      " sju": 3132,
      "gera": 3133,
      " följer": 3134,
      " mä": 3135,
      " jorden": 3136,
      "skning": 3137,
      " betala": 3138,
      "Kom": 3139,
      "ip": 3140,
      " nationella": 3141,
      "juta": 3142,
      "lat": 3143,
      "okra": 3144,
      "onom": 3145,
      "sident": 3146,
      "EG": 3147,
      "ian": 3148,
      "arnas": 3149,
      " chans": 3150,
      "lingen": 3151,
      "utoma": 3152,
      " förordning": 3153,
      " stäng": 3154,
      "usk": 3155,
      " goda": 3156,
      " garan": 3157,
      " ham": 3158,
      " mamma": 3159,
      "stra": 3160,
      " stark": 3161,
      " sök": 3162,
      " design": 3163,
      " läkemedel": 3164,
      "rea": 3165,
      "uni": 3166,
      "samt": 3167,
      " förstår": 3168,
      " frågan": 3169,
      " fisk": 3170,
      "ärt": 3171,
      " tj": 3172,
      "pital": 3173,
      "srael": 3174,
      "Idag": 3175,
      " am": 3176,
      " uppmärk": 3177,
      "tala": 3178,
      " närheten": 3179,
      "ställning": 3180,
      " veckan": 3181,
      " parti": 3182,
      "book": 3183,
      " engel": 3184,
      " låter": 3185,
      "länd": 3186,
      " studen": 3187,
      " läkare": 3188,
      "ici": 3189,
      " Sa": 3190,
      " röst": 3191,
      " skydda": 3192,
      " do": 3193,
      " betyd": 3194,
      " krav": 3195,
      "asino": 3196,
      " Q": 3197,
      "iz": 3198,
      " tio": 3199,
      "ider": 3200,
      " ca": 3201,
      " ben": 3202,
      " bri": 3203,
      "enting": 3204,
      " avtal": 3205,
      "läggande": 3206,
      "rom": 3207,
      " ban": 3208,
      "fta": 3209,
      " trots": 3210,
      "Ni": 3211,
      " sann": 3212,
      " kring": 3213,
      "teck": 3214,
      " personuppgifter": 3215,
      "ment": 3216,
      " ske": 3217,
      " sep": 3218,
      " förber": 3219,
      "liv": 3220,
      "cept": 3221,
      " tillverk": 3222,
      " ja": 3223,
      " deltag": 3224,
      "kort": 3225,
      " halv": 3226,
      "ib": 3227,
      " insp": 3228,
      " hälso": 3229,
      "vå": 3230,
      " detal": 3231,
      " viss": 3232,
      " viktigaste": 3233,
      "-post": 3234,
      " universitet": 3235,
      "ue": 3236,
      " mar": 3237,
      " igenom": 3238,
      "beh": 3239,
      "ula": 3240,
      " potenti": 3241,
      "riär": 3242,
      "app": 3243,
      " Th": 3244,
      " klimat": 3245,
      "ktor": 3246,
      " klart": 3247,
      " svår": 3248,
      " vikt": 3249,
      " bruk": 3250,
      "Än": 3251,
      " författ": 3252,
      "ald": 3253,
      "gag": 3254,
      "nytt": 3255,
      "vika": 3256,
      " topp": 3257,
      "produk": 3258,
      " lokala": 3259,
      " våld": 3260,
      "mt": 3261,
      " gud": 3262,
      " bred": 3263,
      " rad": 3264,
      " accep": 3265,
      " va": 3266,
      "tional": 3267,
      " skapar": 3268,
      "riga": 3269,
      " framtiden": 3270,
      "Använd": 3271,
      " tillstånd": 3272,
      "21": 3273,
      "Tro": 3274,
      " ford": 3275,
      " him": 3276,
      " log": 3277,
      "utveck": 3278,
      " kund": 3279,
      "allt": 3280,
      "ören": 3281,
      " säkerställa": 3282,
      " känd": 3283,
      "ash": 3284,
      " Ex": 3285,
      "på": 3286,
      " public": 3287,
      "stol": 3288,
      " ifrån": 3289,
      " cirka": 3290,
      " titta": 3291,
      "ows": 3292,
      " mon": 3293,
      "önster": 3294,
      "server": 3295,
      " Par": 3296,
      " gammal": 3297,
      " upph": 3298,
      "erades": 3299,
      " priv": 3300,
      " start": 3301,
      " delen": 3302,
      " företaget": 3303,
      "Kanske": 3304,
      " försöka": 3305,
      " syfte": 3306,
      " perfekt": 3307,
      "lands": 3308,
      " marknadsför": 3309,
      " nätverk": 3310,
      " dela": 3311,
      "rekt": 3312,
      "aket": 3313,
      "ogen": 3314,
      " dat": 3315,
      " läs": 3316,
      " veckor": 3317,
      "Vissa": 3318,
      "én": 3319,
      " Europeiska": 3320,
      "jut": 3321,
      " princi": 3322,
      " lad": 3323,
      "aler": 3324,
      "Vilka": 3325,
      "rikt": 3326,
      " kred": 3327,
      "ital": 3328,
      " påverkar": 3329,
      " människa": 3330,
      "uell": 3331,
      " behöva": 3332,
      " liknande": 3333,
      " psyk": 3334,
      " nor": 3335,
      "ssk": 3336,
      "197": 3337,
      "verkan": 3338,
      " område": 3339,
      " nödvändigt": 3340,
      ".ex": 3341,
      "rym": 3342,
      "resen": 3343,
      " omkring": 3344,
      " hantera": 3345,
      " orsa": 3346,
      " sättet": 3347,
      " partner": 3348,
      "The": 3349,
      " enhet": 3350,
      "tionellt": 3351,
      " skada": 3352,
      "com": 3353,
      " föres": 3354,
      " svenska": 3355,
      " utmär": 3356,
      " Kina": 3357,
      " makt": 3358,
      " regl": 3359,
      " politiska": 3360,
      "ält": 3361,
      "ämpa": 3362,
      " samband": 3363,
      "cebook": 3364,
      " tagit": 3365,
      " ram": 3366,
      ";\n": 3367,
      "mas": 3368,
      " anti": 3369,
      " bevis": 3370,
      " luft": 3371,
      "ylla": 3372,
      " bär": 3373,
      " känns": 3374,
      "ho": 3375,
      " grundläggande": 3376,
      " sådant": 3377,
      " samarbete": 3378,
      "holm": 3379,
      "pas": 3380,
      "emål": 3381,
      " kalla": 3382,
      " vinna": 3383,
      " undvika": 3384,
      " föräldrar": 3385,
      "mo": 3386,
      " begär": 3387,
      " rädd": 3388,
      "äkt": 3389,
      "entar": 3390,
      "leva": 3391,
      " skillnad": 3392,
      "Tänk": 3393,
      "tionerna": 3394,
      "sida": 3395,
      " låta": 3396,
      "agn": 3397,
      " undersök": 3398,
      "Vår": 3399,
      "tiker": 3400,
      " ungefär": 3401,
      "ct": 3402,
      "kning": 3403,
      "melser": 3404,
      "uellt": 3405,
      " kommissionen": 3406,
      " leder": 3407,
      " högsta": 3408,
      " mänskliga": 3409,
      " leda": 3410,
      " hjärta": 3411,
      " konsum": 3412,
      " beräk": 3413,
      "oden": 3414,
      "tit": 3415,
      " Bar": 3416,
      " Har": 3417,
      "bund": 3418,
      " automa": 3419,
      "jen": 3420,
      " engag": 3421,
      " tu": 3422,
      "alans": 3423,
      " beskriv": 3424,
      " döda": 3425,
      " skär": 3426,
      " består": 3427,
      " erbjuda": 3428,
      "olution": 3429,
      " gärna": 3430,
      " förslag": 3431,
      " sätta": 3432,
      " rela": 3433,
      " Om": 3434,
      " satt": 3435,
      " lin": 3436,
      "ekomm": 3437,
      " effekt": 3438,
      "stauran": 3439,
      "enta": 3440,
      " os": 3441,
      " Google": 3442,
      " närvarande": 3443,
      " Ja": 3444,
      " oavsett": 3445,
      " häm": 3446,
      " kal": 3447,
      " lek": 3448,
      " sker": 3449,
      "ännisk": 3450,
      "sterna": 3451,
      " tor": 3452,
      "umär": 3453,
      " antalet": 3454,
      "skol": 3455,
      " mass": 3456,
      "let": 3457,
      "ona": 3458,
      " anges": 3459,
      " stol": 3460,
      "22": 3461,
      " infl": 3462,
      "råden": 3463,
      " hållbar": 3464,
      " tillhör": 3465,
      "ober": 3466,
      " sem": 3467,
      "tive": 3468,
      "indows": 3469,
      " ihop": 3470,
      " milit": 3471,
      " $": 3472,
      "cember": 3473,
      " Car": 3474,
      " Univers": 3475,
      "bolag": 3476,
      " at": 3477,
      " berör": 3478,
      " storlek": 3479,
      " Med": 3480,
      "iens": 3481,
      "Över": 3482,
      "rak": 3483,
      " dollar": 3484,
      "EU": 3485,
      " berätta": 3486,
      " stället": 3487,
      " internet": 3488,
      " upprätt": 3489,
      " mängd": 3490,
      " enskil": 3491,
      " lokal": 3492,
      "förande": 3493,
      " prata": 3494,
      " boken": 3495,
      " polis": 3496,
      " giv": 3497,
      " utgör": 3498,
      " söker": 3499,
      " blogg": 3500,
      "'s": 3501,
      " mott": 3502,
      " bad": 3503,
      " relev": 3504,
      " förändring": 3505,
      " profession": 3506,
      "sav": 3507,
      "ologiska": 3508,
      " vackra": 3509,
      "Sen": 3510,
      "rande": 3511,
      "anu": 3512,
      " böcker": 3513,
      "skott": 3514,
      " uppen": 3515,
      " Pa": 3516,
      " klas": 3517,
      " kem": 3518,
      " fly": 3519,
      " dokument": 3520,
      " omedel": 3521,
      "istan": 3522,
      " europeiska": 3523,
      "lå": 3524,
      " möjligheter": 3525,
      "År": 3526,
      " lön": 3527,
      " nr": 3528,
      " drabb": 3529,
      " tas": 3530,
      " regler": 3531,
      "sluta": 3532,
      " speciellt": 3533,
      " App": 3534,
      " cy": 3535,
      " höga": 3536,
      " rik": 3537,
      " ej": 3538,
      "heterna": 3539,
      " bekväm": 3540,
      "we": 3541,
      "åde": 3542,
      " medborg": 3543,
      " Inter": 3544,
      " höra": 3545,
      " organisation": 3546,
      "Kommer": 3547,
      " instr": 3548,
      "196": 3549,
      " fastställ": 3550,
      " mån": 3551,
      "rike": 3552,
      "skon": 3553,
      "fli": 3554,
      " säs": 3555,
      " skolan": 3556,
      " tillväxt": 3557,
      "sidan": 3558,
      " kont": 3559,
      "ockholm": 3560,
      "ritann": 3561,
      "agen": 3562,
      " ton": 3563,
      "betal": 3564,
      "arakt": 3565,
      " produktion": 3566,
      " telefon": 3567,
      "skra": 3568,
      "Mer": 3569,
      "stående": 3570,
      "olv": 3571,
      " rev": 3572,
      " respek": 3573,
      " bekrä": 3574,
      "70": 3575,
      "Res": 3576,
      "out": 3577,
      "ines": 3578,
      "britann": 3579,
      " vak": 3580,
      "araktär": 3581,
      "press": 3582,
      " Sch": 3583,
      " nuvarande": 3584,
      " liksom": 3585,
      " patienter": 3586,
      "of": 3587,
      " säll": 3588,
      " intresse": 3589,
      " opera": 3590,
      "vill": 3591,
      "öder": 3592,
      "använd": 3593,
      " ljud": 3594,
      "visning": 3595,
      "beroende": 3596,
      " bry": 3597,
      "bord": 3598,
      " försvar": 3599,
      "ild": 3600,
      " dessutom": 3601,
      " leverant": 3602,
      " framgångs": 3603,
      " alls": 3604,
      "lunda": 3605,
      " sön": 3606,
      " fjär": 3607,
      " gre": 3608,
      " lån": 3609,
      " funktioner": 3610,
      " anställda": 3611,
      " lug": 3612,
      " utrust": 3613,
      " match": 3614,
      "Eftersom": 3615,
      " knapp": 3616,
      " stopp": 3617,
      " skäl": 3618,
      " unga": 3619,
      " chef": 3620,
      " administ": 3621,
      " förra": 3622,
      " häst": 3623,
      " högt": 3624,
      "skapet": 3625,
      " York": 3626,
      " samhället": 3627,
      "tember": 3628,
      " ersätt": 3629,
      " yr": 3630,
      "ifrån": 3631,
      "vens": 3632,
      " ring": 3633,
      " behör": 3634,
      " kredit": 3635,
      "säg": 3636,
      " tje": 3637,
      "talien": 3638,
      " konkurr": 3639,
      " era": 3640,
      " Jo": 3641,
      "organis": 3642,
      "gård": 3643,
      "ink": 3644,
      " december": 3645,
      "parlament": 3646,
      " »": 3647,
      "Finns": 3648,
      "boll": 3649,
      "öts": 3650,
      " favorit": 3651,
      " ständ": 3652,
      "ination": 3653,
      " president": 3654,
      " ingenting": 3655,
      " ledande": 3656,
      "sprogram": 3657,
      "bok": 3658,
      " rådet": 3659,
      " godk": 3660,
      " kommunikation": 3661,
      " nega": 3662,
      "ca": 3663,
      " livsmedel": 3664,
      "stone": 3665,
      " enkla": 3666,
      "amen": 3667,
      "ivil": 3668,
      " uttryck": 3669,
      "anuari": 3670,
      "-år": 3671,
      "järn": 3672,
      " rom": 3673,
      " utform": 3674,
      " ökar": 3675,
      " studie": 3676,
      "rog": 3677,
      " varumär": 3678,
      " juni": 3679,
      " skön": 3680,
      " fullt": 3681,
      "23": 3682,
      " Con": 3683,
      " underhåll": 3684,
      "ftet": 3685,
      " platt": 3686,
      "sliga": 3687,
      " ensam": 3688,
      "ril": 3689,
      " bedöm": 3690,
      "ake": 3691,
      "th": 3692,
      "erande": 3693,
      "nal": 3694,
      "aten": 3695,
      " motsvar": 3696,
      "antag": 3697,
      " förändra": 3698,
      " engelska": 3699,
      "kul": 3700,
      "ood": 3701,
      " vare": 3702,
      " total": 3703,
      " Frank": 3704,
      "Euro": 3705,
      "äcker": 3706,
      "80": 3707,
      " her": 3708,
      "skydd": 3709,
      " studier": 3710,
      " privat": 3711,
      "Fl": 3712,
      "pla": 3713,
      "sch": 3714,
      "öja": 3715,
      " färdig": 3716,
      " medlemmar": 3717,
      "eta": 3718,
      " utnytt": 3719,
      " rädda": 3720,
      "kes": 3721,
      "ure": 3722,
      "urs": 3723,
      " antingen": 3724,
      " visas": 3725,
      "jor": 3726,
      " mars": 3727,
      " förvär": 3728,
      " dags": 3729,
      "Din": 3730,
      " ingår": 3731,
      " någonting": 3732,
      " frukt": 3733,
      "gl": 3734,
      " fö": 3735,
      " vitt": 3736,
      " överens": 3737,
      "202": 3738,
      "atter": 3739,
      " beror": 3740,
      " karriär": 3741,
      " stå": 3742,
      " barnen": 3743,
      "äkerhet": 3744,
      " befolk": 3745,
      "amer": 3746,
      " individ": 3747,
      " lyck": 3748,
      " menar": 3749,
      "naderna": 3750,
      "iod": 3751,
      " käll": 3752,
      " anpass": 3753,
      " förändringar": 3754,
      "Gör": 3755,
      "Hopp": 3756,
      " Windows": 3757,
      " lösningar": 3758,
      "rör": 3759,
      "tter": 3760,
      " hum": 3761,
      " globala": 3762,
      " täv": 3763,
      "emot": 3764,
      " absol": 3765,
      "enden": 3766,
      "olket": 3767,
      " visste": 3768,
      " kapital": 3769,
      " direktiv": 3770,
      " talar": 3771,
      "fa": 3772,
      "vak": 3773,
      "ensi": 3774,
      " ide": 3775,
      "urg": 3776,
      " fullständ": 3777,
      " utvecklingen": 3778,
      " standard": 3779,
      "dat": 3780,
      "mun": 3781,
      " behå": 3782,
      " glad": 3783,
      "500": 3784,
      "Ex": 3785,
      " vita": 3786,
      " anser": 3787,
      " kommentar": 3788,
      " exakt": 3789,
      " fordon": 3790,
      "ektion": 3791,
      " tekniska": 3792,
      "rans": 3793,
      "Bar": 3794,
      " morgon": 3795,
      " La": 3796,
      " personliga": 3797,
      "ligheter": 3798,
      "Gud": 3799,
      " ark": 3800,
      " januari": 3801,
      " Storbritann": 3802,
      "har": 3803,
      "za": 3804,
      " spelet": 3805,
      "avid": 3806,
      " industri": 3807,
      "äna": 3808,
      "rad": 3809,
      " service": 3810,
      " social": 3811,
      " installer": 3812,
      "tic": 3813,
      " skilj": 3814,
      " Sta": 3815,
      "delar": 3816,
      " lilla": 3817,
      "öter": 3818,
      " Gre": 3819,
      "Beh": 3820,
      " Ber": 3821,
      " personal": 3822,
      " behöv": 3823,
      "ondon": 3824,
      " förhållande": 3825,
      " september": 3826,
      "ban": 3827,
      "lare": 3828,
      "syn": 3829,
      " tusen": 3830,
      " extre": 3831,
      " bete": 3832,
      "orten": 3833,
      " kompl": 3834,
      "sats": 3835,
      "terad": 3836,
      " anses": 3837,
      " dubb": 3838,
      " skrev": 3839,
      "klag": 3840,
      " förstör": 3841,
      "nt": 3842,
      "vård": 3843,
      " kron": 3844,
      " produc": 3845,
      " medlemsstaterna": 3846,
      "AR": 3847,
      "orlunda": 3848,
      "klara": 3849,
      "Vilken": 3850,
      " dy": 3851,
      "minstone": 3852,
      " '": 3853,
      "artyg": 3854,
      "icro": 3855,
      " vacker": 3856,
      " offici": 3857,
      " gemensam": 3858,
      "yskland": 3859,
      "Or": 3860,
      "tisti": 3861,
      "änderna": 3862,
      "90": 3863,
      "mon": 3864,
      " bost": 3865,
      " tala": 3866,
      "värd": 3867,
      " namnet": 3868,
      " anledning": 3869,
      "Ti": 3870,
      " dotter": 3871,
      " rym": 3872,
      " uppdrag": 3873,
      "itter": 3874,
      " genera": 3875,
      "strin": 3876,
      " gemenskap": 3877,
      " hot": 3878,
      "pper": 3879,
      "spekt": 3880,
      " smär": 3881,
      "gress": 3882,
      " visade": 3883,
      "värr": 3884,
      "bygg": 3885,
      "yller": 3886,
      "etens": 3887,
      " Or": 3888,
      "san": 3889,
      "enn": 3890,
      " Dan": 3891,
      "ftar": 3892,
      " arbetet": 3893,
      "tryck": 3894,
      " karaktär": 3895,
      " avses": 3896,
      "ktober": 3897,
      " stress": 3898,
      " lagstift": 3899,
      " modern": 3900,
      "stauranger": 3901,
      "xi": 3902,
      "släpp": 3903,
      " analys": 3904,
      " son": 3905,
      " gemensamma": 3906,
      " skyldig": 3907,
      "blick": 3908,
      "ama": 3909,
      "lic": 3910,
      "satta": 3911,
      "jälv": 3912,
      " tecken": 3913,
      "uden": 3914,
      " otro": 3915,
      " my": 3916,
      "licka": 3917,
      " överför": 3918,
      " studenter": 3919,
      " ansök": 3920,
      " uppfatt": 3921,
      "ager": 3922,
      " njuta": 3923,
      "istiska": 3924,
      " prote": 3925,
      "ffa": 3926,
      " mening": 3927,
      " vanligt": 3928,
      " tillgänglig": 3929,
      "28": 3930,
      "Våra": 3931,
      " framtid": 3932,
      "abl": 3933,
      " konsek": 3934,
      "For": 3935,
      "IS": 3936,
      " jul": 3937,
      " strategi": 3938,
      "amål": 3939,
      "ffe": 3940,
      "27": 3941,
      "stäm": 3942,
      " inlägg": 3943,
      " kap": 3944,
      " systemet": 3945,
      "ix": 3946,
      "sor": 3947,
      "inder": 3948,
      " vars": 3949,
      " post": 3950,
      " glas": 3951,
      "yssland": 3952,
      " sälj": 3953,
      " tyck": 3954,
      " no": 3955,
      "koh": 3956,
      " kända": 3957,
      " vård": 3958,
      " fortsatt": 3959,
      " lämnar": 3960,
      " berättar": 3961,
      " Stockholm": 3962,
      " elektron": 3963,
      "jan": 3964,
      "poli": 3965,
      " inre": 3966,
      " TV": 3967,
      " represen": 3968,
      "rarna": 3969,
      " utö": 3970,
      "givare": 3971,
      "Några": 3972,
      " regeringen": 3973,
      ".com": 3974,
      " sov": 3975,
      " Nord": 3976,
      "ture": 3977,
      "sprocess": 3978,
      " främst": 3979,
      "IN": 3980,
      "Ibland": 3981,
      "-k": 3982,
      "Hans": 3983,
      "amm": 3984,
      "peratur": 3985,
      " miljarder": 3986,
      " förmåga": 3987,
      "öna": 3988,
      "llen": 3989,
      " mång": 3990,
      "tiver": 3991,
      " avgör": 3992,
      " organ": 3993,
      "ds": 3994,
      " jätt": 3995,
      "aker": 3996,
      " kontor": 3997,
      " trodde": 3998,
      " önskar": 3999
    },
    "merges": [
      [
        "e",
        "r"
      ],
      [
        "e",
        "n"
      ],
      [
        " ",
        "s"
      ],
      [
        "a",
        "r"
      ],
      [
        "a",
        "n"
      ],
      [
        "i",
        "n"
      ],
      [
        "e",
        "t"
      ],
      [
        " ",
        "d"
      ],
      [
        " ",
        "f"
      ],
      [
        ".",
        "\n"
      ],
      [
        " ",
        "a"
      ],
      [
        "l",
        "l"
      ],
      [
        "t",
        "t"
      ],
      [
        " ",
        "o"
      ],
      [
        " ",
        "m"
      ],
      [
        "ö",
        "r"
      ],
      [
        "t",
        "i"
      ],
      [
        "ä",
        "r"
      ],
      [
        " ",
        "v"
      ],
      [
        " ",
        "h"
      ],
      [
        "o",
        "m"
      ],
      [
        " ",
        "k"
      ],
      [
        "s",
        "t"
      ],
      [
        " ",
        "b"
      ],
      [
        "c",
        "h"
      ],
      [
        " ",
        "p"
      ],
      [
        "i",
        "g"
      ],
      [
        "o",
        "n"
      ],
      [
        " f",
        "ör"
      ],
      [
        " o",
        "ch"
      ],
      [
        "o",
        "r"
      ],
      [
        " a",
        "tt"
      ],
      [
        "d",
        "e"
      ],
      [
        "in",
        "g"
      ],
      [
        "n",
        "a"
      ],
      [
        "k",
        "a"
      ],
      [
        " ",
        "i"
      ],
      [
        "ä",
        "n"
      ],
      [
        "r",
        "a"
      ],
      [
        "e",
        "d"
      ],
      [
        " ",
        "en"
      ],
      [
        " ",
        "är"
      ],
      [
        " ",
        "in"
      ],
      [
        "a",
        "g"
      ],
      [
        " ",
        "g"
      ],
      [
        " ",
        "l"
      ],
      [
        " ",
        "t"
      ],
      [
        " a",
        "v"
      ],
      [
        " ",
        "ti"
      ],
      [
        " ",
        "u"
      ],
      [
        " s",
        "om"
      ],
      [
        "e",
        "l"
      ],
      [
        " ",
        "n"
      ],
      [
        "i",
        "s"
      ],
      [
        "t",
        "a"
      ],
      [
        " ti",
        "ll"
      ],
      [
        "t",
        "er"
      ],
      [
        "t",
        "e"
      ],
      [
        "r",
        "e"
      ],
      [
        " d",
        "et"
      ],
      [
        "c",
        "k"
      ],
      [
        " p",
        "å"
      ],
      [
        " ",
        "e"
      ],
      [
        "l",
        "ig"
      ],
      [
        " m",
        "ed"
      ],
      [
        "r",
        "o"
      ],
      [
        "p",
        "p"
      ],
      [
        " d",
        "e"
      ],
      [
        "n",
        "ing"
      ],
      [
        "d",
        "er"
      ],
      [
        "å",
        "n"
      ],
      [
        " v",
        "i"
      ],
      [
        "a",
        "s"
      ],
      [
        " ",
        "an"
      ],
      [
        "a",
        "m"
      ],
      [
        "a",
        "l"
      ],
      [
        "v",
        "er"
      ],
      [
        " d",
        "en"
      ],
      [
        " v",
        "ar"
      ],
      [
        "u",
        "n"
      ],
      [
        "å",
        "r"
      ],
      [
        " ",
        "j"
      ],
      [
        "a",
        "t"
      ],
      [
        "k",
        "t"
      ],
      [
        "r",
        "i"
      ],
      [
        " o",
        "m"
      ],
      [
        " s",
        "t"
      ],
      [
        " in",
        "te"
      ],
      [
        "s",
        "s"
      ],
      [
        " h",
        "ar"
      ],
      [
        "ti",
        "on"
      ],
      [
        "i",
        "l"
      ],
      [
        "et",
        "t"
      ],
      [
        "d",
        "a"
      ],
      [
        "ll",
        "er"
      ],
      [
        "e",
        "m"
      ],
      [
        "ä",
        "l"
      ],
      [
        "an",
        "d"
      ],
      [
        "l",
        "i"
      ],
      [
        " d",
        "u"
      ],
      [
        "s",
        "k"
      ],
      [
        " ",
        "r"
      ],
      [
        "ä",
        "tt"
      ],
      [
        " u",
        "t"
      ],
      [
        "a",
        "de"
      ],
      [
        " k",
        "an"
      ],
      [
        "an",
        "de"
      ],
      [
        " ",
        "ett"
      ],
      [
        "u",
        "r"
      ],
      [
        " b",
        "e"
      ],
      [
        "ll",
        "a"
      ],
      [
        "å",
        "g"
      ],
      [
        "ar",
        "e"
      ],
      [
        "h",
        "et"
      ],
      [
        " f",
        "r"
      ],
      [
        "i",
        "t"
      ],
      [
        "a",
        "d"
      ],
      [
        "om",
        "m"
      ],
      [
        "d",
        "en"
      ],
      [
        "D",
        "et"
      ],
      [
        "o",
        "l"
      ],
      [
        " s",
        "k"
      ],
      [
        " ",
        "ö"
      ],
      [
        "f",
        "ör"
      ],
      [
        " j",
        "ag"
      ],
      [
        "s",
        "ka"
      ],
      [
        " ",
        "S"
      ],
      [
        "st",
        "a"
      ],
      [
        "ä",
        "g"
      ],
      [
        "?",
        "\n"
      ],
      [
        " u",
        "pp"
      ],
      [
        "o",
        "t"
      ],
      [
        "ån",
        "g"
      ],
      [
        " k",
        "omm"
      ],
      [
        " e",
        "ller"
      ],
      [
        " s",
        "å"
      ],
      [
        "s",
        "i"
      ],
      [
        " ",
        "re"
      ],
      [
        "u",
        "t"
      ],
      [
        " s",
        "ka"
      ],
      [
        " fr",
        "ån"
      ],
      [
        "än",
        "d"
      ],
      [
        "e",
        "s"
      ],
      [
        "a",
        "k"
      ],
      [
        "i",
        "tt"
      ],
      [
        "or",
        "t"
      ],
      [
        "ä",
        "m"
      ],
      [
        "en",
        "t"
      ],
      [
        " u",
        "n"
      ],
      [
        " p",
        "ro"
      ],
      [
        "m",
        "a"
      ],
      [
        "e",
        "k"
      ],
      [
        "in",
        "n"
      ],
      [
        " ",
        "A"
      ],
      [
        "an",
        "s"
      ],
      [
        "u",
        "m"
      ],
      [
        " s",
        "p"
      ],
      [
        " ",
        "M"
      ],
      [
        " ",
        "("
      ],
      [
        "en",
        "s"
      ],
      [
        "u",
        "s"
      ],
      [
        " n",
        "åg"
      ],
      [
        "l",
        "a"
      ],
      [
        "f",
        "ter"
      ],
      [
        "is",
        "k"
      ],
      [
        "J",
        "ag"
      ],
      [
        "i",
        "v"
      ],
      [
        "y",
        "ck"
      ],
      [
        " komm",
        "er"
      ],
      [
        "lig",
        "t"
      ],
      [
        " ö",
        "ver"
      ],
      [
        "u",
        "d"
      ],
      [
        "er",
        "a"
      ],
      [
        " s",
        "am"
      ],
      [
        "v",
        "ar"
      ],
      [
        "v",
        "a"
      ],
      [
        "d",
        "ra"
      ],
      [
        "in",
        "a"
      ],
      [
        "ä",
        "ll"
      ],
      [
        " n",
        "är"
      ],
      [
        " a",
        "ll"
      ],
      [
        "lig",
        "a"
      ],
      [
        "o",
        "g"
      ],
      [
        "än",
        "n"
      ],
      [
        " g",
        "ör"
      ],
      [
        " ",
        "C"
      ],
      [
        "ra",
        "m"
      ],
      [
        " b",
        "ar"
      ],
      [
        "st",
        "er"
      ],
      [
        " k",
        "on"
      ],
      [
        "s",
        "a"
      ],
      [
        " ",
        "B"
      ],
      [
        "f",
        "f"
      ],
      [
        "u",
        "l"
      ],
      [
        "j",
        "äl"
      ],
      [
        "s",
        "er"
      ],
      [
        "!",
        "\n"
      ],
      [
        "i",
        "k"
      ],
      [
        "l",
        "e"
      ],
      [
        "e",
        "ll"
      ],
      [
        " ",
        "ar"
      ],
      [
        "st",
        "e"
      ],
      [
        "s",
        "p"
      ],
      [
        " ",
        "E"
      ],
      [
        "b",
        "et"
      ],
      [
        " ",
        "P"
      ],
      [
        "V",
        "i"
      ],
      [
        " s",
        "ig"
      ],
      [
        "s",
        "l"
      ],
      [
        "än",
        "g"
      ],
      [
        "is",
        "ka"
      ],
      [
        " ",
        "T"
      ],
      [
        "r",
        "ä"
      ],
      [
        " m",
        "in"
      ],
      [
        " var",
        "a"
      ],
      [
        "k",
        "ti"
      ],
      [
        "k",
        "er"
      ],
      [
        "d",
        "ig"
      ],
      [
        " ",
        "G"
      ],
      [
        "de",
        "l"
      ],
      [
        " ",
        "å"
      ],
      [
        " an",
        "v"
      ],
      [
        " un",
        "der"
      ],
      [
        " m",
        "an"
      ],
      [
        "2",
        "0"
      ],
      [
        " d",
        "ig"
      ],
      [
        "s",
        "å"
      ],
      [
        "u",
        "ll"
      ],
      [
        " ",
        "H"
      ],
      [
        " ",
        "F"
      ],
      [
        "v",
        "en"
      ],
      [
        " h",
        "an"
      ],
      [
        "a",
        "tt"
      ],
      [
        " ",
        "D"
      ],
      [
        "ar",
        "na"
      ],
      [
        "y",
        "g"
      ],
      [
        "er",
        "s"
      ],
      [
        "j",
        "e"
      ],
      [
        "u",
        "k"
      ],
      [
        " ",
        "år"
      ],
      [
        " be",
        "h"
      ],
      [
        " m",
        "å"
      ],
      [
        "b",
        "b"
      ],
      [
        " m",
        "en"
      ],
      [
        " g",
        "en"
      ],
      [
        " ",
        "I"
      ],
      [
        "f",
        "t"
      ],
      [
        " h",
        "är"
      ],
      [
        "p",
        "a"
      ],
      [
        "s",
        "e"
      ],
      [
        " h",
        "el"
      ],
      [
        " d",
        "är"
      ],
      [
        "v",
        "e"
      ],
      [
        "c",
        "i"
      ],
      [
        "ta",
        "l"
      ],
      [
        "inn",
        "s"
      ],
      [
        " n",
        "y"
      ],
      [
        " a",
        "lla"
      ],
      [
        "g",
        "i"
      ],
      [
        "g",
        "a"
      ],
      [
        "g",
        "er"
      ],
      [
        "n",
        "e"
      ],
      [
        " e",
        "fter"
      ],
      [
        " ",
        "L"
      ],
      [
        "o",
        "d"
      ],
      [
        " v",
        "är"
      ],
      [
        "ar",
        "t"
      ],
      [
        " k",
        "un"
      ],
      [
        " o",
        "ck"
      ],
      [
        "er",
        "na"
      ],
      [
        " b",
        "li"
      ],
      [
        "a",
        "ll"
      ],
      [
        " t",
        "r"
      ],
      [
        " ock",
        "så"
      ],
      [
        "at",
        "s"
      ],
      [
        "o",
        "k"
      ],
      [
        "s",
        "am"
      ],
      [
        " h",
        "a"
      ],
      [
        "i",
        "ll"
      ],
      [
        "D",
        "e"
      ],
      [
        " v",
        "er"
      ],
      [
        " f",
        "inns"
      ],
      [
        "F",
        "ör"
      ],
      [
        " f",
        "l"
      ],
      [
        " an",
        "dra"
      ],
      [
        "i",
        "c"
      ],
      [
        " vi",
        "ll"
      ],
      [
        "ning",
        "en"
      ],
      [
        " ",
        "K"
      ],
      [
        " ",
        "R"
      ],
      [
        " d",
        "el"
      ],
      [
        "D",
        "en"
      ],
      [
        " g",
        "r"
      ],
      [
        "l",
        "ing"
      ],
      [
        " d",
        "in"
      ],
      [
        "yck",
        "et"
      ],
      [
        "f",
        "or"
      ],
      [
        " ",
        "än"
      ],
      [
        " m",
        "ig"
      ],
      [
        " ",
        "N"
      ],
      [
        "ö",
        "j"
      ],
      [
        " ",
        "c"
      ],
      [
        " o",
        "r"
      ],
      [
        " m",
        "er"
      ],
      [
        "il",
        "j"
      ],
      [
        "k",
        "l"
      ],
      [
        " s",
        "l"
      ],
      [
        " v",
        "is"
      ],
      [
        " gen",
        "om"
      ],
      [
        " s",
        "e"
      ],
      [
        " ",
        "ä"
      ],
      [
        "ö",
        "d"
      ],
      [
        "o",
        "s"
      ],
      [
        " e",
        "x"
      ],
      [
        "ning",
        "ar"
      ],
      [
        "i",
        "d"
      ],
      [
        " ",
        "er"
      ],
      [
        " det",
        "ta"
      ],
      [
        " de",
        "ss"
      ],
      [
        " d",
        "ag"
      ],
      [
        " de",
        "m"
      ],
      [
        "it",
        "et"
      ],
      [
        " b",
        "ör"
      ],
      [
        ".",
        "."
      ],
      [
        " h",
        "on"
      ],
      [
        "ed",
        "an"
      ],
      [
        "or",
        "d"
      ],
      [
        " m",
        "ycket"
      ],
      [
        "ter",
        "na"
      ],
      [
        " f",
        "ram"
      ],
      [
        "lig",
        "en"
      ],
      [
        "ers",
        "on"
      ],
      [
        " ",
        "na"
      ],
      [
        "y",
        "n"
      ],
      [
        " bar",
        "a"
      ],
      [
        "un",
        "d"
      ],
      [
        "i",
        "st"
      ],
      [
        "E",
        "n"
      ],
      [
        "ar",
        "k"
      ],
      [
        "ti",
        "v"
      ],
      [
        "h",
        "å"
      ],
      [
        "s",
        "ö"
      ],
      [
        " v",
        "äl"
      ],
      [
        "p",
        "er"
      ],
      [
        " vi",
        "d"
      ],
      [
        "g",
        "en"
      ],
      [
        "l",
        "and"
      ],
      [
        "ång",
        "a"
      ],
      [
        "c",
        "e"
      ],
      [
        "j",
        "a"
      ],
      [
        " f",
        "å"
      ],
      [
        "m",
        "er"
      ],
      [
        " t",
        "v"
      ],
      [
        " v",
        "ad"
      ],
      [
        " vi",
        "l"
      ],
      [
        " ",
        "\""
      ],
      [
        " ",
        "ing"
      ],
      [
        "r",
        "å"
      ],
      [
        " m",
        "ot"
      ],
      [
        " ver",
        "k"
      ],
      [
        "v",
        "is"
      ],
      [
        "0",
        "0"
      ],
      [
        " gör",
        "a"
      ],
      [
        " någ",
        "on"
      ],
      [
        " ",
        "J"
      ],
      [
        " ar",
        "bet"
      ],
      [
        " s",
        "in"
      ],
      [
        " t",
        "a"
      ],
      [
        "tion",
        "er"
      ],
      [
        "e",
        "st"
      ],
      [
        "er",
        "as"
      ],
      [
        "M",
        "en"
      ],
      [
        "O",
        "m"
      ],
      [
        "e",
        "lla"
      ],
      [
        "än",
        "der"
      ],
      [
        "j",
        "u"
      ],
      [
        "ull",
        "e"
      ],
      [
        " p",
        "l"
      ],
      [
        " s",
        "jäl"
      ],
      [
        " p",
        "erson"
      ],
      [
        " h",
        "ur"
      ],
      [
        "c",
        "ka"
      ],
      [
        "r",
        "ing"
      ],
      [
        "s",
        "en"
      ],
      [
        " p",
        "o"
      ],
      [
        "l",
        "em"
      ],
      [
        "o",
        "pp"
      ],
      [
        "l",
        "d"
      ],
      [
        " den",
        "na"
      ],
      [
        " o",
        "ss"
      ],
      [
        " sp",
        "el"
      ],
      [
        " b",
        "et"
      ],
      [
        "lig",
        "het"
      ],
      [
        "s",
        "om"
      ],
      [
        " b",
        "er"
      ],
      [
        " l",
        "iv"
      ],
      [
        "r",
        "u"
      ],
      [
        " k",
        "l"
      ],
      [
        "s",
        "ti"
      ],
      [
        " s",
        "äg"
      ],
      [
        "y",
        "r"
      ],
      [
        " sk",
        "ulle"
      ],
      [
        " ",
        "W"
      ],
      [
        " v",
        "år"
      ],
      [
        "an",
        "t"
      ],
      [
        " l",
        "i"
      ],
      [
        "d",
        "ag"
      ],
      [
        " r",
        "ätt"
      ],
      [
        " h",
        "ö"
      ],
      [
        "ska",
        "p"
      ],
      [
        " ",
        "-"
      ],
      [
        " s",
        "ätt"
      ],
      [
        "n",
        "an"
      ],
      [
        " all",
        "t"
      ],
      [
        "ta",
        "t"
      ],
      [
        " anv",
        "änd"
      ],
      [
        "r",
        "ig"
      ],
      [
        " n",
        "u"
      ],
      [
        "b",
        "er"
      ],
      [
        "ä",
        "k"
      ],
      [
        " m",
        "änn"
      ],
      [
        "p",
        "l"
      ],
      [
        " st",
        "or"
      ],
      [
        " beh",
        "ö"
      ],
      [
        " k",
        "v"
      ],
      [
        "na",
        "d"
      ],
      [
        " k",
        "om"
      ],
      [
        "en",
        "de"
      ],
      [
        "ö",
        "l"
      ],
      [
        "ar",
        "en"
      ],
      [
        "k",
        "en"
      ],
      [
        " ",
        "V"
      ],
      [
        "k",
        "et"
      ],
      [
        "ö",
        "n"
      ],
      [
        "y",
        "d"
      ],
      [
        "i",
        "er"
      ],
      [
        " b",
        "r"
      ],
      [
        "O",
        "ch"
      ],
      [
        "D",
        "u"
      ],
      [
        " ä",
        "ven"
      ],
      [
        "st",
        "äll"
      ],
      [
        " f",
        "or"
      ],
      [
        " ",
        "U"
      ],
      [
        "1",
        "9"
      ],
      [
        " ",
        "”"
      ],
      [
        "o",
        "ck"
      ],
      [
        " v",
        "et"
      ],
      [
        " må",
        "ste"
      ],
      [
        "t",
        "s"
      ],
      [
        " m",
        "ånga"
      ],
      [
        "ö",
        "m"
      ],
      [
        " f",
        "år"
      ],
      [
        "et",
        "ag"
      ],
      [
        "re",
        "ss"
      ],
      [
        "I",
        "n"
      ],
      [
        "ti",
        "d"
      ],
      [
        " h",
        "ade"
      ],
      [
        "20",
        "1"
      ],
      [
        "ar",
        "a"
      ],
      [
        "s",
        "m"
      ],
      [
        " ut",
        "an"
      ],
      [
        "k",
        "el"
      ],
      [
        " någ",
        "ot"
      ],
      [
        "d",
        "u"
      ],
      [
        " bar",
        "n"
      ],
      [
        " ",
        "–"
      ],
      [
        " d",
        "å"
      ],
      [
        "ve",
        "ck"
      ],
      [
        " h",
        "jäl"
      ],
      [
        "ä",
        "st"
      ],
      [
        " männ",
        "isk"
      ],
      [
        "b",
        "il"
      ],
      [
        " b",
        "il"
      ],
      [
        " b",
        "ra"
      ],
      [
        "å",
        "ra"
      ],
      [
        "de",
        "s"
      ],
      [
        "v",
        "är"
      ],
      [
        " för",
        "sta"
      ],
      [
        "y",
        "st"
      ],
      [
        "g",
        "t"
      ],
      [
        "er",
        "ing"
      ],
      [
        "d",
        "et"
      ],
      [
        " ti",
        "d"
      ],
      [
        " dess",
        "a"
      ],
      [
        " l",
        "e"
      ],
      [
        "o",
        "st"
      ],
      [
        "r",
        "ar"
      ],
      [
        "an",
        "n"
      ],
      [
        "a",
        "v"
      ],
      [
        "än",
        "da"
      ],
      [
        "i",
        "ck"
      ],
      [
        "i",
        "m"
      ],
      [
        "i",
        "on"
      ],
      [
        "ä",
        "ker"
      ],
      [
        "er",
        "ade"
      ],
      [
        "tion",
        "en"
      ],
      [
        " b",
        "l"
      ],
      [
        " in",
        "ne"
      ],
      [
        "al",
        "a"
      ],
      [
        "li",
        "ka"
      ],
      [
        "s",
        "ätt"
      ],
      [
        "o",
        "p"
      ],
      [
        "ä",
        "sta"
      ],
      [
        " in",
        "om"
      ],
      [
        " g",
        "ång"
      ],
      [
        " s",
        "er"
      ],
      [
        "ver",
        "k"
      ],
      [
        "u",
        "ro"
      ],
      [
        " tv",
        "å"
      ],
      [
        "i",
        "a"
      ],
      [
        " s",
        "ina"
      ],
      [
        " själ",
        "v"
      ],
      [
        " ",
        "O"
      ],
      [
        "het",
        "er"
      ],
      [
        " m",
        "öj"
      ],
      [
        "u",
        "pp"
      ],
      [
        "o",
        "tt"
      ],
      [
        " f",
        "ort"
      ],
      [
        " för",
        "st"
      ],
      [
        "as",
        "s"
      ],
      [
        "m",
        "an"
      ],
      [
        " o",
        "f"
      ],
      [
        "hå",
        "ll"
      ],
      [
        " j",
        "u"
      ],
      [
        "Det",
        "ta"
      ],
      [
        "st",
        "r"
      ],
      [
        "i",
        "ka"
      ],
      [
        "å",
        "t"
      ],
      [
        "ell",
        "an"
      ],
      [
        " h",
        "å"
      ],
      [
        "j",
        "än"
      ],
      [
        " människ",
        "or"
      ],
      [
        "o",
        "v"
      ],
      [
        "et",
        "s"
      ],
      [
        "na",
        "t"
      ],
      [
        "l",
        "den"
      ],
      [
        " h",
        "em"
      ],
      [
        "a",
        "st"
      ],
      [
        " ",
        "ri"
      ],
      [
        "t",
        "ro"
      ],
      [
        "dig",
        "t"
      ],
      [
        "si",
        "on"
      ],
      [
        " s",
        "m"
      ],
      [
        "yst",
        "em"
      ],
      [
        "N",
        "är"
      ],
      [
        "el",
        "se"
      ],
      [
        "k",
        "on"
      ],
      [
        " ut",
        "veck"
      ],
      [
        " å",
        "t"
      ],
      [
        "öl",
        "j"
      ],
      [
        " h",
        "and"
      ],
      [
        "ri",
        "v"
      ],
      [
        " n",
        "i"
      ],
      [
        " fr",
        "åg"
      ],
      [
        " ny",
        "a"
      ],
      [
        "or",
        "g"
      ],
      [
        "g",
        "ång"
      ],
      [
        " s",
        "ta"
      ],
      [
        " f",
        "un"
      ],
      [
        "a",
        "ck"
      ],
      [
        " d",
        "itt"
      ],
      [
        "le",
        "v"
      ],
      [
        "y",
        "tt"
      ],
      [
        " m",
        "ellan"
      ],
      [
        "H",
        "an"
      ],
      [
        "ning",
        "s"
      ],
      [
        "ig",
        "a"
      ],
      [
        "n",
        "ar"
      ],
      [
        " s",
        "ak"
      ],
      [
        " ",
        "ra"
      ],
      [
        " behö",
        "ver"
      ],
      [
        "y",
        "m"
      ],
      [
        " m",
        "a"
      ],
      [
        "for",
        "ma"
      ],
      [
        " bör",
        "j"
      ],
      [
        " v",
        "åra"
      ],
      [
        " o",
        "lika"
      ],
      [
        " ",
        "w"
      ],
      [
        " s",
        "äker"
      ],
      [
        "e",
        "f"
      ],
      [
        "H",
        "ur"
      ],
      [
        "”",
        "\n"
      ],
      [
        "j",
        "är"
      ],
      [
        " p",
        "re"
      ],
      [
        " för",
        "etag"
      ],
      [
        "äg",
        "g"
      ],
      [
        "ti",
        "s"
      ],
      [
        "i",
        "en"
      ],
      [
        " l",
        "ed"
      ],
      [
        "f",
        "r"
      ],
      [
        " m",
        "ilj"
      ],
      [
        " v",
        "ä"
      ],
      [
        "d",
        "uk"
      ],
      [
        "h",
        "e"
      ],
      [
        "m",
        "ar"
      ],
      [
        "V",
        "ad"
      ],
      [
        " hel",
        "a"
      ],
      [
        " l",
        "äng"
      ],
      [
        ")",
        ".\n"
      ],
      [
        " k",
        "a"
      ],
      [
        "o",
        "ll"
      ],
      [
        " hö",
        "g"
      ],
      [
        " vär",
        "lden"
      ],
      [
        " vi",
        "kti"
      ],
      [
        "V",
        "ar"
      ],
      [
        " d",
        "ina"
      ],
      [
        " l",
        "ag"
      ],
      [
        " s",
        "itt"
      ],
      [
        " g",
        "j"
      ],
      [
        " säg",
        "er"
      ],
      [
        " in",
        "t"
      ],
      [
        "l",
        "ar"
      ],
      [
        "het",
        "en"
      ],
      [
        ":",
        "\n"
      ],
      [
        " m",
        "o"
      ],
      [
        " s",
        "edan"
      ],
      [
        "p",
        "el"
      ],
      [
        " å",
        "ter"
      ],
      [
        " någ",
        "ra"
      ],
      [
        " st",
        "ör"
      ],
      [
        " d",
        "eras"
      ],
      [
        "f",
        "att"
      ],
      [
        "u",
        "b"
      ],
      [
        " var",
        "je"
      ],
      [
        "and",
        "et"
      ],
      [
        " g",
        "å"
      ],
      [
        "är",
        "a"
      ],
      [
        "g",
        "r"
      ],
      [
        " d",
        "i"
      ],
      [
        " I",
        "n"
      ],
      [
        ")",
        "\n"
      ],
      [
        " s",
        "en"
      ],
      [
        " p",
        "r"
      ],
      [
        "\"",
        "\n"
      ],
      [
        "m",
        "en"
      ],
      [
        "er",
        "ar"
      ],
      [
        " för",
        "b"
      ],
      [
        "an",
        "ska"
      ],
      [
        " k",
        "än"
      ],
      [
        "g",
        "ram"
      ],
      [
        "sö",
        "k"
      ],
      [
        " p",
        "er"
      ],
      [
        " g",
        "l"
      ],
      [
        "t",
        "ur"
      ],
      [
        " bli",
        "r"
      ],
      [
        "e",
        "kt"
      ],
      [
        "o",
        "b"
      ],
      [
        "e",
        "del"
      ],
      [
        "d",
        "an"
      ],
      [
        "20",
        "0"
      ],
      [
        " k",
        "ö"
      ],
      [
        " t",
        "e"
      ],
      [
        " en",
        "da"
      ],
      [
        "yg",
        "g"
      ],
      [
        " t",
        "y"
      ],
      [
        "i",
        "r"
      ],
      [
        "forma",
        "tion"
      ],
      [
        " s",
        "v"
      ],
      [
        "ter",
        "a"
      ],
      [
        "m",
        "in"
      ],
      [
        " ska",
        "ll"
      ],
      [
        " re",
        "s"
      ],
      [
        " ",
        "ro"
      ],
      [
        " hon",
        "om"
      ],
      [
        "an",
        "g"
      ],
      [
        " ",
        "ig"
      ],
      [
        "e",
        "g"
      ],
      [
        "er",
        "ad"
      ],
      [
        "änn",
        "er"
      ],
      [
        " h",
        "itt"
      ],
      [
        "d",
        "om"
      ],
      [
        "p",
        "ar"
      ],
      [
        "na",
        "s"
      ],
      [
        "n",
        "et"
      ],
      [
        " all",
        "tid"
      ],
      [
        "u",
        "si"
      ],
      [
        "ö",
        "s"
      ],
      [
        " f",
        "in"
      ],
      [
        " s",
        "j"
      ],
      [
        "..",
        ".\n"
      ],
      [
        "s",
        "var"
      ],
      [
        "v",
        "et"
      ],
      [
        " sl",
        "ut"
      ],
      [
        "p",
        "ro"
      ],
      [
        " ",
        "äl"
      ],
      [
        "d",
        "i"
      ],
      [
        "y",
        "s"
      ],
      [
        "ar",
        "bet"
      ],
      [
        "t",
        "or"
      ],
      [
        " g",
        "år"
      ],
      [
        "å",
        "l"
      ],
      [
        " ",
        "el"
      ],
      [
        " m",
        "ark"
      ],
      [
        " sam",
        "ma"
      ],
      [
        " p",
        "ar"
      ],
      [
        "al",
        "t"
      ],
      [
        "ä",
        "s"
      ],
      [
        "a",
        "tion"
      ],
      [
        " b",
        "å"
      ],
      [
        "ti",
        "ska"
      ],
      [
        " v",
        "äg"
      ],
      [
        "an",
        "k"
      ],
      [
        "ä",
        "d"
      ],
      [
        " t",
        "ro"
      ],
      [
        "sk",
        "e"
      ],
      [
        "p",
        "e"
      ],
      [
        "s",
        "b"
      ],
      [
        "ig",
        "t"
      ],
      [
        ",",
        "\n"
      ],
      [
        " h",
        "en"
      ],
      [
        " v",
        "än"
      ],
      [
        "ol",
        "k"
      ],
      [
        " hel",
        "t"
      ],
      [
        " h",
        "ans"
      ],
      [
        "S",
        "å"
      ],
      [
        "u",
        "v"
      ],
      [
        " ",
        "änd"
      ],
      [
        "g",
        "ar"
      ],
      [
        "1",
        "0"
      ],
      [
        " gr",
        "und"
      ],
      [
        "f",
        "ar"
      ],
      [
        "na",
        "der"
      ],
      [
        "b",
        "lem"
      ],
      [
        "ä",
        "ller"
      ],
      [
        " var",
        "it"
      ],
      [
        "sk",
        "ar"
      ],
      [
        "d",
        "re"
      ],
      [
        "ä",
        "t"
      ],
      [
        " vil",
        "ket"
      ],
      [
        "e",
        "bb"
      ],
      [
        "l",
        "in"
      ],
      [
        "b",
        "a"
      ],
      [
        " G",
        "ud"
      ],
      [
        " l",
        "ång"
      ],
      [
        " u",
        "r"
      ],
      [
        "c",
        "ent"
      ],
      [
        "ell",
        "t"
      ],
      [
        "sk",
        "il"
      ],
      [
        "ätt",
        "re"
      ],
      [
        " be",
        "st"
      ],
      [
        " in",
        "formation"
      ],
      [
        "A",
        "n"
      ],
      [
        "st",
        "en"
      ],
      [
        "ut",
        "om"
      ],
      [
        "or",
        "de"
      ],
      [
        " l",
        "äm"
      ],
      [
        "ing",
        "en"
      ],
      [
        " sam",
        "t"
      ],
      [
        " kun",
        "na"
      ],
      [
        "k",
        "omm"
      ],
      [
        " anv",
        "ända"
      ],
      [
        "o",
        "w"
      ],
      [
        "ä",
        "ck"
      ],
      [
        " e",
        "g"
      ],
      [
        " l",
        "äg"
      ],
      [
        "a",
        "kt"
      ],
      [
        " m",
        "itt"
      ],
      [
        "A",
        "tt"
      ],
      [
        " s",
        "o"
      ],
      [
        "b",
        "ar"
      ],
      [
        "v",
        "änd"
      ],
      [
        " b",
        "ästa"
      ],
      [
        " t",
        "re"
      ],
      [
        " g",
        "er"
      ],
      [
        " ing",
        "en"
      ],
      [
        " s",
        "var"
      ],
      [
        " p",
        "en"
      ],
      [
        " r",
        "el"
      ],
      [
        "ä",
        "lla"
      ],
      [
        " b",
        "ättre"
      ],
      [
        "and",
        "en"
      ],
      [
        " f",
        "il"
      ],
      [
        " t",
        "rä"
      ],
      [
        "a",
        "b"
      ],
      [
        "an",
        "is"
      ],
      [
        "g",
        "ör"
      ],
      [
        "gi",
        "fter"
      ],
      [
        "ing",
        "ar"
      ],
      [
        " g",
        "e"
      ],
      [
        " f",
        "ölj"
      ],
      [
        " an",
        "nan"
      ],
      [
        "i",
        "e"
      ],
      [
        " t",
        "jän"
      ],
      [
        " k",
        "r"
      ],
      [
        " t",
        "än"
      ],
      [
        " er",
        "b"
      ],
      [
        "ti",
        "va"
      ],
      [
        "ld",
        "rig"
      ],
      [
        "e",
        "ci"
      ],
      [
        " ar",
        "ti"
      ],
      [
        "ek",
        "n"
      ],
      [
        " pro",
        "duk"
      ],
      [
        "t",
        "en"
      ],
      [
        " l",
        "y"
      ],
      [
        "em",
        "pel"
      ],
      [
        "is",
        "kt"
      ],
      [
        " för",
        "s"
      ],
      [
        " a",
        "l"
      ],
      [
        "t",
        "ar"
      ],
      [
        "kt",
        "en"
      ],
      [
        "sl",
        "ut"
      ],
      [
        " ig",
        "en"
      ],
      [
        " k",
        "ra"
      ],
      [
        "ol",
        "og"
      ],
      [
        " re",
        "g"
      ],
      [
        "ist",
        "or"
      ],
      [
        " an",
        "nat"
      ],
      [
        " b",
        "i"
      ],
      [
        "u",
        "g"
      ],
      [
        " m",
        "est"
      ],
      [
        "l",
        "ek"
      ],
      [
        "and",
        "ling"
      ],
      [
        " li",
        "te"
      ],
      [
        " för",
        "v"
      ],
      [
        "t",
        "ra"
      ],
      [
        "än",
        "s"
      ],
      [
        " v",
        "in"
      ],
      [
        "at",
        "or"
      ],
      [
        "v",
        "s"
      ],
      [
        " a",
        "ldrig"
      ],
      [
        "un",
        "g"
      ],
      [
        " w",
        "ebb"
      ],
      [
        " v",
        "an"
      ],
      [
        "na",
        "den"
      ],
      [
        "en",
        "ter"
      ],
      [
        " s",
        "ö"
      ],
      [
        "tal",
        "et"
      ],
      [
        " E",
        "uro"
      ],
      [
        " e",
        "ff"
      ],
      [
        "na",
        "bb"
      ],
      [
        "tion",
        "ella"
      ],
      [
        " h",
        "os"
      ],
      [
        "tt",
        "a"
      ],
      [
        " g",
        "ra"
      ],
      [
        " sp",
        "eci"
      ],
      [
        "tis",
        "kt"
      ],
      [
        "m",
        "et"
      ],
      [
        " o",
        "n"
      ],
      [
        " or",
        "d"
      ],
      [
        " a",
        "kti"
      ],
      [
        "l",
        "ed"
      ],
      [
        "u",
        "ta"
      ],
      [
        "ade",
        "s"
      ],
      [
        " f",
        "all"
      ],
      [
        " för",
        "l"
      ],
      [
        " s",
        "i"
      ],
      [
        "or",
        "na"
      ],
      [
        "t",
        "ag"
      ],
      [
        "m",
        "ans"
      ],
      [
        " pro",
        "du"
      ],
      [
        " må",
        "l"
      ],
      [
        "an",
        "ta"
      ],
      [
        "r",
        "ätt"
      ],
      [
        " t",
        "ar"
      ],
      [
        "er",
        "at"
      ],
      [
        " komm",
        "a"
      ],
      [
        "uv",
        "ud"
      ],
      [
        " ",
        "ch"
      ],
      [
        " fl",
        "era"
      ],
      [
        "o",
        "ka"
      ],
      [
        "n",
        "en"
      ],
      [
        "e",
        "ller"
      ],
      [
        " f",
        "är"
      ],
      [
        "j",
        "er"
      ],
      [
        " le",
        "ver"
      ],
      [
        "je",
        "kt"
      ],
      [
        "ro",
        "pp"
      ],
      [
        "M",
        "ed"
      ],
      [
        "te",
        "g"
      ],
      [
        " stor",
        "a"
      ],
      [
        "b",
        "r"
      ],
      [
        " b",
        "ort"
      ],
      [
        "De",
        "ss"
      ],
      [
        "g",
        "är"
      ],
      [
        " kv",
        "inn"
      ],
      [
        " s",
        "nabb"
      ],
      [
        "ba",
        "ka"
      ],
      [
        " efter",
        "som"
      ],
      [
        " d",
        "om"
      ],
      [
        " e",
        "gen"
      ],
      [
        " med",
        "lem"
      ],
      [
        " ö",
        "pp"
      ],
      [
        "t",
        "u"
      ],
      [
        " pro",
        "blem"
      ],
      [
        "k",
        "om"
      ],
      [
        "S",
        "A"
      ],
      [
        "o",
        "te"
      ],
      [
        "k",
        "e"
      ],
      [
        " b",
        "lev"
      ],
      [
        "ar",
        "d"
      ],
      [
        "o",
        "bb"
      ],
      [
        " pl",
        "an"
      ],
      [
        " v",
        "e"
      ],
      [
        "f",
        "l"
      ],
      [
        " v",
        "al"
      ],
      [
        "k",
        "ta"
      ],
      [
        " p",
        "a"
      ],
      [
        " of",
        "ta"
      ],
      [
        "un",
        "t"
      ],
      [
        " ex",
        "empel"
      ],
      [
        " A",
        "n"
      ],
      [
        "e",
        "x"
      ],
      [
        "k",
        "or"
      ],
      [
        " m",
        "is"
      ],
      [
        "p",
        "t"
      ],
      [
        "r",
        "um"
      ],
      [
        ".",
        "”\n"
      ],
      [
        "Ä",
        "r"
      ],
      [
        "y",
        "l"
      ],
      [
        "U",
        "n"
      ],
      [
        "ån",
        "d"
      ],
      [
        " or",
        "g"
      ],
      [
        " verk",
        "ligen"
      ],
      [
        "m",
        "ed"
      ],
      [
        "y",
        "ra"
      ],
      [
        " tr",
        "or"
      ],
      [
        " en",
        "ligt"
      ],
      [
        " sk",
        "ri"
      ],
      [
        " till",
        "baka"
      ],
      [
        " ti",
        "dig"
      ],
      [
        "p",
        "en"
      ],
      [
        " k",
        "rä"
      ],
      [
        "o",
        "li"
      ],
      [
        "ek",
        "tiv"
      ],
      [
        "am",
        "ilj"
      ],
      [
        "on",
        "er"
      ],
      [
        " g",
        "äller"
      ],
      [
        "E",
        "tt"
      ],
      [
        "h",
        "an"
      ],
      [
        " in",
        "nan"
      ],
      [
        " s",
        "n"
      ],
      [
        " t",
        "ekn"
      ],
      [
        "är",
        "skil"
      ],
      [
        "el",
        "ser"
      ],
      [
        " l",
        "är"
      ],
      [
        " kom",
        "p"
      ],
      [
        "H",
        "ar"
      ],
      [
        " m",
        "at"
      ],
      [
        "s",
        "för"
      ],
      [
        " k",
        "all"
      ],
      [
        " h",
        "jär"
      ],
      [
        " h",
        "äl"
      ],
      [
        " o",
        "ff"
      ],
      [
        " p",
        "ra"
      ],
      [
        "P",
        "å"
      ],
      [
        "u",
        "st"
      ],
      [
        "at",
        "ser"
      ],
      [
        "ul",
        "tat"
      ],
      [
        "ri",
        "d"
      ],
      [
        " h",
        "ör"
      ],
      [
        "å",
        "ende"
      ],
      [
        "far",
        "ande"
      ],
      [
        " f",
        "ull"
      ],
      [
        " l",
        "ig"
      ],
      [
        " f",
        "ick"
      ],
      [
        " sj",
        "uk"
      ],
      [
        " na",
        "tur"
      ],
      [
        " s",
        "yn"
      ],
      [
        " v",
        "att"
      ],
      [
        "ti",
        "g"
      ],
      [
        "f",
        "in"
      ],
      [
        " om",
        "rå"
      ],
      [
        "a",
        "ta"
      ],
      [
        "s",
        "ak"
      ],
      [
        "e",
        "ss"
      ],
      [
        "e",
        "h"
      ],
      [
        "r",
        "en"
      ],
      [
        " n",
        "er"
      ],
      [
        "i",
        "ver"
      ],
      [
        " m",
        "än"
      ],
      [
        " r",
        "ö"
      ],
      [
        " di",
        "re"
      ],
      [
        "n",
        "es"
      ],
      [
        "j",
        "ud"
      ],
      [
        "l",
        "ägg"
      ],
      [
        "pl",
        "ats"
      ],
      [
        " int",
        "ress"
      ],
      [
        "sam",
        "mans"
      ],
      [
        "der",
        "na"
      ],
      [
        "ce",
        "ss"
      ],
      [
        " pl",
        "ats"
      ],
      [
        "l",
        "as"
      ],
      [
        " b",
        "ok"
      ],
      [
        "l",
        "er"
      ],
      [
        "na",
        "de"
      ],
      [
        " r",
        "å"
      ],
      [
        "D",
        "är"
      ],
      [
        ".",
        "\"\n"
      ],
      [
        "i",
        "f"
      ],
      [
        " ber",
        "ätt"
      ],
      [
        "e",
        "b"
      ],
      [
        " kun",
        "de"
      ],
      [
        "ter",
        "i"
      ],
      [
        "bil",
        "d"
      ],
      [
        " för",
        "änd"
      ],
      [
        " kan",
        "ske"
      ],
      [
        "o",
        "ch"
      ],
      [
        "n",
        "er"
      ],
      [
        " h",
        "uvud"
      ],
      [
        "s",
        "h"
      ],
      [
        " g",
        "od"
      ],
      [
        " l",
        "and"
      ],
      [
        "A",
        "lla"
      ],
      [
        " så",
        "dan"
      ],
      [
        " na",
        "m"
      ],
      [
        " vä",
        "x"
      ],
      [
        "k",
        "ar"
      ],
      [
        "K",
        "an"
      ],
      [
        "m",
        "är"
      ],
      [
        "s",
        "in"
      ],
      [
        "ka",
        "de"
      ],
      [
        "H",
        "on"
      ],
      [
        "äl",
        "j"
      ],
      [
        " t",
        "ra"
      ],
      [
        " C",
        "h"
      ],
      [
        " m",
        "ö"
      ],
      [
        " for",
        "sk"
      ],
      [
        "rä",
        "ck"
      ],
      [
        "i",
        "o"
      ],
      [
        " k",
        "är"
      ],
      [
        " bå",
        "de"
      ],
      [
        "kon",
        "om"
      ],
      [
        " st",
        "öd"
      ],
      [
        " anv",
        "änder"
      ],
      [
        " möj",
        "lighet"
      ],
      [
        "s",
        "n"
      ],
      [
        "en",
        "der"
      ],
      [
        " s",
        "y"
      ],
      [
        " s",
        "ärskil"
      ],
      [
        " hjäl",
        "p"
      ],
      [
        "al",
        "itet"
      ],
      [
        " pro",
        "gram"
      ],
      [
        " utveck",
        "ling"
      ],
      [
        " h",
        "istor"
      ],
      [
        " k",
        "ropp"
      ],
      [
        " e",
        "m"
      ],
      [
        "ri",
        "st"
      ],
      [
        " l",
        "å"
      ],
      [
        " d",
        "ra"
      ],
      [
        " b",
        "land"
      ],
      [
        " erb",
        "ju"
      ],
      [
        " arti",
        "kel"
      ],
      [
        " f",
        "le"
      ],
      [
        " sak",
        "er"
      ],
      [
        " m",
        "et"
      ],
      [
        " l",
        "ä"
      ],
      [
        " f",
        "amilj"
      ],
      [
        "g",
        "iv"
      ],
      [
        " for",
        "m"
      ],
      [
        " l",
        "ätt"
      ],
      [
        "p",
        "an"
      ],
      [
        "sam",
        "het"
      ],
      [
        " l",
        "ik"
      ],
      [
        "T",
        "ill"
      ],
      [
        ")",
        ","
      ],
      [
        " r",
        "edan"
      ],
      [
        "yck",
        "er"
      ],
      [
        "1",
        "5"
      ],
      [
        " säg",
        "a"
      ],
      [
        " m",
        "ina"
      ],
      [
        " j",
        "obb"
      ],
      [
        "år",
        "t"
      ],
      [
        "”",
        ".\n"
      ],
      [
        " po",
        "li"
      ],
      [
        " g",
        "am"
      ],
      [
        " ",
        ".\n"
      ],
      [
        "i",
        "ster"
      ],
      [
        " i",
        "dag"
      ],
      [
        " e",
        "konom"
      ],
      [
        " re",
        "gi"
      ],
      [
        " h",
        "än"
      ],
      [
        " d",
        "ö"
      ],
      [
        "S",
        "om"
      ],
      [
        " person",
        "er"
      ],
      [
        "r",
        "y"
      ],
      [
        " fort",
        "farande"
      ],
      [
        "en",
        "skap"
      ],
      [
        " min",
        "dre"
      ],
      [
        " r",
        "isk"
      ],
      [
        " be",
        "k"
      ],
      [
        "for",
        "m"
      ],
      [
        "ter",
        "ar"
      ],
      [
        " d",
        "ock"
      ],
      [
        " tidig",
        "are"
      ],
      [
        "s",
        "f"
      ],
      [
        "ä",
        "v"
      ],
      [
        " S",
        "t"
      ],
      [
        " gj",
        "ort"
      ],
      [
        " in",
        "terna"
      ],
      [
        "H",
        "är"
      ],
      [
        "r",
        "et"
      ],
      [
        "sl",
        "ag"
      ],
      [
        "1",
        "8"
      ],
      [
        "ti",
        "k"
      ],
      [
        "t",
        "et"
      ],
      [
        " en",
        "kel"
      ],
      [
        " lig",
        "ger"
      ],
      [
        "r",
        "ed"
      ],
      [
        " till",
        "sammans"
      ],
      [
        "a",
        "ste"
      ],
      [
        " l",
        "ö"
      ],
      [
        " f",
        "ri"
      ],
      [
        " kon",
        "tro"
      ],
      [
        " väl",
        "digt"
      ],
      [
        " st",
        "äll"
      ],
      [
        " vis",
        "sa"
      ],
      [
        " enda",
        "st"
      ],
      [
        " r",
        "ed"
      ],
      [
        "or",
        "m"
      ],
      [
        "sp",
        "ro"
      ],
      [
        "st",
        "ånd"
      ],
      [
        " t",
        "al"
      ],
      [
        " sk",
        "yd"
      ],
      [
        "g",
        "on"
      ],
      [
        "E",
        "fter"
      ],
      [
        "l",
        "ag"
      ],
      [
        " s",
        "ystem"
      ],
      [
        " i",
        "m"
      ],
      [
        "o",
        "h"
      ],
      [
        " o",
        "b"
      ],
      [
        " in",
        "kl"
      ],
      [
        "iv",
        "å"
      ],
      [
        " hå",
        "ll"
      ],
      [
        " so",
        "ci"
      ],
      [
        "ro",
        "tt"
      ],
      [
        "um",
        "ent"
      ],
      [
        " pro",
        "cent"
      ],
      [
        " ",
        "Vi"
      ],
      [
        "am",
        "ma"
      ],
      [
        " först",
        "å"
      ],
      [
        " r",
        "ör"
      ],
      [
        " E",
        "U"
      ],
      [
        "Den",
        "na"
      ],
      [
        " inne",
        "b"
      ],
      [
        " f",
        "ast"
      ],
      [
        "h",
        "äll"
      ],
      [
        "iver",
        "s"
      ],
      [
        "g",
        "äng"
      ],
      [
        " d",
        "r"
      ],
      [
        "Var",
        "för"
      ],
      [
        " hjäl",
        "pa"
      ],
      [
        " möj",
        "ligt"
      ],
      [
        "in",
        "d"
      ],
      [
        " läng",
        "re"
      ],
      [
        " in",
        "ter"
      ],
      [
        " f",
        "ak"
      ],
      [
        " f",
        "olk"
      ],
      [
        " U",
        "SA"
      ],
      [
        " ",
        "ytt"
      ],
      [
        "j",
        "ur"
      ],
      [
        " fort",
        "sätt"
      ],
      [
        "N",
        "u"
      ],
      [
        " b",
        "ak"
      ],
      [
        "S",
        "k"
      ],
      [
        " k",
        "or"
      ],
      [
        "m",
        "än"
      ],
      [
        " h",
        "us"
      ],
      [
        "00",
        "0"
      ],
      [
        " s",
        "a"
      ],
      [
        " pen",
        "gar"
      ],
      [
        "fr",
        "ån"
      ],
      [
        " ",
        "Y"
      ],
      [
        "A",
        "ll"
      ],
      [
        " ",
        "["
      ],
      [
        " org",
        "anis"
      ],
      [
        " ti",
        "den"
      ],
      [
        " stör",
        "sta"
      ],
      [
        "äm",
        "p"
      ],
      [
        " an",
        "d"
      ],
      [
        "kl",
        "ar"
      ],
      [
        "b",
        "art"
      ],
      [
        " l",
        "äk"
      ],
      [
        "sp",
        "el"
      ],
      [
        " för",
        "sö"
      ],
      [
        " t",
        "ag"
      ],
      [
        " kon",
        "s"
      ],
      [
        "f",
        "i"
      ],
      [
        " vär",
        "ld"
      ],
      [
        "an",
        "c"
      ],
      [
        " pr",
        "is"
      ],
      [
        " f",
        "el"
      ],
      [
        "r",
        "is"
      ],
      [
        "ar",
        "i"
      ],
      [
        "ol",
        "ag"
      ],
      [
        "yn",
        "dig"
      ],
      [
        " d",
        "ata"
      ],
      [
        " ",
        "äg"
      ],
      [
        "år",
        "d"
      ],
      [
        " vatt",
        "en"
      ],
      [
        "lig",
        "are"
      ],
      [
        "dra",
        "g"
      ],
      [
        " best",
        "äm"
      ],
      [
        " produk",
        "ter"
      ],
      [
        " k",
        "ost"
      ],
      [
        " fl",
        "er"
      ],
      [
        "hå",
        "ller"
      ],
      [
        "v",
        "äg"
      ],
      [
        " där",
        "för"
      ],
      [
        "m",
        "e"
      ],
      [
        "F",
        "r"
      ],
      [
        " k",
        "änner"
      ],
      [
        " k",
        "li"
      ],
      [
        "p",
        "s"
      ],
      [
        " se",
        "x"
      ],
      [
        " kvinn",
        "or"
      ],
      [
        "o",
        "ende"
      ],
      [
        "3",
        "0"
      ],
      [
        "u",
        "ter"
      ],
      [
        " vår",
        "t"
      ],
      [
        " fl",
        "yg"
      ],
      [
        " för",
        "m"
      ],
      [
        " an",
        "svar"
      ],
      [
        " res",
        "ultat"
      ],
      [
        " f",
        "em"
      ],
      [
        " en",
        "er"
      ],
      [
        "ti",
        "sk"
      ],
      [
        " bet",
        "y"
      ],
      [
        "1",
        "2"
      ],
      [
        "\"",
        ".\n"
      ],
      [
        " fr",
        "äm"
      ],
      [
        "ä",
        "pp"
      ],
      [
        " t",
        "o"
      ],
      [
        " be",
        "slut"
      ],
      [
        " ska",
        "pa"
      ],
      [
        "b",
        "land"
      ],
      [
        " k",
        "ul"
      ],
      [
        "ig",
        "e"
      ],
      [
        "a",
        "y"
      ],
      [
        " hen",
        "ne"
      ],
      [
        " E",
        "n"
      ],
      [
        "S",
        "t"
      ],
      [
        "ub",
        "li"
      ],
      [
        " använd",
        "s"
      ],
      [
        "ti",
        "ll"
      ],
      [
        " ti",
        "m"
      ],
      [
        "b",
        "o"
      ],
      [
        " för",
        "e"
      ],
      [
        " s",
        "id"
      ],
      [
        " un",
        "d"
      ],
      [
        "al",
        "is"
      ],
      [
        " u",
        "tt"
      ],
      [
        " förb",
        "ätt"
      ],
      [
        "äst",
        "an"
      ],
      [
        "p",
        "i"
      ],
      [
        "än",
        "k"
      ],
      [
        " fun",
        "k"
      ],
      [
        "Un",
        "der"
      ],
      [
        "e",
        "j"
      ],
      [
        "ter",
        "ing"
      ],
      [
        " dag",
        "ar"
      ],
      [
        "s",
        "o"
      ],
      [
        " fle",
        "sta"
      ],
      [
        " n",
        "og"
      ],
      [
        "a",
        "c"
      ],
      [
        "f",
        "ri"
      ],
      [
        "..",
        "."
      ],
      [
        " st",
        "ud"
      ],
      [
        "h",
        "a"
      ],
      [
        "e",
        "v"
      ],
      [
        " vikti",
        "gt"
      ],
      [
        " ri",
        "kti"
      ],
      [
        "p",
        "ort"
      ],
      [
        " j",
        "äm"
      ],
      [
        " ve",
        "ck"
      ],
      [
        " när",
        "a"
      ],
      [
        " r",
        "äd"
      ],
      [
        "c",
        "is"
      ],
      [
        "on",
        "e"
      ],
      [
        "U",
        "t"
      ],
      [
        " säker",
        "het"
      ],
      [
        " st",
        "u"
      ],
      [
        " r",
        "unt"
      ],
      [
        "k",
        "an"
      ],
      [
        " b",
        "ygg"
      ],
      [
        "v",
        "it"
      ],
      [
        " f",
        "ot"
      ],
      [
        " ö",
        "ka"
      ],
      [
        " p",
        "la"
      ],
      [
        " hitt",
        "a"
      ],
      [
        " till",
        "gäng"
      ],
      [
        " k",
        "ort"
      ],
      [
        " gj",
        "orde"
      ],
      [
        "åg",
        "a"
      ],
      [
        " vis",
        "ar"
      ],
      [
        "v",
        "an"
      ],
      [
        " d",
        "öd"
      ],
      [
        " stör",
        "re"
      ],
      [
        "ft",
        "en"
      ],
      [
        "ta",
        "s"
      ],
      [
        "för",
        "a"
      ],
      [
        " li",
        "ka"
      ],
      [
        "y",
        "t"
      ],
      [
        "5",
        "0"
      ],
      [
        "v",
        "ent"
      ],
      [
        " l",
        "änder"
      ],
      [
        " st",
        "ar"
      ],
      [
        " själ",
        "va"
      ],
      [
        "änn",
        "u"
      ],
      [
        "b",
        "ara"
      ],
      [
        " sam",
        "häll"
      ],
      [
        ":",
        "s"
      ],
      [
        "s",
        "ig"
      ],
      [
        " k",
        "var"
      ],
      [
        " tr",
        "ans"
      ],
      [
        "is",
        "sion"
      ],
      [
        "and",
        "ra"
      ],
      [
        "ä",
        "der"
      ],
      [
        "V",
        "il"
      ],
      [
        "ande",
        "l"
      ],
      [
        " s",
        "tat"
      ],
      [
        "s",
        "st"
      ],
      [
        "v",
        "al"
      ],
      [
        " all",
        "män"
      ],
      [
        " g",
        "em"
      ],
      [
        " ",
        "ännu"
      ],
      [
        "lin",
        "e"
      ],
      [
        " nam",
        "n"
      ],
      [
        " i",
        "h"
      ],
      [
        "on",
        "s"
      ],
      [
        "e",
        "w"
      ],
      [
        " gr",
        "upp"
      ],
      [
        "d",
        "ar"
      ],
      [
        " inneb",
        "är"
      ],
      [
        " d",
        "ri"
      ],
      [
        " h",
        "änder"
      ],
      [
        "ff",
        "är"
      ],
      [
        "ter",
        "ade"
      ],
      [
        "a",
        "tioner"
      ],
      [
        " börj",
        "ar"
      ],
      [
        " hen",
        "nes"
      ],
      [
        " sen",
        "aste"
      ],
      [
        "ta",
        "de"
      ],
      [
        " tr",
        "ed"
      ],
      [
        " kon",
        "ta"
      ],
      [
        "v",
        "ä"
      ],
      [
        "an",
        "si"
      ],
      [
        " un",
        "g"
      ],
      [
        " vil",
        "ken"
      ],
      [
        " om",
        "fatt"
      ],
      [
        "el",
        "sen"
      ],
      [
        "mer",
        "ik"
      ],
      [
        "ote",
        "ll"
      ],
      [
        " b",
        "or"
      ],
      [
        " s",
        "ti"
      ],
      [
        "ig",
        "heter"
      ],
      [
        "M",
        "an"
      ],
      [
        "g",
        "el"
      ],
      [
        " ö",
        "n"
      ],
      [
        "j",
        "us"
      ],
      [
        "b",
        "el"
      ],
      [
        "var",
        "ande"
      ],
      [
        "v",
        "i"
      ],
      [
        " komm",
        "un"
      ],
      [
        " vikti",
        "ga"
      ],
      [
        "f",
        "är"
      ],
      [
        " mark",
        "nad"
      ],
      [
        " enkel",
        "t"
      ],
      [
        "ring",
        "ar"
      ],
      [
        " b",
        "as"
      ],
      [
        " ",
        "“"
      ],
      [
        " st",
        "yr"
      ],
      [
        "t",
        "r"
      ],
      [
        "y",
        "ll"
      ],
      [
        "on",
        "g"
      ],
      [
        " sam",
        "arbet"
      ],
      [
        " hå",
        "lla"
      ],
      [
        "ra",
        "s"
      ],
      [
        " l",
        "ös"
      ],
      [
        " h",
        "opp"
      ],
      [
        " F",
        "ör"
      ],
      [
        "re",
        "v"
      ],
      [
        " dire",
        "kt"
      ],
      [
        "ti",
        "digt"
      ],
      [
        " var",
        "för"
      ],
      [
        "ver",
        "ka"
      ],
      [
        " S",
        "ver"
      ],
      [
        " fråg",
        "a"
      ],
      [
        "h",
        "ör"
      ],
      [
        "gr",
        "äns"
      ],
      [
        "teri",
        "al"
      ],
      [
        " akti",
        "v"
      ],
      [
        " n",
        "ed"
      ],
      [
        "p",
        "or"
      ],
      [
        "it",
        "y"
      ],
      [
        "sa",
        "tt"
      ],
      [
        "x",
        "t"
      ],
      [
        " n",
        "öd"
      ],
      [
        "tiv",
        "t"
      ],
      [
        " a",
        "d"
      ],
      [
        "da",
        "de"
      ],
      [
        "ör",
        "er"
      ],
      [
        " få",
        "tt"
      ],
      [
        " bli",
        "vit"
      ],
      [
        "Dess",
        "a"
      ],
      [
        " sm",
        "å"
      ],
      [
        " bet",
        "al"
      ],
      [
        "f",
        "er"
      ],
      [
        " t",
        "ycker"
      ],
      [
        " erbju",
        "der"
      ],
      [
        "or",
        "i"
      ],
      [
        "un",
        "k"
      ],
      [
        "g",
        "e"
      ],
      [
        " in",
        "för"
      ],
      [
        " n",
        "ästan"
      ],
      [
        "inn",
        "er"
      ],
      [
        " äl",
        "skar"
      ],
      [
        " st",
        "ra"
      ],
      [
        "et",
        "er"
      ],
      [
        " sk",
        "ol"
      ],
      [
        " b",
        "yg"
      ],
      [
        "ck",
        "e"
      ],
      [
        " ty",
        "p"
      ],
      [
        " pro",
        "f"
      ],
      [
        " åt",
        "gär"
      ],
      [
        " b",
        "ed"
      ],
      [
        "sk",
        "ri"
      ],
      [
        " in",
        "ve"
      ],
      [
        "ill",
        "ar"
      ],
      [
        " vil",
        "ka"
      ],
      [
        " pro",
        "jekt"
      ],
      [
        " beh",
        "andling"
      ],
      [
        " ny",
        "tt"
      ],
      [
        "rå",
        "k"
      ],
      [
        "pe",
        "iska"
      ],
      [
        " tjän",
        "ster"
      ],
      [
        "ic",
        "e"
      ],
      [
        "it",
        "en"
      ],
      [
        " särskil",
        "t"
      ],
      [
        "o",
        "ur"
      ],
      [
        " st",
        "år"
      ],
      [
        " in",
        "d"
      ],
      [
        " n",
        "ät"
      ],
      [
        "den",
        "s"
      ],
      [
        " ing",
        "et"
      ],
      [
        "ar",
        "s"
      ],
      [
        "un",
        "kt"
      ],
      [
        " U",
        "n"
      ],
      [
        " liv",
        "et"
      ],
      [
        " T",
        "he"
      ],
      [
        " l",
        "oka"
      ],
      [
        " ra",
        "pp"
      ],
      [
        " för",
        "h"
      ],
      [
        " arbet",
        "e"
      ],
      [
        " o",
        "p"
      ],
      [
        " ska",
        "p"
      ],
      [
        " ytt",
        "er"
      ],
      [
        " be",
        "f"
      ],
      [
        " ö",
        "gon"
      ],
      [
        "st",
        "änd"
      ],
      [
        " r",
        "um"
      ],
      [
        "l",
        "an"
      ],
      [
        " t",
        "er"
      ],
      [
        " läng",
        "e"
      ],
      [
        " k",
        "am"
      ],
      [
        "y",
        "k"
      ],
      [
        "u",
        "ella"
      ],
      [
        " sen",
        "are"
      ],
      [
        "ö",
        "ver"
      ],
      [
        "h",
        "us"
      ],
      [
        " kon",
        "st"
      ],
      [
        " till",
        "gång"
      ],
      [
        " ener",
        "gi"
      ],
      [
        " ",
        "et"
      ],
      [
        "in",
        "er"
      ],
      [
        "1",
        "6"
      ],
      [
        "on",
        "en"
      ],
      [
        " ",
        "&"
      ],
      [
        "P",
        "ro"
      ],
      [
        " upp",
        "f"
      ],
      [
        " ju",
        "st"
      ],
      [
        "re",
        "s"
      ],
      [
        "sam",
        "ma"
      ],
      [
        " m",
        "as"
      ],
      [
        " Euro",
        "pa"
      ],
      [
        " b",
        "el"
      ],
      [
        " milj",
        "oner"
      ],
      [
        "1",
        "00"
      ],
      [
        " sam",
        "man"
      ],
      [
        " gång",
        "er"
      ],
      [
        " a",
        "merik"
      ],
      [
        " fun",
        "ger"
      ],
      [
        "ligt",
        "vis"
      ],
      [
        " e",
        "uro"
      ],
      [
        "s",
        "ett"
      ],
      [
        " m",
        "usi"
      ],
      [
        "ri",
        "k"
      ],
      [
        "t",
        "o"
      ],
      [
        "Ä",
        "ven"
      ],
      [
        " vi",
        "a"
      ],
      [
        " i",
        "cke"
      ],
      [
        "ra",
        "f"
      ],
      [
        "ra",
        "l"
      ],
      [
        " upp",
        "t"
      ],
      [
        "ö",
        "st"
      ],
      [
        "den",
        "t"
      ],
      [
        " webb",
        "plats"
      ],
      [
        "ol",
        "en"
      ],
      [
        " f",
        "yra"
      ],
      [
        "sätt",
        "ning"
      ],
      [
        "o",
        "der"
      ],
      [
        "r",
        "an"
      ],
      [
        " a",
        "ffär"
      ],
      [
        "19",
        "9"
      ],
      [
        "sk",
        "riv"
      ],
      [
        " kär",
        "lek"
      ],
      [
        " ",
        "Det"
      ],
      [
        " ut",
        "bild"
      ],
      [
        " milj",
        "ö"
      ],
      [
        "or",
        "n"
      ],
      [
        " i",
        "d"
      ],
      [
        " k",
        "ör"
      ],
      [
        "un",
        "da"
      ],
      [
        " f",
        "anta"
      ],
      [
        "1",
        "1"
      ],
      [
        "r",
        "on"
      ],
      [
        " dag",
        "en"
      ],
      [
        " spel",
        "a"
      ],
      [
        "ok",
        "us"
      ],
      [
        "All",
        "t"
      ],
      [
        "f",
        "aren"
      ],
      [
        "m",
        "at"
      ],
      [
        "ru",
        "kt"
      ],
      [
        " p",
        "art"
      ],
      [
        "ck",
        "er"
      ],
      [
        " förl",
        "or"
      ],
      [
        " tred",
        "je"
      ],
      [
        "in",
        "s"
      ],
      [
        " fak",
        "tiskt"
      ],
      [
        "den",
        "ti"
      ],
      [
        " c",
        "ent"
      ],
      [
        " ",
        "ci"
      ],
      [
        "en",
        "om"
      ],
      [
        " g",
        "ick"
      ],
      [
        "in",
        "na"
      ],
      [
        "för",
        "s"
      ],
      [
        " vet",
        "a"
      ],
      [
        " fråg",
        "or"
      ],
      [
        " beh",
        "ov"
      ],
      [
        "M",
        "in"
      ],
      [
        "ö",
        "tt"
      ],
      [
        " l",
        "u"
      ],
      [
        " nöd",
        "vänd"
      ],
      [
        " k",
        "ri"
      ],
      [
        "c",
        "en"
      ],
      [
        "ig",
        "het"
      ],
      [
        "t",
        "on"
      ],
      [
        "si",
        "kt"
      ],
      [
        "usi",
        "ve"
      ],
      [
        "In",
        "te"
      ],
      [
        " t",
        "og"
      ],
      [
        "u",
        "ss"
      ],
      [
        " kun",
        "der"
      ],
      [
        " börj",
        "ade"
      ],
      [
        "]",
        "\n"
      ],
      [
        "st",
        "älla"
      ],
      [
        "el",
        "s"
      ],
      [
        " st",
        "ort"
      ],
      [
        " s",
        "åg"
      ],
      [
        "der",
        "a"
      ],
      [
        " t",
        "ur"
      ],
      [
        " po",
        "si"
      ],
      [
        " s",
        "ade"
      ],
      [
        " f",
        "ar"
      ],
      [
        "ru",
        "pp"
      ],
      [
        " tekn",
        "ik"
      ],
      [
        "1",
        "7"
      ],
      [
        "V",
        "is"
      ],
      [
        "f",
        "äll"
      ],
      [
        " Sver",
        "ige"
      ],
      [
        " st",
        "r"
      ],
      [
        "it",
        "u"
      ],
      [
        "f",
        "all"
      ],
      [
        "n",
        "o"
      ],
      [
        " s",
        "teg"
      ],
      [
        "-",
        "p"
      ],
      [
        " re",
        "komm"
      ],
      [
        " eff",
        "ektiv"
      ],
      [
        "li",
        "ck"
      ],
      [
        " del",
        "ar"
      ],
      [
        " re",
        "p"
      ],
      [
        "1",
        "4"
      ],
      [
        " l",
        "ära"
      ],
      [
        "y",
        "p"
      ],
      [
        " R",
        "e"
      ],
      [
        " eg",
        "na"
      ],
      [
        "v",
        "id"
      ],
      [
        " A",
        "r"
      ],
      [
        " var",
        "andra"
      ],
      [
        "ra",
        "tion"
      ],
      [
        " upp",
        "gifter"
      ],
      [
        " fin",
        "ansi"
      ],
      [
        "u",
        "x"
      ],
      [
        "c",
        "o"
      ],
      [
        " sjuk",
        "dom"
      ],
      [
        " M",
        "ar"
      ],
      [
        " gång",
        "en"
      ],
      [
        " f",
        "ann"
      ],
      [
        " för",
        "ut"
      ],
      [
        "terna",
        "tiv"
      ],
      [
        "c",
        "y"
      ],
      [
        "on",
        "d"
      ],
      [
        "sp",
        "r"
      ],
      [
        " fram",
        "ti"
      ],
      [
        " till",
        "ämp"
      ],
      [
        " bå",
        "da"
      ],
      [
        "fr",
        "åg"
      ],
      [
        "ing",
        "s"
      ],
      [
        " n",
        "ästa"
      ],
      [
        " ",
        "Jag"
      ],
      [
        " med",
        "an"
      ],
      [
        " kö",
        "pa"
      ],
      [
        " arbet",
        "ar"
      ],
      [
        " trä",
        "ff"
      ],
      [
        " må",
        "nader"
      ],
      [
        " snabb",
        "t"
      ],
      [
        " em",
        "ot"
      ],
      [
        "tion",
        "ell"
      ],
      [
        "n",
        "ande"
      ],
      [
        "g",
        "et"
      ],
      [
        "or",
        "er"
      ],
      [
        " väl",
        "ja"
      ],
      [
        "en",
        "ti"
      ],
      [
        " m",
        "yndig"
      ],
      [
        " inve",
        "ster"
      ],
      [
        "o",
        "u"
      ],
      [
        "st",
        "ad"
      ],
      [
        " beh",
        "and"
      ],
      [
        "N",
        "åg"
      ],
      [
        "as",
        "in"
      ],
      [
        " l",
        "iten"
      ],
      [
        "D",
        "å"
      ],
      [
        "del",
        "se"
      ],
      [
        " hå",
        "ller"
      ],
      [
        " v",
        "änner"
      ],
      [
        "or",
        "k"
      ],
      [
        " män",
        "sk"
      ],
      [
        " be",
        "sök"
      ],
      [
        " o",
        "l"
      ],
      [
        " be",
        "g"
      ],
      [
        " sv",
        "årt"
      ],
      [
        " min",
        "ska"
      ],
      [
        "1",
        "3"
      ],
      [
        " till",
        "räck"
      ],
      [
        "l",
        "am"
      ],
      [
        " v",
        "ack"
      ],
      [
        "un",
        "der"
      ],
      [
        " pre",
        "cis"
      ],
      [
        "s",
        "es"
      ],
      [
        "ning",
        "arna"
      ],
      [
        " bl",
        "od"
      ],
      [
        "ic",
        "ka"
      ],
      [
        " hjäl",
        "per"
      ],
      [
        " n",
        "å"
      ],
      [
        " fram",
        "gång"
      ],
      [
        "k",
        "te"
      ],
      [
        "der",
        "n"
      ],
      [
        "v",
        "ik"
      ],
      [
        " p",
        "ri"
      ],
      [
        "en",
        "het"
      ],
      [
        " d",
        "isk"
      ],
      [
        "hå",
        "lla"
      ],
      [
        " förv",
        "än"
      ],
      [
        " er",
        "faren"
      ],
      [
        " för",
        "äl"
      ],
      [
        "a",
        "p"
      ],
      [
        " tim",
        "mar"
      ],
      [
        "i",
        "ta"
      ],
      [
        " hand",
        "lar"
      ],
      [
        "l",
        "ad"
      ],
      [
        "el",
        "ef"
      ],
      [
        " d",
        "jur"
      ],
      [
        "K",
        "omm"
      ],
      [
        " f",
        "okus"
      ],
      [
        "kti",
        "v"
      ],
      [
        "p",
        "ul"
      ],
      [
        " inne",
        "håller"
      ],
      [
        " rikti",
        "gt"
      ],
      [
        "k",
        "ur"
      ],
      [
        " re",
        "ger"
      ],
      [
        " h",
        "al"
      ],
      [
        "ra",
        "t"
      ],
      [
        "in",
        "e"
      ],
      [
        " ytter",
        "ligare"
      ],
      [
        "i",
        "te"
      ],
      [
        " n",
        "äm"
      ],
      [
        " d",
        "ator"
      ],
      [
        "al",
        "en"
      ],
      [
        " sta",
        "d"
      ],
      [
        "M",
        "ånga"
      ],
      [
        "y",
        "ss"
      ],
      [
        "it",
        "s"
      ],
      [
        " on",
        "line"
      ],
      [
        "”",
        ","
      ],
      [
        " p",
        "ubli"
      ],
      [
        " sk",
        "ill"
      ],
      [
        " p",
        "ass"
      ],
      [
        " pro",
        "cess"
      ],
      [
        " a",
        "pp"
      ],
      [
        "el",
        "n"
      ],
      [
        " l",
        "jus"
      ],
      [
        "un",
        "den"
      ],
      [
        "kt",
        "yg"
      ],
      [
        " börj",
        "an"
      ],
      [
        " t",
        "he"
      ],
      [
        " ly",
        "cka"
      ],
      [
        "r",
        "or"
      ],
      [
        " s",
        "ett"
      ],
      [
        " fanta",
        "sti"
      ],
      [
        " gl",
        "ob"
      ],
      [
        " n",
        "e"
      ],
      [
        "ce",
        "p"
      ],
      [
        " ing",
        "a"
      ],
      [
        " för",
        "del"
      ],
      [
        " sådan",
        "a"
      ],
      [
        "2",
        "5"
      ],
      [
        " år",
        "et"
      ],
      [
        " ",
        "/"
      ],
      [
        "em",
        "ber"
      ],
      [
        "ol",
        "u"
      ],
      [
        " till",
        "s"
      ],
      [
        " n",
        "ivå"
      ],
      [
        "ter",
        "as"
      ],
      [
        " funger",
        "ar"
      ],
      [
        " kv",
        "alitet"
      ],
      [
        " pa",
        "ti"
      ],
      [
        " inkl",
        "usive"
      ],
      [
        " de",
        "sig"
      ],
      [
        " bil",
        "d"
      ],
      [
        "s",
        "ra"
      ],
      [
        "öl",
        "ja"
      ],
      [
        "S",
        "am"
      ],
      [
        "v",
        "än"
      ],
      [
        " P",
        "ro"
      ],
      [
        " in",
        "f"
      ],
      [
        "k",
        "än"
      ],
      [
        "ö",
        "v"
      ],
      [
        " följ",
        "ande"
      ],
      [
        "upp",
        "gifter"
      ],
      [
        "\"",
        ","
      ],
      [
        " b",
        "ud"
      ],
      [
        " kän",
        "na"
      ],
      [
        "u",
        "p"
      ],
      [
        "or",
        "den"
      ],
      [
        "an",
        "a"
      ],
      [
        " f",
        "i"
      ],
      [
        " forsk",
        "ning"
      ],
      [
        "i",
        "et"
      ],
      [
        " produ",
        "kt"
      ],
      [
        " a",
        "b"
      ],
      [
        " använd",
        "ning"
      ],
      [
        "f",
        "ik"
      ],
      [
        " b",
        "y"
      ],
      [
        " si",
        "sta"
      ],
      [
        "sn",
        "itt"
      ],
      [
        " förbätt",
        "ra"
      ],
      [
        " ö",
        "v"
      ],
      [
        " an",
        "n"
      ],
      [
        " be",
        "gräns"
      ],
      [
        " lång",
        "t"
      ],
      [
        " an",
        "tal"
      ],
      [
        " off",
        "ent"
      ],
      [
        "o",
        "x"
      ],
      [
        " bety",
        "der"
      ],
      [
        "g",
        "år"
      ],
      [
        " i",
        "denti"
      ],
      [
        " kra",
        "ft"
      ],
      [
        ".",
        ".\n"
      ],
      [
        " u",
        "te"
      ],
      [
        " a",
        "c"
      ],
      [
        " b",
        "orde"
      ],
      [
        " kö",
        "p"
      ],
      [
        " ",
        ":"
      ],
      [
        "b",
        "org"
      ],
      [
        " m",
        "äng"
      ],
      [
        " min",
        "uter"
      ],
      [
        " hel",
        "st"
      ],
      [
        "s",
        "sta"
      ],
      [
        " för",
        "håll"
      ],
      [
        " M",
        "a"
      ],
      [
        " F",
        "r"
      ],
      [
        " använd",
        "as"
      ],
      [
        " vid",
        "are"
      ],
      [
        " ro",
        "ll"
      ],
      [
        " en",
        "s"
      ],
      [
        "rä",
        "d"
      ],
      [
        " per",
        "f"
      ],
      [
        " av",
        "sl"
      ],
      [
        " världen",
        "s"
      ],
      [
        " m",
        "il"
      ],
      [
        "ä",
        "ss"
      ],
      [
        "ö",
        "sa"
      ],
      [
        "ed",
        "er"
      ],
      [
        " f",
        "akt"
      ],
      [
        "ri",
        "t"
      ],
      [
        " åtgär",
        "der"
      ],
      [
        "te",
        "s"
      ],
      [
        " gam",
        "la"
      ],
      [
        " g",
        "illar"
      ],
      [
        " r",
        "en"
      ],
      [
        " verk",
        "samhet"
      ],
      [
        " sam",
        "tidigt"
      ],
      [
        "S",
        "e"
      ],
      [
        "ol",
        "is"
      ],
      [
        "ic",
        "in"
      ],
      [
        " sid",
        "an"
      ],
      [
        "in",
        "t"
      ],
      [
        "han",
        "da"
      ],
      [
        " min",
        "st"
      ],
      [
        " ha",
        "ft"
      ],
      [
        "sp",
        "ek"
      ],
      [
        "j",
        "uk"
      ],
      [
        " an",
        "g"
      ],
      [
        "rukt",
        "ur"
      ],
      [
        "ö",
        "k"
      ],
      [
        "us",
        "e"
      ],
      [
        " interna",
        "tionella"
      ],
      [
        " s",
        "ym"
      ],
      [
        "J",
        "a"
      ],
      [
        " k",
        "rig"
      ],
      [
        " in",
        "b"
      ],
      [
        " an",
        "al"
      ],
      [
        " g",
        "o"
      ],
      [
        " ta",
        "ck"
      ],
      [
        "tion",
        "s"
      ],
      [
        " un",
        "ivers"
      ],
      [
        " vär",
        "de"
      ],
      [
        "l",
        "ade"
      ],
      [
        "sti",
        "tu"
      ],
      [
        " ",
        "äm"
      ],
      [
        " f",
        "as"
      ],
      [
        "b",
        "as"
      ],
      [
        " ma",
        "terial"
      ],
      [
        "u",
        "bb"
      ],
      [
        " sl",
        "äpp"
      ],
      [
        " lä",
        "sa"
      ],
      [
        "ställ",
        "et"
      ],
      [
        " gem",
        "ens"
      ],
      [
        "es",
        "us"
      ],
      [
        "l",
        "en"
      ],
      [
        " f",
        "a"
      ],
      [
        " N",
        "ew"
      ],
      [
        "spr",
        "ung"
      ],
      [
        " till",
        "fäll"
      ],
      [
        "te",
        "m"
      ],
      [
        "ord",
        "ning"
      ],
      [
        "dag",
        "en"
      ],
      [
        "s",
        "ystem"
      ],
      [
        " fr",
        "u"
      ],
      [
        " bör",
        "ja"
      ],
      [
        " fl",
        "ytt"
      ],
      [
        " t",
        "yd"
      ],
      [
        " verk",
        "ar"
      ],
      [
        " hög",
        "re"
      ],
      [
        " vikti",
        "g"
      ],
      [
        "an",
        "na"
      ],
      [
        " m",
        "är"
      ],
      [
        "ission",
        "en"
      ],
      [
        " na",
        "tt"
      ],
      [
        " kontro",
        "ller"
      ],
      [
        "ti",
        "m"
      ],
      [
        "or",
        "e"
      ],
      [
        "av",
        "sett"
      ],
      [
        " Gud",
        "s"
      ],
      [
        " f",
        "att"
      ],
      [
        " någon",
        "sin"
      ],
      [
        " v",
        "em"
      ],
      [
        "g",
        "rupp"
      ],
      [
        " t",
        "ank"
      ],
      [
        " G",
        "o"
      ],
      [
        " D",
        "e"
      ],
      [
        "b",
        "y"
      ],
      [
        "s",
        "ol"
      ],
      [
        "Vi",
        "d"
      ],
      [
        " el",
        "ekt"
      ],
      [
        "y",
        "a"
      ],
      [
        " m",
        "ag"
      ],
      [
        " vis",
        "a"
      ],
      [
        " inne",
        "håll"
      ],
      [
        " gen",
        "er"
      ],
      [
        "änn",
        "ande"
      ],
      [
        " s",
        "itu"
      ],
      [
        " fann",
        "s"
      ],
      [
        " H",
        "er"
      ],
      [
        "d",
        "rar"
      ],
      [
        " g",
        "anska"
      ],
      [
        " an",
        "ställ"
      ],
      [
        "un",
        "n"
      ],
      [
        "itet",
        "en"
      ],
      [
        " rekomm",
        "ender"
      ],
      [
        "l",
        "ats"
      ],
      [
        " en",
        "lighet"
      ],
      [
        " ci",
        "r"
      ],
      [
        " ",
        "%"
      ],
      [
        " bl",
        "og"
      ],
      [
        " k",
        "ar"
      ],
      [
        "n",
        "s"
      ],
      [
        " sk",
        "icka"
      ],
      [
        " bil",
        "der"
      ],
      [
        " till",
        "handa"
      ],
      [
        "e",
        "ster"
      ],
      [
        " de",
        "fin"
      ],
      [
        "Där",
        "för"
      ],
      [
        "a",
        "ter"
      ],
      [
        "k",
        "n"
      ],
      [
        " så",
        "som"
      ],
      [
        " s",
        "ag"
      ],
      [
        " m",
        "ör"
      ],
      [
        " al",
        "ternativ"
      ],
      [
        "st",
        "å"
      ],
      [
        " b",
        "o"
      ],
      [
        " rå",
        "d"
      ],
      [
        "k",
        "v"
      ],
      [
        "…",
        "\n"
      ],
      [
        "sta",
        "ur"
      ],
      [
        " ind",
        "iv"
      ],
      [
        "dig",
        "a"
      ],
      [
        " or",
        "sak"
      ],
      [
        "-",
        "talet"
      ],
      [
        "f",
        "il"
      ],
      [
        " soci",
        "ala"
      ],
      [
        " ",
        "y"
      ],
      [
        " g",
        "ar"
      ],
      [
        " t",
        "em"
      ],
      [
        " upp",
        "n"
      ],
      [
        "mär",
        "k"
      ],
      [
        " ut",
        "man"
      ],
      [
        " genom",
        "för"
      ],
      [
        "f",
        "te"
      ],
      [
        "c",
        "er"
      ],
      [
        " ",
        "Z"
      ],
      [
        "L",
        "äs"
      ],
      [
        "U",
        "pp"
      ],
      [
        " fil",
        "m"
      ],
      [
        " kall",
        "as"
      ],
      [
        "4",
        "0"
      ],
      [
        " s",
        "ven"
      ],
      [
        " läm",
        "na"
      ],
      [
        "a",
        "tionen"
      ],
      [
        "E",
        "ller"
      ],
      [
        "l",
        "o"
      ],
      [
        "na",
        "m"
      ],
      [
        " kun",
        "skap"
      ],
      [
        " kom",
        "b"
      ],
      [
        "t",
        "ing"
      ],
      [
        "tal",
        "s"
      ],
      [
        "R",
        "e"
      ],
      [
        "S",
        "edan"
      ],
      [
        "ru",
        "st"
      ],
      [
        " tän",
        "ka"
      ],
      [
        " fram",
        "för"
      ],
      [
        " k",
        "ol"
      ],
      [
        "u",
        "ti"
      ],
      [
        " allt",
        "så"
      ],
      [
        " hem",
        "ma"
      ],
      [
        " in",
        "v"
      ],
      [
        " S",
        "h"
      ],
      [
        " spel",
        "ar"
      ],
      [
        " histor",
        "ia"
      ],
      [
        "ra",
        "de"
      ],
      [
        " s",
        "ol"
      ],
      [
        "an",
        "sk"
      ],
      [
        " å",
        "l"
      ],
      [
        "k",
        "ter"
      ],
      [
        " regi",
        "str"
      ],
      [
        " dr",
        "öm"
      ],
      [
        "b",
        "i"
      ],
      [
        "i",
        "um"
      ],
      [
        " k",
        "opp"
      ],
      [
        " ex",
        "tra"
      ],
      [
        " t",
        "est"
      ],
      [
        "em",
        "ang"
      ],
      [
        "le",
        "x"
      ],
      [
        " sk",
        "riv"
      ],
      [
        "u",
        "i"
      ],
      [
        " krä",
        "ver"
      ],
      [
        "at",
        "ur"
      ],
      [
        "sö",
        "ka"
      ],
      [
        " l",
        "åg"
      ],
      [
        " re",
        "sa"
      ],
      [
        " utbild",
        "ning"
      ],
      [
        "der",
        "ar"
      ],
      [
        "us",
        "en"
      ],
      [
        "is",
        "m"
      ],
      [
        " j",
        "ord"
      ],
      [
        " l",
        "andet"
      ],
      [
        "gi",
        "ft"
      ],
      [
        "lam",
        "ent"
      ],
      [
        "g",
        "å"
      ],
      [
        " h",
        "otell"
      ],
      [
        " id",
        "é"
      ],
      [
        " h",
        "eller"
      ],
      [
        " med",
        "del"
      ],
      [
        "verk",
        "ar"
      ],
      [
        " musi",
        "k"
      ],
      [
        "ig",
        "h"
      ],
      [
        "am",
        "p"
      ],
      [
        " vil",
        "ja"
      ],
      [
        "m",
        "ark"
      ],
      [
        " l",
        "åt"
      ],
      [
        " krä",
        "vs"
      ],
      [
        " v",
        "å"
      ],
      [
        " utan",
        "för"
      ],
      [
        " trä",
        "d"
      ],
      [
        "s",
        "la"
      ],
      [
        " f",
        "öd"
      ],
      [
        " k",
        "oll"
      ],
      [
        " anv",
        "än"
      ],
      [
        " po",
        "pul"
      ],
      [
        " sta",
        "den"
      ],
      [
        " mark",
        "naden"
      ],
      [
        " ur",
        "sprung"
      ],
      [
        " tillräck",
        "ligt"
      ],
      [
        "in",
        "ci"
      ],
      [
        "um",
        "mer"
      ],
      [
        " arbet",
        "a"
      ],
      [
        "li",
        "en"
      ],
      [
        "ss",
        "ystem"
      ],
      [
        "lighet",
        "en"
      ],
      [
        " kontro",
        "ll"
      ],
      [
        " s",
        "ek"
      ],
      [
        " jäm",
        "för"
      ],
      [
        " i",
        "bland"
      ],
      [
        "p",
        "h"
      ],
      [
        "r",
        "yck"
      ],
      [
        "in",
        "dra"
      ],
      [
        " o",
        "van"
      ],
      [
        " försö",
        "ker"
      ],
      [
        "A",
        "v"
      ],
      [
        " skyd",
        "d"
      ],
      [
        "b",
        "and"
      ],
      [
        "un",
        "dra"
      ],
      [
        " S",
        "k"
      ],
      [
        " h",
        "år"
      ],
      [
        " k",
        "änn"
      ],
      [
        "is",
        "s"
      ],
      [
        " F",
        "a"
      ],
      [
        " kän",
        "sl"
      ],
      [
        "Var",
        "je"
      ],
      [
        "u",
        "lla"
      ],
      [
        " an",
        "led"
      ],
      [
        "Vi",
        "ll"
      ],
      [
        "no",
        "va"
      ],
      [
        "ika",
        "tion"
      ],
      [
        " mo",
        "de"
      ],
      [
        "st",
        "ag"
      ],
      [
        " R",
        "o"
      ],
      [
        "fer",
        "ens"
      ],
      [
        " med",
        "vet"
      ],
      [
        " uppn",
        "å"
      ],
      [
        " tra",
        "di"
      ],
      [
        "S",
        "ka"
      ],
      [
        " s",
        "u"
      ],
      [
        " L",
        "e"
      ],
      [
        " utveck",
        "la"
      ],
      [
        "A",
        "r"
      ],
      [
        " arbet",
        "s"
      ],
      [
        " rapp",
        "or"
      ],
      [
        "ätt",
        "a"
      ],
      [
        "t",
        "re"
      ],
      [
        "K",
        "on"
      ],
      [
        " ä",
        "ta"
      ],
      [
        " mo",
        "bil"
      ],
      [
        " vi",
        "de"
      ],
      [
        "er",
        "i"
      ],
      [
        " kon",
        "kur"
      ],
      [
        " områ",
        "den"
      ],
      [
        "d",
        "or"
      ],
      [
        " rätt",
        "igheter"
      ],
      [
        " vill",
        "e"
      ],
      [
        " A",
        "l"
      ],
      [
        " ma",
        "j"
      ],
      [
        "kom",
        "st"
      ],
      [
        "l",
        "ut"
      ],
      [
        "ti",
        "gt"
      ],
      [
        " pre",
        "sen"
      ],
      [
        " in",
        "sta"
      ],
      [
        " änd",
        "å"
      ],
      [
        " h",
        "und"
      ],
      [
        "sm",
        "edel"
      ],
      [
        " k",
        "o"
      ],
      [
        "pp",
        "a"
      ],
      [
        "ch",
        "en"
      ],
      [
        "ska",
        "per"
      ],
      [
        "s",
        "kt"
      ],
      [
        " k",
        "yr"
      ],
      [
        " in",
        "s"
      ],
      [
        "G",
        "enom"
      ],
      [
        " r",
        "äk"
      ],
      [
        "6",
        "0"
      ],
      [
        " ut",
        "om"
      ],
      [
        "pl",
        "an"
      ],
      [
        "ion",
        "en"
      ],
      [
        "v",
        "ice"
      ],
      [
        " l",
        "o"
      ],
      [
        " vill",
        "kor"
      ],
      [
        " te",
        "ck"
      ],
      [
        " väg",
        "en"
      ],
      [
        "2",
        "4"
      ],
      [
        "V",
        "em"
      ],
      [
        "var",
        "a"
      ],
      [
        " C",
        "o"
      ],
      [
        "Dess",
        "utom"
      ],
      [
        " läm",
        "p"
      ],
      [
        "q",
        "u"
      ],
      [
        " le",
        "va"
      ],
      [
        " M",
        "o"
      ],
      [
        " fortsätt",
        "a"
      ],
      [
        "ti",
        "ga"
      ],
      [
        " år",
        "en"
      ],
      [
        "e",
        "ver"
      ],
      [
        " le",
        "v"
      ],
      [
        " äl",
        "ska"
      ],
      [
        " M",
        "an"
      ],
      [
        " spel",
        "are"
      ],
      [
        " vet",
        "enskap"
      ],
      [
        " fortsätt",
        "er"
      ],
      [
        " sag",
        "t"
      ],
      [
        " prof",
        "ess"
      ],
      [
        "st",
        "ri"
      ],
      [
        " eff",
        "ek"
      ],
      [
        " S",
        "tor"
      ],
      [
        "rå",
        "det"
      ],
      [
        " ih",
        "åg"
      ],
      [
        " upp",
        "lev"
      ],
      [
        " gr",
        "än"
      ],
      [
        "ska",
        "tt"
      ],
      [
        "b",
        "l"
      ],
      [
        "ul",
        "d"
      ],
      [
        "öj",
        "d"
      ],
      [
        "In",
        "gen"
      ],
      [
        " van",
        "liga"
      ],
      [
        " sn",
        "art"
      ],
      [
        " an",
        "t"
      ],
      [
        "inn",
        "e"
      ],
      [
        " kv",
        "äll"
      ],
      [
        " si",
        "da"
      ],
      [
        " sl",
        "ag"
      ],
      [
        "f",
        "ier"
      ],
      [
        " f",
        "ölja"
      ],
      [
        " h",
        "andel"
      ],
      [
        " skri",
        "ver"
      ],
      [
        " pra",
        "kti"
      ],
      [
        " funk",
        "tion"
      ],
      [
        " d",
        "ok"
      ],
      [
        " tr",
        "än"
      ],
      [
        "tig",
        "het"
      ],
      [
        "h",
        "er"
      ],
      [
        " ex",
        "per"
      ],
      [
        "i",
        "ch"
      ],
      [
        "olog",
        "i"
      ],
      [
        "b",
        "u"
      ],
      [
        " b",
        "äst"
      ],
      [
        " n",
        "orm"
      ],
      [
        " med",
        "icin"
      ],
      [
        "m",
        "al"
      ],
      [
        " d",
        "ju"
      ],
      [
        "org",
        "on"
      ],
      [
        " slut",
        "et"
      ],
      [
        "og",
        "le"
      ],
      [
        " skri",
        "va"
      ],
      [
        " läk",
        "em"
      ],
      [
        " kul",
        "tur"
      ],
      [
        " all",
        "var"
      ],
      [
        " läg",
        "ga"
      ],
      [
        "ent",
        "ligen"
      ],
      [
        " öpp",
        "na"
      ],
      [
        "c",
        "era"
      ],
      [
        "ö",
        "cker"
      ],
      [
        "ur",
        "ser"
      ],
      [
        "si",
        "kti"
      ],
      [
        "rä",
        "ff"
      ],
      [
        "t",
        "an"
      ],
      [
        " ve",
        "cka"
      ],
      [
        " amerik",
        "anska"
      ],
      [
        "v",
        "äm"
      ],
      [
        " d",
        "ör"
      ],
      [
        " tän",
        "ker"
      ],
      [
        "d",
        "ant"
      ],
      [
        " hitt",
        "ar"
      ],
      [
        " t",
        "elef"
      ],
      [
        " inkl",
        "u"
      ],
      [
        "b",
        "e"
      ],
      [
        "å",
        "ter"
      ],
      [
        " för",
        "klar"
      ],
      [
        " st",
        "and"
      ],
      [
        " reg",
        "el"
      ],
      [
        " m",
        "edel"
      ],
      [
        " sp",
        "råk"
      ],
      [
        "ling",
        "ar"
      ],
      [
        " ",
        "ers"
      ],
      [
        " f",
        "ys"
      ],
      [
        " k",
        "n"
      ],
      [
        " fr",
        "ed"
      ],
      [
        "pro",
        "gram"
      ],
      [
        " ",
        ","
      ],
      [
        "anc",
        "er"
      ],
      [
        "st",
        "ans"
      ],
      [
        " ly",
        "ss"
      ],
      [
        "v",
        "äl"
      ],
      [
        "na",
        "pp"
      ],
      [
        " red",
        "o"
      ],
      [
        " för",
        "en"
      ],
      [
        " på",
        "verka"
      ],
      [
        "k",
        "ra"
      ],
      [
        "l",
        "äg"
      ],
      [
        "l",
        "ös"
      ],
      [
        " eg",
        "et"
      ],
      [
        " g",
        "är"
      ],
      [
        " komm",
        "it"
      ],
      [
        "om",
        "en"
      ],
      [
        "L",
        "åt"
      ],
      [
        " kl",
        "ass"
      ],
      [
        " aktiv",
        "itet"
      ],
      [
        "ag",
        "e"
      ],
      [
        "m",
        "are"
      ],
      [
        "or",
        "s"
      ],
      [
        "og",
        "raf"
      ],
      [
        "e",
        "y"
      ],
      [
        " ",
        "X"
      ],
      [
        "ö",
        "ll"
      ],
      [
        " e",
        "vent"
      ],
      [
        " ver",
        "ktyg"
      ],
      [
        "t",
        "jän"
      ],
      [
        " D",
        "en"
      ],
      [
        "yd",
        "d"
      ],
      [
        " gl",
        "öm"
      ],
      [
        "pl",
        "atser"
      ],
      [
        " in",
        "nova"
      ],
      [
        " in",
        "du"
      ],
      [
        "st",
        "år"
      ],
      [
        " ti",
        "tt"
      ],
      [
        "E",
        "R"
      ],
      [
        " kl",
        "ar"
      ],
      [
        " a",
        "kt"
      ],
      [
        "re",
        "pp"
      ],
      [
        " e",
        "v"
      ],
      [
        "k",
        "la"
      ],
      [
        " a",
        "p"
      ],
      [
        "se",
        "ende"
      ],
      [
        " sl",
        "uta"
      ],
      [
        " änd",
        "ra"
      ],
      [
        "!",
        "!\n"
      ],
      [
        "et",
        "ter"
      ],
      [
        " D",
        "u"
      ],
      [
        "19",
        "8"
      ],
      [
        " hopp",
        "as"
      ],
      [
        " s",
        "äl"
      ],
      [
        "el",
        "a"
      ],
      [
        " c",
        "o"
      ],
      [
        "gör",
        "a"
      ],
      [
        "ering",
        "en"
      ],
      [
        "v",
        "in"
      ],
      [
        " A",
        "d"
      ],
      [
        "y",
        "cka"
      ],
      [
        "vis",
        "a"
      ],
      [
        "Fr",
        "ån"
      ],
      [
        "ä",
        "cka"
      ],
      [
        "ör",
        "j"
      ],
      [
        " gra",
        "tis"
      ],
      [
        "ö",
        "t"
      ],
      [
        " för",
        "sök"
      ],
      [
        "ag",
        "a"
      ],
      [
        " ut",
        "för"
      ],
      [
        " s",
        "an"
      ],
      [
        " förs",
        "v"
      ],
      [
        "p",
        "ass"
      ],
      [
        " kropp",
        "en"
      ],
      [
        "vä",
        "xt"
      ],
      [
        "min",
        "ist"
      ],
      [
        "b",
        "ud"
      ],
      [
        "g",
        "ra"
      ],
      [
        "ö",
        "p"
      ],
      [
        " bak",
        "om"
      ],
      [
        " ska",
        "tt"
      ],
      [
        " konta",
        "kt"
      ],
      [
        " pl",
        "atser"
      ],
      [
        "te",
        "gi"
      ],
      [
        " väl",
        "jer"
      ],
      [
        " häl",
        "sa"
      ],
      [
        " b",
        "rott"
      ],
      [
        " upp",
        "da"
      ],
      [
        "n",
        "är"
      ],
      [
        " g",
        "av"
      ],
      [
        "ot",
        "enti"
      ],
      [
        " F",
        "in"
      ],
      [
        "e",
        "c"
      ],
      [
        "p",
        "o"
      ],
      [
        "em",
        "ent"
      ],
      [
        " använd",
        "are"
      ],
      [
        "En",
        "ligt"
      ],
      [
        " år",
        "s"
      ],
      [
        " ekonom",
        "iska"
      ],
      [
        " ",
        "...\n"
      ],
      [
        " fär",
        "g"
      ],
      [
        "i",
        "da"
      ],
      [
        " p",
        "s"
      ],
      [
        "för",
        "etag"
      ],
      [
        " må",
        "nad"
      ],
      [
        " behö",
        "vs"
      ],
      [
        "ef",
        "är"
      ],
      [
        " byg",
        "ga"
      ],
      [
        " områ",
        "det"
      ],
      [
        "h",
        "am"
      ],
      [
        " J",
        "esus"
      ],
      [
        " erfaren",
        "het"
      ],
      [
        "f",
        "ölj"
      ],
      [
        " ver",
        "sion"
      ],
      [
        " ty",
        "per"
      ],
      [
        " v",
        "ux"
      ],
      [
        "on",
        "t"
      ],
      [
        " ål",
        "der"
      ],
      [
        " ",
        "Ö"
      ],
      [
        "i",
        "ti"
      ],
      [
        "r",
        "än"
      ],
      [
        "s",
        "ed"
      ],
      [
        " eg",
        "entligen"
      ],
      [
        " medlem",
        "ssta"
      ],
      [
        "T",
        "a"
      ],
      [
        "k",
        "ring"
      ],
      [
        "an",
        "da"
      ],
      [
        "sti",
        "ft"
      ],
      [
        "br",
        "uk"
      ],
      [
        "ol",
        "m"
      ],
      [
        "ott",
        "er"
      ],
      [
        "äk",
        "ring"
      ],
      [
        " uppt",
        "äck"
      ],
      [
        " defin",
        "i"
      ],
      [
        "d",
        "de"
      ],
      [
        "f",
        "ull"
      ],
      [
        "o",
        "ci"
      ],
      [
        " s",
        "h"
      ],
      [
        "äk",
        "ra"
      ],
      [
        " tjän",
        "st"
      ],
      [
        "ri",
        "p"
      ],
      [
        " f",
        "av"
      ],
      [
        " ber",
        "oende"
      ],
      [
        " säker",
        "t"
      ],
      [
        " J",
        "oh"
      ],
      [
        "T",
        "ack"
      ],
      [
        "e",
        "fter"
      ],
      [
        " b",
        "olag"
      ],
      [
        "le",
        "ver"
      ],
      [
        "ar",
        "der"
      ],
      [
        " p",
        "unkt"
      ],
      [
        " g",
        "ott"
      ],
      [
        " rel",
        "ig"
      ],
      [
        "m",
        "i"
      ],
      [
        "l",
        "y"
      ],
      [
        "f",
        "ika"
      ],
      [
        " ri",
        "kt"
      ],
      [
        "oll",
        "ar"
      ],
      [
        "e",
        "a"
      ],
      [
        " p",
        "as"
      ],
      [
        "li",
        "t"
      ],
      [
        " o",
        "ro"
      ],
      [
        "or",
        "it"
      ],
      [
        " sk",
        "yl"
      ],
      [
        "del",
        "ser"
      ],
      [
        "ö",
        "g"
      ],
      [
        "ka",
        "s"
      ],
      [
        "e",
        "ck"
      ],
      [
        " kv",
        "inna"
      ],
      [
        "i",
        "es"
      ],
      [
        "k",
        "in"
      ],
      [
        "y",
        "sk"
      ],
      [
        " d",
        "ist"
      ],
      [
        " m",
        "or"
      ],
      [
        " för",
        "n"
      ],
      [
        " i",
        "stället"
      ],
      [
        " fin",
        "nas"
      ],
      [
        " förs",
        "älj"
      ],
      [
        "E",
        "N"
      ],
      [
        "kl",
        "art"
      ],
      [
        " tillgäng",
        "liga"
      ],
      [
        "p",
        "on"
      ],
      [
        " över",
        "t"
      ],
      [
        " äl",
        "dre"
      ],
      [
        " gå",
        "tt"
      ],
      [
        " erb",
        "jud"
      ],
      [
        " s",
        "ju"
      ],
      [
        "g",
        "era"
      ],
      [
        " följ",
        "er"
      ],
      [
        " m",
        "ä"
      ],
      [
        " j",
        "orden"
      ],
      [
        "sk",
        "ning"
      ],
      [
        " bet",
        "ala"
      ],
      [
        "K",
        "om"
      ],
      [
        "i",
        "p"
      ],
      [
        " na",
        "tionella"
      ],
      [
        "ju",
        "ta"
      ],
      [
        "l",
        "at"
      ],
      [
        "ok",
        "ra"
      ],
      [
        "on",
        "om"
      ],
      [
        "si",
        "dent"
      ],
      [
        "E",
        "G"
      ],
      [
        "i",
        "an"
      ],
      [
        "arna",
        "s"
      ],
      [
        " ch",
        "ans"
      ],
      [
        "ling",
        "en"
      ],
      [
        "utom",
        "a"
      ],
      [
        " för",
        "ordning"
      ],
      [
        " st",
        "äng"
      ],
      [
        "u",
        "sk"
      ],
      [
        " go",
        "da"
      ],
      [
        " gar",
        "an"
      ],
      [
        " h",
        "am"
      ],
      [
        " m",
        "amma"
      ],
      [
        "st",
        "ra"
      ],
      [
        " st",
        "ark"
      ],
      [
        " sö",
        "k"
      ],
      [
        " desig",
        "n"
      ],
      [
        " läkem",
        "edel"
      ],
      [
        "re",
        "a"
      ],
      [
        "un",
        "i"
      ],
      [
        "sam",
        "t"
      ],
      [
        " först",
        "år"
      ],
      [
        " fråg",
        "an"
      ],
      [
        " f",
        "isk"
      ],
      [
        "är",
        "t"
      ],
      [
        " t",
        "j"
      ],
      [
        "pi",
        "tal"
      ],
      [
        "sra",
        "el"
      ],
      [
        "I",
        "dag"
      ],
      [
        " a",
        "m"
      ],
      [
        " upp",
        "märk"
      ],
      [
        "ta",
        "la"
      ],
      [
        " när",
        "heten"
      ],
      [
        "ställ",
        "ning"
      ],
      [
        " veck",
        "an"
      ],
      [
        " par",
        "ti"
      ],
      [
        "bo",
        "ok"
      ],
      [
        " en",
        "gel"
      ],
      [
        " lå",
        "ter"
      ],
      [
        "l",
        "änd"
      ],
      [
        " stu",
        "den"
      ],
      [
        " läk",
        "are"
      ],
      [
        "i",
        "ci"
      ],
      [
        " S",
        "a"
      ],
      [
        " rö",
        "st"
      ],
      [
        " skyd",
        "da"
      ],
      [
        " d",
        "o"
      ],
      [
        " bet",
        "yd"
      ],
      [
        " kra",
        "v"
      ],
      [
        "asin",
        "o"
      ],
      [
        " ",
        "Q"
      ],
      [
        "i",
        "z"
      ],
      [
        " ti",
        "o"
      ],
      [
        "i",
        "der"
      ],
      [
        " c",
        "a"
      ],
      [
        " b",
        "en"
      ],
      [
        " b",
        "ri"
      ],
      [
        "ent",
        "ing"
      ],
      [
        " av",
        "tal"
      ],
      [
        "lägg",
        "ande"
      ],
      [
        "r",
        "om"
      ],
      [
        " b",
        "an"
      ],
      [
        "f",
        "ta"
      ],
      [
        " tro",
        "ts"
      ],
      [
        "N",
        "i"
      ],
      [
        " s",
        "ann"
      ],
      [
        " k",
        "ring"
      ],
      [
        "te",
        "ck"
      ],
      [
        " person",
        "uppgifter"
      ],
      [
        "m",
        "ent"
      ],
      [
        " sk",
        "e"
      ],
      [
        " se",
        "p"
      ],
      [
        " för",
        "ber"
      ],
      [
        "li",
        "v"
      ],
      [
        "ce",
        "pt"
      ],
      [
        " till",
        "verk"
      ],
      [
        " j",
        "a"
      ],
      [
        " del",
        "tag"
      ],
      [
        "k",
        "ort"
      ],
      [
        " hal",
        "v"
      ],
      [
        "i",
        "b"
      ],
      [
        " in",
        "sp"
      ],
      [
        " häl",
        "so"
      ],
      [
        "v",
        "å"
      ],
      [
        " det",
        "al"
      ],
      [
        " vis",
        "s"
      ],
      [
        " viktiga",
        "ste"
      ],
      [
        "-p",
        "ost"
      ],
      [
        " univers",
        "itet"
      ],
      [
        "u",
        "e"
      ],
      [
        " m",
        "ar"
      ],
      [
        " igen",
        "om"
      ],
      [
        "b",
        "eh"
      ],
      [
        "u",
        "la"
      ],
      [
        " p",
        "otenti"
      ],
      [
        "ri",
        "är"
      ],
      [
        "a",
        "pp"
      ],
      [
        " T",
        "h"
      ],
      [
        " kli",
        "mat"
      ],
      [
        "kt",
        "or"
      ],
      [
        " kl",
        "art"
      ],
      [
        " sv",
        "år"
      ],
      [
        " vi",
        "kt"
      ],
      [
        " br",
        "uk"
      ],
      [
        "Ä",
        "n"
      ],
      [
        " för",
        "fatt"
      ],
      [
        "al",
        "d"
      ],
      [
        "g",
        "ag"
      ],
      [
        "n",
        "ytt"
      ],
      [
        "v",
        "ika"
      ],
      [
        " t",
        "opp"
      ],
      [
        "pro",
        "duk"
      ],
      [
        " loka",
        "la"
      ],
      [
        " vå",
        "ld"
      ],
      [
        "m",
        "t"
      ],
      [
        " g",
        "ud"
      ],
      [
        " br",
        "ed"
      ],
      [
        " ra",
        "d"
      ],
      [
        " ac",
        "cep"
      ],
      [
        " v",
        "a"
      ],
      [
        "tion",
        "al"
      ],
      [
        " ska",
        "par"
      ],
      [
        "rig",
        "a"
      ],
      [
        " framti",
        "den"
      ],
      [
        "An",
        "vänd"
      ],
      [
        " till",
        "stånd"
      ],
      [
        "2",
        "1"
      ],
      [
        "T",
        "ro"
      ],
      [
        " f",
        "ord"
      ],
      [
        " h",
        "im"
      ],
      [
        " l",
        "og"
      ],
      [
        "ut",
        "veck"
      ],
      [
        " kun",
        "d"
      ],
      [
        "all",
        "t"
      ],
      [
        "ör",
        "en"
      ],
      [
        " säker",
        "ställa"
      ],
      [
        " k",
        "änd"
      ],
      [
        "as",
        "h"
      ],
      [
        " E",
        "x"
      ],
      [
        "p",
        "å"
      ],
      [
        " publi",
        "c"
      ],
      [
        "st",
        "ol"
      ],
      [
        " i",
        "från"
      ],
      [
        " cir",
        "ka"
      ],
      [
        " ti",
        "tta"
      ],
      [
        "ow",
        "s"
      ],
      [
        " m",
        "on"
      ],
      [
        "ön",
        "ster"
      ],
      [
        "ser",
        "ver"
      ],
      [
        " P",
        "ar"
      ],
      [
        " gam",
        "mal"
      ],
      [
        " upp",
        "h"
      ],
      [
        "erade",
        "s"
      ],
      [
        " p",
        "riv"
      ],
      [
        " st",
        "art"
      ],
      [
        " del",
        "en"
      ],
      [
        " företag",
        "et"
      ],
      [
        "Kan",
        "ske"
      ],
      [
        " försö",
        "ka"
      ],
      [
        " sy",
        "fte"
      ],
      [
        " perf",
        "ekt"
      ],
      [
        "land",
        "s"
      ],
      [
        " marknad",
        "sför"
      ],
      [
        " nät",
        "verk"
      ],
      [
        " del",
        "a"
      ],
      [
        "re",
        "kt"
      ],
      [
        "ak",
        "et"
      ],
      [
        "og",
        "en"
      ],
      [
        " d",
        "at"
      ],
      [
        " l",
        "äs"
      ],
      [
        " veck",
        "or"
      ],
      [
        "Vis",
        "sa"
      ],
      [
        "é",
        "n"
      ],
      [
        " Euro",
        "peiska"
      ],
      [
        "j",
        "ut"
      ],
      [
        " pr",
        "inci"
      ],
      [
        " l",
        "ad"
      ],
      [
        "al",
        "er"
      ],
      [
        "Vil",
        "ka"
      ],
      [
        "ri",
        "kt"
      ],
      [
        " kr",
        "ed"
      ],
      [
        "i",
        "tal"
      ],
      [
        " på",
        "verkar"
      ],
      [
        " männ",
        "iska"
      ],
      [
        "u",
        "ell"
      ],
      [
        " behö",
        "va"
      ],
      [
        " lik",
        "nande"
      ],
      [
        " ps",
        "yk"
      ],
      [
        " n",
        "or"
      ],
      [
        "ss",
        "k"
      ],
      [
        "19",
        "7"
      ],
      [
        "verk",
        "an"
      ],
      [
        " områ",
        "de"
      ],
      [
        " nödvänd",
        "igt"
      ],
      [
        ".",
        "ex"
      ],
      [
        "r",
        "ym"
      ],
      [
        "re",
        "sen"
      ],
      [
        " om",
        "kring"
      ],
      [
        " han",
        "tera"
      ],
      [
        " or",
        "sa"
      ],
      [
        " sätt",
        "et"
      ],
      [
        " part",
        "ner"
      ],
      [
        "T",
        "he"
      ],
      [
        " en",
        "het"
      ],
      [
        "tion",
        "ellt"
      ],
      [
        " ska",
        "da"
      ],
      [
        "c",
        "om"
      ],
      [
        " för",
        "es"
      ],
      [
        " sven",
        "ska"
      ],
      [
        " ut",
        "mär"
      ],
      [
        " K",
        "ina"
      ],
      [
        " ma",
        "kt"
      ],
      [
        " reg",
        "l"
      ],
      [
        " poli",
        "tiska"
      ],
      [
        "äl",
        "t"
      ],
      [
        "äm",
        "pa"
      ],
      [
        " sam",
        "band"
      ],
      [
        "ce",
        "book"
      ],
      [
        " tag",
        "it"
      ],
      [
        " ",
        "ram"
      ],
      [
        ";",
        "\n"
      ],
      [
        "m",
        "as"
      ],
      [
        " an",
        "ti"
      ],
      [
        " be",
        "vis"
      ],
      [
        " lu",
        "ft"
      ],
      [
        "y",
        "lla"
      ],
      [
        " b",
        "är"
      ],
      [
        " känn",
        "s"
      ],
      [
        "h",
        "o"
      ],
      [
        " grund",
        "läggande"
      ],
      [
        " så",
        "dant"
      ],
      [
        " samarbet",
        "e"
      ],
      [
        "h",
        "olm"
      ],
      [
        "p",
        "as"
      ],
      [
        "em",
        "ål"
      ],
      [
        " ka",
        "lla"
      ],
      [
        " vin",
        "na"
      ],
      [
        " und",
        "vika"
      ],
      [
        " föräl",
        "drar"
      ],
      [
        "m",
        "o"
      ],
      [
        " be",
        "gär"
      ],
      [
        " räd",
        "d"
      ],
      [
        "ä",
        "kt"
      ],
      [
        "ent",
        "ar"
      ],
      [
        "le",
        "va"
      ],
      [
        " skill",
        "nad"
      ],
      [
        "T",
        "änk"
      ],
      [
        "tion",
        "erna"
      ],
      [
        "si",
        "da"
      ],
      [
        " lå",
        "ta"
      ],
      [
        "ag",
        "n"
      ],
      [
        " under",
        "sök"
      ],
      [
        "V",
        "år"
      ],
      [
        "ti",
        "ker"
      ],
      [
        " ung",
        "efär"
      ],
      [
        "c",
        "t"
      ],
      [
        "k",
        "ning"
      ],
      [
        "m",
        "elser"
      ],
      [
        "u",
        "ellt"
      ],
      [
        " komm",
        "issionen"
      ],
      [
        " led",
        "er"
      ],
      [
        " hög",
        "sta"
      ],
      [
        " mänsk",
        "liga"
      ],
      [
        " led",
        "a"
      ],
      [
        " hjär",
        "ta"
      ],
      [
        " kons",
        "um"
      ],
      [
        " ber",
        "äk"
      ],
      [
        "o",
        "den"
      ],
      [
        "ti",
        "t"
      ],
      [
        " B",
        "ar"
      ],
      [
        " H",
        "ar"
      ],
      [
        "b",
        "und"
      ],
      [
        " a",
        "utoma"
      ],
      [
        "j",
        "en"
      ],
      [
        " en",
        "gag"
      ],
      [
        " t",
        "u"
      ],
      [
        "al",
        "ans"
      ],
      [
        " be",
        "skriv"
      ],
      [
        " dö",
        "da"
      ],
      [
        " sk",
        "är"
      ],
      [
        " best",
        "år"
      ],
      [
        " erbju",
        "da"
      ],
      [
        "olu",
        "tion"
      ],
      [
        " gär",
        "na"
      ],
      [
        " för",
        "slag"
      ],
      [
        " sätt",
        "a"
      ],
      [
        " rel",
        "a"
      ],
      [
        " ",
        "Om"
      ],
      [
        " s",
        "att"
      ],
      [
        " l",
        "in"
      ],
      [
        "ek",
        "omm"
      ],
      [
        " eff",
        "ekt"
      ],
      [
        "staur",
        "an"
      ],
      [
        "en",
        "ta"
      ],
      [
        " o",
        "s"
      ],
      [
        " Go",
        "ogle"
      ],
      [
        " när",
        "varande"
      ],
      [
        " J",
        "a"
      ],
      [
        " o",
        "avsett"
      ],
      [
        " h",
        "äm"
      ],
      [
        " k",
        "al"
      ],
      [
        " l",
        "ek"
      ],
      [
        " sk",
        "er"
      ],
      [
        "änn",
        "isk"
      ],
      [
        "ster",
        "na"
      ],
      [
        " t",
        "or"
      ],
      [
        "um",
        "är"
      ],
      [
        " an",
        "talet"
      ],
      [
        "sk",
        "ol"
      ],
      [
        " m",
        "ass"
      ],
      [
        "l",
        "et"
      ],
      [
[...]
