#version: 0.2
ന ്
ക ്
് ‍
ത ്
ന് ന
്  
ക് ക
. 

ി ല
െ  
് ട
ത് ത
  പ
ു ം
ി യ
ി  
പ ്
  ക
മ ാ
ു ന്ന
് യ
് ച
  സ
  വ
ട ്ട
ി ര
ച ്ച
  ന
് ര
ി ക്ക
ങ ്
പ് പ
ാ ണ
് റ
് .

ം  
ി ച്ച
ണ ്ട
ങ് ങ
ാ യ
  മ
  അ
ാ ര
ാ ന
ി ന്
ു ക
് ല
ാണ ് 
ി ന
ു ട
  ത
ു .

റ ്റ
ി ക
െ യ
  എ
സ ്
ി ൽ
ങ്ങ ള
ക് ക്
വ ര
ത് ര
് ള
ള ്ള
വ ി
 പ ്ര
ട ു
മാ യ
ഞ ്
ര ു
ിര ുന്ന
ഞ് ഞ
  ആ
മ ്
ന് ന്
ര ാ
ക് ഷ
ുട െ 
ാ ല
െ ന്ന
റ െ 
  ഇ
സ ് 
ു ള്ള
  ച
േ ര
ില ്ല
ത്ത ില
് ‌
ുന്ന ത
ു ണ്ട
ദ േ
പ് ര
ോ ട
ല ്ല
 വ ി
പ്പ െ
ദ ്
ി ട്ട
ിന് റെ 
യ ില
ക ര
ുക ള
വ ാ
  ഉ
  ബ
 സ ്
സ് ഥ
ു റ
  ജ
ി പ്പ
ു മ
  ശ
ങ് ക
ത ിര
ു വ
 പ റ
െ ന്ന്
മാ ണ
മ് പ
ുക യ
ിക ള
  ഒ
ാ വ
ി വ
  ര
ാ ക്ക
േ ഷ
ത് ത്
ദേ ശ
ോ ഗ
ന് ത്ര
ായ ിരുന്ന
 സ ം
ത്ത ിയ
ര ി
  ല
ഗ ്ര
ം .

 എ ന്ന
മായ ി 
 ന ട
െ ടു
മ ു
എ ന്ന
ന് ത
ത് യ
മ് മ
ി ന്ന
ിയ ില
ന് ദ
മാ ന
സ ം
ി .

ിക്ക ുന്ന
ും .

ി ട
്റ ്റ
്  ക
്യ ാ
  മാ
ായ ി 
റ ിയ
ോ ള
ാ ട
ത ി
െ  ക
സ്ഥ ാന
 മ ു
 പ ോ
്  പ
സ ി
ം  ക
ക് ത
ൂ ര
ണ ്
ോ ണ
െ  പ
സ ്റ്റ
ക്ക ാര
അ ത
ോ ട്ട
ാ ം
  യ
ച െയ
ൂ ട
ാ ധ
രാ ജ
ന് ധ
ക ള
േ ത
 പറ ഞ്ഞ
ദ ്യ
ാ ർ
ിക്ക ുന്നത
പ്പെ ട്ട
ിച്ച ത
ാ ൻ
ു ര
ത ിയ
േ സ
  ദ
മ യ
സ ര
ി  ന
ഭ ാ
ന്ദ ്ര
ങ്ങ ൾ
ു പ
ക് ര
ക ു
ത്ത െ 
  റ
ി ത
ന് റ
്യ മ
ിച്ച ് 
ഇ ത
ി ഞ്ഞ
ദ് ധ
ീ കര
  ഗ
ഡ ് 
ടു ത്ത
വ ർ
് ത
ത്ത ിൽ
യ ്
ഞ ്ച
ര ണ
ാ ള
ൊ ണ്ട
േ ക്ക്
 വ ര
് ,
ാ ത
ം  ന
ത്ത ിന്
ിട്ട ുണ്ട
ാ മ
േ ണ്ട
 ച െയ
ി  പ
ദേ ഹ
 ഒ രു
ിക്ക ാന
ി ജ
െ ങ്ക
ില െ 
ം ഗ
ില്ല .

േ ന്ദ്ര
ാര ്യ
ി  ക
  ഡ
ല ീ
ഷ ്ട
ിയ ുടെ 
ാ ക
ം  പ
ണ് ണ
 ത ിര
്  ന
 സ് ഥ
  ട
ി എ
ിക്ക ുകയ
ദ് ദേഹ
മാ ര
ത ു
ത ല
2 0
ം  വ
ീ യ
 സ് വ
മാ ക്ക
ോ ര
യ ുടെ 
മാണ ് 
  ഭ
ഴ ിഞ്ഞ
 ന ിന്ന
ത്ത ിന്റെ 
ങ്ങള ില
െ പ
ഞ്ഞ െടു
ായിരുന്ന ു
ണ മ
ത്ത ിന
ു മായി 
വ ീ
ന് ത്യ
 പറ യ
ിന് ന്
ി ം
ം ,
റ്റ ് 
  ഹ
െങ്ക ില
  ഫ
ശ ്യ
ോ ധ
െന്ന ാണ് 
േര ള
െ  ന
ശ ്
ത ി 
പ്പെ ട
െയ ാണ് 
ജ യ
്‍ ,
 ആ ര
െ തിര
ഭാ ഗ
ന് റെ 
 പ േര
ഞ്ഞെടു പ്പ
ിജ െപ
ം  അ
െ  അ
്യ ക്ത
ൂ പ
േ യ
  ഏ
 ന ിന്ന്
ൂ ട്ട
  രാ
ി ക്ക്
ത ീ
സ ിന
ഒ രു
 ക ൊ
ർ ക്ക
ആ ര
േ ാ
ാര ണ
മ ര
 ന ിര
ി  അ
ത ുട
ബ ന്ധ
ാ ത്ത
ാ ൽ
ോ ഴ
 പ രി
ിയ മ
വ േ
സ് വ
യ ിൽ
ത് ഥ
ീ വ
ധ ാന
േ ക്ക
 വ ീ
 ന ി
േ ഖ
ല ിയ
്യാ പ
ന ങ്ങള
 സ ാധ
 ക ു
വി ട
ഭ വ
ന ില
ചെയ ്യ
ി  സ
ോ ദ
വ ില
ത്ത ര
  ഓ
ി .
ന്ന െ 
രാജ ്യ
ുക ൾ
ഗ്ര സ് 
ന ു
വ ശ്യ
ി റ്റ
ിയ ത
ോ പ
ി ,
ാ ഹ
േസ മയ
െ ത്ത
ാ ഴ
്  അ
്യമ ന്ത്ര
ോ ല
  ഈ
അത േസമയ
ട ക്ക
 അ ദ്ദേഹ
ത് വ
ത ിന
ു ല
എന്ന ാല
്  സ
ി സ
യ ു
ി മ
ട ിയ
 ന േത
ാ പ
പ ക്ഷ
സ ില
ീ റ്റ
ഖ ്യമന്ത്ര
ോ ക
 അ വ
ലീ സ് 
ാ ട്ട
 വ െ
ൊ രു
ിവ സ
ിച്ച ിരുന്ന
ി  എ
 ക ോട
ം  ത
ി  വ
ചെയ ്ത
ാ റ
ി പ
ം  ഉ
 ക ോ
ാ ദ
ഷ്ട ്ര
ധ ിക
ം  നട
 ന ില
ക് ട
െ  സ
0 0
മ ന്ത്ര
 ചെയ ്ത
മ െ
ക്ക ുന്ന
ുകള ില
യ ോഗ
ല്ല ാ
ൂ ർ
 സ ര
 ശ ്ര
ൽ ക
ച ര
ഷ ്യ
 ഉ ണ്ട
ി  ജ
ക്ര മ
 സം സ്ഥാന
ന് യ
 ശ േഷ
ത ിക
്‍ .

ാ സ
ും ,
ോട െ 
മ ൂ
പ്പെ ടുത്ത
 പ്ര തി
യ് ക്ക്
െ ട്ട
്യക്ത മാക്ക
 ക ോണ
വ േഷ
ങ്ങ ന
മ ി
യ് ക്ക
 ത ുട
മ േ
ോ ർ
ോട ് 
പ ാട
രു മാന
 പ ു
ൂ ടു
ക ൊ
ിച്ച ു
ട ന
ക ാര
ൈ ന
ഡ ിയ
െ ത്തിയ
 സ െ
ുമ െന്ന
 ക ാര്യ
ജ ന
ഡ ിഎ
്യ ത
ജ ില്ല
ീ പ
ോ ൾ
 മ ന്ത്ര
ുറ ത്ത
േ റ്റ
ീ ഷ
ണ് ഡ
ുവ ന
വി ഡ് 
ോ യ
പ്പ ോള
ഫ ് 
ാ ശ
. .
പ ുര
 പറയ ുന്ന
 സം ഘ
ാക്ക ള
 ക േന്ദ്ര
ശ ോധ
ധ ്യ
ം  സ
ട ്ര
 പ ിന്ന
ിന െ 
 പ ൊ
ിര ിക്ക
െടു ത്ത
ുള്ള ത
ക്ഷ ണ
സം സ്ഥാന
ട്ട ് 
ം  എ
 ര ണ്ട
ശ ്ര
ിര ിക്കുന്നത
പ ര
ീ ര
ന ി
) ,
ശ ന
ങ്ങ ിയ
 ജ ില്ല
 ഇ ട
ാണ്  ക
ന് വേഷ
ാഴ ്ച
ഗ ് 
യ ാള
ഴ ിയ
ിക ൾ
ന്ന ത
 മാ ത്ര
ത് സര
ം  ആ
 തിര ഞ്ഞെടുപ്പ
 ല ഭ
ക് യ
യ ര
 ന ിയമ
 അ ന
 യ ു
ാണ്  ഇ
 ദ ിവസ
ു മായ
ന ിര
റ ഞ്ഞ
വാ സ
വര ുടെ 
 സ്വ ദേശ
വാ ദ
യില െ 
 ക ുറ
 ത െ
വ ണ
 ബ ിജെപ
  ഷ
 ഇ ന്ത്യ
ശ ുപ
ിക്കുകയ ാണ
ുക ൊണ്ട
ബ ിജെപ
 വ ലിയ
  (
ം  ഇ
ത് സ
െ ല്ല
ാ ബ
ന്ത പുര
 ചെയ ്യ
 ന ല
ൃ ത്വ
ശുപ ത്ര
ി റ
ഭ ി
 അ ത
ര ണ്ട
േ ജ
ല ഭ
റ്റ വ
പ ട
ങ്ങള ുടെ 
മ ുണ്ട
ഗ്ര സ
ൂ റ
ർ ത്ത
വർ ത്ത
ി  പ്ര
ാണ്  പ
കു പ്പ
ു വര
്  വ
ുവന ന്തപുര
ൊ ഴ
െ ക്ക
 ന േര
ി  ത
ാ മ്പ
 അ റിയ
 ക േരള
 മ ുന്ന
്  ത
 വ ൈ
െതിര െ 
ൂ ല
േ ട
ം  മ
 എ ന്ന്
ടു ക്ക
സ് ത
 ര ൂപ
ോ ഷ
ുമ െന്ന്
 ആ വശ്യ
ണമ െന്ന
ില്ല െന്ന
 ല ക്ഷ
ീകര ിച്ച
ി ത്ര
ഖ ്യാപ
ു ക്ക
  ഞ
ു ന
ി  (
ിര ു
െ  ത
തുട ര
വി ധ
 പോ ല
ഷ്ട്ര ീയ
 ക ണ്ട
ം 

 വ േണ്ട
 ക ൂട
ര ൂപ
ഇ ന്ത്യ
ര ിക്ക
ു മ്പ
മാ റ
േഖ ല
ണ്ഡ ല
ാ ത്ര
ീ ന
 ക േസ
മ ല
ീ ക്ക
ാഹ ചര
് വ
ോഗ ്യ
രു ത
 പ ങ്ക
ന്വേഷ ണ
1 9
ാണ്  അ
 ജ ന
ുന്ന ത്
മ ുള്ള
പ്പ ോഴ
ിപ്പ ോര
ന േത
ൊ പ്പ
 ത ീ
ം ഭ
െ ല
ക്ഷ േ
ള ള
  രാജ്യ
ത ിയില
ക ഴിഞ്ഞ
പ്പെ ടു
ിയ ായ
ക ിയ
ിയ ിൽ
 ക ൊണ്ട
 മു ഖ്യമന്ത്ര
ൂടു തല
ത മാന
് .
ി ൻ
വി ജയ
െടു ക്ക
ാഹചര ്യ
േഷ ന
ഷ ്
 ഉ പ
ി  മ
ത്തിയ ത
ൊ ക്ക
 എ ത്ത
 ത ന്നെ 
1 0
സ ഭ
 സ മയ
സ്റ്റ ് 
ക ാര്യ
െ  വ
 സ ു
 സം ഭവ
ണ ിക്ക
 ആ യ
 ര ോഗ
ര ോഗ
ണ ക്ക
ി വര
? 

20 1
ദ് ദേശ
 വ േ
ത ൽ
ിക്ക ാൻ
 വ ില
പ െ
 ആ ണ
ി  ആ
 നട ത്ത
ി ത്ത
 പ്ര വര
ാർ ട്ട
േ ക്ഷ
ുക .

ില േക്ക്
 പ ാര
 സ ീറ്റ
ം  ച
ബ ാധ
ോ ക്ക
ാ ം.

 വ ോട്ട
 ത ന്ന
 ശ്ര മ
ക ട
 ക ഴിഞ്ഞ
ു ത
െ  ആ
ഷ േ
ഇ ത്
ുകയ ാണ
വാ ഹ
ു ഴ
മാ ത്ര
ന്റ ് 
വ സ
െയ ുള്ള
വ ന
മാ റ്റ
ം ബ
 ശ തമാന
ിച്ച ിട്ടുണ്ട
സി ഡ
 സ്ഥ ാന
ഫ ീ
ർ ഷ
ൃ ത
ള ര
പ്ര തി
 വി ജയ
ക ൾ
േ ർ
ോ മ
 സ ഹ
ക ന
വി ത
ക േരള
 വ ന്ന
ന ട
 മ ൂ
ാന ുള്ള
ബ ി
  ധ
ം  ചെയ്യ
േ ട്ട
എന്ന ാൽ
 തീ രുമാന
െ ച്ച
വ ധ
ാക്ക ിയ
ൊ ന്ന
ശോധ ന
 ക ാല
ഗ ്
ജ ്
ച ന
ം  എന്ന
 ഇ ത
എ ല
ം  പ്ര
ന്ത ര
ൈ ക്ക
ർ ച്ച
തിര ുവനന്തപുര
ഷേ ധ
മായ ിരുന്ന
 സ ാഹചര്യ
ിര ിക്കുകയാണ
 പ ര
ങ്ങള ിൽ
ം :
ു തിയ
ുട െയ
വി ഡ
്  മ
ി ണ
ദ് ദ
ികള ുടെ 
റ പ്പ
െ  എ
 ക ഴിയ
ത്ത ന
സ് സ
 സ്ഥ ിര
ുക ാര
ോ സ
െ  മ
യ ്യാ
റ യ
ുന്ന ുണ്ട
  -
ർക്ക ാർ
ം പ
ക്ര ട്ട
ാ ന്ധ
ോ സ് 
മ ല്ല
ജ ി
മാ ക
ഖ ്യ
പ്പ ോൾ
 വ ്യക്തമാക്ക
്‍ 

ുന്നത ിന
ോ ൺ
ോ ദ്യ
മു ഖ്യമന്ത്ര
ഷ യ
ീ ം
 പ െ
കള ില
ന ിയ
 വ യ
  രാജ
ാട ് 
കു ട്ട
 സ ുര
 സാധ ്യത
തീ ക്ഷ
ൂ ണ
ട ി
ിപ്പ ിച്ച
േണ്ട ത
ഡിഎ ഫ
ജ ീവ
 വ കുപ്പ
 പോ ക
 ക ാണ
റ െയ
യ്യാ റ
 മാ റ്റ
 പ ുറത്ത
ധ ്യമ
 വ ാ
 സ മ
സ ഭാ
ുകയ ായിരുന്ന
തു ണ
ാ റ്റ
ായ ത
,  
ോ ഡ
 മ ത്സര
ക ാശ
 ക ാരണ
 എ ല്ലാ
േ ക
1 5
റ ില
പ രി
 പ രാ
 കോ ൺ
  ഗ്ര
 മ റ്റ
20 2
 മ ല
ണമ െന്ന്
ാണ െന്ന
ാ ജ
ിന് തുണ
ട്ട ില
 മ േഖല
ാണ്  സ
ധാന മന്ത്ര
ീ ട
ന േര
 അ പ
 പോ ലീസ് 
സ ാര
ഹ ുല
ഗ ര
ന ിക്ക്
ല ക്ഷ
ബ ്ര
ോ ഹ
ി :
ത ികള
സം ഘ
ില്ല െന്ന്
ൊഴ ില
 ക ുട
1 2
  ഐ
സ ്ല
ാണ െന്ന്
ത്തില െ 
ിര ിക്കുന്ന
ിക ി
,  ക
ശ ്ച
ി  ഉ
തിര ഞ്ഞെടുപ്പ
ികി ത്സ
 നട പട
ീ വിത
 സ ൗ
ഷ ന
മു ഖ
  ക്
്  ആ
ുമായി  ബന്ധ
വാ ക്ക
െ ഡ
ോ റ
ത്യ േക
മ ന
ദ ്യാ
ാത െ 
േ ല
സ്വ ദേശ
േ ന
 ട ്ര
മാ ർ
 ആ ശുപത്ര
ി  വി
ഇ ട
ധ്യ ക്ഷ
 പോ യ
ലീ സ
ള ുകള
ോഴ ിക്ക
ി  പറഞ്ഞ
ര ംഗ
 അ ത്
ം ന ല
ം നട ത്ത
ുവ െന്ന
 പ ദ്ധ
യ ്യ
 ക ര
ിപ്പ ോർ
ിട്ട ില്ല.

െ റ
 അ ധിക
ക ാല
ക്കാര ്യ
ീ ല
 പ ല
 പ ാല
 ശ ക്ത
ഷ് ണ
 പിന്ന ാല
ബ ്
യ ാണ് 
ർ ന്ന
ൂ പ്പ
 ഗ ാന്ധ
ിക്ക ല
ി  ച
ഏ റ്റവ
 മ ണ്ഡല
 പ ുറ
 ന ൽക
 മ ന
 സ്ഥ ാപ
്  എ
 വി വര
3 0
 ആര ോപ
ത ി ന
ാ ഥ
െ ക ുറ
ഞ്ച ായ
സ് ത്ര
ദ ു
 ഒ ന്ന
 ച ില
 സ ർ
 ക ൂടുതല
വ ല
ര ിച്ച
യ ായ
് പ റഞ്ഞ
ത ൃ
1 1
ബ ു
ല ോ
ന്യ ൂ
ം  വി
്  പ്ര
ക െ 
 ക ട
പ േര
്  ച
ു ,
ഹ ാര
ു ളള
ണ്ണ ൂര
ുമ െന്നാണ് 
ക ൂട
 തിര ിച്ച
ട ങ്ങ
ണ ാ
 യ ോഗ
 വ ്യക്ത
വി ള
ഇത ിന
ഗ ണ
 നേത ാവ
 രാ ഷ്ട്രീയ
ശ് വാസ
പ്പെടു ത്തിയ
ശ ക്ത
സ ു
 അ വര
ം  പറഞ്ഞ
ദേശ ീയ
ം ഉ ണ്ട
എ ല്ലാ
എ സ് 
ധ ന
ഘ ട്ട
െ .
ഭ രണ
 ച ിത്ര
ക ോണ
ക ല
എ സ്
ം  മു
 സ മ്പ
 നി ർ
ത്ത വണ
ഹ ര
സി പ
 ത ല
ത്ത ിക
 മ റ
 വി ഭാഗ
ു ട്ട
ി  എന്ന
ിക്കുന്ന ത്
ി ജ െ പ
 ബ ന്ധ
ുമായി ബന്ധ പ്പെട്ട
സം ഭവ
2 4
 പു തിയ
ാ ഗ
യ ുണ്ട
 ക ൈ
 വ ്യ
വ െ
ം  ചെയ്ത
5 0
 സെ ക്രട്ട
കു ള
പ്പെട ുന്ന
പ്ര വര
ല ോക
ുവ ദ
 നേത ാക്കള
ായ ിരിക്ക
 അ ഭി
 അ ംഗ
പ്ര ായ
ൈ ല
രാ ള
ിയ െ 
 നട ത്തിയ
ആ ദ്യ
 മാ സ
ി  വര
മ ർ
 ആ ദ്യ
മ ത
 നിന്ന ുള്ള
1 4
മെ ന്റ
ി ക്
 ര ീ
ു .
ീ ക്ഷ
 ക മ്മ
യ റ
 ഉ ള
ീ ക്ഷണ
 അ ന്വേഷണ
അത ിന
 പ്ര വർത്ത
ിണ റ
ശ യ
മ്പ ന
ു ത്ത
 ക ള
 ത യ്യാറ
സ ന
േ ള
സ ഹ
ി  ബ
െ ാ
വ ിലെ 
 ക ാര
ി 

ഴ ്ച
ച ാരണ
ഫ ല
 മു തല
ിയ ാണ് 
ന ായ
 ഗ ു
െങ്ക ിൽ
ങ്ങൾ ക്ക്
 ഇ ന്ന്
 വി ഷയ
 ത ൃ
ാ ങ്ക
 അ നു
ഗ്ര ഹ
ിക്ക ാര
 യ ാത്ര
ഴ ്
വി ട്ട
ഇ ന്ന്
 സാധ ിക്ക
 ക ോള
പ്പെട്ട ത
 എ ന്ത
ില ൂട
്  എന്ന
ം  ലഭ
ാട ക
ഇ വര
 എന്ന ിവ
.. .

േ ടിയ
ക്രമ ണ
്യ ൂ
േ സ് 
ോട െയാണ് 
ൂ ണ്ട
 ന ീക്ക
 ഭ രണ
1 8
പ ിന്ന
ിക ച്ച
നേത ൃത്വ
ിച്ച ് ക
 മു ന
 ഇ ല്ല
ീകര ണ
മ ുന്ന
് ന ട
ാണ ്ട
ിപ്പ ിക്ക
ത്ത കര
ന് ത്
ടി സ്ഥാന
 ക ൂട്ട
 എ ം
ര ോ
ഡിയ ോ
ിച്ച ത്
 മ ോദ
 ഇ ത്
ാമ്പ ത്തിക
ീ സ
ശ ദ
ന്ന ു
 സ ിപ
ച്ച ് 
റ ിപ്പോര
ിൽ  
എ സ
 മ ണിക്ക
ു മാണ് 
1 3
വ ് 
ൂ ക്ഷ
 റ ിപ്പോര
ി ങ
 അ ട
 എന്ന ാണ് 
ീ സ് 
 ഉ റപ്പ
ക ോ
 പ്ര തിക
ൗ ര
 പ ണ
ഉ പ
വ ൈ
ത്തില ുള്ള
 സ ്റ്റ
തീ രുമാന
റ ല
ജില്ല യില
ക ൂ
! 

ം .
 പ്രതി ഷേധ
 പറയ ുന്നത
 പ്ര ഖ്യാപ
 വ ാര
ധ ര
ത്ഥ ികള
ക്ട ര
ഇ ന
റ ോണ
മ േര
ോ ബ
് :
  ന്
ിരുന്ന ു
ഗ ു
 ഒ ഴ
 കു ട്ട
 വ ഴ
ഉ ണ്ട
 പ്ര ദേശ
 ര ംഗ
ുമ്പ ോള
 പ്ര സിഡ
യ െ 
 ഉ ദ്യ
2 5
ക ർ
ിക്കുന്ന ുണ്ട
 ല ോക
 ആര ോഗ്യ
ഹ ൃ
റിയ ിച്ച
 പ ിട
 ച ര
ൂണ്ട ിക്ക
എ ണ്ണ
ത്തില േക്ക്
ശ് ശ
 സ ിന
 സ് ത്ര
 എ ത്തിയ
 പരി ശോധന
ട്ട ിക
പ്പ ുഴ
സ് പ
പ്ര തിക
ൃ ഷ്ണ
ാ സ് 
 ത ര
ുകള ുടെ 
 എന്ന ിവര
ി  രൂപ
 വ ന
ികള ില
 ഇ റ
ശ ങ്ക
ത്തില ാണ് 
 സ മര
ത ന്ത്ര
ിയ ിരുന്ന
ിട െ 
സി റ്റ
്  ബ
 എ ന
ക്ക ാന
പ്ര ദേശ
 വ ർഷ
എ ന
അ ത്
ിണറ ായി 
മേര ിക്ക
വര െ 
ി ന േത
ാല യ
1 6
ന ിയമ
 തുട ര
ക്ഷേ പ
യ ാണ
 സ്ഥ ല
ആ വശ്യ
ഒ ന്ന
ിന്  ശേഷ
1 7
ും 

ിക്കാന ുള്ള
 ഏ റ്റവ
 ഉ ള്ള
 മു മ്പ
ി ഫ
ീ ഡിയ
ുന്നത ിന്
ോട്ട യ
 ച േര
പ്പ ുറ
് 

ീകര ിക്ക
യില േക്ക്
 നട ന്ന
 ജില്ല ാ
ക ോട
േ ദ
ുണ്ട ായ
വ ുമായി 
െയ ്
ഗ ോപ
രാ ഷ്ട്രീയ
ഷ്യ ല
 ന ാല
വേ ശ
ശ േഷ
 ഉ ത്തര
ഭ ാവ
ര ക്ഷ
തിയ ുടെ 
 ജ ോല
ധ ാ
 ല ീ
ക്ക ു
അതേസമയ ം 
 സം ബന്ധ
ിന്  പിന്നാല
 ഉപ യോഗ
 പ ാർട്ട
ആര ോപ
ാ ൾ
 നേത ൃത്വ
ൗ ണ
 പ്ര ശ
ൂടു തൽ
ച ില
  ഖ
അ ദ്ദേഹ
 ത മ്മ
ിയ ന്ത്ര
ണാ കുള
ദ ്ര
ഹ മ്മ
െ ,
 മാ ധ്യമ
് മ
  ഭാഗ
റ ണാകുള
ീഷ ണ
ദ ില്ല
ി ഷ
 അ ഞ്ച
 പ്രതി പക്ഷ
പ ൊ
ഭാ ഷ
 ത ോ
ര ഞ്ഞെടുപ്പ
ഓ ഫീ
ിട്ട ുള്ളത
ാ പ്പ
യ ിരു
ി  ഇ
ക േന്ദ്ര
ിക്ക റ്റ
ഭ ൂ
ില ീപ
ഹമ്മ ദ
 ആവശ്യ പ്പെട്ട
ഞ ാന
 ന ീ
ുണ്ട ായിരുന്ന
 ജ ീവ
ജ ീവിത
വി വര
 വി ള
െക്ക ുറ
ഭ ്യ
ിയില െ 
് -
ൃ ത്യ
ിക്കുന്നത ിന
ീകര ിച്ചത
 കാര്യ ങ്ങള
ുകള ിൽ
ം  സ്ഥിര
ത് മ
 സ ർക്കാർ
 അ റ
ി ള
 ഇ ന
ിവ സം
വ ിൽ
 വി ദ്യാ
സ് വാ
 വ ളര
 ത ാര
ില ുള്ള
 സംഘ ടന
തിര ോധ
ബ ൈ
 പ്ര ത്യേക
 നില പാട
ൂ ചന
ത്ത ോട
 സ ി
ര ിയ
 കൊ ല്ല
ത െ
 ച ോദ്യ
ിന്റെ  പ
ത്ത േക്ക്
മ ോ
ക്ക ുന്നത
മാ സ
പ്ര ധാന
ിക്ക ണ
ം  വര
് പ
ക്ക െതിര
മ റ്റ
ത്ര യ
 വി മാന
വസ ാന
ാർ ത്ഥ
 വി ധ
 ക ല
ിന്റെ  അ
ാമ സ
ല പ്പുഴ
സ ്യ
പ്പ റ
സ െ
 ച ികിത്സ
 ഭ ൂ
സ്ഥ ര
 ഉ ൾ
സ ന്ധ
 അ ടക്ക
 ഉ യര
സ ാന
 സെക്രട്ട റ
ി  ല
ിയില േക്ക്
വിട െ 
എ ന്ത
 മൂ ന്ന്
ുക ൂല
 പ്ര ധാനമന്ത്ര
അത ുകൊണ്ട
 സ് വാ
ൊഴില ാള
ി സി
േ സ്
 ഇ തു
ത ാര
 മ ഴ
ൈക്ക ോട
 ത ട
ോ ം
ന്ദ ര
സ ർ
സ്ഥ ിര
 ത ുറ
േഷ ൻ
 എ തിര
മ െന്ന
ം  രൂപ
എ ം
ന ാട്ട
ശ്ര മ
 അദ്ദേഹ ം പറഞ്ഞ
 സിപ ിഎ
 തിരഞ്ഞെടുപ്പ ില
ോ വ
ീ മ
ജ് ജ
 തുട ങ്ങിയ
യിരു ത്ത
4 0
െത്തിയ ത
 കു റ്റ
യ ാത്ര
ള ി
ക ുന്ന
മ്പ ര
ാക്ക ാന
വി ധാന
ി ഴ
ി മാര
ൗ ണ്ട
 വീ ട
 സഹ ായ
ഭ ്യാ
ല ില
 മാ ര
ഹ ു
മൂ ന്ന്
ജില്ല ാ
ദ ാന
 മ ീഡിയ
 പ്ര തീക്ഷ
 അറിയ ിച്ച
പ ാര
 തെ ള
മു ന
പ ോ
ില്ല ാത്ത
ആര ോഗ്യ
വ ാര
ിപ്പോർ ട്ട
സ ൈ
ിക സന
മായ ി പ
ി സ് 
മാണ െന്ന
2 3
 മ ണ
വ ്വ
ന യ
20 0
് ക ു
ജ നങ്ങള
ാ ഷ്ട്ര
പ് ല
ിന് ദ
പ ല
ത്  
ന ം 
രാജ യ
െയ ാണ
ം ന ൽക
ഗ്  ബ
മൂ ഹ
ു പ്പ
ക ുട
 എന്ന ത
 മു ൻ
 സ മ്മ
നേര ത്തെ 
 എന്ന ി
ശ ാ
ിയ ാണ
ന ക്കാര
ന്ന യ
 പ ഞ്ചായ
പ ണ
 ആ ള
തിയ ിൽ
രാ ഹുല
േഷ ് 
വ ശ
പ്പ ള്ള
ത്ത െ പ
മ രണ
ർ ത്ഥ
ൂ ഹ
2 2
ോ ജ
 ച ോദ
വ ്
്ട ്ര
ത്ത െ ക
ത യ
ട്ട ിയ
 ബ ി
ഭ്യാ സ
ബ ്ല
ര േന്ദ്ര
ദ ിവസ
ത്ത ാവ
ിണറായി  വിജയ
ത ര
 മ രണ
  ക്യ
വർ ക്ക്
ിരു ദ്ധ
ം ത
പ േക്ഷ
ായ ക
 മ ര
ി  ഡ
മാ റിയ
ുക്ക ള
 ദ ിവസം
 അ യ
 കോൺ ഗ്രസ് 
ി വാക്ക
 വീ ണ്ട
ഡിഎ ഫ് 
ണ ങ്ങള
ശ ൂര
ി  മു
 സുര ക്ഷ
ിൽ  നിന്ന്
്  ഇ
സ ാ
േ റ്റ് 
 കൊ വിഡ് 
ന വ
ആ ർ
പ്പ ില
വ യ
ു മാണ
ിക്കുകയ ായിരുന്ന
എ ൽ
എ ഫ
ർ ന്ന്
 ജ യ
ക്ക ിയ
ത്തില ൂട
ഇത ോടെ 
 മണിക്ക ൂറ
 സ്ത്ര ീ
ക് തി
ം  സ്വദേശ
ന ാട
 ന േട്ട
 രാ ഹുല
ത ായി 
ഒ ഴ
 അവ സര
ക േസ
ിൽ  നിന്ന
ി  യ
 ആര ംഭ
ത്ത ു
 കോ വിഡ് 
 വര െ 
പ ാത
പ്ര വർത്ത
ീ ഴ
 ക െ
വ ിന
ൻ ്റ
പ്പെട ുന്നത
 വ ്യാപ
അ ന
രാ ശ
സിപ ിഎ
 ഇ വര
 എ ല
 കോട ി രൂപ
ധാ കര
  ഘട്ട
ച ിത്ര
വ ോട്ട
ങ്ങൾ ക്ക
  ക്ര
ങ് ക്
ങ്ങന െ 
 കോള േജ
്  വര
ുവ ന്ന
ം  ബ
സ്ഥാന ാര
ഉ ത്തര
ിന്  
ൈ ം
ല്ല .

ന്ത ോഷ
,  പ
 പ േർ
അ ടുത്ത
ദ ിന
ൈ സ
ദ്യ ാര
ഗ ത
 രാ ശ
ിച്ച ് പ
ിക്ക ൽ
 ഞ ാന
െ ക ണ്ട
. .

മ റ
ാവ സ്ഥ
മായിരുന്ന ു
ക്ക ര
 സം സാര
ന്ന ല
ത്ത ോള
പെ ട
ോഴിക്ക ോട് 
ൻ സ
ി  സ്വദേശ
 പ ിന്തുണ
 പൊ ലീസ് 
ൊ ല
ിട്ട ുള്ള
ോ ?

ദേ വ
വി വിധ
 ന ിയന്ത്ര
 വ ാഹ
 അ ര
ണ ാടക
ത്തന ംത
ത്തനംത ിട്ട
2 6
 അ തി
ിരുന്ന ത
സം ഗ
 അവ സാന
 ശ്ര ദ്ധ
ോ ഡ് 
 പ ഠ
 അ ല
പ ാല
2 8
ാ ഷ
െ റിയ
ാണ്  ഈ
ിൻ ്റ
  മാന
പ ുതിയ
വ ലിയ
 ഓ ഫീ
 ന മ്മ
 വെ ള്ള
 അപ േക്ഷ
2 7
 സമ ീപ
 വെ ച്ച
ുവ െന്ന്
 സാഹചര്യ ത്തില
ി ബ
സ് സില
 ന ഷ്ട
 ബ ി ജെ പ
 പ്ര കാര
 പ്ര വേശ
ഇ ത്തര
ക ാന
 ന ല്ല
തിന ാല
 ത വണ
 ലഭ ിക്ക
സ ാധ
 മ റ്റ് 
ആര ംഭ
ിച്ച ാല
ക്കാര ിന്റെ 
ൂ .

മ് മാന
വ ്യാപ
മെ ഡ
് പ േര
 രീ തിയില
 ക് ല
കൂ ള
്‍ :
പ്ര തീക്ഷ
ഇത ില
ുട േയ
 ത ാല
 അന ുവദ
മ െന്ന്
ിയ ായി 
അ വ
ീ ഡ
ിന ി (
 വൈ റ
 മറ ുപ
ത ാന
ി  ട
ഇത ുവര
 മു തൽ
ൂണ്ടിക്ക ാട്ട
െ  ച
ാക്ക ൾ
 ര േഖ
ബ് ദ
ക്ക ള
 പ ൂര
ര േഖ
ം  ഏ
 ഒ രാള
 -  
ഡ ്
നു ഷ്യ
്‌ .

ൊ ട്ട
ചെയ്ത ത
ി ർ
ഘ ോഷ
ീ ത
 കോട തി 
സ ുര
 തിര ുവനന്തപുര
ിപ്പ ിച്ചത
ുമ്പ ോൾ
പ്പ ് 
 അ വരുടെ 
ന േ
വാ റ
മ ത്സര
00 0
 അ ഭ
രംഗ ത്ത
ബ ര
ി സ്റ്റ
 മ ത
 ശക്ത മായ
-  
ീ റ്റ് 
മൂ ല
 സ് വര
ക ുറ
റിയ ിപ്പ
 പരി പാട
 ഫ ല
2 1
അ വര
സം സാര
ക്ക്  
മാണ െന്ന്
 ബ ്ര
ോ ഷ്യല
വ ്യ
ഗ്ര സിന
ി ന ിര
ുമ തല
പ ൂര
ഗ്രസ ിന്
 ന യ
 മ ികച്ച
ച ്
ം  ഒരു
 പങ്ക െടുത്ത
 നിര ീക്ഷണ
ൃ ഷ്ട
ന ത്തില
രി ത്ര
ന ാട് 
െ ന
മാ ധ്യമ
ങ്ങ ിയത
ുള്ള വര
ാ ഫ
ച ന്ദ്ര
് ന ല
ു 

 ഇ ര
 എ സ് 
 ബ ു
മൂ ന്ന
മ ീപ
യ ർ
 അ ല്ല
 പ്ര ധാന
 ആ റ
ഉ ദ്യ
 ന ഗര
ന ങ്ങൾ
് ത്
 ഇ ത്തര
ഡ ി
 അ ധ്യക്ഷ
ച് ഛ
  '
പ് റ്റ
ോഴിക്ക ോട
എ ഇ
ര ള
െ ന ട
ാവ ് 
നി ർ
വീ ട
ദ വ
ജ് ഞ
സ ്ര
ാമ ൂഹ
 സ്വ ന്ത
രി പക്ഷ
സംസ്ഥാന ത്ത്
 സം വിധാന
വാ ള
പക്ഷ േ
ം ;
ില ാണ് 
ിക്ക ുമെന്ന
നില വില
ത ന്നെ 
കര ണ
 ക ിട്ട
 വ ർ
ക്ഷേ ത്ര
ന ല
ക ിയത
ാ  
കര ്യ
പിന്ന ീട
ിപ ത്യ
ുന്ന വര
 അധിക ാര
ന ാല
 അ ടുത്ത
ക്ക ാല
ബ ല
ിന് റ
 മു സ്ല
ക്കാര ിന
ക്ട ർ
 രണ്ട ് 
ഗ സ്ഥര
 ബ ാധ
സം ബന്ധ
ക് ല
മാണ ് ക
 മ െഡ
 പോ സ്റ്റ
 മ ോ
ിച്ച ിരിക്കുന്നത
 നില യില
ത ില
െ .

വ ഴ
ാക്ക ിയത
ര ായ
ശ്ര ീ
6 0
 സ ാമ്പത്തിക
 നിര വധ
റ ാ
് പ ോ
രാ ധ
പ്രതിക രണ
ശ്ശ േര
റ സ്റ്റ് 
സ ിന്
 ക ൂടുതൽ
ധിക ാര
 ത ന്റെ 
കൊ ച്ച
ിക്ക േണ്ട
ാത്ത ല
 ഉണ്ട ാക
 പ ്ല
ുമ ുണ്ട
ത ുപ
തിര ിച്ച
 എ റണാകുള
 ആരോപ ണ
ിയ ിട്ടുണ്ട
സ്ത ാവ
പ് യ
ോ ക്ക്
പ് രാ
രേന്ദ്ര  മോദ
 പോ ലീസ
പ്രതി പക്ഷ
 സ ാ
 മൂ ന്ന
 ഗ്ര ൂപ്പ
ത്ത ാന
ർ  
ുകയ ാണ് 
പ ടിയ
ി മാ
േ ഴ
ോ  എന്ന
വീ ട്ട
ൃ ശ്യ
ിപ്പ ിക്കാന
റ ിഞ്ഞ
 വി ട്ട
മ ിന
 ക രു
 വി ദേശ
ൊക്ക െ 
 ഉണ്ട ായിരുന്ന
 മ ഹ
 ജ നങ്ങള
ിട്ട ് 
ശ്ച ാത്തല
ംബ ര
ൃ ത്ത
ം ക ണ്ട
ക ൈ
ിത ാ
തുട ങ്ങിയ
 സമ്പ ർക്ക
2 9
െ റ്റ
ഖ ില
 ക മ്പന
ം ക ൂട
 കേരള ത്തില
തിന ി
 ലഭ ിച്ച
വി റ്റ
 നേര ത്തെ 
ി ഐ
്‍ -
ക്ട റ
െയ ിന
വാ ക
കു മാര
 പ റ്റ
 വ ാർ
 ത ാഴ
ഇ രു
 തെ രഞ്ഞെടുപ്പ
 യ ുവ
മ്മ ന
 സമയ ത്ത്
ആ ശുപത്ര
ന ാഥ
ു രു
ശ്ര ദ്ധ
മെ ന്റ് 
 ശ ര
ശക്ത മായ
ു തി 
സ ി 
ക് സി
െ ക ാണ
ിക്ക ുക.

 പരി ശോധ
െടു ത്ത്
ം നട ത്തിയ
െ  പ്ര
ായി  ക
പ്പെട െയുള്ള
േന്ദ്ര ന
രിക്ക ല
ിപ്പോർ ട്ട് 
വീ ട്ടില
 സംസ്ഥാന ത്ത്
ാ ഞ്ച
ച രണ
ഞ് ജ
 വീ ഡിയോ
 സ്ഥാന ാര
 എ ല്ല
ു  എന്ന
 പ േ
ത്തിന ുള്ള
 പ ുര
െയ ില
 പറഞ്ഞ ത
ി ന ല
ണ യ
യ ോ
ാ ത്
ൈ വ
3 5
ം ക ുറ
ഉ ള്ള
റ ിന
ോദ ര
 പുറ ത്ത്
ജി സ്റ്റ
 ത ീര
ിക ാര
 ര ക്ഷ
 ക ണക്ക
 ച ർച്ച
ക്ക ുമ
 മല യാള
 ആ ളുകള
ൂര ്യ
ണ ിയ
 കമ്മ ിറ്റ
വി വാഹ
 സം ശയ
 ഡ ി എ
ം പ േര
ി -
 ആ ശങ്ക
രി ത
ി ക്ഷ
ർ ജ
ൃത ദേഹ
മ്പ ള
 ജ ീവിത
റ ുകള
വ കുപ്പ
കള ുടെ 
ിക്കുന്ന വര
തീ ര
ിപ്പ ിക്കുന്നത
 പൊ തു
് പ റയ
ച ാര
ധ ീന
ം  മാത്ര
ില്ല െന്നാണ് 
 പ്രതി സന്ധ
ിത്ത ല
ീ ധര
ക്ക ാർ
ിയ ങ്ക
 അവ കാശ
ഇ ക്കാര്യ
 ഇ രു
കള ിൽ
ഞ്ച ാബ
സ ിന്റെ 
ന് മാര
ഭാഗ മായി 
ച ോദ്യ
യ ർന്ന
സ ൗ
ോ ക്
സ് തു
  .

1 00
യ ുള്ള
െ ന ിര
ച യ
െന്ന ിത്തല
ശ് വര
േക്ക ുള്ള
ഗ്രസ ിന്റെ 
െ കുറ ിച്ച് 
4 5
ിട ിച്ച
ാട ന
 ജില്ല യില
 ഉണ്ട ായ
ോ ഭ
 ഇ പ്പോള
 ഡ ി
ചെയ്യ ുന്ന
ത ന്റെ 
 വീ ത
് ക്ക്
 ഡ ോ
 ലീ ഗ
 പ കര
ാധ ിപത്യ
ക്ക െതിരെ 
ി മയ
് ക മ്മ
 തെ റ്റ
ശ ു
ഞ ാൻ
ജ ോല
  "
യു ഡിഎഫ
ദ യ
 സിന ിമ
ിക്കുകയ ാണ് 
ശ് വസ
തുട ർന്ന്
ഇ ത്തവണ
ണ ല
ിപ്പ ിക്കുന്ന
സ്വ ന്ത
രാ ട്ട
മല യാള
 കേസ ില
് ;
്‍ .
ിക്ക ൊണ്ട
 മാത്ര മാണ് 
ായ ി പ
്  വി
) 

ച േര
ാ ഗ്ര
ന ീ
ിന് ത
ുകള ാണ് 
ിച്ച ുള്ള
ങ്ങള ാണ് 
 ഇ തിന
വീ ണ്ട
ിട യില
േ റെ 
 വി ശദ
ഭ്യ ന്തര
പാത ക
 ആ ഗ്രഹ
സ്ഥ ാപ
ം ക ൊണ്ട
ത്  എന്ന
 പ ൂ
 അ തിന
ഓ രോ
 മുന്ന ില
ഷ ൻ
 സ ൈ
 അഭി പ്രായ
ക ടന
ൈന ിക
 അന ുമ
മ ോദ
ി  റ
ച്ച യ
 സ ഖ്യ
 വി വാദ
 രംഗ ത്ത
മു ക്ത
മി ഴ
ു ള
സംഘ ടന
സ്താവ ന
 ന ോക്ക
 മാ റ
 ദ ു
 പ്രസിഡ ന്റ
ങ്ങള െ 
ാവ ശ്യ
ോൺ ഗ്രസ് 
ഉ യര
അ ന്വേഷണ
ത്തിന ായി 
ത്ത ോടെ 
 എ ണ്ണ
ോ ,
ക്ക ട
 മ ൊ
മി ത്
പ കട
 വ രു
ി ന ട
കൊ വിഡ് 
  ,
ല ൈ
 കണ്ട െത്ത
 നടപട ികള
മായ ത
 ഇ ത്തവണ
ു റ്റ
ക്ക ാട് 
ം ഘ
ണമ െന്നാണ് 
 കൊ റോണ
ദ ായ
ടു ത്ത്
െടു പ്പ
 തുട ങ്ങ
ം ക ൊ
 യു ഡിഎഫ
ഇ വിട
ന മ്മ
 ക ാ
ുപ ോക
ഫ േസ്
ഷ ിക
സ്  പ
് ന ിര
തി ന ല
 ദ ിന
ഇ പ്പോള
ല ൈന
ോഹ ന
 എല്ലാ വര
എ ൻ
 മ െ
ോണ ിയ
 വ ാക
ിക്ക ുമെന്ന്
ത്ത നങ്ങള
ം പ രി
രാ മ
ം ന ില
ബ ുക്ക
 ത ാമസ
 വ ്യാ
ട്ട ുകള
ിക്ക ുക
ോട ൊപ്പ
 ബ ാല
ട െ
സഹ ായ
ു വിള
 ക േസ് 
പ രാ
മാ വ
 സ്വദേശ ി (
 എ ന്റെ 
ുമ ുള്ള
3 1
ം ന ിര
സഭാ  തിരഞ്ഞെടുപ്പ
 മേഖല യില
 അ മേരിക്ക
ിന ു
െടുത്ത ത
ിന് റെയ
പര മായ
സ്  ക
 വി വാഹ
ആ യ
ക്ക ാണ് 
ിക്ക പ്പെട്ട
ിക്ക റ്റ് 
 ട െ
ത ന്ന
ദ ി
ിക്ക ണമെന്ന
പ്ര സിഡ
  ദേശീയ
 അ വർ
 ചെയ്ത ിരുന്ന
കേരള ത്തില
  ൽ
ില്ല  എന്ന
ഹാര ാഷ്ട്ര
മ ിത
 ത ാന
 ച ൈന
തുപ ക്ഷ
ണ ം എന്ന
 പ്ര ശ്
ൂര ില
ം വ ്യക്തമാക്ക
ച ികിത്സ
ശ ര
െ 

തിനി ധ
ദ ിലീപ
ില്ല െങ്കില
 ഹ ര
അ ഭി
 ഒ റ്റ
 നട ക്കുന്ന
ാമ ്യ
ോ .
 ആ ക്രമണ
രണ്ട ് 
ര ുടെ 
 ന ാട്ട
വർ ണ
ബു ക്ക്
 ക ില
ിവ െച്ച
ികൾ ക്ക്
ഉപ യോഗ
ള വ
ഇത ിന്
 രാ വിലെ 
 ദിവസ ം 
വ ായ
മ േയ
മു സ്ല
ത രണ
ിന െ പ
മായ ിരിക്ക
മേ ശ
വ സ്ഥ
് ക േസ
ക ണ്ണൂര
ഗ ിക
ൊ ലീസ് 
ിക്ക െതിര
 എ ടുത്ത
റ ിന്റെ 
പ്ര ധാനമന്ത്ര
സ്റ്റ ില
ിച്ച ിട്ട
 ക ണ്ണൂര
ങ്ങള ിലെ 
ദ് ഘ
ം സ്ഥിര ീകരിച്ച
പ്ര ഖ്യാപ
 എന്ന ീ
ഡ ്ര
ക് സിന
 എ ൻ
ുര ന്ത
 എം എല
സ ർക്കാർ
വി ശ്വാസ
ി പ രി
 ശേഷ ം 
 ആ ന
 ഏ റ്റ
 ക ണ്ണ
 കുറ ഞ്ഞ
ഫ ്
 എ ഴ
 ആ ലപ്പുഴ
 ഇ പ്പോഴ
ഗ്ര സില
ായ ാല
 ആശുപത്ര ിയില
േ ബ
ത ുമ
ല ാല
 വി വിധ
രുത ര
ാ തിര
ക്ക ാട
ിയ ാഴ്ച
ബ ി ജെ പ
ഔ ദ്യ
ാവ ുന്ന
ക ാരണ
ഭ ാര്യ
 സ്ഥാപ ന
 സാധ്യത യുണ്ട
എ മാര
ഭ ാര
ാമ െന്ന
പ്പ ട
രള ീധര
ൽ ഹ
 ച ടങ്ങ
 പിന്ന ീട
മർ ശ
  ള
ഗ്ര ാമ
പ്പെടു ത്തിയത
 നട ക്ക
8 0
ുപ ോല
7 0
ഫ ്ര
 അപ കട
ക്ക ുള്ള
എ ന്ന്
ന്ന ി
സ് വര
മു ക്ക്
 പങ്ക െടുക്ക
പ്പ ിച്ച
ി പ ിണറായി വിജയ
 ഞ ാൻ
 പങ്ക ുവ
നട പട
ി  ഹ
േര ിട
േഷ നില
ംഗ ാള
രാജ്യ ത്ത്
ണ ായക
ശ ിവ
 വാ ങ്ങ
ി ;
 പ ാ
 സ ന്തോഷ
ിന െതിര
െയ ായിരുന്നു
വി ഭാഗ
ഇ റ
ൂ ത്ത്
െ ന ിയമ
ത്താവ ള
 ക ിട
പ്പ ാക്ക
 ആണ ് 
ം സ
 സ മ്മാന
േഖ ര
ാറ ില
ുണ്ട ാക
ുപ ോയ
ണ ു
ദ ഗ്
പ ു
ഭ ര
 രാ ത്ര
റ്റ ില
ി വ ന്ന
 സൗ കര്യ
ഴ ുവന
 ക െട്ട
 ഭ ാര
സ്ത്ര ീ
ൂ ച
ല ുകള
ം ത ന്നെ 
 നിയമ സഭ
ട ക
ട ്
 ന ായ
ം  ബാധ
 ലക്ഷ ം രൂപ
 പ്ര വ
മു ൻ
ന ത്ത
ന ത്തിന്
 നി ങ്ങള
ന്ദ ർ
മ ൊരു
 വി മര
ിക്കുന്നത ിന്
 അന ുകൂല
 വിദ്യാ ഭ്യാസ
വില യിരുത്ത
ഹ ിത
ി  രാജ
 ഏ ക
ധിക ൃത
ണ ര
യ റ്റ
സ്ര ായ
ക്ക ായി 
 വ ികസന
 തെള ിവ
ആ റ
ി മു
 വര ുന്ന
ഫ ോണ
ച്ച ത
 പ ട്ടിക
പ്പെട െ 
ട്ട ിഫ
 മ നുഷ്യ
 മല പ്പുറ
ദ ര
ം ത ന്ന
ൊഴിലാള ികള
മിത്  ഷ
ഹു ൽ
ശ ീല
പ െട്ട
വി ദേശ
ച്ച ു
 ദ ിലീപ
 വ ാദ
 പറഞ്ഞ ിരുന്ന
ജ ിസ
ഡ ല
 ഒഴ ിവാക്ക
ക ാ
െ പ ോ
 ഇ ക്കാര്യ
ത്ത്  നിന്ന്
ത്തെ  അ
തുട ങ്ങ
ആ ണ
ര ൂക്ഷ
വശ്യ പ്പെട്ട
ികള ായ
ശ് മ
ധാകര ന
ക െ
ന ുവദ
് '
വ ളര
നേ ഹ
ഘ ടന
ട ിച്ച
ി ങ്ങ
 ക ൃത്യ
ൂട്ട ിച്ച
ി  സ്വ
 സ മൂഹ
ട്ട ിപ്പ
കര മായ
ുവ ിന്റെ 
് ത ന്നെ 
ബി ഗ് ബ
െ പ രി
 വൈ ക
െ ന്റ
മാ ല
ാണ്  മ
 അ ധ
 പു രു
 ഇ ടുക്ക
 ക ീഴ
 സു പ്ര
 സീറ്റ ുകള
 തന്ന െയാണ് 
ഷ കര
ിൽ ക്ക
പര ്യ
പ്രതി ഷേധ
ാഗ്ര ത
മാ ധാന
ിറ ങ്ങ
െക്കുറ ിച്ച് 
 പ്ര ചാരണ
ം ക ാണ
ാ ങ്ക്
 എ ംപ
് ഡ
ിക യ
ഴ യ
വ ്യാ
 ന േട
 വകുപ്പ ് 
ച ൈന
ിക ൂട
സ്  അ
നേത ാക്കള
ാജ രാ
ി വ ്യക്തമാക്ക
ള യ
 ഓ രോ
ങ്ങന െയ
യ ുവ
 പ ാട
ി അ ധ്യക്ഷ
ാ വാ
ിക്ക െതിരെ 
് ക ൊ
ളി പ്പെടുത്ത
ു മാന
 റ ിപ്പോർട്ട
 ലക്ഷ ്യ
ി സ്ഥാന
ി  ഐ
ീകര ിച്ച് 
 ഹ ൈക്കോട
ഴ ിമ
ിന് ദു
ക ൃഷ്ണ
സ ാദ
് പ രി
ത്തിന ു
ൺ കുട്ട
 മ േ
 വീ ട്ട
ഹൃ ത്ത
ബ ായ
സ ുകള
ട്ട ി 
ം  ഗ
മര ിച്ച
ുണ്ട െന്ന
ബിജെപ ി 
 തോ ന്ന
3 6
േ റിയ
ം  ജ
ം അ റിയ
 ക ഴ
 എ നിക്ക്
 ഇ വിട
 തമ്മ ില
  ത്ത
സ ിൽ
സ ൂചന
മാ ത
ാന ാണ് 
വി ശദ
 ഒ പ്പ
ഗണ ന
മ ൊ
ല പാതക
 മറ്റ ൊരു
 വിവര ങ്ങള
 ചികിത്സ യില
ാണ് അ ദ്ദേഹ
 ധ ന
മ ്യ
ചെയ ്ത്
വേ ദ
 സ്ഥാപ നങ്ങള
അ ഞ്ച
 ഫ ോണ
 ചെയ്യ ുന്ന
േ വന
 അ മ്മ
േണ്ട ി വര
 ഇന്ത്യ ന
വെ ള്ള
  ന്ന
4 8
ല്ല ാത
െ സ ു
 ശ്ര ീ
ഡ ില
 പ ട
സ്ഥ ല
ക്ക ൊപ്പ
കൊ ല്ല
ഡ ോ
േ ർത്ത
വി ദ്യാ
വീ സ് 
 ബിജെപ ി 
പ ിഎ
്  റ
ലക്ഷ ്യ
ല മെന്റ
 ച ൂണ്ടിക്കാട്ട
ത്തില ാണ
 കൊ വിഡ
 അനു ഭവ
ിന ുള്ള
 സ ത്യ
പ്പ ന
ില്ല ,
 ഇതു വര
ഹ ായ
 ന െ
ുല ര
ത്ത േ
ത്ത ുന്ന
ം  ഒ
വ ുമായ
 ക രുത
ം എ ന്ന്
ം  റ
ങ്ക ില
 വ ിന
ക ണ്ണ
 സ ൂചന
 ച െല
 പ രാജയ
 ഏ ഴ
 വി ദ്യാര
 മന്ത്ര ാലയ
  ന്യൂ
ക രു
 ബ ൈ
് ന ടക്ക
ചെയ്യ ുന്നത
 സമ്മ േള
 വൈറ സ് 
ത്  കൊണ്ട
ത്ത െയ
 പ്ര ായ
ുവ െന്നാണ് 
ികള െ 
ഷ്യ ൽ
മ ണ്ഡല
വി മാന
മായ ിട്ട
 ജില്ല കളില
 പ ത
ആരോപ ണ
ാ ങ്ങ
േക്ക ാള
 സമ ിത
 ആ ക
 വി തരണ
ഞ്ഞെടു ക്ക
നേതൃത്വ ത്തില
 വ ന്നത
 കു ഞ്ഞ
നു വര
ിന െതിരെ 
 ഉദ്യ ോഗ
ോ പ്പ
ായ ിര
െ ക ൊ
 ജോല ി 
3 4
ഭ യ
ി ദ
െത്തിയ ിരുന്ന
 മാത്ര മേ
മർ ശന
ൃ ഷ
 ച ാണ്ട
പ്ര ത്യേക
ി ന രേന്ദ്ര മോദ
 അ ന്ത
പ്ര ശ
ഇ യാള
എ ന്റെ 
ാത ൊരു
ിലൂട െ 
ട യ
മ ിക
ക്ക ൗണ്ട
ിക്ക ാഴ്ച
 അ സ
കു റ്റ
 ഫ ്ര
ഏ ക
ഗ ള
റ ൽ
്യ ൂട്ട
രാ ത്ര
ി ക ൊ
ഭൂ മ
 വാർ ത്ത
 പര ീക്ഷ
േ റ
ിച്ചിരുന്ന ത
ോസ ഫ
 മീഡിയ യില
സ്രായ േല
വ ്യക്തമാക്ക
ത്തിയ ാക്ക
രംഗ ത്ത്
നില പാട
 തൃ ശൂര
ക ണ്ട
 ത ൊഴില
മ ണ
സ് തിക
പ്ര തിരോധ
ോട്ട ് പ
യ ർത്ത
വി ഷ
 പ്ര തിരോധ
നു സര
ട ി 
 സ ി പ
 ഇ ന്ന
 ഉ റ
സി സ്റ്റ
ം ന ി
കൊ റോണ
സ ാമ്പത്തിക
ിക്ക ാത്ത
 മ ി
 ആ ർ
ലീ സിന
ള ിയ
തീ വ
 പിന്ന ില
ച ോദ
 പ ൂർ
്യ മാക്ക
ായ ിട്ട
 നേര ിട്ട
 മ ുകളില
 അവ സ്ഥ
 കോ വിഡ
ണ മായ
ഭ േദ
അത േ
ീകര ിക്കാന
സ്വ കാര്യ
 സാധ ിച്ച
ഏ ഴ
മ് മാണ
മാത്ര മല്ല
ച്ച ില
തി ക്ക്
െ സ മീപ
3 8
മെഡ ിക്കല
അ ന്ന്
ബ ോധ
ങ് കര
ോള ജ
 വയ സ്സ
7 5
 എ ത്തിയത
സി ദ്ധ
 യ ൂണ
 ഭ ീഷണ
 ഗ്ര ാമ
 അധിക ൃത
െ പ്പ
െ സ ുര
3 2
ദ ീപ
ന ല്ല
േ വ
ടു ള്ള
 ബ ോധ
 സ ജീവ
 മു ഖ
ാ ഭ
 അ ടിസ്ഥാന
 ചെയ്ത ത
ക ൂട്ട
 മാത്ര മല്ല
ോട്ടയ ം 
ിയ ുമായ
ക്ഷ ്യ
 ശ ു
ാക്ക ുന്ന
ദ്ധ ിമു
 വേണ്ട ി 
േഷ്  ഗോപ
ന ീക്ക
ദേശ ിക
 പറയ ാന
 സംബന്ധ ിച്ച
വശ ്യമ
3 9
ൻ സ് 
ുമ്പ ോഴ
അ ടിസ്ഥാന
ക ക്ഷ
 ജീവ നക്കാര
മ ഹ
ക്ക ുറ
ില്ല 

േത ാക്കള
നാട്ട ില
ഇ ര
േ ,
പ്ര കാര
് ?

സ്റ്റ ഡ
 ഏ റെ 
ിയ ുമായി 
ുന്നത െന്ന
െ അ റിയ
ജ റാ
ഹമ്മദ ് 
 നിയന്ത്ര ണ
്യാ ൻ
 സൗ ദ
േ മ
െയ ് 
 വോട്ട ുകള
 ക ണ
ഗ്ര ൂപ്പ
വാസ ികള
ഗ് ദാന
 വ്യ ത്യ
യ ിട
ി  ഗ
ങ്ങന െയാണ് 
 വ ിരുദ്ധ
ാന ല
ില്ല ാത
 നേര ിട
ി  സ്ഥാന
തന്ത്ര ്യ
 ശ ാ
 ഇട പെട
 കുറ ിപ്പ
പ യോഗ
യ ായി 
ക്ക ില
 പ െട്ട
 മ ൂല
 മുന്ന റിയിപ്പ
പ്യ ൂട്ട
ബ ാല
െപ ിസി
എണ്ണ ം 
 പ ൗര
വിട ങ്ങളില
ഗോപ ാല
ഞ ങ്ങള
ിയ ോ
 സംബന്ധ ിച്ച് 
ോട ് പറഞ്ഞ
് ക ൂട
ഹ ത്യ
ത െങ്കില
ിച്ച ാണ് 
 മ ത്സ
 മ രിച്ച
വേ ശന
 പെ ണ
 രാശ ിക്കാര
ിയ ുള്ള
ീഷ ന
െ ബ്ര
 പു തു
ോ ചന
 എ സ
ി പ്ര ഖ്യാപ
ീ ർ
ിയ ോഗ
വാ ങ്ങ
ശ് വ
ക ണ
ടു വില
ുറ ത്ത്
ള ിവ
പ് ത
ുന്നത ാണ
 സ് പ
ജില്ല യിലെ 
ദ്ഘ ാടന
ി ഹ
 പ ത്ര
ിക്ക േണ്ടത
ോട െ ക
 വി ശ്വാസ
ൂല ൈ
സുര ക്ഷ
5 5
 പ ദവ
 ത ദ്ദേശ
ങ്ക ള
ം ഉ റപ്പ
പേര ില
ീസ ണ
അ മ്മ
ജ ് 
 സ്വ യ
ഇ പ്പോഴ
ൻ ,
 മന സ്സില
ത ോ
ച്ച കള
ംഗ ല
 സ്വ കാര്യ
ഗ ീയ
ത ാണ
പ റഞ്ഞ
സ മ്മ
 വ ായ
ക്യ ൂ
ീ ട്ട
 ഡ ്ര
സ് സ് 
ക്കുന്ന ത്
 ച േർ
 പോ രാട്ട
 കൊ ച്ച
സ്ഥിര ീകരിച്ച
3 7
ർ പ്പ
 ത ള്ള
അത ില
കല ാശ
 കുട്ട ികള
ജ ിന
ത ാണ് 
സ ൂ
െ രു
 ന ാള
ൂണ്ടിക്ക ാണ
 വാഹ ന
ഇത ിന് പിന്നാല
 ആയ ിരുന്ന
കോ വിഡ് 
റ ിൽ
 ഉ ട
ൂട െ 
ോമ സ് 
വി മര
സിന ിമ
 നൽക ിയ
ഹ ൈക്കോട
ന്ന ിരുന്ന
ം  രാശ
 വീ ട്ടില
 പു ന
 വേ ദ
4 9
യില ാണ് 
െ പ ോല
ക ോഴിക്കോട
് ന ൽക
 സ്ത്രീ കള
ൻ .

സഭാ  തിരഞ്ഞെടുപ്പില
ന െ 
സ ിയ
െബ്ര ുവര
 സ ാമൂഹ
 നട പടിയ
ോട്ട ് 
ബാധ ിത
ഇ ന്നല
ഏ റ്റ
ഒ റ്റ
ിക െ 
ം ഉ യര
ക്കാര ിന്
ഗ ണിക്ക
ന് ദേശ
 ക ർ
ം  (
 അ ടിയ
 ബ ്ല
എല്ലാ വര
 ക േ
മു ദായ
 കഴിയ ുന്ന
 ന ിക
 ച രിത്ര
 തമ്മ ിലുള്ള
 അദ്ദേഹ ത്തിന്റെ 
 പഞ്ചായ ത്ത്
 പ ട്ട
 സാധ ാരണ
 ഒഴ ിവ
ഘ ടക
 ക ടുത്ത
 സ ീറ്റ് 
പ്പെട്ട ിരുന്ന
 റ ഷ്യ
് സ ീറ്റ
ക്ക ൂട്ട
 ഭ ക്ഷണ
 കാല ാവസ്ഥ
ാഗ ത
ി  സര
 ന വ
ല്ല ുവിള
ാമ ത്തെ 
ബിജെപ ിയുടെ 
ോമ ീറ്റ
 മെഡ ിക്കല
4 7
ഗ ാന
നേത ാവ
ിന െയ
 എ ക
അത ിന്
 ബിജെപ ിയ
 രൂപ യ
യു എഇ
 സംസ്ഥാന ങ്ങളില
ിച്ചു വര
െടുക്ക ാന
  ണ
 സ ോഷ്യല
് ന ില
 വയ സ
മല്ല .

റ ുടെ 
വീ ഡിയോ
പ ത്ര
 ട ്
ംഗ ്ല
ാറ ുണ്ട
 ഭൂ രിപക്ഷ
ഗ റ്റ
ഗ ോഡ് 
മ ുറ
 ആ ത്മ
കലാശ ാല
മാര ുടെ 
േ ഴ്
ുണ്ട ാവ
തിന െ 
െ ത ന്നെ 
 തിരിച്ച ടിയ
ത ാല
 ത കര
െ ം
ഇ ന്ന
ി ശ
ദ് വീ
ം ആ ണ
നിര വധ
! !

്  ജ
ത്ത ിൻ്റ
 മ ുറ
 പ ക്ഷ
മ്പ ോള
 ഞ ങ്ങള
 അഭ ിന
ധ ാവ
 മുൻ പ
ന ിന്ന
സ ല
ം  ആരംഭ
 നി ക്ഷേപ
വ ാന
 ഇ ങ്ങന
വ ുമ
പ് ന
തിയ ായ
ഇത ിന്റെ 
 അദ്ദേഹ ം ക
പ്പറ േഷന
മ േഖല
 ത ീയ
ത്തിന്  ശേഷ
ദ്വീ പ
 സ ൈനിക
വാ വ
ഗ സ്റ്റ് 
പ റയ
 ന ോട്ട
 ആ ഭ്യന്തര
ാക്ക ുന്നത
 നില വില
ഇന്ത്യ ന
3 3
 ജ ാഗ്രത
ായി  അ
പ്പെടുത്ത ാന
സ ിക
 വെ ല്ലുവിള
 മ ടങ്ങ
 ചെയ്യ ാന
 പോക ുന്ന
ശ്ചാത്തല ത്തില
5 00
വ ട
 വ ല
ാണ്  ആ
സി സ
ം പ ിട
സഭ യില
 പ്രതിക രണ
 ഉ ന്നയ
ം ന േട
വാറ ന്റ
ൗ ൺ
ിട െയാണ് 
 ഭ യ
ിന െ ക
 ട ീമ
ത െന്ന
പ ൂർ
പ ിന്തുണ
മ കള
യ ുമായി 
യ ാൾ
ോ  എന്ന്
ില ്യ
ാര ാഷ്ട്ര
മേ ല
 മാധ്യമ ങ്ങള
റ മ്പ
സ ിപ്പ
 റ ിപ്പോർട്ട് 
വർ ഷ
ക്ക ുകയ
മാ ൻ
 അ ഡ
ഹ ാന
ി ഖ
രാജ്യ ത്തെ 
െ ക്രട്ട
 സ േന
ാഴ്ച ്ച
ി പ്ര വര
 വിധ േയ
സ്റ്റഡ ിയില
 ക യറ
 വ ഴിയ
് ക ോട
 ദ ില്ല
ടക്ക മുള്ള
ന ാള
ഹ സ
ൽ പ്പ
ാബ ു
 നമ്മ ുടെ 
 പ്ര ചര
ക്കുന്ന ുണ്ട
 സംഘ ട
അ മേരിക്ക
യ ന
ള ിച്ച
ി  ര
ി  ജയ
ട്ട ികള
ുകൾ ക്ക്
മാണ ് പ
 മുന്ന ണ
ഡ യറ
ക് രി
ട്ട ിയില
രാ ർ
ക്ഷ ന
മി ഷ
 ഇതു വരെ 
െ ള്ള
്വ ാന
വസ ായ
 യോഗ ്യത
െ ഡിയ
ി ന ില
 സീറ്റ ില
ശ്മ ീര
9 0
ഇ പ്പോൾ
ഉ ട
ജ ്യ
 സ ാമ്പ
പ്ര ില
സിറ്റ ീവ
ക ുന്നത
സംസ്ഥാന ത്തെ 
ുമായ ിരുന്ന
ഇതുവര െ 
ടു വ
 ഇ നിയ
ിത മായ
ിത ാവ
ിക്കുകയ ായിരുന്നു
ബി ഐ
ു ;
 ഡ ോള
ി അ റ
 തുട ക്ക
റ ിപ്പോർട്ട
േ ണ
 ഉണ്ട ാവ
 ഇറ ങ്ങ
4 6
പ ാർട്ട
വ ുമായി ബന്ധപ്പെട്ട
ം  ഈ
 ഫ േസ്
ാണ് ക ോണ
പരി ശോധന
ര ്യ
 റ ോഡ
 മണ്ഡല ത്തില
മ റ്റ് 
് ച െന്നിത്തല
  ക്ഷ
ൊ ട
ണ്ട ് 
മായി  അ
ോട്ട റ
ത്ത ുന്നത
ി  ഫ
ി  ശ
ിക്ക ണമെന്ന്
ി അ ംഗ
ി നേത ാക്കള
ി ളുകള
ണക്ക ിന്
ക ൻ
െ  ജ
 അ വിട
 നട ത്തിയത
 ന മ്പ
ിത ീഷ
ിങ ് 
ന ാ
 സ ഞ്ച
കു മാറ
് ത ന്ന
ശ്ച യ
സ മയ
ിന് യ
 ച െറിയ
 ഹ ാജരാ
ിസ ഭ
ക്ഷേ മ
 രംഗ ത്ത്
് )
ുക ാർ
 പ ോള
ഒഴ ിവാക്ക
ച ുമതല
 ക ോഴിക്കോട് 
ിട്ടുണ്ട െന്ന
ി ജ ോര
ട്ര ംപ
 രാജ്യ ങ്ങള
െ കുറ ിച്ച
ിയ ര
ം പ ുറത്ത
നു ഭവ
 ആയ ിരുന്നു
 പുറ മ
എ നിക്ക്
പ്പ ാട
ായ റ
മേശ ് ചെന്നിത്തല
ി ഡ
രു ന്ന്
ക്ഷ ിണ
 റ ണ
ത്തിന് റെയ
 പേര ാണ് 
െ ണ്ണ
ിച്ച ുകൊണ്ട
 സം ര
 അദ്ദേഹ ം 
ലോ ച
 ഒ ര
 മറ്റ ു
ോ വിഡ് 
 ആ ന്റ
ിമ റ
 മറുപ ട
ജിസ്റ്റ ര
ം ക ഴിഞ്ഞ
െ പ ിട
മാക്ക ിയ
 കേസ ുകള
റ ഷ്യ
ിയ േറ്റ
 ക് രി
 പല ര
മറ്റ ൊരു
സ മ്പ
ൂ രു
ോ .

 ദിവസ ങ്ങളില
സാധ ാരണ
ഗറ്റ ീവ
ം  പോല
ം  ശക്ത
 സെ ന്റ
 പൊ ലീസ
ി നേത ാവ
ഗ ോള
ല്ല ാത്ത
ം എന്ന ിവ
ജീവ നക്കാര
 സമ്പ ര
ബ രി
ടു പ്പ
േര ിട്ട
് ക ൊണ്ട
 ച െറ
ത്ത്  നിന്ന
ം നട ന്ന
ധ്യ പ്രദേശ
ആ ലപ്പുഴ
ഡ ുകള
മ ൃതദേഹ
ഇത േ
 പാല ക്കാട് 
തൃ ശൂര
 കട ന്ന
ജ ന്യ
 ത നിക്ക്
 എ ടുക്ക
 പ്ര കടന
തിക ൾ
,  മ
അ ംഗ
ഭ ിന
ട്ട ിക്ക
 ത ീവ
മാണ ിത
 ദ ൃശ്യ
ിച്ചു 

 സിപിഎ മ്മ
ഡ ൽഹ
ി ത്വ
ാമ െന്ന്
ണമ ൂല
ം ഉ ന്നയ
4 2
ന ാണ് 
ൂ ക്ക
 ത ുക
ം ക ഴ
 ഭൂ മ
ി )
 സ മാന
 സ്വദേശ ിനി (
ൈ റ്റ
 ഇ പ്പോൾ
ം അ വസാന
ട്ടിഫ ിക്കറ്റ
ി  യോഗ
 എ ന്ത്
 വില യിരുത്ത
 ശ്രമ ിച്ച
 നിർ ദ്ദേശ
 ഇ ൻ
തുട ക്ക
ബരി മല
ഭ ീഷണ
 ഇ യാള
 ഹ ോട്ട
 സെക്രട്ട റിയ
ക്സി ൻ
ശ േഖര
സൂചന .

ത ി ക
ഹ ൈ
 പ രിക്ക
 പറയുന്ന ത്
 ജന റല
കിയ ിരുന്ന
 സാഹചര്യ ത്തിൽ
േബ ്യ
ള ുപ്പ
 ക ത്ത
 ദ ുരന്ത
 കുറ വ
 വി ശ്വസ
ി  ഒ
 വ ച്ച
 ന േടിയ
 സുര േഷ
 ക ക്ഷ
 സ്ഥിര ീകരിച്ച
 ചോദ ിച്ച
 കില ോമീറ്റ
 ത സ്തിക
6 5
എ ഫ് 
എ ല്ല
എ റണാകുള
വ ന്ന
 ആ ഴ്ച
ക്ട ോബ
ല ര
ഷ ക
് തിര
ാല ോചന
 യു എഇ
19 9
ത ന
ുക  എന്ന
 വി പണ
കര ുടെ 
ി ന േട
തിന ാൽ
ം -
ാ സ്
 കു മാര
 ഗു ണ
ി സ്ത
മാ വധ
െ പ റഞ്ഞ
 പ്രസിഡ ന്റ് 
ത ദ്ദേശ
ശ ാല
്യ മായ
 ഡ െ
ന്യ ായ
തിരഞ്ഞെടുപ്പ ില
ന്ന ാണ് 
 എ ൽ
 രോഗ ം സ്ഥിരീകരിച്ച
  ദേവ
' ;
 വ ിര
ി ന ൽക
 ജന ാധിപത്യ
 കോൺ ഗ്രസ
 ക ോര
െയ ര
 ച െ
മായി  ക
ം പ ാല
പ ഞ്ചായ
രോഗ ം സ്ഥിര
ദ ൃശ്യ
രാ ൾ
മു തല
മു ളള
ഭാഗ ്യ
നിയ ന്ത്ര
  ഊ
പ ിട
 ഇ ന്റ
 പ്രതിക ര
യ ച്ച
 പ ിന
വർ ക്ക
 കുറ ിച്ച
ഗ് ഗ
തൃ ക
ി റ്റ് 
 ക നത്ത
ാസ ർ
 ഗു രുതര
ഭൂ രിപക്ഷ
ത ിക്ക
ബ ് 
ൊ ള്ള
ം ക ൈ
ലോ ക്
ത്തിലൂട െ 
ഓ ഫ് 
സ മര
ക്ര ിയ
 വ്യാ ജ
ന െ
ീ ണ
വി ഷയ
 കൈ മാറ
മ കന
ക് സ
ം വ ോട്ട
ഇന്ത്യ യില
വ്യാപ ന
ിര ിക്കുകയാണ് 
 വീ ണ
കുട്ട ികള
് ക്ക
 സ ൂച
 എ ത്ര
 ഉ ടന
 ശ മ്പള
 അടക്ക മുള്ള
ന ഷ്ട
യില ില
സ ണ
ു മാര
േ ശ
ി സ തീ
 രണ്ട ു
ാണ ിത
 അ ക്രമ
ങ്ങള ായി 
 ല ംഘ
ചെയ്യ ാന
 അധ്യക്ഷ ന
ഥ ികള
ബ ാദ
ീ ഫ
ി  മാറ്റ
 പ്ര തികള
ക്ട ്ര
പര ്യമ
കിയ ിട്ടുണ്ട
 സ്വാ ധീന
ി ള്ള
ർ ക്ക്
 സ ൃഷ്ട
ിഴ ക്ക
ആ ന
രാ വിലെ 
ത്തിന െതിരെ 
ർ മ്മ
ക്യ ൂട്ട
4 3
വ ികസന
 പ്ര ിയങ്ക
 സ്വ ീകരിച്ച
.. .
 പര സ്യ
 വിഷയ ത്തില
എൽ എ
െ കണ്ട െത്ത
ം  സംഭവ
ഹ ൗ
 വി ദഗ്
വാ ഴ്ച
 അഭി മുഖ
അ റ
 സ ോ
ഇ വിടെ 
ഡ ൗണ
ജി ത്
ഇ നിയ
പ ട്ടിക
 സ ന്ദര
മി ഴ്
 മോ ശ
 ഓ ണ
വ ള
വ ഹ
ീ ച്ച
ീ ഫ് 
 ത മിഴ
 ജ ാമ്യ
 ഒ രിക്കല
ാം 

കു ഞ്ഞ
 ഏ ര
 വെ റ
സ മ
ായ കന
 ബ ിരു
ാക്ക ാൻ
മുണ്ട ാക
ം ചെയ്യ ുന്ന
ജീവ ന
ഉള്ള ത
ൂ ത്ത
ിച്ച ിരിക്കുകയാണ
ോഗ ിക
 നടത്ത ുന്ന
  ക്ഷണ
ക മായ
 മ ദ്യ
 ച ിന്ത
 ഭ ാര്യ
ത്തിന െതിര
ക ൃത്യ
ിയ ായിരുന്ന
 എ ം എ
അതേസമയ ം ക
 വേ ഗ
 പ്രതിപക്ഷ  നേതാവ
ശാ സ്ത്ര
 മുതൽ  
ി അറ േബ്യ
സ ്ട്ര
തി ർന്ന
ം വ ന്ന
 തെള ിയ
തീവ ്ര
ഓ ണ
ജ ില
രോഗ ം ബാധ
അ തി
യ ുപ
ാണ െങ്കില
ിന ൊപ്പ
ിറ ക്ക
ദ ണ്ഡ
ു ണ
െ ര
 മ ീറ്റ
ോസ ഫ് 
 മന സില
സംബന്ധ ിച്ച് 
െ  ഉ
 ക െ 
ി ജ ന
ട വ
പ ൂ
ൊ വ്
ിയ ന
 പോ വ
 പുര ോഗ
 പ ത്തനംതിട്ട
 വ ഹ
ം  തിര
ായ ുള്ള
ുക ൂട
 പ്ര സ്താവന
ാണ് ഇ പ്പോള
ാണ് പ രി
മല പ്പുറ
യ ല
 പ ിഴ
 ക ഥ
,  അ
ി ത്
 സീറ്റ ുകളില
 വോട്ട ് 
സ ത്യ
ന്ന ൂര
 പ ാർ
പ്ര തികള
സ്ഥ ിത
 യു ദ്ധ
 ഇന്ത്യ ൻ
നമ്മ ുടെ 
ഫേസ് ബുക്ക്
ങ്കള ാഴ്ച
എ ംപ
ക ർക്ക
സ േന
 നി മിഷ
ഇട പെട
 അയ ച്ച
വാ ർ
 കോട തിയില
ം ച േര
ലക്ഷ ്യമ
 പദ്ധ തികള
ട ന്ന
മ ില്ല.

സ് കാര
 എറണാകുള ം 
അ ധ്യക്ഷ
ഡ ന
 സ ൂര്യ
ോട ് അ
 ഹ ൈ
 ബിജെപ ിക്ക്
 ക്യ ാമ്പ
 പ ി എ
 വ രുമാന
ി ക ഴിഞ്ഞ
വാ ക്സിന
ങ്ങളില േക്ക്
് കു മാര
ക മ്മ
മ ംഗല
വി വാദ
െന്ന ൈ
ില്ല ാതെ 
 നിന്ന്  
 ചെയ്ത ിട്ടുണ്ട
ട്ട്  ചെയ്ത
 സു ഹൃത്ത
4 4
 ബ ാങ്ക
 കണ്ട െത്തിയ
 യോഗ ത്തില
ന ത്തിൽ
 എ സ്
വാദ ിത്ത
ം മു തല
 സിന ിമയ
 തീവ ്ര
ഒ പ്പ
പ്ര ിയ
ിപ്പ ിച്ച് 
 പുറത്ത ു
 തുറ ന്ന
മര ിച്ചത
ുമായ ിരുന്നു
 ബി ഗ് ബ
ം  സംസ്ഥാന
ധ ാര
ഴ ുവ
ം  ല
 അ ഖില
ാണ്  എന്ന
 പ്ര കട
ദ് മ
ിവ ച്ച
 യ ാതൊരു
ുപ ട
 നിന്നുള്ള  
ഹുൽ  ഗാന്ധ
ദ്ധിമു ട്ട
മ ന്റ
 ആ ല
ുണ്ട െന്ന്
മാന േജ
േത ിക
 വയ നാട് 
 തല ത്തില
ന്നി ധ്യ
പ ാ
വര ാണ
 ജ ോര
ത്തിയ ിരുന്ന
ഡ് ജ
ബിഗ് ബ ോസ് 
ക ൃത
 പ്ര ാ
ുമ െല്ല
രാജ ന
ല ിൽ
 പ ീഡ
സ് പ്ര
പ്ര തിനിധ
തി ന ൽക
ഗ സ്ഥ
വ ിരുദ്ധ
് ബ
ം അ നുവദ
 ഓ ട
ട ഞ്ഞ
ി  - 
ായ ിക
രാ ഷ്ട്ര
േരള ത്തില
ോർ ട്ട
ം ആ യ
െന്ന ായിരുന്നു
പ്ര വ
 ല ൈ
െടു ക്കുന്ന
ാദ വ
 പദ്ധ തിയ
 സർ ക്കാര
 ഭാഗ ്യ
ആ ക
ാ ന്റെ 
 മുഖ്യമന്ത്ര ി പിണറായി വിജയ
ാങ്ക േതിക
ി ജ ില്ല
 വേ ള
 ഇന്ന്  
രളീധര ന
ത ാപ
ല ിന
സ മൂഹ
ച്ച ിന
 ച ന്ദ്ര
 ബ ജ
 ലഭ ിച്ചത
ം പ്ര ഖ്യാപ
ഡ െ
മ ികച്ച
ം  ഫ
 ഭ േദ
 ഏ ജന
ജ ു
 വ സ്തു
 ച ല
ല്ല ,
 വി ഷ
 സ്വ ീകര
കാര്യ ത്തില
ീ റ
 ച ുമതല
സൗ ദ
പ്പെട ുകയ
പോ ലീസ് 
ക ോൺ
ൊ തു
 ഉ ച്ച
വാക്ക ള
് നട ത്ത
ൂ ഢ
ം  ശ
േണ്ട ത്
ീ കാര
ാര ായ
 ബ ഹ
ാം ,
േണ്ട ി വന്ന
ാക ിസ്ത
കൊ വിഡ
 വേ ണ
 ലീ ഗ് 
തെ രഞ്ഞെടുപ്പ
  ക്ഷേത്ര
ൻ  പറഞ്ഞ
 മ ിന
ുന്നത ില
െ ന ില
 വൈ റല
 ഡി എ ഫ
 സ ന്ദേശ
 ബ ംഗാള
 ഇട തുപക്ഷ
 രാജ്യ ത്ത്
അതേ  സമയ
ാ ന്റ
തിയ െ സമീപ
ിസ ി ജോര
യ റിയ
 ക ാർ
െ ക ോണ
സ ോ
ൻ ഡ
വര ില
ി വി ട്ട
ഫ് ഗാന
ഭാഗ മായ
 കാര്യ ത്തില
സ് 

 നേത ാക്കൾ
 കാല യ
ൊവ് വാഴ്ച
ത ുറ
ിട്ട ില്ലെന്ന
ദേശ ം 
സ്റ്റ ര
ം നട ത്തിയത
 പ്രതിക രിച്ച
ല ്യ
 ക ള്ള
െ സ ഹായ
എന്നാൽ ,
 സാധ്യത യ
ശ്ച ിമ
 എന്നത ാണ് 
ജ ്ര
 പ്ര സംഗ
നി ങ്ങള
 കേസ ിൽ
ം ഉണ്ട ാക
ായറ ാഴ്ച
ായ ില്ല.

നില വിൽ
ഘ ാത
ാണ ോ
 ഉ യർന്ന
ക്കാര ന
ത്തിന ിട
 പഞ്ചായ ത്ത
വിദ്യാ ഭ്യാസ
ിൽ ക്കുന്ന
െ ത ന്ന
ശീല ന
ില േക്ക
ിന െ അ
േര ത്തെ 
ിവ ൈ
 കാര്യ ങ്ങൾ
 പെ ൺകുട്ട
ഇ വരുടെ 
സ ാഹചര്യ
ഹ ാസ
ി  ഷ
ാണ്  ന
ിന ോട് 
 പ്ര ചരണ
 വി മർശന
 എന്ന ായിരുന്നു
ജില്ല കളില
ംബ ാന
 ഘട്ട ത്തില
 പഠ ന
നുവര ി 
ഴുവ ൻ
' ,
) .

ച ാണ്ട
ത നിക്ക്
പ ദ്ധ
 ക േട്ട
 ന ന്ദ
ിച്ച േക്ക
െയ ിൽ
 മന്ത്ര ി പറഞ്ഞ
 വിമാന ത്താവള
ഫ ോട
ട്ട ിയുടെ 
ട്ട ിമറ
ോട െ പ
ാൻ  കഴിയ
 മുന്ന ോട്ട
ഗ ങ്ങള
ബ ർ
മ െന്നാണ് 
വ കാശ
് ന
 ജ ോ
ങ്ക ുവ
 ഇന്ത്യ യില
് ആ യ
എഫ ്
ക ോട്ടയ
ഗ ാന്ധ
 ജ ല
െ ന ി
 കൂട ി 
ലോ ക്ക്
i n
ഐ എ
ന പക്ഷ
യ ൂണ
െ ക ൊണ്ട
 പേര ുടെ 
സ്വാ ധീന
ച രിത്ര
ിക്ക ാത
 ഇ ല
 ബ െ
 നി ങ്ങളുടെ 
ഇന്ത്യ ൻ
 പിട ിച്ച
ചികിത്സ യില
ട ച്ച
ീ ണ്ട
ം  ചെയ
സ്റ്റ ിസ് 
 സൈ ന്യ
അ വസാന
ിയ െന്ന
 വ ള
 ഒരു മ
ം വ ാങ്ങ
 സ്വ ീകരിക്ക
തുട ർന്ന
ുമായ ുള്ള
 ട്ര െയിന
  ക്രമ
അ വരുടെ 
 അ ന്വേഷ
 സുരക്ഷ ാ
െ പോ ലീസ് 
 ബ ാന
ുവ ൈ
സ്ഥാന ാർത്ഥ
ൂർ ,
ബി സിന
പിന്നീട ് 
ഏ റെ 
പ്പ ണ
 വൈ ദ്യ
ത ുവ
ള വില
ത്ത ി 
ങ്ങ ാട
കു മാർ
പ്പെടുത്ത ുന്ന
4 1
ക ൂടുതല
പ ോല
ോ ന്ന
 ഉ ന്നത
 ധ ാരണ
 മറുപ ടിയ
അ പകട
 കെട്ട ിട
ം  പറയുന്ന
ഗ ാര
ു :
ത്ത ിക്ക
 പ ള്ള
 പ ൈല
 അ ന്ന്
 എ ട്ട
ാല ിറ്റ
ുമ ുട്ട
ം പ ൂര
 അഞ്ച ് 
മെഡ ിക്കൽ
5 6
5 7
 അ ക
 ല ോക്
 നില യിൽ
5 8
ഹ സ്യ
ുന്നതിന ായി 
ൂപ്പ ര
ന ിന്ന്
ിയ െ പ
 സ ീസണ
ഞ്ച ിന
 പരി ഹാര
ച്ഛ ന
 പ ഞ്ചാബ
 സ മി
ല്ല പ്പള്ള
് ക ാല
ത്തെ  തുടര
യ ഥ
 ജില്ല യിലെ 
 അധ ്യാപ
പ ത
ഫ ്റ്റ
ബ ൈല
ശ ിച്ച
്  ഉ
ത്ത ല
ിക്ക ുമെന്നാണ് 
 ശ ിക്ഷ
 പരി ഗണ
കഴിഞ്ഞ  
ആ ക്രമണ
എ ച്ച
സ ഖ്യ
ല്ല െന്ന
ി ക ൂട
മാക്ക ാന
പൊ തു
ഇരു വര
ശ േര
ാ പ്റ്റ
േത ാവ
 അത ിന്റെ 
ുകയാണ െന്ന
 ട്ര ംപ
 തട യ
ം ക
ത്ത കള
 ഇ ന്നല
ത ായ
ി സ്റ്റ് 
ില െത്ത
ിച്ച ാൽ
ാര ോഗ്യ
രു വ
 ഇ ഷ്ട
ി പ ാര
 ഇന്ത്യ യുടെ 
 വ്യ ക്തി
 യാത്ര ക്കാര
  ഘടക
അ റിയ
എ പ
ഡ ിന
ോ  ഗ
 ന മുക്ക്
ിക യാണ
 ഡ ോസ് 
ി സ ു
യു ഡിഎഫ് 
പ്രതി സന്ധ
 ഭരണ കൂട
 അദ്ദേഹം ക ൂട്ടിച്ച
 സാമ്പ ിളുകള
ക്ക െട്ട
ൻ ഡ് 
ത്ത ോട് 
 ത ങ്ങളുടെ 
 വര ുന്നത
 നിയമ ന
ൂറ ോ
ം മ ുന്ന
രുത െന്ന
സഹ ോദര
അ റസ്റ്റ് 
ദ രാ
സ മ്പര
 കുറ ച്ച
 അത ിന്
ദു ബായ
 രീ തിയിൽ
ക ണക്ക
ുന്ന ു
 ഒ ക്ക
ിവ ില
പ്പെട ാന
ിയ ാല
്യ ൂണ
ിക്ക ാർ
ായ ത്
ി പ േര
ി ക ൊണ്ട
മേ ധാവ
 തിരഞ്ഞെടുപ്പ ിൽ
 സഹ ോദര
റെയ ില
ഉദ്യ ോഗ
ഫേസ് ബുക്ക
അ ര
ം ക ോട
 സ്ഥിര ീകരിച്ചത
 വീട ുകളില
അ പേക്ഷ
ഓ ര
പ ുല
ീ ദ
ാക്ക ര
 സ്വ തന്ത്ര
രണ്ട ു
 മണ്ഡല ങ്ങളില
 കൂട്ട ിച്ച
 വിദ്യാ ർത്ഥ
പ്രസിഡ ന്റ
ട ിവ
ഷ ണ
ിയ ായിരുന്നു
 മ ോഹന
 നിര ോധ
 പരി ധ
 ബിജെപ ിയുടെ 
 ധ ര
 വാ ഗ്ദാന
യ ോട
റ ോഡ
ച്ച യായ
ികള ിൽ
െ ക േസ
സ്റ്റ ിറ്റ
 വന്ന ിരുന്ന
 പദ്ധ തി 
 പ്രഖ്യാപ ിച്ച
  ക്ക
 ത ന
യ് ക്കുന്ന
 സ്ഥാന ത്ത
വിത രണ
 നിർ ദേശ
ത ോടെ 
് ക ോണ
ാര്യ ങ്ങള
വീ ണ
ിനെ  തുടര
സിപിഎ മ്മ
മ ൈ
ൊ ടുക്ക
ോ വിഡ
ടു ക്കുന്ന
 ആ ശയ
ുമ ില്ല.

ി ന ി
ിത ാക്കള
 ഒരു പാട
ുന്നതിന ുള്ള
 ആരോപ ിച്ച
എം എല
  ത്ര
ൽ ക്ക
ുവ ന്നത
ാവ ധ
സം ഖ്യ
ുപ േര
 തര ത്തില
 അ ക്കൗണ്ട
ല്ല േ
 രാ ഷ്ട്ര
ം മു മ്പ
േ ഗ
 സ ൂക്ഷ
ിന് ധ്യ
സ് പര
 ആ ഘോഷ
വാഹ ന
 നമ്മ ള
 പേ ർക്ക
സ് പെ
ല്ല െങ്കില
ാത െ പ
 യു ഡിഎഫ് 
 കേസ ിലെ 
മെന്റ ് സ
ക്കാല ിക
ഒ രാള
ിന ാണ് 
 രാജ്യ ങ്ങളില
 കാല ത്ത്
കെ  മാണ
 അനു സര
ാരായ ണ
ഡ ിജ
ൂ ൺ
ൊ ള
 സ ഭ
 ത ൊഴിലാളികള
വി ദ്യാര
ത്തില െത്ത
ബന്ധ പ്പെട്ട
ി പ്ര വർത്ത
 കൊണ്ട ുവര
പരി ധ
ി നേത ൃത്വ
ന ോട്ട
ിയ ാക
ി  ഒരു
 ത ങ്ങള
ിക്കാന ാണ് 
ി ക ുറ
 ഓ ഫ
യോഗ ്യത
െക്കുറ ിച്ച
ഈ  സാഹചര്യത്തില
ക്ക ല
 വ ിക
 ത ന്ത്ര
ങ്ക ാന
ുവ ിന്
 കൊ ടുത്ത
ഭി പ്രായ
 ആവശ്യ മായ
കൂട ാതെ 
ം സ്വദേശ ി (
ന ഗര
് ...

മ്പ ല
 കേന്ദ്ര  സര
ിറ ങ്ങിയ
എസ് പ
അ വിട
 ഒ ട്ട
ോഗ ്യമന്ത്ര
യ്ക്ക ാന
 രോഗ മുക്ത
 എന്നി വിടങ്ങളില
 നിരീക്ഷണ ത്തില
 അധികൃത ര
ല ിക്ക
വ ന്
ക്ക ിടയില
ാവ കാശ
യു ധ
ിവസ േന
ം ചെയ്യ ാന
തിനെ  തുടര
6 8
ം  മാറ്റ
 കു ഴ
 ഓ ര
 അദ്ദേഹ ം വ്യക്തമാക്ക
 വ്യക്തമാക്ക ുന്ന
ബ്ര ാഞ്ച
ആരോപ ിച്ച
സാ ക്ഷ
പ ന
റ ായ
 പ ന്ത
ുക േഷ
ോയ െന്ന
ുകൊണ്ട ് 
ുന ിന്ന
ത കള
ത്ത ക
 സ ോണിയ
 അ കല
 ചിത്ര ങ്ങള
 സി പ ി എ
െപിസി സ
5 9
ട ങ്ങിയ
ോ ക്ത
ത്ത ോടെയാണ് 
 ക ോട്ടയ
വാ സം
 മന്ത്ര ിമാര
ി സ്വദേശ ി (
ഇ ത്രയ
െ ന്ത
 പ ്പ
 മ മത
െ ക ൂട
ണമ െങ്കില
ോസ്  കെ മാണ
 മാന േജ
 മലപ്പുറ ം 
ഡ ര
െയ ോ
 വി സ
് പ ോല
ാധ ്യത
 തിരിച്ച ട
 കൊല്ല ം 
 പേർ ക്ക്
ുന്നത െന്ന്
ഞ്ച ് 
 ഒരു ക്ക
ി അ റിയിച്ച
ഗു ണ
അ ധികാര
ിയ േര
 ക ാറ്റ
 ക ോഴിക്കോട
 വ ാക്ക
ം  തുടര
ം ക ിട്ട
േത ൃത്വ
വേ ള
 ഞ െട്ട
 പരാ മര
 വ്യാപ ാര
 പങ്കുവ െച്ച
ൂലൈ  
,  സ
ഴ ുത
ൃ പ്
 സ മുദായ
ായ ി
 മ ഹാരാഷ്ട്ര
ുപ ിട
 വെ ളിപ്പെടുത്ത
ി വി ഭാഗ
യ്യ ില
അഭി പ്രായ
എ ത്ത
എ ം 
 മ േല
 ശ ിവ
വീ സ
് വ ്യക്തമാക്ക
 സ്ഥാന ാർത്ഥ
 ജീവ ന
ജ ൻസ
പ റ
ഭ ക്ഷണ
ത്ത ർ
 യ ുപ
ൗര വ
കോട തി 
ഐ സ
ജ ാത
 ത രംഗ
 ല ോക്ക്
ലീ ല
നട ത്ത
വ് വേ
െക്രട്ട റ
5 2
ജ ല
ു തു
െ ഹ
 അ ഴിമ
ം ഇ ന്ത്യ
 പെ രു
പ ത്തനംതിട്ട
വ ട്ട
ുന്ന ില്ല.

 ല െ 
 ചെയ ്ത്
ോറ ിറ്റ
ഒഴ ിവ
 പുരു ഷന
 വകുപ്പ്  മന്ത്ര
െബ്രുവര ി 
ത ള്ള
ത െന്ന്
ിയ ്ക്ക്
 പ്ര മേയ
 സ്ഥ ിത
ി വ ൈ
നി ങ്ങളുടെ 
കഴിഞ്ഞ  ദിവസ
 മാസ ം 
ത്  എന്ന്
ക്ക ാക്കര
 പ്ര വേശന
 ച ൂണ്ടിക്കാണ
െ പ റയ
 കൊ ടുക്ക
ം നട ന്നത
ാ ക്ക്
 വി ട
മുഖ്യമന്ത്ര ിയുടെ 
ബ് ദു
 ഇല്ല ാത
വര ണ
 ആ രാധ
ിവ െക്ക
 അത ില
ജിസ ്ട്ര
്‍ ;
ക്ക ണ
 ക ൃഷ്ണ
ാണ്  ത
 ത ട്ടിപ്പ
ങ്ങള ായ
 നട പ്പാക്ക
േയ ുള്ള
 പ്രശ് ന
ഭ ോക്ത
ല െ 
വ ൻ
ി ത്യ
 പ്ര മുഖ
രാ റ
 പോ ര
 ഗ ത
 കുറ യ
ാനുള്ള  ശ്രമ
മിത് ഷ ാ
3 00
ഡ ിറ്റ
 പ ത്ത്
ും ;
 അ ത്തര
ക്ഷ ോഭ
 ഉ മ്മന
ന്ദ ിര
ദ്ധ ര
മുണ്ട ായിരുന്ന
ഠ ന
ൂ മ
 സ േവന
ിക്ക ുമ്പോള
െ അ റസ്റ്റ് 
 സ്വദേശ ിന
അ ന്ത
െ ൽ
്. .

സൈ റ്റ
മ ൃ
 സ ജ്ജ
വേ ണു
ഹൃ ദ
ം ഏ റ്റ
 ഉദ്യോഗ സ്ഥ
ഞ െട്ട
ന ാണ
ബ ീ
ൂ വ
് "
 മ ൊഴ
ോസ ിയ
 വന ിത
േ ശ്വര
ുമ ോ
ീവ ് 
 ഓ ഫ് 
 പങ്ക ാള
 വന ിതാ
ക ോൺഗ്രസ് 
 ജ ൂണ
ോള േജ
ം ആ വശ്യപ്പെട്ട
ശുപത്ര ിയില
ൊഴ ിൽ
 നടപട ികൾ
നേതൃത്വ ത്തിലുള്ള
 അട ച്ച
ുന്ന ണ
്യ മാക
 സ ുന
അത ിന്റെ 
് അ ല
 ബി സിന
എ ക
വ കലാശാല
ഷ ോ
 ക ാത്ത
ിന െ ന
ോട െ അ
 കൊ ലപാതക
 സമ്പർക്ക ം

ച ർച്ച
ർ ട്ട
 അ ന്തര
ജില്ല യിൽ
 സംഭവ ത്തില
ോട്ട് പ ോക
നുസര ിച്ച് 
എ .
ീ ൻ
വാ ട
ിട യിൽ
ചെയ ര
ധന ാഴ്ച
 ഉള്ള ത
 വളര െ 
ി അധ്യക്ഷ ന
 മത്സ ്യ
ഴ ാഴ്ച
ി വാള
ോ ടുള്ള
 ക ാട്ട
ിച്ചത െന്ന
 റ ി
വീ ന
ദി ത്യ
ൂഢ ാലോചന
  റിയ
6 9
w w
മ ഹാരാഷ്ട്ര
 ക ാഴ്ച
ില്ല  എന്ന്
ാക്ക ി 
ാമ റ
ആവശ്യ പ്പെട്ട
ജ ോ
ത് 

ത്ത ൂര
ുട േത
എന്ന ിവ
സം വിധാന
ി ആ യ
 തര ത്തിലുള്ള
 അ തിര
ിവ ാര
ഔദ്യ ോഗിക
അ ത്തര
റ ിന്
ന് മ
 റ െക്ക
 ഭ ാവ
 ശേഷ മാണ് 
 ശതമാന ം പേര
 സിപ ിഐ
സ്ത്രീ കള
ാകിസ്ത ാന
ത്ത ുള്ള
ിയ ുടെയ
മ് മു
 ഇ വിടെ 
യു മായ
ക്യ ാമ്പ
രുത െന്ന്
കൾ ക്ക്
ഭ്യ ര
ഗ ോ
ത ിന്
ന ടക്ക
 പ ുല
ാവ ില്ല.

െ പ ുറത്ത
ീകര ിക്കുന്ന
െ ന ിന്ന
 അനുവദ ിക്ക
 ഡി സം
ഡ ് ക
സ മീപ
 ക ർഷ
മ്പ ോൾ
മ്മ ൂട്ട
ോട്ട ോ
െ എ സ് 
 സുര േഷ് ഗോപ
 കുട ു
 നാല ് 
ോവ ിന്ദ
ഓ ട
ശ തമാന
ു വാ
െ ട
പ്ര മുഖ
ിക്കുന്നത െന്ന
 അവ തര
ികൾ ക്ക
െ ആ ക്രമ
ഗ് ന
 നടപട ി സ്വ
 മുമ്പ ് 
ശ ബ്ദ
ാന ാക
സം ശയ
ക്ര ൈ
 റ ോബ
വർ ണ്ണ
പ്പെടു വ
ഫ ോഴ
ുകള ിലെ 
സ്റ്റ േഷന
രാജ സ്ഥാന
 ഗ വര
ോഹ ൻ
 അറ സ്റ്റില
 രേഖ കള
സൂ ത്ര
അ ല
ആ കെ 
ആ ത്മ
ച ല
ാ സര
 വ ക
 ആശുപത്ര ികളില
 കള ക്ടര
ക ീയ
മ ണിക്ക
ിക്ക ൊപ്പ
 ആ കെ 
ുമ ോ എന്ന
ന്ധ ന
ഞ്ച േര
 ഇത ില
എ തിര
ന ൽക
ും .
ിപ്പ ിക്കാൻ
 ക് വാറന്റ
് കു മാറ
ൊ ന്ന്
 സ ിറ്റ
ത്തില ധിക
ി ന ിയമ
ുകൾ .

 സംസ്ഥാന ങ്ങള
ാണ് ഇ വര
നട ത്തിയ
തിരുവനന്തപുര ം 
ി ഉ ണ്ട
അ ങ്ങന
 പ ിന്
ി  ൽ
ാണ ുള്ളത
ിച്ച െങ്കില
 പ്ര ത്യ
പ്ര ചാരണ
 മാ ല
നില വിലെ 
 യു വാവ
ഇന്ത്യ യുടെ 
 മേഖല കളില
അദ്ദേഹ ത്തിന്റെ 
ില്യ ണ
ശ്ച ിത
എസ് എസ് 
ഗു ജറാ
ഭാവ ന
 നിയന്ത്ര ണങ്ങള
മ ൊഴ
ച്ച വട
 പ്ര തിയ
 ആ ക്രമ
 ച േ
െ പ ിന്തുണ
ം അ റിയിച്ച
ം ച െല
േണ്ടത ുണ്ട
 പരാ തി നല
 പുറ മേ
ം ലഭ ിക്ക
സാധ ്യത
ത്സ വ
ആശുപത്ര ിയില
 പ്രവ ച
6 7
ത യ്യാറ
ിപ്പ ോയ
ുവ ാന
 അവ ധ
 കൂട ിക്കാഴ്ച
 മുഖ്യമന്ത്ര ിയുടെ 
െ ആ ണ
 പ്രദേശ ങ്ങളില
 സ്വാ തന്ത്ര്യ
 സാ ക്ഷ
ത ിക്കാര
യില ുള്ള
സി ദ്ദ
 കൂട ിയ
കൂട ാത
ഭാവ ിക
്തിര ിക്കുന്നത
 ത ൊഴിലാള
 നട പ്പില
ാപ ുര
സഭാ  തെരഞ്ഞെടുപ്പ
ശാ ന്ത
ഞ്ജ ു
് പറയ ുന്ന
ാ  യ
്ര ാ
 ത ൊട്ട
ത്തിൽ  
ി ക ുട
ാണ് പ ോ
 അഭി ഭാഷ
അ വർ
ഖ ണ്ഡ
സ ൂര്യ
ി  ച്ച
 സ മാധാന
ിച്ച ിട്ടില്ല.

 മ ണ്ണ
ി ക േന്ദ്ര
ം വ ്യക്ത
.. ..

ാണ് പ ുതിയ
 കാര ്യമ
യ ോര
 പ തിന
പ്ര ശ്
ുകളില േക്ക്
ലഭ ിക്ക
 മുന്ന േറ്റ
 വാ ക്സിന
 സംഘടന കള
ിബ ാന
 മെഡ ിക്കൽ
  ണ്ട
ൊ ല്ല
ായ ു
 ആ വശ്യമ
 തിര ുവ
 നിര ക്ക
കൊ ലപാതക
സ്ത ക
ബു ദ
 അറ ിഞ്ഞ
എ ങ്കില
വ ്യക്ത
േ ന്ത്യ
ക്ക ുകയാണ
െ  ഇ
ത്ത കന
 ശ രിയ
് പ ാര
ാധ ികാര
ശ് വാസം
ം എല
അ നു
ഹ രിക്ക
ാർ ഥ
 ഡ ിജ
ി എ സ് 
ക്ഷണ ങ്ങള
മുഖ്യമന്ത്ര ി പിണറായി വിജയ
 പെ ട്ര
ക്ക ുട
ക്ക്  വേണ്ട
ത്തിൽ  നിന്ന്
് ന ിയമ
 കൊണ്ട ് 
 വ്യ വസായ
 ഓഫീ സര
ഷ്യൽ  മീഡിയ
ദ ാര
ശ ിക്ഷ
യില ാണ
ം വ ൈ
19 8
 രാജ്യ ത്തെ 
  ഭാഷ
ന ിക
പ ോര
 ക ൗണ
ിര ിക്കുകയ
 ട ിക്കറ്റ
 ദിവസ വ
 പോക ുന്നത
 ചില ര
ൂത്ത്  കോണ
  ങ്ങ
ട ീമ
സ ാമൂഹ
ിയ ോട
 സ ല
 സം വിധ
ം ന േടിയ
യിൽ  നിന്ന
 തന്ന െ ക
 സുര േന്ദ്രന
15 0
സംബന്ധ ിച്ച
െ സുര േന്ദ്രന
5 1
 ലഭ ിക്കുന്ന
ൻ്റ െ 
ചന്ദ്ര ന
ാ  ണ
ജോല ി 
ർ ,
ക്ക േസ
 വ ധ
സി ക്യൂ
ക്ര ൈന
 ഭ ര
 ഏ ത്
ോർ ജ
ീര ിയ
ാണ് ഇ ന്ത്യ
കാല ത്ത്
മാധ്യമ ങ്ങള
ഓ ഫ
ി ഗ
ി ൾ
ക്ക ാൻ
 ക റ
 ഡ ൗണ
 വൈ സ് 
 നടത്തിയ ിരുന്ന
 എന്നിവ യ
ഉ റ
ര ീക്ഷ
 പ ാത
 ക ടക്ക
 ഇ സ്രായേല
ില്ല ായിരുന്ന
 ട ൂറ
സിന േഷന
നിര ീക്ഷണ
സംഘ ട
ധന വ
 പ്രധാനമന്ത്ര ി നരേന്ദ്ര മോദ
 കൃത്യ മായ
ക ോപ
ശ ശ
ൊ രാള
 മാ ർ
റ്റ്  ചെയ്ത
ം എ ന്ത
കോ വിഡ
വൈ റ
 ഫേസ് ബുക്ക
ഏ ത്
ഷ ത്തില
 ഒ ന്ന്
ാക്ക ുകയ
മു ഖ്യ
ിട ുന്നത
ഗ്രസ്  നേതാക്കള
ജന ാധിപത്യ
 ഐ ക്യ
 സൗ ജന്യ
ബ ി 
റ ി 
േ .

ർ മ
ം  തുടങ്ങിയ
് ക ണ്ട
 ഒരു ങ്ങ
ി ത ന്ന
 വ്യക്തമാക്ക ുന്നത
 പോയ ത
ദരാ ബാദ
ച െറ
 മ കന
ഞ്ഞെടു ത്ത
നു മായ
ിറ്റ ല
ഗു രുതര
 വ്യത്യ സ്ത
 സാമൂഹ ിക
7 7
അ ട
ി  പറയുന്ന
 ത ാൻ
 കൊ ല
പര മായി 
മുണ്ട ായ
ഓഫീ സ
 പിന്നീട ് 
,  ആലപ്പുഴ
പ ുറത്ത
 സ ന്ദർ
ം  ഹ
ിച്ച്  വര
 പൊ ല
ി ത ര
ം മ റ
 ഇത േ
ിച്ച് ക ൊണ്ട
ോ  
ൽ  എ
 യ ഥ
 തന്ന െയ
് ആ ണ
അതിന ാല
 ഇല്ല ാത്ത
മുന്ന ണ
പു തു
ം  പറയ
ഇ ടുക്ക
ഗ ്ല
േ ൽ
ത്ത ിക്കുന്ന
ത്ത േക്ക
 ഇ വർ
 റ െ
 സുരക്ഷ ിത
ശര ീര
 ഹൈക്കോട തി 
ഐ .
ഡ ിപ
പ മാന
ബ ിഎ
വ ിയ
ിയ െ അ
 ക ല്ല
 ച ുമ
 സം രക്ഷ
 എന്ന ത്
 ഞ ങ്ങൾ
പ്പെടുത്തിയ ിരുന്ന
ുമായി ബന്ധപ്പെട്ട ് 
മാ ർക്ക
ായ ാണ് 
പ്ര ിയങ്ക
 ശ ശ
മ്പ ത്
ം ക േന്ദ്ര
ം ന ഷ്ട
 മാത്ര മാണ
 മുന്ന ിൽ
ഷ് ഠ
ം വി ള
 വ്യക്ത മായ
അതുകൊണ്ട ് തന്നെ 
 നാട്ട ുകാര
ട ിസ
 എ .
് ക ഴിഞ്ഞ
സി ങ
ലഭ ിച്ചത
െ സു ധാകരന
  രു
ക ോഴിക്കോട് 
ദ ർ
ക്ക ണക്കിന്
 ഇ ളവ
യില ൂട
 മാ റിയ
 റ ദ്ദ
 ഗ ണ
 പ്രതി ഫല
േറ്റ ര
 നേട്ട ങ്ങള
 തിരുവനന്തപുര ം 
 കിട്ട ിയ
കണ്ണ ൂർ
ഭാ  ഗ
 പേര ില
െ മ റ്റ
ി എന്ന ിവര
മറ്റ ു
ജ്ര ിവാള
ഞ ങ്ങൾ
ശ മ്പള
ർ ദ്ദ
 ന ാട
ലീ ഗ
 അദ്ദേഹ ത്തിന്
 സംസ്ഥാന  സര
ിന് പിന്നാല െ 
ു ഡ
 മ േയ
മു ദ്ര
 പോ സ്റ്റ് 
 നിയമ സഭാ തിരഞ്ഞെടുപ്പ
 വിജയ ിച്ച
കൃഷ്ണ ന
 ഗത ാഗത
ധ ്യാപ
മ സ
േ ലിയ
പ്പ ര
ിപ്പ ിച്ചിരുന്ന
് ക േന്ദ്ര
ിഞ്ഞ ാറ
 ഡ ല
വരുടെ  എണ്ണം 
ന്യൂ ഡല
e r
ക ോട്ട
ിയ ാന
 അ ന്ന
 ബ ല
സം ര
ിറ ക്കിയ
 ഗ്ര ഹ
ബ് ബ
രേഖ പ്പെടുത്ത
േ ഡ
്  (
ത്ത ാല
ം  ഡ
ുവ ിന
ം ചെയ്ത ത
 പ്രവർത്ത ന
ഹു മാന
 മണിക്കൂറ ിന
മറ ുപട
  ദേ
പ തി 
മ ില്ലാത്ത
റ ി
വ ി 
്  ഫ
 പ ക്ഷേ
 ല ാഭ
് അ റിയിച്ച
ശന ിയാഴ്ച
ിറ ോസ് 
 കേരള ത്തിൽ
 പോല െ 
 ഇല്ല .

ധികൃത ര
9 9
ദ ുരന്ത
ി തി
 എ വിട
തിര ുവ
് ത വണ
 ബിരു ദ
പ ത്
ുവ െങ്കില
ന്ദ ന
യിൽ  നിന്ന്
ശ്ര യ
പേര ിൽ
പ്പെടുത്തിയ ിട്ടുണ്ട
സംഭവ ത്തില
ഓഫീ സര
ി  സംസ്ഥാന
 ക മല
 ആ ശ
ത്തിന ിടെ 
രാജ്യ ങ്ങള
 വിദ്യാ ർ
ഖ ാന
് /
് പ ുറത്ത
ം ക േരള
കഴിഞ്ഞ  ദിവസം
 തന്ന െ അ
ജി ത്ത്
ഉണ്ട ായ
ക ൃ
മ ഴ
 ത േട
ിപ്പ ൂര
േഷ ്യ
സം രക്ഷ
ം വ ില
ം അ ദ്ദേഹ
ം ആ ദ്മ
 മുഖ്യമന്ത്ര ി പറഞ്ഞ
ുകാര ന
മുന്ന ോട്ട
പ്രതീക്ഷ ിത
മിത് ഷ ായ
ാ  ന
ക്ക ാറ
 ക ാറ
ം  മൂല
 കു ത
ം കുള
ത ാമസ
ബ ംഗാള
യ ുടെയ
വ സര
സ ീറ്റ
ൗ ത്യ
ി  ആര
 സ ിന്ധ്യ
റ്റ ാണ്ട
 ഗ ോപ
ി ക ാണ
ം നടത്ത ുന്ന
ഭരണ ഘടന
് കമ്മ ിറ്റ
 ആഗ്രഹ ിക്കുന്ന
അ റിയിച്ച
ജ െ
വ െച്ച
ീ ന്ദ്ര
 ക മ്പ
ിന്  വേണ്ട
വര ുമാന
 റ െയില
് ന ി
ത്തിന്റെ  പ
 സംഘ ര
 ഇട യ
 ലഭ ്യമാക്ക
ം ഇ ങ്ങന
പ്രതി ജ്ഞ
 അന്വേഷണ  സംഘ
 ശാ സ്ത്ര
 പരിക്ക േറ്റ
െ  ഡ
ിക്ക ുട്ട
 ഇ ദ്ദേഹ
സാ ന്നിധ്യ
 ഇരു വര
 ഡോ ക്ടര
ില െ ക
 പ ുലര
സ്  ആ
ക്കാര ുടെ 
 വര െയുള്ള
യു ക്ത
ൊരു ക്ക
ോഷ ണ
 വീത വ
വിലയിരുത്ത ല
5 4
ക േസ് 
ജ ിയ
ത കര
ബ ിന
ര ുന്ന
 ഉ ദ്ദേശ
 നട ന
ിച്ചത ായി 
 റ ില
 ഇട പാട
 വിന ോദ
5 3
ം  രാജ
ക്ക്  നല
പ്ര സ്താവന
ിപ്പ ിക്കുകയ
മ്മ േള
നി ർത്ത
ബിജെപ ിക്ക്
ിൻ വല
 അംഗ ങ്ങള
 പ്രഖ്യാപ ന
ക രുത
ച ക
ത ൊഴില
 മു തിര
ം ക ോണ
മാക്ക ിയത
 ലക്ഷ ്യമ
 ഭരണ ഘടന
ഇറ ാന
ത മിഴ
രാ ൻ
 ശ ബ്ദ
തിര ഞ്ഞെടുക്ക
 മുഖ്യമന്ത്ര ിയ
 ഗാന്ധ ിയ
 വിവര ങ്ങൾ
ം ലഭ ിച്ച
പിന്ന ാല
വിവര ങ്ങള
ി സതീ ശന
ത ികളുടെ 
ന ുകൂല
ബ ാങ്ക
ൂ ക്ക്
 ക ാന
 എ ക്
 എ യര
ന്ദ ീപ
 കു ത്ത
ദു രിത
 ഗു ജറാ
 ബു ദ്ധിമുട്ട
- ല
ം )
ഉ ന്നത
ജ ൂണ
േ ർക്ക
ിന ായി 
െ പ ല
 ദ ുര
ം പ ാര
 കാണ ാന
മാർ ക്ക്
ഓഫീ സില
 കൊല്ല പ്പെട്ട
a l
 ക യറ്റ
 പ്ര ിയ
 പരി ഗണിക്ക
 നി റ
അവ കാശ
ടെ സ്റ്റ
വ ു
 മ ൃതദേഹ
ത്ത്  
 മു ഴുവന
 പോ ലീസിന
 ഓ ള
ാദ ന
ാണ് ക േന്ദ്ര
 രാജ സ്ഥാന
 ഉറപ്പ ാക്ക
 എന്നി ങ്ങന
ാഷ ണല
പ്രാ ദേശിക
് പരി ശോധന
എഫ് ഐ
ദ ുര
ഹ ിയില
ഹ ോട്ട
ി വിറ്റ
ായ ിക്ക
 മ ോഡ
ദേശ ം നല
തി ങ്കളാഴ്ച
െ പ ാര
 ഹ െല
മര ീ
ലഭ ിച്ച
കഴിഞ്ഞ  തവണ
ബ്ര ിട്ട
സു ഖ
് നട ത്തിയ
 ബ്ര ിട്ട
ഡി സം
 കരു തിയ
 സ്പ ീക്ക
 അടിയ ന്തര
ുള്ള ില
ുറ പ്പ
ിന്ന ീട
ിട ത്ത
ദ്ധ ്യ
യു ദ്ധ
ം ത േട
 ശതമാന വ
ജീവിത ത്തില
 വാഹ നങ്ങള
 ദു ബായ
പ്രസിഡ ന്റ് 
 കണ്ണ ൂർ
4 00
പ ഞ്ചാബ
ല ിന്റെ 
ി  പോലീസ് 
േ ഡ് 
 പ ഴയ
 ക ോഴ
ായ ി പ്ര
 അ ണ
ുണ്ട ായത
 ല ാല
ഇത ിൽ
ം വ ലിയ
ുകൾ ,
 സ്വദേശ ി 
ജനങ്ങള ുടെ 
ബുദ ാബ
- ാം
ത മ്യ
വ റ
സ മാധാന
 ന ൂറ
ം  മാറ
 ശ ോഭ
പ്പെട്ട വര
 അത േ
കേരള ത്തിലെ 
 തീരുമാന ിച്ച
അതിന ിട
നിയന്ത്ര ണ
ത ിൽ
ഴ ി 
സ ോഷ്യല
 പ ിണറായി വിജയ
ഇത ോടെയാണ് 
 വീ ഴ്ച
ാബ ാദ
ം ച ോദ
 നീ ണ്ട
ഒ ര
ക ീഴ
പ ് 
 ന ന്ന
രാ ഴ്ച
ത്തില ായിരുന്നു
ാക ുന്ന
 രാ മ
 പരി ചയ
ിച്ചിരുന്ന ില്ല.

ാണ് ക േരള
സെ ക്രട്ട
സ്ഥിര ീകരിച്ചത
ബ്ല ിക്
 വർ ധ
 ദു രിത
 അഭിന യ
ദ ാസ
ഫ ിയ
ങ്ങ ോട്ട
പ്ര കടന
 ബ ാ
ോഗ ്ര
വേ ണ
 കു മാറ
ചെയ്ത ിരുന്ന
 കാര്യ മാണ
 പോക ാന
് എ ന്ന്
ം ഉണ്ട ായ
ിന്റെ അ ടിസ്ഥാന
7 2
ിയ ിട്ട
 യു എസ് 
ീന ിയര
ണമെന്ന്  ആവശ്യപ്പെട്ട
ലക്ഷ ്മ
 പാല ക്കാട
ാപ്പ ന
 ആരംഭ ിച്ച
 സംര ക്ഷണ
 പ ാസ
 സ് വർണ
 ജ െ
െ ക േരള
ോട്ട ുകള
കള ിലെ 
െ ന ിന്ന്
പാല ക്കാട
ാവാ ക്യ
ഇ വ
റ െ
ോ ന
 പ ിറ
 സ ാങ്കേതിക
 ബ ാങ്ക്
 മു ഹമ്മദ
ിച്ചത െന്ന്
ിച്ചത ോടെ 
 ജന ത
കേരള ത്തിൽ
മാക ുന്ന
 ഗാന്ധ ിയുടെ 
ഉ ള
ബ ില
വ ിന്ദ
ാ ന്യ
 അ പ്പ
വാ ർത്ത
 എന്ന ാല
ം ത െ
 മാത്ര ം 
 സമയ ത്ത
 കാ സര
ഉ മ്മന
ട ത്ത
ണ ൽ
 പ്ര വാസ
 ഇ വരുടെ 
് ക ുറ
അത ിന് ശേഷ
ം ആ ദ്യ
ാണ് സ ാധ്യത
 തട സ്സ
 സമ്മ ത
6 6
റ ി ക
ശ ബരിമല
ാ ശ്വാസ
െ  ഒരു
പ് പ്
 വ ടക്ക
െയ ർ
വി ശേഷ
 സ്വ പ്ന
െ ആ യ
 സഹ കരണ
തെ റ്റ
തെ ളിവ
കേസ ില
7 8
പ കര
ഷ ാജ
ു  പറഞ്ഞ
ു  എന്ന്
 ത ാത്
വി ചാരണ
 ര ൂക്ഷ
ി സ ി സ
 കല ാപ
 പ്രാ ദേശിക
റ ു
ുക ,
വി ഷന
് പ ോയ
 പരി ശീലന
 മന്ത്ര ിസഭ
ൈക്ക മാന
സു പ്ര
ഉ റപ്പ
എ ടുത്ത
ഏ ത
ധ ി
ബ ാ
 മ യ
രു ക്ക
ത്തിന്  
 ഭ ീ
ംബ ർ 
കൂ ൾ
പൊ ലീസ് 
ഒ രിക്കല
ച െല
ൻ  ക
ക്ക േട
ത്ത ാ
 ആ ശ്വാസ
 വര ാന
ാക്കിയ ിരുന്ന
 കാണ ുന്ന
 മാറ്റ ങ്ങള
സ്വദേശ ി (
ായിരിക്ക ണ
ദില്ല ിയില
 ഉൾ പ്പെട
ക ാണ
ച ിത
ഷ ങ്ങള
 ക ൃഷ
 അ ശ
 അ ത്യ
 ത ർക്ക
 മാ സം
ം വ രു
ജന റല
 ആയ ിരിക്ക
വിട്ട ത
 എം എൽഎ
ഗള ൂരു
 വേള യില
ദ ക്ഷിണ
മ ോഹന
ൈ സ് 
ത്ത െത്ത
ിയ ത്
 എ ംബ
 എ ളുപ്പ
 പ്ര തിനിധ
 ല ോട്ടറ
ാക ൃഷ്ണ
ി സ ർ
കാര ിക
െ എ ല്ലാ
മുഖ്യമന്ത്ര ിയ
 തിരിച്ച റിയ
സിപ ിഐ
ത്തിനുള്ള ില
ഇതിന് പിന്നാല െയാണ് 
ത്ത േയ
ല്ല ോ
 ഒ രാൾ
 സം ഗ
 ഗ വ
ം വ ളര
ം നട ക്ക
 പറയുന്ന ുണ്ട
ം ഇ ട
 പര മാവധ
 ആരോപ ണങ്ങള
ഇതിന ിട
ിക്കുന്നതിന ുള്ള
 മഹ ാ
 സമ്മേള ന
  ർ
a n
മ െയ് 
ൈ :
രാ വ
ുമ ു
ാവ ുന്നത
മു മ്പ
 റ ിസ
 ഗ െയ
ത്തിന്  പിന്നാല
 ഡ ിസ
ം വ േ
 ബിഗ് ബ ോസ് 
ഭ ുത
ശ ൈല
സ ികള
 നട ക്കുന്നത
അത ുപോല
മയ ുടെ 
്യമ ുണ്ട
ത്തിന്  വേണ്ട
 ഹ ിന്ദു
 സംസ്ഥാന ത്തെ 
യ്ക്ക്  
 വില ക്ക
 വ്യ വസ്ഥ
്യൂ ഹ
ത്തിലൂട െയാണ് 
ഇന്നല െ 
 പൈല റ്റ
ക ത്ത്
ഷ ത്തെ 
ി സം
രു മായി 
് ക ാണ
യിൽ  
 മന്ത്ര ി 
മാത്ര മേ
പരി ഹാര
 വയസ്സ ുള്ള
ച െ
ഷ ം 
ക്ക ാദ
ദ് വേഷ
മ്മ ൻ
് ക െ
 ഏ തെങ്കില
ി അ റിയ
തിക ര
 തന്ന െയാണ
മാത്ര മാണ് 
മുന്ന ില
ഉണ്ട ായിരുന്ന
പോ സ്റ്റ
് കേസ ുകള
 അന്ത ാരാഷ്ട്ര
 പെട്ട െന്ന്
ഖ ിൽ
 അ ർ
ുകയ ോ
ിവ ാരണ
 മാ തൃക
്യമ ുള്ള
ീഷ ൻ
 സുര േന്ദ്ര
തിരഞ്ഞെടുപ്പ ് 
 വിഭാഗ ത്തില
ട് വീ
 സുഹൃത്ത ുക്കള
മ ണ്ണ
റ ിപ്പോർട്ട് 
ള ിത
ൊ ലീസ
ോ റിയ
്യ ങ്ങള
 വ ി 
 ന ശ
ം  തുടങ്ങ
ായ ്മ
 മ െയ് 
 ച ാനല
ോട ക
ുവ ിനെ 
ിക്കുന്നത െന്ന്
 ഏ ജൻസ
 പുറത്ത ുവന്ന
ജിസ്റ്റ ർ
 ട് വീ
 സമാന മായ
,  ച
ക ോര
ഹ ിന്ദു
 സ മാ
 ത ി
ദേശ ങ്ങള
 ഡ യറ
് സ ു
ം ഉ പയോഗ
യ്ക്ക ായി 
മുണ്ട െന്ന
 കാരണ മായ
ൗര ത്വ
 കുറ്റ പ്പെടുത്ത
കുന്ന േര
 മണ ിക്ക്
 ഓഫീ സ
 ഡി എ ഫ് 
വേദ ന
,  ഇടുക്ക
ജ ി 
ട ിക്ക
ൂ ള
ാണ െന്നാണ് 
വാ ക്സിൻ
ന്റ െയ
ം വ െച്ച
പെ ഷ്യല
 കഴിഞ്ഞ  ദിവസം
വൈ ദ്യ
എന്ത ായാല
ം കണ്ട െത്ത
െ നിര വധ
െപ്പ ോല
6 2
വ െറ
 ക ശ്മീര
 സ ങ്ക
ട്ട ാര
ായ ്
ിന ിര
 ഉ യർത്ത
ികള ാണ് 
സി ക്യൂട്ട
ം വ െ
ബന്ധ ന
പ്പോഴ ാണ് 
് നട ന്ന
 സ്ഥല ങ്ങളില
 ധന മന്ത്ര
,  ന
ന ിൽ
 വ ന്ന്
ാണ ു
ല്ല ാതെ 
 നട ന്നത
ം ക ര
 ആര ോഗ്യമന്ത്ര
ി എ ന്ന്
ം സ ു
 ചെയ്യ ുന്നത
 ധ ാര
ിരിക്കുന്ന ത്
ഇട തുപക്ഷ
ഹൃ ദയ
സ്വാ തന്ത്ര്യ
 വ്യാപ ക
ലൈ ൻ
ഞ്ചിന ീയ
ക പ്പ
ഗ വര
ത ുക
ബ ാര
ോ ശ
 ക പ്പ
 ത ിയ
 ബ ീ
ുമ ൊക്ക
 ശ േഖര
ഇത ു
യുടെ  പ
മുന്ന റിയിപ്പ
ത്തർ പ്രദേശ
ഏ തെങ്കില
ജ െഡ
ര മേശ് ചെന്നിത്തല
സ ുല
േ ത്
ി  യു
ണ്ണ മായ
 ഹ ൃ
ം ഇ ന്ന്
ംഭ രണ
ിക്കുന്നതിന ായി 
സ്വാ മ
െ കാണ ാന
6 4
ഹ ്വാന
്യ ു
ുകയ ായിരുന്നു
 സെ ക്ക
 പൊ ട്ട
ോഹ ിത്
ഇവര ില
 ഉത്തര വ
 സൗകര്യ ങ്ങള
 കർ ണാടക
 ഭേദ ഗ
യ ായിരുന്ന
േ പ്പ
ി ന ിർ
ി ക ണ്ട
ം അ ംഗ
ി ത ന്നെ 
 കണ്ട െത്തിയത
ർച്ച ് 
ഴ ു
സ േവന
ഹ ാറില
ൂ സ
ൾ ക്ക
സ്  എന്ന
ിക്കുന്ന ില്ല.

തിയ െ 
ം സ ൃഷ്ട
 ജന റൽ
 തമ്മ ിൽ
പ്രാ ഥ
ാതിര ിക്കാന
ണ വില
ര സ്യ
ൻ റ
്യ ന
ിക്ക പ്പെട
ിവ േഗ
ത്തിയ ായ
ം പ ൂർ
െല്ല ോ
ൊന്ന ുമ
 വ്യക്തമാക്ക ിയിരുന്ന
 എന്ത െങ്കില
വെള്ള ിയാഴ്ച
ം രാശ ിക്കാര
രോഗം ബാധ ിച്ചത
ഞ ായറാഴ്ച
മ ുട
 ത ക
സ് ത്യ
 ഉ ല
മാണ ് ന
മ്പ ോഴ
എന്ന ിട്ട
ൂർ  
ീഷ ് 
 തിരഞ്ഞെടുപ്പ ് 
രോഗ ം സ്ഥിരീകരിച്ച
 സഹ ിത
 കോളേജ ില
വീട്ട ിൽ
മൊ ത്ത
 ബാന ര
ഖ ് 
പ ുഴ
ടു വിൽ
 ച ൗ
ുമ തി 
ോർ ഡ
ംബ ുല
ം മു ന
 കമ്മ ീഷന
നമ്മ ള
ം ശ
ക ൊണ്ട
ച്ച യില
 ച െന്നിത്തല
 വി ദ്യ
മു ക്ക
 പോ സിറ്റീവ
ം ക ുട
സ്റ്റ ം
ാർ ത്ഥികള
സ്വ യ
 വീ ഴ
ുകൾ ക്ക
ണമെന്ന  ആവശ്യ
രോഗ മുക്ത
 നടത്ത ാന
 തീരുമാന ിച്ചത
 പരാ തിയില
 കൈ മാറിയ
് എന്ന ിവര
 മ തിയ
 ബ ില്ല
സി  പി എ
 സാഹചര്യ ത്തിലാണ് 
 ടെ സ്റ്റ
ഗ ് സ
വ ിര
ി വിട
ങ്ങള െയ
് പ ിട
ംഗ ള
യോഗ ത്തില
കൊ ല
 അത ോറിറ്റ
 പോല ുള്ള
 ഇത ിന്
 നഗര സഭ
ഇ ന്റ
ഉ യർന്ന
ജ ാമ്യ
േ ം
ിന ാല
ഞ്ഞ ു
 ആ യുധ
ാല ക്കുട
ിക്കുന്നത ില
 തൃ ണമൂല
വേണു ഗോപാല
ഫ റ
 ആ ധ
 നി റഞ്ഞ
സംസ്ഥാന  സര
 ആശുപത്ര ിയിൽ
 മണ ിയ
 പ്രവേശ ിപ്പിച്ച
് പോ ലീസ് 
 വ്യത്യ ാസ
ഹൈക്കോട തി 
ാപ്റ്റ ന
സ്റ്റിറ്റ ്യൂട്ട
" ,
6 3
ബ ാങ്ക്
ല ംഘ
ട്ട യ
ിച്ച വര
 ത ുല
 പ്ര തി 
 നിന്ന ാണ് 
 ഹ ിന്ദ
ോർ ഡ് 
 സെ പ്റ്റ
 രണ്ട ് പേര
ബാധ ിച്ച് 
ി ബ ാല
 സ്ഥല ത്ത്
 നിലപാട ് 
, പ ത്തനംതിട്ട
ി '
ി പ്പെടുത്ത
 വ ൃ
ട്ട െ 
പ്പ റ്റ
റ്റ ുപ
 എ സ്പ
 ഇ ത്രയ
ാധ ാന്യ
ിയുടെ  പ
മാര ായ
ത്തിന്റെ  ഭാഗ
ങ്ങളില ൂട
 നിര ക്ക്
ാക്കിയ ിട്ടുണ്ട
 സ്ത്ര ീയ
 വിശദ ീകരണ
അടിസ്ഥാന ത്തില
മൈ ക്ര
എ ട്ട
ഏ പ്രില
ത ാൻ
ഥ ുന
ീ കൃത
 ആ ലോച
 ഭ ക്ഷ്യ
െ ന ടക്ക
ബിജെപ ിയില
ർത്ത ാവ
ത്തിലെ  ഏറ്റവ
 അനുമ തി നല
വ്യാ ജ
ന േട്ട
ൈ വര
് സ
ൗ ദ
 വ ട
ിക്ക ു
 അ ങ്ങന
 ത ു
വര ുന്ന
 പ്ര സ
 വി ചാരണ
മു ഴുവന
െ ക േന്ദ്ര
ി ക ോണ
 മുന്ന ോട
ം പ്ര കട
 നേതാവ ് 
അതിന ിടെ 
 ഉപയോഗ ിച്ച് 
പ്പറ േഷൻ
 ചേർ ന്ന
എ ത്തിയ
ക ഥ
ട ത്ത്
ശ ങ്കര
ഹ ാറ
െയ ുടെ 
ല്ല െന്ന്
ുകയ െന്ന
െ അ റിയിച്ച
 നിര ീക്ഷ
ുന ിക
കഴിഞ്ഞ  ദിവസം 
 പര ീക്ഷണ
പ്രതിക ര
വകുപ്പ ് 
ഇ സ്രായേല
ച െറിയ
യ െയ
റ ോബ
 പ്ര യ
 പ്ര ണയ
മ് പ്ര
 സെ ല
ഗര സഭ
തി ന ട
ഗത ാഗത
 ത മിഴ്
ിജ ു
മാണ്  എന്ന
െതിര ായ
 നി ങ്ങൾ
 നി ർത്ത
ത്സ ാഹ
 പത്ര ിക
പ്രാഥ മിക
ദ ൂര
ൈ നില
മായ ാണ് 
 ര മേശ് ചെന്നിത്തല
 ഭ ീകര
സിന െ 
സംസ്ഥാന ങ്ങളില
ൂറ ു
 നൽക ുന്ന
 അംഗ ീകാര
കർ ക്ക്
 ഉൾ പ്പെടെയുള്ള
െ പിട ികൂട
8 8
ഠ ിന
യ ോടെ 
റ ുക്ക
ക് രാ
 ന മ്പര
ങ്ങ ാട് 
 മ ുട
 അ യാള
പ്ര ദ
ാവ ുന്നതാണ
 റ ാല
ബന്ധ ുക്കള
മന്ത്ര ിമാര
ം മ ന
19 7
അ ന്വേഷ
ആ രാധ
ിയ ോട് 
്യ ാണ
ച്ച ക്ക
ിന ോട
 ത ോമ
 രാ വില
ഗ്രസ്  നേതാവ
ട്ര െയിന
 ഇട പെട്ട
ം ആ വശ്യ
ികളുടെ  എണ്ണ
േണ്ടത ാണ
നേതൃത്വ ത്തിൽ
ി മു തല
തുമ ുന്നണ
 പീഡ ന
ഇ വർ
വ ിക
 സ ഖ
ിക ടക്ക
ാവ ല
 മു തിർന്ന
ത്തിന ൊപ്പ
ോധ ്യ
ാണ് ഇ ന്ന്
 തയ്യാറ ാക
 പൗര ത്വ
 കിലോമീറ്റ ര
ജ ുന
ള ിപ്പ
ഴ ക്ക
െ ണ
 പ േജ
മാ പ്പ
 മ കള
 അ സിസ്റ്റ
സ് ക
ടിയ ന്തര
യ്ക്ക ു
 പൊ ള
ി ത ോമ
ി ആ വശ്യപ്പെട്ട
 സിന ിമാ
 സി ദ്ദ
 കമ്പന ികള
യോ ജന
അ ങ്ങനെ 
ക ോട് 
ൽ .

 ക മന്റ
ം  ട
 എ ങ്ങന
 പ്ര ാധാന്യ
 ആ ക്ഷേപ
മു തിര
തി 

 റ ോയ
് ന േതാക്കള
ം വ ാ
ത്ഥ ിയ
ം ഉ ള്ള
ഷ്യ ാന
 കേരള  കോണ
സ്ല ാമ
 തെളിവ ുകള
 ആത്മ ഹത്യ
,  ജ
ശ ങ്ങള
േ ഡിയ
ി  ക്ക
 പ്ര സാദ
 ബ സ് 
 ഫ ണ്ട
സ്വ പ്ന
 ഷ ോ
 തന്ന െ പ
 ഇറ ാന
 താര ങ്ങള
 തുറ ന്ന്
 രാത്ര ി 
 പ്രവ ൃത്ത
 സാമൂഹ ്യ
ഇ ൻ
ബ ഹ
മ ിച്ച
ര ജിസ്റ്റര
ൂ  എന്ന
ം  തീരുമാന
ുക ു
പ്ര തി 
 ജ യില
ിട ക്കുന്ന
 ഭ ിന്ന
 വെ ച്ച് 
 രോഗ ികള
ഇതിന ായി 
ക്കെതിര ായ
 ക്ല ാസ
ം '
ആ ളുകള
് സ് 
ക്ക ഴിഞ്ഞ
ിയ ോജ
ച്ച ിത്ര
ം  ചെയ്ത്
ിരുന്ന ില്ല.

 ജ ോസഫ
 ര ജിസ്റ്റര
ത്തിൽ  നിന്ന
ം വ ർ
വേഷ ണ
ബി ള
ം മു തൽ
 അധികാര ത്തില
യ െന്ന
ത്ത െ കുറിച്ച് 
 വ ൻ
രാ ട
 ഇ വ
ക്ര ൂട്ട
 ഹ ർജ
വേ ഗ
 മുഖ്യമന്ത്ര ി 
ം ചെയ്യ ുന്നത
 സംസാര ിക്കുകയായിരുന്നു
ക്കാർ ക്ക്
 ഇല ക്ട്ര
എ ത്ര
ദ ല
 തിര ിക
 ഓ ട്ട
ം എ ല്ലാ
 സ്വദേശ ിയായ
് വ ന്ന
ുകയാണ െന്ന്
ം വി ട്ട
ധാ ന്യ
 തോ തില
നിർ ദ്ദേശ
ജിന ീയ
 മുഖ്യമന്ത്രി പിണറായി വിജയ ന
e s
ഇ ദ്ദേഹ
മ മത
മ ക്കള
റ ക്ക
ശ ൂർ
ക്ക ത്ത
 പ ിര
ിഎ സ
ർക്ക ാറ
ം ത ോന്ന
പര ോധ
ാണ് ഇ ക്കാര്യ
ോൺ ഗ്രസ
ട് വിറ്റ
 അഡ ്വ
െല്ലോ  അല
ആ ശങ്ക
ഇ ല
ഒ ട്ട
മ ദ്യ
യ ിന
ാ ന്
േ ടു
്യ മാണ
 സം സ
ക്ത ാവ
 പറഞ്ഞ ത്
ലീ സില
യുടെ  അ
െ അ ദ്ദേഹ
 ഏ ർ
ി വ െച്ച
 മന്ത്ര ി അ
ീര ിക
ിണറ ായ
 ഉത്തര വാദിത്ത
 സി ദ്ധ
സെ ന്റ
ൂൺ  
2 50
ഉ ദ്ഘാടന
ത ുര
ധ ാരണ
ാ റ്റ് 
ങ്ങ ല
ാര ംഭ
 ഏ ത
 പരി ഗണന
 കോ ർ
മന്ത്ര ിസഭ
 സ്ഥാപന ങ്ങളില
8 9
ദ ാസ് 
വ ത്
ിര ീട
രാ ഹുൽ ഗാന്ധ
ിവ യ്ക്ക
ക്ര ൂര
, ക ണ്ണൂര
 ബന്ധ പ്പെട്ട
ു. .

ം സ്വദേശ ിനി (
 മാന സിക
ാത് സംഗ
എ മ്മ
എ ന്ത്
സ ഞ്ച
 സ ീ
ട്ട ിക്ക്
ിച്ച പ്പോള
ാവ ർക്ക
 പരാ തിയ
ബ്ര ാഹ
,  എ
ിച്ച ിട്ടുള്ളത
ാണ്  സംഭവ
 മു ദ്ര
 മു ല്ലപ്പള്ള
് പ ദ്ധ
 ഫ ില
സിന ിമയ
ാണ് ഇ ത്തര
കിയ ിരിക്കുന്നത
, ക ോട്ടയം 
 മൊ ബൈല
 കില ോ
 കഴ ിവ
 സൗദ ി അറേബ്യ
 തീവ്ര വാദ
ത് പ
 പ്ര ക്ഷോഭ
 ദ ശ
ഇത െല്ല
 വര െയ
 ചെയ ്യാൻ
ി ക ോട
 ഡ ൽഹ
വീ സുകള
 തെ ല
മുഖ്യമന്ത്ര ി 
 മേഖല യിൽ
ഗു രു
പ്രധാനമന്ത്ര ി നരേന്ദ്ര മോദ
ആ ള
ല ിന്
 സ ാഹ
 വ സ്ത്ര
 പ്ര കാശ
 ബ ാബ
 ദ ക്ഷിണ
 നി ശ്ചയ
െ കുറ ിച്ചുള്ള
മൂല ്യ
 ആറ ് 
നീ ള
ാവശ്യ പ്പെട്ട
ദ ിവസം
ധ ീര
ാ ഘാത
ീ ത്
ി  രാമ
 ന ിതീഷ
സ് തീ
രു ണ
ം ക ൂടുതല
യ്ക്ക ുള്ള
ം മ ണ്ഡല
നിയമ സഭ
ഇക്കാര്യ ത്തില
ഗ ർ
ത ാഴ
മ നുഷ്യ
ൂ ം
ത്ത റ
 അ ത്ര
രാ ഘ
 ച ാര
ത്തിയ ില
ിച്ചു  എന്ന
ിന് പിന്നാല െയാണ് 
 ക്ല ാസ് 
വിശദ ീകരണ
 നെ ഗറ്റീവ
ഇന്ന ത്തെ 
ഉദ്യോഗ സ്ഥ
)  
അ ന്ന
ആ ഭ്യന്തര
ിച്ച െന്ന
സ് തി 
ത്തില േക്ക
 ര ക്ത
േത ര
ം എ ല
പര ീക്ഷ
ം നടത്ത ാന
 എഴ ുതിയ
ച ിന്ത
ഞ ങ്ങളുടെ 
ത ക
ബ ജ
മ െടുക്ക
ാ ഡ
ൃ ഹ
 സ ൂപ്പര
ായ ് 
 അ ജ
സ്ഥ ത
 ഡ ീസ
ിസ ിപ്പ
ാപ ാത്ര
 ഷ ാജ
ോമ ിന
 വിഷയ ത്തിൽ
ഭാഷ ണ
 ചോദ്യ ം ചെയ്യ
 വായ ്പ
,  വയനാട് 
7 9
ണ ം എന്ന്
പ ട്ട
ൂ ഡ
ൊ ടുത്ത
ം  ഓ
ം  ആര
ിട്ട ില്ല
ം ന ിർ
ി വ ന്നത
ിക്കുകയാണ െന്ന
 അഭി മാന
 ട് വിറ്റ
 നോട്ട ീസ് 
1 20
യ ോജ
ാ ദ്യ
ീ ൽ
േ യ്ക്ക്
ത്ത ിക്കാന
 പ ിസി ജോര
ാണ ്ഡ
സം വിധ
മയ ്യ
ം ന ിയമ
 ചെയ ്യാ
 ഏ പ്രില
ിരു ന്ന്
 വോട്ട ര
 അതി ക്രമ
കൂള ില
മിന ല
 വരു ത്ത
ന ോക്ക
ി വിടങ്ങളില
ു  ക
വി ടു
വി മർശന
 ജ ്യ
സി ക്
െ ന േരിട
 നിയമ സഭാ
നേത ാവ് 
ി മ ത്സര
െ മ റ
കുട്ട ിയുടെ 
 സമ ർപ്പ
 സാധിക്ക ില്ല.

 പ്ല ാന
 നായ ര
 ഒര േ
  ഛ
റ ുകളില
വര െയ
ഞ്ഞ ിര
ചെയ ്യാൻ
 അത ൃപ്
മുണ്ട ായത
ഇന ി 
 എന്നിവര ാണ് 
സിറ്റ ിവിറ്റ
 ദൃശ്യ ങ്ങള
,  പാലക്കാട് 
ത വണ
ഭ ജന
െ റ്റ് 
ോ ടു
 പ ാക്ക
 പ ിണറായി 
ിക്ക ുമ
 എ തി
 എ യർ
സ് ഗ
ക്ഷ ൻ
പ്ര തിയ
യില െത്ത
തി  പറഞ്ഞ
ന്റ ണ
ിജ ന
ം ത ടയ
 പര സ്പര
 വഴ ി 
 മര ുന്ന
 ചെല വ
6 1
 ക േള
 ജ ാത
ാത്ത ത
 വെ ബ
 യു വാക്കള
 എത്ത ിച്ച
സ്ത്ര ക്രിയ
കുറ ഞ്ഞ
ആ ല
മ ത്സ
റ്റ ിൽ
 ബ ിന
ുറ പ്പെടുവ
 ഗ ൂഢാലോചന
 ഹ ോ
അതേസമയ ം സ
 തുട ങ്ങിയത
ഇന്ത്യ യിലെ 
 വകുപ്പ ിന്റെ 
 എത്തിയ ിരുന്ന
പ്പ് 

,  തൃശൂര
റ െക്ക
ൂ നിയ
ിക്ക ര
ില്ല െങ്കിൽ
 ഒ ക്ടോബ
മു ള
സ്ഥാന ത്ത്
ീകര ിക്കുന്നത
ം ന േരിട
നു ബന്ധ
് അ ംഗ
 നില നില
 കേന്ദ്ര ങ്ങളില
ബ്ര ഹ
 കര ാര
 ബന്ധ ുക്കള
കൂ ളുകള
കോട തിയില
െക്കുറ ിച്ചുള്ള
 മാന ദണ്ഡ
ന ി 
ാ കു
ി ഷ്ട
ക് വാ
ന്ന ദ്ധ
 എ ത്രയ
രു മെന്ന
ിന്റെ  ഭാഗമായി 
 നട പ്പ
ചെയ ർ
ി ക േരള
സ്ത വ
 തുറ ക്ക
ളി ത്
െ നട ന്ന
 കരുത ുന്ന
 മാത്രമല്ല ,
ദൃശ്യ ങ്ങള
6 00
പ തിന
ു  കൊണ്ട
്  ല
 വ ികാര
സ്  സ
തി ഷ
 ഹ ൗ
 കാര്യ മായ
മാക ുന്നത
ി സ്വദേശ ിനി (
 കിട ക്ക
ിനുള്ള ില
 സഞ്ച ാര
7 1
അ പ്പോള
ഗ ് ക
ന ായി 
യ ാറ
ഷ ിപ്പ
ു  
ക്ക ോ
 ച ുറ്റ
 ജ യിലില
ിക്കുന്ന ുവെന്ന
യു എസ് 
ാണ് ഇ ത്
, ക ാസര
ബു ധനാഴ്ച
ം ഉണ്ട ായിരുന്ന
ുട്ട ന
സ്പ ീക്ക
 അറ സ്റ്റ് 
ഭാര ത്
മഹ ാ
 നിക ുതി 
 മണിക്കൂറിന ിടെ 
 ഹൃ ദയ
7 4
ത്ത ീ
 പ ി
 ന ാണ
രാ ക
 ജ നുവരി 
ിട ിവ
 റ ഹ
 കേന്ദ്ര ങ്ങള
ബിജെപ ിയ
ി മ ുന്ന
 സു ധാകരന
 വോട്ട െടുപ്പ
പരി പാട
 സർ ക്കാരിന്റെ 
 ഭാഗ ങ്ങളില
 പത ിവ
,  കൊല്ലം 
ച ൊവ്വാഴ്ച
ജ സ്റ്റിസ് 
ത ങ്ങള
ബ ങ്ങള
ശ ോഭ
 പ ാട്ട
 ക യറിയ
ിക്ക ുമ്പോൾ
 പ്ര േക്ഷ
 എന്ന ാൽ
ാത ിരുന്ന
 കു ള
അതേസമയ ം അ
 ബിജെപ ിയില
 എത്ത ുന്ന
െ മ ത്സര
കൂട ിക്കാഴ്ച
 പ്രകാര ം 
വ്യ ക്തി
 പ്രശ് നങ്ങള
മാത ാവ
ഭിന യ
ഭിന ന്ദ
രോഗം സ്ഥിര ീകരിച്ചത
ത ീയ
ര മായ
സ ൈനിക
 പ്ര ൊ
 പ്ര സിദ്ധ
ുവ െച്ച
ൂര പ്പ
ി പ ാർട്ട
പ്പെട ുന്നുണ്ട
ബന്ധ ിത
െത്തിയ ിട്ടുണ്ട
 ഇട ത്
മുള്ള വര
െഡ ്ഡ
 എന്ത ുകൊണ്ട
െയ് ന
 ജനങ്ങള ുടെ 
 ഇടപെട ല
സമ്മ േള
രോഗം സ്ഥിര ീകരിച്ച് 
8 5
ഇ ഷ്ട
ത ങ്ങളുടെ 
ബ ോള
വ ്യൂ
ിയ ർ
ം  തുട
ാര ീരിക
ാന ാവ
ങ്ക ണ
െ ക ൈ
ാക െ 
 തിര ക്ക
 തിര ഞ്ഞെടുക്ക
ഒരു പാട
ി ജ ീവ
ട്ട്  ചെയ്യ
രോഗ ികള
 മേഖല യിലെ 
, ക ോഴിക്കോട് 
ന്യൂ നപക്ഷ
 ഇറ ങ്ങിയ
ഭ്യ ർത്ഥ
ബൈ യില
 ശ്രദ്ധ േയ
 നടപടി സ്വ ീകരിക്ക
ബ ദ്ധ
യ ാതൊരു
വ തര
് ്
ത്ത ിച്ച
വി ദഗ്
ഞ് ജയ
 ച െന്നൈ
ാക ുന്നത
സ്വ പ
ഗ്രസ്  പ്രവര
 സാധ്യത യുള്ള
ശ്ചാത്തല ത്തിൽ
സംര ക്ഷണ
ദ ാഹ
ിക്ക ില്ല.

ം  -
 മ ധ്യപ്രദേശ
 സ് നേഹ
സ്ഥ ാൻ
മാന ദണ്ഡ
മേ ട
 ദിവസ ത്തെ 
 എതിര െ 
പോ ലീസ
 ചടങ്ങ ില
പറയ ുന്നത
ി ജയ രാജന
- ന്
ഗ മന
ഡ ോള
ഭ ീകര
്‍ )
െയ ിൻ
 ച ിര
പ്ര സംഗ
ുവ ില
രി ഭാഗ
വേ ല
അതേസമയ ം പ
സില േക്ക്
ുവര ുന്ന
ചില ര
ഓഫീ സ് 
വ്വ കലാശാല
 കൊറോണ  വൈറസ് 
ജില ന
അ ക്രമ
ഫ ില
ി  വിജയ
 മ ധ്യ
ാല ിക്കുട്ട
 സ്വ പ
വീ ന്ദ്ര
ിമ ിറ്റ
ഷ്യ ന
ം ആ ളുകള
 ഞ ങ്ങളുടെ 
 നടത്ത ുന്നത
വന ിതാ
 വകുപ്പ ുകള
 പരാ തി 
ാണ് സ ു
നേര ത്തേ
വൈ ക
 കണക്ക ില
ഡ ിസ
സ ബ
ീ പ്പ
ത്ത രാ
ി  വീ
വി സ
വി ശ്വസ
ുള്ള ത്
 ര ഹസ്യ
 മു ഹമ്മദ് 
ീകര ിക്കാൻ
ടക്ക ം 
് സ െക്രട്ടറ
 കോട തിയ
് വ ാര
െ വ ൈ
് പ്ര ഖ്യാപ
ഘട്ട ത്തില
 ഖ ാന
അതുകൊണ്ട ് 
 ശര ീര
 പരാജയ പ്പെട്ട
സമ്മ ത
ഒ ക്ടോബ
ഫ ര
യ ോട് 
വി മത
 ബ ോര
 റ ോഡ് 
രാജ്യ ത്തിന്റെ 
 ആയ ിര
വെ ളിപ്പെടുത്ത
 തയ്യാറ ായ
് കു മാർ
 ബൈ ഡന
 പൊല ിസ് 
ാണ് സാധ്യത .

, പത്തനംതിട്ട  
ട ിപ
ഷ ാദ
െ ല്ലാ
ർ ത്തിയ
 വ ാത
 അ മ
ിന േയ
 വി ചാര
െ ക ൊല
നങ്ങള ുടെ 
 പരാ മർശ
ിസി സ
 പരിപാട ികള
 കീഴ ില
പറയ ുന്ന
ാരോഗ്യ  സംഘടന
ക ടുത്ത
ഗ ില
ാ ക്
രാ ർത്ഥ
ിന്റെ  ഭാഗ
 ഉ ദ്ഘാടന
ിയില ായ
ാത ായ
 പരി ഹര
് മ ണ്ഡല
 ആരോഗ്യ  പ്രവര
 എന്നി വരുടെ 
 വ്യാപ ന
ം  സര
ഉ ടന
ക ർഷ
ജ യില
ത ൊട്ട
യ ാദവ
വ െട്ട
ാ ,
ി  -
 ക ോട്ട
ിച്ച ുവെന്ന
 അ ങ്ങ
മു ഹമ്മദ
് ക ിട്ട
ഇത ോട
ി സ ുര
 നിയമ ങ്ങള
 രൂപ യുടെ 
 സംഭവ ത്തിൽ
ി എന്ന ിവ
 കള ക്ടർ
മായിട്ട ാണ് 
 ആന്റ ണ
 അദ്ദേഹം കൂട്ടിച്ച േര
ഇ ങ്ങന
ക ൂടുതൽ
ട ന്ന്
ൻ 

ന് തിര
ുക െട്ട
 പ്ര വാസികള
ില്ല േ
 വി ശേഷ
ായി  മാറ
 ദ ീപ
 അവ ള
 സീറ്റ ുകൾ
 വന്ന ിട്ടുണ്ട
 മത്സര ിക്കാന
രംഗത്ത െത്ത
കുറ ിപ്പ
ം കുറ ഞ്ഞ
ശു ദ്ധ
 പട്ടിക യില
ദിത്യ നാഥ
ഒ ന്ന്
ു സ
ക്ഷ യ
ുവ േണ്ട
സ്ഥാന മായ
ങ്ങൾ ,
ഇത ാണ് 
ീകര ിച്ചിരുന്ന
് അ റിയ
 പൊ തുമ
നി ക്ഷേപ
 അന ൂപ
െല്ല ുവിള
ുവര ുത്ത
് വ െച്ച
 തൃ ശ്ശ
മായി പ രി
ഉത്തര വ
 വർ ദ്ധ
 എഴ ുത
 അന്ത ിമ
ആ ഗ്രഹ
ഴ ുതിയ
ൈ ര്യ
ത്ത െക്കുറിച്ച് 
 സ ിഎ
ട്ട ിക്കൊണ്ട
 അ നില
ത്തിന്റെ  അ
ിമ ുട
ിച്ചു  കൊണ്ട
കാര ന
 ഇന്ത്യ ക്കാര
തിരുവനന്തപുര ത്ത്
ി ഉ യര
 തുടങ്ങിയ വര
പല ര
ിൻ്റ െ 
ര ീ
ല ോട്ടറ
വ സ്തു
 സ തീ
 എ പ്പോഴ
രു ണ്ട
ായിരുന്ന ില്ല.

മു ഹമ്മദ് 
് പ ാർട്ട
കന ായ
ഇന്ന്  
സൈ സ് 
ക്കുമ രുന്ന്
ഇടപെട ല
ത്തീ സ്ഗ
ഒ ടുവില
ഗ ന
ഗ െയ
ബ ാബ
വ ടക്ക
സ ോസിയ
ഹ ോ
 സ ജ
 ന ാടക
ം  തിരിച്ച
 ത ൊഴിൽ
ങ്ങള ുമായി 
െത്ത ുന്ന
 വലിയ ൊരു
 എത്ത ുന്നത
 മൂ ന്നു
ർച്ച യായ
കുട്ട ിയ
ഴ് ത്ത
 അപേക്ഷ ിക്ക
ചോദ്യ ം ചെയ്യ
 പുതു തായി 
അ ഖില
ആ ക്രമ
ഉ ൾ
യ ായിരുന്നു
വ ാണ
് !

ിയ ാര
 ത ോമസ് 
സ് നേഹ
ദേശ ിച്ച
് ക േരള
ം ക ാരണ
ം നട ക്കുന്ന
 കാര്യ ങ്ങളില
െടുത്ത ിട്ടുണ്ട
 ജില്ല കളിൽ
മുണ്ട െന്ന്
ി ത ോമസ് 
ം ച ില
െ ആ ദ്യ
ദ്ദ ീന
 സർ ക്കാരിന
രാശ ര
 കോടി രൂപ യുടെ 
ി ജന റല
ിക്കാർ ക്ക്
  ക്ഷേമ
)  -
ക ിട
ത ാ
വി മർശ
ിട്ട ാണ് 
യില േക്ക
 ബ ിഎ
മാണ ി സ
എന്ന ിവര
ി പ ുറത്ത
ംഗ ാൾ
 രാ ഹുൽ ഗാന്ധ
സ്വ തന്ത്ര
 സെ ന
ുത ന്നെ 
ുകാര ുടെ 
 കട ല
 കോള ജ
 അനുമ തി 
മാത്രമല്ല ,
7 3
ഐ പിഎ
ക മ്പ
ച േർ
ഡ ്വ
ണ ം

ന ൗ
് ..
ക്ക ിട
ല്ല ൂര
 വി ഷ്ണ
ിന്റെ  പ്രതികരണ
 ഒ ടുവില
 മാ പ്പ
 രാ ധ
േക്ക ാൾ
് അ ംബാന
ട്ട്  പ്രഖ്യാപ
 കഴിയ ുന്നത
 താമസ ിക്കുന്ന
 ഭാര വാഹ
 സാമ്പിളുകള ാണ് പരി
, ഇടുക്ക ി 
. in
സ ന്തോഷ
ി ങ്ക
ു ത്തിയ
ത്ത ുട
 ന ാശ
 അ ഴ
ിൽ  ഒരു
മ്പ ാട
ക്കാര ിനെ 
 ഗ ോ
 നി ഷേധ
 അദ്ദേഹ ത്തെ 
ഭി മാന
് വ െ
 വാ ക്സിൻ
 പദ്ധ തിയുടെ 
ാഷ ണൽ
 നഷ്ട പ്പെട്ട
വ്യ ത്യ
 ഏറ്റ ുമുട്ട
ഭര ിക്കുന്ന
ഉട മ
ഫോട ന
, ആലപ്പുഴ  
  റ്റ
ക സ്റ്റഡിയില
മ ിക്ക
ാ ക്ഷ
ൽ  
 ക ോട്ടയം 
 ക ിഴക്ക
 വ ൃത്ത
ം  ജന
റ്റ ുകള
ാക ുമെന്ന
നി ശ്ചിത
 കേരള ത്തിലെ 
ിയിൽ  നിന്ന്
ണക്ക ില
 ഗു രു
 എന്നി ങ്ങനെയാണ് 
വോട്ട ് 
 രംഗത്ത െത്ത
 ബ്ല ോക്ക്
 ഫേസ് ബുക്ക്
ഗ സ്റ്റ
വ ുമാണ
ഹ ിന്ദ
ൻ ഷൻ
ക്ക ുട്ട
ി  ഈ
 ക െ സുരേന്ദ്രന
പ്പ ുകള
സ് വർണ
ാക ാര
 കോട തിയിൽ
വ്യാപ ാര
ി നട ത്തിയ
 ഇക്കാര്യ ത്തില
 ഗ്രാമ പഞ്ചായ
യഥ ാര
ം  സ്വന്ത
ില ധിക
 ശ ബരിമല
 റ ാവ
 ഫ ാ
െട്ട ിട
ാണ് അ വര
പെ ന
ി ആ ക്രമ
 ആദ്യ മായി 
െയ് ക്ക
 നീ തി 
ശാ ന്ത്
 കൃത്യ മായി 
 പുരു ഷ
 ബോധ ്യ
മ ധ്യപ്രദേശ
ക് വാറന്റ
ച്ച യ്ക്ക്
 മ ൃ
ങ്ക ാള
 സം ഭാവന
ങ്ങൾ .

ം വ ീണ്ട
ത്തിന്റെ  ഭാഗമായി 
 കൊ ട്ടാര
ുഴ ലിക്ക
് ബ ാബ
ബൈ ൽ
പ്രധാന മായ
 ഉൾ പ്പെടെ 
 പരിപാട ിയില
 അല്ല െങ്കില
ക്ടറ ുടെ 
മാത ാപ
 ഡെ പ്യൂട്ട
ം  വിജയ
ക ില
ിക്ക ട
ിന്ന ാല
 രൂപ യാണ് 
 അഭ ്യൂഹ
 ചൈന ീസ് 
ഭാര വാഹ
 ബെ ഞ്ച
ക ുകയ
ത ിന്റെ 
റ ിലെ 
ൂ ഡ് 
 പ ൈസ
 സ ിവില
ിച്ച ിരിക്കുന്ന
ിന്  സമീപ
മാന സിക
 പറഞ്ഞ ു
 റ ിപ്പ
ാഥ ാര
സംഭവ ത്തിൽ
 എന ിക്ക
രക്ഷ ാ
പൊ ട്ട
ത്തിൻ്റ െ 
ക്കാദ മ
ദാഹ രണ
ത ട
ന ോ
ബ ത്തില
ിക്ക ാറ
 ത ാൽ
 എ ങ്കില
 ആ സൂത്ര
ാവ ിക
പ്പെട്ട ിട്ടുണ്ട
ിക്കാന ാവ
ി ക െ 
ത്തിന ക
 കു മാർ
െത്ത ുട
ുക്ക ൾ
കാല ിക
ുമെന്നാണ്  പ്രതീക്ഷ
ഇതിന ിടെ 
രേന്ദ്ര മോദ
് കമ്മ ീഷന
ച്ചയ ായി 
പ്രഖ്യാപ ന
 സൈനിക ര
 വേഗ ത്തില
ജ െപ
ഫ ോമ
മ ിട്ട
റ ായി 
ു ഡ് 
 പ ാവ
 ക ാവ
 ശ ക്തി
സ്റ്റ േഷനില
ാൻ  ശ്രമ
ം ന േതാക്കള
ാമ െന്നാണ് 
ം പ ിടിച്ച
യ്ക്ക ല
 മന്ത്ര ിയ
െടുത്ത ിരുന്ന
ം എ ടുക്ക
ി ആ ദിത്യനാഥ
 കഴിഞ്ഞ  ദിവസ
തി ന ിര
ം ലഭ ിച്ചത
 ഉറപ്പ ാണ
 ഇറ ക്കുമ
യാത്ര ക്കാര
 ഭാര ത്
ആ ഗോള
ക ന്റെ 
ഗ വ
ഗ ിര
ഗ ുല
പ ി
ഷ ണല
ങ്ങ ര
ുണ്ട ാക്ക
ുണ്ട െങ്കില
കര ണങ്ങള
 സം വരണ
ി ന േടിയ
ിച്ച്  അ
 നിന്ന്  വന്ന
 പരി സര
ം ത ുറ
മുണ്ട ാക്ക
 വേണ്ട ിയ
 കാരണ മാക
 സൗ ഹൃദ
്യൂ ബ
ക്കു ള
നാല ് 
ഡോ ക്ടര
 സംര ംഭ
ഹൈ ദരാബാദ
മെന്റ് സ ോണ
ഡിപ ിഐ
സ ോണിയ
ാ തി
 പ ാമ്പ
ച്ച  നടത്ത
ം  റിപ്പോര
 മ ക്കള
 അ ഫ്ഗാന
സ്  ബ
 ച ോര
ല്ല െങ്കിൽ
േഷ ന്റെ 
മു തൽ
ാൻ ഡ
ക്ട ് 
െ സ ാധ
 വൈ കുന്നേര
ടങ്ങ ുന്ന
 ഉട ൻ
ഘ കാല
മ ുള്ളത
ഷ മായി 
ാ ന്ത
വി ദ്യ
 ശ നിയ
െ ക ോട
സി ഐ
െ പ രാ
ം വ ഹ
േജ ് 
െല ോട്ട
ി മ റ
 ശതമാന ം വോട്ട
 വിള ിച്ച
മോ ശ
ാഞ്ച േര
ി പരി ചയ
 മുദ്ര ാവാക്യ
ട ൂറ
ീ ബ
മു തിർന്ന
ീകര ിക്കുകയ
െ ന ാല
സിന ിമാ
അതേസമയ ം ഇ
മേ റ്റ
 ജില്ല യിൽ
െ വ ന്ന
ം ച ൂണ്ടിക്കാട്ട
് മ ുന്ന
 തുടര ുകയാണ
 നേതൃത്വ ം നല
 പുര സ
ക ള്ള
ക മ്പന
ജ ൻ
പ േ
മ ില്ലെന്ന
ല ഖ
ല ക്ഷണങ്ങള
സ ിലെ 
ാ ന്ത്
ു  വര
േ ?

ത്ത ിര
 പ ശ്ചാത്തലത്തില
 ച ട്ട
 സം യുക്ത
െ ക ഴിഞ്ഞ
് ന ിർ
 നിന്ന െത്തിയ
് സ ർ
തിക രിച്ച
 നേര െ 
ീല ങ്ക
 ചിത്ര ത്തില
െ നട പട
നിർ ദേശ
 പോലീസ ിന്
,  മലപ്പുറം 
യ െ അ
റ ിസ
ട്ട ര
മ്പ ില
ിവ േഴ
 ദ ൂര
ിത ര
 ട െല
േയ ാണ് 
ോയ െന്ന്
 കേന്ദ്ര സര
 കേന്ദ്ര  കാലാവസ്ഥ
നി ങ്ങൾ
ി മ ണ്ഡല
 കോൺ ഗ്രസിന്
സു ഹൃത്ത
 പരിശോധന യ്ക്ക്
ിന് ശേഷ ം 
അഞ്ച ് 
ഭോക്ത ാക്കള
,  എറണാകുളം 
a m
o r
ഈ  വര
യ ാ
പ്പ ിക്കാന
ം  - 
 ത ൊ
 ആ ർക്ക
ിന്റെ  ആ
കര മാണ
 ബ ാഗ
ിപ്പ ിച്ചിട്ടുണ്ട
് ക ള
െ പ ൊലീസ് 
 ഡ ിഎ
യു വാക്കള
പ്രവർത്ത ന
ഫേസ്ബുക്ക ില
 കുടു ങ്ങ
എ ടുക്ക
ന ീയ
ു ഞ്ഞ
െ  വിള
ിയ െന്ന്
 ക ത്ത്
 ക ൈക്ക
ിര ാജ
ക്ക്  മുമ്പ
മു രളീധരന
് പ ോക
 ദ ൗത്യ
 കൊ ട
കഴിഞ്ഞ  വര
പ്പറ േറ്റ
ക്കട ത്ത്
ം പരി ശോധ
 ഏക ദേശം 
പ്രതിനിധ ികള
ഉ ന്നയ
ച ടങ്ങ
പ ള്ള
ാ മായിരുന്ന
ി ഷന
െ ഗറ്റീവ
ി  ദ
 അ വിടെ 
 അ വർക്ക്
ാല ത്ത്
 ഇ ള
ിപ്പ ിക്കാനുള്ള
േസ ില
ിയുടെ  അ
 കോട ിയ
 സ്റ്റ േഷന
 പ്രഖ്യാപ ിച്ചത
 ബ്ര ാഞ്ച
ധികാര ത്തില
 പങ്കുവ ച്ച
 പട ിഞ്ഞാറ
 സ്വയ ംഭരണ
 വിപണ ിയില
 പ്രതികര ിച്ചത
മെഡിക്കൽ  കോളേജ
സഞ്ച ാര
ം  പ്രവര
ഗ ോഡ
പ ില
റ ഞ്ച
റ ുകൾ
റ ദ്ദ
വ ൃ
 പ ക
ി  രു
ം  ശ്രദ്ധ
 പ്ര സ്ഥാന
 ഇ രിക്ക
 മു ക്ത
ക്കാര ില
 ഗ വർണ
ം വ ്യാപ
 പരി ഷ
 ഇട യില
െ വ ലിയ
 സ്ഥാന ത്ത്
 രാജ ിവെച്ച
 സി ബിഐ
 സംവിധാന ങ്ങള
 അമേരിക്ക ന
ദി വാസ
 വിഷ മ
 ദശ ലക്ഷ
ക ൂര
ഡ ംബര
പ ക
ര മ
ല യ
 അ യ്യ
ുക ൊടുക്ക
 എ ട്ട് 
 ഉ ണ്ണ
ചെയ ്തിരിക്കുന്നത
ുര ോഗ
 റ ൂമ
 ഗ ോവ
 വര െയാണ് 
െ ന േര
ം ത യ്യാറ
 സു ഹൃ
 സ്ഥാന ത്തേക്ക്
ാനുള്ള  സാധ്യത
 ഐ പിഎ
ാങ്ക ള
ിക്കണ ം എന്ന
 സമീപ ന
വീട്ട ിലേക്ക്
 വിദേശ കാര്യ
  ർ 
പ ോള
പ ൗരത്വ
വ ാല
സ് സിന
വര വ
സം സ
ൂര ജ
ാമ ത
ം പ ുന
 അദ്ദേഹ ം അ
ട്ട്  ചെയ്യുന്ന
 കേരള ത്തിന്റെ 
ി ആ ർ
 മത്സര ിച്ച
ി ഉ ള
തിരഞ്ഞെടുപ്പ ിൽ
 പല പ്പോഴ
ബു ദ്ധ
 എന്നിവ ർ
 നീ ങ്ങ
ദിവസ ങ്ങള
ഉത്തര വാദിത്ത
് പോ സിറ്റീവ
 ന്യൂ നപക്ഷ
 വേദ ന
മേഖല യില
ആലപ്പുഴ :
 സമി തിയ
8 3
യ ാന
ഹ ാർ
ൂ ,
മായ ി പ്ര
 ബ സ
 ശ ിവസേന
ിവ െള്ള
 ല ിറ്റ
ം ക ട
ൂര ിലെ 
 ചെയ ര
ം പ ല
 നിര ന്തര
 പു സ്തക
 സംഘ ർഷ
 തെ ക്ക
 കൂട ി ക
 വയ നാട
ോറ ന
 സ്ഥല ത്ത
എന്ത ുകൊണ്ട
താര തമ്യ
 കണ്ടെത്ത ാന
 കാലയ ളവില
 ധാര ാള
സിറ്റിവിറ്റ ി നിര
ാ ക്രമ
മാ ത്യ
ാണ്  പ്ര
ക്ക്  കൂട്ട
ാൻ  സാധിക്ക
 സ്വ ഭാവ
മാണ്  ഈ
മെ ച്ച
 യു വാ
േജ സ്വ
ം മു ഴുവന
്മ ണ
 ഇര ട്ട
 ഇന്നല െ 
 കൂട്ടിച്ച േര
ച െന്നൈ
ജ ിയില
പ ഴയ
ു -
ി  വാ
ം  അത
ിന ി
 പ്ര ോ
 ആ വേശ
 ആ ഗോള
 മു ഖ്യ
െ പ ുതിയ
ന്ധ ്ര
ിക്ക്  
 കൊ ള്ള
ാണ് ഇ പ്പോൾ
ാണ് പ ാര
െക്ക ാന
 രാജ യോഗ
 പരാ തി നൽക
ഇട ത്
തൃ ണമൂല
നാട്ട ിൽ
അന ുവദ
 മെ ട്ര
ബോധ ന
 പുന ര
 ഒരുമ ിച്ച് 
ശൈല ജ
8 4
ന െയ
ീ ട്ട് 
ൊ ണ
െ  യ
 ന ിൽക്ക
ിക്ക പ്പെടുന്ന
ിക്ക ാമെന്ന
 അ മിത് ഷാ
 ഇ ന്ധന
ിട്ട ില്ലെന്ന്
 ജ ോസ് 
തിര ക്ക
രി റ്റ
 ല െ
മായി  മാറ
സി ബിഐ
ം വ ീ
ഒരു  വിഭാഗ
മി ഷന
 പിന്ന ിൽ
് ത ാക്ക
 സു ഖ
ിത്ത ിര
ാനുള്ള  നീക്ക
 കാല ത്ത
പ്രവർത്ത കര
ശ്വര ്യ
യിട ത്ത
7 6
ക ാർ
ള ിഞ്ഞ
ഹ രി
 പ ാറ
ി  മാറ
ം  ചര
 അ ബ്ദ
 ത ുകയ
ക്ക്  ഒരു
വി പണ
രു ള
് പ ല
ം ക ൂട്ട
ക്കാര ായ
െ ന ാട്ട
സ്വ ീകരിച്ച
സിഡ ന്റ
 കോൺ ഗ്രസിന
 സർ ട്ടിഫിക്കറ്റ
 സമ്മേള നത്തില
െപിസി സി
 വസ്തു ക്കള
  ൾ
റ ് 
സ മാ
ി ടു
് മാന
ൽ പ
്  സ്വദേശ
ിയ െയ
ം  ഒന്ന
ക്ഷ മ
ിപ്പ ിട
 ഗ ൗരവ
 ഡ ോസ
 ഡ ാറ്റ
െല ങ്കാന
രോഗ ബാധിത
ഉണ്ട ാക
 രക്ഷ ാ
 ചർച്ച കൾ
 ബാല ചന്ദ്ര
ിക്കെതിര ായ
 ഉദ്യോഗ സ്ഥര
ങ്കുവ െച്ച
ഡ ോസ് 
ഭ ീ
 മ ൈ
ുക ൂട്ട
ിന ാഥ
ില്ല ;
 ജ ൂലൈ 
് ക ാര
െ ക ൂടുതല
ഭാ സ
 ഓ ൺ
ം എ ടുത്ത
ാണ് ഇ വിട
 തെ ര
 മണ്ഡല ത്തിൽ
 പിട ികൂട
ിനെതിര ായ
് നടക്ക ുന്നത
ഡ ിന്റെ 
ത .

ന ിക്ക
മ ോഷ
റ സ്റ്റില
ശ ക്തി
ാ സില
ി തിയ
ു നില
 വ ില്ല
 മാ  യ
 റ െയിൽ
ി ക െ
 ട ി
 ഹ ാര
ം അ വര
് അ ദ്ദേഹ
ി മ ന
 രോഗ ം ബാധ
 സ്വാ ഭാവിക
 കുറ്റ കൃത്യ
സൈ ന്യ
 അപേക്ഷ  ക്ഷണ
രംഗത്ത െത്തിയിരുന്ന
 സിനിമ യില
ാവാ ത്ത
 കൊച്ച ിയില
 കർ ശന
 അനുസര ിച്ച് 
ളിപ്പ റമ്പ
ന ോളജ
ിയ ൻ
 മ ില്യണ
 അ തു
ാര ോപ
ാന ു
 ത ോല
മായ  ഒരു
 ആ വര
പ്ര ണയ
എന്ന ീ
ി ന േരിട
ിലെ  അ
 ട ിക്കറ്റ് 
ൊരു ങ്ങ
ട്ര ോള
ട്ര േലിയ
 രാജ്യ ത്തിന്റെ 
 ഇത ര
ുന്നുണ്ട െന്ന
 വ്യക്തമാക്ക ിയത
 പരിശോധന  നടത്ത
ം വര ുന്ന
 ക്ര ൂര
ാഫ ്ര
ശ്ശേര ി 
 ഡോ ക്ടർ
ചൈന ീസ് 
 വീട്ട ിൽ
എഫ്  ഐ
വൈറ സ് 
അ ങ്ങനെയ
എ ട്ട് 
ബ െ
ല ാണ് 
ൃ ഥ
ക്ക ിയത
ങ്ങള ുടെയ
ിരുന്ന ാല
രാ ഗ
രാ മയ്യ
പ്ര ചരണ
സി ജന
ി പ ട്ടിക
 ഡ ിവൈ
 ഫ ോൺ
െ ന ോക്ക
ി അ ന
േക്ക ുമെന്ന
ി സ ർക്കാർ
 ഈ ട
 നില വാര
മെ ന
19 6
നേത ാക്കൾ
െ ആ കെ 
േട്ട ന
 വാ ങ്ങിയ
 ആശുപത്ര ികള
ം ഉണ്ട ാവ
 എന്ത ിന
 ഉത്തര വാദ
കൈ വശ
 താഴ െ 
സ്ഥാപ ന
രൂക്ഷ മായ
 ഉറ വിട
േവ നങ്ങള
ിന്യ സ
 ഇന്റ ര
  ട്ട
 പ വന
 ക ായിക
ിച്ച ിട്ടുള്ള
മ് മാ
 ച ീഫ് 
പ്ര സ
 വി റ്റ
ങ്ക ിൽ
ാമ ില
 ഫ ോര
െ അ പേക്ഷ
ി എ ടുക്ക
ുന ോക്ക
 ശ്രമ ങ്ങള
ി ഉ പയോഗ
ം നടത്ത ുന്നത
ലോ ചന
് പ്ര ചാരണ
 നേതാക്കള ുടെ 
് എന്ന ാണ് 
ധാകര ൻ
ഇത്തര ത്തില
 കണക്ക ുകള
്' ,
സുരക്ഷ ാ
 ങ്ങ  ള
സാമൂഹ ിക
കരുത ുന്നത
,  ബ
ക ാസർ
ജ റ
ജ െഡിയ
ാ ദേശ
ൈ റ്റ് 
്  സര
 പ്ര േര
ിന്റെ  ക
ിച്ചത ായ
ിച്ചത ിന്
ദ്ധ വ
 തിര ുത്ത
് ന േട
 സ്വ ീകരിച്ചത
ാത്ത വര
അതേസമയ ം
ി എ ം
ി വ കുപ്പ
 കുറ ച്ച് 
ുവര ുന്നത
കേരള ത്തിന്റെ 
 അപ മാന
വാക്ക ുകള
മന സ്സില
നിയമ ന
 മഴ യ്ക്ക്
 ഉറ ച്ച
 ഇങ്ങന െ

 രോഗമുക്ത ി നേട
9 5
അ യ
ട ിക്കറ്റ
ന ൂറ
പ ത്ത്
ക്ക ൾ
 പ യ്യ
 സ ാമ
 സ ്ട്ര
ം  ഭേദ
 ഇ ഡ
 വി വേ
വാ ൻ
സ്ഥ ിതി
് പ േർ
ം ന േതാവ
ിജ െ ജ
 ട ിവ
 ഉണ്ട ാക്ക
ാസ മ്മേള
ം മ റ്റ
 മന സ്സ
ം ചെയ്ത ിരുന്ന
സഹ കര
് നട ന്നത
 പരിശോധന യില
 ചോദ്യ ത്തിന്
 സമ്മ ര
െ ച ോദ്യ
 നിരവധ ി 
ോക്  ഗ
ട്ടിഫ ിക്കറ്റ് 
് കാല ത്ത്
 തെല ങ്കാന
ജ ോസ് കെ മാണ
ബ ിസ
മ റിയ
ശ േഖ
ൗ ല
 സ ില
 സ ച്ചിന
 ന ോ
 മ ട്ട
ാണ്  എന്ന്
യില െ ക
 ബ ാബു
റിയ ാദ
ം ക േസ
 ഈ  രാശിക്കാര
ജന ങ്ങൾ
പെ ണ
ംബ ർ
െ എ ത്ത
 നടപട ി 
 ഉപയോഗ ിച്ച
 തോ റ്റ
 അതി ഥ
 തെറ്റ ായ
 പ്രതിപക്ഷ നേതാവ ് 
 ഡിസം ബ
ി തര ൂര
 മുന്നോട ിയായി 
ഡ ിവൈ
ഫ ോൺ
ര ഹസ്യ
റ േറ്റ
 പ ത്ത
 പ മ്പ
ം  ദ
ാണ്  ഇത
ങ്ങള ാണ
 ആ വ
ിട ുന്ന
അത ിൽ
ം വ ഴ
മാക്ക ിയിട്ടുണ്ട
 കോട തിയുടെ 
ം ഉ ള
 മന്ത്ര ി വ്യക്തമാക്ക
 ഇന്ത്യ യ
 അത ുകൊണ്ട
ിച്ചിട്ടുണ്ട െന്ന
 പെ ന
ൂപ്പ ർ
ന്യൂ ഡൽഹ
 തിരിച്ച െത്ത
 നിർ ണായക
ത്  .

 ചോദ ിക്കുന്ന
ിന്റ േയ
വ്യാ ഴാഴ്ച
 ചേർ ന്ന്
ഷ്യൽ മീഡിയ യിൽ
മാണി സ ി ക
  .
ഫ െബ്രുവരി 
മ ്ര
സ റ
ാ ടു
ാ സ്റ്റ
െ ക്
 സ ാഹചര
 അ റ്റ
മ് പ്യൂട്ട
മാണ െന്നാണ് 
രി ങ്ങ
സം ബോധന
 യ െല്ലോ അല
 ഫ ്ല
െ ന ല
ഗ്രസ്  നേതൃത്വ
പ്പെടുത്ത ാൻ
 കേന്ദ്ര മന്ത്ര
ാണ് ഇ യാള
ിറ ോസ
 കേസ ുകൾ
19 5
ിത്ത ുറ
 ഐ .
 പ്രവർത്ത നങ്ങൾ
ദ്ര വ
 നീ ട്ട
 നമ്മ ൾ
 മൊ ത്ത
 ടെ ക്
 ആന ുകൂല
 മുഖ േന
ംഗ്ല ാദേശ
 ഗുരുതര മായ
ഗസ്ഥ ന
ww w
 ആശ ംസ
8 2
മ ധ്യ
റ ങ്ങ
ശ നങ്ങള
ഷ ാര
ൂ ബ
ക്ക ുഴ
ിയ ാൽ
ി  സി
ക്ക്  ശേഷ
 ജ ോർജ
മ്മ ുടെ 
ഞ്ച േശ്വര
ാമ ന
പ്പെട ുകയായിരുന്ന
യു ക്രൈന
ം ത ള്ള
ിപ ുര
ിപ ിഎ
പ്പെടുത്ത ുന്നത
എസ് ആര
 അന്വേഷണ ം നടത്ത
ീസ ൺ
 അടക്ക മുളള
 ആള ുകൾ
 നിരീക്ഷണ ത്തിലാണ
 ബാധ ്യത
 ജീവിത ത്തില
സിപ്പ ല
 എം എ ല
മുഖ്യമന്ത്രി പിണറായി വിജയ ന
ട ര
ല ാപ
ശ ിവസേന
ി /
ിയ െ ത
ിക്ക ന
 എ ഐ
 എ ച്ച
 പ്ര ാഥ
രാ ത
ുള്ള വർ
ില്ല .
മ്മ ള
ാട ് ക
െ ക ോവിഡ് 
അത ായത്
െ ന യ
 നിന്ന്  പുറത്ത
 കോട ിയുടെ 
 ദിവസ ങ്ങളിൽ
 ഇന്ത്യ യിലെ 
ൊക്ക െയാണ് 
 പോക ുന്നത്
ഇട പെട്ട
ുമെന്നാണ്  സൂചന.

നാട്ട ിലെ 
 ബു ദ്ധ
ത്തിനുള്ള ിൽ
 ഒറ്റ പ്പെട്ട
വിമാന ത്താവള
 യൂണ ിറ്റ
 എൽ ഡിഎഫ
 സ്ഥിത ി 
 കാന ഡ
  ഔ
o n
ജ ന്റ
് മെന്റ
 സ ിങ
 വ േര
ിര ിപ്പ
ിര ാക
 ന െടു
 വി മർശ
വാ ഷ
 ജ ോസ് കെ മാണ
ാവ ൂര
ത്തിയ ിട്ടുണ്ട
െന്നാണ്  സൂചന.

 പേര െയാണ് 
ാണ് ക ഴിഞ്ഞ
ുമായ ി പ
 എന്ന്  പറഞ്ഞ
തുടര ുന്ന
ി ആ ണ
പ്യ ന
ി രാജ േഷ
കരു തല
 വയസ ുള്ള
 വക ഭേദ
സിക്യൂ ഷന
ച ുമ
ജ ോര
യ ാക്ക
ല ാൽ
വ ച
ഹ െല
ാ  ഫല
ി മാർ
ു ...

െ -
ില ാണ
ി  ഓ
 ക െ എസ് 
പ്പ ിച്ചത
 മ െച്ച
 ഇ ത്ര
 വി മത
് ന േതൃത്വ
 അറിയ ിച്ചിരുന്ന
ിൻ റെ 
് മ ണിക്ക
ിഫ ്ബ
 താഴ ്
 പൂ ജ
 എംപ ിമാര
 അധികൃത ർ
ൽ ,
 സ ൂ
 വ ാടക
ിന്  മുമ്പ
ിപ്പ ോള
രി ചയ
 ല ാബ
ഇത ര
ുല ു
മെ ട്ര
ോട്  സംസാര
ഗ്രസ ിലെ 
െടുക്ക ാൻ
ങ്ങളിൽ  നിന്ന്
ഞ്ചായ ത്ത്
 പ്രവർത്ത ിക്കുന്ന
പ്രതിക രിച്ച
 സംഘടന ാ
ഇപ്പോഴ ത്തെ 
തീവ്ര വാദ
സ്പ്ര സ് 
ശ്ചിമ  ബംഗാള
െഹ ്ല
 സംഗ ീത
www .
ി  പറയ
ു തി
ിച്ച ില്ല.

റ്റ ല
ിക ില
 എ എപ
ുള്ള  ഒരു
 ജ ി
മ്പ ുഴ
േഷ ന്
മായി  ബന്ധപ്പെട്ട
ിച്ചത ില
ത്തിന് റ
് ന ിന്ന
ം മ ല
ം പ്ര തീക്ഷ
ുന്നതിന ിട
ം ഉണ്ട ായത
്മ ിന
 എന്നി വിട
ിച്ച് പ റയ
സുര േഷ് ഗോപ
 നിയമസഭ യില
 പുറമ െ 
 ഹോട്ട ല
 വിദഗ് ധ
 കഥ ാപാത്ര
9 1
എ യ
ഡ ീഷ
ഹ ാജരാ
ോ ണ്ട
 ക ുവൈ
 ന ൂ
 ന ാമ
ം  ജില്ലാ
 അ തീവ
ില്ല  എന്നാണ് 
ത്തിന്  ശേഷം 
 ഫ ോട്ടോ
ം അ നുഭവ
 കാര്യ വ
 കണ്ട ത
 കാരണ ം 
നാട്ട ുകാര
 തവണ യ
വീട ുകളില
ദ്ഘ ാട
ഫേസ്ബുക്ക്  പോസ്റ്റ
ച ീഫ് 
റ ിപ്പ
ി ക്രമ
 പ ിഎ
ിയ ിരിക്കുന്നത
 ക ിഷ
 ജ ോയ
എന്ന ാണ് 
ിയില േക്ക
െ പ ോയ
കള ാണ് 
ിക്കുന്നത ാണ
 ഹ രിയ
െ അ ംഗ
 രാ ഹുൽ
വേ റ്റ
 നേര ിയ
 ഉപ േക്ഷ
പെ രു
ങ്ങളിൽ  നിന്ന
ുളള ത
സഹ കരണ
കേന്ദ്ര  സര
 മലയാള ികള
അഭി ഭാഷ
മായി ക ാണ
 ഒട്ട േറെ 
വിന്ദ ് കെ
ഗ ാസ
ഗ ിള
ജ ിത
പ ിതാവ
് ),
ക്ക ൊള്ള
 ക ൺ
 ക െപിസിസ
 വ േഷ
ിക്ക ഴിഞ്ഞ
ുക  എന്നത
െന്ന ു
തിര ിക
ാണ് ക ാണ
 ദിവസ ങ്ങള
ില്ലെന്ന ായിരുന്നു
ിത്ത െറ
തൃ ക്കാക്കര
 കൈ കാര്യ
 പ്രവർത്ത കര
 ആവശ്യപ്പെട്ട ിരുന്ന
 തെള ിഞ്ഞ
 മരണ ങ്ങള
ടെ ക്
ഏക ദേശം 
ി ജില്ല ാ
 അദ്ദേഹം കൂട്ടിച്ച േർത്ത
 വിദ്യാർ ത്ഥികള
ക ോള
ത മിഴ്
ന ാഗ
മ െങ്കില
യ ുട
റ ാണ
റ ോഡ് 
ി ണ്ട
ി  പോ
ക് വ
 പ െയ
 ക ൂ
 സ ബ
ിര ണ
ം  ഭ
 മ ുണ്ട
 അ ട്ടിമറ
ത്തിയ ാക
് പ ോള
 ഗ വേഷണ
് ന ാല
 നിര ക്കില
പക്ഷ െ 
ം ത കര
ി വ ോട്ട
ം സ ീറ്റ
ിയിൽ  നിന്ന
െറ ിഞ്ഞ
ലോ ഡ് 
ം വര െ 
ശാ ഖ
 മണിക്കൂറ ില
അന ുമ
 പിന്തുണ യ
 യുവ തിയ
സി  വേണുഗോപാല
ടെ ക
ില്യ ൺ
 വൈദ്യ ുതി 
 രാധ ാകൃഷ്ണ
a r
ന ന
ന ടന
െ  മാറ്റ
ിയ ്ക്ക
ച്ച  ചെയ്യ
 മ ിസ
ിന ി 
വി ശ്വാസം
ഞ് ജന
 ബ ഹുമാന
തി റ്റാണ്ട
െ ക ുട
 മു ഴുവൻ
ൂര ിൽ
ാം :
ി ക ൂട്ടിച്ച
ോര മ
മൂ ന്നു
ിരിക്ക ണ
ാണ് ക േസ
്വ ന്റ
ിലേക്ക്  മാറ്റ
കൾ ക്ക
ിക്കുന്നുണ്ട െന്ന
ിയിലേക്ക്  മാറ്റ
ണാടക യില
 പ്രവേശ ിപ്പിച്ചത
 റിപ്പോർട്ട്  ചെയ്ത
ി ജയ രാജ
 മറുപട ി നല
ഷ്യാന െറ്റ് 
8 1
ഇ ക്കഴിഞ്ഞ
ഐ ക്യ
ഫ ്യൂ
 പ ിതാവ
 വ ണ്ട
 ആ പ്പ
ുള്ള  
വാ ഗ്ദാന
ുവ ീ
മാന ത്താവള
ം ക ള
തല ത്തില
 ഫ െബ്രുവരി 
 കോട ിയേര
ാദ ിത്യ
 നില വിലെ 
നട ന്ന
ുന്നതിന ാല
ി ച ോദ
ി ച െറിയ
് എന്ന ിവ
 നീക്ക ങ്ങള
 മറുപ ടി
കാ സര
 പട്ട േല
 ദില്ല ിയില
െണ്ണ ല
 പ്രയ ാസ
ആ വശ്യമ
ക ണമെന്ന
ജ ോസഫ് 
ട ിച്ച് 
മ ൊന്ന
ല െ
ി ദ്ധ
ീ .

്‍ /
്‍ ),
ക്ക റ്റ
 സ േ
 മ രുന്ന്
 ആ ംബുല
 ച ാട
 എന്ന  നിലയില
് ക ൈ
െന്നാണ്  വിവര
 നിര ാശ
ണക്ക ടത്ത്
െ മ രണ
 പല ത
 നൽക ിയത
ത്തോട ൊപ്പ
 അല്ല െങ്കിൽ
ക്ടറ േറ്റ
 നേരിട ുന്ന
ബിസിന സ് 
 ഫേസ്ബുക്ക ില
സ്റ്റം സ് 
ത്തരാ ഖണ്ഡ
8 6
ീ ള
ോ ച
ത്  എന്നാണ് 
 ന ര
ം  ര
ാന ിരിക്കുന്ന
 ആ ം ആദ്മ
ായിരുന്ന  
ന്റ ില
 ഗ ര
ിട്ടുണ്ട െന്ന്
ം പ േർ
ുമെന്ന ായിരുന്നു
ംഭ ീര
ം എന്ന ീ
് മ ണ
 കഴിയ ാത്ത
 പ്രവർത്ത നങ്ങള
പ്രതിപക്ഷ  നേതാവ
ചോദ ിച്ച
െക്രട്ട റിയ
 കിലോമീറ്റ ർ
ാണ് പോ ലീസ് 
 തി ങ്കളാഴ്ച
  ന്യായ
അ പ്പോഴ
ഓ ട്ട
 പ ന
 സ ച്ച
ാന ിയ
പ്ര ീ
പ്ര ിൽ 
ിവ ിൽ
മ്മ ിറ്റ
ിന്ന ല
ിക്കുന്ന  ഒരു
ണ് ഠ
 യ ൂത്ത് കോണ
ത്തിന്  പിന്നില
ിക്കാന ായി 
ം വ േണ്ട
 ഫ ോട്ട
 വീ ഡിയ
 സംഭവ ങ്ങള
പ്രതി ദിന
 കാല ാവധ
െ എ ന്ത
 ഐ സ
ുട്ട ികള
 ഇന ി 
ഡ്ര ൈ
 പാട ില്ല.

 പുരോഗ മ
 ജോ ലിയ
ിരാക ാശ
  ടു
ജ നുവരി 
ത യുടെ 
ന ിതീഷ
പ ി 
വ ന്നത
ൊ വ്വ
 ക ുന്ന
മാ ന്റ
 മ മ്മൂട്ട
 അ സ്വ
രാ ധന
വാ റ്റുപ
 സ് വർണ്ണ
മായി  ബാധ
മ്മ യ
് അ വസാന
ജില്ല കളിൽ
 ഇട ിവ
ഇന്ത്യ യിൽ
 ആണ െന്ന
 പെ ര
 മറ്റ ുള്ളവര
ഇതിന ു
 നിർ മ്മ
 കമ്മ ്യൂണ
 രീതിയില ുള്ള
വ്യ വസ്ഥ
 ഇത്തര ത്തില
് പറയ ുന്നത
െ സുര േന്ദ്ര
ി ഗ ോവിന്ദ
 സീസണ ില
ം മുന്ന ോട്ട
ദ്ധര ിച്ച് 
പ ത്ത
ബ ാക്കിയ
മ ില്ലാത
ൗ ഡ
ർ മാർ
്  ഷ
ിക്ക പ്പെട്ടത
ന്ന്  
 ച ുവ
 ച ുരു
ിട്ട ത
ം ക ാല
 യ ൂത്ത്
ി ന ടക്ക
ാമ ര
ാമ ത്
മാക്ക ുന്നത
 ഹ ാജ
 നി ങ്ങൾക്ക്
ി സ ഖ്യ
രാജ്യ സഭ
് അ ന
മേ ൽ
 ജന കീയ
ജി ദ
് ആ ശുപത്ര
് ച ന്ദ്ര
എസ് എസ
എസ് ആർ
അതിന ാൽ
ഗ്രാമ പഞ്ചായ
 അറസ്റ്റില ായ
ദുരിത ാശ്വാസ
ം തെ ളിയ
ട്ടയ ാട
ബ വ
സ ിയുടെ 
ർ മാര
 വ ാട
 മ ില്ല
 അ മരീ
ിൽ  പറയുന്ന
 ഇ യാൾ
ത്തില ായ
 ശ ത്ര
സി ബ
 ട ി സ
തു മായ
 പരി ഹരിക്ക
വരുടെ  എണ്ണ
രണ്ട ് പേര
 ഞ ായറാഴ്ച
മുഖ്യമന്ത്ര ി സ്ഥാന
പ്പെടുത്തിയ ിരിക്കുന്നത
് നട ത്തിയത
 മനസ്സില ാക്ക
ഉട ൻ
ി സതീ ശ
 മീറ്റ ര
 ചല ച്ചിത്ര
 വട കര
വാറ്റുപ ുഴ
ം  പറയുന്നത
ഗ ിന്
ത ിവ
മ ീഡിയ
ര ായി 
ഷ ുറ
ാ ഖ
 പ ിൻവല
ും ?

 ന രേന്ദ്ര മോദ
 മ ധ
 ഇ ംഗ്ല
 ച ൊവ്വാഴ്ച
യില ുള്ളത
ത്തിയ ാക്കിയ
ിയില ാണ് 
് ക ണ
ുപ റമ്പ
െത്ത ി 
യ്ക്ക്  ശേഷ
സംസ്ഥാന  അധ്യക്ഷന
 വന്ന ാല
മാറിയ ത
 കോവിഡ്  സ്ഥിരീകരിച്ച
ആത്മ ഹത്യ
9 4
:  
ത യില
ത ോല
ാ ഫല
ി മാറ്റ
 ക ന
 വ ാസ
ിക്ക േറ്റ
 എ ടുത്ത്
ക്ക്  സമ്പര
രു ത്തര
 ജ ോസഫ് 
ാക്ക ോ
മു ഴുവൻ
െ ക ൂട്ട
ഞ്ച ാവ
ാമ ുക
ിക്കാന ാക
ിലെ  സ
തിന ു
ി വ ി 
ി ജ ലീല
്വ ല്ല
ുകയാണ െങ്കില
കേരള  കോണ
 പരാ തികള
 വ്യക്ത ിയ
മുന്ന ോട്ട് പോക
 വർഷ ത്തെ 
 എതിര ാള
ബ്ല ്യു
ിഹ ാദ
ഡയറ ക്ടര
 അകല ം പാല
)  എന്നിവര
9 2
ം  സ്ഥാപ
ഖ ത്തര
ട ിട
ഡ ി 
പ ഠന
ക്ക ോട
 ക െ സുധാകരന
 വ ിക്കറ്റ
പ്ര വാസ
 ഉ ളള
സി സ് 
ഞ്ച ്വ
ിജ ാബ
ങ്ങളില ായി 
 അദ്ദേഹ ം പറയുന്ന
ിമ ുറ
 വെ ട്ട
 കൂട ിയാണ് 
് മ ത്സര
 കാരണ ങ്ങള
ന്യൂ സ് 
 തൃ ക്കാക്കര
 ശു ഭ
ഇതേ  തുടര
 ആരാധ കര
 കമ്പ നിയ
ൃഥ ്വ
a t
ക ഴ
ട ല
ത ാവ
ത ാത്
സ മിത
 പ ിള്ള
ിക്ക ിട
ിച്ച  
 ആ ഹ്വാന
 ജ സ്റ്റിസ് 
ിപ്പ ് 
ം ക ാഴ്ച
 യ ുക
ി ന േരിട്ട
തല ശേര
 പേര ിൽ
തീ ഷ
ി ത ുറ
 അറിയ ിച്ചിട്ടുണ്ട
ുന്നതിന ു
 കുട ിയേറ്റ
 വിഷയ ങ്ങളില
 തുടര ുന്ന
ീഷണ ര
വ്വ ഹ
 താല ിബാന
െ നട പടിയ
 മേ ധാവ
 അമ്മ യ
കണ്ട െത്ത
തോ ന്ന
 തീയ തി 
 കൂട്ടിച്ച േർത്ത
ുകേഷ ് അംബാന
ം  സംബന്ധിച്ച
ഫ ോര
ബ ത്തിന്
യ ൂത്ത് കോണ
ിക്ക ട്ട
ിന്റെ  പേര
ിപ്പ ിക്കുന്നത്
തിര ഞ്ഞെടുത്ത
ാവ ുകയ
ാട കര
ം പ ാർട്ട
ണമ െങ്കിൽ
ം നട ക്കുന്നത
 കേന്ദ്ര ത്തില
ാണ് ക ോട
 നിയമ സഭാ തിരഞ്ഞെടുപ്പില
 നേര ിട്ട് 
 വേണ്ട ിയാണ് 
കാര്യ ങ്ങള
നട പടിയ
ുന്നതിന ിടെയാണ് 
 പിന്നാല െ 
ഭരണ കൂട
ി എന്ന ീ
 തട ഞ്ഞ
ചിത്ര ങ്ങള
കാന ഡ
റിഞ്ഞ ത
 മനുഷ്യ ര
 ഫ്ര ണ്ട
രാത്ര ി 
ലോക് സഭ
പ്രവ ചന
 ലോക് സഭ
ം ...

ക ൃഷ
ച െന്ന
മ ടഞ്ഞ
ഷ ള
ി ശു
ൈ ൻ
ൻ പ
ക്ക ുകയായിരുന്ന
ിയ ുണ്ട
ി  തുടങ്ങിയ
 വ ാഴ
പ്പ ര്യ
ക്ക്  അനുകൂല
െ ക ുറ്റ
െ പ ാർട്ട
 വര െ സ
ത്തിന ാണ് 
പ്പെടുത്ത ുകയ
ഡിയ ിൽ
ുന്നത്  എന്ന
 ശ്രമ ിക്കുന്നത
റെയ ിൽ
സംഘ ര
 വിഷയ ങ്ങള
 മണിക്ക ൂര
 പഞ്ചായ ത്തില
ആറ ് 
ക്യൂ രിറ്റ
 ഡ്ര ൈവ
 കക്ഷ ികള
 ദേവ സ്വ
സ്ഥിത ി 
ഡിജ ിപ
െ ആക്രമ ിച്ച
്മിന ിസ
  /
  ൻ
എ യര
ഗ ോവ
റ ികള
ാ  ഗാന്ധ
ന്ന ുള്ള
ത്ത േര
 റ ൂട്ട
ഡ്  ട്രംപ
ജയ ് 
േക്ക ാണ് 
വിട െയ
 നില വിൽ
രണ്ട ാമത്തെ 
 കൂട ിയായ
െടുക്ക ുന്നത
 രോഗ ം സ്ഥിര
 വാ ക്ക്
് ബ ാബു
രേഖ പ്പെടുത്തിയത
ി പരി ഗണ
 സാധ്യതയുണ്ട െന്ന്
 ആത്മ വിശ്വാസ
 പുറത്തു വിട്ട
സ്തീ ന
ധ ോണ
റ ിനെ 
ു വിട്ട
ർ .

 ക യ്യ
 ന ാദ
 മ ടങ്ങിയ
 അ ംബാന
ാന ായി 
 ത േ
 ച ാന
പ്ര േക്ഷ
ിന്റെ  പേരില
 ര മേശ
 ഗ ള
ി പ ൊലീസ് 
 ഒരു  വിഭാഗ
 ഒരു പോല
ി എ ംപ
 അറിയ ിച്ചത
 യോഗ ത്തിൽ
േടിയ െത്ത
 ചോദ്യ ങ്ങള
 കല ക്ടര
 മൂന്ന്  പേര
 ഉണ്ടായിരുന്ന ത
 രംഗത്ത െത്തിയിരുന്ന
 പാ ഠ
ഫോണ ില
 ജാഗ്രത  പാല
അന്ത ാരാഷ്ട്ര
 ഹരിയ ാന
ം വകുപ്പ
ത ൂക്ക
ഫ ്ല
ബ ോസ് 
ഹ ർജ
ോ സില
്  ഒരു
ി  കള
 സ ദ
 ആ വർത്ത
 ച ീഫ
പ്ര ത്യ
 ബ ാറ്റ
ിപ്പ ുറ
 ശ േഖ
 ല ഹര
 മാ ള
 ഫ െ
 നി ധ
ന്യ ാ
 പ്രതി ദിന
 ഉപ ാധ
 വില ക്ക്
മല്ല ാത്ത
 കോൺ ഗ്ര
 മര ിച്ചത
 വെള്ള ിയാഴ്ച
ന്നി ധാന
ിയോജ ക
ഞ്ഞിര പ്പള്ള
  ദേശ
e  
o v
ക രാ
ജ ൂലൈ 
ന ടിയ
ബ ത്തിന്റെ 
വ ികാര
 പ േട
ച്ച േര
ച്ച ടക്ക
ിക്ക ായി 
 അ ബ്ദു
ക്ക്  നേര
വി ശ്യ
വി ഷ്ണ
ടു പുഴ
 ഇ ങ്ങനെ 
ോട ് പ
അത ാണ് 
ി ക ിട്ട
ചെയ്യ ുകയ
ം എ ത്ത
്വ ല
ിൻ സിപ്പ
ിരിക്കുകയാണ െന്ന
െ മ ുന്ന
 നിർ ബന്ധ
ക്കെതിര െയ
ം നൽക ിയ
യോ  ഗ
ന്മാര ുടെ 
കൊറോണ  വൈറസ് 
ഇപ്പോഴ ിതാ
ശശ ീന്ദ്ര
ം  പോലീസ് 
എ ഴ
ന ിൽക്ക
ല മെന്റ് 
ള വിൽ
ു  എന്നാണ് 
ത്ത ുനിന്ന
ിയ േയ
 സ ന്ദീപ
 അ പ്രതീക്ഷിത
 ത ിയേറ്റ
രു മായ
 ബ ാക്കിയ
 വര െ ക
ിജ ്യ
വീ ത
് സ മര
 ഉണ്ട െന്ന
 ഉണ്ട െന്ന്
 അത് ഭുത
വ്  വര
 അറ സ്റ്റ
ൊല പാതക
 വിശദ മായ
 പുരു ഷൻ
ഷകര ുടെ 
 ജോലി  ചെയ്യുന്ന
േഴ് സ് 
 ഹാജരാ ക്ക
പ്രവ ൃത്ത
പത്തനംതിട്ട :
 റെക്ക ോര
 സംവിധ ായകന
ഉറ വിട
 ശനിയ ാഴ്ച
1 10
9 7
ം ?

അ ഴിമ
എ തി
ച ൗ
പ ാർ
മ ില്ല
വ േണ്ടത
 പ ാകിസ്താന
 ക ൃ
 ക ൗൺ
ിക്ക ാതെ 
ങ്ങ ാന
 മ ീന
ാണ്  ബ
പ്ര ൊ
 ഉ യ
 ബ േബ
മു രളീധര
ിയില ൂട
െ ക ോവിഡ
കള ിലേക്ക്
 ട ീച്ച
ിക്കുകയ ോ
 ആര െയ
ി അ ര
 ലക്ഷ ദ്വീപ
ബു ദ്ധിമുട്ട
 അട ിച്ച
 പ്രദേശ ങ്ങള
 തട സ
 ക്യ ാമറ
ത്തു  നിന്ന
ി നട ത്ത
ികയ ായിരുന്ന
 പുന ഃ
െഡിയ ൂരപ്പ
യഥ ാർത്ഥ
പറ േഷന
 സ്വദേശിന ി 
നിക ുതി 
ൊണ ാള
0 1
0 5
മ ീന
ൾ പ്പെടെയുള്ള
മാ തൃക
 സ ്ര
ച്ച ിൽ
ല്ല ില
ികള െയ
 സം ഭാഷണ
എന്ന ിരുന്നാല
 ദ മ്പ
ാത െ ക
 തിര ുമാന
 ഭ ക്ത
ി സ െ
ം ത ട
.. ..
ട്ര േറ്റ
 വോട്ട ുകൾ
 സഹ കര
ഗോപ ാൽ
 മാധ്യമ പ്രവര
 സംസാര ിച്ച
ം മാത്ര മാണ് 
 അഭിമുഖ ത്തില
 വഹ ിച്ച
ഫേസ്ബുക്ക്  കുറിപ്പ
 അർ ഹ
മാതാപ ിതാക്കള
8 7
എ ത്തിയത
ജ ോസ് 
ട ിച്ചത
ര ഹിത
ി ‌
ി  പറ
്  ഗ
 പ ങ്ക്
ിയ ിട
 ക രാറ
ച്ച ന
 ശ രിക്ക
 ഹ രി
ഗ്രസ്  അധ്യക്ഷ
ാണ് ക ണ്ട
 കേസ ുകളില
 കൊണ്ട ുവന്ന
 സാധ്യത .

 പരാ തി
നേര ത്തെ ക
ഹര ിയാന
ിച്ച് ക ഴിഞ്ഞ
 ഇല്ല െന്ന
കർ ണാടക
മാസ ം 
കേസ ിൽ
ക്സി ക്യൂട്ട
 അനുമ തിയ
ിക്കുക  എന്ന
 മുന്നറിയിപ്പ ് നല
വിഷയ ത്തില
മ്മു  കശ്മീര
 റദ്ദ ാക്ക
ി ആക്രമ ിക്കപ്പെട്ട
8 00
9 6
ഇ ല്ലാത
ണ ം 
യ ുക
ഷ ൂട്ട
ു  പോക
ോ -
 ക ുര
 മ ിക
 ത യാറ
വി ഭജന
രു മെന്ന്
 വി ദ്വേഷ
 യ ോജ
ചെയ ്യാ
ത്തിന്  കാരണ
ി എ ന
ി എ ടുത്ത
മി ഥുന
 വകുപ്പ ് അറിയിച്ച
 രാഷ്ട്രീയ ത്തില
 പ്രശ ാന്ത്
സെ പ്റ്റ
 സ്വാ ഗത
 വീട ുകള
 കോടി രൂപ യ
മാത ാക്കള
ഗള ൂര
ഹൗ സില
സൗദ ി അറേബ്യ
ധി ക്ഷേപ
ാഫ്ര ിക്ക
 പ്രാഥ മിക
അ പ്പ
ഈ  മാസം 
ട െല
യ ൂത്ത്
ര ക്ത
സ ന്ദര
ി ),
ി  പോയ
ക്ക ത്തിലൂടെ 
 പ ാക
ിയ ്
ി  മുഖ്യമന്ത്ര
ി  ക്കു
ങ് മൂല
ുക ര
സ് മയ
വി പ്പ
പ്ര കാശ
ക്കാര ുകള
ം ന ിയന്ത്ര
 തിര ിച്ചു
 തിര ിച്ചുവര
ിറ്റ ൽ
ശോധ ിച്ചത
ാബ ിന
ഭി ണ
ഇന്ത്യ യ
ണക്ക െട്ട
ദ്ദേശ ം നല
 സർ ക്കാരിന്
ിന് ശേഷ മാണ് 
പ്ല ാന
 നഷ്ട പരിഹാര
സിന് ധ്യ
ം അറിയ ിച്ചത
മണ്ഡല ത്തില
 പത ാക
ിദ ംബര
ി കൊ ടുക്ക
 അഭിന ന്ദ
ഐ ട
ക ി 
ജ യിലില
ത യുണ്ട
ാ ശ്ശേര
ൊ സൈറ്റ
ന് ദേ
പ് ഷന
 ന ിവാരണ
ിക്ക രുത
 മ ുകളിൽ
 ആ ൾ
ത്തില േറെ 
ുന്നത ാണ് 
കര ന
ിവ ്യ
 ഒരു ക്കിയ
തു ല
 നേര ത്തേ
ുകളുടെ  എണ്ണ
ം നൽക ുന്ന
ൊല ിസ് 
ീഡ ന
 ശക്തമായ  കാറ്റ
ജ്ഞ ാപ
ാവശ്യ മായ
 പ്രശ് നങ്ങൾ
വളര െ 
െ കൊ ല്ല
 ശു ച
 നാള െ 
 മാല ിന്യ
ഞ്ചിനീയ റ
അ തിര
ക ത്ത
ഫ ാ
ൃ ദ്ധ
ത്ത ുന
്യ വ
ിക്ക േഷന
ം  ബിജെപ
ം  ശക്തമായ
ം  തീര
വര ാണ് 
രാ വസ്ഥ
ക്ഷ ത്ര
 വി പുല
 സ് കൂള
തിര ിച്ചു
ുവ ഴ
ുവ ച്ച
റിയ ാസ് 
സി ക്ക്
ങ്ങൾ 

 ഗ ്ല
േണ്ട ി വന്നത
 സാധ നങ്ങള
സില ര
നിര പ്പ് 
ം മ ണ
ിരു ദ
 രോഗ ബാധിത
ോഴിക്ക ോട്ട
ദേശീയ  നേതൃത്വ
ീകരണ ങ്ങള
ുന്നതിന്  മുമ്പ
രംഗത്ത െത്തിയ
ിക്കേണ്ട ത്
പ്രാ ധാന്യ
ായി ക ണ്ട
സംഘടന ാ
 പങ്കെടുക്ക ാന
 സംഘട ിപ്പിച്ച
 ക്വാറന്റ ൈനില
ം വ്യക്ത മല്ല.

 പിണറായി വിജയ ന
ഗ ്ട
ത െലങ്കാന
ഷ റ
ഹ ൈക്കമാന
െ :
ന് മാർ
്  ഈ
 പ ദ
 പ ൂട്ട
 ക സ്റ്റഡിയില
മാ ന്യ
 പ്ര കോപ
 ജ െഡിയ
രി ഫ് 
െ പ ോക
േത ന
ഇത ുമായി ബന്ധപ്പെട്ട
വില .

മി ക്
നി വാസ
ാണ് അ ന്വേഷണ
ി മ േഖല
ുത ന്ന
സിഡ ന്റ് 
, ക ോട്ടയ
 ശക്ത മായി 
 തയ്യാറ ാക്ക
ിച്ചത്  
ിഫ ്റ്റ
വ് വീസ് 
 മണിക്കൂറ ിൽ 
 എസ്  എസ് 
് പോ സിറ്റിവിറ്റി നിര
സ് പ റഞ്ഞ
പ്പട െ 
ലമെന്റ ില
 ഡോള ര
 സഞ്ച ര
 ഊ ര
ലോക്ക്  ഡൗണ
 ഡിസം ബര
മഹാ മാര
,  ആ
- ൽ
യ െ പ
ശ രിക്ക
ി വാ
 ക രാർ
 സ ാര
ിക്ക ുള്ള
ുവ ശ
 മു ട്ട
ാമ ്യാപ
േണ്ട ിവര
െന്നാണ്  റിപ്പോര
രാജ്യ ങ്ങളില
ം ത െറ്റ
 പു ഴ
ൊക്ക െയ
 ശ്രമ ിച്ചത
 ശതമാന ം 
ഡിഎഫ ിന്
ആദ്യ ത്തെ 
ിലൂട െയാണ് 
മോ ക്രാ
ധാകര ന്റെ 
 അതി ജീവിത
ിന്റ േത
സൗ കര്യ
ം കൊ ടുത്ത
ദിലീപ ിന്റെ 
 വൈക ിട്ട
വിദ്യാ ർത്ഥ
 പരിധ ിയില
 ഡീസ ല
നുബന്ധ ിച്ച് 
ാമ്യാപ േക്ഷ
ഗ ൗരവ
ജ ോസഫ
ന ുമ
ന ന്ദ
റ ോള
ാ  ര
ു  വ
് മി
്‍ '
 പ ൈ
ുക ഴിഞ്ഞ
രാ മര
്‌ ,
ിവ ാര്യ
 എന്ന െ 
മു ല്ലപ്പള്ള
ുപ റയ
ഡ്  അ
ഞ്ച ര
ം ന ീണ്ട
ണ്ണ ായക
ം വ ീട
നില വാര
 വെ ളി
 കാര്യ ത്തിൽ
ം പ്ര വർത്ത
 വ്യക്ത ികള
 ഉറപ്പ ുവരുത്ത
 നാല ു
 ഉൾ പ്പെടുന്ന
െന ീഷ
 ശര ിയായ
 യുഡിഎഫ ിന്
് കൊ ല്ല
കക്ഷ ിയായ
 ഉട മ
 മീറ്റ ർ
 പന്ത ില
മണിക്ക ൂറ
 പാക്ക േജ
ഇ ഡ
ക േ
ജ ഡ്ജ
െ രഞ്ഞെടുപ്പ
ിയ ാണെന്ന
മാ സം
 സ ന്നദ്ധ
 ന ദ
ിക ോ
രാ ക്ക
ത്തില െത്തിയ
 ഉ ത്തർപ്രദേശ
 പറഞ്ഞ ് 
കു മ്പോള
 റ െഡ്ഡ
 വര െ ന
ി പ ിട
ിലെ  ഒരു
ി ക േസ
ലീ ഗ് 
 തിര ച്ചില
ി എ ന്ത
 കോട തിയെ സമീപ
യ്ക്ക ുന്നത
 സംഘ വ
 അറിയ ില്ല.

് ത ുറ
ശോധന യ്ക്ക്
് ആ ശുപത്രിയില
 രീ തിയ
ഉണ്ട ാവ
 കോടതി  വിധ
ായി ക ാണ
രാമ ത്ത്
 മത്സ രാർത്ഥ
 വിദഗ് ധര
ുവാ ൻ
പ്രശ് ന
ബിഎ സ്പ
ഈ  സാഹചര്യത്തിൽ
ക ുമെന്ന
ച േ
ത ട്ടിപ്പ
ാ സിന
െ ൺകുട്ട
ത്  സ
ന്ന ിട്ടുണ്ട
ത്ത ാണ് 
ിയ റ
 ക െ പ
മാ തൃ
 സ ർക്കാറ
 ന ിയോഗ
ുക ിട
 ത ുര
റ്റ ുനോക്ക
െയ ധിക
പ്ര വേശന
മാണ്  ഇത
മര ുന്ന
മന്ത്ര ാലയ
 ആവശ്യ ങ്ങള
ുന ര
ാണ് അ പകട
 പുറത്ത ിറങ്ങ
 പദ്ധ തിയില
ം ഉണ്ട ാക്ക
 പ്രവർത്ത കർ
സൈ റ്റ് 
ായക ൻ
 ആരംഭ ിച്ചത
പാല ക്കാട് 
വ്യാപ ക
വ്യാപ നം 
 അഭ യ
 പരിശോധ ിച്ച
 ടെ ക
നടപട ികള
ി ഹ ൈക്കോട
െ കൊ വിഡ് 
രംഗത്ത്  വന്ന
 സാധിച്ച ില്ല.

സമയ ത്ത്
സംവിധ ായകന
ം "
ഊ ര
ഓ ള
ച ട്ട
ദ ന
ഭ ർത്താവ
ക്ക രണ
ക്ക ുമ്പോള
ക്ക ത്തിലൂടെയാണ് 
 പ ശ്ചാത്തല
 സ ി സ
ം  ഒഴിവാക്ക
 അ ക്കാദമ
ിൽ  നിന്നുള്ള
ക്ക്  വലിയ
ുമ ല്ല
 ശ സ്ത്രക്രിയ
 ഒ രാഴ്ച
സി  പ
േത ാക്കൾ
ക്ര ീന
ം ന ാല
ം ന ോക്ക
ി പ ങ്ക
 ഓ ക
ിസ ഭാ
െ മ ന
കാല ാവസ്ഥ
 ആരോപ ിക്കുന്ന
 കമ്മ ീഷൻ
 എന്ത ാണ് 
ആരോഗ്യ  പ്രവര
 നിരവധ ി പേര
 പ്ല ാറ്റ
 യുവ തി 
മ്യ ൂണ
ഭൂമ ി 
െരു മാറ
 ബജ റ്റ
ായ് മയ
എ ത്രയ
ങ ് 
ഡ ുകളില
ത െക്ക
ന േട
മ ീ
യ േല
െ ...

ില ോ
 ക ടുവ
 വ സ
 വ ച്ച് 
ിക്ക ള
 അ ച്ഛന
 പ്ര ളയ
 ഇ ട്ട
 ഇ ക്കുറ
വാ ങ്മൂല
 ഉ പരോധ
 ശ ുപ
മു ട്ട
് ക ുട
ം പ ുതിയ
യുടെ  ഭാഗ
യാള ുടെ 
 അന ധികൃത
ിറ ങ്ങിയത
ാണ് പ റയ
് വ യ
 നേര ത്തെ പ
ിയായ ിരിക്ക
 ഇത ിന്റെ 
െ. .

അതിന ു
 പ്രസിഡ ന
എൽ എമാര
ശ്രദ്ധ േയ
ആയ ിര
ന്ദർ ശ
ം തന്ന െയാണ് 
 തോന്ന ുന്ന
 ന്ന  ത
ഇര ട്ട
ഹസ ിച്ച
 ഇന്റ ർ
 ചല ഞ്ച
 പ്പ െ 
 സന്ദർ ശ
ലംഘ ന
 കൊട്ടാര ക്കര
 സാഹചര ്യമ
ുവീ ഴ്ച
ഈ  സമയത്ത്
ഡ േ
ന ാഷണല
സ ീ
ായ ംകുള
 മ ോഹൻ
 അ ഭ്യര
 അ സുഖ
 ത ാക്ക
ടു വയ
രു ണാ
ത്തില ായിരുന്ന
 ഉ യർ
 ജ ഡ്ജ
 ശ ാരീരിക
 സം ഖ്യ
 ല ൈന
കു ല
വർ ധ
ം ന െഗറ്റീവ
ംഗ ്
ത്ഥ ത്തില
 ഓ ഗസ്റ്റ് 
യു വാവ
 ഉണ്ട ായത
 ആവശ്യ പ്പെട്ടത
 ഉപ തിരഞ്ഞെടുപ്പ
 എത്ത ാന
ദ്ദേശ ങ്ങള
മാത്ര ം 
സ്സ ിൽ
ോഡ ല
പരി ശോധ
 സൗ കര
ി വി ള
ി ച ികിത്സ
തൃ ശ്ശ
് പ്ര കാര
ലോക ത്ത്
14 0
ത്തകര ുടെ 
രാഹുല ിന്റെ 
 ഘട്ട ത്തിൽ
ഇത്തര മൊരു
 പ്രധാന പ്പെട്ട
ക്കാരിന െതിരെ 
ശക്തമായ  മഴ
ം നടത്തിയ ിരുന്ന
 വ്യാ ഴാഴ്ച
ഡ്ര ൈവ
 ആന ന്ദ
ഡെ പ്യൂട്ട
ജ ക്ട
മ ില്ലെന്ന്
യ ാക
ൊ ത്ത
ക്ക ുകള
ില െ പ
െ  ബ
ത്ത ുക
ിയ മ്മ
ിന്  നല
 ത ീപ
 എ  ഇ
 ബ ാര
ിപ്പ ൂരില
ങ്ക ല
 റ ോള
ം ന ാട്ട
ം പ ര
 ഫ ിറോസ് 
 പൊ ലീസിന
 ലഭ ിച്ചിരുന്ന
 ഷ ൂട്ട
ിക്കുകയാണ െന്ന്
് വ ്യ
 ലക്ഷ ം കോട
ംബ റില
 വന്ന ു
ാട്  സ്വദേശ
 മണ്ഡല ങ്ങള
 വിഭാഗ ങ്ങള
 എന്നിവ ർക്ക
 കുറ്റ പത്ര
വയ നാട
കേസ ിലെ 
 അര ങ്ങ
 അനുവദ ിച്ച
വീട്ട ുകാര
 ത്ത ി ല
9 8
എ എപ
ക ുവൈ
ട ിക്കറ്റ് 
പ ാറ
യ േറ്റ
വ ൂര
വ ഴിയ
ത്ത ായ
ിയ ാക്ക
 ക മ
 ന ി 
 ന ാഗ
ായ ിടത്ത
 അ മ്പ
സ് മ
രാ ഗത
രാ ഹുൽ
ങ്ക ാര
 യ ാദവ
ി ന ഷ്ട
ാള യ
ം ന േര
ത്തിന്  സമീപ
വേ ഗത
ാഴ ്
അതേസമയ ം മ
ുള്ളത ാണ
നിര ോധ
നിര പേക്ഷ
 രാജ്യ സഭ
പ്രതി ഫല
 മത്സര ത്തില
ലക്ഷ ദ്വീപ
കാല ാവധ
ി വര ുന്ന
 ജില്ലാ  കളക്ടര
 അടക്ക ം 
 ആരംഭ ിക്ക
 സൈ ബര
 പ്രത്യ ക്ഷ
കണ്ണൂർ :
 ഗുജറാ ത്ത്
മ്മൻ ചാണ്ട
ഇ .
ക ന്ന
ന ാന
വ ുമാണ് 
െ  ന്ന
 സ ൈക്ക
 മ ോഷണ
 എ ഫ് 
പ്ര ണ്ട
മ്പ രാഗത
്യാ ന്തര
 യ ൂറോ
 ഗ ുണ്ട
ം വ കുപ്പ
െ ന ിയന്ത്ര
 വില യില
 ശ്രമ ിക്കുന്ന
 രാജ ്
് പറഞ്ഞ ത
ഉണ്ട ായത
ആരോപ ണങ്ങള
 മാധ്യമ ങ്ങളില
ജീവിത ത്തിൽ
അന ുകൂല
ീഡ ിപ്പിച്ച
കുറ ച്ച
ബല ാത്സംഗ
 എല്ല ാവർക്ക
 മൂല ്യ
ബാല ചന്ദ്ര
സിനിമ യില
യുപ ിയില
കമ്മ ിറ്റ
ഒട്ട േറെ 
9 3
ഇ ങ്ങനെ 
ഇ യാൾ
ഉ ച്ച
എ യർ
ക ം 
ക ോട്ടയം 
മ ില്ലാതെ 
വ ക
സ ച്ചിന
ാ ക്രമണ
ൂ ങ്ങ
ോ യില
ൗ ള
 ക ന്ന
 ക ിറ്റ
ിക്ക ണമെന്നാണ് 
പ്പ ാറ
 ച ൂട
 ബ ഹു
 ജ നുവര
മു യര
ണ്ണ ൂർ
മാക്ക ുന്ന
േക്ക ബ
 ഓ ഹര
 കേന്ദ്ര സർക്കാർ
ം സ മര
ട്ര ോൾ
ഭി മുഖ
 കഴിഞ്ഞ ിരുന്ന
ാക്കിയ ത്
 പരാ തിക്കാര
വിവര ങ്ങൾ
 തുടങ്ങിയ വ
പ്രവർത്ത കർ
 ബി ജെ പ ി 
 കാലാവസ്ഥ ാ
വട കര
 തെളിയ ിക്കുന്ന
ലക്ഷ്യമ ിടുന്നത
വന്  
ം വൈ ക
ഇല ക്ട്ര
  ള്ള
,  തിരുവനന്തപുരം 
ഭ ിന്ന
യ ട
വ േണ്ട
സ ീറ്റ് 
ാ .

ന്ന ാല
ക്ക ാട്ട
ില െത്തിയ
 പ ണമ
 ക  ര
 ക ച്ചവട
 എ ങ്ങനെ 
സ് മാന
ക്ക്  മുന്നില
പ്ര ളയ
ോട ് ക
സ്റ്റ ഡിയിൽ
ുര ക്ഷ
 ദ ൈവ
ഇത ൊരു
 പറയ ാൻ
ാത്ത ത്
 സാധ ിക്കുന്ന
അതേസമയ ം ത
 കോട ി 
ക്യ ാപ്റ്റന
 കേരള ത്തിന്
 ലക്ഷ ്മ
19 4
 വേ റെ 
 ധ രിക്ക
ലോക ത്തെ 
 രീ തി 
ി നേത ാവ് 
ുണ്ടായിരുന്ന ത
സ്വാ ഗത
എന്ത െങ്കില
മാധ്യമ പ്രവര
 പോലീസ ുകാര
ധികൃത ർ
 വൈക ീട്ട
വിശദ മായ
 ചെല വഴ
 ജോലി  ചെയ്യ
നുസര ിച്ച
 ശാ ന്ത
െ കണ്ടെത്ത ാന
 സിനിമയ ുടെ 
സാമൂഹ ്യ
 ടൂറ ിസം
  മായ
അ ബുദാബ
ത ാൽ
മ െടുത്ത
റ ീന
ി വി
ോ സിന
 വ ശ
 വ ാണ
ങ്ങ ുന്ന
റ്റ ിക്
െയ ുളള
 പ്ര തിയായ
വാ ങ്ങിയ
സി എ
ം ന ിന്ന
ാര്യ ങ്ങൾ
 ആര െങ്കില
െ അ ഞ്ച
ഭവ ന
യു മാണ് 
ടിയ േറ്റ
ക്യ ാമറ
 സ്വദേശ ികളായ
 അത ിൽ
ുന ല
 വേ ഗത
ം ച േർ
 ധ ൈര്യ
 തിരിച്ച െത്തിയ
 പ്രതീക്ഷ ിക്കുന്ന
ം ഏ ര
ഗ്രസിന െ 
 നയ തന്ത്ര
 ബു ദ്ധിമു
 പ്ല സ് 
ം കൊണ്ട ് 
 അസ ോസിയ
ഏഴ ് 
 ഡ്ര ൈ
 അന്തര ീക്ഷ
മഹാരാഷ്ട്ര യില
ായു ധ
ഡിസം ബര
ിസിപ്പ ാലിറ്റ
െഹ്ല ോട്ട
ം !

അ ഫ്ഗാന
ക യ
ഫ െ
ു  പോയ
െ ക
െ ഴുത
ർ  സ
ി  വിട
പ്പ ിസ
 എ ഫ
രാ മന
െ പ റ്റ
 യ ി ല
 പറഞ്ഞ ാല
ാൻ  കഴിഞ്ഞ
കു ഴ
ം പ ൊ
 ഫ ോറ
ശ് വന
ി സ െന്റ
ി വ െ
കൊ ള്ള
ട്ര േഷന
 രണ്ട ാമത്തെ 
ാണ് പ ുറത്ത
ഷ് കര
െ മ ോശ
 സർ വീസ് 
് ച ോദ
ഗണ േഷ
തെ ര
ദാന ന്തര
 തിരുവനന്തപുര ത്ത്
ം റ ദ്ദ
 ബൈ ഡ
 ജില്ലകളില ായി 
ുക എന്ന ത്
 പങ്കാള ിത്ത
 റി ക്രൂട്ട
 സീ താര
ികോ പ്റ്റ
  ഔദ്യ
h an
ഒ രാഴ്ച
റ ാണ് 
വ േയ
ീ ശ്വര
ു '
ർ ണ
്‍ ...

ത്ത ത
 പ ാന
ും :
ിക്ക ില്ലെന്ന
 ജ െ ഡ
ുമ ൊക്കെ 
സ്റ്റ ർ
ി ന ോക്ക
ഇത ോടൊപ്പ
ാള ില
ം ന േരത്തെ 
ാപ നില
ാണ് ഇ ത്തവണ
 ബിജെപ ി നേതാക്കള
 ആണ െന്ന്
 പദ്ധ തികൾ
 ചില ർ
സു ഹൃ
ധന മന്ത്ര
ഴ് സ
രിയ ാര
അതുകൊണ്ട ് തന്ന
താര ങ്ങള
 എസ്  പ
 പേ രു
രണ്ട്  ദിവസ
ഉപയോഗ ിച്ച് 
ഭാര്യ യ
 സി പ ി ഐ
ശ്വ സ്ത
 ഒഴിവ ുകള
 കനത്ത  മഴ
 മറുപടിയ ുമായി 
സബ ് വാര
7 00
ഗ ് പ
ത േട
ദ ് പ
ധ ിക്ക
മ മ്മൂട്ട
റ ോ
റ േഷന
ി ദ്ധര
ൂ യ
ന്ന ൂർ
്  .

്  സിങ
 പ ഴ
 പ ാണ്ഡ
 ക ാസർ
മാ ട
 വ ംശ
 മ ഞ്ഞ
സ് ജിദ
 ആ ത്
 ആ ക്ക
 ജ ോണ
 ഒ ളിവ
 നട ക്കാന
ിത ാവ് 
 ഗ ാന
ിയുടെ  പ്രതികരണ
 പേര െ 
േക്ക ുമെന്നാണ് 
ി എ ംഎല
െ ആ ശുപത്ര
വാഹ നങ്ങള
 മത്സര ാര
പേര ് 
 തിരിച്ച റിഞ്ഞ
 വ്യക്ത മാണ
പ്രദേശ ില
 ഇത്തര മൊരു
 ഇതിന ോടക
 അഭിപ്രായ പ്പെട്ട
സ്ഥല ത്ത്
ി കൊ ടുത്ത
ികെ  ശിവ
കൃത്യ മായ
al a
ഡിസം ബ
വിടു ത്തെ 
ിടിവ ി 
ഇ ംഗ്ല
എ ഐ
ദ ിക്
ഭ ക്ഷ്യ
റ സ്റ്റ
ഷ ാ
ൊ ര
ൗ ന
ിച്ച പ്പോൾ
ായ  
 അ ംബ
ിന്  മുന്നില
 ത ിള
ിക ുള
സ് ക്
ങ്ങള ുണ്ട
 ആ ഭരണ
ില്ല ല്ല
മാണ െങ്കില
 ല െ നിയമ
ിട ാന
ാർ ഡ
പ്പെട ുന്നത്
െ അ തി
ം സ ിന
പര ിവാര
 യു  ഡി എഫ
ാണ് ഇ ട
െക്ക ാൾ
ി ത േട
 പോക ാൻ
് പ്ര വര
ിയിരുന്ന ത
 കല ാകാര
മറ ുപ
ം മാത്ര മേ
ം കൊണ്ട ുവര
 പ്രായ മുള്ള
ം കൈ വര
മാനേജ ര
കോൺ ഗ്രസ
ം വില യിരുത്ത
 മോഡ ല
. g
അ ല്ലെങ്കില
ആ പ്പ
ക ാവ
ന യുടെ 
ബ സ് 
ഷ നില
ഹ ൈക്ക
ു  .

ക്ക ീല
 ക ൗ
ിക്ക ാറുണ്ട
ാന ന്ദ
റ്റ ിന
സ് കൂള
ഞ്ഞ ത
 ബ ില
 ബ ംഗാൾ
് പ ൊലീസ് 
സി ൻ
ോട്ട റിയ
ത്തിന്റെ  പേരില
െ ന ല്ല
 ഓ റഞ്ച
ട്ട്  ചെയ്യുന്നത
നി ധ
രിക്ക ൽ
 കൊണ്ട ുപോക
െടുക്ക ുകയ
ണക്ക ാക്ക
ി ആ വശ്യ
 സ്ഥാന ാർത്ഥികള
 വിജയ ിക്കാന
കന ത്ത
മല്ല െന്ന
ി പറഞ്ഞ ത
 മണിക്ക ൂർ
 ഉപയോഗ ിക്കുന്ന
എം എ
 വ്യാപ കമായ
 ഓഫീ സില
 നഷ്ട മായ
ഞ്ജ ല
 കീഴ ിലുള്ള
 അധ്യാപ കര
 റോബ ിന
 ടൂറ ിസ
ിന്റെ അടിസ്ഥാന ത്തില
എ ക്
ഗ ായ
ന േടിയ
ഫ ണ്ട
ബ ാഗ
യ ായത
വ ന്യൂ
 പ ിസ
ും ...

 ന ാ
 അ ങ്ങനെ 
വി ക്ക്
 വി ഡ
 ശ ്
 ല ോ
ം പ ുറത്ത്
 ഹ െ
 ആര ്യ
 കൊ ടു
ഗ്രസ്  നേതാവ് 
 നേത ൃ
ാണ് ഇ രു
മുണ്ട ാവ
രോഗ ബാധ
 വ്യക്ത ിയാണ് 
ഇതിന ോടക
 അന്വേഷണ ത്തില
 വിമാന ങ്ങള
 ഭൂ രിഭാഗ
 ബു ധനാഴ്ച
 ബാധ ിത
ിനെ പ ിന്തുണ
 അധ ി
ഇയാള ുടെ 
അമേരിക്ക ന
ഇ സ്ലാമ
എ സ്സ
ദ ൈവ
പ ിണറായി വിജയ
മ ോഹൻ
യ ോടെയാണ് 
വ െ 
വ ച്ച
ൂ ഖ
്  ഓഫ് 
ത്ത ാണ
 വ ട്ട
ിക്ക ുമ്പോഴ
 മ സ
ിന െയാണ് 
സ് വർണ്ണ
ക്ക്  കോവിഡ
വി ഞ്ഞ
 ച െന്ന
് ക ോര
ന്ധ ്രാ
ി പ ണ
െ അ വര
 പരി ശീല
വില ക്ക
ഡിഎ ംക
ാശ േര
ട്ര ല
 പിന്ന ിട്ട
 പൊ തുവ
ശന ത്തിന്
 അത ിവേഗ
ി ത ാല
 വിജയ രാഘ
ൂണ ിത്തുറ
 മാറ്റ ം വരു
 സ്റ്റ ാഫ
 പ്രദേശ ത്ത്
 കൊവിഡ്  സ്ഥിരീകരിച്ച
വയ നാട് 
 ഓഫീ സർ
 മോ ഷ്ട
കൈ യ്യ
 ഡി ഗ്ര
ിനെ പ ോല
് കൂട ിയ
 മിന ിറ്റ
ഗുജറാ ത്ത്
ായു ക്ത
സെക്രട്ട റ
ംഗള ൂരു
 നാശ നഷ്ട
ഓ ഹര
ക ോർ
ഭ ക്ത
ൊ ടുവില
ോ ത
ായ ില
 എ ങ്ങനെയാണ് 
 വി ശ
 ര ജിസ്ട്ര
 ര ജിസ്റ്റർ
ാത െയാണ് 
െ ന ിർ
 പേര ുടെയ
 വെ ബ്
ഫീ ല
ോഹ ര
 സർ വീസ
 പാർട്ട ിയുടെ 
വ്യ വസായ
 കമ്മിറ്റ ി 
 ദിന ത്തില
ബിഗ് ബ ോസ
ായിട്ട ാണ് 
ഇതിന് പിന്നാല െ 
തുടക്ക ത്തില
സഹോദര ന
 അഭിഭാഷ കന
ദർ ശ
1 30
അ വിടെ 
ജ ന്മ
ദ ോഷ
ന രേന്ദ്ര മോദ
ബ ിക്കട
മ ൂട
ത്ത ുകള
ായ ിട്ടില്ല.

 അ സം
ിട ത്ത്
ഡ്  സ
് സ ഹ
ം ത േടിയ
ി ത യ്യാറ
ിലേക്ക്  എത്ത
വന ിത
 പരാ ത
കാല ിദ
ക്കാര്യ ത്തില
മർ ദ്ദ
 കുട്ട ികളുടെ 
പോ രാട്ട
 ക്ര ിക്കറ്റ
അടുത്ത ിട
രേഖ പ്പെടുത്തിയ
 പ്രവ ചന
 നേട ാന
ഏറ്റ ുമുട്ട
 ക്രി സ്ത്യ
 രോഗം സ്ഥിരീകരിച്ച ിട്ടുണ്ട
 സൂച ിപ്പിക്കുന്നത
 പാർ ലമെന്റ
 വിക സ
 സ്പീക്ക ര
 മയ ക്കുമരുന്ന്
 അപേക്ഷ ക്ഷണ ിച്ച
ഏ ര
ഫ ോട്ടോ
ബ ാക്ക
വ ന്റെ 
സ േര
ി ഞ്ച
െ ;
് ക
ർ ഥ
 വ ണ
 അ ഹമ്മദ
െയ ുണ്ട
 എ ം പ
ിന്റെ  നേതൃത്വത്തില
 ജ ിഹാദ
തിര ിഞ്ഞ
തിര ുത്ത
 ഒ മൈക്ര
അത ോടൊപ്പ
ാത ല
 നിന്ന ു
ായിരുന്നു  ഈ
 ഹ ൈക്ക
 നി ഗമന
രാജ്യ ത്ത
 കോട ിയില
 ശ്ര ീധര
ട്ട്  ചെയ്തത
ം മ ത്സര
െ ത ള്ള
 പങ്ക െടുക്കുന്ന
 സു പ്രധാന
 വേ ണു
െ ആ ശുപത്രിയില
ാറ്റ ില
നേര ത്തെ പ
 ഗാന്ധ ി 
ം വി വാദ
ത്മ ക
ിന്റെ പ ുതിയ
ി മു രളീധരന
വിന ോദ
 വർ ഗീയ
തിരിച്ച റിയ
 പരിശോധ ിക്ക
ആയ ിരുന്നു
ഡയറ ക്ടർ
 ബജ റ്റ് 
ം ചെയ ്യാൻ
 ഡിജ ിപ
ൃഥ്വ ിരാജ
അ ധിക
ഗ മ
ജ ാഗ്രത
ട ിഎ
ത ൊ
ന മുക്ക്
ള ുകൾ
ശ ിയ
ൂ ൽ
ൾ ക്ക്
ും ..

ിയ െ ക
 ക ാശ
 സ ായ
ിന്  മുകളില
ങ്ങള െല്ല
 പ്ര കൃ
 ബ ിഷ
 ല ോക്ക
മായി  നട
െടു പ്പില
ഇത ോടെ ക
ം പ ിന
 കൊ റിയ
സ്വ ീകരിക്ക
ത്ഥ ികളുടെ 
 ഓ ക്സി
് അ ടുത്ത
ീറ്റ ര
ോക ന
ം ഉ യർത്ത
പര സ്യ
 കുറ യ്ക്ക
 ജന സംഖ്യ
കിയ ത്
ർച്ച യായി 
മാക ുമെന്ന
 പുറത്ത ിറക്കിയ
തൃ ശൂർ
 രാഷ്ട്രീയ  പാര
നിയമ സഭാ തിരഞ്ഞെടുപ്പ
 സാ ക്ഷ്യ
മിന ൽ
 പറ്റ ാത്ത
 പൂ ഞ്ഞ
പരാ ത
പരാ മര
 ധന സഹായ
ഏറ്റ െടുക്ക
 ഗുണ ം ചെയ്യ
 ഡോസ്  വാക
 ലോക്ക് ഡൗണ
 ഇറക്കുമ തി 
ദ്ധവ ് താക്ക
0 7
A n
ഒ മ്പത്
ഓ ൺ
ക മല
യ ാണെന്ന
വ ൃത്ത
സ ായ
സ ാഹ
ൈ ര
ക്ക ുണ്ട
ും '
 ന ാണ് 
ിക്ക ളയ
 മ ജ
തിര ാദിത്യ
 ല ഖ
മായി  മാറിയ
 മാ ധ
 ഡ ൗൺ
ലീ ന
് ന േടിയ
വീ ഴ്ച
െ ന ിയോഗ
ി അ വസാന
െത്ത ാന
ടക്ക ാല
ി വ ലിയ
 വേണ്ട ിയുള്ള
 കൊണ്ട ുപോയ
ി മ ോദ
 കൈ വര
 അംഗ ീകരിച്ച
 ആദ്യ ത്തെ 
 നിലപാട ില
സർ ക്കാര
 രേഖ പ്പെടുത്ത
ിക്കേണ്ട ി വര
ഇത്തവണ യ
ആണ ് 
 മേ ൽ
ഡോ ക്ടർ
 ലോക്ക്  ഡൗണ
 ഗണ േഷ
 പ്രതിനിധ ികള
 പരമാവധ ി 
  ക്ക്
ം ),
ക റ
ച ിതമായ
ദ ീര
പ ിസ
സ ഖ
സ ൂക്ഷ
സ ീനിയര
 പ ിണറായ
ിയ ിരിക്കുകയാണ
മാ ർച്ച് 
 ന ാരായണ
്ല ീല
വര ാജ
 ച ക്ര
ുന്നത ിൽ
യില െ സ
ം ക േട്ട
കള െ 
ി പ ുതിയ
ം അ ര
യ്ക്ക ിട
 ഇട തുമുന്നണ
ികൾ ,
 അന ുപ
 ജന ങ്ങൾ
 ഉപ കരണങ്ങള
െ വ ല
നേര ിട്ട
ം വി ശദ
മർ പ്പ
സ്വാ ഭാവിക
 എതിര ായ
 രാശ ിക്കാർക്ക്
 ശക്തമായ  മഴ
 പോലീസ ിന്റെ 
 പറ്റ ിയ
ശിവ ശങ്ക
മാല ിന്യ
 ഏഴ ് 
യിട ങ്ങളില
ി പ്രഖ്യാപ ിച്ച
ം ശക്ത മാക്ക
ുണ ്യ
ലോക്ക് ഡൗണ
ഉദ്യോഗ സ്ഥര
ഗുജറാ ത്തില
 നടപ്പില ാക്ക
ഫറ ന
ി ജീവ നക്കാര
അ യ്യ
ഗ വർണ
ട ിയില
ഥ മ
ദ ് 
ഫ ൈന
യ ൽ
യ െന്ന്
വ ുമുണ്ട
സ ൺ
സ മ്മാന
ോ ?
് മെന്റ് 
ത്ത ുകയ
ി  വില
 ക  ള
ിച്ച െന്ന്
 മ ല്ല
 മ േന
വി ഹിത
സ്  (
ിന്റെ  ഭൂരിപക്ഷ
ന്ത ാരാഷ്ട്ര
മ്മ ത
ത്തിൽ  ഒരു
 ഒരു  വര
ുമായി  സംസാര
േക്ക ര
ുല ർ
ൂർ ണ്ണ
മി ശ്ര
ം എ ന
പര ിക്കേറ്റ
 ഇട യിൽ
ം ആ ഘോഷ
ം ഇ ല്ലാത
ഭി ഭാഷ
ലഭ ിക്കുന്ന
 കഴിഞ്ഞ  ദിവസം 
 കാല ഘട്ട
ലക്ഷ ം രൂപ
ി ഉ പ
 മന ോജ
സിറ്റ ് പോള
ിക്കാനുള്ള  ശ്രമ
 മാര ാര
് കു റ്റ
 നിരീക്ഷണ  കേന്ദ്ര
ബി ജെ പ ി 
മൊ ഴിയ
 വാർത്ത കൾ
 പൂർ ത്തിയാക്ക
ിഹ ്ന
 വിശ്വസ ിക്കുന്ന
തുറ ന്ന
 ബിസിന സ് 
ക ാറ
ഗ ് പറഞ്ഞ
ച ുരു
മ ില
ഹ ്ല
ാ ച്ച
ത്ത റില
ിയ ോടെ 
 സ ുല
 സ ീന
ം  ജില്ലയില
 അ ഖിൽ
വി ട്ട് 
 പ്ര ാര
ാല ിന
 ഇ .
 ശ ൈല
ത്തിയ ാക്കാന
ിട ത്തോള
ാർ ജ
 റ െയ്
ഇത ിനെ 
ം പ ുലര
മാര െ 
 ഫ ിന
 ഓ സ
 ചെയ്ത ു
 സെ ല്ല
 സംഘ പരി
ം മ േഖല
 ലക്ഷ ത്തോള
 വില ാസ
െറ ുത
 ശക്ത മാണ
പ്ല ോമ
 ക്യ ാപ്റ്റന
 രണ്ട്  ദിവസ
 വീഡിയോ യില
 അനുകൂല മായ
 സത്യ പ്രതിജ്ഞ
് നടക്ക ുന്ന
 എം എ ൽ എ
 കാട്ട ാന
ട്വീ റ്റ
am 

അ ച്ഛന
ആ ലോച
ബ ത്തിന
മ കൻ
റ ിട്ട
റ ാമ
ന്ന ങ്ങള
 പ ത്മ
ിയ ൂ
ി  സ്റ്റ
ി  സംഘ
 സ ോള
 വ  ര
ങ്ങള ൊന്ന
 റ ിന
 വര ുന്നുണ്ട
തല സ്ഥാന
മാണ്  അ
 പറയ ുകയ
 ഫ െബ്രുവര
െതിര െ ക
െ അ പമാന
ി അ ട
 യു ക്രൈന
ം ഇ പ്പോള
 അറിയ ിപ്പ
െ വ ്യക്ത
 നടത്ത ുകയ
ിത്ത റ
് മ റ
ത്തന ങ്ങളില
 സാധ്യത കള
 കാണ ുന്നത
 പോലീസ്  മേധാവ
സു ധാകരന
 അട ങ്ങിയ
മായി പ ാല
 താല ൂക്ക്
 പ്രതിസന്ധ ിയില
 അനുമ തി നൽക
 ബൈ ജു
താല ിബാന
 പൊലീസ ിന്
നെ റ്റ് 
 ലംഘ ന
എച്ച ്
 സഹോദര ന
0 3
ം  പോയ
ക യ്യ
ക ിഴക്ക
ന െറ്റ
ന ിവാരണ
പ ഠ
പ ിച്ച
ഫ െഡ
ഷ വ
സ ാമ
ൾ പ്പെടെ 
്യ ൂറോ
 അ ടുപ്പ
 അ ജിത്
 പ്ര ക്രിയ
 ബ ോട്ട
ന്ത്ര ണ്ട
ിച്ചത ിന
ാൻ സ
ം പ ങ്ക
ം പ ദ്ധ
 ചെയ്ത ാല
 മന്ത്ര ിസ്ഥാന
ശ്ര ീന
ം ഇ വര
െ വ െച്ച
 സു നില
ദ്ദേശ ിച്ച
 തന്ന െ ന
െയുള്ള  
മുഖ േന
 കട ന്ന്
അദ്ദേഹ ത്തിന്
അതുകൊണ്ട ുതന്നെ 
 സ്വാ മ
 അവസര ങ്ങള
നേ മ
ുരു ത്ത
 ആളുകള ുടെ 
ശു ഭ
വിലയിരുത്ത പ്പെടുന്നത
് സീറ്റ ുകള
പ്രിയ പ്പെട്ട
 പഞ്ചായത്ത ുകളില
ജോ ലിയ
.g ov
w es
ം  സംബന്ധിച്ച് 
ആ ഘോഷ
ക െപിസിസ
ക ണ്ഠ
ഗ പ്പ
പ ങ്കാള
മ ോര
റ ിവ
റ ിയില
വ ണ്ട
പ്പ ുറത്ത
പ്പ ൂണിത്തുറ
 അ മിത് ഷായ
ോട െ സ
 ജ ൂലൈ
 ല ക്ഷണങ്ങള
മ്മ ല
 മാ താപ
ം ന േരിട്ട
 ചെയ ർ
ം വ ന
ായിരുന്നു  ഇത
െന്നാണ്  റിപ്പോർട്ട
ാത്ത ിമ
ത്ഥ ിയായി 
ി സ െക്രട്ടറ
് സ െ
പാട ുകള
ജന റൽ
 ബിജെപ ി നേതാവ
് വ ായിക്ക
ജീവ ൻ
 കോൺ ഗ്രസിന്റെ 
ാണ് സ ർക്കാർ
 ഒന്ന ര
ഒന്ന ര
 ജില്ലാ  പഞ്ചായത്ത്
 അറ ിവ
 നിലപാട ാണ് 
എൽ .
ദേവ സ്വ
ഇത്തര ത്തിൽ
 അടുത്ത ിട
 അവകാശ പ്പെട്ട
ശിവ ന
കാ ന്ത
് കൊ ച്ച
 നിലവില ുള്ള
സംസ്ഥാനത്തെ  വിവിധ
 ചെറ ുപ്പ
ഷക  സമര
ബംഗാള ില
ഹോട്ട ല
0 6
ച ാനല
പ ഴ
യ ുന്ന
റ ി സ
വ െല്ലുവിള
ാ ഗ് 
ി  പ്രതിഷേധ
ു "
ോ 

ക്ക ുമെന്ന
മാ ശ
 വ രണ
പ്പ ല
 അ ന്ത്യ
െയ െല്ല
 പ്ര താപ
രാ മ്പ്ര
 ബ ൈക്ക
ുമ െത്ത
ിവ േഴ്
 മാ ർക്ക
റിയ ാസ
 മു രളീധരന
ക്കാര നായ
ുപ റഞ്ഞ
ാത ിരുന്നത
ുമായി  ചര
േയ റ്റ
 നി ശ്ചിത
 ചെയ്ത ത്
ുകളില ൂട
യ്ക്ക ുകയ
ോർ ട്ട് 
 ആവശ്യ മാണ
െ വ ളര
 രോഗ ബാധ
ബി ൾ
 വ്യക്തമാക്ക ിയിട്ടുണ്ട
 രാജ ീവ
 മേഖല കളിൽ
ി ഉ മ്മന
 പദ്ധ തി
ീക്ഷണ ത്തില
18 0
ം. .

യെ  തുടര
ൃഷ്ണ ന
 പ്രശ സ്ത
ഓഫീ സർ
രംഗത്ത െത്തിയത
െ നട ത്തിയ
 ഗ്രൂപ്പ ് 
യുഡിഎഫ ിന്
 പ്രതികരണ വുമായി 
 ഉന്നയ ിച്ച
നാള െ 
അറ സ്റ്റ
സാഹചര്യ ത്തില
 ദുരിത ാശ്വാസ
 അജ ണ്ട
ചെയർ മാൻ
han am

An wes
Anwes hanam

അ ക്കൗണ്ട
ക ുക.

ന ാര
ബ ന
ബ ോര
ബ ശ്രീ
റ ിന് 
ി സിന
ൗ ത
െ  സംബന്ധിച്ച് 
ത്ത ിക്കുന്നത
ിര ിച്ചു
ച്ച െ 
ം  യ
ിക ൊണ്ട
സ്  ല
്യാ ദ
 മു ഴ
ുപ ിന്നാല
ഇത ിൽ 
 സ്ഥ ിതിയ
ി വ ളര
ചെയ്ത ിട്ടുണ്ട
 തുട ർന്ന്
ജന കീയ
ാണ് ഇ പ്പോഴ
ണമെന്ന ായിരുന്നു
ം എന്ന ാണ് 
 പുറത്ത ിറക്ക
ശ്ച ിക
 എന്നാണ്  വിവര
 ഉള്ള വര
 ജോല ികള
 പാർട്ട ികള
 വിള ിച്ച് 
ിസി സി
 ആള ാണ് 
 അയ ച്ചത
പ്പില ാക്ക
പ്രതീക്ഷ .

 രേഖ പ്പെടുത്തിയ
ാഫ ിക്
 ആറ ു
ക്കാല ത്ത്
 സാ ന്നിധ്യ
 തെരഞ്ഞെടുപ്പ ില
മലയാള ം സ
പരാ തിയില
ആയ ിരുന്ന
 വാങ്ങ ാന
ക്രി സ്ത്യ
 ഹൈ ദരാബാദ
പാ ടു
രാഷ്ട്ര പതി 
 പുല ർച്ച
 വൈസ്  പ്രസിഡന്റ
പുതു തായി 
 എന്നിങ്ങന േയാണ് 
വൈദ്യ ുതി 
ിഎസ ്ട
വിന്ദ് കെ ജ്രിവാള
തിരാദിത്യ  സിന്ധ്യ
e n
ആ ശയ
ച െന്നിത്തല
ജ ൂൺ 
ധ രിച്ച
പ ി സ
മ ശ്ശേര
 പ ുട
 ക രി
 ന ു
 ന ിയ
ാണ ്

 ഉ ദയ
 ല ിസ്റ്റ
മായി  ഒരു
തി ഥ
ം ക ണക്കില
ി ന േര
ത്തെ  തുടർന്ന്
 ഫ ൈന
ത്ഥ ന
.. ?

ശന വുമായി 
 ഇന്ത്യ യിൽ
 സംഭവ ിക്ക
ിലേക്ക്  മടങ്ങ
ാക്കിയ ിരിക്കുന്നത
തൃ പ്
 പ്രസിഡ ണ്ട
 എത്തിയ ിട്ടുണ്ട
േദ ന
പൊ ലീസ
 കൊല്ല പ്പെട്ടത
 സെക്രട്ടറ ി ക
ിയാണ ിത
അവ തര
ൈവ റ്റ് 
വായ ്പ
കാരണ ം 
പ്പട െയുള്ള
പ്പട േയുള്ള
 ദിലീപ ിന്റെ 
്' ;
ി സ്വ ീകരിക്ക
ം ആരംഭ ിച്ചത
 ആഭ്യന്തര  മന്ത്രി അ
പട്ടിക യില
 കുഴ പ്പ
 സി പി എ മ്മ
ം ചെല ുത്ത
അ ടിയന്തര
ഓ ക
ച ിങ്ങ
പ ിന
യ ച്ചത
റ ോയ
സ മാന
ഹ േമ
ി ദ്ര
ീ ഖ
ത്ത െ കുറിച്ച
 പ ി 
 ക ഠിന
 മ ോട്ട
 അ ബുദാബ
ക്ക്  മാത്ര
 ആ ഗസ്റ്റ് 
 ഒ തു
ൂട ്യൂബ
 റ ീ
ി ക  ള
ിക്കുകയ െന്ന
മാര ക
ി അ ബ്ദ
വേ ലിക്ക
 സാധ ിച്ചിരുന്ന
ി. .

് സ മയ
ട്ര ാന
നിര ക്ക്
പെ ക്ടര
 ട്ര ാന
 പദ്ധ ത
വിള ിച്ച
 തല മുറ
ി വര െ 
ിക്കുന്നുണ്ട െന്ന്
ചില ർ
പ്ല വ
ി മു ഹമ്മദ
 കരു തല
ിച്ചിട്ട ില്ലെന്ന
വിശ്വാസ  പ്രമേയ
ക്കുള്ള ില
കുറ്റ പ്പെടുത്ത
രാർ ത്ഥികള
ജ്യ ോ
 ഒക്ക െ 
ഭിപ്രായ പ്പെട്ട
്രാ ന്ത
സുല േറ്റ
 തുല ്യ
,  ത
0 8
ക ോളേജ
ച ക്ര
ഡ ിൽ
ത ൊഴിലാള
പ ിള്ള
ര ോഹിത്
ാ  സ
ാ ഞ്ഞ
ക്ക യ
 പ ച്ചക്ക
മാ ള
ട്ട ു
 ന ഴ
ം  ആരോപ
ത്തില െ ക
 ബ ോള
 ബ ില്യണ
 ഒ ഴിഞ്ഞ
ിയില ുള്ള
ിയില ായത
 മാ ത്യ
ഇത ൊക്ക
 ഗ ോള
ി പ ൂര
 ഹ ൈക്കമാന
ം അ റിഞ്ഞ
 കു ല
ിപ രിചയ
െട്ട ിക്ക
ോർ ച്ച
 സെ ഷന
 ലഭ ിച്ചിട്ടുണ്ട
 ചെയ്യ ണ
െ ത കര
ബി ഷ
 സാഹചര്യ ങ്ങള
മാക ുമെന്ന്
 അംഗ ത്വ
 അംഗ ീകരിക്ക
 ഇല്ല െന്ന്
16 0
 കല ്യാണ
അതുകൊണ്ട ാണ് 
 അയ ാൾ
 ക്ര ിക്കറ്റ് 
 നേരത്തെ  തന്നെ 
വിവാഹ ം കഴ
തന്ന െയാണ് 
ിനുള്ള ിൽ
ോട്ട് പ ോവ
 ശു ക്ര
 തദ്ദേശ  സ്വയംഭരണ
 അടിയ ന്തിര
 നിക ുത
ഭീഷണ ിപ്പെടുത്ത
ഒഴിവ ുകള
ൂവ െന്ന
 യഥ ാര
 റില ീസ് 
 അതിഥ ി ത
മാണി സി ക ാപ്പന
ഉ ല
ധ ിപ്പിക്ക
പ രാജയ
ാ ന്ന
ി  ചെയര
 ക രാ
 ന ോര
ം  രണ്ട
ിക ടന്ന്
ക്ക് 

 ആ ക്ട
ല്ല 

 ഉ ത്പ
ായിരുന്ന ുവെന്ന
 നട ൻ
മു ല
സം വരണ
് ക ൂടുതല
 മാ ർച്ച
 മാ രാർ
 മു ങ്ങ
് പ ണ
 റ ൺ
ം പ ാസ
് ന േര
ത്തിന്റെ  ഫല
ായിരുന്നു  എന്ന
ം അ ട
ം അ ടുത്ത
ി. ..

 അത ുപോല
 കൂട ാതെ 
 കേസ ുകളാണ് 
വിജയ ിച്ചത
െ വ ്യ
ി ആ ദ്യ
 മത്സര ിക്ക
തികള ില
 പുറ പ്പെടുവ
 സമ്പ ന്ന
 മാസ ത്തെ 
സ്പ ദ
 മാധ്യമ ങ്ങൾ
 പങ്കെടുത്ത ിരുന്ന
 വ്യാ ഴ
 വൈക ീട്ട് 
നിയന്ത്ര ണങ്ങള
 മനസില ാക്ക
സ്കാര ിക
 വൈദ്യ ുത
 പൈല റ്റ് 
 വാക്ക ുകള
 കുത്ത ിവ
ആരാധ കര
ി രാമ ചന്ദ്രന
.gov .in
  ?

k er
ഇ ന്ധന
ഉ ദ്ദേശ
ഉ ദ്ധരിച്ച് 
എ ം എ
ഗ ൃഹ
ഡ ാക്ക
ഫ ഷണല
മ െയില
ല ക്ഷണ
വ ിന്
ഷ മ
ു ഃ
ൈ ഡ
ൻ ട്ര
്  ചെയ്യ
 പ കു
ിയ ുടേയ
 ക ഷ്ട
പ്പ ൊക്ക
ക്ക്  നിര
 ച ായ
 ര ോഹിത്
 മാ ർച്ച് 
 ദ ്ര
ി അ ദ്ദേഹ
ി സ മര
ി സ ീറ്റ
 ഈ  സമയത്ത്
 അദ്ദേഹ ത്തിന
മെ ൻ്റ
 സംസ്ഥാന ങ്ങളിൽ
 തുട ർന്ന
് വ ൈ
ണമെന്ന ാവശ്യപ്പെട്ട
െ വ ്യക്തമാക്ക
 വോട്ട ു
 വിജയ ിച്ചത
ി ഉ റപ്പ
 നടപട ിക്രമ
 ശക്ത മാക്ക
ലോക ാരോഗ്യ സംഘടന
 കാര ന
 ഇത്  
 ആരോഗ്യ  വകുപ്പ
എന ിക്ക
ി മു തൽ
അവ സ്ഥ
ാഫ ി പറ
ച്ഛ ൻ
 സാധ്യതയുണ്ട െന്ന
 കീഴ ിൽ
 നെ ഹ
 നിയന്ത്രണ ങ്ങൾ
ം ഉറപ്പ ാക്ക
യുഎഇ യില
നിരവധ ി പേര
 കാർ ഷിക
യുമായ ുള്ള
 ഫേസ്ബുക്ക ിൽ
 എവിട െയ
 അസിസ്റ്റ ന്റ് 
 ആസൂത്ര ണ
ഗ്ട ണ
ിവേഴ് സിറ്റ
  ത്യ
ആ ധ
ആ ഗസ്റ്റ് 
ഇ ഒ
ഒ ടുവിൽ
ക ല്ല
ക ൂർ
ക ുമെന്ന്
ജ ോയ
ണ മായി 
ഹ ി 
ൂ ഗിള
ൈ ,
ൊ റ
ൾ പ്പെട
 ക ത്തില
 സ േവനങ്ങള
 ന ിവ
പ്പ ാല
ിക ര
രു ത് എന്ന
 ച ിറ്റ
വാ തില
ികള ാണ
 ഒ ത്തു
ാവ ില
ായി  മാറിയ
 മു ള
് പ രാ
ിക്കുന്നത ിൽ
ാക ുമെന്ന്
പ്പെട േണ്ട
 പേര ാണ
ം അ ന
 ഓ ർ
 അവ ന
ി ജ ോണ
ോർ പ്പറേഷൻ
 തിരഞ്ഞെടുപ്പ ിന്
ം ഇ ത്
ഷേ ക്
 തീരുമാന ങ്ങള
ന്തര ീക്ഷ
 കഴിയ ില്ല.

 പുറത്ത േക്ക്
 സമ ഗ്ര
 മേഖല കള
 മോദ ി പറഞ്ഞ
 പരിശോധന കള
മാസ ങ്ങള
 മരണ പ്പെട്ട
കേസ െടുത്ത
ം കണ്ട െത്തിയത
 ഡി വിഷന
ശു ച
െപ്പ റ്റ
 പുതു പ്പള്ള
ിക്കേണ്ടത ുണ്ട
 വിലയിരുത്ത ല
 കത്ത യച്ച
ാസ് ക
സത്യ പ്രതിജ്ഞ
 ചൂണ്ടിക്കാണ ിക്കുന്ന
 അന്തര ിച്ച
 അവതര ിപ്പിച്ച
ക്കേസ ില
ഗുരുതര മായ
 ഫില ിപ്പ
മ്ര ാന
ഉ ത്ര
ക ശ്മീര
ഡ ിലെ 
പ ായ
പ ാകിസ്താന
ബ ില്ല
ബ ാറ
ല ാഭ
വ ോയ
ശ ത്ര
ി  പറയുന്നത
് സ്
ർ ശന
ിയ ാണെന്ന്
 ക ോല
ുന്ന ുവെന്ന
 വ ിൽ
 ന ിൽക്കുന്ന
ം  ശ്രമ
 മ തിയായ
റ്റ േഷന
ത്ര ിമ
 പ്ര യോഗ
 ആ ഴ
 ഇ -
 വി ശ്രമ
ുകള ുടെയ
 ശ രാശര
ണ് ഡ് 
 യ ൂസ
ി ന രേന്ദ്രമോദ
ഇത ിന് ശേഷ
ങ്ങളില ൊന്ന
പ്പെട ാൻ
ഭാഗ ത്ത് നിന്ന
ം അ ഞ്ച
വേ റെ 
 സാധ ിച്ചത
 സംസ്ഥാന ത്തിന്
 മന്ത്ര ിയുടെ 
ം ഇ ന
 ചെയ്യ ുന്നത്
ുവര െ 
ുന ാഥ
മന സില
ണാ  ജോര
 അംഗ ീകരിക്കാന
 തയ്യാറ ായില്ല.

 പ്രതിക രിക്ക
 ലോക കപ്പ
 വിള ിച്ചു
സെ ന
എന്ത ാണ് 
 തുറ ന്നു
സൈ റ്റില
വലിയ ൊരു
ികാര ോഗ്യ
ം പരി ഹര
 കണ്ണൂര ില
 ഏറ്റ െടുത്ത
 ഭാര ത
 റിപ്പോർട്ട ുകള
ം നി റഞ്ഞ
 കേ വല
തദ്ദേശ  തിരഞ്ഞെടുപ്പില
ം ല ംഘ
 ആല ുവ
 മാർ ഗ
 അത്യ ാവശ്യ
ത്തിന് പിന്നാല െ 
റുക്ക െടുപ്പ
 സംസാരിക്കുകയായിരുന്നു  അദ്ദേഹ
സോസിയ േഷന
ുരോഗ മ
  ദ്വീപ
,  വ
ത ോള
ന ിൽക്കുന്ന
യ ാണെന്ന്
ര ജിസ്റ്റർ
ല ന
സ െക്ക
ൂ  എന്ന്
ർ പ്പിച്ച
ത്ത േക്കാള
ത്ത ാസമ്മേള
മാ സ് 
 ന ാഷണല
ം  രാജ്യ
 അ ങ്ങനെയ
ിന ല
 ആ ലോചന
ുണ്ട ാക്കിയ
 ബ ൂത്ത
ിയില െത്ത
ിക്കുന്ന ു എന്ന
െ ക ുഞ്ഞ
സ്റ്റ േറ്റ് 
ി ന ഗര
യ് പൂര
ി പ ദ
ീയ മായ
ത്തിന്റെ  ആ
ുമായി  അ
െ അ വസാന
 ഏ താന
ി എ സ
ം ഉ പേക്ഷ
 സെ ഞ്ച്വ
 ഇട ങ്ങളില
ം ഇ രു
രോഗ ികളുടെ എണ്ണ
 കഴിഞ്ഞ  തവണ
ായത ോടെ 
ാണ് സ ൂചന
 ഐ ശ്വര്യ
 ആരോപ ിച്ച് 
ദു ർ
 സർ വ്വേ
കെ  ശൈലജ
 വ്യക്ത മല്ല.

 നിർ മ്മാണ
ഇവര െ 
ി നേത ാക്കൾ
അദ്ദേഹ ത്തെ 
പ്പറ േഷനില
 പ്രധാനമന്ത്ര ിയുടെ 
ആശുപത്ര ിയിൽ
 മൊ ബൈൽ
ം നില നിര
ം വ്യക്തമാക്ക ിയത
 അപകട ത്തില
 കൊവിഡ ് കേസ
ിയുമായ ുള്ള
െ അറിയ ിച്ചത
 തുടക്ക ം കുറ
സിദ്ദ ിഖ
ുഴലിക്ക ാറ്റ
ിജെ ജ ോസഫ
ദ്ഘാട നം 
  ന്റെ 
ഇ ക്കുറ
യ ്ത
ല ണ്ട
ല ഹര
വ സ്ത്ര
സ േ
സ ാമ്പ
സ ീന
ി "
ി ഡ് 
ി  പോല
ി ?

ൂ ജ
ൂ ഷണ
ോ :
് ദ
ൾ ട്ട
 ക ൂറു
ങ്ങ ുന്നത
ുക ുമാര
 ത ാപനില
 ആ ദര
 ആ ഡംബര
വാ ക്യ
ിപ്പ ിക്കുന്നതിന
 ല േഖ
ാർ ഡ് 
ത്തിന്  മുകളില
ണ്ണ യ
 ട ൗണ
 സ്വ ീ
 സ്വ ീകരണ
ി അ ടക്ക
മന്ത്ര ിയുടെ 
മി ക്ര
 കേന്ദ്ര ീകരിച്ച
ന്നത ോടെ 
 കണ്ട െത്തിയിരുന്ന
 കഴിഞ്ഞ ാല
 ശതമാന മാണ
ാനുള്ള  അവസര
 ഇത ോടെ 
12 5
 സർ വകലാശാല
 കമ്മ റ്റ
 ജില്ലാ  ഭരണകൂട
ശേഷ ം 
 അഞ്ച ു
 പ്രത്യേക ിച്ച് 
ത്തോട െയ
സർ ക്കാരിന്റെ 
ബ്ല ോക്ക്
് വര ുത്ത
 അവസാന ിപ്പിക്ക
ആരംഭ ിച്ച
സ്ര യേല
ുരു ഷ
 കണക്ക ുകൾ
 കമ്മിറ്റ ി അംഗ
 ഇതിന ക
അന്വേഷണ  സംഘ
ഫ്ര ിക്ക
 വീട്ട ുകാര
 ചികിത്സയില ാണ
ം നി ഷേധ
ഡയറ ക്ടറ
കുമാറ ിന്റെ 
ചുമതല യുള്ള
ശേഖര ന
മെന്റ് സ െന്റ
 വിദ്യാർ ഥ
മത്സ ്യ
ം  സാധ
ം  സംഘട
ഈ  സാഹചര്യത്തിലാണ് 
ക ാട്ട
ഗ ീസ് 
ജ ോണ
ജ ിയുടെ 
ഡ ീ
ത ടയ
ഫ ാന
സ ീല
ന്  
ത്ത ൂർ
ത്ത ൊഴിലാളികള
 സ ീനിയര
പ്പ ാന
 ത ട്ടിയ
ക്ക്  രോഗ
രു വില
ുന്നത ോടെ 
 ജ ുന
തിര ിച്ചുവര
 ഒ മാന
െ പ ൊതു
ക്കാര െ 
തിയ ാണ് 
ാര്യ ര
ം പ ിന്ന
 ഏ ല
 പരി ശ്രമ
ഗ്രസ്  എ
ി വ ്യ
ി വ ിരുദ്ധ
ാണ് ഇ ദ്ദേഹ
ം ഇ പ്പോഴ
ാണ് പ ദ്ധ
 സംഭവ ിച്ച
ി ആ ശുപത്ര
ോക്ക ോള
 വിജയ ം നേട
െ എ ന
ുന്നതിന ിടെ 
 വയ സ്സ് 
ി ഉ ദ്യ
 സെക്രട്ട േറിയ
 അനു ശ
 എന്നിവ യുടെ 
വൈ സ് 
 കുട്ട ിയ
െയ് ക്ക്
ത്മ ഹത്യ
 കെ ജ്രിവാള
ജ്ഞ ര
 ഇത്തവണ യ
 പട ര
സിസ്റ്റ ന്റ
 യൂണ ിയന
സിപ്പ ാലിറ്റ
 സാമ്പ ിള
 ക്രി മിനല
 ദുരന്ത  നിവാരണ
 വെളിപ്പെടുത്ത ല
 ദുര ൂഹ
ട്വിറ്റ റില
രോഗം സ്ഥിരീകരിച്ച്  ചികിത്സയില
 ബിഎ സ്പ
 റെയിൽ വേ
ജറ ാത്ത
എസ്ആർ ടിസ
വേലിക്ക ര
0 4
e c
i c
ഉ ത്തർപ്രദേശ
ഗ ൂഢാലോചന
ബ ാന
യ േയ
ശ ിച്ചിരുന്ന
ു ർ
ൂ ന
്  മുഖ്യമന്ത്ര
മാ ധ
 സ ൌ
ായ ിട്ടുണ്ട
 ആ സാദ
രാ ത്ത
 വി ജിലന
 ബ ിജ
 ഒ മ്പത്
മ്മ ിച്ച
ിക്കുന്ന വർ
ുപ ോവ
ി ക ിട
ം പ ഠ
 ഹ രിത
 കൊ ള
 നി ബന്ധന
് അ ഞ്ച
 അവ ഗണ
ധിക ൾ
ുകളില ായി 
ുമെന്ന  പ്രതീക്ഷ
 കേന്ദ്ര  സർക്കാർ
ം സ ഹ
 രണ്ട ുപേര
ി പ്ര ധാനമന്ത്ര
െഡ ്
 പ്രദേശ ില
 ഉപയോഗ ിക്ക
 ഭാഗ ത്ത്
മ്പര ്യ
േഷ്  യാദവ
ദിന ത്തില
കുറ വ
രാധ ാകൃഷ്ണ
റിന ോഷ
 അതിന ു
 സൈ ബർ
വായ ൂര
 ഇടുക്ക ി ജില്ല
 റിപ്പോർട്ട ുകൾ
 അടിസ്ഥാന ത്തില
 നമ്പ ർ
 ഉദ്യോഗസ്ഥ ർ
 മാർ ഗ്ഗ
ുഡ ീ
 നന്ന ായി 
 ഭേദഗ തി 
ൂനിയ ര
3 50
ഗ ാ
ണ വ
ണ ത്തിന്
ഥ വാ
പ രാധ
ബ റ
ാ സം
ോ ഭാ
ക് റ്റ
ിയ ാവ
 സ ിസ
പ്പ ോ
പ്പ ോര
 മ  
പ്ര മേയ
ുകള ായി 
െ പ രാജയ
അത ിനെ 
ം ന യ
ം വ േണ
ണമ ൂൽ
ശ് വിന
മന്ത്ര ി 
െട്ട െന്ന്
ീഷ ന്റെ 
െക്ക ാള
ൂല ായ് 
കാര്യ ത്തിൽ
് എ ംഎല
് പറഞ്ഞ ിരുന്ന
 പ്രധാനമന്ത്ര ി പറഞ്ഞ
വശ ാല
 ജയ ിച്ച
വോട്ട െടുപ്പ
ം ഏ റെ 
സുര േന്ദ്ര
ണിയ റ
ഇറ ക്ക
െ സുര ക്ഷ
 മുൻപ ് 
 വെറ ുത
 ചൗ ധര
ത്തുട നീള
1 15
അ പ്പോൾ
ഇ രിക്ക
ഉ യർത്ത
ക ുന്നത്
ഖ ല
ച ിര
ട ് 
ന ാദ
പ േഴ
ഫ ിന
ബ ാബു
മ ിസ
യ ക്ക
ര ായത
ല ിസ്റ്റ
ഷ ം മുമ്പ
സ ാണ് 
ക്ക ങ്ങള
ക്ക ത്തില
ക്ക െല്ല
ത്ത മ
 അ മിത
ാന ന്തര
ിക .

വി ദ്വേഷ
യില ൂടെ 
വാ ത
 ഒ ള
ിവ ുഡ് 
 നട ിയ
െടു പ്പ് 
് പ ിടിച്ച
 യ െച്ച
 യ ാഥാര
 ചെയ ്തിരിക്കുന്നത
 ഡ ്യൂട്ട
ാക ണ
് ന ോക്ക
് ന േതാവ
ം വ ഴി 
െ അ ത്
തുട ങ്ങിയത
വിട ാന
് സ ർക്കാർ
 വെ ട
 ശ്ര ീലങ്ക
ി ജ ോസഫ
മേ ജ
 ഇട വേള
 എത്ത ിക്കാന
െ വ െ
മാത്ര മാണ
 തീരുമാന മെടുക്ക
ങ്ങളിൽ  
ാഥ ാർത്ഥ
 തല ത്തിൽ
 തല ശ്ശേര
 തൃ പ്
 യാത്ര ാ
ത്തിലേക്ക്  നയ
ട്ടിക യില
 നാല ് പേര
ിഷ ് 
ക്കെതിര െ കേസ
 വിമാന ത്തില
വിന ിമയ
ുവന്ന ിരുന്ന
 പുര സ്കാര
ം പരി ഗണ
 നാട്ട ില
 എടുത്ത ത
 ചടങ്ങ ിൽ
മൊ ബൈല
് റ ാവ
 സജീവ മായ
 നവ ംബര
വുമ ില്ല.

സമ്പ ർക്ക
ി ജന റൽ
 വോട്ട്  ചെയ്യ
 വിമാനത്താവള ത്തില
 നിരോധ ന
 നിരീക്ഷണത്തില ുള്ളത
 മേയ ര
ചെല വ
 എതി ർപ്പ
 കിടക്ക കള
 മുക്ത ി നേട
 റിന ോഷ
അ ധ്യാപ
ഓ ഗസ്റ്റ് 
ഗ ിന
ച ാന
ഢ ്യ
ത ന്യ
ന  സുരേഷ
പ ാന
ഫ ിറോസ് 
മ ോഹ
യ ുമായി ബന്ധപ്പെട്ട
യ ൂറോ
സ ുകാര
സ ാങ്കേതിക
ൃ ശൂര
ർ ണാടക
ത്  പ
ത്  ഒരു
ി  ബിജെപ
ട്ട ി വിട്ട
 ത ട്ട
സ് കൂൾ
സ്  ഹ
ില്ല ായ്മ
 ഉ ദാഹരണ
ുമ ധിക
ിവ േശ
 റ േ
ിയുടെ  ആ
മാണ്  എന്ന്
െ ന േരിട്ട
ഒരു  വര
േക്ക ു
് അ നുവദ
തിന ായിര
ം ത ാല
ം ഉ യർന്ന
െ സ മര
 തിരഞ്ഞെടുപ്പ ് കമ്മ
 ലഭ ്യമാക
ാണ് ഇ വിടെ 
 ഷ ാര
ഗ് ഗീയ
പരി ഗണന
 പോലീസ്  പറഞ്ഞ
ോറ ിക്ഷ
 സ്ഥാപ നങ്ങൾ
എസ് എ
ിക്കുന്നത്  എന്ന
 എന്നാണ്  റിപ്പോര
രാഷ്ട്രീയ ത്തില
മാസ ത്തില
എന്ത ിന
ി ഡ ി സതീശന
അവ ള
 മികച്ച  പ്രകടന
നിർ മ്മാണ
 കിട ില
 ചൂണ്ടിക്കാട്ട ുന്ന
 സൂചന .

 ന്യൂ ന
 ഇന്ന ത്തെ 
ദീപ ് 
ിഹ ാബ
ം ശ ക്തി
വീന ര
ഭാ ഗ ്യ
 ജെ ഡിഎ
ഹാറ ിലെ 
സ്പീക്ക ര
ി രു  ന്ന
 ഉറവിട ം വ്യക്തമല്ല.

'  എന്ന
1 12
അ ത്യ
ഓ സ
ഖ ണ്ഡ് 
ഫ ോറ
റ േ
റ ാന
വ റില
ിയ ില്ല.

ുന്ന  ഒരു
 വ ന്ദേ
ച്ച ുവ
ായ ര
 അ ദ്ധ്യ
ുക ുള
ാണ്  സര
 ത ോട്ട
റ്റ ിങ്ങ
 എ ം 
 എ  ഐ
ക്ക്  മാത്രമാണ് 
രാ വില
ക്ഷ ര
ോട െയ
യില ാണ്ട
ുമ െങ്കില
ുമ െന്റ
ുമ ോയെന്ന
ന്ത ുറ
സി എം
 ദ ര
ദ്ധ ന
 വര ുന്നത്
ാത െയ
ി ക ൂട്ട
 ഡ െല
തല ശ്ശേര
ം വ ാര
 ഫ െഡ
 പേര ാണ് ഇപ്പോള
വേ ണമെന്ന
മെ മ്പ
ക്കുന്ന വര
ഷ്യ ൻ
ാണ് ക െ
ാണ് ക ോൺഗ്രസ് 
ാബ ൂള
 രൂപ ീകരിച്ച
 മുഖ്യമന്ത്ര ി സ്ഥാന
10 8
െ മ റ്റ് 
 മത്സര ിക്കുന്ന
 നൽക ാൻ
ഇതിന െതിരെ 
 അവര െ 
 എം എ
 പ്രഖ്യാപ ിച്ചിരുന്ന
 കുട്ട ിയുടെ 
 നേതൃത്വ ത്തിന്
ത്തെ പ ിന്തുണ
ി ഡ യറ
ി ട ്
 പ്രധാന മായ
 നിരവധ ി പ
 പൊതു ജനങ്ങള
ിടിച്ച ില
 പ്രസിഡന്റ ് ക
 ചടങ്ങ ുകള
ണു ബാധ
ോട്ട് പ ോയ
 മി ഥുന
 സാധിച്ച ിട്ടില്ല.

 തടയ ാന
 പേർക്ക ാണ് 
െൽ ത്ത്
 മാനദണ്ഡ ങ്ങള
 സാമ്പിളുകളാണ് പരി ശോധിച്ചത
 ഗവർണ ർ
ീസൺ  
  ന്നു
യ ോഡ
റ ണ
ശ ംസ
ു  ട
ോ യുടെ 
ക്ക ണ്ട
 സ മുദ്ര
ം  രൂക്ഷ
 അ രുണ
ിക മായി 
 ആ കര
 ആ കാശ
യില െ പ
ിപ്പ ിച്ചു
 ര ോഹ
് ക ാരണ
 പോ പ്പ
കു ത്ത
ിത ിന
ിത മായി 
ിത ാക്കൾ
ഇത ിലൂടെ 
ം ന േതൃത്വ
 സ്ഥ ിതി
ആര െയ
 അദ്ദേഹ ം പ്ര
 വെ ടിവ
ം ത ന്റെ 
യോഗ ത്തിൽ
 ഉണ്ട െങ്കില
ോട്  ആവശ്യപ്പെട്ട
 സെ റീന
ജന ങ്ങൾക്ക്
പുര ോഗ
ി ത ന്റെ 
 ലക്ഷ ം പേര
കഴിഞ്ഞ  വർഷ
 ഉപ കരണ
 എത്ത ിച്ചത
 പുറത്ത ാക്ക
 നേതാവ ായ
ം പറഞ്ഞ ത
ം ലഭ ്യമാക്ക
 മണിക്ക ുട്ടന
 പ്രഖ്യാപ ിച്ചിട്ടുണ്ട
 ആരോഗ്യ  മന്ത്രാലയ
 അഞ്ച ് വര
 ചികിത്സ യിൽ
 ഉൾ പ്പെടുത്ത
 വെള്ള ം ക
 താല ്
 കരു ത്ത
ശു ക്ര
മായത ോടെ 
ം നിര വധ
 നേട ിയത
േറിയ ത
 സൂചന കള
ത് കൊണ്ട ് 
 മി ഷന
 പ്രതികര ിച്ച് 
 എസ് ഡിപിഐ
 മാനേജ ര
 ശ്രദ്ധേയ മാണ
സുഹൃത്ത ുക്കള
പ്പിസ ോഡ
  ക്കു
  ഔദ്യോഗിക
i t
ക ണമെന്ന്
ഗ ിന്റെ 
ഡ ്യൂട്ട
ഷ ീര
ഷ ീന
ി ങ്ക്
ി പ്പ്

ക്ക ോട്ട
ത്ത ിക്കുന്നവര
ി  ന്
 വ ഞ്ച
ക്ക്  മുന
 പ്ര ദര
 ആ ചാര
ല്ല  എന്ന
 ജ ന്മ
ിപ്പ ോക
തിര ിച്ച് 
ുകയ ുള്ള
 ഒ വൈ
ിവ ട്ട
 മു രളീധര
് പ ുതിയ
ം ക ൂടുതൽ
അത ിവേഗ
ഇത ിലൂട
ാത ിനി
ി പ ദവ
ത്തിന െ 
ം അ നു
െ അ ന്വേഷണ
യു ക്രൈ
ാസ ഖ്യ
മേ ള
നി ശ്ചയ
ഭി സംബോധന
ുക്ക ാന
മല യോര
ം ച ോദ്യ
ബാധ ിച്ച
ം ചെയ്യ ുകയ
ി ച േര
 കാര നായ
പിന്ന െ 
 സെക്രട്ടറ ി എ
 പിന്തുണ  നല
 നല്ല ത
 ഒരാള ുടെ 
 മോ ചന
ആശുപത്ര ികളില
് വി ഭാഗ
 നടക്കുന്ന ുണ്ട
 വല ിച്ച
 നിർദ്ദേശ ം നൽക
െ കൊണ്ട ുവര
െ പിന്തുണ ച്ച
ടെസ്റ്റ ് പോസിറ്റിവിറ്റി നിര
 സെക്ക ന
 സെപ്റ്റ ംബര
ജിനീയ ര
 മൃ ഗ
 ഓൺ ലൈൻ
e d
ഇ റാ
ഉ ണ്ണ
ഒ രാൾ
ഗ നിര
ത ാക്ക
ത ൊഴിൽ
പ ോട്ട
പ ുറത്ത്
ബ ാറ്റ
മ കൾ
യ ുടേയ
ാ ഠ
ി വിട്ട
ീ ങ്ങള
േ റെയ
ത്  പോല
 പ ബ്ലിക്
 ക ഞ്ചാവ
 സ ഞ്ജയ
 ന േമ
ം  തീ
ായ ന
ുക ൊടുത്ത
 ത ാങ്കള
ിന്റെ  ആവശ്യ
വാ ഴ
 ബ ന്ദ
ുമ ോ എന്ന്
ന്ത വാട
 മാ ട
ി ക ൈ
ലീ ഡ് 
 തിര ിച്ച് 
ന്റെ  പ്രതികരണ
 നിയമ സഭാ തെരഞ്ഞെടുപ്പ
കിയ ാല
വിജയ ിച്ച
10 5
 ശതമാന മാണ് 
നട ത്തുന്നത
് മ ണിയ
ടി 

 മറ്റ ുള്ള
ി ച ൂണ്ടിക്കാട്ട
 യോഗ ം ചേര
 ആരോഗ്യ വകുപ്പ
 തുറ മുഖ
ജ്ജ ് 
തിരിച്ച റിഞ്ഞ
ം നില നില
 മനുഷ്യ ന
ിഹ ്
 സൂച ിപ്പിക്കുന്ന
പ്രവ ച
 യുപ ിയില
 കർഷ ക
 പിന് തുടര
 മഹാ മാര
വെളിപ്പെടുത്ത ല
ശ്വന ാഥ
  ..

അ ത്ര
എ ംബ
ന ായിരുന്നു
ബ ഹുമാന
ശ ോക് ഗ
ഷ ത്തോള
ാ ത്ത്
െ ഴുതിയ
ി  ഇട
 ക ിരീട
 വ ള്ള
 വ ാട്ട
ാന ഡ
ിന് തുടര
ിന്  പകര
രു ത്ത
ിന്റെ  ഭാഗമായ
ുറ ിപ്പ
ിപ്പ ാര
ിപ്പ ിക്കുകയായിരുന്ന
 ല ോറ
മായി  നിര
ായി  എന്ന
െ ക െ 
ം ക േ
ക്ത ാവ് 
യുടെ  പ്രതികരണ
ആര ോഗ്യമന്ത്ര
ി അ ധികാര
ത്വ വ
 ഇന്ത്യ ാ
ുകൊണ്ട ാണ് 
ാണ് പ ൊലീസ് 
ം മ ുട
 വില യ
ജ് ഞാന
സംഘ ർഷ
 ആശുപത്ര ിയിലെ 
ഹാര ാജ
 കൈ വശ
 തയ്യാറ ാവ
 പണ വ
ആവശ്യ പ്പെട്ടിരുന്ന
ത്തെ ക ൊ
ട്ടിയ ൂര
ിസ്റ്റ ുകള
സ്തു ത
് കൊ ടുക്ക
 വാർത്ത ാ
 മി ശ്ര
ഭേദ ഗ
 സാധാരണ ക്കാര
പത്ര ിക
അറ സ്റ്റില
ീരിയ ല
 ട്വീ റ്റ് ചെയ്ത
സിക്യൂട്ട ീവ
 ഛ ത്തീസ്ഗ
 ഹോ സ്പ
3 70
ഗ റില
ച ൊല്ല
ധ നു
ല ോക്ക
ാ മ്
ു മാറ
ക്ക ാണ
 പ ുക
 ന ോമിന
ം  ജനങ്ങള
െയ ്ത
ക്ക്  ലഭിക്ക
 പ്ര ാതിനി
രു ൾ
 ആ രിഫ് 
 ച ാല
 ജ ൂൺ 
മ്പ ൂര
ത്തിയ ത്
മ്മ റി ക
െ ക ള
ിച്ചത ാണ
 ദ ളിത്
ി ന ിന്ന
 ഗ വണ
വർ ഗീയ
ം ന ീക്ക
ം പ കര
ം അ വതര
ത്ഥ ിയായ
് സ ൗ
ാറ ുള്ളത
ിരിക്ക െയാണ് 
 രൂപ യാണ
 സമയ മാണ
 പെ ണ്ണ
 പരാ തിയിൽ
ഇതിന ിടയില
17 0
അദ്ദേഹ ം 
 ആവശ്യപ്പെട്ട ിട്ടുണ്ട
ം സ്വദേശ ിയായ
 ഫല പ്രദ
സംസാര ിച്ച
 ആശങ്ക യ
മലയാള ികള
 വിവാദ ങ്ങള
ലൈ ഫ് 
ിക്കുക ,
 എഴ ുത്ത
 ന്യൂ സ് 
ഏക ോപ
സ്വകാര്യ  ആശുപത്രിയില
 കണ ക്ക്
 രാശിക്കാര ുടെ 
ം രാശ ിയില
ധാര ാള
 പിടിച്ച െടുത്ത
അറസ്റ്റ്  ചെയ്ത
ത്തിന്റെ പ ശ്ചാത്തലത്തില
റോബ ിന
ിൻസിപ്പ ൽ
ശശീന്ദ്ര ന
സി പ ി ഐ
കാലിദ ള
ാണ് സൂചന .

  C
ക ുന്നുണ്ട
ഗ ുണ്ട
ന ാമ
ഫ ോട്ട
ഭ ജ
ല ിജന
വ ിൽ 
ി ബ്ര
ി പ്പെടുത്തിയ
ി സിറ്റ
ു  വന്ന
 പ വന് 
ി  മര
ിര ിഞ്ഞ
 മ ിക്ക
 അ ദാന
ാര ിവട്ട
ക്ക്  ഈ
 പ്ര ചോദ
കര മായി 
 ബ ില്യൺ
 ശ ിശു
് ക ട
് പ ട്ട
് പ ുറത്ത്
സ്റ്റ ോറ
മയ ്ക്ക്
ിക്കുകയ ുള്ള
ം അ ന്വേഷ
 പരി ഹാസ
സ്വ ീകരിച്ചത
 കു ത്തന
ിച്ചിരുന്ന െങ്കില
ുകളില േക്ക
ൂർ ണ
മി ഷൻ
യ്ക്ക ാൻ
കൊ ടുത്ത
 സംഘ മാണ് 
 പൊ ന്ന
 രണ്ട ് ക
 നിയമ ങ്ങൾ
 യു ക്രൈ
 കുറ ിച്ചത
10 2
രോഗ ികളുടെ 
 പര മ്പര
മാക ാന
വാക്ക ുകൾ
തി ന ിയമ
് നട പട
 ലോക ാരോഗ്യ സംഘടന
 പിട ിച്ചു
ബൈ  ഇന്ത്യന
പ്രധാന പ്പെട്ട
 വൈറ സിന
ി നിര വധ
നാട്  സ്വദേശ
 സ്വന്ത മാക്ക
ശ്രദ്ധ യില
വീട്ടില െത്ത
ം മാത്ര മാണ
ഗ്രസില േക്ക്
 ലക്ഷം രൂപ യ
ി രാജ ീവ
ി അധ്യക്ഷ ൻ
തിനെ  തുടർന്ന്
 മഹാരാഷ്ട്ര യില
 പെരു മാറ്റ
രാജസ്ഥാന ില
 ശശ ി തരൂര
ഗളൂരു വില
ുമു ഖ
സ്റ്റിറ്റ്യൂട്ട ് ഓഫ് 
ം വർ ധ
ക്സിക്യൂട്ട ീവ
ജ്ഞാപ ന
 സൗകര ്യമ
ക ാത്ത
ച ാല
ട ി ജലീല
ധ ു
പ യ്യ
പ ിസി ജോര
ല ധിക
വ ി ഗോവിന്ദ
സ ിയില
ി വരുടെ 
ി ശ്ശ
ു ഷ
ോ റ്റ
ൻ  സ
ി  തുടങ്ങ
 ക ീ
 ക െ സു
 ന ീര
ിക്ക ാമെന്ന്
ിച്ച  ശേഷ
ായ ിരിക്കുകയാണ
 അ മ്പര
ല്ല പ്പെ
വാ തക
ിവ ന്ന
 ല യ
ന്ത ാന
 മു ത്ത
അത ു
 യ ുടെ 
രാജ ്
ിക്കുന്നത ായ
ി ന ദ്ദ
ണ്ണ ാടക
 പേര ് 
െ അ ന
 ഏ റെയ
ി എ ല്ലാ
ജന സംഖ്യ
 പിന്ന െ 
ിരിക്ക െ 
ാണ് ക ൂടുതല
വാദ ി പാര
 ഷ ാ
ുകൊണ്ട ിരിക്കുന്നത
 ചെയ്യ ുകയ
മുണ്ട ാക്കാന
 അറിയ ാന
10 1
10 3
കുട്ട ികളുടെ 
 കാരണ മായത
് ആ ദ്യ
 ചിത്ര ങ്ങൾ
ി എന്ന ാണ് 
അതിന ുള്ള
 പിട ിച്ച് 
 പരിശോധന യ
പ്ല ൈ
ങ്ങൾക്ക ായി 
അടുത്ത ിടെ 
സുര േന്ദ്രന
 വർ ധന
ക്ല ാസ് 
് പോ ലീസ
 ഗ്രൂപ്പ ുകള
 യുവ തിയുടെ 
 ഉണ്ടായ ിട്ടുണ്ട
 സമ്മേള നത്തിൽ
അതി ജീവിത
ബ്രാഞ്ച ് 
 മെഡിക്കൽ  കോളേജ
 അന്ന ത്തെ 
രുക്ക േറ്റ
ഗരസഭ  
ം മന സ്സില
 യുവാ വിന
സംസ്ഥാനത്തെ വിവിധ  ജില്ലകളിലായി 
ത യാണ
ദ ാർ
ന ായിരുന്ന
സ ച്ച
െ ങ്ങ
െ ളിയ
ൊ രിക്കല
ോ ലീസ് 
്  ട
ച്ച ാ
 ന മുക്ക
ിച്ച േര
ുക ാല
ത്തില ുണ്ട
ദേ വന
വാ ൾ
 ജ ോഷ
ുമ ൊരു
ുവ ായ
മായി  വര
മ്മ നം 
 മു പ്പ
ം ക ടന്ന
ന്ധ ്യ
തിയ ാന
ിയുടെ  നേതൃത്വത്തില
 ഭ വന
ത്തിന ിര
െ അ ടുത്ത
ി അ ടക്കമുള്ള
 അവ ലോക
നി റ
 ഷ ോപ്പ
നട ത്തുന്ന
് മ ന
ാണ് സ ുര
് ആ വശ്യപ്പെട്ട
മന ാഭ
 പദ്ധ തിക്ക്
് എ ന്ത
ം വി ട
 സാധിക്ക ുമെന്ന
ക്കു റ്റ
 ഖ ത്തര
 നീ ള
ക്കെതിര െ ക
ി മു രളീധര
 കോടി രൂപ യാണ് 
ഡ് ഡ
 മത േതര
് വി ഹിത
 വരു മ്പോള
രുടെ  എണ്ണ
 പാ ടുള്ള
വിഷ മ
 ഡോള റ
 ദൃശ്യ ങ്ങൾ
ാസ് മിന
 ഉച്ച കോട
ക്കെട്ട ായി 
 റി സര
 താത് കാലിക
 ആധ ുനിക
 സിദ്ദ ിഖ
 മിക വ
ker ala
0 9
ം ആ
ക െട്ട
ഡ ്യൂ
ത ോമസ് 
മ െത്ത
ൽ 

ക് സ് 
ന്ന ാള
ക്ക ാള
ക്ക േണ്ട
ത്ത െക്കുറിച്ച
 ക വര
 സ ോണ
 വ െങ്ക
ട്ട ി പ്രവര
 ന ബ
 ന ുണ
പ്പ ു
ം  രാഷ്ട്രീയ
 ത േജസ്വ
കര ാര
ുമ ുമ്പ
തിര ുമാന
 ര വീന്ദ്ര
രി പാട
് ക മ്പന
ായി  റിപ്പോര
െ ക ടന്ന
ം ക ല
െ പ ാല
ി ന ിൽക്ക
 വര ികയ
ി പ ാല
് ന ഗര
ഭാഗ ത്ത്
ി അ ന്വേഷണ
ബന്ധ മായ
യു  ഡി എഫ
 നില നിര
മന്ത്ര ി അ
ോട്  സ്വദേശ
കൊ ട
സംസ്ഥാന ങ്ങള
പര മാവധ
 ഇട ിമ
ം ഇ ര
 ഉപ ദേശ
െ വ ോട്ട
 സു ധ
 വേ ണമെങ്കില
 തീരുമാന ിച്ചിട്ടുണ്ട
േണ്ടത െന്ന
 ഐ ട
 പോയ ിന്റ
ി ച ിത്ര
ി ച ോദ്യ
 തൃ ശൂർ
 എന്നിവ യാണ് 
ഉപ തിരഞ്ഞെടുപ്പ
 പാർട്ട ി 
ി യ ി ല
 ക്ല ിന
 സ്വര ാജ
 നഗര ത്തില
െ പ്ര ഖ്യാപ
യുഡിഎഫ ില
ം കൊ ടുക്ക
നമ്മ ൾ
ശര ിയായ
അഭി മുഖ
ിവെച്ച ത
ം തന്ന െയാണ
 വൈക ിട്ട് 
 ഫോണ ില
ഏറ്റ െടുത്ത
് സീറ്റ ില
 മുറ ിവ
 ടീമ ില
തദ്ദേശ  തിരഞ്ഞെടുപ്പ
ഫേസ്ബുക്ക ിൽ
ം ചെല വഴ
 സന്ദർ ശന
േർക്ക ുന്ന
ം ചോദ ിച്ച
 സുരേന്ദ്ര ൻ
സമ്മേള ന
രക്ഷാ പ്രവര
 സുഹൃ ത്ത്
 ശ് വാസ
0 2
ഈ  സംഭവ
ക ന്
ച ൂണ്ടിക്കാട്ട
ഡ ാറ്റ
ഷ ങ്ങളായി 
ഹ ന
ഹ മായ
ക്ക ാനുള്ള
ക്ക ുകയാണ് 
ത്ത െയാണ് 
 ക മ്പ്യൂട്ട
 വ ാല
 വ ക്താവ
ട്ട ിന
ുക  എന്നതാണ് 
 പ്ര വണ
ഞ്ഞ ് 
ോട ് പറയ
കര ിയ
 ഉ ത്ര
ായി  നിയമ
ോള ന
െ ക ോൺഗ്രസ് 
ം ക ാത്ത
ം ക ുട്ട
ാർ ശ
ിക്കുന്നത ായി 
ി പ ര
 ഭ ർത്താവ
ത്തിന്റെ  ഭാഗമായ
 ഫ ോഴ
ം അ ടക്ക
േക്ക ാവുന്ന
 കു രു
് അ ടക്കമുള്ള
ാപ കട
 അവ താര
 വെ ട്ടിക്ക
 കോട തി
ോട്  ചോദ
 സംഘ ങ്ങള
രണ്ട ് തവണ
ാമ്പ ത്യ
് ത യ്യാറ
ം മ രണ
 ലക്ഷ ത്തിലധിക
 വേ ണമെന്ന
പെ ൺകുട്ട
 കഴിഞ്ഞ  
െ എ ന്ന്
ുന്നുണ്ട െങ്കില
 കാണ ിച്ച
് പ്ര ചരണ
സു മാര
 ഖ ാദ
ാപ്പ ള്ള
 സമ്മ ർദ്ദ
പാല ാ
 ധന കാര്യ
 കരുത ുന്നത
പ്ത ംബര
ം ആരംഭ ിച്ച
ുക എന്ന  ലക്ഷ്യ
 ഭാര്യ യ
ത്തിനെതിര ായ
എം  ഷാജ
 പുല ർത്ത
െ മറ്റ ൊരു
സെക്രട്ട റിയ
 അസിസ്റ്റ ന്റ
 അഡ്വ .

 ഒക്ടോബ ര
ഡോള ര
വ്യത്യ സ്ത
രിങ്ങ ാലക്കുട
 നൂ റ്റാണ്ട
ിദ്ധ ാരണ
രാധന ാലയ
 മാതാപ ിതാക്കള
  ഭാ
ജ ീ
ഡ ോസ
ണ ം വാങ്ങ
ന ാവ
ബ ൂബ
റ ാവ
ശ ാന
ഷ ീ
സ ൃഷ്ട
ൻ  എന്ന
്യ ാന
 സ സ
 സ ാന
 സ ന്നിധാന
 ത ാങ്ങ
 പ്ര ത
പ്ര സിദ്ധ
വാ ദ്യ
് പ ൂര
ം ക ുറ്റ
ോട്ട ീസ് 
കു മ്പോൾ
ാമ ിന്റെ 
 ഒരു  കാര്യ
ത്തിന ിടയില
ബന്ധ നത്തിന്
 ഉണ്ട ാക്കിയ
 സംസ്ഥാന ങ്ങളിലെ 
ങ്ങന ാശേര
ിനെ  തുടർന്ന്
ബിജെപ ി നേതാക്കള
െ വ ന
വിഡ ി സതീശന
 ആരോപ ിച്ചിരുന്ന
തി ന ി
 ഭരണ ാധികാര
 പ്രതിക ൂല
 ഉത്തര വിട്ട
 പാർട്ട ിക്ക്
മോ ചന
 മണ ിപ്പൂര
 മരണ മടഞ്ഞ
എൽ ഡിഎഫ
ിർ ഹ
ച്ഛ ായ
 ബാധ ക
ക്ല ാസ
 ജീവിത ത്തിൽ
ുപോക ാന
ാതിര ിക്കാൻ
 പാ ചക
ുപോയ ത
സ്രായ േൽ
രൂക്ഷ  വിമര
് നടക്ക ാന
സിസ്റ്റ ന്റ് 
 അവസ്ഥ യില
ക്കുറ വ
പൂർ വ്വ
 ആന്റ ിജന
ലക്ഷ്യമ ിട്ട
 വ്യാപക മായി 
ി ബാല കൃഷ്ണന
ഒക്ടോബ ര
താരതമ്യ ം ചെയ്യ
 ശക്തമായ കാറ്റ ിന
 അധി ക്ഷേപ
അ വന
ത ിലുള്ള
ധ ിപ്പിക്കാന
മ ിച്ച് 
റ ൂമ
ഴ ിച്ചു
വ േര
ശ വ
സ മി
 പ ാള
ം  ലോക
 അ ഹ
 അ ൽ
 അ ടങ്ങുന്ന
ുട േത്
ിക മായ
വി ശ്വസ്ത
 പ്ര ിന
ിട്ട ില്ല എന്ന
 ജ ാ
ത്തിയ ാണ് 
്യാ ജ
െ ക ിട്ട
് പ ക്ഷ
സ്റ്റ േറ്റ
ിച്ച്  നോക്ക
മാര ില
തീ ത
 ഈ  വര
 സംസ്ഥാന  സർക്കാർ
യ്ക്ക ാണ് 
 തുട ർ
മേ റിയ
 കൂട ാത
 രാജ്യ ത്ത
 രാജ്യ സഭാ
ൊക്ക െ പ
 സമയ ം 
 വില  
 ആണ ് അ
 ആണ ് ഇ
ം ച ൈന
ം ച ർച്ച
 ധ ോണ
 ധ ീര
ത്തന ാപുര
ഖ്യ ാന
േണ്ടത ില്ല.

ിക് സ് 
അതിന ായി 
 തയ്യാറ ാണ
ഇന്ന്  രാവിലെ 
 ഉൾ പ്പെട്ട
എം എൽഎ
ി ഡ ോ
ൈസ ല
 ഓഫീ സ് 
 അധ്യക്ഷ ത
കൊച്ച ിയില
 പുറത്ത്  വന്ന
 ചർച്ച കള
ക്കാർ ക്ക
 സിനിമ കള
 കാ ഞ്ഞിരപ്പള്ള
ലൈന ായി 
 എൻ ഡിഎ
ന്ദർ ശന
രൂക്ഷ മായി 
യുവ തിയുടെ 
 സൂചന യ
് തന്ന െയാണ് 
 ബിരു ദാനന്തര
 കാലയ ളവിൽ
മൃ തി 
 കുടു ങ്ങിയ
പിന്നാല െ 
മ്മൻ  ചാണ്ട
 മണിയ ോടെ 
മാനദണ്ഡ ങ്ങള
ടൂറ ിസ
 സ്വീ കാര്യ
i l
അ വർക്ക്
ഇ ത്ര
ഈ  വർഷ
ക ോറ
ഡ ർ
ത ത
ത ടഞ്ഞ
മ കര
ു വാങ്ങ
ൊ രാൾ
ന്ന  നേതാക്കള
ത്ത േത
 ക െ എ
 ക െപിസിസി
മാ രു
ം  മന്ത്ര
ം  ഒഴ
 അ ഭ്യർത്ഥ
ിന ിയായ
ിൽ  വെച്ച
വി ധ്യ
മായ ിട്ടുണ്ട
 ഇ ങ്ങനെയ
പ്ര യ
ുറ ച്ച
 ഒ ടുവിൽ
 ര സ
 ര മ്യ
ത്തിയ ാക്കിയത
ോള ം 
് പ ാല
ം ക രുത
സ്റ്റ ഗ്രാമ
ിക്കുന്നത ാണ് 
 ഒരു  വർഷ
ിലെ  ഏറ്റവ
് ന േരത്തെ 
ം വ ന്നത
 പറയ ാനുള്ള
വേ യില
ം സ ിപിഎ
 മാത്ര മായിരുന്നു
 അന ാവശ്യ
 രൂപ .

 ജന വിധ
10 4
 സമ ർപ്പിച്ച
ി ഉ ട
 നൽക ുന്നത
ഞ്ചായ ത്തില
 കട ന്നു
 കൈ യ്യ
ി ബ ി ഐ
 രംഗ ത്തെ 
 ചേര ാന
 ലീ ഡ് 
ിന്റെ പ ശ്ചാത്തലത്തില
ക്കെതിര െയുള്ള
 ചികിത്സ ാ
വയ ല
രാശ ിക്കാര
 പരിപാട ിയിൽ
മാണ് ക ോണ
 കമ്പന ിയുടെ 
ജോല ിയില
നീ ണ്ട
ബി ജെ പ ിയുടെ 
 മനുഷ്യ ാവകാശ
് കൊ ടുത്ത
 കൊവിഡ ് കേസുകള
 സൂചന യുണ്ട
ത് കൊണ്ട ാണ് 
പ്രശ സ്ത
 പൂർ ണമായ
 പൗര ന്മാര
പൂർ വ
 ക്ഷ ാമ
ദൃശ്യ ങ്ങൾ
ചരിത്ര ത്തില
 സമി തിയുടെ 
ബ്ദു ള
 കുത ിച്ചു
ം ഇങ്ങന െ

 പൊട്ട ിത്തെറ
ബജ റ്റ് 
 കണക്കില െടുത്ത്
ക്കുഴ പ്പ
ൻട്ര ൽ
ം  സെ
ഒ ക്ക
ക റ്റ
ന െടു
ന ാഷണൽ
ബ ൈക്ക
ര െ 
ശ ിച്ച് 
ഷ ാന
ു ദ്ദീന
െ സ്ല
ോ ത്സവ
ക്ക ൈ
ത്ത ുകളില
ി  മാ
മാ ന്റെ 
ുന്ന ു

ുന്ന ു എന്ന
പ്പ ിക്ക
ായ െന്ന
 മ ജിസ
 ത ികച്ച
ിൽ  എത്ത
വി ൻ
ുണ്ട ് എന്ന
പ്ര സാദ
ല്ല ൂർ
ിട്ട ില്ലെന്നാണ് 
 ബ ൂ
 ബ ാക്ക
തിര ഞ്ഞെടു
ത്തിയ ിരിക്കുന്നത
രി വാള
ിക്കുന്ന ുവെന്ന്
വർ .

് ന യ
് ന ഷ്ട
 ട ാസ
ം വ ്യ
വീ ഡിയ
െ അ നു
് സ െക്രട്ടറിയ
ിമ ല
ാറ ിന്റെ 
യ്ക്ക ിടെ 
 കേന്ദ്ര ീകരിച്ച് 
ം സ മ്മാന
ുള്ളത െന്ന
 വലിയ  നേട്ട
െ ത ടയ
 നടത്ത ാൻ
 സീറ്റ ുകളിൽ
ബി ഗ
ുന്നുണ്ട െന്ന്
 അപ ൂര
തിരഞ്ഞെടുപ്പ ് കമ്മ
 സൗ ത്ത്
ി വി ശദ
 പല ിശ
 ആരോപ ിക്കുന്നത
 കുട്ട ികൾ
കർ പ്പ
 ഇറ ക്ക
ൃത്യ മായ
രാജയ പ്പെട്ട
മാധ്യമ ങ്ങളില
 അധ്യക്ഷ ൻ
 സമ്പർക്ക ം മൂല
കണ്ണൂര ില
ി പരി ശോധന
മുൻ പ
 ഏക ോപ
വ്യാ ഴ
് പരി ശോധ
 ഫ്ര ാന
വ്യക്തമാക്ക ിയിരുന്ന
 വിശ്വാസ ികള
 ബ്ല ോക്ക
ക്രി മിനല
വുമായി ബന്ധപ്പെട്ട ് 
 കാലയ ളവ
 ഇളവ ുകള
 താത് പര്യ
രസ്യ മായി 
 വിഷ്ണ ു
വ്യത്യ ാസ
ൂഡ്  ഓ
 രാധാകൃഷ്ണ ന
ുവശ ത്ത്
മ്മനം  രാജ
  ...

  ത്തു
i on
s t
ഏ ല
ഗ തികള
ത ൊഴിലാളികള
ധ ിച്ച
പ ാവ
ഭ ്രാന്ത
മ ടങ്ങ
ര സ
ര ജിസ്ട്ര
റ ിജ
റ ീസ് 
ാ ന്റ് 
ി !

ൌ ൺ
ക്ക ൽ
ത്ത ാൻ
 പ ണിക്ക
 വ മ്പന
 ന െല്ല
 അ ടുക്ക
 അ ബദ്ധ
ിന ിവേശ
ിൽ 

 ആ ൻഡ് 
ുകള ുമായി 
വാ സ് 
 ബ ദല
ിക്കുന്ന ില്ലെന്ന
 ദ ോഷ
ം ന ിറ
20 3
ം വ ീട്ട
ുമായി  കൂടിക്കാഴ്ച
വേ ട്ടയാട
ി സ മയ
ഗ്രസ്  സ്ഥാനാര
ാപ രമായ
 ശ്ര ീന
 മന്ത്ര ി അറിയിച്ച
ാബ ല്യ
തുടര ുകയാണ
േഖല ാ
ിവര ാജ
 പര ്യ
 കഴിയ ില്ലെന്ന
മല്ല െന്ന്
കുട്ട ിയെ 
ഇട വ
് പ്ര ധാനമന്ത്ര
ശക്ത മായി 
പ്രദേശ ത്ത്
 വളര െ കുറ
 ബി ജെ പ ിയ
 പ്ല ാന്റ
ഞ്ജ ുവ
 പൊതു ജന
ാവാ ത
 തോന്ന ിയ
അടിസ്ഥാന ത്തിൽ
 വയസ ുകാര
ി ശ ശ
 നമ്പ റ
 മറുപട ി നൽക
 സെന്റ ര
ആന ന്ദ
 പരസ്യ മായി 
 പ്രസ്താവന യില
ഏറെ  നാള
ാതെ പ ോയ
ഡിറ്റ ോറിയ
 റോബ ിൻ
 പെട്ര ോള
ബ്രിട്ട ീഷ
ഒര േ
 ഗവ .

 വാണ ിജ്യ
  I
% ,
ക യ്യില
ന ൂ
യ വ
ര മേശ
റ ീ
ശ ില
ു ൻ
ു ",
ർ 

 പ ണ്ഡ
ി  ഗ്രൂപ്പ
പ് ലോ
 ന മ്
 ന ീല
ാണ െങ്കിൽ
 അ ങ്ക
 അ ധ്യ
െയ ുണ്ടായ
വി ശ
വി വേ
 ച ൂണ്ട
പ്ര തിയായ
 വി ഭവ
 ഉ ത്സവ
 ബ ി 
 സ് കൂൾ
 സം വാദ
രി ഫ
രി ദ്ര
എന്ന ായിരുന്നു
ിക്കുന്ന ു

െ ക ട
് പ ുറപ്പെടുവ
രണ ്യ
ത്തിന്  മുന്നില
ി പ െരു
 ഹ ാള
 ഏ രിയ
ി അ ന്വേഷ
 നി റയ
നില േക്ക്
് അ വര
യു മാണ
ടിയ ു
 ദിവസ മാണ് 
ീകരിച്ച ിട്ടുണ്ട
െ ത േട
 വ്യക്തമാക്ക ിയ
റെയ ്
, ക ാസർ
 പാല ാ
 കട കള
 തല സ്ഥാന
 തല ശേര
പ്പെടുന്ന വര
ിച്ചത്  എന്ന
 പ്രതിഷേധ ിച്ച് 
 ലോക ത്ത്
 തര ൂര
 തര ത്തിൽ
ീഷണ ല
 കുറ്റ വാള
ിമാര ുടെ 
മൂന്ന്  പേര
ം സ്വദേശ ി 
ങ്ങൾക്ക ുള്ള
 ബി ജെ പ ിയുടെ 
 വർ ധനവ
 വിട്ട ുവീഴ്ച
് നിര ോധ
ി പരി ശോധ
ഫ്ര ാന
 ഓരോ രുത്തര
കൊല്ല പ്പെട്ട
കക്ഷ ികള
ോട് പറഞ്ഞ ത
 സഞ്ച രിച്ച
പിട ികൂട
 ബജ റ്റില
 ഇടയ ാക്ക
 പ്രേക്ഷ കര
 വാത ക
 ഉത്തരവാദ ിത്വ
 ആംബുല ന
ം  പോ
ആ ന്റ
എ ച്ച് 
ഔ ട്ട
ഛ ത്തീസ്ഗ
ത കൾ
ദ ളിത്
റ ന
വ ദ
വ െയാണ് 
ഷ ് 
ാ ഘോഷ
െ )
ക്ക േസ് 
ത്ത യ
ും "
 സ ബ്
 ന ഴ്
 ന ാവിക
 എ ങ്ങനെയ
ള്ള ല
 ആ ന്റ് 
 ഇ വരെ 
പ്ര വാസികള
 ഉ ത്തരാഖണ്ഡ
ിപ്പ ാട
ിപ്പ ൂർ
ുവ ാര
േഷ ണ
േഷ ിന്റെ 
ത്തിയ ിട്ട
മായി  നല
 മാ തൃ
റിയ ാന
 മു സ
സ്റ്റ ാന
 ഗ ്യാ
ിക്കാന ോ
ാക ില്ല.

ം പ ങ്കുവ
ം അ തി
െ സ ഹ
 ലഭ ്യമാണ
 കുറ േ
 തെ റ
ം ഇ വിട
രണ്ട ാമ
 രാജ്യ ങ്ങളിൽ
 സു ന്ദര
 കാണ ിച്ച് 
 ഐ ഡ
് എ ന
ം ചെയ്ത ിട്ടുണ്ട
ം ലഭ ിക്കാന
 കൂട്ട ര
 സ്റ്റ േറ്റ് 
ിഷ ൻ
പൊ തുമ
 അറ ബിക്കട
ഉത്തര വാദ
 രാശ ിയില
 അതി ർത്ത
ം ഒരു ക്ക
 രണ്ട്  ഡോസ് 
തിരിച്ച ട
ുകയാണ്  ചെയ്തത
 അവകാശ വാദ
 ലീഗ ിന്റെ 
 ഏറ്റ െടുക്ക
ത്തെ അ റിയ
 സത്യ വാങ്മൂല
 പൗര ന
 മൊഴ ി നല
സംഘട ിപ്പിച്ച
ദർ ശന
തിരഞ്ഞെടുക്ക പ്പെട്ട
െ നടക്ക ുന്ന
 കോടിയ ോള
 എഐ സിസ
- -
ആ ം ആദ്മ
ഗ ോയ
ജ ര
ജ ൂലൈ
ഡ ൗൺ
പ ശ്ചിമ
മ ോട്ട
സ േജ
സ ജീവ
ർ ജ്ജ
 ക ട്ട
്ച ാര
 സ ന
്ര ുവ
പ്പ ുര
 മ ോഹ
 അ വശ്യ
 എ ഞ്ചിനീയറ
ിൽ ,
വി മുക്ത
രു മെന്നാണ് 
ില്ല  എന്നത
ുറ ഹ
 ജ ോജ
തിര ച്ചില
മ്പ ് 
 ഒ രി
മ്മ യുടെ 
ോള ോ
ം ക െട്ട
െ പ ൂര
അത ൃപ്
കു മ്പോഴ
ീകര ിച്ചു
യുടെ  ആ
ങ്ങളില േക്ക
 ഫ ീസ് 
യിൽ  പറഞ്ഞ
ത്ഥ ി 
ി വ െക്ക
യോഗ ്യ
പ്പെടുത്ത ി 
യാള ാണ് 
നിര ന്തര
 വലിയ  തോതില
ി ത ാര
രിക്ക േറ്റ
ൊക്ക െ അ
ം ച ൂണ്ടിക്കാണ
 സഹ ോദ
 മല യോര
ദേശീയ  തലത്തില
ിപ്പിക്ക പ്പെട്ട
ഉപ ദേശ
 സ്റ്റ േഷനില
 വഴ ികള
 ആരോഗ്യ പ്രവര
നിയമ സഭാ തിരഞ്ഞെടുപ്പില
 സ്ഥല ങ്ങളിൽ
ശേഷ ിക്കുന്ന
 ജോല ിക്ക്
ആരംഭ ിച്ചത
 രേഖ കൾ
 ഇര യായ
വിദേശ കാര്യ
ശ്മ ീർ
 മേ ഘ
 കുറിപ്പ ില
 തദ്ദേശ  തിരഞ്ഞെടുപ്പില
 ഡ്ര ൈവര
ം ആണ ് 
ി യോഗ ത്തില
 എൽ ഡിഎഫ് 
 സോ ഷ്യൽ മീഡിയയിൽ
 പുരോഗ തിയ
 തന ിക്ക
വിദഗ് ധ
മധ്യപ്രദേശ ില
െത്തുട ര
 ഡിഎ ംക
റസ്റ്റില ായത
മോക്രാ റ്റിക്
ന്ധ്രാ പ്രദേശ
 ആരിഫ്  മുഹമ്മദ് 
)  ആണ് 
o t
ജ നുവര
പ ന്ത
ാ  വ
ി ടുത്ത
ി വിഷന
െ സ
ന്  രാവിലെ 
ത്ത ികള
മാ അ
 സ ിക
 മ ീ
ുട നീള
റ്റ േഷനില
െയ ്യ
ക്ക്  കൂടുതല
 പ്ര ദീപ
രു പയോഗ
ോട െയായിരുന്നു
വാ ടക
 ജ ്വല്ല
േഷ ്
രി ഞ്ഞ
് ക ോൺഗ്രസ് 
ായി  വര
അത ോറിറ്റ
ാം ...

 ദ ാര
ങ്ങൾ  പാല
 ഗ ാര
ഡ്  ചെയ്ത
ം ന വ
ാക ാന
വീ ര
െതിര െയ
ത്ഥ ിത്വ
ാറ ില്ല.

ക്ട റെ 
മേ ന
സംസ്ഥാന ത്തിന്റെ 
സംസ്ഥാന  നേതൃത്വ
 ലഭ ിക്കുന്നത
 അത ോ
ൂറ ില
് വ ളര
ാനുള്ള  തീരുമാന
ാണെന്ന ായിരുന്നു
ി ച ന്ദ്ര
് എ ം
് ച ിത്ര
എസ് എഫ
 പ്രവർത്ത ക
 അനു വാദ
 ലോക ക
യാണ ിത
െയ് ൻ
ശ്രമ ിക്കുന്നത
 സഹായ ിക്ക
 പഞ്ചായ ത്തിലെ 
ആർ .
വോട്ട ുകള
 വൈറ സ
 ബു ധന
 അടുത്ത ിടെ 
 ബാധ  സ്ഥിരീകരിച്ചത
 ഉണ്ടായിരുന്ന ില്ല.

സ്ഥാപ നങ്ങള
ഉയര ുന്ന
ലൈ സന
ണായക മായ
 കിട ക്കുന്ന
വിലയിരുത്ത ൽ.

െ പരി ശോധന
 വൈറസ്  ബാധ
 തൊഴില വസര
 റഷ്യ ന
 റോഡ ില
 കോഴിക്കോട്  സ്വദേശ
 കുറവ ാണ
 എത്ര ത്തോള
സ്റ്റിറ്റ ിയൂ
 നിർദേശ ം നൽക
്" ,
 പിന് മാറ
ഉദ്യോഗസ്ഥ ർ
 മിസ ൈല
 ദേവസ്വ ം ബ
  ‌
ക ുകയായിരുന്ന
ച േർത്ത
ട ങ്ക
ഡ ീസ
ത രംഗ
പ ാൽ
പ ിറ
ഫ െയര
ബ ത്തെ 
മ ൃത
വ ില്ല
ഹ ാൻ
ി ങ്ങള
ു ക്ക്
െ ന്റ് 
േ ...

ൈ .
ി  ലഭ
ി  വീണ്ട
ച്ച ിറ
ിക്ക ാട്ട
പ്പ ാദന
ിച്ച ായിരുന്നു
ത്ര ിക
വി ജിലന
ടു ങ്ങ
 ഉ ച്ചയ
അത ീവ
 യ ൂ
 പറഞ്ഞ ിട്ടുണ്ട
ാർ ലമെന്റ
 ദ ിശ
ദ്ധ രിച്ച
ം പ ണ
ം പ രാ
 ഫ യല
ം അ ത്
സ്വ ഭാവ
യിൽ  നിന്നുള്ള
ാഹ ാര
െത്ത ുന്നത
മി റേറ്റ
 കേന്ദ്ര  മന്ത്ര
ം സ ്റ്റ
ാണ് ക േരളത്തില
 നിയമ വിരുദ്ധ
 ( എ
 ചെയ്യ ുക.

ാണ് പ രാ
ാണ് പ ാർട്ട
 ആവശ്യ പ്പെടുന്ന
രിക്ക ാൻ
പ്പോഴ േക്ക
ി ആ സാദ
 ഇത ിൽ
മല്ല ,
,  ഐ
റില ീസ് 
് ച ാനല
ആദ്യ മായി 
 തട വ
യാത്ര ാ
നവ ംബര
 ബി ജെ പ ിക്ക്
ഗസ്ഥര ുടെ 
ം കൂട ിയ
 താഴ െയുള്ള
ാത് മാ
 പ്രതിസന്ധ ി 
ക്കട ക
ണം എന്ന ാണ് 
അഭി മാന
 പാട ില്ലെന്ന
 സ്ഥാപനങ്ങള ുടെ 
പ്രത്യേക ിച്ച് 
 ശു ദ്ധ
 ഹോട്ട ലില
പാ ഠ
ആക െ മരണ
 ഒരുപാട ് 
തിരുവ ല്ല
 ബ്രിട്ട ീഷ
 വരാന ിരിക്കുന്ന
ഇന്റ ര
ികടക്ക ാന
സിനിമയ ുടെ 
 പുരുഷ ന്മാര
ം വീ ട്ടില
  ച്ച
അ ഡ
ഗ ീസ
ഡ സ്ട്ര
യ ൂ
യ ൻസ് 
വ ിയോഗ
ാ ക്ട
ി സ്ഥാൻ
ീ സില
ൃ ം
െ ?

് ...
 ക ാറില
 സ ിറ
ം  ഭരണ
ം  മെച്ച
 മ ുകേഷ
 അ ത്രയ
 ത മ്പ
 ത േടിയ
റ്റ ് പ
െയ െന്ന
ങ്ങള ോ
 പ്ര യോജന
രു പ്പ
രാ റ്റുപ
 ജ ോഡ
 ശ ൈ
 ര ഞ്
 ര ജിസ
സം യുക്ത
െ പ ഠ
 ദ ീര
 റ ായ
 റ ൗണ്ട
ിഞ്ഞ ു
 ഗ ോവിന്ദ
വർ ദ്ധ
യുടെ  പേര
സ്വ ദ
സ്വ ാന
 ഓ ർക്ക
ഗ്രസ്  എംഎല
 അദ്ദേഹ ം ചൂണ്ടിക്കാട്ട
ി വ ന
ം നട പ്പാക്ക
ി ജ ോർജ
യ്ക്ക െതിരെ 
ാണ് ക േസ് 
ം ഇ ക്കാര്യ
േജ ില
ുന ൽക
 ഉപ ഭോക്ത
 ഇത ുപോല
ദ്ദ ന
േണ്ടത ില്ലെന്ന
വല ോകന
 കോള ന
് എന്ന ീ
ടിസ്ഥാന മാക്ക
പ്രതിക ൾ
ക്കാന ാണ് 
 തുടര ാന
ഓഫീ സിൽ
 വിധ ത്തില
 സെക്രട്ടറ ി സ
 സ്ത്രീ കൾ
വീട ുകള
 തീര ത്ത്
സൗ ഹൃദ
സംഘടന കള
 അമേരിക്ക യില
ഭാര ത
 കിട ന്ന
 ദിലീപ ് 
 ഒഴിവാക്ക ാന
പ്രകാര ം 
 ഭക്ഷണ ം കഴ
ത്തിന് ശേഷ മാണ് 
റഷ്യ യുടെ 
 ജാമ്യ ം അനുവദ
രാഷ്ട്ര പ
 വള ർച്ച
തുടർന്ന ാണ് 
ിനെ ന േരിട
ി ആയ ിരുന്ന
 ഗോപ ാല
 ഡയറ ക്ടര
 ആരോഗ്യമന്ത്ര ാലയ
 ആധ ിപത്യ
 പൊതുമ രാമത്ത്
പൗരത്വ  നിയമ
 സില ിണ്ട
ി ചോദ ിച്ച
ക്കത്തിലൂടെയാണ്  രോഗം ബാധിച്ചത
 പാണ്ഡ ്യ
രാറ്റുപ േട്ട
c o
ഒ മാന
ഒ തു
ഗ ് കമ്മിറ്റ
ഫ ോ
മ കളുടെ 
ര ഞ്ഞ
ല ാന
 പ ള
 ക ാപ്പ
 സ ൊസൈറ്റ
 വ ാശ
 ന ിയോജക
ിക്ക പ്പെടുന്നത
ാണ്  ഏറ്റവ
സ് മരണ
 ഇ സ്ലാമ
പ്ര കോപ
 ബ ോ
 ബ ംഗ്ലാദേശ
 ജ ാമ്യാപേക്ഷ
 ജ ുഡീ
ിപ്പ ോ
 ര ജന
ാക്ക ി മാറ്റ
 സം സ്കാര
 ല ോട്ടറിയ
ം ക േരളത്തില
ം ക ാര്യങ്ങള
ി ന ാല
ഇത ോടെ പ
ി പ രാ
ി പ ദ്ധ
ിയുടെ  പേര
 ട ി 
െ അ വ
് അ ര
ീറ്റ ർ
ി ജ നങ്ങള
മി റ്റ് 
 ലഭ ്യമായ
െ ത െറ്റ
ിയിൽ  
ൊക്ക െ പറഞ്ഞ
 സമയ വ
ബാധ ിക്കുന്ന
നട ത്തിയത
േണ്ടത ുണ്ടെന്ന
ഡിഎഫ ില
സംഘ പരി
 ട്ര ീറ്റ
ം നടത്ത ുകയ
 പല യിടത്ത
 ശക്ത ികള
 നിർ മാണ
 നിന്നുള്ള വര
ി ബ ്ല
 പണ ിയ
 നടന്ന ിരുന്ന
ഭൂ രിഭാഗ
 ജീവ ൻ
ിള ാ
 വളര െയധിക
ബൈ യിലെ 
 കോൺഗ്രസ്  നേതാവ
 ജയ രാജ
ക്കിയ ിട്ടുണ്ട
ി യ ൂണ
ി ട ിക്കറ്റ
ഇതുവര െ ആകെ 
വീട ിന്
യോ ക്ത
 രക്ഷ ിക്കാന
 ഹര ീഷ
 സമിത ിയില
 കുഞ്ഞ ു
 യൂണ ിവേഴ
െ പോല െ 
 ഡോള ർ
എറണാകുള ം 
ോർട്ട ് കൊച്ച
െ സഹായ ിക്കാന
മൃ ഗ
അത്തര മൊരു
വ്യക്ത മായ
ം വേ ണമെന്ന
വേഗ ത്തില
 മരുന്ന ുകള
ഈ  നീക്ക
ഗ ൗഡ
റ ാല
റ ുമായ
ല ിജ
വ ള്ള
ശ ല്യ
സ ാപ്പ
ി ബു
ു ?

ൈ പ്പ
ത്ത േക്കുള്ള
 പ ച്ച
 പ ശ്ചിമ
ാണ്  ഉള്ളത
രു ൺ
േര ി 
ിന്റെ  മരണ
 എന്ന ു
തി ള
െ ക ാത്ത
 മു രള
ിച്ചത ിന് ശേഷ
ി ക ൂടുതല
ാക ട്ട
ം വ ച്ച
ണമ ുണ്ട
ുമായി  ചേര
 ഫ ോർ
 നിര ക്ക് 
ി അ ല
ിയത ോടെ 
 നില യിലേക്ക്
യ്ക്ക്  വേണ്ട
കാര ്യമന്ത്ര
 രണ്ട ് പ
 രണ്ട ാമ
ശ്ര ീലങ്ക
 ബിജെപ ിക്ക
 വലിയ  തിരിച്ചടിയ
 ചെയ്യ ുന്നുണ്ട
ങ്ങളുടെ  പ
ി പ്ര ചര
 കേരള ത്തിലേക്ക്
 മുന്ന ണിയ
 ജന പ്രതിനിധികള
ിയായ ത
 തീരുമാന ം എടുക്ക
സ്സ ുകള
ിപ്പിച്ച ത്
തിരഞ്ഞെടുപ്പ ിന്
ീല േഖ
 പുറ പ്പെട്ട
 വിഭാഗ ത്തിന്റെ 
 തയ്യാറ െടുപ്പ
ഇന ി ചികിത്സ
 ഒഴ ുക്ക
16 4
മോ ന
ിസി ആര
ി യ ുവ
വിവിധ  ഭാഗങ്ങളില
രേഖ കള
ീത ാറ
ിപ്പിക്കാന ാണ് 
തിനി ധികൾ
 പ്രതിസന്ധ ികള
 ലീഗ ിന്
നീ ഷ്യന
 ൽ  
ണായക മാണ
 കീഴ ടങ്ങ
ദീപ ് സ
 സജീവ മായി 
ിക്കേണ്ടത ാണ
 യോഗ്യത യ
ിഡ ിപ
പര്യമ ുള്ള
 സ്വാധീന മുള്ള
 സോ ഫ്റ്റ
രോഗം ബാധ ിച്ച
 ബഹ ിരാകാശ
സിപിഎമ്മ ിന്റെ 
 ഒരുങ്ങ ുന്നത
ായി പ്ര ത്യേക
ഉണ്ടായിരുന്ന ത
 സിദ്ധ രാമയ്യ
 രക്ഷാ പ്രവര
 പ്രാതിനി ധ്യ
 അവലോക ന
4 50
9 00
ം സാന
അ നില
ഉ പരോധ
ഗ ിൽ
ജ ് പറഞ്ഞ
ണ ികള
ബ ിജ
ബ ാരോഗ്യ
ഭ ൂപ
മ ട
സ ന്ദേശ
ഹ ാദ
ീ ,
േ ന്ദ
ർ ദ
ക്ക ാലയ
 പ ായ
ും ',
 സ യന
 സ ൂരജ
ായ ത് 
ിന ിട
ിന െ കുറിച്ച് 
ക്ക്  പരിക്കേറ്റ
ത്ര ിപുര
െന്ന  നിലയില
പ്ര േമ
ിന്റെ  നിര
 ഉ ദ
 ബ ോർഡ
 ബ ത്തേര
മാണ ്ഡ
മ്പ ൻ
 ഒ ന
 ഒ ഡീഷ
 ല േല
തി ഷത്തില
െ പ ര
ന്ധ ര
ി പ ്പ
െ ന ൽക
െ അ നുകൂല
ആര ്യ
േക്ക ുറ
വില  
 കോ യ
െ സ ർക്കാർ
ം സ ർക്കാർ
 രണ്ട ് വര
 അന ിൽ
 തെ രുവ
ം മ ുറ
ുന ഃ
 കൂട ിയാണ
ൊപ്പ ം 
 മുഖ്യമന്ത്ര ിക്ക്
 കഴിഞ്ഞ ത
ിരിക്കുകയാണ െന്ന്
െ എ തിര
 പുറത്ത ുവര
െഡ ്യൂ
 പോയ ിരുന്ന
 മന ോരമ
തി ന ിർ
ബു ധന
പേര ുകള
 പുതിയ തായി 
ായിരിക്ക ുമെന്ന
 മാസ ത്തില
14 4
അതിന ിടെയാണ് 
 തയ്യാറ ാണെന്ന്
 ഉറപ്പ ാക്കാന
ഉപ േക്ഷ
 വഴ ങ്ങ
 സെക്രട്ടറ ി പ
 സഹായ വ
 മറ്റ്  സംസ്ഥാനങ്ങളില
ം ഏ ർ
മാണ് ക േരള
പ്രതിപക്ഷ  നേതാവ് 
പ്പെടെയുള്ള വര
 തീര ദേശ
 അവകാശ പ്പെടുന്ന
ചോദ്യ ം ചെയ്ത
ാഗ്ര തയ
പു സ്തക
നേതാക്കള ുടെ 
ുമാന ൂര
ോപ്പ ാല
 മി ണ്ട
ുമ്പോഴ ാണ് 
ോട്ട്  സ്പ
 ഇയാള ുടെ 
 വിര ോധ
 പിഴ യ
 ബാങ്ക ുകള
 ബഹ ള
 വിദ്യാർത്ഥ ികൾ
ൽക്ക ത്ത
 ഡിജ ിറ്റല
 യഥ ാർത്ഥ
 സങ്ക ട
പ്രതികര ിച്ചത
 ട്വിറ്റ റില
ം തുട ങ്ങിയത
 അഴ ീക്ക
 താഴ് ന്ന
 വേണു ഗോപാല
ാഫി പറ മ്പില
  ഘ
ഏ പ്രിൽ 
ച ്യ
ച ിറ
ച ുറ്റ
ത ിരുന്ന
ന മ്പ
പ ുത
പ ോർട്ട
ബ ിരുദ
ല ാബ
ഴ ുത്ത
സ ൂച
ഹ രിച്ച
ി ങ്ങന
ൂ ന്യ
്  രാജ
െ  വിട്ട
 പ ിൻ
 ക ൗണ്ട
 വ ർക്ക
ട്ട ികളുടെ 
ാണ ല്ലോ
ാന ുമ
ക്ക്  അ
പ്ര ിൽ
 ബ ിന്ദു
ുവ ന്ന്
 ല ുലു
് ക െയര
െ ക സ്റ്റഡിയില
് പ ൊ
സ്റ്റ ല
 യ ോ ഗ
 ദ ില
ന്റ ര
ത്തിന്  ഒരു
തല മുറ
 സ്വ ീകരിക്കാന
ുമായി  സഹകര
 നിര സ
േക്ക ുമെന്ന്
നില നില
 അദ്ദേഹ ം ആവശ്യപ്പെട്ട
 അവ ാര
മേ ഠ
ം സ ന്ദര
ം എ ത്ര
 ഇട തു
െ ത ാമസ
19 3
ാണ് അ മേരിക്ക
ം ച ുമ
ഇത്  സംബന്ധിച്ച് 
മാറ്റ ിയത
നട ൻ
നട ി ആക്രമിക്കപ്പെട്ട
 മറ്റ ൊരാള
 കുട ിവെള്ള
ം നടത്ത ാൻ
ുമെന്നാണ്  വിവര
 വ്യക്ത ത
കല ്യാണ
എസ് ഇ
വെ ന
വെ ബ
 മാസ ങ്ങള
ാങ്ക ൾ
 സ്റ്റ ോറ
 ഒഴ ുക
 പ്രദേശ ങ്ങളിൽ
ുകളുടെ  എണ്ണം 
ുകളിൽ  നിന്ന
 നിലപാട ുകള
ന്ദര ്യ
 ചോദ ിക്കുന്നത
 അയ ോധ്യ
 സംസാര ിക്ക
 ഇര ുന്ന
 മോ ന
 രക്ഷ പ്പെട്ട
 വരു ത്തിയ
യുവ തിയ
ാണ് അദ്ദേഹ ത്തിന്റെ 
പ്രതിരോധ  പ്രവര
ം നി ർത്ത
ബോധ ്യ
േവ ാല
അമ്മ യ
ഒറ്റ പ്പെട്ട
 കേ ൾ
ടുവ ള്ള
 പേരാണ്  രോഗം സ്ഥിരീകരിച്ച് 
ം ഉന്നയ ിച്ച
 ദുരന്ത നിവാരണ
 പ്രകട ിപ്പിച്ച
ം പ്രഖ്യാപ ിച്ച
ി നി ർത്ത
 രാഷ്ട്ര പതി 
െ അറസ്റ്റ്  ചെയ്തത
ബീ ഹാറില
ഞ്ജു  വ
െ ആയ ിരുന്നു
 എംബ സ
ം മണ്ഡല ത്തില
പതിന ായിര
 വാത ില
 തൃശ്ശ ൂര
 ഭാരവാഹ ികള
തൊ ടുപുഴ
െ കുഞ്ഞ ാലിക്കുട്ട
ംആ ദ്മ
  S
ആ ന്റണ
ജ സ്റ്റ
ജ െന
പ ി ജയരാജന
ബ ത്തിലെ 
യ െ
ല ിന് 
സ ുന
ഹ ിക
ീ ർത്ത
ൂ ത
ൈ ൽ
ക്ക ുമാണ് 
ത്ത ൻ
ത്ത ൊഴിലാള
 പ ന്ന
ി  തീരുമാന
 സ വിശേഷ
ിക്ക ാവുന്ന
ുക ിട്ട
വര േയ
ക്ഷ ികള
 ച േർത്ത
മ്പ ത
 ല ക്ഷണ
് ക ൂട്ട
ിച്ചത ോടെയാണ് 
 ദ ുരു
 ഗ ർ
 ഗ ൗര
ി ക ണ
ം പ ൊലീസ് 
യു എ
ം ഉ യർ
യിലെ  ഏറ്റവ
് വ ലിയ
ൊക്ക െ ക
ിത്ത ാന
 ശതമാന ത്തോള
പരി ചയ
 പോലീസ്  പറയുന്ന
ി വി പണ
 നൽക ിയിട്ടുണ്ട
ിക്  ട
ി ബ ല
 യാത്ര കള
 ഉറപ്പ ് നല
 സ്റ്റ ാര
 സംബന്ധ മായ
 സിപിഎ ം 
 സഹായ ങ്ങള
ആരോഗ്യ നില
ി ഡ ്ര
 ആരംഭ ിച്ചിട്ടുണ്ട
 ശ്രദ്ധ  കേന്ദ്ര
ിബ ാൻ
 കമ്മിറ്റ ിയ
സിദ്ധ രാമയ്യ
 അടിസ്ഥാന ത്തിൽ
 വല ുത
ലോക് ഡൗണ
സമൂഹ ത്തില
 വിദ്യാർത്ഥ ികൾക്ക്
കോടതി  വിധ
 അഴിമ തിയ
വട്ട േഷന
ഫോഴ ്സ്
നിരീക്ഷണ ത്തില
 അണ ിനിര
ത്താ  സമ്മേളനത്തില
 സതീ ശന
ഇനി ചികിത്സ യിലുള്ളത
  ഴ
ം  സ്
ം  സം
ഓ ർ
ജ ോജ
ഡ ിന്
ദ മ്പ
പ റ്റ
മ ഞ്ഞ
മ ന്ദിര
ഹ രിത
ാ വര
ൌ ണ്ട
ൽ റ്റ
െ  രക്ഷ
 പ ി സ
 പ ാദ
ി  മരിച്ച
 വ ഷള
ിക്ക ുള
പ്പ ളള
 മ ോര
 മ േള
ുക ണക്കിന്
ിന ോ
സ് തിയ
വി ഭവ
വി പുല
പ്ര യോഗ
 വി ഹിത
മ്മ ര
് ക ാര്യങ്ങള
സ്ഥാന ാർഥ
ം ക ാര്യ
ിച്ചത െന്നാണ് 
ഇത ുപോല
 വര ികയാണ
 തിര ഞ്ഞെടുത്ത
ം വ െള്ള
ി അ നുവദ
ി അ ധികൃതര
ം ഉ ടന
 പ്രതി ജ്ഞ
കാര നായ
െത്തിയ ത്
േറ്റ ർ
 സംഘ ത്തെ 
 രണ്ട ര
പര ീത
 തിരഞ്ഞെടുപ്പ ് കമ്മീഷന
 അന ിവാര്യ
 ദിവസ മായി 
ിക്കുകയാണ െങ്കില
ി ത ള്ള
 രൂപ യില
 രൂപ ം ഇങ്ങന
 ഞ ങ്ങൾക്ക്
കിയ െന്ന
 ഉപ മുഖ്യമന്ത്ര
ിക്കാൻ  കഴിയ
െ ആ ശ്രയ
എന്നാൽ  
എന്നാൽ  ഈ
് മ ഹ
മുഖ ത്ത്
് എ ടുത്ത
 ഒന്ന ിന്
 ഒന്ന ുമ
ം വി മാനത്താവള
് ച ൗ
 അംഗ ീകൃത
ഫല പ്രദ
 അനു ബന്ധ
 മോദ ിയുടെ 
 എത്തിയ  
 സ്ഥല ത്തെത്ത
ിക്കാനുള്ള  സാധ്യത
ദ്ര ോഹ
സൈ ബര
പല പ്പോഴ
 മണിക്കൂറ ിനുള്ളില
 ഫല ങ്ങള
് നിര വധ
 എല്ലാവര െയ
രാമ ക്ഷേത്ര
 ഇപ്പോഴ ത്തെ 
യുവ തി 
 ഇതുവര െ കോവിഡ
രംഗത്ത്  വന്നിരുന്ന
 ജാഗ്രത ാ
റഷ്യ ന
 എടുക്ക ാന
ശാസ്ത്ര ീയ
 പഞ്ചായത്ത ുകള
ീവ്  ഗാന്ധ
 പ്രത്യ ാഘാത
 പതിന ായിര
സംബന്ധിച്ച ിടത്തോള
റി ക്രൂട്ട
ജെ ഡിഎ
 ഇടപാട ുകള
അവകാശ വാദ
 ദുബായ ില
 തക ർന്ന
ം വാ ങ്ങിയ
ഉടമ സ്ഥത
ുമെന്നാണ് പ്രതീക്ഷ ിക്കുന്നത
 ആനുകൂല ്യ
 ആനുകൂല ്യങ്ങള
 എന്നിവിട ങ്ങളിൽ
 സമ്പർക്കം മൂല ം

 പേരാണ് രോഗം സ്ഥിരീകരിച്ച്  ഇനി ചികിത്സയിലുള്ളത
  ത്
ം ..
അ ഹമ്മദ
ഏ തു
ഏ താന
ക ിട്ട
ത േടിയ
ഥ ന
പ ോട്ടുകള
ബ ാർ
മ ോഷണ
ല േല
സ ി സ
സ ന്ദീപ
ി മാന
ി  പോക
ൂ 

ക് ച
ിയ ാ
ച്ച  ചെയ്ത
ച്ച കളില
 ന ൗ
ുക 

ിന േക്കാള
 ത ി ന
 ത ളിപ്പറമ്പ
 എ ഫ്
ുള്ള ക്കുട്ട
പ്ര ോ
ോട ് സ
 വി ശാല
 ഉ രുള
ുമ ര
ുവ ീണ
മ്പ ാവൂര
് ക ല
് ക ുട്ട
്യാ ട
സ്റ്റ ാഫ
ിക്കുന്നത ിന്റെ 
 ദ ിർഹ
ഞ്ച ില
ം ന ാള
േന്ദ്ര  സ
ി ക ട
ം പ ുരോഗമ
മാക്ക ാൻ
മാക്ക ി മാറ്റ
 ഹ ിമാ
രാജ്യ സഭാ
 വെ ന്റില
ോട്  ചേര
 സെ ക്യൂരിറ്റ
ം സ ാ
ം ഇ ത്തര
ൂറ ല
 കേരള ാ
െ ത ുറ
10 7
 രോഗ ങ്ങള
 രോഗ  ബാധ സ്ഥിരീകരിച്ചത
 ശതമാന ം വര
ോമ ണ
 സഹ മന്ത്ര
ുന്നതിന ാൽ
ഇട വേള
െ കുറ ിച്ച് പ
 സർ വ്വ
ന്യൂ യോര
് പ്ര വർത്ത
ഇതിന ിടെയാണ് 
കല ാപ
ഹര ീഷ
വെ സ്റ്റ
 അന്വേഷണ ത്തിന്
മുന്ന േറ്റ
ഭൂ ഷണ
 സംഘടന യുടെ 
 പ്രധാനമന്ത്ര ി 
ആരോഗ്യ  വകുപ്പ
 എന്നി ങ്ങനെ 
 ക്യ ൂ
കൈ യ്യില
 സഖ്യ ത്തിന്
സഹായ ത്തോട
 കുറഞ്ഞ ത് 
 ഇപ്പോഴ ിതാ
 പട്ടിക യിൽ
 ഇക്കാര്യ ത്തിൽ
 സമിത ി അംഗ
 വിതരണ ം ചെയ്യ
തോ റ്റ
 വേദ ിയില
നിരവധ ി 
നെ ഗറ്റീവ
 അടക്കമുള്ള വര
വാർ ഡ് 
 ബാന ർജ
 പരിഹാര ം കാണ
 രോഗമുക്ത രായ
 വനിത കള
നടക്ക ുന്ന
ഭരണഘടന ാ
തികര ിച്ചത
ി ബാല കൃഷ്ണ
 അയാള ുടെ 
 റോയ ല
ട്ട് ചെയ്യ പ്പെട്ട
ുഴലിക്ക ാറ്റ് 
മോഷ ന
െ അപേക്ഷ ിച്ച് 
ത്തിന്റ േയ
 രോഗം സ്ഥിര ീകരിച്ചത
ഡിസംബ ർ 
 യെച്ച ൂര
അ ല്ലാതെ 
ഈ  മാസ
എ വിട
ഐ പ
ഓ ർമ്മ
പ ുറ
ബ ള
ള ിന
വ െക്ക
വ െല
ശ രാശര
ഹ ാജ
ു ശ്ശേര
ൂ തിര
ൂ ക്കില
േ രു
ോ  യാത്ര
െ  ടു
 സ ുമ
ം  ഏറ്റവ
 ത ല്ല
ക്ക്  കൂട
 ആ ദിവാസ
 ച ീ
 ച വിട്ട
ിപ്പ ിക്കല
 ര ഘ
 ര ഹിത
മു ച്ചയ
ത്യ സ്ത
െ ക ണക്ക
് പ ര
െ പ ൊ
 ദ ൃ
 റ േഷന
ിത ന
ം ന ഗര
 നിന്ന്  വിട്ട
ആര െങ്കില
ചെയ്യ ുന്നത്
ി സ ഹ
ുകൾ 

ി എ ല
ികൾ .

ാണ് ഇ വ
 ( സബ് വാര
ി ത വണ
 കേസ ിന്റെ 
വിജയ ് സ
10 6
 സു ഭാഷ
 വില  വര
 സീറ്റ ് നല
ബാധ ്യത
നട ന്നത
് മ േഖല
 പെ ട
 വയ സിന്
 രാജ ഗോപാല
 പദ്ധ തി നട
 ഗാന്ധ ിക്ക്
വല ിച്ച
ുളള ില
ുളള വര
 തല യ
 കമ്മ ിഷന
ഇന്ന്  രോഗം സ്ഥിരീകരിച്ച
്യൂ ഷന
 എം എൽഎമാര
ഉപ ദ്രവ
കോട തിയുടെ 
 സംബന്ധ ിച്ചുള്ള
 പ്രതിപക്ഷ  പാര
പൊ തുവ
സർ ക്കാരിന
ജില്ലാ  പഞ്ചായത്ത്
 ബു ധ
വീട്ട ിലെ 
ം കുറ യ
ിപ്പിക്കുന്നത ിന്
ി റ ിപ്പോർട്ട
 സഖ്യ ത്തില
ുപോക ുന്ന
് കേസ ില
മണ്ഡല ത്തിൽ
ി പ്രഖ്യാപ ിച്ചത
 പദവ ിയില
 തിരിച്ചടിയ ായ
 ഡെ വല
വിഷയ ത്തിൽ
ഹൗ സ് 
 ഉച്ച യ്ക്ക്
വകാശ പ്പെട്ട
 പേരുടെ  പരിശോധന
അറസ്റ്റ്  ചെയ്തത
അന്ത ിമ
തെറ്റ ായ
 പ്രൊ ഫ
 വിവേ ചന
ത്തിയാക ാത്ത
ി കൂട്ടിച്ച േർത്ത
 വീഡിയ ോയ
ം കാല ാവസ്ഥ
ദുരിതാശ്വാസ  നിധ
! !!

അ ല്ലാത
ഗ ് അ
ദ ില
ദ ീർ
പ േഴ്
മ ിക്കുന്ന
യ ാല
ഷ ീദ
ഹ ിജാബ
ു  എന്നത
ൂ കര
ൽ വ
ക്ക ൊ
ക്ക ുമെന്ന്
 സ ാറ
പ്പ ിക്കുന്ന
 അ ളവില
 ച തുര
ുണ്ട റ
യില െ അ
ുകള ാണ
 ല ിമിറ്റ
മു ത്ത
ം ക ോര
ം ക േള
െ പ ണ
ങ്ങൾ ക്കു
യുടെ  ക
െ ന ഷ്ട
ന്റെ  അ
 ഏ ഷ്യാനെറ്റ് 
 പരി മിത
ിമ ിഷ
 കോട തി പറഞ്ഞ
ം ത ാമസ
ം ഉ പ
 സംസ്ഥാന ത്ത
മേ ഴ
 പു തുമ
നി ഴ
നിര ക്ക
ൂറ ോള
ി പ്ര ദേശ
വിധ േയ
ഇന്ത്യ ക്കാര
കഴിഞ്ഞ  ദിവസങ്ങളില
 സീറ്റ ിൽ
മായിരുന്ന ില്ല.

് മ രണ
െ എ ല്ല
 വയ നാട്ടില
 രാജ ിവ
ി പറഞ്ഞ ിരുന്ന
് ച ില
മത േതര
ിപ്പിക്ക ുമെന്ന
കോ വില
 ലോക ത്തെ 
് ബ ിന
ആവശ്യ മായ
െയ് ഖ് 
ഗോപ ിനാഥ
 മണിക്കൂറ ുകള
 ക്ര ൈ
സംഗ ീത
 ഇത്തര ത്തിലുള്ള
 അധ്യക്ഷ നായ
െ നട ത്ത
നിലവില ുള്ള
 താഴ െയ
ായി ക ാത്ത
 പുറത്ത്  വിട്ട
സൗ ജന്യ
നീ തി 
 വിശദ ീകരിച്ച
മോദ ിയുടെ 
ലൈ നില
ം കൊ വിഡ് 
ുണ്ടാക ുന്ന
ബിഗ് ബ ോസില
 ശ്രീ നിവാസ
 ഭീഷണ ിപ്പെടുത്ത
െ അറിയ ിച്ചിരുന്ന
യിട ങ്ങളിൽ
 ചരിത്ര ത്തില
 വിധേയ മാക്ക
നാ ജ്ഞ
 അദ്ദേഹം  ആരോപിച്ച
 സെക്രട്ടറിയ േറ്റ് 
ഓഫ്  ഇന്ത്യ
 മദ്യ പ
ം ആയ ിരുന്നു
 ക്രമ ക്കേട
വന് ദേ
 പ്രമുഖ ര
 പ്രവച ിക്കുന്നത
പ്രശ് നങ്ങള
സംര ംഭ
 ഭരണഘടന ാ
പഞ്ചാബ ില
കീഴ ില
ധി വാസ
 ഗവ ൺ
 കപ്പ ല
നേട്ട ങ്ങള
ആല ുവ
വ്യക്തി പരമായ
് ബാബ ുവ
ാതി ക്രമ
ി ചെറിയ ാന
2 30
ആ ക്ഷേപ
ഒ മൈക്ര
ച െങ്ക
ഡ ് പ
മ ണിയ
മ രുന്ന്
സ സ് 
സ െല
ു ങ്ക
ൊ മ്മ
ന്ന ത്
ിയ െങ്കില
ിയ ിരിക്കുന്ന
ി  ട്ര
 ക ാഴ്ച്ച
 മ ്പ
 അ ന്യ
 അ തിനാല
 അ ണക്കെട്ട
െയ ുണ്ടായിരുന്ന
ക്ക്  കോവിഡ് 
പ്ര ശാന്ത്
പ്ര േഷണ
ിട്ട ു
കര ിച്ച
 ജ ര
 ഒ ത്ത
ഗ്ര സ്സ് 
്യാ പ്ത
ാട ്ര
െ ക ാല
മയ ക്കുമരുന്ന്
ന്റ േത
ഇത ൊന്ന
 ഗ ാസ
ം പ ൊട്ട
മാര ംഭ
െ ന േതാക്കള
ം അ പകട
സ്വ ത്ത
 സാധ ിച്ചിരുന്നില്ല.

 ഓ ർമ്മ
 ഓ പ്ഷന
ിറ്റ േ
ി വ െള്ള
ക്രമ സമാധാന
 ശേഷ മുള്ള
കാര ങ്ങള
 കുറ ച്ചു
 അത ൊന്ന
രണ്ട ര
ലഭ ്യമാക്ക
ൂറ ോപ്പ
ി പ്ര വേശന
 പങ്ക െടുത്ത്
 ഉപ ഭോക്താക്കള
ി മ റ്റ
ി മ മത
 നടത്ത ുന്നുണ്ട
കട ല
 ധ രിച്ച
ഗ് നി
െ മ ികച്ച
 പെ ൻഷൻ
കാല ത്ത
 മന ോ
ം മു ൻ
ം മു ഴുവൻ
24 0
മ്പന ികള
ഗ്രഹ ണ
 സാധിക്ക ില്ലെന്ന
്യൂ സിയ
 ഇല്ല െങ്കില
് നട ത്തുന്നത
 പണ ം നല
 ഒഴ ിക
ിക്കുന്നുണ്ട െങ്കില
സിറ്റ ിങ
നിയമ സഭയില
ആവശ്യ പ്പെട്ടത
ിക്കാനുള്ള  നീക്ക
 ജില്ലാ  കളക്ടർ
ിഷ റീസ് 
 ചോദ്യ ം ചെയ്ത
 മണിക്കൂറ ോള
 രാഹുല ിന്റെ 
അന ുമതി 
 രീതിയില ാണ് 
ച്ഛ ന്റെ 
 പോസ്റ്റ ുകള
 ആശങ്ക യുണ്ട
 ലക്ഷം രൂപ യുടെ 
ൂട്ടിച്ച േര
 ഭീഷണ ിയ
 നടപടിയ െടുക്ക
മുദായ ിക
അംഗ ീകാര
 തസ്തിക യിലേക്ക്
സ്ട്ര േലിയ
പൂ ജ
ി സു പ്ര
 കൊണ്ടുവര ാന
പരിധ ിയില
 ശിവ ശങ്ക
ജിസ്ട്ര േറ്റ
 റിയ ാസ് 
 ഭാഷ യില
സിക്യൂ ഷ
ി തന്ന െയാണ് 
 ചുമ ത്ത
ബാ സ്റ്റ
അതുപോല െ 
വൈദ്യ ുത
 ഡിവൈ എഫ്ഐ
 ഇംഗ്ല ീഷ
നടിയ െ ആക്രമിച്ച
ത്തുന ിന്ന്
മ്യൂണ ിസ്റ്റ
ിക്കള ഞ്ഞ
 ലക്ഷം കോട ി രൂപ
 എഫ്  ഐ
  p
ം  സ്ഥാനാര
അ ഭ
ഏ രിയ
ഏ ഷ്യാനെറ്റ് 
ത മംഗല
പ ്ട
പ ിണറായി 
ബ ോറ
മ ീര
ശ രിയ
സ ൂപ്പര
ാ  ല
ാ ചാര
ി വിള
ൂ ക്കര
േ ദ്
ന്ന ത്തെ 
ന്ന ിരിക്കുകയാണ
ും !

ി  ഗ്ര
ിര ക്ഷ
ച്ച ര
ിക്ക ാണ
ിക്ക ാട
പ്പ ിട
 മ ർദ്ദ
ുക  തന്നെ 
 ത ങ്ക
വര ിൽ
വര ാനിരിക്കുന്ന
യില ുണ്ട
 ഉ ൽപ്പ
 മാ വോയ
െ ക ടുത്ത
 മു ക്ക
ാം ;
ി ന യ
ിത നായ
ം വ ല
ീയ ത
ത്ഥ ി നിര
് സ െന്റ
ി വ ഴ
 രണ്ട ാഴ്ച
 ജില്ല കളിലെ 
നിര പ്പ
 വലിയ  വെല്ലുവിള
് വ ന
് ത ാല
 മുഖ്യമന്ത്ര ി വ്യക്തമാക്ക
െ വ െള്ള
െ എ ണ്ണ
ംപ ള്ള
െഡ ിറ്റ
ി വി ഷയ
ഇട തുമുന്നണ
വല ിക്കാന
 വ്യക്ത ിയുടെ 
ാഗ ാന്ധ
 അന്വേഷണ  ഏജന
ിച്ച് ക േന്ദ്ര
 പ്രതിഷേധ ങ്ങള
 ഇറ ങ്ങിയത
പ്പുറ ത്ത്
ധാ വി
ദിവസ വ
 സുരക്ഷ യ
ഇതോടെ  ജില്ലയില
വോട്ട െണ്ണല
ഉത്തര വിട്ട
ൊല േഷനില
 ശ്രദ്ധ ിക്കണ
ഇത്തര ത്തിലുള്ള
മത്സര ിക്കുന്നത
വഴ ി 
 ഉണ്ടാക ുന്ന
ം കൂട ിയാണ് 
ആശുപത്ര ികള
െ പ്ര തിരോധ
ം കുറ ച്ച
 പട്ടിക ജാത
 സൗദ ിയില
 ആഭ്യന്തര  മന്ത്രാലയ
ം എന്നിവ യ
 കോൺഗ്രസ ിൽ
 സൂര്യ ന
ുതു തായി 
 ചേ ച്ച
 ബല ാത്സംഗ
തിരഞ്ഞെടുപ്പ്  ഫല
വെറ ുത
ം വർ ദ്ധ
ക്രൂര മായി 
 തിരക്ക ഥ
 തിരഞ്ഞെടുക്ക പ്പെട്ട
ചേർ ന്ന്
നാഗ പ്പള്ള
് വ്യ വസ്ഥ
 സീതാര ാമന
മലയാളം സ ീസണ
 ഇതുവരെ കോവിഡ ില
,  എറണാകുള
ം  സംസാര
എ പ്പോഴ
ഖ ്യാ
ന ാസ
മ ഞ്ചേശ്വര
വ ന്യ
ഹ ീന
ി  പോലീസ
ീ ഗ
ു  പറയ
ു ..
െ ട്ര
 പ  ര
ി  ഇന
മാ ർച്ച
ട്ട ോക്കോള
ിക്ക രുതെന്ന
പ്പ ിച്ച് 
ം  ,
ിന്  ഒരു
ാണ്  ജ
 ആ ദായ
 ആ ഘാത
 ഇ റ്റല
യില േക്കുള്ള
 ബ യോട
ുമ ുണ്ടായിരുന്ന
െന്ന്  പറഞ്ഞ
 ര േവ
ന്ത ിമ
മ്മ ്യൂണ
സം സ്കാര
് ക ോ
 പറഞ്ഞ ിരുന്നത
ാൻ ഡ് 
മയ ാന
ി ന േരത്തെ 
ി പ ൂർ
ം പ ൊതു
ത്തിന്റെ  പ്ര
ണമ െന്റ
 ഫ ീല
െ ന േതൃത്വ
ം അ പേക്ഷ
 രാ മന
ി സ ൗ
് അ ന്വേഷണ
യു വാ
 വെ ളിച്ച
 കോട ി ഡ
ാദ വ് 
ി ജ ി പ
 ശേഷ വ
 സെ ന്റ് 
ോയ െന്നാണ് 
ം എ നിക്ക്
നി ക്
 ഇട ംപ
ാണ് ഇ ന
 ബിജെപ ിയിലേക്ക്
ലഭ ിക്കുന്നത
ലഭ ്യത
ം മ ികച്ച
 രൂപ യ്ക്ക്
 ആവശ്യ പ്പെടുന്നത
ഇന്ത്യ ാ
 ആണ െങ്കില
ി ആ ഘോഷ
ം ച ിത്ര
 കഴിഞ്ഞ ില്ല.

 ശതമാന ത്തില
 കാണ ാതായ
 കാരണ വശാല
ഇട തു
 സർ വേ
 കട ത്ത
ദേശീയ പാത
ുട്ട ൻ
്യൂ ണിക്ക
ിച്ച് ക ോണ
് നട ത്താന
ത്തിലേക്ക്  എത്ത
 ഉത്തര വ് 
കേന്ദ്ര സര
െക്കുറ ിച്ച് പ
ത്തോട ് അ
 സി ഐ
ിക്കണ ം എന്ന്
ആരോഗ്യ വകുപ്പ
 മുൻ ഗണന
വോട്ട ര
 അവകാശ പ്പെടുന്നത
സ്വന്ത ം 
ായി പ രി
മേയ ് 
ഗിക മായി 
െ പോ ലീസ
വ്യാ ധ
 റിപ്പോർട്ട ിൽ
സ്ഥല ത്ത
 ആർ .
അടിസ്ഥാന ത്തിലാണ് 
 ഇടപെട ലുകള
ഹൈക്കോട തിയില
 സെന്റ റില
 പ്രിയങ്ക  ഗാന്ധ
സമ ഗ്ര
ാണ് പരി ശോധന
ി കൂട ിയായ
 അത്തര മൊരു
 ലക്ഷ്യമ ിടുന്നത
ദക്ഷിണ ാഫ്രിക്ക
 പുറത്തുവന്ന ിരുന്ന
 നഗരസഭ  
െ പിടികൂട ിയത
ം നേരിട ുന്ന
 ആയിര ക്കണക്കിന്
മായി പരി ശോധ
െത്തുട ർന്ന്
മാത്യ ു
ാസ്റ്റ ിക്
 ചീഫ ് സെക്രട്ടറ
 ബുദ്ധിമു ട്ടുകള
 ഭൂരിഭാഗ വ
 ശ്രീധര ന
ം  സ്വീകരിച്ച
ഖ ാൻ
ഗ ിൾ
ഡ ബ്ല
പ ോണ
വ ുകള
ശ സ്ത്രക്രിയ
ൊ റ്റ
ന്ന ായി 
ില ാഷ
ത്ത ിൻറെ 
 പ ഞ്ച
ി  റിപ്പോര
ി  സ്ഥാനാര
ി  വാങ്ങ
പ് തി 
 ക  യ
 ക െപ
 സ ൂപ്പർ
 സ ിവിൽ
ട്ട ുണ്ട
ിര ിക്കുകയായിരുന്ന
 ന സ
 ന ാഷണൽ
ിക്ക ൂട്ട
 മ ടിയ
 അ മ്പല
ിന ുണ്ട
ിന െ സ
 ത ൂങ്ങ
 പ്ര വിശ്യ
പ്ര കൃ
 ഉ മ്മൻചാണ്ട
 ജ ലീല
ിപ്പ ില
 എന്ന ാണ
 എന്ന  ചിത്ര
ിയില ൂടെ 
് ക േസ് 
റിയ ുടെ 
ാധ ്വാന
 ഗ ൃഹ
ാള ുകള
ം പ ുല
് ന ാട്ട
 ഫ ൈ
 പേര ുകള
ം അ വ
െ അ ക്രമ
ി അ ധികാരത്തില
തുട ർ
ിറ്റ ുകള
അതേസമയ ം എ
അതേസമയ ം ആ
 ഉണ്ട ായിരിക്ക
 സംസ്ഥാന ത്തിന്റെ 
മേ ധ
 നിയമ പ്രകാര
ാണ് ഇ വരുടെ 
ോഷ ൂട്ട
െ ത േടിയെത്ത
രുത രാവസ്ഥ
കാര്യ ം ചെയ്യ
 രോഗ ലക്ഷണങ്ങള
 വോട്ട ിന്റെ ഭൂരിപക്ഷ
 ശതമാന ം പ
 ഇത ിലൂട
നിയ ോഗ
കുട്ട ി 
 വകുപ്പ ിന്
 കൂടുതല ായി 
11 7
ബു ധ
 മറ ക്ക
 വ്യ തിയാന
 അട യ്ക്ക
 ഖ ാര
ിക്കുന്നതിന ിട
 കൊവിഡ്  ബാധിച്ച് 
ചിത്ര ത്തില
 പിന്തുണ യുമായി 
 പങ്കെടുത്ത ത
നിർ മാണ
വീട ിന്റെ 
 പറ്റ ില്ല.

 പരിശോധ ിച്ച് 
ഇക്കാര്യ ത്തിൽ
 ചൈന യ
ഇറ ങ്ങ
ഇറ ക്കുമ
 ഭാര തീയ
 നായ ിഡ
കാ ന്ത്
 ഹൈക്കോട തിയില
കുറ്റ പത്ര
ിച്ചുവര ുന്ന
ായറ ാഴ്ച്ച
 സിപിഎമ്മ ിന്റെ 
ം കൈ മാറ
ം ആയ ിരുന്ന
 ചന്ദ്ര ന
സാഹചര്യ ത്തിൽ
ദുബായ ില
ി കുറ ഞ്ഞ
 പങ്കുവെച്ച  കുറിപ്പ
െ ആണ ് 
ിന്നീട ് 
 ഭേദഗ തി നിയമ
 പിര ിച്ചു
ു  ള്ള
 വൃത്ത ങ്ങള
 താൽ ക്കാലിക
കരാ ക്രമണ
ാബിന റ്റ് 
 കെ പ ി സി സ
 ശുപ ാര
 വിഡ ി സതീശന
 പ്രചോദ ന
  ന്ത
  www.
ം  പറയാന
അ സമ
ആ ഞ്ഞ
എ ം പ
ക െട്ടിട
ജ ിന്റെ 
ണ ്യ
ദ ുല
യ ാണ് പ
സ ോള
ി സ്
ു ഖ
െ  വര
 പ ശ്ചിമ ബംഗാള
ിക്ക ിടക്കുന്ന
ിച്ച ുവെന്ന്
 മ െയ
ാന ോ
 എ പ്പിസോഡ
ക്ക്  പ
വി ചാര
മായ തിനാല
 ഇ ന്ദിര
ത്തില ാക്ക
 വി പ്ലവ
വാ സ്തവ
ികള ുടെയ
ിവ ് 
മു പ്പ
മ്മ ില
 മാ  ണ
തി ങ്കള
െ ക ാര്യ
െ പ േര
 ദ ിവ്യ
ഇത ോടെ അ
വർ ഗ
ാത െ വ
 ട ീ
 ഫ ോർട്ട് കൊച്ച
ത്ഥ ി പട്ടിക
 കു പ്പ
ചെയ്യ പ്പെട്ട
ി സ െൽ
ി എ ൻ
ി വ ാര
മി ണ്ട
 മന്ത്ര ി എ
േറ്റ റുകള
ം സ ൂച
ബിജെപ ിയെ 
ം ഇ ല്ലാത്ത
് വ ഴ
് വ ാല
 ജന ങ്ങൾക്ക്
 കൊണ്ട ു
ഷ് പ
ിലേക്ക്  പോയ
 സീറ്റ ുകളാണ് 
ബാധ ിക്ക
ഇത്  
ം പ്ര ധാനമന്ത്ര
 മാറ്റ ങ്ങൾ
 കുട ിയ
 ട്ര െയിൻ
യുണ്ട ായ
 അനു യോജ
ിപ്പിക്ക ണ
ിച്ചത് 

 ഉറപ്പ ു
 സ്റ്റ േഡിയ
 ഉപയോഗ ിക്കാന
 ഖ േദ
മറ്റ ുള്ള
 ഉൾ ക്കട
 ഉയര ുന്ന
 സെക്രട്ടറ ി 
 ആള ാണ
ി മു ഹമ്മദ് 
 അവസര ം നല
 പൊലീസ്  അറിയിച്ച
 വെള്ള പ്പൊക്ക
 വെച്ച ായിരുന്നു
 ഇത്തര ത്തിൽ
സ്താവ നയ
പ്യ ൻ
നാഥ ് സ
ഉയര ുന്നത
ം നില വില
 ചികിത്സയില ായിരുന്ന
 വിതരണ ം ചെയ്ത
 ചാണ്ട ിയ
ം നി ങ്ങള
 അഡ ്മിനിസ
് കോട തിയില
സമ്പ ന്ന
ി യോഗ ി ആദിത്യനാഥ
 പഞ്ചാബ ില
െ അറസ്റ്റ്  ചെയ്ത
 ഹെല ികോപ്റ്റ
 മന്ത്രിസഭ യില
 ഡയറ ക്ടർ
ട്ടെ  എന്ന
മ്പ്ര ദായ
 തമിഴ് നാട
വസ്തു ക്കള
ഐപിഎ ല
നിശ്ചിത ത്വ
വൈറസ്  ബാധ
 കമ്മ്യൂണ ിസ്റ്റ
സ്റ്റിറ്റിയൂ ഷണല
ഈ  വിഷയ
ഉ ദ
ഒ .
ഗ റ
ണ ിക
ത ുകൊണ്ട
ത ടവ
ദ ീന
ഫ സര
യ ശാസ്ത്ര
യ െഡിയൂരപ്പ
റ ച്ച
ശ ൈ
സ ള
സ സ
ൂ സ് 
ൻ വർ
ക്ക ാണ് ക
്യ മാവ
 വ ിന്യസ
 ന േ
പ്പ ിള്ള
 അ ച്ച
 ത ങ്ങൾ
വര െയുള്ള
മായ  സംഭവ
 ആ ന്ധ്ര
 ച െങ്ക
ോട ് കൂടിയ
ല്ല  എന്ന്
 ജ ി 
ഗ്ര സ്സ
 മാ ന്യ
അത ൊരു
ൂട െയാണ് 
ാർ ക്ക
ി ന ീക്ക
ുപ ിടിച്ച
 റ ാങ്ക
ത്തിന്  നല
 ട ിഎ
വീ ഴ
സിന ു
സിന ുകള
ി അ ടുത്ത
 നി ഷ്
് അ ത്
ുല ൈ
ം നട പട
ശ്ര ീയ
 ദിവസ ത്തേക്ക്
 ഇന്ത്യ ക്ക്
ശുപ ാര
് വ െള്ള
 രൂപ ീകരണ
െ വ ധ
 ശതമാന മായി 
ം പ്ര ാപ
 പര ിയാര
 വയ സ്സിന
 സുര േഷ് 
 പുറത്ത ുവന്നത
 വാ ങ്ങിയത
ാണ് സ ൗദ
12 4
തിരഞ്ഞെടുപ്പ ് പ്രചാരണ
11 1
 സമ്പ ൂര
 വിഭാഗ ത്തിൽ
െങ്കിൽ ,
 എന്ത ു
 പ്രഖ്യാപ ിച്ച് 
 ന്  രാവിലെ 
 വർഷ മായി 
കോട തിയ
ൃത്യ മായി 
 സംഘടന കളുടെ 
 കൊല്ല ം ക
വ് വീസ
ണാടക ത്തില
 നല്ല ൊരു
പ്രതീക്ഷ ിക്കുന്നത
അവ സര
ഡ് ജി
ഘോഷ യാത്ര
മൂന്ന ാമത്തെ 
 കരു തി 
ം കുറ വ
 പ്രതിസന്ധ ിയ
 സിനിമ യിലെ 
ി റ ോഡ
ം കൊ റോണ
സ് പ റയ
ക്കാണ്  രോഗം ബാധിച്ചത
 ജീവനക്കാര ുടെ 
ഇര ിട്ട
 മുന്നറിയിപ്പ ് നൽക
മേഖല യിൽ
ായി അ റിയ
അമേരിക്ക യില
 കോഴിക്കോട്  ജില്ലയില
ജീവനക്കാര ുടെ 
 ചെറ ുത
തുടക്ക ത്തിൽ
വഹ ിച്ച
എംപ ിമാര
 എറണാകുളം  ജില്ലയില
 കണ്ടെത്തിയ ിട്ടുണ്ട
 ലൈ സന
ജു ഡീ
തിയെ സമീപ ിച്ചത
ഡിന േറ്റര
ഡിജ െ
മണിക്ക ുട്ടന
 അശ ോക് ഗ
 ഗെയ ിമ
 പ്രസ വ
 പ്രസ ക്ത
ാണ് ഇത്തര മൊരു
പട്ട ണ
െ നേരിട ാന
ഭാരവാഹ ികള
 ശേഖ രിച്ച
ാണ് പറയ ുന്നത
രോഗം സ്ഥിരീകരിച്ച് ചികിത്സയില ായിരുന്ന 
അ സ
ഇ ളവ
ക ത
ജ ിത്ത
ഡ ി പ
ഡ ൊണാള
ദ ൗത്യ
ന ിപ
ഫ ിറോസ
മ ടക്ക
ര വ
ള വ് 
ശ ിച്ചത
ശ ാരീരിക
സ ിക്ക
ാ -
ോ ജന
ോ ...

ർ ത്ഥികള
മാ രുമായി 
ട്ട െല്ല
ം  ഘ
ണ്ട ര
 അ ല്ല.

ുക ട
ുക ാണ
ിന െ കണ്ട
 ത ള
 ത മാശ
ിക ല
വി ത്ര
 ആ ശ്രയ
 ച ാറ്റ
ിട്ട ുമുണ്ട
 ബ ോഡ
 ജ ോർ
ുമ ടക്ക
ങ്ക ട
ാവ ാന
 ല േ
ിയില ാണ
സം ക്രമണ
 റ ാണ
 റ ാന്ന
്യമ ല്ല.

ഇത ുകൂട
 ഒരു  മാസ
ിയുടെ  മരണ
ിക്ക്  വേണ്ട
ാൽ ,
്യാപ ാര
ചെയ്യ ുന്നുണ്ട
െത്ത ിച്ച
ിപ ി
 നില യ
 മന്ത്ര ിസഭാ
നി ഗമന
 ജില്ല കള
 ഇന്ത്യ യിലേക്ക്
ുകൊണ്ട ിരിക്കുകയാണ
ത്സ ്യ
 മുന്ന ോട്ട് പോക
 സംഭവ ിച്ചത
 ആയ ി 
 വന്ന പ്പോള
േട്ട ൻ
 വയ സ് 
 രാജ ിവച്ച
 മേഖല യ
മാർ ത്ഥ
 നൽക ിയിരുന്ന
ം മു സ്ല
ആദ്യ ം 
ിലൂട െയ
കോ ശ
 വഴ ിത്തിര
ഉണ്ട ാക്ക
െയ് ക്കുന്നത
 നേതൃത്വ ത്തിന്റെ 
 വളര െ അ
 താര തമ്യ
 സംഘടന യായ
ക്കെതിര െ നടപട
 സെക്രട്ടറ ിമാര
ം നൽക ിയത
 കോടതി  വ്യക്തമാക്ക
ക്കുമ രുന്ന
ുപോക ുന്നത
 ഒറ്റ യ്ക്ക്
പ്രധാനമന്ത്ര ിയുടെ 
െ പരി ഹസ
ം ഗ ത്ത്
 വന്നത ോടെ 
ി കൊ വിഡ് 
സാമ്പത്തിക മായി 
 റഷ്യ ൻ
അംഗ ങ്ങള
 സിപിഎമ്മ ിന്
 സെക്രട്ടറിയ േറ്റ
 ഗുണ കര
 ചെ ങ്ങ
 ലൈ ൻ
തുറ ന്ന്
െ നി ങ്ങള
 ഡോസ്  വാക്സിന
യോഗ്യത .

ജല നിരപ്പ് 
വേണു ഗോപാൽ
 മത്സ്യ ബന്ധനത്തിന്
ാണ് പോ ലീസ
 തിരുവ ല്ല
 സംവിധ ായക
ശരീര ത്തില
 ഗുജറാ ത്തില
 വിദ്യ ാലയ
 രാവില െയാണ് 
ഷ്യാന െറ്റ
 നോട്ടീസ്  നല
 ജ്യ ോ
ബ്രഹ ്മണ
 പരിഹര ിക്കാന
തൊട്ട ടുത്ത
അയ ോധ്യ
 പ്രതിപക്ഷ നേതാവ്  രമേശ് ചെന്നിത്തല
ാടു മുള്ള
ഷുറ ന
സെപ്റ്റ ംബര
ം സിന ിമ
ത്താസമ്മേള നത്തില
രുൾ പൊട്ട
ആകെ മരണ ം 
  ഞ്ഞ
ം വകുപ്പ് 
അ പ്രതീക്ഷിത
ആ ദിവാസ
എ യുടെ 
ഒ ന
ച ുവ
ഡ ിഷ
ന ങ്ങളില
മ നു
ര ാണ
ര വീന്ദ്ര
ള ുത്ത
വ ൽക്ക
ഷ ങ്ങളില
സ ൃത
സ ജ്ജ
സ ീസണ
ാ ജന
െ ഡ് 
െ !

ോ ..?

് !!

ിയ പ്പോള
 ക ാമുക
്യ ാര
പ്പ ാ
 മ ട
 അ ജയ
ിന്  എതിര
റ്റ ന
ിക യുടെ 
ക്ക്  സ
 പ്ര ചാര
ുണ്ട െന്നാണ് 
ദ് വാര
വാ ട്ട
 ഉ റ്റുനോക്ക
 ബ സുകള
 ല ഘ
മു സ
എന്ന െ 
മ്മ ീഷന
ന്ദ മംഗല
തി ഹാസ
 യ ോഗ്യ
 ഗ ്
ാത െ അ
ം പ ങ്കുവെച്ച
മാര െയ
20 4
ം വ ള
ത്തിന്റെ  അടിസ്ഥാനത്തില
 ഹ േമ
 ഏ പ്രിൽ 
ിക്ക്  നല
 പരി ഹസ
വേ ണമെന്ന്
ോക ൾ
ം നട ക്കുന്നുണ്ട
ി ജ ോല
െത്തിയ ാല
 രണ്ട ് തവണ
 ഇന്ത്യ യ്ക്ക്
 ചെയ്യ ുന്നവര
് വ ോട്ട
ി ത ാമസ
ുമെന്ന്  ഉറപ്പാണ
സഭ ്യ
രോഗ ം ഭേദ
 മൂ വാറ്റുപുഴ
 തീരുമാന മ
ാണ് സ ത്യ
ലക്ഷ ്മി
യ്യ ിദ
ി ച ില
11 3
കൂട െ 
പ്പെട്ടത ാണ
 പ്രതിഷേധ വുമായി 
 വന ംവകുപ്പ
ആരോപ ിക്കുന്ന
പൊ ള
 വളര െ സ
 സി ബല
 ഉയര ുന്നുണ്ട
 മഴ യ
സർ  സുന
ഭ്യാ സം
പല പ
 പ്രകാര മാണ് 
 പറ്റ ുന്ന
 വീത ം 
ം പരി ശോധന
സഹായ ത്തോടെ 
ാനാണ്  തീരുമാന
 ചൂണ്ടിക്കാട്ട ുന്നത
 നേരിട േണ്ടി വന്ന
ായി അ പേക്ഷ
പിന്തുണ യ
 വിര മ
ുമാര ായ
 സോ ഷ്യൽ മീഡിയ
പൂ ന്തുറ
കമ്മ ്യൂണ
യൂണ ിവേഴ
ആക്രമണ ത്തില
 വ്യക്തി പരമായ
ഐസ ക്
ക്കേസ ിൽ
ഉണ്ടായ ിരിക്കുന്നത
 കുത ിപ്പ
 പ്രിയ പ്പെട്ട
 തമിഴ് നാട് 
ം മന സില
 തോമ സ
വത് കരണ
 പിണറായി  സര
ൂനിയ ർ
 അഭ്യൂഹ ങ്ങള
 പടിഞ്ഞാറ ൻ
 ഡിസംബ ർ 
ി കൂട്ടിച്ച േര
 നാദ ിറ
അ ത്രയ
ച ോര
ച ൊവ്വ
ജ ീഷ
ണ റുടെ 
ണ ിനിര
ത ായിരുന്നു
ധ രിക്ക
പ ാക
ര ിക
ാ ഭിമാന
ി സര
ു ങ്ങ
ു  നിന്ന
് ....

ർ  (
്  -
 പ വാറ
 ക ിസ
 വ ാള
 മ ഞ്ചേശ്വര
 അ ഗ
 ത ൊണ്ട
 എ ടുക്കുന്ന
സ് വീ
ക്ക്  എതിര
ക്ക്  കൂടി ക
രു തിയ
രു ത് എന്ന്
െന്ന ുമാണ് 
ില്ല ാ
ദേ ഷ്ട
പ്പെ രുപ്പ
 ബ യോഡ
 ശ ്യ
മാണ ോ
ുകയ റ്റ
 ര വ
മ്മ ിന്റെ 
ിന്ന ില
 പോ രാട
 റ െനീഷ
ി ക ാര
 ഡ ികെ ശിവ
 തിര ിഞ്ഞ
തല വന
മാക്ക ിയിരുന്ന
ശ് വർ
ൂട്ട ില
ി അ ഗസ്റ്റ
ത്ഥ ിച്ച
അതേസമയ ം വി
ടിയ ന്തിര
 കോ ന്ന
മന്ത്ര ിയ
ങ്ങന ാശ്ശേര
 സംഘ പരിവാര
 ദിവസ ം തന്നെ 
 ഷ ാന
ാബ ്ദ
ി പ്ര ചാരണ
ാണ് പ റഞ്ഞ
 കേരള ത്തെ 
് ത ങ്ങള
് ത സ്തിക
 കണ്ട ് 
കിയ  പരാതിയില
 വോട്ട ുകളുടെ 
െ ആ വശ്യ
് മ റ്റ
 സാധ്യത  ഉണ്ട
 മത്സര ങ്ങള
ാണ് സ ർ
ില്ലെന്ന്  പറഞ്ഞ
12 8
 കര ക
ഇതിന ക
ഭരണ ങ്ങള
 ബന്ധ പ്പെട
ൈല റ്റ
 എന്ത ാണെന്ന്
 ഉറപ്പ ായ
ൗര ്യ
 ജില്ലാ  കലക്ടര
ുകളിൽ  നിന്ന്
ിള ക്ക
മറ്റ ുള്ളവര
മൂന്ന്  മാസ
 രാശ ിക്കാർ
 വാഹ നങ്ങൾ
ാഷ ിദ
 നഗര ങ്ങളില
 വാർ ഷിക
 യുഡിഎഫ ിന
എമാര ുടെ 
 വീട്ട ിലേക്ക്
 അമ്മ യുടെ 
 ആത്മ വിശ്വാസം
 പത്തനംതിട്ട , ആലപ്പുഴ
 വ്യക്തി ത്വ
 അടച്ച ിട
സൂത്ര ണ
് കുമാറ ിന്റെ 
 വാക്സിന േഷൻ
പുതു പ്പള്ള
 രാജസ്ഥാന ില
ബില ിറ്റ
ദക്ഷിണ േന്ത്യ
സ്വയ ംഭരണ
 മതിയ ാക
 പേജ ില
ി തോമ സ
 സാഹ ിത്യ
 പ്രസിദ്ധ ീകരിച്ച
ഡ്വ .

 ഗ്രാമപഞ്ചായ ത്ത്
 അഫ്ഗാന ിസ്ഥാന
ടൂറ ിസം
 കേന്ദ്ര കാലാവസ്ഥ  വകുപ്പ് അറിയിച്ച
ാക്രമ ം 
 പുനര ാരംഭ
 ഈട ാക്ക
 അമരീ ന്ദര
കഴ ിവ
കണ്ടെത്ത ല
 ഉപാധ ്യ
 കൃ ത്രിമ
 വന്നു ചേര
സുഹൃ ത്ത്
 ഒളിവ ില
ഗായ ത്ത്
 എന്നിങ്ങനേയാണ്  ജില്ലകളില
ം കണക്കില െടുത്ത്
 അനുശ ോചന
റെയ് ഡ് 
  ഴി 
)  എന്നിവർക്ക
- ന
ം  സ്വീകര
ഉ ദാഹരണ
ഒ ള
ഓ ക്സി
ഗ തിയില
ച ന്ന
ച ാര്യ
ജ ാന
ജ ികള
ഡ ാന
ഡ െല
ഡ ബ്ല്യു
ത ോട്ട
ഥ ിന
ദ ് വ്യവസ്ഥ
യ ാഥാര
റ ുമായി 
ല ിമിറ്റ
ശ മന
ീ നില
ോ പ്പ് 
‍ ്
്  തീര
ത്ത ിരുന്ന
 പ ശ
 പ തി
 പ കല
 ക ത്തിൽ
ുന്ന യ
ട്ട ിയിലെ 
 ന ൃത്ത
ിക്ക ുഴ
പ്പ ാക്കാന
 എ യ
സ് ഫ
 പ്ര േമ
ോട ് ന
ിന്റെ  ഭാര്യ
 ശ ർമ്മ
ാവ ള
 എന്ന  പേരില
 മാ ങ്ക
 മാ സ്റ്റര
ം ക ു
ം ക ൈക്ക
ാൻ സ് 
ക്ര ിക്കറ്റ
ത്തെ  ആ
യ് പ
ാത െ സ
ത്തിന്  എതിര
 തിര മാല
 ഹ ിറ്റ
 ഹ ിജാബ
െതിര െയാണ് 
ം അ നുസരിച്ച് 
െ അ നുവദ
െ അ ഭിനന്ദ
 ഈ  വിഷയത്തില
ി വ ൃത്ത
ാറ ിൽ
യ്ക്ക ൽ
ിച്ചു  എന്ന്
ിച്ചു  കഴിഞ്ഞ
ജന പക്ഷ
ീഷ ന്
 ലഭ ിക്കാന
 രാജ്യ മാണ് 
ിൻ ഡ
 ഉപ തിരഞ്ഞെടുപ്പില
ി മ ൊ
ഫീ ഖ
 രാജ ിവെക്ക
 മാറ്റ ിയത
റില യന
മന സ്സ
 പിന്നാല െയാണ് 
 സ്ഥാപ ിച്ച
യായ ികള
യായ ിരിക്ക
11 4
സു നില
 നേതാക്കള െ 
 പ്രതിക ൾ
യിരു ത്തിയ
ി ഇ പ്പോള
 സ്വാ തന്ത്ര
പ്ല ിക്കേഷന
വയ നാട്ടില
സിപിഎ ം 
അടുത്ത  ബന്ധ
ി സ്വദേശ ിയായ
 വാഹ നത്തില
 വാർ ഡ
 സംസ്ഥാനത്ത്  ഇന്ന് 
ദിലീപ ് 
 ആക്രമണ ത്തില
ഡ്ര ൈവര
വിദേശ ത്ത്
െ പരി ചയ
 ത്ത ി ന
ലക്ഷ്യ ം വെച്ച
ഭൂമ ിയില
മണ ിപ്പൂര
 പൂർ ണ്ണ
ി സ്ഥാന ാർത്ഥ
ം പിട ിച്ചത
മലപ്പുറ ം 
 ലോക് ഡൗണ
 രാഷ്ട്ര പ
എതിര ാള
 വൈസ്  പ്രസിഡന്റ് 
 ലക്ഷ്യമ ിട്ട
 തിരഞ്ഞെടുപ്പ്  ഫല
 പൗരത്വ  നിയമ
 കോട്ടയം  ജില്ലയില
 പരിശോധനയ്ക്ക്  അയച്ച
ം മല യാള
 കൗൺ സില
തി നി ഷേധ
മൃതി  ഇറാന
പ്ട ിക്കല
,  വെ
1 19
അ ങ്ങ
അ വശ്യ
അ യാള
അ നുഭവ
ക േണ്ട
ത േ
ത ോടെയാണ് 
ന ിക്കല
പ ാസ
പ ി ജയരാജ
ബ സ
ാ സ്പദ
ൂ ലിയ
ൂ ഖ് 
െ ക്കുന്ന
ക് യു
ന്ന ൂരില
ക്ക  ഉറവിടം വ്യക്തമല്ല.

 പ തിറ്റാണ്ട
ിയ യ
ി  ഭരണ
ി  ക്ല
ി  മലയാള
 ക ൂത്ത
 സ ഞ്ജു
 ന ിൽ
ം  ഞാന
 അ ക്ക
 അ ടുത്ത്
റ്റ ിയ
െയ ്യാ
സ് മര
ക്ക്  പോല
ക്ക്  വിധേയ
വര ുന്നത
 ആ യു
ില്ല റ
ില്ല ങ്ക
ിപ്പ ിക്കുന്നുണ്ട
ുമ ില്ലാത്ത
ിവ ല
ദേശ ിച്ചിരുന്ന
ിന്ന ഗ്രഹ
േത െങ്കില
ാൻ സർ
 റ വന്യൂ
ിത ക
ന്റ േയ
ഇത ാദ്യ
ഞ്ച ല
ം ന ല്ല
ലീ ൽ
ണ്ണ ാ
 ഭ ൂപ
ത്തിന്റെ  പേര
 ഫ സ്റ്റ് 
ഗ്രസ്  പാര
ിസ ില
 അവ ൾ
ാട്ട ാന
ി എ ത്ത
ം എ ല്ല
നി ങ്ങൾക്ക്
ാണ് ക ണക്ക
ക്യ ാപ
വാദ ികള
 തെ ക്ക്
ം ഇ നിയ
ി മ രണ
ി മ ോഹന
രോഗ വ്യാപന
ഇത്  സംബന്ധിച്ച
ബി സി
 തീരുമാന ിച്ചിരുന്ന
െ എ ത്തിയ
 പുറത്ത ിറങ്ങിയ
പരി ഗണ
 മല ിന
 വ്യക്ത ിയാണ
ഘട്ട ത്തിൽ
 വിഭാഗ ം 
ി എന്ന  നിലയില
പ്രായ പരിധ
 കാര ണമെന്നാണ് 
ിക്കാര ന
 മുന ിസിപ്പാലിറ്റ
് നട ത്തുന്ന
ിപ്പിക്ക ണമെന്ന
13 5
 പ്രഖ്യാപ നങ്ങള
 ലീ  സ
 ആവശ്യപ്പെട്ട ് 
 പ്രതീക്ഷ ിച്ച
നയ തന്ത്ര
ിൽ നിന്ന്  
 ബ്ര ാഹ
 ഇര ിട്ട
 എസ്  എഫ് ഐ
 കിട്ട ുന്ന
ഷിക  നിയമങ്ങള
ദി വാ
ഇതിന്  പിന്നില
ഗിക ാതിക്രമ
 നിയമസഭ  തിരഞ്ഞെടുപ്പ
 തെളിവ ുകൾ
ചൈന യില
ചൈന യുടെ 
ം നേട ാന
ം നേട ിയത
തൃശൂര ില
 ഹോട്ട ് സ
്ബ റ
 പേരുടെ  സമ്പര
നഗര സഭ
 മമത  ബാനര
 ഓഫ്  ഇന്ത്യ
് നി ഷേധ
 വിനോദ സഞ്ചാര
 മുന്നോട ിയായ
ി രാമ ചന്ദ്ര
 അവള ുടെ 
 സതീ ശ
വിഷ്ണ ു
ഗ്രസ് അധ്യക്ഷ ന
 ബിഷ പ്പ
 മേന ോന
അ ല്ലെങ്കിൽ
ത റ
ധ ിപ്പിച്ച
ബ ഹു
ല ുലു
വ ൽ
ാ സ്സ
ു തല
ൈ ബ
ത്  വലിയ
െ  ന്ന്
 ക ൂടു
 ക െ സുരേന്ദ്ര
 ക ടുവയ
ട്ട ിയെ 
ട്ട ിയിലേക്ക്
 ന ൈ
ം  രേഖപ്പെടുത്ത
 മ ൂര
 ത ാമര
ിക ടന്ന
ിൽ .

വി പ
 പ്ര തിയുടെ 
ടു ക്കുന്നത്
്‌ .
ിപ്പ റയ
സി ൻ്റ
 ദ ാസ് 
ദ്ധ ്യത
 ഗ ംഭീര
 വര ുന്നവര
 ഒരു  കുട
 തിര ികെ 
ായിരുന്നു  അത
ഭാഗ ത്ത് നിന്ന്
സിന െതിരെ 
ത്ഥ ിയെ 
 കു മ്പള
യു  ഡി എഫ് 
 കോട ത
മെ ൻറ
പാട ് 
 സംഘ ത്തില
 സ്വദേശ ികള
ബിജെപ ി നേതാവ
മുണ്ട ാക്കിയ
 രൂപ  വര
 കേസ ുമായി ബന്ധപ്പെട്ട
ാണ് അ ന
ി മ ുകു
 വേ ണമെന്ന്
ിച്ചിട്ടുണ്ട െന്ന്
 വന്ന വരാണ
 സാഹചര്യ മാണ
 രാജ േഷ
 സൗ ര
 കൂടുതല ാണ
 നേതാവ ാണ് 
 നേതാവ ിനെ 
 തയ്യാറ ാണെന്ന
 ഇന്ന്  രോഗ ബാധ സ്ഥിരീകരിച്ചത
 സ്റ്റ ാന
 ഉത്തര വില
 നിലപാട ് വ്യക്തമാക്ക
 ചികിത്സ  തേട
 എന്നത ില
ദിവസ ങ്ങളില
അന ാവശ്യ
അന ധികൃത
മറ ിഞ്ഞ
ൊല പ്പെടുത്തിയ
 നിരീക്ഷണ ത്തിൽ
ാ  ക്ക
 ശര ദ് പ
െ കാണ ാൻ
 ഡോ ക്ടറ
ിക്കൊണ്ട ിരിക്കുന്ന
ചികിത്സ ാ
ഇതിന്  പുറമേ
 അനുകൂല മായി 
 ഉറ ക്ക
തോ തില
 ഉട ല
ഒറ്റ യ്ക്ക്
മായി അ റിയ
 പൊലീസ ുകാര
 ശ്രമിച്ച െങ്കില
പര്യമ ില്ല.

ആന ുകൂല
കണക്ക ുകള
 ഡിജ ിറ്റൽ
 രൂക്ഷ മായ
ിവിട ങ്ങളിൽ
മാപ്പ ് പറയ
ൂഡ ാലോചന
 എത്രയ ോ
ങ്കണ വാട
 മധ്യപ്രദേശ ില
 പാക ിസ്ഥാന
  ണ്ണ
m a
ം പ്യൂട്ട
ം  സംരക്ഷ
അ മ്പ
അ വരെ 
ഈ  വിഷയത്തില
എ ങ്ങന
ക േണ്ടത
ക ർന്ന
ച ൂണ്ടിക്കാണ
ന ര
ഫ െബ്രുവര
മ ട്ട
മ ോഡ
യ ാണ് അ
ര ജന
ള ിക
ു മാ
ു ത്ത്
ു !

ൂ ർക്ക
േ യ്ക്ക
ൈ ക്ക്
ർ  പറഞ്ഞ
ന് ഥ
െ  സംരക്ഷ
ി  ആരോപിച്ച
 ക വിത
 ക ോഴിക്കോട്ട
 സ ഭാ
 സ സ്പെ
ട്ട റ
ിര ോമണ
ച്ച ാല
 ന ായിരുന്നു
ുക ാര്യ
ിന ില
 ത കർക്ക
 എ ട
ക്ക്  വേണ്ടി 
വര െയാണ് 
 ഇ ഞ്ച
 ച ോർ
ിന്റെ  ആദ്യ
 ബ ോർഡ് 
 ശ ാല
ഗ്ര സ്

് ക ൺ
് പ രീക്ഷ
സ്റ്റ ാര
 റ ോ
യ് ഡ
ാത െ തന്നെ 
ാമ ്യമ
ം പ ടര
 ട ാറ്റ
െ അ ട്ടിമറ
ഒരു  മാസ
ാരണ ാസ
ത്ഥ ്യ
് അ ട
് അ ധികൃതര
 ഈ സ്റ്റ
ിമ ിന
ം ത ാന
 മന്ത്ര ി ക
 സംഘ ം 
ുള്ളത ാണ് 
ുള്ളത െന്ന്
ശന വ
ക്യ ാപ്റ്റ
യിലെ  ഒരു
ാണ് പ ല
ൊഴ ുക്ക
് ത ന്റെ 
 വൈ ക്ക
ം മ ത
 കണ്ട ാല
19 0
കിയ  അഭിമുഖത്തില
 മുഖ്യമന്ത്ര ി അ
10 9
പെ ട്ര
കട ന്ന
കേരള  സദ
 തീരുമാന മായ
 കഴിയ ുന്നുണ്ട
 രാജ ്യാന്തര
 വകുപ്പ ുകൾ
 മത്സര ിക്കുന്നത
തികള ിൽ
ദു ബ
 ചില  കാര്യങ്ങള
 സമ്പ ാദ
യുണ്ട ാക
 തയ്യാറ ാക്കിയ
 കാര ണമെന്ന്
 സാധിക്ക ാത്ത
 എന്ത ിനാണ് 
 ഉറപ്പ ് വരുത്ത
 പ്രദേശ ത്തെ 
 പാർട്ട ിയിൽ
ാക്കാന ാണ് 
 നേട്ട ങ്ങൾ
ി യ ാദവ
 കെ കെ 
ൈസ ൻസ് 
 ഒരാള ാണ് 
നേ ഡിയ
റിയിപ്പ ് നല
സംബന്ധ മായ
് പോ രാട്ട
തിരിച്ച െത്ത
 കരു ത്ത്
് വി ഷയ
 പ്രസിഡന്റ ് വ
ലൈ റ്റ് 
ില്ല എന്ന ത്
 എൻ സിപ
 സന്തോഷ വ
ഫോണ ിൽ
വേദ നയ
കൊല്ല പ്പെട്ടത
 അനുഭവ പ്പെട
ഗ്രൂപ്പ ് 
 പട്ട ിണ
നിന്ന ു
ഇതിന്റെ  ഭാഗമായി 
ിക്കുകയായിരുന്നു  അദ്ദേഹ
 സിനിമയ ിൽ
 ബംഗാള ില
യൂണ ിയന
അപകട ത്തില
റോഡ ില
 അനുസര ിച്ച
 ചൂണ്ടിക്കാണ ിക്കുന്നത
ം ഏറ്റ െടുത്ത
 ക്വാറന്റ ൈന
സിക്യൂ ഷൻ
 സൗജന്യ മായി 
 മേയ ് 
 വിനോദ  സഞ്ചാര
ോഗ്ര ാഫ
 മണിയ ോടെയാണ് 
തട സ്സ
 തൊ ട്ട് 
തിരക്ക ഥ
അനുമ തിയ
 കൗൺ സിൽ
 പ്രശാന്ത്  കിഷ
വക ഭേദ
ം റദ്ദ ാക്ക
 നബ ി ആസാദ
,  പുരുഷന
ം !!

ഗ ാമ
ജ ാ
ജ ലീല
ഫ യര
മ ധ
യ ൻസ
റ ര
ല െ നിയമ
വ ഞ്ച
ാ ക്സ
ി ളര
ൂ ദ
ൈ ന്യ
ോ ഫ
ർ ട്ട് പ്രഖ്യാപ
ൽ ഫ
്  ഹ
ക്ക റിയ
ത്ത ൂരില
 പ ൊരു
 ക ടുപ്പ
 വ ല്ല
 വ സ്ത
ിക്ക ാല
 മ ൂട
 മ ടക്ക
 മ െക്കാന
റ്റ ാല
മായ  രീതിയില
 ആ ദ
 ആ ശ്വാസം
ുന്നത ിന്റെ 
പ്ര ത
വാ ക്
 ബ ിൽ
 ബ ുക്ക
 ബ ിജു
 ജ ീ
 ജ ോസ
 ജ മ്മു കശ്മീര
ിപ്പ റഞ്ഞ
 ശ ീല
ിട ികൂട
് ക ിട
് ക ോൺ
് പ ങ്ക
സി റ
ുപ േർ
കു ത
്യമ േഖല
 ഗ േറ്റ
ഞ്ച ു
ണ്ണ ന
വീ ഴ്
 ഫ ാന
െ അ ട
 നി ത്യ
മെ റ്റ
ൂർ  സ്വദേശി (
 പു ത്തന
ം സ മ്പ
 മാത്ര മായി 
ാണ് ഇ വർ
വാദ ി പാർട്ട
ുകൊണ്ട ിരിക്കുന്ന
ലഭ ിക്കുക.

ാണ് പ ണ
ാണ് പ ലര
െക്ക ൊണ്ട
 എന്ന്  വിള
ോഷ ി അഗസ്റ്റ
െ ത ന്റെ 
19 2
സഭ  തിരഞ്ഞെടുപ്പില
ിവര ുന്ന
കേരള ത്തിന്
 പുറത്ത ായ
നേര ിട
12 2
ി ഉ ത്തര
ദ്യാ ഭ്യാസ
 സ്ഥാപ നത്തില
് എ ല്ലാ
് എ ംപ
വിള ിച്ച് 
എസ് ഡിപിഐ
ം മു ൻപ
 മറ ിച്ച് 
 തൃ ക്ക
 കോള ുകള
ം ലഭ ിക്കുന്ന
 കൂട്ട ുകെട്ട
പ്രദേശ ങ്ങളില
17 5
 ചേര ുന്ന
ി ഇ ത്തവണ
ിന്റെ പ രാ
ിന്റെ പ ിന്തുണ
ിക്കണ ം

 തുറ ക്കാന
പ്ല സ് 
പ്ല ോയ
തയ ുള്ള
ുക്കള ുടെ 
 സ്ത്രീ കളുടെ 
ി യ  ത
 വാഹ നം 
 അതി ജീവ
 അപേക്ഷ കള
കൂള ുകളില
 വീഡിയോ കള
െ നിര ന്തര
 ഡി പ്ലോമ
ിക്കൊണ്ട ിരിക്കുന്നത
സഭാ തിരഞ്ഞെടുപ്പ ിൽ
ക്കാണ്  കൊവിഡ് 
ശിവ ൻ
 വിദ്യാഭ്യാസ  യോഗ്യത
െ പരി ശോധ
 അധ ിനിവേശ
വിഷ നില
 ഉറ ങ്ങ
 ഉട മകള
 ടീമ ിന്റെ 
ഹസ ്യാ
 ക്ഷ മ
 വിര ാട് ക
ി നൽക ിയ
 സൂച ിക
 കെ  മുരളീധരന
 മുഖ്യമന്ത്രി പിണറായി വിജയ ൻ
ല്യ ാണ
െ തന്ന െയാണ് 
ഫോട ക
ി നി ശ്ചയ
െ പറയ ുന്ന
ം ഏറ്റ െടുക്ക
സിദ്ദ ു
 തൊഴിലാള ികളുടെ 
മിത് ഷായ ുടെ 
 തിയ ്യ
 ആയുധ ങ്ങള
ങ്ങളിലൂട െയ
ജിനീയ റ
കാസർ ഗോഡ
 വേര ിയ
 അസ്വ സ്ഥ
 ഓറഞ്ച ് അല
) ആണ്  മരിച്ചത
0 47
2 20
s  
അ ങ്ങനെയാണ് 
അ ട്ടിമറ
ആ ന്ധ്ര
ഒ ളിവ
ഒ ഡീഷ
ഒ ടിട
ട ി പ
ഡ ോണ
ത ംഭ
ന ോര
ബ ോ
യ േ
ര ജിസ
ഴ ഞ്ഞ
ൃ ത്തിയ
േ ണല
ൊ വിന
ോ  ആയ
്  തുടങ്ങിയ
ത്ത െ
 ക െ സ
 ക ാമ്പ
 ക ിഫ്ബ
ട്ട ് സമര
ിക്ക െട്ട
പ്പ ൂര
 മ കര
 മ േട
 മ ന്ദിര
 മ ൗന
 അ ക്കാര്യ
 അ സാധ
ുക ണ്ട
ിൽ  പരാതി നൽക
വി ഴിഞ്ഞ
 പ്ര ാബല്യ
രു ച
രു മേല
മ് മാതാക്കള
റെ  പ
ത്തില െ പ
 ഉ മ്മ
 ബ ിന്ദ
മു ര
സ്റ്റ ഗ്ര
പ്പെട്ട ത്
ി ന ാട്ട
 ഗ ുല
ി ക ാല
 ഡ ിസിസ
 തിര ഞ്ഞ
തു ള
 സ്വ പ്
മാക്ക ുകയ
 ഫ ണ്ട് 
െ ന േരത്തെ 
ം അ ന്വേഷണ
ം അ ടക്കമുള്ള
െ അ വരുടെ 
 ഏ റ
ർക്ക ുന്ന
ി അ വര
 പരി ഷ്
ിമ ംഗല
ം ത ൊഴില
ചെയ്ത ാല
മൂ വാറ്റുപുഴ
ോയ ിഡ
ം സ മയ
ിനെ  മാറ്റ
 മാത്ര മ
 യു  ഡി എഫ് 
ുമായ ാണ് 
രണ്ട ് വര
ഗ്രസ ിന് 
 അറിയ ാത്ത
് ത ാര
 ആവശ്യ പ്പെട
 കണ്ട ുപിട
 കേസ െടുത്ത
ാണ് അ വർ
പ്പെടു മെന്ന
 വേ ട്ടയാട
വസ തിയില
 വന്ന ത്
ാനുള്ള  സാധ്യതയ
 ഇത ൊന്ന
 പദ്ധ തികളുടെ 
 വിവര വ
ദു രുപയോഗ
 സർ വ്വകലാശാല
 തല വേദന
 ഇല്ല ായിരുന്ന
ഉപ തിരഞ്ഞെടുപ്പില
വൈ റല
ുന്നതിന്  വേണ്ട
ദില്ല ിയിലെ 
 പ്രത്യേക ം ശ്രദ്ധ
 നിലപാട ിലാണ് 
 പ്രധാനമന്ത്ര ിയ
 കെ സി വേണുഗോപാല
 പ്രവേശ ിച്ച
െ ച േര
മത്സര ിച്ച
 നയ ിക്കുന്ന
 സ്വന്ത മാക്കാന
ുരു ഷന
യുഡിഎഫ ിന
ക്കട ത്ത
ം കൊ യ്യ
ം നില നിർത്ത
മാവ ുകയ
 വിവാഹ ം കഴ
 എഴ ുതി 
ശിവ ശങ്കര
 സൗകര്യ ങ്ങൾ
വിലയിരുത്ത ുന്നത
 ഇവിട െയ
 ഏഴ ു
 വിരുദ്ധ മായ
 നോട്ട ീസ
 സേന യുടെ 
ഉട മകള
പാർട്ട ിയുടെ 
 യുഎഇ യില
അറ ിവ
ാണ് ന ടക്ക
 തൊട്ട ടുത്ത
പ്രശ് നങ്ങൾ
 കറ ന
ഗ്ല ൂര
 അശ ്ലീല
 സെപ്റ്റ ംബർ 
 ആറ്  മാസ
 അതൃപ് തിയ
ാണ് സു പ്ര
െല്ലാ വര
റദ്ദ ാക്ക
 റൂമ ില
 വിദേശകാര്യ  മന്ത്രാലയ
ഡ്രൈ വർ
റെയിൽ വേ
  ഋ
, 

7 50
ം  സംസ്ഥാനത്ത്
ം ',
അ ധ
ഇ ങ്ങനെയ
ഏ ർ
ക ൽ
ക ിഫ്ബ
ഗ ദ
ഡ ക്ഷന
പ ഥ
പ ോക
ല ിസ് 
ല ളിത
ഴ ുന്ന
ഴ ീക്ക
സ ൂര
ഹ ാ
ി ഷ്ണ
േ ശന
 ക ാസ
 ക ായംകുള
ട്ട ് അ
ട്ട ് നല
ച്ച ിരുന്ന
 മ ുകേഷ് അംബാന
െയ ായിരിക്ക
 എ ള
മായ ുള്ള
 വി സ്മയ
ിന്റെ  പ്രത്യേക
വാ ചക
 സ് പെ
 ജ േക്കബ
ിപ്പ ന
ുമ ുണ്ടായ
മ്പ ാവ
സം ഭാവന
ോള ജിസ്റ്റ
െ ക ുട്ട
ം ക ഴിയ
ം ക ണ്ണൂര
ക്കാര ാണ
രാജ ാവ
 ഗ ിര
ാത ായത
 ഡ ാന
് ന ീക്ക
തു മാണ
യുടെ  മരണ
ത്തിന്റെ  ആദ്യ
ത്തിന ുണ്ട
ാൽ  അത്
 ഓ പ്പറേഷന
 ഈ ശ്വര
ിമ റിയ
ി എ സ് പ
 കോട തി നിര
ി വ ികസന
കാര ുണ്യ
 സംഘ ത്തിന്റെ 
ം സ ർ
 പൊ ലീസില
ട്ട്  ചെയ്തിരിക്കുന്നത
 മാത്ര ം

 അറിയ പ്പെടുന്ന
ുന ിൽക്ക
 രോഗ വ്യാപന
 ആണ ് സ
 ശ്രമ ിച്ചിരുന്ന
 വിജയ ിക്ക
 വന്ന വര
 മൂ ക്ക
ം എന്ന ത്
ം പ്ര ത്യേക
 രാജ സ്ഥാൻ
 സമ ൃദ്ധ
 മത്സര ിക്കാൻ
 പോലീസ്  സ്റ്റേഷന
 ഐ  എ
 പോയ ാല
യാണ്  ഈ
 മണ്ഡല ത്തിലെ 
ഞ്ചായ ത്തിലെ 
 ചില പ്പോള
ഇതിന ുള്ള
വെ ടിവ
 കള ഞ്ഞ
ഴ് സ് 
നിയമ സഭാ
ുമാണ ് ക
ി സ്വദേശ ി 
സുര േഷ
വാള ിയ
 ആരോപണ ം ഉന്നയ
തീര ദേശ
 പകര ം 
പരാ തി 
ആയ ിരിക്ക
ബിജെപി  സര
ം ഒ രിക്കല
സിസ ിടിവി 
ി ശ ിഹാബ
 ബിഗ് ബ ോസ
 ക്രമ സമാധാന
ഷണ ൽ
ഒരാള ുടെ 
 കുഴ ല
 അഴിമ തി 
ജോലി  ചെയ്യുന്ന
 ദേ ഷ്യ
 രാമ ക്ഷേത്ര
ബ്ലിക്  ദിന
ഹിന്ദു ത്വ
ടിക്ക െട്ട
 കമന്റ ുകള
 ഓട്ട ോ
േടു മെന്ന്
 ബിന ീഷ
 സാമ്പിളുകളാണ് പരി ശോധനയ്ക്ക്
 കിഴക്ക ന
 കാവ ്യ
ാണ് കാണ ുന്നത
 മറുപടി  പറയ
ചൗ ഹാന
പിണറായി വിജയ ന
 ഓക്സി ജൻ
ിദ്ര ്യ
ിബ്ര ിറ്റ
 സാന ിറ്റ
ിരോമണ ി അ
,  ല
d i
ആ ത്
ഇ ല്ല
ഐ എന
ക ോല
ക ോയ
ജ ിയോ
ത ല്ല
ത െന്നാണ് 
ത ളിപ്പറമ്പ
ന ാക്ക
പ ിള
പ ിടിച്ച
മ ള
വ യാണ
ഷ ിന
ഹ ാഷ
ാ ഫ് 
െ ക്ക്
ന് മയ
ന് മാർക്ക്
ത് ന
ക്ക റ്റ് 
 പ ിക
ി  മെഡിക്കല
 ക സ്റ്റംസ് 
 സ ുവ
ട്ട ്

ച്ച ട്ട
ം  .

ം  മാറിയ
 അ മര
 അ ക്ഷയ
ിന്  നേര
ിന്  പിന്നില
 എ ം വ
മ് മാതാവ
പ്ര വേശ
ിന്റെ  ഒരു
 ഉ മ
 ബ ിര
 ശ ിശ
ികള ുമായി 
 ല ധിക
ന്ത രാവസ്ഥ
ിക്കുന്ന ില
സി ഫ
ം ക ടുത്ത
ുപ യോഗ
ത്തെ  ഇസ്ലാമ
ന്റ ർ
ന്റ ുകള
ിച്ച്  നല
 ഗ വേഷ
 വര വ
ത്തിന്  മുമ്പ
ം പ ുറപ്പെടുവ
ം വ േഗ
ത്തിന്റെ  കാര്യത്തില
 ഫ ുട
ഭാഗ ങ്ങളില
ം അ വരുടെ 
വേ ഴ
ത്ഥ ിന
വില ാസ
 ഓ വറില
ി. .
യു  എ ഇ
ം ഉ ത്തര
മന്ത്ര ി ക
മന്ത്ര ിസ്ഥാന
മി ഗ്ര
പര ീക്ഷണ
ാണ് ക ോൺഗ്രസ
 മാത്ര മാണ് ക
ം ആ ള
 ഇന്ത്യ യെ 
ുകൊണ്ട ുള്ള
് ത കര
 രാജ്യ ങ്ങളുടെ 
 കഴിഞ്ഞ ് 
ം ചെയ്യ ുന്നത്
 ഇത െല്ല
ഡിഎഫ ിന
 കാണ ാൻ
ുകയായിരുന്ന ുവെന്ന
 പോലീസ്  ഉദ്യ
ോഹ ിത
ി ഉ ദ്ഘാടന
മന ോരമ
 ട്ര സ്റ്റ
ലോക ത്തിലെ ഏറ്റവ
14 5
 പിട ിയില
 പരിശോധന യിൽ
 പാർട്ട ികൾ
 തോ തിലുള്ള
 സംഘടന കൾ
 സി സ്റ്റ
തെ ളിയ
ക്കെതിര െയാണ് 
 മണ ി വര
ത്തെ ക ാണ
എൽ ഡിഎഫ് 
ങ്ങൾക്ക െതിരെ 
 പൊലീസ്  പറഞ്ഞ
 അവസാന ിക്ക
 പഠ ിക്കുന്ന
പ്രതീക്ഷ ിതമായ
ം ഏ ക
 മത നിരപേക്ഷ
പൂര ില
ഡി റ്റ് 
ാമൂഹ ്യ
സംസ്ഥാനത്ത്  
 സമ്പർക്ക ത്തിലൂടെ 
 അതിന ാൽ
 എണ്ണ ത്തിന്റെ ഫല
പരാ തിക്കാര
 നടക്ക ുക.

കെ ജ
ം റ ിപ്പോർട്ട് 
 ചാണ്ട ിയുടെ 
 വയസ്സ ുകാര
 മത്സ രാർത്ഥികള
സുരക്ഷ ിത
െരു മാറിയ
ുകാർ ക്ക്
ട്ടിക്ക ുള്ളില
 സൃഷ്ട ിച്ച
 പോവ ുകയാണ
വാർ ഡ
കോൺ ഗ്രസിന്റെ 
 ഉച്ച യ്ക്ക് 
ുമായുള്ള  ബന്ധ
 ക്രമ ീകരണങ്ങള
ഡിജ ിറ്റല
ം തുടര ുകയാണ
 ആരാധ കർ
ജോ  ബൈഡന
സഭാ തെരഞ്ഞെടുപ്പ ില
 കാര്യമ ില്ല.

 പെട്ര ോൾ
 തടസ്സ ങ്ങള
 കൈമാറിയ ത
 സഖ ാവ
 ദക്ഷിണ ാഫ്രിക്ക
 ചെയ്യാ ത
 എത്തിച്ച േര
 പാവ പ്പെട്ട
 മട്ട ാഞ്ചേര
 സച്ച ിൻ
 ചുരു ക്ക
ാഫല ം നെഗറ്റീവ
 ദമ്പ തികള
ാണ് ഇരു വര
 വിജയരാഘ വന
 മജ ീദ
ec t
 ഡെല ിവ
് പട്ട േല
kerala .gov.in
 ജോഡ ോ യാത്ര
  ത്ത്
)  യ
,  പു
3 20
ം ';
ആ ർക്ക
ഇ ട്ട
ഈ  കേസില
ഉ ളള
ഉ യർ
ഉ രുള
ഖ ര
ജ മ്മു കശ്മീര
ട ാറ്റ
ഡ റ
ത ള
ന െല്ല
ന മ്പര
പ ാദ
ഫ ു
മ ൽ
മ െയ
റ േയ
ഹ ദ
ൊ ഗോയ
് ജ
ൻ  (
ൻ പത്
ന് മന
ിയ ിട്ടില്ല.

ച്ച  ചെയ്യാന
ിക്ക ാണ് 
പ്പ ാദ
 മ ില
 അ പ്പോള
ിന്  വേണ്ടി 
ുക .
ുക ുന്ന
ിൽ ഷ
വി സ്റ്റ
വി റക്ക
 പ്ര തീ
 പ്ര ാപ
ഞ് ജീവ
 ആ ദിത്യ
ുവ ർഷ
 ഒ ളിച്ച
ിട ങ്ങളില
 ദ ിര
ി ന ീട്ട
 റ ിത
ി പ ൊ
ി പ രീക്ഷ
തല ത്തിൽ
മാണ്  ഇപ്പോള
ായിരുന്നു  അദ്ദേഹ
 ഫ ീസ
ി അ നു
ി അ പേക്ഷ
നില യില
ി സ ൃഷ്ട
ഗ്രസ്  സര
ാപ ര
ാറ ുകള
ം ഉ ദ്യ
 ചെയ്ത ിട്ടില്ല.

മെ ഷീന
 പ്രതി ഭ
മേ ഘ
െത്തിയ  
 പറയുന്ന ു

 സംഘ ത്തിന്
ം സ ന്തോഷ
ട്ര ാ
പര മ്പരാഗത
ം ആ വശ്യമ
 ദിവസ ത്തിനുള്ളില
രണ്ട ാഴ്ച
 മുന്ന േറ
 വേണ്ട ത
രിക്ക ൊ
ാണ് അ വരുടെ 
ംബ റിൽ
 ശതമാന ത്തിൽ
 സ്ഥാന ാർഥ
ം പ്ര ശ
മായിരുന്ന ുവെന്ന
മാക ുമെന്നാണ് 
 രാജ ാവ
നേര ിട്ട് 
ലക്ഷ ക്കണക്കിന്
െറ ീന
 ശക്ത ിയ
 കട ലില
വിള ക്ക്
ഹര ായ
വെ ട
 നടത്തിയ  പരിശോധനയില
 ഇല്ല ാതെ 
 പണ ിമുട
കോട തിയിൽ
 പാർട്ട ിയ
പ്പറ മ്പ
 മഴ യ്ക്ക
ജില്ലാ  കളക്ടര
ത്താവ ് 
 ഘട്ട ങ്ങളില
ൊല പ്പെടുത്തിയത
രംഗത്ത ുവന്ന
 അല്ല ാത്ത
 സാമ്പത്തിക  വര
 കമ്പന ിയായ
 തെരഞ്ഞെടുപ്പ ് 
 യുവ ജന
 തെറ്റ ിദ്ധാരണ
് വി വാദ
 ആഗ്രഹ ിക്കുന്നവര
 അതിന ുള്ള
ം പരി ഹരിക്ക
 അമേരിക്ക ൻ
ിക്കപ്പെട്ട ിരുന്ന
ം വ്യക്തമാക്ക ുന്നത
രുടെ  എണ്ണം 
ൂട്ടിച്ച േർത്ത
െ പരി ഗണ
ം അറിയ ിച്ചിരുന്ന
േണ്ടി വര ുമെന്ന
 ബിജെപി  സംസ്ഥാന
 സമിത ി യോഗ
 മി ഥ
് കോട തി 
 നമ്പ ൂതിര
നാ വി
ട്ടിഫിക്കറ്റ ുകള
യുപ ിഎ
 കഥ കള
സേന യുടെ 
 സോണിയ  ഗാന്ധ
 കറ ുത്ത
 അപ്പ ീല
 ട്വീ റ്റ
ജാമ്യ ം അനുവദ
വത് കര
ു ക  ള
 ഡിസംബ റില
പ്രേക്ഷ കര
 പ്രകോപ ന
ദിക്  പാണ്ഡ്യ
ഗവർണ ർ
 ഇടിമ ിന്നല
താരതമ്യം ചെയ്യ ുമ്പോള
  A
  R
ം  പ്രതിഷേധ
അ ടുത്ത്
ക ട്ട
ക ർത്ത
ക െ എസ് 
ച ൂട
ജ ണ്ട
ജ ോസ
ട െ 
ഡ ിസിസ
ത മ്പ
മ ക്ക
മ േഷന
വ ൺ
ശ ങ്ങൾ
ഹ ിമാ
ൊ ഴിഞ്ഞ
ൗ :
ന്ന  നേതാവ
ക്ക ിന്റെ 
ക്ക ം വഴി 
ത്ത ിച്ച് 
ത്ത ിച്ചിരുന്ന
ി  ചര
ി  ലോക
ി  തീര
 വ ിയോജ
ട്ട ന
ട്ട ാത
ച്ച ിയില
 ന  ട
ിക്ക ാതിര
പ്പ ിന
 അ ദ
 അ ഷ
 അ ഡ്
 അ ച്ചടക്ക
ുക ിഴക്ക
ിന ോദ
 ത ായ
 പ്ര ൈവറ്റ് 
 ഇ വർക്ക്
പ്ര ചര
ിന്റെ  കാര്യത്തില
വാ ങ്ങിയത
 ശ ന
ുകയ റ
 ര മ
ദേശ ിച്ചിട്ടുണ്ട
മാന ന്തവാട
 മാ ഫിയ
ാധ ുനിക
ത്തെ  ഒരു
ം ന ീ
ിക്കാന ുളള
് ന ീ
ം വ ാഹ
 ഫ ര
െതിര െ കേസ
ആര ാണ് 
 നി പ
വില യില
 ഈ  മാസം 
ടിയ ിൽ
െ സ ർ
 സംസ്ഥാന  അധ്യക്ഷന
 സംസ്ഥാന  സർക്കാര
 കാര്യ ം 
ം സ ൂക്ഷ
ം ആ ഗ്രഹ
ം ആ ലോച
 നിയമ ത്തില
െക്ക ുന്നത
ുന്നത്  എന്ന്
െ വ െട്ട
 സു ത
ിത്ത ുട
വാഹ നത്തില
െ മ ഴ
 കോൺ  
തിരഞ്ഞെടുപ്പ ് കമ്മീഷന
11 6
11 8
ന്യൂ ദല
കല ന
നേതൃത്വ ത്തിലാണ് 
ധര ന
 ഇറ ാഖ
 ജോല ിയില
 സംബന്ധ ിച്ച് പ
ആരോപ ിച്ചിരുന്ന
 അഞ്ച ് പേര
 പ്രതീക്ഷ യ
 ആള ുകൾക്ക്
അന ൂപ
 അവസാന  നിമിഷ
കുറ ച്ച് 
 ബ്ര ാന
ാമൂഹ ിക
 കിട്ട ിയത
റസ്റ്റ്  ചെയ്തത
 മഹ േഷ
 നേരത്തെ  തന്ന
യുഡിഎഫ ിന്റെ 
 മൊ ഴിയ
 എൻ .
 സാധ്യതയുണ്ട െന്നാണ് 
ഗ്രാമ ിന് 
 സമ്മാന മായി 
 ലക്ഷം രൂപ യാണ് 
 സമൂഹ ത്തിന്
 ത്ത ി ൽ
 തമ്മിലുള്ള  ബന്ധ
 റഷ്യ യ
 ഭക്ഷണ വ
 നവ ംബർ 
 വഴിയ ൊരുക്ക
 തുടക്ക മിട്ട
ട്ടിക്ക ിള
 ഭൂമ ിയില
ം തിര ിക
പദ്ധ തിയുടെ 
 അഞ്ച്  വർഷ
ഡിന ന
 ആശയ ക്കുഴപ്പ
 യുവാവ ിനെ 
ണമെന്ന് ആവശ്യപ്പെട്ട ് 
വാർത്ത ാ
 ഡിസ ൈന
 ബീ ഹാര
ംബുല ന
മന്ത്രിസഭ യില
 ഹൗ സ് 
വൃ ശ്ചിക
 യുവാ വ് 
രാഗ ്യ
 ആശംസ കള
ി സതീശ ൻ
ച്യ ുത
  മാണ
' -
h t
p s
ആ  സമയത്ത്
ആ യുധ
ഈ ട
ഈ  സമയ
ഉ ത്തരാഖണ്ഡ
ഏ ജന
ഓ പ്പറേഷന
ക ൺ
ക ുന്നതിന്
ഗ ംഭീര
ണ ുപ്പ
ത ട്ട
ഥ ികളുടെ 
ധ ൈര്യ
ഫ ുട
ഭ ്ര
ഭ ോപ്പാല
യ ാണ് ക
റ ൈന
ല െറ്റ
ശ ത്തില
ഹ ്ന
ി ത്ത്
ു യര
ു ത്തിയത
ൂ ഷ
െ ർ
േ  ഷ
്  ചെയ്ത
ക്ക ണമെന്ന
ത്ത ോടുള്ള
ി  ദിന
ി  ക്ഷേത്ര
ിക്ക ുവാന
പ്പ ന്നങ്ങള
ം  ധര
 അ ർജ
ാന ുള്ളത
ിക ോപ
 എ  ന്ന
സ് കര
ിൽ  പറഞ്ഞ
ിൽ  നടന്ന
വി സ്ത
 ച ോ
 ച ികില
ല്ല െന്നാണ് 
ിട്ട ിരുന്ന
 ജ െപ
ിപ്പ ോൾ
ുവ െങ്കിൽ
 ര വി
 ര ോഷ
 ല ഡാക്ക
 എന്ന  നിലയിൽ
സ്ഥാന ാർത്ഥികള
് പ ദവ
 യ ൂട്യൂബ
ിച്ചത ിനെ തുടര
േസ ിൽ
ക്ര ിക്കറ്റ് 
 ഗ െലോട്ട
ി പ ിന്തുണ
ി ക ല
 ഡ േ
 ട ൈറ്റ
ം വ ായിക്ക
മാക്ക ി 
മാണ്  ഉള്ളത
 ഫ യര
ജയ ിച്ച
 കു തിര
ത്തര മൊരു
 ഈ  വിഷയ
അതേസമയ ം വ
ഷ്യ സ് 
ജന ത
േറ്റ റില
ണ്ഡ ീഗ
ം സ ോഷ്യല
 യു  എ ഇ
 ബിജെപ ിയെ 
ം ഇ ത്തവണ
സ്ത ഫ
 പങ്ക ു
െടുക്ക ുകയായിരുന്ന
ി മ സ്ജിദ
ൊക്ക െയോ
പെ ര
ിലേക്ക്  പോക
കൾ .

 കാണ ുന്നുണ്ട
റെയ ്ഡ
 മാറ്റ ാന
ഗര േഖ
12 9
 ക് വാറ
 പാല ിച്ച
ി ച ിദംബര
 സമ്പ ത്ത്
 നടത്തിയ ിട്ടുണ്ട
ി ബ സ
 ഗു ജറാത്ത
 പ്രതിക ാര
ിരുന്നു  എന്ന
 വഴ ി
 സി ങ്ങ
ിന്റെ അ ടുത്ത
 വീട ് 
ത്തെ പ രി
 ക്യ ാപ്റ്റ
 അയ ല
് ഇ ങ്ങന
 തവണ യാണ് 
ജ്ഞ ാത
 ബാധ ിച്ച് 
 പോസ്റ്റ ില
 ആരോപണ വുമായി 
ത്തനങ്ങള ുടെ 
 കുഞ്ഞ ാലിക്കുട്ട
ം നി ക്ഷേപ
സമ്മ ര
 മുൻപ ിൽ
 സെന്റ റുകളില
 തസ്തിക കളില
പഞ്ചായ ത്ത്
 മോശ ം കാലാവസ്ഥ
 ബിരു ദവ
അതേസമയം ക ോണ
 കാർ ഡ
റി സര
തെളിവ ുകള
് സു പ്ര
ആള ുകൾ
അന്ന ത്തെ 
റെക്ക ോര
ക്വാ ഡ
വിദഗ് ധര
 കണക്കില െടുത്ത
ി സുര ക്ഷ
 ഇരിക്ക ൂര
അങ്ങനെയ െങ്കില
 പയ്യ ന്നൂര
ിജെ ജ ോസഫ് 
ന്യാ കുമാര
 ഇന്റർ വ്യൂ
ടെസ്റ്റ് പോസിറ്റിവിറ്റി നിര ക്ക് 
മേധ യാ
അ യച്ച
ആ ഴ്ച
എ ക്കാല
ക ത്തില
ക െ പ
ഖ ത്തറില
ഞ ങ്ങൾക്ക്
പ ുലര
പ ീഡന
ഫ യല
ഫ ിനാല
ബ ോട്ട
മ ുകേഷ
റ ോക്ക
വ ക്താവ
സ വ
സ ി ക
ഹ സന
െ ളിവ
േ  ഉള്ള
ൈ മറ
് ?
ന് മുള
ത്ത ട
 പ ാപ്പ
ിയ യില
 സ ി 
 വ ന്യ
ട്ട റുകള
ങ്ങ ാട്ട
ാണ്  എ
െയ ായി 
െയ ാക
 എ കെ 
 എ റിഞ്ഞ
 പ്ര മോദ
മായ  
രു മ
രു ത്

ില്ല :
ിന്റെ  കുട
 ബ െന്ന
 ബ ോബ
 ജ ൂനിയര
ുവ ല
 ഒ ടിട
ാവ ുമെന്ന
സം ഭരണ
 മാ സ്ക്
ം ക ാര
അത ോടെ 
അത ായത് 
ാർ ജ് 
 ദ ീർ
ി ന ാരായണ
ം ന ിക
ാമ ൂല
ം പ ൊള
് ന ശ
് ന ിന്ന്
ീയ മായി 
വീ സില
 ഹ ാ
 ഹ ോള
െതിര െയുള്ള
െ അ ധികാര
െ അ ഭിസംബോധന
ഒരു ക്കിയ
സ്വ പ്
 വീ ശിയ
രാജ്യ സഭയില
് അ ടക്ക
ോക ോള
ാസ ന
 തുട രണ
 മന്ത്ര ി സ
േറ്റ റ
ിരിക്കുന്നത െന്ന
 കുറ ിച്ച് 
 കുറ വ് 
 വലിയ  ഒറ്റ
ി പ്ര ശ
് വ ന്നത
് വ ിക്കറ്റ
ി ത ങ്ങള
 തീ ർത്ഥ
 എത്ത ുകയ
 സു ധാകരൻ
 വില .

 വോട്ട െണ്ണല
െ ആ ശങ്ക
വാഹ ക
 കഴിയ ുന്നവര
 സാധ്യത  കാണുന്ന
പരി സര
 ട്ര ാക്ക
 അത്  
 പല തവണ
ം വി ളിച്ച
സു പ്രധാന
വെ ളി
 കള യ
മുന്ന ിൽ
ാണ്ട ് 
 അട ൂര
 ലോക ായുക്ത
രക്ഷ പ്പെട്ട
ീഷണ ർ
ുണ്ടായിരുന്ന ില്ല.

ിന്റെ പ ൂര
 കല ാശ
 തുടങ്ങിയ വർ
യാത്ര കള
ൗണ്ട ് 
സാ ന്നി
 മണിക്കൂറ ിൽ
പ്രവർത്ത ക
 കോളേജ ് ആശുപത്രിയില
 ശ്രദ്ധ യില
 ലഭിക്ക ുമെന്നാണ് 
മത്സര ിക്കാന
 ഇര ിക്കുന്ന
ുകയാണ്  എന്ന
ശ്രദ്ധ യിൽ
മെന്റ്  ഡയറ
 വരു മെന്ന
 സ്ഥാപന ത്തിൽ
സ്ത്രീ കളുടെ 
 സമൂഹ ത്തില
 ബൈ ക്ക്
പ്രകാര മാണ് 
പറഞ്ഞ ത
 നിക ുതിയ
് കോട ിയേര
 നമ്പ റില
 ക്രി മിനൽ
 കനത്ത  തിരിച്ചടിയ
 പുരോഗ തി 
ബിഗ് ബോസ്  മലയാളം സീസണ
ഐസ ക
അത്തര ത്തില
അങ്ങന െയുള്ള
േന്ത്യ ാ
ഉറ ച്ച
 വ്യത്യസ്ത മായ
ം നഷ്ട പ്പെട്ട
 നിറ വേറ്റ
ദുര ൂഹ
ോഗ്ര ാമ
 ഹിന്ദു ത്വ
ഞ്ചിനീയ ര
ഇന്റ ർ
ട്ടിക്കൊണ്ട ുപോയ
 അയ്യ പ്പ
 ലിറ്റ റിന് 
 അബ്ദ ുല
പ്രസ ക്ത
ം മറ്റ ൊരു
 നാമ നിര
് മണ ിക്ക്
പ്രൊ ഫ
 സ്ര വ
ം തട സ്സ
 ജെഡിയ ു
 കമ ന്റ് 
സിഎ എ
 അസം ബ്ല
 പ്രകൃ തി 
 യൂസ ഫല
 ദുരന്ത നിവാരണ  അതോറിറ്റ
 ബിരുദാനന്തര  ബിരുദ
ഹസ്യാ ന്വേഷണ
 സുത ാര്യ
e t
ം  പറ
അ ധികൃതര
ഇ ല്ലാത്ത
ഐ സിയ
ക ീര
ച ൽ
ണ റ
ദ ശ
ദ ാമ്പത്യ
ന ക
പ ോയ
ഫ ്ത
മ ർത്ത
മ തിയായ
വ .

ശ കര
ു ്
ു  പോല
ൂ ൾ
ൗ തിക
ക്ക ായ
ക്ക ുക.

െ  എന്ന
െ  തുടര
ത്ത ണ
ത്ത ാൽ
 പ ീപ്പ
 സ ്ല
ച്ച യുടെ 
ിക്ക ോ
ിക്ക ണക്കിന്
ിക്ക ൊടുത്ത
 മ റിയ
 മ ്മ
 അ ണുബാധ
ിക ന
 ആ ഞ്ഞ
 ച ിങ്ങ
 ച ൊവ്വ
ുകള െ 
മ്പ റ
 ല ുക്ക
ായി  നില
സ്ഥാന ത്തേക്ക്
 മു ര
 പോ സ
 പോ ർട്ട
ചെയ ്തിര
ാധ ്യ
രാജ ീവ
ാൻ  ശ്രമിച്ച
 ദ ളിത
ുപ ുഴ
 റ ോക്ക
ി പ ല
ി പ ്ല
ിജ ് 
ി ക ലാപ
 ട ാങ്ക
ത്തിന ായുള്ള
 ഹ ോട്ട് സ്പ
 ഫ ാത്തിമ
 കൊ ന്ന
ി സ ി സി
വില  വര
ാഹ ു
് സ ീറ്റ് 
 തുട രുമെന്ന
ോർ ത്ത്
 കേന്ദ്ര ഭരണ
ം സ ജീവ
ശന ം ഉയര
 ലഭ ്യത
 വലിയ  പ്രശ
ി പ്ര തികരിച്ച
രുത ുന്നത
 എത്ത ി 
സഭ യുടെ 
 വന്ന  
ം പ്ര യോഗ
 മത്സര ിച്ച് 
ി വി മാനത്താവള
 തല ക്കെട്ട
 മറ ന്ന
 മറ ച്ച
യുണ്ട ായിരുന്ന
 അഭി ഷേക്
കോ ന്ന
ക്ഷേപ ണ
 തോ തിൽ
 ഭൂ കമ്പ
മൂന്ന്  വര
 കെ വ
ചിത്ര ത്തിന്റെ 
 കോളേജ ിലെ 
 അവസാന  തീയതി 
 പ്രകാര മുള്ള
കൂള ിലെ 
ഡി ഗോ
മിന ലുകള
 തെരഞ്ഞെടുപ്പ ിൽ
 പുറത്ത്  നിന്ന
സംഘടന യില
സംഘടന യായ
ക്കട ല
് കേസ ുകളില
ി ഹ ാജ
 നിയമസഭ  തിരഞ്ഞെടുപ്പിൽ
െ പോ രാട
 പ്രചാരണ ത്തിന്
ം ഒ റ്റ
 അസ മ
 പൂർ ണ
 യൂണ ിവേഴ്സിറ്റ
ശ്വ ത
 കേ ൾക്ക
 അദ്ദേഹത്തിന്റെ  പ്രതികരണ
 സേന യ
ട്രംപ ിന്റെ 
 പാലക്കാട്  ജില്ലയില
 ഇൻ ഷുറ
 തസ്തിക കളിലേക്ക്
 പരസ്യ മായ
 വെറ ുപ്പ
വാക്സിന േഷന
 എസ് എഫ്ഐ
ം സംസ്ഥാന  സെക്രട്ടറ
 ലെ  തിരഞ്ഞെടുപ്പില
 റെക്ക ോർഡ് 
 അനുവദിക്ക ില്ല.

ആത്മ വിശ്വാസ
ക്കാറ ിന
ട്വീ റ്റ് ചെയ്ത
 തിയ തി 
േപ്പ ാള
 ഭിന്ന ശേഷ
ി കോട ിയേര
െ കൊല പ്പെടുത്തിയ
 തെര ഞ്ഞെടുക്ക
 പെയ ്ത
 എതിരാള ികള
 ഭക്ത ര
കാലാവസ്ഥ ാ
 വേഗത യില
 ഡ്രൈ വർ
 പൂഞ്ഞ ാര
ഓൺ ലൈൻ
 ബൈജു  കൊട്ടാരക്കര
 അദ്ധ്യ ക്ഷ
ം സാ ക്ഷ്യ
 പുതുമ ുഖ
ിഷ്ണ ുത
  ദ്
2 10
ഇ വർക്ക്
ഈ  തീരുമാന
ഐ യുടെ 
ഖ ാവ
ച ാലക്കുട
ഡ ്മിനിസ
ത യിൽ
ത ിന് ശേഷ
പ െടുത്ത
പ േസ് 
ബ ാക്കി 
മ ീദ
യ ാഴ്ച
യ െല്ലോ അല
ല ിസ്റ്റ് 
വ െയ
സ ായി 
ാ ദേശിക
ീ സിന
ോ സ്റ്റ
ന്ന  കോണ
ക്ക ർ
ക്ക ിന
ക്ക റ്റില
ത്ത െക്കുറിച്ചുള്ള
 പ ീ
മാ സ്റ്റര
 വ േത
 വ േതന
 ന ാസ
 ന ാഥ
്ര ാജ
ുട െ
 ത ത്വ
 പ്ര ീ
 ആ ഷ
 ച ാലക്കുട
പ്ര ൈസ് 
യില െയ
ിപ്പ ുകള
 ശ ില
 ര ജ
രി ശ
സി ങ്ങ
െ പ ങ്ക
ുപ ൂട്ട
 റ േറ്റ
േണ്ട െന്ന
ം പ ാട
 ഭ ഗ
 നിന്ന ുളള
ത്തിന്റെ  പേരിൽ
ങ്ങളില ൂടെ 
പ്പെട ാത്ത
ം അ മേരിക്ക
േയ െന്ന
ഗ്രസ്  എമ്മ
 കോട തിക്ക്
 കോ ച്ച
മൂ ത്ത
 കേന്ദ്ര ത്തിന്റെ 
ം സ ഹായ
ം സ മ്മത
സംസ്ഥാന ത്ത
ം എ ം
ം എ ംഎല
 രണ്ട ോ
ഗ്രസ ുകാര
 മുന്ന ൊരുക്ക
 വൈ കാരിക
ാണ് അ ര
ാണ് അ പേക്ഷ
െ വ ള
ം പ്ര വച
ജി ത്തിന
മുഖ്യമന്ത്ര ിക്ക്
 സമ സ്ത
 മേഖല കളിലെ 
നേര ത്ത
ത്തിലെ  ഒരു
 പല സ്തീന
 ഒന്ന ാണ
ബു ദ്ധിമു
ന്യൂ ന
 തൃ ശ
 യാത്ര  ചെയ്യ
 എന്ത ോ
 സ്ഥല ത്തേക്ക്
ക്കെതിര െ നടപടിയ
 മൂന്ന്  വര
 അദ്ദേഹം പറഞ്ഞ ിരുന്ന
 ആരംഭ ിക്കുന്ന
വോട്ട ു
ങ്ങൾക്ക ിടയിൽ
 പൊലീസ്  മേധാവ
28 0
 വെച്ച ാണ് 
സംസാര ിക്കാന
 നിരീക്ഷണ ത്തിലുള്ള
 ബാധ ിച്ച
 ആരോപണ വ
 ജനങ്ങള െ 
റിന െതിരെ 
 രക്ഷ ിതാക്കള
 കമ്മിറ്റ ിയുടെ 
 ഉണ്ടായ േക്ക
 നോക്ക ിയാല
ി നട പട
 താമസ ിക്കുന്നവര
ിനെ പ ുറത്ത
 എഴ ുന്ന
 അപകട ത്തിൽ
വിഭാഗ ങ്ങള
 നിയമസഭ  തിരഞ്ഞെടുപ്പില
ന്ദർ  സ
മരിച്ച  നിലയില
 ചികിത്സയില ുള്ള
കരു മായി 
ഭയ കക്ഷ
 അവസ്ഥ യാണ
ി പ്രഖ്യാപ ന
 നാള െയ
 മുറ ിയില
മൃതദേഹ ങ്ങള
തി ക ിട്ട
 ഇന്റ ലിജന
 ക്യാമ്പ യിന
സൗദ ിയില
 വിമർശന വുമായി 
 ഒരുമ ിച്ച
 അധ്യാപ ക
പ്രതിസന്ധ ിയില
 തന്ത്ര ങ്ങള
സാക്ഷ ികള
ി വിഭാഗ ത്തില
 വകുപ്പ് മന്ത്ര ി വീ
 കർഷ കര
ടീമ ില
 മേയ ർ
 എക് സ്പ്രസ് 
 കയറ്റ ുമതി 
 സാങ്കേതിക  വിദ്യ
 ബീ ഹാറില
 ജനറൽ  സെക്രട്ടറ
 മുല്ലപ്പള്ള ി രാമചന്ദ്രന
ാകു മ്പോള
 നാണ ക്കേട
 ഏറ്റുമുട്ട ല
 കിഴക്ക ൻ
 വൃത്ത ങ്ങൾ
 റാവ ു
 വൈകുന്നേര ം 
ൗല ിക
 വരെ സ ീറ്റ
 ടീച്ച ര
 ശരാശര ി 
ക്കാലയ ളവില
 കൊല്ലം ക ോർപ്പറേഷൻ
  ..
  , 
ം ‌
ആ ഴ
ഇ -
ഉ യ
ക േണ്ടി വര
ക ടുവ
ഗ ോവിന്ദ
ട ിഞ്ഞ
ട ്വന്റ
ന ിസ
ന ാശ
പ ൊന്ന
യ ാക്കിയ
ല ുകൾ
സ ജ
സ ണല
സ മുദായ
സ ൂരജ
ി  പ്രതിപക്ഷ
ു ';
ൂ ന്ന
ൃ ണമൂല
േ ൺ
ോ  ട
ൻ  
ന്ന ങ്ങൾ
ന്ന ുണ്ടായ
ക്ക യറ്റ
ത്ത ി ക
 പ ാസ് 
ി  മുന
 ക െ ജ
മാ ഹ
 വ ു
ട്ട ി നേതൃത്വ
ിക്ക ില്ലെന്ന്
 മ െയില
 അ ക്കര
 അ ശ്വിന
 ത ിക
 ത ോക്ക
ിക ട
വി സ്മയ
ഞ്ഞ ാറ
റെ  അ
 ഇ ക്കഴിഞ്ഞ
 ച േക്ക
 ച െല്ല
ില്ല ായ്മയ
ിട്ട ില്ലെങ്കില
ിന്റെ  സ
ിന്റെ  വീട്ടില
യില ായിരുന്നു
 ര ണ
ത്തിയ ായത
മ്മ ിക
 മാ വു
 പോ ലീസില
ം ക െ 
ക്കാര ിന്റെ അ
ാം .
ാധ ിപ
ാർ ഗ
പ്പെട്ട ാല
ുപ ര
ുപ ാത
 വര െ അ
ം ന മ്മുടെ 
 ചെയ ്തിര
ലീ സ്

് ന ായ
 ട ്വന്റ
ത്തിന്റെ  ഒരു
 ഫ ിസ
ഭാഗ ത്ത
ം അ വകാശ
െ അ ര
 കൊ ടുക്കുന്ന
ി സ മൂഹ
വില ക്ക്
 ഓ ഡിയോ
ി എ ം എ
 കോ പ്പ
 കോ ഡ് 
 സെ മിന
 ഇട ിഞ്ഞ
ബിജെപ ിയുമായി 
മുണ്ട െങ്കില
ി പ്ര ത്യേക
് ത ിവാര
 ആവശ്യ ത്തിന്
ാണ് അ റിയ
പ്പോഴ ായിരുന്നു
കഴിഞ്ഞ  മാസ
െ വ ിന്യസ
 സംഭവ ങ്ങൾ
രോഗ ലക്ഷണങ്ങള
ജി ക്
ാട്  സ്വദേശി (
കുട്ട ിക്ക്
 കാണ ിക്കുന്ന
 മറ്റ ാര
 അപ ല
ി വി വാദ
സ്ത്ര ീയ
 ഒന്ന ാണ് 
ി എന്ന ിവിടങ്ങളില
യുണ്ട െന്ന
ലോക ായുക്ത
 മോദ ി 
 എത്തിയ ത്
 എത്തിയ പ്പോള
ആരോപ ിക്കുന്നത
 നേതൃത്വ ത്തില
 ഖ േര
 വിമാന  സര
 പ്രതീക്ഷ ിക്ക
ആരോഗ്യ പ്രവര
സാ ഖ
പ്രവർത്ത നങ്ങൾ
ം ബ ഹ
ൈസ േഷന
ി സ്വദേശ ികളായ
 ക്ല സ്റ്റര
 വൈറ സിന്റെ 
 പ്രധാന  കാരണ
 വർ ക്ക്
 ഗ്രൂപ്പ ിന്റെ 
 പരിശോധ ിക്കാന
 സംശയ ിക്കുന്ന
 ഉണ്ടായ ിട്ടില്ല.

ക്കെതിരെ  ശക്തമായ
 അഭിപ്രായ  വ്യത്യാസ
ി റ ിപ്പോർട്ട് 
 വിവാദ മായിരുന്ന
സ്ത്രീ കൾ
 നായ കന
വിദേശ ത്ത് നിന്ന്
വീസ്  നടത്ത
 സത്യ സന്ധ
 ഉദ്യോഗ ാർത്ഥ
 പരീക്ഷ കള
രംഗത്ത്  വന്നിട്ടുണ്ട
ഗ്രൂപ്പ ുകള
 ചേർ ന്നത
് സീറ്റ ുകളില
 നിക്ഷേപ കര
 റിപ്പോർട്ട്  ചെയ്യുന്ന
 മുന്നണ ിയില
 രംഗത്ത്  വന്ന
 പത്തനംതിട്ട  ജില്ലയില
 വോട്ട്  ചെയ്ത
അധ്യക്ഷ തയില
 അഖില േഷ
ാൻ കഴിയ ാത്ത
യൂണ ിറ്റ
 ക്രമ ീകരണ
 അക ത്ത്
 ആഘോഷ ങ്ങള
ുതു പ്പള്ള
െ പിന്തുണ യ്ക്ക
സാന്നിധ്യ ത്തില
 കൃഷ ി 
മൊത്ത ം 
 പ്രസാദ ് 
് അംഗ ങ്ങള
ക്വാ ഡ് 
 നടപ്പ ാക്കിയ
ി മുന്ന ോട്ട
ുസ ൃത
കിട ില
കാർ ഷിക
മാണി സി ക ാപ്പ
പെരു മാറ്റ
 തീപ ിട
നിരോധ ന
en t
 അതിഥി ത ൊഴിലാള
 അധ്യക്ഷത  വഹിച്ച
 ഇടംപ ിട
 വഴിത്തിര ിവ
"  എന്ന
ം ഫ
അ ഖിൽ
എ ങ്ങനെയാണ് 
ഏ ജന്റ
ഐ ശ്വര്യ
ക ാഴ്ച
ച ീഫ
ഡ േജ
ണ ർ
ത ോട
ഥ ാടന
പ ങ്ക
ബ ിപ
ബ ംഗാൾ
ബ ംഗ്ലാദേശ
യ ാര
യ ോട്ട
ാ കര
േ ൾ
ോ ലിയ
ോ റില
ർ ഹ
ന്ന ങ്ങളുടെ 
ില ോമീറ്റ
െ  ഈ
ത്ത ുല
ത്ത ുപറമ്പ
ും ';
ിയ ,
ി  .

ി  വീണ
ം  മര
 അ ട്ട
ാന ായ
ിന്  ആ
ക്ക്  കൊവിഡ് 
ക്ക്  കൈമാറ
വര ുത്ത
ക്ഷ മത
പ്ര സ്ഥാന
 വി സ്ത
ിന്റെ  പേരിൽ
 ജ ിഎസ്ട
 ശ ്വ
തിര ിക്കാന
ുവ യ
ുവ ിനെ ക
മ്പ ത്തൂര
ാവ ണ
ത്തിയ ാല
 ല ാ
മായി  നില
ന്ത ിയ
െ ക ൊന്ന
െ ക േസ് 
ിച്ചത ിനാല
 ദ ി
 ഗ ൗത
ത്തിൽ ,
ി പ ിടിച്ച
 ഡ ി വൈ
ിയുടെ  നേതൃത്വത്തിലുള്ള
 നിന്ന ാണ
 നിര യില
തുട ർച്ചയായ
 പരി ചരണ
 പരി ഹസിച്ച
 കോട തി ക
ം ത ട്ട
ം ത ട്ടിയ
ി വ ച്ച
ിപ ിട
െ സ മ്പ
 ശേഷ ം പ
മി ൻ
യ്ക്ക ായി അ
ഡിഎ ം
 മന്ത്ര ിയുമായ
ണ്ഡ പ
ം സ ൗ
നി ഷ
ാണ് ക ുട
ം ആ വര
 നിയമ പരമായ
 അന ീഷ
നിര ീക്ഷ
 കേരള ീയ
 കണ്ട ു
 വേണ്ട െന്ന്
ുന്നത് 

മുള്ള  ഒരു
 രാജ്യ ത്തിന്
 ഉപ ദേഷ്ട
 രോഗ ികളുടെ എണ്ണ
 വേ റെയ
ിക്കാൻ  സാധിക്ക
 നടത്ത ുന്നത്
ിലേക്ക്  കടക്ക
 കഴിഞ്ഞ ിട്ട
 തീരുമാന ിക്കുകയായിരുന്ന
 കഴിയ ുമെന്ന
 പോലീസ്  അറിയിച്ച
 ട്ര ഷറ
ി വി വര
ുവെന്ന ായിരുന്നു
 മന ീഷ
 മന ോഹര
് എ ത്ത
ന്യൂ സില
ം വി ദ്യാര
് പ്ര തികള
 കട ന്നത
് ച ോദ്യ
ലോക കപ്പ
ി വര ുന്നത
 ആദ്യ മായ
14 2
ിച്ച് ക യറ
13 2
 സ്റ്റ ാറ്റ
 ന്  
 സ്ഥല ങ്ങള
ഓഫീ സിന്
ിന്റെ പ ിട
പ്രധാന  കാരണ
 സിപിഎ ം നേതാവ
് കു ഞ്ഞ
ി മു ൻ
കേസ െടുത്തത
മായിരുന്നു  ഇത
 പഠ ിച്ച
ിബ ോഡ
 രേഖ പ്പെടുത്തിയത
 പരിപാട ികളില
 നഗര സഭാ
 രണ്ട്  മാസ
രാധ കര
 ആരോപണ ങ്ങൾ
ം കണ്ട െത്തിയ
േക്കുള്ള  യാത്ര
 ഉണ്ടായ ിരിക്കുന്നത
ിക്കൊണ്ട ിരിക്കുകയാണ
 എടുത്ത ു
ഗ്രാമ ീണ
ുണ്ടാക ുമെന്ന
 പ്രായ ോഗിക
ടയ മംഗല
മിക വ
 യൂണ ിറ്റ് 
ബാല ന
കണ ക്ക് കൂട്ട
 പദവ ികള
 തള്ള ിക്കളയ
ൗൺ സില
 റിപ്പോർട്ട്  ചെയ്യുന്നത
 ഹാജരാ കണ
െ ഉ ള
സ്ഥിത ിക
തെരഞ്ഞെടുപ്പ ില
അതേ സമയ ം 
 ജല നിരപ്പ് 
 ഉന്നത തല
് ഉ ള
യുഡിഎഫ്  സ്ഥാനാര
 സ്വതന്ത്ര ര
 വാഗ്ദാന ങ്ങള
 സോണിയ ാ ഗാന്ധ
ുമോ 

െ പുറത്ത ാക്ക
ിച്ച് വര ികയാണ
വു ഹാന
 മൃതദേഹ ങ്ങള
 സമയത്ത ാണ് 
െ എല്ലാ വര
സുല േറ്റ് 
 നിരീക്ഷ കര
സ്വപ്ന  സുരേഷ
 ഓട്ട ോറിക്ഷ
ം എല്ലാ വര
മുഖ്യമന്ത്രി  സ്ഥാനാര
 ട്വിറ്റ ര
 അമ ൃത
ക്വാറന്റ ൈന
ക്വാറന്റ ൈനില
 കൈക്ക ൊള്ള
 സ്വാഭാവിക മായ
 കുറച്ച്  ദിവസ
ഡിവൈ എഫ
ജോസഫ്  വിഭാഗ
ഗ്രാമപഞ്ചായ ത്ത്
 തിള ങ്ങ
 കോടിയില ധിക
 സംഘപരി വാറ
 സംഘപരി വാർ
 പുട ിന
 വിൽ പ്പന
ദുർ ബല
ിശ്ശ ിക
ൂഡ് ഓ യില
  P
a c
ം  പ്രതിപക്ഷ
ം  സ്വര
അ ടച്ച
ഇ ബ്രാഹ
ഈ  വേളയില
ഉ ദയ
ക മന്റ
ച ിറ്റ
ച ൊട
ജ ാര
ണ ൈറ്റ
ത ാക
ത ാണെന്ന
ന ീല
ന ാടക
പ ാമ്പ
മ ിട
യ െ ത
ല േഖ
വ ത
വ മ്പന
സ ൽ
ീ ം,
ു മാർ
െ '
േ  ര
ൌ ര
ക്ക റ
ക്ക ൊണ്ട
െ  ല
 പ ുള്ള
 പ ി പ
 പ ന്ത്രണ്ട
ി  ഖ
 ക ാക്ക
 സ ന്ത
ിര ിക്കാന
ച്ച  നടത്തിയ
 ന ക്ഷത്ര
പ്പ ാള
 മ ോണ
 മ ൈസ
 മ ില്യൺ
 അ പ്പുറ
 അ വിശ്വാസ പ്രമേയ
 ത ഹ
 ത ുണ
െയ ല്ല
 ഇ ക്കൂട്ട
സ്  ക്ല
 വി സമ്മത
 വി ജ്ഞാപന
ിന്റെ  പ്ര
ിന്റെ  രണ്ട
 ബ ുള്ള
തിര ു
 ല േക്ക്
ഗ്ര ികള
മു ല്ലപ്പെ
ത്യ ാഗ
ന്ദ ്യ
ണ് ഠന
 യ െഡിയൂരപ്പ
തിയ ുള്ള
തിയ ുമായി 
 റ ിഫ
ദ്ധ ്യമ
വർ  ലൈൻ
ിട്ടുണ്ട െങ്കില
 ഒരു  പവന
ിലെ  ഹ
 ഡ ി ജി പ
 തിര ുന
 ട ാസ്
തല പ്പ
 ഹ െൽത്ത്
െ ന മ്മള
 ഏ ജന്റ
സ്വ ത്ത്
 വെ ടിയ
ിച്ചിരുന്ന ു
ം ഉ ദ്ഘാടന
ം നട ന്നിരുന്ന
 പ്രതി മാസം 
യ്ക്ക ൊപ്പ
ോട്  പ്രതികരിച്ച
ജന വിധ
പര സ്പര
ക്യ ുമെന്റ
ാണ് ഇ ത്രയ
ർത്ത ുന്ന
 ലക്ഷ ്മി
്വ ൽ
ുന്നത്  വരെ 
വിജയ ് ബാബു
 ഉപ ദ്രവ
ൊക്ക േഷന
ിക്കാൻ  ശ്രമ
 കഴിഞ്ഞ  വര
െ ആ ന്റണ
ത്തന ത്തില
 പെ രുന്ന
 രാജ േന്ദ്ര
 മത്സര ങ്ങളില
ോഹ രമായ
ഇട ഞ്ഞ
 മണ്ഡല മാണ് 
ാഗ ർ
 തയ്യാറ ായിരുന്നില്ല.

ഗ്രഹ ങ്ങളുടെ 
 സാധിക്ക ുമെന്ന്
 കോള ജില
13 1
തീരുമാന ിച്ചത
ഉണ്ട ാക്കിയ
 പിട ിക്കാന
പ്രതിക രിക്ക
യിലേക്ക്  എത്ത
ചില പ്പോള
 മാധ്യമ  പ്രവര
ി ഇ ര
ത്മ കമായ
തെ രുവ
 ഉൾ ക്കൊള്ള
മായി പ രിക്കേറ്റ
ആർ  ടി സ
 വരെ  വേഗത
മാധ്യമ ങ്ങൾ
 സ്വന്ത മായി 
 മഹ ാസഖ്യ
ം കൂട ിയാണ
 വരു മെന്ന്
ി നട ന്ന
 അമേരിക്ക 

 ടെ സ്റ്റ് 
ആറ ു
 വാദ ങ്ങള
് പരി പാട
 കഴ ക്കൂട്ട
 സ്ഥാപനങ്ങള ിലെ 
 വിന യ
വിമാന ത്തില
 ഫ്ര ണ്ട് 
ി കൊ ല്ല
നീക്ക ങ്ങള
 കേ ടു
ം ആരംഭ ിച്ചിട്ടുണ്ട
ം പിട ിക്കാന
ം വോട്ട ുകള
 മോശ മായ
 മനസില ാക
യല ോഗ
 അഖില േഷ് യാദവ
 മിന ിറ്റ് 
ിയെ പ ിന്തുണ
ോ ഗ ്യ
ദരാ ഞ്ജല
ൂവ െന്ന്
 കാഴ്ച പ്പാട
 കൂടിക്കാഴ്ച ്ച
ഓഫ ിസ
മുദ്ര ാവാക്യ
േഷ്യ യില
 എക് സ്പ്ര
 എക് സൈസ് 
 സ്പീക്ക ർ
ം പൂർ ത്തിയാക്ക
ിസിപ്പ ല
കർഷ ക
െ സാധ ാരണ
 ഔ ട്ട
അഭിഭാഷ കന
 ഒരുക്കിയ ിട്ടുണ്ട
ക്രിസ്ത്യ ന
ആധ ുനിക
തീത മായി 
 പര്യ ടന
ഏറെ നാള ായി 
ജസ്റ്റ ിസ
 ദുരു പയോഗ
ം /
അ ശ
ആ കാശ
ക വ
ക ാപ്പ
ക ായിക
ക ഠിന
ച ായ
ട ിയുടെ 
ത ോമ
ദ ിയ
ന ാരായണ
പ ാട്ട
പ ിണറായ
ഭ ായ
മ ുകളില
വ ൂർ
സ ുള്ള
ഹ ്
ീ ക
ന്  മരണമടഞ്ഞ
ത്  ഈ
ക്ക ല്ല
ത്ത ീകരിച്ച
 പ ി ജ
 പ േടിയ
 ക െയര
 ക ിരണ
 സ ാദ
 ന െറ്റ
ം  ഷ
ം  ഇത
 മ ൈന
ിക ാല
ക്ക്  അറിയ
ക്ക്  വീതവ
മായ ാല
രു ത്ത്
 ആ രു
 ആ ഫ്രിക്ക
 ഇ ബ്രാഹ
സ്  എ
ില്ല  എന്നതാണ് 
ുമ ല
ുമ െതിരെ 
ുകയ ുമായിരുന്ന
 ഒ ളിഞ്ഞ
ാവ ില്ലെന്ന്
 എന്ന യാള
 നട ന്നു
മ്മ ൾ
് പ ൂർ
 യ ാഥാർത്ഥ
രാജ ിവെച്ച
പ്പെട്ട ിരിക്കുന്ന
ിത രായ
ിച്ച്  നില
യ് പ്പ
ം വ ോട്ട് 
 സ്വ ത്ത
ുമായി  ചർച്ച
 ഹ ോമ
ന്റെ  നേതൃത്വത്തില
 വീ ര
ി സ ുന
വില യ
െ സ ാമ്പത്തിക
തിക ച്ച
കൊ ടുക്ക
ം സ ുരക്ഷ
സംസ്ഥാന  സർക്കാർ
ികൾ 

 അന ീ
 ദിവസ ത്തിനക
 വലിയ  മാറ്റ
ം ഇ ന്ന
ം ഇ പ്പോൾ
് ത െരഞ്ഞെടുപ്പ
 രൂപ ീകരിക്ക
െ ത ോന്ന
ഇന്ത്യ -
 ജന പ്രതിനിധ
 കൊണ്ട ാണ് 
ി ആ ന
ി ആ ളുകള
ി ആ ന്റണ
മാറ്റ ിയ
കൾ ,
േർ ക്ക്
ോൺ ഗ്രസിന്
ാണ് സ ോഷ്യല
 പോലീസ്  അന്വേഷണ
ബ്ര ാന
 കുട ുക്ക
 ഐ സിയ
െഡ ിറ്റ് 
ദ്യാ ർത്ഥ
സ്വദേശ ിനി (
ഇട ിഞ്ഞ
 കര യ
ി ച ർച്ച
 മന ഃ
ം വി തരണ
ഭരണ ാധികാര
മർ പ്പിച്ച
 കള മശ്ശേര
 വിഷയ ങ്ങൾ
 എന്നിവ യില
 കൂട്ട ായ്മ
 സ്റ്റ േറ്റ
 പ്രസിഡ ൻ്റ
ത്തിലേക്ക്  മാറ്റ
 ഖ ത്തറില
 ഭാഗ ത്ത
ിക്കുന്നതിന ിടെയാണ് 
ബൈ ഡ
 വീട ിന്റെ 
 മണ ി മുതല
ജനങ്ങള െ 
പേക്ഷ ിച്ച് 
 സ്ത്രീ ധന
 കെ ജ
ാവസ്ഥ യില
 പിന്തുണ ച്ച
 നയ ങ്ങള
 സാമ്പത്തിക  പ്രതിസന്ധ
 ഇരു ന്ന്
ചോദ്യ ത്തിന്
 അഭിപ്രായ പ്പെടുന്ന
സംഘടന യുടെ 
ം കൊ ല്ല
ഇവിട െ നിന്ന്
എൻ ഡിഎ
രണ്ട്  മാസ
 സ്ഥാപന ങ്ങൾക്ക്
 സമ്മാന ിക്ക
 വാദ ിച്ച
പര്യ ന്ത
സ് അ സോസിയേഷന
ലക്ഷ്യ ം വ
 കൊവിഡ ് പോസിറ്റീവ
 സമിത ി 
 ജോലി  ചെയ്ത
 ഗ്രാമ ീണ
് നൽക ിയ
നിന്ന ിരുന്ന
 മുന്നണ ികള
ിച്ചുകൊണ്ട ് 
 തസ്തിക യില
പര്യമ ുള്ളവര
 സ്വാധീന ം ചെലുത്ത
 സോ ഷ്യൽ
വള ർച്ച
 കെ  റെയില
 പാർ ക്ക
 ക്യാമ്പ ുകള
സോ ഫ്റ്റ
പദ്ധ തി 
പദ്ധ തികള
 ഘടക ങ്ങള
കണക്ക ുകൾ
ി കുറ ച്ച
ഗുണ ം ചെയ്യ
എം  മാണ
പറ േഷൻ
ലെ  ലോക
ുമോ ന
 മത്സ്യ ബന്ധന
ക്രൈ സ്തവ
രാജസ്ഥാന ിലെ 
 സമാധാന വ
ശശ ി തരൂര
ം എന്ത ാണെന്ന്
 പൊല ിസ
 ഗോപ ിനാഥ
ബിന ീഷ
ം സു പ്ര
 ബില്ല ുകള
വകുപ്പ്  മന്ത്ര
ബഹ ിരാകാശ
 അമിത് ഷാ  പറഞ്ഞ
 സ്ട്ര ാറ്റ
 പുരോഗമ ിക്കുകയാണ
 ഹാജ രായ
എഴ ുത്ത
 അസോസിയ േഷന
ഹൈക്ക മാന്റ
ോഭാ  സുരേന്ദ്രന
മെമ്പ ാടുമുള്ള
ത്തെ കൊ വിഡ് 
 ആരിഫ് മുഹമ്മദ്  ഖാന
co m
യോക്ത ാക്കള
,  ഉ
അ ക്കാര്യ
അ മിത
ഇ ൻഡ
ഇ ന്ദിര
ഈ  ചിത്ര
ഗ ൗര
ജ ി നല
ണ ത്തില
ത ർക്ക
ത സ്തിക
പ ിയ
പ െടു
പ ശ്ചിമ ബംഗാള
മ ദ
മ ിച്ചത
ഹ ിച്ച
ഹ ോള
െ ൻ
െ ന്ത്
ൈ സര
ൈ റ്റില
ോ  അല്ല
ർ മാരുടെ 
ക്ക ിടെ 
 പ ിജെ ജോസഫ
ും ..
ിയ ാസ് 
ിയ െ കണ്ട
ി  ദേവ
ി  മെട്ര
ുന്ന വർ
ുന്ന ില്ലെന്ന
്യ മായി 
ിക്ക ുണ്ട
ിക്ക ോട്ട
ിക്ക േഷൻ
ം  മുഖ്യമന്ത്ര
ം  ഇതുവര
 മ ദ്ര
 മ ിഷ
 മ കൻ
ാന ുളള
ിന്  മുന്നോടിയായി 
 ത ിയത
റ്റ ോറ
സ്  റിപ്പോര
 ച ൊ
 ച ിറ
ിന്റെ  നേതൃത്വത്തിലുള്ള
കര മായിരിക്ക
 ബ ൗള
 ജ ാഗ്രതയ
തിര ൂര
 ഒ .
െടു ക്കുന്നത്
് ക ാര്യ
െ ക ള്ള
െ ക ൂടുതൽ
സ്ഥാന ത്ത
് പ ാ
് പ രാജയ
െ പ ുറത്ത്
ിക്കുന്നത ോടെ 
്യമ ല്ലാത്ത
ുമായി  സഖ്യ
 ഹ ു
 ഹ ാഷ
ജയ ിച്ചത
 നി ഷ
 ഓ ടിയ
 ഓ പ്പണ
ി, 

യു എസ
 അവ ശ
ിച്ചിരുന്ന ുവെന്ന
ം ത നിക്ക്
യോഗ ം ചേര
യോഗ ി ആദിത്യനാഥ
യ്ക്ക്  വിധേയ
മി ത്ത
കൊ റിയ
 കാര്യ ക്ഷമ
 പിന്ന ാക്ക
ം ആ ശുപത്ര
 ഷ ം
 വലിയ  പ്രതിഷേധ
 ചെയ്യ ണമെന്ന
 അത ിന് ശേഷ
രണ്ട ് പ
ി പ്ര തീക്ഷ
 പോല െയുള്ള
രുത െന്നാണ് 
 തീ ർച്ചയായ
 ആയ ി ഉ
 ശ്രമ ിക്ക
വന ംവകുപ്പ
 ധ ാർ
ദ്ദ ീ
 വകുപ്പ ് പ്രകാര
പരി ഹാസ
12 6
 പോയ ി 
് എ ടുക്ക
െ കുറ ിച്ചു
് പ്ര തികരിച്ച
സഹ ോദ
 വിഷയ ങ്ങളിൽ
ഇന ി അ
 സമര ത്തിന്
 നീ തിയ
സ്വാ ള
ബൈ ക്ക്
മോ ഷ്ട
ിന്റെ അ മ്മ
ജില്ലാ  മെഡിക്കല
ം നൽക ാൻ
ത്തിലൂട െയ
 കെ എസ്ആർടിസ
 അതി തീവ്ര
പുതിയ തായി 
 ഓഫീ സുകള
 വെള്ള ാപ്പള്ള
ഇത്തര ം 
വീട ് 
 സ്വന്ത ം 
 മുസ്ല ീങ്ങള
ശ്രീ റ
ിക്കേണ്ട ി വന്ന
 ലീഗ ് നേതാവ
 വിവാദ ത്തില
ുറ്റ പ്പെടുത്ത
ം കൊ വിഡ
ഇവിട െയ
ഇവിട െയുള്ള
ിക്കണമെന്ന  ആവശ്യ
 ചൈന യുടെ 
ദിലീപ ിന്
 ഏറ്റ െടുത്ത്
 ആലപ്പുഴ  ജില്ലയില
ഫ്ര ണ്ട
 ആക ർഷ
 പദവ ിയ
 വാഹന ാപകട
 രൂപയ ായിരുന്നു
 ഇങ്ങന െയാണ
 സംഘട ിപ്പിക്ക
 യോഗ്യത യുള്ള
ം ശക്ത മാണ
തന ിക്ക
ം പ്രഖ്യാപ ിച്ചത
 മുന്നോട്ട ് വെച്ച
കോട്ടയ ത്ത്
ബിസിന സ്സ് 
 ത്ര ിപുര
 സഭ യില
അധികാര ത്തില
കഴിഞ്ഞ ദിവസ മാണ് 
ക്യാമ്പ ില
ചല ച്ചിത്ര
 മണ്ണ ിടിച്ചില
നിക ുത
 യഥ ാക്രമം 
 ചുമ ത്തിയ
മരീ ന്ദര
 അടിയന്തര മായി 
ദാസ ന
 കുമാറ ിന്റെ 
 സുരേന്ദ്ര ൻ പറഞ്ഞ
മുട ങ്ങ
 ജയില ിൽ
താഴ ്
ബജ റ്റ
 തയ്യാറായ ിട്ടില്ല.

 ശക്തി പ്പെടുത്ത
ചടങ്ങ ില
മെഡിക്കൽ കോളേജ ിൽ
ചീഫ്  ജസ്റ്റിസ് 
ബാക്കിയ ുള്ള
 അബ്ദു ള
ി ഹൈക്കോട തി 
 മോഹൻ ലാൽ
കുവൈ ത്ത്
തൃശൂർ :
 മാധ വന
ഹ്ല ാദ
 ഒതു ങ്ങ
ാമ് പ്യന
ികോപ ്ട
i d
i r
ം കുന്ന
ഇ റ്റല
ഐ ആര
ഓ റഞ്ച
ക ാനുള്ള
ജ ക്ട് 
ട ൻ
ണ ിക്
ഥ ിയ
ഥ ാന
ദ ോഹ
പ ണ്ട
പ ദവ
ഫ സ്റ്റ് 
ബ ോസ
മ ,
മ ുകേഷ് അംബാന
യ ില്ലാത്ത
ര ോഷ
ല ാ
ള ാറ്റ
വ ംശ
ഷ ത്തേക്ക്
സ ാല
ഹ ്റ
ാ വി
ാ ത്മക
ി ക്യ
ി ഡ്ജ
 പ ാണ
ിയ ാണ് അ
ച്ച െല
 ന ാര
ം  ഊ
ുക ോട
ിന ാണ
ിന ായിരുന്നു
ിക ൃഷ്ണന
സ് സം
സ് വർ
ിരുന്ന ുവെന്ന
ക്ഷ ാമ
ോട െയാണ
 ഉ ദ്ധവ് താക്ക
 ബ ോണ്ട
ുമ ില്ലാത
ായിരുന്ന ുവെന്ന്
് ക ണക്ക
ാട ിസ്ഥാന
െ ക ണ
െ ക ൃഷ്ണ
െ ക ാര്യങ്ങള
ം ക ോവിഡ് 
ാം ..

 ദ ല
ിട്ടുണ്ട ് എന്ന
േണ്ട െന്ന്
ി പ ൊലീസ
 ഒരു  സീറ്റ
 ഡ ില
ം പ ുറ
ിഎ സ് 
ം വ ായ
ം വ ഴിയ
 ഫ ാര
ശ് ന
ജയ രാജ
 ആര ാണ് 
െതിര െ പ
ി അ യ
 സാധ ിച്ചിട്ടുണ്ട
ഭവ നില
നില വിൽ 
ി സ ാധ
നു ഷ
ിയത ായി 
അതേസമയ ം ച
 അദ്ദേഹ ം ചോദിച്ച
ിസ ബ
സില ില
 വെ സ്റ്റ
ി എ ച്ച
ാറ ൂഖ
മന്ത്ര ിസഭാ
മേ ശ്വര
കൊ ള
 സെ മ
ജന ന
 ലഭ ിച്ചത്
ബിജെപ ിയിലേക്ക്
ുന ിന്ന്
െ ത ാര
തുടര ന്വേഷണ
ുന്നത്  
 പാര മ്പര്യ
െ ആ റ
ഗ് ബോസ് 
ം എന്ന ിവിടങ്ങളില
ന്തര ിച്ച
തിരുവനന്തപുര ത്തെ 
് മ ുറ
െ മ ത
 രാജ ന
 മത്സര ിച്ചത
െറ ുപ്പ
ം വി ത
ണാ  ജോർജ
 യോഗ ി ആദിത്യനാഥ
ധന കാര്യ
 കൈ വിട്ട
 നീക്ക ം ചെയ്യ
18 8
13 7
13 8
 പിട ിയിലായ
ാസ്  അ
16 5
 ജില്ലാ  മെഡിക്കല
ി ഇ ങ്ങന
ം വര െയുള്ള
നേരത്തെ  തന്നെ 
ദിവസ ം 
ധാകര ന്
വിവിധ  ഭാഗ
പാല ന
27 0
ിബ ാന്റെ 
 പ്രവേശ ിക്ക
മത്സര ത്തില
ഡി വിഷന
 അധികാര ത്തിൽ
ക്ല ിന
 മോ ചിത
ശ്രീ നിവാസ
 ഗ്രൂപ്പ ില
നാഥ ് 
ഞ്ചാബ ില
 ലീഗ ് നേതൃത്വ
ക്കാണ്  രോഗം സ്ഥിരീകരിച്ചത
ം വ്യക്തമാക്ക ുന്ന
 നാട്ട ിലേക്ക്
വായ ിര
ഫ്ര ാസ
നടപട ികൾ
നടപട ി സ്വീകരിക്ക
ിക്കുന്നതിന്  മുമ്പ
ികയ ാണെന്ന
സ്ഥല ങ്ങളില
 മന്ത്രാലയ ത്തിന്റെ 
 കുഞ്ഞ ിനെ 
െ കൊ വിഡ
കുറ്റ പ്പണ
ഏക ദേശ
വ്യക്തമാക്ക ിയത
െപിസി സി 
ബാധിത ര
 ബ്ല െസ്ല
് നില വില
മുറ ിയില
് കോട ി രൂപ
ഉട മയ
 റോഡ ുകള
സമ്പ ത്ത്
 പ്രസ്താവന കള
ാണ് എന്ന ാണ് 
ത്തിനിട യിൽ
ചികിത്സയില ുള്ളത
 ഉന്നത  വിദ്യാഭ്യാസ
 മറുപടിയ ായി 
 നിയമന ം നടത്തുന്ന
 ത്ര ിക
 പന്ത ള
 കോട്ടയ ത്ത്
 വ്യാപാര ികള
 ജീവന ക്കാർ
ഞെട്ട ിച്ച
 പങ്കാള ികള
 പതിന ഞ്ച
 റെ ഡ് 
 ജനത ാദ
ം വേ ണമെന്ന്
 വിലക്ക യറ്റ
 മതിയ െന്ന
ി തോമ സിന
 നാണ യ
 ഉദ്ഘാടന ം ചെയ്ത
 മെട്ര ോ
 എന്നിവിട ങ്ങളിലെ 
ം സീറ്റ ുകള
ാണ് കോട തി 
 വിപുല മായ
ഇംഗ്ല ീഷ
 മ  ന്ത്ര
ി ഡയറ ക്ടര
 ഹോസ്പ ിറ്റല
 രണ്ട് ഡോസ്  വാക
ാത്മാ ഗാന്ധ
വൽക്ക രണ
  M
  ത്തെ 
  ...
,  ഇ
,  ട
ം  പോസിറ്റീവ
ആ ശ്വാസ
എ ങ്ങനെ 
ഒ ത്തു
ക ുകള
ക ോഴ
ക ുന്നതിന
ജ ീബ
ട ി ക
ട യാള
ണ റെ 
പ മ്പ
പ ിൻ
മ ണ്ട
മ കന്റെ 
യ ാൻ
ര മ്യ
റ െനീഷ
സ ോണ
ഹ േള
ി ങ്ങനെയാണ് 
ു ദ്യ
ു ',
് )

ത് മനാഭ
ന്ന ാഹ
ക്ക ാവ
 പ വാര
 പ ികെ 
ി  മാത്ര
്യ ാല
ിച്ച ിരിക്ക
ാന ാണ് സാധ്യത.

ുക ുത്ത
ിന ിയോഗ
ുട മ
 ത റ
സ് വി
ക്ക്  ശേഷം 
വി ശാല
 പ്ര ഭാ
മായ ാവ
ന്ന് യ
ന്ന്  പ്രവര
 ച ുഴലിക്കാറ്റ
പ്ര ക്ഷോഭ
ിട്ട ില്ലാത്ത
 സ് വർ
 ജ പ്പാന
 ശ ല്യ
മ്പ ാശ്ശേര
ികള ിലെ 
ാവ ില്ലെന്ന
ാക്ക ണ
 മാ വേലിക്കര
െ ക േരളത്തില
 യ ാ 
 പറഞ്ഞ ിട്ട
 ദ യ
ിത ല
 ഗ ംഗ
ഞ്ച ിയ
ത്തിന്  വേണ്ടി 
ലീ ഡ
 തിര ുവാ
20 5
ം വ ന്നു
 പറയ പ്പെടുന്ന
 ഫ ിറോസ
െ ന ീ
ം അ ടിച്ച
ം അ ഴിച്ചു
 നിന്ന്  തന്നെ 
 നി ശബ്ദ
ി സ ന്ദര
 കോട ീശ്വര
ചെയ്ത ത്
മെ ല്ല
 ശേഷ ിയ
 മന്ത്ര ി പ
 കേന്ദ്ര ങ്ങൾ
ശ്ര േയ
യാള ാണ
ുമായ ിട്ട
 ചെയ്യ േണ്ട
 ചെയ്യ േണ്ടത
 അത ത്
് ത ര
ുമെന്ന്  പ്രതീക്ഷ
 ജന ിച്ച
നേത ൃ
 ആയ ാല
െ ആ ക്രമണ
 ധ ്രുവ
ാക്കിയ ിരിക്കുകയാണ
ം പ്ര ചര
് മ ക്കള
ത്തന ത്തിന്
വാക്ക ൾ
 ആശുപത്ര ികളിൽ
ി വി ട്ട് 
 ഗാന്ധ ി പറഞ്ഞ
 വിവര ം അറിയ
െ കുറ ഞ്ഞ
 ചില  അവസര
 വിഭാഗ ങ്ങളില
14 9
 തൃ ണമൂൽ
പ്രദേശ ിലെ 
ിക്കാനുള്ള  അവസര
രാഷ്ട്രീയ  പാര
ിക്കുന്നതിന ിടെ 
ബൈ ഡന
 കൊല്ല പ്പെട്ടിരുന്ന
്പ ന
 പ്രധാനമന്ത്ര ി മോദ
താര ത്തിന്റെ 
പ്പള്ള ി 
വയ െല്ല
 കോളേജ ് 
ം ബ ി ജെ പ
 മറ്റ്  ചില
ഗ്രസിന ൊപ്പ
സംസ്ഥാനത്ത്  ഇന്ന് 
തുപ ോല
തുപ രിപാട
ു എന്ന ത്
 കണക്ക ാക്ക
പകട ത്തില
 മെ മ്മറി ക
 ആക്രമണ ങ്ങള
 കുറഞ്ഞ ത്
 സൗകര്യ വ
 ഏക ദേശ
െ പരി ഗണിക്ക
 കഴ ുക
മൊ ബൈൽ
 ഫോണ ുകള
 സൂചന യാണ് 
വിഷ ീല
െ അറിയ ിച്ചിട്ടുണ്ട
 വീട്ടില െത്ത
ി നില പാട
എല്ല ാവർക്ക
തിക്ക ായി 
 പിഴ വ
വാക്സിന േഷൻ
 ഭേദ ഗത
 വസ്തു ത
 അക ത്ത
ംക ൊണ്ട
 ഓഫ ര
 ഓഫ ിസ
യോഗ്യത :
ബീ ഹാര
 ഭാവ ിയില
 കർഷ കർ
ചല ന
െ പിന്തുണ യ്ക്കുന്ന
 അഭിഭാഷ കര
 അഭിഭാഷ കൻ
 വാക്സിന േഷന
ധ്യാപ കര
 ബ്രിട്ട ന
 വീഴ്ച ്ച
കീഴ ിലുള്ള
് കുറ ഞ്ഞ
 ഭിന്ന ത
േടു മെന്ന
 ശ്രദ്ധേയ മായ
 അങ്ങ േയറ്റ
ഹോ സ്പ
 ബ്ലോക്ക്  പഞ്ചായത്ത്
പി ടുത്ത
 എച്ച ്
 കൈകാര്യ ം ചെയ്യ
 മധ ു
പ്രത്യ ക്ഷ
ക്കത്തിലൂടെ  രോഗം ബാധിച്ചത
 ഡീസല ിന് 
തൃശ്ശ ൂര
 രാജ് ഞ
വരാജ ് ബ
 വെള്ളം ക യറ
വി ഗോവിന്ദ ന
ാണ് സുര േഷ് ഗോപ
മ്മനം രാജ ശേഖരന
 വയസിന്  മുകളില
 പേരുടെ പരിശോധന ാഫലം നെഗറ്റീവ
ുക തന്നെ  ചെയ്യ
  ന്ദ്ര
  ത്വ
5 50
അ ഭാവ
അ യല
ഇ ടക്കാല
ഗ ല
ഗ ്യാ
ഗ ൂഗിള
ബ ൂ
ര ക്കണ്ട
ശ ിക്കാന
ഷ ം
സ ഫ
ാ  ഗാന്ധിയ
ീ ടുള്ള
ൂ  ര
േ  എന്ന
േ ൽപ്പ
ൗ ട്ട
ൗ ളര
ൗ  ജിഹാദ
ൽ  സർട്ടിഫിക്കറ്റ
ന്ന ായിരുന്നു
ക്ക െങ്കില
 സ ന്ധ്യ
 വ  ന
ട്ട ് സ
ിര ിയ
 ന റുക്കെടുപ്പ
 മ ി 
 മ ംഗള
ാന ായിരുന്നു
 ത ാ
 ത ങ്ങൾക്ക്
ിക ാട്ട
ന്ന്  നില
െന്ന ത്
 ഇ ടിയ
്‌ 

ല്ല ോ എന്ന
 സ് മാരക
മ്പ ള്ള
 ര ജിത്
 എന്ന  വിലാസ
മു രള
ന്ത ള
 പോ രാള
് പ ോര
സി റ്റ് 
സ്റ്റ ാലിന
ിച്ച്  ഒരു
 വര െ പ
ിലെ  പ്രധാന
 തിര ഞ്ഞെടു
തു മായി ബന്ധപ്പെട്ട
യുടെ  ആവശ്യ
ത്തിന്റെ  ആവശ്യ
ുമായി  മുന്നോട്ട് പോക
െതിര െ അ
 ഏ ഷ്യ
ഒരു  കാര്യ
ി അ തിര
തുട ർച്ചയായി 
 സാധ ്യമാക
 കു ത്തിയ
് അ നുഭവ
ോല ിക്ക
അതേസമയ ം ന
ിമ െന്റ
 വെ ല
ിപ റമ്പ
െ സ ഖ്യ
യ്ക്ക്  നല
യ്ക്ക്  സമീപ
ിച്ചു  നല
ടന ാഴ
െടുത്ത ത്
ം എ ത്തിയ
ശന മാണ് 
ം ആ റ
 യു എ
വാസ ികൾ
 സ്വദേശ ിയ
ത്സ മയ
 അത െല്ല
രണ്ട ുപേര
 നേര ത്തെ ക
 മുന്ന ിലുള്ള
 വൈ റ്റ് 
 ലക്ഷ ക്കണക്കിന്
്വ ാല
 തീ ർത്ത
 മുഖ്യമന്ത്ര ിയായി 
 സമയ മാണിത
െ വ ഞ്ച
 രോഗ ികളുടെ 
ി ആ ശുപത്രിയില
 നടത്ത ിപ്പ
മാറ്റ ിക്
ഫീ സ് 
 സമ വായ
 പോലീസ്  സ
് ആ ന
് ആ വശ്യ
 ട്ര ാഫിക്
മാർ ഗ
ം നടത്ത ുന്നുണ്ട
കാല ത്തെ 
 ബന്ധ മുണ്ട
 അഭി വാദ്യ
 അംഗ ങ്ങളുടെ 
 മാസ വ
മത നിരപേക്ഷ
പ്പെട്ടത ായി 
 ഭരണ ത്തില
 പ്രതിഷേധ ിച്ച
 പ്രതിഷേധ ക്കാര
പ്രതിക ൂല
16 3
ിന് ശേഷ മുള്ള
ിഷ ണര
ിക്കുന്നതിന ു
 താര ത്തിന്റെ 
ത്തോട നുബന്ധിച്ച് 
സ്ഥിര ീകരണ
നാട്ട ിലേക്ക്
ലില ാണ് 
മൂന്ന്  തവണ
സൈ ബർ
ബ്ല ിക്കന
 മര ്യാദ
നാട ിന്റെ 
 അവസര ത്തില
രാശ ി മാറ്റ
 കോടി രൂപ യാണ
 പേർ  വീത
ൊല പ്പെടുത്ത
 അര വിന്ദ് കെജ്രിവാള
വ്യാപ കമായ
 മത ില
 ബു ക്ക്
 ഇത്തര ം 
ിന്റ ് 
 രക്ഷ പ്പെടാന
വിവാഹ ത്തിന്
 സംശയ മില്ല.

 ദിന േശ
ം പരി പാട
ോടൊപ്പ ം 
 ദേശീയ പാത
ഉപയോഗ ിച്ച
 ദിലീപ ിന്
െ സു പ്ര
 പ്രായ മായ
 തൊഴില ുറപ്പ
 യൂണ ിയൻ
 നേരിട േണ്ടി വര
 മുന്നറിയിപ്പ ുമായി 
ിച്ചുവര ുത്ത
 പോകുന്ന ില്ല.

ഹസ ്യമ
റിപ്പോർട്ട ുകൾ.

 വിര മിച്ച
പിട ിത്ത
 വയനാട്  ജില്ലയില
 മിന ിമ
 നിയമന ം

 ഞെട്ട ിക്കുന്ന
ഭക്ഷണ ം കഴ
 ഇല്ലാത ാക്ക
എ. എ
മ്മു  ക
ി ഉണ്ട ാക
് നിയമ സഭ
ജോലി  ചെയ്യ
മസ ോണ
തിരുവ മ്പാട
 ശാസ്ത്ര ീയ
ിന്റെ അടിസ്ഥാന ത്തിലാണ് 
ി സർ ക്കാരിന്റെ 
ം വളര െ 
 നശ ിപ്പിച്ച
 ഏജൻസ ികൾ
മമത  ബാനര
ഗുരു വായ
പൊട്ട ല
് മുന്ന ില
ി നേരിട ുന്ന
പ്രസ വ
ഓട്ട ോ
വ്യാപക മായി 
 ശുപ ാർശ
കനത്ത  മഴ
 സാക്ഷ്യ ം വഹ
രാധാകൃഷ്ണ ന
 താല് പര്യ
 കുതിച്ചു യര
 ദേവസ്വം ബ ോര
ഇന്ന് രോഗം സ്ഥിരീകരിച്ച വരില
 ജെപ ി നദ്ദ
്രാജ ്യ
  ദ്യ
u r
അ റ്റ
ക ഷ്ട
ക സ്റ്റഡിയിൽ
ഖ ഫ് 
ഗ ന്ധ
ച ്വല
ജ ്വല്ല
ജ േവാല
ട ീച്ച
ഡ േറ്റ
ത ാങ്കള
ന ിമിഷ
ഫ ോർ
ബ ിൽ
മ നുസരിച്ച് 
ല േക്ക്
ശ ബര
ഹ ാള
ി ത്തര
ു ക്ത
ു  തന്നെ 
െ ജ
് ഫോമ
്  ശര
ത്ത ി
ത്ത ീകരിക്ക
 പ ി ട
 പ ൃഥ്വിരാജ
 വ ക്കീല
ായ തിനാല
 മ േക്ക
 അ ദ്
 അ ടി
 അ ഗ്ന
 അ ഥവാ
ിന്  ലഭിച്ച
സ് ഡ് 
ക്ക്  കൊറോണ
വര ാന
ത്ര ീ
ന്ന്  കൊണ്ട
ത്തില ുള്ളത
 വി പരീത
ുകള ഞ്ഞ
 ഉ ചിതമായ
 ജ ാന
തിര ക്ക്
മാണ ് നടക്കുന്നത
ാവ സ
 ല ാപ
റിയ പ്പെടുന്ന
െ ക ണ്ണൂര
സി ആര
 റ ാഷിദ
 ഡ ാമ
് ന േതാക്കൾ
 ട െന
ം വ ീത
 സ്വ ത്ത്
 പറയ ുമ്പോള
 പേര െയ
 പേര ിട്ട
ം അ നുകൂല
 ഏ തു
ബന്ധ ങ്ങള
 നി ഷാദ
 ഈ  വർഷ
് സ ാധ
യു ള
ിമ ന്ത
 അവ ഗണന
 വെ ക്ക
ി എ ക
ം ത ടവ
ം ഉ ടല
 കോ മ്പ
ാദ ര
 നില നിർത്ത
 സംസ്ഥാന ങ്ങൾ
 സംസ്ഥാന  സെക്രട്ടറ
ജന ാവ
ാശ യ
ം സ ി
 പിന്ന ോട്ട
ശന ം ഉന്നയ
 ഇട വ
 ബിജെപ ി ക
 ഷ െട്ട
ബിജെപ ിക്ക
ം ഇ റ
 അത േസമയ
ാണ് പ ൊ
ം മ നുഷ്യ
ാണ് അ വസാന
 രാജ്യ ങ്ങൾ
വിജയ ് 
 വേ ല
 വന്ന ിട്ട
ബി ഹാറില
ം പ്ര ദേശ
 സാഹചര്യ വ
സ്സ ുകാര
 സ്ഥിര മായി 
 രാജ േന്ദ്രന
 ട്ര ാൻ
ിപ്പോർ ട്ടില
തൃ പ്പൂണിത്തുറ
ഇതിന ിടയിൽ
 രാഷ്ട്രീയ ത്തിൽ
എസ് എഫ് 
 ബന്ധ ങ്ങള
 ബന്ധ ത്തില
 കള ക്ടറ
 മുതല ാണ് 
 തൃ പ്പൂണിത്തുറ
 മോദ ി സര
13 6
ത്ഥികള െ 
ി രൂപ ീകരിച്ച
ശങ്ക ർ
ുണ്ടായ ില്ല.

െയ് ഖ
ി ഇ ക്കാര്യ
 ചോദ്യ വ
പല യിടത്ത
 എന്നത ാണ
ബ്ല ിക്ക്
 ആരംഭ ിച്ചിരുന്ന
ചിത്ര ങ്ങൾ
ചിത്ര ീകരണ
ിച്ച് പ ിട
 സംസാര ിക്കാന
 അതി ർത്തിയ
 പഠ ിക്കാന
 ഓഫീ സിൽ
 ലഭിക്ക ുക.

 സംവിധാന ങ്ങൾ
നാല ു
 സാ ദ്ധ്യത
ം കുറ യ്ക്ക
 കമ്മിറ്റ ിയില
 ആശങ്ക കള
മോദ ി സര
 രംഗത്ത െത്തിയത
 ദു ർ
എൻ സിപ
ഇതിന്  പുറമ
 പങ്കെടുക്ക ാൻ
 പാ ക്
ം കാണ ാന
ാനാണ്  ശ്രമ
 നെ ഞ്ച
ായിര ത്തോള
െ കൊ റോണ
രംഗത്ത്  വന്നത
 പ്രതിരോധ  പ്രവര
 മി ടുക്ക
 അധികൃത രുടെ 
 മൂല ്യങ്ങള
ജ്  വാദി പാര
 ഒഴിവ ്

 വെല്ലുവിള ികള
 മടങ്ങ ിയത
കുമാറ ിനെ 
 ചെറ ു
 തസ്തിക യിൽ
ാസ് മ
 സൂച ിപ്പിച്ച
 പ്രതിപക്ഷ നേതാവ ് വ
 പോവ ുകയായിരുന്ന
 ലൈ ഫ് 
 സ്വീകര ിക്കുന്ന
ീറ ോ
ഗാന്ധ ി കുട
ം ചെയ ്യാ
 മലപ്പുറം  ജില്ലയില
ായി  പോയ
ാനുള്ള ശ്രമ ങ്ങള
 ബിസിന സ്സ് 
 അവതര ിപ്പിക്ക
 സാക്ഷ ികള
 ങ്ങ  ൾ
ീരിയ ൽ
 ഗ്രഹ ങ്ങള
 കണ്ണൂർ , കാസർ
 മയ ക്കുമരുന്ന
ുമു തല
 സമാ ജ
ം വെ ളുപ്പ
പ്രാഥമിക  നിഗമന
 സഖ ാക്കള
ം വാ ഗ്ദാന
 ഏത ൊരു
 ദക്ഷിണ േന്ത്യ
ിഷ്ട ങ്ങള
ചെയർ മാന
ഒക്ടോബ ർ 
സ്ഥാനമായ ുള്ള
ഗെയ ിമ
ത്തുട ര
കസ്റ്റഡിയില െടുത്ത
 ബാഗ േജ
 ചീഫ്  ജസ്റ്റിസ് 
 യെല്ലോ അല ർട്ട
ഗോവ യില
പ്രവൃത്ത ി പരിചയ
ാണ് കണ്ട ത
ആയിര ക്കണക്കിന്
 വെബ് സൈറ്റ
 വികസ ിപ്പിച്ച
 കരാ റില
ഉടമസ്ഥത യിലുള്ള
% ),
അ യാൾ
ഉ ത്പ
ഐ യ
ക മാണ
ണ ത്തിന്റെ 
ദ ീ
പ ൗര
ബ ാറില
മ ക്കൾ
ര ീത
റ സ് 
വ ല്ല
ശ ിക്ക
സ തീ
സ ്യൂ
സ ീസൺ 
ൂ പ്രണ്ട
ോ ക്ഷ
് മെന്റ് സെന്റ
ന്ന ാൾ
്  ഫല
ക്ക ൊല
 പ ാഴ
ിയ ിട്ടുള്ളത
ിയ െ പോല
ി  തീ
 സ  ര
 സ ൂര
 ന ി ല
ിക്ക ൂട
പ്പ ൊ
ിച്ച ാര
ിന െക്കുറിച്ച് 
 ത രണ
െയ ായിരുന്ന
മായ ിരിക്കുകയാണ
രാ ഞ്ഞ
ുന്നത ായി 
ോട ിഞ്ച
ുകള ുണ്ട
വാ മ
ങ്ക മാല
 സം ഭരണ
മായി  തന്നെ 
മ്മ ുക
് ക ല്ല
് ക ോളേജ
ാട ിയ
തി ൻ
സി സി 
രാജ േഷ
സര ിക്കാന
 റ ിട്ട
 ഗ സ്റ്റ് 
 ഗ ോഡ
 ഒരു  ലക്ഷ
ിയുടെ  കുട
ാക മാന
് ന ിറ
 ഭ ക്ഷ
 ഭ ംഗ
വീ ഴ്ത്ത
 ആര ോട
ം അ ടച്ച
െ അ വർ
േയ ര
സ്വ സ്ഥ
് സ ഹായ
 കോ തമംഗല
 ശ്ര േയ
 ശേഷ ം ക
 ശേഷ ിയുള്ള
പ്പെടുത്ത ണമെന്ന
 പ്രതി ബദ്ധ
 മന്ത്ര ി വ
പുര ം 
 കേന്ദ്ര  നേതൃത്വ
െടുത്ത ിരിക്കുന്നത
 തെ റ്റ് 
 ബിജെപ ി നേതൃത്വ
 ഷ ംസ
ലഭ ിക്കാന
ം മ തിയ
സ്ത ുമ
െല ോട്ട് 
പ്പെടു മെന്ന്
ി മ ികച്ച
 ശ്രമ ങ്ങൾ
ുകയാണ െങ്കിൽ
ഫീ സ
ർഷ ിപ്പ
േട്ട ന്റെ 
 തീരുമാന ത്തില
െ എ ൻ
നിയ ന
കുട്ട ി (
പരി ശീലന
12 7
ി ഉ ള്ള
 സൗ മ്യ
 ട്ര േഡ
 ആശുപത്ര ിയിലേക്ക് മാറ്റ
 പല ർക്ക
ുമെന്നാണ്  കരുതുന്നത
 ചിത്ര മാണ് 
14 1
 കള മൊരു
് എന്ന ിവിടങ്ങളില
 കൂട്ട ത്തോടെ 
ത്തിലേക്ക്  കടക്ക
ശ്ശ ാല
 എത്തിയ ാല
 ജില്ലാ  പോലീസ് മേധാവ
 സംബന്ധ ിച്ച് ക
 തുടങ്ങിയ ിട്ടുണ്ട
 പ്രതീക്ഷ ിക്കാത്ത
മായി പ െരുമാറ
നം  ആരംഭ
 മര ിച്ചിരുന്ന
 കോൺഗ്രസ്  അധ്യക്ഷ
 ജയ ിക്കാന
ം സ്വദേശ ിന
മൂന്ന ര
ച്ഛ േദ
 ബാധ ിക്ക
ക്ല േശ
ശ്രീ രാമ
 പ്ല േ
ത്താന ാണ് 
ചോദ്യ ങ്ങള
ദയ നീയ
ുകളാണ്  ഉള്ളത
 പ്രസിഡന്റ ് സ
ം കൊ ള്ള
 മെ സേജ
ിക്കുക  എന്നത്
പരാ മർശ
 അമേരിക്ക യ
 അമേരിക്ക യുടെ 
 അവർ  പറഞ്ഞ
 ഒറ്റ ക്കെട്ട
ിക്കെതിര െയുള്ള
ഭാര തീയ
 ത്ത ി യ
മണ്ഡല ത്തിലെ 
വിമാന ങ്ങള
 അന്ത ർ
 വാർത്ത കള
 വേദ നയ
 ട് വിസ്റ്റ
ം പിട ികൂട
 ക്ഷ ീണ
 പോള ിങ
എറണാകുള ത്ത്
 ആഴ്ച ്ച
 ഊ ന്ന
ം വന്ന ാല
ജില ൻസ് 
അതി ഥ
മാനേജ ർ
ആക െ എണ്ണ
ലോക്ക്  ഡൗൺ
 ട്രെയിന ുകള
 ലോക് സഭാ
 സൂക്ഷ ്മ
വന് യു
വകലാശാല യില
വീന ർ
 പ്രവച ിക്കുന്ന
അനു ഗ്രഹ
ചെറ ുപ്പ
 എ. ക
 അന്വേഷണ സംഘ ത്തിന്
 പിണറായി വിജയ ൻ
 ബാ ച്ച
ഴു ത്ത്
 മുട ക്ക
 കോർ പ്പറേഷൻ
 ചെയ്യാ ത്ത
 ഹൃദയ ാഘാത
സൈനിക ര
തൊട്ട ുപിന്നാല
 തൃശ്ശ ൂർ,
ുമെന്നാണ് പ്രതീക്ഷ .

ി മണ്ഡല ത്തില
 രോഗം ബാധ ിച്ച
 പെയ ്യ
മുരളീധര ൻ
 തുര ങ്ക
തൃശ്ശ ൂർ
 സീതാര ാമ
ി താല ൂക്ക്
ജ്യോ തിഷ
ലണ്ട ന
 തൃപ് തികര
ടിയു തിര
് നിരോധ ന
 കോടിയോള ം രൂപ
െ തെറ്റ ിദ്ധര
ില്ലങ്ക േര
്ബറ േല
  #
. -
. kerala.gov.in
a d
അ ന്യ
എ  ഐ
ഒ മിക്ര
ക ാൻ
ഡ ി വൈ
ഡ ികെ ശിവ
ത ,
ത ങ്ങൾ
ന ിക്കൽ
പ ിളുകള
ബ ീര
മ ശ്ശേരി 
യ ന്ത്ര
ല ി ശിഹാബ
ഴ ുതി 
സ ിവില
ഹ ിക്ക
ഹ മാസ് 
ാ െ
ാ ഗ്രഹ
ീ -
ു  നില
െ വ
െ സ്റ്റ
െ ഞ്ച
േ രുണ്ട
ൻ സ് ക
ർ മ്മന
ൾ ഫ് 
ില െയ
ില േറെ 
ില ൊരാള
ത്ത ാഴ
 പ ടിയ
ി  സ്ഥാപ
 ക ി
 ക ാള
 ക ങ്കണ
ട്ട ിന്
ിക്ക ൊടുക്ക
 അ ശ്വ
റ്റ ിൻ
െയ ാണെന്ന
 എ ഡിറ്റ
ക്ക്  അപേക്ഷിക്ക
സ്  സര
ുള്ള ിൽ
 ച ിദംബര
 ച ിഹ്ന
ദേ ഷ്യ
പ്ര ോട്ട
 വി ട്ട് 
 വി ഡിയോ
ിന്റെ  നിലപാട
സ്ഥ ിതിയ
 ഒ രിക്കൽ
ദേശ മുണ്ട
ത്തിയ ുടെ 
തി ർത്ത
െ ക ല്ല
സി സ്റ്റ് 
െ പ െട്ടെന്ന്
അത ിലൂട
 യ ന്ത്ര
േത ു
ാൻ  പറ്റ
ി ന ന്ദ
ഇത ിനെ തുടര
 ഗ ോൾ
ഞ്ച ാവ് 
്, 

ം പ ിൻവല
് ന ാള
 ഫ ൗണ്ട
െ ന ീക്ക
നങ്ങള ിൽ
ോദ ിയ
െത്ത ിച്ചത
 അവ ന്റെ 
 കോട ികള
െ സ െ
 ശേഷ ം അ
ിരിക്കുന്നത െന്ന്
ശന ിയുടെ 
ം ആ വർത്ത
ം ആ ളുകൾ
 ഷ ിജ
 ഷ ാഹ
 ഷ ിബു
 ചെയ്യ ുമെന്ന
പട ിഞ്ഞാറ
 കേരള ത്തിന
ഇന്ത്യ യ്ക്ക്
 ജന പ്രീ
 രാജ്യ ങ്ങളിലെ 
ൊക്ക െ എ
 തന്നെ  വലിയ
 സു സ്ഥിര
ിത്ത ീര
മാറ്റ ങ്ങള
സിഡ ന
നട പ്പാക്ക
േട്ട ങ്ങള
ം പ്ര തിരോധ
ം പ്ര സ്താവന
ുകാര നായ
 രാജ ു
15 3
 കോൺ ഫറ
നേര ത്തെയ
 അധിക മായി 
 പല  കാര്യങ്ങള
 പാല ാരിവട്ട
ർന്ന ു
ി ച െല
െ കുറ ച്ച
് പ്ര തീക്ഷ
കൂട ിയ
 യോഗ ത്തിലാണ് 
ശക്ത ി കേന്ദ്ര
 ബന്ധ വുമ
ിയെ  മാറ്റ
 രീ തികള
 അനു സൃത
 യാത്ര ക്കാർ
 പ്രദേശ ിലെ 
് ബ ാങ്ക
17 4
ുന്നതിന്  മുമ്പ് 
 നാല ് വര
 കാര്യങ്ങള ാണ് 
 സി ഖ
തെ രുവില
എന്ത ുകൊണ്ട് 
സ്ഥിര മായി 
 കുറ്റ ക്കാര
ിണറായി വിജയ ന
 അയ ക്ക
 കൊവിഡ്  മരണ
ഇതോടെ  ആകെ മരണം 
 മണിക്കൂറ ിനുള്ളിൽ
കേസ ുകള
ൈസ ൻസ
26 0
 പഠ നത്തില
 നല്ല  രീതിയില
 ലഭിക്ക ുമെന്ന
െ ച ുമതല
 പരിപാട ികൾ
 രണ്ട്  വർഷ
 യുവ തി
െ കാണ ാതായ
 ആളുകള െ 
സ്വന്ത മാക്ക
 പ്രസിഡന്റ ് അ
അന്വേഷണ ത്തില
 കാ  ര
എൻ .
ി പരി ഗണിക്ക
 ഏറ്റ ുമാനൂര
 വാങ്ങ ുന്ന
വിഭാഗ ത്തില
സ്ത്രീ ധന
 ഒഴിവാക്ക ണ
 വീട്ട ു
ഹൃത്ത ുക്കള
 ഉറ ച്ചു
ം രാശ ിയിലെ 
ിച്ചുവര ികയാണ
ം ആണ െന്ന്
 അഭിമുഖ ത്തിൽ
ം വന്ന പ്പോള
ിറക്ക ിയത
സേന ാ
ട്ട് ചെയ്ത ിട്ടുണ്ട
 പുറത്തു വിട
കോൺ ഗ്രസിന്
െ നില വില
 കാർ ഡ് 
ിച്ചേക്ക ുമെന്ന
സ്വാധീന ിക്കാന
 കെട്ടിട ങ്ങള
സ്പെ ക്ടര
 സഭ യുടെ 
നോട്ട ത്തില
 മന്ത്രിമാര ുടെ 
 സാമൂഹിക  അകലം പാല
ി തര ൂർ
ബിഎ സ്
 പോസ്റ്റ്  ചെയ്ത
 ദേ  ശ
ബ്രിട്ട ന
 സാങ്കേതിക വിദ്യ
 സ്വപ്ന  സുരേഷ
ഏത ായാല
ം കണ്ടെത്ത ാന
ം പ്രകട ിപ്പിച്ച
റോബ ിൻ
ധീര ന
സമ്മേള നത്തില
ഉൾ പ്പെടെയുള്ള
ഐപിഎ ല്ലില
 ഗോവ യില
സ്ഥിതി ഗതികള
 മട്ട ന്നൂര
ം കേസ ുകള
ി വോട്ട ര
ഉടൻ  തന്നെ 
 കന്ന ഡ
ഇംഗ്ല ണ്ട
കിഴക്ക ന
സമാന മായ
 ത്യ ാഗ
 നിബന്ധന കള
ി ട് വീ
ി ട് വിറ്റ
അറസ്റ്റില ായ
 ജനവിധ ി തേട
ിവരാജ ് സ
 കോഴിക്കോട് സ്വദേശ ികള
അഹമ്മദ ാബാദ
 പത്തനംതിട്ട, ആലപ്പുഴ , കോട്ടയ
ബിസി സിഐ
 ത്രിക ോണ
ം മാറ്റ
അ ടക്ക
അ വധ
ആ ദായ
ഉ ത്സവ
ഏ ഷ്യ
ക േട്ട
ക ച്ചവട
ജ െ ഡ
ന മാണ
ന ോമിന
പ ള
പ ിഴ
പ റമ്പ
മ ൺ
യ മന
റ േഷൻ
റ ൗണ്ട
ല ോറ
ു വിട
ു സ്തക
ൂ  എന്നാണ് 
ൈ ബര
ോ '
ോ ത്ത്
ർ ത്ത്
ൾ സർ സുന
ക്ക െ 
ി  ഇന്ന്
 ക പില
 ക സേര
 സ മ്പ്രദായ
ട്ട ി നേതാക്കള
പ്പ ൻ
 മ തി 
വി ശ്രമ
വി ഷൻ
വി ശുദ്ധ
രു ത്
 ഇ സ്രയേല
 ച ിഹ്
പ്ര ിന
പ്ര ന്റ
 ഉ ത്
 ജ ംഗ്
ുമ ില്ലെന്ന
തിര ികെ 
ുവ ിന്റെയ
ിവ ുഡ
ിന്ന ൽ
് പ ൊലീസ
ം ക ടുപ്പ
ാർ ഹ
ാർ ക്ക്
ം ന ീട്ട
ം ന േതാക്കൾ
 ഡ ിസിസി
ാക ില്ലെന്ന
 സ്ഥ ാ ന
 ഫ ൈസ
തി  ര
മര ം കര
മര ്യാദ
വേ റ
ി. ,
 അദ്ദേഹ ം പ
് സ ന്ദര
 അവ യുടെ 
ുകളില ാണ് 
ി ജ ോർ
യ്ക്ക ുള്ളില
ോട്  ആവശ്യ
കാര ിയായ
ം സ ുര
 രണ്ട ് സ
വാദ ങ്ങള
 ഇന്ത്യ -
ം ഇ ൻ
ഭി മുഖ്യ
 മുന്ന ിട്ട
െ ത ട
ഇന്ത്യ യെ 
 രാജ്യ സഭയില
ിയിൽ  നിന്നുള്ള
െ ആ ളുകള
 തീരുമാന ം എടുത്ത
ജ് 

 പെ ർ
 വയ ോധ
 വയ സില
 രാജ ിവയ്ക്ക
 ട്ര ാവ
ധ്യക്ഷ ന
 മണ്ഡല ങ്ങളിൽ
ാഥ ് 
ം വി വാഹ
എസ്  എഫ് ഐ
 ചിത്ര ത്തിന്റെ 
യുണ്ട ാക്ക
ം ചെയ്ത ത്
മെന്റ ിന്റെ 
ഫല ങ്ങള
 ഗു സ്തി 
 അനു ഗ്രഹ
 യാത്ര യ്ക്ക്
ം ലഭ ിച്ചിട്ടുണ്ട
പിന്ന ില
 അട ഞ്ഞ
ത്ഥികള ില
പ്രദേശ ത്തെ 
ുണ്ടായ ാല
 ജോല ി
ത്തോട െ പ
 സി ഇഒ
 ഇതു മായി ബന്ധപ്പെട്ട
രാജയ പ്പെടുത്ത
കുട ിയേറ്റ
 കൊവിഡ്  ബാധ
സാധ നങ്ങള
ം ഏ ഴ
 ആരോപണ ം ഉയര
പ്യ ാര
 എല്ല ായിടത്ത
ഇക്കാര്യ ങ്ങള
ജോല ിക്ക്
 ഇതിന ായി 
ച്ചയ ായിരുന്ന
 രംഗത്ത ുവന്ന
 നോക്ക ിയ
 കാ ഞ്ഞ
അഭി സംബോധന
് കേസ ുകൾ
 പാ ച്ച
 നിയമസഭ യിൽ
പെട്ട െന്ന്
 റിപ്പോർട്ട ിൽ പറയുന്ന
 ചികിത്സയില ുണ്ട
വേദ ിയില
 ബിജെപി  സ്ഥാനാര
പ്രതിരോധ ത്തില
അമ്മ യുടെ 
ം രാശ ിക്കാർക്ക്
 അഡ ീഷണല
 വഴിയ ാണ് 
ിക്കണമെന്ന്  ആവശ്യപ്പെട്ട
 ഹാജരാ ക്കിയ
 ഭൂമ ി 
എല്ല ായിടത്ത
ി നേട ിയത
 പ്രിയങ്ക യ
വഹ േള
പൂ ഞ്ഞ
 ഓട െ 
 വൈറല ായിരുന്ന
ം വാങ്ങ ാന
ത്തിക്ക ാട്ട
 അധ്യാപ കന
 അക്കൗണ്ട ുകള
ം മുമ്പ ് 
 കൊല്ലം  ജില്ലയില
 ചൂണ്ടിക്കാണ ിച്ച
 അത്തര ത്തില
പ്രമുഖ ര
 സ്വാതന്ത്ര്യ  സമര
 തൊഴിലാള ികൾ
സഭാ തെരഞ്ഞെടുപ്പ ിൽ
ി ച്ച  ത
ഇടുക്ക ിയില
ഷ്ഠ ിത
ഓഫീസില േക്ക്
 എന്നിങ്ങന േയ
ിന്റെ അടിസ്ഥാന ത്തിൽ
ഏത ൊരു
രാവ ൂര
ി യു  ട
വിര ാട് ക
 പ്രവൃത്ത ി പരിചയ
 പരാതിയ ുമായി 
 അതിക്രമ ങ്ങള
 പാട്ട ീല
െ വൈ ക
സോസിയ േഷൻ
ചേർ ന്ന
 ഐപിഎ ല്ലില
ം പുന ഃ
ഡിവൈ എഫ്ഐ
 സ്ഥിതി  ചെയ്യുന്ന
 സൂ പ്രണ്ട
 ഫോട്ട ോഷൂട്ട
 ചുരു ങ്ങിയ
് ചന്ദ്ര ശേഖ
ഹരിയാന യില
 നേരത്തെ പ റഞ്ഞ
ജന്മ ദിന
 ജനസംഖ്യ യുടെ 
ലക്ഷണ ങ്ങൾ
 നടപടിക്രമ ങ്ങള
യ്ത ീന
െഡ്യൂ ള
 ക്രൈ സ്തവ
 ബയോഡ ാറ്റ
 കൂത്ത ുപറമ്പ
ൊവിന ോ
രിക്കൊ മ്പന
' 

,  തിരുവനന്തപുര
അ ദാന
അ മിത് ഷാ
ആ ഡംബര
ഇ ള
ഉ ച്ചയ്ക്ക്
എ .

എ ത്തുന്ന
എ ം എല
ഏ ജൻസ
ഗ വേഷണ
ജ ാമ്യാപേക്ഷ
ഡ ോര
ത ാണെന്ന്
ത ാമര
ദ ള
ധ ന്യ
ധ രാത്ര
പ ിക
പ േയ
ഫ ർ
ഭ രിച്ച
മ ന്ന
മ േക്ക
യ ലുകള
റ സ
റ ായിരുന്ന
ഷ ര
ഷ ത്തിനിടെ 
സ ദ
സ ്ട
ാ ന്തര
ി ‍
ി ങ്ങനെ 
ി !!

ു ു
ു  നല
ു തിയില
ൂ രി
ൗ ർ
ൻ മാർ
ർ ട്ട് 
ക്ക െടു
ില ായിരുന്നു
 പ കർ
 പ ശ്ചാത്തലത്തിൽ
ി  കര
ി  ദേശീയ
ി  രാഷ്ട്രീയ
 ക ിഴ
 സ രി
 വ രാ
 വ യ്ക്ക
 വ രാൻ
ട്ട ികളില
 ന ിന
്ര ണ
പ്പ ിച്ചിരുന്ന
ം  ഖ
ങ്ങ ോല
ായ ിട്ടുള്ള
 മ േജ
 മ െ ന്ന
 അ ബ
ുക  എന്ന്
ാണ്  ആദ്യ
ിക യാണ് 
 എ  എ
ക്ഷ ീണ
 ഇ ന്ദ്ര
 ച ു
 ച ിത
 ച ങ്ങനാശേര
ുണ്ട ് 
പ്ര േര
പ്ര ണ്ട് 
 വി ചിത്ര
ിന്റെ  ഈ
യില ായിരുന്ന
 സ് പ്ര
ിപ്പ ിക്കുകയാണ
ുമ ോര
ങ്ക ണ്ട
തിര ിയ
ാക്ക േജ
മ്മ ൂക്ക
ിക്കുന്ന ു
ോണ ിക്
അത ൊന്ന
 യ െ
 പറഞ്ഞ ാൽ
ാർ ,
ാർ ത്ത
ാൻ ,
സര ണ
ങ്ങൾ  നൽക
ുപ ത്ര
ദ്ധ ിക്ക
 ഗ ൊഗോയ
ാത െ മ
ാമ ിന
ി ക മ്മ
 ട ൂര
 ട ി പ
 ട ിപ
തു  കൊണ്ട
തല യില
 സ്വ ീകരിച്ച് 
ത്തിന ിടെയാണ് 
 ആര ുടെ 
ം അ ല
 ഏ വിയ
 കൊ ടുത്ത്
 നി സ്സ
ിയത െന്ന
 അവ യവ
ി വ യ
 നില നിൽക്ക
മന്ത്ര ി പ
ക്രമ ങ്ങള
ക്രമ ക്കേട
പ്പെടുത്ത ണ
 തുട ർച്ചയായ
 കാര്യ ങ്ങളിൽ
ജില്ല യുടെ 
ജില്ല കളിലെ 
 പൊ ളിച്ച
ശന മായ
ഴിയ ുന്ന
 യു എസ
 ഷ ോട്ട
ുകൊണ്ട ുവര
ി പ്ര തിനിധ
ാണ് പ ിട
െക്ക ന
 ആവശ്യ പ്പെടുകയ
 വേണ്ട ത്ര
 കേസ െടുക്ക
ാണ് അ ഖില
 ജന പക്ഷ
 ജന ക്കൂട്ട
വിജയ ന
ൊക്ക െ ച
െ വ െല്ലുവിള
െ വ െറുത
 വേ ട്ട
 ശതമാന ം
 സ്ഥാന വ
പ്രതി മാസ
േർ ട്ട
ാക്കിയ ാല
 പര മ്പരാഗത
ംപ േര
 പെ രിയ
ിപ്പിച്ച ിരിക്കുന്നത
 പോക ുന്നവര
 മാറ്റ ിയ
 പുറത്ത ുള്ള
15 4
15 7
ലക്ഷ ന
 ആശുപത്ര ിയിലേക്ക്
 ശക്ത മായിരുന്ന
 മന സ
ഞ്ചായ ത്ത
 ചില വഴ
 ചിത്ര ീകരണ
എസ് സില
 നേതാക്കള ായ
ായിരിക്ക ുമെന്ന്
ൈല റ്റ് 
 നടത്തിയ െന്ന
 പ്രവർത്ത കർക്ക
 യാത്ര യ
ം ലഭ ിച്ചിരുന്ന
 എന്നിവ യ്ക്ക്
 മോദ ിയ
 വന ം വകുപ്പ
ത്തിലാണ്  ഈ
ിട്ടുള്ളത െന്ന
ി ഇ രു
 സി റിയ
 ചികിത്സ യ
പോ പ്പ
രാഹുല ിന്
 ചോദ ിച്ചത
 ജയ രാജന
ിച്ച് പ ോക
 ബി ജെ പ ി സംസ്ഥാന
തിനാല ാണ് 
 ക്ല ിക്ക്
അവ ൾ
ഡ് ജ് 
 സാമ്പത്തിക  വർഷ
ിമാ ൻഡ് 
 വിദേശ ത്ത് നിന്ന
ശ്ചാത്തല ത്തിലാണ് 
 കമ്പന ിയില
 ശര ത്
 വീഡിയോ യിൽ
 പേ രാമ്പ്ര
 രക്ഷ പ്പെട
 കണക്ക ിന്
 പൊതു സമൂഹ
സ്വന്ത മായി 
കൊവിഡ്  വ്യാപന
പ്രസിഡ ന
മേയ ര
ിനെ പ രി
ിച്ചിട്ട ില്ലെന്ന്
ാവുന്ന ില്ല.

 സ്ഥാപന മായ
 സന്തോഷ മുണ്ട
 ഇക്കാര്യ ങ്ങള
 പാട ില്ലാത്ത
കൊല്ല ത്ത്
 സജീവ മാണ
ഇര ുന്ന
 ഇടപെട ൽ
് കൂട ിയാണ് 
 പുതു ക്ക
െരു മാറ്റ
വാന ിയ
മേഖല യിലെ 
 മാധ്യമങ്ങള ോട് പറഞ്ഞ
ം അവസാന ിപ്പിക്ക
ശാല കള
 ഊ ർജ
കുഞ്ഞ ാലിക്കുട്ട
 വഹ ാബ
 ഹൈ വേ
ുപട ി നല
ഡെ വല
െ നില പാട
ഇരുവര െയ
 കുറയ ാത്ത
ഷോ യില
ം വൈ റല
ക്കേസ ിലെ 
ബി  ഈ
് കണ്ട െത്ത
 കയറ്റ ുമ
 ഭീ കരാക്രമണ
 എളുപ്പ ത്തില
രാവ സ്തു
ം വെ ളിപ്പെടുത്ത
 തിയ റ്റ
 തക ർത്ത
 രമേശ് ചെന്നിത്തല യ
 രാവില െ പ
 പ്രവൃത്ത ിപരിചയ
മൂല്യ ം 
വിമത ര
 തൃശ്ശ ൂർ
ം തുറ ന്ന്
 ലിറ്റ ര
െ യ ്ത
വിപണ ിയില
 മെച്ച പ്പെട്ട
ലോഡ്  ചെയ്യ
 മില്ല ിമ
 മധ ുര
ം കാഴ്ച വ
വിലക്ക യറ്റ
നേമ ത്ത്
 ചെയർ മാൻ
ാണ് ഇപ്പോഴ ത്തെ 
 സെഞ്ച്വ റ
 ലോകക പ്പില
ഞ്ജു വ ാര്യ
 ചതുര ശ്ര
്യൂണിക്ക േഷന
ma il
ഹാഷ ് വാല
 നിരീക്ഷണത്തിലുള്ള ത് 
  ഞ്ച
)  ആണ
: /
i s
ം റ
അ ഭിനയ
ക െ സുധാകരന
ഗ ിനെ 
ജ ിക്കാര
ജ ാതി
ജ ി പരിഗണ
ജ ൂലായ് 
ഡ ൊ
ഡ െ 
ണ രൂപ
ന ൽ
പ ഞ്ച
പ ത്മ
പ ുരുഷ
മ ജ
മ ില്ല,
റ ൂട്ട
ഴ വ
വ ി ജയരാജന
ഷ െ
ഷ ത്തിന് ശേഷ
സ ന്ദർശന
ാ മാ
ി ച
ു ഷിക
ു വിട്ടത
േ ച്ച
ത് വര
ക്ക ണക്ക
 പ തിനാല
 പ ി ജയരാജന
ിയ ുമായി ബന്ധപ്പെട്ട
ി  തിരഞ്ഞെടുപ്പ
 ക ൂല
 ക നേഡിയ
്യ ൻ
 സ ുകുമാര
 വ ാന
ച്ച .

പ്പ ട്ട
ായ െന്ന്
 അ പ്
 അ പ്പോഴ
ിന്  പുറത്ത്
ിന്  തൊട്ട
ാണ്  മരിച്ചത
ിന ിയ
 ത ക്ക
ിക സ
സ് ഫോടന
ക്ക്  ആ
ക്ക്  സര
 പ്ര ദർശ
ിരുന്ന െങ്കില
 ആ വിഷ
 ഇ ടക്കാല
ുന്നത െന്നാണ് 
 വി ശ്വാസം
ുകള െയ
 ബ ോറ
 ജ ൂ
 ജ െയ
 ജ ാസ്മിന
മ്പ ട
മ്പ ർ
ിവ ച്ചത
 ര ഞ്ജ
 ല ഹരി
 നട ിയുടെ 
സം ഖ്യാ
തി ൻ്റ
 മു ഹ
സി  പറഞ്ഞ
ൂട ്യൂ
കള െയ
ുര സ
ുപ ോ
 റ ിജ
 റ ംസാന
യ് ക്കുന്നത്
ം ന ാട
ത്തിന്  ഇര
ിയുടെ  നിര
ം പ ട
ം പ ൂ
് ന േരിട്ട
് ന ഗരസഭ
 ഹ ാന
ി അ ടിച്ച
ി സ െല
 ഈ രാറ്റുപേട്ട
 വെ ളള
ം ത ര
ം ത ങ്ങള
ഷ്യ ാലിറ്റ
ി ജ ോസഫ് 
പ്പെടുത്ത ുമെന്ന
െത്തിയ ിരിക്കുന്നത
ാശ ംസ
 പറയുന്ന ില്ല.

 പിന്ന ോക്ക
ം എ ന്റെ 
നി ത്യ
 ദിവസ ം അ
ുമായ ിരിക്ക
നിര യില
 ബിജെപ ി അ
ിറ ോസിന
ർത്ത ാവ് 
 കേരള ം 
േട ിയത
ം മ റ്റ് 
 രൂപ  കുറഞ്ഞ
ുമെന്ന്  ഉറപ്പ
െ ത െരഞ്ഞെടുപ്പ
 കൂട ി അ
 പങ്ക ുണ്ട
19 1
 കൊണ്ട ുവന്നത
 മുഖ്യമന്ത്ര ിക്ക
 മുഖ്യമന്ത്ര ി മമത
െ വ ാര
 വോട്ട ുകളാണ് 
 തന്ന െ പറയ
വസ ായി 
 സ്ഥാന ത്ത് നിന്ന്
 വിജയ ന
 വിജയ ് 
 വിജയ ് ബാബു
ം പ്ര ചാരണ
 വയ സ്സില
 വാ ക്
15 1
15 9
സംഘ ം 
12 1
് ആ ക്രമ
േന യ
 ട്ര ാ
ി വി വിധ
ം നടത്ത ുന്നത്
െ കുറ ിച്ച് ക
ം വി മര
ധന സഹായ
 ചിത്ര ം 
 തല സ്ഥാനമായ
ിക്കുന്നത്  എന്ന്
 പുതിയ ൊരു
14 6
അതിന ിടയില
 ഇല്ല െന്നാണ് 
 ഇത്  സംബന്ധിച്ച് 
13 3
13 9
 കുട്ട ികളെ 
 പ്രസിഡ ണ്ട് 
 ചര ക്ക്
 ഇറ ക്കിയ
 ഉള്ള ില
കോട തിയെ സമീപ
 വളര െ നല്ല
 താര മാണ് 
ിന്റെ പ രാമര
ക്കെതിര െ അ
പ്പറ േറ്റര
ിസി സി 
സർ ക്കാരിന്
മരണ പ്പെട്ട
 കൊവിഡ്  രോഗ
എൽ ‌
ം സ്വദേശ ിനി 
 കെ എസ്ആര
മറ ുവശത്ത്
 വെള്ള ക്കെട്ട
 കോടതി  ജഡ്ജ
് പോ സ്റ്റ
 വിട്ട ുകൊടുക്ക
 ചർച്ച യിൽ
ക്കെതിരെ  കര
 അഭിപ്രായ പ്പെടുന്നത
ി നട ത്തുന്ന
ട്ടുകള ുണ്ട
 ബാല ഗോപാല
 നാട്ട ിലെത്ത
മാത ാവ് 
് റ ാല
 പ്രായ പൂര
മായിട്ട ായിരുന്നു
പ്രത്യേക ത.

 തൃശൂര ില
ടി  രമേശ
 വയസ്സ ിന് മുകളില
 റഷ്യ യുടെ 
വുമ െല്ല
 തീയ തികളില
 സിപിഎമ്മ ിന
 വിശ്വസ ിക്കാന
പട്ടിക ജാത
ജീവന ക്കാർ
മലപ്പുറ ത്ത്
 വോട്ട്  ചെയ്യാന
 വൈറല ായ
സോ ഷ്യൽ മീഡിയ
 കള്ള പ്പണ
െ നി ശ്ചയ
പത ോള
 നിരോധ നാജ്ഞ
 ആശയ വിനിമയ
ം കിട്ട ിയ
 യുപ ിഎ
 അടച്ച ിട്ട
സാധ്യത കള
 ശരിയ ാണ
 എന്നിവയ െല്ല
ോ  ?

ം വിള ിച്ച് 
കരുത ൽ
 ഉറപ്പാക്ക ണ
 ജനത ാ
ം ഉപയോഗ ിച്ച് 
 ഹർജ ിയിൽ
ക്കത്ത :
ില്ലേ ങ്കിൽ
വാണ ിജ്യ
ം തുറ ന്ന
 ഡിഎ ം
 കത്ത്  നല
 ചുവ ട
താത് പര്യ
 ഒരുപോല െ 
ലമെന്റ്  മന്ദിര
 ഉയ ർന്ന്
ി ക്കു  ന്ന
 മോട്ട ോര
 അതിഥി ത ൊഴിലാളികള
 രോഹിത്  ശര
ത്തിനിര യായ
തിങ്കള ാഴ്ച്ച
 ബ്രാഹ ്മണ
ht t
ഫ്രാസ ്ട്ര
വരാജ് ബ ൊമ്മ
ആകെ എണ്ണ ം 
  ?
  c
  ന്യ
  മാണി സി കാപ്പന
,  ഡ
. or
ആ ക്ട
ക െ സുരേന്ദ്രന
ഗ തി 
ഗ വണ
ഗ സ്റ്റില
ട ോബ
പ െയിന
ബ െല
ഭ ോഗ
റ ിപ
വ ന്ത
ശ ിപ്പിക്ക
ഷ ായ
സ ീര
സ ിന് 
സ ർക്കാറ
ു ൾ
ക് വാറ
്‍ ?

ത്ത ുമ
ത്ത ിക്കുന്നുണ്ട
ത്ത ിവച്ച
 ക സ്റ്റ
 ക യ്യില
ുന്ന ുവെന്ന്
 സ ോമ
 വ ി ല
ിക്ക ണ്ട
 അ മിത്
ാര സ്യ
ുക ാട്ട
 ത ി 
 ത ാവള
ക്ക്  പുറമ
ിരുന്ന ത്
ാല ിദ
സ്  ഇന
 ച ിട്ട
ത്തില ോ
ത്തില െ അ
ത്തില േക്കുള്ള
പ്ര തികളുടെ 
ോട െ ന
ോട ുകൂട
 ഉ മ്മൻ ചാണ്ട
 ബ ീന
 സ് പെഷ്യല
ുവ ാനുള്ള
ുകയ ുണ്ടായ
 ഒ ബിസ
ത്ത് 

 എന്ന  പേര
 എന്ന തിന
എന്ന ിവിടങ്ങളില
ന്ത ല
സം വദ
 മാ റ്റവ
സി ൻ്റെ 
സ്റ്റ േ
അത െല്ല
ൂട െയ
രാജ ്യാന്തര
േത ാവ് 
 പറഞ്ഞ ിട്ടില്ല.

 ദ ്രാ
 റ ാങ്ക്
ഞ്ച ൂര
്, '
 ഒരു  വലിയ
ി ക ാട്ട
ി ക ിടക്കുന്ന
ാക ട്ടെ 
 ട ാസ്ക
ത്തിന ായി പ
േയ ൊരു
ിക്ക്  സമീപ
ഒരു ക്ക
ഒരു പക്ഷേ
 നിര പരാധ
തുട ർച്ച
 സാധ നങ്ങൾ
ിറ്റ റ
ാഹ ിത
് അ ൽ
 ഈ  സംഭവ
 ശ്ര ീലേഖ
 ഉണ്ട ായിരിക്കണ
 ശേഷ മായിരുന്നു
 പു ല്ല
 പു നല
ിച്ചു  .

 കാര്യ മാണ് 
ാശ ുപത്ര
.. !

 കേന്ദ്ര  ആഭ്യന്തര മന്ത്രി അ
ഴിയ ുന്നത
 ചെയ്യ ുമെന്ന്
 അത ൊരു
ർത്ത ന
ുവര ികയാണ
െ ത ാല
ൊക്ക െ പറയ
 എത്ത ിച്ചെങ്കില
 വേ ണമെന്നാണ് 
 വോട്ട ർമാര
 ശതമാന ം ക
 വിജയ കര
കേരള ത്തെ 
എന്നാൽ  ഇപ്പോൾ
ൊന്ന ുമില്ല.

 ഇത ൊരു
 ഇത ോടൊപ്പ
15 2
 മേഖല യ്ക്ക്
സംഘ പരിവാര
ത്തിലെ  പ്രധാന
ി വി മാന
ി വി മര
 നേതാവ ാണ
ം ഉണ്ട െന്ന്
ം മു ട്ട
 വിഭാഗ വ
സംഭവ ം നടന്നത
 കൈ പ്പറ്റ
 കാര ണമ
 എന്നിവ  ഉള
മുന്ന ോട്ട് പോവ
ന്നു 

കോ ഡ് 
 എത്തിയ വര
 എത്തിയ ിരിക്കുന്നത
സ്പ ോര
പ്രതിക ാര
രക്ഷ ിതാക്കള
 മാധ്യമ ങ്ങളിൽ
ദില്ല ിയിൽ
ാപ്പ ിഡ് 
ിന്റെ പ ാര
ിന്റെ പ ശ്ചാത്തലത്തിൽ
ക്കെതിര േയ
ൗണ്ട റിയ
 മണ ിവര
 എന്നത ായിരുന്നു
 ബി ഹാര
ി ഡ ി പ
് ഇ പ്പോള
 കൊവിഡ്  വ്യാപന
ഉത്തര േന്ത്യ
 സംസാര ിച്ചത
 അര വിന്ദ
കാന ാണ് 
 പരിപാട ിയുടെ 
മാധ്യമ  പ്രവര
ാ  ൻ
പ്രതിപക്ഷ  പാര
െ കാണ ുന്നത
 അവകാശ മുണ്ട
ഉപയോഗ ിക്കുന്ന
ഗിക  വെബ
 സമൂഹ ത്തിന്റെ 
പ്രതിഷേധ ക്കാര
 പ്രചാരണ ങ്ങള
 എംപ ിയ
വ്യാ ഖ്യാന
ാവാ ൻ
ഗണന ാ
 ചികിത്സയില ുള്ളത
വ്യക്തമാക്ക ുന്ന
ിക്കാത്ത ത
 കോവിഡ ് പോസിറ്റീവ
കണ ക്ക്
 അഭിന ന്ദന
 ഉന്നയ ിക്കുന്ന
ിനെ ക ൂട
 മുന്നണ ിക്ക്
 തുടക്ക ത്തില
ി അംഗ ങ്ങള
റഷ്യ യില
 ഹോട്ട ലുകള
 ആഴ്ച യില
ഭാഗ്യ ലക്ഷ്മ
 അക്രമ ികള
ം സംഭവ ിച്ചത
വഹ ിക്ക
ശാസ്ത്ര ജ്ഞര
 സ്വീകര ിക്കുന്നത
ുന്നു  എന്ന്
ം കോട തി 
 കേസിലെ  പ്രതികള
 വിക ാസ
 കൊടുക്ക ാന
െ അറസ്റ്റ്  ചെയ്യ
 സ്വദേശിന ിയായ
തയ്യാറ ാക്കിയ
ാ യ ി രു ന്ന
 വധ ശിക്ഷ
് ആണ ് 
യിലൂട െയാണ് 
പ്പര ്യമ
ശനിയാഴ്ച ്ച
ീന്ദ്ര ന
 ശോഭ  സുരേന്ദ്രന
 അപ്പ ുറത്ത
ചെല വഴ
ണവില യില
 സഹിത ം 
 സ്ത്രീയ ുടെ 
 വിശദീകരണ വുമായി 
 അംഗീകാര ം നല
ക്രൂര മായ
വിമർശന വുമായി 
 ഛ ിന്നഗ്രഹ
ാകു മ്പോൾ
് മണ്ഡല ത്തില
 എനിക്ക റിയ
റസ്റ്റില ായ
ജെഡിയ ു
 ഇംഗ്ല ണ്ട
 ശുച ീകരണ
 ഗുണ്ട ാ
 നടക്കാന ിരിക്കുന്ന
ഗ്രസ് നേതാവ്  രാഹുല
 മാറ്റം വരു ത്ത
 ക്രിസ്ത്യ ന
 ഹൈക്ക മാന്റ
 സീന ിയർ
 എ ഐ  സി സ
ക്കോട്ട ിക്
സ്റ്റഗ്രാമ ില
എസ്ഇ ബ
ംആദ്മ ി പാര
 മാങ്ക ൂട്ട
ോഷി അഗസ്റ്റ ിന
.or g
  ന്ധ
)  എന്നിവയ
)  എന്നിവരാണ് 
- 

. com
2 24
u l
അ ടുപ്പ
ആ ശ
ഈ  
ഗ തികൾ
ജ േഷ
ജ യ്പൂര
ട ി ജ
ത യെ 
പ ോർട്ട് 
ഫ ിറ്റ
ഭ ഗവ
മ ക
മ ില്ല

മ െയിൽ
ര േവ
റ യു
ഴ ുക
വ ോ
ഷ ത്തിനിട
സ ുമ
സ ിയായ
ഹ രണ
ൈ ഫ
ന് മാർക്ക
ന്ന ിരിക്കുന്നത
ക്ക ക
ക്ക ൊന്ന
 പ ടക്ക
 സ ിൽ
 സ ണ്ണ
 സ ായുധ
 സ പ്പോര
 വ ി എ
ട്ട ോകോള
ിര ട്ട
 ന ിത
പ്പ ർ
ങ്ങ ് 
 മ െന
 അ ം ഗ
ാര ദ
ുക ൊ
 ത ാങ്കൾ
റ്റ േ
റ്റ ുകൾ
 എ ബ്രഹ
 എ ഡിജിപ
ങ്ങള െ അ
ക്ക്  കാരണ
ക്ക്  ഇത്
 പ്ര ഥമ
 ആ പ്പ് 
െന്ന ുള്ള
 ച ാവ
ുന്നത ായ
ുണ്ട െങ്കിൽ
 വി ള്ളല
ിട്ട ുളള
ിട്ട ില്ല,
യില ോ
 ജ ാര
 ജ ിയോ
ങ്ക ാല
ുവ ൈറ്റ
 പറ മ്പ
മ്പ ഴ
ാവ സാന
ദേശ ിച്ചത
 എന്ന ാണ് ക
മാന ുസൃത
ിക്കുന്ന  സാഹചര്യത്തില
ിട െക്
തി ജീവ
് പ ാസ
ം ക ണ
ക്ത ീകരണ
 പറഞ്ഞ തായി 
 റ ഷീദ
ദ്ധ ്യാപ
വർ ,
ാത െ എ
ത്തിന്  വഴ
 ഒരു  രാഷ്ട്രീയ
ിലെ  ചില
ം വ ഷള
 ഭ ദ്ര
 നിന്ന ായി 
ത്തിന ായ
 ഫ ്ള
 ഫ ിഷറീസ് 
പ്പെട േയുള്ള
ം അ വർ
ഒരു  വർഷ
 കൊ ട്ട
ാൽ  
സ്വ ീകര
ോപ ദേശ
 ഈ  
ി വ ള
ിപ ൊള
െ സ ന്തോഷ
യ്ക്ക്  എതിര
 തുട ർച്ചയായി 
െത്തിയ വര
േറ്റ ീവ
 കേന്ദ്ര ത്തിന്
ം സ ത്യ
സംസ്ഥാന ങ്ങളിലെ 
 ഷ ാഫി പറമ്പില
 വലിയ  ചര
ം ഇ ഷ്ട
ാണ് പ ാല
ാണ് പ ുറത്ത്
ി ത ൊഴിലാളികള
 കേരള  കോൺഗ്രസ് 
് ത ോല
 ആവശ്യ മായി 
ീന ാഥ
ാണ് അ റസ്റ്റിലായത
െ വ െട
 നടത്ത ുക.

െ ആ ക
േർ ട്ട് പ്രഖ്യാപ
 തീരുമാന ിക്ക
ജി ഹാദ
 എല്ലാ  കാര്യങ്ങള
15 5
 മറ്റ ൊന്ന
 മറ്റ േതെങ്കില
ാണ് സ മര
12 3
െ കുറ ിച്ച് പറയ
ം വി ദേശ
് പ്ര കട
 കൈ മാറ്റ
 നേതാക്കള ില
ി ബ ി ജെ പ
ോബ ല
 കുട്ട ിയെ 
 സമര ങ്ങള
 ഏറ്റവ ുമധിക
ുന്നതിന്  പകര
േദ ിവസ
അദ്ദേഹ ം പറഞ്ഞ
കേന്ദ്ര സർക്കാർ
ജീവിത ത്തിലേക്ക്
ക്കുന്നത ില
പ്പറ േറ്റ് 
ിസി ആർ
നാട്ട ുകാർ
 വീട ുകളിൽ
 പ്രതീക്ഷ ിക്കുന്നത
് കു ന്ദ്ര
പ്ല േ
ത്തെ പ ോല
 മരണ ത്തിന്
 മരണ പ്പെട്ടത
ഡിഎഫ്  സ്ഥാനാര
ുമാണ ് പ
 ആരംഭ ിക്കുന്നത
അടുത്ത  
 പൊലീസ്  ഉദ്യ
 നല്ല താണ
 ക്ല ാസില
മത്സര ിച്ചത
വീട ിന
തന്നെ  ഏറ്റവ
 മൂന്ന ാമത്തെ 
 മഹ ിളാ
 സമ്പർക്ക ത്തിലൂടെയാണ് 
 താഴ െയാണ
ഇത്തവണ ത്തെ 
ഓരോ  ദിവസവ
 രംഗത്ത ുണ്ട
ക്കട വ് 
 കണ്ടെത്ത ല
പ്രഖ്യാപ ിച്ചത
വിശ്വാസ ്യത
ി പരി പാട
 ആലപ്പുഴ യില
ക്കുള്ള ിൽ
വളര െ അ
ി സ്വ ീകരിച്ച
സ് അ റിയിച്ച
ക്കൊപ്പ ം 
ത്തേ ത്
ം റ ോഡ
 യൂണ ിഫ
 അടിസ്ഥാന മാക്ക
 മൂല മാണെന്ന്
 വാഹന  വകുപ്പ
 അദ്ദേഹം ക ുറ്റപ്പെടുത്ത
ിനെ ക ൊണ്ട
 വഴിയ ുള്ള
 തസ്തിക കള
 ചെ ക്ക്
 പ്രസ്താവന യിൽ
ം ആയ ിരിക്ക
 ക്ഷേത്ര ത്തില
 സന്ദേശ ങ്ങള
സിപിഎമ്മ ിന്
ക്കാലിക മായി 
എന്നിവ യ
 അനുവദിക്ക ില്ലെന്ന്
 കാര്യമ ല്ല.

 തിരുവ മ്പാട
ത്തകന ായ
 ഭാഷ യിൽ
 ഒരുങ്ങ ുകയാണ
 വ്യത്യസ്ത മായി 
ഗ്ല ൂരില
ായാണ്  വിവര
പ്രിയങ്ക യുടെ 
ം നഷ്ട മായ
വസര ങ്ങള
 കമ്പ നിക്ക്
് നി ങ്ങള
പ്രകടന  പത്രിക
 സമ്മത ിച്ച
ചെ ങ്ങ
 ട്വീ റ്റ് 
 ചെലവ ുകള
 ഒക്ടോബ ർ 
 ചിര ാഗ
ത്തരാ ഖണ്ഡ് 
വ്യാപാര ികള
 ഫാ ക്ടറ
ിക്കാറ ുള്ളത
 കൈക്ക ൂല
 പ്രോ ത്സാഹ
നെയ ്യാ
് കാര ്യമ
ലെ വല
െ മുന്ന ോട്ട
ഭിണ ികള
കേ വല
 പ്പെ  ട്ട
 പ്പെ  ടു
രുണാ ചല
 ആത് മാർത്ഥ
 അനുപ മ
ദേവസ്വ ം ബ
 അത്യാവശ്യ മാണ
സാമ്പ ിള
ഫേസ്ബുക്കിൽ  കുറിച്ച
 പ്രവണ ത
 ഹോട്ട് സ്പ ോട്ടുകള
ി ഹാജ രായ
:/ /
0 48
ം  പോര
അ ട്ട
ആ റില
ഈ  കേസ് 
ഉ മ
എ ടുത്ത്
എ ഡിറ്റ
ഒ രോ
ക ാറില
ണ ബ
ണ ബ് 
ത േജസ്വ
പ ിയുടെ 
ഫ ർമ
ല ുക്ക
ഷ ത്തിനുള്ളില
സ െടുത്ത
സ ി ജോസഫ
ഹ യര
ൂ റ്റ
ൈ ജ
ക്ക ുവ
ക്ക ായിരുന്നു
ക്ക ായുള്ള
ത്ത ിവെച്ച
 പ ാത്ര
ി  രണ്ട
 ക വ
 ക ായ
 ക വർ
മാ ന്റ് 
 സ ് 
 വ ിക്കറ്റ് 
ട്ട ിന്റെ 
 ന ഷ
്ര സ്വ
 മ േര
 മ ട്ടില
 മ ംഗല
 അ മല
 അ സാധാരണ
ാന ിട
 ത ക്കാള
 എ ക്സിക്യൂട്ടീവ
സ് മാര
ക്ക്  പിന്നില
ക്ക്  കോവിഡ് സ്ഥിരീകരിച്ച
 പ്ര ാർത്ഥ
 ആ ധാര
 ആ രാധനാലയ
 ഇ സ്രായേൽ
പ്ര തിനിധികൾ
ിന്റെ  പ്രവര
ിന്റെ  മകന
വാ ട്
 ഉ ത്തമ
 ബ ിസി
 സ് വി
 ജ ൂലായ് 
ിപ്പ ള്ള
ിപ്പ ിടിച്ച
ങ്ക ു
ാവ ്യ
ാവ ുമെന്ന്
ോഗ സ്ഥ
ത്തിയ ുള്ള
 ല ിബ
 ല േറെ 
 ല ളിത
 എന്ന ിട്ട
മു ഴ
 മാ ഹ
് പ ന്ത
് പ ൂട്ട
സ്റ്റ റ
അത ിലൂടെ 
 യ ാദ
 യ ി ൽ
ാൻ  സഹായ
ങ്ങൾ  എന്നിവ
ത്തെ  തള്ള
 ഗ തിയില
ം ന മ്മള
ിലെ  ബ
് ന ിയന്ത്ര
യുടെ  ഭാഗമായി 
 ഭ ീമ
ണമ ുള്ള
വീ ശ
 ഫ ിറ്റ
 ഫ ോമ
 ആര ാണെന്ന്
ന്റെ  പേര
ി അ നില
 നി ഖില
ഗ്രസ്  വിട്ട
ിമ ിര
ി വ  ര
മന്ത്ര ി എ
 ഉണ്ട െന്നാണ് 
മേ ധാവി
കാര ികള
െത്തിയ പ്പോള
ജില്ല കള
 രണ്ട ാമത
ാണ് ക ോവിഡ
ഴിയ ാന
ം ആ ക
 നിയമ പരമായി 
 അന ിത
 തെ രുവില
ബിജെപ ി നേതൃത്വ
ാണ് പ ൊലീസ
് വ ഴിയ
ി ത ില
ടുക്ക ള
 രൂപ യായ
ുന രു
 വേണ്ട .

മല  സീതാരാമന
 രാജ്യ ങ്ങളിലേക്ക്
ി മ ത
ി മ ിന
സഭ യിൽ
 ആയ ി ഉയര
ണക്ക ട
 നടത്ത ിവര
 ശതമാന ത്തിന്റെ 
ുന്നതിന ിടയില
ോൺ ഗ്രസിന
േണ്ടത െന്ന്
 വാ ഷ
ാണെന്ന ു
 ഐ എ
ി ഉ യർത്ത
ി ച ാക്കോ
 ആരോപ ിച്ചത
 കട ക
വിള ിച്ചു
സു ന്ധര
 വിഭാഗ ത്തിന്
 മാസ ങ്ങളില
ി വര ികയാണ
മത ില
 കള ിച്ച
 എന്ത ിന്
 എം കെ 
 അട ിച്ചു
വൈ കുന്നേര
 പ്രഖ്യാപ ിക്ക
 പരിശോധന ാ ഫല
 നാല ിന്
 ലീ ഡ
 ഉപയോഗ ിക്കുന്നത
കേന്ദ്ര ത്തില
ജീവിത ത്തെ 
 വിള ിക്കുന്ന
 താര ം 
മറ്റ ൊരാള
 കല ക്ടർ
ിന്റെ അ ന്വേഷണ
സെ ക്യൂരിറ്റ
 പ്രധാനമന്ത്ര ി നരേന്ദ്രമോദ
സ്ഥിര ീകരിച്ചിരുന്ന
ത്തെ ക ണ്ട
 സുരക്ഷ ിതമായ
നവ ീകരണ
നാട ിസ്ഥാന
 രാഹുല ിന്
 കെ എസ് 
 കെ എസ
 പിന്തുണ യ്ക്ക
 വെള്ള വ
 ഒരാള ായ
സംസാര ിക്കുന്ന
 ആറ ് പേര
 സംവിധാന വ
 അധികാര ത്തിലെത്ത
ിന്റ െ
റാ ന്ന
 കമ്പന ികളുടെ 
 സംശയ ങ്ങള
 സംശയ മുണ്ട
 തെറ്റ ാണ
ജോല ിക്കാര
ങ്ങളെ  ഉദ്ധരിച്ച് 
ം പരി ഗണിക്ക
മാവ ുന്ന
ണം എന്ന ാവശ്യപ്പെട്ട
ശര ദ് പ
 നാട്ട ുകാർ
തുമ ുന്ന
പു ണ്യ
െ പരി പാട
 എംപ ിയുമായ
 ലക്ഷ്യ ത്തോടെയാണ് 
 ഹൈക്കോട തിയെ സമീപ
സ്ഥല ത്തെത്ത
വിദ്യാ ർത്ഥികള
ം റ ിപ്പോർട്ട
രാത്ര ിയില
നിലപാട ് 
മണ ിപ്പൂരില
 പൂർ ണ്ണമായ
 തദ്ദേശ  തിരഞ്ഞെടുപ്പ
 മനസ്സില ായ
 ചേർ ത്ത്
ഹൈക്കോട തിയെ സമീപ
 പട്ട ാള
 ജാഗ്രത  പുലര
 ടീമ ിനെ 
ി ര ീ
 ഡോള റില
 അവിട െ നിന്ന്
ഭീഷണ ിപ്പെടുത്തിയ
 രണ്ടു  പേര
 ലംഘ ിച്ച് 
 പുരോഗ മന
 നിമിഷ വ
 ബാങ്ക ില
 സാധ്യതയ െന്ന്
 സാധ്യതയ ില്ല.

 പെൺകുട്ട ികള
ിക്കാത െയാണ് 
പത ിവ
അറിയ ിച്ചത
പ്രതിസന്ധ ി 
വിതരണ ം ചെയ്യ
ി പ്രവർത്ത ിക്കുന്ന
ജല നിരപ്പ
 പത്ത്  വര
 റിയ ാദ
നടക്ക ുന്നത
തിരുവനന്തപുരം  ജില്ലയില
 തിരുവ ോണ
ാർഥ ികൾ
 സംവിധ ായകൻ
 പ്രധാനമന്ത്രി നരേന്ദ്ര മോദ ിയുടെ 
ബി  ഗണേഷ
 കരുതിയ ത
 നൂറ ുകണക്കിന്
 പിറ ക
റിപ്പോർട്ട്  ചെയ്ത
 പുറത്തുവന്ന ിട്ടുണ്ട
 കാരണമായ ിട്ടുണ്ട
പ്പറ്റ :
 വസ്ത്ര ങ്ങള
രാഘ വന
 എതി ർ
ം തടയ ാന
ടിപ ിസിആര
ുസ ൈന
 പൊതുമ േഖലാ
മാതാപ ിതാക്കൾ
 പൈസ യ
റിസ ോര
െ ചോദ്യ ം ചെയ്യ
് ഷ ിന
ിമുറ ുക്ക
ി തുറ ന്ന
അഫ്ഗാന ിസ്ഥാന
 കാസർ ഗോഡ് 
 സർവീസ ുകൾ
ഗപ്പ ൂര
പങ്കാള ിത്ത
ബിഷ പ്പ
 ഉത്പ ാദ
സിപ്പാലിറ്റ ി (
 വന്ദേ ഭാരത്
ഉത്തരവാദ ിത്വ
മാഅ ത്തെ ഇസ്ലാമ
 വോട്ടുകളുടെ  ഭൂരിപക്ഷ
 തിക ഞ്ഞ
 ആയി ഉ യർന്ന
 പേരുടെ പരിശോധനാഫലം നെഗറ്റീവ ് ആയ
ഫർമ േഷൻ
,  കൊല്ല
o l
ം  സ്വീകരിച്ചത
അ ംബ
അ ബ്ദ
ഇ ല്ലെങ്കില
എ ,
എ ത്തുന്നത
ഐ  പ്രവര
ഒ ഴിഞ്ഞ
ഒ രിക്കൽ
ക മായി 
ക െയില
ഞ ായറാഴ്ച്ച
ത ിച്ച
ഥ ിയായി 
പ ുള്ള
പ ോക്ക
ഫ ൈല
ഫ ോറന
ബ ്യൂറോ
മ ി 
റ ഫ
ല ാന്റ
വ മായ
വ യില
വ തി 
ശ ിക്കുന്ന
ാ മു
ാ ത്യ
ി ചേര
ി സ്ഥിതിക
ീ ന്ദര
ു ത്
ു ഷ്ട
േ വല
ോ മിക്
ൻ ഷന
ൻ സിക്
ക് ബര
്  സ്വദേശി (
ില ുണ്ട
ത്ത ി പ
 ക ൽപ്പ
്യ ാക്ക
്ച ്ച
 സ ണ
ട്ട ി സ
ച്ച ോറ
 ന േപ്പാള
ിക്ക രുതെന്ന്
പ്പ ൺ
പ്പ ാട് 
ം  രേഖ
ം  മുഖേന
ങ്ങ േയറ്റ
ായ ിൽ
 മ രു
 മ ോള
 മ രിക്ക
 അ ള
 അ ക്ര
ാന ുണ്ട
ാന ാവില്ല.

ിന്  കൈമാറ
ാണ്  നല
 ത ൂ
 ത ൂക്ക
റ്റ ർ
സ് കോ
ക്ക്  വാക
വി ഷ്കര
 പ്ര ാവ
 ആ ൺകുട്ട
 ആ റ്റിങ്ങ
 ഇ മേജ
സ്  പ്ര
 വി ശ്വനാഥ
 ബ ൂത്ത്
 ബ ്യൂറോ
 ജ യറ
 ശ ങ്കര
തിര ിവ
 ഒ രോ
 ഒ മിക്ര
ാക്ക ട
ത്തിയ ായി 
രി ട
ഗ്ര ൗണ്ട
് പ ോവ
ം ക ോൺഗ്രസ് 
 യ ുട
തിയ ാണ
 ദ യന
ി ന ഗരസഭ 
ുപ ടി
ത്തെ  വ
ിത മാക്ക
 ഗ ൂഗിള
യ് ക്കുന്നുണ്ട
ാത ന
 ഒരു  കൂട്ട
 ഡ ിഫ
 ഡ ൊണാള
് ന ല്ല
യുടെ  പേരില
 ഹ ുസൈന
െ ന മുക്ക്
ജയ ിൽ
െതിര േയ
ം അ ധിക
െ അ ധിക്ഷേപ
ി അ റസ്റ്റ് 
േക്ക ാമെന്ന
് അ വകാശ
യു ളള
ം ത ടഞ്ഞ
 ചെയ്ത ിട്ടുള്ളത
ൂർ വ്വ
 സംസ്ഥാന  നേതൃത്വ
ാസ മയ
മൂ ത്ര
 പ്രതി ക്ക്
മേ ഹ
 മന്ത്ര ി സ്ഥാന
ട്ര ീയ
 രണ്ട ിന്
പര വ
ാണ് ക ോവിഡ് 
 ഷ െയര
ഭി ണിയ
് ത ന്ത്ര
 കൂട െ 
കിയ ിരിക്കുന്ന
കിയ ിട്ടില്ല.

കാര്യ ങ്ങൾ
 ആണ ് പ
ോക്ക ോൾ
 വന്ന ിരിക്കുന്നത
 സ്ഥിര ീകര
ജി പ്
മാക ുന്നത്
കുട്ട ികളെ 
 വകുപ്പ ുകളുടെ 
 മേഖല യിലേക്ക്
 ഐ സിഎം
ശ്ച ല
മന ോ
 പദ്ധ തിയിൽ
 മന ോര
 ഒന്ന ിലധിക
 സർ വീ
 സർ ട്ടിഫിക്കറ്റ് 
 യോഗ ങ്ങള
ം ചെയ്ത ു
ലോക ക
14 7
 കള ിക്കാന
 കാര ാട്ട
 മണിക്ക ുട്ട
ിങ ് പ്ര
 അട ിത്തറ
തീരുമാന ിച്ച
ഗു സ്തി 
 കുട്ട ികൾക്ക്
16 9
ഒന്ന ിലധിക
സ്വാ സ്ഥ
സെ റ്റ
ീമ ിയ
 സഹായ ം നല
ജില്ലാ  ഭരണകൂട
 പ്രതീക്ഷ കള
 അയ ൽ
് ഇ ര
 ജയ ിച്ചത
നാട ന
ത്തു  നിന്ന്
 കോവിഡ്  വ്യാപന
 കോളേജ ുകള
മറ ു
ിൻ്റ െയ
 ഒരാള െ 
ചന്ദ്ര ൻ
 എസ്  എസ
 ആറ ള
 നഗര സഭയില
ഡി ആര
നിർ ണായക
വാള ിറ്റ
മാണ് ക േന്ദ്ര
 നിലയില ായിരുന്ന
ാഞ്ച ൈസ
ചോദ്യ ം ചെയ്തത
 ആഗ്രഹ ിക്കുന്നത
സ്ഥാപ ിച്ച
ം കൊണ്ട ുവന്ന
ഓരോ രുത്തര
 വിവാദ മായ
ലൈന ായി അപേക്ഷ
 എല്ലാവര േയ
എൻ ട്ര
ഇറ ങ്ങിയ
ിറങ്ങ ുന്നത
 നെ തന്യ
 അവസ്ഥ യ
ഏഴ ു
 ഭീഷണ ിപ്പെടുത്തിയ
 സജീവ മായിരുന്ന
ഹമ്മദ്  ദേ
 മനസ്സില ാക്കാന
എല്ലാവര െയ
 സീറ്റ്  വിഭജന
 ബിജെപിയ ്ക്ക്
േഴ് സ
െ തന്നെ  ഏറ്റവ
 ടീമ ുകള
 വഴിയ ൊരു
ക്രി മിനൽ
 അവിട െ നിന്ന
റഷ്യ ൻ
ോട് അ ഭ്യര
 സിനിമയ ്ക്ക്
 ബിഗ് ബ ോസില
അറിയ ിച്ചിരുന്ന
 നിയമന ം നടത്ത
 ആശയ ങ്ങള
 കൃഷ്ണ ന
തയ്യാറ ാക്ക
 ആവശ്യമ ില്ല.

 നിരക്ക ിൽ
 സന്ദർ ഭ
 കാറ ുകള
സീറ്റ ുകള
 ശാസ്ത്ര ജ്ഞര
സ് ആ ന്റ് 
 റില യന
 വടക്ക ാഞ്ചേര
െ ആയ ിരുന്ന
 സംഗ മ
 ചെന്നിത്തല  പറഞ്ഞ
 ഹിന്ദ ുക്കള
മന്ത്രിമാര ായ
 ഏർ പ്പെടുത്തിയ
 മുല്ലപ്പള്ള ി പറഞ്ഞ
ി കോട തിയില
 അതൃപ് തി 
 അറസ്റ്റ്  ചെയ്ത
ാതിരുന്ന ത്
ഭിനന്ദ ിച്ച
 കടല ാക്രമണ
 സംരംഭ ങ്ങള
വിദ്യ ാലയ
െ കോട തിയില
 തൊ ടുപുഴ
 സുഖ ം പ്രാപ
 അബ്ദ ുള്ള
 മൈ ക്ര
 വില്ല േജ
 അടക്കമുളള വര
ഹെല ികോപ്റ്റ
് മണിക്ക ൂറ
 വിദഗ്ധ ർ
ണക്കടത്ത്  കേസില
തെലങ്കാന യില
 പശ്ചാത്തല ത്തിലാണ് 
തെര ഞ്ഞെടുക്ക
സഖ ്യമുണ്ട
െ വല ുത
രോഹിത്  ശര
 ആദര വ
 തട്ടിയ െടുത്ത
 പോപ്പ ുലര
വിവേ ചന
ി പെരു മ്പാവൂര
യുഎ പിഎ
ഗ്നി ശമന
ചൽ  പ്രദേശ
 ഡില ീറ്റ് 
  ഘടന
4 40
അ ഡ്വ
ആ പ്പ് 
ആ ൻഡ് 
ഇ സ്ല
ഉ റ്റുനോക്ക
ക ിറ്റ
ക ാമെന്ന്
ക ാമുക
ഘ ട
ജ െയ
ജ ാല
ജ ോൺ
ട ീ
ഡ ു
ഡ ാമ
ധ ിച്ചത
പ േട
ബ ിയ
മ ൻ
മ ിര
മ രു
യ ാവ
ര ഘ
ല േ
വ ൈല
ശ ിശു
ഹ ിയിലെ 
ി ്
ി പ്പെ
ി  പറയാന
ു  പ
ു റെ 
ൂ ഗിൾ
െ ്
േ ..

ൈ മാന
ൈ തന്യ
ോ ;
ോ  ഒരു
ർ ണ്ണ
ൽ ഡിഎഫ
ൾ ഫ
ന്  ശേഷ
ക്  ധരിക്ക
ത്  കോണ
ക്ക ിൽ
ില േക്കുള്ള
ത്ത .

ത്ത ാപ്പ
 പ ുന്ന
 ക െ വ
മാ രുണ്ട
 വ ി ഡി സതീശന
ച്ച ൊട
 ന ഹ
 ന രേന്ദ്രമോദ
പ്പ ോല
പ്പ ാക്കിയ
പ്പ ൊട്ട
 മ ൈല
 മ ഞ്ചേര
 അ ടങ്ങ
 ത ി യ
 ത ൊട
 എ വി
 എ ം ബ
സ് ക്ര
ിൽ  ഒരാൾ
ക്ക്  പരിക്ക
വി ക്ര
വി ഭജ
 പ്ര വീണ
മായ ി പ്രവര
 ഇ ഷ
 ച ൂഷണ
ില്ല േക്ക്
ിപ്പ ണ
ിപ്പ ാട് 
ിപ്പ നി 
തിര ഞ്ഞ
മ്പ നിയ
ിവ ൃദ്ധ
ാക്ക ന്മാര
 എന്ന  വെബ
മായി  ആ
മായി  കണ്ട
സ്റ്റ ാല
പ്പെട്ട ിരിക്കുന്നത
 ദ ാസ
 ദ ൗര
 ദ രിദ്ര
 റ ി യ
ടുത്ത ുള്ള
േണ്ട ിയിരുന്ന
ംഗ ത്ത്
ി ക െട്ട
ി ക ോൺഗ്രസ് 
ം പ ിന്തുണ
 തിര ച്ചിൽ
് ന ഴ
മാര ുടെയ
യുടെ  കുട
ുമായി  മുന്നോട്ട
 ഫ യർ
 ഫ ോറന
പ്പെട ുകയാണ
ത്ഥ ിക്ക്
 ഓ വര
ുകൾ  എന്നിവ
െത്ത ിക്കാന
് അ ലര
ി വ ായ
ാറ ിലെ 
ം നട പ്പില
മെ ഹ
 ഉണ്ട െങ്കിൽ
 സെ ൻട്രൽ
ണ്ഡ ാര
 കേന്ദ്ര ങ്ങളിൽ
ം സ ജ്ജ
ം സ ൗദ
ട്ര െയിൻ
സംസ്ഥാന ത്തിന്
 ഇട ത്ത
ം ആ ർ
 യു എന
വാസ ികളുടെ 
 ഷ െ
 അറിയ ില്ലെന്ന
് ത ാന
 വൈ വിധ്യ
 രൂപ  വീത
 ലക്ഷ ം 
െ ത ര
െ ത ടഞ്ഞ
 കണ്ട ിട്ടുണ്ട
 കണ്ട താണ
 കൂട ി പ
 കേസ ുകളിൽ
കഴിഞ്ഞ  ആഴ്ച
 മുഖ്യമന്ത്ര ി ക
 മുഖ്യമന്ത്ര ിയെ 
 ഉപ തെരഞ്ഞെടുപ്പ
ൊക്ക െയാണ
 രോഗ ം ഭേദ
 വില  കുറയ
 ആണ െങ്കിൽ
 വോട്ട ിന്
 കഴിഞ്ഞ  വർഷ
ുത ര
ഇത്  രണ്ട
ം എന്ന  നിലയില
ം പ്ര സിഡന്റ
െ മ ോച
ജി ദ്ദ
 മത്സര ിക്കുമെന്ന
നേര ിട്ടുള്ള
 ഐ എന
ാണെന്ന്  പറഞ്ഞ
, ക ര
, ക ല
ി ഉ ന്നയ
 ക് വട്ടേഷന
 ട്ര ിപ്പ
 ട്ര േഡ് 
മാർ ഗ്ഗ
 പല വിധ
് എ നിക്ക്
ാഥ ാർഥ
തൃ ത്താല
് ച േര
ുമെന്നാണ്  റിപ്പോര
ഭരണ കക്ഷിയായ
എസ് ഐ
 സമ്പ ത്ത
 നേതാക്കള െയ
14 3
ഫല മായി 
ടിസ്ഥാന ത്തില
 ഇത്  സംബന്ധിച്ച
 വഴ ക്ക
പ്പുഴ  
 എന്നിവര െയാണ് 
ആവശ്യ ങ്ങള
ഒന്ന ിന്
17 6
ുണ്ടായ ിട്ട
ുണ്ടായ ിട്ടുണ്ട
െയ് ക്
 പ്രതിപക്ഷ ത്തിന്റെ 
 നീ തി
െക്കുറ ിച്ച് ക
 അറ ുപ
മാസ ക്ത
ിന്റെ അ ഭിഭാഷ
മുന ിസിപ്പാലിറ്റ
മാണെന്ന ായിരുന്നു
വ് വീസുകള
പ്രവർത്ത കൻ
 കെ ടി ജലീല
ങ്ങൾക്ക ൊപ്പ
ം ബ ാക്ക
മറ വില
ത്തോള ം 
 നഷ്ട മായത
ക്കാരിന്റെ  കാലത്ത്
ാക്കൾ ക്ക്
 എസ്  ഐ
വീട ുകളിൽ
 പോസ്റ്റ ിൽ
 വിദേശ ത്ത്
ഞ്ജ ുവിന്
 സംശയ ം തോന്ന
 തെറ്റ ിദ്ധര
 സഖ്യ ത്തിന്റെ 
 തുടങ്ങ ുന്ന
 എല്ലാവര ുടെയ
മാവ ോയ
 ചൈന യില
 എടുത്ത ിരുന്ന
 എൻ ട്ര
ഫ് ഗ
 ചടങ്ങ ുകൾ
നടപട ി 
 സൗകര്യ  വികസന
ത്തിനു ശേഷ
 ചികിത്സയില ായിരുന്ന 
ല്ലാത െ മറ്റ
 ചെല വില
ഭൂമ ിയുടെ 
വ്യക്തമാക്ക ുന്നത
മണ പഥ
ം നി ശ്ചയ
നല്ല ത
 ഭൂരിപക്ഷ ത്തില
 പക്ഷ െ 
സല ര
ിഖ ് അ
 കയറ ി 
സാധാരണ ക്കാര
 കടന്ന പ്പള്ള
തുടക്ക ം മുതല
 സ്ഥിരീകരിച്ച ിട്ടുണ്ട
നെ ഞ്ച
ക്സ ോ
 ശമ്പള ം 
ൂത്ത ുവാര
ലക്ഷ്യമ ിട
 ധാരണ യായ
 ശിക്ഷ ാ
 ട്രംപ ് 
 വ്യക്തി ഗത
സ്പെ ക്ടർ
പന ീയ
 സജ്ജ മാക്ക
 കാത്ത ിരിപ്പ
 റിയ ാസ
 അവതര ിപ്പിച്ചത
 അവധ ി പ്രഖ്യാപ
മുഖ്യമന്ത്രി പിണറായി വിജയ ൻ
 ഹൈക്കോടതി  വിധ
ഐ. ട
 ശാസ്ത്ര ജ്ഞ
 ഉദ്ദേശ ിക്കുന്ന
-ല ധിക
ാണ് കേന്ദ്ര  സര
 പാസ ാക്കിയ
 വടക്ക ന
ത്താ  ഏജന
 അത്യ ന്ത
സിക്യൂട്ട ീവ് 
ൊന്നുമ ല്ല
റക്ക ല്ല
ട്വിറ്റ ര
 തീവ്രവാദ ികള
ഗുരു വായൂര
സംവിധ ായകൻ
 സാധ്യതയുള്ള തിനാല
രീ തിയില
െ കോട തി 
 ടെല ിവിഷന
 കേന്ദ്ര കാലാവസ്ഥ  വകുപ്പ
 ഇള വ് 
 ഐപിഎ ല
ശക്തി പ്പെടുത്ത
അതേസമയം  സംസ്ഥാനത്ത്
at ion
 കോൺഗ്ര സ്സ
 ശുച ിത്വ
 തീപ ിടുത്ത
കാവ ്യ
 വ്യാപകമായ ി പ്രചര
സ്വർണ്ണ ക്കടത്ത്
 പകു തിയ
സാമ്പ ിളുകള
ശുക്ര ന
 രക്ഷിക്കാന ായില്ല.

ുമര ക
ഡബ്ല ്യ
ിസബ ത്ത്
  ക്ത
. പ
അ വലോകന
ഈ  സര
ഉ പ്പ
ഉ മ്മൻചാണ്ട
എ ക്സ
ഒ ബിസ
ഒ പ്ടിക്കല
ക ൗ
ക ാബൂള
ഗ ്യ
ഗ ങ്ങളുടെ 
ജ െ 
ജ ിന്
ത യാണ് 
ത കോട
ദ ളിത
ന ശ
ന ം

ബ ിൻ
ബ ിജു
യ ൂസ
ര ോഹ
ല മെന
ള ാറ്റില
വ ണ്ണ
ശ ല
ഷ ു
ഷ ം ജ
സ ീറ
സ െറീന
ഹ ൈല
ാ ചരണ
ി പ്ത
ീ ഴ്
ൂ ഞ്ഞ
ൂ  ട
ൽ റ
്  ശതമാന
ത്ത ി അ
ത്ത ിക്കൊണ്ട
 പ ണ്ട
 പ രു
ി  മല
ി  ശ്രീ
ി  ച്ചു
 ക ാട
മാ ക്രമണ
 സ ർക്ക
 സ ി എ
 സ പ്ലൈ
 വ ി മുരളീധരന
ിര ാമ
 ന ട്ട
ിക്ക ോള
ാണ ിയ
ായ കര
 അ സ്സ
 അ ണിയറ
 അ രുൺ
ിന് തല
 ത ാഹ
 ത േജ
 ത കർ
ിക െട്ട
 എ ച്ച് 
 എ ങ്കിൽ
 ഇ രിങ്ങാലക്കുട
സ്  ചെയ്യ
 ച ന്ന
ുണ്ട ാക്കുന്ന
പ്ര കട
 വി ശാഖ
കര ി
വാ ക്ക്
 ബ സ്സ
 സ് തംഭ
 ജ സ്റ്റ
 ജ യിൽ
ുമ ണ
ുമ ുറ
ുവ ാണ് 
മാണ ്

ുകയ െന്ന്
ാക്ക ുന്നത്
 സം ക്രമണ
 ല ോണ
 ല ോബ
് ക േരളത്തില
് പ ൊട്ട
സി ത
ം ക ണക്ക
സ്റ്റ േഷൻ
ക്കാര ാണ് 
 റ െയ
 റ ിമ
ത്തിൽ  തന്നെ 
ത്തിൽ  നിന്നുള്ള
ത്തിന്  ഇടയ
ിലെ  ജീവനക്കാര
ി ക ാരണ
ി ക ോവിഡ് 
 ഡ ീല
ണ്ണ ീര
ത്തിന ുമ
 ആര ോ
െ അ ല
വേ ണമെങ്കില
 സാധ ന
രാജ്യ ത്തിന്
ഗ്രസ്  സംസ്ഥാന
ിയത ായ
 ഈ സ്റ്റ് 
് സ ോണ
 കോട ിയാണ് 
ാറ ിന
മന്ത്ര ി വ
മെ മ്മറി ക
ുകളില ൊന്ന
ൂർ  സ്വദേശിനി (
 ഉണ്ട ാക്കാന
 കാര്യ മായി 
ോയ ല
ാശ ്ച
ം സ ാമ്പത്തിക
ം എ ണ്ണ
 നിയമ നത്തിന്
 ചെയ്യ ണമെന്ന്
ി പ്ര സിഡന്റ
 അറിയ ാമായിരുന്ന
ം മ ൊത്ത
 ലക്ഷ ം ക
െ ത ല്ല
 പോല െയാണ് 
മാറ ാന
 തീ ർക്ക
ിയായ ിട്ട
കിയ ിരുന്നത
ണക്ക ടത്ത
 വേ ർ
പെ രിയ
 വോട്ട െണ്ണ
ഫീ ൽ
ാക്കിയ ാണ് 
 കാല ത്തെ 
െ മ ോദ
സഭാ  മണ്ഡല
ി വി ദേശ
ി വി ദ്യാര
ഇട പാട
 വിവര ം പുറത്ത
 ഒന്ന ിച്ച് 
 കൂടുതല ുള്ള
ലോ ത്സവ
ം വി മാന
കെ  റെയില
ണാ ഘോഷ
 വ്യക്ത ികളുടെ 
 രാഷ്ട്രീയ ക്കാര
ം ഉണ്ട ാക്കാന
ധന വ് 
എസ് എല
 നിർ ണ്ണായക
വെ ളിച്ച
ലോക ത്ത
14 8
 അന്വേഷണ ത്തിലാണ് 
 അനു ഭാവ
ഇന്ന്  ആശുപത്രിയില
 ഉറപ്പ ാക്കാൻ
 പണ യ
വൈ സ
ഗു ജറാത്ത
 പ്രദേശ വാസികള
 പരിശോധന ാ
രക്ഷ ിക്കാന
 പ്രശ ംസ
 അഞ്ച രക്കണ്ട
പ്പറ േഷന്റെ 
സെ പ്ത
എന്ത ു
അതുകൊണ്ട ുതന്ന
 തട സം
സർ വ്വേ
ളി മ്പ
 വീട ുകൾ
പോ ലീസിന
ില്ലാത്ത വര
മായി പ െരുമാറിയ
23 9
പ്ല ാന്റ
് വര ുന്ന
അടുത്ത  വര
ിച്ച് പ ോയ
ത്തോള ം പേര
ൻസ ിൽ
 അപേക്ഷ  നല
 വെച്ച ത
 ബി ജെ പ ി നേതാവ
മാണ് ക ൊ
 മൂന്ന ില
 വിട്ട ത
 വിദേശ കാര്യമന്ത്ര
െ പ്ര വേശ
ായി ക ൊണ്ട
 പുറത്ത്  വന്നത
ം മാത്ര മല്ല
 ഉണ്ടായ ിട്ട
് വി ദ്യാര
 കാ റ്റ് 
 എല്ലാവര ോട
 മെ ഹ
സഹായ ം തേട
സ് ക ണ്ട
രണ്ട്  വർഷ
 കില ോഗ്ര
ലാല ിന്റെ 
ഫ്ര ിക്കന
രാജ്യത്ത്  
ിനെതിര െയുള്ള
ിക്കുന്നതിന്  വേണ്ട
ത്തിനു  ശേഷ
ബിജെപി  സ്ഥാനാര
സൂചന കള
 ഒപ്പ ുവ
 അനുഭവ ങ്ങള
 ജില്ലകളില ാണ് 
കണ്ട ൈന
ോളജ ിക്കല
 പോരാട്ട ത്തില
 പട്ട ാമ്പ
 കാലാവസ്ഥ  നിരീക്ഷണ കേന്ദ്ര
ം ആണ െന്ന
 തീയ തികളിൽ
 ഉന്നയ ിച്ചത
 സേന ാ
 കയറ ാന
 പ്രചര ിപ്പിച്ച
 ഉണ്ടാവ ില്ല.

 നമ്പ റുകള
 ചോദിച്ച പ്പോള
 യുഎഇ 

 ഉടന െ 
 ഉടന ീള
ം സംഭവ ിച്ച
ം തിര ിച്ചു
 അയച്ച ിട്ടുണ്ട
ി കഴിഞ്ഞ  ദിവസം
കമ്മ ീഷണര
 തുറന്ന ടിച്ച
 ചന്ദ്ര ശേഖര
 ചുമതല യുള്ള
ം ശ രിയ
 പ്രസംഗ ത്തില
 പെൺകുട്ട ിയുടെ 
ഹാസ ന
 പ്രചരണ ങ്ങള
 ജോ  ബൈഡന
 അഞ്ച്  ദിവസ
 യാത്രക്കാര ുടെ 
അറസ്റ്റ്  ചെയ്തിരുന്ന
 അക്കൗണ്ട ് 
ി വൈ സ് 
ഞെട്ട ിക്കുന്ന
ുമോ  എന്നാണ് 
 സുന ിൽ
് കുമാറ ിന്
വ്യക്ത മാകുന്നത
ാ ണ ് 
മുന്നണ ിയില
കോഴിക്കോട്  ജില്ലയില
ം അദ്ദേഹ ത്തിന്റെ 
എടുത്ത ത
 വ്യവസ്ഥ കള
ഇന്നലെ  രാത്ര
സിക്യൂട്ട ര
 ചൗ ഹാന
ണമെന്ന ആവശ്യ വ
 കൈമാറിയ ിട്ടുണ്ട
 പ്രാധാന്യ ം നല
ബഹ ള
ം തീരുമാന ിച്ച
 ക്ലാസ ുകള
പ്രധാനമന്ത്രി നരേന്ദ്ര മോദ ിയുടെ 
മത്സ രാർത്ഥ
പരിപാട ിയില
ഇതോട െ സ
ം സ്വന്ത മാക്ക
 പരിസര ത്ത്
 പടിഞ്ഞാറ ന
 ജോസ്  വിഭാഗ
െ നാട്ട ിലെത്ത
 വിമർശ ിച്ച
 പ്രവർത്തനങ്ങള ിൽ
 അമരീ ന്ദ
ചെയ്യാ ത്ത
ി മുഖ്യമന്ത്ര ി അര
െ മന സ്സില
് ചോദ ിച്ച
മറുപ ടിയ
ംഗളൂരു വില
 വിശ കലന
 വെബ് സൈറ്റ് 
 റെയ് ഡ് 
 സെല്ല ില്ലേക്ക്
 പത്മ ജ
 മാത്യ ു
 സിസ ിടിവി 
 പൊന്ന ാന
പയ്യ ന്നൂര
 പാടുള്ള ത
 അഹ ങ്കാര
 നമ് മുക്ക്
ബാരോഗ്യ  കേന്ദ്ര
 ചീ ത്ത
 മനോ ഭാവ
 കിസ ാന
ക്യാപ ിറ്റല
 സാമ്പിളുകളാണ് പരിശോധനയ്ക്ക്  അയച്ചത
ിരോമണി അ കാലിദള
 പെരുന്ന ാള
  !

. n
ം ദിന
അ ണ
അ ല്ല
ഇ സ്രയേല
എ  റഹ
ഐ .

ഐ  ഗ്രൂപ്പ
ഖ ന
ച ു
ച ോല
ച ാട്ട
ജ ി സ
ജ ിനെ 
ന ാവിക
ബ ം 
ബ ൂത്ത്
ബ ത്തെയ
ബ ോർഡ
ബ ത്തോടൊപ്പ
ഭ രിക്ക
ഭ ദ്ര
മ ിയ
യ ിട്ട
ര ാരംഭ
റ ങ്ങിയ
വ ിന്റെ 
ഷ മാണ് 
ഷ ോപ്പ
സ ുമായി 
ു ങ്ങള
ു മാക
ന്  വേണ്ട
ക്ക ോട് 
ത്ത കളില
 പ ാനല
 ക െ ക
 ക ിറ്റ് 
 ക െയർ
 സ ി ബി ഐ
 വ ൺ
ിര ം 
ച്ച  നടത്തിയിരുന്ന
്ര ത
പ്പ ാര
ം  ഭരിക്കുന്ന
ിച്ച ുപ
 മ ഹാരാജ
ുക ല
ുക േട്ട
ുക ിടക്കുന്ന
ിന ോട് അ
ിന േക്കാൾ
ിക േന്ദ്ര
ിക ാന്ത
 എ മാര
സ് തി
ിൽ  കണ്ട
ിൽ ക്കുന്നത
 പ്ര ോട്ട
രാ ഗ് 
റെ  ഭാഗമായി 
സ്  ആന
ില്ല  .

ദേ വ് 
പ്ര ഥമ
ോട തി 
ോട ് നിര
ിന്റെ  നേതൃത്വത്തിൽ
 ഉ ണര
 ജ ോൺ
ിപ്പ ാർട്ട
 ശ രണ്യ
ങ്ക ുന്ന
ുവ ത്ര
 ര  ണ
േഷ ് കുമാര
ത്ത്  പറഞ്ഞ
 സം പ്രേഷണ
 ല ണ്ട
 ല ാൽ
 ല ോറിയ
 ല ിങ്ക്
ഗ്ര േഡ് 
സം വാദ
ിട ാൻ
് ക െ 
 മാ താവ
റിയ ിൽ
 പോ ഷക
് പ ണ്ഡ
് പ ൊള
െ പ ിരിച്ചു
ി ന ഗരസഭ
ുപ റ്റ
വർ ധനവ
 വര ികയായിരുന്ന
ം ന ിൽക്ക
ാമ സം
േണ്ട .

ിലെ  എല്ലാ
ി ക ാര്യങ്ങള
ിയുടെ  വിജയ
ിയുടെ  മകന
ണ്ണ  രൂപം ഇങ്ങന
് ന ാരായണ
തു  ട
യുടെ  നേതൃത്വത്തില
 ഭ ട്ട
 ഭ ്ര
 നിന്ന ോ
ത്തിന്റെ  നിര
ത്തിന ുളള
 ഫ ീ
 ഫ ോളോ
െ അ മേരിക്ക
 നിന്ന്  ഒഴിവാക്ക
ി അ വിട
ബന്ധ ുക്കൾ
വേ റിയ
യിൽ  ഒരു
ത്ഥ ാന
ി സ ഹായ
നു ണ
നു മാന
ടക്ക ാന
ുല േഖ
 അവ ബോധ
ം ത ാര
ം ത ാഴ
ം ഉ ടൻ
ം നട ന്ന്
െ സ സ
 ഉണ്ട ാക്കുന്ന
കൊ യിലാണ്ട
ിച്ചു  എന്നാണ് 
 മന്ത്ര ിയായ
െടുത്ത ു
ട്ട്  ട
 തിരഞ്ഞെടുപ്പ ് നടക്ക
 യു  ട
 വലിയ  തുക
 ചെയ്യ ുമ്പോള
ിറ ക്കാന
 വൈ കിയ
 കണ്ട ിരുന്ന
 വേണ്ട െന്ന
ഇന്ത്യ .

ാണ് അ ടുത്ത
കിയ ിട്ടുണ്ടെന്ന
 മുഖ്യമന്ത്ര ിയായ
െടുക്ക ണ
 സു ഗമ
െ ആ കര
ർഷ ിക
 വിജയ ം ഉറപ്പ
നട ിയുടെ 
ബി ഡിജെ
ം പ്ര ധാന
് മ ിന
് മ ോദ
മാക ാൻ
ിപ്പിച്ച ിരിക്കുകയാണ
 വാ ച്ച
ാണ് സ മ്മാന
മന ോജ
 കര ഞ്ഞ
ി ച ൂണ്ടിക്കാണ
െ കുറ ിച്ചാണ് 
ുളള  കോഴിക്കോട് സ്വദേശികള
 തിരിച്ച റിവ
ഇതിന െല്ല
ഇതിന ൊപ്പ
 രാഷ്ട്രീയ  പാർട്ട
പ്പെടുത്തിയ ത്
ിക്കുന്നത് 

യുണ്ട െന്ന്
 കാര റ്റ് 
13 4
 അട ിമ
 സ്റ്റ േ
യെ  തുടർന്ന്
 തര ത്തിലാണ് 
ുന്നതിന്  മുൻപ
രക്ഷ പ്പെട്ടത
അതേസമയം  ഈ
്മ ോർട്ട
 തോ ന്നല
 നീ തി കിട്ട
 വിള ികളാണ് 
ിക്കുന്നതിന ാല
 ചോദ്യ ങ്ങൾ
ശ്രമ ങ്ങള
40 3
 കുറ്റ ങ്ങള
ി മു സ്ല
 സ്ത്രീ കൾക്ക്
ന്നല െ 
ൊല േഷന
 അതി ശക്തമായ
പാല കര
പാല ായില
ാഷ ് 
 താല ൂക്ക
രംഗത്ത െത്തിയിട്ടുണ്ട
നിർ മ്മ
ധികാര ിക
 എറണാകുള ത്ത്
ുകയാണ്  വേണ്ടത
ം കണ്ട ത
 കമ്പന ി 
ം കൂട ിയാണിത
 താഴ േക്ക്
 പേ രുണ്ട
ോക് സ് 
െ നിര ീക്ഷ
ിന്ത ള്ള
 പ്രസിഡന്റ ് പ
 വരു മ്പോൾ
കൊവിഡ്  ബാധിച്ച് 
 മെ സ്സ
 ദേശീയ  നേതൃത്വ
ദിലീപ ിനെ 
ഇതിന്  മുമ്പ
മേയ ുള്ള
ഫ് എല
 രാത്ര ിയ
 വിദ്യാഭ്യാസ  സ്ഥാപനങ്ങള
ി രാജ ു
 ഏക ദിന
ത്തെ അ പമാന
യുവ ജന
് കൊ വിഡ് 
ഴിമ തി 
 വീട്ട ിലെ 
 അനുഭവ ിച്ച
ത്തേ യ്ക്ക്
പ്രശ ംസ
കുറ്റ വാള
 ഫ്ര ീ
ഭൂമ ിയ
 മീഡിയയില ൂട
വിഷ ബാധ
 കോവിഡ ് പരിശോധന
 മനസ്സില ാക
ജിന ിയറ
 കാലാവസ്ഥ  വകുപ്പ
ുണ്ടാവ ില്ല.

അമേരിക്ക യുടെ 
ആലപ്പുഴ യില
ഭാഗ്യ കര
 ഊ ർജ്ജ
പട്ടിക യിൽ
കുഞ്ഞ ിനെ 
 ക്ഷണ ിച്ച
തീവ്ര ത
 നന്ദ ിയ
 വിമാനത്താവള ത്തിൽ
് ആയ ിരുന്ന
െ നി ക്ഷേപ
 ബെ ഞ്ച് 
 ട്രെയിന ില
പോല െ 
ി സു ധാകരന
 സ്ഥിരീകരിച്ചത ായി 
 വാഗ്ദാന ം ചെയ്ത
 അക്കൗണ്ട ില
ം മുമ്പ ാണ് 
ി പ്രവർത്ത കര
 ഒരുക്ക ങ്ങള
 നാല്  ദിവസ
 അറസ്റ്റില ായത
സാധ്യത യുള്ള
ശരീര ത്തിൽ
 രു ച
പ്രസ്താവന യില
മ്മേള ന
 അണ ികള
ാബാദ ് 
 വടക്ക ൻ
 റിസ ർ
ക്കാദ മിക്
ട്വീ റ്റ് 
 ഓഫീസ ുകളില
േപ്പ ൂര
ം അംഗ ീകരിച്ച
 സെല ിബ്രിറ്റ
 സഖ ്യമുണ്ട
 തയ്യാറാക ണ
േടു മെന്നാണ് 
് പദ്ധ തി 
 സാഹ ിബ
ം ഓ ഹര
 ചെന്നൈ യില
ുസ ൂക്ഷ
നൗ വില
് വെ ളിപ്പെടുത്ത
ഉന്നയ ിച്ച
രമ ൃത്യ
െ നേര ിട്ട് 
െ നാട്ട ുകാര
ാസമ്മേള നത്തിൽ
 പ്രതിപക്ഷ നേതാവ്  വിഡി സതീശന
 വിമർശ നങ്ങള
 കുവൈ റ്റില
 നൂ തന
 കെപിസിസ ി അധ്യക്ഷന
 കിലോമീറ്റർ  വരെയ
 കമ്മ്യൂണ ിറ്റ
തിവ ർഷ
ക്ക് അനുകൂല മായിരിക്ക
 ചാന ൽ
 ബാക്കിയ ുള്ള
ം തട സ
എഐ സിസ
 ബംഗാൾ  ഉൾക്കട
 രജിസ്ട്ര േഷൻ
സ്വാഭാവിക മായ
 അമിത് ഷായ ുടെ 
 മാർക്ക റ്റ
 ശുക്ര ന
എം എ ൽ എ
 കൂറു മാറിയ
 കിടില ം ഫ
 ജ്വല്ല റ
 തടവ ുകാര
സംഘപരി വാർ
പേഴ് സണ
രുതരാവസ്ഥ യില
ഡി പ ി ഐ
മനു ഷ്ഠ
ി മുകു ന്ദന
മധ ുര
ം വേഗ ത്തില
 സമ്പർക്കത്തിലൂടെ  രോഗം ബാധിച്ച
 വിയോജ ിപ്പ
ിജ്  ഭൂഷണ
 തൃശ ൂർ,
) എന്നിവയ ാണ് പുതിയ
 വിളികളാണ്  ജില്ലാ
ം  സംശയ
ം  സാധാരണ
എ ട
ക ൂല
ഗ ങ്ങൾ
ജ ൂൺ
ഡ െയ
ഡ ിങ
ദ ൃ
ദ ത്ത്
പ ീ
പ ിക്ക
ബ യ
ഭ യില
റ വന്യൂ
വ ുമായി ബന്ധ
ഷ ല
ഷ ്റ
സ യ
സ രി
സ ൈന
ി സ്ഥ
ി  പറയുന്നത്
ി ';
ൂ ...

ക്ക മ്പന
ത്ത ുന്നത്
 പ ി ക
ി  ,
ി  ചെയ്യ
ി  സംഘട
 ക സ്റ്റം
 സ ിമ
 സ മുച്ചയ
 വ ംഗ
ട്ട ിസ്റ്റ
 ന ക
 ന ൊ
 ന വീന
 ന റുക്ക
 ന ൈറ്റ് 
ം  ഞാൻ
 മ ൗ
 മ യ്യ
ാന ികള
ുക ഴ്ത്ത
ാണ്  .

ിന െ കാണ
ിന െ കുറിച്ച
സ് ക്കാര
ക്ക്  ശേഷമാണ് 
 പ്ര തികളുടെ 
മായ ി പ്രഖ്യാപ
ക്ഷ ീര
സ്  ആണ
 ച ാത്ത
 ച വറ
 ച ുഴലിക്കാറ്റ് 
പ്ര േ
പ്ര തിയുടെ 
പ്ര ചാര
കര ിക്ക
വാ ഡ
 ഉ പ്പ
 ഉ രുൾപൊട്ട
 ജ ോബ
ുവ ാണ
മാണ ത
ാവ ട്ട
 ര ഞ്ജന
ദേശ  പത്രിക
 ല ിജ
െടു ക്കുന്നുണ്ട
ിക്കുന്ന  
ിക്കുന്ന ില്ലെന്ന്
ിക്കുന്ന വർക്ക്
് ക ാപ്പ
െ ക ാര
ം ക മ്മിറ്റ
െ പ ിന്ന
ാർ ഖണ്ഡ
പ്പെട്ട ് 
ിച്ചത ിന്റെ 
 ദ ാന
 റ ാഫ
 ഗ ീത
 ഗ ൂഡാലോചന
ം ന ഗരസഭ
ി പ ുഴ
ി ക ാര്യ
ി ക ടന്ന
 ഡ ിക
ം പ ള്ള
 തിര ക്ക്
് ന ിൽക്ക
ം വ െട്ടിക്ക
ായിരുന്നു  ആ
ത്തിന ോ
 ഹ യര
ന്റെ  മകന
ം അ ഭ
ം അ ദാന
ം അ നുസര
 ഏ ഷ്യാനെറ്റ
സിന െയ
 കൊ യിലാണ്ട
ബന്ധ ു
വേ ട്ട
ീവ ിരുദ്ധ
 ഓ സ്ട്രേലിയ
 അദ്ദേഹ ം അറിയിച്ച
് സ ോഷ്യല
 അവ ഹേള
ി വ ്യാപാര
ാറ ിന്
ാറ ുള്ള
 കോ ൾ
 നില യ്ക്ക
ക്രമ ീകരണ
 പ്രതി ഭാഗ
 പു ത്തൻ
ിച്ചു  വരുന്ന
ൈന ംദിന
ജന വാസ
 മന്ത്ര ി രാജ
 രണ്ട ് പേർ
 ഇട ങ്ങളിൽ
 മാത്ര മായിരിക്ക
ബിജെപ ിയിൽ
 ചെയ്യ ുകയായിരുന്ന
ിറ വ
ിറ ോ
ി പ്ര സിഡന്റ് 
ം മ ോശ
ഇന്ത്യ യിലേക്ക്
മാറ ുന്ന
 ജന പ്രിയ
 മുഖ്യമന്ത്ര ിമാര
 ഉപ രി
 എത്ത ുന്നവര
 സമയ ബന്ധിത
കാര്യ ങ്ങളില
 സംഭവ ിച്ചത്
ിക്കാൻ  കഴിഞ്ഞ
 കഴിഞ്ഞ  ആഴ്ച
ഇത്  ഒരു
പ്രതി ച്ഛായ
 വിജയ ് ബാബ
ബി ക്
 ധ ർമ്മ
എന്നാൽ  ഇത്
ജ് മല
ം പ്ര കടന
ൈക്ക ിള
 സാഹചര്യ മാണ് 
ദ്ദ ീൻ
ുന്നതിന ാണ് 
 വയ റ
 വയ ല
 വാ ചക
 കാരണ മാണ് 
 മല യ
ോഹ ്ല
ി ഉ ൾപ്പെടെയുള്ള
 സൗ ന്ദര്യ
 ട്ര െന
 പാല ിച്ച് 
 ഒന്ന ു
 സർ വ്വീസ് 
് പ്ര ധാന
ആദ്യ ഘട്ടത്തില
 കള ിയ
സഹ ിഷ്ണുത
 കാര ൻ.

ഗ്രഹ ങ്ങള
 എന്ത ായാല
ിലൂട െ പ
ിപ്പിക്ക ുമെന്ന്
കൂ ത്തുപറമ്പ
 പരിശോധന ാഫല
് ബ ാങ്ക്
 നടന്ന ത്
ചില രുടെ 
 ഖ ു
ിഷ ാര
ി ഇ വിട
മോ  എന്ന
ിന്റെ അ വസാന
 സെക്രട്ടറ ി അ
യാത്ര യ്ക്ക്
ിഴ ച്ച
പോ സ്റ്റ് 
ത്തെ ക ോണ
ുമാണ െന്ന്
ിൽ നിന്ന ു
ത്തു റ്റ
െ കണ്ട ത
ിട്ടുള്ള ത്
 ശ്രദ്ധ യിൽ
 പ്രവേശ ിപ്പിക്ക
 താല ിബാൻ
ം ഏ പ്രില
മത്സര ാര
 മത പരമായ
 ശക്തമായ  മഴയ്ക്ക്
 ബ്ര സീല
 നയ ിച്ച
 കിട്ട ാന
 മുസ്ല ിങ്ങള
 ബാധ ിതര
 പ്ല ാസ്റ്റിക്
ിയിട്ടുണ്ട െന്ന
 മൂന്ന ിന്
ുകയാണ്  ലക്ഷ്യ
 കമ്പന ികൾ
കുമാര ന
ോദര ന
 മലയാള ികളുടെ 
ിക്കുന്നവര ാണ
 തെറ്റ ാണെന്ന്
ിക്കുകയാണ്  ചെയ്തത
ത് എന്ന ായിരുന്നു
ഇവിട െ നിന്ന
ം നിര ീക്ഷ
 നടക്കുന്ന ത്
പ്രധാനമന്ത്ര ി നരേന്ദ്രമോദ
 എൻ ഐഎ
കാരണ ം അ
ഭര ിക്കുന്നത
ധികൃത രുടെ 
 സമൂഹ ത്തിൽ
ാണ് മ ൃതദേഹ
 ലക്ഷ്യ ത്തോടെ 
 മേ പ്പാട
 ബിജെപി  സര
 ചൂണ്ടിക്കാട്ട ിയാണ് 
ം ഒ ഴിഞ്ഞ
ത് കൊണ്ട ാണ
വിഷ ീൽ
 പ്രതിരോധ  കുത്തിവ
സൂ ദ
െ പോല ുള്ള
വീഡിയോ യില
താല ്
 ഭയ ങ്കര
 ടീമ ിന്
 റിപ്പോർട്ട്  ചെയ്തത
 സഞ്ച രിക്ക
കുമാറ ിന്
ട്രംപ ് 
[...]
