#version: 0.2
  a
s z
e l
e t
e n
  m
g y
  k
e r
. 

a t
a n
  h
a l
  t
  v
é s
e k
o r
  sz
 a z
á r
i n
e m
o n
  f
o l
á l
a k
  n
á s
e g
e s
á n
e z
i s
t t
é r
o k
  l
i k
é n
  el
a r
  b
é g
c s
o s
e gy
  p
b b
á t
  és
ü l
et t
o z
í t
á g
  s
é l
i l
a p
  j
é t
  egy
  r
 k ö
 m eg
o gy
in t
b an
e d
é k
o tt
  is
 h ogy
b en
i t
a gy
  d
sz t
a d
u t
o m
  -
 n em
a m
a s
ó l
s ég
i g
u l
n i
 sz er
  cs
j a
r a
t a
á k
o g
án y
r e
ál l
én y
é p
  M
a j
á z
a i
 kö z
 f el
a z
 k i
el y
é v
n ak
i z
ér t
o t
en t
é sz
a g
ö r
s ág
i d
 l e
n k
 a m
á m
h et
n y
ol t
  B
n ek
ő l
  S
en d
 a l
A z
 a k
c i
el l
  ez
in d
  (
ál t
ö n
ö k
u s
  K
h at
 b e
il l
o d
  A
 n y
sz er
í r
ar t
  ú
ö l
on d
on t
  g
u d
l en
  gy
  év
  áll
u r
e v
u k
a b
ő k
u nk
b er
a v
ol y
  F
 szer int
t e
ö s
ó k
 d e
ez et
  ut
 f or
ö tt
 v olt
2 0
sz ág
  P
agy ar
  c
v et
o v
 k or
at t
 l eg
 j el
á ban
  G
  T
ö bb
or szág
e sz
e p
 m ár
 el ő
e j
es t
 r end
  E
ő s
i v
ö z
i r
er ül
á bb
ü k
  id
k or
  N
er t
én t
 m ind
  ér
  H
b a
 a d
em ber
at ás
  L
 t öbb
ú l
 h ely
é ben
 v al
  C
k al
ol g
ü gy
a szt
 n agy
v al
z et
í v
 m ég
m ány
ek et
á j
  er
el m
 m i
é d
a sz
ó s
 az t
ál y
ár t
 sz ám
ett e
u m
  R
  "
  V
el ő
o bb
ár a
 cs ak
 k ell
i a
ő r
e szt
e bb
 le het
k ez
 sz áz
k oz
 k ap
ok at
é z
  D
ít ás
ö v
 t ud
 am ely
 v an
 m int
 t ör
ös sz
i sz
i szt
 t art
ó t
 m ás
 v agy
és e
or t
b ól
  es
on y
 s em
 t er
 k ét
b e
  I
 m ag
ill i
aj d
ó d
al m
s ő
al ék
 v ég
h oz
  J
 v ál
i m
t et
él y
c h
 a r
  össz
m ény
  él
 el len
án ak
v e
 f og
í n
 ú j
 m ond
j ák
at ó
 b iz
 S z
 száz alék
é m
 p r
és t
 k ép
z ő
ít ott
 m agyar
e h
n ök
r ól
u g
  át
ul t
í z
  z
o p
ed ig
e i
el t
  u
ás t
n a
n ál
ér e
  O
ó r
l eg
er es
hat ó
 sz em
en y
ár os
 p edig
j e
ik ai
  ért
 m illi
én ek
 jel ent
 t el
 k ül
 h a
20 0
 ut án
il ág
  ig
as ág
a bb
  ol
es en
v ény
 r ész
és i
en n
 az on
ü nk
 for int
ás a
os t
 h at
 h oz
an i
 m ű
t ak
 m unk
á d
á ci
 kö r
v a
 n ap
ül t
 k ez
á val
gy an
 mind en
 v is
 m ajd
k ö
  í
k ed
l et
ár s
  e
ál is
o b
l an
em ény
ur ó
 kor mány
 le sz
v ezet
ás ok
1 9
j án
ő z
ő t
n ap
  ember
az d
j el
  ü
ön t
  em
 a n
an g
 el ső
 v ezet
 al ap
h áz
b ől
én z
 mi att
d és
 t al
 kö vet
E z
en g
k öz
  in
il y
 sz ak
h ez
á b
r ől
  ill
oly an
et len
 köz ött
 ú gy
öl t
  ö
 b el
  ország
ik us
 vis sz
f or
 u gyan
f i
m ű
 h ét
 ak i
 áll am
f el
 í gy
  ok
l ó
) ,
 f i
 el m
  Z
 tör t
 m ert
erül t
  ügy
 j át
 n é
 k is
an y
ily en
er s
 f oly
 mond ta
  olyan
 s ok
és ek
os an
  ind
 m in
ez ett
S z
i c
ed d
ás i
 v ilág
 ak kor
á sz
at ok
t ák
ét el
öl d
at al
 M agyar
  ír
ő v
aj t
ov ább
 s or
ált al
t at
 l át
k el
ó z
ár om
ny i
  int
k ént
0 0
e b
et i
  ép
k i
í j
os sz
 egy ik
á cs
ol it
 k ész
 ig az
m er
 azon ban
ár d
u n
o sz
 k ér
20 1
 v ált
t el
aj n
 vál aszt
 a h
 t ovább
év el
 t ám
al l
s t
? 

  ár
ut ó
en i
 am i
o szt
 biz t
 m ell
  i
 j og
 sz ab
sz ak
 val am
azd aság
p ont
at koz
á v
 f ér
ű n
ül et
ik or
ez ő
 kez d
p r
 p énz
  W
 t an
 hoz z
 id ő
uró p
het ő
l t
áll al
 es et
 ér d
 m ost
  ir
ü n
 val ó
 cs ap
r an
v án
  által
ol d
 j ó
ar ad
 el nök
 ill et
j át
iz s
ör t
 tel j
f og
at i
es ít
j t
j ár
iz et
 v ár
- ben
eg ész
l ő
ek ed
at a
 A n
 h árom
h ely
- es
cs ol
 d önt
 n ev
an d
 f ej
in g
  ó
 rend őr
 h i
in cs
 kül ön
 j ár
el em
 ar ra
ít ó
ár m
p ort
 kor ább
f ő
v éd
en ek
j uk
 v isz
elm i
ol l
 er ed
ol ó
 elő tt
v is
 p ont
 él et
 s ik
S Z
t ek
u p
r i
 jel en
at ot
ad ás
al om
és ét
k ép
 p er
z el
k ül
 ny il
ö g
t er
iv el
 k er
 c í
c k
  egész
 szer ep
 d olg
ol na
t atás
E gy
1 0
 p olit
 milli ó
 sz int
él d
izs g
d íj
oz ó
úl t
l e
- t
oz ott
 be sz
s al
 c ég
 év es
ut at
k od
 v olna
 kap csol
el i
ít ett
ök k
szer ű
ét er
 g ond
ar m
om b
l am
e f
ü t
ek t
l al
 gy er
at lan
 tört én
r end
il m
úl y
á ba
 m ér
 ez t
 tal ál
en c
ő ség
v el
 érd ek
 k on
 illet ve
 f ő
oz ás
 al att
ajn ok
 más od
 f él
es ség
ár i
 ö t
ő je
o h
 h al
in ek
 ter m
ír ó
 ez er
k ol
. .
 l ak
og at
ci ó
 kö lt
jel ent
 p éld
 mell ett
u sz
ü tt
á ból
g g
 O r
 t ag
 ak ik
ad ó
asz nál
 p árt
 milli árd
v as
i ai
ut án
 k om
r am
ez te
id esz
1 5
 t árs
 sz ó
os ság
 am ikor
o f
or v
d ul
 h ó
 vissz a
er ikai
 s eg
 ny ug
sz ín
ers eny
el et
 ját ék
 j öv
i p
or s
 né gy
an t
erül et
áci ó
 rend szer
é szt
 v on
N em
 ért ék
enn e
e c
  en
for m
g el
 köz l
 h ang
ár ól
 G y
  Á
z s
iszt er
 m en
k ot
izsg ál
ém et
 h az
él kül
 nem zet
u ár
 sz ól
  ott
ud ap
udap est
e x
s el
 g azdaság
 tör vény
 m ód
an em
  ő
 t ár
í g
án t
n él
 egy ütt
 fér fi
öl te
in k
 p ar
om ány
t ék
at on
est er
 bizt os
u b
 v állal
 al kal
ül és
an ak
alm az
  U
uróp ai
 n ő
o cs
 t av
 j av
v ez
 kép vis
ás át
as s
z és
 ü z
 k il
 l ett
 követ kez
ség es
 nagy on
 am erikai
t al
 ny om
áb or
 m arad
 cs ökk
av az
 t úl
 h áz
 n incs
 k eres
 A l
 v esz
 h anem
 j obb
ügy i
 b et
n e
 cs al
l at
 p ály
 Magyar ország
g ató
i ó
ün tet
 d él
 c él
ek en
kö d
v ány
  ilyen
ó b
t art
og ram
op ort
 ered mény
oz at
ek ben
 h isz
al y
ett ék
 szem ély
 er ős
 v él
p en
ők et
" .

is t
 fi gy
 össz e
as on
- e
á ja
 be f
 v éd
3 0
ü gg
 h iv
 m egy
 az ért
 köz ölte
edd ig
an k
 r á
á ul
 k erül
  ór
t on
 h ír
 is m
 l ép
r it
el és
 v erseny
 n ek
 sz ük
 a utó
 k ív
 hely zet
h on
ér i
ott ság
 sz ín
aj át
u szt
ez és
é b
 seg ít
ö m
! 

ek kel
 kör ül
ő d
 k ev
1 8
en ni
ít és
H a
s ó
sz ám
er n
ít ani
 sz olg
l át
 k ar
ak or
ú z
er g
 v as
 másod ik
 i tt
 ah ol
arm ad
 n öv
 visz ont
f él
 F idesz
1 2
d al
 el v
 ak ar
 C s
 k és
ont os
l ék
 szer ző
  eddig
 ez ért
 csap at
es s
 l ét
ok ban
N O
t ól
 költ ség
es ebb
is ta
 an nak
 m ent
h a
 v áros
ö vet
ék oz
 n élkül
z ett
 k am
 f ilm
 s t
ny v
 kapcsol at
 ki v
ö t
 fel t
 hó nap
 jöv ő
 hozz á
 E gy
n agy
 szer et
ő en
 fog lal
 biz ony
M NO
 köz el
ett ek
sz ör
ész et
or d
 százalék kal
ú t
ik a
sz ab
 péld ául
a c
el nök
 hat ár
f öld
író ság
ított a
 jelen leg
 s aját
 for g
 ar ról
e it
 vezet ő
 t e
 alkal m
áj ékoz
ar c
 s ajt
 ugyan is
og atás
 valam int
bb i
ség i
 szer d
h ány
 r eg
 tav aly
el ked
 min iszter
 N em
 int éz
ér ől
 meg h
al ak
 am it
 ó ta
ci a
ég i
 j ut
ért ék
 v izsgál
 n egy
 ol vas
ört ök
üt örtök
ás ár
 elm ond
 szab ad
 csal ád
l eszt
köz i
o ci
 t áv
v er
 k erült
 alap ján
ott a
ar k
 kér dés
ott ak
ul ajd
 al ak
1 6
 p ár
s or
 a ny
 m ely
 t iszt
ú jt
2 5
 is mer
 ját sz
ulajd on
oz z
 b al
 korább an
 k it
oló g
 köz ös
) .

 más ik
it k
 szám ára
ség et
 t ér
 hisz en
 h ason
ia c
r ó
 besz él
 meg sz
ség e
 hét fő
- ban
ok kal
t ár
l ás
in ak
j obb
ű z
- k
 k edd
 I n
1 1
es sz
ú s
tt al
 l ap
ol c
z al
  á
tel en
it el
őv áros
 gy őz
 k ed
 j ól
 meg v
 m a
 per c
m i
 ú t
l ag
 p ént
 t erület
ar i
 cs ütörtök
 cí mű
 szab ály
) 

 h át
 köz ül
 e uró
 fel h
 pr ogram
 n éz
 el t
gy ű
 sz avaz
 j egy
f ej
 h ossz
 gond ol
 mű köd
 lehet őség
 százalék os
h u
 képvis elő
  ör
 n eh
 ol dal
nagy obb
 h agy
 ir ány
 Nem zet
án d
a y
m ér
i b
 d oll
 l enne
v étel
ar d
 h asznál
  or
 g ól
as sz
 nyil atkoz
 az ok
ít él
 ö nk
r on
á hoz
ú j
 for dul
 tár gy
cs ak
 ak ár
 kés ő
 foly am
 B udapest
 h armad
1 7
i cs
s úly
eng ed
ek int
ás sal
 n e
ók at
 j an
elő tt
1 4
ig az
ul l
v on
 csökk ent
 leg nagyobb
 leg jobb
  ön
j ük
t or
 k ut
 sz áll
 k l
 tört ént
z i
 fi atal
 m íg
lam ent
 nyil ván
r ás
 f izet
M ind
 né hány
és re
 kell ett
 de c
 egy m
 ut ol
a cs
 t ulajdon
n ő
 b űn
 ér kez
 hiv atal
 sor án
m ent
 szem ben
ja bb
 nyug díj
  oszt
 elm últ
 dec ember
ál ó
i ch
 mag as
alm as
 al kot
 rend el
 cs oport
ab d
 meg áll
 a ján
ez tet
 jelent ős
t ó
ár nap
 n émet
 t est
 rendőr ség
l y
ás ra
 t íz
 meg t
 a ut
ob l
 amely ek
ej én
 nagy obb
5 0
 szer vezet
 gyer ek
ság i
b án
 az zal
 l egy
 v íz
ó i
er m
l ik
es et
r el
 foglal koz
  ebb
 cí m
 m oz
 el em
n é
on g
1 3
 el ég
. ,
 t ett
 egy éb
 elmond ta
 korább i
 n ép
 meg k
 meg fel
a h
 h aj
en e
 h atás
 köz t
 kör ny
eg et
án os
 el fog
ítás a
l és
C s
z ék
ász ló
obl ém
b ajnok
it ány
 el s
n em
lan d
al t
 m utat
 negy ed
or mány
 r észt
 hason ló
 gy ors
b iz
 sz él
 ez zel
r t
ö d
 munk a
E l
 f ut
i h
 f ontos
- én
 gazdaság i
ec cs
et em
  ál
 t esz
el te
n ny
 van nak
ez ni
 s p
 r e
j ában
 z s
 vált oz
 ter v
m a
 b ár
 m ivel
ít ja
 dolg oz
 gy akor
is ég
 sz oci
 mind ig
2 7
ormány z
ok r
od a
 hi ány
l in
 id én
M eg
v en
k őz
 r om
 par lament
  ám
r o
 t ájékoz
 K öz
 F er
 An d
 jan uár
 tám ogatás
SZ P
 ér int
tal an
 a bb
 f öld
ov ember
 költség vet
s sz
 el jár
 t eh
es ült
és sel
 p olg
 k ín
 in k
- f
l ov
 s port
ek nek
 f ran
ák at
 al á
 elnök e
 b ank
t am
 telj esít
 pr oblém
 r ossz
o ck
 haz ai
ü r
 ad ó
  ész
á tt
19 9
 r ep
 tan ul
ü z
 ki d
 volt ak
 em lék
 in form
 jav as
 gy an
 sz en
év ő
 telj es
áj át
 ad ott
 vas árnap
l ap
 s ér
 ny olc
 M T
 kap ott
et e
im p
 t ekint
 L ászló
 köz ép
 I st
 utol só
 rendel kez
ej t
 ink ább
 v el
 meg b
  É
- as
 C h
ított ák
ú sz
al i
ób ál
 cs at
ar át
l i
j ának
v iv
 M SZP
 ad at
ni a
 külön b
ó ta
ok on
 fel el
ak i
 leg al
sz e
leg es
 foly tat
eh ér
 ker eszt
s on
é j
szín ű
ja i
 tovább i
gy el
ít ette
m in
ol ta
D e
 f őváros
  őket
ít ő
  esz
ú r
2 4
kö vet
a it
 v ád
s ér
 t ette
 kö nny
 f ogy
 nemzet közi
 egy es
" ,
 vár ható
 sik erült
 gyer m
ogat ott
m el
éri um
at os
ek re
 kö t
 önk ormányz
is mer
 mag át
 p iac
 kö tel
u h
 n ovember
 új ra
 figy elm
ok nak
é hez
i on
l ak
 b ajnok
is s
 sz omb
orv os
m al
 s úly
ó n
ül ő
 f r
h e
en s
elő re
 en nek
 polit ikai
 harmad ik
 t ény
 mag án
 k at
ad t
er c
 ked v
 el k
 h all
 talál koz
i tt
j egy
áci ós
 megfel elő
alm i
 m ilyen
 S t
ság ot
t ató
 v it
 állam i
 kész ült
 sajt ó
 or osz
 megáll ap
 m eccs
 fel ad
 ut ó
 v ez
 el h
 ép pen
 g ép
 b er
 ism ert
 P éter
árm ester
 alkalm az
any ol
oz ta
ot or
 át lag
 m éd
sz ik
 z ár
 szolg ált
eb r
j ét
mény ek
 kis ebb
 m ik
ak kor
2 6
ik l
e w
 ez ek
 ut c
vezet ő
 következ ő
ű r
sz olg
es ég
es ek
 h ol
 f ügg
  enged
 áll ap
 bel ül
en z
 sz ület
ak at
 ki h
 le v
 f ok
á p
uk at
 rend ez
n n
 tal ált
e cs
 kö nyv
 polit ikus
 e urópai
u tt
or n
 szük ség
m illi
any ag
 Ist ván
t ől
ol ni
 ind ul
 mint egy
 em elked
f oly
os ítás
 év e
 játék os
é be
el ni
el ek
áll ítás
 Á l
 közl eked
ed ett
ell em
ch n
m us
ú g
 d r
d ő
Sz er
sz or
er ős
at ív
 h on
g at
k a
 közl emény
4 0
 mér kőz
í m
és ére
 b íróság
 Z s
ott ák
ci us
 szól ó
in ál
  ítél
 kép est
 any ag
er j
Az t
 legal ább
 N agy
 tel ep
 m od
 ny ert
 er re
  őr
án k
ek tet
n al
 növ eked
hat nak
het i
 gyerm ek
öv id
 forint ot
 t űn
2 2
 vesz ély
ór ház
 bizt on
 kív ül
 szerd án
 bet eg
 h ív
 meg l
 miniszter elnök
g al
 l évő
 N y
 vég én
o w
 hely en
 késő bb
 ú jabb
 amely et
 h ató
 ír ja
 hely i
 hely ett
 h itel
l om
 meg old
 felel ős
a f
 év vel
 tárgy al
 hal ál
 m últ
 nek i
 ellen ére
iszt érium
m ond
em okr
 hétfő n
n ev
u c
 szám ít
 való színű
 sok kal
 t ap
n ok
l ott
p énz
I tt
 el ér
 b ír
véd elmi
 ellen i
  én
ó gy
 igaz gató
cs i
j on
cs ap
en k
2 1
al ap
 b üntet
öz ben
 f öl
 E uróp
ez ték
ez t
 kedd en
 t iz
 v ásár
ik k
het etlen
asz n
n d
 ember ek
en nyi
u ház
kor i
 ü t
 f enn
 egy re
 doll ár
ap itány
öz ő
ny it
o j
 B al
 E r
föld i
 MT I
 for m
A m
p olg
é ből
. hu
ál aszt
 Ál lam
 vál asz
 term észet
- re
 fej leszt
et es
  Y
es e
 ah ogy
2 3
 es te
 t űz
hat ja
 össz eg
v áros
ett el
 üz let
ebr uár
g ép
 egy etlen
 egy előre
s ék
en cs
ez er
óz s
 idő szak
 üz em
 év ben
 folyam at
1 00
 utó bbi
or ban
ől eg
 Or szág
 szó viv
nn ep
 b em
 tan ács
f izet
 egyéb ként
 k ény
tó ber
 be jelent
 már cius
aszt al
id e
ok ra
ország ban
 vál ság
 rész let
 szint én
- kor
 is kol
 ism ét
hat ár
 ig en
v ári
 int ern
ú cs
 u ni
 követ ően
 Fer enc
ország i
á ig
 lét re
 társ ad
 kív án
 ig ény
 csütörtök ön
 l et
 neh éz
in c
N agy
eg ed
 fogy aszt
et et
 E urópai
t r
sz ön
 sz ív
ék eny
 ü nnep
p ály
 pént eken
- v
ta g
 r ég
 G ábor
áz s
 fog ad
övet ség
án i
 Or bán
 vállal koz
ör gy
 k ik
 hely szín
 kész ül
 biz ottság
d ig
v ár
r ány
ít eni
il is
 v et
ny ug
 er ő
f t
ol ás
end ég
 for d
 sz ig
 egy szer
 h am
 g áz
 jelent ette
 k í
 m érték
end ő
M i
 t ölt
el v
 ny er
 vég ül
r al
  iz
 r övid
 mű v
 egy en
 an nyi
 f in
 megy ei
 t il
 d íj
 szint e
 társ aság
 fordul ó
 abb an
ít vány
- i
m ag
 b arát
 T am
ács ony
 v er
 d i
 hossz ú
 von atkoz
- s
f r
 elő ször
 tud ja
 r aj
 amely nek
mű v
ar ab
 teh át
 t év
é zet
 k órház
 es ély
 ebb en
- K
 fog almaz
 egy szerű
h ogy
 b or
lov ák
 k ett
iz mus
 év ek
ás ban
ut ató
 ható ság
j ából
on i
 áll ó
obb ik
- m
 id e
 szer v
árs aság
 b rit
ő i
sz áz
ber t
 mi után
 vég re
 visz ony
het nek
 szak ember
 ny újt
 hi b
 szerző dés
ű jt
 B r
ir d
 kormány z
- án
r ész
 m it
ur g
 dél után
p al
v ált
  ed
er e
 ny it
 ki r
és eket
ul ás
lin e
 f ény
E n
 f ebruár
ál ni
 ellen őr
.. .
t öbb
 vél emény
is ták
kö dés
 alkot mány
M int
l a
 v eszt
 ok tóber
d önt
ő ben
ál at
 bal eset
  X
an n
fél e
il ag
 mag a
 sz ép
 fel k
 több i
ük et
2 8
 elő ző
 felt étel
 k ért
és ben
 vezet ője
 v endég
 pr óbál
  éj
m un
 szak ért
 ki fej
 A r
 ut as
 tovább ra
 Gy örgy
  orvos
kez d
up án
 hang súly
 l ány
 J obbik
 kapcsolat ban
M agyar
et ében
 k éz
 telj esen
p ány
u z
 p art
 még is
 Magyarország on
adás ul
 ar ány
 id ei
 egész ség
 ott hon
Ú j
 t öm
 l em
 elfog ad
ék ony
ep t
hető en
 V ik
am a
 mű sor
 világ bajnok
 rész e
ol ja
 áll ít
 kev és
 legy en
át ól
 ál d
 bef ektet
 J ános
or k
 el követ
av ar
 érd em
szab ad
 ki cs
él i
igaz gató
 l abd
 jelenleg i
p olit
 p ort
 gy eng
E r
ügy min
 kon c
 kom oly
 reg gel
sz k
- B
 E U
 ért elm
pr ilis
 vel e
 szoci al
er ek
 kér d
ás okat
d ött
 polg ármester
z a
ér d
il k
 szük séges
 szen v
 k ult
 rendőr ök
 h aszn
os abb
 köz ben
von al
 ki em
 kell ene
em p
 Z rt
 fér f
 ki ad
 tart ott
 en erg
 Sz ab
 l el
 Nemzet i
 eset ben
  ci
h ajt
ánd or
g atás
 m otor
 ut az
 szám a
É s
 ez en
 sem m
 szerep el
acs ony
o c
 mi ért
ef on
 sz ok
 kev esebb
 per sze
 Z olt
  ül
 forint os
 méd i
eng er
et ek
 elő re
 b enne
áll ó
ős orban
 keres ked
 t ev
ás ára
ség ek
ság a
 c ikk
 pály áz
 körny ezet
K V
 vál ogatott
g a
ni e
 p oz
- nek
6 0
 ér vény
ív ül
 í g
ész ség
 segít ség
n ék
ur cs
 jel ölt
 tám ogat
 al ig
att al
 in g
 ugyan akkor
oz ni
 sem mi
 r em
m ai
r án
 p l
 g azd
 ol imp
orv át
ít i
 cs upán
ör ög
apitány ság
o u
 ki alak
n á
 köz vet
att ák
 kö szön
 Egy esült
is kol
 százalék a
rend szer
 kar ácsony
 intéz mény
 f egy
ock áz
 Tam ás
ul ó
 tag ja
  Az
án c
 ak t
 gyan ús
 esz köz
 új ság
 fran cia
 t et
 kam pány
k ét
Ez t
f er
 pénz ügyi
 m ög
 B KV
 össz esen
 hét en
 r ek
 tanul mány
 v ett
il eg
 külön ös
b all
 b ér
hat atlan
őv el
i an
or g
 R end
e y
 hogy an
 N ew
 tal án
in a
 l ég
 leg több
 szem pont
ad ék
om ag
 kezd őd
 érdek ében
el ők
en ki
és ével
 b őv
 Zolt án
en ci
 - ,
 gy ógy
 jobb an
szab ály
 el l
 d ok
 term ék
 ép ület
 sz ül
 csökk en
at árs
 á prilis
el eg
2 9
 k üz
an ács
 ind ult
on a
 minden ki
 P r
 n év
gyű lés
D F
ej e
elm ű
 kil om
- ig
on n
 ind ok
 for r
 ír ta
z ők
 köz pont
él et
 te chn
ód ott
 azt án
.. .

  est
í p
ór i
árm az
 tev ékeny
 p ill
oz ik
 ez előtt
 kl ub
ör ös
 sik er
 k aton
 el kép
ált ák
 dönt ött
 megl ep
ész eti
ított ak
b eli
g ol
en gyel
át ette
át or
 gy árt
 Vik tor
m en
 uni ós
  w
 l ény
 mod ell
ul at
as t
 M ar
 ir od
ró f
k ívül
 b árm
ól ag
ak t
 áll ás
 intéz ked
 els ősorban
 h et
 f al
ra j
 áll t
 J ózs
Itt hon
 el ején
um ent
g et
 h av
 m er
 ki z
 ép ít
 f ot
szer vezet
 e x
  im
 S ch
oh a
ség ét
omány os
ez on
ird et
- sz
v an
 s őt
 marad t
 vagy is
 l átt
én i
 tulajdon os
g azdaság
s e
ése i
 állap ot
 fel f
 ol asz
v íz
 F ran
 között i
r ál
ód ik
tatás i
 kereszt ül
n er
á gy
 vagy ok
 sz ármaz
3 5
én k
ez ik
 év i
 egy ed
 különb öző
 tap asztal
 kí sér
u ális
 es emény
ört én
 vez ér
i o
 szám os
 nemzet i
U gyan
év es
 pént ek
an sz
ir ől
zet es
p ar
 M DF
 fel é
 lehet ett
 kül földi
 k ockáz
ét eres
ás ával
il a
 moz g
 sp anyol
A k
 mód on
 Józs ef
. ),
 A tt
3 1
ó ban
ás ú
 ak ad
 jut ott
ít ják
 munk atárs
 And rás
s ért
 nem csak
old al
 st r
ia ci
 ter vez
ők ént
 hon lap
ért elmű
ocs át
 magyar áz
ál ta
ap ír
 köz é
 ó ra
l og
í l
us ok
 K r
 nő tt
ör vény
 h ad
 el lát
 ak art
 eset ében
 b ek
udapest i
En nek
I I
v áj
és ének
 l ist
and ó
j ára
 az az
 al acsony
 szolgált atás
 em l
s em
eres ég
jel en
ű t
 a p
em t
ás on
 egy kori
re c
 H ír
4 5
ek kor
id ék
 szak asz
 U ni
z ik
 köz ep
ozz a
 súly os
ó g
olt ák
 kut atás
G y
 d arab
lő d
 bel e
er ő
 teljesít mény
 valam i
 felh asznál
j ut
r om
 pénz t
ept ember
Í gy
 v ill
ak ar
 vissz at
ó val
sz int
 val aki
 kil enc
 dok ument
  ők
 m ély
 b udapesti
ől e
 történ et
- h
 ter j
 Rend őr
j ával
 d emokr
ent e
nyi re
 sz or
 az okat
ék es
m eg
o y
at ikus
 mérkőz és
 szóviv ője
 lény eg
B ár
ek v
 S ándor
 ad atok
 kép es
 függ etlen
 t ém
 egy etem
ók nak
 ad dig
 lak osság
 Európ a
r ák
 r égi
olt ak
 év ekben
 S p
z ó
et eg
 e ur
un d
 j ött
 meg jelent
s a
el ik
 fel v
 kezd emény
 kín ai
 ok oz
b el
cs oport
iv al
8 0
milli ó
 l ass
 j ellem
 c ent
 s e
 vég zett
for dul
f ok
 v ér
ez tek
 d ob
 szín ész
eg ény
 egy értelmű
 K ft
 E l
 ah hoz
 fel l
 fogalmaz ott
l er
sz em
 k ár
 m úl
ak ció
at okat
 sz ezon
 meg m
 nev ű
 ber uház
ak ént
ev ő
 id eg
ikl ós
ú ra
 n ők
 kapcsolat os
iv atal
ansz ír
  ülés
e um
ít ése
össz e
un g
ó ja
el en
 szer encs
 id ején
I nd
er v
 M egy
 rend kívül
 tud ott
 oszt ály
 L e
 töm eg
 több ször
 neh ez
v ég
 h ajt
 gy űjt
 an gol
 tiz en
 vonatkoz ó
 férf it
k ör
elt ék
i e
19 8
  Ö
r id
ny al
at ott
 N émet
e ik
e inek
z ése
é ig
 B iz
ocs i
p árt
 j árt
 R e
 tart almaz
 tám ad
o ur
ol og
 érkez ett
l ési
 s okat
 rész vény
 választ ási
a ck
h am
or m
őv é
 valószínű leg
ás ának
 be cs
jel ölt
 mög ött
 választ ások
ed ik
as h
id eg
elt ek
cs elek
 való ban
 elkép zel
er a
 n ál
ob il
 mind ent
M ég
 t r
 nap on
t iz
 k utat
ós ság
 szomb aton
T öbb
os s
 r ög
 ár foly
 gyakor lat
 t itk
 j ön
 kor lát
ém i
 szület ett
- A
 h úsz
ar úg
ir t
aszt róf
 mód os
 sz eptember
 es ett
 O l
en es
 lát ható
 dönt és
 ak it
 m ai
 fel ett
M ár
us t
áj uk
 olvas ható
 megb íz
 b uk
 meg határ
 száz ad
 ing atlan
áj ában
 ország os
g az
t unk
 f ed
ur ális
é tt
 forg alom
án ál
  oda
aj os
 sor ozat
c e
 ny elv
 él ő
 ellen zék
d e
ológ iai
 l ő
 tud ta
 s enki
 Att ila
- ra
 k árt
 t eszt
 szer k
 ut al
 elő ny
 tud om
 tart ja
 dokument um
öl cs
  őt
 Zs olt
r észt
 meg ny
 nő i
 hivatal os
 tesz i
 cs úcs
us ban
ev íz
tat ta
 rá adásul
c a
f f
q u
ú gy
k eres
O r
f l
s p
v állal
 hat almas
Cs ak
í ció
 mik özben
 Megy ei
9 0
 kor r
ult ak
 kom mun
 parlament i
 kid erült
j ön
 k elet
at át
ők apitányság
st r
ez i
" A
k r
ód ó
ét ől
 Ország os
7 0
 meg szer
 szer zett
 B ar
 küz d
ál ja
 M in
 jelent kez
es ül
tt ól
 k rit
 p an
 beszél t
 fut ball
 megállap od
alm at
 össz es
gy ek
oszt ály
 bűn cselek
z ott
 az óta
 mond ja
 költségvet ési
 várható an
- n
 ember t
 ország ban
i er
é cs
ol cs
ell ett
 id éz
ú ttal
 ter h
 kics it
á ért
 v ide
 meg jelen
 al k
 tud ni
 együtt mű
 tűn ik
ut atás
 eset én
ört ön
Ú gy
á i
 leg f
 tart ó
 ar any
b urg
 eljár ás
 pill an
b il
l ét
 enged ély
an cs
 f eny
 több et
 több ek
on al
 tel efon
 folyamat osan
K ét
ak oz
esz él
 An t
ített ék
 sajt ót
. :
j en
 r ól
it ás
lő dés
 fel ső
 for in
- os
g r
 k oll
 h arc
 tér ség
 eddig i
nyug díj
 alkal om
 táv ol
 t ur
 mind össze
ab a
M ost
 a b
 meg elő
 jog szabály
 t enni
 bef oly
ó ra
ít va
 ell ent
m ár
 egy et
úl i
Ind ex
  op
t itk
 M iklós
 m éter
ar l
 fel mér
 fel eség
 M ol
j ének
 b r
het ik
ov ács
 R om
 vizsgál at
 ham ar
ek ről
 f iz
ábor ú
 nyilván osság
  ének
 el ekt
it y
L e
al k
 v egy
 B L
tiz ed
  ur
 dolg ozó
em et
úz eum
 Y ork
j anak
 l ez
ap án
 meg erős
 ak inek
 tájékoz tatás
  ég
ed t
 munk av
 fenn tart
a u
i ában
N y
r y
áll am
 a t
elm et
nök ség
v á
 m ut
 vég ig
 szerep lő
szolg ált
s en
 egy éni
o ta
t uk
ek ént
 jelent i
-f őkapitányság
 forin ttal
a x
m an
p ár
 el b
 hiv atkoz
-t ől
 annyi ra
  [
S port
ez nek
ill ag
n éz
által án
  Új
ebb en
ját ék
váj ci
 figy elem
 kilom éter
 sz öv
ra g
ta bil
 elő zetes
 körny ék
 ész ak
 javas lat
i f
er eg
év e
polg ár
u na
ik at
ált ak
 amely ben
 szerző d
 inform áci
 men ny
 éj szak
 mód szer
 aján l
 a ssz
 sz övet
 tud ós
 szak mai
 önkormányz at
iz ál
 pr oj
urcs ány
M P
ál óz
 s eb
 most ani
 rom án
 z aj
 nyilatkoz ta
 költségvet és
i j
hat ják
 cég ek
 negyed ik
i át
 v ette
 megh al
H ozz
ö nyv
 f idesz
 id ős
 egym ás
ez z
int e
 L ig
 vagy on
 vagy unk
ontos abb
 bizton sági
m ód
an ad
 sz om
ol ják
 L ajos
 igaz ság
áz is
len ül
 mind két
 azon os
 idő ben
 ór i
 fin anszír
 hatóság ok
5 00
 b örtön
het ett
j og
 l enni
el j
at ban
 b aj
 bel ső
i án
v ilág
 év tized
- egy
l ám
 besz ám
. )

n line
 h úz
or ú
 fel ül
 rész ét
 h it
 sok an
H ogy
k ék
 cs er
ber g
 telep ülés
h ol
ség gel
ra z
 M ad
 ügy ben
 érint ett
ügymin iszter
 íg ér
 különös en
or e
 f ehér
 s í
Ez ek
 munka hely
 vissz av
 ör ök
nev ezett
  ős
k er
é gy
 k in
 el ad
 j ég
os ok
 N ép
íp us
S A
 m áj
ell eg
 h ull
 be vezet
  eh
3 00
A r
 főváros i
 nép szerű
Magyar ország
 sz lovák
 figyelm et
3 2
ött e
tat ott
t ette
 hossz abb
 bizton ság
 el é
 leg utó
 Egy etem
 sz ex
 egy általán
ánd ék
- b
 sz ét
 terv ezett
en et
 M an
szer ep
ítás át
osz k
o x
 m ező
ok ból
 d olog
 leg k
 állam titk
 i gyek
 inform áció
 r ak
 d í
 Budapest en
 intern et
 szer vez
szabad ság
 a gy
 h í
 ki jelent
 év re
 szám ító
 történ elmi
 lak ás
h ess
ű k
sz el
Mind en
 rendez vény
 labd arúg
 K ár
 In ter
 kat eg
D P
el tet
 s ért
 be vétel
ic k
hely ett
 z árt
 jó val
 kon z
 legf ontosabb
 I m
 hangsúly ozta
 kísér let
a ch
 ember i
 min őség
 által ában
 int erj
 szocial ista
 pont osan
 őr izet
 egyed ül
E bb
é ért
 a gg
 er ről
 jövő re
 természet esen
ci ós
eket e
 ó v
 tavaly i
3 4
 fel vétel
ip lom
 test ület
f ér
 r obb
 g ar
 lesz nek
 bizony os
 érdem es
3 6
et ett
ad ta
 ép p
 te het
 magas abb
sz ó
él t
 azon nal
h ang
nő tt
V ilág
 h ideg
val ós
 lehet ne
 mag uk
for d
 ki b
 foly ó
 kut ató
 kötel ező
z ési
 s vájci
 r ab
biz t
K i
ö ny
 B er
 pont os
 talál ható
 kir ály
- M
 cs inál
ör ök
 kül d
 kény szer
 b usz
őz s
  ekkor
 v árt
 tud ják
 össz ef
fel é
 jövő ben
 Biz ottság
 cs omag
 le vel
ig o
 sik eres
 egész en
ink ább
p erc
gyű lési
 tűz olt
 sajtót ájékoz
D SZ
án s
a inak
 In d
 rep ül
 sér ült
 csat lak
 l it
 kutat ók
v il
ü st
oz ók
 köz ölt
 hely re
 hoz ott
 t enger
 b íz
 F or
 G éz
 jog i
 jár mű
b é
o od
t es
 h átt
is m
hat ott
fog lal
 talált ak
r á
ó nak
 t or
in e
 meg valós
 ny í
ítás i
b íróság
ut as
 fel ügy
 pr od
 nek ik
ít ható
 fog ja
 ed ző
ét elt
 jöv ed
 igaz án
h i
ár is
 kormány fő
kép pen
f ilm
 d ev
alm a
ális an
 kész ített
 p iaci
ad ik
ci ót
egy en
v eszt
ár on
 s oha
ák kal
 be v
 kap cs
 igazgató ja
 intern etes
 sz ándék
 ar c
3 7
 sz ór
on c
 el ismer
ul a
szer ző
 ér z
 ad ta
 úgy nevezett
 fr iss
: 

A n
n ének
 k ont
át um
 V al
szak i
 cél ja
 alak ul
 v ág
il t
 P et
 z en
 család i
 Géz a
 m es
 gy ak
 több ség
ajn os
 men et
 negyed év
 szenv ed
 f est
 p oszt
id ő
 min ős
A l
att ak
 id ők
ítás t
 játsz ott
 megv ált
 V as
 z öld
 felad at
f aj
er i
él emény
 pr of
 in fl
 áld oz
 m eleg
 T im
 tud nak
 nap okban
 besz éd
 társad almi
ú k
il ap
 kö ny
 szerint e
 T anács
 igaz i
 elk ész
ekv ő
 ér zék
19 7
 társad alom
 segítség ével
. -
 v ad
 egészség ügyi
hat unk
 tart óz
 ról a
od ik
Ez zel
 m obil
 sz av
 szolg ál
 B el
 for rás
áj ának
 magyar országi
gazdaság i
 fidesz es
 eh hez
h armad
 h ő
 l engyel
kez ett
 ebb ől
 köt ött
3 3
S ok
ra b
ond oni
ul cs
 P ál
 dél előtt
 p il
 A d
 rész ben
 dönt ő
- Sz
ás os
ért e
us i
B C
 h arm
 meg tal
 d iplom
 két szer
uszt rál
 di ák
bel ül
  ára
at ta
it al
old ali
- nak
E m
 B ank
old og
M ivel
ú ni
 k al
ok ról
 választ ók
kot mány
 menny iség
 a ttól
oz ása
 át alak
eb rec
r es
ny el
 r i
 meg f
it ív
 fel d
 T he
 ismer etlen
 jelentős en
v ar
 L MP
 Sz er
 min isztérium
 Köz pont
en er
ít ék
 K A
er ed
 K ín
 T ib
 Állam ok
 köszön hetően
 r emény
 vég e
 által ános
 visszat ér
i um
 mű ködés
ossz abb
 élet ét
 erős öd
 létre hoz
or igo
 id őt
 ker etében
onn an
 sajtótájékoz tató
E lő
a el
c o
k an
t an
el eti
 l áb
oz ást
for g
- ,
en ként
 sz ob
 meg gy
ökk ent
z ések
ol v
19 5
  eny
 sz ék
 el ők
 ez eket
enn él
 oszt rák
Am ikor
  éd
O nline
an c
abb an
c om
od ott
ünk et
 ci vil
h agy
i gy
n ának
 el sz
ít an
ők nek
 leg inkább
vári um
 t éli
on ttal
ol f
 ki m
ny om
 V ilág
 forint ra
 érték esít
 megfelelő en
 s tabil
 kö l
 fel sz
 mint ha
ád ió
ház y
 ered eti
  of
b ev
tak ar
 közt ük
 hasonló an
 el kezd
 állam polgár
 alkalom mal
h aj
r or
at ók
 ú ton
of t
v esz
in i
art óz
 egy ház
 csak nem
 munk an
 tény leg
 Ant ik
  ölt
P er
 p apír
ügy nökség
 pr ób
kod ó
fej leszt
pénz t
V al
 v itt
 M ich
iv at
 ír t
ennyi ben
 felk ész
ság ban
 T h
ata it
 re ag
 re form
t árs
 v izsg
hat ók
 nap i
 C l
- vel
 v ereség
es i
 R o
 ország gyűlési
up a
 b ü
 S h
 Sz ent
 százalék át
 hét vég
 Gy urcsány
út i
. B
d ék
s é
ás ai
 l ondoni
 s incs
 jog os
arc el
j ebb
r ed
ás nak
ar a
og ató
 köz z
 ak ció
 Or osz
 gól t
 f ont
is sz
 b ot
 r ang
 meg pr
ov a
 hát rány
 kat asztróf
Hozz átette
é csi
el ése
 l öv
 c ig
 min im
 mérték ben
sz ich
ekt ől
- p
 k emény
ít s
ít ik
ed v
 fel nőtt
 kez elés
 haz a
 Antik várium
m unk
ü v
 tag jai
3 8
 m ikor
 sz ár
 meg rend
ban k
 szabad ság
 működ ik
 port ál
ilk osság
 szöv eg
- d
ö p
 t ök
 véd elm
 felh ív
 til tak
 összef ügg
 kapcs án
 sz tr
 ki sz
öl gy
ély es
kö t
 hav i
 M il
 önkormányz ati
 emelked ett
 gyógy szer
ás ában
eszt ő
 szerd a
fok ú
 lő tt
 kommun ik
K öz
 h irdet
 F őváros
ug uszt
 eset leg
 férfi ak
 raj ta
 assz ony
 v örös
 köz ön
év én
enc e
 üt köz
 ideg en
kr ét
d a
ák ban
 fel jelent
 elt ér
 gyak ran
c z
 b enn
 kö tet
 elő bb
 munk át
köz el
h öz
ad ók
ítás ára
 hozz át
 együtt es
 sér ül
j én
 sz övetség
én nyel
 j elleg
 S Z
 lehet ővé
 z avar
ható ság
 Cs aba
 kam at
 gyors an
ecs k
 let artóz
  íz
 minden k
kül ön
 megk érd
 proj ekt
C ím
ú d
 több en
 ország ok
ün et
 ered et
ap csol
 győz elem
 dr ág
z ést
 b log
ót h
 javas l
 ki fizet
ot ó
 ért e
ád i
 előtt i
 rem ek
h ass
 t ípus
 g örög
 ol aj
 szint en
  on
 b enz
15 0
 ked vez
j ú
t ér
 n orm
ar s
 kut y
 h ajn
ak s
 H am
áról ag
 dev iz
 t ők
 t emp
 r eng
áj án
00 0
n it
 bizt osan
 vezér igazgató
 múl va
 őrizet be
" -
 j utt
 j úni
 tart ják
 kezd ett
 véd ek
 jellem ző
 árfoly am
 t akar
 r ajt
 am íg
 tud juk
 an nyit
 ügy véd
 szomb at
 állít ólag
L eg
ány i
 vállal at
 lehetőség et
 kateg óri
 M eg
 I r
19 6
le x
 körül belül
 egym ást
 nyilvánosság ra
 id eje
 tel evíz
dönt ő
  eszt
g azd
or i
 magyar ok
 kult urális
k os
v izsgál
 S port
 kap itány
 ir ánt
 bűncselek mény
 N ap
asz kod
t em
 hat ékony
 Al kotmány
ológ ia
Cím kék
ény i
jár ás
5 5
ely ik
 megy ében
mér sék
 büntet ő
p ad
u zs
 f őleg
 kap u
 kör ében
ing ton
mag as
 végre hajt
V an
c el
j enek
u e
öd ik
 gyan ú
 erő szak
 Im re
j unk
véd ő
 ide ig
 h ány
 s véd
 ok ozott
 polit ik
 gyerek ek
 szoci ális
 b ék
 A mer
 hely et
 sor s
 választ ás
űn t
 köl cs
- E
. )
ni uk
 K l
 részt v
biz ton
 Tib or
  ennél
N P
 f áj
 F öld
 E m
 sér ülés
 olimp iai
 kiz árólag
 Uni ó
 m on
 v enni
ön tet
szer int
 szenv edett
 befoly ás
 l op
áll ás
 ki állítás
unk at
 J oh
ő bb
ök et
ók kal
 ol cs
 pály án
F el
ér m
 nem r
ell y
uk t
 G o
val ó
 jár ó
 államtitk ár
 r uh
ug ál
 lát vány
p er
é bb
 ad ósság
ológ us
 lev eg
 D ebrec
öv ezet
 világ h
kod ás
 Ország gyűlés
ár ul
 G r
 ind ított
 lel k
 munkav állal
u x
 M ag
ir at
 szerd ai
 eur ót
mérsék let
a utó
sz éd
ja it
 leg fel
 mag am
 ár am
 fut am
 sztr áj
ek ből
 an t
tat iszt
abd a
 fr akció
 B íróság
 R ó
áci ót
19 4
 akad ály
k oló
v ér
al a
al on
 p al
 körül i
 h ord
 v b
ír t
 lem ond
 elkövet ett
 Kár oly
  ág
g ond
 a uguszt
 p ót
 kedd i
polit ikai
 str at
- ös
 B e
 tart ani
 terj ed
 cent im
 Főváros i
el nek
és nek
iszt r
 kom p
 szig et
- S
am p
 ind ex
 öt let
 kormányz ati
 sz ellem
ít anak
 emlék eztet
 feny eget
n es
ál koz
 meg kezd
 áll at
 szám l
 tovább á
 lép ett
 méd ia
 éd es
M ás
ez ése
 ez úttal
 G DP
 tart ozik
Nagy on
 ellent ét
I ly
ó bb
 mér sék
 egyszerű en
Per sze
ű v
 m él
 m ester
on s
ik et
 d erül
áz ott
 H orvát
 H ivatal
arad t
 Gy őr
 közös ségi
tár ak
 Budapest i
es ett
 P h
 vált ozás
d ik
 m et
er em
 t üntet
am os
 vezet ett
 min él
 médi at
 a szt
 v ették
or osz
 r évén
ent i
 F ő
 lehet séges
ült ek
 közel ében
 alap vet
elmi szer
 könny ű
 bem utat
  űr
4 00
an a
 t it
és ében
 M c
 év ig
 más fél
ony ol
Ez ért
 ház as
 kevés bé
 haszn ált
 poz itív
 cs od
 nev ezte
3 9
n ák
 k op
 b oldog
 egy ben
 tart ozó
 hat ály
 lát szik
 másod perc
 működ ő
 kötel ezett
 k r
oz nak
 P ar
 perc ben
 Nemzet közi
 eljár ást
 koll ég
 repül őt
f ogy
al an
ár k
ok ba
am b
ent r
 amely eket
ód i
 szerep et
 mód osítás
 körül mények
 kért e
 ellenzék i
e in
f g
 el ind
ed zs
 ellen fel
 akkor i
 hozz áj
 kom ment
i ber
 A t
 I l
 százalék ot
 kon krét
T E
 b ar
it a
ra eli
 szám olt
 verseny ző
 adat ai
- bajnok
7 5
l ók
ő ző
 k erület
 meg fi
ig et
az in
ch ester
 hoz ta
 sok szor
 nyí lt
al og
 v ir
 l ó
 j apán
 r itk
kez ő
 in gy
D NP
e ci
i ak
 össz eh
o ok
r d
ar ánt
 egy eztet
 cs illag
 K ar
 ok a
 reg ény
polg ármester
 k ab
 sz ent
ál ás
ak ad
 j úli
 haj land
 nyer te
  oly
ov ics
 nap ja
 szerep elt
 lak ó
 alkalm as
 terület én
 korr up
k ett
 O b
 labdarúg ó
 harm inc
 ön mag
 munkan élkül
p iac
ez ést
 E d
 ter emt
atlan ul
 alak ult
 oldal on
 a pr
ul ék
 K is
 val ós
 nap ilap
 tám adás
 mutat ja
4 4
ett em
og le
 K ovács
 év ente
 V ar
ic c
tat ni
 pont ot
le het
ozz ák
 rög z
 szom széd
r en
ór um
 nap pal
 bel őle
ések kel
 ker et
ih ar
 Bal ázs
ás ba
uk or
of őr
 ör öm
G azdaság
M F
k ó
n énk
 egy aránt
uk ció
 helyszín en
 semm it
 hivatkoz va
a in
cs ökkent
 szám ol
 történ ő
 kiv áló
 közleked ési
 szakért ők
 fegy ver
V ég
f al
j árt
É n
 k m
 tav asz
 következ t
 doll árt
 hall gat
 gyanús ított
ash ington
b or
 B l
hat juk
 nélkül i
 rek lám
 kül ső
 problém a
 tevékeny ség
h al
at ai
ud omány
áb l
 párt ok
 kid erül
 gazd ag
ut h
 D una
 él elmiszer
 hozz átette
 képvis elők
4 2
V agy
 h om
 nek em
 elem ző
 Szab ó
 meglep et
en cia
ad ja
 Sz övetség
 ker ék
 hang ulat
 kap ta
 kap tak
 átlag os
Szer inte
l eked
am i
ör ny
ság át
 nagy jából
 fog nak
 szakember ek
 energ ia
 péntek i
er d
ít ést
om p
ész ek
 A b
ir ály
isz ony
 százalék ra
szerű en
 aut ós
keres ked
l ány
 K at
 Al ap
ügg eszt
 In t
 keresked elmi
4 8
p art
 p szich
 d öntet
uk rán
ir os
 id ej
 hagy omány
 fran k
 közlemény ében
én él
áll t
ei ben
vezet ője
ekt or
 időszak ban
4 6
l ett
 f esz
 áll ítja
 T isz
 Sz eged
 terv ek
 bajnok i
 vez ette
 Go ogle
r ad
ő re
és éhez
ár ia
 el eg
ék et
 veszt eség
 cs eh
 fel m
 csütörtök i
 aján dék
 szerződ ést
 kö v
ny t
 tart omány
öt ét
 v idék
ez hető
ell enes
 áll andó
 rend ező
ább an
 hétfő i
 val l
 An gel
 sik erül
 szél ső
milli árd
csap at
Ugyan akkor
Or bán
 óri ási
 következt ében
f a
 h usz
 sz űk
ok s
 P ort
 D r
 vált ozat
ip ari
 akar ja
 lev él
 áld ozat
 est i
 Kr iszt
el ést
 l égi
 meg jegy
 E n
 D él
 két harmad
ug r
 pály ára
-e urópai
irt ok
 mind egy
 R ich
ások kal
orv ég
igaz gatás
 iz g
 kórház ba
 kiem elt
u ni
v ai
 mag ukat
 hat alom
le y
 st íl
ac eb
 üzlet i
 Re al
 f őt
Ily en
T ovább
 k áros
 f ekete
cs al
 r ejt
 M al
 M ih
erül eti
 mű szaki
pr ogram
ter j
 Ny ug
 máj us
v erseny
at ra
 szer b
 jel öl
 ügy fel
esség e
 nyug ati
 megk ap
 magán nyugdíj
 kedv ező
l ev
oz ási
 mi re
 szak szervezet
 ügy ében
 dolg ozott
 központ i
 egyértelmű en
  árt
e ch
és en
 b eny
 le b
 ügy észség
-t ól
 elv ég
 á tt
 Mad rid
. H
4 9
K or
i att
r ist
 meg em
 szerep l
 ment ő
I gaz
 b őr
 több sége
ri um
 vél etlen
 kölcs ön
k et
 érdek es
 anyag i
 szóviv ő
 eml ített
pénzt ári
4 1
 v ettek
 r ag
 hason l
 aut ót
 növeked és
 Min isztérium
e ai
 m essz
on ban
 p uszt
szer k
 szám ában
 szeret nék
 elk erül
 Alkotmány bíróság
5 6
z ás
et ű
 m enek
 t őle
 G azdaság
 majd nem
 fizet ni
 rep ülő
 lass an
 legutó bbi
- P
het ünk
 foly tatás
 szövet ségi
 s újt
 rész én
 ind ítvány
-kor mány
 szempont ból
a ik
 is t
 öt ven
ur kol
ir ány
ítás ok
op p
 vezető i
 elekt ron
raz il
 hő mérséklet
el ég
ás hoz
 év et
isz ap
 valam ennyi
 beteg ség
 fell ép
 tájékoztatás a
- en
f ut
 h avaz
eg nap
es ed
 l ista
ett ől
ci ók
 em iatt
 ok ozta
 öt ödik
 személy es
 vél i
 könny en
 Fran cia
szolgált atás
 számító gép
 letartóz tatás
 m ot
 k ol
ít ését
szer te
esz pr
 D av
ezett en
 bef ej
 alkalmaz ott
 felf ed
v élemény
 F ehér
 kap us
 hajland ó
  +
ez s
 zs id
g er
 al elnök
ter m
 ő sz
 véd ő
 legy őz
 figyelm eztet
fer enci
- helyett
6 5
R á
int éz
ős en
 I I
fog ás
 hol land
  eg
a w
 k elt
 t őzs
 le h
 P L
 D i
 tart anak
 es ő
 kül föld
 mell é
 hagy ományos
 honlap ján
n ár
r em
 k ocs
 h álóz
ik ában
 győz tes
ügymin isztérium
 ének es
 reng eteg
T P
l ob
 s tatiszt
 szám ú
 katon ai
 gyakorlat ilag
 robb an
 bot rány
 SZ DSZ
 fel új
ci on
ír ás
 beszél get
 egym illi
 rendelkez ő
d or
v álaszt
z ió
 m utató
ad ott
ai val
est i
 tud ományos
ony i
 hi ába
 autó pály
 játsz ik
- díj
j ével
ért ek
 csap ata
 Szab olcs
 hamar osan
á it
ek sz
 B arcel
 ny áron
 mond ott
 dolgoz ik
 tölt ött
 iz raeli
  Ü
uk ra
 fog ják
ása it
kö nyv
 lát ogat
 került ek
 szig orú
 szocial isták
Ebb en
 benz in
. com
r áz
ú jabb
ez ők
 b író
iv ál
 D e
eb ek
 kerül eti
 együttmű ködés
 For ma
T av
k e
ol vas
eg atív
ik át
be szer
 nev e
 ész re
 felelős ség
 rek ord
. rész
f ehér
ü sz
 meg int
 ugyan az
 fő szerep
gyű jt
r is
z ák
 m os
ra v
 A m
 ad ni
 men nyire
 üzem eltet
 on line
 v oks
ar ag
 P K
 C ity
 U nit
 energ i
 pl usz
4 7
p l
ó m
et ben
ak ban
 s ofőr
ed es
szt ön
ul i
ra f
ások ra
 nyom án
-k ét
 kl assz
Ak kor
 közep én
 S te
 elő fordul
 után i
all gatás
 helyzet ben
őd ött
 hajn al
m éter
s s
en a
en ő
 t áp
 sz tár
 g um
 kor a
 ter ror
 körül mény
 szabály ozás
 támogatás t
város i
vált ás
 felf üggeszt
- -
c ar
l ok
 b irtok
 B ud
 kezd te
 bizony talan
 érkez ő
 akt ív
l ép
 k ulcs
 sz egény
int ézet
 G u
ert őz
 C ar
 vég éig
jár ól
up er
ített ek
 érdek lőd
 föl ött
 kezdőd ött
 származ ó
eszpr ém
ü ssz
 k ocsi
at ni
 j ót
 meg egy
 meg alap
áll om
 bef izet
25 0
T O
k y
r os
s eg
el ési
 n egatív
am erikai
 B ors
 T V
 össz et
 való ság
 törvény t
 kil át
 sp eci
b üntet
d on
 áll ította
ug ár
ház i
f jú
 m ar
il ván
 r ám
ató rium
 lát ja
of f
ester házy
 terület en
 január ban
 alacsony abb
- D
I d
 k áb
ol ikus
ill a
 bel víz
 ír ó
 szeret ne
 karácsony i
t i
an ci
 év en
 H al
ic a
ítés ére
 kérdés re
 gyakor l
szolg ál
 értelm ében
és éről
ek hez
ak on
 S im
ve i
 idő pont
 lét szám
 azok nak
 ítél et
 seb esség
 hétvég én
ü m
ít ók
ad ni
 jel ezte
 kell em
hely i
 aut om
 bejelent ette
 közön ség
p el
ajn ai
 külön leges
 tűn t
 ford ult
 állás pont
 eny h
 v iz
ar y
ap i
 köz eli
 ki adás
 ad óz
elm es
 hír ek
 ör ül
 fok ozat
 műv ész
ered mény
4 3
H ét
K ül
 meg tart
ed ék
 tud ták
op ron
 doll áros
 vel ük
 legfel jebb
N B
in él
 p áros
 M Á
 M art
 kap nak
 vis elked
kod ik
 dél i
 hónap ban
 Joh n
gy árt
 h egy
 t ábor
ol aj
 meg sér
ése it
 vég et
 vál ik
 össz ek
 után a
 fi ú
rit an
 ham is
p ari
oz g
as i
ők ép
 szeret né
 önk ént
 demokr áci
j ében
 le f
 B or
 leg újabb
 kész ít
 negy ven
 kereszt ény
 semm ilyen
elly el
bb an
ét i
 meg takar
 követ ő
 történ ik
 akik nek
 rég ió
z e
 h orvát
 sz ánt
 d erült
 M erc
 G erg
 N A
 működ tet
 ész aki
 különb ség
 elér hető
 poz íció
 dí sz
 médiat örvény
 Mih ály
m án
 l ek
 vád lott
k ocsi
an s
al kot
 sz én
oz s
ir od
 más ok
 állam fő
 raj ong
szk y
 együttmű köd
p o
x im
ev ők
 F el
 vissza es
 vissza él
essz or
n unk
 b ázis
 s im
het jük
 vég ére
fő bb
ter emt
Azt án
 elér ni
 megpr óbál
 nemr ég
E d
V as
e ink
n öv
at art
 s ajnos
aj on
 B BC
 áll nak
 F ej
 H ung
 I z
 O TP
 ü v
 alatt i
 kiv étel
 abb ól
 vasárnap i
 kifej ezetten
 hátt ér
 Int ézet
  Q
  étel
 fel e
 am inek
 A p
oly g
 kett ős
örtén et
 rendkívül i
 figyelem be
 cig ány
 sztráj k
1 20
M a
f in
al án
 meg fog
 eset leges
 közös en
 aut ók
 part ner
 kijelent ette
 döntet len
p ót
ö b
sz ol
el ep
 nagy követ
 an nál
 lát sz
 bizony íték
biz ottság
 alk oh
 közz ét
Tav aly
 Unit ed
 k o
 h ús
alm át
 való jában
 közt ársaság
Rá adásul
h o
 a gr
ag óg
ell en
 rend elet
 val ah
 át v
 kör zet
Er re
  ét
h t
ik i
 leg magas
 Sz lovák
áv id
 jár ulék
 nyilatkoz ott
 szél es
 ur al
 elők ész
 Orosz ország
- C
- et
. V
A ki
J elen
b esz
r eng
 f agy
oz tak
 s áv
 ki áll
 F aceb
 mell ék
 polit ika
 mér leg
ub lik
 fiatal ok
 rossz ul
 közvet len
 szempont jából
 h áború
oz ták
 B en
 elő adás
 E ur
aszt ó
 ismer ős
 ma xim
 megold ás
 Tim es
' s
N é
cs omag
ít ési
 meg nyit
 cs úsz
 M ark
 T óth
iv ár
Ez en
 int ézet
 valam it
 négy zet
 ház i
 megh alt
 mely ek
 MÁ V
h er
 v e
 s ötét
ság on
 volt am
 I gaz
 foglalkoz ó
 And re
 vit a
 előre jel
p edig
y a
 k ur
ár ok
 el ől
 p or
ov ic
 elő z
 ember eket
osz l
 érdek lődés
 rendszer t
 város i
 megt ud
 telep ül
 apr ó
- F
 t egnap
 v ágy
ek nél
 gy ű
 késő bbi
 szív esen
 júni us
on z
 f aj
át y
ud i
ov á
 össz eget
 pály a
 viszony lag
 forr ad
raj z
g ent
or na
 r ák
 M i
ell a
ri er
 Gy ula
 olvas ó
erm észet
 É szak
 amely en
iszt án
 elv esz
anad ai
H árom
r ád
ak kal
ez ve
ák on
 él mény
 ugyan csak
elem ben
 ór akor
 kit erj
 mik ént
 interj ú
iber ális
 legmagas abb
. F
j ába
es nek
ok tól
 meg új
 A k
iv ális
 egym ással
 Ny om
 Bal aton
h ív
v agy
 H ar
 tám adó
 i par
 men nyi
 rendelkez ik
bizt osítás
A mi
p h
iz t
 P a
 mi szerint
 mond ani
kod ott
 Á r
 segít séget
 halál os
 ver zió
 irod alom
 szerk ezet
 lez ár
 Man chester
  '
b ér
 m ad
 m úzeum
in s
áz ni
 S om
kez elő
eres ked
 ö sztön
 bel ép
ip ar
 men edzs
-B ritan
 g ener
hely zet
 nyom ozás
 határ ozott
F K
c él
és ű
ol nak
 B él
iv er
 rész vétel
 kon f
ex ik
 képviselő je
bev étel
  ily
 az után
ás ról
 b i
 meg ért
ul ni
 fel szám
ud var
 tud tak
 rendszer esen
 ber end
 w eb
ism ert
 stíl us
á c
 sz oft
 p onttal
eszt ivál
 lát ott
 csap atok
 talált ák
 veszély eztet
faj ta
j et
u ra
ek szik
 el utas
 leg r
ekt ív
 fő polgármester
 szól t
 nincs enek
 közös ség
 közlemény ben
 Európ ában
 iskol a
hess en
v ert
el ve
 t ük
 t rag
 el hely
áz ó
 valam ilyen
 konc ert
 mer ény
 nehez en
g áz
i ós
m it
o us
sz ki
at ék
ez ési
 r ivális
 M oszk
ill e
 következ mény
 eredmény ek
 mutat ott
 eszköz ök
 Mich ael
ecsk em
j ék
j ött
k l
z at
ép ítés
 K ap
 A P
av éd
 L a
 val ódi
omb at
 seg ély
 város ban
 főváros ban
 form ában
 Ob ama
  ukrán
5 7
sz av
os i
end szer
 ez után
 H e
 még sem
 vár ja
 személy i
 erős en
 helyzet et
 képviselő i
 júli us
 beny újt
d ély
 sz il
ők kel
 hi tt
szerű bb
 megy e
 győz elm
uc at
 nyújt ott
 Debrec en
igazgatás i
s ereg
t ön
á f
án g
 B ay
 gy ilkosság
 ad ót
 vár akoz
 tag állam
 Á g
 hivatal osan
 Állam okban
 mező ny
M ert
r og
v g
en é
ul nak
 leg főbb
 elő ír
 lát ni
 vesz i
 érint ő
 zár ó
Er ed
 újság ír
em ben
 f órum
aj án
 ki egész
 be szer
ic o
up l
 fogad ta
 fin om
r et
 ut at
 id ény
 ad tak
 mag azin
 kiv itel
 mely ik
 tájékoz tatta
 konc ep
 nál unk
 felsz ól
8 5
p e
 r oh
ell át
 fej lődés
 hal ad
 hír ügynökség
 piac on
ezt em
 esély e
ilk os
 újság író
m ann
s h
 m and
er ny
 t él
ér ia
ok hoz
 M úzeum
 ny ereség
 F C
 mind enn
assz al
ron z
 december ben
 nyit ott
 szerk eszt
  od
- T
ol va
 l enn
 b razil
 köz vélemény
 fel b
ések re
 pont on
 tár ca
 ilyen kor
5 1
k ocs
 s ír
 E N
 ad ja
 J os
ezett ek
 hi ba
 nek ünk
-kor eai
 op er
 Var ga
a ut
l ása
í ni
ö nk
és őbb
egy űjt
att int
ük ben
 ü d
 tanács adó
% -
- elnök
O ly
Á m
al ép
 n őt
ez d
 r ádió
az on
 al só
ev er
 R ed
 tart ós
 film et
 oldal án
 problém ák
 feld olg
I n
 a usztrál
 f utó
ig a
 am ennyiben
 c ikl
ház tart
 elnök ség
 sik ert
 akar ta
 im már
 megny er
  et
P edig
 P écs
 leg end
 T e
 szám ítani
 V ol
 kép esek
eked ett
sor ozat
Mind ez
 szervezet ek
 kett ő
 érvény es
 pan asz
 auguszt us
S C
Ö ssz
 t ü
 f ék
szt ikus
 vált ozott
 U SA
 szabály ok
 kid olg
 mél tó
fg an
T ud
 sz ünet
 f őként
ét eg
 cs őd
 K om
 V eszprém
 át men
 O s
ünk re
 kormány párt
ító ja
 megh ív
 néz ő
 indul ó
ou ver
 Horvát h
  áb
 k anadai
ol nok
 n et
 r ó
 meg ér
ni ük
ől t
us s
ügy elet
 él t
 kül dött
 ok tatás
 tesz ik
 legalább is
 elfogad ott
 forr ások
 eur ós
 környék én
e ivel
h asznál
 t ettek
 meg lehet
 am ivel
 F i
áv ol
 most an
 csap adék
 föld reng
 kezdőd ik
erv atív
  étt
6 00
n ém
in am
in ős
on str
 leg sz
őr ök
 ért esít
ját sz
 össze csap
 tiszt elet
 hatás ára
 adat okat
 üzem anyag
! !
n ánk
em elés
ás áról
ét ert
 meg ismer
 i pari
 illet ékes
 elv ár
 reg isztr
étt el
 egyet ért
h át
 h eti
ál ják
 r át
ov jet
 L engyel
 jó vá
 mely nek
ológ i
 euró övezet
 utc ai
 ellenőr zés
 név en
j ak
á szt
 v icc
 p ih
át us
ét lenül
 egy ebek
ed agóg
ev e
 G örög
 rend ezett
éd i
 jelent őség
lik t
 Sp anyol
 at om
9 8
F A
s ch
t im
 h um
 v ers
ál kod
ap p
 meg ítél
 am úgy
ám p
 Sz ak
ran cia
 dönt ést
 táv on
 ör eg
enk o
 természet es
 rög tön
 husz on
 h ekt
 K ol
hat ta
 P árt
 Sz il
 kör ben
 en nyi
 nyugdíj as
 Központ i
" Az
d ám
u ári
el vet
 v ív
és ről
 b es
 g át
aszt ás
 két ség
 An tal
oh ány
 akik et
 itt hon
hu nyt
 arány a
 kérd ést
 informáci ók
 leveg ő
b usz
k un
s i
el vény
gy al
 in n
 állam háztart
 egész séges
 folytat ott
 meccs en
 állapot ban
 kin ev
 Ró bert
Kül ön
h árom
h ivatal
s m
u ck
 t ran
ez ések
ét len
 M at
 M ed
ör g
 H ol
 ellen e
19 3
ic e
atok kal
 nev ét
uszt r
 megsz üntet
 á p
 á gy
 díj at
 EN SZ
- l
B udapest
E h
g ól
u el
 t étel
es ület
 d isz
 G e
öz ött
 tart alék
 nev et
 Fer r
 mod ern
 felmér és
 jelleg ű
 centim éter
 mand átum
5 2
5 8
M últ
el ését
 h ős
 B ull
 gy alog
ások nak
 idő járás
hely en
 péld a
 nyilván tart
lik k
 bank ok
 találkoz ó
 éj jel
 rem él
 Német ország
 felett i
Ar ra
 típus ú
 konf likt
  Í
. K
e iről
k ész
t om
sz ék
sz avaz
 h űt
eg r
 r ont
 A ir
 T el
 hely ezett
 rész éről
 nap ján
 elv eszt
 dolgoz ók
 egyszer re
onal d
 temp lom
 Angel es
  ,
i ban
k am
l ást
p apír
 h ir
 n émi
 b an
ad ion
ja vas
 F l
kor ú
 ad ós
alm ak
 milliárd os
 szük sége
 hát só
 elh agy
 kih ív
szó viv
 sajtótájékoztató n
  /
9 5
s eb
 t ették
in et
 f urcs
án ia
 l ov
 meg néz
 d em
 köz beszer
 szám ított
 tör ök
 tart ottak
ass a
 akar nak
 tér en
 átlag osan
 megelő z
bizton sági
- nél
u j
 k üsz
 b ronz
 P énz
 élet e
 mely et
 támogat ja
 akt iv
 hull ám
S E
] -
an ia
 t orn
 f ür
 j ö
am s
 g lob
 Sz ín
 folyam atos
 szomb ati
 befektet ők
 munkatárs a
Jelen leg
 Bél a
o fi
 v ar
és hez
 b olt
us k
 gy ár
 áll om
ir k
 N B
 er őt
 D ávid
kép p
 ál m
 raj z
 munkatárs ai
 bü szk
R FK
 k os
 f űt
 b onyol
cs k
 s ár
ad i
ul ása
og ó
 M on
 fel szer
 B M
áj ára
ete or
Né hány
 p ap
 meg d
 fel vet
 P l
 kis lány
 határ ozat
 dr og
 próbál koz
 ülés én
 Ol asz
 strat ég
akad ály
 v i
 v étel
 f unk
 f ekvő
tt est
 meg őr
ad ót
áll ító
ai ban
 ny ar
 lehet nek
 foly ik
 ami ért
 gond olt
ügg etlen
 veszély es
Mi után
 til t
 Merc edes
- jelölt
E H
l ése
sz eg
 r okon
 d er
ró n
 elem zők
 alá ír
 orvos i
 fal u
 független ül
 árfoly ama
 feleség e
 lit er
 táp l
  ettől
t atták
sz ent
 r ec
ság gal
 kép esség
 milli ós
 ügy fél
 i fjú
ess e
 dr ám
g észség
 sz al
 p at
ók ént
 P er
éd ia
 mond ták
 em ellett
 né ha
 kis sé
 bem utató
6 4
e an
 h ete
 t ől
 l ux
 fel te
 al ól
 K i
 C ap
 ok tatási
 ami re
 érkez ik
 utc a
 szakért ő
S t
k ér
k apitányság
v ál
ú ton
 t emet
 n ém
cs er
 s os
 leg gy
 T or
um ot
áv á
szolg álat
 kib ocsát
 erősöd ött
 Ro bert
külön b
- Z
5 3
É rd
ó c
ol a
 ki f
ság ok
 le jár
 P est
 ért esül
 ügy ész
ark as
 megk eres
 haj lék
 megb eszél
eik et
 szex uális
 javasl atot
in ált
 f ű
 ez üst
 K or
hat tak
 tart otta
 ill eg
fi c
 sok áig
ün t
 nyug at
 kam er
 polg ári
ion ális
fr iss
ancs nok
 szoft ver
- cs
d i
z en
 m an
 t ej
ál nak
 köz gyűlés
 al ul
szer es
 mind ez
jár mű
 érték ű
 világbajnok i
 polgármester e
 kialak ult
 mérkőzés en
 ab lak
 Nép szabadság
z ük
 f ős
 p iros
 be av
oly a
áj ával
 had sereg
ékes fehér
 Inter n
 meglehet ősen
Eh hez
H at
 a jt
en ny
on ta
ol ható
 b ez
 s üt
 meg akadály
ák ra
 M ari
 H on
ót ól
 nap ig
 minden képpen
 jegy bank
 meglep ő
se a
 megerős ítette
Vég ül
 üv eg
  ep
d emokr
agy ó
ad ást
ut a
og rá
 mind kett
 kép et
Sz ab
vis elő
 történ ete
 november ben
 kult úr
 meghatár ozó
 megvált oz
 eredet ileg
c ím
l öv
é h
 t ucat
 E b
 er ej
ip p
 eredmény t
 lét esít
 reg g
 sport ág
 ver te
 október ben
 mut atkoz
 tűzolt ók
 Barcel ona
g en
m ás
ol ása
egy ed
oz atot
 s ür
 le p
 am ellyel
 ter vezet
 pénz tár
 idő re
tek int
 történ elem
erm ek
ro w
 csat orn
 kiem elked
 látt a
 megállapod ás
 választók erület
 ág az
 megsér ült
y om
 t ol
ut y
 szer ezte
év é
 de b
 össz ev
 z uh
any ar
fő nök
 Á dám
 biztos ít
 gondol kod
 ön álló
foly am
 közlemény e
 magyaráz ta
 elektron ikus
T ermészet
r ak
el hető
el sea
 r úg
 r adik
 M iskol
aj nál
od ás
 H áz
 állam ad
esség ében
 péld ány
okr os
 titk os
 elekt rom
en isz
és ük
 b ánt
 meg közel
ált ató
 G al
 mag ának
 vissz alép
 Cs eh
 fény kép
 hajnal ban
- fel
K ap
N e
m éteres
at osan
an nyi
ok nál
 s enk
ad ása
ra el
 ki es
 B likk
 u n
19 2
ün ch
 haz ánk
 megsz űn
 hív ta
 megelő ző
 pil ót
 messz e
 havaz ás
A hogy
J ó
l es
t ársaság
 m ed
ol i
 s ejt
 d al
am es
re p
 min ket
 pénz ügyminiszter
 szerv ező
O l
 k eleti
al e
 sz ed
ség ben
áz ár
 B ajnok
 leg n
 D om
ház ban
 ami ben
 nev ezett
 hír es
 megsz ok
jut ott
 hí d
- ügy
N incs
r at
et ét
is égi
 d ohány
het ők
 jelent és
ason l
 intéz mények
eset re
 meccs et
 tárgyal ások
 beszám oló
 klassz ikus
k ap
ik e
 b ocsát
 szerint i
 ért ek
 által a
 vár ják
 vill amos
 köztársaság i
  ev
T alán
h y
j an
m is
z ár
ez ked
ai ról
 ol d
 gondol om
ment es
enz ív
pénz tárak
 pil óta
 repülő gép
- gy
c ég
k utatás
on na
 T w
ölt ség
ec ember
 lép és
 győz ött
 közleked és
 színész nő
 Dav id
v ásár
 sz im
 b úcs
il abda
 kor szak
ém ia
un ánt
 keres let
 foglalkoz ik
 igény be
műv ek
 haszn os
Magyarország on
 olcs óbb
 repülőt ér
C h
Á l
et ő
in ni
 d ik
 M esterházy
ai m
 fel ép
 K N
 K atal
 L ond
 val lom
 ország ot
 elm arad
 kon ferenci
 ór án
 politikus ok
 veszt ette
 közvet lenül
 Hír ek
 közölt ék
 kedvez mény
 gyanú ja
 eleg endő
N émet
f ur
l ist
n ünk
v eres
om ra
ond a
att y
elő d
 em leg
 lát ogatás
 túl él
 eredmény e
 teh er
 tiz enk
 szig or
 konc entr
 intézked ések
 jöved elem
 hir telen
l ad
r ág
 m at
 l él
 tart ották
 hat van
 kormány t
ran d
 hónap pal
 fiatal ember
 nyugdíj rendszer
erc eg
qu e
 fáj d
sz önt
 k ony
ak nak
 el hunyt
 r ájuk
 B ul
um b
 D em
 I MF
 mű t
Sz ám
 kapcsol ódó
 közül ük
biz ony
mód osítás
5 4
6 8
8 00
 sz ög
 M unk
 vég ző
 forint on
áci ók
 rendőr ségi
 kapcsol atot
áció ja
 törvény javas
ess é
 megsz or
 megv ásár
 aján lat
 egyes ület
 műv észet
 izg almas
 speci ális
üm ölcs
r ek
 m éteres
 h ar
 sz án
ít ve
 egy ség
 kö b
ák nak
nk ént
 ny ári
ír us
av art
 él vez
nap os
 Egy esület
 vizsgál atot
 felad ata
 vállalkoz ások
 mindenk inek
 Gerg ely
- H
- hez
A d
 k ert
 be val
ött ek
 G ab
 T örök
 tud unk
 mond juk
árd a
 tám ogató
 ár ul
 vár nak
 nyug od
 forg almaz
 cím et
 prod uk
 ellentét ben
Oly an
5 9
J an
i ába
 h ábor
 f enti
 f ertőz
 el rend
 ki mond
 g al
te chn
 P at
 L os
ín usz
 rossz abb
 önkormányz atok
 kedv enc
 február ban
 menet rend
 tük r
 Bajnok ok
m énnyel
 t áj
 sz áj
os ta
 d ics
 B ajnai
ön ny
 be von
 val ak
 C ol
 es ik
ást ól
 hoz am
 ügy vezető
 legjobb an
utt ó
 ellenőr iz
 gyeng e
 tartalmaz ó
 krit ikus
 beav atkoz
) :
K B
M ag
c on
 m or
 el ej
ed ző
it s
 cs end
ép pen
let ek
 világ os
 ép ül
and er
 erős ebb
ord on
telen ül
sen al
 konz ervatív
 szór akoz
 Ár p
 Görög ország
v i
em ier
 f ül
 f il
ás uk
ít ések
 meg sért
 fel ében
 F t
 c h
 ad ók
 I s
ei re
 kezd ve
 W illi
 W ashington
 aján ló
 test vér
 dolgoz nak
  öv
6 7
y k
ó ba
at ikai
 b ont
árt ák
 szem l
 vezet i
 tan ú
 elnök i
oll y
 közl ése
 szín vonal
talan ul
 problém át
 bajnok ság
 szok ásos
 negyedév ben
 kommunik ációs
 feljelent ést
 zsid ó
h an
r át
 t egy
 t erületi
ai ra
ir end
obb ant
 kül ügyminiszter
árs a
 vár ak
 fej lőd
 gond os
 szavaz ók
 kat olikus
áp a
 lel ki
 tulajdonos a
 éjszak a
 fesz ült
- nál
 n orvég
 M el
 le ír
 be jegy
 T r
 er k
 igaz ol
 véd elem
 szín pad
 száll od
eged i
 lég it
 kiz ár
 ex port
g ész
í k
 h árm
 sz ülő
on e
 l og
 l iberális
él etes
 M a
 ad ták
ítás ával
 J an
 pr ofi
 valam elyik
ing er
 biztos ító
ac e
 elem zés
 beruház ás
 mes él
- R
6 6
f ia
ő n
 el szám
 K önyv
 P al
 ér v
ós a
ajd ú
ór ia
szak asz
 illet ék
ter n
 kerül nek
 megh osszabb
szel vény
bizt os
Em ellett
Kor ábban
t örvény
 m ért
 h éttel
 S an
te bb
 amely ik
 első d
köz ben
 foly t
ing s
 hal t
 hal ott
 kerül het
 táv ú
 ön gy
 bem ut
 pályáz at
Le het
 glob ális
 BM W
- amerikai
N ek
k ai
l ási
 k attint
ak ra
ül ly
 meg ment
 E x
ügy észség
lő dő
őd ik
 megv an
lov én
Szer int
 fot ó
 napon ta
 megfog almaz
 hajlék talan
" 

h ette
 k up
 sz imp
ez ését
 l end
 s k
od or
ev es
 kép zel
19 1
ász ok
 ár víz
uszt ri
 növ ény
 rendelkez ésre
 szakért ői
 port ugál
 lakosság i
 legutó bb
-E uróp
 kab inet
 korrup ció
 alelnök e
 egymilli ó
  ök
I A
sz al
an o
 l er
 s ugár
kor ong
 J ack
 vállal atok
hu z
 dolgoz ni
 forduló ban
 bárm ilyen
 ingy en
 koncep ció
  Ó
er eszt
at ja
 t ánc
ol ási
 d íz
ig ur
 M er
 ér zi
 ért esült
 ok ozó
esség ét
 következ tet
ne y
 szolg álat
 akar ják
 nyilván való
 É va
 Állam i
pály ás
 vélemény e
 infl áció
fejleszt ési
 hozzát éve
Hét fő
K ar
k o
s burg
ság ú
ip tom
 ház tart
 személy iség
 játékos ok
 let ölt
 készül ék
 kormányz at
sp anyol
z ését
 f ia
 b ul
ett ó
 cs elek
 S a
 G ól
öz tet
 L ev
 lap nak
 szerv ezett
 demokr atikus
 br uttó
 sos em
Természet esen
N ép
T C
T L
 h as
 v ihar
in n
 p ad
id éz
 szerint em
 P ár
fel vétel
 talál ta
 kom olyan
 beszél ni
 kiad ott
 cser él
 Kín a
 vörös iszap
ena ult
u v
ás ért
ar ch
ül y
áll ap
 T om
 hely sz
eni e
ark et
 csat ár
itt er
 megold ást
 vendég ek
 kezdemény ezés
evíz ió
 pillan at
 reag ált
 összeh asonl
szolgál ati
- ről
k raj
ent ő
Az ért
 C arl
 D a
iszt áni
 vég ső
 munk áját
 vas úti
 vizsgál atok
 polg ár
 Ch elsea
af ut
 felkész ül
 Mil an
 megfi gyel
 Ág nes
 regg eli
 Katal in
  ugr
- nyugdíj
S ch
j al
sz övetség
 sz ót
árt ól
 szám ukra
 lehet etlen
im ir
pont os
ri ch
 kiv ált
 kiv álaszt
 kedv es
 vállalkoz ás
6 9
8 8
j aként
 m ínusz
em lék
is ebb
 el ítél
ar n
 ú r
 ad nak
 ügy nök
 jelen ség
 cím védő
 szen ny
 tet sz
 Par lament
 légit ársaság
m et
m arad
p est
ü h
al g
 l áz
 b án
 meg oszt
 M NB
ság ra
ud arc
 ut ód
 E szt
let et
 vezet ők
 három szor
ító szer
éld ául
zs ák
 megv álaszt
 föl é
 befektet ési
polit ik
 ci p
sem mis
 elképzel hető
 prof esszor
 világh áború
 Nyug at
  olt
 k ém
or l
 sz urkol
 f űz
tt el
 b ok
 b ab
ed ek
 ki egyen
iz ált
esz i
um ok
 fizet ett
 vide ó
 robb ant
-helyett es
d el
m e
 v ak
 f ém
egy ház
 j ós
 B U
 ad omány
 tud omány
 szem b
 választ ó
 dönt ése
 érdek elt
 helyzet be
 folytat ódik
 terj eszt
 édes any
 aszt al
b i
j ei
er o
ol ók
 áll atok
ev esebb
 vég leges
 alap ítvány
 tan ár
 verseny t
 vizsgál ja
 rom a
 kíván csi
 akt uális
 részvény ek
jog i
 gar ant
 felügy elő
 diplom áci
 földreng és
 Árp ád
s y
 k ő
 k én
 d ig
ad al
ség ű
 cs ont
áll ított
 T oy
 L u
be cs
 kam ion
 cím mel
 elég edett
 rég óta
 visszav on
érm es
E k
T A
V B
í nek
 f en
 b ány
ett ünk
 r ett
ány os
ell el
 be fog
 több nyire
 D áni
 forint ért
 fél re
 kar rier
 hagy ta
 nyilván os
 bár ki
 kih asznál
 ahogy an
szem ély
 mennyiség ű
 televíz ió
 alapvet ő
 Bors od
 elektrom os
f esz
h ull
o ch
t ünk
t erület
en v
 k egy
 v ajon
or a
 sz uper
 p assz
 p écsi
át lan
 meg te
it i
ább i
 V íz
 él én
 él nek
 hat odik
ász at
 dolg ok
ozás át
 st b
 mik r
 orvos ok
 tr én
 vezérigazgató ja
K edd
N égy
k ar
et s
 m ez
at ák
 l es
esz ked
 két száz
 em elte
edd önt
 jobb oldali
 véd elmi
 kev er
 használ at
 száll ították
 számít anak
 szezon ban
 módos ító
 eltér ő
 kötelezett ség
  ob
  onnan
P r
d án
d zs
 k udarc
 v evő
 n ettó
 l áng
ot el
 K ult
 G ordon
öz és
ir ól
 J on
nap i
ossz ú
 W A
 fél id
 segít eni
 felt étlenül
 ész l
 fr ont
 egyetem i
 felső ok
Le aks
ezz ük
leked ési
M íg
h úz
h arc
r oll
s ki
w w
in o
 meg semmis
ot al
 ter ep
 hoz ni
 választ ott
 W iki
 ker ek
 szerep e
 érték e
 vas út
 lét ezik
 tiszt a
 sport oló
üz em
űr ű
 Faceb ook
6 2
m agyar
É p
ás ához
ett ük
ind ul
 K irály
 ny ak
 F üggetlen
 P ark
 él ett
 z ene
 an d
 kész ülő
all gat
fog ó
 forg atók
mér kőz
 könny ebb
 növeked ést
 techn ikai
 Német országban
 idős ebb
 internet en
 eszt end
besz éd
  önt
7 00
 f ár
áll omány
 K ül
ill er
 gy ümölcs
ös en
 L eg
árt y
 tud tam
im n
 u gy
 ember nek
 vissz ak
kel eti
 szint ű
ly el
 termék ek
 tizen egy
 elsőd leges
F otó
H át
b eteg
h ír
p át
el ések
 k g
 k áv
 sz iv
 ellen fél
 vezet és
for rás
 jut ottak
 pár huz
 használ ni
 hatás sal
 kín ál
 tekint ve
 Zs uzs
 egyen l
 vélemény ét
 Fran k
 tűzolt ó
vesz ély
 szár az
friss ebb
  isz
O tt
o ut
il d
it ális
ad ások
ja v
 B ern
 leg frissebb
 ad ják
 mi előtt
 R TL
őr i
kö tel
tat ja
 csap atot
 par koló
tart ó
 mutat ják
 tekint ettel
ázs iai
 délután i
 tők e
 alapvet ően
 Som ogy
 áb ráz
- V
7 2
oz va
ék és
ab or
 N e
 él ni
 bíróság i
öny ör
 érzék eny
 tök életes
 ütköz ött
n om
t len
 sz egedi
 s h
ap ott
 d ivat
 An na
 élet ben
 tav asszal
 bet ölt
gató ság
 szeret nénk
 tiszt áz
 nyilatkoz at
 zár ta
 szolgált ató
 gyárt ó
 nál a
 óri ás
 hull adék
 jutt atás
Ed dig
 AP EH
- L
6 3
= "
h ét
í d
 t ál
 t ábl
ál a
ik án
cs uk
 p ak
 am ik
 N or
 hely ét
 ter ve
 kormány nak
 követ i
 ép ítő
 üz en
 tíz ezer
 hol ttest
 szül ők
 het ven
 felügy elet
 radik ális
- ki
M it
 el dönt
ni ában
 M át
od ó
 ny úl
ud ai
 vég i
 jelent ett
 vezet ést
 ind iai
 világ on
 ír ás
essz ük
 kl ím
érd ek
 környezet védelmi
 kilom éteres
 szeptember ben
 op tim
biztosítás i
  ik
K ér
et áris
 r ug
unk nak
 I b
eh ez
 nap irend
 tiszt ség
-K DNP
 Vas as
  ült
6 1
S ajnos
U tó
h ettek
l áb
r egény
t ett
v égi
é je
 m ak
 t ab
 t oj
ak ter
ak tor
 el j
 K iss
ev en
 c áf
 már is
um a
okat lan
 fog va
nap ján
 kis fi
óz is
 egyik e
 következ ik
 kérd ése
 Szab ad
 csinál ni
olv aj
 Ü gy
v ad
an na
ez het
ős ebb
áj ú
 An g
 szabad on
 MT V
 súly osan
 lit eres
 kont in
 Kl ub
 met ró
 Francia ország
 külföld ön
gent in
Ek kor
0 9
N A
 k ék
 k ór
 t he
 p re
 cs ep
ny olc
 már k
 E nd
 ér i
 hely én
ítás ának
ód ás
 e e
 jár nak
 hisz em
 játsz ani
 lehetőség e
 lehetőség ét
 Ar senal
 otthon ában
osabb an
 kockáz at
 bűncselek mények
8 7
S őt
n am
ar nok
 s ar
 meg teremt
 d ur
 R os
ítás ra
ód nak
 vég eredmény
 nap ot
 ügy elet
ász ati
 pont ra
 vesz ik
 határ idő
né gy
 üt em
-K ore
oss uth
 kelet kezett
 tök élet
 Ap p
 államad ósság
d ei
v idék
Ö t
 a j
 m ult
 k omb
al ai
 t end
 fel ismer
 g enet
unk ra
ött ék
 es k
ját ól
 lak os
 pály afut
 ór ás
 olvas hat
 elt űn
 használ ják
Am ennyiben
 kiem elte
II I
 választások on
 zaj ló
 kos ár
 illeg ális
- val
1 30
g ar
i bb
x d
él ked
uk ban
 C o
ette bb
 más részt
 em elt
 szolg áló
 szület és
 kívül i
 kórház ban
 ezelőtt i
 döntött ek
ekkor a
 meghatár ozott
 település en
 ajánló szelvény
l emény
w ood
ál va
 b ölcs
él eti
él lyel
am in
 am int
szer v
mény t
 ügy et
 jog erős
 élet be
 párt elnök
 ő szint
18 0
 tiszt esség
 hatás a
 fran ci
 kény telen
vállal koz
 működés ét
íts ák
 konflikt us
 sür g
ok i
 r ob
od r
av i
att ól
ések or
tel ep
 illet ően
izs i
enek ar
 jelen lét
-t enger
 men ni
 megsz ól
 perc cel
 munka erő
Mi ért
 gyeng ült
 Mol nár
 Tisz a
iver po
 kén e
8 6
c al
m int
s te
ü sp
er on
 h ölgy
 h erceg
ál atok
 el ért
 el ny
 p ot
ig ht
 év fordul
ev és
 ut alt
 T er
 mag ára
 J ames
 hozz a
 von al
 forg alma
 mérkőz ést
száz ad
 ül d
 megbíz ott
 megtal ál
üssz el
 Iz rael
dély i
 lux us
 BU X
) ;
g e
k s
t ud
u ch
 k v
egy ver
oz ások
 egy séges
 meg cs
og h
 B ur
 K DNP
öz pont
 N ov
 szám át
 R enault
 más t
 össz etett
köz pont
esség et
 term elés
 von at
 vas tag
 bal oldali
 tém a
 kárt ér
 rak ét
 hátt er
 megfi gy
Id én
 furcs a
8 9
N S
l abda
z on
 k anyar
or ok
 f üst
 el nev
 s ajnál
om ba
kez és
 hét köz
Egy előre
zs éb
 lett ek
 hónap ja
 haj ó
 fontos abb
 folytat ja
 játékos a
-m agyar
 jogos ult
 ingy enes
terj eszt
fic it
üsp ök
v ás
v öz
ő nek
 r éteg
 A lex
 R ad
 vissz am
 rendszer ben
 üz enet
 szín es
 szeret nének
 program ot
 foglalkoz tatás
 kih agy
 egyed i
 káb ítószer
avéd elmi
 ró mai
M ik
j öv
j ünk
í tt
ö dés
 t rend
 b omb
om in
 am ilyen
öl ni
 nagy m
eszt in
 Sz övet
 Sz ombat
enn é
etlen ül
 ár on
véd elem
 előtt e
 any a
 történt ek
 hiány a
ens e
 kíván ja
 Német h
 áldoz atok
 ló erős
keresked elmi
 Pa ul
0 8
k it
an ta
ok k
 b lok
áz ta
 G P
iv e
 V an
 V áros
pr essz
 ir oda
 nyom ozást
 szín ház
 hónap os
 közel ebb
 elt ávol
assz ony
 gép jármű
 beteg ek
 fejleszt ési
 dí ja
 sajtótájékoztató ján
 mindenk it
 hálóz at
 fokozat osan
  Ú
7 6
? ?
g it
l ót
at e
 t op
 sz ovjet
is ág
 el d
 M or
 fel aján
 L y
aszt ott
 D V
iszt ikai
 hoz ták
 munk ás
 alap osan
 külön féle
 negy eddönt
 katon ák
 származ ású
 igyek szik
Ebb ől
 védek ezés
 tit ok
 hozzáj árul
 munkanélkül iség
 kétharmad os
cion ális
 Mart in
 Ferr ari
b arát
f ür
p onttal
t ál
 a v
 h üly
 v ont
 v igy
 M ont
 köz igazgatási
iz áció
 B okros
 A udi
 F ilm
 H a
 forint ba
 int enzív
 kapcsol atok
erg ia
 elég ed
 köt vény
 olimp ia
 lényeg ében
 emlékeztet ett
 vir ág
 mindegy ik
 közzét ett
b l
 k ód
 h ű
ek ing
ik ák
 b olyg
 szer ezni
 H er
elm e
for r
 rendszer váltás
 érték ben
ess ék
 tesz nek
 változ tatás
 utc án
 bír ság
 labd át
 katasztróf a
örny ezet
 demokráci a
fgan isztán
m ind
m ozg
 v izet
 v írus
 l eny
ni ai
ság os
uk k
 F otó
 ér zés
 össz esít
 át lát
 ár uház
 fér j
 felt űn
 határ id
leszt ési
 program ja
 moz og
 Köz társaság
 nyolc van
 részlet es
 Ar any
 fegy veres
Val ó
 szellem i
 alkoh ol
ivár og
 Bay ern
 Szín ház
A C
K ésőbb
R T
ó p
al íció
 t onna
 f őz
 K am
 hely es
elm ek
eny i
 lát ják
 választ áson
jár ó
juk at
 hang oz
ogram m
ezés ű
 határ oz
 fizet és
ma il
 érint i
város ban
org e
 bek övet
 tehet ség
 köny vet
Tovább i
 felte hetően
Érd ek
1 10
7 8
j ához
k ezet
o ba
 m eteor
ap ja
 meg köt
 ki fogás
ot on
 áll omány
 T elek
 L ak
obb an
 úgy hogy
 idő jár
 bet art
 személy esen
öm b
 kérdés ére
 hát ra
 mérték ű
 kifej tette
 hit elt
 kategóri ában
ons o
 Alap ítvány
ech an
m ez
r é
r eg
és be
 l ámp
 el adás
ut az
 cs ú
 M ünch
 gy önyör
20 2
 val a
aszt alt
ítás ban
 mag ával
ünk ben
 ill eti
 ügy ek
 ját ssz
 kezd et
 cég et
 fő nök
 sajtó ügyelet
 helyszín re
 érvény ben
 nehez ebb
 Lig a
Elő ször
 NA TO
  ös
l el
v it
 sz okatlan
em elked
az a
 ki csi
 kor ai
 elő rel
 rend ben
vezet ők
őt ől
köz ép
 gyer eket
 határ on
telen ség
 aján lott
 ellent mond
 küsz öb
 Pár izs
- ot
g ő
j á
k il
sz ül
an ul
ek ció
 p ublik
 s ét
 M ot
 ki szám
ind ex
 g omb
ab izt
esz köz
 ér ett
őr ől
 Sz olg
áb la
 világ ban
 világ szerte
 tag ok
 törvény ek
vez ér
 Magyarország ra
 elt űnt
 els őként
 könny ed
 utc ában
 szép en
oldal ú
 információ i
 szervez ők
 interjú ban
 Spanyol ország
- be
E SZ
a ci
gy ógy
ás ból
ed ő
as tr
 M ik
 F I
 F id
olg ár
 ter én
ór ás
 rész esed
 ü res
 kér i
 vált ó
 külön adó
 bajnok ságban
 siker rel
 Ind ex
 tavasz i
 Sim on
 megszok ott
- ből
9 6
B al
a ja
r ang
u enz
in ho
 el enged
 j ók
ék ek
 szer ény
 köz elm
 fel es
 R eg
 rész ére
kel et
tel enek
 valam ivel
 fő igazgató
 ór át
 szerző je
 hónap okban
 irány ító
 megt ám
 hall ott
jét ől
 Ny ír
 tet szik
 vegy es
 felül vizsgál
ford ult
 települ ések
 forrad alom
 jóvá hagy
 államháztart ási
zséb et
 h áló
 sz eg
 sz ök
ól yom
 lehet ő
 össz egyűjt
 munk ak
 ind ít
ács i
ván dor
 bizony ult
ard o
 bűn ös
 parlament ben
 készült ség
 nyer ni
 X V
 str ukt
elik op
 tartalmaz za
 sorozat ban
 térség ben
 börtön büntet
 beszám olt
 ritk a
 Tel evízió
H L
b o
b al
s ej
t őzs
et ro
 t önk
 sz ank
il e
 M ű
 fel szín
ám a
 S al
us a
 F ed
 de ficit
 szám on
 R onald
 száz ezer
 nap os
 en nyire
 eredmény eket
 kerül ő
szám ú
 hozzá fér
 elt ilt
 hiány zik
 Köz ép
 utó bb
 pillan atban
 zaj lik
 rám utat
 legn ép
 párhuz am
 közelm últ
  ás
i re
í sér
at y
ap or
 meg enged
 d upl
ai d
 fel von
 le áll
 F ut
 D emokr
 st áb
 reg ionális
 moz dul
 igazgató ság
 ed zés
 köszön hető
 bőv ül
olcs y
 éjszak ai
 kal and
vesz élyes
 Igaz gatóság
7 4
a ink
h it
n émet
p áros
x c
ó f
 a sz
 k eny
eg es
 d eleg
 S ar
 vég ki
 hét végi
 elm aradt
pr om
ati onal
 fej ezte
 verseny kép
 forg atás
 hall gató
 elh ang
pénz tár
iskol a
forg alom
árk óz
 gyű l
 ban ki
 stratég iai
  ázsiai
0 5
H ason
k ur
p ark
t h
ál ogatott
án nyal
 p orn
ig azd
 le hessen
 S eb
 K anad
 be vet
 szerint ük
 G B
 O tt
vezet és
erg om
 szavaz ás
 folyam án
 tájékoz tatott
 emelked ik
polit ika
 indok olta
anc ouver
 ölt öz
 minim ális
 ideig len
gond ol
 Mal év
 megalap ozott
Kap usok
  ejt
7 7
gy ár
ol id
ok ol
ad ták
 cs ek
 fel ek
 fel ület
 S c
 K ossuth
ud it
 G er
kor cs
ch e
 szem ét
 ír ták
and r
 mér etű
 amerikai ak
 kiv on
 felt ár
 Ch rist
ali for
lak át
 lem ez
váj c
 vad ász
 ri aszt
 látvány os
 Kriszt ián
exik ói
 Gab ri
arket ing
N a
P ént
p iaci
 v ám
om at
 B ak
 A fganisztán
ert ék
 L i
 mag atart
 nap ra
19 0
 kész en
 mér nök
 Á kos
 itt as
 pár izsi
 tiszt ában
 program ok
 ítél te
 bejelent és
 egyen súly
 megm utat
 elb eszél
 strat égi
  eng
b olt
l agy
 sz ektor
ál int
ar vas
 b ocs
cs at
 cs oda
 ki pr
öz i
 több let
 I rán
 J apán
 int egr
 szó ba
 jav ul
ób ált
 euró val
 néz ni
 legy enek
 hazai ak
álaszt ási
műv ész
műv észeti
 kevesebb et
 látt am
 okoz hat
 mobil tel
 hozzáj ár
 sim án
D ecember
U t
j ére
m ában
m otor
t ük
ít sa
 kö szönt
 H agyó
 ar gentin
jár at
lő dött
 U kraj
 vél te
 győz elmet
 gondol ja
he im
 tap asztalt
ennyi re
 uni ó
 állít ják
 meghal adja
 finanszír ozás
 közz é
 mon etáris
 Ph il
 vidék i
 Hon véd
 App le
  ék
9 00
J ól
h ár
k ert
l o
é ch
 k incs
ak adt
os a
 egy részt
ed i
it u
 K ecskem
 H old
 L ad
 tart alm
jel öl
 vezet ése
and a
 személy gép
 ment ők
 foglalkoz tat
 arány ban
 fell ebb
 tizen öt
 idéz te
 ri port
közel ebb
 takar ék
 véletlen ül
 agr essz
ékesfehér vár
-nyugdíj pénztári
9 9
n ám
r ov
r ték
Ő k
el ejt
an á
 v ét
 sz ür
 meg ism
 M arc
 le ány
 B o
 S véd
ind a
 gy ök
 áll ást
 L ázár
ós ok
enn el
 munk áltató
 ugyan úgy
 Z ala
 dolg ot
 eredmény ei
16 0
14 0
 Nagy díj
 fogyaszt ói
 Br üsszel
 het ekben
 nyelv ű
 agg od
edv es
 szerepl ők
szerk ezet
ous e
 dig itális
3 50
e im
l ottak
s ik
t áv
 m e
ek be
on nyal
 f oc
egy i
it z
 cs el
 S y
 ny el
 év század
 volt unk
 jel kép
 már a
ód ni
 szak ma
 vált ott
 kezd ték
ri an
 ment én
 kit ör
 elt elt
 utol jára
 zs ír
 Ist en
 figyelm ét
la ck
 többi ek
 gyeng ébb
 szor os
 meggy őző
 bü dzs
 Ak ad
öltség vet
h álóz
l ánc
sz ob
el d
 t ün
ek ul
 p op
ül ni
ül öp
il ton
 meg mond
ul y
ja inak
 ki p
 F r
 kor ában
ang e
 sor ban
 fér je
 kezd tek
 par k
ub l
 marad vány
 jegy ezték
 használ ja
 érkez tek
lin i
 november i
 form ájában
 Ferenc város
 tév é
 ős szel
 áldoz ata
 szék hely
 prób ált
 résztv evő
rem ű
 önként es
 legr osszabb
szki j
 bes or
 törvényjavas lat
7 3
v ers
 t ax
 t enisz
és ből
 el fel
 p edagóg
ag an
 év ad
 kor osztály
 C or
 kap ac
 kép ek
 int er
 kar akter
öt ő
 vizsgál ják
 tér kép
 jan uári
El mond
 folytat ta
 elh al
 baleset et
 het edik
oss á
 biztonság os
 diák ok
 énekes nő
 kellem etlen
demokr ata
Kedd en
V olt
V élemény
k át
l or
t ör
ó v
 r ov
om as
áz at
 köz remű
 kor szerű
 R og
 z ak
 alap on
 ország okban
 ór ával
 halál a
 válasz olt
fr ikai
 bőv en
 feny eg
 igazság ügyi
 televíz iós
 közbeszer zési
tern atív
Nép szabadság
d í
r ot
ü d
en ék
 v ol
ál ása
 s ülly
ség ének
 fel sor
id a
 S opron
od ell
 kép erny
 né zet
 eset ekben
 ir áni
 mellett i
 Al eksz
 találkoz ott
 gyermek ek
 akart ák
 eml ítette
 ülés en
 buk kan
 kilométer re
 mező gazdasági
 level et
 bev ásár
 elismer te
 érz em
úd ió
-bajnok ság
 legyőz te
 autópály a
 átmen eti
 várak ozás
 Münch en
L ar
i en
m át
n ai
 k atal
at már
em ent
 meg ind
 M o
 B u
 elő áll
ós t
árt on
 V örös
 tud ok
 von z
 össze foglal
 piac ra
 forduló jában
 jelölt je
 alig ha
 gazd álkod
 ell op
 kárt y
 fiz ikai
 informáci ót
 sért ett
 büntető el
 deb rec
 Tw itter
 tizenk ét
Jan uár
Hétfő n
 legnép szerűbb
7 9
N ew
S em
l ések
p ed
x e
sz áll
er re
 t onn
 sz tor
 f esztivál
 meg él
 M ár
 K ál
 év esen
 P ann
 c ukor
 elő terjeszt
 szám ítás
kez ik
ítás sal
 I II
 él en
 szem be
 egyik ük
 nev ében
 fél év
 nyom ás
 véd ett
esebb en
 film ben
 játsz ó
 part n
 nál uk
 köny ve
pót lás
 Toy ota
 Dáni el
 végki elég
O L
V elvet
l én
r adó
s ort
es er
 p ál
 M űv
ai r
szer vez
öz ik
 V ide
 mag abizt
 új don
 ugyan olyan
ossz olg
 igaz olt
 fej ezet
 jelen ik
 jegy ezte
 hatás kör
 megl évő
 informáci ókat
 kerület ben
 szélső séges
 Rich ter
 Q u
 diplomáci ai
lagy imir
R em
z árkóz
 h id
es k
is e
 meg ír
 köz gazd
 köz szolgálati
 fel ét
 fel ől
 K ép
 hely ére
 C z
kal m
 mond ják
 kép zés
 választ otta
 kezd ő
 vár ni
 talál ni
 kív ánt
 kit art
 perc es
 gól lal
 nép szavaz
li ában
 ismert et
 ford ított
 utas ok
 támogat ottság
 kezdőd ő
 im port
 tervez i
 kin y
 norm ális
 vir radó
 jót ékony
Vas árnap
 Andre a
 debrec eni
" .
- féle
8 1
8 4
D r
n egyed
s ák
v evő
 v ész
 el árul
 s ör
 M ind
ny ék
 al ternatív
 be bizony
od tak
 g er
att an
 H ajdú
 D ev
 vég eztek
ch er
 össz ességében
ést ől
köz lési
ic z
SZ Á
 ker est
oh am
 marad ék
 vesz nek
ezés ére
Cs ütörtök
27 0
 ítél ték
af r
 büntet és
 nyit va
 látt ák
 szakasz án
 Ö n
 kommun ista
 tájékoztatás t
oszk vai
 prod uc
hi ány
 szór ak
 pal esztin
Vagy is
 levél ben
 Os car
 műt ét
hull ám
 sziv atty
Utó bbi
- hoz
H ol
n ali
á va
al it
em en
is h
 el jut
oz dul
 r ef
ag a
 ez ren
 jel zi
 elő d
 E P
 E z
 ér ez
 milli ót
őz tes
 kis gy
 W ebb
 élet et
ter v
 következ ett
 ház igazd
 megsz ület
 tulajdon képpen
 zs ák
 esz m
 magán személy
 üzlet ember
 im ád
 szolgáltatás ok
ach er
Sok an
 résztv ev
 Port ugál
 valah ogy
 benyújt ott
uty in
  ek
k án
l av
u ha
é c
ű ri
 v éve
 sz égy
ol ását
ar e
ar ak
 meg fizet
 d iv
 M ária
 fel ejt
hat na
 áll ítani
 V ill
eh éz
 azon nali
 ép ült
 választ ották
 ár ver
 hozz ájuk
vis elők
 dolg okat
 biztos ítani
mi tt
 néz ve
 zs eb
 részlet eket
 iskol ai
 baleset ben
 kult úra
 list át
 teljesítmény e
 térség ében
ker eszt
udomány i
 autom atikus
 búcs úz
 pot enci
 gyönyör ű
 vala ha
Hason ló
éch enyi
7 1
J el
K A
K ovács
M ond
S V
b ázis
l it
n an
el e
et h
 h old
ol asz
 el terj
 r ász
re i
ej át
 er ők
ítás okat
 át adás
 kez elni
 jog ok
lt al
tatás a
 Al onso
 változ ások
 tekint etében
 gyűjt emény
 titk osszolg
 jön nek
arl ós
 font osság
 munkavállal ók
 Nyom ozó
 Lengyel ország
olly wood
  •
F or
i ás
k utató
 m oszkvai
al ista
 el érte
 el eve
 p üspök
 s elejt
ény ek
 ki adó
ön gy
 K elet
 rend elt
 E B
 hely e
 mag unk
 át lép
 O p
 állam ok
ri p
 terület eken
uh ász
 tény ező
 halál át
 ünnep i
 olimp ián
örtén eti
 lényeg esen
 szerencs étlen
 telefon on
 szár ny
 Il dik
 főt itk
 főszerep lő
-- --
 hekt ár
 köb méter
K özben
b ur
n ője
s á
u ny
el ső
 h asz
 t eng
ik ával
os nak
ség re
ra i
ell e
ell o
 T ur
 tud tuk
 tör zs
 össz esz
 mű szer
 kez ében
jel ző
ikus an
ász ár
utó bb
 jog sért
 élet ében
 von atok
 felt ölt
ac ing
 terület ek
 felh ábor
 német ek
 tekint hető
pály a
 viszony ítva
 Hír ügynökség
-h árom
 Rom áni
 legk isebb
 vitt ék
 iránt i
 felm erült
 Fej lesztési
 merény let
k apitány
l án
á h
el s
 t ét
ár ak
 s eh
ap t
 cs inált
 M ic
 fel ment
iz ód
 A st
 A usztri
 g raf
 jel ek
 elő döntő
 L iverpo
 D zs
ch t
 Sz oci
 mű vel
 tal p
pr of
kod ni
 mér et
 kon str
 marad tak
 ór ától
 st adion
 ismer i
 néz ett
ard i
 test i
 munka ügyi
 felad atok
 fok ozott
 folyamat ban
 mérték e
 Ir oda
 forgatók önyv
  ital
! "
- G
V G
 k re
 f oci
ak k
 al p
 V ettel
 V álasztási
 munk ája
 minden esetre
 ü r
 első fokú
 vált ak
 pénz intézet
 fej lett
rend ű
 vissza fog
 képvis elet
 autó busz
 forg almi
Szer encs
 helyett es
nyug ati
 kí sért
 vonatkoz ik
 egészség ügy
 bér let
 fed él
 prof it
Em lék
 kal óz
 étt erem
 kiemelked ő
Szerint em
 kontin ens
T iz
l ing
z y
É v
 m ekkora
 sz ur
ül ése
 r ádi
 meg nyug
ent rál
ám adás
ci ókat
 E gészség
 C am
 nagy szerű
 R ák
 él ők
ked ett
 kis m
óz ás
 ár ak
esít ő
eked és
port ál
 egész ében
 gond ot
 rendszer es
 vél hetően
 lép ést
 helyzet e
 könny ebben
fr ont
 pályáz ati
 vill any
 dob oz
 megállapod ást
 idéz i
 Lig ája
 tor na
 prod ukció
hass on
 sérülés eket
 megnyer te
 Í r
 lend ület
F ontos
I gen
l us
x id
á inak
 h ig
 h ód
 h ird
 h vg
 sz ál
ar ap
cs ics
 r et
 d ek
 K o
 be ép
 A usztrál
uk le
ov er
 leg közelebb
ük re
 R ol
 rész ében
 nap ok
 W e
 csap att
 kil ép
 képviselő jelölt
 vásár ol
akt érium
 szakasz on
 megbíz ható
 vereség et
 megkérd ezett
 köv ette
 Fehér vár
 legend ás
óc zi
Szab ó
 Telek om
 mobiltel efon
8 2
h ős
m ar
p i
z á
 sz örny
 meg lát
int én
og n
 B ékés
 S em
 K op
 be ind
 áll tak
 F ord
 G i
 G re
 ad atait
asz k
 él vonal
őt len
 sor rend
 szint et
 tár c
 vállal t
ezés sel
 szavaz ó
 működ ött
 anyag ot
 dollár ral
 feltétel ek
 próbál ja
 mozg ás
 szerencs ére
 visszav ág
Ar ról
ood y
 Rich ard
 ősz i
eresked elmi
 bemut atkoz
uv ent
 sajtóügyelet ese
afr ikai
  öl
9 1
b r
g l
j eként
p uszt
ö h
 t ür
 v áz
és én
em i
 f igur
 n oha
ok a
ik um
 b ő
ít hatatlan
 egy ez
 nem i
ul hat
ot h
ag o
 u j
 tel e
lan ak
 törvény hoz
 par kol
 marad nak
 működ ési
 tett es
El ső
 kín álat
 kisebb ségi
 Zs ig
 vásár olt
 március ban
 lány a
 mög é
io xid
 Rendőr kapitányság
 Pet er
 bemutat ott
oszl op
 Hol land
elikop ter
 Fut ball
 eng em
  udvar
F C
g é
l atot
 el eget
 meg véd
 d án
ul ását
ság osan
olt atás
 A ut
 g én
 áll ítása
ók ban
 H ait
 J ász
 Sz échenyi
 sor sa
 választ mány
 személy ek
ern and
 elmond ása
 perc ig
 megállap ította
 fok oz
 rendez ik
érd em
ast ély
 Új pest
járt ó
 meglepet és
 megjegy ezte
szol út
 Moszk va
 szil veszt
 hűt len
 Da ily
 elj utt
  éb
- on
- afrikai
A nd
B ar
K om
O P
v id
ik os
os ak
ut ers
 F ab
 F arkas
 P e
 elő bbi
est ület
 N ic
 R ádió
 mag ad
eh át
 lesz ög
Sz intén
 tovább jut
 ór ákban
 ismer et
 részlet esen
ce án
 hit elm
irod alom
 ugy e
8 3
D A
k at
l ettel
r ik
er et
at h
al d
ol ást
 köz úti
 fel r
 B RFK
od ni
 A ss
szer zés
ők e
 c el
 J o
 J ul
 ar atott
 jelent ése
 vél ekedett
 ór áig
ika ilag
 közt i
 emlék ezet
 inform atikai
 közép ső
Szer dán
 barát nő
 konc entrál
 történet ét
 megm arad
 alk at
 benn ünket
-Britan niában
uta alap
0 4
B e
E R
H orvát
V ar
m ező
z avar
 k b
 l ök
 l ánc
cs ő
ot y
hat ták
 G en
ba új
 szám omra
 D ub
 tör ekv
 mű anyag
 tal aj
Ez után
st er
kép vis
 haz ug
 hír t
szám l
 bal oldal
 használ ható
 elfog lal
 fontos nak
 készül nek
 techn ológi
 kiz árt
 Rom a
 tudós ok
 tartóz kod
 hozzát art
 Moszk v
 Willi ams
anta sztikus
 Ildik ó
O SZ
R ész
t ra
w e
 m el
gy ors
 f ent
 el it
 p ol
ap ság
 M ur
ci um
 K upa
 áll ított
 ut ólag
 G ar
 T our
 H orn
isz en
isz ont
 tart alom
 él es
 mond ván
 eset ek
 biztos ított
 eredmény es
elés re
 verseny en
 táv ozott
 ítél t
 fogyaszt ó
 fogad ja
 támogat ta
 indok lás
und es
 edző je
szerző dés
 vizsg ált
 önmag ában
 szomszéd os
 lenn ének
- r
C D
k es
u re
u ártól
 t elt
 n ull
ar ett
 p let
 s ark
 M ak
 be jut
 A v
 P ol
 T ársaság
 H at
 val lás
ítás ához
ult úra
 z enekar
ór endszer
 szem mel
ilm os
 játék ot
 személy zet
 kit üntet
 szabály talan
 száll ító
 kl in
 re ál
 nyert ek
ózs a
-v ilág
 vállalkoz ó
 április ban
 kilenc ven
 Bel föld
 olcs ó
 erőt elj
 fil ozó
 a frikai
 k assz
 h ab
 t ért
 t olvaj
or it
ál d
 el kötel
 meg tekint
 szer t
 szer ez
ész ett
 K örnyezet
 F in
 más nap
 I ván
 új já
 ember e
 bel ga
 ugyan ez
mű sor
 jog ot
 pénz ügy
ant ól
 par ancsnok
 kil ogramm
 túl i
 vél ik
 víz szint
 találkoz ót
 állap ota
 számít hat
iskol ci
 ap ja
 demokr ata
 kont roll
 összefügg ésben
 var ázs
ukle áris
  Ő
  övezet
B en
T V
i et
k om
n el
 sz űr
 f a
 meg hoz
 M ess
ag n
 er d
 D ob
 J udit
 kép ző
 O VB
állal koz
 dönt ését
 költség ek
mér ő
ron g
 szemben i
 teh era
 csat orna
 találkoz ón
 vásár ló
 X X
 világbajnok ság
 indok ol
 bárm i
Or osz
ker ék
 Kín ában
 vitt e
 szabadság veszt
 kommunik áció
 megem l
SZÁ F
0 7
B iz
F idesz
m eccs
en nek
 m ág
an e
ül ést
ap a
ét a
 r áj
 d üh
ut in
ta bb
 köz e
 fel p
 B us
 S am
end vai
elm ét
 össz hang
 u nok
 e b
ic al
 ir aki
kép zés
 term elő
 túl zott
 vezető edző
 hát ul
 fiatal abb
 fizet ési
Mind két
 cím lap
 változ ik
 kedv éért
 rég en
 kett en
 próbál ják
 felhasznál ók
 minőség ű
 rab lás
 drág a
 terjed ő
 től ük
 sh ow
- tag
B r
H al
c t
f rancia
l em
í ciót
ű s
or os
ás án
 l y
 p ól
ül d
il it
 kö d
om ó
ány a
 ki szab
ag ue
 A fr
 T v
 ér ő
 H un
 L ou
 több é
 C om
 er dő
kez ési
 tör leszt
ód tak
 hoz tak
 fi úk
any i
ati on
díj at
 kom m
 vállal ta
 keres ő
 keres nek
ess en
 szavaz at
abd arúg
 tájékoz tató
 díj át
 hib át
 elkövet ő
 Sch um
 század i
 jelentkez ett
 jég korong
anc ell
 minim um
 Fő ügyészség
 visszaél és
 ko ord
 bánt almaz
Ép pen
S im
V iszont
h ont
u cs
 m echan
 b ic
ül nek
 s m
 szer elem
 M árton
 fel mond
 B álint
 S vájc
 K öltségvet
 nagy ság
 R ud
 százalék ról
 rész leg
 kormány szóviv
 követ ett
any a
 akkor a
 lát om
 terület et
 néz ők
fr astr
 lány ok
 kiad vány
 lass ú
 forgalom ba
 küzd elem
 csatlak ozott
 felhív ta
 inn en
 tran z
 jö het
 helysz íni
 félid őben
 franci ák
uvent us
  &
  ost
E K
R end
T otal
t él
v ét
 m iskolci
 h or
 egy úttal
 r ág
 d inam
ny ik
 S e
 al ábbi
Az onban
ók ra
 T ud
 R acing
 kap ható
 D ani
 át fogó
fel ől
 által uk
 rendőr i
rend elet
 nincs en
 segít i
 szabály sért
 bűn tett
 nyolc ad
 St re
 bor z
 hib rid
 elfogad ta
 intézked és
 esemény ek
log ok
 elb ocsát
 Szer b
 ritk án
opp ing
 robban ás
 Vol án
 Cap ital
Kér dés
 tökélet esen
 genet ikai
 bocs án
- an
9 4
K id
f it
o om
x f
sz iget
al ó
 f ant
ol as
ik on
 p inc
ra h
id ej
het ővé
 B lack
 ak adt
 K ét
 ny ers
ók on
 L uk
áj ába
áj áról
ítás ában
 biz onnyal
 mű ve
 világ ot
 jog állam
 W olf
kül d
 Magyarország ot
 össze om
éb ként
 ide ális
 komoly abb
 Le ague
 dokumentum ok
 tur b
 hí ján
 várt nál
-Sz atmár
ítan ia
 védelm e
 előfordul hat
 ily es
- mail
. e
D él
K ín
r ol
y t
ó ján
et ni
 m exikói
at ér
ér zék
 p et
 p of
 egy fajta
 r ém
 meg alak
 K ub
 ny ár
 g ör
 elő seg
 H ató
őr ség
eszt ett
esít ett
omb aton
 fő szerk
 ház ban
 ment ek
 kit al
 elt ör
 els ej
 felad atot
 tév ed
 műsor ában
 intézked éseket
ij jártó
 óv od
 eszt endő
 házas ság
 Hal adás
ublik án
orl d
); "
 közgazd ász
" Nem
0 6
9 2
V issz
b ocsát
g ium
h ar
v iszony
y an
z ött
 f ebr
es c
re form
Az óta
ell i
ir ág
 amely ből
 ter vei
 I van
 követ elm
 tám ogatott
 elnök ének
 elnök választ
 szó ban
 keres ni
 helyzet ét
ull adt
 nyolc adik
 hall g
 gép ek
 Er zsébet
 tanács koz
-B ereg
 szerepel nek
 jelölt ek
 katon a
 szolgáltatás t
 hajt ott
 bevezet ése
 Val utaalap
 cig arett
 statiszt ikai
gyárt ó
 valah ol
usztr ia
 gondolt am
 ep izód
 díz el
 Eszt er
frastr ukt
d er
f o
al ább
 sz ülés
in form
em be
án a
ez red
il abd
 szer ette
 cs ecs
 ki esett
 be vándor
 áll ni
ók er
 ut ak
 G old
 elő dönt
 L ov
 hely ezték
aszt ja
 V ancouver
atok ban
 ír ni
 sor ra
 ah onnan
all as
 kezd i
 fej ét
 párt ja
hon e
 Cs ong
 lap ok
 jegy ban
 fut ott
 abb a
úsz ott
 ber lini
 belül i
 fogyaszt ás
 X I
 szok ott
raj zi
-A baúj
 engedély t
gr essz
 mut atták
 Ber lin
 zen ei
 Lond on
 mat em
 Mát é
 Költségvet ési
T I
h itel
i ek
j am
 m erült
 v elem
ek ért
in y
ez let
tt ől
ar ancs
 b aktérium
cs ka
 p ost
 p lakát
