{
  "version": "1.0",
  "truncation": null,
  "padding": null,
  "added_tokens": [],
  "normalizer": null,
  "pre_tokenizer": {
    "type": "Sequence",
    "pretokenizers": [
      {
        "type": "Split",
        "pattern": {
          "Regex": "[^\\r\\n\\p{L}\\p{N}]?[\\p{Lu}\\p{Lt}\\p{Lm}\\p{Lo}\\p{M}]*[\\p{Ll}\\p{Lm}\\p{Lo}\\p{M}]+|[^\\r\\n\\p{L}\\p{N}]?[\\p{Lu}\\p{Lt}\\p{Lm}\\p{Lo}\\p{M}]+[\\p{Ll}\\p{Lm}\\p{Lo}\\p{M}]*|\\p{N}{1,3}| ?[^\\s\\p{L}\\p{N}]+[\\r\\n/]*|\\s*[\\r\\n]+|\\s+(?!\\S)|\\s+"
        },
        "behavior": "Isolated",
        "invert": false
      }
    ]
  },
  "post_processor": null,
  "decoder": null,
  "model": {
    "type": "BPE",
    "dropout": null,
    "unk_token": null,
    "continuing_subword_prefix": null,
    "end_of_word_suffix": null,
    "fuse_unk": false,
    "byte_fallback": false,
    "ignore_merges": false,
    "vocab": {
      "\n": 0,
      " ": 1,
      "!": 2,
      "\"": 3,
      "#": 4,
      "$": 5,
      "%": 6,
      "&": 7,
      "'": 8,
      "(": 9,
      ")": 10,
      "*": 11,
      "+": 12,
      ",": 13,
      "-": 14,
      ".": 15,
      "/": 16,
      "0": 17,
      "1": 18,
      "2": 19,
      "3": 20,
      "4": 21,
      "5": 22,
      "6": 23,
      "7": 24,
      "8": 25,
      "9": 26,
      ":": 27,
      ";": 28,
      "<": 29,
      "=": 30,
      ">": 31,
      "?": 32,
      "@": 33,
      "A": 34,
      "B": 35,
      "C": 36,
      "D": 37,
      "E": 38,
      "F": 39,
      "G": 40,
      "H": 41,
      "I": 42,
      "J": 43,
      "K": 44,
      "L": 45,
      "M": 46,
      "N": 47,
      "O": 48,
      "P": 49,
      "Q": 50,
      "R": 51,
      "S": 52,
      "T": 53,
      "U": 54,
      "V": 55,
      "W": 56,
      "X": 57,
      "Y": 58,
      "Z": 59,
      "[": 60,
      "\\": 61,
      "]": 62,
      "^": 63,
      "_": 64,
      "`": 65,
      "a": 66,
      "b": 67,
      "c": 68,
      "d": 69,
      "e": 70,
      "f": 71,
      "g": 72,
      "h": 73,
      "i": 74,
      "j": 75,
      "k": 76,
      "l": 77,
      "m": 78,
      "n": 79,
      "o": 80,
      "p": 81,
      "q": 82,
      "r": 83,
      "s": 84,
      "t": 85,
      "u": 86,
      "v": 87,
      "w": 88,
      "x": 89,
      "y": 90,
      "z": 91,
      "~": 92,
      "": 93,
      "": 94,
      "": 95,
      "": 96,
      "£": 97,
      "§": 98,
      "¨": 99,
      "©": 100,
      "¬": 101,
      "­": 102,
      "®": 103,
      "°": 104,
      "±": 105,
      "²": 106,
      "³": 107,
      "µ": 108,
      "·": 109,
      "º": 110,
      "½": 111,
      "¾": 112,
      "Á": 113,
      "Ä": 114,
      "Å": 115,
      "È": 116,
      "É": 117,
      "Í": 118,
      "Ó": 119,
      "Ö": 120,
      "×": 121,
      "Ú": 122,
      "Ü": 123,
      "ß": 124,
      "à": 125,
      "á": 126,
      "â": 127,
      "ã": 128,
      "ä": 129,
      "å": 130,
      "æ": 131,
      "ç": 132,
      "è": 133,
      "é": 134,
      "ê": 135,
      "ë": 136,
      "ì": 137,
      "í": 138,
      "î": 139,
      "ï": 140,
      "ð": 141,
      "ñ": 142,
      "ò": 143,
      "ó": 144,
      "ô": 145,
      "õ": 146,
      "ö": 147,
      "ø": 148,
      "ú": 149,
      "û": 150,
      "ü": 151,
      "ý": 152,
      "ÿ": 153,
      "ă": 154,
      "ą": 155,
      "Ć": 156,
      "ć": 157,
      "Č": 158,
      "č": 159,
      "Đ": 160,
      "đ": 161,
      "ę": 162,
      "ı": 163,
      "ł": 164,
      "ń": 165,
      "ň": 166,
      "Ő": 167,
      "ő": 168,
      "ř": 169,
      "Ś": 170,
      "ś": 171,
      "ş": 172,
      "Š": 173,
      "š": 174,
      "Ţ": 175,
      "ţ": 176,
      "Ť": 177,
      "ť": 178,
      "ů": 179,
      "Ű": 180,
      "ű": 181,
      "ż": 182,
      "Ž": 183,
      "ž": 184,
      "ș": 185,
      "˝": 186,
      "λ": 187,
      "ї": 188,
      "ה": 189,
      "ו": 190,
      "י": 191,
      "‒": 192,
      "†": 193,
      "•": 194,
      "‬": 195,
      "‭": 196,
      "″": 197,
      "€": 198,
      "−": 199,
      "∗": 200,
      "≤": 201,
      "": 202,
      "": 203,
      "ﬁ": 204,
      "ﬂ": 205,
      " a": 206,
      "sz": 207,
      "el": 208,
      "et": 209,
      "en": 210,
      " m": 211,
      "gy": 212,
      " k": 213,
      "er": 214,
      ".\n": 215,
      "at": 216,
      "an": 217,
      " h": 218,
      "al": 219,
      " t": 220,
      " v": 221,
      "és": 222,
      "ek": 223,
      "or": 224,
      " sz": 225,
      " az": 226,
      "ár": 227,
      "in": 228,
      "em": 229,
      "on": 230,
      " f": 231,
      "ol": 232,
      "ál": 233,
      "ak": 234,
      " n": 235,
      "ás": 236,
      "eg": 237,
      "es": 238,
      "án": 239,
      "ez": 240,
      "is": 241,
      "tt": 242,
      "ér": 243,
      "ok": 244,
      " l": 245,
      "ik": 246,
      "én": 247,
      " el": 248,
      "ar": 249,
      " b": 250,
      "ég": 251,
      "cs": 252,
      "os": 253,
      "egy": 254,
      " p": 255,
      "bb": 256,
      "át": 257,
      " és": 258,
      "ül": 259,
      "ett": 260,
      "oz": 261,
      "ít": 262,
      "ág": 263,
      " s": 264,
      "él": 265,
      "il": 266,
      "ap": 267,
      " j": 268,
      "ét": 269,
      " egy": 270,
      " r": 271,
      " kö": 272,
      " meg": 273,
      "ogy": 274,
      "int": 275,
      "ban": 276,
      "ed": 277,
      "ék": 278,
      "ott": 279,
      " is": 280,
      " hogy": 281,
      "ben": 282,
      "it": 283,
      "agy": 284,
      " d": 285,
      "szt": 286,
      "ad": 287,
      "ut": 288,
      "om": 289,
      " -": 290,
      " nem": 291,
      "am": 292,
      "as": 293,
      "ól": 294,
      "ség": 295,
      "ig": 296,
      "ul": 297,
      "ni": 298,
      " szer": 299,
      " cs": 300,
      "ja": 301,
      "ra": 302,
      "ta": 303,
      "ák": 304,
      "og": 305,
      "ány": 306,
      "re": 307,
      "áll": 308,
      "ény": 309,
      "ép": 310,
      " M": 311,
      "aj": 312,
      "áz": 313,
      "ai": 314,
      " köz": 315,
      " fel": 316,
      "az": 317,
      " ki": 318,
      "ely": 319,
      "év": 320,
      "nak": 321,
      "iz": 322,
      "ért": 323,
      "ot": 324,
      "ent": 325,
      "ész": 326,
      "ag": 327,
      "ör": 328,
      "ság": 329,
      "id": 330,
      " le": 331,
      "nk": 332,
      " am": 333,
      "ám": 334,
      "het": 335,
      "ny": 336,
      "olt": 337,
      " B": 338,
      "nek": 339,
      "ől": 340,
      " S": 341,
      "end": 342,
      " al": 343,
      "Az": 344,
      " ak": 345,
      "ci": 346,
      "ell": 347,
      " ez": 348,
      "ind": 349,
      " (": 350,
      "ált": 351,
      "ön": 352,
      "ök": 353,
      "us": 354,
      " K": 355,
      "hat": 356,
      " be": 357,
      "ill": 358,
      "od": 359,
      " A": 360,
      " ny": 361,
      "szer": 362,
      "ír": 363,
      "art": 364,
      " ú": 365,
      "öl": 366,
      "ond": 367,
      "ont": 368,
      " g": 369,
      "ud": 370,
      "len": 371,
      " gy": 372,
      " év": 373,
      " áll": 374,
      "ur": 375,
      "ev": 376,
      "uk": 377,
      "ab": 378,
      "ők": 379,
      "unk": 380,
      "ber": 381,
      "av": 382,
      "oly": 383,
      " F": 384,
      " szerint": 385,
      "te": 386,
      "ös": 387,
      "ók": 388,
      " de": 389,
      "ezet": 390,
      " ut": 391,
      " for": 392,
      "ött": 393,
      " volt": 394,
      "20": 395,
      "szág": 396,
      " P": 397,
      "agyar": 398,
      " c": 399,
      "vet": 400,
      "ov": 401,
      " kor": 402,
      "att": 403,
      " leg": 404,
      " jel": 405,
      "ában": 406,
      " G": 407,
      " T": 408,
      "öbb": 409,
      "ország": 410,
      "esz": 411,
      "ep": 412,
      " már": 413,
      " elő": 414,
      "ej": 415,
      "est": 416,
      " rend": 417,
      " E": 418,
      "ős": 419,
      "iv": 420,
      "öz": 421,
      "ir": 422,
      "erül": 423,
      "ább": 424,
      "ük": 425,
      " id": 426,
      "kor": 427,
      " N": 428,
      "ert": 429,
      "ént": 430,
      " mind": 431,
      " ér": 432,
      " H": 433,
      "ba": 434,
      " ad": 435,
      "ember": 436,
      "atás": 437,
      " L": 438,
      " több": 439,
      "úl": 440,
      " hely": 441,
      "ében": 442,
      " val": 443,
      " C": 444,
      "kal": 445,
      "olg": 446,
      "ügy": 447,
      "aszt": 448,
      " nagy": 449,
      "val": 450,
      "zet": 451,
      "ív": 452,
      " még": 453,
      "mány": 454,
      "eket": 455,
      "áj": 456,
      " er": 457,
      "elm": 458,
      " mi": 459,
      "éd": 460,
      "asz": 461,
      "ós": 462,
      " azt": 463,
      "ály": 464,
      "árt": 465,
      " szám": 466,
      "ette": 467,
      "um": 468,
      " R": 469,
      " \"": 470,
      " V": 471,
      "elő": 472,
      "obb": 473,
      "ára": 474,
      " csak": 475,
      " kell": 476,
      "ia": 477,
      "őr": 478,
      "eszt": 479,
      "ebb": 480,
      " lehet": 481,
      "kez": 482,
      " száz": 483,
      "koz": 484,
      " kap": 485,
      "okat": 486,
      "éz": 487,
      " D": 488,
      "ítás": 489,
      "öv": 490,
      " tud": 491,
      " amely": 492,
      " van": 493,
      " mint": 494,
      " tör": 495,
      "össz": 496,
      "isz": 497,
      "iszt": 498,
      " tart": 499,
      "ót": 500,
      " más": 501,
      " vagy": 502,
      "ése": 503,
      "ort": 504,
      "ból": 505,
      " es": 506,
      "ony": 507,
      " sem": 508,
      " ter": 509,
      " két": 510,
      "be": 511,
      " I": 512,
      " mag": 513,
      "illi": 514,
      "ajd": 515,
      "ód": 516,
      "alm": 517,
      "ső": 518,
      "alék": 519,
      " vég": 520,
      "hoz": 521,
      " J": 522,
      " vál": 523,
      "im": 524,
      "tet": 525,
      "ély": 526,
      "ch": 527,
      " ar": 528,
      " össz": 529,
      "mény": 530,
      " él": 531,
      " ellen": 532,
      "ának": 533,
      "ve": 534,
      " fog": 535,
      "ín": 536,
      " új": 537,
      " mond": 538,
      "ják": 539,
      "ató": 540,
      " biz": 541,
      " Sz": 542,
      " százalék": 543,
      "ém": 544,
      " pr": 545,
      "ést": 546,
      " kép": 547,
      "ző": 548,
      "ított": 549,
      " magyar": 550,
      "eh": 551,
      "nök": 552,
      "ról": 553,
      "ug": 554,
      " át": 555,
      "ult": 556,
      "íz": 557,
      " z": 558,
      "op": 559,
      "edig": 560,
      "ei": 561,
      "elt": 562,
      " u": 563,
      "ást": 564,
      "na": 565,
      "nál": 566,
      "ére": 567,
      " O": 568,
      "ór": 569,
      "leg": 570,
      "eres": 571,
      "ható": 572,
      " szem": 573,
      "eny": 574,
      "áros": 575,
      " pedig": 576,
      "je": 577,
      "ikai": 578,
      " ért": 579,
      " milli": 580,
      "ének": 581,
      " jelent": 582,
      " tel": 583,
      " kül": 584,
      " ha": 585,
      "200": 586,
      " után": 587,
      "ilág": 588,
      " ig": 589,
      "aság": 590,
      "abb": 591,
      " ol": 592,
      "esen": 593,
      "vény": 594,
      " rész": 595,
      "ési": 596,
      "enn": 597,
      " azon": 598,
      "ünk": 599,
      " forint": 600,
      "ása": 601,
      "ost": 602,
      " hat": 603,
      " hoz": 604,
      "ani": 605,
      " mű": 606,
      "tak": 607,
      " munk": 608,
      "ád": 609,
      "áci": 610,
      " kör": 611,
      "va": 612,
      " nap": 613,
      "ült": 614,
      " kez": 615,
      "ával": 616,
      "gyan": 617,
      " minden": 618,
      " vis": 619,
      " majd": 620,
      "kö": 621,
      " í": 622,
      "ked": 623,
      "let": 624,
      "árs": 625,
      " e": 626,
      "ális": 627,
      "ob": 628,
      "lan": 629,
      "emény": 630,
      "uró": 631,
      " kormány": 632,
      " lesz": 633,
      "vezet": 634,
      "ások": 635,
      "19": 636,
      "ján": 637,
      "őz": 638,
      "őt": 639,
      "nap": 640,
      " ember": 641,
      "azd": 642,
      "jel": 643,
      " ü": 644,
      "önt": 645,
      " em": 646,
      " an": 647,
      "ang": 648,
      " első": 649,
      " vezet": 650,
      " alap": 651,
      "ház": 652,
      "ből": 653,
      "énz": 654,
      " miatt": 655,
      "dés": 656,
      " tal": 657,
      " követ": 658,
      "Ez": 659,
      "eng": 660,
      "köz": 661,
      " in": 662,
      "ily": 663,
      " szak": 664,
      "hez": 665,
      "áb": 666,
      "ről": 667,
      " ill": 668,
      "olyan": 669,
      "etlen": 670,
      " között": 671,
      " úgy": 672,
      "ölt": 673,
      " ö": 674,
      " bel": 675,
      " ország": 676,
      "ikus": 677,
      " vissz": 678,
      "for": 679,
      " ugyan": 680,
      "fi": 681,
      "mű": 682,
      " hét": 683,
      " aki": 684,
      " állam": 685,
      "fel": 686,
      " így": 687,
      " ok": 688,
      "ló": 689,
      "),": 690,
      " fi": 691,
      " elm": 692,
      " Z": 693,
      " tört": 694,
      " mert": 695,
      "erült": 696,
      " ügy": 697,
      " ját": 698,
      " né": 699,
      " kis": 700,
      "any": 701,
      "ilyen": 702,
      "ers": 703,
      " foly": 704,
      " mondta": 705,
      " olyan": 706,
      " sok": 707,
      "ések": 708,
      "osan": 709,
      " ind": 710,
      " min": 711,
      "ezett": 712,
      "Sz": 713,
      "ic": 714,
      "edd": 715,
      "ási": 716,
      " világ": 717,
      " akkor": 718,
      "ász": 719,
      "atok": 720,
      "ták": 721,
      "étel": 722,
      "öld": 723,
      "atal": 724,
      " Magyar": 725,
      " ír": 726,
      "őv": 727,
      "ajt": 728,
      "ovább": 729,
      " sor": 730,
      "által": 731,
      "tat": 732,
      " lát": 733,
      "kel": 734,
      "óz": 735,
      "árom": 736,
      "nyi": 737,
      " int": 738,
      "ként": 739,
      "00": 740,
      "eb": 741,
      "eti": 742,
      " ép": 743,
      "ki": 744,
      "íj": 745,
      "ossz": 746,
      " egyik": 747,
      "ács": 748,
      "olit": 749,
      " kész": 750,
      " igaz": 751,
      "mer": 752,
      " azonban": 753,
      "árd": 754,
      "un": 755,
      "osz": 756,
      " kér": 757,
      "201": 758,
      " vált": 759,
      "tel": 760,
      "ajn": 761,
      " választ": 762,
      " ah": 763,
      " tovább": 764,
      "ével": 765,
      " tám": 766,
      "all": 767,
      "st": 768,
      "?\n": 769,
      " ár": 770,
      "utó": 771,
      "eni": 772,
      " ami": 773,
      "oszt": 774,
      " bizt": 775,
      " mell": 776,
      " i": 777,
      " jog": 778,
      " szab": 779,
      "szak": 780,
      " valam": 781,
      "azdaság": 782,
      "pont": 783,
      "atkoz": 784,
      "áv": 785,
      " fér": 786,
      "űn": 787,
      "ület": 788,
      "ikor": 789,
      "ező": 790,
      " kezd": 791,
      "pr": 792,
      " pénz": 793,
      " W": 794,
      " tan": 795,
      " hozz": 796,
      " idő": 797,
      "uróp": 798,
      "hető": 799,
      "lt": 800,
      "állal": 801,
      " eset": 802,
      " érd": 803,
      " most": 804,
      " ir": 805,
      "ün": 806,
      " való": 807,
      " csap": 808,
      "ran": 809,
      "ván": 810,
      " által": 811,
      "old": 812,
      " jó": 813,
      "arad": 814,
      " elnök": 815,
      " illet": 816,
      "ját": 817,
      "izs": 818,
      "ört": 819,
      " telj": 820,
      "fog": 821,
      "ati": 822,
      "esít": 823,
      "jt": 824,
      "jár": 825,
      "izet": 826,
      " vár": 827,
      "-ben": 828,
      "egész": 829,
      "lő": 830,
      "eked": 831,
      "ata": 832,
      " An": 833,
      " három": 834,
      "hely": 835,
      "-es": 836,
      "csol": 837,
      " dönt": 838,
      " nev": 839,
      "and": 840,
      " fej": 841,
      "ing": 842,
      " ó": 843,
      " rendőr": 844,
      " hi": 845,
      "incs": 846,
      " külön": 847,
      " jár": 848,
      "elem": 849,
      " arra": 850,
      "ító": 851,
      "árm": 852,
      "port": 853,
      " korább": 854,
      "fő": 855,
      "véd": 856,
      "enek": 857,
      "juk": 858,
      " visz": 859,
      "elmi": 860,
      "oll": 861,
      " ered": 862,
      "oló": 863,
      " előtt": 864,
      "vis": 865,
      " pont": 866,
      " élet": 867,
      " sik": 868,
      "SZ": 869,
      "tek": 870,
      "up": 871,
      "ri": 872,
      " jelen": 873,
      "atot": 874,
      "adás": 875,
      "alom": 876,
      "ését": 877,
      "kép": 878,
      " per": 879,
      "zel": 880,
      "kül": 881,
      " nyil": 882,
      "ög": 883,
      "ter": 884,
      "ivel": 885,
      " ker": 886,
      " cí": 887,
      "ck": 888,
      " egész": 889,
      " szerep": 890,
      " dolg": 891,
      "olna": 892,
      "tatás": 893,
      "Egy": 894,
      "10": 895,
      " polit": 896,
      " millió": 897,
      " szint": 898,
      "éld": 899,
      "izsg": 900,
      "díj": 901,
      "ozó": 902,
      "últ": 903,
      "le": 904,
      "-t": 905,
      "ozott": 906,
      " besz": 907,
      "sal": 908,
      " cég": 909,
      " éves": 910,
      "utat": 911,
      "kod": 912,
      " volna": 913,
      " kapcsol": 914,
      "eli": 915,
      "ített": 916,
      "ökk": 917,
      "szerű": 918,
      "éter": 919,
      " gond": 920,
      "arm": 921,
      "omb": 922,
      "lam": 923,
      "ef": 924,
      "üt": 925,
      "ekt": 926,
      "lal": 927,
      " gyer": 928,
      "atlan": 929,
      " történ": 930,
      "rend": 931,
      "ilm": 932,
      "úly": 933,
      "ába": 934,
      " mér": 935,
      " ezt": 936,
      " talál": 937,
      "enc": 938,
      "őség": 939,
      "vel": 940,
      " érdek": 941,
      " kon": 942,
      " illetve": 943,
      " fő": 944,
      "ozás": 945,
      " alatt": 946,
      "ajnok": 947,
      " másod": 948,
      " fél": 949,
      "esség": 950,
      "ári": 951,
      " öt": 952,
      "ője": 953,
      "oh": 954,
      " hal": 955,
      "inek": 956,
      " term": 957,
      "író": 958,
      " ezer": 959,
      "kol": 960,
      "..": 961,
      " lak": 962,
      "ogat": 963,
      "ció": 964,
      " költ": 965,
      "jelent": 966,
      " péld": 967,
      " mellett": 968,
      "usz": 969,
      "ütt": 970,
      "ából": 971,
      "gg": 972,
      " Or": 973,
      " tag": 974,
      " akik": 975,
      "adó": 976,
      "asznál": 977,
      " párt": 978,
      " milliárd": 979,
      "vas": 980,
      "iai": 981,
      "után": 982,
      " kom": 983,
      "ram": 984,
      "ezte": 985,
      "idesz": 986,
      "15": 987,
      " társ": 988,
      " szó": 989,
      "osság": 990,
      " amikor": 991,
      "of": 992,
      "orv": 993,
      "dul": 994,
      " hó": 995,
      " vissza": 996,
      "erikai": 997,
      " seg": 998,
      " nyug": 999,
      "szín": 1000,
      "erseny": 1001,
      "elet": 1002,
      " játék": 1003,
      " jöv": 1004,
      "ip": 1005,
      "ors": 1006,
      " négy": 1007,
      "ant": 1008,
      "erület": 1009,
      "áció": 1010,
      " rendszer": 1011,
      "észt": 1012,
      " von": 1013,
      "Nem": 1014,
      " érték": 1015,
      "enne": 1016,
      "ec": 1017,
      " en": 1018,
      "form": 1019,
      "gel": 1020,
      " közl": 1021,
      " hang": 1022,
      "áról": 1023,
      " Gy": 1024,
      " Á": 1025,
      "zs": 1026,
      "iszter": 1027,
      " men": 1028,
      "kot": 1029,
      "izsgál": 1030,
      "émet": 1031,
      " haz": 1032,
      "élkül": 1033,
      " nemzet": 1034,
      "uár": 1035,
      " szól": 1036,
      " ott": 1037,
      "udap": 1038,
      "udapest": 1039,
      "ex": 1040,
      "sel": 1041,
      " gazdaság": 1042,
      " törvény": 1043,
      " mód": 1044,
      "anem": 1045,
      " ő": 1046,
      " tár": 1047,
      "íg": 1048,
      "ánt": 1049,
      "nél": 1050,
      " együtt": 1051,
      " férfi": 1052,
      "ölte": 1053,
      "ink": 1054,
      " par": 1055,
      "omány": 1056,
      "ték": 1057,
      "aton": 1058,
      "ester": 1059,
      " biztos": 1060,
      "ub": 1061,
      " vállal": 1062,
      " alkal": 1063,
      "ülés": 1064,
      "anak": 1065,
      "almaz": 1066,
      " U": 1067,
      "urópai": 1068,
      " nő": 1069,
      "ocs": 1070,
      " tav": 1071,
      " jav": 1072,
      "vez": 1073,
      " képvis": 1074,
      "ását": 1075,
      "ass": 1076,
      "zés": 1077,
      " üz": 1078,
      " kil": 1079,
      " lett": 1080,
      " következ": 1081,
      "séges": 1082,
      " nagyon": 1083,
      " amerikai": 1084,
      "tal": 1085,
      " nyom": 1086,
      "ábor": 1087,
      " marad": 1088,
      " csökk": 1089,
      "avaz": 1090,
      " túl": 1091,
      " ház": 1092,
      " nincs": 1093,
      " keres": 1094,
      " Al": 1095,
      " vesz": 1096,
      " hanem": 1097,
      " jobb": 1098,
      "ügyi": 1099,
      " bet": 1100,
      "ne": 1101,
      " csal": 1102,
      "lat": 1103,
      " pály": 1104,
      " Magyarország": 1105,
      "gató": 1106,
      "ió": 1107,
      "üntet": 1108,
      " dél": 1109,
      " cél": 1110,
      "eken": 1111,
      "köd": 1112,
      "vány": 1113,
      " ilyen": 1114,
      "ób": 1115,
      "tart": 1116,
      "ogram": 1117,
      "oport": 1118,
      " eredmény": 1119,
      "ozat": 1120,
      "ekben": 1121,
      " hisz": 1122,
      "aly": 1123,
      "ették": 1124,
      " személy": 1125,
      " erős": 1126,
      " vél": 1127,
      "pen": 1128,
      "őket": 1129,
      "\".\n": 1130,
      "ist": 1131,
      " figy": 1132,
      " össze": 1133,
      "ason": 1134,
      "-e": 1135,
      "ája": 1136,
      " bef": 1137,
      " véd": 1138,
      "30": 1139,
      "ügg": 1140,
      " hiv": 1141,
      " megy": 1142,
      " azért": 1143,
      " közölte": 1144,
      "eddig": 1145,
      "ank": 1146,
      " rá": 1147,
      "ául": 1148,
      " kerül": 1149,
      " ór": 1150,
      "ton": 1151,
      " hír": 1152,
      " ism": 1153,
      " lép": 1154,
      "rit": 1155,
      "elés": 1156,
      " verseny": 1157,
      " nek": 1158,
      " szük": 1159,
      " autó": 1160,
      " kív": 1161,
      " helyzet": 1162,
      "hon": 1163,
      "éri": 1164,
      "ottság": 1165,
      " szín": 1166,
      "aját": 1167,
      "uszt": 1168,
      "ezés": 1169,
      "éb": 1170,
      " segít": 1171,
      "öm": 1172,
      "!\n": 1173,
      "ekkel": 1174,
      " körül": 1175,
      "őd": 1176,
      " kev": 1177,
      "18": 1178,
      "enni": 1179,
      "ítés": 1180,
      "Ha": 1181,
      "só": 1182,
      "szám": 1183,
      "ern": 1184,
      "ítani": 1185,
      " szolg": 1186,
      "lát": 1187,
      " kar": 1188,
      "akor": 1189,
      "úz": 1190,
      "erg": 1191,
      " vas": 1192,
      " második": 1193,
      " itt": 1194,
      " ahol": 1195,
      "armad": 1196,
      " növ": 1197,
      " viszont": 1198,
      "fél": 1199,
      " Fidesz": 1200,
      "12": 1201,
      "dal": 1202,
      " elv": 1203,
      " akar": 1204,
      " Cs": 1205,
      " kés": 1206,
      "ontos": 1207,
      "lék": 1208,
      " szerző": 1209,
      " eddig": 1210,
      " ezért": 1211,
      " csapat": 1212,
      "ess": 1213,
      " lét": 1214,
      "okban": 1215,
      "NO": 1216,
      "tól": 1217,
      " költség": 1218,
      "esebb": 1219,
      "ista": 1220,
      " annak": 1221,
      " ment": 1222,
      "ha": 1223,
      " város": 1224,
      "övet": 1225,
      "ékoz": 1226,
      " nélkül": 1227,
      "zett": 1228,
      " kam": 1229,
      " film": 1230,
      " st": 1231,
      "nyv": 1232,
      " kapcsolat": 1233,
      " kiv": 1234,
      "öt": 1235,
      " felt": 1236,
      " hónap": 1237,
      " jövő": 1238,
      " hozzá": 1239,
      " Egy": 1240,
      "nagy": 1241,
      " szeret": 1242,
      "ően": 1243,
      " foglal": 1244,
      " bizony": 1245,
      "MNO": 1246,
      " közel": 1247,
      "ettek": 1248,
      "ször": 1249,
      "észet": 1250,
      "ord": 1251,
      " százalékkal": 1252,
      "út": 1253,
      "ika": 1254,
      "szab": 1255,
      " például": 1256,
      "ac": 1257,
      "elnök": 1258,
      " határ": 1259,
      "föld": 1260,
      "íróság": 1261,
      "ította": 1262,
      " jelenleg": 1263,
      " saját": 1264,
      " forg": 1265,
      " arról": 1266,
      "eit": 1267,
      " vezető": 1268,
      " te": 1269,
      " alkalm": 1270,
      "ájékoz": 1271,
      "arc": 1272,
      " sajt": 1273,
      " ugyanis": 1274,
      "ogatás": 1275,
      " valamint": 1276,
      "bbi": 1277,
      "ségi": 1278,
      " szerd": 1279,
      "hány": 1280,
      " reg": 1281,
      " tavaly": 1282,
      "elked": 1283,
      " miniszter": 1284,
      " Nem": 1285,
      " intéz": 1286,
      "éről": 1287,
      " megh": 1288,
      "alak": 1289,
      " amit": 1290,
      " óta": 1291,
      "cia": 1292,
      "égi": 1293,
      " jut": 1294,
      "érték": 1295,
      " vizsgál": 1296,
      " negy": 1297,
      " olvas": 1298,
      "örtök": 1299,
      "ütörtök": 1300,
      "ásár": 1301,
      " elmond": 1302,
      " szabad": 1303,
      " család": 1304,
      "leszt": 1305,
      "közi": 1306,
      "oci": 1307,
      " táv": 1308,
      "ver": 1309,
      " került": 1310,
      " alapján": 1311,
      "otta": 1312,
      "ark": 1313,
      " kérdés": 1314,
      "ottak": 1315,
      "ulajd": 1316,
      " alak": 1317,
      "16": 1318,
      " pár": 1319,
      "sor": 1320,
      " any": 1321,
      " mely": 1322,
      " tiszt": 1323,
      "újt": 1324,
      "25": 1325,
      " ismer": 1326,
      " játsz": 1327,
      "ulajdon": 1328,
      "ozz": 1329,
      " bal": 1330,
      " korábban": 1331,
      " kit": 1332,
      "ológ": 1333,
      " közös": 1334,
      ").\n": 1335,
      " másik": 1336,
      "itk": 1337,
      " számára": 1338,
      "séget": 1339,
      " tér": 1340,
      " hiszen": 1341,
      " hason": 1342,
      "iac": 1343,
      "ró": 1344,
      " beszél": 1345,
      " megsz": 1346,
      "sége": 1347,
      " hétfő": 1348,
      "-ban": 1349,
      "okkal": 1350,
      "tár": 1351,
      "lás": 1352,
      "inak": 1353,
      "jobb": 1354,
      "űz": 1355,
      "-k": 1356,
      " kedd": 1357,
      " In": 1358,
      "11": 1359,
      "essz": 1360,
      "ús": 1361,
      "ttal": 1362,
      " lap": 1363,
      "olc": 1364,
      "zal": 1365,
      " á": 1366,
      "telen": 1367,
      "itel": 1368,
      "őváros": 1369,
      " győz": 1370,
      " ked": 1371,
      " jól": 1372,
      " megv": 1373,
      " ma": 1374,
      " perc": 1375,
      "mi": 1376,
      " út": 1377,
      "lag": 1378,
      " pént": 1379,
      " terület": 1380,
      "ari": 1381,
      " csütörtök": 1382,
      " című": 1383,
      " szabály": 1384,
      ")\n": 1385,
      " hát": 1386,
      " közül": 1387,
      " euró": 1388,
      " felh": 1389,
      " program": 1390,
      " néz": 1391,
      " elt": 1392,
      "gyű": 1393,
      " szavaz": 1394,
      " jegy": 1395,
      "fej": 1396,
      " hossz": 1397,
      " gondol": 1398,
      " működ": 1399,
      " lehetőség": 1400,
      " százalékos": 1401,
      "hu": 1402,
      " képviselő": 1403,
      " ör": 1404,
      " neh": 1405,
      " oldal": 1406,
      "nagyobb": 1407,
      " hagy": 1408,
      " irány": 1409,
      " Nemzet": 1410,
      "ánd": 1411,
      "ay": 1412,
      "mér": 1413,
      "ib": 1414,
      " doll": 1415,
      " lenne": 1416,
      "vétel": 1417,
      "ard": 1418,
      " használ": 1419,
      " or": 1420,
      " gól": 1421,
      "assz": 1422,
      " nyilatkoz": 1423,
      " azok": 1424,
      "ítél": 1425,
      " önk": 1426,
      "ron": 1427,
      "ához": 1428,
      "új": 1429,
      " fordul": 1430,
      " tárgy": 1431,
      "csak": 1432,
      " akár": 1433,
      " késő": 1434,
      " folyam": 1435,
      " Budapest": 1436,
      " harmad": 1437,
      "17": 1438,
      "ics": 1439,
      "súly": 1440,
      "enged": 1441,
      "ekint": 1442,
      "ással": 1443,
      " ne": 1444,
      "ókat": 1445,
      " jan": 1446,
      "előtt": 1447,
      "14": 1448,
      "igaz": 1449,
      "ull": 1450,
      "von": 1451,
      " csökkent": 1452,
      " legnagyobb": 1453,
      " legjobb": 1454,
      " ön": 1455,
      "jük": 1456,
      "tor": 1457,
      " kut": 1458,
      " száll": 1459,
      " kl": 1460,
      " történt": 1461,
      "zi": 1462,
      " fiatal": 1463,
      " míg": 1464,
      "lament": 1465,
      " nyilván": 1466,
      "rás": 1467,
      " fizet": 1468,
      "Mind": 1469,
      " néhány": 1470,
      "ésre": 1471,
      " kellett": 1472,
      " dec": 1473,
      " egym": 1474,
      " utol": 1475,
      "acs": 1476,
      " tulajdon": 1477,
      "nő": 1478,
      " bűn": 1479,
      " érkez": 1480,
      " hivatal": 1481,
      " során": 1482,
      "ment": 1483,
      " szemben": 1484,
      "jabb": 1485,
      " nyugdíj": 1486,
      " oszt": 1487,
      " elmúlt": 1488,
      " december": 1489,
      "áló": 1490,
      "ich": 1491,
      " magas": 1492,
      "almas": 1493,
      " alkot": 1494,
      " rendel": 1495,
      " csoport": 1496,
      "abd": 1497,
      " megáll": 1498,
      " aján": 1499,
      "eztet": 1500,
      " jelentős": 1501,
      "tó": 1502,
      "árnap": 1503,
      " német": 1504,
      " test": 1505,
      " rendőrség": 1506,
      "ly": 1507,
      "ásra": 1508,
      " tíz": 1509,
      " megt": 1510,
      " aut": 1511,
      "obl": 1512,
      " amelyek": 1513,
      "ején": 1514,
      " nagyobb": 1515,
      "50": 1516,
      " szervezet": 1517,
      " gyerek": 1518,
      "sági": 1519,
      "bán": 1520,
      " azzal": 1521,
      " legy": 1522,
      " víz": 1523,
      "ói": 1524,
      "erm": 1525,
      "lik": 1526,
      "eset": 1527,
      "rel": 1528,
      " foglalkoz": 1529,
      " ebb": 1530,
      " cím": 1531,
      " moz": 1532,
      " elem": 1533,
      "né": 1534,
      "ong": 1535,
      "13": 1536,
      " elég": 1537,
      ".,": 1538,
      " tett": 1539,
      " egyéb": 1540,
      " elmondta": 1541,
      " korábbi": 1542,
      " nép": 1543,
      " megk": 1544,
      " megfel": 1545,
      "ah": 1546,
      " haj": 1547,
      "ene": 1548,
      " hatás": 1549,
      " közt": 1550,
      " körny": 1551,
      "eget": 1552,
      "ános": 1553,
      " elfog": 1554,
      "ítása": 1555,
      "lés": 1556,
      "Cs": 1557,
      "zék": 1558,
      "ászló": 1559,
      "oblém": 1560,
      "bajnok": 1561,
      "itány": 1562,
      " els": 1563,
      "nem": 1564,
      "land": 1565,
      "alt": 1566,
      " mutat": 1567,
      " negyed": 1568,
      "ormány": 1569,
      " részt": 1570,
      " hasonló": 1571,
      " gyors": 1572,
      "biz": 1573,
      " szél": 1574,
      " ezzel": 1575,
      "rt": 1576,
      "öd": 1577,
      " munka": 1578,
      "El": 1579,
      " fut": 1580,
      "ih": 1581,
      " fontos": 1582,
      "-én": 1583,
      " gazdasági": 1584,
      "eccs": 1585,
      "etem": 1586,
      " ál": 1587,
      " tesz": 1588,
      "elte": 1589,
      "nny": 1590,
      " vannak": 1591,
      "ezni": 1592,
      " sp": 1593,
      " re": 1594,
      "jában": 1595,
      " zs": 1596,
      " változ": 1597,
      " terv": 1598,
      "ma": 1599,
      " bár": 1600,
      " mivel": 1601,
      "ítja": 1602,
      " dolgoz": 1603,
      " gyakor": 1604,
      "iség": 1605,
      " szoci": 1606,
      " mindig": 1607,
      "27": 1608,
      "ormányz": 1609,
      "okr": 1610,
      "oda": 1611,
      " hiány": 1612,
      "lin": 1613,
      " idén": 1614,
      "Meg": 1615,
      "ven": 1616,
      "kőz": 1617,
      " rom": 1618,
      " parlament": 1619,
      " ám": 1620,
      "ro": 1621,
      " tájékoz": 1622,
      " Köz": 1623,
      " Fer": 1624,
      " And": 1625,
      " január": 1626,
      " támogatás": 1627,
      "SZP": 1628,
      " érint": 1629,
      "talan": 1630,
      " abb": 1631,
      " föld": 1632,
      "ovember": 1633,
      " költségvet": 1634,
      "ssz": 1635,
      " eljár": 1636,
      " teh": 1637,
      "esült": 1638,
      "éssel": 1639,
      " polg": 1640,
      " kín": 1641,
      " ink": 1642,
      "-f": 1643,
      "lov": 1644,
      " sport": 1645,
      "eknek": 1646,
      " fran": 1647,
      "ákat": 1648,
      " alá": 1649,
      " elnöke": 1650,
      " bank": 1651,
      "tam": 1652,
      " teljesít": 1653,
      " problém": 1654,
      " rossz": 1655,
      "ock": 1656,
      " hazai": 1657,
      "ür": 1658,
      " adó": 1659,
      " ész": 1660,
      "átt": 1661,
      "199": 1662,
      " rep": 1663,
      " tanul": 1664,
      "üz": 1665,
      " kid": 1666,
      " voltak": 1667,
      " emlék": 1668,
      " inform": 1669,
      " javas": 1670,
      " gyan": 1671,
      " szen": 1672,
      "évő": 1673,
      " teljes": 1674,
      "áját": 1675,
      " adott": 1676,
      " vasárnap": 1677,
      "lap": 1678,
      " sér": 1679,
      " nyolc": 1680,
      " MT": 1681,
      " kapott": 1682,
      "ete": 1683,
      "imp": 1684,
      " tekint": 1685,
      " László": 1686,
      " közép": 1687,
      " Ist": 1688,
      " utolsó": 1689,
      " rendelkez": 1690,
      "ejt": 1691,
      " inkább": 1692,
      " vel": 1693,
      " megb": 1694,
      " É": 1695,
      "-as": 1696,
      " Ch": 1697,
      "ították": 1698,
      "úsz": 1699,
      "ali": 1700,
      "óbál": 1701,
      " csat": 1702,
      "arát": 1703,
      "li": 1704,
      "jának": 1705,
      "viv": 1706,
      " MSZP": 1707,
      " adat": 1708,
      "nia": 1709,
      " különb": 1710,
      "óta": 1711,
      "okon": 1712,
      " felel": 1713,
      "aki": 1714,
      " legal": 1715,
      "sze": 1716,
      "leges": 1717,
      " folytat": 1718,
      "ehér": 1719,
      " kereszt": 1720,
      "son": 1721,
      "éj": 1722,
      "színű": 1723,
      "jai": 1724,
      " további": 1725,
      "gyel": 1726,
      "ítette": 1727,
      "min": 1728,
      "olta": 1729,
      "De": 1730,
      " főváros": 1731,
      " őket": 1732,
      "ítő": 1733,
      " esz": 1734,
      "úr": 1735,
      "24": 1736,
      "követ": 1737,
      "ait": 1738,
      " vád": 1739,
      "sér": 1740,
      " tette": 1741,
      " könny": 1742,
      " fogy": 1743,
      " nemzetközi": 1744,
      " egyes": 1745,
      "\",": 1746,
      " várható": 1747,
      " sikerült": 1748,
      " gyerm": 1749,
      "ogatott": 1750,
      "mel": 1751,
      "érium": 1752,
      "atos": 1753,
      "ekre": 1754,
      " köt": 1755,
      " önkormányz": 1756,
      "ismer": 1757,
      " magát": 1758,
      " piac": 1759,
      " kötel": 1760,
      "uh": 1761,
      " november": 1762,
      " újra": 1763,
      " figyelm": 1764,
      "oknak": 1765,
      "éhez": 1766,
      "ion": 1767,
      "lak": 1768,
      " bajnok": 1769,
      "iss": 1770,
      " szomb": 1771,
      "orvos": 1772,
      "mal": 1773,
      " súly": 1774,
      "ón": 1775,
      "ülő": 1776,
      " fr": 1777,
      "he": 1778,
      "ens": 1779,
      "előre": 1780,
      " ennek": 1781,
      " politikai": 1782,
      " harmadik": 1783,
      " tény": 1784,
      " magán": 1785,
      " kat": 1786,
      "adt": 1787,
      "erc": 1788,
      " kedv": 1789,
      " elk": 1790,
      " hall": 1791,
      " találkoz": 1792,
      "itt": 1793,
      "jegy": 1794,
      "ációs": 1795,
      " megfelelő": 1796,
      "almi": 1797,
      " milyen": 1798,
      " St": 1799,
      "ságot": 1800,
      "tató": 1801,
      " vit": 1802,
      " állami": 1803,
      " készült": 1804,
      " sajtó": 1805,
      " orosz": 1806,
      " megállap": 1807,
      " meccs": 1808,
      " felad": 1809,
      " utó": 1810,
      " vez": 1811,
      " elh": 1812,
      " éppen": 1813,
      " gép": 1814,
      " ber": 1815,
      " ismert": 1816,
      " Péter": 1817,
      "ármester": 1818,
      " alkalmaz": 1819,
      "anyol": 1820,
      "ozta": 1821,
      "otor": 1822,
      " átlag": 1823,
      " méd": 1824,
      "szik": 1825,
      " zár": 1826,
      " szolgált": 1827,
      "ebr": 1828,
      "jét": 1829,
      "mények": 1830,
      " kisebb": 1831,
      " mik": 1832,
      "akkor": 1833,
      "26": 1834,
      "ikl": 1835,
      "ew": 1836,
      " ezek": 1837,
      " utc": 1838,
      "vezető": 1839,
      " következő": 1840,
      "űr": 1841,
      "szolg": 1842,
      "eség": 1843,
      "esek": 1844,
      " hol": 1845,
      " függ": 1846,
      " enged": 1847,
      " állap": 1848,
      " belül": 1849,
      "enz": 1850,
      " szület": 1851,
      "akat": 1852,
      " kih": 1853,
      " lev": 1854,
      " fok": 1855,
      "áp": 1856,
      "ukat": 1857,
      " rendez": 1858,
      "nn": 1859,
      " talált": 1860,
      "ecs": 1861,
      " könyv": 1862,
      " politikus": 1863,
      " európai": 1864,
      "utt": 1865,
      "orn": 1866,
      " szükség": 1867,
      "milli": 1868,
      "anyag": 1869,
      " István": 1870,
      "től": 1871,
      "olni": 1872,
      " indul": 1873,
      " mintegy": 1874,
      " emelked": 1875,
      "foly": 1876,
      "osítás": 1877,
      " éve": 1878,
      " játékos": 1879,
      "ébe": 1880,
      "elni": 1881,
      "elek": 1882,
      "állítás": 1883,
      " Ál": 1884,
      " közleked": 1885,
      "edett": 1886,
      "ellem": 1887,
      "chn": 1888,
      "mus": 1889,
      "úg": 1890,
      " dr": 1891,
      "dő": 1892,
      "Szer": 1893,
      "szor": 1894,
      "erős": 1895,
      "atív": 1896,
      " hon": 1897,
      "gat": 1898,
      "ka": 1899,
      " közlemény": 1900,
      "40": 1901,
      " mérkőz": 1902,
      "ím": 1903,
      "ésére": 1904,
      " bíróság": 1905,
      " Zs": 1906,
      "ották": 1907,
      "cius": 1908,
      " szóló": 1909,
      "inál": 1910,
      " ítél": 1911,
      " képest": 1912,
      " anyag": 1913,
      "erj": 1914,
      "Azt": 1915,
      " legalább": 1916,
      " Nagy": 1917,
      " telep": 1918,
      " mod": 1919,
      " nyert": 1920,
      " erre": 1921,
      " őr": 1922,
      "ánk": 1923,
      "ektet": 1924,
      "nal": 1925,
      " növeked": 1926,
      "hatnak": 1927,
      "heti": 1928,
      " gyermek": 1929,
      "övid": 1930,
      " forintot": 1931,
      " tűn": 1932,
      "22": 1933,
      " veszély": 1934,
      "órház": 1935,
      " bizton": 1936,
      " kívül": 1937,
      " szerdán": 1938,
      " beteg": 1939,
      " hív": 1940,
      " megl": 1941,
      " miniszterelnök": 1942,
      "gal": 1943,
      " lévő": 1944,
      " Ny": 1945,
      " végén": 1946,
      "ow": 1947,
      " helyen": 1948,
      " később": 1949,
      " újabb": 1950,
      " amelyet": 1951,
      " ható": 1952,
      " írja": 1953,
      " helyi": 1954,
      " helyett": 1955,
      " hitel": 1956,
      "lom": 1957,
      " megold": 1958,
      " felelős": 1959,
      "af": 1960,
      " évvel": 1961,
      " tárgyal": 1962,
      " halál": 1963,
      " múlt": 1964,
      " neki": 1965,
      " ellenére": 1966,
      "isztérium": 1967,
      "mond": 1968,
      "emokr": 1969,
      " hétfőn": 1970,
      "nev": 1971,
      "uc": 1972,
      " számít": 1973,
      " valószínű": 1974,
      " sokkal": 1975,
      " tap": 1976,
      "nok": 1977,
      "lott": 1978,
      "pénz": 1979,
      "Itt": 1980,
      " elér": 1981,
      " bír": 1982,
      "védelmi": 1983,
      " elleni": 1984,
      " én": 1985,
      "ógy": 1986,
      " igazgató": 1987,
      "csi": 1988,
      "jon": 1989,
      "csap": 1990,
      "enk": 1991,
      "21": 1992,
      "alap": 1993,
      " büntet": 1994,
      "özben": 1995,
      " föl": 1996,
      " Európ": 1997,
      "ezték": 1998,
      "ezt": 1999,
      " kedden": 2000,
      " tiz": 2001,
      " vásár": 2002,
      "ikk": 2003,
      "hetetlen": 2004,
      "aszn": 2005,
      "nd": 2006,
      " emberek": 2007,
      "ennyi": 2008,
      "uház": 2009,
      "kori": 2010,
      " üt": 2011,
      " fenn": 2012,
      " egyre": 2013,
      " dollár": 2014,
      "apitány": 2015,
      "öző": 2016,
      "nyit": 2017,
      "oj": 2018,
      " Bal": 2019,
      " Er": 2020,
      "földi": 2021,
      " MTI": 2022,
      " form": 2023,
      "Am": 2024,
      "polg": 2025,
      "éből": 2026,
      ".hu": 2027,
      "álaszt": 2028,
      " Állam": 2029,
      " válasz": 2030,
      " természet": 2031,
      "-re": 2032,
      " fejleszt": 2033,
      "etes": 2034,
      " Y": 2035,
      "ese": 2036,
      " ahogy": 2037,
      "23": 2038,
      " este": 2039,
      " tűz": 2040,
      "hatja": 2041,
      " összeg": 2042,
      "város": 2043,
      "ettel": 2044,
      " üzlet": 2045,
      "ebruár": 2046,
      "gép": 2047,
      " egyetlen": 2048,
      " egyelőre": 2049,
      "sék": 2050,
      "encs": 2051,
      "ezer": 2052,
      "ózs": 2053,
      " időszak": 2054,
      " üzem": 2055,
      " évben": 2056,
      " folyamat": 2057,
      "100": 2058,
      " utóbbi": 2059,
      "orban": 2060,
      "őleg": 2061,
      " Ország": 2062,
      " szóviv": 2063,
      "nnep": 2064,
      " bem": 2065,
      " tanács": 2066,
      "fizet": 2067,
      " egyébként": 2068,
      " kény": 2069,
      "tóber": 2070,
      " bejelent": 2071,
      " március": 2072,
      "asztal": 2073,
      "ide": 2074,
      "okra": 2075,
      "országban": 2076,
      " válság": 2077,
      " részlet": 2078,
      " szintén": 2079,
      "-kor": 2080,
      " iskol": 2081,
      " ismét": 2082,
      "határ": 2083,
      " igen": 2084,
      "vári": 2085,
      " intern": 2086,
      "úcs": 2087,
      " uni": 2088,
      " követően": 2089,
      " Ferenc": 2090,
      "országi": 2091,
      "áig": 2092,
      " létre": 2093,
      " társad": 2094,
      " kíván": 2095,
      " igény": 2096,
      " csütörtökön": 2097,
      " let": 2098,
      " nehéz": 2099,
      "inc": 2100,
      "Nagy": 2101,
      "eged": 2102,
      " fogyaszt": 2103,
      "etet": 2104,
      " Európai": 2105,
      "tr": 2106,
      "szön": 2107,
      " szív": 2108,
      "ékeny": 2109,
      " ünnep": 2110,
      "pály": 2111,
      " pénteken": 2112,
      "-v": 2113,
      "tag": 2114,
      " rég": 2115,
      " Gábor": 2116,
      "ázs": 2117,
      " fogad": 2118,
      "övetség": 2119,
      "áni": 2120,
      " Orbán": 2121,
      " vállalkoz": 2122,
      "örgy": 2123,
      " kik": 2124,
      " helyszín": 2125,
      " készül": 2126,
      " bizottság": 2127,
      "dig": 2128,
      "vár": 2129,
      "rány": 2130,
      "íteni": 2131,
      "ilis": 2132,
      " vet": 2133,
      "nyug": 2134,
      " erő": 2135,
      "ft": 2136,
      "olás": 2137,
      "endég": 2138,
      " ford": 2139,
      " szig": 2140,
      " egyszer": 2141,
      " ham": 2142,
      " gáz": 2143,
      " jelentette": 2144,
      " kí": 2145,
      " mérték": 2146,
      "endő": 2147,
      "Mi": 2148,
      " tölt": 2149,
      "elv": 2150,
      " nyer": 2151,
      " végül": 2152,
      "ral": 2153,
      " iz": 2154,
      " rövid": 2155,
      " műv": 2156,
      " egyen": 2157,
      " annyi": 2158,
      " fin": 2159,
      " megyei": 2160,
      " til": 2161,
      " díj": 2162,
      " szinte": 2163,
      " társaság": 2164,
      " forduló": 2165,
      " abban": 2166,
      "ítvány": 2167,
      "-i": 2168,
      "mag": 2169,
      " barát": 2170,
      " Tam": 2171,
      "ácsony": 2172,
      " ver": 2173,
      " di": 2174,
      " hosszú": 2175,
      " vonatkoz": 2176,
      "-s": 2177,
      "fr": 2178,
      " először": 2179,
      " tudja": 2180,
      " raj": 2181,
      " amelynek": 2182,
      "műv": 2183,
      "arab": 2184,
      " tehát": 2185,
      " tév": 2186,
      "ézet": 2187,
      " kórház": 2188,
      " esély": 2189,
      " ebben": 2190,
      "-K": 2191,
      " fogalmaz": 2192,
      " egyszerű": 2193,
      "hogy": 2194,
      " bor": 2195,
      "lovák": 2196,
      " kett": 2197,
      "izmus": 2198,
      " évek": 2199,
      "ásban": 2200,
      "utató": 2201,
      " hatóság": 2202,
      "jából": 2203,
      "oni": 2204,
      " álló": 2205,
      "obbik": 2206,
      "-m": 2207,
      " ide": 2208,
      " szerv": 2209,
      "ársaság": 2210,
      " brit": 2211,
      "ői": 2212,
      "száz": 2213,
      "bert": 2214,
      " miután": 2215,
      " végre": 2216,
      " viszony": 2217,
      "hetnek": 2218,
      " szakember": 2219,
      " nyújt": 2220,
      " hib": 2221,
      " szerződés": 2222,
      "űjt": 2223,
      " Br": 2224,
      "ird": 2225,
      " kormányz": 2226,
      "-án": 2227,
      "rész": 2228,
      " mit": 2229,
      "urg": 2230,
      " délután": 2231,
      "pal": 2232,
      "vált": 2233,
      " ed": 2234,
      "ere": 2235,
      " nyit": 2236,
      " kir": 2237,
      "éseket": 2238,
      "ulás": 2239,
      "line": 2240,
      " fény": 2241,
      "En": 2242,
      " február": 2243,
      "álni": 2244,
      " ellenőr": 2245,
      "...": 2246,
      "több": 2247,
      " vélemény": 2248,
      "isták": 2249,
      "ködés": 2250,
      " alkotmány": 2251,
      "Mint": 2252,
      "la": 2253,
      " veszt": 2254,
      " október": 2255,
      "dönt": 2256,
      "őben": 2257,
      "álat": 2258,
      " baleset": 2259,
      " X": 2260,
      "ann": 2261,
      "féle": 2262,
      "ilag": 2263,
      " maga": 2264,
      " szép": 2265,
      " felk": 2266,
      " többi": 2267,
      "üket": 2268,
      "28": 2269,
      " előző": 2270,
      " feltétel": 2271,
      " kért": 2272,
      "ésben": 2273,
      " vezetője": 2274,
      " vendég": 2275,
      " próbál": 2276,
      " éj": 2277,
      "mun": 2278,
      " szakért": 2279,
      " kifej": 2280,
      " Ar": 2281,
      " utas": 2282,
      " továbbra": 2283,
      " György": 2284,
      " orvos": 2285,
      "kezd": 2286,
      "upán": 2287,
      " hangsúly": 2288,
      " lány": 2289,
      " Jobbik": 2290,
      " kapcsolatban": 2291,
      "Magyar": 2292,
      "etében": 2293,
      " kéz": 2294,
      " teljesen": 2295,
      "pány": 2296,
      "uz": 2297,
      " part": 2298,
      " mégis": 2299,
      " Magyarországon": 2300,
      "adásul": 2301,
      " arány": 2302,
      " idei": 2303,
      " egészség": 2304,
      " otthon": 2305,
      "Új": 2306,
      " töm": 2307,
      " lem": 2308,
      " elfogad": 2309,
      "ékony": 2310,
      "ept": 2311,
      "hetően": 2312,
      " Vik": 2313,
      "ama": 2314,
      " műsor": 2315,
      " világbajnok": 2316,
      " része": 2317,
      "olja": 2318,
      " állít": 2319,
      " kevés": 2320,
      " legyen": 2321,
      "ától": 2322,
      " áld": 2323,
      " befektet": 2324,
      " János": 2325,
      "ork": 2326,
      " elkövet": 2327,
      "avar": 2328,
      " érdem": 2329,
      "szabad": 2330,
      " kics": 2331,
      "éli": 2332,
      "igazgató": 2333,
      " labd": 2334,
      " jelenlegi": 2335,
      "polit": 2336,
      " port": 2337,
      " gyeng": 2338,
      "Er": 2339,
      "ügymin": 2340,
      " konc": 2341,
      " komoly": 2342,
      " reggel": 2343,
      "szk": 2344,
      "-B": 2345,
      " EU": 2346,
      " értelm": 2347,
      "prilis": 2348,
      " vele": 2349,
      " szocial": 2350,
      "erek": 2351,
      " kérd": 2352,
      "ásokat": 2353,
      "dött": 2354,
      " polgármester": 2355,
      "za": 2356,
      "érd": 2357,
      "ilk": 2358,
      " szükséges": 2359,
      " szenv": 2360,
      " kult": 2361,
      " rendőrök": 2362,
      " haszn": 2363,
      "osabb": 2364,
      " közben": 2365,
      "vonal": 2366,
      " kiem": 2367,
      " kellene": 2368,
      "emp": 2369,
      " Zrt": 2370,
      " férf": 2371,
      " kiad": 2372,
      " tartott": 2373,
      " energ": 2374,
      " Szab": 2375,
      " lel": 2376,
      " Nemzeti": 2377,
      " esetben": 2378,
      " ci": 2379,
      "hajt": 2380,
      "ándor": 2381,
      "gatás": 2382,
      " motor": 2383,
      " utaz": 2384,
      " száma": 2385,
      "És": 2386,
      " ezen": 2387,
      " semm": 2388,
      " szerepel": 2389,
      "acsony": 2390,
      "oc": 2391,
      " miért": 2392,
      "efon": 2393,
      " szok": 2394,
      " kevesebb": 2395,
      " persze": 2396,
      " Zolt": 2397,
      " ül": 2398,
      " forintos": 2399,
      " médi": 2400,
      "enger": 2401,
      "etek": 2402,
      " előre": 2403,
      " benne": 2404,
      "álló": 2405,
      "ősorban": 2406,
      " keresked": 2407,
      " tev": 2408,
      "ására": 2409,
      "ségek": 2410,
      "sága": 2411,
      " cikk": 2412,
      " pályáz": 2413,
      " környezet": 2414,
      "KV": 2415,
      " válogatott": 2416,
      "ga": 2417,
      "nie": 2418,
      " poz": 2419,
      "-nek": 2420,
      "60": 2421,
      " érvény": 2422,
      "ívül": 2423,
      " íg": 2424,
      "észség": 2425,
      " segítség": 2426,
      "nék": 2427,
      "urcs": 2428,
      " jelölt": 2429,
      " támogat": 2430,
      " alig": 2431,
      "attal": 2432,
      " ing": 2433,
      " ugyanakkor": 2434,
      "ozni": 2435,
      " semmi": 2436,
      " rem": 2437,
      "mai": 2438,
      "rán": 2439,
      " pl": 2440,
      " gazd": 2441,
      " olimp": 2442,
      "orvát": 2443,
      "íti": 2444,
      " csupán": 2445,
      "örög": 2446,
      "apitányság": 2447,
      "ou": 2448,
      " kialak": 2449,
      "ná": 2450,
      " közvet": 2451,
      "atták": 2452,
      " köszön": 2453,
      " Egyesült": 2454,
      "iskol": 2455,
      " százaléka": 2456,
      "rendszer": 2457,
      " karácsony": 2458,
      " intézmény": 2459,
      " fegy": 2460,
      "ockáz": 2461,
      " Tamás": 2462,
      "uló": 2463,
      " tagja": 2464,
      " Az": 2465,
      "ánc": 2466,
      " akt": 2467,
      " gyanús": 2468,
      " eszköz": 2469,
      " újság": 2470,
      " francia": 2471,
      " tet": 2472,
      " kampány": 2473,
      "két": 2474,
      "Ezt": 2475,
      "fer": 2476,
      " pénzügyi": 2477,
      " mög": 2478,
      " BKV": 2479,
      " összesen": 2480,
      " héten": 2481,
      " rek": 2482,
      " tanulmány": 2483,
      " vett": 2484,
      "ileg": 2485,
      " különös": 2486,
      "ball": 2487,
      " bér": 2488,
      "hatatlan": 2489,
      "ővel": 2490,
      "ian": 2491,
      "org": 2492,
      " Rend": 2493,
      "ey": 2494,
      " hogyan": 2495,
      " New": 2496,
      " talán": 2497,
      "ina": 2498,
      " lég": 2499,
      " legtöbb": 2500,
      " szempont": 2501,
      "adék": 2502,
      "omag": 2503,
      " kezdőd": 2504,
      " érdekében": 2505,
      "elők": 2506,
      "enki": 2507,
      "ésével": 2508,
      " bőv": 2509,
      " Zoltán": 2510,
      "enci": 2511,
      " -,": 2512,
      " gyógy": 2513,
      " jobban": 2514,
      "szabály": 2515,
      " ell": 2516,
      " dok": 2517,
      " termék": 2518,
      " épület": 2519,
      " szül": 2520,
      " csökken": 2521,
      "atárs": 2522,
      " április": 2523,
      "eleg": 2524,
      "29": 2525,
      " küz": 2526,
      "anács": 2527,
      " indult": 2528,
      "ona": 2529,
      " mindenki": 2530,
      " Pr": 2531,
      " név": 2532,
      "gyűlés": 2533,
      "DF": 2534,
      "eje": 2535,
      "elmű": 2536,
      " kilom": 2537,
      "-ig": 2538,
      "onn": 2539,
      " indok": 2540,
      " forr": 2541,
      " írta": 2542,
      "zők": 2543,
      " központ": 2544,
      "élet": 2545,
      " techn": 2546,
      "ódott": 2547,
      " aztán": 2548,
      "...\n": 2549,
      " est": 2550,
      "íp": 2551,
      "óri": 2552,
      "ármaz": 2553,
      " tevékeny": 2554,
      " pill": 2555,
      "ozik": 2556,
      " ezelőtt": 2557,
      " klub": 2558,
      "örös": 2559,
      " siker": 2560,
      " katon": 2561,
      " elkép": 2562,
      "álták": 2563,
      " döntött": 2564,
      " meglep": 2565,
      "észeti": 2566,
      "ítottak": 2567,
      "beli": 2568,
      "gol": 2569,
      "engyel": 2570,
      "átette": 2571,
      "átor": 2572,
      " gyárt": 2573,
      " Viktor": 2574,
      "men": 2575,
      " uniós": 2576,
      " w": 2577,
      " lény": 2578,
      " modell": 2579,
      "ulat": 2580,
      "ast": 2581,
      " Mar": 2582,
      " irod": 2583,
      "róf": 2584,
      "kívül": 2585,
      " bárm": 2586,
      "ólag": 2587,
      "akt": 2588,
      " állás": 2589,
      " intézked": 2590,
      " elsősorban": 2591,
      " het": 2592,
      " fal": 2593,
      "raj": 2594,
      " állt": 2595,
      " Józs": 2596,
      "Itthon": 2597,
      " elején": 2598,
      "ument": 2599,
      "get": 2600,
      " hav": 2601,
      " mer": 2602,
      " kiz": 2603,
      " épít": 2604,
      " fot": 2605,
      "szervezet": 2606,
      " ex": 2607,
      " im": 2608,
      " Sch": 2609,
      "oha": 2610,
      "ségét": 2611,
      "ományos": 2612,
      "ezon": 2613,
      "irdet": 2614,
      "-sz": 2615,
      "van": 2616,
      " sőt": 2617,
      " maradt": 2618,
      " vagyis": 2619,
      " látt": 2620,
      "éni": 2621,
      " tulajdonos": 2622,
      "gazdaság": 2623,
      "se": 2624,
      "ései": 2625,
      " állapot": 2626,
      " felf": 2627,
      " olasz": 2628,
      "víz": 2629,
      " Fran": 2630,
      " közötti": 2631,
      "rál": 2632,
      "ódik": 2633,
      "tatási": 2634,
      " keresztül": 2635,
      "ner": 2636,
      "ágy": 2637,
      " vagyok": 2638,
      " származ": 2639,
      "35": 2640,
      "énk": 2641,
      "ezik": 2642,
      " évi": 2643,
      " egyed": 2644,
      " különböző": 2645,
      " tapasztal": 2646,
      " kísér": 2647,
      "uális": 2648,
      " esemény": 2649,
      "örtén": 2650,
      " vezér": 2651,
      "io": 2652,
      " számos": 2653,
      " nemzeti": 2654,
      "Ugyan": 2655,
      "éves": 2656,
      " péntek": 2657,
      "ansz": 2658,
      "iről": 2659,
      "zetes": 2660,
      "par": 2661,
      " MDF": 2662,
      " felé": 2663,
      " lehetett": 2664,
      " külföldi": 2665,
      " kockáz": 2666,
      "éteres": 2667,
      "ásával": 2668,
      "ila": 2669,
      " mozg": 2670,
      " spanyol": 2671,
      "Ak": 2672,
      " módon": 2673,
      " József": 2674,
      ".),": 2675,
      " Att": 2676,
      "31": 2677,
      "óban": 2678,
      "ású": 2679,
      " akad": 2680,
      " jutott": 2681,
      "ítják": 2682,
      " munkatárs": 2683,
      " András": 2684,
      "sért": 2685,
      " nemcsak": 2686,
      "oldal": 2687,
      " str": 2688,
      "iaci": 2689,
      " tervez": 2690,
      "őként": 2691,
      " honlap": 2692,
      "értelmű": 2693,
      "ocsát": 2694,
      " magyaráz": 2695,
      "álta": 2696,
      "apír": 2697,
      " közé": 2698,
      " óra": 2699,
      "log": 2700,
      "íl": 2701,
      "usok": 2702,
      " Kr": 2703,
      " nőtt": 2704,
      "örvény": 2705,
      " had": 2706,
      " ellát": 2707,
      " akart": 2708,
      " esetében": 2709,
      " bek": 2710,
      "udapesti": 2711,
      "Ennek": 2712,
      "II": 2713,
      "váj": 2714,
      "ésének": 2715,
      " list": 2716,
      "andó": 2717,
      "jára": 2718,
      " azaz": 2719,
      " alacsony": 2720,
      " szolgáltatás": 2721,
      " eml": 2722,
      "sem": 2723,
      "ereség": 2724,
      "jelen": 2725,
      "űt": 2726,
      " ap": 2727,
      "emt": 2728,
      "áson": 2729,
      " egykori": 2730,
      "rec": 2731,
      " Hír": 2732,
      "45": 2733,
      "ekkor": 2734,
      "idék": 2735,
      " szakasz": 2736,
      " Uni": 2737,
      "zik": 2738,
      " közep": 2739,
      "ozza": 2740,
      " súlyos": 2741,
      "óg": 2742,
      "olták": 2743,
      " kutatás": 2744,
      "Gy": 2745,
      " darab": 2746,
      "lőd": 2747,
      " bele": 2748,
      "erő": 2749,
      " teljesítmény": 2750,
      " valami": 2751,
      " felhasznál": 2752,
      "jut": 2753,
      "rom": 2754,
      " pénzt": 2755,
      "eptember": 2756,
      "Így": 2757,
      " vill": 2758,
      "akar": 2759,
      " visszat": 2760,
      "óval": 2761,
      "szint": 2762,
      " valaki": 2763,
      " kilenc": 2764,
      " dokument": 2765,
      " ők": 2766,
      " mély": 2767,
      " budapesti": 2768,
      "őle": 2769,
      " történet": 2770,
      "-h": 2771,
      " terj": 2772,
      " Rendőr": 2773,
      "jával": 2774,
      " demokr": 2775,
      "ente": 2776,
      "nyire": 2777,
      " szor": 2778,
      " azokat": 2779,
      "ékes": 2780,
      "meg": 2781,
      "oy": 2782,
      "atikus": 2783,
      " mérkőzés": 2784,
      " szóvivője": 2785,
      " lényeg": 2786,
      "Bár": 2787,
      "ekv": 2788,
      " Sándor": 2789,
      " adatok": 2790,
      " képes": 2791,
      " független": 2792,
      " tém": 2793,
      " egyetem": 2794,
      "óknak": 2795,
      " addig": 2796,
      " lakosság": 2797,
      " Európa": 2798,
      "rák": 2799,
      " régi": 2800,
      "oltak": 2801,
      " években": 2802,
      " Sp": 2803,
      "zó": 2804,
      "eteg": 2805,
      " eur": 2806,
      "und": 2807,
      " jött": 2808,
      " megjelent": 2809,
      "sa": 2810,
      "elik": 2811,
      " felv": 2812,
      " kezdemény": 2813,
      " kínai": 2814,
      " okoz": 2815,
      "bel": 2816,
      "csoport": 2817,
      "ival": 2818,
      "80": 2819,
      "millió": 2820,
      " lass": 2821,
      " jellem": 2822,
      " cent": 2823,
      " se": 2824,
      " végzett": 2825,
      "fordul": 2826,
      "fok": 2827,
      " vér": 2828,
      "eztek": 2829,
      " dob": 2830,
      " színész": 2831,
      "egény": 2832,
      " egyértelmű": 2833,
      " Kft": 2834,
      " El": 2835,
      " ahhoz": 2836,
      " fell": 2837,
      " fogalmazott": 2838,
      "ler": 2839,
      "szem": 2840,
      " kár": 2841,
      " múl": 2842,
      "akció": 2843,
      "atokat": 2844,
      " szezon": 2845,
      " megm": 2846,
      " nevű": 2847,
      " beruház": 2848,
      "aként": 2849,
      "evő": 2850,
      " ideg": 2851,
      "iklós": 2852,
      "úra": 2853,
      " nők": 2854,
      " kapcsolatos": 2855,
      "ivatal": 2856,
      "anszír": 2857,
      " ülés": 2858,
      "eum": 2859,
      "ítése": 2860,
      "össze": 2861,
      "ung": 2862,
      "ója": 2863,
      "elen": 2864,
      " szerencs": 2865,
      " idején": 2866,
      "Ind": 2867,
      "erv": 2868,
      " Megy": 2869,
      " rendkívül": 2870,
      " tudott": 2871,
      " osztály": 2872,
      " Le": 2873,
      " tömeg": 2874,
      " többször": 2875,
      " nehez": 2876,
      "vég": 2877,
      " hajt": 2878,
      " gyűjt": 2879,
      " angol": 2880,
      " tizen": 2881,
      " vonatkozó": 2882,
      " férfit": 2883,
      "kör": 2884,
      "elték": 2885,
      "ie": 2886,
      "198": 2887,
      " Ö": 2888,
      "rid": 2889,
      "nyal": 2890,
      "atott": 2891,
      " Német": 2892,
      "eik": 2893,
      "einek": 2894,
      "zése": 2895,
      "éig": 2896,
      " Biz": 2897,
      "ocsi": 2898,
      "párt": 2899,
      " járt": 2900,
      " Re": 2901,
      " tartalmaz": 2902,
      " támad": 2903,
      "our": 2904,
      "olog": 2905,
      " érkezett": 2906,
      "lési": 2907,
      " sokat": 2908,
      " részvény": 2909,
      " választási": 2910,
      "ack": 2911,
      "ham": 2912,
      "orm": 2913,
      "ővé": 2914,
      " valószínűleg": 2915,
      "ásának": 2916,
      " becs": 2917,
      "jelölt": 2918,
      " mögött": 2919,
      " választások": 2920,
      "edik": 2921,
      "ash": 2922,
      "ideg": 2923,
      "eltek": 2924,
      "cselek": 2925,
      " valóban": 2926,
      " elképzel": 2927,
      "era": 2928,
      " nál": 2929,
      "obil": 2930,
      " mindent": 2931,
      "Még": 2932,
      " tr": 2933,
      " napon": 2934,
      "tiz": 2935,
      " kutat": 2936,
      "ósság": 2937,
      " szombaton": 2938,
      "Több": 2939,
      "oss": 2940,
      " rög": 2941,
      " árfoly": 2942,
      " gyakorlat": 2943,
      " titk": 2944,
      " jön": 2945,
      " korlát": 2946,
      "émi": 2947,
      " született": 2948,
      "-A": 2949,
      " húsz": 2950,
      "arúg": 2951,
      "irt": 2952,
      "asztróf": 2953,
      " módos": 2954,
      " szeptember": 2955,
      " esett": 2956,
      " Ol": 2957,
      "enes": 2958,
      " látható": 2959,
      " döntés": 2960,
      " akit": 2961,
      " mai": 2962,
      " felett": 2963,
      "Már": 2964,
      "ust": 2965,
      "ájuk": 2966,
      " olvasható": 2967,
      " megbíz": 2968,
      " buk": 2969,
      " meghatár": 2970,
      " század": 2971,
      " ingatlan": 2972,
      "ájában": 2973,
      " országos": 2974,
      "gaz": 2975,
      "tunk": 2976,
      " fed": 2977,
      "urális": 2978,
      "étt": 2979,
      " forgalom": 2980,
      "ánál": 2981,
      " oda": 2982,
      "ajos": 2983,
      " sorozat": 2984,
      "ce": 2985,
      " nyelv": 2986,
      " élő": 2987,
      " ellenzék": 2988,
      "de": 2989,
      "ológiai": 2990,
      " lő": 2991,
      " tudta": 2992,
      " senki": 2993,
      " Attila": 2994,
      "-ra": 2995,
      " kárt": 2996,
      " teszt": 2997,
      " szerk": 2998,
      " utal": 2999,
      " előny": 3000,
      " tudom": 3001,
      " tartja": 3002,
      " dokumentum": 3003,
      "ölcs": 3004,
      " őt": 3005,
      " Zsolt": 3006,
      "részt": 3007,
      " megny": 3008,
      " női": 3009,
      " hivatalos": 3010,
      " teszi": 3011,
      " csúcs": 3012,
      "usban": 3013,
      "evíz": 3014,
      "tatta": 3015,
      " ráadásul": 3016,
      "ca": 3017,
      "ff": 3018,
      "qu": 3019,
      "úgy": 3020,
      "keres": 3021,
      "Or": 3022,
      "fl": 3023,
      "sp": 3024,
      "vállal": 3025,
      " hatalmas": 3026,
      "Csak": 3027,
      "íció": 3028,
      " miközben": 3029,
      " Megyei": 3030,
      "90": 3031,
      " korr": 3032,
      "ultak": 3033,
      " kommun": 3034,
      " parlamenti": 3035,
      " kiderült": 3036,
      "jön": 3037,
      " kelet": 3038,
      "atát": 3039,
      "őkapitányság": 3040,
      "str": 3041,
      "ezi": 3042,
      "\"A": 3043,
      "kr": 3044,
      "ódó": 3045,
      "étől": 3046,
      " Országos": 3047,
      "70": 3048,
      " megszer": 3049,
      " szerzett": 3050,
      " Bar": 3051,
      " küzd": 3052,
      "álja": 3053,
      " Min": 3054,
      " jelentkez": 3055,
      "esül": 3056,
      "ttól": 3057,
      " krit": 3058,
      " pan": 3059,
      " beszélt": 3060,
      " futball": 3061,
      " megállapod": 3062,
      "almat": 3063,
      " összes": 3064,
      "gyek": 3065,
      "osztály": 3066,
      " bűncselek": 3067,
      "zott": 3068,
      " azóta": 3069,
      " mondja": 3070,
      " költségvetési": 3071,
      " várhatóan": 3072,
      "-n": 3073,
      " embert": 3074,
      " országban": 3075,
      "ier": 3076,
      "écs": 3077,
      "olcs": 3078,
      "ellett": 3079,
      " idéz": 3080,
      "úttal": 3081,
      " terh": 3082,
      " kicsit": 3083,
      "áért": 3084,
      " vide": 3085,
      " megjelen": 3086,
      " alk": 3087,
      " tudni": 3088,
      " együttmű": 3089,
      " tűnik": 3090,
      "utatás": 3091,
      " esetén": 3092,
      "örtön": 3093,
      "Úgy": 3094,
      "ái": 3095,
      " legf": 3096,
      " tartó": 3097,
      " arany": 3098,
      "burg": 3099,
      " eljárás": 3100,
      " pillan": 3101,
      "bil": 3102,
      "lét": 3103,
      " engedély": 3104,
      "ancs": 3105,
      " feny": 3106,
      " többet": 3107,
      " többek": 3108,
      "onal": 3109,
      " telefon": 3110,
      " folyamatosan": 3111,
      "Két": 3112,
      "akoz": 3113,
      "eszél": 3114,
      " Ant": 3115,
      "ítették": 3116,
      " sajtót": 3117,
      ".:": 3118,
      "jen": 3119,
      " ról": 3120,
      "itás": 3121,
      "lődés": 3122,
      " felső": 3123,
      " forin": 3124,
      "-os": 3125,
      "gr": 3126,
      " koll": 3127,
      " harc": 3128,
      " térség": 3129,
      " eddigi": 3130,
      "nyugdíj": 3131,
      " alkalom": 3132,
      " távol": 3133,
      " tur": 3134,
      " mindössze": 3135,
      "aba": 3136,
      "Most": 3137,
      " ab": 3138,
      " megelő": 3139,
      " jogszabály": 3140,
      " tenni": 3141,
      " befoly": 3142,
      "óra": 3143,
      "ítva": 3144,
      " ellent": 3145,
      "már": 3146,
      " egyet": 3147,
      "úli": 3148,
      "Index": 3149,
      " op": 3150,
      "titk": 3151,
      " Miklós": 3152,
      " méter": 3153,
      "arl": 3154,
      " felmér": 3155,
      " feleség": 3156,
      " Mol": 3157,
      "jének": 3158,
      " br": 3159,
      "hetik": 3160,
      "ovács": 3161,
      " Rom": 3162,
      " vizsgálat": 3163,
      " hamar": 3164,
      "ekről": 3165,
      " fiz": 3166,
      "áború": 3167,
      " nyilvánosság": 3168,
      " ének": 3169,
      " elekt": 3170,
      "ity": 3171,
      "Le": 3172,
      "alk": 3173,
      " vegy": 3174,
      " BL": 3175,
      "tized": 3176,
      " ur": 3177,
      " dolgozó": 3178,
      "emet": 3179,
      "úzeum": 3180,
      " York": 3181,
      "janak": 3182,
      " lez": 3183,
      "apán": 3184,
      " megerős": 3185,
      " akinek": 3186,
      " tájékoztatás": 3187,
      " ég": 3188,
      "edt": 3189,
      " munkav": 3190,
      " fenntart": 3191,
      "au": 3192,
      "iában": 3193,
      "Ny": 3194,
      "ry": 3195,
      "állam": 3196,
      " at": 3197,
      "elmet": 3198,
      "nökség": 3199,
      "vá": 3200,
      " mut": 3201,
      " végig": 3202,
      " szereplő": 3203,
      "szolgált": 3204,
      "sen": 3205,
      " egyéni": 3206,
      "ota": 3207,
      "tuk": 3208,
      "eként": 3209,
      " jelenti": 3210,
      "-főkapitányság": 3211,
      " forinttal": 3212,
      "ax": 3213,
      "man": 3214,
      "pár": 3215,
      " elb": 3216,
      " hivatkoz": 3217,
      "-től": 3218,
      " annyira": 3219,
      " [": 3220,
      "Sport": 3221,
      "eznek": 3222,
      "illag": 3223,
      "néz": 3224,
      "általán": 3225,
      " Új": 3226,
      "ebben": 3227,
      "játék": 3228,
      "vájci": 3229,
      " figyelem": 3230,
      " kilométer": 3231,
      " szöv": 3232,
      "rag": 3233,
      "tabil": 3234,
      " előzetes": 3235,
      " környék": 3236,
      " észak": 3237,
      " javaslat": 3238,
      "if": 3239,
      "ereg": 3240,
      "éve": 3241,
      "polgár": 3242,
      "una": 3243,
      "ikat": 3244,
      "áltak": 3245,
      " amelyben": 3246,
      " szerződ": 3247,
      " informáci": 3248,
      " menny": 3249,
      " éjszak": 3250,
      " módszer": 3251,
      " ajánl": 3252,
      " assz": 3253,
      " szövet": 3254,
      " tudós": 3255,
      " szakmai": 3256,
      " önkormányzat": 3257,
      "izál": 3258,
      " proj": 3259,
      "urcsány": 3260,
      "MP": 3261,
      "álóz": 3262,
      " seb": 3263,
      " mostani": 3264,
      " román": 3265,
      " zaj": 3266,
      " nyilatkozta": 3267,
      " költségvetés": 3268,
      "ij": 3269,
      "hatják": 3270,
      " cégek": 3271,
      " negyedik": 3272,
      "iát": 3273,
      " vette": 3274,
      " meghal": 3275,
      "Hozz": 3276,
      "önyv": 3277,
      " fidesz": 3278,
      " idős": 3279,
      " egymás": 3280,
      "ezz": 3281,
      "inte": 3282,
      " Lig": 3283,
      " vagyon": 3284,
      " vagyunk": 3285,
      "ontosabb": 3286,
      " biztonsági": 3287,
      "mód": 3288,
      "anad": 3289,
      " szom": 3290,
      "olják": 3291,
      " Lajos": 3292,
      " igazság": 3293,
      "ázis": 3294,
      "lenül": 3295,
      " mindkét": 3296,
      " azonos": 3297,
      " időben": 3298,
      " óri": 3299,
      " finanszír": 3300,
      " hatóságok": 3301,
      "500": 3302,
      " börtön": 3303,
      "hetett": 3304,
      "jog": 3305,
      " lenni": 3306,
      "elj": 3307,
      "atban": 3308,
      " baj": 3309,
      " belső": 3310,
      "ián": 3311,
      "világ": 3312,
      " évtized": 3313,
      "-egy": 3314,
      "lám": 3315,
      " beszám": 3316,
      ".)\n": 3317,
      "nline": 3318,
      " húz": 3319,
      "orú": 3320,
      " felül": 3321,
      " részét": 3322,
      " hit": 3323,
      " sokan": 3324,
      "Hogy": 3325,
      "kék": 3326,
      " cser": 3327,
      "berg": 3328,
      " település": 3329,
      "hol": 3330,
      "séggel": 3331,
      "raz": 3332,
      " Mad": 3333,
      " ügyben": 3334,
      " érintett": 3335,
      "ügyminiszter": 3336,
      " ígér": 3337,
      " különösen": 3338,
      "ore": 3339,
      " fehér": 3340,
      " sí": 3341,
      "Ezek": 3342,
      " munkahely": 3343,
      " visszav": 3344,
      " örök": 3345,
      "nevezett": 3346,
      " ős": 3347,
      "ker": 3348,
      "égy": 3349,
      " kin": 3350,
      " elad": 3351,
      " jég": 3352,
      "osok": 3353,
      " Nép": 3354,
      "ípus": 3355,
      "SA": 3356,
      " máj": 3357,
      "elleg": 3358,
      " hull": 3359,
      " bevezet": 3360,
      " eh": 3361,
      "300": 3362,
      "Ar": 3363,
      " fővárosi": 3364,
      " népszerű": 3365,
      "Magyarország": 3366,
      " szlovák": 3367,
      " figyelmet": 3368,
      "32": 3369,
      "ötte": 3370,
      "tatott": 3371,
      "tette": 3372,
      " hosszabb": 3373,
      " biztonság": 3374,
      " elé": 3375,
      " legutó": 3376,
      " Egyetem": 3377,
      " szex": 3378,
      " egyáltalán": 3379,
      "ándék": 3380,
      "-b": 3381,
      " szét": 3382,
      " tervezett": 3383,
      "enet": 3384,
      " Man": 3385,
      "szerep": 3386,
      "ítását": 3387,
      "oszk": 3388,
      "ox": 3389,
      " mező": 3390,
      "okból": 3391,
      " dolog": 3392,
      " legk": 3393,
      " államtitk": 3394,
      " igyek": 3395,
      " információ": 3396,
      " rak": 3397,
      " dí": 3398,
      " Budapesten": 3399,
      " internet": 3400,
      " szervez": 3401,
      "szabadság": 3402,
      " agy": 3403,
      " hí": 3404,
      " kijelent": 3405,
      " évre": 3406,
      " számító": 3407,
      " történelmi": 3408,
      " lakás": 3409,
      "hess": 3410,
      "űk": 3411,
      "szel": 3412,
      "Minden": 3413,
      " rendezvény": 3414,
      " labdarúg": 3415,
      " Kár": 3416,
      " Inter": 3417,
      " kateg": 3418,
      "DP": 3419,
      "eltet": 3420,
      " sért": 3421,
      " bevétel": 3422,
      "ick": 3423,
      "helyett": 3424,
      " zárt": 3425,
      " jóval": 3426,
      " konz": 3427,
      " legfontosabb": 3428,
      " Im": 3429,
      " hangsúlyozta": 3430,
      " kísérlet": 3431,
      "ach": 3432,
      " emberi": 3433,
      " minőség": 3434,
      " általában": 3435,
      " interj": 3436,
      " szocialista": 3437,
      " pontosan": 3438,
      " őrizet": 3439,
      " egyedül": 3440,
      "Ebb": 3441,
      "éért": 3442,
      " agg": 3443,
      " erről": 3444,
      " jövőre": 3445,
      " természetesen": 3446,
      "ciós": 3447,
      "ekete": 3448,
      " óv": 3449,
      " tavalyi": 3450,
      "34": 3451,
      " felvétel": 3452,
      "iplom": 3453,
      " testület": 3454,
      "fér": 3455,
      " robb": 3456,
      " gar": 3457,
      " lesznek": 3458,
      " bizonyos": 3459,
      " érdemes": 3460,
      "36": 3461,
      "etett": 3462,
      "adta": 3463,
      " épp": 3464,
      " tehet": 3465,
      " magasabb": 3466,
      "szó": 3467,
      "élt": 3468,
      " azonnal": 3469,
      "hang": 3470,
      "nőtt": 3471,
      "Világ": 3472,
      " hideg": 3473,
      "valós": 3474,
      " lehetne": 3475,
      " maguk": 3476,
      "ford": 3477,
      " kib": 3478,
      " folyó": 3479,
      " kutató": 3480,
      " kötelező": 3481,
      "zési": 3482,
      " svájci": 3483,
      " rab": 3484,
      "bizt": 3485,
      "Ki": 3486,
      "öny": 3487,
      " Ber": 3488,
      " pontos": 3489,
      " található": 3490,
      " király": 3491,
      "-M": 3492,
      " csinál": 3493,
      "örök": 3494,
      " küld": 3495,
      " kényszer": 3496,
      " busz": 3497,
      "őzs": 3498,
      " ekkor": 3499,
      " várt": 3500,
      " tudják": 3501,
      " összef": 3502,
      "felé": 3503,
      " jövőben": 3504,
      " Bizottság": 3505,
      " csomag": 3506,
      " level": 3507,
      "igo": 3508,
      " sikeres": 3509,
      " egészen": 3510,
      "inkább": 3511,
      "perc": 3512,
      "gyűlési": 3513,
      " tűzolt": 3514,
      " sajtótájékoz": 3515,
      "DSZ": 3516,
      "áns": 3517,
      "ainak": 3518,
      " Ind": 3519,
      " repül": 3520,
      " sérült": 3521,
      " csatlak": 3522,
      " lit": 3523,
      " kutatók": 3524,
      "vil": 3525,
      "üst": 3526,
      "ozók": 3527,
      " közölt": 3528,
      " helyre": 3529,
      " hozott": 3530,
      " tenger": 3531,
      " bíz": 3532,
      " For": 3533,
      " Géz": 3534,
      " jogi": 3535,
      " jármű": 3536,
      "bé": 3537,
      "ood": 3538,
      "tes": 3539,
      " hátt": 3540,
      "ism": 3541,
      "hatott": 3542,
      "foglal": 3543,
      " találtak": 3544,
      "rá": 3545,
      "ónak": 3546,
      " tor": 3547,
      "ine": 3548,
      " megvalós": 3549,
      " nyí": 3550,
      "ítási": 3551,
      "bíróság": 3552,
      "utas": 3553,
      " felügy": 3554,
      " prod": 3555,
      " nekik": 3556,
      "ítható": 3557,
      " fogja": 3558,
      " edző": 3559,
      "ételt": 3560,
      " jöved": 3561,
      " igazán": 3562,
      "hi": 3563,
      "áris": 3564,
      " kormányfő": 3565,
      "képpen": 3566,
      "film": 3567,
      " dev": 3568,
      "alma": 3569,
      "álisan": 3570,
      " készített": 3571,
      " piaci": 3572,
      "adik": 3573,
      "ciót": 3574,
      "egyen": 3575,
      "veszt": 3576,
      "áron": 3577,
      " soha": 3578,
      "ákkal": 3579,
      " bev": 3580,
      " kapcs": 3581,
      " igazgatója": 3582,
      " internetes": 3583,
      " szándék": 3584,
      " arc": 3585,
      "37": 3586,
      " szór": 3587,
      "onc": 3588,
      " elismer": 3589,
      "ula": 3590,
      "szerző": 3591,
      " érz": 3592,
      " adta": 3593,
      " úgynevezett": 3594,
      " friss": 3595,
      ":\n": 3596,
      "An": 3597,
      "nének": 3598,
      " kont": 3599,
      "átum": 3600,
      " Val": 3601,
      "szaki": 3602,
      " célja": 3603,
      " alakul": 3604,
      " vág": 3605,
      "ilt": 3606,
      " Pet": 3607,
      " zen": 3608,
      " családi": 3609,
      " Géza": 3610,
      " mes": 3611,
      " gyak": 3612,
      " többség": 3613,
      "ajnos": 3614,
      " menet": 3615,
      " negyedév": 3616,
      " szenved": 3617,
      " fest": 3618,
      " poszt": 3619,
      "idő": 3620,
      " minős": 3621,
      "Al": 3622,
      "attak": 3623,
      " idők": 3624,
      "ítást": 3625,
      " játszott": 3626,
      " megvált": 3627,
      " Vas": 3628,
      " zöld": 3629,
      " feladat": 3630,
      "faj": 3631,
      "eri": 3632,
      "élemény": 3633,
      " prof": 3634,
      " infl": 3635,
      " áldoz": 3636,
      " meleg": 3637,
      " Tim": 3638,
      " tudnak": 3639,
      " napokban": 3640,
      " beszéd": 3641,
      " társadalmi": 3642,
      "úk": 3643,
      "ilap": 3644,
      " köny": 3645,
      " szerinte": 3646,
      " Tanács": 3647,
      " igazi": 3648,
      " elkész": 3649,
      "ekvő": 3650,
      " érzék": 3651,
      "197": 3652,
      " társadalom": 3653,
      " segítségével": 3654,
      ".-": 3655,
      " vad": 3656,
      " egészségügyi": 3657,
      "hatunk": 3658,
      " tartóz": 3659,
      " róla": 3660,
      "odik": 3661,
      "Ezzel": 3662,
      " mobil": 3663,
      " szav": 3664,
      " szolgál": 3665,
      " Bel": 3666,
      " forrás": 3667,
      "ájának": 3668,
      " magyarországi": 3669,
      "gazdasági": 3670,
      " fideszes": 3671,
      " ehhez": 3672,
      "harmad": 3673,
      " hő": 3674,
      " lengyel": 3675,
      "kezett": 3676,
      " ebből": 3677,
      " kötött": 3678,
      "33": 3679,
      "Sok": 3680,
      "rab": 3681,
      "ondoni": 3682,
      "ulcs": 3683,
      " Pál": 3684,
      " délelőtt": 3685,
      " pil": 3686,
      " Ad": 3687,
      " részben": 3688,
      " döntő": 3689,
      "-Sz": 3690,
      "ásos": 3691,
      "érte": 3692,
      "usi": 3693,
      "BC": 3694,
      " harm": 3695,
      " megtal": 3696,
      " diplom": 3697,
      " kétszer": 3698,
      "usztrál": 3699,
      " diák": 3700,
      "belül": 3701,
      " ára": 3702,
      "atta": 3703,
      "ital": 3704,
      "oldali": 3705,
      "-nak": 3706,
      "Em": 3707,
      " Bank": 3708,
      "oldog": 3709,
      "Mivel": 3710,
      "úni": 3711,
      " kal": 3712,
      "okról": 3713,
      " választók": 3714,
      "kotmány": 3715,
      " mennyiség": 3716,
      " attól": 3717,
      "ozása": 3718,
      " átalak": 3719,
      "ebrec": 3720,
      "res": 3721,
      "nyel": 3722,
      " ri": 3723,
      " megf": 3724,
      "itív": 3725,
      " feld": 3726,
      " The": 3727,
      " ismeretlen": 3728,
      " jelentősen": 3729,
      "var": 3730,
      " LMP": 3731,
      " Szer": 3732,
      " minisztérium": 3733,
      " Központ": 3734,
      "ener": 3735,
      "íték": 3736,
      " KA": 3737,
      "ered": 3738,
      " Kín": 3739,
      " Tib": 3740,
      " Államok": 3741,
      " köszönhetően": 3742,
      " remény": 3743,
      " vége": 3744,
      " általános": 3745,
      " visszatér": 3746,
      "ium": 3747,
      " működés": 3748,
      "osszabb": 3749,
      " életét": 3750,
      " erősöd": 3751,
      " létrehoz": 3752,
      "origo": 3753,
      " időt": 3754,
      " keretében": 3755,
      "onnan": 3756,
      " sajtótájékoztató": 3757,
      "Elő": 3758,
      "ael": 3759,
      "co": 3760,
      "kan": 3761,
      "tan": 3762,
      "eleti": 3763,
      " láb": 3764,
      "ozást": 3765,
      "forg": 3766,
      "-,": 3767,
      "enként": 3768,
      " szob": 3769,
      " meggy": 3770,
      "ökkent": 3771,
      "zések": 3772,
      "olv": 3773,
      "195": 3774,
      " eny": 3775,
      " szék": 3776,
      " elők": 3777,
      " ezeket": 3778,
      "ennél": 3779,
      " osztrák": 3780,
      "Amikor": 3781,
      " éd": 3782,
      "Online": 3783,
      "anc": 3784,
      "abban": 3785,
      "com": 3786,
      "odott": 3787,
      "ünket": 3788,
      " civil": 3789,
      "hagy": 3790,
      "igy": 3791,
      "nának": 3792,
      " elsz": 3793,
      "ítan": 3794,
      "őknek": 3795,
      " leginkább": 3796,
      "várium": 3797,
      " téli": 3798,
      "onttal": 3799,
      "olf": 3800,
      " kim": 3801,
      "nyom": 3802,
      " Világ": 3803,
      " forintra": 3804,
      " értékesít": 3805,
      " megfelelően": 3806,
      " stabil": 3807,
      " köl": 3808,
      " felsz": 3809,
      " mintha": 3810,
      "ádió": 3811,
      "házy": 3812,
      " eredeti": 3813,
      " of": 3814,
      "bev": 3815,
      "takar": 3816,
      " köztük": 3817,
      " hasonlóan": 3818,
      " elkezd": 3819,
      " állampolgár": 3820,
      " alkalommal": 3821,
      "haj": 3822,
      "ror": 3823,
      "atók": 3824,
      " úton": 3825,
      "oft": 3826,
      "vesz": 3827,
      "ini": 3828,
      "artóz": 3829,
      " egyház": 3830,
      " csaknem": 3831,
      " munkan": 3832,
      " tényleg": 3833,
      " Antik": 3834,
      " ölt": 3835,
      "Per": 3836,
      " papír": 3837,
      "ügynökség": 3838,
      " prób": 3839,
      "kodó": 3840,
      "fejleszt": 3841,
      "pénzt": 3842,
      "Val": 3843,
      " vitt": 3844,
      " Mich": 3845,
      "ivat": 3846,
      " írt": 3847,
      "ennyiben": 3848,
      " felkész": 3849,
      "ságban": 3850,
      " Th": 3851,
      "atait": 3852,
      " reag": 3853,
      " reform": 3854,
      "társ": 3855,
      " vizsg": 3856,
      "hatók": 3857,
      " napi": 3858,
      " Cl": 3859,
      "-vel": 3860,
      " vereség": 3861,
      "esi": 3862,
      " Ro": 3863,
      " országgyűlési": 3864,
      "upa": 3865,
      " bü": 3866,
      " Sh": 3867,
      " Szent": 3868,
      " százalékát": 3869,
      " hétvég": 3870,
      " Gyurcsány": 3871,
      "úti": 3872,
      ".B": 3873,
      "dék": 3874,
      "sé": 3875,
      "ásai": 3876,
      " londoni": 3877,
      " sincs": 3878,
      " jogos": 3879,
      "arcel": 3880,
      "jebb": 3881,
      "red": 3882,
      "ásnak": 3883,
      "ara": 3884,
      "ogató": 3885,
      " közz": 3886,
      " akció": 3887,
      " Orosz": 3888,
      " gólt": 3889,
      " font": 3890,
      "issz": 3891,
      " bot": 3892,
      " rang": 3893,
      " megpr": 3894,
      "ova": 3895,
      " hátrány": 3896,
      " katasztróf": 3897,
      "Hozzátette": 3898,
      "écsi": 3899,
      "elése": 3900,
      " löv": 3901,
      " cig": 3902,
      " minim": 3903,
      " mértékben": 3904,
      "szich": 3905,
      "ektől": 3906,
      "-p": 3907,
      " kemény": 3908,
      "íts": 3909,
      "ítik": 3910,
      "edv": 3911,
      " felnőtt": 3912,
      " kezelés": 3913,
      " haza": 3914,
      " Antikvárium": 3915,
      "munk": 3916,
      "üv": 3917,
      " tagjai": 3918,
      "38": 3919,
      " mikor": 3920,
      " szár": 3921,
      " megrend": 3922,
      "bank": 3923,
      " szabadság": 3924,
      " működik": 3925,
      " portál": 3926,
      "ilkosság": 3927,
      " szöveg": 3928,
      "-d": 3929,
      "öp": 3930,
      " tök": 3931,
      " védelm": 3932,
      " felhív": 3933,
      " tiltak": 3934,
      " összefügg": 3935,
      " kapcsán": 3936,
      " sztr": 3937,
      " kisz": 3938,
      "ölgy": 3939,
      "élyes": 3940,
      "köt": 3941,
      " havi": 3942,
      " Mil": 3943,
      " önkormányzati": 3944,
      " emelkedett": 3945,
      " gyógyszer": 3946,
      "ásában": 3947,
      "esztő": 3948,
      " szerda": 3949,
      "fokú": 3950,
      " lőtt": 3951,
      " kommunik": 3952,
      "Köz": 3953,
      " hirdet": 3954,
      " Főváros": 3955,
      "uguszt": 3956,
      " esetleg": 3957,
      " férfiak": 3958,
      " rajta": 3959,
      " asszony": 3960,
      " vörös": 3961,
      " közön": 3962,
      "évén": 3963,
      "ence": 3964,
      " ütköz": 3965,
      " idegen": 3966,
      "krét": 3967,
      "da": 3968,
      "ákban": 3969,
      " feljelent": 3970,
      " eltér": 3971,
      " gyakran": 3972,
      "cz": 3973,
      " benn": 3974,
      " kötet": 3975,
      " előbb": 3976,
      " munkát": 3977,
      "közel": 3978,
      "höz": 3979,
      "adók": 3980,
      "ítására": 3981,
      " hozzát": 3982,
      " együttes": 3983,
      " sérül": 3984,
      "jén": 3985,
      " szövetség": 3986,
      "énnyel": 3987,
      " jelleg": 3988,
      " SZ": 3989,
      " lehetővé": 3990,
      " zavar": 3991,
      "hatóság": 3992,
      " Csaba": 3993,
      " kamat": 3994,
      " gyorsan": 3995,
      "ecsk": 3996,
      " letartóz": 3997,
      " íz": 3998,
      " mindenk": 3999,
      "külön": 4000,
      " megkérd": 4001,
      " projekt": 4002,
      "Cím": 4003,
      "úd": 4004,
      " többen": 4005,
      " országok": 4006,
      "ünet": 4007,
      " eredet": 4008,
      "apcsol": 4009,
      " győzelem": 4010,
      " drág": 4011,
      "zést": 4012,
      " blog": 4013,
      "óth": 4014,
      " javasl": 4015,
      " kifizet": 4016,
      "otó": 4017,
      " érte": 4018,
      "ádi": 4019,
      " előtti": 4020,
      " remek": 4021,
      "hass": 4022,
      " típus": 4023,
      " görög": 4024,
      " olaj": 4025,
      " szinten": 4026,
      " on": 4027,
      " benz": 4028,
      "150": 4029,
      " kedvez": 4030,
      "jú": 4031,
      "tér": 4032,
      " norm": 4033,
      "ars": 4034,
      " kuty": 4035,
      " hajn": 4036,
      "aks": 4037,
      " Ham": 4038,
      "árólag": 4039,
      " deviz": 4040,
      " tők": 4041,
      " temp": 4042,
      " reng": 4043,
      "áján": 4044,
      "000": 4045,
      "nit": 4046,
      " biztosan": 4047,
      " vezérigazgató": 4048,
      " múlva": 4049,
      " őrizetbe": 4050,
      "\"-": 4051,
      " jutt": 4052,
      " júni": 4053,
      " tartják": 4054,
      " kezdett": 4055,
      " védek": 4056,
      " jellemző": 4057,
      " árfolyam": 4058,
      " takar": 4059,
      " rajt": 4060,
      " amíg": 4061,
      " tudjuk": 4062,
      " annyit": 4063,
      " ügyvéd": 4064,
      " szombat": 4065,
      " állítólag": 4066,
      "Leg": 4067,
      "ányi": 4068,
      " vállalat": 4069,
      " lehetőséget": 4070,
      " kategóri": 4071,
      " Meg": 4072,
      " Ir": 4073,
      "196": 4074,
      "lex": 4075,
      " körülbelül": 4076,
      " egymást": 4077,
      " nyilvánosságra": 4078,
      " ideje": 4079,
      " televíz": 4080,
      "döntő": 4081,
      " eszt": 4082,
      "gazd": 4083,
      "ori": 4084,
      " magyarok": 4085,
      " kulturális": 4086,
      "kos": 4087,
      "vizsgál": 4088,
      " Sport": 4089,
      " kapitány": 4090,
      " iránt": 4091,
      " bűncselekmény": 4092,
      " Nap": 4093,
      "aszkod": 4094,
      "tem": 4095,
      " hatékony": 4096,
      " Alkotmány": 4097,
      "ológia": 4098,
      "Címkék": 4099,
      "ényi": 4100,
      "járás": 4101,
      "55": 4102,
      "elyik": 4103,
      " megyében": 4104,
      "mérsék": 4105,
      " büntető": 4106,
      "pad": 4107,
      "uzs": 4108,
      " főleg": 4109,
      " kapu": 4110,
      " körében": 4111,
      "ington": 4112,
      "magas": 4113,
      " végrehajt": 4114,
      "Van": 4115,
      "cel": 4116,
      "jenek": 4117,
      "ue": 4118,
      "ödik": 4119,
      " gyanú": 4120,
      " erőszak": 4121,
      " Imre": 4122,
      "junk": 4123,
      "védő": 4124,
      " ideig": 4125,
      " hány": 4126,
      " svéd": 4127,
      " okozott": 4128,
      " politik": 4129,
      " gyerekek": 4130,
      " szociális": 4131,
      " bék": 4132,
      " Amer": 4133,
      " helyet": 4134,
      " sors": 4135,
      " választás": 4136,
      "űnt": 4137,
      " kölcs": 4138,
      "-E": 4139,
      ".)": 4140,
      "niuk": 4141,
      " Kl": 4142,
      " résztv": 4143,
      "bizton": 4144,
      " Tibor": 4145,
      " ennél": 4146,
      "NP": 4147,
      " fáj": 4148,
      " Föld": 4149,
      " Em": 4150,
      " sérülés": 4151,
      " olimpiai": 4152,
      " kizárólag": 4153,
      " Unió": 4154,
      " mon": 4155,
      " venni": 4156,
      "öntet": 4157,
      "szerint": 4158,
      " szenvedett": 4159,
      " befolyás": 4160,
      " lop": 4161,
      "állás": 4162,
      " kiállítás": 4163,
      "unkat": 4164,
      " Joh": 4165,
      "őbb": 4166,
      "öket": 4167,
      "ókkal": 4168,
      " olcs": 4169,
      " pályán": 4170,
      "Fel": 4171,
      "érm": 4172,
      " nemr": 4173,
      "elly": 4174,
      "ukt": 4175,
      " Go": 4176,
      "való": 4177,
      " járó": 4178,
      " államtitkár": 4179,
      " ruh": 4180,
      "ugál": 4181,
      " látvány": 4182,
      "per": 4183,
      "ébb": 4184,
      " adósság": 4185,
      "ológus": 4186,
      " leveg": 4187,
      " Debrec": 4188,
      "övezet": 4189,
      " világh": 4190,
      "kodás": 4191,
      " Országgyűlés": 4192,
      "árul": 4193,
      " Gr": 4194,
      " indított": 4195,
      " lelk": 4196,
      " munkavállal": 4197,
      "ux": 4198,
      " Mag": 4199,
      "irat": 4200,
      " szerdai": 4201,
      " eurót": 4202,
      "mérséklet": 4203,
      "autó": 4204,
      "széd": 4205,
      "jait": 4206,
      " legfel": 4207,
      " magam": 4208,
      " áram": 4209,
      " futam": 4210,
      " sztráj": 4211,
      "ekből": 4212,
      " ant": 4213,
      "tatiszt": 4214,
      "abda": 4215,
      " frakció": 4216,
      " Bíróság": 4217,
      " Ró": 4218,
      "ációt": 4219,
      "194": 4220,
      " akadály": 4221,
      "koló": 4222,
      "vér": 4223,
      "ala": 4224,
      "alon": 4225,
      " pal": 4226,
      " körüli": 4227,
      " hord": 4228,
      " vb": 4229,
      "írt": 4230,
      " lemond": 4231,
      " elkövetett": 4232,
      " Károly": 4233,
      " ág": 4234,
      "gond": 4235,
      " auguszt": 4236,
      " pót": 4237,
      " keddi": 4238,
      "politikai": 4239,
      " strat": 4240,
      "-ös": 4241,
      " Be": 4242,
      " tartani": 4243,
      " terjed": 4244,
      " centim": 4245,
      " Fővárosi": 4246,
      "elnek": 4247,
      "ésnek": 4248,
      "isztr": 4249,
      " komp": 4250,
      " sziget": 4251,
      "-S": 4252,
      "amp": 4253,
      " index": 4254,
      " ötlet": 4255,
      " kormányzati": 4256,
      " szellem": 4257,
      "ítanak": 4258,
      " emlékeztet": 4259,
      " fenyeget": 4260,
      "nes": 4261,
      "álkoz": 4262,
      " megkezd": 4263,
      " állat": 4264,
      " száml": 4265,
      " továbbá": 4266,
      " lépett": 4267,
      " média": 4268,
      " édes": 4269,
      "Más": 4270,
      "ezése": 4271,
      " ezúttal": 4272,
      " GDP": 4273,
      " tartozik": 4274,
      "Nagyon": 4275,
      " ellentét": 4276,
      "Ily": 4277,
      "óbb": 4278,
      " mérsék": 4279,
      " egyszerűen": 4280,
      "Persze": 4281,
      "űv": 4282,
      " mél": 4283,
      " mester": 4284,
      "ons": 4285,
      "iket": 4286,
      " derül": 4287,
      "ázott": 4288,
      " Horvát": 4289,
      " Hivatal": 4290,
      "aradt": 4291,
      " Győr": 4292,
      " közösségi": 4293,
      "tárak": 4294,
      " Budapesti": 4295,
      "esett": 4296,
      " Ph": 4297,
      " változás": 4298,
      "dik": 4299,
      " met": 4300,
      "erem": 4301,
      " tüntet": 4302,
      "amos": 4303,
      " vezetett": 4304,
      " minél": 4305,
      " médiat": 4306,
      " aszt": 4307,
      " vették": 4308,
      "orosz": 4309,
      " révén": 4310,
      "enti": 4311,
      " Fő": 4312,
      " lehetséges": 4313,
      "ültek": 4314,
      " közelében": 4315,
      " alapvet": 4316,
      "elmiszer": 4317,
      " könnyű": 4318,
      " bemutat": 4319,
      " űr": 4320,
      "400": 4321,
      "ana": 4322,
      " tit": 4323,
      "ésében": 4324,
      " Mc": 4325,
      " évig": 4326,
      " másfél": 4327,
      "onyol": 4328,
      "Ezért": 4329,
      " házas": 4330,
      " kevésbé": 4331,
      " használt": 4332,
      " pozitív": 4333,
      " csod": 4334,
      " nevezte": 4335,
      "39": 4336,
      "nák": 4337,
      " kop": 4338,
      " boldog": 4339,
      " egyben": 4340,
      " tartozó": 4341,
      " hatály": 4342,
      " látszik": 4343,
      " másodperc": 4344,
      " működő": 4345,
      " kötelezett": 4346,
      " kr": 4347,
      "oznak": 4348,
      " Par": 4349,
      " percben": 4350,
      " Nemzetközi": 4351,
      " eljárást": 4352,
      " kollég": 4353,
      " repülőt": 4354,
      "fogy": 4355,
      "alan": 4356,
      "árk": 4357,
      "okba": 4358,
      "amb": 4359,
      "entr": 4360,
      " amelyeket": 4361,
      "ódi": 4362,
      " szerepet": 4363,
      " módosítás": 4364,
      " körülmények": 4365,
      " kérte": 4366,
      " ellenzéki": 4367,
      "ein": 4368,
      "fg": 4369,
      " elind": 4370,
      "edzs": 4371,
      " ellenfel": 4372,
      " akkori": 4373,
      " hozzáj": 4374,
      " komment": 4375,
      "iber": 4376,
      " At": 4377,
      " Il": 4378,
      " százalékot": 4379,
      " konkrét": 4380,
      "TE": 4381,
      " bar": 4382,
      "ita": 4383,
      "raeli": 4384,
      " számolt": 4385,
      " versenyző": 4386,
      " adatai": 4387,
      "-bajnok": 4388,
      "75": 4389,
      "lók": 4390,
      "őző": 4391,
      " kerület": 4392,
      " megfi": 4393,
      "iget": 4394,
      "azin": 4395,
      "chester": 4396,
      " hozta": 4397,
      " sokszor": 4398,
      " nyílt": 4399,
      "alog": 4400,
      " vir": 4401,
      " ló": 4402,
      " japán": 4403,
      " ritk": 4404,
      "kező": 4405,
      " ingy": 4406,
      "DNP": 4407,
      "eci": 4408,
      "iak": 4409,
      " összeh": 4410,
      "ook": 4411,
      "rd": 4412,
      "aránt": 4413,
      " egyeztet": 4414,
      " csillag": 4415,
      " Kar": 4416,
      " oka": 4417,
      " regény": 4418,
      "polgármester": 4419,
      " kab": 4420,
      " szent": 4421,
      "álás": 4422,
      "akad": 4423,
      " júli": 4424,
      " hajland": 4425,
      " nyerte": 4426,
      " oly": 4427,
      "ovics": 4428,
      " napja": 4429,
      " szerepelt": 4430,
      " lakó": 4431,
      " alkalmas": 4432,
      " területén": 4433,
      " korrup": 4434,
      "kett": 4435,
      " Ob": 4436,
      " labdarúgó": 4437,
      " harminc": 4438,
      " önmag": 4439,
      " munkanélkül": 4440,
      "piac": 4441,
      "ezést": 4442,
      " Ed": 4443,
      " teremt": 4444,
      "atlanul": 4445,
      " alakult": 4446,
      " oldalon": 4447,
      " apr": 4448,
      "ulék": 4449,
      " Kis": 4450,
      " valós": 4451,
      " napilap": 4452,
      " támadás": 4453,
      " mutatja": 4454,
      "44": 4455,
      "ettem": 4456,
      "ogle": 4457,
      " Kovács": 4458,
      " évente": 4459,
      " Var": 4460,
      "icc": 4461,
      "tatni": 4462,
      " pontot": 4463,
      "lehet": 4464,
      "ozzák": 4465,
      " rögz": 4466,
      " szomszéd": 4467,
      "ren": 4468,
      "órum": 4469,
      " nappal": 4470,
      " belőle": 4471,
      "ésekkel": 4472,
      " keret": 4473,
      "ihar": 4474,
      " Balázs": 4475,
      "ásba": 4476,
      "ukor": 4477,
      "ofőr": 4478,
      " öröm": 4479,
      "Gazdaság": 4480,
      "MF": 4481,
      "kó": 4482,
      "nénk": 4483,
      " egyaránt": 4484,
      "ukció": 4485,
      " helyszínen": 4486,
      " semmit": 4487,
      " hivatkozva": 4488,
      "ain": 4489,
      "csökkent": 4490,
      " számol": 4491,
      " történő": 4492,
      " kiváló": 4493,
      " közlekedési": 4494,
      " szakértők": 4495,
      " fegyver": 4496,
      "Vég": 4497,
      "fal": 4498,
      "járt": 4499,
      "Én": 4500,
      " km": 4501,
      " tavasz": 4502,
      " következt": 4503,
      " dollárt": 4504,
      " hallgat": 4505,
      " gyanúsított": 4506,
      "ashington": 4507,
      "bor": 4508,
      " Bl": 4509,
      "hatjuk": 4510,
      " nélküli": 4511,
      " reklám": 4512,
      " külső": 4513,
      " probléma": 4514,
      " tevékenység": 4515,
      "hal": 4516,
      "atai": 4517,
      "udomány": 4518,
      "ábl": 4519,
      " pártok": 4520,
      " kiderül": 4521,
      " gazdag": 4522,
      "uth": 4523,
      " Duna": 4524,
      " élelmiszer": 4525,
      " hozzátette": 4526,
      " képviselők": 4527,
      "42": 4528,
      "Vagy": 4529,
      " hom": 4530,
      " nekem": 4531,
      " elemző": 4532,
      " Szabó": 4533,
      " meglepet": 4534,
      "encia": 4535,
      "adja": 4536,
      " Szövetség": 4537,
      " kerék": 4538,
      " hangulat": 4539,
      " kapta": 4540,
      " kaptak": 4541,
      " átlagos": 4542,
      "Szerinte": 4543,
      "leked": 4544,
      "ami": 4545,
      "örny": 4546,
      "ságát": 4547,
      " nagyjából": 4548,
      " fognak": 4549,
      " szakemberek": 4550,
      " energia": 4551,
      " pénteki": 4552,
      "erd": 4553,
      "ítést": 4554,
      "omp": 4555,
      "észek": 4556,
      " Ab": 4557,
      "irály": 4558,
      "iszony": 4559,
      " százalékra": 4560,
      "szerűen": 4561,
      " autós": 4562,
      "keresked": 4563,
      "lány": 4564,
      " Kat": 4565,
      " Alap": 4566,
      "üggeszt": 4567,
      " Int": 4568,
      " kereskedelmi": 4569,
      "48": 4570,
      "part": 4571,
      " pszich": 4572,
      " döntet": 4573,
      "ukrán": 4574,
      "iros": 4575,
      " idej": 4576,
      " hagyomány": 4577,
      " frank": 4578,
      " közleményében": 4579,
      "énél": 4580,
      "állt": 4581,
      "eiben": 4582,
      "vezetője": 4583,
      "ektor": 4584,
      " időszakban": 4585,
      "46": 4586,
      "lett": 4587,
      " fesz": 4588,
      " állítja": 4589,
      " Tisz": 4590,
      " Szeged": 4591,
      " tervek": 4592,
      " bajnoki": 4593,
      " vezette": 4594,
      " Google": 4595,
      "rad": 4596,
      "őre": 4597,
      "éséhez": 4598,
      "ária": 4599,
      " eleg": 4600,
      "éket": 4601,
      " veszteség": 4602,
      " cseh": 4603,
      " felm": 4604,
      " csütörtöki": 4605,
      " ajándék": 4606,
      " szerződést": 4607,
      " köv": 4608,
      "nyt": 4609,
      " tartomány": 4610,
      "ötét": 4611,
      " vidék": 4612,
      "ezhető": 4613,
      "ellenes": 4614,
      " állandó": 4615,
      " rendező": 4616,
      "ábban": 4617,
      " hétfői": 4618,
      " vall": 4619,
      " Angel": 4620,
      " sikerül": 4621,
      " szélső": 4622,
      "milliárd": 4623,
      "csapat": 4624,
      "Ugyanakkor": 4625,
      "Orbán": 4626,
      " óriási": 4627,
      " következtében": 4628,
      "fa": 4629,
      " husz": 4630,
      " szűk": 4631,
      "oks": 4632,
      " Port": 4633,
      " Dr": 4634,
      " változat": 4635,
      "ipari": 4636,
      " akarja": 4637,
      " levél": 4638,
      " áldozat": 4639,
      " esti": 4640,
      " Kriszt": 4641,
      "elést": 4642,
      " légi": 4643,
      " megjegy": 4644,
      " En": 4645,
      " Dél": 4646,
      " kétharmad": 4647,
      "ugr": 4648,
      " pályára": 4649,
      "-európai": 4650,
      "irtok": 4651,
      " mindegy": 4652,
      " Rich": 4653,
      "ásokkal": 4654,
      "orvég": 4655,
      "igazgatás": 4656,
      " izg": 4657,
      " kórházba": 4658,
      " kiemelt": 4659,
      "uni": 4660,
      "vai": 4661,
      " magukat": 4662,
      " hatalom": 4663,
      "ley": 4664,
      " stíl": 4665,
      "aceb": 4666,
      " üzleti": 4667,
      " Real": 4668,
      " főt": 4669,
      "Ilyen": 4670,
      "Tovább": 4671,
      " káros": 4672,
      " fekete": 4673,
      "csal": 4674,
      " rejt": 4675,
      " Mal": 4676,
      " Mih": 4677,
      "erületi": 4678,
      " műszaki": 4679,
      "program": 4680,
      "terj": 4681,
      " Nyug": 4682,
      " május": 4683,
      "verseny": 4684,
      "atra": 4685,
      " szerb": 4686,
      " jelöl": 4687,
      " ügyfel": 4688,
      "essége": 4689,
      " nyugati": 4690,
      " megkap": 4691,
      " magánnyugdíj": 4692,
      " kedvező": 4693,
      "lev": 4694,
      "ozási": 4695,
      " mire": 4696,
      " szakszervezet": 4697,
      " ügyében": 4698,
      " dolgozott": 4699,
      " központi": 4700,
      " egyértelműen": 4701,
      " árt": 4702,
      "ech": 4703,
      "ésen": 4704,
      " beny": 4705,
      " leb": 4706,
      " ügyészség": 4707,
      "-tól": 4708,
      " elvég": 4709,
      " átt": 4710,
      " Madrid": 4711,
      ".H": 4712,
      "49": 4713,
      "Kor": 4714,
      "iatt": 4715,
      "rist": 4716,
      " megem": 4717,
      " szerepl": 4718,
      " mentő": 4719,
      "Igaz": 4720,
      " bőr": 4721,
      " többsége": 4722,
      "rium": 4723,
      " véletlen": 4724,
      " kölcsön": 4725,
      "ket": 4726,
      " érdekes": 4727,
      " anyagi": 4728,
      " szóvivő": 4729,
      " említett": 4730,
      "pénztári": 4731,
      "41": 4732,
      " vettek": 4733,
      " rag": 4734,
      " hasonl": 4735,
      " autót": 4736,
      " növekedés": 4737,
      " Minisztérium": 4738,
      "eai": 4739,
      " messz": 4740,
      "onban": 4741,
      " puszt": 4742,
      "szerk": 4743,
      " számában": 4744,
      " szeretnék": 4745,
      " elkerül": 4746,
      " Alkotmánybíróság": 4747,
      "56": 4748,
      "zás": 4749,
      "etű": 4750,
      " menek": 4751,
      " tőle": 4752,
      " Gazdaság": 4753,
      " majdnem": 4754,
      " fizetni": 4755,
      " repülő": 4756,
      " lassan": 4757,
      " legutóbbi": 4758,
      "-P": 4759,
      "hetünk": 4760,
      " folytatás": 4761,
      " szövetségi": 4762,
      " sújt": 4763,
      " részén": 4764,
      " indítvány": 4765,
      "-kormány": 4766,
      " szempontból": 4767,
      "aik": 4768,
      " ist": 4769,
      " ötven": 4770,
      "urkol": 4771,
      "irány": 4772,
      "ítások": 4773,
      "opp": 4774,
      " vezetői": 4775,
      " elektron": 4776,
      "razil": 4777,
      " hőmérséklet": 4778,
      "elég": 4779,
      "áshoz": 4780,
      " évet": 4781,
      "iszap": 4782,
      " valamennyi": 4783,
      " betegség": 4784,
      " fellép": 4785,
      " tájékoztatása": 4786,
      "-en": 4787,
      "fut": 4788,
      " havaz": 4789,
      "egnap": 4790,
      "esed": 4791,
      " lista": 4792,
      "ettől": 4793,
      "ciók": 4794,
      " emiatt": 4795,
      " okozta": 4796,
      " ötödik": 4797,
      " személyes": 4798,
      " véli": 4799,
      " könnyen": 4800,
      " Francia": 4801,
      "szolgáltatás": 4802,
      " számítógép": 4803,
      " letartóztatás": 4804,
      " mot": 4805,
      " kol": 4806,
      "ítését": 4807,
      "szerte": 4808,
      "eszpr": 4809,
      " Dav": 4810,
      "ezetten": 4811,
      " befej": 4812,
      " alkalmazott": 4813,
      " felfed": 4814,
      "vélemény": 4815,
      " Fehér": 4816,
      " kapus": 4817,
      " hajlandó": 4818,
      " +": 4819,
      "ezs": 4820,
      " zsid": 4821,
      "ger": 4822,
      " alelnök": 4823,
      "term": 4824,
      " ősz": 4825,
      " védő": 4826,
      " legyőz": 4827,
      " figyelmeztet": 4828,
      "ferenci": 4829,
      "-helyett": 4830,
      "65": 4831,
      "Rá": 4832,
      "intéz": 4833,
      "ősen": 4834,
      " II": 4835,
      "fogás": 4836,
      " holland": 4837,
      " eg": 4838,
      "aw": 4839,
      " kelt": 4840,
      " tőzs": 4841,
      " leh": 4842,
      " PL": 4843,
      " Di": 4844,
      " tartanak": 4845,
      " eső": 4846,
      " külföld": 4847,
      " mellé": 4848,
      " hagyományos": 4849,
      " honlapján": 4850,
      "nár": 4851,
      "rem": 4852,
      " kocs": 4853,
      " hálóz": 4854,
      "ikában": 4855,
      " győztes": 4856,
      "ügyminisztérium": 4857,
      " énekes": 4858,
      " rengeteg": 4859,
      "TP": 4860,
      "lob": 4861,
      " statiszt": 4862,
      " számú": 4863,
      " katonai": 4864,
      " gyakorlatilag": 4865,
      " robban": 4866,
      " botrány": 4867,
      " SZDSZ": 4868,
      " felúj": 4869,
      "cion": 4870,
      "írás": 4871,
      " beszélget": 4872,
      " egymilli": 4873,
      " rendelkező": 4874,
      "dor": 4875,
      "választ": 4876,
      "zió": 4877,
      " mutató": 4878,
      "adott": 4879,
      "aival": 4880,
      "esti": 4881,
      " tudományos": 4882,
      "onyi": 4883,
      " hiába": 4884,
      " autópály": 4885,
      " játszik": 4886,
      "-díj": 4887,
      "jével": 4888,
      "értek": 4889,
      " csapata": 4890,
      " Szabolcs": 4891,
      " hamarosan": 4892,
      "áit": 4893,
      "eksz": 4894,
      " Barcel": 4895,
      " nyáron": 4896,
      " mondott": 4897,
      " dolgozik": 4898,
      " töltött": 4899,
      " izraeli": 4900,
      " Ü": 4901,
      "ukra": 4902,
      " fogják": 4903,
      "ásait": 4904,
      "könyv": 4905,
      " látogat": 4906,
      " kerültek": 4907,
      " szigorú": 4908,
      " szocialisták": 4909,
      "Ebben": 4910,
      " benzin": 4911,
      ".com": 4912,
      "ráz": 4913,
      "újabb": 4914,
      "ezők": 4915,
      " bíró": 4916,
      "ivál": 4917,
      " De": 4918,
      "ebek": 4919,
      " kerületi": 4920,
      " együttműködés": 4921,
      " Forma": 4922,
      "Tav": 4923,
      "ke": 4924,
      "olvas": 4925,
      "egatív": 4926,
      "ikát": 4927,
      "beszer": 4928,
      " neve": 4929,
      " észre": 4930,
      " felelősség": 4931,
      " rekord": 4932,
      ".rész": 4933,
      "fehér": 4934,
      "üsz": 4935,
      " megint": 4936,
      " ugyanaz": 4937,
      " főszerep": 4938,
      "gyűjt": 4939,
      "ris": 4940,
      "zák": 4941,
      " mos": 4942,
      "rav": 4943,
      " Am": 4944,
      " adni": 4945,
      " mennyire": 4946,
      " üzemeltet": 4947,
      " online": 4948,
      " voks": 4949,
      "arag": 4950,
      " PK": 4951,
      " City": 4952,
      " Unit": 4953,
      " energi": 4954,
      " plusz": 4955,
      "47": 4956,
      "pl": 4957,
      "óm": 4958,
      "etben": 4959,
      "akban": 4960,
      " sofőr": 4961,
      "edes": 4962,
      "sztön": 4963,
      "uli": 4964,
      "raf": 4965,
      "ásokra": 4966,
      " nyomán": 4967,
      "-két": 4968,
      " klassz": 4969,
      "Akkor": 4970,
      " közepén": 4971,
      " Ste": 4972,
      " előfordul": 4973,
      " utáni": 4974,
      "allgatás": 4975,
      " helyzetben": 4976,
      "ődött": 4977,
      " hajnal": 4978,
      "méter": 4979,
      "ss": 4980,
      "ena": 4981,
      "enő": 4982,
      " táp": 4983,
      " sztár": 4984,
      " gum": 4985,
      " kora": 4986,
      " terror": 4987,
      " körülmény": 4988,
      " szabályozás": 4989,
      " támogatást": 4990,
      "városi": 4991,
      "váltás": 4992,
      " felfüggeszt": 4993,
      "--": 4994,
      "car": 4995,
      "lok": 4996,
      " birtok": 4997,
      " Bud": 4998,
      " kezdte": 4999,
      " bizonytalan": 5000,
      " érkező": 5001,
      " aktív": 5002,
      "lép": 5003,
      " kulcs": 5004,
      " szegény": 5005,
      "intézet": 5006,
      " Gu": 5007,
      "ertőz": 5008,
      " Car": 5009,
      " végéig": 5010,
      "járól": 5011,
      "uper": 5012,
      "ítettek": 5013,
      " érdeklőd": 5014,
      " fölött": 5015,
      " kezdődött": 5016,
      " származó": 5017,
      "eszprém": 5018,
      "üssz": 5019,
      " kocsi": 5020,
      "atni": 5021,
      " jót": 5022,
      " megegy": 5023,
      " megalap": 5024,
      "állom": 5025,
      " befizet": 5026,
      "250": 5027,
      "TO": 5028,
      "ky": 5029,
      "ros": 5030,
      "seg": 5031,
      "elési": 5032,
      " negatív": 5033,
      "amerikai": 5034,
      " Bors": 5035,
      " TV": 5036,
      " összet": 5037,
      " valóság": 5038,
      " törvényt": 5039,
      " kilát": 5040,
      " speci": 5041,
      "büntet": 5042,
      "don": 5043,
      " állította": 5044,
      "ugár": 5045,
      "házi": 5046,
      "fjú": 5047,
      " mar": 5048,
      "ilván": 5049,
      " rám": 5050,
      "atórium": 5051,
      " látja": 5052,
      "off": 5053,
      "esterházy": 5054,
      " területen": 5055,
      " januárban": 5056,
      " alacsonyabb": 5057,
      "-D": 5058,
      "Id": 5059,
      " káb": 5060,
      "olikus": 5061,
      "illa": 5062,
      " belvíz": 5063,
      " író": 5064,
      " szeretne": 5065,
      " karácsonyi": 5066,
      "ti": 5067,
      "anci": 5068,
      " éven": 5069,
      " Hal": 5070,
      "ica": 5071,
      "ítésére": 5072,
      " kérdésre": 5073,
      " gyakorl": 5074,
      "szolgál": 5075,
      " értelmében": 5076,
      "éséről": 5077,
      "ekhez": 5078,
      "akon": 5079,
      " Sim": 5080,
      "vei": 5081,
      " időpont": 5082,
      " létszám": 5083,
      " azoknak": 5084,
      " ítélet": 5085,
      " sebesség": 5086,
      " hétvégén": 5087,
      "üm": 5088,
      "ítók": 5089,
      "adni": 5090,
      " jelezte": 5091,
      " kellem": 5092,
      "helyi": 5093,
      " autom": 5094,
      " bejelentette": 5095,
      " közönség": 5096,
      "pel": 5097,
      "ajnai": 5098,
      " különleges": 5099,
      " tűnt": 5100,
      " fordult": 5101,
      " álláspont": 5102,
      " enyh": 5103,
      " viz": 5104,
      "ary": 5105,
      "api": 5106,
      " közeli": 5107,
      " kiadás": 5108,
      " adóz": 5109,
      "elmes": 5110,
      " hírek": 5111,
      " örül": 5112,
      " fokozat": 5113,
      " művész": 5114,
      "eredmény": 5115,
      "43": 5116,
      "Hét": 5117,
      "Kül": 5118,
      " megtart": 5119,
      "edék": 5120,
      " tudták": 5121,
      "opron": 5122,
      " dolláros": 5123,
      " velük": 5124,
      " legfeljebb": 5125,
      "NB": 5126,
      "inél": 5127,
      " páros": 5128,
      " MÁ": 5129,
      " Mart": 5130,
      " kapnak": 5131,
      " viselked": 5132,
      "kodik": 5133,
      " déli": 5134,
      " hónapban": 5135,
      " John": 5136,
      "gyárt": 5137,
      " hegy": 5138,
      " tábor": 5139,
      "olaj": 5140,
      " megsér": 5141,
      "éseit": 5142,
      " véget": 5143,
      " válik": 5144,
      " összek": 5145,
      " utána": 5146,
      " fiú": 5147,
      "ritan": 5148,
      " hamis": 5149,
      "pari": 5150,
      "ozg": 5151,
      "asi": 5152,
      "őkép": 5153,
      " szeretné": 5154,
      " önként": 5155,
      " demokráci": 5156,
      "jében": 5157,
      " lef": 5158,
      " Bor": 5159,
      " legújabb": 5160,
      " készít": 5161,
      " negyven": 5162,
      " keresztény": 5163,
      " semmilyen": 5164,
      "ellyel": 5165,
      "bban": 5166,
      "éti": 5167,
      " megtakar": 5168,
      " követő": 5169,
      " történik": 5170,
      " akiknek": 5171,
      " régió": 5172,
      "ze": 5173,
      " horvát": 5174,
      " szánt": 5175,
      " derült": 5176,
      " Merc": 5177,
      " Gerg": 5178,
      " NA": 5179,
      " működtet": 5180,
      " északi": 5181,
      " különbség": 5182,
      " elérhető": 5183,
      " pozíció": 5184,
      " dísz": 5185,
      " médiatörvény": 5186,
      " Mihály": 5187,
      "mán": 5188,
      " lek": 5189,
      " vádlott": 5190,
      "kocsi": 5191,
      "ans": 5192,
      "alkot": 5193,
      " szén": 5194,
      "ozs": 5195,
      "irod": 5196,
      " mások": 5197,
      " államfő": 5198,
      " rajong": 5199,
      "szky": 5200,
      " együttműköd": 5201,
      "po": 5202,
      "xim": 5203,
      "evők": 5204,
      " Fel": 5205,
      " visszaes": 5206,
      " visszaél": 5207,
      "esszor": 5208,
      "nunk": 5209,
      " bázis": 5210,
      " sim": 5211,
      "hetjük": 5212,
      " végére": 5213,
      "főbb": 5214,
      "teremt": 5215,
      "Aztán": 5216,
      " elérni": 5217,
      " megpróbál": 5218,
      " nemrég": 5219,
      "Ed": 5220,
      "Vas": 5221,
      "eink": 5222,
      "növ": 5223,
      "atart": 5224,
      " sajnos": 5225,
      "ajon": 5226,
      " BBC": 5227,
      " állnak": 5228,
      " Fej": 5229,
      " Hung": 5230,
      " Iz": 5231,
      " OTP": 5232,
      " üv": 5233,
      " alatti": 5234,
      " kivétel": 5235,
      " abból": 5236,
      " vasárnapi": 5237,
      " kifejezetten": 5238,
      " háttér": 5239,
      " Intézet": 5240,
      " Q": 5241,
      " étel": 5242,
      " fele": 5243,
      " aminek": 5244,
      " Ap": 5245,
      "olyg": 5246,
      " kettős": 5247,
      "örténet": 5248,
      " rendkívüli": 5249,
      " figyelembe": 5250,
      " cigány": 5251,
      " sztrájk": 5252,
      "120": 5253,
      "Ma": 5254,
      "fin": 5255,
      "alán": 5256,
      " megfog": 5257,
      " esetleges": 5258,
      " közösen": 5259,
      " autók": 5260,
      " partner": 5261,
      " kijelentette": 5262,
      " döntetlen": 5263,
      "pót": 5264,
      "öb": 5265,
      "szol": 5266,
      "elep": 5267,
      " nagykövet": 5268,
      " annál": 5269,
      " látsz": 5270,
      " bizonyíték": 5271,
      "bizottság": 5272,
      " alkoh": 5273,
      " közzét": 5274,
      "Tavaly": 5275,
      " United": 5276,
      " ko": 5277,
      " hús": 5278,
      "almát": 5279,
      " valójában": 5280,
      " köztársaság": 5281,
      "Ráadásul": 5282,
      "ho": 5283,
      " agr": 5284,
      "agóg": 5285,
      "ellen": 5286,
      " rendelet": 5287,
      " valah": 5288,
      " átv": 5289,
      " körzet": 5290,
      "Erre": 5291,
      " ét": 5292,
      "ht": 5293,
      "iki": 5294,
      " legmagas": 5295,
      " Szlovák": 5296,
      "ávid": 5297,
      " járulék": 5298,
      " nyilatkozott": 5299,
      " széles": 5300,
      " ural": 5301,
      " előkész": 5302,
      " Oroszország": 5303,
      "-C": 5304,
      "-et": 5305,
      ".V": 5306,
      "Aki": 5307,
      "Jelen": 5308,
      "besz": 5309,
      "reng": 5310,
      " fagy": 5311,
      "oztak": 5312,
      " sáv": 5313,
      " kiáll": 5314,
      " Faceb": 5315,
      " mellék": 5316,
      " politika": 5317,
      " mérleg": 5318,
      "ublik": 5319,
      " fiatalok": 5320,
      " rosszul": 5321,
      " közvetlen": 5322,
      " szempontjából": 5323,
      " háború": 5324,
      "ozták": 5325,
      " Ben": 5326,
      " előadás": 5327,
      " Eur": 5328,
      "asztó": 5329,
      " ismerős": 5330,
      " maxim": 5331,
      " megoldás": 5332,
      " Times": 5333,
      "'s": 5334,
      "Né": 5335,
      "csomag": 5336,
      "ítési": 5337,
      " megnyit": 5338,
      " csúsz": 5339,
      " Mark": 5340,
      " Tóth": 5341,
      "ivár": 5342,
      "Ezen": 5343,
      " intézet": 5344,
      " valamit": 5345,
      " négyzet": 5346,
      " házi": 5347,
      " meghalt": 5348,
      " melyek": 5349,
      " MÁV": 5350,
      "her": 5351,
      " ve": 5352,
      " sötét": 5353,
      "ságon": 5354,
      " voltam": 5355,
      " Igaz": 5356,
      " foglalkozó": 5357,
      " Andre": 5358,
      " vita": 5359,
      " előrejel": 5360,
      "pedig": 5361,
      "ya": 5362,
      " kur": 5363,
      "árok": 5364,
      " elől": 5365,
      " por": 5366,
      "ovic": 5367,
      " előz": 5368,
      " embereket": 5369,
      "oszl": 5370,
      " érdeklődés": 5371,
      " rendszert": 5372,
      " városi": 5373,
      " megtud": 5374,
      " települ": 5375,
      " apró": 5376,
      "-F": 5377,
      " tegnap": 5378,
      " vágy": 5379,
      "eknél": 5380,
      " gyű": 5381,
      " későbbi": 5382,
      " szívesen": 5383,
      " június": 5384,
      "onz": 5385,
      " faj": 5386,
      "áty": 5387,
      "udi": 5388,
      "ová": 5389,
      " összeget": 5390,
      " pálya": 5391,
      " viszonylag": 5392,
      " forrad": 5393,
      "rajz": 5394,
      "gent": 5395,
      "orna": 5396,
      " rák": 5397,
      " Mi": 5398,
      "ella": 5399,
      "rier": 5400,
      " Gyula": 5401,
      " olvasó": 5402,
      "ermészet": 5403,
      " Észak": 5404,
      " amelyen": 5405,
      "isztán": 5406,
      " elvesz": 5407,
      "anadai": 5408,
      "Három": 5409,
      "rád": 5410,
      "akkal": 5411,
      "ezve": 5412,
      "ákon": 5413,
      " élmény": 5414,
      " ugyancsak": 5415,
      "elemben": 5416,
      " órakor": 5417,
      " kiterj": 5418,
      " miként": 5419,
      " interjú": 5420,
      "iberális": 5421,
      " legmagasabb": 5422,
      ".F": 5423,
      "jába": 5424,
      "esnek": 5425,
      "októl": 5426,
      " megúj": 5427,
      " Ak": 5428,
      "ivális": 5429,
      " egymással": 5430,
      " Nyom": 5431,
      " Balaton": 5432,
      "hív": 5433,
      "vagy": 5434,
      " Har": 5435,
      " támadó": 5436,
      " ipar": 5437,
      " mennyi": 5438,
      " rendelkezik": 5439,
      "biztosítás": 5440,
      "Ami": 5441,
      "ph": 5442,
      "izt": 5443,
      " Pa": 5444,
      " miszerint": 5445,
      " mondani": 5446,
      "kodott": 5447,
      " Ár": 5448,
      " segítséget": 5449,
      " halálos": 5450,
      " verzió": 5451,
      " irodalom": 5452,
      " szerkezet": 5453,
      " lezár": 5454,
      " Manchester": 5455,
      " '": 5456,
      "bér": 5457,
      " mad": 5458,
      " múzeum": 5459,
      "ins": 5460,
      "ázni": 5461,
      " Som": 5462,
      "kezelő": 5463,
      "eresked": 5464,
      " ösztön": 5465,
      " belép": 5466,
      "ipar": 5467,
      " menedzs": 5468,
      "-Britan": 5469,
      " gener": 5470,
      "helyzet": 5471,
      " nyomozás": 5472,
      " határozott": 5473,
      "FK": 5474,
      "cél": 5475,
      "ésű": 5476,
      "olnak": 5477,
      " Bél": 5478,
      "iver": 5479,
      " részvétel": 5480,
      " konf": 5481,
      "exik": 5482,
      " képviselője": 5483,
      "bevétel": 5484,
      " ily": 5485,
      " azután": 5486,
      "ásról": 5487,
      " bi": 5488,
      " megért": 5489,
      "ulni": 5490,
      " felszám": 5491,
      "udvar": 5492,
      " tudtak": 5493,
      " rendszeresen": 5494,
      " berend": 5495,
      " web": 5496,
      "ismert": 5497,
      " stílus": 5498,
      "ác": 5499,
      " szoft": 5500,
      " ponttal": 5501,
      "esztivál": 5502,
      " látott": 5503,
      " csapatok": 5504,
      " találták": 5505,
      " veszélyeztet": 5506,
      "fajta": 5507,
      "jet": 5508,
      "ura": 5509,
      "ekszik": 5510,
      " elutas": 5511,
      " legr": 5512,
      "ektív": 5513,
      " főpolgármester": 5514,
      " szólt": 5515,
      " nincsenek": 5516,
      " közösség": 5517,
      " közleményben": 5518,
      " Európában": 5519,
      " iskola": 5520,
      "hessen": 5521,
      "vert": 5522,
      "elve": 5523,
      " tük": 5524,
      " trag": 5525,
      " elhely": 5526,
      "ázó": 5527,
      " valamilyen": 5528,
      " koncert": 5529,
      " merény": 5530,
      " nehezen": 5531,
      "gáz": 5532,
      "iós": 5533,
      "mit": 5534,
      "ous": 5535,
      "szki": 5536,
      "aték": 5537,
      "ezési": 5538,
      " rivális": 5539,
      " Moszk": 5540,
      "ille": 5541,
      " következmény": 5542,
      " eredmények": 5543,
      " mutatott": 5544,
      " eszközök": 5545,
      " Michael": 5546,
      "ecskem": 5547,
      "jék": 5548,
      "jött": 5549,
      "kl": 5550,
      "zat": 5551,
      "építés": 5552,
      " Kap": 5553,
      " AP": 5554,
      "avéd": 5555,
      " La": 5556,
      " valódi": 5557,
      "ombat": 5558,
      " segély": 5559,
      " városban": 5560,
      " fővárosban": 5561,
      " formában": 5562,
      " Obama": 5563,
      " ukrán": 5564,
      "57": 5565,
      "szav": 5566,
      "osi": 5567,
      "endszer": 5568,
      " ezután": 5569,
      " He": 5570,
      " mégsem": 5571,
      " várja": 5572,
      " személyi": 5573,
      " erősen": 5574,
      " helyzetet": 5575,
      " képviselői": 5576,
      " július": 5577,
      " benyújt": 5578,
      "dély": 5579,
      " szil": 5580,
      "őkkel": 5581,
      " hitt": 5582,
      "szerűbb": 5583,
      " megye": 5584,
      " győzelm": 5585,
      "ucat": 5586,
      " nyújtott": 5587,
      " Debrecen": 5588,
      "igazgatási": 5589,
      "sereg": 5590,
      "tön": 5591,
      "áf": 5592,
      "áng": 5593,
      " Bay": 5594,
      " gyilkosság": 5595,
      " adót": 5596,
      " várakoz": 5597,
      " tagállam": 5598,
      " Ág": 5599,
      " hivatalosan": 5600,
      " Államokban": 5601,
      " mezőny": 5602,
      "Mert": 5603,
      "rog": 5604,
      "vg": 5605,
      "ené": 5606,
      "ulnak": 5607,
      " legfőbb": 5608,
      " előír": 5609,
      " látni": 5610,
      " veszi": 5611,
      " érintő": 5612,
      " záró": 5613,
      "Ered": 5614,
      " újságír": 5615,
      "emben": 5616,
      " fórum": 5617,
      "aján": 5618,
      " kiegész": 5619,
      " beszer": 5620,
      "ico": 5621,
      "upl": 5622,
      " fogadta": 5623,
      " finom": 5624,
      "ret": 5625,
      " utat": 5626,
      " idény": 5627,
      " adtak": 5628,
      " magazin": 5629,
      " kivitel": 5630,
      " melyik": 5631,
      " tájékoztatta": 5632,
      " koncep": 5633,
      " nálunk": 5634,
      " felszól": 5635,
      "85": 5636,
      "pe": 5637,
      " roh": 5638,
      "ellát": 5639,
      " fejlődés": 5640,
      " halad": 5641,
      " hírügynökség": 5642,
      " piacon": 5643,
      "eztem": 5644,
      " esélye": 5645,
      "ilkos": 5646,
      " újságíró": 5647,
      "mann": 5648,
      "sh": 5649,
      " mand": 5650,
      "erny": 5651,
      " tél": 5652,
      "éria": 5653,
      "okhoz": 5654,
      " Múzeum": 5655,
      " nyereség": 5656,
      " FC": 5657,
      " mindenn": 5658,
      "asszal": 5659,
      "ronz": 5660,
      " decemberben": 5661,
      " nyitott": 5662,
      " szerkeszt": 5663,
      " od": 5664,
      "-T": 5665,
      "olva": 5666,
      " lenn": 5667,
      " brazil": 5668,
      " közvélemény": 5669,
      " felb": 5670,
      "ésekre": 5671,
      " ponton": 5672,
      " tárca": 5673,
      " ilyenkor": 5674,
      "51": 5675,
      "kocs": 5676,
      " sír": 5677,
      " EN": 5678,
      " adja": 5679,
      " Jos": 5680,
      "ezettek": 5681,
      " hiba": 5682,
      " nekünk": 5683,
      "-koreai": 5684,
      " oper": 5685,
      " Varga": 5686,
      "aut": 5687,
      "lása": 5688,
      "íni": 5689,
      "önk": 5690,
      "ésőbb": 5691,
      "egyűjt": 5692,
      "attint": 5693,
      "ükben": 5694,
      " üd": 5695,
      " tanácsadó": 5696,
      "%-": 5697,
      "-elnök": 5698,
      "Oly": 5699,
      "Ám": 5700,
      "alép": 5701,
      " nőt": 5702,
      "ezd": 5703,
      " rádió": 5704,
      "azon": 5705,
      " alsó": 5706,
      "ever": 5707,
      " Red": 5708,
      " tartós": 5709,
      " filmet": 5710,
      " oldalán": 5711,
      " problémák": 5712,
      " feldolg": 5713,
      "In": 5714,
      " ausztrál": 5715,
      " futó": 5716,
      "iga": 5717,
      " amennyiben": 5718,
      " cikl": 5719,
      "háztart": 5720,
      " elnökség": 5721,
      " sikert": 5722,
      " akarta": 5723,
      " immár": 5724,
      " megnyer": 5725,
      " et": 5726,
      "Pedig": 5727,
      " Pécs": 5728,
      " legend": 5729,
      " Te": 5730,
      " számítani": 5731,
      " Vol": 5732,
      " képesek": 5733,
      "ekedett": 5734,
      "sorozat": 5735,
      "Mindez": 5736,
      " szervezetek": 5737,
      " kettő": 5738,
      " érvényes": 5739,
      " panasz": 5740,
      " augusztus": 5741,
      "SC": 5742,
      "Össz": 5743,
      " tü": 5744,
      " fék": 5745,
      "sztikus": 5746,
      " változott": 5747,
      " USA": 5748,
      " szabályok": 5749,
      " kidolg": 5750,
      " méltó": 5751,
      "fgan": 5752,
      "Tud": 5753,
      " szünet": 5754,
      " főként": 5755,
      "éteg": 5756,
      " csőd": 5757,
      " Kom": 5758,
      " Veszprém": 5759,
      " átmen": 5760,
      " Os": 5761,
      "ünkre": 5762,
      " kormánypárt": 5763,
      "ítója": 5764,
      " meghív": 5765,
      " néző": 5766,
      " induló": 5767,
      "ouver": 5768,
      " Horváth": 5769,
      " áb": 5770,
      " kanadai": 5771,
      "olnok": 5772,
      " net": 5773,
      " ró": 5774,
      " megér": 5775,
      "niük": 5776,
      "őlt": 5777,
      "uss": 5778,
      "ügyelet": 5779,
      " élt": 5780,
      " küldött": 5781,
      " oktatás": 5782,
      " teszik": 5783,
      " legalábbis": 5784,
      " elfogadott": 5785,
      " források": 5786,
      " eurós": 5787,
      " környékén": 5788,
      "eivel": 5789,
      "használ": 5790,
      " tettek": 5791,
      " meglehet": 5792,
      " amivel": 5793,
      " Fi": 5794,
      "ávol": 5795,
      " mostan": 5796,
      " csapadék": 5797,
      " földreng": 5798,
      " kezdődik": 5799,
      "ervatív": 5800,
      " étt": 5801,
      "600": 5802,
      "ném": 5803,
      "inam": 5804,
      "inős": 5805,
      "onstr": 5806,
      " legsz": 5807,
      "őrök": 5808,
      " értesít": 5809,
      "játsz": 5810,
      " összecsap": 5811,
      " tisztelet": 5812,
      " hatására": 5813,
      " adatokat": 5814,
      " üzemanyag": 5815,
      "!!": 5816,
      "nánk": 5817,
      "emelés": 5818,
      "ásáról": 5819,
      "étert": 5820,
      " megismer": 5821,
      " ipari": 5822,
      " illetékes": 5823,
      " elvár": 5824,
      " regisztr": 5825,
      "éttel": 5826,
      " egyetért": 5827,
      "hát": 5828,
      " heti": 5829,
      "álják": 5830,
      " rát": 5831,
      "ovjet": 5832,
      " Lengyel": 5833,
      " jóvá": 5834,
      " melynek": 5835,
      "ológi": 5836,
      " euróövezet": 5837,
      " utcai": 5838,
      " ellenőrzés": 5839,
      " néven": 5840,
      "jak": 5841,
      "ászt": 5842,
      " vicc": 5843,
      " pih": 5844,
      "átus": 5845,
      "étlenül": 5846,
      " egyebek": 5847,
      "edagóg": 5848,
      "eve": 5849,
      " Görög": 5850,
      " rendezett": 5851,
      "édi": 5852,
      " jelentőség": 5853,
      "likt": 5854,
      " Spanyol": 5855,
      " atom": 5856,
      "98": 5857,
      "FA": 5858,
      "sch": 5859,
      "tim": 5860,
      " hum": 5861,
      " vers": 5862,
      "álkod": 5863,
      "app": 5864,
      " megítél": 5865,
      " amúgy": 5866,
      "ámp": 5867,
      " Szak": 5868,
      "rancia": 5869,
      " döntést": 5870,
      " távon": 5871,
      " öreg": 5872,
      "enko": 5873,
      " természetes": 5874,
      " rögtön": 5875,
      " huszon": 5876,
      " hekt": 5877,
      " Kol": 5878,
      "hatta": 5879,
      " Párt": 5880,
      " Szil": 5881,
      " körben": 5882,
      " ennyi": 5883,
      " nyugdíjas": 5884,
      " Központi": 5885,
      "\"Az": 5886,
      "dám": 5887,
      "uári": 5888,
      "elvet": 5889,
      " vív": 5890,
      "ésről": 5891,
      " bes": 5892,
      " gát": 5893,
      "asztás": 5894,
      " kétség": 5895,
      " Antal": 5896,
      "ohány": 5897,
      " akiket": 5898,
      " itthon": 5899,
      "hunyt": 5900,
      " aránya": 5901,
      " kérdést": 5902,
      " információk": 5903,
      " levegő": 5904,
      "busz": 5905,
      "kun": 5906,
      "si": 5907,
      "elvény": 5908,
      "gyal": 5909,
      " inn": 5910,
      " államháztart": 5911,
      " egészséges": 5912,
      " folytatott": 5913,
      " meccsen": 5914,
      " állapotban": 5915,
      " kinev": 5916,
      " Róbert": 5917,
      "Külön": 5918,
      "három": 5919,
      "hivatal": 5920,
      "sm": 5921,
      "uck": 5922,
      " tran": 5923,
      "ezések": 5924,
      "étlen": 5925,
      " Mat": 5926,
      " Med": 5927,
      "örg": 5928,
      " Hol": 5929,
      " ellene": 5930,
      "193": 5931,
      "ice": 5932,
      "atokkal": 5933,
      " nevét": 5934,
      "usztr": 5935,
      " megszüntet": 5936,
      " áp": 5937,
      " ágy": 5938,
      " díjat": 5939,
      " ENSZ": 5940,
      "-l": 5941,
      "Budapest": 5942,
      "Eh": 5943,
      "gól": 5944,
      "uel": 5945,
      " tétel": 5946,
      "esület": 5947,
      " disz": 5948,
      " Ge": 5949,
      "özött": 5950,
      " tartalék": 5951,
      " nevet": 5952,
      " Ferr": 5953,
      " modern": 5954,
      " felmérés": 5955,
      " jellegű": 5956,
      " centiméter": 5957,
      " mandátum": 5958,
      "52": 5959,
      "58": 5960,
      "Múlt": 5961,
      "elését": 5962,
      " hős": 5963,
      " Bull": 5964,
      " gyalog": 5965,
      "ásoknak": 5966,
      " időjárás": 5967,
      "helyen": 5968,
      " példa": 5969,
      " nyilvántart": 5970,
      "likk": 5971,
      " bankok": 5972,
      " találkozó": 5973,
      " éjjel": 5974,
      " remél": 5975,
      " Németország": 5976,
      " feletti": 5977,
      "Arra": 5978,
      " típusú": 5979,
      " konflikt": 5980,
      " Í": 5981,
      ".K": 5982,
      "eiről": 5983,
      "kész": 5984,
      "tom": 5985,
      "szék": 5986,
      "szavaz": 5987,
      " hűt": 5988,
      "egr": 5989,
      " ront": 5990,
      " Air": 5991,
      " Tel": 5992,
      " helyezett": 5993,
      " részéről": 5994,
      " napján": 5995,
      " elveszt": 5996,
      " dolgozók": 5997,
      " egyszerre": 5998,
      "onald": 5999,
      " templom": 6000,
      " Angeles": 6001,
      " ,": 6002,
      "iban": 6003,
      "kam": 6004,
      "lást": 6005,
      "papír": 6006,
      " hir": 6007,
      " némi": 6008,
      " ban": 6009,
      "adion": 6010,
      "javas": 6011,
      " Fl": 6012,
      "korú": 6013,
      " adós": 6014,
      "almak": 6015,
      " milliárdos": 6016,
      " szüksége": 6017,
      " hátsó": 6018,
      " elhagy": 6019,
      " kihív": 6020,
      "szóviv": 6021,
      " sajtótájékoztatón": 6022,
      " /": 6023,
      "95": 6024,
      "seb": 6025,
      " tették": 6026,
      "inet": 6027,
      " furcs": 6028,
      "ánia": 6029,
      " lov": 6030,
      " megnéz": 6031,
      " dem": 6032,
      " közbeszer": 6033,
      " számított": 6034,
      " török": 6035,
      " tartottak": 6036,
      "assa": 6037,
      " akarnak": 6038,
      " téren": 6039,
      " átlagosan": 6040,
      " megelőz": 6041,
      "biztonsági": 6042,
      "-nél": 6043,
      "uj": 6044,
      " küsz": 6045,
      " bronz": 6046,
      " Pénz": 6047,
      " élete": 6048,
      " melyet": 6049,
      " támogatja": 6050,
      " aktiv": 6051,
      " hullám": 6052,
      "SE": 6053,
      "]-": 6054,
      "ania": 6055,
      " torn": 6056,
      " für": 6057,
      " jö": 6058,
      "ams": 6059,
      " glob": 6060,
      " Szín": 6061,
      " folyamatos": 6062,
      " szombati": 6063,
      " befektetők": 6064,
      " munkatársa": 6065,
      "Jelenleg": 6066,
      " Béla": 6067,
      "ofi": 6068,
      " var": 6069,
      "éshez": 6070,
      " bolt": 6071,
      "usk": 6072,
      " gyár": 6073,
      " állom": 6074,
      "irk": 6075,
      " NB": 6076,
      " erőt": 6077,
      " Dávid": 6078,
      "képp": 6079,
      " álm": 6080,
      " rajz": 6081,
      " munkatársai": 6082,
      " büszk": 6083,
      "RFK": 6084,
      " kos": 6085,
      " fűt": 6086,
      " bonyol": 6087,
      "csk": 6088,
      " sár": 6089,
      "adi": 6090,
      "ulása": 6091,
      "ogó": 6092,
      " Mon": 6093,
      " felszer": 6094,
      " BM": 6095,
      "ájára": 6096,
      "eteor": 6097,
      "Néhány": 6098,
      " pap": 6099,
      " megd": 6100,
      " felvet": 6101,
      " Pl": 6102,
      " kislány": 6103,
      " határozat": 6104,
      " drog": 6105,
      " próbálkoz": 6106,
      " ülésén": 6107,
      " Olasz": 6108,
      " stratég": 6109,
      "akadály": 6110,
      " vi": 6111,
      " vétel": 6112,
      " funk": 6113,
      " fekvő": 6114,
      "ttest": 6115,
      " megőr": 6116,
      "adót": 6117,
      "állító": 6118,
      "aiban": 6119,
      " nyar": 6120,
      " lehetnek": 6121,
      " folyik": 6122,
      " amiért": 6123,
      " gondolt": 6124,
      "üggetlen": 6125,
      " veszélyes": 6126,
      "Miután": 6127,
      " tilt": 6128,
      " Mercedes": 6129,
      "-jelölt": 6130,
      "EH": 6131,
      "lése": 6132,
      "szeg": 6133,
      " rokon": 6134,
      " der": 6135,
      "rón": 6136,
      " elemzők": 6137,
      " aláír": 6138,
      " orvosi": 6139,
      " falu": 6140,
      " függetlenül": 6141,
      " árfolyama": 6142,
      " felesége": 6143,
      " liter": 6144,
      " tápl": 6145,
      " ettől": 6146,
      "tatták": 6147,
      "szent": 6148,
      " rec": 6149,
      "sággal": 6150,
      " képesség": 6151,
      " milliós": 6152,
      " ügyfél": 6153,
      " ifjú": 6154,
      "esse": 6155,
      " drám": 6156,
      "gészség": 6157,
      " szal": 6158,
      " pat": 6159,
      "óként": 6160,
      " Per": 6161,
      "édia": 6162,
      " mondták": 6163,
      " emellett": 6164,
      " néha": 6165,
      " kissé": 6166,
      " bemutató": 6167,
      "64": 6168,
      "ean": 6169,
      " hete": 6170,
      " től": 6171,
      " lux": 6172,
      " felte": 6173,
      " alól": 6174,
      " Ki": 6175,
      " Cap": 6176,
      " oktatási": 6177,
      " amire": 6178,
      " érkezik": 6179,
      " utca": 6180,
      " szakértő": 6181,
      "St": 6182,
      "kér": 6183,
      "kapitányság": 6184,
      "vál": 6185,
      "úton": 6186,
      " temet": 6187,
      " ném": 6188,
      "cser": 6189,
      " sos": 6190,
      " leggy": 6191,
      " Tor": 6192,
      "umot": 6193,
      "ává": 6194,
      "szolgálat": 6195,
      " kibocsát": 6196,
      " erősödött": 6197,
      " Robert": 6198,
      "különb": 6199,
      "-Z": 6200,
      "53": 6201,
      "Érd": 6202,
      "óc": 6203,
      "ola": 6204,
      " kif": 6205,
      "ságok": 6206,
      " lejár": 6207,
      " Pest": 6208,
      " értesül": 6209,
      " ügyész": 6210,
      "arkas": 6211,
      " megkeres": 6212,
      " hajlék": 6213,
      " megbeszél": 6214,
      "eiket": 6215,
      " szexuális": 6216,
      " javaslatot": 6217,
      "inált": 6218,
      " fű": 6219,
      " ezüst": 6220,
      " Kor": 6221,
      "hattak": 6222,
      " tartotta": 6223,
      " illeg": 6224,
      "fic": 6225,
      " sokáig": 6226,
      "ünt": 6227,
      " nyugat": 6228,
      " kamer": 6229,
      " polgári": 6230,
      "ionális": 6231,
      "friss": 6232,
      "ancsnok": 6233,
      " szoftver": 6234,
      "-cs": 6235,
      "di": 6236,
      "zen": 6237,
      " man": 6238,
      " tej": 6239,
      "álnak": 6240,
      " közgyűlés": 6241,
      " alul": 6242,
      "szeres": 6243,
      " mindez": 6244,
      "jármű": 6245,
      " értékű": 6246,
      " világbajnoki": 6247,
      " polgármestere": 6248,
      " kialakult": 6249,
      " mérkőzésen": 6250,
      " ablak": 6251,
      " Népszabadság": 6252,
      "zük": 6253,
      " fős": 6254,
      " piros": 6255,
      " beav": 6256,
      "olya": 6257,
      "ájával": 6258,
      " hadsereg": 6259,
      "ékesfehér": 6260,
      " Intern": 6261,
      " meglehetősen": 6262,
      "Ehhez": 6263,
      "Hat": 6264,
      " ajt": 6265,
      "enny": 6266,
      "onta": 6267,
      "olható": 6268,
      " bez": 6269,
      " süt": 6270,
      " megakadály": 6271,
      "ákra": 6272,
      " Mari": 6273,
      " Hon": 6274,
      "ótól": 6275,
      " napig": 6276,
      " mindenképpen": 6277,
      " jegybank": 6278,
      " meglepő": 6279,
      "sea": 6280,
      " megerősítette": 6281,
      "Végül": 6282,
      " üveg": 6283,
      " ep": 6284,
      "demokr": 6285,
      "agyó": 6286,
      "adást": 6287,
      "uta": 6288,
      "ográ": 6289,
      " mindkett": 6290,
      " képet": 6291,
      "Szab": 6292,
      "viselő": 6293,
      " története": 6294,
      " novemberben": 6295,
      " kultúr": 6296,
      " meghatározó": 6297,
      " megváltoz": 6298,
      " eredetileg": 6299,
      "cím": 6300,
      "löv": 6301,
      "éh": 6302,
      " tucat": 6303,
      " Eb": 6304,
      " erej": 6305,
      "ipp": 6306,
      " eredményt": 6307,
      " létesít": 6308,
      " regg": 6309,
      " sportág": 6310,
      " verte": 6311,
      " októberben": 6312,
      " mutatkoz": 6313,
      " tűzoltók": 6314,
      " Barcelona": 6315,
      "gen": 6316,
      "más": 6317,
      "olása": 6318,
      "egyed": 6319,
      "ozatot": 6320,
      " sür": 6321,
      " lep": 6322,
      " amellyel": 6323,
      " tervezet": 6324,
      " pénztár": 6325,
      " időre": 6326,
      "tekint": 6327,
      " történelem": 6328,
      "ermek": 6329,
      "row": 6330,
      " csatorn": 6331,
      " kiemelked": 6332,
      " látta": 6333,
      " megállapodás": 6334,
      " választókerület": 6335,
      " ágaz": 6336,
      " megsérült": 6337,
      "yom": 6338,
      " tol": 6339,
      "uty": 6340,
      " szerezte": 6341,
      "évé": 6342,
      " deb": 6343,
      " összev": 6344,
      " zuh": 6345,
      "anyar": 6346,
      "főnök": 6347,
      " Ádám": 6348,
      " biztosít": 6349,
      " gondolkod": 6350,
      " önálló": 6351,
      "folyam": 6352,
      " közleménye": 6353,
      " magyarázta": 6354,
      " elektronikus": 6355,
      "Természet": 6356,
      "rak": 6357,
      "elhető": 6358,
      "elsea": 6359,
      " rúg": 6360,
      " radik": 6361,
      " Miskol": 6362,
      "ajnál": 6363,
      "odás": 6364,
      " Ház": 6365,
      " államad": 6366,
      "ességében": 6367,
      " példány": 6368,
      "okros": 6369,
      " titkos": 6370,
      " elektrom": 6371,
      "enisz": 6372,
      "ésük": 6373,
      " bánt": 6374,
      " megközel": 6375,
      "áltató": 6376,
      " Gal": 6377,
      " magának": 6378,
      " visszalép": 6379,
      " Cseh": 6380,
      " fénykép": 6381,
      " hajnalban": 6382,
      "-fel": 6383,
      "Kap": 6384,
      "Ne": 6385,
      "méteres": 6386,
      "atosan": 6387,
      "annyi": 6388,
      "oknál": 6389,
      " senk": 6390,
      "adása": 6391,
      "rael": 6392,
      " kies": 6393,
      " Blikk": 6394,
      " un": 6395,
      "192": 6396,
      "ünch": 6397,
      " hazánk": 6398,
      " megszűn": 6399,
      " hívta": 6400,
      " megelőző": 6401,
      " pilót": 6402,
      " messze": 6403,
      " havazás": 6404,
      "Ahogy": 6405,
      "Jó": 6406,
      "les": 6407,
      "társaság": 6408,
      " med": 6409,
      "oli": 6410,
      " sejt": 6411,
      " dal": 6412,
      "ames": 6413,
      "rep": 6414,
      " minket": 6415,
      " pénzügyminiszter": 6416,
      " szervező": 6417,
      "Ol": 6418,
      " keleti": 6419,
      "ale": 6420,
      " szed": 6421,
      "ségben": 6422,
      "ázár": 6423,
      " Bajnok": 6424,
      " legn": 6425,
      " Dom": 6426,
      "házban": 6427,
      " amiben": 6428,
      " nevezett": 6429,
      " híres": 6430,
      " megszok": 6431,
      "jutott": 6432,
      " híd": 6433,
      "-ügy": 6434,
      "Nincs": 6435,
      "rat": 6436,
      "etét": 6437,
      "iségi": 6438,
      " dohány": 6439,
      "hetők": 6440,
      " jelentés": 6441,
      "asonl": 6442,
      " intézmények": 6443,
      "esetre": 6444,
      " meccset": 6445,
      " tárgyalások": 6446,
      " beszámoló": 6447,
      " klasszikus": 6448,
      "kap": 6449,
      "ike": 6450,
      " bocsát": 6451,
      " szerinti": 6452,
      " értek": 6453,
      " általa": 6454,
      " várják": 6455,
      " villamos": 6456,
      " köztársasági": 6457,
      " ev": 6458,
      "Talán": 6459,
      "hy": 6460,
      "jan": 6461,
      "mis": 6462,
      "zár": 6463,
      "ezked": 6464,
      "airól": 6465,
      " old": 6466,
      " gondolom": 6467,
      "mentes": 6468,
      "enzív": 6469,
      "pénztárak": 6470,
      " pilóta": 6471,
      " repülőgép": 6472,
      "-gy": 6473,
      "cég": 6474,
      "kutatás": 6475,
      "onna": 6476,
      " Tw": 6477,
      "öltség": 6478,
      "ecember": 6479,
      " lépés": 6480,
      " győzött": 6481,
      " közlekedés": 6482,
      " színésznő": 6483,
      " David": 6484,
      "vásár": 6485,
      " szim": 6486,
      " búcs": 6487,
      "ilabda": 6488,
      " korszak": 6489,
      "émia": 6490,
      "unánt": 6491,
      " kereslet": 6492,
      " foglalkozik": 6493,
      " igénybe": 6494,
      "művek": 6495,
      " hasznos": 6496,
      "Magyarországon": 6497,
      " olcsóbb": 6498,
      " repülőtér": 6499,
      "Ch": 6500,
      "Ál": 6501,
      "ető": 6502,
      "inni": 6503,
      " dik": 6504,
      " Mesterházy": 6505,
      "aim": 6506,
      " felép": 6507,
      " KN": 6508,
      " Katal": 6509,
      " Lond": 6510,
      " vallom": 6511,
      " országot": 6512,
      " elmarad": 6513,
      " konferenci": 6514,
      " órán": 6515,
      " politikusok": 6516,
      " vesztette": 6517,
      " közvetlenül": 6518,
      " Hírek": 6519,
      " közölték": 6520,
      " kedvezmény": 6521,
      " gyanúja": 6522,
      " elegendő": 6523,
      "Német": 6524,
      "fur": 6525,
      "list": 6526,
      "nünk": 6527,
      "veres": 6528,
      "omra": 6529,
      "onda": 6530,
      "atty": 6531,
      "előd": 6532,
      " emleg": 6533,
      " látogatás": 6534,
      " túlél": 6535,
      " eredménye": 6536,
      " teher": 6537,
      " tizenk": 6538,
      " szigor": 6539,
      " koncentr": 6540,
      " intézkedések": 6541,
      " jövedelem": 6542,
      " hirtelen": 6543,
      "lad": 6544,
      "rág": 6545,
      " mat": 6546,
      " lél": 6547,
      " tartották": 6548,
      " hatvan": 6549,
      " kormányt": 6550,
      "rand": 6551,
      " hónappal": 6552,
      " fiatalember": 6553,
      " nyugdíjrendszer": 6554,
      "erceg": 6555,
      "que": 6556,
      " fájd": 6557,
      "szönt": 6558,
      " kony": 6559,
      "aknak": 6560,
      " elhunyt": 6561,
      " rájuk": 6562,
      " Bul": 6563,
      "umb": 6564,
      " Dem": 6565,
      " IMF": 6566,
      " műt": 6567,
      "Szám": 6568,
      " kapcsolódó": 6569,
      " közülük": 6570,
      "bizony": 6571,
      "módosítás": 6572,
      "54": 6573,
      "68": 6574,
      "800": 6575,
      " szög": 6576,
      " Munk": 6577,
      " végző": 6578,
      " forinton": 6579,
      "ációk": 6580,
      " rendőrségi": 6581,
      " kapcsolatot": 6582,
      "ációja": 6583,
      " törvényjavas": 6584,
      "essé": 6585,
      " megszor": 6586,
      " megvásár": 6587,
      " ajánlat": 6588,
      " egyesület": 6589,
      " művészet": 6590,
      " izgalmas": 6591,
      " speciális": 6592,
      "ümölcs": 6593,
      "rek": 6594,
      " méteres": 6595,
      " har": 6596,
      " szán": 6597,
      "ítve": 6598,
      " egység": 6599,
      " köb": 6600,
      "áknak": 6601,
      "nként": 6602,
      " nyári": 6603,
      "írus": 6604,
      "avart": 6605,
      " élvez": 6606,
      "napos": 6607,
      " Egyesület": 6608,
      " vizsgálatot": 6609,
      " feladata": 6610,
      " vállalkozások": 6611,
      " mindenkinek": 6612,
      " Gergely": 6613,
      "-H": 6614,
      "-hez": 6615,
      "Ad": 6616,
      " kert": 6617,
      " beval": 6618,
      "öttek": 6619,
      " Gab": 6620,
      " Török": 6621,
      " tudunk": 6622,
      " mondjuk": 6623,
      "árda": 6624,
      " támogató": 6625,
      " árul": 6626,
      " várnak": 6627,
      " nyugod": 6628,
      " forgalmaz": 6629,
      " címet": 6630,
      " produk": 6631,
      " ellentétben": 6632,
      "Olyan": 6633,
      "59": 6634,
      "Jan": 6635,
      "iába": 6636,
      " hábor": 6637,
      " fenti": 6638,
      " fertőz": 6639,
      " elrend": 6640,
      " kimond": 6641,
      " gal": 6642,
      "techn": 6643,
      " Pat": 6644,
      " Los": 6645,
      "ínusz": 6646,
      " rosszabb": 6647,
      " önkormányzatok": 6648,
      " kedvenc": 6649,
      " februárban": 6650,
      " menetrend": 6651,
      " tükr": 6652,
      " Bajnokok": 6653,
      "ménnyel": 6654,
      " táj": 6655,
      " száj": 6656,
      "osta": 6657,
      " dics": 6658,
      " Bajnai": 6659,
      "önny": 6660,
      " bevon": 6661,
      " valak": 6662,
      " Col": 6663,
      " esik": 6664,
      "ástól": 6665,
      " hozam": 6666,
      " ügyvezető": 6667,
      " legjobban": 6668,
      "uttó": 6669,
      " ellenőriz": 6670,
      " gyenge": 6671,
      " tartalmazó": 6672,
      " kritikus": 6673,
      " beavatkoz": 6674,
      "):": 6675,
      "KB": 6676,
      "Mag": 6677,
      "con": 6678,
      " mor": 6679,
      " elej": 6680,
      "edző": 6681,
      "its": 6682,
      " csend": 6683,
      "éppen": 6684,
      "letek": 6685,
      " világos": 6686,
      " épül": 6687,
      "ander": 6688,
      " erősebb": 6689,
      "ordon": 6690,
      "telenül": 6691,
      "senal": 6692,
      " konzervatív": 6693,
      " szórakoz": 6694,
      " Árp": 6695,
      " Görögország": 6696,
      "vi": 6697,
      "emier": 6698,
      " fül": 6699,
      " fil": 6700,
      "ásuk": 6701,
      "ítések": 6702,
      " megsért": 6703,
      " felében": 6704,
      " Ft": 6705,
      " ch": 6706,
      " adók": 6707,
      " Is": 6708,
      "eire": 6709,
      " kezdve": 6710,
      " Willi": 6711,
      " Washington": 6712,
      " ajánló": 6713,
      " testvér": 6714,
      " dolgoznak": 6715,
      " öv": 6716,
      "67": 6717,
      "yk": 6718,
      "óba": 6719,
      "atikai": 6720,
      " bont": 6721,
      "árták": 6722,
      " szeml": 6723,
      " vezeti": 6724,
      " tanú": 6725,
      " elnöki": 6726,
      "olly": 6727,
      " közlése": 6728,
      " színvonal": 6729,
      "talanul": 6730,
      " problémát": 6731,
      " bajnokság": 6732,
      " szokásos": 6733,
      " negyedévben": 6734,
      " kommunikációs": 6735,
      " feljelentést": 6736,
      " zsidó": 6737,
      "han": 6738,
      "rát": 6739,
      " tegy": 6740,
      " területi": 6741,
      "aira": 6742,
      "irend": 6743,
      "obbant": 6744,
      " külügyminiszter": 6745,
      "ársa": 6746,
      " várak": 6747,
      " fejlőd": 6748,
      " gondos": 6749,
      " szavazók": 6750,
      " katolikus": 6751,
      "ápa": 6752,
      " lelki": 6753,
      " tulajdonosa": 6754,
      " éjszaka": 6755,
      " feszült": 6756,
      "-nál": 6757,
      " norvég": 6758,
      " Mel": 6759,
      " leír": 6760,
      " bejegy": 6761,
      " Tr": 6762,
      " erk": 6763,
      " igazol": 6764,
      " védelem": 6765,
      " színpad": 6766,
      " szállod": 6767,
      "egedi": 6768,
      " légit": 6769,
      " kizár": 6770,
      " export": 6771,
      "gész": 6772,
      "ík": 6773,
      " hárm": 6774,
      " szülő": 6775,
      "one": 6776,
      " log": 6777,
      " liberális": 6778,
      "életes": 6779,
      " Ma": 6780,
      " adták": 6781,
      "ításával": 6782,
      " Jan": 6783,
      " profi": 6784,
      " valamelyik": 6785,
      "inger": 6786,
      " biztosító": 6787,
      "ace": 6788,
      " elemzés": 6789,
      " beruházás": 6790,
      " mesél": 6791,
      "-R": 6792,
      "66": 6793,
      "fia": 6794,
      "őn": 6795,
      " elszám": 6796,
      " Könyv": 6797,
      " Pal": 6798,
      " érv": 6799,
      "ósa": 6800,
      "ajdú": 6801,
      "ória": 6802,
      "szakasz": 6803,
      " illeték": 6804,
      "tern": 6805,
      " kerülnek": 6806,
      " meghosszabb": 6807,
      "szelvény": 6808,
      "biztos": 6809,
      "Emellett": 6810,
      "Korábban": 6811,
      "törvény": 6812,
      " mért": 6813,
      " héttel": 6814,
      " San": 6815,
      "tebb": 6816,
      " amelyik": 6817,
      " elsőd": 6818,
      "közben": 6819,
      " folyt": 6820,
      "ings": 6821,
      " halt": 6822,
      " halott": 6823,
      " kerülhet": 6824,
      " távú": 6825,
      " öngy": 6826,
      " bemut": 6827,
      " pályázat": 6828,
      "Lehet": 6829,
      " globális": 6830,
      " BMW": 6831,
      "-amerikai": 6832,
      "Nek": 6833,
      "kai": 6834,
      "lási": 6835,
      " kattint": 6836,
      "akra": 6837,
      "ülly": 6838,
      " megment": 6839,
      " Ex": 6840,
      "ügyészség": 6841,
      "lődő": 6842,
      "ődik": 6843,
      " megvan": 6844,
      "lovén": 6845,
      "Szerint": 6846,
      " fotó": 6847,
      " naponta": 6848,
      " megfogalmaz": 6849,
      " hajléktalan": 6850,
      "\"\n": 6851,
      "hette": 6852,
      " kup": 6853,
      " szimp": 6854,
      "ezését": 6855,
      " lend": 6856,
      " sk": 6857,
      "odor": 6858,
      "eves": 6859,
      " képzel": 6860,
      "191": 6861,
      "ászok": 6862,
      " árvíz": 6863,
      "usztri": 6864,
      " növény": 6865,
      " rendelkezésre": 6866,
      " szakértői": 6867,
      " portugál": 6868,
      " lakossági": 6869,
      " legutóbb": 6870,
      "-Európ": 6871,
      " kabinet": 6872,
      " korrupció": 6873,
      " alelnöke": 6874,
      " egymillió": 6875,
      " ök": 6876,
      "IA": 6877,
      "szal": 6878,
      "ano": 6879,
      " ler": 6880,
      " sugár": 6881,
      "korong": 6882,
      " Jack": 6883,
      " vállalatok": 6884,
      "huz": 6885,
      " dolgozni": 6886,
      " fordulóban": 6887,
      " bármilyen": 6888,
      " ingyen": 6889,
      " koncepció": 6890,
      " Ó": 6891,
      "ereszt": 6892,
      "atja": 6893,
      " tánc": 6894,
      "olási": 6895,
      " díz": 6896,
      "igur": 6897,
      " Mer": 6898,
      " érzi": 6899,
      " értesült": 6900,
      " okozó": 6901,
      "ességét": 6902,
      " következtet": 6903,
      "ney": 6904,
      " szolgálat": 6905,
      " akarják": 6906,
      " nyilvánvaló": 6907,
      " Éva": 6908,
      " Állami": 6909,
      "pályás": 6910,
      " véleménye": 6911,
      " infláció": 6912,
      "fejlesztési": 6913,
      " hozzátéve": 6914,
      "Hétfő": 6915,
      "Kar": 6916,
      "ko": 6917,
      "sburg": 6918,
      "ságú": 6919,
      "iptom": 6920,
      " háztart": 6921,
      " személyiség": 6922,
      " játékosok": 6923,
      " letölt": 6924,
      " készülék": 6925,
      " kormányzat": 6926,
      "spanyol": 6927,
      "zését": 6928,
      " fia": 6929,
      " bul": 6930,
      "ettó": 6931,
      " cselek": 6932,
      " Sa": 6933,
      " Gól": 6934,
      "öztet": 6935,
      " Lev": 6936,
      " lapnak": 6937,
      " szervezett": 6938,
      " demokratikus": 6939,
      " bruttó": 6940,
      " sosem": 6941,
      "Természetesen": 6942,
      "Nép": 6943,
      "TC": 6944,
      "TL": 6945,
      " has": 6946,
      " vihar": 6947,
      "inn": 6948,
      " pad": 6949,
      "idéz": 6950,
      " szerintem": 6951,
      " Pár": 6952,
      "felvétel": 6953,
      " találta": 6954,
      " komolyan": 6955,
      " beszélni": 6956,
      " kiadott": 6957,
      " cserél": 6958,
      " Kína": 6959,
      " vörösiszap": 6960,
      "enault": 6961,
      "uv": 6962,
      "ásért": 6963,
      "arch": 6964,
      "üly": 6965,
      "állap": 6966,
      " Tom": 6967,
      " helysz": 6968,
      "enie": 6969,
      "arket": 6970,
      " csatár": 6971,
      "itter": 6972,
      " megoldást": 6973,
      " vendégek": 6974,
      " kezdeményezés": 6975,
      "evízió": 6976,
      " pillanat": 6977,
      " reagált": 6978,
      " összehasonl": 6979,
      "szolgálati": 6980,
      "-ről": 6981,
      "kraj": 6982,
      "entő": 6983,
      "Azért": 6984,
      " Carl": 6985,
      " Da": 6986,
      "isztáni": 6987,
      " végső": 6988,
      " munkáját": 6989,
      " vasúti": 6990,
      " vizsgálatok": 6991,
      " polgár": 6992,
      " Chelsea": 6993,
      "afut": 6994,
      " felkészül": 6995,
      " Milan": 6996,
      " megfigyel": 6997,
      " Ágnes": 6998,
      " reggeli": 6999,
      " Katalin": 7000,
      " ugr": 7001,
      "-nyugdíj": 7002,
      "Sch": 7003,
      "jal": 7004,
      "szövetség": 7005,
      " szót": 7006,
      "ártól": 7007,
      " számukra": 7008,
      " lehetetlen": 7009,
      "imir": 7010,
      "pontos": 7011,
      "rich": 7012,
      " kivált": 7013,
      " kiválaszt": 7014,
      " kedves": 7015,
      " vállalkozás": 7016,
      "69": 7017,
      "88": 7018,
      "jaként": 7019,
      " mínusz": 7020,
      "emlék": 7021,
      "isebb": 7022,
      " elítél": 7023,
      "arn": 7024,
      " úr": 7025,
      " adnak": 7026,
      " ügynök": 7027,
      " jelenség": 7028,
      " címvédő": 7029,
      " szenny": 7030,
      " tetsz": 7031,
      " Parlament": 7032,
      " légitársaság": 7033,
      "met": 7034,
      "marad": 7035,
      "pest": 7036,
      "üh": 7037,
      "alg": 7038,
      " láz": 7039,
      " bán": 7040,
      " megoszt": 7041,
      " MNB": 7042,
      "ságra": 7043,
      "udarc": 7044,
      " utód": 7045,
      " Eszt": 7046,
      "letet": 7047,
      " vezetők": 7048,
      " háromszor": 7049,
      "ítószer": 7050,
      "éldául": 7051,
      "zsák": 7052,
      " megválaszt": 7053,
      " fölé": 7054,
      " befektetési": 7055,
      "politik": 7056,
      " cip": 7057,
      "semmis": 7058,
      " elképzelhető": 7059,
      " professzor": 7060,
      " világháború": 7061,
      " Nyugat": 7062,
      " olt": 7063,
      " kém": 7064,
      "orl": 7065,
      " szurkol": 7066,
      " fűz": 7067,
      "ttel": 7068,
      " bok": 7069,
      " bab": 7070,
      "edek": 7071,
      " kiegyen": 7072,
      "izált": 7073,
      "eszi": 7074,
      "umok": 7075,
      " fizetett": 7076,
      " videó": 7077,
      " robbant": 7078,
      "-helyettes": 7079,
      "del": 7080,
      "me": 7081,
      " vak": 7082,
      " fém": 7083,
      "egyház": 7084,
      " jós": 7085,
      " BU": 7086,
      " adomány": 7087,
      " tudomány": 7088,
      " szemb": 7089,
      " választó": 7090,
      " döntése": 7091,
      " érdekelt": 7092,
      " helyzetbe": 7093,
      " folytatódik": 7094,
      " terjeszt": 7095,
      " édesany": 7096,
      " asztal": 7097,
      "bi": 7098,
      "jei": 7099,
      "ero": 7100,
      "olók": 7101,
      " állatok": 7102,
      "evesebb": 7103,
      " végleges": 7104,
      " alapítvány": 7105,
      " tanár": 7106,
      " versenyt": 7107,
      " vizsgálja": 7108,
      " roma": 7109,
      " kíváncsi": 7110,
      " aktuális": 7111,
      " részvények": 7112,
      "jogi": 7113,
      " garant": 7114,
      " felügyelő": 7115,
      " diplomáci": 7116,
      " földrengés": 7117,
      " Árpád": 7118,
      "sy": 7119,
      " kő": 7120,
      " kén": 7121,
      " dig": 7122,
      "adal": 7123,
      "ségű": 7124,
      " csont": 7125,
      "állított": 7126,
      " Toy": 7127,
      " Lu": 7128,
      "becs": 7129,
      " kamion": 7130,
      " címmel": 7131,
      " elégedett": 7132,
      " régóta": 7133,
      " visszavon": 7134,
      "érmes": 7135,
      "Ek": 7136,
      "TA": 7137,
      "VB": 7138,
      "ínek": 7139,
      " fen": 7140,
      " bány": 7141,
      "ettünk": 7142,
      " rett": 7143,
      "ányos": 7144,
      "ellel": 7145,
      " befog": 7146,
      " többnyire": 7147,
      " Dáni": 7148,
      " forintért": 7149,
      " félre": 7150,
      " karrier": 7151,
      " hagyta": 7152,
      " nyilvános": 7153,
      " bárki": 7154,
      " kihasznál": 7155,
      " ahogyan": 7156,
      "személy": 7157,
      " mennyiségű": 7158,
      " televízió": 7159,
      " alapvető": 7160,
      " Borsod": 7161,
      " elektromos": 7162,
      "fesz": 7163,
      "hull": 7164,
      "och": 7165,
      "tünk": 7166,
      "terület": 7167,
      "env": 7168,
      " kegy": 7169,
      " vajon": 7170,
      "ora": 7171,
      " szuper": 7172,
      " passz": 7173,
      " pécsi": 7174,
      "átlan": 7175,
      " megte": 7176,
      "iti": 7177,
      "ábbi": 7178,
      " Víz": 7179,
      " élén": 7180,
      " élnek": 7181,
      " hatodik": 7182,
      "ászat": 7183,
      " dolgok": 7184,
      "ozását": 7185,
      " stb": 7186,
      " mikr": 7187,
      " orvosok": 7188,
      " trén": 7189,
      " vezérigazgatója": 7190,
      "Kedd": 7191,
      "Négy": 7192,
      "kar": 7193,
      "ets": 7194,
      " mez": 7195,
      "aták": 7196,
      " les": 7197,
      "eszked": 7198,
      " kétszáz": 7199,
      " emelte": 7200,
      "eddönt": 7201,
      " jobboldali": 7202,
      " védelmi": 7203,
      " kever": 7204,
      " használat": 7205,
      " szállították": 7206,
      " számítanak": 7207,
      " szezonban": 7208,
      " módosító": 7209,
      " eltérő": 7210,
      " kötelezettség": 7211,
      " ob": 7212,
      " onnan": 7213,
      "Pr": 7214,
      "dán": 7215,
      "dzs": 7216,
      " kudarc": 7217,
      " vevő": 7218,
      " nettó": 7219,
      " láng": 7220,
      "otel": 7221,
      " Kult": 7222,
      " Gordon": 7223,
      "özés": 7224,
      "iról": 7225,
      " Jon": 7226,
      "napi": 7227,
      "osszú": 7228,
      " WA": 7229,
      " félid": 7230,
      " segíteni": 7231,
      " feltétlenül": 7232,
      " észl": 7233,
      " front": 7234,
      " egyetemi": 7235,
      " felsőok": 7236,
      "Leaks": 7237,
      "ezzük": 7238,
      "lekedési": 7239,
      "Míg": 7240,
      "húz": 7241,
      "harc": 7242,
      "roll": 7243,
      "ski": 7244,
      "ww": 7245,
      "ino": 7246,
      " megsemmis": 7247,
      "otal": 7248,
      " terep": 7249,
      " hozni": 7250,
      " választott": 7251,
      " Wiki": 7252,
      " kerek": 7253,
      " szerepe": 7254,
      " értéke": 7255,
      " vasút": 7256,
      " létezik": 7257,
      " tiszta": 7258,
      " sportoló": 7259,
      "üzem": 7260,
      "űrű": 7261,
      " Facebook": 7262,
      "62": 7263,
      "magyar": 7264,
      "Ép": 7265,
      "ásához": 7266,
      "ettük": 7267,
      "indul": 7268,
      " Király": 7269,
      " nyak": 7270,
      " Független": 7271,
      " Park": 7272,
      " élett": 7273,
      " zene": 7274,
      " and": 7275,
      " készülő": 7276,
      "allgat": 7277,
      "fogó": 7278,
      " forgatók": 7279,
      "mérkőz": 7280,
      " könnyebb": 7281,
      " növekedést": 7282,
      " technikai": 7283,
      " Németországban": 7284,
      " idősebb": 7285,
      " interneten": 7286,
      " esztend": 7287,
      "beszéd": 7288,
      " önt": 7289,
      "700": 7290,
      " fár": 7291,
      "állomány": 7292,
      " Kül": 7293,
      "iller": 7294,
      " gyümölcs": 7295,
      "ösen": 7296,
      " Leg": 7297,
      "árty": 7298,
      " tudtam": 7299,
      "imn": 7300,
      " ugy": 7301,
      " embernek": 7302,
      " visszak": 7303,
      "keleti": 7304,
      " szintű": 7305,
      "lyel": 7306,
      " termékek": 7307,
      " tizenegy": 7308,
      " elsődleges": 7309,
      "Fotó": 7310,
      "Hát": 7311,
      "beteg": 7312,
      "hír": 7313,
      "pát": 7314,
      "elések": 7315,
      " kg": 7316,
      " káv": 7317,
      " sziv": 7318,
      " ellenfél": 7319,
      " vezetés": 7320,
      "forrás": 7321,
      " jutottak": 7322,
      " párhuz": 7323,
      " használni": 7324,
      " hatással": 7325,
      " kínál": 7326,
      " tekintve": 7327,
      " Zsuzs": 7328,
      " egyenl": 7329,
      " véleményét": 7330,
      " Frank": 7331,
      " tűzoltó": 7332,
      "veszély": 7333,
      " száraz": 7334,
      "frissebb": 7335,
      " isz": 7336,
      "Ott": 7337,
      "out": 7338,
      "ild": 7339,
      "itális": 7340,
      "adások": 7341,
      "jav": 7342,
      " Bern": 7343,
      " legfrissebb": 7344,
      " adják": 7345,
      " mielőtt": 7346,
      " RTL": 7347,
      "őri": 7348,
      "kötel": 7349,
      "tatja": 7350,
      " csapatot": 7351,
      " parkoló": 7352,
      "tartó": 7353,
      " mutatják": 7354,
      " tekintettel": 7355,
      "ázsiai": 7356,
      " délutáni": 7357,
      " tőke": 7358,
      " alapvetően": 7359,
      " Somogy": 7360,
      " ábráz": 7361,
      "-V": 7362,
      "72": 7363,
      "ozva": 7364,
      "ékés": 7365,
      "abor": 7366,
      " Ne": 7367,
      " élni": 7368,
      " bírósági": 7369,
      "önyör": 7370,
      " érzékeny": 7371,
      " tökéletes": 7372,
      " ütközött": 7373,
      "nom": 7374,
      "tlen": 7375,
      " szegedi": 7376,
      " sh": 7377,
      "apott": 7378,
      " divat": 7379,
      " Anna": 7380,
      " életben": 7381,
      " tavasszal": 7382,
      " betölt": 7383,
      "gatóság": 7384,
      " szeretnénk": 7385,
      " tisztáz": 7386,
      " nyilatkozat": 7387,
      " zárta": 7388,
      " szolgáltató": 7389,
      " gyártó": 7390,
      " nála": 7391,
      " óriás": 7392,
      " hulladék": 7393,
      " juttatás": 7394,
      "Eddig": 7395,
      " APEH": 7396,
      "-L": 7397,
      "63": 7398,
      "=\"": 7399,
      "hét": 7400,
      "íd": 7401,
      " tál": 7402,
      " tábl": 7403,
      "ála": 7404,
      "ikán": 7405,
      "csuk": 7406,
      " pak": 7407,
      " amik": 7408,
      " Nor": 7409,
      " helyét": 7410,
      " terve": 7411,
      " kormánynak": 7412,
      " követi": 7413,
      " építő": 7414,
      " üzen": 7415,
      " tízezer": 7416,
      " holttest": 7417,
      " szülők": 7418,
      " hetven": 7419,
      " felügyelet": 7420,
      " radikális": 7421,
      "-ki": 7422,
      "Mit": 7423,
      " eldönt": 7424,
      "niában": 7425,
      " Mát": 7426,
      "odó": 7427,
      " nyúl": 7428,
      "udai": 7429,
      " végi": 7430,
      " jelentett": 7431,
      " vezetést": 7432,
      " indiai": 7433,
      " világon": 7434,
      " írás": 7435,
      "esszük": 7436,
      " klím": 7437,
      "érdek": 7438,
      " környezetvédelmi": 7439,
      " kilométeres": 7440,
      " szeptemberben": 7441,
      " optim": 7442,
      "biztosítási": 7443,
      " ik": 7444,
      "Kér": 7445,
      "etáris": 7446,
      " rug": 7447,
      "unknak": 7448,
      " Ib": 7449,
      "ehez": 7450,
      " napirend": 7451,
      " tisztség": 7452,
      "-KDNP": 7453,
      " Vasas": 7454,
      " ült": 7455,
      "61": 7456,
      "Sajnos": 7457,
      "Utó": 7458,
      "hettek": 7459,
      "láb": 7460,
      "regény": 7461,
      "tett": 7462,
      "végi": 7463,
      "éje": 7464,
      " mak": 7465,
      " tab": 7466,
      " toj": 7467,
      "akter": 7468,
      "aktor": 7469,
      " elj": 7470,
      " Kiss": 7471,
      "even": 7472,
      " cáf": 7473,
      " máris": 7474,
      "uma": 7475,
      "okatlan": 7476,
      " fogva": 7477,
      "napján": 7478,
      " kisfi": 7479,
      "ózis": 7480,
      " egyike": 7481,
      " következik": 7482,
      " kérdése": 7483,
      " Szabad": 7484,
      " csinálni": 7485,
      "olvaj": 7486,
      " Ügy": 7487,
      "vad": 7488,
      "anna": 7489,
      "ezhet": 7490,
      "ősebb": 7491,
      "ájú": 7492,
      " Ang": 7493,
      " szabadon": 7494,
      " MTV": 7495,
      " súlyosan": 7496,
      " literes": 7497,
      " kontin": 7498,
      " Klub": 7499,
      " metró": 7500,
      " Franciaország": 7501,
      " külföldön": 7502,
      "gentin": 7503,
      "Ekkor": 7504,
      "09": 7505,
      "NA": 7506,
      " kék": 7507,
      " kór": 7508,
      " the": 7509,
      " pre": 7510,
      " csep": 7511,
      "nyolc": 7512,
      " márk": 7513,
      " End": 7514,
      " éri": 7515,
      " helyén": 7516,
      "ításának": 7517,
      "ódás": 7518,
      " ee": 7519,
      " járnak": 7520,
      " hiszem": 7521,
      " játszani": 7522,
      " lehetősége": 7523,
      " lehetőségét": 7524,
      " Arsenal": 7525,
      " otthonában": 7526,
      "osabban": 7527,
      " kockázat": 7528,
      " bűncselekmények": 7529,
      "87": 7530,
      "Sőt": 7531,
      "nam": 7532,
      "arnok": 7533,
      " sar": 7534,
      " megteremt": 7535,
      " dur": 7536,
      " Ros": 7537,
      "ításra": 7538,
      "ódnak": 7539,
      " végeredmény": 7540,
      " napot": 7541,
      " ügyelet": 7542,
      "ászati": 7543,
      " pontra": 7544,
      " veszik": 7545,
      " határidő": 7546,
      "négy": 7547,
      " ütem": 7548,
      "-Kore": 7549,
      "ossuth": 7550,
      " keletkezett": 7551,
      " tökélet": 7552,
      " App": 7553,
      " államadósság": 7554,
      "dei": 7555,
      "vidék": 7556,
      "Öt": 7557,
      " aj": 7558,
      " mult": 7559,
      " komb": 7560,
      "alai": 7561,
      " tend": 7562,
      " felismer": 7563,
      " genet": 7564,
      "unkra": 7565,
      "ötték": 7566,
      " esk": 7567,
      "jától": 7568,
      " lakos": 7569,
      " pályafut": 7570,
      " órás": 7571,
      " olvashat": 7572,
      " eltűn": 7573,
      " használják": 7574,
      "Amennyiben": 7575,
      " kiemelte": 7576,
      "III": 7577,
      " választásokon": 7578,
      " zajló": 7579,
      " kosár": 7580,
      " illegális": 7581,
      "-val": 7582,
      "130": 7583,
      "gar": 7584,
      "ibb": 7585,
      "xd": 7586,
      "élked": 7587,
      "ukban": 7588,
      " Co": 7589,
      "ettebb": 7590,
      " másrészt": 7591,
      " emelt": 7592,
      " szolgáló": 7593,
      " születés": 7594,
      " kívüli": 7595,
      " kórházban": 7596,
      " ezelőtti": 7597,
      " döntöttek": 7598,
      "ekkora": 7599,
      " meghatározott": 7600,
      " településen": 7601,
      " ajánlószelvény": 7602,
      "lemény": 7603,
      "wood": 7604,
      "álva": 7605,
      " bölcs": 7606,
      "életi": 7607,
      "éllyel": 7608,
      "amin": 7609,
      " amint": 7610,
      "szerv": 7611,
      "ményt": 7612,
      " ügyet": 7613,
      " jogerős": 7614,
      " életbe": 7615,
      " pártelnök": 7616,
      " őszint": 7617,
      "180": 7618,
      " tisztesség": 7619,
      " hatása": 7620,
      " franci": 7621,
      " kénytelen": 7622,
      "vállalkoz": 7623,
      " működését": 7624,
      "ítsák": 7625,
      " konfliktus": 7626,
      " sürg": 7627,
      "oki": 7628,
      " rob": 7629,
      "odr": 7630,
      "avi": 7631,
      "attól": 7632,
      "ésekor": 7633,
      "telep": 7634,
      " illetően": 7635,
      "izsi": 7636,
      "enekar": 7637,
      " jelenlét": 7638,
      "-tenger": 7639,
      " menni": 7640,
      " megszól": 7641,
      " perccel": 7642,
      " munkaerő": 7643,
      "Miért": 7644,
      " gyengült": 7645,
      " Molnár": 7646,
      " Tisza": 7647,
      "iverpo": 7648,
      " kéne": 7649,
      "86": 7650,
      "cal": 7651,
      "mint": 7652,
      "ste": 7653,
      "üsp": 7654,
      "eron": 7655,
      " hölgy": 7656,
      " herceg": 7657,
      "álatok": 7658,
      " elért": 7659,
      " elny": 7660,
      " pot": 7661,
      "ight": 7662,
      " évfordul": 7663,
      "evés": 7664,
      " utalt": 7665,
      " Ter": 7666,
      " magára": 7667,
      " James": 7668,
      " hozza": 7669,
      " vonal": 7670,
      " forgalma": 7671,
      " mérkőzést": 7672,
      "század": 7673,
      " üld": 7674,
      " megbízott": 7675,
      " megtalál": 7676,
      "üsszel": 7677,
      " Izrael": 7678,
      "délyi": 7679,
      " luxus": 7680,
      " BUX": 7681,
      ");": 7682,
      "ge": 7683,
      "ks": 7684,
      "tud": 7685,
      "uch": 7686,
      " kv": 7687,
      "egyver": 7688,
      "ozások": 7689,
      " egységes": 7690,
      " megcs": 7691,
      "ogh": 7692,
      " Bur": 7693,
      " KDNP": 7694,
      "özpont": 7695,
      " Nov": 7696,
      " számát": 7697,
      " Renault": 7698,
      " mást": 7699,
      " összetett": 7700,
      "központ": 7701,
      "ességet": 7702,
      " termelés": 7703,
      " vonat": 7704,
      " vastag": 7705,
      " baloldali": 7706,
      " téma": 7707,
      " kártér": 7708,
      " rakét": 7709,
      " hátter": 7710,
      " megfigy": 7711,
      "Idén": 7712,
      " furcsa": 7713,
      "89": 7714,
      "NS": 7715,
      "labda": 7716,
      "zon": 7717,
      " kanyar": 7718,
      "orok": 7719,
      " füst": 7720,
      " elnev": 7721,
      " sajnál": 7722,
      "omba": 7723,
      "kezés": 7724,
      " hétköz": 7725,
      "Egyelőre": 7726,
      "zséb": 7727,
      " lettek": 7728,
      " hónapja": 7729,
      " hajó": 7730,
      " fontosabb": 7731,
      " folytatja": 7732,
      " játékosa": 7733,
      "-magyar": 7734,
      " jogosult": 7735,
      " ingyenes": 7736,
      "terjeszt": 7737,
      "ficit": 7738,
      "üspök": 7739,
      "vás": 7740,
      "vöz": 7741,
      "őnek": 7742,
      " réteg": 7743,
      " Alex": 7744,
      " Rad": 7745,
      " visszam": 7746,
      " rendszerben": 7747,
      " üzenet": 7748,
      " színes": 7749,
      " szeretnének": 7750,
      " programot": 7751,
      " foglalkoztatás": 7752,
      " kihagy": 7753,
      " egyedi": 7754,
      " kábítószer": 7755,
      "avédelmi": 7756,
      " római": 7757,
      "Mik": 7758,
      "jöv": 7759,
      "jünk": 7760,
      "ítt": 7761,
      "ödés": 7762,
      " trend": 7763,
      " bomb": 7764,
      "omin": 7765,
      " amilyen": 7766,
      "ölni": 7767,
      " nagym": 7768,
      "esztin": 7769,
      " Szövet": 7770,
      " Szombat": 7771,
      "enné": 7772,
      "etlenül": 7773,
      " áron": 7774,
      "védelem": 7775,
      " előtte": 7776,
      " anya": 7777,
      " történtek": 7778,
      " hiánya": 7779,
      "ense": 7780,
      " kívánja": 7781,
      " Németh": 7782,
      " áldozatok": 7783,
      " lóerős": 7784,
      "kereskedelmi": 7785,
      " Paul": 7786,
      "08": 7787,
      "kit": 7788,
      "anta": 7789,
      "okk": 7790,
      " blok": 7791,
      "ázta": 7792,
      " GP": 7793,
      "ive": 7794,
      " Van": 7795,
      " Város": 7796,
      "pressz": 7797,
      " iroda": 7798,
      " nyomozást": 7799,
      " színház": 7800,
      " hónapos": 7801,
      " közelebb": 7802,
      " eltávol": 7803,
      "asszony": 7804,
      " gépjármű": 7805,
      " betegek": 7806,
      " fejlesztési": 7807,
      " díja": 7808,
      " sajtótájékoztatóján": 7809,
      " mindenkit": 7810,
      " hálózat": 7811,
      " fokozatosan": 7812,
      " Ú": 7813,
      "76": 7814,
      "??": 7815,
      "git": 7816,
      "lót": 7817,
      "ate": 7818,
      " top": 7819,
      " szovjet": 7820,
      "iság": 7821,
      " eld": 7822,
      " Mor": 7823,
      " felaján": 7824,
      " Ly": 7825,
      "asztott": 7826,
      " DV": 7827,
      "isztikai": 7828,
      " hozták": 7829,
      " munkás": 7830,
      " alaposan": 7831,
      " különféle": 7832,
      " negyeddönt": 7833,
      " katonák": 7834,
      " származású": 7835,
      " igyekszik": 7836,
      "Ebből": 7837,
      " védekezés": 7838,
      " titok": 7839,
      " hozzájárul": 7840,
      " munkanélküliség": 7841,
      " kétharmados": 7842,
      "cionális": 7843,
      " Martin": 7844,
      " Ferrari": 7845,
      "barát": 7846,
      "für": 7847,
      "ponttal": 7848,
      "tál": 7849,
      " av": 7850,
      " hüly": 7851,
      " vont": 7852,
      " vigy": 7853,
      " Mont": 7854,
      " közigazgatási": 7855,
      "izáció": 7856,
      " Bokros": 7857,
      " Audi": 7858,
      " Film": 7859,
      " Ha": 7860,
      " forintba": 7861,
      " intenzív": 7862,
      " kapcsolatok": 7863,
      "ergia": 7864,
      " eléged": 7865,
      " kötvény": 7866,
      " olimpia": 7867,
      " lényegében": 7868,
      " emlékeztetett": 7869,
      " virág": 7870,
      " mindegyik": 7871,
      " közzétett": 7872,
      "bl": 7873,
      " kód": 7874,
      " hű": 7875,
      "eking": 7876,
      "ikák": 7877,
      " bolyg": 7878,
      " szerezni": 7879,
      " Her": 7880,
      "elme": 7881,
      "forr": 7882,
      " rendszerváltás": 7883,
      " értékben": 7884,
      "essék": 7885,
      " tesznek": 7886,
      " változtatás": 7887,
      " utcán": 7888,
      " bírság": 7889,
      " labdát": 7890,
      " katasztrófa": 7891,
      "örnyezet": 7892,
      " demokrácia": 7893,
      "fganisztán": 7894,
      "mind": 7895,
      "mozg": 7896,
      " vizet": 7897,
      " vírus": 7898,
      " leny": 7899,
      "niai": 7900,
      "ságos": 7901,
      "ukk": 7902,
      " Fotó": 7903,
      " érzés": 7904,
      " összesít": 7905,
      " átlát": 7906,
      " áruház": 7907,
      " férj": 7908,
      " feltűn": 7909,
      " határid": 7910,
      "lesztési": 7911,
      " programja": 7912,
      " mozog": 7913,
      " Köztársaság": 7914,
      " nyolcvan": 7915,
      " részletes": 7916,
      " Arany": 7917,
      " fegyveres": 7918,
      "Való": 7919,
      " szellemi": 7920,
      " alkohol": 7921,
      "ivárog": 7922,
      " Bayern": 7923,
      " Színház": 7924,
      "AC": 7925,
      "Később": 7926,
      "RT": 7927,
      "óp": 7928,
      "alíció": 7929,
      " tonna": 7930,
      " főz": 7931,
      " Kam": 7932,
      " helyes": 7933,
      "elmek": 7934,
      "enyi": 7935,
      " látják": 7936,
      " választáson": 7937,
      "járó": 7938,
      "jukat": 7939,
      " hangoz": 7940,
      "ogramm": 7941,
      "ezésű": 7942,
      " határoz": 7943,
      " fizetés": 7944,
      "mail": 7945,
      " érinti": 7946,
      "városban": 7947,
      "orge": 7948,
      " bekövet": 7949,
      " tehetség": 7950,
      " könyvet": 7951,
      "További": 7952,
      " feltehetően": 7953,
      "Érdek": 7954,
      "110": 7955,
      "78": 7956,
      "jához": 7957,
      "kezet": 7958,
      "oba": 7959,
      " meteor": 7960,
      "apja": 7961,
      " megköt": 7962,
      " kifogás": 7963,
      "oton": 7964,
      " állomány": 7965,
      " Telek": 7966,
      " Lak": 7967,
      "obban": 7968,
      " úgyhogy": 7969,
      " időjár": 7970,
      " betart": 7971,
      " személyesen": 7972,
      "ömb": 7973,
      " kérdésére": 7974,
      " hátra": 7975,
      " mértékű": 7976,
      " kifejtette": 7977,
      " hitelt": 7978,
      " kategóriában": 7979,
      "onso": 7980,
      " Alapítvány": 7981,
      "echan": 7982,
      "mez": 7983,
      "ré": 7984,
      "reg": 7985,
      "ésbe": 7986,
      " lámp": 7987,
      " eladás": 7988,
      "utaz": 7989,
      " csú": 7990,
      " Münch": 7991,
      " gyönyör": 7992,
      "202": 7993,
      " vala": 7994,
      "asztalt": 7995,
      "ításban": 7996,
      " magával": 7997,
      "ünkben": 7998,
      " illeti": 7999,
      " ügyek": 8000,
      " játssz": 8001,
      " kezdet": 8002,
      " céget": 8003,
      " főnök": 8004,
      " sajtóügyelet": 8005,
      " helyszínre": 8006,
      " érvényben": 8007,
      " nehezebb": 8008,
      " Liga": 8009,
      "Először": 8010,
      " NATO": 8011,
      " ös": 8012,
      "lel": 8013,
      "vit": 8014,
      " szokatlan": 8015,
      "emelked": 8016,
      "aza": 8017,
      " kicsi": 8018,
      " korai": 8019,
      " előrel": 8020,
      " rendben": 8021,
      "vezetők": 8022,
      "őtől": 8023,
      "közép": 8024,
      " gyereket": 8025,
      " határon": 8026,
      "telenség": 8027,
      " ajánlott": 8028,
      " ellentmond": 8029,
      " küszöb": 8030,
      " Párizs": 8031,
      "-ot": 8032,
      "gő": 8033,
      "já": 8034,
      "kil": 8035,
      "szül": 8036,
      "anul": 8037,
      "ekció": 8038,
      " publik": 8039,
      " sét": 8040,
      " Mot": 8041,
      " kiszám": 8042,
      "index": 8043,
      " gomb": 8044,
      "abizt": 8045,
      "eszköz": 8046,
      " érett": 8047,
      "őről": 8048,
      " Szolg": 8049,
      "ábla": 8050,
      " világban": 8051,
      " világszerte": 8052,
      " tagok": 8053,
      " törvények": 8054,
      "vezér": 8055,
      " Magyarországra": 8056,
      " eltűnt": 8057,
      " elsőként": 8058,
      " könnyed": 8059,
      " utcában": 8060,
      " szépen": 8061,
      "oldalú": 8062,
      " információi": 8063,
      " szervezők": 8064,
      " interjúban": 8065,
      " Spanyolország": 8066,
      "-be": 8067,
      "ESZ": 8068,
      "aci": 8069,
      "gyógy": 8070,
      "ásból": 8071,
      "edő": 8072,
      "astr": 8073,
      " Mik": 8074,
      " FI": 8075,
      " Fid": 8076,
      "olgár": 8077,
      " terén": 8078,
      "órás": 8079,
      " részesed": 8080,
      " üres": 8081,
      " kéri": 8082,
      " váltó": 8083,
      " különadó": 8084,
      " bajnokságban": 8085,
      " sikerrel": 8086,
      " Index": 8087,
      " tavaszi": 8088,
      " Simon": 8089,
      " megszokott": 8090,
      "-ből": 8091,
      "96": 8092,
      "Bal": 8093,
      "aja": 8094,
      "rang": 8095,
      "uenz": 8096,
      "inho": 8097,
      " elenged": 8098,
      " jók": 8099,
      "ékek": 8100,
      " szerény": 8101,
      " közelm": 8102,
      " feles": 8103,
      " Reg": 8104,
      " részére": 8105,
      "kelet": 8106,
      "telenek": 8107,
      " valamivel": 8108,
      " főigazgató": 8109,
      " órát": 8110,
      " szerzője": 8111,
      " hónapokban": 8112,
      " irányító": 8113,
      " megtám": 8114,
      " hallott": 8115,
      "jétől": 8116,
      " Nyír": 8117,
      " tetszik": 8118,
      " vegyes": 8119,
      " felülvizsgál": 8120,
      "fordult": 8121,
      " települések": 8122,
      " forradalom": 8123,
      " jóváhagy": 8124,
      " államháztartási": 8125,
      "zsébet": 8126,
      " háló": 8127,
      " szeg": 8128,
      " szök": 8129,
      "ólyom": 8130,
      " lehető": 8131,
      " összegyűjt": 8132,
      " munkak": 8133,
      " indít": 8134,
      "ácsi": 8135,
      "vándor": 8136,
      " bizonyult": 8137,
      "ardo": 8138,
      " bűnös": 8139,
      " parlamentben": 8140,
      " készültség": 8141,
      " nyerni": 8142,
      " XV": 8143,
      " strukt": 8144,
      "elikop": 8145,
      " tartalmazza": 8146,
      " sorozatban": 8147,
      " térségben": 8148,
      " börtönbüntet": 8149,
      " beszámolt": 8150,
      " ritka": 8151,
      " Televízió": 8152,
      "HL": 8153,
      "bo": 8154,
      "bal": 8155,
      "sej": 8156,
      "tőzs": 8157,
      "etro": 8158,
      " tönk": 8159,
      " szank": 8160,
      "ile": 8161,
      " Mű": 8162,
      " felszín": 8163,
      "áma": 8164,
      " Sal": 8165,
      "usa": 8166,
      " Fed": 8167,
      " deficit": 8168,
      " számon": 8169,
      " Ronald": 8170,
      " százezer": 8171,
      " napos": 8172,
      " ennyire": 8173,
      " eredményeket": 8174,
      " kerülő": 8175,
      "számú": 8176,
      " hozzáfér": 8177,
      " eltilt": 8178,
      " hiányzik": 8179,
      " Közép": 8180,
      " utóbb": 8181,
      " pillanatban": 8182,
      " zajlik": 8183,
      " rámutat": 8184,
      " legnép": 8185,
      " párhuzam": 8186,
      " közelmúlt": 8187,
      " ás": 8188,
      "ire": 8189,
      "ísér": 8190,
      "aty": 8191,
      "apor": 8192,
      " megenged": 8193,
      " dupl": 8194,
      "aid": 8195,
      " felvon": 8196,
      " leáll": 8197,
      " Fut": 8198,
      " Demokr": 8199,
      " stáb": 8200,
      " regionális": 8201,
      " mozdul": 8202,
      " igazgatóság": 8203,
      " edzés": 8204,
      " köszönhető": 8205,
      " bővül": 8206,
      "olcsy": 8207,
      " éjszakai": 8208,
      " kaland": 8209,
      "veszélyes": 8210,
      " Igazgatóság": 8211,
      "74": 8212,
      "aink": 8213,
      "hit": 8214,
      "német": 8215,
      "páros": 8216,
      "xc": 8217,
      "óf": 8218,
      " asz": 8219,
      " keny": 8220,
      "eges": 8221,
      " deleg": 8222,
      " Sar": 8223,
      " végki": 8224,
      " hétvégi": 8225,
      " elmaradt": 8226,
      "prom": 8227,
      "ational": 8228,
      " fejezte": 8229,
      " versenykép": 8230,
      " forgatás": 8231,
      " hallgató": 8232,
      " elhang": 8233,
      "pénztár": 8234,
      "iskola": 8235,
      "forgalom": 8236,
      "árkóz": 8237,
      " gyűl": 8238,
      " banki": 8239,
      " stratégiai": 8240,
      " ázsiai": 8241,
      "05": 8242,
      "Hason": 8243,
      "kur": 8244,
      "park": 8245,
      "th": 8246,
      "álogatott": 8247,
      "ánnyal": 8248,
      " porn": 8249,
      "igazd": 8250,
      " lehessen": 8251,
      " Seb": 8252,
      " Kanad": 8253,
      " bevet": 8254,
      " szerintük": 8255,
      " GB": 8256,
      " Ott": 8257,
      "vezetés": 8258,
      "ergom": 8259,
      " szavazás": 8260,
      " folyamán": 8261,
      " tájékoztatott": 8262,
      " emelkedik": 8263,
      "politika": 8264,
      " indokolta": 8265,
      "ancouver": 8266,
      " öltöz": 8267,
      " minimális": 8268,
      " ideiglen": 8269,
      "gondol": 8270,
      " Malév": 8271,
      " megalapozott": 8272,
      "Kapusok": 8273,
      " ejt": 8274,
      "77": 8275,
      "gyár": 8276,
      "olid": 8277,
      "okol": 8278,
      "adták": 8279,
      " csek": 8280,
      " felek": 8281,
      " felület": 8282,
      " Sc": 8283,
      " Kossuth": 8284,
      "udit": 8285,
      " Ger": 8286,
      "korcs": 8287,
      "che": 8288,
      " szemét": 8289,
      " írták": 8290,
      "andr": 8291,
      " méretű": 8292,
      " amerikaiak": 8293,
      " kivon": 8294,
      " feltár": 8295,
      " Christ": 8296,
      "alifor": 8297,
      "lakát": 8298,
      " lemez": 8299,
      "vájc": 8300,
      " vadász": 8301,
      " riaszt": 8302,
      " látványos": 8303,
      " Krisztián": 8304,
      "exikói": 8305,
      " Gabri": 8306,
      "arketing": 8307,
      "Na": 8308,
      "Pént": 8309,
      "piaci": 8310,
      " vám": 8311,
      "omat": 8312,
      " Bak": 8313,
      " Afganisztán": 8314,
      "erték": 8315,
      " Li": 8316,
      " magatart": 8317,
      " napra": 8318,
      "190": 8319,
      " készen": 8320,
      " mérnök": 8321,
      " Ákos": 8322,
      " ittas": 8323,
      " párizsi": 8324,
      " tisztában": 8325,
      " programok": 8326,
      " ítélte": 8327,
      " bejelentés": 8328,
      " egyensúly": 8329,
      " megmutat": 8330,
      " elbeszél": 8331,
      " stratégi": 8332,
      " eng": 8333,
      "bolt": 8334,
      "lagy": 8335,
      " szektor": 8336,
      "álint": 8337,
      "arvas": 8338,
      " bocs": 8339,
      "csat": 8340,
      " csoda": 8341,
      " kipr": 8342,
      "özi": 8343,
      " többlet": 8344,
      " Irán": 8345,
      " Japán": 8346,
      " integr": 8347,
      " szóba": 8348,
      " javul": 8349,
      "óbált": 8350,
      " euróval": 8351,
      " nézni": 8352,
      " legyenek": 8353,
      " hazaiak": 8354,
      "álasztási": 8355,
      "művész": 8356,
      "művészeti": 8357,
      " kevesebbet": 8358,
      " láttam": 8359,
      " okozhat": 8360,
      " mobiltel": 8361,
      " hozzájár": 8362,
      " simán": 8363,
      "December": 8364,
      "Ut": 8365,
      "jére": 8366,
      "mában": 8367,
      "motor": 8368,
      "tük": 8369,
      "ítsa": 8370,
      " köszönt": 8371,
      " Hagyó": 8372,
      " argentin": 8373,
      "járat": 8374,
      "lődött": 8375,
      " Ukraj": 8376,
      " vélte": 8377,
      " győzelmet": 8378,
      " gondolja": 8379,
      "heim": 8380,
      " tapasztalt": 8381,
      "ennyire": 8382,
      " unió": 8383,
      " állítják": 8384,
      " meghaladja": 8385,
      " finanszírozás": 8386,
      " közzé": 8387,
      " monetáris": 8388,
      " Phil": 8389,
      " vidéki": 8390,
      " Honvéd": 8391,
      " Apple": 8392,
      " ék": 8393,
      "900": 8394,
      "Jól": 8395,
      "hár": 8396,
      "kert": 8397,
      "lo": 8398,
      "éch": 8399,
      " kincs": 8400,
      "akadt": 8401,
      "osa": 8402,
      " egyrészt": 8403,
      "edi": 8404,
      "itu": 8405,
      " Kecskem": 8406,
      " Hold": 8407,
      " Lad": 8408,
      " tartalm": 8409,
      "jelöl": 8410,
      " vezetése": 8411,
      "anda": 8412,
      " személygép": 8413,
      " mentők": 8414,
      " foglalkoztat": 8415,
      " arányban": 8416,
      " fellebb": 8417,
      " tizenöt": 8418,
      " idézte": 8419,
      " riport": 8420,
      "közelebb": 8421,
      " takarék": 8422,
      " véletlenül": 8423,
      " agressz": 8424,
      "ékesfehérvár": 8425,
      "-nyugdíjpénztári": 8426,
      "99": 8427,
      "nám": 8428,
      "rov": 8429,
      "rték": 8430,
      "Ők": 8431,
      "elejt": 8432,
      "aná": 8433,
      " vét": 8434,
      " szür": 8435,
      " megism": 8436,
      " Marc": 8437,
      " leány": 8438,
      " Bo": 8439,
      " Svéd": 8440,
      "inda": 8441,
      " gyök": 8442,
      " állást": 8443,
      " Lázár": 8444,
      "ósok": 8445,
      "ennel": 8446,
      " munkáltató": 8447,
      " ugyanúgy": 8448,
      " Zala": 8449,
      " dolgot": 8450,
      " eredményei": 8451,
      "160": 8452,
      "140": 8453,
      " Nagydíj": 8454,
      " fogyasztói": 8455,
      " Brüsszel": 8456,
      " hetekben": 8457,
      " nyelvű": 8458,
      " aggod": 8459,
      "edves": 8460,
      " szereplők": 8461,
      "szerkezet": 8462,
      "ouse": 8463,
      " digitális": 8464,
      "350": 8465,
      "eim": 8466,
      "lottak": 8467,
      "sik": 8468,
      "táv": 8469,
      " me": 8470,
      "ekbe": 8471,
      "onnyal": 8472,
      " foc": 8473,
      "egyi": 8474,
      "itz": 8475,
      " csel": 8476,
      " Sy": 8477,
      " nyel": 8478,
      " évszázad": 8479,
      " voltunk": 8480,
      " jelkép": 8481,
      " mára": 8482,
      "ódni": 8483,
      " szakma": 8484,
      " váltott": 8485,
      " kezdték": 8486,
      "rian": 8487,
      " mentén": 8488,
      " kitör": 8489,
      " eltelt": 8490,
      " utoljára": 8491,
      " zsír": 8492,
      " Isten": 8493,
      " figyelmét": 8494,
      "lack": 8495,
      " többiek": 8496,
      " gyengébb": 8497,
      " szoros": 8498,
      " meggyőző": 8499,
      " büdzs": 8500,
      " Akad": 8501,
      "öltségvet": 8502,
      "hálóz": 8503,
      "lánc": 8504,
      "szob": 8505,
      "eld": 8506,
      " tün": 8507,
      "ekul": 8508,
      " pop": 8509,
      "ülni": 8510,
      "ülöp": 8511,
      "ilton": 8512,
      " megmond": 8513,
      "uly": 8514,
      "jainak": 8515,
      " kip": 8516,
      " Fr": 8517,
      " korában": 8518,
      "ange": 8519,
      " sorban": 8520,
      " férje": 8521,
      " kezdtek": 8522,
      " park": 8523,
      "ubl": 8524,
      " maradvány": 8525,
      " jegyezték": 8526,
      " használja": 8527,
      " érkeztek": 8528,
      "lini": 8529,
      " novemberi": 8530,
      " formájában": 8531,
      " Ferencváros": 8532,
      " tévé": 8533,
      " ősszel": 8534,
      " áldozata": 8535,
      " székhely": 8536,
      " próbált": 8537,
      " résztvevő": 8538,
      "remű": 8539,
      " önkéntes": 8540,
      " legrosszabb": 8541,
      "szkij": 8542,
      " besor": 8543,
      " törvényjavaslat": 8544,
      "73": 8545,
      "vers": 8546,
      " tax": 8547,
      " tenisz": 8548,
      "ésből": 8549,
      " elfel": 8550,
      " pedagóg": 8551,
      "agan": 8552,
      " évad": 8553,
      " korosztály": 8554,
      " Cor": 8555,
      " kapac": 8556,
      " képek": 8557,
      " inter": 8558,
      " karakter": 8559,
      "ötő": 8560,
      " vizsgálják": 8561,
      " térkép": 8562,
      " januári": 8563,
      "Elmond": 8564,
      " folytatta": 8565,
      " elhal": 8566,
      " balesetet": 8567,
      " hetedik": 8568,
      "ossá": 8569,
      " biztonságos": 8570,
      " diákok": 8571,
      " énekesnő": 8572,
      " kellemetlen": 8573,
      "demokrata": 8574,
      "Kedden": 8575,
      "Volt": 8576,
      "Vélemény": 8577,
      "kát": 8578,
      "lor": 8579,
      "tör": 8580,
      "óv": 8581,
      " rov": 8582,
      "omas": 8583,
      "ázat": 8584,
      " közremű": 8585,
      " korszerű": 8586,
      " Rog": 8587,
      " zak": 8588,
      " alapon": 8589,
      " országokban": 8590,
      " órával": 8591,
      " halála": 8592,
      " válaszolt": 8593,
      "frikai": 8594,
      " bőven": 8595,
      " fenyeg": 8596,
      " igazságügyi": 8597,
      " televíziós": 8598,
      " közbeszerzési": 8599,
      "ternatív": 8600,
      "Népszabadság": 8601,
      "dí": 8602,
      "rot": 8603,
      "üd": 8604,
      "enék": 8605,
      " vol": 8606,
      "álása": 8607,
      " sülly": 8608,
      "ségének": 8609,
      " felsor": 8610,
      "ida": 8611,
      " Sopron": 8612,
      "odell": 8613,
      " képerny": 8614,
      " nézet": 8615,
      " esetekben": 8616,
      " iráni": 8617,
      " melletti": 8618,
      " Aleksz": 8619,
      " találkozott": 8620,
      " gyermekek": 8621,
      " akarták": 8622,
      " említette": 8623,
      " ülésen": 8624,
      " bukkan": 8625,
      " kilométerre": 8626,
      " mezőgazdasági": 8627,
      " levelet": 8628,
      " bevásár": 8629,
      " elismerte": 8630,
      " érzem": 8631,
      "údió": 8632,
      "-bajnokság": 8633,
      " legyőzte": 8634,
      " autópálya": 8635,
      " átmeneti": 8636,
      " várakozás": 8637,
      " München": 8638,
      "Lar": 8639,
      "ien": 8640,
      "mát": 8641,
      "nai": 8642,
      " katal": 8643,
      "atmár": 8644,
      "ement": 8645,
      " megind": 8646,
      " Mo": 8647,
      " Bu": 8648,
      " előáll": 8649,
      "óst": 8650,
      "árton": 8651,
      " Vörös": 8652,
      " tudok": 8653,
      " vonz": 8654,
      " összefoglal": 8655,
      " piacra": 8656,
      " fordulójában": 8657,
      " jelöltje": 8658,
      " aligha": 8659,
      " gazdálkod": 8660,
      " ellop": 8661,
      " kárty": 8662,
      " fizikai": 8663,
      " információt": 8664,
      " sértett": 8665,
      " büntetőel": 8666,
      " debrec": 8667,
      " Twitter": 8668,
      " tizenkét": 8669,
      "Január": 8670,
      "Hétfőn": 8671,
      " legnépszerűbb": 8672,
      "79": 8673,
      "New": 8674,
      "Sem": 8675,
      "lések": 8676,
      "ped": 8677,
      "xe": 8678,
      "száll": 8679,
      "erre": 8680,
      " tonn": 8681,
      " sztor": 8682,
      " fesztivál": 8683,
      " megél": 8684,
      " Már": 8685,
      " Kál": 8686,
      " évesen": 8687,
      " Pann": 8688,
      " cukor": 8689,
      " előterjeszt": 8690,
      " számítás": 8691,
      "kezik": 8692,
      "ítással": 8693,
      " III": 8694,
      " élen": 8695,
      " szembe": 8696,
      " egyikük": 8697,
      " nevében": 8698,
      " félév": 8699,
      " nyomás": 8700,
      " védett": 8701,
      "esebben": 8702,
      " filmben": 8703,
      " játszó": 8704,
      " partn": 8705,
      " náluk": 8706,
      " könyve": 8707,
      "pótlás": 8708,
      " Toyota": 8709,
      " Dániel": 8710,
      " végkielég": 8711,
      "OL": 8712,
      "Velvet": 8713,
      "lén": 8714,
      "radó": 8715,
      "sort": 8716,
      "eser": 8717,
      " pál": 8718,
      " Műv": 8719,
      "air": 8720,
      "szervez": 8721,
      "özik": 8722,
      " Vide": 8723,
      " magabizt": 8724,
      " újdon": 8725,
      " ugyanolyan": 8726,
      "osszolg": 8727,
      " igazolt": 8728,
      " fejezet": 8729,
      " jelenik": 8730,
      " jegyezte": 8731,
      " hatáskör": 8732,
      " meglévő": 8733,
      " információkat": 8734,
      " kerületben": 8735,
      " szélsőséges": 8736,
      " Richter": 8737,
      " Qu": 8738,
      " diplomáciai": 8739,
      "lagyimir": 8740,
      "Rem": 8741,
      "zárkóz": 8742,
      " hid": 8743,
      "esk": 8744,
      "ise": 8745,
      " megír": 8746,
      " közgazd": 8747,
      " közszolgálati": 8748,
      " felét": 8749,
      " felől": 8750,
      " Kép": 8751,
      " helyére": 8752,
      " Cz": 8753,
      "kalm": 8754,
      " mondják": 8755,
      " képzés": 8756,
      " választotta": 8757,
      " kezdő": 8758,
      " várni": 8759,
      " találni": 8760,
      " kívánt": 8761,
      " kitart": 8762,
      " perces": 8763,
      " góllal": 8764,
      " népszavaz": 8765,
      "liában": 8766,
      " ismertet": 8767,
      " fordított": 8768,
      " utasok": 8769,
      " támogatottság": 8770,
      " kezdődő": 8771,
      " import": 8772,
      " tervezi": 8773,
      " kiny": 8774,
      " normális": 8775,
      " virradó": 8776,
      " jótékony": 8777,
      "Vasárnap": 8778,
      " Andrea": 8779,
      " debreceni": 8780,
      "\".": 8781,
      "-féle": 8782,
      "81": 8783,
      "84": 8784,
      "Dr": 8785,
      "negyed": 8786,
      "sák": 8787,
      "vevő": 8788,
      " vész": 8789,
      " elárul": 8790,
      " sör": 8791,
      " Mind": 8792,
      "nyék": 8793,
      " alternatív": 8794,
      " bebizony": 8795,
      "odtak": 8796,
      " ger": 8797,
      "attan": 8798,
      " Hajdú": 8799,
      " Dev": 8800,
      " végeztek": 8801,
      "cher": 8802,
      " összességében": 8803,
      "éstől": 8804,
      "közlési": 8805,
      "icz": 8806,
      "SZÁ": 8807,
      " kerest": 8808,
      "oham": 8809,
      " maradék": 8810,
      " vesznek": 8811,
      "ezésére": 8812,
      "Csütörtök": 8813,
      "270": 8814,
      " ítélték": 8815,
      "afr": 8816,
      " büntetés": 8817,
      " nyitva": 8818,
      " látták": 8819,
      " szakaszán": 8820,
      " Ön": 8821,
      " kommunista": 8822,
      " tájékoztatást": 8823,
      "oszkvai": 8824,
      " produc": 8825,
      "hiány": 8826,
      " szórak": 8827,
      " palesztin": 8828,
      "Vagyis": 8829,
      " levélben": 8830,
      " Oscar": 8831,
      " műtét": 8832,
      "hullám": 8833,
      " szivatty": 8834,
      "Utóbbi": 8835,
      "-hoz": 8836,
      "Hol": 8837,
      "nali": 8838,
      "áva": 8839,
      "alit": 8840,
      "emen": 8841,
      "ish": 8842,
      " eljut": 8843,
      "ozdul": 8844,
      " ref": 8845,
      "aga": 8846,
      " ezren": 8847,
      " jelzi": 8848,
      " előd": 8849,
      " EP": 8850,
      " Ez": 8851,
      " érez": 8852,
      " milliót": 8853,
      "őztes": 8854,
      " kisgy": 8855,
      " Webb": 8856,
      " életet": 8857,
      "terv": 8858,
      " következett": 8859,
      " házigazd": 8860,
      " megszület": 8861,
      " tulajdonképpen": 8862,
      " zsák": 8863,
      " eszm": 8864,
      " magánszemély": 8865,
      " üzletember": 8866,
      " imád": 8867,
      " szolgáltatások": 8868,
      "acher": 8869,
      "Sokan": 8870,
      " résztvev": 8871,
      " Portugál": 8872,
      " valahogy": 8873,
      " benyújtott": 8874,
      "utyin": 8875,
      " ek": 8876,
      "kán": 8877,
      "lav": 8878,
      "uha": 8879,
      "éc": 8880,
      "űri": 8881,
      " véve": 8882,
      " szégy": 8883,
      "olását": 8884,
      "are": 8885,
      "arak": 8886,
      " megfizet": 8887,
      " div": 8888,
      " Mária": 8889,
      " felejt": 8890,
      "hatna": 8891,
      " állítani": 8892,
      " Vill": 8893,
      "ehéz": 8894,
      " azonnali": 8895,
      " épült": 8896,
      " választották": 8897,
      " árver": 8898,
      " hozzájuk": 8899,
      "viselők": 8900,
      " dolgokat": 8901,
      " biztosítani": 8902,
      "mitt": 8903,
      " nézve": 8904,
      " zseb": 8905,
      " részleteket": 8906,
      " iskolai": 8907,
      " balesetben": 8908,
      " kultúra": 8909,
      " listát": 8910,
      " teljesítménye": 8911,
      " térségében": 8912,
      "kereszt": 8913,
      "udományi": 8914,
      " automatikus": 8915,
      " búcsúz": 8916,
      " potenci": 8917,
      " gyönyörű": 8918,
      " valaha": 8919,
      "Hasonló": 8920,
      "échenyi": 8921,
      "71": 8922,
      "Jel": 8923,
      "KA": 8924,
      "Kovács": 8925,
      "Mond": 8926,
      "SV": 8927,
      "bázis": 8928,
      "lit": 8929,
      "nan": 8930,
      "ele": 8931,
      "eth": 8932,
      " hold": 8933,
      "olasz": 8934,
      " elterj": 8935,
      " rász": 8936,
      "rei": 8937,
      "eját": 8938,
      " erők": 8939,
      "ításokat": 8940,
      " átadás": 8941,
      " kezelni": 8942,
      " jogok": 8943,
      "ltal": 8944,
      "tatása": 8945,
      " Alonso": 8946,
      " változások": 8947,
      " tekintetében": 8948,
      " gyűjtemény": 8949,
      " titkosszolg": 8950,
      " jönnek": 8951,
      "arlós": 8952,
      " fontosság": 8953,
      " munkavállalók": 8954,
      " Nyomozó": 8955,
      " Lengyelország": 8956,
      "ollywood": 8957,
      " •": 8958,
      "For": 8959,
      "iás": 8960,
      "kutató": 8961,
      " moszkvai": 8962,
      "alista": 8963,
      " elérte": 8964,
      " eleve": 8965,
      " püspök": 8966,
      " selejt": 8967,
      "ények": 8968,
      " kiadó": 8969,
      "öngy": 8970,
      " Kelet": 8971,
      " rendelt": 8972,
      " EB": 8973,
      " helye": 8974,
      " magunk": 8975,
      " átlép": 8976,
      " Op": 8977,
      " államok": 8978,
      "rip": 8979,
      " területeken": 8980,
      "uhász": 8981,
      " tényező": 8982,
      " halálát": 8983,
      " ünnepi": 8984,
      " olimpián": 8985,
      "örténeti": 8986,
      " lényegesen": 8987,
      " szerencsétlen": 8988,
      " telefonon": 8989,
      " szárny": 8990,
      " Ildik": 8991,
      " főtitk": 8992,
      " főszereplő": 8993,
      "----": 8994,
      " hektár": 8995,
      " köbméter": 8996,
      "Közben": 8997,
      "bur": 8998,
      "nője": 8999,
      "sá": 9000,
      "uny": 9001,
      "első": 9002,
      " hasz": 9003,
      " teng": 9004,
      "ikával": 9005,
      "osnak": 9006,
      "ségre": 9007,
      "rai": 9008,
      "elle": 9009,
      "ello": 9010,
      " Tur": 9011,
      " tudtuk": 9012,
      " törzs": 9013,
      " összesz": 9014,
      " műszer": 9015,
      " kezében": 9016,
      "jelző": 9017,
      "ikusan": 9018,
      "ászár": 9019,
      "utóbb": 9020,
      " jogsért": 9021,
      " életében": 9022,
      " vonatok": 9023,
      " feltölt": 9024,
      "acing": 9025,
      " területek": 9026,
      " felhábor": 9027,
      " németek": 9028,
      " tekinthető": 9029,
      "pálya": 9030,
      " viszonyítva": 9031,
      " Hírügynökség": 9032,
      "-három": 9033,
      " Románi": 9034,
      " legkisebb": 9035,
      " vitték": 9036,
      " iránti": 9037,
      " felmerült": 9038,
      " Fejlesztési": 9039,
      " merénylet": 9040,
      "kapitány": 9041,
      "lán": 9042,
      "áh": 9043,
      "els": 9044,
      " tét": 9045,
      "árak": 9046,
      " seh": 9047,
      "apt": 9048,
      " csinált": 9049,
      " Mic": 9050,
      " felment": 9051,
      "izód": 9052,
      " Ast": 9053,
      " Ausztri": 9054,
      " graf": 9055,
      " jelek": 9056,
      " elődöntő": 9057,
      " Liverpo": 9058,
      " Dzs": 9059,
      "cht": 9060,
      " Szoci": 9061,
      " művel": 9062,
      " talp": 9063,
      "prof": 9064,
      "kodni": 9065,
      " méret": 9066,
      " konstr": 9067,
      " maradtak": 9068,
      " órától": 9069,
      " stadion": 9070,
      " ismeri": 9071,
      " nézett": 9072,
      "ardi": 9073,
      " testi": 9074,
      " munkaügyi": 9075,
      " feladatok": 9076,
      " fokozott": 9077,
      " folyamatban": 9078,
      " mértéke": 9079,
      " Iroda": 9080,
      " forgatókönyv": 9081,
      " ital": 9082,
      "!\"": 9083,
      "-G": 9084,
      "VG": 9085,
      " kre": 9086,
      " foci": 9087,
      "akk": 9088,
      " alp": 9089,
      " Vettel": 9090,
      " Választási": 9091,
      " munkája": 9092,
      " mindenesetre": 9093,
      " ür": 9094,
      " elsőfokú": 9095,
      " váltak": 9096,
      " pénzintézet": 9097,
      " fejlett": 9098,
      "rendű": 9099,
      " visszafog": 9100,
      " képviselet": 9101,
      " autóbusz": 9102,
      " forgalmi": 9103,
      "Szerencs": 9104,
      " helyettes": 9105,
      "nyugati": 9106,
      " kísért": 9107,
      " vonatkozik": 9108,
      " egészségügy": 9109,
      " bérlet": 9110,
      " fedél": 9111,
      " profit": 9112,
      "Emlék": 9113,
      " kalóz": 9114,
      " étterem": 9115,
      " kiemelkedő": 9116,
      "Szerintem": 9117,
      " kontinens": 9118,
      "Tiz": 9119,
      "ling": 9120,
      "zy": 9121,
      "Év": 9122,
      " mekkora": 9123,
      " szur": 9124,
      "ülése": 9125,
      " rádi": 9126,
      " megnyug": 9127,
      "entrál": 9128,
      "ámadás": 9129,
      "ciókat": 9130,
      " Egészség": 9131,
      " Cam": 9132,
      " nagyszerű": 9133,
      " Rák": 9134,
      " élők": 9135,
      "kedett": 9136,
      " kism": 9137,
      "ózás": 9138,
      " árak": 9139,
      "esítő": 9140,
      "ekedés": 9141,
      "portál": 9142,
      " egészében": 9143,
      " gondot": 9144,
      " rendszeres": 9145,
      " vélhetően": 9146,
      " lépést": 9147,
      " helyzete": 9148,
      " könnyebben": 9149,
      "front": 9150,
      " pályázati": 9151,
      " villany": 9152,
      " doboz": 9153,
      " megállapodást": 9154,
      " idézi": 9155,
      " Ligája": 9156,
      " torna": 9157,
      " produkció": 9158,
      "hasson": 9159,
      " sérüléseket": 9160,
      " megnyerte": 9161,
      " Ír": 9162,
      " lendület": 9163,
      "Fontos": 9164,
      "Igen": 9165,
      "lus": 9166,
      "xid": 9167,
      "áinak": 9168,
      " hig": 9169,
      " hód": 9170,
      " hird": 9171,
      " hvg": 9172,
      " szál": 9173,
      "arap": 9174,
      "csics": 9175,
      " ret": 9176,
      " dek": 9177,
      " Ko": 9178,
      " beép": 9179,
      " Ausztrál": 9180,
      "ukle": 9181,
      "over": 9182,
      " legközelebb": 9183,
      "ükre": 9184,
      " Rol": 9185,
      " részében": 9186,
      " napok": 9187,
      " We": 9188,
      " csapatt": 9189,
      " kilép": 9190,
      " képviselőjelölt": 9191,
      " vásárol": 9192,
      "aktérium": 9193,
      " szakaszon": 9194,
      " megbízható": 9195,
      " vereséget": 9196,
      " megkérdezett": 9197,
      " követte": 9198,
      " Fehérvár": 9199,
      " legendás": 9200,
      "óczi": 9201,
      "Szabó": 9202,
      " Telekom": 9203,
      " mobiltelefon": 9204,
      "82": 9205,
      "hős": 9206,
      "mar": 9207,
      "pi": 9208,
      "zá": 9209,
      " szörny": 9210,
      " meglát": 9211,
      "intén": 9212,
      "ogn": 9213,
      " Békés": 9214,
      " Sem": 9215,
      " Kop": 9216,
      " beind": 9217,
      " álltak": 9218,
      " Ford": 9219,
      " Gi": 9220,
      " Gre": 9221,
      " adatait": 9222,
      "aszk": 9223,
      " élvonal": 9224,
      "őtlen": 9225,
      " sorrend": 9226,
      " szintet": 9227,
      " tárc": 9228,
      " vállalt": 9229,
      "ezéssel": 9230,
      " szavazó": 9231,
      " működött": 9232,
      " anyagot": 9233,
      " dollárral": 9234,
      " feltételek": 9235,
      " próbálja": 9236,
      " mozgás": 9237,
      " szerencsére": 9238,
      " visszavág": 9239,
      "Arról": 9240,
      "oody": 9241,
      " Richard": 9242,
      " őszi": 9243,
      "ereskedelmi": 9244,
      " bemutatkoz": 9245,
      "uvent": 9246,
      " sajtóügyeletese": 9247,
      "afrikai": 9248,
      " öl": 9249,
      "91": 9250,
      "br": 9251,
      "gl": 9252,
      "jeként": 9253,
      "puszt": 9254,
      "öh": 9255,
      " tür": 9256,
      " váz": 9257,
      "ésén": 9258,
      "emi": 9259,
      " figur": 9260,
      " noha": 9261,
      "oka": 9262,
      "ikum": 9263,
      " bő": 9264,
      "íthatatlan": 9265,
      " egyez": 9266,
      " nemi": 9267,
      "ulhat": 9268,
      "oth": 9269,
      "ago": 9270,
      " uj": 9271,
      " tele": 9272,
      "lanak": 9273,
[...]
