#version: 0.2
  क
े  
ी  
ा  
र  
। 

े ं
  स
  म
 क े 
् र
ा र
  प
ा न
  ह
ो ं
न े 
ि य
 क ी 
र ्
ो  
् य
ा ल
  ब
स ्
ै ।

  ज
ि क
ा  क
ा ं
  र
ा  ह
ि ल
  द
ा य
ा म
क ्
न े
 क ो 
  व
औ र 
ा ।

  अ
स े 
ल ि
ा र 
 स े 
ै ं
  ल
इ स
 क ा 
  न
 क र
ि त
ा त
ा द
  ने 
  ग
 क ो
  भ
ा ज
ी  ह
  आ
  त
प ्र
े श
े  ह
ी ं
र ह
ि न
ि ं
िय ा 
ा स
  और 
  श
 क ि
ा व
ो ग
क े 
क र 
 प र 
उ न
ी ।

प ु
ि व
लि ए
 प ्र
ल े
ा ह
  ए
ा ई
ी  म
त ि
ा क ि
त ्
  च
ी  क
ैं ।

  य
न ा 
क् ष
प र 
 के  लिए
् ट
ा थ
 के  स
व ि
 के  ब
भ ी 
ग य
ा इ
ु र
े  क
 क र 
े ।

् व
ा ए
र ो
  थ
  उ
र  म
ल े 
ि स
् ह
ा  म
ं त
ं द
 र ह
ा ,
व ाल
 क ह
् म
त े ह
त ा 
ा ग
स् ट
ी  स
र ी
ं ग
लि स
ा ब
े ट
प ह
  फ
ु न
् त
र् म
े ल
ि श
स् त
प र
ज न
ए क
उन ्ह
ड ़
द ्
ु ल
  ड
क ार
ी न
ा  स
स् थ
् ल
  ख
ी य
ं ड
 ह ो
ी  ब
ु ं
द ेश
ु क
2 0
  ट
ा प
ि र
  इ
द े
ल ग
 क िया 
त ाय
 न ह
प ी
ग ्र
 ह ु
ा  थ
ी म
ु म
य ह
ा क
् ष
 व ि
प ू
ध िक
ग ई
े स
न ि
अ प
ो न
ं ब
ा ह ै
े  म
क् ट
र  क
ी ,
ी त
 के स ाथ
 स म
ौ र
ब ताय
. 

स र
स म
 ए क
ा  ज
 के ब ाद
े ज
श न
 ह ो 
न ह
ार ्
स ी
ंत ्र
ध ्य
ा  के 
पु लिस
ो ल
ओ ं
व ह
  इस
ा  रह
 म ह
र् ट
 भ ी 
 प ह
उ स
ने  कह
़ ा
े क
 क िय
ार ्य
व ार
ी  के 
ु प
ु ए
ा फ
ो ट
े त
म ु
र ाज
ार ी 
  घ
े र
ा ओं
ै ,
् च
न ी 
ार त
क ी 
 स ्
ा  की 
ने  वाल
ान े
अ न
 स ं
ा श
 ल ग
ू र
ि ए
 म िल
र् व
े न
ी  की 
ं ट
रो प
ि ट
 त क
ी ट
बताय ा कि
र् ज
त ा ह
् स
ए स
र  स
ध ान
 द े
इस के 
 कर ने
ब ाद
ख ्य
ह र
स ी 
ू ल
 प ु
े ड
र  से 
ज ान
ो क
म ान
स ं
ा ण
ए म
ौर ान
़ ी
भ ाग
ल ोग
त क
क ्र
ुन ाव
ा  द
ु व
 प र
त ी ह
 ल ोग
ं ज
स् प
ा  गय
ह म
े ग
 र ाज
ा  ब
ले कर 
 ब न
ाए ग
ल ्
 ह ी 
ं ध
ष ्ट
 के  द
ी ज
ी  थ
प ास
ते ह ुए
ि म
ात ्र
क् त
ू प
ने कह ा कि
ि प
ी ड
च ्च
च ल
त ्य
ा ख
क ि
ी  ज
ा ट
ै न
ा है  कि
 ह ै
ी च
पु र
आ ई
 अ प
  (
ार ्ट
ो र
 क ुम
स भ
ने  क
 की  म
1 0
ू न
र ण
े व
ी व
 की  ज
ु छ
् न
ा  और 
ो ज
 पु लिस
20 2
 स ाल
ी  ने 
ि ज
 म ु
 किया  गय
इ न
क ार 
क ा 
ग र 
 य ह
  छ
  उन
 को  स
ब ह
 ग ए
 कर  द
त े 
व ाई
ी  द
 ब ज
े द
 के  म
अ धिक
्व ार
आ रोप
ो ह
ी क
ु आ
ि र 
ाल य
स् व
ी प
 व ह
 की  स
 हु ई
ढ ़
त ाल
ो र्ट
ान े 
ा ड
ा क र
स् क
ज ब
 द िन
च ुनाव
ख िल
े ,
ग्र ेस
ष ्
ुर ू
 उ स
ौ त
अप ने 
ा ध
आ य
ी  और 
ी  से 
 क ार्य
ी ल
ा -
 र ुप
िव ार
र् ष
स ल
 ज िस
 अ न
म ंत्र
श िक
ी ब
ी र
ान ा 
र् स
र् त
 त ो 
ध्य क्ष
 क े क
 ल ेक
स ाथ
ट न
िल ा 
े म
 स र
ं प
ी  प
ा कर 
गई ।

़ े
  ध
 ह म
 लेक िन
न ाम
त र
द ू
ह ाल
ं च
ो द
ू ट
पु र 
द् ध
ल  म
फ ्त
ैं ,
म ह
द ्र
 की  ब
ट ्र
व ्य
ाय त
ार ण
र  पर 
भ ारत
ज िस
क् स
प ाल
 के  अ
ेश न
पह ले 
ु स
 कर  रह
ार िय
 स् थ
व ान
  उन्ह
िय ा ह
ी  न
 न ि
ी  का 
र ाम
व ं
ी  त
ग ए
ा 

 ग ई
र  ह
ो ड
 स क
ा क ो 
से  म
ज य
 को  ब
 को ई
िया  गय
 की  ह
ॉ ल
ले क
ो जन
न  म
ू च
ो ड़
ं क
स द
अ ब
ू ं
च ाह
द ्य
 कुम ार 
ाज प
 आ य
द ान
 स ु
ाम िल
 हु आ
े य
ग िर
य े 
र् च
ा  ने 
  ने
ा ष्ट
ै ठ
व ार 
 क म
ले  म
स ्य
दे ख
ने वाल े 
 भ ारत
 म ौ
र  द
 ज ब
 को  लेकर 
स्प ताल
िव ास
व र
िक ल
ज ्
र  ब
त् त
ू द
र् ड
ज ह
ि ख
ाय क
ो म
ै ल
,  
ज र
ू म
 ह ोग
भ ाव
स्थ ान
 म ाम
ै य
ा  प
 को  प
खिल ाफ
र् ग
 ल ाख
स ान
द र्
 कर ने 
ेत ्र
 किया  ज
ह न
 कि ए
 क ा क
ने  के लिए
ै स
 ने  बताया कि
ा च
ने  की 
स्थ ित
 च ल
द म
क्र म
उ प
 ग य
ड ी
्य ाद
ो ष
र् ण
 ट ्र
ह त
 स ्ट
्ष ेत्र
े  थ
 प ू
स ु
 अ धिक
श ्र
ाइ न
र् थ
ुव क
 ल े
िल ्म
 के  आ
् ‍
री क्ष
त ो 
 बज े 
द िन
 र ख
ग र
क् ति
 रुप ए
 से  ज
ी द
ार  म
ु त
त ्र
इसके  बाद
ब ्
 के द ौरान
्र वाई
ा क ा 
ा उ
पुलिस  ने 
5 0
लेक िन
 ज न
ाष्ट ्र
 क ्य
 व ्य
म ्म
 कर ीब
ि छ
ी  अ
ी  को 
जान कार
ार ्रवाई
ज ूद
 ह ज
  ऑ
द ल
ह ित
? 

र ात
वार  को 
ाय ा गय
 की  त
 के ब ीच
ै से 
 उ प
1 2
़ ि
ने  के बाद
ाम ने 
द् र 
य ोग
ु ई
् ड
ु ट
पू र
औ र क
आ प
 वि भाग
3 0
आ र
ी  ग
 द ्वार
 से  ब
ट ीम
ो ब
ार  ह
ास न
ने  का 
ार िश
ाय ल
ग े 
िल ्ल
गई  ह
 म ंत्र
ाद व
 के  प्र
 किय ा ह
व ाह
ने  से 
ात े ह
ब से 
ाए ं
फ्त ार
1 9
के  पर 
त् र 
ि ह
ाइ क
 प ूर
अ ल
 के  त
म ाम
र व
उन के 
ुर ु
 हु ए
  "
भ ी
 के  पास
. .
र् य
 के  र
 ग ्र
ड़ क
 के  प
पर ि
ी  व
 प्र ति
म ेर
आ ज
म िल
 ज ान
ज िल
क र
 क ुछ
 क ी क
 अ ब
वि श
 ज िल
े स्ट
्य ू
 श ्र
ो ड़
ज् ञ
 स े क
 ब ार 
प्र देश
ं स
ा  न
 श ामिल
 क ई
 अप ने 
ॉ .
ि ग
ी 

ी ण
उस के 
,  स
व े 
 ज ो 
 के  खिलाफ
ल ा
ाइ ल
ान ी 
ंग ल
वि ध
पू र्व
ै .

ी -
ाय र
द ो
ल ोक
त् व
ि स्ट
ात ा ह
ा ड़
अन ुस
्ष े
भ ग
 द ौरान
1 5
ा रह ा ह
 व र्ष
ो श
ु द
 कर ते हुए
सभ ा 
ूच ना 
 आ रोप
ब र
च ार
 कि सी 
न ा ह
ध ार
ीड िय
ने  पर 
 स ्व
क्ट र 
ृ त
ने  बताया कि
म ौ
 द िय
र ाब
नि र्
ार् ड
 है  कि
 स ी
ब न
् छ
च ्छ
 क ाम
ुर क्ष
र िक
दे व
 आ प
ग ल
च ुक
् र 
घ टन
ार े 
क  म
े प
म र
च ान
ंब ंध
त् र म
 ए वं
द ोन
  '
 श िक
पह ल
दर् शन
ा क ो
इस म
 ट ीम
र् फ
चाह िए
र ख
 व िक
फ र
  ऐ
ा धिक
 स् क
ब ंध
 श ुरू
ॉ न
 के  न
 द र्ज
ी  को
ा स क
गिर फ्तार
1 1
ग ह
आ व
ा रह ी ह
िया  थ
िप ोर्ट
े ब
 च ौ
श ुरू
इस  दौरान
मु ख्य
 व िश
 अ भ
 अ व
20 1
ा  ग
 हज ार 
िय म
ने  म
  ने कहा कि
ो स्ट
 रह ा ह
ंब र
ै क
ाने  के लिए
ु क्त
 मह िल
ु ड
 इ न
त ीन
व न
ें ।

 पह ले 
श ासन
े ष
0 0
 दे ख
ी  कर
 से  ह
ीं ,
दू सर
ाइ ट
 को  क
ु ध
 म न
ी  र
ाक ि
म न
 की  ओ
ट ना 
र् क
ि ,
व िक
ए न
ार े म
् प
भ ाजप
ाय ा ज
े -
ज र 
 म ान
प ति
 प र क
क ो 
राज ्य
प त्
 आ ज
ु श
ा  से 
 को  द
 क ै
लि ख
 य ादव
ा  प्र
त  म
  ओ
 का  स
अ भ
च ाल
आ ए
 ब च्च
 रह ी ह
् क
स क
ो ध
ी स
ल ाल
म्म ीद
 को र्ट
िया  ज
इस से 
अप नी 
 करीब  
िव ार 
ग्र ाम
त ाब
ी श
 म ै
ार् थ
उ से 
प ित
,  ब
 र ाम
ू सर
िछ ले 
 अन ्य
शिक ्ष
 स ीट
श व
2 5
शिक ायत
 की  श
पु र म
य ू
े ह
 रह े ह
 त ो
 राज ्य
 हो  रह
 करने  के लिए
 आ ई
ी  श
 कर  ल
ान  म
 द ेश
सभा  चुनाव
 कि सान
ग म
ंब र 
ार ी क
े  से 
 मु ख्य
द् द
ाए ंग
 हो  गय
ज ीत
ध र
च ौ
ी  प्र
ष् ठ
 द ोन
 श र्म
 उन के 
 सम य
 ब ात
ि फ
ख ंड
 प द
अ स्पताल
 अ ग
े  के 
द ि
  झ
वि धान
र्म ाण
ार ,
ीं ।

 च ुनाव
ूप  म
द र
ा स्त
ी एम
ाष्ट्र ीय
व  म
अ लग
 स े
गए ।

ी  पर 
  ठ
ा  त
 से  स
 ए स
 को  म
न ्य
ब ड
ी ह ै
ताब िक
ान ा क
ाप ्त
्र म
व स्थ
द ो 
िक ाल
 य ुवक
 ल ोक
क् शन
निर् देश
 प ार्ट
 सर कार
क्ट र
 स्थ ित
स े
ले ज
ा  नह
फ िल्म
मु ताबिक
ा  व
 क ॉ
द स्य
 घ ंट
ी  नह
ी  आ
 कर ोड़
इ ल
िय ाण
  ने क
्षे त्र म
a n
ज म
ंप न
 ह र
  और क
 र ूप
ने त
क ाल
ू ब
अ व
ि ग्र
द ीप
रो ध
िय ान
ग ढ़
फ िर 
ग ु
ा .

ब च्च
1 4
 क ार्रवाई
सम य
ु भ
ाह र 
2 4
 के  ह
 म ंद
 ज ह
ा  ल
 स भी 
िज ल
ष् ण
 सर कार 
ा ठ
घ र
ज ात
 न व
 प्र देश
 ब ह
 पह ल
द्य ालय
ा ह ुआ
 कर ना 
ब ी
त ा
त ल
य ान
स् स
ीड िया 
ी  कि
 भ ेज
 स ह
 हो  गई।

री ज
,  म
 स्क ूल
ाए ।

 ल े 
 व ाल
त् स
री द
 न िवास
भ र
ा स्थ
 की  र
ा  र
 भ ाजप
 गई ।

 गए ।

ने  लग
 किया गय ा ह
ुक ान
े  और 
मु ख
 य े 
च ार 
ो स
न ी
पी ट
आ ग
अन ्य
 के  अनुस
पू र्ण
िया गय ा ह
1 8
प्र ति
धान मंत्र
र  ज
ो  म
व ाद
प ड
स्क ूल
 की  प
ृ तक
ल् द
श ्य
ा ध्य
 से  म
ा  अ
1 3
च िव
 की ब ात
छ ात्र
 शिक ्ष
उन क
स भी 
 म ार्
 त ीन
 के स म
 पुलिस  ने 
 को  न
ड़ क
ंज ाब
ुक ्र
क्ट ्र
क ाश
ध ार 
 द िए
ए ल
1 6
ोज ित
तर फ
 कार्य क्रम
ो पाल
 ज िन
य ुवक
 किया  थ
फ ल
स ाल
प क्ष
ी स म
 को  ज
भ ाई
िय न
ी म ह
 के ब ारे म
ार ी
 ले कर 
साथ  ही 
 स ुन
 फ िल्म
 आ व
ू त
 ब ड
 पर  ब
र  रह
ता  द
 के  लोग
ी  ल
ता  थ
,  क
श ाम
 र न
परि जन
ुल ाई
द ु
ी  च
 ब ैठ
ा ह ो
 का  प
1 7
ब ाज
े  पर 
ि ध
 द ो 
वि भाग
प ्
ी ह ुई
श ह
 और  स
के  बाद
ी त रह
आय ोजन
 द िख
 कर द िय
ग त
स्ट ्र
 ज म
 का  प्र
सु बह
 द ूसर
े क ारण
र ाह
 के  ज
िन ्न
ात ार 
ौ ं
ाम ान
े  की 
र् न
 ज ीत
 के त हत
स्त ान
 की ओ र से 
चाहिए ।

 ड िग्र
ाप मान
 कर व
ब ेट
र  और 
ए वं
ं भ
 जिस म
श त
 त रह
 कह ा कि
 पर  ह
िव ाद
अल ाव
ाब ाद
र  प
हन ा है कि
क ो
 ज ून
ठ न
 पू र्व
 इ ंड
ौ ल
ज ्याद
 क र्म
 मौ के पर 
 क ्र
ुर ुआ
ान े म
द ात
ंड ल
ी  ख
भ ी क
 ब ाद
म ित
गई  थ
रो ड
फ ्र
अप न
व ाब
 कर ते ह
 भ ी क
20 0
घ ायल
श ्व
य ास
 अ स्पताल
 मह ी
 कर रह े ह
झ े 
 अ ध्यक्ष
उ म्मीद
,  प
प ार्ट
 ग िर
 के र ूप म
 वि ध
 को  अ
ि ने
 की म ौत
 स्थ ान
  ने कह
 श िव
सर कार
न ीत
ै र
 को  भी 
ेय र
द ार 
र ुप
 ग्र ाम
ए फ
घ र 
ैं .

 माम ले म
ं भी
ेव ल
भ िन्न
 व े 
ेश ान
 गए  ह
 ब ारिश
ड ॉ
 पर ि
र् द
ा  ख
ि ड
त म
ब ात
पू छ
ू स
 की  अ
 द ो
ी ह ो
भारत ीय
 ब ताय
 क ल
a  
द् र म
ऐ से म
ी  रह
 ज ो
 आ ए
  ई
औ र
च  म
ाप स
े 

ू ड
द द
त ा है
ंच ायत
 उ ठ
 ऑ फ
स े क
ाने  वाल
म िक
मेर िक
व जह
ास्थ ्य
ाइ ड
ख न
ौ र 
ा  श
 ने  स
ी म िल
 ड ॉ
एस प
 भारत ीय
ॉ र्ड
ब ल
 सम ाज
ि र्फ
ै ध
त् म
ॉ प
म ल
 प्र त
ले ट
 के  ग
ाइ व
2 2
 क ा ह
 करने  का 
ि र म
स्थित ि
नि गम
े ख
ेद न
 द्वार ा 
ा ध्यक्ष
 को  ह
सर कार 
 दे व
े क्ट
 आ र
बंध न
म ्
 पर  स
उन की 
पर िवार
 की  सं
न गर 
विध ायक
ार ाज
 ब ंद
ब ्र
सी ट
 के  मुताबिक
े  द
ाय ा ह
प ्त
ष ण
 की  थ
ब् ज
ंट र
वि रोध
 स हित
ि स्स
 किया ज ाएग
ेन ्
भ ारी 
4 0
 य ात्र
ोश ल म
विश ्व
ी क्ष
 द ु
ोब ाइल
 ज ुलाई
राम द
्म ान
रो पी
 प्रति शत
 हुआ ।

 की  प्र
 का  म
पर ाध
इ से 
 स ित
क ल
ते  थ
ए च
ऐ स
 क ाफ
 हुई  ह
ाप न
ार् क
 कर  सक
ै ट
a r
ैय ार
र ु
श ्च
ी ब न
 द िल्ल
ो र 
,  र
ा  तो 
 क िल
 हुई ।

 अग स्त
 मौ जूद
 ब दल
ग्राम ीण
े  रह
 को  गिरफ्तार
 उ से 
़ ें
कर  म
 प ी
रो क
पह चान
श िश
र  ल
ाना क ्षेत्र
र ूर
 ज य
 य ू
मुख्य मंत्र
य ात्र
य ुव
ल ्ल
 न गर 
 स ेव
ॉ क
ौ न
 ख ेल
जिस म
ित ि
ा थ ा कि
ग ढ़
प ोर्ट
,  अ
ी  फ
 हो  सक
द्र ीय
ुरुआ त
ं ।

ृ ष्ण
 ने  ब
 न ्य
 क ्षेत्र
िव स
आरोप  लग
 स ब
 त ेज
नि र्माण
ाने  का 
माम ल
ी स ं
ा द र्ज
न ाथ
ी सर
इसके  अलाव
ी  भ
ार पीट
ाई  ज
ो च
 की  टीम
ा रह े ह
क ्य
क र्म
र  ने 
व ीडिय
िक ट
ी  ड
अप ना 
प ढ
ाह न
कार ्य
 उस के 
 और  ब
 म ेर
 माम ल
 के  नाम
ग ंज
 आ ग
स्त ाव
न ्न
ा  के लिए
ौ ट
िया  म
पी ड
श हर
ोष ण
 की  न
 से  अधिक
 कॉ लेज
य ा 
 अप नी 
 ज िला 
ल ाइन
 ख ान
 कुम ार
ा  दे
ोशल म ीडिया 
ज ार
ाउ ंड
ज ल
व ित
  S
मह िल
 जब कि
फ ोन
ा  पर 
 ल िय
त ेज
2 1
प द
क्ष ण
र ू
ेड िकल
ब ैठ
ता छ
ध न
ीज ेप
 इ ल
ल् प
स ाद
ह ान
 ब ्र
ो त
ोह न
च ंद
श ाद
दम ाश
 म िन
 प ार
 कर ेग
 और  म
प ट
 स ्त
 ग ु
स पास
ी ह ो 
ध म
 विक ास
 न ाम
ए क्स
 व्य क्ति
े च
ग ोल
ि द
 द िस
 व ो 
ग ुरु
ै सल
 स ंग
ो र्ड
व्य वस्थ
ा क र द
इल ाज
ात ी ह
ड ्र
द िल्ल
ट ी
िक ेट
श ामिल
ट  म
ाते ह ुए
 च ुक
ज ु
त दान
 स बसे 
ी ब ार 
हर ियाण
च र्च
ाल क
ग  म
2 3
ट ्स
 व ोट
शन ल
चल ते 
 विध ायक
िश न
त्य ाश
ब ई
 म ोद
  -
 म ई
ी र 
ाई ।

द् र स
 स ाथ
ी  गई।

ा  भ
प िछले 
पी छ
 ने  म
घ टना 
 गई  ह
र स
 की  द
के  म
उस क
ाकि स्तान
इ ंड
ो ,
ज िला 
 ए म
े  का 
 छ ात्र
वाह न
रुप ए
री ब
ति थ
अधिक ारिय
2 6
 ज गह
10 0
न िकल
 र ोड
आरोप िय
िम ्म
ौ र पर 
ें ,
घ ाट
 क ेस
से  ह
 अ क्ट
इ ंद
ी फ
अ सल
प ड़
 प रीक्ष
ल् ड
धार  पर 
i n
श िव
र ेल
य र
 उन क
ट क
ब ्ल
प्र त
त ब
ीव न
 जान कार
 कि स
ा ह ो 
 स ंबंध
उस ने 
ी को शिश
ाध्य म
द य
प ल
ाग त
 क ुल
रो ज
द ्वार
ो री
 ज ल
आ म
ी  गई ह
ो व
 क ार
 घ टन
विक ास
िवार  को 
र िपोर्ट
 भ ग
 स ुरक्ष
 रूप  से 
प ्ल
 को  प्र
ा े
ु द्ध
 वि धान
त न
 ब स
a t
 ब त
बह ुत
 अ ध
 लाख  रुपए
ी  (
.. .

भ ा
 ह ी म
 के क ारण
ीम त
े  स
 का क हना है कि
ए ड
र ाष्ट्रीय
 द िया ह
श्च िम
2 8
 य ोग
ा स्ट
 का  द
 को  मिल
ट ्ट
 ट्र ेन
ंभी र 
इ स्त
ि ण
 अधिक ारी 
 क ंपन
ाम न
 सु बह
ी स र
 क े
ुम ान
 बह ुत
ान ून
 कर के 
वि द्यालय
ल ाव
े  ज
ेश ्व
इस लिए
लि म
 सम झ
ाश ि
ा  के स
 कर रह ी ह
ट ल
 ए न
पू ज
उ ठ
 प ुर
 आय ोजित
 भ र्त
इस  ब
ती ह ै
 विश ्व
दो पह
- अलग
ग ्ल
ी )
े हत
अ ग
नी ति
ग ण
व ेश
ॉ र्म
ा  के बाद
 स् प
2 7
े  ब
 की  ख
 मुख्य मंत्र
ी  दे
ार ोह
 के अनुस ार 
 के  एक
ोस्ट म
वि ष
ाल िक
 च ंद
 से ज ्याद
ब् ध
ार ी म
ख्य ा म
 य ुव
नीत िक
ज द
विश ेष
न ्
र ाय
ा क िय
व ो 
ी  के साथ
क ोर्ट
ज्ञ ान
 त ापमान
ता  चल
ाओं  को 
ी .

व ास
ा स म
 हो  ज
 द िल
 ड ्र
स र 
ा  फ
 स ामने 
्य ूट
,  ज
ाए  ज
उ त्
म ृतक
 जिस से 
ल ब्ध
ाय ा थ
 ब ोल
अ ंत
ख ेल
ी  के लिए
ब र 
ृ ति
क र्त
ज ो 
 ऐ स
ब ता द
 कर ोड़
ल ाश
,  न
 अ लग
ल् कि
च ित
च ारिय
 र ाह
िस्ट ्र
 आरोप िय
ृ त्व
 भ ी ब
त्त ीस
व ोट
ॉ ड
ाद ेश
ाया गय ा ह
 व ीडिय
ात ्म
ीन िय
आ गे 
 की  तरफ
 भ र
 भ ाग
 मिन ट
ने ता 
  C
ा क ाम
 किए  ज
प ान
श ी
थ ाना 
भ ी म
्र ोल
o n
अ भी 
ाम ले म
अ ध्यक्ष
ै द
य न
 स दस्य
 की  आ
 कर ता ह
ा म िल
इसके  लिए
कार्य क्रम
ो ।

ार  द
जब कि
ाव त
ति म
 अ ल
़ ों
 म ाह
 र िपोर्ट
 प्र शासन
क ड़
 उन की 
श ु
प्र शासन
 र ेल
ेद ार
ी  य
क ान
इस की 
 अप न
क न
स वाल
ि द्ध
ज ो
श ुक्र
 की  च
,  ग
त ा है कि
िया  और 
उस की 
राज स्थान
ार ह ो 
 न्य ाय
स ूचना 
 र व
 कर ने वाल
न व
र िय
ंग ाल
 ड ाल
थ ान
त्त र 
 उ त्
 ने त
 ब ेट
यह  भी 
ा  आ
 स ाह
 की  गई।

 की  गई ह
इस क
ना  म
ख ुद
ह ास
ि ष
ा है  और 
 अ भी 
िक ित
र ान
 म ुक
ने  के 
 प क्ष
 से  एक
 अधिक ारिय
छ ोट
त ो
स  म
स् म
 मह िला 
 इ ं
द्र म ोद
 त ब
भाव ित
र् ति
के  से 
पूछ ताछ
 विश ेष
ा ब न
  P
ूं ।

चाल क
ऑ फ
ह त्य
ि से 
ि र से 
भग वान
स र पर 
द र 
े .

ा गय ा ह
िश ्र
ेम ाल
ध्य ान
ा  के साथ
 ह ाद
 ब ाइक
 अ प्र
ट र
ह  ने 
ग ्
 रह े 
तिथ ि
क िस
ार् ग
 के स ामने 
िट ल
ैन ात
 सम ेत
ाओं  ने 
 म ीट
2 9
र ूप
भग  
वि भिन्न
ह ल
ार ा 
ास िल
 श ाह
ार् ज
ह ाद
ोष ित
ाय द
 को  देख
ख ्त
 ए क्स
िकित ्स
 की  ग
 से  प
ात ्र 
 को  ख
ी ब ात
ि ष्ठ
सभ ा स
ॉल ोन
ु ष
ै च
ाय ण
e r
च ीत
ो ई
ी  भी 
ने  स
) ,
 प िछले 
ग्ल ादेश
क म
ों ,
लोक सभा चुनाव
 प ान
हम ल
 की ज ाएग
दर असल
क ुछ
भ ेज
अ गर 
घ र म
 का  ब
  लिख
 स ड़क
ार  से 
ो त्स
 व ाहन
ेट  म
  A
ा भ
 ह ाई
 हो कर 
प्र ेस
3 5
ाम ल
 प ेश
रीक्ष ण
ार खंड
 हजार  रुपए
ो प
ाष्ट्र पति
इ ं
ट्र ेन
 ने ता 
ौ जूद
ार ्म
 ज ुट
त्व पूर्ण
न िवास
 स चिव
ाथ मिक
ाई  ह
 रह ा थ
 हो  चुक
ह ,
े  कि
 स ोम
 थ ाना 
दर् श
श्य क
ल िय
 ध र्म
 क ्ल
प ंजाब
िल हाल
 न िकल
ाइ म
 भग वान
 का  आ
िन िध
उ द्
ल  पर 
 की ज ा रही ह
ाउ ंट
ा  लग
 त थ
 घ ायल
 घंट े 
न िकाल
ा क र 
ज ाम
ी  लग
 का  आयोजन
 श हर
 य ोजन
डी एम
े पी
ाने  की 
मौ के पर 
स ह
द ाल
 ब च
द ाव
फ ाई
ैन िक
 हुई  थ
ज िन
क् क
ंप नी 
ला भ
त ार
श ोक
 प ट
 रुप य
प्र दर्शन
स ंद
िक ्र
 ग ुरु
पर िवार 
ृ ह
ित ्य
पर ेशान
 के  व
जिस के बाद
 हुआ  ह
ष ि
ा  च
़ ो
नेत ृत्व
e  
खन ऊ
न ंद
ा ह ोग
 कर ने वाले 
श ाल
ाग रिक
ॉन ्
ार ी ह
ने  ह
िय ोग
 ब िह
 को  ग
 को  त
 का  ज
 श ह
 हो ता ह
ज् ज
श ्म
ायर ल
प्र ीम
ट िकट
थ िय
ुल  ग
व्य क्ति
न्य ाय
इन म
 मै च
् ले
 ज ैसे 
ंद िर
ठ बंधन
 को  र
 किया ज ा रहा ह
िश ्च
 शामिल  ह
ं तिम
जर िए
र ब
 की  पहचान
पी एम
 ज ारी क
त ी थ
िया ज ाएग
भ ूम
 कर ते 
ा ज ा रह
ी  गई
ाओं  म
 क ाल
 के  फ
 प्र दर्शन
स्थान ीय
4 5
 ज ैन
जब ूत
ला के म
- ब
ा क्ष
 किसी  भी 
ु बह
ार ाम
 ब ढ
सी एम
द्य ोग
क ट
a l
ने शनल
य ुक्त
ार्ट म
ृ द्ध
वि जय
जानकार ी के 
ष द
ू ह
इ त
क ड
क्र िय
र ब न
 ग ोल
ा  भी 
इस का 
िष ेक
 ज ात
 य ा 
पत् नी 
3 1
 के  च
िव ेश
6 0
त रह
े क ह
 नि र्
 द ल
ामान ्य
ट क्
ल् ले
 मार् च
 ज ्याद
ब ाव
र म
्र ाम
ोज ना 
ंबंध ित
वजह  से 
 अप्र ैल
,  व
 स िर्फ
 की  ल
 की  गई
र न
 और  प
प्र धानमंत्र
ग्र वाल
िग ्
ब िह
 रह ेग
 के  श
ने  और 
 सम िति
 के म ाध्यम
 व्य वस्थ
र् जन
 के लिए  
 वर्ष ीय
 आ म
ोशल मीडिया  पर 
 ह ाल
्य ाण
ुन िय
 गय ा ह
 बजे  तक
 म ंगल
घ ोषण
 द ीप
 ब ना 
 इस के 
 शिक ायत
 स ाम
स्ट ेशन
 के अ ंद
च े 
ाव ल
ार्य क्रम
 की  जानकार
ुप ्त
 उस क
स ुन
ा स्
 के  भ
 के सम य
 क ेवल
िश ान
 है  और 
लि त
  N
आ रोपी
 स ोन
ाल िय
ाग ू
 फ ी
चान क
7 0
 ब ल्कि
ा क ह
ख ुल
द ार
धार ित
 को  च
 माम ले
ने  ज
ब च
ब ड़
 किया गय ा थ
ाच िक
ा सक ता ह
 विक ेट
 मंद िर
े ड़
 स्व ास्थ्य
ा ड़
ीज ेपी
ै ग
ॉ य
 ब िजल
 नि र्माण
 लग ातार 
िश ्न
इस  मामले म
ि ब
य ो
व ापस
 स भ
 का  अ
दे र 
र ,
 के  निर्देश
ार ायण
उन का 
 हो ती ह
क ुम
 प त्
 को  आ
क्ष ्म
 प्र धानमंत्र
 रह े थ
" 

सी ल
स न
िय ल
 र ात
त् काल
ॉ स्प
 पर  न
य ाद
लग ातार 
मु झे 
ने क े कारण
ी त ो 
स ोम
 प ्ल
ौत  हो गई।

 के आ धार पर 
िश्च ित
 का  न
प थ
ॉ ट
ा  (
 पर िवार
ू बर
त  ह
व र्ष
् ‌
 भ ी स
ा म ह
ा ज ाता ह
  लिए
जान े 
 ग्राम ीण
 न ए
े ह ुए
ू  म
े हर
 स वार 
 प ास
 श न
ुक सान
 ब ाज
 न जर 
 द िया गय
 हुए ।

ियोग ित
 ल ाल
 और  न
 राज स्थान
 कर न
ा ने  बताया कि
क रण
ान े क
ले क्टर 
 हुआ  थ
र ंग
 क ट
  B
 इ ंद
ड़ ित
ु ख्य
ाधिक ारी 
  ढ
वार  को
ध र्म
ी प ार्ट
द्य ार्थ
छ त्तीस
 भ ी ह
ति हास
 अ च्छ
प ड़
ी  पुलिस
अब  तक
अस्पताल  म
ऊ पर 
 उ म्मीद
 शिक्ष क
 की  सम
ाव ट
पत् न
ड र
ै ।
ो ख
उ ट
ू ,
 से  ल
मौ सम
ी हुई  ह
ी एस
 ख रीद
 अ म
 आ दि
 और  अ
अव ैध
 मौके पर  पह
भ व
 अ गर 
इ म
 ब ड़
ड ्ड
ी ब ारिश
तम  तापमान
ब ंद
ुल ाक
ु ख
ले क्ट्र
क्ष िण
ालय  म
ी न र
प्रीम  कोर्ट
प ाद
लि स्ट
 अभ ियान
फ ॉर्म
ाइ ज
सीट ीव
यो ध्य
ग र म
 स ू
 श ुक्र
o r
िश ्त
ॉ र्ट
न ई
 की  फ
 ब ुध
ी क म
र् श
क् ल
 ए ड
ेब ल
म ंगल
़ ्
ो फ
ाने  के बाद
ॉ लेज
िल ीज
 भ ी म
ै त
 अ ंक
ज िस्ट्र
 ब ढ़
िव िध
ुर ंत
पी ल
द ौरान
व ाय
ु ओं
 क ार्ड
प्र भ
ीक रण
प्रदेश  म
ले ग
s h
ख िर
ब त
 को  एक
 न िकाल
माम ले
ा हुआ  ह
भ ी ह
 प ंचायत
दूसर े 
ी  ए
 र ाय
ें 

जन ्म
ै ?

 के  ख
 हज ार
फ ्ट
श ुभ
 हो ने के बाद
 परि जन
प् शन
क ई
स िक
सम ाज
 इस लिए
 शुरू  कर द
स ुर
् ता 
 की  एक
ह ो
ा द िय
ाने  पर 
त हत
 ए ज
ॉ म
 द िवस
 से  लेकर 
 क ्षेत्र म
ाल िग
 आय ोग
 फी सद
 इ ंटर
अधिक ारी 
 के अ लाव
 से ज ुड
स ू
वि देश
उ म
ा :
ा ?

 प ित
इस्त ेमाल
 अ फ
ी  के स
 से  न
ी क े क
य ादव
 स र्व
ार ी स
ना  चाह
र्ग त
  R
ज े
इस  अव
रो ह
ाब ू
गए  ह
जिल े म
 सक ता ह
र्ण य
ै फ
रह ने वाल
िव िल
 कह ते ह
 कुम ार,
त वाल
 द ुकान
 भ ूम
 च ार 
 करने  म
ा उस
 ने  बताय
री य
हम ्म
आय ा ह
र्थ िक
 त ाकि
 रुप ये 
शिक्ष क
 ब ल
व िवाद
प ंच
ल क
व ै
हम्म द
ी  एक
ोट िस
 पू छ
रिक ्त
 की श ुरुआत
ब ाइक
व्य ाप
ै म
ता  रह
 जम ीन
िक ्स
 कर ती ह
पह ले
र्व ाच
ब ुध
 ब िल
 दर्ज  कर
ृ षि
ाब ालिग
न ा क
 ब ढ़
गए  थ
ार ंभ
 ब रामद
 उ र्फ
 सं घ
 सित ंबर
स ंग
 थ ान
े क्टर 
 स ंद
ाय ब
ाच ार्य
ज वाब
थ म
द ुकान
 उस ने 
ज्ञ ात
अ म
व ल
इस  बार 
प्र भारी 
 सम ारोह
 अक्ट ूबर
सभा स ीट
ुलाक ात
 ह िस्स
ौ के पर 
 ने  अपने 
ब ढ
द्ध ाल
 नव ंबर
  I
 स ंत
व ाड
विष ्य
 फ र
 पू ज
ा झ
साथ  ह
8 0
 पर  म
ी क ार्रवाई
त ीज
ी  ने कहा कि
 को  फ
 वि जय
ुद ाय
 हर ियाण
ब ुल
 घ र
 म त
 ने  एक
िस्ट म
िय ुक्त
क्ष ्य
 पर ेशान
शह र म
न लाइन
ौ कर
 प ड
वाल े 
ाप ित
 अ पराध
ंब ोध
 हो  गए।

ीच े 
 कुमार  स
ो हम्मद
 क ारण
 का  एक
  और
क ड़
ृ त्य
 र िक
िन ्ह
ति रिक्त
 ख ुद
पहल े ह
 ज ल्द
 अ ंत
ं कर 
िव ाह
क ह
द िख
ोम ीट
स्क र
इससे  पहले 
 दिस ंबर
ज गह
स्व ास्थ्य
ह सील
 भ ी
 फ िर 
  M
व ायरल
 ख िल
अ मेरिक
श ाह
र् ता 
 ने  प
सम ्मान
ज ़
श ील
 द ेत
 से  पहले 
 का  नाम
अनुस ार 
ी ह ोग
 प्र ाप्त
ाया ज ाएग
 व ार
 से  मिल
 की स ूचना 
अ च्छ
 ल ाइन
 ग र्म
 के अ ध्यक्ष
ड ाल
ब ाल
भ ोपाल
ी आई
ो -
 ह ाथ
 न ई
देश क
ौर ाह
 कर द िया ह
स बसे 
 व ित
्ष द
 हो  गई ह
त ीसर
ंज ाम
 किए  गए
 की त रह
.. .
चुक े ह
 क ानून
नि रीक्षण
 के म ामले म
ै क्स
ी  ट
ा पुर
 सी एम
द न
स् लिम
च र
ज ीव
 के  जरिए
र्त मान
 क्र िकेट
न ाड
 मु झे 
भ ाल
ौ र म
 न ंबर 
 सक ती ह
इ ंत
ेट ्रोल
ेल  म
देश  म
ॉ ज
 ज ाएग
 करने  पर 
दो स्त
 न र
ै प
 प ंजाब
दोपह र 
 अप ना 
क्ट्र ेस
ी :
ी ता 
िव र्स
पी एस
 इल ाक
सभ ा म
ा  ट
) 

न ए
री वाल
सं भाव
 चौ धर
 हो रह ा ह
ात्म क
र फ
ृ ष्ट
्र त
ाज िक
ा ज िल
इल ाक
 अ क
ता  से 
फ ैसल
ंद ोल
ब स
 हो ने की 
ुक ाब
 सक ते ह
 ल ड़
 का क ाम
 कम ेट
 मंद िर 
t i
क ीय
् ञ
 ब ाल
ी ने  बताया कि
घटन ा की 
 संग ठन
ड ेट
 ब ोर्ड
 श राब
र्त न
50 0
ोज ेक्ट
रू क
न जर 
े  प
 ब ्ल
 के ब ाहर 
राज नीतिक
 मिल ेग
 किल ोमीट
 स ुर
 कर ना ह
 फ ्र
ेद ार 
्क िल
रु ण
क् ता 
 य ून
फ िलहाल
ब ढ़
ह ार
 हो ने से 
 प र्य
 व र्ग
ेज रीवाल
 हम ारे 
् द
र्थ न
प न
 अ मेरिक
 ने  भी 
 छ ोट
 ऑफ िस
त ी 
 के  पूर्व
 इ से 
 करने  के बाद
 कि सी
ना  चाहिए।

 आव ेदन
 द े रह
बाद  म
ह ी 
े  को 
जम ीन
श र्म
इस  पर 
 श ाद
ाइ य
 कर ल िया ह
ा जा रह ा है कि
 पूर े 
छ ोड़
 च ाह
 मही ने 
 से  आ
माम ले म
 उ म
 घ टना 
स्क ृत
फ्त ार 
म त
 के  ल
िय ंत्र
नि ज
जर ात
ा क े क
 रह ी थ
पु र से 
 ए क्ट
वर ी 
 की त लाश
यह भी  पढ
झ ारखंड
ित  ह
 बन ाए
आय ोजित
पूर े 
 कर ल िय
 की बात  कह
 स्थान ीय
 व ापस
धम की 
र द
 प ोस्ट
 ह ासिल
 द िया थ
ंद िर 
ाओं  का 
ठ ग
 फ ोन
िप ्ट
e s
अभ ियान
साल  
 अस्पताल  म
म ीन
वार दात
ख्य ा 
ध ि
ह  ने बताया कि
ै  कि
डी ए
ऐ से 
र  तक
 ड ी
 उस की 
य ल
 हो गय ा ह
 हो ने वाल
र ह ो
द ग
े ड़
 च ोर
 घ ोषित
त ु
स ब
ेल ्स
 सम ्मान
ा रह ा थ
 करने  की 
ग ड
 की म दद
 हुए  ह
्यू ज
 क प
ने  को मिल
 उन का 
 बजे  से 
 ब ार
ा ज ात
जिस से 
ं ख
 न म
 ने  इस
ित  किय
 पर  भी 
 वि भिन्न
उसके  बाद
 भर्त ी कर
्रम ण
e n
क ील
व स
 पर िव
 चौ क
त ैय
श ीन
ाई  थ
भारत  म
म ोद
ौ ध
 जिन ्ह
े ण
 मौ सम
उप योग
 हो रह ी ह
,  ह
 के स भी 
अन ु
ाट क
चाल न
ग  क
व र 
े  समय
ार ी की 
 श व
 ए ंड
 फ ्ल
ा कर ना 
र् ल्ड
 ब दमाश
 को च
िर ास
उस का 
दान  म
दाल त
इस अव सर पर 
िवर्स िट
च ारी 
ी ति
 त ैयार
आव श्यक
चौ क
ार ्व
ाग रूक
J P
स ित
 ख ुल
 वि द्यालय
 दे कर 
ह र 
ो ति
ेश ल
 अब  तक
3 3
:  
ाव रण
ीक्ष क
ग ाड
ू -
 से  प्र
इसके  साथ ही 
त िक
द िय
र ल
स ून
 व ै
ा धान
 से  भी 
ुन ौत
 के प्र ति
परि षद
भ ू
ा इस
 स ीम
 पर  ज
वीडिय ो 
प्त ाह
त्तर  प्रदेश
अ पराध
स्व ागत
 ब ाब
िक ा 
 पर  प
 हो ते ह
ोस्टम ार्टम
ं पर
ग ेट
 ल ौट
 को  ल
 व िवाद
ोह ित
यर पोर्ट
ाम  म
 कि श
ा को ई
 बदल ाव
इ लाके म
न र
य ोजन
ौ क
 के  ड
 प्र मुख
ता  नह
ेह द
भा ष
ी  राज
ाव धान
ा घ
 की  शिकायत
 लाख  
म ाण
श िप
 अ ग्रवाल
 प्र साद
ा ज ाएग
 कुल  
त ंक
स ामने 
ा क ार्य
पर  क
देश ्य
 पर  आ
 ख ड
अ ंद
ा ँ
िय ा के 
ले  ज
 सं जय
ेय र 
ंदोल न
9 0
ं घ
ख ान
ी  के बाद
जर ूर
च रण
वि स
िस र म
  D
 हो ने पर 
प्त ान
इ ंटर
ि थ
ो  रह
 व न
 बैठ क
ब ार
 प ड़
जीत  स
आ सपास
म ैन
पर ेशन
 महिल ाओं
7 5
च कर 
न िक
म ाल
 दिए ।

ैठ क
ा उन
 म ध्य
 ग ण
 स वाल
 कोर्ट  म
 जन ता 
 मार् ग
फ ्ल
 म ाल
 प ै
 कर सक ते ह
 स ्म
 के स दस्य
ा स ुन
 उप लब्ध
 करोड़  रुपए
- प
भ ु
ा ओ
र् शन
ए ज
क र क
नेतृत्व  म
प्र काश
 दूसर े 
ृद्ध ि
ु जु
 प ीड
 मह त्वपूर्ण
 पहल े ह
 स ो
ं जन
ज ल्द
वि पक्ष
अन ुम
ोब ार
ोत्स व
e w
ग ंग
ठ ीक
ात ्
आव ाज
 ज ैस
 न ियम
 पु त्र 
ुजु र्ग
 अ हम
ाने  से 
फ ोट
म े
ॉ क्स
ीत े 
 वाल े 
 म ारपीट
िव ्य
 प्र काश
  K
ख ास
्य र्थ
 गई  थ
ब ारिश
स ेव
 ल ंब
 का  र
 श ाम
 हो ने
 ठ ाक
ाने वाल े 
3 2
इ ंट
ब ू
र् पित
ीव ुड
 की ह त्य
ी सर कार 
द िल
ा '
 च िकित्स
ख ेत
 प त्र
 ह त्य
ी ब ेट
ाक ेश
ा को  लेकर 
 स्ट ेशन
शिक्ष ण
ण ाम
ी  उ
ा  उ
 ब ी
 पर  अ
व ी
ु ति
 व्य ाप
आ देश
पु ल
 के स ं
 इ त
ॉल ीवुड
 जिल े म
ोस िए
 ह ट
 को  कह
 त री
 इल ाज
ू ठ
स् ल
 सम स्य
19 9
ु विध
 त ्र
ी मह िल
 म रीज
 च ालक
ी द ौरान
 अव ैध
ाया ज ा रहा ह
डॉ क्टर
ेडिकल  कॉलेज
िय स
स्त ुत
ा की  म
आप को 
d i
ा ।
 ह र 
ेल ्
 किया  और 
स िल
प्र यास
,  ड
ू क
 स फल
 के आ देश
र ाव
 स ड़क
द र स
प रीक्ष
 र ाष्ट्रीय
 की ज रूर
 कर रह ा ह
 ब िन
 कि म
ा स र
ी की  म
नगर  निगम
र्वाच न
 क ॉलोन
 पर  एक
ुल ्क
 गए  थ
 से क म
 की  रात
 द िया गया ह
मह िला 
तल ब
,  श
4 8
 ज रूर
 ग ंभीर 
र त
ाव जूद
सभ ा क
ग ार
द ाय
श राब
 ग ल
लेक र क
द ित्य
 क ार 
 की  ड
 की  व
 ज िसे 
मान त
 कार्यक्रम  म
च ीन
सुबह  
 अन ु
 से ब ात
ग द
ह ाथ
 के  वि
ी क ार्य
ोज क
मौ जूद
ग न
 व र्म
 आ रोपी
ाइव ेट
 ब ंगाल
ंड ी
ै ब
 क ित
 इस  बार 
क्र िया 
वर िष्ठ
ब् द
ता  और 
ा ज ा रहा ह
 तक  पह
द्यार्थ िय
व ो
ु क्ति
5 5
ना  थ
पर वाह
ॉन ्च
 गिर फ्तार
तम तापमान  
,  द
ह योग
 ने  ज
ाव न
 के ब ेट
एस आई
 पू र्ण
ॉस्प िटल
ल खनऊ
 म िश्र
 का  भी 
ए क्ट
इस  तरह
इसके अलाव ा 
प ्प
 म तदान
 ब ीजेप
घ र से 
र ी 
 अ तिथि
 के साथ  ही 
 इस से 
3 6
a m
 भ ाई
ाल  म
 ख राब
ंज ीनिय
ौ ज
इस  मौके पर 
िए ।

 के अ ंत
 लोक सभा चुनाव
कुम ार 
  ।

s :
र  फ
ा क हना है कि
्षे त्र 
गल त
ैफ िक
श ्न
स ी म
 कर त
ाख िल
,  प्र
ै मर
 क ैसे 
 से  अ
ा गय ा थ
 करने  लग
पर िव
ात्र ि
आरोप ी 
अग ले 
 और  ज
क्ष क
 सरकार  ने 
़ ,
 ख ास
 कार्य ालय
ू र्ति
ॉ र
 व ो
 और  ह
 ट ेस्ट
ौर व
सं प
 करने  से 
 स्थित ि
 बताय ा कि
इम ेज
- साथ
 स ल
 आ दम
 गय ा थ
a y
द िवास
 हो  गई
ेत न
 किए  ह
 म ृतक
 क भी 
त् ति
्व ालिय
 के द ्वार
ी ष
 ने  द
 और  ग
ज ाएग
र  व
 ल ड़
उप लब्ध
 अधिक ार
ा ष
ने  अपने 
बैठ क म
स ाम
ीर ाम
 कर रह े थ
ाइक िल
विधान सभा चुनाव
 डिग्र ी स
 अक्ट ूब
र् प
ने ट
 का  ग
िविध िय
3 4
 प ीएम
 के ब ावजूद
चुनाव  म
वित ्त
 म ात
्य ोति
 च ीन
ा त ो
श क
स्ट ूड
 हो त
00 0
 कर्म चारिय
शामिल  ह
ा रह े थ
ण ्ड
प ंचायत
श ंक
 प ता चल
 त ैय
पी ड़ित
 मु द्द
िफ ्ट
ी है  कि
आरोप लग ाय
ोसिए शन
,  आ
 थ ाना क्षेत्र
 कम ल
फर ार हो 
 मंत्र ी 
र  र
िक ्क
 र ाशि
रह े ह
उम्मीद वार 
अ फ
 ब ेच
 से  ग
 कर द िया गय
 मामल ा दर्ज
u r
ं ,
 भी  नह
आव ेदन
 प्रत ियोगित
त ंत्र
द ्व
ि स्
ु ड़
 व क्त
 कर  प
ा स ं
ारी ख
 म ोबाइल
ने स
प्र ीत
ो भ
 प्र त्याश
ी ज ा रही ह
ॉर्ट म
न म
 स ामान्य
 व िन
 का  निर्माण
 इंड िया 
ेल्स ियस
 फ ोट
 ऐ से 
म ता 
 क ्ष
ा  एक
 स ाफ
 के  चलते 
 न िज
 ग ुर
ोस्टम ॉर्टम
 ने  ह
 प्र वेश
 किए ।

 के अनुस ार,
 क ॉन्
ी अ स्पताल
ू व
पुलिस  को 
ा गय ा कि
त ा क
 का  सं
 च र्च
सम झ
ी ज ाएग
ल ान
ो र्स
ते ह ी 
देर  रात
ग्र ह
हरियाण ा के 
छत्तीस गढ़
ंबोध ित
ा स ामने 
स्ताव ेज
त थ
िन ारे 
हाल  ही म
ख ड
िय ोजन
नि र्णय
र ह ो 
 कै प्शन
प ार
ब िल
े  ने 
 र ोक
 उस का 
 उप स्थित
 डिग्री स ेल्सियस
वीडिय ो
 पट ेल
- स
ब दमाश
ो र्च
र  न
 त य
स्ट्र ेल
 आग  लग
इस ब ीच
 अलग -अलग
ज ी
व ा 
 म े
 म ोहन
ुप ्ता 
 स्त र पर 
  औ
,  त
प त
 को ट
 पर िवार 
 न द
 त ैनात
 और  आ
- क
ज ैसे 
स त
 म ंडल
 सं ख्या म
 सुबह  
ा ऊ
 ग ो
प्र ेम
रह ी ह
कर्त ाओं
े पर 
ी  गई थ
र  आ
राज नीति
 सं स्थान
 म दद
ब ाहर 
स ुरक्ष
 प ाल
ार  और 
 फ ीट
ड ीज
ह ा कि
 सु विध
अलग -अलग
रेल वे 
उद् देश्य
िक  म
 आ गे 
प्र िय
 बन ाकर 
त्य ेक
  ऊ
l e
ध ीर
ब ीजेप
 भ वन
प्ल ाई
टक् कर म
ख रीद
े क्
 प िछ
 न गर
्प ण
िम्म ेद
 के माध्यम  से 
िरास त म
र्म चारिय
 हो  प
 लग भग 
क र्ता 
त ं
श ्किल
ाव ास
ंट ्र
ास्त ्र
a d
ल ्ट
 को प ूर
,  ल
ल ंब
 के म ह
 ध न
ा  विभाग
 क ु
ित ्व
 किया ज ाता ह
तल ाश
 हो ज ाएग
 रेल वे 
ज ाय
ने वाल ी 
ा न िवास
पीछ े 
उत् तर
3 7
r i
व री
स् कार 
 व जह
ज ुड
 स ाइ
 साल  पहले 
स्व ीर
चुक ी ह
ी सर कार
 क दम
 और  र
अधिक ार
रिक ॉर्ड
भाजप ा 
ा ल िय
,  च
ग ुर
ा )
ले क्ट
 जिस के 
ूच न
चुक ा ह
त ापमान
ंद िर म
ज ेल
 प ानी 
 ह ाउस
 व ार्ड
ूल ्य
इन ्ह
 चल  रहा ह
 चुक े ह
स ंत
स ाध
े क ई
ू र्त
 क ाट
 क ृष्ण
ा ह ुई
स्व ी
 के क ार्य
ुट ेज
राह ुल ग
ं थ
त ा म
 प ाकिस्तान
 द ी ह
िट ्ट
ा कर ते हुए
 दिन  पहले 
युव त
च ोर
 स िस्टम
 प ॉ
 कि र
ाउ थ
 की मौत  हो गई।

कार्यक्रम  म
ल क्ष्य
स िय
े फर
क् सल
रह ेग
 मह ार
सल मान
पाल न
खुल ास
 ह ी स
 की  स्थिति
ट्र क
 भ ोपाल
रो हित
 फ ैल
ाप ेम
स्व ाम
उ दय
क र्ष
श ल
 कर ाय
 साल  म
शाम  
व र म
ो .

ौ ड़
ा  ने कहा कि
 प त्र 
लग भग 
अन ुर
 अध ीक्षक
सूचना  मिल
़ ा।

ै क्ट
 स िट
 ग ाड
रो स
 नि गम
किस ान
र  के 
 ने  न
े क ुछ
 डॉ क्टर
िय ुक्ति
शन िवार
पुर  के 
ह ार 
ा  के ब
िने ट
 चंद ्र
क ुल
त भी 
ह िल
ॉ स
इस ी दौरान
ब िन
ाए  गए
 कुमार  ने 
 मंत्र ालय
 की क म
म ेश
र ूप म
 ल ड
 प्र ेम
 हो ने 
ने क ी कोशिश
़ें -
श ुरुआत
वि चार
ाया गय ा थ
 सी रीज
ा हुआ  थ
ाई ज ा रही ह
ॉड ल
अ ध
ा कर द िय
इमेज  कैप्शन
म ध्य
ाब ित
रव िवार
 चौ हान
प ेट म
 ज ाकर 
ने श
आरोप  है कि
मेर े 
 ले  ज
र रह े ह
 ख त्म
 कल ्याण
िग् ध
आ इ
ड र 
य ून
ा पुर 
ू र 
ी  स्कूल
इस ी तरह
ा म ामल
ंड ित
ष् प
म् ब
विश्व ास
ा म ंत्र
गत ान
ज्याद ा 
ेन् द्र 
घ ंट
त य
द र्ज
व त
ी ना 
 र ो
नेत ाओं
ू थ
ंग ाम
बह न
आए ।

अनुम ति
ग र्म
ॉ फ
 से  र
वार  को स
 क ्व
 की  और 
ुभ व
 क ब
 को तवाल
रह ने वाले 
ओ र से 
थ ाना क्षेत्र
न ाक
ल म
ि च
सी प
-  
3 8
द ास
ी  राम
 ए फ
 आप के 
धम क
 की  छ
 उ च्च
 घ ुस
ेड ियम
 के द िन
 साल  
ामन ा करना 
ग ार 
 का  सम
र राष्ट्रीय
ल ौट
ान ि
कर  ह
 छ ोड़
 के त ौर पर 
़ें :
 ख ेत
 आय ोजन
जिल े
 को गिरफ्तार  किया ह
घाट न
् ठ
उन से 
हम ारे 
 दो पह
प िछ
ब ाब
 प ैस
िप ल
 जन ्म
च ी 
च ाय
म ात
 ब यान
 ज ाएंग
ी क ह
र्थ क
 ब ुल
 अ मित
 के प द
 वीडिय ो 
' 

घ र पर 
 क ेजरीवाल
नि ट
 इस की 
ध ी 
श ेख
ु झ
सी सीटीव
 पूर ी तरह
 र ंग
 ग ुप्त
 पर  पह
 कंपन िय
श ोध
ै क्ट्र
 क ौन
 त ौर पर 
 श ुभ
 प्र व
ना  चाहिए
ाग र
 इस का 
त ुरंत
 के  ट
 ल ड़क
 का  भ
 वि रोध
्षे त्
ब ोल
 पह ले
 हुए  थ
जद ूर
ब ढ़
 ग ंग
 च ोरी
30 0
o l
 स ूचना 
व्य क्त
 इस म
 की स ुरक्ष
भी ड़
त ा के 
ी  कोई
 क थ
ुव ार 
घटन ा के बाद
राह त
व िन
गय ा थ
 बज कर 
 स्थ ल
 मेर े 
तिक ्रमण
)  म
,  फ
ं श
ग  की ह
च न
ल ा 
ह ाई
िव ेक
 प्रदेश  म
 पहल ी बार 
 केस  दर्ज
 वीडिय ो
ा क ्य
ोर ेन
द्धाल ुओं
ड  म
 वि देश
 के साथ -साथ
जात ी ह
स िद्ध
 द िया ज
 भारत  म
ी वाल
र् विस
 न ागरिक
 ख ुश
 सु ख
जानकार ी द
 विश्व विद्यालय
h an
 स त
 द र
 न िवेश
 इस क
पत् ति
1 50
म क
े ले 
ा  ले
 के  इस
 ज ित
इस  बात
 प्र ाथमिक
ाधिक ार
चौ थ
 हाद स
ध ाम
ी जन
 प ार्क
र् ल
ुन वाई
खिल ाड
स् कार
 और  अन्य
 को ब ढ
रीक्ष क
 जन वरी
ज्ञ ापन
ित ्र
ोग ्राम
्म िक
ोल ॉज
खिल ेश
को  लेकर 
 रिक ॉर्ड
ार्व जन
क ोट
 को  भ
 ख ोल
उस से 
 को स ूचना 
 कुमार  ने बताया कि
 स्ट ूड
 ग्र ुप
इलाज  के लिए
स प
ी ज िल
ाध ीश
इस्त ीफ
्र ष्ट
 ग त
 पर  ग
 ड िज
 ख ाल
ा के  दौरान
ेर े 
s  
त ा की 
व  निवास
ा चल
ा  पह
 ज ेल
 दिन  म
' ,
,  लेकिन
ज त
 ह ी ब
 ज ्ञ
 र ण
उप स्थित
त्स ाह
 भाजप ा 
 दु र्ग
ल ट
सद स्य
घ ेर
न ात
 क ंपनी 
ी  तक
 ब ीम
अप ने क
 मिल कर 
ौत म
 किए  गए ह
 नगर  निगम
ोफ ेस
क रीब
न गर
र् ध
 य ानी 
 राज ेश
रव ाज
 मंद िर म
ड ल
व र्ग
ि स्त
 ज ारी 
 का  इस्तेमाल
ाद ्य
िश ा म
ूर ज
 ही  नह
ेब स
ंबर  तक
शुक्र वार को 
 के अंद र 
संप र्क
4 4
ण ि
फ ्
र ाइल
लि ट
प्र साद
 य ाचिक
 हो  गई थ
ा के  म
6 5
ऑ नलाइन
च  गय
 क क्ष
 स िल
 की  भी 
हाल त
विश्व विद्यालय
4 00
प ाकिस्तान
ा ढ़
 त ीसर
ाड़ िय
ंबंध  म
िनिध ि
ल्ले बाज
ख ुश
ट ाल
त ैयार
र -
 ब िग
 अ शोक
 ने  अ
 प्र धान
 करने  और 
ार्वजन िक
9 9
ज िद
े क ाम
ाए  ह
स्ट ेबल
ंग ्र
बताय ा जा रहा है कि
 आय ुक्त
ं सल
 अ ंब
िया  ने 
 मह ास
व ार्ड
 की सम स्य
य दि
 के  पहले 
िय र 
ंक ज
ंक ड
  F
ज ित
व क्त
 प्र दान
ीत ीश
 तो  वह
ऑफ िस
छ ह
ौ द
 क ुश
ी  ओ
त् ता 
वि स्त
 ड े
 दे र 
आई आ
ज ीवन
 के लिए  एक
ा रह ी थ
बसे  बड
ी सं ख्या म
! 

ै सी 
जिस के 
चंद ्र
ज ारी 
ड े
ी  ने कह
अन ुमान
 के क ई
स्कृत िक
ई ओ
च ोरी
त ा को 
प ोस्ट
ी  के ब
ना  और 
ी है  और 
ब्ल िक
i t
श री
स ड़क
अभ िषेक
ठ ंड
र क्षण
 प ड़
 ल ाइ
 त रफ
 संबंध  म
 च रण
ी के  म
र स क
 क्य ा 
जिल े के 
न ाल
 ज ार
ाइ प
रात  
 के प ित
ं का 
च ार्य
भ ो
े  तो 
ी क र 
ी क ी क
्म ेल
 सं स्थ
ीर ज
भूम ि
ब िजल
ी .
 प ति
 प ेट्रोल
स् जिद
ां ,
ष्ण ु
ृ ं
ी  विभाग
श ान
 ज ाते ह
 पर  ल
ले क्शन
थ ाने म
 की  भ
ना ह ोग
 मुक दम
i  
ण व
न ान
न ीक
स फ
 के  अधिकारिय
ाय न
 रह ने वाले 
 ड ॉल
ाप क
ज्ज ैन
 वित ्त
च ोट
़ ा,
 ज ारी ह
 र ोज
 ल ूट
 भ ार
 त ाल
ंट ्रोल
ुट ्ट
र िया 
 प्र ोजेक्ट
ाई  गई ह
ले  गए।

सं ख्य
 के आ सपास
 मौजूद  रह
लिम िट
त त्काल
ब ज
ी  पर
 उ दय
ुक ेश
 एस प
न द
व र्क
 द े द
ाई  म
ा म ान
ंब र से 
जब ्त
ा सक ते ह
 से  घायल
ात े 
आई  ह
 करना  चाह
उ च्च
र  का 
ौ ड़
 स ेन
 म ंड
 सम ुदाय
िप ्पण
ोर ख
उम्मीद वार
ड ेय
भ र म
र ी म
ह री
वि द
आई ट
ि -
र  अ
इन के 
ाधिक ारिय
श्चिम  बंगाल
 को देख ते हुए
ट ेल
म ेल
र 

 क ान
 म ौत
 अ चानक
 कर ता थ
 ने  ग
 ठ ीक
द बाज
स र्व
ाम ले
 और  एक
 पर  लग
गय ा ह
 हो ने वाले 
भाव न
जाने  वाल
ew s:
उ तर
घ ट
स ेन
 श ु
ा म ुख्य
 की त ैय
 की र िपोर्ट
त  नह
भ क्त
ार  के 
ा की  ह
ुस ाइड
जानकारी के  मुताबिक
a s
ध े 
फ िर से 
ा  ड
 व र
 भ क्त
ेट ्र
पू र्ति
से म िल
 आप को 
एक्स प्रेस
गुरु वार को 
र  ग
िय ा क
प्र मुख
पू जन
उसके  साथ
मौसम  विभाग
 शुरू कर द ी ह
य ाचिक
ह  म
 की  गई थ
 न िक
 प्र भ
र म िल
 मिल ी ह
र स े क
ब्ज े म
पीएम  मोद
ट ेस्ट
र िम
 स प्ताह
ार िक
 प्र स्ताव
ाह ौल
ी न िवास
19 8
 का प्र यास
ा सामने  आया ह
ई ड
च िन
ौ सम
ौ शल
 को  अपने 
िन ियम
ी म ान
ंग ठन
 घ र म
 सं प
ते  रह
श्र म
चाल ित
ठ ाक
अल र्ट
ेहत र 
विष य
 राह ुल
ब दल
र ास्त
ने  एक
4 6
्य ाम
 का  शव
 न िर
ाक ू
ोट ल
 दे ते हुए
ष्ट ि
ीव ास्त
ाने  और 
 अन िल
आप के 
ी सम य
 हो चुक ी ह
उद् घाटन
त ुल
स ोन
ा ढ़
 क ृषि
 र ूम
 वि पक्ष
सु प्रीम कोर्ट
राब ाद
 नेत ाओं
अ क
प ै
स ंबंधित
 प ढ
 श ेख
 प्र भावित
ोट ाल
ी की  ह
र्ज ुन
ी द र्ज
बंध क
ैनिक  भ
ा जात ा है कि
ध ु
स व
ी म ु
ल् क
 जिल े
दो  दिन
 को अ ंजाम
द्वार ा 
अ योध्य
ब ार 
 व र्ल्ड
 का  उ
ीय ू
सम ेत
सं घ
ा गय ा है कि
 मन ोज
 क ॉल
 ह थिय
ग्र ुप
 के साथ  
 एक  बार 
 राज नीतिक
 कम िश्न
 आव ास
 दिख ाई
संभाव ना ह
ीवास्त व
ज दू
न न
 स ात
 प ाठ
 का  च
 ने  आ
ाव र
 फ ंस
 वि ष
नि र्म
ेयर मैन
छ ोड़
म ्प
 का  फ
ा के  पास
ा के  तहत
आव ास
्रष्ट ाच
इ धर
ई  म
प ढ़
 की  व्यवस्थ
 सं सद
्स  म
 माम ले 
अभी  तक
र्तमान  म
ेबस ाइट
ज ैन
परि णाम
 स ौ
 र ाठ
 पर  द
 य ुद्ध
 प्रति ष्ठ
 आरोप ी 
4 7
u n
ग ज
न क
श ास
्य ास
 र ुक
 र ेड
 ल िया ह
 ल ागू
 और  प्र
 पार ्षद
छोट े 
 जनता  पार्ट
 आ ने वाले 
पी ठ
मह ार
 के अ व
ये  भी 
 ट्र क
 की अ ध्यक्ष
4 2
ण ाल
ध ाई
 के ब ाह
र म ह
ग 

पु र क
ंत  स
स्क ृति
 म ल
ा क ा स
 ए ल
िस ाब
आय ोग
आ उट
े क्शन
 भी  द
 हम ने 
 डॉ क्टर 
 से ज्याद ा 
ट ूट
स ीम
ि रोह
 द ्व
शन िवार को 
ाष्ट ्
 इंड स्ट्र
 सू र्य
,  भ
ी  चल
 की स ज
ी दे ते हुए
 ब ै
िक ेशन
 ने  र
 घ र 
 जिस के बाद
चौ धर
श्व ासन
 प्रत ाप
ग  स
 के  मुख्य
ा क म
ता  लग
 पह चान
मु द्द
ाने  की म
ी की  ज
 अग ले 
ुबह  
इ ंग
 की  वजह से 
 कर ते थ
 मह ाराज
 घ ाट
ेड ल
दीप  स
डॉ क्टर 
लिमिट ेड
क ल्प
न ुमान
य ाब
 ह ी क
ी म न
वार  सुबह
ाय ात
 और  फ
 ए क्ट्रेस
 थ ाने म
 ट ूट
 एक  युवक
 मु ह
 हम ेश
ियम ित
 आई  ह
ाबाद  म
ड्र ाइव
 करोड़  रुपए
ी '
 को  नह
 अ जय
ात ायात
प्र कार
जान ा 
ैल ाश
 स्ट ्र
क त
श ार
े  गए
िय ो
 की  घटन
 से  द
 ने  उन्ह
 स्थ ापित
ऑ ट
च े थ
य ूप
ल ोड
 क ी कोशिश
रो ल
उस  समय
हन त
लेकिन ,
इ क
स िपल
ू र्
 प र्व
ाय ुक्त
 का  व
 और  उनके 
 च ु
 की सं ख्य
मौके पर  पह
3 9
प र्य
 की  घोषण
ाने  के 
 वर्ष  
धार ा 
मामल ा दर्ज
शी ष
 दीप क
t h
ग ढ
य ोजक
ी  पह
 हो ने के कारण
सम स्य
ा ज ब
 कर द िया थ
ाना क ्षेत्र म
बी आई
 सह योग
राह ुल
ेन् द्र
यात्र िय
द्रीय  मंत्र
  T
य ाग
 द ाव
ाव ि
ी क ंपन
वं श
राज्य  म
 के नाम  पर 
 राह ुल ग
ग ति
ग ंभीर 
ठ ित
व े
ा ढ
र  ड
 ब ने 
ा क ुम
ाय ा 
ाय ा और 
 ग ठबंधन
 ड ूब
हम ने 
 से ब च
ियंत्र ण
 विष य
र  को 
ल ाख
 द ू
त् मह
री न
सम िति
दरअसल ,
त्मह त्य
 प ंच
ार  नह
वि द्य
नि भ
राज धान
 की ज गह
 महिल ाएं
 उत् तर
a b
ल ाह
िय त
स्ट िस
क्र ेन
 साल  से 
ब् ब
 अभ िय
 एक्स प्रेस
ख तर
च ी और 
 र िलीज
 आ देश
ा ज िस
ी द िन
ी द ्वार
पाल िक
 युव त
र िज
् श
ार िज
 ज ी
 प्र बंधन
 तरी के से 
e l
श ेयर
स ी स
 स दर 
 ह व
ाम ी 
ाव नी 
 पर  च
 देख ने को मिल
िम्म ेदार
 उम्मीद वार
इ तिहास
उ सम
 स ेक
ा क िया ह
 पर  हमल
ग्रेस  ने 
ट्र ैफिक
 की क ीमत
 जिन म
् लेट
 स ैन
 प ुल
ी के  पास
लेक र
टक्कर म ार द
ख ्स
 च ेक
ंद न
 इस  तरह
आर त
 जिल े के 
बात चीत
द्योग िक
4 9
ज िसे 
स ूस
 स ज
ने  द
स् कर 
 आ नंद
र द िय
ह ण
 ल ाभ
ी क ैमर
 य ोजना 
ा रह े 
ज्ञान िक
ज फ्
म िशन
य ोजना 
ा  एवं
 ब ो
प्र ाप्त
 प्र यास
नी  चाहिए।

ुरु ष
ी हुई  थ
 हो सक ती ह
 आदम ी पार्ट
e :
व  के 
 स िद्ध
 के  नि
 त हसील
 और  व
ाइन ल
ाइन ल म
h ar
ड िज
ब ाग
स ात
 स ोशल मीडिया पर 
िल ंब
 प्र स्तुत
 के ब च्च
 ड ायर
स्प ेशल
 यह  है कि
 बैठ क म
 स्प ष्ट
  E
  लि
ने  बताय
 ज वान
 तथ ा 
 गल त
आ  रहे ह
ग ू
ैं ?

 च ौराह
अन ुभव
 साल  बाद
 ध ार
ार ह ो
 चुनाव  म
अ मित
छ ात्र 
ज ाल
भ ार 
ा  देव
 ज ीवन
 पर  फ
धार ्मिक
च े और 
र ेस्ट
ि ठ
ी ग
ी ?

र  (
 के  परिजन
 ब ीजेपी
िया  ग
ी ब हन
िर ाज
ा ब ोल
िने म
उत् पाद
ड़ े 
 न ाग
 हो टल
त्स व
 मही ने म
 शन िवार
ार कर 
्य ोर
 द ास
 को  रोक
 ने  अपनी 
 बज े
ीक ृत
 कोई  भी 
 कै मर
 की तरफ  से 
 खिल ाड
ा ें
ै दान म
ाब ंद
ुक दम
 इ क
 रव िवार
 शह र म
अ ंतिम
श ो
े  दिन
ा क िया थ
ने ग
 फ ैसल
ुल ्ल
 ख ात
ीय त
 शर्म ा ने 
लक ात
4 3
प र्ट
 पर  र
ी क ्षेत्र
र स ाल
क्र ोश
पूर ी तरह
वास िय
सुर ाल
त ेह
ब ाह
 ज ग
 पर िसर म
पाल  स
ाया ज ाता ह
स्थिति  म
ऐ सी 
ख र्च
र ेट
ी  को लेकर 
 की  मान
 ज ाम
ंब र पर 
घटना  म
ूर् नाम
B JP
ाज िश
 त ोड़
रह ा ह
 प्र भाव
ुल  
पी ओ
 सं चालक
 की स ुविध
श्य ाम
र्न ाटक
ाई ज ाएग
  ऋ
I R
म ार
ी  एवं
 य दि
पुलिस  को द
ल ड़क
 के  शव
 र ोहित
ले ख
ी क र ल
 मु स्लिम
ाने  लग
ाना  चाह
 टीम  ने 
 झ ारखंड
0 5
द ोष
ह ्म
 के  नेतृत्व म
इस  संबंध म
 ग ेट
 ख र्च
 इ स्त
ेत ु
 लग ा द
 मिल ा ह
ग् जाम
 यून िवर्सिट
जफ् फर
श ि
ी  फिल्म
 द ाखिल
 भ ू
स्त ुति
 वि द्य
 जान ते ह
ला परवाह
 से ह ो
 करोड़  रुपय
 मत दात
ब े
् ढ
 प ुरुष
 व िवाह
 श ेयर
 च ीज
ी के  दौरान
ग्रेस  के 
 जब ्त
जम कर 
C M
त ौर पर 
भ र 
ु र्
 म ीण
ान ा ह
 ज ीव
पु र स
ी म ौत हो गई।

क्ष य
 हो ना 
ी द ल
ैस ेज
रु ख
 मौजूद  थ
कर्म िय
 उत् पाद
्यर्थ िय
i d
अ चानक
ग ्स
् ति
 को  सम
ेस  म
 स्ट ाफ
ंभ ीर
िने श
 भूम ि
ंग्र ेज
प ाट
स िर्फ
र् धन
 र ाष्ट्रपति
ित ीय
 ग ुप्ता 
 कर द िया गया ह
देख ते हुए
 से ज ुड़
 से ब ाहर 
गे  और 
 यात्र िय
 दु र्
स्थानीय  लोग
प्रधानमंत्र ी नर
न ाराज
प ैस
ल व
ु द्द
ै श
्र ाफ
 ब ीत
 कर िय
ंज य
 की ब ैठक
ी त ो
रव िवार को 
 से स ंबंधित
दु ओं
एच ओ
त ेल
ने क
 को  समझ
वि र
 कम र
गढ़  म
 अभी  तक
S P
उ क्त
ख ल
ख ्म
ब ीन
 न ोट
ले न
ग ड़
श ्त
ें :
 स फाई
 के ब यान
 किय ा कि
विक ेट
रूप  से घायल
ठ ेक
अन िल
 मु ख
िया गय ा थ
गढ़  म
 हाद से म
जानकारी के  अनुसार 
)  ने 
B I
फ र्ज
र िश्त
ू  स
 प ढ़
 की  पूज
 अ स
पू त
 मह ाम
गोल ी म
ब्ल ्यू
िम्मेद ारी 
घ ोषित
 को लकात
ी ब ह
 दे ने
ीच र्स
ूच ित
िजल ्ट
ए यरपोर्ट
ल ूट
े  न
िय ा की 
 श ो
ाह क
 हो ने का 
बाद ल
ंज ूर
जद ीक
 निर् देश
 अहम द
  G
,  ट
. "

ॉ ब
 की  पहल
 व ्रत
िन ्
 श ासन
ाई  गई
े क ार्य
ाक ाल
मामल ा सामने आया ह
 सोम वार को 
त री
प ता चल
 र ैल
क् सी
ार  स
ाद श
 को हल
द् दे
स्थ ल
सी ब
एस एस
 छ ह
 के क ुछ
गर ान
रव िवार 
 अभ िषेक
सरकार  ने 
बैठ क
अंत र्गत
शी र्व
ड िड
प ेश
ब ान
र  भी 
 ज ागरूक
 के लिए  भेज
ुआ  ह
 की श ाद
 गु जरात
 का आयोजन  किया गय
ओ म
ल ीक
 म ोट
ने  से म
 अ ज्ञात
 को  सं
 इ ंजीनिय
भाजप ा के 
ेल् थ
C C
ख ूब
ड े 
ल ाइ
स ूल
आए  थ
च िकित्स
फ ान
य ं
 स प
ाई  गई।

 च ार
ा थ ाना 
वार ाण
ा कर ने के लिए
टीम  ने 
 दो स्त
हरियाण ा म
ti on
ई रान
े क्टर
 ज ारी
ाय म
 न य
 च ाल
 की श ाम
 दिए  ह
दु र्ग
सोम वार को 
शीर्व ाद
t  
आ धार पर 
प टना 
ा  लेकिन
्य ाज
 को  ड
 वि ज्ञान
 करने  के 
जानकार ी मिल
 मन ीष
 मै ने
बई  म
अ हम
ग ौर
त र 
ी ख
ै ने
 न श
 और  द
इंत जार
,  राज
 ने  उसे 
ा कि सी 
ेत ावनी 
हम ति
19 7
उनके  साथ
 विधान सभा चुनाव
 साह ू
ख ात
फ िर
ल े ह
व ा द
 स ाग
 प ौध
ाल न
 को  लेकर क
 पर  भ
ना  शुरू
ूं ,
वार  रात
 का स ामना करना 
 आव श्यक
 को  उ
 ल क्ष्म
 न ंबर
प्र धान
 उ द्योग
ी स हित
स्प ष्ट
मर ज
आए ंग
न्य ून
4 1
म ारपीट
व ेल
 को  यह
 न ाबालिग
िव ारी 
 जिस क
ट्र ै
 ड्र ाइव
 वर िष्ठ
ऐ लान
न ा है कि
 प ोल
 को  श
 न ारायण
े ह ो
दे कर 
 इस  मामले म
िट ाय
ेब ाज
 एस ोसिएशन
 किल ो 
इंद ौर
ौजूद  रह
ी ए
ा क र ल
 न ौ
 ग ृह
पु त्र 
त् न
िट ी 
 छ त्तीस
ाष्ट ्र 
ुध ियान
ार्म िक
बाव जूद
ास् ता 
त ैनात
ब ाक
र  की 
ि स्क
ी  को स
 स ाध
 ब र
 द े 
ित ाब
 ने  यह
 आ कर 
प्र त्याश
ी स ीट
र्ट िफ
सं जय
ी ज ाती ह
 छ ोड़
 व्य क्त
क श्म
ब यान
ल ्याण
ना  द
ाउ ंस
गु जरात
 कर्म चारी 
आ दि
ओ ल
ब ीजेपी
ी पुर
े र 
ै र 
ो ण
े  लग
 के  उप
 पर  चर्च
ी स ीएम
ार् द
र द र्ज
 सुन ील
ेश्व र 
हाद से म
धमकी  द
ट ोल
प ियन
 द र्शन
स्ट ेट
पर ाधिक
ी प रीक्ष
 नि र्म
 ऐ सी 
प् लेट
 न्याय ालय
 क्ल ब
े हुए  ह
 पास वान
भू षण
स्ल ाम
  V
2 50
ी ह म
पह रण
जन ता 
 सी जन
 स्म ार्ट
न ारायण
 का  निरीक्षण
नि र्वाचन
ैन ल
 की ओ र 
 से म ार
r a
न ाव
ब द
ा शन
ित  किया गय
 के लिए  र
 रह ते ह
स्थ ापित
र ब ्र
 जन वरी 
 कर्म िय
 हाई कोर्ट
थ ल
न ा कर
ै नी 
ौ ड
 ग ोव
्व त
स्त क
 इ लाके म
 सु प्रीम कोर्ट
महिल ाओं
डिड ेट
5 6
भ विष्य
ह ुई
 के  उ
 आ ंदोलन
ीं 

 करने  की म
ट्र ल
इं स्ट
 क्ल ास
 दिवस ीय
 पता चल ा कि
 कॉन् फ्र
ड िश
र क्ष
ी पुर 
 ज वाब
 से  भर
 आ सपास
ले क्टर
 उ त्तर प्रदेश
 से ह ी 
 मान सून
 देश  म
 सुन िश्चित
 सहित  अन्य
 के भ ीत
r o
ख ाल
ग र क
ज र्स
ी  तरफ
िय ो 
 अ दालत
पुर ुष
इन कार
 ऑ ट
सूचना  पर 
ए प
ख राब
त ाओं
न िर
र कार
र ाष्ट्रपति
 प्र कार
ाए  गए ह
ा है  तो 
क्र ीन
 ऑ परेशन
आज ाद
 की टीम  ने 
i c
i l
ि र स
 म ार
 प ्ले
ुर ी तरह
 इ ंच
ैठ क म
.. ..
 किसी  तरह
ास् कर 
 इंटर व्य
याग राज
द ूर
स ोशल मीडिया पर 
आय ा थ
 कर्म चार
श्व िन
 गण ेश
इ लेक्ट्र
ने  भी 
 ब े
 ब हन
इस  दिन
ष् कर्म
पूर ी 
गद ीश
अ ंब
स -
ा  के बीच
ा  य
 म िम
ार ोब
 ज ाता ह
 ज ाती ह
 र ास्त
दे ह
 दे ने के लिए
ी द िख
 हम ार
 जन वर
 के प्र मुख
 निवास ी 
 हो सक ता ह
जिस्ट्र ेशन
ेक् न
  ,
व न म
 स त्य
 म ोह
ने क्शन
 व  
 ल ॉन्च
ी म ौत
ाइ वर
 लग ाकर 
 कर रह ा थ
ा ॅ
ी ने 
 की  जान
ा क र रह
इस ी क
 त ुम
 ऑ नलाइन
ी आ दित्य
ुरुआ त म
डॉ क्ट
न ाग
प िक
ी र म
ैं ।
इस  साल
 इस के बाद
 ने शनल
 किया ज ा सकता ह
भी ड़
 करते हुए  कहा कि
ाधिक रण
वर्ष  
िक्क त
  L
8 5
ग ो
व ाड़
ी ।
 म जबूत
ान ंद
 ग ंभी
ेस  दर्ज
 हो  गए ह
स ार
ा "
ी  ने क
 ब ाहर 
ित ्त
 रह ने वाल
िप ाह
 साल  तक
 उप ाध्यक्ष
मौ क
 के ह ाथ
ावि द्यालय
ै ड
 स िक
 र ाव
 र िस
 से  शुरू
 का  ट
 ख ु
ौर भ
एस डीएम
ा का  आयोजन
 स्कूल  म
 प कड़
 ह ेम
 ब ेहद
मु श्किल
जात ि
 चुक ी ह
लोकसभा चुनाव  म
आ ने वाले 
ज ाप
न ार
 के  घर
ी स ूचना 
एक  बार 
 सह ायक
 दिल्ल ी म
 की द ुकान
in g
एड व
भु गतान
आ खिर
स् ब
 त ेल
पु ष्टि
दल ीय
ा को  स
 हजार  से 
 ओ ल
 ओ वर म
 इं स्प
तंक वाद
,  ए
ऑ स्ट्रेल
छ ठ
े  के साथ
ा  रोड
्र िकेट
 ज ु
 श क्ति
 ख ंड
a k
i s
ए क्ट्रेस
् लि
 स ामान
 म ंच
 द ब
पु न
 उ सम
ुम न
ेर ल
िट ल म
िज नेस
प्रति म
le c
U P
न ाबालिग
ह ायक
 का  उपयोग
 कर  दे
स्त र पर 
ाक त
िप ाठ
 बज ट
ी अ भ
 जान िए
 बुध वार को 
 के अलाव ा 
संख्य क
- छात्र
ब ीते 
र ग
 ह ॉस्पिटल
ने  यह
 कर  ज
राज ेश
ा की  ज
िम ाचल
 की त ुल
 श्र ेण
दिल्ल ी म
इ जर
ए एस
स फर
 की  वजह
 ब ूथ
 र ाकेश
 ल ीट
ी क ाम
री श
ा स ाह
 के द ूसर
 को ब ुल
पहल ी बार 
 सुन वाई
 परि षद
 संबंध ित
द ाह
ै दान
ो ले 
ा  पुलिस
 के स ंबंध म
 जिस की 
जय पुर 
 का क ार्य
वे  पर 
ला कार
 लोक सभा सीट
 पर ब ैठ
 अक ाउंट
5 1
ी र्थ
ी  वि
ा क ुछ
 न ोटिस
 की ब ेट
भाव ना 
 को ह ट
a v
i r
ह ाज
 म ोहम्मद
ार क
 की  इस
 ल ाइट
 भ जन
शन िवार 
भाग ्य
 कै द
 के मुताबिक ,
 गुरु वार को 
 निर् धारित
वस ाय
 को सूचना  द
अ ंजाम
क द
छ ल
ज ेड
ा  और क
ा  उठ
ले व
 च ुन
कार ात्मक
सी आई
श्र द्ध
ा सक ती ह
्रम  म
 का ह िस्स
च ु
ज ुट
त ाज
त ोड़
र ित
्य ूल
 और  श
 पर  रह
ी ब ीच
 की स ुबह
 पार्ट ी के 
 उम्मीद वार 
बुध वार को 
 समारोह  म
आईआ र दर्ज
5 8
झ ंड
ो एड
ा  यह
ाय ता 
 को  इस
 को  भेज
 ग ोपाल
 छ ात्र 
 कोर्ट  ने 
ी य ादव
 मुक ेश
 शुक्र वार को 
च ाई
प त्र
भ जन
 प ाय
 कर वाई
 बन ाने के लिए
 का क ोई
रव री
 यू निट
देर  शाम
शुभ ारंभ
ौके पर  पह
च व
झ ूठ
ू नी 
 क ीमत
्र ेट
 प ैद
 की  उ
 र वि
 को  पुलिस ने 
पु ष्प
ड़ ताल
 ख ड़
आग े कह
 विशेष ज्ञ
 प्रधानमंत्र ी नर
 करना ह ोग
 गत िविधिय
अ जय
ट कर
द ी के 
ध ुन
 के  मुख्यमंत्र
 अ ट
ी क ीमत
 ड ेट
 घ ूम
ी प द
 रुपए  प्रति
आर क्षण
 हो रह े ह
त ा का 
े स्क
ौ स
ी  देव
 स ोच
 के  विभिन्न
 ब नी 
 द क्षिण
 उ तर
 घ र से 
ा ब ेट
ताल ाब
ग्रेस  नेता 
हाद से
िश्न ोई
 पूछ ताछ
द्धाल ु
ऑ परेशन
ग ्वालिय
े फ
 ग ीत
 प्र ेस
वि ड
 फ िर से 
ा स हित
ग्र स्त
ेय र क
 पी ड़ित
पूछताछ  म
- च
ट ीएम
र ्र
र िया म
ु र 
ू ज
 और  च
्त िक
ी के  खिलाफ
मु झ
राज स्व
ारी  से 
 कई  बार 
ृत  घोषित
 की प रीक्ष
ार्क ेट
ोख ाध
ंघ न
 दोपह र 
1 20
ट र 
द क्षिण
े ।
िय ाल
िय ास
 प्र भारी 
 प्र शिक्षण
ी ब स
ी ब ाइक
 जून  को 
भूम िक
शोध न
ये भी  पढ
- एक
ज ग
ज लि
ध र 
ब ीच
व ा दे
 स ाझ
ा ह ाल
 अ रव
 न ीतीश
 भ ाव
 आ दिवास
 च लेग
 दे ते ह
 बन ाय
 को स ंबोधित
 जिस का 
गु जर
नीत ीश
 न्य ून
 स्प ेशल
 शु क्ल
व ेदन
ी ह र
प्र ाथमिक
 थ ा कि
 इ ंट
 सं विधान
आरोप ी ने 
गिर फ्त
ुरक्ष ित
 घंट े
-ब ार 
 मंगल वार को 
मंगल वार को 
 की मदद  से 
0 9
इ च्छ
ख त्म
त ान
म ोहन
ी  छ
ले  कुछ
ी क ुछ
 य ान
र्म चार
ंब र म
ाख ंड
ा कर ने का 
 तो  उन्ह
 सु ध
गिर ावट
मिल नाड
 से क ह
्क ुल
 बात चीत
ता है  और 
 पी छ
 अल र्ट
हत्य ा कर द
दाव ा किय
ी आदित्य नाथ
ई -
े ठ
ो हर
 के  घर 
 ज ोन
 अ योध्य
स्थ ापन
 दिन  बाद
ैस ले
आप क
ी व जह
 की बात  कर
जु र्म
 साम ाजिक
 संत ोष
A S
अ स
र ेप
ृ ज
ी  और क
र  लग
 स िविल
 की  सरकार 
 अ फ्र
 से  यह
 ल ेत
 का  समय
 प्र ाइवेट
 दे ने का 
 करने  की कोशिश
 N ews:
 कुश वाह
P M
व ीर
ा  पर
 ने  पुलिस
ी क ा क
ी स े क
जन क
िट ेन
 सर पंच
 नि र्वाचन
 घंट े म
 ले  ल
 रन  बन
 घंटे  तक
)  और 
ज ी 
न ्व
भ ंग
म ोबाइल
ै  और 
ार 

ी ह ाल
नि पट
 पर ियोजन
ी अ मित
  l
  लिमिटेड
ा क िया गय
 का  श
ले  से 
लग भग
 लग े 
 के द ो 
ी थ ाना 
 किए  गए।

 स्ट ेडियम
दिन  म
रात  म
ायल ट
ी सम स्य
 घंटे  पहले
 बाज ार म
 किलोमीट र 
ो स्त
ा  रख
 प्र िय
 ट िकट
वार  को ब
मु स्लिम
ाने  पह
बी एस
 लिए ।

ा सर कार 
5 2
5 7
ओ वर
घ ुस
ध री
ध ी ने 
 की  गिरफ्तार
 से  निकल
 का  पालन
 ग हर
ना  ने 
 के साथ  मिलकर 
ा के  खिलाफ
 दिय ा कि
पिछले  साल
 अध िनियम
 के अंत र्गत
त दात
स ो
 म ेडिकल
ा म ु
 फ रवरी
िर स
 ध ार्मिक
 को ब च
वार  शाम
िनिध िय
तिहास िक
 मोहन  यादव
करीब  
)  
0 1
उ त्तर प्रदेश
भ वन
ृ प
े  कोई
 प ैसे 
ंग ल म
अन ुप
त्त म
शिकायत  म
 हो गय ा थ
 करना  चाहिए।

ल्ल ंघन
  ध्यान
आ  रही ह
द ह
न िशान
ी  इस
 ह ी ह
 द ुनिय
्व ल
िस ाइल
 ट ाइम
 इ लेक्ट्र
िट ाई
 कर द ी ह
दू षण
 की त ैयार
ने से  पहले 
ाकि स्त
 पर क ार्रवाई
N D
ज ारी क
न य
र िस
 आ ठ
 त त्काल
हम ार
 मु झ
र्स न
 नि देशक
ी व िक
ी सम ाज
 आए ग
रु द्ध
दाल त म
 इस्त ेमाल
  लिस्ट
ं चल
अ ज्ञात
आ र्थिक
च  के लिए
ू  ने 
े  को
 त ोड़
प्र व
प्र भाव
 प्र थम
ीर िक
 उप चार
 आई ।

ल्प संख्यक
 की जरूर त
आरोप लगाय ा कि
a c
द ीव
ि स्प
 स क्रिय
िल क
ाग ्राम
 फ ायर
राज  स
 को स ्व
ुस ार 
मर े म
 मान व
  O
,  एक
अ र
फ ार्म
़ ी,
ान ा म
 प्र चार
त् थ
्व ान
ाप ू
देख ने को मिल
गल ुरु
 पर क ाम
बेट े 
ीनिय र 
 मुक ाब
 साम ग्र
ौक री
ज ैस
न ियम
 म कान
 ह ेल
्य ार
 र िज
 भ विष्य
 आ उट
 प्र ेर
 हो ने लग
 वि मान
 मह ीन
 को प कड़
 स्ट ेट
 को क ब्जे म
आइ ए
्मेल न
ख ु
घ ूम
द  केजरीवाल
य र 
ा क ा प
 द िया 
 से  फ
 से  चल
 और  ड
ध्य ान म
 सं युक्त
ी की  थ
 पर म
ी न गर 
तीन  दिन
श्व िक
रस ाइकिल
 की  हालत
 ब ाह
 ब ुजुर्ग
 र मेश
रो म
 ट ैक्स
 सं ख्या 
क्स र 
ना ह ी नह
सक ते ह
ाध्य ाय
ी हुई ।

शह ीद
 डॉ क्ट
टी आई
ा सम य
ॉस्प िटल म
ृष्ट ि
क े
च  कर
़ ै
 प ोर्ट
 प श्चिम
 द ी थ
 त िवार
 श री
 प्र माण
 च ार्ज
घटन ास्थ
 के सम ीप
 अफ सर
वी र स
6 7
ग ाड़
थ ुर
ब ना 
स ाह
 ब ाध
 कि शन
 फ िलहाल
धिक ारिक
मान ्य
अम ृत
 पीएम  मोद
ऊ ंच
ग ुल
च ेहर
न श
ब ोर्ड
स ाइ
 कर ोड
वि द्यार्थिय
ाए  रख
ा की  गई।

एस डी
 करने  के निर्देश
ाण  प्रतिष्ठ
 राज ीव
 राज नीति
 हम ारी 
 श्र ीवास्तव
 गु र्ज
ेश्व र
मामले  की ज
ुदाय िक
 से मार ने की 
ब ॉल
ल ोच
श क्ति
ने  इस
 ज ेल म
िल ास
र्म द
 दे ग
 नि र्णय
सु ख
विधान सभ
इंद ौर म
ा हो  गय
बिह ार
रद स्त
 का सं चालन
0 6
आ सान
च ले 
च ेग
ब द्ध
ह  ने कहा कि
ि ष्ट
 म ाध
 प ढ़
 ब ुक
 र ेट
 ग ुल
ी ब ड
ी के  रूप म
 हम ल
जिस क
अपन ी म
 राह त
ग्लादेश  म
7 8
I P
ह स
 ह ॉ
ाय र 
इस को लेकर 
 न ीति
ात  म
ुल ूस
 घ ट
 कर रह े 
आए ग
ाध्य मिक
 चुक ा ह
 किए ज ाएंग
ूह िक
 संद ीप
्षेत् र से 
ऐ प
र ेख
व िवाह
 क िनारे 
ा  राम
 अ रब
 अ रुण
 ल ेन
 का  ल
 न ाल
 और  उन्ह
 च ुनौत
ुन िया म
ी ब च्च
ुक ान म
ने क ा काम
जिस की 
सद र 
 सु धार
बर ेल
 मै च म
an d
प् पू
ग् ज
 जारी क िया ह
ग िर 
द  म
द ाद
व ेज
ु च
 र ाश
 द ह
 द िव्य
 को  निर्देश
 व ृद्धि
 प्र ोफेस
ाप ्ति
नि ष्
पुर ,
आय ुक्त
ट्र ैक
 आय ा ह
 की क ार्रवाई
ी हो ती ह
 की च पेट म
टक् कर 
 इसके  लिए
 शन िवार को 
ियंत्र ित
ेस्क ्यू
A P
ऑ ल
फ ै
ा  स्थित
 की  ट
 ल ड़क
 कर ण
ाए  थ
 फ र्ज
ाफ ़
िए ंट
ा द ्वार
 पू जन
ॉन ्ड
आए  ह
 मार् क
बिह ार 
आ शंक
क  
य ानी 
स ूर
ने  ब
 ज ैसी 
 ए यरपोर्ट
्ल ान
 घ ोटाल
 ध र
पुर  ग
 विभाग  ने 
ैक ड
हो कर 
िप्ट ी सीएम
क लेक्टर 
प कड़
म  म
स ड़क
ी  ले
 के  ए
 के  चुनाव
 द ूर
 अ ंद
ात ा थ
िया  से 
ति श
ार् च
 पह न
 कार्य कर्त
ने की  संभावना ह
 श्र ीराम
िस्ट ल
 मै दान म
सुन वाई
lec tion
ं व
अ शोक
उ तार
क ान म
त ाकि
त ी रह
ल ाक
 क श्म
 प ंप
 ह ार
 अ तिरिक्त
े ह ाथ
नि गरान
 तक नीक
 पर िस
ात्र ा म
ोर दार 
ील ाल
ी फ ुटेज
 जानकार ी द
इत ना 
 की तुल ना म
0 2
अ तिरिक्त
च ेन
े  करीब
 स ख्त
ने  पह
 र क्ष
 अ र्पित
 ल िया थ
 ल खनऊ
 आ ते ह
पु त्र
 प्र दीप
भी  नह
ंग न
र्म चारी 
ंब ुल
 सं स्कार
 उस से 
जय पुर म
पूर ा 
 कुछ  लोग
निर् धारित
 स्त रीय
 बिह ार
यून िवर्सिट
7 2
क ोल
ग ुप्त
छ ापेम
ज ोध
र ेड
ु ण
 स र्विस
िल ्ड
 द ी गई ह
 से  हर
सी  से 
आई एम
 किया ज ाए।

श्र द्धालुओं
19 6
को ई
 बाद ल
डीज ल
ख ोल
ग ृह
ड न
म ंदिर
ह  और 
ा  ने कह
 म र
्र ाइम
 प ल
इस ी बीच
ा ज ा सक
 की म हिल
ा प द
ोब ल
िह ार 
ी सम ेत
 दु ब
च क
ज  
म ेट
 स ेम
 के  ऊपर 
प्र दान
उन को 
िव ाल
िव ार्य
ुल ्ह
 किया  तो 
त्य ोह
राज्य पाल
 कै प
 के अनुस ार
युव ाओं
 मई  को 
राजस्थान  म
 एड व
 गो यल
  धान
क ू
ख ड़
च  के बाद
ट ेन
त हसील
म ोह
य ुद्ध
र ाशि
ी  को प
 प कड
 प ेपर 
ने  आ
ार  पर 
पु ण
िव ेद
ा थ ाना क्षेत्र
 मिल े ह
 ट्र ंप
ंगल वार को 
ा प्र त्याश
 पद क
 पद ाधिकारी 
 कार्रवाई  की जाएग
 B JP
 मुह ूर्त
e d
e t
ग ोव
ट र म
थ ा 
 क ड
 क े

ा क ारण
 द व
 त भी 
ाई कोर्ट
ी क े कारण
 उ तार
 मह त्व
सं सद
ला ठ
एन डीए
 ओ वर
िफ िकेशन
 ठ ंड
 सित ंबर 
 कार ोब
जिन ्ह
 मामले  की ज
 अम ृत
 के बेट े 
o m
य े क
ह ुत
 स ोल
 ग ैस
 रह ता ह
स्ट ाफ
सी ए
र्व ेद
गिर फ्तार 
आज म
उम्मीद  ह
गण ेश
ी अस्पताल  म
I M
अ पील
प ोल
व ाण
ु ज
 क लेक्टर 
 ने  फ
 त ्य
कर  ब
 च तु
ग्र ाउंड
ंज ू
भी षण
िया ज ाता ह
 भी षण
h a 
ग ोपाल
ज ून
प ैसे 
म ंडल
ह  चौहान
ी  लोग
ा  राज
 म ीडिया 
 के  निर्माण
ां -
ा ह म
 द िया जाएग
ाय ंस
 आ र्य
 प्र त्येक
ाक रण
वार  को क
हर ू
 उन म
 आप क
 से म ुलाकात
विरोध  म
 दिस ंबर 
 के  करीब
िग् गज
 किर ाए
इ ंजीनिय
क ाय
च ंडी
त ार 
प ानी 
 ह नुमान
 की  वारदात
 भ ारी 
ोग ्राफ
 प्र खंड
 य ूप
ले  पर 
स्त ्र
 इस  बात
स्व ीर 
 गिर ावट
ाउंस िल
5 9
ग ी म
ाम ाजिक
 न क्सल
ति ग्रस्त
ा कि ए
 वि ष्णु
सी  ने 
ील ंक
 " म
्यू ब
िफ ल
 सामने  आय
सह योग
 पत् नी 
्योर िट
उ र्फ
ब ुक
ब रामद
भ ीत
 ज ोड
 न ियुक्त
 न ौकर
 भ ी कर
 आ ने वाल
ी क ुम
 य े ह
र क े क
मु क्त
जय पुर
 विश ाल
यू पी
से क म
ाउंड ेशन
प्रत ाप
 शन िवार 
 की सूचना  मिल
तलब  है कि
त ुम
श क्त
 क ी
ी  टीम
ा  ए
 की  पत्नी 
ी म ोद
ना  पड
र्म िय
ुए  ह
 नि रीक्षक
त्त ा म
िह ार
पत् थ
 इंड िय
 सबसे  ज्याद
पल ट
शु क्ल
 वार दात
 दे रह े ह
ाष्ट् र म
S C
च ेक
ल क्ष्म
े क्स
 ज ोश
वि म
 ड ्यूट
 की म ह
 इन ्ह
 बच्च न
ा हो ता ह
 जुलाई  को 
साध न
0 7
M P
थ ित
न ागरिक
फ ायद
ब ारे म
य ान म
ह ्वान
 प त
 र ज
एक  युवक
 ख तर
 वि स्त
 बन ाने
वित रण
ाने क ी कोशिश
 परिव र्तन
 का ग ठन
ेक्न ोलॉज
ठ िन
फ ़
र ूम
स हित
 ज त
िल ीव
 द ान
 का  यह
ाक र
 ट्र ै
विक सित
 की र ाशि
 बाद  म
 देत ा ह
 ब्ल ॉक
प्रीत  स
ं .

ड िट
द ैनिक भ
व र्तमान म
ी  ने
 स ाबित
 प ्लेट
र् भ
र् स्ट
ाम क
्ट ्र
 हो ल
 सं जीव
ोक ेट
 किया ज ा सक
 के न ीचे 
लिख ित
 पद ार्थ
इस ब ारे म
इत ना ही नह
सभा क ्षेत्र
5 4
6 6
ज ट
ट ू
द ी म
द िए
ल ल
 म ास
 म ुन
 प कड़
ो  और 
 ज ाए
 ज ाने
 र ेफर
 और  उसके 
ंद ेश
सम ारोह
ाफ ी 
 सं चालित
सं युक्त
 के म ुकाब
श्र ी
म्म ू
जिल ा क
ृत ीय
आग  लग
 ई रान
 हो चुक ा ह
मिलनाड ु
य े म
ी कार
ा  छ
 के  विकास
 व सूल
इस  फिल्म
ना  नह
िश ्वत
द्र  सरकार
बी र स
 इं स्ट
r e
आ नंद
इ ज
ख िय
ग  को लेकर 
ु अल
ौ च
ार म
 व ाय
 प्र श
 फ ै
पर िसर म
 ड ीज
ी थ ी कि
ाट  कोहल
ा कर ते ह
दू र 
 द्वार ा स
प्रदेश  अध्यक्ष
 नव ीन
प्रति पक्ष
 पर स वार 
ृत्य ु
िथ ि
उ ज्जैन
ग  के लिए
च ुर
ी  को ब
ो ले
 ब ीते 
 ज ाट
 व ीर
 व  अन्य
 से  छ
 को हर
ी क ्षेत्र म
 के स हयोग
ुन ील
 वि द्यार्थिय
 शामिल  थ
 भाजप ा के 
 अगस्त  
ॉक्स  ऑफिस
अ ंक
म गर 
 क ैस
 ब रस
ी क ्य
 उ ड
ा को  अंजाम
 के प्र त
 के प्र देश
यू क्रेन
 आए ।

ॉप र्ट
र्प ण
 ज्ञ ान
आ त्म
क ेत
क ंपन
म ार्ग
व ा म
श ास्त्र
ि रोज
 क प्तान
ाय सवाल
क् व
 को  लग
 ग िर 
ाइ गर 
्म ण
 ड िप
ा द िल
ीड ी
त्र िक
 से ह ुई
िया ज ा रहा ह
ेह ोश
विधान सभा 
 पर ब ात
सू त्र
 संघ र्ष
 से बात चीत
ना थ ा कि
 महास चिव
  J
प टन
े ष्ठ
 ह ेड
िय ार
 ज ्योति
ी क ॉलेज
ंद ीप
ाफ ी म
ी की  ओर से 
 तो  यह
न्य वाद
स्कूल  म
 भी क ह
 की सं ख्या म
 अगस्त  को 
 सुरक्ष ित
 रो शन
 मुकदम ा दर्ज
  H
ध ्व
प श्चिम
ु ,
 ब ाग
 द ोष
ैं -
इस  कारण
इस  वजह
 का  इलाज
 का  रहने वाल
 आ र्थिक
 कर द िए
छत्तीस गढ़
न ौ
य ाल
र ैल
 क ंट्रोल
 ब म
 ब ेहत
 ब ॉलीवुड
 र ूस
 र िश्त
 से  पूछताछ
ैं 

 को  कम
क्ष  म
वि ज
ी स ेव
ी ब ोल
वार  को प
ंध ्र 
ंच ालक
विश ाल
वन  विभाग
अस्पताल  पह
उम ्र 
ार्द िक
  v
ा  चल
 को  लेकर
 न ्यू
 आ श
ी क ई
पर ेट
्ल ाह
 सम ाप्त
एम एस
 राज पूत
हाल ात
 चल  रह
बच्च े 
ी मह ाराज
जिला  प्रशासन
 मिनट  तक
 रव िवार को 
 जात ि
 स्वास्थ्य  क
ची  पुलिस ने 
  U
- दूसर
ं क्शन
म ो
व र्न
ृ थ
 ब ैट
 ग ौरव
 त िवारी 
ाह ्मण
 थ ी कि
ग्रेस  पार्ट
 कुमार  और 
र्थ न म
िग ेड
 सी सीटीव
 विक सित
 कै ब
एसप ी 
 अभियान  चल
नई  दिल्ल
o k
न ुकसान
स ाफ
े क्ष
 का  खुलास
 ग ार्ड
 ग रीब
पी एफ
ाक र क
ी ज िस
 छ ापेम
 चल  रही ह
19 5
 से क ुछ
 बच्च े 
 आर क्षण
ा दे कर 
बिह ार म
 संद िग्ध
 वित रण
 किश ोर
भो क्त
ृत घोषित  कर दिय
अ दालत
ज  म
न ोटिस
श ंकर 
र  पर
 स र्क
 द स्तावेज
 अ ंड
 का  मान
 को  ही 
 आ ने के बाद
प्र खंड
ाइ ंट
 फ सल
ा स ाध
 सम ूह
की  से 
 सं पत्ति
एस ोसिएशन
पुर ाने 
ुआ ।

 यादव  ने 
दीप क
 नम ः
0 3
0 4
ट ीक
ट ॉप
स िविल
े  कर
ो र क
ी  रोड
 को र्स
 आ खिर
 उ सी 
लग ाकर 
 एक  व्यक्ति
 सं भाल
ा कर ने
 नव ंबर 
 विधान सभ
जाने  वाले 
 लंब े समय
 वर्ल्ड  कप
E D
h i
u l
झ ाव
भ ार
भ र्त
व कील
 स फ
 ग ाय
ाज न
ाज िय
े क े क
ुआ  थ
मह त्वपूर्ण
ार म िल
लोक सभा सीट
ृत िक
आव ज
ी श राब
नी ष
 तेज ी से 
 मीट र 
 की सम ीक्ष
ुकाब ल
फरार हो  गए।

दाह रण
a sh
घ र ज
च  गई।

ब ीत
र ुक
ल ील
् ब
 म ूव
 प ुन
 ज ाल
 का  पहल
 का  विरोध
ित िन
 ग ाड़
 श ास्त्र
 कह ा था कि
ा स मित
 हो म
 मह ंग
 लग भग
ा द िन
पुर -
पुर  और 
देख कर 
 ठ ेक
 के सम क्ष
 की ल ागत
ना चाह ते ह
न ्ह
ि द्द
ु ब
ो पड
 प ंडित
ने  अपनी 
ाज ार म
 त ारीख
ाए  गए।

नि धन
ीत ल
सी ध
सं स्थ
ा द िया ह
 कार्य कर्ता 
 शामिल  हुए।

अनुस ार,
वीडिय ो म
स्म ार्ट
 सल मान
ख ून
ड ायर
र क
 स ूच
 की  फिल्म
 ग ड
 ग ौतम
 आ सान
 त िर
ंग ना 
अपने  साथ
 को प कड़
र्थ व्यवस्थ
काल ीन
ी सं घ
 बत ाते ह
 रव िवार 
 बिह ार 
सू र्य
संग ठन
र्टिफ िकेट
a p
म ुन
र ज
व ेद
ष भ
े ?

ा  चुका ह
 द र्द
 प्र क्रिया 
क्ष म
 रह ती ह
 ट न
दे ते हुए
 मु श्किल
स्व त
 से ज ल्द
से ना 
 जुलाई  
 शह ीद
जिस्ट्र ेट
घ ेल
च ीज
न ्यू
व ीय
स ीन
ार गेट
 को  बताय
इस  घटन
ाद ेव
ाज ार
दे न
ुम राह
ंध न
चल त
ढ़ कर 
ेशन  म
 के प्र यास
ाए ज ाएंग
 तब  तक
 गोल ्ड
 प्ल ान
ाने क ा काम
वित्त ीय
न ौकर
र वान
ु र्ग
 म ेल
 की  तो 
 ज े
 को  छ
 अ ंतिम
 का  तापमान
 न ार
ाज ार 
प्र थम
िव ि
 च ोट
ी क र रह
्ल ास
्ष िक
 इस  ब
ार्थ िय
इंद ौर 
शी र्ष
 मार्च  
 नवंबर  को 
ुद्द ीन
9 5
क ी
ग ी 
न ग
फ ैल
ु द्र
 स ार्वजनिक
 की  आवाज
 द र्जन
ाय ज
ाय ेग
िन ार
 फ ल
स्त रीय
ंज िल
 उन से 
ीक ृष्ण
 रख ते हुए
योग दान
 की सं ख्या 
 का म ाहौल
न् ना 
 की जरूर त ह
1 12
आ र 
आ त्महत्य
ऊ र्ज
ग  के दौरान
 क ी

 ज मानत
 र फ्तार 
 न गर म
 को  हर
 आ ने से 
्व ाल
जन रल
 ट ूर्नाम
िर ाग
 सं स्कृति
ैन ्य
 कर रह ी थ
 को ह िरासत म
इंड िया 
 अपराध िय
 स्थानीय  लोग
 विन ोद
6 00
a h
क ामन
ठ हर
प ोस्टमार्टम
र थ
र ाउंड
ा .
 प ंज
 व ्ह
 न ील
ी ह त्य
 ए यर
ी स ाल
सम ान
ा ज ा सकता ह
आरोप  म
ा न िकाल
 मुख्य ालय
 कार्रवाई  नह
भर त
वाद ी पार्ट
ेन् द्र मोद
 इंटर नेशनल
 ऊ र्ज
A D
उ द्योग
च  गए।

र ाद
ी  के बीच
 की  पर
 व र्क
 से  लोग
प्र स्ताव
 इ ंग
ुम ित
 एक  साथ
जान  से मारने की 
ढ़ त
 कार्य ालय म
धार  कार्ड
 ठ ग
ा हुआ ।

ी मह िला 
 पत् न
 बिल ्ड
 जल्द  ही 
परिव ार म
गुर ुवार 
आ श
क ाउंट
थ ोड
द ब
श ीट
ॉ फ्ट
ी  ढ
 म शीन
 प ाव
 ह फ्त
 ब ॉल
ात र 
े ह ो 
ंत ोष
सं विधान
 कार्य कार
 ले ने के लिए
 ऑ स्ट्रेल
 स्व ाम
ी श िव
नी की 
ास्ट िक
ी य ोजन
 हाद से
द बाव
श पथ
ा स्क
े  किसान
 ब ाक
 द ौर
 व ॉ
 श ान
 छ ठ
ी का  स
हन ुमान
 के त ीन
 देख कर 
 भार ी बारिश
 रन बन ाए।

5 3
आ गर
ज ाते ह
द ी 
न ीय
न ीचे 
र ूस
 ज ताय
 र ाउंड
 द ी गई।

 अ ज
 कह ा है कि
वार  की 
ा की  थ
 ले ख
जानकार ी देते हुए
 समय  म
 के ह िसाब
 बाइक  सवार 
कट ्ठ
 सू त्र
 फर वरी 
 महीने  पहले 
अंद ाज
 चिकित्स क
 संप न्न
ी शन
े :
े हनत
ा  शुरू
 के  अन्य
 प ाट
ान ी म
िय र
िक  ह
ाय ा कि
 ए प
रो शन
 इ तिहास
इसके  साथ ह
ा ब ल
आई ।

ीप त
 ओ म
ेन् द्र स
 सितंबर  को 
,  जिसम
आ ठ
घ ु
ज ू
ठ भ
ल ड
ल ू
ी  योग
ा  तक
 ब िश्नोई
 ज रू
 र ोग
 ल िया गय
 त स्वीर
स्व च्छ
जब ल
जानकार ी 
इस दौरान  उन्ह
ी हो  रही ह
 मई  
भोपाल  म
 त्र िपाठ
  W
आ ते ह
क ंपनी 
प ाठ
ै च म
ी  रात
 स िख
 स ैनिक
 द िनेश
 से  च
 भ ूप
 थ े 
ेल ू
 वि ज
 इस  साल
वार  की रात
मु जफ्फर
नी  चाहिए
ीक ृति
स्थित िय
 श्र द्धालुओं
भाजप ा ने 
ेवल प
 कर सक ता ह
 का द ाव
थाना  प्रभारी 
 भूम िक
 शाम  
इमेज कैप्शन ,
िलंब ित
6 8
अ रव
स् पी
 ने  ल
 मह ेश
सु विध
ने का  प्रयास
मिल कर 
 का प्र त
ी ख बर
 की अ पील
इंड स्ट्र
रोज गार
 का द ौर
 हो ज ाता ह
एक्ट िव
I n
T V
ए ंट्र
क  ह
ग ोद
ब ीब
 म जदू
 अ ध्य
 को  होग
प्र वेश
ीं .

 ए क्शन
ी की  स
 आय ा थ
 ट्र ैफिक
रिक ्श
 ऐ से म
 राज्य  म
ौजूद  थ
लेक्ट्र ेट
 पूर्ण िम
 साइ बर 
ोखाध ड
ड ू
ल ाफ़
ु ग
ौ र से 
 द ेन
 अ ंस
 श ूट
ले स
 के स चिव
्व ेस्ट
 उ क्त
 फ ूल
 फ ॉर्म
ुल ्त
 ट ोल
सी रीज
 मह सूस
 की ब िक्र
ी न िकाल
ोम वार को 
 से ज ीत
 से  कोई
म् र म
क्य ा 
 योग दान
इसक ी सूचना 
 इंद ौर
A I
ई  बार 
श ेष
ह  को 
 क ौर 
 द स
ने पाल
 कर ाने
ना  स
ड़  म
 ट ी
सं हित
 को ब ाहर 
एन एस
ी श ाद
गत िविधिय
श्व र्य
इंड ियन
 सुरक्ष ा 
रोह तक
इंटर नेशनल
 आग लग  गई।

 का सम र्थन
 ताल ाब
ा मुख्य ालय
स- पास
क ित
प ेट
म ंच
स पोर्ट
॥ 

 क ेव
 म जदूर
 से  उ
 त स्कर
 फ ैक्ट्र
ेज  म
हम ले
ा ब च्च
 ने ट
म्म ान
ॉप ्ट
 पुर स्कार 
दोपह र
 बाज ार
चरण  म
अनुर ोध
6 9
इ ंच
ट ेक
प कड
 प टना 
ने  की म
 अ र
 त त्व
ाए ,
 ख ाद्य
पी ज
ारी  और 
 अप ने क
द्र  कुमार 
ेय र म
उप चार
 ' म
दु र्
ेश्व र म
पड़ ता ह
तैय ारिय
ा सर कार
त िन
प त्र 
व ॉ
ा  के बारे म
ा परवाह
 क पू
र  थ
र  नह
 स ार
 प थ
ा क ी क
 न िश
 न र्स
 को ष
 भ ाष
 त िथि
ीं -
 श ्याम
ी स ह
अप डेट
काल  म
बेट े
 काफ ी 
 वीडिय ो म
ी अमित  शाह
)  के 
ग ठबंधन
फ ायर
व  के पास
श ्ल
ॉ र्च
 क ्षेत्र 
 म ोर्च
 र ावत
 उ त
ता  अभियान
 इ जर
वार  को म
ोक स
 की ज मीन
इन क
 की स लाह
चुनाव  आयोग
ाध ीन
 के अ ध
 आय ु
 को द िए
ोस ेस
जु ड़
अंत रराष्ट्रीय
 दिसंबर  को 
 एक्ट िव
 ऊ ंच
 इंटरव्य ू म
च ी थ
फ ूल
ब र स
ाल ाल
ा क ा क
क् कर 
 व िवेक
 श िफ्ट
 ए ंट्र
ता  ज
ुन िया 
ा ज ल
ंट वार
न म ंत्र
 लाख  रुपय
उप चुनाव
डी आर
 ग्र हण
रोज ग
इं स्प
थिय ार
 की सूचना  पर 
जेल  भेज
क्सी ड
 घंटे पहले 

0 8
ए क्शन
ग स्ट
च  शुरू कर दी ह
न  स
प ोस्टमॉर्टम
म ंड
 म ेडिकल कॉलेज
 र ेप
ाम ले 
 अ ड्ड
 ल ापरवाह
 ने  च
 ए श
त् र ब
ाप ता ह
 मह ाप
 सु पर
 कर ल िया गया ह
 जय पुर 
आगे  बढ
 रेल व
 न्याय ाधीश
पड़  रहा ह
ट ीट
त  स
य ातायात
 क ी कोई
 की  जन
 र द्द
 भ ंड
ी क ारण
 सं रक्षण
ंज ीत
अधिक तम तापमान 
 की स ेव
 ध ाम
 की ह ै
 स्ट ोर
 सीट  पर 
 जम ा कर
 जून  
इंत ज
छोड़ कर 
विधानसभा चुनाव  म
 अभिय ंत
 अफ्र ीक
अ र्च
त ोड़
ल ड़
े  के लिए
 के  पीछे 
 की  राजनीति
 ब ोर
 व िर
 से  नह
 भ ु
 आ र्म
 के ब ह
 उ द्
ी ब त
पी एल
ी के  नाम
 पु ष्प
 ध ीर
हाल त म
भाजप ा की 
विधान सभा म
रिपोर्ट  म
 अंत रराष्ट्रीय
 सुर ेश
 परिव हन
 वै ज्ञानिक
अपराध िय
लंब े समय
ंत स ोरेन
7 7
आ ंदोलन
ी "
ार ू
 अ ह
इस राइल
 श ख्स
 पर  चल
वि मान
वि चार 
जन पद
 ड िव
सी बीआई
 तक  नह
सं धान
ी ज ब
जब ूर
ीब ीआई
 हम  लोग
ोद य
डी ह
 क्य ा ह
िह ्न
प्रदेश  के 
 काम याब
 पर क ाबू
तेज ी से 
at h
 पट वार
 करते  रह
वस ूल
 पॉ इंट
 महाम ंत्र
ेतावनी  द
ृथ ्व
,  राम
6 2
a j
र वि
ू र्य
 प ंड
ार  चल
 ग ोद
 को  पुलिस
िन ्द
के  थ
ी क ्ष
 य ाद
ना  पड़
 फ ोर्स
 ख ूब
ाक ्रम
ेर िस
ूल ्ह
मान सून
 छ ीन
 सु भाष
ेय जल
म्म त
 के र ास्त
ला इस
 के न ए
 मै दान
पार्ट ी के 
और  कहा कि
 जय ंत
 सिर्फ  
स्वागत  किय
 अक्टूब र 
ा समित ि
8 00
ए ंड
श ूट
़ ु
ू र ह
ै क्षण
ा  भारत
 स द
 स ाउथ
 म ेह
 म ौत हो गई।

 के  भाई
र् क म
 से  भ
ात ि
प्र ाइवेट
 कि रण
त् र स
ुर ेश
 कह ा गया है कि
री 

 ट िप्पण
पुर ा म
10 8
ीक ल
 उप योग
 जिल ा क
ारी क र रह
 दो  दिन
 मही ने से 
गण ना 
न् द
न्व य
 कैब िनेट
- म
u p
ग ान
च यन
प संद
र क्षक
ल ागू
ॉ ग
 क ंप
 प वन
 ह ार 
ाय र ब्र
 अ र्जुन
 से  सं
 आ र्ट
 आ चार्य
प्र त्येक
 श ब्द
 प्र करण
ाह िर
ी क ार
 हो ता है
ाप सी
ाने  का प्रयास
 लग ात
इसके  तहत
िर  पर 
 ध म
 सक त
 जब  तक
द्र  सरकार 
 इंड ियन
 ठाक ुर
फरार हो  गय
रेलवे  स्टेशन
वेदन शील
आ ंख
ड ोज
फ सल
स ाग
 क ौ
ी  स्थित
ी  श्र
ा  चुके ह
 प शु
 की  भीड़
क् का 
 को  और 
 न ाराज
प्र भावित
 श ार
िव क्ता 
ाइ ंड
ुए ं
 मिल ी थ
ी ज गह
 मौ क
त्त िय
ी ग ल
ा मिल ेग
ुनिय ाद
 घटना  म
िटाय र्ड
ैक्षण िक
आ ने के बाद
इ मरज
ओ डिश
क ात
ज वान
ठ ान
म ोट
म ूल
ह ट
ि भाव
 र ोल
 र ेव
ने  की बात कह
 को  व
 को  बताया कि
 का  शुभारंभ
 आ कर्ष
 त लाश
स्ट ार 
 ट ाट
ुम त
अप मान
सम र्थन
हम  लोग
 राज धान
आय ुष
डी एसप
आप त्ति
ाया ज ा सक
पित ा 
तेज स्व
 केस  म
भा षण
 साह िब
 इत ना 
 गंभीर  रूप से घायल
श्ल ील
- जगह
i on
च य
र ात्रि
व ात
ृ श्य
 क ्रम
 म ॉडल
 ब द
ाय व
 को  ट
 आ बाद
 पर  थ
 फ ुट
 इ व
 हो  जाती ह
राज ीव
िए ट
ा ब त
 बज े म
शव  को प
शह र 
विशेष ज्ञ
न्याय ालय
 भूम िका 
 की सज ा सुन
ग ाल
च  कर 
ज ोर 
ध ारण
ह  ब
ा स्कर
् ध
 स ैनी 
ान िव
 र ाण
 द िश
 का  त
 को  परेशान
ा ज ो 
ेड िट
हम ेश
 राज स्व
ते  समय
 कार्य वाह
इसके बाद  
 अभ ्यर्थिय
 सह ायता 
ाए ज ा रहे ह
 रिपोर्ट  म
ार्यक्रम  म
ारंभ िक
साम ाजिक
हाई कोर्ट
1 10
ग ीर
च  की जा रही ह
ड ्यूट
ी  अपने 
 की  धारा 
ा क ा म
 कर ाने के लिए
 प्र क्रिय
े क ्य
लग ात
पुलिस  ने बताया कि
 सं शोधन
िट ेल
 तक  
 दे ने की 
 की म ौजूद
 के म ालिक
 के अ लग
 को ब न
ुश ्किल
चार  संहित
ारी फ
 जो  कि
इसे  लेकर 
गोल ्ड
 संग ीत
ोत्स ाह
ोप ण
दर्श ित
िक्र िया 
 फर वर
्यूज ील
इंस्ट ाग्राम
3 50
u s
ं की 
ए आई
ए यर
ख ़
ग रीब
छ ाप
द ौर
न गर म
प  म
ब ाड़
व ंत
 प ंकज
र् घ
िक ्
 अ मर
 को ल
 आ ता ह
के  और 
सी सी 
पुलिस  अधीक्षक
ेड कर 
 छ िप
ोह ल्ल
ग्रेस  म
 लेकिन  वह
लोक सभा 
 किसी  ने 
 स्व च्छ
 मान ्य
े रह े ह
आरोप लग ाया ह
 किए ज ा रहे ह
इत नी 
 के अव सर पर 
दावा किय ा कि
,  जबकि
C B
इ ट
इ स्लाम
क ुश
ड  पर 
प न्न
ब कार
व ्रत
ा पुर म
ी र स
 ब ेल
 ल िया और 
 न ाक
 न ुकसान
 भ वन म
्व ेल
ंद े 
ता  पर 
ाग ज
 हो ती है
 एक  ही 
 मह ोत्सव
िम ाग
 करने  पह
 के र ाष्ट्रीय
 की श ूट
प्रति बंध
 दिए  गए ह
परिवार  के साथ
 एम एम
आम  आदमी पार्ट
 पुर ान
जे ता 
 संद ेश
 ठाक र
 उपस्थित  रह
द राबाद
म य
य श
ु लेट
े ना 
ां 

 भ ोजन
िन ल
 कर  चुके ह
द् र ह
 ट ॉप
ंब ल
ा की  गई ह
ल् की 
 की स ूच
ट्र स्ट
 से क हा कि
 शर्म ा 
ड्र ोन
 इं जन
जवाब  म
इंत जाम
इंटर व्य
 तैय ार ह
 के मुकाब ले 
ुल्त ान
6 4
8 8
अ ज
न िवेश
ब ैक
ब ॉलीवुड
भ क्ति
ह  (
ी वार
 क 

 के  जिल
 के  नेता 
्य ुन
 ब ालिक
िक ोण
 ग ेम
े क ी कार्रवाई
 रह ा है
िश ियल
चुनाव  लड़
 हजार  रुप
म् बर
गंज  म
दर्श क
 इंद ्र
भव त
खेत  म
ेल् फ
 पाठ क
लेख क
 इंजीनिय र
'  म
उ धर
प ी 
ब ुजुर्ग
म ौत
र ेज
ल िया 
स ुसाइड
ह िस
ि ड़
ो च्च
स् त्र 
 द ेर
ने क्ट
 व ेतन
 श ंकर 
ाव ड
 च यन
 इ ंत
सर ाहन
िट र्न
ोर ूम
ेय र ब
र द िन
 ले ते हुए
 से ह ट
ुश ्म
 तो  म
 पार्ट िय
 ले  लिय
उनक ी म
 परीक्ष ा म
मृतक  की पहचान
ैब िनेट
 गुर ुवार 
 सूचना  मिल
खिलेश  यादव
ज ्योति
द ुनिय
ब ीम
ब ाड
य े ह
व ैसे 
 स िर
 व कील
 को  सम्मान
 भ ी मिल
 श ाख
 के स ी
स्ट ेडियम
ा थ ा 
 वि चार
ा के  ग
ंट न
 पु त्र
ट्र ंप
 पूर े म
 को म जबूत
ा र ाय
 को गिरफ्तार  कर 
प्रत ियोगित
ार्ग दर्शन
 योजन ा के तहत
फोट ो 
लखनऊ  म
शान दार 
िभाव क
t er
म ीडिया 
व ण
 र च
 व ायरल
 ल ेट
 ग ौ
 आ ध
 पर  रोक
ी स ु
ोल ्ड
 मिल ता ह
ा द िख
हम ारी 
 छ ोड
 की ब ैठक म
ट्र ेल
 गय ा और 
 करोड़  रुपये 
 की प्र क्रिया 
तिथ िय
 की ख रीद
उम ्र
ुल्ह न
7 6
उ ल्ले
त रण
न ोज
म ूर्ति
व र्धन
स ोशल मीडिया 
ान ी की 
क् कर म
 से  हमल
 ग ायब
 को ड
ति रंग
त् र द
क्ष ित
 उ त्सव
ुल स
 के साथ  एक
 हो  गए
 भी  ज
ा की  स
 उन को 
ंप  म
ेब ्यू
फिल्म  म
 यून ियन
रास्त े म
विद्य ुत
जुर्म ाना 
ग ानि
ध ूम
भ ल
म ी के 
 स िन्ह
 म ूल
 प ायलट
 ब ाढ़
 ज ज
 र ंजन
 त ुरंत
प्र श
 और  ल
 ए च
्ल ॉक
 इ म
ा थ ान
पुलिस  मौके पर पह
ाश ्त
चल  रही ह
जिस  पर 
 चल  रहा थ
बन र्ज
 अव स्थ
 उनके  साथ
 एस डीएम
 कॉ म
गु ज
 C M
 पान ी की 
ाक्ष ्य
 के वि रुद्ध
ा हुई ।

 लाइ फ
इधर ,
गौर तलब है कि
धुन िक
7 00
अ गल
ग ाह
ग ्न
न ुम
व ीएम
स ा 
ि स्तान
ो 

 ह ल्क
 ब नेग
 र िम
 र ाध
िल ाई
 द िया और 
 त नाव
 श ुल्क
ंत ु
पर िस
स्थ ाय
ी ज ीत
खिल  भारतीय
 नि रीक्षण
 ने  किय
 ट्र स्ट
ीद ार
ाउ ंसल
 चौ धरी
 मान ा जाता ह
घर ेलू
श्य प
 जिन के 
 मिनट  पहले
 सोम वार 
 अब तक  
ंपर िक
आपको  बता द
ोभ ाय
स्वी कार
सीसीटीव ी कैमर
 इंस्प ेक्टर 
ायर ब्र िगेड
क ब
ब ै
 स ेट
 के  पीछ
ार ्षद
 की  भूमिक
स् फोट
ने 

 को 

 कह ती ह
ी स ाह
 हो ने के 
ग्र ाहक
नि देशक
 सं साधन
 कार्य कर्ताओं
ाच ीन
 आज ाद
पित ा ने 
अव गत
प्रति ष्ठ
 रन  बनाए
 परि णाम
 प्रशासन िक
थान ाध्यक्ष
 पिछले  साल
 बिह ार म
 पर्य ावरण
 की तलाश  म
 राश िफल
ग िल
द े 
द ाम
ल टक
ी ल्ड
े )
 ह स्त
 ब ंध
 ज ंगल
 र ाष्ट्र
 को  अपनी 
सम स्त
 हो  जात
 लग ाए
ेग ूसर
ोर म
 की स बसे 
दू ध
ुड ्ड
 भारतीय  जनता पार्ट
 कर सक ती ह
िम्म ेदार 
 विश्व ास
पंजाब  म
 अप्रैल  
 महार ाष्ट्र
र सक ते ह
हस ास
ेगूसर ाय
e m
ग ार्ड
ी  करते हुए
े .
ै -
ी  यह
 स ूरज
 प ता नह
्य ूम
 को  अपन
 ग ति
 और  सं
्ट न
द् र ब
पी ए
 इस  दौरान
 घ रेल
र स हित
आई  थ
चुनाव  लड़
 अन ुर
 की र क्ष
ोस ाइट
 आव ाज
 ने कह ा है कि
भारतीय  जनता पार्ट
रोज गार 
 को देख कर 
ॉय ल
 प्रतियोगित ा म
ठाक ुर
h o
क ृति
ग ोरख
च स्प
न ी म
प ॉ
प र्ड
व ्ह
े  लोग
ी  लेकिन
ा  अपने 
 स ेल
 स ूचन
िय ाई
 की  उप
 व ाद
 व ेस्ट
 अ त्य
 ने  ट
 आ काश
 और  ट
 प्र श्न
 च ंडी
ी क ृष्ण
स्थ ल पर 
ोन ू
 सम स्त
 इस राइल
 भी  शामिल
उस  वक्त
कि  यह
उनके  पास
पूर्व क
 सरकार  म
 जम कर 
 -  
पान ी की 
िनिध ित्व
 नजर  आ
बुल ्लाह
तं त्र 
 डिज ाइन
i v
ड िय
ल ख
़ -
् नि
ी  पुलिस ने 
 की  रहने वाल
र् बाद
स् क्रीन
िल िट
ने  के दौरान
 से  ड
 भ ्रष्टाच
 आ त्म
 श ुरुआत
ाव र 
ाव ेद
 ए ग्जाम
ी स ुन
ी ब ार
 सम ान
ाओं  के 
 सं ध्य
सी  और 
ूल ाल
ी ज मीन
 क्य ा है
 इन  दिन
 पहले  से 
गु जर 
 आर त
इंद िर
 अपन ी म
 समेत  
 एक्स पर्ट
 को त ैय
 किश ोर 
िस् से म
S O
क ाम
ट ी 
ध न्यवाद
व ेस्ट
व र्ल्ड
़ े।

 क पड
 स ाढ
 के  अधिक
 प संद
 की  छात्र
 व ाट
 ल ाया गय
 का  ड
 न ंद
क्ष े
 रह ा है कि
ड़ न
राज द
राज न
 घ ोषण
 सं भाग
 मिल ा थ
ंध ेर
ी ज य
ी ज ्याद
 की ज ाती ह
 ध ूप
 को प त्र 
 ने बताया कि  
 के पास  पह
खन ीय
 जिला  प्रशासन
थिय ार 
चे  तो 
आ ग्रह
औ सत
ग े

म ी 
म ाय
म िट
र ेशन
 ह ल
ा ह िस्स
 को शिश
ाज ल
 और  भ
 और  पुलिस
 थ ोड
ी स ंगठन
ोन ाल
एस पी
इसके  चलते 
िर  ह
ाजप ेय
योग ्य
 चौ टाल
से क्स
िने शन
 ई -
ा श र्म
ड्र ाइवर
 हाल  ही म
 दिया गय ा थ
 इत नी 
 एफ आईआर दर्ज
 देर  रात
निर्म ल
शास कीय
ab ha 
उ त्साह
क सद
झ ुन
ट ल म
म ुर
व र्म
ान बीन
 की  यह
 कर ाया गय
 श ैल
एक  दिन
स्थ ाप
 पर  कोई
ेग म
ा ब दल
 अप डेट
ीक ाने
 की स ह
ी से  म
 आय ुष
ाच ार
पूर्व  म
मर ान
 अव धि
 महिल ा की 
एन सी
ा प्र त
धर ना 
 उनके  पास
संभाव ना 
 पर्य टन
ा की म ौत
7 1
घ न
च ाच
छ त
द र क
व ृ
स ज
ा ;
ी  जान
 के  छात्र
 ह वाई
ा क र रहे ह
 पर  रख
ले ब
 य श
 ख र
ाप ति
ा रह ेग
 भी  लग
 मिल  प
इन  दोन
ोह र 
र्स  ने 
 चल  रहे 
 के खिलाफ  कार्रवाई
विध ि
 ऐ प
विक ल्प
यू व
 आई  थ
 शिक्ष ा विभाग
ता द िवस
 जून  तक
विरोध  प्रदर्शन
पट ेल
एक्स पर्ट
 एन डीए
ात्म ा ग
 की जानकार ी द
ख बर
ट िक
ब ूत
ल ड़
 की  पत्न
 ब स्त
िक अप
 र ूट
 अ सम
 का  उद्घाटन
 ग र्ग
 भ ाट
ेश व
 कि  
ाई ,
 य ातायात
ीट ्यूट
 पर ंपर
 के द र्शन
पुर ान
स्व रूप
जब  तक
ेशन ल
 विभाग  म
ैक ेट
ुध वार को 
ग्राम  पंचायत
 करव ाय
 सेव ा 
न्न ाथ
चित ्र
द्र मोद ी ने 
वाय ु
व्याप ारिय
 अक्टूबर  को 
जल्द  ही 
कामन ाएं
अ रुण
ऑ र्ड
क ृष्ट
ड ंड
न ोट
े  करीब 
 क ी कि
 क ौशल
 स ाव
 के  रहने वाले 
्र ुव
ार ी के 
 व ास
 न ृत्य
 न ियंत्रण
ाद र
ाज िल
ाई  गई थ
 च क्र
 ड ीएम
कार िय
ी ब ंद
ार् क म
ारी  खेल
 पु ण
 की ज ीत
स्क ूट
 के क ाम
अब  
 के आ स
 पूर ी खबर
 विक ्रम
घर  पह
 आए ंग
ती है  कि
गण न
नव ीन
 P M
िन् दू
आ श्वासन
प ात
र ेव
ल ड़क
स ी क
स ीत
ह व
े ने
े लि
ै थ
‍ ि
ो  ने 
 ब ालक
 से  अपने 
 से  तीन
 का  लाभ
 आ  रही ह
 और  त
 प्र ोड
री ल
एक  साथ
 हो ते हुए
ा ज िला 
ने वाल ा ह
 सं चालन
 बज े क
ाना  चाहिए।

र्स  म
12 5
ी श र्म
 प्रत िनिधि
 पुर ाने 
 थाना  पुलिस ने 
 थाना  प्रभारी 
 रात  
आवश्यक ता ह
ी की ज ा रही ह
ाकिस्त ान म
,  उ
9 4
a :
ख ाना 
च ौराह
ज ोर
ब ंगाल
भ ूत
स  स्ट
़ ी।

ु ड़
ै रव
ो र म
ो कार
 क ौर
े  तो
 स िम
र् ब
 ज स्टिस
 र ोह
 न या 
 ए क्टर 
ी क हान
्व ीट
 ट ीच
ाओं  से 
ाओं  के लिए
 सं योजक
 करने  को कह
 लोग  घायल
 जिस ने 
व्य वह
 को ब ंद
वर ात्रि
 उप ाध्याय
ी र ाह
 किल ो
 किल ोग्राम
ा सम ेत
 भर त
सह ायक
ौके पर  ह
बिल ास
 रेलवे  स्टेशन
 कमर े म
ख र
ख ाद्य
च ार्ज
स िट
ा  लेकर 
 स ाय
्र ोत
ों 

 ब िक
ा ह मल
ने  को कह
लि हाज
 ग ठित
पु ट
 प्र कार 
 रह ी 
 फ ेल
लग ता है कि
अन िवार्य
 लग ाय
ी थ ाना क्षेत्र
्न ई
ोज ना म
स्व तंत्र
 कम  से कम
देख ा कि
द्र  यादव
ा न गर 
 का स बसे 
लाल ू
समय  म
उसक ी म
प्रत िनिधि
 समेत  अन्य
े हुए  थ
पार ्षद
,  जह
9 2
आ दिवास
क  स
ग  और 
ढ ाई
र िलीज
व र्त
 स वार
 म ाय
ार स
ों -
स् नान
िल ्प
 को  मन
प्र ोजेक्ट
 किय ा है
ा द िया थ
 बन कर 
 पुलिस  अधीक्षक
ी ने  बताय
 को स ु
स्क री
जब  वह
 स्क ूट
दिल्ल ी के 
 नेत ृत्व
 इंद ौर 
 I n
ृष्ट िकोण
 लोकसभा चुनाव  म
तथ ा 
 कदम  उठ
 प्रव क्ता 
ुकदम ा दर्ज
8 1
r a 
अ ग्रवाल
इ तन
उ त्तर 
ग ,
द ंड
ि ड़
ॉ ल म
ो त्र
ा  ।

 प ंत
 प ब्लिक
ा क िया 
 द म
 अ तिक्रमण
 का  मामल
ित  कर
 ने  अपना 
ाग ंज
ी स ुरक्ष
ेल वे 
 इस  दिन
ाफ ्ट
ारत ूस
 है  तो 
 ( S
 को स ुबह 
 की स ीम
ोड ल
र द ्वार
आर एस
 कुछ  नह
 टीम  म
 के न ीच
भाजप ा म
शिक्ष ा 
 उनक ी म
रिपोर्ट ्स
भा स्कर 
सवाल  उठ
बाइक  सवार 
जरूर ी ह
परिव हन
उत्पाद न
उ चित
ख िर 
ग  ह
न  ह
र ाध
स ैन
ा घर
ी ने म
ा  नाम
 प ून
ा ह ुए
क् च
ार  ने 
 का  शिक
 का  आरोप है कि
 कि  यह
 प्र णाल
 च ेहर
वाल े क
ा के  रूप म
जब रदस्त
 सु धार 
आप को
 के न िशान
अभ िन
ा त ब
गु स्स
 का प्र योग
 आए  थ
ीक्ष ित
र्वाच ित
पहले ह ी 
सबसे  पहले 
I T
ग ुन
ि र्ज
 म गर 
ाय िक
ाय तक
ने ह
 ल ोह
 ने  सभी 
 ग ्वालिय
ास कीय
ी क ट
ंग त
एक  व्यक्ति
 सम ाधान
पुलिस  ने क
ेर िट
रण नीति
ये  बात
 करने  ज
 से क ाम
 आप को
ाना क ्षेत्र 
ी हो  गई।

िशन ल
 माह  म
सुन ील
अब तक  
जीव न म
 उपस्थित  थ
 ले ज ाया गय
 हथिय ार
6 3
C P
t :
ग  की थ
ब ेहत
श क्क
ह  उर्फ
 क पूर
 स ीत
 स ब्ज
ित ेश
प्र शिक्षण
लिए ।

 के लिए  क
्व ाइंट
 फ ंड
 सम र्थक
बताय ा गया कि
 मह ाव
ा ब ढ
ीज िए
क्त दान
 की स फाई
 दिन  तक
 के क ्षेत्र म
 लाख  रुपये 
 जन पद
 प्रति बंध
 चौ थ
शिक्ष ा विभाग
 अगस्त  तक
 विधान सभा 
 विद्य ुत
इजर ाइल
घटनास्थ ल
ंगना  रन
y a 
अ सर 
ख ेड
े  तक
ा  इस
ा  ने क
्र ाट
 ब िर
स् ड
ात ा है
 श ाल
 प्र ाधिकरण
भी  स
ड़ बड
 हो ना ह
 हो टल म
नि भाई
सम र्थक
 मिल ने के बाद
 बज े ह
उप ाध्यक्ष
 द्वार ा ज
 मान सिक
 कै ट
ता  के लिए
पूछ ा कि
 आए  ह
ब्ज े से 
 हो सक ते ह
 सबसे  बड
 दिल ीप
ाभ  बच्चन
 आम  आदमी पार्ट
 हथिय ार 
पियन शिप
 घरेल ू
E O
o d
ड िव
न िश
ी गंज
ॉ र्प
ा  देख
ने  प
 की  झ
 च ेन
सम ंद
 के द ोन
 है दराबाद
ोर ेशन
ा और  म
इन की 
 के म ंत्र
ी त ेज
जय ंत
 ने  किया 
 जब ल
 ग्र ीन
 किस  तरह
प्ल ान
ार द िय
 दर्ज कर वाई
 फ्ल ाइट
पिछ ल
 प्रताप  स
i g
अ प्र
क ृष्ण
भ ोज
र ाख
व  के लोग
ि :
ो र पर 
ने  पर
 द लित
ाक ृतिक
 भी  शामिल ह
इसके  बावजूद
हम ंत्र
इन ाम
व्य वसाय
 ने बताया कि  वह
 उप ाय
आप की 
19 4
दूसर ी तरफ
 करना  शुरू
ी सं स्थ
स्म ृति
हल ोत
 बड़ ी संख्या म
झारखंड  म
 वित्त ीय
 व्यक्त िय
,  जो 
च  शुरू
ट ाट
म ृत
ा  ले 
ा  वह
 की  गु
 ज ोध
िक ान
क् चर
 का  उद्देश्य
प्र चार
िन त
 पर  नह
क्ष ेत्र
ाइ श
ाइ क्र
ुल न
नि टर
नि रीक्षक
ी की  गई।

र स ं
ा कर ने से 
आय ु
र द िख
इसके बाद  उन्ह
 के खिलाफ  मामला दर्ज
मौ के से 
गिरफ्तार  किया ह
ता है  तो 
श्च ात
 यू पी
 कंपन ी के 
प्रदर्शन  किय
 पर्य ाप्त
 बिग ड़
ंभीर ता से 
 स्मार्ट फोन
ंध्र  प्रदेश
ok  S
न्ह ैय
गानि स्तान
शक्क त
ऐ तिहासिक
ज ाग
भ रोस
म तदान
श ुप
ह ोग
ी की 
 क र्नाटक
ी  शिकायत म
ा  झ
 स ारे 
 स प्लाई
 प ीज
 प लट
 ह ेतु
िय ोजना 
 ब ेस
 द र्श
ने  की बात
 को  उनके 
 व ेर
 व ेबसाइट
 न ग
 भ ी बन
उन म
 प्र ोग्राम
 य ा नह
 हो ना चाहिए।

ध्य  प्रदेश
ने वाल े ह
ा प ान
भग त
निर् दलीय
 सी ध
तल ाम
ॉन् ग
 का ज वाब
 देत ी ह
मे र 
धीर े 
 ज्ञ ापन
नात न
रिज र्व
 जीव न म
हादसे  के बाद
 के अलग -अलग
- ए
. ॐ
9 7
उ से म
ऊ पर
ए एसआई
ग हर
ब ेहद
भ तीज
ह  निवास
ृ त्त
 स भी
 के  अधिकारी 
्य ून
 र वान
 के लिए  ज
ा स ाथ
 ख ो
ुक ड
 मह ाविद्यालय
राज कीय
अन ्न
 मिल  सक
भाग िय
 अन ुप
 ट्र ैक
े थ े 
 करीब  एक
 कई  लोग
राज्य  सरकार
प् ले
से क ह
 जय पुर
 हो चुक े ह
 बनाए  रख
 F IR
 निक ाय
इंच ार्ज
,  पूर्व
c h
आ कर 
ग ी ज
च ुनौत
भ ान
भ ्रष्टाच
श तक
श ुल्क
ष ्य
स ी ब
ि प्र
 क ं
ा  भाई
 स न
्र ह
 अ नेक
 से  इस
 ग ्ल
 प्र दूषण
ना  से 
वि ट
ा स ु
ा ज वाब
 भी  इस
 ( A
 साल  का 
ग्रेस  अध्यक्ष
ी प ारी म
ी त री
ंक र
 के बीच  म
 से ब ाह
ाएं  ह
 श्र द्धालु
 से क ई
रिक ्ष
 चौ की 
 अभ िने
पत् नी
 लोक सभ
ष्ण व
 भाजप ा की 
 सुन कर 
 का प्र दर्शन
 शिव िर
घर  लौट
यह भी  पढ़
बड़ े 
 पत् थ
दिख ाई
अंद र 
अगले  दिन
 डिज िटल
)  पुत्र 
अ ंड
च  गया ह
ड ी 
र ाठ
 स त्र 
 प ीट
 प ेड़
ने  तक
र् ती ह
ा क ा कहना है कि
 र ुख
 कर क
 आ शीष
क्ष ेप
 के स बसे 
ाइ ल म
ी स दस्य
 हो ने के लिए
सी ओ
 भी  थ
ेर ण
ंट ित
ा ब ढ़
िम ंडल
आई ज
ुआ ं
िवार िक
 ध ्व
 सु शील
 किए  थ
ाच ार 
 की त ारीख
 प्रति म
मेर ठ
 स्व तंत्र
 स्क ीम
शिकायत  पर 
तल ाक
भर ाव
आग ामी 
भी क ह
 ग्राम  पंचायत
 दु ष्कर्म
आरोप लग ाते हुए
 तेज स्व
 की फ सल
प्रभ ार
 के ख ात
सम्मान ित
धमकी  दे
अफ सर
r at
ऐ से ह
च  कर रही ह
म ंदिर 
र ी से 
व ीर 
ृ हमंत्र
े ई
े क्षण
ी  लाल
 के  यह
िय ाना 
ने  के साथ
 का  भुगतान
 भ व्य
िव ान
रो इन
सी जन
 घ र पर 
 मु क्त
ेद ारी 
 की स ुनवाई
 रख कर 
ी ग र्म
 कार्रवाई  करते हुए
 डिग्र ी दर्ज
 बाज ार 
ीएस ट
ैत िक
 भर्ती कर ाय
 कॉन् स्टेबल
अयोध्य ा म
इंग ्ल
ट्रै क्टर 
 के भीत र 
 को बाहर  निकाल
,  इ
8 3
E T
S S
ऊ द
ए ंट
क भी 
प ार्क
व ीन
स ाई
स ामान्य
़ रीब
ी  इ
 स त्र
 ह र साल
 द बाव
 अ ंग
 से  उन्ह
 ल ेवल
 कर ती थ
 भ ट्ट
ी क र द
 कह ा थ
ड़ प
सम ूह
इन  दिन
 अन ुस
 हम ले
 की ब ड
ुट ेर
आर प
 अपने  साथ
उसके  पास
 इन म
 की ओ र स
ी प्र त
ास्त विक
 भी क हा कि
 कॉलेज  म
 सबसे  अधिक
रेल व
 चंद ्र 
राय पुर 
 जारी क र द
 मध्य  प्रदेश
मता  बनर्ज
 कथ ित
ाढ़ े 
न्यून तम तापमान 
 रिस र्च
9 6
ग ौरव
न क्सल
फ ोड़
े  व
े  भी 
 स िनेम
 म ुर
 ह र्ष
ने  लिख
 ब घेल
 का  चुनाव
 ग िल
े क े कारण
 उ त्तर 
िस ल
पह ाड
पर ंपर
 वि द्यार्थ
 हो  गए थ
 किय ा

 ( क
 पुलिस कर्म
ंक ड़
द्य म
वार  से 
र्य ात
 की क ार्य
घटन ा के 
दूसर ी ओ
चौ की 
 लेकर  पह
जार ी ह
 अभी  भी 
्मेल न म
 एक बार  फिर 
)  को 
8 7
अ गर
च ाव
च ुन
छ ूट
ज ोन
द ार ह
न ी ह
प िल
फ तेह
स िम
ि ब्ब
 म ारे 
िय ा को 
 की  लापरवाह
ा क ्षेत्र म
 अ गर
ार  थ
ाद क
प्र यागराज
 श रण
रो ड़
 हो ने ज
े म ह
 मह ान
ेड कर
सं कल्प
जब क
 का स ामन
ी श ामिल
 की प ार्ट
तम  
 ब्र ह्म
प्रत िनिधिय
 युव ाओं
न् द्र
 ड्र ोन
 भर्ती कर ाया गय
सभा क ्षेत्र म
सूचना मिल ते ह
 की अध्यक्ष ता म
इलेक्ट्र िक
ी योग ी आदित्यनाथ
A L
D A
u m
ग ीत
च ेत
ज ाद
ज ाकर 
द िव्य
ि गर
ॉ इन
् फ
 प ात
 ब िछ
 ज ाने से 
 द ी गई
 व िल
 अ द
 ने  भाग
प्र दाय
प्र ाण प्रतिष्ठ
 च ढ
ी स ड़क
री बन
 फ ं
ी ब ढ़
पी सी
ा है 

सर पंच
 सं कट
 मिल ने पर 
 की ज िम्मेदारी 
ी और  म
जिस का 
क्रम ण
 ग्र ाउंड
ॉन ्स
यू ज
 बह ाद
 भाजप ा ने 
धार  पर
 की न ई
 की द ूर
 घटन ास्थ
 बस  स्ट
िशान ा बन
 नर ेश
ा जिल े
 नद ी म
नात क
 का च यन
अहम द
ौच ालय
3 70
M C
अ सम
क िश
द  स
प िन
फ रीद
भ व्य
ा  पुलिस ने 
 स भी क
 ब ाघ
 ज ाग
ा ह ाथ
 द ेस
 को  फोन
इस  मामले
 ग ोरख
ी क ल
 के लिए  म
 के लिए  भी 
ध्य म
ने वाल ी ह
 सं ख्य
सी  पर 
ा ब ड
 उस के बाद
ाध व
 ध ारा 
द्ध व
पूर्व  विधायक
 ले  गए।

विभाग ीय
गंग ान
 फोट ो 
 देर  बाद
ेट्र ो
 का उ ल्लंघन
सूर त
दैनिक भ ास्कर 
 का मान ना है कि
 शान दार 
ोनाल ्ड
ओ पन
ट ाइम
न  ने 
प िटाई
ब िग
र ाल
ल ुधियान
 क नाड
 के  घ
 प ेट
ान क
 ह ेल्थ
 ब ाय
 से  आए
 से  अलग
 ने  ड
 आ  गय
 आ तंक
 त ुल
 त ीर्थ
ंग ाबाद
 फ ॉ
 ट ेक्नोलॉज
दे ग
ीत  स
मान सिक
क्र िया म
 पर 

 बन ाया गया ह
 को स ुन
 की स भी 
पहले  भी 
 के आ गे 
 के प्र धान
 " हम
, स ्व
 हर ि
आग ाम
16 0
ौर  पर
अग स्त
शाल ा म
 खुल ास
हार  लग
ज्ञापन  स
वर्ग ीय
डिज ाइन
 कोष ाध्यक्ष
अ पहरण
च  के दौरान
ड ्य
द िस
न ज
न तीज
प ौध
प र्सन
य ूट
ै  नमः
ड़ ताल
ी  शुरू
 के  परिवार
 र ान
 ल ाइस
प्र ोड
 पर  ध्यान
 प्र ार्थ
्ल ब
 ट ू
 ट ेल
र क ुम
सम ाधान
ी के  चलते 
ेड ्यूल
ंज िश
ग्रेस  प्रत्याश
डी सीप
 रख े 
मुख्य  अतिथि
 कै श
 का स ामान
 से 

 करना  पड
ी सम झ
ता द िख
दु ख
 सित ंबर तक
 दिस ंबर तक
 परीक्ष ा 
ाध्यम  से 
जरूर त
आसपास  के लोग
 मध्य प्रदेश
 के द्वार ा 
,  ख
,  श्र
6 1
:  आज
अ त्य
आ शीर्वाद
क ेस
द िवस
ब नी 
स र ह
ा कार
् ना 
ी  नेता 
 म ेडल
 के  पु
 ह िम
 की  स्थापन
 द शक
 न ाथ
ित ना 
 ने  अपन
 भ र म
 आ लम
ाव स्य
 थ ाना क्षेत्र म
 फ ार्म
द् र पर 
ीन गर 
ेस ीब
 एक  ब
ारी  व
जान े से 
भाग ार म
 की ज ाए।

 लेकिन  अब
ंच ित
देख भाल
भाव ना ह
लोक सभ
 सी ख
बच्च े
 का प ता लग
 के ज वाब
म् बर 
 साथ िय
रम ेश
वै धान
 अक्टूब र तक
 मे हनत
जैसे  ह
 साइ ंस
F IR
a i
त ह
द स
 स ोशल मीडिया 
 स र्जन
 के  थ
 की  यात्र
से  बात
 से  जान
 आ क्रोश
 पर  लिख
ी म ात
ा म ाल
ेट ्ट
 फ ाइन
 फ ीस
ी ब ढ
 सम ्मेलन
सी एच
पुलिस  टीम
ा द ूसर
 बन ा हुआ ह
ी ने  अपने 
 अन ुम
पुर  थाना क्षेत्र
ोड़ कर 
 ने पाल
ी अ व
 आप की 
 ओ र 
 शिक्ष ा 
 के ज वान
 जीत कर 
ब्र िज
 जानकार ी नह
 अंक ित
रहने वाल े ह
उदय पुर 
अनुमान  ह
 सदर  अस्पताल
िठ ाई
ा को स ंबोधित
ok S abha 
E lection
च लेग
ड ी म
द रवाज
ि 

ू झ
ी  इलाक
ा  ने
 के  आरोप
 प ्य
 ह ंगाम
 ब ने ह
 ज ाने के बाद
 से  मन
 का  ऐलान
रह े 
 के स वाल
स्ट ार
पी ड़न
ग्र ीन
 लग ी ह
जान े पर 
मान े पर 
सं भव
 राज कुमार 
त्य क्ष
 छ ूट
 के म ौके पर 
 के अ भ
ेय क
डी एफ
क्टर -
ैद राबाद
निवास ी 
 रात  म
 पर आ धारित
विन ोद
शार ीरिक
 मार्क ेट
 v s
- ज
प र्व
ब र ह
र ाकेश
ल िक
 क चर
 क नेक्शन
ा  घ
 म िशन
 को  इलाज के लिए
 को  जब्त
 अ ल्पसंख्यक
 से  भाग
 ल िया गया ह
 न ीत
 भ ी हो
 कि  वह
 प्र बंधक
 प्र जाप
ी म ैदान म
 के ब जाय
ता  ने 
पर ाज
 हो नी चाहिए।

यह  
ा ज ान
 के बाद  
ेन ्यू
ा द िए
ेग ा 
 है  जो 
 उस  समय
ंच ाल
ंच ालन
ी न जर 
श्र ीलंक
 ले ते ह
 रख ा गया ह
 के प क्ष म
लोक सभा म
 यादव ,
 मुख्य  अतिथि
 समझ ौत
व्यक्ति गत
जवाब :
ी कार्य ालय
ाऊ ंग
 इंग ्ल
)  के रूप म
,  जान
7 4
क ूट
ख ारिज
ज ाक
ड म
ब िर
ब ल्लेबाज
स फल
स प्ताह
ा ...

े घ
े ले
ौ फ
् जर
 स त्त
 प श्चिम बंगाल
िय ाज
 से  वह
 से  दो 
 न  केवल
 न ीरज
 ग हलोत
 आ पराधिक
ास ूम
 और  वह
 ए ंट
 रह कर 
ी स भी 
ुक ेशन
 सम र्पित
 स् पोर्ट
 मिल ती ह
स्प ोर्ट
 कर द ी गई ह
मह ंग
ी का  नाम
अब ्द
ा ने  बताय
डी सी 
सु झाव
जम े
 के सम र्थन म
ी ख ान
 करने का  निर्देश
 उसके  साथ
 रोड  पर 
 विधान सभा सीट
 पत्र कार 
 जरूर ी ह
 छत्तीस गढ़
आगे कह ा कि
कोल कात
अ मर
घ ात
त र्क
न ंबर 
भ ट्ट
ु र्म
ृ ण
ै व
 क ार म
 के  इ
 ह ाज
 ब ुझ
ाय ट
ाय र स
क् फ
 अ ंग्रेज
 ख नन
पी एच
 एक  स
ी ज ात
 छ ाए
 हम लाव
 को प ी
 को प ू
 ग्र ाहक
शुरू  होग
विक ्रम
उनक ा कहना है कि
ता थ ा कि
 रन  बनाकर 
 परि स्थितिय
 सहित  कई
चर्च ा म
पिछले  दिन
 घटन ा की 
 सामने  आया ह
 समेत  कई
ay  
 लड़क िय
 संसद ीय
र्र ाष्ट्रीय
 पूरी खबर )

7 3
उ त
त स्वीर
ब ेच
र ोग
र िए
व ाकर 
श ेद
श ुद
स ा म
स न्न
ह ेम
ू फान
 क ब्ज
 क श्यप
 स ोरेन
ने  नह
 ब ेन
 ज ा सक
 अ क्षय
 न ंब
 न ीचे 
 आ इ
 के ब ड
े क म
स्त र
ग्र ेड
ी की  गई ह
 लेकिन  यह
द्र ित
ी को  भी 
पूर े म
ेस्ट िव
 स्व ीकार
बाज ार म
ा ख ान
जिला  अस्पताल
ा सम ाधान
अगर  आप
े कह ते ह
कई  बार 
 किलोमीट र
 महीने  बाद
 की शिकायत  पर 
 कमल ेश
अनुर ूप
णव त्त
ी कंपन िय
 डायर ेक्टर 
ित्त ल
 की उ म्र म
 माध ो
ख ोज
प श्चिम बंगाल
ब ीस
ल ोह
ष ाद
ॉ निटर
 क ा कि
ा  देश
 स भी म
 ज ायसवाल
 द ्र
ाम ुम
 ल ीड
 ल क्ष्य
 आ तंकवाद
ास िक
 कि  म
 च िन्ह
ाइ फ
 कर  रख
ीम ीट
सी एस
 मह ा
ा की  गई
ाने  की बात कह
ा द े द
ोर ेट
ी का  म
 कुमार  म
 ने हरू
ी अ ध्यक्ष
ने बताया कि  
18 0
ा अ ध्यक्ष
भी क म
ब्ल ॉक
 हाल त म
 भी ड़
माण ु
धाई  द
ोत्साह ित
अ द
उ ड
औ द्योगिक
ग  का 
च पेट म
ट  ह
ड ो
त ा को
द त
प ्य
ब ुर
 म ाफ
 म ास्ट
 म ूल्य
 की  लिस्ट
्य ूर
्य क्रम
 ब ैर
 र िल
 द त्त
 न  ह
 आ त
 त ल
के  स
 च ले 
ाए  तो 
 कह ान
स्ट ल
ी स ुविध
स्त ाक्ष
 ख ेले 
े म िल
ार्य ालय
ा की  ओर से 
 मिल ियन
जान िए
 बन ाने म
 बन ाने का 
मह ास
मह ाप
ट्र ॉफ
श्र ेष्ठ
 के खिलाफ  केस दर्ज
मन ोज
 पर क ब्ज
 को द िख
 की श ुरुआत म
 झ ूठ
ंभ व
ाई ज ाती ह
इं सान
बच ाव
 R E
 हरियाण ा म
 वन  विभाग
 उपलब्ध  कर
ri c
डिज िटल
िमाचल  प्रदेश
ुदायिक  स्वास्थ्य क
 का तापमान  
h on
o v
t o
अ ंग
ऑ न
क ीन
घ ुव
प ेट्रोल
ब र क
स ेट
ा ख्य
ा )

ु चल
े  की म
 क स
 स चिन
 के  राज
 के  वरिष्ठ
 ज ी की 
 का  ध्यान
 श ी
ाव ण
 के लिए  स
ंद िग्ध
ाग मन
 फ ाइनल
नि म
वार  की शाम
 स् पी
ाण ्ड
वाई  माधो
ी द िल्ल
 हुआ ,
 मौ के 
िख र 
ा का  नाम
ुई  थ
 द्वार ा क
बन ान
 के न जदीक
एन आई
 पद ाधिकारिय
नेत ाओं ने 
बी र 
 सहित  
 नेत ाओं ने 
 महिला  ने 
 मीट र
 योजन ाओं
 कॉलोन ी म
उत्तर ाखंड
 सत ीश
 जनवरी  को 
)  की 
8 2
A AP
क ाफ
ग  कर
न िय
न ीच
प ाई
य ंस
ष क
स ामान
ह र म
ा घाट
ी  चाहिए।

ा  स्थान
ार न
र् खिय
क् श
 को  ध्यान म
 से  संपर्क
इस  क
 आ पूर्ति
 आ श्रम
ाह ू
ा म ंदिर
 फ ीचर्स
एक  ब
यह  बात
 के साथ  मारपीट
 मह ाकाल
 मिल े 
ी की  जाएग
मह ीने 
्यू शन
 के न ियम
 को क ाफ
 ने क ई
 ने कह ा था कि
भारतीय  टीम
 जुलाई  तक
शहर  के 
चंद ्र 
 परीक्ष ण
 हो ज ाते ह
पान ी म
 डाल कर 
 को ख त्म
 वार ाण
ा जिल े म
छत्तीसगढ़  म
 करना चाह ते ह
महार ाष्ट्र
लेखक :
 को पत्र  लिख
अ तिक्रमण
ग ायब
फ ेस
़ ू
 क ैलाश
ा  चुकी ह
 स ्ल
 म ो
 प ैर
 ज ोड़
 से  व
 आ ती ह
 आ दर्श
 और  उनकी 
वि ज्ञान
ा म ंडल
ी स ी
ुल झ
िर ण
 इ तन
 हु सैन
उस को 
एम प
भाग ल
ा ब ्र
ग्रेस  को 
 मौ र्य
दर् द
 आरोप ी ने 
 पहले  से ह
ाया ज ाए।

ाया ज ा सकता ह
 राज्य  सरकार
 शर्म ा ने बताया कि
िफ ारिश
 अग ्न
एल ान
 अस्पताल  पह
 विध ि
 कल श
 पी ठ
 क्षेत्र ीय
 बत ाते हुए
 छोट े 
ाघ व
उपलब्ध  कर
पुलिस को  बताया कि
 जार ी कर
 तहसील दार 
 तुम ्ह
साइ बर 
- प्र
अ त
ग ै
ग  कर रहे ह
ट िप्पण
ध ूप
न  केवल
प वन
ब ैट
स 

ो त्तम
 क ंट
 क लाकार
ार ोबार
 ज ाने वाल
ा क ्षेत्र
 को  वापस
 व ेद
 अ मन
इस ी के साथ
 को ठ
 भ ले ह
 आ  रहे ह
ोग ाट
ाह  म
ाह ्न
ति पूर्ण
ता  दे
ंड ल म
 के बाद  अब
अन ंत
 तक  चल
एस एसप
ेव क
स्व यं
 कार्य रत
मह त्व
 ऑ र्ड
 के प्र धानमंत्र
 जो  भी 
ुभ ाष
 की प ढ
 को न ुकसान
 का प्र स्ताव
भी क ई
 की द िशा म
 जुट ी ह
 किसी भी  तरह
ड्ड ू
 डे ढ़
बज ट
 दू ध
ोभाय ात्र
8 4
आ ध
ए क्टर 
ज म्म
द ुआ
ल ी
स ाउथ
ह , स
ी  वह
 प टन
 ब ीएस
ने  को लेकर 
 का  सम्मान
 का  स्वागत
 का  अलर्ट
 कर ंट
 और  फिर 
 प्र भु
 च ीफ
ा स ह
ोट ल म
 दे ने वाले 
 करने  की बात कह
ा ब ंद
ा कर ने वाले 
 जिस  तरह
 लेकिन  उन्ह
 नि ष्
 जब  वह
 का क ह
 ऑ न
 के न तीज
 महिल ा को 
ी आ दि
काल ी दल
 दिए  थ
परिवार  के लोग
ऐस ा 
 छात्र -छात्र
तब ीयत
इं जन
 का ज ायज
 जारी क िया गया ह
िरास त
ी की म ौत
उपस्थित  रह
 मैने जम
:  क
ं पर 
ए ग्जाम
झ गड
प कड़
स वार 
ी  वाल
र  प्र
 म िस
ार ंट
 ब ीच
 ज ाने 
 को  अपना 
 भ ीम
 के स ु
ंग ान
 फ ैस
 फ ाइल
 हु ड्ड
 के साथ  ह
ा ज त
ा रह ा है
 तक  कि
ी ज ल
 मु सलमान
 ध ूम
वर ेज
दर् जन
 प्रति दिन
 श्र ीकृष्ण
 उनके  लिए
दु स्तान
ार्ज ुन
 I P
कह ा कि
 ठाक ु
 कर दिया गय ा थ
ूचन ा के बाद
 द्व ितीय
ा जिस म
प्लेट फॉर्म
र्मद ापुर
 त्य ोह
ाजिय ाबाद
ेवलप म
4 50
आ शीष
ई द
क ूल
छ ाड़
ज ेव
त 

प ंथ
फ िर म
म ीट
श ब्द
ू ख
ू फ
 क ाउंसिल
े  गए।

ी  छात्र
 स ीव
 स ौरभ
 ब ेस्ट
िक ्रम
 द िक्कत
ार  रह
 से  टकर
ेश ानी 
 और  यह
 के ब िन
 थ ाने
 फ ूड
 फ ाउंडेशन
उस  पर 
 मिल ाकर 
 मिल ीमीट
जान  बच
सं स्थान
च्च ाई
ग्रेस  की 
ंप िक
 को ब ड
 उप करण
 काम  नह
 महिल ा क
 ओ पन
ी प्र ति
 पद ाधिकार
 कॉ र
त्स ंग
 कार्यक्रम  आयोजित
पार्ट ी 
 सामने  आ
कर्त ाओं ने 
थाना  पुलिस ने 
ार्ग व
हाद ेव
 रुपये  प्रति
 थान ा म
तीसर े 
 दे रह ी ह
ग्रह ण
ैक्ट िस
उपस्थित  थ
यूप ी म
इ शार
ग  के 
च ाकू
म स
श ैल
ा षण
ा  -
ा  चौक
 म ाध्यमिक
 प ाइप
 ह ीट
ने  व
ात े थ
 त ोम
रह ान
िन ाश
 श पथ
 के लिए  यह
रो न
ेट ेड
ुल दीप
देश ालय
र क म
पुलिस  के मुताबिक
पुलिस  के अनुसार 
 सं कल्प
सं भाल
ा ब हुत
 ही  रह
ी थ ान
आई ड
 मु आवज
कार  म
ी द िल
पहले  दिन
 मौ के से 
गे  तो 
पूर्व  मुख्यमंत्र
ी को र्ट
शव  को कब्जे म
जात ीय
 के ग ेट
ोशल म ीडिय
विश्व नाथ
इंद ्र
 की फ ोट
 मे घ
सीसीटीव ी फुटेज
सफ ार्म
 इक ाई
 अट ैक
 प्रिय ंका 
ुश्म न
SO  RE
ाजिल ्क
SO RE AD
G B
अ क्षय
आ काश
ग िरोह
ज स्टिस
ट िल
ध ी के 
प ्र 
फ ाइल
ब ेल
व  के ह
ो य
 ह ेक्ट
 की  अन
ाल ी म
 अ सल
कर  भाग
 प्र मोद
 के स रकार
 थ ्र
 उ त्साह
िस ोद
्ल ू
बताय ा जाता है कि
ा के  आधार पर 
 भी  यह
 किय ा है कि
ार्य कर्ताओं
वार  की सुबह
 लग ेग
ल् ले म
 के द ाम
चुनाव  लड
ाना  चाहिए
गर म
 व्य वसाय
 के पास  
गल ौज
 एवं  
 अभ ्यर्थ
 इन के 
ी र िपोर्ट
चाल ान
14 0
चार  दिन
प्रति भ
 को न ोटिस
रोड  पर 
ा ख ोल
ा तो  वह
इंड िय
इंड ीज
ग् ग
 या  फिर 
 एड मिशन
प्रभ ारी स
बू झ
 से अ पील
-स फाई
संत ोष
 घुस कर 
 सिक ्योरिट
 रिज र्व
भीषण  गर्म
AL SO READ
  {
7 9
S T
अ ट
ए क्सीड
ग ले 
ज ेल म
प ैठ
म रीज
र ेफर
र ास्ता 
ी ठ
े पर
् ज
 ब ल्लेबाज
 को  शामिल
इस  समय
 को रिय
 त हरी
प्र श्न
 च ुर
 य े म
रो ट
र क िय
 मिल  रहा ह
एस ट
मान व
ंज ीव
ने कहा कि  यह
सभ ी को 
साथ  म
हाल  म
ायत ्र
ाष्ट म
 के पास  से 
र्य ावरण
 की क हान
 श्र द्ध
ाएंग े 
 शर्म ा के 
न्य ास
फिल्म  '
 कॉ म्प
 सभी  लोग
को तवाल
 दिल्ल ी के 
दोपह र म
 किम ी द
 के मह त्व
 का निरीक्षण  किय
 स्टेडियम  म
y  
ं वर
ख बर 
ग ाय
छ िप
ज ्वल
फ ैक्ट्र
े ़
ो ता ह
ी  घ
ी  आवास
 स िपाह
 स ीबीआई
इस  स
ाद स
 ग ज
 को  कोई
िया  वाहन
ा म ात
स्थ ाई
 करने  का प्रयास
ेड म
ीब ाग
ंच न
 को ब दल
ेस्ट ोर
 श्र ी राम
 ऐ से ह
ॉन िक
अभ ्यर्थिय
दीप ावल
ता  के साथ
 को ज ल्द
दु ष्कर्म
 बैठ कर 
म् भ
ी भ जन
आगे  बढ़
न्याय ाधीश
वै श्विक
 बिल ्कुल
 इलाज  के लिए
 मतदान  क
द्व ाज
 के लिए र वान
 मिनट पहले 

i m
ए श
ग ुव
ग ुट
च ीफ
ण ेश
द व
द वाड
फ ुट
ब ैग
म ेडिकल
ल झ
ल ोन
श त म
ि जन
ी लिए
ने  से क
 र िव
ने शन
 अ थ
 अ गल
लि न
 ग वर्न
 भ गत
 थ ा और 
ंद ग
ता  प
एक  बड
 सम न्वय
सी ज
वह  
वह  अपने 
 पह ले म
नी  थ
 स् क्रीन
ा की  जाएग
ाने  को लेकर 
 राज कीय
इन  लोग
स्व ीकृति
 हुई ,
र्त व्य
 कुमार  (
 का क हन
ैसे  ह
द्र  और 
 से ब न
लोक ेशन
 स्व ागत
बंध न म
ाइट ्स
ी र ाय
एन टी
यू जर्स
 पार्ट ी 
 के तहत  मामला दर्ज
 भी क िय
 दु ख
 नाम क
दय ाल
शुक्र वार 
 बेट िय
 साह ब
 करते  समय
 हाल ात
 सभ ी को 
 पर न जर 
 पर्य टक
 K han
ूर्त िय
ने की कोशिश  क
तत्काल ीन
अक ाउंट
ा कुम ार
विर ाट कोहल
 सीजन  म
 जु र्म
IP L
वैधान िक
I A
ं सर
ओ र 
च ी पुलिस
छ ोड
न ील
ब ाबू
भ य
र ियाण
व िल
ह  राठ
ी /
ॉ र्क
ो तर
 क लेक्ट
ा  और
 ह ॉस्पिटल म
्य ा 
ाल ू
 ब ेड
क् ख
ने श्व
 अ ख
लि फ्ट
 ल ॉ
ा म ंदिर 
र्म न
 ड ील
ा थ ाने म
पू र 
ा के  ह
 सं वाद
जान ा ह
तक  पह
 पुलिस  को 
 पुलिस कर्मिय
बह स
 दिन  पहले ह
 जन रल
 ऑ ल
ोब ारा 
भी  कोई
परि चय
 किसी  प्रकार
 महिल ा के 
एन एच
 हो रह े 
 यू क्रेन
तब  तक
 विधान सभा म
 कंपन ी म
 भाग वत
प्रशासन िक
किस ी भी 
ा मह िल
्ञ ान
 भर्ती कर ाया गया ह
दर्ज  ह
विस्त ार
निर्म ित
निशान ा साध
 भु गतान
ानिव ृत्त
आ चार्य
ओ प
ग ौ
च े ह
च ते ह
ड ोल
त  ने 
न  ही 
ब ोध
ब ाइड
भ ेद
व क्ता 
व िवेक
स ंबंध
स चिव
़ े,
ृ दय
ॉ इंट
ी  उप
 म ीडिय
 ल ू
 का  आरोप
 कर ाया ह
 भ ूल
 आ ने पर 
 त ार
ा कि  वह
ाइ ल्ड
्म ी
ता  देख
सी धे 
िट िश
जिस  तरह
ी न ौकर
चाह े 
िख र
्षेत्र ीय
ाउ ड
ी ग ुरु
 विक ्र
 दर्ज  किया गय
ा प्र साद
 राज्य पाल
 कर ल ी ह
an g
एसप ी स
 सित ंबर से 
ार्क ेट म
 सबसे  ज्यादा 
 कुल दीप
अग ्न
 की ग ाड
 के च ेयरमैन
ैत ूल
ता रह े ह
 से मिल ी 
 उम ्र
 अक्टूब र से 
 निवेश क
जिसके  चलते 
 चरण  म
ऑट ो 
ा कुम ारी 
स्तुति  द
 को संबोधित  करते हुए
 भविष्य  म
 पोर्ट ल
i k
ऋ षि
क ैत
च म
ट का 
ड ेज
फ ुल
फ सर
ौ धार
 क ुर
ी  झ
ी  लेकर 
 के  भी 
 प िल
ाय ा

 अ श्विन
 का  मामला सामने आया ह
 न कद
रह म
ास त
 श ोध
 पर  ड
ाह ाबाद
स्त ारण
ा स ीत
ी ब ्र
 ट ाउन
ा के  एक
 बन व
 ( भाष
 को स ुरक्षित
ा कर के 
ीब ी
ट्र ॉल
ॉल ो
ुत ोष
 व्य ास
मिल ी 
 जिल ाध्यक्ष
 कर ल िया गय
 पार्ट ी म
ा ल िया ह
ंभ ाल
 की मौत  के बाद
ा श हर
 आर क्षक
वित ्र 
कोर्ट  ने 
 प्रशासन  ने 
 राजस्थान  म
पर्य ावरण
गोली म ारकर 
ोहर  लाल
ौधार ोपण
9 3
e sh
e ath
ः  
आ न
ग ठन
ज ुलाई
त ेर
प ण
य ौन
र दार 
स र म
ौ द्योगिक
ी  देश
 ब ंसल
ा क िया ज
ित िय
 ग श्त
 भ र 
 भ ावन
ाई ं
 य े क
 के स ाम
ाइ ंस
 थ े और 
ाग जात
स्त र 
ोट रसाइकिल
मु ई
मु दाय
 सं हित
 दे ने वाल
ा कर ता ह
ी प ड
 की त स्वीर
टीम  म
 को द िल्ल
अव धि
ी सम िति
 दो  लोग
ी हो ने के बाद
 यात्र ा म
 की प्र ाप्ति
गोल िय
टी एस
 कार ्तिक
तन ाव
ा आ दि
ल पर  पह
 घंटे  बाद
वायरल  हो रहा ह
ावधान  म
 पै दल
मध्य प्रदेश
संघ र्ष
 रेड ्ड
 दे  सक
कश्म ीर
एडव ोकेट
ी हाल त
 इलेक्ट्र िक
 कैट ेग
' म
9 1
9 00
a g
ं त्र 
च ौर
ज ंगल
ज ा रहे ह
न ीरज
फ ोर्स
श ायद
स त्य
स सुराल
े '
े  को लेकर 
 प ट्ट
 प ेड़
 की  ध
 की  प्रतिम
 की  सराहन
स् पीड
 ज ा रहे ह
 व र्तमान म
ात न
 त ाज
ाह िक
त् र ह
 के स ह
 के स ीएम
 के ब द
 उ चित
 कह ा ह
 कह ा गय
 ड िफ
सम ीक्ष
 एक  बड
सी ख
ने कह ा था कि
ाओं  के साथ
रोप ण
एस एचओ
जान ते ह
 मु ठभ
 के म द्दे
ीप क
ा कर ने की 
ाध न
ेम ोक
ंप त
श्र ीराम
श्र द्धालु
िह ार म
चार िक
 आई एएस
 की सं पत्ति
यात्र ा म
 सेव ाएं
 गु ना 
in d
 हाई वे 
संद ीप
इत ने 
 प्ल ाज
 बड़ े 
ना चाह ता ह
 फिर  भी 
 चाह ते ह
रद  प
नार ेबाज
उल्ले खनीय
्मी कि
,  यह
H O
e c
ए ब
च  क
च ार म
ज ाए
त ा मिल
प ेपर 
म ैच
र म्मत
े  के बाद
ै ले
 म ैसेज
 के  घर म
क् सर
 का  दिन
 त माम
ाई  और 
भी  द
े क ी क
 थ म
ा म ार
 ड िप्ट
कार ित
 ट ीव
ाप ान
 इ स्लाम
यह ी वजह
क्र ामक
 है रान
ने क ुछ
ते  नजर 
 नि धि
श्र ेय
 के आ ंकड
ुई ।

ी ग ठबंधन
 मंत्र िय
 पूर ी 
 के पास  एक
 श्र ी
चाल ू
ी आ ग
मल ेश
ा तो  उन्ह
 नगर  परिषद
 की न ियुक्ति
 के  किसान
ती है  और 
इसकी  शिकायत
 से एक  ह
 धर्म  म
विजय  स
ा कह ते ह
र्श ियल
 फ्ल ैट
 दुर् घटन
 नंबर -
ी विक ास
 कार्यकार िण
,  एस
- ग
9 8
अ क्ट
अ मन
आ ह्वान
ग ी ह
फ िर स
ह 

 की  पुलिस
 की  गिरफ्त
 ब ेहतर 
ा क ार्यक्रम
 र ेख
 र ात्रि
ने  के बावजूद
लि व
 का  इंतजार
 न ंबर पर 
ात ावरण
 ग ुट
 आ दित्य
िन ाख
िया  ने बताया कि
िव रण
 प्र योग
 प्र ाचार्य
स्ट म
पर म
 ख ाद
ी ब ढ़
दे वर
ा ज ो
 भी  एक
वार ्षिक
ी की  हत्य
 दे ने पर 
सभ ी म
ेद क
ा कर ते थ
ाना  शुरू
 को ब त
स्थान  पर 
 ट्र ेड
ी अ रब
मन ीष
ा व ोट
र्द ाश्त
 ई ड
 कर सक त
ी सं ख्या 
 सबसे  पहले 
थान ा म
ने के  निर्देश
ुख्य मंत्र
ै। "

 दे रह ा ह
 नियम ित
 इससे  पहले 
ूव म
बाहर  निकल
 सुविध ाएं
मध्य  प्रदेश
 का सम ापन
 पूरी तरह  से 
जाना  चाहिए।

ग्ज िट
तुम ्ह
 अवस्थ ा म
आ क्रोश
ई ंट
क ौन
क  खात
द ा 
द ा क
प ो
भ ाइय
र ा 
व र्तमान
़ ज
 स र्ज
ा क ा ह
 को  याद
 से  इस्तीफ
 न िम
 को  कुछ
ी ह व
 आ ंकड
ाव स
ले  थ
 ख ोज
ी ब च
ी ब ीम
अप ने
 के साथ  बैठक
उस ने बताया कि
मु क्ति
की  और 
पुर स्कार 
 अन ुभव
ी प ार
जर ंग
 तो  हम
 पार्ट ी ने 
 नव ंबर तक
 करना  चाहिए
 को ज ेल
 दूसर ी तरफ
ऐस ा ह
ट्स ऐप
आम जन
राय पुर म
थान ा स
द्र मोद ी के 
ह ने  बताय
लिय े 
 किसी भी  प्रकार
 अप्रैल  को 
कुम ार
 व्याप क
 हाउस  म
घेर ाव
 के नि देशक
ंजूर ी द
CC TV
 का सामना करना  पड
 ये ह ै कि
 बरस ात
क िशन
ख िम
ड ्स
ध ेश
श ुरुआत म
ह िम
ै ना 
ै ."

 स ीर
 स ीनिय
 म े 
 प ोस्टमार्टम
 ह सीन
 की  ठग
 ब ॉर्ड
 ब ृज
 ज गदीश
िल सिल
ाम ंत्र
 व िस
 ल ीग
प्र दीप
ी क ा काम
ी क ॉलोन
 कर  उन्ह
ी स ुनवाई
पी ढ
 सम र्थन
सम ैन
 सं भव
 दे ना 
इसके  साथ
त्य ाग
ी द ोन
मह ाराज
द्र ोह
ैल र
 ट्र ॉफ
श्र ीवास्तव
गर ेप
त्र ित
 कई  जगह
गिरफ्तार  कर लिया ह
 महिल ा स
ी प्र कार 
दि नेश
 प्रदेश  अध्यक्ष
 जिन क
 के ज िला 
 की मौत  हो गई
 कल ाक
ऐस ा नह
 को गिरफ्तार  किय
 को गिरफ्तार  कर लिया ह
 यू जर्स
 मिन ट म
 की ख बर
हाद स
जिन म
संद िग्ध
्ले क्स
 के फ ैसले
 निर् दलीय
 शुक्र वार 
प्रभ ु
उम स
फ्ल ाइट
 की छ त
 जारी  रहेग
 लाइ न म
छोटे  भाई
जाल ंध
भविष्य  म
 रास्त े म
 नक्सल िय
d at
आ लम
ए व
ग ित
ग ुप्ता 
थ ाने
म ात्र 
ह  यादव
 क ायम
ी  स्व
ी  रख
 की  भीड़
 ब ीज
 ज ाने के लिए
 ज ो म
 द ोबार
 व ेल
 से  लग
 का  ख
 का  मुख्य
 ख ून
ीय न
 के साथ  काम
ा द िया गय
चल  रहा ह
 है 

्न ति
 साल  के 
ीर ो 
़े -
 की ब च्च
पूर्व  मंत्र
 स्व र्ण
 की श पथ
 से  करीब 
पक्ष  म
नगर  परिषद
मुख्यमंत्र ी ड
खुद  को 
परिवार  वाल
 के निर्देश  पर 
ी सरकार  ने 
सुरक्ष ित
 पिछ ल
अनुर ाग
सूचना मिल ने पर 
ऑफिस  म
 पड़ ताल
ारम ण
 के बह ाने 
ंगना रन ौत
C A
S D
क ॉलेज
ग ल म
च 

ज ाता ह
प ंडित
ब ेस
भ ूप
व  पह
ी  देख
 प प्पू
ों ।

ो  गई।

से  बातचीत
लि ब्र
इस  म
 त ृतीय
प्र स्तुत
ाह ी म
 च ेयरमैन
 के स र्व
वि जन
स्ट ोर
ी स प्लाई
स्थ ापक
ा थ ा और 
र क ाम
ाओं  और 
 तक नीकी 
 राज ू
 के म ामल
ुस ैन
ने की  उम्मीद ह
निर् भ
 मान क
 पर क ्य
 करोड़  
बी सी 
प्रति दिन
ी सम ारोह
अपन ी स
ी रह ेग
 भारतीय  टीम
 घटन ा के बाद
ा के स ामने 
जो र दिय
ोत्स व म
ा जिल े के 
 सुर ाग
 के ड ायर
 स्थिति  म
 जिसके  चलते 
 की तैय ारिय
 उत्तर ाखंड
ी द्वार ा 
इजर ायल
I D
च ू
छ ाल
ड ाउन
ध ोख
न ंबर पर 
ब म
र त ह
ा  के समय
ू त्र
े ता 
 क लेक्शन
े  पर
े  नह
ा  डाल
 के  झ
 के  हित
 ह ित
िय ाद
ा क ा ज
ा क ाफ
इस  कार्यक्रम म
 न ायब
 ने  पहले 
प्र ार्थ
प्र ाचार्य
प्र ोफेस
ले  गय
 फ िल
एक  ही 
ा स बसे 
 इ मरज
लग ाय
 के बाद  भी 
 मह ंत
वार ्त
ूर ाम
ेड रेशन
ा द िया गया ह
ेव न
ी ने  भी 
 छ ाप
 के म ामले 
ोह ल
ा कर ेग
ट्र िक
ी न ीतीश
र ह ै
ये  लोग
आर ओ
ंस ू
 स्व रूप
 सी ईओ
चौ हान
 को ज ागरूक
 फिल्म  म
 पूर्व  म
ब्र ह्म
 तेज  बारिश
या  फिर 
महिल ा के 
 ड्र ाइवर
 ऐस ा नह
चित ्त
 भी ब ताय
सवाल -
 बिजल ी 
िविध ि
व्याप क
ेड़ छाड़
बू थ
प्प ल
 औ सत
डे ढ़
 भू षण
पता चल ा कि
 तत्काल ीन
 मुकाब ल
इंजीनिय र
 का रहने वाल ा ह
 उद् देश्य
दिवस ीय
िनाख ्त
,  जानिए
C h
o t
ए ंबुल
ऐ श्वर्य
ग  की 
प री
प ाप
फ िल
श ेयर क
स ा देकर 
ी  करने का 
े नी 
े रोइन
ड़ ी म
ी  नाम
 स र्द
 म ल्ल
 प ाया गय
 की  चर्च
 ब ित
ा क ा द
क् सी 
 आ ंध
प्र क्रिया 
ाव क
त् नी 
ी क ा कहना है कि
ी स भ
्ष तिग्रस्त
ा है  क
 सं स्कार 
तक नीक
ा द र्जन
ा ब ढ़
आई आर
ने क ई
 वह  अपने 
ग्रेस  और 
आज  भी 
 इन क
ी कर ने वाले 
 कर ल िया थ
 से  कर
 रूप  से ब
 डिग्र ी 
 गिर फ्तार 
 यू नि
 सब ूत
इसक ा म
 इत ने 
राव ण
 खेत  म
ीयू ष
 उत्पाद न
 हजार से  अधिक
 न्यून तम तापमान 
अंक ित
 के प्रदेश  अध्यक्ष
ाइगर  रिजर्व
िराग  पासवान
 की मौजूद गी म
स्पोर्ट ्स
e o
इ धर 
क ेजरीवाल
ग ्र 
ग ंभी
च ा थ
च ने पर 
छ ुट्ट
ट ैक्स
त ाश
त ा

द ाब
प ंकज
र िव
व ेव
स ौ
ा ै
ी ...

ो थ
ड़  म
ी  जन
ान ुसार 
 ब ुद्ध
िक ास
ा क े कारण
 द ीव
 को  न्याय
 से  दू
 ग ाल
 आ लोक
 ए रिया म
क्ष ा 
 के लिए  ह
भी  भी 
ा म ोबाइल
ा म ैच
ंद े से 
कार ्रवाई
ा स ीट
पू री
सी  के 
ेक अप
ी के  दिन
ा की  तरफ
हर ि
 साल  की 
 जिस  पर 
 की ब जाय
राम पुर 
ायर े म
लोक प्रिय
अनुस ार
 स्व यं
 मान स
 आज म
 को द ूर
 बात  नह
 चुनाव  आयोग
जात क
ने लग ी ह
 को न िशाना बन
ा हो ती ह
स्ट्र ाइक
 क्र ाइम
पार्ट ी म
से क ई
रोक ने के लिए
 सब  कुछ
नाथ  स
 जबकि  
 साथ  ही 
 की आ बाद
 जुट  गई ह
 बच ाव
 मार्च  को 
तम तापमान  म
दूसरे  दिन
जन्म दिन
ंबोध ित किय
 कप िल
िथ ुन
 इलाज  के दौरान
 कित ाब
 क्ष तिग्रस्त
िस्त ौल
स्कृतिक  कार्यक्रम
 शेख ावत
 सैन ्य
 करिय र
सूचना पर  पह
 अरब  डॉल
इस वजह  से 
इंटरव्य ू
- उ
आ त
आ स
च ी म
ल लित
ह ोटल
े री
ै र म
ॉ क म
् र म
ें ...

 के  मुद्द
ने  अपना 
 ज म्म
िल ान
 को  छोड़
 से  श
 का  वितरण
 ने  त
 ग ायक
 भ ोज
 आ न
ास  म
दे ते ह
पी आई
अप लोड
ध्य ात्म
ा के  नाम
ाट क म
ोर िय
्न त
जब  म
ी से  ह
 ले ने वाले 
 रख ते ह
आर पीएफ
उनके  लिए
उनके  खिलाफ
ड़क ंप म
 अब  
उसके  खिलाफ
 विक ल्प
 अव ॉर्ड
ैक ेज
ुध ियाना 
 पद स्थ
 वाल ी 
ी ख ेल
 शिव िर म
ा ख ुल
ोच न
टी ओ
शिव िर म
 पान ी म
 गोल ी लग
 करन ाल
्यूज िक
 वै श्विक
तं त्र द
 संप र्क
 से ज्यादा  लोग
िलीव र
मो शन
स्पी कर 
 इजर ाइल
ोनाल्ड  ट्रंप
B S
u d
आ  रह
आ दित्य
ओ व
क िय
च ी ह
त ीश
न 

न ोएड
भ ूल
म ोल
ल ह
स  और 
ि ।

े वाल
ो तल
 क न्य
 स ैकड
 के  मु
 प िकअप
ान ूनी 
 की  पुष्टि
िक ा म
 द िशा म
 अ रेस्ट
ार  डाल
 न ाटक
 ए एसआई
ी क ंपनी 
ाइ जर
 इ कट्ठ
 वि द
 मह ादेव
ुप योग
राज कुमार 
 मिल े थ
 मिल ने से 
ा द ोन
हम लाव
ते  देख
स्व र्ण
र्त ित
 को लेकर  भी 
ी ग ाड
 मंत्र ी अमित शाह
दो हर
 आरोप  लग
 आप का 
घटन ाक्रम
 पद ाधिक
ाप्त ाहिक
दो  युवक
िग्र हण
 सरकार  से 
 पर ह ोग
 जून  से 
ी मिल ेग
 C h
 के व कील
 का न ुकसान
 उपलब्ध  ह
 कित ना 
 प्रव ीण
 दिया ज ा रहा ह
 कक्ष ा 
 मल िक
 सेक ंड
अमित  शाह
 बाध ित
 ट्रै क्टर 
तंत्र द िवस
U V
आ ंकड
ग  
ग  व
ग े कि
च ोर 
ज ाएंग
थ ाने 
ब स्त
र ूट
र द्द
ि ड़क
र  चल
 के  अन
 प िस्टल
 की  अनुमति
 ज स
 को  टक्कर मार द
 कर ता है
ात िर 
 भ ी हो 
पु तल
ी क ा ह
 य ा स
ुम शुद
यह  एक
नि ष्ठ
सम ्मेलन
ी के  प
 स् नान
 के द ौर
च्च े 
शिक ायतक
र ब ैठ
 को प कड
त्र ु
ार ह ोग
 के र ाष्ट्रपति
जिल ाध्यक्ष
विश िष्ट
बन ाकर 
 अभ य
 से ह ोग
अभ ्यर्थ
 अन्य  लोग
यू रोप
 को म तदान
अव ॉर्ड
एल ए
 को ज िला 
बाज ार 
युव ा 
नेता  प्रतिपक्ष
 चौधर ी ने 
रफ ान
घटना की  जानकार
 पै माने पर 
 के सं युक्त
 चाल ू
ऊद ी अरब
ादक  पदार्थ
)  निवास
: 

e p
ग  के बाद
ज ख्म
ड ्ढ
द  तक
न र्स
फ िट
म ंद
स ेम
़ ल
़ रूर
ी  किसान
 क िन
 क ्षेत्र से 
 स क्षम
 के  चुनाव म
ान ेर
ने  ग
 ब ता द
 अ ब्द
 से  लगातार 
 आ फ
उन  पर 
 च ावल
 रह ता थ
ी स ामने 
ेट िव
 सम ीक्ष
ध्य प्रदेश
पुलिस  का कहना है कि
 बन ाया गय
 के द ो
ाट ्स
 की म ौके पर ह
बह ू
 गए  और 
ी न गर
र ह ोग
देख रेख
 पूर ा मामल
 के त ापमान
पूर्व  सीएम
 के न िवास
 मन ाया गय
र्क िट
 ओ व
 से ना 
से  कोई
ा ल िया थ
उनक ो
 जिन की 
कल न
 को गिरफ्तार  कर लिय
निर्माण  कार्य
 जिला  अस्पताल
ब्ल ैक
सवाल :
 उत् पीड़न
 लिख ित
भूम िका 
 सोन ू
 नजर  आएंग
 वार ्त
बस प
राजनीति  म
 जिसक े कारण
 चुनौत िय
 सामने आय ा कि
ी का स ामना करना 
ेरिस  ओल
यंस ेवक
y :
ं शिक
इ ज्ज
उ त्त
ट ाव
ड िप्ट
ध ी की 
ब ुद्ध
स फाई
 क ाश
 स ीन
 म ेन
ने  च
ो  अलर्ट
 ब िज
 ब िक्र
 ब ुरी तरह
 ज ुलूस
 र ेज
 द ंड
 का  बेट
 न ौकरी
ात ा है कि
 भ ाइय
ाज  म
प्र बंधक
रह े थ
 कि स्म
 पर  जीत
 पर  उतर
 प्र ोसेस
ाह र
 ए ंबुल
वि जेता 
ंद ्र
ी स ड़क
ंग ीत
 फ ायद
लग े 
 वि हार 
ा के  मामले म
ने कह ा है कि
सं चालित
स्प र्ध
पुर ा 
 ( P
 को स रकार
 के क िनारे 
ोड  म
 सु पर 
 कम जो
भाव  म
ैय ा 
ने की  वजह से 
 पू री
 के बीच  
 पर क ुछ
अभ ियुक्त
 रही ह ै
 झ गड
ंपन िय
ोस ायट
 की प ारी खेल
 करव ाकर 
अलाव ा 
एफ आईआर दर्ज
र्द न
ाउंड ्र
 स्त र
गोल ी चल
 P ro
 होने की  संभावना ह
 बिन ा 
बाहर  निकाल
 महार ाष्ट्र 
ी कह ते ह
 अंब ान
नन -
 मोट रसाइकिल
 निर्म ल
 भीषण  गर्म
 इस ब ारे म
नुम ान म
ी तरी के से 
 स्पोर्ट ्स
eath er
ेमोक ्रेट
ऑ परेट
क 

ग ौतम
च  रहे ह
ट े 
ठ बंधन म
द ी थ
न ा है
य ्य
य ंक
श ख्स
ि पर
ु त्त
 के  स्टूड
 प ं
 र िफ
ाम र्श
 को  वह
 ल ाठ
 ग िरोह
ेश  कुमार 
 और  भी 
 श ासकीय
 च ित्र
 उ ज्जैन
 फ तेह
 ख बर
 हो  कि
यह ी नह
 एक  दूसर
ेक र्स
ी के  अनुसार 
की  ने 
ता ह ुआ
एस एल
 ( R
ष् क
 के अ ंतिम
 कम ाई
 जन सभ
रात  करीब 
 की त ो
 द्वार ा प
परि चित
 प्रति भ
फर ार ह
 करना  थ
सभी  लोग
 पर ह ो
फ्र ंट
तम ंद
ा श िव
ेन् द्रीय
 आग ामी 
गोल ी लग
 का द ौर 
ती है  तो 
 स्प ॉट
 तापमान  
 सामने  आई ह
आगे  बढ़
 जैन ,
व्याप ारी 
सम्मान ित किया गय
 की जरूर त नह
 सल ाह
 क्व ाल
इनकार  कर दिय
 के दूसर े 
ऊंच ाई
 चतु र्थ
 प्लेट फॉर्म
ेलि ज
ALSO READ :
नन- फान
)  ह
- ट
क  और 
च  साल
ड ब्ल्यू
द ी ह
प त्र म
ब ाय
भ ाजन
य ा म
श ाख
श ंस
ह  स
ह  व
ी र्ण
े  किसी 
ौ ता 
 क ठिन
 के  विधायक
 ज ुड
 ज ाए।

 ज ख्म
ा क ल
 र थ
 द ी ज
और  म
 ने  आज
 भ र्ती ह
 कि राय
उन  लोग
िव क्त
 प्र गति
ले  कई
 च ोर 
वि नेश
ंद र
ी ब रत
 के साथ  स
 के साथ  म
सम ान म
सी ना 
ता ह ासिल
जान लेव
कि  इस
 है  लेकिन
 मु जफ्फर
 छ ुट्ट
 के क र्मचारिय
 की ब ढ़त
ैय ा कर
 लाख  से अधिक
 स्ट ार
 ले ने का 
ायल  
 के त ीसर
 समय  पर 
दर भंग
अव सर पर 
समय  पर 
र्न ल
 तेज  रफ्तार 
ड्र ेस
 बहुत  ही 
े ज ाएंग
 विश्व कर्म
 हो ज ाएंग
ाए ज ाते ह
भगवान  शिव
 के व ार्ड
 लाल ू
 के ख ेत
 दुकान दार
 हरियाण ा के 
 डी एसप
 अनु संधान
नेट वर्क
उदय पुर
 दिया ज ाता ह
 बिग ड़
पुलिस को द ी शिकायत म
रिश्त ेदार
अनुप म
 एडव ोकेट
र्दाश्त  नह
- 

1 30
o f
p ur
अ खिलेश
अ ंग्रेज
घ ल
च  पड़ताल
छ ाड़
द े द
द ौस
व  से 
श ियल
र  त
ने  लोग
 की  योजन
 ज ै
िक रण
क् के 
 अ ड
 न ियुक्ति
 कर ाया थ
 ग ेह
 आ गर
ना  मुश्किल
ाइ बर 
ाए  और 
ता  तो 
ी स ेन
 फ िट
एक  अन्य
 ख ाना 
ा रह ा है कि
अन ाज
्स िड
ाण िक
 पर फॉर्म
ेव ाड़
 को स ह
 के म ोबाइल
ीक ानेर
ा को  भी 
सु पर
ी ग ोल
ाएं 

बन ाय
ेप ी न
 शुरू  होग
 आज  भी 
 स्थित  एक
 जह ाज
ी ल ाइन
र प ्ल
 शिव िर 
बात  क
ऐस ा लग
गुरु ग्राम
आम  लोग
 योग ्य
ग् ध
ुष ्य
प्रधानमंत्र ी मोद
 विजय वर्गीय
फ्ल ैट
प्रकाश  डाल
 तरी के 
 विरोध  प्रदर्शन
विस्त ृत
नद ी म
ड्राइव र 
 पेपर  लीक
समारोह  म
 सलमान  खान
ता ज ा रहा ह
 दर्श क
ृण मूल
नन-फान न म
E ET
L ok Sabha 
क थ
क स
ग  प
ग  से 
ट ीव
प ेन
फ ील्ड
स ाज
स तन
ह ंगाम
ा स्ट्र
ी ध
ृ त्ति
 स ुमन
 म ीन
 म ेग
ान ्व
 की  पूर
र् भवत
 ब ंट
 ज ा रहे थ
िक ार्जुन
 र ोम
 व र्तमान
 अ रोड
 ल ह
 का  पीछ
 ने  दोन
 ने  लिख
 ग र्ल
 को यल
रह ी थ
 श ोषण
 पर  उन्ह
ी स ीम
ी स बसे 
 फ ोगाट
ेज बान
ाने  के निर्देश
ी की  शाद
एस ओ
 करने  का काम
इन  
जब रन
देख ा तो 
सु ध
लेकिन  अब
 की त ैनात
द्र  ने 
आप स म
िग त
 अव सर पर 
भाजप ा प्रत्याश
 का स बसे बड
अभ िने
निर्देश  दिय
आग े की कार्रवाई
 डिग्र ी रह
 विध ेयक
 पर स वाल
 की सं भावना 
नगर  पालिक
 चंद न
 की आ र्थिक
 माह ौल
ा लग ाकर 
 पट ाख
 का ज िक्र
 पत् र द
बत ाते ह
ैम ्प
विस र्जन
सलमान  खान
ी स्कूल  म
ी जिल े म
 की तैय ारी 
याब ीन
िह्न ित
र्मदापुर म
i P
क ाने वाल
च ा ह
ट ीच
ड व
ड ा म
ड े म
भ ोग
र चन
व ेतन
श ॉप
 के  अधिकार
 ह ाइ
 ह ड़ताल
 की  उम्मीद
 ब ॉक्स ऑफिस
 ज ा रहा थ
ा क ॉलोन
ाय डू
 को  '
 को  भारत
 व ापसी
 अ पील
 से  गुजर
 ने  मिलकर 
कर  स
ले ते ह
ी म ंत्र
 च ाय
ी क र रहे ह
 फ र्म
 ड र
 ट र्म
क्ट र म
िम ल
 पुलिस  टीम
िज ्य
इन का 
कार  नह
ा कर ने वाल
ा कर ने म
ी प ड़
 ध ारण
 आय ा और 
 अधिक तम तापमान 
 विभाग ीय
अल ी
ी व ोट
 वर्ष  म
 ऐ तिहासिक
 महिल ाओं ने 
 का स र्व
पित ा की 
यू निट
 शर्म ा और 
an c
 भेज  दिय
ा अ र्च
 मही ने
 समाज सेव
 की सं भावना ह
 मौजूद  ह
 आम जन
 कट ौत
 अक ेल
 कमेट ी के 
ात् र स
िस् से
पीएम मोद ी ने 
 लक्ष्म ण
 निर्म ात
 ऑट ो 
रोम णि
जिसक े कारण
निष् पक्ष
 अनुर ाग
 अनुस ूचित
ग्जिट  पोल
G P
च ी तो 
ज मानत
द ुए
द ी की 
न ियुक्त
प  दिय
म कर 
ल ॉन्च
व ाया गय
े कर 
े  के पास
 क ेरल
े  गय
ा  चुनाव
 स र्च
 म ैन
 के  पह
 प ोस्टमॉर्टम
ने  न
 ब ु
 ब ैच
 र जिस्ट्रेशन
 द ो म
 अ क्सर 
 ल ोन
 का  साथ
 कर नी 
 भ ाषण
 आ  रह
 पर  प्र
ंत रिक
 फ ेर
जन वर
ा स म्मान
ुक ूल
ाप ार
 सम ्म
सम ्म
 एक  म
ेज ुए
ध्य यन
 मह त
ेर ेम
 दे ने के बाद
ी थ ाने म
क्त िय
जब ूर ह
ेम िकल
ी त ीन
 सक ेग
ॉल ्ट
 माम ूल
दम  उठ
 के दौरान  
 उप भोक्त
 पूर ा हो 
िस्ट र्ड
 करते हुए  कह
 आप स म
र्क िल
्प लाइन
 बच्च े
 लोक सभा 
फिर  भी 
घर  के बाहर 
बी र क
शाम  को 
ी च ोट
 डिग्र ी तक
 समाज वादी पार्ट
परिवार  के सदस्य
क्य ा है
क्य ूम
कर्म चारिय
पट ्ट
 एम प
शुक्र वार को
 नेता  प्रतिपक्ष
 भगवान  शिव
 साम ूहिक
वापस  लौट
 बढ़ त
 को फ िर से 
तीसर ी बार 
खास  बात
 की हत्य ा कर द
 चिकित्स ा 
 समस्य ाओं
 के अंत  म
 सामान्य  से 
 किर दार
 छोड़ कर 
कश्म ीर म
 इंटरव्य ू
 राव ण
 भजन लाल
 पर सवार  होकर 
 डिप ार्टम
 सर्क िट
 गड ्ढ
ोकार ्पण
शक्कत  के बाद
ी भजन लाल
e v
अ र्जुन
ए टीएम
क ाज
घ म
च ुप
ट  क
त माम
प ाव
प शु
फ र्म
म ुकेश
र िल
ी  करने
ी पुर म
ा  गई।

 के  ट्र
 प ो
 ह ल्की 
ाल ंध
िक ा प
 र ेस
 र त्न
 को  उठ
 को  टिकट
 व िराज
 से  निकाल
 ल व
प्र ावधान
भी  पढ
 फ ट
ा स े क
ी ब िल
ा ज ाए।

ध्य  म
 इस  समय
ी की  बात
ा ब ना 
पुर ानी 
ेम स
ंप त्ति
 की ब ाइक
भारत  ने 
 ने 

श्र ेण
 पर क ार्य
 और क ुछ
 रूप ए
 के ह वाले क
 नव ंबर से 
 को न िकाल
 ई श्व
खन न
 समाज  के लोग
 जय पुर म
 जिला  पंचायत
 ब्र ेक
 ब्र ाह्मण
ा के स ंबंध म
ैद िक
 निर्माण  कार्य
ी ए क्ट
 पिछ ड
तापमान  म
व्यक्त िय
 कंपनी  ने 
 बीम ारिय
स्ब े म
ग्वालिय र म
 धर ना 
ंदे  भारत
1 15
I C
ऑ प्शन
ख ाद
छ ीन
त हरी
त ापू
द िया 
न ून
र ेग
ल ॉक
ा  गिर
 स र्टिफिकेट
 प ाप
 प ेज
 ब ैग
 ज ी के 
ा क ाट
 को  घ
 अ खिलेश
 ल ख
 ल ोड
 न  कर
 ग ि
प्र बंधन
 कि  उन्ह
ी क ्र
 य ौन
ाइ ए
ाइ मर
े क ी कोशिश
ुल पति
देश  के 
र क ॉलेज
सम ाप्त
 के बाद  से 
 लग े ह
िट ्ठ
 बन ी हुई ह
ा और  स
 साल  की उम्र म
अधिक ार 
आरोप 

िर  खान
 हुई ं
मंत्र ित
 को ब ढ़
 कुमार  ने कहा कि
 के आ ग
 रख ा ह
दल ाव
 द्वार ा म
 कई  तरह
िग ्न
एन एम
 को द ो 
ता ओ
फ्र ास्ट्र
 का ह वाल
 की प्र त
 यू ज
धम ाक
दिल्ल ी 
प्रत ीक
 कार ोबार
अंत  म
अभी  भी 
इसक े कारण
परेशान  ह
 पत्र कार
 तीसर े 
णव ीस
 ठीक  नह
 मतदात ाओं
 भूमिका  निभ
 के खात े म
,  शिव
8 9
आ  रहा ह
क ेल
क मल
ख ड़
ग  नह
च ना 
ड णवीस
द स्तावेज
न ियुक्ति
प िय
ब क
व  वाल
स िला 
ह  च
ि ष्
 की  सरकार
्य ाय
 द ाद
 द ी जाएग
 को  अब
 का  नि
 का  नेतृत्व
 का  जन्म
 न ायक
ित ्र 
 प्र ोफ
ी म ंजिल
 के लिए  आवेदन
ुर ाम
 कह ा गया कि
ी ब ना 
ी ब ताय
ाप ता 
 वि स्फोट
 एक ड़
ा ज ैसे 
 मह ज 
 भी  वह
 घ न
ेर ित
 स् क्
 मिल ते ह
ी की  पूज
मान े 
ती ह ुई
ंज लि
 बन ाने वाल
ीज िए।

ी ज ैसे 
इन  सभी 
ेद न म
 के म रीज
 के म ौसम
पहले  से 
 सक ता है
से म ध्यम
ा ने  अपने 
,  झ
 का क ारण
ा का  एक
द्र  ज
 द्वार ा ब
 मंत्र ी स
जिल ा मुख्यालय
ोश ल
मुख्य  सचिव
विधान सभा सीट
 और क ई
आग  पर काबू
ाध्य ापक
ा अ ध
युवक  ने 
 गिर फ्त
ा ख ेल
ते थ े कि
 को गिरफ्तार  किया गया ह
धन बाद
 नाम जद
इलाज  के दौरान
 को प्र ाथमिक
शी घ
 इं सान
 के व क्त
सीएम  योग
 भी स ामने 
स्वास्थ्य  विभाग
राजनीतिक  दल
ार्व त
ात् र ह
 तरी क
हाथ  म
 बीजेप ी 
 बीजेप ी ने 
द्व ितीय
 सीरीज  म
 याचिक ा द
 डायर ेक्ट
 कश्म ीर
 नेट वर्क
बर क ्राइम
ावस ायिक
,  पुलिस
,  ध
C BI
ख ाम
च ेयरमैन
त स्कर
न ्त
र शिप
े  की ज
ो ना 
ी  चौक
ा  पूर
 स च
 स ाढ़े 
 के  छ
 की  दूसर
 ज ोग
 ज गत
 र स
 र िजल्ट
 अ र्थव्यवस्थ
 से  पहले
 से  निपट
 न कल
 आ स्थ
 त ि
 और  भारत
 कि  इस
 प्र सिद्ध
 प्र यागराज
ाह िम
ाह िब
 के लिए  ब
ड़ के 
ा ज य
सी एल
ाश ाह
चल  रह
ीव न म
 को स फल
बह ाल
बह ाद
आरोप  ह
स्व स्थ
िवार ण
 अन ंत
ी का  आयोजन
उप ाय
ाएं  और 
 " "
, स ी
ाड़ ी म
राज्य सभा स
ा प्र दान
 तो  क
 ठ ोस
चार  साल
 का प ानी 
शह ूर 
 पूर्व  विधायक
वाहन  चालक
 मिनट  से 
 सदस्य ीय
ल्ले ख
विदेश  मंत्रालय
 थान ाध्यक्ष
वीडियो  वायरल
कर क ाम
गार ंट
प्रिय ंका 
िट्ट ू
लक्ष्य  म
 कौन  ह
 डे ढ़
डे ढ़
ेट्र ो 
ठाक ु
 अभिय ान म
 की कीमत  
ठेक ेदार 
अंब ाल
ा साह ब
 करने के निर्देश  दिए।

 से हर ाय
र्भ  म
 इंस्ट ीट्यूट
इंस्प ेक्टर 
ायव र्ट
अप्र ैल
 वेर िएंट
. in
p p
आ धारित
इ श
ऋ षभ
क ॉम
ज ोत
प ैर
प चारिक
भ ोजन
भ ुत
म ंदिर म
ल ाइट
श े म
ॉ र्थ
 म िसाइल
ान िय
 ह सन
्य ुर
ाल े 
ा क ा ब
ा क र सक
 को  जान
 को  रख
लि प
 ल ी ह
 ल ील
 ल लित
इस ी 
 का  दूसर
 भ क्ति
प्र माण
 श ॉर्ट
पु री
ा कि सान
 कर  चुकी ह
्व ितीय
 उ ड़
ा म ोर्च
एक ादश
ीन ाथ
ंड ाल
 हो ने क
 के बाद  एक
सं चालन
 मु द्र
 यह  
 बज रंग
ीक ॉप्ट
चुनाव  जीत
ी से  जुड
 लेकिन  
पाल क
ी त ब
 को ब ेच
 की ह ुई
देख ते 
 के आ धार पर
ा का  लाभ
आप का 
ला के 
पूर्व  स
 स्व ीकृत
च्छ ेद
ष्ठ ान
an k
 बैठ े 
 का प ोस्टमार्टम
उम्मीद  है कि
 बंद  ह
 को प्र भावित
हमल ा कर दिय
दाव न
खुल कर 
 नजर  आए।

ी ए ज
 उपलब्ध ि
 बी घ
ौज वान
यून ियन
 के पद ाधिकारिय
ठेक ेदार
ैने जर 
निर्वाचन  अधिकारी 
मौक ा मिल
मोहन  स
ाकिस्त ानी 
िद्द ीक
 हल्क ी बारिश
ंचाल ित
िलान ्यास
  in
8 6
o di
s t
ः ।

उ दाहरण
च  गई
ड ा 
न ियमित
प ंज
भ द्र
म ारे 
य म
य ा स
स ारण
ॉ र्ज
 म ंग
 के  ग्राम
 प न
 ब हाल
 ब ाबू
िक ॉप्ट
 र ाशन
 व ृ
 व ृद्ध
 अ पर 
 अ टल
लि प्त
 ल ुक
 ल ैब
 न ्यूज
 ग ड़बड
 भ ोग
 आ स
प्र करण
िव िट
 के लिए  काम
ुर ुपयोग
 रह ी कि
 फ िरोज
िश ्ता 
पुलिस कर्म
 भी  आ
ाओं  पर 
 दे ने 
जान े म
 राज मार्ग
कि  उन्ह
 की ज ा सक
 पुलिस  बल
िज िकल
 छ त
 हुआ  तो 
दर् य
19 3
 शामिल  नह
ारे  लग
 महिल ाओं को 
 पहले  भी 
ाइट ेड
ा प्र दर्शन
 हो रह ी थ
 बह स
 का प ाठ
प् ति
ी ख रीद
 मही ने का 
 बताय ा ह
 कार ावास
 बस प
वेश िय
 सड़क  पर 
ोत्स ाहन
परेशान िय
पत्नी  और 
इलाक े के 
 मुद्द े पर 
 प्राथमिक ी दर्ज
 सप्ताह  म
 रूम  म
 चु ना 
वाराण सी म
इसी क ्रम म
ले कुछ  दिन
 लिस्ट  म
आइए  जानते ह
चंडी गढ़
ॉफ्ट व
इंदिर ा ग
यही वजह  है कि
  ‎
"  म
, 

I S
उ तर 
च  अधिकारी 
ज ेब
न ीट
म  स
य ा ह
र ेस्क्यू
ष ित
ा ...
े ले म
ॉ म्ब
ो र स
 क ृ
ी  जानकार
र  ने बताया कि
 स ्रोत
ान ुमान
ने  उन्ह
 की  विशेष
 र ु
 द ृष्टिकोण
ने  को तैय
 अ र्ज
 अ दालत म
लि दान
 ग ाइड
 को  किया 
ी ह ेम
िन  म
 कि  "
पु रोहित
 के स र
 रह ते 
 फ ुटेज
 एक  दिन
ा के  अनुसार 
ने कह ा क
ेक र
नी  ल
ोर ंजन
 बज ट म
 कम ्प
वर ुण
जर िय
 लाख  लोग
गर ानी 
आर जेड
 देख िए
अभ िभावक
पित ा को 
 फिल्म  '
ौल त
a  S
र ल ंब
टी एफ
 मई  तक
at ion
ा सम ाज
 शिकायत  दर्ज कर
 के समय  म
 इंद ौर म
भव न म
दुकान दार
निरीक्षण  के दौरान
 ब्ल ड
अभियान  चल
en t
-प श्चिम
 जरूर त
 की ड िम
 कित ने 
 को सूचना  मिल
भो क्ता 
 मंड ी म
र मह ीने 
 सेक ्रेट
पूरी तरह  से 
ाना चाह ते ह
ी कीमत  
तिश बाज
In di
,  क्य
,  एम
I ND
r ad
इ व
ई श्व
ख ट
ग ाज
ग  कर 
ज ागर
ड ाग
ड िम
ड िप्टी सीएम
न ायक
प क
ब ने 
र ाष्ट्र
र तन
र िजल्ट
ल ाम
व े क
व जन
व ाड़
ु जन
े ध
् की 
 म स्जिद
 के  घर पर 
 ह ार्ट
 ह र ब
 ब ेहोश
 र जिस्ट्र
 को  राहत
 ल िया 
 का  बड
ाद ि
 ग ौर
 ग वाह
 पर  मिल
लिए  ह
 च ढ़
्ह ोत्र
 फ िर
ा स ामान
 ख ट
ंड ी म
अप ेक्ष
मु ना 
राज ू
ी की  तरफ
सी  लगाकर 
एम ड
ा ब ारिश
 बन ने के बाद
ते हुए  कहा कि
 की ज िम्मेदार
 मु फ्त
 वह  
 की स ाजिश
खिल ाड़िय
फ्त ार से 
 नि षाद
 कोई  नह
 भारत  के 
ने की  अपील
 रुपए  म
ी ग ु
ी व ै
जिल ाधिकारी 
गिरफ्तार  कर लिय
अभ िय
 हो रह ा थ
ी है  तो 
 करना  पड़
बी सी
 दूसर ी ओ
 इंड िया के 
पार्ट ी ने 
ैट र
द्रीय  मंत्री 
मामल ा 
महिल ा की 
ी हो  चुकी ह
ऑफ िशियल
संद ेश
इम ारत
वारदात  को अंजाम
 विद्यालय  म
ा सुन िश्चित
 भार द्वाज
 की अध्यक्ष ता 
शो र म
ैड म
श्री गंगान
- फ
c om
अ ह
अ पर 
आ र म
आ दम
इ ध
ई वीएम
क ीक
ट ूर्नाम
त ो म
द ेल
ध कर 
स ख्त
स ूरज
ौ ह
ौ र ज
 क पड़
ी  अन
ार ी का 
 प ेम
 ब र्फ
 ब ॉस
 ब िजनेस
 व ाह
 ल ेग
इस ी प्रकार 
 का  ये 
 ग ोप
 भ िज
 भ ील
ी ह ी 
 आ चार संहित
 त स्वी
ाव ाट
 पर  लोग
िव ेदन
 प्र ोट
 प्र चार 
 य ोजना म
 ड ाउन
 ड ेब्यू
्ल ाई
ी ब ड़
ी ब ार म
 इ ंदिर
र क ी क
ा ज ह
 इस  मामले
ेक ाबू
 सं स्कृत
हर ाइ
 राज द
िज ्म
अधिक तम
मह ल
मह ा
 की ब ारिश
ी न ंबर 
से म न
 हुआ  कि
र ब ढ़
ा न द
 शामिल  हुए
देव  स
िया ज ाए।

शव  को 
 पद  के लिए
 ठ हर
ा त थ
 एस डी
 ले  सक
 के तहत  
ी रह ी ह
ी रह ती ह
ते थ े 
ॉक ेट
आरोप लग ाए ह
िद ायत
 ने म ंगल
इंड िया ग
 स्प ेस
जानकारी के  अनुसार,
 गोल ी म
 बुध वार 
ॉज िट
 पोस्ट  म
जैसे  ही 
तं की 
 भोपाल  म
ी जिल े
ा पह न
इक ोन
बाह र
विवाह ित
जोध पुर 
वंत  मान
iP hon
,  अब
:  म
N S
इ य
ड ूब
त िवार
प ाकर 
प स म
ब र्ग
व ेर
स ोल
ह  राजपूत
् बुल
 क ाउंट
ा  स्ट
र  ख
 स सुराल
 के  इलाक
 ह िज
 की  धार
 की  जनता 
्य ा कह
ाल ाव
 ब ैक
 द ीक्षित
ने  किय
 को  चल
 व ी
इस  घटना म
 आ  रहा ह
 आ  गई।

 त िलक
 श तक
 उ त्त
ेल वाल
द् र द
 ड िप्टी सीएम
ंड र
 वि नेश
 एक -दूसर
 भी  प
 लग ता ह
 बन ान
 कर द िया जाएग
ी द ो 
ा कर ने के बाद
सल ाह
भारत  के 
ूच ी म
 कुमार  शर्म
र्ड र
 ऑ परेट
 उप चुनाव
द्र  सरकार ने 
19 0
ुरु स्त
 की क ्ष
लोक तंत्र
मौ का 
निर् भर
 सी धे 
बन ्ध
फर ार 
ी कर ते ह
 पर क ई
ुश ल
 राज्य  सरकार 
 झ टक
 को म ार
अव स
 भेज ा गय
 का प ता चल
 का प्र ावधान
 की मौत  हो गई थ
ल्ल भ
महिल ाएं
 को ख ारिज
 वाहन  चालक
 हाई वे पर 
 पेश  कर 
 जुट ी हुई ह
 मैच  खेल
 दीप ावल
सोम वार 
फैसल ा किय
 होने की  वजह से 
ात् कार
 की व ृद्धि
 विन य
 औ द्योगिक
 पॉ लिस
 चंद्र शेख
 भाजपा  नेता 
छोड़ कर 
ब्ल्यू ड
े न ंबर पर 
PM  मोद
आत्महत्य ा कर ल
 का प्रत िनिधित्व
 डिग्री दर्ज  किया गय
 ने भाग  लिय
,  उप
R P
t t
इ राद
क ृषि
ग टन
च ा और 
ज ोड
द ुल
ध िया 
न ल
व े म
श िफ्ट
स ोच
ी  एम
ी  वाले 
ा  व्यवस्थ
र  च
 स ोसाइट
 म ात्र 
 के  नेताओं
 ह िस
ने  पुलिस
 की  दो 
 ब ुर
 ब ्याज
 द ाम
 का  ताल
 न वर
ाद ाबाद
 ने  इसे 
 को  हुई
प्र ारंभिक
ास ित
 और  सम
 और  लोग
पर  ह
 ख ंगाल
 पह ाड
 सं वेदनशील
 लग ाने
 मिल  रही ह
ोक ि
 राज न
 कर द िए।

आरोप ी प
 की स ड़क
ी से  मिल
मंत्र ण
ी न ागरिक
 नि भ
 जब रदस्त
इसके बाद  वह
ा का  शव
 के प ान
लोक न
रिक ेड
रख ा ह
 के न िकट
 अव काश
ैक ड़
 इन ्वेस्ट
ा प्र मुख
 बच्च िय
24 0
 से म ारपीट
छात्र -छात्र
उनक े क
कल ्याण
 ब्र िज
ी) ,
सर  नह
 उत् कृष्ट
 साह ित्य
 तथ ्य
 विकेट  लिए
 ढ ंग
 बिल ास
 आगे  बढ़
 का फ ायद
 से बच ने के लिए
 चाल ीस
)  का 
7 50
f f
i sh
आ तंकवाद
ग ाई
ज ागरूक
ड र म
त िल
थ ोड़
प स
ब ूल
ब ल्कि
ब ेहतर 
व ाने के लिए
श ुद्ध
ॉ लिस
ौ ते 
् शन
े  (
ी  राज्य
 स ारी 
 म ाथ
 प ोषण
 की  घटना 
ो  (
 ब ुमराह
 र तन
ाय ाम
ाय दे
 अ र्थ
 ल ाश
 ल हर
 ने  उनके 
 ने  खुद
 और  '
 प्र ॉपर्ट
ाह ुल
 के स ंचालक
ाइ ंग
 कर  म
री क
एक  और 
द् भुत
 ट िक
यह  कह
उस े क
ा की  और 
 पु स्तक
मान स
इन  सब
 अन ियमित
 सर स्वत
 हम ले म
पुर  निवास
ा प ित
ा प रीक्ष
 स्ट ार 
सु भाष
 द्वार ा न
 कुछ  समय
 की क ई
 शुरू  क
एन ज
दो  लोग
 कॉ र्प
 सरकार  बन
 निवास ी म
ने लग े ह
 आव ंटित
ी च ौराह
 के ज ीवन
बेट िय
a  P
ब्र ाहिम
युव ाओं को 
ल्ल ू
 सब से कम
शामिल  थ
 जगह -जगह
 रोड  स्थित
जो  भी 
 की आ ंख
 की आ शंक
, ग ुर
 शह र 
 मंगल वार 
 फी ल्ड
 अक ाद
ुकाब ले म
 बार -बार 
तैय ारी 
 व्याप ारिय
 की व ेबसाइट
नाल ंद
 जग न्नाथ
 दुर् घटना म
 जागरूक ता 
ुच ि
ा पद ार्थ
 की सजा सुन ाई ह
रीबन  
 कॉर िड
 के तापमान  म
2 20
ई मान
ख ण्ड
ग ुड
ज ै
ज वाह
ट 

त िय
त ारीख
भ ाज
ल ्म
व स्थित
व ेबसाइट
ह  ने कह
ह जार
ी  के बारे म
ु ष्ट
ु र्क
े र स
ो ने की 
ौ र्य
ौ के से 
् ले 
 क ार्
 स ाइकिल
 स ाजिश
 म िट्ट
 के  भाव
 प ेयजल
 की  निगरान
 ब ट
ा ह ट
 को  झ
 व े म
 अ ग्र
 से  शाद
 का  थ
 न ाव
 कर ता रह
 को  क्य
ी ह मल
रह ती ह
 पर  अपने 
 प्र ीम
 प्र ारंभ
ी म दद
 य ज्ञ
ना  भी 
गय ा और 
ंद ेह
 रह ने का 
ता  स
 हो ती थ
20 4
 वि ह
 के साथ  मिल
ा ज ीवन
पुलिस  और 
पुलिस  बल
क्र ाफ्ट
 बन ाया ह
 के म ध्य
ी से  पहले 
ट्र ायल
 स्थ ाय
ी त ैयार
 कोई  कार्रवाई नह
 भारत  ने 
 द्वार ा द
 से ब ड
 से ब च्च
 पूर ा 
 प्रति बद्ध
कर ार 
 शामिल  होने के लिए
 के खिलाफ  
 विश ्ले
राज्य  सरकार 
 एस यूव
 हर कत
ा ल ागू
 सह ायत
छात्र ाओं
ी ल ंब
 की अ गुव
ी मिल ी ह
 काफ ी समय
 पी एच
द्रीय  गृह
 क्षेत्र  के 
चंद न
 दिस ंबर से 
राष्ट्रीय  अध्यक्ष
इस ब ार
 घायल  हो गए।

 N ew
सन ातन
पथ राव
ाइज ेशन
समाज  म
वै ज्ञानिक
साथ ह ी स
सबसे  बड
 पर प ोस्ट
 की सुरक्ष ा के लिए
 रोज गार 
इक ाई
id eo
 अस िस्ट
चिकित्स क
ेक्टर -
पटना  म
 विधानसभा चुनाव  म
 निर्वाचन  आयोग
प्रव ीण
 का कह ना था कि
ध्यात्म िक
,  आई
N ews:
अ र्थ
अ ंस
आ ने वाल
आ धिकारिक
इ कल
ज ीर
त ः
थ ाना क्षेत्र म
द स्त
म ्य
र ंजिश
श स्
स चिन
ह  
ू )
ू ण
ै दल
 क ी को
े  च
ी  तिथि
ा  भी क
ार ंग
 की  उपलब्ध
 की  गतिविधिय
 ज ारी की 
 र िह
 व स्त
 से  झ
इस ीलिए
 कर ाकर 
 भ य
 आ खिर 
 पर  विचार
ी म ंदिर
स्थ िर
 ख ़
ंड न
देश भर म
ाक  म
ोन िक
पुलिस कर्मिय
 भी  ल
मु सलमान
10 5
 को स ुबह
 स्थ ल पर 
ी न िकल
 को प ार
ने के लिए  
उप भोक्त
ीद ार 
पुलिस ने  आरोपी
 जन जाति
ी अ च्छ
 की त ीन
 के र िश्त
 स्व स्थ
पहल ी 
फर ियाद
ी प्र त्याश
दर क
 से ठ
ा त य
जम ेर 
गु ण
 भाजप ा को 
 दिए  गए।

ी च र्च
ा हो ने पर 
ा हो  सकता ह
को ष्ठ
 समाज  म
 ने ब ुध
उसक ी मौत हो गई।

 का द र्ज
 पेश  किय
 को त ुरंत
िब ान
 किए गए  थ
 उम ्र 
तु र्थ
िथ िल
खास कर 
 का भ ोग
 की भ र्त
णव त्ता 
 देते हुए  कहा कि
 चु ने 
 विवाह ित
लोच न
इस फिल्म  म
 के हिसाब  से 
तेजस्व ी यादव
र्घ ्य
-ए -
अक्ट ूब
परी त
ुमशुद ग
ाट्स एप
आ तंक
आ कर्ष
ज ोड़
ज ैसल
ट म
थ ाम
न कल
न ी होग
फ ीस
म णि
र जिस्ट्रेशन
श क म
स र से 
़ ौ
ु झे 
ृ ढ़
 क ठ
ा  युवक
 के  मुख
 की  याद
 की  राजधान
र् ख
 ज ा रह
ा क रीब
 से  दो
इस को 
 कर वान
ाद ्र
 ने  लोग
 पर  स्थित
 प्र ावधान
 ए ग्र
त् ते 
 च ौर
 के स ंक
वि राज
भी  लग
द् र से 
 इ ज
सर ाय
सम ्
 इस ी तरह
 मह ानि
 भी  पह
ी के  मुताबिक
ी के  तहत
ा की  शुरुआत
ा की  जाती ह
ाने  की बात
सं कट
 के द ाव
 साल  की बच्च
 को स ज
ेद भाव
 उस  वक्त
सद ीय
ोम वार 
 ले ने 
 उप ायुक्त
ी ग ेट
 ग्र ेड
ायर स
 आप द
विक ्र
 आज  
 पद ्म
ास्त व म
 लोक ेशन
ा व ीडिय
ने लग ा ह
पीट ीआई
 को ज ल
ैर -
ी हो  सकती ह
ल्ल ाह
ी ड ्र
पट ॉप
 ने म ंगलवार को 
 पुर ानी 
 करोड़  
ट्रेन  म
 को त त्काल
घोषण ा क
 बना  द
ेड़ छाड़
जाने  लग
ी कम ाई
ी के क ार्य
 भी ड़
अमेरिक ा म
 ब्ल ैक
 फ्र ंट
िस् से 
 मोबाइल  फोन
ंथ न
 डॉल र 
ामले  की ज
 इंडस्ट्र ी म
वे क्षक
 से हो कर 
्लि श
ा हाल  ह
 किलोमीटर  दू
 राजनीति  म
त्योह ार
 शार ीरिक
क्षे त्र म
ेलवे  स्टेशन
 अनुप म
द्धव  ठाकर
ेस्टिव ल
  p
,  जय
- र
p dat
ऑ ड
क प्तान
च ाइज
च  एज
ज िम्मेदार
ड ेड
ड वाण
द ीन
ध ौल
प िक म
फ िरोज
भ ंड
र  के साथ
ल ो
व ाप
ह ुआ
ू  पटवार
ा  यादव
र  ट
 स कारात्मक
 प र्च
 ह िरासत म
 की  सीट
 ज ाने वाले 
ा क ई
ाम ूहिक
 को  जीत
 अ ख्त
ित  नह
 ग ाड़िय
ेश  स
 श ीतल
 कि  क
 कि  वे 
ाव ड़
 पर  अपनी 
 पर  खड
िव ंगत
 ए य
ी म ामले म
 च ैनल
ा म न
ता  प्राप्त
ी ब ाल
 ट ेबल
नि र्वाचित
ा है रिस
 एक  महिल
 एक  तरफ
वार 

िए  ह
 दे ने से 
हम द
ने कहा कि  म
ी ज ो 
आई पीएल
 मु द्दे
 को स ाथ
खिल ाड़
ग्रेस  विधायक
र ह ाउस
 के आ खिर
घटन ाएं
 को द ोष
चौ धरी
 उनके  खिलाफ
 से क्टर 
 करव ाया गय
 करव ाने के लिए
अपन ी बात
ा श ामिल
 ने ब ाइक
नाथ  श
ाते हुए  कहा कि
हरियाण ा 
एड िशनल
 एन एच
 तापमान  म
भगवान  राम
 योजन ा के 
 विकेट  लिए।

प्रभ ारी म
समाज वादी पार्ट
 सर्व ेक्षण
 महीने  तक
गड ्ढ
ी महिल ाओं
बीजेप ी 
लिट िकल
विद ाई
 आवास ीय
 स्ट्र ीट
इतिहास  म
योजना  बन
व के  रहने वाले 
क्सी जन
खात े म
 जनवर ी से 
 गुल ाब
 आर्य न
 की वारदात  को अंजाम
 महंग ाई
 तिर ंग
जान से मारने की  धमकी द
उपचार  के लिए
 के रास्त े 
ज्योति ष
 छाए  रह
िग्न ल
i es
आ दर्श
क ोर
त िलक
थ प्प
द लित
द ोबार
प ता लग
ब ाढ़
र िट
ल ाई
व 

व  स
ह  ज
ी राज
ु -
ॉ र्न
ा  पूज
 स ाक्ष
 स नातन
 के  पर
 प ृथ्व
 प ार्क म
ान िक
 ह ड़कंप म
 की  पूर्व
 की  गिरावट
 र िप
इस  बैठक म
 कर ाए
ाद  म
 ग ीता 
 त ख्त
प्र सिद्ध
 और  ए
 और  डीजल
 श म
 श शि
 श ौचालय
 कि डन
पु र्द
ले पर्ड
ी क र्मचारिय
ाइ फल
ाग ्र
ी स े
िश ्र 
 ड िम
 ट ेक
पू नम
 मिल त
हम ले म
आई एएस
 की स बसे बड
ी प त्न
 कम  ह
 कम ्युन
ैय द
 चल ा गय
 अधिक ारी म
श्र मिक
 रख ने के लिए
 व्य वह
ाइक ल
आज  सुबह
ी र ूप
 मै रिज
 देश  के 
चौ ड
 लोक सभा म
 रूप  से क
बी ए
र ज गह
ा हो कर 
 मही ने की 
नीत िय
 की सं भावन
ी भ र्त
ी भ ाष
महिल ा को 
ोत ाख
 भर्त ी परीक्ष
जबकि  
ॉन् स्टेबल
 को च ुनौत
ना चाह ती ह
सम्मान ित किय
 को ल ागू
 वर्म ा ने 
ा हुई  थ
 महार ाष्ट्र म
याचिक ाक
 का प्रत ीक
ॉर्च ्युर
 के अध ीन
 कम से कम  
,  हर
- श
:  '
e  C
w w
ं ठ
ए सीब
ग र स
ग  करते हुए
च ले गए।

त मिलनाडु
म ू
र िह
व िलास
श रण
स िख
स ैनिक
ह ै
ह ोल
ह  राज
ू ँ
ू गल
ा  यात्र
ार -बार 
 की  स्थाप
 ब ॉक्स
 ज िम्मेदार
 द रवाज
 ल ाकर 
 त स्वीर 
प्र ाण
प्र योग
 और  अपने 
 ए क्
ाई पास
त् वर
ी क ैलाश
 कह  रहे ह
 कह ा गया ह
ी स ब
री व
 फ ुल
 फ र्स्ट
 ड िस्प
्ल ाइट
 हो ना चाहिए
ी ब स्त
वह ी 
 स् नातक
अन ूप
र्व क
हर स
तक नीकी 
हम ास
ा ब ैठक
ने कहा कि  
ी ज ुट
आई आईट
ाध ि
साथ िय
ी त थ
ा प ड
ा प ार
 अधिक ारी स
आर आई
ी व र्ष
ी व िवाद
्यू रो
ने पर  बैठ
भाजप ा को 
ीश ुद
 शर्म ा को 
ा त स्कर
 से स ज
 घंट े से 
ियान ्व
 बह ुमत
 ले  रहे ह
 शिक्ष ा मंत्र
 डिग्र ी और 
को च
ी हो ता ह
सरकार  बन
े द िख
िस्स ा लिय
 यू जर 
चर्च ा क
शिव पुर
 कुल पति
 युव ा 
रिय ल
er  
परिवार  ने 
 को र द्द
 गोल िय
पत्न ी को 
 चाह िए
en d
 पहले ह ी 
 करने से  पहले 
 कभी  भी 
 प्रत्याश िय
 फोट ो
बीजेप ी ने 
भाजपा  नेता 
 के ट ॉप
 निर स्त
महार ाष्ट्र म
 की घटन ा को अंजाम
्लि प
ियंत्रित  होकर 
 कार्यकर्त ाओं ने 
 त्य ाग
 के प्रत िनिधि
 सीसीटीव ी कैमर
 सफ ेद
 का दाव ा है कि
आयुष ्मान
शव को प ोस्टमार्टम
 के बद ले 
ेपी न ड्ड
,  मह
- बहन
. .

L A
ए हसास
ख ्श
ग  पर 
घ ोटाल
च िल्ल
ट ीन
ट ेड
त प
त ारीफ
ध  म
ध ोखाधड
ब ीज
व ड
श र्त
स ,
स  से 
ह  ग
ह ेल
ह र साल
ो सी 
 क च्च
ी  '
ी  ।

 स ीनियर 
 के  चार 
 ह ंस
िय ा

र् भग
 ब ्यूर
िक ्ट
 र ॉय
ाम ना 
 को  घेर
 अ ंश
 ल िया जाएग
इस  ग
 न ाज
 कर ाया जाएग
 ने  भारत
 ग ृहमंत्र
 आ ंख
 आ धिकारिक
िन य
 और  दूसर
 पर  मौजूद
ले वल
ी क ाल
रो जान
ेल ्ट
ा स भी 
्ल िक
 एक  
ार् पण
सी ह
 इस  वर्ष
ा रह ता ह
ारी  नह
र्ज र 
भाग  निकल
ीड ीप
ून ्य
 कर द ी थ
आरोप ी म
 कार्य  म
 अन ्न
 ध ोखाधड
ट्र ेड
 नि देशालय
अब  इस
 हुआ  और 
देख ते ही 
 जब  म
ा प ड़
ा प ार्ट
ी अ रव
विश ्ले
ायर म
 ओ डिश
शिक्ष ित
 राज्य मंत्र
ारी क र 
द्द ीन
 कार्रवाई  की म
प्रति बद्ध
 दिए  गए
शह र क
को प
 ई यर
श्च र्य
 नगर  पालिक
शाद ी का 
पीछ े से 
 के  करीब 
 भगवान  राम
 को त ोड़
टक् कर
 केवल  
 ढ ाई
 से ल ौट
मामले  की जानकार
जवाब -
 अंत र्गत
 पूरे  देश म
 मौसम  विभाग
ा कार्य ालय
माल ूम
ी सरकार  म
परीक्ष ा म
 कभी  नह
शरी र
 संसद  म
ऑट ो
ैने ज
.... ....
 खु ले 
 लीट र 
पुण ्य
डीआर एफ
 हजार रुप ये 
 आयुष ्मान
गी ज त
 ग्ल ोबल
ाण्ड ेय
उल्लेखनीय  है कि
र्भग ृह
,  हरियाण
r es
अ ख
ई एन
क व
ग ात
घ बर
च क्र
त ंज
ध ू
ध े
न या 
ब ेर
ब ोच
म ै
व  ब
ह  क
ु ँ
ी  ध
 म ालिक
 के  स्ट
 प त्र म
 ज ंग
 र कम
 से  उसे 
 से  पूछ
 का  वीडियो 
ित नी 
 आ बकार
रह ता ह
 प्र ात
ाह ट
ाई  कोर्ट
पह न
िश मन
्ल ीन
्ल ोम
ी ब ाब
 ट क्कर म
 इ मरान
अप कम
 सम ्प
 एक  अन्य
 एक -एक
ा ज मीन
 करने  के साथ
ा ब रामद
 ( M
ेव रात
 यह  भी 
ी द स्तावेज
शिक ार 
 हम ास
मह ज 
ी न गर म
राम  मंदिर
ने की  आशंक
ने की  संभावना 
डी पीएस
 स्ट ार्ट
ी अ शोक
पूर ा मामल
आप ने 
 के त त्व
 जो  लोग
अनुस ूचित
ा को तवाल
 विश िष्ट
 अभ ियुक्त
 इन ्
जम शेद
ी मह त्वपूर्ण
साथ ही  उन्ह
17 0
 को अ च्छ
बल ू
मुख्यमंत्र ी 
ी हो  गय
 विकास  कार्य
प्रत िक्रिया 
 जानकार ी देते हुए
 विश्व  कप
राय पुर
वोट  डाल
ृह स्प
 की ल ंब
 और प ाकिस्तान
व्याप ार
घटना की  जानकारी मिल
अनु ज
अनु संधान
 ठाक ुर 
बिन ा 
ते रह ते ह
लाइ ंस
 मिम ी बारिश
ई- रिक्श
 उपचार  के बाद
 दह शत
इज ाज
 वाय ु
 चंडी गढ़
 अभिने त्र
ृणमूल  क
" ,
,  सर
_ _
अ ड
अ ग्र
आ ख
आ धार कार्ड
इ ंस
क र्
ज ज
ज ोड़
ठ न म
ड ु
त ट
त ाकत
त स्वीर 
न ाश
फ न
ब ीट
ल  ब
ल मान
स प्ल
ह  शेखावत
ो र से 
 क ा

ी  अपनी 
ा  निर्देश
 ब ि
 द ी गई थ
ने  के मामले म
ने  के साथ ही 
 को  ट्र
 को  बहुत
 व  स
 से  ख
इस  हादसे म
 का  खतर
 आ  गए।

 आ  गया ह
 श र्त
पु स्तक
 प्र ाण
 प्र ाचीन
 ए आई
ी म शीन
ाग र 
ी स ंजय
ी स मुदाय
 फ ैसले
ा स ंघ
िर कत
यह ी कारण
उस  दौरान
 लग ाने के लिए
 दे ह
 किया गय ा और 
 को स र
 उस को 
ी और  स
ी प संद
 हम ारा 
पुर  पह
पुर  जिले म
ब् बत
ी ग ुल
ोश ाल
धार क
 काम  करने वाले 
लिख ा ह
ीश ीट
 सीट  से 
िफ ाई
ा र ाशि
 जून ियर 
िर्फ  
र ल ौट
ी भ ोपाल
शिव िर
ी दे र तक
 ऐस ा 
इसकी  जानकार
 बना  ल
ा कह ना था कि
 प्ल ास्टिक
मंगल वार 
 बढ़ कर 
 वर्ग  म
 सो ना 
 वार्ड  म
घंट े 
 रो जान
ेरे  भाई
टाल ियन
 के पहले  दिन
 जार ी

 राजनीतिक  दल
 सिद्ध ार्थ
 से जुड़ े 
एक बार  फिर 
 पूछताछ  म
 प्रेर ित
 कोहर ाम म
घर ज ाकर 
 आकर्ष ण
ेरिट ेज
 शी र्ष
 धूम धाम
िष् कार
त्वर ित
  Y
%  वोट
2 10
A n
a z
w al
अ क्सर 
घ ्न
च ाने के लिए
ज ीब
ट ाउन
ड ेर
त ीर्थ
द िमाग
न वरात्रि
फ ुटेज
ब ार म
म ोहम्मद
श म
ह  भ
ा ज़
ी  करीब 
ो ती ह
ढ़ ाई
 क व
 क वित
 क ट्ट
े  गए ह
ा  चुक
ा  विधायक
 स भागार म
 के  इन
 प ाएग
 ब ौ
स् से म
ा क ेस
 द ीन
 द ुकान म
 द िग्गज
ने ता ह
 अ क्स
 अ जीत
 से  शिकायत
 से  चार 
ैं ...

इस से क
 का  अंत
 का  अनुमान
 न ाट
 न िश्चित
 कर ाने का 
प्र िया 
 श ंकर
िव त
ी म ंदिर 
 च ैल
वि द्यार्थ
वि ष्णु
 के ब ल
 रह ते हुए
 कह ा जाता ह
ाग ढ़
ुन ाफ
 ट ूर
ाप न म
ग्र ेट
ा ज म
 भी  ग
़ा 

ाने  के दौरान
ाने  को कह
ूर त
िट ी म
मान ा जा रहा है कि
सं केत
 पर ियोजना 
ंज ेक्शन
कि  वह
 है  क्य
ी द व
ी द ुर्ग
 की स फल
 ध ोन
से म ुलाकात
 की ह ै कि
 को लेकर  विवाद
र ब त
 चल  रही थ
 मंत्र ी ने 
कर िय
 जिल ा म
ना ह ुआ ह
ा को  म
ी र ाष्ट्रपति
 मान ते ह
ा त ो म
ा व र्ग
इल ाहाबाद
 ने क ुछ
काल िक
 तीन  लोग
ारी  के लिए
 रन  की पारी खेल
बाज ार
 ने कह ा क
आम  जन
विकास  कार्य
ग्ल ोबल
गण ना क
िस्ट्र ीशीट
टिकट  पर 
 जैसे  ह
 प्रधानमंत्र ी मोद
शुभ कामनाएं
 परेशान  ह
 होने  के बावजूद
दिल ीप
 हत्य ाक
 क्ष मत
चौथ े 
चंद्र शेख
 पाठ ्यक्रम
 चौराह े पर 
 धार ाओं म
 ऋ षि
 करिय र म
विर ासत
ने से म ौत हो गई।

 जवाब  नह
िक ह िरासत म
 विर ाट कोहल
 फं से 
इंडिया ग ठबंधन
  h
,  वह
o g
आ  गय
ऑ डिट
ओ यू
च ा तो 
ज ोश
द ीय
प ं
ब ाप
भ ील
म कान
श रथ
स ूचना के बाद
ह  ख
ु .
ड़ बड़
 स ुम
 स ैल
 स ियास
 ह ीर
 ब ुलाई
 ज ोड़
 ज ्वेल
ा क िया और 
 र ू
 द ी जा रही ह
 द िवाल
 को  "
 को  दे
 व ेट
 अ त
 ल ल
 न ीम
 को रो
िन ोद
ास र
 श ेष
ाव ्य
पु तिन
िव ेच
ाइ वान
े क ्षेत्र
्व ार्ट
ाए  गए थ
ा म स्जिद
 फ ेस
िश ु
स्त ित्व
 हो ता थ
 एक ड़
वार ंट
 स् पीड
 करने  के मामले म
सी  (
सं जीव
ुव नेश्व
आई ए
 को स भी 
ग्रेस  स
दू त
अब  यह
ेय र स
 ने ह
 कम ीशन
र द िया ह
 को प ुर
म्म ेल
ी अ म
12 1
 द्वार ा प्र
र्य टन
आज  
 श्र ीलंक
बर सात
घटन ा को अंजाम
पहल ा 
फर त
 ने कहा कि  यह
 को क ाबू
द्द ाख
 पार्ट ी (
र्न ाटक म
ंभ ू
 करने का  निर्णय
अपना  नाम
 आग ाम
 ऐस ा ह
 करने वाल ी 
नव ाज
सुन िश्चित
 के निर्देश न म
 अच्छ े 
 अफ सर 
पूरे  देश म
 होने वाल ी ह
 परिव ार म
ो रह े ह
विपक्ष ीय
परिव र्तन
ay :
 आयोजन  म
 सत र्क
ा मान ना है कि
सुप्रीम कोर्ट  म
ैनिक भ ास्कर 
गंभीर  रूप से घायल
िराज  स
ी बह ुत
तरी के से 
रग ाह
बीएस ई
गिर  गय
 परिस र
आईएम ड
ेडिट  कार्ड
 तेजस्व ी यादव
ा सीत ारमण
  ।
,  छ
a )
l i
क ु
क ास्ट
ग ैर 
च  दिन
ज ारी
ज म्मू
ड िस
फ ंस
ी का 
ौ ल म
 क पल
ी  इलाके म
ी  झंड
 स ील
 म च
 के  विरोध म
 प ात्र
ने  उसे 
ने  खुद
 की  बहन
र् सर
 र म
 को  आगे बढ
 व िरासत
 का  जल
 न गर क
 को  पहले 
 आ धार पर 
 श ो 
 श ॉप
वि ज्ञापन
वि रुद्ध
 उ द्यम
ुन ्न
ेल ा 
कार िण
्ल ैक
 ख न्न
ी ब ार ह
बताय ा जा रहा ह
पुलिस  कमिश्न
 पर  कह
ष्ट म
 के द ायरे म
ने कहा कि  क
ाट ू
ी से  राहत
 अन ूप
मह ंत
व्य ास
ी त ैय
ंक ित
 होग ा 
 ने बताया कि  इस
दम कल
उप करण
 की त ब
 मंत्र ी ज
आज  तक
 की क ामन
 सी ओ
 आप त्ति
रख ी द
 ऐ श्वर्य
आव ागमन
 की ओ र से क
ार्थ क
 ने क ार्रवाई
 भेज ा ह
 की बात  ह
 दो  बार 
 पर ह ुए
अपन ी क
और ंगाबाद
से क हा कि
ब्र ेर
ar d
मुख्यमंत्र ी ने 
 सेव क
 जिला  अध्यक्ष
 पार ित
 योग ेश
 सामने  आई
 भी ब रामद
 बेट े 
 P ric
 हो चुक ी थ
ित्य  स
 उसक ी म
ॉय फ्र
शाह रुख
 अक ेले 
घटना की  सूचना 
नर ेश
 व्याप ार
 की ड ्यूट
 कित न
 खास कर 
द्व ंद
 कब ूल
धमक िय
 पेट्रोल  पंप
पर्य टक
ुल्ल ाह
ओम प्रकाश
 मैने जर 
 हजार से  ज्याद
 अयोध्य ा म
ा द्वार ा 
ीडी ओ
 बेहत रीन
स्टेडियम  म
 पून म
,  देव
- ड
D P
a u
u k
ई ट
ई स्ट
ऋ ण
क  ग
ग ना 
ट  कर 
ट ारगेट
द  पर 
फ डणवीस
स  ने 
ह  तोम
़ ं
ी र्घ
ै पटॉप
 स ाक्ष्य
 म ूर्ति
 प ता ह
 प ाए।

ान गर 
स् ता 
स् क्र
 ज िम
ाय ित्व
ाम ग्र
ने हरू
 अ काली दल
 से  देख
 ल ुधियान
 कर ाई।

 ग ं
 ग ाज
 त लाक
ेश ्याम
 श ोभ
 पर  यह
 ए व
ति राह
 च ढ़
रो ष
ा म ौक
ी स ज
ी स ोच
ी स े कह
कार ी 
ी ब ोर्ड
ी ब ैठक
ुक म
ुम क
ा है  लेकिन
सम ुदाय
शन  म
ा के  मुताबिक
ी के  नेतृत्व म
िट ीज
एम ्स
स्प ेश
ा ब ोर्ड
ोर ियम
ा और  उसके 
स्क ान
जब ू
आय ोजक
 के क ह
 के क ्षेत्र
ेशन शिप
पहले  से ह
राम लल
ॉल ्व
सद  ह
 किया ज ा चुका ह
 चल ी गई।

र्ण ायक
ने के बाद  भी 
 के प्र स्ताव
परि चालन
 श्र मिक
 के न ागरिक
 दर्ज  की गई ह
 का स ंदेश
लाल च
 करने के लिए  
 चुनाव  लड़
 पार्ट ी की 
ा व िवाद
 तीन  दिन
 के सम र्थक
 की अ ंतिम
एसप ी ने 
 उसके  पास
पद ाधिकारिय
 परीक्ष ा क
ेहत रीन
यह भी  देख
 विशेष  रूप से 
 से प ता चल
 ज्याद ा 
 अभियान  के तहत
 फर ार हो 
 क्रिकेट  म
बस  स्ट
मत दात
 हासिल  क
 से प्र भावित
 पर ज ाकर 
ो रह े 
 लंब ित
 सफल  रह
जाय सवाल
 की कम ाई
विस्त ार से 
 की तैय ारी कर रह
मौसम विभाग  ने 
 मामले  पर 
 द्व िवेद
ैने जम
ी अभ ियान
घुस पैठ
 को बच ाने के लिए
शुक्ल  पक्ष
विम र्श
दैनिक भ ास्कर
विज ेत
 डिव ाइस
 भूमिका  निभाई
 प्रतिबंध ित
 हमलाव र
रहम ी से 
र्ख ास्त
,  कह
,  भारत
अ तिथिय
ग ैस
च ावल
च  शुरू कर द
ज ंगल म
ट ्ठ
ड िया 
त ा कि
थ क
न जर
फ र 
फ िया 
ब ी 
ब ेगूसराय
भ ीम
भ र से 
म ुकदमा दर्ज
र ानी 
व  का ह
ि डीह
ी  के सामने 
ू टन
ो ने
 क ूद
 क नेक्ट
ी  चुनाव
र  फिल्म
 के  चार
्र िक
 प ाया ह
्य ूच
 ज ेड
 ज ोरदार 
 ज म्मू
 र जत
 द ंग
 द ुनिया म
ाम ढ
 को  ध
 व े क
 का  खर्च
 न िय
 ने  तीन
 ग ंव
प्र ोफ
ेश  बघेल
 प्र संग
 के स ंप
ाए .

ले  और 
 ख ो 
 हो श
 हो ते 
िर ाकरण
ा है  जो 
 इस  पर 
वार  को ह
मु आवज
राज क
ारी  ने 
एस एफ
ा द ी ह
कि  
पुर , ब
 पुलिस  और 
ीप त म
 अन िवार्य
ाना  पड़
मह ी
ारिय ल
 रख ा थ
इसके बाद  म
ाउ ंटर
 द्वार ा अ
 के प्र वक्ता 
 से क ाफ
 शामिल  रह
पहल वान
ॉन ्ट
 के न शे म
ी को तवाल
ा ग ु
 की ओ र ज
ताब ्द
 राम लल
 पर ब ंद
गत  
घायल  हो गए।

 उठ ाय
 जुलाई  से 
ा के लिए  
पद ाधिकारी 
पट ाख
ी हो  गई ह
 एम एस
 बत ाई जा रही ह
28 9
जद यू
जो  लोग
थाना  पुलिस
िष ्य
परेशान  होकर 
न्याय मूर्ति
 काल ोन
al m
ा भी  नह
िग् विजय स
 का अ स
 कट ार
 को फ ायद
 प्राप्त  किय
अच्छ े 
बढ़ त
 उम ेश
 महत्वपूर्ण  ह
मे र म
 के सं योजक
 के सं स्थापक
 गिरफ्तार  किया ह
 तैय ारिय
आरोप लगाय ा है कि
ा सं स्थान
ा हुई  ह
ौद ाब
 को रोक ने के लिए
 को सम ाप्त
जलि  अर्पित
 स्पेशल  ट्रेन
ND A
 डॉक्ट र्स
 सोल ंक
 डीज ल
 बैट र
 की लागत  से 
 इजर ायल
 इंत जार
प्रतियोगित ा म
अब्द ुल
 को पी छ
टका  लग
ेमोक्रेट िक
,  तो 
- अ
- पूर्व
u b
आ धार 
आ श्रम
इ कट्ठ
ई  
क  ने 
च ंड
ड िप
त ाएं
थ ाने पह
न जदीक
प ैद
प ता नह
ब ु
ह ेड
ी ;
ी  किसी 
ौ ती ह
 क र्ज
ी  आज
ी  वाहन
ा  l
 स ुप
 स ावधान
 म ेहर
 के  अनुरूप
 की  '
ा क ारोब
 र ियल
ा ह ी नह
 द ौड़
 न ानक
ाद ुक
ी ह ाथ
ी ह ासिल
रह ा थ
 और  बच्च
 श ायद
 च िप
िस ूचना 
ा म ौसम
ाब ल
ाब ंधन
िश न म
 ड ाक
ा स ेव
 ख े
 ख बर 
ीय  ह
ी ब िजल
्ष ोभ
 सम ुद्र
 मह तो 
ेत ावन
 सं रक्षक
भाग  गए।

10 1
आय ा और 
ी और  अन्य
 कार्य शाल
ाना  पड
 स्थ ाप
 की ह ोग
गिर ने से 
जह ाज
ा प ैस
 अधिक ारी क
श्र वण
र्य टक
 श्र ीम
ा ग ुरु
ी र ैल
भाजप ा सरकार 
 से स भी 
घर वाल
श्य ोर
 लेकर  पोस्टमॉर्टम
र रह ी ह
 करने का  आदेश
 देव गन
 S t
 पार ंपरिक
ीफ ाइनल म
ारी म ात्रा म
 मिनट  पर 
ध्यान  रख
 की ग िनत
प्रदर्शन कारिय
 की ल ड
 वार ्षिक
संभाव न
 अमेरिक ा म
फोट ो
 कित नी 
उम्मीदवार  बन
 क्ष म
िस्त ्र
महार ाष्ट्र 
भार  व्यक्त
 तोड़  दिय
 बीत ी रात
लाइ न म
 छत्तीस गढ़
डिडेट ्स
 दब िश
रग ोन
 की गिरफ्तार ी के लिए
 फरवरी  को 
ंगन बाड
 चतु र्वेद
ा किए  गए
 की आवाज ाह
 हादसे  के बाद
अर्च न
अज मेर
धूम धाम
नक्सल िय
गरम च्छ
 पर नजर  रख
चू ड़
Lok Sabha  Election
,  इन
6 50
a in
e )
i f
अ खिल भारतीय
उ ड़
ओ वर 
ख ्ता 
ग ी थ
ज गदीश
द ा म
द िश
प प्पू
ब ीएम
भ ाट
र ो 
र जिस्ट्र
ल ॉ
श ुराम
स ूद
स ारे 
ह , अ
ह ैदराबाद
ा छ
ि पुर
ि र्च
ु सल
ु हान
ू ति
ौ र क
् र स
ाल ्ट
स् खल
ा क ा समाधान
 र ॉयल
 द ौड़
क् की 
 को  ढ
 का  टिकट
 कि  हम
 पर  आयोजित
ी म ौके पर पह
त् तर
 च ाकू
 के लिए  प
 थ ी और 
द् र बन
ीन गर
िर स्त
 इ लेक्शन
ार् स
ी के  लोग
ाफ िय
ेर ल म
ाओं  की 
ा की  तरह
 सं भावित
भाग ीद
ा और  ब
 पुलिस  म
अधिक  ह
ा कर ने पर 
स्क ोर 
ंप ्यूट
ी प र्व
जिस  कारण
 को ब रामद
 किया ज ा रहा थ
श्र ी राम
 ले ने के बाद
 कुछ  दिन
 का स ह
विधान सभा क्षेत्र
 लोक तंत्र
 प्रदेश  के 
 भेज  दिया ह
आग  बुझ
उनक ी क
भी क ुछ
अपन ी बेट
 बारिश  हुई।

 बताय ा गया कि
ेन् द्र म
 दिल्ल ी से 
 मौजूद  लोग
 सेव ा प्र
ी भ ूम
 मेर ठ
 जिला  स्तरीय
 ब्र ज
एड मिशन
ा सम झ
 को ग ंभीर 
िशान ा साध
 संत ुलन
 लड़ की 
नजर  आ रहे ह
 चोर ी कर 
अनुम ंडल
 क्ष मता 
 को पूर ी तरह
लाइ फ
न्यून तम
 की तैयार ी म
ी कुम ार
प्रताप  स
रूम  म
 जाल ंध
 भंड ार
 पंड ्य
उधर ,
 मल्ल िकार्जुन
  m
)  के तहत
आ पराधिक
उ पर
क श
क ेवल
ग ा ह
ग ीर 
ज  अलर्ट
झ ील
ढ ोल
त ाई
न ृत्य
फ ाइन
फ ोड़
म िन
य ाय
र ि
र बाज
व ी क
श नि
स ी ह
ौ र स
 क ैल
ा  भर
 स ुसाइड
 स ुमित
 के  विरोध
्य ाल
 ब यान म
 ब र्बाद
 ज ा रही ह
 ज ाने की 
 को  ज्ञापन स
लि श
 से  राहत
इस  कार्यक्रम
 का  विकास
ात े रह
 ने  इन
 ग िन
 प्र ज्ज
 प्र ैक्टिस
ाई ल
ी म ौजूद रह
 च ोपड
 य ंत्र
वि धिक
 उ से म
एक  साल
एक -एक
 वि फल
ा के  प
 मह तो
 मह ात्मा ग
ुए ।

 पु त्र म
ाण िज्य
़ी -
ा ब ाल
सभ ी क
इन ्वेस्ट
 यह  बात
 की स िफारिश
ाने  ज
 तो  उसे 
 के क म
ंप ारण
ाकर  म
 ध ीम
पाल िका 
ी न द
ी न ायब
 किया ज ात
श्र ीम
 से ब ंद
 ग्र ंथ
 शामिल  होने 
 काम  कर
ा प्र ाप्त
पित ा के 
 आई ड
धर त
आग मन
प्रति भागिय
ी च रण
ा हो ने के बाद
 भी क िया गय
ी भ ी ह
 खान  ने 
जिला  अस्पताल म
 एम एल
िम्म त
ा हो  गया ह
भा स्कर
न् द्र 
 किए ज ाते ह
हास चिव
 शाह रुख
 का आ श्वासन
ा च ौराह
 ज्याद ात
 स्वास्थ्य  विभाग
दुकान दार 
अम ेठ
 रिक ्त
धमकी  देकर 
 होने वाल ा ह
ेण ु
बार -बार 
ेडिकल कॉलेज  म
 कॉलोन िय
 अनु ज
कुमार  यादव
 सुविध ाओं
साध क
ीजन  म
र्ध शतक
ाते  चल
 प्रभ ात
दोष  व्रत
 को सम र्पित
विकेट की
 विज्ञान  क
ना द िवस
डॉक्ट र्स
 हेम ंत
चु के 
 इंट ेलिज
एसडी पीओ
संसद  म
थित  तौर पर 
 ठेक ेदार
डायर ेक्ट
 आसान ी से 
 कंप ्यूट
ुनियाद ी ढ
 इम ारत
ाना क्षेत्र  अंतर्गत
प्रदाय िक
चित्त ौड़
  X
O S
U S
W eather
अ टल
ऑ फर
क लेक्ट
ग  र
ग ी और 
ग  की गई।

ट कर 
ट र्म
ट  नह
द िग्गज
ध ी को 
ब ीर
ल ीफ
ी ह
े "
े र ल
ो .
 क ार से 
 क ेशव
े  ख
ी  राजस्थान
ी  ट्रेन
 स ागर
 म णि
 म कान म
 के  जातक
 ब ाड़
 ज ाने का 
िक ा द
ाय के 
ने  की ह
 व ैर
 अ ंचल
 से  दोपहर 
 का  खेल
 न ोएड
 ग रब
 को र
 श ो म
 श ुद्ध
कर  ने 
 पर  तैनात
ाह ाट
 ए टीएम
 उ त्स
एक  तरफ
्ल ड
दे य
 वि हार
ा ज रूर
सी पी
ारी  थ
मान ंद
 पर ेशानी 
ी थ ी और 
ी ज म
 ( B
्न ोई
ा और  एक
 मु क्ति
 छ ुप
ोह ण
नाम  नह
 की ब ढ
 हुआ  है
ने के लिए  कह
उप ायुक्त
 ले ना 
 ऑ यल
 द्वार ा र
ोब ाइल म
 के प्र भारी 
19 2
 प्रति शत म
ज्ञ ान म
 बार  फिर 
ने बताया कि  इस
 दिय ा है कि
गिरफ्तार  किय
 अभ ्यास
ैक ल्प
 आज  तक
शिकायत  दर्ज कर
ी प्र साद
ी पर  ह
an t
अव सर 
अव लोकन
 मंद िर से 
 को न ई
 जिन का 
े की  तरफ
र्द श
 ई वीएम
 मामल ा 
ा दे ते हुए
पट वार
गुरु वार को
उसक ी हत्य
 अध िवक्ता 
ानून  व्यवस्थ
 एन र्ज
 पुर ाना 
इसकी  वजह
प्रेस  कॉन्फ्र
 थाना  पुलिस
 सर्व ाधिक
ता रह ा ह
 थान ा स
 खिल ाड़
ा ट ूट
ा जात ा थ
 स्म ृति
व निवास ी 
 महास भ
खतर नाक
लड़क िय
 कैप ्टन
ध्व स्त
कंपनी  ने 
ी कट ौत
 के जवाब  म
 सुराग  नह
च्छेद  
नी ल ॉन्ड
  ?

" "

,  राजस्थान
o x
o or
s e
अ दालत म
अ ल्पसंख्यक
आ स-पास
त ीय
द ुकान म
फ ैस
फ ाइनल
फ ाइनल म
ब ुरी तरह
र लाल
ी ...
ी र्तन
ै ...

ो पह
ो द्ध
ौ पद
ी  अब
 म धु
 ह र स
 की  टक्कर 
्य ार्पण
 र फ
क् लेव
 को  लोग
 का  पूर
 का  रिकॉर्ड
 का  मुद्द
 त ोड
 त मिलनाडु
 कि स्त
ाव  म
 च ुप
 के स मान
वि च
ाइ न म
ंद ाज
री  के 
एक  दिन पहले 
ुल डोज
 ड िटेल
्ल ाद
 हो ता है कि
 ट कर
ाप ूर्ति
ाक प
नि जात
 सम ्राट
बताय ा था कि
सम ्मेलन म
ा ज ैन
सी सी
 भी  अपने 
वार  को प्र
 सं केत
ी की  और 
्स  एक्ट
 करने  की अपील
सं चालक
ुव न
िप ्स
 कर द िया 
आरोप ी स
ीब द्ध
ंप ाई
ी प ंचायत
 ध ्रुव
जिस को लेकर 
 स्थ िर
 कुमार  यादव
ा प ानी 
श्र ीकृष्ण
 ले पर्ड
गर ब
इसके बाद  भी 
 क्य ा कर
 की क ुल
धार दार ह
 काम  करने वाल
ेप ्ट
 दर्ज  ह
इस दौरान  
 इन  दोन
अभ य
, ब ्र
 से क्टर म
 युवक  ने 
ा ल िया गय
 निवास ी स
वाद िय
 लेकर  ज
 का प द
रोड  स्थित
 की मौत  हो गई ह
िड िल
 करने का  फैसल
 के मुताबिक , 
 नगर  स्थित
 हो सक त
जार ोहण
 जल कर 
ा सम र्थन
कुछ  देर बाद
 एज ुकेशन
 इंटर नेट
 चार  लोग
 अंत रिक्ष
जगह -जगह
 भी  कोई
 वार ंट
ti c
 ब्ल ास्ट
ा कार्य काल
निक ास
ण्ड ल
देर रात  तक
ेक् निक
 पानी  भर
जित  प
 कान ूनी 
टेस्ट  म
अक ेले 
 सोशल मीडिया पर  वायरल
वाराण सी 
ा का आयोजन  किया गय
 प्रेर ण
 पोर्ट ल पर 
 व्ह ील
 आयु र्वेद
ार्गदर्शन  म
जुर्माना  लग
 के आस ार ह
स्ताक्ष र
 के मद्दे नजर 
ैकल्प िक
B C
o ur
अ श्विन
आ र्य
उ ल्ट
च िर
ट ूर
ठ िकान
प ोत
ब वाल
य ा ब
व  ह
व ाट
ह ।

ो वाल
 क ्षेत्
 क लेक्टर
 क ागज
ी  आई
ा  '
र  रख
 स दन
 के  नेत
 के  स्वास्थ्य
 ह िट
 ह ेरोइन
 की  ये 
 की  आवश्यकता ह
 ब ार म
 ब ॉड
 ज नह
 र िटर्न
िल ्व
 को  दर्श
 को  लाभ
 व ैन
 अ ति
 से  हम
इस ी वजह
 ने  जब
 ग ेस्ट
 को  कई
ी ह िस्स
ी ह ॉस्पिटल
 आ धारित
प्र क्रिय
 श ्व
 प्र बंध
ाई क
ी म ंदिर म
भी  थ
ाइ पास
 कर  ह
 थ ीम
 उ दाहरण
ा म ामले म
 फ रीद
ग्र ाह
ीम त म
 सम ु
 एक  ह
ा के  दिन
ा के  दर्शन
पुलिस  अधिकारिय
 भी  रह
ख्य ाल
एम ्बुल
िप ाल
 उन  लोग
 के अ फसर
 कर रह ी है
ा को  देखते हुए
 सु झाव
गिर फ
जह ान
सु र्खिय
 ले ने की 
वाह क
जिल े की 
 जिल े 
ी को  म
ी कर के 
 मन ाया जाता ह
ा से  जुड
 ओ झ
 देश भर म
 ठ िकान
से  किसान
 के सम ाधान
ी सम ूह
 पर ह ी 
 शिव म
ब्र िटेन
 के नाम  से 
 व्यक्ति गत
से ह ो
 को मिल ेग
अग र म
 स्प िन
 की ख ाड
राय बरेल
कार्यक्रम  के दौरान
 पान ी का 
कुछ  लोग
 का ब यान
िवेश क
ैत ान
 निकाल कर 
कई  लोग
ी के स दस्य
 संजय  स
महिला  ने 
 से बात  क
 मामले  दर्ज ह
नक द
गू गल
 चाल ान
हुई  ह
 ऑट ो
चेन ्नई
 पदक  जीत
 गिर  गय
 नार ेबाज
 अध्य यन
ुएं  म
 हवाई  अड्ड
बूझ कर 
नेशन ल म
िलसिल े म
नी लॉन्ड ्र
  c
,  और 
,  उन्ह
- डीजल
C S
e t 
अ श्लील
अ खिलेश यादव
ए य
क  दिय
ग  शुरू
च ने के लिए
द यू
न ्यूजील
प ा 
फ ो
भ ी मिल
म थुर
स  नह
ा ),
ै :
 क ल्प
ी  ये 
र  एक
 स त्र म
 म ात्रा म
 के  शिक्षक
 प ता लग
 ज वाह
ने समैन
 को  विशेष
 अ खिलेश यादव
इस  वर्ष
इस  घटना 
 का  फैसल
 ने  श
 ने  उस
 ग ै
 ग ोर
 ग ुड
 को विड
प्र ेरण
 और  मह
 और  उनक
 श नि
 श ोरूम
 श ेट्ट
ोग ुन
 ए क्टर
 ए म्
ी क ाफ
 के लिए  पह
 कर  स
िस मस
ा म ंदिर म
ी स ामान
पर फॉर्म
 ड िस
 ड ेवलपम
ा स हयोग
 ट ॉ
यह  घटना 
ाक र्म
 सम ्मेलन म
बताय ा जा रह
 एक जुट
ुए  थ
 घ र लौट
 लग ा दिय
ा द ो 
ेग ्न
त्य ादि
 कुम ावत
 उन को
 के म ात
 की स दस्य
साथ  ही म
 ध मक
फ्त र
 के अ स्पताल
 स्थ गित
ी का  गठन
ी त य
 होग ी और 
डी पी
गर िम
लेकिन  इस
िछ ल
ी को  द
 की त र्ज
12 8
आर ज
ी ग ुर
ी ग ार्ड
र्य ाद
 के खिलाफ  सख्त
 स्व यंसेवक
 एवं  अन्य
 शुरू  किय
आव क
 इन की 
तीन  लोग
एन ए
 कै च
 मुख्य  सचिव
ा त ेज
 सरकार ी 
ुभ ूति
 भेज  दिया गया ह
 लेकर  पोस्टमार्टम
 सुन ीता 
शह ू
स्ट्र क्शन
ी ख ुश
 जो खिम
 ने स ोमवार को 
 डॉ ग
 द्वारा  आयोजित
कर म ारपीट
 गु स्स
े ज ा रहे ह
उठ ाकर 
जद ीकी 
ार हो  रह
 का आ नंद
 को र िलीज
शुभ  मुहूर्त
 दुकान दार 
ीआई प
ो रह ी ह
द्व ान
प्रीत  बुमराह
बिल ्ड
पत िय
 उदय पुर 
याचिक ा म
पुर क े क
 हमेश ा 
 पर हमल ा कर दिय
विर ाट
 पौध े लग
ट्रै क्टर
 जनवरी  तक
देह ात
ी वि ष्णु
 प्रधानमंत्री नर ेन्द्र मोद
 लगे  सीसीटीवी कैमर
तदात ाओं
नय िक
फै क्चर
 घोटाल े म
 के अनुसार , 
निर्मल ा सीतारमण
 प्रोड क्ट
शिकायतक र्ता 
जानलेव ा हमल
 स्क् वाय
y an
आ ता ह
क ,
ग  है कि
ज ाह
ज ोरदार 
द ृश्य
ध व
ध ्रुव
न ु
न िश्चित
फ ायर ब्रिगेड
ब िश
भ ले ह
य ॉर्क
ल  ह
व  क
व ेट
व े कहते ह
स  
स िर
ह  की 
ह  पुत्र 
ी  करने 
ै र्य
े  ग
े  ने बताया कि
र  ए
 स ि
 म ंज
 के  चलत
ार ी

 ह ॉल
 की  पुलिस ने 
 की  आवश्यक
 र जन
 द लाल
 द ी कि
 को  ठीक
इस  मौके 
 का  रुख
 न तीज
 ने  मुझे 
 को ल्ड
ाज िद
प्र ारंभ
प्र मोद
ाव र्त
कर  और 
 च र
 रह ती थ
ा स ुरक्ष
ी ब िल्ड
ुम ार
नि मल
 सम िट
ा ज ्याद
सी कर
ा की  बात
ी की  र
एस ए
इसके  अतिरिक्त
भाग  म
िम ंडल म
ी ज ैस
 ( K
ी द ुकान
 के म कान म
 की स ड़क
स्क ो
 अन ाज
 अन ुमान
 तो  नह
 के क ार्यक्रम
ी प ्ल
ी प त्नी 
तर ित
स्थान  पर रह
ा प ंचायत
 रख व
त्र िपाठ
रात  को 
ुई  ह
आप ात
 के प्र त्याश
ने से  बच
 के र ाय
्यू स
 श्र म
दो  साल
चार ू
ने पर  म
 दर्ज  कर 
 हजार  लोग
 देख ते ह
ी र ाध
ाया ज ा रहा थ
यू पीएस
 से लिब्र
 ले  गय
 दिए  कि
ूत ावास
ी च ीज
इसे  भी पढ
ी बन ाकर 
 जय शंकर 
तेज  रफ्तार 
शाद ी के बाद
 पार ा 
गुरु द्वार
शामिल  हुए।

ा भ ी ह
 रोड वेज
ा हो  गई।

 की ख ुश
ा किय ा कि
इसके लिए  
द्र मोद ी की 
 हाई  कोर्ट
 का आ देश
 जारी क िय
टक् कर ह
 के अंद र ह
ॉय लेट
 निर्माण  विभाग
सन ीय
ा मह ोत्सव
ुख्य ात
 राय पुर 
 जल्द  से जल्द
सबसे  ज्याद
 बनाए  गए ह
 के वि द्यार्थिय
 चंद्र चूड़
 ले ज ाकर 
 की छ ुट्ट
विन य
 जारी  रह
99 9
as e:
याचिक ा पर 
शास ित
ा कम ेट
 जी ता थ
 पर फ ायर
्लि निक
 पीछ े 
ी विक ्षोभ
 बाह र
विधानसभ ा के 
 यूप ी म
 की मह िला 
पटन ा के 
 दोष िय
भार ी बारिश
निवेश क
ष्य ंत
E V
Q I
S I
अ तिथि
आ र्ट
उ त्सव
ओ ड
च  लोग
ज ार 
ज ्व
ज ुल
ज ंक्शन
ज मुई
ट ेर
त स्वी
थ पथ
फ ास्ट
ब र म
ब र प
य र्स
र ंजन
व ड़
ी र ज
े जन
ै ल म
 क ड़
ी  चाहिए
ा  घाट
र  पह
 के  राम
 के  वाहन
 के  छात्र 
 प ाकिस्तान म
 ह िल
िय ा का 
 की  लाश
 ब ाढ़
 ब ंटवार
 ज र
 ज ा रहा ह
 ज ॉब
 र ाख
 र घुव
 र ेस्टोर
ाय  नम
 व िवि
 से  घ
 से  पुलिस
 से  मुक्त
इस  चुनाव म
 का  इनाम
 न जदीक
 कर ाया गया ह
 कर नी चाहिए।

ित  म
ाद ्ध
 ग ंभीर
े ह म
 श ैक्षणिक
 प्र ेश
 प्र क्रिया म
 च ैन
 य ा ब
ाथ न
 थ र्ड
ंद े पर 
 रह ने
ी ब दल
 हु ड
नि खिल
बताय ा ह
सी ल म
ा रह ी 
ने वाल ा 
्स  ने 
इसके  पहले 
 करने  को लेकर 
सी  लग
पुर ा ग
ेव ाड
 की ज ात
 हुई  तो 
ी से  लेकर 
ी त ाकत
 सक ती है
द्य ान
 ने शन
 भारत  सरकार
 जब  उन्ह
 होग ा और 
 व्य स्त
 व्य ाप्त
ी अ ंत
 से ब ढ़कर 
 आरोप ी स
 स्क ोर
 दर्ज  की गई।

 इन का 
वन ्य
 मन ाय
 यादव  ने कहा कि
ीश ियन
ेह तर
 झ ेल
ा व ापस
जात िय
 की र िलीज
फ्र ॉड
 ने कह ा थ
 बंद  रह
 यात्र ा 
शाद ी म
 गु ण
उसक े क
 छात्र ावास
 उनक ी बेट
 बस  म
 ट्रेन  म
 कंपन ी की 
 आयोजित  किया गय
 मुख्यमंत्र ी 
न् नी 
ाए ज ाने पर 
प्रशासन  ने 
कन  दाखिल
थान ाधिकारी 
हल ाद
 बिह ारी व
 के च ेहर
 बिजल ी विभाग
 का अ ंतिम
 से ल थपथ
 हिस्स ा ले
 होने से  पहले 
 परिव र्तित
 त्र िवेद
शराब  पी
वो  कहते ह
बिल ्कुल
प्रेम िक
ा निवास ी 
ा करते हुए  कहा कि
सूचना मिल ने के बाद
कुल  
ा मंत्र ालय
पिछ ले कुछ
 जारी  रख
वार्ड  म
 उदय पुर
ईड ी ने 
 के अव ैध
 इंडस्ट्र ीज
 बजे  के बाद
 से हो ते हुए
 के लिए भेज  दिय
 पर भ र्त
बद ब
देह ी पर 
बीते  दिन
ा साह िब
 के दूसर े दिन
 की हालत  गंभी
ाए रख ने के लिए
उज्जैन  म
 अंड र-
आगर ा म
 को सम्मान ित
 रोह तक
व्यवह ार
 In di
 स्वतंत्र ता दिवस
 के डायर ेक्टर 
स्ट्राइक  रेट
- पीट
u sh
आ पूर्ति
ग े
च ाया गय
च  गई ह
ज ीएम
ट ,
ड िल
त ू
द ंग
फ ेर
ब ास
ब ेन
म जबूत
व  की ह
श ोर
स ैम
ह , क
ह भूम
ि ः
ी सी
ै  नम
ो झ
 स ाइट
 के  परिवार 
 प ैन
ान ी ने 
 की  शिक्ष
 की  एंट्र
 ज ़
ा क ा रह
ा क ृष्ण
ा क ा मामल
 र फ्तार
 र ास्ता 
 द ायर
 व रुण
 व ातावरण
 से  वापस
 ल ी थ
 ल ॉर
इस ी बात
 का  मामला दर्ज
 ने  उसके 
 और  ग्रामीण
 पर  प्रकाश डाल
 प्र ो
 प्र ज्वल
ी क ट्ट
्ह ार
ा म ोट
 रह ते थ
ा, 

ी स फल
 ड बल
 ड िस्क
 हो ल्ड
ी ब रामद
 ट ेन
र क ्षेत्र म
 सम ितिय
ेर ठ
 मिल  रह
चल ा गय
ी ज ो
10 3
 की स ोच
स्क रण
अपने  पति
 अन ुसार 
ीर थ
 ध ोख
 नि गरान
 नि र्वाचित
राम ायण
चाह ते ह
उप चार 
 के आ वास
तो  वह
लेकिन  
दल ील
आर एफ
ी ग णेश
 आप ने 
फर ार चल
11 1
आव ंटन
ेब  सीरीज
 राज्य  मंत्र
ी श हर
ता  के बीच
प् र म
, प ंजाब
 हो सक ेग
ी भ ूप
ा कर द िया ह
दिल्ल ी से 
शिव म
ोव ेशन
एड ीज
 की ख ेत
 के एक  ग
 P ol
ाभ र म
लाभ िषेक
 गुरु द्वार
 सिर्फ  एक
ास् फ
ैत ृ
संग ीत
 अंत रिम
ा जिल ाध्यक्ष
दग ी म
 बजे से  शाम 
 फ्ल ाई
इंटर नेट
ो रह ा ह
ा उ र्फ
ा की म ौत हो गई।

परीक्ष ा 
 जिसके  लिए
 पर ग िर 
बदल ाव
गोली म ार
 कोलकात ा म
 घंटे पहले लेखक:
ac h
 महत्व  ह
ap oor
इस घटन ा के बाद
 होने के  चलते 
 IP L
ुजन  समाज
  ऊपर 
,  इस
आ ती ह
आ  रहे 
ओ वर म
क िर
ग  कॉलेज
च ढ
ड  के खिलाफ
द त्त
ध ंध
फ ेद
ब ेत
ब ाघ
व ृद्ध
श द
ी  करने के लिए
े  किस
 क ंड
ी  जाने वाल
ें .

 स ास
 स पोर्ट
 स ेल्फ
 म दन
 प ्यार
ा क ्र
ा क ोर्ट
 द ी जाती ह
ाय ुति
 को  नि
 से  त
 ल ापता ह
प्र ॉपर्ट
 और  राज
 ए रिय
ी म ाल
ा कि  यह
 च ाच
 य ूट
 के स हायक
िस र्च
ी स िन्ह
ाब ाई
स्त ीन
ा स चिव
ंब द्ध
 एक त्रित
ा के  नेतृत्व म
पुलिस  म
पुलिस  ज
 मह ाक
 लग ने से 
एम एम
 बन ाई ह
ने कहा कि  इस
त्य ापन
पुर ाना 
 को स ील
ा कर ने 
ा कर ती ह
ट्र ाल
जर ू
 का क ्य
ने की  उम्मीद
 से ज ल
लेकिन  यह
गे  तो
 के प्र ाचार्य
र्य ाप्त
ी व िवेक
 आरोप ी म
 काम  म
 काम  किय
 काम  करते ह
फर ी म
 अव िनाश
ी कर ेग
 पर क ेस दर्ज
 राम  मंदिर
 चुनाव  जीत
रोध क
गु हार लग
 सरकार  द्वार
 सह ाय
 ले  सकते ह
 दो  युवक
 पूर्व  मंत्र
श्व स्त
 को अ रेस्ट
ा ख त्म
सरकार  से 
 ने ब ुधवार को 
ी सं ख्य
ी ड ॉल
 कुमार  को 
 पुर स्कार
इस ब यान
 ड्र ेस
 भाग ल
अध्यक्ष ता म
िनिध िमंडल
 गुरु ग्राम
ा जा रह ा थ
 काल ेज
बच ने के लिए
 सवार  थ
 नजर  आ रहे ह
उम ेश
 से न ीचे 
 फर ार 
 और  कह
 किसी  को 
 बनाए  गए
ोति ह
 किश ोरी
 हो प ाई ह
 धन बाद
विचार धार
अध िवक्ता 
मौसम विभाग  के अनुसार 
 इस्त ीफ
 का सामना करना  पड़
 अदालत  ने 
 ले ल िया ह
िरस ा म
एसडी ओ
 इंस्ट ाग्राम
 के सहयोग  से 
 U pdat
ारू ढ़
 गोद ाम
 के राष्ट्रीय  अध्यक्ष
लिया  भट्ट
ा प्रत ाप
ी राह त
 महाव ीर 
 बेन ीवाल
 मेघ वाल
)  से 
A h
D C
o s
ं 

अ रब
ग े म
ग ीच
च ढ़
ज स
ड  ने 
ड िग्र
द ीवार
ध ी और 
न  कर
न िव
प ेर
म गर
म ार्च
य ंत्र
र ाण
र िश्वत
र िटायर्ड
ल ुटेर
़ िं
ा पु
ा स्प
ु र स
ू ड़
् वि
े  एक
ी  भारत
ी  धर्म
ा  विकास
 स क्स
 के  युवक
 के  आयोजन
 के  शुक्ल पक्ष
 ह रीश
 र ेग
 से  ऊपर 
 से  गुजर 
 का  विशेष
 न शील
 न ायडू
ित 

 को  कहा कि
 को  कोर्ट म
 आ धुनिक
प्र गति
प्र त्यक्ष
 और  पूर्व
 प्र वास
 प्र ाकृतिक
ले बनान
 ए स्टेट
त् र से 
ुर ाज
ाए 

ंत र 
स्ट ाइल
पह ाड़
 फ ौज
 फ ेडरेशन
ड़ तोड़
 ड िट
सर गुज
 एक  महिला 
ने कह ा थ
ेक ंड
ी के  ह
ा की  गई थ
ने वाल े म
ी की  टीम
 दे वर
स्प ेस
 बन ाने की 
चल न
ीप ल
ग्रेस  का 
आय ात
 के अ तिरिक्त
ी न ारायण
ी का  शव
 गई  और 
ये  सभी 
ने वाले  लोग
र ब ंद
ोम ैट
ा प ड़
 को प ीट
 का क ार्यक्रम
ी अ जय
द्र  शर्म
 के प्र दर्शन
 जिल े की 
 शामिल  हुए थ
उसके  लिए
विध िवत
च्छ र
 काम  कर रहे ह
 के न ुकसान
गिरफ्तार 

दूसर ा 
भाजप ा स
 अग र म
दर स
 पार्ट ी का 
14 4
 भाजप ा म
आग ाज
 शिक्ष ण
 मार् च म
शाम  तक
 का प ंच
 दिख  रहा ह
 भी क ाम
 की मौत  हुई ह
 ऑफ ़
बल राम
, र व
न्न ौज
फोन  कर 
हान ि
 गु जर
चर्च ित
ा भ ेज
 का द रवाज
 पुर ोहित
अंत रिम
पान ीपत
कन ाड
स्म ाइल
कम ेट
 को त ैनात
बिह ार के 
 वर्षीय  बेट
 निर्माण ाधीन
 सभ ा म
ै। '

ी कम िश्न
सुर ेश
विदेश  मंत्र
 से न ाराज
ी के क ई
साथ ह ी क
 हाथ  म
निरीक्षण  किय
 चाह े 
 डी सीप
 बार ात
ुनौत िय
ात् कार 
 का र िजल्ट
ी कार्य वाह
 टेस्ट  म
डीज ीप
टक्कर म ार
जिले  के ब
 सेन ा के 
 घर  नह
जाना  चाहिए
 बने  रह
 आसपास  के लोग
 प्रेस  कॉन्फ्र
ोखाध ड़
गलुरु  म
 खतर नाक
 मास ूम
स्मार्ट फोन
 का माहौल  ह
 भ्रष्टाच ार
 बजे क े करीब
डिव ीजन
भ्रष्टाच ार
यूट ्यूब
 नीत िय
 प्रजाप त
 प्रजाप ति
 कॉम्प ्लेक्स
दा क ारतूस
 कलाक ार 
तापू र्वक
इकोन ॉम
मालूम  हो कि
ादुक ोण
  ₹
,  जिससे 
A N
A T
I AS
h a
l e 
उ ध
क र्नाटक
ग  सिस्टम
ग  रूम
च  गया थ
छ पर
ट ंक
ड  के 
फ ट
व ाज
श िल्प
स ीयू
ह ो 
़ ग
ा ."

ो ते ह
 क ास्ट
 क न्हैय
े  रंग
ा  ये 
 स ीज
 स ेगम
 प ेन
 प ेड
 प ाने के लिए
ान ा होग
 ह ार्दिक
ने  सभी 
 की  विभिन्न
 की  भावन
 ब िखर
 ज िम्मेद
ा क हन
ा क र्मिय
 र ोट
 र ीव
 द याल
ने  कोई
 व ैसे 
 व न्य
 अ ंज
 अ खिल भारतीय
से  से 
 से  भारत
 से  पीट
 ल ोध
 ल ागत
 का  झ
ित ा 
 ने  बच्च
 ग र्व
 भ ुल
ाज र
 त ्व
प्र ाइज
प्र दूषण
 श ेड
 श ेयर क
 श िखर 
 प्र ोत्साहित
ले आम
ी क ार 
 थ ाने पह
 फ ैन
 फ ीच
20 3
ग्र ाफ
यह  पहल
ेस म
 सम ीकरण
 भी  चल
ी के  एक
 घ ु
नी  और 
ा की  एक
ा की  टीम
 मिल  सकती ह
िट ्र
 करने  के दौरान
ा ब ोले 
ने कहा कि  हम
 पुलिस  मौके पर पह
ते  वक्त
ी द ू
अधिक ार ह
 की स ुबह 
ा कर व
स्क ीम
अपने  ग
ाध ार 
शिक ार
ी प ान
मह ेश
ये  सब
ा ने  भी 
र ब ढ़
 ने बताया कि  यह
 से ज ूझ
ा का  विषय
जानकार ी नह
आर ट
ी ग त
ी व ार्ड
 की क ुछ
लोक ल
 सी ए
रख ाव
 अव सर
 देख ने के लिए
दूसर ी बार 
 मन ाया जाएग
 का स हयोग
इससे  पहले
, ब ल
 से क्टर
 ठ प
an i
बेट े को 
र प टेल
एफ आईआ
घर  वाल
 ई स्ट
 ने स ोशल मीडिया पर 
 यू रोप
 कुमार , स
ी हो  गए।

 विकास  विभाग
जु ड़
 के  को
 दिल चस्प
िस्ट्र िक्ट
 किए ज ाने
ऑफ  द
 जुट  गई।

 घायल  हो गय
थिय ार से 
न्याय ालय म
 पर न िशाना साध
विदेश  म
इस बार  भी 
 रिक ार्ड
ज़ बूत
ा ट ेस्ट
इलाक े
ा के क ्षेत्र म
 मौसम  म
 वै ष्णव
ब्द ील
अफ गानिस्तान
उदय पुर म
घंट े तक
 दर भंग
ाचल  प्रदेश
 रण नीति
शरी फ
ी निवास ी 
 रिलीज  हुई
िलंब न
 बजे  के बीच
सिर्फ  
 से बाहर  निकल
 के कुछ  हिस्स
 मैने ज
 पर भ रोस
 निर्म ित
 बाहर  निकाल
 कर दे ते ह
 प्राइवेट  लिमिटेड
तहसील दार 
 से मुलाकात  क
विम ोचन
 कर दिए  ह
राद ित्य स
ेश्वर म हादेव
 धम ाक
 पशु ओं
 लोग घायल  हो गए।

रिपोर्ट्स  के मुताबिक
ी प्रत ियोगित
 अगर  कोई
ी शामिल  ह
 मुठभ ेड़
फ्रास्ट्र क्च
स्खल न
 एम् बुल
- ह
N G
क ़
ग ि
ग  कर द
छ ानबीन
ज ी ने 
ट  प्रोफेस
ट ्वीट
ढ ाक
द ीद
न ीम
ब िजनेस
ब यान म
र च
र ेश
र ी क
ल ायक
स च
स  ह
स  को 
स र्द
स वाड
ह  प
ह  का 
ह ाग
ि मान
। "

 क ाज
े  लेकिन
ी  पूर
ा  अब
ा  आज
ा  या 
 स हमति
 म ृत
 म ित्तल
ार ी के दौरान
ार ्तिक
 प ॉल
 प ेपर
ान ्त
 ह िन्दू
 ब ेत
 ज ि
 ज ्य
ा क ॉलेज
 र ेत
 द िग
ाय ल म
 व र्
 अ र्च
 ल ंग
 का  लक्ष्य
 का  इंतज
 न ितिन
 भ ार्गव
 आ धार 
िन ा 
 पर  बन
रो ड़
रो जाना 
ी स ोन
ी स ंपत्ति
 फ ॉर
 ड ोड
ा स ी
ा स ोन
 हो न
ी ब ॉल
ाक ेत
र क ुछ
 एक  और 
 एक  महत्वपूर्ण
 इस  फिल्म
ारी  पर 
 घ ोष
सं वाद
सं भावित
तक  नह
ा ब यान
 के द रवाज
पुर  के स
 ( एस
ोर ियल
ेव र
ीव ाड
 की ज य
ा और  फिर 
इन ्
ी द ोस्त
ाध ुन
ीब ीस
 तो  वे 
 लेकिन  म
ा को  बढ
 मौ का 
ने की  वजह
 उप ज
द्र  प्रसाद
बसे  पहले 
 के र िक
 ग्र ेट
ा न गर
 करते हुए  उन्ह
 को क ाट
 का स ेवन
आए  दिन
 आई ट
ी प्र ाप्त
 समय  से 
ा त ाकि
दो  बार 
 भेज  दिया गय
पूर्ण िम
 आव ंटन
ी च ोरी
 का प ान
शह र से 
राह गीर
 भी क ई
 शिव ल
ी हो ने पर 
 का ह ाल
 यात्र ा निकाल
 की प्र स्तुति
 दिल्ल ी 
 को गिरफ्तार  किया गय
 को गिरफ्तार  किया थ
 आग  पर काबू
ोहन लाल
पड़ ोस
 जल भराव
 विधान सभा क्षेत्र
 योग ी आदित्यनाथ
ी य ून
 उसक ी मौत हो गई।

 के भ विष्य
वाय नाड
शुभ म
 अफ स
बुध वार 
ंदोल न म
 शराब  पी
नर शिप
 जनता  दल
ाओ ।

 दूसरे  दिन
ात् र म
 थाना क्षेत्र  के 
 निज ी अस्पताल म
तापमान  
 अमित  शाह
 हादस ा हो गय
र्ल फ्र
घेर ाबंद
 की समस्य ाओं
 दे द िय
घट कर 
 के मुख्य  अतिथि
पर्य टन
 सदर  अस्पताल म
 को सं भाल
रक्ष ित
पिक अप
आने वाले  दिन
इच्छ ुक
 पीछ े से 
 के घर  पह
 दह ेज
कर ब ुर
लक्ष्म ण
 विस्त ार
 रेफर  कर दिय
 फैक्ट्र ी म
 अह िर
 से हमल ा कर दिय
क्फ  बोर्ड
 को नुकसान  पह
 निष् पक्ष
अग्न िव
 के सह ारे 
ॉजिट िव
 बिहारी व ाजपेय
,  फिर 
2 30
J D
N EET
a x
अ ति
ई श
ग ाम
ग ाने
ग र से 
ग वान
ग  की गई ह
ग  बोर्ड
च  की म
च ने के बाद
च र्य
च ेरे भाई
ज ीज
झ ामुम
ट  और 
ट र पर 
ठ िक
ढ ाण
प ना 
फ ोर
फ र्स्ट
ब ंग
ब ड़
र ेन
र तलाम
व िय
श ोभ
स ेल
स ार्वजनिक
ह  के साथ
ह ैर
ी रो
ी पी
ी ग्राम
ु ना 
ॉ स्ट
ो ष्ठ
् 

 क ाउंसल
ी  गय
ा  लोग
 स ुल
 स ेशन
 स ो रह
 स िसोद
 म थुर
 के  स्क
 प ाक
िय र ल
ो  एक्ट
 ब ताओ
िक ्र 
 र ेस्क्यू
 द शहर
ित ने 
ात े समय
ाद ून
 ने  आरोप लगाया कि
 को  मान
 को  होने वाल
 और  उ
ा कि स
 य ा म
 के ब ैन
भी  सामने 
भी  शामिल ह
ाग ठबंधन
ी स ाथ
री फ
ेट िक
िर ाश
दे ने का 
ाक ू म
ौर ाणिक
ा के  पित
 दे ने म
हर ादून
 पर ेड
ंध क
ी थ ी 
ी ज ाए।

पुर म
ने क ी क
ने क े क
10 2
 की ज ा रही थ
ीक ॉम
ी से  स
ी प टेल
नाम जद
ी न ोट
 कुमार  प
 ने ता ह
ैल ्यू
सु धार
गर ज
जानकार ी ल
 हज ार म
 द्वार ा ग
 के प श्चात
 जान वर
 अपने  घर
 आरोप ित
ने बताया कि  वह
ा को हर
फर वर
ैक ल्ट
 देख ा गय
ा प्र खंड
ा प्र बंधन
 हो रह ा है
 मुख्य  रूप से 
ी प्र क्रिय
 एस आई
 को म जबूर ह
जात े 
 पहल ुओं
 की प िटाई
ी मह ाकाल
ा हो ता है
ाबाद  
ी ख ुद
लेट ेस्ट
ब्र ाह्मण
विरोध  करने पर 
 की प्र गति
ी बन कर 
ल्ल व
 ब्र िटेन
िद ्व
ग म शीन
रस ात
 घटन ाओं
 बहुत  बड
 दिल ाने के लिए
ाए ज ा रहे 
पूछताछ  की जा रही ह
 लिख ा ह
 का आ शीर्वाद
 का आयोजन  किया जा रहा ह
 बिह ार के 
 मार्च  तक
चे  तो
ने ज ा रही ह
 का अ सर 
ा मह ाविद्यालय
 भी ह ोग
लिस्ट  म
 शुक्र वार को
बत ाते चल
भी ह म
 जमीन  पर 
 देत े थ
 पंजाब  म
 स्म ारक
समझ ौत
 आगे  बढ
युवत िय
 विश्वविद्यालय  म
मक ान म
ी जिल े के 
 हव ाएं
िनेम ाघर
ा किया थ ा कि
 झारखंड  म
तरी क
वाराण सी
र ब्र िज
ने यह  भी कहा कि
 श्रेण ी म
तालाब  म
 शरी फ
अमृत सर
IM D
 लगात ार
 सेवा  आयोग
अहमद ाबाद
ंसर ाज
 की मौके पर ह ी मौत हो गई।

हराइ च
 किडन ैप
ॉर्च्युर ी म
द्वंद ्व
D M
अ रेस्ट
आ र्म
ए यर 
क ूद
च  रिपोर्ट
छ ित
ट  से 
ट ीप
थ लेट
द ीक
ध ल
न गर क
प ाथ
प र्च
प ेड़
फ ूड
ब ालक
य ु
श ैक्षणिक
ह  हुड्ड
ु गु
् र ह
 क लेक्ट्रेट
ी  ट्र
ी  विश्वनाथ
ा  तिथि
 म ोड
 म ुलाकात
 के  वोट
 के  लोकसभा चुनाव म
 प ीस
 ह र दिन
ने  आरोप लगाया कि
 ज ंगल म
िक ्योरिट
ा क े
ा क िया गया ह
 द रब
 को  आज
 को  उसके 
 व ेव
 व िविध
ार  गिर
 से  बहुत
 से  अब तक
 ल ाइव
 का  दान
 न िव
 न ीट
 ग रज
ी ह ोन
 आ त्महत्य
 त ब्दील
ोग ्य
 पर  भी क
 प्र ौद्योगिक
ाई 

ेल ाइट
एक -दूसर
ी ब र
र क ार्य
उस  दिन
राज  म
राज समंद
 स् क्र
ने वाल े क
 लग ाया गया ह
़ी 

भाग वत
 पर माणु
 के द ोस्त
चल ी गई।

ेव र 
 की ज ा सकती ह
ा और  वह
ते  और 
आरोप ित
 हुई  बारिश
व्य स्त
ंक ुश
,  झारखंड
 ट्र ायल
 ले ने म
 के आ स-पास
इसके बाद  पुलिस ने 
 करीब  तीन
 के प्र भ
 " यह
 काम  किया ह
घटन ाओं
 अभ ि
 ओ टीट
विधान सभा क
ा त ैयार
बड ्ड
 रूप  से स
18 5
ारी  के साथ
र रह ा ह
र रह मान
ा हो  सकती ह
 का प ोस्टमॉर्टम
ज्याद ातर 
रोड वेज
ेयर पर्सन
डॉ ग
 दो हर
 बताय ा गय
a  M
, र ाय
 से अधिक  लोग
 स्त ्र
 छात्र ाओं
ा हो  रही ह
कुछ  दिन
 का ब जट
 हाई व
 पेश  किया गय
 प्रदर्शन  किय
 निर् देशक
 ज्याद ातर 
 के श ेयर
आरोपी  के खिलाफ
 सू ख
रीय  निकाय
 घर -
तीसर े दिन
... .

ैप ्टन
 वापस  लौट
तैय ार ह
 पर प ानी 
ा' ,
िक्क िम
 चर्च ा म
 हो प ाय
साध ारण
 काट कर 
as t
 निर ाश
ैनिक भ ास्कर
 डॉक्टर  ने 
्लेट फॉर्म
 रोहित  शर्म
गोली म ार द
ने से म न
प्रत्याश िय
निर ाश
 नीतीश  कुमार
र्सन ल
निष् क
 के प्रत िनिधिय
ी जिस म
 पॉइंट ्स
 पंड ाल
 मेह मान
 बेल ्ट
उत्तर  प्रदेश म
उसे म ृत घोषित कर दिय
िगर ेट
फेस बुक
एनटी ए
रदार  निभ
सम्म ति
िका प ादुकोण
पिय ंस
ff ic
ोताख ोर
,  वि
,  आर
,  जिला 
इ मरान
ए ग्र
क ॉल
ग  की जा रही ह
ग ीता 
घ र क
च ढ़
च  के आदेश
छ ू
ज ुर
ज िम्मेदारी 
झ ाड
झ गड़
ट  पर 
ट ेशन
त ाह
न िलंबित
प ोज
फ स्स
ब र्स
ब ेस्ट
भ िव
ल न
स ुप
स  (
े  रख
ी  ले 
 स फर
 स ाइड
 के  अपने 
 के  ग्रामीण
ान गर
 की  मुख्य
 की  दर
 की  ट्रेन
 ब क
 र ूप म
 र िटायर्ड
 को  भी म
 को  छोड़कर 
 व ाई
 अ तिथिय
 से  दोन
 का  ट्र
 का  अभ
 न दिय
 न ्यूजील
 ग ान
 त ंग
ास ीन
 श क
ाव ाल
 पर  पुलिस
 पर  जोर दिय
क्ष ा म
 के लिए  निकल
वि ह
वि स्फोट
े क ा काम
्व ीप
 थ ाने 
ले  ने 
 फ ास्ट
ुन कर 
एक  म
कार ्तिक
ीन गर म
 ख ेड
 ख निज
ुक ुल
नि गाह
र क िया ह
सी द
ोट ासर
 घ ुम
 सं भल
ाश िव
र्व ास
ीट म
एस यूव
 करने  के आदेश
हर  कोई
ेड िस
पास वान
चल ते ह
 है  वह
आई पीएस
 ( C
 की म रम्मत
ा और  उनके 
बह ल
वाई  अड्ड
 की स प्लाई
ाध ित
र्ष ि
 के क प्तान
ेम ्प
ी प ड़
 लेकिन  वे 
पाल ी म
 आय ा कि
 को प ेश
डी एस
 रख ा गय
इसके बाद  दोन
 की त ारीफ
 के बीच  विवाद
 विभाग  के 
 विभाग  के अधिकारिय
अल म
 करते हुए ।

देव  साय
घटन ा का 
घटन ा को लेकर 
मर ाठ
चान े म
ाधिक ार 
 अभ िभावक
 चुनाव  लड़
 सह कार
स्ट्र ीट
 जीत ू पटवार
िने ट म
 बताय ा था कि
ोबाइल  फोन
रोक थाम
मुख्यमंत्र ी नीतीश
 खेल ा जाएग
ोहन  स
ा के स ं
 की ख ास
ा फ ायद
उत् कृष्ट
 C BI
 उत् पन्न
हत्य ा के 
जिन के 
श्म ि
्ले म
 परिवार  के लोग
ा मह सूस
छत्तीस गढ़ म
 अम ावस्य
अवैध  शराब
 फीसद ी 
 हरियाण ा 
हार िक
जमीन  पर 
 से प्र ाप्त
दिल चस्प
ेक् निकल
अनुमति  नह
 उच्च  न्यायालय
ग की ह ै कि
 कमिश्न र 
 मल ्होत्र
इक बाल
राजधान ी म
 बो ले
अमित ाभ बच्चन
 का सामना करना  पड़ रहा ह
 हाईकोर्ट  म
ing h
is t
 का हिस्स ा बन
चु के थ
 आदिवास िय
नीतीश  कुमार
AS I
खु ले 
ग्राउंड  म
रैल ी म
 सीसीटीव ी फुटेज
 गार्ड न
जबल पुर 
ीकल ्च
 गंभीर रूप से घायल  हो गय
 कॉम र्स
क्षे त्र 
 विद्यार्थ ी 
करार  रख
ियान्व यन
फस्स िल
)  के साथ
D R
o w
ं झ
ं े
आ बाद
ओ पीड
क  से 
ख ेड़
ग  के साथ
ग ोर
ग ेम
ग ले म
ग  होग
घ ाड
छ ुआ
ज ी की 
ड र्ड
त े म
त िवारी 
त गणना 
ध ुआं
न ्यूज
प ाइप
फ राज
य ज्ञ
र ाश
ल ॉर
ल ापता ह
व ायद
व ृद्धि
व ास्तविक
स नी 
स र स
स ब्ज
ु र्द
ु बल
ु लित
े  के दौरान
ो )
ा  चालक
 म ोहित
 के  देव
 के  नेतृत्व
 प ठान
 प ौधारोपण
 की  अवधि
 ज ा रही थ
ा क र सकते ह
ाय ता से 
ने  की सूचना मिल
 को  तीन
 अ क्ष
 न गद
 न वरात्रि
 ने  उनक
 को  स्कूल
 भ ैरव
 आ ल
ीं ?

 और  "
 और  अब
 प्र ाइस
ाई  
ी म ुख्य
ना  बंद
 कर  उसे 
ा म ार्ग
ा म ौजूद रह
ंद ना 
 फ िन
 फ ाइट
ीन ा क
ा स ंबंध
 ख न्ना 
ाक ्य
ोन स
 के साथ  मौके पर पह
ा ज ीत
ार् च म
ी के  तौर पर 
ेर ी 
एस .
ूल ुहान
र से  ह
ल् फ
पास  म
ीड बैक
ने क म
 साल  पहले ह
िज ीत
 यह  एक
 को स ुरक्ष
 के म कान
ोह ल्ले म
ी से  ग
 को ब ेहत
न म स्क
 को प ार्ट
 को प ता चल
 ट्र ेल
 स्ट ील
आर ाध
 मंत्र ी बन
 के पास  ह
जिल े 
ा न ीति
िग ेशन
 किसी  व्यक्ति
गल िय
शुरू आत
 पहले  दिन
 मन ाया जा रहा ह
 आज  सुबह
 राम ायण
 और क र्मचारिय
 कार्रवाई  म
 रन  पर 
ी च ोर
 का प ारा 
 करव ाया ह
 पर ह त्य
र प ड़
र प श्चिम
 भी क ाफ
पार्ट िय
सरकार ी 
और  कह
 का ह ाथ
 केस  दर्ज कर
ीवन  कारावास
प्ल ास्टिक
 दिल ाई।

ॉड कास्ट
 अल ी खान
 अपन ी बेट
िद्ध ार्थ
जो र द
ा बन ाकर 
ध्यान  नह
हमल ा बोल
 A I
श्म ीर
न्याय िक
 हाल त
 बना  रहे ह
 बिजल ी की 
 सवार  होकर 
 से ल ैस
मौसम  म
or e 
 भी म ौके पर पह
प्रभ ात
 ने बताय ा क
 चाह िए।

es :
ऐसे  लोग
ले ज ाते ह
निक ाय
 सवाल  उठ
 माल वीय
आरोपी  युवक
शंक र
 डिग्री सेल्सियस  दर्ज किया गय
हिल ्य
 जन्म ाष्टम
 दर ोग
ा के म ाध्यम
विश्वविद्यालय  म
शास क
 डूब ने से 
 बो तल
स्पेशल  ट्रेन
अंतिम  संस्कार
प्रधानमंत्री नर ेन्द्र मोद
 छोड़ कर 
इसी क ारण
 के हाथ  म
 हेम ंत सोरेन
ऑस्ट्रेल िय
ग्रेस नेता  राहुल ग
 गुर्ज र
फै मिल
कलेक्टर  ने 
 सर्विस ेज
 सेम ेस्ट
ाईकोर्ट  म
शक्त िकरण
पलट वार
ध्व ज
 बॉल  पर 
 जताय ा ह
 ओम प्रकाश
 अंस ारी 
 तालाब  म
 स्टोर ेज
 की राजनीति  म
 धम की 
ी गल ौज
 PM  मोद
ा हुए ।

फरीद ाबाद
 का जायज ा लिय
 हेक्ट ेयर 
पेपर  लीक
 विस र्जन
ID EO
देखते ही  देखते 
यही कारण  है कि
,  जो
A C
r an
अ थ
अ तुल
आ लोक
क ानून
घ ुन
छ वि
ड े ने 
ढ ाब
त :
त र म
प न म
ब ीकाने
भ िवान
म न म
र ाशन
व ाइय
व ंत स
ष ्म
स ा के 
ह , र
ी थ
ी भगत
ु देव
े ...

ै ज्ञानिक
ॉ की 
ौ नी 
। '

‎ ‎
 स ावन
 म ोत
्र ाज
्र ेक
 ह ल्
ने  आगे कहा कि
 ज ाख
ा ह ोन
 व जन
से  स
 कर ाने 
 कर ाया जा रहा ह
ित न
ात ुर्म
ाज िम
 त ान
िन ी 
 कि स्स
 कि  ये 
उन ्न
ाई  द
ी क ार्यक्रम
ी क ी कम
रो कर बुर
री जन
 फ ोर
 फ ेस्टिवल
जन वरी 
 ड ो
 ड ोम
 ख ड़
 किया  तो
 सम ्
 एक ेडम
ा ज ाम
ा ज ाए
ा के  जरिए
ोल ्ट
 भी  लोग
 पु त्र ब
एम पी
ा द ब
हम ारा 
 बन  गय
 बन ाई।

 बन ाया थ
ी ज िला 
ा है कि  वह
10 7
 के म न म
 उस  पर 
दू षित
 की ब द
 नि र्यात
अब  म
 भारत  की 
,  ओ
र्ग ीय
 किया ज ाए
 से ज ुड़
पुलिस ने  शव
 करीब  प
 करीब  साढ
 ऑ फर
िह ाद
 हुए  
ोड़ कर 
ा न ियम
िस्ट र 
 स्व ीकृति
 आप ात
गल ी म
गिरफ्तार  कर 
ेब ल म
ंबर -
ी र ाशि
मन  गिल
भाजप ा कार्य
 को द े द
 कर ल िया जाएग
घर -
 भेज ा गया ह
 ले  गए
 वाल ्मीकि
 की र ाह
ा र ान
 भाजप ा प्रत्याश
ा अ ंत
ा हो ने से 
 इंड िया की 
 की मौत 

ा ख ुद
ी हो ते ह
 आए  दिन
 का ह ोग
 करने का  भी 
नगर  आयुक्त
 का म तलब
 काफ ी म
ैट र्न
रोक  लगा द
 S UV
in di
 को प्र ाप्त
 बत ाई।

ॉर्म ल
ा सम ारोह
 भाग ीद
थाना  अध्यक्ष
लोकसभा चुनाव  
कुछ  समय
ौजूद  ह
निवास ी स
 क्ल ीन
 रुपय े
 को ग ंभीरता से 
सीएम एचओ
 के च क्कर म
रम ाइंड
त्काल ीन
ी तो  वह
पत्न ी के 
मौसम  वैज्ञानिक
इस अव सर 
 वित रित
 कानून ी कार्रवाई
ा ट ेक
ा के क ार्य
सामने  आ
हाथ रस
 मे ले म
 कु त्त
लेक्ट ोर
अध िनियम
 गत िविधि
 खाल ी ह
 याचिक ा पर 
पोस्ट  म
ब्लिक न
 पर लग े 
ठाक ुर 
पै दल
ी मु र्म
जदू री
un d
 धार ाओं
 पढ़ ाई
 साध न
ा कर रह ी ह
ा की ज ा रही ह
 को बुल ाकर 
 का हिस्स ा ह
पत्र कार
 करने की कोशिश  क
 मुकाब ले म
 प्रेर ित किय
आसान  नह
 हॉ ल म
 लड़क िय
इज ाफ
ारम ैय
ी योजन ाओं
पाठ क
 मजदू री
 कैबिनेट  मंत्र
 चयन ित
 इंत जाम
 के सी सीटीव
वर्ल्ड  कप
 चेन ्नई
 खो कर 
 उत्तर  प्रदेश म
 घटनास्थ ल
 अनुम ति
 त्योह ार
 की प्राप्ति  होती ह
अभिय ान म
iPhon e 
ाद्र पद
,  दिल्ल
. com
5 50
w ar
अ जीत
ई ई
ए सीप
क क्ष
ग  पूर
घ व
ट े
द ी स
ब ोर
ब ेहोश
ल ोत
स ोर्स
स हमति
स िटी 
स ौरभ
ौ शन
ी  घोषित
ा  उन्ह
 के  हालात
्र ॉस
 प ाएंग
 की  उम्र 
ो  देव
 को  भी क
 से  सम
 से  मुक्ति
 न िशान
 भ ान
 भ ्रमण
 आ  रही थ
 और  जन
 च ो
ी क ौशल
 के ब राब
भी  तक
ुर ान
ंद िर से 
वाल ,
पर 

एक  ह
ा स ंगठन
 हो ने और 
पी रिय
सी ईओ
उस ी दौरान
 सं क
 लग  गय
 पु त्र स
ा द िल्ल
ा द िवस
 बन ाने 
 बन  गई ह
पास पोर्ट
10 9
इन पुट
कार  लग
 कर द िया और 
ीक र
स्व ाद
ा कर ता थ
ेम ्
ंप िक म
दू  संगठन
व्य ाख्य
ी न ई
ी का  एक
राम लील
ी त ारीख
सद न
गिर कर 
 को लेकर  ह
श्र ी 
 जन प्रतिनिधिय
 ऑ ड
 उप चार 
योग ेश
आर एसएस
 के प्र वेश
 पूर ा कर
अल वर 
 प्रति भागिय
 की क ट
 श्र वण
 किसी  से 
 स्व ाति
ॉन ्ट्र
 दर्ज  क
ा सक त
ंबर  जैन
 करना  और 
अन्य  लोग
 का प ता नह
 और स ुरक्ष
ा ख र्च
सरकार  म
ी फ सल
ीसर ाय
तेज  बारिश
पद ्म
 वोट  ब
 रोड  शो
 कार ्मिक
 बस ंत
 अधिकारी  ने बताया कि
ी दे र 
कान पुर म
पीएम  नर
 जारी क र 
-ब ाल
 की जानकार ी मिल
 और न  ही 
सू ख
 पित ा 
बुध वार को
 I AS
 कानून  व्यवस्थ
 क्रिकेट  टीम
नजर  आए।

 बजे से  दोपहर 
 जैस े कई
 इलाज  चल रहा ह
गन ीमत
 होने  द
मध्य प्रदेश म
शोध ित
िस्त ीन
ब्लिक  स्कूल
सुप्रीम कोर्ट  ने 
ल्क ी बारिश
 मुह ैया कर
शेयर  करते हुए
 प्रस्तुत िय
 E D
 बजे  की ह
 तोड़ फोड़
 ऋ षभ
पुर स ं
इंस्ट ीट्यूट
 मोह ल्ल
गो यल
 खंड ेलवाल
 का कार्य काल
 तोड़  दिय
 लखनऊ  म
ाजिय ाबाद म
 ठेक ेदार 
 हफ्त े 
 दौर े पर 
दोपहर  करीब 
 कपू र 
ी क्ष मत
लेब ्स
बिग  बॉस
 कुमार म िश्र
 सेक्रेट र
 के तत्व ावधान म
 की तब ीयत
ी यून िवर्सिट
,  एन
S h
a il
ं  ह
अ जमे
आ भूषण
आ ंध्र प्रदेश
ई स
ख ो
ज ुलूस
झ ेल
ट  ने 
ट ी म
ड  ह
ड ा ने 
ढ क
ढ ंग
त  परिवार
द िवाल
न िकट
न ौकरी
प ्यार
फ ाजिल्क
य  म
र ेत
ल ब
ल ीड
ल ागत
व ेड
व र्ड
स िर म
स  बिश्नोई
स िर पर 
ि ड़क
ृ जन
ै '
ौ सल
ौ भाग्य
ी  युवक
ी  परेशान
ी  आई ह
 स ाब
 स त्ता म
 म ीर
 म ादक पदार्थ
 प ्वाइंट
ने  मुझे 
िय ोलॉज
 की  सीरीज
 की  देखरेख
ाल दीव
 ब ाइड
 ज ापान
 द ूल्ह
 द ृश्य
 द ुल्हन
 को  जब
 को  शिकायत
से  जुड
ार  पह
 से  ठीक
 ल टक
ात ा 
 को  करीब 
 आ ह
 आ ंध्र प्रदेश
 त ाकत
ास ुन
 और  चीन
 श ोक
 श ेयर ब
 पर  हमले
 ए क्सीड
 य ा क
 य ा प
ना  जरूरी ह
े क ा ह
 उ ल्ट
 फ ाइनल म
स्त क्षेप
एक  ग
कार ्ट
ीन िवास
ी ब ाई
दे ता ह
 किया  जाना ह
 एक  ग
 हो  तो 
सी 

सी ड
 भी  शुरू
ाफ िया 
मु ठभ
 लग ाई
 लग  गई।

 लग ी हुई ह
ी की  तरह
 दे ने लग
सं पत्ति
भाग ने लग
ा द ी थ
त्य ार
 की म िल
 की म ीट
10 6
रण नीतिक
ते  दिख
वाई ।

अपने  घर
 के क ्र
 लेकिन  जब
फ्त र म
 की ब ीम
ी न ुकसान
राम  मंदिर 
जय कार
 कुमार  उर्फ
र्च ुअल
ोम वार को
र्ग न
 ने बताया कि  उन्ह
 रख ती ह
ा का  भी 
पुलिस ने  आरोपिय
िछ ड
ी अ ध
 ऑ डिट
 की त स्वी
 के पास  स्थित
ी व र्म
 अपने  नाम
ी को च
आव ेदक
िया थ ाना क्षेत्र
ी कर व
िया ज ा सकता ह
पित ृ
 तो  कह
 करने के लिए  एक
 झ गड़
 झ ुलस
 और क ल्याण
 सरकार  और 
ी ल क्ष्म
 डिग्र ी से 
 स्थान  पर 
घर  आ
से क ाम
ाइड लाइन
ऐस ा कह
, अ शोक
ा दे ते ह
रू ण
ीजेप ी 
 की द ीव
 परीक्ष ार्थ
शिव सेना 
 भग वंत मान
उत् पन्न
मृतक  के परिजन
 अपन ी स
 न्याय  संहित
स्म त
 सड़क  हादसे म
 A r
संद ेह
ज्ज वल
े कह ा कि
 ज्याद ा ह
 आम  लोग
 N DA
 अम ेठ
 बुध वार को
ना चाह ते थ
शाह िद
ैप िटल
ुकाब ला 
र्तन  निदेशालय
अनु दान
इसके साथ ही  उन्ह
 मार्ग  पर 
सेव क
परीक्ष ा क
 राशि  के जातक
 औ ष
, त ेल
 को पूर ा करने के लिए
 की स्थिति  म
 वीडियो  वायरल
 पेट्रोल  
 प्रस्ताव ित
 रैल ी म
 साग र म
 जु ड़
पुन र्
वा दे ने के लिए
 टाइम ्स
सहयोग िय
जिला क लेक्टर 
 नील म
जू झ
ने का प्रयास  किय
ी क्ष मता 
 पूरे म ामले
 ई- रिक्श
लालू  प्रसाद
पियनशिप  म
 की गु हार लग
़रीब  
 याचिका द ायर
 विश्ले षक
डीपीएस  एक्ट
 के संप र्क म
  s
%  तक
r ol
ए एसप
ए पल
क ाशन
ट  के लिए
द ा स
द वाड़
प ोश
फ ंड
फ ोकस
ब ृज
भ िलाई
म िय
य ुग
ल त
ल ात
स ाव
ह र्ष
ह  भाट
ु ह
े  के स
ो '
 क ुक
ी  यात्र
ी  व्यवस्थ
ी  अधिकारी 
ने  इसे 
ने  दावा किया कि
ाल व
 ज ्व
िल ्कुल
 द े प
 द ुनिया 
 को  उन्ह
 व ीज
 अ य्य
 से  उनके 
 का  मह
 कर ाई ह
ाद ार
 ग ोग
 को  मौके पर 
 आ द
 आ राम
 त प
प्र बंध
े ह ट
ास िय
 और  इस
 पर  ट
 पर  विशेष
 ए यर 
ी म ंड
 के ब ाल
 उ ड़
ा म कान
 रह ीम
 रह ा था कि
ी स चिव
पर ियोजन
 ड ेर
 ट ीक
 इ च्छ
ीम ेट
े म रीज
ी के  निर्देश
 लग ी थ
ीट नाश
र्ज ित
जान  दे द
सं चार 
सं भल
एम आई
भाग ित
भाग  गय
ा ब ाब
ल् ले से 
 ही  एक
 के द िल
ी ज ारी की 
ी ज ा सकती ह
 अप ार्टम
 ( D
 कुम ारी 
 साल  के बच्च
ेद ार ह
स्व तंत्र 
ौत िक
अपने  आप
 ध वन
द्र गढ़
ज् ड
र ब ोल
 को प ोस्टमार्टम
क्रम ित
श्र ीक
द्र  फडणवीस
 विभाग  की ओर से 
ने का  फैसल
बसे  ज्याद
अल ्लू
रव ाड
कर म
 की क ह
 श्र ेय
िग ो
 जो  एक
रिक ार्ड
 दर्ज  की ह
 अभ िन
वन ीत
ा प्र ेम
 की श िनाख्त
ेह ता 
 तो  कोई
 आई आईट
 लोक ल
 प्रदेश  क
17 5
ी रह े ह
 ऑफ  द
 ऑफ  इंडिया 
ॉर्ड र पर 
 देव ास
े रह ी ह
 सेव ाओं
 मेर ा 
ा दे ने के लिए
वित ्र
पट ियाल
 संग ्रह
ट्स  ने 
 साथ  म
 अध िग्रहण
गण  म
 भर कर 
 भाग  ल
 अपन ी क
उसकी  पत्नी 
ाभ िषेक
 का आयोजन  किया जाएग
जिसके बाद  पुलिस ने 
 को ग र्म
 काल  म
 जात े थ
, व न
ास् त्र 
बच पन
मुझे  लगता है कि
 अच्छ ी बारिश
 और अ मेरिक
 की फ ीस
बुध वार
 दर्ज कर ाई थ
 I ND
सबसे  अधिक
दोपहर  बाद
 हमारे  पास
ाओं का  लाभ
र हो ता ह
en c
ले ज ाएंग
 माल ीवाल
 गंभीर  चोट
वरिष्ठ  नेता 
ाल म ीण
 इंडिया  गठबंधन
ा एक ादश
सत ीश
उद्देश्य  से 
 कु र्
 रेलवे  ट्रैक
 किर दार 
सूचना मिल ते ही 
वार को स ुबह
कर ह ंगाम
 सूचना  पर 
चन ात्मक
शरी र पर 
 संस्थ ाओं
ी मान ्य
अक ेल
 का उ ल्लेख
समेत  कई
 प्रस्तुत  किय
 पढ़ िए
ने से म ौत
इलेक्ट्र ॉनिक
ैं। "

दी के  जेव
 प्रेस िड
 किलोमीटर  प्रति
 O ffic
ा का प ाठ
 प्रमाण  पत्र
ाफी  परेशान
डायर ेक्टर 
गोद ाम
 सद न म
 हजार रुप य
शिक्षा  अधिकारी 
 अभिने ता 
अगर  कोई
ा माल िन
 बने ह ुए ह
 द्र ौपद
 खाना  ख
द्र ज डेज
 वृ क्ष
शोर म च
देल खंड
अवस र मिल
ा करीब  
 इज ाफ
ियर ल ीग
  k
,  हम
,  जब
,  मन
:  इस
O C
T T
l d
ः ।
अ ंचल
आ ल
ख ैर
ग ी

ग ाजियाबाद
ट  के 
ड ाक
थ े 
ध ीम
न ज़
न ियंत्रण
फ ेयर 
ब ूब
ब स म
र जन
श ेर
स िन
स वार
स त्त
स फॉर्म
ह  के 
ह  ह
ॉ डी
ो त्तर 
ड़ प
 क ेन्द्र 
 क ृप
ी  उन्ह
ी  या 
 म ध
 ह सीना 
र् बन
 ब ीट
 ब ैन
स् मान
 ज ाने पर 
ा क र प
 र मन
 र ुचि
 द ृष्ट
ने ज
ने म
 को  अधिक
 को  अस्पताल
 को  उनकी 
 अ मान
ार  अंस
 से  चुनाव
 से  लगभग 
 ल ड्डू
इस ी म
इस  प्रकार 
 का  योगदान
 ने  व
 ने  उसकी 
 आ मन
 आ ने लग
 और  जल
 श ेयर 
 श िल्प
 श क्तिय
के  लिए
ा कि  
 च ले गए।

ाइ जर 
रो ब
 थ ोड़
 रह  चुके ह
ेल ो अलर्ट
िश ्व
 ख ारिज
देश  की 
पी स
 वि जेता 
 के साथ  हुई
बताय ा है कि
सम ृद्धि
 एक  भी 
ा ज ैस
ा की  ओ
ोक ुल
एम ई
तक  
 बन  गया ह
 है  जो
पुर , स
 की म न
10 4
 को स स्प
 को स ड़क
ील ंका 
ी प ाल
पुर  स्थित
फ्त े म
व्य वस्थित
 नि फ्ट
सद  बन
ैल ी म
 लाख  से ज्याद
उप चुनाव म
डी ओ
 रख ा जाएग
 से ज िल
ब् बल
लेकिन  वह
 से ब रामद
19 1
 के त ौर पर
 " क
 की क ृप
 जिल ाधिकारी 
अनुस ार म
घटन ा क
11 4
11 6
11 7
गह ने 
 ने कहा कि  
 को क ॉल
 को क ुचल
भाजप ा से 
ा से  ज्याद
 यादव  ने बताया कि
ार्थ िव
पित ा और 
क्शन  म
ा व ो 
 घंट े का 
अव काश
 कार्रवाई  कर
 सरकार  पर 
 भेज कर 
 ये  भी 
13 5
ी च ंद्र
 का प ैस
 और स ामाजिक
 करव ाया थ
 इंड िया म
मित ्र 
घायल  हो गय
 शिव ाज
 पर स ख्त
 की सं युक्त
ीक्ष ण
ऐस ा मान
 बदल कर 
ी सं स्थान
ाई ज ाए।

कर्म चारी 
 पार िवारिक
 गु णवत्त
 वोट  मिल
पिछले  एक
 जानकार ी मिल
ा हो  गए।

 बत ौर 
 युव ा क
 ड्र ाम
्यूट िव
पान ी का 
शुक्र वार
 की च ोर
 की च ेतावनी द
ा लग ातार 
ी लग ातार 
 शहर  के 
 के फ ैस
 समिति  के अध्यक्ष
 बना  सक
 रहे थ े 
 प्ल ॉट
डर ी स्कूल
 एड मिट
हो ते हुए
 संद ेह
 कुमार स िन्ह
 कमेट ी ने 
 अमेरिक ा के 
शर्म ा ने 
ा जात ा है
आवश्यक  ह
भू ष
 को ल ॉन्च
 हत्य ा के 
 मिश्र ा ने 
उपलब्ध  ह
 साफ -सफाई
जी ओ
 तैनात  ह
 पिछ ले कुछ
 हो प ाया ह
 खत्म  होने के बाद
 की छ ानबीन
 जन्म भूमि
 अमित ाभ बच्चन
लिट िक्स
 अंब ेडकर 
 रोज गार
ा मुख्य मंत्र
 प्रभ ारी स
पढ़ िए
 पर्व त
 E V
 करोड़ रुपय े का 
 मुख ब
 ड्राइव र 
बाक ी 
ा कुछ  नह
 अफ्र ीका 
 गहर े 
 हॉ स्टल
फायद ा उठ
 प्लेट फार्म
 कंट्रोल  रूम
 अध्य ापक
लगात ार
 नाक ाम
ा बदल ाव
 अवधि  म
 मारे  गए
 जाग रण
पर्सन ल
 भीम राव
 किमी द ूर 
 की सराहन ा क
 यूनि ट्स
विश्ले षण
 के कह ने पर 
  b
) :
,  सम
- तरह
H ar
P l
R T
आ देश म
आ बकार
ग ाव
ग  हुई।

ग  कर रहे थ
च -
च  और 
ज ाट
ट  
ट ा 
ड बल
ड ैम
द शक
द ुल्हन
न  
न वर
ब ॉड
ब र मिल
म ास्ट
य द
व  
व ीण
ष िक
स ूच
स ीनिय
स ंबोध
स ावन
ह  से 
ै ज
ै ...
ॉ स्टल
 क ेन्द्र
ा  "
 के  रह
 के  खिलाड
 प ाई।

 प िच
ो  गय
ाल िन
 ब ंज
स् प्र
स् ति
 ज ी का 
 ज ॉन
िल ित
िल ्स
ने ल
ने  किया 
 को  चुनाव
 को  लिख
 अ तुल
 से  पूर्व
 से  आग
 का  अपमान
 न ल
 न िप
 न रस
 न ोडल
ाद ार 
 ने  हाल ही म
 ग ायत्र
 आ धे 
प्र चार 
 पर  व
ले फ्ट
 ए रिया 
 ए ग्ज
ा कि  म
ी क ुल
ी क मल
ी क ारोब
े क ाफ
 उ लझ
स्त फ
ीय र
 हो ता 
 हो ने म
 हो नी चाहिए
ी ब दमाश
ुक ड़
 किया  जाना चाहिए।

सम ाचार 
ा ज ेल
 भी  उन्ह
 घ ेर
ा की  पूज
 सं ज
ाश ंकर 
र स ेक
ा ब ाजार 
चल  रहे 
 ( ब
 पुलिस  ने क
 पुलिस  प्रशासन
 के म ामले
ताल े 
ग्रेस  नेताओं
 के क ृष्ण
 लेकिन  कोई
 की ब स
ट्र ोल
 सु र्खिय
 ने  कोई
 ने  किसान
 ने  किया थ
र ब ाइक
जर त
 ले ने
पुलिस ने  दोन
 उप मुख्यमंत्र
 द्वार ा ह
 पूर ी द
 अब  भी 
पूर्व ानुमान
15 5
 आरोप ी प
 किसी  भी क
गल त ह
 विश ्नोई
 हजार  वोट
 ने कहा कि  म
विक ्क
 ओ वर 
ी प्र ेम
 को म ृत घोषित कर दिय
 सरकार  को 
ंपन ी के 
 के अनुस ार म
छात्र ावास
ा हो ने के कारण
 का प्र भाव
 क्र ॉस
घायल  युवक
पार्ट ी का 
ेवल  
a  B
 ई ंट
 के ग ठन
विश्व कर्म
 सित म्बर
आरोप लग ाया थ
 आग े की कार्रवाई
शाद ी के 
हरियाण ा के स
जिला  अध्यक्ष
जिला  पंचायत
 जगह  पर 
इंद ौर से 
ब्ल ड
आम तौर पर 
े ज ो 
उठ ाय
 मुख्यमंत्र ी ड
 अलग  ह
 भाग  लिय
 न्याय ालय म
ी बात चीत
ॉलोन ी म
भेज ा गय
 लिख ा है कि
 A n
 का आयोजन  किय
 बिह ारी 
 का ज ाप
 आदि  मौजूद रह
ी ए यरपोर्ट
 ऑफिस  म
 से आ ने वाले 
रद ार म
धि  म
अनु च्छेद 
भू ख
िया के  खिलाफ
 पड़ ताल
 मध्य म
 की ड िग्र
 अनु दान
 कर प ाएंग
पुलिस को  शिकायत
पार िवारिक
 पानी  भर 
 एफ आईआ
 दोपह र
ंसल ्ट
 अंब ेडकर
 पेट्रोल -डीजल
र मह ाराज
 चु के थ
 भू ख
तेल ंग
 साध ारण
ा कर रह ा ह
-च ढ
 न्यून तम
ी हर ियाण
हत्या कर द ी गई।

 प्रमाण  पत्र 
बरेल ी म
 कश्म ीर म
ा जा सक ता है कि
अदालत  ने 
 अंस ार
 सुरक्षा  व्यवस्थ
ता अभियान  चल
 कौ शिक
 सिर े से 
 भी शामिल  थ
ंधेर े म
 पब्लिक  स्कूल
ाइक्र ोस
 घटनास्थ ल पर पह
 आतंक िय
 अनुम ंडल
बर ह ै कि
 अग्न िव
ब्लैक मेल
 से निपट ने के लिए
ox  Offic
शासित  प्रदेश
ी गत िविधिय
ाधुन िक
  n
- समय पर 
u j
आ द
आ लोच
ऊ ँ
ग वाह
घ ोष
च ि
ज ी के 
ट  का 
ठ ोस
द ी गई ह
द ुनिया 
ध िय
न ायब
प ढ़
फ ाल
ल ुक
व  अन्य
स  ब
स ार 
स  ल
स ले
स ागर
ह  ड
ह , ज
ा /
ी सी 
ी भीत
ॉ टल
र  श
 स रो
 स िग्नल
 म िट
 म जबूर
 के  जरिय
 ह नुमान म
 की  भूमिका 
 ब ेगूसराय
 ज ोर
 ज ीएसट
 र िश्वत
 र क्तदान
 व ो म
 से  ट
 का  एलान
 न ाइट
 ने  विरोध
 ने  टक्कर मार द
 ग लिय
 को  कर
 को  पहचान
 भ ेदभाव
 और  अधिक
 और  आसपास
 श ंक
 श ोभायात्र
 पर  प्रतिबंध
 प्र ीति
 प्र स्तुति
 प्र सन्न
ी म ीट
त् ल
 च मक
 च न्द्र
 उ र
ा म ुकाबल
 कह कर 
ी स ूच
ी स िर्फ
ी स ुभाष
पह िया वाहन
ुन ि
एक  आरोपी
कार ्ड
ा स ाल
ी ब ाज
ुक र
 इ श
ुम ार 
 वि चार 
नि गरानी 
अप ार्टम
ा है  जिसम
 किय ा है और 
नी  पड
ाने  के साथ
 लग ाया गय
एस एमएस
ोक र
ाण ा प्रताप
 पर  करीब 
हम  सब
 बन ाया जाएग
ल् विश
 ही  थ
कि  म
 ( स
्न ई म
 पुलिस  अधिकारिय
 साल ाना 
ी ने  म
िज िटल
 को स ्ट
 को स ूचित
मंत्र ालय
 के क ब्जे से 
 की ब ोतल
व्य ावसायिक
ी त था 
र द िए
जर ूर 
 चल  रहे ह
 अधिक  ह
 के आ रोपी
 के दौरान  एक
जानकार ी दे
12 3
और क ुछ
 के प्र भाव
 के प्र थम
मेर ा 
ा न िकल
लोक त
 सी एच
चुक ी थ
घटन ा के संबंध म
 ' क
ाधिक ारी स
 अव धेश
 ने कहा कि  वह
 ने कहा कि  हम
ी कर ने वाल
दूसर ी 
ाइट ल
 मन मोहन स
ी र ाव
ी र ाष्ट्रीय
शिक्ष ु
 शर्म ा ने कहा कि
 से  किसान
 सरकार  के 
ी आ पूर्ति
an di
जम ोहन
ा र ंग
र ज ाकर 
13 8
 को न ए
 को ज ्याद
ी मह ास
 आव ेदक
आयोजन  म
 दूसर ी बार 
a  A
ब्र िड
 यात्र ा के दौरान
 प्रतिशत  तक
 की प्र क्रिय
ा तो  उसने 
ग्रामीण  क्षेत्र
ौन  स
 उसके  लिए
 S h
 अधिकारी  ने 
 स्प र्ध
 ड्र ग्स
ा फ ैसल
 मिनट  बाद
रिय ा के 
er s
 सोम वार को
 का ज श्न
घोषण ा की ह
स्टेशन  पर 
आरोपी  की पहचान
त ह ासिल
 करन ी होग
ी पार्ट िय
अमेरिक ा के 
ी ट ोल
 के पूर्व  अध्यक्ष
 सम्मान ित
ी राज नीति
जरूर तमंद
 के सं विधान
अफ वाह
 क्ष ण
र हो  गय
 परिवार  से 
 गो स्वाम
 गो वंश
प्रिय ंक
गर्म ी से 
र्ल भ
जारी  रख
 डॉल र
 ठीक  ह
पढ़ ाई
 राठ ौर 
 फैसल ा सुन
 यूनिवर्सिट ी म
ा कर रह े थ
 नीतीश  कुमार 
दावा किय ा है कि
ी थाना  पुलिस ने 
 किलोमीटर  दूर 
रिस र्च
 को स्व ीकार
ash t
स्मार्ट  सिट
 गड कर
ी साल  
बीब ीएस
गस्ट र 
 सूचन ा के आधार पर 
अभिन ंदन
लुधियान ा म
र कुम ार 
महाप ौर 
 कैटेग री म
 विराज मान
से मध्यम  बारिश
शीघ ्र 
विराज मान
 महानि देशक
तंज  कस
डु ब्ब
ास्फ ीति
ीटनाश क
,  सु
,  जिन्ह
,  संजय
- व
- पु
- इन
उ ल्लंघन
क ा म
क ैद
क  अकाउंट
ख ार
ग  ने 
ग े ह
ग ेल
ग ुम
ग ेर
घ र ब
च त
च  की जाएग
ज ्य
ज ी ह
ज ंग
ज ा रही ह
ज िक्र
ज ाने के बाद
झ ूम
ड 

ड ील
ड िस्क
द ारी 
द र ब
द ी गई।

न  से 
प म
प ता 
फ नाम
र :
व ड़
श ेयर ब
स िया 
स ैकड
ह , म
ी घ
ी ',
 क ास
 म ज
 के  पुलिस
 के  विधानसभा चुनाव म
 के  रहने वाले ह
 प ील
 प ंख
 प शुप
 ह र म
ने  उस
 की  लेकिन
 की  पूरी 
 की  देखभाल
 ब ता रहे ह
 ज ुड़
 र ाइड
 द ीक्ष
ाम िय
 से  चर्च
 से  पहले ह
 ल ो
इस से म
 का  मौसम
ाद ू
 को  मंत्र
 आ धार कार्ड
 त स्करी
 और  उसक
 श ॉट
 कि ड
िव र्ष
 के स बसे बड
 के स ंचालन
्म य
ाग त म
ेट ्स
िश ्म
ुल ाब
 ड ोनाल्ड ट्रंप
ा स वाल
ा स ूच
ा स दर 
ी ब ेच
 इ न म
यह  सब
सम र्पण
 मह ाजन
 भी  देख
 घ बर
अन िश्चित
सं शोधन
 बन ा ह
 बन ाम
 बन ी ह
 के द बाव
त्य ाक
 पुलिस  ज
 साल  ह
िज ाज
इन  तीन
इन कम
 छ ल
 कर द ी गई।

अधिक ारी क
ाड ल
 ध ीरज
पुर  ब
ी न ितिन
 को ब धाई
अब  वह
 कुमार  झ
ये  फिल्म
र द ास
ा प ाठ
 करने  ह
 स्ट ॉक
सु शील
 रख ा गया थ
आर ंभ
ी व न
ा न दी म
 अपने  आप
ंगल वार 
 करते हुए  
फर वरी 
 चौ ड
 महिल ा और 
 मन ु
ा प्र ति
 का स िल
यू नि
ेह मान
 राज्य सभा स
ी श ्याम
चौ ड़
ी प्र क्रिया 
ी है 

 सरकार  की ओर से 
14 8
 ये  बात
 के सम ापन
 पर ब ने 
र और  वित्त
 पर ह ुई
 पूर्व  सीएम
से क ुछ
 प्रत ीक
 सित ार
 की टीम  मौके पर पह
न्न ाट
ा कर द िया थ
घटना  से 
जिला  स्तरीय
पल वल
 चंद ्रम
 सामने  से 
कार्यक्रम  का संचालन
 न्याय िक
 A m
 A AP
ा कह ती ह
 को च ुन
बच ाने के लिए
पत्न ी की 
 अगर  आप
or ld
मंगल वार को
ैत न्य
ता रह ेग
 हाथ िय
 नई  दिल्ल
 के पूर्व  मुख्यमंत्र
र हो ने पर 
 सीम ा पर 
 व्याप ारी 
 के सं रक्षण
 कार  सवार 
संप न्न
हरियाणा के  हिस
लिट ेक्निक
 कुश ्त
सफ र 
 रहने वाले  लोग
बज े 
 प्रतिष्ठ ान
 द्व ीप
 घर  पह
ी मन ोज
ा जब कि
शि रोमणि
 से बाहर  निकाल
लेन देन
CC I
वेल ियन
र्टिफ िशियल
 सुप्रीम कोर्ट  ने 
अंब िक
 सत्य ापन
निपट ार
 परियोजन ाओं
 l 

गुल ाब
चेहर े पर 
आसान ी से 
 मर ाठ
 सर्क िल
 लंबे समय  से 
 तिर ाह
 जरू र 
 निश ुल्क
इंटरव्य ू म
सुसाइड  कर लिय
 रन बनाए  ह
गोरख पुर 
स्वतंत्र ता दिवस
ig h
 ध्व ज
 प्रियंका  ग
 का कहन ा ह
रद प वार 
आक्रोश ित
 भी बताय ा कि
 के दौर े पर 
त्रु घ्न
 अब्द ुल
 घन श्याम
ायदे मंद
 हड़कंप म च गय
याचिकाक र्त
र्भगृह  म
T A
आ क
ए डीएम
क री
ख ीर
ग ो 
ग ंद
ग  एज
च  कर रह
ट िय
ड ोर
ड  पर ल
द  ह
ध ी म
ब ोले
भ ार्गव
य कीन
र क्तदान
ल हर
व ाने
श रद
श ीतल
स ास
स ाबित
ु फैक्चर
े  की ब
े  के खिलाफ
े आम
ी  स्ट
र  जनरल
 स ैम
 स त्ता 
 की  जाने वाल
ाल ी जल
 ब ुलेट
 ज ंक्शन
 र ोष
 र ाउ
 र ाघव
ने  की ज
ने  किसान
 को  जन्म
 अ श
 का  नह
 का  स्वागत किय
 का  घेराव
 ने  युवक
 ने  तुरंत
 ग ंद
 ग ुरू
 ग ोम
 ग ूगल
 भ टक
 भ ास्कर 
ाज नक
 आ  रहा थ
 त ट
प्र ोग्राम
 और  दो 
 प्र कृति
ी म ौजूद थ
क्ष िक
ाइ गर
ंत व्य
 रह त
ता  जत
एक  दूसर
ा स िद्दीक
ीय ू म
ी ब ैठक म
 ट ै
लग ाई
 के बाद  यह
ी के  मामले म
ा की  द
 सं विद
इसके  बारे म
र से  म
ा द ल
ा द ाव
 पर स
ने कहा कि  वह
चल  रहे ह
ी ज ा रह
 की म ृत्यु
बह ुमत
ाना  ग
ल म ार्च
 नि खिल
ज् जर
र ब ारिश
ा प ेश
 अधिक ार 
 अधिक तम
 के आ वेदन
त्र िय
ी अ ल
 की त ीसर
 की त हरी
ी ग ोव
 से ब ढ
ी व ्रत
जिल ा म
प्रदेश ाध्यक्ष
, स ुनील
 पर क म
ा से  पहले 
, ब ोल
, ब ुध
शिक्ष ा मंत्र
 झ ील
 झ ामुम
 से फ्ट
ी आ म
 रूप  से म
काल  के दौरान
गु स्से म
 नव ाद
 पहल वान
, म ोहम्मद
प्रति शत
र ज ारी क
 रन  ही ब
े की  ठंड
दात ाओं
भी क हा कि
 भी क म
ब्र ेक
े द र्ज
 जुलाई  म
 पी ढ
ाने का  निर्णय
 की न ाराज
 जानकार ी दे
 मुख्यमंत्र ी योगी आदित्यनाथ
 युव ाओं को 
कर्त ाओं को 
, न ई
शु ओं
 से प ानी 
कम िश्न
 जारी क िया थ
सीएम ओ
 बना  रह
 साम ुदायिक स्वास्थ्य क
 की जानकार ी ल
 प्रधानमंत्र ी 
 प्ल ाट
ॉम ्प
ुलाकात  क
 पर म तदान
इससे पहले  भी 
चर ित
 लड़ के 
 बाल ाज
 किलोमीट र लंब
 हासिल  किय
दग ाह
निक ले 
भु गत
आवाज  सुनकर 
 का र ास्ता 
 शाम  को 
 किम ी प्रति
am i 
 तैय ार हो 
द्व ीप
पार ंपरिक
सिय ास
मेरे  साथ
धी  रात
 शुभ म
 मेरे  पास
अपने क ब्जे म
 सिल ्व
ता को  देखते हुए
 करना चाह ती ह
आवास ीय
 बै रव
 की घटन ाएं
 इक ाइय
गुजरात  म
इसी क ड
 इंस्प ेक्ट
प्रव क्ता 
ापू र्ण
 किशन गंज
 पीएम मोद ी ने 
 हॉ की 
 जाट व
In d
 साइबर  ठग
क्कर  लग
शव को प ोस्टमॉर्टम
द्र ह ुड
उल्ले ख
मी के  दिन
 कॉम ेड
 राशिफल : आज
 हस्त क्षेप
मी  तिथि
माय के 
भोज पुर
च शुरू  क
 रुख  खान
 की दूर ी पर 
दैनिक भास्कर  ने 
ा को संबोधित  करते हुए
बाइड ेन
तेर स
से बातचीत  म
ी समारोह  म
ऋषभ  पंत
ी कैलाश  विजयवर्गीय
 द्रौपद ी मुर्म
  UP
,  गुजरात
- प्रतिष्ठ
M M
O n
g ov
अ क्ष
अ ंश
आ ंध
ई मेल
उ धर 
क ृ
क ाब
ख ंभ
ग व
ग  रख
ग  का काम
ग  बूथ
घ ोड
च ेर
च हर
च  गए ह
च रखी द
ज ा 
ज ाने
ट  स
न वाद
प ्ट
फ ीट
भ  म
म ण
र िफ
र ावत
स िर 
स ैल
स ीनियर 
ह ोम
ह  का कहना है कि
ी ओ
ु गतान
े थ
ो त्त
् ़
 क न
ी  शिकायत
ी  भी क
ा  राज्य
 स ीप
 स ट्ट
 स ैफ
 म छल
 म मता बनर्ज
 के  ढ
 के  खेल
 के  लोकसभा चुनाव
ान ा और 
 ब रेल
 ज ेन
ा क ैसे 
 र क्त
 र ंजीत
 द ाग
 को  भर
 व ैस
 व र्जन
इस  सवाल
ात ी थ
 भ ड़क
 आ ने का 
 त ेर
 और  देश
 श ेर
 श िशु
 कि  आप
 पर  पड़
पु ष्
ी म रीज
 च ेत
ी क र म
ना  बहुत
रो ल म
स्ट िन
ी स ुर
 फ ़
ेल मेट
 हो ना थ
ी ब ल
 ट च
ाक र्मिय
नि र्यात
र क ा काम
 पह ाड़
ाफ -सफाई
 सं लिप्त
 लग ा ह
ी की  गई
 पर िवार को 
स्प िन
ा ब ाजार म
 बन  रहा ह
 के द शक म
 यह  सुनिश्चित
 की स ाझ
ाध ारी 
ाना  से 
ंप ई
ी प ोस्ट
मह ाव
मह ात्मा ग
 नि धन
 को ब म
 को ब ेहतर 
र द िया गया ह
ने की  व्यवस्थ
उप स्थिति
 अधिक ारी ह
ार म न
त्र पति
 जन प्रतिनिधि
12 2
12 6
पूर थल
टीम  के साथ
ने का  भी 
ी व ीडिय
 जान े के कारण
 के खिलाफ  एफआईआर दर्ज
 किसी  अन्य
दोन ्नति
 शुरू  हुआ।

आव ंटित
 अव श्य
ा ग ार्ड
तीन -
 देख भाल
 मन ्न
 पर क ्लिक
राज्य  के 
 राम  मंदिर 
 शर्म ा की 
 अग र स
 झ ाड
 पार्ट ी से 
 घंट े ब
काल त
गु ना 
 के ह वाल
जात े थ
यान क
 की र फ्तार 
उनक ी बेट
 को न िलंबित
दु त्व
सुबह  से ह
र प ार्ट
र प ्लान
a  K
a  R
 ई मान
 प्रत िक्रिया 
 बंद  रहेग
 की प्र शंस
ी ड ाल
रू द्ध
गोल ीब
तदान  क
ट्स  को 
 अध ूर
 कंपन ी का 
विद्यालय  म
गण तंत्र दिवस
 जिससे  वह
पान ी के 
शुक्र वार सुबह
इसक ा स
 एक्स च
इं कार
 क्ल िक
मौके पर  मौजूद
 के व िवाद
 के च ीफ
्राम क
 अप्रैल , 
 की ल पट
 के श री
 पास पोर्ट
 ढ ाब
 एड िशनल
 भी म ौजूद रह
 फर ार चल
 रिक ्श
िन्ह ित
ैप ्ट
सब ूत
अनु बंध
ठीक  नह
 अवैध  शराब
 के आदेश  पर 
 सल ीम
 मात म
तलाश  म
 कोतवाल ी क्षेत्र
ी मु द्द
 एक बार  फिर से 
 लि फ्ट
भार  संभाल
दोष िय
ा थाना  पुलिस ने 
 जारी  किए ह
स्पष्ट ीकरण
प्लेट फार्म
 सुप्रीम कोर्ट  म
 दब ंग
ी अभ िय
 अंद ाज
 कश्म ीर 
छापेम ारी की 
et rol
चंडी गढ़ म
िलीव री
 मास िक
 फै मिल
 वर्ल्ड कप  म
वॉ ट्सऐप
 की उप स्थिति
वेस्ट इंडीज
सेक्स  
 रन बनाकर  आउट
 को पत्र लिख कर 
 हीट वेव
फाइल  फोट
 समन्वय क
 पर सवाल  उठ
 इंदिर ा ग
ा शामिल  ह
ाग्र स्त
 गृहमंत्र ी अमित शाह
 सम्प न्न
 टेन िस
ाइक्रोस ॉफ्ट
,  ट्र
,  जिल
,  विकास
- रात
I .
N C
R SS
S har
S HO
r u
° C
अ क्स
अ नेक
इ माम
उ भर
ऑ र
क कर 
क ैसे 
ग ोप
ग ंभीरता से 
ग र्दन
च  की गई।

छ ुट
झ ुक
झ िम
ट ॉ
ट ोक
ड र से 
त ंग
त ोड
न  भर
प ायलट
प िस्टल
प ोरेशन
फ ूट
फ ॉर
ब ता दे
य ूर
ल ी 
व ंचित
स िस
ी र और 
ी र्ति
ु क्ल
ौ र और 
ी  उठ
र  दे
 म ोर
 म ंजिल
 ब ुख
 ज िम्मेदारी 
 र िय
 र ाष्ट्
िल ेख
 द स्त
 द ूतावास
क् कर
 को  अन
 व ॉल
 अ श्लील
 से  पूर
इस  सीट
 का  छ
 का  परिवार 
 न ा ह
ाद से
 ने  '
 ग ारंट
 ग ंदग
 को मल
 त ह
 और  अन
ाव ेश
 पर  अपना 
ी म नीष
ना  पड़ता ह
वि राम
्व य
ा म ैदान म
ा म ैदान
 रह ा है और 
वाल ा 
वाल ्मीकि
िश ाने पर 
स्त ान म
पर  काम
जन प्रतिनिधिय
एक  बेट
 ट ीचर्स
 ट ्वीट
 इ नाम
ाक र,
बताय ा गय
बताय ा गया है कि
 एक ादश
सी स
पुलिस  द्वारा 
 सं चाल
 पु ष्
ा द ोस्त
 बन ाया गया थ
 के द िग्गज
ते हुए  
ाख ेड
ी ज िन
ीव ाई
 पुलिस  स्टेशन
 साल  की बेट
िज र्व
 छ ाय
आरोप ी से 
ा कर ते 
ग्रेस  से 
 ध न्यवाद
फ्त े 
से म ारपीट
 को ब िन
गिर िराज स
र द ो 
 होग ा कि
र्ग ेन
 का क लेक्शन
 स्ट ेज
 रुपए  का 
 से ज ख्म
हित  अन्य
 के बीच  ह
 उप स्थिति
और क ार्य
आर ती 
आर टीओ
ने से  रोक
 पूर ा नह
उनके  पित
जिल े का 
विश ंकर 
्यू आई
ज्ञ ापन म
 ऐ से क
11 3
गह लोत
 विश ्राम
 कै फ
 कै रेट
शव  परिजन
चौ टाल
ी पर  भी 
 लोक ेश
ा व ार्ड
 और क म
भर  के 
 की र िश्वत
ा र ाष्ट्रीय
उनक ी स
 के सम र्थन
 दिए  जाएंग
एल  राहुल
 रन  देकर 
 जीत ने के बाद
ौल ी म
 मही ने के 
 बारिश  हुई ह
डॉ क्यूम
 बताय ा थ
 ई य
ब्ज र्व
ंटर टेन
 जुलाई , 
 की प्र ाथमिक
युव ा क
ौन क
ी सं स्कृति
गंज  थाना क्षेत्र
पीड ब्ल्यूड
 चुक ा थ
जु ड़े 
घटना  स्थल पर 
 किस ी काम
 भग द
े ज ाते ह
गण पति
 की ख ोज
ी के लिए  
 रेल वे
हत्य ा की 
िकित्स क
 सचिव ालय
 थाना  अध्यक्ष
 रुपय े म
 को त ैयार
 अप्रैल  तक
 मंगल वार को
सोम वार
अवैध  रूप से 
 की फ ाइल
 शुरू कर द िया ह
 फीसद ी से 
 चार  दिन
व्याप ार 
 बिल ियन
सबसे  ज्यादा 
 की तलाश ी ल
es t
वीडियो  बन
ी राज ेश
 गण पति
 गण मान्य
फ्ल ो
 माल दीव
 सो ने की 
 सो याबीन
र फ िसल
नम ाज
वीडियो  कॉल
 पिछ ले कई
युवत ी ने 
han d
चौथ े दिन
s  in
 तीसर ी बार 
शरी र म
 प्रभ ार
समेत  
 बै ज
 से बच ाव
 अभिय ोजक
 के नि धन
रेस्ट ोर
 इक ोन
ाना चाह ता ह
ुर् खिय
 अहमद ाबाद
 रैल ी निकाल
ी सहित  अन्य
ा कर ल िय
 कर्मचार ी संघ
 श्रेण ी के 
 करवाई ।

जलि  द
ी समस्य ाओं
ac k
साह िब
सुनवाई  के दौरान
लाक ार 
्राइम  ब्र
 गैस  सिल
आजम गढ़
ाने की कोशिश  क
लिखित  शिकायत
 छापेम ारी की 
 को दिए  इंटरव्यू म
 महाप ौर 
लंबे समय  तक
आपत्ति जनक
इट ाव
ho p
घन श्याम
ेने ज
 दर्ज करवाई  ह
 जोध पुर 
आयु र्वेद
मेरठ  म
एव ज म
ंदे से  लटक
खास बात  यह है कि
ी हेम ंत सोरेन
 कॉर्प ोरेशन
धे पुर
-बाल  बच
I CC
m Ah
u th
ं -
अ ंज
अ रोड
आ धुनिक
इ र
उ मर
क ेरल
क ैबिनेट
च ो
च  प
च  ने 
च ीख
च ोपड
ज ा रहे थ
ट  के बाद
ट र्स
ट ाइल
ड  
थ र
द शहर
न  और 
ब जरंग
म ीत
र ।

र ा म
र ाधिक
ल ी ह
ल ाना 
ल िया ह
व  का 
ह ॉस्पिटल
ह ार्दिक
ा पुर से 
ी र क
ी  के समय
ु पर
ृ जमोहन
े ;
े ...
ै क्षिक
् का 
 क ी कर
ी  रोक
 स स्त
 के  व्यक्ति
 के  आरोप म
ार म्भ
 प क्क
ान पुर 
 ह िर
 ह िमाचल
 ज र्ज
 ज ा रहे 
ा ह ाई
ाय ै नमः
 व  क
 अ क्त
 अ फर
 से  और 
 से  अपनी 
 ल ाई
ित  थ
ात व
 ने  उन
 ने  देख
 ने  उनका 
 ग ड़बड़
 भ ोल
 त ैर
िया  पर 
 और  समाज
ाव हारिक
ले 

 च ट
 च िह्न
ी क े
ी क ्लब
 य ा फ
ाथ  म
 के स ेट
वि फ्ट
भी  ज
 कर  चुका ह
 उ त्तम
िस ाल
ंद न म
ंद र्भ म
 रह ने की संभावना ह
ाग र म
स्ट ेज
ी स ाध
ी स ैनिक
ी स ेना 
ंग म
 फ र्क
 फ ायर 
 ड ाय
 ट ाइगर रिजर्व
नि धि
र क ्य
ीत ा क
 एक  क
 के बाद  शव
सी  कोई
ा के  पूर्व
 इस  बार
उस ने क
ोट ो 
मु ग्ध
 स् न
 लग ी आग
ूर ू
ी की  ब
ंट ेन
्स  और 
एस ड
 करने  की बात
क्र िकेट
 पर  कहा कि
ा ब ेच
 के द क्षिण
ी ज ायसवाल
पुर 

पुर ी म
आई पीओ
 ( H
 ( म
ीव ीप
इन से 
ी द ीपक
 बज ाज
ोह फ
स्व ीकृत
 ध ूल
 हम ीद
 हम  सब
मह ाकाल
ट्र ैक्ट
भारत  की 
ा ने  एक
 ने हर
 भारत  को 
ज् जन
र ब ार 
 को प ान
 को प ंजाब
 किया ज ा रह
 किया ज ा रहा है
ने की  तैयार
डी आईज
 रख ने वाले 
त्र कार
ाउ ट
पुलिस ने  इस मामले म
 क्य ा कह
 व्य ाख्य
ी को  देखते हुए
ार ह ै
ने का  मामला सामने आया ह
 के र ुप
 ग्र ेजुए
ी व ो 
ी व क्त
जिल े क
उसके  भाई
 के खिलाफ  मुकदमा दर्ज
 किसी  एक
ना ह ोता ह
देव ास
 आप सी 
रख ा थ
 शुरू  नह
 देख ा गया थ
 को क ैसे 
ी र ंग
लाल  मीण
 राम निवास
 की श र्त
ारी क र रहे ह
 हो गय ा और 
े के  भीत
 पार्ट ी को 
 कार्रवाई  की जा रही ह
 की प ोस्ट
13 2
सभी  ने 
 को न ियंत्रित
 को ज ोड़
 का प र्व
 दूसर ा 
र्न ीच
 जून िय
 पूर्व  मुख्यमंत्र
ज्याद ात
 गिर कर 
 वे  अपने 
 की अ हम
ा श ाह
 आर जेड
े द ब
 काफ ी कम
, अ मित
, अ मेरिक
ाई ज ा रह
 की न ौकर
वित रित
फोन  पर बात
 ब्र िटिश
 पार ्वत
 स्त र 
 वो  भी 
 ने म ारपीट
ा के स दस्य
 सामने  आने के बाद
ाए ज ाने
 भर ाव
ार द िया ह
, ग ुरु
 न्याय मूर्ति
नव जात
 बेट े
 इं श्योर
 बाइक  पर 
 का आ कलन
क्क र क
e  D
प्रीम ो 
 या  अन्य
 इसके  बावजूद
 को च ोट
 विकेट  खोकर 
 को आ देश
ी ए ंड
ी के स ं
 बल राम
 की शुरुआत  क
 अक्टूबर  को
 और  किसान
 से मिल कर 
 उम स
निज ी 
अभियान  के तहत
 मौसम  साफ
 बदलाव  नह
योजन ा के तहत
ले ज ाया गय
 D ay 
माल दीव
फ्ल ाई
ा उ त्सव
 से कम  
घर से  निकल
वित्त  वर्ष 
 मे ले
 होने  तक
िच ार्ज
ा के म ाध्यम से 
चंद्र न
 करना चाह ता ह
विषय  म
 देने  की म
रविवार  सुबह
 पौध रोपण
ना शुरू  कर दिय
थल ीट
शनिवार  सुबह
ा सहित  अन्य
नीतीश  कुमार 
 हेल ्पलाइन
संसद ीय
 कारोब ारी 
ोले नाथ
ॉक्स ऑफिस  पर 
 से हुई ।

 से हुई  थ
ध्व जारोहण
 पंज ीकृत
दब ंग
ी शिव राज स
मुजफ्फर पुर म
ी की स प्लाई
त्र ब ल
 डिव ीजन
साग र 
सामाजिक  तत्व
 पर रोक  लग
धरना  प्रदर्शन
स्वतंत्र ता 
 बिर ल
 होने ज ा रहा ह
 प्रार्थ ना 
 खेले  गए
 जुर्म ाना 
किशन गंज
 से दू र रह
 पत्र द ाखिल
Indi an
कीक त
 अकाद म
 नाज ुक
 कोहराम म च गय
 बताओ  नोटिस
लेक्टोर ल ब
  f
' क
)  पर 
,  अन
3 20
N H
m ar
o c
ख ाक
ख वाड
ग ठित
च  नह
च  टीम
च ेतावनी द
ध ार ह
प श्चात
र ास
र  के पास
ल ी म
व ी 
व ा ग
व ो म
श िख
ष ेध
स ाझ
स ाइकिल
ह िर
ह िमाचल
ु गल
ू ध
् र ब
 क ेक
 क ेन
 क ंगना रनौत
े  जाने 
ी  नेत
ी  ऑफ
ी  देखने को मिल
ें ?

 स ाइन
 के  घाट
 के  उपयोग
 के  लिहाज
ार क्षित
 प ता 
 प ैनल
 की  नह
 की  आय
र् सल
ाल ा 
 ब ैल
 ब रत
स् न
िक ्ष
ा क िया जाएग
 र ाग
 र ाष्ट्र 
ा ह र
 को  देश
 को  भारी 
 को  ज्ञापन
 अ पहरण
 ल ाने के लिए
 ल ीजिए
 ल ुटेर
 का  बह
 आ क
 आ  गई
 आ ने वाली 
 आ श्वासन
 त िह
रह ते ह
िया  (
 श ि
 श रद
 प्र दर्शित
त् स्य
 के लिए  कोई
 थ ा 
 उ भर
 रह ने के लिए
 फ ायर ब्रिगेड
ेल ाल
ेल िकॉप्ट
ी ब ैठ
 ट ैग
ाप ट्ट
लग ाए
पी क
पी सी 
ा थ ाना क्षेत्र म
यह  पढ
ाक ृष्ण
ा है  वह
र क ाल
 के साथ  साथ
ा के  प्रति
 भी  जारी क
ुप ्प
नी  एकादश
की  थ
ा की  पहचान
र्व रक
इसके  खिलाफ
जान ा थ
जान वर
सं स्कृत
सं वेदनशील
ा द ुकान
 बन ाएंग
 बन ाए।

 है  जह
 की म ूर्ति
ीव ाड़
 पुलिस  को द
 को स र्व
 को स ूच
अधिक ारी स
ुआ  म
स्क ैन
ष् का 
 तो  उसने 
 ध क्क
ट्र क म
ये  दोन
 कम ाल
ाच क
 के आ म
 बजे  एक
 रुपए  ह
लेकिन  उन्ह
 क्य ा होग
द्र  जैन
वाह न म
बसे  ज्यादा 
ड़क िय
 के प ोस्ट
 के प ौध
 अपने  दोस्त
पूर्व ज
 है कि  यह
 शुरू  हो गया ह
 शुरू  हो जाएग
गिरफ्तार  किया गया ह
शुरू  कर दी ह
एन ओ
एन काउंट
भाजप ा का 
 मान ा जा रहा ह
राज्य  सरकार ने 
सक ती ह
ेह ंद
 झ ंड
 लोक प्रिय
 लोक  अदालत
से  करीब 
 करोड़ 

गु णवत्त
 ले  रही ह
मुख बिर
 शिक्ष िक
ी मह ंग
विभाग  म
 के ज ्याद
 के तहत  केस दर्ज
 करव ा 
रोड  शो
र्द े पर 
ाइड ्र
ा श ुल्क
 भारतीय  नागरिक
 के मुताबिक  
इसके अलाव ा स
ी ड ंड
 जिला  अस्पताल म
 S har
 स्त र पर
ा भ वन
 की द ुनिया म
 उनक े क
ा हो  रहा ह
 सुरक्ष ा बल
ा सम ापन
 हो ज ाए
 भर ी गर्म
ा मिल ा ह
 रिपोर्ट  आने के बाद
इसकी  ज
ने के  चलते 
 शाह िद
ने स ोच
 भगवान  विष्णु
घोषण ा प
बड़ ी संख्या म
 से ल ागू
 निकाल ा गय
ज़ रूर
 इलाक े के 
र हो ते ह
गेट िव
जल्द  से जल्द
 प्रकाश ित
 पर अ ज्ञात
ूक ंप
 अनु शासन
 होत ी रह
 कमल ा हैरिस
 मंत्री  निर्मला सीतारमण
 निज ी अस्पताल
ता क ा स
 मंडल  अध्यक्ष
थाना क्षेत्र  के 
 के पद ाधिकारी 
ुझ ाव
ना चाहिए  कि
 चोरी  की वारदात
 मेरे  साथ
सिद्ध ार्थ
 जारी  नह
वार्ड  
जिसके  लिए
 के पित ा 
उसके साथ  मारपीट
दो दिन  पहले 
ग्रुप  म
 बै लेट
डॉक्टर  ने 
 स्ट्र ीम
 स्ट्र ोक
 चु के 
 पंच म
 देखने को मिल  रहा ह
 की मान े तो 
पुर स िट
 मुख र्ज
ी बह ू
 आवश्यक  ह
े हो ते ह
ना कर ते ह
पुरुष ोत्तम
 इंच ार्ज
जाप ान
 जिसकी  वजह से 
 कीमत  
 रुपए प्रति  क्व
मुझ से 
 की सरकार  बन
 दुनिय ा की 
 हेल ीकॉप्ट
डन बर्ग
चक  निरीक्षण
 ड्यूट ी पर 
विकसित  भारत
र्थन म ूल्य
्वाल िट
 अज मेर
 आध ा दर्जन
अवगत  कराय
व्ह ील
 की उप स्थिति म
 अत्य धिक
डिय ंस
 चक्र वात
ी राह ुल
बिलास पुर म
 सीत ाराम
rat ri
दूसरी ओ र 
महास चिव
बाइड न
कौन  ह
 पप्पू  यादव
शेयर क िया ह
 क्राइम  ब्र
र त ले 
 मेग ावाट
ने को तैय ार नह
 प्रीम ियर लीग
इंस ाफ
 की टक्कर  से 
थलेट िक्स
ातुर्म ास
अल्लू  अर्जुन
  ष
3 60
M U
S E
ं .
उ सी
औ पचारिक
क ै
ख त
ख ्व
ग र्व
ग ेह
ग  स्टाफ
छ ेड़छाड़
ज िम
ट ैग
ड ा के 
त गणन
द न म
प ाक
प  दिया ह
फ ाउंडेशन
ब ि
ब ालिक
ब नेग
म ऊ
य ा न
र िप
र कम
र जत
ल ेश
व  ग
स िपाह
स ुल्तान
स वाई माधो
ह ात
ी र से 
ू ना 
ू  (
े  की ह
् नी 
ी  पहल
ा  इलाके म
ा  आरत
 स ाद
 स िराज
 म ेहत
 के  स्कूल
 के  उम्मीदवार 
 के  परिणाम
 के  राज्यपाल
 प ीयूष
िय ा को
 की  पीठ
 ब ंगल
 ज ेट
ा क ानून
 द ्
 द ीद
 द ौर म
 द ूर 
ने च
 को  वोट
 को  अस्पताल म
 को  धमक
 अ च
 अ टक
ार  बन
 से  पर
 से  शाम 
 से  उतर
 ल ीक
 का  वोट
 का  परिणाम
 न ीच
 ने  दो 
 ने  मामले
 भ ंग
 त िल
प्र वास
प्र णाल
 श ातिर 
 कि ट
कर  एक
 पर  बड
लिए  थ
 प्र ण
ले ते हुए
ाह ेश्वर
 ए प्ल
ी म ेर
ी म ोहन
ति र
रो से 
रो टर
 थ ाने की 
 उ पर
ा म ुक्त
 कह ासुन
ंग न म
िश ुल्क
एक -
 ड ेयर
 ड ैम
 ड िब्ब
 ड िलीवर
ा स ंभाल
ीय  आयुक्त
ी ब ाजार
ाप दंड
िर ंग
 इ रफान
दे ना नह
दे री से 
लग ्जर
पी पल
ीम न
यह  म
 सम र्थ
 एक  इंटरव्यू म
नह र म
सी बत
ी के  अलाव
ी के  जरिए
ारी  रह
 लग ाए गए
एस स
 करने  के साथ ही 
ोक ॉल
सं भाग
ा द े 
स्प ॉट
ा ब ह
 बन ाता ह
 बन  रहे ह
 ही  दिन
कि  वे 
ी ज ह
ी ने  अपनी 
िज नेसमैन
 मु ख्त
 को स ी
ी द म
ीक ्यूटिव
स्क ॉर्प
 तो  वो 
ाकर  रख
द्ध ति
भारत  को 
 के अ भाव म
पहले  म
ी न ीति
सद न म
 को प ोस्टमॉर्टम
दर् दन
 किया ज ाता थ
 का क िया 
ाच न
ने की  भी 
 चल  सक
श्र ॉफ
गर पुर 
लेकिन  जब
 क्य ूस
 ऑ प्शन
 की त ेज
िह ार के 
 के त ुरंत
 के प ैर म
ला के से 
ृत िय
ेप ्शन
 शुरू  हो गई ह
ॉन िक्स
आव जे
मन ्वय
एन एल
 पर क ाफ
पित ा के साथ
, ब ाल
 राम लील
ी प्र शासन
ी प्र मुख
खंड व
 सरकार ी अस्पताल
अव िनाश
14 5
14 7
 वाल ा 
 भाजप ा कार्य
 को न ौकर
फल ाइन
 को ज ोड़
 आव ेदन म
 रन  बना 
 भी क ुछ
 गिर ने से 
 बताय ा गया है कि
 समाज जन
 आर क्षित
 बंद  रख
 की प्र मुख
एच एस
 दिल्ल ी की 
िवस ेन
ी भ ेज
 की न जर 
जल स्त
महिल ाओं ने 
 पार स
दिल्ल ी की 
 वोट र
से ह ट
 जानकार ी ल
आम िर खान
 को प्र ोत्साहित
 का द िल
अंत र्राष्ट्रीय
 भी ब ारिश
आगे  बताया कि
ी य ूप
पूछताछ  क
 की ग ति
 को ख ोल
 को ख तर
 पिछले  दिन
 गुरु वार को
र बन ी हुई ह
इसका  असर 
 बिजल ी के 
सोम वार को
पत्न ी स
दूसरे  पक्ष
 पित ा ने 
रोह िण
विवाद ित
 की शुरुआत  
 खिल ाड़िय
 कमेट ी की 
ती  देव
 वै श्य
फ्ल िक्स
 अनु ष्ठान
 सल ाम
 का निर्माण  कार्य
ोर्च री म
 औ सतन
 के मह ीने म
भाजपा  विधायक
 आपके  लिए
जिले  के स
 दोपह र म
 जित ना 
 लाइ ंस
 रोज ग
धु बन
ड्राइव र ने 
 सिद्ध ि
खूब सूरत
 नारायण  स
हुई ।

 घर से  निकल
ियास त
 ध्यान  रख
 इलेक्ट्र ॉनिक
घटनास्थ ल पर 
 दूर ी पर 
ा पद ाधिकारी 
कू  विमान
जून ियर 
दिए  गए
 बीते  दिन
 विधानसभ ा के 
 इंग ्लिश
बर स ेल
 इंद्र जीत स
 वेस्ट इंडीज
 की सह ायता से 
 असम र्थ
 की झ लक
 ज्ञापन  स
पत्नी  के साथ
ा दे द िय
 कंट ेन
 गवर्न म
लिव ेटेड
CCTV  फुटेज
ऐश्वर्य ा राय
ा खुल ास
हमलाव र
श्रेण ी म
द्रीय गृह  मंत्री अमित शाह
कोर ब
 और डीजल  
लेक्टोरल ब ॉन्ड
दर्दन ाक
 क्यूस ेक
h at
ं  
ं सी
इ रफान
ए ग्जिट पोल
ऐ से क
क  कर 
ग ्व
ग ड़
ग  भी 
ग  (
ग ैर
ग  लाइस
च  सक
छ तर
ज गर
ड ीड
त ीख
थ ाना क
द ंत
द िया ह
द ी का 
द ार,
ध ी क
न ास
न ष्ट
न ाटक
न र्मदापुरम
प ा गय
ब ठ
भ ल म
म ीत स
र , स
र ाइट
र ाइज
र िटर्न
व ट
व  न
व ाइड
स िस्ट
स सुर
ह  ने क
ु ग्ग
े  की र
। ।

 क स्ब
े  जाने पर 
ी  अधिकारिय
ी  आएग
ा  एक्सप्रेस
 स च्चाई
 म िय
्र ेन
ार िस
 प िस्तौल
ान दार 
 ह थ
 ह ी मिल
 ह द तक
्य ो
स् सी 
 र ील
 र ीजन
ा ह रियाण
 द र 
 द ोबारा 
ाय ु
ाय ोग
ाम ृत
ाम ुदायिक स्वास्थ्य क
ने  की सलाह
 को  ए
 व  म
 व ाणिज्य
 से  थ
 से  परेशान
 ल ु
 ल ाने
 ल िया ज
 ल कड
इस ने 
 का  वीडियो
 का  रोल
 का  आगाज
 ने  हम
 ने  गुरुवार को 
 ने  दावा किया कि
 ने  पुलिस को बताया कि
 को  मुख्यमंत्र
 भ ैय
ी ह िम
 आ समान
 आ तिशबाज
प्र स्तुति
रह िट
 पर  जमकर 
 प्र ीत
ी म ार
ना  पड़
 के लिए  वोट
 के लिए  बहुत
 के स िलसिले म
 के ब ड़े 
े क र्मचारिय
र म ेडल
ी स ाझ
 फ ॉलो
जन ता की 
एक जुट
 ड िस्ट
 ड कैत
 हो नी ह
ी ब ाजार 
ग्र ेजुए
 वि ज्ञापन
ोन ीत
ंब ेडकर 
 के साथ  क
ौर न
ा ज ज
पुलिस  प्रशासन
ओं कार
ी के  अवसर पर 
ोट र 
ाश य
िए क्शन
 मिल ावट
ी की  वजह से 
सं ज्ञान
ंज ्ञ
ा ब ैग
ी ज ोश
कार  से 
 गए .

 के म ैदान
ा कर न
चुनाव  प्रचार
ी और  उन्ह
 के क ्रम म
 सर दार 
 लेकिन  इस
ुस ुम
 स्थ ापन
गए  और 
 कुमार  राय
ये  एक
 ने  करीब 
देख िए
 को लेकर  एक
र ब ढ
ाच ंद
ने की  अनुमति
 अधिक  से अधिक
 ले ने वाल
ब् बू
दल ाल
 के प ति
ा न ंबर 
लोक सभा स
15 1
 है कि  
बन ान म
देव ताओं
गल ा दब
ाधिक ारी म
 अव ार्ड
 ने कहा कि  क
तीन  साल
तीन  बार 
 देख ने 
 मान ा गया ह
ुश वाह
लिख कर 
ा प्र भाव
आए  और 
शिक्ष िक
शिकायत  क
जीत  हासिल
 झ लक
विधान सभा क्षेत्र म
न्य ाहू
दो  आरोपिय
 पार्ट न
से फ
गु ड़
 कार्रवाई  की ह
भर े 
ा र न
पूर्ण िया 
र ज िला 
ा अ च्छ
 को न गर 
ी ल ूट
दु बई
 दिख ाकर 
 के ज ़
 करव ा द
बेट ी को 
ा ख ारिज
 की अ ध
ी हो ने से 
 प्रत िनिधिय
 करने का  मामला सामने आया ह
 पर स ुनवाई
 का म ूल्य
ऐस ी ह
ी बन ाया गया ह
, र ाकेश
चंद ्रम
गुरु वार
 मई , 
पिछले  महीने 
 भग वत
 को प्र धानमंत्र
 बत ाकर 
एड िट
पूज ा 
विशेष  रूप से 
कोर्ट  म
ाए ज ाने के बाद
, न ाग
 राह गीर
थाना  प्रभार
, ग ोव
 करने वाल े ह
 मीट र तक
 का आ ंकड
 का आ ह्वान
 योजन ा का लाभ
ज्ज ्वल
ाक्ष ी सिन्ह
 जात िय
 के माध्यम  से स
आरोपी  को 
 परिवार  के साथ
 नजर  आ रही ह
 शुक्र वार
 भी म ौजूद थ
 दिवस  पर 
 अफ गानिस्तान
ी के क ुछ
 थान ा के 
 और 

 M odi
शाह जह
 बाल ू
 उम ड़
ियंत्र क
ा के क ई
तैय ार हो 
तैय ारी कर रह
ेण ुक
 माल ूम
ी उ र्फ
 सफल ता हासिल
नगर निगम  म
ॉर िट
साम ूहिक
िस् चार्ज
 धन ंजय
तभी  से 
 अमित ाभ
 दर असल
र्ल ्स
सदस्य ता 
ी पर िस
 समुदाय  के लोग
जानकारी के मुताबिक ,
 निक ास
 संप त्तिय
विषय  ह
सोन ू
 दिखाई  द
 मामले  दर्ज
र मह ी
 स्पष्ट  नह
 यूनिवर्सिट ी के 
 की पहल ी 
बाक ी ह
कश्म ीर 
आखिर कार 
 कर दे ग
जेड ीयू
ताज नक
जग ीर
 साझ ेदार
ी हर कत
 चार्ज शीट
 नौकर िय
ी कुम ार 
 विस्त ार से 
 किया जा सक ेग
 मुन ि
 फै शन
 सूच ी म
ैन्य ुफैक्चर
ठहर ाव
वार की  देर रात
 देन ा होग
 जिला क लेक्टर 
 आकर्ष क
 पूरे म ामले म
परिस र
 रन बनाए  थ
दाम ाद
पीए ल म
खाना  ख
अनिवार्य  ह
गुस्स ाए
ॉन्स र्ट
 स्पी कर 
फैक्ट्र ी म
चाहे  वह
 सलाह कार 
शस् त्र बल
 सेवा प्र ाधिकरण
)  -
,  य
,  भोपाल
A pp
O P
c c
t y
ओ र
क िन
च ै
च े म
ज गत
ड िफ
ढ ह
द िया गय
द ाता ह
द ा जल
ध ारी 
ध ाम म
प ंप
फ ेज
फ वाह
फ ेक्ट
ब ेड
ब ैन
म िथुन
य ा ग
य े कह
र , 
र ॉय
ल ाइव
व ्व
व र स
श ोरूम
ह ेज
़ दम
ा फ़
ा से 
ी गल
ु णाल
ॉ मिक
् र पर 
् डी
ा  स्कूल
ा  आयोजित
 स व
 स िय
 के  उस
 के  राज्य
 के  ठीक
 के  घर से 
 प ाण्डेय
 ह ृदय
ने  शुरू
र् दू
र् भव
ाल ी 
 ब ेकाबू
 ज ाय
 ज ावेद
ा क ेवल
 र ेन
ा ह ल
 द ाल
 द हन
 को  श्रद्ध
और  भी 
ैं ."

 ल घु
 का  फोन
 न ैन
 न  तो 
 न र्मद
ाद री
 ने  बड
 ग म
 आ इस
 त ुष
 त स्कर 
प्र स्थान
प्र ाचीन
िया  तो 
 और  रात
 और  भाई
 और  विकास
 पर  पड
 प्र कट
ले र
ी म ामल
पर  म
 के लिए  बुल
 के लिए  सदर अस्पताल
 के स ामान
वि भाजन
 थ ाना क
ा म ंड
ा म िश्र
 रह ने लग
स्ट ार्ट
ी स ाबित
 फ िजिकल
स्त ु
पर  कोई
द् धिक
्ल ैट
ी ब ल्लेबाज
ाप ाई
िर क
दे ती ह
दे ने के लिए
यह ी 
नि हाल
 एक -
 एक ल
 एक  सप्ताह
 के बाद  ही 
सी वान
ध्य ापक
पुलिस  की 
 इस को लेकर 
उस ी दिन
मु ह
राज पूत
नी  पड़
ा की  हत्य
 लग ाया ह
 तक 

ीट वेव
र्ज र
र से  लेकर 
सं स्कृति
एम एल
 पर िवाद
 बन  गए ह
 के द शक
ी ज ाएंग
 ( सी
 पुलिस  की 
िज ाइन
 छ क्के 
ी द ूसर
 के म न
अधिक तर 
 हुई 

ील ाम
 के क र्मचार
जिस को 
ुस ार
ोड क्शन
 कोई  जानकारी नह
न म ंडल
र्ड र क
 लाख  म
 का क ेस
 से ज ोड़
 क्य ा स
ी को  एक
आप सी 
 से ब िजल
टीम  इंडिया 
ने का  मौक
ने का  अनुमान ह
 पूर े हो
कर ,
 जिल ा मुख्यालय
प्रदेश  क
 शामिल 

लोक ेश
बर स
गल िक
 शिक ायतक
आव ेदन म
 ने कहा कि  इस
ी र ाकेश
ाया ज ा रह
ुश ील
ीश ान
, ब ी
 करने के लिए  कह
 आई ज
 अग ्नि
अलग  अलग
 एस एस
 को म ंजूरी द
ी आ बाद
 वाल े ब
 ये  लोग
 जून  को
भी क ाम
 मही ना 
पार्ट ी की 
ैर िट
रुप य
एफ एसएल
र्द ाफ
ा ख रीद
भारी  वाहन
विश्व सनीय
 का म ोबाइल
 काफ ी संख्या म
 यू थ
मामल ा स
 S ingh
फोन  पर 
ी हो  गई
एक्स प
घटना  स्थल
पड़ े 
 किस ी क
 घटन ा के 
ा सम ूह
ा फ हर
मृतक ा के 
 माह  पहले 
 उनकी  पत्नी 
रूप ए
मौके पर  ह
e  M
 शह र क
इसका  विरोध
 विकेट  पर 
याद ा 
याद  रख
 प्ल स
 करन ी ह
जे वाल
 चार  साल
िक्स ल
 होने की  उम्मीद ह
फिलहाल  पुलिस
ाओं का  समाधान
 डी सी 
en t 
 के प्रति  जागरूक
 बाब ा 
 अग्रवाल ,
 गण तंत्र दिवस
बारिश  के कारण
 खराब  ह
 करत ी रह
जी आरप
 वजह  से 
 के कार्य काल म
ाउथ  अफ्रीक
अध ूर
मेरे  लिए
 का भ विष्य
ा ले ने के लिए
 ग्रुप  म
विस्त ार 
जिसके  तहत
 एसप ी 
उच्च तम
 युद्ध  म
 हव ाओं
 बो ले 
 ऋ ण
ाना चाह ती ह
 जनवर ी म
 प्रिय ंक
 अधिनियम  
दह ेज
पकड़ े गए
छापेम ारी क
ा हम ारे 
 रज िस्ट
 रिश्त ेदार
 आश ुतोष
 मिनट तक 

 उसी  तरह
 लेख  म
जानकारी देते हुए  बताया कि
 ओम  प्रकाश
इंडस्ट्र ी म
 ऊंच ाई
 महाप र्व
 रेलव े म
 आर्ट िस्ट
ा बत ाए
 गेम ्स
 मिनट पहले लेखक:
ुड्ड ू
रेव ाड
पिछल ी बार 
 करना शुरू  कर दिय
 करक े क
प्रोड क्ट
रद प वार
इसका म तलब
 के मुद्द े पर 
र्भवत ी महिल
अभिने त्र
रिल ायंस
 के हवाले क र दिय
 को बढ़ ाव
बहाद ुर
 विकेट लिए  ह
 डॉलर  प्रति
 की स्थाप ना 
कर् ता ह
ोरियम  म
्रिक  टन
 के रिक ॉर्ड
  ख़
  फ़
,  दो 
,  जल
1 19
A )
D el
h i 
q u
ं सम
अ सर
आ भार 
उ द
क ुर
क ेर
ग -
ग  ड
ग ुरू
ग  उठ
ग ावत
ग  स्टेशन
च ाप
च  करव
ट ॉस
ट ेक्नोलॉज
ट ुकड
द ौड़
द ूल्ह
ध ाव
ध ूल
प ेड़
प ाकिस्तान म
म ाझ
य थ
र  के आधार पर 
ल ाकर 
श ॉर्ट
ह ज
ह ोश
ा भाव
ी ले 
ृ प्ति
ै प्शन
ो  पायलट
 क ाब
े  गए थ
ी  और
 स 

 स ॉफ्टव
 प ैक
 प ावर
 प वित्र 
ान व
 ब धाई
 ब ीकाने
 ज ॉर्ज
ा क ार
 र ुद्र
 र तलाम
 व े ह
 से  ये 
इस  सीट पर 
 का  पूजन
 न जर
ित ु
ित  रह
ाद ल
 ने  शव
 ने  स्कूल
 ने  उनकी 
 ने  उसे मृत घोषित कर दिय
 ग हन
 को  पहल
 आ वार
 आ  गए ह
 त ौर पर
 और  राम
 और  सरकार
ाव द
िव ेशन
ाह ेब
 ए डीएम
 च ित
 च ित्त
ी क ार म
वि पिन
 के ब ्र
े क ा क
ा म ंच
 रह ा 
ा, "
ी स र्व
ी स ोम
ी स हयोग
पर ंतु
 ड ीआई
कार ण
ा स ेन
 ख ल
 हो 

 ट ेस
 इ ब्राहिम
पू र ने 
ीत िक
 के साथ  बातचीत
सम ्प
नह ोन
 मह ाल
ने कह ा 
़ा -
ाफ िल
मु द्र
 लग ाई गई ह
एस टीएफ
इसके  जवाब म
ा ब ड़
 बन ाने पर 
िम ट
पुर  की 
 की म ेहनत
ेव ाड़
 की ज ा रह
 की ज मकर 
ी ने  एक
 को स ाध
ते  रहे ह
ी द ो
ी द े द
ेद ारी म
ग्रेस  नेत
 उस  दिन
अपने  घर 
ाध ुर
ी और  ब
ी और  ह
ा- 

 जिस से
र्स  को 
 सर स
नाम  स
पुर  पुलिस
मह ाम
द्र  कुमार
 के अ पर 
ी का  भी 
गए .

 सक ता थ
सद  और 
देख ते ह
र द ोन
जह रील
 को प रीक्ष
ार म ंडल
त्र िम
 व्य य
 व्य ायाम
ी अ लग
टीम  को 
 मंत्र ी अ
 के प ैसे 
ज्ञ प्ति
ंस ाल
ा न जर 
उसके  पति
 ' ह
रख ते ह
 स्क ॉर्प
 दर्ज  किया गया ह
ा सक ेग
गिरफ्तार  किया गय
 महिल ा को
 मन ोहर लाल
ताब ड़तोड़
ेह ट
 आई टीआई
 कर ल ी गई ह
ी प्र यास
 उनके  पति
 बात  यह है कि
िफ िक
 से ना म
 से स वाल
 एस आईट
 सरकार ी स्कूल
 सभी  ने 
यान ंद
ी कि स
 भेज ा थ
, म ुकेश
 की र ाय
 भाजप ा का 
 भाजप ा सरकार 
उनक े ह
उनक ा कहना था कि
 को न ष्ट
 कार्यक्रम  का आयोजन किया गय
ारी गर
ा हो त
 का प ्लान
 के ज ल
 के ज ीवन म
 डिग्र ी के 
पार्ट ी को 
 ई श
 ने स ोशल मीडिया 
ब्र िटिश
 सहित  विभिन्न
 का म ाल
, र ाहुल
 यू पीएस
 की न िशान
महिल ा स
 संग ीता 
 चुक ी थ
उत् थान
 भी ब त
वोट र
 माह ेश्वर
ेदार नाथ
इसकी  जानकारी द
भगवान  विष्णु
हाद सा 
 को ख रीद
 हजार रुपए  म
 योजन ा की 
 के फ ाइनल म
al l
र बन ाने के लिए
 मार्च , 
 के श ुरुआत
 मंगल वार
 बना  दिय
िब िलिट
 को आ सान
 नजर  आय
योध्य ा म
 बढ़ ते 
 अफ ीम
 ने बताय ा 
 बरामद  की ह
कह ा जाता है कि
 देत े 
 हमारे  लिए
 पड़ ोस
निक ले थ
 पै लेस
 अवैध  निर्माण
ा। "

 की रात  
वरिष्ठ  पत्रकार 
 परिवार  ने 
ेपर  लीक
 आगे  बढ़
धीर ज
 क्व ार्ट
पिछ ड
 इसकी  ज
 शुभ कामनाएं
 दिया ज ाए।

अपने क ार्य
 डे स्क
ी की क ीमत
 जिले  के स
 गुप्ता  ने 
फर्ज ी 
 अस फल
 देने  की बात कह
ा थाना  प्रभारी 
आने वाले  समय म
 बनी  रह
े। "

 माध व
आशंक ा जत
त्योह ार 
 की र्तन
 ज्योति ष
 की पर ंपर
दुर् भाग्य
 रेलव े के 
 फुट बॉल
राजीव  ग
द्र ह ुड्ड
 सूचना मिल ी कि
 पर रोक  लगा द
आग्रह  किय
चित्र कूट
वायु  परिवर्तन
 चक्र वर्त
बेहत रीन
दिस ंबर 
महंग ाई
पूरे म ामले
 विक्र ेत
 कहा गय ा था कि
 रात्रि  
 गर्ल ्स
जोत  स
दर्य ीकरण
ी वै ष्णव
इजाज त
म्मेल न
 वैर िएंट
ंपाई  सोरेन
 रघुव ंश
घुन ाथ
 निप ट
 रन ही ब ना 
चंद्रन  अश्विन
ंज्ञ ान म
,  कर
,  शिक्ष
,  राजेश
:  यह
I G
R O
S G
i p
o u
आ ने से 
आ  रहा थ
आ ंतरिक
ए ई
ए क्टर
ग िक
ग  के अनुसार,
ग श्त
घ र ह
च िल
ज ाने के लिए
ज ेसीब
ड  और 
थ ्र
द ी से 
ध क्क
प च
प ंत
फ ेल
ब ौ
र ाघव
व  स्थित
श ोभायात्र
स ि
स  की 
स क्रिय
ह  पर 
ी र ने 
ू र म
े  के म
ै 

 क ेश
 क ारतूस
र  स्थित
र  अल
ें -
 स हन
 स ूब
 म ीना 
 म ंजू
 के  उद्घाटन
 प ाई
 प ैकेट
 प ैकेज
ों ?

ने  थ
िय ो म
 ब ंग
 ज ेसीब
ा क ंपन
 र ाइफल
ाय र क
ाय ज्ञ
 को  भारतीय
 व  एक
 अ ंध
से  भी 
ार  ब
ार  ल
 से  जब
 का  महत्व
 न  कोई
 न ज़
 कर 

 कर ती है
ाद ाद म
 ने  ही 
 ग ुन
 ग ुम
 ग ैर
 त र
िया  निवास
 और  ख
ाव ाद
 पर  इस
 पर  भारत
 प्र कोष्ठ
ले म
 च ार म
ी क ार्ड
 के लिए  फ
 के लिए  विशेष
 के स ंबंध
 के स िविल
 के स ीनियर 
 थ ाम
ंद ा लगाकर 
ाग ढ़
ी स बसे बड
स्त िक
ुल म
 ड ेमोक्रेटिक
 ख ेर
 ख ेम
 ट ोक
 ट ाइगर 
 इ ंस
 नह र म
यह  फिल्म
ाक ुम
 वि पिन
नि स्तारण
अप  म
ा है  क्य
ा है  ।

ीत िय
 एक  ऐस
सी  के फ
ा के  अध्यक्ष
नी  पड़
ा की  ब
 लग ाया थ
 लग े हुए ह
जान ा जाता ह
क्र ेट
क्र ाइम
 पर ंतु
ा ब िजल
ंध े पर 
ने कहा कि  आज
ी ज ैन
ी ज ्योति
पुर , म
ने क ा ह
 पुलिस  कर्मिय
ी ने  इस
ते  तो 
 के म ार्गदर्शन म
ोह ल्ले
ुआ  खेल
 हुई  है
ग्रेस  
ग्रेस िय
ौत प
अपने  बच्च
अपने  दोस्त
आय कर 
 कार्य रत ह
मंत्र िय
ीर िय
 के क मर
ेम ोरियल
 हम ारी म
 लेकिन  क
 लेकिन  इस बार 
दू  समाज
ोद र
पुर  पुलिस ने 
 स्थ िर 
 कुमार  वर्म
 आय ा तो 
देख ने के लिए
 को लेकर  चर्च
ा प ंडाल
दम दार 
 ट्र िप
 अधिक तम 
 बजे  वह
 उप वास
 उप  निरीक्षक
12 7
द्र  शासित प्रदेश
आर एल
ार ह ुए
ाइक  सवार 
 कुछ  खास
 की क मान
 की क ॉप
 की क प्तान
ेस्ट ्र
ा न ुकसान
15 2
 आरोप ी अ
 किसी  न
 काम  करता ह
 काम काज
ा को  क
 ने कहा कि  उन्ह
ैक ेन
 देख ना 
ाइट  म
ी र कम
ाया ज ात
 कै म
ा प्र धान
सक ता ह
यू थ
यू आई
 आई पीएस
ी श ेख
ी प्र भावित
विधान  ह
 एस पी
 घंट े की 
ी आ  रही ह
 और क ्र
 निवास ी ग
मुख ्त
 की प ार्क
 शिक्ष ा नीति
 किया थ ा कि
ी च ंद
ी च ेक
 डिग्र ी की 
 जून  म
अपन ी ह
अपन ी ब
 को अ ंत
 को अ ंतिम
a  C
 उठ ाकर 
 ने स ड़क
 आर एसएस
 बंद  कर 
 प्रतिशत  ह
 की प्र स्तुति द
एच यू
 काफ ी ह
मुख्यमंत्र ी ने कहा कि
 सेव ा समिति
 सब क
इसके अलाव ा ब
धन ुष
ी हो  गई थ
जिला  निर्वाचन अधिकारी 
 एम ओयू
ीफ ाइनल
शिव ाज
शिव िर 
 किस ी बात
 सुरक्ष ा के 
 बत ाई
 अध िवक्त
 लाख रुपए  ह
ास्ट रमाइंड
ा के स बसे 
ा के स रकार
अग ्नि
अंत रिक्ष
 की तरफ ़
इसकी  वजह से 
 अपन ी ह
 का ब िजनेस
 का आयोजन  हुआ।

 रुपय े का 
परिवार  और 
ा च रण
 जैन  ने बताया कि
नेशनल :
 गोल ीब
 आम  जन
घोषण ा की थ
 उसक ी मौत
ैग न
 सभ ापति
 रहे थ े कि
पड़ ताल
ऊपर  से 
ोख र
पाद न
ॉम ेड
ॉम िनेशन
 फीसद ी की 
 R es
 ने बताय ा है कि
वै शाल
वै भव
ना क म
 पूज ा 
 का नाम  रोशन
ॉज िस्ट
घटना की  सूचना मिलते ह
 किलोमीट र तक
 महीने  पहले ह
 के ल क्ष्य
उसका  शव
ी कार्य कर्ताओं
 ने द िया 
 ने ह िस्सा लिय
तथ ्य
 फीट  तक
, ल खनऊ
कर्ष ित
े कुछ  दिन
 से र वान
 बुल ाकर 
 का भ ्रमण
 रण नीतिक
 विपक्ष ी दल
सव ाड़
 के बाह र ह
पर्य ाप्त
 लि हाज
 पर फ ोकस
 विज्ञान  विभाग
 करने के  आरोप म
ak h
चाई  विभाग
ा समय  म
सदर  अस्पताल
 पहन कर 
ंगन बाड़
 दुब े 
 विस्त ृत
विज िट
नुकसान  पह
 पंज ीकरण
 हफ्त े म
 से उ ड
इंस्प ेक्ट
लंबे समय  से 
चयन ित
 गंभीर रूप से घायल  हो गए।

वात ावरण
 सूचना मिल ी थी कि
 की रक्ष ा के लिए
 पुण ्य
र द्वार ा 
 पीज ीआई
um ar
किश ोर 
 फॉ र 
 को पू र्व
खोज बीन
 शी घ
 छात्र-छात्र ाओं
 की अन देख
बाबू  नायडू
आह्वान  किय
िड़क ाव
विशिष्ट  अतिथि
विनेश  फोगाट
छात्र-छात्र ाओं
ies el
स्ट्राइक रेट  से 
पियंस  ट्रॉफ
रीजन ल
 के तुरंत  बाद
- -
- ल
. gov
4 20
D SP
I I
I V
i tic
t or
w it
आ  गए।

आ चार संहित
औ चक निरीक्षण
ग जन
ग फल
ग र्भ
छ ताछ
ज ट म
झ ान
ड ीप
ड ायल 
द र म
द ोह
न र्मद
प ब्लिक
प ृथ्व
प शुप
फ ाटक
ब ाध
म ेन
म तलब
र ंजीत
ल ापता 
व ल म
व ापसी
श ो 
श स्त्र 
स  के लिए
स ेक
ह  ने स
ह  सैनी 
ा क्टर
ु स्लिम
ृ ष्ठ
ो ता 
ौ ने 
‌ ।

 क ाक
 क ार्ट
ी  विजय
ी  पीढ
ा  से म
ा  अस्पताल
ा  और कहा कि
 स ुल्तान
 स त्संग
 स ैकड़
 म ना 
 म ाइन
 म ूर्तिय
 प र्स
ान ा थ
 की  रह
स् नातक
 ज ॉइन
 ज िहाद
 द ी और 
ाम िन
ने  की सूचना 
 को  गलत
 व ंदन
 व ास्तव म
 से  आगे 
 का  राज
 का  मन
 का  अनुभव
 का  उत्पादन
 न ॉन
 न ंबर से 
ित र
 को  पह
 और  हम
 श िरकत
 पर  अब
ी क ल्याण
ी क ्रिकेट
ना  ड
 के लिए  आ
 के ब न
े क ्षेत्र म
 उ तर 
िस क
ा म र्च
ा म तलब
स्ट ॉक
ी स िस्टम
ी स ंभाल
ाब ड
 फ िसल
ुन िश्चित
्त र्गत
जन सभ
ा स ब
ा स ड़क
 ख ट्ट
 ट ीएम
दे र
यह  कार्यक्रम
यह  जानकार
 वि धिक
 के साथ  रह
 सम ित
 के बाद  उन्ह
ार् ग म
सी वरेज
 इस  वक्त
उस ी समय
ारी  रख
ेर ेप
 सं ज्ञान
 लग ाने 
र स ाह
ीज  म
 अप ने
ार्ट  अटैक
ने क ा कारण
 साल  के लिए
ी द िनेश
 के म ीडिया 
अधिक ारी म
 हुई  और 
ढ़ ते 
ाने  जाते ह
अपने  ह
ोद न
 की ब ढ़
 की ब िजल
भारत  और 
भारत  सरकार
ज् जर 
भाव ुक
र्ण न
सु पर 
 बजे  पह
ार्रवाई  की म
आप द
 विभाग  की टीम
िह ार,
 प्रति स्पर्ध
 शामिल  होकर 
 अपने  ग
उसके  परिजन
ना ह ी 
 सी आई
घटन ा के बारे म
चान े की कोशिश
 ' हम
पहल ी पारी म
 स्क ोर 
ेब िन
ेब ल पर 
शुरू  कर द
ा ग र्म
ुश ंस
 को द िया 
 कै म्प
 ओ र
 ओ पीड
 मै थ
पित ा को
खंड न
 अग ेन
ा त ोड़कर 
 एस .
से ठ
ा व र्ष
 ने क म
 ने क ाफ
जम ा कर
 नव म्बर
 करना  पड़ता ह
 सह ी नह
 की र ाष्ट्रीय
र ज ैन
ा अ मेरिक
13 4
दु ब
विभाग  ने 
 जम शेद
बेट े ने 
भी क ाफ
घायल  कर दिय
, प वन
 बताय ा है कि
 बताय ा गया ह
परिवार  के 
 की प्र ाण प्रतिष्ठ
ैट ेलाइट
रु द्र
 अगस्त  से 
 अगस्त , 
ल्ल ास
 तेज ी ल
 और ब िजल
 जिला  परिषद
दिल्ल ी पुलिस
 घटन ाक्रम
बहुत  बड
 समझ ौ
 समझ  नह
 C C
थाना  प्रभ
 अपन ी बात
नव म
छोट ा भाई
 P rad
 पान ी के 
 सड़क  किनारे 
जिन की 
 रुपय े की 
e  T
 जैसे  ही 
 बजे तक  
 लिए  थ
 आदि  मौजूद थ
अवैध  निर्माण
अवैध  कब्ज
क्ल ब
ॉम र्स
 ने बताय ा की 
बुल ंद
ेट्रोल  पंप
 अपना  नाम
नजर  रख
 अमेरिक ी डॉल
 चाह त
ा के क ुछ
र हो कर 
 करने की  अनुमति
 खुल कर 
ाइस  मिल
 विवाद  म
योजन ा ह
माल ्यार्पण
एज ुकेशन
िव्य क्ति
 व्याप ार 
ैब िनेट म
अगले  साल
र न ोएड
 मदद  मिलेग
ा के ब यान
 कुमार ने  बताय
िच ेल
ुझ ान
सीसीटीव ी म
 मेरे  लिए
 खोल कर 
िस्त ान म
 सेन ा की 
इनके  पास
 की रिपोर्ट  म
 प्रतिष्ठ ित
छोटे  बच्च
 दाव ा किया गय
गंभीर  हालत म
 की सुविध ा के लिए
 के लिए भेज  दिया ह
ायम ंड
 नश े म
 क्लास  म
निर ाकरण
 निवासी  ग्राम
 खंड व
 सुनवाई  नह
 बाह र से 
मान्य ता है कि
पूरा  परिवार 
जोध पुर म
 दव ाइय
 की र्ति
 नमः 

ी संघ र्ष
 गोल्ड  मेडल
की र्तन
शपथ  ग्रहण
 एप िस
 पटना  म
 को सम्मान ित किया गय
 साव ित्र
 सत्र  न्यायाधीश
 बहाद ुर 
 देस ी कट्ट
ाह्न वी क
 फैस ले 
 की फोट ो 
 ऑल राउंड
ान्व ित
 अनुसूचित  जाति
खाम ियाज
 प्रतिबद्ध  ह
 की अगुव ाई म
आख िर म
टर्म िनल
ोपह र 
 जनह ित
ओड िशा म
ंदे पर  लटक
 भुल ैया 
ेडिस िन
रोकर बुर ा हाल ह
पीरिय ंस
  th
% ,
,  को
- रुक
3 10
D .
M D
N .
S L
a har
आ दत
ई सी
क ंप
क ाउंटर
ख िताब
ग , 
ग हन
च िप
च ैन
च  पड़ताल
ज े 
ज र म
ड ,
ड ोड
त  कराय
द ी गई
न ितिन
प ेड
फ ैसले
म  
म ग्न
ल ादेश
व ई
व ैस
व ाया थ
व र्ध
श ीद
श शि
ह ीन
ह ाउस
ह  के नेतृत्व म
ि )
ु र्व
ु क्क
े फ्ट
े रहमी से 
ो ने का 
ो यल
 क ूल
ी  विधायक
ी  ठहर
ा  गए।

 स िव
 स गे 
 स रोज
 स िरस
 स ऊदी अरब
 स ोसायट
 म ुल
 म मता 
 के  जन्म
ार ूक
 प ारिय
 प ैक्स
ान ्ह
ने  फ
ने  पहले 
िय ात
 की  वोट
 की  गलत
 की  गोली मारकर 
 की  इकोनॉम
 ब ाई
 ब ता रह
 ब काय
स् मिक
 ज ेप
 ज श्न
ा क ाल
ां ।

ा ह ाईकोर्ट
ा ह ादस
ने  की स
 को  शुरू
 व ेड
 से  पह
 से  भी म
 से  सम्मानित
 न ष्ट
ित रण
 ने  ये 
ी ह ाई
 आ तंकी 
प्र ोट
प्र कट
 और  देव
 और  तीन
 श ील
 कि  जब
 कि  वो 
 कि  अगर 
पु ख्ता 
ले ने के लिए
ी म ार्ग
ति रुप
ा कि  उन्ह
 च ार्ट
ी क नेक्शन
क्ष त्र
 के स ंदर्भ म
वि जिल
ुर ल
 थ िए
 उ ग
ा म ंगल
 रह मान
वाल ी 
ी स ब्ज
ंग नव
जन सुनवाई
एक  सप्ताह
ुल ाल
ा स र्व
ंड क
 ट े
 वि भाजन
ंब ाकू
 के साथ  अपने 
 सम ापन
 सम ृद्धि
नह र
ोल ्लास
 इस  क
उस को
ी के  ग
 घ ात
 लग व
 तक  म
 तक रीबन 
ीट र
र्ज ी 
एस आर
र स ड़क
 दे ने के 
ख्य ात
सी  ए
सी  देश
 पु तिन
जान कार 
सं रक्षण
ा द े रह
 बन ाने क
 के द म
िम न्य
िम िनल
ी ज ीवन
ीच ार्ज
 ( पढ
सभ ी का 
 की म ाल
 की ज ाएंग
 की ज मानत
ा और  उन्ह
 वह  एक
ी और  एक
सल ाम
 जिस से म
 सर ाहन
ंप ति
ाकर  स
 की ब ैटर
भारत -
पाल  यादव
 को ब र
 को ब ारिश
 को ब धाई द
 कुमार  व
 आय कर 
गिर िडीह
 जब रन
र ब ीम
ा प र्व
 लाख 

उप भोक्ता 
 रख ी ह
ाउ ंसम
पुलिस ने  आरोप
 क्य ा हुआ
ार्रवाई  करते हुए
ार्रवाई  की जाएग
द्र  (
आर ाध्य
 पूर ा हो
रव नीत
भी 

 श्र ी कृष्ण
 जो  उन्ह
भग द
 स्व तंत्र 
ने बताया कि  यह
ी र ेल
ी र मेश
ा से  लेकर 
 को द िय
 मै र
 तो  कुछ
 राज्य  स्तरीय
 लोक  सेवा आयोग
ा व ै
 हर  कोई
अव धेश
ा ल िया गया ह
यान ि
 स्कूल ी बच्च
 की र कम
मुख िया 
ोस िस
पीट -पीट
 के सम स्त
 को ज मानत
ी मह ोत्सव
ारी की से 
ूत पूर्व
शाम  करीब 
 के ज ंगल
 करव ाया जाएग
मित ्र
 शिव राज स
 की अ ंत
a  T
 आए  और 
ूड ो
 डॉ क्यूम
ब्र ी से 
 की थ ीम
ौन  ह
निर्माण ाधीन
पद ार्थ
शाद ी 
शाद ीशुद
 मोद ी ने 
 मई  को
रेल वे
 का द ौर ज
 बहुत  ज्याद
 बहुत  अच्छ
अग ुव
ारी म ंत्र
राय सेन
 ड्र ॉ
 सामने  नह
ार द िया थ
ी य ाचिक
सूचना  पाकर 
 साह िल
खुद ाई
खुद कुश
द्र मोद ी 
ा के साथ  ही 
किस ी तरह
 को ख ूब
 को ख ंगाल
 लिख ा थ
 A D
सह ज
 को त ोड़
, व ै
 बल्कि  यह
ीएस ई
ी ए क्ट्रेस
 इंटर नेशनल म
 अफ वाह
ता रह ता ह
ैक्स ीन
 यून ुस
ठग ी का 
 एंड ्र
 सो ने
 होने  की बात कह
 गल ी म
र फ ाइनल म
साम ग्र
 नद ी के 
िक म जिस्ट्रेट
 की छ ूट
ानि ध्य म
 खुश  ह
han g
घेर े म
 के पित ा ने 
बिजल ी विभाग
भावन ात्मक
पै र म
यूप ी 
 डायर ेक्टर
 इक बाल
ऐसी  स्थिति म
रिश्त ेदार 
एयरपोर्ट  पर 
 गुजरात  म
 के उप ाध्यक्ष
हुई  थ
झूठ  बोल
 बनी  थ
ी थाना  प्रभारी 
बीएस एफ
ा मु ह
 गुर्ज र 
टक्कर  इतनी 
ऑल राउंड
 की ट िप्पण
े हाथ  म
स्त्र ी 
 वारदात  को अंजाम
सहित  अन्य
 रेफर  कर दिया गय
 प्रश ंस
 से छ ूट
 कर दिए  गए ह
नौ ल म
 लंबे समय  तक
दब िश
स्पी कर
जेल भेज  दिया ह
 खूब सूरत
ाने का प्रयास  किय
भाषण  म
 क्रम श
 एमएम  बारिश
 की सूच ी म
 अत्य ंत
वृ त्ति
ा नगर  निगम
लालू  यादव
 का शिक ार हो 
 जबल पुर 
 कथित  तौर पर 
अब्द ुल्ल
 को पू र्ण
उत्तराखंड  म
 बेस्ट  
 माध्यमिक  विद्यालय
ी बीम ारिय
 का ख िताब
 के खेत  म
 शॉर्ट  सर्किट
 दूसरी ओ र 
ा पहन ाकर 
 वस्त ुओं
 के संक ेत
 एक् सील
ी झंड ी दिख
 ऐश्वर्य ा राय
ी नायब  स
विकेटकी पर
 की जय ंत
फरवर ी म
 के ज़ रिए
" ।

,  धर्म
- प्रशासन
2 25
G o
M S
T C
l 

p s
अ ध्ययन
आ तिश
आ खिर 
ऋ तिक
ए )
ए ट
ए ंगल
ओ र स
क ोहल
ग ।

ग ने पर 
ग  करने लग
च लिए
च मक
च िराग पासवान
छ लिय
ज ोग
ज ताय
ट ंकी 
ड ेल
ड िस्प
त त्
त ृतीय
थ ी कि
द ायक
द ैनिक
द िक्कत
न ,
न ंबर
न  राम
न शील
प  
प र्स
ब िस
ब ैर
भ ी हो
भ टक
भ ्रमण
म जदूर
य ा क
र े 
र ेस
व  की 
व ाम
व ाक
व ीज
व ा दिय
श ाज
श र्ट
श ेयर 
स ाड
स ूत
स ोई
़ त
ा !

ि '
ू '
ो कर 
ो क्ष
ो क्स
े  पर क
ा  लाल
 स के 
 स द्
 के  ध
ार ित
ान ्नि
 ह िसाब
ने  गए
िय ाम
 की  परेशान
 की  आयु
 ब र्थ
 ब ेब
स् नेह
 ज ैसल
 ज सव
 ज ेपी नड्ड
 ज दयू
ा क िया गया थ
 र ूल
िल  म
ने  की जगह
 को  तेज
 व ॉक
 व ास्तविक
से  और 
 से  विधायक
 से  समझ
 ल ीज
 का  निधन
 न  कह
 न ौजवान
 ने  "
 ग िफ्ट
 ग ायन
 ग ़ज
 भ तीज
 भ ी है कि
 त न
प्र कृति
प्र ाकृतिक
ेश  पाठक
 और  उनका 
 श िख
 श ून्य
 श ताब्द
 कि से 
ले क्स
 ए सीब
ी म ौसम
 च रम
 च ूक
 च ेतन
 य ानि
 के लिए  अपने 
 के स िर पर 
 उ सी
्ह ान
ा म ेर
ी स ुध
ी स े काम
 फ ीड
ुन ैद
स्त ूर
पर ेख
 ड ेड
 ड ीप
ीन ाम
ा स िस्टम
 ट ंडन
 इ ंज
ाक ार 
 वि द्वान
नि चले 
ी, 

 के साथ  पह
 के साथ  छ
सर ल्लाह
सम ापन
ा ज ताय
 हो  और 
सी कर म
ा के  चलते 
पुलिस  को सूचना द
 घ ड
ा की  प्राण प्रतिष्ठ
 लग ान
 लग  रहा ह
 मिल ा 
ी की  रिपोर्ट
एस ई
र स ेव
र स ंघ
मान ा जाता है कि
भाग  लिय
ा द ो
ा द ौर
ा ब ाई
 बन ाएग
 बन ाई गई ह
 के द स्तावेज
ीड ीए
कि  क
ी ज ेल
ी ज ोन
 ( ज
 की म ॉर्च्युरी म
रण ध
ोज िट
 साल  से अधिक
 यह  नह
ी द िवस
 के म तदान
 के म हासचिव
ीक ेशन
स्व देश
ा कर ने और 
 अन ीता 
 तो  आप
ेम ीफाइनल म
ी प क्ष
ी प ंजाब
पुर  जिले के 
 की ब त
भारत  के लिए
जय पुर से 
न म िश्र
ेय र ह
स्य  पदक
,  "
,  S
 को प द
 गय ा कि
डी सी
 ट्र ेनी 
श्र ी अ
श्र ी कृष्ण
 ले फ्ट
 जन संपर्क
जानकार ी म
 हज ार ह
और क ई
ी ग ंग
ी ग ंभीर 
 से ब ढ़
िल्ल त
 के प्र चार
 पूर ी कर ल
अल ्ट
 के त त्कालीन
 हुए  और 
 ग्र ह
 जान त
 जान ा जाता ह
 जिल े क
 श्र ीक
, स हायक
 स्व ी
 काम  करता थ
 के न व
 के न ारे लग
 दर्ज  नह
 अव ध
 से ह ार 
 से ह ी स
भाजप ा सरकार
 कै दिय
इससे  पहल
शिकायत  के आधार पर 
ी श ह
 झ ड़प
दर ोग
 से स ंबंध
 लोक सभा क्षेत्र
ी आ गे 
 ने क ्य
फिर  उन्ह
 नव जात
, म ंगल
ा र ेल
18 6
ी मह सूस
ता द िल
ा हो ना 
ा हो ते हुए
 करव ाने
र और  म
 की मौत  हो चुकी ह
बात  कर
ब्र ज
 सहित  सभी 
 का म ार्ग
 का म ुकाबल
, र वि
े रह ते ह
़ें ः
युव ती 
 नगर  पंचायत
बैठ े 
शाद ी की 
 दिस म्बर
टी ए
 एम ्स
 घटन ाएं
at ur
 लाख रुपए  म
 का द ुरुपयोग
 अधिकारी  ड
 अधिकारी  और 
 कंपन ी को 
ा के स भी 
 आयोजित  की गई।

े ब ंद
 से ज्याद ा म
, ज िसे 
 ऐस ी ह
 ऐस ा लग
ल्कि  
 किए ज ाने का 
अध्यक्ष ता 
 की आ लोच
थान ा के 
 एक्स प
ाभ ्यास
 योजन ा का 
 आम तौर पर 
 की जानकार ी देते हुए
 है और  वह
 के निर्देश ानुसार 
लेक्ट्र ेट म
मामले  को लेकर 
 R e
 दर्ज कर ाई।

संग ्राम
 नवंबर  को
 पूज ा अर्च
 मत गणना 
 हाथ रस
 ऑफिस र 
en t:
वीडियो  भी 
 उपलब्ध िय
विपक्ष ी दल
ी की म ौत हो गई।

 कार  ने 
 कार  चालक
ी कार्य ालय म
ंडी शन
 के बेट े
 तैय ार नह
 फोट ोज
निर्णय  लिय
 रोक ने के लिए
 फीट  ऊंच
तलाश ी ल
 मंत्रालय  ने 
 जन्म ोत्सव
ैक्ट्र ी म
 कौन  स
ना चाहिए  थ
ाधीश ्व
 पर ग ंभीर 
 बिग ड
जारी  रहेग
 की रिपोर्ट  के मुताबिक
 का उ त्साह
 की घटन ाओं
 से द ूर
 का व ेतन
लाख  रुपए
ियत नाम
 युवत ी ने 
शि ष्ट
 दुर् घटना 
 मुख िया 
 महाम ंडल
रविवार  रात
ओम  प्रकाश
 नौ सेन
बावजूद  इसके 
 के उप लक्ष्य म
 V rat
गो वंश
 रिस ीव
-च मक
 लेत ा ह
 लेत ी ह
)  ॐ
 मुझ से 
 मानव ीय
घटनास्थ ल पर पह
IP S
 घट कर 
ऑल आउट
 बादल  छाए रह
 अमृत सर
पलट  गई।

लिखित  म
गुरुवार  सुबह
ी ढ ंग
 आर्म ्स एक्ट
गोल्ड न
इंस्टाग्राम  पर 
अवगत  कर
िर ह ुसैन
लड़क िय
 तुल सी 
संभव  नह
पश्चिम बंगाल  म
 रिल ेशनशिप
अतिक्रमण  हट
ी कोर्ट  म
 मुठभ ेड़
ते नजर  आए।

 के हित  म
 दीव ान
 रेज िड
 करनी  पड
जनवर ी म
 का हवाल ा देते हुए
 के मौसम  म
आग पर काबू  प
 डाउन लोड
 टक्कर म ार द
ेर ल िय
ा मोट र्स
ास्प द
जुर ाह
 की कह ानी 
 का सिल सिला 
ंपई  सोरेन
माझ म
,  तीन
ं वर 
अ ंध
अ र्थव्यवस्थ
आ स्थ
आ समान म
आ नन-फानन म
क ्यू
ख ाड
ख ाने म
ग  लग
ग ोध
ग  हुई थ
घ र स
च  वर्ष
च ने म
झ ालाव
ट  ड
ट खट
ण ्ट
द नी 
प ंड
फ ीचर्स
ब िक
ब ेब
म िर
य ा प
ल श
ल ्स
ल ुधियाना 
व  के एक
व िवि
श य
श िल
श ो म
श िष्ठ
श ॉट
श ातिर 
श ैतान
स ाय
स िस्टम
ह द
ह  के खिलाफ
ह  कुशवाह
ा के 
ा स्वाम
ि ्
ू ढ
े ‎
 क न्व
 क ेमिकल
 क स्बे म
ी  इन
ी  परिवार
ी  एक्सप्रेस
ी  ये बात
ा  एज
ा  स्नान
 स ोशल
 म वेश
 म ॉड
 म ल्ट
 के  '
ार सी 
ार ी कर
ार ावास
 प 

 प ेर
 प ालक
 प ाकिस्तानी 
 ह ेरिटेज
र् न म
्य म
्य वह
 ब ेद
 ब िस्त
 ज ा सकते ह
िक ल म
ा क र म
ा क ंपनी 
 र ाइट
 को  इन
 को  राज्य
 को  लगातार 
 को  आवश्यक
 व ंदे भारत
 अ म्ब
 से  आई
 से  खरीद
इस ी दिन
इस  मूव
 न  सिर्फ
ित  
ात ः 
 ने  छात्र
 ग ढ़
 ग गन
 भ ट
 आ ंशिक
पु ष्य
 प्र थ
ाई  नह
 च म
ी क ड
 य ूर
वि परीत
 कर  ब
 कर  एक
रो क्त
 थ े कि
िस िस
ा म ाहौल
 रह  रहे ह
ते ह ी पुलिस
ाग ल
ी स िद्ध
री ना 
री वा म
पर ियोजना 
पर माणु
एक  
 ड ेल
 ड ायवर्ट
 ख न्
 हो ता है और 
20 5
 ट ास्क
लग ा कि
पी प
ीम ेल
ुम र
यह  दिन
 वि मल
अप ना ह
र क ा ह
 के साथ  इस
ा ज ल्द
ार् सल
सी ढ
 मह ल
उस ने कहा कि
ी के  दर्शन
 लग ता है कि
िट  म
र स िट
 दे ना चाहिए।

र से  अधिक
सं ख्या 
क्र ीम
 पर शुराम
ा ब ्लॉक
 बन ाई
पुर  के ब
 ( एम
सभ ी को
 की म ुलाकात
रण बीर क
ा और  अन्य
 को स ुनवाई
ी द िक्कत
स्व .
ताल िबान
 दिन  से 
ग्रेस  पार्टी के 
ग्रेस  उम्मीदवार 
ी से  भी 
ी प ्लान
 ध ाक
 लेकिन  वो 
दू  धर्म
मह ान
ी न ाबालिग
ी का  पर्व
ी त ैनात
सद  म
 हुआ  तो
 भारत  के लिए
र द ी ह
 जब  
र ब ना 
जह र ख
ायक ेल
 को प ीएम
 का क ेस दर्ज
उप लक्ष्य म
 बजे  से ह
पुलिस ने  मामला दर्ज
द्र  व
आर बीआई
 के त माम
 जिल े से 
ा न व
लोक सभा क
भग व
 स्व .
 टीम  का गठन
रख कर 
गिरफ्तार  किए गए
इस दौरान  वह
 अव सर 
ा ग ठबंधन
ेष ण
ी कर प्शन
 कै र
 ओ बीसी 
इससे  पूर्व
, ब िजल
 आई पीएल
जीत  कौर 
ी प्र दान
 चुनाव  प्रचार
 से क्टर-
ा त था 
दो  बच्च
से  कर
ा व र्म
ी आ नंद
an n
 और क ार्य
नेत ा म
 के ह ेड
 प्रदेश ाध्यक्ष
ी कि सी
 निवास िय
े और  उन्ह
 ये  सब
आग े क
र ज ैसे 
ा अ ग्रवाल
13 7
 को न श
ी मह ेश
 लेकर  आ
, क ृष्ण
 और स ेव
 दूसर े म
 पूर्व  स
 इंड िया क
 क्र ेडिट
 भी क िया ह
सरकार  को 
बात  नह
 की अ र्थव्यवस्थ
 दो  पक्ष
 बताय ा जा रहा है कि
 कल ्च
 ई द
 जुलाई  को
मुख्यमंत्र ी योगी आदित्यनाथ
मुख्यमंत्र ी अरव
 सेव ानिवृत्त
पोर्ट ल
 स्त र के 
ा कर द ी ह
 जगह  नह
असल  म
शिव ल
प्ल स
 विधान सभा क
बहुत  कम
े ज ाने के बाद
 की ख ूब
 की तरफ  से ज
 भाग  लेने के लिए
 की आ खिर
इसके लिए  उन्ह
कन  पत्र दाखिल
 शह र से 
-ब िरंग
जानकारी के  अनुसार
 जात ा थ
ल्ले वाल
ल्ले खनीय
 की ल ूट
 व्यवस्थ ा म
 शिकायत  म
ा मह िला 
 लिए  ह
ी पुलिस ।

 भी म ान
 को एक  साथ
सिक  टीम
ना चाह ती थ
जे क्शन
 सितंबर  को
 घर  के बाहर 
ा ट र्म
 मंदिर  पह
बढ़ कर 
 पूरे  देश
 की तलाश  कर रही ह
 शव  को कब्जे म
 K apoor
 के सं रक्षक
शराब  प
 गल त ह
 लोकसभा चुनाव  
 टेस्ट  मैच
इमेज  स्रोत
ay an
 मदद  करेग
 के मह ंत
 कु चल
 जिसके  तहत
युवत ी को 
 सिट ी म
 रो जाना 
नाक ाबंद
 जन्म दिन
ol d
ol lection
ता के  आधार पर 
जानकारी द ी गई।

नात को
 सिल सिल
र सक ती ह
निर्म ात
 राठ ौड़
 पर द बाव
 के बाह र स
 अगले  साल
ऑट ोम
ी पह न
ab h
ट्रैफिक  पुलिस
 तहसील दार
 लि व
िठ ाइय
 उत्पाद क
तेल ंगान
अनिल  विज
ंजूर ी मिल
 अज्ञात  वाहन
ा किसी  भी 
 पर चर्च ा क
 की जान  बच
 बाहर  निकल
 का ट ारगेट
 ओल ंपिक
 इंस्प ेक्टर
ak sh
ी पद  की शपथ
ग्वालिय र
 की परीक्ष ा 
बीच  म
अस िस्ट
 प्रोफेस र 
ी समेत  कई
 उतार ा ह
 के निर्माण  म
 शनिवार  सुबह
 रज िस्टर्ड
 डीज ीप
विधानसभा  से 
विधानसभा  अध्यक्ष
ी कॉलेज  म
ंध्र  प्रदेश म
 को लेकर  कोई
 अंड र 
 इस ब ीच
इंडस्ट्र ियल
 तत्व ावधान म
दुर् घटन
वॉ श
लड़ के 
 उद् घाटन
इट म
 हस्त िय
रेव ाड़
 दम कल
प्रचार क
 स्वतंत्र ता 
 बहाद ुर
 पर ध्यान  क
 आक्रोश ित
हेम ंत सोरेन
 का ध्यान  रख
 पटन ायक
-उ धर 
इज्ज त
पशु ओं
अप्रैल  
 नवर ात्र
 की अगुव ाई
 व्यवह ार
 की ड्यूट ी लग
Weather  Updat
ग्राह िय
जगीर -च
 CC TV
तिरुप ति
  ज़
,  विधायक
- समय
9 50
A aj
I )
ं कर म
आ धे 
ए रिया म
क ेश
ग ाड़िय
ग ंभीर
च ा 
छ ात
छ ुप
ज मेर
झ ूल
ट ैक
ड ई
ड ोनाल्ड ट्रंप
थ ाल
द ार म
द ुनिया म
न ंब
न ीयत
प ्न
प ल्ल
प ी गई ह
प ेरिस ओल
फ ाय
ब ाण
य मंत्र
य ा नह
र ार 
र दार
ल ाया गय
श ौक
ष म
स ट
ह  ढ
ह िरासत म
़  म
ि ब्र
ि र से क
ी आर
ु र्स
े  किसी भी 
े स्ड
ो  ह
ौ गात
े  जाने वाले 
ी  भाग
ी  ग्रुप
ा  ग्रुप
 स वाई माधो
 स ोशल मीडिय
 के  ऊपर
 के  लिये 
ार ी बारिश
 प ोज
 ह क
 ह ायर स
ने  वह
ने  आगे कह
 की  तिथि
 की  वसूल
 की  स्वीकृति
र् द्ध
 ब ड़
 ब राब
 ज ोकि
ा क दम
 द ंत
 द ल म
क् वार
ने त्र
ने  के बारे म
 को  आगे 
 को  उपचार के लिए
 ल ुधियाना 
इस  अभियान
 कर ाई
ित  किया गया ह
 ने  उसक
 ने  शुक्रवार को 
 ग न
 भ ी

 भ ी की थ
ाज ू
ी ह ुए
े ह िस्से म
ास द
 पर  चुनाव
 पर  भारी 
ले बाज
ले रिया 
ाह ित्य
 च िर
 च ैट
 के लिए  नह
 के ब गल म
ाइ का 
े क मरे म
 कर  ले
रो त
रो र
 उ छाल
ा म ेडिकल
ते ह ी म
ता  बन
ी स ंक
ुन ून
िश ास
स्त ैद
एक  यूजर 
ुल र 
 हो कर क
ुक ुट
 ट र्न
 ट ुकड
लग ाए गए
ंब ेडकर
र क ्र
 के साथ  ल
 के साथ  खड
सी एफ
ी के  पित
राज भवन
 लग ाने का 
धान  खरीद
 पु जारी 
ेड ीए
 बन ाते ह
 बन ाती ह
 ही  यह
ीच  म
ने क ाम
 साल  पुरान
ी ने  यह
िज ोरम
 छ तर
 को स पोर्ट
 की स हमति
सल ीम
ाना  नह
 तो  एक
 सर ाफ
 सर गुज
 लेकिन  अभी तक
 की ब ड़
जिस ने 
क्स ौल
ुस ेन
ी न ाल
र ह ै कि
ूं .

 कम जोर 
ोम ेट्र
,  ओडिश
 का क ुछ
ने की  धमकी द
डी ईओ
 स्ट ॉल
 से ज ोड़
पुलिस ने  बताय
 व्य ावसायिक
 की त स्वीर 
 के बीच  एक
12 4
ी ग ौतम
ने का  आदेश
गे  ने 
ाएं  हाथ
अल ्ट्र
 जान ने के लिए
दो  पक्ष
निर् वह
 स्क ैन
 के न िवेश
ेब ंद
 चौ के और 
ाने के लिए  
 इन  लोग
तीन  दिवसीय
वन डे 
 देख ते हुए
दूसर े म
टना  म
ाया ज ाता है
ा प्र शासन
ा प्र काश
 ओ प
अभ ि
ी श ाह
 देश  की 
धर न
धर ने पर बैठ
ी प्र खंड
 समय  सीम
 से लेब्स
 और क ॉलेज
 रूप  से कम
 कार्रवाई  क
 सरकार  द्वारा 
 बह ु
ने लग ते ह
 किया थ ा और 
 को ज ाम
 बैठ ाकर 
 कर दिय ा कि
गत िविधि
 की ओर से  आयोजित
बेट े की 
ंडल  अध्यक्ष
मित ्त
 भी क िया थ
 को अ दालत म
 दो  साल
ी हो कर 
 बताय ा जा रहा ह
a  E
उनकी  पत्नी 
उनकी  जगह
 यात्र ा पर 
 खेल ा गय
 हो सक ती है
 के नाम  से जान
 कुमार  के रूप म
जल भराव
 और म ात
इलाज  म
 वोट र 
पिछले  साल 
 की द ीवार
शिव राज
ा हो  जाएग
पल वल म
 जल ाकर 
प्ल ॉट
 विधान सभा क्षेत्र म
एड मिट
 के  किसी भी 
ानून ी कार्रवाई
 पुर ाण
 भर्त ी क
मृतक  के शव
कार्यक्रम  की शुरुआत
 अल ्ट्र
 माह  से 
ा बन ाय
 से प ैसे 
भेज  दिय
 हजार रुपए  का 
 योजन ाएं
परिवार  से 
ियोग ी परीक्ष
 का ज ीवन
नेशनल  हाईवे 
 के श ुभ
 हाल  म
 के अंद र
 की जानकार ी 
 सोन िया ग
 मामले  को लेकर 
 नजर  नह
 नजर  आई
 B ox Offic
 भी ह म
अवैध  खनन
or d
 हजार ीबाग
 पित ृ
ी के स भी 
वै क्स
कह ते ह
 ने प ाकिस्तान
ी ट ेस्ट
 वापस  नह
 भर्ती कर व
 मौसम  विभाग ने 
 वै भव
स्वागत  किया गय
ी राज नाथ स
पर क लेक्टर 
 स्म ैक
 दूसरे  नंबर पर 
 बी ए
ी महिल ाएं
वो  कहती ह
 के अंत  तक
 पता चल ा है कि
र हो  जाएग
वा  चल
र आ दि
 हो प ाएग
मेरे  पास
ी कह ानी 
 बुल ाय
कोट िक्स
 याचिक ाक
 कुश ल
ी के ब यान
शान  घाट
रास्त े 
ी मु द्र
समेत  अन्य
 राठ ौर
 आने वाले  दिन
 ट्रक  चालक
चौधर ी ने 
ऑट ो म
 की घोषण ा क
समस्य ाओं
 युवत िय
 बजे  के आसपास
 कैमर े म
 रविवार  को
 की शाद ी म
फिर ाक म
वा द िया ह
 पौध े 
ुधियान ा म
ी हम ले
 को बुल ाय
 इंट र कॉलेज
सदर  अस्पताल म
 मार्क ेट म
कोई  भी 
[...]
