{"\n":0," ":1,"!":2,"\"":3,"#":4,"$":5,"%":6,"&":7,"'":8,"(":9,")":10,"*":11,"+":12,",":13,"-":14,".":15,"/":16,"0":17,"1":18,"2":19,"3":20,"4":21,"5":22,"6":23,"7":24,"8":25,"9":26,":":27,";":28,"<":29,"=":30,">":31,"?":32,"@":33,"A":34,"B":35,"C":36,"D":37,"E":38,"F":39,"G":40,"H":41,"I":42,"J":43,"K":44,"L":45,"M":46,"N":47,"O":48,"P":49,"Q":50,"R":51,"S":52,"T":53,"U":54,"V":55,"W":56,"X":57,"Y":58,"Z":59,"[":60,"\\":61,"]":62,"^":63,"_":64,"`":65,"a":66,"b":67,"c":68,"d":69,"e":70,"f":71,"g":72,"h":73,"i":74,"j":75,"k":76,"l":77,"m":78,"n":79,"o":80,"p":81,"q":82,"r":83,"s":84,"t":85,"u":86,"v":87,"w":88,"x":89,"y":90,"z":91,"{":92,"|":93,"}":94,"~":95,"":96,"":97,"":98,"":99,"":100,"":101,"":102,"":103,"":104,"":105,"":106,"":107,"":108,"":109,"":110," ":111,"¡":112,"¢":113,"£":114,"¤":115,"¥":116,"§":117,"¨":118,"©":119,"ª":120,"«":121,"¬":122,"­":123,"®":124,"°":125,"±":126,"²":127,"´":128,"µ":129,"·":130,"¹":131,"º":132,"»":133,"¼":134,"½":135,"¾":136,"Á":137,"Â":138,"Ã":139,"Ä":140,"Å":141,"Ç":142,"É":143,"Ô":144,"Ö":145,"×":146,"Ø":147,"Ü":148,"ß":149,"à":150,"á":151,"â":152,"ã":153,"ä":154,"å":155,"æ":156,"ç":157,"è":158,"é":159,"ê":160,"ë":161,"ì":162,"í":163,"î":164,"ï":165,"ð":166,"ñ":167,"ò":168,"ó":169,"ô":170,"ö":171,"÷":172,"ø":173,"ú":174,"ü":175,"ý":176,"þ":177,"ā":178,"ć":179,"ē":180,"ğ":181,"ī":182,"İ":183,"ı":184,"ł":185,"ń":186,"ŋ":187,"œ":188,"Ş":189,"ş":190,"š":191,"ū":192,"ű":193,"Ž":194,"ƒ":195,"ǎ":196,"ɔ":197,"ə":198,"ɛ":199,"ɜ":200,"ɨ":201,"ɪ":202,"ʀ":203,"ʁ":204,"ʊ":205,"ʺ":206,"ˈ":207,"ˌ":208,"ˏ":209,"ː":210,"˙":211,"˚":212,"˛":213,"˝":214,"́":215,"̃":216,"̈":217,"̊":218,"̋":219,"̏":220,"̨":221,"̵":222,"̈́":223,"Α":224,"Δ":225,"Ε":226,"Μ":227,"Φ":228,"Ω":229,"α":230,"β":231,"γ":232,"ε":233,"ζ":234,"θ":235,"κ":236,"λ":237,"μ":238,"ν":239,"ο":240,"ρ":241,"ς":242,"τ":243,"φ":244,"ω":245,"Б":246,"Г":247,"З":248,"И":249,"К":250,"М":251,"О":252,"П":253,"С":254,"Т":255,"а":256,"б":257,"г":258,"д":259,"е":260,"и":261,"й":262,"к":263,"л":264,"м":265,"н":266,"о":267,"р":268,"с":269,"т":270,"у":271,"ф":272,"х":273,"ы":274,"ь":275,"я":276,"ё":277,"ћ":278,"ה":279,"ח":280,"י":281,"כ":282,"מ":283,"פ":284,"ש":285,"،":286,"؛":287,"؟":288,"ء":289,"آ":290,"أ":291,"ؤ":292,"إ":293,"ئ":294,"ا":295,"ب":296,"ة":297,"ت":298,"ث":299,"ج":300,"ح":301,"خ":302,"د":303,"ذ":304,"ر":305,"ز":306,"س":307,"ش":308,"ص":309,"ض":310,"ط":311,"ظ":312,"ع":313,"غ":314,"ـ":315,"ف":316,"ق":317,"ك":318,"ل":319,"م":320,"ن":321,"ه":322,"و":323,"ى":324,"ي":325,"ً":326,"ٌ":327,"ٍ":328,"َ":329,"ُ":330,"ِ":331,"ّ":332,"ْ":333,"ٓ":334,"ٔ":335,"٠":336,"١":337,"٢":338,"٣":339,"٤":340,"٥":341,"٦":342,"٧":343,"٨":344,"٩":345,"٪":346,"٫":347,"٬":348,"ٰ":349,"ٴ":350,"ٶ":351,"ٸ":352,"پ":353,"ٿ":354,"څ":355,"چ":356,"ژ":357,"ک":358,"ڪ":359,"ګ":360,"گ":361,"ڵ":362,"ں":363,"ھ":364,"ۀ":365,"ہ":366,"ۂ":367,"ۃ":368,"ۆ":369,"ی":370,"ێ":371,"ے":372,"۔":373,"ە":374,"۰":375,"۱":376,"۲":377,"۳":378,"۴":379,"۵":380,"۶":381,"۷":382,"۸":383,"۹":384,"ܔ":385,"ܜ":386,"ก":387,"ง":388,"แ":389,"ა":390,"გ":391,"ე":392,"ვ":393,"თ":394,"ი":395,"ლ":396,"მ":397,"ნ":398,"ო":399,"რ":400,"ს":401,"უ":402,"ქ":403,"Ḥ":404,"ṇ":405,"ṯ":406,"ủ":407,"ἐ":408,"ἥ":409,"Ἴ":410,"ῖ":411," ":412," ":413," ":414," ":415,"​":416,"‌":417,"‍":418,"‎":419,"‏":420,"–":421,"—":422,"―":423,"‘":424,"’":425,"‚":426,"“":427,"”":428,"„":429,"†":430,"•":431,"…":432," ":433," ":434,"‪":435,"‫":436,"‬":437,"‭":438," ":439,"′":440,"″":441,"‹":442,"›":443,"※":444,"‼":445,"⁄":446,"⁉":447,"⁠":448,"⁣":449,"⁧":450,"⁩":451,"⁪":452,"⁭":453,"⁮":454,"⁯":455,"⁰":456,"₂":457,"₩":458,"€":459,"₹":460,"⃣":461,"℃":462,"№":463,"™":464,"Ⅲ":465,"←":466,"↑":467,"→":468,"↓":469,"⇆":470,"⇐":471,"⇔":472,"∀":473,"∆":474,"∈":475,"−":476,"∗":477,"∘":478,"√":479,"∴":480,"≈":481,"≠":482,"≡":483,"≤":484,"≥":485,"⊞":486,"⋆":487,"⌘":488,"⏳":489,"⏺":490,"▐":491,"■":492,"□":493,"▪":494,"▫":495,"▬":496,"▲":497,"▶":498,"►":499,"◀":500,"◄":501,"◇":502,"◊":503,"○":504,"●":505,"◦":506,"◽":507,"◾":508,"★":509,"☆":510,"☚":511,"☺":512,"☼":513,"♊":514,"♒":515,"♡":516,"♥":517,"♦":518,"♪":519,"♫":520,"♬":521,"♯":522,"⚡":523,"⚽":524,"✅":525,"✋":526,"✍":527,"✓":528,"✔":529,"✕":530,"✤":531,"✭":532,"✳":533,"✵":534,"❇":535,"❌":536,"❗":537,"❤":538,"➌":539,"➐":540,"➕":541,"➖":542,"⟨":543,"⟩":544,"⦁":545,"⬅":546,"《":547,"》":548,"「":549,"か":550,"き":551,"ど":552,"ま":553,"メ":554,"モ":555,"ヤ":556,"㎡":557,"一":558,"东":559,"事":560,"人":561,"件":562,"前":563,"十":564,"台":565,"命":566,"坛":567,"外":568,"天":569,"子":570,"孫":571,"將":572,"撫":573,"斐":574,"旗":575,"日":576,"月":577,"朝":578,"本":579,"樹":580,"湾":581,"灣":582,"爱":583,"生":584,"甲":585,"碌":586,"神":587,"臺":588,"英":589,"蔼":590,"语":591,"谷":592,"軍":593,"锦":594,"门":595,"革":596,"도":597,"라":598,"아":599,"장":600,"티":601,"":602,"":603,"":604,"":605,"":606,"":607,"":608,"":609,"":610,"":611,"":612,"":613,"":614,"":615,"":616,"":617,"":618,"":619,"":620,"":621,"":622,"":623,"":624,"":625,"":626,"":627,"":628,"":629,"":630,"":631,"":632,"ﮔ":633,"ﮥ":634,"﴾":635,"﴿":636,"ﷲ":637,"️":638,"ﹼ":639,"ﺁ":640,"ﺄ":641,"ﺇ":642,"ﺌ":643,"ﺎ":644,"ﺗ":645,"ﺳ":646,"ﻄ":647,"ﻜ":648,"ﻢ":649,"ﻣ":650,"ﻤ":651,"ﻦ":652,"ﻧ":653,"ﻨ":654,"ﻪ":655,"ﻫ":656,"ﻮ":657,"ﻯ":658,"ﻲ":659,"ﻴ":660,"﻿":661,"：":662,"�":663,"🇩":664,"🇪":665,"🇬":666,"🇷":667,"🇺":668,"🌀":669,"🌐":670,"🌬":671,"🌲":672,"🌷":673,"🌸":674,"🌺":675,"🍁":676,"🍃":677,"🍳":678,"🎁":679,"🎄":680,"🎥":681,"🎬":682,"🐶":683,"👈":684,"👌":685,"👏":686,"👑":687,"👻":688,"💎":689,"💕":690,"💜":691,"💟":692,"💫":693,"💳":694,"📈":695,"📌":696,"📍":697,"📑":698,"📝":699,"📣":700,"📱":701,"📽":702,"🔎":703,"🔔":704,"🔥":705,"🔴":706,"🔵":707,"🔶":708,"🔷":709,"🔸":710,"🔹":711,"🔺":712,"🔻":713,"🗽":714,"😀":715,"😁":716,"😂":717,"😅":718,"😉":719,"😊":720,"😌":721,"😍":722,"😎":723,"😏":724,"😐":725,"😒":726,"😔":727,"😕":728,"😗":729,"😙":730,"😛":731,"😢":732,"😥":733,"😭":734,"😳":735,"😵":736,"😶":737,"🙁":738,"🙂":739,"🙏":740,"🚀":741,"🚫":742,"🤔":743,"🤗":744,"🥇":745,"ی ":746,"ه ":747,"ن ":748,"ر ":749,"ا ":750,"د ":751,"ت ":752,"ای":753,".\n":754,"ان":755,"و ":756,"از":757,"ار":758,"اس":759,"ای ":760,"در ":761,"ان ":762,"به ":763,"م ":764,"، ":765,"از ":766,"د.\n":767,"که ":768,"ل ":769,"می":770,"را ":771,"بر":772,"می ":773,"کن":774,"ده ":775,"ک ":776,"خو":777,"این ":778,"رو":779,"است":780,"های ":781,"ام":782,"ست":783,"ال":784,"ار ":785,"ری":786,"ش ":787,"تو":788,"دی":789,"دا":790,"ها ":791,"ند ":792,"می‌":793,"ند":794,"مو":795,"نی":796,"را":797,"بی":798,"یک ":799,"با":800,"ب ":801,"با ":802,"ما ":803,"شو":804,"برای ":805,"کر":806,"شت":807,"اه":808,"است ":809,"سی":810,"بو":811,"ده":812,"دار":813,"ید ":814,"ز ":815,"اف":816,"در":817,"ال ":818,"ند.\n":819,"دو":820,"ات ":821,"لی":822,"هم":823,"است.\n":824,"نو":825,"ه‌":826,"ام ":827,"اب":828,"س ":829,"د، ":830,"گر":831,"آن":832,"آن ":833,"یا ":834,"ایی ":835,"شما ":836,"ور":837,"توان":838,"فت":839,"باش":840,"ع ":841,"ق ":842,"تی ":843,"زی":844,"وی":845,"پی":846,"اد":847,"مر":848,"ست ":849,"لا":850,"ی از ":851,"نگ":852,"دن ":853,"گر ":854,"انی ":855,"ط ":856,"خود ":857,"لی ":858,"ف ":859,"فا":860,"من":861,"فر":862,"خواه":863,"ما":864,"تر":865,"کار":866,"تا ":867,"د که ":868,"کنی":869,"گی":870,"شده ":871,"مان ":872,"بر ":873,"هم ":874,"نا":875,"وا":876,"ور ":877,"تر ":878,": ":879,"د و ":880,"نه ":881,"مع":882,"است که ":883,"هست":884,"مح":885,"هر ":886,"اید ":887,"من ":888,"اد ":889,"خت":890,"دان":891,"داشت":892,"جو":893,"سر":894,"او ":895,"او":896,"باز":897,"م.\n":898,"‌های ":899,"سال ":900,"قی":901,"کو":902,"نی ":903,"چی":904,"تح":905,"کار ":906,"می کن":907,"گو":908,"گی ":909,"اما ":910,"چه ":911,"سو":912,"دی ":913,"سا":914,"مان":915,"باید ":916,"قر":917,"ری ":918,"مای":919,"اه ":920,"این":921,"رین ":922,"شر":923,"شک":924,"انه ":925,"سی ":926,"یم ":927,"اج":928,"‌ها ":929,") ":930,"آنها ":931,"به":932,"می توان":933,"لو":934,"اری ":935,"نظ":936,"شان ":937,"ون ":938,"رد ":939,"شی":940,"تم":941,"ح ":942,"آم":943,"گذ":944,"استفا":945,"له ":946,"را به ":947,"استفاده ":948,"خا":949,"اگر ":950,"؟\n":951,"یر ":952,"می شو":953,"تا":954,"دم ":955,"ند، ":956,"یک":957,"بار":958,"هی":959,"تص":960,"مک":961,"بسی":962,"نده ":963,"می‌کن":964,"انج":965,"بی ":966,"خص":967,"مت":968,"اح":969,"نام":970,"ترین ":971,"هایی ":972,"جه":973,"کم":974,"اع":975,"زند":976,"یت ":977,"مورد ":978,"زی ":979,"پر":980,"جود ":981,"انت":982,"در ح":983,"انجام ":984,"گاه ":985,"دا ":986,"ساز":987,"ج ":988,"مق":989,"اس ":990,"عی ":991,"مین ":992,"خواهد ":993,"دیگر ":994,"فته ":995,"نین ":996,"ول ":997,"را در ":998,"بع":999,"تی":1000,"بیشت":1001,"قرار ":1002,"تع":1003,"رگ":1004,"ند که ":1005,"توس":1006,"فی":1007,"روز ":1008,"ند و ":1009,"دو ":1010,"وجود ":1011,"طور ":1012,"کرده ":1013,"اص":1014,"بز":1015,"نیز ":1016,"نوان ":1017,"چنین ":1018," و ":1019,"دست":1020,"اط":1021,"پس ":1022,"داشته ":1023,"جه ":1024,"روی ":1025,"مش":1026,"عنوان ":1027,"کرد":1028,"همه ":1029,"خی":1030,"عه ":1031,"تن":1032,"کشو":1033,"می‌شو":1034,"شن":1035,"الی ":1036,"کت ":1037,"مس":1038,"کی":1039,"ده‌":1040,"دید ":1041,"می‌توان":1042,"غی":1043,"بت ":1044,"..":1045,"کنید.\n":1046,"تج":1047,"ید.\n":1048,"واق":1049,"اق":1050,"ریک":1051,"ادی ":1052,"ین ":1053,"مل":1054,"وق":1055,"شت ":1056,"خود را ":1057,"سه ":1058,"مه":1059,"مط":1060,"مکن ":1061,"بود":1062,"نگ ":1063,"ممکن ":1064,"بخ":1065,"تق":1066,"e ":1067,"بین ":1068,"باشد.\n":1069,"ران ":1070,"ها":1071,"!\n":1072,"نامه ":1073,"اری":1074,"رس":1075,"فت ":1076,"د\n":1077,"راه ":1078,"ره ":1079,"امل ":1080,"که در ":1081,"خ ":1082,"دست ":1083,"بود.\n":1084,"شم":1085,"می ده":1086,"است، ":1087,"زندگی ":1088,"ً ":1089,"سای":1090,"ات":1091,"ه، ":1092,"بسیار ":1093,"نیست":1094,"کس":1095,"هیچ":1096,"مج":1097,"اند":1098,"بزرگ":1099,"سال":1100,"کت":1101,"در این ":1102,"بال":1103,"»\n":1104,"نظر ":1105,"خود":1106,"پای":1107,"م، ":1108,"اض":1109,"بل":1110,"تان ":1111,"افرا":1112,"کردن ":1113,"مت ":1114,"مد":1115,"ممکن است ":1116,"زمان ":1117,"آی":1118,"نق":1119,"هو":1120,"آمریک":1121,"افز":1122,"مث":1123,"کنید ":1124,"20":1125,"شد.\n":1126,"آور":1127,"راح":1128,"دیگر":1129,"رف ":1130," در ":1131,"گفت":1132,"بیشتر ":1133,"ی و ":1134,"ش از ":1135,"به عنوان ":1136,"مانی ":1137,"قه ":1138,"تنها ":1139,"شد":1140,"گیر":1141,"داده ":1142,"تما":1143,"هر":1144,"صور":1145,"گونه ":1146,"لا ":1147,"پرو":1148,"خت ":1149,"داشته باش":1150,"نان ":1151,"انی":1152,"- ":1153,"گان ":1154,"فق":1155,"er":1156,"رف":1157,"کرد.\n":1158,"جا ":1159,"ایش ":1160,"آز":1161,"شته ":1162,"توسط ":1163,"گوی":1164,"ص ":1165,"پو":1166,"می تواند ":1167,"همچنین ":1168,"کمک ":1169,"دارد.\n":1170,"» ":1171,"تب":1172,"افت":1173,"تغی":1174,"آمو":1175,"عم":1176,"عت ":1177,"کل":1178,"ه‌ی ":1179,"ازه ":1180,"کند.\n":1181,"شی ":1182,"مردم ":1183,"شرکت ":1184,"ائ":1185,"کر ":1186,"نشان ":1187,"هیچ ":1188,"بود ":1189,"خان":1190,"صد ":1191,"قو":1192,"ایج":1193,"چیزی ":1194,"شد ":1195,"ارد ":1196,"ستان ":1197,"یکی از ":1198,"قاب":1199,"ه‌ای ":1200,"نس":1201,"ارت":1202,"برنامه ":1203,"باره ":1204,"...\n":1205,"است و ":1206,"تمام ":1207,"انس":1208,"روز":1209,"قی ":1210,"عات ":1211,"؛ ":1212,"آیا ":1213,".»\n":1214,"دری":1215,"اره ":1216,"غذ":1217,"رات ":1218,"زش ":1219,"فر ":1220,"فقط ":1221,"در حال ":1222,"دل":1223,"دار ":1224,"فع":1225,"ث ":1226,"ه‌های ":1227,"ایجاد ":1228,"شه ":1229,"بیم":1230,"صورت ":1231,"مص":1232,"الی":1233,"ی در ":1234,"م و ":1235,"لات ":1236,"نیاز ":1237,"in":1238,"ئی":1239,"هنگ":1240,"ندار":1241,"ساخت":1242,"برخ":1243,"شود.\n":1244,"گاه":1245,"کشور ":1246,"مانند ":1247,"اک":1248,"حتی ":1249,"نمای":1250,"زار":1251,"تول":1252,"بان ":1253,"به‌":1254,"بار ":1255,"رفت":1256,"ختل":1257,"فرو":1258,"اند.\n":1259,"به این ":1260,"پس از ":1261,"داد ":1262,"دن":1263,"اطلا":1264,"به طور ":1265,"بازی ":1266,"on":1267,"قب":1268,"م که ":1269,"s ":1270,"دانش":1271,"توجه ":1272,"ب و ":1273,"فو":1274,"اینکه ":1275,"اولی":1276,"چند ":1277,"می‌ده":1278,"آن را ":1279,"دول":1280,"از این ":1281,"همی":1282,"مدی":1283,"خور":1284,"ها و ":1285,"خانه ":1286,"انتخا":1287,"افراد ":1288,"بیش از ":1289," در":1290,"قیق":1291,"فکر ":1292,"گرفت":1293,"کنند.\n":1294,"شده است.\n":1295,"صی":1296,"مشک":1297,"در مورد ":1298,"an":1299,"بعد ":1300,"جهان ":1301,"هستند.\n":1302,"در سال ":1303,"کاری ":1304,"لب ":1305,"کود":1306,"گیری ":1307,"زمانی ":1308,"رسی":1309,"نام ":1310,"پن":1311,"عا":1312,"حال":1313,"کی ":1314,"افزایش ":1315,"تر از ":1316,"د؟\n":1317,"فیل":1318,":\n":1319,"کسی ":1320,"بت":1321,"جدید ":1322,"اری از ":1323,"جی":1324,"هد":1325,"رسی ":1326,"ان، ":1327,"را ب":1328,"شخص":1329,"ض ":1330,"دم":1331,"دود ":1332,"مرک":1333,"لیل ":1334,"جم":1335,"را از ":1336,"ید که ":1337,"می شود.\n":1338,"وی ":1339,"تغییر ":1340,"علا":1341,"مشت":1342,"آمریکا ":1343,"طر ":1344,"ی، ":1345,"اسی ":1346,"خار":1347,"ارائ":1348,"ثر ":1349,"دون ":1350,"گرو":1351,"داد":1352,"سیست":1353,"کس ":1354,"عل":1355,"نش":1356,"چگونه ":1357,"ندگان ":1358,"وقتی ":1359,"اشت":1360,"بال ":1361,"های":1362,"رژ":1363,"سته ":1364,"ایران ":1365,"میلی":1366,"بسیاری از ":1367,"داری ":1368,"ارائه ":1369,"وری ":1370,")\n":1371,"ابی ":1372,"کان ":1373,"زار ":1374,"زه ":1375,"کام":1376,"سل":1377,"سط":1378,"که به ":1379,"نز":1380,"استفاده از ":1381,"صح":1382,"پذ":1383,"انگ":1384,"تل":1385,"امی ":1386,"احس":1387,"کاه":1388,"‌ ":1389,"ar":1390,"عیت ":1391,"ژه ":1392,"کرد ":1393,"همین ":1394,"قدر":1395,"را برای ":1396,"خواهید ":1397,"شرو":1398,"ماه ":1399,"پیدا ":1400,"نر":1401,"۲۰":1402,"می توانید ":1403,"پ ":1404,"سر ":1405,"مست":1406,"دام ":1407,"دنی":1408,"معمو":1409,"ارت ":1410,"یم.\n":1411,"بوده ":1412,"بدون ":1413,"تولید ":1414,"دان ":1415,"19":1416,"آن‌ها ":1417,"می‌تواند ":1418,"مطال":1419,"کاهش ":1420,"افت ":1421,"تش":1422,"می کند.\n":1423,"مختل":1424,"نوع ":1425,"تو ":1426,"گرفته ":1427,"00":1428,"اب ":1429,"ضو":1430,"همان ":1431,"قابل ":1432,"عو":1433,"پیش ":1434,"شدن ":1435,"نمی ":1436,"نیست ":1437,"شروع ":1438,"چرا ":1439,"جن":1440,"با این ":1441,"طول ":1442,"زان ":1443,"ن، ":1444,"انتخاب ":1445,"روی":1446,"متح":1447,"عی":1448,"مهم ":1449,"اقتص":1450,"حال ":1451,"or":1452,"کشور":1453,"دارد ":1454,"گ ":1455,"قان":1456,"کش":1457,"چه":1458,"نت ":1459,"ارو":1460,"ِ ":1461,"خصو":1462,"خواهند ":1463,"ید، ":1464,"t ":1465,"\" ":1466,"بنا":1467,"اولین ":1468,"کان":1469,"خیلی ":1470," درصد ":1471,"د: ":1472,"طر":1473,"– ":1474,"منط":1475,"طراح":1476,"ریت ":1477,"ل از ":1478,"وه ":1479,"ریق ":1480,"الات ":1481,"ها، ":1482,"توان ":1483,"پاس":1484,"بهترین ":1485,"سایت ":1486,"این است که ":1487,"خری":1488,"اطلاعات ":1489,"چیز ":1490,"رو ":1491,"اخ":1492,"زو":1493,"بنابر":1494,"دلیل ":1495,"طه ":1496,"امی":1497,"سیستم ":1498,"ولی ":1499,"کننده ":1500,"نمی‌":1501,"باع":1502,"درباره ":1503,"مرکز ":1504,"en":1505,"تلا":1506,"دوست ":1507,"تجر":1508,"غ ":1509,"تاب ":1510,"زینه ":1511,"فاو":1512,"بود که ":1513,"ول":1514,"زیادی ":1515,"ت، ":1516,"دین ":1517,"201":1518,"حی":1519,"باعث ":1520,"تری ":1521,"موضو":1522,"کوچ":1523,"همیشه ":1524,"اش":1525,"پز":1526,"طی ":1527,"بزرگ ":1528,"فرا":1529,"بخش ":1530,"ارتبا":1531,"آل":1532,"هایی که ":1533,"نفر ":1534,"موف":1535,"احتم":1536,"بان":1537,"ید و ":1538,"یافت":1539,"دولت ":1540,"زبان ":1541,"د تا ":1542,"al":1543,"اجتما":1544,"زمی":1545,"تای":1546,"زیر ":1547,"محص":1548,"داشت ":1549,"آنچه ":1550,"از ط":1551,"داخ":1552,"را با ":1553,"خوب ":1554,"داو":1555,"اتی ":1556,"گرد":1557,"هنو":1558,"شب":1559,"نوی":1560,"بین":1561,"عر":1562,"مدت ":1563,"امه ":1564," به ":1565,"دید":1566,"‌‌":1567,"نمو":1568,"تاری":1569,"زن ":1570,"میان ":1571,"ه ای ":1572,"ندان ":1573,"شامل ":1574,"شناس":1575,"هنوز ":1576,"عا ":1577,"سرمای":1578,"خدا ":1579,"دنبال ":1580,"اروپ":1581,"در یک ":1582,"تصمی":1583,"چون ":1584,"at":1585,"فی ":1586,"مسئ":1587,"دیگری ":1588,"وجود دار":1589,"اتفا":1590,"ایت ":1591,"ه و ":1592,"المل":1593,"گذار":1594,"کتاب ":1595,"شنا":1596,"سازمان ":1597,"خوان":1598,"بعد از ":1599,"درو":1600,"راه":1601,"توسعه ":1602,"گزار":1603,"غیر ":1604,"تأ":1605,"قط":1606,"نتی":1607,"حر":1608,"خانوا":1609,"حاض":1610,"به شما ":1611,"فری":1612,"سازی ":1613,"اغ":1614,"کنون ":1615,"کلی":1616,"ل و ":1617,"d ":1618,"به ج":1619,"قل":1620,"ادامه ":1621,"اور":1622,", ":1623,"ره":1624,"ندی ":1625,"y ":1626,"مختلف ":1627,"طراحی ":1628,"بنابراین ":1629,"دارای ":1630,"کنتر":1631,"دادن ":1632,"نیست.\n":1633,"پذی":1634,"خته ":1635,"می‌شود.\n":1636,"احساس ":1637,"ظ ":1638,"نزدی":1639,"لام ":1640,"ریان ":1641,"ۀ ":1642,"آب ":1643,"کامل ":1644,"اصلی ":1645,"گذاری ":1646,"باز ":1647,"کا":1648,"صف":1649,"مدر":1650,"ابر ":1651,"طبی":1652,"دیل ":1653,"شرای":1654,"زمین ":1655,"گیری":1656,"مرا":1657,"ستر":1658,"مناس":1659,"شهر ":1660,"\"\n":1661,"جهانی ":1662,"گروه ":1663,"کنید، ":1664,"برخی از ":1665,"تلاش ":1666,"گذشته ":1667,"کنیم.\n":1668,"سف":1669,"سری":1670,"شه":1671,"وب ":1672,"گاهی ":1673,"دارند.\n":1674,"بررسی ":1675,"گفت ":1676,"این کار ":1677," سال ":1678,"کاربر":1679,"هدف ":1680,"انجام ده":1681,"گران ":1682,"عمل ":1683,"زمانی که ":1684,"کم ":1685,"زنان ":1686,"فض":1687,"فیلم ":1688,"انسان ":1689," (":1690,"ترا":1691,"آینده ":1692,"می‌کند.\n":1693," میلی":1694,"تبدیل ":1695,"آغ":1696,"۱۹":1697,"مه ":1698,"سب":1699,"مصرف ":1700,"امنی":1701,"کاف":1702,"روش ":1703,"گفته ":1704,"ماه":1705,"خوبی ":1706,"ر به ":1707,"حم":1708,"جمه":1709,"ترکی":1710,"سخ":1711,"ثیر ":1712,"نم":1713,"ده، ":1714,"تحت ":1715,"مسی":1716,"تجربه ":1717,"و یا ":1718,"یاد ":1719,"ا، ":1720,"جام":1721,"ایل ":1722,"فاوت ":1723,"دریافت ":1724,"و در ":1725,"قل ":1726,"بر روی ":1727,"ها را ":1728,"پیو":1729,"ي ":1730,"خواست":1731,"امت ":1732,"سطح ":1733,"مخ":1734,"اجتماعی ":1735,"انی که ":1736,"لح":1737,"زیرا ":1738,"ادر ":1739,"د به ":1740,"ند\n":1741,"آموزش ":1742,"می توانند ":1743,"می کنند.\n":1744,"رشد ":1745,"صن":1746,"اپ":1747,"عمو":1748,"لاً ":1749,"همراه ":1750,"یاد":1751,"بخش":1752,"دانشگاه ":1753,"دانش ":1754,"اجازه ":1755,"گستر":1756,"ماده ":1757,"جنگ ":1758,"یم":1759,"شاید ":1760,"از آن ":1761,"رت ":1762,"بح":1763,"مغ":1764,"بات ":1765,"آس":1766,"اش ":1767,"آسی":1768,"اخت":1769,"حدا":1770,"پار":1771,"وقت ":1772,"حدود ":1773,"سمت ":1774,"به نظر ":1775,"یع":1776,"شن ":1777,"در آن ":1778,"اندازه ":1779,"جای":1780,"هفته ":1781,"همان":1782,"درست ":1783,"تعداد ":1784,"بهتر ":1785,"بتوان":1786,"المللی ":1787,"صحبت ":1788,"برابر ":1789,"نج":1790,"دیده ":1791,"منطقه ":1792,"موضوع ":1793,"بدن ":1794,"کنترل ":1795,"آخ":1796,"ic":1797,"بده":1798,"اساس ":1799,"مدیریت ":1800,"حل ":1801,"” ":1802,"نسبت ":1803,"درمان ":1804,"کل ":1805,"قبل از ":1806,"به یک ":1807,"ابت":1808,"فعال":1809,"صفح":1810,"خاطر ":1811,"حاضر ":1812,"ساعت ":1813,"ازم ":1814,"فرد ":1815,"مواد ":1816," تا ":1817,"قدرت ":1818,"پایان ":1819,"آر":1820,"ته":1821,"ادی":1822,"ازی ":1823,"ان و ":1824,"از طریق ":1825,"علی":1826,"it":1827,"در حالی ":1828,"مز":1829,"امروز ":1830,"ریه ":1831,"ایالات ":1832,"مربو":1833,"رات":1834,"راب":1835,"جمله ":1836,"مثل ":1837,"انگی":1838,"قات ":1839,"برگ":1840,"اغلب ":1841,"es":1842,"بن":1843,"اف ":1844,"منظ":1845,"آغاز ":1846,"ذه":1847,"برو":1848,"امو":1849,"بالا ":1850,"وارد ":1851,"داست":1852,"تصمیم ":1853,"ایالات متح":1854,"پاسخ ":1855,"چیز":1856,"اول ":1857,"البت":1858,"بینی":1859,"باشد ":1860,"یعنی ":1861,"ى ":1862,"ت‌های ":1863,"شرایط ":1864,"هزینه ":1865,"حمای":1866,"دوره ":1867,"ن و ":1868,"انرژ":1869,"فران":1870,"شک ":1871,"مشخص":1872,"بیشتری ":1873,"شار ":1874,"آزمای":1875,"دلار ":1876,"مار":1877,"».\n":1878,"وض":1879,"چر":1880,"حض":1881,"فل":1882,"خدم":1883,"ارتباط ":1884,"موق":1885,"10":1886,"خانواده ":1887,"پیشر":1888,"خد":1889,"گفت: ":1890,"برخی ":1891,"حرف":1892,"]\n":1893,"بلکه ":1894,"شم ":1895,"رای ":1896,"اده ":1897,"نتیجه ":1898,"بود، ":1899,"دقی":1900,"ران":1901,"داشت.\n":1902,"بازی":1903,"کردند.\n":1904,"ند تا ":1905,"جوی":1906,"میت ":1907,"یکی ":1908,"اضاف":1909,"زن":1910,"قدر ":1911,"لازم ":1912,"تقری":1913,"بیماری ":1914,"پا":1915,"پردا":1916,"مف":1917,"دخ":1918,"ژی ":1919,"كه ":1920,"باشد، ":1921,"بانی ":1922,"توصی":1923,"a ":1924,"واقع ":1925,"دنیا ":1926,"و به ":1927,"ستی ":1928,"تصوی":1929,"مربوط ":1930,"رای":1931," ...\n":1932,"سایر ":1933,"گزارش ":1934,"خدمات ":1935,"بد":1936,"را که ":1937,"اکنون ":1938,"پول ":1939,"بازار ":1940,"نه":1941,"اعلام ":1942,"دور ":1943,"سوی ":1944,"هنگامی ":1945,"انتظ":1946,").\n":1947,"یو":1948,"البته ":1949,"واقعی ":1950,"صد":1951,"پیش":1952,"شکل ":1953,"کوچک ":1954,"ید":1955,"روسی":1956,"کمی ":1957,"کسب و ":1958,"فعالیت ":1959,"جدی":1960,"خواست ":1961,"حمایت ":1962,"ضی":1963,"‌تر ":1964,"ها در ":1965,"اینجا ":1966,"پزشک":1967,"طب":1968,"200":1969,"مشکل ":1970,"هرگ":1971,"مطالعه ":1972,"جمع":1973,"ro":1974,"شما را ":1975,"خواهیم ":1976,"اند ":1977,"ایالات متحده ":1978,"کرده است.\n":1979,"مند ":1980,"دیگران ":1981,"کرد که ":1982,"سرمایه ":1983,"هزار ":1984,"محی":1985,"داد.\n":1986,"یل ":1987,"۰۰":1988,"درک ":1989,"ه\n":1990,"هرگز ":1991,"انتق":1992,"است\n":1993,"رس ":1994,"تغیی":1995,"موفقی":1996,"در حالی که ":1997,"خارج ":1998,"شش ":1999,"تحقیق":2000,"el":2001,"به آن ":2002,"اسر ":2003,"تیم ":2004,"صی ":2005,"اتفاق ":2006,"جایی ":2007,"ل، ":2008,"سپس ":2009,"در طول ":2010,"کرده‌":2011,"اروپا ":2012,"دور":2013,"زمینه ":2014,"بعض":2015,"حف":2016,"مناسب ":2017,"جی ":2018,"می دان":2019,"می شود ":2020,". ":2021,"فرص":2022,"غیر":2023,"؟ ":2024,"نزدیک ":2025,"حد ":2026,"ت‌":2027,"کودکان ":2028,"st":2029,"کنو":2030,"نسبت به ":2031,"لیت ":2032,"بش":2033,"ژو":2034,"چین ":2035,"کردی":2036,"مجمو":2037,"نویس":2038,"م\n":2039,"در حال حاضر ":2040,"خداو":2041,"تحصی":2042,"مالی ":2043,"پرد":2044,"هستند ":2045,"دی که ":2046,"م به ":2047,"امات ":2048,"عمل":2049,"کافی ":2050,"نگی ":2051,"لب":2052,"ارزش ":2053,"انگلی":2054,"پل":2055,"رون ":2056,"می‌توانید ":2057,"اقتصادی ":2058,"نگاه ":2059,"جست":2060,"er ":2061,"شهر":2062,"داشتن ":2063,"حداقل ":2064,"قانون ":2065,"رئی":2066,"فروش ":2067,"۲۰۱":2068,"شده‌":2069,"خل":2070,"افظ":2071,"شد، ":2072,")،":2073,"غر":2074,"جلو":2075,"یم که ":2076,"کنار ":2077,"ساخته ":2078,"آنجا ":2079,"حس":2080,"هنگامی که ":2081,"‌ترین ":2082,"پروژه ":2083,".\"\n":2084,"تاریخ ":2085,"قیمت ":2086,"خاص ":2087,"کشورهای ":2088,"تشک":2089,"حقو":2090,"می‌کنند.\n":2091,"مشکلات ":2092,"ac":2093,"ر و ":2094,"ویت ":2095,"آوری ":2096,"ایشان ":2097,"انرژی ":2098,"کنندگان ":2099,"هر دو ":2100,"شوند.\n":2101,"عد":2102,"ایی":2103,"بهبود ":2104,"نقش ":2105,"بگوی":2106,"یاب":2107,"به عنوان یک ":2108," میلیون ":2109,"دهد.\n":2110,"سرعت ":2111,"ion":2112,"امکان ":2113,"شق ":2114,"هستند که ":2115,"آماده ":2116,"مشاه":2117,"نا ":2118,"دگی ":2119,"حق ":2120,"بری":2121,"نیاز به ":2122,"چن":2123,"میزان ":2124,"الت ":2125,"ه‌ها ":2126,"حفظ ":2127,"، و ":2128,"اله ":2129,"بگیری":2130,"سفر ":2131,"طبیعی ":2132,"ش را ":2133,"حقوق ":2134,"نوشت":2135,"محتو":2136,"قادر ":2137,"بی‌":2138,"دارند ":2139,"آفری":2140,"بری ":2141,"ملی ":2142,"نخ":2143,"کنند":2144,"ساخت ":2145,"پرداز":2146,"می دهد.\n":2147,"نیاز":2148,"سراسر ":2149,"ترو":2150,"وری":2151,"برس":2152,"شبکه ":2153,"ر، ":2154,"چنان ":2155,"شد و ":2156,"امبر ":2157,"دوباره ":2158,"ویژه ":2159,"پیشن":2160,"به صورت ":2161,"بودند.\n":2162,"آنان ":2163,"حرکت ":2164,"قت ":2165,"مبار":2166,"هستند، ":2167,"دهای ":2168,"خطر ":2169,"”\n":2170,"ظاه":2171,"بین المللی ":2172,"رابطه ":2173,"می‌توانند ":2174,"om":2175,"موارد ":2176,"شناخته ":2177,"طول":2178,"باشند.\n":2179,"بر اساس ":2180,"چهار ":2181,"هی ":2182," سال":2183,"محصو":2184,"که از ":2185,"بدان":2186,"می‌گوی":2187,"بودن ":2188,"شین ":2189,"مقاب":2190,"جل":2191,"خط":2192,"بیمار":2193,"موفقیت ":2194,"ابع ":2195,"احتمال":2196,"وجود دارد.\n":2197,"خرید ":2198,"صفحه ":2199,"از جمله ":2200,"re":2201,"غذایی ":2202,"شود ":2203,"آموز":2204,"پر ":2205,"هنگام ":2206,"خداوند ":2207,"کوت":2208,"معمولا ":2209,"سم ":2210,"اینتر":2211,"اشتبا":2212,"کودک ":2213,"علیه ":2214,"مربوط به ":2215,"خوش":2216,"تاثیر ":2217,"جامعه ":2218,"می‌دان":2219,"عمومی ":2220,"خود را به ":2221," را ":2222,"عض":2223,"واقعا ":2224,"داستان ":2225,"جای ":2226,"متفاوت ":2227,"شتی":2228,"مئ":2229,"ساده ":2230,"دسترسی ":2231,"علاوه ":2232,"ou":2233,"نتای":2234,"است؟\n":2235,"نتایج ":2236,"رنگ ":2237,"ing":2238,"بست":2239,"جز":2240,"جان":2241,"سعی ":2242,"کمی":2243,"انتظار ":2244,"بگیر":2245,"مسل":2246,"‌هایی ":2247,"کند ":2248,"کرد و ":2249,"چشم ":2250,"او را ":2251,"مبت":2252,"اند، ":2253,"مشخص ":2254,"وضعیت ":2255,"ء ":2256,"کشی":2257,"اسرا":2258,"نیرو":2259,"ندارد.\n":2260,"دیو":2261,"پذیر":2262,"منتش":2263,"مشاهده ":2264,"می گوی":2265,"ونی ":2266,"لذ":2267,"منتشر ":2268,"جذ":2269,"در هر ":2270,"خواهم ":2271,"نباید ":2272,"مطمئ":2273,"ایده ":2274,"کنید که ":2275,"ایر":2276,"، به ":2277,"مرح":2278,"جنگ":2279,"پرداخت ":2280,"دات ":2281,"شرکت":2282,"استرات":2283,"اج ":2284,"شب ":2285,"ol":2286,"استان":2287,"il":2288,"نهای":2289,"هوا":2290,"تی که ":2291,"خه ":2292," از ":2293,"سخت ":2294,"کدام ":2295,"سلو":2296,"با یک ":2297,"آش":2298,"امنیت ":2299,"اضافه ":2300,"خواب ":2301,"کسب و کار ":2302,"اسی":2303,"مسا":2304,"جنو":2305,"نیست که ":2306,"فن ":2307,"دوست":2308,"وب":2309,"معنی ":2310,"آنها را ":2311,"عکس ":2312,"شود، ":2313,"دوم ":2314,"ده است.\n":2315,"موجود ":2316,"لاح ":2317,"خون ":2318,"اسرائی":2319,"بینی ":2320,"آن ها ":2321,"حالا ":2322,"خلا":2323,"o ":2324,"روسیه ":2325,"ن‌":2326,"پیشنه":2327,"، در ":2328,"از یک ":2329,"می رس":2330,"نمی":2331,"ویژ":2332,"تجاری ":2333,"خود را در ":2334,"شخصی ":2335,"رواب":2336,"مستقی":2337,"میز ":2338,"کند، ":2339,"همه چیز ":2340,"رخ ":2341,"صر ":2342,"حضور ":2343,"خصوص ":2344,"بندی ":2345,"اهی ":2346,"S ":2347,"گزی":2348,"بیان ":2349,"وسی":2350,"کال":2351,"پنج ":2352,"جب ":2353,"بور ":2354,"محصولات ":2355,"به دنبال ":2356,"از دست ":2357,"منج":2358,"گل ":2359,"ارهای ":2360,"جا":2361,"کنید":2362,"کنیم ":2363,"این، ":2364,"منابع ":2365,"شغ":2366,"اهدا":2367,"‌ها و ":2368,"تور ":2369,"اگر شما ":2370,"اتا":2371,"تمرکز ":2372,"افغ":2373,"کتاب":2374,"تس":2375,"نگر":2376,"پیش از ":2377,"اتح":2378,"/ ":2379,"عه":2380,"سریع ":2381,"کنید و ":2382,"بود و ":2383,"فراهم ":2384,"طان ":2385,"محدو":2386,"مشتریان ":2387,"تواف":2388,"شده و ":2389,"نمایش ":2390,"بخشی از ":2391,"حو":2392,"آمد ":2393,"مال ":2394,"توضی":2395,"محیط ":2396,"گیر ":2397,"کرده و ":2398,"متوجه ":2399,"مرگ ":2400,"دستگاه ":2401,"آق":2402,"اکثر ":2403,"A ":2404,"کره ":2405,"اشاره ":2406,"زیاد ":2407,"ورو":2408,"am":2409,"اً ":2410,"فشار ":2411,"ابت ":2412,"ثبت ":2413,"حال، ":2414,"اث":2415,"می باشد.\n":2416,"رئیس ":2417,"هنگ ":2418,"اعض":2419,"تخ":2420,"مهاج":2421,"نف":2422,"روزی ":2423,"برا":2424,"نظامی ":2425,"تن ":2426,"th":2427,"عالی ":2428,": «":2429,"اصل ":2430,"خواهد بود.\n":2431,"شا":2432,"صل ":2433,"می کند ":2434,"تشخی":2435,"سیاسی ":2436,"مقدار ":2437,"خودتان ":2438,"علاوه بر ":2439,"تغییرات ":2440,"توانایی ":2441,"آسیب ":2442,"50":2443,"مادر":2444,"موفق ":2445,"جان ":2446,"بالا":2447,"هن":2448,"موسی":2449,"الله ":2450,"با استفاده از ":2451,"رفتار ":2452,"کاملا ":2453,"ارز":2454,"آخرین ":2455,"۱۰":2456,"ه های ":2457,"ا و ":2458,"تحقیقات ":2459,"ایست":2460,"برنام":2461,"روابط ":2462,"سپ":2463,"ال، ":2464,"اختل":2465,"می گیر":2466,"ch":2467,"پشتی":2468,"فروش":2469,"بازاری":2470,"ل های ":2471,"جهت ":2472,"مهم":2473,"رفی ":2474,"ه.\n":2475,"پایین ":2476,"تقریبا ":2477,"ان در ":2478,"اعتما":2479,"طور که ":2480,"می توان ":2481,"تبلی":2482,"یار ":2483,"درخواست ":2484,"آمریکایی ":2485,"طولانی ":2486,"تور":2487,"به دست ":2488,"انس ":2489,"مرتب":2490,"فرزند":2491,"محصول ":2492,"کن ":2493,"روند ":2494,"کرد، ":2495,"پرس":2496,"اي":2497,"گرفتن ":2498,"انوا":2499,"،\n":2500,"حرف ":2501,"تشکیل ":2502,"تعی":2503," [":2504,"طی":2505,"الکت":2506,"ش‌های ":2507,"معن":2508,"دانش آمو":2509,"مثال ":2510,"همکاری ":2511,"is":2512,"سیاست ":2513,"می شوند.\n":2514,"بازگ":2515,"قدی":2516,"دهه ":2517,"رک ":2518,"اثر ":2519,"دفا":2520,"مسائ":2521,"قف ":2522,"پی ":2523,"این‌":2524,"محق":2525,"انواع ":2526,"جو ":2527,"ند؟\n":2528,"مذ":2529,"مناط":2530,"گرچه ":2531,"داخلی ":2532,"صنعت ":2533,"داشته باشد.\n":2534,"اطمی":2535,"تکنو":2536,"فرصت ":2537,"بوده است.\n":2538,"طرح ":2539,"چندین ":2540,"ه‌ ":2541,"افغان":2542,"باقی ":2543,"…\n":2544,"عبار":2545,"تمامی ":2546,"پوست ":2547,"ان‌":2548,"دقیقه ":2549,"تعیین ":2550,"حمله ":2551,"مرحله ":2552,"ضرو":2553,"] ":2554,"شما می توانید ":2555,"احتمال ":2556,"آنل":2557,"فرهنگ":2558,"خواهد شد.\n":2559,"به همین ":2560,"تان":2561,"امروز":2562,"ازدو":2563,"اهمیت ":2564,"خارجی ":2565,"تکنولو":2566,"زمان":2567,"دارید ":2568,"توجه به ":2569,"قیقت ":2570,"پذیر ":2571,"گرا":2572,"شاه":2573,"ظه":2574,"نگه ":2575,"بسته ":2576,"الب ":2577,"کاربران ":2578,"طرف ":2579,"ریزی ":2580,"همچنان ":2581,"مرد ":2582,"حسا":2583,"کشت":2584,"مال":2585,"بگذار":2586,"فیت ":2587,"یافته ":2588,"مکان ":2589,"بیشتر از ":2590,"بعدی ":2591,"منظور ":2592,"نت":2593,"م‌":2594,"شد که ":2595,"فا ":2596,"اطمینان ":2597,"ما در ":2598,"عرا":2599,"as":2600,"مراق":2601,"بد ":2602,"به نام ":2603,"سن ":2604,"شوی":2605,") و ":2606,"داخل ":2607,"نشان می ده":2608,"ریف ":2609,"کردم ":2610,"لاح":2611,"مرتبط ":2612,"صل":2613,"اند که ":2614,"کنان ":2615,"کلی ":2616,"بیه ":2617,"نوشته ":2618,"کامپیو":2619,"oo":2620,"محل ":2621,"رژیم ":2622,"پیشنهاد ":2623,"تاب":2624,"ٔ ":2625,"اعضای ":2626,"ببر":2627,"اوی":2628,"جریان ":2629,"توصیه ":2630,"باشد که ":2631,"مسیر ":2632,"بیرون ":2633,"چیست":2634,"کیفیت ":2635,"شدند.\n":2636,"اهداف ":2637,"18":2638,"آمده ":2639,"تحقی":2640,"آزمایش ":2641,"مهارت ":2642,"باور ":2643,"سیم ":2644,"تشخیص ":2645,"دقیق":2646,"وال":2647,"شده است ":2648,"ترام":2649,"دانشجوی":2650,"کشف ":2651,"ابتدا ":2652,"اموش ":2653,"۲۰۰":2654,"یکدیگر ":2655,"در نظر ":2656,"کارهای ":2657,"کسانی که ":2658,"مردان ":2659,"مات ":2660,"مون ":2661,"ان\n":2662,"تامین ":2663,"آزاد ":2664,"گو ":2665,"مشا":2666,"عملکرد ":2667,"C ":2668,"et":2669,"عاد":2670,"خر":2671,"به خاطر ":2672,"پنج":2673,"فار":2674,"12":2675,"گزینه ":2676,"ارسال ":2677,"لذت ":2678,"دارد، ":2679,"پیشرفت ":2680,"جمع ":2681,"امر ":2682,"بای":2683,"سلامت ":2684,"تاریخ":2685,"شما باید ":2686,"می کنند ":2687,"وزن ":2688,"محافظ":2689,"تش ":2690,"وجود دارد که ":2691,"علاقه ":2692,"دوران ":2693,"غذا ":2694,"چهار":2695,"مدرسه ":2696,"مایل ":2697,"تنظ":2698,"مز ":2699,"گسترش ":2700,"مشتری ":2701,"واقعیت ":2702," هزار ":2703,"امریک":2704,"فعال ":2705,"دارد که ":2706,"گرم ":2707,"می شود، ":2708,"Th":2709,"د؛ ":2710,"پشت ":2711,"کری":2712,"درد ":2713,"جمهوری ":2714,"در واقع ":2715,"of":2716,"وب سایت ":2717,"یه ":2718,"انداز":2719,"متخص":2720,"تض":2721,"ی که ":2722,"دک":2723,"اقتصاد ":2724,"مجموعه ":2725," S":2726,"ب‌":2727,"ابی":2728,"پلی":2729,"ق و ":2730,"لحظ":2731,"کنند ":2732,"را می‌":2733,"گوش ":2734,"دن به ":2735,".”\n":2736,"حیو":2737,"D ":2738,"راک ":2739,"هستند و ":2740,"زنده ":2741,"مطمئن ":2742,"عشق ":2743,"مرد":2744,"ادگی ":2745,"، این ":2746,"تحری":2747,"انتقال ":2748,"کنیم":2749,"چیزی که ":2750,"مغز ":2751,"اینترنت ":2752,"به کار ":2753,"رم ":2754,"اهای ":2755,"گار ":2756,"توضیح ":2757,"دهنده ":2758,"اطرا":2759,"مناطق ":2760,"کاناد":2761,"مسئله ":2762,"تصویر ":2763,"د!\n":2764,"چار ":2765,"اتاق ":2766,"تئ":2767,"شدت ":2768,"رفتن ":2769,"متو":2770,"پژو":2771,"کند و ":2772,"پرسی":2773,"سن":2774,"ایت":2775,"دهید.\n":2776,"وح":2777," درصد از ":2778,"اتو":2779,"یم، ":2780,"احتمالا ":2781,"ماشین ":2782,"انین ":2783,"، یک ":2784,"سلام":2785,"دنیای ":2786,"قانونی ":2787,"نیروهای ":2788,"آزادی ":2789,"تل ":2790,"که":2791,"رسان":2792,"k ":2793,"حز":2794,"مالی":2795,"مدار":2796,"هواپی":2797,"حساب ":2798,"نص":2799,"اجرا ":2800,"آنلاین ":2801,"پژوه":2802,"جوان":2803,"کسب ":2804,"30":2805,"ون":2806,"پدر ":2807,"دام":2808,"روشن ":2809,"انگلیسی ":2810,"ها به ":2811,"شناسی ":2812,"تجارت ":2813,"شنو":2814,"خاط":2815,"سنگ":2816,"بسیاری ":2817,"قوانین ":2818,"تف":2819,"عص":2820,"پدر":2821,"لا به ":2822,"نهایت ":2823,"مسائل ":2824,"تبلیغ":2825,"نکت":2826,"کنند، ":2827,"آلمان ":2828,"محلی ":2829,"یم و ":2830,"محدود ":2831,"مدل ":2832,"کنم.\n":2833,"عملی":2834,"دانش آموزان ":2835,"مقای":2836,"جمهور ":2837,"معرفی ":2838,"سرطان ":2839,"ئم ":2840,"ای از ":2841,"تصور ":2842,"قرن ":2843,"قصد ":2844,"le":2845,"میل ":2846,"گیری از ":2847,"ساب":2848,"بزرگترین ":2849,"زده ":2850,"چقدر ":2851,"این که ":2852,"فضای ":2853,"اشتباه ":2854,"شنی":2855,"رقاب":2856,"خودش ":2857,"به جای ":2858,"افزو":2859,"بع ":2860,"جدی ":2861,"مم":2862,"ویزی":2863,"کوتاه ":2864,"بچه ":2865,"تماس ":2866,"ما را ":2867,"خصوص":2868,"می­":2869,"کرو":2870,"پیچی":2871,"اما این ":2872,"اتحادی":2873,"خط ":2874,"انق":2875,"درس ":2876,"مبارزه ":2877,"وظ":2878,"امیدو":2879,"افغانستان ":2880,"معتق":2881,"اوقات ":2882,"می‌شود ":2883,"ما به ":2884,"صرف ":2885,"ترک ":2886,"قسمت ":2887,"نار":2888,"اند و ":2889,"دچار ":2890,"کنید\n":2891,"شده در ":2892,"گردان":2893,"نقا":2894,"ش، ":2895,"گسترده ":2896,"15":2897,"نه تنها ":2898,"مورد استفاده ":2899," برای ":2900,"نیروی ":2901,"عامل ":2902,"ناک ":2903,"یادگیری ":2904,"بنی":2905,"ثی":2906,"مؤ":2907,"به دلیل ":2908,"iv":2909,"فیزی":2910,"آقای ":2911,"راحت ":2912,"جایی که ":2913," نفر ":2914,"منت":2915,"شبیه ":2916,"نوعی ":2917,"گرفت.\n":2918,"با این حال، ":2919,"ازدواج ":2920,"لود ":2921,"افرادی که ":2922,"آن‌":2923,"است که در ":2924,"می‌گیر":2925,"گوید ":2926,"عدم ":2927,"کسانی ":2928,"دارو":2929,"الیا ":2930,"می‌رس":2931,"قرار":2932,"حرفه ای ":2933,"تروری":2934,"نخست":2935,"کمتر ":2936,"اسپ":2937,"بهره ":2938,"مقایسه ":2939,"پزشک ":2940,"؛\n":2941,"چال":2942,"به او ":2943,"اولیه ":2944,"جنسی ":2945,"راحتی ":2946,"شکست ":2947,"این موضوع ":2948,"آوری":2949,"گذاشت":2950,"اعمال ":2951,"رسانه ":2952,"تلویزی":2953,"محقق":2954,"ur":2955,"ن\n":2956,"سازمان":2957,"خودم ":2958,"موسیقی ":2959,"تری":2960,"ارزی":2961,"دارد و ":2962,"...":2963,"لوم ":2964,"برنامه های ":2965,"جایگزی":2966,"توافق ":2967,"حص":2968,"فرست":2969,"تفاوت ":2970,"تا به ":2971,"واکن":2972,"le ":2973,"صاد":2974,"ل‌های ":2975,"این یک ":2976,"شما":2977,"شده":2978,"ابزار ":2979,"بازاریابی ":2980,"تون ":2981,"ندگی ":2982,"با توجه به ":2983,"دمو":2984,"اختیار ":2985,"نور ":2986,"نگه":2987,"زندگی":2988,"فصل ":2989,"نفت ":2990,"چطور ":2991,"اسلا":2992,"دانشم":2993,"العا":2994,"قادر به ":2995,"ب، ":2996,"حق":2997,"م را ":2998,"ورز":2999,"شخص ":3000,"( ":3001,"می‌شوند.\n":3002,"عمی":3003,"سوریه ":3004,"دش":3005,"پزشکی ":3006,"می‌دهد.\n":3007,"دیجی":3008,"برای":3009,"افتا":3010,"نسخه ":3011,"راست":3012,"او در ":3013,"دیجیت":3014,"دسترس ":3015,"مثال، ":3016,"ad":3017,"حکو":3018,"می رو":3019,"نامی":3020,"هنر":3021,"می کند، ":3022,"نقطه ":3023,"دشو":3024,"طبق ":3025,"قبل ":3026,"فرانسه ":3027,"سرمایه گذاری ":3028,"مقابل ":3029,"ضر":3030,"همو":3031,"شنبه ":3032,"گذشت":3033,"اخیر ":3034,"مسئو":3035,"خبر ":3036,"بعضی از ":3037,"که این ":3038,"حذ":3039,"al ":3040,"رد":3041,"تازه ":3042,"رسمی ":3043,"عاً ":3044,"اسرائیل ":3045,"منجر به ":3046,"تکر":3047,"ig":3048,"استخ":3049,"مقاله ":3050,"چشم":3051,"شناسایی ":3052,"کجا ":3053,"است .\n":3054,"دارند، ":3055,"ویژگی ":3056,"در سراسر ":3057,"سوال ":3058,"ل‌":3059,"د: «":3060,"مواج":3061,"کمتر از ":3062,"زیب":3063,"فراموش ":3064,"مطر":3065,"جوان ":3066,"نمونه ":3067,"اقدام ":3068,"های مختلف ":3069,"حالت ":3070,"شده است، ":3071,"گوگل ":3072,"سوم ":3073,"کوچک":3074,"جدیدی ":3075,"ات و ":3076,"درون ":3077,"ببینی":3078,"هان ":3079,"داد که ":3080,"داران ":3081,"ذ ":3082,"گن":3083,"بران ":3084,"استر":3085,"با هم ":3086,"برای یک ":3087,"مادر ":3088,"موس":3089,"باشید.\n":3090,"استراتژی ":3091,"بمان":3092,"بین‌":3093,"خودشان ":3094,"امنیتی ":3095,"بحث ":3096,"مطرح ":3097,"ادار":3098,"بعضی ":3099,"ا در ":3100,"برای شما ":3101,"موجب ":3102,"مطالعات ":3103,"100":3104,"فه ":3105,"بودی":3106,"تر و ":3107,"پشتیبانی ":3108,"تکنولوژی ":3109,"تولد ":3110,"خوردن ":3111,"em":3112,"ژن ":3113,"کنند و ":3114,"شروع به ":3115,"ترکیه ":3116,"را به عنوان ":3117,"تعریف ":3118,"عق":3119,"میتوان":3120,"موقعیت ":3121,"هوشم":3122,"خارج از ":3123,"ثرو":3124,"مل ":3125,"امور ":3126,"آرا":3127,"اگرچه ":3128,"فنا":3129,"دهند.\n":3130,"ضه ":3131,"م‌های ":3132,"م در ":3133,"ec":3134,"نح":3135,"اول":3136,"می کند که ":3137,"مثبت ":3138,"چ ":3139,"صلح ":3140,"حقیقت ":3141,"به ما ":3142,"س و ":3143,"جمعیت ":3144,"درآمد ":3145,"که در آن ":3146,"لاب ":3147,"ag":3148,"ده و ":3149,"نرم ":3150,"P ":3151,"به من ":3152,"معام":3153,"بزر":3154,"احساس":3155,"فرمو":3156,"اشتراک ":3157,"تأثیر ":3158,"د:\n":3159,"می شود که ":3160,"عضو ":3161,"هست ":3162,"گل":3163,"گری ":3164,"این کار را ":3165,"ید\n":3166,"شخصیت ":3167,"دند.\n":3168,"تصاوی":3169,"سفید ":3170,"شدی":3171,"اسم ":3172,"انسانی ":3173,"ت از ":3174,"ترتی":3175,"ندو":3176,"مخال":3177,"این کشور ":3178,"منتظ":3179,"برگزار ":3180,"حذف ":3181,"ژاپ":3182,"زیر":3183,"کید ":3184,"ت و ":3185,"نخواهد ":3186,"تحلیل ":3187,"، اما ":3188,"پیام ":3189,"مفید ":3190,"ئو":3191,"گردد.\n":3192,"اعتماد ":3193,"هدایت ":3194,"اتحادیه ":3195,"هام ":3196,"انگیز ":3197,"حزب ":3198,"محققان ":3199,"In":3200,"ابر":3201,"دوستان ":3202,"می خواهید ":3203,"شما به ":3204,"تلفن ":3205,"شده، ":3206,"نوشی":3207,"اجرای ":3208,"فوق ":3209,"دانلود ":3210,"ساختمان ":3211,"قدیمی ":3212,"شما در ":3213,"علمی ":3214,"سبک ":3215,"آشن":3216,"بانک ":3217,"محتوای ":3218,"روزانه ":3219,"نفر":3220,"ی برای ":3221,"دفاع ":3222,"ارزیابی ":3223,"دوربین ":3224,"نداشت":3225,"باید به ":3226,"ــ":3227,"معر":3228,"گذار ":3229,"ضروری ":3230,"ثابت ":3231,"لط":3232,"می‌رو":3233,"بخو":3234,"خشو":3235,"بیای":3236,"دنی ":3237,"دوست دار":3238,"منبع ":3239,"اندازی ":3240,"جوی ":3241,"دولتی ":3242,"معنای ":3243,"ow":3244,"سرمایه‌":3245,"دختر":3246,"هفت":3247,"دیدن ":3248,"عاتی ":3249,"الکترو":3250,"سکو":3251,"هٔ ":3252,"وار":3253,"بول ":3254,"علت ":3255,"199":3256,"مراقبت ":3257,"اطراف ":3258,"آن، ":3259,"تحقیق ":3260,"افرادی ":3261,"ظاهر ":3262," م":3263,"مشترک ":3264,"وزیر ":3265,"گان":3266,"معمولاً ":3267,"خاص":3268,"خیره ":3269,"بیت ":3270,"می کنند، ":3271,"مشار":3272,"در میان ":3273,"فرهنگ ":3274,"نشان می‌ده":3275,"تک":3276,"ترامپ ":3277,"چا":3278,"حاصل ":3279,"تان را ":3280,"نج ":3281,"محبو":3282,"شی از ":3283,"ایمان ":3284,"تنظیم ":3285,"انتخابات ":3286,"طریق ":3287,"بلند ":3288,"صله ":3289,"تمرین ":3290,"بالای ":3291," C":3292,"سون ":3293,"آفریق":3294,"آلو":3295,"مگر ":3296,"باً ":3297,"کمک به ":3298,"ir":3299,"پاک":3300,"فعالی":3301,"رض":3302,"که با ":3303,"ش و ":3304,"س‌":3305,"امروزه ":3306,"دند":3307,"سروی":3308,"قلب ":3309,"۵۰":3310,"ی به ":3311,"همسر":3312,"منتق":3313,"مهند":3314,"آسان ":3315,"صدای ":3316,"ی‌":3317,"ید؟\n":3318,"نکته ":3319," یا ":3320,"عظ":3321,"غول ":3322,"اختص":3323,"تنا":3324,"رفته ":3325,"سات ":3326,"اما در ":3327,"ذکر ":3328,"ترکیب ":3329,"un":3330,"یک از ":3331,"فرآی":3332,"انسان":3333,"همانطور که ":3334,"صنع":3335,"جذب ":3336,"16":3337,"امام ":3338,"مشابه ":3339,"کردم.\n":3340,"بازگشت ":3341,"نخستین ":3342,"زاری ":3343,"ستن ":3344,"افزار ":3345,"داشته باشید.\n":3346,"می از ":3347,"می‌شود، ":3348,"نجات ":3349,"متوقف ":3350,"ع، ":3351,"قض":3352,"می توانیم ":3353,"آورد.\n":3354,"خود در ":3355,"اعتق":3356,"خصوصی ":3357," می":3358,"The ":3359,"آتش ":3360,"طرف":3361,"هستند":3362,"تهدید ":3363,"پسر":3364,"بیمار ":3365,"بزرگی ":3366,"حمل":3367,"دانشجویان ":3368,"علائم ":3369,"اسلامی ":3370,"جز ":3371,"گری":3372,"ید تا ":3373,"تیک ":3374,"ل در ":3375,"را می ":3376,"ادی از ":3377,"نی بر ":3378,"مانده ":3379,"محدودی":3380,"مقامات ":3381,"ذهن ":3382,"نوز":3383,"موثر ":3384,"تهی":3385,"طوری ":3386,"نگران ":3387,"م از ":3388,"انقلاب ":3389,"ت‌ها ":3390,"شگاه ":3391,"یهو":3392,"لیست ":3393,"کنیم، ":3394,"اوی ":3395,"پلیس ":3396,"فردی ":3397,"شای":3398,"م؟\n":3399,"چه کسی ":3400,"فایل ":3401,"خورد ":3402,"داشته باشند.\n":3403,"رق":3404,"خود، ":3405,"ورزش ":3406,"می دهد ":3407,"نک ":3408,"می بر":3409,"11":3410,"کند":3411,"گرفت ":3412,"شمالی ":3413,"کلاس ":3414,"کشته ":3415,"می کند و ":3416,"اقد":3417,"پاد":3418,"و از ":3419,"خواندن ":3420,"شع":3421,"ارات ":3422,"افسر":3423,"ضد ":3424,"لای":3425,"دارید.\n":3426,"مناف":3427,"آن را به ":3428,"هر روز ":3429,"مساف":3430,"دل ":3431,"است؛ ":3432,"است، اما ":3433,"اخی":3434,"می‌کند ":3435,"اخلا":3436,"دقیق ":3437,"واکنش ":3438,"اقدامات ":3439,"به س":3440,"ویی ":3441,"دانشمندان ":3442," ساعت ":3443,"با آن ":3444,"آورده ":3445,"پاسخ":3446,"مندان ":3447,"العاده ":3448,"ک، ":3449,"توجه":3450,"مدیر ":3451,"40":3452,"انو":3453,"مزای":3454,"وع":3455,"ها\n":3456,"عوامل ":3457,"ation":3458,"خطر":3459,"ناس":3460,"در برابر ":3461,"بازدید ":3462,"مقاو":3463,"گفت که ":3464,"لباس ":3465,"id":3466,"حس ":3467,"انات ":3468,"است: ":3469,"گفت: «":3470," دلار ":3471,"رش ":3472,"گانه ":3473,"از سوی ":3474,"دربار":3475,"تز":3476,"می‎":3477,"اظه":3478,"سان ":3479,"خاصی ":3480,"قوی ":3481,"ارتباط":3482,"حج":3483,"ده‌های ":3484,"قرآن ":3485,"میلیون ":3486,"نشده ":3487,"تقویت ":3488,"جدا ":3489,"صاح":3490,"شهرو":3491,"بشر ":3492,"13":3493,"im":3494,"قبل":3495,"• ":3496,"کانادا ":3497,"شدید ":3498,"بودند ":3499,"ات، ":3500,"معرض ":3501,"داده است.\n":3502,"جستجو ":3503,"حکومت ":3504,"س، ":3505,"بستگی ":3506,"که برای ":3507,"عراق ":3508,"i ":3509,"فاظ":3510,"بر این ":3511,"مساب":3512,"اختصاص":3513,"جراح":3514,"را انتخاب ":3515,"سیاست":3516,"سک ":3517,"دکتر ":3518,"ap":3519,"جایگزین ":3520,"همواره ":3521,"نک":3522,"فاصله ":3523,"معل":3524,"مورد نیاز ":3525,"کنید تا ":3526,"اولین بار ":3527,"نیازهای ":3528,"دعو":3529,"همکار":3530,"برای این ":3531,"کاملاً ":3532,"مجد":3533,"آوردن ":3534,"کشاور":3535,"تکرار ":3536,"زات ":3537,"ارتش ":3538,"شده توسط ":3539,"می‌کنند ":3540,"of ":3541,"چه چیزی ":3542,"از نظر ":3543,"برخور":3544,"درصد ":3545,"ملا":3546,"الگو":3547,"گذا":3548,"به آنها ":3549,"باشد":3550,"احترا":3551,"حتی اگر ":3552,"کند که ":3553,"کنیم که ":3554,"نشانه ":3555,"نرخ ":3556,"بتواند ":3557,"لند ":3558,"ام.\n":3559,"می‌توان ":3560,"درمانی ":3561,"ایی و ":3562,"استاندارد ":3563,"مستقیم ":3564,"ته ":3565,"شیمی":3566,"es ":3567,"چگو":3568,"بودم ":3569,") در ":3570,"با این حال ":3571,"رها ":3572,"عفو":3573,"پوشش ":3574,"کلیدی ":3575,"طل":3576,"خواهد کرد.\n":3577,"پرواز ":3578,"زارت ":3579,"شماره ":3580,"دختر ":3581,"کو ":3582,"سیاه ":3583,"قرار گرفته ":3584,"فهمی":3585,"هزار":3586,"به اندازه ":3587,"شود و ":3588,"St":3589,"ذخیره ":3590,"لی، ":3591,"قدرتم":3592,"سالم ":3593,"انیه ":3594,"عرضه ":3595,"رقابت ":3596,"دس ":3597,"انش ":3598,"چیزی است که ":3599,"مواجه ":3600,"ed":3601,"ن.\n":3602,"را بر":3603,"داده‌":3604,"می شود و ":3605,"یابد.\n":3606,"وزارت ":3607,"اعترا":3608,"بوده و ":3609,"بستان ":3610,"خش ":3611,"پسر ":3612,"امپ":3613,"ot":3614,"ا\n":3615,"چیست؟\n":3616,"رت":3617,"راب ":3618,"نیست، ":3619," میلیارد ":3620,"به نظر می رس":3621,"کارت ":3622,"دفت":3623,"واب":3624,"ناشی از ":3625,"نی و ":3626,"واقعاً ":3627,"بین‌المللی ":3628,"حفاظ":3629," دقیقه ":3630,"خرو":3631,"زند ":3632,"یابی ":3633,"می‌کند، ":3634,"کسی که ":3635,"اکت":3636,"سازمان مل":3637,"لحا":3638,"آموزشی ":3639,"ی\n":3640,"، که ":3641," روز ":3642,"تخص":3643,"ست و ":3644,".[":3645,"چرا که ":3646,"مشارکت ":3647,"دید.\n":3648,"دها ":3649,"لی از ":3650,"oc":3651,"باشد و ":3652,"مجبور ":3653,"عبارت ":3654,"بح ":3655,"نیو":3656,"مذه":3657,"ای که ":3658,"به هر ":3659,"ار و ":3660,"باید در ":3661,"هایشان ":3662,"آخر ":3663,"استرس ":3664,"زا ":3665,"آنکه ":3666,"عمر ":3667,"آب و ":3668,"م: ":3669,"نهایی ":3670,"بیماران ":3671,"آگاه ":3672,"حی ":3673,"کلمه ":3674,"شرکت های ":3675,"نشان داده ":3676,"ing ":3677,"منی ":3678,"راه حل ":3679,"مسئولیت ":3680,"صه ":3681,"اساسی ":3682,"منحص":3683,"امیدوار":3684,"خبر":3685,"است تا ":3686,"سرو":3687,"دیدگاه ":3688,"قبول ":3689,"هفت ":3690,"اين ":3691,"تولی":3692,"ش‌":3693,"علی ":3694,"پیام":3695,"آنچه که ":3696,"جوا":3697,"۳۰":3698,"مد ":3699,"از بین ":3700,"ut":3701,"نتوان":3702,"پست ":3703,"در ماه ":3704,"قبلی ":3705,"جنوبی ":3706,"مرو":3707,"استفاده کنید.\n":3708,"مشغول ":3709,"نقل ":3710,"on ":3711,"نمی دان":3712,"خدمت ":3713,"لحاظ ":3714,"متخصص":3715,"جالب ":3716,"an ":3717,"رهبری ":3718,"صبح ":3719,"قهو":3720,"کور":3721,"بودند، ":3722,"رسیدن به ":3723,"چالش ":3724,"آور ":3725,"غال ":3726,"او به ":3727,"تجهی":3728,"خود را با ":3729,"هوایی ":3730,"ك ":3731,"اینها ":3732,"خشونت ":3733,"موجو":3734,"کرده ای":3735,"مشاور":3736,"خودمان ":3737,"مصاح":3738,"رست":3739,"سم":3740,"جلوگیری از ":3741,"ما از ":3742,"می دهند.\n":3743,"الان ":3744,"مهمی ":3745,"تقسیم ":3746,"ul":3747,"لس ":3748,"نده":3749,"ند؛ ":3750,"سین ":3751,"وسیله ":3752,"بن ":3753,"تست ":3754,"رح":3755,"کردند ":3756,"مرکزی ":3757,"اداره ":3758,"تار":3759,"در اینجا ":3760,"17":3761,"آمیز ":3762,"برد ":3763,"دیگر، ":3764,"رسیده ":3765,"پیش بینی ":3766,"عملیات ":3767,"بقی":3768,"در روز ":3769,"معمول ":3770,"تهیه ":3771,"I ":3772,"روف ":3773,"حاک":3774,"برقرار ":3775,"این امر ":3776,"اعتب":3777,"هنوز هم ":3778,"نصب ":3779,"پا ":3780,"ستگی ":3781,"کاربر ":3782,"ت\n":3783,"دقت ":3784,"ارشد ":3785,"لین ":3786,"زیادی از ":3787,"us":3788,"ریک ":3789,"هوا ":3790,"نمایی ":3791,"را نیز ":3792,"علوم ":3793,"وید":3794,"منفی ":3795,"کلمات ":3796,"ay":3797,"عجی":3798,"و و ":3799,"شود که ":3800,"۱۵":3801,"ها برای ":3802,"ترس":3803,"خیاب":3804,"نشان":3805,"زین":3806,"ترس ":3807,"دهی ":3808,"درجه ":3809,"هیچ‌":3810,"گام ":3811,"تماش":3812,"سرویس ":3813,"25":3814,"ژ ":3815,"و با ":3816,"ستاره ":3817,"فرم ":3818,"ent":3819,"غل":3820,"روغ":3821,"امتح":3822,"خوی":3823,"ستم ":3824,"گاهی اوقات ":3825,"شیوه ":3826,"مبتلا به ":3827,"جعه ":3828,"از آنها ":3829,"ه‌ای":3830,"ترجی":3831,"سود ":3832,"می‌کند که ":3833,"سخن ":3834,"مهارت های ":3835,"چگونگی ":3836,"می کنید ":3837,"um":3838,"یافت ":3839,"و این ":3840,"ند: ":3841,"قابلیت ":3842," ساله ":3843,"مورد استفاده قرار ":3844,"60":3845,"فرای":3846,"نظارت ":3847,"نوشتن ":3848,"نگرانی ":3849,"منافع ":3850,"تب ":3851,"رشته ":3852,"است که به ":3853,"رایگان ":3854,"وبلا":3855,"ترتیب ":3856,"ک و ":3857,"های دیگر ":3858,"دی، ":3859,"‌ها را ":3860,"داشته باشید که ":3861,"دیجیتال ":3862,"مرگ":3863,"تایید ":3864,"دلایل ":3865,"ساختار ":3866,"بحران ":3867,"شاه ":3868,"نیستند.\n":3869,"مفهو":3870,"دون":3871,"زیبا ":3872,"خلق ":3873,"ارش ":3874,"کیلو":3875,"جنب":3876,"عربستان ":3877,"پیش‌":3878,"الکترونی":3879,"آدم ":3880,"حافظ":3881,"تصاویر ":3882,"صرف":3883,"مخاط":3884,"کف":3885,"تون":3886,"به‌طور ":3887,"تقریباً ":3888,"فناوری ":3889,"منتقل ":3890,"دارند که ":3891,"تعه":3892,"جواب ":3893,"دائ":3894,"برای هر ":3895,"عهده ":3896,"ـ ":3897,"خوش ":3898,"امض":3899,"ابزار":3900,"in ":3901,"فلسط":3902,"کامپیوتر ":3903,"تمایل ":3904,"عط":3905,"ین":3906,"موار":3907,"زیست ":3908,"مرا ":3909,"اسلام ":3910,"می‌شود که ":3911,"پایه ":3912,"ناگ":3913,"انیان ":3914,"عاشق ":3915,"ساز ":3916,"اون ":3917,"عیف ":3918,"خال":3919,"است!\n":3920,"فوت":3921,"خواسته ":3922,"شد\n":3923,"نحوه ":3924,"چرا":3925,"در زمان ":3926,"د، اما ":3927,"اندی":3928,"کنم ":3929,"ست.\n":3930,"مواف":3931,"بلو":3932,"شار":3933,"قدم ":3934,"رز":3935,"نمی‌دان":3936,"گذاشته ":3937,"شید ":3938,"متوسط ":3939,"تر، ":3940,"مدرن ":3941,"سلامتی ":3942,"سنگ ":3943,"عادی ":3944,"os":3945,"هایش ":3946,"رهبران ":3947,"متص":3948,"ادل ":3949,"هزاران ":3950,"مي":3951,"ی.\n":3952,"هند ":3953,"بیو":3954,"مب":3955,"ویه ":3956,"سری ":3957,"همراه با ":3958,"عدد ":3959,"نشان می دهد که ":3960,"عک":3961,"تین ":3962,"14":3963,"۱۲":3964,"روان":3965,"ترجم":3966,"اوایل ":3967,"وجود ندارد.\n":3968,"نفس ":3969,"به همین دلیل ":3970," با ":3971,"داریم ":3972,"استراتژ":3973,"تضمین ":3974,"تشوی":3975,"وین ":3976,"معم":3977,"فعلی ":3978,"بتوانند ":3979,"دس":3980,"در دسترس ":3981,"ویرو":3982,"ساله ":3983,"اطلاعاتی ":3984,"چیزهایی ":3985,"دشوار ":3986,"اهل ":3987,"هم‌":3988,"باید از ":3989,"ده‌ای ":3990,"اقامت ":3991,"صو":3992,"مور":3993,"داریم.\n":3994,"شده اند.\n":3995,"فکر":3996,"تقاض":3997,"اتفاقی ":3998,"وظی":3999,"هور":4000,"محاس":4001,"قهر":4002,"شود":4003,"ندارند.\n":4004,"سعو":4005,"انی، ":4006," یک ":4007,"می‌توانیم ":4008,"به شما کمک ":4009,"شان":4010,"محافظت ":4011,"تکمی":4012,"حل":4013,"شمال ":4014,"برنامه ریزی ":4015,"نمی تواند ":4016,"بچ":4017,"لند":4018,"این دو ":4019,"گوشی ":4020,"نظام ":4021,"وقتی که ":4022,"لحظه ":4023,"؟!\n":4024,"۱۸":4025,"در جهان ":4026,"به سمت ":4027,"000":4028,"نقاط ":4029,"اعتقاد ":4030,"ed ":4031,"آید.\n":4032,"فرزند ":4033,"روح ":4034,"اء ":4035,"نیوی":4036,"کارکنان ":4037,"معت":4038,"تاز":4039,"عنا":4040,"مداو":4041,"، از ":4042,"شغل ":4043,"تغذ":4044,"برخورد ":4045,"وجود دارد ":4046,"کردند که ":4047,"مزایای ":4048,"این را ":4049,"آرام":4050,"چی ":4051,"ژان":4052,"سریع":4053,"سال گذشته ":4054,"به‌عنوان ":4055,"امریکا ":4056,"نیویور":4057," ماه ":4058,"جدید":4059,"بردن ":4060,"داد و ":4061,"یک بار ":4062,"منتظر ":4063,"می افت":4064,"می کنم ":4065,"تلویزیون ":4066,"کارگران ":4067,"واحد ":4068,"حیوانات ":4069,"\".\n":4070,"۱۰۰":4071,"ند .\n":4072,"انتشار ":4073,"»،":4074,"جزی":4075,"عکس":4076,"زندان ":4077,"فعالیت های ":4078,"رئیس جمهور ":4079,"« ":4080,"چار":4081,"وران ":4082,"انداز ":4083,"تبلیغات ":4084,"پیچیده ":4085,"زدن ":4086,"به منظور ":4087,"پناه":4088,"بقیه ":4089,"در کنار ":4090,"می‌کنند، ":4091,"خانم ":4092,"شنگ":4093,"ناراح":4094,"در صورت ":4095,"محسو":4096,"صحی":4097,"هنر ":4098,"دایی ":4099,"فرض ":4100,"اد و ":4101,"گه ":4102,"واض":4103,"شمار ":4104,"جزئی":4105,"شده است که ":4106,"کاری که ":4107,"انگل":4108,"وعده ":4109,"هستیم.\n":4110,"ده‌ی ":4111,"and ":4112,"غربی ":4113,"حملات ":4114,"ab":4115,"فنی ":4116,"در زندگی ":4117,"ساع":4118,"دادگاه ":4119,"ایی، ":4120,"برچ":4121,"روست":4122,"را از دست ":4123,"شاهد ":4124,"صنعتی ":4125,"ویتامین ":4126,"خود به ":4127,"من به ":4128,"198":4129,"توصیف ":4130,"والدین ":4131,"l ":4132,"جس":4133,"رنگ":4134,"فرمای":4135,"T ":4136,"با وجود ":4137,"مطلب ":4138,"دریایی ":4139,"مری":4140,"وجو":4141,"نی، ":4142,"بوک ":4143,"می کنند و ":4144,"بیشترین ":4145,"امید ":4146,"سپت":4147,"L ":4148,"نامیده ":4149,"منحصر به ":4150,"شف":4151,"توزی":4152,"برای انجام ":4153,"روغن ":4154,"هشد":4155,"ش در ":4156,"ان را ":4157,"کنند که ":4158,"وجود ندار":4159,"متر ":4160,"ها از ":4161,"آن است که ":4162,"اجتنا":4163,"مقابله ":4164,"ینی ":4165,"های اجتماعی ":4166,"ختن ":4167,"سلام ":4168,"od":4169,"بتوانید ":4170,"زیبایی ":4171,"شیمیایی ":4172,"عبور ":4173,"از سال ":4174,"شوید.\n":4175,"دهید ":4176,"متق":4177,"می تواند به ":4178,"عوض ":4179,"آب":4180,"دارند و ":4181,"دلی":4182,"هزین":4183,"بیش از حد ":4184,"رو به ":4185,"بهتر است ":4186,"هشدار ":4187,"جع":4188,"زای ":4189,"استع":4190,"راج ":4191,"می‌کند و ":4192,"نسل ":4193,"اجتناب ":4194,"ri":4195,"می‌بر":4196,"دادند.\n":4197,"دفتر ":4198,"بند":4199,"راست ":4200,"تمری":4201,"بودجه ":4202,"جایزه ":4203,"آه":4204,"حت":4205,"گار":4206,"برج":4207,"برداری ":4208,"دیدار ":4209,"ملاقات ":4210,"متصل ":4211,"چش":4212,"دارد":4213,"دستور ":4214,"ers":4215,"حضرت ":4216,"مهاجرت ":4217,"سام":4218,"و همچنین ":4219,"میانه ":4220,"دهندگان ":4221,"شده بود.\n":4222,"پس از آن ":4223,"موجود در ":4224,"بزنی":4225,"شهری ":4226,"سخنر":4227,"نویسنده ":4228,"نیازمند ":4229,"استرالیا ":4230,"به ویژه ":4231,"ادعا ":4232,"آث":4233,"نژ":4234,"امتی":4235,"دارید، ":4236,"متمرکز ":4237,"همانند ":4238,"بروز ":4239,"عفونت ":4240,"مجاز":4241,"سختی ":4242,"عین ":4243,"مراح":4244,"میز":4245,"برادر":4246,"جر":4247,"فس":4248,"‌تان ":4249,"هستید، ":4250,"یافتن ":4251,"تانیا ":4252,"* ":4253,"24":4254,"بساز":4255,"سیاس":4256,"فرهنگی ":4257,"مقاومت ":4258,"هتل ":4259,"خانو":4260,"حداک":4261,"احساسات ":4262,"لغ":4263,"پخش ":4264,"بیل ":4265,"عملی ":4266,"مدیران ":4267,"جلسه ":4268,"دعوت ":4269,"سازمان ملل ":4270,"نداری":4271,"اصط":4272,"گاه‌های ":4273,"نفو":4274,"ان‌های ":4275,"من در ":4276,"رهبر ":4277,"فوق العاده ":4278,"می‏":4279,"دیگر از ":4280,"غرب ":4281,"هوشمند ":4282,"ایع ":4283,"این شرکت ":4284,"استو":4285,"بهداشت":4286,"تاکنون ":4287,"تاکید ":4288,"فرآیند ":4289,"نما":4290,"متن ":4291,"مطاب":4292,"حساب":4293,"بریتانیا ":4294,"مذا":4295,"op":4296,"مض":4297,"رادی":4298,"ماس":4299,"کنیم و ":4300,"خورشید ":4301,"ده.\n":4302,"بهداشت ":4303,"خریداری ":4304,"چرخه ":4305,"سؤ":4306,"ن‌های ":4307,"پرست":4308,"بودم.\n":4309,"اساس":4310,"آنجا که ":4311,"av":4312,"آگاه":4313,"انجام می ده":4314,"دسته ":4315,"پارک ":4316,"مجو":4317,"آشنا ":4318,"روح":4319,"هماه":4320,"هستید ":4321,"آشکار ":4322,"خدا":4323,"درمان":4324,"بدان ":4325,"ایمیل ":4326,"نیازی ":4327,"من و ":4328,"چینی ":4329,"سیستم های ":4330,"حاوی ":4331,"اندا":4332,"در زمینه ":4333,"برنده ":4334,"امکان":4335,"تجزی":4336,"پروژ":4337,"قبلا ":4338,"تکن":4339,"غم ":4340,"مول":4341,"شیر ":4342,"گذاری":4343,"مرتبط با ":4344,"فیزیکی ":4345,"فیک ":4346,"استان ":4347,"می کنند که ":4348,"رنج ":4349,"كر":4350,"مای ":4351,"نتی ":4352,"پیاده ":4353,"‌ها در ":4354,"سبز ":4355,"شهروندان ":4356,"تشویق ":4357,"محسوب ":4358,"آپ":4359,"اتص":4360,"راه‌":4361,"متفاو":4362,"پذیری ":4363,"امتحان ":4364,"بطور ":4365,"می آی":4366,"اصلاح ":4367,"هوش ":4368,"دسترسی به ":4369,"جنوب ":4370,"عادت ":4371,"جراحی ":4372,"تاسی":4373,"ری از ":4374,"پیروزی ":4375,"داشتند.\n":4376,"رسید.\n":4377,"منطق":4378,"كن":4379,"نرم افزار ":4380,"ترجیح ":4381,"صدا ":4382,"آنها در ":4383,"شان را ":4384,"اکسی":4385,"پیدا کردن ":4386,"علاوه بر این، ":4387,"جوانان ":4388,"مسئول ":4389,"نمای ":4390,"بگیرید.\n":4391," است.\n":4392,"تهای ":4393,"و یک ":4394,"بروی":4395,"روزنامه ":4396,"راهی ":4397,"طبقه ":4398,"ژاپن ":4399,"اختصاص ":4400,"د در ":4401,"خودر":4402,"منز":4403,"علم ":4404,"آن در ":4405,"محکو":4406,"تی، ":4407,"فکر می‌کن":4408,"باری ":4409,"شورای ":4410,"بنابراین، ":4411,"دقیقا ":4412,"مبا":4413,"گاز ":4414,"در نتیجه ":4415,"امسال ":4416,"ماج":4417,"روزهای ":4418,"بنا ":4419,"بدن":4420,"سلاح ":4421,"شگفت ":4422,"فهر":4423,"برق ":4424,"باور":4425,"انجمن ":4426,"فقط یک ":4427,"بیمارستان ":4428,"به یاد ":4429,"سیون ":4430,"دوی":4431,"ند، اما ":4432,"تنهایی ":4433,"مطل":4434,"تاریخی ":4435,"نه، ":4436,"گوید که ":4437,"پیشرفته ":4438,"رفت ":4439,"در صور":4440,"می خواه":4441,"گردان ":4442,"تسلی":4443,"خر ":4444,"ارتق":4445,"شناسان ":4446,"اتحادیه اروپا ":4447,"ما باید ":4448,"درگیر ":4449,"واشنگ":4450,"گذر":4451,"هزینه های ":4452,"عمیق ":4453,"رتبه ":4454,"Goo":4455,"بس":4456,"بی از ":4457,"درستی ":4458,"طو":4459,"قوه ":4460,"اختلال ":4461,"کشتی ":4462,"ter":4463,"این برنامه ":4464,"استاد ":4465,"در حدود ":4466,"تخت ":4467,"عی از ":4468,"مقر":4469,"بهتر از ":4470,"قرار است ":4471,"کشورها ":4472,"کمک":4473,"اسف":4474,"می کند تا ":4475,"داشته است.\n":4476,"تم ":4477,"مبل":4478,"در نهایت ":4479,"کد ":4480,"فروشگاه ":4481,"درا":4482,"پور":4483,"جلوگیری ":4484,"چاپ ":4485,"ترجمه ":4486,"دندان ":4487,"بهتری ":4488,"مستقل ":4489,"برنامه‌":4490,"توزیع ":4491,"نبود.\n":4492,"نیمه ":4493,"تجهیزات ":4494,"(ع":4495,"آگاهی ":4496,"نو ":4497,"های جدید ":4498,"باشید ":4499,"هم در ":4500,"تاثی":4501,"مقام ":4502,"کلیس":4503,"قلبی ":4504,"مذاک":4505,"حداکثر ":4506,"An":4507,"اوا":4508,"وان ":4509,"انی و ":4510,"هستید.\n":4511,"آسمان ":4512,"مراحل ":4513,"عزی":4514,"نمی‌تواند ":4515,"ایی که ":4516,"خود و ":4517,"فرار ":4518,"معروف ":4519,"به عنوان مثال، ":4520,"آزمون ":4521,"پین ":4522,"بدست ":4523,"وع ":4524,"پان":4525,"شما را به ":4526,"اوت ":4527,"آمد.\n":4528,"اصول ":4529,"هشت ":4530,"موتور ":4531,"فوتبال ":4532,"تلاش برای ":4533,"M ":4534,"ew":4535,"التحصی":4536,"ناه ":4537,"کرده اند.\n":4538,"شغلی ":4539,"مصاحبه ":4540,"صحیح ":4541,"اق ":4542,"فور":4543,"م!\n":4544,"من از ":4545,"بودند که ":4546,"انجام دهید.\n":4547,"دموک":4548,"سپتامبر ":4549,"بند ":4550,"سقو":4551,"شواه":4552,"صحنه ":4553,"جستجوی ":4554,"وبلاگ ":4555,"جع ":4556,"خیر ":4557,"اید.\n":4558,"برو ":4559,"ریاض":4560,"همزمان ":4561,"کلاس":4562,"افسردگی ":4563,"کار، ":4564,"اصلا ":4565,"لان ":4566,"مختلف":4567,"مختلفی ":4568,"ضی ":4569,"حیه ":4570,"نخست ":4571,"ایم.\n":4572,"هم به ":4573,"عقب ":4574,"همچون ":4575,"کلیک ":4576,"یافت.\n":4577,"B ":4578,"زنی ":4579,"سخت":4580,"ق، ":4581,"کنفران":4582,"داد، ":4583,"نیم ":4584,"گردش":4585,"ئو ":4586,"خاور":4587,"خود را از ":4588,"اطلاع ":4589,"نزدیک به ":4590,"اثرات ":4591,"محبوب ":4592,"زیک ":4593,"سفر":4594,"اصله ":4595,"هیچ کس ":4596,"هدف":4597,"مسلمان":4598,"نگهداری ":4599,"اظهار ":4600,"شانس ":4601,"پری":4602,"کشی ":4603,"or ":4604,"چربی ":4605,"شرکت‌های ":4606,"اطمینان حاصل ":4607,"کز ":4608,"کنید؟\n":4609,"هست.\n":4610,"ه‌ای از ":4611,"قابل توجه":4612,"مبتنی بر ":4613,"جزئیات ":4614,"og":4615,"تدری":4616,"تی در ":4617,"محدودیت ":4618,"آژ":4619,"ين ":4620,"همسر ":4621,"گروه":4622,"ایمنی ":4623,"ما با ":4624,"موقع ":4625,"برخوردار ":4626,"واضح ":4627,"Ch":4628,"کردند، ":4629,"معمولی ":4630,"جنسی":4631,"برگزاری ":4632,"حقوق":4633,"بخشی":4634,"سعی کنید ":4635,"ارتباطات ":4636,"بدین ":4637,"ثانیه ":4638,"لادی ":4639,"چیزهای ":4640,"خورشی":4641,"فارغ ":4642,"می، ":4643,"ویل ":4644,"به این معنی ":4645,"تأی":4646,"ارتباط با ":4647,"سان":4648,"‌و":4649,"دستیابی ":4650,"کردند و ":4651,"می‌شود و ":4652,"موسسه ":4653,"؟»\n":4654,"رهای ":4655,"این نوع ":4656,"روش":4657,"استقل":4658,"گیرد ":4659,"کمپ":4660,"مواد غذایی ":4661,"جزیره ":4662,"چند":4663,"تعداد":4664,"کانال ":4665,"حمل و ":4666,"حمایت از ":4667,"نسب":4668,"پنهان ":4669,"احتمالاً ":4670,"آرام ":4671,"قول ":4672,"اروپایی ":4673,"تکمیل ":4674,"عرو":4675,"شوند، ":4676,"یا یک ":4677,"مره ":4678,"آنها به ":4679,"کرد\n":4680,"قرارداد ":4681,"Re":4682,"نز ":4683,"ندارد ":4684,"خوشحال ":4685,"تفکر ":4686,"رب":4687,"لز":4688,"ریسک ":4689,"باب ":4690,"ست که ":4691,"قرمز ":4692,"به نظر می‌رس":4693,"ایم ":4694,"است اما ":4695,"بلاف":4696,"کرده‌اند.\n":4697,"h ":4698,"۱۳":4699,"گذشت ":4700,"گیرد.\n":4701,"از او ":4702,"را تجربه ":4703,"کمبود ":4704,"متحد ":4705,"قطع ":4706,"سقوط ":4707,"x ":4708,"صبر ":4709,"به گفته ":4710,"برای ایجاد ":4711,"ساختن ":4712,"منجر ":4713,"عی، ":4714,"کسی":4715,"‌ها، ":4716,"دارم ":4717,"کردیم.\n":4718," کیلو":4719,"اران ":4720,"می کنیم.\n":4721,"می توانم ":4722,"آثار ":4723,"» و ":4724,"سگ ":4725,"تاً ":4726,"خودرو":4727,"پایدار ":4728,"کلید ":4729,"جنبش ":4730,"O ":4731,"، با ":4732,"مساله ":4733,"پروت":4734,"جدا":4735,"افتخ":4736,"خطرناک ":4737,"احترام ":4738,"وابسته ":4739,"مذاکرات ":4740,"زخ":4741,"پاری":4742,"از هر ":4743,"براساس ":4744,"ها.\n":4745,"سال‌های ":4746,"بانک":4747,"نشی":4748,"دادی":4749,"طبیعت ":4750,"حوزه ":4751,"ممنو":4752,"مقایسه با ":4753,"R ":4754,"ایق ":4755,"در معرض ":4756,"هسته ای ":4757,"شرک":4758,"راه اندازی ":4759,"اکث":4760,"زودی ":4761,"شبک":4762,"دروغ ":4763,"نزدیکی ":4764,"استخدام ":4765,"وظیفه ":4766,"تکنیک ":4767,"جاری ":4768,"جشن ":4769,"بیدار ":4770,"افکار ":4771,"آزمایش":4772,"پای ":4773,"بلافاصله ":4774,"انقل":4775,"می ساز":4776,"احتی":4777,"غذاهای ":4778,"انگیزه ":4779,"رانندگی ":4780,"قهوه ":4781,"% ":4782,"عذ":4783,"انه، ":4784,"در سطح ":4785,"ری، ":4786,"آیند":4787,"مطمئن شو":4788,"صند":4789,"داشته باشید ":4790,"رفت.\n":4791,"پذیرش ":4792,"ثروتم":4793,"کنفرانس ":4794,"com":4795,"e\n":4796,"ئی ":4797,"جد ":4798,"از شما ":4799,"بوده‌":4800,"آن را در ":4801,"مانع ":4802,"بیماری":4803,"ایرانی ":4804,"E ":4805,"به معنای ":4806,"میوه ":4807,"ند!\n":4808,"آمد":4809,"تعطی":4810,"بسیار مهم ":4811,"» (":4812,"197":4813,"فراتر از ":4814," سالگی ":4815,"خواب":4816,"شده است":4817,"انه و ":4818,"اجر":4819,"پروتئ":4820,"فضایی ":4821,"شده‌اند.\n":4822,"بپرداز":4823,"طال":4824,"وسای":4825,"گلو":4826,"امن ":4827,"ادث":4828,"تورهای ":4829,"مذاکره ":4830,"80":4831,"ob":4832,"دبی":4833,"مند":4834,"را بر ":4835,"خود را برای ":4836,"مفهوم ":4837,"ئن ":4838,"روشن":4839,"هستم.\n":4840,"می شود":4841,"دادن به ":4842,"تحت تاثیر ":4843,"می گذار":4844,"کارشناسی ":4845,"گون ":4846,"فرایند ":4847,"Goog":4848,"علاق":4849,"صادر ":4850,"د .\n":4851,"ایر ":4852,"روش های ":4853,"‌شان ":4854,"تحمل ":4855,"پاک ":4856,"دموکر":4857,"معامله ":4858,"ز، ":4859,"انجام می‌ده":4860,"داشته باشد، ":4861,"نماید.\n":4862,"به طور کامل ":4863,"پروتئین ":4864,"اشی":4865,"واقعی":4866,"کرد تا ":4867,"آدم":4868,"فرانس":4869,"جمع آوری ":4870,"ویژگی های ":4871,"به مدت ":4872,"می‌باشد.\n":4873,"باشند، ":4874,"ماً ":4875,"قطعا ":4876,"پادا":4877,"پاکستان ":4878,"سب ":4879,"قتل ":4880,"به وجود ":4881,"را ن":4882,"من، ":4883,"سعودی ":4884,"مجوز ":4885,"IS":4886,"آبی ":4887,"ظرف":4888,"شده است و ":4889,"گویی ":4890,"شخصی":4891,"چهره ":4892,".)\n":4893,"مر ":4894,"چوب ":4895,"اید":4896,"ستار":4897,"برای من ":4898,"گرد ":4899,"ما، ":4900,"قرار ده":4901,"سطو":4902,"جنبه ":4903,"۱۹۹":4904,"یم\n":4905,"تعدادی از ":4906," - ":4907,"رع":4908,"ستند ":4909,"خواهی ":4910,"عرض ":4911,"به اشتراک ":4912,"ام، ":4913,"سیر ":4914,"نشان ده":4915,"خوان ":4916,"ه‌ای که ":4917,"مالیات ":4918,"انگلستان ":4919,"ra":4920,"دي":4921,"برند ":4922,"می‌خواهید ":4923,"پرورش ":4924,"خانگی ":4925,"and":4926,"نماز ":4927,"رژیم غذایی ":4928,"نیویورک ":4929,"سطوح ":4930,"!!\n":4931,"را هم ":4932,"نگاهی ":4933,"خاک ":4934,"سابق ":4935,"‌اش ":4936,"را پیدا ":4937,"تصاد":4938,"تهران ":4939,"ورود ":4940,"معنا ":4941,"مشه":4942,"گفتن ":4943,"صدها ":4944,"متخصص ":4945,"اکتبر ":4946,"معماری ":4947,"فارغ التحصی":4948,"Pro":4949,"زان":4950,"موزه ":4951,"همه‌ی ":4952,"سالانه ":4953,"عیسی ":4954,"از دست دادن ":4955,"up":4956,"تمیز ":4957,"برای اولین بار ":4958,"فرمان":4959,"بازسازی ":4960,"نیز در ":4961,"فرود":4962,"ویروس ":4963,"بودی ":4964,"دم که ":4965,"سبب ":4966,"اسیون ":4967,"اواخر ":4968,"!»\n":4969,"­‌":4970,"ت.\n":4971,"پدید ":4972,"نابود ":4973,"هسته‌ای ":4974,"سرزمین ":4975,"پزشکان ":4976,"if":4977,"را کاهش ":4978,"این کتاب ":4979,"درد":4980,"میدان ":4981,"را ارائه ":4982,"لینک ":4983,"متعل":4984,"پایگاه ":4985,"صدا":4986,"نکرده ":4987,"انت ":4988,"یک روز ":4989,"با او ":4990,"کمک کند.\n":4991,"سنتی ":4992,"بلا":4993,"تک ":4994,"فان ":4995,"گره ":4996,"کشوری ":4997,"ان.\n":4998,"همسای":4999,"لوژ":5000,"هرگونه ":5001,"هوای ":5002,"۴۰":5003,"ریم ":5004,"لاتی ":5005,"نظریه ":5006,"زود ":5007,"پدر و ":5008,"گذشته، ":5009,"سرمایه‌گذاری ":5010,"بخوان":5011,"نکنید.\n":5012,"ی‌های ":5013,"ندهای ":5014,"بارداری ":5015,"مراجعه ":5016,"نیمی از ":5017,"اوب":5018,"بالقوه ":5019,"نقشه ":5020,"رضایت ":5021,"فهرست ":5022,"٪ ":5023,"به شدت ":5024,"را تغییر ":5025,"سیاره ":5026,"هر چه ":5027,"دانشک":5028,"کمتری ":5029,"فرزندان ":5030," […":5031,"فهم":5032,"مقی":5033,"توی":5034,"ثبت نام ":5035,"دشمن ":5036,"میده":5037,"مرز":5038,"مدتی ":5039,"بیش از یک ":5040,"ov":5041,"ادر":5042,"تا زمانی که ":5043,"در حو":5044,"جایگاه ":5045,"ایتالیا ":5046,"وظای":5047,"ضع":5048,"هویت ":5049,"می خواهد ":5050,"روبرو ":5051,"ادهای ":5052,"موضوعات ":5053,"تحقیقاتی ":5054,"90":5055,"خشک ":5056,"ضعیف ":5057,"ار، ":5058,"دارو ":5059,"هیجان ":5060,"مشاب":5061,"نویسی ":5062,"تغذیه ":5063,"تأیید ":5064,"اشک":5065,"ببین":5066,"شوند ":5067,"مصنوعی ":5068,"رویکرد ":5069,"the ":5070,"ارزشم":5071,"اتوم":5072,"می خواهند ":5073,"نادیده ":5074,"داشت که ":5075,"از طرف ":5076,"اثبات ":5077,"منحصر به فرد ":5078,"فج":5079,"به خوبی ":5080,"داده":5081,"نوشت ":5082,"باشند ":5083,"مجبو":5084,"زبان انگلیسی ":5085,"تحصیلی ":5086,"عناصر ":5087,"به راحتی ":5088,"الهی ":5089,"در سراسر جهان ":5090,"متعلق ":5091,"کات ":5092,"در ق":5093,"دیپل":5094,"دسامبر ":5095,"کات":5096,"ارض ":5097,"یک برنامه ":5098,"کوه ":5099,"متع":5100,"تنها یک ":5101,"آموزش و ":5102,"ظهور ":5103,"در نظر گرفته ":5104,"­ ":5105,"برتر ":5106,"بازداشت ":5107,"بزرگسال":5108,"مشکلی ":5109,"صفحات ":5110,"تابستان ":5111,"کشاورزی ":5112,"اتصال ":5113,"کودک":5114,"آرز":5115,"داروهای ":5116,"لو ":5117,"مخت":5118,"می‌ ":5119,"همه ی ":5120,"ماهی ":5121,"استاندار":5122,"بالاتر ":5123,"تجزیه و ":5124,"تبع":5125,"ه‌هایی ":5126,"حقوق بشر ":5127," […]\n":5128,"ub":5129,"در آینده ":5130,"برای مثال ":5131,"اگر چه ":5132,"مهندسی ":5133,"اعتبار ":5134,"آژانس ":5135,"استقلال ":5136,"میر ":5137,"تا سال ":5138,"متاسف":5139,"بلند":5140,"نوامبر ":5141,"مراسم ":5142,"گوشت ":5143,"سخنرانی ":5144," کشور ":5145,"سفی":5146,"می کنید، ":5147,"بیات ":5148,"می شوند ":5149,"خواستار ":5150,"مهمترین ":5151,"خروج ":5152,"شق":5153,"کیت ":5154,"انیا ":5155,"شما از ":5156,"خود را":5157,"هرچند ":5158,"نشان داد که ":5159,"خدای ":5160,"افتخار ":5161,"سور":5162,"به سرعت ":5163,"را افزایش ":5164,"کارمندان ":5165,"می کند":5166,"زمینی ":5167,"ختی ":5168,"ره‌":5169,"سنت ":5170,"چای ":5171,"دومین ":5172,"باشید، ":5173,"گذران":5174,"زود":5175,"en ":5176,"طیف ":5177,"بدی ":5178,"ایالت ":5179,"با یکدیگر ":5180,"ویدی":5181,"گیاه":5182,"بر سر ":5183,"مراکز ":5184,"V ":5185,"فقی":5186,"مامو":5187,"از آنجا که ":5188,"قرار دارد.\n":5189,"مجلس ":5190,"مارس ":5191,"تصویب ":5192,"خسته ":5193,"متر":5194,"راً ":5195,"بیاور":5196,"سرد ":5197,"کمه ":5198,"ملت ":5199,"مثلا ":5200,"زمین":5201,"کاغذ":5202,"معتقد ":5203,"حجم ":5204,"ip":5205,"ستون ":5206,"شما و ":5207,"گذاران ":5208,"فضا ":5209,"قدرتمند ":5210,"رغم ":5211,"شریک ":5212,"۱۱":5213,"بی، ":5214,"سیگار ":5215,"می‌کنند و ":5216,"بیمه ":5217,"پرداخت":5218,"اجرایی ":5219,"N ":5220,"ندی":5221,"می کنید.\n":5222,"ادار ":5223,"آمریکا و ":5224,"شهرهای ":5225,"واشنگتن ":5226,"فلسف":5227,"آدرس ":5228,"رفا":5229,"از آن":5230,"برای ما ":5231,"پوشی":5232,"اتفاق می افت":5233,"اقی":5234,"صبح":5235,"می کنیم ":5236,"دادی ":5237,"می‌خواهد ":5238,"تعامل ":5239,"در حالی":5240,"غذای ":5241,"حیات ":5242,"ترافیک ":5243,"رابطه با ":5244,"امپرا":5245," ...":5246,"حات ":5247,"نمی‌توان":5248,"کمو":5249,"او از ":5250,"مستق":5251,"محتوا ":5252,"دند ":5253,"لت ":5254,"می و ":5255,"بازیک":5256,"سوری":5257,"رسانی ":5258,"مجله ":5259,"شد تا ":5260,"ورود به ":5261,"می گیرد.\n":5262,"مذهبی ":5263,"متخصصان ":5264,"عصر ":5265,"مخصوص":5266,"واس":5267,"یس ":5268,"ریشه ":5269,"سین":5270,"نمود.\n":5271,"عال":5272,"دهم ":5273,"به عنوان مثال ":5274,"‌‌‌‌":5275,"صاحب ":5276," که ":5277,"بله ":5278,"جلب ":5279,"قف":5280,"‌هایی که ":5281,"بالایی ":5282,"دریافت":5283,"نیاز دار":5284,"یهودی":5285,"آهنگ ":5286,"هدی":5287,"توری ":5288,"داع":5289,"ه‌اش ":5290,"یکسان ":5291,"ایستگاه ":5292,"خاورمیانه ":5293,"Google ":5294,"ه: ":5295,"داً ":5296,"استفاده می شود.\n":5297,"مهارت":5298,"صنایع ":5299,"بازیکنان ":5300,"عصبی ":5301,"غری":5302,"لزو":5303,"ني":5304,"انعط":5305,"در مقابل ":5306,"را ایجاد ":5307,"می گوید ":5308,"داشته باشید، ":5309,"نشسته ":5310,"شناخت":5311,"مسلمان ":5312,"فعالیت‌های ":5313,"تاسیس ":5314,"ها با ":5315,"می‌گوید ":5316,"دانشگاه":5317,"مسابقه ":5318,"امضا ":5319,"برچسب ":5320,"لبخ":5321,"مرز ":5322,"می دهد که ":5323,"۱۴":5324,"برای همه ":5325,"ماند.\n":5326,"باید با ":5327,"بازی های ":5328,"دادهای ":5329,"(C":5330,"ناه":5331,"رید.\n":5332,"به طور کلی ":5333,"ژانویه ":5334,"70":5335,"n ":5336,"استث":5337,"می‌گذار":5338,"درح":5339,"ویندو":5340,"صادرات ":5341,"متفاوتی ":5342,"Bl":5343,"جاده ":5344,"… ":5345,"د، و ":5346,"آن به ":5347,"مکان":5348,"انتخ":5349,"پلاست":5350,"نشان می‌دهد که ":5351,"برجسته ":5352,"دز":5353,"می‌آی":5354,"نگو":5355,"نظیر ":5356,"در این زمینه ":5357,"هیچ چیز ":5358,"مداوم ":5359,"تجزیه و تحلیل ":5360,"غال":5361,"پیر":5362,"کارگر ":5363,"خورده ":5364,"خارجه ":5365,"بحث":5366,"ب‌و":5367,"مدارس ":5368,"لندن ":5369,"بازیکن ":5370,"حکم ":5371,"مو ":5372,"یک سال ":5373,"شما برای ":5374,"باشگاه ":5375,"به این دلیل ":5376,"اپل ":5377,"سنگین ":5378,"حافظه ":5379,"بخواهید ":5380,"متولد ":5381,"وس":5382,"هر گونه ":5383,") به ":5384,"آورد ":5385,"باز هم ":5386,"عدالت ":5387,"پردازش ":5388,"ایتالی":5389,"لطفا ":5390,"» در ":5391,"اذ":5392,"دای ":5393,"های خود ":5394,"هاي ":5395,"جدید و ":5396,"دشمن":5397,"نم ":5398,"مقال":5399,"وقوع ":5400,"تلف":5401,"حمل ":5402,"چرخ":5403,"ژوئن ":5404,"خیابان ":5405," ، ":5406,"خالی ":5407,"وم ":5408,"روان ":5409,"می‌خواه":5410,"شناس ":5411,"سابقه ":5412,"نفوذ ":5413,"خودرو ":5414,"نش ":5415,"ما و ":5416,"است ، ":5417,"کرد: ":5418,"ممکن است به ":5419,"پیوند ":5420,"اضافی ":5421,"تحریم ":5422,"معتبر ":5423,"ظرفیت ":5424,"اع ":5425,"اردو":5426,"در خانه ":5427,"که یک ":5428,"دارم.\n":5429,"کارخانه ":5430,"تحویل ":5431,"سوئ":5432,"مجاز ":5433,"نویسی":5434,"خطو":5435,"نشده است.\n":5436,"چپ ":5437,"می‌ز":5438,"ماتیک ":5439,"ion ":5440,"سلول های ":5441,"دانشکده ":5442,"ak":5443,"سه":5444,"یور":5445,"‌‏":5446,"عمده ":5447,"حادث":5448,"میر":5449,"کند تا ":5450,"کارهایی ":5451,"هر یک از ":5452,"داده های ":5453,"یون":5454,"یافته است.\n":5455,"ex":5456,"جال":5457,"مایی ":5458,"ادن ":5459,"تحلی":5460,"اما اگر ":5461,"قرار گرفت":5462,"می دهد تا ":5463,"تأمین ":5464,"سریال ":5465,"مجازات ":5466,"گاری ":5467,"۶۰":5468,"برده ":5469,"سوخت ":5470,"می‌شود":5471,"اضط":5472,"مدرک ":5473,"شاخص":5474,"عن":5475,"ناز":5476,"ژنت":5477,"میکرو":5478,"دستور":5479,"196":5480,"ید!\n":5481,"سراسر جهان ":5482,"خلاصه ":5483,"فرودگاه ":5484,"زبان":5485,"اهیم ":5486,"یا در ":5487,"هر کس ":5488,"خوانده ":5489,"ic ":5490,"وسایل ":5491,"22":5492,"ر در ":5493,"این مسئله ":5494,"ستان، ":5495,"اصلاح":5496,"کاربردی ":5497,"کلا":5498,"ایان ":5499,"را ترک ":5500,"کارها ":5501,"کلم":5502,"دوره های ":5503,"مجدد ":5504,"مطابق ":5505,"رسو":5506,"کا ":5507,"که توسط ":5508,"پیامبر ":5509,"بخشی ":5510,"بزرگ و ":5511,"نزد ":5512,"کاخ ":5513,"اپلی":5514,"کشیدن ":5515,"این‌که ":5516,"مشاوره ":5517," – ":5518,"م تا ":5519,"بردار":5520,"سیگن":5521,"می‌دهند.\n":5522,"رسیدن ":5523,"پنجره ":5524,"آهن ":5525,"مشهور ":5526," این ":5527,"Un":5528,"ام و ":5529,"است که از ":5530,"گون":5531,"سوالات ":5532,"بنای ":5533,"هنری ":5534,"پادشاه ":5535,"pl":5536,"گناه ":5537,"رود":5538,"شما یک ":5539,"خواهان ":5540,"آمار ":5541,"نقض ":5542,"آلمانی ":5543,"شرایطی ":5544,"مخالف ":5545,"مقابله با ":5546,"آو":5547,"دند که ":5548,"ست، ":5549,"توی ":5550,"هیچ وقت ":5551,"نمایشگاه ":5552,"بگیرد.\n":5553,"سوئی":5554,"ارزان ":5555,"این افراد ":5556,"الم":5557,"یک شرکت ":5558,"ماشی":5559,"یک‌":5560,"توسع":5561,"بودند و ":5562,"آزاد":5563,"نزدیک":5564,"کتابخانه ":5565,"igh":5566," «":5567,"SE":5568,"ce ":5569,"را دوست ":5570,"خواه ":5571,"طالبان ":5572,"مداخ":5573,"را انجام ":5574,"های خود را ":5575,"اخبار ":5576,"تصمیم گیری ":5577,"جذاب ":5578,"پژوهش ":5579,"یاری ":5580,"الز":5581,"شرقی ":5582,"مشتری":5583,"پر از ":5584,"اولویت ":5585,"Sh":5586,"برای کمک به ":5587,"می شوند، ":5588,"می‌کنند که ":5589,"اقع ":5590,"مهر":5591,"کسب‌و":5592,"حمل و نقل ":5593,"نور":5594,"هسته ":5595,"سرباز":5596,"بهشت ":5597,"آلمان":5598,"ابزارهای ":5599,"تعطیلات ":5600,"بم":5601,"شده که ":5602,"فیلم":5603,"انگیز":5604,"ورودی ":5605,"ئت ":5606,"مأ":5607,"۲۵":5608,"در تمام ":5609,"توری":5610,"گردی":5611,"رفع ":5612,"اخترا":5613,"مبارزه با ":5614,"در صورتی که ":5615,"ابو":5616,"ل\n":5617,"ما برای ":5618,"ادت ":5619,"جغ":5620,"سهم ":5621,"دهان ":5622,"آنها را به ":5623,"بین المل":5624,"انگار ":5625,"مجموع ":5626,"برنامه‌های ":5627,"لاف ":5628,"این اتفاق ":5629,"لیه ":5630,") را ":5631,"مورد علاقه ":5632,"پرونده ":5633,"زنجی":5634,"جانبی ":5635,"محکوم ":5636,"et ":5637,"­های ":5638,"دم.\n":5639,"فال":5640,"روم ":5641,"درخت ":5642,"اوکر":5643,"مقدس ":5644,"هرچه ":5645,"به اندازه کافی ":5646,"اصطلاح ":5647,"دموکرات":5648,"خطوط ":5649,"21":5650,"طلا ":5651,"متوس":5652,"‌تر از ":5653,"برای مثال، ":5654,"احتمالی ":5655,"پارل":5656,"تحریک ":5657,"وظایف ":5658,"اپلیکی":5659,"آفت":5660,"ه‌اند.\n":5661,"سال پیش ":5662,"تحق":5663,"شرق ":5664,"روزه ":5665,"ارتباطی ":5666,"مناسبی ":5667,"نقاشی ":5668,"پاریس ":5669,"Al":5670,"عقی":5671,"ای برای ":5672,"به همراه ":5673,"کنم":5674,"همه ما ":5675,"ang":5676,"عوارض ":5677,"پیشرفت":5678,"طوری که ":5679,"اقیانو":5680,"500":5681,"De":5682,"ct":5683,"وی در ":5684,"می که ":5685,"ریح ":5686,"می‌افت":5687,"درآم":5688,"کار و ":5689,"است، و ":5690,"آمریکای ":5691,"نه.\n":5692,"چهارم ":5693,"اسپانی":5694,"درباره‌ی ":5695,"رستوران ":5696,"ویندوز ":5697,"پل ":5698,"چو":5699,"باغ ":5700,"تی و ":5701,"بود\n":5702,"وجود دارد، ":5703,"حک":5704,"ر.\n":5705,"به خود ":5706,"ماند":5707,"داده و ":5708,"تبدیل به ":5709,"افتاده ":5710,"گم ":5711,"خون":5712,"شما می‌توانید ":5713,"قربانی ":5714,"پایی":5715,"چند روز ":5716,"ایران و ":5717,"شکن":5718,"را انجام ده":5719,"با شما ":5720,"یا حتی ":5721,"فردا ":5722,"واح":5723,"بالاخ":5724,"آمریکا، ":5725,"دریا":5726,"خواهند کرد.\n":5727,"وضع ":5728,"رایج ":5729,"پذیرفته ":5730,"نفع ":5731,"بایل ":5732,"دیابت ":5733,"لی که ":5734,"شده از ":5735,"سرط":5736,"در حقیقت ":5737,"خواهد داشت.\n":5738,"را باز ":5739,"مطالب ":5740,"ابتلا به ":5741,"ity ":5742," میلیون دلار ":5743,"ورزش":5744,"ia ":5745,"،‌":5746,"غام ":5747,"نمی‌کن":5748,"موبایل ":5749,"هم اکنون ":5750,"سرکو":5751,"را در نظر ":5752,"اضی ":5753,"۱۹۸":5754,"جامع":5755,"ة ":5756,"حدو":5757,"وام ":5758,"می‌کنیم.\n":5759,"ه‌ها و ":5760,"تواند ":5761,"تی برای ":5762,"انی در ":5763,"دانه ":5764,"سوء ":5765,"راه برای ":5766,"سلط":5767,"شنیده ":5768,"خویش ":5769,"بل ":5770,"رمز":5771,"استق":5772,"سیاه":5773,"ده\n":5774,"فیس ":5775,"مسیح ":5776,"لازم است ":5777,"ell":5778,"کمیته ":5779,"اعتماد به ":5780,"دندان":5781,"دعا ":5782,"طلا":5783,"چنی":5784,"ام‌":5785,"کمپین ":5786,"که در این ":5787,"بزرگ‌ترین ":5788,"دمای ":5789,"۱۹۷":5790,"تشکر ":5791,"ثبات ":5792,"باشد\n":5793,"دیوار ":5794,"استراتژیک ":5795,"HT":5796,"دانی ":5797,"کالی":5798,"را فراهم ":5799,"روشی ":5800,"رافی":5801,"با آنها ":5802,"من هم ":5803,"هایی از ":5804," در سال ":5805,"خلاف ":5806,"عهد ":5807,"پژوهش":5808,"ورزشی ":5809,"نوشیدنی ":5810,"اخلاقی ":5811,".»":5812,"در همین ":5813,"برادر ":5814,"ستان":5815,"منطقی ":5816,"حتما ":5817,"تانی":5818,"راز ":5819,"سند":5820,"نفت":5821,"بوس ":5822,"کارشناسان ":5823,"جوام":5824,"Tr":5825,"res":5826,"آمریکا در ":5827,"شناخت ":5828,"خورشیدی ":5829,"آید ":5830,"هاست.\n":5831,"در هنگام ":5832,"یا به ":5833,"سرانجام ":5834,"قرب":5835,"قراری ":5836,"اعدام ":5837,"تعادل ":5838,"نماینده ":5839,"پارچه ":5840,"Mar":5841,"لم":5842,"این روش ":5843,"بیرو":5844,"نیز به ":5845,"ایجاد یک ":5846,"رویداد ":5847,"ارتباط برقرار ":5848,"کالج ":5849,"تکنولوژ":5850,"نوزاد ":5851," میلیارد دلار ":5852,"پیش‌بینی ":5853,"کمپانی ":5854,"؛ و ":5855,"اد، ":5856,"بي":5857,"بپرسی":5858,"مدا":5859,"استراحت ":5860,"داشت و ":5861,"اندازه گیری ":5862,"انگلیس ":5863,"اسپانیا ":5864,"عظیم ":5865,"محاسبه ":5866,"us ":5867,"برگ ":5868,"می یاب":5869,"استی":5870,"ریاست ":5871,"دیر ":5872,"ترسی":5873,"ناحیه ":5874,"آمدن ":5875,"متعد":5876,"به‌ ":5877,"کوتاه":5878,"عین حال ":5879,"رعایت ":5880,"eg":5881,"کاب":5882,"برسی":5883,"راح ":5884,"برای آن ":5885,"درخ":5886,"داشت، ":5887,"202":5888,"اکثریت ":5889,"ear":5890,"خلی":5891,"فای":5892,"فون ":5893,"در واق":5894,"را بررسی ":5895,"شور":5896,"کاران ":5897,"گین ":5898,"ماهی":5899,"همان‌":5900,"به نظر می رسد ":5901,"G ":5902,"عز":5903,"هل":5904,"وو":5905,"را نشان ":5906,"ش به ":5907,"شما ممکن است ":5908,"تعجب ":5909,"تهدی":5910,"اوباما ":5911,"بالاخره ":5912,"؟؟":5913,"دی از ":5914,"يد ":5915,"۱۶":5916,"اسب ":5917,"میدان":5918,"می گرد":5919,"باد ":5920,"است (":5921,"محمد ":5922,"او را به ":5923,"نمایندگان ":5924,"دستیابی به ":5925,"ردی":5926,"رمان ":5927,"گروهی ":5928,"مواد مخ":5929,"رئیس‌":5930,"مقررات ":5931,"۱۷":5932,"”.\n":5933,"ارز ":5934,"برزی":5935,"نفر از ":5936,"راهنمایی ":5937,"حرفه ":5938,"برسد.\n":5939,"متعلق به ":5940,"ن‌ها ":5941,"یار":5942,"در منطقه ":5943,"نمایید.\n":5944,"ent ":5945,"جنگ جهانی ":5946,"انتقاد ":5947,"مناسب برای ":5948,"کنیم؟\n":5949,"حفاظت از ":5950,"الکترونیکی ":5951,"تکامل ":5952,"سهام ":5953,"طور":5954,"استدل":5955,"می‌شوند، ":5956,"اتخا":5957,"آیا این ":5958,"اجتماعی و ":5959,"تازگی ":5960,"خانوادگی ":5961,"صندلی ":5962,"s\n":5963,"گمان ":5964,"ایران":5965,"می‌کرد.\n":5966,"نیک ":5967,"آنقدر ":5968,"هستیم ":5969,"قانو":5970,"مارک ":5971,"اتحاد ":5972,"AS":5973,"فدرا":5974,"لیک ":5975,"یخ":5976,"در ابتدا ":5977,"بعد، ":5978,"نشست ":5979,"حساس ":5980,"Pl":5981,"تنوع ":5982,"دف":5983,"برای اینکه ":5984,"را به دست ":5985,"our":5986,"کره شمالی ":5987,"زمان، ":5988,"ive ":5989,"شواهد ":5990,"استانداردهای ":5991,"شگفت":5992,"ضب":5993,"فوق":5994,"در کشور ":5995,"در تاریخ ":5996,"در اختیار ":5997,"به خصوص ":5998,"نظامی":5999,"نامز":6000,"قبل از اینکه ":6001,"ممنوع ":6002,"خبرنگ":6003,"سؤال ":6004,"(ع) ":6005,"پاداش ":6006,"رمان":6007,"دارایی ":6008,"سرگر":6009,"دو سال ":6010,"را از طریق ":6011,"جویی ":6012,"بدترین ":6013,"پرسش ":6014,"تا به حال ":6015,"Ar":6016,"وز":6017,"یان ":6018,"مردی ":6019,"نظرات ":6020,"قرار دادن ":6021,"بود؟\n":6022,"پوش":6023,"ویدئ":6024,"سالی ":6025,"در طی ":6026,"می بینی":6027,"راجع ":6028,"باتری ":6029,"مربی ":6030,"بازگردان":6031,"اگر این ":6032,"را در یک ":6033,"پول":6034,"مصر ":6035,"آن‌ها را ":6036,"خواستم ":6037,"اختلاف ":6038,"اتخاذ ":6039,"US":6040,"Wor":6041,"ر\n":6042,"چندان ":6043,"می خواهم ":6044,"لوب ":6045,"بله، ":6046,"را ببینی":6047,"شما، ":6048,"امکانات ":6049,"23":6050,"ناپذیر ":6051,"شرح ":6052,"مهم است که ":6053,"تأکید ":6054,"جداگانه ":6055,"وجه ":6056,"اسنا":6057,"فراو":6058,"عربی ":6059,"گزارش":6060,"یم؟\n":6061,"ضیه ":6062,"آلودگی ":6063,"هشت":6064,"کوین ":6065,"در آنجا ":6066,"ند به ":6067,"پرده ":6068,"....":6069,"داشته باشد ":6070,"یادآوری ":6071,"فراموش ن":6072,"هست که ":6073,"(و ":6074,"300":6075,"زاده ":6076,"قاع":6077,"مک ":6078,"پرا":6079,"میکن":6080,"می‌ساز":6081,"با نام ":6082,"شتی ":6083,"شیو":6084,"گفتگو ":6085,"مخلو":6086,"Ap":6087,"تند ":6088,"برقراری ":6089,"روانی ":6090,"شوند و ":6091,"ویر":6092,"تر است.\n":6093,"جهان، ":6094,"تحصیل ":6095,"آرامش ":6096,"لغو ":6097,"دستورال":6098,"Sp":6099,"ay ":6100,"زم":6101,"عاط":6102,"این بود که ":6103,"باشید که ":6104,"قیمت":6105,"مطالع":6106,"تأثی":6107,"فرانسوی ":6108,"دائمی ":6109,"..\n":6110,"Ph":6111,"eb":6112,"بکش":6113,"کشد.\n":6114,"بافت ":6115,"این‌ها ":6116,"بعنوان ":6117,"که در سال ":6118,"خارج":6119,"چیزهایی که ":6120,"بدانید ":6121,"ایم":6122,"شوروی ":6123,"است یا ":6124,"در حال حاض":6125,"کودکی ":6126,"رابط":6127,"موقعی":6128,"پروژه های ":6129,"سلول ":6130,"تبلیغاتی ":6131,"مبلغ ":6132,"تحقق ":6133,"28":6134,"Ad":6135,"تفاو":6136,"جشنو":6137,"خوابی":6138,"بیاو":6139,"توانست ":6140,"می کنم.\n":6141,"گروه‌های ":6142,"نشست":6143,"غیر از ":6144,"ثروت ":6145,"مأمو":6146,"کش ":6147,"کنگره ":6148,"۱۹۶":6149,"مخفی ":6150,"شناخته شده ":6151,"اینترنتی ":6152,"کشیده ":6153,"تماشای ":6154,"نیازی به ":6155,"بس ":6156,"له":6157,"می آور":6158,"گی، ":6159,"واژه ":6160,"سوسی":6161,"هایی برای ":6162,"نمایند.\n":6163,"194":6164,"طبق":6165,"جغرافی":6166,"IC":6167,"آک":6168,"وئ":6169,"به شکل ":6170,"دارند":6171,"اوز ":6172,"آیه ":6173,"آمریکایی":6174,"حیاتی ":6175,"کاربری ":6176,"انگلیسی":6177,"بهداشتی ":6178,"F ":6179,"تظاه":6180,"لان":6181,"از لحاظ ":6182,"خواند":6183,"الهام ":6184,"رییس ":6185,"ها را به ":6186,"درخت":6187,"ویزای ":6188,"همه این ":6189,"خیلی از ":6190,"گفتند ":6191,"محیطی ":6192,"الکتریک":6193," میلادی ":6194,"حقی":6195,"به پایان ":6196,"راضی ":6197,"دارد؟\n":6198,"مرده ":6199,"باردار ":6200,"خود را از دست ":6201,"ind":6202,"مراقب ":6203,"دامنه ":6204,"ابراز ":6205,"انعطاف ":6206,"ist":6207,"ظرف ":6208,"نمی توانید ":6209,"‌­":6210,"ای در ":6211,"این بازی ":6212,"من را ":6213,"ماندن ":6214,"استفاده از این ":6215,"مورد نظر ":6216,"در این باره ":6217,"خودکار ":6218,"نجی ":6219,"بایست ":6220,"ناگه":6221,"قالب ":6222,"ینه ":6223,"ان به ":6224,"ندرت ":6225,"راتی ":6226,"باتی ":6227,"شیطان ":6228,"راهنمای ":6229,"اقتصادی و ":6230,"ack":6231,"تلفن همراه ":6232,"تولید":6233,"En":6234,"گانی ":6235,"ع و ":6236,"هر کدام ":6237,"دست‌":6238,"لازم برای ":6239,"فن آوری ":6240,"مهم‌ترین ":6241,"مقیاس ":6242,"بق":6243,"چک ":6244,"نظر":6245,"ده‌اند.\n":6246,"توسط یک ":6247,"طرز ":6248,"مشاور ":6249,"سرور ":6250,"کتا":6251,"در بخش ":6252,"برت ":6253,"های زیادی ":6254,"زیت ":6255,"اوض":6256,"گونا":6257,"ترین و ":6258,"پرورد":6259,"ترامپ":6260,"DN":6261,"ئید ":6262,"سار":6263,"شادی ":6264,"دیم ":6265,"شما با ":6266,"ارتفا":6267,"شدن به ":6268,"گروه های ":6269,"باشد .\n":6270,"نبرد ":6271,"را دنبال ":6272,"می‌خواهند ":6273,"تردید ":6274,"all":6275,"شناختی ":6276,"تحصیلات ":6277,"بریتانی":6278,"میتواند ":6279,"35":6280,"یك ":6281,"می ز":6282,"اینج":6283,"مشاغ":6284,"حتی در ":6285,"کنید!\n":6286,"رید ":6287,"مرغ ":6288,"فرمان ":6289,"ساحل ":6290,"نیست و ":6291,"صرفه ":6292,"امتیاز ":6293,"دموکراسی ":6294,"ضبط ":6295,"p ":6296,"رار ":6297,"عمد":6298,"لام":6299,"لانه ":6300,"مى":6301,"۲۴":6302,"اید، ":6303,"همگی ":6304,"باشیم.\n":6305,"اگر یک ":6306,"جهان":6307,"قرار داده ":6308,"شرکت کنندگان ":6309,"هایتان ":6310,"بیماری های ":6311,"اعلام کرد که ":6312,"تزریق ":6313,"X ":6314,"g ":6315,"آمی":6316,"ک‌های ":6317,"ی: ":6318,"ایمی":6319,"به سوی ":6320,"الو":6321,"می‌آور":6322,"موشک ":6323,"شود\n":6324,"آلبو":6325,"جلوی ":6326," بار ":6327,"ایال":6328,"ازهای ":6329,"از زمان ":6330,"مقالات ":6331,"دلاری ":6332,"آل ":6333,"شدم ":6334,"فز":6335,"فرا ":6336,"قد ":6337,"را می توان ":6338,"باد":6339,"لاک ":6340,"کرده بود.\n":6341,"بزرگتر ":6342,"195":6343,"مدت زمان ":6344,"غیر قابل ":6345,"مالکیت ":6346,"لبخند ":6347,"شلو":6348,"ک‌":6349,"ند یا ":6350,"موث":6351,"انتان ":6352,"تیر":6353,"کرد؟\n":6354,"اندکی ":6355,"نسخ":6356,"خصوصی":6357,". \"\n":6358,"رقم ":6359,"موجودات ":6360,"عجیب ":6361,"نسبتا ":6362,"کارشناسی ارشد ":6363,"نگونه ":6364,"(S":6365,".com":6366,"ud":6367,"جری":6368,"نبود ":6369,"را تشکیل ":6370,"شون ":6371,"دریا ":6372,"مجموع":6373,"نویسندگان ":6374,"بگیرند.\n":6375,"خلاقی":6376,"ماموریت ":6377,"Ex":6378,"تخری":6379,"‎های ":6380,"ما را به ":6381,"شما هم ":6382,"زی، ":6383,"ماتی ":6384,"او با ":6385,"یکی از بهترین ":6386,"منظم ":6387,"جلسات ":6388,"نوشیدن ":6389,"دختران ":6390,"مسابقات ":6391,"صندو":6392,"و برای ":6393,"در همان ":6394,"چه زمانی ":6395,"آمادگی ":6396,"دستگیر ":6397,"می گویند ":6398," [+":6399,"قضاوت ":6400,"تماشا ":6401,"قابل توجهی ":6402,"آتش":6403,"رأ":6404,"نات ":6405,"نمی کند.\n":6406,"نمی توانند ":6407,"ه) ":6408,"ها یا ":6409,"اهی":6410,"معلوم ":6411,"هایی مانند ":6412,"اری، ":6413,"پایتخت ":6414,"برخلاف ":6415,"گرفته است.\n":6416,"یکی دیگر از ":6417,"کمیسیون ":6418,"چشم انداز ":6419,"برایم ":6420,"بازگشت به ":6421,"حادثه ":6422,"-]\n":6423,"ad ":6424,"نمی شود.\n":6425,"گز":6426,"اینگونه ":6427,"بازارهای ":6428,"را در اختیار ":6429,"علامت ":6430,"دوست داشت":6431,"آزمایشگاه ":6432,"محیط زیست ":6433," [-]\n":6434,"تقاضای ":6435,"صندوق ":6436,"(M":6437,"خبری ":6438,"درمورد ":6439,"سرنوشت ":6440,"می‌کنید ":6441,"کرده است که ":6442,"م، اما ":6443,"پیدا کنید.\n":6444,"کاربرد ":6445,"el ":6446,"گذاشتن ":6447,"ast":6448,"is ":6449,"قائ":6450,"در پایان ":6451,"باغ":6452,"شده بود ":6453,"هر چند ":6454,"هر کسی ":6455,"جدید، ":6456,"فشار خون ":6457,"تخم ":6458,"منزل ":6459,"ضعف ":6460,"بلی":6461,"جرم ":6462,"قانه ":6463,"‏ ":6464,"در بسیاری از ":6465,"می‌خواهم ":6466,"نیا ":6467,"شکر ":6468,"قطعه ":6469,"می‌گویند ":6470,"ill":6471,"ib":6472,"هات ":6473,"پیگیری ":6474,"معادل ":6475,"می‌کند":6476,"هایی که در ":6477,"دستان ":6478,"یکی از این ":6479,"می‌دهد که ":6480,"می‌تواند به ":6481,"محدوده ":6482,"حفاظت ":6483,"امیدوارم ":6484,"تعهد ":6485,"آپارت":6486,"مسلمانان ":6487,"اوضاع ":6488,"Cl":6489,"شر ":6490,"در ایالات متحده ":6491,"در مقایسه با ":6492,"این فیلم ":6493,"می‌کنید، ":6494,"فیس":6495,"نشان دهنده ":6496,"ont":6497,"اقتصادی":6498,"نتیجه":6499,"می‌گیرد.\n":6500," هفته ":6501,"وف":6502,"هیئت ":6503,"می‌کنم.\n":6504,"تنف":6505,"تجدید ":6506,"زنان و ":6507,"منظور":6508,"چنان":6509,"عمیق":6510," [+]\n":6511,"حقیق":6512,"گشت":6513,"۸۰":6514,"در ادامه ":6515,"برد.\n":6516,"برج ":6517,"برایش ":6518,"خوشب":6519,"ده‌ها ":6520,"خودت ":6521,"شدند، ":6522,"لذت ببر":6523,"ation ":6524,"خالص ":6525,"تویی":6526,"عنصر ":6527,"در ایران ":6528,"را دریافت ":6529,"سینه ":6530,"دهند":6531,"همدیگر ":6532,"چه اتفاقی ":6533,"مورد بررسی ":6534,"خواهد شد ":6535,"نمایش":6536,"سیستم‌های ":6537,"سفارش ":6538,"تروریستی ":6539,"ضربه ":6540,"عمر":6541,"متی ":6542,"وضو":6543,"در بازار ":6544,"روش‌های ":6545,"دوی ":6546,"گرس":6547,"شکایت ":6548,"نیست\n":6549,"دن، ":6550,"موقت ":6551,"استخراج ":6552,"ئین ":6553,"کارگردان ":6554,"شده برای ":6555,"شرط ":6556,"بهینه ":6557,"دستمز":6558,"بار دیگر ":6559,"هواپیما ":6560,"تفسیر ":6561,"افزود: ":6562,"عکاسی ":6563,"جوامع ":6564,"26":6565,"طلب ":6566,"مي ":6567,"مى ":6568,"نخواهند ":6569,"و دیگر ":6570,"این بدان ":6571,"سیل ":6572,"می شوند و ":6573,"مدیری":6574,"خواهید کرد.\n":6575,"ایران، ":6576,"دقیقاً ":6577,"وحشت":6578,"مؤس":6579,"فدرال ":6580,"qu":6581,"آی ":6582,"‌که ":6583,"خوب":6584,"با کیفیت ":6585,"هر چیزی ":6586,"انجام":6587,"خواهد بود ":6588,"تعلی":6589,"رفتن به ":6590,"امیدوار ":6591,"شده.\n":6592,"انقلابی ":6593,"هدیه ":6594,"مع ":6595,"میرا":6596,"داده‌های ":6597,"موتورهای ":6598,"گران":6599,"نگذ":6600,"ناک":6601,"مایز ":6602,"بارها ":6603,"را در این ":6604,"غذا":6605,"ویژگی":6606,"اقیانوس ":6607,"ضمن ":6608,"عد ":6609,"اسو":6610,"می‌کردند.\n":6611,"من یک ":6612,"بازرگ":6613,"می شود\n":6614,"تعل":6615,"ممکن است در ":6616,"تخمین ":6617,"به دست آوردن ":6618,"صادق ":6619,"اختراع ":6620,"> ":6621,"میشود.\n":6622,"است:\n":6623,"لیز":6624,"مرتب ":6625,"مان را ":6626,"واژ":6627,"سازمان های ":6628,"عربستان سعودی ":6629,"مجبور به ":6630,"بزرگسالان ":6631,"سرا":6632,"نداشت.\n":6633,"کرده، ":6634,"است كه ":6635,"قین ":6636,"خانواده‌":6637,"کالری ":6638,"بمب ":6639,"iz":6640,"جمل":6641,"جنگی ":6642,"نی از ":6643,"در هفته ":6644,"می باشند.\n":6645,"توقف ":6646,"است که این ":6647,"او، ":6648,"سوگ":6649,"اجاره ":6650,"بهره‌":6651,"متهم ":6652,"مدار ":6653,"تصمیمات ":6654,"oun":6655,"وبسایت ":6656,"استدلال ":6657," توسط ":6658,"ف، ":6659,"که، ":6660,"گریه ":6661,"بیفت":6662,"یک سیستم ":6663,"کارآفری":6664,"می‌کند تا ":6665,"فوریه ":6666,"نتیج":6667,"آفریقا ":6668,"کفش ":6669,"قهرمان ":6670,"و\n":6671,"میانگی":6672,"را درک ":6673,"می‌خواهیم ":6674,"است برای ":6675,"خود برای ":6676,"است که برای ":6677,"را به طور ":6678,"به جز ":6679,"بدتر ":6680,"گزینه های ":6681,"موافقت ":6682,"خوشبخت":6683,"IP":6684,"حلی ":6685,"سل ":6686,"سند ":6687,"مون":6688,"باک":6689,"انجام داده ":6690,"شدند ":6691,"خوبی برای ":6692,"برایتان ":6693,"نوزاد":6694,"معلم ":6695,"مخاطبان ":6696,"شفاف":6697,"در واقع، ":6698,"جاب":6699,"ونز":6700,"ّت ":6701,"ایه ":6702,"در داخل ":6703,"موج ":6704,"آنها از ":6705,"فقط برای ":6706,"چند سال ":6707,"احساسی ":6708,"پاسخ به ":6709,"بازی‌های ":6710,"مطمئن شوید که ":6711,"اراده ":6712,"اسلح":6713,"لیبر":6714,"سوال":6715,"اینده ":6716,"پرهی":6717,"باعث می شود ":6718,"سکوت ":6719,"آلوده ":6720,"مبنی بر ":6721,"ناراحت ":6722,"اتمام ":6723,"مبنای ":6724,"دیم.\n":6725,"می‌شد.\n":6726,"یک یا ":6727,"همه‌":6728,"زندانی ":6729,"بزن":6730,"مهم ترین ":6731,"یاد بگیری":6732,"بدانید که ":6733,"ect":6734,"الگوری":6735,"اسناد ":6736,"AT":6737,"تبا":6738,"عای ":6739,"چاق":6740,"نوی ":6741,"ابع":6742,"مشتر":6743,"وب‌":6744,"اختلاف":6745,"انفج":6746,"گرایی ":6747,"زیبا":6748,"پرچ":6749,"کنید .\n":6750,"شدند و ":6751,"ذهنی ":6752,"سلول‌های ":6753,"توافق":6754,"بیایید ":6755,"رودخانه ":6756,"وضوح ":6757,"حرا":6758,"نباشد.\n":6759,"ه» ":6760,"وکی":6761,"در دوران ":6762,"می یابد.\n":6763,"هیدرو":6764,"داشته و ":6765,"کی، ":6766,"خودکشی ":6767,"ar ":6768,"مغزی ":6769,"est":6770,"کنونی ":6771,"دستگاه های ":6772,"مرور ":6773,"در حوزه ":6774,"آد":6775,"بخواه":6776,"لای ":6777,"مخصوص ":6778,"می‌گرد":6779,"موض":6780,"مرت":6781,"هستند\n":6782,"گوی ":6783,"فیلی":6784,"اتمی ":6785,"پولی ":6786,"بتوانیم ":6787,"گفت: \"":6788,"برسان":6789,"اضافه کردن ":6790,"ناسب ":6791,"برنامه‌ریزی ":6792,"On":6793,"بدی":6794,"جاو":6795,"انشان ":6796,"گردید.\n":6797,"آنگاه ":6798,"باشید و ":6799,"تی از ":6800,"هیو":6801,"سازنده ":6802,"مثال":6803,"رفتارهای ":6804,"ate ":6805,"قطعات ":6806,"رهبر":6807,"کاش ":6808,"تسهی":6809,"دلیلی ":6810,"ونزوئ":6811,"**":6812,"نمی‌توانند ":6813,"این امکان ":6814,"ما یک ":6815,"می دهد، ":6816,"آشپز":6817,"بچه ها ":6818,"آوریل ":6819,"هنرمند ":6820,"معاملات ":6821,"لایه ":6822,"سیگنال ":6823,"طع":6824,"مثلاً ":6825,"وجود دارند که ":6826,"راهی برای ":6827,"ساخت و ":6828,"بالاتر از ":6829,"میتوانید ":6830,"نکات ":6831,"سیاسی و ":6832,"متاسفانه ":6833,"ا به ":6834,"یک و ":6835,"آن است.\n":6836,"من با ":6837,"شدم.\n":6838,"افتتا":6839,"تبلیغ ":6840,"زم ":6841,"طلب":6842,"برای جلوگیری از ":6843,"درگیری ":6844,"مقادی":6845,"تعوی":6846,"فیلتر ":6847,"بعد از آن ":6848,"از آن استفاده ":6849,"جمعه ":6850,"مهاجران ":6851,"گناه":6852,"45":6853,"AC":6854,"بخاطر ":6855,"شاخ":6856,"ملی":6857,"٬ ":6858,"​​":6859,"ستی":6860,"می‌بینی":6861,"گربه ":6862,"داشتند ":6863,"کار را ":6864,"شکی ":6865,"‌ها به ":6866,"مجازی ":6867,"مگر اینکه ":6868,"جعبه ":6869,"27":6870,"جور":6871,"زا":6872,"یات ":6873,"پیروی ":6874,"ناپدید ":6875,"مکمل ":6876,"سالهای ":6877,"پولی":6878,"را بدون ":6879,"دروغ":6880,"جامع ":6881,"تصمیم گرفت":6882,"(P":6883,"AR":6884,"لر":6885,"در همه ":6886,"میزبان ":6887,"می خواهیم ":6888,"الد ":6889,"ی از این ":6890,"خواهد شد":6891,"خودش را ":6892,"می‌گوید: «":6893,"حقوقی ":6894,"ارزشمند ":6895,"در حالیکه ":6896,"ev":6897,"قوی":6898,"ژن":6899,"به همان ":6900,"امّ":6901,"نیت ":6902,"اگر به ":6903,"سازمانی ":6904,"در این مورد ":6905,"طول می ":6906,"سفار":6907,"فرصت های ":6908,"پدرش ":6909,"مؤثر ":6910,"OS ":6911,"اگرا":6912,"باست":6913,"جک":6914,"خنده ":6915,"ای، ":6916,"شوهر":6917,"ترهای ":6918,"کارمند ":6919,"شکلی ":6920,"لوله ":6921,"تنها در ":6922,"روزمره ":6923,"بسیاری از مردم ":6924,"اجازه دهید ":6925,"بدهد.\n":6926,"مخالفت ":6927,"متوسط":6928,"سرکوب ":6929,"جام ":6930,"نع":6931,"می کرد.\n":6932,"می پرداز":6933,"یک فرد ":6934,"درحال ":6935,"نوآوری ":6936,"تا حد ":6937,"شماست.\n":6938,"ine ":6939,"قبلاً ":6940,"قابل توجه ":6941,"تعداد زیادی از ":6942,"بشر":6943,"یخ ":6944,"ز و ":6945,"همچنی":6946,"گرای":6947,"زیست":6948,"فرو ":6949,"سرگرم ":6950,"می کند\n":6951,"دی و ":6952,"متأ":6953,"کیه ":6954,"گفتم ":6955,"نشان دادن ":6956,"خطرات ":6957,"موسسات ":6958,"حلقه ":6959,"مواد مخدر ":6960,"میانگین ":6961,"e) ":6962,"قس":6963,"ملاح":6964,"می گردد.\n":6965,"های شما ":6966,"باط":6967,"کنیم\n":6968,"مکال":6969,"انگشت ":6970,"ard":6971,"اجتماعی":6972,"موارد، ":6973,"ناگهان ":6974,"گروهی از ":6975,"اضطراب ":6976,"جشنواره ":6977,"):":6978,"اط ":6979,"خراب ":6980,"انکار ":6981,"به زودی ":6982,"را که در ":6983,"مورد":6984,"پیشین ":6985,"او و ":6986,"نظرس":6987," درص":6988,"ant":6989,"art":6990,"بالاترین ":6991,"تنظیم":6992,"مرور":6993,"استقبال ":6994,"کالیفر":6995,"تاج":6996,"مار ":6997,"هه ":6998,"یک زن ":6999,"برای رسیدن به ":7000,"قیب ":7001,"مایکرو":7002,"مقد":7003,"مقصد ":7004,"دستاور":7005,"تجاوز ":7006,"آسانی ":7007,"مبتلا ":7008,"فرستاده ":7009,"فوق‌":7010,"HI":7011,"رده ":7012,"زلز":7013,"پال":7014,"به روز ":7015,"میان":7016,"است از ":7017,"مرتک":7018,"گیاه ":7019,"بازدید":7020,"در این کشور ":7021,"خواهند شد.\n":7022,"حرفه‌ای ":7023,"لباس":7024,"گزین":7025,"می گیرند.\n":7026,"مشابهی ":7027,"اظ":7028,"دغ":7029,"نکرد":7030,"که ما ":7031,"امت":7032,"خود استفاده ":7033,"باید برای ":7034,"انی\n":7035,"ch ":7036,"تخصص ":7037,"هزینه‌های ":7038,"اشکال ":7039,"شاخص ":7040,"اپلیکیشن ":7041,"ملاحظ":7042,"AP":7043,"ff":7044,"قی و ":7045,"کی و ":7046,"انم ":7047,"که شما ":7048,"میکند.\n":7049,"کنند تا ":7050,"این شهر ":7051,"الکل ":7052,"سرت":7053,"در حالت ":7054,"ترکیبی از ":7055,"پیش از این ":7056,"خرج ":7057,"شبیه به ":7058,"فلسطین ":7059,"هورمون ":7060," برابر ":7061,"ES":7062,"تفری":7063,"قات":7064,"به دنیا ":7065,"بر خلاف ":7066,"من فکر ":7067,"بهتر":7068,"طراحی و ":7069,"نویس ":7070,"مولکو":7071,"لمس ":7072,"زمستان ":7073,"بخور":7074,"خاموش ":7075,"فوری ":7076,"لهست":7077,"نها":7078,"کور ":7079,"خوب و ":7080,"استرو":7081,"ها هم ":7082,"تا از ":7083,"معی":7084,"دو برابر ":7085,"می‌دهد ":7086,"مسئول":7087,"در آن زمان ":7088,"صحبت کردن ":7089,"بازگشت":7090,"محافظت از ":7091,"اعتراض ":7092,"شکنجه ":7093," ​​":7094,"(ص":7095,"آیت ":7096,"بخواهد ":7097,"گا ":7098,"دهد ":7099,"کار در ":7100,"چه کسانی ":7101,"اعت":7102,"می دهد و ":7103,"انی‌":7104,"کمک می کند.\n":7105,"رسیدگی ":7106,"میلیارد ":7107,"صاحبان ":7108,"هار":7109,"امل":7110,"سترو":7111,"با ما ":7112,"نگی":7113,"نظری":7114,"اعط":7115,"آیا شما ":7116,"دریای ":7117,"دارای یک ":7118,"رایانه ":7119,"مسلح ":7120,"شگفت انگیز ":7121,"زنجیره ":7122,"تخریب ":7123,"MB":7124,"sh":7125,"ادا":7126,"بتی ":7127,"له‌ی ":7128,"مشو":7129,"در اطراف ":7130,"در اوایل ":7131,"این گروه ":7132,"این دوره ":7133,"می‌کنیم ":7134,"سیس ":7135,"داریم که ":7136,"ادغام ":7137,"یک، ":7138,"آزادی":7139,"همین":7140,"ساخته شده ":7141,"اخیرا ":7142,"تمرینات ":7143,"تسلیم ":7144,"آکاد":7145,"مقادیر ":7146,"این مشکل ":7147,"توجی":7148,"آنتی ":7149,"تا کنون ":7150,"باید یک ":7151,"را به شما ":7152,"خارجی":7153,"بانکی ":7154,"تحت تأثیر ":7155,"اجازه می دهد تا ":7156,"خاطرات ":7157,"تعلق ":7158,"اپی":7159,"سلاح":7160,"صفر ":7161,"صدور ":7162,"۷۰":7163,"ستو":7164,"با من ":7165,"گواهی ":7166,"اقلی":7167,"رسیده است.\n":7168,"تو را ":7169,"دریاچه ":7170,"(B":7171,"ia":7172,"ph":7173,"سلی":7174,"م؛ ":7175,"نمی توان":7176,"بیش ":7177,"کرده":7178,"کربن ":7179,"دارد\n":7180,"را به صورت ":7181,"ها: ":7182,"ساختمان":7183,"ort":7184,"ابتدای ":7185,"خلیج ":7186,"دای":7187,"۲۱":7188,"پیروز ":7189,"بهار ":7190,"اری و ":7191,"اگر در ":7192,"انجام شود.\n":7193,"اطلاع":7194,"اجتماعی، ":7195,"داشتن یک ":7196,"لذا ":7197,"سلول":7198,"تئوری ":7199,"\"،":7200,"حسین ":7201,"حریم ":7202,"م‌ها ":7203,"در برخی ":7204,"به معنی ":7205,"بابت ":7206,"درست":7207,"می کنم که ":7208,"کرده اند ":7209,"گونه که ":7210,"میلیون":7211,"کلیه ":7212,"۰۰۰":7213,"عبارتند ":7214,"نشان می دهد ":7215,"استرالی":7216,"راجع به ":7217,"تنظیمات ":7218,"مرتکب ":7219,"دگر":7220,"فدر":7221,"می\n":7222,"خورا":7223,"بیا ":7224,"را از بین ":7225,"کاهش وزن ":7226,"تجرب":7227,"آلرژ":7228,"قطع":7229,"اصلاحات ":7230,"اوکراین ":7231,"پارلمان ":7232,"آگ":7233,"صری ":7234,"مجه":7235,"اندو":7236,"از همه ":7237,"استخوان ":7238,"می‌کنید.\n":7239,"برای درمان ":7240,"سوار ":7241,"انجام ن":7242,"بعد":7243,"کین ":7244,"سر و ":7245,"بسته به ":7246,"مي‌":7247,"هماهنگی ":7248,"کلیسای ":7249,"مرزهای ":7250,"سربازان ":7251,", و ":7252,"اژ":7253,"را مشاهده ":7254,"برداشت ":7255,"برای او ":7256,"شده به ":7257,"معاص":7258,"طرح":7259,"اخراج ":7260,"نمون":7261,"کافی برای ":7262,"پشتیبان":7263,"تلویزیونی ":7264,"چارچوب ":7265,"فلسفه ":7266," M":7267,"ببی":7268,"گم":7269,"در شهر ":7270,"توپ ":7271,"شوید ":7272,": این ":7273,"است که شما ":7274,"خاطر":7275,"تعمی":7276,"اصلاً ":7277,"روزها ":7278,"نرم‌":7279,"انجام دهد.\n":7280,"راننده ":7281,"بازیگر ":7282,"محیط":7283," میلیون نفر ":7284,"صفحه نمایش ":7285,"طولانی مدت ":7286,"زودتر ":7287,".(":7288,"خن":7289,"و هم ":7290,"در آمریکا ":7291,"رون":7292,"دینی ":7293,"داری و ":7294,"هر نوع ":7295,"مشرو":7296,"شمار":7297,"سال، ":7298,"داشته باشیم.\n":7299,"اتی که ":7300,"احتمال زیاد ":7301,"رسانه های اجتماعی ":7302,"متعددی ":7303,"رئیس‌جمهور ":7304,"سافت ":7305,"ش\n":7306,"گان، ":7307,"‏\n":7308,"ها می توانند ":7309,"دوستی ":7310,"نقد ":7311,"ائی ":7312,"حساس":7313,"احتیاج ":7314,"مداخله ":7315," مورد ":7316,"ا.\n":7317,"قند ":7318,"‌،":7319,"ارمغ":7320,"به خانه ":7321,"از من ":7322,"برد":7323,"امان ":7324,"یک نفر ":7325,"بور":7326,"آن هم ":7327,"شده اند ":7328,"من این ":7329,"کوک ":7330,"دلم ":7331,"کوچکی ":7332,"بدن شما ":7333,"یونان ":7334,"امکان پذیر ":7335,"شبکه های ":7336,"راستی ":7337,"را به عنوان یک ":7338,"قرار گرفته است.\n":7339,"(که ":7340,"400":7341,"Am":7342,"ه­":7343,"پدیده ":7344,"ائتل":7345,"اشغال ":7346,"اتفاقات ":7347,"لبنان ":7348,"متقاع":7349,"عقیده ":7350,"ارتفاع ":7351,"29":7352,"AN":7353,"اتی":7354,"خام ":7355,"٪ از ":7356,"انی از ":7357,"مین":7358,"بوی ":7359,"درسی ":7360,"باشند و ":7361,"چین و ":7362,"اجباری ":7363,"رسید ":7364,"تهاج":7365,"غیرقابل ":7366,"سفر به ":7367,"اشتباهات ":7368,"بگذارید ":7369,"تروریسم ":7370,"مشاغل ":7371,"واره ":7372,"در خصوص ":7373,"می شد.\n":7374,"هر سال ":7375,"سازگار ":7376,"را در مورد ":7377,"اتری":7378,"نمی توان ":7379,"سبزی":7380,"عضلات ":7381,"ازدواج":7382,"هواپیما":7383,"ــــ":7384,"آفریقای ":7385,"قربانیان ":7386,"ارمغان ":7387,"wor":7388,"بنگ":7389,"زنگ ":7390,"سگ":7391,"ایا ":7392,"می گیری":7393,"اوج ":7394," و یا ":7395,"روی آن ":7396,"می‌شوند ":7397,"زمان و ":7398,"می تواند یک ":7399,"دنبال":7400,"مهم است.\n":7401,"سیستم عامل ":7402,"موضوعی ":7403,"نموده ":7404,"دخالت ":7405,"کمی از ":7406,"اثر":7407,"مراقبت از ":7408,"استودی":7409,"سرتاسر ":7410,"(به ":7411,"+ ":7412,"Com":7413,"تروی":7414,"سک":7415,"َ ":7416,"‌های":7417,"و پ":7418,"ند:\n":7419,"محور ":7420,"ری که ":7421,"آنها با ":7422,"مسدود ":7423,"می دهند ":7424,"رفتار":7425,"افراد مبتلا به ":7426,"عاشق":7427,"کردم که ":7428,"ثی ":7429,"جفت ":7430,"نمی‌شود.\n":7431,"نمی‌توانید ":7432,"به هیچ ":7433,"املی ":7434,"سرباز ":7435,"اینست":7436,"تجربیات ":7437,"فریاد ":7438,"ژوئی":7439,"جاذ":7440,"دوست دارم ":7441,"اکسیژن ":7442,"پروتکل ":7443,"ظهر ":7444,"کند\n":7445,"ستر ":7446,"بوسی":7447,"او همچنین ":7448,"اول، ":7449,") از ":7450,"هایی است که ":7451,"خواهد داد.\n":7452,"فیف ":7453,"روی زمین ":7454,"می‌توانم ":7455,"گیرنده ":7456,"به طور معمول ":7457,"زوج ":7458,"انجام دهید ":7459,"به سادگی ":7460,"اعتماد به نفس ":7461,"دستورالعمل ":7462,"الکتریکی ":7463,"بنده ":7464,"کامی":7465,"’s ":7466,"ایمن ":7467,"می کردند.\n":7468,"بیانیه ":7469,"دول ":7470,"شده بود، ":7471,"معلو":7472,"سومین ":7473,"اعت ":7474,"کرده است ":7475,"تجوی":7476,"قطار ":7477,"باقی مانده ":7478,"پشت سر ":7479,"ببینید ":7480,"ماجرا":7481,"طلاق ":7482,"K ":7483,"آذ":7484,"حه ":7485,"رنگی ":7486,"شام ":7487,"صمی":7488,"سرقت ":7489,"آمد و ":7490,"مسأ":7491,"کردیم ":7492,"علاوه بر این ":7493,"نگه داشتن ":7494,"شنیدن ":7495,"کلاسیک ":7496,"AM":7497,"Sc":7498,"متا":7499,"نباش":7500,"۵۰۰":7501,"و سایر ":7502,"در کشورهای ":7503,"می خو":7504,"بیر ":7505,"بوجود ":7506,"درب ":7507,"دوچرخه ":7508,"لیکو":7509,"آن ها را ":7510,"ایی در ":7511,"چه کاری ":7512,"مورد توجه ":7513,"در حین ":7514,"بخش های ":7515,"آنچه را که ":7516,"کسب و کار":7517,"جمع‌":7518,"متفاوت است.\n":7519,"بازاریاب":7520,"جمهوری اسلامی ":7521,"اتوبوس ":7522,"آشنایی ":7523,"الگوی ":7524,"از آنجایی که ":7525,"درحالی":7526,"دشمنان ":7527,"فیس بوک ":7528,"سوسیالی":7529,"ey":7530,"در بین ":7531,"از اینکه ":7532,"این گونه ":7533,"این همان ":7534,"دیگه ":7535,"بولی":7536,"ادث ":7537,"فاجعه ":7538,"متنوع ":7539,"شهادت ":7540,"کشید.\n":7541,"جنگل ":7542,"رسانه‌های ":7543,"بودیم.\n":7544,"غلبه ":7545,"آلبوم ":7546,"(N":7547,"PS":7548,"id ":7549,"اک ":7550,"سنی ":7551,"‌کنندگان ":7552,"می آید.\n":7553,"با هدف ":7554,"تحول ":7555,"کرده است، ":7556,"می‌شوند و ":7557,"قابل‌":7558,"روزنام":7559,"دادند که ":7560,"همانطور ":7561,"بازیگران ":7562,"سپری ":7563,"(یا ":7564,"for":7565,"بنویسی":7566,"تکنی":7567,"جات ":7568,"سه‌":7569,"قص":7570,"ولی":7571,"چپ":7572,"گی از ":7573,"به گزارش ":7574,"خواص":7575,"ستیم ":7576,"الت":7577,"ندهی":7578,"هستید که ":7579,"هستید و ":7580,"اعتص":7581,"کیف ":7582,"گیرند.\n":7583,"روز، ":7584,"مانند یک ":7585,"end":7586,"ماهواره ":7587,"سخنان ":7588,"بدهید.\n":7589,"برگشت":7590,"رسانه های ":7591,"می رود.\n":7592,"معلمان ":7593,"نگاهی به ":7594,"دموکراتیک ":7595,"حقیقی ":7596,"ابعاد ":7597,"آشپزخانه ":7598,"150":7599,"مزیت ":7600,"په":7601,"اند\n":7602,"نداز":7603,"محض ":7604,"سوخت":7605,"شکسته ":7606,"لوژی ":7607,"استفاده می کنند.\n":7608,"میلیار":7609,"انگشت":7610,"تلاش":7611,"باعث ایجاد ":7612,"شهروند ":7613," St":7614,"کوتاه مدت ":7615,"تدریس ":7616,"داعش ":7617,"باکتری ":7618,"افتتاح ":7619,"بحر":7620,"خشم ":7621,"قا":7622,"مغذ":7623,"امون ":7624,"بیانی":7625,"برای آنها ":7626,"دهد و ":7627,"هر یک ":7628,"دانستن ":7629,"را به خود ":7630,"باران ":7631,"پرتاب ":7632,"سه سال ":7633,"دست به ":7634,"کلام ":7635,"اتفاق":7636,"رابطه جنسی ":7637,"هواپیمای ":7638,"انتخاب":7639,"میراث ":7640,"آیت الله ":7641,"VP":7642,"m ":7643,"اگه ":7644,"خس":7645,"زد.\n":7646,"ایفا ":7647,"در دانشگاه ":7648,"در رابطه با ":7649,"می گوید که ":7650,"دارید که ":7651,"اگر از ":7652,"اگر می خواهید ":7653,"فیزیک ":7654,"کردم، ":7655,"زندگی و ":7656,"سایه ":7657,"سال‌ها ":7658,"کردن و ":7659," در مورد ":7660,"ماهه ":7661,"وضعی":7662,"نهاد ":7663,"عملیاتی ":7664,"تقاضا ":7665,"at ":7666,"to ":7667,"عبد":7668,"کپی ":7669,"در جریان ":7670,"، ما ":7671,"کنم؟\n":7672,"دراز ":7673,"واکس":7674,"نظرم ":7675,"دستی ":7676,"خودداری ":7677,"اشتغال ":7678,"انگ ":7679,"طراحی سایت ":7680,"۱۹۴":7681,"آسیا ":7682,"جستجو":7683,"مایل به ":7684,"....\n":7685,"هماهنگ ":7686,"» و «":7687,"عالم ":7688,"تظاهرات ":7689,"امّا ":7690,"متقاعد ":7691,"سوا":7692,"قضیه ":7693,"۲۲":7694,"آنها، ":7695,"آن که ":7696,"است که با ":7697,"گواهی":7698,"مانی":7699,"آماز":7700,"ند، و ":7701,"کتابی ":7702,"اضطر":7703,"گفتند که ":7704,"» را ":7705,"مصرف":7706,"آن را با ":7707,"اقتصاد":7708,"وجود دارد و ":7709,"مجموعه ای از ":7710,"هنرمندان ":7711,"دونالد ":7712,"وجود، ":7713,"حسابداری ":7714,"ثروتمند ":7715,"آفتاب ":7716,"ain":7717,"e و ":7718,"per":7719,"شا ":7720,"يت ":7721,"از میان ":7722,"موان":7723,"داری از ":7724,"ناو":7725,"نه فقط ":7726,"را به یک ":7727,"مکانی ":7728,"زندگی در ":7729,"جنس ":7730,"زن و ":7731,"مسیح":7732,"موفق به ":7733,"انسان‌ها ":7734,"اعتراض":7735,"انداخت":7736,"شبکه‌های ":7737,"مخصوصا ":7738,"ik":7739,"بصورت ":7740,"جنس":7741,"دکمه ":7742,"رب ":7743,"غنی ":7744,"به زبان ":7745,"به عبارت ":7746,"برطرف ":7747,"ه‌ام ":7748,"لاد ":7749,"محا":7750,"محبت ":7751,"جوانی ":7752,"استفاده کنند.\n":7753," درجه ":7754,"ard ":7755,"پیشنها":7756,"جانب ":7757,"دفاعی ":7758,"بنیاد ":7759,"شارژ ":7760,"نخست وزیر ":7761,"تحت تاثیر قرار ":7762,"شاد ":7763,"صلح":7764,"در دست ":7765,"در دنیای ":7766,"، یا ":7767,"این پروژه ":7768,"بول":7769,"سود":7770,") برای ":7771,"راه های ":7772,"عمق ":7773,"پیوسته ":7774,"بدهی ":7775,"روسیه و ":7776,"بایستی ":7777,"تضعیف ":7778,"ژاپنی ":7779,"فساد ":7780,"لر ":7781,"از ما ":7782,"بورگ":7783,"دهد، ":7784,"شما را در ":7785,"نگاری ":7786,"او یک ":7787,"یکپارچه ":7788,"هید":7789,"پرنده ":7790,"سازی و ":7791,"خواهد بود":7792,"ندارند ":7793,"one ":7794,"فیلم های ":7795,"نقش مهمی ":7796,"علاقه مند ":7797,"یهودی ":7798,"همکاران ":7799,"جنبه های ":7800,"فالون ":7801,"!!!\n":7802,"(D":7803,":«":7804,"اده‌":7805,"غرو":7806,"كو":7807,"به هم ":7808,"می مان":7809,"روید ":7810,"یک گروه ":7811,"پیرو":7812,"خود با ":7813,"قرص ":7814,"قرار دهید.\n":7815,"کردند":7816,"هاب ":7817,"بالغ ":7818,"دیگری از ":7819,"دلار":7820,"جیمز ":7821,"درباره ی ":7822,"بشری ":7823,"بستگی دارد.\n":7824,"همچنین، ":7825,"aw":7826,"جبران ":7827,"فلو":7828,"به شمار ":7829,"می ‌":7830,"این بیماری ":7831,"روایت ":7832,"می‌خور":7833,"را، ":7834,"بیست ":7835,"ما هم ":7836,"بر آن ":7837,"بازی در ":7838,"پرس ":7839,"ه‌ای برای ":7840,"فوت ":7841,"چیز دیگری ":7842,"تئا":7843,"مدارک ":7844,"گذاشت.\n":7845,"هوشمند":7846,"دفاع از ":7847,"مراقبت های ":7848,"طرفداران ":7849,"تخصصی ":7850,"اعتباری ":7851,"زایمان ":7852,"شان، ":7853,"در شرایط ":7854,"ها را در ":7855,"موهای ":7856,"می کنند":7857,"کردن به ":7858,"آیات ":7859,"گرفته تا ":7860,"عرب ":7861,"ابتدایی ":7862,"ضرورت ":7863,"رتبه بندی ":7864,"فیسبوک ":7865,"ادو":7866,"ش.\n":7867,"طراح ":7868,"پي":7869,"می باشد که ":7870,"کنم که ":7871,"توده ":7872,"ما این ":7873,"کارگردان":7874,"واجد ":7875,"اون":7876,"چین، ":7877,"دم و ":7878,"بیشتری از ":7879,"بین دو ":7880,"دیگری در ":7881,"متحده ":7882,"یادداشت ":7883,"‌تر و ":7884,"ساخته شده است.\n":7885,"کوتاهی ":7886,"علیه ال":7887,"شرکت‌ها ":7888,"سیاست های ":7889,"تروریست":7890,"تاریک ":7891,"مواردی ":7892,"فکری ":7893,"تبعی":7894,"36":7895,"bo":7896,"آف":7897,"فشر":7898,"كار ":7899,"يه ":7900,"يک ":7901,"ازده ":7902,"به آن‌ها ":7903,"را دارد.\n":7904,"مور ":7905,"سیار":7906,"دارید؟\n":7907,"گردن ":7908,"لی و ":7909,"فاقد ":7910,"هر بار ":7911,"ساکن ":7912,"آنها برای ":7913,"رسمیت ":7914,"کمک می کند تا ":7915,"پذیری":7916,"بنشی":7917,"غیرقانونی ":7918,"افزوده ":7919,"چشم‌":7920,"ناگهانی ":7921,"ترویج ":7922,"HD":7923,"‌کننده ":7924,"کنم، ":7925,"این مقاله ":7926,"ام‌های ":7927,"معدنی ":7928,"هر زمان ":7929,"مان، ":7930,"اقدام":7931,"آیفون ":7932,"چیزی را ":7933,"خواهید داشت.\n":7934,"درونی ":7935,"حرکات ":7936,"چاق ":7937,"ock":7938,"حاکم ":7939,"فکر می‌کنم ":7940,"اطمینان حاصل کنید که ":7941,"یهودیان ":7942,"ریاست جمهوری ":7943,"مکر":7944,"و حتی ":7945,"نوآور":7946,"شیرین ":7947,"قرار گرفتن ":7948,"بیشتر به ":7949,"فرود ":7950,"دمه ":7951,"193":7952,"وجود دارد":7953,"ماهیت ":7954,"مفاهیم ":7955,"دیوید ":7956,"وسیع ":7957,"مردمی ":7958,"بلوک ":7959,"در حال حاضر، ":7960,"انفجار ":7961,"مایکروسافت ":7962," ثانیه ":7963,"AD":7964,"ost":7965,"sp":7966,"اب و ":7967,"له، ":7968,"پیک ":7969,"استار":7970,"می‌خو":7971,"ما می توانیم ":7972,"شور ":7973,"بومی ":7974,"شما همچنین ":7975,"کار کردن ":7976,"سالن ":7977,"تمام این ":7978,"فروخته ":7979,"از این رو ":7980,"با این وجود ":7981,"عالی برای ":7982,"عصبانی ":7983,"آرامی ":7984,"صوتی ":7985,"سامسو":7986,"مجهز ":7987,"پشتیبانی از ":7988,"\" و ":7989,"--":7990,"قد":7991,"ل.\n":7992,"ناب":7993,"يا ":7994,"۹۰":7995,"برند":7996,"یا از ":7997,"توانید ":7998,"نادر ":7999,") است.\n":8000,"مکانی":8001,"زندگی خود ":8002,"نقط":8003,"مدیر":8004,"همکاری با ":8005,"شایسته ":8006,"کاخ سفید ":8007,"بکار ":8008,"عاق":8009,"‌ها":8010,"ازای ":8011,"در دهه ":8012,"را آغاز ":8013,"اله":8014,"مواقع ":8015,"شود تا ":8016,"دهید، ":8017,"زندانیان ":8018,"مسکو ":8019,"آمریکا":8020,"مستند ":8021,"زیادی برای ":8022,"اروپا، ":8023,"ess":8024,"باشد، اما ":8025,"انتظارات ":8026,"خوشحال":8027,"دانش آموز ":8028,"بگذارد.\n":8029,"سازماندهی ":8030,"طرفدار ":8031,"رفت و ":8032,"پورت ":8033,"فارغ التحصیلان ":8034,"خلاقیت ":8035,"(E":8036,"رشد و ":8037,"پلا":8038,"مینی ":8039,"بیاب":8040,"است به ":8041,"هستند؟\n":8042,"مانه ":8043,"لوازم ":8044,"استفاده ن":8045,"مترین ":8046,"فقر ":8047,"192":8048,"ess ":8049,"چیزها ":8050,"شهرت ":8051,"جانبه ":8052,"می گوید: ":8053,"دوستانه ":8054,"وسیعی از ":8055,"اتاق":8056,"غلط ":8057,"چشمان ":8058,"بروید.\n":8059," کیلومتر ":8060,"واسطه ":8061,"75":8062,"CO":8063,"e، ":8064,"هش":8065,"به حساب ":8066,"افس":8067,"باشم.\n":8068,") یک ":8069,"متعهد ":8070,"رفتاری ":8071,"کشور، ":8072,"خدا را ":8073,"مواد شیمیایی ":8074,"نویسند":8075,"جزو ":8076,"مادرش ":8077,"ایستاده ":8078,"بخوری":8079,"اتومبیل ":8080,"یورو ":8081,"شگفت‌":8082,"قائل ":8083,"IN":8084,"Wh":8085,"it ":8086,"ت‌ ":8087,"حدی ":8088,"رمز ":8089,"نرو":8090,"نشد.\n":8091,"گال":8092,"ید: ":8093,"انور":8094,"اسید ":8095,"ال‌های ":8096,"تونی ":8097,"دید که ":8098,"سیب ":8099,"است که در آن ":8100,"بیشتر در ":8101,"پیوند":8102,"جلو ":8103,"افتاد.\n":8104,"واردات ":8105,"بلند مدت ":8106,"گیاهان ":8107,"پژوهشگران ":8108,"عش":8109,"فش":8110,"فای ":8111,"کتور ":8112,"است؟ ":8113,"های کوچک ":8114,"آن زمان ":8115,"باشد؟\n":8116,"پیمان ":8117,"شی، ":8118,"دیگر در ":8119,"اصلی":8120,"بزرگ در ":8121,"مردم را ":8122,"نیاز دارد.\n":8123,"در سال های ":8124,"اشخاص ":8125,"حرارت ":8126,"آسیب‌":8127,"کنید:\n":8128,"کامپیوتری ":8129,"سیاست‌های ":8130,"بچه‌ها ":8131,"پیاده روی ":8132,"جور ":8133,"رکور":8134,"شج":8135,"مندی ":8136,"نداشته باش":8137,"وفا":8138,"این واقعیت ":8139,"ها ، ":8140,"دوشنبه ":8141,"د و به ":8142,"ساکنان ":8143,"آمده است.\n":8144,"بلکه در ":8145,"خواهند بود.\n":8146,"بخش‌های ":8147,"برگزی":8148,"حوادث ":8149,"نصف ":8150,"سازمان‌های ":8151,"& ":8152,"SS":8153,"U ":8154,"pt":8155,"تِ ":8156,"دند و ":8157,"س‌های ":8158,"روسی ":8159,"کردی ":8160,"دارم که ":8161,"دوز ":8162,"هستم ":8163,"مقداری ":8164,"به‌صورت ":8165,"مسیحی":8166,"موسیقی":8167,"مالک ":8168,"ژنتیکی ":8169,"فراوانی ":8170,"مشورت ":8171,"بنویس":8172,"بگذاری":8173,"شکر":8174,"فهم ":8175,"۳۵":8176,"‌ام ":8177,"ان: ":8178,"از راه ":8179,"دائم ":8180,"بینداز":8181,"دهد که ":8182,") یا ":8183,"نظری ":8184,"می‌کنم ":8185,"بعدا ":8186,"کرده که ":8187,"می‌شود\n":8188,"نقص ":8189,"erv":8190,"۱۹۵":8191,"ach":8192,"به این معنی است که ":8193,"به نظر می‌رسد ":8194,"تبادل ":8195,"آگو":8196,"غاف":8197,"قایق ":8198,"مش ":8199,"٫ ":8200,"چاپ":8201,"کنم و ":8202,"کند؟\n":8203,"خونی ":8204,"دید، ":8205,"هستیم":8206,"شیشه ":8207,"تاپ ":8208,"بعدها ":8209,"دلای":8210,"عموم ":8211,"تصویری ":8212,"فرزندتان ":8213,"گرفت و ":8214,"نماد ":8215,"مطلع ":8216,"همسایه ":8217,"خونریزی ":8218,"سنج":8219,"ای به ":8220,"می‌آید.\n":8221,"برای تولید ":8222,"مردم":8223,"شده اند، ":8224,"نادرست ":8225,"قرار گرفت.\n":8226,"نیستند ":8227,"ممکن است برای ":8228,"گردش ":8229,"شعر ":8230,"مسافران ":8231,"تعهدات ":8232,"کلیسا ":8233,"وکیل ":8234,"| ":8235,"آند":8236,"رؤ":8237,"شکو":8238,"طیل ":8239,"هاو":8240,"در زیر ":8241,"به چه ":8242,"شتر ":8243,"هستم":8244,"محروم ":8245,"شیر":8246,"بخشد.\n":8247,"داد: ":8248,"رویدادهای ":8249,"خواستند ":8250,"ت‌هایی ":8251,"غرق ":8252,"ack ":8253,"بگویید ":8254,"خوشای":8255,"مادرم ":8256,"مالیاتی ":8257,"قصد دارد ":8258,"دیجیتالی ":8259,"اعتراف ":8260,"متقاض":8261,"طعم ":8262,"ust":8263,"اداری ":8264,"حتما":8265,"نمی‌کند.\n":8266,"به مردم ":8267,"را روی ":8268,"بیامو":8269,"با اینکه ":8270,"شوهر ":8271,"ویزا ":8272,"سرخ ":8273,"انیمی":8274,"می تواند در ":8275,"ی در مورد ":8276,"ایران در ":8277,"تلقی ":8278,"نمی‌توان ":8279,"تصمیم‌":8280,"۱۹۳":8281,"نهادهای ":8282,"پلت":8283,"پنج سال ":8284,"پدرم ":8285,"مرگ و ":8286,"مخاطب ":8287,"آرژ":8288,"بط":8289,"جبه":8290,"سمی ":8291,"عواق":8292,"چه‌":8293,"می بین":8294,"ها نیز ":8295,"شوید، ":8296,"دارید و ":8297,"پیر ":8298,"هستیم که ":8299,"سال های ":8300,"کوس ":8301,"اعتی":8302,"انتهای ":8303,"کردن، ":8304,"مدعی ":8305,"دیگر.\n":8306,"در حال توسعه ":8307,"علاو":8308,"عود ":8309,"شبانه ":8310,"انجام دهند.\n":8311,"دانش و ":8312,"خوشبخ":8313,"جزایر ":8314,"حاکمیت ":8315,"32":8316,"?\n":8317,"ER":8318,"ey ":8319,"man":8320,"خستگی ":8321,"نبوده ":8322,"ه‎":8323,"وسو":8324,"گرا ":8325,"یا":8326,"به تنهایی ":8327,"می کنیم که ":8328,"موسی ":8329,"همه، ":8330,"مات":8331,"ناظ":8332,"آنها را در ":8333,"یکبار ":8334,"دستگاه":8335,"آزار ":8336,"شهید ":8337,"مغنا":8338,"بگذارید.\n":8339,"نرم افز":8340,"امتیاز":8341,"آرزو ":8342,"Ac":8343,"Pr":8344,"ثال":8345,"كنی":8346,"کمترین ":8347,"د یا ":8348,"را متوقف ":8349,"کنند\n":8350,"این مساله ":8351,"روس":8352,"دی\n":8353,"رال ":8354,"بیست و ":8355,"باه":8356,"دهیم.\n":8357,"دوم، ":8358,"ناتو ":8359,"او برای ":8360,"شکست":8361,"به، ":8362,"می‌توانست ":8363,"مطبو":8364,"بیشتر و ":8365,"افتاد":8366,"فیلم‌های ":8367,"علائ":8368,"مصرف کنندگان ":8369,"بگویم ":8370,"شویی ":8371,"راستای ":8372,"به نظر می رسد که ":8373,"ناراحتی ":8374,"مهارت‌های ":8375,"عاطفی ":8376,"حدس ":8377,"خی ":8378,"خند":8379,"سنین ":8380,"عالی":8381,"فنج":8382,"کپ":8383,"د ، ":8384,"ارتی ":8385,"در عین حال ":8386,"می زن":8387,"کنسو":8388,"دیده‌":8389,"برای کاهش ":8390,"لیبی ":8391,"تا چه ":8392,"تمدن ":8393,"تاخیر ":8394,"متعدد ":8395,"ers ":8396,"چند ماه ":8397,"اعضای خانواده ":8398,"بنیادی ":8399,"ترس از ":8400,"وابسته به ":8401,"کابل ":8402,"حساسیت ":8403,"جنین ":8404,"جاسو":8405,"خب ":8406,"کوی":8407,"گست":8408,"گنج":8409,"و اگر ":8410,"در راه ":8411,"های بزرگ ":8412,"نوجوانان ":8413,"ف و ":8414,"تری از ":8415,"کارهایی که ":8416,"کارآمد ":8417,"‌ها از ":8418,"احز":8419,"احم":8420,"بود تا ":8421,"سایت شما ":8422,"غیر این ":8423,"مربوطه ":8424,"مشخصات ":8425,"ros":8426,"می دانید ":8427,"نهایت، ":8428,"برابری ":8429,"حیوان ":8430,"همسرش ":8431,"مسافرت ":8432,"به هر حال ":8433,"گردشگری ":8434,"عذاب ":8435,"نتیجه، ":8436,"گواهینامه ":8437,"مغناطی":8438,"بغ":8439,"غم":8440,"پست":8441,"اندر":8442,"ای را ":8443,"ای است که ":8444,"را حفظ ":8445,"کنید: ":8446,"داشتم.\n":8447,"جولای ":8448,"می‌کنند":8449,"قرار می‌گیر":8450,"بودم، ":8451,"دست کم ":8452,"مدنی ":8453,"دانش‌":8454,"با این وجود، ":8455,"بدل ":8456,"مالی و ":8457,"همه چیز را ":8458,"تمرکز بر ":8459,"باقی مان":8460,"خصوص در ":8461,"فلسطی":8462,"دبیر":8463,"چنانچه ":8464,"قسمت":8465,"تجویز ":8466,"حاص":8467,"شری":8468,"شاع":8469,"مهمان ":8470,"وا ":8471,"است.":8472,"ستانی ":8473,"دیکتا":8474,"کربو":8475,"فرق ":8476,"شده باشد.\n":8477,"سرع":8478,"سوء":8479,"سوزی ":8480,"کینگ ":8481,"در این صورت ":8482,"شدند که ":8483,"کلسترو":8484,"قوم ":8485,"فقط به ":8486,"ندارد که ":8487,"تحت کنترل ":8488,"مردان و ":8489,"ivers":8490,"عجیب و ":8491,"سازمان ملل متحد ":8492,"نداریم.\n":8493,"ارتقاء ":8494,"ژوئیه ":8495,"(L":8496,"ذی":8497,"چند که ":8498,"کج":8499,"و نه ":8500,"از خود ":8501,"می خور":8502,"خوانی ":8503,"می‌پرداز":8504,"راق ":8505,"شوند":8506,"کار با ":8507,"می شود؟\n":8508,"کمال ":8509,"بدون هیچ ":8510,"انسان ها ":8511,"ایالات متحده، ":8512,"معنی است که ":8513,"کشتن ":8514,"مسئولی":8515,"(در ":8516,"- در ":8517,"tr":8518,"اسد ":8519,"را شروع ":8520,"برگردان":8521,"ه‌گیری ":8522,"باشند که ":8523,"کنی.\n":8524,"بزرگ، ":8525,"به این ترتیب ":8526,"چگونه به ":8527,"خیلی خوب ":8528,"طراحان ":8529,"سخنگ":8530,"اتفاق می‌افت":8531,"آشکار":8532,"معتقدند که ":8533,"ow ":8534,"مضر ":8535,"انقلاب":8536,"کاغذ ":8537,"استثن":8538,"فزاینده ":8539,"\" در ":8540,"uc":8541,"آما":8542,"قاط":8543,"ن» ":8544,"یابی":8545,"دوام ":8546,"آنهایی که ":8547,"یا اینکه ":8548,"در حقیق":8549,"مدل های ":8550,"فقط در ":8551,"دادند ":8552,"سفارت ":8553,"اختلالات ":8554,"باقی بمان":8555," میلی ":8556,"خروجی ":8557,"هوش مصنوعی ":8558,"مطابق با ":8559,"گوناگون ":8560,"زلزله ":8561,"خواص ":8562," تن ":8563,"EC":8564,"بفرست":8565,"باستان ":8566,"ت: ":8567,"دند، ":8568,"متری ":8569,"پم":8570,"‌.\n":8571,"به طوری که ":8572,"برآورد ":8573,"کنی ":8574,"این بار ":8575,"است: «":8576,"نیام":8577,"باقی":8578,"برای حفظ ":8579,"زین ":8580,"ویلی":8581,"می کنند تا ":8582,") که ":8583,"پرت":8584,"بلکه به ":8585,"خانه‌های ":8586,"تشدید ":8587,"آسان":8588,"لازم نیست ":8589,"تصویر":8590,"جمعی ":8591,"خواهیم کرد.\n":8592,"اروپا و ":8593,"انتظار می رو":8594,"کردم و ":8595,"شده\n":8596,"فرمود: ":8597,"می‌رود.\n":8598,"چراغ ":8599,"موافق ":8600,"متأسف":8601," سپتامبر ":8602,"رال":8603,"سادگی ":8604,"وس ":8605,"پس":8606,"کیک ":8607,"را باید ":8608,"برایشان ":8609,"کن.\n":8610,"می‌گوید که ":8611,"موفق":8612,"یک کشور ":8613,"محکم ":8614,"شکل از ":8615,"پرندگان ":8616,"سازد.\n":8617,"بیشتر":8618,"قرار دارند.\n":8619,"الی که ":8620,"مطلوب ":8621,"است، زیرا ":8622,"دانشگاهی ":8623,"جمهور":8624,"ice ":8625,"بالا و ":8626,"act":8627,"ایده های ":8628,"معناست که ":8629,"اقدام به ":8630,"اخیر، ":8631,"قهرمان":8632,"روحانی ":8633,"وسط ":8634,"آپارتمان ":8635,"توییتر ":8636,"ونزوئلا ":8637,"واکسن ":8638,"آمازون ":8639,"آرژانت":8640,"120":8641,"ie ":8642,"جین ":8643,"قار":8644,"ماست.\n":8645,"پات":8646,"ازن ":8647,"اسکن ":8648,"می شناس":8649,"یک مطالعه ":8650,"برای استفاده ":8651,"تعطیل ":8652,"ندارد، ":8653,"عرصه ":8654,"قطعاً ":8655,"پنجم ":8656,"شما\n":8657,"ضروری است.\n":8658,"تمایل به ":8659,"الگوریتم ":8660,"UR":8661,"ب\n":8662,"جنا":8663,"شاهی ":8664,"لم ":8665,"ّ ":8666,"استعم":8667,"هم برای ":8668,"نابودی ":8669,"استفاده شود.\n":8670,"هیچکس ":8671,"آینه ":8672,"بدون اینکه ":8673,"آنچه در ":8674,"دیگری که ":8675,"فریب ":8676,"ایی‌های ":8677,"داخلی و ":8678,"را می‌توان ":8679,"بخوانی":8680,"شفاف ":8681,"نژاد ":8682,"بیماری‌های ":8683,"موضع ":8684,"اعتبار":8685,"صرفا":8686,"نمی کنند.\n":8687,"ورات ":8688,"پلی ":8689,"کتی ":8690,"گور":8691,"در صنعت ":8692,"از آن‌ها ":8693,"را تا ":8694,"را حل ":8695,"خوب، ":8696,"یک دوره ":8697,"برای خرید ":8698,"مرغ":8699,"تحو":8700,"مایکل ":8701,"متمایز ":8702,"ملک ":8703,"شت و ":8704,"پوند ":8705,"آموخت":8706,"شرکت در ":8707,"چند هفته ":8708,"وقتی به ":8709,"همان طور که ":8710,"دوست دارند ":8711,"اروپای ":8712,"تأسیس ":8713,"تصمیم گرفت ":8714,"کره جنوبی ":8715,"اصطلاح":8716,"تکنیک های ":8717,"امپراتوری ":8718,"افسانه ":8719,"31":8720,"az":8721,"لاس ":8722,"پتان":8723,"در قرن ":8724,"می‌زن":8725,"نیکو":8726,"را\n":8727,"بوده، ":8728,"دهید و ":8729,"منع ":8730,"اواس":8731,"بازار":8732,"تحمیل ":8733,"نظم ":8734,"می شود تا ":8735,"تاکت":8736,"دو نفر ":8737,"بالا، ":8738,"شد؟\n":8739,"مردم در ":8740,"فروشی ":8741,"را ببین":8742,"دادم.\n":8743,"بسیاری از افراد ":8744,"190":8745,"خواننده ":8746,"فرصتی ":8747,"می‌گوید: ":8748,"بیت کوین ":8749,"ew ":8750,"مختلفی از ":8751,"عوارض جانبی ":8752,"برزیل ":8753,"سرگرمی ":8754,"مرورگر ":8755,"در حقیقت، ":8756,"Mic":8757,"نخواهد بود.\n":8758,"ه؟\n":8759,"ود ":8760,"اند تا ":8761,"این در حالی ":8762,"بیش":8763,"شویم.\n":8764,"همۀ ":8765,"نون ":8766,"نوار ":8767,"لات، ":8768,"خواهر ":8769,"می شوند که ":8770,"خواهد بود که ":8771,"خیانت ":8772,"هایم ":8773,"که به دنبال ":8774,"تولید و ":8775,"کلی، ":8776,"جمهوری":8777,"خوش‌":8778,"جزء ":8779,"am ":8780,"th ":8781,"زخم ":8782,"تحلیل":8783,"مخلوط ":8784,"واجد شرایط ":8785,"سامسونگ ":8786,"حتماً ":8787,"ID":8788,"IT":8789,"IP ":8790,"f ":8791,"آری":8792,"ئه ":8793,"بصری ":8794,"تکیه ":8795,"شلیک ":8796,"‌ال":8797,"اید و ":8798,"، از جمله ":8799,"از کجا ":8800,"ها باید ":8801,"اهمی":8802,"داری، ":8803,"ادبیات ":8804,"هستم که ":8805,"تعدادی ":8806,"فین ":8807,"غیره ":8808,"به این نتیجه ":8809,"مشکلاتی ":8810,"anc":8811,"مسیحی ":8812,"می شود .\n":8813,"قانون اساسی ":8814,"آموزش":8815,"آشپ":8816,"اشاره به ":8817,"مجددا ":8818,"روانشناسی ":8819,"ادرار ":8820," ساع":8821,"LE":8822,"اي ":8823,"تال":8824,"جد":8825,"جدایی ":8826,"شاد":8827,"وطه ":8828,"می‌یاب":8829,"برای خود ":8830,"تا پایان ":8831,"که در مورد ":8832,"می‌دهد، ":8833,"enc":8834,"جمعی":8835,"خلاق ":8836,"سریع و ":8837,"age ":8838,"مورد نیاز برای ":8839,"نظارت بر ":8840,"تاثیر":8841,"پدر و مادر ":8842,"آموزش و پرورش ":8843,"App":8844,"رأی ":8845,"بگو":8846,"بتوان ":8847,"شو ":8848,"۲۳":8849,"به علت ":8850,"این همه ":8851,"شود؟\n":8852,"لی\n":8853,"یا خی":8854,"توانند ":8855,"ادعای ":8856,"خود از ":8857,"معدن ":8858,"است که یک ":8859,"اینطور ":8860,"تقل":8861,"است، که ":8862,"ندارم.\n":8863,"پیدا کند.\n":8864,"ath":8865,"تلاش های ":8866," سال پیش ":8867,"مواد مغذ":8868,"نمایش داده ":8869,"طلایی ":8870,"خودروهای ":8871,"خود را.\n":8872,"توجیه ":8873,"صرفاً ":8874,"اواسط ":8875,"زرد ":8876,"زبال":8877,"کشان ":8878,"اندون":8879,"در جهت ":8880,"میو":8881,"برآورده ":8882,"های بسیار ":8883,"می‌گیری":8884,"چه کار ":8885,"ملکه ":8886,"جنایت ":8887,"کننده و ":8888,"بیشتری برای ":8889,"خطر ابتلا به ":8890,"پرسش":8891," متر ":8892,"نخستین بار ":8893,"اکتش":8894,"HTM":8895,"as ":8896,"تسل":8897,"د) ":8898,"لش ":8899,"کاو":8900,"انا ":8901,"انگر ":8902,"، برای ":8903,"برنج ":8904,"این کار":8905,"اما، ":8906,"دیگری":8907,"داری":8908,"درد و ":8909,"لاتین ":8910,"فرمت ":8911,"کم‌":8912,"کسل ":8913,"دور از ":8914,"پیشنهادی ":8915,"به دست آور":8916,"کامپیوتر":8917,"امریکایی ":8918,"بین‌المل":8919,"خاصی از ":8920,"اخلاق ":8921,"استعداد ":8922,"بزنید.\n":8923,"به یاد داشته باشید که ":8924,"تصادفی ":8925,"کسب‌وکار ":8926,"جغرافیایی ":8927,"(G":8928,"- و ":8929,"33":8930,"A) ":8931,"ool":8932,"بفهمی":8933,"تکه ":8934,"سپاس":8935,"عنو":8936,"نصی":8937,"وادار ":8938,"کرا":8939,"کلو":8940,"انحص":8941,"برداشته ":8942,"است زیرا ":8943,"ابزاری ":8944,"کارکن":8945,"داشته‌":8946,"مکزیک ":8947,"احمق":8948,"داد تا ":8949,"چند دقیقه ":8950,"کانادا":8951,"زنان در ":8952,"یاد بگیر":8953,"محقق ":8954,"ass":8955,"جایگزینی ":8956,"مسافر":8957,"عکاس":8958,"برچسب":8959,"خوشبختانه ":8960,"اسلحه ":8961,"99":8962,"vi":8963,"y\n":8964,"آست":8965,"جدول ":8966,"رفی":8967,"سئو ":8968,"شباه":8969,"عقل ":8970,"نخواهید ":8971,"ه!\n":8972,"ایتی ":8973,"در پی ":8974,"به وسیله ":8975,"از همان ":8976,"الح":8977,"می‌بین":8978,"اهایی ":8979,"دوش ":8980,"توانسته ":8981,"منصف":8982,"است که ما ":8983,"کوبا ":8984,"گوشه ":8985,"مایع ":8986,"روی یک ":8987,"سایبری ":8988,"پایین":8989,"به عنوان بخشی از ":8990,"همیش":8991,"در مورد این ":8992,"رسید که ":8993,"مراقب":8994,"البته این ":8995,"تغییری ":8996,"زمینه های ":8997,"حسن ":8998,"زمانی":8999,"کریسم":9000,"کانادایی ":9001,"ضرر ":9002,"ویدیو ":9003,"صبحانه ":9004,"همان‌طور که ":9005,"مکالمه ":9006,"(مانند ":9007,"WE":9008,"se ":9009,"yn":9010,"تکان ":9011,"زر":9012,"سقف ":9013,"اسپر":9014,"کنسر":9015,"می‌گردد.\n":9016,"آن با ":9017,"انی که در ":9018,"یم تا ":9019,"متعاد":9020,"تغییر در ":9021,"سایت های ":9022,"اجازه می دهد ":9023,"انتظار":9024,"مطمئنا ":9025,"انواع مختلف ":9026,"تحقیق و ":9027,"خارج از کشور ":9028,"Inter":9029,"شعار ":9030,"نشانه های ":9031,"شرکتی ":9032," شرکت ":9033,"ian":9034,"حاشی":9035,"خشم":9036,"نقر":9037,"نکنید ":9038,"نشین ":9039,"ژا":9040,"ارف ":9041,"به خدا ":9042,"م .\n":9043,"امبر":9044,"ریزش ":9045,"موز":9046,"ه‌ها، ":9047,"هم که ":9048,"بخش از ":9049,"همچنین به ":9050,"از این که ":9051,"جهان را ":9052,"اخذ ":9053,"طراحی شده است.\n":9054,"ایالات متحده آمریکا ":9055,"سرمایه گذاران ":9056,"شده‌اند، ":9057,"در نظر گرفتن ":9058,"مواجهه ":9059,"اندیشه ":9060,"دردناک ":9061,"احزاب ":9062,"Qu":9063,"ax":9064,"دت ":9065,"زب":9066,"سانت":9067,"صلاح":9068,"عسل ":9069,"فن":9070,"نال ":9071,"نبود":9072,"که\n":9073,"‌مان ":9074,"ایای ":9075,"به سر ":9076,"می باشد ":9077,"می آید ":9078,"این گزارش ":9079,"روده ":9080,"الف":9081,"برای افزایش ":9082,"بر مبنای ":9083,"داشتند، ":9084,"داشتند که ":9085,"می کنید که ":9086,"دو کشور ":9087,"نیستند، ":9088,"ممکن است از ":9089,"ه‌ای در ":9090,"منطقه ای ":9091,"البته، ":9092,"ساده و ":9093,"هیچ‌کس ":9094,"ارتقا ":9095,"پیرامون ":9096,"ایتالیایی ":9097,"الزامات ":9098,"فنجان ":9099,"(R":9100,"تنگ ":9101,"ربات ":9102,"اموا":9103,"برای کسانی که ":9104,"بوی":9105,"فرشت":9106,"ساعات ":9107,"کردند تا ":9108,"زیادی در ":9109,"تایلند ":9110,"خوب است.\n":9111,"حمام ":9112,"خطاب ":9113,"جادوی":9114,"تخلیه ":9115,"رساندن ":9116,"حقایق ":9117,"پادشاهی ":9118,"رزرو ":9119,"وجود ندارد که ":9120,"مطابقت ":9121,"راه‌اندازی ":9122,"کالیفرنیا ":9123,"ائتلاف ":9124,"اعتصاب ":9125," منتشر ":9126,"(F":9127,"55":9128,"oh":9129,"اا":9130,"خنک ":9131,"ير ":9132,"ک\n":9133,"کشتی":9134,"گن ":9135,"گاو":9136,"یمن ":9137,"به فروش ":9138,"میکنند.\n":9139,"این منطقه ":9140,"داوری ":9141,"نیافت":9142,"داروی ":9143,"همراه":9144,"کارایی ":9145,"دی در ":9146,"هایی هستند که ":9147,"ات\n":9148,"کتری":9149,"افزای":9150,"تلفنی ":9151,"می توانید از ":9152,"عوض":9153,"تلاش‌های ":9154,"‌‌‌":9155,"به شما در ":9156,"آرزو":9157,"کالاهای ":9158,"امور خارجه ":9159,"همسرتان ":9160,"فایل های ":9161,"بستگی به ":9162,"نژاد":9163,"شرکای ":9164,"هیجان انگیز ":9165,"Univers":9166,"پرچم ":9167," :":9168,"ber":9169,"ge ":9170,"ذرات ":9171,"زبانی ":9172,"با عنوان ":9173,"برای مدت ":9174,"ه‌بندی ":9175,"ورد":9176,"است که توسط ":9177,"هستید":9178,"گفت.\n":9179,"تنها به ":9180,"نیاز دارید ":9181,"نمایند":9182,"قطعی ":9183,"تحت عنوان ":9184,"بندی":9185,"پیشگیری از ":9186,"عضل":9187,"امنیت ملی ":9188,"ویدئو ":9189,"تغذی":9190,"تاثیرات ":9191,"بیاوری":9192," \"":9193,"II":9194,"ail":9195,"؟»":9196,"تپ":9197,"عج":9198,"کمر":9199,"ی را ":9200,"اسباب ":9201,"در دنیا ":9202,"به ندرت ":9203,"دیروز ":9204,"می‌مان":9205,"می‌شناس":9206,"می‌نویس":9207,"شوید و ":9208,"شما را از ":9209,"باشند":9210,"پیشی":9211,"مردان":9212,"معاون ":9213,"اجزای ":9214,"هایی را ":9215,"اصرار ":9216,"تجار":9217,"یکی از بزرگترین ":9218,"غذا و ":9219,"فراوان ":9220,"خوانندگان ":9221,"قلمر":9222,"دانشگاه های ":9223,"شش ماه ":9224,". »\n":9225,"والدی":9226,"گسترده ای از ":9227,"فقیر ":9228,"رفاه ":9229,"ردیابی ":9230,"لیزر ":9231,"اینستاگرا":9232,"موانع ":9233,"% از ":9234,"i-":9235,"بشناس":9236,"خره ":9237,"دال":9238,"عباد":9239,"لنز ":9240,"نکرده است.\n":9241,"کال ":9242,"کف ":9243,"‌ای ":9244,"‌سازی ":9245,"در گذشته ":9246,"ه‌ها را ":9247,"آنجل":9248,"مربع ":9249,"لات":9250,"بازنش":9251,"اگر کسی ":9252,"مسجد ":9253,"خودروی ":9254,"صورت، ":9255,"نیاز به یک ":9256,"مدرس":9257,"بشریت ":9258,"تحصیل در ":9259,"وحشت ":9260,"بهره مند ":9261,"عظی":9262,"میلیون ها ":9263,"نیست، بلکه ":9264,"مشغول به کار ":9265,"رحمت ":9266,"دیپلماتیک ":9267,"کمونیست ":9268,"سلطنتی ":9269,"تنفس ":9270,"معاصر ":9271,"سبزیجات ":9272,"جاذبه ":9273,"کربوهید":9274,"Te":9275,"oin":9276,"اژ ":9277,"بک ":9278,"تث":9279,"زمست":9280,"شدید":9281,"فات ":9282,"مظ":9283,"نکرد.\n":9284,"نمی توانیم ":9285,"نمی‌توانیم ":9286,"انو ":9287,"کنه ":9288,"ش های ":9289,"نیرو ":9290,"با هر ":9291,"کرم ":9292,"آن چه ":9293,"ناتوان":9294,"معبد ":9295,"باید این ":9296,"شیری":9297,"دانشجوی ":9298,"قلب":9299,"بود، اما ":9300,"ایی\n":9301,"ارزش":9302,"دربارۀ ":9303,"وابستگی ":9304,"فلسطینی ":9305,"مطلق ":9306,"نسبتاً ":9307,"آرزوی ":9308,"مورد بررسی قرار ":9309,"دستمزد ":9310,"مسأله ":9311,"اضطراری ":9312,"آفرین ":9313,"امواج ":9314,"H ":9315,"اگر":9316,"فایده ":9317,"مام":9318,"را شامل ":9319,"می کنیم، ":9320,"داد\n":9321,"می‌کش":9322,"یک هفته ":9323,"یک ساعت ":9324,"با افزایش ":9325,"نواح":9326,"ناشناخته ":9327,"می کند؟\n":9328,"باید بدان":9329,"هایی که به ":9330,"اعداد ":9331,"شنا ":9332,"هیچگاه ":9333,"گفت‌و":9334,"خریداران ":9335,"مغازه ":9336,"رابط ":9337,"تصمیم به ":9338,"آزمایشی ":9339,"بدنی ":9340,"هستند، اما ":9341,"خلاص":9342,"محل کار ":9343,"عادلانه ":9344,"پژوهشی ":9345,"شایع ":9346,"سوره ":9347,"اذیت ":9348,"ight":9349,"درختان ":9350,"عواقب ":9351," نیز ":9352," دسامبر ":9353,"As":9354,"­ها ":9355,"بایست":9356,"تمای":9357,"زاوی":9358,"اینه ":9359,"، شما ":9360,"میک ":9361,"را رد ":9362,"برانگیز ":9363,"این روند ":9364,"با کمک ":9365,"درخواست":9366,"ترم ":9367,"شیمی ":9368,"انجام می شود.\n":9369,"دو بار ":9370,"مسکن ":9371,"دوست دارید ":9372,"کوچک و ":9373,"لذت بردن ":9374,"حیوان":9375,"می­ ":9376,"فناوری":9377,"لطف ":9378,"از بین بردن ":9379,"ایدئو":9380,"انتخابی ":9381,"سوئیس ":9382,"تسهیل ":9383,"cl":9384,"تطبی":9385,"خرا":9386,"شکار ":9387,"عید ":9388,"كند.\n":9389,"ل‌ها ":9390,"نه‌":9391,"َّ":9392,"پوی":9393,"کُ":9394,"۲۷":9395,"در چین ":9396,"که او ":9397,"یا هر ":9398,"سودم":9399,"دی برای ":9400,"ساحلی ":9401,"انجام شده ":9402,"آزار و ":9403,"در حال تغییر ":9404,"فکر می‌":9405,"طبیع":9406,"مراتب ":9407,"اندازه کافی ":9408,"کتاب‌های ":9409,"پنجاه ":9410,"صلح و ":9411,"پیامدهای ":9412,"ویدئویی ":9413,"نظرسنجی ":9414,"جمع‌آوری ":9415,"اعتیاد ":9416,"34":9417,"39":9418,"MS":9419,"آوی":9420,"حالی ":9421,"عب":9422,"ایات ":9423,"و خدمات ":9424,"در مناطق ":9425,"به نفع ":9426,"کنجک":9427,"خاک":9428,"صورت گرفته ":9429,"گرفتار ":9430,"گرفتند.\n":9431,"باعث افزایش ":9432,"دانش آموز":9433,"از آن زمان ":9434,"انرژی و ":9435,"کردیم، ":9436,"می‌دانست":9437,"مردم، ":9438,"سناری":9439,"لطفا":9440,"اظهارات ":9441,"رحم ":9442,"ماجرا ":9443,"موثر":9444,"نعمت ":9445,"کریسمس ":9446,"600":9447,"تان، ":9448,"عام ":9449,"منی":9450,"د (":9451,"ارض":9452,"ارستان ":9453,"استاد":9454,"دهند، ":9455,"کارفرمای":9456,"هستی ":9457,"سوز":9458,"دیگر به ":9459,"تی‌":9460,"هاى ":9461,"پایانی ":9462,"نقلیه ":9463,"داده ها ":9464,"شرکت ها ":9465,"are ":9466,"بدون شک ":9467,"انتخاب کنید.\n":9468,"خیلی زود ":9469," درصد افزایش ":9470,"ه ای که ":9471,"وجود دارد؟\n":9472,"بدهند.\n":9473,"زنش ":9474,"فروشنده ":9475,"حمله به ":9476,"شاهزاده ":9477,"آن‌چه ":9478,"ابراهیم ":9479,"سیاستمدار":9480,"موافق":9481,"عروسی ":9482,"نشینی ":9483,"سینما ":9484,"For":9485,"«من ":9486,"أ ":9487,"قسم":9488,"لز ":9489,"هند":9490,"وش ":9491,"۳۰۰":9492,"“\n":9493,"ان‌ها ":9494,"می آ":9495,"یک مرد ":9496,"آن از ":9497,"آن روز ":9498,"ویتن":9499,"قرآن":9500,"را به خاطر ":9501,"تصریح ":9502,"هایی با ":9503,"اندروید ":9504,"مثبتی ":9505,"انی‌های ":9506,"را بدان":9507,"اشتی":9508,"ایران را ":9509,"قدردانی ":9510,"191":9511,"مهم نیست که ":9512,"کانس ":9513,"کافئین ":9514,"رقابتی ":9515,"را انتخاب کنید.\n":9516,"بیرونی ":9517,"نظامیان ":9518,"پروردگار ":9519,"مسئولان ":9520,"تئاتر ":9521,"48":9522,"OS":9523,"امین ":9524,"نس ":9525,"کام ":9526,"ایده‌":9527,"به نظرم ":9528,"ند: «":9529,"برای بسیاری از ":9530,"پید":9531,"کارفر":9532,"معتر":9533,"محله ":9534,"من برای ":9535,"بهبودی ":9536,"تیره ":9537,"بخر":9538,"سالها ":9539,"برنامه نویسی ":9540,"را بخوان":9541,"تولید کننده ":9542,"توسعه و ":9543,"پذیرفت":9544," سال گذشته ":9545,"داستانی ":9546,"خطا ":9547,"مالزی ":9548,"خرده ":9549,"آن‌جا ":9550,"شما.\n":9551,"قاعده ":9552,"وحشتناک ":9553,"تعویض ":9554,"بازنشستگی ":9555," نوامبر ":9556,"Con":9557,"IB":9558,"Pre":9559,"ire":9560,"ue ":9561,"نبود که ":9562,"هلند ":9563,"و سپس ":9564,"را دارند.\n":9565,"می نویس":9566,"سیاسی":9567,"دوز":9568,"یا نه.\n":9569,"خود ادامه ":9570,"گیاهی ":9571,"هستیم، ":9572,"سرپر":9573,"چیست ":9574,"ج و ":9575,"غیب ":9576,"می دهند، ":9577,"پروسه ":9578,"فقدان ":9579,"هیچ یک از ":9580,"شد .\n":9581,"عادات ":9582,"صحبت کنید.\n":9583,"مثل یک ":9584,"جادو":9585,"ببرد.\n":9586," نفر از ":9587,"زیبای ":9588,"امپری":9589,"ناهار ":9590,"قلمرو ":9591,"95":9592,"Be":9593,"ug":9594,"اِ":9595,"بخصوص ":9596,"خرد ":9597,"زه":9598,"سبز":9599,"شست":9600,"ص و ":9601,"هوی":9602,"پاره ":9603,"این مطالعه ":9604,"دافا ":9605,"رابرت ":9606,"باکتری":9607,"لیون ":9608,"شده است\n":9609,"هستم و ":9610,"متناسب ":9611,"کردن یک ":9612,"گفت، ":9613,"آموزان ":9614,"کلاه":9615,"می دانست":9616,"برساند.\n":9617,"عکس های ":9618,"تروریست ":9619,"فرمول ":9620,"راه حل های ":9621,"آزمایشات ":9622,"اردوگاه ":9623,"پراکن":9624,"تحولات ":9625,"65":9626,"Man":9627,"بک":9628,"صف ":9629,"ن: ":9630,"نِ ":9631,"در مسیر ":9632,"در نهایت، ":9633,"که شامل ":9634,"مینی":9635,"داغ ":9636,"داریم":9637,"نوبت ":9638,"مرزی ":9639,"منف":9640,"‌ها برای ":9641,"اعص":9642,"را در سال ":9643,"فیبر ":9644,"نیستی ":9645,"سالگی ":9646,"نقش":9647,"پوست":9648,"انسور ":9649,"ساخت.\n":9650,"فعالان ":9651,"تهدید":9652,"اسرائیلی ":9653,"فرهنگی و ":9654,"نفره ":9655,"به این دلیل که ":9656,"(T":9657,"].\n":9658,"ep":9659,"تبر":9660,"تابع ":9661,"سي":9662,"سنس":9663,"۴۵":9664,"در مرکز ":9665,"در بدن ":9666,"این است ":9667,"این مورد ":9668,"با سرعت ":9669,"برای ساخت ":9670,"ویل":9671,"ترانه ":9672,"کارگر":9673,"ناکی ":9674,"اما من ":9675,"سوزان":9676,"می‌کند\n":9677,"جهانی":9678,"اعتم":9679,"قرار می گیر":9680,"فولاد ":9681,"رسید، ":9682,"مستلز":9683,"کتاب های ":9684,"ید:\n":9685,"آماده سازی ":9686,"خطای ":9687,"خود را به عنوان ":9688,"می گویند که ":9689,"آقا ":9690,"براي ":9691,"امروز، ":9692,"فیزیو":9693,"ure ":9694,"دشواری ":9695,"سیاسی، ":9696,"ممنوعیت ":9697,"آینده، ":9698,"سندرم ":9699,"عمدتا ":9700,"آگهی ":9701,"کلسترول ":9702," آغاز ":9703,"ok":9704,"ئل ":9705,"اکو":9706,"تها ":9707,"حسی ":9708,"س\n":9709,"قاره ":9710,"ایمن":9711,"در دو ":9712,"در اواخر ":9713,"، مانند ":9714,"برای بهبود ":9715,"دهید که ":9716,"افی ":9717,"لیگ ":9718,"شده را ":9719,": \"":9720,"ساده‌":9721,"شیط":9722,"هیتل":9723,"متشکل از ":9724,"احاط":9725,"مقط":9726,"دستگاه‌های ":9727,"همه جا ":9728,"ندارد":9729,"ندارد و ":9730,"ندارید.\n":9731,"نمایندگی ":9732,"به این معنا ":9733,"چرا باید ":9734,"خدا و ":9735,"نمک ":9736,"به آن ها ":9737,"کرده‌ای":9738,"مهاجر":9739,"تشخیص داده ":9740,"نشان می‌دهد ":9741,"ترسناک ":9742,"تمرین‌":9743,"گردشگران ":9744,"ستارگان ":9745,"مغناطیسی ":9746,"= ":9747,"CS":9748,"Gr":9749,"IM":9750,"سف ":9751,"قبی":9752,"نداشته ":9753,"کبد ":9754,"گي":9755,"ایز ":9756,"از هم ":9757,"این موارد ":9758,"نوری ":9759,"یا با ":9760,"داشتم ":9761,"شکاف ":9762,"مکزی":9763,"بودند":9764,"داشته باشد و ":9765,"داشته باشند، ":9766,"حتی یک ":9767,"ore ":9768,"درواقع ":9769,"عمل جراحی ":9770,"۱۹۲":9771,"ظاهرا ":9772,"ایده آل ":9773,"کوچکتر ":9774,"الکترونیک ":9775,"فرانسه، ":9776,"قفل ":9777,"ویرایش ":9778,"گرسنگی ":9779,"سفارشی ":9780,"محاکمه ":9781," این":9782,"-\n":9783,"You":9784,"آمر":9785,"بخواهیم ":9786,"ربا":9787,"در اروپا ":9788,"در هر دو ":9789,"نیم":9790,"با توجه ":9791,"ابق ":9792,"نگاه":9793,"فردی که ":9794,"بر عهده ":9795,"معاه":9796,"آمد، ":9797,"کرده اید ":9798,"نیز از ":9799,"سه ماه ":9800,"ات‌":9801,"er\n":9802,"می تواند برای ":9803,"ایجاد کند.\n":9804,"عاتی که ":9805,"منطق ":9806,"قلعه ":9807,"چرخش ":9808,"اعلام کرد ":9809,"عضویت ":9810,"جاع ":9811,"مکان های ":9812,"آورید.\n":9813,"بودم که ":9814,"عزیز ":9815,"فورد ":9816,"می گذارد.\n":9817,"اتومبی":9818,"اسپانیایی ":9819,"سوگند ":9820,"رکورد ":9821,"انیمیشن ":9822,"عجیب و غری":9823,"امپریالی":9824," اکتبر ":9825,"Fl":9826,"زي":9827,"عده ":9828,"قطر ":9829,"اسکن":9830,"در نزدیکی ":9831,"برف ":9832,"این مطلب ":9833,"ندترین ":9834,"ابد ":9835,"پیمان":9836,"مناظ":9837,"معج":9838,"می کنند\n":9839,"بعدی":9840,"کردهای ":9841,"کیسه ":9842,"خود را تغییر ":9843,"مهار ":9844,"مجمع ":9845,"بلژ":9846,"ممکن است یک ":9847,"تمام وقت ":9848,"می‌دهد و ":9849,"فکر ن":9850,"بینایی ":9851,"تحت فشار ":9852,"پیوستن ":9853,"فرصتی برای ":9854,"شود .\n":9855,"خودتان را ":9856,"داده‌اند.\n":9857,"جدیدی از ":9858,"پناهندگان ":9859,"اجتناب از ":9860,"رسول ":9861,"حاصل از ":9862,"سخنگوی ":9863," مارس ":9864,"ah":9865,"s) ":9866,"ww":9867,"آهنگ":9868,"خشک":9869,"شانه ":9870,"كار":9871,"لاز":9872,"مهمان":9873,"نبر":9874,"کم و ":9875,"ی‌ها ":9876,"ایده‌های ":9877,"انه‌":9878,"اسل":9879,"به دو ":9880,"یک راه ":9881,"با خود ":9882,"بورژ":9883,"او هم ":9884,"وجود داشته باشد.\n":9885,"کرده است و ":9886,"سالم و ":9887,"پرواز":9888,"اینکه چگونه ":9889,"جدید برای ":9890,"ماهانه ":9891,"جویان ":9892,"شده‌اند ":9893,"افرادی که در ":9894,"صرفا ":9895,"پروژه‌های ":9896,"طوفان ":9897,"تدریج ":9898,"بلیط ":9899,"معیارهای ":9900,"خوراکی ":9901,"هشدار":9902,"CR":9903,"Ed":9904,"Res":9905,"ix":9906,"تس ":9907,"صلی":9908,"ضعی":9909,"له‌ای ":9910,"ماد":9911,"مهر ":9912,"نبوده است.\n":9913,"۱۵۰":9914,"در افغانستان ":9915,"، باید ":9916,"را بهبود ":9917,"دیدم ":9918,"دیم که ":9919,"موم ":9920,"بوت ":9921,"لیس":9922,"نواز":9923,"ی از آن ":9924,"ناق":9925,": آیا ":9926,"دانست":9927,"اینکه در ":9928,"متقابل ":9929,"را در بر ":9930,"کرده اند که ":9931,"اته":9932,"فکر می کنم ":9933,"۱۹۱":9934,"قدرت و ":9935,"خلاقانه ":9936,"می رسد.\n":9937,"توضیحات ":9938,"بسته بندی ":9939,"تسلیحات ":9940,"مستقر ":9941,"سراغ ":9942,"معجزه ":9943,"Fr":9944,"اء":9945,"ضد":9946,"مُ":9947,"چال ":9948,"یك":9949,"به احتمال زیاد ":9950,"می آورد.\n":9951,"های ما ":9952,"امروزی ":9953,"امارات ":9954,"موبای":9955,"یک روش ":9956,"برای شروع ":9957,"آنرا ":9958,"اما به ":9959,"قرض ":9960,"گفته‌":9961,"مردم و ":9962,"مردم از ":9963,"به طور طبیعی ":9964,"کرد .\n":9965,"محصول":9966,"به نظر من ":9967,"مزمن ":9968,"برگشت ":9969,"غیرممکن ":9970,"بگوییم ":9971,"گرافی ":9972,"معتقدند ":9973,"کسانی که در ":9974,"دوربین های ":9975,"رضا ":9976,"مذهب ":9977,"رستور":9978,"وظیف":9979,"میزبانی ":9980,"سوریه و ":9981,"توافقنامه ":9982,"بازدیدکنندگان ":9983,"صلاحیت ":9984,"250":9985,"Br":9986,"CD":9987,"CP":9988,"ب‌های ":9989,"جک ":9990,"صلی ":9991,"می کش":9992,"ده سال ":9993,"دامی ":9994,"مونی ":9995,"بیند.\n":9996,"کردید ":9997,"دارویی ":9998,"وی، ":9999,"فرمانده ":10000,"گوگ":10001,"شکلات ":10002,") با ":10003,"کرده اند، ":10004,"اتهام ":10005,"پروفس":10006,"به طور خاص ":10007,"به طور مداوم ":10008,"ارائه می دهد.\n":10009,"بوده که ":10010,"all ":10011,"هنوز در ":10012,"توسعه دهندگان ":10013,"ترکیبی ":10014,"یادآور ":10015,"به نظر برس":10016,"برود.\n":10017,"بازیکن":10018,"کودکان و ":10019,"ملی و ":10020,"لذت می بر":10021,"سابق":10022,"نفرت ":10023,"مهندس ":10024,"کلمات کلیدی ":10025,"بیولوژ":10026,"محاسبات ":10027,"نفوذ":10028,"تهدیدات ":10029,"بازرگانی ":10030,"پتانسیل ":10031,"37":10032,"38":10033,"حکم":10034,"سانی ":10035,"ـه ":10036,"هدر ":10037,"۲۶":10038,"و من ":10039,"می‌کنیم، ":10040,"نی\n":10041,"دهایی ":10042,"افظ ":10043,"منعکس ":10044,"بر پایه ":10045,"داشتیم.\n":10046,"گذر ":10047,"استفاده کرد.\n":10048,"هیچ کدام ":10049,"می‌دهد تا ":10050,"نام تجاری ":10051,"est ":10052,"اموال ":10053,"بشنو":10054,"موارد زیر ":10055,"اشتباهی ":10056,"پیامبر":10057,"اندیش":10058,"عزیز":10059,"علاقه‌":10060,"سوئد ":10061,"ویژگی‌های ":10062,"اختلافات ":10063,"بوسیله ":10064,"نواحی ":10065,"مستلزم ":10066," ژوئن ":10067,"آهسته ":10068,"د؟ ":10069,"سو ":10070,"عقل":10071,"نمره ":10072,"پشی":10073,"کی از ":10074,"” و ":10075,"را پوشش ":10076,"اما":10077,"ریز":10078,"دیسک ":10079,"بیش‌":10080,"دوری ":10081,"همراهی ":10082,"است که باید ":10083,"سردر":10084,"تحسین ":10085,"آنها می توانند ":10086,"دو هفته ":10087,"کرده است":10088,"اندک ":10089,"افراد، ":10090,"کودکان":10091,"خرید و ":10092,"کاپی":10093,"تعداد زیادی ":10094,"انگیزی ":10095,"طولانی":10096,"اکثر مردم ":10097,"رئیس جمهوری ":10098,"فارس ":10099,"هواپیمایی ":10100,"نحوی ":10101,"الگوهای ":10102,"رادیو ":10103,"آگاهانه ":10104,"پرهیز ":10105,"Wind":10106,"شبه ":10107,"قری":10108,"قسم ":10109,"”،":10110,"که ممکن است ":10111,"را کنترل ":10112,"با ایران ":10113,"ما\n":10114,"ماژ":10115,"هم از ":10116,"ناامی":10117,"معده ":10118,"معنوی ":10119,"هستیم و ":10120,"داشتند و ":10121,"اوست.\n":10122,"خیال ":10123,"مسن ":10124,"مسال":10125,"مسکو":10126,"بسیار زیادی ":10127,"کته ":10128,"ندارند، ":10129,"به این موضوع ":10130,"در مورد آن ":10131,"وی افزود: ":10132,"تلسکو":10133,"شدن در ":10134,"قانع ":10135,"باعث می‌شود ":10136,"موضوع":10137,"دیدم.\n":10138,"برخی از این ":10139,"آغاز":10140,"مخرب ":10141,"ite ":10142,"ace ":10143,"بانک مرکزی ":10144,"ناسا ":10145,"اختصاص داده ":10146,"DNA ":10147,"آتش‌":10148,"نوزادان ":10149,"باستانی ":10150,"متقاضیان ":10151," ژانویه ":10152,"))\n":10153,"تخت":10154,"هری ":10155,"و، ":10156,"انه":10157,"انتو":10158,"که من ":10159,"موشک":10160,"نوجوان ":10161,"تربیت ":10162,"محرک ":10163,"قیامت ":10164,"یکشنبه ":10165,"کرده و به ":10166,"وقایع ":10167,"است، بنابراین ":10168,"اند؟\n":10169,"گفتگو":10170,"داشته باشند ":10171,"کمک های ":10172,"در حال رشد ":10173,"توجه داشته باشید که ":10174,"همین‌":10175,"فکر می ":10176,"را برای شما ":10177,"پاپ ":10178,"در طول روز ":10179,"خلاص ":10180,"کشتار ":10181,"شده است .\n":10182,"کریپ":10183,"صرف نظر ":10184,"دوستان و ":10185,"سبک زندگی ":10186,"پادشاه":10187,"عکاس ":10188,"جسمی ":10189,"اساسا ":10190,"مباح":10191,"المپیک ":10192,"دفعه ":10193,"شفافیت ":10194,"التهاب ":10195,"سواحل ":10196,"جبهه ":10197,"ویتنام ":10198,"Or":10199,"اى ":10200,"زح":10201,"زور ":10202,"ّه ":10203,"ی‌ ":10204,"اندام ":10205,"ارث ":10206,"را در":10207,"برقی ":10208,"رو، ":10209,"لین":10210,"ام که ":10211,"پیاده‌":10212,"جوش ":10213,"سواری ":10214,"بهانه ":10215,"هایی را که ":10216,"خواهد شد و ":10217,"قرار بود ":10218,"دست و ":10219,"هیچوقت ":10220,"مجل":10221,"زمان برای ":10222,"خوردگی ":10223,"که به آن ":10224,"یافته و ":10225,"کلین":10226,"ترکیبات ":10227,"چرخ ":10228,"ببرید.\n":10229,"چهارشنبه ":10230,"نیروی کار ":10231,"میتوانند ":10232,"بر این باور":10233,"سریعتر ":10234,"جدیدترین ":10235,"برادران ":10236,"روزنامه نگ":10237,"روشنی ":10238,"سفید":10239,"تخم مرغ ":10240,"تسلط ":10241,"Net":10242,"ذخ":10243,"شایست":10244,"صر":10245,"وصل ":10246,"در سال‌های ":10247,"در نتیجه، ":10248,"می بایست ":10249,"این اطلاعات ":10250,"الق":10251,"دیت ":10252,"یک محصول ":10253,"نوش":10254,"کارکرد ":10255,"کوهست":10256,"سازگاری ":10257,"بیشتر، ":10258,"همچنین در ":10259,"» است.\n":10260,"خانه‌":10261,"ord":10262,"خواهند داشت.\n":10263,"ه ای از ":10264,"تبدیل شدن ":10265,"تبدیل به یک ":10266,"کردید، ":10267,"کردیم که ":10268,"شده‌است.\n":10269,"بگویم که ":10270,"عمومی و ":10271,"فارسی ":10272,"قهرمانی ":10273,"چشمان":10274,"گلوله ":10275,"روشنایی ":10276,"سهام":10277,"نفتی ":10278,"نامزد ":10279,"مرتبه ":10280,"جورج ":10281,"فدراسیون ":10282,"علاوه، ":10283,"ژاپن":10284,"احاطه ":10285,"pro":10286,"· ":10287,"اد.\n":10288,"بگوید ":10289,"ثانی":10290,"جم ":10291,"حامی":10292,"شرا":10293,"وان":10294,"کی در ":10295,"اسر":10296,"به تو ":10297,"میخو":10298,"میگوی":10299,"میشه ":10300,"میلادی ":10301,"یک ماه ":10302,"با دیگران ":10303,"با گذشت ":10304,"شوخی ":10305,"درای":10306,"آن.\n":10307,"می‌کنند تا ":10308,"اعز":10309,"بود؛ ":10310,"کمک کنند.\n":10311,"مدیره ":10312," درصد":10313,"جدید در ":10314,"دارد .\n":10315,"مصرف کننده ":10316,"کریست":10317,"نفت و ":10318,"چراکه ":10319,"مباد":10320,"بخوانید ":10321,"بهینه سازی ":10322,"همینطور ":10323," : ":10324,"(A":10325,"85":10326,"Ev":10327,"Le":10328,"e-":10329,"صاف ":10330,"‌پذیر ":10331,"در سوریه ":10332,"را بیان ":10333,"را دوست دار":10334,"این وضعیت ":10335,"الل":10336,"برای همین ":10337,"شما نیز ":10338,"لامی":10339,"ناامید ":10340,"معاد":10341,"هر دوی ":10342,"من فقط ":10343,"این‌ ":10344,"ند و به ":10345,"دو روز ":10346,"خانه، ":10347,"خانه های ":10348,"رویای ":10349,"دارد تا ":10350,"کاندی":10351,"باعث می شود که ":10352,"نمودار ":10353,"چهار سال ":10354,"براى ":10355,"عراق و ":10356,"بودم و ":10357,"سیاه و ":10358,"تاریکی ":10359,"ight ":10360,"جنگ جهانی دوم ":10361,"Worl":10362,"فوق‌العاده ":10363,"عبارتند از":10364,"جاسوسی ":10365,"Tim":10366,"yst":10367,"بفهم":10368,"ت‌ها و ":10369,"م) ":10370,"مخا":10371,"مدام ":10372,"نباشد ":10373,"وسط":10374,"پشت":10375,"چهر":10376,"گزار ":10377,"یِ ":10378,"در کل ":10379,"در غیر این ":10380,"را.\n":10381,"بادی ":10382,"فرکانس ":10383,"هم چنین ":10384,"محرمان":10385,"تقوی":10386,"مجس":10387,"خودآگاه ":10388,"» به ":10389,"را بشناس":10390,"باند ":10391,"دیگری نیز ":10392,"بازیابی ":10393,"پاشی ":10394,"می دانیم که ":10395,"مباران ":10396,"دیوانه ":10397,"مادران ":10398,"تورم ":10399," هزار نفر ":10400,"تماس با ":10401,"پسران ":10402,"کشاورزان ":10403,"نشانه‌های ":10404,"مهربان ":10405,"واحدهای ":10406,"اقتصادی، ":10407,"ساخت و ساز ":10408,"سرگرم کننده ":10409,"این در حالی است که ":10410,"اهمیتی ":10411,"(H":10412,"تدار":10413,"ثان":10414,"سح":10415,"صدمه ":10416,"مرا به ":10417,"وط":10418,"به میزان ":10419,"میل":10420,"را امتحان ":10421,"برتری ":10422,"می شد ":10423,"این چیزی است که ":10424,"می‌شد ":10425,"برای حل ":10426,"داریم، ":10427,"فاش ":10428,"منص":10429,"شده با ":10430,"شده بودند.\n":10431,"من همیشه ":10432,"به\n":10433,"تمدید ":10434,"مقصر ":10435,"قرار دهد.\n":10436,"نیست، اما ":10437,"به‌خاطر ":10438,"گرفته‌":10439,"اطلاعات و ":10440,"قطب ":10441,"آرای":10442,"ارتباط بین ":10443,"هنگامی که شما ":10444,"عشق و ":10445,"کهکشان ":10446,"فرآیندهای ":10447,"فشرده ":10448,"آگوست ":10449,"وردپرس ":10450,"PC":10451,"os ":10452,"بهای ":10453,"حامی ":10454,"ه‏":10455,"– و ":10456,"انسو":10457,"اسکات":10458,"به کمک ":10459,"از زندگی ":10460,"را می":10461,"لیس ":10462,"پیکر":10463,"اما او ":10464,"تمه ":10465,"اگر ما ":10466,"جهانی، ":10467,"خیل ":10468,"ها) ":10469,"شماری ":10470,"گفتار ":10471,"داشته باشد":10472,"مردم به ":10473,"قدری ":10474,"بر روی یک ":10475,"مارکس ":10476,"خلبان ":10477,"کودک شما ":10478,"مقدار زیادی ":10479,"فروشندگان ":10480,"چهارمین ":10481,"کریم ":10482,"رقص ":10483,"آب و هوا ":10484,"به همین دلیل است که ":10485,"رنج می بر":10486,"پوشیده ":10487,"روزنامه‌":10488,"اینستاگرام ":10489,"کربوهیدرات ":10490,"پروفسور ":10491,"44":10492,"Hom":10493,"ادات ":10494,"شگر ":10495,"۲۸":10496,"را کشف ":10497,"می گیرد ":10498,"این ها ":10499,"توط":10500,"می‌یابد.\n":10501,"اهدا ":10502,"درهای ":10503,"تر.\n":10504,"د که در ":10505,"ناخ":10506,": یک ":10507,"همه آنها ":10508,"بزرگتر از ":10509,"تنها با ":10510,"صورتی ":10511,"نشان می دهد.\n":10512,"چند بار ":10513,"شخصی و ":10514,"ایران به ":10515,"مغز":10516,"پیش، ":10517,"شبکه های اجتماعی ":10518,"بستر ":10519,"تخفیف ":10520,"آسیب دیده ":10521,"گراف":10522,"مانع از ":10523,"دریافتند که ":10524,"غالباً ":10525,"تیراندازی ":10526,"حریم خصوصی ":10527,"نرم‌افزار ":10528,"آفریقای جنوبی ":10529,"پلتفرم ":10530,"مبادله ":10531,"Dr":10532,"Op":10533,"PS ":10534,"آلات ":10535,"ري":10536,"علو":10537,"عشق":10538,"نانو":10539,"يل ":10540,"پناه ":10541,"کاس":10542,"برش ":10543,"دا، ":10544,"داده، ":10545,"نیز":10546,"باع ":10547,"ما نیز ":10548,"ما همچنین ":10549,"دارید":10550,"ی از طریق ":10551,"ترمی":10552,"ناً ":10553,"استفاده می‌کنند.\n":10554,"انجام داد.\n":10555,"رفه ":10556,"پوشان":10557,"ه‌ای به ":10558,"شامل یک ":10559,"یادم ":10560,"اش را ":10561,"سپس به ":10562,"دوباره به ":10563,"کند .\n":10564,"صادقانه ":10565,"نداشتند.\n":10566,"تاثیری ":10567,"لزوم ":10568,"یخچال ":10569,"طلبانه ":10570,"میلیون‌ها ":10571,"VPN ":10572,"مواد مغذی ":10573,"اندونزی ":10574,"تطبیق ":10575,"u ":10576,"ابه ":10577,"رخ":10578,"شك":10579,"قط ":10580,"مفی":10581,"نشود.\n":10582,"نمی توانم ":10583,"هارو":10584,"انِ ":10585,"این سوال ":10586,"تومور ":10587,"ها (":10588,"یک بازی ":10589,"یک مشکل ":10590,"برای همیشه ":10591,"داره ":10592,"افسر ":10593,"ابدا":10594,"گرهای ":10595,"توانستند ":10596,"ترغیب ":10597,"شده اند و ":10598,"هستند تا ":10599,"جواب":10600,"چیست و ":10601,"شکستن ":10602,"هیات ":10603,"قرار ن":10604,"غیره":10605,"کنید ، ":10606,"ندارید ":10607,"اینکه آیا ":10608,"آمریکا به ":10609,"که به نظر ":10610,"شدن از ":10611,"متحدان ":10612,"گردانی ":10613,"دروازه ":10614,"ایالات متحده و ":10615,"مناسب است.\n":10616,"olog":10617,"طرح های ":10618,"ook":10619,"داروها ":10620,"چشمگیری ":10621,"ببینید که ":10622,"محبوبیت ":10623,"به سرا":10624,"ماسک ":10625,"عذر":10626,"متأسفانه ":10627,"io ":10628,"جانی ":10629,"دش ":10630,"ماری":10631,"گاز":10632,"در چنین ":10633,"را مطرح ":10634,"خوری ":10635,"روبه‌":10636,"باشد تا ":10637,"فاصل":10638,"فرقی ":10639,"تری در ":10640,"معیار ":10641,"کار ن":10642,"اینقدر ":10643,"وجود ن":10644,"بزند.\n":10645,"به طور گسترده ":10646,"ارائه می ده":10647,"سفیر ":10648,"آسیای ":10649,"بدهید ":10650,"اغلب در ":10651,"خدمت":10652,"پزشکی و ":10653,"متفاوت از ":10654,"مستقیم به ":10655,"مستقیماً ":10656,"به همین خاطر ":10657,"غذا خوردن ":10658,"زندگی، ":10659,"هنرهای ":10660,"بازدید از ":10661,"تونم ":10662,"نادیده گرفته ":10663,"آواز ":10664,"خسارت ":10665,"عضلانی ":10666,"بام":10667,"ببخش":10668,"حت ":10669,"زای":10670,"قوا":10671,"قبیل ":10672,"نل ":10673,"ندیده ":10674,"ّی ":10675,"پائ":10676,"یی ":10677,"‌تری ":10678,"در عوض":10679,"از روی ":10680,"را شناسایی ":10681,"بررسی":10682,"برلین ":10683,"ها است.\n":10684,"دوین ":10685,"مرط":10686,"فرقه ":10687,"سرخ":10688,"سرما":10689,"گوش":10690,"ساب ":10691,"این\n":10692,"دیگر نیز ":10693,"بود: ":10694,"آموخته ":10695,"بود .\n":10696,"فراتر ":10697," ( ":10698,"کرده‌اند که ":10699,"کنند؟\n":10700,"مبارز":10701,"نیروگاه ":10702,"تن از ":10703,"الله علی":10704,"چندین بار ":10705,"لحظات ":10706,"تحریم‌های ":10707,"تفاه":10708,"نمونه های ":10709,"اخیراً ":10710,"درصد از ":10711,"بسیار مهم است.\n":10712,"درخشان ":10713,"آکادمی ":10714,"همانطور که در ":10715,"تصمیم‌گیری ":10716,"دبیرستان ":10717,"ذخایر ":10718,"مجسمه ":10719,"NE":10720,"تای ":10721,"ظریف ":10722,"فشار":10723,"پنی":10724,"ارها ":10725,"میرس":10726,"کن، ":10727,"این تنها ":10728,"املاک ":10729,"ستان\n":10730,"الکس":10731,"دی‌":10732,"برای دریافت ":10733,"دراز":10734,"تر\n":10735,"کارشناس":10736,"سرزنش ":10737,"بازنشسته ":10738,"آنها همچنین ":10739,"آمده‌":10740,"کرده بودند.\n":10741,"راه رفتن ":10742,"می تواند از ":10743,"فکر کردن ":10744,"قابل قبول ":10745,"را با یک ":10746,"پیشگیری ":10747,"روسیه، ":10748,"rom":10749,"شهرستان ":10750,"تولیدی ":10751,"مشاوران ":10752,"دموکرات ":10753,"خروج از ":10754,"جالبی ":10755,"حدودی ":10756,"مأموریت ":10757,"رشت":10758,"سنا":10759,"عان ":10760,"هندو":10761,"کاست":10762,"‎‎":10763,"و ت":10764,"این سیستم ":10765,"موری":10766,"موش ":10767,"یک چیز ":10768,"شوند که ":10769,"سی، ":10770,"بوده":10771,"لینو":10772,"مناق":10773,"ناخوشای":10774,"بازرسی ":10775,"قی، ":10776,"اما با ":10777,"دیگر هم ":10778,"بعداً ":10779,"تیمی ":10780,"کین":10781,"شمالی":10782,"نیست؛ ":10783,"قابلی":10784,"در حال انجام ":10785,"فیلم‌":10786,"ارائه می دهد ":10787,"قابل مشاهده ":10788,"رشد اقتصادی ":10789,"شهرها ":10790,"دوستش ":10791,"ترتیب، ":10792,"And":10793,"محدودیت های ":10794,"سرطانی ":10795,"همه‌چیز ":10796,"وب‌سایت ":10797,"قطعنامه ":10798,"اعتراضات ":10799,"فلسطینی":10800,"Car":10801,"؟\"\n":10802,"ت» ":10803,"حامل":10804,"ماز":10805,"نبود، ":10806,"هج":10807,"گلی":10808,"ارایه ":10809,"این طرح ":10810,"تونی":10811,"نوعی از ":10812,"شما نیاز به ":10813,"زیستی ":10814,"اوراق ":10815,"نی که ":10816,"متغیر ":10817,"تعبیر ":10818,"کنید یا ":10819,"گرفت، ":10820,"را بدست ":10821,"مشتاق ":10822,"نشستن ":10823,"ark":10824,"بوده اند.\n":10825,"گردند.\n":10826,"شرایط":10827,"مسیری ":10828,"پارام":10829,"ics ":10830,"قادر می ساز":10831,"تاریخچه ":10832,"پیچیدگی ":10833,"بنیان":10834,"آب و هوایی ":10835,"بیوتیک ":10836,"قاچاق ":10837,"ثالث ":10838,"اعزام ":10839,"Im":10840,"بو ":10841,"خز":10842,"دفن ":10843,"شکار":10844,"نخواهد شد.\n":10845,"هندی ":10846,"یقین ":10847,"می خوان":10848,"توهی":10849,"موی ":10850,"بورس ":10851,"دارند\n":10852,"لیست":10853,"شما کمک ":10854,"ادام":10855,"دانان ":10856,"سوپر":10857,") ، ":10858,"می‌کند؟\n":10859,"انجام این کار ":10860,"بیشتر در مورد ":10861,"نیاز دارند.\n":10862,"چند ساعت ":10863,"فکر کنید.\n":10864,"قابل اعتماد ":10865,"موفقیت در ":10866,"نگرش ":10867,"روزی که ":10868,"مادری ":10869,"آخر هفته ":10870,"طیف وسیعی از ":10871,"مجموعه‌ای از ":10872,"پیشنهادات ":10873,"تبعیض ":10874,"متعادل ":10875,"عجله ":10876," به عنوان ":10877,"47":10878,"ot ":10879,"دبی ":10880,"ن‌ ":10881,"وای":10882,"کتو":10883,"و نیز ":10884,"به علاوه ":10885,"خود.\n":10886,"خودی ":10887,"یک کار ":10888,"برای کسب ":10889,"تا این ":10890,"هر کاری ":10891,"چنین کاری ":10892,"مشکوک ":10893,"به‌ویژه ":10894,"فیلسو":10895,"ity":10896,"مزر":10897,"واقع در ":10898,"مبارزات ":10899,"، به ویژه ":10900,"فراهم می کند.\n":10901,"این کار را انجام ":10902,"منتظره ":10903,"زیرساخت ":10904,"اختصاصی ":10905,"آب و هوای ":10906,"پلاستیکی ":10907,"چوبی ":10908,"خوابیدن ":10909,"مى‏":10910,"اعطا ":10911,"آنجلس ":10912,"اشتیاق ":10913,"Window":10914,"! ":10915,"A در ":10916,"Air":10917,"SM":10918,"جوری ":10919,"رقیب ":10920,"سپرده ":10921,"هاست ":10922,"که‌ ":10923,"گزاری ":10924,"و چه ":10925,"در جنگ ":10926,"راه‌های ":10927,"بیانداز":10928,"بیانگر ":10929,"برای استفاده از ":10930,"یا بیشتر ":10931,"پیری ":10932,"نگوی":10933,"نگ و ":10934,"فرشته ":10935,"محوطه ":10936,"متدا":10937,"مقاص":10938,"خیلی":10939,"تنش ":10940,"در این منطقه ":10941,"هوشی":10942,"می تواند باعث ":10943,"بسیاری از این ":10944,"\" (":10945,"ولایت ":10946,"بزرگ ترین ":10947,"را با هم ":10948,"خدما":10949,"بگویید که ":10950,"می‌گویند که ":10951,"رخ دهد.\n":10952,"مهاجر ":10953,"تغییرات در ":10954,"پشتیبان ":10955,"ish":10956,"بیرون از ":10957,"اندازه‌گیری ":10958,"منطقه‌ای ":10959,"جنسیت ":10960,"ربایج":10961,"دادیم.\n":10962,"بوده‌اند.\n":10963,"بلاک ":10964,"پلاستیک ":10965,"کلاه ":10966,"خبرنگاران ":10967,"بازگرداندن ":10968,"آدمی ":10969,"اقداماتی ":10970,"a\n":10971,"sc":10972,"بنظر ":10973,"سوی":10974,"قاضی ":10975,"مم ":10976,"نباشد، ":10977,"هک ":10978,"اسک":10979,"به تازگی ":10980,"داف":10981,"ند ، ":10982,"می‌آ":10983,"مول ":10984,"برای زندگی ":10985,"شتاب ":10986,"دوازده ":10987,"گرما ":10988,"شما فقط ":10989,"هر ساله ":10990,"کار می کند.\n":10991,"چه نوع ":10992,"متعه":10993,"کردم":10994,"بالینی ":10995,"آورند.\n":10996,"داشته باشد که ":10997,"پنه":10998,"خریدار ":10999,"اشعه ":11000,"گفته است که ":11001,"سخن":11002,"جویی در ":11003,"در حال حاضر در ":11004,"بگیرید که ":11005,"کالا ":11006,"توضیح":11007,"سپاه ":11008,"گرافیک ":11009,"چیست.\n":11010,"گذشت.\n":11011,"چالش های ":11012,"ریاضی ":11013,"روشهای ":11014,"اشیاء ":11015,"آذربایج":11016,"بیش‌تر ":11017,"bl":11018,"تیک":11019,"حبس ":11020,"ش‌ها ":11021,"ون، ":11022,"در ده":11023,"در برنامه ":11024,"در شب ":11025,"که باید ":11026,"این نکته ":11027,"امشب ":11028,"ند اما ":11029,"می‌کنیم که ":11030,"بیابی":11031,"برای توسعه ":11032,"برای پیدا کردن ":11033,"افش":11034,"د، این ":11035,"باشیم ":11036,"باشید\n":11037,"پیچ":11038,"مرجع ":11039,"کارتان ":11040,"واگذار ":11041,"نه در ":11042,"مایش ":11043,"شکم ":11044,"شیوع ":11045,"خاتمه ":11046,"بارسلو":11047,"اعلامی":11048,"نیز با ":11049,"کرد: «":11050,"ی و یا ":11051,"شدن، ":11052,"ساختارهای ":11053,"علل ":11054,"علم و ":11055,"اطلاعات شخصی ":11056,"داوطل":11057,"باز کردن ":11058,"بتوانم ":11059,"خانواده های ":11060,"کرده‌اند، ":11061,"کردیم و ":11062,"تورن":11063,"این‌گونه ":11064,"فرهنگ و ":11065,"ast ":11066,"وبلاگ":11067,"به‌عنوان یک ":11068,"دلیل، ":11069,"تمیز کردن ":11070,"مقطع ":11071,"\"من ":11072,"War":11073,"صهیو":11074,"غالب ":11075,"ق‌":11076,"یست ":11077,"‏‌":11078,"از\n":11079,"کنار":11080,"ریس":11081,"است ولی ":11082,"دهد":11083,"لینک":11084,"همجنس":11085,"فاط":11086,"هستید؟\n":11087,"نی در ":11088,"بار، ":11089,"تعام":11090,"دو نوع ":11091,"وجود ندارد ":11092,"کرده بود ":11093,"بسیار خوبی ":11094,"بلغ":11095,"خانه‌ی ":11096,"به طور مستقیم ":11097,"هدفی ":11098,"نشریه ":11099,"چرا این ":11100,"ت‌الله ":11101,"می‌دانیم که ":11102,"ایرانی":11103,"نتایج":11104,"اطراف":11105,"مالی، ":11106,"چشمه ":11107,"علمی و ":11108,"تکذی":11109,"بهداشت و ":11110,"شورای امنیت ":11111,"رییس جمهور ":11112,"شلوغ ":11113,"این امکان را ":11114,"آشپزی ":11115," “":11116,"ry ":11117,"اها ":11118,"رم":11119,"زد":11120,"نت، ":11121,"ْ ":11122,"کائ":11123,"— ":11124,"” در ":11125,"در سن ":11126,"این اولین ":11127,"روحی ":11128,"برای تغییر ":11129,"سورا":11130,"باید ب":11131,"اجرا":11132,"خواهد کرد":11133,"فیس‌":11134,"مشهور":11135,"نیستم.\n":11136,"نظر گرفته ":11137,"مدل‌های ":11138,"پروست":11139,"شی که ":11140,"آمریکا را ":11141,"بهترین راه برای ":11142,"سیستم ایمنی ":11143,"انجام دهید، ":11144,"عمومی، ":11145,"درست مثل ":11146,"داستان":11147,"برخی افراد ":11148,"طبیعی و ":11149,"شناخته شده است.\n":11150,"برابر":11151,"مذکور ":11152,"نتانی":11153,"اطمینان از ":11154,"مردمان ":11155,"زیبا و ":11156,"روستای ":11157,"ممنون ":11158,"سلاح‌های ":11159,"هواپیماهای ":11160,"شباهت ":11161,"معترض":11162,"بورژو":11163," بود.\n":11164," آوریل ":11165,"!)\n":11166,"64":11167,"HP":11168,"IE":11169,"PD":11170,"؛ در ":11171,"بذ":11172,"بگو ":11173,"جستان ":11174,"عقب":11175,"كرد":11176,"لع":11177,"گان\n":11178,"اید؟\n":11179,"انبو":11180,"انه‌ای ":11181,"در بیشتر ":11182,"در مرحله ":11183,"را فراموش ":11184,"گرایش ":11185,"آن\n":11186,"شما است.\n":11187,"منفج":11188,"معکوس ":11189,"شیکا":11190,"جهنم ":11191,"در حد ":11192,"تعمیر ":11193,"هرکس ":11194,"خورد.\n":11195,"‌ های ":11196,"تایمز ":11197,"چیزی از ":11198,"خانواده و ":11199,"می دانم که ":11200,"ایرلند ":11201,"هواداران ":11202,"ash":11203,"Inst":11204,"ost ":11205,"داده‌ها ":11206,"تا حد زیادی ":11207,"استودیو ":11208,"عاشقانه ":11209,"مزرعه ":11210," گرم ":11211,"Gam":11212,"ا: ":11213,"نخواهیم ":11214,"نمی‌کنند.\n":11215,"ای.\n":11216,"در آلمان ":11217,"را که به ":11218,"برداشتن ":11219,"می باشد، ":11220,"دال ":11221,"می‌خواست ":11222,"یک نوع ":11223,"برای این کار ":11224,"ز در ":11225,"کاراک":11226,"گی\n":11227,"است که می تواند ":11228,"قیمتی ":11229,"کوانتو":11230,"دو تا ":11231,"اطاعت ":11232,"زندگی می کنند.\n":11233,"مجاه":11234,"ممکن است با ":11235,"است و در ":11236,"دانشجو ":11237,"انتخابا":11238,"دادند و ":11239,"سیستم":11240,"کاملی ":11241,"آغوش ":11242,"مسیرهای ":11243,"برابر با ":11244,"بدتر از ":11245,"خوشحالی ":11246,"چیست؟ ":11247,"قرن بی":11248,"راحت تر ":11249,"خودم را ":11250,"قضایی ":11251,"کرده اید.\n":11252,"حاکی از ":11253,"طبقه بندی ":11254,"به این معنی که ":11255,"زخمی ":11256,"تخمین زده ":11257,"OR":11258,"ST":11259,"fl":11260,"ure":11261,"؟؟\n":11262,"آت":11263,"رخت":11264,"سکه ":11265,"سم و ":11266,"هالی":11267,"١٩":11268,"پدی":11269,"گازهای ":11270,"اسرای":11271,"در کتاب ":11272,"را صرف ":11273,"می کرد ":11274,"این سازمان ":11275,"این ایده ":11276,"روحیه ":11277,"ام\n":11278,"دادم ":11279,"ها که ":11280,"می‌خوان":11281,"می‌فرمای":11282,"موسو":11283,"یک تیم ":11284,"با دقت ":11285,"گرجستان ":11286,"ادعا":11287,"د و یا ":11288,"نه به ":11289,"من است.\n":11290,"جواه":11291,"سال ها ":11292,"سوالی ":11293,"شان به ":11294,"می شوند":11295,"تصفی":11296,"قرار گیر":11297,"تعقیب ":11298,"گونه ای ":11299,"ایجاد کنید.\n":11300,"دادند، ":11301,"کامل":11302,"دنیایی ":11303," درصد کاهش ":11304,"مناسب و ":11305,"فضانور":11306,"تبدیل شدن به ":11307,"کنوان":11308,"هستند .\n":11309,"شناخته می شود.\n":11310,"جذابی":11311,"حضور در ":11312,"محدود کردن ":11313,"می‌رسد.\n":11314,"استراتژی های ":11315,"مخالفان ":11316,"ساختمان های ":11317,"همسرم ":11318,"نشان داده است که ":11319,"دسته از ":11320,"پروتئی":11321,"دبیر ":11322,"متعال ":11323,"موتورهای جستجو ":11324,"نتانیاه":11325," B":11326,"(با ":11327,"ron":11328,"جعلی ":11329,"خج":11330,"فاز ":11331,"فتو":11332,"لف":11333,"لاد":11334,"مفا":11335,"گش":11336,"” (":11337,"و نیم ":11338,"را مورد ":11339,"ریخت":11340,"ندان":11341,"شوک ":11342,"برای افراد ":11343,"درس":11344,"می کنید و ":11345,"سی و ":11346,"هیجان":11347,"خواهد کرد ":11348,"خواهد شد، ":11349,"دیگر برای ":11350,"اقلیت ":11351,"وقت":11352,"هول":11353,"شد؛ ":11354,"پوستی ":11355,"هیچ چیزی ":11356,"ساختاری ":11357,"به طور کلی، ":11358,"آن را از ":11359,"چگونه یک ":11360,"شروع کنید.\n":11361,"وجود دارند.\n":11362,"هدف قرار ":11363,"منظو":11364,"باشد ، ":11365,"رانند":11366,"رون به ":11367,"پردازنده ":11368,"استانبول ":11369,"اضافه کنید.\n":11370,"می رسد ":11371,"نظامی و ":11372,"همچنان به ":11373,"اتوماتیک ":11374,"خاطره ":11375,"سنگاپ":11376,"تفاوت بین ":11377,"مفید است.\n":11378,"بیاید.\n":11379,"خاص، ":11380,"امضای ":11381,"هم‌چنین ":11382,"آدم‌ها ":11383,"پوشیدن ":11384,"نمی‌توانم ":11385,"اردوغ":11386,"آمریکای شمالی ":11387,"فالون گو":11388,"سودمند ":11389,"Lin":11390,"ter ":11391,"آبی":11392,"بخواهند ":11393,"بگیرد ":11394,"تیر ":11395,"تبل":11396,"تدوین ":11397,"حش":11398,"دکت":11399,"رزو":11400,"ششم ":11401,"عف":11402,"م: «":11403,"پستان ":11404,"کثی":11405,"۲۹":11406,"به علاوه، ":11407,"میشود ":11408,"را نجات ":11409,"توبه ":11410,"توئی":11411,"بیکاری ":11412,"باهم ":11413,"با ارزش ":11414,"همگان ":11415,"شما باشد.\n":11416,"بر اثر ":11417,"تحرک ":11418,"استفاده کند.\n":11419,"دو یا ":11420,"هود ":11421,"شدند\n":11422,"پرور":11423,"نیاز دارید.\n":11424,"انتخاباتی ":11425,"چهل ":11426,"کاتول":11427,"فضاهای ":11428,"لازم به ":11429,"تغییراتی ":11430,"دوربین":11431,"معمولا در ":11432,"توانایی های ":11433,"خبر خوب ":11434,"احترام به ":11435,"متخصصین ":11436,"ult":11437,"ویدئو":11438,"در معرض خطر ":11439,"تأثیر":11440,"انعطاف پذیری ":11441,"مدیریتی ":11442,"طول می ک":11443,"دغدغ":11444,"متابولی":11445,"بر این باورند که ":11446,"LT":11447,"s و ":11448,"تگز":11449,"سله ":11450,"شلی":11451,"لۀ ":11452,"نکنید، ":11453,"کیم ":11454,"● ":11455,"و هر ":11456,"می نمای":11457,"امر به ":11458,"بیگانه ":11459,"ما است.\n":11460,"منح":11461,"کارش ":11462,"کارآمو":11463,"د و از ":11464,"سرنگ":11465,"گذارد ":11466,"تاکسی ":11467,"سازندگان ":11468,"تی\n":11469,"بسیار زیاد ":11470,"هرکدام ":11471,"رفتند.\n":11472,"بازی کردن ":11473,"می‌دهند ":11474,"وی گفت: ":11475,"ory ":11476,"بعد از اینکه ":11477,"آموزش عالی ":11478,"علیرغم ":11479,"خدایی ":11480,"رانندگان ":11481,"در طول زمان ":11482,"می دانند که ":11483,"فرصت‌های ":11484,"دانشجویی ":11485,"قراردادهای ":11486,"راستا ":11487,"رفته است.\n":11488,"می‌برد.\n":11489,"سلاح های ":11490,"مختلف، ":11491,"را بر عهده ":11492,"رمزگذاری ":11493,"دفع ":11494,"مى‌":11495,".com ":11496,"مکرر ":11497,"; ":11498,"MI":11499,"for ":11500,"ry":11501,"s، ":11502,"اتم":11503,"ب) ":11504,"بپرس":11505,"جسم ":11506,"رهایی ":11507,"غزه ":11508,"ن) ":11509,"انحرا":11510,"و بر":11511,"در ارتباط ":11512,"در جامعه ":11513,"به همه ":11514,"خوبی از ":11515,"رونمایی ":11516,"ریچ":11517,"برای تمام ":11518,"دهند و ":11519,"د، به ":11520,"فری ":11521,"محر":11522,"محاص":11523,"او را در ":11524,"کود ":11525,"اما ما ":11526,"شکستگی ":11527,"می توانست ":11528,"مکم":11529,"نیست؟\n":11530,"افراد و ":11531,"پنتا":11532,"بت‌":11533,"سلسله ":11534,"org":11535,"زمین، ":11536,"راهبر":11537,"قلم ":11538,"شاید هم ":11539,". .\n":11540,"ظاهری ":11541,"انتظار می‌رو":11542,"کره زمین ":11543,"پرسیده ":11544,"ببینید.\n":11545,"استوار ":11546,"انداختن ":11547,"ترجیح می ده":11548,"به نظر می‌رسد که ":11549,"گونه‌ای ":11550,"الماس ":11551,"موقعیتی ":11552,"اینجاست که ":11553,"شاخه ":11554,"خلیج فارس ":11555,"وفاداری ":11556,"rosof":11557," نفر":11558,"wit":11559,"دمک":11560,"سکو ":11561,"چاله ":11562,"ارگان":11563,"در راستای ":11564,"میباشد.\n":11565,"را تعیین ":11566,"می در ":11567,"این می تواند ":11568,"این محصول ":11569,"رود ":11570,"امری ":11571,"ال‌":11572,"باهوش ":11573,"برای دیدن ":11574,"زید.\n":11575,"پیامی ":11576,"نگفت":11577,"ناخودآگاه ":11578,"قیام ":11579,"کار خود را ":11580,"لوکس ":11581,"دستیار ":11582,"اتم ":11583,"افزون ":11584,"شدند":11585,"در حال افزایش ":11586,"ندارند و ":11587,"دن.\n":11588,"کسی است که ":11589,"سطح":11590,"دولت و ":11591,"به شما اجازه ":11592,"منظر ":11593,"لازم است.\n":11594,"row":11595,"جایی است که ":11596,"کنار هم ":11597,"آفریده ":11598,"مناطقی ":11599,"حکومت":11600,"پیام های ":11601,"und":11602,"توجهی ":11603,"نتوانست ":11604,"انداخته ":11605,"تصادف ":11606,"برداری از ":11607,"سوء استفاده ":11608,"بریتانیایی ":11609,"گرسنه ":11610,"آرژانتین ":11611,"مواجهه با ":11612,"تکذیب ":11613,"!\"\n":11614,"HD ":11615,"Web":11616,"af":11617,"con":11618,"اچ ":11619,"ضخ":11620,"نما ":11621,"هکر":11622,"کدام":11623,"ی؟\n":11624,"به راه ":11625,"به نمایش ":11626,"از آنجا ":11627,"را مشخص ":11628,"می‌گذر":11629,"بافت":11630,"بوده.\n":11631,"دارند؟\n":11632,"ویت":11633,"پیکر ":11634,"کارگاه ":11635,"شده یا ":11636,": در ":11637,"محتم":11638,"او نیز ":11639,"چه چیزهایی ":11640,"قرار گیرد.\n":11641,"دستورات ":11642,"تناس":11643,"تناسب ":11644,"آیین ":11645,"خانه":11646,"ایجاد و ":11647,"ساختمانی ":11648,"به طور متوسط ":11649,"دولت‌های ":11650,"ann":11651,"چگونه از ":11652,"ارائه خدمات ":11653,"مستمر ":11654,"بوده است، ":11655,"ence ":11656,"تلاشی ":11657,"طراحی شده ":11658,"گفت و ":11659,"گسترده‌":11660,"بنابر ":11661,"چرب ":11662,"برخی دیگر ":11663,"زنانی که ":11664,"رنگ های ":11665,"کنید؛ ":11666,"هنگ کن":11667,"می کند .\n":11668,"نیروی هوایی ":11669,"نیروی دریایی ":11670,"دانشمند ":11671,"فرانسه و ":11672,"ضربان ":11673,"شهروندی ":11674,"شخصیتی ":11675,"شورشی":11676,"آستانه ":11677," فوریه ":11678,"He":11679,"ON":11680,"oy":11681,"ادین ":11682,"تام ":11683,"ت) ":11684,"لق":11685,"هاست که ":11686,"هتل":11687,"وزن":11688,"ی» ":11689,"ارمن":11690,"در انتخابات ":11691,"به چشم ":11692,"به سختی ":11693,"را تولید ":11694,"می انداز":11695,"توپ":11696,"ند كه ":11697,"می‌کرد، ":11698,"یک سوم ":11699,"است - ":11700,"است – ":11701,"نوجوان":11702,"ور، ":11703,"منتخ":11704,"کارشناس ":11705,"محو ":11706,"محلو":11707,"هر چیزی که ":11708,"گویا ":11709,"بهتری":11710,"لوی ":11711,"آماری ":11712,"آمدند.\n":11713,"استفاده می‌شود.\n":11714,"می‌شوند که ":11715,"خود را حفظ ":11716,"سه شنبه ":11717,"نیست!\n":11718,"در این مقاله ":11719,"بیشتر است.\n":11720,"بیشتر از یک ":11721,"آزمو":11722,"همچنین از ":11723,"فروپاشی ":11724,"ans":11725,"مرکز":11726,"تلخ ":11727,"۲۰۲":11728,"قابل ملاحظ":11729,"پیش رو ":11730,"عینک ":11731,"همیشه در ":11732,"اش، ":11733,"دیگری هم ":11734,"طبیعی":11735,"بروید و ":11736,"فلزی ":11737,"یونی":11738,"پزشکی، ":11739,"اتفاق افتا":11740,"حقوق و ":11741,"ظاهراً ":11742,"شرکتهای ":11743,"نگه می ":11744,"اندازه‌ی ":11745,"دانلود فیلم ":11746,"مسافر ":11747,"روستایی ":11748,"مریخ ":11749,".»[":11750,"دگرگون ":11751,"احمق ":11752,"مرطوب ":11753,"خجالت ":11754,"'s ":11755,"(W":11756,"800":11757,"RE":11758,"بکشد.\n":11759,"خبرگزاری ":11760,"ذوب ":11761,"طری":11762,"طبا":11763,"غی ":11764,"قرون ":11765,"ایز":11766,"اسرار ":11767,"در برخی از ":11768,"به درستی ":11769,"برمی‌":11770,"روس ":11771,"ستایش ":11772,"الهی":11773,"بیهو":11774,"یک میلیون ":11775,"دار، ":11776,"آن برای ":11777,"یا سایر ":11778,"ترسیم ":11779,"کاری در ":11780,"تا حدی ":11781,"بعید ":11782,"می‌شوند":11783,"می‌شود؟\n":11784,"سه بار ":11785,"نیستید ":11786,"بزرگ‌تر ":11787,"م، و ":11788,"به عنوان یکی از ":11789,"شد!\n":11790,"پوتین ":11791,"کمک می‌کند.\n":11792,"قوت ":11793,"یکی از آنها ":11794,"رسید و ":11795,"از آن ها ":11796,"بندر ":11797,"مشخصی ":11798,"دختری ":11799,"کسب و کارهای ":11800,"عدال":11801,"حقوق بشر":11802,"امنیت و ":11803,"کسب و کار و ":11804,"رخ داده ":11805,"این‌جا ":11806,"نگه دارید.\n":11807,"بگذارند.\n":11808,"عراقی ":11809,"دکتر":11810,"خودشان را ":11811,"پاسخگوی":11812,"مجدداً ":11813,"تخصص":11814,"روستا ":11815,"رادیویی ":11816,"تفاوتی ":11817,"ژنرال ":11818,"ندهید.\n":11819,"نقش مهمی در ":11820,"تقلید ":11821,"عبادت ":11822,"حامیان ":11823,"Windows ":11824,"!!":11825,"# ":11826,"49":11827,"CC":11828,"Col":11829,"Med":11830,"]]":11831,"iOS ":11832,"تار ":11833,"سئو":11834,"شل ":11835,"قرا":11836,"لار":11837,"ماری ":11838,"یز":11839,"۶۵":11840,"‌کنند":11841,"اید که ":11842,"میتوان ":11843,"میدهد.\n":11844,"میکنند ":11845,"را اجرا ":11846,"می کنیم":11847,"این هم ":11848,"این تغییرات ":11849,"باش ":11850,"آن‌ ":11851,"من\n":11852,"بازتاب ":11853,"چینی":11854,"را به کار ":11855,"را به یاد ":11856,"سازی، ":11857,"را در خود ":11858,"روز جهانی ":11859,"روز دوشنبه ":11860,"کرد؛ ":11861,"سه روز ":11862,"بود!\n":11863,"سایت‌های ":11864,"در این میان ":11865,"زمان زیادی ":11866,"گفتند: ":11867,"ern":11868,"چگونه می توان ":11869,"اطلاعات مربوط به ":11870,"توسعه یافته ":11871,"جهانی و ":11872,"یاد گرفت":11873,"می توانند به ":11874,"هفته گذشته ":11875,"کرده‌اند ":11876,"پلاس":11877,"جلوه ":11878,"خواب بیدار ":11879,"کند، اما ":11880,"حوز":11881,"وحشی ":11882,"می‌گیرند.\n":11883,"خانواد":11884,"کلیک کنید.\n":11885,"حمل و نق":11886,"را ببینید.\n":11887,"تعلیق ":11888," درصدی ":11889,"MBA ":11890,"Microsof":11891,"عذرخواهی ":11892,"A و ":11893,"W ":11894,"min":11895,"بمباران ":11896,"تاس":11897,"جرای":11898,"راز":11899,"صدر ":11900,"منین ":11901,"نمی ده":11902,"انمان ":11903,"انه‌ی ":11904,"را جذب ":11905,"برگر":11906,"می خواست ":11907,"می کردند ":11908,"این یکی از ":11909,"استرس":11910,"الح ":11911,"توق":11912,"می‌کرد ":11913,"می‌خواست":11914,"با سایر ":11915,"ما این است که ":11916,"است با ":11917,"دارا ":11918,"ال و ":11919,"نوین ":11920,"وری و ":11921,"باشد؛ ":11922,"هر چیز ":11923,"شیعه ":11924,"مقرون به ":11925,"قرار دارد، ":11926,"واقع":11927,"ملحق ":11928,"آوری و ":11929,"هرکسی ":11930,"داشته باشید و ":11931,"جدید از ":11932,"اشترا":11933,"نمی رس":11934,"کابی":11935,"زمین و ":11936,"هدف از ":11937,"ماهوار":11938,"آسمان":11939,"کنون، ":11940,"پلت ":11941,"هنر و ":11942,"ارزهای ":11943,"برنامه‌ی ":11944,"مهمتر از ":11945,"سیاست خارجی ":11946,"180":11947,"پنجشنبه ":11948,"شخصیت های ":11949,"هفته، ":11950,"شیوه های ":11951,"دشوار است.\n":11952,"هم‌اکنون ":11953,"خبرنگار ":11954,"آلرژی ":11955,"کامیون ":11956,"درحالی‌که ":11957,"بطری ":11958,"مردان و زنان ":11959,"تثبیت ":11960,"ماژول ":11961,"توهین ":11962,"مقاصد ":11963," ماه":11964,"Gl":11965,"رطو":11966,"صعود ":11967,"له‌":11968,"لپ ":11969,"نای":11970,"انص":11971,"در باره ":11972,"را ادامه ":11973,"این سه ":11974,"این فرصت ":11975,"این روزها ":11976,"ری\n":11977,"ریش":11978,"موتور":11979,"برای مردم ":11980,"است نه ":11981,"دهید\n":11982,"لی.\n":11983,"نورو":11984,"نگ، ":11985,"فرامو":11986,"ناخواسته ":11987,"اول از ":11988,"گوسف":11989,"اینک ":11990,"را به سمت ":11991,"سازان ":11992,"بعضی":11993,"نیز برای ":11994,"دستگیری ":11995,"بزرگسال ":11996,"کردن این ":11997,"گیرانه ":11998,"همچنین یک ":11999,"الیز":12000,"بیش از نیمی از ":12001,"زمانی که به ":12002,"سطحی ":12003,"ary ":12004,"پیدا کرد.\n":12005,"متحمل ":12006,"ens":12007,"را با استفاده از ":12008,"به جلو ":12009,"دریافت کنید.\n":12010,"ي از ":12011,"ابتکار ":12012,"شده‌اند و ":12013,"می‌دانند که ":12014,"‌هایی از ":12015,"واقعیت این است که ":12016,"تکراری ":12017,"بماند.\n":12018,"خاص در ":12019,"آگاهی از ":12020,"پیاده سازی ":12021,"كنند.\n":12022,"فارغ التحصیل ":12023,"ویدیویی ":12024,"وفادار ":12025,"لذت ببرید.\n":12026,"این بدان معنی است که ":12027,"قاتل ":12028,"لهستان ":12029,"خوشبختی ":12030,"تجارب ":12031," نوع ":12032,"AB":12033,"LL":12034,"ek":12035,"اَ":12036,"حدی":12037,"نر ":12038,"پس‌":12039,"۴۰۰":12040,"ایکس ":12041,"در محیط ":12042,"به بعد ":12043,"میخواهید ":12044,"می فرمای":12045,"دیر":12046,"ندا ":12047,"شورش ":12048,"همکار ":12049,"ویران ":12050,"فاشی":12051,"کارگیری ":12052,"د که به ":12053,"معین ":12054,"من که ":12055,"گونی ":12056,"مایه ":12057,"انجام شد.\n":12058,"چنین چیزی ":12059,"خیر":12060,"مهمی از ":12061,"نقشی ":12062,"هرگاه ":12063,"صورتی که ":12064,"پرول":12065,"جا که ":12066,"می تواند منجر به ":12067,"هیچ گونه ":12068,"فکر می کنید ":12069,"بعد از این ":12070,"جیب ":12071,"سلطه ":12072,"پیدا کنند.\n":12073,"متحرک ":12074,"اشک ":12075,"داوطلب ":12076,"۱۹۰":12077,"ich":12078,"آرت":12079,"es\n":12080,"فلز ":12081,"مفصل ":12082,"اتفاق افتاده ":12083,"می شود ، ":12084,"بستن ":12085,"اسرائیل و ":12086,"وحدت ":12087,"بچه های ":12088,"گرفت که ":12089,"فکر می‌کنید ":12090,"سفرهای ":12091,"توسعه‌":12092,"ورزشکاران ":12093,"بدیهی ":12094,"امتداد ":12095,"علیه السلام":12096,"لطفاً ":12097,"77":12098,"Des":12099,"El":12100,"IF":12101,"؟”\n":12102,"بنی ":12103,"تداو":12104,"لهای ":12105,"منو":12106,"وک":12107,"وت ":12108,"يم ":12109,"پکن ":12110,"کن و ":12111,"ایرا":12112,"ایمان":12113,"ار\n":12114,"در دوره ":12115,"در شمال ":12116,"به انجام ":12117,"می کنید؟\n":12118,"می باشد .\n":12119,"می‌شد، ":12120,"می‌کنیم":12121,"مود ":12122,"آن چیزی ":12123,"ورهای ":12124,"پیتر ":12125,"ما.\n":12126,"گیج ":12127,"معرو":12128,"نامناسب ":12129,"خواهد کرد که ":12130,"ممکن است که ":12131,"نسبی ":12132,"دریاف":12133,"آمریکا از ":12134,"گرفته و ":12135,"به جنگ ":12136,"هدف اصلی ":12137,"مدیریت و ":12138,"درمان های ":12139,"بگیریم.\n":12140,"ous ":12141,"ile ":12142,"کنیم تا ":12143,"اگر شما یک ":12144,"گرام ":12145,"محافظه ":12146,"حیوانی ":12147,"افزونه ":12148,"فرستاد":12149,"ببینیم ":12150,"بودیم ":12151,"نخواهد کرد.\n":12152,"پست های ":12153,"نقل مکان ":12154,"نمی دانم ":12155,"کرده ایم.\n":12156,"um ":12157,"تونل ":12158,"خوش آم":12159,"سیاسی در ":12160,"می سازد.\n":12161,"مطالعه، ":12162,"انعطاف پذیر ":12163,"دونالد ترامپ ":12164,"پمپ ":12165,"یا خیر.\n":12166,"حاشیه ":12167,"انسولین ":12168,"حاملگی ":12169,"کاتولیک ":12170,"A، ":12171,"؟ (":12172,"آتی ":12173,"تند":12174,"جراح ":12175,"سج":12176,"ظم ":12177,"لَ":12178,"نهفته ":12179,"گشت ":12180,"ایم و ":12181,"در یکی از ":12182,"در عوض ":12183,"به «":12184,"، بلکه ":12185,"می‌آورد.\n":12186,"یک منبع ":12187,"دهند ":12188,"دهٔ ":12189,"ه‌ترین ":12190,"باشید":12191,"لا، ":12192,"ترک":12193,"تا حدودی ":12194,"بر طبق ":12195,"اوپ":12196,"شیعی":12197,"را به من ":12198,"نامحدود ":12199,"خواهد گرفت.\n":12200,"دیگر را ":12201,"آیت‌الله ":12202,"دیگران، ":12203,"افتاد ":12204,"نرمال ":12205,"نیست بلکه ":12206,"تأخیر ":12207,"ick":12208,"بیشتری نسبت به ":12209,"مارتین ":12210,"شهرداری ":12211,"ایرل":12212,"تجاری و ":12213,"دفاتر ":12214,"افغانستان، ":12215,"پزشک خود ":12216,"استخر ":12217,"کوچکترین ":12218,"نحو ":12219,"محدودیت‌های ":12220,"از سوی دیگر، ":12221,"of the ":12222,"عجیبی ":12223,"نمی‌دانم ":12224,"مریم ":12225,"خداحافظ":12226,"اکسید ":12227,"کمک‌های ":12228,"پدر و مادر":12229,"بلندمدت ":12230,"باطل ":12231,"(ص) ":12232,"مدیرعامل ":12233,"مسیحیان ":12234,"کارفرمایان ":12235,"کنوانسیون ":12236,"Mon":12237,"تکلی":12238,"خاند":12239,"شدم که ":12240,"مَ":12241,"چي":12242,"چت ":12243,"کتی":12244,"اسلام":12245,"در فضای ":12246,"در مجموع ":12247,"را نمی‌":12248,"می نام":12249,"این به ":12250,"این هفته ":12251,"رود.\n":12252,"الگو ":12253,"با تمام ":12254,"ما فقط ":12255,"شوید که ":12256,"داروی":12257,"یا «":12258,"زیان ":12259,"ادو ":12260,"کارها را ":12261,"کارگردانی ":12262,"سردرد ":12263,"گوشی":12264,"ساکت ":12265,"تیز":12266,"تیشن ":12267,"کردن":12268,"کیفی":12269,"بسیار خوب ":12270,"تنها برای ":12271,"دلخواه ":12272,"ندارم ":12273,"گاه، ":12274,"به‌نظر ":12275,"زمانی که در ":12276,"را بخو":12277,"باعث شد ":12278,"اجتماع ":12279,"از طبی":12280,"کامل و ":12281,"پرداخته ":12282,"ارزش های ":12283,"نگاه کنید.\n":12284,"جزئ":12285,"جنگ و ":12286,"شرکت، ":12287,"توافقی ":12288,"قدیمی‌":12289,"ook ":12290,"اطرافی":12291,"آفریقایی ":12292,"ذخیره سازی ":12293,"نیوزی":12294,"هیچ‌وقت ":12295,"برجام ":12296,"راه‌حل ":12297,"در صورتی ":12298,"کمکی ":12299,"چندانی ":12300,"پایگاه داده ":12301,"معتقد است که ":12302,"اذعان ":12303,"مداف":12304,"انگلیسی: ":12305,"نکردنی ":12306,"خشمگین ":12307,"اتهامات ":12308,"تلسکوپ ":12309,"900":12310,"PR":12311,"آب، ":12312,"بجای ":12313,"حل و ":12314,"سز":12315,"سا ":12316,"شات ":12317,"قبر":12318,"مسو":12319,"م:\n":12320,"نکند.\n":12321,"انان ":12322,"ای و ":12323,"به لحاظ ":12324,"را طی ":12325,"را تشخیص ":12326,"این اقدام ":12327,"داتی ":12328,"می‌بایست ":12329,"یک سازمان ":12330,"شوم.\n":12331,"ید .\n":12332,"آن نیز ":12333,"ویرای":12334,"مری ":12335,"مردی که ":12336,"لی در ":12337,"داشتیم ":12338,"را به همراه ":12339,"اگر می‌خواهید ":12340,"بارها و ":12341,"کیست":12342,"کسی از ":12343,"بزرگی از ":12344,"دیگر\n":12345,"شدگان ":12346,"داشته باشند و ":12347,"» که ":12348,"به این خاطر ":12349,"فکر کنید که ":12350,"نشان‌":12351,"هایمان ":12352,"صحبت":12353,"خواهید شد.\n":12354,"طول عمر ":12355,"قانون":12356,"تایپ ":12357,"att":12358,"اپرا":12359,"بهتر و ":12360,"آغاز شد.\n":12361,"بروند.\n":12362,"خدایان ":12363,"ببرند.\n":12364,"هستند؛ ":12365,"نگران ن":12366,"ه‌ای، ":12367,"استعفا ":12368,"مبادل":12369,"پانزده ":12370,"صداقت ":12371,"پرداخت.\n":12372,"تلفات ":12373,"نازل ":12374,"تولیدکنندگان ":12375,"صلیب ":12376,"روزنامه‌نگ":12377,"ابداع ":12378," دقیق":12379,"46":12380,"][":12381,"lin":12382,"رئ":12383,"زائ":12384,"زدن به ":12385,"شراب ":12386,"فسی":12387,"‎ها ":12388,"و آن ":12389,"در ارتباط با ":12390,"به یکدیگر ":12391,"ده ها ":12392,"برای بررسی ":12393,"داریم و ":12394,"همبستگی ":12395,"گردیده ":12396,"شما را برای ":12397,"من.\n":12398,"هر وقت ":12399,"بازخورد ":12400,"کون ":12401,"را به او ":12402,"انجام شده است.\n":12403,"عی که ":12404,"اقدامی ":12405,"بسیار ساده ":12406,"نیستند و ":12407,"کنید و به ":12408,"راحت":12409,"پوسته ":12410,"فروخت":12411,"پس از یک ":12412,"مشکلا":12413,"صحن":12414,"art ":12415,"تولید کنندگان ":12416,"دوست دارد ":12417,"یافته های ":12418,"تایل":12419,"کاربردهای ":12420,"تبدیل شد.\n":12421,"تبدیل شده است.\n":12422,"آخرت ":12423,"قبل از شروع ":12424,"ذهن":12425,"خدماتی ":12426,"تابستانی ":12427,"نیروهای امنیتی ":12428,"ضرب ":12429,"شدیدی ":12430,"فعالیتهای ":12431,"کلاس های ":12432,"اظهار":12433,"گوشی های ":12434,"ماساژ ":12435,"مختل ":12436,"می‌گذارد.\n":12437,"آلمان، ":12438,"پولیس ":12439,"جام جهانی ":12440,"به هیچ وجه ":12441,"عبدال":12442,"هوشمندانه ":12443,"گنجان":12444,"منصفانه ":12445,"زاویه ":12446,"عجیب و غریب ":12447,"کلینتون ":12448,"تبدیل شدن به یک ":12449,"*\n":12450,",\n":12451,"700":12452,"Fre":12453,"ial ":12454,"رز ":12455,"فه":12456,"ماس ":12457,"نمی‌ده":12458,"هت":12459,"ونی":12460,"د از ":12461,"در موارد ":12462,"به دیگران ":12463,"را به‌":12464,"کنم\n":12465,"این نیست که ":12466,"می‌کردند، ":12467,"شما نمی توانید ":12468,"لادی":12469,"هستم، ":12470,"اما هنوز ":12471,"بهشت":12472,"بی نظیر ":12473,"متنفر ":12474,"جهان\n":12475,"ات.\n":12476,"داده اند.\n":12477,"است و این ":12478,"فیلمی ":12479,"جماه":12480,"تجربی ":12481,"باعث کاهش ":12482,"کنترل و ":12483,"عمومی":12484,"جنگ داخلی ":12485,"باشد یا ":12486,"انتقام ":12487,"ساخت یک ":12488,"موفقیت آمیز ":12489,"می‌دانید ":12490," هزار دلار ":12491,"ect ":12492,"نخواهد داشت.\n":12493,"بر این باور ":12494,"همکارانش ":12495,"اندیشی":12496,"تاسیسات ":12497,"ديگر ":12498,"گذراندن ":12499,"سیگار کشیدن ":12500,"تأثیرات ":12501,"ایالتی ":12502,"خصوصیات ":12503,"بزنند.\n":12504,"میلیاردها ":12505,"معاهده ":12506,"رطوبت ":12507,"Bit":12508,"PP":12509,"UN":12510,"ies ":12511,"أت ":12512,"د.":12513,"سکته ":12514,"طب ":12515,"غبار ":12516,"غنی از ":12517,"وج":12518,"پله ":12519,"‌\n":12520,"ایم که ":12521,"را بر روی ":12522,"این قانون ":12523,"است. ":12524,"امتنا":12525,"با بیش از ":12526,"دارم":12527,"در\n":12528,"آن رسیده ":12529,"پیتز":12530,"کارگری ":12531,"سرشار ":12532,"چه در ":12533,"می‌کنند\n":12534,"بودن، ":12535,"اری\n":12536,"سالی":12537,"سالگرد ":12538,"در این مرحله ":12539,"افتادن ":12540,"جهان است.\n":12541,"ارائه دهنده ":12542,"ولی این ":12543,"کننده های ":12544,"اصلی در ":12545,"فرانسی":12546,"‌تر است.\n":12547,"انتقادی ":12548,"هنگامی که یک ":12549,"برسند.\n":12550,"تضاد ":12551,"قوانین و ":12552,"خصوصی و ":12553,"شخص دیگری ":12554,"زیست محیطی ":12555,"احتیاج":12556,"مخصوصاً ":12557,"غالبا ":12558,"آزادانه ":12559,"دیابت نوع ":12560,"مدال ":12561,"حرام ":12562,"دستاوردهای ":12563,"قند خون ":12564,"فالون گونگ ":12565,"))":12566,":\"":12567,"Mac":12568,"ram":12569,"جر ":12570,"خشن ":12571,"زرا":12572,"م‌ ":12573,"نداشتن ":12574,"ی) ":12575,"در سه ":12576,"به مشتریان ":12577,"میکنم ":12578,"را توسعه ":12579,"را دوباره ":12580,"را رها ":12581,"می باشد و ":12582,"این طور ":12583,"این عمل ":12584,"این مجموعه ":12585,"نده‌ی ":12586,"نیاور":12587,"برای یافتن ":12588,"ه‌اند ":12589,"فرد و ":12590,"معقول ":12591,"سرو ":12592,"اما از ":12593,"شان در ":12594,"را به خوبی ":12595,"را به عهده ":12596,"مدت، ":12597,"داشته باشیم ":12598,"هیچ گاه ":12599,"دم\n":12600,"ادامه دارد.\n":12601,"اورشلی":12602,"نماید ":12603,"آسیایی ":12604,"سمت چپ ":12605,"مواد معدنی ":12606,"بنزین ":12607,"پیشبرد ":12608,"در طول این ":12609,"می دانیم ":12610,"جلس":12611,"داستان های ":12612,"شاگردان ":12613,"به دست آمده ":12614,"بایگانی ":12615,"شنوایی ":12616,"تا به امروز ":12617,"مفید باشد.\n":12618,"سکونت ":12619,"مهندسان ":12620,"نیوز":12621,"بچه‌":12622,"متقاضی ":12623,"بنا به ":12624,"شگفت زده ":12625,"محبوب ترین ":12626,"دموکراس":12627,"سوریه، ":12628,"رمزنگاری ":12629,"عزت ":12630,"آمیزی ":12631,"زیباترین ":12632,"به همان اندازه ":12633,"HIV ":12634,"خنثی ":12635,"گالری ":12636,"URL ":12637,"برچسب: ":12638,"تصفیه ":12639,"جماهیر ":12640," اما ":12641,"CA":12642,"FD":12643,"Sk":12644,"Sch":12645,"خلو":12646,"زام":12647,"زایی ":12648,"زنج":12649,"صیر ":12650,"لکه ":12651,"ً،":12652,"ارق":12653,"اسیر ":12654,"به غیر از ":12655,"به محض ":12656,"برگرد":12657,"برعکس ":12658,"می خواست":12659,"می شنو":12660,"این جمله ":12661,"این شرایط ":12662,"این دستگاه ":12663,"سترون ":12664,"توکی":12665,"توازن ":12666,"رات، ":12667,"یک کتاب ":12668,"یک صفحه ":12669,"با تجربه ":12670,"برای ارائه ":12671,"زیاد":12672,"نگر ":12673,"کارشان ":12674,"ناخالص ":12675,"محرو":12676,"چه مقدار ":12677,"انجام می‌شود.\n":12678,"بزو":12679,"کی‌":12680,"شمارش ":12681,"مدان ":12682,"هرچند که ":12683,"پویا ":12684,"انسان، ":12685,"فقط با ":12686,"قابل استفاده ":12687,"به جایی ":12688,"انسان را ":12689,"زیرا این ":12690,"دیگران را ":12691,"کردید.\n":12692,"حقوق بش":12693,"بالاتری ":12694,"ارزش‌های ":12695,"مسائلی ":12696,"به جای اینکه ":12697,"نور خورشید ":12698,"پرستار ":12699,"آزمایشگاهی ":12700,"آدم‌های ":12701,"زبان‌های ":12702,"HTT":12703,"سلولهای ":12704,"تهاجمی ":12705,"ویلیام ":12706,"هیتلر ":12707,"متداول ":12708,"سوراخ ":12709,"خاندان ":12710,"مدافع ":12711," …":12712,"Nex":12713,"Pres":12714,"a، ":12715,"اور ":12716,"بِ":12717,"دتر ":12718,"سئ":12719,"صریح ":12720,"عام":12721,"فل ":12722,"لبن":12723,"م» ":12724,"ه:\n":12725,"ایم، ":12726,"انز":12727,"ان‌ ":12728,"اسما":12729,"در عین ":12730,"می خواستم ":12731,"این سایت ":12732,"این دانشگاه ":12733,"تونه ":12734,"نده‌های ":12735,"ب به ":12736,"برای فروش ":12737,"گرد و ":12738,"تران":12739,"شده بود":12740,"هست، ":12741,"سال آینده ":12742,"اما وقتی ":12743,"چه چیز ":12744,"اینکار ":12745,"آنها نیز ":12746,"شیخ ":12747,"خواهد بود، ":12748,"تعج":12749,"سه بعدی ":12750,"در این زمان ":12751,"نمایان ":12752,"رفتم.\n":12753,"پس از اینکه ":12754,"دولت، ":12755,"افزایش یافته است.\n":12756,"آن‌ها در ":12757,"امیرال":12758,"eng":12759,"همیشه به ":12760,"از طرفی ":12761,"وب سای":12762,"ical ":12763,"از طریق یک ":12764,"جدید\n":12765,"هرگز به ":12766,"آنان را ":12767,"شده است تا ":12768,"سلامت و ":12769,"وحشی":12770,"محلی و ":12771,"فرمودند":12772,"پسرش ":12773,"امیدوارم که ":12774,"نشانگر ":12775,"جنبه‌های ":12776,"برخورد با ":12777,"چارلز ":12778,"خدا، ":12779,"ارتقای ":12780,"مطمئن شوید ":12781,"طیف گسترده ای از ":12782,"غریبه ":12783,"خارجی و ":12784,"کارگردان : ":12785,"HIV":12786,"وسوسه ":12787,"استثنایی ":12788,"فرشتگان ":12789,"محاصره ":12790,"مکمل های ":12791,"امتناع ":12792," / ":12793,"140":12794,"66":12795,"RA":12796,"ial":12797,"z ":12798,"بگ":12799,"حروف ":12800,"دگی":12801,"عث":12802,"ناد":12803,"هند و ":12804,"چاره ":12805,"کیا ":12806,"ین‌":12807,"اسکریپ":12808,"ای که در ":12809,"در محل ":12810,"در عرض ":12811,"م یا ":12812,"های غیر ":12813,"با دیگر ":12814,"است در ":12815,"دارد: ":12816,"دردی ":12817,"پیراه":12818,"لادی، ":12819,"فراز ":12820,"تا در ":12821,"شده بود که ":12822,": The ":12823,"هر آنچه ":12824,"لوک":12825,"تمام":12826,"یکی و ":12827,"کرده اند و ":12828,"رساند.\n":12829,"هیچگونه ":12830,"مثبت":12831,"ert":12832,"قبلی":12833,"ماه گذشته ":12834,"مهم نیست ":12835,"کامل از ":12836,"نماز":12837,"خانواده اش ":12838,"نهاد":12839,"تغییر":12840,"دوره‌های ":12841,"هر دو طرف ":12842,"ترور ":12843,"می کند ، ":12844,"اين":12845,"آزادی و ":12846,"شبیه سازی ":12847,"حزب کمونیست ":12848,"می برد.\n":12849,"بازدید کنندگان ":12850,"نتوانسته ":12851,"تجهیز":12852,"جسد ":12853,"ode ":12854,"‌‌‌‌‌‌‌‌":12855,"کارآفرینان ":12856,"فوق‌العا":12857,"مسیحیت ":12858,"دلایلی ":12859,"انحصاری ":12860,"University ":12861,"اعصاب ":12862,"ystem":12863,"قرون وسط":12864,"51":12865,"[ ":12866,"a) ":12867,"ment":12868,"آکو":12869,"آپ ":12870,"تهر":12871,"تاج ":12872,"خم ":12873,"رتب":12874,"پخت ":12875,"کشت ":12876,"” به ":12877,"د اما ":12878,"انها ":12879,"اسکو":12880,"این یعنی ":12881,"این تحقیق ":12882,"موتو":12883,"برای به دست آوردن ":12884,"سینمایی ":12885,"دارنده ":12886,"پیغام ":12887,"مناز":12888,"فرش ":12889,"واک ":12890,"هر سه ":12891,"کرده بود، ":12892,"بخار ":12893,"بخری":12894,"شماری از ":12895,"زندگی شما ":12896,"نیستند که ":12897,"مثل":12898,"تنها چیزی که ":12899,"است و به ":12900,"دن\n":12901,"دولت":12902,"بیش از ح":12903,"بسیاری از آنها ":12904,"ort ":12905,"زمانی که شما ":12906,"آرایش ":12907,"واقعی و ":12908,"پردازی ":12909,"شهردار ":12910,"کننده، ":12911,"کمیت":12912,"باقی می مان":12913,"حسابر":12914,"به خاطر داشته باشید که ":12915,"بنیان ":12916,"کوچکی از ":12917,"این کار را انجام ده":12918,"دانلود بازی ":12919,"آتش سوزی ":12920,"امیدواریم ":12921,"usin":12922,"بسپار":12923,"شرایطی که ":12924,"اتحاد جماهیر ":12925,"بیاورید.\n":12926,"پروردگار":12927,"هیئت مدیره ":12928,"One ":12929,"جاوا ":12930,"انگشتان ":12931,"فشارهای ":12932,"زمانیکه ":12933,"لذت بردن از ":12934,"سیاستمداران ":12935,"تبریک ":12936,"زحمت ":12937,"محرمانه ":12938,"حشرات ":12939," پوند ":12940,"(از ":12941,"rat":12942,"حین ":12943,"خطی ":12944,"دایر":12945,"فال ":12946,"مگ":12947,"نمی دهد.\n":12948,"نبودند.\n":12949,"وای ":12950,"کد":12951,"ای\n":12952,"ازجمله ":12953,"در ذهن ":12954,"را تحمل ":12955,"امن":12956,"دید و ":12957,"دیم و ":12958,"نده، ":12959,"موس ":12960,"نیفت":12961,"یک پروژه ":12962,"ما را در ":12963,"دها، ":12964,"آنهاست.\n":12965,"ویدیو":12966,"پیروان ":12967,"پیشتر ":12968,"منش":12969,"معاینه ":12970,"سران ":12971,"تماس":12972,"استفاده کنید، ":12973,"یکی در ":12974,"تصدی":12975,"نامگذاری ":12976,"انجام بده":12977,"اس و ":12978,"نیز باید ":12979,"ده‌ ":12980,"آمریکا\n":12981,"بیشتر برای ":12982,"پوزی":12983,"پس از این ":12984,"وی با ":12985,"مهم است ":12986,"طرفین ":12987,"تاریخی":12988,"تصمیمی ":12989,"غیر ممکن ":12990,"تراکن":12991,"فلج ":12992,"خدمه ":12993,"زنان، ":12994,"بیماری قلبی ":12995,"سرمایه داری ":12996,"هزار نفر ":12997,"حداقل یک ":12998,"تشکی":12999,"بگیرید و ":13000,"سلولی ":13001,"تسکین ":13002,"محیط زی":13003,"آمریکایی ها ":13004,"عبارات ":13005,"ett":13006,"گوش دادن به ":13007,"توضیح داده ":13008,"افزود: «":13009,"اولوی":13010,"خاص و ":13011,"تجزیه ":13012,"كرد.\n":13013,"ریاضی":13014,"همزمان با ":13015,"برای ایجاد یک ":13016,"در قالب ":13017,"تحریم های ":13018,"عمدتاً ":13019,"مؤسسه ":13020,"دایره ":13021,"آشنایی با ":13022,"دیکتاتوری ":13023,"جادویی ":13024,"ترمیم ":13025,"تداوم ":13026,"سزاو":13027,"$ ":13028,"Gen":13029,"co":13030,"sk":13031,"امی‌":13032,"تگ ":13033,"دع":13034,"غلات ":13035,"فلا":13036,"قصه ":13037,"٢٠":13038,"‬‬":13039,"انطبا":13040,"اسکل":13041,"در اولین ":13042,"در جنوب ":13043,"به ارمغان ":13044,"از همین ":13045,"را یاد ":13046,"را کنار ":13047,"الله":13048,"می‌باشند.\n":13049,"شوی ":13050,"سی‌":13051,"داری در ":13052,"دارند تا ":13053,"دری ":13054,"ه‌سازی ":13055,"شما را با ":13056,"کارآفرین ":13057,"تا حالا ":13058,"معنو":13059,"کار می کنند.\n":13060,"قرمز":13061,"استفاده می کند.\n":13062,"قرار می گیرد.\n":13063,"فی، ":13064,"روز بعد ":13065,"دو طرف ":13066,"تجسم ":13067,"راه دور ":13068,"کتان ":13069,"بلد ":13070,"زیادی به ":13071,"داوطلبانه ":13072,"و در نتیجه ":13073,"سمت راست ":13074,"تصمیم بگیر":13075,"بازیافت ":13076,"صدایی ":13077,"اتفاق بیفت":13078,"می دانید که ":13079,"کشورهای عضو ":13080,"ایی‌ها ":13081,"خواهم کرد.\n":13082,"سخت و ":13083,"رخ می دهد.\n":13084,"با استفاده از یک ":13085,"ارزان":13086,"به نام «":13087,"مرتبط است.\n":13088,"تصور کنید ":13089,"افزودن ":13090,"دشوار":13091,"وزارت خارجه ":13092,"سازمان ملل متح":13093,"می آیند.\n":13094,"شواهدی ":13095,"بدین ترتیب ":13096,"ربطی ":13097,"اتفاق می افتد.\n":13098,"SEO ":13099,"صرفه جویی در ":13100,"وضعیتی ":13101,"به عبارت دیگر، ":13102,"کارگردان: ":13103,"پلاگین ":13104,"انتظار می رود ":13105,"Ass":13106,"اعتماد":13107,"به سراغ ":13108,"روبه‌رو ":13109,"لینوکس ":13110,"(J":13111,"41":13112,":‌":13113,"At":13114,"Dis":13115,"MS ":13116,"_ ":13117,"بهم ":13118,"جاه":13119,"د» ":13120,"سپر":13121,"قاب ":13122,"كن ":13123,"ناف":13124,"ُ ":13125,"کاز":13126,"– در ":13127,"به تمام ":13128,"م با ":13129,"را وارد ":13130,"را خریداری ":13131,"این مدل ":13132,"برای مقابله با ":13133,"مرد و ":13134,"کارمند":13135,"شده و به ":13136,"مان و ":13137,"معمار":13138,"معصو":13139,"کوشش ":13140,"بارگذاری ":13141,"هیل":13142,"انتش":13143,"انتفا":13144,"خواهد کرد و ":13145,"دو سوم ":13146,"تقصیر ":13147,"نیستیم.\n":13148,"ندارد\n":13149,"فروشی":13150,"به این صورت ":13151,"ond":13152,"همین طور ":13153,"بدون نیاز به ":13154,"می‌تواند در ":13155,"درباره آن ":13156,"زبان و ":13157,"نموده و ":13158,"گزارشی ":13159,"به جزی":13160,"کاشت ":13161,"برخی از آنها ":13162,"داستان‌های ":13163,"توصیه های ":13164,"واقع شده است.\n":13165,"جنگ، ":13166,"شاء ":13167,"با توجه به اینکه ":13168,"نگهبان ":13169,"سرمایه‌داری ":13170,"پاسخی ":13171,"وجود ندارد، ":13172,"ISO ":13173,"مالیات بر ":13174,"زانو ":13175,"خارجی در ":13176,"ایمپل":13177,"وفق ":13178,"کارآفرینی ":13179,"لیبرال ":13180,"کیف پول ":13181,"قرار گرفتن در معرض ":13182,"پیدایش ":13183,"با توجه به این ":13184,"قواعد ":13185,"در عوض، ":13186,"پروستات ":13187,"هالیوو":13188,"سنگاپور ":13189,"Microsoft ":13190,"yp":13191,"ب.\n":13192,"جت ":13193,"حائ":13194,"زاد":13195,"سقط ":13196,"غه ":13197,"قز":13198,"وال ":13199,"گاو ":13200,"و توسعه ":13201,"اسطور":13202,"در ترکیه ":13203,"به خودتان ":13204,"برگردی":13205,"های اخیر ":13206,"توماس ":13207,"می‌انداز":13208,"بی\n":13209,"بايد ":13210,"با استفاده از این ":13211,"کرده.\n":13212,"است ؟\n":13213,"دهیم ":13214,"خود قرار ":13215,"تا جایی که ":13216,"شده بود و ":13217,"ختم ":13218,"او را از ":13219,"می‌کنم که ":13220,"خواهد بود و ":13221,"را در دست ":13222,"را در طول ":13223,"مسلح":13224,"ملل ":13225,"فت و ":13226,"اند؛ ":13227,"نشان داد ":13228,"پس از آن، ":13229,"اطلاعاتی که ":13230,"به طور خودکار ":13231,"در مورد چگونگی ":13232,"ank":13233,"طول کش":13234,"مهم و ":13235,"کلیسا":13236,"و در نهایت ":13237,"oll":13238,"از دست رفته ":13239,"افغان ":13240,"پنجمین ":13241,"وب سایت های ":13242,"افغانستان و ":13243,"مؤث":13244,"کوچک، ":13245,"به ما کمک ":13246,"شدید، ":13247,"تلفن های ":13248,"پاکسازی ":13249,"لایحه ":13250,"بچه‌های ":13251,"سریع‌تر ":13252,"می آید، ":13253,"فرماندهی ":13254,"مناسبی برای ":13255,"ایران\n":13256,"آمریکایی‌ها ":13257,"گزینه‌های ":13258,"عبارتند از ":13259,"خاطرنشان ":13260,"رونق ":13261,"ماجراجویی ":13262,"فلوری":13263,"جذابیت ":13264,"(برای ":13265,"43":13266,"Cre":13267,"Gu":13268,"air":13269,"s در ":13270,"بده ":13271,"تنی":13272,"عال ":13273,"عطر ":13274,"نمی شود ":13275,"ارگ":13276,"ای کاش ":13277,"در سرتاسر ":13278,"از دیدگاه ":13279,"را «":13280,"خوشم":13281,"دادستان ":13282,"موزیک ":13283,"یک زندگی ":13284,"دارد؛ ":13285,"هم، ":13286,"گرایان ":13287,"دن و ":13288,"او را ب":13289,"لون ":13290,"لوئی":13291,"اگر آنها ":13292,"انجامی":13293,"متکی ":13294,"خواهد یافت.\n":13295,"کرده بود که ":13296,"که در یک ":13297,"در این شهر ":13298,"ممکن است این ":13299,"آورده است.\n":13300,"قوانی":13301,"چیزی برای ":13302,"دلش ":13303,"فعان ":13304,"فعلا ":13305,"زمانی است که ":13306,"نشر ":13307,"صحت ":13308,"پیش روی ":13309,"نمی خواهد ":13310,"زودرس ":13311,"شناسی و ":13312,"احساس راحتی ":13313,"شه.\n":13314,"ترکیه و ":13315,"مخف":13316,"ى که ":13317,"کرده‌ایم.\n":13318,"حفظ":13319,"ایشان را ":13320,"یابند.\n":13321,"آفرینش ":13322,"پذیرد.\n":13323,"آشامی":13324,"به همین دلیل، ":13325,"تاریخ و ":13326,"شکست خور":13327,"سرمایه گذاری در ":13328,"موجودی ":13329,"مواردی که ":13330,"فوتبال":13331,"سؤالات ":13332,"اساساً ":13333,"ریاضیات ":13334,"تجدید نظر ":13335,"گرایانه ":13336,"ثانویه ":13337,"ناخن ":13338," زن ":13339,"he":13340,"تستو":13341,"رقب":13342,"زغال ":13343,"سوری ":13344,"مادی ":13345,"ممل":13346,"نجو":13347,"ه\" ":13348,"۶۰۰":13349,"۷۵":13350,"“ ":13351,"ان» ":13352,"در انتظار ":13353,"در روزهای ":13354,"به زندگی ":13355,"به بازار ":13356,"از تمام ":13357,"برن":13358,"برانگی":13359,"می نماید.\n":13360,"کند؛ ":13361,"روبه ":13362,"روال ":13363,"ریخته ":13364,"دی.\n":13365,"می‌داد.\n":13366,"می‌کردم.\n":13367,"موز ":13368,"ما همه ":13369,"برای زنان ":13370,"برای سلامتی ":13371,"در، ":13372,"ه‌تر ":13373,"فتح ":13374,"زیم ":13375,"پی‌":13376,"خود ب":13377,"کاری و ":13378,": “":13379,"بازی، ":13380,"سال جاری ":13381,"استفاده کنید ":13382,"تصرف ":13383,"متغیر":13384,"خواهد شد که ":13385,"روز جمعه ":13386,"می تواند با ":13387,"الیسم ":13388,"کشور را ":13389,"به‌جای ":13390,"قبل و ":13391,"که به شما ":13392,"بوده است":13393,"تراژ":13394,"تحت پوشش ":13395,"خواسته های ":13396,"مخفی":13397,"می توانند از ":13398,"یادتان ":13399,"ایی‌":13400,"om ":13401,"شرکت‌کنندگان ":13402,"سخت است.\n":13403,"نمی­":13404,"اهداف":13405,"عراق، ":13406,"لذت بخش ":13407,"دوران کودکی ":13408,"مسائل مربوط به ":13409,"ign":13410,"زیرزمینی ":13411,"قدیمی ترین ":13412,"دولتی و ":13413,"نکاتی ":13414,"مشارکت در ":13415,"علی رغم ":13416,"لس آنجلس ":13417,"مفهومی ":13418,"شارژ":13419,"جسمانی ":13420,"سامانه ":13421,"بالایی از ":13422,"جریمه ":13423,"منظورم ":13424,"تجربه‌ی ":13425,"شجاع":13426,"اکتشاف":13427,"احمقانه ":13428,"همیشگی ":13429,"Intern":13430,"در غیر این صورت ":13431,"منفجر ":13432,"مجاهدین ":13433," بی":13434,"DS":13435,"Min":13436,"yt":13437,"اکر":13438,"بدو":13439,"تز ":13440,"حسی":13441,"رنج":13442,"كم":13443,"نحو":13444,"چس":13445,"۳۴":13446,"و بدون ":13447,"اسکی":13448,"در اکثر ":13449,"در اتاق ":13450,"به رسمیت ":13451,"، می توانید ":13452,"بره":13453,"برجست":13454,"می پرس":13455,"این خبر ":13456,"ستری ":13457,"تو، ":13458,"توالت ":13459,"یک کودک ":13460,"دوگانه ":13461,"دوم: ":13462,"نوبل ":13463,"ابل ":13464,"گرمای ":13465,"مردانه ":13466,"لاغ":13467,"من خیلی ":13468,"دانمارک ":13469,"کوه":13470,"سوابق ":13471,"احکام ":13472,"دو ساعت ":13473,"داشته اند.\n":13474,"تجارت":13475,"مه، ":13476,"مهلت ":13477,"می دهد":13478,"بسیار کم ":13479,"اضع ":13480,"پروفایل ":13481,"پودر ":13482,"ارائه شده توسط ":13483,"قابل دسترسی ":13484,"درباره این ":13485,"هایی که از ":13486,"بانیت ":13487,"عرص":13488,"دیدگاه":13489,"قطبی ":13490,"ادامه داد: ":13491,"آسانسور ":13492,"پایان دادن به ":13493,"آرشی":13494,"گفت: “":13495,"یوسف ":13496,"کسب و کار، ":13497,"rop":13498,"اشتباها":13499,"عضله ":13500,"موسیقی و ":13501,"قدیم ":13502,"این‌طور ":13503,"انواع مختلفی از ":13504,"ماشین آلات ":13505,"تریلیون ":13506,"160":13507,"سیاست‌":13508,"فرض کنید ":13509,"نامیده می شود.\n":13510,"جنسیتی ":13511,"منجر شود.\n":13512,"لینک های ":13513,"بین المللی، ":13514,"سیاه‌":13515,"مؤسسات ":13516,"تعلیم ":13517,"نرم‌افز":13518,"آزار و اذیت ":13519,"پراکنده ":13520,"بارسلونا ":13521,"فیس‌بوک ":13522,"منظومه ":13523,"ریچارد ":13524,"لپ تاپ ":13525," گی":13526,"CT":13527,"Cont":13528,"Em":13529,"IR":13530,"ef":13531,"تمایز ":13532,"حتا ":13533,"غول":13534,"قات، ":13535,"كت ":13536,"لبه ":13537,"وزی":13538,"يد.\n":13539,"یل":13540,"یای ":13541,"۹۹":13542,"اسید":13543,"ای با ":13544,"در مدرسه ":13545,"در بعضی ":13546,"را منتشر ":13547,"بره ":13548,"برداشت":13549,"می ترس":13550,"مواز":13551,"بیت‌":13552,"بابا ":13553,"شور و ":13554,"سید ":13555,"دهید تا ":13556,"س در ":13557,"آنها":13558,": اگر ":13559,"محترم ":13560,"کار کنند.\n":13561,"می کنم":13562,"گوار":13563,"اما یک ":13564,"مکان‌های ":13565,"دستش ":13566,"مهدی ":13567,"در این بازی ":13568,"تنها راه ":13569,"یکی از اولین ":13570,"حتی با ":13571,"پس از مرگ ":13572,"آن‌ها به ":13573,"نمودند.\n":13574,"شناختن ":13575,"گیری، ":13576,"کافه ":13577,"پیوست":13578,"فلزات ":13579,"هرگز از ":13580,"کرده‌ام.\n":13581,"می‌توانند به ":13582,"می‌گویم ":13583,"مطمئناً ":13584,"پایین تر ":13585,"نگه می‌":13586,"وب سایت شما ":13587,"فیزیکی و ":13588,"آسان تر ":13589,"دربارهٔ ":13590,"مورد نیاز است.\n":13591,"مورد، ":13592,"عکس‌های ":13593,"فرار از ":13594,"ربط ":13595,"احتیاط ":13596,"لزوما ":13597,"درحالی که ":13598,"اپلیکیشن":13599,"می‌سازد.\n":13600,"من فکر می کنم ":13601,"غلبه بر ":13602,"بورگ ":13603,"شما همچنین می توانید ":13604,"امتیازات ":13605,"Acc":13606,"دانش‌آموزان ":13607,"قهرمانان ":13608,"HTML":13609,"کاپیتان ":13610,"World ":13611,"توطئه ":13612,"لازم به ذکر ":13613,"پلت فرم ":13614,"AL":13615,"PE":13616,"au":13617,"son":13618,"ym":13619,"بش ":13620,"بپیوند":13621,"دمش":13622,"سنت":13623,"نمی شو":13624,"نشود، ":13625,"پدیدار ":13626,"ت را ":13627,"اندر ":13628,"اسامی ":13629,"در بازی ":13630,"در قرآن ":13631,"به ایران ":13632,"را تقویت ":13633,"خوابی ":13634,"خون و ":13635,"این تیم ":13636,"های آن ":13637,"ستیک ":13638,"دیز":13639,"رادیو":13640,"یک شبکه ":13641,"یک ابزار ":13642,"برای کودکان ":13643,"دوبار":13644,"مرخص":13645,"نا، ":13646,"محم":13647,"هر هفته ":13648,"بازداشت":13649,"را به ما ":13650,"تاژ ":13651,"بعلا":13652,"قرار دارد و ":13653,"وجود داشت.\n":13654,"دستکاری ":13655,"پایبند ":13656,"ممکن است باعث ":13657,"نقدی ":13658,"هراس ":13659,"مردم ایران ":13660,"است و نه ":13661,"رسید":13662,"وی همچنین ":13663,"ارائه دهندگان ":13664,"شروع به کار ":13665,"طراحی، ":13666,"نموده است.\n":13667,"راهکار ":13668,"بهتر است.\n":13669,"بروید ":13670,"خدای":13671,"نه\n":13672,"یوگا ":13673,"عملا ":13674,"یابد، ":13675,"بدانیم ":13676,"ing\n":13677,"شخصی که ":13678,"شوید\n":13679,"تابعیت ":13680,"لحظه ای ":13681,"انقلا":13682,"مؤمن":13683,"می‌رسد ":13684,"نخست‌":13685,"بهره وری ":13686,"چشمگیر ":13687,"شناسایی و ":13688,"با این حال ، ":13689,"پناهندگی ":13690,"بسکت":13691,"علاقمند ":13692,"بیاورد.\n":13693,"بحث و ":13694,"مجاز به ":13695,"جامعه‌ی ":13696,"برسید.\n":13697,"ترامپ در ":13698,"نگذار":13699,"گناهان ":13700,"اعطای ":13701,"قدمت ":13702,"کنسرت ":13703,"تمرین‌کنندگان ":13704,"متعهد به ":13705,"خداحافظی ":13706,"(از جمله ":13707,"42":13708,"Bu":13709,"Dat":13710,"Mo":13711,"آری ":13712,"آمیز":13713,"تبی":13714,"جما":13715,"ذاتی ":13716,"راس":13717,"رجو":13718,"سنگی ":13719,"شش":13720,"ضای":13721,"پارت":13722,"‏‏":13723,"اسم":13724,"به دلایل ":13725,"میگیر":13726,"را نادیده ":13727,"می باش":13728,"این ماده ":13729,"الین ":13730,"دیاب":13731,"یک از این ":13732,"با افراد ":13733,"شود؛ ":13734,"برای افرادی که ":13735,"زیرا در ":13736,"لاتی":13737,"منو ":13738,"ناحی":13739,"واژن ":13740,": من ":13741,"سون":13742,"آنها یک ":13743,"آنها را از ":13744,"یکسانی ":13745,"مورد بحث ":13746,"انجام می دهد.\n":13747,"پس انداز ":13748,"تجمع ":13749,"که در طول ":13750,"شدنی ":13751,"داده شود.\n":13752,"ائی":13753,"هیچ کاری ":13754,"خانه‌ای ":13755,"قوی و ":13756,"چیزی جز ":13757,"روزگار ":13758,"حتی از ":13759,"به‌شدت ":13760,"فوراً ":13761,"چند نفر ":13762,"جهان در ":13763,"فیلم، ":13764,"علایم ":13765,"جنبش":13766,"جنایت":13767,"نمی‌خواهم ":13768,"حیرت ":13769,"عرض":13770,"دیگری برای ":13771,"وجود دارد: ":13772,"شناور ":13773,"شه\n":13774,"همراه است.\n":13775,"آسمانی ":13776,"پارکینگ ":13777,"به نظر می ":13778,"به نظر می‌":13779,"تعداد کمی از ":13780,"دنیا را ":13781,"بدنه ":13782,"می دانند.\n":13783,"مسلط ":13784,"دیوار":13785,"می گوید: «":13786,"دوستانم ":13787,"به دنبال یک ":13788,"/ یا ":13789,"مهاجم ":13790,"پرسنل ":13791,"کیلومتر ":13792,"ایدز ":13793,"همسایگان ":13794,"قفسه ":13795,"مهربانی ":13796,"پاییز ":13797,"جابجایی ":13798,"سوالاتی ":13799,"غافل":13800,"زباله ":13801,"سرپرست ":13802,"کارآموزی ":13803,"منتخب ":13804,"ارقام ":13805," --":13806,">>":13807,"Bo":13808,"Vi":13809,"ment ":13810,"آهست":13811,"ئون ":13812,"بُ":13813,"خش":13814,"طلو":13815,"عضو":13816,"كرد ":13817,"کاک":13818,"۳۱":13819,"ارجاع ":13820,"به ارزش ":13821,"به وضوح ":13822,"که می تواند ":13823,"را و ":13824,"را مطالعه ":13825,"ستید ":13826,"الا ":13827,"دیم، ":13828,"داد؟\n":13829,"می‌کردند ":13830,"بیگان":13831,"یک خانه ":13832,"شوید":13833,"بوس":13834,"دره ":13835,"آن چیزی است که ":13836,"فرضیه ":13837,"خواهش ":13838,"ترس و ":13839,"د که این ":13840,"سرش ":13841,"گوار ":13842,"اما آیا ":13843,"شکل‌":13844,") (":13845,"تاپ":13846,"بارش ":13847,"فیل ":13848,"همه را ":13849,"اتش ":13850,"افتد.\n":13851,"است و از ":13852,"مصرفی ":13853,"به‌دست ":13854,"رفت، ":13855,"می‌دهند، ":13856,"رسیده‌":13857,"افزایش یافته ":13858,"نشنی":13859,"نمی خواه":13860,"رویداد":13861,"رویاهای ":13862,"خانواده":13863,"قلب و ":13864,"پذیرفتن ":13865,"شهری":13866,"بدن انسان ":13867,"یوتی":13868,"سرمایه گذار ":13869,"il ":13870,"تخمک ":13871,"معنایی ":13872,"کهکش":13873,"مؤمنین ":13874,"تفاوت های ":13875,"نسخه های ":13876,"سرمایه‌گذاران ":13877,"ational ":13878,"از سوی دیگر ":13879,"قدرتمند":13880,"کارت های ":13881,"نگرانی های ":13882,"ویروسی ":13883,"می‌برند.\n":13884,"بسازید.\n":13885,"درمانگر ":13886,"ماجرای ":13887,"سخت‌":13888," کیلومتری ":13889,"نيز ":13890,"غذاها ":13891,"رسیدگی به ":13892,"طرح‌های ":13893,"ناوگان ":13894,"شجاعت ":13895,"متناسب با ":13896,"موسوم به ":13897,"پنتاگون ":13898,"جرایم ":13899," ژوئیه ":13900,"((":13901,"B-":13902,"Gal":13903,"SA":13904,"c ":13905,"iel":13906,"ian ":13907,"pres":13908,"اکس":13909,"جو در ":13910,"خفیف ":13911,"رقی":13912,"شبی":13913,"لور":13914,"مزار":13915,"نکردند.\n":13916,"پاش":13917,"‌آمیز ":13918,"ی خود ":13919,"ایزو":13920,"در قسمت ":13921,"در کانادا ":13922,"را توضیح ":13923,"بران":13924,"خوراک ":13925,"این چنین ":13926,"این ویژگی ":13927,"ریز ":13928,"دینامی":13929,"ها استفاده ":13930,"می‌ترس":13931,"می‌کنیم و ":13932,"نی‌":13933,"ما در مورد ":13934,"برای درک ":13935,"درآمد":13936,"نگری":13937,"فاک":13938,"مندی":13939,"ترف":13940,"شده است؟\n":13941,"بر او ":13942,"بر این است که ":13943,"او گفت: «":13944,"اما برای ":13945,"آنها باید ":13946,"را به وجود ":13947,"اگر من ":13948,"یکی، ":13949,"می‌کنم، ":13950,"کمدی ":13951,"مقدم":13952,"قرار دارند، ":13953,"دو ماه ":13954,"پس چرا ":13955,"کردند\n":13956,"بودج":13957,"رسان ":13958,"ه، و ":13959,"مجارستان ":13960,"در این حالت ":13961,"مدت‌ها ":13962,"گفتم که ":13963,"آزار":13964,"قومی ":13965,"اروپای":13966,"بینش ":13967,"قطره ":13968,"حرکتی ":13969,"ition":13970,"پول و ":13971,"تیم ملی ":13972,"خلقت ":13973,"محتویات ":13974,"جانسون ":13975,"دوستان":13976,"منابع انسانی ":13977,"سریع تر ":13978,"فارکس ":13979,"ماشین های ":13980,"رسانه‌ها ":13981,"سنگینی ":13982,"عصبانیت ":13983,"محدود به ":13984,"رسانه ها ":13985,"می روند.\n":13986,"بعضی اوقات ":13987,"عقاید ":13988,"فرمود: «":13989,"آلومی":13990,"پاسخگو ":13991,"طلای ":13992,"بیماران مبتلا به ":13993,"خویش":13994,"رشته های ":13995,"خالق ":13996,"هورمونی ":13997,"ندارید، ":13998,"امکان‌پذیر ":13999,"كرده ":14000,"برخوردار است.\n":14001,"زودتر از ":14002,"مکانیک ":14003,"Word":14004,"نظرتان ":14005,"ایالات‌":14006,"خانواده‌اش ":14007,"تعویق ":14008,"هر یک از این ":14009,"نوآورانه ":14010,"مرگ و میر ":14011,"باقیمانده ":14012,"صرف نظر از ":14013," صبح ":14014,"(علیه السلام":14015,"96":14016,"Met":14017,"ain ":14018,"io":14019,"pr":14020,"آدا":14021,"آباد ":14022,"بمیر":14023,"تسریع ":14024,"رکود ":14025,"س: ":14026,"ق\n":14027,"لنز":14028,"نان":14029,"نای ":14030,"انبار ":14031,"در درون ":14032,"به طرز ":14033,"از «":14034,"میشوند.\n":14035,"را بیشتر ":14036,"برگرفته ":14037,"می کرد، ":14038,"می گذر":14039,"این حقیقت ":14040,"ریك":14041,"ند (":14042,"باخت":14043,"باهو":14044,"باکس ":14045,"با دو ":14046,"کره‌":14047,"د، که ":14048,"آنج":14049,"شما چه ":14050,"باشید تا ":14051,"منته":14052,"بازه ":14053,"اجس":14054,"را به این ":14055,"هیپو":14056,"مورد مطالعه ":14057,"در حمای":14058,"انجام آن ":14059,"دست پیدا ":14060,"- از ":14061,"آزاد و ":14062,"پوش ":14063,"کل، ":14064,"از این طریق ":14065,"خانه و ":14066,"جدید را ":14067,"تلف ":14068,"تو و ":14069,"همان اندازه ":14070,"همان چیزی است که ":14071,"طول می‌":14072,"مهم این است که ":14073,"بانان ":14074,"به شما امکان ":14075,"انسان و ":14076,"بر روی آن ":14077,"اجازه نده":14078,"اختی":14079,"دیده می شود.\n":14080,"itt":14081,"دقیق و ":14082,"تیم های ":14083,"کرده‌اند و ":14084,"محتوایی ":14085,"می‌توانند از ":14086,"ild":14087,"189":14088,"کنند .\n":14089,"آن‌قدر ":14090,"مادر و ":14091,"own":14092,"یونانی ":14093,"حدودا ":14094,"استیو ":14095,"برقراری ارتباط ":14096,"الهام بخش ":14097,"دست‌کم ":14098,"لامپ ":14099,"چشم‌انداز ":14100,"بیاموز":14101,"باقی مانده است.\n":14102,"عظیمی ":14103,"تقویم ":14104,"ارمنستان ":14105,"usiness ":14106,"72":14107,"Aut":14108,"Joh":14109,"SP":14110,"se":14111,"«این ":14112,"«ما ":14113,"تشان ":14114,"خب، ":14115,"ذات ":14116,"ربوده ":14117,"سم، ":14118,"قله ":14119,"نجی":14120,"ه­ ":14121,"در کار ":14122,"در خارج از ":14123,"در بیمارستان ":14124,"را تهدید ":14125,"برخی":14126,"رویا ":14127,"املا":14128,"الآن ":14129,"می‌خواستم ":14130,"یک «":14131,"سیلو":14132,"افق ":14133,"لیتر ":14134,"گرسنگ":14135,"آنها.\n":14136,"فتگی ":14137,"خود است.\n":14138,"منحرف ":14139,"نابین":14140,"سونی ":14141,"سودان ":14142,"سون، ":14143,"آنها را با ":14144,"بهش ":14145,"قرار بگیر":14146,"همه اینها ":14147,"می‌شود تا ":14148,"تجدید":14149,"هاي":14150,"نامه های ":14151,"راه آهن ":14152,"شمشیر ":14153,"کردن آن ":14154,"آورد و ":14155,"فعل ":14156,"الیز ":14157,"ندارند":14158,"نداریم ":14159,"گاهی در ":14160,"دنت ":14161,"فواید ":14162,"افراد با ":14163,"در سال گذشته ":14164,"را از آن ":14165,"تشریح ":14166,"گرفته شده است.\n":14167,"شدن و ":14168,"شدن با ":14169,"نیست .\n":14170,"\" را ":14171,"بود که در ":14172,"بزرگ است.\n":14173,"نمودن ":14174,"نمود که ":14175,"بعد از ظهر ":14176,"انجام دهیم.\n":14177,"آموزش دیده ":14178,"عموماً ":14179,"بدهم.\n":14180,"اغلب با ":14181,"واقعی است.\n":14182,"ell ":14183,"چنين ":14184,"، و همچنین ":14185,"کنند؛ ":14186,"مبارک ":14187,"سعی در ":14188,"منتشر شده ":14189,"حواس ":14190,"می کنند ، ":14191,"را می‌شناس":14192,"قرن نوز":14193,"رسانه ای ":14194,"موقعیت های ":14195,"خطرناک":14196,"app":14197,"غلظ":14198,"شانسی ":14199,"حلال ":14200,"دسته بندی ":14201,"اتصالات ":14202,"پرین":14203,"بخشیدن به ":14204,"بانک‌های ":14205,"فراموش نکنید که ":14206,"صرفه جویی ":14207,"اقلیمی ":14208,"علاقه مند به ":14209,"بغداد ":14210,"آماده‌":14211,"i-F":14212,"عباس ":14213,"پیوستن به ":14214,"لیسانس ":14215,"حکمت ":14216," ب":14217,"DV":14218,"Fin":14219,"HP ":14220,"MA":14221,"Sup":14222,"a و ":14223,"ys":14224,"آشو":14225,"بق ":14226,"تداخل ":14227,"حام":14228,"خان ":14229,"شگر":14230,"عَ":14231,"فست":14232,"گند":14233,"در زمین ":14234,"به نوعی ":14235,"، من ":14236,"، یکی از ":14237,"می ­":14238,"می کنیم و ":14239,"خواند.\n":14240,"روان‌":14241,"است) ":14242,"توج":14243,"دین":14244,"می‌پرس":14245,"بیاید ":14246,"با موفقیت ":14247,"برای اجرای ":14248,"دهه‌ی ":14249,"لیوان ":14250,"ه‌هایی که ":14251,"یا خدمات ":14252,"شما می خواهید ":14253,"باشیم":14254,"فرد به ":14255,"د که چگونه ":14256,"واجب ":14257,"معادن ":14258,"هستی":14259,"جوان و ":14260,"سوق ":14261,"مایعات ":14262,"آنها هم ":14263,"قرار دارد ":14264,"قرار می دهد.\n":14265,"...»\n":14266,"می دهند که ":14267,"پایداری ":14268,"افراطی ":14269,"نقل از ":14270,"گفت:\n":14271,"eric":14272,"بود اما ":14273,"روز\n":14274,"به طور فزاینده ":14275,"ong":14276,"فورا ":14277,"آن را برای ":14278,"وی به ":14279,"که به صورت ":14280,"با این کار ":14281,"محصولی ":14282,"خدا به ":14283,"کتاب مقدس ":14284,"آب در ":14285,"صفات ":14286,"مناسب":14287,"ماهر ":14288,"بحرین ":14289,"درست مانند ":14290,"پاسخ به این ":14291,"نه؟\n":14292,"roup":14293,"غیرنظامی ":14294,"ویژه ای ":14295,"آموزش، ":14296,"می‌دانند.\n":14297,"جای تعجب ":14298,"جزئی ":14299,"‌هایی که در ":14300,"روابط":14301,"بخشی از این ":14302,"اعتماد و ":14303,"حرف می‌ز":14304,"محافظه‌":14305,"کریس ":14306,"زنده ماندن ":14307,"خصوصا ":14308,"آرام و ":14309,"شدیم.\n":14310,"نشان می‌دهند که ":14311,"اعتقادات ":14312,"کشته شدن ":14313,"افسرده ":14314,"گذاشت ":14315,"برای انجام این کار ":14316,"نژادی ":14317,"بسي":14318,"این نوع از ":14319,"به اشتراک گذاشتن ":14320,"عیسی مسیح ":14321,"صداهای ":14322,"بخوانید.\n":14323,"مستقل از ":14324,"ژنتیک ":14325,"کلمبیا ":14326,"دندانپزشک ":14327,"جملات ":14328,"فیلیپین ":14329,"تفریح ":14330,"گمراه ":14331,"ــــــــ":14332,"بنگلاد":14333,"اثربخشی ":14334,"شبکه‌های اجتماعی ":14335,"غروب ":14336,"پیروی از ":14337,"هر زمان که ":14338,"کنسول ":14339,"قسمتی از ":14340,"اعلامیه ":14341,"انتشارات ":14342,"به جزیره ":14343,"360":14344,"B\n":14345,"Gre":14346,"NG":14347,"Vis":14348,"شستن ":14349,"ظال":14350,"قای":14351,"كر ":14352,"ل‌ ":14353,"پخته ":14354,"‌ و ":14355,"این داستان ":14356,"روبات ":14357,"دیگ":14358,"داغ":14359,"نیسم ":14360,"ما می خواهیم ":14361,"برای کار ":14362,"کری ":14363,"دهک":14364,"دارید\n":14365,"افری":14366,"همهٔ ":14367,"نوک ":14368,"ه‌ها در ":14369,"آن قدر ":14370,"لی به ":14371,"سری از ":14372,"او در سال ":14373,"بازده ":14374,"باید آن را ":14375,"اگر با ":14376,"جهش ":14377,"انجام دادن ":14378,"روی این ":14379,"همه افراد ":14380,"شنبه، ":14381,"مسمو":14382,"وقفه ":14383,"مجزا ":14384,"مجروح ":14385,"پایه و ":14386,"هوا و ":14387,"گفتم: ":14388,"داده شده ":14389,"همچنین ممکن است ":14390,"در حال حرکت ":14391,"بازی با ":14392,"م که این ":14393,"استفاده از آن ":14394,"خواهید بود.\n":14395,"می‌تواند از ":14396,"رویه ":14397,"کشورش ":14398,"خواهند داد.\n":14399,"همیشه از ":14400,
[...]
