#version: 0.2
a n
e r
e n
  d
  m
a r
a t
  p
an g
a k
i n
  s
a s
a l
  k
a h
  t
. 

e m
  b
a m
u n
 d i
e l
 m en
a d
k an
t u
y a
s i
  P
a p
o n
  y
  S
 y ang
e b
i l
g a
  K
o r
 d an
e s
i k
en g
i s
 t er
u r
u t
  B
 b er
i t
  l
in g
u s
e k
  A
u m
e t
as i
  M
ak an
o l
 men g
ad a
ar a
un g
 p er
u k
ar i
em b
a b
n ya
 k e
  (
  J
  h
a i
i m
  T
  I
o m
u l
  D
i d
2 0
i r
t a
  j
  in
  R
tu k
  un
al am
20 2
 s e
 un tuk
u d
i tu
i h
 p en
  r
eng an
at a
t i
a g
a w
u p
 d engan
at an
 m em
ang an
e g
  -
 in i
 d ari
ad i
e si
am a
o k
i a
  W
  itu
" ,
r o
u h
 d alam
 p ada
an t
e d
  H
  G
 I n
  n
e p
 m el
an d
a ga
  C
i an
a ya
  N
 s eb
am p
u kan
en t
  L
 m emb
 m er
a y
  U
al i
eb ut
r i
 men j
p er
e h
  g
 ter s
id ak
  w
 men y
u b
 p em
er i
a j
a in
 In d
  c
i si
al ah
el ah
a an
u ga
 t idak
o t
w a
ang k
en d
u a
) .

i b
u an
on esi
  akan
onesi a
 ters ebut
 p eng
 Ind onesia
  F
ah an
as a
 ke p
em p
aga i
ar an
u j
n n
am b
a at
p nn
j pnn
an j
o ta
 j uga
an a
 P er
at akan
c om
ang g
at i
. com
 s el
 W I
 WI B
t r
u si
 men d
ah un
 p ro
 b ah
ak ukan
am i
 m as
in t
or ang
g i
o b
an ya
an y
  E
al u
 k ata
ap at
ol eh
r a
ag i
 menj adi
ar ga
c ara
 P r
ak ar
  f
as an
al an
 meng atakan
j a
ung an
t er
h ad
ek a
 s aat
al a
is a
 bah wa
at u
ik a
 s ek
d a
  ad
 p el
 s er
  ak
 seb agai
eb ih
  oleh
 t elah
on g
ing k
  ada
 t ahun
en a
i p
it as
ap a
o s
u tu
am an
n i
akar ta
y ar
 k ar
e w
 k on
 s et
ud ah
 b isa
ap i
 di l
  O
eg ara
 k et
it a
on al
A R
  ata
r an
0 0
l ah
 k em
ar u
ing ga
ar t
 kep ada
 ata u
ing g
in d
in ya
as il
 l ebih
 K e
 A n
ak at
o w
ak u
r es
 mer eka
 per t
 men c
ung k
in a
 p emb
 J akarta
  "
g r
el um
ur ut
es ar
  orang
eb er
d en
 s atu
 di s
 s em
 S el
yar akat
 ber s
o d
a ik
 P ol
  Y
o si
 s udah
any ak
o p
emp at
aw a
 kar ena
 per s
im p
 di b
er int
 ber k
ir i
 k el
er ah
er ja
 ad alah
T A
 k es
 di t
 k ami
o g
 p ara
i ga
 K ota
 ber b
 pen y
 mas yarakat
ap an
  an
or m
 mel akukan
 I s
il ik
emb er
esi den
ab u
asi h
b an
 h ari
 p as
 l ain
ang s
aw an
  uj
at kan
 se j
 P em
a c
ar ang
is t
o h
u at
ak s
had ap
ar kan
e j
il ih
ai kan
ar us
um at
A K
1 0
in i
ap kan
 n egara
es t
 ter hadap
 meng g
eri kan
im a
om p
 di k
 mem per
 t et
  at
i kan
 b agi
 p r
 ter b
asi onal
erint ah
i c
 d apat
j adi
 uj ar
 k or
 di a
ar at
en c
AR TA
AK ARTA
 T im
up at
um lah
k a
S el
 se cara
uh an
d ang
ur an
gr am
 h ingga
m as
ab upat
abupat en
d uk
  as
am is
eng ah
um ah
 J AKARTA
  v
h ir
un j
en in
eber apa
us ah
M en
anj ut
up akan
en si
e c
ing an
as kan
  V
ih ak
per ti
) ,
D ia
 set elah
o v
 mer upakan
ang at
 p ol
angk a
1 2
 C h
 d ua
usi a
 se perti
an tu
ay ah
 b aru
P P
 s aya
 S ur
 k eb
er n
ul an
uk a
1 9
 w arga
tu a
em ent
al on
 m asih
 K abupaten
s es
 p un
  ag
 h arus
 A S
 dil akukan
  ek
A N
1 1
 b eberapa
 ser ta
a erah
as us
em en
ti f
 memb erikan
 A g
ilik i
um p
er a
alu i
 an ak
 pen d
am un
angs ung
il an
 b anyak
  ant
an c
u ang
e kan
eng g
 J awa
uk um
art ai
ay an
 A m
 A l
ra el
it ik
s t
il ayah
 P ro
 kor ban
 l alu
 di p
 h anya
 at as
 p ihak
ol o
 b esar
ik asi
t or
tu r
 ber h
 s u
d i
u ah
 M ar
un an
in an
P er
u ar
 di g
 mem iliki
 r umah
ap or
 bers ama
f orm
e a
ingg u
ag ian
ti kan
ow o
 P il
 ter jadi
a f
ur uh
 t im
 B ali
 se h
er angan
 P en
. jpnn
 sel ama
it ar
i g
t ing
 b aik
 mel alui
 ber l
u c
e v
 s angat
im b
 Is rael
ak si
un ia
emb ali
u g
an i
ul ai
 U n
 k er
Men urut
 s alah
on s
 B er
 ke d
 k asus
w an
in ta
m an
 A r
1 5
il ai
 w ak
ka it
 w ilayah
ang kan
 D es
el ar
 s en
ik ut
i ap
 ber t
e i
K ami
p a
 pem erintah
amp aikan
 D P
ed ia
ab tu
 R p
 K om
 Pr esiden
 B and
aj a
un akan
ga w
 k ita
 R abu
 meng h
N amun
 S enin
 m il
 Sel asa
a u
 s ama
 t ent
un c
  al
ah u
 ter l
 tet api
um b
l u
 B arat
ab owo
  ap
  angg
 K ep
 ter us
 seb elum
 k om
ot o
 K amis
 di r
 ter kait
 k embali
is asi
h an
utu s
ad an
ut an
 pers en
ih at
 k ek
 sek itar
S eb
k r
ud a
ter n
 ke c
 h al
ud i
 men ingk
1 6
 h ukum
un ya
 sel uruh
t ri
ant o
3 0
ung g
on om
i j
 mend apat
ar k
 ag ar
ud ian
1 4
 Pr abowo
a z
k ada
 berb agai
ar ah
 per n
 di d
 se p
1 7
 p es
 t ak
 t iga
id ikan
 ter d
at ih
ingg al
l ik
at ang
om or
 d aerah
er ik
m i
am atan
  o
ab at
s p
 J umat
 t an
en tu
 h asil
 P T
ul i
ep an
j u
up aya
ur u
 pro gram
ab ar
 menj el
ah kan
 seb uah
 Sel atan
m en
P K
y ata
 lain nya
1 3
 S t
mas uk
1 8
eg eri
uk ung
e tu
i f
ent eri
eh atan
 s amp
as ar
ap ai
i z
ub ern
ubern ur
usah aan
 c alon
 d unia
- b
 meny ebut
 di per
u ari
 pro duk
2 1
2 3
s a
ut a
un d
 b elum
ai r
form asi
t as
osi al
 U t
olo gi
 pert ama
 ant ara
 Ke tua
er si
ab aya
 tent ang
 R I
il u
ar is
an ti
 se dang
 A p
 s es
er ian
l i
 T er
ing gi
 Sur abaya
ut ama
an k
 k erja
amp ak
 pen ting
ing in
 meng had
M K
e f
 r es
 d em
 k h
m ad
ayan an
it er
 Ag us
el as
ok asi
 Band ung
r il
 memb uat
ol ah
 sem ua
id ang
ilih an
 P eng
 ter masuk
n as
ek erja
aman an
 K or
alam i
 sej umlah
 pel aku
 mem as
 ber j
 Tim ur
 ber d
in si
atan ya
 l angsung
2 5
 s t
ara an
ak in
" .

um um
imp in
  Z
ati f
ib at
r e
 d epan
D alam
S aya
u as
ak it
P U
ungk ap
u al
 sej ak
 ber p
 m an
ak hir
 pen c
us us
 T engah
si a
ant an
 b i
es k
 ked ua
 angg ota
unj uk
 ter p
 k atanya
D i
  a
ti v
and a
ant or
 Pil kada
 k ali
 men er
aw at
 b agian
ang unan
ep at
 su ara
 wak tu
as is
 DP R
 se orang
is tr
ib u
A S
ak a
 di m
2 2
emp uan
 P artai
 mend ukung
 b ulan
 U m
 S em
 Ke c
enc ana
 M inggu
 T h
 pol itik
 Ch ina
 M en
Sel ain
on o
 seh ingga
un i
 peng g
us tr
ai an
g as
c h
 A s
 S abtu
 T r
 Per t
er ika
 t empat
ak il
 P al
 meng aku
us at
ar g
ir ek
  ya
er ang
 ser angan
 meny ampaikan
 ak hir
utus an
 k ota
 O k
at im
 m ulai
20 1
on t
ek si
l in
ek n
aw asan
2 4
aks an
 meningk atkan
d in
 s aja
 pro ses
 J ok
onom i
P ada
 per usahaan
P N
omp ok
 l agi
ingk at
- s
ob a
ob er
 kon s
em ukan
 M al
 in d
B er
  aw
e o
 M enteri
 P el
D I
eng k
 ket ika
ar d
 b el
  [
 M as
ala u
 s osial
ub lik
 mengg unakan
 N ov
S I
 k amp
 Per si
 se g
 s ur
 m alam
 j uta
ar n
ak ni
 P as
ga j
P em
 Am erika
 kes ehatan
u arga
 S ep
usah a
N I
ot or
uk ungan
P en
v insi
 menjel askan
id up
eg i
or t
o al
er al
 t inggi
 y akni
 m edia
ob il
ad ir
t ober
 Um um
 m in
 pem ain
 tet ap
 b ukan
antu an
 meng en
 Ok tober
 ke gi
per asi
I n
un a
al kan
ab il
 kegi atan
 U ni
  ingin
 ket erangan
up un
ar ap
 m a
al ing
H al
 di ri
i v
at or
K et
ement erian
 Pol res
tu s
 l anjut
  air
 Kec amatan
 b en
 m asa
uk ul
U n
us an
anj ang
angk ah
k o
r at
t ar
az a
 ters angka
 ber ada
  upaya
in al
c a
 R usia
 P PP
er s
angk ap
2 7
 mendapat kan
 kem udian
 l uar
ow i
 mas uk
 sek ali
uk ti
 samp ai
ol a
ahan an
 Nov ember
  apa
 ses u
apor an
 di h
ul a
l e
 pr esiden
 p ut
 menc apai
I ni
ga b
 G ubernur
ir an
 J an
up si
ur n
 J uli
ingk ungan
o y
ap ol
 sebelum nya
 Un it
00 0
t im
 kh usus
- p
 m akan
amb il
y at
 k ur
 p osi
 kon d
 men unjuk
ib ran
 S h
 Sem arang
ement ara
  en
ak al
it men
? 

 a cara
 t ran
 per empuan
  uc
 d ukungan
 j elas
 G aza
og or
ur kan
ungk in
 k omp
 M ah
ad ilan
 P ut
ak i
uh i
 m usi
 k awasan
irek tur
v ersi
 k end
 M an
 B ogor
ed a
j ata
il m
y ah
us tri
Sel asa
 peny el
or ong
M er
ang i
 j alan
 pas angan
S ementara
 memb antu
 j adi
 Ut ara
any e
 h ak
 A d
 n omor
 Agus tus
 meny atakan
 N asional
 p ukul
 peng h
 meng alami
it al
amb ah
utu r
om b
 per k
 J uni
P r
o c
 ter akhir
 in tern
it an
R I
er ta
R abu
end iri
 menunjuk kan
t ember
A n
 b antuan
 memas tikan
2 9
u atan
 J alan
aya an
2 8
em uan
 Sep tember
 j ika
i ar
J umat
K amis
 T ahun
ul ang
em an
 l okasi
 Des ember
aw ah
 Des a
 ek onomi
2 6
r esi
od e
 M ei
 kel uarga
on d
- k
ol isi
aw ab
 PPP K
 g amb
em a
er j
ang un
 mem inta
e y
a ut
 uc ap
 j umlah
 ber m
at eng
 An g
 berl angsung
eb r
 d in
 t engah
 k ap
j en
uk ai
t o
is n
F oto
ur un
 Ap ril
 men inggal
 berh asil
er b
 Jan uari
 K ementerian
aj u
ub ungan
f aat
" K
ul u
 s i
 set iap
apor kan
 N egeri
ot ensi
ahu i
S enin
 t r
umb er
 s tr
 aw al
o or
yata an
 mem p
 m ana
 l aga
eb ab
 ma upun
 A b
 Unit ed
 Pol da
ang ga
 as al
 t ind
ungk apkan
d ul
ed i
K ep
en angan
ai m
Mer eka
S et
" Kami
 D ep
 r ek
 S ub
 p artai
  empat
] 

is ata
  ia
 ujar nya
 Kep ala
 pol isi
 s oal
 mel ihat
 S ek
ir kan
em u
a v
 t ekn
 sesu ai
et ahui
 pihak nya
 m obil
 k l
as arkan
 berh arap
 seb esar
K e
 per b
 K al
ung i
uj an
) 

r asi
 A k
K I
ai h
uga an
 res mi
ew an
 pern ah
 men urut
emb angan
 P DI
 mem en
 p et
 kel ompok
k ar
- an
u angan
ul kan
up ati
kr ain
 gamb ar
K B
 ter k
ij akan
J adi
krain a
  ungkap
 S um
 mil iter
 s endiri
ur a
 kond isi
 B adan
 b ekerja
ak yat
 t angg
and ingan
 Mar et
 s k
 L iga
 Uni versi
 H ar
 A h
  utama
 k r
un t
ikut i
 h adir
 n asional
 I r
asis wa
  ar
istr ik
 H ari
s el
 per d
er d
 A sia
 l ingkungan
 in formasi
 K h
anj ar
 l aporan
etu gas
ew as
up a
amp ung
ist em
 per j
id en
 tan pa
 P i
 ya itu
 kend araan
emb aga
 ad anya
im ana
 per lu
 D aerah
 d ek
0 8
 menj alan
- l
P S
 Jok owi
 U kraina
P el
 b arang
uk up
angk at
e gaw
ab or
or g
and ing
0 7
- t
at eg
ej abat
arg et
ad e
 W akil
 per m
  &
l im
 memper k
 mener ima
er gi
et er
 b akal
 seb anyak
 K el
K em
 Pro vinsi
ent ara
aran ya
 Tim nas
amp u
on or
 H am
 l ayanan
alam an
  X
P B
 M uh
 pen j
s ek
 k eber
et a
aga imana
us ai
 p ar
el it
 ke amanan
imp inan
  uang
 d ugaan
al ia
 meng ungkapkan
adi on
ap un
 kon f
" S
ia ya
id ana
e z
 S at
 mengen ai
v est
h am
 S uk
 mel awan
 t uj
 dir inya
 p aling
A d
ir im
AN G
am at
emb ang
 memb awa
aksan akan
 s at
erik at
 ind ustri
il ang
 mengg elar
ud ara
 d ok
 k ini
r is
 mas alah
  umum
 pend idikan
en ang
t ik
ung si
 Pem ilu
3 1
 menj aga
atih an
5 0
erint ahan
 kep ala
 S erikat
um en
 per ang
 T NI
is m
 men gaj
ga g
 m uda
 s p
aj ar
 Kor ea
 Tr ump
 d es
 menghad api
ed ung
isn is
ni es
h i
 p l
id ik
 b awah
 pert andingan
utu han
 ber g
ap res
 l ima
 D en
 S ul
 Kom isi
T er
g us
 c ukup
on i
f i
ap ua
 n ama
ua ca
0 9
 I I
 Pi ala
I a
 pemb angunan
 L eb
al nya
Ke tua
oor din
f r
 I ran
A M
 A ir
 sem entara
 seg era
-an ak
h a
 D em
 sur at
at ian
 l angkah
P ro
 K PU
 pel angg
est ina
or i
 meny el
r et
 m ah
 kamp anye
 h arga
ant ai
  urut
u ara
int as
 m ungkin
K N
P eng
st itu
 di ter
 sen jata
erj aan
 ak ibat
 se d
A da
 s itu
eg al
 b ukti
 o f
 P ak
 n egeri
P ara
tu m
ia u
 d ata
uk u
 ke h
s aan
20 0
angs a
an an
 P usat
ub ahan
 P apua
 dig elar
 mem ang
 pern yataan
 keb ijakan
 t utur
un tu
 m ampu
ir a
- n
 B r
 ber in
0 5
 men eg
 P end
  op
utu h
 sek olah
 St adion
el ak
 S o
 k en
 m antan
b usi
S abtu
 An da
 s istem
 P B
 di j
 P emb
  on
 intern asional
D engan
ant en
 keb utuhan
uj u
ual itas
si p
0 6
  '
 t ingkat
 P S
 k ol
 ter j
 j am
at ur
ok us
 Universi tas
 D in
- h
 K es
aks a
ag u
  em
i cara
 Pal estina
Kep ala
A B
 p ejabat
ul it
lin e
 p ekan
um i
 l ama
 s iap
 R es
emp atan
 An d
 mil iar
- G
esk i
Set elah
 b al
 h idup
et apkan
 Pem erintah
Ket erangan
 pem ilu
 k al
er an
 m ilik
 G ol
arga an
id eo
ad w
 d atang
S aat
 C ukai
 ber si
 pun ya
 S olo
 E k
 K em
 F ebr
 l ap
m in
 K emen
ju angan
 ber n
e al
el l
ed an
 mend orong
 sekali gus
al ur
amb ahkan
eb at
 E n
oh on
ark oba
 m od
 in t
erik saan
p res
Un tuk
ingk atan
 Pen y
 makan an
y o
and ang
en aga
 Pol ri
 h ujan
 A ri
 N egara
 akhir nya
 S p
end eral
un ga
 Ah mad
 S et
 A c
 did uga
 s akit
 bah kan
 Dep ok
en is
ib atkan
jadi an
et ak
 W id
 p ublik
 wak il
ar in
 mend atang
 tan ah
f t
l ob
am ah
 m otor
 pem erintahan
 pem impin
 Per s
  aman
 K PK
eng ar
 A nies
 Febr uari
  el
ar ik
K P
o in
ong an
 kon t
i anto
 D irektur
 In tern
tr uk
 men ilai
 l istrik
duk ung
 G r
 ke jadian
 J ep
 p an
 m ew
  Q
0 1
e orang
 r ibu
onor er
lob al
 G er
 dig unakan
 K antor
m a
angg ung
 In i
 g uru
 c ara
E N
0 4
at at
amb ang
 meneg askan
 ter t
 dit emukan
amp il
0 2
a uh
si s
tiv itas
l y
am mad
ol usi
 men ambahkan
uk i
 per l
uan ya
abor asi
 B as
ada an
 pas ar
 berj alan
am ina
 ber as
 men uju
 di c
 k alau
en ar
er asan
 K eb
un aan
 kap al
en al
emb ak
anj ir
 S en
ut i
 In g
f ikasi
isi al
it y
ur i
 tekn ologi
 N omor
 J atim
  ibu
 men t
uj ud
engg ara
 p etugas
an isasi
eg itu
ebab kan
 t ewas
 D KI
 G anjar
 N us
Ad apun
 pes erta
 b isnis
 ak si
U R
ok rasi
in c
olisi an
M I
u asa
t an
 b at
 ek s
l on
 p il
 s empat
 Ham as
i ah
 per i
j o
/ jpnn
ro pa
erah kan
p or
 p ri
 kom itmen
 B anten
 ter utama
 seb agian
 pem eriksaan
aj i
0 3
 mer aih
 k antor
ari an
 kom un
ot al
 terb aik
 t ahu
alan an
A p
 M et
 sek tor
ip un
 sem akin
P as
 peri ode
esk ipun
 dib erikan
 B upati
M inggu
er asi
 J aya
ad ah
Kem udian
kr im
or o
 E ropa
aj aran
ant ara
 r asa
 G un
 per c
 musi m
MK M
j atim
 berin isial
is k
 Sub ianto
 g ol
 c epat
Seb elum
 Persi b
A k
 Jep ang
 h ubungan
- m
 p otensi
l am
um as
 c uaca
abil itas
 kor upsi
 t eg
 p ak
 sel alu
amp ir
anjut an
 meng ikuti
ad ang
 ket iga
 memb angun
ok al
- M
D ari
 per ubahan
 R am
 B ank
 B ea
 dig ital
el i
 r akyat
ip il
 meningk at
ub ah
j abar
ar akan
ati on
 dis ampaikan
resi asi
 t ok
or itas
 J enderal
 ber tu
 R ep
end a
 g r
anjut kan
P ol
ak ah
or e
is ti
ol ak
N G
n y
 ber usia
ul asi
 kep utusan
 B aru
 pem ilihan
amb ut
 J abar
asil itas
  ef
 pert emuan
  usaha
 f ilm
gr is
 tind akan
am in
 J ateng
og y
al l
af tar
S ek
U M
y ek
ar ta
b u
 memb eri
k y
ant as
 ben tuk
 K r
 F C
el a
angg ap
 dis ebut
vest asi
o kan
 mah asiswa
h o
an s
 kes empatan
 kem enangan
A l
 B iden
y ak
A T
 meng el
at asan
 j ar
 j auh
 pen ingkatan
 perj alanan
P R
id at
ek s
4 0
 j enis
ac h
 n anti
aj ang
utu p
ug as
 tran s
 p ul
 des a
at angan
 ter c
um si
 T an
tri busi
elak aan
  ikut
 v ideo
 terp ilih
 terb aru
 Din as
 dek at
er t
 Ag ung
 posi si
el awan
alah an
ar apkan
ov asi
l ikasi
 mem ilih
 memb uka
umum kan
 en am
-G ibran
 f orm
 b ahan
 meng ambil
 se usai
 E l
utuh kan
 k uat
p asar
ab r
  is
at ar
er ak
 kur ang
 m aka
aw as
ay akan
S alah
 k and
on el
 sat unya
 kec il
v ei
 t inggal
 b egitu
en ti
  udara
 K ar
 d aya
ul is
ok ok
aj ak
 S up
 K on
 j awab
 menjalan i
 Den pasar
uh nya
sip asi
 t enaga
 terl ibat
it ra
ip t
 Ke j
ab atan
 berk om
 pr ia
er man
al is
il is
aman kan
T im
 mer asa
 s aksi
un dang
apol res
 meng ing
 mel aporkan
u f
 ke j
P T
  il
an ta
at e
 memen uhi
r y
 men it
 M ad
ay at
- mas
 n ilai
 Ing gris
ir akan
w ak
at usan
 s uk
  ungg
 p usat
 b idang
 A ustr
 on line
T idak
 Pert amina
 d ampak
 U MKM
 PB B
 Gol kar
 M us
ist ik
 berd asarkan
an si
ew at
  z
  org
S ej
er l
 p oin
 W ali
t on
Menurut nya
 S er
 g en
 bi asa
 N ew
 H ukum
 pen uh
at uran
gr asi
  i
 dit angkap
 d r
  ut
 S umat
 Th e
 B B
 khusus nya
tum b
 B al
 pen er
c e
as s
in asi
 P P
 memper t
unc urkan
 kel uar
on e
1 00
 D it
 Pem ilihan
 G ar
gab ung
 m au
ay ar
am ar
e x
om o
 s umber
un uhan
um an
h e
 kon tr
stitu si
 t el
 b agaimana
 R ah
 g lobal
 t urun
ar ena
 M o
 dib anding
 sek arang
 posi tif
t asi
rat is
or n
 h onorer
 m aju
ik it
 R iau
it i
ism e
f ud
at us
  imb
 G ibran
e wa
w ar
 men ang
 S y
 AS N
aksan aan
ipt akan
 t ah
 men emukan
  and
 b anjir
ud uk
 o perasi
k ot
ud aya
 f asilitas
an ian
ib a
 O r
-mas ing
p ol
unj ung
 ker as
 g ubernur
unj ungan
A Y
 D ewan
  ist
 pengh argaan
 di tu
ik ian
 l embaga
 berm ain
" Saya
ah ter
 g er
 p agi
 p ekerja
 t ambah
ind ungan
 kek erasan
er ensi
 S E
 M a
 un it
ungg u
 Per juangan
 komp et
en s
 t otal
 l aut
 ant aranya
 Ut ama
I tu
ogy akarta
 w isata
 set empat
am u
 h ampir
o f
amp ing
 PDI P
 t epat
ur ah
 per h
awas lu
 In s
ungk inan
 R aya
 pas ukan
MK G
as h
 P ar
uh kan
 N ur
ot el
iz in
AR A
tumb uhan
  engg
 D unia
 dan a
 lap angan
 mas ing
el ang
am il
 n aik
ah as
 teg as
 B esar
od o
an tikan
 ter n
c o
 p idana
 s eri
on a
 Y ogyakarta
adw al
b ali
" M
 per an
 meny ebabkan
im an
unc ul
ak aran
 K omp
 M ak
  imp
ind ak
 Austr alia
p ons
ak atan
 Rep ublik
ent er
ub uh
 ber ita
ur at
 I m
 n amun
 menjel ang
 ek sp
 m om
us ung
  id
 b eb
at asi
 pem ilih
k i
3 5
isti wa
AY A
 k an
 s ipil
ek erjaan
end ah
w i
 sep anjang
ant angan
 k il
 G edung
 menyebut kan
K ed
 S al
aj ib
 pelangg aran
u arkan
am ai
 dis el
 memperk uat
g g
 U U
 en ergi
j id
 t urut
 men arik
 l intas
-n egara
ump ang
  angka
t h
uj i
 pr ak
 man usia
A I
j uan
 R umah
 j alur
- orang
l et
 b ur
 per si
  ik
m ar
 S a
A L
 l okal
 f okus
Per t
 meng ur
 Y o
el apan
 berb eda
 B udi
m al
 m at
 kar ya
 h ar
egaw ai
4 5
 t angan
 P l
ej ahter
  ev
 t api
 menghad irkan
 DPR D
ro v
ateg is
 m udah
 k ualitas
ag angan
eg ah
 ben ar
 s isi
 C alon
ok rat
entu kan
 Jok o
 sed ikit
 Per d
 bert emu
t e
 menc ari
i un
er ita
 dem ikian
 ter tu
 kem ungkinan
Pr esiden
ol i
 n arkoba
amb ahan
 bel ak
in e
 D i
 kem arin
ar ti
 men ekan
ut ip
 menc iptakan
ist an
l emen
  gag
o perasi
 D r
 Muh ammad
 tuj uan
 t arget
 di had
r al
 t ugas
 keterangan nya
 meng ak
 dem i
 perk ara
ret aris
 Kes ehatan
 terd apat
 peng alaman
Sebelum nya
us ak
 ke uangan
 j abatan
- S
 f ak
 m uncul
 ak ses
 dik etahui
 sen i
 s is
et n
l is
 pel aksanaan
 man faat
  ajang
 N at
 S M
er at
ing atan
er it
 as ing
  ob
I I
 tutur nya
 Wid odo
 el ek
 ber at
 pemb unuhan
 Ang g
A r
on f
 L e
p ada
 peng embangan
 bi cara
ud ik
ib uan
 ment eri
us t
eb ar
or k
 r uang
In d
 is u
 d ini
 L uar
 kec elakaan
am anya
un uh
 T ang
ep as
ad er
 B ek
in erja
K S
m ent
D irektur
 per tumbuhan
 E d
edi akan
 m ed
ib ur
 Mal ang
 ucap nya
 il egal
n a
 g una
 d ar
 B idang
 B AN
eg ini
 l uas
 r encana
 Sumat era
u ali
il ip
emb angkan
ril iun
k l
 p utusan
 pes awat
er o
en tuk
il a
 mel aksanakan
os ok
 bern ama
 Ac eh
 meng umumkan
- r
em i
 S i
ent ingan
 Pil pres
ustr asi
 dih arapkan
 org anisasi
y an
 t iba
w as
 p anjang
 t ubuh
 H as
es s
 em as
 R ak
ort asi
as e
  api
 S UR
b ar
ab ak
 D PP
 pen gaw
ati onal
 diper k
oordin asi
w ard
i al
engg arakan
an nya
 Dem okrat
 Tang erang
  ali
 K ed
 mel ibatkan
ad akan
il l
 B o
 M ul
 ap akah
 Ab dul
arn o
PN N
ag us
 peny akit
 at uran
 tangg al
or um
isi ko
s u
si st
 p angan
arta wan
 al asan
 B ar
 mem impin
 kep olisian
 E m
enc an
AB AYA
 SUR ABAYA
T ARA
c k
 m akin
 P SI
 k asih
 S l
 produk si
K arena
 t itik
ay u
unga i
ja u
untu t
b es
 H umas
 situ asi
 ali as
l eh
 B RI
and ar
 peng el
 ser ing
er ti
anj a
ung utan
ay ang
y u
 s amb
 t antangan
 B UM
et ik
 terl ihat
M enteri
l asi
 pel uang
 al at
U NG
 b angsa
truk tur
k um
 pro yek
 G us
 S u
 pengg una
 b udaya
 s idang
 b es
c aman
z i
 k unjungan
 r ut
 pers onel
Pen y
 diter ima
anj ian
 p ilihan
 terb esar
y anto
 ber w
 R S
 L aut
 l ewat
 G ro
 Ar ab
 dim ulai
it asi
ic u
arn a
ar asi
 R af
ir m
 mel anjutkan
 p ed
 pen da
 Pend idikan
 dibanding kan
 B el
 dik enal
b ul
ak wa
 kep entingan
. .
r aga
 K et
es aikan
 angg aran
 pro f
S D
utus kan
 pen dukung
 U s
 Kom bes
 S eb
 ber upa
 s ana
 b encana
K alau
el is
  usia
ik at
 ak un
 tran sp
a il
 berkom itmen
p en
ad ar
angk aian
 engg ak
M eski
 Is lam
 berk el
 beras al
 tok oh
 S D
 pen elit
 b adan
ab uhan
 sur vei
 konf lik
 mengaj ak
ujud kan
  arah
 tuj uh
  ot
 b ola
 ak tif
aku asi
 M eng
 t riliun
and i
 sel eksi
 T el
O leh
q u
3 6
O G
 s emb
 P a
imp i
 str ategis
egi atan
KB P
r ah
ant aran
 pel ayanan
 K erja
alah kan
 musi k
" B
G P
K om
en tikan
 J o
 R e
 H al
anj i
 M el
 ar ea
 K er
 K ap
 N as
anjut nya
Ber d
 konf erensi
wak ilan
 l ahan
D an
ur ahan
 L ampung
 Kal im
k amah
at form
 M and
ur angan
 seh at
 jelas nya
" T
 A KBP
ind ra
 Pal embang
 K an
 R id
at as
 in vestasi
b adi
 s ig
ek tif
 B ah
 terb uka
ons umsi
 dil aksanakan
 pro vinsi
ni f
 dil aporkan
 Pro f
il ah
 T ran
 tind ak
 op tim
 b abak
 l uka
ta gram
g ub
 s ang
 N g
 Pro gram
 pen umpang
 f inal
ag am
faat kan
e ja
 s ah
 O l
I N
angk apan
onal d
en j
 penj ara
 Bek asi
er ai
 p ekerjaan
 n y
 S ud
 g ratis
 penting nya
 t eman
 pengg unaan
 Met ro
 form asi
J ika
 di anggap
ol aan
ant ung
s or
 P ul
P olisi
 M er
 p op
as anya
 l atihan
ir asi
  art
I l
 A F
 ber usaha
ant ik
as aran
t y
ol id
 Nus antara
 men urun
 g el
 DP D
 t ua
 ak tivitas
emu i
 Kor upsi
 tern yata
 BUM N
 P at
ur us
anc is
 terd iri
 BAN D
k ab
 S am
 samp ah
 M in
ep atan
 s olusi
ek onom
ind ungi
an on
 k inerja
 B awaslu
 ber upaya
or d
 J erman
 D ip
 L ap
 An ak
ft aran
ting gi
ekonom ian
in j
 P N
ew askan
ont on
 penda ftaran
 t ampak
 men olak
 meng ungkap
ilip ina
u ad
 m ata
ay sia
 B at
ro duk
T B
yar at
 perd ana
 di si
Seb agai
 gen erasi
O R
er g
ay ak
 bertu juan
 b iaya
at egi
 t ampil
m at
 men angkap
 Peng adilan
amping i
 A t
 An t
 Pol isi
ut h
 i alah
 s ini
 w artawan
angg ar
si den
3 8
 per istiwa
aj emen
 o per
 Kalim antan
 B l
amp uan
 sem angat
 dit etapkan
 penyel idikan
ab es
aw atan
aw arkan
 jar ingan
ar m
 s up
 l antaran
 kes el
ac a
fr as
d y
am en
 belak ang
 s ulit
es an
um a
and atangan
 ap likasi
 P ember
ik et
is ah
 D ig
itu r
 S ing
 E ri
 dem okrasi
T T
s en
as inya
on is
 kem atian
or an
 hak im
 D ir
ti b
nif ikan
 b us
ti an
ia ga
PN S
 Mas yarakat
 per g
end er
 pert ahanan
 as p
ali si
 pel atih
 hukum an
 p impinan
eb asan
 kep em
PB D
 ke per
 pet ani
 sis wa
an usi
 pas lon
 memen angkan
ejahter aan
 J adi
 sel atan
b aru
 an caman
 Ger indra
w edan
 l eg
ari f
 Ins tagram
 m eskipun
ut ri
 r atusan
ju alan
  ed
 Pr ancis
 Pas al
3 4
3 7
 sig nifikan
  ib
 l agu
 si apa
irm asi
I s
j ateng
 A f
 r ingan
 komun itas
w il
 kel as
 ter h
 in f
 meny ediakan
 sk or
oordin ator
 perh atian
5 00
es tiv
 Put ih
 Bas wedan
ul us
 Leb anon
i wa
 d asar
 P ur
 I l
 t entu
 meng etahui
 R iz
ant asan
 H AM
 menc egah
 menghad iri
 kol aborasi
fras truktur
j uk
 menj abat
tr a
Pel atih
un ikasi
og ja
 per ingatan
 j udi
 menjalan kan
 ken aikan
 Ram adan
ul er
ik ap
ateg ori
  ulang
- c
L ebih
M el
u y
 j ajaran
 F ilipina
 dik utip
tif ikasi
 BAND UNG
S em
in aan
 T enggara
amp ilan
ent ar
st em
 pes an
 Mah kamah
estiv al
l a
r ed
P D
 kes ep
ap atan
 meng irim
end ara
p o
 p at
 J PNN
enar nya
3 2
uk aan
Il ustrasi
 S erang
 n on
int ang
 pas ti
ustr u
  olah
 dok ter
Y ang
 j uara
 Ke uangan
 g ug
ac k
6 0
 memb utuhkan
 E x
 mengur angi
  angk
H asil
 D is
 r apat
 Mal aysia
 perb atasan
tu p
 in ovasi
adi si
ank si
 T PS
 Ind ia
Berd asarkan
 Pr am
 pl atform
- R
ah a
 kek uatan
 gag al
  izin
 mem utuskan
 mel uncurkan
aj elis
P I
 s il
 berkel anjutan
l o
is an
ta f
 O n
K PU
 ter ima
an ita
kan d
or a
ud al
r en
 men ewaskan
 W arga
 kem ampuan
 Pil gub
ev el
kum ham
P AS
 p egawai
un da
 P aris
arus nya
Pem erintah
d angan
iaya an
ur uan
ir ing
emp a
 sp esi
 Intern asional
  gab
 b oleh
 d elapan
 M K
 M oto
 r em
 C o
 v s
c ak
 s in
al ih
 K O
 M il
 peny idik
 T ekn
 mer es
as akan
 men unggu
impi ade
 P KB
ek l
 E r
 Sur iah
K or
K emen
es in
 h ati
 b uah
Per s
 m inggu
 p os
 memb ahas
 dis k
 kons umen
as t
 A z
 T a
ung kan
aw esi
 mem an
inta an
ah atan
 H er
 beb as
art o
 menekan kan
 mengaj ukan
es ak
 T ai
 D ew
usi f
 mom en
 si ang
idup an
ol aborasi
ind o
 ap arat
 tah ap
  alam
 pul uhan
l os
 men etapkan
uk ur
ab um
C h
s h
u w
- H
h awat
w isata
angan an
19 9
s ama
z ah
 S us
 ter g
erb angan
 m aksi
 P asar
 N et
 Sul awesi
N A
 B ad
 kem anusi
 menc oba
engk ap
5 5
 men ik
ek at
 n eg
 S ri
e e
 k ader
ad em
Seb ab
es ai
 j adwal
 sej arah
anta u
 K a
it o
 D EN
 meny i
aj ukan
B eberapa
 men awarkan
tu di
eg r
 kemanusi aan
W akil
el ompok
 K apol
 ke tua
aks aan
 d er
 Un dang
 Ang k
ari kan
ong k
PAS AR
 DEN PASAR
it kan
ab in
- undang
 L a
abum ing
f a
 S tr
 ke w
 H ak
 Al i
 mengaku i
 Set i
 pri badi
 mengel uarkan
s on
 s a
 j ustru
ag ang
ig ran
 har apan
k es
n um
 Pen j
utur kan
 ist ri
 Rak abuming
" P
 d ebat
 men uturkan
ent asi
 Sa udi
 r eg
angan i
ati kan
j i
 bersi h
 suk ses
ab umi
 C enter
 II I
angg api
osi si
mi grasi
- B
M eng
it e
 I KN
 st atus
at uh
 s ub
ari wisata
 V i
 keb akaran
l ok
al agi
 b ay
 meng amankan
o alisi
 meng atasi
-b aru
 perc aya
 s ore
 b angunan
 h it
 meny ambut
 gab ungan
 k abupaten
 b agus
 T ak
 T ri
 kand idat
 berk embang
 din ilai
 meng embangkan
ud in
angg il
P O
T ak
ang in
 ber per
 mer ek
  ok
es u
 T ur
 r isiko
 ag ama
anc am
imb ulkan
abil a
 Gun ung
 m eski
 K ong
ik sa
 Intern ational
D ua
l or
l angga
 m eter
 s osok
ik si
ud din
 F ran
u e
 ter tinggi
K PK
y adi
 t ud
 B i
 ber gabung
ed ar
S eorang
 l og
 R aka
 kes ejahteraan
g o
s yah
 k alah
 menc atat
 l akukan
 I bu
 W ah
ant inya
min istr
om end
os k
amp i
asil kan
 Gro up
ik ir
 Band ara
3 3
ent ak
aj ah
any akan
 perk embangan
ak er
 M art
ai d
ir aan
o a
 M oh
ab ah
id a
 berb icara
ak up
is alnya
 v ir
-s ama
 Suk abumi
 menging atkan
o od
 men gaw
 C PNS
 pem ungutan
 T ol
up uk
ar jo
et an
 meny erang
Ket ika
 berg erak
c r
 k ategori
 berl aku
K egiatan
ap ak
om at
 pengel olaan
ad u
 sel esai
 terd ampak
 perl indungan
omend asi
 s al
 I dul
 r angka
amp anye
 mew ujudkan
 f or
 pemb er
o ur
ap resiasi
at uan
om eter
 l ah
 r ibuan
 dik el
 k abar
 b ek
 meny er
art emen
unj ungi
apai an
 diperk irakan
 R akyat
 mer ah
 an ti
 sep eda
S e
E O
il angan
 B ul
bul lah
J ok
b ud
 s y
ur unan
 in frastruktur
 n yata
anc e
tor at
 keh idupan
 bal ik
  arus
e or
t en
 p and
ai ran
 r endah
 pel atihan
 dib awa
 terd akwa
 pengaw asan
isi k
 prof esi
K ita
 j iwa
 seb enarnya
 tr uk
u gi
es ti
 t ambahan
 Pert ahanan
 Sum sel
O A
f ik
alu asi
 kl ub
ail and
U T
as itas
 P es
 sedang kan
 Th ailand
 min im
m p
 R ic
 berb asis
 meninggal kan
ar y
 h ilang
etu l
iz bullah
emb akan
 Kel urahan
 t umb
it ri
 pem ilik
emp rov
 seh arusnya
 p ajak
 in siden
 r el
m ati
 perd agangan
  ah
h ar
m cr
al in
 f oto
 Gr up
w ang
 p asi
end ik
 Rid wan
P ihak
 k re
 r udal
aw al
 pun cak
 C ar
uali fikasi
h asil
 s us
us akan
 M edan
 berp otensi
 menyi apkan
b on
ungg al
 pil kada
 BB C
E R
M as
 g elar
 peng ungsi
 min yak
 put ra
 kal angan
 kesep akatan
 ber akhir
um ur
aw apres
 W ilayah
 mel anggar
Sel ama
 M uda
 sek s
egaw ati
 Leb aran
 tertu lis
 Ol impiade
 d arah
ain kan
Pro gram
 Tai wan
S ep
t es
 P os
unc i
 terl alu
 d aftar
 di dukung
 S osial
es ang
 per awatan
 H otel
 pend uduk
 Ber k
if ah
r on
en alkan
 t iket
il lah
 A ward
 k ulit
 berd ampak
irim an
e ar
ag n
 memper ing
  ayah
Un dang
 tr adisi
 bur uk
 P ang
ent ang
 sel aku
 Sek retaris
 t ulis
ad inya
Ber ikut
Ind onesia
i ang
 ut ara
b aik
ah fud
 menyel esaikan
 Pemb angunan
 KO TA
et apan
ab ang
 mem icu
 seni or
etn am
 m itra
am aian
ev isi
ah ulu
il i
 K ara
 ber ikut
 A fr
ol d
 j angan
 g enc
ong sor
onf irmasi
 ah li
k ap
u el
an o
 P et
AS N
 str ategi
 Air langga
 meny erahkan
I M
en ag
 t ema
ing ton
ahan kan
 pemb el
 pak et
Sej umlah
 s yarat
 mend esak
at atan
 meny us
Ked ua
 K amil
end ag
-l aki
 seri us
 disel enggarakan
 B en
ic e
ula uan
 ungkap nya
 Tan ah
ass ar
 P ri
 D ok
idak nya
insi p
Jok owi
ar elawan
ay aran
ib uran
 rut in
t inya
un y
 P ekan
 maksi mal
B K
U U
in o
 s ikap
 D alam
omb ang
c ayaan
 s anksi
 k ri
ik in
 perm intaan
 tert entu
 ik lim
b er
 n et
 peng adilan
angg u
 menc etak
 aw ak
 pelangg an
 di ikuti
ed akan
 v isi
engg araan
 kej ahatan
 kompet isi
 s aling
 B h
 pen erbangan
ent itas
und ur
abr ik
4 8
 B any
enc e
al ik
 men ambah
ri g
 kur si
 Has to
 Ke amanan
 U l
ac am
ekan an
3 9
 gr am
 mel indungi
any i
 Tran s
 Vi etnam
 P adang
ag ub
eg ang
o alan
 meng apresiasi
anj ung
 menc akup
arget kan
k et
 m us
 men imbulkan
uas aan
 pan as
 Dew i
 Ch ampi
A cara
P A
 l aki
 in s
 pen anganan
 F orum
amb at
Is rael
 s abu
on tribusi
 Pr an
op i
- P
r ut
t abes
ain an
 pert anian
 perj anjian
 ungg ul
  ur
f f
 K ur
is h
 ter or
 M PR
 C ity
 Sen ayan
 Sl eman
 M at
aks ana
AN TARA
 Gar uda
 Mak assar
 B ir
oro ti
r om
 P KS
 ber f
om m
 pen jualan
 G en
anya an
M eskipun
 dip impin
 B antu
 T inggi
 tent ara
 dihad iri
 meman faatkan
ah ami
osi asi
 peny ebab
- d
i o
p on
 ber awan
ok o
 G el
 kil ometer
 kepem impinan
 di ambil
 S id
 I d
 H end
 Pul au
 ter ang
om an
angk alan
-b enar
 put ih
 tambah nya
 gug atan
 A I
ont oh
 olah raga
o ga
 P an
 M erah
ug ian
 tud uhan
tr on
 R ek
 R oh
 pen eg
aj uan
tiv is
 oper asional
 p res
al ian
 S ah
d us
 per p
sek ut
 menging at
 T i
agi kan
ind akan
 diper l
 Perd ana
ar angan
si di
ac e
ic k
" Ini
ak ti
am s
 y akin
 dit ahan
 penc arian
el asan
 r okok
ub ungi
ungkin kan
 komun ikasi
e ga
er v
ak erjaan
 kl as
  ab
t abilitas
kand ar
) ",
B MKG
 m ey
 A KP
sist en
 Pur w
ministr asi
enag akerjaan
and era
 mer ilis
 memas uki
 Kemen kumham
 penelit ian
  im
am eran
 Ek onomi
 med is
  up
E M
H K
 in st
 keh ilangan
4 7
h ip
n er
 m isi
 l aman
 per ingkat
ju al
-M ahfud
ash ington
I S
 p engan
 b arat
si r
asi un
ant ah
An gg
h t
k om
 m esin
 b upati
ek atan
 h i
anc ar
 par lemen
 persi apan
and ra
had iran
Seb anyak
 eksp or
 Angg ota
  angin
ah l
 K ampung
  us
ak uan
is et
imb au
entu an
 put aran
 dok umen
 b ank
 ber isi
 meng alahkan
 H izbullah
 In t
 menj awab
 w ali
 Per k
 uj i
 terc atat
A P
res krim
H O
 menjadi kan
l and
 m ati
 s was
al ang
uk l
 h aji
 sel ain
 at let
irek torat
 Mand iri
 meng ubah
AR ANG
 bi asanya
 Kh usus
 trans aksi
 disk usi
abin et
ul uh
 r e
 M egawati
 ini si
 n as
ell a
 semb ilan
M antan
 l ibur
 j uru
ih an
 berk ontribusi
 seh ari
 min uman
 Ta e
4 4
 S w
 S eri
 g empa
 su ami
 Sh in
 eks tr
h iri
r id
 g edung
aj am
ind ari
 anak nya
 Champi ons
j ing
 B MKG
 Is kandar
 imp or
 t ol
 So ek
 pen angkapan
 ak u
ump ul
 menurun kan
P il
p s
 m udik
 meng usung
 mat eri
O N
 t uan
 S im
 R o
 dip as
  gaj
- Undang
as at
B S
it r
ampil kan
c i
at er
eb aya
 L ingkungan
 ked uanya
 Kara wang
ur ian
 ke hadiran
 mem ungkinkan
 ob at
 ket at
 K l
im inal
 f isik
 ap resiasi
 ber arti
 F ak
egi onal
 keper cayaan
 P antai
 K oordinator
it ungan
 C ir
 sel amat
 Pol itik
ist is
 SE M
 ok num
l t
y atakan
in tu
 M em
 un dang
 seg ala
 Man ag
aim in
r ab
 p ulang
 per wakilan
ta in
 B ang
 D iv
eor ologi
ak ai
uj uk
 kap asitas
 Pember antasan
- A
7 0
D em
h at
 I k
aw i
ot ika
ena zah
 dib uka
awat ir
 Kh of
ohon an
 Khof ifah
O r
P emb
U P
l eks
 men utup
 j angka
 mem ulai
 Pran owo
D ir
ah uan
 l ongsor
 F r
ayan i
 Polres ta
 genc atan
or l
 terb ukti
 Har ris
adah al
 meng and
 per ekonomian
ab is
osi stem
 pers oalan
v an
 p antai
 C ip
 mengh entikan
 Kep ulauan
il ing
 Nus a
 t on
 di amankan
or ter
 ber ta
 pert anyaan
roduk si
sekut if
b y
u z
 H art
and o
-s abu
 prak tik
 SEM ARANG
ar ung
 k u
 men entukan
is l
 M otor
angg ilan
am m
 S il
 K asus
 W ashington
 dit emui
4 9
U D
v e
ra f
 f itur
 memper oleh
ec h
 bel ajar
truk si
P j
ap ura
ensi f
 sep ak
 di w
r ist
 h utan
 peng amanan
 su atu
 Put ra
  $
 S uh
ev akuasi
 kamp us
 Bo j
 Ka esang
s inya
 meng unjungi
 Per h
ark otika
 fak tor
5 6
 d amai
 meng adakan
 kem ent
aks ud
 as et
 profesi onal
 m et
 C il
ei jing
 Dig ital
i grasi
eb aran
ud ul
uran si
 berta juk
5 8
D ik
 meng ec
 C or
 ker ap
T ok
 m ul
ah aya
 K ad
es ter
 Ind ustri
 put ri
 Ir jen
 berw enang
 Jo e
 h ewan
 D onald
os o
 kement erian
 d ahulu
uk asi
emb atan
 ket idak
 bay i
o da
s us
 k anan
 P j
 J u
 Sur akarta
 ef ektif
! 

- K
 S in
 c apres
 mengh asilkan
4 6
 m ak
 b and
ot an
ingk atkan
 dib uat
 Pen gaw
 Kej aksaan
W arga
si apkan
 T anjung
int ar
lu as
 berper an
 k a
 tim ur
 Afr ika
ukl ir
ah mi
 pen urunan
 r usak
ag ama
 dar urat
  e
 N o
 ker eta
 bert anggung
sp irasi
por a
 S ant
any ahu
awan cara
 kont en
Sej ak
  era
 K eh
 ker ugian
 lanjut nya
- g
el ayan
ada i
ent ing
ja uh
 kh awatir
 st andar
 pasi en
b k
n s
ut aan
 memb eli
 pri oritas
D P
us n
et api
 meng in
 In stitu
ump ulkan
 Mad ura
 hit am
T api
g unaan
as tik
 J oh
 sen ang
 Pel abuhan
 tekn is
 New s
 t he
 H o
 c oba
 kem ajuan
 sen ilai
S ed
 d om
 g as
 Ari f
 Kon stitusi
 diperl ukan
 men ya
 men engah
 ber agam
 bat as
andatangan i
I P
K apolres
 men ud
 P enc
 l ayak
 ser upa
ham dul
 mempert ahankan
  ul
o und
 ke si
any ol
Pel aku
 gr up
 Or ang
 Pekan baru
 p ula
ab el
 meny oroti
 peng usaha
ran c
 Pol sek
erik sa
 seks ual
Angg ota
orl d
 meng onsumsi
ud ahan
R T
 k aki
eg ahan
mas alahan
 ker usakan
 kl aim
" Jadi
 ke adaan
 G ian
 N ik
 b uku
 M ir
 r angkaian
 pend apatan
ar uh
 ber operasi
 D av
T r
 l awan
ung nya
 r ekan
 memb entuk
unc uran
 kec amatan
engar uhi
4 2
l ement
v ensi
 p ohon
 I migrasi
 mem ahami
 Pert anian
k us
 sel anjutnya
 bah asa
 mener apkan
engk api
 penyel enggaraan
4 3
en i
 m undur
ar ak
 peng unjung
 men anggapi
 R os
 did ampingi
red iksi
en jata
 j asa
ud ayaan
 n antinya
 w anita
 bert ahan
 din yatakan
Mel alui
5 9
 d ulu
 P L
 D aya
 j atuh
 Persi s
 s ant
 t ata
 t ahanan
 S ungai
if inal
- per
A D
i at
 S AR
 ber ubah
 C l
 L embaga
 O perasi
edia an
 Mah fud
 t angga
ad j
 ak rab
iv e
ema ah
 kal inya
 Mus lim
 ny aman
am kan
 z ona
 karya wan
am as
 A da
 G e
 set idaknya
 sem uanya
 Pers ebaya
h argaan
 t ekanan
 B ambang
 I p
 in v
 kek uasaan
urn amen
 Put ri
3 00
P J
al urkan
 T bk
 H id
 berk ualitas
ert ai
al isasi
 per aturan
 D ar
 W il
ain ya
 f ungsi
vest or
 S e
 R ai
angk atan
ind ah
empat kan
imb angan
 din as
i e
and an
est asi
5 7
H ari
 B engk
 T ik
oc k
 transp ortasi
 rem aja
 nas abah
z a
ant ren
 Per aturan
angg uan
 Peny el
l ih
ar e
 Y us
 V OA
t is
 b uat
 l engkap
etu ju
 man ajemen
- j
 k os
 M usi
 Kal tim
 tangg ung
 K arno
 C on
 peng iriman
hawat iran
 K os
 K ons
 r am
 G o
ay oritas
 ant ar
 K elas
 H asan
awan an
 ek osistem
 Tur ki
  umat
4 1
A pa
 in ter
 pen etapan
 dib utuhkan
 Ag ama
imb angkan
 situ s
- C
a ing
 meng imbau
 D ua
 w arna
 pem uda
ark ir
 t o
 S ej
 sesu atu
  ikan
  usai
it ia
 ap abila
 Mas jid
8 0
B anyak
im aan
elah iran
 pr insip
orn eo
om inasi
 F at
 perm ohonan
hasil an
hamdul illah
P AN
ob atan
 E v
 Ked iri
 ekstr em
 p abrik
 l em
ist ri
 Q atar
ar itas
 b ar
 P anc
on y
 K at
 T ing
ep i
 mer ayakan
int ah
 rek omendasi
 perb aikan
 Komp ol
 Angk atan
b al
h u
 k unci
 D j
 n uklir
9 0
C C
 B e
Pas alnya
 persi dangan
 elek tabilitas
E AN
 E mas
 Nat al
 ib adah
 Seti awan
 log istik
K ementerian
 N TB
 w ajib
k ah
 S iap
ul angan
 D I
 Met eorologi
o gram
 K apolres
uk tikan
 D irektorat
ti on
 F estival
 dip l
c epat
 b unga
 M od
 Y ud
 ef isi
 swas ta
am atkan
 K am
 K ris
 meng us
ata an
 berikut nya
 per ayaan
 j urn
 kontr ak
 id entitas
5 1
S eh
 men ampilkan
on j
it ung
 l ancar
 mel ip
 B atu
 ses eorang
 ger akan
K ej
 l ihat
ep end
end ak
 pemb erian
angka u
aksi kan
 Sing apura
K A
K eb
 s ambil
 s ungai
 B ung
 ber encana
 n orm
 C omm
 c atatan
 ak tivis
 Sp anyol
 kesel amatan
 Gian yar
  alami
N U
 k elahiran
 men emp
eb askan
 K end
ot ak
iden tifikasi
adw alkan
  ga
r ak
 s aran
 I t
ud ang
and ai
unya i
ansi r
B T
 per masalahan
ari a
 J asa
 dis ertai
s al
y ani
 S akit
 B us
 B eijing
ol ar
 per angkat
 An war
 Pem kot
 ag enda
 memperk enalkan
 b akar
ik ahan
ep on
ingin kan
 jar ak
abr ak
 mengak ibatkan
B ahkan
 m o
 W orld
ian a
 An di
 Sek olah
 Ir ak
aw ang
 Mar c
 Kep olisian
D O
b itkan
 t un
ap p
 S amp
ek tur
um ahan
 se jauh
ag ung
 mend aftar
untu tan
 Bal ai
erit akan
f isi
h er
s ur
tu si
ol os
 memb ayar
 Per m
 memp unyai
Kor ban
J umlah
 m isalnya
ur it
anc arkan
 mil itan
 wisata wan
 m inta
 r ep
akil i
 mod el
 mengak hiri
L O
g anya
 P emprov
 J am
angk ut
 ket entuan
ij en
 diper iksa
unt ungan
A m
 t arif
 M e
 Kar ya
endag ri
tron ik
 meng uc
 berk olaborasi
ons tr
 As s
 keber l
 klas emen
 hi jau
ak ini
am inya
etuju i
tusi as
5 2
s an
 k iri
 J alur
 T aman
 bers enjata
 dim inta
 pl astik
 terj adinya
lement asi
5 3
T V
f o
y ono
it is
 M D
eg rasi
 Ind r
amb angan
op si
7 9
D it
s ed
 b r
 men angani
ur uk
 se si
urn a
 asp ek
 Tekn ologi
 lah ir
 Bantu l
 S ar
 S umber
 A j
ag ia
 mem eriksa
 dil ansir
di v
Pem ain
 perm ainan
 kil ogram
l ad
ek aan
 r up
up an
 G eo
 memb er
os a
 perd amaian
baik i
at unya
at ologi
 J ogja
-t eman
h ana
 t unggal
ed it
 H ujan
ow er
 mengh indari
-h ari
P etugas
 t anda
on da
 K ab
 H a
 g angguan
 Per l
 pel ajar
 Net anyahu
B C
w al
 d a
 k oordinasi
ap aran
ut ra
 H UT
 In formasi
 w as
aris an
 des ain
 Sid o
/ j
f itri
m e
 t aw
 meng ant
 j enazah
 memper siapkan
 kons ep
m y
 S ya
ob los
 Pr as
 Y ork
 AS EAN
ond ok
 mod ern
 kontr a
Sep erti
 gaj i
i um
us un
ol og
 pemb ayaran
 tah apan
Pers ero
e ad
 s andera
 t es
 men argetkan
 B egini
ek tar
end ali
ib er
af t
unc ak
 BB M
 fak ta
 Hak im
fisi ka
 s upaya
 I b
adi ah
 mer asakan
 ad at
og o
engg el
 berj udul
 sosial isasi
 Universi ty
- E
 t adi
 ber angkat
 intern al
ebr itas
 Ket enagakerjaan
ekl arasi
ugi kan
 Ju anda
er y
ur uhan
 B angsa
 M aju
 D edi
 memb antah
 dib angun
 suk arelawan
 tumb uh
T etapi
 men untut
 K u
 sem ifinal
ic h
 Polres tabes
 int el
 Lap angan
 mengirim kan
- f
 P impinan
 K ek
ti sipasi
ent an
emp ur
 pemb icara
 su aminya
 bel iau
l an
t ana
 p ariwisata
 D a
 Per empuan
oleh an
 Persi ja
 sk uad
kl usif
  amb
 b uka
si k
 D id
esi r
uh u
 n elayan
angk it
os en
ij aya
 Ng urah
 kri sis
E K
r oli
al eg
 A N
asi a
ul uhan
unj ukan
 bertu gas
 samb utan
al ap
 P ara
 S umb
 per juangan
 Kom unikasi
 Us aha
 reg ulasi
endik bud
B agi
b o
 men gab
 B orneo
 H aji
 tim nya
 Geo fisika
ah aman
 K lim
 B akal
-s atunya
 Klim atologi
 b ir
am akan
 P h
angk u
iri kan
orm atan
 Pem kab
 mengen akan
 dr one
 meres pons
g asi
 t ip
 S MK
 K im
 l iter
eg oro
 mas sa
ond isi
uy ur
 b ilang
uk ses
 kon tribusi
An g
 T eg
 U N
 pro tes
 Y OG
 berh enti
 Sum ut
Ch ina
er akan
 t urnamen
 K U
ec o
 mempering atkan
 YOG Y
B P
S erangan
 p ameran
am e
amb arkan
 O pen
 kek hawatiran
 Put in
idat o
 Bel anda
 Mart in
 YOGY AKARTA
5 4
 p intu
 S K
ul tas
 G elar
 ters edia
uas ai
-p ro
ilm u
 Eri ck
 menyer ukan
 s asaran
 K M
it or
asi b
 meng ej
 G uru
ip uan
 Gel ora
 P angan
 K ali
ur ang
 l ulus
 meng anggap
 N y
 seb ut
eh an
 ters ebar
 tok o
A H
ag ing
 rumah nya
T P
en ya
in ar
 P eg
ul itan
ed e
 dil antik
orm ati
lin k
 net ral
K asus
 p al
ed eral
 keluar ganya
 ed ukasi
  ilmu
 di ajukan
 P ed
 h endak
 h ektar
 T e
 Ter b
 Man usia
b a
ik el
 menik mati
dus en
  gaw
j elang
p h
an ia
in jau
it im
 M ag
 J ember
 h otel
 C ik
 L est
 ser entak
 penc urian
upa cara
 Kan wil
  upacara
j ana
 per airan
 ak adem
 dib eri
 pas okan
 Mal uku
ranc ang
B I
j ek
 t ra
 di rancang
ing inan
 per intah
im is
 D n
 in vestor
asil a
 dar ing
 Sido arjo
P M
ah at
es a
aj ian
 memper luas
 penyel enggara
erd ekaan
 melip uti
/ ab
 m ayoritas
aks es
S umber
er ahan
 k amar
 t ambang
and eng
 C ah
 peny idikan
Y a
 m ark
as aan
 di adakan
 l ebat
ek sp
uk uran
emb us
 pen onton
 kon sisten
 Sur at
 pend apat
 vir al
si si
 ber c
 per gi
ab ut
int ai
 Ar ya
ungg ulan
resi k
isk inan
yan mar
 Idul fitri
 p okok
il ir
um entasi
 M A
 h alaman
 mend engar
 kons er
 kamp ung
epend en
- nya
 k uasa
 b atu
 men ahan
on egoro
 seb agaimana
 menguc apkan
  istr
 m igran
em ar
 D an
 mel anda
 WI TA
 terl ebih
 Pak istan
 mengand ung
 meng k
 h ad
ed aran
ot ong
ej ak
 keber adaan
egr itas
 pengan iayaan
 DI Y
 istr inya
. ,
al og
 S ebut
 M esir
ri p
 Is tana
embali kan
Ber b
 dij adwalkan
 PSI S
 Raf ah
qu ez
uth fi
 Bad ung
ongk ok
 menud uh
 M end
 ad ministrasi
-t ahun
 Res krim
 mey akini
ut ers
 D wi
ed era
 berb agi
 an tusias
entu m
 tr en
 bes erta
 Kap ten
Dik etahui
B adan
 p akar
em udi
 l epas
 r est
 r eal
 ma af
M S
ak ter
 s tudi
ul ir
ul ian
uj uan
gi zi
 Pem uda
ec tor
 Un g
 berj uang
 PS S
 PS SI
en o
 S I
 S ir
 ber edar
 A yu
id ur
 F ir
 Y as
Sel anjutnya
ec ah
 b umi
 M ay
ol l
esi sir
 tahun an
 kes ulitan
 kom entar
 ar ahan
idik i
arti sipasi
 leg isl
m u
en akan
 t embak
 meng atur
 r ata
eg angan
oh ir
ej o
 pern ikahan
 res pons
Pr ia
 Im am
 SM A
n e
ap al
 G resik
imb ol
re en
 Yo u
 b intang
asil itasi
L alu
 b in
 M ajelis
 D ana
 bers alah
 Ak bar
- D
K apol
f er
 P AN
ik ro
 B rig
 ket erl
sed ur
 m and
 menj ual
angk utan
atur ahmi
 keberl anjutan
ib atan
 Ap arat
 sus u
p ar
 k i
 B ob
 T ab
ul in
 n arkotika
 c erah
-r ata
 Div isi
T ub
e an
v ey
at alkan
 k oalisi
 t amu
 S eorang
ing at
 M obil
 Ber sama
"K alau
Ter l
embak o
 kesel uruhan
 Penj abat
: 

H ar
K PP
 ke empat
 mel ayani
ong kar
  @
 B OG
 M yanmar
 meng umpulkan
 R apat
 r amah
 N U
Pas angan
Pol res
 ev aluasi
Sem ua
 Panc asila
h atikan
ant ang
 kar tu
ind ahan
 si aran
por ate
 ef ek
 inisi atif
 BOG OR
C alon
r s
 p uasa
 P am
 B icara
 B PBD
ul usan
 D ewa
 F au
 ad il
od ak
 Ar ema
 berj anji
 kons umsi
 bel i
 AF F
 gel ombang
H P
ah i
 K awasan
 per olehan
ir ian
 n amanya
 sej alan
Seb uah
arg an
 Af g
 sa udara
w aan
 K un
 l evel
et ika
 j emaah
ed ak
ian si
 L uthfi
ay asan
end ra
emp uran
 transp aran
 Lap as
A s
m ikan
w in
 k ak
aj at
 Y ah
 pener imaan
 inf lasi
T S
ap il
 K amp
ul ing
 memb agikan
form a
 berl anjut
 inst ansi
K M
ol an
ed aan
 Pel atih
 And ika
 mengel ola
A kan
J angan
t eng
u it
ali sis
 pas al
 dir ilis
 bes ok
osk ow
 di usung
 K arang
 A di
ok er
ay angkan
 lanjut an
 tradisi onal
 Hid ayat
P end
S atu
at uhkan
 b l
 S ch
us e
end era
ank er
 Z ul
 em isi
Se cara
M em
c aya
g anisasi
y ang
 L i
 pem ad
 mas jid
 dil anjutkan
 mengg anggu
 terb atas
Sed angkan
ga ja
 ke adilan
ahan a
 pel uncuran
 Dep artemen
 dek ade
' s
D B
E n
d an
l anjut
tu al
 H ab
 C EO
 mer usak
 U S
 c amp
 dik irim
 ap alagi
Pol da
 ped agang
b ah
 mel arang
 mel ancarkan
 seb ab
ingg ung
 berb ahaya
inc ian
 Perd agangan
 Ti ongkok
 Dav id
 pal su
in k
el an
 P us
 P idana
 S U
ut er
ut ar
 B oy
 M un
 j aksa
 berk a
 sep en
tiv asi
 tangg apan
 mendatang i
 gaw ang
J uru
 k ari
 t untutan
 Pr at
op ir
 berk umpul
ungg ah
 op osisi
 id e
 dipas tikan
7 5
p aya
er min
as nya
as tian
un ting
 S yah
 K ualifikasi
 R UU
 N iaga
ay am
 peng urus
 dis ebabkan
uc i
isk usi
 PN S
 Riz ky
at uhi
 M inta
aw it
 kar akter
ew ati
 tel epon
/ HO
S R
si al
 S O
 S un
 l iar
et ahuan
 R ud
- J
P G
ep ortasi
 F in
 F ilm
tr is
 pener ima
L angkah
d er
s e
eb oh
 per und
 D ik
 Al ex
 tent unya
 Th ohir
 Par lemen
 optim istis
 It alia
t idak
 d uduk
 m on
 p ad
 di alami
 R us
 H idup
 F er
anti an
 Kor ban
Pen j
ers e
/ k
d e
 D h
 Perl indungan
/j m
v er
ut kan
 ke untungan
 R T
 R i
 L ayanan
 g ula
 Ind ra
 berk at
 elek tronik
 SD M
 berka itan
P ern
as ana
 pen ipuan
ep ak
end i
 pol a
Ap alagi
 Sup ri
uny i
 Perh ubungan
 s uku
 S ol
ec t
 ev akuasi
 menyus ul
 pres tasi
enggel am
U N
m il
ari ah
ed ah
 sek adar
 perb uatan
 Ek sekutif
.. .
D is
d ian
k e
ag o
 mer ugikan
 pem as
 Per j
yar akatan
 mod al
I D
P adahal
f at
h ub
p l
 k otak
 K ol
 meng angkat
 J amb
 pen ampilan
 W ak
 peng endara
 min um
omb a
 ungg ulan
Pert ama
 Bi ak
R S
 k opi
 ke unggulan
 pen si
ent eng
angg ulangan
14 4
umum an
 ditu tup
 Fak ultas
 rup iah
 p ikir
ap er
ap itu
 S uara
 K as
ek ad
 meng ancam
 per edaran
ab a
 H adi
 pem enang
 c edera
 mengg ambarkan
 Mar quez
 Ter p
ism a
izin kan
 Bengk ulu
/ B
l at
 d arat
 t op
ap us
 R om
ag e
 dari pada
uang kan
 kek alahan
 kek urangan
 awal nya
 Bal ik
 mom entum
 Pengaw as
 dipl omat
H arga
d o
 p arkir
eb on
it isi
 M ed
ro ses
 N arkoba
 c ukai
ebih an
 dis erahkan
han istan
 menyel enggarakan
 penelit i
istri busi
 ga ya
L aporan
 m ir
on er
id u
 C ina
alah gunaan
ons el
AT O
erl akukan
L A
s os
 s uhu
 t ajam
 W ayan
 w ajah
19 8
imb ang
 ment al
 mengaw al
 Champions hip
 m ur
 t ur
ga cara
 B KN
 un sur
ud ukan
 mem erintah
 mel aju
and ia
ug at
anti sipasi
 dim aksud
-l angkah
 kre atif
 Cir ebon
E S
am ing
 M emb
 meng ed
 kem iskinan
 Pro duk
uli ah
 Dem ak
 m urah
 t enang
 B encana
 M aj
 dis apa
 Ber b
 berp artisipasi
 Dip ta
M ar
f tar
 men indak
es h
 T idak
 G lobal
 pemb ebasan
ban kan
jadi kan
19 7
 sekitar nya
 pener apan
 saran a
  ac
H ingga
j ogja
 P and
on tr
 K AI
 terl etak
 terk ena
l antas
 s imp
 k enc
 l antas
 A v
 M edia
 D E
 H onda
 H odak
 sek utu
 bers angkutan
 And r
Pil kada
  nya
B ea
M il
 k aya
 men u
 K H
 in div
 pem an
 kes alahan
anc urkan
 did apat
 ind ependen
 Ad e
 pak aian
 ut ang
 mempert imbangkan
 sup orter
tib a
 dikel uarkan
 Afg hanistan
 sepen uhnya
  es
S at
 men injau
 K ari
 ber ulang
 D im
ok ter
 Pram ono
 hektar e
 B isa
 meng apa
 h id
 sep akat
 res pon
SI S
 Mah asiswa
eta il
 pul au
 kand ungan
 Award s
rist ek
- tiba
j ang
n o
t atus
 s imbol
un ung
 O p
est ik
 dim iliki
M an
b um
 b uatan
 P asi
 S ig
 bers aing
 as li
 kesi apan
 s olid
 S T
um ni
 penc egahan
Sek retaris
 Abdul lah
 Kong res
 Manag er
C E
s o
 meny aksikan
 mend alam
 pro sedur
og an
 keb ebasan
tur ut
ig ht
iz i
 dem onstr
 Sul tan
 asp irasi
Seh ingga
B RI
F A
U I
k er
 d el
al atan
 b angga
 h iburan
 T as
ok oh
and y
 Ind ah
 Keb udayaan
encan akan
 art is
- N
E k
K D
T iga
a is
 p anggilan
 s im
 t idur
 men embak
si h
 K us
it amin
 L iv
aj urit
 penc apaian
 bukan lah
 par pol
 Gun awan
itr aan
lih atkan
 Ung kap
9 9
M A
 s taf
 k amu
ad aran
 M oskow
 r ed
 mew akili
 Pat ra
y ukur
al as
am ad
 B ur
 M akan
 T ewas
 I D
 g aris
 Y ayasan
 dik onfirmasi
 terl uka
 kh as
 tran sisi
Pr abowo
 norm al
endikbud ristek
on ny
 B umi
 meng arah
20 4
 N ana
 memb ela
 pel antikan
 su asana
-h al
 imb ang
 rut e
W A
q bal
y amanan
 d oa
 di v
 pro dusen
ra fi
 pemb ukaan
 Y ong
 peny alahgunaan
 memper lihatkan
ump ah
 Am an
 bel anja
 trans formasi
Kom isi
Or ang
 jurn alis
 mem antau
 C C
 w eb
 memper baiki
 terb ar
ilai an
Seb agian
 Peng embangan
Pro ses
 Kapol da
 bek as
k iri
m art
o ol
 p arah
al asi
 t utup
un kan
is inya
ab i
ro p
15 0
 berp end
 pengh itungan
 Kel uarga
 Br asil
ekl aim
K el
 p ilih
ak tif
ta g
 pen embakan
 pend ekatan
 sep uluh
 kompet ensi
oker to
o per
r ia
 men andatangani
 S an
 S is
 D W
 pen utup
 C ak
 ket er
ensi tas
Pem kot
 dih ubungi
 Sat uan
 milik nya
y b
 s ingkat
al lah
 k andang
ad ari
 P on
ut o
 B N
 D el
 C ib
engk eta
 Gr and
 ram alan
" Untuk
D A
el ih
 l ip
anj angan
ig asi
 Men y
Ter kait
 Aparat ur
v a
er us
ah ap
 b inaan
kan an
 meng eklaim
 R ez
ent al
ob i
 ser angkaian
 dip rediksi
imb ah
 Ter s
 rek or
 perb edaan
 med ali
 pop uler
Pern yataan
P es
m er
in ess
 di jadikan
 P uncak
ol ik
uk iman
 W ib
 memb uktikan
 meny alurkan
 Am in
v in
ak kan
 s embako
 k abinet
 t eb
 P urn
 ter gabung
 B anjar
 meng ungsi
 mer ujuk
tr ik
 beb an
 berw arna
ar o
al o
 K A
ur o
 M b
 M uk
ol ahan
 c abang
 saya p
 terd uga
 intern et
encan aan
 Kan ada
 pembel ian
 AN TARA
- L
j ur
 s api
 per alatan
uk kan
 L og
 f ase
 ad ik
osi kan
 sub sidi
" .
G M
 p anggung
 t emuan
 S oal
 K y
 I da
 kon stitusi
ic o
ev en
 tan aman
 Sat pol
-n ilai
 imb uhnya
 Moh ammad
f asilitasi
 men ga
il aku
 K ud
 B antuan
 l arangan
et ap
 meng kl
 R eal
 pers a
 DP C
 Pas angan
 dij alan
Al hamdulillah
 Sup er
 pembicara an
P L
b ol
 b ila
ik iran
is s
 R ach
 N ug
 menj alin
 c uma
 Per usahaan
 berm ula
 RS UD
 Kris ti
4 00
b il
ar as
 k anker
ad ing
 K ampanye
 ter m
ab ung
ab arkan
aj ari
end am
 V ir
 bert ambah
if t
  ayat
 t enggelam
 P ac
ur usan
 R uang
 c h
 pel abuhan
isasi kan
 St asiun
 ken yamanan
 SM P
 kenc ang
d ik
p anjang
 B ud
om as
 mem anggil
 mel ewati
 O ff
 menc eritakan
 as uransi
li en
 Man ajemen
 perg uruan
" Dengan
S ur
it h
 l ayar
ab et
 I V
 w ujud
 w awancara
 berk oordinasi
 mengg antikan
 keber hasilan
 diter apkan
 keterl ibatan
  umur
 M ac
 ket ahanan
 dis tribusi
imp a
 terb akar
 kec epatan
 ditu d
- T
ar ingan
 b o
 A L
 per forma
 H ad
 H ong
omp et
 mengh ormati
omo tif
 Seri es
 Institu te
" D
A nies
c el
r ad
z ani
 S ap
 B A
 ke di
 h adiah
 in ov
 W NA
 N ATO
eber kan
Per empuan
 ked atangan
rom osikan
 indiv idu
 d aging
 di ta
 S k
 r oda
 peng ec
 peng etahuan
 dil ihat
 pert empuran
 dip ilih
 sen gaja
 Z oni
 Sek jen
 menurut nya
 sah am
 dom estik
lanjut i
 kedi aman
  otor
H anya
s ter
 p indah
 l olos
 in stitusi
 r egional
 L istrik
anj ikan
egaw aian
 sedikit nya
esu aikan
Tr ump
apitu lasi
 P egawai
it s
 memb en
 dit anya
 rek aman
 par tisipasi
inc i
K asat
P H
 d ef
 s h
em at
 S itu
 K i
 M on
 U d
25 0
omb ok
 pak ai
 Ant ara
 sil am
esti gasi
link en
 p inj
in fo
 k ub
ad is
 P K
 S oc
 ber gizi
ari fikasi
 ke inginan
id e
 pen indakan
amb u
yar atan
 kes adaran
 pengg emar
encan anya
 Bat am
 kos ong
/ rs
F I
J adwal
T ahun
e um
er et
 s ampaikan
al k
 di angkat
 I qbal
aj er
 F or
amb atan
int egrasi
 set ara
 dil uncurkan
 penc alon
 put r
Ked uanya
 Pras et
- w
K an
y ong
 p upuk
 S r
 S iti
ada ian
 j antung
 c ontoh
 F ad
os t
 set engah
 ket egangan
ont ak
 komp leks
omb ongan
 pet ir
 En ergi
 ungg ahan
 prak iraan
 ev ent
 us ulan
 Joh n
" Ada
? "
T N
 d ew
 ber ani
 se iring
 H onorer
ent ral
 pem er
 c erita
ala upun
asih at
 v ersi
 samp ing
 kond usif
 el emen
 Re uters
B awaslu
er eb
 m ajelis
ut hi
aw ati
eg asi
 meny imp
 Pr esi
os an
inan sial
 berd iri
MI N
Ap p
anta uan
 Pa us
 Fr aksi
 band ara
en ing
 d etik
 P egi
on ya
is aris
 T op
 pen gaj
ian jur
 L ombok
 berk ata
tern atif
 Muh aimin
fa atan
K elompok
 m alah
 di umumkan
 mel arikan
 peng adaan
 Ke tum
ac akan
Per si
 Pert ama
 PS M
osk op
 dikel ola
 minim al
amm adi
b i
 K en
 l antai
 meng antisipasi
ian syah
 memb unuh
 F ar
 terb ang
 kr edit
 jam inan
 bat erai
Ar tinya
 Bl itar
 neg atif
 met ode
 m ekan
 S tudi
 B ulan
 D ib
ot ongan
 dit unjuk
 tak ut
 Pel ayanan
Ap akah
Tim nas
en om
 r ah
ok et
ind ahkan
 memper cepat
An ak
 Sat gas
ust in
 intel ijen
ulin er
s ari
 T indak
 R ia
 H asil
 C ianjur
isi han
 v itamin
19 6
enti an
 Mad rid
utri si
 peneg akan
at nya
al s
 ter ungkap
 B in
us kan
 A M
 r awan
 G or
 mend ampingi
 bers tatus
 al iran
-b arang
 dek l
agu e
 bersi fat
 int ensitas
 berf okus
EM B
 Kud us
 dew asa
t engah
 d olar
 S ec
es krim
 peng akuan
da ul
Set iap
-h ak
 ur usan
 had apan
7 8
K es
r ok
 B apak
om en
 Per ekonomian
 dil engkapi
if e
 terp aksa
Pem kab
 AF P
Pihak nya
 PL N
 m ayat
em as
 b elah
 T V
 pem ul
 bers yukur
 Al lah
ersi h
arn op
 penj aga
 penj elasan
 Fran sis
 Cor porate
agama an
K ini
w ira
 b ij
ad ak
 ter si
 meng inginkan
ab ungan
 mem ad
 W isata
 U SD
 g udang
 O t
umb ang
ers angka
 kr itik
 Res erse
 Gus ti
SD M
 Seb anyak
 teror is
i aran
en uhi
ad angan
 S ed
 K embali
im ia
 D ata
 W ong
anc angan
Per usahaan
uti on
 tel evisi
 memerintah kan
H R
T he
 d e
 m ar
 p ingg
ad o
ud uki
 F I
 f r
 kom od
 Persi k
oc ok
 optim al
 pat roli
 mengus ulkan
 Perj anjian
% .

 s uka
 s opir
as yarakatan
un itas
el eng
 R iset
ip ta
 berk unjung
 st abilitas
Ak ibat
 Gar ut
ajib an
-R B
 dekl arasi
C uaca
er m
ar ahan
 p idato
 p onsel
al uran
 di ungkapkan
 men aik
 l ini
 D e
ali f
 pro p
 ak bar
 pand angan
 k lien
 meng u
 j ejak
 Raf fi
uw angi
 Kapol ri
PO K
E C
K ec
R ek
 b e
 S ipil
 B eri
 ber awal
 l emb
 M ur
 D ani
eri fikasi
ist en
oy o
 penyel und
-h ati
 inov atif
F ilm
R C
v o
 k ira
 men andai
 K art
 l imbah
 T es
ay angk
angk is
 Per ang
og rafi
 depan nya
 dihad api
ar ep
ah irkan
 di atur
es aran
 B et
 R aja
 un ik
and er
 C O
 meny ita
ub is
eksi ko
Peng hargaan
 PS BS
 angk atan
 sin ergi
 menik ah
 ku ota
 Fau zi
 DE POK
  am
P artai
in ang
as ad
am er
 S taf
et eksi
 D ukung
 un iv
 n g
 Sur ya
 Mar ket
 pes ta
 Ma ul
Tub e
ammadi yah
arnop utri
W F
r esiden
z al
 k ayu
 S af
 M ade
 T KP
ul ar
 f orum
 f inansial
 set ahun
 mengh ancurkan
 Kep egawaian
 diper t
 memp romosikan
engar uh
 legisl atif
M aka
h y
 d osen
 di jual
ungk apan
 dis abilitas
19 4
 Un tuk
-p roduk
 memp roduksi
 tampak nya
 br and
K ondisi
 b et
tu ju
 S aat
 B ak
 meng isi
ab ur
 j ual
ant am
 L ebih
 Pen anggulangan
ond o
 sk ala
 Nik ita
T I
U S
y al
at atkan
 men empatkan
ik or
end alian
 mend ek
 pers yaratan
 Dem okrasi
 Kap al
 peneg ak
 Jamb i
p ura
 k as
 k am
 b ul
 S atu
 l atar
 pen ilaian
 H ind
 menj amin
 E ko
 O lah
 Al l
 hasil nya
 menyel amatkan
Peng amat
 Bany uwangi
 Soek arno
 Sej umlah
 Peg adaian
Mil iter
B agaimana
B egini
M ulai
j uangkan
 se tuju
 H arga
 meny adari
angk al
 O b
 Ap i
 Peng el
 of f
 CC TV
s s
ad uan
 P ariwisata
ap ar
et akan
 M atar
 h el
 r aya
 H el
 mel intas
 L alu
ingg inya
 sem acam
ump a
 kr iminal
 kont estasi
 mew ah
Ak si
 kew enangan
M ah
p to
w ono
al ak
 b utuh
si on
 T j
 I min
 D ay
 j embatan
 peng emudi
 F lor
ec ehan
 Ch ris
 st unting
In formasi
"S em
 meningkat nya
ord ania
 Mir zani
/ S
6 5
C O
 k apan
es aian
 B u
 A ch
 T ip
eg an
 mel ainkan
 L as
 g e
 pert imbangan
op ol
 as asi
 V ol
 pand emi
hat s
 Ho uthi
s k
 s or
ah am
 men ulis
 meng ad
 Al am
 st asiun
An da
 Muh ammadiyah
 Ser entak
gg ak
 Bh ayangk
 Soek arnoputri
h in
em uka
 di man
ap arkan
 B isnis
 B ayu
 peng uatan
 Per wakilan
asan nya
 kar bon
udah kan
engg al
 kek ayaan
 o ut
erj akan
 int egritas
ender ung
ahl awan
N ah
R atusan
d ent
o et
 P ark
 J ak
ul lah
 kem udahan
angs aan
arg anya
"K ita
 rek apitulasi
 sal uran
 sant ri
endali kan
  er
r us
 P ublik
 P ondok
on en
 J at
 j anji
 C i
amp ingan
ali ban
 al ternatif
 memperk irakan
elit i
 mengaw asi
6 00
B elum
S k
T O
l as
l ek
an aan
el ens
 P AL
 P upuk
it ya
um e
 meng undang
ep askan
 bert ahun
 dir awat
 St ar
 terk enal
 Sp ort
 Tel kom
8 00
A F
o j
 m ain
ar ing
 l edakan
 meng evakuasi
 T ern
uh aimin
 mer ebut
 pemb iayaan
PP PK
 tim nas
ermin kan
B N
U paya
p apan
ya allah
ur asi
id asi
 r iset
 W e
 N ag
 dil arang
 kel ola
 V en
 Ger akan
 Sumb ar
 Sig it
S i
l eksi
m ur
r as
 meng kr
 R ob
 Ber t
PB N
 Kr iminal
evel op
alik nya
 Int el
 Ge org
 komod itas
A g
L I
 s isa
 ber apa
ab le
ta inya
 seb elah
 c enderung
uj ung
 V s
ump ulan
In s
 Set elah
andatangan an
kes mas
 Hart arto
PJ S
 Matar am
l aim
 S emen
ing ya
 R ev
 R elawan
ed ahan
 L intas
ati ons
 dis ambut
 bert indak
 kom ersi
 sk ema
 Bul eleng
abis kan
 Balik papan
 s engketa
 k ian
 P PN
 S aid
 J on
om a
ir o
ed ikasi
 H ulu
 g im
 menc erminkan
 pemb entukan
 Pel aku
 pencalon an
 Olah raga
7 6
8 8
K abar
 d ak
 p esisir
ad ik
ap aan
 ber man
 l ulusan
ih kan
ed dy
 C im
ot anya
 bah aya
 mas sal
 ak tor
 kem asan
 dik abarkan
 V ina
 kec urangan
 pes antren
 st abil
 ger imis
erti ban
 spesi al
Penj abat
B A
B H
al eng
 t ayang
 M ic
 T ata
 r ob
 C up
 g anja
 min eral
AT EN
 imb uh
 SE R
 Su gi
 liter asi
 KU HP
 k uliah
 K re
ik e
 W as
 H an
amp ai
ong g
egara an
 ata upun
est inasi
gag alkan
 bersi ap
 pil pres
hawat irkan
 Purw akarta
eklarasi kan
 persa ingan
S M
 k m
 t eh
 b ent
 men abrak
 S ut
il angkan
 K AB
ut asi
 g izi
 F ound
ota an
 kem erdekaan
 An as
 pemb uatan
 terb anyak
 dip anggil
 Le ague
 Boj an
i arkan
ah asan
 S istem
 A MIN
ai a
 D il
 j utaan
aw e
 mem ajukan
 mem ainkan
 peng obatan
angg ih
op ter
 an alis
 menyel idiki
ans os
 Angg aran
 Dir ector
 Rek tor
 Roh ingya
Ang ka
 SO LO
 Fransis kus
evelop ment
  ayam
O S
l es
il intar
 T eh
ih al
 mem akai
 N i
 pem udik
ic ial
 ag en
 Kos ter
 Kat olik
/k ota
enom ena
B M
 b unuh
 men entang
 S ab
ol akan
 per empat
 T enaga
 R onald
ay ung
ub ung
 pem angku
 pemb atasan
unt ungkan
 Pers atuan
B ukan
 d ep
ar ya
at angkan
 k ualifikasi
ik ul
 B uk
 B ag
asi f
 T ok
 mem fasilitasi
 itu lah
ed ulian
 U r
uj ur
 sel uas
 pr om
alon kan
 berl aga
 par tainya
 Jaya pura
 Hal ilintar
-E mil
 Lest ari
 pemul ihan
elens ky
  or
P DI
S udah
o u
 k uliner
 di evakuasi
eb arkan
uk tur
 C el
 peng er
 mengg andeng
tif ikat
 Pel aksana
Pol ri
pada i
 samb ungnya
-pro gram
 pensi un
E A
l ing
 men emui
 P ekerja
 R egional
 W at
and u
 Y ordania
 berk as
 terd ekat
 Men ko
 Mo j
 belak angan
 gag asan
 der ajat
 Pang arep
 Kristi yanto
r ian
r ana
 m edi
 P engg
 M erd
 h abis
 menc atatkan
 mengg uyur
"K arena
 Ari ef
emi um
aleng ka
' .

l il
en ial
 d enda
 k isah
 A H
 per ilaku
ari o
 I wan
 pen gacara
ok si
ub en
 pem ahaman
 sel a
 Ar t
oy al
 kend ala
 memp engaruhi
olid asi
 berman faat
N AS
j awab
 d ewan
at eral
 A D
 per ahu
 seb aik
angk itan
ingg o
 memper s
 al bum
eal th
erl ukan
 Or ganisasi
 Il mu
UP ATEN
 KAB UPATEN
B ank
 P D
ap as
 K uta
 M or
 meng onfirmasi
 meng uasai
 T ir
eg era
 H ubungan
 H erman
ub an
int angi
 O per
 St ef
 Mal l
 str uktur
Pert amina
 Prat ama
l ima
v itas
y l
 b as
 B ikin
ol ong
om od
 W ir
 memb atalkan
 g anda
 peng aruh
 pert ambangan
od y
 Y un
 Am mar
etu juan
 Em il
 Yus uf
 taw uran
" R
S P
n ah
in ja
 b endera
ap tasi
ik er
 J emb
 mem erlukan
 In f
 n utrisi
 pem ak
og le
 Kep utusan
asar nas
 terk ini
 umum nya
 pember antasan
 kari er
 mengkl aim
K ab
i gi
m eng
 m ikro
 S ai
 K abinet
ik opter
 B atang
 M eksiko
 J ab
 J uta
 T ul
 mem udahkan
ub sidi
 c el
 pel amar
 pel ecehan
Per istiwa
 diper oleh
 terp isah
-M uhaimin
 ot omotif
 re formasi
 mo tif
 univ ersi
  anj
" 

B D
c ar
m inya
w ujud
 p uas
 s awit
 b aku
 P or
es si
is ar
 ter ancam
 R yan
ag ar
ro ho
 C abang
 F eb
da ftar
 pr ajurit
Per d
umb u
 Peng urus
 berp ikir
 X X
 Komp leks
 imp lementasi
 pengaw as
 Bah lil
 mand iri
 diman faatkan
 Merd eka
f ri
 b uruh
eb ak
it if
us ul
 R aih
 In vestasi
 L um
 memper hatikan
tur e
 kr itis
erd asan
 Re formasi
 Wah yu
 Bhayangk ara
enggal ek
" Di
T M
m alkan
on asi
 B agi
 T ech
ed ang
 N TT
 g ar
eber angan
 Is tim
 Pem enangan
 Ber s
arap idana
resi f
 Rah mat
aper adilan
 mekan isme
R B
at inya
 t embakan
ap ur
 S ama
 K o
 ke agamaan
 G ede
 L an
int asan
 dit angani
 v aks
 dir ektur
sek usi
 penutup an
ar ja
at uhan
 s ay
 s emp
 k un
 t uk
 b eber
 b anding
 b etul
eb unan
ol ly
ab e
 R utan
 r uangan
 F ajar
 Per ubahan
 Per umahan
 mengh ubungi
 res minya
unt askan
 sil aturahmi
 mempering ati
 efisi en
 Hab ib
 respon den
 berpend apat
 otor itas
 pinj aman
residen an
 Jemb rana
 universi tas
j ukan
r oni
 p sik
 S idang
es or
 meng erahkan
 per bankan
 D istrik
 pen ahanan
 mem uji
 C apres
 c erai
 F re
ra c
 menc uri
 Pem ain
 dir asakan
 man is
 kons ul
 Pas uruan
 kur ban
 mod us
 org an
 tepat nya
 pop ulasi
 ayah nya
 Sant oso
 be asiswa
 Istim ewa
N egara
U s
p el
 b om
 P ec
 A y
 H adir
 c aleg
amb o
 mend erita
 O s
 pas c
 ap apun
 Ap p
 pan en
enti on
 engg an
 perg erakan
 Comm un
aft aran
Terl ebih
bol inggo
K end
 p us
 J aksa
id i
 pen ambahan
 memb eberkan
 menj atuhkan
 kep edulian
 pro perti
 f estival
uar akan
erd ayaan
 Bah r
 neg aranya
 Ud ara
I ran
k apai
 t e
 di alog
 B or
 ber unt
 M adi
 J uru
20 3
 r ombongan
 W hats
ro versi
 H ingga
 mel ahirkan
aran kan
int er
 as uhan
-b esaran
ond on
 Tel uk
 disi apkan
 kew ajiban
 Kad in
 Bus iness
  est
9 8
A h
A tas
I C
K en
an aman
 d ingin
es m
 meng embalikan
 ke daul
 T aliban
 D arm
 r entan
ti p
 kel ima
 pend ek
 Pel angg
 Ip tu
 Nug roho
 kedaul atan
- ASN
K antor
s y
 b ang
 M alam
ul uk
 H y
ay oran
 E c
 pemb erdayaan
est arian
 tet angga
 disebut kan
 Sumat ra
 Ex po
 mengec ek
 Con v
 efisi ensi
 nya wa
 dijalan kan
B iden
W ali
n aker
an am
er u
un ian
si t
 P MI
 K oalisi
or ban
 D arat
 W al
eh at
 F oto
os al
 Pro bolinggo
 Ar g
 bert anya
 al ih
Ter masuk
 was pada
 demonstr asi
 Ters angka
elensky y
" Dari
B L
B ali
D in
I r
R ibuan
f an
p ort
 s iber
 k abur
 t ulang
 b ib
un ungan
 B PJS
 A C
 W ard
 meny etujui
 peng amat
 peng umuman
 ker j
lin ik
 Kel ompok
 mengec am
 Te uku
 Cah yadi
 mark as
" Tidak
M isalnya
b ut
m ah
o ok
en angkan
at istik
ik ator
us uhan
 meng identifikasi
 ke g
 D evelopment
 j arang
 r uas
 L eg
 mend uga
 Kom ite
 mengh abiskan
 pengg el
 Tr enggalek
Sek itar
 mat ch
 memben arkan
/ J
/ lt
L HK
 m or
at ta
 b ikin
am ika
 P ort
 l ebaran
 M antan
 T ar
 D ian
 r ez
 N ah
 L u
 L et
 c ita
 pemb inaan
ov er
 berh ak
 Mar k
 ses ama
Ket iga
 berg antung
yak ini
 ditu jukan
 aparat ur
A C
e in
g en
m ada
n arkoba
on gi
 ber ak
 R un
 r elawan
 kep ad
 Pem asyarakatan
 dik atakan
Men jelang
tim alkan
 penyel esaian
 ka um
 Madi un
6 8
el d
 S olid
ari bu
adi an
 dalam nya
 H ani
 H ij
eh abil
 c ocok
ot ol
 set ia
 As osiasi
"S aat
 em osi
isk in
 tegas nya
 Pl us
 jabatan nya
 Le e
 Ul ama
/ ka
K ek
S t
Z NAS
e is
h um
ak im
ad in
 K TT
eng arkan
ur iga
 A nn
 M apolres
 meng izinkan
 mem egang
ot ret
 mend eklarasikan
 Pem erintahan
ac ana
und urkan
orn ia
 tertu tup
 ot ak
 pad at
 ditud uh
 penyelund upan
 sor otan
  angkat
  etik
B PBD
ya w
 B linken
 meng an
 T our
 c awapres
 E UR
 f ederal
 ket ertiban
 pend anaan
aksi malkan
av or
 Br and
Sek jen
 terang nya
 da un
 diplomat ik
alif ornia
  ex
D M
n al
 d estinasi
 m acam
is u
 B PK
 l a
 M asa
 h amil
 n asib
ent ina
 L ondon
 AS DP
 Ar ena
 kek asih
ont alo
 Pas aribu
 der as
-per usahaan
 Wil li
EMB ANG
 komersi al
/ M
/ R
S L
s esi
in ergi
 t empur
em ik
 P U
 ber ter
 l iburan
 M asih
 j er
ep si
 mend irikan
ip a
 memper juangkan
und uran
PB B
 perl awanan
 Ser v
 Ric is
ukses an
ehabil itasi
F ak
K ota
m o
m el
s tr
el ajari
 P utu
il ateral
 K od
 G ratis
ati ve
ingk us
 pemb alap
osi s
 berk uasa
 Th omas
 komp onen
 diter bitkan
 sed er
 Bas uki
II AS
 Dok ter
olog is
abet es
R A
R usia
m inal
 p angkalan
as ari
al ti
 b oc
 S and
 B intang
 l and
ari at
 un dangan
 r um
adi um
tr ans
 menc alonkan
 dib ebaskan
 Z ain
 Ab d
 terk emuka
gag ung
of f
eja uh
 Mil iter
har ma
 peman faatan
 Gor ontalo
 PAL EMBANG
/ D
I K
J ateng
b ek
o akan
s ar
er ingan
in da
 P agi
 K han
eng ahan
 l ari
 M u
 mem aksa
 C SR
eh old
eri ahkan
int ing
 pemb ahasan
 V er
anc ur
 dip akai
epan kan
 Sen i
 PN M
Mas yarakat
 pembel ajaran
 Teg uh
 tersi sa
 EUR O
  etn
P emprov
R WA
s et
v ok
ang d
 k ant
 B ay
 B ima
om e
 R ed
amp au
 kem itraan
 pas ca
 ut amanya
 samb ung
 ped uli
 Pes antren
 materi al
 Kari m
 lip at
 Wib owo
/ ft
P SI
Y L
p em
un gagung
 ter asa
 ter daftar
 W NI
 memb atasi
int asi
 ket ingg
 Am b
utan an
 penc ab
 Yas in
 Rez a
 dak waan
as hi
 P onor
 P ON
 S ent
ek u
 meng utip
 G il
 C alifornia
 F ik
 f in
 berl okasi
 st adion
ard o
 Sh op
Pr ak
 int ensif
 kont ak
 up ah
lad esh
 Ach mad
 Moj okerto
E D
P ak
 b y
 di yakini
 K ul
 B ey
 A kan
 h angat
 D amai
 mem aparkan
 C ap
 F ac
 dit embak
ej arah
 pr ed
 tim ah
 Pas lon
An d
 Ir wan
 mah al
 terj angkau
 kont eks
 Ed ward
 meres mikan
 berf ungsi
ams oet
 bang et
 Ponor ogo
P uluhan
T ersangka
ak ehold
 P enting
 K asat
ti ar
 W on
 G u
 g ame
 w adah
 Y aman
 an alisis
 banyak nya
anc aran
 berl ebihan
ers ediaan
-l uka
 disi ta
 tertulis nya
Am erika
Har apan
 Maul ana
  etika
" Per
- si
7 7
b anten
d it
en ep
 S udah
 K ir
 R atu
ud it
 G reen
amb ilan
ind ung
 An ton
ac etan
 kec erdasan
 pengh asil
 And re
arin da
iti on
 Bar eskrim
 art inya
 Ben ny
 Bir o
 Kam ala
 tembak au
  ambil
" Setelah
/ uh
 t as
 b apak
 men impa
tu t
ik irkan
 B agian
 J az
aw ali
aw agub
 W anita
 W ijaya
 n arapidana
 pert amanya
 Peng hargaan
akin kan
 Ak hir
 Har vey
erit aan
 Fat oni
 sim ulasi
 rah asia
6 6
7 00
K eh
r eh
 p aksa
 s ir
 k aca
 b esi
ad ha
 B angka
ek am
 M anc
ti ce
 G h
 c anggih
ump ut
 bersama an
 Pas ukan
 mempert anyakan
enj amin
 Kamp us
 menaik kan
 Tul ungagung
D ep
b ondo
 d etail
 s apaan
 k ajian
ah ari
 h o
 T y
 T ugas
eh kan
 g ej
 meny ebar
 dib er
atif ikasi
gag alan
 Sam arinda
 sambutan nya
 mengej utkan
 Kun ingan
 pemad aman
 Fer ry
 dita w
G ol
p ing
 d uka
 s ent
ah e
 S ari
 S ore
 B est
 B enjamin
 meng akses
 meng eksp
im igrasi
 T amb
 R isma
 W ar
 L emb
 L PG
 mend alami
 E S
 O tor
ow n
ev aluasi
 Men engah
eran si
 pan itia
Pert emuan
 Pa ul
sen tif
 Rud y
ubis hi
 kam era
  ent
S en
c u
 p ungk
ap ati
ir man
 R y
 R ay
 r encananya
aw ar
 mel epas
 c apaian
 peng ungkapan
ra z
os e
 berk ampanye
 peny aluran
 pend iri
uc ing
 Band a
 dir aih
 mener bitkan
ator ium
Kep utusan
.. .

 Boj onegoro
 menemp ati
 Maj alengka
P akar
en ta
at al
es pons
 B uka
 B udaya
 A P
 I z
ul ia
 R iv
 w arung
ter s
 ser aya
 pers atuan
 Ber d
 As ep
-s ek
 inv asi
rak irakan
oblos an
 netral itas
 Brig jen
its ubishi
ersih kan
 SER ANG
 Conv ention
l uk
o e
un tuk
el us
 B aik
 B angkalan
um rah
 meng untungkan
emb ira
 J as
 mel uas
and uk
 N oor
aj ikan
 peng angkatan
os p
 pol itisi
 su ci
 Ter minal
apol da
 berkom unikasi
 Sud jana
 Ant am
 angk utan
 On line
" I
I KN
 b ak
 P ekerjaan
 h or
ri ah
ot er
 mas ukan
 pert engahan
 as am
ov id
 St adium
Pro duk
 Keb ijakan
wak tu
 pengec ekan
 Situ bondo
Kab id
K T
m ark
 p i
 t emp
 di am
 S ang
il ikan
im o
 T epi
 I C
itu al
 pen emuan
 pen alti
ag en
 mel epaskan
 L uk
 c inta
 F l
 E V
op timalkan
 kel aparan
adir an
 Sum enep
 Leb ak
 Ser dang
 Mul yadi
 ot omat
ary ono
agn aia
erv asi
 Bang ladesh
 Yud h
 Bahr ain
 penggel edahan
I V
W ak
l ian
p as
er ing
 men antang
 B a
 I N
 I SIS
 R W
 r ev
 H ead
 In ter
 memb ah
 c o
 c er
Sel uruh
 PB NU
 Ram ad
 ob jek
 ed isi
 Ny oman
Perd ana
H as
d ip
y eksi
 di isi
 S imp
 K oordinasi
 B ella
 meng al
 meng undurkan
 J er
 L ah
 L aks
 sel ebritas
aku i
 kel ancaran
 hari an
 dik onsumsi
 pr aperadilan
 v isa
 keb un
 bert epatan
 a ut
 pil ot
-m udahan
 Mo eis
 ger eja
 disel esaikan
ph one
 akadem isi
 del egasi
T otal
an n
 B TN
it igasi
ek i
 J uara
 T ito
aw ak
 pert unjukan
 dik enakan
 v ol
ev an
 mengh ilangkan
engk apan
 Ang el
amah a
 perc epatan
 Ker eta
" Yang
A w
C EO
y im
in isi
 t iap
 b adai
 B K
 B ro
 B agus
 D usun
 U I
ebut kan
 pem enangan
 bah agia
 ket ersediaan
 kec antikan
 tak tik
 uc apan
 perm ukaan
ejahter a
 inv estigasi
 keter ampilan
reh ensif
Y D
p es
r ul
as m
 k ode
el at
il d
 l ingk
 h unian
 In ovasi
 menj amu
 pers etujuan
 dik embangkan
ec at
 Sur vei
 berj umlah
 Mas uk
-p ihak
erg y
 Bob by
 Tab anan
 mengkr itik
 kant ong
D S
E V
T erd
b ang
e ur
w anto
ak h
 k ok
 k adar
 men embus
 S usi
 S andra
 j asad
 r amai
 mel engkapi
 C ol
 meny uarakan
 ser tifikasi
ist yo
ig h
 berl atih
PK S
arn ai
 pl eno
 perp anjangan
  elit
R umah
U L
ad el
on c
 S ug
or si
 A PBN
 T PP
om i
 un juk
 pen olakan
 r o
 r evisi
 menj anjikan
 F ais
amb ar
 berk endara
 mengg el
 V al
gaw i
 mener angkan
 Men ang
 mengen al
 kend ali
 Man ahan
 Sy ariah
 Pram ella
 Co ach
 berter ima
  #
" Pada
t in
 d apur
 b ut
 b ansos
 T egal
 T etap
ir ahat
 in klusif
 mem atikan
 H i
 g em
 peng urangan
angg uran
arga i
od i
imp unan
 dit ambah
 bert ema
 al iansi
 hal al
 memas ang
erd as
 Rah arja
 Mil iar
 menemp uh
 mengej ar
 rest oran
esm ian
imigrasi an
  erat
' r
O M
l akan
s un
v okasi
er aian
 t ingginya
tu g
ing le
 T au
 D epan
ir u
 R uben
 mem ul
 mel em
 seb aga
 meny asar
aj akan
 dib entuk
 peny imp
 Band ar
 hukum nya
 bi oskop
 jumlah nya
 kont roversi
Sek arang
 sa ing
 Fran c
 im igrasi
okter an
 Praset yo
 Presi dent
 prom osi
" Mereka
A ir
E L
 T eco
 W ater
 C ovid
ot h
 dit entukan
aks asa
 ek sekutif
 seg ar
 kl arifikasi
 Ak si
 X i
 Ek sp
 Sam s
 Her u
Dir inya
 Go ogle
epak ati
 Pasi fik
 Arg entina
. id
A W
D C
K ali
e et
r int
 men ampung
eng si
 I S
ul ukan
 in sentif
 L ife
 g unung
 F est
angg al
orm at
 melakukan nya
 dik ar
ic a
 Kom isaris
etu m
-b aik
 produk tivitas
 min at
ear ch
 kri pto
 Andr ew
 hel ikopter
 Teh eran
 etn is
" L
" Itu
C apres
T ujuan
d ani
at h
 t angkis
 P ajak
 K ang
 G abungan
 mel intasi
 Al f
 Mal ik
 kr on
Ak u
 digital isasi
Peny anyi
 art ikel
land ia
 Boy ol
 Market ing
PDI P
J K
z uki
al asan
im ir
 T am
 D apil
ri oritas
 mend uduki
 f enomena
 dik laim
 v oli
 su ap
 bert ekad
 Sh ow
 komp rehensif
 Kon f
 Dit o
II I
ust om
 On su
old ing
yb rid
9 5
P enc
an ah
 S PB
ik o
ut rad
 M AL
 per asaan
 D ukungan
 H arus
 mel ukai
amp ang
 memb ebaskan
 peng ambilan
 Per b
orm as
ig ur
le y
 Kem endikbudristek
 Em p
 ib unya
 Sil va
 Lum ajang
B egitu
K apal
V ideo
e aming
j ect
p am
 p ort
 b otol
 P ari
 S erangan
 B agnaia
 meng ut
 J alak
 D orong
 D harma
eg on
ed ua
 C omp
 mer awat
aj aan
 mend engarkan
art al
est inya
 v onis
 pend ampingan
uc ian
ug erah
tar ik
erb ang
org e
 Den ny
 ken apa
 bersi kap
aft arkan
 bir u
 kak ak
 menged epankan
- Q
G ubernur
K ons
S ejauh
a us
l ic
 d eb
 k g
 t elak
 b asis
eb as
 ter wujud
 j et
 R atusan
ant ar
 peny ediaan
tur unan
 Si ak
 pendukung nya
egr am
lok ir
 mey akinkan
usn ahan
amer kan
angd ut
  /
K on
N anti
h usus
u asan
 p adahal
 P ek
uk o
 J en
 J embatan
 T HR
eg as
 H en
 L ab
ay angan
 c ek
uj ian
 kem acetan
 kes uksesan
 kec ewa
 sat uan
 op si
 Kem endagri
 Kemen ag
 En g
 aman ah
ma il
 Tran sp
 Institu t
ampau i
 ditaw arkan
% ,
l er
 t anya
 di abetes
si us
 B anjir
 A yat
 per umahan
 T empat
 R ac
 pen andatanganan
ed y
 N u
 memb aca
 pem antauan
 c adangan
isi t
op uler
 peny edia
 pr emium
 did irikan
 din amika
uf ak
 Dit angkap
Hasil nya
 Penyel enggara
 prop osal
 Dani el
 Solid aritas
 otomat is
I st
P ejabat
a uan
d ay
j an
r d
 b egini
 B aim
 ber isiko
 meng unggah
 meng endalikan
 h ilir
 R encana
ti c
 In sp
ent ari
ub a
 F ah
 O m
 ket erb
 dib antu
 pr omo
 DP W
 kek eringan
az ar
 Har upat
-anak nya
 kol eksi
 komitmen nya
 Nas ution
-c awapres
Sem oga
 Idul adha
lad imir
 Hij riah
Aw alnya
 Boyol ali
ufak tur
h entian
en aran
 P M
 B arang
ol ongan
 J un
im ob
 D as
 in tim
 ser tifikat
 dis ediakan
Men ko
ec k
 st akehold
 Men jelang
po ol
 Wah y
 sal at
 rez im
avor it
M obil
g an
h ika
y n
 p ec
 s eng
 di akses
 M ach
 T ra
 H af
 H ealth
 G am
 N gawi
 g igi
 meny inggung
 mas kapai
oleh kan
 Ke tut
oh a
mas alah
 as uhnya
unj angan
ov a
 dir encanakan
 did orong
esk alasi
 Ad ministrasi
 pet ern
 pet ahana
anggung jawab
 eks klusif
 Kej ati
 mus lim
 Kur ni
 mengant ongi
argan et
 vol ume
'r uf
utrad ara
  isi
  umrah
E mp
G anjar
h ari
j b
v el
er ly
 B asarnas
 l omba
 meng gagalkan
 T uhan
om asi
 D C
 D o
 r ef
 L am
 L agi
ay asa
ri e
 w ajar
 F ed
os ep
 dis etujui
 peny eberangan
ic ation
 Un gg
 bert ahap
iz en
 res olusi
 Ad itya
 memp elajari
 berg ulir
 Ger eja
 Arif in
 tun ai
 Found ation
D ata
 m iskin
 t ek
 B ern
um ut
asi at
 se per
eg ar
 G I
 L uh
ub ungkan
ain ing
 berk urang
ic al
Men anggapi
wan sa
 did eportasi
entu h
 produk tif
 Ter baik
 berp eng
elit ian
 jawab an
 spesi alis
alih kan
esu aian
 rel evan
 mo tivasi
 Zul k
elih araan
 Nah d
" Dalam
- isu
G us
K al
S oal
 s if
 k imia
 b lok
 men elan
 S alah
or eng
 per ut
 h ancur
 T em
 D aftar
 In form
 C uaca
amp ur
os ari
 pers nya
ic er
PP S
 mil enial
 terp idana
antor o
 dim intai
 kons olidasi
 menyel uruh
 Kej agung
 Di per
 ki per
 Log istik
K U
y angkan
en am
es ahan
 ter tarik
ol ogy
 n iat
 memb ongkar
 U ang
ebut an
ub likasi
angk atkan
 mend aftarkan
int on
 E ka
had apan
ungk us
 bers atu
 Pol andia
 peny anyi
 Mar s
 ap el
Pro f
 Kej ari
 z aman
 Mul ia
 Dir jen
esu ai
 Manag ement
 klien nya
omod asi
 seder hana
6 7
R O
b ert
r in
r ihat
en y
 s ih
 S IM
 ter integrasi
 ber agama
 A tas
 M enc
 N ational
 memb akar
 memb ersihkan
 pem egang
 An ti
 bers ejarah
 kel apa
 dit ingkatkan
 memper b
 dip enuhi
 berh arga
ug ur
 wilayah nya
 pengg anti
 Sub ang
PS DM
 El ec
 ketidak p
 Ass oc
 mendek ati
 Por tug
ashi on
 sebaga inya
P engg
g n
l ang
n ur
 m asif
 p ecah
 t aman
 di us
ik u
 B uruh
ek tual
 A PBD
 ke turunan
 D uta
 R K
 H e
 G OR
 N on
 ters endiri
 dib erlakukan
 Tim or
PK B
 memas ukkan
engk u
oy ono
erb al
 tekn ik
 urut an
endara i
inja uan
 Kul on
 membah ayakan
' 

E I
H adir
T entu
U MKM
m em
 p aham
 k awan
 l ampu
 J awab
 T om
 T iga
 D apat
 pen ulis
 r antai
aw aran
 L istyo
 sek elompok
 dit indak
ic arakan
 V ladimir
ement an
 diper b
 Sum edang
 Ah li
 keber angkatan
ret ariat
 vir us
 mengus ut
 mir ip
 Ky iv
cel ona
 Kre atif
/J PNN
" Jika
I m
K eber
h ester
l uan
p i
an sia
as ama
 b enda
 di akui
 S ad
ik h
ok a
 mel ampaui
 meny es
 dib ahas
oh ol
 mengh apus
 Ter l
 Persi ta
oy ong
 bern omor
 Has yim
 kepem ilikan
 keper luan
 Cil egon
 mar itim
6 1
6 2
r ama
u o
er pool
en z
al enta
 men onton
ag et
 g ender
 w arisan
 meny ebarkan
ub ur
 Ind ar
 mend arat
 mend adak
 Pr ess
 seg men
 ar mada
ero an
sist ensi
 pember ontak
 Dok umentasi
 Hart ono
 UN RWA
 mor al
D id
ang e
 s end
as pora
 di unggah
 ber ujung
 h ebat
 mem atuhi
 F air
 E st
 dib intangi
 ek or
 membuat nya
 Z elenskyy
 sat elit
 berg engsi
 Ant oni
 inter vensi
 member antas
 Para wansa
 Yudh oyono
6 3
S K
 p apar
em ani
 b jb
ek os
 meng optimalkan
im ak
 j umpa
 R eg
 r oket
 mem engaruhi
 W i
ant y
ain t
ib ah
 peng unjuk
 E s
uran ce
 Ch ar
 Am ran
 al mar
 al umni
Ter ima
 Peny akit
 dic etak
 tumb ang
 Kend araan
 Purn ama
 kub u
 We ek
 Cim ahi
 App le
E ri
M akan
N L
 men ak
uk am
 h and
 T o
 D J
 G as
ent angan
 L okasi
ow ongan
 peny erang
 berp engaruh
ch i
-k ota
-k elompok
 En ergy
 pan el
 dihad irkan
-r ekan
 Si ang
 Bir okrasi
 Wak tu
 tur is
 Soc ial
 hor or
Emp at
6 4
6 9
T PS
p urna
an egara
 S eksi
 S ejahtera
ek ali
 M i
 I M
ata u
 mer ata
ati vitas
ebih i
 dil anda
 An ung
 dit andatangani
 Is l
 ek st
 Z h
 dih entikan
 Dep uti
 rek ening
 kr usi
 Keb akaran
ayang nya
sh op
sama an
 mus uh
 Pan itia
amm ed
onj akan
Kapol da
istribusi kan
  ukuran
S itu
b as
k uit
u i
u ing
al anya
 di f
 di an
 P op
 K KB
 B anyak
 I van
 D om
 D asar
 R ec
 r ilis
and ri
 seb erat
 F inal
ob osan
 Y ang
 Pem impin
ej uang
 v is
 keb anyakan
19 5
anc ang
 dip roduksi
 berh ati
 ker ing
 Ar y
 kec uali
Pem impin
In ilah
 Put era
An t
 hidup nya
 Peny anyi
lor asi
rut men
 Sah roni
 bar eng
argan egaraan
 Stef ano
 XX I
 but ir
" J
S ul
h on
i asaan
z bek
en ai
 m uka
 p apan
ah ar
ah agia
 b ilateral
ab ri
 J us
 j enderal
 r umput
 n ir
 peng aturan
 dib unuh
oh an
ig er
 perc eraian
 ab sen
 ul ama
ift ah
 Off icer
? ?
B upati
k os
l ub
u aran
 m atang
 b atang
un is
 di ad
 l ansia
 M uara
 M abes
 h ambatan
id ul
 R as
 r esi
 mem er
adi o
 H all
 G at
 G ag
 G inting
 n asi
 n arasi
ay ati
ub lic
 peng aduan
 f it
 ser u
os h
 kon vensi
oh arjo
 Ch i
 dip icu
 sen anti
 a udi
 bel asan
oy okan
 jalan nya
-k apal
 Sat reskrim
 Sal eh
 pop ul
 pat ut
 Str ategis
 rel atif
 Sw edia
 putr anya
 Sec ret
 Hind u
 Flor ida
 Buk it
 PU PR
sun ami
zbek istan
 senanti asa
/ P
C S
G I
S u
d ayaan
o o
ak oni
 ter per
 meng uk
 per wira
 j at
 R ibu
 mem akan
 meny arankan
isi h
angk as
 E man
 f igur
da erah
 pers el
 dit olak
 v arian
ov ern
ev i
 berd arah
 politik us
Ber k
 dukungan nya
 neg osiasi
 mur id
 er upsi
eku ensi
 krusi al
- F
- men
v es
 b aju
 P EK
ut in
 B M
us wono
 M engg
 M ich
emb ada
 I ta
 r ambut
 r incian
 r aksasa
ag inya
ok i
 G l
 L ama
 meny enangkan
 peng olahan
 peng angguran
 E di
 ser uan
os ter
anc ing
 berh ubungan
 ker abat
 Ar s
abor atorium
 Sat ria
 bal asan
 Kr isten
 tel ur
 perg antian
 Riz al
 Sw iss
 Cip ta
 Pengaw asan
 lem ak
 tun tas
 Yah udi
rioritas kan
D PR
G el
c us
h ard
w it
en uhan
 m andi
si han
es at
 l upa
 M S
 n ikel
 mel ebihi
aya gunaan
 F ederal
 dit emp
 mengh ubungkan
iter ia
 penc oblosan
 As al
 perh itungan
kl usi
usn ahkan
 Yah ya
 terbar ukan
 Pengel olaan
 MAL ANG
, 

B AR
G D
T eco
y eh
 p utus
am uk
 di ubah
 ber hadapan
it ip
 R el
 pen untut
 mem aksimalkan
 N aik
 U p
 pem da
amb ung
 Pr ia
 dit inggal
enc y
ump ur
 ker tas
 Ber p
 al okasi
 Men inggal
 dih asilkan
 tert inggal
 kurang nya
 and alan
 SD N
 Sud an
 Berk el
 Tj ah
- obatan
K oordinator
r um
 d edikasi
at aran
al angan
 t uanya
ul l
 H ut
 mer angk
 meny esuaikan
 kep astian
 menc abut
 sem ata
TA N
ic s
af e
uc ati
ulai man
ungg uh
urn ia
 Pers en
 trans fer
 El ek
 mat ahari
 terh eboh
alih an
Se usai
 teror isme
 ab ad
ukses kan
 Sch ool
 perund ingan
vok at
e ed
m it
w ay
 P H
ik mati
 per ihal
 R ad
 L im
 memb alas
per t
 E t
 f avorit
 ak unt
 pemb angkit
 memper panjang
st ansi
unc ang
tri c
 did ominasi
 As tra
 musi si
abor si
 bal apan
operasi kan
 menya pa
 berc erita
ompet isi
 menyimp an
 Fauzi yah
L ayanan
M alam
O perasi
a q
f or
g e
v ir
 m agn
in ga
al y
 k emb
am aikan
 ber turut
 per encanaan
emb uny
 W apres
 ket enagakerjaan
ind ikasi
Men y
 Am bon
af ili
 Un air
 mengh arapkan
ij i
 man ufaktur
 ind ikasi
 Br imob
 Pend ayagunaan
 Komp et
-S uswono
 Dip onegoro
Kor ea
 mul ut
 pemad am
 camp ur
 Makan an
 Georg ia
 Pec co
 Portug al
- daerah
A ri
D ukungan
E T
L aga
M o
S idang
U ni
W NA
d am
h ukam
 p omp
al angi
 P art
on an
 S ulaiman
 B aj
 ber ikan
ek asan
 M U
 M iftah
 I T
up ang
 C ek
 L ewat
 U zbekistan
 w arganet
 Pr ak
 dis ahkan
 kel uhan
 dit empatkan
 Am eri
uc u
 kom isi
if li
AS I
 Mas s
 terj ebak
 Ac adem
 Sen jata
AL I
 Nat aru
 Bar ito
 gel ap
 Az iz
 Sus anto
 Wah id
 Id ris
awancara i
 lem ah
itor ing
 Cik arang
 Pam ekasan
 Ec onom
 ho aks
M ungkin
P lt
R E
at ap
 p adi
 di sip
el askan
kan nya
eb gram
 B SD
 B amsoet
akan wil
 J in
 T ingkat
 D ard
 j elang
amp ungan
 menj angkau
 g embira
emp ut
any ar
 Pr ol
 tahun nya
 kes et
 uj ian
 V ic
 Kom unitas
 mengh argai
kr et
 Kec elakaan
 kond isinya
 terj un
 Res earch
abr akan
 Dit reskrim
 Sus tain
 Keh utanan
 Ped uli
 ketingg ian
 disip lin
' ,
- turut
G r
I bu
K er
O TO
P l
S urat
m os
 m edan
 k ain
 P G
 S c
 S amb
eb ook
 K TP
 l el
 M y
 M itsubishi
 ke gagalan
ir ut
 R ober
 L em
osi da
amun isi
 berp el
abil ity
oy ok
isn u
 Kal sel
 bern ilai
 Rah man
 prak tis
te in
 tertu ang
ill a
 Sud irman
 Kab id
 Ha iti
Berb agai
Kel uarga
Sk uad
G BK
l ak
m udah
s ch
 s adar
 t angkap
 P PK
 P ower
is ta
 ter in
ur g
 B I
 l ebar
ek raf
et ing
ir at
 j ujur
 in sp
ok s
 H ilir
 c urah
 F ood
 Pem ilih
 keb udayaan
 Pen er
uc k
 mengh antam
 sep utar
 As y
 ind ah
eo ul
 perk ebunan
 berm otor
 sp ir
-n ama
Pas ukan
ork shop
rah im
kom info
 Perk asa
 tip is
Ek s
 Tok yo
 Dard ak
1 20
B el
K onf
e ing
y ana
en e
 s ingle
 k ucing
 di res
is ahkan
 B ina
uk e
 T ANG
 mem andang
 H eri
 G an
