{
  "version": "1.0",
  "truncation": null,
  "padding": null,
  "added_tokens": [],
  "normalizer": null,
  "pre_tokenizer": {
    "type": "Sequence",
    "pretokenizers": [
      {
        "type": "Split",
        "pattern": {
          "Regex": "[^\\r\\n\\p{L}\\p{N}]?[\\p{Lu}\\p{Lt}\\p{Lm}\\p{Lo}\\p{M}]*[\\p{Ll}\\p{Lm}\\p{Lo}\\p{M}]+|[^\\r\\n\\p{L}\\p{N}]?[\\p{Lu}\\p{Lt}\\p{Lm}\\p{Lo}\\p{M}]+[\\p{Ll}\\p{Lm}\\p{Lo}\\p{M}]*|\\p{N}{1,3}| ?[^\\s\\p{L}\\p{N}]+[\\r\\n/]*|\\s*[\\r\\n]+|\\s+(?!\\S)|\\s+"
        },
        "behavior": "Isolated",
        "invert": false
      }
    ]
  },
  "post_processor": null,
  "decoder": null,
  "model": {
    "type": "BPE",
    "dropout": null,
    "unk_token": null,
    "continuing_subword_prefix": null,
    "end_of_word_suffix": null,
    "fuse_unk": false,
    "byte_fallback": false,
    "ignore_merges": false,
    "vocab": {
      "\n": 0,
      " ": 1,
      "!": 2,
      "\"": 3,
      "#": 4,
      "$": 5,
      "%": 6,
      "&": 7,
      "'": 8,
      "(": 9,
      ")": 10,
      "*": 11,
      "+": 12,
      ",": 13,
      "-": 14,
      ".": 15,
      "/": 16,
      "0": 17,
      "1": 18,
      "2": 19,
      "3": 20,
      "4": 21,
      "5": 22,
      "6": 23,
      "7": 24,
      "8": 25,
      "9": 26,
      ":": 27,
      ";": 28,
      "<": 29,
      "=": 30,
      ">": 31,
      "?": 32,
      "@": 33,
      "A": 34,
      "B": 35,
      "C": 36,
      "D": 37,
      "E": 38,
      "F": 39,
      "G": 40,
      "H": 41,
      "I": 42,
      "J": 43,
      "K": 44,
      "L": 45,
      "M": 46,
      "N": 47,
      "O": 48,
      "P": 49,
      "Q": 50,
      "R": 51,
      "S": 52,
      "T": 53,
      "U": 54,
      "V": 55,
      "W": 56,
      "X": 57,
      "Y": 58,
      "Z": 59,
      "[": 60,
      "\\": 61,
      "]": 62,
      "_": 63,
      "`": 64,
      "a": 65,
      "b": 66,
      "c": 67,
      "d": 68,
      "e": 69,
      "f": 70,
      "g": 71,
      "h": 72,
      "i": 73,
      "j": 74,
      "k": 75,
      "l": 76,
      "m": 77,
      "n": 78,
      "o": 79,
      "p": 80,
      "q": 81,
      "r": 82,
      "s": 83,
      "t": 84,
      "u": 85,
      "v": 86,
      "w": 87,
      "x": 88,
      "y": 89,
      "z": 90,
      "£": 91,
      "®": 92,
      "°": 93,
      "±": 94,
      "²": 95,
      "³": 96,
      "µ": 97,
      "·": 98,
      "¼": 99,
      "½": 100,
      "Á": 101,
      "Â": 102,
      "Ä": 103,
      "Ç": 104,
      "É": 105,
      "Ó": 106,
      "Ö": 107,
      "×": 108,
      "Ü": 109,
      "à": 110,
      "á": 111,
      "â": 112,
      "ã": 113,
      "ä": 114,
      "ç": 115,
      "è": 116,
      "é": 117,
      "ê": 118,
      "ë": 119,
      "ì": 120,
      "í": 121,
      "ï": 122,
      "ð": 123,
      "ñ": 124,
      "ò": 125,
      "ó": 126,
      "ô": 127,
      "õ": 128,
      "ö": 129,
      "ø": 130,
      "ú": 131,
      "ü": 132,
      "Ā": 133,
      "ā": 134,
      "ć": 135,
      "ę": 136,
      "ğ": 137,
      "İ": 138,
      "ı": 139,
      "ķ": 140,
      "Ł": 141,
      "ł": 142,
      "ś": 143,
      "ş": 144,
      "š": 145,
      "ơ": 146,
      "ư": 147,
      "́": 148,
      "Α": 149,
      "Η": 150,
      "Τ": 151,
      "α": 152,
      "μ": 153,
      "‍": 154,
      "‎": 155,
      "•": 156,
      "′": 157,
      "″": 158,
      "⁠": 159,
      "€": 160,
      "™": 161,
      "−": 162,
      "≥": 163,
      "丽": 164,
      "安": 165,
      "洪": 166,
      "金": 167,
      "陈": 168,
      "🍌": 169,
      "😊": 170,
      "😭": 171,
      "🤲": 172,
      "an": 173,
      "er": 174,
      "en": 175,
      " d": 176,
      " m": 177,
      "ar": 178,
      "at": 179,
      " p": 180,
      "ang": 181,
      "ak": 182,
      "in": 183,
      " s": 184,
      "as": 185,
      "al": 186,
      " k": 187,
      "ah": 188,
      " t": 189,
      ".\n": 190,
      "em": 191,
      " b": 192,
      "am": 193,
      "un": 194,
      " di": 195,
      "el": 196,
      " men": 197,
      "ad": 198,
      "kan": 199,
      "tu": 200,
      "ya": 201,
      "si": 202,
      " P": 203,
      "ap": 204,
      "on": 205,
      " y": 206,
      " S": 207,
      " yang": 208,
      "eb": 209,
      "il": 210,
      "ga": 211,
      " K": 212,
      "or": 213,
      " dan": 214,
      "es": 215,
      "ik": 216,
      "eng": 217,
      "is": 218,
      " ter": 219,
      "ur": 220,
      "ut": 221,
      " B": 222,
      " ber": 223,
      "it": 224,
      " l": 225,
      "ing": 226,
      "us": 227,
      "ek": 228,
      " A": 229,
      "um": 230,
      "et": 231,
      "asi": 232,
      " M": 233,
      "akan": 234,
      "ol": 235,
      " meng": 236,
      "ada": 237,
      "ara": 238,
      "ung": 239,
      " per": 240,
      "uk": 241,
      "ari": 242,
      "emb": 243,
      "ab": 244,
      "nya": 245,
      " ke": 246,
      " (": 247,
      " J": 248,
      " h": 249,
      "ai": 250,
      "im": 251,
      " T": 252,
      " I": 253,
      "om": 254,
      "ul": 255,
      " D": 256,
      "id": 257,
      "20": 258,
      "ir": 259,
      "ta": 260,
      " j": 261,
      " in": 262,
      " R": 263,
      "tuk": 264,
      " un": 265,
      "alam": 266,
      "202": 267,
      " se": 268,
      " untuk": 269,
      "ud": 270,
      "itu": 271,
      "ih": 272,
      " pen": 273,
      " r": 274,
      "engan": 275,
      "ata": 276,
      "ti": 277,
      "ag": 278,
      "aw": 279,
      "up": 280,
      " dengan": 281,
      "atan": 282,
      " mem": 283,
      "angan": 284,
      "eg": 285,
      " -": 286,
      " ini": 287,
      " dari": 288,
      "adi": 289,
      "esi": 290,
      "ama": 291,
      "ok": 292,
      "ia": 293,
      " W": 294,
      " itu": 295,
      "\",": 296,
      "ro": 297,
      "uh": 298,
      " dalam": 299,
      " pada": 300,
      "ant": 301,
      "ed": 302,
      " H": 303,
      " G": 304,
      " In": 305,
      " n": 306,
      "ep": 307,
      " mel": 308,
      "and": 309,
      "aga": 310,
      " C": 311,
      "ian": 312,
      "aya": 313,
      " N": 314,
      " seb": 315,
      "amp": 316,
      "ukan": 317,
      "ent": 318,
      " L": 319,
      " memb": 320,
      " mer": 321,
      "ay": 322,
      " U": 323,
      "ali": 324,
      "ebut": 325,
      "ri": 326,
      " menj": 327,
      "per": 328,
      "eh": 329,
      " g": 330,
      " ters": 331,
      "idak": 332,
      " w": 333,
      " meny": 334,
      "ub": 335,
      " pem": 336,
      "eri": 337,
      "aj": 338,
      "ain": 339,
      " Ind": 340,
      " c": 341,
      "isi": 342,
      "alah": 343,
      "elah": 344,
      "aan": 345,
      "uga": 346,
      " tidak": 347,
      "ot": 348,
      "wa": 349,
      "angk": 350,
      "end": 351,
      "ua": 352,
      ").\n": 353,
      "ib": 354,
      "uan": 355,
      "onesi": 356,
      " akan": 357,
      "onesia": 358,
      " tersebut": 359,
      " peng": 360,
      " Indonesia": 361,
      " F": 362,
      "ahan": 363,
      "asa": 364,
      " kep": 365,
      "emp": 366,
      "agai": 367,
      "aran": 368,
      "uj": 369,
      "nn": 370,
      "amb": 371,
      "aat": 372,
      "pnn": 373,
      "jpnn": 374,
      "anj": 375,
      "ota": 376,
      " juga": 377,
      "ana": 378,
      " Per": 379,
      "atakan": 380,
      "com": 381,
      "angg": 382,
      "ati": 383,
      ".com": 384,
      " sel": 385,
      " WI": 386,
      " WIB": 387,
      "tr": 388,
      "usi": 389,
      " mend": 390,
      "ahun": 391,
      " pro": 392,
      " bah": 393,
      "akukan": 394,
      "ami": 395,
      " mas": 396,
      "int": 397,
      "orang": 398,
      "gi": 399,
      "ob": 400,
      "anya": 401,
      "any": 402,
      " E": 403,
      "alu": 404,
      " kata": 405,
      "apat": 406,
      "oleh": 407,
      "ra": 408,
      "agi": 409,
      " menjadi": 410,
      "arga": 411,
      "cara": 412,
      " Pr": 413,
      "akar": 414,
      " f": 415,
      "asan": 416,
      "alan": 417,
      " mengatakan": 418,
      "ja": 419,
      "ungan": 420,
      "ter": 421,
      "had": 422,
      "eka": 423,
      " saat": 424,
      "ala": 425,
      "isa": 426,
      " bahwa": 427,
      "atu": 428,
      "ika": 429,
      " sek": 430,
      "da": 431,
      " ad": 432,
      " pel": 433,
      " ser": 434,
      " ak": 435,
      " sebagai": 436,
      "ebih": 437,
      " oleh": 438,
      " telah": 439,
      "ong": 440,
      "ingk": 441,
      " ada": 442,
      " tahun": 443,
      "ena": 444,
      "ip": 445,
      "itas": 446,
      "apa": 447,
      "os": 448,
      "utu": 449,
      "aman": 450,
      "ni": 451,
      "akarta": 452,
      "yar": 453,
      " kar": 454,
      "ew": 455,
      " kon": 456,
      " set": 457,
      "udah": 458,
      " bisa": 459,
      "api": 460,
      " dil": 461,
      " O": 462,
      "egara": 463,
      " ket": 464,
      "ita": 465,
      "onal": 466,
      "AR": 467,
      " ata": 468,
      "ran": 469,
      "00": 470,
      "lah": 471,
      " kem": 472,
      "aru": 473,
      "ingga": 474,
      "art": 475,
      " kepada": 476,
      " atau": 477,
      "ingg": 478,
      "ind": 479,
      "inya": 480,
      "asil": 481,
      " lebih": 482,
      " Ke": 483,
      " An": 484,
      "akat": 485,
      "ow": 486,
      "aku": 487,
      "res": 488,
      " mereka": 489,
      " pert": 490,
      " menc": 491,
      "ungk": 492,
      "ina": 493,
      " pemb": 494,
      " Jakarta": 495,
      " \"": 496,
      "gr": 497,
      "elum": 498,
      "urut": 499,
      "esar": 500,
      " orang": 501,
      "eber": 502,
      "den": 503,
      " satu": 504,
      " dis": 505,
      " sem": 506,
      " Sel": 507,
      "yarakat": 508,
      " bers": 509,
      "od": 510,
      "aik": 511,
      " Pol": 512,
      " Y": 513,
      "osi": 514,
      " sudah": 515,
      "anyak": 516,
      "op": 517,
      "empat": 518,
      "awa": 519,
      " karena": 520,
      " pers": 521,
      "imp": 522,
      " dib": 523,
      "erint": 524,
      " berk": 525,
      "iri": 526,
      " kel": 527,
      "erah": 528,
      "erja": 529,
      " adalah": 530,
      "TA": 531,
      " kes": 532,
      " dit": 533,
      " kami": 534,
      "og": 535,
      " para": 536,
      "iga": 537,
      " Kota": 538,
      " berb": 539,
      " peny": 540,
      " masyarakat": 541,
      "apan": 542,
      " an": 543,
      "orm": 544,
      " melakukan": 545,
      " Is": 546,
      "ilik": 547,
      "ember": 548,
      "esiden": 549,
      "abu": 550,
      "asih": 551,
      "ban": 552,
      " hari": 553,
      " pas": 554,
      " lain": 555,
      "angs": 556,
      "awan": 557,
      " uj": 558,
      "atkan": 559,
      " sej": 560,
      " Pem": 561,
      "ac": 562,
      "arang": 563,
      "ist": 564,
      "oh": 565,
      "uat": 566,
      "aks": 567,
      "hadap": 568,
      "arkan": 569,
      "ej": 570,
      "ilih": 571,
      "aikan": 572,
      "arus": 573,
      "umat": 574,
      "AK": 575,
      "10": 576,
      "ini": 577,
      "apkan": 578,
      " negara": 579,
      "est": 580,
      " terhadap": 581,
      " mengg": 582,
      "erikan": 583,
      "ima": 584,
      "omp": 585,
      " dik": 586,
      " memper": 587,
      " tet": 588,
      " at": 589,
      "ikan": 590,
      " bagi": 591,
      " pr": 592,
      " terb": 593,
      "asional": 594,
      "erintah": 595,
      "ic": 596,
      " dapat": 597,
      "jadi": 598,
      " ujar": 599,
      " kor": 600,
      " dia": 601,
      "arat": 602,
      "enc": 603,
      "ARTA": 604,
      "AKARTA": 605,
      " Tim": 606,
      "upat": 607,
      "umlah": 608,
      "ka": 609,
      "Sel": 610,
      " secara": 611,
      "uhan": 612,
      "dang": 613,
      "uran": 614,
      "gram": 615,
      " hingga": 616,
      "mas": 617,
      "abupat": 618,
      "abupaten": 619,
      "duk": 620,
      " as": 621,
      "amis": 622,
      "engah": 623,
      "umah": 624,
      " JAKARTA": 625,
      " v": 626,
      "hir": 627,
      "unj": 628,
      "enin": 629,
      "eberapa": 630,
      "usah": 631,
      "Men": 632,
      "anjut": 633,
      "upakan": 634,
      "ensi": 635,
      "ec": 636,
      "ingan": 637,
      "askan": 638,
      " V": 639,
      "ihak": 640,
      "perti": 641,
      "),": 642,
      "Dia": 643,
      " setelah": 644,
      "ov": 645,
      " merupakan": 646,
      "angat": 647,
      " pol": 648,
      "angka": 649,
      "12": 650,
      " Ch": 651,
      " dua": 652,
      "usia": 653,
      " seperti": 654,
      "antu": 655,
      "ayah": 656,
      " baru": 657,
      "PP": 658,
      " saya": 659,
      " Sur": 660,
      " keb": 661,
      "ern": 662,
      "ulan": 663,
      "uka": 664,
      "19": 665,
      " warga": 666,
      "tua": 667,
      "ement": 668,
      "alon": 669,
      " masih": 670,
      " Kabupaten": 671,
      "ses": 672,
      " pun": 673,
      " ag": 674,
      " harus": 675,
      " AS": 676,
      " dilakukan": 677,
      " ek": 678,
      "AN": 679,
      "11": 680,
      " beberapa": 681,
      " serta": 682,
      "aerah": 683,
      "asus": 684,
      "emen": 685,
      "tif": 686,
      " memberikan": 687,
      " Ag": 688,
      "iliki": 689,
      "ump": 690,
      "era": 691,
      "alui": 692,
      " anak": 693,
      " pend": 694,
      "amun": 695,
      "angsung": 696,
      "ilan": 697,
      " banyak": 698,
      " ant": 699,
      "anc": 700,
      "uang": 701,
      "ekan": 702,
      "engg": 703,
      " Jawa": 704,
      "ukum": 705,
      "artai": 706,
      "ayan": 707,
      " Am": 708,
      " Al": 709,
      "rael": 710,
      "itik": 711,
      "st": 712,
      "ilayah": 713,
      " Pro": 714,
      " korban": 715,
      " lalu": 716,
      " dip": 717,
      " hanya": 718,
      " atas": 719,
      " pihak": 720,
      "olo": 721,
      " besar": 722,
      "ikasi": 723,
      "tor": 724,
      "tur": 725,
      " berh": 726,
      " su": 727,
      "di": 728,
      "uah": 729,
      " Mar": 730,
      "unan": 731,
      "inan": 732,
      "Per": 733,
      "uar": 734,
      " dig": 735,
      " memiliki": 736,
      " rumah": 737,
      "apor": 738,
      " bersama": 739,
      "form": 740,
      "ea": 741,
      "inggu": 742,
      "agian": 743,
      "tikan": 744,
      "owo": 745,
      " Pil": 746,
      " terjadi": 747,
      "af": 748,
      "uruh": 749,
      " tim": 750,
      " Bali": 751,
      " seh": 752,
      "erangan": 753,
      " Pen": 754,
      ".jpnn": 755,
      " selama": 756,
      "itar": 757,
      "ig": 758,
      "ting": 759,
      " baik": 760,
      " melalui": 761,
      " berl": 762,
      "uc": 763,
      "ev": 764,
      " sangat": 765,
      "imb": 766,
      " Israel": 767,
      "aksi": 768,
      "unia": 769,
      "embali": 770,
      "ug": 771,
      "ani": 772,
      "ulai": 773,
      " Un": 774,
      " ker": 775,
      "Menurut": 776,
      " salah": 777,
      "ons": 778,
      " Ber": 779,
      " ked": 780,
      " kasus": 781,
      "wan": 782,
      "inta": 783,
      "man": 784,
      " Ar": 785,
      "15": 786,
      "ilai": 787,
      " wak": 788,
      "kait": 789,
      " wilayah": 790,
      "angkan": 791,
      " Des": 792,
      "elar": 793,
      " sen": 794,
      "ikut": 795,
      "iap": 796,
      " bert": 797,
      "ei": 798,
      "Kami": 799,
      "pa": 800,
      " pemerintah": 801,
      "ampaikan": 802,
      " DP": 803,
      "edia": 804,
      "abtu": 805,
      " Rp": 806,
      " Kom": 807,
      " Presiden": 808,
      " Band": 809,
      "aja": 810,
      "unakan": 811,
      "gaw": 812,
      " kita": 813,
      " Rabu": 814,
      " mengh": 815,
      "Namun": 816,
      " Senin": 817,
      " mil": 818,
      " Selasa": 819,
      "au": 820,
      " sama": 821,
      " tent": 822,
      "unc": 823,
      " al": 824,
      "ahu": 825,
      " terl": 826,
      " tetapi": 827,
      "umb": 828,
      "lu": 829,
      " Barat": 830,
      "abowo": 831,
      " ap": 832,
      " angg": 833,
      " Kep": 834,
      " terus": 835,
      " sebelum": 836,
      " kom": 837,
      "oto": 838,
      " Kamis": 839,
      " dir": 840,
      " terkait": 841,
      " kembali": 842,
      "isasi": 843,
      "han": 844,
      "utus": 845,
      "adan": 846,
      "utan": 847,
      " persen": 848,
      "ihat": 849,
      " kek": 850,
      " sekitar": 851,
      "Seb": 852,
      "kr": 853,
      "uda": 854,
      "tern": 855,
      " kec": 856,
      " hal": 857,
      "udi": 858,
      " meningk": 859,
      "16": 860,
      " hukum": 861,
      "unya": 862,
      " seluruh": 863,
      "tri": 864,
      "anto": 865,
      "30": 866,
      "ungg": 867,
      "onom": 868,
      "ij": 869,
      " mendapat": 870,
      "ark": 871,
      " agar": 872,
      "udian": 873,
      "14": 874,
      " Prabowo": 875,
      "az": 876,
      "kada": 877,
      " berbagai": 878,
      "arah": 879,
      " pern": 880,
      " did": 881,
      " sep": 882,
      "17": 883,
      " pes": 884,
      " tak": 885,
      " tiga": 886,
      "idikan": 887,
      " terd": 888,
      "atih": 889,
      "inggal": 890,
      "lik": 891,
      "atang": 892,
      "omor": 893,
      " daerah": 894,
      "erik": 895,
      "mi": 896,
      "amatan": 897,
      " o": 898,
      "abat": 899,
      "sp": 900,
      " Jumat": 901,
      " tan": 902,
      "entu": 903,
      " hasil": 904,
      " PT": 905,
      "uli": 906,
      "epan": 907,
      "ju": 908,
      "upaya": 909,
      "uru": 910,
      " program": 911,
      "abar": 912,
      " menjel": 913,
      "ahkan": 914,
      " sebuah": 915,
      " Selatan": 916,
      "men": 917,
      "PK": 918,
      "yata": 919,
      " lainnya": 920,
      "13": 921,
      " St": 922,
      "masuk": 923,
      "18": 924,
      "egeri": 925,
      "ukung": 926,
      "etu": 927,
      "if": 928,
      "enteri": 929,
      "ehatan": 930,
      " samp": 931,
      "asar": 932,
      "apai": 933,
      "iz": 934,
      "ubern": 935,
      "ubernur": 936,
      "usahaan": 937,
      " calon": 938,
      " dunia": 939,
      "-b": 940,
      " menyebut": 941,
      " diper": 942,
      "uari": 943,
      " produk": 944,
      "21": 945,
      "23": 946,
      "sa": 947,
      "uta": 948,
      "und": 949,
      " belum": 950,
      "air": 951,
      "formasi": 952,
      "tas": 953,
      "osial": 954,
      " Ut": 955,
      "ologi": 956,
      " pertama": 957,
      " antara": 958,
      " Ketua": 959,
      "ersi": 960,
      "abaya": 961,
      " tentang": 962,
      " RI": 963,
      "ilu": 964,
      "aris": 965,
      "anti": 966,
      " sedang": 967,
      " Ap": 968,
      " ses": 969,
      "erian": 970,
      "li": 971,
      " Ter": 972,
      "inggi": 973,
      " Surabaya": 974,
      "utama": 975,
      "ank": 976,
      " kerja": 977,
      "ampak": 978,
      " penting": 979,
      "ingin": 980,
      " menghad": 981,
      "MK": 982,
      "ef": 983,
      " res": 984,
      " dem": 985,
      " kh": 986,
      "mad": 987,
      "ayanan": 988,
      "iter": 989,
      " Agus": 990,
      "elas": 991,
      "okasi": 992,
      " Bandung": 993,
      "ril": 994,
      " membuat": 995,
      "olah": 996,
      " semua": 997,
      "idang": 998,
      "ilihan": 999,
      " Peng": 1000,
      " termasuk": 1001,
      "nas": 1002,
      "ekerja": 1003,
      "amanan": 1004,
      " Kor": 1005,
      "alami": 1006,
      " sejumlah": 1007,
      " pelaku": 1008,
      " memas": 1009,
      " berj": 1010,
      " Timur": 1011,
      " berd": 1012,
      "insi": 1013,
      "atanya": 1014,
      " langsung": 1015,
      "25": 1016,
      " st": 1017,
      "araan": 1018,
      "akin": 1019,
      "\".\n": 1020,
      "umum": 1021,
      "impin": 1022,
      " Z": 1023,
      "atif": 1024,
      "ibat": 1025,
      "re": 1026,
      " depan": 1027,
      "Dalam": 1028,
      "Saya": 1029,
      "uas": 1030,
      "akit": 1031,
      "PU": 1032,
      "ungkap": 1033,
      "ual": 1034,
      " sejak": 1035,
      " berp": 1036,
      " man": 1037,
      "akhir": 1038,
      " penc": 1039,
      "usus": 1040,
      " Tengah": 1041,
      "sia": 1042,
      "antan": 1043,
      " bi": 1044,
      "esk": 1045,
      " kedua": 1046,
      " anggota": 1047,
      "unjuk": 1048,
      " terp": 1049,
      " katanya": 1050,
      "Di": 1051,
      " a": 1052,
      "tiv": 1053,
      "anda": 1054,
      "antor": 1055,
      " Pilkada": 1056,
      " kali": 1057,
      " mener": 1058,
      "awat": 1059,
      " bagian": 1060,
      "angunan": 1061,
      "epat": 1062,
      " suara": 1063,
      " waktu": 1064,
      "asis": 1065,
      " DPR": 1066,
      " seorang": 1067,
      "istr": 1068,
      "ibu": 1069,
      "AS": 1070,
      "aka": 1071,
      " dim": 1072,
      "22": 1073,
      "empuan": 1074,
      " Partai": 1075,
      " mendukung": 1076,
      " bulan": 1077,
      " Um": 1078,
      " Sem": 1079,
      " Kec": 1080,
      "encana": 1081,
      " Minggu": 1082,
      " Th": 1083,
      " politik": 1084,
      " China": 1085,
      " Men": 1086,
      "Selain": 1087,
      "ono": 1088,
      " sehingga": 1089,
      "uni": 1090,
      " pengg": 1091,
      "ustr": 1092,
      "aian": 1093,
      "gas": 1094,
      "ch": 1095,
      " As": 1096,
      " Sabtu": 1097,
      " Tr": 1098,
      " Pert": 1099,
      "erika": 1100,
      " tempat": 1101,
      "akil": 1102,
      " Pal": 1103,
      " mengaku": 1104,
      "usat": 1105,
      "arg": 1106,
      "irek": 1107,
      " ya": 1108,
      "erang": 1109,
      " serangan": 1110,
      " menyampaikan": 1111,
      " akhir": 1112,
      "utusan": 1113,
      " kota": 1114,
      " Ok": 1115,
      "atim": 1116,
      " mulai": 1117,
      "201": 1118,
      "ont": 1119,
      "eksi": 1120,
      "lin": 1121,
      "ekn": 1122,
      "awasan": 1123,
      "24": 1124,
      "aksan": 1125,
      " meningkatkan": 1126,
      "din": 1127,
      " saja": 1128,
      " proses": 1129,
      " Jok": 1130,
      "onomi": 1131,
      "Pada": 1132,
      " perusahaan": 1133,
      "PN": 1134,
      "ompok": 1135,
      " lagi": 1136,
      "ingkat": 1137,
      "-s": 1138,
      "oba": 1139,
      "ober": 1140,
      " kons": 1141,
      "emukan": 1142,
      " Mal": 1143,
      " ind": 1144,
      "Ber": 1145,
      " aw": 1146,
      "eo": 1147,
      " Menteri": 1148,
      " Pel": 1149,
      "DI": 1150,
      "engk": 1151,
      " ketika": 1152,
      "ard": 1153,
      " bel": 1154,
      " [": 1155,
      " Mas": 1156,
      "alau": 1157,
      " sosial": 1158,
      "ublik": 1159,
      " menggunakan": 1160,
      " Nov": 1161,
      "SI": 1162,
      " kamp": 1163,
      " Persi": 1164,
      " seg": 1165,
      " sur": 1166,
      " malam": 1167,
      " juta": 1168,
      "arn": 1169,
      "akni": 1170,
      " Pas": 1171,
      "gaj": 1172,
      "Pem": 1173,
      " Amerika": 1174,
      " kesehatan": 1175,
      "uarga": 1176,
      " Sep": 1177,
      "usaha": 1178,
      "NI": 1179,
      "otor": 1180,
      "ukungan": 1181,
      "Pen": 1182,
      "vinsi": 1183,
      " menjelaskan": 1184,
      "idup": 1185,
      "egi": 1186,
      "ort": 1187,
      "oal": 1188,
      "eral": 1189,
      " tinggi": 1190,
      " yakni": 1191,
      " media": 1192,
      "obil": 1193,
      "adir": 1194,
      "tober": 1195,
      " Umum": 1196,
      " min": 1197,
      " pemain": 1198,
      " tetap": 1199,
      " bukan": 1200,
      "antuan": 1201,
      " mengen": 1202,
      " Oktober": 1203,
      " kegi": 1204,
      "perasi": 1205,
      "In": 1206,
      "una": 1207,
      "alkan": 1208,
      "abil": 1209,
      " kegiatan": 1210,
      " Uni": 1211,
      " ingin": 1212,
      " keterangan": 1213,
      "upun": 1214,
      "arap": 1215,
      " ma": 1216,
      "aling": 1217,
      "Hal": 1218,
      " diri": 1219,
      "iv": 1220,
      "ator": 1221,
      "Ket": 1222,
      "ementerian": 1223,
      " Polres": 1224,
      "tus": 1225,
      " lanjut": 1226,
      " air": 1227,
      " Kecamatan": 1228,
      " ben": 1229,
      " masa": 1230,
      "ukul": 1231,
      "Un": 1232,
      "usan": 1233,
      "anjang": 1234,
      "angkah": 1235,
      "ko": 1236,
      "rat": 1237,
      "tar": 1238,
      "aza": 1239,
      " tersangka": 1240,
      " berada": 1241,
      " upaya": 1242,
      "inal": 1243,
      "ca": 1244,
      " Rusia": 1245,
      " PPP": 1246,
      "ers": 1247,
      "angkap": 1248,
      "27": 1249,
      " mendapatkan": 1250,
      " kemudian": 1251,
      " luar": 1252,
      "owi": 1253,
      " masuk": 1254,
      " sekali": 1255,
      "ukti": 1256,
      " sampai": 1257,
      "ola": 1258,
      "ahanan": 1259,
      " November": 1260,
      " apa": 1261,
      " sesu": 1262,
      "aporan": 1263,
      " dih": 1264,
      "ula": 1265,
      "le": 1266,
      " presiden": 1267,
      " put": 1268,
      " mencapai": 1269,
      "Ini": 1270,
      "gab": 1271,
      " Gubernur": 1272,
      "iran": 1273,
      " Jan": 1274,
      "upsi": 1275,
      "urn": 1276,
      " Juli": 1277,
      "ingkungan": 1278,
      "oy": 1279,
      "apol": 1280,
      " sebelumnya": 1281,
      " Unit": 1282,
      "000": 1283,
      "tim": 1284,
      " khusus": 1285,
      "-p": 1286,
      " makan": 1287,
      "ambil": 1288,
      "yat": 1289,
      " kur": 1290,
      " posi": 1291,
      " kond": 1292,
      " menunjuk": 1293,
      "ibran": 1294,
      " Sh": 1295,
      " Semarang": 1296,
      "ementara": 1297,
      " en": 1298,
      "akal": 1299,
      "itmen": 1300,
      "?\n": 1301,
      " acara": 1302,
      " tran": 1303,
      " perempuan": 1304,
      " uc": 1305,
      " dukungan": 1306,
      " jelas": 1307,
      " Gaza": 1308,
      "ogor": 1309,
      "urkan": 1310,
      "ungkin": 1311,
      " komp": 1312,
      " Mah": 1313,
      "adilan": 1314,
      " Put": 1315,
      "aki": 1316,
      "uhi": 1317,
      " musi": 1318,
      " kawasan": 1319,
      "irektur": 1320,
      "versi": 1321,
      " kend": 1322,
      " Man": 1323,
      " Bogor": 1324,
      "eda": 1325,
      "jata": 1326,
      "ilm": 1327,
      "yah": 1328,
      "ustri": 1329,
      "Selasa": 1330,
      " penyel": 1331,
      "orong": 1332,
      "Mer": 1333,
      "angi": 1334,
      " jalan": 1335,
      " pasangan": 1336,
      "Sementara": 1337,
      " membantu": 1338,
      " jadi": 1339,
      " Utara": 1340,
      "anye": 1341,
      " hak": 1342,
      " Ad": 1343,
      " nomor": 1344,
      " Agustus": 1345,
      " menyatakan": 1346,
      " Nasional": 1347,
      " pukul": 1348,
      " pengh": 1349,
      " mengalami": 1350,
      "ital": 1351,
      "ambah": 1352,
      "utur": 1353,
      "omb": 1354,
      " perk": 1355,
      " Juni": 1356,
      "Pr": 1357,
      "oc": 1358,
      " terakhir": 1359,
      " intern": 1360,
      "itan": 1361,
      "RI": 1362,
      "erta": 1363,
      "Rabu": 1364,
      "endiri": 1365,
      " menunjukkan": 1366,
      "tember": 1367,
      "An": 1368,
      " bantuan": 1369,
      " memastikan": 1370,
      "29": 1371,
      "uatan": 1372,
      " Jalan": 1373,
      "ayaan": 1374,
      "28": 1375,
      "emuan": 1376,
      " September": 1377,
      " jika": 1378,
      "iar": 1379,
      "Jumat": 1380,
      "Kamis": 1381,
      " Tahun": 1382,
      "ulang": 1383,
      "eman": 1384,
      " lokasi": 1385,
      " Desember": 1386,
      "awah": 1387,
      " Desa": 1388,
      " ekonomi": 1389,
      "26": 1390,
      "resi": 1391,
      "ode": 1392,
      " Mei": 1393,
      " keluarga": 1394,
      "ond": 1395,
      "-k": 1396,
      "olisi": 1397,
      "awab": 1398,
      " PPPK": 1399,
      " gamb": 1400,
      "ema": 1401,
      "erj": 1402,
      "angun": 1403,
      " meminta": 1404,
      "ey": 1405,
      "aut": 1406,
      " ucap": 1407,
      " jumlah": 1408,
      " berm": 1409,
      "ateng": 1410,
      " Ang": 1411,
      " berlangsung": 1412,
      "ebr": 1413,
      " din": 1414,
      " tengah": 1415,
      " kap": 1416,
      "jen": 1417,
      "ukai": 1418,
      "to": 1419,
      "isn": 1420,
      "Foto": 1421,
      "urun": 1422,
      " April": 1423,
      " meninggal": 1424,
      " berhasil": 1425,
      "erb": 1426,
      " Januari": 1427,
      " Kementerian": 1428,
      "aju": 1429,
      "ubungan": 1430,
      "faat": 1431,
      "\"K": 1432,
      "ulu": 1433,
      " si": 1434,
      " setiap": 1435,
      "aporkan": 1436,
      " Negeri": 1437,
      "otensi": 1438,
      "ahui": 1439,
      "Senin": 1440,
      " tr": 1441,
      "umber": 1442,
      " str": 1443,
      " awal": 1444,
      "oor": 1445,
      "yataan": 1446,
      " memp": 1447,
      " mana": 1448,
      " laga": 1449,
      "ebab": 1450,
      " maupun": 1451,
      " Ab": 1452,
      " United": 1453,
      " Polda": 1454,
      "angga": 1455,
      " asal": 1456,
      " tind": 1457,
      "ungkapkan": 1458,
      "dul": 1459,
      "edi": 1460,
      "Kep": 1461,
      "enangan": 1462,
      "aim": 1463,
      "Mereka": 1464,
      "Set": 1465,
      "\"Kami": 1466,
      " Dep": 1467,
      " rek": 1468,
      " Sub": 1469,
      " partai": 1470,
      " empat": 1471,
      "]\n": 1472,
      "isata": 1473,
      " ia": 1474,
      " ujarnya": 1475,
      " Kepala": 1476,
      " polisi": 1477,
      " soal": 1478,
      " melihat": 1479,
      " Sek": 1480,
      "irkan": 1481,
      "emu": 1482,
      "av": 1483,
      " tekn": 1484,
      " sesuai": 1485,
      "etahui": 1486,
      " pihaknya": 1487,
      " mobil": 1488,
      " kl": 1489,
      "asarkan": 1490,
      " berharap": 1491,
      " sebesar": 1492,
      "Ke": 1493,
      " perb": 1494,
      " Kal": 1495,
      "ungi": 1496,
      "ujan": 1497,
      ")\n": 1498,
      "rasi": 1499,
      " Ak": 1500,
      "KI": 1501,
      "aih": 1502,
      "ugaan": 1503,
      " resmi": 1504,
      "ewan": 1505,
      " pernah": 1506,
      " menurut": 1507,
      "embangan": 1508,
      " PDI": 1509,
      " memen": 1510,
      " pet": 1511,
      " kelompok": 1512,
      "kar": 1513,
      "-an": 1514,
      "uangan": 1515,
      "ulkan": 1516,
      "upati": 1517,
      "krain": 1518,
      " gambar": 1519,
      "KB": 1520,
      " terk": 1521,
      "ijakan": 1522,
      "Jadi": 1523,
      "kraina": 1524,
      " ungkap": 1525,
      " Sum": 1526,
      " militer": 1527,
      " sendiri": 1528,
      "ura": 1529,
      " kondisi": 1530,
      " Badan": 1531,
      " bekerja": 1532,
      "akyat": 1533,
      " tangg": 1534,
      "andingan": 1535,
      " Maret": 1536,
      " sk": 1537,
      " Liga": 1538,
      " Universi": 1539,
      " Har": 1540,
      " Ah": 1541,
      " utama": 1542,
      " kr": 1543,
      "unt": 1544,
      "ikuti": 1545,
      " hadir": 1546,
      " nasional": 1547,
      " Ir": 1548,
      "asiswa": 1549,
      " ar": 1550,
      "istrik": 1551,
      " Hari": 1552,
      "sel": 1553,
      " perd": 1554,
      "erd": 1555,
      " Asia": 1556,
      " lingkungan": 1557,
      " informasi": 1558,
      " Kh": 1559,
      "anjar": 1560,
      " laporan": 1561,
      "etugas": 1562,
      "ewas": 1563,
      "upa": 1564,
      "ampung": 1565,
      "istem": 1566,
      " perj": 1567,
      "iden": 1568,
      " tanpa": 1569,
      " Pi": 1570,
      " yaitu": 1571,
      " kendaraan": 1572,
      "embaga": 1573,
      " adanya": 1574,
      "imana": 1575,
      " perlu": 1576,
      " Daerah": 1577,
      " dek": 1578,
      "08": 1579,
      " menjalan": 1580,
      "-l": 1581,
      "PS": 1582,
      " Jokowi": 1583,
      " Ukraina": 1584,
      "Pel": 1585,
      " barang": 1586,
      "ukup": 1587,
      "angkat": 1588,
      "egaw": 1589,
      "abor": 1590,
      "org": 1591,
      "anding": 1592,
      "07": 1593,
      "-t": 1594,
      "ateg": 1595,
      "ejabat": 1596,
      "arget": 1597,
      "ade": 1598,
      " Wakil": 1599,
      " perm": 1600,
      " &": 1601,
      "lim": 1602,
      " memperk": 1603,
      " menerima": 1604,
      "ergi": 1605,
      "eter": 1606,
      " bakal": 1607,
      " sebanyak": 1608,
      " Kel": 1609,
      "Kem": 1610,
      " Provinsi": 1611,
      "entara": 1612,
      "aranya": 1613,
      " Timnas": 1614,
      "ampu": 1615,
      "onor": 1616,
      " Ham": 1617,
      " layanan": 1618,
      "alaman": 1619,
      " X": 1620,
      "PB": 1621,
      " Muh": 1622,
      " penj": 1623,
      "sek": 1624,
      " keber": 1625,
      "eta": 1626,
      "agaimana": 1627,
      "usai": 1628,
      " par": 1629,
      "elit": 1630,
      " keamanan": 1631,
      "impinan": 1632,
      " uang": 1633,
      " dugaan": 1634,
      "alia": 1635,
      " mengungkapkan": 1636,
      "adion": 1637,
      "apun": 1638,
      " konf": 1639,
      "\"S": 1640,
      "iaya": 1641,
      "idana": 1642,
      "ez": 1643,
      " Sat": 1644,
      " mengenai": 1645,
      "vest": 1646,
      "ham": 1647,
      " Suk": 1648,
      " melawan": 1649,
      " tuj": 1650,
      " dirinya": 1651,
      " paling": 1652,
      "Ad": 1653,
      "irim": 1654,
      "ANG": 1655,
      "amat": 1656,
      "embang": 1657,
      " membawa": 1658,
      "aksanakan": 1659,
      " sat": 1660,
      "erikat": 1661,
      " industri": 1662,
      "ilang": 1663,
      " menggelar": 1664,
      "udara": 1665,
      " dok": 1666,
      " kini": 1667,
      "ris": 1668,
      " masalah": 1669,
      " umum": 1670,
      " pendidikan": 1671,
      "enang": 1672,
      "tik": 1673,
      "ungsi": 1674,
      " Pemilu": 1675,
      "31": 1676,
      " menjaga": 1677,
      "atihan": 1678,
      "50": 1679,
      "erintahan": 1680,
      " kepala": 1681,
      " Serikat": 1682,
      "umen": 1683,
      " perang": 1684,
      " TNI": 1685,
      "ism": 1686,
      " mengaj": 1687,
      "gag": 1688,
      " muda": 1689,
      " sp": 1690,
      "ajar": 1691,
      " Korea": 1692,
      " Trump": 1693,
      " des": 1694,
      " menghadapi": 1695,
      "edung": 1696,
      "isnis": 1697,
      "nies": 1698,
      "hi": 1699,
      " pl": 1700,
      "idik": 1701,
      " bawah": 1702,
      " pertandingan": 1703,
      "utuhan": 1704,
      " berg": 1705,
      "apres": 1706,
      " lima": 1707,
      " Den": 1708,
      " Sul": 1709,
      " Komisi": 1710,
      "Ter": 1711,
      "gus": 1712,
      " cukup": 1713,
      "oni": 1714,
      "fi": 1715,
      "apua": 1716,
      " nama": 1717,
      "uaca": 1718,
      "09": 1719,
      " II": 1720,
      " Piala": 1721,
      "Ia": 1722,
      " pembangunan": 1723,
      " Leb": 1724,
      "alnya": 1725,
      "Ketua": 1726,
      "oordin": 1727,
      "fr": 1728,
      " Iran": 1729,
      "AM": 1730,
      " Air": 1731,
      " sementara": 1732,
      " segera": 1733,
      "-anak": 1734,
      "ha": 1735,
      " Dem": 1736,
      " surat": 1737,
      "atian": 1738,
      " langkah": 1739,
      "Pro": 1740,
      " KPU": 1741,
      " pelangg": 1742,
      "estina": 1743,
      "ori": 1744,
      " menyel": 1745,
      "ret": 1746,
      " mah": 1747,
      " kampanye": 1748,
      " harga": 1749,
      "antai": 1750,
      " urut": 1751,
      "uara": 1752,
      "intas": 1753,
      " mungkin": 1754,
      "KN": 1755,
      "Peng": 1756,
      "stitu": 1757,
      " diter": 1758,
      " senjata": 1759,
      "erjaan": 1760,
      " akibat": 1761,
      " sed": 1762,
      "Ada": 1763,
      " situ": 1764,
      "egal": 1765,
      " bukti": 1766,
      " of": 1767,
      " Pak": 1768,
      " negeri": 1769,
      "Para": 1770,
      "tum": 1771,
      "iau": 1772,
      " data": 1773,
      "uku": 1774,
      " keh": 1775,
      "saan": 1776,
      "200": 1777,
      "angsa": 1778,
      "anan": 1779,
      " Pusat": 1780,
      "ubahan": 1781,
      " Papua": 1782,
      " digelar": 1783,
      " memang": 1784,
      " pernyataan": 1785,
      " kebijakan": 1786,
      " tutur": 1787,
      "untu": 1788,
      " mampu": 1789,
      "ira": 1790,
      "-n": 1791,
      " Br": 1792,
      " berin": 1793,
      "05": 1794,
      " meneg": 1795,
      " Pend": 1796,
      " op": 1797,
      "utuh": 1798,
      " sekolah": 1799,
      " Stadion": 1800,
      "elak": 1801,
      " So": 1802,
      " ken": 1803,
      " mantan": 1804,
      "busi": 1805,
      "Sabtu": 1806,
      " Anda": 1807,
      " sistem": 1808,
      " PB": 1809,
      " dij": 1810,
      " Pemb": 1811,
      " on": 1812,
      " internasional": 1813,
      "Dengan": 1814,
      "anten": 1815,
      " kebutuhan": 1816,
      "uju": 1817,
      "ualitas": 1818,
      "sip": 1819,
      "06": 1820,
      " '": 1821,
      " tingkat": 1822,
      " PS": 1823,
      " kol": 1824,
      " terj": 1825,
      " jam": 1826,
      "atur": 1827,
      "okus": 1828,
      " Universitas": 1829,
      " Din": 1830,
      "-h": 1831,
      " Kes": 1832,
      "aksa": 1833,
      "agu": 1834,
      " em": 1835,
      "icara": 1836,
      " Palestina": 1837,
      "Kepala": 1838,
      "AB": 1839,
      " pejabat": 1840,
      "ulit": 1841,
      "line": 1842,
      " pekan": 1843,
      "umi": 1844,
      " lama": 1845,
      " siap": 1846,
      " Res": 1847,
      "empatan": 1848,
      " And": 1849,
      " miliar": 1850,
      "-G": 1851,
      "eski": 1852,
      "Setelah": 1853,
      " bal": 1854,
      " hidup": 1855,
      "etapkan": 1856,
      " Pemerintah": 1857,
      "Keterangan": 1858,
      " pemilu": 1859,
      " kal": 1860,
      "eran": 1861,
      " milik": 1862,
      " Gol": 1863,
      "argaan": 1864,
      "ideo": 1865,
      "adw": 1866,
      " datang": 1867,
      "Saat": 1868,
      " Cukai": 1869,
      " bersi": 1870,
      " punya": 1871,
      " Solo": 1872,
      " Ek": 1873,
      " Kem": 1874,
      " Febr": 1875,
      " lap": 1876,
      "min": 1877,
      " Kemen": 1878,
      "juangan": 1879,
      " bern": 1880,
      "eal": 1881,
      "ell": 1882,
      "edan": 1883,
      " mendorong": 1884,
      " sekaligus": 1885,
      "alur": 1886,
      "ambahkan": 1887,
      "ebat": 1888,
      " En": 1889,
      "ohon": 1890,
      "arkoba": 1891,
      " mod": 1892,
      " int": 1893,
      "eriksaan": 1894,
      "pres": 1895,
      "Untuk": 1896,
      "ingkatan": 1897,
      " Peny": 1898,
      " makanan": 1899,
      "yo": 1900,
      "andang": 1901,
      "enaga": 1902,
      " Polri": 1903,
      " hujan": 1904,
      " Ari": 1905,
      " Negara": 1906,
      " akhirnya": 1907,
      " Sp": 1908,
      "enderal": 1909,
      "unga": 1910,
      " Ahmad": 1911,
      " Set": 1912,
      " Ac": 1913,
      " diduga": 1914,
      " sakit": 1915,
      " bahkan": 1916,
      " Depok": 1917,
      "enis": 1918,
      "ibatkan": 1919,
      "jadian": 1920,
      "etak": 1921,
      " Wid": 1922,
      " publik": 1923,
      " wakil": 1924,
      "arin": 1925,
      " mendatang": 1926,
      " tanah": 1927,
      "ft": 1928,
      "lob": 1929,
      "amah": 1930,
      " motor": 1931,
      " pemerintahan": 1932,
      " pemimpin": 1933,
      " Pers": 1934,
      " aman": 1935,
      " KPK": 1936,
      "engar": 1937,
      " Anies": 1938,
      " Februari": 1939,
      " el": 1940,
      "arik": 1941,
      "KP": 1942,
      "oin": 1943,
      "ongan": 1944,
      " kont": 1945,
      "ianto": 1946,
      " Direktur": 1947,
      " Intern": 1948,
      "truk": 1949,
      " menilai": 1950,
      " listrik": 1951,
      "dukung": 1952,
      " Gr": 1953,
      " kejadian": 1954,
      " Jep": 1955,
      " pan": 1956,
      " mew": 1957,
      " Q": 1958,
      "01": 1959,
      "eorang": 1960,
      " ribu": 1961,
      "onorer": 1962,
      "lobal": 1963,
      " Ger": 1964,
      " digunakan": 1965,
      " Kantor": 1966,
      "ma": 1967,
      "anggung": 1968,
      " Ini": 1969,
      " guru": 1970,
      " cara": 1971,
      "EN": 1972,
      "04": 1973,
      "atat": 1974,
      "ambang": 1975,
      " menegaskan": 1976,
      " tert": 1977,
      " ditemukan": 1978,
      "ampil": 1979,
      "02": 1980,
      "auh": 1981,
      "sis": 1982,
      "tivitas": 1983,
      "ly": 1984,
      "ammad": 1985,
      "olusi": 1986,
      " menambahkan": 1987,
      "uki": 1988,
      " perl": 1989,
      "uanya": 1990,
      "aborasi": 1991,
      " Bas": 1992,
      "adaan": 1993,
      " pasar": 1994,
      " berjalan": 1995,
      "amina": 1996,
      " beras": 1997,
      " menuju": 1998,
      " dic": 1999,
      " kalau": 2000,
      "enar": 2001,
      "erasan": 2002,
      " Keb": 2003,
      "unaan": 2004,
      " kapal": 2005,
      "enal": 2006,
      "embak": 2007,
      "anjir": 2008,
      " Sen": 2009,
      "uti": 2010,
      " Ing": 2011,
      "fikasi": 2012,
      "isial": 2013,
      "ity": 2014,
      "uri": 2015,
      " teknologi": 2016,
      " Nomor": 2017,
      " Jatim": 2018,
      " ibu": 2019,
      " ment": 2020,
      "ujud": 2021,
      "enggara": 2022,
      " petugas": 2023,
      "anisasi": 2024,
      "egitu": 2025,
      "ebabkan": 2026,
      " tewas": 2027,
      " DKI": 2028,
      " Ganjar": 2029,
      " Nus": 2030,
      "Adapun": 2031,
      " peserta": 2032,
      " bisnis": 2033,
      " aksi": 2034,
      "UR": 2035,
      "okrasi": 2036,
      "inc": 2037,
      "olisian": 2038,
      "MI": 2039,
      "uasa": 2040,
      "tan": 2041,
      " bat": 2042,
      " eks": 2043,
      "lon": 2044,
      " pil": 2045,
      " sempat": 2046,
      " Hamas": 2047,
      "iah": 2048,
      " peri": 2049,
      "jo": 2050,
      "/jpnn": 2051,
      "ropa": 2052,
      "erahkan": 2053,
      "por": 2054,
      " pri": 2055,
      " komitmen": 2056,
      " Banten": 2057,
      " terutama": 2058,
      " sebagian": 2059,
      " pemeriksaan": 2060,
      "aji": 2061,
      "03": 2062,
      " meraih": 2063,
      " kantor": 2064,
      "arian": 2065,
      " komun": 2066,
      "otal": 2067,
      " terbaik": 2068,
      " tahu": 2069,
      "alanan": 2070,
      "Ap": 2071,
      " Met": 2072,
      " sektor": 2073,
      "ipun": 2074,
      " semakin": 2075,
      "Pas": 2076,
      " periode": 2077,
      "eskipun": 2078,
      " diberikan": 2079,
      " Bupati": 2080,
      "Minggu": 2081,
      "erasi": 2082,
      " Jaya": 2083,
      "adah": 2084,
      "Kemudian": 2085,
      "krim": 2086,
      "oro": 2087,
      " Eropa": 2088,
      "ajaran": 2089,
      "antara": 2090,
      " rasa": 2091,
      " Gun": 2092,
      " perc": 2093,
      " musim": 2094,
      "MKM": 2095,
      "jatim": 2096,
      " berinisial": 2097,
      "isk": 2098,
      " Subianto": 2099,
      " gol": 2100,
      " cepat": 2101,
      "Sebelum": 2102,
      " Persib": 2103,
      "Ak": 2104,
      " Jepang": 2105,
      " hubungan": 2106,
      "-m": 2107,
      " potensi": 2108,
      "lam": 2109,
      "umas": 2110,
      " cuaca": 2111,
      "abilitas": 2112,
      " korupsi": 2113,
      " teg": 2114,
      " pak": 2115,
      " selalu": 2116,
      "ampir": 2117,
      "anjutan": 2118,
      " mengikuti": 2119,
      "adang": 2120,
      " ketiga": 2121,
      " membangun": 2122,
      "okal": 2123,
      "-M": 2124,
      "Dari": 2125,
      " perubahan": 2126,
      " Ram": 2127,
      " Bank": 2128,
      " Bea": 2129,
      " digital": 2130,
      "eli": 2131,
      " rakyat": 2132,
      "ipil": 2133,
      " meningkat": 2134,
      "ubah": 2135,
      "jabar": 2136,
      "arakan": 2137,
      "ation": 2138,
      " disampaikan": 2139,
      "resiasi": 2140,
      " tok": 2141,
      "oritas": 2142,
      " Jenderal": 2143,
      " bertu": 2144,
      " Rep": 2145,
      "enda": 2146,
      " gr": 2147,
      "anjutkan": 2148,
      "Pol": 2149,
      "akah": 2150,
      "ore": 2151,
      "isti": 2152,
      "olak": 2153,
      "NG": 2154,
      "ny": 2155,
      " berusia": 2156,
      "ulasi": 2157,
      " keputusan": 2158,
      " Baru": 2159,
      " pemilihan": 2160,
      "ambut": 2161,
      " Jabar": 2162,
      "asilitas": 2163,
      " ef": 2164,
      " pertemuan": 2165,
      " usaha": 2166,
      " film": 2167,
      "gris": 2168,
      " tindakan": 2169,
      "amin": 2170,
      " Jateng": 2171,
      "ogy": 2172,
      "all": 2173,
      "aftar": 2174,
      "Sek": 2175,
      "UM": 2176,
      "yek": 2177,
      "arta": 2178,
      "bu": 2179,
      " memberi": 2180,
      "ky": 2181,
      "antas": 2182,
      " bentuk": 2183,
      " Kr": 2184,
      " FC": 2185,
      "ela": 2186,
      "anggap": 2187,
      " disebut": 2188,
      "vestasi": 2189,
      "okan": 2190,
      " mahasiswa": 2191,
      "ho": 2192,
      "ans": 2193,
      " kesempatan": 2194,
      " kemenangan": 2195,
      "Al": 2196,
      " Biden": 2197,
      "yak": 2198,
      "AT": 2199,
      " mengel": 2200,
      "atasan": 2201,
      " jar": 2202,
      " jauh": 2203,
      " peningkatan": 2204,
      " perjalanan": 2205,
      "PR": 2206,
      "idat": 2207,
      "eks": 2208,
      "40": 2209,
      " jenis": 2210,
      "ach": 2211,
      " nanti": 2212,
      "ajang": 2213,
      "utup": 2214,
      "ugas": 2215,
      " trans": 2216,
      " pul": 2217,
      " desa": 2218,
      "atangan": 2219,
      " terc": 2220,
      "umsi": 2221,
      " Tan": 2222,
      "tribusi": 2223,
      "elakaan": 2224,
      " ikut": 2225,
      " video": 2226,
      " terpilih": 2227,
      " terbaru": 2228,
      " Dinas": 2229,
      " dekat": 2230,
      "ert": 2231,
      " Agung": 2232,
      " posisi": 2233,
      "elawan": 2234,
      "alahan": 2235,
      "arapkan": 2236,
      "ovasi": 2237,
      "likasi": 2238,
      " memilih": 2239,
      " membuka": 2240,
      "umumkan": 2241,
      " enam": 2242,
      "-Gibran": 2243,
      " form": 2244,
      " bahan": 2245,
      " mengambil": 2246,
      " seusai": 2247,
      " El": 2248,
      "utuhkan": 2249,
      " kuat": 2250,
      "pasar": 2251,
      "abr": 2252,
      " is": 2253,
      "atar": 2254,
      "erak": 2255,
      " kurang": 2256,
      " maka": 2257,
      "awas": 2258,
      "ayakan": 2259,
      "Salah": 2260,
      " kand": 2261,
      "onel": 2262,
      " satunya": 2263,
      " kecil": 2264,
      "vei": 2265,
      " tinggal": 2266,
      " begitu": 2267,
      "enti": 2268,
      " udara": 2269,
      " Kar": 2270,
      " daya": 2271,
      "ulis": 2272,
      "okok": 2273,
      "ajak": 2274,
      " Sup": 2275,
      " Kon": 2276,
      " jawab": 2277,
      " menjalani": 2278,
      " Denpasar": 2279,
      "uhnya": 2280,
      "sipasi": 2281,
      " tenaga": 2282,
      " terlibat": 2283,
      "itra": 2284,
      "ipt": 2285,
      " Kej": 2286,
      "abatan": 2287,
      " berkom": 2288,
      " pria": 2289,
      "erman": 2290,
      "alis": 2291,
      "ilis": 2292,
      "amankan": 2293,
      "Tim": 2294,
      " merasa": 2295,
      " saksi": 2296,
      "undang": 2297,
      "apolres": 2298,
      " menging": 2299,
      " melaporkan": 2300,
      "uf": 2301,
      " kej": 2302,
      "PT": 2303,
      " il": 2304,
      "anta": 2305,
      "ate": 2306,
      " memenuhi": 2307,
      "ry": 2308,
      " menit": 2309,
      " Mad": 2310,
      "ayat": 2311,
      "-mas": 2312,
      " nilai": 2313,
      " Inggris": 2314,
      "irakan": 2315,
      "wak": 2316,
      "atusan": 2317,
      " suk": 2318,
      " ungg": 2319,
      " pusat": 2320,
      " bidang": 2321,
      " Austr": 2322,
      " online": 2323,
      "Tidak": 2324,
      " Pertamina": 2325,
      " dampak": 2326,
      " UMKM": 2327,
      " PBB": 2328,
      " Golkar": 2329,
      " Mus": 2330,
      "istik": 2331,
      " berdasarkan": 2332,
      "ansi": 2333,
      "ewat": 2334,
      " z": 2335,
      " org": 2336,
      "Sej": 2337,
      "erl": 2338,
      " poin": 2339,
      " Wali": 2340,
      "ton": 2341,
      "Menurutnya": 2342,
      " Ser": 2343,
      " gen": 2344,
      " biasa": 2345,
      " New": 2346,
      " Hukum": 2347,
      " penuh": 2348,
      "aturan": 2349,
      "grasi": 2350,
      " i": 2351,
      " ditangkap": 2352,
      " dr": 2353,
      " ut": 2354,
      " Sumat": 2355,
      " The": 2356,
      " BB": 2357,
      " khususnya": 2358,
      "tumb": 2359,
      " Bal": 2360,
      " pener": 2361,
      "ce": 2362,
      "ass": 2363,
      "inasi": 2364,
      " PP": 2365,
      " mempert": 2366,
      "uncurkan": 2367,
      " keluar": 2368,
      "one": 2369,
      "100": 2370,
      " Dit": 2371,
      " Pemilihan": 2372,
      " Gar": 2373,
      "gabung": 2374,
      " mau": 2375,
      "ayar": 2376,
      "amar": 2377,
      "ex": 2378,
      "omo": 2379,
      " sumber": 2380,
      "unuhan": 2381,
      "uman": 2382,
      "he": 2383,
      " kontr": 2384,
      "stitusi": 2385,
      " tel": 2386,
      " bagaimana": 2387,
      " Rah": 2388,
      " global": 2389,
      " turun": 2390,
      "arena": 2391,
      " Mo": 2392,
      " dibanding": 2393,
      " sekarang": 2394,
      " positif": 2395,
      "tasi": 2396,
      "ratis": 2397,
      "orn": 2398,
      " honorer": 2399,
      " maju": 2400,
      "ikit": 2401,
      " Riau": 2402,
      "iti": 2403,
      "isme": 2404,
      "fud": 2405,
      "atus": 2406,
      " imb": 2407,
      " Gibran": 2408,
      "ewa": 2409,
      "war": 2410,
      " menang": 2411,
      " Sy": 2412,
      " ASN": 2413,
      "aksanaan": 2414,
      "iptakan": 2415,
      " tah": 2416,
      " menemukan": 2417,
      " and": 2418,
      " banjir": 2419,
      "uduk": 2420,
      " operasi": 2421,
      "kot": 2422,
      "udaya": 2423,
      " fasilitas": 2424,
      "anian": 2425,
      "iba": 2426,
      " Or": 2427,
      "-masing": 2428,
      "pol": 2429,
      "unjung": 2430,
      " keras": 2431,
      " gubernur": 2432,
      "unjungan": 2433,
      "AY": 2434,
      " Dewan": 2435,
      " ist": 2436,
      " penghargaan": 2437,
      " ditu": 2438,
      "ikian": 2439,
      " lembaga": 2440,
      " bermain": 2441,
      "\"Saya": 2442,
      "ahter": 2443,
      " ger": 2444,
      " pagi": 2445,
      " pekerja": 2446,
      " tambah": 2447,
      "indungan": 2448,
      " kekerasan": 2449,
      "erensi": 2450,
      " SE": 2451,
      " Ma": 2452,
      " unit": 2453,
      "unggu": 2454,
      " Perjuangan": 2455,
      " kompet": 2456,
      "ens": 2457,
      " total": 2458,
      " laut": 2459,
      " antaranya": 2460,
      " Utama": 2461,
      "Itu": 2462,
      "ogyakarta": 2463,
      " wisata": 2464,
      " setempat": 2465,
      "amu": 2466,
      " hampir": 2467,
      "of": 2468,
      "amping": 2469,
      " PDIP": 2470,
      " tepat": 2471,
      "urah": 2472,
      " perh": 2473,
      "awaslu": 2474,
      " Ins": 2475,
      "ungkinan": 2476,
      " Raya": 2477,
      " pasukan": 2478,
      "MKG": 2479,
      "ash": 2480,
      " Par": 2481,
      "uhkan": 2482,
      " Nur": 2483,
      "otel": 2484,
      "izin": 2485,
      "ARA": 2486,
      "tumbuhan": 2487,
      " engg": 2488,
      " Dunia": 2489,
      " dana": 2490,
      " lapangan": 2491,
      " masing": 2492,
      "elang": 2493,
      "amil": 2494,
      " naik": 2495,
      "ahas": 2496,
      " tegas": 2497,
      " Besar": 2498,
      "odo": 2499,
      "antikan": 2500,
      " tern": 2501,
      "co": 2502,
      " pidana": 2503,
      " seri": 2504,
      "ona": 2505,
      " Yogyakarta": 2506,
      "adwal": 2507,
      "bali": 2508,
      "\"M": 2509,
      " peran": 2510,
      " menyebabkan": 2511,
      "iman": 2512,
      "uncul": 2513,
      "akaran": 2514,
      " Komp": 2515,
      " Mak": 2516,
      " imp": 2517,
      "indak": 2518,
      " Australia": 2519,
      "pons": 2520,
      "akatan": 2521,
      " Republik": 2522,
      "enter": 2523,
      "ubuh": 2524,
      " berita": 2525,
      "urat": 2526,
      " Im": 2527,
      " namun": 2528,
      " menjelang": 2529,
      " eksp": 2530,
      " mom": 2531,
      "usung": 2532,
      " id": 2533,
      " beb": 2534,
      "atasi": 2535,
      " pemilih": 2536,
      "ki": 2537,
      "35": 2538,
      "istiwa": 2539,
      "AYA": 2540,
      " kan": 2541,
      " sipil": 2542,
      "ekerjaan": 2543,
      "endah": 2544,
      "wi": 2545,
      " sepanjang": 2546,
      "antangan": 2547,
      " kil": 2548,
      " Gedung": 2549,
      " menyebutkan": 2550,
      "Ked": 2551,
      " Sal": 2552,
      "ajib": 2553,
      " pelanggaran": 2554,
      "uarkan": 2555,
      "amai": 2556,
      " disel": 2557,
      " memperkuat": 2558,
      "gg": 2559,
      " UU": 2560,
      " energi": 2561,
      "jid": 2562,
      " turut": 2563,
      " menarik": 2564,
      " lintas": 2565,
      "-negara": 2566,
      "umpang": 2567,
      " angka": 2568,
      "th": 2569,
      "uji": 2570,
      " prak": 2571,
      " manusia": 2572,
      "AI": 2573,
      "juan": 2574,
      " Rumah": 2575,
      " jalur": 2576,
      "-orang": 2577,
      "let": 2578,
      " bur": 2579,
      " persi": 2580,
      " ik": 2581,
      "mar": 2582,
      " Sa": 2583,
      "AL": 2584,
      " lokal": 2585,
      " fokus": 2586,
      "Pert": 2587,
      " mengur": 2588,
      " Yo": 2589,
      "elapan": 2590,
      " berbeda": 2591,
      " Budi": 2592,
      "mal": 2593,
      " mat": 2594,
      " karya": 2595,
      " har": 2596,
      "egawai": 2597,
      "45": 2598,
      " tangan": 2599,
      " Pl": 2600,
      "ejahter": 2601,
      " ev": 2602,
      " tapi": 2603,
      " menghadirkan": 2604,
      " DPRD": 2605,
      "rov": 2606,
      "ategis": 2607,
      " mudah": 2608,
      " kualitas": 2609,
      "agangan": 2610,
      "egah": 2611,
      " benar": 2612,
      " sisi": 2613,
      " Calon": 2614,
      "okrat": 2615,
      "entukan": 2616,
      " Joko": 2617,
      " sedikit": 2618,
      " Perd": 2619,
      " bertemu": 2620,
      "te": 2621,
      " mencari": 2622,
      "iun": 2623,
      "erita": 2624,
      " demikian": 2625,
      " tertu": 2626,
      " kemungkinan": 2627,
      "Presiden": 2628,
      "oli": 2629,
      " narkoba": 2630,
      "ambahan": 2631,
      " belak": 2632,
      "ine": 2633,
      " Di": 2634,
      " kemarin": 2635,
      "arti": 2636,
      " menekan": 2637,
      "utip": 2638,
      " menciptakan": 2639,
      "istan": 2640,
      "lemen": 2641,
      " gag": 2642,
      "operasi": 2643,
      " Dr": 2644,
      " Muhammad": 2645,
      " tujuan": 2646,
      " target": 2647,
      " dihad": 2648,
      "ral": 2649,
      " tugas": 2650,
      " keterangannya": 2651,
      " mengak": 2652,
      " demi": 2653,
      " perkara": 2654,
      "retaris": 2655,
      " Kesehatan": 2656,
      " terdapat": 2657,
      " pengalaman": 2658,
      "Sebelumnya": 2659,
      "usak": 2660,
      " keuangan": 2661,
      " jabatan": 2662,
      "-S": 2663,
      " fak": 2664,
      " muncul": 2665,
      " akses": 2666,
      " diketahui": 2667,
      " seni": 2668,
      " sis": 2669,
      "etn": 2670,
      "lis": 2671,
      " pelaksanaan": 2672,
      " manfaat": 2673,
      " ajang": 2674,
      " Nat": 2675,
      " SM": 2676,
      "erat": 2677,
      "ingatan": 2678,
      "erit": 2679,
      " asing": 2680,
      " ob": 2681,
      "II": 2682,
      " tuturnya": 2683,
      " Widodo": 2684,
      " elek": 2685,
      " berat": 2686,
      " pembunuhan": 2687,
      " Angg": 2688,
      "Ar": 2689,
      "onf": 2690,
      " Le": 2691,
      "pada": 2692,
      " pengembangan": 2693,
      " bicara": 2694,
      "udik": 2695,
      "ibuan": 2696,
      " menteri": 2697,
      "ust": 2698,
      "ebar": 2699,
      "ork": 2700,
      " ruang": 2701,
      "Ind": 2702,
      " isu": 2703,
      " dini": 2704,
      " Luar": 2705,
      " kecelakaan": 2706,
      "amanya": 2707,
      "unuh": 2708,
      " Tang": 2709,
      "epas": 2710,
      "ader": 2711,
      " Bek": 2712,
      "inerja": 2713,
      "KS": 2714,
      "ment": 2715,
      "Direktur": 2716,
      " pertumbuhan": 2717,
      " Ed": 2718,
      "ediakan": 2719,
      " med": 2720,
      "ibur": 2721,
      " Malang": 2722,
      " ucapnya": 2723,
      " ilegal": 2724,
      "na": 2725,
      " guna": 2726,
      " dar": 2727,
      " Bidang": 2728,
      " BAN": 2729,
      "egini": 2730,
      " luas": 2731,
      " rencana": 2732,
      " Sumatera": 2733,
      "uali": 2734,
      "ilip": 2735,
      "embangkan": 2736,
      "riliun": 2737,
      "kl": 2738,
      " putusan": 2739,
      " pesawat": 2740,
      "ero": 2741,
      "entuk": 2742,
      "ila": 2743,
      " melaksanakan": 2744,
      "osok": 2745,
      " bernama": 2746,
      " Aceh": 2747,
      " mengumumkan": 2748,
      "-r": 2749,
      "emi": 2750,
      " Si": 2751,
      "entingan": 2752,
      " Pilpres": 2753,
      "ustrasi": 2754,
      " diharapkan": 2755,
      " organisasi": 2756,
      "yan": 2757,
      " tiba": 2758,
      "was": 2759,
      " panjang": 2760,
      " tubuh": 2761,
      " Has": 2762,
      "ess": 2763,
      " emas": 2764,
      " Rak": 2765,
      "ortasi": 2766,
      "ase": 2767,
      " api": 2768,
      " SUR": 2769,
      "bar": 2770,
      "abak": 2771,
      " DPP": 2772,
      " pengaw": 2773,
      "ational": 2774,
      " diperk": 2775,
      "oordinasi": 2776,
      "ward": 2777,
      "ial": 2778,
      "enggarakan": 2779,
      "annya": 2780,
      " Demokrat": 2781,
      " Tangerang": 2782,
      " ali": 2783,
      " Ked": 2784,
      " melibatkan": 2785,
      "adakan": 2786,
      "ill": 2787,
      " Bo": 2788,
      " Mul": 2789,
      " apakah": 2790,
      " Abdul": 2791,
      "arno": 2792,
      "PNN": 2793,
      "agus": 2794,
      " penyakit": 2795,
      " aturan": 2796,
      " tanggal": 2797,
      "orum": 2798,
      "isiko": 2799,
      "su": 2800,
      "sist": 2801,
      " pangan": 2802,
      "artawan": 2803,
      " alasan": 2804,
      " Bar": 2805,
      " memimpin": 2806,
      " kepolisian": 2807,
      " Em": 2808,
      "encan": 2809,
      "ABAYA": 2810,
      " SURABAYA": 2811,
      "TARA": 2812,
      "ck": 2813,
      " makin": 2814,
      " PSI": 2815,
      " kasih": 2816,
      " Sl": 2817,
      " produksi": 2818,
      "Karena": 2819,
      " titik": 2820,
      "ayu": 2821,
      "ungai": 2822,
      "jau": 2823,
      "untut": 2824,
      "bes": 2825,
      " Humas": 2826,
      " situasi": 2827,
      " alias": 2828,
      "leh": 2829,
      " BRI": 2830,
      "andar": 2831,
      " pengel": 2832,
      " sering": 2833,
      "erti": 2834,
      "anja": 2835,
      "ungutan": 2836,
      "ayang": 2837,
      "yu": 2838,
      " samb": 2839,
      " tantangan": 2840,
      " BUM": 2841,
      "etik": 2842,
      " terlihat": 2843,
      "Menteri": 2844,
      "lasi": 2845,
      " peluang": 2846,
      " alat": 2847,
      "UNG": 2848,
      " bangsa": 2849,
      "truktur": 2850,
      "kum": 2851,
      " proyek": 2852,
      " Gus": 2853,
      " Su": 2854,
      " pengguna": 2855,
      " budaya": 2856,
      " sidang": 2857,
      " bes": 2858,
      "caman": 2859,
      "zi": 2860,
      " kunjungan": 2861,
      " rut": 2862,
      " personel": 2863,
      "Peny": 2864,
      " diterima": 2865,
      "anjian": 2866,
      " pilihan": 2867,
      " terbesar": 2868,
      "yanto": 2869,
      " berw": 2870,
      " RS": 2871,
      " Laut": 2872,
      " lewat": 2873,
      " Gro": 2874,
      " Arab": 2875,
      " dimulai": 2876,
      "itasi": 2877,
      "icu": 2878,
      "arna": 2879,
      "arasi": 2880,
      " Raf": 2881,
      "irm": 2882,
      " melanjutkan": 2883,
      " ped": 2884,
      " penda": 2885,
      " Pendidikan": 2886,
      " dibandingkan": 2887,
      " Bel": 2888,
      " dikenal": 2889,
      "bul": 2890,
      "akwa": 2891,
      " kepentingan": 2892,
      "..": 2893,
      "raga": 2894,
      " Ket": 2895,
      "esaikan": 2896,
      " anggaran": 2897,
      " prof": 2898,
      "SD": 2899,
      "utuskan": 2900,
      " pendukung": 2901,
      " Us": 2902,
      " Kombes": 2903,
      " Seb": 2904,
      " berupa": 2905,
      " sana": 2906,
      " bencana": 2907,
      "Kalau": 2908,
      "elis": 2909,
      " usia": 2910,
      "ikat": 2911,
      " akun": 2912,
      " transp": 2913,
      "ail": 2914,
      " berkomitmen": 2915,
      "pen": 2916,
      "adar": 2917,
      "angkaian": 2918,
      " enggak": 2919,
      "Meski": 2920,
      " Islam": 2921,
      " berkel": 2922,
      " berasal": 2923,
      " tokoh": 2924,
      " SD": 2925,
      " penelit": 2926,
      " badan": 2927,
      "abuhan": 2928,
      " survei": 2929,
      " konflik": 2930,
      " mengajak": 2931,
      "ujudkan": 2932,
      " arah": 2933,
      " tujuh": 2934,
      " ot": 2935,
      " bola": 2936,
      " aktif": 2937,
      "akuasi": 2938,
      " Meng": 2939,
      " triliun": 2940,
      "andi": 2941,
      " seleksi": 2942,
      " Tel": 2943,
      "Oleh": 2944,
      "qu": 2945,
      "36": 2946,
      "OG": 2947,
      " semb": 2948,
      " Pa": 2949,
      "impi": 2950,
      " strategis": 2951,
      "egiatan": 2952,
      "KBP": 2953,
      "rah": 2954,
      "antaran": 2955,
      " pelayanan": 2956,
      " Kerja": 2957,
      "alahkan": 2958,
      " musik": 2959,
      "\"B": 2960,
      "GP": 2961,
      "Kom": 2962,
      "entikan": 2963,
      " Jo": 2964,
      " Re": 2965,
      " Hal": 2966,
      "anji": 2967,
      " Mel": 2968,
      " area": 2969,
      " Ker": 2970,
      " Kap": 2971,
      " Nas": 2972,
      "anjutnya": 2973,
      "Berd": 2974,
      " konferensi": 2975,
      "wakilan": 2976,
      " lahan": 2977,
      "Dan": 2978,
      "urahan": 2979,
      " Lampung": 2980,
      " Kalim": 2981,
      "kamah": 2982,
      "atform": 2983,
      " Mand": 2984,
      "urangan": 2985,
      " sehat": 2986,
      " jelasnya": 2987,
      "\"T": 2988,
      " AKBP": 2989,
      "indra": 2990,
      " Palembang": 2991,
      " Kan": 2992,
      " Rid": 2993,
      "atas": 2994,
      " investasi": 2995,
      "badi": 2996,
      " sig": 2997,
      "ektif": 2998,
      " Bah": 2999,
      " terbuka": 3000,
      "onsumsi": 3001,
      " dilaksanakan": 3002,
      " provinsi": 3003,
      "nif": 3004,
      " dilaporkan": 3005,
      " Prof": 3006,
      "ilah": 3007,
      " Tran": 3008,
      " tindak": 3009,
      " optim": 3010,
      " babak": 3011,
      " luka": 3012,
      "tagram": 3013,
      "gub": 3014,
      " sang": 3015,
      " Ng": 3016,
      " Program": 3017,
      " penumpang": 3018,
      " final": 3019,
      "agam": 3020,
      "faatkan": 3021,
      "eja": 3022,
      " sah": 3023,
      " Ol": 3024,
      "IN": 3025,
      "angkapan": 3026,
      "onald": 3027,
      "enj": 3028,
      " penjara": 3029,
      " Bekasi": 3030,
      "erai": 3031,
      " pekerjaan": 3032,
      " ny": 3033,
      " Sud": 3034,
      " gratis": 3035,
      " pentingnya": 3036,
      " teman": 3037,
      " penggunaan": 3038,
      " Metro": 3039,
      " formasi": 3040,
      "Jika": 3041,
      " dianggap": 3042,
      "olaan": 3043,
      "antung": 3044,
      "sor": 3045,
      " Pul": 3046,
      "Polisi": 3047,
      " Mer": 3048,
      " pop": 3049,
      "asanya": 3050,
      " latihan": 3051,
      "irasi": 3052,
      " art": 3053,
      "Il": 3054,
      " AF": 3055,
      " berusaha": 3056,
      "antik": 3057,
      "asaran": 3058,
      "ty": 3059,
      "olid": 3060,
      " Nusantara": 3061,
      " menurun": 3062,
      " gel": 3063,
      " DPD": 3064,
      " tua": 3065,
      " aktivitas": 3066,
      "emui": 3067,
      " Korupsi": 3068,
      " ternyata": 3069,
      " BUMN": 3070,
      " Pat": 3071,
      "urus": 3072,
      "ancis": 3073,
      " terdiri": 3074,
      " BAND": 3075,
      "kab": 3076,
      " Sam": 3077,
      " sampah": 3078,
      " Min": 3079,
      "epatan": 3080,
      " solusi": 3081,
      "ekonom": 3082,
      "indungi": 3083,
      "anon": 3084,
      " kinerja": 3085,
      " Bawaslu": 3086,
      " berupaya": 3087,
      "ord": 3088,
      " Jerman": 3089,
      " Dip": 3090,
      " Lap": 3091,
      " Anak": 3092,
      "ftaran": 3093,
      "tinggi": 3094,
      "ekonomian": 3095,
      "inj": 3096,
      " PN": 3097,
      "ewaskan": 3098,
      "onton": 3099,
      " pendaftaran": 3100,
      " tampak": 3101,
      " menolak": 3102,
      " mengungkap": 3103,
      "ilipina": 3104,
      "uad": 3105,
      " mata": 3106,
      "aysia": 3107,
      " Bat": 3108,
      "roduk": 3109,
      "TB": 3110,
      "yarat": 3111,
      " perdana": 3112,
      " disi": 3113,
      "Sebagai": 3114,
      " generasi": 3115,
      "OR": 3116,
      "erg": 3117,
      "ayak": 3118,
      " bertujuan": 3119,
      " biaya": 3120,
      "ategi": 3121,
      " tampil": 3122,
      "mat": 3123,
      " menangkap": 3124,
      " Pengadilan": 3125,
      "ampingi": 3126,
      " At": 3127,
      " Ant": 3128,
      " Polisi": 3129,
      "uth": 3130,
      " ialah": 3131,
      " sini": 3132,
      " wartawan": 3133,
      "anggar": 3134,
      "siden": 3135,
      "38": 3136,
      " peristiwa": 3137,
      "ajemen": 3138,
      " oper": 3139,
      " Kalimantan": 3140,
      " Bl": 3141,
      "ampuan": 3142,
      " semangat": 3143,
      " ditetapkan": 3144,
      " penyelidikan": 3145,
      "abes": 3146,
      "awatan": 3147,
      "awarkan": 3148,
      " jaringan": 3149,
      "arm": 3150,
      " sup": 3151,
      " lantaran": 3152,
      " kesel": 3153,
      "aca": 3154,
      "fras": 3155,
      "dy": 3156,
      "amen": 3157,
      " belakang": 3158,
      " sulit": 3159,
      "esan": 3160,
      "uma": 3161,
      "andatangan": 3162,
      " aplikasi": 3163,
      " Pember": 3164,
      "iket": 3165,
      "isah": 3166,
      " Dig": 3167,
      "itur": 3168,
      " Sing": 3169,
      " Eri": 3170,
      " demokrasi": 3171,
      "TT": 3172,
      "sen": 3173,
      "asinya": 3174,
      "onis": 3175,
      " kematian": 3176,
      "oran": 3177,
      " hakim": 3178,
      " Dir": 3179,
      "tib": 3180,
      "nifikan": 3181,
      " bus": 3182,
      "tian": 3183,
      "iaga": 3184,
      "PNS": 3185,
      " Masyarakat": 3186,
      " perg": 3187,
      "ender": 3188,
      " pertahanan": 3189,
      " asp": 3190,
      "alisi": 3191,
      " pelatih": 3192,
      " hukuman": 3193,
      " pimpinan": 3194,
      "ebasan": 3195,
      " kepem": 3196,
      "PBD": 3197,
      " keper": 3198,
      " petani": 3199,
      " siswa": 3200,
      "anusi": 3201,
      " paslon": 3202,
      " memenangkan": 3203,
      "ejahteraan": 3204,
      " Jadi": 3205,
      " selatan": 3206,
      "baru": 3207,
      " ancaman": 3208,
      " Gerindra": 3209,
      "wedan": 3210,
      " leg": 3211,
      "arif": 3212,
      " Instagram": 3213,
      " meskipun": 3214,
      "utri": 3215,
      " ratusan": 3216,
      "jualan": 3217,
      " ed": 3218,
      " Prancis": 3219,
      " Pasal": 3220,
      "34": 3221,
      "37": 3222,
      " signifikan": 3223,
      " ib": 3224,
      " lagu": 3225,
      " siapa": 3226,
      "irmasi": 3227,
      "Is": 3228,
      "jateng": 3229,
      " Af": 3230,
      " ringan": 3231,
      " komunitas": 3232,
      "wil": 3233,
      " kelas": 3234,
      " terh": 3235,
      " inf": 3236,
      " menyediakan": 3237,
      " skor": 3238,
      "oordinator": 3239,
      " perhatian": 3240,
      "500": 3241,
      "estiv": 3242,
      " Putih": 3243,
      " Baswedan": 3244,
      "ulus": 3245,
      " Lebanon": 3246,
      "iwa": 3247,
      " dasar": 3248,
      " Pur": 3249,
      " Il": 3250,
      " tentu": 3251,
      " mengetahui": 3252,
      " Riz": 3253,
      "antasan": 3254,
      " HAM": 3255,
      " mencegah": 3256,
      " menghadiri": 3257,
      " kolaborasi": 3258,
      "frastruktur": 3259,
      "juk": 3260,
      " menjabat": 3261,
      "tra": 3262,
      "Pelatih": 3263,
      "unikasi": 3264,
      "ogja": 3265,
      " peringatan": 3266,
      " judi": 3267,
      " menjalankan": 3268,
      " kenaikan": 3269,
      " Ramadan": 3270,
      "uler": 3271,
      "ikap": 3272,
      "ategori": 3273,
      " ulang": 3274,
      "-c": 3275,
      "Lebih": 3276,
      "Mel": 3277,
      "uy": 3278,
      " jajaran": 3279,
      " Filipina": 3280,
      " dikutip": 3281,
      "tifikasi": 3282,
      " BANDUNG": 3283,
      "Sem": 3284,
      "inaan": 3285,
      " Tenggara": 3286,
      "ampilan": 3287,
      "entar": 3288,
      "stem": 3289,
      " pesan": 3290,
      " Mahkamah": 3291,
      "estival": 3292,
      "la": 3293,
      "red": 3294,
      "PD": 3295,
      " kesep": 3296,
      "apatan": 3297,
      " mengirim": 3298,
      "endara": 3299,
      "po": 3300,
      " pat": 3301,
      " JPNN": 3302,
      "enarnya": 3303,
      "32": 3304,
      "ukaan": 3305,
      "Ilustrasi": 3306,
      " Serang": 3307,
      " non": 3308,
      "intang": 3309,
      " pasti": 3310,
      "ustru": 3311,
      " olah": 3312,
      " dokter": 3313,
      "Yang": 3314,
      " juara": 3315,
      " Keuangan": 3316,
      " gug": 3317,
      "ack": 3318,
      "60": 3319,
      " membutuhkan": 3320,
      " Ex": 3321,
      " mengurangi": 3322,
      " angk": 3323,
      "Hasil": 3324,
      " Dis": 3325,
      " rapat": 3326,
      " Malaysia": 3327,
      " perbatasan": 3328,
      "tup": 3329,
      " inovasi": 3330,
      "adisi": 3331,
      "anksi": 3332,
      " TPS": 3333,
      " India": 3334,
      "Berdasarkan": 3335,
      " Pram": 3336,
      " platform": 3337,
      "-R": 3338,
      "aha": 3339,
      " kekuatan": 3340,
      " gagal": 3341,
      " izin": 3342,
      " memutuskan": 3343,
      " meluncurkan": 3344,
      "ajelis": 3345,
      "PI": 3346,
      " sil": 3347,
      " berkelanjutan": 3348,
      "lo": 3349,
      "isan": 3350,
      "taf": 3351,
      " On": 3352,
      "KPU": 3353,
      " terima": 3354,
      "anita": 3355,
      "kand": 3356,
      "ora": 3357,
      "udal": 3358,
      "ren": 3359,
      " menewaskan": 3360,
      " Warga": 3361,
      " kemampuan": 3362,
      " Pilgub": 3363,
      "evel": 3364,
      "kumham": 3365,
      "PAS": 3366,
      " pegawai": 3367,
      "unda": 3368,
      " Paris": 3369,
      "arusnya": 3370,
      "Pemerintah": 3371,
      "dangan": 3372,
      "iayaan": 3373,
      "uruan": 3374,
      "iring": 3375,
      "empa": 3376,
      " spesi": 3377,
      " Internasional": 3378,
      " gab": 3379,
      " boleh": 3380,
      " delapan": 3381,
      " MK": 3382,
      " Moto": 3383,
      " rem": 3384,
      " Co": 3385,
      " vs": 3386,
      "cak": 3387,
      " sin": 3388,
      "alih": 3389,
      " KO": 3390,
      " Mil": 3391,
      " penyidik": 3392,
      " Tekn": 3393,
      " meres": 3394,
      "asakan": 3395,
      " menunggu": 3396,
      "impiade": 3397,
      " PKB": 3398,
      "ekl": 3399,
      " Er": 3400,
      " Suriah": 3401,
      "Kor": 3402,
      "Kemen": 3403,
      "esin": 3404,
      " hati": 3405,
      " buah": 3406,
      "Pers": 3407,
      " minggu": 3408,
      " pos": 3409,
      " membahas": 3410,
      " disk": 3411,
      " konsumen": 3412,
      "ast": 3413,
      " Az": 3414,
      " Ta": 3415,
      "ungkan": 3416,
      "awesi": 3417,
      " meman": 3418,
      "intaan": 3419,
      "ahatan": 3420,
      " Her": 3421,
      " bebas": 3422,
      "arto": 3423,
      " menekankan": 3424,
      " mengajukan": 3425,
      "esak": 3426,
      " Tai": 3427,
      " Dew": 3428,
      "usif": 3429,
      " momen": 3430,
      " siang": 3431,
      "idupan": 3432,
      "olaborasi": 3433,
      "indo": 3434,
      " aparat": 3435,
      " tahap": 3436,
      " alam": 3437,
      " puluhan": 3438,
      "los": 3439,
      " menetapkan": 3440,
      "ukur": 3441,
      "abum": 3442,
      "Ch": 3443,
      "sh": 3444,
      "uw": 3445,
      "-H": 3446,
      "hawat": 3447,
      "wisata": 3448,
      "anganan": 3449,
      "199": 3450,
      "sama": 3451,
      "zah": 3452,
      " Sus": 3453,
      " terg": 3454,
      "erbangan": 3455,
      " maksi": 3456,
      " Pasar": 3457,
      " Net": 3458,
      " Sulawesi": 3459,
      "NA": 3460,
      " Bad": 3461,
      " kemanusi": 3462,
      " mencoba": 3463,
      "engkap": 3464,
      "55": 3465,
      " menik": 3466,
      "ekat": 3467,
      " neg": 3468,
      " Sri": 3469,
      "ee": 3470,
      " kader": 3471,
      "adem": 3472,
      "Sebab": 3473,
      "esai": 3474,
      " jadwal": 3475,
      " sejarah": 3476,
      "antau": 3477,
      " Ka": 3478,
      "ito": 3479,
      " DEN": 3480,
      " menyi": 3481,
      "ajukan": 3482,
      "Beberapa": 3483,
      " menawarkan": 3484,
      "tudi": 3485,
      "egr": 3486,
      " kemanusiaan": 3487,
      "Wakil": 3488,
      "elompok": 3489,
      " Kapol": 3490,
      " ketua": 3491,
      "aksaan": 3492,
      " der": 3493,
      " Undang": 3494,
      " Angk": 3495,
      "arikan": 3496,
      "ongk": 3497,
      "PASAR": 3498,
      " DENPASAR": 3499,
      "itkan": 3500,
      "abin": 3501,
      "-undang": 3502,
      " La": 3503,
      "abuming": 3504,
      "fa": 3505,
      " Str": 3506,
      " kew": 3507,
      " Hak": 3508,
      " Ali": 3509,
      " mengakui": 3510,
      " Seti": 3511,
      " pribadi": 3512,
      " mengeluarkan": 3513,
      "son": 3514,
      " sa": 3515,
      " justru": 3516,
      "agang": 3517,
      "igran": 3518,
      " harapan": 3519,
      "kes": 3520,
      "num": 3521,
      " Penj": 3522,
      "uturkan": 3523,
      " istri": 3524,
      " Rakabuming": 3525,
      "\"P": 3526,
      " debat": 3527,
      " menuturkan": 3528,
      "entasi": 3529,
      " Saudi": 3530,
      " reg": 3531,
      "angani": 3532,
      "atikan": 3533,
      "ji": 3534,
      " bersih": 3535,
      " sukses": 3536,
      "abumi": 3537,
      " Center": 3538,
      " III": 3539,
      "anggapi": 3540,
      "osisi": 3541,
      "migrasi": 3542,
      "-B": 3543,
      "Meng": 3544,
      "ite": 3545,
      " IKN": 3546,
      " status": 3547,
      "atuh": 3548,
      " sub": 3549,
      "ariwisata": 3550,
      " Vi": 3551,
      " kebakaran": 3552,
      "lok": 3553,
      "alagi": 3554,
      " bay": 3555,
      " mengamankan": 3556,
      "oalisi": 3557,
      " mengatasi": 3558,
      "-baru": 3559,
      " percaya": 3560,
      " sore": 3561,
      " bangunan": 3562,
      " hit": 3563,
      " menyambut": 3564,
      " gabungan": 3565,
      " kabupaten": 3566,
      " bagus": 3567,
      " Tak": 3568,
      " Tri": 3569,
      " kandidat": 3570,
      " berkembang": 3571,
      " dinilai": 3572,
      " mengembangkan": 3573,
      "udin": 3574,
      "anggil": 3575,
      "PO": 3576,
      "Tak": 3577,
      "angin": 3578,
      " berper": 3579,
      " merek": 3580,
      " ok": 3581,
      "esu": 3582,
      " Tur": 3583,
      " risiko": 3584,
      " agama": 3585,
      "ancam": 3586,
      "imbulkan": 3587,
      "abila": 3588,
      " Gunung": 3589,
      " meski": 3590,
      " Kong": 3591,
      "iksa": 3592,
      " International": 3593,
      "Dua": 3594,
      "lor": 3595,
      "langga": 3596,
      " meter": 3597,
      " sosok": 3598,
      "iksi": 3599,
      "uddin": 3600,
      " Fran": 3601,
      "ue": 3602,
      " tertinggi": 3603,
      "KPK": 3604,
      "yadi": 3605,
      " tud": 3606,
      " Bi": 3607,
      " bergabung": 3608,
      "edar": 3609,
      "Seorang": 3610,
      " log": 3611,
      " Raka": 3612,
      " kesejahteraan": 3613,
      "go": 3614,
      "syah": 3615,
      " kalah": 3616,
      " mencatat": 3617,
      " lakukan": 3618,
      " Ibu": 3619,
      " Wah": 3620,
      "antinya": 3621,
      "ministr": 3622,
      "omend": 3623,
      "osk": 3624,
      "ampi": 3625,
      "asilkan": 3626,
      " Group": 3627,
      "ikir": 3628,
      " Bandara": 3629,
      "33": 3630,
      "entak": 3631,
      "ajah": 3632,
      "anyakan": 3633,
      " perkembangan": 3634,
      "aker": 3635,
      " Mart": 3636,
      "aid": 3637,
      "iraan": 3638,
      "oa": 3639,
      " Moh": 3640,
      "abah": 3641,
      "ida": 3642,
      " berbicara": 3643,
      "akup": 3644,
      "isalnya": 3645,
      " vir": 3646,
      "-sama": 3647,
      " Sukabumi": 3648,
      " mengingatkan": 3649,
      "ood": 3650,
      " mengaw": 3651,
      " CPNS": 3652,
      " pemungutan": 3653,
      " Tol": 3654,
      "upuk": 3655,
      "arjo": 3656,
      "etan": 3657,
      " menyerang": 3658,
      "Ketika": 3659,
      " bergerak": 3660,
      "cr": 3661,
      " kategori": 3662,
      " berlaku": 3663,
      "Kegiatan": 3664,
      "apak": 3665,
      "omat": 3666,
      " pengelolaan": 3667,
      "adu": 3668,
      " selesai": 3669,
      " terdampak": 3670,
      " perlindungan": 3671,
      "omendasi": 3672,
      " sal": 3673,
      " Idul": 3674,
      " rangka": 3675,
      "ampanye": 3676,
      " mewujudkan": 3677,
      " for": 3678,
      " pember": 3679,
      "our": 3680,
      "apresiasi": 3681,
      "atuan": 3682,
      "ometer": 3683,
      " lah": 3684,
      " ribuan": 3685,
      " dikel": 3686,
      " kabar": 3687,
      " bek": 3688,
      " menyer": 3689,
      "artemen": 3690,
      "unjungi": 3691,
      "apaian": 3692,
      " diperkirakan": 3693,
      " Rakyat": 3694,
      " merah": 3695,
      " anti": 3696,
      " sepeda": 3697,
      "Se": 3698,
      "EO": 3699,
      "ilangan": 3700,
      " Bul": 3701,
      "bullah": 3702,
      "Jok": 3703,
      "bud": 3704,
      " sy": 3705,
      "urunan": 3706,
      " infrastruktur": 3707,
      " nyata": 3708,
      "ance": 3709,
      "torat": 3710,
      " kehidupan": 3711,
      " balik": 3712,
      " arus": 3713,
      "eor": 3714,
      "ten": 3715,
      " pand": 3716,
      "airan": 3717,
      " rendah": 3718,
      " pelatihan": 3719,
      " dibawa": 3720,
      " terdakwa": 3721,
      " pengawasan": 3722,
      "isik": 3723,
      " profesi": 3724,
      "Kita": 3725,
      " jiwa": 3726,
      " sebenarnya": 3727,
      " truk": 3728,
      "ugi": 3729,
      "esti": 3730,
      " tambahan": 3731,
      " Pertahanan": 3732,
      " Sumsel": 3733,
      "OA": 3734,
      "fik": 3735,
      "aluasi": 3736,
      " klub": 3737,
      "ailand": 3738,
      "UT": 3739,
      "asitas": 3740,
      " Pes": 3741,
      " sedangkan": 3742,
      " Thailand": 3743,
      " minim": 3744,
      "mp": 3745,
      " Ric": 3746,
      " berbasis": 3747,
      " meninggalkan": 3748,
      "ary": 3749,
      " hilang": 3750,
      "etul": 3751,
      "izbullah": 3752,
      "embakan": 3753,
      " Kelurahan": 3754,
      " tumb": 3755,
      "itri": 3756,
      " pemilik": 3757,
      "emprov": 3758,
      " seharusnya": 3759,
      " pajak": 3760,
      " insiden": 3761,
      " rel": 3762,
      "mati": 3763,
      " perdagangan": 3764,
      " ah": 3765,
      "har": 3766,
      "mcr": 3767,
      "alin": 3768,
      " foto": 3769,
      " Grup": 3770,
      "wang": 3771,
      " pasi": 3772,
      "endik": 3773,
      " Ridwan": 3774,
      "Pihak": 3775,
      " kre": 3776,
      " rudal": 3777,
      "awal": 3778,
      " puncak": 3779,
      " Car": 3780,
      "ualifikasi": 3781,
      "hasil": 3782,
      " sus": 3783,
      "usakan": 3784,
      " Medan": 3785,
      " berpotensi": 3786,
      " menyiapkan": 3787,
      "bon": 3788,
      "unggal": 3789,
      " pilkada": 3790,
      " BBC": 3791,
      "ER": 3792,
      "Mas": 3793,
      " gelar": 3794,
      " pengungsi": 3795,
      " minyak": 3796,
      " putra": 3797,
      " kalangan": 3798,
      " kesepakatan": 3799,
      " berakhir": 3800,
      "umur": 3801,
      "awapres": 3802,
      " Wilayah": 3803,
      " melanggar": 3804,
      "Selama": 3805,
      " Muda": 3806,
      " seks": 3807,
      "egawati": 3808,
      " Lebaran": 3809,
      " tertulis": 3810,
      " Olimpiade": 3811,
      " darah": 3812,
      "ainkan": 3813,
      "Program": 3814,
      " Taiwan": 3815,
      "Sep": 3816,
      "tes": 3817,
      " Pos": 3818,
      "unci": 3819,
      " terlalu": 3820,
      " daftar": 3821,
      " didukung": 3822,
      " Sosial": 3823,
      "esang": 3824,
      " perawatan": 3825,
      " Hotel": 3826,
      " penduduk": 3827,
      " Berk": 3828,
      "ifah": 3829,
      "ron": 3830,
      "enalkan": 3831,
      " tiket": 3832,
      "illah": 3833,
      " Award": 3834,
      " kulit": 3835,
      " berdampak": 3836,
      "iriman": 3837,
      "ear": 3838,
      "agn": 3839,
      " mempering": 3840,
      " ayah": 3841,
      "Undang": 3842,
      " tradisi": 3843,
      " buruk": 3844,
      " Pang": 3845,
      "entang": 3846,
      " selaku": 3847,
      " Sekretaris": 3848,
      " tulis": 3849,
      "adinya": 3850,
      "Berikut": 3851,
      "Indonesia": 3852,
      "iang": 3853,
      " utara": 3854,
      "baik": 3855,
      "ahfud": 3856,
      " menyelesaikan": 3857,
      " Pembangunan": 3858,
      " KOTA": 3859,
      "etapan": 3860,
      "abang": 3861,
      " memicu": 3862,
      " senior": 3863,
      "etnam": 3864,
      " mitra": 3865,
      "amaian": 3866,
      "evisi": 3867,
      "ahulu": 3868,
      "ili": 3869,
      " Kara": 3870,
      " berikut": 3871,
      " Afr": 3872,
      "old": 3873,
      " jangan": 3874,
      " genc": 3875,
      "ongsor": 3876,
      "onfirmasi": 3877,
      " ahli": 3878,
      "kap": 3879,
      "uel": 3880,
      "ano": 3881,
      " Pet": 3882,
      "ASN": 3883,
      " strategi": 3884,
      " Airlangga": 3885,
      " menyerahkan": 3886,
      "IM": 3887,
      "enag": 3888,
      " tema": 3889,
      "ington": 3890,
      "ahankan": 3891,
      " pembel": 3892,
      " paket": 3893,
      "Sejumlah": 3894,
      " syarat": 3895,
      " mendesak": 3896,
      "atatan": 3897,
      " menyus": 3898,
      "Kedua": 3899,
      " Kamil": 3900,
      "endag": 3901,
      "-laki": 3902,
      " serius": 3903,
      " diselenggarakan": 3904,
      " Ben": 3905,
      "ice": 3906,
      "ulauan": 3907,
      " ungkapnya": 3908,
      " Tanah": 3909,
      "assar": 3910,
      " Pri": 3911,
      " Dok": 3912,
      "idaknya": 3913,
      "insip": 3914,
      "Jokowi": 3915,
      "arelawan": 3916,
      "ayaran": 3917,
      "iburan": 3918,
      " rutin": 3919,
      "tinya": 3920,
      "uny": 3921,
      " Pekan": 3922,
      " maksimal": 3923,
      "BK": 3924,
      "UU": 3925,
      "ino": 3926,
      " sikap": 3927,
      " Dalam": 3928,
      "ombang": 3929,
      "cayaan": 3930,
      " sanksi": 3931,
      " kri": 3932,
      "ikin": 3933,
      " permintaan": 3934,
      " tertentu": 3935,
      " iklim": 3936,
      "ber": 3937,
      " net": 3938,
      " pengadilan": 3939,
      "anggu": 3940,
      " mencetak": 3941,
      " awak": 3942,
      " pelanggan": 3943,
      " diikuti": 3944,
      "edakan": 3945,
      " visi": 3946,
      "enggaraan": 3947,
      " kejahatan": 3948,
      " kompetisi": 3949,
      " saling": 3950,
      " Bh": 3951,
      " penerbangan": 3952,
      "entitas": 3953,
      "undur": 3954,
      "abrik": 3955,
      "48": 3956,
      " Bany": 3957,
      "ence": 3958,
      "alik": 3959,
      " menambah": 3960,
      "rig": 3961,
      " kursi": 3962,
      " Hasto": 3963,
      " Keamanan": 3964,
      " Ul": 3965,
      "acam": 3966,
      "ekanan": 3967,
      "39": 3968,
      " gram": 3969,
      " melindungi": 3970,
      "anyi": 3971,
      " Trans": 3972,
      " Vietnam": 3973,
      " Padang": 3974,
      "agub": 3975,
      "egang": 3976,
      "oalan": 3977,
      " mengapresiasi": 3978,
      "anjung": 3979,
      " mencakup": 3980,
      "argetkan": 3981,
      "ket": 3982,
      " mus": 3983,
      " menimbulkan": 3984,
      "uasaan": 3985,
      " panas": 3986,
      " Dewi": 3987,
      " Champi": 3988,
      "Acara": 3989,
      "PA": 3990,
      " laki": 3991,
      " ins": 3992,
      " penanganan": 3993,
      " Forum": 3994,
      "ambat": 3995,
      "Israel": 3996,
      " sabu": 3997,
      "ontribusi": 3998,
      " Pran": 3999,
      "opi": 4000,
      "-P": 4001,
      "rut": 4002,
      "tabes": 4003,
      "ainan": 4004,
      " pertanian": 4005,
      " perjanjian": 4006,
      " unggul": 4007,
      " ur": 4008,
      "ff": 4009,
      " Kur": 4010,
      "ish": 4011,
      " teror": 4012,
      " MPR": 4013,
      " City": 4014,
      " Senayan": 4015,
      " Sleman": 4016,
      " Mat": 4017,
      "aksana": 4018,
      "ANTARA": 4019,
      " Garuda": 4020,
      " Makassar": 4021,
      " Bir": 4022,
      "oroti": 4023,
      "rom": 4024,
      " PKS": 4025,
      " berf": 4026,
      "omm": 4027,
      " penjualan": 4028,
      " Gen": 4029,
      "anyaan": 4030,
      "Meskipun": 4031,
      " dipimpin": 4032,
      " Bantu": 4033,
      " Tinggi": 4034,
      " tentara": 4035,
      " dihadiri": 4036,
      " memanfaatkan": 4037,
      "ahami": 4038,
      "osiasi": 4039,
      " penyebab": 4040,
      "-d": 4041,
      "io": 4042,
      "pon": 4043,
      " berawan": 4044,
      "oko": 4045,
      " Gel": 4046,
      " kilometer": 4047,
      " kepemimpinan": 4048,
      " diambil": 4049,
      " Sid": 4050,
      " Id": 4051,
      " Hend": 4052,
      " Pulau": 4053,
      " terang": 4054,
      "oman": 4055,
      "angkalan": 4056,
      "-benar": 4057,
      " putih": 4058,
      " tambahnya": 4059,
      " gugatan": 4060,
      " AI": 4061,
      "ontoh": 4062,
      " olahraga": 4063,
      "oga": 4064,
      " Pan": 4065,
      " Merah": 4066,
      "ugian": 4067,
      " tuduhan": 4068,
      "tron": 4069,
      " Rek": 4070,
      " Roh": 4071,
      " peneg": 4072,
      "ajuan": 4073,
      "tivis": 4074,
      " operasional": 4075,
      " pres": 4076,
      "alian": 4077,
      " Sah": 4078,
      "dus": 4079,
      " perp": 4080,
      "sekut": 4081,
      " mengingat": 4082,
      " Ti": 4083,
      "agikan": 4084,
      "indakan": 4085,
      " diperl": 4086,
      " Perdana": 4087,
      "arangan": 4088,
      "sidi": 4089,
      "ace": 4090,
      "ick": 4091,
      "\"Ini": 4092,
      "akti": 4093,
      "ams": 4094,
      " yakin": 4095,
      " ditahan": 4096,
      " pencarian": 4097,
      "elasan": 4098,
      " rokok": 4099,
      "ubungi": 4100,
      "ungkinkan": 4101,
      " komunikasi": 4102,
      "ega": 4103,
      "erv": 4104,
      "akerjaan": 4105,
      " klas": 4106,
      " ab": 4107,
      "tabilitas": 4108,
      "kandar": 4109,
      ")\",": 4110,
      "BMKG": 4111,
      " mey": 4112,
      " AKP": 4113,
      "sisten": 4114,
      " Purw": 4115,
      "ministrasi": 4116,
      "enagakerjaan": 4117,
      "andera": 4118,
      " merilis": 4119,
      " memasuki": 4120,
      " Kemenkumham": 4121,
      " penelitian": 4122,
      " im": 4123,
      "ameran": 4124,
      " Ekonomi": 4125,
      " medis": 4126,
      " up": 4127,
      "EM": 4128,
      "HK": 4129,
      " inst": 4130,
      " kehilangan": 4131,
      "47": 4132,
      "hip": 4133,
      "ner": 4134,
      " misi": 4135,
      " laman": 4136,
      " peringkat": 4137,
      "jual": 4138,
      "-Mahfud": 4139,
      "ashington": 4140,
      "IS": 4141,
      " pengan": 4142,
      " barat": 4143,
      "sir": 4144,
      "asiun": 4145,
      "antah": 4146,
      "Angg": 4147,
      "ht": 4148,
      "kom": 4149,
      " mesin": 4150,
      " bupati": 4151,
      "ekatan": 4152,
      " hi": 4153,
      "ancar": 4154,
      " parlemen": 4155,
      " persiapan": 4156,
      "andra": 4157,
      "hadiran": 4158,
      "Sebanyak": 4159,
      " ekspor": 4160,
      " Anggota": 4161,
      " angin": 4162,
      "ahl": 4163,
      " Kampung": 4164,
      " us": 4165,
      "akuan": 4166,
      "iset": 4167,
      "imbau": 4168,
      "entuan": 4169,
      " putaran": 4170,
      " dokumen": 4171,
      " bank": 4172,
      " berisi": 4173,
      " mengalahkan": 4174,
      " Hizbullah": 4175,
      " Int": 4176,
      " menjawab": 4177,
      " wali": 4178,
      " Perk": 4179,
      " uji": 4180,
      " tercatat": 4181,
      "AP": 4182,
      "reskrim": 4183,
      "HO": 4184,
      " menjadikan": 4185,
      "land": 4186,
      " mati": 4187,
      " swas": 4188,
      "alang": 4189,
      "ukl": 4190,
      " haji": 4191,
      " selain": 4192,
      " atlet": 4193,
      "irektorat": 4194,
      " Mandiri": 4195,
      " mengubah": 4196,
      "ARANG": 4197,
      " biasanya": 4198,
      " Khusus": 4199,
      " transaksi": 4200,
      " diskusi": 4201,
      "abinet": 4202,
      "uluh": 4203,
      " re": 4204,
      " Megawati": 4205,
      " inisi": 4206,
      " nas": 4207,
      "ella": 4208,
      " sembilan": 4209,
      "Mantan": 4210,
      " libur": 4211,
      " juru": 4212,
      "ihan": 4213,
      " berkontribusi": 4214,
      " sehari": 4215,
      " minuman": 4216,
      " Tae": 4217,
      "44": 4218,
      " Sw": 4219,
      " Seri": 4220,
      " gempa": 4221,
      " suami": 4222,
      " Shin": 4223,
      " ekstr": 4224,
      "hiri": 4225,
      "rid": 4226,
      " gedung": 4227,
      "ajam": 4228,
      "indari": 4229,
      " anaknya": 4230,
      " Champions": 4231,
      "jing": 4232,
      " BMKG": 4233,
      " Iskandar": 4234,
      " impor": 4235,
      " tol": 4236,
      " Soek": 4237,
      " penangkapan": 4238,
      " aku": 4239,
      "umpul": 4240,
      " menurunkan": 4241,
      "Pil": 4242,
      "ps": 4243,
      " mudik": 4244,
      " mengusung": 4245,
      " materi": 4246,
      "ON": 4247,
      " tuan": 4248,
      " Sim": 4249,
      " Ro": 4250,
      " dipas": 4251,
      " gaj": 4252,
      "-Undang": 4253,
      "asat": 4254,
      "BS": 4255,
      "itr": 4256,
      "ampilkan": 4257,
      "ci": 4258,
      "ater": 4259,
      "ebaya": 4260,
      " Lingkungan": 4261,
      " keduanya": 4262,
      " Karawang": 4263,
      "urian": 4264,
      " kehadiran": 4265,
      " memungkinkan": 4266,
      " obat": 4267,
      " ketat": 4268,
      " Kl": 4269,
      "iminal": 4270,
      " fisik": 4271,
      " apresiasi": 4272,
      " berarti": 4273,
      " Fak": 4274,
      "egional": 4275,
      " kepercayaan": 4276,
      " Pantai": 4277,
      " Koordinator": 4278,
      "itungan": 4279,
      " Cir": 4280,
      " selamat": 4281,
      " Politik": 4282,
      "istis": 4283,
      " SEM": 4284,
      " oknum": 4285,
      "lt": 4286,
      "yatakan": 4287,
      "intu": 4288,
      " Mem": 4289,
      " undang": 4290,
      " segala": 4291,
      " Manag": 4292,
      "aimin": 4293,
      "rab": 4294,
      " pulang": 4295,
      " perwakilan": 4296,
      "tain": 4297,
      " Bang": 4298,
      " Div": 4299,
      "eorologi": 4300,
      "akai": 4301,
      "ujuk": 4302,
      " kapasitas": 4303,
      " Pemberantasan": 4304,
      "-A": 4305,
      "70": 4306,
      "Dem": 4307,
      "hat": 4308,
      " Ik": 4309,
      "awi": 4310,
      "otika": 4311,
      "enazah": 4312,
      " dibuka": 4313,
      "awatir": 4314,
      " Khof": 4315,
      "ohonan": 4316,
      " Khofifah": 4317,
      "Or": 4318,
      "Pemb": 4319,
      "UP": 4320,
      "leks": 4321,
      " menutup": 4322,
      " jangka": 4323,
      " memulai": 4324,
      " Pranowo": 4325,
      "Dir": 4326,
      "ahuan": 4327,
      " longsor": 4328,
      " Fr": 4329,
      "ayani": 4330,
      " Polresta": 4331,
      " gencatan": 4332,
      "orl": 4333,
      " terbukti": 4334,
      " Harris": 4335,
      "adahal": 4336,
      " mengand": 4337,
      " perekonomian": 4338,
      "abis": 4339,
      "osistem": 4340,
      " persoalan": 4341,
      "van": 4342,
      " pantai": 4343,
      " Cip": 4344,
      " menghentikan": 4345,
      " Kepulauan": 4346,
      "iling": 4347,
      " Nusa": 4348,
      " ton": 4349,
      " diamankan": 4350,
      "orter": 4351,
      " berta": 4352,
      " pertanyaan": 4353,
      "roduksi": 4354,
      "sekutif": 4355,
      "by": 4356,
      "uz": 4357,
      " Hart": 4358,
      "ando": 4359,
      "-sabu": 4360,
      " praktik": 4361,
      " SEMARANG": 4362,
      "arung": 4363,
      " ku": 4364,
      " menentukan": 4365,
      "isl": 4366,
      " Motor": 4367,
      "anggilan": 4368,
      "amm": 4369,
      " Sil": 4370,
      " Kasus": 4371,
      " Washington": 4372,
      " ditemui": 4373,
      "49": 4374,
      "UD": 4375,
      "ve": 4376,
      "raf": 4377,
      " fitur": 4378,
      " memperoleh": 4379,
      "ech": 4380,
      " belajar": 4381,
      "truksi": 4382,
      "Pj": 4383,
      "apura": 4384,
      "ensif": 4385,
      " sepak": 4386,
      " diw": 4387,
      "rist": 4388,
      " hutan": 4389,
      " pengamanan": 4390,
      " suatu": 4391,
      " Putra": 4392,
      " $": 4393,
      " Suh": 4394,
      "evakuasi": 4395,
      " kampus": 4396,
      " Boj": 4397,
      " Kaesang": 4398,
      "sinya": 4399,
      " mengunjungi": 4400,
      " Perh": 4401,
      "arkotika": 4402,
      " faktor": 4403,
      "56": 4404,
      " damai": 4405,
      " mengadakan": 4406,
      " kement": 4407,
      "aksud": 4408,
      " aset": 4409,
      " profesional": 4410,
      " met": 4411,
      " Cil": 4412,
      "eijing": 4413,
      " Digital": 4414,
      "igrasi": 4415,
      "ebaran": 4416,
      "udul": 4417,
      "uransi": 4418,
      " bertajuk": 4419,
      "58": 4420,
      "Dik": 4421,
      " mengec": 4422,
      " Cor": 4423,
      " kerap": 4424,
      "Tok": 4425,
      " mul": 4426,
      "ahaya": 4427,
      " Kad": 4428,
      "ester": 4429,
      " Industri": 4430,
      " putri": 4431,
      " Irjen": 4432,
      " berwenang": 4433,
      " Joe": 4434,
      " hewan": 4435,
      " Donald": 4436,
      "oso": 4437,
      " kementerian": 4438,
      " dahulu": 4439,
      "ukasi": 4440,
      "embatan": 4441,
      " ketidak": 4442,
      " bayi": 4443,
      "oda": 4444,
      "sus": 4445,
      " kanan": 4446,
      " Pj": 4447,
      " Ju": 4448,
      " Surakarta": 4449,
      " efektif": 4450,
      "!\n": 4451,
      "-K": 4452,
      " Sin": 4453,
      " capres": 4454,
      " menghasilkan": 4455,
      "46": 4456,
      " mak": 4457,
      " band": 4458,
      "otan": 4459,
      "ingkatkan": 4460,
      " dibuat": 4461,
      " Pengaw": 4462,
      " Kejaksaan": 4463,
      "Warga": 4464,
      "siapkan": 4465,
      " Tanjung": 4466,
      "intar": 4467,
      "luas": 4468,
      " berperan": 4469,
      " ka": 4470,
      " timur": 4471,
      " Afrika": 4472,
      "uklir": 4473,
      "ahmi": 4474,
      " penurunan": 4475,
      " rusak": 4476,
      "agama": 4477,
      " darurat": 4478,
      " e": 4479,
      " No": 4480,
      " kereta": 4481,
      " bertanggung": 4482,
      "spirasi": 4483,
      "pora": 4484,
      " Sant": 4485,
      "anyahu": 4486,
      "awancara": 4487,
      " konten": 4488,
      "Sejak": 4489,
      " era": 4490,
      " Keh": 4491,
      " kerugian": 4492,
      " lanjutnya": 4493,
      "-g": 4494,
      "elayan": 4495,
      "adai": 4496,
      "enting": 4497,
      "jauh": 4498,
      " khawatir": 4499,
      " standar": 4500,
      " pasien": 4501,
      "bk": 4502,
      "ns": 4503,
      "utaan": 4504,
      " membeli": 4505,
      " prioritas": 4506,
      "DP": 4507,
      "usn": 4508,
      "etapi": 4509,
      " mengin": 4510,
      " Institu": 4511,
      "umpulkan": 4512,
      " Madura": 4513,
      " hitam": 4514,
      "Tapi": 4515,
      "gunaan": 4516,
      "astik": 4517,
      " Joh": 4518,
      " senang": 4519,
      " Pelabuhan": 4520,
      " teknis": 4521,
      " News": 4522,
      " the": 4523,
      " Ho": 4524,
      " coba": 4525,
      " kemajuan": 4526,
      " senilai": 4527,
      "Sed": 4528,
      " dom": 4529,
      " gas": 4530,
      " Arif": 4531,
      " Konstitusi": 4532,
      " diperlukan": 4533,
      " menya": 4534,
      " menengah": 4535,
      " beragam": 4536,
      " batas": 4537,
      "andatangani": 4538,
      "IP": 4539,
      "Kapolres": 4540,
      " menud": 4541,
      " Penc": 4542,
      " layak": 4543,
      " serupa": 4544,
      "hamdul": 4545,
      " mempertahankan": 4546,
      " ul": 4547,
      "ound": 4548,
      " kesi": 4549,
      "anyol": 4550,
      "Pelaku": 4551,
      " grup": 4552,
      " Orang": 4553,
      " Pekanbaru": 4554,
      " pula": 4555,
      "abel": 4556,
      " menyoroti": 4557,
      " pengusaha": 4558,
      "ranc": 4559,
      " Polsek": 4560,
      "eriksa": 4561,
      " seksual": 4562,
      "Anggota": 4563,
      "orld": 4564,
      " mengonsumsi": 4565,
      "udahan": 4566,
      "RT": 4567,
      " kaki": 4568,
      "egahan": 4569,
      "masalahan": 4570,
      " kerusakan": 4571,
      " klaim": 4572,
      "\"Jadi": 4573,
      " keadaan": 4574,
      " Gian": 4575,
      " Nik": 4576,
      " buku": 4577,
      " Mir": 4578,
      " rangkaian": 4579,
      " pendapatan": 4580,
      "aruh": 4581,
      " beroperasi": 4582,
      " Dav": 4583,
      "Tr": 4584,
      " lawan": 4585,
      "ungnya": 4586,
      " rekan": 4587,
      " membentuk": 4588,
      "uncuran": 4589,
      " kecamatan": 4590,
      "engaruhi": 4591,
      "42": 4592,
      "lement": 4593,
      "vensi": 4594,
      " pohon": 4595,
      " Imigrasi": 4596,
      " memahami": 4597,
      " Pertanian": 4598,
      "kus": 4599,
      " selanjutnya": 4600,
      " bahasa": 4601,
      " menerapkan": 4602,
      "engkapi": 4603,
      " penyelenggaraan": 4604,
      "43": 4605,
      "eni": 4606,
      " mundur": 4607,
      "arak": 4608,
      " pengunjung": 4609,
      " menanggapi": 4610,
      " Ros": 4611,
      " didampingi": 4612,
      "rediksi": 4613,
      "enjata": 4614,
      " jasa": 4615,
      "udayaan": 4616,
      " nantinya": 4617,
      " wanita": 4618,
      " bertahan": 4619,
      " dinyatakan": 4620,
      "Melalui": 4621,
      "59": 4622,
      " dulu": 4623,
      " PL": 4624,
      " Daya": 4625,
      " jatuh": 4626,
      " Persis": 4627,
      " sant": 4628,
      " tata": 4629,
      " tahanan": 4630,
      " Sungai": 4631,
      "ifinal": 4632,
      "-per": 4633,
      "AD": 4634,
      "iat": 4635,
      " SAR": 4636,
      " berubah": 4637,
      " Cl": 4638,
      " Lembaga": 4639,
      " Operasi": 4640,
      "ediaan": 4641,
      " Mahfud": 4642,
      " tangga": 4643,
      "adj": 4644,
      " akrab": 4645,
      "ive": 4646,
      "emaah": 4647,
      " kalinya": 4648,
      " Muslim": 4649,
      " nyaman": 4650,
      "amkan": 4651,
      " zona": 4652,
      " karyawan": 4653,
      "amas": 4654,
      " Ada": 4655,
      " Ge": 4656,
      " setidaknya": 4657,
      " semuanya": 4658,
      " Persebaya": 4659,
      "hargaan": 4660,
      " tekanan": 4661,
      " Bambang": 4662,
      " Ip": 4663,
      " inv": 4664,
      " kekuasaan": 4665,
      "urnamen": 4666,
      " Putri": 4667,
      "300": 4668,
      "PJ": 4669,
      "alurkan": 4670,
      " Tbk": 4671,
      " Hid": 4672,
      " berkualitas": 4673,
      "ertai": 4674,
      "alisasi": 4675,
      " peraturan": 4676,
      " Dar": 4677,
      " Wil": 4678,
      "ainya": 4679,
      " fungsi": 4680,
      "vestor": 4681,
      " Se": 4682,
      " Rai": 4683,
      "angkatan": 4684,
      "indah": 4685,
      "empatkan": 4686,
      "imbangan": 4687,
      " dinas": 4688,
      "ie": 4689,
      "andan": 4690,
      "estasi": 4691,
      "57": 4692,
      "Hari": 4693,
      " Bengk": 4694,
      " Tik": 4695,
      "ock": 4696,
      " transportasi": 4697,
      " remaja": 4698,
      " nasabah": 4699,
      "za": 4700,
      "antren": 4701,
      " Peraturan": 4702,
      "angguan": 4703,
      " Penyel": 4704,
      "lih": 4705,
      "are": 4706,
      " Yus": 4707,
      " VOA": 4708,
      "tis": 4709,
      " buat": 4710,
      " lengkap": 4711,
      "etuju": 4712,
      " manajemen": 4713,
      "-j": 4714,
      " kos": 4715,
      " Musi": 4716,
      " Kaltim": 4717,
      " tanggung": 4718,
      " Karno": 4719,
      " Con": 4720,
      " pengiriman": 4721,
      "hawatiran": 4722,
      " Kos": 4723,
      " Kons": 4724,
      " ram": 4725,
      " Go": 4726,
      "ayoritas": 4727,
      " antar": 4728,
      " Kelas": 4729,
      " Hasan": 4730,
      "awanan": 4731,
      " ekosistem": 4732,
      " Turki": 4733,
      " umat": 4734,
      "41": 4735,
      "Apa": 4736,
      " inter": 4737,
      " penetapan": 4738,
      " dibutuhkan": 4739,
      " Agama": 4740,
      "imbangkan": 4741,
      " situs": 4742,
      "-C": 4743,
      "aing": 4744,
      " mengimbau": 4745,
      " Dua": 4746,
      " warna": 4747,
      " pemuda": 4748,
      "arkir": 4749,
      " to": 4750,
      " Sej": 4751,
      " sesuatu": 4752,
      " ikan": 4753,
      " usai": 4754,
      "itia": 4755,
      " apabila": 4756,
      " Masjid": 4757,
      "80": 4758,
      "Banyak": 4759,
      "imaan": 4760,
      "elahiran": 4761,
      " prinsip": 4762,
      "orneo": 4763,
      "ominasi": 4764,
      " Fat": 4765,
      " permohonan": 4766,
      "hasilan": 4767,
      "hamdulillah": 4768,
      "PAN": 4769,
      "obatan": 4770,
      " Ev": 4771,
      " Kediri": 4772,
      " ekstrem": 4773,
      " pabrik": 4774,
      " lem": 4775,
      "istri": 4776,
      " Qatar": 4777,
      "aritas": 4778,
      " bar": 4779,
      " Panc": 4780,
      "ony": 4781,
      " Kat": 4782,
      " Ting": 4783,
      "epi": 4784,
      " merayakan": 4785,
      "intah": 4786,
      " rekomendasi": 4787,
      " perbaikan": 4788,
      " Kompol": 4789,
      " Angkatan": 4790,
      "bal": 4791,
      "hu": 4792,
      " kunci": 4793,
      " Dj": 4794,
      " nuklir": 4795,
      "90": 4796,
      "CC": 4797,
      " Be": 4798,
      "Pasalnya": 4799,
      " persidangan": 4800,
      " elektabilitas": 4801,
      "EAN": 4802,
      " Emas": 4803,
      " Natal": 4804,
      " ibadah": 4805,
      " Setiawan": 4806,
      " logistik": 4807,
      "Kementerian": 4808,
      " NTB": 4809,
      " wajib": 4810,
      "kah": 4811,
      " Siap": 4812,
      "ulangan": 4813,
      " DI": 4814,
      " Meteorologi": 4815,
      "ogram": 4816,
      " Kapolres": 4817,
      "uktikan": 4818,
      " Direktorat": 4819,
      "tion": 4820,
      " Festival": 4821,
      " dipl": 4822,
      "cepat": 4823,
      " bunga": 4824,
      " Mod": 4825,
      " Yud": 4826,
      " efisi": 4827,
      " swasta": 4828,
      "amatkan": 4829,
      " Kam": 4830,
      " Kris": 4831,
      " mengus": 4832,
      "ataan": 4833,
      " berikutnya": 4834,
      " perayaan": 4835,
      " jurn": 4836,
      " kontrak": 4837,
      " identitas": 4838,
      "51": 4839,
      "Seh": 4840,
      " menampilkan": 4841,
      "onj": 4842,
      "itung": 4843,
      " lancar": 4844,
      " melip": 4845,
      " Batu": 4846,
      " seseorang": 4847,
      " gerakan": 4848,
      "Kej": 4849,
      " lihat": 4850,
      "epend": 4851,
      "endak": 4852,
      " pemberian": 4853,
      "angkau": 4854,
      "aksikan": 4855,
      " Singapura": 4856,
      "KA": 4857,
      "Keb": 4858,
      " sambil": 4859,
      " sungai": 4860,
      " Bung": 4861,
      " berencana": 4862,
      " norm": 4863,
      " Comm": 4864,
      " catatan": 4865,
      " aktivis": 4866,
      " Spanyol": 4867,
      " keselamatan": 4868,
      " Gianyar": 4869,
      " alami": 4870,
      "NU": 4871,
      " kelahiran": 4872,
      " menemp": 4873,
      "ebaskan": 4874,
      " Kend": 4875,
      "otak": 4876,
      "identifikasi": 4877,
      "adwalkan": 4878,
      " ga": 4879,
      "rak": 4880,
      " saran": 4881,
      " It": 4882,
      "udang": 4883,
      "andai": 4884,
      "unyai": 4885,
      "ansir": 4886,
      "BT": 4887,
      " permasalahan": 4888,
      "aria": 4889,
      " Jasa": 4890,
      " disertai": 4891,
      "sal": 4892,
      "yani": 4893,
      " Sakit": 4894,
      " Bus": 4895,
      " Beijing": 4896,
      "olar": 4897,
      " perangkat": 4898,
      " Anwar": 4899,
      " Pemkot": 4900,
      " agenda": 4901,
      " memperkenalkan": 4902,
      " bakar": 4903,
      "ikahan": 4904,
      "epon": 4905,
      "inginkan": 4906,
      " jarak": 4907,
      "abrak": 4908,
      " mengakibatkan": 4909,
      "Bahkan": 4910,
      " mo": 4911,
      " World": 4912,
      "iana": 4913,
      " Andi": 4914,
      " Sekolah": 4915,
      " Irak": 4916,
      "awang": 4917,
      " Marc": 4918,
      " Kepolisian": 4919,
      "DO": 4920,
      "bitkan": 4921,
      " tun": 4922,
      "app": 4923,
      " Samp": 4924,
      "ektur": 4925,
      "umahan": 4926,
      " sejauh": 4927,
      "agung": 4928,
      " mendaftar": 4929,
      "untutan": 4930,
      " Balai": 4931,
      "eritakan": 4932,
      "fisi": 4933,
      "her": 4934,
      "sur": 4935,
      "tusi": 4936,
      "olos": 4937,
      " membayar": 4938,
      " Perm": 4939,
      " mempunyai": 4940,
      "Korban": 4941,
      "Jumlah": 4942,
      " misalnya": 4943,
      "urit": 4944,
      "ancarkan": 4945,
      " militan": 4946,
      " wisatawan": 4947,
      " minta": 4948,
      " rep": 4949,
      "akili": 4950,
      " model": 4951,
      " mengakhiri": 4952,
      "LO": 4953,
      "ganya": 4954,
      " Pemprov": 4955,
      " Jam": 4956,
      "angkut": 4957,
      " ketentuan": 4958,
      "ijen": 4959,
      " diperiksa": 4960,
      "untungan": 4961,
      "Am": 4962,
      " tarif": 4963,
      " Me": 4964,
      " Karya": 4965,
      "endagri": 4966,
      "tronik": 4967,
      " menguc": 4968,
      " berkolaborasi": 4969,
      "onstr": 4970,
      " Ass": 4971,
      " keberl": 4972,
      " klasemen": 4973,
      " hijau": 4974,
      "akini": 4975,
      "aminya": 4976,
      "etujui": 4977,
      "tusias": 4978,
      "52": 4979,
      "san": 4980,
      " kiri": 4981,
      " Jalur": 4982,
      " Taman": 4983,
      " bersenjata": 4984,
      " diminta": 4985,
      " plastik": 4986,
      " terjadinya": 4987,
      "lementasi": 4988,
      "53": 4989,
      "TV": 4990,
      "fo": 4991,
      "yono": 4992,
      "itis": 4993,
      " MD": 4994,
      "egrasi": 4995,
      " Indr": 4996,
      "ambangan": 4997,
      "opsi": 4998,
      "79": 4999,
      "Dit": 5000,
      "sed": 5001,
      " br": 5002,
      " menangani": 5003,
      "uruk": 5004,
      " sesi": 5005,
      "urna": 5006,
      " aspek": 5007,
      " Teknologi": 5008,
      " lahir": 5009,
      " Bantul": 5010,
      " Sar": 5011,
      " Sumber": 5012,
      " Aj": 5013,
      "agia": 5014,
      " memeriksa": 5015,
      " dilansir": 5016,
      "div": 5017,
      "Pemain": 5018,
      " permainan": 5019,
      " kilogram": 5020,
      "lad": 5021,
      "ekaan": 5022,
      " rup": 5023,
      "upan": 5024,
      " Geo": 5025,
      " member": 5026,
      "osa": 5027,
      " perdamaian": 5028,
      "baiki": 5029,
      "atunya": 5030,
      "atologi": 5031,
      " Jogja": 5032,
      "-teman": 5033,
      "hana": 5034,
      " tunggal": 5035,
      "edit": 5036,
      " Hujan": 5037,
      "ower": 5038,
      " menghindari": 5039,
      "-hari": 5040,
      "Petugas": 5041,
      " tanda": 5042,
      "onda": 5043,
      " Kab": 5044,
      " Ha": 5045,
      " gangguan": 5046,
      " Perl": 5047,
      " pelajar": 5048,
      " Netanyahu": 5049,
      "BC": 5050,
      "wal": 5051,
      " da": 5052,
      " koordinasi": 5053,
      "aparan": 5054,
      "utra": 5055,
      " HUT": 5056,
      " Informasi": 5057,
      " was": 5058,
      "arisan": 5059,
      " desain": 5060,
      " Sido": 5061,
      "/j": 5062,
      "fitri": 5063,
      "me": 5064,
      " taw": 5065,
      " mengant": 5066,
      " jenazah": 5067,
      " mempersiapkan": 5068,
      " konsep": 5069,
      "my": 5070,
      " Sya": 5071,
      "oblos": 5072,
      " Pras": 5073,
      " York": 5074,
      " ASEAN": 5075,
      "ondok": 5076,
      " modern": 5077,
      " kontra": 5078,
      "Seperti": 5079,
      " gaji": 5080,
      "ium": 5081,
      "usun": 5082,
      "olog": 5083,
      " pembayaran": 5084,
      " tahapan": 5085,
      "Persero": 5086,
      "ead": 5087,
      " sandera": 5088,
      " tes": 5089,
      " menargetkan": 5090,
      " Begini": 5091,
      "ektar": 5092,
      "endali": 5093,
      "iber": 5094,
      "aft": 5095,
      "uncak": 5096,
      " BBM": 5097,
      " fakta": 5098,
      " Hakim": 5099,
      "fisika": 5100,
      " supaya": 5101,
      " Ib": 5102,
      "adiah": 5103,
      " merasakan": 5104,
      " adat": 5105,
      "ogo": 5106,
      "enggel": 5107,
      " berjudul": 5108,
      " sosialisasi": 5109,
      " University": 5110,
      "-E": 5111,
      " tadi": 5112,
      " berangkat": 5113,
      " internal": 5114,
      "ebritas": 5115,
      " Ketenagakerjaan": 5116,
      "eklarasi": 5117,
      "ugikan": 5118,
      " Juanda": 5119,
      "ery": 5120,
      "uruhan": 5121,
      " Bangsa": 5122,
      " Maju": 5123,
      " Dedi": 5124,
      " membantah": 5125,
      " dibangun": 5126,
      " sukarelawan": 5127,
      " tumbuh": 5128,
      "Tetapi": 5129,
      " menuntut": 5130,
      " Ku": 5131,
      " semifinal": 5132,
      "ich": 5133,
      " Polrestabes": 5134,
      " intel": 5135,
      " Lapangan": 5136,
      " mengirimkan": 5137,
      "-f": 5138,
      " Pimpinan": 5139,
      " Kek": 5140,
      "tisipasi": 5141,
      "entan": 5142,
      "empur": 5143,
      " pembicara": 5144,
      " suaminya": 5145,
      " beliau": 5146,
      "lan": 5147,
      "tana": 5148,
      " pariwisata": 5149,
      " Da": 5150,
      " Perempuan": 5151,
      "olehan": 5152,
      " Persija": 5153,
      " skuad": 5154,
      "klusif": 5155,
      " amb": 5156,
      " buka": 5157,
      "sik": 5158,
      " Did": 5159,
      "esir": 5160,
      "uhu": 5161,
      " nelayan": 5162,
      "angkit": 5163,
      "osen": 5164,
      "ijaya": 5165,
      " Ngurah": 5166,
      " krisis": 5167,
      "EK": 5168,
      "roli": 5169,
      "aleg": 5170,
      " AN": 5171,
      "asia": 5172,
      "uluhan": 5173,
      "unjukan": 5174,
      " bertugas": 5175,
      " sambutan": 5176,
      "alap": 5177,
      " Para": 5178,
      " Sumb": 5179,
      " perjuangan": 5180,
      " Komunikasi": 5181,
      " Usaha": 5182,
      " regulasi": 5183,
      "endikbud": 5184,
      "Bagi": 5185,
      "bo": 5186,
      " mengab": 5187,
      " Borneo": 5188,
      " Haji": 5189,
      " timnya": 5190,
      " Geofisika": 5191,
      "ahaman": 5192,
      " Klim": 5193,
      " Bakal": 5194,
      "-satunya": 5195,
      " Klimatologi": 5196,
      " bir": 5197,
      "amakan": 5198,
      " Ph": 5199,
      "angku": 5200,
      "irikan": 5201,
      "ormatan": 5202,
      " Pemkab": 5203,
      " mengenakan": 5204,
      " drone": 5205,
      " merespons": 5206,
      "gasi": 5207,
      " tip": 5208,
      " SMK": 5209,
      " Kim": 5210,
      " liter": 5211,
      "egoro": 5212,
      " massa": 5213,
      "ondisi": 5214,
      "uyur": 5215,
      " bilang": 5216,
      "ukses": 5217,
      " kontribusi": 5218,
      "Ang": 5219,
      " Teg": 5220,
      " UN": 5221,
      " protes": 5222,
      " YOG": 5223,
      " berhenti": 5224,
      " Sumut": 5225,
      "China": 5226,
      "erakan": 5227,
      " turnamen": 5228,
      " KU": 5229,
      "eco": 5230,
      " memperingatkan": 5231,
      " YOGY": 5232,
      "BP": 5233,
      "Serangan": 5234,
      " pameran": 5235,
      "ame": 5236,
      "ambarkan": 5237,
      " Open": 5238,
      " kekhawatiran": 5239,
      " Putin": 5240,
      "idato": 5241,
      " Belanda": 5242,
      " Martin": 5243,
      " YOGYAKARTA": 5244,
      "54": 5245,
      " pintu": 5246,
      " SK": 5247,
      "ultas": 5248,
      " Gelar": 5249,
      " tersedia": 5250,
      "uasai": 5251,
      "-pro": 5252,
      "ilmu": 5253,
      " Erick": 5254,
      " menyerukan": 5255,
      " sasaran": 5256,
      " KM": 5257,
      "itor": 5258,
      "asib": 5259,
      " mengej": 5260,
      " Guru": 5261,
      "ipuan": 5262,
      " Gelora": 5263,
      " Pangan": 5264,
      " Kali": 5265,
      "urang": 5266,
      " lulus": 5267,
      " menganggap": 5268,
      " Ny": 5269,
      " sebut": 5270,
      "ehan": 5271,
      " tersebar": 5272,
      " toko": 5273,
      "AH": 5274,
      "aging": 5275,
      " rumahnya": 5276,
      "TP": 5277,
      "enya": 5278,
      "inar": 5279,
      " Peg": 5280,
      "ulitan": 5281,
      "ede": 5282,
      " dilantik": 5283,
      "ormati": 5284,
      "link": 5285,
      " netral": 5286,
      "Kasus": 5287,
      " pal": 5288,
      "ederal": 5289,
      " keluarganya": 5290,
      " edukasi": 5291,
      " ilmu": 5292,
      " diajukan": 5293,
      " Ped": 5294,
      " hendak": 5295,
      " hektar": 5296,
      " Te": 5297,
      " Terb": 5298,
      " Manusia": 5299,
      "ba": 5300,
      "ikel": 5301,
      " menikmati": 5302,
      "dusen": 5303,
      " gaw": 5304,
      "jelang": 5305,
      "ph": 5306,
      "ania": 5307,
      "injau": 5308,
      "itim": 5309,
      " Mag": 5310,
      " Jember": 5311,
      " hotel": 5312,
      " Cik": 5313,
      " Lest": 5314,
      " serentak": 5315,
      " pencurian": 5316,
      "upacara": 5317,
      " Kanwil": 5318,
      " upacara": 5319,
      "jana": 5320,
      " perairan": 5321,
      " akadem": 5322,
      " diberi": 5323,
      " pasokan": 5324,
      " Maluku": 5325,
      "rancang": 5326,
      "BI": 5327,
      "jek": 5328,
      " tra": 5329,
      " dirancang": 5330,
      "inginan": 5331,
      " perintah": 5332,
      "imis": 5333,
      " Dn": 5334,
      " investor": 5335,
      "asila": 5336,
      " daring": 5337,
      " Sidoarjo": 5338,
      "PM": 5339,
      "ahat": 5340,
      "esa": 5341,
      "ajian": 5342,
      " memperluas": 5343,
      " penyelenggara": 5344,
      "erdekaan": 5345,
      " meliputi": 5346,
      "/ab": 5347,
      " mayoritas": 5348,
      "akses": 5349,
      "Sumber": 5350,
      "erahan": 5351,
      " kamar": 5352,
      " tambang": 5353,
      "andeng": 5354,
      " Cah": 5355,
      " penyidikan": 5356,
      "Ya": 5357,
      " mark": 5358,
      "asaan": 5359,
      " diadakan": 5360,
      " lebat": 5361,
      "eksp": 5362,
      "ukuran": 5363,
      "embus": 5364,
      " penonton": 5365,
      " konsisten": 5366,
      " Surat": 5367,
      " pendapat": 5368,
      " viral": 5369,
      "sisi": 5370,
      " berc": 5371,
      " pergi": 5372,
      "abut": 5373,
      "intai": 5374,
      " Arya": 5375,
      "unggulan": 5376,
      "resik": 5377,
      "iskinan": 5378,
      "yanmar": 5379,
      " Idulfitri": 5380,
      " pokok": 5381,
      "ilir": 5382,
      "umentasi": 5383,
      " MA": 5384,
      " halaman": 5385,
      " mendengar": 5386,
      " konser": 5387,
      " kampung": 5388,
      "ependen": 5389,
      "-nya": 5390,
      " kuasa": 5391,
      " batu": 5392,
      " menahan": 5393,
      "onegoro": 5394,
      " sebagaimana": 5395,
      " mengucapkan": 5396,
      " istr": 5397,
      " migran": 5398,
      "emar": 5399,
      " Dan": 5400,
      " melanda": 5401,
      " WITA": 5402,
      " terlebih": 5403,
      " Pakistan": 5404,
      " mengandung": 5405,
      " mengk": 5406,
      " had": 5407,
      "edaran": 5408,
      "otong": 5409,
      "ejak": 5410,
      " keberadaan": 5411,
      "egritas": 5412,
      " penganiayaan": 5413,
      " DIY": 5414,
      " istrinya": 5415,
      ".,": 5416,
      "alog": 5417,
      " Sebut": 5418,
      " Mesir": 5419,
      "rip": 5420,
      " Istana": 5421,
      "embalikan": 5422,
      "Berb": 5423,
      " dijadwalkan": 5424,
      " PSIS": 5425,
      " Rafah": 5426,
      "quez": 5427,
      "uthfi": 5428,
      " Badung": 5429,
      "ongkok": 5430,
      " menuduh": 5431,
      " Mend": 5432,
      " administrasi": 5433,
      "-tahun": 5434,
      " Reskrim": 5435,
      " meyakini": 5436,
      "uters": 5437,
      " Dwi": 5438,
      "edera": 5439,
      " berbagi": 5440,
      " antusias": 5441,
      "entum": 5442,
      " tren": 5443,
      " beserta": 5444,
      " Kapten": 5445,
      "Diketahui": 5446,
      "Badan": 5447,
      " pakar": 5448,
      "emudi": 5449,
      " lepas": 5450,
      " rest": 5451,
      " real": 5452,
      " maaf": 5453,
      "MS": 5454,
      "akter": 5455,
      " studi": 5456,
      "ulir": 5457,
      "ulian": 5458,
      "ujuan": 5459,
      "gizi": 5460,
      " Pemuda": 5461,
      "ector": 5462,
      " Ung": 5463,
      " berjuang": 5464,
      " PSS": 5465,
      " PSSI": 5466,
      "eno": 5467,
      " SI": 5468,
      " Sir": 5469,
      " beredar": 5470,
      " Ayu": 5471,
      "idur": 5472,
      " Fir": 5473,
      " Yas": 5474,
      "Selanjutnya": 5475,
      "ecah": 5476,
      " bumi": 5477,
      " May": 5478,
      "oll": 5479,
      "esisir": 5480,
      " tahunan": 5481,
      " kesulitan": 5482,
      " komentar": 5483,
      " arahan": 5484,
      "idiki": 5485,
      "artisipasi": 5486,
      " legisl": 5487,
      "mu": 5488,
      "enakan": 5489,
      " tembak": 5490,
      " mengatur": 5491,
      " rata": 5492,
      "egangan": 5493,
      "ohir": 5494,
      "ejo": 5495,
      " pernikahan": 5496,
      " respons": 5497,
      "Pria": 5498,
      " Imam": 5499,
      " SMA": 5500,
      "ne": 5501,
      "apal": 5502,
      " Gresik": 5503,
      "imbol": 5504,
      "reen": 5505,
      " You": 5506,
      " bintang": 5507,
      "asilitasi": 5508,
      "Lalu": 5509,
      " bin": 5510,
      " Majelis": 5511,
      " Dana": 5512,
      " bersalah": 5513,
      " Akbar": 5514,
      "-D": 5515,
      "Kapol": 5516,
      "fer": 5517,
      " PAN": 5518,
      "ikro": 5519,
      " Brig": 5520,
      " keterl": 5521,
      "sedur": 5522,
      " mand": 5523,
      " menjual": 5524,
      "angkutan": 5525,
      "aturahmi": 5526,
      " keberlanjutan": 5527,
      "ibatan": 5528,
      " Aparat": 5529,
      " susu": 5530,
      "par": 5531,
      " ki": 5532,
      " Bob": 5533,
      " Tab": 5534,
      "ulin": 5535,
      " narkotika": 5536,
      " cerah": 5537,
      "-rata": 5538,
      " Divisi": 5539,
      "Tub": 5540,
      "ean": 5541,
      "vey": 5542,
      "atalkan": 5543,
      " koalisi": 5544,
      " tamu": 5545,
      " Seorang": 5546,
      "ingat": 5547,
      " Mobil": 5548,
      " Bersama": 5549,
      "\"Kalau": 5550,
      "Terl": 5551,
      "embako": 5552,
      " keseluruhan": 5553,
      " Penjabat": 5554,
      ":\n": 5555,
      "Har": 5556,
      "KPP": 5557,
      " keempat": 5558,
      " melayani": 5559,
      "ongkar": 5560,
      " @": 5561,
      " BOG": 5562,
      " Myanmar": 5563,
      " mengumpulkan": 5564,
      " Rapat": 5565,
      " ramah": 5566,
      " NU": 5567,
      "Pasangan": 5568,
      "Polres": 5569,
      " evaluasi": 5570,
      "Semua": 5571,
      " Pancasila": 5572,
      "hatikan": 5573,
      "antang": 5574,
      " kartu": 5575,
      "indahan": 5576,
      " siaran": 5577,
      "porate": 5578,
      " efek": 5579,
      " inisiatif": 5580,
      " BOGOR": 5581,
      "Calon": 5582,
      "rs": 5583,
      " puasa": 5584,
      " Pam": 5585,
      " Bicara": 5586,
      " BPBD": 5587,
      "ulusan": 5588,
      " Dewa": 5589,
      " Fau": 5590,
      " adil": 5591,
      "odak": 5592,
      " Arema": 5593,
      " berjanji": 5594,
      " konsumsi": 5595,
      " beli": 5596,
      " AFF": 5597,
      " gelombang": 5598,
      "HP": 5599,
      "ahi": 5600,
      " Kawasan": 5601,
      " perolehan": 5602,
      "irian": 5603,
      " namanya": 5604,
      " sejalan": 5605,
      "Sebuah": 5606,
      "argan": 5607,
      " Afg": 5608,
      " saudara": 5609,
      "waan": 5610,
      " Kun": 5611,
      " level": 5612,
      "etika": 5613,
      " jemaah": 5614,
      "edak": 5615,
      "iansi": 5616,
      " Luthfi": 5617,
      "ayasan": 5618,
      "endra": 5619,
      "empuran": 5620,
      " transparan": 5621,
      " Lapas": 5622,
      "As": 5623,
      "mikan": 5624,
      "win": 5625,
      " kak": 5626,
      "ajat": 5627,
      " Yah": 5628,
      " penerimaan": 5629,
      " inflasi": 5630,
      "TS": 5631,
      "apil": 5632,
      " Kamp": 5633,
      "uling": 5634,
      " membagikan": 5635,
      "forma": 5636,
      " berlanjut": 5637,
      " instansi": 5638,
      "KM": 5639,
      "olan": 5640,
      "edaan": 5641,
      " Pelatih": 5642,
      " Andika": 5643,
      " mengelola": 5644,
      "Akan": 5645,
      "Jangan": 5646,
      "teng": 5647,
      "uit": 5648,
      "alisis": 5649,
      " pasal": 5650,
      " dirilis": 5651,
      " besok": 5652,
      "oskow": 5653,
      " diusung": 5654,
      " Karang": 5655,
      " Adi": 5656,
      "oker": 5657,
      "ayangkan": 5658,
      " lanjutan": 5659,
      " tradisional": 5660,
      " Hidayat": 5661,
      "Pend": 5662,
      "Satu": 5663,
      "atuhkan": 5664,
      " bl": 5665,
      " Sch": 5666,
      "use": 5667,
      "endera": 5668,
      "anker": 5669,
      " Zul": 5670,
      " emisi": 5671,
      "Secara": 5672,
      "Mem": 5673,
      "caya": 5674,
      "ganisasi": 5675,
      "yang": 5676,
      " Li": 5677,
      " pemad": 5678,
      " masjid": 5679,
      " dilanjutkan": 5680,
      " mengganggu": 5681,
      " terbatas": 5682,
      "Sedangkan": 5683,
      "gaja": 5684,
      " keadilan": 5685,
      "ahana": 5686,
      " peluncuran": 5687,
      " Departemen": 5688,
      " dekade": 5689,
      "'s": 5690,
      "DB": 5691,
      "En": 5692,
      "dan": 5693,
      "lanjut": 5694,
      "tual": 5695,
      " Hab": 5696,
      " CEO": 5697,
      " merusak": 5698,
      " US": 5699,
      " camp": 5700,
      " dikirim": 5701,
      " apalagi": 5702,
      "Polda": 5703,
      " pedagang": 5704,
      "bah": 5705,
      " melarang": 5706,
      " melancarkan": 5707,
      " sebab": 5708,
      "inggung": 5709,
      " berbahaya": 5710,
      "incian": 5711,
      " Perdagangan": 5712,
      " Tiongkok": 5713,
      " David": 5714,
      " palsu": 5715,
      "ink": 5716,
      "elan": 5717,
      " Pus": 5718,
      " Pidana": 5719,
      " SU": 5720,
      "uter": 5721,
      "utar": 5722,
      " Boy": 5723,
      " Mun": 5724,
      " jaksa": 5725,
      " berka": 5726,
      " sepen": 5727,
      "tivasi": 5728,
      " tanggapan": 5729,
      " mendatangi": 5730,
      " gawang": 5731,
      "Juru": 5732,
      " kari": 5733,
      " tuntutan": 5734,
      " Prat": 5735,
      "opir": 5736,
      " berkumpul": 5737,
      "unggah": 5738,
      " oposisi": 5739,
      " ide": 5740,
      " dipastikan": 5741,
      "75": 5742,
      "paya": 5743,
      "ermin": 5744,
      "asnya": 5745,
      "astian": 5746,
      "unting": 5747,
      " Syah": 5748,
      " Kualifikasi": 5749,
      " RUU": 5750,
      " Niaga": 5751,
      "ayam": 5752,
      " pengurus": 5753,
      " disebabkan": 5754,
      "uci": 5755,
      "iskusi": 5756,
      " PNS": 5757,
      " Rizky": 5758,
      "atuhi": 5759,
      " Minta": 5760,
      "awit": 5761,
      " karakter": 5762,
      "ewati": 5763,
      " telepon": 5764,
      "/HO": 5765,
      "SR": 5766,
      "sial": 5767,
      " SO": 5768,
      " Sun": 5769,
      " liar": 5770,
      "etahuan": 5771,
      " Rud": 5772,
      "-J": 5773,
      "PG": 5774,
      "eportasi": 5775,
      " Fin": 5776,
      " Film": 5777,
      "tris": 5778,
      " penerima": 5779,
      "Langkah": 5780,
      "der": 5781,
      "se": 5782,
      "eboh": 5783,
      " perund": 5784,
      " Dik": 5785,
      " Alex": 5786,
      " tentunya": 5787,
      " Thohir": 5788,
      " Parlemen": 5789,
      " optimistis": 5790,
      " Italia": 5791,
      "tidak": 5792,
      " duduk": 5793,
      " mon": 5794,
      " pad": 5795,
      " dialami": 5796,
      " Rus": 5797,
      " Hidup": 5798,
      " Fer": 5799,
      "antian": 5800,
      " Korban": 5801,
      "Penj": 5802,
      "erse": 5803,
      "/k": 5804,
      "de": 5805,
      " Dh": 5806,
      " Perlindungan": 5807,
      "/jm": 5808,
      "ver": 5809,
      "utkan": 5810,
      " keuntungan": 5811,
      " RT": 5812,
      " Ri": 5813,
      " Layanan": 5814,
      " gula": 5815,
      " Indra": 5816,
      " berkat": 5817,
      " elektronik": 5818,
      " SDM": 5819,
      " berkaitan": 5820,
      "Pern": 5821,
      "asana": 5822,
      " penipuan": 5823,
      "epak": 5824,
      "endi": 5825,
      " pola": 5826,
      "Apalagi": 5827,
      " Supri": 5828,
      "unyi": 5829,
      " Perhubungan": 5830,
      " suku": 5831,
      " Sol": 5832,
      "ect": 5833,
      " evakuasi": 5834,
      " menyusul": 5835,
      " prestasi": 5836,
      "enggelam": 5837,
      "UN": 5838,
      "mil": 5839,
      "ariah": 5840,
      "edah": 5841,
      " sekadar": 5842,
      " perbuatan": 5843,
      " Eksekutif": 5844,
      "...": 5845,
      "Dis": 5846,
      "dian": 5847,
      "ke": 5848,
      "ago": 5849,
      " merugikan": 5850,
      " pemas": 5851,
      " Perj": 5852,
      "yarakatan": 5853,
      " modal": 5854,
      "ID": 5855,
      "Padahal": 5856,
      "fat": 5857,
      "hub": 5858,
      "pl": 5859,
      " kotak": 5860,
      " Kol": 5861,
      " mengangkat": 5862,
      " Jamb": 5863,
      " penampilan": 5864,
      " Wak": 5865,
      " pengendara": 5866,
      " minum": 5867,
      "omba": 5868,
      " unggulan": 5869,
      "Pertama": 5870,
      " Biak": 5871,
      "RS": 5872,
      " kopi": 5873,
      " keunggulan": 5874,
      " pensi": 5875,
      "enteng": 5876,
      "anggulangan": 5877,
      "144": 5878,
      "umuman": 5879,
      " ditutup": 5880,
      " Fakultas": 5881,
      " rupiah": 5882,
      " pikir": 5883,
      "aper": 5884,
      "apitu": 5885,
      " Suara": 5886,
      " Kas": 5887,
      "ekad": 5888,
      " mengancam": 5889,
      " peredaran": 5890,
      "aba": 5891,
      " Hadi": 5892,
      " pemenang": 5893,
      " cedera": 5894,
      " menggambarkan": 5895,
      " Marquez": 5896,
      " Terp": 5897,
      "isma": 5898,
      "izinkan": 5899,
      " Bengkulu": 5900,
      "/B": 5901,
      "lat": 5902,
      " darat": 5903,
      " top": 5904,
      "apus": 5905,
      " Rom": 5906,
      "age": 5907,
      " daripada": 5908,
      "uangkan": 5909,
      " kekalahan": 5910,
      " kekurangan": 5911,
      " awalnya": 5912,
      " Balik": 5913,
      " momentum": 5914,
      " Pengawas": 5915,
      " diplomat": 5916,
      "Harga": 5917,
      "do": 5918,
      " parkir": 5919,
      "ebon": 5920,
      "itisi": 5921,
      " Med": 5922,
      "roses": 5923,
      " Narkoba": 5924,
      " cukai": 5925,
      "ebihan": 5926,
      " diserahkan": 5927,
      "hanistan": 5928,
      " menyelenggarakan": 5929,
      " peneliti": 5930,
      "istribusi": 5931,
      " gaya": 5932,
      "Laporan": 5933,
      " mir": 5934,
      "oner": 5935,
      "idu": 5936,
      " Cina": 5937,
      "alahgunaan": 5938,
      "onsel": 5939,
      "ATO": 5940,
      "erlakukan": 5941,
      "LA": 5942,
      "sos": 5943,
      " suhu": 5944,
      " tajam": 5945,
      " Wayan": 5946,
      " wajah": 5947,
      "198": 5948,
      "imbang": 5949,
      " mental": 5950,
      " mengawal": 5951,
      " Championship": 5952,
      " mur": 5953,
      " tur": 5954,
      "gacara": 5955,
      " BKN": 5956,
      " unsur": 5957,
      "udukan": 5958,
      " memerintah": 5959,
      " melaju": 5960,
      "andia": 5961,
      "ugat": 5962,
      "antisipasi": 5963,
      " dimaksud": 5964,
      "-langkah": 5965,
      " kreatif": 5966,
      " Cirebon": 5967,
      "ES": 5968,
      "aming": 5969,
      " Memb": 5970,
      " menged": 5971,
      " kemiskinan": 5972,
      " Produk": 5973,
      "uliah": 5974,
      " Demak": 5975,
      " murah": 5976,
      " tenang": 5977,
      " Bencana": 5978,
      " Maj": 5979,
      " disapa": 5980,
      " Berb": 5981,
      " berpartisipasi": 5982,
      " Dipta": 5983,
      "Mar": 5984,
      "ftar": 5985,
      " menindak": 5986,
      "esh": 5987,
      " Tidak": 5988,
      " Global": 5989,
      " pembebasan": 5990,
      "bankan": 5991,
      "jadikan": 5992,
      "197": 5993,
      " sekitarnya": 5994,
      " penerapan": 5995,
      " sarana": 5996,
      " ac": 5997,
      "Hingga": 5998,
      "jogja": 5999,
      " Pand": 6000,
      "ontr": 6001,
      " KAI": 6002,
      " terletak": 6003,
      " terkena": 6004,
      "lantas": 6005,
      " simp": 6006,
      " kenc": 6007,
      " lantas": 6008,
      " Av": 6009,
      " Media": 6010,
      " DE": 6011,
      " Honda": 6012,
      " Hodak": 6013,
      " sekutu": 6014,
      " bersangkutan": 6015,
      " Andr": 6016,
      "Pilkada": 6017,
      " nya": 6018,
      "Bea": 6019,
      "Mil": 6020,
      " kaya": 6021,
      " menu": 6022,
      " KH": 6023,
      " indiv": 6024,
      " peman": 6025,
      " kesalahan": 6026,
      "ancurkan": 6027,
      " didapat": 6028,
      " independen": 6029,
      " Ade": 6030,
      " pakaian": 6031,
      " utang": 6032,
      " mempertimbangkan": 6033,
      " suporter": 6034,
      "tiba": 6035,
      " dikeluarkan": 6036,
      " Afghanistan": 6037,
      " sepenuhnya": 6038,
      " es": 6039,
      "Sat": 6040,
      " meninjau": 6041,
      " Kari": 6042,
      " berulang": 6043,
      " Dim": 6044,
      "okter": 6045,
      " Pramono": 6046,
      " hektare": 6047,
      " Bisa": 6048,
      " mengapa": 6049,
      " hid": 6050,
      " sepakat": 6051,
      " respon": 6052,
      "SIS": 6053,
      " Mahasiswa": 6054,
      "etail": 6055,
      " pulau": 6056,
      " kandungan": 6057,
      " Awards": 6058,
      "ristek": 6059,
      "-tiba": 6060,
      "jang": 6061,
      "no": 6062,
      "tatus": 6063,
      " simbol": 6064,
      "unung": 6065,
      " Op": 6066,
      "estik": 6067,
      " dimiliki": 6068,
      "Man": 6069,
      "bum": 6070,
      " buatan": 6071,
      " Pasi": 6072,
      " Sig": 6073,
      " bersaing": 6074,
      " asli": 6075,
      " kesiapan": 6076,
      " solid": 6077,
      " ST": 6078,
      "umni": 6079,
      " pencegahan": 6080,
      "Sekretaris": 6081,
      " Abdullah": 6082,
      " Kongres": 6083,
      " Manager": 6084,
      "CE": 6085,
      "so": 6086,
      " menyaksikan": 6087,
      " mendalam": 6088,
      " prosedur": 6089,
      "ogan": 6090,
      " kebebasan": 6091,
      "turut": 6092,
      "ight": 6093,
      "izi": 6094,
      " demonstr": 6095,
      " Sultan": 6096,
      " aspirasi": 6097,
      "Sehingga": 6098,
      "BRI": 6099,
      "FA": 6100,
      "UI": 6101,
      "ker": 6102,
      " del": 6103,
      "alatan": 6104,
      " bangga": 6105,
      " hiburan": 6106,
      " Tas": 6107,
      "okoh": 6108,
      "andy": 6109,
      " Indah": 6110,
      " Kebudayaan": 6111,
      "encanakan": 6112,
      " artis": 6113,
      "-N": 6114,
      "Ek": 6115,
      "KD": 6116,
      "Tiga": 6117,
      "ais": 6118,
      " panggilan": 6119,
      " sim": 6120,
      " tidur": 6121,
      " menembak": 6122,
      "sih": 6123,
      " Kus": 6124,
      "itamin": 6125,
      " Liv": 6126,
      "ajurit": 6127,
      " pencapaian": 6128,
      " bukanlah": 6129,
      " parpol": 6130,
      " Gunawan": 6131,
      "itraan": 6132,
      "lihatkan": 6133,
      " Ungkap": 6134,
      "99": 6135,
      "MA": 6136,
      " staf": 6137,
      " kamu": 6138,
      "adaran": 6139,
      " Moskow": 6140,
      " red": 6141,
      " mewakili": 6142,
      " Patra": 6143,
      "yukur": 6144,
      "alas": 6145,
      "amad": 6146,
      " Bur": 6147,
      " Makan": 6148,
      " Tewas": 6149,
      " ID": 6150,
      " garis": 6151,
      " Yayasan": 6152,
      " dikonfirmasi": 6153,
      " terluka": 6154,
      " khas": 6155,
      " transisi": 6156,
      "Prabowo": 6157,
      " normal": 6158,
      "endikbudristek": 6159,
      "onny": 6160,
      " Bumi": 6161,
      " mengarah": 6162,
      "204": 6163,
      " Nana": 6164,
      " membela": 6165,
      " pelantikan": 6166,
      " suasana": 6167,
      "-hal": 6168,
      " imbang": 6169,
      " rute": 6170,
      "WA": 6171,
      "qbal": 6172,
      "yamanan": 6173,
      " doa": 6174,
      " div": 6175,
      " produsen": 6176,
      "rafi": 6177,
      " pembukaan": 6178,
      " Yong": 6179,
      " penyalahgunaan": 6180,
      " memperlihatkan": 6181,
      "umpah": 6182,
      " Aman": 6183,
      " belanja": 6184,
      " transformasi": 6185,
      "Komisi": 6186,
      "Orang": 6187,
      " jurnalis": 6188,
      " memantau": 6189,
      " CC": 6190,
      " web": 6191,
      " memperbaiki": 6192,
      " terbar": 6193,
      "ilaian": 6194,
      "Sebagian": 6195,
      " Pengembangan": 6196,
      "Proses": 6197,
      " Kapolda": 6198,
      " bekas": 6199,
      "kiri": 6200,
      "mart": 6201,
      "ool": 6202,
      " parah": 6203,
      "alasi": 6204,
      " tutup": 6205,
      "unkan": 6206,
      "isinya": 6207,
      "abi": 6208,
      "rop": 6209,
      "150": 6210,
      " berpend": 6211,
      " penghitungan": 6212,
      " Keluarga": 6213,
      " Brasil": 6214,
      "eklaim": 6215,
      "Kel": 6216,
      " pilih": 6217,
      "aktif": 6218,
      "tag": 6219,
      " penembakan": 6220,
      " pendekatan": 6221,
      " sepuluh": 6222,
      " kompetensi": 6223,
      "okerto": 6224,
      "oper": 6225,
      "ria": 6226,
      " menandatangani": 6227,
      " San": 6228,
      " Sis": 6229,
      " DW": 6230,
      " penutup": 6231,
      " Cak": 6232,
      " keter": 6233,
      "ensitas": 6234,
      "Pemkot": 6235,
      " dihubungi": 6236,
      " Satuan": 6237,
      " miliknya": 6238,
      "yb": 6239,
      " singkat": 6240,
      "allah": 6241,
      " kandang": 6242,
      "adari": 6243,
      " Pon": 6244,
      "uto": 6245,
      " BN": 6246,
      " Del": 6247,
      " Cib": 6248,
      "engketa": 6249,
      " Grand": 6250,
      " ramalan": 6251,
      "\"Untuk": 6252,
      "DA": 6253,
      "elih": 6254,
      " lip": 6255,
      "anjangan": 6256,
      "igasi": 6257,
      " Meny": 6258,
      "Terkait": 6259,
      " Aparatur": 6260,
      "va": 6261,
      "erus": 6262,
      "ahap": 6263,
      " binaan": 6264,
      "kanan": 6265,
      " mengeklaim": 6266,
      " Rez": 6267,
      "ental": 6268,
      "obi": 6269,
      " serangkaian": 6270,
      " diprediksi": 6271,
      "imbah": 6272,
      " Ters": 6273,
      " rekor": 6274,
      " perbedaan": 6275,
      " medali": 6276,
      " populer": 6277,
      "Pernyataan": 6278,
      "Pes": 6279,
      "mer": 6280,
      "iness": 6281,
      " dijadikan": 6282,
      " Puncak": 6283,
      "olik": 6284,
      "ukiman": 6285,
      " Wib": 6286,
      " membuktikan": 6287,
      " menyalurkan": 6288,
      " Amin": 6289,
      "vin": 6290,
      "akkan": 6291,
      " sembako": 6292,
      " kabinet": 6293,
      " teb": 6294,
      " Purn": 6295,
      " tergabung": 6296,
      " Banjar": 6297,
      " mengungsi": 6298,
      " merujuk": 6299,
      "trik": 6300,
      " beban": 6301,
      " berwarna": 6302,
      "aro": 6303,
      "alo": 6304,
      " KA": 6305,
      "uro": 6306,
      " Mb": 6307,
      " Muk": 6308,
      "olahan": 6309,
      " cabang": 6310,
      " sayap": 6311,
      " terduga": 6312,
      " internet": 6313,
      "encanaan": 6314,
      " Kanada": 6315,
      " pembelian": 6316,
      " ANTARA": 6317,
      "-L": 6318,
      "jur": 6319,
      " sapi": 6320,
      " peralatan": 6321,
      "ukkan": 6322,
      " Log": 6323,
      " fase": 6324,
      " adik": 6325,
      "osikan": 6326,
      " subsidi": 6327,
      "\".": 6328,
      "GM": 6329,
      " panggung": 6330,
      " temuan": 6331,
      " Soal": 6332,
      " Ky": 6333,
      " Ida": 6334,
      " konstitusi": 6335,
      "ico": 6336,
      "even": 6337,
      " tanaman": 6338,
      " Satpol": 6339,
      "-nilai": 6340,
      " imbuhnya": 6341,
      " Mohammad": 6342,
      "fasilitasi": 6343,
      " menga": 6344,
      "ilaku": 6345,
      " Kud": 6346,
      " Bantuan": 6347,
      " larangan": 6348,
      "etap": 6349,
      " mengkl": 6350,
      " Real": 6351,
      " persa": 6352,
      " DPC": 6353,
      " Pasangan": 6354,
      " dijalan": 6355,
      "Alhamdulillah": 6356,
      " Super": 6357,
      " pembicaraan": 6358,
      "PL": 6359,
      "bol": 6360,
      " bila": 6361,
      "ikiran": 6362,
      "iss": 6363,
      " Rach": 6364,
      " Nug": 6365,
      " menjalin": 6366,
      " cuma": 6367,
      " Perusahaan": 6368,
      " bermula": 6369,
      " RSUD": 6370,
      " Kristi": 6371,
      "400": 6372,
      "bil": 6373,
      "aras": 6374,
      " kanker": 6375,
      "ading": 6376,
      " Kampanye": 6377,
      " term": 6378,
      "abung": 6379,
      "abarkan": 6380,
      "ajari": 6381,
      "endam": 6382,
      " Vir": 6383,
      " bertambah": 6384,
      "ift": 6385,
      " ayat": 6386,
      " tenggelam": 6387,
      " Pac": 6388,
      "urusan": 6389,
      " Ruang": 6390,
      " ch": 6391,
      " pelabuhan": 6392,
      "isasikan": 6393,
      " Stasiun": 6394,
      " kenyamanan": 6395,
      " SMP": 6396,
      " kencang": 6397,
      "dik": 6398,
      "panjang": 6399,
      " Bud": 6400,
      "omas": 6401,
      " memanggil": 6402,
      " melewati": 6403,
      " Off": 6404,
      " menceritakan": 6405,
      " asuransi": 6406,
      "lien": 6407,
      " Manajemen": 6408,
      " perguruan": 6409,
      "\"Dengan": 6410,
      "Sur": 6411,
      "ith": 6412,
      " layar": 6413,
      "abet": 6414,
      " IV": 6415,
      " wujud": 6416,
      " wawancara": 6417,
      " berkoordinasi": 6418,
      " menggantikan": 6419,
      " keberhasilan": 6420,
      " diterapkan": 6421,
      " keterlibatan": 6422,
      " umur": 6423,
      " Mac": 6424,
      " ketahanan": 6425,
      " distribusi": 6426,
      "impa": 6427,
      " terbakar": 6428,
      " kecepatan": 6429,
      " ditud": 6430,
      "-T": 6431,
      "aringan": 6432,
      " bo": 6433,
      " AL": 6434,
      " performa": 6435,
      " Had": 6436,
      " Hong": 6437,
      "ompet": 6438,
      " menghormati": 6439,
      "omotif": 6440,
      " Series": 6441,
      " Institute": 6442,
      "\"D": 6443,
      "Anies": 6444,
      "cel": 6445,
      "rad": 6446,
      "zani": 6447,
      " Sap": 6448,
      " BA": 6449,
      " kedi": 6450,
      " hadiah": 6451,
      " inov": 6452,
      " WNA": 6453,
      " NATO": 6454,
      "eberkan": 6455,
      "Perempuan": 6456,
      " kedatangan": 6457,
      "romosikan": 6458,
      " individu": 6459,
      " daging": 6460,
      " dita": 6461,
      " Sk": 6462,
      " roda": 6463,
      " pengec": 6464,
      " pengetahuan": 6465,
      " dilihat": 6466,
      " pertempuran": 6467,
      " dipilih": 6468,
      " sengaja": 6469,
      " Zoni": 6470,
      " Sekjen": 6471,
      " menurutnya": 6472,
      " saham": 6473,
      " domestik": 6474,
      "lanjuti": 6475,
      " kediaman": 6476,
      " otor": 6477,
      "Hanya": 6478,
      "ster": 6479,
      " pindah": 6480,
      " lolos": 6481,
      " institusi": 6482,
      " regional": 6483,
      " Listrik": 6484,
      "anjikan": 6485,
      "egawaian": 6486,
      " sedikitnya": 6487,
      "esuaikan": 6488,
      "Trump": 6489,
      "apitulasi": 6490,
      " Pegawai": 6491,
      "its": 6492,
      " memben": 6493,
      " ditanya": 6494,
      " rekaman": 6495,
      " partisipasi": 6496,
      "inci": 6497,
      "Kasat": 6498,
      "PH": 6499,
      " def": 6500,
      " sh": 6501,
      "emat": 6502,
      " Situ": 6503,
      " Ki": 6504,
      " Mon": 6505,
      " Ud": 6506,
      "250": 6507,
      "ombok": 6508,
      " pakai": 6509,
      " Antara": 6510,
      " silam": 6511,
      "estigasi": 6512,
      "linken": 6513,
      " pinj": 6514,
      "info": 6515,
      " kub": 6516,
      "adis": 6517,
      " PK": 6518,
      " Soc": 6519,
      " bergizi": 6520,
      "arifikasi": 6521,
      " keinginan": 6522,
      "ide": 6523,
      " penindakan": 6524,
      "ambu": 6525,
      "yaratan": 6526,
      " kesadaran": 6527,
      " penggemar": 6528,
      "encananya": 6529,
      " Batam": 6530,
      " kosong": 6531,
      "/rs": 6532,
      "FI": 6533,
      "Jadwal": 6534,
      "Tahun": 6535,
      "eum": 6536,
      "eret": 6537,
      " sampaikan": 6538,
      "alk": 6539,
      " diangkat": 6540,
      " Iqbal": 6541,
      "ajer": 6542,
      " For": 6543,
      "ambatan": 6544,
      "integrasi": 6545,
      " setara": 6546,
      " diluncurkan": 6547,
      " pencalon": 6548,
      " putr": 6549,
      "Keduanya": 6550,
      " Praset": 6551,
      "-w": 6552,
      "Kan": 6553,
      "yong": 6554,
      " pupuk": 6555,
      " Sr": 6556,
      " Siti": 6557,
      "adaian": 6558,
      " jantung": 6559,
      " contoh": 6560,
      " Fad": 6561,
      "ost": 6562,
      " setengah": 6563,
      " ketegangan": 6564,
      "ontak": 6565,
      " kompleks": 6566,
      "ombongan": 6567,
      " petir": 6568,
      " Energi": 6569,
      " unggahan": 6570,
      " prakiraan": 6571,
      " event": 6572,
      " usulan": 6573,
      " John": 6574,
      "\"Ada": 6575,
      "?\"": 6576,
      "TN": 6577,
      " dew": 6578,
      " berani": 6579,
      " seiring": 6580,
      " Honorer": 6581,
      "entral": 6582,
      " pemer": 6583,
      " cerita": 6584,
      "alaupun": 6585,
      "asihat": 6586,
      " versi": 6587,
      " samping": 6588,
      " kondusif": 6589,
      " elemen": 6590,
      " Reuters": 6591,
      "Bawaslu": 6592,
      "ereb": 6593,
      " majelis": 6594,
      "uthi": 6595,
      "awati": 6596,
      "egasi": 6597,
      " menyimp": 6598,
      " Presi": 6599,
      "osan": 6600,
      "inansial": 6601,
      " berdiri": 6602,
      "MIN": 6603,
      "App": 6604,
      "antauan": 6605,
      " Paus": 6606,
      " Fraksi": 6607,
      " bandara": 6608,
      "ening": 6609,
      " detik": 6610,
      " Pegi": 6611,
      "onya": 6612,
      "isaris": 6613,
      " Top": 6614,
      " pengaj": 6615,
      "ianjur": 6616,
      " Lombok": 6617,
      " berkata": 6618,
      "ternatif": 6619,
      " Muhaimin": 6620,
      "faatan": 6621,
      "Kelompok": 6622,
      " malah": 6623,
      " diumumkan": 6624,
      " melarikan": 6625,
      " pengadaan": 6626,
      " Ketum": 6627,
      "acakan": 6628,
      "Persi": 6629,
      " Pertama": 6630,
      " PSM": 6631,
      "oskop": 6632,
      " dikelola": 6633,
      " minimal": 6634,
      "ammadi": 6635,
      "bi": 6636,
      " Ken": 6637,
      " lantai": 6638,
      " mengantisipasi": 6639,
      "iansyah": 6640,
      " membunuh": 6641,
      " Far": 6642,
      " terbang": 6643,
      " kredit": 6644,
      " jaminan": 6645,
      " baterai": 6646,
      "Artinya": 6647,
      " Blitar": 6648,
      " negatif": 6649,
      " metode": 6650,
      " mekan": 6651,
      " Studi": 6652,
      " Bulan": 6653,
      " Dib": 6654,
      "otongan": 6655,
      " ditunjuk": 6656,
      " takut": 6657,
      " Pelayanan": 6658,
      "Apakah": 6659,
      "Timnas": 6660,
      "enom": 6661,
      " rah": 6662,
      "oket": 6663,
      "indahkan": 6664,
      " mempercepat": 6665,
      "Anak": 6666,
      " Satgas": 6667,
      "ustin": 6668,
      " intelijen": 6669,
      "uliner": 6670,
      "sari": 6671,
      " Tindak": 6672,
      " Ria": 6673,
      " Hasil": 6674,
      " Cianjur": 6675,
      "isihan": 6676,
      " vitamin": 6677,
      "196": 6678,
      "entian": 6679,
      " Madrid": 6680,
      "utrisi": 6681,
      " penegakan": 6682,
      "atnya": 6683,
      "als": 6684,
      " terungkap": 6685,
      " Bin": 6686,
      "uskan": 6687,
      " AM": 6688,
      " rawan": 6689,
      " Gor": 6690,
      " mendampingi": 6691,
      " berstatus": 6692,
      " aliran": 6693,
      "-barang": 6694,
      " dekl": 6695,
      "ague": 6696,
      " bersifat": 6697,
      " intensitas": 6698,
      " berfokus": 6699,
      "EMB": 6700,
      " Kudus": 6701,
      " dewasa": 6702,
      "tengah": 6703,
      " dolar": 6704,
      " Sec": 6705,
      "eskrim": 6706,
      " pengakuan": 6707,
      "daul": 6708,
      "Setiap": 6709,
      "-hak": 6710,
      " urusan": 6711,
      " hadapan": 6712,
      "78": 6713,
      "Kes": 6714,
      "rok": 6715,
      " Bapak": 6716,
      "omen": 6717,
      " Perekonomian": 6718,
      " dilengkapi": 6719,
      "ife": 6720,
      " terpaksa": 6721,
      "Pemkab": 6722,
      " AFP": 6723,
      "Pihaknya": 6724,
      " PLN": 6725,
      " mayat": 6726,
      "emas": 6727,
      " belah": 6728,
      " TV": 6729,
      " pemul": 6730,
      " bersyukur": 6731,
      " Allah": 6732,
      "ersih": 6733,
      "arnop": 6734,
      " penjaga": 6735,
      " penjelasan": 6736,
      " Fransis": 6737,
      " Corporate": 6738,
      "agamaan": 6739,
      "Kini": 6740,
      "wira": 6741,
      " bij": 6742,
      "adak": 6743,
      " tersi": 6744,
      " menginginkan": 6745,
      "abungan": 6746,
      " memad": 6747,
      " Wisata": 6748,
      " USD": 6749,
      " gudang": 6750,
      " Ot": 6751,
      "umbang": 6752,
      "ersangka": 6753,
      " kritik": 6754,
      " Reserse": 6755,
      " Gusti": 6756,
      "SDM": 6757,
      " Sebanyak": 6758,
      " teroris": 6759,
      "iaran": 6760,
      "enuhi": 6761,
      "adangan": 6762,
      " Sed": 6763,
      " Kembali": 6764,
      "imia": 6765,
      " Data": 6766,
      " Wong": 6767,
      "ancangan": 6768,
      "Perusahaan": 6769,
      "ution": 6770,
      " televisi": 6771,
      " memerintahkan": 6772,
      "HR": 6773,
      "The": 6774,
      " de": 6775,
      " mar": 6776,
      " pingg": 6777,
      "ado": 6778,
      "uduki": 6779,
      " FI": 6780,
      " fr": 6781,
      " komod": 6782,
      " Persik": 6783,
      "ocok": 6784,
      " optimal": 6785,
      " patroli": 6786,
      " mengusulkan": 6787,
      " Perjanjian": 6788,
      "%.\n": 6789,
      " suka": 6790,
      " sopir": 6791,
      "asyarakatan": 6792,
      "unitas": 6793,
      "eleng": 6794,
      " Riset": 6795,
      "ipta": 6796,
      " berkunjung": 6797,
      " stabilitas": 6798,
      "Akibat": 6799,
      " Garut": 6800,
      "ajiban": 6801,
      "-RB": 6802,
      " deklarasi": 6803,
      "Cuaca": 6804,
      "erm": 6805,
      "arahan": 6806,
      " pidato": 6807,
      " ponsel": 6808,
      "aluran": 6809,
      " diungkapkan": 6810,
      " menaik": 6811,
      " lini": 6812,
      " De": 6813,
      "alif": 6814,
      " prop": 6815,
      " akbar": 6816,
      " pandangan": 6817,
      " klien": 6818,
      " mengu": 6819,
      " jejak": 6820,
      " Raffi": 6821,
      "uwangi": 6822,
      " Kapolri": 6823,
      "POK": 6824,
      "EC": 6825,
      "Kec": 6826,
      "Rek": 6827,
      " be": 6828,
      " Sipil": 6829,
      " Beri": 6830,
      " berawal": 6831,
      " lemb": 6832,
      " Mur": 6833,
      " Dani": 6834,
      "erifikasi": 6835,
      "isten": 6836,
      "oyo": 6837,
      " penyelund": 6838,
      "-hati": 6839,
      " inovatif": 6840,
      "Film": 6841,
      "RC": 6842,
      "vo": 6843,
      " kira": 6844,
      " menandai": 6845,
      " Kart": 6846,
      " limbah": 6847,
      " Tes": 6848,
      "ayangk": 6849,
      "angkis": 6850,
      " Perang": 6851,
      "ografi": 6852,
      " depannya": 6853,
      " dihadapi": 6854,
      "arep": 6855,
      "ahirkan": 6856,
      " diatur": 6857,
      "esaran": 6858,
      " Bet": 6859,
      " Raja": 6860,
      " unik": 6861,
      "ander": 6862,
      " CO": 6863,
      " menyita": 6864,
      "ubis": 6865,
      "eksiko": 6866,
      "Penghargaan": 6867,
      " PSBS": 6868,
      " angkatan": 6869,
      " sinergi": 6870,
      " menikah": 6871,
      " kuota": 6872,
      " Fauzi": 6873,
      " DEPOK": 6874,
      " am": 6875,
      "Partai": 6876,
      "inang": 6877,
      "asad": 6878,
      "amer": 6879,
      " Staf": 6880,
      "eteksi": 6881,
      " Dukung": 6882,
      " univ": 6883,
      " ng": 6884,
      " Surya": 6885,
      " Market": 6886,
      " pesta": 6887,
      " Maul": 6888,
      "Tube": 6889,
      "ammadiyah": 6890,
      "arnoputri": 6891,
      "WF": 6892,
      "residen": 6893,
      "zal": 6894,
      " kayu": 6895,
      " Saf": 6896,
      " Made": 6897,
      " TKP": 6898,
      "ular": 6899,
      " forum": 6900,
      " finansial": 6901,
      " setahun": 6902,
      " menghancurkan": 6903,
      " Kepegawaian": 6904,
      " dipert": 6905,
      " mempromosikan": 6906,
      "engaruh": 6907,
      " legislatif": 6908,
      "Maka": 6909,
      "hy": 6910,
      " dosen": 6911,
      " dijual": 6912,
      "ungkapan": 6913,
      " disabilitas": 6914,
      "194": 6915,
      " Untuk": 6916,
      "-produk": 6917,
      " memproduksi": 6918,
      " tampaknya": 6919,
      " brand": 6920,
      "Kondisi": 6921,
      " bet": 6922,
      "tuju": 6923,
      " Saat": 6924,
      " Bak": 6925,
      " mengisi": 6926,
      "abur": 6927,
      " jual": 6928,
      "antam": 6929,
      " Lebih": 6930,
      " Penanggulangan": 6931,
      "ondo": 6932,
      " skala": 6933,
      " Nikita": 6934,
      "TI": 6935,
      "US": 6936,
      "yal": 6937,
      "atatkan": 6938,
      " menempatkan": 6939,
      "ikor": 6940,
      "endalian": 6941,
      " mendek": 6942,
      " persyaratan": 6943,
      " Demokrasi": 6944,
      " Kapal": 6945,
      " penegak": 6946,
      " Jambi": 6947,
      "pura": 6948,
      " kas": 6949,
      " kam": 6950,
      " bul": 6951,
      " Satu": 6952,
      " latar": 6953,
      " penilaian": 6954,
      " Hind": 6955,
      " menjamin": 6956,
      " Eko": 6957,
      " Olah": 6958,
      " All": 6959,
      " hasilnya": 6960,
      " menyelamatkan": 6961,
      "Pengamat": 6962,
      " Banyuwangi": 6963,
      " Soekarno": 6964,
      " Sejumlah": 6965,
      " Pegadaian": 6966,
      "Militer": 6967,
      "Bagaimana": 6968,
      "Begini": 6969,
      "Mulai": 6970,
      "juangkan": 6971,
      " setuju": 6972,
      " Harga": 6973,
      " menyadari": 6974,
      "angkal": 6975,
      " Ob": 6976,
      " Api": 6977,
      " Pengel": 6978,
      " off": 6979,
      " CCTV": 6980,
      "ss": 6981,
      "aduan": 6982,
      " Pariwisata": 6983,
      "apar": 6984,
      "etakan": 6985,
      " Matar": 6986,
      " hel": 6987,
      " raya": 6988,
      " Hel": 6989,
      " melintas": 6990,
      " Lalu": 6991,
      "ingginya": 6992,
      " semacam": 6993,
      "umpa": 6994,
      " kriminal": 6995,
      " kontestasi": 6996,
      " mewah": 6997,
      "Aksi": 6998,
      " kewenangan": 6999,
      "Mah": 7000,
      "pto": 7001,
      "wono": 7002,
      "alak": 7003,
      " butuh": 7004,
      "sion": 7005,
      " Tj": 7006,
      " Imin": 7007,
      " Day": 7008,
      " jembatan": 7009,
      " pengemudi": 7010,
      " Flor": 7011,
      "ecehan": 7012,
      " Chris": 7013,
      " stunting": 7014,
      "Informasi": 7015,
      "\"Sem": 7016,
      " meningkatnya": 7017,
      "ordania": 7018,
      " Mirzani": 7019,
      "/S": 7020,
      "65": 7021,
      "CO": 7022,
      " kapan": 7023,
      "esaian": 7024,
      " Bu": 7025,
      " Ach": 7026,
      " Tip": 7027,
      "egan": 7028,
      " melainkan": 7029,
      " Las": 7030,
      " ge": 7031,
      " pertimbangan": 7032,
      "opol": 7033,
      " asasi": 7034,
      " Vol": 7035,
      " pandemi": 7036,
      "hats": 7037,
      " Houthi": 7038,
      "sk": 7039,
      " sor": 7040,
      "aham": 7041,
      " menulis": 7042,
      " mengad": 7043,
      " Alam": 7044,
      " stasiun": 7045,
      "Anda": 7046,
      " Muhammadiyah": 7047,
      " Serentak": 7048,
      "ggak": 7049,
      " Bhayangk": 7050,
      " Soekarnoputri": 7051,
      "hin": 7052,
      "emuka": 7053,
      " diman": 7054,
      "aparkan": 7055,
      " Bisnis": 7056,
      " Bayu": 7057,
      " penguatan": 7058,
      " Perwakilan": 7059,
      "asannya": 7060,
      " karbon": 7061,
      "udahkan": 7062,
      "enggal": 7063,
      " kekayaan": 7064,
      " out": 7065,
      "erjakan": 7066,
      " integritas": 7067,
      "enderung": 7068,
      "ahlawan": 7069,
      "Nah": 7070,
      "Ratusan": 7071,
      "dent": 7072,
      "oet": 7073,
      " Park": 7074,
      " Jak": 7075,
      "ullah": 7076,
      " kemudahan": 7077,
      "angsaan": 7078,
      "arganya": 7079,
      "\"Kita": 7080,
      " rekapitulasi": 7081,
      " saluran": 7082,
      " santri": 7083,
      "endalikan": 7084,
      " er": 7085,
      "rus": 7086,
      " Publik": 7087,
      " Pondok": 7088,
      "onen": 7089,
      " Jat": 7090,
      " janji": 7091,
      " Ci": 7092,
      "ampingan": 7093,
      "aliban": 7094,
      " alternatif": 7095,
      " memperkirakan": 7096,
      "eliti": 7097,
      " mengawasi": 7098,
      "600": 7099,
      "Belum": 7100,
      "Sk": 7101,
      "TO": 7102,
      "las": 7103,
      "lek": 7104,
      "anaan": 7105,
      "elens": 7106,
      " PAL": 7107,
      " Pupuk": 7108,
      "itya": 7109,
      "ume": 7110,
      " mengundang": 7111,
      "epaskan": 7112,
      " bertahun": 7113,
      " dirawat": 7114,
      " Star": 7115,
      " terkenal": 7116,
      " Sport": 7117,
      " Telkom": 7118,
      "800": 7119,
      "AF": 7120,
      "oj": 7121,
      " main": 7122,
      "aring": 7123,
      " ledakan": 7124,
      " mengevakuasi": 7125,
      " Tern": 7126,
      "uhaimin": 7127,
      " merebut": 7128,
      " pembiayaan": 7129,
      "PPPK": 7130,
      " timnas": 7131,
      "erminkan": 7132,
      "BN": 7133,
      "Upaya": 7134,
      "papan": 7135,
      "yaallah": 7136,
      "urasi": 7137,
      "idasi": 7138,
      " riset": 7139,
      " We": 7140,
      " Nag": 7141,
      " dilarang": 7142,
      " kelola": 7143,
      " Ven": 7144,
      " Gerakan": 7145,
      " Sumbar": 7146,
      " Sigit": 7147,
      "Si": 7148,
      "leksi": 7149,
      "mur": 7150,
      "ras": 7151,
      " mengkr": 7152,
      " Rob": 7153,
      " Bert": 7154,
      "PBN": 7155,
      " Kriminal": 7156,
      "evelop": 7157,
      "aliknya": 7158,
      " Intel": 7159,
      " Georg": 7160,
      " komoditas": 7161,
      "Ag": 7162,
      "LI": 7163,
      " sisa": 7164,
      " berapa": 7165,
      "able": 7166,
      "tainya": 7167,
      " sebelah": 7168,
      " cenderung": 7169,
      "ujung": 7170,
      " Vs": 7171,
      "umpulan": 7172,
      "Ins": 7173,
      " Setelah": 7174,
      "andatanganan": 7175,
      "kesmas": 7176,
      " Hartarto": 7177,
      "PJS": 7178,
      " Mataram": 7179,
      "laim": 7180,
      " Semen": 7181,
      "ingya": 7182,
      " Rev": 7183,
      " Relawan": 7184,
      "edahan": 7185,
      " Lintas": 7186,
      "ations": 7187,
      " disambut": 7188,
      " bertindak": 7189,
      " komersi": 7190,
      " skema": 7191,
      " Buleleng": 7192,
      "abiskan": 7193,
      " Balikpapan": 7194,
      " sengketa": 7195,
      " kian": 7196,
      " PPN": 7197,
      " Said": 7198,
      " Jon": 7199,
      "oma": 7200,
      "iro": 7201,
      "edikasi": 7202,
      " Hulu": 7203,
      " gim": 7204,
      " mencerminkan": 7205,
      " pembentukan": 7206,
      " Pelaku": 7207,
      " pencalonan": 7208,
      " Olahraga": 7209,
      "76": 7210,
      "88": 7211,
      "Kabar": 7212,
      " dak": 7213,
      " pesisir": 7214,
      "adik": 7215,
      "apaan": 7216,
      " berman": 7217,
      " lulusan": 7218,
      "ihkan": 7219,
      "eddy": 7220,
      " Cim": 7221,
      "otanya": 7222,
      " bahaya": 7223,
      " massal": 7224,
      " aktor": 7225,
      " kemasan": 7226,
      " dikabarkan": 7227,
      " Vina": 7228,
      " kecurangan": 7229,
      " pesantren": 7230,
      " stabil": 7231,
      " gerimis": 7232,
      "ertiban": 7233,
      " spesial": 7234,
      "Penjabat": 7235,
      "BA": 7236,
      "BH": 7237,
      "aleng": 7238,
      " tayang": 7239,
      " Mic": 7240,
      " Tata": 7241,
      " rob": 7242,
      " Cup": 7243,
      " ganja": 7244,
      " mineral": 7245,
      "ATEN": 7246,
      " imbuh": 7247,
      " SER": 7248,
      " Sugi": 7249,
      " literasi": 7250,
      " KUHP": 7251,
      " kuliah": 7252,
      " Kre": 7253,
      "ike": 7254,
      " Was": 7255,
      " Han": 7256,
      "ampai": 7257,
      "ongg": 7258,
      "egaraan": 7259,
      " ataupun": 7260,
      "estinasi": 7261,
      "gagalkan": 7262,
      " bersiap": 7263,
      " pilpres": 7264,
      "hawatirkan": 7265,
      " Purwakarta": 7266,
      "eklarasikan": 7267,
      " persaingan": 7268,
      "SM": 7269,
      " km": 7270,
      " teh": 7271,
      " bent": 7272,
      " menabrak": 7273,
      " Sut": 7274,
      "ilangkan": 7275,
      " KAB": 7276,
      "utasi": 7277,
      " gizi": 7278,
      " Found": 7279,
      "otaan": 7280,
      " kemerdekaan": 7281,
      " Anas": 7282,
      " pembuatan": 7283,
      " terbanyak": 7284,
      " dipanggil": 7285,
      " League": 7286,
      " Bojan": 7287,
      "iarkan": 7288,
      "ahasan": 7289,
      " Sistem": 7290,
      " AMIN": 7291,
      "aia": 7292,
      " Dil": 7293,
      " jutaan": 7294,
      "awe": 7295,
      " memajukan": 7296,
      " memainkan": 7297,
      " pengobatan": 7298,
      "anggih": 7299,
      "opter": 7300,
      " analis": 7301,
      " menyelidiki": 7302,
      "ansos": 7303,
      " Anggaran": 7304,
      " Director": 7305,
      " Rektor": 7306,
      " Rohingya": 7307,
      "Angka": 7308,
      " SOLO": 7309,
      " Fransiskus": 7310,
      "evelopment": 7311,
      " ayam": 7312,
      "OS": 7313,
      "les": 7314,
      "ilintar": 7315,
      " Teh": 7316,
      "ihal": 7317,
      " memakai": 7318,
      " Ni": 7319,
      " pemudik": 7320,
      "icial": 7321,
      " agen": 7322,
      " Koster": 7323,
      " Katolik": 7324,
      "/kota": 7325,
      "enomena": 7326,
      "BM": 7327,
      " bunuh": 7328,
      " menentang": 7329,
      " Sab": 7330,
      "olakan": 7331,
      " perempat": 7332,
      " Tenaga": 7333,
      " Ronald": 7334,
      "ayung": 7335,
      "ubung": 7336,
      " pemangku": 7337,
      " pembatasan": 7338,
      "untungkan": 7339,
      " Persatuan": 7340,
      "Bukan": 7341,
      " dep": 7342,
      "arya": 7343,
      "atangkan": 7344,
      " kualifikasi": 7345,
      "ikul": 7346,
      " Buk": 7347,
      " Bag": 7348,
      "asif": 7349,
      " Tok": 7350,
      " memfasilitasi": 7351,
      " itulah": 7352,
      "edulian": 7353,
      " Ur": 7354,
      "ujur": 7355,
      " seluas": 7356,
      " prom": 7357,
      "alonkan": 7358,
      " berlaga": 7359,
      " partainya": 7360,
      " Jayapura": 7361,
      " Halilintar": 7362,
      "-Emil": 7363,
      " Lestari": 7364,
      " pemulihan": 7365,
      "elensky": 7366,
      " or": 7367,
      "PDI": 7368,
      "Sudah": 7369,
      "ou": 7370,
      " kuliner": 7371,
      " dievakuasi": 7372,
      "ebarkan": 7373,
      "uktur": 7374,
      " Cel": 7375,
      " penger": 7376,
      " menggandeng": 7377,
      "tifikat": 7378,
      " Pelaksana": 7379,
      "Polri": 7380,
      "padai": 7381,
      " sambungnya": 7382,
      "-program": 7383,
      " pensiun": 7384,
      "EA": 7385,
      "ling": 7386,
      " menemui": 7387,
      " Pekerja": 7388,
      " Regional": 7389,
      " Wat": 7390,
      "andu": 7391,
      " Yordania": 7392,
      " berkas": 7393,
      " terdekat": 7394,
      " Menko": 7395,
      " Moj": 7396,
      " belakangan": 7397,
      " gagasan": 7398,
      " derajat": 7399,
      " Pangarep": 7400,
      " Kristiyanto": 7401,
      "rian": 7402,
      "rana": 7403,
      " medi": 7404,
      " Pengg": 7405,
      " Merd": 7406,
      " habis": 7407,
      " mencatatkan": 7408,
      " mengguyur": 7409,
      "\"Karena": 7410,
      " Arief": 7411,
      "emium": 7412,
      "alengka": 7413,
      "'.\n": 7414,
      "lil": 7415,
      "enial": 7416,
      " denda": 7417,
      " kisah": 7418,
      " AH": 7419,
      " perilaku": 7420,
      "ario": 7421,
      " Iwan": 7422,
      " pengacara": 7423,
      "oksi": 7424,
      "uben": 7425,
      " pemahaman": 7426,
      " sela": 7427,
      " Art": 7428,
      "oyal": 7429,
      " kendala": 7430,
      " mempengaruhi": 7431,
      "olidasi": 7432,
      " bermanfaat": 7433,
      "NAS": 7434,
      "jawab": 7435,
      " dewan": 7436,
      "ateral": 7437,
      " AD": 7438,
      " perahu": 7439,
      " sebaik": 7440,
      "angkitan": 7441,
      "inggo": 7442,
      " mempers": 7443,
      " album": 7444,
      "ealth": 7445,
      "erlukan": 7446,
      " Organisasi": 7447,
      " Ilmu": 7448,
      "UPATEN": 7449,
      " KABUPATEN": 7450,
      "Bank": 7451,
      " PD": 7452,
      "apas": 7453,
      " Kuta": 7454,
      " Mor": 7455,
      " mengonfirmasi": 7456,
      " menguasai": 7457,
      " Tir": 7458,
      "egera": 7459,
      " Hubungan": 7460,
      " Herman": 7461,
      "uban": 7462,
      "intangi": 7463,
      " Oper": 7464,
      " Stef": 7465,
      " Mall": 7466,
      " struktur": 7467,
      "Pertamina": 7468,
      " Pratama": 7469,
      "lima": 7470,
      "vitas": 7471,
      "yl": 7472,
      " bas": 7473,
      " Bikin": 7474,
      "olong": 7475,
      "omod": 7476,
      " Wir": 7477,
      " membatalkan": 7478,
      " ganda": 7479,
      " pengaruh": 7480,
      " pertambangan": 7481,
      "ody": 7482,
      " Yun": 7483,
      " Ammar": 7484,
      "etujuan": 7485,
      " Emil": 7486,
      " Yusuf": 7487,
      " tawuran": 7488,
      "\"R": 7489,
      "SP": 7490,
      "nah": 7491,
      "inja": 7492,
      " bendera": 7493,
      "aptasi": 7494,
      "iker": 7495,
      " Jemb": 7496,
      " memerlukan": 7497,
      " Inf": 7498,
      " nutrisi": 7499,
      " pemak": 7500,
      "ogle": 7501,
      " Keputusan": 7502,
      "asarnas": 7503,
      " terkini": 7504,
      " umumnya": 7505,
      " pemberantasan": 7506,
      " karier": 7507,
      " mengklaim": 7508,
      "Kab": 7509,
      "igi": 7510,
      "meng": 7511,
      " mikro": 7512,
      " Sai": 7513,
      " Kabinet": 7514,
      "ikopter": 7515,
      " Batang": 7516,
      " Meksiko": 7517,
      " Jab": 7518,
      " Juta": 7519,
      " Tul": 7520,
      " memudahkan": 7521,
      "ubsidi": 7522,
      " cel": 7523,
      " pelamar": 7524,
      " pelecehan": 7525,
      "Peristiwa": 7526,
      " diperoleh": 7527,
      " terpisah": 7528,
      "-Muhaimin": 7529,
      " otomotif": 7530,
      " reformasi": 7531,
      " motif": 7532,
      " universi": 7533,
      " anj": 7534,
      "\"\n": 7535,
      "BD": 7536,
      "car": 7537,
      "minya": 7538,
      "wujud": 7539,
      " puas": 7540,
      " sawit": 7541,
      " baku": 7542,
      " Por": 7543,
      "essi": 7544,
      "isar": 7545,
      " terancam": 7546,
      " Ryan": 7547,
      "agar": 7548,
      "roho": 7549,
      " Cabang": 7550,
      " Feb": 7551,
      "daftar": 7552,
      " prajurit": 7553,
      "Perd": 7554,
      "umbu": 7555,
      " Pengurus": 7556,
      " berpikir": 7557,
      " XX": 7558,
      " Kompleks": 7559,
      " implementasi": 7560,
      " pengawas": 7561,
      " Bahlil": 7562,
      " mandiri": 7563,
      " dimanfaatkan": 7564,
      " Merdeka": 7565,
      "fri": 7566,
      " buruh": 7567,
      "ebak": 7568,
      "itif": 7569,
      "usul": 7570,
      " Raih": 7571,
      " Investasi": 7572,
      " Lum": 7573,
      " memperhatikan": 7574,
      "ture": 7575,
      " kritis": 7576,
      "erdasan": 7577,
      " Reformasi": 7578,
      " Wahyu": 7579,
      " Bhayangkara": 7580,
      "enggalek": 7581,
      "\"Di": 7582,
      "TM": 7583,
      "malkan": 7584,
      "onasi": 7585,
      " Bagi": 7586,
      " Tech": 7587,
      "edang": 7588,
      " NTT": 7589,
      " gar": 7590,
      "eberangan": 7591,
      " Istim": 7592,
      " Pemenangan": 7593,
      " Bers": 7594,
      "arapidana": 7595,
      "resif": 7596,
      " Rahmat": 7597,
      "aperadilan": 7598,
      " mekanisme": 7599,
      "RB": 7600,
      "atinya": 7601,
      " tembakan": 7602,
      "apur": 7603,
      " Sama": 7604,
      " Ko": 7605,
      " keagamaan": 7606,
      " Gede": 7607,
      " Lan": 7608,
      "intasan": 7609,
      " ditangani": 7610,
      " vaks": 7611,
      " direktur": 7612,
      "sekusi": 7613,
      " penutupan": 7614,
      "arja": 7615,
      "atuhan": 7616,
      " say": 7617,
      " semp": 7618,
      " kun": 7619,
      " tuk": 7620,
      " beber": 7621,
      " banding": 7622,
      " betul": 7623,
      "ebunan": 7624,
      "olly": 7625,
      "abe": 7626,
      " Rutan": 7627,
      " ruangan": 7628,
      " Fajar": 7629,
      " Perubahan": 7630,
      " Perumahan": 7631,
      " menghubungi": 7632,
      " resminya": 7633,
      "untaskan": 7634,
      " silaturahmi": 7635,
      " memperingati": 7636,
      " efisien": 7637,
      " Habib": 7638,
      " responden": 7639,
      " berpendapat": 7640,
      " otoritas": 7641,
      " pinjaman": 7642,
      "residenan": 7643,
      " Jembrana": 7644,
      " universitas": 7645,
      "jukan": 7646,
      "roni": 7647,
      " psik": 7648,
      " Sidang": 7649,
      "esor": 7650,
      " mengerahkan": 7651,
      " perbankan": 7652,
      " Distrik": 7653,
      " penahanan": 7654,
      " memuji": 7655,
      " Capres": 7656,
      " cerai": 7657,
      " Fre": 7658,
      "rac": 7659,
      " mencuri": 7660,
      " Pemain": 7661,
      " dirasakan": 7662,
      " manis": 7663,
      " konsul": 7664,
      " Pasuruan": 7665,
      " kurban": 7666,
      " modus": 7667,
      " organ": 7668,
      " tepatnya": 7669,
      " populasi": 7670,
      " ayahnya": 7671,
      " Santoso": 7672,
      " beasiswa": 7673,
      " Istimewa": 7674,
      "Negara": 7675,
      "Us": 7676,
      "pel": 7677,
      " bom": 7678,
      " Pec": 7679,
      " Ay": 7680,
      " Hadir": 7681,
      " caleg": 7682,
      "ambo": 7683,
      " menderita": 7684,
      " Os": 7685,
      " pasc": 7686,
      " apapun": 7687,
      " App": 7688,
      " panen": 7689,
      "ention": 7690,
      " enggan": 7691,
      " pergerakan": 7692,
      " Commun": 7693,
      "aftaran": 7694,
      "Terlebih": 7695,
      "bolinggo": 7696,
      "Kend": 7697,
      " pus": 7698,
      " Jaksa": 7699,
      "idi": 7700,
      " penambahan": 7701,
      " membeberkan": 7702,
      " menjatuhkan": 7703,
      " kepedulian": 7704,
      " properti": 7705,
      " festival": 7706,
      "uarakan": 7707,
      "erdayaan": 7708,
      " Bahr": 7709,
      " negaranya": 7710,
      " Udara": 7711,
      "Iran": 7712,
      "kapai": 7713,
      " te": 7714,
      " dialog": 7715,
      " Bor": 7716,
      " berunt": 7717,
      " Madi": 7718,
      " Juru": 7719,
      "203": 7720,
      " rombongan": 7721,
      " Whats": 7722,
      "roversi": 7723,
      " Hingga": 7724,
      " melahirkan": 7725,
      "arankan": 7726,
      "inter": 7727,
      " asuhan": 7728,
      "-besaran": 7729,
      "ondon": 7730,
      " Teluk": 7731,
      " disiapkan": 7732,
      " kewajiban": 7733,
      " Kadin": 7734,
      " Business": 7735,
      " est": 7736,
      "98": 7737,
      "Ah": 7738,
      "Atas": 7739,
      "IC": 7740,
      "Ken": 7741,
      "anaman": 7742,
      " dingin": 7743,
      "esm": 7744,
      " mengembalikan": 7745,
      " kedaul": 7746,
      " Taliban": 7747,
      " Darm": 7748,
      " rentan": 7749,
      "tip": 7750,
      " kelima": 7751,
      " pendek": 7752,
      " Pelangg": 7753,
      " Iptu": 7754,
      " Nugroho": 7755,
      " kedaulatan": 7756,
      "-ASN": 7757,
      "Kantor": 7758,
      "sy": 7759,
      " bang": 7760,
      " Malam": 7761,
      "uluk": 7762,
      " Hy": 7763,
      "ayoran": 7764,
      " Ec": 7765,
      " pemberdayaan": 7766,
      "estarian": 7767,
      " tetangga": 7768,
      " disebutkan": 7769,
      " Sumatra": 7770,
      " Expo": 7771,
      " mengecek": 7772,
      " Conv": 7773,
      " efisiensi": 7774,
      " nyawa": 7775,
      " dijalankan": 7776,
      "Biden": 7777,
      "Wali": 7778,
      "naker": 7779,
      "anam": 7780,
      "eru": 7781,
      "unian": 7782,
      "sit": 7783,
      " PMI": 7784,
      " Koalisi": 7785,
      "orban": 7786,
      " Darat": 7787,
      " Wal": 7788,
      "ehat": 7789,
      " Foto": 7790,
      "osal": 7791,
      " Probolinggo": 7792,
      " Arg": 7793,
      " bertanya": 7794,
      " alih": 7795,
      "Termasuk": 7796,
      " waspada": 7797,
      " demonstrasi": 7798,
      " Tersangka": 7799,
      "elenskyy": 7800,
      "\"Dari": 7801,
      "BL": 7802,
      "Bali": 7803,
      "Din": 7804,
      "Ir": 7805,
      "Ribuan": 7806,
      "fan": 7807,
      "port": 7808,
      " siber": 7809,
      " kabur": 7810,
      " tulang": 7811,
      " bib": 7812,
      "unungan": 7813,
      " BPJS": 7814,
      " AC": 7815,
      " Ward": 7816,
      " menyetujui": 7817,
      " pengamat": 7818,
      " pengumuman": 7819,
      " kerj": 7820,
      "linik": 7821,
      " Kelompok": 7822,
      " mengecam": 7823,
      " Teuku": 7824,
      " Cahyadi": 7825,
      " markas": 7826,
      "\"Tidak": 7827,
      "Misalnya": 7828,
      "but": 7829,
      "mah": 7830,
      "ook": 7831,
      "enangkan": 7832,
      "atistik": 7833,
      "ikator": 7834,
      "usuhan": 7835,
      " mengidentifikasi": 7836,
      " keg": 7837,
      " Development": 7838,
      " jarang": 7839,
      " ruas": 7840,
      " Leg": 7841,
      " menduga": 7842,
      " Komite": 7843,
      " menghabiskan": 7844,
      " penggel": 7845,
      " Trenggalek": 7846,
      "Sekitar": 7847,
      " match": 7848,
      " membenarkan": 7849,
      "/J": 7850,
      "/lt": 7851,
      "LHK": 7852,
      " mor": 7853,
      "atta": 7854,
      " bikin": 7855,
      "amika": 7856,
      " Port": 7857,
      " lebaran": 7858,
      " Mantan": 7859,
      " Tar": 7860,
      " Dian": 7861,
      " rez": 7862,
      " Nah": 7863,
      " Lu": 7864,
      " Let": 7865,
      " cita": 7866,
      " pembinaan": 7867,
      "over": 7868,
      " berhak": 7869,
      " Mark": 7870,
      " sesama": 7871,
      "Ketiga": 7872,
      " bergantung": 7873,
      "yakini": 7874,
      " ditujukan": 7875,
      " aparatur": 7876,
      "AC": 7877,
      "ein": 7878,
      "gen": 7879,
      "mada": 7880,
      "narkoba": 7881,
      "ongi": 7882,
      " berak": 7883,
      " Run": 7884,
      " relawan": 7885,
      " kepad": 7886,
      " Pemasyarakatan": 7887,
      " dikatakan": 7888,
      "Menjelang": 7889,
      "timalkan": 7890,
      " penyelesaian": 7891,
      " kaum": 7892,
      " Madiun": 7893,
      "68": 7894,
      "eld": 7895,
      " Solid": 7896,
      "aribu": 7897,
      "adian": 7898,
      " dalamnya": 7899,
      " Hani": 7900,
      " Hij": 7901,
      "ehabil": 7902,
      " cocok": 7903,
      "otol": 7904,
      " setia": 7905,
      " Asosiasi": 7906,
      "\"Saat": 7907,
      " emosi": 7908,
      "iskin": 7909,
      " tegasnya": 7910,
      " Plus": 7911,
      " jabatannya": 7912,
      " Lee": 7913,
      " Ulama": 7914,
      "/ka": 7915,
      "Kek": 7916,
      "St": 7917,
      "ZNAS": 7918,
      "eis": 7919,
      "hum": 7920,
      "akim": 7921,
      "adin": 7922,
      " KTT": 7923,
      "engarkan": 7924,
      "uriga": 7925,
      " Ann": 7926,
      " Mapolres": 7927,
      " mengizinkan": 7928,
      " memegang": 7929,
      "otret": 7930,
      " mendeklarasikan": 7931,
      " Pemerintahan": 7932,
      "acana": 7933,
      "undurkan": 7934,
      "ornia": 7935,
      " tertutup": 7936,
      " otak": 7937,
      " padat": 7938,
      " dituduh": 7939,
      " penyelundupan": 7940,
      " sorotan": 7941,
      " angkat": 7942,
      " etik": 7943,
      "BPBD": 7944,
      "yaw": 7945,
      " Blinken": 7946,
      " mengan": 7947,
      " Tour": 7948,
      " cawapres": 7949,
      " EUR": 7950,
      " federal": 7951,
      " ketertiban": 7952,
      " pendanaan": 7953,
      "aksimalkan": 7954,
      "avor": 7955,
      " Brand": 7956,
      "Sekjen": 7957,
      " terangnya": 7958,
      " daun": 7959,
      " diplomatik": 7960,
      "alifornia": 7961,
      " ex": 7962,
      "DM": 7963,
      "nal": 7964,
      " destinasi": 7965,
      " macam": 7966,
      "isu": 7967,
      " BPK": 7968,
      " la": 7969,
      " Masa": 7970,
      " hamil": 7971,
      " nasib": 7972,
      "entina": 7973,
      " London": 7974,
      " ASDP": 7975,
      " Arena": 7976,
      " kekasih": 7977,
      "ontalo": 7978,
      " Pasaribu": 7979,
      " deras": 7980,
      "-perusahaan": 7981,
      " Willi": 7982,
      "EMBANG": 7983,
      " komersial": 7984,
      "/M": 7985,
      "/R": 7986,
      "SL": 7987,
      "sesi": 7988,
      "inergi": 7989,
      " tempur": 7990,
      "emik": 7991,
      " PU": 7992,
      " berter": 7993,
      " liburan": 7994,
      " Masih": 7995,
      " jer": 7996,
      "epsi": 7997,
      " mendirikan": 7998,
      "ipa": 7999,
      " memperjuangkan": 8000,
      "unduran": 8001,
      "PBB": 8002,
      " perlawanan": 8003,
      " Serv": 8004,
      " Ricis": 8005,
      "uksesan": 8006,
      "ehabilitasi": 8007,
      "Fak": 8008,
      "Kota": 8009,
      "mo": 8010,
      "mel": 8011,
      "str": 8012,
      "elajari": 8013,
      " Putu": 8014,
      "ilateral": 8015,
      " Kod": 8016,
      " Gratis": 8017,
      "ative": 8018,
      "ingkus": 8019,
      " pembalap": 8020,
      "osis": 8021,
      " berkuasa": 8022,
      " Thomas": 8023,
      " komponen": 8024,
      " diterbitkan": 8025,
      " seder": 8026,
      " Basuki": 8027,
      "IIAS": 8028,
      " Dokter": 8029,
      "ologis": 8030,
      "abetes": 8031,
      "RA": 8032,
      "Rusia": 8033,
      "minal": 8034,
      " pangkalan": 8035,
      "asari": 8036,
      "alti": 8037,
      " boc": 8038,
      " Sand": 8039,
      " Bintang": 8040,
      " land": 8041,
      "ariat": 8042,
      " undangan": 8043,
      " rum": 8044,
      "adium": 8045,
      "trans": 8046,
      " mencalonkan": 8047,
      " dibebaskan": 8048,
      " Zain": 8049,
      " Abd": 8050,
      " terkemuka": 8051,
      "gagung": 8052,
      "off": 8053,
      "ejauh": 8054,
      " Militer": 8055,
      "harma": 8056,
      " pemanfaatan": 8057,
      " Gorontalo": 8058,
      " PALEMBANG": 8059,
      "/D": 8060,
      "IK": 8061,
      "Jateng": 8062,
      "bek": 8063,
      "oakan": 8064,
      "sar": 8065,
      "eringan": 8066,
      "inda": 8067,
      " Pagi": 8068,
      " Khan": 8069,
      "engahan": 8070,
      " lari": 8071,
      " Mu": 8072,
      " memaksa": 8073,
      " CSR": 8074,
      "ehold": 8075,
      "eriahkan": 8076,
      "inting": 8077,
      " pembahasan": 8078,
      " Ver": 8079,
      "ancur": 8080,
      " dipakai": 8081,
      "epankan": 8082,
      " Seni": 8083,
      " PNM": 8084,
      "Masyarakat": 8085,
      " pembelajaran": 8086,
      " Teguh": 8087,
      " tersisa": 8088,
      " EURO": 8089,
      " etn": 8090,
      "Pemprov": 8091,
      "RWA": 8092,
      "set": 8093,
      "vok": 8094,
      "angd": 8095,
      " kant": 8096,
      " Bay": 8097,
      " Bima": 8098,
      "ome": 8099,
      " Red": 8100,
      "ampau": 8101,
      " kemitraan": 8102,
      " pasca": 8103,
      " utamanya": 8104,
      " sambung": 8105,
      " peduli": 8106,
      " Pesantren": 8107,
      " material": 8108,
      " Karim": 8109,
      " lipat": 8110,
      " Wibowo": 8111,
      "/ft": 8112,
      "PSI": 8113,
      "YL": 8114,
      "pem": 8115,
      "ungagung": 8116,
      " terasa": 8117,
      " terdaftar": 8118,
      " WNI": 8119,
      " membatasi": 8120,
      "intasi": 8121,
      " ketingg": 8122,
      " Amb": 8123,
      "utanan": 8124,
      " pencab": 8125,
      " Yasin": 8126,
      " Reza": 8127,
      " dakwaan": 8128,
      "ashi": 8129,
      " Ponor": 8130,
      " PON": 8131,
      " Sent": 8132,
      "eku": 8133,
      " mengutip": 8134,
      " Gil": 8135,
      " California": 8136,
      " Fik": 8137,
      " fin": 8138,
      " berlokasi": 8139,
      " stadion": 8140,
      "ardo": 8141,
      " Shop": 8142,
      "Prak": 8143,
      " intensif": 8144,
      " kontak": 8145,
      " upah": 8146,
      "ladesh": 8147,
      " Achmad": 8148,
      " Mojokerto": 8149,
      "ED": 8150,
      "Pak": 8151,
      " by": 8152,
      " diyakini": 8153,
      " Kul": 8154,
      " Bey": 8155,
      " Akan": 8156,
      " hangat": 8157,
      " Damai": 8158,
      " memaparkan": 8159,
      " Cap": 8160,
      " Fac": 8161,
      " ditembak": 8162,
      "ejarah": 8163,
      " pred": 8164,
      " timah": 8165,
      " Paslon": 8166,
      "And": 8167,
      " Irwan": 8168,
      " mahal": 8169,
      " terjangkau": 8170,
      " konteks": 8171,
      " Edward": 8172,
      " meresmikan": 8173,
      " berfungsi": 8174,
      "amsoet": 8175,
      " banget": 8176,
      " Ponorogo": 8177,
      "Puluhan": 8178,
      "Tersangka": 8179,
      "akehold": 8180,
      " Penting": 8181,
      " Kasat": 8182,
      "tiar": 8183,
      " Won": 8184,
      " Gu": 8185,
      " game": 8186,
      " wadah": 8187,
      " Yaman": 8188,
      " analisis": 8189,
      " banyaknya": 8190,
      "ancaran": 8191,
      " berlebihan": 8192,
      "ersediaan": 8193,
      "-luka": 8194,
      " disita": 8195,
      " tertulisnya": 8196,
      "Amerika": 8197,
      "Harapan": 8198,
      " Maulana": 8199,
      " etika": 8200,
      "\"Per": 8201,
      "-si": 8202,
      "77": 8203,
      "banten": 8204,
      "dit": 8205,
      "enep": 8206,
      " Sudah": 8207,
      " Kir": 8208,
      " Ratu": 8209,
      "udit": 8210,
      " Green": 8211,
      "ambilan": 8212,
      "indung": 8213,
      " Anton": 8214,
      "acetan": 8215,
      " kecerdasan": 8216,
      " penghasil": 8217,
      " Andre": 8218,
      "arinda": 8219,
      "ition": 8220,
      " Bareskrim": 8221,
      " artinya": 8222,
      " Benny": 8223,
      " Biro": 8224,
      " Kamala": 8225,
      " tembakau": 8226,
      " ambil": 8227,
      "\"Setelah": 8228,
      "/uh": 8229,
      " tas": 8230,
      " bapak": 8231,
      " menimpa": 8232,
      "tut": 8233,
      "ikirkan": 8234,
      " Bagian": 8235,
      " Jaz": 8236,
      "awali": 8237,
      "awagub": 8238,
      " Wanita": 8239,
      " Wijaya": 8240,
      " narapidana": 8241,
      " pertamanya": 8242,
      " Penghargaan": 8243,
      "akinkan": 8244,
      " Akhir": 8245,
      " Harvey": 8246,
      "eritaan": 8247,
      " Fatoni": 8248,
      " simulasi": 8249,
      " rahasia": 8250,
      "66": 8251,
      "700": 8252,
      "Keh": 8253,
      "reh": 8254,
      " paksa": 8255,
      " sir": 8256,
      " kaca": 8257,
      " besi": 8258,
      "adha": 8259,
      " Bangka": 8260,
      "ekam": 8261,
      " Manc": 8262,
      "tice": 8263,
      " Gh": 8264,
      " canggih": 8265,
      "umput": 8266,
      " bersamaan": 8267,
      " Pasukan": 8268,
      " mempertanyakan": 8269,
      "enjamin": 8270,
      " Kampus": 8271,
      " menaikkan": 8272,
      " Tulungagung": 8273,
      "Dep": 8274,
      "bondo": 8275,
      " detail": 8276,
      " sapaan": 8277,
      " kajian": 8278,
      "ahari": 8279,
      " ho": 8280,
      " Ty": 8281,
      " Tugas": 8282,
      "ehkan": 8283,
      " gej": 8284,
      " menyebar": 8285,
      " diber": 8286,
      "atifikasi": 8287,
      "gagalan": 8288,
      " Samarinda": 8289,
      " sambutannya": 8290,
      " mengejutkan": 8291,
      " Kuningan": 8292,
      " pemadaman": 8293,
      " Ferry": 8294,
      " ditaw": 8295,
      "Gol": 8296,
      "ping": 8297,
      " duka": 8298,
      " sent": 8299,
      "ahe": 8300,
      " Sari": 8301,
      " Sore": 8302,
      " Best": 8303,
      " Benjamin": 8304,
      " mengakses": 8305,
      " mengeksp": 8306,
      "imigrasi": 8307,
      " Tamb": 8308,
      " Risma": 8309,
      " War": 8310,
      " Lemb": 8311,
      " LPG": 8312,
      " mendalami": 8313,
      " ES": 8314,
      " Otor": 8315,
      "own": 8316,
      "evaluasi": 8317,
      " Menengah": 8318,
      "eransi": 8319,
      " panitia": 8320,
      "Pertemuan": 8321,
      " Paul": 8322,
      "sentif": 8323,
      " Rudy": 8324,
      "ubishi": 8325,
      " kamera": 8326,
      " ent": 8327,
      "Sen": 8328,
      "cu": 8329,
      " pungk": 8330,
      "apati": 8331,
      "irman": 8332,
      " Ry": 8333,
      " Ray": 8334,
      " rencananya": 8335,
      "awar": 8336,
      " melepas": 8337,
      " capaian": 8338,
      " pengungkapan": 8339,
      "raz": 8340,
      "ose": 8341,
      " berkampanye": 8342,
      " penyaluran": 8343,
      " pendiri": 8344,
      "ucing": 8345,
      " Banda": 8346,
      " diraih": 8347,
      " menerbitkan": 8348,
      "atorium": 8349,
      "Keputusan": 8350,
      "...\n": 8351,
      " Bojonegoro": 8352,
      " menempati": 8353,
      " Majalengka": 8354,
      "Pakar": 8355,
      "enta": 8356,
      "atal": 8357,
      "espons": 8358,
      " Buka": 8359,
      " Budaya": 8360,
      " AP": 8361,
      " Iz": 8362,
      "ulia": 8363,
      " Riv": 8364,
      " warung": 8365,
      "ters": 8366,
      " seraya": 8367,
      " persatuan": 8368,
      " Berd": 8369,
      " Asep": 8370,
      "-sek": 8371,
      " invasi": 8372,
      "rakirakan": 8373,
      "oblosan": 8374,
      " netralitas": 8375,
      " Brigjen": 8376,
      "itsubishi": 8377,
      "ersihkan": 8378,
      " SERANG": 8379,
      " Convention": 8380,
      "luk": 8381,
      "oe": 8382,
      "untuk": 8383,
      "elus": 8384,
      " Baik": 8385,
      " Bangkalan": 8386,
      "umrah": 8387,
      " menguntungkan": 8388,
      "embira": 8389,
      " Jas": 8390,
      " meluas": 8391,
      "anduk": 8392,
      " Noor": 8393,
      "ajikan": 8394,
      " pengangkatan": 8395,
      "osp": 8396,
      " politisi": 8397,
      " suci": 8398,
      " Terminal": 8399,
      "apolda": 8400,
      " berkomunikasi": 8401,
      " Sudjana": 8402,
      " Antam": 8403,
      " angkutan": 8404,
      " Online": 8405,
      "\"I": 8406,
      "IKN": 8407,
      " bak": 8408,
      " Pekerjaan": 8409,
      " hor": 8410,
      "riah": 8411,
      "oter": 8412,
      " masukan": 8413,
      " pertengahan": 8414,
      " asam": 8415,
      "ovid": 8416,
      " Stadium": 8417,
      "Produk": 8418,
      " Kebijakan": 8419,
      "waktu": 8420,
      " pengecekan": 8421,
      " Situbondo": 8422,
      "Kabid": 8423,
      "KT": 8424,
      "mark": 8425,
      " pi": 8426,
      " temp": 8427,
      " diam": 8428,
      " Sang": 8429,
      "ilikan": 8430,
      "imo": 8431,
      " Tepi": 8432,
      " IC": 8433,
      "itual": 8434,
      " penemuan": 8435,
      " penalti": 8436,
      "agen": 8437,
      " melepaskan": 8438,
      " Luk": 8439,
      " cinta": 8440,
      " Fl": 8441,
      " EV": 8442,
      "optimalkan": 8443,
      " kelaparan": 8444,
      "adiran": 8445,
      " Sumenep": 8446,
      " Lebak": 8447,
      " Serdang": 8448,
      " Mulyadi": 8449,
      " otomat": 8450,
      "aryono": 8451,
      "agnaia": 8452,
      "ervasi": 8453,
      " Bangladesh": 8454,
      " Yudh": 8455,
      " Bahrain": 8456,
      " penggeledahan": 8457,
      "IV": 8458,
      "Wak": 8459,
      "lian": 8460,
      "pas": 8461,
      "ering": 8462,
      " menantang": 8463,
      " Ba": 8464,
      " IN": 8465,
      " ISIS": 8466,
      " RW": 8467,
      " rev": 8468,
      " Head": 8469,
      " Inter": 8470,
      " membah": 8471,
      " co": 8472,
      " cer": 8473,
      "Seluruh": 8474,
      " PBNU": 8475,
      " Ramad": 8476,
      " objek": 8477,
      " edisi": 8478,
      " Nyoman": 8479,
      "Perdana": 8480,
      "Has": 8481,
      "dip": 8482,
      "yeksi": 8483,
      " diisi": 8484,
      " Simp": 8485,
      " Koordinasi": 8486,
      " Bella": 8487,
      " mengal": 8488,
      " mengundurkan": 8489,
      " Jer": 8490,
      " Lah": 8491,
      " Laks": 8492,
      " selebritas": 8493,
      "akui": 8494,
      " kelancaran": 8495,
      " harian": 8496,
      " dikonsumsi": 8497,
      " praperadilan": 8498,
      " visa": 8499,
      " kebun": 8500,
      " bertepatan": 8501,
      " aut": 8502,
      " pilot": 8503,
      "-mudahan": 8504,
      " Moeis": 8505,
      " gereja": 8506,
      " diselesaikan": 8507,
      "phone": 8508,
      " akademisi": 8509,
      " delegasi": 8510,
      "Total": 8511,
      "ann": 8512,
      " BTN": 8513,
      "itigasi": 8514,
      "eki": 8515,
      " Juara": 8516,
      " Tito": 8517,
      "awak": 8518,
      " pertunjukan": 8519,
      " dikenakan": 8520,
      " vol": 8521,
      "evan": 8522,
      " menghilangkan": 8523,
      "engkapan": 8524,
      " Angel": 8525,
      "amaha": 8526,
      " percepatan": 8527,
      " Kereta": 8528,
      "\"Yang": 8529,
      "Aw": 8530,
      "CEO": 8531,
      "yim": 8532,
      "inisi": 8533,
      " tiap": 8534,
      " badai": 8535,
      " BK": 8536,
      " Bro": 8537,
      " Bagus": 8538,
      " Dusun": 8539,
      " UI": 8540,
      "ebutkan": 8541,
      " pemenangan": 8542,
      " bahagia": 8543,
      " ketersediaan": 8544,
      " kecantikan": 8545,
      " taktik": 8546,
      " ucapan": 8547,
      " permukaan": 8548,
      "ejahtera": 8549,
      " investigasi": 8550,
      " keterampilan": 8551,
      "rehensif": 8552,
      "YD": 8553,
      "pes": 8554,
      "rul": 8555,
      "asm": 8556,
      " kode": 8557,
      "elat": 8558,
      "ild": 8559,
      " lingk": 8560,
      " hunian": 8561,
      " Inovasi": 8562,
      " menjamu": 8563,
      " persetujuan": 8564,
      " dikembangkan": 8565,
      "ecat": 8566,
      " Survei": 8567,
      " berjumlah": 8568,
      " Masuk": 8569,
      "-pihak": 8570,
      "ergy": 8571,
      " Bobby": 8572,
      " Tabanan": 8573,
      " mengkritik": 8574,
      " kantong": 8575,
      "DS": 8576,
      "EV": 8577,
      "Terd": 8578,
      "bang": 8579,
      "eur": 8580,
      "wanto": 8581,
      "akh": 8582,
      " kok": 8583,
      " kadar": 8584,
      " menembus": 8585,
      " Susi": 8586,
      " Sandra": 8587,
      " jasad": 8588,
      " ramai": 8589,
      " melengkapi": 8590,
      " Col": 8591,
      " menyuarakan": 8592,
      " sertifikasi": 8593,
      "istyo": 8594,
      "igh": 8595,
      " berlatih": 8596,
      "PKS": 8597,
      "arnai": 8598,
      " pleno": 8599,
      " perpanjangan": 8600,
      " elit": 8601,
      "Rumah": 8602,
      "UL": 8603,
      "adel": 8604,
      "onc": 8605,
      " Sug": 8606,
      "orsi": 8607,
      " APBN": 8608,
      " TPP": 8609,
      "omi": 8610,
      " unjuk": 8611,
      " penolakan": 8612,
      " ro": 8613,
      " revisi": 8614,
      " menjanjikan": 8615,
      " Fais": 8616,
      "ambar": 8617,
      " berkendara": 8618,
      " menggel": 8619,
      " Val": 8620,
      "gawi": 8621,
      " menerangkan": 8622,
      " Menang": 8623,
      " mengenal": 8624,
      " kendali": 8625,
      " Manahan": 8626,
      " Syariah": 8627,
      " Pramella": 8628,
      " Coach": 8629,
      " berterima": 8630,
      " #": 8631,
      "\"Pada": 8632,
      "tin": 8633,
      " dapur": 8634,
      " but": 8635,
      " bansos": 8636,
      " Tegal": 8637,
      " Tetap": 8638,
      "irahat": 8639,
      " inklusif": 8640,
      " mematikan": 8641,
      " Hi": 8642,
      " gem": 8643,
      " pengurangan": 8644,
      "angguran": 8645,
      "argai": 8646,
      "odi": 8647,
      "impunan": 8648,
      " ditambah": 8649,
      " bertema": 8650,
      " aliansi": 8651,
      " halal": 8652,
      " memasang": 8653,
      "erdas": 8654,
      " Raharja": 8655,
      " Miliar": 8656,
      " menempuh": 8657,
      " mengejar": 8658,
      " restoran": 8659,
      "esmian": 8660,
      "imigrasian": 8661,
      " erat": 8662,
      "'r": 8663,
      "OM": 8664,
      "lakan": 8665,
      "sun": 8666,
      "vokasi": 8667,
      "eraian": 8668,
      " tingginya": 8669,
      "tug": 8670,
      "ingle": 8671,
      " Tau": 8672,
      " Depan": 8673,
      "iru": 8674,
      " Ruben": 8675,
      " memul": 8676,
      " melem": 8677,
      " sebaga": 8678,
      " menyasar": 8679,
      "ajakan": 8680,
      " dibentuk": 8681,
      " penyimp": 8682,
      " Bandar": 8683,
      " hukumnya": 8684,
      " bioskop": 8685,
      " jumlahnya": 8686,
      " kontroversi": 8687,
      "Sekarang": 8688,
      " saing": 8689,
      " Franc": 8690,
      " imigrasi": 8691,
      "okteran": 8692,
      " Prasetyo": 8693,
      " President": 8694,
      " promosi": 8695,
      "\"Mereka": 8696,
      "Air": 8697,
      "EL": 8698,
      " Teco": 8699,
      " Water": 8700,
      " Covid": 8701,
      "oth": 8702,
      " ditentukan": 8703,
      "aksasa": 8704,
      " eksekutif": 8705,
      " segar": 8706,
      " klarifikasi": 8707,
      " Aksi": 8708,
      " Xi": 8709,
      " Eksp": 8710,
      " Sams": 8711,
      " Heru": 8712,
      "Dirinya": 8713,
      " Google": 8714,
      "epakati": 8715,
      " Pasifik": 8716,
      " Argentina": 8717,
      ".id": 8718,
      "AW": 8719,
      "DC": 8720,
      "Kali": 8721,
      "eet": 8722,
      "rint": 8723,
      " menampung": 8724,
      "engsi": 8725,
      " IS": 8726,
      "ulukan": 8727,
      " insentif": 8728,
      " Life": 8729,
      " gunung": 8730,
      " Fest": 8731,
      "anggal": 8732,
      "ormat": 8733,
      " melakukannya": 8734,
      " dikar": 8735,
      "ica": 8736,
      " Komisaris": 8737,
      "etum": 8738,
      "-baik": 8739,
      " produktivitas": 8740,
      " minat": 8741,
      "earch": 8742,
      " kripto": 8743,
      " Andrew": 8744,
      " helikopter": 8745,
      " Teheran": 8746,
      " etnis": 8747,
      "\"L": 8748,
      "\"Itu": 8749,
      "Capres": 8750,
      "Tujuan": 8751,
      "dani": 8752,
      "ath": 8753,
      " tangkis": 8754,
      " Pajak": 8755,
      " Kang": 8756,
      " Gabungan": 8757,
      " melintasi": 8758,
      " Alf": 8759,
      " Malik": 8760,
      " kron": 8761,
      "Aku": 8762,
      " digitalisasi": 8763,
      "Penyanyi": 8764,
      " artikel": 8765,
      "landia": 8766,
      " Boyol": 8767,
      " Marketing": 8768,
      "PDIP": 8769,
      "JK": 8770,
      "zuki": 8771,
      "alasan": 8772,
      "imir": 8773,
      " Tam": 8774,
      " Dapil": 8775,
      "rioritas": 8776,
      " menduduki": 8777,
      " fenomena": 8778,
      " diklaim": 8779,
      " voli": 8780,
      " suap": 8781,
      " bertekad": 8782,
      " Show": 8783,
      " komprehensif": 8784,
      " Konf": 8785,
      " Dito": 8786,
      "III": 8787,
      "ustom": 8788,
      " Onsu": 8789,
      "olding": 8790,
      "ybrid": 8791,
      "95": 8792,
      "Penc": 8793,
      "anah": 8794,
      " SPB": 8795,
      "iko": 8796,
      "utrad": 8797,
      " MAL": 8798,
      " perasaan": 8799,
      " Dukungan": 8800,
      " Harus": 8801,
      " melukai": 8802,
      "ampang": 8803,
      " membebaskan": 8804,
      " pengambilan": 8805,
      " Perb": 8806,
      "ormas": 8807,
      "igur": 8808,
      "ley": 8809,
      " Kemendikbudristek": 8810,
      " Emp": 8811,
      " ibunya": 8812,
      " Silva": 8813,
      " Lumajang": 8814,
      "Begitu": 8815,
      "Kapal": 8816,
      "Video": 8817,
      "eaming": 8818,
      "ject": 8819,
      "pam": 8820,
      " port": 8821,
      " botol": 8822,
      " Pari": 8823,
      " Serangan": 8824,
      " Bagnaia": 8825,
      " mengut": 8826,
      " Jalak": 8827,
      " Dorong": 8828,
      " Dharma": 8829,
      "egon": 8830,
      "edua": 8831,
      " Comp": 8832,
      " merawat": 8833,
      "ajaan": 8834,
      " mendengarkan": 8835,
      "artal": 8836,
      "estinya": 8837,
      " vonis": 8838,
      " pendampingan": 8839,
      "ucian": 8840,
      "ugerah": 8841,
      "tarik": 8842,
      "erbang": 8843,
      "orge": 8844,
      " Denny": 8845,
      " kenapa": 8846,
      " bersikap": 8847,
      "aftarkan": 8848,
      " biru": 8849,
      " kakak": 8850,
      " mengedepankan": 8851,
      "-Q": 8852,
      "Gubernur": 8853,
      "Kons": 8854,
      "Sejauh": 8855,
      "aus": 8856,
      "lic": 8857,
      " deb": 8858,
      " kg": 8859,
      " telak": 8860,
      " basis": 8861,
      "ebas": 8862,
      " terwujud": 8863,
      " jet": 8864,
      " Ratusan": 8865,
      "antar": 8866,
      " penyediaan": 8867,
      "turunan": 8868,
      " Siak": 8869,
      " pendukungnya": 8870,
      "egram": 8871,
      "lokir": 8872,
      " meyakinkan": 8873,
      "usnahan": 8874,
      "amerkan": 8875,
      "angdut": 8876,
      " /": 8877,
      "Kon": 8878,
      "Nanti": 8879,
      "husus": 8880,
      "uasan": 8881,
      " padahal": 8882,
      " Pek": 8883,
      "uko": 8884,
      " Jen": 8885,
      " Jembatan": 8886,
      " THR": 8887,
      "egas": 8888,
      " Hen": 8889,
      " Lab": 8890,
      "ayangan": 8891,
      " cek": 8892,
      "ujian": 8893,
      " kemacetan": 8894,
      " kesuksesan": 8895,
      " kecewa": 8896,
      " satuan": 8897,
      " opsi": 8898,
      " Kemendagri": 8899,
      " Kemenag": 8900,
      " Eng": 8901,
      " amanah": 8902,
      "mail": 8903,
      " Transp": 8904,
      " Institut": 8905,
      "ampaui": 8906,
      " ditawarkan": 8907,
      "%,": 8908,
      "ler": 8909,
      " tanya": 8910,
      " diabetes": 8911,
      "sius": 8912,
      " Banjir": 8913,
      " Ayat": 8914,
      " perumahan": 8915,
      " Tempat": 8916,
      " Rac": 8917,
      " penandatanganan": 8918,
      "edy": 8919,
      " Nu": 8920,
      " membaca": 8921,
      " pemantauan": 8922,
      " cadangan": 8923,
      "isit": 8924,
      "opuler": 8925,
      " penyedia": 8926,
      " premium": 8927,
      " didirikan": 8928,
      " dinamika": 8929,
      "ufak": 8930,
      " Ditangkap": 8931,
      "Hasilnya": 8932,
      " Penyelenggara": 8933,
      " proposal": 8934,
      " Daniel": 8935,
      " Solidaritas": 8936,
      " otomatis": 8937,
      "Ist": 8938,
      "Pejabat": 8939,
      "auan": 8940,
      "day": 8941,
      "jan": 8942,
      "rd": 8943,
      " begini": 8944,
      " Baim": 8945,
      " berisiko": 8946,
      " mengunggah": 8947,
      " mengendalikan": 8948,
      " hilir": 8949,
      " Rencana": 8950,
      "tic": 8951,
      " Insp": 8952,
      "entari": 8953,
      "uba": 8954,
      " Fah": 8955,
      " Om": 8956,
      " keterb": 8957,
      " dibantu": 8958,
      " promo": 8959,
      " DPW": 8960,
      " kekeringan": 8961,
      "azar": 8962,
      " Harupat": 8963,
      "-anaknya": 8964,
      " koleksi": 8965,
      " komitmennya": 8966,
      " Nasution": 8967,
      "-cawapres": 8968,
      "Semoga": 8969,
      " Iduladha": 8970,
      "ladimir": 8971,
      " Hijriah": 8972,
      "Awalnya": 8973,
      " Boyolali": 8974,
      "ufaktur": 8975,
      "hentian": 8976,
      "enaran": 8977,
      " PM": 8978,
      " Barang": 8979,
      "olongan": 8980,
      " Jun": 8981,
      "imob": 8982,
      " Das": 8983,
      " intim": 8984,
      " sertifikat": 8985,
      " disediakan": 8986,
      "Menko": 8987,
      "eck": 8988,
      " stakehold": 8989,
      " Menjelang": 8990,
      "pool": 8991,
      " Wahy": 8992,
      " salat": 8993,
      " rezim": 8994,
      "avorit": 8995,
      "Mobil": 8996,
      "gan": 8997,
      "hika": 8998,
      "yn": 8999,
      " pec": 9000,
      " seng": 9001,
      " diakses": 9002,
      " Mach": 9003,
      " Tra": 9004,
      " Haf": 9005,
      " Health": 9006,
      " Gam": 9007,
      " Ngawi": 9008,
      " gigi": 9009,
      " menyinggung": 9010,
      " maskapai": 9011,
      "olehkan": 9012,
      " Ketut": 9013,
      "oha": 9014,
      "masalah": 9015,
      " asuhnya": 9016,
      "unjangan": 9017,
      "ova": 9018,
      " direncanakan": 9019,
      " didorong": 9020,
      "eskalasi": 9021,
      " Administrasi": 9022,
      " petern": 9023,
      " petahana": 9024,
      "anggungjawab": 9025,
      " eksklusif": 9026,
      " Kejati": 9027,
      " muslim": 9028,
      " Kurni": 9029,
      " mengantongi": 9030,
      "arganet": 9031,
      " volume": 9032,
      "'ruf": 9033,
      "utradara": 9034,
      " isi": 9035,
      " umrah": 9036,
      "Emp": 9037,
      "Ganjar": 9038,
      "hari": 9039,
      "jb": 9040,
      "vel": 9041,
      "erly": 9042,
      " Basarnas": 9043,
      " lomba": 9044,
      " menggagalkan": 9045,
      " Tuhan": 9046,
      "omasi": 9047,
      " DC": 9048,
      " Do": 9049,
      " ref": 9050,
      " Lam": 9051,
      " Lagi": 9052,
      "ayasa": 9053,
      "rie": 9054,
      " wajar": 9055,
      " Fed": 9056,
      "osep": 9057,
      " disetujui": 9058,
      " penyeberangan": 9059,
      "ication": 9060,
      " Ungg": 9061,
      " bertahap": 9062,
      "izen": 9063,
      " resolusi": 9064,
      " Aditya": 9065,
      " mempelajari": 9066,
      " bergulir": 9067,
      " Gereja": 9068,
      " Arifin": 9069,
      " tunai": 9070,
      " Foundation": 9071,
      "Data": 9072,
      " miskin": 9073,
      " tek": 9074,
      " Bern": 9075,
      "umut": 9076,
      "asiat": 9077,
      " seper": 9078,
      "egar": 9079,
      " GI": 9080,
      " Luh": 9081,
      "ubungkan": 9082,
      "aining": 9083,
      " berkurang": 9084,
      "ical": 9085,
      "Menanggapi": 9086,
      "wansa": 9087,
      " dideportasi": 9088,
      "entuh": 9089,
      " produktif": 9090,
      " Terbaik": 9091,
      " berpeng": 9092,
      "elitian": 9093,
      " jawaban": 9094,
      " spesialis": 9095,
      "alihkan": 9096,
      "esuaian": 9097,
      " relevan": 9098,
      " motivasi": 9099,
      " Zulk": 9100,
      "eliharaan": 9101,
      " Nahd": 9102,
      "\"Dalam": 9103,
      "-isu": 9104,
      "Gus": 9105,
      "Kal": 9106,
      "Soal": 9107,
      " sif": 9108,
      " kimia": 9109,
      " blok": 9110,
      " menelan": 9111,
      " Salah": 9112,
      "oreng": 9113,
      " perut": 9114,
      " hancur": 9115,
      " Tem": 9116,
      " Daftar": 9117,
      " Inform": 9118,
      " Cuaca": 9119,
      "ampur": 9120,
      "osari": 9121,
      " persnya": 9122,
      "icer": 9123,
      "PPS": 9124,
      " milenial": 9125,
      " terpidana": 9126,
      "antoro": 9127,
      " dimintai": 9128,
      " konsolidasi": 9129,
      " menyeluruh": 9130,
      " Kejagung": 9131,
      " Diper": 9132,
      " kiper": 9133,
      " Logistik": 9134,
      "KU": 9135,
      "yangkan": 9136,
      "enam": 9137,
      "esahan": 9138,
      " tertarik": 9139,
      "ology": 9140,
      " niat": 9141,
      " membongkar": 9142,
      " Uang": 9143,
      "ebutan": 9144,
      "ublikasi": 9145,
      "angkatkan": 9146,
      " mendaftarkan": 9147,
      "inton": 9148,
      " Eka": 9149,
      "hadapan": 9150,
      "ungkus": 9151,
      " bersatu": 9152,
      " Polandia": 9153,
      " penyanyi": 9154,
      " Mars": 9155,
      " apel": 9156,
      "Prof": 9157,
      " Kejari": 9158,
      " zaman": 9159,
      " Mulia": 9160,
      " Dirjen": 9161,
      "esuai": 9162,
      " Management": 9163,
      " kliennya": 9164,
      "omodasi": 9165,
      " sederhana": 9166,
      "67": 9167,
      "RO": 9168,
      "bert": 9169,
      "rin": 9170,
      "rihat": 9171,
      "eny": 9172,
      " sih": 9173,
      " SIM": 9174,
      " terintegrasi": 9175,
      " beragama": 9176,
      " Atas": 9177,
      " Menc": 9178,
      " National": 9179,
      " membakar": 9180,
      " membersihkan": 9181,
      " pemegang": 9182,
      " Anti": 9183,
      " bersejarah": 9184,
      " kelapa": 9185,
      " ditingkatkan": 9186,
      " memperb": 9187,
      " dipenuhi": 9188,
      " berharga": 9189,
      "ugur": 9190,
      " wilayahnya": 9191,
      " pengganti": 9192,
      " Subang": 9193,
      "PSDM": 9194,
      " Elec": 9195,
      " ketidakp": 9196,
      " Assoc": 9197,
      " mendekati": 9198,
      " Portug": 9199,
      "ashion": 9200,
      " sebagainya": 9201,
      "Pengg": 9202,
      "gn": 9203,
      "lang": 9204,
      "nur": 9205,
      " masif": 9206,
      " pecah": 9207,
      " taman": 9208,
      " dius": 9209,
[...]
