#version: 0.2
  к
а н
а р
  б
ы н
а л
  ж
е н
д а
. 

и н
а т
  т
е р
  м
а й
у у
к т
о л
  с
ы л
г ан
  э
ү н
у н
д е
и р
о р
д ы
  а
г ы
о н
у р
и л
с т
и я
е т
  ч
г а
е к
у л
ш т
  ө
ы р
  ал
а м
е л
ы к
а к
а с
ө р
ы п
д и
о о
ө н
  ай
 б ол
ү ү
  де
д ар
ш к
т т
  и
д ын
  о
г ен
а п
и к
ы з
ын да
у к
 б а
 м ен
  п
  К
ан а
ү р
а б
 мен ен
и з
  "
ы м
  ар
и й
 к ар
д ан
 ж ана
о к
ат т
 б ир
 ж а
 э л
о в
к ан
д ө
 к о
  да
  у
 б ер
ст ан
ар ы
е с
ы й
  А
о г
 ж ат
и м
е й
ү ч
 к ө
у с
ч а
ц ия
 э к
ү л
 к ел
ө л
у п
  д
ын а
гы з
  Б
ан ы
р а
л ар
ыр гыз
е в
 де п
  ш
 м а
и ст
м а
т к
д у
г е
р е
д ин
ын ын
д ен
и п
г ө
 т ур
да гы
ү й
 б ар
г и
к а
ы ш
е кт
ал ган
 б о
ю н
ды к
б а
г он
 к ыз
л и
 т ар
 б ил
ет т
ү з
 ай т
 ж ар
 ө з
  ат
 с о
 э м
н ын
а з
с к
  н
ү п
да м
ө т
 эл е
  Т
  үч
а ган
е м
к у
е п
и т
ан ын
 ч ы
с ы
  Ж
и ш
- ж
ыргыз стан
ай л
б ек
у ш
г өн
 к ат
  М
  С
 к ыл
ал ык
 и шт
ал уу
  -
д ир
 ө л
з и
ер и
у м
2 0
 бо юн
ин ин
ал ым
  ор
 т а
 боюн ча
 б ул
у з
да й
м ат
 бил дир
ин де
 бол гон
  О
ү м
о т
 т уу
 үч үн
л ек
 к ай
 ма алым
г о
е ң
 к өр
д о
-ж ыл
е ч
 к ал
 жат кан
 к ор
А л
 ж ыл
  р
 с а
ш ы
 к ол
кт ар
 т о
 и ш
ин ист
 ж ол
ре зи
рези ден
д ун
 өл к
ам лек
у т
г ил
д ук
о м
 к аб
ү к
ер л
е г
ин е
инист р
 а дам
 ж ет
Б ул
 ко м
ү ш
а ар
 т ал
ус ия
 к үн
а ды
 ба шк
 де ген
 ж үр
 эк ен
 а к
б ай
ыл ган
ын ан
ч у
е ш
ч и
 кыз мат
а ш
 к ур
ал ар
л ык
 ж ок
 к ер
 бол уп
 к ет
 к ий
 к ан
з ам
ун ун
ер ди
 м амлек
ей ин
р усия
 ө к
оо п
 К ыргызстан
уу га
 ба ш
ч ы
 м и
ө ө
Б ир
үн дө
 ч ейин
  У
шк ан
ү г
к ы
 туу р
т а
ас ы
 туур алуу
 п резиден
л ан
а в
у г
 у ч
 б ел
 а з
ун а
 ж ер
ч ыл
ар т
 жа з
 тур ган
ый зам
ун да
  ф
 эм ес
д он
дар ы
 кий ин
я н
е б
б л
" ,
и шк
 к ир
а гы
ы кт
к ен
д ү
 ж ак
  И
 жат ат
е з
и кт
ч ул
а га
б о
 б ас
д ер
 кер ек
  ул
 чы г
 ба шт
уу н
 м ыйзам
  (
 ш аар
үн ө
А н
 ө т
к и
 с ал
 м инистр
я с
ар дын
 ал ып
 б ий
О ш
д өр
у кт
 ө тк
 мамлек етт
с ыз
 уч ур
ерл ер
к е
э э
р о
 маалым ат
 м ил
ө з
 да гы
ө м
уу л
б р
 кө п
  ан
  үй
 ал ган
м ан
 эк и
 к ам
 б айл
ен т
үн үн
 О русия
 бел гил
я бр
 б ал
  ук
ор у
а ж
ра ин
 тар т
 ш айл
  Н
у шт
-жыл ы
  аны
дар дын
 ж ай
 кө з
ы шт
атт ар
ар л
 байл аны
 ми ң
 м ур
өл өр
 к үч
. .
 т үз
я л
 о ш
т ер
А з
 б из
иш и
 у ю
ында гы
у ст
 к а
  з
ыл уу
  в
  анын
и с
 м ас
 д ол
 ч еч
 кел ген
 и ч
ө й
ег из
- м
Бир ок
ч ил
ин чи
 чыг ар
ди к
 ай ма
р ан
 с өз
 са яс
 билдир ди
у тт
 президен т
ал ы
 экен ин
ы т
 жа ш
ый ын
и ев
ба ев
о с
 о ку
 ө н
 жа ң
үү гө
т өр
 өлк ө
 а б
к үн
т ы
 ж өн
оо м
к раин
 о бл
 жар ан
уу да
м ө
 кар шы
и в
 о к
 ч ык
 мас ел
г ү
ог ор
? 

кт ан
д өн
ия нын
д оо
 башк а
 көр с
 б өл
 у ш
ор б
  Р
 т үш
у га
1 9
 а ш
с уз
атт ык
ак ыр
ин ен
с о
  ин
 т өр
  П
  Д
ик алык
үм күн
  Г
а да
А лар
  ил
 о ор
аз ак
 м үмкүн
ө ш
ар ов
с а
с ынын
 байланы шт
е ген
20 2
ы шк
 чы гы
 э с
 бер и
 бол ду
 кан дай
ей т
ал ды
 шайл оо
с и
ал дык
г ында
 ишт ер
 кар м
й т
ес и
ай он
л ик
  ре
ар ын
д уу
г ын
 а ск
 к алган
огор ку
 ж е
  Э
а ция
 мамлекетт ик
ү т
а кт
- б
б ыз
 с ур
 н егиз
д ор
ды р
 м ак
 ко ш
 р айон
20 1
д үн
 ж ары
 тал ап
1 0
орб ор
ал ып
К ыргызстан
ган а
 к оом
өн үн
о б
и ция
ыр кы
ч ү
 бол от
 к ыргыз
л өр
о кт
и б
  гана
о ң
ия лык
е ди
т ур
ай ын
ар ды
 эм и
с п
Б из
аз а
үй н
 министр ли
 ч ек
 т үр
 ал ын
 а ч
 к ооп
 ч акыр
 бий ли
 т ап
 т ер
ай т
и г
 э р
ен тт
ун у
 чык кан
 к иши
үн ү
ч үл
г из
 ж ас
 п р
 ар ак
 каб ыл
 ж ыйын
ында й
 ай ып
 байланышт уу
 Б ишк
 са кт
 ко ю
 к атт
 жаткан ын
д үү
 а в
 айт ып
Ө з
 то кт
 кат ары
ар а
 ж ооп
еп т
 жаң ы
 ую м
ан ия
а шт
ц и
ел ер
 то п
 ар алык
он до
К Ш
ас ын
 с үй
 деп ут
м өт
е шт
 ж ал
ябр да
ч ө
 тар ап
с ү
 У краин
 кыл м
 ал дын
азак стан
 өтк өр
р ам
дар ды
тт ы
 к ең
р ым
ы с
уун у
 өк үл
 бер ген
г оо
у б
 кыз м
 и шк
л а
 к ыр
 п арт
ен и
ас ында
 бер ил
 мил ли
 со т
 со м
ыл ып
 кызмат к
  Ш
ап аров
 п ай
  Ч
утт ук
ү кт
 ай ыл
к ин
 к ый
 кет кен
 обл ус
чы сы
бек ов
 ж ум
 ком п
 ат к
ас м
ат ы
 бол со
 с ан
  Е
он ав
  ыл
 айт кан
 кө б
үг үн
 т ил
с ия
е ст
А нын
үү дө
он ом
 чеч им
 т ол
арл ам
  В
онав ир
е ги
 с ог
 дол бо
 сүй л
аб ыз
 кооп суз
г ына
я р
 э ск
н ал
 ош ол
 к ез
: 

  ур
 ко й
 кай р
 жет ек
т о
 көрс өт
үл гөн
 кай ра
 кар аган
 билдир ген
и де
д үр
 жар дам
 ч ет
 де ди
т ыр
 с ун
ыш ат
ыш ы
 Ж апаров
 оку я
үр к
т ан
ыт ай
 о й
 ал ар
т ор
ады р
ыл ды
г ер
 д үйн
н е
ур нал
оо го
 ыл ай
 кор гоо
 к он
 жак ын
 мур дагы
 жа шт
 парт ия
 ал уу
ог он
 кызм атт
 жүр г
ик а
к ү
дар га
 э ч
 у ба
т ар
 жол у
с е
асм ий
 ж аб
уш у
 өтк өн
 де л
ул ган
 кир гиз
урнал ист
 учур да
 өлк өлөр
  ыр
3 0
 А з
 с ат
г өр
о й
 кол дон
ер дин
т ын
ал да
ор т
 өк мөт
 ал бай
кт ы
 ылай ык
кт а
ро п
ол ог
 аз ыр
чул ар
де й
 бир и
 К ең
- и
ы гы
ө п
ек ем
 ай тты
М ен
 о тур
 башк ар
 өз гөр
ондо й
 а п
үү лөр
 ул ам
 де м
 ал ды
 ар а
  Л
ү шт
дөр ү
т уу
ар тт
 чыгы п
 п арлам
н о
ре м
ат а
г ун
 со ң
 тал к
 ич инде
 президен тт
 уш ул
ет и
 кор онавир
 аны кт
 жүрг үз
 А л
ан да
 ар к
 түш үн
с үн
 ор ун
  Х
 кел иш
 Кыргызстан дын
 а ба
ы шкан
 а ял
ун дагы
 со тт
м ия
 т аб
 а кт
 бир ок
атт ы
и ги
 долбо ор
 бер үү
 к ес
дө ө
.. .
 и з
1 5
О русия
 кел ет
 ч оң
 б ай
он у
де к
 караган да
  дар
  г
из м
ал иев
а шк
к ер
с ат
 кар аж
 жал п
о ск
ышт ы
 ал ардын
 кал ды
уу с
ү үнү
 м ай
ир и
 саяс ий
 жөн үндө
 жары ял
 өз ү
ө өн
 м ындай
 Е в
 Орусия нын
ер ин
уу чу
икт үү
 эл ек
ат кан
 комп ания
 милли он
 ч ар
 т ышк
еч е
 к аза
ын дан
м үр
  Ф
- к
 ж урналист
ас ынын
ак ка
 А КШ
ө к
ол ор
 да яр
 арк ылуу
р ел
с из
а х
 бол бо
 тар ма
ал ан
- А
 о п
 ай рым
ыкт ы
уг у
 президент и
 дол лар
оск в
 бий лик
а ң
 а я
ц ин
с ын
ерди к
 э э
 тур ат
 м л
ов а
 дел е
бек стан
- т
к о
 б орбор
 К азакстан
 а д
 к үр
  ли
ө гөн
ас ына
 саяс ат
 эк оном
де ги
-жыл дын
 кел ип
ган ын
 кат ар
он ун
 а га
үг ү
 ор ус
гил иктүү
 каб ар
 м үч
 Ж огорку
ерл ери
Б уга
 э ң
 кө төр
 н ече
 р асмий
ин г
 бир инчи
е х
б үз
ов дун
и шт
дө гү
м ер
ил ген
ция лык
 кат ыш
 атк ар
өл үк
 с еб
л ор
 А б
ый ыл
Өз бекстан
 У л
 кыр да
 ч ект
 кыл ып
 бер ип
- с
 к им
ци алдык
у бл
ер т
0 0
Аз аттык
 ишт еп
ган дар
ыл ык
ө тк
 ком ит
 К ытай
 айып т
ш ыр
ст ит
в ар
 с т
 турган ын
б ей
гө ө
аж ик
 Бишк ект
 жак шы
К М
 жүр гөн
 т ий
 коопсуз дук
ю л
ан ды
 б уз
 ч ог
 с уу
 кылм ыш
 эс епт
 күн ү
 ж ең
өм өл
лар ды
г ыл
 б уга
т ин
  он
- окт
 ма ан
 ат айын
ал ат
ок ур
 т өл
ң г
ди кт
 Кең ешт
 т үн
 ор т
 төр ага
 кызмат ы
ен ин
А й
1 1
етт и
 министрли ги
г инин
ө тт
 ми г
 А к
 көз өмөл
 жалп ы
 сүйл өш
 эм не
 Б ат
т ир
 п ик
ган ы
шт ур
ү шк
о п
ун ан
ер г
етт ик
А к
 өлк өнүн
д үк
- К
 каб арл
 дүйн ө
 жер де
 мамлек ет
 с ыр
ок ум
  дары
 арак ет
 иш и
 бар дык
Ош ол
н ы
 т ы
ажик стан
 коронавир ус
- С
ек е
п ай
ог у
 ком ис
кт уу
ал а
ек ш
 Кыргызстан да
ес п
 ил икт
мө тт
  З
20 0
 туу ра
 с ын
 кур ул
р уп
ым ында
 м еди
 С адыр
 ишк е
п и
р ат
гө чө
г уст
 бер ди
Б ишк
 бол чу
- ч
ам ил
1 2
ер с
 кең еш
 ул ан
 м ект
 ко з
л ер
 баш чысы
 ак ча
 келиш им
 кар ата
ду ктан
шк а
 бийли кт
 ба гы
 эк сп
 да й
Алар дын
 сакт оо
 ка ч
У ш
 Т үрк
 сун ушт
 жа г
 ач ык
б ы
аб р
есп убл
лан ган
ы я
 т ын
 жат ышат
 б еш
чыл ык
 пр окур
 эл ект
 айма ктар
-б үл
 со циалдык
ат ур
ы ктар
 и м
 ар ыз
 кош ум
Аз ыр
лар дын
 с аны
 аб ал
ол гон
 айт ымында
ян вар
 Бишк ек
П резиден
 башт аган
 оор ук
1 4
ыл ат
 жашт агы
 ую штур
аар аз
 с алуу
ун дай
КМ К
 кыл ган
 бас ма
ет инин
 М оскв
 ж ан
 к иш
 ба ары
 д об
- э
 парлам ентт
ыл м
 пик ир
1 8
ер ге
 кур ал
алар ды
  уул
 ж ог
 ч аб
 с ап
 токт от
-м ай
р и
 э н
ары х
чи си
 акт ив
Э м
к ө
с ына
т үү
о зи
- ап
 эр кин
  ди
 кам сыз
К ыргыз
 обл уст
-ап рел
 төр т
 кырда ал
 д окум
 н аараз
 тер гөө
 өт ө
ө кт
ди м
1 6
м ен
 жер гиликтүү
 мак ул
1 7
 т и
ес ин
 т ел
 кел тир
ь ер
 ар асында
 мур да
 жол уг
 О ш
 белгил үү
 көб өй
 б ан
 м амил
 шаар ында
 к ы
 өт үп
т ам
ран тт
ба д
б из
 алын ган
 кою л
2 5
г ин
тк а
еб и
Э л
 күч төр
ал ам
 Кеңешт ин
ев р
 м екем
 министр и
Ан да
 к еч
 Аз ия
 ж үз
га ч
 иш ен
-А бад
 А р
 мил де
 карм алган
 д ал
 маалым аттар
 ай ында
ут ин
ра ция
 адам дар
 биз дин
ал ь
 жай га
  Өзбекстан
 күр өш
 та ас
1 3
 тап шыр
Ош он
атт уу
 бо ш
е д
 с ист
 м өөн
ар га
 орт ос
үш ү
үл үп
т ик
б ул
 к ыргызстан
ам а
с у
 с ыя
 масел е
 бар ып
 кай т
рем ьер
с ан
артт а
ю у
 аск ердик
уун ун
дар ын
 ат а
 жетек чил
 с үр
 өк мөтт
 мил иция
 та ж
У краин
ар дык
а дагы
 кар ап
 бил им
 ат алган
 жүр үп
 а ген
 т арых
кт ын
 ак ция
ишк ен
 сыя ктуу
 с п
ор тт
ех н
- Б
с ык
 тарт ып
 ан дан
 ок уу
үшк өн
тк ени
 тол ук
ия да
у д
 та ан
 жаткан ы
 тын ч
 бол ушу
Ан дан
 аш ык
 кор к
- ав
үн өн
 б үт
 з ар
 в иде
 кой гон
ер ен
шт ыр
 алдын да
 Ев роп
-ав густ
- но
А р
 жыл дан
 коом дук
да п
ын ча
  ун
Э к
 түшүн дүр
 ишт еген
-и юн
 комис сия
т ык
 к ем
 чаб уул
-м инистр
 бас ары
а ев
 Б ир
 ө р
 ли д
 ти еш
 башк ы
- январ
үр үү
А га
ал ары
с ун
 жары я
 Т ажикстан
 элект р
 ой л
 төрага сы
 болгон ун
екш ер
 соң ку
 т ак
о ш
 мл н
 түн кү
ар ат
 б ыйыл
 кор руп
 а ж
де п
2 4
 ук ук
- дек
 э т
 район дук
 о юн
 Н ур
 аген тт
 п ол
Кыргызстан да
 жар а
-дек абр
 мыйзам сыз
д үз
ээ н
 сат ып
 айт ылган
 чы кты
 сал ын
  ра
ул уп
 эк инчи
 жет к
 тур гун
д огон
 өлкө дө
 бийли ги
-с ент
 Б орбор
уу лар
ыл тыр
 ич ки
к ын
 уш ундай
о ор
 К ар
 кол доо
 т ең
 билдир үү
 ө мүр
ра ил
ж ан
 көрс өтк
 у з
атт а
де мия
М ындан
 арак етт
 жыйын ты
стит у
 өз гөчө
 т екшер
 д ин
ек ен
 п ро
 доб уш
 коз г
 ак ыркы
 коом чул
 ил им
 то б
чыл ар
лан ды
 ул уттук
ус у
а ст
 аш уун
-окт ябрда
а г
 А й
дө й
инде ги
м ак
 с оо
к ул
 т ам
Э гер
и ч
ыкт ын
 мүч ө
 де йт
ч ал
 министрли гинин
ү ст
 өн дүр
иг ин
 аз ыркы
 ж еке
 ук укт
о ган
ем ир
 тышк ары
д р
 ба з
А КШ
ог рам
Ош ондой
5 0
 бер ет
 башт алган
 ал гач
 өкүл ү
ал ал
 маалымат ына
 б үгүн
М а
 к үт
тк о
о ст
 о ң
 мүмкүн чүл
 кер ект
 т ехн
кт ылуу
 и шкан
ң үл
 та кт
- п
б ак
амлек еттик
 берил ген
 б ур
 Ул уттук
с ак
ерлер дин
 күн дүз
 жум уш
ози ция
 ал а
ур да
 жыл га
-и юл
 өз үнүн
 ош ондой
атт ын
 таас ир
- ф
 кай сы
 шаар дык
 кө ч
 жетк ир
ды ктар
о з
ай ым
г ынын
м ыл
ды гы
 түнкү сүн
Т ал
 экен и
 ан да
т ип
 та аны
шт ы
 сог уш
к ат
 П утин
 белгил еди
 кө ңүл
ңг ээ
тт ү
 өкүл дөрү
 де ңгээ
 прокур атур
 к л
и ц
М ындай
д огу
 т изм
 маалым да
атт ары
дер дин
ел үү
р ит
 актив ист
ю м
 ар ал
", -
 жаг дай
 в ир
з раил
  ге
ор м
10 0
тк е
  л
 с ый
аб ай
 президентт ик
У л
 кел ди
 жаз ды
оган стан
 негиз ги
 сист ем
етт е
 К ор
 ты юу
т и
ат ка
 кез де
 соо да
Кыргызстан дын
 бал а
де ген
 б ек
Ан ткени
 миг рантт
т он
2 2
 меди цин
өр ү
с үндө
ук ка
ээ р
 зар ыл
 жат абыз
 бөл үм
 жетек чиси
 иш ин
 пай д
тт ер
ел ен
 К он
Президен т
 өз үн
у шка
тк өн
 та ш
 кай тар
у тк
 бар ган
 пай да
 с алган
 кый мыл
 эконом икалык
- Т
 эн ерг
 ком м
 учур унда
 жолуг уш
а ч
д ж
 бер е
 к ен
о олор
 к үй
тер н
 ал ууга
 дай ын
н ун
 бош от
к ция
 ай лан
ду м
г ел
алар дын
Ы сык
 б у
 ал ма
 ав то
  оо
 ф он
 башкар м
 өн үкт
л ам
е ф
 жаз ган
2 7
А т
 из ил
о ол
лар га
 жар ым
2 8
2 3
ил үү
 к етти
-К өл
 ко тор
ия т
им ов
 ж огорку
гө й
-м артта
н а
т үр
 кир ген
 мак сат
  х
 Бат кен
 кол до
 а ди
 корк уну
 бал дар
 ишт ери
б ол
 ал ка
им ди
ас а
 жооп кер
 ур ук
 с аб
Ошон дуктан
ашк ы
  ир
р ес
 ал ат
 А н
 мөөн өт
 уул у
ограм м
 тар аб
 ор ган
  ири
олог иялык
 облус унун
 жаз ылган
 мект еп
 сог ушт
 эск ер
э р
 ч ын
ег инде
олог ия
 оп ер
өн ү
-май да
-ф евр
 бас ып
 жаран дык
дим ир
 Ж ээн
р д
ал ап
ү б
ла димир
 докум ентт
  шт
 тышк ы
 өл үм
 облус унда
да ш
г ине
ар и
 уба ктылуу
 себ еп
2 6
Ж огорку
 жаб ыр
 И н
 к ит
ект е
К азакстан
ал дуу
 т үшкөн
 Кыргызстан га
 ф акт
 пол иция
 Украин анын
 багы тт
 бел ги
 ж иб
 аж ыр
 кан ча
 кызмат ынын
 топ т
 ал ты
-август та
 депут ат
алар ын
 Э р
 белгил ен
 ук раин
 кыз ык
ак ет
-бүл ө
 кылм ышт
б өй
аб ы
 ад м
 жоопкер чил
о ону
 у бак
 маан илүү
 оорук ана
 ш ект
 п ремьер
 ко дек
 башкарм алы
ем б
 миң ден
чүл өр
 к ап
 бай к
У ч
-апрел де
 сал ам
ч е
  үст
 б ейт
 кийин ки
 кошум чал
б ейт
у ктар
ар д
 ж ый
 кө й
 Э л
 аск ер
 жа кт
 ш арт
л ары
 ар мия
Азаттык ка
 иликт өө
ас ындагы
м он
 ал арды
 корруп ция
К ор
р ор
ан демия
уг ун
 Б ак
  C
 чейин ки
 болгон у
 кат уу
 ж оо
ба ган
ит ардык
 ре ф
 са ат
 негиз инде
 В ладимир
 баш ында
ар ий
ия га
 Б ай
 эр к
 с ок
ет р
 Украин ага
там баев
г ар
 кал ып
 кет ип
ябр ь
-но ябрда
 алка гында
 кел е
 оп п
р он
 сун уш
 президентт ин
  ол
 п лан
 деңгээ л
с инин
ар ынын
 б ю
 ак ч
 кызматк ерлер
ск ий
ишт и
 кал а
 ор усия
в ок
 кайр ылуу
ор ун
 эл дин
 эл дик
2 1
в ест
 и й
ок рат
Орусия нын
с ин
 журналист тер
-июн да
У КМК
19 9
 ра ди
 пай ыз
 к уб
ө шт
ак ч
 ар т
 аб дан
 урук сат
 жаш оо
 б ат
 көй гөй
 м ун
с ул
 башт ады
Уш ул
ог о
үшт үк
 шайлоо го
 м ындан
о онун
 кө л
 өн өкт
ан дык
 ма ш
 дар ыл
у ма
ым ал
чул ардын
өм өн
ы ң
 К ур
с үз
 с ез
а дан
с ө
 бейт ап
 айт ылат
 адам дын
 кат ышкан
 та шт
 кар ж
ес ине
; 

 ма дан
дар ына
 жар ат
үү чү
 кабарл ады
  ыкт
 ка ал
 со тко
-январ да
у х
ды ктан
 с айын
ом бул
 кыргызстан дык
дар ынын
  ый
 Ж алал
Эм и
 жарыял аган
м өн
ер се
ат ый
га з
ү үнүн
-декабр да
 бер ен
 көр үн
 Жээн беков
уус у
 кызматк ерлери
атый ж
Ө к
еб из
  ык
ре ж
 жат ып
 кат чысы
а ктар
 ө ттү
ө өлөр
ат ор
ел ар
 жаш аган
  уу
 т ез
ам м
 кам акка
2 9
 т өмөн
У У
о д
Б ат
г ек
 ал тын
 мл рд
ит инг
б ир
 талап кер
ак цин
 пайд алан
д алган
Ма алым
 жайга шкан
 мур ун
д ерди
 көп чүл
еспубл ик
 бас ым
 н ерсе
 көр үп
 аш ыр
ыл ыш
етт ин
 чет ке
 эск е
V I
 өзгөр т
 О оганстан
 ав т
 сал ып
 ор дун
 ил де
ө г
үй ш
ишт үү
 жең ил
Ан ы
ент арий
-сент ябрда
 коркуну ч
е шк
 ор гандар
 тиеш елүү
 ж ап
ел ерди
Уч урда
ив ерс
 ар ада
 И ран
ө гө
 тараб ынан
 алгач кы
ст р
 у ча
 сот у
 ш ек
 жөн өт
ал им
-ч ар
ы гын
 т уш
 өткөр үп
 катт алган
 д ир
ер ман
өр үн
 айма гында
И М
 чог ул
 к р
 м уну
 опер ация
 каб ин
 күн дө
 комм ентарий
 ар ы
бай т
 к аз
 талк уу
иб из
ээр лик
 белги сиз
 милде тт
а шы
 а чыл
 дем ил
 авто уна
атт ан
рам п
 депут аты
 о ору
б еген
Б үгүн
 азыр ынча
иверс ит
ез гил
 ин вест
 тарма ктар
 наараз ылык
ь я
 э реж
 жа ктан
м о
л оо
 баш чы
 коопсуз ду
-июл да
 тур укт
 тап кан
 м ат
 ре ж
ес инин
 жер ге
 о б
 А тамбаев
 д ен
уст ун
 б ет
Биз дин
 в акцин
 о т
 жаз ып
o n
 милли ард
 з ы
ий ин
 дир ект
  I
 бю дж
 к ыйын
п л
ч ки
кт агы
ылган ын
О р
с үнө
 чакыр ды
 Европ а
 т ов
 ич инен
 к еп
үл дү
Бишк ек
4 0
дө гөн
Т үрк
 п андемия
 жыйын ында
 р акет
ң из
ар к
 Кыргызстан дагы
уул ук
 эр т
-э н
п өй
 чыгар ып
ум төр
 башт ап
 таж ик
 түр дө
ды гын
ем п
 ун иверсит
г ерлер
алар га
 сүйлөш үүлөр
 кар анды
 караж ат
ул ат
 ин ф
Ө л
 м езгил
 т ан
 жиб ер
ир үү
 б ылтыр
 ав тор
 сан кция
 ор то
-жыл дан
 окуя лар
м ок
 м уз
тт ин
 жыл дын
с лам
 түз үлгөн
 сыр тк
 ө с
б ү
ил ер
 чы га
 кал тыр
 тур г
М инистр
ди ги
 тил к
аң ы
 кар ашт
 ыр аст
ал ында
М ис
г үл
 кир ип
 М ам
 лид ери
 ая кт
 Кон ститу
алуу да
и д
 АКШ нын
 медицин алык
Аз атт
 кызматт ан
үшт ү
 ади ст
ышк ы
х ан
 к ым
 а ян
 ук угу
тт и
 д ээрлик
 м итинг
б ур
 өт үн
 билдир ип
ш у
 та г
 коюл ган
Э ки
.. .

 карм ап
уу чулар
 кошумчал ады
 эл чил
е ге
 к уу
 түр к
К ар
ел ери
 пр ограмм
ал дар
Э р
 учур лар
e r
ма з
 шаар ынын
 кур ам
тт ан
укт ур
 тарт кан
 И зраил
 сп орт
ам ан
 сур оо
ар ына
 дал ил
 мат ери
 тер рор
 ад вок
 ди пл
 масел еси
 депут аттар
 Бишкект е
 ортос ундагы
 мак с
 орусия лык
ист тик
ли кт
ашт ы
 мүч өлөр
 көб ү
К ийин
ат ив
  Ысык
атт ардын
 жет иш
 масел елер
-Б и
 зы ян
 бо й
 ради ос
Ш К
 ишт ет
ери шт
укт у
 Т аш
 өл түр
 өнүкт үрүү
 ок ш
ай н
 Орусия га
VI D
 с өө
O VID
Мис алы
) 

 К ыргыз
дор дун
 кес ип
 кан тип
  газ
аз ар
 ж о
 У КМК
 талк уул
Ул уттук
 Аб д
уу дан
 т ран
 чыгар ган
 аск ерлер
С о
 кал ат
 виде о
Б ий
ев дин
ция нын
ж ол
 ба арын
чул ары
 өн үг
ыс ынан
Азатт ыктын
 бар акч
ег ер
дүү л
 жет и
 тел еф
 кайра дан
кт ык
 кою п
ин а
ат ра
 жас аган
 к ээ
ге мен
өө гө
ал п
ил ип
 а да
 караж аттар
 көр гөн
-февр алда
у ден
ей с
ол ь
 район унун
И н
 өкмөтт үн
ыр м
ас ынан
 болбо йт
оо чу
акт а
 парламентт ик
ол ду
 та ң
ч алык
 т он
ей ш
" К
ор лор
 жыл ы
 дин ий
 а с
ил ет
 С а
 кым б
  үл
! 

ем пи
 ка дам
 парлам ент
Б ыйыл
 ин стит
 эконом ик
 жог ору
 с ында
ыл бек
 эск ерт
 к ул
Е в
 тур уп
 Э м
 белгил еп
ул тан
 К ам
 н атыйж
тк ен
 бас ылм
б уз
ыр ып
 ш артт
 м екен
  аттуу
 кар ан
ерл ерди
 кошум ча
г ындагы
е я
  Ө
 Т рамп
б етте
де л
Ан ан
 район дор
 к үб
 кыл уу
 бол о
 күн дөрү
 ба ян
 жарыял ады
т ай
 т е
 мамлекетт ер
С үр
 ми с
М ур
ы б
 партия сынын
г ынан
 ф ин
А б
а стан
ын ы
 бан к
ч усу
 к ыс
уг алим
 бөл үн
ин и
 Т ок
инист рация
 өкмөт ү
 макул даш
а д
 сотт ун
 мамил е
 Казакстан дын
 курул уш
 м эр
 ир ет
 сыртк ары
 шаар ындагы
 максат ында
 көл өм
 ыкт ымал
 долбо ору
 аныкт алган
г у
 та ян
 Ч үй
с ында
ол д
е дер
ж ы
ас п
 кызматк ери
ар ак
 алар га
 үй лөр
 адм инистрация
ер бай
 Б ашкы
 м үл
 з омбул
 бийликт ин
 катт оо
ан дын
 ж ерлер
 айткан да
 облуст ук
 ай ынан
6 0
б ия
 кар абай
ат р
 А лек
 кыл ды
 оорук ан
 с ай
 ч емпи
с уна
ан ас
 адам дардын
 миң дей
Ай рым
оор он
, 

К ытай
 кыз ы
ушт у
 киш инин
 Б рит
та ж
 ө ч
 улан т
С еб
 дүйн өлүк
ес инде
 тов ар
 вир ус
мат ов
 ортос унда
 жарыя ланган
ул ду
 дем ократ
өтт үн
л им
ия дагы
 ап та
С а
 мамлекетт ин
ө өл
 аб алы
 ст уден
 мүчө сү
 бол уш
 биз ге
 а г
 т еришт
ол уп
 көрсөтк үч
 жок ко
-б ерен
елен ский
й р
 ук уктар
-С и
 б ү
ум ан
 талап к
к өм
м ин
 ж уг
 тап та
 чечим и
үндө гү
 кызык чыл
 түш үп
 эм гек
алам аттык
к ор
 кыр сы
 телеф он
3 1
 түз гөн
 ээ л
ак ция
 Б ек
п ей
ан ган
 көп т
 ап п
т уп
 ай доо
  №
 К ара
 бар аткан
 салын ган
ор ма
 м етр
ил ди
 алган ын
 биз н
ци он
 Т окт
 бийлик ке
 кызматт ашт
 козг олгон
 жа кта
өй р
 Ал маз
т ал
 кодек синин
 у г
 тарт ылган
ат ып
мат ы
лар ын
ев а
 тел ек
Себ еби
ия сы
 реж им
 с из
 с айт
 К иев
 жет ект
  ю
ыл т
 кө чө
 бер үүгө
 өз үнө
Ж ер
 маалымда ды
баев а
 опп озиция
ан иянын
ооп суз
м ун
 с алык
 белгил еген
иц е
 Б елар
 жет кен
 өлкө дөгү
м ушт
 м угалим
 э п
7 0
 Г ерман
 М амлекеттик
 кабарл аган
ук ул
 маалым атты
 уюм дар
 башкар уу
аш ып
 эс еб
акт ы
 Тажикстан дын
Сүр өттүн
t i
 кес еп
 жабыр ка
 ал ыш
 эксп ерт
К ан
 Орусия да
 з ор
М ыйзам
с ек
 ишен им
бир им
  зам
ң ыз
 байланы ш
и ф
ылм ыш
 к азак
ал оо
 комит етинин
Тал иб
Д ем
 Кытай дын
ербай жан
 М атра
ейс б
ро бирим
ай ы
ра з
 калган ын
 кар ма
 бо ю
 кир еш
и стан
дө п
 карм алып
-окт ябр
де шт
 бол орун
тт а
 М ак
 кит еп
 м үнө
-жыл дары
иг ине
 курал дуу
 Бай ден
 кел ин
 каб ылган
 өлкө гө
 кы ск
 Таш иев
Д үйн
 п л
 уюм унун
 жар аны
 болбо й
Бир инчи
 ч ыр
с иянын
лар да
 ма алда
 М ир
 күч өт
үкт өр
 жаң ж
 сур оолор
 Бишкект еги
 кач ан
ик ке
 кур ч
 кеңеш инин
ас с
8 0
 Москв а
ал га
үл өт
 сок ку
дер ге
 О р
 отур ган
 с егиз
 кал к
m a
ом п
 кый н
ал ай
ик кен
а шкан
  T
ог уз
 сом го
ашк а
ю з
 албай т
 сог ушка
 б ут
 сал ышт
 жүр үш
 жаран дар
б и
ес к
К ыз
 эм ге
 иш м
 долбоор ун
 Р еспублик
 ордун а
 б ей
 шайлоо до
 белгилен ген
ь ю
ист тер
 жак ында
Б ал
 кабин етинин
М оскв
Ж ар
ат ыр
 С оорон
 жыл да
) ,
 Д он
 жас ап
ешк ен
дыр уу
 мект епт
о ж
ет ке
өө к
ал ышы
 н ерс
 ком анда
 бөл үгү
 кой ду
 чог уу
д ия
 айт ылып
с ынан
үн дүк
 кайр ылган
 изил дөө
 салам аттык
 убак ыт
  Ю
  ыс
 р еспубл
орб ору
 ый гар
 кур ман
баев дин
 топ тор
 бер иш
ду кт
 өт өт
 аял дар
 ж ума
 ч укул
 өк үм
ал дын
М унун
утт ар
" .

ар ш
 б орбору
ис и
А та
 б екем
дөр үнүн
 токт о
 сом дон
Ж аңы
-жыл дагы
укт ун
ект еги
 ин терн
 уба да
 эсепт ейт
 жаш ап
 Бишкект ин
 ж етти
 керект игин
  үз
 ай да
 бир гел
 Кең еш
 кес кин
Р асмий
ов ду
 Т ур
 жер ден
 алын ып
Ө ткөн
 жол до
К өп
ол от
 э гемен
 кат а
Аз ыркы
ар ында
 кор го
 директ ору
ди гин
 тар та
аш а
 бу йр
уус ун
Кор онавир
 бар ат
 кайр ыл
Бат кен
 телек ан
 билдирген дей
ан ып
 жара ат
а гыл
Б орбор
ъ ект
 ( "
 иштер ин
 уюм у
таж ик
М амлекеттик
тт ик
 тар аткан
ек ке
 киргиз илген
 жак ка
С С
р ый
 башкармалы гынын
ак ан
 жыл дык
ект ин
 ишт и
оң ку
Ак ыркы
 про ц
 эл ге
етт ер
 жаш ыр
 алын ды
а ары
д ери
 тур ак
аттар ды
р уз
 м ыкты
 C OVID
 о кт
ут бол
 в ице
УУ нун
Эк инчи
 н ач
 Украин адагы
 каран тин
Ж ак
 кар ыз
ес с
ар да
 көрсөтк өн
 турукт уу
ел ип
 С ир
 б өгө
ра ф
- тажик
 кел еч
 масел ени
н ый
 А ск
 ан дай
 та ап
 ан ан
М екем
ай ып
 коронавирус ка
 оорукана га
ол до
 э ст
 инвест иция
 Кам чы
е ма
 күн өөл
 отур ум
а ак
к ап
 т емир
 айт ылды
 баш алам
 жаран дары
мер икалык
ү ң
ыр т
 ко шт
 к үм
 катт ам
 мекем елер
 жыйынты гы
 жыл дары
 маалымат ка
 арак ети
... -
  үм
Э Б
 кал ыб
икт ер
 жас алган
ция га
 сүр өт
ку м
 жүр өт
уб уз
 турган ы
 б л
 туу ган
о мат
де м
 ар асындагы
 ош он
емб иде
шт и
ас ыз
 сөз дөр
утт уу
А Т
ук кан
 өн өр
ө б
 ко ң
аган ын
 ак ын
оопсуз дук
с ам
 саясат чы
 кыргызстан дыктар
ер в
дыр ып
 таж рый
т кан
 тоб у
 кар алган
 ак ы
 чыгы ш
e s
ж ин
 ат ы
 тарт ип
уд ья
лар ында
 З еленский
ел ген
 С о
Ош ент
ал из
 Т ышкы
 ат ындагы
 калыб ына
Ж алп
айл оо
 Н арын
 ст ат
 Кор ея
 ба асы
 кайр ылып
 агентт иги
9 0
 м о
 туу л
 т ут
 ч ара
ас ым
 түз өт
-б ир
 а э
 жаг ынан
Б ылтыр
и ң
ал ыш
 ма га
 он догон
 кайт ып
ө шк
 жа ан
 адам га
 тий гиз
 шт аб
i n
иг инин
 укукт ары
 бир ге
 кабар ланды
 кар ш
С оңку
 мен ин
 ар га
  уна
 им ар
Д еп
т е
ак истан
 бар а
сыз дан
 сотт ук
 чемпи он
 ж огор
 мыйзам га
 чакыр ым
м ек
 көрсөт үп
 камсыз доо
 н асы
 жүргүз үп
з а
 карм алды
5 00
 м анда
 с тан
 тарап туу
 кор гон
ылуу да
А М
б ан
 к у
 чар ба
 Өзбекстан дын
 ай л
 иш ине
 Бир инчи
 с ум
 а ң
 сый л
ар ип
 айт а
 мүмкүнчүл үк
е де
п айт
 ба жы
 б ак
 Т ал
 М инистр
 иш мер
 жал гыз
 комит ети
 кем инде
Маалым атка
 то ск
у стан
ышк а
рем л
 көпчүл үк
ң ар
 т огуз
из а
 баш ынан
 ка гыл
 чект өө
с үнүн
 ж үк
 күн гө
н от
 т аза
 күн дөн
 бер үүнү
 түз үп
да ган
 өтүн үч
ы ч
алар да
 И чки
 аск ерлери
 түр мө
 ма шы
 Украин а
 бийликт и
Өл кө
 Министр лер
 инстит ут
ов го
 ажыр ат
с унда
-т үл
 чыгы м
гун т
 катыш уу
М уну
 өлкөлөр дүн
 тиеш еси
ч ынын
ээ к
 көб үр
 Жапаров дун
 ая бай
  ы
" )
ст ыкт
ли ги
 миң деген
 з ав
 чыгар уу
 дар оо
Т ажикстан
 компания сы
  A
К ур
 алган ы
Деп ут
 жол дор
 жаткан да
 И с
Өк мөт
 таб ылган
 эк с
 түш үр
 жум ш
ti on
Украин анын
 там ак
ай к
ет ин
 түз үү
Б и
у бай
 бул актар
 күчтөр ү
яс ий
Бишк екте
 кур уу
 министр инин
 кр из
ар кум
 ко ё
ц ен
 жас ал
 өзгөр түү
д ур
 с амм
 прокуратур а
 демил г
 т ай
-жыл га
 кеткен ин
б ет
ым а
Өз гөчө
 сүр өтт
ул уш
укт аж
 наараз ы
ен тке
ыкт ан
 тынч тык
б өгөн
ек ция
ел ь
 кө мө
 мүнө з
 тоск оол
 өлкө дөн
 парламентт ин
 энерг ет
ян ы
 жак шыр
 каранды сыз
  S
ус ул
ел ин
 эк өө
 шайл оонун
 берил ди
 ар н
укт а
30 0
 үй р
 катыш ып
 карашт уу
 куу гунт
АТ О
 т оо
 со з
 көрсөт үлгөн
 сакт ап
 жог от
л айн
 Г үл
 Алмаз бек
усул ман
 м уктаж
 кең ешт
 киргиз үү
ат ында
 масел есин
уман итардык
 п озиция
 эксп ер
 им арат
 мүчөлөр ү
- Ж
из ация
 деген де
 өткөр үү
 алма штыр
лан ып
 облус ундагы
 көпт өгөн
ол уу
үн чү
де ди
өөн ү
 ол уттуу
c a
 билдир үүдө
рат ег
 орган дары
 карж ыл
И ш
К ай
 кө мүр
 ок уп
 тран сп
  Ү
үйш өм
 аэ роп
ч ам
 ба а
 М а
б ар
 со ол
Ал бетте
 э гер
 үчүн чү
чыл ары
АКШ нын
 кол догон
 аз ык
 кызматт аш
 күй өө
 об ъект
ыл ышы
 докум ент
 маалыматтар ды
 энерг ия
ыл а
 айыл ында
 аткар уу
э л
 п асп
 ма ж
 жыл ды
 т аз
аш инг
 тарап тан
он дук
 чы ң
 бал дардын
 тол угу
 караж аттары
ор дун
ктар дын
 ф утбол
си х
e n
ес е
 жалп ысынан
 ата анда
Ч ек
 миң ге
 Ш т
 илим ий
 бер бей
 сын га
ал и
 ж окт
 жар ак
ав аль
 Ак ылбек
 маалымат ы
 Ев робирим
? "
у шк
ө өнүн
 сал ды
 уу р
 таг дыр
 бол ууда
 де к
 а ка
 чечим ин
 партия сы
емп ир
 Соорон бай
 көбүр өөк
 ж уктур
 шект үү
 бой дон
 Матра имов
 с удья
гы м
 мамлекет ке
Э С
 ч ал
ый кат
 Түрк ия
мөн стан
ан д
 жашт ар
 пикир ин
 армия сы
 миг рация
 маш ин
 өт пөй
Мен ин
 комит ет
А С
ра д
ект ер
 Т емир
 жаң ыл
оном икалык
 К ылмыш
 колдон уу
 м ед
 д оо
 ма егинде
 токт ом
өтт ү
 мун ай
- дар
 т үнү
 ат кан
 тур м
 эс еп
 тург уну
 ч өйр
Ат алган
" Азаттык
3 5
 кан чалык
 текшер үү
 таян ып
 т ир
ект ен
 У юм
a l
 бол мок
 А с
аны ш
ыш ууда
 долбоор лор
 аймактар да
  ген
 кыл ат
 кам а
 кам алган
 сүйлөш үү
М ас
б у
 ө ң
ыкт уу
 активист тер
аваль ный
өл гөн
 район унда
Эгер де
 оо ган
г ул
гы р
 ор нот
 түр дүү
 Ф ран
ат ын
 ай дан
 келген ин
 ишк ерлер
л уу
 кор ку
 адам ды
 тон на
ь ян
 мөөнөт ү
 и де
Б ашка
к ов
о йт
 а мерикалык
 ай га
 Б ор
 кызмат ка
 насы я
б огон
бо й
 дары герлер
 милде тин
 К уб
л ав
 к ин
 болгон дуктан
 жетек чи
 к ил
 чект өөлөр
 те атр
П арлам
к им
л ап
үүлөр дү
 та стыкт
 кий им
ер н
 бил ген
 ат ып
 Б аш
 ук угун
 А ли
 ма алында
 оо з
 Брит ания
 Камчы бек
a n
с ен
 кал са
 атк ыл
 из дөө
 ж үй
 ай лык
 тал аш
 Борбор дук
 айт ууда
об ил
е ж
ө бүз
дар дан
 то олуу
 берил ет
атив дик
Коронавир ус
 түшүндүр мө
 арга сыз
к ар
 к үз
 кел ат
 кош о
 Бир имди
ага з
 убак ы
 эрк инен
ыр ган
 кет ет
 ап рел
 себ епт
 кач ып
 тарт уу
 бир өө
ош мо
Н егиз
 себ еби
 Ө мүр
 кар а
 өз бек
 ф р
Ор ус
М амлек
 ишт ей
 парт иянын
 жакын дары
 көтөр үп
 м ей
уг уна
пи ада
 эрт ең
 адам дарды
ктар ды
ит и
 ав и
 бөгө т
 к алуу
ер инин
 А ка
 алдын ча
 тынч сыздан
 ойл ой
 бизн ес
 т үп
ес ур
 кабар ланган
у шкан
тт уу
 эк ст
 жаз а
 он лайн
ерен дум
-п резиден
 коррупция га
 баракч асына
 тий иш
 дипл омат
К он
Ү ч
 К ан
дөр үн
 бүгүн кү
К У
 көрсөт үү
 төрага сынын
АМ АС
 маалым атта
 ыр а
р ист
 мектеп тер
ашинг тон
 с ар
 башт алды
 колдо п
ам ат
 кат ышты
 кыл ын
 чакыр ган
 тарап та
 сөө гү
 Республик асынын
 маж бур
К умтөр
ам ир
 А сан
в ан
 д рон
 болбо со
 өзүн чө
 жуг уз
з ак
 бол жол
 чыг ат
 Д үйн
 алма ш
ас ст
 мен и
 сал ма
И зраил
ам ин
 коргоо чу
 ба алуу
 өз үм
 түз үм
 кандай дыр
 маалымда ган
 эскер тти
 деңгээл де
Ев роп
И ран
ө гү
 к агаз
ур т
 ак ыр
М ына
ас ма
 р есур
 компания сынын
 тий иштүү
М ил
ен ко
 м ел
 мен ч
ышк анын
 өнөкт өшт
оо до
 де ңиз
чил ик
 айма ктык
 ст ратег
 өр тт
с ей
 с ел
 чыгар м
 им п
емб и
 п ул
 кар аб
 ая гына
 с алым
ап он
 жар аша
быз ды
беков а
үйшөм бү
А йт
М анас
Талиб ан
кт ары
ил им
үкт ү
 эмге кт
у ң
 б ары
лар ынын
гөн үн
 то с
гө з
 чыг уу
 май рам
арт ам
 жан дан
Эм не
кул ов
Мур дагы
ан с
  го
Т ер
ө ң
 Т үштүк
 аз айт
 жөн гө
 аныкт алды
 Бат ыш
 кырдаал дар
 өмүр үн
ал аган
 г уманитардык
 ге ктар
 тер ең
 Аз ербайжан
-С уу
үг үнө
 уба гында
 багы т
 м ин
 с ек
ей л
 С ултан
 реф орм
 н и
еш ет
т ерди
 к ана
 м усулман
до й
укт агы
 таан дык
 ык чам
Ж урналист
о ч
 т үй
 жар аткан
 келген де
т ен
лар ына
 фон дун
Ошент ип
Б ашкы
 т утк
 кел аткан
 аймактар ында
 укукт ук
 террор дук
g e
 чыгар ма
 кылмышт уу
 п сих
 ишк ер
 мигрантт ар
м и
-ж аза
 тал иб
 жок п
