{"\n":0," ":1,"!":2,"\"":3,"#":4,"$":5,"%":6,"&":7,"'":8,"(":9,")":10,"*":11,"+":12,",":13,"-":14,".":15,"/":16,"0":17,"1":18,"2":19,"3":20,"4":21,"5":22,"6":23,"7":24,"8":25,"9":26,":":27,";":28,"=":29,"?":30,"@":31,"A":32,"B":33,"C":34,"D":35,"E":36,"F":37,"G":38,"H":39,"I":40,"J":41,"K":42,"L":43,"M":44,"N":45,"O":46,"P":47,"Q":48,"R":49,"S":50,"T":51,"U":52,"V":53,"W":54,"X":55,"Y":56,"Z":57,"[":58,"\\":59,"]":60,"_":61,"`":62,"a":63,"b":64,"c":65,"d":66,"e":67,"f":68,"g":69,"h":70,"i":71,"j":72,"k":73,"l":74,"m":75,"n":76,"o":77,"p":78,"q":79,"r":80,"s":81,"t":82,"u":83,"v":84,"w":85,"x":86,"y":87,"z":88,"{":89,"}":90,"£":91,"§":92,"©":93,"¬":94,"­":95,"°":96,"²":97,"³":98,"·":99,"¸":100,"º":101,"¼":102,"Ç":103,"Ñ":104,"Ö":105,"Ü":106,"ß":107,"á":108,"â":109,"ã":110,"ä":111,"ç":112,"è":113,"é":114,"í":115,"ï":116,"ñ":117,"ö":118,"ü":119,"ā":120,"ą":121,"ğ":122,"İ":123,"ı":124,"Ŋ":125,"Ş":126,"ş":127,"Š":128,"ū":129,"ƚ":130,"Ɵ":131,"Ƣ":132,"ƣ":133,"ə":134,"ɵ":135,"ʙ":136,"ʼ":137,"́":138,"̆":139,"Ё":140,"Ђ":141,"І":142,"А":143,"Б":144,"В":145,"Г":146,"Д":147,"Е":148,"Ж":149,"З":150,"И":151,"Й":152,"К":153,"Л":154,"М":155,"Н":156,"О":157,"П":158,"Р":159,"С":160,"Т":161,"У":162,"Ф":163,"Х":164,"Ц":165,"Ч":166,"Ш":167,"Щ":168,"Ъ":169,"Ы":170,"Ь":171,"Э":172,"Ю":173,"Я":174,"а":175,"б":176,"в":177,"г":178,"д":179,"е":180,"ж":181,"з":182,"и":183,"й":184,"к":185,"л":186,"м":187,"н":188,"о":189,"п":190,"р":191,"с":192,"т":193,"у":194,"ф":195,"х":196,"ц":197,"ч":198,"ш":199,"щ":200,"ъ":201,"ы":202,"ь":203,"э":204,"ю":205,"я":206,"ё":207,"ђ":208,"і":209,"ї":210,"љ":211,"ћ":212,"ў":213,"Ѳ":214,"ѳ":215,"ғ":216,"Қ":217,"қ":218,"Ң":219,"ң":220,"Ү":221,"ү":222,"Ұ":223,"ұ":224,"ҳ":225,"ҷ":226,"һ":227,"ӊ":228,"ӏ":229,"Ә":230,"ә":231,"Ө":232,"ө":233,"ӯ":234,"ا":235,"ح":236,"خ":237,"د":238,"ر":239,"ز":240,"ص":241,"ط":242,"ظ":243,"ع":244,"غ":245,"ق":246,"ك":247,"ل":248,"م":249,"ن":250,"ه":251,"و":252,"ي":253,"ُ":254,"ِ":255,"‎":256,"‒":257,"―":258,"•":259,"⁠":260,"⁣":261,"⁰":262,"№":263,"→":264,"−":265,"▪":266,"●":267,"⠀":268,"回":269,"堅":270,"族":271,"昆":272,"鄄":273,"韓":274,"鬲":275,"":276,"️":277," к":278,"ан":279,"ар":280," б":281,"ын":282,"ал":283," ж":284,"ен":285,"да":286,".\n":287,"ин":288,"ат":289," т":290,"ер":291," м":292,"ай":293,"уу":294,"кт":295,"ол":296," с":297,"ыл":298,"ган":299," э":300,"үн":301,"ун":302,"де":303,"ир":304,"ор":305,"ды":306," а":307,"гы":308,"он":309,"ур":310,"ил":311,"ст":312,"ия":313,"ет":314," ч":315,"га":316,"ек":317,"ул":318,"шт":319," ө":320,"ыр":321," ал":322,"ам":323,"ел":324,"ык":325,"ак":326,"ас":327,"өр":328,"ып":329,"ди":330,"оо":331,"өн":332," ай":333," бол":334,"үү":335," де":336,"дар":337,"шк":338,"тт":339," и":340,"дын":341," о":342,"ген":343,"ап":344,"ик":345,"ыз":346,"ында":347,"ук":348," ба":349," мен":350," п":351," К":352,"ана":353,"үр":354,"аб":355," менен":356,"из":357," \"":358,"ым":359," ар":360,"ий":361," кар":362,"дан":363," жана":364,"ок":365,"атт":366," бир":367," жа":368," эл":369,"ов":370,"кан":371,"дө":372," ко":373," да":374," у":375," бер":376,"стан":377,"ары":378,"ес":379,"ый":380," А":381,"ог":382," жат":383,"им":384,"ей":385,"үч":386," кө":387,"ус":388,"ча":389,"ция":390," эк":391,"үл":392," кел":393,"өл":394,"уп":395," д":396,"ына":397,"гыз":398," Б":399,"аны":400,"ра":401,"лар":402,"ыргыз":403,"ев":404," деп":405," ш":406," ма":407,"ист":408,"ма":409,"тк":410,"ду":411,"ге":412,"ре":413,"дин":414,"ынын":415,"ден":416,"ип":417,"гө":418," тур":419,"дагы":420,"үй":421," бар":422,"ги":423,"ка":424,"ыш":425,"ект":426,"алган":427," бо":428,"юн":429,"дык":430,"ба":431,"гон":432," кыз":433,"ли":434," тар":435," бил":436,"етт":437,"үз":438," айт":439," жар":440," өз":441," ат":442," со":443," эм":444,"нын":445,"аз":446,"ск":447," н":448,"үп":449,"дам":450,"өт":451," эле":452," Т":453," үч":454,"аган":455,"ем":456,"ку":457,"еп":458,"ит":459,"анын":460," чы":461,"сы":462," Ж":463,"иш":464,"-ж":465,"ыргызстан":466,"айл":467,"бек":468,"уш":469,"гөн":470," кат":471," М":472," С":473," кыл":474,"алык":475," ишт":476,"алуу":477," -":478,"дир":479," өл":480,"зи":481,"ери":482,"ум":483,"20":484," боюн":485,"инин":486,"алым":487," ор":488," та":489," боюнча":490," бул":491,"уз":492,"дай":493,"мат":494," билдир":495,"инде":496," болгон":497," О":498,"үм":499,"от":500," туу":501," үчүн":502,"лек":503," кай":504," маалым":505,"го":506,"ең":507," көр":508,"до":509,"-жыл":510,"еч":511," кал":512," жаткан":513," кор":514,"Ал":515," жыл":516," р":517," са":518,"шы":519," кол":520,"ктар":521," то":522," иш":523,"инист":524," жол":525,"рези":526,"резиден":527,"дун":528," өлк":529,"амлек":530,"ут":531,"гил":532,"дук":533,"ом":534," каб":535,"үк":536,"ерл":537,"ег":538,"ине":539,"инистр":540," адам":541," жет":542,"Бул":543," ком":544,"үш":545,"аар":546," тал":547,"усия":548," күн":549,"ады":550," башк":551," деген":552," жүр":553," экен":554," ак":555,"бай":556,"ылган":557,"ынан":558,"чу":559,"еш":560,"чи":561," кызмат":562,"аш":563," кур":564,"алар":565,"лык":566," жок":567," кер":568," болуп":569," кет":570," кий":571," кан":572,"зам":573,"унун":574,"ерди":575," мамлек":576,"ейин":577,"русия":578," өк":579,"ооп":580," Кыргызстан":581,"ууга":582," баш":583,"чы":584," ми":585,"өө":586,"Бир":587,"үндө":588," чейин":589," У":590,"шкан":591,"үг":592,"кы":593," туур":594,"та":595,"асы":596," тууралуу":597," президен":598,"лан":599,"ав":600,"уг":601," уч":602," бел":603," аз":604,"уна":605," жер":606,"чыл":607,"арт":608," жаз":609," турган":610,"ыйзам":611,"унда":612," ф":613," эмес":614,"дон":615,"дары":616," кийин":617,"ян":618,"еб":619,"бл":620,"\",":621,"ишк":622," кир":623,"агы":624,"ыкт":625,"кен":626,"дү":627," жак":628," И":629," жатат":630,"ез":631,"икт":632,"чул":633,"ага":634,"бо":635," бас":636,"дер":637," керек":638," ул":639," чыг":640," башт":641,"уун":642," мыйзам":643," (":644," шаар":645,"үнө":646,"Ан":647," өт":648,"ки":649," сал":650," министр":651,"яс":652,"ардын":653," алып":654," бий":655,"Ош":656,"дөр":657,"укт":658," өтк":659," мамлекетт":660,"сыз":661," учур":662,"ерлер":663,"ке":664,"ээ":665,"ро":666," маалымат":667," мил":668,"өз":669," дагы":670,"өм":671,"уул":672,"бр":673," көп":674," ан":675," үй":676," алган":677,"ман":678," эки":679," кам":680," байл":681,"ент":682,"үнүн":683," Орусия":684," белгил":685,"ябр":686," бал":687," ук":688,"ору":689,"аж":690,"раин":691," тарт":692," шайл":693," Н":694,"ушт":695,"-жылы":696," аны":697,"дардын":698," жай":699," көз":700,"ышт":701,"аттар":702,"арл":703," байланы":704," миң":705," мур":706,"өлөр":707," күч":708,"..":709," түз":710,"ял":711," ош":712,"тер":713,"Аз":714," биз":715,"иши":716," ую":717,"ындагы":718,"уст":719," ка":720," з":721,"ылуу":722," в":723," анын":724,"ис":725," мас":726," дол":727," чеч":728," келген":729," ич":730,"өй":731,"егиз":732,"-м":733,"Бирок":734,"чил":735,"инчи":736," чыгар":737,"дик":738," айма":739,"ран":740," сөз":741," саяс":742," билдирди":743,"утт":744," президент":745,"алы":746," экенин":747,"ыт":748," жаш":749,"ыйын":750,"иев":751,"баев":752,"ос":753," оку":754," өн":755," жаң":756,"үүгө":757,"төр":758," өлкө":759," аб":760,"күн":761,"ты":762," жөн":763,"оом":764,"краин":765," обл":766," жаран":767,"ууда":768,"мө":769," каршы":770,"ив":771," ок":772," чык":773," масел":774,"гү":775,"огор":776,"?\n":777,"ктан":778,"дөн":779,"иянын":780,"доо":781," башка":782," көрс":783," бөл":784," уш":785,"орб":786," Р":787," түш":788,"уга":789,"19":790," аш":791,"суз":792,"аттык":793,"акыр":794,"инен":795,"со":796," ин":797," төр":798," П":799," Д":800,"икалык":801,"үмкүн":802," Г":803,"ада":804,"Алар":805," ил":806," оор":807,"азак":808," мүмкүн":809,"өш":810,"аров":811,"са":812,"сынын":813," байланышт":814,"еген":815,"202":816,"ышк":817," чыгы":818," эс":819," бери":820," болду":821," кандай":822,"ейт":823,"алды":824," шайлоо":825,"си":826,"алдык":827,"гында":828," иштер":829," карм":830,"йт":831,"еси":832,"айон":833,"лик":834," ре":835,"арын":836,"дуу":837,"гын":838," аск":839," калган":840,"огорку":841," же":842," Э":843,"ация":844," мамлекеттик":845,"үт":846,"акт":847,"-б":848,"быз":849," сур":850," негиз":851,"дор":852,"дыр":853," мак":854," кош":855," район":856,"201":857,"дүн":858," жары":859," талап":860,"10":861,"орбор":862,"алып":863,"Кыргызстан":864,"гана":865," коом":866,"өнүн":867,"об":868,"иция":869,"ыркы":870,"чү":871," болот":872," кыргыз":873,"лөр":874,"окт":875,"иб":876," гана":877,"оң":878,"иялык":879,"еди":880,"тур":881,"айын":882,"арды":883," эми":884,"сп":885,"Биз":886,"аза":887,"үйн":888," министрли":889," чек":890," түр":891," алын":892," ач":893," кооп":894," чакыр":895," бийли":896," тап":897," тер":898,"айт":899,"иг":900," эр":901,"ентт":902,"уну":903," чыккан":904," киши":905,"үнү":906,"чүл":907,"гиз":908," жас":909," пр":910," арак":911," кабыл":912," жыйын":913,"ындай":914," айып":915," байланыштуу":916," Бишк":917," сакт":918," кою":919," катт":920," жатканын":921,"дүү":922," ав":923," айтып":924,"Өз":925," токт":926," катары":927,"ара":928," жооп":929,"епт":930," жаңы":931," уюм":932,"ания":933,"ашт":934,"ци":935,"елер":936," топ":937," аралык":938,"ондо":939,"КШ":940,"асын":941," сүй":942," депут":943,"мөт":944,"ешт":945," жал":946,"ябрда":947,"чө":948," тарап":949,"сү":950," Украин":951," кылм":952," алдын":953,"азакстан":954," өткөр":955,"рам":956,"дарды":957,"тты":958," кең":959,"рым":960,"ыс":961,"ууну":962," өкүл":963," берген":964,"гоо":965,"уб":966," кызм":967," ишк":968,"ла":969," кыр":970," парт":971,"ени":972,"асында":973," берил":974," милли":975," сот":976," сом":977,"ылып":978," кызматк":979," Ш":980,"апаров":981," пай":982," Ч":983,"уттук":984,"үкт":985," айыл":986,"кин":987," кый":988," кеткен":989," облус":990,"чысы":991,"беков":992," жум":993," комп":994," атк":995,"асм":996,"аты":997," болсо":998," сан":999," Е":1000,"онав":1001," ыл":1002," айткан":1003," көб":1004,"үгүн":1005," тил":1006,"сия":1007,"ест":1008,"Анын":1009,"үүдө":1010,"оном":1011," чечим":1012," тол":1013,"арлам":1014," В":1015,"онавир":1016,"еги":1017," сог":1018," долбо":1019," сүйл":1020,"абыз":1021," коопсуз":1022,"гына":1023,"яр":1024," эск":1025,"нал":1026," ошол":1027," кез":1028,":\n":1029," ур":1030," кой":1031," кайр":1032," жетек":1033,"то":1034," көрсөт":1035,"үлгөн":1036," кайра":1037," караган":1038," билдирген":1039,"иде":1040,"дүр":1041," жардам":1042," чет":1043," деди":1044,"тыр":1045," сун":1046,"ышат":1047,"ышы":1048," Жапаров":1049," окуя":1050,"үрк":1051,"тан":1052,"ытай":1053," ой":1054," алар":1055,"тор":1056,"адыр":1057,"ылды":1058,"гер":1059," дүйн":1060,"не":1061,"урнал":1062,"оого":1063," ылай":1064," коргоо":1065," кон":1066," жакын":1067," мурдагы":1068," жашт":1069," партия":1070," алуу":1071,"огон":1072," кызматт":1073," жүрг":1074,"ика":1075,"кү":1076,"дарга":1077," эч":1078," уба":1079,"тар":1080," жолу":1081,"се":1082,"асмий":1083," жаб":1084,"ушу":1085," өткөн":1086," дел":1087,"улган":1088," киргиз":1089,"урналист":1090," учурда":1091," өлкөлөр":1092," ыр":1093,"30":1094," Аз":1095," сат":1096,"гөр":1097,"ой":1098," колдон":1099,"ердин":1100,"тын":1101,"алда":1102,"орт":1103," өкмөт":1104," албай":1105,"кты":1106," ылайык":1107,"кта":1108,"роп":1109,"олог":1110," азыр":1111,"чулар":1112,"дей":1113," бири":1114," Кең":1115,"-и":1116,"ыгы":1117,"өп":1118,"екем":1119," айтты":1120,"Мен":1121," отур":1122," башкар":1123," өзгөр":1124,"ондой":1125," ап":1126,"үүлөр":1127," улам":1128," дем":1129," алды":1130," ара":1131," Л":1132,"үшт":1133,"дөрү":1134,"туу":1135,"артт":1136," чыгып":1137," парлам":1138,"но":1139,"рем":1140,"ата":1141,"гун":1142," соң":1143," талк":1144," ичинде":1145," президентт":1146," ушул":1147,"ети":1148," коронавир":1149," аныкт":1150," жүргүз":1151," Ал":1152,"анда":1153," арк":1154," түшүн":1155,"сүн":1156," орун":1157," Х":1158," келиш":1159," Кыргызстандын":1160," аба":1161,"ышкан":1162," аял":1163,"ундагы":1164," сотт":1165,"мия":1166," таб":1167," акт":1168," бирок":1169,"атты":1170,"иги":1171," долбоор":1172," берүү":1173," кес":1174,"дөө":1175,"...":1176," из":1177,"15":1178,"Орусия":1179," келет":1180," чоң":1181," бай":1182,"ону":1183,"дек":1184," караганда":1185," дар":1186," г":1187,"изм":1188,"алиев":1189,"ашк":1190,"кер":1191,"сат":1192," караж":1193," жалп":1194,"оск":1195,"ышты":1196," алардын":1197," калды":1198,"уус":1199,"үүнү":1200," май":1201,"ири":1202," саясий":1203," жөнүндө":1204," жарыял":1205," өзү":1206,"өөн":1207," мындай":1208," Ев":1209," Орусиянын":1210,"ерин":1211,"уучу":1212,"иктүү":1213," элек":1214,"аткан":1215," компания":1216," миллион":1217," чар":1218," тышк":1219,"ече":1220," каза":1221,"ындан":1222,"мүр":1223," Ф":1224,"-к":1225," журналист":1226,"асынын":1227,"акка":1228," АКШ":1229,"өк":1230,"олор":1231," даяр":1232," аркылуу":1233,"рел":1234,"сиз":1235,"ах":1236," болбо":1237," тарма":1238,"алан":1239,"-А":1240," оп":1241," айрым":1242,"ыкты":1243,"угу":1244," президенти":1245," доллар":1246,"оскв":1247," бийлик":1248,"аң":1249," ая":1250,"цин":1251,"сын":1252,"ердик":1253," ээ":1254," турат":1255," мл":1256,"ова":1257," деле":1258,"бекстан":1259,"-т":1260,"ко":1261," борбор":1262," Казакстан":1263," ад":1264," күр":1265," ли":1266,"өгөн":1267,"асына":1268," саясат":1269," эконом":1270,"деги":1271,"-жылдын":1272," келип":1273,"ганын":1274," катар":1275,"онун":1276," ага":1277,"үгү":1278," орус":1279,"гиликтүү":1280," кабар":1281," мүч":1282," Жогорку":1283,"ерлери":1284,"Буга":1285," эң":1286," көтөр":1287," нече":1288," расмий":1289,"инг":1290," биринчи":1291,"ех":1292,"бүз":1293,"овдун":1294,"ишт":1295,"дөгү":1296,"мер":1297,"илген":1298,"циялык":1299," катыш":1300," аткар":1301,"өлүк":1302," себ":1303,"лор":1304," Аб":1305,"ыйыл":1306,"Өзбекстан":1307," Ул":1308," кырда":1309," чект":1310," кылып":1311," берип":1312,"-с":1313," ким":1314,"циалдык":1315,"убл":1316,"ерт":1317,"00":1318,"Азаттык":1319," иштеп":1320,"гандар":1321,"ылык":1322,"өтк":1323," комит":1324," Кытай":1325," айыпт":1326,"шыр":1327,"стит":1328,"вар":1329," ст":1330," турганын":1331,"бей":1332,"гөө":1333,"ажик":1334," Бишкект":1335," жакшы":1336,"КМ":1337," жүргөн":1338," тий":1339," коопсуздук":1340,"юл":1341,"анды":1342," буз":1343," чог":1344," суу":1345," кылмыш":1346," эсепт":1347," күнү":1348," жең":1349,"өмөл":1350,"ларды":1351,"гыл":1352," буга":1353,"тин":1354," он":1355,"-окт":1356," маан":1357," атайын":1358,"алат":1359,"окур":1360," төл":1361,"ңг":1362,"дикт":1363," Кеңешт":1364," түн":1365," орт":1366," төрага":1367," кызматы":1368,"енин":1369,"Ай":1370,"11":1371,"етти":1372," министрлиги":1373,"гинин":1374,"өтт":1375," миг":1376," Ак":1377," көзөмөл":1378," жалпы":1379," сүйлөш":1380," эмне":1381," Бат":1382,"тир":1383," пик":1384,"ганы":1385,"штур":1386,"үшк":1387,"оп":1388,"унан":1389,"ерг":1390,"еттик":1391,"Ак":1392," өлкөнүн":1393,"дүк":1394,"-К":1395," кабарл":1396," дүйнө":1397," жерде":1398," мамлекет":1399," сыр":1400,"окум":1401," дары":1402," аракет":1403," иши":1404," бардык":1405,"Ошол":1406,"ны":1407," ты":1408,"ажикстан":1409," коронавирус":1410,"-С":1411,"еке":1412,"пай":1413,"огу":1414," комис":1415,"ктуу":1416,"ала":1417,"екш":1418," Кыргызстанда":1419,"есп":1420," иликт":1421,"мөтт":1422," З":1423,"200":1424," туура":1425," сын":1426," курул":1427,"руп":1428,"ымында":1429," меди":1430," Садыр":1431," ишке":1432,"пи":1433,"рат":1434,"гөчө":1435,"густ":1436," берди":1437,"Бишк":1438," болчу":1439,"-ч":1440,"амил":1441,"12":1442,"ерс":1443," кеңеш":1444," улан":1445," мект":1446," коз":1447,"лер":1448," башчысы":1449," акча":1450," келишим":1451," карата":1452,"дуктан":1453,"шка":1454," бийликт":1455," багы":1456," эксп":1457," дай":1458,"Алардын":1459," сактоо":1460," кач":1461,"Уш":1462," Түрк":1463," сунушт":1464," жаг":1465," ачык":1466,"бы":1467,"абр":1468,"еспубл":1469,"ланган":1470,"ыя":1471," тын":1472," жатышат":1473," беш":1474,"чылык":1475," прокур":1476," элект":1477," аймактар":1478,"-бүл":1479," социалдык":1480,"атур":1481,"ыктар":1482," им":1483," арыз":1484," кошум":1485,"Азыр":1486,"лардын":1487," саны":1488," абал":1489,"олгон":1490," айтымында":1491,"январ":1492," Бишкек":1493,"Президен":1494," баштаган":1495," оорук":1496,"14":1497,"ылат":1498," жаштагы":1499," уюштур":1500,"аараз":1501," салуу":1502,"ундай":1503,"КМК":1504," кылган":1505," басма":1506,"етинин":1507," Москв":1508," жан":1509," киш":1510," баары":1511," доб":1512,"-э":1513," парламентт":1514,"ылм":1515," пикир":1516,"18":1517,"ерге":1518," курал":1519,"аларды":1520," уул":1521," жог":1522," чаб":1523," сап":1524," токтот":1525,"-май":1526,"ри":1527," эн":1528,"арых":1529,"чиси":1530," актив":1531,"Эм":1532,"кө":1533,"сына":1534,"түү":1535,"ози":1536,"-ап":1537," эркин":1538," ди":1539," камсыз":1540,"Кыргыз":1541," облуст":1542,"-апрел":1543," төрт":1544," кырдаал":1545," докум":1546," наараз":1547," тергөө":1548," өтө":1549,"өкт":1550,"дим":1551,"16":1552,"мен":1553," жергиликтүү":1554," макул":1555,"17":1556," ти":1557,"есин":1558," тел":1559," келтир":1560,"ьер":1561," арасында":1562," мурда":1563," жолуг":1564," Ош":1565," белгилүү":1566," көбөй":1567," бан":1568," мамил":1569," шаарында":1570," кы":1571," өтүп":1572,"там":1573,"рантт":1574,"бад":1575,"биз":1576," алынган":1577," коюл":1578,"25":1579,"гин":1580,"тка":1581,"еби":1582,"Эл":1583," күчтөр":1584,"алам":1585," Кеңештин":1586,"евр":1587," мекем":1588," министри":1589,"Анда":1590," кеч":1591," Азия":1592," жүз":1593,"гач":1594," ишен":1595,"-Абад":1596," Ар":1597," милде":1598," кармалган":1599," дал":1600," маалыматтар":1601," айында":1602,"утин":1603,"рация":1604," адамдар":1605," биздин":1606,"аль":1607," жайга":1608," Өзбекстан":1609," күрөш":1610," таас":1611,"13":1612," тапшыр":1613,"Ошон":1614,"аттуу":1615," бош":1616,"ед":1617," сист":1618," мөөн":1619,"арга":1620," ортос":1621,"үшү":1622,"үлүп":1623,"тик":1624,"бул":1625," кыргызстан":1626,"ама":1627,"су":1628," сыя":1629," маселе":1630," барып":1631," кайт":1632,"ремьер":1633,"сан":1634,"артта":1635,"юу":1636," аскердик":1637,"уунун":1638,"дарын":1639," ата":1640," жетекчил":1641," сүр":1642," өкмөтт":1643," милиция":1644," таж":1645,"Украин":1646,"ардык":1647,"адагы":1648," карап":1649," билим":1650," аталган":1651," жүрүп":1652," аген":1653," тарых":1654,"ктын":1655," акция":1656,"ишкен":1657," сыяктуу":1658," сп":1659,"ортт":1660,"ехн":1661,"-Б":1662,"сык":1663," тартып":1664," андан":1665," окуу":1666,"үшкөн":1667,"ткени":1668," толук":1669,"ияда":1670,"уд":1671," таан":1672," жатканы":1673," тынч":1674," болушу":1675,"Андан":1676," ашык":1677," корк":1678,"-ав":1679,"үнөн":1680," бүт":1681," зар":1682," виде":1683," койгон":1684,"ерен":1685,"штыр":1686," алдында":1687," Европ":1688,"-август":1689,"-но":1690,"Ар":1691," жылдан":1692," коомдук":1693,"дап":1694,"ынча":1695," ун":1696,"Эк":1697," түшүндүр":1698," иштеген":1699,"-июн":1700," комиссия":1701,"тык":1702," кем":1703," чабуул":1704,"-министр":1705," басары":1706,"аев":1707," Бир":1708," өр":1709," лид":1710," тиеш":1711," башкы":1712,"-январ":1713,"үрүү":1714,"Ага":1715,"алары":1716,"сун":1717," жарыя":1718," Тажикстан":1719," электр":1720," ойл":1721," төрагасы":1722," болгонун":1723,"екшер":1724," соңку":1725," так":1726,"ош":1727," млн":1728," түнкү":1729,"арат":1730," быйыл":1731," корруп":1732," аж":1733,"деп":1734,"24":1735," укук":1736,"-дек":1737," эт":1738," райондук":1739," оюн":1740," Нур":1741," агентт":1742," пол":1743,"Кыргызстанда":1744," жара":1745,"-декабр":1746," мыйзамсыз":1747,"дүз":1748,"ээн":1749," сатып":1750," айтылган":1751," чыкты":1752," салын":1753," ра":1754,"улуп":1755," экинчи":1756," жетк":1757," тургун":1758,"догон":1759," өлкөдө":1760," бийлиги":1761,"-сент":1762," Борбор":1763,"уулар":1764,"ылтыр":1765," ички":1766,"кын":1767," ушундай":1768,"оор":1769," Кар":1770," колдоо":1771," тең":1772," билдирүү":1773," өмүр":1774,"раил":1775,"жан":1776," көрсөтк":1777," уз":1778,"атта":1779,"демия":1780,"Мындан":1781," аракетт":1782," жыйынты":1783,"ститу":1784," өзгөчө":1785," текшер":1786," дин":1787,"екен":1788," про":1789," добуш":1790," козг":1791," акыркы":1792," коомчул":1793," илим":1794," тоб":1795,"чылар":1796,"ланды":1797," улуттук":1798,"усу":1799,"аст":1800," ашуун":1801,"-октябрда":1802,"аг":1803," Ай":1804,"дөй":1805,"индеги":1806,"мак":1807," соо":1808,"кул":1809," там":1810,"Эгер":1811,"ич":1812,"ыктын":1813," мүчө":1814," дейт":1815,"чал":1816," министрлигинин":1817,"үст":1818," өндүр":1819,"игин":1820," азыркы":1821," жеке":1822," укукт":1823,"оган":1824,"емир":1825," тышкары":1826,"др":1827," баз":1828,"АКШ":1829,"ограм":1830,"Ошондой":1831,"50":1832," берет":1833," башталган":1834," алгач":1835," өкүлү":1836,"алал":1837," маалыматына":1838," бүгүн":1839,"Ма":1840," күт":1841,"тко":1842,"ост":1843," оң":1844," мүмкүнчүл":1845," керект":1846," техн":1847,"ктылуу":1848," ишкан":1849,"ңүл":1850," такт":1851,"-п":1852,"бак":1853,"амлекеттик":1854," берилген":1855," бур":1856," Улуттук":1857,"сак":1858,"ерлердин":1859," күндүз":1860," жумуш":1861,"озиция":1862," ала":1863,"урда":1864," жылга":1865,"-июл":1866," өзүнүн":1867," ошондой":1868,"аттын":1869," таасир":1870,"-ф":1871," кайсы":1872," шаардык":1873," көч":1874," жеткир":1875,"дыктар":1876,"оз":1877,"айым":1878,"гынын":1879,"мыл":1880,"дыгы":1881," түнкүсүн":1882,"Тал":1883," экени":1884," анда":1885,"тип":1886," тааны":1887,"шты":1888," согуш":1889,"кат":1890," Путин":1891," белгиледи":1892," көңүл":1893,"ңгээ":1894,"ттү":1895," өкүлдөрү":1896," деңгээ":1897," прокуратур":1898," кл":1899,"иц":1900,"Мындай":1901,"догу":1902," тизм":1903," маалымда":1904,"аттары":1905,"дердин":1906,"елүү":1907,"рит":1908," активист":1909,"юм":1910," арал":1911,"\",-":1912," жагдай":1913," вир":1914,"зраил":1915," ге":1916,"орм":1917,"100":1918,"тке":1919," л":1920," сый":1921,"абай":1922," президенттик":1923,"Ул":1924," келди":1925," жазды":1926,"оганстан":1927," негизги":1928," систем":1929,"етте":1930," Кор":1931," тыюу":1932,"ти":1933,"атка":1934," кезде":1935," соода":1936,"Кыргызстандын":1937," бала":1938,"деген":1939," бек":1940,"Анткени":1941," мигрантт":1942,"тон":1943,"22":1944," медицин":1945,"өрү":1946,"сүндө":1947,"укка":1948,"ээр":1949," зарыл":1950," жатабыз":1951," бөлүм":1952," жетекчиси":1953," ишин":1954," пайд":1955,"ттер":1956,"елен":1957," Кон":1958,"Президент":1959," өзүн":1960,"ушка":1961,"ткөн":1962," таш":1963," кайтар":1964,"утк":1965," барган":1966," пайда":1967," салган":1968," кыймыл":1969," экономикалык":1970,"-Т":1971," энерг":1972," комм":1973," учурунда":1974," жолугуш":1975,"ач":1976,"дж":1977," бере":1978," кен":1979,"оолор":1980," күй":1981,"терн":1982," алууга":1983," дайын":1984,"нун":1985," бошот":1986,"кция":1987," айлан":1988,"дум":1989,"гел":1990,"алардын":1991,"Ысык":1992," бу":1993," алма":1994," авто":1995," оо":1996," фон":1997," башкарм":1998," өнүкт":1999,"лам":2000,"еф":2001," жазган":2002,"27":2003,"Ат":2004," изил":2005,"оол":2006,"ларга":2007," жарым":2008,"28":2009,"23":2010,"илүү":2011," кетти":2012,"-Көл":2013," котор":2014,"ият":2015,"имов":2016," жогорку":2017,"гөй":2018,"-мартта":2019,"на":2020,"түр":2021," кирген":2022," максат":2023," х":2024," Баткен":2025," колдо":2026," ади":2027," коркуну":2028," балдар":2029," иштери":2030,"бол":2031," алка":2032,"имди":2033,"аса":2034," жоопкер":2035," урук":2036," саб":2037,"Ошондуктан":2038,"ашкы":2039," ир":2040,"рес":2041," алат":2042," Ан":2043," мөөнөт":2044," уулу":2045,"ограмм":2046," тараб":2047," орган":2048," ири":2049,"ологиялык":2050," облусунун":2051," жазылган":2052," мектеп":2053," согушт":2054," эскер":2055,"эр":2056," чын":2057,"егинде":2058,"ология":2059," опер":2060,"өнү":2061,"-майда":2062,"-февр":2063," басып":2064," жарандык":2065,"димир":2066," Жээн":2067,"рд":2068,"алап":2069,"үб":2070,"ладимир":2071," документт":2072," шт":2073," тышкы":2074," өлүм":2075," облусунда":2076,"даш":2077,"гине":2078,"ари":2079," убактылуу":2080," себеп":2081,"26":2082,"Жогорку":2083," жабыр":2084," Ин":2085," кит":2086,"екте":2087,"Казакстан":2088,"алдуу":2089," түшкөн":2090," Кыргызстанга":2091," факт":2092," полиция":2093," Украинанын":2094," багытт":2095," белги":2096," жиб":2097," ажыр":2098," канча":2099," кызматынын":2100," топт":2101," алты":2102,"-августта":2103," депутат":2104,"аларын":2105," Эр":2106," белгилен":2107," украин":2108," кызык":2109,"акет":2110,"-бүлө":2111," кылмышт":2112,"бөй":2113,"абы":2114," адм":2115," жоопкерчил":2116,"оону":2117," убак":2118," маанилүү":2119," оорукана":2120," шект":2121," премьер":2122," кодек":2123," башкармалы":2124,"емб":2125," миңден":2126,"чүлөр":2127," кап":2128," байк":2129,"Уч":2130,"-апрелде":2131," салам":2132,"че":2133," үст":2134," бейт":2135," кийинки":2136," кошумчал":2137,"бейт":2138,"уктар":2139,"ард":2140," жый":2141," көй":2142," Эл":2143," аскер":2144," жакт":2145," шарт":2146,"лары":2147," армия":2148,"Азаттыкка":2149," иликтөө":2150,"асындагы":2151,"мон":2152," аларды":2153," коррупция":2154,"Кор":2155,"рор":2156,"андемия":2157,"угун":2158," Бак":2159," C":2160," чейинки":2161," болгону":2162," катуу":2163," жоо":2164,"баган":2165,"итардык":2166," реф":2167," саат":2168," негизинде":2169," Владимир":2170," башында":2171,"арий":2172,"ияга":2173," Бай":2174," эрк":2175," сок":2176,"етр":2177," Украинага":2178,"тамбаев":2179,"гар":2180," калып":2181," кетип":2182,"ябрь":2183,"-ноябрда":2184," алкагында":2185," келе":2186," опп":2187,"рон":2188," сунуш":2189," президенттин":2190," ол":2191," план":2192," деңгээл":2193,"синин":2194,"арынын":2195," бю":2196," акч":2197," кызматкерлер":2198,"ский":2199,"ишти":2200," кала":2201," орусия":2202,"вок":2203," кайрылуу":2204,"орун":2205," элдин":2206," элдик":2207,"21":2208,"вест":2209," ий":2210,"ократ":2211,"Орусиянын":2212,"син":2213," журналисттер":2214,"-июнда":2215,"УКМК":2216,"199":2217," ради":2218," пайыз":2219," куб":2220,"өшт":2221,"акч":2222," арт":2223," абдан":2224," уруксат":2225," жашоо":2226," бат":2227," көйгөй":2228," мун":2229,"сул":2230," баштады":2231,"Ушул":2232,"ого":2233,"үштүк":2234," шайлоого":2235," мындан":2236,"оонун":2237," көл":2238," өнөкт":2239,"андык":2240," маш":2241," дарыл":2242,"ума":2243,"ымал":2244,"чулардын":2245,"өмөн":2246,"ың":2247," Кур":2248,"сүз":2249," сез":2250,"адан":2251,"сө":2252," бейтап":2253," айтылат":2254," адамдын":2255," катышкан":2256," ташт":2257," карж":2258,"есине":2259,";\n":2260," мадан":2261,"дарына":2262," жарат":2263,"үүчү":2264," кабарлады":2265," ыкт":2266," каал":2267," сотко":2268,"-январда":2269,"ух":2270,"дыктан":2271," сайын":2272,"омбул":2273," кыргызстандык":2274,"дарынын":2275," ый":2276," Жалал":2277,"Эми":2278," жарыялаган":2279,"мөн":2280,"ерсе":2281,"атый":2282,"газ":2283,"үүнүн":2284,"-декабрда":2285," берен":2286," көрүн":2287," Жээнбеков":2288,"уусу":2289," кызматкерлери":2290,"атыйж":2291,"Өк":2292,"ебиз":2293," ык":2294,"реж":2295," жатып":2296," катчысы":2297,"актар":2298," өттү":2299,"өөлөр":2300,"атор":2301,"елар":2302," жашаган":2303," уу":2304," тез":2305,"амм":2306," камакка":2307,"29":2308," төмөн":2309,"УУ":2310,"од":2311,"Бат":2312,"гек":2313," алтын":2314," млрд":2315,"итинг":2316,"бир":2317," талапкер":2318,"акцин":2319," пайдалан":2320,"далган":2321,"Маалым":2322," жайгашкан":2323," мурун":2324,"дерди":2325," көпчүл":2326,"еспублик":2327," басым":2328," нерсе":2329," көрүп":2330," ашыр":2331,"ылыш":2332,"еттин":2333," четке":2334," эске":2335,"VI":2336," өзгөрт":2337," Ооганстан":2338," авт":2339," салып":2340," ордун":2341," илде":2342,"өг":2343,"үйш":2344,"иштүү":2345," жеңил":2346,"Аны":2347,"ентарий":2348,"-сентябрда":2349," коркунуч":2350,"ешк":2351," органдар":2352," тиешелүү":2353," жап":2354,"елерди":2355,"Учурда":2356,"иверс":2357," арада":2358," Иран":2359,"өгө":2360," тарабынан":2361," алгачкы":2362,"стр":2363," уча":2364," соту":2365," шек":2366," жөнөт":2367,"алим":2368,"-чар":2369,"ыгын":2370," туш":2371," өткөрүп":2372," катталган":2373," дир":2374,"ерман":2375,"өрүн":2376," аймагында":2377,"ИМ":2378," чогул":2379," кр":2380," муну":2381," операция":2382," кабин":2383," күндө":2384," комментарий":2385," ары":2386,"байт":2387," каз":2388," талкуу":2389,"ибиз":2390,"ээрлик":2391," белгисиз":2392," милдетт":2393,"ашы":2394," ачыл":2395," демил":2396," автоуна":2397,"аттан":2398,"рамп":2399," депутаты":2400," оору":2401,"беген":2402,"Бүгүн":2403," азырынча":2404,"иверсит":2405,"езгил":2406," инвест":2407," тармактар":2408," нааразылык":2409,"ья":2410," эреж":2411," жактан":2412,"мо":2413,"лоо":2414," башчы":2415," коопсузду":2416,"-июлда":2417," турукт":2418," тапкан":2419," мат":2420," реж":2421,"есинин":2422," жерге":2423," об":2424," Атамбаев":2425," ден":2426,"устун":2427," бет":2428,"Биздин":2429," вакцин":2430," от":2431," жазып":2432,"on":2433," миллиард":2434," зы":2435,"ийин":2436," директ":2437," I":2438," бюдж":2439," кыйын":2440,"пл":2441,"чки":2442,"ктагы":2443,"ылганын":2444,"Ор":2445,"сүнө":2446," чакырды":2447," Европа":2448," тов":2449," ичинен":2450," кеп":2451,"үлдү":2452,"Бишкек":2453,"40":2454,"дөгөн":2455,"Түрк":2456," пандемия":2457," жыйынында":2458," ракет":2459,"ңиз":2460,"арк":2461," Кыргызстандагы":2462,"уулук":2463," эрт":2464,"-эн":2465,"пөй":2466," чыгарып":2467,"умтөр":2468," баштап":2469," тажик":2470," түрдө":2471,"дыгын":2472,"емп":2473," университ":2474,"герлер":2475,"аларга":2476," сүйлөшүүлөр":2477," каранды":2478," каражат":2479,"улат":2480," инф":2481,"Өл":2482," мезгил":2483," тан":2484," жибер":2485,"ирүү":2486," былтыр":2487," автор":2488," санкция":2489," орто":2490,"-жылдан":2491," окуялар":2492,"мок":2493," муз":2494,"ттин":2495," жылдын":2496,"слам":2497," түзүлгөн":2498," сыртк":2499," өс":2500,"бү":2501,"илер":2502," чыга":2503," калтыр":2504," тург":2505,"Министр":2506,"диги":2507," тилк":2508,"аңы":2509," карашт":2510," ыраст":2511,"алында":2512,"Мис":2513,"гүл":2514," кирип":2515," Мам":2516," лидери":2517," аякт":2518," Конститу":2519,"алууда":2520,"ид":2521," АКШнын":2522," медициналык":2523,"Азатт":2524," кызматтан":2525,"үштү":2526," адист":2527,"ышкы":2528,"хан":2529," кым":2530," аян":2531," укугу":2532,"тти":2533," дээрлик":2534," митинг":2535,"бур":2536," өтүн":2537," билдирип":2538,"шу":2539," таг":2540," коюлган":2541,"Эки":2542,"...\n":2543," кармап":2544,"уучулар":2545," кошумчалады":2546," элчил":2547,"еге":2548," куу":2549," түрк":2550,"Кар":2551,"елери":2552," программ":2553,"алдар":2554,"Эр":2555," учурлар":2556,"er":2557,"маз":2558," шаарынын":2559," курам":2560,"ттан":2561,"уктур":2562," тарткан":2563," Израил":2564," спорт":2565,"аман":2566," суроо":2567,"арына":2568," далил":2569," матери":2570," террор":2571," адвок":2572," дипл":2573," маселеси":2574," депутаттар":2575," Бишкекте":2576," ортосундагы":2577," макс":2578," орусиялык":2579,"исттик":2580,"ликт":2581,"ашты":2582," мүчөлөр":2583," көбү":2584,"Кийин":2585,"атив":2586," Ысык":2587,"аттардын":2588," жетиш":2589," маселелер":2590,"-Би":2591," зыян":2592," бой":2593," радиос":2594,"ШК":2595," иштет":2596,"еришт":2597,"укту":2598," Таш":2599," өлтүр":2600," өнүктүрүү":2601," окш":2602,"айн":2603," Орусияга":2604,"VID":2605," сөө":2606,"OVID":2607,"Мисалы":2608,")\n":2609," Кыргыз":2610,"дордун":2611," кесип":2612," кантип":2613," газ":2614,"азар":2615," жо":2616," УКМК":2617," талкуул":2618,"Улуттук":2619," Абд":2620,"уудан":2621," тран":2622," чыгарган":2623," аскерлер":2624,"Со":2625," калат":2626," видео":2627,"Бий":2628,"евдин":2629,"циянын":2630,"жол":2631," баарын":2632,"чулары":2633," өнүг":2634,"ысынан":2635,"Азаттыктын":2636," баракч":2637,"егер":2638,"дүүл":2639," жети":2640," телеф":2641," кайрадан":2642,"ктык":2643," коюп":2644,"ина":2645,"атра":2646," жасаган":2647," кээ":2648,"гемен":2649,"өөгө":2650,"алп":2651,"илип":2652," ада":2653," каражаттар":2654," көргөн":2655,"-февралда":2656,"уден":2657,"ейс":2658,"оль":2659," районунун":2660,"Ин":2661," өкмөттүн":2662,"ырм":2663,"асынан":2664," болбойт":2665,"оочу":2666,"акта":2667," парламенттик":2668,"олду":2669," таң":2670,"чалык":2671," тон":2672,"ейш":2673,"\"К":2674,"орлор":2675," жылы":2676," диний":2677," ас":2678,"илет":2679," Са":2680," кымб":2681," үл":2682,"!\n":2683,"емпи":2684," кадам":2685," парламент":2686,"Быйыл":2687," инстит":2688," экономик":2689," жогору":2690," сында":2691,"ылбек":2692," эскерт":2693," кул":2694,"Ев":2695," туруп":2696," Эм":2697," белгилеп":2698,"ултан":2699," Кам":2700," натыйж":2701,"ткен":2702," басылм":2703,"буз":2704,"ырып":2705," шартт":2706," мекен":2707," аттуу":2708," каран":2709,"ерлерди":2710," кошумча":2711,"гындагы":2712,"ея":2713," Ө":2714," Трамп":2715,"бетте":2716,"дел":2717,"Анан":2718," райондор":2719," күб":2720," кылуу":2721," боло":2722," күндөрү":2723," баян":2724," жарыялады":2725,"тай":2726," те":2727," мамлекеттер":2728,"Сүр":2729," мис":2730,"Мур":2731,"ыб":2732," партиясынын":2733,"гынан":2734," фин":2735,"Аб":2736,"астан":2737,"ыны":2738," банк":2739,"чусу":2740," кыс":2741,"угалим":2742," бөлүн":2743,"ини":2744," Ток":2745,"инистрация":2746," өкмөтү":2747," макулдаш":2748,"ад":2749," соттун":2750," мамиле":2751," Казакстандын":2752," курулуш":2753," мэр":2754," ирет":2755," сырткары":2756," шаарындагы":2757," максатында":2758," көлөм":2759," ыктымал":2760," долбоору":2761," аныкталган":2762,"гу":2763," таян":2764," Чүй":2765,"сында":2766,"олд":2767,"едер":2768,"жы":2769,"асп":2770," кызматкери":2771,"арак":2772," аларга":2773," үйлөр":2774," администрация":2775,"ербай":2776," Башкы":2777," мүл":2778," зомбул":2779," бийликтин":2780," каттоо":2781,"андын":2782," жерлер":2783," айтканда":2784," облустук":2785," айынан":2786,"60":2787,"бия":2788," карабай":2789,"атр":2790," Алек":2791," кылды":2792," оорукан":2793," сай":2794," чемпи":2795,"суна":2796,"анас":2797," адамдардын":2798," миңдей":2799,"Айрым":2800,"оорон":2801,",\n":2802,"Кытай":2803," кызы":2804,"ушту":2805," кишинин":2806," Брит":2807,"таж":2808," өч":2809," улант":2810,"Себ":2811," дүйнөлүк":2812,"есинде":2813," товар":2814," вирус":2815,"матов":2816," ортосунда":2817," жарыяланган":2818,"улду":2819," демократ":2820,"өттүн":2821,"лим":2822,"иядагы":2823," апта":2824,"Са":2825," мамлекеттин":2826,"өөл":2827," абалы":2828," студен":2829," мүчөсү":2830," болуш":2831," бизге":2832," аг":2833," теришт":2834,"олуп":2835," көрсөткүч":2836," жокко":2837,"-берен":2838,"еленский":2839,"йр":2840," укуктар":2841,"-Си":2842," бү":2843,"уман":2844," талапк":2845,"көм":2846,"мин":2847," жуг":2848," тапта":2849," чечими":2850,"үндөгү":2851," кызыкчыл":2852," түшүп":2853," эмгек":2854,"аламаттык":2855,"кор":2856," кырсы":2857," телефон":2858,"31":2859," түзгөн":2860," ээл":2861,"акция":2862," Бек":2863,"пей":2864,"анган":2865," көпт":2866," апп":2867,"туп":2868," айдоо":2869," №":2870," Кара":2871," бараткан":2872," салынган":2873,"орма":2874," метр":2875,"илди":2876," алганын":2877," бизн":2878,"цион":2879," Токт":2880," бийликке":2881," кызматташт":2882," козголгон":2883," жакта":2884,"өйр":2885," Алмаз":2886,"тал":2887," кодексинин":2888," уг":2889," тартылган":2890,"атып":2891,"маты":2892,"ларын":2893,"ева":2894," телек":2895,"Себеби":2896,"иясы":2897," режим":2898," сиз":2899," сайт":2900," Киев":2901," жетект":2902," ю":2903,"ылт":2904," көчө":2905," берүүгө":2906," өзүнө":2907,"Жер":2908," маалымдады":2909,"баева":2910," оппозиция":2911,"аниянын":2912,"оопсуз":2913,"мун":2914," салык":2915," белгилеген":2916,"ице":2917," Белар":2918," жеткен":2919," өлкөдөгү":2920,"мушт":2921," мугалим":2922," эп":2923,"70":2924," Герман":2925," Мамлекеттик":2926," кабарлаган":2927,"укул":2928," маалыматты":2929," уюмдар":2930," башкаруу":2931,"ашып":2932," эсеб":2933,"акты":2934," Тажикстандын":2935,"Сүрөттүн":2936,"ti":2937," кесеп":2938," жабырка":2939," алыш":2940," эксперт":2941,"Кан":2942," Орусияда":2943," зор":2944,"Мыйзам":2945,"сек":2946," ишеним":2947,"бирим":2948," зам":2949,"ңыз":2950," байланыш":2951,"иф":2952,"ылмыш":2953," казак":2954,"алоо":2955," комитетинин":2956,"Талиб":2957,"Дем":2958," Кытайдын":2959,"ербайжан":2960," Матра":2961,"ейсб":2962,"робирим":2963,"айы":2964,"раз":2965," калганын":2966," карма":2967," бою":2968," киреш":2969,"истан":2970,"дөп":2971," кармалып":2972,"-октябр":2973,"дешт":2974," болорун":2975,"тта":2976," Мак":2977," китеп":2978," мүнө":2979,"-жылдары":2980,"игине":2981," куралдуу":2982," Байден":2983," келин":2984," кабылган":2985," өлкөгө":2986," кыск":2987," Ташиев":2988,"Дүйн":2989," пл":2990," уюмунун":2991," жараны":2992," болбой":2993,"Биринчи":2994," чыр":2995,"сиянын":2996,"ларда":2997," маалда":2998," Мир":2999," күчөт":3000,"үктөр":3001," жаңж":3002," суроолор":3003," Бишкектеги":3004," качан":3005,"икке":3006," курч":3007," кеңешинин":3008,"асс":3009,"80":3010," Москва":3011,"алга":3012,"үлөт":3013," сокку":3014,"дерге":3015," Ор":3016," отурган":3017," сегиз":3018," калк":3019,"ma":3020,"омп":3021," кыйн":3022,"алай":3023,"иккен":3024,"ашкан":3025," T":3026,"огуз":3027," сомго":3028,"ашка":3029,"юз":3030," албайт":3031," согушка":3032," бут":3033," салышт":3034," жүрүш":3035," жарандар":3036,"би":3037,"еск":3038,"Кыз":3039," эмге":3040," ишм":3041," долбоорун":3042," Республик":3043," ордуна":3044," бей":3045," шайлоодо":3046," белгиленген":3047,"ью":3048,"исттер":3049," жакында":3050,"Бал":3051," кабинетинин":3052,"Москв":3053,"Жар":3054,"атыр":3055," Соорон":3056," жылда":3057,"),":3058," Дон":3059," жасап":3060,"ешкен":3061,"дыруу":3062," мектепт":3063,"ож":3064,"етке":3065,"өөк":3066,"алышы":3067," нерс":3068," команда":3069," бөлүгү":3070," койду":3071," чогуу":3072,"дия":3073," айтылып":3074,"сынан":3075,"үндүк":3076," кайрылган":3077," изилдөө":3078," саламаттык":3079," убакыт":3080," Ю":3081," ыс":3082," республ":3083,"орбору":3084," ыйгар":3085," курман":3086,"баевдин":3087," топтор":3088," бериш":3089,"дукт":3090," өтөт":3091," аялдар":3092," жума":3093," чукул":3094," өкүм":3095,"алдын":3096,"Мунун":3097,"уттар":3098,"\".\n":3099,"арш":3100," борбору":3101,"иси":3102,"Ата":3103," бекем":3104,"дөрүнүн":3105," токто":3106," сомдон":3107,"Жаңы":3108,"-жылдагы":3109,"уктун":3110,"ектеги":3111," интерн":3112," убада":3113," эсептейт":3114," жашап":3115," Бишкектин":3116," жетти":3117," керектигин":3118," үз":3119," айда":3120," биргел":3121," Кеңеш":3122," кескин":3123,"Расмий":3124,"овду":3125," Тур":3126," жерден":3127," алынып":3128,"Өткөн":3129," жолдо":3130,"Көп":3131,"олот":3132," эгемен":3133," ката":3134,"Азыркы":3135,"арында":3136," корго":3137," директору":3138,"дигин":3139," тарта":3140,"аша":3141," буйр":3142,"уусун":3143,"Коронавир":3144," барат":3145," кайрыл":3146,"Баткен":3147," телекан":3148," билдиргендей":3149,"анып":3150," жараат":3151,"агыл":3152,"Борбор":3153,"ъект":3154," (\"":3155," иштерин":3156," уюму":3157,"тажик":3158,"Мамлекеттик":3159,"ттик":3160," тараткан":3161,"екке":3162," киргизилген":3163," жакка":3164,"СС":3165,"рый":3166," башкармалыгынын":3167,"акан":3168," жылдык":3169,"ектин":3170," ишти":3171,"оңку":3172,"Акыркы":3173," проц":3174," элге":3175,"еттер":3176," жашыр":3177," алынды":3178,"аары":3179,"дери":3180," турак":3181,"аттарды":3182,"руз":3183," мыкты":3184," COVID":3185," окт":3186,"утбол":3187," вице":3188,"УУнун":3189,"Экинчи":3190," нач":3191," Украинадагы":3192," карантин":3193,"Жак":3194," карыз":3195,"есс":3196,"арда":3197," көрсөткөн":3198," туруктуу":3199,"елип":3200," Сир":3201," бөгө":3202,"раф":3203,"-тажик":3204," келеч":3205," маселени":3206,"ный":3207," Аск":3208," андай":3209," таап":3210," анан":3211,"Мекем":3212,"айып":3213," коронавируска":3214," ооруканага":3215,"олдо":3216," эст":3217," инвестиция":3218," Камчы":3219,"ема":3220," күнөөл":3221," отурум":3222,"аак":3223,"кап":3224," темир":3225," айтылды":3226," башалам":3227," жарандары":3228,"мерикалык":3229,"үң":3230,"ырт":3231," кошт":3232," күм":3233," каттам":3234," мекемелер":3235," жыйынтыгы":3236," жылдары":3237," маалыматка":3238," аракети":3239,"...-":3240," үм":3241,"ЭБ":3242," калыб":3243,"иктер":3244," жасалган":3245,"цияга":3246," сүрөт":3247,"кум":3248," жүрөт":3249,"убуз":3250," турганы":3251," бл":3252," тууган":3253,"омат":3254,"дем":3255," арасындагы":3256," ошон":3257,"ембиде":3258,"шти":3259,"асыз":3260," сөздөр":3261,"уттуу":3262,"АТ":3263,"уккан":3264," өнөр":3265,"өб":3266," коң":3267,"аганын":3268," акын":3269,"оопсуздук":3270,"сам":3271," саясатчы":3272," кыргызстандыктар":3273,"ерв":3274,"дырып":3275," тажрый":3276,"ткан":3277," тобу":3278," каралган":3279," акы":3280," чыгыш":3281,"es":3282,"жин":3283," аты":3284," тартип":3285,"удья":3286,"ларында":3287," Зеленский":3288,"елген":3289," Со":3290,"Ошент":3291,"ализ":3292," Тышкы":3293," атындагы":3294," калыбына":3295,"Жалп":3296,"айлоо":3297," Нарын":3298," стат":3299," Корея":3300," баасы":3301," кайрылып":3302," агенттиги":3303,"90":3304," мо":3305," туул":3306," тут":3307," чара":3308,"асым":3309," түзөт":3310,"-бир":3311," аэ":3312," жагынан":3313,"Былтыр":3314,"иң":3315,"алыш":3316," мага":3317," ондогон":3318," кайтып":3319,"өшк":3320," жаан":3321," адамга":3322," тийгиз":3323," штаб":3324,"in":3325,"игинин":3326," укуктары":3327," бирге":3328," кабарланды":3329," карш":3330,"Соңку":3331," менин":3332," арга":3333," уна":3334," имар":3335,"Деп":3336,"те":3337,"акистан":3338," бара":3339,"сыздан":3340," соттук":3341," чемпион":3342," жогор":3343," мыйзамга":3344," чакырым":3345,"мек":3346," көрсөтүп":3347," камсыздоо":3348," насы":3349," жүргүзүп":3350,"за":3351," кармалды":3352,"500":3353," манда":3354," стан":3355," тараптуу":3356," коргон":3357,"ылууда":3358,"АМ":3359,"бан":3360," ку":3361," чарба":3362," Өзбекстандын":3363," айл":3364," ишине":3365," Биринчи":3366," сум":3367," аң":3368," сыйл":3369,"арип":3370," айта":3371," мүмкүнчүлүк":3372,"еде":3373,"пайт":3374," бажы":3375," бак":3376," Тал":3377," Министр":3378," ишмер":3379," жалгыз":3380," комитети":3381," кеминде":3382,"Маалыматка":3383," тоск":3384,"устан":3385,"ышка":3386,"ремл":3387," көпчүлүк":3388,"ңар":3389," тогуз":3390,"иза":3391," башынан":3392," кагыл":3393," чектөө":3394,"сүнүн":3395," жүк":3396," күнгө":3397,"нот":3398," таза":3399," күндөн":3400," берүүнү":3401," түзүп":3402,"даган":3403," өтүнүч":3404,"ыч":3405,"аларда":3406," Ички":3407," аскерлери":3408," түрмө":3409," машы":3410," Украина":3411," бийликти":3412,"Өлкө":3413," Министрлер":3414," институт":3415,"овго":3416," ажырат":3417,"сунда":3418,"-түл":3419," чыгым":3420,"гунт":3421," катышуу":3422,"Муну":3423," өлкөлөрдүн":3424," тиешеси":3425,"чынын":3426,"ээк":3427," көбүр":3428," Жапаровдун":3429," аябай":3430," ы":3431,"\")":3432,"стыкт":3433,"лиги":3434," миңдеген":3435," зав":3436," чыгаруу":3437," дароо":3438,"Тажикстан":3439," компаниясы":3440," A":3441,"Кур":3442," алганы":3443,"Депут":3444," жолдор":3445," жатканда":3446," Ис":3447,"Өкмөт":3448," табылган":3449," экс":3450," түшүр":3451," жумш":3452,"tion":3453,"Украинанын":3454," тамак":3455,"айк":3456,"етин":3457," түзүү":3458,"Би":3459,"убай":3460," булактар":3461," күчтөрү":3462,"ясий":3463,"Бишкекте":3464," куруу":3465," министринин":3466," криз":3467,"аркум":3468," коё":3469,"цен":3470," жасал":3471," өзгөртүү":3472,"дур":3473," самм":3474," прокуратура":3475," демилг":3476," тай":3477,"-жылга":3478," кеткенин":3479,"бет":3480,"ыма":3481,"Өзгөчө":3482," сүрөтт":3483,"улуш":3484,"уктаж":3485," нааразы":3486,"ентке":3487,"ыктан":3488," тынчтык":3489,"бөгөн":3490,"екция":3491,"ель":3492," көмө":3493," мүнөз":3494," тоскоол":3495," өлкөдөн":3496," парламенттин":3497," энергет":3498,"яны":3499," жакшыр":3500," карандысыз":3501," S":3502,"усул":3503,"елин":3504," экөө":3505," шайлоонун":3506," берилди":3507," арн":3508,"укта":3509,"300":3510," үйр":3511," катышып":3512," караштуу":3513," куугунт":3514,"АТО":3515," тоо":3516," соз":3517," көрсөтүлгөн":3518," сактап":3519," жогот":3520,"лайн":3521," Гүл":3522," Алмазбек":3523,"усулман":3524," муктаж":3525," кеңешт":3526," киргизүү":3527,"атында":3528," маселесин":3529,"уманитардык":3530," позиция":3531," экспер":3532," имарат":3533," мүчөлөрү":3534,"-Ж":3535,"изация":3536," дегенде":3537," өткөрүү":3538," алмаштыр":3539,"ланып":3540," облусундагы":3541," көптөгөн":3542,"олуу":3543,"үнчү":3544,"деди":3545,"өөнү":3546," олуттуу":3547,"ca":3548," билдирүүдө":3549,"ратег":3550," органдары":3551," каржыл":3552,"Иш":3553,"Кай":3554," көмүр":3555," окуп":3556," трансп":3557," Ү":3558,"үйшөм":3559," аэроп":3560,"чам":3561," баа":3562," Ма":3563,"бар":3564," соол":3565,"Албетте":3566," эгер":3567," үчүнчү":3568,"чылары":3569,"АКШнын":3570," колдогон":3571," азык":3572," кызматташ":3573," күйөө":3574," объект":3575,"ылышы":3576," документ":3577," маалыматтарды":3578," энергия":3579,"ыла":3580," айылында":3581," аткаруу":3582,"эл":3583," пасп":3584," маж":3585," жылды":3586," таз":3587,"ашинг":3588," тараптан":3589,"ондук":3590," чың":3591," балдардын":3592," толугу":3593," каражаттары":3594,"ордун":3595,"ктардын":3596," футбол":3597,"сих":3598,"en":3599,"есе":3600," жалпысынан":3601," атаанда":3602,"Чек":3603," миңге":3604," Шт":3605," илимий":3606," бербей":3607," сынга":3608,"али":3609," жокт":3610," жарак":3611,"аваль":3612," Акылбек":3613," маалыматы":3614," Евробирим":3615,"?\"":3616,"ушк":3617,"өөнүн":3618," салды":3619," уур":3620," тагдыр":3621," болууда":3622," дек":3623," ака":3624," чечимин":3625," партиясы":3626,"емпир":3627," Сооронбай":3628," көбүрөөк":3629," жуктур":3630," шектүү":3631," бойдон":3632," Матраимов":3633," судья":3634,"гым":3635," мамлекетке":3636,"ЭС":3637," чал":3638,"ыйкат":3639," Түркия":3640,"мөнстан":3641,"анд":3642," жаштар":3643," пикирин":3644," армиясы":3645," миграция":3646," машин":3647," өтпөй":3648,"Менин":3649," комитет":3650,"АС":3651,"рад":3652,"ектер":3653," Темир":3654," жаңыл":3655,"ономикалык":3656," Кылмыш":3657," колдонуу":3658," мед":3659," доо":3660," маегинде":3661," токтом":3662,"өттү":3663," мунай":3664,"-дар":3665," түнү":3666," аткан":3667," турм":3668," эсеп":3669," тургуну":3670," чөйр":3671,"Аталган":3672,"\"Азаттык":3673,"35":3674," канчалык":3675," текшерүү":3676," таянып":3677," тир":3678,"ектен":3679," Уюм":3680,"al":3681," болмок":3682," Ас":3683,"аныш":3684,"ышууда":3685," долбоорлор":3686," аймактарда":3687," ген":3688," кылат":3689," кама":3690," камалган":3691," сүйлөшүү":3692,"Мас":3693,"бу":3694," өң":3695,"ыктуу":3696," активисттер":3697,"авальный":3698,"өлгөн":3699," районунда":3700,"Эгерде":3701," ооган":3702,"гул":3703,"гыр":3704," орнот":3705," түрдүү":3706," Фран":3707,"атын":3708," айдан":3709," келгенин":3710," ишкерлер":3711,"луу":3712," корку":3713," адамды":3714," тонна":3715,"ьян":3716," мөөнөтү":3717," иде":3718,"Башка":3719,"ков":3720,"ойт":3721," америкалык":3722," айга":3723," Бор":3724," кызматка":3725," насыя":3726,"богон":3727,"бой":3728," дарыгерлер":3729," милдетин":3730," Куб":3731,"лав":3732," кин":3733," болгондуктан":3734," жетекчи":3735," кил":3736," чектөөлөр":3737," театр":3738,"Парлам":3739,"ким":3740,"лап":3741,"үүлөрдү":3742," тастыкт":3743," кийим":3744,"ерн":3745," билген":3746," атып":3747," Баш":3748," укугун":3749," Али":3750," маалында":3751," ооз":3752," Британия":3753," Камчыбек":3754,"an":3755,"сен":3756," калса":3757," аткыл":3758," издөө":3759," жүй":3760," айлык":3761," талаш":3762," Борбордук":3763," айтууда":3764,"обил":3765,"еж":3766,"өбүз":3767,"дардан":3768," тоолуу":3769," берилет":3770,"ативдик":3771,"Коронавирус":3772," түшүндүрмө":3773," аргасыз":3774,"кар":3775," күз":3776," келат":3777," кошо":3778," Биримди":3779,"агаз":3780," убакы":3781," эркинен":3782,"ырган":3783," кетет":3784," апрел":3785," себепт":3786," качып":3787," тартуу":3788," бирөө":3789,"ошмо":3790,"Негиз":3791," себеби":3792," Өмүр":3793," кара":3794," өзбек":3795," фр":3796,"Орус":3797,"Мамлек":3798," иштей":3799," партиянын":3800," жакындары":3801," көтөрүп":3802," мей":3803,"угуна":3804,"пиада":3805," эртең":3806," адамдарды":3807,"ктарды":3808,"ити":3809," ави":3810," бөгөт":3811," калуу":3812,"еринин":3813," Ака":3814," алдынча":3815," тынчсыздан":3816," ойлой":3817," бизнес":3818," түп":3819,"есур":3820," кабарланган":3821,"ушкан":3822,"ттуу":3823," экст":3824," жаза":3825," онлайн":3826,"ерендум":3827,"-президен":3828," коррупцияга":3829," баракчасына":3830," тийиш":3831," дипломат":3832,"Кон":3833,"Үч":3834," Кан":3835,"дөрүн":3836," бүгүнкү":3837,"КУ":3838," көрсөтүү":3839," төрагасынын":3840,"АМАС":3841," маалыматта":3842," ыра":3843,"рист":3844," мектептер":3845,"ашингтон":3846," сар":3847," башталды":3848," колдоп":3849,"амат":3850," катышты":3851," кылын":3852," чакырган":3853," тарапта":3854," сөөгү":3855," Республикасынын":3856," мажбур":3857,"Кумтөр":3858,"амир":3859," Асан":3860,"ван":3861," дрон":3862," болбосо":3863," өзүнчө":3864," жугуз":3865,"зак":3866," болжол":3867," чыгат":3868," Дүйн":3869," алмаш":3870,"асст":3871," мени":3872," салма":3873,"Израил":3874,"амин":3875," коргоочу":3876," баалуу":3877," өзүм":3878," түзүм":3879," кандайдыр":3880," маалымдаган":3881," эскертти":3882," деңгээлде":3883,"Европ":3884,"Иран":3885,"өгү":3886," кагаз":3887,"урт":3888," акыр":3889,"Мына":3890,"асма":3891," ресур":3892," компаниясынын":3893," тийиштүү":3894,"Мил":3895,"енко":3896," мел":3897," менч":3898,"ышканын":3899," өнөктөшт":3900,"оодо":3901," деңиз":3902,"чилик":3903," аймактык":3904," стратег":3905," өртт":3906,"сей":3907," сел":3908," чыгарм":3909," имп":3910,"емби":3911," пул":3912," караб":3913," аягына":3914," салым":3915,"апон":3916," жараша":3917,"бызды":3918,"бекова":3919,"үйшөмбү":3920,"Айт":3921,"Манас":3922,"Талибан":3923,"ктары":3924,"илим":3925,"үктү":3926," эмгект":3927,"уң":3928," бары":3929,"ларынын":3930,"гөнүн":3931," тос":3932,"гөз":3933," чыгуу":3934," майрам":3935,"артам":3936," жандан":3937,"Эмне":3938,"кулов":3939,"Мурдагы":3940,"анс":3941," го":3942,"Тер":3943,"өң":3944," Түштүк":3945," азайт":3946," жөнгө":3947," аныкталды":3948," Батыш":3949," кырдаалдар":3950," өмүрүн":3951,"алаган":3952," гуманитардык":3953," гектар":3954," терең":3955," Азербайжан":3956,"-Суу":3957,"үгүнө":3958," убагында":3959," багыт":3960," мин":3961," сек":3962,"ейл":3963," Султан":3964," реформ":3965," ни":3966,"ешет":3967,"терди":3968," кана":3969," мусулман":3970,"дой":3971,"уктагы":3972," таандык":3973," ыкчам":3974,"Журналист":3975,"оч":3976," түй":3977," жараткан":3978," келгенде":3979,"тен":3980,"ларына":3981," фондун":3982,"Ошентип":3983,"Башкы":3984," тутк":3985," келаткан":3986," аймактарында":3987," укуктук":3988," террордук":3989,"ge":3990," чыгарма":3991," кылмыштуу":3992," псих":3993," ишкер":3994," мигранттар":3995,"ми":3996,"-жаза":3997," талиб":3998," жокп":3999}