{"\n":0," ":1,"!":2,"\"":3,"#":4,"$":5,"%":6,"&":7,"'":8,"(":9,")":10,"*":11,"+":12,",":13,"-":14,".":15,"/":16,"0":17,"1":18,"2":19,"3":20,"4":21,"5":22,"6":23,"7":24,"8":25,"9":26,":":27,";":28,"<":29,"=":30,">":31,"?":32,"@":33,"A":34,"B":35,"C":36,"D":37,"E":38,"F":39,"G":40,"H":41,"I":42,"J":43,"K":44,"L":45,"M":46,"N":47,"O":48,"P":49,"Q":50,"R":51,"S":52,"T":53,"U":54,"V":55,"W":56,"X":57,"Y":58,"Z":59,"[":60,"\\":61,"]":62,"^":63,"_":64,"a":65,"b":66,"c":67,"d":68,"e":69,"f":70,"g":71,"h":72,"i":73,"j":74,"k":75,"l":76,"m":77,"n":78,"o":79,"p":80,"q":81,"r":82,"s":83,"t":84,"u":85,"v":86,"w":87,"x":88,"y":89,"z":90,"{":91,"|":92,"}":93,"~":94,"¢":95,"£":96,"¤":97,"¥":98,"¦":99,"§":100,"©":101,"¬":102,"®":103,"°":104,"±":105,"¶":106,"·":107,"¿":108,"À":109,"Á":110,"Â":111,"Ã":112,"Ä":113,"Æ":114,"Ç":115,"È":116,"É":117,"Ê":118,"Ë":119,"Ì":120,"Í":121,"Î":122,"Ð":123,"Ñ":124,"Ò":125,"Ô":126,"Õ":127,"Ö":128,"×":129,"Ø":130,"Ü":131,"Ý":132,"ß":133,"à":134,"á":135,"â":136,"ã":137,"ä":138,"å":139,"æ":140,"ç":141,"è":142,"é":143,"ê":144,"ë":145,"ì":146,"í":147,"î":148,"ï":149,"ð":150,"ñ":151,"ò":152,"ó":153,"ô":154,"õ":155,"ö":156,"÷":157,"ø":158,"ú":159,"û":160,"ü":161,"ý":162,"þ":163,"ÿ":164,"Ā":165,"ā":166,"ă":167,"ć":168,"Č":169,"č":170,"đ":171,"ē":172,"ĕ":173,"Ė":174,"ė":175,"ę":176,"ě":177,"ğ":178,"ī":179,"Į":180,"İ":181,"ı":182,"ĸ":183,"ľ":184,"Ł":185,"ł":186,"ń":187,"ň":188,"ō":189,"Œ":190,"œ":191,"ř":192,"ś":193,"Ş":194,"ş":195,"š":196,"ť":197,"ŧ":198,"ū":199,"ů":200,"Ž":201,"Ɗ":202,"ƒ":203,"ư":204,"ǎ":205,"ǐ":206,"ǿ":207,"ɇ":208,"ɐ":209,"ɑ":210,"ə":211,"ɪ":212,"ɲ":213,"ɴ":214,"ɵ":215,"ʀ":216,"ʏ":217,"ʜ":218,"ʟ":219,"ˈ":220,"ˌ":221,"ː":222,"˗":223,"̀":224,"́":225,"̄":226,"̈":227,"̌":228,"̵":229,"̷":230,"̸":231,"͜":232,"͞":233,"Δ":234,"Η":235,"Κ":236,"Μ":237,"Ο":238,"Τ":239,"Φ":240,"Ψ":241,"Ω":242,"ά":243,"ή":244,"ί":245,"α":246,"β":247,"γ":248,"δ":249,"ε":250,"η":251,"θ":252,"ι":253,"κ":254,"λ":255,"μ":256,"ν":257,"ο":258,"π":259,"ρ":260,"ς":261,"σ":262,"τ":263,"υ":264,"φ":265,"ω":266,"ό":267,"ύ":268,"ώ":269,"Ё":270,"Ђ":271,"Є":272,"Ѕ":273,"І":274,"Ї":275,"Ћ":276,"Ќ":277,"Ў":278,"Џ":279,"А":280,"Б":281,"В":282,"Г":283,"Д":284,"Е":285,"Ж":286,"З":287,"И":288,"Й":289,"К":290,"Л":291,"М":292,"Н":293,"О":294,"П":295,"Р":296,"С":297,"Т":298,"У":299,"Ф":300,"Х":301,"Ц":302,"Ч":303,"Ш":304,"Щ":305,"Ъ":306,"Ы":307,"Ь":308,"Э":309,"Ю":310,"Я":311,"а":312,"б":313,"в":314,"г":315,"д":316,"е":317,"ж":318,"з":319,"и":320,"й":321,"к":322,"л":323,"м":324,"н":325,"о":326,"п":327,"р":328,"с":329,"т":330,"у":331,"ф":332,"х":333,"ц":334,"ч":335,"ш":336,"щ":337,"ъ":338,"ы":339,"ь":340,"э":341,"ю":342,"я":343,"ѐ":344,"ё":345,"ђ":346,"ѓ":347,"є":348,"ѕ":349,"і":350,"ї":351,"ј":352,"њ":353,"ћ":354,"ќ":355,"ў":356,"џ":357,"Ѳ":358,"ѳ":359,"҉":360,"Ґ":361,"ґ":362,"ғ":363,"ҕ":364,"Җ":365,"җ":366,"Қ":367,"қ":368,"ҡ":369,"Ң":370,"ң":371,"Ҥ":372,"ҥ":373,"Ү":374,"ү":375,"Ұ":376,"ұ":377,"Ҳ":378,"ҳ":379,"ҷ":380,"Һ":381,"һ":382,"Ӏ":383,"ӄ":384,"Ӈ":385,"ӈ":386,"ӑ":387,"ӓ":388,"Ә":389,"ә":390,"ӝ":391,"ӣ":392,"ӧ":393,"Ө":394,"ө":395,"ӯ":396,"ӱ":397,"Ա":398,"Գ":399,"Ե":400,"Ո":401,"ա":402,"դ":403,"ե":404,"զ":405,"ը":406,"ի":407,"լ":408,"խ":409,"կ":410,"ղ":411,"մ":412,"յ":413,"ն":414,"ո":415,"չ":416,"ս":417,"վ":418,"տ":419,"ր":420,"ց":421,"ւ":422,"ք":423,"א":424,"ב":425,"ג":426,"ה":427,"ו":428,"ז":429,"ט":430,"י":431,"ל":432,"מ":433,"נ":434,"ע":435,"פ":436,"ר":437,"ת":438,"،":439,"؟":440,"أ":441,"إ":442,"ا":443,"ب":444,"ة":445,"ت":446,"ج":447,"ح":448,"خ":449,"د":450,"ذ":451,"ر":452,"ز":453,"س":454,"ش":455,"ص":456,"ض":457,"ط":458,"ع":459,"غ":460,"ف":461,"ق":462,"ك":463,"ل":464,"م":465,"ن":466,"ه":467,"و":468,"ى":469,"ي":470,"َ":471,"ک":472,"ہ":473,"ۇ":474,"ی":475,"ە":476,"ं":477,"इ":478,"ए":479,"क":480,"ज":481,"ब":482,"र":483,"ल":484,"़":485,"ा":486,"ि":487,"ै":488,"१":489,"४":490,"७":491,"९":492,"অ":493,"ই":494,"ক":495,"চ":496,"ত":497,"দ":498,"ন":499,"ব":500,"র":501,"া":502,"ি":503,"ু":504,"ে":505,"্":506,"ਂ":507,"ਕ":508,"ਟ":509,"ਪ":510,"ਮ":511,"ਰ":512,"ਸ":513,"ਹ":514,"ਾ":515,"ਿ":516,"ੀ":517,"ੂ":518,"ੈ":519,"ੌ":520,"க":521,"ட":522,"ழ":523,"ா":524,"ி":525,"ூ":526,"ை":527,"்":528,"ೋ":529,"ก":530,"ค":531,"ง":532,"จ":533,"ซ":534,"ด":535,"ต":536,"ท":537,"น":538,"ฝ":539,"พ":540,"ฟ":541,"ภ":542,"ม":543,"ย":544,"ล":545,"ว":546,"ษ":547,"ส":548,"ห":549,"ฬ":550,"อ":551,"ั":552,"า":553,"ิ":554,"ี":555,"ึ":556,"เ":557,"แ":558,"โ":559,"ใ":560,"ไ":561,"่":562,"้":563,"์":564,"྆":565,"࿐":566,"တ":567,"န":568,"မ":569,"လ":570,"သ":571,"ဦ":572,"ိ":573,"ု":574,"ေ":575,"့":576,"း":577,"္":578,"်":579,"ြ":580,"၊":581,"ᄀ":582,"ᄂ":583,"ᄅ":584,"ᄆ":585,"ᄇ":586,"ᄋ":587,"ᄏ":588,"ᄒ":589,"ᅮ":590,"ᅲ":591,"ᅳ":592,"ᅵ":593,"ᆞ":594,"ᐉ":595,"᠋":596,"ᠠ":597,"ᠡ":598,"ᠢ":599,"ᠤ":600,"ᠥ":601,"ᠦ":602,"ᠨ":603,"ᠫ":604,"ᠬ":605,"ᠭ":606,"ᠮ":607,"ᠯ":608,"ᠰ":609,"ᠱ":610,"ᠳ":611,"ᠴ":612,"ᠵ":613,"ᠶ":614,"ᠷ":615,"ᠹ":616,"ᠻ":617,"ᠼ":618,"᭄":619,"ᴀ":620,"ᴄ":621,"ᴇ":622,"ᴍ":623,"ᴜ":624,"ᴠ":625,"ᵯ":626,"ᵴ":627,"ḍ":628,"ḥ":629,"ṃ":630,"ṅ":631,"ṇ":632,"ṭ":633,"ẙ":634,"ầ":635,"ắ":636,"ằ":637,"ế":638,"ễ":639,"ớ":640,"ờ":641,"ἰ":642,"‐":643,"―":644,"‖":645,"†":646,"‡":647,"•":648,"‣":649," ":650,"‰":651,"′":652,"‹":653,"›":654,"※":655,"⁄":656,"₩":657,"₪":658,"€":659,"₮":660,"₹":661,"₽":662,"⃣":663,"←":664,"↑":665,"→":666,"↓":667,"↔":668,"↖":669,"↙":670,"↳":671,"⇒":672,"⇨":673,"∂":674,"∆":675,"∈":676,"−":677,"∙":678,"√":679,"∞":680,"≈":681,"≠":682,"≤":683,"≥":684,"≫":685,"⋆":686,"⋯":687,"⌚":688,"⎪":689,"⏱":690,"│":691,"╒":692,"╘":693,"╟":694,"╢":695,"█":696,"▍":697,"■":698,"□":699,"▨":700,"▪":701,"▲":702,"▶":703,"►":704,"▼":705,"◆":706,"◇":707,"◊":708,"○":709,"●":710,"◦":711,"☀":712,"☂":713,"★":714,"☆":715,"☈":716,"☎":717,"☑":718,"☔":719,"☕":720,"☘":721,"☛":722,"☝":723,"☞":724,"☤":725,"☮":726,"☹":727,"☺":728,"☻":729,"♀":730,"♂":731,"♏":732,"♔":733,"♚":734,"♛":735,"♠":736,"♡":737,"♣":738,"♥":739,"♦":740,"♪":741,"♫":742,"♻":743,"⚃":744,"⚕":745,"⚙":746,"⚠":747,"⚡":748,"⚫":749,"⚽":750,"✅":751,"✈":752,"✌":753,"✍":754,"✓":755,"✔":756,"✞":757,"✨":758,"✯":759,"✿":760,"❀":761,"❂":762,"❃":763,"❄":764,"❏":765,"❖":766,"❗":767,"❤":768,"❷":769,"❹":770,"❼":771,"➜":772,"➡":773,"➢":774,"➥":775,"➳":776,"⠀":777,"⦁":778,"⭐":779,"⿱":780,"、":781,"。":782,"《":783,"》":784,"「":785,"」":786,"『":787,"』":788,"【":789,"】":790,"〓":791,"あ":792,"い":793,"う":794,"え":795,"お":796,"か":797,"が":798,"き":799,"ぎ":800,"く":801,"ぐ":802,"け":803,"げ":804,"こ":805,"ご":806,"さ":807,"ざ":808,"し":809,"じ":810,"す":811,"せ":812,"そ":813,"た":814,"だ":815,"ち":816,"っ":817,"つ":818,"て":819,"で":820,"と":821,"ど":822,"な":823,"に":824,"ぬ":825,"の":826,"は":827,"ば":828,"ひ":829,"ぶ":830,"べ":831,"ほ":832,"ま":833,"み":834,"め":835,"も":836,"ゃ":837,"や":838,"ゅ":839,"ゆ":840,"ょ":841,"よ":842,"ら":843,"り":844,"る":845,"れ":846,"ろ":847,"わ":848,"を":849,"ん":850,"ィ":851,"イ":852,"ウ":853,"カ":854,"ガ":855,"キ":856,"ギ":857,"ク":858,"ゲ":859,"コ":860,"ゴ":861,"サ":862,"シ":863,"ジ":864,"セ":865,"ゼ":866,"ソ":867,"タ":868,"ダ":869,"チ":870,"ツ":871,"ヅ":872,"デ":873,"ド":874,"ナ":875,"ニ":876,"ハ":877,"バ":878,"ヒ":879,"ビ":880,"フ":881,"ブ":882,"ベ":883,"ペ":884,"マ":885,"ミ":886,"ム":887,"モ":888,"ャ":889,"ョ":890,"ラ":891,"リ":892,"ル":893,"ン":894,"・":895,"ー":896,"ㄍ":897,"ㄎ":898,"ㄟ":899,"ㄨ":900,"一":901,"七":902,"万":903,"三":904,"上":905,"下":906,"不":907,"世":908,"业":909,"个":910,"中":911,"么":912,"乐":913,"也":914,"二":915,"云":916,"互":917,"交":918,"京":919,"人":920,"今":921,"介":922,"仔":923,"他":924,"付":925,"代":926,"们":927,"件":928,"任":929,"企":930,"伊":931,"休":932,"众":933,"会":934,"位":935,"住":936,"何":937,"作":938,"你":939,"使":940,"便":941,"係":942,"保":943,"信":944,"修":945,"俺":946,"們":947,"停":948,"健":949,"側":950,"僕":951,"優":952,"儿":953,"元":954,"光":955,"克":956,"免":957,"八":958,"公":959,"内":960,"册":961,"再":962,"冯":963,"出":964,"分":965,"划":966,"別":967,"前":968,"势":969,"動":970,"勖":971,"務":972,"勧":973,"包":974,"化":975,"北":976,"医":977,"十":978,"午":979,"华":980,"南":981,"博":982,"卡":983,"参":984,"古":985,"叫":986,"召":987,"台":988,"号":989,"合":990,"名":991,"向":992,"吗":993,"君":994,"员":995,"周":996,"味":997,"命":998,"和":999,"品":1000,"唐":1001,"售":1002,"唱":1003,"商":1004,"問":1005,"喵":1006,"器":1007,"回":1008,"団":1009,"図":1010,"国":1011,"图":1012,"國":1013,"圖":1014,"地":1015,"址":1016,"型":1017,"基":1018,"場":1019,"塑":1020,"塚":1021,"士":1022,"声":1023,"夂":1024,"変":1025,"夕":1026,"夜":1027,"夢":1028,"天":1029,"太":1030,"奇":1031,"奋":1032,"好":1033,"妹":1034,"委":1035,"姿":1036,"娱":1037,"子":1038,"字":1039,"学":1040,"宅":1041,"安":1042,"宗":1043,"定":1044,"室":1045,"宽":1046,"密":1047,"导":1048,"小":1049,"少":1050,"局":1051,"展":1052,"属":1053,"履":1054,"山":1055,"岩":1056,"峮":1057,"州":1058,"巡":1059,"巣":1060,"工":1061,"帝":1062,"带":1063,"帮":1064,"帯":1065,"平":1066,"年":1067,"庆":1068,"府":1069,"康":1070,"建":1071,"开":1072,"异":1073,"弦":1074,"当":1075,"录":1076,"形":1077,"彩":1078,"後":1079,"御":1080,"心":1081,"必":1082,"志":1083,"忘":1084,"忙":1085,"快":1086,"怎":1087,"恩":1088,"悔":1089,"您":1090,"悲":1091,"情":1092,"意":1093,"愛":1094,"憎":1095,"我":1096,"戒":1097,"戰":1098,"戸":1099,"手":1100,"打":1101,"払":1102,"抢":1103,"拶":1104,"指":1105,"挨":1106,"探":1107,"掲":1108,"提":1109,"改":1110,"故":1111,"文":1112,"斗":1113,"斥":1114,"斯":1115,"新":1116,"族":1117,"日":1118,"早":1119,"时":1120,"昌":1121,"星":1122,"是":1123,"昴":1124,"時":1125,"普":1126,"暲":1127,"曜":1128,"曲":1129,"更":1130,"書":1131,"會":1132,"月":1133,"有":1134,"望":1135,"朝":1136,"本":1137,"机":1138,"李":1139,"村":1140,"松":1141,"林":1142,"査":1143,"株":1144,"格":1145,"椰":1146,"楫":1147,"業":1148,"楽":1149,"概":1150,"構":1151,"横":1152,"機":1153,"歌":1154,"止":1155,"歳":1156,"残":1157,"毛":1158,"民":1159,"气":1160,"気":1161,"水":1162,"永":1163,"江":1164,"沖":1165,"没":1166,"河":1167,"治":1168,"沿":1169,"法":1170,"注":1171,"泰":1172,"洛":1173,"洞":1174,"流":1175,"浙":1176,"浜":1177,"淮":1178,"済":1179,"渡":1180,"湖":1181,"漏":1182,"演":1183,"点":1184,"照":1185,"燼":1186,"版":1187,"牛":1188,"特":1189,"玉":1190,"现":1191,"理":1192,"甘":1193,"生":1194,"用":1195,"田":1196,"町":1197,"画":1198,"留":1199,"発":1200,"登":1201,"百":1202,"的":1203,"皇":1204,"盘":1205,"眉":1206,"码":1207,"破":1208,"礦":1209,"社":1210,"祉":1211,"祐":1212,"神":1213,"福":1214,"离":1215,"私":1216,"秘":1217,"称":1218,"稳":1219,"站":1220,"等":1221,"简":1222,"管":1223,"米":1224,"糞":1225,"紀":1226,"紇":1227,"経":1228,"給":1229,"線":1230,"红":1231,"线":1232,"网":1233,"美":1234,"翻":1235,"考":1236,"者":1237,"聲":1238,"胡":1239,"能":1240,"腕":1241,"臨":1242,"自":1243,"舞":1244,"航":1245,"良":1246,"華":1247,"葵":1248,"蒙":1249,"藏":1250,"藤":1251,"蘭":1252,"蛋":1253,"蠟":1254,"行":1255,"衛":1256,"表":1257,"袖":1258,"裏":1259,"製":1260,"西":1261,"要":1262,"見":1263,"視":1264,"親":1265,"见":1266,"解":1267,"言":1268,"証":1269,"話":1270,"誉":1271,"誌":1272,"語":1273,"説":1274,"諸":1275,"識":1276,"讃":1277,"计":1278,"让":1279,"记":1280,"译":1281,"语":1282,"请":1283,"读":1284,"课":1285,"豚":1286,"象":1287,"貸":1288,"費":1289,"賃":1290,"資":1291,"賞":1292,"责":1293,"趋":1294,"路":1295,"身":1296,"車":1297,"軒":1298,"載":1299,"輝":1300,"软":1301,"载":1302,"辉":1303,"输":1304,"辺":1305,"込":1306,"达":1307,"运":1308,"近":1309,"返":1310,"还":1311,"迴":1312,"迹":1313,"送":1314,"通":1315,"逢":1316,"連":1317,"進":1318,"過":1319,"達":1320,"選":1321,"郑":1322,"部":1323,"都":1324,"配":1325,"里":1326,"重":1327,"金":1328,"鈴":1329,"鑑":1330,"钱":1331,"银":1332,"镇":1333,"长":1334,"間":1335,"関":1336,"门":1337,"问":1338,"间":1339,"阒":1340,"际":1341,"陝":1342,"险":1343,"陳":1344,"随":1345,"際":1346,"雑":1347,"電":1348,"面":1349,"革":1350,"韬":1351,"音":1352,"響":1353,"題":1354,"類":1355,"颚":1356,"駅":1357,"马":1358,"高":1359,"鵬":1360,"麦":1361,"黄":1362,"黑":1363,"龙":1364,"龶":1365,"꧁":1366,"꧂":1367,"가":1368,"갑":1369,"갤":1370,"거":1371,"걸":1372,"것":1373,"게":1374,"겠":1375,"격":1376,"경":1377,"계":1378,"고":1379,"골":1380,"공":1381,"과":1382,"관":1383,"교":1384,"구":1385,"국":1386,"굴":1387,"권":1388,"규":1389,"긋":1390,"기":1391,"긱":1392,"김":1393,"끼":1394,"나":1395,"남":1396,"내":1397,"너":1398,"노":1399,"뉴":1400,"는":1401,"니":1402,"다":1403,"단":1404,"달":1405,"답":1406,"대":1407,"더":1408,"도":1409,"돈":1410,"동":1411,"둥":1412,"딩":1413,"떻":1414,"또":1415,"뚜":1416,"뚝":1417,"라":1418,"랑":1419,"래":1420,"랫":1421,"러":1422,"렘":1423,"려":1424,"로":1425,"루":1426,"룬":1427,"룰":1428,"류":1429,"르":1430,"를":1431,"리":1432,"린":1433,"림":1434,"릿":1435,"마":1436,"만":1437,"말":1438,"매":1439,"먹":1440,"메":1441,"며":1442,"명":1443,"모":1444,"몽":1445,"무":1446,"문":1447,"뭘":1448,"뮤":1449,"미":1450,"민":1451,"바":1452,"반":1453,"밥":1454,"배":1455,"백":1456,"밴":1457,"버":1458,"번":1459,"법":1460,"베":1461,"벼":1462,"변":1463,"병":1464,"보":1465,"부":1466,"불":1467,"뷔":1468,"브":1469,"븐":1470,"블":1471,"비":1472,"빈":1473,"뻐":1474,"뿌":1475,"사":1476,"상":1477,"새":1478,"생":1479,"서":1480,"석":1481,"선":1482,"설":1483,"섭":1484,"성":1485,"세":1486,"송":1487,"수":1488,"숙":1489,"스":1490,"슨":1491,"습":1492,"승":1493,"시":1494,"식":1495,"신":1496,"실":1497,"싼":1498,"쌍":1499,"아":1500,"안":1501,"알":1502,"야":1503,"양":1504,"어":1505,"업":1506,"없":1507,"에":1508,"엘":1509,"엥":1510,"여":1511,"역":1512,"연":1513,"열":1514,"영":1515,"예":1516,"오":1517,"올":1518,"옷":1519,"와":1520,"왔":1521,"외":1522,"요":1523,"용":1524,"우":1525,"울":1526,"웆":1527,"워":1528,"원":1529,"월":1530,"유":1531,"윤":1532,"율":1533,"으":1534,"은":1535,"을":1536,"응":1537,"의":1538,"이":1539,"인":1540,"일":1541,"있":1542,"자":1543,"잘":1544,"장":1545,"재":1546,"저":1547,"적":1548,"전":1549,"정":1550,"제":1551,"조":1552,"죄":1553,"죻":1554,"주":1555,"즈":1556,"지":1557,"직":1558,"진":1559,"짓":1560,"짱":1561,"찌":1562,"찡":1563,"차":1564,"창":1565,"찾":1566,"채":1567,"청":1568,"체":1569,"초":1570,"최":1571,"침":1572,"칩":1573,"칫":1574,"카":1575,"커":1576,"케":1577,"코":1578,"콕":1579,"콧":1580,"크":1581,"키":1582,"탄":1583,"탓":1584,"태":1585,"탠":1586,"터":1587,"토":1588,"통":1589,"튜":1590,"트":1591,"티":1592,"틴":1593,"팅":1594,"팝":1595,"퍼":1596,"펄":1597,"평":1598,"폰":1599,"푸":1600,"플":1601,"픽":1602,"하":1603,"학":1604,"한":1605,"함":1606,"항":1607,"해":1608,"햄":1609,"혀":1610,"현":1611,"혜":1612,"호":1613,"홈":1614,"홍":1615,"화":1616,"횊":1617,"회":1618,"횒":1619,"횗":1620,"횜":1621,"후":1622,"훈":1623,"흐":1624,"흥":1625,"희":1626,"︎":1627,"️":1628,"￼":1629,"�":1630,"𖢘":1631,"🆕":1632,"🇫":1633,"🇰":1634,"🇲":1635,"🇳":1636,"🇷":1637,"🇸":1638,"🇺":1639,"🇽":1640,"🌃":1641,"🌄":1642,"🌅":1643,"🌈":1644,"🌍":1645,"🌐":1646,"🌙":1647,"🌟":1648,"🌡":1649,"🌱":1650,"🌳":1651,"🌸":1652,"🌻":1653,"🍀":1654,"🍁":1655,"🍇":1656,"🍑":1657,"🍞":1658,"🍩":1659,"🍯":1660,"🍰":1661,"🍱":1662,"🍷":1663,"🍹":1664,"🍽":1665,"🍾":1666,"🎀":1667,"🎁":1668,"🎄":1669,"🎧":1670,"🎬":1671,"🎯":1672,"🎶":1673,"🏆":1674,"🏋":1675,"🏠":1676,"🏣":1677,"🏦":1678,"🏻":1679,"🏼":1680,"👀":1681,"👉":1682,"👍":1683,"👎":1684,"👏":1685,"👐":1686,"👑":1687,"👦":1688,"👧":1689,"👨":1690,"👩":1691,"👷":1692,"👽":1693,"💀":1694,"💁":1695,"💃":1696,"💅":1697,"💉":1698,"💋":1699,"💎":1700,"💐":1701,"💔":1702,"💕":1703,"💙":1704,"💚":1705,"💜":1706,"💝":1707,"💡":1708,"💢":1709,"💥":1710,"💩":1711,"💪":1712,"💫":1713,"💯":1714,"💰":1715,"💵":1716,"💸":1717,"💻":1718,"💼":1719,"📁":1720,"📅":1721,"📌":1722,"📍":1723,"📎":1724,"📕":1725,"📖":1726,"📞":1727,"📣":1728,"📦":1729,"📱":1730,"📲":1731,"📷":1732,"🔄":1733,"🔅":1734,"🔊":1735,"🔌":1736,"🔑":1737,"🔥":1738,"🔬":1739,"🔰":1740,"🔴":1741,"🔵":1742,"🔶":1743,"🔸":1744,"🔹":1745,"🕑":1746,"🕘":1747,"🕯":1748,"🖐":1749,"🖤":1750,"🗃":1751,"🗓":1752,"😀":1753,"😁":1754,"😂":1755,"😃":1756,"😄":1757,"😅":1758,"😆":1759,"😇":1760,"😈":1761,"😉":1762,"😊":1763,"😋":1764,"😍":1765,"😎":1766,"😐":1767,"😑":1768,"😓":1769,"😔":1770,"😘":1771,"😛":1772,"😜":1773,"😝":1774,"😡":1775,"😢":1776,"😥":1777,"😦":1778,"😩":1779,"😫":1780,"😭":1781,"😮":1782,"😰":1783,"😱":1784,"😲":1785,"😶":1786,"😷":1787,"🙁":1788,"🙂":1789,"🙃":1790,"🙆":1791,"🙋":1792,"🙌":1793,"🙎":1794,"🙏":1795,"🚀":1796,"🚗":1797,"🚘":1798,"🚩":1799,"🚫":1800,"🛍":1801,"🛑":1802,"🛒":1803,"🛡":1804,"🛫":1805,"🤍":1806,"🤑":1807,"🤓":1808,"🤔":1809,"🤗":1810,"🤘":1811,"🤟":1812,"🤡":1813,"🤣":1814,"🤩":1815,"🤪":1816,"🤫":1817,"🤮":1818,"🥄":1819,"🥇":1820,"🥰":1821,"🥳":1822,"🥺":1823,"🦉":1824,"🦊":1825,"🦋":1826,"🦸":1827,"🧤":1828,"🧨":1829,"🧼":1830,"н ":1831," б":1832,"ий":1833,"аа":1834,"ай":1835," х":1836,"ээ":1837,".\n":1838,"ар":1839,"ол":1840,"д ":1841,"уу":1842,"г ":1843,"ал":1844,"үү":1845," бай":1846,"ийн ":1847,"гэ":1848,"р ":1849,"ан":1850,"х ":1851,"аг":1852,"нэ":1853,"үй":1854," т":1855,"ил":1856,"эр":1857,"өө":1858,"эл":1859,"ын ":1860,"ан ":1861," бол":1862,"нь":1863,"оо":1864,"ам":1865,"гүй":1866,"эг":1867,"он":1868,"на":1869,"гаа":1870,"ор":1871," д":1872,"ний":1873,"ж ":1874,"уул":1875,"эн ":1876,"ах":1877,"с ":1878,", ":1879,"ур":1880," хү":1881,"чи":1882,"тэ":1883,"нь ":1884,"ав":1885,"өр":1886," гэ":1887,"эд":1888,"га":1889,"ой":1890,"ж бай":1891,"он ":1892,"сан ":1893,"ог":1894,"тай":1895,"эх":1896,"өг":1897," би":1898," с":1899,"жил":1900,"юм":1901,"тэй":1902,"гээ":1903,"ши":1904,"ул":1905," з":1906," м":1907,"ад":1908,"ох":1909,"ны":1910,"өл":1911,"ир":1912,"сэн ":1913,"гийн ":1914,"өн":1915,"ийг ":1916,"ас":1917,"даа":1918,"эн":1919,"т ":1920,"эм":1921,"на.\n":1922,"үүл":1923,"ч ":1924," бү":1925,"од":1926,"ыг ":1927,"дээ":1928,"ах ":1929,"гар":1930,"сан":1931,"ом":1932,"ууд":1933,"..":1934,"дэ":1935,"аар":1936,"бай":1937,"өөр":1938,"даг":1939,"нэ ":1940,"ээ.\n":1941,"лаг":1942,"өв":1943," хэр":1944,"үйл":1945,"өн ":1946,"той":1947,"аа ":1948,"онг":1949,"ари":1950,"аг ":1951,"ин":1952,"ээр ":1953,"?\n":1954,"ний ":1955,"гүй ":1956,"а ":1957,"ад ":1958," хий":1959,"ат":1960,"ар ":1961,"ээ ":1962,"ус":1963,"ажил":1964," ху":1965,"эв":1966,"ая":1967,"Би":1968,"ээл":1969,"но":1970,"тгэ":1971,"аар ":1972,"үр":1973,"ийг":1974,"яв":1975,"...\n":1976," хэрэг":1977,"аж":1978,"нд ":1979," хэл":1980,"дэг":1981,"эх ":1982," хар":1983,"юм.\n":1984,"ут":1985,"ал ":1986,"ээр":1987,"нө":1988,"ер":1989,"алт":1990,"ух":1991," хам":1992,"ж байгаа":1993,"ийн х":1994,"шүү":1995,"өд":1996,"лаа":1997,"жи":1998,"д т":1999,"л ":2000," байгаа":2001," хо":2002,"ны ":2003,"үз":2004,"эг ":2005,"ов":2006,"сон ":2007,"эс":2008,"өм":2009,"мэд":2010,"гүй.\n":2011,"хий":2012,"дар":2013,"онгол":2014,"эл ":2015,"юу":2016,"20":2017,"эр ":2018,": ":2019,"уй":2020,"энэ":2021,"ыг":2022,"бол":2023,"чл":2024,"нх":2025,"ийм":2026,"өнг":2027,"нд":2028,"өө ":2029,"тай ":2030,"үүх":2031,"оо ":2032," байх":2033,"айн ":2034,"цаа":2035,"гуул":2036,"уур":2037,"дал":2038,"гал":2039,"ох ":2040,"ын х":2041,"үе":2042," хүр":2043," байна.\n":2044,"лээ":2045," болно":2046,"хан ":2047,"ш ":2048,"шиг":2049,"вэ":2050,"ям":2051,"охи":2052," бод":2053,"чад":2054,"нэг ":2055,"өр ":2056,"аас ":2057,"на ":2058,"гд":2059,"ийн т":2060,"ын т":2061,"амь":2062,"мүү":2063,"сан.\n":2064,"сон":2065,"Энэ":2066,"нийг ":2067,"энэ ":2068," гэж":2069,"тэй ":2070,"- ":2071,"ж байна.\n":2072,"нээ":2073,"яр":2074," он":2075,"чил":2076,"үүд":2077," хув":2078,"Монгол":2079,"чих":2080,"даг.\n":2081,"улс":2082,"их":2083," хүн ":2084,"эд ":2085,"их ":2086,"дэг ":2087,"сэн":2088,"ь ":2089,"ун":2090,"ай ":2091,"газ":2092,"үнэ":2093,"Энэ ":2094,"агд":2095,"даг ":2096,"аж ":2097," гэж ":2098,"дл":2099,"аад ":2100,"өх":2101,"др":2102,"даа ":2103,"гээр ":2104,"лэг":2105,"цаг":2106,"ст":2107,"олон ":2108,"жээ":2109,"аны":2110," мэд":2111,"аас":2112,"хү":2113,"үү ":2114,"өгөө":2115,"нь т":2116," бол ":2117,"дээ ":2118,"сөн ":2119,"дв":2120,"уу ":2121,"жээ.\n":2122,"ёс":2123," ...\n":2124,"ууд ":2125,", т":2126," хэм":2127," болох":2128,"этгэ":2129,"үүр":2130,"д х":2131,"ахи":2132,"от":2133,"алб":2134,"омж":2135,"арын ":2136," болно.\n":2137,"лэл":2138," нь ":2139,"го":2140,"ги":2141,"ажилл":2142,"олб":2143,"аал":2144," бүр":2145,"гэр":2146," хүмүү":2147," байсан ":2148,"ув":2149,"эрх":2150,"асууд":2151,"анд":2152,"оор ":2153,"өс":2154,"эт":2155,"анх":2156,"н х":2157,"өмнө":2158,"сур":2159,"огт":2160,"зөв":2161,"уд":2162," хүс":2163,"юм ":2164,"оор":2165," хоё":2166,"ос":2167,"гаар ":2168," гэсэн ":2169,"зүйл":2170,"\" ":2171," баг":2172,"ж, ":2173,"201":2174,"айр":2175,"ори":2176,"би":2177,"бү":2178,"үн":2179,"ас ":2180,"айл":2181,"арин ":2182,"хэн ":2183,"чин ":2184,"өлөө":2185,"сай":2186,"лийн ":2187,"!\n":2188,"гийг ":2189,"ийнх":2190," бар":2191,"гэн ":2192,"ойл":2193,"үл":2194,"ик":2195,"ж чад":2196," байна":2197,"олд":2198,"аад":2199,"арим":2200,"өнгө":2201,"АН":2202,"гэж":2203,"тээ":2204,"эрэг":2205," байх ":2206,"нэг":2207,"ёстой":2208,"гэл":2209," боломж":2210,"тал":2211,"нэ.\n":2212,"ямар ":2213,"ми":2214,"Би ":2215,"огл":2216,"нам":2217," дар":2218,"ший":2219,"эц":2220," хэрэгтэй":2221,"ахгүй":2222,"шин":2223,"10":2224,"лага":2225," болон ":2226,"ээд ":2227," хүүх":2228,"гэх":2229,"гэж ":2230,"чд":2231,"үг":2232,"ган":2233,"ашиг":2234,"ийн з":2235,"ьд ":2236," дээ.\n":2237," төр":2238,"нар":2239,"ээс ":2240,"лаа.\n":2241,"вэ?\n":2242,"гаар":2243,"га ":2244,"эз":2245,"и ":2246,"шил":2247,", х":2248,"олц":2249,"ог ":2250,"ял":2251,"сэн.\n":2252,"нэр":2253,"амж":2254,"ма":2255,"-ын ":2256," бид":2257,"амьдр":2258,"гээд ":2259,"шаар":2260," би ":2261,"энд ":2262," хамгийн ":2263,"анг":2264,"ол ":2265,"дэл":2266,"нөх":2267,"өөд":2268,"гацаа":2269,"өөр ":2270," сай":2271,"ен":2272,"доо":2273,"орх":2274," байгаа ":2275," бу":2276,"лын ":2277," холб":2278,"Харин ":2279,"гай":2280,"нас":2281,"уулах":2282,"анд ":2283,"двэр":2284,"үүд ":2285,"нийг":2286,"дэг.\n":2287,"уу?\n":2288," биш":2289,"ээс":2290,"дог":2291,"лог":2292,"ж байна":2293,"алд":2294,"илц":2295,"ян":2296,"шаард":2297,"Эр":2298,"аяр":2299,"оё":2300,"байна.\n":2301,"гээр":2302," болов":2303,"гаа ":2304,"Тэг":2305,"удаа":2306," тал":2307," болох ":2308,"өнхий":2309,"ком":2310," сан":2311,"ы ":2312,"ж байгаа ":2313,"Тийм":2314,"бар":2315," буй":2316,"аа.\n":2317," бие":2318," дээ":2319,"вэл ":2320,"им":2321,"уулах ":2322,"Гэх":2323,"лөг":2324,"Хү":2325,"вэл":2326,"нь х":2327,"тан":2328,"Түү":2329,"энд":2330,"р д":2331,"Үү":2332,"иргэ":2333,"гарга":2334,"огд":2335,"в.\n":2336,"Тэр":2337,"шиг ":2338,"Ул":2339,"гл":2340," зүйл":2341,"ч т":2342,"...":2343,"тр":2344,"ашигл":2345,"нэм":2346,"өх ":2347,"19":2348,"вар":2349,"олоо":2350,"най":2351,"о ":2352," бид ":2353,"той ":2354,"Хэр":2355,"төр":2356," хүмүүс":2357," болг":2358,"юу ":2359,"жүүл":2360,"ду":2361,"өнд":2362,"Тэр ":2363,"хөн ":2364," хур":2365,"пан":2366,"лал":2367,"лэх":2368,"аны ":2369,"анай":2370,"ээд":2371,"чид ":2372," хэд":2373," дээр ":2374,"олг":2375," бус":2376,"арга":2377,"ич":2378,"газр":2379,"\"\n":2380,"эй":2381,"гээ ":2382,"сн":2383,"ин ":2384,"м ":2385,"Та ":2386,"00":2387," болсон ":2388,"эгд":2389,"Ор":2390," байна ":2391," хүлээ":2392,"Ар":2393,"этгэл":2394,"ажиллаг":2395,"оод ":2396," жил":2397,"асгийн ":2398,"зар":2399,"Ам":2400,"сон.\n":2401,"үед ":2402,"шал":2403," бий":2404,"алуу":2405,"вал":2406,"байгуул":2407,"эгтэй":2408,"одоо":2409,"Өн":2410,"гишүү":2411," бэл":2412,"ж байсан ":2413,"үйл ":2414,"сонг":2415,"арх":2416,"тын ":2417,"лыг ":2418," хон":2419,"төл":2420,"чр":2421,"нут":2422,"одорх":2423,"e ":2424,"лүүл":2425,"ийм ":2426,"охир":2427,"оруул":2428,"сайн ":2429,"айг ":2430,"аш":2431,"онд ":2432,"авах":2433,"Ми":2434,"Ер":2435,"гаал":2436,"оол":2437,"өгөөд ":2438,"гий":2439,"сар":2440,"анай ":2441," хоёр ":2442,"лэх ":2443," байгуул":2444," биз":2445,". ":2446,"чинь ":2447," хэмээ":2448,"эхэл":2449,"чир":2450,"дур":2451,"ц ":2452,"амьдрал":2453," бүх ":2454,"ярь":2455,"ор ":2456,"амгийн ":2457,"од ":2458,"компан":2459,"тай.\n":2460," тав":2461,"ана":2462,"нээс ":2463,"сд":2464,"Монгол ":2465,"ак":2466," хийх":2467,"аан ":2468," хүрт":2469,"лээ.\n":2470,"Ин":2471,"оролц":2472,"ван ":2473,"удал":2474,"оос":2475,"газар":2476,"оос ":2477,"дээр":2478,"итгэ":2479,"нэгэн ":2480,"цаг ":2481," ми":2482,"вр":2483," гэд":2484,"ойлг":2485,"өвл":2486," дээр":2487,"жилт":2488," байдаг.\n":2489,"өнгөр":2490,"ис":2491,"үгээр ":2492,"аан":2493,"суу":2494,"ийн б":2495,"лэ":2496,"дээр ":2497," гэр":2498," хуул":2499,"шинэ":2500," бил":2501,"гээд":2502," бүх":2503,"ухай":2504,"ид":2505,"маг":2506,"Мөн ":2507,"Өөр":2508,"ам ":2509,"Бид ":2510,"зур":2511,"нийт":2512,"Ал":2513," хугацаа":2514,"өөрчл":2515,"мэдээл":2516," хүн":2517,"учр":2518,"оод":2519,"гур":2520,"аз":2521,"том":2522," дуу":2523,"шин ":2524,"аат":2525,"үүнийг ":2526,"in":2527,"Ий":2528,"орил":2529," дэл":2530," гэдэг ":2531,"ний т":2532,"чух":2533," хэмжээ":2534,"Улс":2535,"Ерөнхий":2536,"ср":2537,"гах":2538,"гүүл":2539,"ес":2540,":\n":2541,"Бур":2542," хэрхэн ":2543,"ариу":2544,"ямар":2545,"ту":2546,"on":2547," хой":2548,"ан х":2549," байсан.\n":2550,"ек":2551,"той.\n":2552,"лоо":2553,"200":2554,"хүү":2555," хэрэгтэй.\n":2556," бас ":2557,"өдөр":2558," хөг":2559,"ив":2560,"er":2561,"лагд":2562," тэр":2563," сур":2564,"өг ":2565,"өрг":2566,"өдр":2567,"орон ":2568,"ят":2569,"Бү":2570,"сарын ":2571,"өдөл":2572,"охиолд":2573,"чан":2574,"ист":2575,"анхаар":2576," сайн ":2577,"нээс":2578,"агаад ":2579,"хийн ":2580,"ирх":2581,"үргэл":2582,"дэд ":2583,"тус":2584," гар":2585,"над":2586,")\n":2587,"дэв":2588," худал":2589,"арт":2590,"үзүүл":2591,"үм":2592,"эхгүй":2593,"илүү":2594,"доо ":2595,"ум":2596,"Та":2597,"дэм":2598,"шүү дээ.\n":2599,"ьд":2600,"чим":2601," оны ":2602,"асан ":2603,"зохи":2604,"яри":2605,"ыг х":2606,"ынх":2607," онд ":2608," гэж бод":2609,"ахин ":2610,"үйлдвэр":2611,"ж буй":2612," та ":2613,"үүс":2614," тан":2615," ду":2616,"аав":2617,"элт":2618," бат":2619,"чийн ":2620,"гэсэн ":2621," бич":2622,"лах ":2623,"УИ":2624,"ныг ":2625,"лах":2626,"гийн х":2627,"өөдөр ":2628," холбоо":2629,"алтын ":2630," байр":2631,"ном":2632,"дуу":2633,"маа":2634,"чиг":2635,"ажиллагаа":2636,"ны т":2637," бари":2638,"улс ":2639,"өнгө ":2640,"р нь ":2641,"улсын ":2642,"уудын ":2643," байдаг ":2644," баяр":2645,"Одоо":2646,"сан бай":2647,"Дэл":2648,"асуудал":2649,"ориул":2650," бүр ":2651,"өгд":2652,"агүй":2653,"чид":2654,"жиг":2655,"Хэрэв":2656,"УИХ":2657," биш ":2658,"дан ":2659,"элц":2660," бур":2661," бүтээ":2662," хийх ":2663,"лийг ":2664," зөв":2665,"ус ":2666,"шаардлага":2667,"ган ":2668,"ли":2669," хэн ":2670,"уулз":2671," хүүхд":2672," ханд":2673," гэх":2674,"Бид":2675,"үх":2676,"өдөр ":2677,"илүү ":2678,"өгс":2679,"ье":2680,"эмэгтэй":2681,"авч":2682,"ж т":2683,"ем":2684,"чам":2685," мэдээл":2686,"кин":2687,"н\n":2688,"одорхой":2689,"эрх ":2690," хоёр":2691,"ж байна ":2692,"чилгээ":2693,"Гэхдээ ":2694," хайр":2695,"an":2696," хор":2697,"дын ":2698," тэр ":2699,"гөө":2700,"АНУ":2701,"дэс":2702," хүмүүс ":2703,"сэн х":2704,"авах ":2705," хэв":2706,"олт":2707," зар":2708,"хүн ":2709," - ":2710,"пор":2711,".Б":2712,"ж болно.\n":2713,"тул":2714,"ж ир":2715," хэс":2716,"өлт":2717,"өлд":2718," түү":2719,"ойр":2720,"уу.\n":2721,"жин":2722,"гүү":2723,"цээ":2724," байдаг":2725,"ийн с":2726,"одоо ":2727,"уулсан ":2728," бөгөөд ":2729,"\" гэ":2730," ма":2731,"из":2732," хоног":2733," зур":2734,"аагүй":2735,"тэм":2736,"Тэд":2737," сон":2738,"үү?\n":2739,"сайхан ":2740,"ел":2741," хэмээн ":2742,"х нь ":2743," хаа":2744,"нэр ":2745,"үс":2746,"алх":2747," тогл":2748,"ёстой.\n":2749,"жил ":2750,"эзээ ":2751,"ит":2752,"мөр":2753,"ж болох":2754," хамт":2755,"ийн өмнө":2756,"оп":2757,"алдаа":2758," байдл":2759,"амьдар":2760,"лон ":2761," дараа":2762,"ж,":2763," Х":2764,"гад":2765,"ухайн ":2766,"ч, ":2767,"онц":2768,"айм":2769," тат":2770," хувь":2771,"оом":2772,"гийг":2773,"гол":2774,"уудыг ":2775," хэдэн ":2776,"нуу":2777,"юм б":2778,"бөр":2779,"удир":2780,"аж.\n":2781,"арг":2782,"араа":2783,"гайх":2784,"шөөр":2785,"шалт":2786,"Ир":2787,"маш ":2788,"огс":2789,"гуй":2790," дах":2791,"ех":2792,"гэм":2793,"ганц":2794,"аж байна.\n":2795,"дот":2796,"нар ":2797,"авч ":2798,"дал ":2799,"шүү.\n":2800,"\"-":2801,"пр":2802,"ж байх":2803,"таа":2804,"олл":2805,"өөс":2806,"адил":2807," билээ.\n":2808,"юул":2809,"яг ":2810,"Ан":2811,"эрхий":2812,"жээ\n":2813,"өөрийн ":2814," даа":2815," хүч":2816,"өөс ":2817,"нөхц":2818,"Хят":2819,"сургуул":2820,"Засгийн ":2821,"өөрсд":2822,"аарай":2823,"Гэхдээ":2824,"өлөөл":2825,"ar":2826," хот":2827,"лэг ":2828,"улд ":2829,"тэр":2830,"гаан ":2831,"оно":2832,"хээр ":2833,"Гэт":2834,"ий ":2835,"дог.\n":2836,"эргэ":2837,"Мэд":2838," төл":2839,"хон ":2840,"үүхд":2841,"найз":2842,"гдэх":2843,"зам":2844,"ж байгаа.\n":2845,"Эд":2846,"алга":2847,"чүүд":2848," та":2849,"уун ":2850,"газар ":2851,"s ":2852,"ав.\n":2853,"Тэ":2854,"гүй\n":2855,"гын ":2856," тус":2857,"-д ":2858,"or":2859,"юм бэ":2860,"уг":2861,"ей":2862,"алтай":2863," дав":2864," хамгаал":2865,"-ийн ":2866,"Энэ нь ":2867,"арил":2868,"үр д":2869," хан":2870,"тав":2871,"орон":2872,"сэтгэл":2873,",\n":2874," гэж хэл":2875,"дав":2876,"гоор ":2877,"сэн бай":2878,"ухай ":2879,"тер":2880," нас":2881," бүл":2882,"тэр ":2883,"12":2884,"албан ":2885,"санал":2886," даа.\n":2887,"гүй бол":2888,"эн х":2889," тэм":2890,"зээл":2891,"тогт":2892,"ээж":2893,"дэх ":2894,"дараа":2895,"аюул":2896,"зас":2897," хич":2898,"ооц":2899,"гоо":2900,"-р ":2901,"на\n":2902,"сонирх":2903,"олгой":2904,"угацаа":2905,"ац":2906,") ":2907,"11":2908,"аалт":2909,"адаг":2910,"Ерөнхийлөг":2911,"ер ":2912,"бэл":2913," дур":2914,"хан":2915,"анк":2916,"Өм":2917,"Ийм":2918," цаг":2919,"ет":2920,"Миний":2921,"ахад ":2922," харагд":2923,"үүн ":2924,"ийн":2925," байдал":2926,"орн":2927,"бэ":2928,"15":2929,"хүмүү":2930,"ок":2931,"Ям":2932,"компани":2933,"асуу":2934,"гурван ":2935,"амжилт":2936,"ыг хүс":2937,"ахгүй ":2938,"агч":2939," байгаа.\n":2940,"д ор":2941,"шийдвэр":2942,"асуул":2943,"шир":2944,"өөрийг":2945,"иргэд":2946,"д түм":2947,"гүйц":2948,"гэд":2949,"сан х":2950,"Нэг ":2951,"ажл":2952,"нөхцөл":2953,"ач":2954,"эрүүл":2955," дот":2956,"Гэв":2957,"чир ":2958," зохи":2959,"en":2960,"тээл":2961,"!!":2962," хүнд":2963,"баат":2964,"хий ":2965,"шат":2966,"100":2967,"ууль":2968,"ерик":2969,"эдийн з":2970,"магад":2971,"урш":2972,"нү":2973," байх.\n":2974,"30":2975,"өнөө":2976,"сэр":2977," гэдгийг ":2978,"хи":2979," бий.\n":2980,"унт":2981,"надад ":2982,"лага ":2983,"зориул":2984," байлаа.\n":2985,"Төр":2986,"галт":2987,"эрэг ":2988,"мөн ":2989,"ж өг":2990,"ч гэсэн ":2991,"аргал":2992,"шинэ ":2993,"чухал":2994," том":2995,"Монголын ":2996," болго":2997,"ана.\n":2998,"ехн":2999,"Гэр":3000,"увьд ":3001," гэдэг":3002,"эмж":3003,"Тэгэх":3004,"намайг ":3005,"дугаар ":3006,"асуудл":3007,"авсан ":3008," хөр":3009,"суур":3010," бас":3011,"гүй, ":3012,"албар":3013,"Тэд ":3014,"сүүл":3015,"ож ":3016,"эсвэл ":3017,"тэй.\n":3018," хоол":3019,"аль":3020,"Ний":3021,"чих ":3022,"уурх":3023,"удирд":3024," хийсэн ":3025," сая":3026,"_ ":3027,"сийн ":3028,"тогл":3029,"үг ":3030,"сонс":3031,"түү":3032,"өөрөө ":3033,"чанар":3034,"тл":3035,"тэд":3036,"гах ":3037,"өл ":3038,"руу ":3039,"өрөө":3040," барим":3041,"бод":3042,"ариул":3043,"ээж ":3044,"бол ":3045,"рам":3046,"яагаад ":3047," хэлэлц":3048," боломжтой":3049,"үйл ажиллагаа":3050,"Эм":3051,"Тиймээс ":3052," тогт":3053,"арь":3054,"тгэл":3055," хүртэл":3056,"st":3057," тэд":3058,"тан ":3059," холбогд":3060,"сал":3061," хүлээн ":3062,"чин":3063,"наас ":3064,"тэн ":3065,"\" гэж ":3066,"цэв":3067,"үр ":3068,"зөвшөөр":3069," тул":3070,"Олон ":3071,"зөвл":3072,"гарч":3073,"Манай":3074," сонг":3075,"зарим":3076,"нэл":3077,"вал ":3078,"агс":3079,"он байгуул":3080,"дог ":3081,"орл":3082,"санаа":3083,"удаа ":3084,"зөвхөн ":3085,"иг":3086,"гэх ":3087,"уур ":3088,"амар":3089,"зүй":3090,"ярилц":3091," (":3092,"гадаа":3093," хувьд ":3094,"ъя":3095,"эсвэл":3096," төс":3097," хариу":3098," хө":3099,"ерөнхий":3100," боловср":3101,"өнц":3102,"заа":3103,"илэрхий":3104,"тат":3105,"цуул":3106,"аль ":3107,"чинь":3108,"дэх":3109," бүг":3110," хай":3111,"охиолдол":3112,"сгүй":3113,"оч":3114,"Үнэ":3115,"та":3116,"лээд ":3117,"үндэс":3118," Б":3119,"баг":3120," болсон.\n":3121,"18":3122,"бүр":3123," зам":3124,"Монгол Улс":3125,"Ав":3126,"үн ":3127,"оц":3128,"ажлын ":3129," байл":3130,"агн":3131,"байх":3132," бага":3133," харь":3134,"ахир":3135," ор":3136,"Хятад":3137,"Нам":3138,"үйлчилгээ":3139,"Энх":3140,"ж байна\n":3141,"бэр":3142,"Тэгээд ":3143,"олтой":3144,"өөрөө":3145," барь":3146,"өнөөдөр ":3147,"Эх":3148,"Зарим":3149,"ж болох ":3150," дараа ":3151,"лоо.\n":3152,"адгал":3153,"хүү ":3154," хөдөл":3155,"нэгд":3156,"алт ":3157,"члэн ":3158,"монгол":3159,"явуул":3160,"al":3161,"зорил":3162," хүний ":3163,"юут":3164," гаруй":3165," хая":3166,"Манай ":3167,"аж байгаа":3168,"үв":3169,"үнд":3170,"оны ":3171,"газрын ":3172,"удалгаа":3173,"УИХ-ын ":3174,"цэц":3175," байн":3176," сарын ":3177,"алаар ":3178," дуус":3179,"Ур":3180,"уя":3181," хэзээ ":3182,"Хар":3183,"минь ":3184,"Хамгийн ":3185," хууд":3186,"Ши":3187,"утл":3188,"яаж ":3189,"гаад ":3190,"даж ":3191,"эхэд ":3192,"өөл":3193,"дэнэ":3194,"at":3195,"эргэж":3196,"ж байсан.\n":3197," сайхан ":3198,"үнэхээр ":3199,"Цаг":3200," ханг":3201," хүний":3202,"ерт":3203,"эср":3204,"олог":3205,"ард түм":3206,"ёстой ":3207,"жуул":3208,"инут":3209,"ч м":3210," талаар ":3211,"нес":3212,"сгал":3213,"Америк":3214,"вроп":3215,"учир":3216,"МАН":3217,"ун ":3218," хал":3219,", д":3220," тэг":3221,"өмнө ":3222,"Хүн ":3223,"анц":3224," хэрэгжүүл":3225," бүрэн ":3226,"н.\n":3227,"алын ":3228,"50":3229,"уудад ":3230,"ээ\n":3231,"жээ ":3232,"дсэн ":3233,"өн.\n":3234," байна\n":3235,"учраас ":3236,"Одоо ":3237,"нь д":3238,"анги":3239,"аараа":3240,"202":3241,"руул":3242,"хар":3243,"Өмнө":3244,"чадвар":3245," оны":3246,"үзэ":3247," тавь":3248,"? ":3249,"болов":3250,"oo":3251,"дах":3252,"ээрэй":3253,"өндөр ":3254,"ж яв":3255,"лэн ":3256,"Чи":3257,"чи ":3258,"үргэлж":3259,"унши":3260,"ент":3261,"бээр ":3262,"залуу":3263,"Хэрв":3264,"зогс":3265,"маш":3266,"өгч":3267,"улс төр":3268,"Бай":3269,"жагс":3270,"одог":3271,"аргаа":3272,"об":3273,"чдын ":3274,"алгаа":3275," хүргэ":3276,"гишүүн ":3277,"төлбөр":3278,"Хоё":3279," биш.\n":3280,"өгөх":3281,"жилийн ":3282,"ойлго":3283,"онд":3284,"жаа":3285,"дарга ":3286,"лагын ":3287,"юм байна.\n":3288,"цал":3289,"сэтгэ":3290,"эмжээ":3291,"ороо":3292,"дарга":3293,"руу":3294,"тэд ":3295,"цу":3296," болж ":3297,"ажил ":3298,"өнгөрсөн ":3299,"тайл":3300,"охгүй":3301,"асуудлыг ":3302,"Бурх":3303,"өнө":3304,"даас ":3305," хүртэл ":3306,"өгр":3307," буруу":3308,"наас":3309," ба ":3310,"14":3311," болов ":3312,"\" гэж":3313,"галз":3314,"Миний ":3315,"анх ":3316,"маань ":3317,"ос ":3318,"ж ав":3319,"гч":3320,"огоо":3321," барил":3322,"ж үз":3323,"өндөр":3324,"ын тулд ":3325,"нэв":3326," даг":3327,"уулга":3328," буур":3329,"эв.\n":3330,"өрв":3331,"нөлөөл":3332,"юм бол":3333,"гарч ":3334,"т нь ":3335,"\"Х":3336,"ри":3337,"амр":3338,"сны":3339,"эдэн ":3340,"өлөө ":3341,"өгл":3342,".\"\n":3343,"цах":3344,"сэн байна.\n":3345,"лэд":3346,"наад":3347,"Их ":3348,"оны":3349," хойш ":3350,"re":3351,"y ":3352,"үүлэх":3353," санаа":3354,"авар":3355,"ээдүй":3356,"угаа":3357,"гоё":3358,"Европ":3359,"агт":3360," хэц":3361,"байр":3362,"нүүр":3363,"өвд":3364,"цаа ":3365,"үгээ":3366,"авт":3367,"асуудал ":3368,"үүдийг ":3369,"увь":3370,"Яп":3371," дахь ":3372,"жаргал":3373,"аараа ":3374,"ой ":3375,"аж, ":3376," бая":3377,"вэр":3378,"Ямар ":3379," Т":3380,"тэн":3381,"амт":3382,"ав ":3383,"иал":3384,"чууд ":3385,"ac":3386,"Жи":3387," ба":3388,"Зөв":3389,"гарсан ":3390,"баатар":3391,"сэл":3392," хойш":3393,"ou":3394,"ж чадахгүй":3395,"двэр ":3396,"яах ":3397,"энх":3398,"үүдэд ":3399," хамаар":3400,"олонг":3401,"ийг нь ":3402,"лам":3403,"болон ":3404,"манай":3405,"өрсөн ":3406,"өмб":3407,"та ":3408,"чөлөө":3409," боломжтой.\n":3410,"үед":3411,"уух":3412,"үгүй":3413,"vй":3414," сар":3415,"ирсэн ":3416,"Гэтэл ":3417,"олцоо":3418,"ын":3419,"одорхойл":3420,"it":3421,"Өнөөдөр ":3422,"ах зээл":3423,"эгч":3424,"үйл яв":3425,"улсад ":3426,"ирэх ":3427," байхгүй":3428,"vv":3429," бүтээгдэх":3430,"истем":3431,"айг":3432,"тгий":3433,"сонгуул":3434,"d ":3435,"орд":3436,"талаар ":3437,"но.\n":3438,"үүлэх ":3439,"уг ":3440,"гэдэг ":3441," маа":3442,"нэмэгд":3443," бусад ":3444,"ж буй ":3445,"тээ ":3446,"лэлийн ":3447,"Уг ":3448,"гүүр":3449,"нийх":3450,"жин ":3451,"төс":3452," хүнд ":3453,"авр":3454,"олоо хоног":3455,"д нь ":3456,"Улаа":3457,"орч":3458,"Бүх ":3459,"бил":3460,"өрс":3461,"өөрт":3462," маш ":3463,"не":3464,"гүйцэтгэ":3465,"Орос":3466,";\n":3467,"бал":3468,"нис":3469,"аа\n":3470,"эт ":3471,"мын ":3472,"ийн д":3473,"ийн м":3474,"авь":3475,"дараа ":3476,"Таны":3477,"лийн х":3478,"Баг":3479,"мж":3480,"дөг":3481,"аагүй ":3482,"нэгэ":3483,"өхөөр":3484,"Чи ":3485," минут":3486," доо":3487,"алтай ":3488," мэнд":3489,"орлог":3490,"янз":3491,"Дар":3492,"ахуй":3493," залуу":3494,"болох":3495," хөл":3496,"ээрээ ":3497,"ХА":3498,"ic":3499,"Яагаад ":3500," болохоор ":3501,"гам":3502,"\" хэмээн ":3503,"дахин ":3504,"ч бай":3505,"шээ":3506,"баяр":3507,"мэдэх":3508,"ний з":3509,"алд ":3510," хууль":3511,"жир":3512,", м":3513,"лан ":3514,"тухай":3515,"оф":3516,"16":3517,"үнэн ":3518," сэтгэл":3519,"үү.\n":3520,"шээл":3521,"шаардлаг":3522,"om":3523,"ажиллах":3524,"мийн ":3525,"ангийн ":3526," болом":3527,"\" гэсэн ":3528,"ж эхэл":3529,"өөрийнх":3530,"энэ нь ":3531,"найр":3532,"Тэрээр ":3533,"ээгүй":3534,"аж бай":3535,"нөө":3536," бичи":3537," дахин ":3538," ...":3539,"яз":3540,"чухал ":3541,"олбоо":3542,"17":3543,"дчил":3544,"тоо":3545,"цар":3546,"чууд":3547,"гар ":3548,"ах нь ":3549," хүүхэд":3550,"жих":3551,"эрч":3552,"өнгө оруул":3553,"нэ\n":3554,"Над":3555," гэх ":3556,"эндээ":3557," хэрэглэг":3558,"янган ":3559," баримт":3560,"Бус":3561," \"":3562,"шаа":3563,"элс":3564,"Үүнийг ":3565,"Сур":3566,"аарай.\n":3567," хори":3568,"шаардлагатай":3569,"Гад":3570,"лээ ":3571,"очи":3572,"ных":3573," бодлог":3574,"нутгийн ":3575,"цэвэр":3576,"ехнолог":3577,"Бол":3578,"уулан ":3579,"санагд":3580," хэлэх":3581,".Бат":3582,"илэрхийл":3583,"өөрийгөө":3584,"Өнг":3585,"саа":3586,"t ":3587,"Яг ":3588,"а.\n":3589,"двар":3590," хэсэг":3591,"ийг хүс":3592," хэрэгтэй ":3593,"Сүүл":3594,"сан байна.\n":3595,"199":3596,"үр дүн":3597,"лаа\n":3598,"яах":3599," бүхэн ":3600,"итгэл":3601,"ерм":3602,"Тиймээс":3603,"манай ":3604,"үнэ ":3605,"үеийн ":3606,"a ":3607,"өвлөгөө":3608,"шээ ":3609,"ертөнц":3610," холбоотой":3611,"өрт":3612,"эргэл":3613,"өгсөн ":3614,"этгүүл":3615,"охин ":3616,"..\n":3617,"урам":3618," бүгд":3619,"бүх ":3620,"Эрдэнэ":3621,"13":3622,"байдл":3623,"ж болно":3624,"эргүү":3625,"уна":3626,", з":3627,"бөгөөд ":3628,"рал":3629,"т ор":3630,"зүйл ":3631,"маар ":3632,"мэт":3633,"ино":3634," хувь ":3635,"агч ":3636,"гаас ":3637,"Хүүхд":3638,"учир ":3639,"ээрээ":3640,"өрвөн ":3641,"үүний":3642," хичээл":3643,"нууд":3644,"явах":3645,"нэвтр":3646,"ирээдүй":3647,"өгж":3648,"ямар ч ":3649,"учраас":3650,"осон ":3651," байхгүй.\n":3652,"бус":3653,"ью":3654,"гарах":3655,".Энх":3656," хэрэг ":3657,"наа":3658," байв.\n":3659," болгон ":3660,"миний":3661," буюу ":3662,"ограм":3663,"Дараа":3664,"Солонг":3665,"Хүмүү":3666,"агад":3667,"огц":3668,"ч чад":3669,"маар":3670,"миний ":3671,"нээл":3672,"гэж бод":3673,"дор":3674,"le":3675,"ж, т":3676,"мөнгө":3677,"унш":3678,"Эл":3679,"үүдийн ":3680,"түр":3681,"д тус":3682," зов":3683,"үйлчл":3684," гэсэн үг":3685,"өхөөрөм":3686," бөгөө":3687,"аб":3688,"цэр":3689,"тэмдэг":3690," сонс":3691," к":3692,"mn":3693,"Сай":3694," л":3695,"БН":3696,"сл":3697,"асуулт":3698," хамт ":3699,"чиглэл":3700,"??":3701," бүгд ":3702,"үүн":3703,"ажээ.\n":3704,"жим":3705,"Их":3706," хадгал":3707,"үүний ":3708," болжээ.\n":3709,"Гэвч ":3710," хариул":3711,"уу\n":3712,"адаг ":3713,"зохион байгуул":3714," нь":3715,"хэг":3716,"йл":3717," байхад ":3718,"ев":3719," бул":3720,"өөдөр":3721,"Н ":3722,"саар":3723,"уудаа":3724,"Тийм ":3725,"Тэгвэл ":3726,"жү":3727,"Аз":3728,"гvй":3729,"эгдэ":3730,"эзэм":3731,"ХУ":3732,"ямар ч":3733,"сийг ":3734,"энх ":3735,"ганц ":3736,"шалтгаа":3737,"сая":3738,"порт":3739,"Тан":3740,"юу?\n":3741,"дүр":3742," бос":3743,"Тэгэхээр ":3744," бүсгүй":3745,"Бурхан ":3746,"саар ":3747,"Ийм ":3748,"өд ":3749," хөд":3750,"ье.\n":3751,"/ ":3752,"иа ":3753,"эдгээр ":3754,"ны с":3755,"гүй л":3756,"шу":3757,"бүтээл":3758,"өвч":3759,"оюут":3760,"мал":3761,"эж":3762,"зо":3763,"снээр ":3764,"гыг ":3765,"үүр ":3766," бутл":3767,"o ":3768,"заг":3769,"цөө":3770,"санхүү":3771,"ажиллагаа ":3772,"бэ?\n":3773,"Эдгээр ":3774,"24":3775,"өөрчлөгд":3776,"уран ":3777,"тэл":3778,"оли":3779,", с":3780,"эсэх":3781,"шийдвэр ":3782,"вор":3783,"гом":3784,"өгүүл":3785,"үүнийг":3786,"нь\n":3787,"лээ\n":3788,"ч\n":3789," бэлэн ":3790,"ирэх":3791,"25":3792,"эж ":3793,"ажлаа":3794,"хийн х":3795," танилц":3796,"аял":3797," бууд":3798,"үүнд ":3799,"оронд ":3800," байгаа юм.\n":3801," жилийн ":3802,".mn":3803,"гол ":3804,"иа":3805,"гүй юм.\n":3806," дүр":3807,"эс ":3808,"Улаан":3809,"урьд":3810,"сан\n":3811,"утас":3812,"шүү дээ":3813," гэж бодо":3814,"шууд ":3815,"бат":3816," битгий":3817,"бүтээ":3818,"ласан ":3819,"Тэрбээр ":3820,"олж ":3821,"мэдр":3822," хоор":3823,"Таны ":3824,"гч ":3825,"уст":3826,"-нд ":3827,"am":3828,"жиг ":3829,"но ":3830,"гурав":3831," болчих":3832,"/\n":3833,"саа ":3834,"тохир":3835,"гүй юм":3836," дугаар ":3837,"Ган":3838,"гаад":3839," хариуц":3840,"хгүй":3841,"гэнэ.\n":3842," мэт":3843,"ийн хэрэг":3844,"оно.\n":3845,"үнэн":3846,"АНУ-ын ":3847,"ахгүй.\n":3848,"язгаар":3849,"ч байгаа":3850,"ч байна.\n":3851," хат":3852,"агдсан ":3853,"ийнхээ":3854,"эдийн засгийн ":3855,"үнэл":3856," монгол":3857,"т т":3858,"эргэн ":3859,"эгтэй ":3860,"гаргах":3861,"Амь":3862,"асан":3863," хамтр":3864,"Дэлхийн ":3865,"өөр хэл":3866,"Бат":3867,"Гэтэл":3868,"тойр":3869,"ажилла":3870,"пп":3871,"өмнө\n":3872," болж":3873,"цэг":3874,"намын ":3875,"вар ":3876,"эрс":3877,"улир":3878,"Түүний ":3879,"иде":3880,"эдийн зас":3881,"өмс":3882," -":3883,"мөнг":3884,"агт ":3885,"аймгийн ":3886,"ингэж ":3887,"шид ":3888,"алдар":3889,"орь":3890,"гөл":3891,"үүдээ":3892,"энгийн ":3893," зүй":3894,"үүлэг":3895,"өөрчлөлт":3896,"40":3897,"нууд ":3898,"ра":3899,"тай, ":3900,"сний":3901,"програм":3902,"ээнд ":3903,"АТ":3904,"эсрэг ":3905,"Төрийн ":3906,"д\n":3907,"мэл":3908," хүсэл":3909,"лаад ":3910,"гарах ":3911,"атер":3912,"аюулгүй":3913,"**":3914,"зал":3915,"чүүд ":3916,"аргагүй":3917,"чигд":3918,"сууд":3919,"Өв":3920," байж ":3921,"арга хэмжээ":3922,"муу":3923,"гацаа ":3924,"үгээр":3925,"Өд":3926," харах":3927,"гэр ":3928,"ийг т":3929,"жинх":3930,"Монголд ":3931,"Б.":3932,"гай ":3933,"сан юм.\n":3934," зөвхөн ":3935,"екс":3936,"олтой.\n":3937," хүү":3938,"эд т":3939,"яаж":3940,"олын ":3941,"Д.":3942,"эвс":3943,"шинж":3944,"Хэрвээ":3945,"сард ":3946,"угацаанд ":3947,"ыг т":3948,"Хүр":3949,"члэг":3950," хугацаанд ":3951,"ийн өмнө\n":3952,"Сан":3953," миний":3954,"вэ\n":3955," бидний ":3956,"лэдэг":3957,"цас":3958,"вэ.\n":3959,"Энэ бол":3960,"шийд":3961,"шинжил":3962,"зөр":3963,"дах ":3964,"нарын ":3965,"үйлчил":3966," хүүхэд ":3967,"нэр дэв":3968,"дотор ":3969,"охиолдолд ":3970," бизнес":3971," хүнийг ":3972,"оллар":3973,"Өнгөрсөн ":3974,"шү":3975,"шаал":3976,"Монгол Улсын ":3977,"оохон ":3978,"un":3979,"ид ":3980," харуул":3981,"лаа ":3982," байж":3983,"Тухайн ":3984,"илцаа":3985," зас":3986," төгр":3987,"ямар нэгэн ":3988,"онголт":3989,"ж байх ":3990,"олон":3991,"өрсөлд":3992,"лийг":3993,"чул":3994,"сныг ":3995,"ахиал":3996," бус ":3997,"мэдээлэл":3998,"АР":3999,"хэл":4000,"ol":4001," болгох":4002,"уучин ":4003,"Энэ бол ":4004,"цугл":4005,"ре":4006,"орой":4007,"ыг нь ":4008,"бие":4009,"Зөвхөн ":4010,"шагн":4011,"ялгаа":4012," харьц":4013,"а\n":4014," мөн ":4015,"үеэр ":4016,"л т":4017,"Нүүр":4018,"ныг":4019,"бая":4020,"оосон ":4021,"байгаа":4022,"аасаа ":4023,"Юу":4024,"ажиллах ":4025,"есс":4026,"дуул":4027," суу":4028,"ярих":4029,"Хэн ":4030,"жих ":4031," хөгж":4032,"el":4033,"сангүй.\n":4034,"Хүүх":4035,"эрт":4036,"ынхаа":4037,"ай.\n":4038,"ээн ":4039,"үе ":4040," бидний":4041,"чуул":4042,"агаар":4043,"фр":4044,"үзэх":4045,"акц":4046," минь ":4047,"юм бэ?\n":4048,"Сонг":4049,"унд":4050,"цахи":4051,"цагдаа":4052,"нийгэм":4053," маань ":4054,"нийт ":4055,"юм шиг":4056,"ж байгаа юм.\n":4057,"тэй, ":4058," хамр":4059,"Дараа ":4060,"es":4061,"явах ":4062," маш":4063,"ухаа":4064," хэмжээ ":4065,"гүй байна.\n":4066,"лэл ":4067,"жр":4068,"албан ту":4069,"il":4070,"Ер нь ":4071,"ИЙ":4072,"оль":4073," заа":4074," худалдаа":4075,"Үн":4076,"мө":4077," хэт":4078,"наар ":4079,"ажилд ":4080,"захир":4081," түр":4082,"орж ир":4083," сургуул":4084,"иргэд ":4085,"Он":4086,"Сайн ":4087," бүү":4088,"алаар":4089," байдал ":4090,"чир нь ":4091,"анхүү":4092," болоод ":4093,"тай\n":4094,"22":4095," байр ":4096,"Түүн":4097,"амс":4098,"удаагийн ":4099,"дөө ":4100,"Ц.":4101,"зав":4102,"зайл":4103,"эм ":4104," мөр":4105," жаргал":4106," буцаа":4107,"бу":4108,"алц":4109," хийл":4110,"шах":4111,"даггүй":4112,"тийн ":4113,"ing":4114," зориул":4115,"нө.\n":4116," бүртгэ":4117,"д хүр":4118,"луул":4119,"сний ":4120,"ард ":4121,"санд ":4122,"]\n":4123," бараг ":4124,"даггүй.\n":4125,"биз":4126," тэмц":4127,"дад ":4128,"длаа":4129," боль":4130," заг":4131,"дрийн ":4132,"биш":4133,"Өөрөөр хэл":4134,"е ":4135,"Эц":4136,"гэдэг":4137,"хүмүүс":4138,"гэрээ":4139,"өөд ":4140,"кк":4141,"дүүр":4142,"урт":4143,"минь":4144,"ашиглах":4145," зарим":4146,"юу ч":4147,"нууц":4148,"Аж":4149,"ант":4150,"инд ":4151,"гэрэн":4152,"гийнх":4153,"яг":4154,"уул ":4155,"юм шиг ":4156,"аавал ":4157,"Хур":4158,"өгөх ":4159,"Бар":4160,"орхи":4161,"ийн хү":4162,"ын хувьд ":4163,"идэв":4164," сонирх":4165,"уулийн ":4166,"шалтгаан ":4167,"чдийн ":4168,"урьдчил":4169,"шууд":4170,"Түүний":4171,"гаргасан ":4172,"болг":4173,"Эс":4174,"ийл":4175,"энтэй":4176," хав":4177,"андаа ":4178,"эсгэл":4179,"Хэд":4180,"ахиад ":4181,"даа.\n":4182," санал":4183,"Герм":4184,"зов":4185,"Гур":4186,"эрчим":4187,"Энэт":4188,"дуус":4189,"За":4190,"уу, ":4191,"гүйгээр ":4192,"гээс ":4193,"байгууллаг":4194," тайл":4195,"тайлбар":4196,"ангуя":4197,"санал ":4198,": \"":4199,"үлдээ":4200," зогс":4201,"шилдэг ":4202,"АХ":4203,"ажлыг ":4204,"Өнөө":4205,"ашиг ":4206,"тг":4207,"нөөц":4208,"Фр":4209,"өөрийгөө ":4210,"айз":4211," хаг":4212," цаг ":4213,"ээээ":4214,"дэмж":4215,"ro":4216," зөр":4217,"эрхшээл":4218,"!!!\n":4219,"Зур":4220,"үзэл":4221,"орсон ":4222,"эцэг ":4223,"Шинэ ":4224," манай":4225,"овч":4226,"нүд":4227,"э ":4228,"жолоо":4229,"яам":4230,"Ма":4231,"хон":4232,"асгал":4233,"000":4234," худалдаж ":4235,"улм":4236,"ын тул":4237,"ож":4238,"үндсэн ":4239,"иар":4240," банк":4241," зорил":4242,"Хэрэв ":4243,"нох":4244,"Ингэ":4245,"адаг.\n":4246,"үүлсэн ":4247,"ийн хувьд ":4248,"эрлэг":4249,"үргэлжил":4250,"-ны ":4251,"Ай":4252,"Цаа":4253,"эк":4254,"шүүх":4255,"сээ":4256," дэлхий":4257,"билээ.\n":4258,"су":4259,"яаг":4260," С":4261,"аваад ":4262,"алттай":4263," бүрийн ":4264,"Ерөнхий сай":4265,"өргөн ":4266,"is":4267,"арк":4268,"амир":4269,"Ингээд ":4270,"21":4271,"мээр":4272,"Өр":4273,"уучл":4274," тоо":4275," миний ":4276," дахь":4277," хөөр":4278," харин ":4279,"инээ":4280,"ч байсан ":4281,"ж байлаа.\n":4282," харилцаа":4283,"төрлийн ":4284," санагд":4285,"олох":4286," бүтээл":4287,"байх ":4288,"бүх":4289,"дугаар":4290,"шинэчл":4291,"яд":4292," худалдан ":4293,"ч.\n":4294," харилц":4295,"сэ":4296,"уурын ":4297,"чамайг ":4298,"-Х":4299,"ag":4300,"гоор":4301," гэсэн үг.\n":4302,"ат ":4303,"дийн ":4304," хул":4305,"дээд ":4306,": Х":4307,"гу":4308,"алдаг":4309,"өө.\n":4310,"эмнэ":4311," буу":4312,"дунд":4313,"сайт":4314,"төрөл":4315," минутын ":4316,"хээр":4317," зал":4318,"жагсаалт":4319," хийж ":4320," хэцүү":4321,"Ажил":4322," тохир":4323,"судалгаа":4324,"хэрэг":4325,"Гэ":4326," болоо":4327,"Бас ":4328,"лийн т":4329," хүчин ":4330,"дээ.\n":4331,"60":4332,"Үнд":4333,"анз":4334," боллоо.\n":4335," сэтгэ":4336,"аж чад":4337,"байна ":4338,"Ес":4339,"нийтлэл":4340,"ow":4341,"нас бар":4342,"рын ":4343,"сэн юм.\n":4344," бэлтгэ":4345,"орох":4346,"эрүүл мэнд":4347,"-р":4348,"ны д":4349," мэдэх":4350," муу":4351,"албан ёс":4352,"варын ":4353,"оёр ":4354,"бөмб":4355," байвал":4356,"эхлүүл":4357,"Намайг ":4358,"ОХУ":4359,"лаг ":4360,"лээд":4361,"дугаар сарын ":4362,"яар":4363," байгал":4364," байгааг ":4365,"Чам":4366,"Ерөнхийлөгч ":4367,").\n":4368,"төхөөрөм":4369,"• ":4370,"зүйлийг ":4371,"өнх":4372," бүхий ":4373,"ичээл":4374," хэрэглэ":4375," хэлбэр":4376," мянган ":4377,"сан, ":4378,"гэдгийг ":4379,"Амьдр":4380,"мэдэх ":4381,"гэр бүл":4382,"ж\n":4383," буц":4384,"гадна":4385,"ухаан":4386," байхгүй ":4387," байгууллаг":4388," гэхэд ":4389,"онцл":4390,"MN":4391,"нөгөө":4392,"шуул":4393,"андаа":4394,"агуул":4395,"үзэг":4396," хурдан ":4397,"дамж":4398," гэнэ.\n":4399," [":4400," багт":4401,"ууд\n":4402,"сууц":4403," сүүл":4404,"энэ.\n":4405,"сээр":4406," холбоотой ":4407,"зориулсан ":4408,"бум":4409,"дсан ":4410,"өлт ":4411,"д тан":4412,"онгоц":4413,"ээрэй.\n":4414,"АЛ":4415,"бар ":4416," зүгээр ":4417,"мэдээ":4418,"виде":4419,"Солонгос":4420,"Тус":4421,"пью":4422," хамтран ":4423,"-аас ":4424,"нь.\n":4425,"дуртай":4426,"Ne":4427,"агдаа":4428," бүрд":4429,"в ":4430,"ийн тулд ":4431,"сүүлийн ":4432,"лайн ":4433,"эцэс":4434,"тут":4435,"ch":4436," он ":4437,"ж бол":4438,"ижил":4439,"эхнэр":4440,"ынхаа ":4441,"илгээ":4442," бидэнд ":4443,"Нар":4444,"лав":4445,"анхны ":4446,"th":4447,"өргө":4448,"илр":4449,"үйл ажиллагаа ":4450,"нүүд":4451,"салбар":4452," хугацаа ":4453,"ын талаар ":4454,"Улс ":4455," мэдээлэл":4456,"сөн.\n":4457,"аз жаргал":4458,"\" гэв.\n":4459," боломж ":4460,"рүү ":4461," таны":4462,"нь хар":4463," хэлэх ":4464,"дунд ":4465,"ur":4466,"Бая":4467,"Анх":4468," батал":4469,"· ":4470,"Оюу":4471,"жийн ":4472,"аж ахуй":4473,"найз ":4474,"Ком":4475,"үтгэ":4476,"өөрчил":4477," онд":4478,"кино":4479,"шүүл":4480,"одог ":4481," хөдл":4482,"гуур":4483,"л даа.\n":4484,"Үйл":4485,"ны х":4486,"ом ":4487,"лагатай":4488,"лэгч":4489,"Улаанбаатар":4490,"охин":4491,"Тэгвэл":4492," баярлал":4493,"уурхайн ":4494,"жаахан ":4495,"е.\n":4496," төгс":4497,"эхний ":4498," болгох ":4499," хөдөлгөө":4500,"эсэг":4501,"өлөөлөг":4502," хүлээн зөвшөөр":4503,"Магад":4504,"уруу":4505,"ЭН":4506,"өв ":4507,"ийнхээ ":4508,"найм":4509," гэдгийг":4510,"сэд":4511,"айх":4512,"ехник":4513,"орын ":4514,"үзэсгэл":4515,"өгдөг":4516,"үргэлжлүүл":4517,"тэг":4518," дут":4519,"авх":4520,"Үүнээс ":4521," хэ":4522,"юм\n":4523,"үгнэл":4524,"өвлө":4525,"Уул":4526,"лалт":4527,"автом":4528,"-р сарын ":4529," тэн":4530," сайт":4531,"ний с":4532,"интер":4533,"мэдэ":4534,"тухай ":4535,"цгаа":4536,"Улсын ":4537," дэм":4538,"ингэж":4539," тоглоом":4540,"шинжилгээ":4541,"ийг х":4542," хотын ":4543,"нь тодорхой":4544,"ээвр":4545,"Энэ т":4546,"яналт":4547,"танилц":4548,"as":4549,"мөнгө ":4550,"оролд":4551,"уйл":4552," хуваал":4553,".MN":4554,"надад":4555,"Шинэ":4556,"ноос ":4557," тэд ":4558,"шуу":4559," тийм":4560,"мэдэгд":4561,"үлжээ":4562,"\" гэж хэл":4563," буй ":4564,"слэл":4565," байжээ.\n":4566,"дай":4567,"еж":4568,"\" хэмээ":4569,"рүү":4570,"явдал":4571,"эмэгтэйчүүд":4572,"нунт":4573," дүүр":4574,"уралдаа":4575,"улсын х":4576,"оёр":4577," байна уу?\n":4578,"Сүүлийн ":4579,"нээлт":4580,"Энд ":4581,"амьт":4582,"\"Т":4583,"Энэхүү":4584," байсан юм.\n":4585," хол":4586,"энэ т":4587," мэдр":4588,"ламж":4589,"н, ":4590,"ан, ":4591,"ийн хув":4592,"гомд":4593,"Чин":4594,"ялбар":4595,"Эмэгтэй":4596,"  ":4597,"ээ, ":4598," болоод":4599,"иргэн ":4600," болно\n":4601," хөгжүүл":4602,"үрх":4603," хөтөлбөр":4604,"байдлаар ":4605," гэж үз":4606,"тэмцээ":4607,"арай ":4608,"бид":4609,"оох":4610,"С.":4611,"ла":4612,"г нь ":4613,"эв ":4614,"гаргах ":4615,"er ":4616,"үргэлж ":4617,".mn\n":4618,"орчин ":4619,"үндэ":4620,"шалга":4621,".MN\n":4622,"ерөнхийлөг":4623,"Учир нь ":4624,"олсон ":4625,"эрэгтэй":4626,"энэхүү":4627,"Надад ":4628,"жүжиг":4629,"атериал":4630," хэр ":4631,"ыг хар":4632," тодорхой":4633,"ндээ":4634,"шалгар":4635,"зүгээр ":4636,"Түүнийг ":4637,"том ":4638,"ариуц":4639,"ч нар":4640,"оног ":4641,"үүхэн ":4642,"шилжүүл":4643,"ритан":4644,"уулахад ":4645,"иар ":4646,"ion":4647,"гоо ":4648,"ит ":4649," хүмүүсийн ":4650,"Ер ":4651," хэсэг ":4652,"Учир ":4653,"нт":4654," боломжтой ":4655,"нийтийн ":4656,"өрөнгө оруул":4657,"Энэхүү ":4658,"шаардлагагүй":4659,"ан т":4660,"оёл":4661,"Бурханы ":4662,"сыг ":4663,"нь, ":4664,"ж чадах ":4665,"нөхөр":4666," бусад":4667,"Үндэс":4668,"суул":4669,"шөнө":4670,"ойд ":4671,"эргэжлийн ":4672,"нес ":4673,"ман":4674,"чээ.\n":4675,"ирус":4676,"машин ":4677," биелүүл":4678,"шгүй":4679,"элт ":4680," талаар":4681," настай":4682,"аагүй.\n":4683,"эсэргүү":4684,"адилхан ":4685,"олж":4686," манай ":4687,"арга хэмжээ ":4688,"эрсдэл":4689,"байна":4690,"Эрүүл":4691,"компани ":4692,"гарын ":4693,"юм билээ.\n":4694,"Хятад ":4695," хүмүүст":4696,"ууны ":4697,"нээн ":4698,"гэмт":4699,"өгөө ":4700," сал":4701," хийдэг":4702,"Хоёр ":4703," бодо":4704,"арилцаа":4705,"Ол":4706,"дээрээ":4707,"маш их ":4708,"одог.\n":4709,"олго":4710,"ын б":4711," тооц":4712,"гэхдээ ":4713,"нөлөө":4714,"80":4715,"| ":4716,"ХК":4717,"ярих ":4718,"гарч ир":4719,"##":4720,"дууд":4721,"єє":4722,"вэб":4723," хоног ":4724,"Засгийн газр":4725,"орчи":4726,"зорилго":4727," түүнийг ":4728,"байсан ":4729,"зарим ":4730,"огч":4731,"улаа":4732,"үлд":4733,", харин ":4734,"ур ":4735,"мэддэг":4736," хувил":4737," хамгийн сайн ":4738,"гил":4739,"тгүүл":4740," тас":4741,"шинд ":4742,"өдий":4743,"ээсээ ":4744,"тавь":4745,"анхаарал":4746,"олтой ":4747,"амжил":4748,"эмнэл":4749,"орлуул":4750,"вэ? ":4751,"Ардчил":4752,"Ерөнхийлөгч":4753,"Тав":4754,"явагд":4755,"лагдсан ":4756,"зураг ":4757,"нээ ":4758,"р дах":4759,"уурхай":4760," Д":4761,"дөө":4762,"уууу":4763,"онх":4764," бодл":4765," боллоо":4766,"ахыг ":4767,"энэхүү ":4768,"хүмүүс ":4769,"д, ":4770,"ших":4771,"-н ":4772,"23":4773,"Г.":4774,"өмнөх ":4775,"гэхдээ":4776," төрлийн ":4777," хуудас":4778,"удаан ":4779,"Зас":4780,"ана ":4781,"амсал":4782,"цагаан ":4783,"сурвал":4784,"юм уу?\n":4785,"ийн тухай":4786,"ж болохгүй.\n":4787,"Хятадын ":4788,"ааг":4789," мөнгө":4790,"Засгийн газар":4791,"өөрийнхөө":4792,"кон":4793,"ни":4794,"тэйгээ":4795," хувийн ":4796,"эзээ":4797," буюу":4798,"гэрэнгүй":4799,"аж байна":4800,"гаас":4801,"ж байгаад ":4802," болохгүй":4803,"ийн өмнө ":4804,"сэргий":4805,"Тус ":4806,"дээрээ ":4807,"Британ":4808,"сын ":4809,"тал ":4810,"орж ":4811,"байдаг.\n":4812,"өсв":4813,"итгэлтэй":4814,"огт ":4815,"үгээр сарын ":4816,"гадна ":4817,"УУ":4818," бөх":4819,"ов.\n":4820,"уй ":4821," дэлхийн ":4822,"жур":4823,"нутаг ":4824,"сул":4825,"шгүй ":4826," таар":4827,"явдал ":4828,"хэг ":4829,"ын тухай":4830," дээ\n":4831," гэр бүл":4832," дунд":4833,"гут":4834,"бич":4835,"ойлголт":4836,"цахил":4837,"эхлэх":4838,"кино ":4839,"ангил":4840,"шо":4841,"үрх ":4842," хэрэггүй.\n":4843,"Хэрэв та ":4844,"Англ":4845,"жишээ":4846," татгалз":4847,"уран бүтээл":4848,"хаа":4849," гэм":4850,"эдий ":4851," оноос":4852,"аасаа":4853,"н хэл":4854,"бүр ":4855,"ot":4856,"вакц":4857," тийм ":4858,"эргүүл":4859," зэрэг ":4860," бага ":4861,"найд":4862," баталгаа":4863," зохион байгуул":4864,"ийн талаар ":4865,"шаа ":4866," хурд":4867,"эмэгтэй ":4868,"Дээр":4869,"Оюут":4870,"хүр":4871,"эхээр ":4872,"жилд ":4873,"д та ":4874," М":4875,"Нэг":4876,"юм уу":4877,"суурь":4878,"et":4879,"оорой":4880,"эсэргүүц":4881,"даг\n":4882,"дэлхийн ":4883," зүйл ":4884,"цэргийн ":4885,"Энэтхэг":4886,"идэ":4887,"ч бас ":4888,"гээс":4889,"ay":4890,"уб":4891,"нэг нь ":4892,"имп":4893,"Засгийн газрын ":4894," хичээ":4895,"АЙ":4896," таа":4897,"лэсэн ":4898,"мэдээлэл ":4899,"ad":4900,"сөн":4901,"ж байв.\n":4902,"явц":4903,"зөв ":4904,"ойлгох":4905,"онцг":4906,"идэвх":4907," минутын өмнө\n":4908,"утга":4909,"Хэрэг":4910,"гт":4911,"зори":4912,"эхлээд ":4913,"дэлхий":4914,", би":4915,"утг":4916,"лаж ":4917,"алив":4918,"ав\n":4919,"ажилт":4920,"өдрийн ":4921,"өглөө":4922,"Өөрөөр хэлбэл":4923,"зэрэг":4924,"гэхэд ":4925," байгаа юм":4926," хамгаалах ":4927,"Ял":4928,"лаж":4929,"систем":4930,"алтад ":4931,"дарт":4932,"ямар нэг ":4933,"насны":4934,"орон сууц":4935,"к ":4936,"ний д":4937,"ах\n":4938,"олон улсын ":4939,"эрдэм":4940,"цалин":4941,"сэргээ":4942,"\" гэлээ.\n":4943," мөнг":4944,"ээрэм":4945,"eb":4946,"очих":4947,"ёс ":4948," хэлсэн ":4949,"мэргэ":4950,"ногоо":4951," дуул":4952,"жижиг ":4953,"юун ":4954,"олт ":4955,"чигл":4956,"авна.\n":4957,"сэн\n":4958,"?\"":4959," му":4960,"стр":4961,"Орон ":4962,"зураг":4963,"Түүнчлэн ":4964,"гөө ":4965,"сээр ":4966,"тодорхой":4967,"х\n":4968," хэрэглэх":4969,"талаар":4970," жил ":4971,"Аав":4972,"зах зээл":4973," хуур":4974,"арсан ":4975,"нд оролц":4976,"жижиг":4977,"д та":4978,"дэмжи":4979,"насан":4980,"ахаар ":4981,"дагуу ":4982,"ийн тур":4983,"эсрэг":4984,"эмчилгээ":4985,"явсан ":4986,"сум":4987,"гэнэ":4988," сэд":4989,"нийхээ":4990,"ж, х":4991,"арван ":4992,"оног төхөөрөм":4993,"Ном":4994,"шүү\n":4995,"Хэрвээ ":4996,"өөртөө":4997,"үүрэг ":4998,"сайд ":4999,"тооц":5000,"ж байхад ":5001,"бөр ":5002," бичиг":5003,"-Т":5004,"айд":5005,"уудыг":5006,"елев":5007,"тохиолд":5008,"удлаа":5009,"компью":5010,"Бидний ":5011,"Шин":5012," хям":5013," дээ ":5014,", тэр ":5015,"омжтой":5016,"анхны":5017," төрийн ":5018,"Ямар":5019,", б":5020," болсон":5021,"тэйгээ ":5022,"үзэх ":5023,"урлаг":5024,"елевиз":5025,"уд ":5026,"чилгаа":5027,"Хүний ":5028,"пар":5029,"үд":5030," дугаар":5031,"цэцэрлэг":5032,"дам":5033,"хад ":5034,"длыг ":5035," хил":5036,"нийгм":5037,"эмнэлэг":5038,"тас":5039,"ъё":5040,"авчир":5041," мая":5042,"ээлий":5043,"аанаас ":5044,"Ой":5045," дэв":5046,".м":5047,"улам":5048,"эндээ ":5049,"дээд":5050,"цаг хугацаа":5051,"70":5052," боломжгүй":5053,"ичээ":5054,"турш":5055,"оршин ":5056,"нийц":5057,"инд":5058,"....\n":5059,"удирдлаг":5060,"Дав":5061,"би ":5062,"намайг":5063," мэдээлэл ":5064,"ж болохгүй":5065,"зүйн ":5066,"баяр ":5067,"с\n":5068,"хув":5069," хүрэх":5070," болохоор":5071,"гал ":5072,"лай":5073,"сүр":5074,"өтөлбөр":5075," байдлаар ":5076,"Үз":5077,"ардчил":5078,"тайгаа":5079,"уламж":5080,"Хүрэлс":5081,"цом":5082,"цэнэ":5083,"нийлүүл":5084,"....":5085,"тэл ":5086,"улаан ":5087,"чихсан ":5088," болохыг ":5089,"ухайл":5090,"стан":5091,"архи":5092," хэзээ ч":5093,"Баяр":5094,"амьдралын ":5095," хоолой":5096,"ба ":5097,"нөөс ":5098,"улстөр":5099," боловч ":5100,"ж б":5101,"ub":5102,"сны ":5103,"Мэдээж ":5104,"иргэдийн ":5105,"II":5106,"Сон":5107,"Өгл":5108,"аахан ":5109,"эдгээр":5110," хийгээд ":5111,"эргэлз":5112,"гр":5113,"амгаал":5114,"үнэхээр":5115," багш":5116," зөвшөөр":5117,"ҮБ":5118,"Өнөөдөр":5119,", би ":5120,"өнгийн ":5121," бүс":5122,"ихэв":5123,"дыг ":5124,"198":5125,"өөсөө ":5126,"Жишээ ":5127,"Ил":5128,"у ":5129," тай":5130,"ийн төс":5131,"Хайр":5132," байвал ":5133,"тэтгэ":5134," байх ёстой.\n":5135," тави":5136,"хт":5137," март":5138,"цагт":5139,"гаараа ":5140," S":5141,"өдөлгөө":5142," зураг ":5143,"id":5144,"өч":5145,"эрх мэд":5146," тэмдэг":5147," гэдэгт ":5148,"оо.\n":5149,"орох ":5150,"гишүүд ":5151," дотор ":5152,"Н.":5153,"ба":5154,"вч":5155,"үгийг ":5156," мэдэхгүй":5157,"енеж":5158,"барил":5159,"ж байна уу?\n":5160,"гүүд":5161,"амж ":5162,"ших ":5163,"ик ":5164,"Нөгөө":5165,"гуд":5166," болж байна.\n":5167,"одруул":5168,"лөгөө ":5169,"алга.\n":5170,"асан.\n":5171,"цув":5172,"нэх":5173,"гүй бол ":5174," бүтэн ":5175," билээ":5176,"УИХ-ын гишүүн ":5177,"мс":5178,"арв":5179," хийдэг ":5180,"ажиллаж байна.\n":5181,"Орос ":5182,"гийн":5183,"Хоёр":5184,"-д":5185,"Чух":5186," хүл":5187," хэргийн ":5188,"улмаас ":5189,"Үндсэн х":5190,"АА":5191,"тийм ":5192,"гэдэг.\n":5193,"члал":5194,"аргааш ":5195,"пл":5196,"ЭМ":5197,"гэж байгаа":5198," хувьд":5199,"аж байгаа ":5200,"Энэ нь":5201,"огдсон ":5202," таны ":5203,"амхи":5204," бичлэг":5205,"мөрд":5206,"Бусад ":5207,"нүүд ":5208," хязгаар":5209," тохиолд":5210,"ураг":5211," биз.\n":5212,"Иргэ":5213,"уулж ":5214," сэр":5215," багас":5216,"Хот":5217," бодит":5218," хөрөнгө оруул":5219,"салб":5220," дууд":5221,"Европын ":5222,"рэл":5223,"фор":5224,"ахад":5225,"\"Би ":5226,"Бод":5227,"Эз":5228,"март":5229,"х нь":5230,"өрийн ":5231,"машин":5232,"юу вэ?\n":5233,"90":5234," зээл":5235,"Ням":5236,"ож байна.\n":5237,"рист":5238,"эрхүү":5239,"Өмнөд ":5240,"26":5241,"судал":5242,"албир":5243," хүндэ":5244,"ажлын байр":5245,"амсалтай ":5246,"цахим":5247,"28":5248,"ed":5249,"ша":5250,"ийн хамгийн ":5251,"гэрэл":5252,"ахарх":5253,"огино":5254,"амьсгал":5255,"албан х":5256," төгрөг":5257,"ен ":5258,"Жил":5259,"рийн ":5260,"юм байна":5261,"Гадаад":5262," хөө":5263,"охиол":5264,"ихэнх ":5265,"гайхалтай":5266,"le ":5267,"огийн ":5268," том ":5269,"ард түмэн ":5270,"өөртөө ":5271,"Нэ":5272,"долоо хоног":5273," хохир":5274," бодох":5275,"Үүний":5276,"нохой":5277,"ЭГ":5278,"алтыг ":5279," гэдгээ":5280," хүүхдүүд":5281,"мэдэхгүй":5282,"цагт ":5283,"му":5284,"Бурхан":5285,"бусад ":5286,"үйлчилгээ ":5287,"-г ":5288,"яна":5289,"эх нь ":5290," байх болно.\n":5291," хэзээ ч ":5292,"Хэдий":5293,"За ":5294,"сургалт":5295," бүх зүйл":5296," баяртай":5297,"ганцхан ":5298,"анзаар":5299,"в\n":5300," ха":5301,"Эх ":5302,"гын х":5303," болдог":5304,"энтэй ":5305,"Энэ нь т":5306,"хүлээ":5307," дээрх ":5308,"-ийг ":5309,"тур":5310," байсан":5311," бичсэн ":5312,"өгжлийн ":5313,"бүтээгдэх":5314,"im":5315,"Зүгээр ":5316,"т, ":5317,"арин х":5318,"Уд":5319,"өнөөдөр":5320,"ийг хар":5321,"Эдгээр":5322,"ъя.\n":5323,"авья":5324,"ХАУ":5325,"арай":5326,"эмээ":5327,"агдах":5328,"дараах ":5329," бөө":5330,"ал нь ":5331,"гишүүд":5332,"банк":5333,"түв":5334,"ятад":5335,"зуу":5336," хуваалц":5337,"Зам":5338," дай":5339,"улам ":5340,"нунтаг":5341,"дөг ":5342," гэвэл":5343,"юм бол ":5344,"мэднэ.\n":5345,"ж магад":5346,"улсад":5347,"боловср":5348,"27":5349,"ne":5350,"агийн ":5351,"лаад":5352,"алуун ":5353,"Сар":5354,"лын х":5355,"лагч":5356," хэд хэдэн ":5357,"ынхан ":5358,"Франц":5359,"pp":5360,"Нэгд":5361,"нөхөр ":5362,"түүх":5363," доллар":5364,"ууль ":5365,"нэн ":5366,"үйлдэл":5367,"сэн хэдий ":5368,"л дээ.\n":5369," бал":5370,"уу тал":5371," тэ":5372,"с нь ":5373,"хүн":5374,"чамд ":5375," болдог.\n":5376,"гараад ":5377,"шалгалт":5378,"угт":5379,"слэлийн ":5380,"чуудын ":5381,"я.\n":5382,"гэвэл":5383,"өлбөр":5384,"дагуу":5385,"ов\n":5386,"гана.\n":5387,"Дэлхий":5388,"k ":5389,"НҮБ":5390,"ээгүй ":5391,"үүрэг":5392,"вэр ":5393,"орж":5394,"вэ?":5395," байдлыг ":5396,"Th":5397," толгой":5398,"үйлд":5399," байх нь ":5400,"шударга":5401,"арч":5402,"үр дүн ":5403,"чухал.\n":5404," хүй":5405,"даггүй ":5406,"үйлдл":5407," гэсэн үг ":5408,"тугай":5409,"амархан ":5410,"Сая":5411,"долоо":5412,"орны ":5413,"хийл":5414," та нар":5415,"тул ":5416,"Бүг":5417,"ЭЭ":5418,"ер нь ":5419,"д тогл":5420,"фрик":5421,"ын\n":5422,"аймаг":5423," долоо":5424,"үедээ ":5425,"тогтоо":5426,"наадам":5427,"гчид ":5428,"арга ":5429,"гасан ":5430,"ийн тул":5431,"суралц":5432,"ийн бод":5433,"адил ":5434,"Мэдээж":5435,"төрөлхт":5436,"зай":5437,"зэрэг ":5438,"эхэ":5439," хайртай":5440," бөгөөд":5441,"БНХАУ":5442,"Залуу":5443,"зан ":5444," дунд ":5445,"дөг.\n":5446,"бөмбөг":5447,"Ганц":5448,"яц":5449," боломжийг ":5450," түүний ":5451,"вол ":5452,"т\n":5453," оноос ":5454,"яриад":5455,"ест":5456,"эрх чөлөө":5457,"ед":5458," хялбар":5459," долоо хоног":5460,"500":5461,"вол":5462,"сар ":5463,"эргийн ":5464,"ажи":5465,"эй.\n":5466,"магадлал":5467," тухайн ":5468,"цааш":5469," бодол":5470,"сургууль":5471,"улс төрийн ":5472,"-аас":5473,"дөрвөн ":5474,"ож байгаа":5475,"жинхэнэ ":5476,"Л.":5477,"аж байсан ":5478," тогтоо":5479,"аач":5480,"чинь т":5481,"нийгмийн ":5482,"аах":5483,"амьдрах ":5484,"ана\n":5485,"үү\n":5486,"алттай ":5487," биднийг ":5488," бүхнийг ":5489,"Хүмүүс ":5490,"ОЛ":5491,"Хэл":5492,"ийгөө":5493," хэрэглээ":5494," хүмүүсийг ":5495," байх\n":5496,"нутаг":5497,"ил ":5498,"на уу.\n":5499," хувцас":5500,"галтын ":5501,"эвлэл":5502,"эсэхийг ":5503,"хийг ":5504,"сонирхолтой":5505,"Япон ":5506,"нэвтрүүл":5507,"\"М":5508," бүү ":5509,"ань":5510," А":5511,"бэл ":5512,"ийн\n":5513,"Бие":5514," хороо":5515," Н":5516,"Ун":5517,"тийм":5518,"өж ":5519," байд":5520,"анал":5521,"ате":5522," хотод ":5523,"аах ":5524,"Үүний ":5525,"ec":5526,"Тур":5527,"гэц":5528," бүлэг":5529,"Гэвч":5530,"ent":5531,"гадаад":5532,"Их Британ":5533,"чигдөр ":5534,"Ингэснээр ":5535,"em":5536,"ж чадна.\n":5537,"албан тушаал":5538," бүт":5539," тэрбум":5540,"алхам":5541,"Гэсэн хэдий ":5542,"мыг ":5543,"ноо":5544,"үнэм":5545," түүний":5546,"ач холбогд":5547,"Оросын ":5548,"чулуу":5549,"Гар":5550,"гдэ":5551,"угаал":5552,"ондоо":5553,"тайгаа ":5554,"ирсэн.\n":5555,"даас":5556,"ийн хэл":5557,"гис":5558,"үнс":5559,"алдсан ":5560,"ойролцоо":5561,"хүүх":5562,"ийн турш":5563,"ашиглах ":5564,"компанийн ":5565,"акт":5566,"бодлог":5567,"ж байж ":5568," хэрэггүй":5569,"гдсэн ":5570,"амьдарч":5571,"галт ":5572,"страл":5573,"Ерөнхийлөгчийн ":5574,"вортой":5575,"i ":5576,"ws":5577,"ОН":5578,"олох ":5579,"ын хамгийн ":5580,"Зарим ":5581,"дан":5582,"гайхам":5583,"Кан":5584,"ухаан ":5585,"нэрийг ":5586,"Америкийн ":5587,"алдаа ":5588,"байр ":5589,"байдал":5590,"ийнхөө":5591,"үзүүлэлт":5592,"компаниуд":5593,"Бр":5594,"Из":5595,"гуу":5596," танд ":5597,"дэггүй":5598," гэдэг нь ":5599," орчим":5600,"\" гэжээ.\n":5601,"тол":5602,"тодорхойл":5603,"цас ":5604,"гдэл":5605,"хийн хамгийн ":5606," ам":5607,"Тэм":5608,"гүүд ":5609,"шөө":5610," бололтой.\n":5611,"өрөвд":5612,"нарийн ":5613," хөгжил":5614,"Газ":5615,"ны з":5616," төрсөн ":5617," дараах ":5618,"лэс":5619,"агчид ":5620,"орос":5621,"ж сур":5622,"эхлэн ":5623,"Эрх":5624,"Байгал":5625,"аргааш":5626,"урьдчилан ":5627,"кл":5628,"өгнө":5629,"дэггүй.\n":5630,"шүүмж":5631,"л яв":5632,"амьтан ":5633,"ууд нь ":5634,"яагаад":5635,"ig":5636,"us":5637,"амт ":5638,"Тухайл":5639,"ап":5640,"урь":5641,"өнөөдр":5642,"лэдэг ":5643,"Хув":5644," бөмб":5645," болно ":5646,"ажилласан ":5647," болов уу.\n":5648,"эрчим хүч":5649,"хай":5650,"ийн хүр":5651,"Цэц":5652,"нур":5653," даа\n":5654," болов уу":5655,"болохоор ":5656,"ахил":5657," бичих":5658," болов.\n":5659,"аа, ":5660," байдлын ":5661," гаруй ":5662,"Өдөр":5663,"сав":5664,"нов":5665,"длын ":5666,"амжилттай":5667,"Шил":5668,"дагч":5669,"дээрх ":5670,"ихэвчлэн ":5671,"Нөх":5672,"вэ ":5673,",\"":5674,"-ыг ":5675,"ir":5676,"АС":5677,"өмөр ":5678,"шилт":5679,"өөрсдөө":5680,"асуудлаар ":5681,"яасан ":5682,"эхл":5683," бүлийн ":5684,"алба":5685,"ноос":5686,"ахын ":5687," машин ":5688,"Дот":5689,"таны":5690," хаж":5691,"амиа ":5692," бие бие":5693,"удалдаа":5694,"шр":5695,"англи":5696,"үс ":5697,"лэгд":5698,"олборл":5699,"чдад ":5700," хаана":5701,"з ":5702,"д тэр":5703,"нам ":5704,"...]\n":5705,"улс орн":5706," хувь нь ":5707," бутлуур":5708,"ост":5709,"длаа ":5710,"гэхээр ":5711,"чдыг ":5712,"дотор":5713,"экс":5714,"аж ахуйн ":5715,"Бүр":5716,"бал ":5717,"аад х":5718," мян":5719," бүртгүүл":5720,"on ":5721,"Эдийн з":5722,"Пр":5723,"хүний ":5724,"гэрийн ":5725,"найдвар":5726,"ангуяа ":5727,"\"х":5728," бахарх":5729,"амьдрал ":5730,"портын ":5731,"Тэдний ":5732,"то":5733," сэтгүүл":5734,"өхгүй":5735,"нээр ":5736,"олд ":5737,"дээс ":5738,"Өмнөх ":5739," бодлого":5740," биш, ":5741," хүүхдийн ":5742,"шинжлэх ":5743,"\"Би":5744,"лээр ":5745,"ихэнх":5746,"гэж хэл":5747,"нөгөө ":5748,"нэлээд ":5749,"зүйлс":5750,"өөсөө":5751,"Эн":5752,"өдөлмөр":5753,"гө":5754,"эхлэх ":5755," мал":5756,"анхим":5757,"Та нар":5758," хэмжээний ":5759,"үйлдвэрлэл":5760,"ажлын х":5761,"баатар ":5762,"Дараагийн ":5763,"Ажлын ":5764,"!!\n":5765,"жигл":5766," байхыг ":5767,"үлдсэн ":5768," дээш":5769,"Одоогоор ":5770,"эцэг эх":5771,"ж байдаг.\n":5772," байнга":5773,"санхүүгийн ":5774,"тохиолдолд ":5775," дахи":5776,"ах, ":5777," хийгээ":5778," хүссэн ":5779,"гаараа":5780,"дуртай.\n":5781,"Австрал":5782,"шагнал":5783,"анхүүгийн ":5784," [...]\n":5785,"of":5786,"ж байгааг ":5787,"үнэтэй":5788," багш ":5789,"оглоом":5790," биз дээ.\n":5791,"ном ":5792,"номын ":5793,"г хар":5794,"сэтгүүл":5795," дэх ":5796,"мэдэг":5797,"ХХК":5798,"таа ":5799," төлөө":5800," бүхэл":5801,"Өөрийн ":5802," байрл":5803,"Бидний":5804,"Мөнх":5805,"захи":5806,"сол":5807,"х.\n":5808," хаал":5809,"шинд":5810," зэрэг":5811,"тань":5812,"тгал":5813," дая":5814,"ах хэрэгтэй.\n":5815," хүсэлт":5816," байнга ":5817," тайлбар":5818,"цэн":5819,"ан б":5820," байх ёстой":5821,"Дараа нь ":5822,"Хууль":5823,"ш дээ.\n":5824,"эер":5825,"гэж байна.\n":5826,"энэ с":5827,"одоогийн ":5828,"өгсөн.\n":5829,"шалтгаал":5830,"автоб":5831,"Сайхан ":5832,"In":5833,"агдах ":5834,", та ":5835,"Ер нь":5836,".д":5837,"АН-ын ":5838,"өдөр тут":5839,"Ох":5840,"усан ":5841,"ны м":5842,"сайжр":5843,"автома":5844,"шив":5845," болохгүй.\n":5846,"ҮҮ":5847,"илэр":5848,"уудад":5849,"цагдаагийн ":5850,"29":5851," санал ":5852," хуулийн ":5853,"аав ":5854,"ме":5855,"эхний":5856," хүн х":5857,"шинээр ":5858,"мэдээллийг ":5859," гэхээр ":5860,"урамшуул":5861,"чиглэлээр ":5862,"ины ":5863," болдог ":5864,"эгч ":5865,"даг юм.\n":5866," хэрэгтэй\n":5867," барих ":5868,"тар":5869," гэвэл ":5870,"цагаа":5871,"нэр дэвшиг":5872," З":5873,"өгжил":5874,"Үүнийг":5875," хоногт":5876,"нутагт":5877,"Сургуул":5878,"Есүс":5879,"\"С":5880,"апп":5881,"журам":5882," тод":5883,"ын төлөө":5884,"ашиглаж":5885," биз дээ":5886,"өөрийнхөө ":5887,"захиал":5888,"илт":5889,"өвчин ":5890,"өнгөн ":5891,"чүүдийн ":5892,"Үнэхээр ":5893,"ч мөн ":5894,"Бурханы":5895,"цай":5896," бүхий":5897,"жид ":5898,"төлөвлө":5899," мэдээллийг ":5900,"амжилт ":5901,"Үр":5902,"ахаа":5903,"өсөлт":5904," болон х":5905," хайрл":5906,"-ын х":5907,"Холбоо":5908,"заавал ":5909,"ондоо ":5910," дэмж":5911,"ойн ":5912," биш юм.\n":5913,"шаардлагатай.\n":5914,"ж болох юм.\n":5915,"Ч.":5916,"юу.\n":5917,"сайхан":5918,"томил":5919,"парлам":5920,"-Та ":5921,"санаа ":5922,"эсэг ":5923,"маш их":5924,"вий":5925,"цац":5926,"чинь х":5927,"гаж ":5928," хүн бай":5929,"өдөр бүр ":5930,"гадаад ":5931,"үндэст":5932," хувилбар":5933,"Африк":5934,"хи ":5935,"ан\n":5936,"тэй\n":5937," бараа":5938,"бэр ":5939,"яа":5940,"уншиг":5941,"өөрсдийн ":5942,"үгээс ":5943," өдр":5944,"300":5945,"Мал":5946,"ажилладаг":5947,"ж чадахгүй ":5948,"гүүр ":5949," хуудас ":5950,"Ардчилсан ":5951,"\" гэдэг ":5952,"Ээж ":5953,"нэмэгдэ":5954,"эмжээнд ":5955,"ЭР":5956,"ож, ":5957," тур":5958," гэсэн.\n":5959,"этгээд":5960,"нөхцөл байдал":5961,"бүү":5962,"эн, ":5963,"т нь":5964,"эрхүү ":5965,"маши":5966," бэлэг":5967,"уулзалт":5968,"аглал":5969,"цалин ":5970," хүлээл":5971,"\"Н":5972," бэрхшээл":5973,"аск":5974,"жит":5975," мэдэ":5976,"ажлаа ":5977," сум":5978,"мэдээ ":5979," мэдээ":5980,"н хэрэг":5981,"АН ":5982,"ж байна вэ?\n":5983,"Ирэх ":5984,"очиж ":5985,"гудамж":5986,"; ":5987,"ороо ":5988,"нийл":5989,"ажилладаг ":5990,"яриа":5991,"видео":5992,"бий":5993,"игд":5994,"л байна.\n":5995,"файл":5996,"ууш":5997,"д ханд":5998,"элдэх":5999,"эзэн ":6000," хүмүүст ":6001,"Засаг ":6002,"ul":6003,"Том":6004,"гав":6005,"үнд ":6006,"Өөр ":6007,"ердөө ":6008," бараг":6009,"нэмэлт":6010," байна вэ?\n":6011," гэрээ":6012,"зогсоо":6013,"S ":6014,"азар":6015,"Өнд":6016,"эмч":6017," хүүхдүүд ":6018," тэгээд ":6019,"бал, ":6020,"Элб":6021,"маа ":6022,"үгүй ":6023," дээш ":6024,"амьдралд ":6025,"танилцуул":6026,"Гал":6027,"шуг":6028,"ээхэн ":6029,"чиний ":6030," хийж":6031," хүн.\n":6032,"кам":6033,"ял ":6034,"ах болно.\n":6035,"эрхэн ":6036,"ийнхэн ":6037," бизнес ":6038,"Цагаан ":6039,"Өглөө":6040,"Хо":6041,"мэл ":6042," су":6043,"оход ":6044,"ч юм":6045," бүтэ":6046,"ын хув":6047,"Тэр үед ":6048,"ч бас":6049,"үйм":6050,"амсар":6051,"авна":6052,"ж байгаа нь ":6053,"улсын т":6054,"Алив":6055,"өөрсдөө ":6056,"ap":6057,"Тайл":6058,"тэй бол":6059,"өлс":6060,"өдөө ":6061,"орон нутгийн ":6062,"тоглолт":6063,"Харамсалтай ":6064,"Ду":6065,"төв":6066," хуваа":6067,"нь тэр":6068,"албаны":6069," талбай":6070," тэмцээ":6071," бүгдийг ":6072,"эзэмш":6073,"тор":6074,"тохиолдол":6075,"онлайн ":6076,"эх орон":6077,"цаашид ":6078,"маш олон ":6079," настай ":6080,"Цагдаа":6081,"АГ":6082,"албай":6083,"эн.\n":6084,"Монголчууд ":6085,"Нийт":6086,"ажигл":6087,"цох":6088," хv":6089,"өгч ":6090,"удаан х":6091," хурим":6092,"гавар":6093,"ж.\n":6094," харамс":6095," хамаагүй":6096,"оомж":6097,"лэдэг.\n":6098,"-ын т":6099,"com":6100,"и, ":6101,"мянган ":6102," хаш":6103,"шинж ":6104,"Ард түм":6105,"оролцоо":6106," хороол":6107,"тэмц":6108,"ook":6109,"яахав":6110,"ЭЛ":6111,"нэлээ":6112,"ахыг хүс":6113,"өдөө":6114,"эрх бари":6115,"ель":6116,"үнэлгээ":6117,"Хаа":6118,"зан":6119,"ахаас ":6120,"нд ор":6121," хууль ":6122,"үгүйс":6123,"ov":6124,"тгэл ":6125,"нутагт ":6126,"News":6127,"Бэл":6128,"нас ":6129," дор":6130,"сан бол":6131," дараагийн ":6132,"сонголт":6133,"төгр":6134,"үүнээс ":6135,"асар ":6136,"двар ":6137,"енер":6138,"нэгдсэн ":6139,"уулын ":6140,"чиний":6141,"Бу":6142,"даа\n":6143," хоц":6144,"онцлог":6145,"юм бэ.\n":6146,"ын тулд":6147,"наа ":6148,"урс":6149,"тэй холбоотой":6150,"цагийн ":6151,"омжтой.\n":6152,"үзүүлэх":6153,"зохицуул":6154,"аль хэд":6155,"цэцэг":6156," M":6157,"ургам":6158," бодис":6159," хамтлаг":6160,"Таныг ":6161,"бөгөө":6162,"ээд х":6163,"энд т":6164,"мэдэр":6165," битгий ":6166," зорилго":6167,"ter":6168,"засгийн ":6169," тах":6170,"амын ":6171,"оно ":6172," бодож ":6173,"сонин ":6174," хоногийн ":6175,"зор":6176,"шар":6177,"ээгүй.\n":6178,"тай холбоотой":6179," хийнэ.\n":6180,"өөрчлөх":6181,"асуудлыг":6182,"Эрүүл мэнд":6183,"iv":6184,"СУ":6185,"У.":6186,"ван":6187,"даж":6188," бр":6189,"уриал":6190," хүчир":6191,"огч ":6192,"үедээ":6193,"сэн, ":6194,"лэгч ":6195,"нэгтгэ":6196," зүйлийг ":6197,"заавал":6198,"ийн турш ":6199,"нүүр ":6200,"үгнэ":6201,"өөрчлөлт ":6202,"Одоогийн ":6203,"ж ирсэн ":6204,"царай":6205,"гайл":6206," дамж":6207,"өрөв":6208,"өнгөл":6209,"ох нь ":6210,"эрхэл":6211,"сургуулийн ":6212," төлбөр":6213,"ИЛ":6214,"Найз":6215,"зорь":6216," байхад":6217,"авч чад":6218,"сургуульд ":6219,"Засгийн газар ":6220,"Мэдээл":6221," загвар":6222,"Гр":6223,"ийгөө ":6224,"талчилгаа":6225," хүлээж ":6226,"Хэрэв та":6227,"oog":6228,"Ман":6229,"оноо":6230,"ихээхэн ":6231,"сайх":6232,"тус ":6233,"үйл явц":6234,"р дахь ":6235,"ОР":6236,"мар":6237,"аасан ":6238,"ашиглан ":6239,"өндөө":6240," хас":6241,"эн\n":6242," хүрээл":6243," мэдэгд":6244,"ч тэр ":6245,"загвар":6246,"МАХ":6247,"иуд":6248,"нуудын ":6249,"уульд ":6250," зав":6251,"настай":6252,"оролцох":6253,"dow":6254,"дахь ":6255,"жагсаал":6256,"Уг нь ":6257," доо.\n":6258," зүйн ":6259," ч":6260,"АМ":6261,"Ах":6262,"ЭЗ":6263,"мод":6264,"гээд х":6265,"гээд л":6266,"Тэдний":6267,"түүний ":6268,"найз нөх":6269,"Ис":6270,"виз":6271," технолог":6272,"ийн хугацаа":6273,"сон х":6274,"ыг хичээ":6275,"МАН-ын ":6276,"лын т":6277,"од т":6278," ту":6279,"ирээд ":6280," мэдэх ":6281,"шийдэ":6282,"одоогоор ":6283,"аад т":6284,"ийг хэрхэн ":6285,": Т":6286,"эрхэм":6287,"сураг":6288,"ачаал":6289,"компьютер":6290,"Харин х":6291,"воо":6292,"материал":6293,"урт ":6294,"чиг ":6295," хэрэгцээ":6296,"төрийн ":6297," хэмжээний":6298," баярл":6299,"анх удаа":6300,"яцхан ":6301,"-Би ":6302,"д.\n":6303," тэнэ":6304,"орт":6305,"чим ":6306," гэв.\n":6307," зөвл":6308,"нэг л":6309," минь":6310,"сан байдаг.\n":6311,"ж өгөх":6312,"төлөв":6313,"сонгуульд ":6314,"сурвалж":6315,"авсан.\n":6316,"саны":6317,"жив":6318,"ийн талаар":6319,"гээрээ ":6320,"ж тэм":6321,"гайхалтай ":6322,"гүн":6323,"муу ":6324,"үнэр":6325,"ж чадахгүй.\n":6326,"гана":6327,"Анх ":6328,".мн\n":6329,"лал ":6330,"чөлөөл":6331,"арч ":6332,"агаар ":6333,"ов ":6334,"олон жил":6335,"эцсийн ":6336,"Ерөнхий сайд ":6337,"аялал":6338,"юу хий":6339,"нь тэд":6340,"үзүүлэх ":6341,"АТГ":6342,"цахилгаан ":6343,"енд":6344,"кв":6345,"сээ ":6346,"цогц":6347," буд":6348," тус ":6349,"гүй байсан ":6350,"197":6351,"Баян":6352,"ost":6353,"Нас":6354,"аван ":6355,"инг":6356,"Алб":6357,"зөвлөл":6358,"үндэслэл":6359," гэж бодож байна.\n":6360," хоол ":6361,"амьд ":6362,"хүний":6363," хүчтэй":6364," хэцүү ":6365," бүтээгдэхүүн ":6366," A":6367,"лэм":6368,"тод":6369,"цийн ":6370,"надаас ":6371,"урьд ":6372,"тайгаар ":6373,"ноё":6374,"энэ нь":6375,"өмнө нь ":6376," хэвлэл":6377,"зуун ":6378,"шим":6379,"снаар ":6380," тань":6381," маши":6382,"Оюун":6383,"op":6384,"ut":6385,"үүнд":6386,"юм байна ":6387,"лагыг ":6388,"ын хү":6389," хүн бүр":6390,"нөхр":6391,"яналтын ":6392,"Түүнээс":6393,"шаардлагатай ":6394,"Миний хувьд ":6395,"үгнэлт":6396,"Н.Энх":6397,"тай бол":6398,"гараа":6399,"инж":6400," хамгийн их ":6401,"-гийн ":6402,"ве":6403,"шл":6404,"орно":6405," суур":6406," байхдаа ":6407," бие ":6408,"снээр":6409,"Аль ":6410,"яригд":6411," буруу ":6412,"өнөөгийн ":6413,"ангуяа":6414,"рай":6415,"шид":6416,"Монголын т":6417," боловсруул":6418," P":6419,"os":6420,"амб":6421,"лаас ":6422," хүртэ":6423,"сэнгүй.\n":6424,"олон хүн ":6425,"биш ":6426,"аримт":6427,"зарцуул":6428,"арм":6429,"оруулах":6430,"ингийн ":6431,"наар":6432,"цөм":6433,"даг вэ?\n":6434," барих":6435," баригд":6436,"АНУ-д ":6437," машин":6438,"боловч ":6439,"гун":6440,"мэт ":6441,"ндээ ":6442,"тухайн ":6443,"эв\n":6444,"болсон ":6445,"олж хар":6446,"Хал":6447," төв":6448," гэдэг.\n":6449,"эмчл":6450,"ажилтан ":6451,"удахгүй ":6452," зураг":6453,"???\n":6454,".\"":6455,"ab":6456," бут":6457," блог":6458,"Биз":6459,"! ":6460,"Бас":6461,"я ":6462,"ӨР":6463,"н байгуул":6464,"на гэж ":6465," сул":6466,"ирж ":6467,"унаг":6468,"эзэл":6469,"эхэлсэн ":6470,"Нийслэлийн ":6471,".Баттул":6472,"Fac":6473,"төгс":6474,"нэт":6475,"амь ":6476,"раил":6477,"мсэг":6478,"нтэй":6479," бид х":6480," дотр":6481,"янз бүрийн ":6482,"Гурван ":6483," хулгай":6484,"\"Д":6485,"тер ":6486," судалгаа":6487,"энх нь ":6488," хийсэн.\n":6489," байгаа нь ":6490,"олбогд":6491,"Та нар ":6492," бүрдүүл":6493,"Бүгд ":6494,"35":6495,"АШ":6496,"бутл":6497,"ч,":6498,"анг ":6499,"Интер":6500," хатуу":6501,"Магадгүй":6502,"Цаг ":6503,"нт ":6504,"ралт":6505,"ахаар":6506,"эхэд":6507,"даал":6508,"явуулах":6509,"шил ":6510,"зөвлө":6511," хооронд ":6512,"залуу ":6513,"гайхамшиг":6514,"D ":6515,"Христ":6516,"ди":6517,"тэнд ":6518," бид т":6519,"үед т":6520,"үнэгүй ":6521,"зохиол":6522," зөв ":6523,"сэн байдаг.\n":6524,"Хүмүүс":6525,"эвсэг":6526,"Англи":6527,"Goog":6528,"дут":6529,"етр":6530," хэзээ":6531,"яваад ":6532,"илүү их ":6533,"шалгаруул":6534,"өрөг ":6535,"ноц":6536,"ёсл":6537,"196":6538,"санаа зов":6539,"У.Хүрэлс":6540,"гүр":6541,"нил":6542,"ск":6543,"т м":6544,"энийг ":6545,"өрнө":6546," хоёул":6547,"гэсэн үг":6548,"орлого":6549,"Хойд ":6550,"нөлөө ":6551,"орны":6552,"ороод ":6553," хүнийг":6554,"өлөвлөгөө":6555,"аварга":6556,"ж байжээ.\n":6557,"эх\n":6558,"атвар":6559,"оглолт":6560,"снаас":6561,"өдөрт ":6562,"-тай":6563,"Тэн":6564," борлуул":6565," байж болно.\n":6566," түүх":6567,"өгөлд":6568,"даад":6569,"шүү ":6570,", тэг":6571,"уламжлал":6572,"oc":6573,"үгүй.\n":6574,"юм биш ":6575,"длээ.\n":6576,"нь тус":6577,"олгох ":6578," бий ":6579,"маань":6580,"эндээс ":6581,"Компан":6582,"um":6583,"тон ":6584,"ҮЙ":6585,"арав":6586,"утга ":6587,"оюун ":6588,"саг":6589,"таны ":6590,"гэвэл ":6591,"ахм":6592," хамгаалах":6593," хөрөнгө":6594,"Амьдрал":6595,"Хүү":6596," хувир":6597,"ж таар":6598," түүнд ":6599," боломжтой\n":6600,"Үндэсний ":6601,"оорой.\n":6602,"албан хааг":6603,"The ":6604,"Элбэгд":6605," төр ":6606,"ын талаар":6607,"увил":6608,"байх.\n":6609,"сэтгэлээ":6610,"няг":6611," тодорхойл":6612,"ундаа":6613,"үнэгүй":6614,"Тэгээд":6615,"гоё ":6616,"Re":6617,"Итал":6618," хүү ":6619,"над ":6620,"усны ":6621," хуралдаа":6622,"үйлчилгээг ":6623,"маш сайн ":6624,"жирэм":6625,"мөр ":6626,"цорын ":6627,"яа ":6628,"оооо":6629,"уулаад ":6630,"жишээ ":6631,"нэгж":6632,"гэж үз":6633," бусдад ":6634,"Гэр бүл":6635," өдрийн өмнө\n":6636,"еат":6637,"рүүл":6638,"даг байсан ":6639,"цааш ":6640," тэнц":6641,"Түр":6642,"цгээ":6643,"ийн хугацаанд ":6644," тоглолт":6645,"ийнх нь ":6646,"судл":6647," сүүлийн ":6648,"Хэдэн ":6649,"каз":6650,"уз":6651,"дэг\n":6652,"үүд\n":6653,"эргэн тойр":6654,"эмнэлгийн ":6655,"Уу":6656,"Үл":6657,"аргаар ":6658,"ыг хэрхэн ":6659,"ж болохгүй ":6660,"] ":6661," хүрэх ":6662,"итгэл ":6663," хэвээр":6664,"тоглоом":6665,"авли":6666," хийж байгаа":6667," боловч":6668,"арга зам":6669,"_ News":6670,".Энхбол":6671,"оршин суу":6672,"Ch":6673,"Мөнгө":6674,"даатгал":6675," хүрээ":6676,"удахгүй":6677,"агүй ":6678,"оронав":6679,"үйл ажиллагааг ":6680,"найруул":6681,"ааны ":6682,"эргэж ":6683,"гүйл":6684," хувийг ":6685,"бүс":6686,"ийнхөө ":6687,"an ":6688,"зорилгоор ":6689,"жинхэнэ":6690," боллоо\n":6691,"америк":6692," зая":6693," зори":6694,"өв.\n":6695," хуваар":6696,"ооронд ":6697," хүлээж ав":6698,"изм":6699,"сэтгэл ":6700,"up":6701,"ж л":6702," мах":6703,"ашигтай":6704," хаана ":6705,"авч үз":6706," хангалттай":6707,"Эцэс":6708,"вирус":6709,"урд":6710,"авил":6711,"аяг":6712,"н хар":6713,"бүсгүй":6714,"өглөө ":6715,"-нд":6716,"лэнэ.\n":6717,"нүү":6718," түл":6719,"нийслэл":6720,"энэ талаар ":6721,"үүдэд":6722,"гэртээ":6723,"ж чаддаг":6724,"Ари":6725,"газарт ":6726,"Онц":6727,"Израил":6728,"гэсэн.\n":6729,"урсгал":6730,"огчд":6731,"даад ":6732,", тэд":6733,"лэлт":6734,"Монгол Улс ":6735,"Айм":6736,"аркет":6737,"Заг":6738,"дахи":6739,"оол ":6740,"толгой":6741,"чийг ":6742,"элдэ":6743,"өвөр":6744,"ийн хувь":6745,"шиг.\n":6746,"нэг их ":6747,"ийн тус":6748,"ын төв":6749," байна, ":6750,"ж байсан юм.\n":6751,"таалагд":6752,"найман ":6753,"Зөвл":6754,"ОУ":6755," мэргэ":6756,"өнд ":6757," хараад ":6758,"мэдлэг":6759," дэлгүүр":6760,"Олон улсын ":6761," хөдөлмөр":6762,"?!\n":6763,"Нийг":6764,"Ээж":6765,"үл ":6766,"ариутг":6767,": Би ":6768,"Иргэд":6769,"art":6770," болов уу?\n":6771,"сэн бол":6772," хамгаа":6773,"амжийн ":6774,"өнгөрөө":6775,"өгдөг.\n":6776,"нет":6777,"пер":6778,"санд":6779,"ину":6780," дээрээ ":6781,"санал болго":6782,"ерөнхий ":6783,"уухай":6784,"Дээр ":6785,"ис ":6786,"ааг ":6787,"эрүү":6788,"оогүй":6789,"явчих":6790,"Үүнээс":6791,"сан байх ":6792," давх":6793," халдвар":6794,"Эсвэл":6795,"жүжигчин ":6796,"єр":6797,"ал\n":6798," байдлаа":6799,"ага":6800,"ийг нь":6801,"шүүх ":6802,"члалын ":6803,"ээсээ":6804,"өвлөр":6805," хүнтэй":6806,"45":6807,"Барил":6808,"алсан ":6809,"үйц":6810,"дэнэ ":6811,"даргын ":6812,"нөхөн ":6813,"жүүлэх ":6814,"цэвэр ":6815,"олимп":6816,"огчид ":6817,"гарсан.\n":6818,"ажиг":6819,"албарын ":6820," байсан бол":6821,"амьдрах":6822,"төлбөр ":6823," Г":6824,"ин х":6825," дал":6826," хүчин":6827,"Биб":6828,"чихсон ":6829," сайх":6830," гэж боддог.\n":6831,"проц":6832,"Од":6833,"бур":6834,"дүү":6835,"лыг":6836,"шаш":6837,"ино ":6838,"нэг л ":6839," гэж үзэ":6840," боломжгүй.\n":6841,"дуртай ":6842," /":6843,"үх ":6844,"оо\n":6845," хэрэглэх ":6846,"шугам":6847,"_ News.MN\n":6848,"тээрэм":6849," даа ":6850,"гадаг":6851," сол":6852,"улгай":6853,"дээ\n":6854,"өнгөж ":6855,"алдах ":6856,"олгох":6857," байна уу":6858,"суурил":6859," тул ":6860,"Хам":6861,"гү":6862,"тий":6863,"үндэсний ":6864,"Өнөөдрийн ":6865,"App":6866," сар ":6867,"огтоо":6868,"эйс":6869," байгууллага":6870,"зохиц":6871,"уны ":6872," тун ":6873,"ж з":6874," зах зээл":6875,"эмч ":6876,"лагч ":6877,"эрхий ":6878,"чанартай":6879,"нээлттэй":6880,"09":6881,"иг ":6882,"он х":6883," салбар":6884,"ингэ":6885,"ухаар":6886," бурхан ":6887,"янз бүр":6888," хариуцлага":6889,"инээмсэг":6890,"You":6891,"ИТ":6892,"ио":6893,"иад":6894,"мун":6895," харахад ":6896,"нь тэр ":6897,"дэвс":6898," байр суур":6899,"31":6900,"ИН":6901,"иас ":6902,"схий":6903," баг ":6904,"аныг ":6905," сонголт":6906,"эх үүс":6907," хамаагүй ":6908,"оороо ":6909," төрөл":6910,"унших":6911,"ламж ":6912,"эд хэдэн ":6913,"оёлын ":6914,"өдөрт":6915,"анхаарлаа":6916,"яриа ":6917," таныг ":6918,"ганцаараа":6919,"шээлбэл":6920," хоригл":6921,"Х.Баттул":6922,"дэр":6923,"нуудыг ":6924,"сэл ":6925," дөрвөн ":6926," бичих ":6927," мөнгө ":6928,"даар ":6929,"гарг":6930,"болох ":6931,"хүнд ":6932,"\" гээд ":6933,"сайд":6934,"нэмэг":6935,"дурс":6936,"мөрөөд":6937,"нийхээ ":6938," бутлуур ":6939,"Хувь":6940,"шөн":6941," хөнд":6942,"ажиллаж ":6943,"оригл":6944,"шаардлага ":6945,"төлөвлөгөө":6946,"ажлыг":6947,"Эсвэл ":6948,"агдаад":6949,"ка":6950,"нойр":6951," богино":6952," тогоо":6953,"байсан.\n":6954,"нөхцөлд ":6955,"аль болох ":6956,"клуб":6957,"тыг ":6958,"гаа.\n":6959,", эсвэл":6960,"үг хэл":6961,"нарыг ":6962," бэлтгэл":6963,"\" гэх ":6964," дугаар сарын ":6965,"Гурав":6966,"англи хэл":6967,"ну":6968,"хүүхд":6969,"нь \"":6970,"үүлэг ":6971,"Бид т":6972,"дэггүй ":6973," хүн бүр ":6974," байх юм.\n":6975,". .\n":6976,"ист ":6977,"өөлөн ":6978,"анх удаа ":6979,"эдийн засаг":6980,"ОО":6981,"Шүүх":6982,"лоо ":6983,"наад ":6984,"эмгэ":6985,"ын хэрэг":6986,"гээрээ":6987,"снаа":6988,"Арх":6989," сургалт":6990,"Тэгэхээр":6991,"гөн ":6992,"л бол":6993,"снийг ":6994,"ухим":6995,"аалаг ":6996," байгууллагын ":6997,"Дал":6998,"Жин":6999,"коф":7000,"лаар ":7001,"үгэ":7002,"ажил хий":7003,"ын хэл":7004,"лыг онцл":7005," байгуулагд":7006,"Бүх":7007,"рамп":7008,"ation":7009,"Болов":7010,"Үйлдвэр":7011,"Чухлыг онцл":7012,"МАХН":7013,"av":7014,"тов":7015," хах":7016," хяналт":7017,"эхнэр ":7018," хийхэд ":7019,"чамайг":7020,"дахь":7021," маш их ":7022,"ауд":7023,"шув":7024," бл":7025,"тэй байна.\n":7026,"гээд т":7027," зайл":7028,"даг, ":7029," хүрсэн ":7030,"Монголчууд":7031," гэж үү?\n":7032,"омжтой ":7033," болсон байна.\n":7034,"St":7035," дахиад ":7036," ман":7037,"энэ сарын ":7038,"ото":7039,"Уул ":7040,"ebook":7041,"ганы":7042,"таар":7043,"огчдын ":7044,"эхийг ":7045,"омоохон ":7046," байгаа бол":7047,"194":7048," байдаггүй.\n":7049,"ганцаар":7050,"ийнх ":7051," зарим ":7052,"Сүх":7053," мод":7054," хоолл":7055,"үүдэл":7056,"бид ":7057,"нэртэй":7058,"тын ажиллагаа":7059,"асуудал.\n":7060,"үсэг ":7061,"аарай\n":7062,"орчинд ":7063,"бари":7064,"иж":7065," хар ":7066," хэрэгсэл":7067,"шүүр":7068,"үеэр":7069,"нэг удаа":7070,"аймшиг":7071,"оронд":7072,"дараагийн ":7073,"No":7074,"Сэтгэл":7075,"Хий":7076,"Энд":7077,"гүйгээр":7078,"юмаа":7079,"гарна.\n":7080," гэж нэр":7081," хоёр д":7082,"ангуй":7083,"Амар":7084,"өдрийг ":7085,"өлдөө":7086,"очоод ":7087,"өмөр зам":7088,"ia":7089,"Танд ":7090,"мол":7091,"мээр ":7092," гэж би":7093,"эс зас":7094," удаа":7095,"рай.\n":7096,"Үх":7097,"д нь":7098,"өрх":7099,"өгс ":7100,"юм даа.\n":7101," хэргийг ":7102,"жигд":7103,"үед х":7104,"ийн төлөө":7105,"тэй уулз":7106,"үүдийг":7107,"Хүний":7108,"Түүнд ":7109,"авах\n":7110," хүлээн ав":7111,"бизнес":7112,"дад":7113,"ож байсан ":7114,"түүнийг ":7115,"ядар":7116,"ж байдаг ":7117," систем":7118,"өөрийн х":7119,"ээлий ":7120,"длийг ":7121,"үлдэ":7122," тавих":7123,"нээсээ":7124,"цуглуул":7125,"ийн тухай ":7126,"уулах\n":7127,"эрх зүйн ":7128,"амжилт хүс":7129,"ИЙН ":7130,"Цахи":7131,"гуур ":7132,"улим":7133,"өмгөө":7134,"лээс ":7135,"аж яв":7136,"ong":7137,"Нямдор":7138,"-ний ":7139,"Уг":7140,"цээ ":7141,"аалагд":7142,", эсвэл ":7143,"чихсэн ":7144,"арилжаа":7145,"засвар":7146," дурс":7147,"түүний":7148," байлгүй":7149,"Сир":7150," тухай":7151,"энэ удаа":7152,"албарт":7153,"барь":7154,"газраас ":7155,". - ":7156,"тэнц":7157," худалдан ав":7158,"Хэдийгээр ":7159,"АШТ":7160," _ ":7161,"e\n":7162,"od":7163,"Трамп":7164,"Хан":7165,"очих ":7166," тари":7167,"Түүнээс ":7168,"Үүнд ":7169,"өдрүүдэд ":7170,"амиа алд":7171,"01":7172,"зая":7173,"ир ":7174,"олтын ":7175,"чид т":7176," хамаа":7177,"гэртээ ":7178,"иргэдэд ":7179," хураа":7180,"оюутан ":7181,"стандарт":7182,"аж байна ":7183,"сүй":7184,", \"":7185,"үзэн ":7186,"өмнөөс ":7187,"зургаан ":7188," хугацаанд":7189,"порно ":7190," ханга":7191,"нэмэгдүүл":7192,"Хүүхдийн ":7193,"li":7194,"Гол":7195,"лон":7196,"үер":7197,"гэм ":7198,"аст":7199,"энд х":7200," хэрэв":7201,"тай уулз":7202,"зүйлийг":7203," дараал":7204,"in ":7205,"чимэг":7206,"өөрийн гэсэн ":7207,"нэгэн х":7208,"юм шиг санагд":7209,"явдал юм.\n":7210,"жруул":7211,"иб":7212,"цонх":7213,"ч байна":7214,"шүл":7215,"уудаас ":7216," хүн төрөлхт":7217," гэж асуу":7218,"ажиллаж байгаа":7219," төлөө ":7220,"uc":7221,"чээр":7222,"аларх":7223,"нь ч ":7224,"охгүй ":7225,"уудтай":7226," хийдэг.\n":7227," бүртгэл":7228,"гаргаж ":7229,"чанар ":7230,"эрх аш":7231,"ойрхон ":7232," хариу ":7233,"чадвартай":7234,"Тухайн үед ":7235," хамрагд":7236,"уул уурхайн ":7237,"зэр":7238,"эрт ":7239,"нь дээр":7240,"чид х":7241,"нь ч":7242,"юуг ":7243," хүргүүл":7244,"Энэ талаар ":7245,"ажиллуул":7246,"ж чадна":7247,".Баяр":7248,"ing ":7249,"Чингис":7250,"Мос":7251,"зоо":7252,"кар":7253,"н дээр ":7254,"олыг ":7255," гэж байх":7256,"дээс":7257,"гардаг.\n":7258,"охид":7259," багтаа":7260,"шинж тэм":7261,"оролцсон ":7262," хангал":7263,"давх":7264,"бага":7265," дагуу ":7266,"Хүүхэд":7267,"эрүүл мэндийн ":7268,"Боловср":7269,"минут":7270," мэт ":7271,"аж буй":7272," мэдэг":7273,"ч тэр":7274,"амьдралыг ":7275,"Мэдээ":7276,"аааа":7277," хөв":7278," гэж хар":7279,"өндөө ":7280,"өнө.\n":7281,"болгон ":7282,"дүн":7283,"адаа ":7284,"гардаг ":7285," байгаад ":7286,"члэг ":7287,"сон\n":7288,", тэр":7289,"эрхийг ":7290,"снаас ":7291,"Ийнх":7292," дотор":7293,"очсон ":7294,"зөрчил":7295,"Төс":7296,"Хат":7297,"зүрх ":7298," дүгээр ":7299,"Монголд":7300,"цагаар ":7301,"гадаадын ":7302,"БНСУ":7303,"Кар":7304,"Сэтгэ":7305,"дасгал":7306,"ч гэ":7307,"ууд т":7308," тохиолдолд ":7309,"авчих":7310,"тай байна.\n":7311,"адр":7312,"амь нас":7313," гэж хүс":7314,"шийдэх":7315,"архи ":7316,"гий ":7317," таван ":7318,"таван ":7319,"унших ":7320,"ri":7321,"Үүн":7322," тамхи":7323,"гарц":7324,"явуулах ":7325,"ийн хур":7326,"ж чадах":7327,"нэр хүнд":7328,"үйл явдал":7329,"орчуул":7330," залуу ":7331,"бүүк":7332,"ндаа ":7333,"нь би":7334,"нийтэд ":7335,"жилийн өмнө":7336,"дэд т":7337,"ын холбоо":7338,"энэ жил":7339," дарга ":7340,"дэлгүүр":7341,"жүүлэх":7342,"сонгох":7343,"илүү сайн ":7344," хандуул":7345,"аргал ":7346,"давт":7347," хүргэж байна.\n":7348,"нислэг":7349,"огцр":7350," танилцуул":7351," байж.\n":7352,"hon":7353,"Хөл":7354,"вчил":7355,"ж д":7356,"чин х":7357,"өөрчлөх ":7358,"гэдгийг":7359,"эрүүл м":7360,"Хор":7361,"ж дуус":7362," зүтгэ":7363," хот ":7364,"үзсэн ":7365,"шийдэг":7366,"шалгах":7367,"засаг ":7368,"Эцэг ":7369,"урьдчилан сэргий":7370,"Pre":7371,"хаг":7372,"эхгүй ":7373,"гараад":7374,"ын тухай ":7375,"дугаар сар":7376,"сныг":7377,"ээврийн ":7378,"-аад ":7379,"мент":7380,"нот":7381," хэлэхэд ":7382," хүн бол":7383,"ыг хан":7384,"кинон":7385,"ширээ":7386,"үүдээс ":7387,"Чухлыг онцлов\n":7388,"ко":7389,"луй":7390,"хам":7391,"сан нь ":7392," захиал":7393," бодит ":7394,"Ингэж ":7395," бүхэнд ":7396,"өөрчлөл":7397,"чанарын ":7398,"al ":7399," долл":7400," дасгал":7401,"тай м":7402," хийнэ":7403,"ажилладаг.\n":7404,"гаар тогт":7405," бий болго":7406,"гүйцэтгэх ":7407,"үйл ажиллагаа явуул":7408,"НҮБ-ын ":7409,"og":7410,"Хай":7411,"танд ":7412,"хамгийн ":7413," бv":7414,"айл ":7415,"насан ":7416,"ажилдаа ":7417,"лөгд":7418," хэн ч":7419,"гуй ":7420,"Ихэнх ":7421,"мэдрэмж":7422,"шинжлэх ухаа":7423,"99":7424,"ГА":7425,"да":7426,"оруулах ":7427," бүс ":7428,"байдаг ":7429," байх хэрэгтэй.\n":7430,"длог":7431," хуралд":7432," хөгжи":7433,"амралтын ":7434,"Магадгүй ":7435,"Д ":7436,"Шу":7437,"бэрхшээл":7438,"жийг ":7439,"лан х":7440,"өчигдөр ":7441,"үүх ":7442,"нэгийг ":7443," дан":7444," захи":7445,"чдийг ":7446,"оодын ":7447," хөгжим":7448," батлагд":7449,"удирдаг":7450,"дугаар сард ":7451,"үндэсний":7452," хүргэе.\n":7453," хэрэглэгч":7454," хүндэтгэ":7455,"Ук":7456,"цус":7457,"нь би ":7458," захир":7459,"члан ":7460,"эцэг":7461,"компаниуд ":7462,"дамжуул":7463,"-т":7464,"иас":7465,"упп":7466,"эж байна.\n":7467,"эргээд ":7468," болтугай":7469,"адар":7470,"даг байсан.\n":7471," харах ":7472," гэжээ.\n":7473,"өссөн ":7474,"оруулж ир":7475,"нууц ":7476,"мэлз":7477,"Нэгэ":7478,"\"А":7479,"* ":7480,"сун":7481,"н бол":7482," хяна":7483,"ууч":7484," болзо":7485,"байгаа ":7486,"ын төлөө ":7487," хамгийн их":7488,"сонгууль":7489,"дурд":7490,"чид бууд":7491," хоёрын ":7492," хамтдаа":7493,"үнэ цэнэ":7494," хөөрхөн ":7495,"Оюутолгой":7496,"I ":7497,"l ":7498,"Ж.":7499,"ины":7500,"эж байгаа":7501,"ан дээр ":7502,"оом ":7503,"амгал":7504,"эдэл":7505," заавал ":7506,"ингээд ":7507," татаж ":7508,"асуулт ":7509," маш их":7510,"шударга ":7511,"үе шат":7512,"плом":7513,"Англи хэл":7514,"иул":7515,"мжил":7516,"нөөс":7517,"ааны":7518," зо":7519,"но\n":7520,"эсэх ":7521," хамгийн х":7522,"гаргасан.\n":7523,"авахад ":7524,"ийн баг":7525,"үйлдвэрлэг":7526,"%-":7527,"-ны":7528,"ob":7529,"Х ":7530,"гүн ":7531," бээлий":7532,"ахын тулд ":7533,"асс":7534,"хүнд":7535,"оороо":7536,"ийн зар":7537,"енз":7538,"удалдан ":7539," дээрээ":7540," гэхэд":7541," харьцуул":7542,"ажиллаж байсан ":7543," хөгжлийн ":7544,"албан ёсоор ":7545,"эерэг ":7546,"Банк":7547,"Яаг":7548," турш":7549,"орк":7550,"урдан ":7551,"үүлэн ":7552,"аж,":7553,"ал жуул":7554," дарга":7555," зарцуул":7556,"дараах":7557," цагийн өмнө\n":7558,"шийдвэрлэх ":7559,"Нүүр хуудас ":7560,"алба хаа":7561,"% ":7562,"Газар":7563,"ал, ":7564,"адын ":7565,"гээрэй.\n":7566,"ашигласан ":7567,"Орчин ":7568,"исте":7569," цаг\n":7570,"Нийт ":7571,"төсөөл":7572," хэлэхэд":7573,"Ух":7574," хөх":7575,"ирлээ.\n":7576," байхдаа":7577," баруун ":7578,"ариун ":7579,"ганцаараа ":7580," төсөл":7581,"учиртай.\n":7582," харилцан ":7583,"Пут":7584,"УБ":7585,"Яв":7586,"лт":7587,"мэргэж":7588,"уугаар ":7589,"элд":7590,"сангийн ":7591,"ын хүр":7592," гэж.\n":7593," хэрэгжүүлэх ":7594,"Японы ":7595,"офф":7596,"цөөхөн ":7597,"онцгой":7598,"Ойр":7599," өрөө":7600,"Наад":7601,"Хоол":7602,"ее":7603,"алдвар":7604,"байцаа":7605,"инг ":7606,"энэ нь т":7607,"насны ":7608,"байгууллагын ":7609,"эхэлсэн.\n":7610,"лоо\n":7611,"дэмжих":7612,"Маш ":7613,"мээр байна.\n":7614,"Өдр":7615,"ын тоо":7616,"Та бүхэн ":7617," хамтдаа ":7618,"зөвлөгөө":7619,"Жишээлбэл":7620," юм.\n":7621,"Шал":7622,"гүй,":7623,"яваад":7624," хос":7625,", та":7626,"юм уу.\n":7627,"икийн ":7628,"195":7629,"эйл":7630,"Ардын ":7631," гэдгээ ":7632," дуртай":7633,"эрүүл ":7634,"монгол ":7635,"аварга ":7636,"л юм":7637,"хүнийг ":7638," болохгүй ":7639," байна?\n":7640,"Эхний ":7641,"оронавирус":7642,"),":7643,"e-":7644,"Яр":7645,"иц":7646,"ч байгаа ":7647," байшин":7648,"өгнө.\n":7649,"им ":7650,"гол нь ":7651,"амжилттай ":7652,"Есүс ":7653," m":7654,"мэргэжлийн ":7655,"нүүл":7656,"фф":7657,"цохи":7658,"чийг":7659,"үйлдвэр ":7660,"аас нь ":7661,"АН-":7662,"ярьсан ":7663,"өнгөрүүл":7664," төлөвлөгөө":7665," цагийн ":7666,"нэгдүгээр ":7667,"цэцэг ":7668,"авто":7669,"үйлчлүүлэг":7670,"Цааш":7671," гэмт":7672,"Хөг":7673,"сүм":7674,"айн":7675,"уухан ":7676,"онт":7677,"ойр ":7678,"гийн т":7679,"утас ":7680,"ийн тоо":7681,"гэхэд":7682,"уулахад":7683,"150":7684,"шинэчлэл":7685," баярлалаа.\n":7686,"онцгой ":7687,"Су":7688,"Тэнд ":7689,"шаалт":7690,"илтгэ":7691," зан ":7692,"энэ жил ":7693,"Энэ жил":7694," бүрэн х":7695," бий болгох":7696,"Алт":7697," хэвийн ":7698,"оно\n":7699,"Яагаад гэвэл":7700," гэх мэт":7701,"Ад":7702,"Жү":7703,"Сум":7704,"Ху":7705,"мах":7706,"ногд":7707,"чнээн ":7708," хэд ":7709,"өгчих":7710,"сандаа":7711,"сэндээ":7712,"ахгүй бол":7713," хүүхдээ":7714," давуу тал":7715,"Иймд ":7716,"Цагдаагийн ":7717,"аана":7718,"авдаг ":7719,"авчр":7720,"ын хувь":7721,"лэгээ":7722,"юу ч ":7723," бусдын ":7724," тавил":7725,"тга":7726,"өтг":7727,", мөн ":7728,"гаргал":7729,"даг байна.\n":7730," хэллээ.\n":7731," харсан ":7732,"нэг ч ":7733,"Хүс":7734,"ний төлөө":7735,"яриад ":7736," холбоотой.\n":7737,"дотр":7738,"Өмнө нь ":7739,"алдартай":7740,"дүүрэн ":7741,"аз жаргалтай":7742,"Facebook":7743,"An":7744,"ганы ":7745,"шийн ":7746,"гүй байгаа":7747," хүч ":7748," стан":7749,"энгэ":7750,"ооронд":7751," хэдий":7752,"Бүтээ":7753," байранд ":7754,"эзээ ч":7755," сая ":7756,"тохиолдол ":7757,"Саяхан ":7758,"36":7759,"чээ\n":7760,"ҮТ":7761,"олиг":7762,"үзээрэй.\n":7763,"олон нийт":7764," бидэнд":7765,"шаардаг":7766,"үйлдвэрийн ":7767,"Ирээдүй":7768," байлгах":7769," бага зэрэг ":7770," дараа нь ":7771,"амралт":7772,"сонгуулийн ":7773,"ныхаа":7774,"элдэй":7775,"-\n":7776,"бээр":7777,"ром":7778,"снээс":7779,"эрмэлз":7780,"үүлэгч":7781,"сануул":7782," хэрэгжи":7783," мэдлэг":7784," байсан бол ":7785,"идэх":7786,"өдөр\n":7787,"ers":7788,"эмэгтэйчүүд ":7789," маш сайн ":7790,"ОХУ-ын ":7791,"Хүн":7792,"идэх ":7793,"соли":7794,"хээ":7795," муу ":7796," хийгээд":7797,"энэ бол":7798,"цагийг ":7799,"МАН ":7800,"шаал ":7801," дэмжи":7802,"ay ":7803,"ed ":7804,"Нүүр ":7805,"лох ":7806,"шав":7807," хэт ":7808," тух":7809,"эрхтэй":7810,"AR":7811,"es ":7812,"с, ":7813,"явна.\n":7814,"члах ":7815,"ахгүй\n":7816,"Улс төр":7817,"үвшин":7818,"гар утас":7819,"үнэндээ":7820," буцаж ":7821,"өөрчлөлт ор":7822,"г\n":7823,"хад":7824,"үдэ":7825,", гэхдээ":7826,"байн":7827,"нэ үү.\n":7828,"огтвортой":7829,"юм шүү.\n":7830,"осг":7831," төрүүл":7832,"ч тус":7833,"газарт":7834,"үүссэн ":7835," мэдээллийн ":7836,"амьдардаг ":7837,"ж өгсөн ":7838,"Дараах ":7839,"түрүүнд ":7840,"Азийн ":7841," болчихсон ":7842," заавал":7843,"Гэсэн ":7844,"Дээрх ":7845,"\"Б":7846,"Жир":7847,"зуур":7848,"юү":7849,"Өө":7850,"амд ":7851,"тэнд":7852,"өг.\n":7853,"Аль":7854," хугацааны":7855,"өлтийн ":7856,"өнөөдрийн ":7857," хайр ":7858,"цэгц":7859,"чуулган":7860,"залбир":7861,"иш":7862,"менеж":7863," хаан":7864,"аваад":7865,"юунд ":7866,"сурал":7867,"нэрээр ":7868," болгоомж":7869,"анхаарах ":7870,"ang":7871,"шийдвэрийг ":7872,"Солонгос ":7873,"Үй":7874,"уух ":7875,"орчим":7876,"мэдээж":7877,"на уу":7878,"олон нийтийн ":7879,"оорх ":7880,"нарий":7881,"оролцох ":7882," давт":7883," төсв":7884," оноос хойш ":7885,"орол":7886," онц":7887," хэмээх ":7888," байрлал":7889," боловсруулах ":7890,"төсөл":7891," сэдв":7892,"нулим":7893,"н б":7894," сек":7895,"үрэв":7896,"ийн түүх":7897,"эрхлэг":7898,"Тэгсэн ":7899,"оосоо ":7900,"итгэх ":7901," хэн ч ":7902,"ийн салбар":7903,"найзууд":7904,"явцад ":7905,"страте":7906,"ak":7907,"Төв":7908,"бэг":7909,"шул":7910,"эрэл":7911," хэлж ":7912,"Ингээд":7913,"НӨ":7914,"мал ":7915,"хгүй ":7916,"өт":7917," хятад":7918,"жилүүдэд ":7919,"нэг удаагийн ":7920,"газрыг ":7921,"нээсээ ":7922,"окур":7923,"-Би":7924,"Сангийн ":7925,"лэнэ":7926,"өсөн ":7927," буул":7928,"ол, ":7929,"өрөг":7930,"тэй холбоотой ":7931,"ажиллана.\n":7932,"айртай":7933," санаа ":7934,"цаг үе":7935," тэрээр ":7936,"аргыг ":7937,"-ээс ":7938,"06":7939,"OL":7940,"сс":7941," сууд":7942,"яваа":7943," хов":7944,"илүү их":7945,"and":7946,"эзээ ч ":7947," хувьцаа":7948,"Нийслэл":7949,"захиргаа":7950,"Нью":7951,"зод":7952,"о\n":7953,"хэд":7954," халд":7955," худлаа ":7956,"иймэрхүү":7957,"чихаад ":7958,"огтолцоо":7959,"ийн захир":7960,"нөхд":7961,"оосоо":7962," дээрх":7963,"Бүр ":7964,"ехан":7965,"арга хэмжээг ":7966,"дамжуулан ":7967,"зүтгэ":7968,"лөө.\n":7969,"ядаж ":7970,"ард":7971,"ууны":7972,"элдэв":7973,"тэс":7974," гэлээ.\n":7975,"байл":7976,"өнгийг ":7977,"гэрт":7978,"айлын ":7979,"шийдэх ":7980," болон бусад ":7981,"ийн зур":7982,"олцоо ":7983," сайд ":7984,"нэмэр":7985," хэдхэн ":7986,"шийдвэрлэх":7987,"уурхай ":7988," тэдний ":7989,"Хүүхэд ":7990,"айдас":7991,"форм":7992," брэнд":7993,"рал ":7994," хэхэ":7995,"\" (":7996,"ент ":7997,"ярьдаг.\n":7998,"Өөрсд":7999,"үр дүнд":8000," хэрэгжүүлэх":8001," баярлалаа":8002,".доллар":8003," .\n":8004,"\"Г":8005,"лин":8006," байлаа":8007,"шийдэл":8008," болох юм.\n":8009," бие даа":8010,"асуудалд ":8011,"өгсгөл":8012," тэднийг ":8013," хаягд":8014,"цуц":8015,"Зураг ":8016,"400":8017,"Win":8018,"ЖД":8019,"зүрх":8020," бол?\n":8021,"онлай":8022,"ж байдаг":8023,"ийн хоол":8024," хүргэх":8025,"унтр":8026,"длийн ":8027,"сайдын ":8028,"нь хэн ":8029,"анхааруул":8030,"наасаа ":8031," барилга":8032,"Өөрөөр хэлбэл, ":8033,"Албан ":8034,", бид ":8035,"-Та":8036,"IP":8037,"Зүүн ":8038,"Найр":8039,"аана ":8040,", гэхдээ ":8041,"үрэн ":8042,"нхаг":8043," байхаар ":8044,"цагдаа ":8045,"ж чадаагүй":8046,"ний тухай":8047,"иад ":8048,"өрөл":8049,"энер":8050,"шүүхийн ":8051,"ь орч":8052,"ойлгуул":8053,"ж болох уу?\n":8054,"Байгуул":8055,"яах вэ?\n":8056,"ийн хувьд":8057,"Тухайлбал, ":8058,"32":8059,"Бил":8060,"Каз":8061,"С ":8062,"технолог":8063,"шанал":8064," дайр":8065,"явж байна.\n":8066," хэрэг.\n":8067,"р дур":8068," зүйлс":8069,"ойлгодог":8070," хамтарч ":8071,"маар байна.\n":8072,"гvй ":8073,"р дахь":8074,"48":8075,"Хуул":8076,"хэд ":8077,"анд т":8078," тээ":8079," тар":8080,"амар ":8081," дүр ":8082,"чинд ":8083,"эхлэл":8084,"өнөө ":8085,"лаас":8086,"гаарай.\n":8087,"Тэрээр":8088,"төлөвл":8089,"орлого ":8090,"\" гэсэн юм.\n":8091,"атери":8092,"эмэгтэйчүүдийн ":8093,"вэбсайт":8094,"Сонирх":8095,"А ":8096,"судлаа":8097,"чээр ":8098," холд":8099,"уун":8100,"ерийн ":8101,"үүхэд":8102,"ахгүй байна.\n":8103,"ахгүй бол ":8104," таларх":8105," хэмжээгээр ":8106,"иргэдийг ":8107," тэмцэх ":8108,"аливаа ":8109,"ийн бодлог":8110,"Зори":8111,"евр":8112,"карт":8113,"Өл":8114,"гац":8115,"эмз":8116,"ж байгаа юм":8117," болсон юм.\n":8118,"өрөөнд ":8119,"нийгэмд ":8120,"илрүүл":8121,"А.":8122,"агна":8123,"агуу ":8124," тон":8125," тохи":8126," тохиолдол":8127,"эрчүүд":8128,"ондын ":8129,"ойлгох ":8130,"Ангил":8131," бүтээгдэхүүн":8132,"гүй л дээ.\n":8133,"Солонгосын ":8134,"нутаг дэвс":8135,"шоу":8136,"гэсэн үг.\n":8137,"лөө":8138,"мэнд":8139,"хлаа":8140,"уус":8141,"тайв":8142,"охыг ":8143,"өвс":8144," хэрэгт":8145,"л нэг ":8146,"хийх ":8147," байх шиг":8148,"Бусад":8149,"-Эр":8150,"??\n":8151,"?\"\n":8152,"код":8153,"шоо":8154,"үүдээ ":8155,"орг":8156,"авдаг":8157," мэддэг":8158,"нарт":8159,"шалгах ":8160," хэрхэн х":8161,"ейн ":8162,"улиралд ":8163," төгрөг ":8164," бодлоор ":8165,"Эдийн засгийн ":8166,"эйсбүүк":8167,"Сарын ":8168,"Тай":8169,"Хил":8170,"игийн ":8171,"ижил ":8172," мэдээ ":8173,"өгдөг ":8174,"өөрсдийгөө":8175,"яах вэ":8176,"жирийн ":8177,"ундаг ":8178,"Герман ":8179,"өдөр тутмын ":8180,"Гар ":8181,"гой":8182,"иф":8183,"юмыг ":8184,"адаа":8185,"омил":8186,"албар ":8187," бид хоёр ":8188," буй.\n":8189,"эндүү ":8190,"ойрт":8191," тэдний":8192," сард ":8193,"Элчин ":8194,"өвчт":8195,"албан тушаалт":8196,"аливаа":8197,"33":8198,"дуу ":8199,"ээд т":8200,"боломж":8201,"лэгдсэн ":8202,"өсг":8203,"бүл":8204,"шийдсэн ":8205," хэрэгтэй байна.\n":8206," биеийн ":8207," байдаг юм.\n":8208,"замаар ":8209,"ооцоо":8210,"улмаас":8211,"зориг":8212,"угаалгын ":8213," хангалуун ":8214," C":8215,"ad ":8216,"ee":8217,"аж байгаа.\n":8218,"моор":8219,"ноо ":8220,"ук":8221,"ын тос":8222,"нь та ":8223,"олдог":8224,"байгууллага":8225,"Бүсгүй":8226,"тусал":8227,"емент":8228,"АНУ ":8229," төсөөл":8230,"үнэндээ ":8231," мөрөөд":8232," зөрч":8233,"мэргэжилт":8234,"Bl":8235,"Тат":8236," байсныг ":8237,"ж суу":8238,"ээлжит":8239,"шүүмжил":8240,": Би":8241,"энэ бол ":8242,"ний төлөө ":8243,"өргөдөл":8244," орчим ":8245,"үр дүнтэй":8246,"автомат":8247,"гял":8248,"дэн":8249,"мян":8250,"от ":8251,"яп":8252,"аанд ":8253," тэв":8254,"өлөв":8255,"сон байна.\n":8256,"амьд":8257,"юм чинь ":8258," байна гэж ":8259," сонин ":8260,"ацарт":8261,"удирдах ":8262,"аврын ":8263,"ныхоо":8264," байж магад":8265,"Өөрөөр хэлбэл ":8266,"ерөнхийлөгч":8267," бүсгүй ":8268,"Нэгэн ":8269,"-Д":8270,"жий":8271," хүн ам":8272,"унк":8273,"Улмаар ":8274,"Япон":8275,"өгөлдөр":8276,"гир":8277,"жуулах ":8278,"ндаа":8279," бухим":8280," хад":8281," хаанаас ":8282,"жил бүр ":8283,"галын ":8284,"осл":8285,"\"З":8286,"iP":8287,"Асууд":8288,"УР":8289,"спорт":8290,"шүр":8291,"амп":8292," худлаа":8293,"уурай":8294,"ялалт":8295,"нэртэй ":8296," тавих ":8297,"дэмжих ":8298," хүчтэй ":8299,"Иймээс ":8300,"зүйтэй":8301,"болов ":8302,"агаарын ":8303,"луйвар":8304,"-\"":8305,"Ашиг":8306,"Судалгаа":8307,"ТО":8308,"Цэв":8309,"дайр":8310,"дор ":8311,"зүү":8312,"мол ":8313,"түл":8314," тут":8315," болж байгаа":8316,"нь хамгийн ":8317,"орой ":8318,"гарцаа":8319,"явдаг ":8320," хэл ":8321,"ундаа ":8322,"үүрэгтэй":8323,"ярьдаг ":8324,"Монгол улсын ":8325,"Дэлгэрэнгүй":8326,"сны дараа":8327,"Ихэнх":8328,"үйлдэл ":8329,"Турк":8330,"өвөрмө":8331,"-Эрдэнэ":8332,"ex":8333,"дгийг ":8334,"ланд":8335,"усанд ":8336,"ийг с":8337,"гараг":8338,"уудын х":8339,"гүй ээ.\n":8340,"ухаалаг ":8341," хож":8342," байх болно":8343,"нээх ":8344,"Энэ жил ":8345,"үүд нь ":8346," санаа зов":8347,"уудаас":8348,"ногоон ":8349,"Аял":8350,"тол ":8351,"хэв":8352,"хот":8353," сав":8354,"гариг":8355,"нь таны":8356,"ярилцлаг":8357,"харагд":8358,"iss":8359,"цахилгаа":8360,"Hom":8361,"Даш":8362,"Сэл":8363," хайл":8364,"өгөгд":8365," хүрээнд ":8366,"анхуй":8367,"зөвлөгөө ":8368,"шийтгэ":8369,"нэмэлт ":8370," байгууллага ":8371," биз ":8372,"ариу ":8373,"and ":8374,"саналыг ":8375,"Өнөөдр":8376," оноос хойш":8377,"ЕГ":8378,"тон":8379,"үгийн ":8380," хог":8381,"урв":8382," сүлжээ":8383,"явдаг.\n":8384,"ухамсар":8385,"жит ":8386,"члэл":8387,"длыг":8388,"эцүү":8389,"зарч":8390,"ан хэл":8391," байдлаар":8392,"эх үүсвэр":8393,"est":8394,"ТГ":8395,"зад":8396,"ч хүн ":8397," тойр":8398,"эмээн ":8399," онд т":8400,"үнэтэй ":8401,"Энэ удаа":8402,"хүс":8403,"талбай":8404,"комис":8405," хэн нэг":8406,"зайлсхий":8407,"найдаж байна.\n":8408,"үүрэг гүйцэтгэ":8409,"автобус":8410,"Мөр":8411,"бас ":8412,"вээ":8413,"гори":8414,"ж хэл":8415,"цол":8416,"ян ":8417,"ѳѳ":8418,"амиа":8419,"оргил":8420,"тай холбоотой ":8421,"өгөг":8422,"атан ":8423,"ашигтай ":8424,"Араб":8425,"мэдээллийн ":8426," хүнтэй ":8427,"тусгаар":8428,"жигчин ":8429,"гүүн ":8430," дараах":8431,"гарчээ.\n":8432,"наасаа":8433,"лийн хэрэг":8434,"дэмжлэг ":8435,"сэдэв":8436,"парламент":8437,"О.":8438,"ез":8439,"нуруу":8440," тухай ":8441," хүрэхгүй":8442,"Монголын х":8443,"нэг.\n":8444,"лэж ":8445,"байгаа.\n":8446,"Чамайг ":8447,"шууги":8448,"Ялангуяа ":8449,"Испан":8450,"Бизнес":8451,"ИТХ":8452," гээд ":8453,"нгүй":8454,"сек":8455,"х хэрэгтэй.\n":8456,"өрөө ":8457,"дэж ":8458,"олгоо":8459," жилийн өмнө":8460,"ярьдаг":8461,"тэрээр ":8462,"чанарыг ":8463,"тэдний ":8464," хэлэлцээр":8465,"инут ":8466,"Москв":8467,"ЖДҮ":8468,"!\"":8469,"07":8470,"Тодруул":8471,"түгээ":8472,"гүй бай":8473," гэнэ":8474,"д тооц":8475," байгаагүй.\n":8476,"бүхэн ":8477,"ээс нь ":8478," байгаа аж.\n":8479,"ашигладаг":8480," гэрэл":8481," хэн нэгэн ":8482,"гоо сайх":8483,"Монгол Улсад ":8484,"баярын ":8485,"раф":8486," хагас ":8487,"Танай":8488,"бр":8489,"єг":8490,"эхээр":8491,"аср":8492,"атор":8493,"аас өөр ":8494,"ийн төв":8495,"чихсан.\n":8496,"193":8497," байгуулах ":8498,"оролцо":8499,"ийн баяр":8500," хуулийн төс":8501,"онцол":8502," тавьсан ":8503,"ашиг сонирх":8504,"-ийн х":8505,"Э.":8506,"лий":8507," дүү":8508,"ади":8509,"мэдэгдэ":8510,": Д":8511," хүрэлц":8512,"ялангуяа ":8513,"оруулсан ":8514,"чирх":8515," бүхнийг":8516,"аатар":8517,"ье\n":8518,"татвар":8519," барилгын ":8520,"эзэмшиг":8521," мэдрэмж":8522," тайван ":8523,"Хотын ":8524,"Шаар":8525,"аж байна\n":8526,"мэг":8527,"Өс":8528," халуун ":8529,"алз":8530,"агдал":8531," телевиз":8532,"авна\n":8533,"юмаа.\n":8534,"өлийн ":8535,"өвчл":8536,"жин х":8537,"нэг удаа ":8538,"иргэний ":8539,"үр дүнд ":8540,"ж болно\n":8541,"****":8542,"насанд хүр":8543,"Зар":8544,"М.":8545,"мөн":8546," баа":8547,"уудаа ":8548,"алаа":8549," түв":8550,"өлгөө":8551,"Бид х":8552,"шигшээ":8553,"эрхийг":8554,"ийн бус":8555,"тун ":8556,"сүүлд ":8557,"аюулгүй байдл":8558,"салбарт ":8559," хөдлөх":8560,"үргэлжлүүлэн ":8561,"өрөнгө оруулалт":8562,"Бул":8563,"бул":8564," хаан ":8565,"Монголбанк":8566,"хүч":8567,"юм уу ":8568,"ийнхүү":8569,"шинэчил":8570,"УИХ-д ":8571,"Ямар ч ":8572,"цөөн ":8573," хөрөнгө оруулалт":8574,"05":8575,"75":8576,"есд":8577,"лав ":8578,"цуг":8579,"охоор ":8580,"даруй":8581,"ийнхүү ":8582,"эгдсэн ":8583,"ыг хоригл":8584,"Гэвч т":8585,"Эхлээд ":8586," хэсэгт":8587,"ирээдүйн ":8588,"эжээл":8589,"гуай":8590,"Удир":8591,"Өндөр ":8592,"удаан хугацаа":8593,"Нэм":8594,"ОХ":8595,"Төр ":8596,"Эндээ":8597,"л д":8598,"тохи":8599,"чарм":8600," бөгл":8601,"гип":8602,"үлдэх":8603,"сонгосон ":8604,"голын ":8605,"яаралтай":8606,"гарын үсэг ":8607," сэдэв":8608,"Жинх":8609,"34":8610,"Ги":8611,"е\n":8612,"й ":8613,"л бай":8614," хуучин ":8615," хоосон ":8616,"үүнээс":8617," мэргэж":8618,"аарай ":8619,"байлаа.\n":8620,"ажилтан":8621,"ийн хэв":8622,"ажилласан.\n":8623," хамгийн том":8624,"наймаа":8625,"дугуй":8626,"зарл":8627,"гишүүдийн ":8628,"ятад ":8629," хүндрэл":8630,"өрсөлдөө":8631,"ариуцлага":8632,"####":8633," сэргээ":8634,"Эзэн ":8635,"Ром":8636,"и-":8637,"о.\n":8638,"саат":8639,"ан.\n":8640," болж, ":8641,"ох\n":8642,"ихэнх нь ":8643,"сонгох ":8644,"Чиний":8645,"цар тах":8646,"Тийм учраас ":8647,"УУЛ":8648,"гүнз":8649,"гаар тогтн":8650,"tr":8651,"соёл":8652,"төр ":8653,"ч болно.\n":8654,"оныг ":8655,", энэ ":8656,"ирээд":8657,"эмчил":8658,"байгал":8659,"сон юм.\n":8660," бүрэлдэх":8661,"иргэн":8662,"ашиглалтад ":8663,"акс":8664," дэлхий ":8665,"Тэдгээр":8666," хангалт":8667,"Бага":8668,"найз нөхөд":8669,"ариутгагч":8670,", бас ":8671,"08":8672,"ik":8673,"э\n":8674," бяцхан ":8675,"уу т":8676,"эн б":8677,"жилийн өмнө ":8678," хэлсэн.\n":8679,"станц":8680,"оёл ":8681,"оосой":8682,"ойлголц":8683,"орилго":8684,"чид\n":8685,"ийн систем":8686," зохицуул":8687," баян ":8688,"өөрчлөгдө":8689,"амирчин ":8690,"үзэсгэлэн":8691,"шаардлагагүй.\n":8692,"Фил":8693,"тах":8694,"антай":8695,"агуулга":8696,"эрс ":8697,"тэйгээр ":8698,"уудас":8699," хийгд":8700,"овь":8701,"дараал":8702,"ийнхан ":8703,"192":8704,"номыг ":8705,"зээл ":8706,"зөвлөм":8707,"үнэ ц":8708," бөгөөд т":8709,"бум ":8710,"эмнэлэгт":8711,"эрх мэдэл":8712,"Аюул":8713,"ДАШТ":8714,"Цэр":8715,"ням":8716," тэнд ":8717," байгаад":8718,"цааз":8719,"ихтэй":8720,"зарц":8721," давхар":8722," зохиол":8723," сонгуул":8724,"гэх мэт":8725,"зорилт":8726,"шагнал ":8727,"ерөнхийлөгч ":8728,"ийн тулд":8729,"Үргэл":8730,"истем ":8731,"\"Бид ":8732,"Sh":8733,"чүүдэд ":8734,"эхээ":8735,"эхгүй.\n":8736,"шигээ":8737,"ирнэ.\n":8738,"гаруй":8739,"явдаг":8740,"арга барил":8741,"врийн ":8742,"тугай ":8743,"Бидэнд ":8744," зургийг ":8745,"!!!!":8746," баяр ":8747,"ack":8748,"Улаан ":8749,"шийдвэр гарга":8750,"ж болдог":8751,"ээврийн хэрэг":8752,"ast":8753,"в?\n":8754,"ч д":8755,"алуу ":8756,"агуу":8757,"гүй байх ":8758,"ын тус":8759,"үнэн.\n":8760,"гэрт ":8761,"шилдэг":8762,"р дот":8763," зүйлийг":8764," гэж боддог":8765," хэсгийг ":8766,"хүмүүсийн ":8767,"Эхнэр":8768,"Өдөр ":8769,"үзэн яд":8770,"Мар":8771,"Хөөр":8772,"а, ":8773,"ч з":8774,"нотл":8775,"явж ":8776,"ж байгаа бол":8777,"мэддэг ":8778,"аад, ":8779,"гай зөвшөөр":8780,"ж байгаа аж.\n":8781,"үүсгэ":8782,"тэдний":8783,"онцлог ":8784,"групп":8785,"үнэмлэх":8786,"автомаши":8787,"бий.\n":8788,">\n":8789,"ге":8790,"ах.\n":8791," байхгүй бол":8792,"цаана ":8793,"ентын ":8794,"лалт ":8795,"Тэднийг ":8796,"яг л ":8797,"ширхэг ":8798,"Нийгэм":8799," баримтал":8800," холбогдсон ":8801," хорио":8802,"эдийн засаг ":8803," хүсэлтэй":8804," зогсоо":8805,"нөхөрл":8806," гэдэгт итгэлтэй":8807,"еатр":8808,"-О":8809,"Wor":8810,"Асуул":8811,"гыг":8812,"ган х":8813," бэх":8814,"үү, ":8815,"амл":8816,"ахдаа ":8817,"тай байдаг.\n":8818,"үүлж ":8819,"ах нь":8820,"өмөр":8821,"лэгийн ":8822,"ж чадсан ":8823,"гэж оролд":8824," хэдий ":8825," хийхээр ":8826,"Өөрөө ":8827,"улс орон ":8828,"сэн байх ":8829,"Өмнөх":8830,"аль нь ":8831," бутлуурын ":8832," сонирхолтой":8833,"салбарт":8834,"Виде":8835,"Даг":8836,"ЫН ":8837,"гууд":8838,"хоёр ":8839," соли":8840,"ах ёстой":8841,"гараг ":8842,"алтан ":8843,"ахиул":8844," дэлгэц":8845,"хүүр ":8846,"тэрбээр ":8847," байдалд ":8848,"өрөөнд":8849," холбогдох":8850,"үйлчилгээний ":8851,"Чиний ":8852,"цахим ":8853," сургууль":8854,"Энэтхэг ":8855,"Олимп":8856,"Эдийн зас":8857,"хагв":8858,"04":8859,"Кон":8860,"Май":8861,"функ":8862,"эсэн ":8863,"айх ":8864,"анилц":8865,"агчийн ":8866,"наст":8867,"ах хэрэгтэй":8868," магад":8869,"ч энэ":8870,"ч үгүй":8871,"инээд":8872," хийж байна.\n":8873," боддог.\n":8874,"эрхийн ":8875,"өмнөх":8876,"эрэгтэй ":8877,"дэлгэрэнгүй":8878,"ив ":8879,"анхаарлыг ":8880," холбогдуулан ":8881," бизнесийн ":8882," удаа ":8883,"-т ":8884,"-д х":8885,"qu":8886,"Уур":8887,"дахиад ":8888,"нял":8889,"тари":8890,"х, ":8891,"хаар ":8892,"цам":8893,"алч":8894,"урд ":8895," хийлээ.\n":8896,"элтийн ":8897,"жинд ":8898,"гадаадад ":8899,"өнцөг":8900,"Хэрвээ та ":8901,"Цаашид ":8902,"вакцин ":8903,"нунтаглах ":8904,"55":8905,"s\n":8906,"ЭД":8907,"єл":8908,"аа боль":8909,"ч их ":8910,"өвөл":8911,"ахгүй байх ":8912,"өөр өөр ":8913,"уулах нь ":8914," гэртээ":8915,"Намайг":8916,"юм бол?\n":8917,"ертөнцөд ":8918," боломжийг олг":8919,"Window":8920,"02":8921,"Гайх":8922,"ГҮЙ":8923,"Нут":8924,"Х.":8925,"гдэх ":8926,"уу?":8927," байж болох ":8928,"орш":8929,"дэг байна.\n":8930,"утсаар ":8931,"өмр":8932,"болно.\n":8933,"ийн тэргүү":8934,"уулахаар ":8935,"юу вэ":8936,"киноны":8937," түүнийг":8938," хангамж":8939,"ныхаа ":8940,"ккк":8941,"медал":8942,"Шаард":8943," / ":8944,"03":8945,"Дуучин ":8946,"нтэй ":8947,"ааж":8948,"уу? ":8949," тараа":8950,"орно.\n":8951,"уралд":8952,"авир":8953,"лээс":8954,"аалга":8955," буцах":8956," биеэ":8957,"Өөрийгөө":8958,"шатах":8959,"Надад":8960," харьцуулахад ":8961,"ment":8962,"Гэм":8963,"Зээл":8964,"Хамт":8965,"Цал":8966," дуу ":8967,"эх болно.\n":8968,"эхлээд":8969," сун":8970,"ын төс":8971," гэж ойлго":8972," багийн ":8973,"одоог":8974,"охирд":8975,"суух ":8976,"эргэд ":8977,"ж болзо":8978,"ур чадвар":8979,"Энэтхэгийн ":8980,"49":8981,"Хуучин ":8982,"итал":8983,"ст ":8984,"уял":8985,"х болно.\n":8986,"шороо":8987,"асар":8988,"дагч ":8989,"сөн х":8990,"доо.\n":8991,"эндүү":8992,"нөхцөл байдал ":8993,"нүд ":8994,"эмжээ ":8995,"ээрэй\n":8996,"Хон":8997,"Хичээл":8998,"ип":8999,"ерв":9000,"олон жил ":9001," хоёр дахь ":9002," бүтээн байгуул":9003,"шатны ":9004," боловсролын ":9005,"ойролцоогоор ":9006,"Охин ":9007,"камер":9008,"Харамсалтай нь ":9009,"if":9010,"sh":9011,"Жен":9012,"гамж":9013,"оюу":9014,"араас ":9015,"анд х":9016,"эрлэг ":9017,"нь бид ":9018,"даар":9019," боди":9020,"үүднээс ":9021," хуулийг ":9022,"орнууд ":9023,"үйл ажиллагааны ":9024," хөт":9025,"ахуйн ":9026,"устга":9027,"үзэгдэл":9028," он хүр":9029," хөдөлгөөн ":9030,"Шилдэг ":9031," биз дээ?\n":9032,"38":9033,"Дан":9034,"Төв ":9035,"Ший":9036,"Ээ":9037,"вир":9038,"гууд ":9039,"угаар ":9040,"ч с":9041,"ш дээ":9042,"үнийг ":9043,"жилт ":9044,"Энэ удаагийн ":9045," мэднэ.\n":9046," байх ёстой ":9047," бусд":9048,"одоо бол":9049,"зургийг ":9050,"чухам ":9051,"ыг хэн ":9052," хоол хүн":9053,"Үнэндээ":9054," барьж ":9055,"all":9056,"цэвэрлэх":9057,"абор":9058,"алдартай ":9059,"аргагүй ":9060," бүртгэгд":9061,"-ны өдөр ":9062,"the ":9063,"цуврал":9064,"Санхүүгийн ":9065,"вв":9066,"цэрэг":9067,"ӨӨ":9068,"уруу ":9069,"тэжээ":9070,"явуулсан ":9071,"мэдээж ":9072,"нэг зүйл":9073,"сонгүй.\n":9074,"логд":9075,"байгууллага ":9076," бэлэг ":9077,"ж өгөх ":9078,"сны дараа ":9079," бүхий л":9080,"Орон нутгийн ":9081,"салбарын ":9082,"Францын ":9083,"новш":9084,"төгрөг":9085,"uck":9086,"800":9087,"vi":9088,"Ди":9089,"ЭХ":9090,"хыг ":9091,"ага ":9092,"эмж ":9093," бүд":9094," хэлээд ":9095,"үеэс ":9096,"чадвар ":9097,"бичлэг":9098,", хэн ":9099," сайжр":9100," болгодог.\n":9101,"авч, ":9102,"аюултай":9103," байлаа ":9104,"руугаа ":9105,"нэвтэр":9106," дагуу":9107,"наадмын ":9108,"ung":9109,"Ангилал":9110,"ail":9111,"Кр":9112,"Нэр":9113,"гавья":9114,"соор":9115,"ҮН":9116," дэг":9117,"ахдаа":9118,"ууд.\n":9119,", тийм":9120,"үгийг":9121,"гана ":9122,"ж байна?\n":9123," сурталчилгаа":9124," хүртэлх ":9125,"нисэх ":9126,"ын хувьд":9127,"Хөдөлмөр":9128,"зөө":9129,"мор":9130,"Өчигдөр ":9131,"анаас ":9132,"гүй байна":9133,"өрөнгө":9134,"гатай":9135,"тайван ":9136,"алтанд ":9137,"ярил":9138," хүүхдээ ":9139,"Эрэгтэй":9140,"ойлгохгүй":9141,"магт":9142,"Өөрт":9143,"томоохон ":9144,"амьдардаг":9145,"ж байхдаа ":9146,"уур амьсгал":9147,"өндөрл":9148," маань":9149,"Иргэд ":9150,"гын хороо":9151," даяар ":9152,"өмгөөлөг":9153,"Зохи":9154,"Лонд":9155,"Пари":9156,"гор":9157,"ож бай":9158,"ья":9159," хөнөө":9160,"алтай.\n":9161,"өндл":9162,"Эрх ":9163,"ийм л":9164,"ярьж байна.\n":9165," хичнээн ":9166," томил":9167,"байдлаар":9168,"аялал жуул":9169," түрээс":9170," байгалийн ":9171," даяар":9172,"Эрүүл мэндийн ":9173," G":9174,"ВС":9175,"Тал":9176,"Тогл":9177,"баа":9178,"и\n":9179,"оши":9180,"секс":9181,"т: ":9182,"ийгээ":9183," тэтгэ":9184,"чит ":9185," суул":9186,"дэр ":9187,"юу хийх ":9188,"үүхэд ":9189,"шинжээ":9190,"ялбар ":9191,"гээрэй":9192,"ашаа":9193," байрш":9194,"ж эхэлсэн.\n":9195," бичиг ":9196," дүүргийн ":9197,"аль хэдийн ":9198,"120":9199,"Аав ":9200,"Секс":9201,"жоохон ":9202,"л даа":9203,"шуур":9204,"үнх":9205," хян":9206,"авъя":9207,"гарахгүй":9208,"аарх":9209,"явсан.\n":9210,"өмчл":9211,"н хоол":9212,"шалгуур":9213,"сонгогд":9214,"ойлгомжтой":9215," хугацааг ":9216,"ект":9217,"Бүгд":9218,"үүсгэн ":9219,"прокур":9220," боловсрол":9221,"Авли":9222,"Намын ":9223,"бусад":9224,"гомдол ":9225,"жижигхэн ":9226,"сумын ":9227,"ардчилсан ":9228,"асар их ":9229,"шөнийн ":9230,", хар":9231,"> ":9232,"нуудад ":9233,"оз":9234,"техник":9235,"үүд т":9236,"огдоо":9237,"тай хүн ":9238,"гүй ээ":9239," хийж, ":9240," хэлчих":9241," хэлээд":9242," хувцас ":9243,"улсаас ":9244,"сэнд ":9245,"ийнхаа":9246,"порно":9247,"ийн сүлжээ":9248,"ширхэг":9249," холбогдох ":9250,"Ямар ч байсан ":9251," бүтээгдэхүү":9252,"дүрэм":9253,"шүү дээ\n":9254,"шүд":9255,"байр суур":9256,"өнөөдрийг":9257,"Жич":9258,"МУ":9259,"Т.":9260,"ет ":9261,"заалт":9262,"цөл":9263," хэнд ":9264,"алгүй ":9265,"ээлж":9266,"өхөд ":9267,"нэг хэсэг":9268," хэмжээнд ":9269,"лах\n":9270," бууруул":9271,"үр дүнг ":9272,"Ялангуяа":9273,"туршлага":9274,"аймагт ":9275,":)\n":9276,"=\"":9277,"ж хар":9278,"залх":9279,"манд":9280,"ялагд":9281,"агент":9282,"гүй гэж ":9283,"гаасаа ":9284,", энэ":9285,"огчийн ":9286," зай":9287,"иржээ.\n":9288,"ч олон ":9289," бүл ":9290,"ах ёстой.\n":9291,"дэнэ.\n":9292,"иймэрхүү ":9293,"тай ч ":9294,"Энэ мэт":9295,"тэй адил":9296,"нь тухайн ":9297," байгуулсан ":9298," тань ":9299,"Дэлхий ":9300,"киноны ":9301," хотод":9302,"давуу тал":9303," хүндэл":9304,"Уран ":9305," жилийн ой":9306,"Сонгуул":9307,"антолгой":9308," зүгээр л ":9309,"идэвхтэй ":9310,"Захир":9311,"Хэв":9312,"вит":9313,"ли ":9314,"саг ":9315,"тоног төхөөрөм":9316,"тэнэг":9317,"тай байсан ":9318," бичлэг ":9319," бодоод ":9320,"суртал":9321,"трате":9322,"Амжилт":9323,"шалгалт ":9324,"Мөн х":9325,"ны тухай":9326," бүтээсэн ":9327," хүүхдийг ":9328," хэцүү.\n":9329,"ирээдүйд ":9330,"саяхан ":9331," хооронд":9332,"аргагүй.\n":9333," байр суурь":9334," бөмбөг ":9335,"Аймгийн ":9336,"гарын үсэг зур":9337,"95":9338,"ss":9339,"УЛ":9340,"баримт":9341,"стой":9342,"тээр":9343,"агас ":9344," тов":9345,"элсэн ":9346," сүр":9347,"гаргаад ":9348," байгааг":9349,"ийм зүйл":9350,"гэр бүлийн ":9351,"юм чинь":9352," бурх":9353," байдалд ор":9354,"Сүүлийн үед ":9355,"шашин ":9356,"долоо хоногт ":9357,"мэн":9358,"нүүдийг ":9359,"сад":9360,"ээнд":9361," бололцоо":9362,"гүй хүн ":9363," хүнээс ":9364,"ойм":9365,"эхээс ":9366,"оход":9367,"аж буй ":9368,"ын хугацаанд ":9369,"чихсан бай":9370,"нь таны ":9371,"өөр өөр":9372,"шиг санагд":9373,"сонгон ":9374," хийхэд":9375,"үмэн ":9376,"одорхой ":9377," хэвтэ":9378," гэдэгт":9379," тэдгээр":9380,"Заримдаа":9381," бүгдийг нь ":9382,"Google ":9383,"ноцтой":9384,"Гишүү":9385,"Бээ":9386,"амин ":9387,"гарлаа.\n":9388,"онго":9389,"усал":9390,"жим ":9391,"өмч":9392,"эл нь ":9393," бодсон ":9394," мэдэр":9395,"д хэдэн ":9396,"бүлэг":9397," биш\n":9398," хурал":9399,"лалын ":9400,"зарчим":9401,"авахыг хүс":9402,"гэдгээ":9403,"үр даг":9404,"агнуул":9405," хүүхэдтэй":9406,"ж болно ":9407,"тэмдэглэ":9408,"Ц.Элбэгд":9409,"интернет":9410,"инженер":9411,"$ ":9412,"gu":9413,"x ":9414,"Дарх":9415,"Чад":9416,"гагд":9417,"төдий":9418,"аа?\n":9419," санхүүгийн ":9420,"их сургуул":9421,"гээр нь ":9422," хүүхдэд ":9423,"үгс":9424,"нэрлэ":9425,"...\"":9426,"Алтан ":9427," дэлгэрэнгүй":9428,"ж ирсэн.\n":9429,"Манайхан ":9430,"Байн":9431,"тайлбарл":9432,"охиолдл":9433,"ийн хүрээнд ":9434,"нэлээн ":9435,".com":9436,"for":9437,"бээлий":9438,"ег":9439,"кс":9440,"шавь":9441," байшин ":9442,"нэ гэж ":9443,"гардаг":9444,"ийн хэмжээ":9445,"болд ":9446," боддог":9447,"анхны т":9448,"талын ":9449,"ей ":9450," цагт ":9451,"уухай ":9452,"видео ":9453,"бичгийн ":9454,"авьяас":9455,"Нэгдсэн ":9456,"БНХАУ-ын ":9457," хоцр":9458,"IS":9459,"xt":9460,"Агаар":9461,"Шүү":9462,"дөх":9463,"лл":9464,"хэ":9465,"цэг ":9466," санхүү":9467,"тэй байх ":9468,"өвөө":9469,"тгэлийн ":9470,"ерр":9471,"ийн төлөө ":9472,"үнэнийг ":9473,"үнийн ":9474," бид хоёр":9475," жилд ":9476,"ийн бүр":9477,"өдөр.\n":9478," байдаг\n":9479,"арьцаа":9480,"оциал":9481,"тухай\n":9482,"Гадаад ":9483,"Нүүр хуудас":9484,"ЭНД":9485," хуваарил":9486,"Аф":9487,"БС":9488,"Маргааш ":9489,"ви":9490,"еп":9491,"мж ":9492,"мыг":9493,"осон.\n":9494,"аваа":9495,"тэй байдаг.\n":9496,"атуу":9497,"явна":9498,"ийн хөтөлбөр":9499," байхыг хүс":9500,"хүчин ":9501,"ёсгүй.\n":9502,"бүс ":9503," сайд":9504,"нийтлэг ":9505," хэмжээнд":9506,"үйлдвэрлэлийн ":9507,"уучлалт ":9508,"сэдв":9509," таалагд":9510,"Маш":9511,"ядуу":9512," зүрх":9513,"эв мая":9514,"нэг юм.\n":9515,"чилсан ":9516,"гээд л ":9517,"ойлгомжтой.\n":9518,"Та бүх":9519,"та нар":9520,"үгнэлт ":9521," баяртай байна.\n":9522,"мэдэгдэл":9523,"эрүүл мэн":9524,"ED":9525,"Дур":9526,"Толгой":9527,"есөн ":9528,"тний ":9529,"угацаа ":9530,"чээ":9531," бэ":9532,"олны ":9533,"аг.\n":9534,"орчих":9535,"орчин":9536,"чиж ":9537," зүгээр":9538,"сэн нь ":9539,"утгаараа ":9540,"ын хугацаа":9541," хувиар ":9542,"дэг юм.\n":9543,"өгөөр ":9544," байсан юм":9545,"ак ":9546,"ний тухай ":9547,"УИХ ":9548,"дотоод ":9549,"-р анги":9550," маш олон ":9551,"өхөөрөмж":9552,"Засгийн газраас ":9553," махбод":9554,"Ариун ":9555," T":9556,"Un":9557,"Дорн":9558,"Егип":9559,"дийл":9560,"суулга":9561,"цэл":9562,"шдээ":9563,"ийгээ ":9564,"амлалт":9565,"авдаг.\n":9566,"огоо ":9567,"нэ үү":9568,"члэн х":9569,"тай нь ":9570," бодолтой":9571,"ийн тоо ":9572,"сэндээ ":9573,"ель ":9574,"амьдарч байгаа":9575,"ard":9576,"тэдгээр":9577,"үйл ажиллагаанд ":9578,"нэмэгдүүлэх":9579," сэтгэгдэл":9580," зүгээр л":9581,"шөнө ":9582," судл":9583,"Уучл":9584,"Al":9585,"Йорк":9586,"Яаж ":9587,"гөл ":9588,"дүр ":9589,"зугт":9590,"шан":9591," бя":9592,"эрэлт":9593,"оновч":9594,"орсон.\n":9595," дүгнэ":9596,"эн дээр ":9597," хийчих":9598,"усл":9599," байгаа бол ":9600," ховор":9601,"нэг юм":9602,"ын турш":9603," хувиар":9604,"аас хойш ":9605,"дургүй":9606,"учруул":9607," хорвоо":9608," хэлэлцэх ":9609," бүгдээрээ ":9610,"чуулган ":9611,"Син":9612,"европ":9613,"мийг ":9614,"учир нь ":9615,"шарх":9616,"алс":9617," болсн":9618,"тэй хүн ":9619,"ийг\n":9620,"цаад ":9621,"- Х":9622,"айлбар":9623,"олоо.\n":9624,"чамд":9625,"нэвтрүүлэг":9626," хөгжүүлэх ":9627,"компьютер ":9628,"Хоёрдугаар":9629,"Гэсэн хэдий ч ":9630,"шүүмжлэл":9631,"аркетингийн ":9632,"процесс":9633,"% нь ":9634,"CO":9635,"ah":9636,"дүүл":9637,"сөрөг ":9638,"шд.\n":9639," залбир":9640,": Б":9641," байхгүй\n":9642,"ямрал":9643,"ёсоор ":9644,", түүний":9645,"\" ХХК":9646,"анхаарч ":9647," баривчил":9648,"ж,\n":9649,"ж байхдаа":9650,"давхар":9651,"татаж ":9652,"Багш ":9653,"биш.\n":9654,"гарын ав":9655,"ID":9656,"Нис":9657,"Там":9658,"Ув":9659,"Шв":9660,"бат ":9661,"цо":9662,"агчдын ":9663,"нэр нь ":9664,"гаж":9665,"тэй бай":9666," за":9667," ме":9668,"гаралтай":9669,"даргаар ":9670,"нэг жил":9671,"энэ асуудлыг ":9672,"ихээр ":9673,"цаг хугацаа ":9674," болоход ":9675,"анд хүр":9676,"үлдэх ":9677," байх даа.\n":9678,"тань ":9679,"өдрөөс ":9680," хайртай ":9681,"ж байхад":9682,"саналаа ":9683," хөтл":9684,"үйлчилгээний":9685,"Урьд ":9686,"тэмдэглэл":9687,"ажилд авна.\n":9688,"Үндэсний":9689,"Нэгдүгээр":9690,"гуниг":9691,"Mac":9692,"ургуул":9693,"ж байсан":9694," хэлэв.\n":9695,"өдийл":9696,"улсыг ":9697,"ярьжээ.\n":9698," дэлхийн хамгийн ":9699," тэрбээр ":9700,"уншаад ":9701,"баталгаа":9702," зориулсан ":9703,"OLO":9704,"A ":9705,"Жолоо":9706,"лөө ":9707,"нг":9708,"цэн ":9709," боол":9710," бээлий ":9711,"анш":9712,"агц":9713,"урим":9714,"өрөнгийн ":9715,"эдгэр":9716,"д тав":9717,"д тохир":9718,"ыг\n":9719,"аас илүү":9720,"чихаад":9721,"уулахыг ":9722," бэлгийн ":9723,"эхэллээ.\n":9724," дэлх":9725," бариад ":9726,"агүй.\n":9727,"лиц":9728,"жингийн ":9729,"уулсан байна.\n":9730,"амьдардаг.\n":9731,"ort":9732,"компанид ":9733," хаяж ":9734," дагуул":9735,"Дараах":9736,"чигдөр":9737," хүчин зүйл":9738,"урлагийн ":9739,"Үндсэн хуулийн ":9740,"Жүжигчин ":9741,"37":9742,"АУ":9743,"Нэр ":9744,"Ядаж ":9745,"жор":9746,"лик":9747,"олны":9748," тэжээл":9749," болжээ\n":9750,"одон ":9751,"аян ":9752,"шинээр":9753,"шилж":9754,"төрсөн ":9755,"гишүүн":9756,"дуур ":9757,"орнуудын ":9758," болгож ":9759," бууруулах ":9760," хэлбэрээр ":9761,"нунтаг ":9762,"шашин":9763,"сэтгэлээсээ":9764,"65":9765,"YOLO":9766,"az":9767,"Баа":9768,"Гүйц":9769,"ЗД":9770,"Пар":9771,"Пор":9772,"Эв":9773,"нөөр ":9774,"сам":9775,"саад":9776,"фил":9777," буулга":9778,"элэг":9779,"нь дээр ":9780,"гадар":9781,"лагаа":9782,"эх сурвалж":9783,"ийн хий":9784,"энэ тэр ":9785,"члон ":9786,"амьтан":9787,"зүйлээ":9788,"олдугаар ":9789,"амжтай":9790,"ашигладаг.\n":9791,"ойрын ":9792,"тэднийг ":9793,"нэгэнд ":9794,"чухал юм.\n":9795,"түрээс":9796,"гvй.\n":9797,"тэлгүй":9798,"хондоо":9799,"сэнийг ":9800," хэчнээн ":9801,"шинж чанар":9802,"ажиглагд":9803,", хамгийн ":9804,"wit":9805,"зүүн ":9806,"сүлжээ":9807,"н тул":9808,"ийгаа":9809," хуу":9810,"ардын ":9811,"оогүй ":9812,"он\n":9813,"гараагүй":9814,"дарт ":9815,"гал тогоо":9816,"ын хэмжээ":9817,"отын ":9818,"энд дар":9819,"импорт":9820,"шалгуул":9821,"Ерөнхий ":9822,"авчээ.\n":9823,"аюулгүй ":9824,"зүйтэй.\n":9825,"ард түмний ":9826,"эцэст ":9827,"Баярлал":9828,"уучлалт гуй":9829,"vр":9830,"Жон ":9831,"ШУ":9832,"Яах":9833,"стой ":9834,"салга":9835,"тү":9836,"тун":9837,"цөлд":9838,"шар ":9839,"өж, ":9840,"аварг":9841," материал":9842,"өлбөр ":9843,"гараа ":9844,"амьс":9845," байсан ч ":9846,"этгээд ":9847,"ийн зээл":9848,"газар\n":9849," хуульд ":9850," дугуй":9851,"лиг":9852," хандлага":9853,"нэр төр":9854,"үсэг":9855," тусламж":9856,"тлан ":9857,"зөвшөөрөл":9858,"угаах ":9859,"үйл явдл":9860,"нэмэгдүүлэх ":9861," хөдөө ":9862,"санхүүжилт":9863,"Тэрбээр \"":9864,"чулуун ":9865," хэтэрхий ":9866,"Ажлын х":9867,"Баруун ":9868,"Уулз":9869," B":9870,"-М":9871,"600":9872,"ht":9873,"жаргал ":9874,"ч бол":9875,"шун":9876,"олн":9877,"ч нь ":9878," хийнэ\n":9879,"лээн ":9880,"яруу ":9881,"ямар нэг":9882,"чдэд":9883,"нутгаар ":9884,"д орсон ":9885,"ж өгнө":9886,"үгээс":9887,"Японы":9888,"үр дүнтэй ":9889,"шинжилгээ ":9890,"ийн хүмүү":9891,"ахмад":9892,".)\n":9893,"aw":9894,"Сэр":9895,"Ха":9896,"шсэн ":9897," хол ":9898,"аж болно.\n":9899,"ийн хүс":9900,"Энэ з":9901,"гиш":9902," бүрт":9903,"гаарай":9904,"амьдралд":9905,"снаа ":9906,"зардал":9907,"шалгалтын ":9908,"нутгийн х":9909,"надтай":9910,"Дэлхийн хамгийн ":9911," татвар":9912,"заасан ":9913,"Үнэндээ ":9914,"монголчууд":9915,"Бурханд ":9916," хариулт ":9917," хүсэлт ":9918,"Фран":9919,"орчин үеийн ":9920,"хүүхэд":9921,"цорын ганц ":9922,"чармайл":9923,"функц":9924,"өдийлөн ":9925," · ":9926,"Miss":9927,"Дээд ":9928,"Ст":9929,"гчид":9930,"дүү ":9931,"агчид":9932,"нь бас ":9933,"гүй байгаа ":9934,"эгчид ":9935,"ж байвал":9936,"юмаа ":9937,"ул ":9938,"хийлэл":9939,": -":9940,"бичиг":9941,"нэмж ":9942,"нэмэх ":9943," дээр нь ":9944,"Амр":9945,"лүүлэх ":9946,"үүсгэх":9947,"өнөөх ":9948,"Манайх ":9949,"багш":9950," баялаг":9951,"төсв":9952,"Бага ":9953,"Яагаад гэвэл ":9954," булаа":9955,"рест":9956,"Ард түмэн ":9957,"Үйл ":9958,"250":9959,"Дөрвөн ":9960,"Кин":9961,"НБ":9962,"цэрэг ":9963,"олж ав":9964,"амдах ":9965,"шиж үз":9966,"омжил":9967,"явж байгаа":9968," хэрэглэдэг":9969,"Монгол хэл":9970,", тус":9971,"ж чаддаг ":9972,"тээс ":9973," хүүхэн ":9974," бидэнтэй":9975," хүлээх ":9976,"амьдралын х":9977," та нар ":9978,"Биднийг ":9979,"эмэгтэй хүн ":9980,"Гэрээ":9981," барьсан ":9982,"боловч":9983,"ж явсан ":9984,"Японд ":9985,"Багш":9986,"өвчний ":9987,"цгаая":9988,"ЭЗЭН":9989,"эмзэг":9990,"Евр":9991,"Наад ":9992,"Ут":9993,"Хэн":9994,"Ян":9995,"очд":9996,"хов":9997,"цоо ":9998,"гүй болсон ":9999}