{"\n":0," ":1,"!":2,"\"":3,"#":4,"$":5,"%":6,"&":7,"'":8,"(":9,")":10,"*":11,"+":12,",":13,"-":14,".":15,"/":16,"0":17,"1":18,"2":19,"3":20,"4":21,"5":22,"6":23,"7":24,"8":25,"9":26,":":27,";":28,"<":29,"=":30,">":31,"?":32,"@":33,"A":34,"B":35,"C":36,"D":37,"E":38,"F":39,"G":40,"H":41,"I":42,"J":43,"K":44,"L":45,"M":46,"N":47,"O":48,"P":49,"Q":50,"R":51,"S":52,"T":53,"U":54,"V":55,"W":56,"X":57,"Y":58,"Z":59,"[":60,"\\":61,"]":62,"_":63,"`":64,"a":65,"b":66,"c":67,"d":68,"e":69,"f":70,"g":71,"h":72,"i":73,"j":74,"k":75,"l":76,"m":77,"n":78,"o":79,"p":80,"q":81,"r":82,"s":83,"t":84,"u":85,"v":86,"w":87,"x":88,"y":89,"z":90,"£":91,"®":92,"°":93,"±":94,"²":95,"³":96,"µ":97,"·":98,"¼":99,"½":100,"Á":101,"Â":102,"Ä":103,"Ç":104,"É":105,"Ó":106,"Ö":107,"×":108,"Ü":109,"à":110,"á":111,"â":112,"ã":113,"ä":114,"ç":115,"è":116,"é":117,"ê":118,"ë":119,"ì":120,"í":121,"ï":122,"ð":123,"ñ":124,"ò":125,"ó":126,"ô":127,"õ":128,"ö":129,"ø":130,"ú":131,"ü":132,"Ā":133,"ā":134,"ć":135,"ę":136,"ğ":137,"İ":138,"ı":139,"ķ":140,"Ł":141,"ł":142,"ś":143,"ş":144,"š":145,"ơ":146,"ư":147,"́":148,"Α":149,"Η":150,"Τ":151,"α":152,"μ":153,"‍":154,"‎":155,"•":156,"′":157,"″":158,"⁠":159,"€":160,"™":161,"−":162,"≥":163,"丽":164,"安":165,"洪":166,"金":167,"陈":168,"🍌":169,"😊":170,"😭":171,"🤲":172,"an":173,"an ":174,"a ":175,"i ":176,"er":177,"en":178,"ar":179,"at":180,"ang":181,"ak":182,"in":183,", ":184,"as":185,"al":186," d":187,"ah":188,".\n":189,"em":190,"am":191," m":192,"un":193,"el":194,"ad":195,"eng":196,"tu":197,"kan ":198,"se":199," p":200,"is":201,"ber":202,"ap":203,"ter":204," k":205,"on":206,"il":207,"es":208,"yang":209,"ik":210,"or":211,"bu":212,"ya ":213,"it":214,"us":215,"ing":216,"ur":217,"ah ":218,"um":219,"ag":220,"id":221,"ol":222,"ung":223,"at ":224,"im":225,"ek":226,"ir":227,"akan ":228," men":229," P":230,"ada ":231,"per":232," s":233,"men":234,"uk":235,"ai ":236,"ih":237,"et":238,"ut":239,"a d":240,"20":241," t":242,"om":243,"ari ":244," di ":245,"a, ":246,"ara ":247,"ul":248,"u ":249,"ab":250,"an d":251,"asi ":252,"tuk":253,"aw":254,"a.\n":255,"ke":256,"ga ":257,"alam":258,"202":259," dan ":260,"ia ":261," b":262," yang":263,"itu":264," S":265,"untuk":266," meng":267,"ot":268,"eg":269,"ud":270,"emb":271,"nya ":272,"ant":273," ber":274,"engan ":275," A":276," B":277," K":278," se":279," ter":280,"In":281,"i d":282,"ep":283," M":284,"eb":285," -":286,"ok":287," (":288,"\",":289,"ay":290,"meng":291,"ed":292,"ro":293,"ikan ":294," l":295,"up":296,"ju":297," per":298,"and":299,"ny":300," mem":301,"aan ":302,"an, ":303,"i, ":304," di":305,"but":306,"amp":307,"bag":308,"ian ":309,"angan ":310,"end":311,"uh":312,"ini ":313,"atan ":314," J":315," T":316,"art":317," W":318,"jad":319,"tr":320," D":321,"si ":322,"res":323,"ama ":324,"ent":325,"idak":326,"aya ":327,"ain":328," ke":329,"Ind":330," h":331,"aj":332,"pada ":333,"mas":334,"an.\n":335,"i.\n":336,"aku":337," R":338,"mem":339,"ata ":340,"int":341,"any":342,"sebut":343,"bah":344,"eh":345,"angk":346,"os":347,"dan ":348," dari ":349,").\n":350,"pen":351,"ones":352,"ib":353,"Indones":354,"if":355,"jadi ":356," untuk":357,"abu":358,"emp":359,"ip":360,"al ":361,"di ":362," mel":363,"nn":364,"angg":365,"anj":366,"mer":367,"ion":368,"jp":369,"jpnn":370,"ar ":371," - ":372,"wa ":373,"ang ":374,"com":375,"bagai ":376,"pem":377," pada ":378,".com":379,"IB":380," dalam":381,"anya ":382," dengan ":383," WIB":384,"jpnn.com":385,"ahun":386,"ingg":387,"isi ":388,"elah":389,"atakan ":390,"ota ":391,"ana ":392,"ert":393,"Sel":394,"ua ":395,"juga ":396,"ak ":397,"uj":398,"oleh":399,"ub":400,"akukan ":401,"itas":402,"ind":403,"ali ":404,"peng":405,"har":406,"ac":407,"sel":408,"pert":409," WIB\n":410,"alah ":411,"had":412,"au":413,"bar":414,"ig":415,"ami ":416,"mel":417," meny":418,"jpnn.com, ":419,"tidak":420,"og":421," mer":422,"Ke":423," j":424,"a di ":425," H":426,"nya.\n":427,"ic":428,"ebih":429," G":430,"ingk":431," N":432,"alu":433,"orang":434," C":435,"anan ":436,"ong":437,"Indonesia ":438,"Per":439,"akart":440,"ob":441,"ew":442,"yar":443,"sek":444,"atkan ":445,"tersebut":446,"erj":447," r":448,"an dan ":449," pen":450," kata ":451,"AR":452,"apa ":453,"asa ":454," itu":455,"neg":456,"Men":457,"00":458,"asan ":459,"aran ":460,"pro":461,"tur":462," L":463,"aren":464,"emen":465,"sat":466,"asil":467,"ti":468,"ika ":469,"au ":470,"iden":471,"meny":472,"sa":473,"ow":474,"isa ":475,"ungk":476,"aks":477,"Un":478," I":479,"ingga ":480,"aik":481,"bahwa ":482,"ram":483,"etap":484,"hadap":485,"ungan ":486,"an di ":487,"yarak":488,"elum":489,"war":490,"a dan ":491,"arena ":492,"nya, ":493,"ial":494,"od":495,"eka ":496,"duk":497," pem":498,"imp":499,"ita ":500,"i k":501," F":502,"pel":503,"aga ":504,"ahan ":505,"sen":506,"cara ":507,"op":508,"erint":509,"amb":510,"TA":511,"dengan ":512,"awa ":513,"at, ":514," tidak":515,"da ":516,"nas":517,"jal":518,"urut":519,"ibu":520,"uar":521," mas":522,"st":523,"An":524,"ional":525,"ist":526,"PP":527,"ber ":528,"ses":529,"af":530,"AK":531,"pr":532,"pat":533,"bes":534,"Pem":535,"ilik":536,"telah":537," akan ":538,"residen":539,"apat":540,"est":541," peng":542,"uan ":543,"yang d":544,"annya ":545,"ilih":546," tersebut":547,"anc":548," g":549,"angs":550,"for":551,"kon":552,"Sen":553,"pas":554,"10":555,"oh":556," kep":557,", dan ":558," menjadi ":559," memb":560,"ans":561,"eber":562,"Indonesi":563,"inya ":564," mend":565,"buk":566,"tus":567,"Kam":568,"alah":569,"gun":570," in":571,"sebagai ":572,"aikan ":573," uj":574,"i di ":575,"hir":576,"a-":577,"atas":578,"ug":579,"berikan ":580,"cap":581,"ej":582,"elas":583,"ARTA":584,"AKARTA":585,"Jakart":586,"ukan ":587,"uml":588,"elah ":589,"ser":590,"iv":591,"tar":592,"erta ":593,"anak":594,"omp":595,"si":596," tahun":597,"paten":598," Per":599,"abupaten":600,"erja ":601,"e ":602,", k":603,"enc":604,"usah":605,"udah":606,"akhir":607,"kepada ":608,"anjut":609,"ra":610,"dalam":611,"i dan ":612,"upakan ":613,"Rabu":614,"orb":615,"sem":616,"),":617,"AS":618,"unj":619,"ov":620,"ala ":621,"tahun":622,"lebih":623,"seh":624,"sej":625,"awan ":626,"ec":627,"Senin":628,"rum":629,"12":630,"tua ":631,"hasil":632,"ima ":633," U":634,"Dia ":635,"Kamis":636,"belum":637,"eberapa ":638,"dang":639,"antu":640,"ati ":641,"ihak":642,"ina ":643,"aer":644," mengatakan ":645,"mengatakan ":646,"sama ":647,"19":648,"para ":649,"agi ":650,"PK":651,"ast":652,"wak":653,"AKARTA -":654,"alon":655,"Jum":656,"atau ":657,"menjadi ":658,"negara ":659," ini ":660,"jpnn.com, J":661,"Kota ":662,"Is":663,"ait":664,"ij":665,"yak":666,"kel":667,"asus":668," sel":669,"AN":670,"at.\n":671,"11":672,"mend":673,"masyarak":674,"rab":675,"form":676,"o, ":677,"ember ":678," Pol":679,"yang di":680,"ili":681,"or ":682," pro":683," sa":684,"perti ":685,"Tim":686,"tim":687,"arkan ":688,"kr":689,"bul":690,"embang":691,"angsung":692,"amun":693,"alah sat":694,"apan ":695," ujar":696,"gram":697,"Pol":698," E":699,"tetap":700,"iri ":701,"wil":702," yang d":703,"ukum":704," O":705,"ri ":706,"bany":707,"ri":708,"itik":709,"su":710," An":711,"rael":712,"alan ":713,"ilakukan ":714," sebagai ":715,"Bar":716,"Ber":717,"adalah ":718,"ikut":719,"gel":720,"apkan ":721,"ustr":722,"ani ":723," juga ":724,"a\n":725,"Pen":726,"uruh":727,"ang, ":728," c":729,"pol":730,"at k":731,"apor":732,"alui ":733,"Sem":734," Indonesia ":735,"hari ":736,"ku":737," n":738,"warga ":739,"artai ":740,"lik":741,"an dari ":742,"lain":743,"kem":744," melakukan ":745,"kait":746,"impin":747,"itu, ":748,"iga ":749,"yang ber":750,"a dengan ":751,"atau":752,"terhadap":753,"udah ":754,"memb":755,"eks":756,"ev":757," lebih":758,"Kep":759," pert":760,"jpnn.com, JAKARTA -":761," telah":762,"baik":763,"unc":764," ada ":765,"az":766,"pend":767,"owo":768,"ra ":769,"tor":770,"Menurut":771,"engg":772,".jpnn.com, ":773,"ebut":774,"Kabupaten":775,"besar":776,"wilay":777,"ket":778,"enting":779,"at (":780,"u, ":781,"mereka ":782,"an dengan ":783,"di":784,"15":785,"aman ":786,"iliki ":787,"peny":788," kon":789,"ah, ":790,"bisa ":791,"istr":792,"dari ":793,"Sab":794,"masuk":795,"unya ":796," menj":797,"ah.\n":798,"angka ":799,"ulai ":800,"Ch":801,"sep":802,"Kami ":803," menc":804,"iz":805," bisa ":806,"Namun":807,"lu":808,"saat ":809,"ang.\n":810,"PR":811,"orban ":812,"teri ":813," yang di":814,"bern":815,"ger":816,"Peng":817,"air":818," pel":819,"ilan ":820,"hingga ":821,"ini, ":822,"langsung":823,"Pro":824,"ampaikan ":825,"Sabtu":826,"telah ":827,"ea ":828,"bagi ":829,"ank":830,"ensi ":831,"oto":832,"ankan ":833,"ris":834,"Ter":835,"gas":836,"pihak":837,"empat ":838,"unan ":839,"utus":840," dit":841," kepada ":842,"ali":843,"apat ":844,"Sur":845,"harus":846,"Al":847,"Mingg":848,"und":849,"Seb":850,"re":851,"rabowo":852,"pemerint":853,"kom":854,"16":855,"kar":856,"ilk":857,"usia ":858,"secara ":859,"antara ":860," kat":861,"olog":862,"uang":863,"aim":864,"andung":865,"atur":866,"30":867,"Israel":868,"ahkan ":869,"ungg":870,"ark":871,"14":872," persen":873,"entara ":874,"beberapa ":875," yang ber":876,"menj":877,"ilai ":878,"17":879,"han ":880,"Jawa ":881,"i-":882,"yang ter":883,"ran ":884,"atih":885,"mad":886,"MK":887,"formasi ":888,"to":889,"Selasa ":890,"umlah ":891,"ers":892,"gunakan ":893,"anding":894,"erik":895,"a di":896,"akt":897," karena ":898,"aku ":899,"ingin":900," har":901," memper":902,"salah sat":903,"yang s":904,"adi ":905,"13":906,"embali ":907,"nasional":908,"inggal":909,"serta ":910,"aerah ":911,"kal":912,"upaya ":913,"Presiden":914,"ambah":915,"18":916," bar":917,"a dalam":918,"iny":919,"Kom":920,"agar":921,"man":922,"ubern":923,"jen":924,"ubernur":925,"bang":926,"anto":927,"inta ":928,"eri ":929,"jat":930,"Jakarta ":931,"Dalam":932,"uhan ":933,"saya ":934,"wilayah ":935,"calon":936,"21":937,"23":938,"gus":939,"kes":940,"ikasi ":941," Mar":942,"kami ":943,"of":944," merupakan ":945,"seperti ":946," kem":947,"atang":948," tu":949,"sum":950,"sos":951,"Rabu (":952,"empat":953,"pa ":954,"ben":955,"ahu":956,"aju":957,"pemb":958,"sam":959,"Pel":960,"pes":961,"onom":962," dis":963," memberikan ":964,"il ":965,"adan ":966,"dua ":967,"por":968,"Selasa (":969,"ilkada ":970,"min":971,"ten":972,"Senin (":973,"PU":974,"ungkin":975,"angat ":976,"lok":977,"sekit":978,"aksi ":979,"isasi ":980,"abar":981,"ungkap":982,"dukung":983,"tem":984,"irek":985,"arang":986,"rat":987,"amatan ":988,"Kamis (":989,"unjuk":990,"masih":991,"karena ":992,"Ketua ":993,"PS":994,"api ":995,"25":996,"uari ":997,"entang":998," Y":999,"adalah":1000,"\".\n":1001,"ei ":1002,"tetapi ":1003,"ingkatkan ":1004,"ch":1005,"aris":1006,"waktu":1007," Ke":1008,"asar":1009,"askan ":1010,"umum":1011,"i dalam":1012," orang":1013,"e, ":1014,"seluruh":1015,"berbagai ":1016,"aian ":1017,"PN":1018,"Saya ":1019,"gg":1020,"pers":1021,"anya.\n":1022,"ah k":1023,"PT":1024,"tugas":1025,"din":1026,"usus":1027,"awasan ":1028,"Mer":1029,"tuju":1030,"ef":1031,"ahas":1032," lain":1033,"usi":1034,"Kemen":1035,"lin":1036,"Sum":1037,"iatan ":1038," Pem":1039,"antor":1040,"Ar":1041,"menc":1042,"u (":1043,"ekonom":1044,"husus":1045,"uas":1046,"oper":1047,"atif":1048,"melakukan ":1049,"at p":1050,"str":1051,"Ad":1052,"idikan ":1053,"22":1054," In":1055,"vin":1056,"akarta ":1057,"omor ":1058," sem":1059,"o.\n":1060,"ti ":1061,"asal":1062,"ters":1063,"DI":1064," f":1065,"ar, ":1066,"eluar":1067," oleh":1068,"Selain":1069,"St":1070,"ilihan ":1071,"antan ":1072,"ayanan ":1073,"untuk meng":1074,"ni ":1075,"p ":1076,"esk":1077,"a dari ":1078,"butu":1079,"hukum":1080,"ump":1081,"ker":1082,"an-":1083,"negar":1084,"anggota ":1085,"Jumat (":1086,"asa, ":1087,"terangan ":1088," hingga ":1089,"banyak":1090,"kep":1091,"orang ":1092," RI":1093,"hal":1094,"ublik":1095,"produk":1096,"araan ":1097,"Kec":1098,"Namun, ":1099,"201":1100,"aja ":1101,"ekn":1102,"ampak":1103,"gam":1104,"unia ":1105," dik":1106,"Kem":1107,"aksan":1108,"Pada ":1109,"masyarakat ":1110,"24":1111,"mak":1112," peny":1113,"ari":1114,") ":1115,"idang":1116,"Set":1117,"Pert":1118,"Ini ":1119,"aut":1120,"Pr":1121,"kap":1122,"ompok":1123,"edia ":1124,"merupakan ":1125,"esa ":1126,"terian ":1127,"an dalam":1128,"ens":1129,"program":1130,"ini d":1131,"termasuk":1132,"Kepala ":1133,"akil":1134,"era ":1135," saat ":1136," hanya ":1137,"ucap":1138,"Timur":1139,"pun":1140,"ont":1141,"acara ":1142,"ul ":1143,"uda ":1144,"NI":1145," pend":1146,"berk":1147,"ar.\n":1148,"bak":1149,"RI":1150,"tiv":1151,"oal":1152,"ya":1153,"an\n":1154,"awal":1155,"Se":1156,"Kal":1157,"antar":1158,"Menteri ":1159,"saat":1160,"Sek":1161,"usahaan ":1162,"yang ":1163,"mi ":1164,"idik":1165,"uli ":1166,"i\n":1167,"ampai ":1168,"teng":1169,"sudah":1170,"apatkan ":1171,"Mas":1172,"kan, ":1173,"idup":1174,"udi ":1175,"aling":1176,"PB":1177,"Neg":1178,"As":1179," bagi ":1180," masih":1181,"kek":1182,"Di ":1183," Agus":1184,"baru":1185,"mum":1186,"ond":1187,"Har":1188," ket":1189,"aup":1190,"ekan ":1191,"kto":1192," Al":1193,"Indonesia.\n":1194,"Teng":1195,"angkap":1196,"capai ":1197,"bagian ":1198,"ini.\n":1199,"abil":1200,"tan":1201,"encana ":1202,"alu ":1203," masyarak":1204,"selama ":1205,"buah ":1206,"i dari ":1207,"ken":1208,"hanya ":1209,"asional":1210,"utusan ":1211," yang ter":1212,", d":1213,"jpnn.com -":1214," \"":1215,"baru ":1216,"i dengan ":1217,"ies":1218,"aupun":1219,"buat ":1220," terhadap":1221,"unt":1222,"elak":1223,"irektur":1224,"emukan ":1225,"e.\n":1226,"tum":1227," lalu":1228," jut":1229,"fa":1230," ser":1231,"enang":1232,"kec":1233,"al.\n":1234," pas":1235,"tiga ":1236,"Unit":1237,"sebelum":1238,"terkait":1239,"isi":1240," Is":1241," Pro":1242,"ilm":1243,"anyak":1244,"27":1245,"obil":1246," sej":1247,"udian ":1248,"anda ":1249,"imb":1250," memiliki ":1251,"buh":1252,"Sa":1253,"SI":1254,"Selasa, ":1255,"astikan ":1256," tr":1257,"II":1258,"ras":1259,"otor":1260,"elaskan ":1261,"bur":1262,"sur":1263,"tersebut.\n":1264,"dir":1265,"pek":1266,"bulan ":1267,"iliter":1268," Tim":1269," di P":1270,"ias":1271,"ener":1272,"gambar":1273," dapat":1274," baik":1275,"okow":1276,"erintah ":1277,"nyat":1278,"banyak ":1279,"utan ":1280,"Kecamatan ":1281,"atan, ":1282," secara ":1283," bah":1284,"hadir":1285," Sur":1286," AS":1287,"ukung":1288,"000":1289,"terus":1290,"umlah":1291," harus":1292,"ampany":1293,"abat ":1294,"itmen":1295,"buka ":1296,"yakni ":1297,"ian, ":1298,"alkan ":1299," sek":1300,"istem":1301,"hat":1302,"harap":1303,"hub":1304,"untuk men":1305,"ator":1306,"apol":1307,"sehatan ":1308,"?\n":1309,"alami ":1310,"ivers":1311,"jug":1312,"merika ":1313," mereka ":1314,"Rabu, ":1315,"uni ":1316,"par":1317,"et ":1318,"memper":1319,", B":1320,"ingan ":1321," saat":1322," Kota ":1323,"apres":1324,"unjukkan ":1325," pol":1326,"nya":1327,"Umum":1328," pr":1329,"Jakarta, ":1330," bes":1331,"ah di ":1332,"Kor":1333,"uni":1334,"Kamis, ":1335,"orong":1336,"awas":1337,"ender":1338," melalui ":1339,"bukan ":1340,"sudah ":1341,"keb":1342,"vinsi ":1343,"utama ":1344,"ampung":1345,"akan, ":1346,"Jumat, ":1347,"memberikan ":1348,"urang":1349,"melalui ":1350,"ubah":1351,"ukul ":1352,"tern":1353,"awat":1354,"tingg":1355,"he":1356,"oy":1357,"uran ":1358," [":1359,"Sabtu (":1360,"ayaan ":1361,"rumah ":1362,"satu":1363,"ogor":1364,"berd":1365,"ateg":1366," Okto":1367,"Minggu (":1368,"Senin, ":1369,"amanan ":1370,"tiap":1371,"Foto":1372," V":1373,"Pas":1374,"urn":1375,"Mar":1376,"usi ":1377,"omen":1378,"rasi ":1379,"antuan ":1380," kami ":1381,"tak":1382,"korban ":1383,"ada di ":1384,"al, ":1385," itu, ":1386,"av":1387," para ":1388,"terl":1389,"gelar":1390,"edi":1391,"tangg":1392," dil":1393,"29":1394,"rak":1395,"kasus":1396,"auh":1397,"ide":1398,"28":1399,"oc":1400,"atu":1401," Ch":1402,"aya, ":1403,"atu ":1404," kasus":1405,"ihat ":1406,"sosial":1407,"pres":1408,"usan ":1409," Men":1410," Ar":1411," atau ":1412," Nov":1413,"abaya ":1414,"etahu":1415,"26":1416,"urkan ":1417," ucap":1418,"merek":1419,"ono":1420,"bud":1421,"kam":1422,"KI":1423," yang s":1424,"usaha ":1425,"dul":1426," pemb":1427,"kl":1428,"at dan ":1429,"erima ":1430,"berl":1431,"terd":1432,"pl":1433," Prabowo":1434,"seorang":1435,"dik":1436,"entu":1437," Des":1438,"awab":1439,"man ":1440,"oor":1441," Sep":1442," dua ":1443,"pos":1444,"ai":1445,"United":1446,"akin":1447,"akib":1448,"emok":1449," katanya.\n":1450,"sa ":1451,"ologi ":1452,"annya, ":1453," dilakukan ":1454,"semua ":1455,"pot":1456,"wis":1457,"akit":1458," untuk meng":1459,"ifikasi ":1460,"ill":1461,"itu.\n":1462,"uru ":1463,"nis":1464,"vest":1465,"ins":1466,"ham":1467,"Sementara ":1468,"ambil":1469,"alitas":1470,"u.\n":1471," Ber":1472,"G -":1473,"]\n":1474,"asi, ":1475,"istrik":1476,"rump":1477,"yang meng":1478,"asarkan ":1479,"Univers":1480," Pr":1481,"erang":1482,"\"Kami ":1483,"kot":1484,"setelah":1485," Agustus":1486,"untuk mem":1487," selama ":1488,"aporan ":1489,"sedang":1490,"uga ":1491,"Prabowo":1492,"Bal":1493,"aih":1494,"ebr":1495,"elengg":1496,"tahun ":1497,")\n":1498,"bersama ":1499,"Hal ":1500,"iswa ":1501,"ilu ":1502,"harg":1503,"Gib":1504,"gan":1505,"politik":1506,"adir":1507,"ternasional":1508,"ewas":1509," Jakarta ":1510,"ani":1511,"jalan ":1512,"jar":1513,"keg":1514," Jan":1515,"krain":1516,"ugaan ":1517,"at di ":1518," v":1519,"embangunan ":1520,"oba ":1521,"Indonesia, ":1522,"sehingga ":1523,"bis":1524,"Mah":1525,"aporkan ":1526,"set":1527,"Pal":1528,"ahanan ":1529,"setelah ":1530,"Ak":1531,"umah ":1532,"lim":1533," dan d":1534,"utu":1535,"enai ":1536," malam":1537,"kir":1538," bis":1539,"ulit":1540,"all":1541,"uhi ":1542,"adanya ":1543," banyak":1544,"Mereka ":1545,"DPR":1546,"bers":1547,"ola ":1548,"rek":1549,"ungkapkan ":1550,"Foto:":1551,"baw":1552,"AM":1553,"industr":1554," Apr":1555,"ukai ":1556,"etugas":1557,"get":1558,"Jalan ":1559,"empuan ":1560,"tul":1561,"ekerja ":1562," bahwa ":1563,"alis":1564," jelas":1565,"ipt":1566,"pemain":1567,"08":1568,"yang men":1569,"ah dan ":1570,"ulang":1571,"ukup":1572," hari ":1573,"Bali ":1574,"cer":1575," Juli ":1576,"ons":1577,"ity":1578,"ajar":1579," PT":1580,"yaitu":1581," Ketua ":1582,"amin":1583,"07":1584," ungkap":1585,", D":1586,"unjung":1587,"menyebut":1588,"le":1589,"anti ":1590,"bert":1591,"tember ":1592,"memiliki ":1593,"Gaz":1594," dir":1595,"Ag":1596,"abor":1597,"epan ":1598,"kita ":1599,"Wakil":1600,"perl":1601,"main":1602,"indak":1603," Kom":1604,"Jat":1605,"inas":1606,"ijakan ":1607,"pihaknya ":1608," November ":1609,". [":1610,"Bandung":1611," dib":1612,"ation":1613,"ewan ":1614,"elit":1615,"adion":1616,"onor":1617,"besar ":1618,"angat":1619,"Mal":1620,"apun":1621," bersama ":1622," menyebut":1623,"uc":1624,", S":1625,"adilan ":1626,"iy":1627,"Pers":1628,"pak":1629," kec":1630,"proses":1631,"iala ":1632,"keluar":1633,"trans":1634,"ajak":1635,"Ada ":1636,"buah":1637," Mei ":1638,"usai ":1639," sebelum":1640,"penting":1641,"hak":1642,"Ol":1643,"amas":1644," Juni ":1645,"komitmen":1646,"BP":1647,"arn":1648," Desember ":1649,"ret":1650,"oko":1651," ked":1652," Pen":1653," Oktober ":1654," Bar":1655,"ebab":1656," ke-":1657,"eksi ":1658," Tahun":1659," Presiden":1660,"lam":1661,"31":1662,"masing":1663,"anjar":1664,"SU":1665,"kerja ":1666," Agustus ":1667,"eter":1668,"a, dan ":1669,"50":1670," seperti ":1671,"iasi ":1672,"hidup":1673," adalah ":1674,"KPU":1675,"atakan, ":1676,"embangan ":1677,"Serik":1678,"Kementerian ":1679,"irim":1680,"iap":1681,"egaw":1682,"oordin":1683,"disi ":1684,"lingk":1685,"serangan ":1686,"Untuk":1687," yang meng":1688," lanjut":1689,"igit":1690,"cep":1691," atas":1692,"ulan ":1693,"lag":1694,"wan ":1695,"orm":1696,"edung":1697," dalam ":1698,"aturan ":1699,"pilih":1700,"upsi ":1701,"bal":1702,"lalu":1703,"hmad":1704,"uac":1705,"PPPK":1706," belum":1707," September ":1708," Januari ":1709," terus":1710," tersebut.\n":1711,"suara ":1712,"09":1713,"tasi ":1714,"ingkat ":1715,"ikuti ":1716,"aksanakan ":1717,"sekitar":1718,"ard":1719," Gubernur":1720,"PD":1721,"anjang":1722,"sesu":1723,"mus":1724," untuk men":1725,"AB":1726," ujarnya.\n":1727,"anggaran ":1728,"tekn":1729,"aman":1730,"kembali ":1731,"arah ":1732,"endaraan ":1733,"intas":1734,"lokasi ":1735,"merika Serik":1736,"yang t":1737,"Sabtu, ":1738,"nam":1739,"Partai ":1740,"icara ":1741,"ism":1742,"ammad":1743,"asi.\n":1744," pes":1745,"asih":1746,"ampanye":1747,"jata ":1748,"salah satu":1749,"bed":1750,"ell":1751," Sub":1752,"Ir":1753," serta ":1754,"isk":1755," kel":1756,"Para ":1757," Polres":1758,"KN":1759," juta ":1760,"asi":1761,"operasi ":1762,"Ser":1763,"indakan ":1764," Kemen":1765,"abung":1766,"BB":1767,"annya.\n":1768,"bukti ":1769,"yang mem":1770,") dan ":1771,"berhasil":1772,"Ia ":1773,"fer":1774,"stitu":1775,"Jad":1776,"ez":1777," Peng":1778," Partai ":1779,"hadapi ":1780,"Universitas":1781,") di ":1782,"dia ":1783,"asikan ":1784,"wal":1785,"uka ":1786,"nya di ":1787,"mulai ":1788,"200":1789,"Direktur":1790," sudah":1791,"kedua ":1792," terkait":1793," kembali ":1794,"Sej":1795,"ayang":1796,"gi ":1797,"is, ":1798,"terjadi ":1799,"akan d":1800,"anak-":1801,"ahr":1802,"embaga ":1803," pern":1804,"aftar":1805,"\"K":1806,"Rp ":1807,"05":1808,"penc":1809,"ampu":1810,"langk":1811,"untu":1812,"iran ":1813,"i, dan ":1814," tutur":1815," masuk":1816,"kegiatan ":1817,"Desa ":1818,"ail":1819," Bandung":1820,"sekitar ":1821," tim":1822," April ":1823,"tujuan ":1824,"mana ":1825," merek":1826,"Dep":1827,"anten":1828,"impinan ":1829,"omb":1830," Bali ":1831,"Pus":1832,"ianto":1833,"an, dan ":1834,"Pilkada ":1835,"ked":1836,"Peny":1837,"Kon":1838,"06":1839,"ingkat":1840,"nama ":1841,"egiatan ":1842," As":1843,"informasi ":1844,"o ":1845," did":1846,"Hari ":1847,"li ":1848,"okus":1849," beberapa ":1850,"oj":1851,"elang":1852,"hil":1853,"kor":1854,"ekt":1855," tentang":1856,"igus":1857,"Keterangan ":1858,"Stadion":1859,"put":1860,"ta ":1861,"emuan ":1862,"agam":1863,"pemerintah ":1864,"undang":1865,"akhirnya ":1866," mili":1867,"is.\n":1868,"benar":1869," berk":1870,"butuh":1871," untuk mem":1872,"sangat ":1873,"bus":1874,"satu ":1875,"Am":1876,"idana ":1877," tetap":1878,"utam":1879,"lebih dari ":1880,"lob":1881," pertama ":1882,"kawasan ":1883,"iod":1884,"seb":1885,"aimana ":1886,"gambar, ":1887,"dana ":1888,"ater":1889,"ampil":1890,"rup":1891,"itif":1892," pun":1893,"Ked":1894," ker":1895,"inf":1896," atau":1897,"bagi":1898,"bantuan ":1899," Jat":1900,"tah":1901,"ohon":1902,"lah ":1903,"sejumlah ":1904,"butuhan ":1905,"menurut":1906,"atan.\n":1907,"berharap":1908," menyampaikan ":1909,"Jawa Teng":1910," masyarakat ":1911,"apak":1912,"pemerintah":1913,"omor urut":1914,"janj":1915," Maret ":1916,"potensi ":1917,"nyataan ":1918,"ey":1919,"ompet":1920,"salah satu ":1921,"jika ":1922,"olabor":1923,"ton":1924,"Badan ":1925,"Kapol":1926,"Mesk":1927,"beri ":1928,"wakil":1929,"egaskan ":1930,"KPK":1931," yang men":1932,"sepak":1933,"andingan ":1934,"SD":1935,"lon":1936,"antai ":1937," Kep":1938,"isip":1939,"ea C":1940,"oin":1941," ujar ":1942,"Rak":1943,"lanjut":1944,"aan.\n":1945,"anggap":1946,"EN":1947,"krim":1948,"Selain itu, ":1949,"ade":1950," mendapatkan ":1951,"Tr":1952,"kand":1953," yang ":1954,"etapkan ":1955," baru":1956," keb":1957,"menyampaikan ":1958,"01":1959," mus":1960,"anak-anak":1961,"UN":1962,"emik":1963,"harga ":1964,"onorer":1965,"gur":1966," akan d":1967,"hent":1968," tan":1969," Sel":1970," Sum":1971,"pul":1972,"04":1973," Ter":1974,"resmi ":1975,"guna ":1976,"Nasional":1977," Jawa ":1978,"kontr":1979,"tib":1980,"is ":1981,"anjir":1982,"China ":1983,"02":1984,"olah ":1985," dim":1986,"anya, ":1987,"UM":1988,"media ":1989,"bel":1990," ku":1991,"Ri":1992,"amping":1993," Israel":1994,"inc":1995,"uduk":1996,"empatan ":1997,"ujan ":1998," bag":1999,"ust":2000,"Minggu, ":2001,"Dengan ":2002,"kan.\n":2003,"egas":2004,". (":2005,"anfa":2006,"send":2007,"perusahaan ":2008,"Negeri ":2009,"tivitas":2010,"juga d":2011,"ipun":2012,"Kel":2013,"Ukrain":2014,"enam":2015,"ansi ":2016," pukul ":2017,"laga ":2018,"menggunakan ":2019,"Mel":2020,"menjelaskan ":2021,"kan":2022,"ujud":2023,"ai, ":2024,"khusus":2025,"ambut":2026," setelah":2027,"Pak":2028,"anyak ":2029,"jpnn)\n":2030,"Adapun":2031," PDI":2032,"embal":2033," sedang":2034,"emi ":2035,"akses":2036,"pet":2037," Polda ":2038,"sebuah ":2039,"setiap":2040,"Put":2041,"kelompok":2042,"tersangka ":2043," pemerint":2044,"pasangan ":2045,"Sul":2046," di d":2047,"lak":2048,"inal":2049,"ebruari ":2050,"terang":2051,"yang lebih":2052,"masa ":2053,"gk":2054,"uf":2055,"Jokow":2056,"gant":2057," tingg":2058,"(B":2059," dih":2060," tak":2061," DPR":2062,"AT":2063,"Sol":2064," Pas":2065,"na ":2066,"ron":2067,"senjata ":2068,"atihan ":2069,"Ket":2070,"ky":2071,"ingkatan ":2072,"hit":2073,"perc":2074,"bi":2075,"embak":2076,"Sebelum":2077,"abilitas":2078,"mar":2079,", yang":2080,"03":2081,"sampai ":2082,"inya, ":2083,"uhammad":2084,"lem":2085,"saat ini ":2086,"lima ":2087," kes":2088,"ideo":2089,"etahui ":2090,"aya.\n":2091,"siap":2092," Pers":2093,"Ap":2094,"inis":2095," pos":2096,"isw":2097,"at per":2098," mulai ":2099,"rut":2100,"emu":2101,"Saat ":2102," proses":2103,"Gibran ":2104,"Bogor":2105,"inj":2106," produk":2107,"AI":2108,"sakit":2109,", M":2110," penting":2111,"ea Cukai ":2112,"Pend":2113,"ampir":2114,"ajukan ":2115,"ah-":2116," membantu":2117,"ry":2118,"ekerj":2119," besar":2120,"militer":2121,"aji ":2122,"MKM":2123," ini.\n":2124,"jatim":2125,"/jpnn)\n":2126,"Kantor":2127,"Sementara itu, ":2128,"tempat ":2129,"tentang":2130,"gol":2131,"Tidak":2132," sudah ":2133,"turut":2134," ini, ":2135,"Ut":2136," Kabupaten":2137,"olaborasi ":2138,"Jawa Bar":2139,"ary":2140," kita ":2141,"ash":2142,"engk":2143,"arik":2144,"emas":2145," terl":2146,"Gol":2147,"uangan ":2148,"ai dengan ":2149," menyatakan ":2150,"Ger":2151,"Polres":2152,"erahkan ":2153,"arah":2154,"tersebut, ":2155,"IN":2156,"aksa ":2157,"ubahan ":2158,"untut":2159,"Dari ":2160,"Calon":2161,"kota ":2162,"Sh":2163,"jabar":2164,"ach":2165,"aan, ":2166,"ama, ":2167," hukum":2168,"Pemerintah ":2169,"fasil":2170,"arin":2171,"tidak ada ":2172,"oritas":2173,"ambang":2174,"ius":2175,"umas":2176,"auan ":2177,"Meng":2178," Sem":2179,"sor":2180,"jabar.jpnn.com, ":2181,"alaman ":2182,"Keterangan gambar, ":2183," w":2184," saya ":2185,"th":2186,"ekonomi ":2187,"ara, ":2188,"ANG -":2189,"gera ":2190,"ukungan ":2191,"upati ":2192,"yang tidak":2193,"bentuk":2194,"Palest":2195,"fes":2196,"layanan ":2197,"kata ":2198," bers":2199,"engan d":2200," mendukung":2201,"ejabat ":2202,"Daerah ":2203,"jatim.jpnn.com, ":2204,"encan":2205,"presiden":2206,"Komisi ":2207,"aul":2208," program":2209,"industri ":2210,"saan ":2211,"iko":2212," menjal":2213,"kualitas":2214,"terakhir":2215,"terima ":2216,"Selatan ":2217,"pons":2218," maupun":2219,"ggris":2220,"cuac":2221," put":2222," yang mem":2223,"sistem":2224,"ileg":2225," Subianto":2226,"40":2227,"Il":2228,"organ":2229,"Surabaya ":2230,"bas":2231,"uar ":2232,"iner":2233,"ilpres":2234," tiga ":2235," warga ":2236,"ifik":2237,"motor":2238,"pelaku":2239,"Sat":2240,"urun":2241,"mod":2242,"invest":2243,"ihat":2244,"juangan ":2245,"ko":2246,"A -":2247,"angun":2248,"Man":2249,"elar":2250," tahun ":2251,"terjad":2252,"UU":2253," kom":2254,"unuh":2255,"okter":2256," Pert":2257,"hargaan ":2258,"truk":2259,"kali ":2260,"pad":2261," Wid":2262,"amina ":2263," Tahun ":2264,"bicara ":2265,"partai ":2266,"ASN":2267,"ini":2268," Ad":2269," Ak":2270,"okasi ":2271,"Br":2272," ribu":2273,"aft":2274,"pasar":2275,"ai.\n":2276,"izin":2277,"Sebag":2278,"apal":2279,"empu":2280," sen":2281,"bagian dari ":2282,"Hamas":2283,"okoh":2284,"son":2285," Pel":2286," as":2287,"situ":2288," Neg":2289,"ex":2290,"yek":2291,"asuk":2292,"udara ":2293," presiden":2294," lalu.\n":2295,"lap":2296,"publik":2297,"onlin":2298,"ahasiswa ":2299,"hawat":2300," paling":2301,"enal":2302," kek":2303,"antas":2304,"pir":2305,"okok":2306,"ment":2307,"Pap":2308,"nark":2309,"jadian ":2310,"aktif":2311,"Salah sat":2312,"iah ":2313," Rp ":2314,"Gun":2315,"sejak":2316,"mat":2317,"upa ":2318,"bahkan ":2319,"penuh":2320,"sh":2321," diper":2322,"indung":2323,"Selatan, ":2324,"omor urut ":2325,"uanya ":2326,"turun":2327,"Utar":2328,") malam":2329,"ali Kota ":2330,"Provinsi ":2331,"let":2332,"emenangan ":2333,"dasarkan ":2334,"nilai ":2335,"lar":2336,"ukses":2337," Man":2338,"enderal":2339,"MA":2340,"atar":2341,"nyata ":2342," dugaan ":2343," telah ":2344,"ibur":2345,"Ero":2346,"KP":2347,"jab":2348,"lu ":2349,"tempat":2350,"istik":2351,"isti":2352,"eriksaan ":2353,"ident":2354,"And":2355,"car":2356," keluar":2357,"ura ":2358,"mobil":2359," setelah ":2360,"ember":2361,"anjutkan ":2362,"ya, ":2363," pihak":2364,"Or":2365,"ional ":2366,"uatan ":2367,"amankan ":2368,"Leb":2369,"\"Saya ":2370,"a)":2371,"akan meng":2372," Ab":2373,"Asia ":2374,"Amerika Serik":2375,"Liga ":2376," sampai ":2377,"cat":2378,"unit":2379,"sol":2380,"umumkan ":2381,"Air":2382," duni":2383,"adil":2384,"ang di ":2385,"buat":2386,"enter":2387," langsung":2388,"pelaku ":2389,"gabung":2390,"tel":2391,"hal ":2392,"meningkatkan ":2393,"sekal":2394,"tengah":2395,"uara ":2396,"ambahkan ":2397," of":2398," dep":2399,"Anda ":2400,"En":2401,", T":2402," Jokow":2403,"Chin":2404,"gunaan ":2405,"100":2406,"al di ":2407,"yang dilakukan ":2408,"angga ":2409," Ser":2410,"ium":2411,", tetapi ":2412,"lah":2413," Tr":2414," hadir":2415,"red":2416,"(P":2417,"ho":2418,"yat ":2419," Z":2420,"Rp":2421,"tas":2422,"unikasi ":2423,"asi dan ":2424," menggunakan ":2425,"ayakan ":2426,"yakit":2427,"okum":2428,"Kar":2429,"jam":2430,"uncul":2431,"udi":2432,"pemimpin":2433,"han":2434,"uju":2435," min":2436,"etik":2437,"arakan ":2438,"adaan ":2439,"ibat":2440," Sa":2441,"AY":2442,"bat":2443,"arget":2444,"angkan ":2445,"awat ":2446,"ipil":2447,"sama dengan ":2448," St":2449,"ass":2450,"Di":2451,"arga ":2452,"atus":2453,"mendukung":2454,"ahter":2455,"mendapatkan ":2456,"epublik":2457," Februari ":2458,"Jawa Timur":2459," mencapai ":2460,"tentu":2461,"uncurkan ":2462,"-masing":2463,"ogy":2464," baru ":2465,"Korea ":2466,"tinggi ":2467,"mig":2468,"tik":2469,"iduga ":2470,"masyarakat":2471,"Jep":2472,"isipasi ":2473," melawan ":2474,"uji ":2475,"e B":2476,"okan ":2477,"erb":2478,"Jadi, ":2479,"al dan ":2480,"jalanan ":2481," menjaga ":2482," Put":2483,"enuhi ":2484,"Timnas":2485,"Res":2486," kali ":2487,"yang m":2488,"ketika ":2489," milik":2490,"peran ":2491,", di ":2492,"apresiasi ":2493,"mengatakan bahwa ":2494,"apar":2495,"EM":2496,"ilis":2497,"Angg":2498,"ingatkan ":2499,"Program":2500,"olak":2501,"Jadi ":2502,"pus":2503,"eles":2504,"nya d":2505,"ulasi ":2506,"sk":2507," Th":2508,"MKG":2509,"Den":2510,"Mak":2511,"Kabupaten B":2512,"otel":2513," Jakart":2514,"Menurutnya, ":2515,"ick":2516,"iptakan ":2517,"andang":2518,"bali":2519,"isian ":2520,"oleh ":2521,"eta ":2522,"Em":2523,"yo":2524,"tanpa ":2525,"ibusi ":2526,"strateg":2527,"Keb":2528,"ebabkan ":2529,"kebutuhan ":2530,"osial":2531," Timnas":2532," mak":2533," Pal":2534,"rov":2535,"antaranya ":2536,"meminta ":2537,"anggung":2538,"laporan ":2539," mengaku":2540,"Hal":2541,"anas":2542,"urus":2543,"dag":2544,"ongan ":2545,"fud":2546," Mer":2547,", m":2548,"kara ":2549," Ut":2550,", P":2551,"hadirkan ":2552,"buhan ":2553,"membantu":2554,"rik":2555,"Inggris":2556,"beg":2557," menunjukkan ":2558," menjelaskan ":2559,", K":2560," bisa d":2561,"akal":2562,"ebas":2563,"35":2564,"mengaku":2565,"sid":2566,"ibad":2567,"hubungan ":2568,"bawah ":2569,"diri ":2570,"antik":2571," sur":2572,"li":2573,"fokus":2574,"ungsi ":2575,"ajib":2576,"embangun":2577," &":2578,"Nus":2579,"internasional":2580,"orn":2581," satu":2582,"lingkungan ":2583," meningkatkan ":2584," Pilkada ":2585,"Trump":2586,"manfa":2587," WIB.\n":2588,"TNI":2589,"meninggal":2590,"enda ":2591,"ia, ":2592,"itu ":2593,"abum":2594,"yang dit":2595,"ferensi ":2596,"alia ":2597," mengg":2598,"ald":2599,"berlangsung":2600,"mencapai ":2601,"untuk ":2602," keterang":2603,"jid":2604,"optim":2605,", kata ":2606,"jah":2607,"angkat ":2608,"Re":2609,"entuk":2610,"Polda ":2611,"akim":2612,"hubung":2613," lag":2614,"ambah ":2615,"uth":2616,"inisial":2617,"bahan ":2618,"mengenai ":2619,"andingkan ":2620,"dikit":2621,"AKARTA - ":2622," Un":2623,"vei ":2624,"ARA":2625,"usung":2626,"ulkan ":2627,"45":2628," Kor":2629,"AF":2630,"lemen":2631,"ibatkan ":2632," sesu":2633," itu.\n":2634,"flik":2635,"o (":2636,"soal":2637,"lainnya ":2638,"ilu":2639,"aksanaan ":2640,"kesehatan ":2641,"entang ":2642,"sik":2643," terakhir":2644,"anggar":2645,"unitas":2646," sekit":2647,"Itu":2648,"Depok":2649," st":2650,"Hal itu":2651,"warg":2652," Sh":2653,"barang":2654,"Gedung":2655,"ajaran ":2656,"sumsi ":2657,"jumlah ":2658,"pertama ":2659,"elawan ":2660,"ekan":2661,"Rusia ":2662,"tumbuhan ":2663," Surabaya ":2664," korban ":2665," Mas":2666,"Bag":2667,"Demok":2668," di T":2669," bert":2670,"eras":2671,"Polisi ":2672,"batas":2673,"luar":2674,"mit":2675,"sementara ":2676,"Af":2677,"istiwa ":2678,"part":2679," DKI":2680," jawab":2681,"Semar":2682,"s ":2683,"bali.jpnn.com, ":2684,"aya":2685,"ungkinan ":2686,"tup":2687,"sebanyak ":2688," ke ":2689,"kebijakan ":2690,"epas":2691," di B":2692,"gelar ":2693,"UMKM":2694,"iliun":2695,"korb":2696,"ing.\n":2697,"udik":2698,"fasilitas":2699," membawa ":2700,"retaris":2701,"an di":2702,"jual":2703,"ign":2704,"ern":2705,"inasi ":2706,"ke-":2707," terd":2708,"aksim":2709,"enangkan ":2710,"inya.\n":2711," semua ":2712,"jenis":2713,"sejumlah":2714,"bisnis":2715,"\"S":2716,"co":2717,"pekan ":2718,"arapkan ":2719,"menyatakan ":2720," menerima ":2721,"PNS":2722,"yang dik":2723,"ak, ":2724,"ader":2725,"Dit":2726,"Nas":2727,"inov":2728," terjadi ":2729,"elakaan ":2730," dunia ":2731,"sed":2732,"ori ":2733,"uju ":2734,"MI":2735,"Ram":2736,"ly":2737,"namun":2738,"atasi ":2739," Mal":2740,"Gubernur":2741,"Suk":2742,"ial ":2743,"Anies":2744,"tot":2745,"akibat ":2746,"GP":2747,"kab":2748,"erm":2749,"rumah":2750,"lintas":2751,"ceh":2752,"egawai ":2753,"erasan ":2754,"iw":2755,"ilang":2756,"eluarkan ":2757," Sol":2758,"bukt":2759," Indonesia (":2760,"DP":2761,"e-":2762,"wisat":2763,"e (":2764,"akun":2765,"bagaimana ":2766,"jpnn.com - J":2767," mengatakan bahwa ":2768,"Hasil":2769," ketika ":2770," yang tidak":2771,"bahw":2772,"likasi ":2773,"IS":2774,"reg":2775,"sebagian ":2776,"Dinas":2777,"dy":2778," hasil":2779,"langkah ":2780,") meng":2781,"so":2782,"ikir":2783," ini d":2784,"elol":2785," di K":2786,"Ahmad":2787,"ihan ":2788,"aktivitas":2789,"anak ":2790,"KB":2791,"Piala ":2792,"irinya ":2793,"penj":2794,"sekaligus":2795,"anusi":2796,"kondisi ":2797," politik":2798,"Met":2799,"enerasi ":2800," Ind":2801,"itan ":2802," Widod":2803,"Hukum":2804,"kum":2805,"eran ":2806,"perm":2807,"Utara ":2808,"mantan ":2809," PPP":2810," Suk":2811,"Barat ":2812,"negara-":2813,"anon":2814,"eda ":2815," Menteri ":2816,"Rusi":2817,"menunjukkan ":2818,"unjungan ":2819,"bab":2820,"engah ":2821,"ing, ":2822,"Ab":2823," mew":2824,"engkap":2825," serangan ":2826,"io":2827,"amat":2828,"ayar":2829,"sektor":2830,"petugas":2831,"seg":2832,"gag":2833,"luas":2834," persen.\n":2835,"cukup":2836," di Stadion":2837,"RAB":2838,"yakin":2839,"untuk ber":2840," Bas":2841,"oni ":2842," Br":2843,"masalah":2844," mendorong":2845,"akar":2846,"alias":2847,"PNN":2848,"atera ":2849," rumah ":2850,"glob":2851,"aruh":2852," Trump":2853,"film":2854,"Pemilihan ":2855," seluruh":2856,"penyel":2857,"ja ":2858,"am.\n":2859," meminta ":2860,"PBB":2861,"RABAY":2862,"Indonesia (":2863,"e S":2864,"ribu":2865,"ahl":2866,"buruk":2867,"honorer":2868,"adang":2869,"awarkan ":2870,"butuhkan ":2871," dek":2872,"imbang":2873,"qu":2874,"inisi":2875,"apas":2876,"Surab":2877,"unuhan ":2878,"ula ":2879,"itur":2880," tuturnya.\n":2881,"berada di ":2882,"pukul ":2883,"panjang":2884," Indonesi":2885," agar":2886,"med":2887,"aerah":2888,"kantor":2889,"ork":2890,"indungan ":2891,"isan ":2892,"entukan ":2893,"ak.\n":2894,"embangkan ":2895,"port":2896,"a dit":2897,"Agung":2898,"Jateng":2899,"membuat ":2900,"alisasi ":2901,"uw":2902,"a B":2903,"memastikan ":2904,"ratis":2905,"kirakan ":2906,"arus":2907,"Pelatih":2908,"erd":2909,"eli ":2910,"ward":2911,"keluarga ":2912,"luar ":2913,"-orang":2914," meninggal":2915,"ayah ":2916,"Dewan ":2917,"uri ":2918," Rak":2919,"SURABAY":2920,"UMN":2921,"isal":2922," pasangan ":2923,"kelanjut":2924,"Agus":2925,"Tak":2926,"lalu ":2927,"ian":2928,"yang akan ":2929,"omor":2930," Liga ":2931,"bersam":2932," saja ":2933," pernah":2934,"Th":2935,"andara ":2936," dia, ":2937," cukup":2938,"organisasi ":2939,"Lebih":2940,"arm":2941,"amar":2942,"posisi ":2943,"..":2944,", termasuk":2945,"yang telah":2946,"irm":2947,"uti ":2948,"mengh":2949," perusahaan ":2950,"leg":2951,"o K":2952," send":2953," dip":2954,"atang.\n":2955,"Pemilu ":2956,"Oleh":2957,"AL":2958,"aan dan ":2959," dan ber":2960," pemain":2961," dia ":2962,"pern":2963,"epat":2964,"angsa ":2965,"maka ":2966,"masyarakat.\n":2967,"ER":2968,"adakan ":2969,"wisata ":2970,"elenggarakan ":2971,"TARA":2972,"utup":2973,"terp":2974,"endar":2975,"malam":2976,"dukungan ":2977,"Er":2978,"OG":2979,"ala d":2980,"El":2981,"tindakan ":2982,"a S":2983,"Setelah":2984,"teknologi ":2985,"yat":2986," Rp":2987,"oko Widod":2988,"resm":2989,"Ketua Umum":2990,"eor":2991," (P":2992,"asal dari ":2993,"pekerj":2994,"ien":2995,"sumber":2996,"Ku":2997,"Karena ":2998,"sus":2999,"aftaran ":3000," kil":3001," Utama ":3002," tah":3003,"stag":3004,"diri dari ":3005,"36":3006,"alahan ":3007," punya ":3008,"jalur":3009,"sendir":3010,"negeri ":3011,"TB":3012,"uku ":3013,"eder":3014,"AND":3015,"rah":3016,"ess":3017,"a dia ":3018,"ack":3019,"truktur":3020,"Austr":3021,"Yogy":3022,"maupun":3023,"rasa ":3024,"sisi ":3025,"ungutan ":3026," lainnya ":3027," triliun":3028,"Sebagai ":3029,"e dan ":3030,"ior":3031," Ir":3032,"ilip":3033," mengungkapkan ":3034,"tanggung":3035,"terutama ":3036,"kasih":3037,"ua, ":3038," miliar":3039,"\"B":3040,"SM":3041,"atform":3042,"laim":3043,"lembaga ":3044,", serta ":3045," mungkin":3046,"lagi ":3047,"saj":3048,"at ke":3049,"Golkar":3050,"negara-negara ":3051," bi":3052,"trateg":3053,"neger":3054,"Papua ":3055,"Ganjar":3056,"So":3057," mengh":3058,"hawatir":3059,"sangat":3060,"inerja ":3061," trans":3062,"media sosial":3063,"ayan ":3064,"angkaian ":3065,"utuskan ":3066," mengatakan, ":3067,"Pemb":3068,"luk":3069,"gub":3070," mobil":3071," penc":3072,"sejahter":3073,"ambahan ":3074,"Mahfud":3075,"Mus":3076,"dus":3077," And":3078,"kuat ":3079,"sang":3080,"mengungkapkan ":3081," meraih":3082,"ujudkan ":3083,"udian, ":3084,"isten":3085," kal":3086,"jpnn.com, JAKARTA - ":3087,"stagram":3088,"ewa ":3089,"las":3090,"video":3091," TNI":3092,"peningkatan ":3093,"semakin":3094,"u-":3095,"ihad":3096,"uhkan ":3097,"a dua ":3098,"omo":3099,"oordinasi ":3100,"jatim.jpnn.com, SURABAY":3101," Kementerian ":3102,"onald":3103,"Pj":3104,"iet":3105,"evaku":3106,"aktik":3107,"kamah ":3108,"i K":3109,"ana, ":3110,"mesk":3111," si":3112,"ulu":3113,"Setelah ":3114,"ilpres ":3115,"Banten":3116," ucapnya.\n":3117," mengenai ":3118," perlu":3119," nomor urut ":3120,"pendidikan ":3121,"Negara ":3122," adalah":3123,"dit":3124," Badan ":3125," setiap":3126,"rem":3127,"ort":3128,"ancam":3129," waktu":3130,"iat":3131," kondisi ":3132,"aktor":3133,"ahy":3134,"-s":3135," di M":3136,"ver":3137,"andar":3138," Anies":3139,"Masyarak":3140,"Gaza ":3141," mengalami ":3142," berbagai ":3143,"struk":3144,"sumen":3145," kedua ":3146,"elapan ":3147,"yang mel":3148," terjad":3149,"iapkan ":3150,"ilgub":3151,"sejak ":3152,"status":3153,"polisi ":3154,"Im":3155,"dampak":3156,"alur":3157,"tujuh":3158,"i)":3159,"ka ":3160,"alasan ":3161," kerja ":3162," Sek":3163,"aes":3164,"at dengan ":3165,"temu":3166,"Dis":3167,"ou":3168,"ak di ":3169," Kal":3170,"jadikan ":3171,"ewat ":3172," Perjuangan ":3173,"kemudian ":3174,", R":3175,"uman ":3176,"Dia men":3177,"utur":3178,"elis":3179," negara ":3180," menghadapi ":3181,"AR -":3182,"KO":3183,"Laut":3184,"aan di ":3185,"sah":3186,"in.\n":3187,"seorang ":3188," kar":3189,"olisian ":3190,"onton":3191,"anit":3192,"ewaskan ":3193," membangun":3194,"Warga ":3195,"uny":3196," saat ini ":3197,"\"T":3198,"membawa ":3199,"dis":3200,"wed":3201," pl":3202,"awang":3203,"ampus":3204,"janjian ":3205," dig":3206,"Republik":3207,"pembangunan ":3208,"TT":3209,", t":3210,"period":3211," Sen":3212," (B":3213,"keras":3214,"Sebelumnya, ":3215," sehingga ":3216,"yang dis":3217,"uy":3218,"etr":3219," Sy":3220,"antangan ":3221,"tenaga ":3222," jelasnya.\n":3223,"tanggung jawab":3224,"ungs":3225," listrik":3226,"pember":3227,"i M":3228," Sat":3229,"anfaatkan ":3230,"ferensi pers":3231,"momen":3232,"DPRD":3233,"elola ":3234," kegiatan ":3235,"38":3236," memastikan ":3237,"ajemen":3238,"ikutip":3239,"kini ":3240,"abes":3241," Mah":3242,"Sep":3243,"ingatan ":3244,"entasi ":3245,"sehat":3246,"OR":3247," Piala ":3248,"alahkan ":3249,"Undang":3250," kata di":3251,"Iran ":3252,"akan ber":3253,"ang dan ":3254," terpilih":3255,"kur":3256,"engar":3257,"mengg":3258,"Jatim":3259,"Ilustr":3260,"FC":3261,"tidak akan ":3262,"banjir":3263,"ukur":3264,"PDI":3265,"Tengg":3266,"esar":3267,"wart":3268," Par":3269,", karena ":3270,"ediakan ":3271,"alih":3272,"tubuh":3273,"ona ":3274,"Mad":3275," Joko Widod":3276,"perlu":3277,"entingan ":3278,"sipil":3279,"antaran ":3280," Kepala ":3281,"in, ":3282," saj":3283," yang dit":3284,"PBD":3285,"Dua ":3286,"ner":3287,"ruang":3288," media ":3289,"ira ":3290," Prabowo Subianto":3291,"area ":3292,"etika ":3293,"abungan ":3294,"mengatakan, ":3295," sejak":3296,"stitusi ":3297,"elek":3298," sekal":3299,"intang":3300,"CE":3301,"Dunia ":3302,"hujan ":3303,"jauh":3304,"our":3305," Am":3306,", kami ":3307,"34":3308,"37":3309,"bekerja ":3310,"undur":3311,"juang":3312,"bakal":3313,"tengah ":3314,"bon":3315,"awan.\n":3316,"samp":3317,"tewas":3318,"sebuah":3319,"ing ":3320,"jateng":3321,"sebelumnya ":3322,"ektif":3323," tanpa ":3324," di S":3325,"Bea Cukai ":3326,"Fr":3327,"alat ":3328,"am, ":3329,"500":3330,"Jika ":3331,"Nur":3332,"Rumah ":3333," kota ":3334,"esi ":3335,"pe":3336,"tokoh":3337," keterangan ":3338," membuat ":3339,"Bank":3340," kini ":3341," Kem":3342,"rastruktur":3343," gubernur":3344,"arj":3345,"at dari ":3346," Mad":3347,"basis":3348,"dagangan ":3349,"hampir":3350,"uler":3351," dalam per":3352,"apa pun":3353,"tanah ":3354,"PAS":3355," Air":3356,"jpnn.com - JAKARTA -":3357,"nant":3358,"pada hari ":3359,"Kej":3360,"memang":3361," untuk ":3362,"Gus":3363,"edik":3364,"tinggal":3365,"uta ":3366," pada hari ":3367,"berdasarkan ":3368,"adis":3369,"ekankan ":3370," Dep":3371,"Persib":3372,"uar Negeri ":3373,"perempuan ":3374,"ANDUN":3375,"akuk":3376,"inter":3377,"antasan ":3378,"unggul":3379,"kesempatan ":3380," keterangannya, ":3381," Baswed":3382,"ha ":3383,"kendaraan ":3384,"orot":3385,"lis":3386,"menjal":3387," PPPK":3388,"jateng.jpnn.com, ":3389,"land":3390,"ungai ":3391,"andatang":3392,"endal":3393,"masalah ":3394,"sekol":3395,"ine":3396,"pemeriksaan ":3397,"pertandingan ":3398,"32":3399," kemudian ":3400,"PPPK ":3401,"elesaikan ":3402,"uang ":3403,"impi":3404,"Berdasarkan ":3405,"Kapolres":3406,"uel":3407,"at d":3408," militer":3409," Ag":3410,"igital":3411,"dam":3412,"asi di ":3413,"iliki k":3414,"Kalau":3415,"ajang":3416,"60":3417,"sepert":3418,") malam.\n":3419," So":3420,"tersangk":3421," positif":3422,"elolaan ":3423,"ara.\n":3424,"amat ":3425,"roup":3426," Persib":3427,"ren":3428,"yang se":3429,"barang ":3430,"ina, ":3431,"melawan ":3432,"jatim.jpnn.com, SURABAYA -":3433,"Tahun":3434,"dapat":3435,"Gibr":3436,"laut":3437,"raf":3438,"onel":3439,"peluang":3440,"Bali United":3441,"(K":3442,"Bawas":3443,"otoGP":3444,"(T":3445,"ON":3446," bias":3447," ters":3448,"budaya ":3449,"suar":3450,", J":3451,"uru":3452,"Hal ini ":3453,"oordinator":3454," Jatim":3455,"Yang":3456,"sy":3457,"arian ":3458,"musim":3459,"ahnya ":3460,"imantan ":3461,"keter":3462," Ahmad":3463," sebuah":3464,"urahan ":3465,"integ":3466,"asuki ":3467,"sedi":3468,"onsumsi ":3469,"umlah k":3470,"aplikasi ":3471," Kar":3472," rum":3473,"kuad":3474," sebelumnya ":3475,"kumham":3476,"ema ":3477,"ama.\n":3478," poin":3479,"juga meng":3480,"pengalaman ":3481," ada di ":3482,"bek":3483,"Pes":3484,"e M":3485,"ma ":3486,"untuk mel":3487,"Anggota ":3488,"Des":3489,"berusia ":3490," di wilayah ":3491,"Kota Bandung":3492,"Sebab":3493,"balik":3494,"Biden":3495,"Ist":3496,"Ek":3497,"a dapat":3498," berhasil":3499,"I)":3500,"syar":3501," kam":3502,"ompl":3503,"buatan ":3504," tegas":3505,"ajelis":3506,"evel":3507,"produksi ":3508,"Bel":3509,"listrik":3510,"keamanan ":3511,"nya\n":3512,"Islam":3513,"okumen":3514,"Arab":3515,"erim":3516,"uddin":3517," Direktur":3518,"batasan ":3519,"anian ":3520,"adar":3521,"igh":3522,"i S":3523,"ung, ":3524,"jumlah":3525,"pejabat ":3526,"Dia mengatakan ":3527,"enaga ":3528,"ath":3529," yang mel":3530," Bal":3531," perempuan ":3532,"ian.\n":3533,"rencana ":3534,"una ":3535,"itasi ":3536,"ancis":3537,"Nov":3538,"eo":3539,"lub":3540,"ana.\n":3541,"epat ":3542,"gerak":3543,"agak":3544," Wakil":3545," tahun.\n":3546," Provinsi ":3547,"Oleh karena ":3548," tersebut, ":3549,"wakilan ":3550,"punya ":3551,"IKN":3552,"tif":3553,"Sumatera ":3554," PDIP":3555,"AP":3556,"isme":3557,"Jabar":3558,"cr":3559,"terbaik":3560," Bupati ":3561,"saja ":3562,"wajib":3563,"on-":3564,"pemilih":3565,"199":3566,"Si":3567,"gug":3568,"salah satunya ":3569,"energi ":3570,"num":3571,"titik":3572,"naik":3573," Bank":3574,"abuhan ":3575,"Berikut":3576,"ahasisw":3577,"55":3578,"yang l":3579,"Pertamina ":3580,"Ukraina ":3581,"masing-masing":3582,"TARA/":3583,"segera ":3584," dan meng":3585,"angkapan ":3586,"DEN":3587,"ailand":3588,"pirasi ":3589,"Dan ":3590,"br":3591,"ie":3592," partai ":3593,"old":3594,"awak":3595,"ebasan ":3596,"pertah":3597,"surat ":3598,"evakuasi ":3599,"Aceh":3600,"BRI":3601,"aus":3602,"kampanye":3603,"rumah sakit":3604,"cuaca ":3605,"Ilustrasi ":3606,"tindak":3607,"itu ber":3608,"atian ":3609,"ups":3610," Indonesia.\n":3611,", Rabu (":3612,"awan, ":3613,"sar":3614,"alas":3615,"keterangan ":3616," bakal":3617,"iharapkan ":3618,"pelanggaran ":3619," musim":3620,"Dir":3621," muda ":3622,"imbul":3623," yang lebih":3624,"ansy":3625,"inilai ":3626,"isik":3627,"menit":3628,"menerima ":3629," ben":3630,"anjang ":3631,"makanan ":3632,"Her":3633,"perubahan ":3634,"hadiri ":3635,"aan d":3636,"mungkin":3637,"atik":3638,"ulus":3639," yang telah":3640," Jenderal":3641,"Kemudian, ":3642,"Rakabum":3643,"target":3644,"Kemudian ":3645,"DPD":3646,"JPNN":3647,"was":3648,"uncak":3649,"ate":3650," Pend":3651,"angan.\n":3652,"tanggal ":3653,"Lebanon":3654,"DENPAS":3655,"Ibu":3656,"Mem":3657,"go":3658,"Jakarta.\n":3659," kelompok":3660,"BMKG":3661," pemerintah ":3662,"perb":3663,"melihat ":3664,"-Gibran ":3665,"semb":3666," par":3667," anggota ":3668,"lt":3669,"sedikit":3670,"idwan ":3671," Har":3672,"Kas":3673,"jelas":3674,"usak":3675,"ejab":3676,"Dik":3677,"asing":3678,"ur, ":3679,"keluarg":3680,"Rakabuming":3681,"me":3682,"temp":3683,"ayak":3684,"Tan":3685,"iring":3686," sangat ":3687," yang akan ":3688," asal":3689,"ilayah ":3690,"merasa ":3691,"UT":3692,"arur":3693,"ikm":3694,"ancaman ":3695,"pentingnya ":3696,"kan ke":3697,"bermain":3698,"oli ":3699,"inggi ":3700," FC":3701,"Lampung":3702,"The":3703,"angan, ":3704," mampu":3705,"RT":3706,", dengan ":3707,"orum":3708,"awesi ":3709," Kej":3710,"angkah ":3711,"online":3712,"M)":3713,"Rah":3714,"paling":3715,"uz":3716,"i di":3717,"pemerintahan ":3718,"mereka.\n":3719," antara ":3720,"osk":3721,"urangi ":3722," Komisi ":3723," X":3724,"IP":3725,"NA":3726," sebuah ":3727,"mengalami ":3728,"telah meng":3729,"Pul":3730,"log":3731,"ped":3732,"ministr":3733,"Meski ":3734,"iah":3735,"akup":3736,"urangan ":3737,"ini merupakan ":3738," Wali Kota ":3739,"Dew":3740,"omend":3741,"antikan ":3742,"Pengadilan ":3743,"33":3744,"rist":3745," lagi ":3746,"Pat":3747,"fin":3748,"los":3749,"mud":3750," yang t":3751," KPK":3752," anak":3753,"KS":3754,"Kerja ":3755,"mampu":3756," menilai ":3757,"anggil":3758,"tidak hanya ":3759,"NU":3760,"engah":3761,"ila ":3762," PS":3763," Nomor ":3764," pemilihan ":3765," DPR RI":3766,"bali.jpnn.com, DENPAS":3767,"sejahteraan ":3768,"upuk":3769,"bidang":3770,"ord":3771," satu ":3772,"dalam ":3773,"CC":3774,"ainya ":3775,"Kegiatan ":3776,"fit":3777," hal":3778," kecil":3779,"kontribusi ":3780,"ampingi ":3781,"sebesar ":3782,"idang ":3783,"untuk meny":3784,"Sekretaris":3785,"atnya ":3786,"is dan ":3787,"warna ":3788,"akir":3789," siap":3790," Muhammad":3791," Gar":3792,"orang-orang":3793,"sekut":3794,"po":3795,"ingkungan ":3796," rek":3797,"Korupsi ":3798,"imbulkan ":3799,"Pihak":3800,"yan":3801," Ukrain":3802,"ANDUNG -":3803,"Kab":3804,"anan, ":3805," pidana ":3806,"ometer":3807,"mendorong":3808," menjalani ":3809,"a/":3810,"alami k":3811,"ich":3812,"uru bicara ":3813,"Tang":3814,"ood":3815,"apur":3816,"untuk menc":3817," New":3818,"Beberapa ":3819,"menegaskan ":3820,"jualan ":3821,"ampion":3822,"umpang":3823,"etak":3824,"senjat":3825,"At":3826,"Be":3827,"eal":3828," dapat ":3829,"otif":3830,"manfaat ":3831,"Beg":3832,"fi ":3833,"sert":3834,"anwil":3835," man":3836,"agar ":3837,"olahr":3838,"akan mem":3839,"undang-":3840,"konom":3841,"ekstr":3842,"keputusan ":3843,"-baru ":3844,", Selasa (":3845,"ampuan ":3846,"bisa d":3847,"hof":3848," khusus":3849,"esin":3850,"pelatih":3851,"pasukan ":3852,"sesuai ":3853,"Par":3854,"kol":3855,"lasi ":3856,"Ins":3857,"emprov":3858," Gaz":3859,"ancar":3860,"Menurut dia, ":3861," kata dia.\n":3862,"Sy":3863,"an)":3864," rangka ":3865," yang dik":3866," bel":3867,"eknologi ":3868," im":3869,"Dem":3870,"kat":3871,"foto":3872,"ri, ":3873,"merik":3874,"ratusan ":3875,"Eropa ":3876,"onf":3877,"artemen":3878,"Pember":3879,"izbul":3880,"tek":3881," PP":3882," su":3883,"penyakit":3884,"pendukung":3885," Peny":3886,"BUMN":3887,"tud":3888,"untuk memper":3889,"mulai dari ":3890,"Rakabuming Rak":3891,"tidak ":3892," pemerintah":3893," Jokowi ":3894,"Jakarta Pus":3895,"migrasi ":3896,"Muhammad":3897,"kembangan ":3898,"arikan ":3899,"in T":3900,", Senin (":3901,"seusai ":3902," sebanyak ":3903,"lingkung":3904,"be":3905,"espons":3906," Den":3907,"Selama ":3908,"emokrasi ":3909,"aannya ":3910,"kerj":3911,"mcr":3912,"erit":3913,"i-lak":3914,"OA":3915," kr":3916," tambah":3917,"bakar":3918," bekerja ":3919," Dit":3920,"ambung":3921,"yang dil":3922,"yang meny":3923,"jalan dengan ":3924,"erus":3925,"bersih":3926," sekaligus":3927,"Luar Negeri ":3928,"otes":3929,"jukan ":3930," Tan":3931,"Semarang":3932,"hentikan ":3933," Abdul":3934,"an\"":3935," Se":3936," Set":3937," seusai ":3938," dia.\n":3939," Leb":3940,"menjaga ":3941," Indonesia, ":3942,"Kita ":3943,"pand":3944,"ekos":3945,"awapres":3946,"intens":3947,"lama ":3948,"rad":3949,"yang menjadi ":3950,"Riau":3951,"aker":3952," kendaraan ":3953,"jud":3954,"Meskipun":3955,"intaan ":3956,"elakang":3957,"hatian ":3958,"ia.\n":3959,", Kamis (":3960,"ebat ":3961,"ela ":3962,"idat":3963,"Gar":3964,"New":3965,"kompet":3966,"akwa ":3967," pus":3968,"Gerind":3969," pelaku":3970,"sub":3971,"urw":3972,"generasi ":3973," Mus":3974," Dr":3975,"igelar":3976," yang dis":3977,"Jokowi ":3978,"Raf":3979,"ult":3980,"abrik":3981,"proyek":3982,"Pemerint":3983,"terima kasih":3984,"CPNS":3985,"Mantan ":3986,"lir":3987,"te":3988,"ietnam":3989,"ina.\n":3990," lalu ":3991,"jadwal":3992,"yang did":3993,"torat ":3994,"ilkad":3995,"anggot":3996,"ibus":3997,"has":3998,", C":3999," segera ":4000," kesehatan ":4001,"vir":4002,"Pemkot":4003,"giz":4004,"anganan ":4005,"ore":4006,"ington":4007,"enggak":4008,"Palestina ":4009," berlangsung":4010," China ":4011,"HAM":4012,"Nomor ":4013,"aset":4014," daya ":4015,"berinisial":4016,"estiv":4017," Bali United":4018,"Filip":4019,"dan d":4020,"rud":4021,"pikir":4022,"inet":4023,"Pad":4024,"isi.\n":4025,"usul":4026,"terb":4027,"iklim":4028,"angkatan ":4029,"encatan ":4030,"pesan ":4031,"hofif":4032," menegaskan ":4033," di s":4034,"awan":4035,"udar":4036,"insip":4037," Jateng":4038,"apakah ":4039," meter":4040,"usun":4041," Bogor":4042," laporan ":4043," jauh":4044,"anksi ":4045," ditangkap":4046," PDI Perjuangan ":4047,"Oper":4048,"saksi ":4049," mod":4050,"bum":4051,"Angk":4052,"ik.\n":4053," Mand":4054," hidup":4055,"formas":4056,"sepakatan ":4057,"jabatan ":4058,"gangg":4059," mat":4060," pembangunan ":4061," Ganjar":4062,"Anak":4063," pernah ":4064,"Gunung":4065,"ur.\n":4066,"ekonomian ":4067,"indungi ":4068,"SK":4069,"y.\n":4070,"egang":4071," KPU":4072," Le":4073,"Barat, ":4074,"BBC":4075," soal":4076," Mak":4077," pada tahun ":4078,"impor":4079,"lainnya.\n":4080,"ekspor":4081,"eluarga ":4082,"48":4083,"Ge":4084," laga ":4085,"empa ":4086," kontr":4087,"asiun":4088,"Ay":4089,"en.\n":4090,"itu di":4091," period":4092,"aca ":4093,"icar":4094,"solusi ":4095,"P)":4096," untuk ber":4097,"aksaan ":4098,"negara.\n":4099,"lo":4100,"agung":4101,"tulis":4102,"39":4103,"a\"":4104," Jo":4105,"Pusat ":4106,"Utara, ":4107,"-R":4108,"HK":4109,"lih":4110,"buat k":4111,"ing di ":4112,"akan men":4113," perempu":4114,"Tengah ":4115," polisi ":4116," and":4117,"juara ":4118,"endik":4119,"Bupati ":4120,"Up":4121,"ri.\n":4122,"alifikasi ":4123,"agub":4124,"Mahkamah ":4125,"kesel":4126,"Tel":4127,"badan ":4128,"isu":4129,"urk":4130,"kapal":4131," mantan ":4132,"harusnya ":4133," disampaikan ":4134,"Gel":4135,"kan oleh":4136,"ongsor":4137," pertandingan ":4138,"Kombes":4139,"-Gibr":4140,"aham":4141,"perang":4142,"bangun":4143,"Jakarta Selatan, ":4144,", dia ":4145,"kecil":4146,"bali.jpnn.com, DENPASAR -":4147,"tabes":4148," Amerika Serik":4149,"pri":4150,"dirinya ":4151,"sedangkan ":4152,". (mcr":4153,"urunkan ":4154,"bung":4155,"tantangan ":4156,"jaringan ":4157,"enakan ":4158," termasuk":4159,"sero":4160," sejak ":4161,"III":4162," Korea ":4163,"Acara ":4164," berita ":4165,"andi ":4166,"ampak ":4167,"KOTA":4168,"AD":4169,"BK":4170,"antau":4171,"aan":4172,", yakni ":4173,"ajuk":4174,"Bali, ":4175,"arno":4176,"Demokr":4177,"angin":4178,"sebesar":4179," pekan ":4180,"berupa ":4181," pria ":4182,"idwan Kam":4183,"bo":4184,"anjung":4185,"siapan ":4186,"gerakan ":4187,"korupsi ":4188,"dip":4189,"asakan ":4190,"argetkan ":4191,"impiade":4192,"ase":4193,"keber":4194,"profes":4195,"jangan ":4196,"ikin":4197,"jadw":4198,"anggapi ":4199,"wilayah":4200,"ya.\n":4201,"ulauan ":4202," ditemukan ":4203,"platform":4204,"Pram":4205,"Raya ":4206," dini ":4207,"itra ":4208,"etapan ":4209,"ontoh":4210,"Malay":4211,"Trans":4212,"lapangan ":4213," melaporkan ":4214," gram":4215,"Erop":4216,"DPP":4217,"Tok":4218,"inaan ":4219,"berat ":4220,"untuk memb":4221,"aju ":4222,"penelit":4223,"inggu ":4224," Fr":4225,"Kasus":4226,"atat ":4227," di kawasan ":4228,"HO":4229,"ai-":4230,"uter":4231,"arang ":4232," pak":4233,"iman ":4234,"ke ":4235," dan men":4236,"ampilan ":4237,"ainkan ":4238,"anja ":4239,"Umum (":4240,"gar":4241,"lahan ":4242,"emon":4243," berada di ":4244," pernyataan ":4245," memilih":4246,"hukuman ":4247,"jamin":4248,"pam":4249,"apangan ":4250,"eklar":4251,"ajuan ":4252,"elenggaraan ":4253,"Nat":4254,"menilai ":4255,"ini ber":4256,"meraih":4257,"ubungan ":4258,"past":4259,"biaya ":4260,"at\n":4261," boleh":4262," yang meny":4263,"oknum":4264,"ubah ":4265,"annya di ":4266,"oalisi ":4267,"indo":4268,"sekarang":4269,"Dia menjelaskan ":4270,"tetapi juga ":4271," air":4272,"enagak":4273,"us.\n":4274," berharap":4275,"telah men":4276,"peserta ":4277,"enagakerj":4278,"Koordinator":4279,"tam":4280,"erman ":4281,"adem":4282,"buah k":4283,"etak ":4284," berd":4285,"Kalimantan ":4286,"Oleh karena itu, ":4287,")\",":4288,", Jumat (":4289,"isi, ":4290,"bupat":4291," Bea Cukai ":4292," Nasional":4293,"calon ":4294," datang":4295,"pernyataan ":4296,"awatan ":4297,"eduk":4298,"umpul":4299,"jateng.jpnn.com, S":4300,"KOTA B":4301," bulan ":4302,"a?\n":4303,"tingkat ":4304,"anan dan ":4305,"ulu ":4306,"arti ":4307,"tron":4308," II":4309,"evalu":4310,"kenalkan ":4311," sekitar":4312,"inovasi ":4313,"ialah ":4314,"bernama ":4315,"akta ":4316,"-Mahfud":4317,"47":4318,"PAN":4319,"atusan ":4320,"terim":4321,"Perdana ":4322,"ashington":4323," Negeri ":4324,"ompleks":4325,"isu ":4326,"iksa ":4327," salah sat":4328,"ukar":4329,"reskrim":4330,"siapkan ":4331,"\"Ini ":4332,"Bang":4333,"guru ":4334," kor":4335," pendidikan ":4336," Semarang":4337,"Sus":4338," korb":4339," menit":4340," di L":4341,"egah ":4342," lama ":4343,"acam":4344," mendatang.\n":4345,"irmasi ":4346,"capaian ":4347,"iskin":4348,"Idul":4349,"lor":4350,"esm":4351," kont":4352,"Jawa Tengah ":4353,"jabar.jpnn.com, KOTA B":4354,"egah":4355," Meng":4356," person":4357,"seles":4358,"ive":4359,"airan ":4360,"tema ":4361,"\"M":4362,"a:":4363,"anita ":4364,", pada ":4365," banyak ":4366,"a dia, ":4367,"benarnya ":4368,"Melalui ":4369,"situasi ":4370,"s.\n":4371,"Informasi ":4372,"irektorat ":4373,"abila ":4374," Pran":4375,"eda motor":4376,"yanto":4377,"atangan ":4378," maju":4379," di seluruh":4380,"sesuai dengan ":4381,"Sud":4382,"milik":4383,"ahir":4384,"baru, ":4385,"Pemkab":4386," Pemerintah ":4387,"ektabilitas":4388," Pertamina ":4389,"RS":4390,"iter":4391,"ilah ":4392," di J":4393," sebesar ":4394,"Intern":4395," Center":4396," dibandingkan ":4397,"hilangan ":4398," keluarga ":4399,"Masyarakat ":4400,"44":4401,"Mo":4402,"membangun":4403," kot":4404,"agn":4405,"ech":4406,"yakini ":4407,"kak":4408,"angan":4409,"Selatan.\n":4410," Solo":4411,"Humas":4412,"Seorang":4413,"sal":4414,"ua.\n":4415,"ekat ":4416,"endag":4417,"ubung":4418,"idwan Kamil":4419,"ema":4420,"uma ":4421,"embakan ":4422,"Ari":4423,"Seh":4424,"ge":4425,", seperti ":4426," pet":4427," membuka ":4428,"unggu":4429,"Ed":4430,"Wali Kota ":4431,"ier":4432,"ingat ":4433,"i, K":4434,"arto":4435,"capres":4436,"bawah":4437,"sendiri ":4438,"cel":4439,"ontr":4440,"i dua ":4441," kejadian ":4442,"sosok":4443," DKI Jakarta ":4444,"pertahankan ":4445,"wenang":4446,"atlet":4447,"intern":4448,"perjalanan ":4449,"omentar":4450,"Wakil Ketua ":4451,"jahatan ":4452,"luka ":4453,"intu":4454,"igasi ":4455," daerah ":4456,"investasi ":4457,"Med":4458,", meng":4459,"ah dengan ":4460," di Kota ":4461," di Jakarta, ":4462," Oktober":4463,"Bek":4464,"On":4465,"PO":4466,"wujud":4467,"elompok":4468," pemilih":4469,"in Ta":4470,"Ekonom":4471,"TV":4472,"by":4473,"masa d":4474," melihat ":4475,"pertemuan ":4476,"igun":4477,"kepala ":4478,"hidupan ":4479,"menemukan ":4480," Humas":4481," pertam":4482,"Hast":4483," masa ":4484,"isl":4485,"yang bisa ":4486,"uhaim":4487," Rusia ":4488," melaksanakan ":4489," yang dilakukan ":4490,"Semarang, ":4491,"Pos":4492,"Sal":4493,"ido":4494,"terdapat ":4495," unit":4496,"KA":4497,"mahasiswa ":4498,"analis":4499,"icu":4500," mendapat ":4501,"ungkinkan ":4502,"data ":4503,"langga ":4504,"at pada ":4505,"itu tidak":4506,"ondisi ":4507,"elenggara ":4508,"apatan ":4509,"ite":4510,"ayan, ":4511,"operasional":4512,"iriman ":4513,"70":4514,"Amerika ":4515," depan ":4516," Surab":4517,"skor ":4518,"leb":4519,"lantas":4520,"uasa ":4521,"AKBP":4522,"Kelurahan ":4523,"a dik":4524,"ayat ":4525,"ect":4526,"risiko":4527,", s":4528,"pemilihan ":4529,"Kesehatan ":4530," ungkapnya.\n":4531,"infrastruktur":4532,"Su":4533,"bencana ":4534,"lus":4535," pul":4536," memenuhi ":4537,"ice":4538," mereka.\n":4539,"total":4540,"gul":4541,"lakukan ":4542,"sia ":4543,"i J":4544," bal":4545," Met":4546,"pelayanan ":4547,"jatuh":4548,"Harga ":4549,"sekutif":4550,"gen":4551,"iaga ":4552,"o dan ":4553,"amad":4554," (I":4555,"pada tahun ":4556,"membuka ":4557,"penggunaan ":4558,"pekerja ":4559,"Jepang":4560,"EMAR":4561,"Yogyakarta ":4562,"Ma":4563,"u dan ":4564,", L":4565," lok":4566," keputusan ":4567,"terus ber":4568,"ampilkan ":4569,"janji ":4570,"ff":4571,"fitur":4572," med":4573,"ish":4574,"isir":4575," hal ":4576,"abu-s":4577,"berlanjut":4578,"abu-sabu":4579,"hak ":4580,"nomor":4581,"oga ":4582,"wast":4583,"terj":4584,"esak":4585,"menambahkan ":4586,"PKS":4587," dirinya ":4588,"Jawa Barat, ":4589,"narkoba ":4590,"strategis":4591,"abis":4592,"konflik":4593,"atas ":4594,"ugian ":4595," yang dil":4596,"terhadap ":4597," kemarin":4598," Pemilu ":4599,"49":4600,"Grup":4601,"iak":4602," menggelar":4603," U-":4604,"Kalau ":4605,"Undang-":4606,"ps":4607,"ra, ":4608,"ational":4609," suara ":4610,"keaman":4611,"sekolah ":4612," pember":4613,"at penting":4614,"unjungi ":4615,"berjalan ":4616,"iri, ":4617,"entar":4618," En":4619,"emikian, ":4620,"ight":4621,"Korban ":4622,"unda ":4623," The":4624,"onald Trump":4625,"o S":4626,"esu":4627,"urunan ":4628,"ida ":4629,"awal ":4630,"efektif":4631,"Surabaya, ":4632,"Bat":4633,"poin":4634,"akaran ":4635,"itor":4636," Nur":4637,"etahui, ":4638,"at-":4639,"kejadian ":4640,"ance":4641,"puluhan ":4642,"ribuan ":4643,"56":4644,"usn":4645,"aksud":4646,"Tetap":4647,"ld":4648,"angani ":4649,"adik":4650,"uhaimin":4651,"yong":4652,"ani, ":4653,"akuan ":4654,"pengguna ":4655,"paslon":4656," Polri ":4657," nama ":4658,"horm":4659,"kurang":4660,"lindungan ":4661,"my":4662,"amai ":4663,"perusah":4664,"keuangan ":4665,"edakan ":4666," memang":4667,"PKB":4668,"58":4669,"Pembangunan ":4670,"sebar":4671,"orter":4672," Award":4673," lima ":4674," digunakan ":4675,"penghargaan ":4676,"Pemain":4677," lebih dari ":4678," orang.\n":4679," menyebutkan ":4680," imbuh":4681,"on.\n":4682," Res":4683,"ompol":4684,"pilihan ":4685," Pus":4686,"ANTARA/":4687,"sebab":4688,"percaya ":4689,"Keh":4690,"kit":4691,"tapi ":4692," Banten":4693,"tidak bisa ":4694,"istan ":4695,"pesial":4696," ASN":4697,"cuaca di ":4698,"Mul":4699,"Petugas":4700,"akw":4701,"ikap":4702,"ayaran ":4703," Jep":4704," El":4705,"untung":4706," Depok":4707,"!\n":4708,"mew":4709,"yang k":4710,"imulai ":4711," Or":4712," film":4713,"Prabowo Subianto":4714,"46":4715,"inst":4716,"ifikan ":4717,"ancang":4718,"jawab":4719,"idat ":4720,", kem":4721,"aerah.\n":4722,"untuk meningkatkan ":4723,"iskus":4724,") pada ":4725,"Kek":4726,"pany":4727,"uklir":4728," mendapat":4729," Angg":4730," calon":4731,"Riz":4732,"en, ":4733,"esain":4734," Pak":4735," bola ":4736,"acar":4737,"kej":4738," Di":4739," untuk meny":4740,"pertany":4741,"hasilkan ":4742,"ignifikan ":4743," kilometer":4744,"periode":4745,"akrab":4746," menarik":4747," suar":4748,"etany":4749,"a-sama ":4750,"Sebanyak ":4751,"ini di":4752," bisnis":4753,"Kedua ":4754,"MPR":4755,"bank":4756," di Indonesia ":4757,"indari ":4758,"tidak ber":4759,"yang dapat":4760,"ustru":4761," Sup":4762," DPP":4763,"angkit":4764," penuh":4765,", kat":4766,"astik":4767," Ek":4768," al":4769,"-benar":4770,"US":4771,"iq":4772,"lad":4773,"mata ":4774,"sempat":4775,"aktiv":4776,"ester":4777," Dir":4778,"saing":4779,"lebih banyak":4780,"yang sudah":4781,"Harris":4782,"rakyat ":4783,"Apa ":4784,"ian dan ":4785,"lay":4786,"ogj":4787," Nas":4788,"sikap":4789,"urit":4790,"portasi ":4791,"erbangan ":4792," sesuai dengan ":4793,"Tenggara ":4794," bul":4795,"AH":4796,"Hend":4797,"Sing":4798," kur":4799," PSI":4800," Im":4801,"unggulan ":4802,"makin":4803,"Sed":4804,"s, ":4805,"on, ":4806,"menghadapi ":4807," Er":4808,"Sam":4809,"abut":4810,"sidang":4811," PBB":4812,"a di d":4813,"ansir":4814,"lebih lanjut":4815,"unggu ":4816,"inyatakan ":4817,"akibatkan ":4818," pemerintahan ":4819," tinggi ":4820,"aesang":4821,"Uni ":4822,"kemanusi":4823,"hamdul":4824,"bk":4825,"ahami ":4826," perm":4827,"hadiran ":4828,"undang-undang":4829,"panyol":4830,"rel":4831,"orld":4832," seorang":4833,"pengaruh":4834,"ketiga ":4835," mencari ":4836,"Sulawesi ":4837,"BS":4838,"LN":4839,"VOA":4840,"kunjungan ":4841," mil":4842,"onis":4843,"a dib":4844,"jpnn.com, B":4845,"Polri ":4846,"Bandara ":4847,"Ken":4848," Sal":4849," mengikuti ":4850,"seksu":4851,"penyidik":4852," pelaku ":4853,"ilegal":4854,"e Biden":4855," personel":4856," di Jalan ":4857," AK":4858,"saks":4859,"asinya ":4860,"ahan di ":4861," petugas":4862,"ini juga ":4863,"hari.\n":4864,"ano":4865," sama ":4866,"ujuk":4867,"komunitas":4868," musik":4869,"Hart":4870,"bad":4871,"gedung":4872,"a (":4873," dr":4874,"ital":4875," tewas":4876,"selalu":4877,"opuler":4878,"khususnya ":4879,"partisipasi ":4880,"igunakan ":4881,"42":4882,"Rek":4883," Pap":4884," City":4885,"menyer":4886,"kekerasan ":4887,"BT":4888,"si, ":4889," dukungan ":4890," medi":4891," Seb":4892," luas":4893,"43":4894," Daerah ":4895,"ode":4896,"lalu.\n":4897,"hitungan ":4898,"KM":4899,"PA":4900,"putusan ":4901,"ur ":4902," yang menjadi ":4903," jam":4904,"Indonesia":4905,"Semua ":4906,"emikian ":4907,"yang baik":4908,"perempu":4909,"umpulkan ":4910,"terlib":4911,"ibat dalam":4912,"59":4913,"Lembaga ":4914,"ee":4915,"rand":4916,"as.\n":4917," dengan d":4918," Kr":4919,"ayap":4920,"al C":4921,"kemungkinan ":4922,"arkir":4923,"Pertahanan ":4924,"egawati ":4925,"Perdana Menteri ":4926,"nanti ":4927,"terbesar":4928,"itud":4929,"Instagram":4930,"ayu ":4931,"memilih":4932,"kons":4933,"Dia menyebut":4934,"gantung":4935,"babak":4936,"meskipun":4937,"Hizbul":4938,"Pasal":4939," memberi ":4940,"pengg":4941,"e Y":4942,"aring":4943,"teror":4944,"olusi ":4945,"menyebabkan ":4946," pemimpin":4947,"pelaksanaan ":4948,"evisi ":4949,"Sumsel":4950,"hakim":4951,"ship":4952," sekitar ":4953,"ian d":4954,"erapkan ":4955,"ah R":4956,"menteri ":4957,"Internasional":4958,"nasab":4959," sesuai ":4960," jadi ":4961,"di d":4962," penyel":4963,"klus":4964,"Ada beberapa ":4965,"terjadi di ":4966," Pranowo":4967,"Bah":4968,"Hotel":4969,"libur":4970,"sulit":4971,"memberi ":4972,"i kami ":4973,"300":4974,"apten":4975,"prinsip":4976,"Selain itu":4977,"DPR RI":4978,"rutin":4979," dunia.\n":4980,"ikmati ":4981,"Pemberantasan ":4982,"kolaborasi ":4983,"a dil":4984,"tidaknya ":4985," merasa ":4986,"global":4987,"omendasi ":4988,"Film":4989,"kos":4990," ken":4991,"pertumbuhan ":4992," (S":4993,"pada Senin (":4994," kata B":4995,"nasional ":4996,"oroti ":4997,"Ng":4998,"jo":4999,"yang paling":5000," Budi ":5001,"di mana ":5002,"i kem":5003,"Ketika ":5004,"temu dengan ":5005,"57":5006,"Hingga ":5007,"IM":5008,"uluh":5009," beg":5010," Kam":5011,"Industr":5012,"ingkat k":5013," internasional":5014,"hari ini ":5015," di Pilkada ":5016,"apolres":5017,"ohonan ":5018," '":5019,"ah ke":5020,"ahli ":5021,"ada, ":5022,"huj":5023,"mil":5024,"seng":5025,"antren":5026,"cepat":5027,"udian d":5028,"administr":5029,"Kepala B":5030," Manag":5031,"Amerik":5032,"ID":5033,"LO":5034,"Vietnam":5035,"cur":5036,"gin":5037,"berkomitmen":5038,"pelangg":5039,"risti":5040,"urnalis":5041,"klaim":5042,"PDIP":5043,"ekstrem":5044,"bay":5045,"gencatan ":5046," menemukan ":5047,"pria ":5048,"efisi":5049,"entuan ":5050," peserta ":5051,"JPNN.com":5052,"ekosistem":5053,"y, ":5054,"agama ":5055,"ayoritas":5056,"Serangan ":5057," miliar.\n":5058," mud":5059," menuju ":5060," perc":5061,"ibadi ":5062," menyer":5063," menjalankan ":5064,"41":5065,"Asi":5066,"kannya ":5067,"yai ":5068," Ked":5069,"andra ":5070,"Keuangan ":5071," jika ":5072," kebijakan ":5073,"Az":5074,"latihan ":5075,"mudah":5076,", Kecamatan ":5077,"akan menjadi ":5078," laut":5079," menjelang":5080,"EMARANG -":5081,"HUT":5082,"faktor":5083," (T":5084,"melaporkan ":5085,"aksana ":5086,"kont":5087,"Solo":5088,"muda ":5089,"oe":5090,"sesi ":5091,"80":5092,"U-":5093,"UP":5094,"aaf":5095," mau":5096,"yang juga ":5097,"urusan ":5098," mengungkap":5099,"egak":5100,"anto, ":5101,"ander":5102," Rah":5103,"kerja sama ":5104,"Wal":5105,"bias":5106,"ino":5107,"peristiwa ":5108,"manusia ":5109," lalu, ":5110," Timnas Indonesia ":5111,"hamdulill":5112,"iany":5113,"kader":5114,"oro":5115,"oman ":5116," di Indonesia.\n":5117,"anya di ":5118,"ayangkan ":5119,"Bagi ":5120,"DO":5121,"ering":5122," muncul":5123,"angkut":5124," Group":5125," mendatang":5126,"ANG":5127,"kalangan ":5128," Palest":5129,"fokus pada ":5130,"lalu lintas":5131,"EAN":5132,"elektabilitas":5133," lokasi ":5134,"unggal":5135,"narkob":5136,") yang":5137,"DKI":5138,"ogram":5139,"90":5140,"Jan":5141,"UR":5142,"aritas":5143," Jabar":5144,"empatkan ":5145,"Kes":5146,"rokok":5147,"ah\n":5148,"yang harus":5149,"ing-masing":5150," pertemuan ":5151,"insiden":5152,"Bawaslu ":5153,"Sakit":5154,"anan.\n":5155,"imig":5156,"angkutan ":5157,"anggilan ":5158," selalu":5159,"irimkan ":5160,"cara d":5161,"Korupsi (":5162,"Ex":5163,"gratis":5164,"muncul":5165,"si.\n":5166," dah":5167,"a dan d":5168," dic":5169,"entunya ":5170," kata D":5171,"ucapkan ":5172,"begitu":5173,", sehingga ":5174,"perkirakan ":5175," tenaga ":5176," terp":5177," pelaksanaan ":5178,"evaluasi ":5179,"JS":5180,"dil":5181,"erse":5182,"berb":5183,"yang r":5184," Sul":5185,"ajam":5186,"pengembangan ":5187,"istis":5188,"menciptakan ":5189,"identitas":5190," tambahnya.\n":5191,"ue":5192,"tuan ":5193,"antong":5194,"Peg":5195,"Sup":5196,"Washington":5197,"ce":5198,"sup":5199,"berita ":5200," situ":5201,"kalau":5202,"Presiden Joko Widod":5203,"51":5204,"Ker":5205,"rid":5206,"opsi ":5207," kepala d":5208,"komunikasi ":5209,"menjelang":5210,"eriksa ":5211,"Timnas Indonesia ":5212,"Pemilihan Umum (":5213,"Soek":5214,"kinerja ":5215,"an:":5216,"menghadirkan ":5217," Rusi":5218,"konsumen":5219,"baru-baru ":5220,"Direktur Utama ":5221,"Denpas":5222,"Metro":5223,"Jakarta Pusat, ":5224,"Operasi ":5225,"dang ":5226,"erita ":5227," Pres":5228," di G":5229," di antaranya ":5230,"untuk melakukan ":5231,"osok":5232,"Keamanan ":5233,"Penj":5234,"Pasal ":5235,"orneo":5236,"ES":5237,"bil":5238,"lit":5239,"emuk":5240,"epend":5241,"ofis":5242,"personel":5243,"kecelakaan ":5244,"Salah satu ":5245,"Bul":5246,"lom":5247,"outh":5248,", Kabupaten":5249," di dalam":5250," untuk memb":5251,"uncuran ":5252,"Secara ":5253," sendiri ":5254,"CEO":5255,"CO":5256,"ound":5257,"pada Kamis (":5258,"sering":5259,"antul":5260,"baik.\n":5261," depan.\n":5262,"prioritas":5263,"Bad":5264,"bantu":5265,"fungsi ":5266,"kemen":5267,"annya":5268,"a M":5269,"yang merupakan ":5270,"akan di":5271,"ando":5272,"an H":5273," di bawah ":5274," mengumumkan ":5275,"otom":5276," Ben":5277,"i di k":5278,"menggelar":5279,"respons":5280," pembunuhan ":5281,"met":5282,"tudi ":5283,"berg":5284," Pang":5285,"ombang":5286,"uduh":5287," Hamas":5288,"Seti":5289," sejumlah ":5290," Jakarta, ":5291,"penyelidikan ":5292,"gizi ":5293," utama ":5294,"Id":5295,"nar":5296,"zona ":5297," kemenangan ":5298,"itr":5299,"agang":5300,"asti ":5301," menciptakan ":5302,"orang tua ":5303,"idikan, ":5304," Kemenkumham":5305,"tentang ":5306,"arahan ":5307,"unik":5308,"ung.\n":5309," Slem":5310," Jaya ":5311," Gib":5312,"eberap":5313,"istri ":5314,"Prof":5315,"punyai ":5316," Ketua Umum":5317,"Jawa Tengah, ":5318,"sil":5319,"berbed":5320,"udin":5321,"antisipasi ":5322,"nasional.\n":5323,"tumbuh":5324,"sebaya ":5325," mewujudkan ":5326,"adam":5327,"orpor":5328,"edar":5329,"Persero":5330," tahun, ":5331," Ex":5332," konferensi pers":5333,"an-tem":5334,"wakil presiden":5335," kesempatan ":5336," survei ":5337,"Ramad":5338," Baswedan ":5339,"barang bukti ":5340,"Arab Sa":5341,"akul":5342,"terpilih":5343," kapal":5344,"ominasi ":5345,"endak":5346,"endara ":5347," pengembangan ":5348,"ungutan suara ":5349," AKBP":5350,"Okto":5351,"nel":5352,"pimpin":5353,"anjutnya ":5354,"masyarakat, ":5355,"kekuatan ":5356,"uaca ":5357,"KT":5358,"kul":5359,"akter":5360,"itim":5361,"perjanjian ":5362,"ketua ":5363,"anti":5364," Austr":5365,"awa ke":5366,"yang dir":5367,"bukaan ":5368,"Ters":5369,"Sosial":5370,"fisik":5371,"hut":5372,"iau":5373,"er.\n":5374,"iti ":5375,"abel":5376,"kesejahteraan ":5377," menghadirkan ":5378," WI":5379,"lain, ":5380," tulis":5381,"pesawat ":5382,"catat ":5383,"tiket":5384," wilayah ":5385,": ":5386,"oa ":5387,"angi ":5388,"peroleh":5389," bantuan ":5390,"ongres":5391,"tusias":5392,"Co":5393,"ari, ":5394,"atis":5395,"asuh":5396," data ":5397,"antang":5398," Re":5399,"yang terjad":5400,"hal itu":5401,"Pemberantasan Korupsi (":5402,"52":5403,"atan dan ":5404,"berusaha ":5405,"olos":5406,"ung K":5407,"perkara ":5408," tentang ":5409,"ancarkan ":5410,"energ":5411,"53":5412,"mur":5413,"rag":5414,"adin":5415," dan mem":5416,"pada Rabu (":5417,"harapan ":5418,"negara, ":5419,"Irjen":5420," Putih":5421,"akiraan ":5422,"79":5423," kemen":5424," Ju":5425,"annya dengan ":5426,"Produk":5427,"stitut":5428,"tangan ":5429," sangat":5430,"ini adalah ":5431," untuk memper":5432,"ertai ":5433,"Pasangan ":5434," Kombes":5435,"Salah satu":5436,"tingkat":5437,"ahal":5438,"edaran ":5439," disebut":5440,"pertimbang":5441," kata R":5442,"aksikan ":5443,"yang dim":5444,"Bali.\n":5445,"percayaan ":5446,"Orang":5447,"Akan ":5448,"KPP":5449,"hel":5450,"ulangan ":5451," tahun itu":5452,"total ":5453,"sumber daya ":5454,"jadwalkan ":5455,"Pemberantasan Korupsi (KPK":5456,"erapan ":5457," pot":5458,"seleksi ":5459,"satunya ":5460,"Tidak ada ":5461," bukan ":5462,"tampil":5463,"peringatan ":5464," Af":5465,"ayani ":5466,"artin":5467,"University":5468,"limat":5469,"no":5470,"at dalam":5471,", Sabtu (":5472,"aman, ":5473,"elasan ":5474,"yang masih":5475," berdasarkan ":5476,"eja ":5477,"reatif":5478,"ondok":5479,"parlemen":5480,"avid":5481,"Emil":5482,"uturkan ":5483,"menit ke-":5484,"PI":5485,"osisi ":5486,"selain":5487,"sekali ":5488," penj":5489,"ibu kota ":5490,"Bak":5491,"iam":5492,"aleg":5493,"agenda ":5494,"oblos":5495,"satuan ":5496," lainnya.\n":5497,"langkah":5498,"tahap":5499,"menjalani ":5500,"AC":5501,"ph":5502,"pejab":5503,", menurut":5504,"ing dan ":5505,"awan di ":5506,"ini menjadi ":5507,"prom":5508," naik":5509,"bakal ":5510,"cepat ":5511,"lagu ":5512,"Nusa ":5513," Pendidikan ":5514,"Jenderal":5515,"Pasar":5516,"mon":5517,"pec":5518,"vs":5519," sementara ":5520,"Tai":5521,"non-":5522,", Minggu (":5523,"ikel":5524,"iro":5525,"pada Selasa (":5526," York":5527,"namen":5528,"Hal tersebut":5529,"Nusantara ":5530,"EK":5531,"ka":5532,"pon":5533," demi ":5534,"ternyata ":5535," untuk mel":5536,"pemilik":5537," Gun":5538," Iskand":5539,"ebritas":5540," sekitar pukul ":5541," Metro":5542," for":5543,"Militer":5544,"a'":5545,"bebas":5546,"ebar":5547,"tember":5548,"aksimal":5549,"hij":5550,"lantaran ":5551,"wi ":5552,"iburan ":5553,"Dia juga ":5554,"mendapat":5555,"mendapat ":5556,"kepala d":5557,"Meteor":5558,"Australi":5559,"Ben":5560,"Yud":5561,"sanksi ":5562," pag":5563,"itkan ":5564,"ektar":5565,"hari-":5566," semakin":5567,"ihadiri ":5568," upaya ":5569,"RW":5570,"hati ":5571,"iwa ":5572,"lip":5573,"misi ":5574,"rika ":5575,"tol":5576,"arg":5577,"inar":5578," kurang":5579,"ekatan ":5580,"mengungkap":5581,"ibuan ":5582,"klusif":5583,"ofisika ":5584,"mengaku ":5585," Ger":5586,"kepada para ":5587," Angk":5588," hari ini, ":5589,"perlukan ":5590,"inisial ":5591,"as, ":5592,"elang ":5593,"pemilu ":5594," yang did":5595," telah meng":5596," yang sudah":5597,"Pemilihan Umum (KPU":5598,"use":5599,"agal":5600,"ak I":5601,"SDM":5602,"Kelompok":5603,"akan.\n":5604,"aman.\n":5605,"esir":5606," PKB":5607,"elahiran ":5608,"kenaikan ":5609,"mitra ":5610,"gagal":5611,"Lebih lanjut":5612," Universitas":5613,"Ev":5614,"usakan ":5615," sistem":5616," Kel":5617,"ok.\n":5618," (C":5619,"ograf":5620,"sepeda motor":5621,"pembel":5622,"Sejumlah ":5623,"A)":5624,"Kot":5625,"laman ":5626,"ns":5627,"ring":5628,"andan ":5629," ditemu":5630,"kapas":5631,"pasangan calon":5632,"hitung":5633," benar":5634,"orneo FC":5635,"Mir":5636,"jajaran ":5637," tindakan ":5638," Com":5639,"praktik":5640,"kritik":5641,"yang sangat ":5642,"alifikasi Piala ":5643,"idoarj":5644,"Kim":5645,"longsor":5646,"wen":5647,"er, ":5648,"tutup":5649," kampanye":5650,"iling":5651,"ek ":5652,"undup":5653,"aiman":5654," juta.\n":5655,"jm":5656," mudah":5657,"andeng":5658," memimpin":5659,"ajah ":5660," invest":5661,"sant":5662,"angan d":5663," Bidang":5664,"pada Jumat (":5665,"melanjutkan ":5666,"implem":5667,"Palestin":5668,"OGY":5669,"Australia ":5670," tersangka ":5671,"Geofisika ":5672,"ulis":5673," kebutuhan ":5674,"empur":5675,"melibatkan ":5676,"imbau":5677,"gugatan ":5678,"limatolog":5679,"kapasitas":5680,"54":5681,"PM":5682,"Us":5683,"asaran ":5684," yang l":5685," terang":5686,"anya":5687," pada Senin (":5688,"manusi":5689,"mainan ":5690," diduga ":5691,"olahraga ":5692,"Gerindra ":5693,"akultas":5694,"-b":5695,"coba ":5696,"iar":5697,"pimpinan ":5698,"ement":5699," part":5700,"ayasan ":5701," layanan ":5702," pada Rabu (":5703," menyiapkan ":5704," kata S":5705,"erdek":5706,"edukasi ":5707,"BC":5708," makin":5709,"ekat":5710,"iri.\n":5711,"a dip":5712,"abul":5713,"turnamen":5714," penghargaan ":5715,"lain.\n":5716,"kepentingan ":5717,"TPS":5718,", yaitu":5719,"beragam":5720," Paris":5721,"itu juga ":5722," SAR":5723,"embag":5724," Ker":5725,"ajang ":5726," UU":5727," kemungkinan ":5728,"positif":5729,"Fer":5730,"kembal":5731,"inan ":5732,", H":5733," pada Kamis (":5734," Nus":5735," kata M":5736," ketiga ":5737," masuk ke":5738,"ah dari ":5739,"iday":5740," di C":5741,"Perempuan ":5742,"sehatan, ":5743,"strategi ":5744,"tuduhan ":5745,"Demokrat ":5746,"ead":5747,"amatkan ":5748,"tert":5749,"umur":5750,"icu ":5751,"i karena ":5752,"tahun terakhir":5753," yang dapat":5754,"Sekjen":5755,"uru B":5756,"guru":5757,"Abdul":5758,"Dr":5759,"Pilpres ":5760,"nomor urut ":5761,"sukses":5762,"irikan ":5763,"ong.\n":5764,"serv":5765,"Art":5766,"hawatiran ":5767,"pernah":5768,"DE":5769,"isi dan ":5770,"apabila ":5771,"abrak":5772," ini":5773,"Politik":5774,"aturah":5775,"yang terjadi ":5776," diketahui ":5777,"baru.\n":5778,"o (Jokow":5779,"Thailand":5780,"Pl":5781,"cawapres":5782,"mart":5783,"inal ":5784,"usulkan ":5785," sosial":5786," Jadi ":5787,"negara bagian ":5788,"suam":5789,"ampanye ":5790,"juga di":5791,"ella ":5792,"ision":5793," yang se":5794,"untuk memberikan ":5795," Kec":5796,"mengikuti ":5797,"empat k":5798," kata J":5799,"akhiri ":5800,"pekerjaan ":5801,"tronik":5802,"Emas":5803,"gubernur":5804,"terutam":5805,"oneg":5806," perusah":5807,"telah mem":5808,"kemampuan ":5809,"ampaknya ":5810,"imbol":5811,"enal sebagai ":5812,"identifikasi ":5813,"Pasalnya, ":5814,"jelang":5815,"tertulis":5816," tel":5817,"osen":5818,"auz":5819," seleksi ":5820,"Keputusan ":5821,"sembilan ":5822," periode ":5823,"enagakerjaan ":5824,"ax":5825," ped":5826," bersam":5827," BRI":5828,"andar ":5829," hampir":5830,"event":5831,"antara lain":5832,"dusen":5833,"(S":5834,"Tinggi ":5835,"bekerj":5836,"pangan ":5837,"ritas":5838,"adi, ":5839," sil":5840," terbaik":5841,"Inf":5842,"ijen":5843,"Pria ":5844," bisa di":5845,"andatangani ":5846,"onfirmasi ":5847,"Ric":5848,"der":5849,"alurkan ":5850,"ikTok":5851," MD":5852,"masalahan ":5853," pada Selasa (":5854," pertama kal":5855,"permintaan ":5856,"Budi ":5857,"FI":5858,"Forum":5859,"HP":5860," mesk":5861,"ito":5862," di k":5863,"abang":5864," mengambil":5865," Ari":5866," pertumbuhan ":5867,"angkalan ":5868,"oster":5869,"ubsid":5870," masing-masing":5871,"serius":5872,"yang sudah ":5873,"uasai ":5874,"soal ":5875,") Kota ":5876,"Giany":5877,"Khusus":5878,"tambahan ":5879,"aman dan ":5880," Pes":5881," (J":5882,"musik":5883," Partai Golkar":5884,"guruan ":5885," Pasal ":5886,"segala ":5887,"ft":5888,"umat ":5889,"menuju ":5890,"abr":5891," banjir":5892," Mul":5893," menyebabkan ":5894,"predik":5895,"Pendidikan ":5896,"uyur":5897,"gempa ":5898,"entr":5899,"ihak ":5900,"embatan ":5901," sep":5902,"menyel":5903," kateg":5904,"unjuk r":5905,"Timur T":5906," makanan ":5907," WITA":5908,"MS":5909,"YOGY":5910,"ony":5911,"utr":5912," Gol":5913," UMKM":5914," tum":5915,".,":5916,"berupaya ":5917,"ace":5918,"ambil ":5919,"ancasil":5920," nark":5921,"bahwa d":5922,"quez":5923,"Dar":5924,"Dip":5925,"mat ":5926,"pegawai ":5927,"antusias":5928,"ada.\n":5929,"agikan ":5930," tempat":5931,"ab]\n":5932," Be":5933," Dis":5934," Hal":5935," Hari ":5936,"Kepulauan ":5937,"mencari ":5938,"erimaan ":5939,"Bud":5940,"Sar":5941,"uters":5942,"wali ":5943,"et.\n":5944,"egara ":5945,"Sumber":5946," Trans":5947,"ban ":5948,"juru bicara ":5949," dok":5950,"ahan, ":5951,"unjukan ":5952,"kan di ":5953," Pemb":5954," yang juga ":5955," At":5956," hakim":5957,"tidak ter":5958,"Terkait":5959,"Saat":5960,"terdakwa ":5961," akhirnya ":5962,"berikut":5963,"us, ":5964," strateg":5965," Wilayah ":5966,"ovasi ":5967,"Konstitusi ":5968,"ema FC":5969,"emonstr":5970,"Pemprov":5971,"tegas":5972,"vok":5973,"att":5974," nant":5975,"eriksa":5976,"Apr":5977,"jak":5978,"medi":5979,"pis":5980,"ual":5981,"aspek":5982," pasar":5983,"yang belum":5984,"kesepakatan ":5985," mengaku ":5986," hit":5987,"anyi ":5988," gabungan ":5989,"tarif":5990,") dini ":5991,"Pimpinan ":5992,"berkelanjut":5993," kembal":5994," yang merupakan ":5995," Kon":5996," proyek":5997," sekol":5998,"Calon Gubernur":5999," tahap":6000," biasa ":6001,"Jangan ":6002,"iat ":6003,"ena ":6004,", men":6005,"eleg":6006,"ah ber":6007,"abar ":6008," Su":6009,"epon":6010,"edi ":6011,"apa yang":6012,"arena d":6013,"ohir":6014,"unci ":6015,"hal yang":6016,"lasemen":6017,"endikbud":6018," juga d":6019,") ber":6020,"Kampung":6021,"Sim":6022,"pan":6023,", Jakarta, ":6024," pernyat":6025,"ijing":6026," sering":6027," Timur":6028,"buktikan ":6029,"ampionship":6030,"rudal":6031,"Laporan ":6032,"PG":6033,"aun":6034,"sih":6035,"oran ":6036,"bahaya ":6037,"asa hukum":6038,"Ik":6039,"komp":6040,"makan ":6041,"nil":6042,"aringan ":6043,"amil":6044,"isiko":6045," di Kabupaten":6046,"iongk":6047," rak":6048," kepentingan ":6049,"ugikan ":6050,"akti ":6051," paslon":6052,"ompetisi ":6053,"Ah":6054,"arang, ":6055,"asur":6056,"utaan ":6057,"jpnn.com, P":6058," tidak hanya ":6059," mendaftar":6060,"reen":6061,"perlindungan ":6062,"AFF":6063,"Eks":6064," ingin":6065,"\"D":6066,"bol":6067,"rata ":6068,"eri":6069,"angan di ":6070,"yang memiliki ":6071,"egakan ":6072," Keb":6073,"bagi k":6074," jalan ":6075,"bisa meng":6076,"sekitar pukul ":6077,"Kabupaten Bogor":6078,"tindak pidana ":6079," alias":6080,"Lingkungan ":6081,"kemenangan ":6082,"khawatir":6083,"top":6084," pejabat ":6085," bekerj":6086,"antah ":6087," diberikan ":6088," Raf":6089,"al L":6090,"independ":6091,"at, dan ":6092,"jalan":6093,"kemarin":6094," ditetapkan ":6095,"arkas":6096,"tujui ":6097,"ariwisata ":6098," masyarakat":6099,"Olimpiade":6100,"tahu ":6101,"Shin Ta":6102,"emaah ":6103,") s":6104,"jasa ":6105,"visi ":6106,"vey":6107,"ata, ":6108,"ikro":6109," Ay":6110," kepolisian ":6111,"ivid":6112,"pora ":6113," pasukan ":6114,"Has":6115,"Wak":6116,"org":6117,"umber":6118," Az":6119,"Int":6120,"tidak meng":6121," jen":6122," telah men":6123,"Surat ":6124," produksi ":6125,"Jo":6126,"Tol":6127,"aki ":6128," publik":6129,"andera ":6130," memutuskan ":6131,"melaksanakan ":6132," tidak ada ":6133," juga meng":6134,"penjara ":6135,"pertimbangkan ":6136,"-tahun":6137,"Penc":6138,"SR":6139,"nuklir":6140,"tahu":6141," sedikit":6142,"jpnn.com - ":6143,"Masjid":6144," Negara ":6145," Palembang":6146,"OGOR":6147,"negeri.\n":6148,"anitia ":6149,"idato":6150," Makass":6151,"Layanan ":6152,"bintang":6153,"jang":6154,"judi ":6155,"saling":6156," samp":6157,"ulung":6158," sebesar":6159,"ebaskan ":6160,"ayu":6161," meluncurkan ":6162," kepem":6163,"iver":6164," Umum":6165,"Agama ":6166,"Putih":6167,"Begini ":6168," Q":6169,"rs":6170,"adap":6171," panas":6172,"Invest":6173,"ampu ":6174," keamanan ":6175,"Peraturan ":6176,"akarta, ":6177," pemeriksaan ":6178,"warga negara ":6179," Prof":6180,"untuk memastikan ":6181,"BBM":6182," putih":6183," kilogram":6184,"alifikasi Piala Dunia ":6185,"kulit":6186,"lapor":6187,"perhatian ":6188," di p":6189," Me":6190,"resik":6191,"intar":6192,"mendatang":6193,"penyebab":6194,"efek":6195,"Prancis":6196,"Palembang":6197,"iyah ":6198,"Banyak":6199,"atan d":6200," din":6201,"embus":6202,"bergabung":6203," sambung":6204,"India ":6205," Car":6206,"lebih baik":6207," menjawab":6208," katanya ":6209,"Tangerang":6210,"Kr":6211," Mem":6212," Mel":6213,"meluncurkan ":6214,"ower":6215,"pol PP":6216,"bagi para ":6217," persen dari ":6218,"pembunuhan ":6219," Islam":6220,"Malang":6221,"ouT":6222,"jabar.jpnn.com, KOTA BANDUNG -":6223,"Tapi ":6224,"mesin":6225,"ataan ":6226,"isi di ":6227," di D":6228," Ac":6229," perjalanan ":6230,"selatan ":6231,"Alhamdulill":6232,"embalikan ":6233,"Malaysi":6234,"lang":6235," putusan ":6236,"yang sedang":6237,"ing T":6238," terbesar":6239,"Proses":6240,"Marc":6241,"Gaza.\n":6242," lanjutnya.\n":6243," terus ber":6244," Polresta ":6245,"Saat ini ":6246,"begitu, ":6247,"oskow":6248,"Nik":6249,"akai ":6250,"is Solo":6251,"ut.\n":6252," Bad":6253,"ost":6254,"ibat ":6255," akan meng":6256,"penduduk":6257,"Israel.\n":6258,"off":6259,"pekan ke-":6260," pasangan calon":6261,"judul":6262,"/ab]\n":6263,"setidaknya ":6264,"menangkap":6265,"sepanjang":6266,"Gaza, ":6267,"IV":6268,"panj":6269,"pop":6270,"at pen":6271," kelas":6272," tempat ":6273," (K":6274," (M":6275,"entak ":6276,"riy":6277," Program":6278,"hatikan ":6279,"aktivis":6280,"Ngur":6281,"erat ":6282," berusia ":6283,"i dil":6284," Dinas":6285," Polisi ":6286,"gambarkan ":6287,"berdampak":6288," bersih":6289,"inerg":6290,"China, ":6291,"BI":6292,"unsur":6293," sidang":6294,"abad":6295,"otan ":6296,"ujung":6297,"yang diberikan ":6298,"timur":6299," penyidik":6300," Jawa Timur":6301,"Riau ":6302,"isalnya ":6303," Joe Biden":6304,"aq":6305,"aud":6306,"taw":6307,", hingga ":6308," to":6309,"inggung":6310,"selam":6311,"pertam":6312,"Indonesia di ":6313,"Denpasar":6314," Juanda ":6315,"Tanjung":6316,"ais":6317,"final":6318,"isnis":6319,"a dis":6320," the":6321," sepanjang":6322,"intai ":6323,"individ":6324," kata K":6325,"senior":6326,"Senayan, ":6327,"pasar ":6328," kepala ":6329," ins":6330," yang dim":6331,"jenaz":6332,"Roh":6333,"mand":6334,"ahuan ":6335,"onda ":6336,"awit":6337,"itutup":6338,"otika ":6339," dengan meng":6340,"opir":6341,"estasi ":6342,"warga sipil":6343,"bangunan ":6344,"korups":6345,"i-laki ":6346,"75":6347,"Usah":6348,"Wis":6349,"a.jpnn.com, ":6350,"vensi ":6351," sang":6352," rend":6353,"pendaftaran ":6354,"SUD":6355,"teknolog":6356,"berhasilan ":6357,"Tiga ":6358," mudik":6359,"esh":6360,"kepem":6361," Kapten":6362,"indik":6363,"pertahanan ":6364,"sekutu":6365,"protes":6366,"ologi, K":6367,"Sumber ":6368,"iskusi ":6369,"Salah satunya ":6370,"Sebab, ":6371,"aan dari ":6372,"etul":6373," pagi ":6374,"perdana ":6375,"etan ":6376,"lebih ":6377,"Barat.\n":6378,"inginkan ":6379,"aripada ":6380,"wartawan ":6381,"ologi, Klimatolog":6382,"Hanya ":6383,"perkembangan ":6384," sempat":6385," dan M":6386,"pelatihan ":6387,"ohn":6388," mencoba ":6389,"oordinasi dengan ":6390,"Car":6391,"Hidup":6392,"Ny":6393,"Yo":6394,"mahasisw":6395,"ahaman ":6396,"kan dengan ":6397," kawasan ":6398,"utara ":6399," tangg":6400," menghadiri ":6401,"tris":6402,"aerah di ":6403,"geled":6404,"anker":6405,"Pelabuhan ":6406,"Wakil Presiden":6407,"Meteorologi, Klimatolog":6408,"\"P":6409,"ahu ":6410," menangkap":6411,"kepol":6412," sepert":6413," Med":6414," WIB, ":6415,"ivisi ":6416,"semangat ":6417," fokus":6418,"abat sebagai ":6419,"Apal":6420,"adisional":6421,"-satunya ":6422,"bend":6423,"anam":6424,"ak-":6425,"sedia ":6426,"agi":6427,"menekankan ":6428,"omest":6429,"abarkan ":6430," perubahan ":6431,"ampur":6432,"abur":6433,", khusus":6434," kematian ":6435,"Sejak":6436,"media sosial.\n":6437," kategori ":6438,"-M":6439,"bangs":6440,"oalan ":6441,"tanda ":6442," mur":6443,"eboh":6444,"memimpin":6445,"pemilu":6446," Has":6447," dilaporkan ":6448,"Kapolda ":6449,"EL":6450,"FA":6451,"Kat":6452,"jiw":6453,"mot":6454," bahkan ":6455,"ros":6456,"ajer":6457,"klub":6458,"rekomendasi ":6459,"BMKG Juanda ":6460,"Had":6461,"It":6462,"Irak":6463,"aid":6464,"aan dengan ":6465,"yukur":6466,"isah ":6467," kantor":6468,"jadi d":6469,"act":6470,"ohammad":6471," pelatih":6472,"Ener":6473," Dr.":6474,"gangguan ":6475,"Tersangka ":6476,"daerah ":6477,"rapat":6478,"tor ":6479,"ani.\n":6480,"asa.\n":6481,"asyarak":6482," motor":6483,"sebuah k":6484,"aper":6485,"idasi ":6486,"irok":6487,"angkau":6488,"iputi ":6489,"saat k":6490,"bahwa mereka ":6491,"elaskan, ":6492,"karya ":6493,"lokal":6494,"hal tersebut":6495,"bukan hanya ":6496," Thohir":6497,"...":6498,"New York":6499,"terima kasih kepada ":6500,"Pang":6501,"Ridwan Kamil":6502,"iah.\n":6503,"rangkaian ":6504,"yang akan d":6505," yang akan d":6506,"upacara ":6507,"pada Sabtu (":6508," Ro":6509,"ivitas":6510,"tahun-tahun":6511," Instagram":6512," dapat di":6513,"lobal":6514," Mandiri ":6515,"Apar":6516,"Mod":6517,"ghan":6518,"sukar":6519,"esar ":6520,"agen":6521," menambahkan ":6522," bebas":6523," bentuk":6524,"andai ":6525,"abumi ":6526,"ak ada ":6527,"DIY":6528,"unia.\n":6529,"ategori ":6530,"ganisasi ":6531,"Bantuan ":6532,"Capres":6533,"erahan ":6534,"entan ":6535,"enteng":6536," pada Jumat (":6537," peningkatan ":6538,"wakil ":6539,"144":6540,"Balai ":6541," Asia ":6542,"YOGYAKARTA -":6543,"Festiv":6544,"Pres":6545,"atr":6546,"ink":6547," pri":6548,"apitu":6549,"ireb":6550," bernama ":6551,"alui k":6552,"a-rata ":6553," melakukan peng":6554,"minim":6555,") untuk":6556,"DB":6557,"Suh":6558,"gaji ":6559,"laku":6560,"emar":6561," makan ":6562,"usuf":6563,"angkal":6564,"penjualan ":6565,"Menko":6566," konflik":6567," mencakup":6568,"sesuatu ":6569,"untutan ":6570,"epas dari ":6571," Piala Asia ":6572,"-B":6573,"pajak":6574,"alk":6575,"perdam":6576,"kesehat":6577,"jpnn.com, JAKARTA - PT":6578," hari.\n":6579,"berdayaan ":6580,"Departemen":6581,"ATO":6582," terjadi di ":6583,"Langkah ":6584,"epi ":6585," Riz":6586," dengan skor ":6587," Her":6588,"obatan ":6589," guna ":6590,"yang disebut":6591,"kary":6592," tuju":6593,"i dalam ":6594,"Dewi ":6595,"etanyahu":6596," Gibran ":6597,"jm]\n":6598,"Kanwil":6599,"dan":6600,", G":6601,"emisi ":6602,"at Res":6603," di per":6604,"u T":6605," Bek":6606," Ku":6607," sepak":6608,"rob":6609," keber":6610," Co":6611,"198":6612,"ick Thohir":6613,"logistik":6614,"Cuaca ":6615,"Khofif":6616,"iapan ":6617,"sang ":6618," des":6619,"perg":6620,"Ketum":6621,"Perusahaan ":6622,"bukan":6623,"siun":6624," yang berlangsung":6625,"Pelaku":6626,"yang telah ":6627," keluarg":6628,"Amerika Serikat ":6629,"Pj Gubernur":6630,"OGOR -":6631," umum":6632,"beras":6633,"nya sebagai ":6634," berwenang":6635," dalam k":6636,"asilitas":6637,"ariwisat":6638,"Atas":6639,"IC":6640,"La":6641,"Pekan":6642,"Ratusan ":6643,"gkap":6644,", F":6645," Ram":6646,"uasaan ":6647,". (antar":6648,"iau ":6649,"jogj":6650,"norm":6651,"out":6652,"ve":6653,"seseorang":6654,"itis":6655," di atas":6656,"abet":6657,"nya dalam":6658," Dewan ":6659,"angku":6660,"anggulangan ":6661,"197":6662,"S Slem":6663," mahasiswa ":6664,"apus":6665,"itemukan ":6666," sabu-sabu":6667,"ukul":6668," dan B":6669," (D":6670,"menyediakan ":6671,"sija ":6672,"orang tu":6673,"Saat ini, ":6674,"Rakabuming Raka ":6675,"uhaimin Iskand":6676,"N ":6677,"hy":6678,"sis":6679,"tata ":6680,"uning":6681," pekerj":6682," dalam keterangan ":6683,"info":6684,"ura United":6685,"Sedangkan ":6686,"Me":6687,"Min":6688,"Malam":6689,"siswa ":6690,"es.\n":6691,"kehadiran ":6692," perang":6693," perkara ":6694," Jalan ":6695,"eco":6696,"ulitan ":6697," minim":6698," rumah sakit":6699,"Muslim":6700,"Istana ":6701,"HR":6702,"Mulai ":6703,"ini\n":6704,"unya, ":6705,"berit":6706," dan T":6707," tertentu":6708,"ayam":6709,"jogja.jpnn.com, ":6710,"minggu ":6711,"rep":6712," tinggal":6713," melanjutkan ":6714," Nat":6715," kata H":6716," pemilu ":6717,"TAN":6718,"eceh":6719,"hasil ":6720," yang dir":6721,"manajemen":6722,"raky":6723,"aniayaan ":6724," kecelakaan ":6725,"Upaya ":6726,"Pilgub":6727,"hotel":6728,"lewat ":6729,"mul":6730,"ringan ":6731,"informas":6732,"ukuran ":6733," Bel":6734," Kantor":6735," menyambut":6736,"Pernyataan ":6737,"pasien":6738,"ekspl":6739,"mencoba ":6740,"i, dan Geofisika ":6741,"izinkan ":6742,"catatan ":6743," Jakarta.\n":6744,"islatif":6745,"(PP":6746,"I -":6747,"hid":6748,"pokok":6749,"ahap":6750,"seger":6751,"terbuka ":6752,"one":6753,"yang ada di ":6754,"a-tib":6755,"Utara.\n":6756," Merah ":6757,"Tanah ":6758,"Rud":6759,"RUU":6760,"ael":6761," menang":6762," Daya ":6763,"ajian ":6764," Rumah ":6765,"ica ":6766,"Undang ":6767," ini merupakan ":6768,"Pengawas":6769," pendaftaran ":6770,"Di sisi ":6771,"integritas":6772,"Diketahui, ":6773,"profesional":6774,"\"Jadi, ":6775,"Le":6776,"kampus":6777,"mor":6778,", N":6779,"ahi ":6780,"terbaru ":6781,"umb":6782," Pasar":6783,"an dan d":6784,"entara, ":6785,"ajak ":6786,"tersebut ber":6787," penelit":6788,"ivasi ":6789," baru.\n":6790,"berkembang":6791,"terjadinya ":6792,"Reuters":6793," Ukraina ":6794,"jateng.jpnn.com, SEMARANG -":6795,"KAB":6796,"Sub":6797,"ne":6798,"tes":6799,"atuh":6800," daftar":6801," Pram":6802," di mana ":6803,"ajurit":6804,"Seperti ":6805,"imbangan ":6806," Arif":6807,"Solo, ":6808,"Daerah (":6809,"lihatkan ":6810,"Idulfit":6811,"Meteorologi, Klimatologi, dan Geofisika ":6812,"asasi ":6813,"itamin":6814,"urian ":6815,"ir.\n":6816," menurut":6817," PN":6818," bang":6819," yang sedang":6820,"ebaran ":6821,"angkat":6822," dalam keterangannya, ":6823,"tersebut di":6824,"hari ini, ":6825," kons":6826,"menyebutkan ":6827,"iongkok":6828,"99":6829,"Bencana ":6830,"DM":6831,"K -":6832,"Pam":6833,"Vir":6834,"WNA":6835,"iper":6836,"pabrik":6837," pegawai ":6838," dan k":6839,"itu akan ":6840,"Indonesia dan ":6841," lebih ":6842,"Presiden Jokowi ":6843,"rone":6844,"Sebagian ":6845,"inisiatif":6846,"meski ":6847,"CPNS ":6848,"grup":6849,"lat":6850,", ada ":6851,"ah d":6852,"menarik":6853,"ulusan ":6854,"awar":6855,"oleh para ":6856,"provinsi ":6857,"op ":6858,"keduanya ":6859,"AFP":6860,"sebesar Rp ":6861,"promos":6862,"Wid":6863,"eam":6864,"rus":6865,"ang-":6866,"sebenarnya ":6867," sert":6868,"204":6869,"mengambil":6870," memenangkan ":6871,"penurunan ":6872,"pengunjung":6873,"buku ":6874," Ed":6875,"Jawa Barat.\n":6876,"Bany":6877,"dib":6878,"onny":6879," TPS":6880,"ibuk":6881," Anda ":6882,"gelam":6883," yang digelar":6884,"sosial ":6885," Intern":6886,"survei ":6887,"Aksi ":6888,"elektronik":6889,"ristek":6890,", kata dia, ":6891," resmi ":6892,"Wilayah ":6893,"beb":6894,"maaf":6895,"pil":6896,"it.\n":6897,"olar":6898,"ekad":6899,"menang":6900,"utar":6901,"anti-":6902,"edul":6903," dalam meng":6904,"ongkar":6905,"pasti ":6906,"ambahkan, ":6907,"ock":6908," DPRD":6909,"olaborasi dengan ":6910,"Karya ":6911,"Turk":6912,"gaya ":6913,"pond":6914,"app":6915,"yang kami ":6916,"olitik":6917,"eklaim":6918,"akan terus":6919," tib":6920,"egar":6921," membu":6922," untuk memberikan ":6923,"pengelolaan ":6924," ram":6925,"lebih dah":6926,"150":6927,"minuman ":6928,"persoalan ":6929,"henti ":6930,"gantikan ":6931,"aftar ":6932,"struksi ":6933,":\n":6934,"mun":6935,"berasal dari ":6936,"okert":6937,"tahun ini ":6938," Ol":6939," Prabowo-Gibr":6940," untuk meningkatkan ":6941,"Ngurah R":6942,"\"Untuk":6943,"Paus":6944,"puncak":6945," me":6946,"et, ":6947,"resif":6948,"intel":6949," April":6950,"ipta ":6951,"sebagian besar":6952," Papua ":6953,"Cik":6954,"aka ":6955,"untuk mer":6956,"epatan ":6957,"ketidak":6958,"terdampak":6959," diharapkan ":6960,"situs":6961," nasional":6962,"'s":6963,"KU":6964,"Kur":6965,"TS":6966,"hewan ":6967,"pilkada ":6968,"si di ":6969,"tra ":6970,"bahasa ":6971," judi ":6972," penumpang":6973,"kre":6974," percaya ":6975,"Jaya ":6976,"sad":6977,"ingati ":6978,"ut ":6979,"ull":6980," Sam":6981," mengajak":6982," berinisial":6983," AKP":6984," Kasus":6985,"indahan ":6986,"konsep":6987,"siang":6988," persen, ":6989,"berlakukan ":6990,"cerita ":6991," komitmen":6992," res":6993,"ua d":6994,"awah ":6995,"nya dengan ":6996," dari Partai ":6997," pada Sabtu (":6998," pada Minggu (":6999,"pengawas":7000,"jalankan ":7001,"lainnya, ":7002,"istribus":7003,"wakil gubernur":7004,"fasilitasi ":7005,"sedur":7006," salah satu":7007,"esmikan ":7008,"ansir dari ":7009,"Belum":7010,"Kan":7011,"N)":7012,"hanc":7013,"kelas":7014," mar":7015,"terk":7016," dan S":7017," Min":7018," pada laga ":7019,"esta ":7020," tubuh":7021," truk":7022,"inspirasi ":7023," kerap":7024,"Airlangga ":7025,"wisatawan ":7026,"GM":7027,"Jam":7028,"Mobil":7029,"Zul":7030,"aan-":7031,"garis":7032,"ji ":7033," der":7034," kand":7035,"agu":7036,"menuju":7037,"menawarkan ":7038," MotoGP":7039," memiliki k":7040,"ogistik":7041,"ong, ":7042,", ketika ":7043,"ersial":7044," penduduk":7045,"keseluruh":7046,"bunga ":7047,"Industri ":7048,"D)":7049,"Ip":7050,"belakang":7051,"amen":7052,"elih":7053," pan":7054," Desa ":7055,"ewati ":7056,"opi ":7057,"forma ":7058," ujar K":7059,"istribusi ":7060,"air.\n":7061,"inginan ":7062,"Setiap":7063,"Sekolah ":7064,"yang ingin":7065,"paket":7066," bagus":7067," Kaltim":7068,"Pulau ":7069,"\".":7070,"EV":7071,"Ro":7072,"ao":7073,"jaga ":7074,"simbol":7075,"als":7076,"ahan":7077,"elemen":7078,"umahan ":7079," seh":7080," lantaran ":7081," Jul":7082,"over":7083,"kalau ":7084,"Kepala Dinas":7085," sekali ":7086,"sosialisasi ":7087,"setemp":7088,"ingkatnya ":7089,"okumentasi ":7090,"luar negeri ":7091,"eklarasi ":7092,"Hakim":7093,"LHK":7094,"WF":7095," Bat":7096," leg":7097,"empuh":7098,"owo, ":7099,"untuk mendukung":7100,"Manusia ":7101,"ignifik":7102,"a. [":7103,"dugaan ":7104,"hum":7105,"adisi ":7106,"tual":7107," dan P":7108,"pada Minggu (":7109," jal":7110,"teman-tem":7111," Pemilihan ":7112,"Masih":7113,"sendiri.\n":7114,"400":7115,"Muda ":7116,"pap":7117,"al-":7118,"alau":7119,"adari ":7120,"awasi ":7121," Besar":7122,"artis":7123," Republik":7124," penyakit":7125," Id":7126," tidak ber":7127," Kesehatan ":7128,"apakah":7129,"optimistis":7130,"Patra ":7131," turun":7132,"Jumlah ":7133,"belah":7134,"beberap":7135,"grat":7136,"maju":7137,"tentara ":7138,"atan":7139," dinilai ":7140," pilih":7141,"oll":7142,"olisi":7143," di Jakarta ":7144," Ap":7145," Tang":7146," untuk melakukan ":7147,"ence":7148," mencatat ":7149,"indaklanjut":7150," tahu ":7151," begitu":7152," Angkatan ":7153,"Keluarga ":7154,"Majelis":7155,"UI":7156,"a/jpnn)\n":7157,"her":7158,"wad":7159," dokter":7160,"ikan.\n":7161," dan R":7162," Ket":7163,"epor":7164,"warn":7165,"ector":7166," Jawa Tengah ":7167,"tiba di ":7168," menyatakan bahwa ":7169," Agung":7170,"ai-nilai ":7171,"(D":7172,"/jm]\n":7173,"bangsa ":7174,"jag":7175,"pidana ":7176," mana ":7177,"aging":7178,"idaritas":7179," titik":7180,"awanan ":7181,"eguh":7182," Bi":7183,"ibit":7184," menyel":7185,"wargan":7186,"AKP":7187,"alahgunaan ":7188,"ASEAN":7189,"yakn":7190," selam":7191,"kaitan dengan ":7192,"membahas":7193,"Dalam ":7194,"akili ":7195,"Menteri Luar Negeri ":7196,"transaksi ":7197," untuk mendukung":7198,"Afrika ":7199,"awak medi":7200,"Sri ":7201,"atap":7202,"awancar":7203," belakang":7204," Sant":7205," terbaru ":7206,"memiliki k":7207," menyerahkan ":7208,"ugas":7209,"ipta, ":7210,"emui ":7211,"Fauz":7212,"Situ":7213,"rend":7214,"asal ":7215,"isampaikan ":7216," kabupaten":7217,"yang p":7218,"iket":7219,"umbang":7220," Aceh":7221,"ajar ":7222,"ogja ":7223," pemilu":7224," Politik":7225,"baiki ":7226,"an dalam ":7227," vs":7228,"Korea Utara ":7229,"intensitas":7230,"selesai ":7231,"Tuju":7232,"hi":7233,"jul":7234,"ster":7235,"uat ":7236," kit":7237," tem":7238,"tren":7239,"AN -":7240,"umuman ":7241,"awalnya ":7242,"Putri ":7243,"model":7244,"perbaikan ":7245,"eritakan ":7246,"MotoGP":7247,"alap":7248," pekerja ":7249,"menimbulkan ":7250," ton":7251," Bud":7252," Hukum":7253,"ong K":7254,"Indonesia\n":7255," disk":7256,"apolda ":7257,"putra ":7258," bagaimana ":7259,"endikbudristek":7260,"justru":7261,"tut":7262,"imul":7263,"perawatan ":7264," yang bisa ":7265," AN":7266,"ini meng":7267,"telah di":7268,"yang berada di ":7269," dilakuk":7270," tanah ":7271," Selatan ":7272,"EA":7273,"Gen":7274,"LB":7275,"fakta ":7276,"ania ":7277,"adj":7278," kenc":7279,"perdagangan ":7280,"antung":7281,"Meny":7282," III":7283," Forum":7284," saat k":7285,"Penghargaan ":7286," Kota Bogor":7287," surat ":7288,"arurat ":7289,"Bh":7290,"ear":7291,"y S":7292,", saya ":7293,"aluran ":7294,"olik":7295,"ution":7296," mengetahui ":7297,"i dik":7298,"edak":7299,"suas":7300,"250":7301,"linken":7302,"sepak bola ":7303,"embako":7304,"Rusia, ":7305," Kejaksaan ":7306,"betul":7307," Anggota ":7308,"Mahasiswa ":7309,"emudi ":7310," menuju":7311," sat":7312," tampil":7313,"keuang":7314,"egahan ":7315," keadaan ":7316," menyediakan ":7317,"ico":7318,"ambangan ":7319,"ambang ":7320,"tarik":7321,"sehatan.\n":7322,"Israel dan ":7323," Marquez":7324," video":7325,"aterai ":7326,"Pengadilan Negeri ":7327,"Kabid":7328,"AZ":7329,"Apak":7330,"Bukan ":7331,"Kondisi ":7332,"Lapas":7333,"Megawati ":7334,"YouT":7335,"contoh":7336,"vent":7337,"akan melakukan ":7338," Pl":7339,"menolak":7340," Sing":7341,"i di d":7342,"iban ":7343,"menyambut":7344," sektor":7345,"putr":7346," dimulai ":7347,"ikutip dari ":7348,"Filipina ":7349,"BBC New":7350,"Hasto":7351,"omestik":7352,"jogja.jpnn.com, YOGYAKARTA -":7353,"Ok":7354,"dasar":7355,"di dalam":7356,"win":7357,"are":7358,"amu ":7359," menetapkan ":7360," tahu":7361," tambah ":7362,"abib":7363," Gus":7364,"obat ":7365,"hadapan ":7366,"ansial":7367,"tetapi, ":7368," Oper":7369," yang sudah ":7370,"struktur":7371,"bakal calon":7372,"?\"":7373,"K)":7374,"Lalu ":7375,"TO":7376,"sisw":7377,"es, ":7378," Purw":7379,"empati ":7380,"orang.\n":7381,"erintahkan ":7382,"kerugian ":7383," Baru ":7384,"hilang":7385,"saja, ":7386,"L ":7387,"ianj":7388,"tet":7389,"terbukti ":7390,"id.\n":7391," dan tidak":7392,"udang":7393,"rop":7394,"pen ":7395,"sejauh":7396,"Kota Bogor":7397,"yang digelar":7398," kasus dugaan ":7399,"petani ":7400,"Agustus":7401,"etak gol":7402," Pusat ":7403,"rs]\n":7404,"(Kemen":7405,"Yayasan ":7406,"level":7407,"iss":7408,"isaris":7409,"tertentu":7410,"ulu, ":7411," KU":7412,"membuat":7413," membahas":7414,"ejak":7415,"siapa ":7416,"ternatif":7417,"emokras":7418,"adirkan ":7419,"inergi ":7420,"dusif":7421,"oskop":7422,"Tetapi ":7423,"erdekaan ":7424,"Februari ":7425,"Juli ":7426,"jumlah k":7427,", namun":7428,"peraturan ":7429,"ihat k":7430," hektar":7431,"ifat ":7432," tidak akan ":7433," masalah ":7434,"ansos":7435," profes":7436,"untungan ":7437,"Ramadan ":7438,"Nusa Tenggara ":7439," utam":7440,"Far":7441,"suh":7442,"asar ":7443,"idur":7444,"imewa ":7445," tangan ":7446," mengalahkan ":7447,"Ini\n":7448,"membu":7449,"membutuhkan ":7450,"auf":7451,"negatif":7452,"standar":7453,"yang berlangsung":7454," tetapi ":7455,"Putra ":7456,"Gedung Putih":7457," Sekretaris":7458,"-H":7459,"Bidang":7460,"EC":7461,"ahan.\n":7462," pimpinan ":7463," yang memiliki ":7464,"mengumumkan ":7465,"senang":7466,"pribad":7467," disapa ":7468,"Keduanya ":7469," posisi ":7470,"pemberian ":7471," Garuda ":7472,"Pemilihan Umum (KPU)":7473,"GI":7474,"Leg":7475,"ah/":7476,"ada":7477,"umni ":7478,"kejahatan ":7479," menggelar ":7480,"otong":7481," bermain":7482,"aya\n":7483," World":7484,"pendapat":7485,"PSI":7486," lain.\n":7487,"ilmu":7488,"bedaan ":7489," Akbar":7490,"Korea Selatan ":7491,"EMB":7492,"ibadah ":7493,"Nasional ":7494,"ERANG -":7495,"Imam":7496,"pastikan ":7497,". (antara/jpnn)\n":7498,"Lag":7499,"netr":7500,"ool":7501,"si dan ":7502,"berakhir":7503,"ekor":7504," Pos":7505,"antau ":7506," Bus":7507," lak":7508," menyelesaikan ":7509,"Andi ":7510,"196":7511,"Semoga ":7512," harga ":7513," Jawa Barat ":7514,"investor":7515,"hal ini ":7516,"Surabaya.\n":7517,"fi Ahmad":7518,"HO-":7519,"masa dep":7520,"Persero)":7521,"Besar":7522,"Eri ":7523,"Wahy":7524,"iun":7525,"skuad":7526,"ven":7527,"akadem":7528,"isinya ":7529,"yang cukup":7530,"perbatasan ":7531," yang masih":7532,"untuk membantu":7533,"andy":7534,"anyakan ":7535,"Seluruh":7536," Con":7537," pengelolaan ":7538,"konten":7539," pertanding":7540,"Pertanian ":7541,"meninggalkan ":7542," Manager":7543,"promosikan ":7544,"Spanyol":7545,"jas":7546,", dalam":7547,"amer":7548,"univers":7549,"is (":7550,"apal ":7551,"ono, ":7552,"abe":7553," yang ada di ":7554," mengamankan ":7555," mengapresiasi ":7556,"pengurus":7557," mengatakan pihaknya ":7558,"Kota Depok":7559,"Jadwal":7560,"yang dilakukan oleh":7561,"alur Gaz":7562,"Bawaslu":7563,"tekanan ":7564,"Denpasar, ":7565,"78":7566,"PC":7567,"fr":7568,"hi ":7569,"ermin":7570,"ati, ":7571,"atasan ":7572," menolak":7573,"persiapan ":7574," mengingatkan ":7575," luar ":7576," member":7577,"ift":7578," dalam rangka ":7579,"selis":7580,"ungkas":7581,"Polsek":7582,"Prabowo-Gibr":7583," meninggalkan ":7584,"SMK":7585,"Zak":7586,"iness":7587,", Jakarta ":7588,"ahar":7589,"us ":7590,"usulan ":7591," Pidana ":7592,"perwakilan ":7593,"ulau ":7594,"awi ":7595," Sab":7596,"memutuskan ":7597,"oso":7598,"Perjanjian ":7599,"ijaya ":7600,"Dalam Negeri ":7601," lainnya, ":7602,"Sumut":7603," masyarakat.\n":7604,"SIS":7605,"ombok":7606,"online.\n":7607,"kemanusiaan ":7608,"tuan rumah ":7609,"Data ":7610,"Go":7611,"Niaga ":7612,"mar ":7613,"ra.\n":7614," mundur":7615,"ilir":7616,"an dip":7617,"juangkan ":7618," Tol":7619,"ajari ":7620,"intah ":7621,"penanganan ":7622,"ibil":7623,"inggu":7624,"ingga d":7625,"eberkan ":7626,"AS.\n":7627,"Barat":7628,"eluarg":7629,"Di s":7630,"arnop":7631," kuat ":7632,"gantian ":7633,"seksual":7634,"vokasi ":7635,"itisi ":7636," belak":7637,"itu ter":7638," mencat":7639,"Pelaku ":7640,"Akhir":7641," kembali ke":7642," tinggi.\n":7643,", di mana ":7644," saja, ":7645," Eksekutif":7646,"rokok ":7647," Golkar":7648,"OS":7649,"bin":7650,"pohon":7651,"an B":7652,"ilaksanakan ":7653,"eskrim":7654,"ora B":7655,"uki ":7656,"utip":7657," di R":7658," membuat":7659," Raya ":7660,"empurn":7661,"iga, ":7662,"Antar":7663,"yang dih":7664,"Sekit":7665," besar.\n":7666,"Organisasi ":7667," Series":7668,"mengakui ":7669,"Bagaimana ":7670,"uturkan, ":7671,"periode ":7672,"baru-baru ini.\n":7673,"%.\n":7674,"-d":7675,"AW":7676,"PH":7677,"toko":7678,"berada ":7679,"umi ":7680,"nya pada ":7681," Gel":7682," Iran ":7683,"temu ":7684,"ocok":7685," November":7686,"transportasi ":7687,"tahapan ":7688," Sumsel":7689,"redit":7690,"Tak hanya ":7691,"Pihaknya ":7692,"International":7693,"Mirz":7694," orang ":7695,"Paris":7696,"pulang":7697,"akbar":7698," kos":7699," Bawas":7700," Tel":7701," Luth":7702," Polsek":7703,"undang ":7704,"Komunikasi ":7705,"budayaan ":7706,"\"Kita ":7707,"Jawa Tengah.\n":7708,"prediksi ":7709,"NTB":7710,"Pet":7711,"Reg":7712,"Satu":7713,"lihat ":7714,"terapkan ":7715,"abatan ":7716,"bagaiman":7717," reg":7718,"suami ":7719,"yang bers":7720," Ali ":7721,"sebelumnya, ":7722,"Prabowo-Gibran ":7723,"partai politik":7724,"regulasi ":7725,"isalnya, ":7726,"pernik":7727,"Buk":7728,"NTT":7729,"Ud":7730,"U -":7731,"Ver":7732,"Was":7733,"XI":7734,"ein":7735,"ix":7736,"ief":7737,"les":7738,"am ":7739,"kejad":7740," hubungan ":7741,"pengiriman ":7742,"impa ":7743," gel":7744,"anaknya ":7745,"Jumat ":7746," sebagai \"":7747,"a dalam ":7748," pendukung":7749," imbuhnya.\n":7750,"biasanya ":7751,"Karang":7752,"u\n":7753,"atalkan ":7754,"angan dan ":7755,"iminal":7756,"iras":7757,"mengajak":7758," Warga ":7759,"ifinal":7760," merilis":7761,"Pemimpin":7762,"pasokan ":7763,"aerah, ":7764,"kred":7765,"inya":7766,"seluruh ":7767,"Stasiun":7768,"bekerja sama dengan ":7769,"Awal":7770,"Soal":7771,"dilakukan ":7772,"gor":7773,"ran":7774,"tangga ":7775,"ann":7776,"arang.\n":7777," Peg":7778,"pengalam":7779,"oditas":7780,"i kes":7781,"Kabupaten Bandung":7782,"keta ":7783,"rekan ":7784,"Pasukan ":7785,"permohonan ":7786," Paris ":7787,"nilai-nilai ":7788,"Nug":7789,"RB":7790,"bunuh":7791,"asi\n":7792,"alang":7793,"alsu":7794,"yang h":7795," Pri":7796,"ada beberapa ":7797," so":7798,"etail":7799," AM":7800," setemp":7801," Tak":7802," inf":7803,"secara langsung":7804,"kena ":7805," berkembang":7806,"warga di ":7807,"ahlil":7808,"momentum":7809,"Sumber gambar, ":7810,"O ":7811,"Pantai ":7812,"Pancasil":7813,"Siap":7814,"ian di ":7815,"jik":7816,"eno":7817,"alent":7818,"eleng":7819,"an dua ":7820,"kehidupan ":7821,"udukan ":7822," Muh":7823," lewat ":7824," hujan ":7825,"penerbangan ":7826," penjar":7827,"telah melakukan ":7828,"yang sama ":7829,"line":7830,"Kepala Badan ":7831,"transformasi ":7832,"jabat":7833,"Ded":7834,"Sungai ":7835,"hamb":7836,"iai ":7837,"ia dan ":7838,"tip":7839," mau ":7840," momen":7841," menekankan ":7842," Penc":7843,"peral":7844,"utang":7845," mengajukan ":7846," Biden":7847," Boj":7848," seg":7849," digelar":7850," dari berbagai ":7851,"menyerahkan ":7852,"194":7853,"besar.\n":7854,"PSIS":7855,"akibat":7856," Pengadilan ":7857," mengakui ":7858,"Afghan":7859,"sangat penting":7860,"Puluhan ":7861,"administrasi ":7862,"ponden":7863,"-produk":7864,"Ham":7865,"Taman ":7866,"kabupaten":7867,"u t":7868,"ahana ":7869,"berpotensi ":7870,"bertemu dengan ":7871," yang telah ":7872," berkomitmen":7873," Roh":7874,"ancangan ":7875," Em":7876,"terkait dengan ":7877,"Wakil Gubernur":7878,"benar-benar":7879,"NasDem":7880,"yanmar":7881,"Rizky":7882,"egak hukum":7883,"Januari ":7884,"Maj":7885,"Yun":7886,"ia":7887,"erl":7888,"atch":7889,"ini di ":7890,"itu adalah ":7891," kehilangan ":7892," dalam proses":7893,"icaraan ":7894,"Perwakilan ":7895,"Kota B":7896," Yogy":7897,") warga ":7898,"ational ":7899,"kembali ke":7900,"jabat (":7901," bertajuk":7902," eks":7903,"\"Dengan ":7904,"BN":7905,"Fakultas":7906,"NAS":7907,"Rus":7908,"Ribuan ":7909,"seharusnya ":7910," bab":7911,"endra ":7912,"sejumlah k":7913,"mengatakan pihaknya ":7914,"Kepegaw":7915,"Kepolisian ":7916,"Alex":7917,"satu-satunya ":7918," dilaksanakan ":7919,"encanakan ":7920,"remaja ":7921,"DEPO":7922,"hutan ":7923,"rom":7924,"yah ":7925,"erang, ":7926," langkah ":7927," JPNN":7928," kesehat":7929,"kema ":7930,"mencakup":7931,"mereka, ":7932," pesawat ":7933," di depan ":7934,", tetapi juga ":7935,"terlibatan ":7936," Kapten D":7937,"Jen":7938,"Sil":7939,"aum":7940,"iang":7941,"jer":7942,"adaran ":7943," menawarkan ":7944,"untuk menjadi ":7945," peristiwa ":7946," dianggap":7947,"arta ":7948,"hari, ":7949,"Istr":7950," terhadap ":7951,"enderung":7952," dan di":7953," senilai ":7954," rumah":7955,"olahrag":7956,"jabat (Pj":7957,"Kali ":7958,"Mend":7959,"Ry":7960,"banding":7961,"jurnalis":7962,"naker":7963,"rit":7964,"i oleh":7965,"aruhi ":7966,"iker":7967,"irkan ":7968," Bul":7969,"ini akan ":7970,"ipuan ":7971," masalah":7972,"ejar":7973," On":7974,"Berk":7975,"enggal":7976,"masuk ke":7977," keras":7978,"engkapi ":7979," Thailand":7980,"menyatakan bahwa ":7981,"-RB":7982,"65":7983,"Kelas":7984,"Rism":7985,"Teknologi ":7986,"iah, ":7987,"latih":7988,"enomen":7989," dat":7990,"adi.\n":7991,"bertujuan ":7992,"ilaian ":7993,"omas":7994,"ke dep":7995,"i demikian, ":7996," Mo":7997,"obby":7998," ger":7999," tahun ini ":8000," pertahanan ":8001,"bisa menjadi ":8002,"sosiasi ":8003,"awal dari ":8004,"hats":8005,"kira ":8006," Polrestabes":8007," Komisi Pemberantasan Korupsi (KPK":8008," Frans":8009,"bupati ":8010,"Soekarnop":8011,"at Reskrim":8012,"Dana ":8013,"Kad":8014,"Pot":8015,"auk":8016,"pind":8017,"pagi ":8018,"alik":8019," desa ":8020," pres":8021," komp":8022,"ikh":8023," target":8024," pada Pilkada ":8025,"raz":8026,"yang sama, ":8027,"sebelumnya.\n":8028,"pakai ":8029,"kandidat ":8030,"Lebih dari ":8031," Badan Meteorologi, Klimatologi, dan Geofisika ":8032,"hampir ":8033," Lebaran ":8034,"Angka ":8035," korupsi ":8036,"\" dan ":8037,"\"Per":8038,"BM":8039,"Mand":8040,"Serang":8041,"ars":8042,"arangan ":8043,"yang mer":8044,"yang mereka ":8045,"inda ":8046," NTB":8047,"ungguh":8048,"pesert":8049," dikenal":8050,"ensif":8051,"Foto: D":8052,"putaran ":8053,"bahwa dia ":8054,"Rumah Sakit":8055,"sedikitnya ":8056,"Penjabat ":8057,"jabat (Pj)":8058," daerah":8059,"berencana ":8060,"ora ":8061,"an di d":8062,"Institut":8063,"sela ":8064,"akarta.\n":8065," informasi ":8066,"ustru ":8067,"sepanjang ":8068,"belajar":8069,"Tidak hanya ":8070,"Ganjar Pranowo":8071,"Dia menambahkan ":8072," Surabaya, ":8073,"egakan hukum":8074,"Group":8075,"Hubungan ":8076,"juta ":8077,"mau":8078,"tuh":8079,"itu merupakan ":8080,"menggelar ":8081,"ajat ":8082,"anyaan ":8083,"tersebut merupakan ":8084," itu ":8085,"ungkapan ":8086,"ialog":8087,"oposisi ":8088,"staf":8089," penggunaan ":8090,"Minggu":8091," pembel":8092,"aniel":8093,") dengan ":8094,"600":8095,"Jasa ":8096,"deb":8097,"kh":8098,"pu":8099,"signifikan ":8100,", maka ":8101,"elens":8102," PKS":8103," sukses":8104,"nya kepada ":8105," Tbk":8106," dalam s":8107," rel":8108,"i kita ":8109,"stem":8110,"anjutnya, ":8111,"Dia pun":8112,"Survei ":8113,"atang ke":8114," Yas":8115,"Staf":8116,"Seorang ":8117,"prestasi ":8118,"Balik":8119,"Brig":8120,"utupan ":8121," triliun.\n":8122,"ansyah ":8123," paket":8124,"apitulasi ":8125,"intelijen":8126," akhir":8127,"800":8128,"Lalu":8129,"belak":8130,"an S":8131," kerj":8132," tekn":8133," yang baik":8134," Jum":8135," Ros":8136,"masyarakat di ":8137,"Bersama ":8138,"Pengembangan ":8139,"yaall":8140," yang terl":8141,"lagi.\n":8142,"Keterangan gambar":8143,"Rakyat ":8144,"Satgas":8145,"irokrasi ":8146,"Kak":8147,"TI":8148,"dat":8149,"latar":8150,"mater":8151,"ua di ":8152,"wanita ":8153,"za ":8154,"ilu.\n":8155,"permasalahan ":8156," mengonsumsi ":8157," kehidupan ":8158,"penangkapan ":8159," Imigrasi ":8160,"kuat k":8161," pelanggaran ":8162,"Arif":8163,"jpnn.com - B":8164," yang sangat ":8165,"Semarang.\n":8166," Malay":8167,"apasitas":8168,"Kualifikasi Piala Dunia ":8169," kerja sama ":8170,"Dokter":8171,"PL":8172,"dapat ":8173,"iayaan ":8174,"lengkap":8175,"permainan ":8176," mengeluarkan ":8177," AL":8178,"ongk":8179,", kita ":8180,"negara itu":8181,"telah ber":8182," sejumlah":8183,"terlihat ":8184,"migran ":8185,"evelop":8186,"Beijing":8187," soal ":8188,"-C":8189,"Tot":8190,"arep":8191,", mengatakan ":8192,"yang memb":8193,"antam":8194," Dip":8195,"entif":8196,"ipto":8197,"pengawasan ":8198,"pengaruhi ":8199,"ita Mirz":8200," kepolisi":8201,"pola ":8202,"kesmas":8203,"jarak":8204,"pusat ":8205,"warga.\n":8206,"korban.\n":8207," plastik":8208,"November":8209," Denpasar":8210,"menambahkan bahwa ":8211,"e Yong":8212,"ft]\n":8213,"asyarakatan ":8214,"ipta, Giany":8215,"(R":8216,"Dil":8217,"Purw":8218,"jiwa ":8219,"kala ":8220,", A":8221,"ali, ":8222," PB":8223," tindak":8224,"an dilakukan ":8225," Amin":8226,"i dit":8227," DPD":8228,"memenuhi ":8229,"semuanya ":8230," bisa meng":8231," kepada para ":8232,"karakter":8233,"kerusakan ":8234,"ini dapat":8235,"idikan.\n":8236,"cerai ":8237,"ombongan ":8238,"encananya ":8239,"PAN-RB":8240,"analisis":8241,"ituduh":8242,"uru Bicara ":8243,"Sumber Daya ":8244," yakni ":8245,"hun":8246,"ini dan ":8247,", ber":8248,"ono.\n":8249," semb":8250,"a dilakukan ":8251,"keterang":8252,"kehilangan ":8253," yang harus":8254," Sim":8255,"endam":8256,"memanfaatkan ":8257,"acakan ":8258,"melihat":8259,"obj":8260,"Sejumlah":8261," untuk memastikan ":8262,"ATEN":8263," Mahkamah ":8264,"sediaan ":8265,"intensif":8266,"Mahkamah Konstitusi ":8267,"berlanjutan ":8268,"Metro Jaya ":8269,"\"Ter":8270,"76":8271,"88":8272,"Jerman ":8273,"Kompol":8274,"Kaesang":8275,"Ot":8276,"Publik":8277,"iarkan ":8278,"pihak ":8279,"sambil":8280,"erah ":8281," pasti ":8282,"usut":8283,"menter":8284,"ulih":8285," Sej":8286,"Ini, ":8287,"anda, ":8288," Donald Trump":8289,"indahkan ":8290," Hujan ":8291,"agar tidak":8292,"Tengah, ":8293,"klas":8294,"Jawa Tengah":8295,"ustin":8296,"masa depan ":8297,"yang terjadi di ":8298,"o (Jokowi)":8299," akibat ":8300,"Ib":8301,"Juni ":8302,"Ped":8303,"Sant":8304,"nomor ":8305," deb":8306," kalah":8307,"onen":8308," Syar":8309," Amerika ":8310," (G":8311," perl":8312,"member":8313,"osiasi ":8314," Nark":8315,"Persebaya ":8316," Iq":8317," pemilik":8318,"udahkan ":8319,"rata-rata ":8320," mereka, ":8321," Persib Bandung":8322,"syarat ":8323,"lingkungan.\n":8324,"Dukung":8325,"Mesir":8326,"OLO":8327,"Pan":8328,"Sudah ":8329,"Sistem":8330,"cab":8331,"gy":8332,"iel":8333,"pintu":8334,"ua":8335,"wira ":8336,"ataupun":8337,"atuhi ":8338,"asiswa ":8339,"on ":8340,"idukung":8341,"awa, ":8342," yang paling":8343," sebagian ":8344,"mengeluarkan ":8345," memasuki ":8346,"jpnn.com, S":8347," jumlah ":8348," re":8349," penanganan ":8350," itu ber":8351,"odak":8352,"yang diduga ":8353,"pasang":8354," bagi para ":8355," September":8356,"Riset":8357,"kanan)":8358,"App":8359,"apalagi ":8360,"Kebijakan ":8361,"Rusia.\n":8362,"instansi ":8363,"gantung pada ":8364,"bidang ":8365,"ty":8366,"berm":8367,"berinisial ":8368," di antara ":8369," dan D":8370," yang belum":8371,"ayan":8372,"pada bulan ":8373,"merilis":8374," pengg":8375," yang diduga ":8376,"gelombang":8377,"saat ini, ":8378,"chmad":8379," penyelenggaraan ":8380," sekolah ":8381,"jabar.jpnn.com, DEPO":8382,"gabung dalam":8383,"kompetisi ":8384,"eklarasikan ":8385,"undupan ":8386,"elegasi ":8387,"eportasi ":8388,"BPBD":8389,"Mat":8390,"cok":8391,"pag":8392,"arif":8393,"ati dan ":8394,"iminta ":8395,"perayaan ":8396,"andia ":8397,"entasikan ":8398," honorer":8399,"anggih":8400,"ogo":8401," merespons":8402," pemungutan suara ":8403,"minyak":8404," Prancis":8405,"omba ":8406," senior":8407," diperkirakan ":8408,"China.\n":8409,", mesk":8410,"abiskan ":8411,"Patra Niaga ":8412,"evelopment":8413,") pukul ":8414,"Nark":8415,"Paul":8416,"Samp":8417,"Te":8418,"jur":8419,"lanc":8420,"adu":8421,"ingat":8422,"idan":8423," di Desa ":8424,"awang, ":8425," bidang":8426," mengembangkan ":8427,"antauan ":8428," berikut":8429,"ebek":8430," Corpor":8431,"i kon":8432,"ejut":8433,"alan cuaca di ":8434,"Penelit":8435,"sepuluh":8436,"harus ber":8437," yang berada di ":8438," disertai ":8439,"hal-":8440,"kasus dugaan ":8441," Prabowo-Gibran ":8442,"cepatan ":8443,"yang lebih baik":8444,"Jawa Barat ":8445,"Gerakan ":8446,"Hukum dan ":8447," biasanya ":8448,"wajiban ":8449,"HUT ke-":8450,"RC":8451,"Video":8452,"de":8453,"haji ":8454,"spes":8455,"adel":8456,"adat ":8457," bahan ":8458," mengalami k":8459,"tidak boleh":8460,"aran pers":8461,"opter":8462," gol":8463,"jpnn.com, JAKARTA - K":8464,"harus di":8465,"bakaran ":8466,"jpnn.com - P":8467,"Olahr":8468," di daerah ":8469," lokal":8470,"ED":8471,"Suara ":8472,"Tap":8473,"ca ":8474,"kend":8475,"suku ":8476,"vasi ":8477,"yang ada ":8478,"perekonomian ":8479,"aba ":8480,"otik":8481,"Inter":8482,"ang Israel":8483,"ingkung":8484,"i kasus":8485,"iliki d":8486,"saat ini.\n":8487,"ini dilakukan ":8488,"buruh":8489,"oment":8490," maka ":8491," Parlemen":8492,"Koordinator Bidang":8493,", kemudian ":8494,"unggal put":8495,"independen":8496,"kepemimpinan ":8497,"universitas":8498,"elensky":8499,"\"Ada ":8500,"(MK":8501,"-program":8502,"Con":8503,"Cahy":8504,"Rapat ":8505,"in (":8506," dukung":8507,"ahd":8508,"elan ":8509,"secara d":8510," Bh":8511,"penetapan ":8512,"empuran ":8513,"aikkan ":8514," cep":8515,"inyak ":8516,"kekeras":8517,"asi, dan ":8518,"kiri)":8519,"lokasi di ":8520,"anfaat ":8521,"petir":8522,"o Kristi":8523," sebuah pernyat":8524," Metro Jakarta ":8525,"beban ":8526,"KD":8527,"Kol":8528,"Kawasan ":8529,"fungs":8530,"mal":8531,"rol":8532,"rew":8533," kader":8534," seng":8535,"awati ":8536,"pertanding":8537,"saingan ":8538,"senilai ":8539,"timnya ":8540,"pendapatan ":8541,"Sebuah ":8542," dapat meng":8543,"Persik":8544,"Putin":8545," PSSI":8546,"jaminan ":8547,"Ekonomi ":8548," Pangarep":8549," formasi ":8550,"SMA":8551,"Will":8552,"ced":8553,"supaya ":8554,"alengk":8555," delapan ":8556," Serang":8557,"embuny":8558," pada bulan ":8559," dalam beberapa ":8560,"tidak mem":8561,"serangkaian ":8562,"Baru ":8563,"atau tidak":8564,"baik untuk":8565,"bisa ber":8566,"teknis":8567,"ffic":8568,"gencatan senjata ":8569,"'.\n":8570,"Kend":8571,"Moskow":8572,"dek":8573,"geng":8574,"lulus":8575,"minta ":8576,"un.\n":8577,"elamatan ":8578,"a, termasuk":8579,"itu dilakukan ":8580,"epaskan ":8581," Mur":8582,"iput":8583," masa d":8584,"forum":8585,"belum ada ":8586," mempersiapkan ":8587,"hati-":8588,"Pasifik":8589,"semua pihak":8590,"Ukraina.\n":8591,"(BMKG":8592,"encanaan ":8593,"DPC":8594,", tapi ":8595," Ganjar-Mahfud":8596,"imigras":8597," situasi ":8598,"a-tiba ":8599,"Es":8600,"Jaksa ":8601,"SP":8602,"Tekn":8603,"sempat ":8604,", Jawa Barat, ":8605,"ahid":8606,"adar ":8607,"apil":8608," kary":8609,"ikan, ":8610,"aget":8611,"nya dan ":8612," Arab":8613,"ede":8614,"bahas":8615,"penonton":8616,"penggun":8617," Fer":8618,"pribadi ":8619," mengatakan kepada ":8620,"Dalam kesempatan ":8621,"indak Pidana ":8622,"Fraksi ":8623," Madrid":8624,"andatanganan ":8625,"integrasi ":8626,"endagri ":8627,"UPATEN":8628,"suporter":8629," ap":8630," yaitu":8631,"Juru bicara ":8632,"aan dalam":8633,"simp":8634,"ara dan ":8635,"atuhkan ":8636,"ina dan ":8637," pajak":8638,"berapa ":8639," km":8640,"mengingatkan ":8641,"tidak men":8642,"ingkat.\n":8643,"Perdagangan ":8644,"estinasi ":8645,"Paslon":8646,"tanggapan ":8647,"Sejak ":8648,"ederal":8649,"Ibu Kota ":8650,"bond":8651,"hendak":8652,"yang mend":8653,"umen":8654,"utri ":8655,"itu terjadi ":8656," Sud":8657,"oth":8658,"ayung":8659," lembaga ":8660," perdana ":8661,"penumpang":8662," HAM":8663," gagal":8664,"kekhawatiran ":8665," dihad":8666," minum":8667,"elesaian ":8668," digit":8669," media sosial":8670,"pelanggan ":8671," Makassar":8672,"erminkan ":8673," @":8674,"Direktorat ":8675,"Jul":8676,"TN":8677,"USD":8678,"jangka ":8679,"ng":8680,"atikan ":8681,"unkan ":8682,"terbatas":8683,"ita, ":8684," Pad":8685," spesial":8686,"kebakaran ":8687," bol":8688,"egal":8689," Fat":8690," selalu ":8691,"keting":8692,"asarnas":8693,"Arema FC":8694," Sumatera ":8695," kekerasan ":8696,"SMP":8697," Anies Baswedan ":8698,"endalikan ":8699," turut":8700,"Fat":8701,"NATO":8702,"Ros":8703,"aung":8704,"arung":8705,"akh":8706,"ikopter":8707,"olum":8708," menunggu":8709," sulit":8710," mengatasi ":8711," berupa ":8712," Hij":8713,"Pertama, ":8714,"keny":8715,"otoritas":8716,"belanja ":8717," dihubung":8718," Indonesia di ":8719,"otomotif":8720,"perolehan ":8721,"onegor":8722," ikut":8723," zona ":8724,"Cap":8725,"Kh":8726,"Pil":8727,"Qatar":8728,"swast":8729,"alif":8730,"iksi ":8731,"kesehatan, ":8732," yang k":8733,"untuk tidak":8734," berjalan ":8735,"melainkan ":8736,"ode ":8737,"estari ":8738,"Senin.\n":8739,"masih ada ":8740,"Jakarta, Selasa (":8741,"tinggi.\n":8742,"Polresta ":8743,"IND":8744,"Semarang ":8745,"Dirjen":8746,"keberadaan ":8747,"sebar di ":8748,"bayi ":8749,") dini hari ":8750,"bukanlah ":8751," KUHP":8752,"(M":8753,"Motor":8754,"kendar":8755,"macam":8756,"mayoritas":8757,", sementara ":8758,"emium":8759,"terbaru":8760,"olahan ":8761,"periksa ":8762," sumber":8763,"omod":8764," Suh":8765," Ah":8766," (F":8767,"ayah":8768,"penerimaan ":8769,"obos":8770," pengguna ":8771,"ecek":8772,"yang digunakan ":8773,"bisa men":8774," Presiden Joko Widod":8775,"global.\n":8776,"Persib Bandung":8777,"Dukungan ":8778,"Han":8779,"May":8780,"lan ":8781,"panas":8782,"i Seti":8783,"setar":8784,"terbar":8785,"olak ":8786," Pilgub":8787,"abinet":8788," dan L":8789,"untuk di":8790,"untuk menjaga ":8791,"ini adalah":8792,"selalu ":8793," ujar dia.\n":8794,"kenal":8795,"bisa di":8796," Pasangan ":8797,"aparatur":8798,"liter":8799,"yang disampaikan ":8800," Mahfud":8801,"ealth":8802," Humas Polda ":8803," militan ":8804,"Akan tetapi, ":8805,"useum":8806,"KABUPATEN":8807,"enggalek":8808,") itu":8809,"Hind":8810,"Nana ":8811,"dengan d":8812,"rd":8813,"tampak":8814,"enarkan ":8815,"emo":8816,"olly":8817," di Bali ":8818,"untuk mend":8819,"untuk terus":8820," perlu ":8821," perhatian ":8822,"ujian ":8823,"istir":8824,"ecam":8825,"yang terl":8826,"aian dan ":8827,"putih":8828,"nantinya ":8829,"Otor":8830,"gim":8831,"nik":8832,"eni ":8833,", sedangkan ":8834,"amah":8835," mul":8836," klasemen":8837,"ing-":8838," sam":8839,"itu men":8840," Bag":8841," sekar":8842,"anggar ":8843,"pengusaha ":8844,"ancurkan ":8845,"oham":8846," provinsi ":8847,"suatu":8848,"kematian ":8849,"ketentuan ":8850,"rekor":8851," kereta ":8852,"lanjutan ":8853,"anfaatan ":8854,"uji coba ":8855," Sukabumi ":8856,"gencatan senjat":8857,"Aparatur":8858,"erlukan ":8859,"Boj":8860,"Strateg":8861,"apura ":8862," di Indonesia, ":8863," dan C":8864,"embang ":8865," sebut":8866," lap":8867,"pengadilan ":8868,"au.\n":8869,"serik":8870,"Barat (":8871,"yang berbed":8872,"wilayah di ":8873,"ustain":8874,"Satpol PP":8875,"internasional.\n":8876,"itraan ":8877,"Undang Nomor ":8878,"enomena ":8879,"ator ":8880,"amu":8881,"sehari-":8882,"berbasis":8883," klub":8884," di H":8885," Kh":8886,"i dapat":8887," keaman":8888,"memenangkan ":8889,"ipik":8890,"harm":8891," penyebab":8892,"idiki ":8893,"unia, ":8894,"uduki ":8895,"penuhnya ":8896,"medis":8897,"sampah ":8898," Airlangga ":8899,"isioner":8900,"bolingg":8901,"Donald Trump":8902,"Honorer":8903,"Lintas":8904,"OM":8905,"vitamin":8906,"amat p":8907,"urasi ":8908,"irip":8909,"ukim":8910,"ukiman ":8911," dan juga ":8912," Sch":8913," langk":8914," luar":8915,"prosedur":8916,"ody":8917,"riw":8918,"jpnn.com, JAKARTA - Ak":8919,"pendekatan ":8920,"penyelenggara ":8921,"ontal":8922,", Desa ":8923,"putri ":8924," lagi.\n":8925,"Ganjar-Mahfud":8926,"finansial":8927,"i di kawasan ":8928,"Oktober ":8929," benar-benar":8930,"jabar.jpnn.com, DEPOK -":8931,"Sidoarj":8932,"Yord":8933,"eur":8934,"iannya ":8935,", baik":8936," mahasisw":8937,"bertahun-tahun":8938,"esl":8939,"203":8940,"i dan d":8941,"intim":8942,"penjar":8943,"Menjelang":8944,"tahun.\n":8945,"pendapat ":8946," kemudian d":8947,"Arya ":8948,"Pertemuan ":8949,"ormati ":8950,"ojokert":8951,"Kapolsek":8952," bekerja sama dengan ":8953,", khususnya ":8954,"sukarelawan ":8955,"u Ting T":8956,"hatsApp":8957,"\"Kalau":8958,"(Kem":8959,"-S":8960,"98":8961,"Ky":8962,"Skuad":8963,"TU":8964,"boleh":8965,"daya ":8966,"karen":8967,"spek":8968,"il.\n":8969,"uto":8970,"egini ":8971,"bagus":8972," Day":8973," Direktorat ":8974,"restor":8975,"angkitan ":8976," Hakim":8977,"an dan peng":8978,"uncak ":8979," katanya, ":8980,"lalu, ":8981,"eza ":8982," asing":8983,"telepon":8984,"Makass":8985,"meninggal duni":8986,"Malaysia ":8987,"akrab disapa ":8988," Sebanyak ":8989,"Bahkan, ":8990,"ung Karn":8991,"implementasi ":8992," Merah Putih":8993,"beberapa d":8994,"Mb":8995,"des":8996,"jana ":8997,"rok":8998,"y B":8999,"erbang":9000," dinyatakan ":9001,"adaman ":9002,"onj":9003," menurunkan ":9004,"menetapkan ":9005," terbaru":9006," Tai":9007," ke dep":9008," melibatkan ":9009,"Peristiwa ":9010,"produsen":9011,"pelajar":9012,"ugur":9013,"iliar":9014," pertanyaan ":9015,"Kemenkumham":9016,"transpar":9017,"igital ":9018,"\"Karena ":9019,"Raky":9020,"incian ":9021," di dunia ":9022," mulai dari ":9023,"apura, ":9024," balik":9025," Australia ":9026,"ak Imin":9027,"unjuk rasa ":9028,"setempat.\n":9029,"(U":9030,") sekitar pukul ":9031,"Dn":9032,"Jay":9033,"Laga ":9034,"Lapangan ":9035,"erasi ":9036,"ening":9037,"akomod":9038,"apaan ":9039," di Kantor":9040,"untuk per":9041,"egangan ":9042," Khusus":9043,"entak":9044,"angkis":9045,"saudara ":9046,"Ungkap":9047," Filip":9048,"nasib":9049," intern":9050,"sejarah ":9051,"masyarakat dan ":9052," provin":9053,"Surakarta ":9054,"Amerika Serikat, ":9055,"versi ":9056,"DKI Jakarta ":9057,"suasana ":9058,"mar Z":9059,"\"Dari ":9060,"Bert":9061,"Kongres":9062,"Ven":9063,"ibut":9064,"low":9065,"sun":9066,"tentunya ":9067,"zak":9068,"atistik":9069,"aparkan ":9070,"akan ada ":9071," menentukan ":9072," Pand":9073," sy":9074,"udahan ":9075,"ayar ":9076," Dj":9077,"harapkan ":9078,"acu":9079,"ewat":9080," Anton":9081," pelayanan ":9082,"pencarian ":9083,"hentian ":9084,"ekanisme":9085," Ganjar Pranowo":9086,"penelitian ":9087," tanggal ":9088,"Kabar":9089,"pinj":9090,"akan":9091,"sejalan dengan ":9092," pohon":9093,"onc":9094,"yang baru":9095,"oris":9096,"bumi ":9097,"usum":9098," Kelas":9099," Ric":9100,"uben":9101,"ication":9102," kata T":9103," kata Kepala ":9104,"anak muda ":9105,"akhir pekan ":9106,"rumah.\n":9107,"undangan ":9108,"ah-langkah ":9109," Pelatih":9110,"endalian ":9111,"CCTV":9112,"Uni Eropa ":9113," penyelidikan ":9114,"S Sleman ":9115,") lalu.\n":9116,"Cireb":9117,"Dan":9118,"Op":9119,"e L":9120,"gent":9121,"kah ":9122,"panggilan ":9123,"ria ":9124,"tambah":9125," diri ":9126,"adu ":9127," panjang":9128,"akan di ":9129,"abat":9130," Siap":9131," Sigit":9132," AI":9133,"inya di ":9134," yang digunakan ":9135,"risis":9136,"yang sem":9137," besar ":9138,"injau ":9139," komunitas":9140,"(Pilkad":9141,"Demokrat":9142,"eorg":9143,"brand":9144,"subsid":9145,"Yudh":9146,"ecehan ":9147,"YouTub":9148," adanya ":9149,"/B":9150,"ST":9151,"cukai ":9152,"puas":9153,"soc":9154,"tuntutan ":9155,", Jalan ":9156," dar":9157," di Gedung":9158," bin":9159,"otol":9160," M.":9161," MK":9162," Wayan ":9163," Rabu":9164,"pemen":9165,"hard":9166,"Pemilu":9167,"annya dalam":9168,"Dia berharap":9169,"linik":9170,"berkas":9171," vir":9172,"perlu ":9173,"sangat ber":9174," senjata ":9175,"mewujudkan ":9176," unggul":9177,"68":9178,"Bu":9179,"Tbk":9180,"y R":9181,"aknya ":9182,", mereka ":9183,"asok":9184,"aspirasi ":9185,"alir":9186,"terc":9187,"iks":9188," Sebut":9189," terbuka ":9190," Mu":9191,"mengapresiasi ":9192,"row":9193," kata L":9194," Far":9195,"imbau ":9196,"rakyat":9197,"kursi ":9198,"Kejaksaan ":9199,"November ":9200,"kata dia, ":9201," lalu lintas":9202," Kapten Dipta, Giany":9203,"Bahkan ":9204,"Rencana ":9205,"komentar":9206,"lancar":9207,"nal":9208,"enial":9209,"arap":9210,"ading":9211," menunggu ":9212,"kedi":9213,"udus":9214," Bak":9215," RS":9216," untuk di":9217,"barat ":9218,"a di wilayah ":9219,"stabilitas":9220,"sebagai bentuk":9221," telah di":9222,"undurkan ":9223,"lagi, ":9224,"lahir":9225,"andingkan dengan ":9226,"aksimalkan ":9227,"KABUPATEN B":9228,"Prat":9229,"Sama ":9230,"Satu ":9231,"Yas":9232,"Yah":9233,"heboh":9234,"le ":9235,"lawan ":9236,"rap":9237,"enya ":9238,"atatan ":9239," detik":9240,"aduan ":9241,"etahuan ":9242,"embr":9243," berbed":9244," Av":9245," Khofif":9246,"Selanjutnya, ":9247,"ujar":9248,"pertemu":9249,"igran ":9250," Festiv":9251,"tahun ini.\n":9252,"pemerintah.\n":9253," Inggris":9254,"pakar":9255,"pakaian ":9256,"terakhir.\n":9257,"padai ":9258," kalau":9259,"Istimewa ":9260,"Angkatan ":9261,"angin kenc":9262," diskusi ":9263," Fransiskus":9264,"aliforn":9265,"Tugas":9266,"bawa ":9267,"i\"":9268,"sim":9269,"sasaran ":9270,"uali ":9271,"terbuk":9272," kendar":9273,"orontal":9274," Pilpres ":9275," tembak":9276," berisi ":9277,"pemer":9278," merayakan ":9279," Hend":9280," Lampung":9281,"kris":9282,"Sementara, ":9283,"reat":9284,"kapai ":9285," hari ini ":9286,"musuh":9287," pesert":9288,"terjadi pada ":9289,"modern":9290,"larangan ":9291," yang diselenggarakan ":9292,"Arab Saud":9293," hitam":9294," kepemimpinan ":9295,"o Kristiyanto":9296,") pag":9297,"Kapal":9298,"Media ":9299,"Purn":9300,"S)":9301,"kaya ":9302,"van ":9303,"vis":9304,"work":9305,"yadi ":9306,", Senayan, ":9307,"adopsi ":9308," siswa ":9309," berusaha ":9310," Muk":9311,"an, serta ":9312," Jasa ":9313," ketua ":9314,"Indra ":9315,"ang L":9316,"pemenang":9317,"sebagai \"":9318,"penyelenggaraan ":9319,"Nasional (":9320,"kontribus":9321,"Ketenagakerjaan ":9322,"injau":9323," Manajemen":9324,"peran penting":9325," Masyarak":9326,"legislatif":9327,"ewa United":9328," Tanah ":9329,"sebesar Rp":9330,"ujuk pada ":9331,"aturahmi ":9332,"Haji ":9333,"Imigrasi ":9334,"kategori ":9335,"zon":9336,"ak dan ":9337,"olan ":9338," swast":9339,"a, d":9340,"uling":9341,"an dapat":9342," berupaya ":9343," Mend":9344,"dan meng":9345,"ongg":9346,"uarakan ":9347," akan men":9348," Anwar":9349,"Presiden Jokow":9350,"oft":9351,"kebun":9352," bagian ":9353," Undang":9354,"seperti d":9355,"Susw":9356,"pertanyaan ":9357,"ong Kong":9358," up":9359,"lah, ":9360,"tingkat k":9361,"adium":9362," kul":9363,"uluhan ":9364," Sus":9365," Mun":9366,"mass":9367,"anjikan ":9368,"sekadar":9369," rencana ":9370," Il":9371,"peluncuran ":9372," akan menjadi ":9373," akan di":9374,"mendesak":9375,"kron":9376,"enggan ":9377,"saat itu":9378,"pembebasan ":9379,"Ketua KPU":9380,"Merek":9381,"rediksi ":9382," minyak":9383,"ALEMB":9384," digital":9385,"sebabkan oleh":9386,"Arab Saudi ":9387," potensi ":9388,"Di sisi lain, ":9389,"vention":9390,"\"N":9391,"KAI":9392,"wawancar":9393,", ter":9394,"album":9395,"alternatif":9396,"eksek":9397,"kepercayaan ":9398," beber":9399," Bambang":9400," BUMN":9401," Kes":9402,"jual ":9403," memulai ":9404," Dem":9405," kejahatan ":9406,"di s":9407,"anggu":9408,"indikasi ":9409," Hast":9410,"ibuka ":9411," ini juga ":9412,"kemiskin":9413,"even":9414," Maret":9415," Yo":9416,"ini dengan ":9417,"sudah di":9418," Selatan, ":9419,"AHY":9420,"nasabah ":9421,"wenangan ":9422,"Banjir":9423,"YL":9424,"hana ":9425,"jaksa ":9426,"man, ":9427,"sampaikan ":9428,"atra ":9429,", tetap":9430,", di":9431,"amso":9432,"kan diri ":9433,"perund":9434," sol":9435,"ihal":9436," tentu":9437," Minta ":9438,"ehold":9439,"tidak dapat":9440,"menyiapkan ":9441," Perjuang":9442,"yang dipimpin":9443,"kartu":9444,"calon presiden":9445,"sama-sama ":9446," yang sama ":9447," Barat ":9448,"ahrain":9449,"hubungan dengan ":9450,"hujan leb":9451,"AZNAS":9452,"(ASN":9453,"Teh":9454,"cuma ":9455,"delapan ":9456,"kalah":9457,"puasa ":9458,"vonis":9459,"erangan ":9460,"enaikan ":9461,"arahkan ":9462,"masjid":9463," jatuh":9464," For":9465,"Rabu.\n":9466,"air bersih":9467,"Terlebih":9468,"berkumpul":9469,"IIAS":9470," di Pilgub":9471," bahw":9472,"memperkuat ":9473,"akibat k":9474,"Hari ini ":9475,"Ukraina, ":9476,"publik.\n":9477,"sebagian besar ":9478,"Sehingga ":9479," insiden":9480,"Bus":9481,"Gelar":9482,"M.":9483,"TKP":9484,"bir":9485,"banten":9486,"age":9487,"ukaan ":9488,"oks":9489," Jam":9490," keter":9491,"igi ":9492,"iger":9493,"turunan ":9494,"menyoroti ":9495,"pelajari ":9496,"stunt":9497,"e O":9498,"mendatang.\n":9499,"gerim":9500,"sambut":9501,"Sejauh":9502,"Demokrasi ":9503,"Pramono":9504,"pameran ":9505,"ladesh":9506,"Taiw":9507,"ponsel":9508,"istirah":9509,"Borneo FC":9510,"Pe":9511,"day":9512,"pat ":9513,"pembangun":9514,"tand":9515,"atang, ":9516,", W":9517,"asam":9518,"ild":9519,"ilo":9520," tokoh":9521,"ulu.\n":9522,"asi dengan ":9523,"awe":9524,"itujukan ":9525," membutuhkan ":9526,"ainment":9527,"penerima ":9528,"pengamanan ":9529," jaringan ":9530,"tahunan ":9531,"membentuk":9532," konser":9533,"Termasuk":9534,"beberapa waktu":9535," memperlihatkan ":9536,"uas ":9537,"bersyukur":9538,"ulang tahun":9539,"Calon Wakil":9540,"Daerah (B":9541,"anak asuh":9542,"DPD RI":9543,"internal":9544,"Taiwan ":9545," ANTARA/":9546,"/rs]\n":9547,"CI":9548,"Hadir":9549,"Qat":9550,"TikTok":9551,"aur":9552,"eroy":9553,"enep":9554,"adh":9555," pop":9556," kinerja ":9557,"perubah":9558,"edep":9559," perkembangan ":9560,"an, tetapi ":9561,"ental":9562,"memungkinkan ":9563,"iono":9564,"pengungsi ":9565," Grup":9566,"orang yang":9567,"ugatan ":9568,"mendaftar":9569," ujar D":9570," memperingatkan ":9571,"Pelaksana ":9572,"minal":9573," oleh ":9574," Al-":9575,"tump":9576,"Pakar":9577,"menjalankan ":9578,"sekolah":9579,"iharapkan dapat":9580,"lt]\n":9581," Jepang":9582,"pertanyakan ":9583,"Oktober":9584,"ubsidi ":9585," jenis":9586,"panjangan ":9587,"OLO -":9588,"Olahraga ":9589,"77":9590,"C)":9591,"Fin":9592,"MP":9593,"Rum":9594,"id-":9595,"ekas":9596,"a dapat ":9597," dan Wakil Gubernur":9598,"nya ber":9599,"mengalami k":9600,"edua ":9601,"nyawa ":9602," Wong":9603," dalam r":9604,"kepada masyarakat ":9605,"Polr":9606,"kereta ":9607,"bertajuk":9608,"yang tak":9609,"ayangkara ":9610," baru-baru ":9611,"pula ":9612," Wakil Ketua ":9613," Orang":9614,"menyerukan ":9615,"Idulfitri ":9616," konsisten":9617," Sabtu":9618," Undang-":9619,"RE":9620,"WNI":9621,"haj":9622,"hip":9623,"halaman ":9624,"ki ":9625,"mundur":9626,"roli ":9627,"ari.\n":9628,"akad":9629,"alin":9630,"aliran ":9631,"ahan dan ":9632,"amanya ":9633,"engarkan ":9634,"isi d":9635,"ingya ":9636," menteri ":9637," Part":9638," di Gaza ":9639,"awagub":9640,"ebarkan ":9641," Tri ":9642,"aja, ":9643," jalur":9644,"a di kawasan ":9645," Go":9646," Ng":9647," Anak":9648,"menjawab":9649," hari, ":9650," barang":9651,"PSM":9652,"Kaltim":9653,"kecepatan ":9654," selama ini ":9655,"jabar.jpnn.com, KABUPATEN B":9656,"Satuan ":9657,"Mahkamah Agung":9658,"Kalimantan Timur":9659,"Asia.\n":9660," prioritas":9661,"anggulangan Bencana ":9662," University":9663,"66":9664,"700":9665,"Did":9666,"Hujan ":9667,"IT":9668,"Ya ":9669,"bicar":9670,"etujui ":9671,"langg":9672,"net":9673,"annya\n":9674,"ahasan ":9675," pilihan ":9676," kabar":9677,"a dir":9678," tampak":9679," Mart":9680," mempertahankan ":9681,"intasi ":9682,"acana ":9683,"obot":9684,"own":9685,"waktu ":9686,"PN)":9687,"PNM":9688,"untaskan ":9689,"terdapat":9690," saja.\n":9691,"ajelis hakim":9692,"ultan ":9693,"Padah":9694,"echn":9695,"Undang-Undang":9696,"RWA":9697," terangnya.\n":9698,"Koster":9699,"Um":9700,"bet":9701,"dar":9702,"fakt":9703,"kembang":9704,"tahanan ":9705,"inar ":9706," pand":9707,"yang hadir":9708,"ith":9709,"urig":9710,"performa ":9711,"utasi ":9712," di luar":9713,"ia Ric":9714," seger":9715," memanfaatkan ":9716,"ibowo":9717," untuk membantu":9718," melancarkan ":9719,"indra ":9720,"selamat":9721," Ham":9722,"anch":9723,"ansa ":9724," tahun ini.\n":9725,"jpnn.com, JAKARTA - Sel":9726,"menjelaskan, ":9727," kemanusi":9728,"operasi di ":9729," Kepolisian ":9730,"hubungi ":9731," Sukabum":9732,"(Jateng":9733,"Bas":9734,"lic":9735,"arch":9736,"inam":9737,"adaian ":9738,"tug":9739,"sebanyak":9740," pejab":9741," kak":9742,"ikon":9743,"a did":9744," tingkat ":9745,"ulihan ":9746,"an diri ":9747,"awan dan ":9748,"ke depan ":9749,"ajikan ":9750,"menyelesaikan ":9751,"seni ":9752,"estarian ":9753,"kelola ":9754," tud":9755,"pembayaran ":9756," dalam acara ":9757,"Iran, ":9758,"hilangkan ":9759,"inflasi ":9760," kebakaran ":9761," wali ":9762," sendir":9763,"Presiden Joko Widodo":9764,"nelayan ":9765," sambungnya.\n":9766,"bendera ":9767,"% dari ":9768,"Jerm":9769,"Ya, ":9770,"bom":9771,"kabar":9772,"sisa ":9773,"eny":9774,"setuju":9775,"tertinggi ":9776,"ikiran ":9777,"akan mel":9778,"menuduh":9779,"untuk mendapatkan ":9780,"embir":9781," seorang ":9782," DI":9783,"menyerang":9784,"Ant":9785,"ala Harris":9786,"Kemenangan ":9787,"atorium":9788,"Jakarta, Rabu (":9789,"asukkan ":9790,"erbitkan ":9791,"...\n":9792,"Kota Bandung.\n":9793,"sarana ":9794,"ansyah":9795,"hormatan ":9796,"Hartarto":9797,"\"L":9798,"Sidang":9799,"Tal":9800,"Ur":9801,"ganda ":9802,"hindari ":9803,"layar":9804,"mu":9805,"pin":9806,"s Indonesia ":9807,"vaks":9808,"an/":9809," pungkas":9810," kol":9811," khawatir":9812," str":9813," bank":9814," Sir":9815,"tradisional":9816,"iful":9817,"pembukaan ":9818," jangka ":9819," Hiday":9820,"konsumsi ":9821,"gerak ":9822,"politik.\n":9823,"unjung ke":9824,"Kementerian Luar Negeri ":9825," Selasa ":9826,"modal":9827,"MAL":9828,"Jepang, ":9829,"ungutan suar":9830,"bekas":9831,"Garuda ":9832,"subish":9833," sebesar Rp ":9834,"Aj":9835,"Gresik":9836,"Pekerja ":9837,"Relawan ":9838,"dunia ":9839,"hab":9840,"kas":9841,"sandera ":9842,"ersi ":9843,"engahan ":9844,"isit":9845,"itsubish":9846," di berbagai ":9847,"Intel":9848,"eddy":9849,"ampaik":9850,"ecekan ":9851," seles":9852,"ekonomi, ":9853,"umpulan ":9854,"Ia mengatakan ":9855,"rute":9856," datang ke":9857,"ANTARA/HO-":9858,"peralatan ":9859,"banten.jpnn.com, ":9860,"/ka":9861,"Houth":9862,"TM":9863,"bij":9864,"iawan ":9865,"kampany":9866,"tep":9867," dem":9868,"berjanji ":9869,"ilu (":9870,"orasi ":9871,"olakan ":9872,"ulir":9873,"ultur":9874,"jalani ":9875,"preh":9876," mendesak":9877,"rez":9878," memperkenalkan ":9879,"minum":9880,"persyar":9881,"mencatat ":9882,"Persis Solo":9883,"Kapolri ":9884,"Jawa Timur.\n":9885,"meninggal dunia ":9886,"angsa (":9887,"PDI Perjuangan ":9888,"URO ":9889,"kementerian ":9890," Commun":9891,"Jamb":9892,"Pec":9893,"caleg":9894,"tepat ":9895," duduk":9896,"elus":9897,"tudi":9898,"ister":9899,"berbicara ":9900,"ekst":9901,"ekati ":9902," Pam":9903,"peril":9904,"ukan.\n":9905,"ini men":9906," Dar":9907,"tidak pernah":9908,"ambilan ":9909,"promo":9910,"beserta ":9911," gratis":9912,"bagi masyarakat ":9913,"materi ":9914,"Pemerintahan ":9915,"edulian ":9916,"\"Pada ":9917,"(O":9918,"(PPPK":9919,") men":9920,"cita ":9921,"kelahiran ":9922,"anaan ":9923,"aksel":9924,"ik, ":9925,"itya ":9926,"keinginan ":9927," batas":9928,"mengamankan ":9929,"uh]\n":9930," Development":9931,"ipil ":9932,"PPP":9933,"kuat":9934,"Kabupaten K":9935,"anto.\n":9936,"Jakarta Timur":9937,"melakukan peng":9938,"at pend":9939,"Menteri Pertahanan ":9940,"parpol":9941,"Partai Golkar":9942," pesan ":9943,"kandang":9944,"inci ":9945,"final ":9946,"Harga emas":9947,"emonstrasi ":9948,"Astr":9949,"Cel":9950,"GBK":9951,"Sl":9952,"bilang":9953,"cit":9954,"mark":9955,"mudik":9956,"maksim":9957,"o-":9958,"ox":9959,"anaman ":9960," mata ":9961," pulang":9962,"berangk":9963,"apapun":9964,"yang masuk":9965,"ikannya ":9966," saling":9967," tip":9968," bay":9969," yang baru":9970,"itu meng":9971," Motor":9972,"edisi ":9973," lengkap":9974," liter":9975," memahami ":9976,"an, termasuk":9977,"intasan ":9978," untuk terus":9979,"ipu":9980,"warung":9981,"atas nama ":9982," ujar R":9983," memperoleh":9984," baru, ":9985," Barat, ":9986,"Partai Republik":9987,"Api ":9988,"Bagian ":9989,"regional":9990,"yang didukung":9991," Palestina ":9992,"erse Kr":9993,"adaptasi ":9994,"uhaimin Iskandar":9995," derajat ":9996,"/ka]\n":9997,"BL":9998,"Mei ":9999,"T)":10000,"ck":10001,"h B":10002,"jemaah ":10003,"mo":10004,"nov":10005,"tan ":10006,"yim":10007," pantai ":10008,"ormas":10009,"imia ":10010," saya, ":10011," Moe":10012," diamankan ":10013,"anggan ":10014,"Persija ":10015," Perekonomian ":10016," konten":10017,"yang terus":10018,"ahasia ":10019,"Harus":10020," polisi.\n":10021,"enderal ":10022,"potens":10023,"ufak":10024," Serv":10025,"mitr":10026,"uwang":10027," periode":10028,"pastian ":10029,"aan-perusahaan ":10030,"edepankan ":10031,"(W":10032,"DA":10033,"Dengan d":10034,"Flor":10035,"Gil":10036,"Guru ":10037,"Sug":10038,"bansos":10039,"das":10040,"pupuk":10041,"rusak":10042,"saya, ":10043,"skor":10044,"web":10045,"yn":10046,", \"":10047,"an dik":10048,"awan-":10049," lingkungan ":10050,"memulai ":10051,"memasuki ":10052,"pemeriksa":10053,"melanggar":10054,"ialah":10055," membentuk":10056,"anak.\n":10057,"e of":10058,"semangat":10059,"para pemain":10060,"rabowo, ":10061," bisa ber":10062,"yang terbaik":10063," sebelumnya.\n":10064," didampingi ":10065,"puluh":10066,"optimalkan ":10067,"Reformasi ":10068,"Piala Asia ":10069,"Meski begitu, ":10070,"bersihkan ":10071,"Mulai dari ":10072,"prehensif":10073,"Dirinya ":10074,"Digital":10075,"Divisi ":10076,"Hak":10077,"Syar":10078,"bit":10079,"bola ":10080,"kil":10081,"kampung":10082,"pantai ":10083,"sing":10084,"tion":10085,"tertingg":10086," karen":10087,"etnis":10088," di lingkungan ":10089,"ampau":10090,"pencapaian ":10091," pada menit ke-":10092,"acet":10093," jumlah":10094," Nug":10095,"Perlindungan ":10096,"an di wilayah ":10097,"sebagai bagian dari ":10098,"siber":10099,"Berbagai ":10100," konsumen":10101,"Suriah ":10102,"pembunuh":10103,"Kepala Daerah ":10104,"Negar":10105," masyarakat, ":10106,"jarak ":10107,"cerah ber":10108,"kedu":10109,"satu orang":10110,"ihatin":10111,"kantor berita ":10112," biaya ":10113,"tanggung jawab atas":10114," medali ":10115," ro":10116,"(L":10117,"fl":10118,"maksimal":10119,"tend":10120,"vide":10121,", bahkan ":10122,"eskal":10123,"ore.\n":10124,"idangan ":10125,"akan memberikan ":10126," tema ":10127," Sar":10128,"artikel":10129," Dua ":10130,"penerapan ":10131," dalam p":10132,"ogle":10133,"Kota Semarang, ":10134," Angel":10135,"calon gubernur":10136," disabilitas":10137,"jpnn.com - S":10138,"terus men":10139,"oyol":10140,"uci ":10141,"Kabupaten Bek":10142,"negeri, ":10143,"metode":10144,"Lingkungan Hidup":10145,"vey Moe":10146,"Kerj":10147,"Luk":10148,"ba ":10149,"rac":10150,"tajam":10151,"uat":10152,"ana dan ":10153,"i L":10154,"er ":10155,"angd":10156,"institusi ":10157,"itaan ":10158," tengah":10159," Sp":10160," ternyata ":10161," latihan ":10162,"tradisi ":10163," untuk menc":10164,"iga.\n":10165,"tidak memiliki ":10166," justru":10167,"Anton":10168,"sejarah":10169," nomor urut":10170," telah mem":10171,"besar-":10172,"Pengurus":10173,"Kepala Kantor":10174,"Seusai ":10175,"surat":10176,"hak-":10177,"ustom":10178,"aryono":10179,"barang-":10180,"seder":10181,"Desember ":10182,"menegaskan bahwa ":10183,"akwaan ":10184,"Bulan ":10185,"Bengk":10186,"Pejabat ":10187,"sung":10188,"uit":10189,"enz":10190," mesin":10191,"imas":10192,"menuturkan ":10193," tun":10194," se-":10195," Mobil":10196,"ayaan, ":10197,"menghadiri ":10198," Reg":10199," dalam kondisi ":10200," kata F":10201,"prakiraan ":10202,"besaran ":10203,"Sumbar":10204," fasilitas":10205,"kapal ":10206,"ontak":10207," serius":10208,"ediaan ":10209,"klar":10210," dibawa ke":10211," Israel.\n":10212,"Saat itu, ":10213,"Polrestabes":10214,"Anies Baswedan ":10215," ini di":10216,"menunjukkan bahwa ":10217,"yang melibatkan ":10218,"Siang":10219," usaha ":10220,"\"J":10221,"Cil":10222,"lantai ":10223,"ook":10224,"rah ":10225,"si d":10226,"salah ":10227,"way":10228,"atal":10229,"emud":10230,"ago":10231," yang m":10232," Sri ":10233," beras":10234," sebab":10235," hak ":10236,"membuat k":10237," penetapan ":10238," kata A":10239,"mengatakan kepada ":10240,"Al-":10241,"PT.\n":10242," Partai Gerindra ":10243," tegasnya.\n":10244," kontra ":10245,"keamanan dan ":10246,"jawaban ":10247," nantinya ":10248,"asuransi ":10249,"kepolisian ":10250,"(BMKG)":10251,"Ruang":10252,"YD":10253,"fase":10254,"ruas":10255,"tangkap":10256,"atang ":10257,"alau ":10258,"ol.\n":10259,"eksekutif":10260," Pras":10261,"oma ":10262," Amerik":10263,"oksid":10264," libur":10265,"impunan ":10266,"stasiun":10267,"Pemuda ":10268," grup":10269,"semacam":10270,"Kamis.\n":10271,"Ali ":10272,"PBN":10273,"diri.\n":10274," di Pilpres ":10275,"ocor":10276,"mereka":10277," komunikasi ":10278," Erick Thohir":10279," meski ":10280," WITA.\n":10281,"wali kota ":10282," ditetapkan sebagai ":10283,"elenskyy":10284,"ALEMBANG -":10285," ay":10286,"-pihak":10287,"Kampanye":10288,"campur":10289,"e G":10290,"kut":10291,"ohar":10292,"vari":10293,"atri":10294,", terutama ":10295,"alak ":10296,"engah, ":10297,"awaran ":10298," dan ter":10299,"nya untuk":10300,"mengajukan ":10301,"mengingat ":10302," Wis":10303," dalam konferensi pers":10304,"Indonesia Emas":10305,"Perang":10306,"kondis":10307," membagikan ":10308," inter":10309," Persebaya ":10310," nomor ":10311,"penyalahgunaan ":10312,"calonan ":10313," pasien":10314,"Akibat":10315,"Nasional (B":10316," Putin":10317,"epatan dengan ":10318," PPPK ":10319,"ketertib":10320," Bali, ":10321,"yang luar":10322," Muslim":10323," Leagu":10324," Surabaya.\n":10325," kepala daerah ":10326," Kombes Pol":10327," Nusantara ":10328,"/uh]\n":10329,"Jember":10330,"Pon":10331,"Pekerj":10332,"Sw":10333,"Zh":10334,"bencan":10335,"vens":10336,"arelawan ":10337,"ata.\n":10338,"ati.\n":10339,"un, ":10340," pe":10341," puas":10342," populer":10343," parkir":10344,"imir":10345," di Hotel":10346," Strateg":10347,"embak ":10348," perb":10349,"andalkan ":10350," Dunia ":10351," penump":10352," tersebut di":10353,"PSSI":10354,"Arm":10355,"setempat":10356," malam.\n":10357,"Meski demikian, ":10358,"modus":10359," Anies Baswed":10360," karya ":10361,"Tahun ":10362,"generasi muda ":10363," modern":10364," puluhan ":10365,"Muly":10366,"Coach":10367,"KH":10368,"PLN":10369,"WIB":10370,"da)":10371,"e\n":10372,"sir":10373,"skema ":10374,"yaw":10375,"aro":10376,"invasi ":10377," demokrasi ":10378,"apa, ":10379,"ekuatan ":10380," Pemenangan ":10381,"perjuangan ":10382," Kaesang":10383," Jerman ":10384,"Selasa.\n":10385," menyerang":10386,"AS dan ":10387,"jpnn.com, JAKARTA - P":10388,"at (AS":10389,"Presiden Prabowo Subianto":10390,"lokir":10391," Invest":10392,"terlibat dalam":10393,"yang menurut":10394,"marhum":10395,"aulatan ":10396," tersangk":10397,"awancara ":10398,"jamin N":10399,"ompleks Parlemen":10400," ditemui di ":10401," Bekasi ":10402,"95":10403,"Bapak":10404,"CS":10405,"David":10406,"Grand":10407,"e di ":10408,"ject":10409,"uang.\n":10410,"war ":10411,"akut":10412," kunjungan ":10413,"agun":10414,"agian ":10415,"ekam":10416,"irmas":10417,"able":10418," seharusnya ":10419," Ridwan Kamil":10420,"abuh":10421,"pemahaman ":10422," Fin":10423," gam":10424,"gelap":10425,"langsung oleh":10426,"PSBS":10427,"Ini adalah ":10428,"untas":10429," Championship":10430," Meny":10431," dalam upaya ":10432," yang ingin":10433," terlihat ":10434,"armada ":10435,"Madura United":10436,"tersangka.\n":10437,"Berikut ini ":10438,"pandangan ":10439,"Eropa, ":10440," Director":10441,"Prof.":10442," apa ":10443,"/lt]\n":10444,"Cagub":10445,"Eko":10446,"HI":10447,"JK":10448,"RA":10449,"World":10450,"audi":10451,"cam":10452,"mah":10453,"mu ":10454,"oakan ":10455,"ruf":10456,"ery":10457,"akannya ":10458,"engah.\n":10459,"esak ":10460,"umpa ":10461,"irian ":10462," Panj":10463," Prat":10464," sus":10465," sup":10466," th":10467," tot":10468,"omitmen":10469,"an dis":10470,"awa.\n":10471," Sug":10472," Biak":10473,"artinya ":10474," kejad":10475,"massa ":10476,"penump":10477," jajaran ":10478," itu juga ":10479," Feb":10480,"jalannya ":10481,"prakt":10482,"tahun lalu.\n":10483,"Dia meng":10484,"ANY":10485,"at karena ":10486,"aju ke":10487," praktik":10488," diminta ":10489," dekat ":10490,"sendiri, ":10491," korban.\n":10492,"Hizbullah ":10493,"antongi ":10494,"Shin Tae Yong":10495,"Festival":10496," tujuh":10497,"Apakah ":10498,"ora Bung Karn":10499," Jumat (":10500," aktif":10501,") Kabupaten":10502,"-baik":10503,"Wapres":10504,"ian dari ":10505,"psik":10506,"vo":10507," dana ":10508,"el.\n":10509," kampung":10510,"onferensi pers":10511,"yang ku":10512,"uk.\n":10513," teknologi ":10514," di sekitar":10515," yang h":10516," mengadakan ":10517,"otak":10518," terj":10519,"endah":10520," dalam peng":10521,"hadiah ":10522,"tidak di":10523," Hotel":10524,"istan, ":10525," tersebut ber":10526,"ejo, ":10527,"bisa membantu":10528," bisa men":10529,"Presiden ":10530,"kesadaran ":10531,"Ars":10532,"kerap":10533,"sudah ada ":10534," Desember":10535,"transisi ":10536,"Hal itu disampaikan ":10537," Direktur Utama ":10538," belajar":10539," Abdullah ":10540,"bahwa dirinya ":10541,"Iptu":10542," anak-anak":10543,"Yus":10544,"i:":10545,"mati ":10546,"papan ":10547,"putus":10548,"sopir":10549," daripada ":10550," Pe":10551," tol":10552,"kebutuh":10553," dan per":10554," bangsa ":10555," yang r":10556,"penampilan ":10557,"juga mem":10558,"igur":10559," merah ":10560,"Perm":10561,"sekarang ":10562," penerbangan ":10563,"ti-":10564,"Kabupaten M":10565,"ali\n":10566,"Alam":10567,"unggahan ":10568,"banyak orang":10569,"memperkenalkan ":10570," dilantik":10571,"Hal ini d":10572,"utuh":10573,"isiplin":10574," asal ":10575," dunia, ":10576," lagu ":10577,"kepala daerah ":10578," tumbuh":10579,"motivasi ":10580," Bawaslu ":10581,"\"\n":10582,"%,":10583,"Pangan ":10584,"Pac":10585,"bila ":10586,"raya ":10587,"inerj":10588," manusi":10589,"ilikan ":10590,"yang c":10591,"agalkan ":10592,"mendalam":10593,"utris":10594," yang mer":10595," Str":10596,"egaraan ":10597," Bisa ":10598," John":10599," DW":10600,"akui ":10601,"osh":10602,"pemangku":10603," kata N":10604,"istensi ":10605," guru ":10606,"siapa pun":10607,"akhir ":10608,"tahun lalu":10609,"eksiko":10610,"unggah ":10611,"menjabat sebagai ":10612,"ekonomi.\n":10613," yang terjad":10614," yang terjadi ":10615,"Sementara itu":10616,"setempat ":10617,"kiri":10618,"Foto: dok":10619,"hitam":10620,"letak di ":10621,"ihadapi ":10622," Kalimantan ":10623,"Laut China ":10624,"Sekretaris Jenderal":10625," Seorang":10626," salah satu ":10627,"Artinya, ":10628," rakyat ":10629,"aperadilan ":10630,"-cawapres":10631,"Ef":10632,"Hy":10633,"ball":10634,"mikro":10635,"al\n":10636,"adangan ":10637,"seiring":10638," kg":10639,"yang lain":10640,"oror":10641,"imob":10642,"ira":10643," menanggapi ":10644," menerapkan ":10645," Pet":10646," Pembangunan ":10647," di negara ":10648," dan mel":10649,"i dib":10650,"mengalahkan ":10651," Wahy":10652,"osis":10653,"juga men":10654," Cup":10655,"urutan ":10656,"print":10657," UN":10658,"yang saya ":10659,"Harup":10660,"isiatif":10661,"terlibat":10662," miliar ":10663," bagi k":10664," tinggi, ":10665," platform":10666,"non-ASN":10667,"Ferry":10668,"ufaktur":10669," awal":10670,"\"Mereka ":10671,"(Dis":10672,"Baik":10673,"fil":10674,"raj":10675,"sional":10676,"va ":10677,"ate S":10678,"ah pada ":10679," kolaborasi ":10680,"ikan":10681,"ut, ":10682,"an dana ":10683,"Inovasi ":10684,"memang ":10685,"pemungutan suara ":10686,"prot":10687,"Tim SAR":10688,"umum.\n":10689,"Direktur Eksekutif":10690,"Komisi III":10691,"organis":10692,"mobil listrik":10693," pihaknya ":10694,"bahan bakar":10695,"o Karn":10696," partai politik":10697,"ampions":10698,"keselamatan ":10699,"ladimir":10700,"oundation":10701," investasi ":10702,"AFF ":10703," International":10704,"Kepegawaian ":10705," Hijri":10706,") B":10707,"APBD":10708,"Mag":10709,"Pand":10710,"Tiongkok":10711,"ril":10712,"tembak":10713,"aran.\n":10714,"aktu":10715,"se-":10716,"berarti ":10717,"ortug":10718,"usak ":10719," Si J":10720,"untuk membangun":10721," bersenjata ":10722,"roho":10723," Rek":10724,"angkas":10725,"ingkus":10726,"sektor ":10727,"an dan ke":10728,"ramalan cuaca di ":10729,"istyo":10730,"AS, ":10731,"para pemimpin":10732,"istrinya ":10733,"empat orang":10734,"karier":10735,"Pranc":10736,"Sepert":10737,"buru":10738,"sekitar Rp":10739,"Empat ":10740," menunjukkan bahwa ":10741,"Karena itu, ":10742,"saja.\n":10743," biasa.\n":10744," hal ini ":10745,"teman-teman ":10746," profesional":10747,"netralitas":10748,"ibilitas":10749,"angdut":10750,"alak Harup":10751," bus":10752,"NN":10753,"jb":10754,"lembag":10755,"tak ":10756,"asli ":10757,"berkontribusi ":10758,"ek.\n":10759,"keunggulan ":10760," baw":10761,"ott":10762,"tiar":10763,"serang":10764,"eck":10765,"Kepada ":10766,"enggak ":10767,"Terima ":10768,"klien":10769,"ulang kali ":10770,"ardo":10771,"percaya":10772," Stef":10773," Amerika Serikat ":10774,"Soekarno":10775," penjara ":10776,"lebih dahulu":10777,"AG":10778,"A.\n":10779,"Tert":10780,"jil":10781,"jajar":10782,"inap":10783,", yang ber":10784," kulit":10785,"orit":10786,"idul":10787,"olah":10788,"ekal":10789,"a, serta ":10790,"abd":10791,"kewajiban ":10792,"nya ke":10793," Kampanye":10794," Rid":10795,"merasakan ":10796," selaku ":10797,"yang terdampak":10798," memperkuat ":10799,"ekonomi dan ":10800,"ley":10801,"kontra ":10802,"Solidaritas":10803,"Ketiga ":10804,"ilegal.\n":10805,"Hal itu di":10806," terdapat ":10807,"penjaga ":10808," siaran pers":10809,"berbicar":10810,"Nikita Mirz":10811,"Apalag":10812,"Energi ":10813,"Kabid Humas Polda ":10814,"Istri ":10815,"-G":10816,"Bisa ":10817,"U)":10818,"iansi ":10819,"kar ":10820,"pidato":10821,"akur":10822,"asangan ":10823," mand":10824," Paul":10825," Padang":10826," Sosial":10827," Bah":10828," Bur":10829," Keh":10830," KAI":10831," Mall":10832,"bagikan ":10833," Jun":10834," Turk":10835," ke dalam":10836," Rach":10837,"pemuda ":10838,"a di s":10839," Hizbul":10840,"ecret":10841," Utar":10842," Antam":10843,"kuit":10844," nanti ":10845,"Alas":10846,"PUPR":10847," foto":10848,"ario":10849," beserta ":10850,"kami":10851,"adiran ":10852,"hak pilih":10853,"beliau":10854,"laki-laki ":10855,"mental":10856,"Andre":10857," Show":10858," Irjen":10859,"konsisten":10860,"ANG - ":10861," pertama kalinya ":10862,"eriahkan ":10863,"ianjur":10864,"Eri Cahy":10865," setempat.\n":10866,"Nag":10867,"Rom":10868,"Sir":10869,"hu":10870,"iag":10871,"ling":10872,"mail":10873," dokumen":10874,"ambu":10875,"bergerak":10876,"onya ":10877,"egawat":10878,"anta ":10879," sebenarnya ":10880," lahan ":10881," Laut":10882,"impan ":10883,"dalam keterangannya, ":10884,"jpnn.com, JAKARTA - Ketua ":10885," telah melakukan ":10886,"aliansi ":10887," merupakan salah satu ":10888," ketik":10889," bahasa ":10890,"kebebasan ":10891,"aminan ":10892,"Serentak ":10893,"kandungan ":10894,"ashion":10895,"Real":10896,"inisiasi ":10897,"wartawan di ":10898," poin.\n":10899,"capres-cawapres":10900," suara.\n":10901,"lomatik":10902,"an Hodak":10903,"judi online":10904,"Paus Fransiskus":10905,"indaklanjuti ":10906," Iqbal":10907,"\"I":10908,") dari ":10909,"67":10910,"Buruh":10911,"DW":10912,"O -":10913,"Sang":10914,"Vol":10915,"a) ":10916,"kunci ":10917,"nur":10918,"sabu-sabu":10919,"tadi ":10920,"tepat":10921,"atan di ":10922,"asang":10923,"sebaik":10924,"setujuan ":10925,"isu-":10926,"terbang":10927,"ekar":10928,"perguruan ":10929,"ular":10930,"ul U":10931," mengunjungi ":10932,"egera ":10933," Bu":10934," May":10935," (R":10936,"aining":10937," Ramad":10938," melanda ":10939," menyoroti ":10940," Ny":10941," itu di":10942,"Minggu ":10943," disel":10944,"eff":10945,"produktivitas":10946,"produk-produk":10947,"Jakarta, Kamis (":10948," dibanding":10949," terlalu ":10950,"Marc Marquez":10951,"jabat (Pj) Gubernur":10952,"cedera ":10953,"ipikor":10954," DIY":10955,"DC":10956,"DKPP":10957,"Lewat ":10958,"Sun":10959,"did":10960,"uai ":10961,"waj":10962,"ena, ":10963,"terdiri dari ":10964,"ilaporkan ":10965,"im.\n":10966,"eteksi ":10967," di lokasi ":10968," terdiri dari ":10969," perdagangan ":10970," untuk mer":10971,"ambat ":10972," pengadilan ":10973," generasi ":10974,"ovid-":10975,"sejar":10976," pertama, ":10977,"yang terdiri dari ":10978,"SIM":10979,"awat di ":10980,"tulis, ":10981,"bertahap":10982,"ations":10983,"lanjut dia, ":10984,"Gibran Rakabuming Raka ":10985,"solus":10986," Stadium":10987,"Anggaran ":10988,"Pesan ":10989,"meyakini ":10990,"ilkada.\n":10991," di Lapangan ":10992,"saluran ":10993,"islator":10994," PSIS":10995,"Dr.":10996,"Apalagi ":10997," dihadiri ":10998,"\"Itu":10999,"ET":11000,"Lu":11001,"SS":11002,"batu ":11003,"mint":11004,"na":11005,"akam":11006,", I":11007," maksim":11008,"uno":11009,"enggelam":11010," pad":11011," kelahiran ":11012,"agai ":11013," menimbulkan ":11014,"peredaran ":11015,"etakan ":11016,"embar":11017," berkualitas":11018," David":11019,"mempunyai ":11020,"Perubahan ":11021,"tersebut tidak":11022," IKN":11023,"sentr":11024,"eberangan ":11025,"hasilan ":11026," selaku":11027,"yang diper":11028,"membeli ":11029,"bangga ":11030," sebelumnya, ":11031,"Amerika Serikat.\n":11032,"menghindari ":11033," Karawang":11034,"Kombes Pol":11035,"utrisi ":11036,"Kanwil Kemenkumham":11037,"Istimewa Yogyakarta ":11038," Si Jalak Harup":11039,"BD":11040,"KK":11041,"Kini, ":11042,"KTT":11043,"Nama ":11044,"Sampai ":11045,"Sore":11046,"Tentu":11047,"belas":11048,"lum":11049,"asaan ":11050," de":11051,"ade ":11052,"es ":11053,"awali ":11054," yang memb":11055," Buk":11056," Muda ":11057,"ok, ":11058," (U":11059,"mengurangi ":11060,"andas":11061," Te":11062,"Indar":11063,"Indah ":11064," Rapat ":11065,"ehabil":11066,"penambahan ":11067,"inggir":11068," menyalurkan ":11069," Lif":11070,"i kel":11071,"jalan.\n":11072,"yang diterim":11073,"kemajuan ":11074," lebih baik":11075,"sumber ":11076,"pembatasan ":11077,"Ketua DPD":11078,"Kecelakaan ":11079,"ariat ":11080,"imbang ":11081,"Said":11082,"kegiat":11083,"pemerintah pus":11084,"menjelaskan bahwa ":11085,"Sebelumnya ":11086,"injauan ":11087,"Utama ":11088,"festiv":11089,"Brasil":11090,"unya.\n":11091,"pool":11092,"Bekasi ":11093,"hal-hal":11094," sebuah pernyataan.\n":11095,"anchester":11096," negar":11097,"\"Jika ":11098,"61":11099,"62":11100,"AJ":11101,"Gu":11102,"PJ":11103,"Pag":11104,"Plt":11105,"baterai ":11106,"lans":11107,"parkir":11108,"sungai ":11109,"enar":11110,"is\n":11111,"aparan ":11112," kandung":11113,"essa ":11114," menik":11115,"an deras":11116,"keadil":11117," be":11118,"uda, ":11119," KH":11120," perayaan ":11121,"nyaman ":11122," We":11123," Dalam":11124," hij":11125," melanggar":11126,"iong":11127,"selaku ":11128,"a di seluruh":11129," penangkapan ":11130,"menyusul":11131,"Anak ":11132," pengunjung":11133,"Presiden AS":11134,"uasana ":11135,"berkoordinasi dengan ":11136,"insentif":11137,"ifikat ":11138,"Gunawan ":11139," keluar dari ":11140,"Nusantar":11141,"yakinkan ":11142,"September ":11143,"Kabinet":11144,"untuk mencari ":11145,"Bangsa":11146," mendatangi ":11147,"jenazah ":11148,"Katolik":11149,"Ngurah Rai ":11150,"Sekitar ":11151,"-nya ":11152,"-mud":11153,"demi ":11154,"mp":11155,"ana":11156," maju ":11157,"yang melakukan ":11158,"itip":11159,"agend":11160,"perbuatan ":11161,"ulon":11162,"absen":11163," yang kami ":11164,"itu menjadi ":11165,"eport":11166,"edikasi ":11167," membuat k":11168," Tewas":11169,"ific":11170,"merayakan ":11171,"pengendara ":11172,"tidak s":11173," Honda ":11174,"ics":11175," pencar":11176,"ancaran ":11177,"seraya ":11178," menjabat sebagai ":11179,"rish B":11180,"kominfo":11181,"Pelayanan ":11182,"PBU":11183,"jpnn.com - M":11184,"tingginya ":11185,". [ah/":11186,"Maluku ":11187,"Hari Raya ":11188,"anggap sebagai ":11189,"Komisi Pemberantasan Korupsi (KPK":11190,"ineral":11191,"mengungkapkan bahwa ":11192,"pedagang":11193," Korea Selatan ":11194,"internet":11195," Management":11196,"ampanye akbar":11197,"Indar Par":11198,"-mudahan ":11199," ad":11200,"63":11201,"De":11202,"Hel":11203,"Mil":11204,"Tangg":11205,"Tindak Pidana ":11206,"ai\n":11207,"ban":11208,"jet":11209,"ledakan ":11210,"rama ":11211,"sul":11212,"asi-":11213,"ama di ":11214,"search":11215,"ikul":11216," meningkat ":11217,"abaikan ":11218,"keberhasilan ":11219," bas":11220," Sun":11221," Spanyol":11222," mengurangi ":11223," Ada ":11224,"edar ":11225,"ampingan ":11226," Jabar ":11227,"di antaranya ":11228,"jpnn.com, M":11229,"aksi d":11230,"seny":11231," masjid":11232,"est ":11233,"sij":11234," yang dih":11235,"Penyakit":11236,"uncur":11237,"ketik":11238," orang-orang":11239,"kami, ":11240,"namanya ":11241,"akan dilakukan ":11242,"narkotika ":11243,"korban, ":11244,"verifikasi ":11245,"September":11246,"Kasat Reskrim":11247,"Pemerintah":11248," menegaskan bahwa ":11249," medis":11250," kemarin.\n":11251,"Ada beberapa manfaat ":11252,"Usaha ":11253,"Udara ":11254," Yasin":11255,"Suswono":11256,"\"Di ":11257,"\"Yang":11258,"(G":11259,"-kelompok":11260,"Kata ":11261,"conom":11262,"spesial":11263,"tig":11264,"ati":11265,", para ":11266,"apel":11267," keg":11268,"ah Indar Par":11269,"perbedaan ":11270,"a, tetapi ":11271,"asi Humas":11272," bjb":11273," yang cukup":11274," SD":11275," berada ":11276," Borneo FC":11277," Kompol":11278," per gram":11279," melihat":11280," Listrik":11281,"saat p":11282," ID":11283," Ida ":11284," inov":11285,"rav":11286,"Jumat.\n":11287,"riz":11288," pelajar":11289,"sump":11290,"Pertama ":11291,"memperingatkan ":11292," Kota Depok":11293,"Foto: ANTARA/":11294,"ucian ":11295,"uksesan ":11296," minuman ":11297,"jateng.jpnn.com, SOLO -":11298,"partisipasi dalam":11299,"narkoba.\n":11300,"KTP":11301," meskipun":11302," Pesantren":11303," penelitian ":11304,"yang semakin":11305," Selasa (":11306,"\"Dalam":11307,"64":11308,"69":11309,"Fir":11310,"H)":11311,"dem":11312,"iset":11313,"ju ":11314,"o mengatakan ":11315,"tun":11316," demikian ":11317,"isasikan ":11318,"bertugas":11319," Park":11320," sambil":11321,"a, yakni ":11322," Maul":11323,"ini tidak":11324," Water":11325," untuk menjaga ":11326,"ipurn":11327,"tersebut juga ":11328,"ungkus":11329,"i ket":11330,"afili":11331," Perhubungan ":11332,"azz":11333,"All":11334,"komoditas":11335,"memperoleh":11336,"Deputi ":11337,"Palestina, ":11338," putaran ":11339,"endarai ":11340," parlemen":11341," Gaza ":11342,"ini bertujuan ":11343,"Olimpiade Paris ":11344,"artis ter":11345," pencarian ":11346,"Cek":11347,"Jun":11348,"Matar":11349,"Tri ":11350,"bar ":11351,"cek":11352,"gender":11353,"huk":11354,"jembatan ":11355,"volum":11356,"anal":11357,"arak":11358,"unung":11359,"kan dari ":11360,"tercatat ":11361," Plus":11362," sempat ":11363,"menuntut":11364," di Kecamatan ":11365,"roda ":11366," mempunyai ":11367," huj":11368,"anyar":11369,"ipa ":11370," pengamanan ":11371,"angsaan ":11372,"195":11373,"evolusi ":11374," Marc":11375,"untuk mengatasi ":11376,"program-program":11377,"Sekarang":11378,"tengah k":11379,"anda Aceh":11380,"memperluas":11381,"Maret ":11382,"bersalah":11383,"Wakil Wali Kota ":11384,"rutmen":11385,"shop":11386,"luka-":11387,"tanah longsor":11388,"brid":11389,"olding":11390," kenaikan ":11391,"ounder":11392," Masyarakat ":11393,"amsoet":11394,"Gint":11395,"Jon":11396,"Las":11397,"Penting":11398,"TP":11399,"Tata ":11400,"layak":11401,"zbek":11402,"an?\n":11403,"an (":11404,"a C":11405,"erang.\n":11406,"ina di ":11407,"un-":11408,"isahkan ":11409,"ung, B":11410," sipil ":11411," dan wakil gubernur":11412,"nya dari ":11413," Megawati ":11414," Jember":11415," Tidak":11416,"ertas":11417,"ublic":11418,"selebritas":11419,"au, ":11420,"igel":11421,"prakir":11422," gawang":11423,"karbon":11424,"mencat":11425,"eneral":11426,"Foto: Instagram":11427,"yang menewaskan ":11428,"engkapan ":11429,"peran sebagai ":11430," Industr":11431,"perubahan iklim":11432,"ministrasi ":11433,"Sudjana ":11434," pertama di ":11435,"hak asasi ":11436," Kamis (":11437," bekerja di ":11438,"Wisata ":11439," masa depan ":11440," Rabu (":11441,"(Men":11442,") dalam":11443,"-k":11444,"??":11445,"Banjar":11446,"Kart":11447,"Pegawai ":11448,"Tem":11449,"rot":11450,"sasar":11451,"tag":11452,"ori":11453," PAN":11454,"persen":11455,"ukan, ":11456," bak":11457,"ayasa ":11458,"rod":11459,"ini hari ":11460," Rud":11461,"ingkat p":11462,"e Indonesia ":11463,"unjangan ":11464,"overn":11465,"beberapa hari ":11466,"jen TNI":11467,"Harapan ":11468,"tanaman ":11469,"kecelak":11470,"terkait ":11471,"untuk mencapai ":11472,"takut":11473,"proses hukum":11474,"Kedua, ":11475,"Pakistan ":11476,"Ditjen":11477,"a ditangkap":11478,"ouse":11479," Senin (":11480,"kompetensi ":11481,"gejal":11482,"teroris":11483," President":11484,") pagi.\n":11485,"ampaui ":11486,"\"R":11487,"\"Peng":11488,"BKN":11489,"Banyak ":11490,"Fad":11491,"Lima ":11492,"Os":11493,"Siti ":11494,"Teco":11495,"deka ":11496,"dani ":11497,"fan ":11498,"hiburan ":11499,"justru ":11500,"ler":11501,"motif":11502,"non":11503," dingin":11504," pabrik":11505,"yang bisa d":11506,"ition":11507," di sebuah ":11508,"keterlibatan ":11509," band":11510," bencana ":11511," Kerja ":11512," layak":11513,"juar":11514," peringatan ":11515," Demok":11516,"entim":11517,"pada tanggal ":11518," dengan men":11519,"Perumahan ":11520," akan ber":11521,"eksp":11522," lebih banyak":11523," pertemu":11524,"jpnn.com, JAKARTA - M":11525,"Komitmen":11526,"Harvey Moe":11527," harus di":11528,"tinggi, ":11529,"rekaman ":11530,"Wakil Bupati ":11531,". [ns":11532,"nya di Instagram":11533," Persis Solo":11534,"ah-Emil":11535,"Amerika Serikat":11536,"yang menyebabkan ":11537,"terbitkan ":11538," konteks":11539,"MPR RI":11540,"penggemar":11541,"bergabung dengan ":11542,"rakyat.\n":11543," meyakini ":11544,"istribusikan ":11545,"USD ":11546,"klarifikasi ":11547," Praset":11548,"Form":11549,"Koalisi ":11550,"Let":11551,"Maju":11552,"VI":11553,"Won":11554,"la ":11555,"lini ":11556,"sch":11557,"sawit":11558,"teb":11559,"wit":11560,"asihat ":11561," daerah.\n":11562,"emos":11563,"yang sebelumnya ":11564,"ike":11565,"ikat ":11566," menutup":11567," supaya ":11568,"uk, ":11569,"etas":11570," dan K":11571," Beg":11572,"ayai ":11573,"ayagun":11574," lapor":11575," peran ":11576," memicu":11577,"butir":11578,"endali ":11579,"ainer":11580,"penuntut":11581," untuk menjadi ":11582,"Persatuan ":11583,"obat-":11584,"seku":11585,"negosiasi ":11586," Lest":11587," pengawasan ":11588," gabung":11589," mendengar":11590,"ugat ":11591,"ectr":11592,"atau BMKG Juanda ":11593,"yang berlaku":11594,"jpnn.com, JAKARTA - Menteri ":11595,"inggalkan ":11596,"ggak":11597,"banyaknya ":11598,"ucapan ":11599," sejarah ":11600,"kebunan ":11601,"aboratorium":11602," Semarang, ":11603," menjalin":11604,"Lebaran ":11605,"gabung dengan ":11606,"tentu saja ":11607,"enuhi kebutuhan ":11608,"yang mungkin":11609," menjelaskan bahwa ":11610," sebuah pernyataan ":11611,"Gelora Bung Karn":11612,"Edward":11613," Gerindra ":11614,"pembelian ":11615,"aturahm":11616,"April":11617,"gaya hidup":11618," tiba di ":11619," Badan Meteorologi, Klimatologi, dan Geofisika atau BMKG Juanda ":11620,"ohammed":11621,"'\n":11622,"Dwi ":11623,"EP":11624,"Pak ":11625,"Puncak":11626,"nu ":11627,"rat ":11628,"sp":11629,"perangk":11630,"peringkat ":11631,"perairan ":11632," di luar ":11633,"an dib":11634," yang ada ":11635," Kot":11636," laman ":11637," lingkung":11638,"entitas":11639,"pensiun":11640,"ali Kot":11641,"acap":11642," menyelenggarakan ":11643," kata G":11644,"opol":11645,"annya ke":11646," menjadi salah satu":11647,"bulan.\n":11648," merupakan salah satu":11649," diserahkan ":11650," Pemerint":11651,"Kore":11652," Vietnam":11653,"terlihat":11654," dilakukan oleh":11655,"retariat ":11656,"show":11657," sampai dengan ":11658,"jpnn.com - JAKARTA - ":11659,"Raffi Ahmad":11660,"peneliti ":11661,"ontrol":11662,"yang bisa membantu":11663,"gulir":11664,"kejut":11665," Super":11666," Olimpiade":11667,"Padahal, ":11668,"Kepala Daerah (Pilkad":11669,"\" di ":11670,",\n":11671,"Bur":11672,"DS":11673,"Open ":11674,"Pop":11675,"Raja ":11676,"e C":11677,"say":11678,"zin":11679,"erang ":11680,"aras":11681," pil":11682,"berkualitas":11683,"api.\n":11684," karena d":11685," sayap":11686,"utin":11687,"uta B":11688,"ultasi ":11689,"nyam":11690,"ini sebagai ":11691,"pemudik":11692,"pengakuan ":11693,"selanjutnya ":11694," merasakan ":11695,"Kebudayaan ":11696,"aksi di ":11697,"konser":11698," tahun terakhir":11699," Perusahaan ":11700,"Kota Semarang":11701,"suatu ":11702,"Penanggulangan Bencana ":11703,"jpnn.com, JAKARTA - S":11704,"jpnn.com, JAKARTA - Peny":11705,"reformasi ":11706,"yang sangat":11707,"Presiden Prabowo":11708,"kesan ":11709," Institut":11710," besar, ":11711,"Wakil Menteri ":11712," mengguyur":11713," ke arah ":11714,"gagasan ":11715,"engaruhi ":11716," suam":11717," suami ":11718,"kepolisi":11719," bangunan ":11720,"Otoritas":11721,"apaan akrab":11722,"Bisnis":11723,"Birokrasi ":11724,"Ob":11725,"Putusan ":11726,"cob":11727,"ealis":11728,"mau ":11729,"peg":11730,"siny":11731," mudah ":11732,"ado":11733,"bersama dengan ":11734,"ilanjutkan ":11735," saksi ":11736,"menewaskan ":11737," tentara ":11738,"omunikasi ":11739,"an data ":11740,"udut":11741," Bup":11742," (H":11743,"roduk":11744," Dukung":11745,"intah":11746," dengan cara ":11747,"hariq":11748,"Menanggapi ":11749,"pelantikan ":11750," Persen":11751,"aerah-":11752,"Baru":11753,"Championship":11754,"Suriah":11755,"Komunitas":11756,"hukum.\n":11757," pribad":11758,"terlalu ":11759,"Penyidik":11760,"Penyelenggara ":11761," beberapa hari ":11762,"petan":11763,"skala ":11764," status":11765,"babak ":11766,"Bangladesh":11767,"guru honorer":11768,"esmian ":11769,"suaminya, ":11770," Kecamatan ":11771," pekerjaan ":11772,"Yudhoy":11773,"eholder":11774," tuduhan ":11775,"banten.jpnn.com, S":11776,": Hujan ":11777,"BAR":11778,"Mungkin":11779,"hin":11780,"adak":11781," pembangun":11782," pula ":11783,"yang kini ":11784," Star":11785," Bany":11786," (W":11787,"mengucapkan ":11788,"upayakan ":11789," Dwi ":11790,"ainya.\n":11791,"memahami ":11792,"inggian ":11793,"olehan ":11794,"pertama, ":11795," Hadi ":11796,"obil ":11797,"sehingg":11798,"kret":11799,"riset":11800,"suc":11801," netr":11802," Yah":11803,"Seksi ":11804,"sudah meng":11805,"imbah ":11806," pribadi ":11807,"mereka di ":11808,"entuh":11809,"kotak":11810,"hargai ":11811,"bertahan ":11812,"iyanto":11813,"BPJS":11814,"Ia juga ":11815," Kepulauan ":11816,"Palestina.\n":11817,"hubungkan ":11818," Malang":11819,"DPW":11820,"awak media ":11821," parpol":11822," model":11823,"iverpool":11824,"berdampak pada ":11825,"karyawan ":11826,"Lagu ":11827,"yang bersangkutan ":11828,"ayagunaan ":11829,") mengatakan ":11830,") RI":11831,") bahwa ":11832,"IK":11833,"Mun":11834,"iang ":11835,"kif":11836,"saya":11837," met":11838,"bubar":11839,"menjadikan ":11840," di Jakarta.\n":11841,"antap":11842," berwarna ":11843,"ebijakan ":11844,"mengapa ":11845," persiapan ":11846," Tour":11847,"angkan, ":11848,"penegakan hukum":11849,"meliputi ":11850,"Kejadian ":11851," Hy":11852,"ingkat, ":11853," rem":11854," Fir":11855," tahun penjar":11856,"istrinya, ":11857,"Namun, k":11858,"Proyek":11859,"alia, ":11860,"aim Wong":11861,"temuan ":11862,"PT S":11863,"yang akrab disapa ":11864,"selama ini ":11865,"iyah":11866,"ikuti oleh":11867," pesantren":11868,"informasi dari ":11869,"agamaan ":11870," pertama kali ":11871," dimul":11872,"terjadi.\n":11873," Shin Ta":11874,"ikirkan ":11875,"penyelundupan ":11876,"ahlawan ":11877,"uku Ry":11878,"rahim":11879,"integras":11880,"Insiden":11881,"Eropa.\n":11882,"US$":11883," Prof.":11884," kosong":11885,"hati-hat":11886,"ompleks Parlemen, Senayan, ":11887,") Nomor ":11888,"Ac":11889,"Bab":11890,"Pupuk":11891,"Wir":11892,"aian, ":11893,"may":11894,"i (":11895,", atau":11896,"ahayakan ":11897,"terungkap":11898,"ita.\n":11899," sh":11900," sosok":11901," tengah ":11902," di bawah":11903," Bers":11904,"mengadakan ":11905,"anda.\n":11906," Da":11907," kepercayaan ":11908,"osp":11909,"osa ":11910," untuk mendapatkan ":11911,"anggur":11912,"Selanjutnya ":11913," Gh":11914,"orang lain":11915," penonton":11916,"Menengah ":11917," Ibu":11918,"sesama ":11919,"estinya ":11920,"kondusif":11921,"lebih banyak ":11922,"menjadi salah satu ":11923,"yang diajukan ":11924," peluang":11925,"kesalahan ":11926,"ability":11927," AS.\n":11928,"Jakarta, Senin (":11929,". [em":11930,"transfer":11931,"penjelasan ":11932,"ports":11933,"pernah ":11934,"Pemerintah dengan ":11935,"Medan ":11936,"komunikasi dengan ":11937,"onegoro":11938,"ignifikan.\n":11939,"suhu ":11940," AMIN":11941,"echnolog":11942,"artis terheboh":11943,"\"Kalau ":11944,"Cara ":11945,"Star":11946,"Tar":11947,"nus":11948,"tembakan ":11949,", tidak":11950,", atau ":11951,", dari ":11952,"ilu, ":11953,"iru":11954,"iri dan ":11955," menikmati ":11956," sambut":11957,"ih.\n":11958,"an dirinya ":11959,"untuk menj":11960,"ebgram":11961," perbatasan ":11962," dij":11963," Dard":11964,"pada Pilkada ":11965,"al itu":11966,"harma ":11967,"selamat ":11968,"pertanggung":11969," Nik":11970," pengungsi ":11971,"Dia mengaku":11972,"Iskand":11973," cepat":11974,"azah ":11975,"kesiapan ":11976,"teman ":11977," dikonf":11978," sejauh":11979,"Jakarta, Jumat (":11980,"Kontr":11981,"kontrak":11982,"Pendayagunaan ":11983," Pelabuhan ":11984,"optimal":11985," mewakili ":11986,"raha ":11987,"Ilustrasi -":11988," korups":11989," Awards ":11990,"untungkan ":11991," bulan.\n":11992," laki-laki ":11993,"pernikahan ":11994," Yogyakarta ":11995," babak":11996," tindak pidana ":11997,"fficer":11998," Arab Sa":11999,"',":12000,"-turut":12001,"Jalur Gaz":12002,"Kembali ":12003,"Lokasi ":12004,"Masa ":12005,"No":12006,"Noor":12007,"OTO":12008,"aan\n":12009,"aannya.\n":12010,"band":12011,"cenderung":12012,"fenomena ":12013,"ia di ":12014,"lari ":12015,"atuan ":12016,", itu":12017," pec":12018,"iman":12019,"ekraf":12020,"perang ":12021,"nya tidak":12022,"menganggap":12023,"mengusung":12024,"menghentikan ":12025,"trok":12026," Dam":12027," Div":12028,"emput":12029,"merespons":12030," dalam kasus":12031,"pengemudi ":12032,"melalui k":12033,"jalin":12034,"standar ":12035,"Indonesia dengan ":12036,"si\n":12037,"yang dialami ":12038," Ener":12039,"pihak berwenang":12040,"Harap":12041,"nya. (mcr":12042,"Hari ini, ":12043,"Andrew":12044,"Asia Tengg":12045,"aparat ":12046," mengungkapkan bahwa ":12047,"Bank Mandiri ":12048,"surat suara ":12049," menyerukan ":12050,"otomatis":12051,"ansir dari laman ":12052,"BBC News ":12053,"Soekarnoputri ":12054,"Mahkamah Konstitusi (MK":12055,"mar Zoni ":12056,"Pemerintah dengan Perjanjian ":12057,"Daniel":12058,"EO":12059,"EURO ":12060,"Gam":12061,"Nant":12062,"Nomor":12063,"Tas":12064,"Tewas":12065,"Yul":12066,"bandara ":12067,"ise":12068,"nir":12069,"rapat ":12070,"ruang ":12071,"wanit":12072," dinas":12073,"bertemu":12074," Pil":12075,"menurunkan ":12076," tiket":12077," mengucapkan ":12078," berasal dari ":12079," AD":12080," Mac":12081,"mengonsumsi ":12082,"i, tetapi ":12083," Tar":12084," melewati ":12085,"pemak":12086," dengan harga ":12087,"penguatan ":12088," penjualan ":12089,"aksasa ":12090," It":12091,"yang diterima ":12092," sebagai bagian dari ":12093," Ini ":12094,"ensial":12095,"untun":12096,"surat per":12097,"ocial":12098,"gi ke":12099,"militer Israel":12100,"turut-turut":12101," was":12102,"erdasan ":12103," pleno":12104,"Padahal":12105," strategis":12106,"orge M":12107,"selisihan ":12108,"u tangkis":12109,"latar belakang":12110,"ield":12111," Sabtu (":12112,"MALANG -":12113,"ehabilitasi ":12114,"ectric":12115,"120":12116,"Del":12117,"Distrik":12118,"Gal":12119,"Georg":12120,"Haf":12121,"Om":12122,"PW":12123,"Ph":12124,"Sor":12125,"WhatsApp":12126,"bangg":12127,"du":12128,"daftar":12129,"gudang":12130,"jantung":12131,"lulusan ":12132,"oul":12133,"ping":12134,"ero":12135,"ene":12136,"akunt":12137,", mulai dari ":12138,"ahari ":12139,"isikan ":12140,"ilintar":12141,"esahkan ":12142,"ing (":12143,"abod":12144," badan ":12145," Bagn":12146," TV":12147,"aint":12148," Raih":12149," dari arah ":12150," dari Universitas":12151,"penutupan ":12152," dalam laga ":12153,"Peringatan ":12154,"warisan ":12155,"patroli ":12156," pengiriman ":12157,"e for":12158,"jpnn.com, JAKARTA - B":12159,"Pengamat ":12160,"Allah ":12161,"Sumatra ":12162,"operasikan ":12163,"Pada tahun ":12164,"ajak pend":12165,"ektor ":12166,"ateral":12167,"anak-anak.\n":12168," Semarang ":12169,"gagas":12170," Brasil":12171," Indonesia":12172,"Dewan Keamanan ":12173,"nanti.\n":12174," yang melibatkan ":12175,"waspad":12176,"usnahan ":12177,"antiasa ":12178,"pejabat":12179,"ihadiri oleh":12180,"terutama di ":12181," narkob":12182,"Investasi ":12183,"abetes":12184,"Google":12185,"kredit":12186,", meskipun":12187,"aparatur sipil ":12188," Communication":12189," antar":12190,"HC":12191,"Muk":12192,"Nor":12193,"Nilai ":12194,"Qur":12195,"Sin":12196,"habis":12197,"jutaan ":12198,"suk":12199,"utuk":12200,"am j":12201,"amaikan ":12202," kanan ":12203," kompet":12204,"one ":12205,"yang kita ":12206,"uro":12207,"agalan ":12208,"perang di ":12209,"perangkat ":12210,"menanggapi ":12211,"a dirinya ":12212," tata ":12213,"ularitas":12214,"anteng":12215," Asi":12216," Kas":12217,"i dis":12218," Mat":12219," Mohammad":12220," memeriksa ":12221,"an, kata ":12222,"pada laga ":12223," Rom":12224,"penindakan ":12225," dalam serangan ":12226,"pertanian ":12227,"ongan, ":12228,"arenakan ":12229,"stadion":12230," Peraturan ":12231,"rumah di ":12232,"antum":12233,"ANTARA":12234,"Baru, ":12235,"kubu":12236," persen pada ":12237,"arier":12238,"kekuas":12239," ASDP":12240,"ania, ":12241,"cern":12242,", Dn":12243,"beli ":12244,"Jepang.\n":12245," Putra ":12246,"kabinet":12247,"terpis":12248,"unyi ":12249,"cuaca ekstrem":12250," musim ":12251,"Insyaall":12252,"Pramella ":12253,"efisien":12254,"bekerja di ":12255," Business":12256,"amat politik":12257," Kapten Dipta, Gianyar, ":12258,"persyaratan ":12259,"istyo Sigit":12260," resm":12261,"Bey":12262,"Cak Imin":12263,"Kap":12264,"Momen":12265,"RO":12266,"ega ":12267,"ian dengan ":12268,"tambang":12269,", yang di":12270," dasar":12271," kunjung":12272,"agaman ":12273," menuturkan ":12274," Pan":12275," syar":12276," Bay":12277,"i dia ":12278,"i dip":12279," lem":12280," lapangan ":12281,"uhut":12282," Gam":12283," Lah":12284,"menyita ":12285," Foundation":12286,"membagikan ":12287," pertama.\n":12288,"Presiden RI":12289,"dua orang":12290,"Kemendikbudristek":12291,"Prakiraan ":12292,"RIDO":12293," ASEAN":12294,"ewaspadai ":12295," Persik":12296,"Pemerintah Provinsi ":12297,"tempat kejadian ":12298,"Sukabum":12299,"dukungan kepada ":12300,"Mahfud MD":12301," pemilihan presiden":12302," manajemen":12303,"reskrim Polres":12304," pemberian ":12305,"Palestina di ":12306,"BMKG Juanda menyampaikan ":12307," Luthf":12308,"subsidi ":12309," Kaesang Pangarep":12310,"-an ":12311,"72":12312,"Asosiasi ":12313,"For":12314,"Hampir":12315,"Tom":12316,"Vladimir":12317,"gi":12318,"ganti ":12319,"ric":12320,"tang":12321,"erap":12322,"eruk":12323,"asem":12324," kompetisi ":12325,"esahan ":12326,"ungut":12327,"ukuhkan ":12328,"kewenangan ":12329," San":12330," menghentikan ":12331," Ma'":12332,"jujur":12333," Dan":12334," Real":12335,"mempertahankan ":12336,"aceb":12337,"pertimbangan ":12338," Hasan ":12339," Gedung":12340,"serupa ":12341,"semang":12342,"rumah, ":12343," ini menjadi ":12344,"bulans":12345,"ebutan ":12346,"pemerintah, ":12347,"Presiden Joe Biden":12348,"Komite":12349,") atau ":12350,"Sayang":12351,"\"Kami berharap":12352," dan dua ":12353,"tiba-tiba ":12354,"lima tahun":12355,"Appl":12356,"Jawa Barat":12357,"sorotan ":12358,"Selatan (":12359,"tengah)":12360," Rakyat ":12361,"Erick Thohir":12362,"esuaikan ":12363,"Buleleng":12364,"Nusantara (":12365,"o (Jokowi":12366," Rumah Sakit":12367,"Agustus ":12368,"Nusa Tenggara Timur":12369," Malaysia ":12370,"omentari ":12371,"kenyamanan ":12372,"u Ting Ting":12373," DW - ":12374," ekonomi ":12375,".id":12376,": \"":12377,"Bi":12378,"Batu ":12379,"Uang":12380,"sinerg":12381,"uatkan ":12382,", juga ":12383,"unis":12384,"engar ":12385,"ah M":12386,"ulang ":12387," mengumpulkan ":12388,"egram":12389," bersama dengan ":12390," Kapolres":12391,"Inilah ":12392," Run":12393,"anggu ":12394,"saudar":12395,"ramah ":12396,"tarung":12397,"e yong":12398," Anung":12399,"kemudahan ":12400,"unch":12401,"ologis":12402,"yang sang":12403,"miner":12404,"masih belum":12405,"kekurangan ":12406,"kecuali ":12407,"ubah menjadi ":12408,"aian.\n":12409,"aniaya ":12410,"bersihan ":12411,"AMIN":12412," dalam waktu":12413,"utamakan ":12414," diperiksa ":12415,"End":12416,"Timnas U-":12417,"Kebangkitan ":12418,"Yogyakarta, ":12419,"keluarganya ":12420,"Riau.\n":12421,"PANRB":12422,"reskrimum":12423,"Arief":12424,"layan":12425," narkoba ":12426,"selama dua ":12427,"individu ":12428," judi online":12429,"ejutkan ":12430," uang":12431,"-Hamas":12432,"71":12433,"Cit":12434,"Dib":12435,"Jas":12436,"Tingg":12437,"sin":12438,"tekan":12439,", seorang":12440," demikian, ":12441,"eluh":12442," past":12443," putus":12444," pilkada ":12445," kampus":12446," menter":12447,"a demokrasi ":12448," Sw":12449," Sidoarj":12450," mengusung":12451," Mod":12452," dijadwalkan ":12453,"ampang":12454," Jawab":12455,"memicu":12456," melayani ":12457,"sela-":12458,"Keuang":12459," penal":12460,"gunc":12461,"ekspres":12462,"pendidik":12463," Marketing":12464,"pesisir":12465,"masih ber":12466," Internasional":12467,"Pada kesempatan ":12468,"Negara, ":12469," Arema FC":12470," Partai Demokrat ":12471,"ahroni ":12472," Negara dan ":12473,"Banten.\n":12474,"tanah air":12475,"tinggal di ":12476,"anwil Kemenkumham":12477,"helikopter":12478,"Militer Israel":12479,"Italia ":12480,"eaming":12481,"julukan ":12482,"masa depan.\n":12483,"Foto: Dokumentasi ":12484,"Rakyat (":12485,"banten.jpnn.com, SERANG -":12486,"-ibu":12487,"A - ":12488,"Blinken":12489,"Din":12490,"Mon":12491,"Pri":12492,"THR":12493,"blok":12494,"ka/":12495,"karena d":12496,"nu":12497,"ral":12498,"angrov":12499,"ak B":12500,"asy":12501," minggu ":12502,"tuang":12503,"kan untuk":12504," papar":12505," klaim":12506,"agia ":12507," saham":12508," di Universitas":12509," di media sosial":12510," Beri ":12511," Kim":12512,"epres":12513," Mach":12514," (L":12515," Teguh":12516," Dik":12517," Ded":12518,"ajaan ":12519,"anji ":12520," dalam men":12521,"i kek":12522,"pelanggar":12523,"Pemilik":12524,"telah menjadi ":12525,"kuota ":12526,"lainnya":12527," yang diper":12528," pelatihan ":12529,"manuel":12530,"Jakarta Selatan.\n":12531,"pembicaraan ":12532," All":12533,"awasan.\n":12534,"oyo":12535,"ojo":12536," kualitas":12537," Kabupaten Bogor":12538," Kore":12539,"Anies Baswed":12540," dekat dengan ":12541,"kelanjutan ":12542,"yang telah di":12543," siapa ":12544,"Dia menilai ":12545,"sediakan ":12546,"Memang":12547,"evisi UU":12548,"JSL":12549,"menyeluruh":12550,"Airlangga Hartarto":12551," dilakukan.\n":12552,"kendala ":12553,"eksekusi ":12554,"Reformasi Birokrasi ":12555,"\"Pen":12556,") si":12557,"Kunjungan ":12558,"Nah, ":12559,"Rob":12560,"binaan ":12561,"akoni ":12562,", ia ":12563,"emani ":12564,"emahkan ":12565," pam":12566,"ite ":12567,"menerapkan ":12568,"menambahkan, ":12569," di Bandung":12570," di kantor":12571," yang tak":12572,"antarkan ":12573," lam":12574,"entikan ":12575," untuk mend":12576,"pengadaan ":12577,"melih":12578," rapat":12579,"Ungg":12580,"pelecehan ":12581,"Analis":12582,"serentak ":12583,"izen":12584," yang diberikan ":12585," memperluas":12586,"kekayaan ":12587," ketidak":12588," Alex":12589,", dan d":12590," pasar ":12591," dua kali ":12592,"posal":12593," hukuman ":12594,"Komisi Pemilihan Umum (KPU)":12595," Saat ":12596,"inovatif":12597,"intervensi ":12598,"panduk":12599,"Teluk":12600,"jabar.jpnn.com, KOTA BOGOR -":12601,"servasi ":12602," sepanjang ":12603,"ambil alih":12604,"Waktu":12605,"pilot":12606," agar ":12607,") ke-":12608,"KKB":12609,"Mur":12610,"Yusuf":12611,"back":12612,"dampak ":12613,"rawan ":12614,"sion":12615,"tidur":12616,"an D":12617,"aran, ":12618,"alokasi ":12619,"ahabat ":12620,"amar ":12621,"tertib":12622,"yang saat ini ":12623,"agresif":12624,"menargetkan ":12625,"utrad":12626,"keuntungan ":12627," dan wakil presiden":12628," yang melakukan ":12629," Anas":12630," tertinggi ":12631," dipastikan ":12632," Del":12633," Rac":12634,"penembakan ":12635,"ang bukti ":12636,"indekos":12637," merebut":12638," Gelar":12639," Film":12640,"pelabuhan ":12641,"stak":12642,"residenan ":12643," guru":12644,"lokasi, ":12645,"menceritakan ":12646,"kota dan ":12647,"kiraan ":12648,"Malang, ":12649," juta ton":12650,"bioskop":12651,"Pendaftaran ":12652,"jabar.jpnn.com, B":12653," off":12654,"Inggris.\n":12655,"Agust":12656,"sampah":12657,"barang bukt":12658,"(TPS":12659,"tempat k":12660,"calon wakil presiden":12661,"Dia menyebutkan ":12662,"EKAN":12663,"informasi, ":12664," Telkom":12665,"klasemen":12666,"literasi ":12667,"amaha ":12668," ayat (":12669,"prakirakan ":12670,"900":12671,"Honda ":12672,"Kolaborasi ":12673,"Mich":12674,"Rutan ":12675,"Str":12676,"TPP":12677,"kib":12678,"lepas":12679,"mula ":12680,"panggung":12681,"sayap":12682,"tantang":12683,"anes":12684,"at disertai ":12685," ditutup":12686,"segi ":12687,"isi\n":12688,"um.\n":12689,"umbuh":12690,"ida, ":12691,"ekade":12692," sar":12693,"ukuh":12694,"ombak":12695,"embada ":12696,"upan ":12697," mempertimbangkan ":12698," Tas":12699," Ronald":12700,"angkau ":12701," Comp":12702," kata Ketua ":12703,"pasar, ":12704,"bulan-":12705,"Minggu.\n":12706," yang berbed":12707,"pembentukan ":12708,"ekonomi k":12709,"tersend":12710,"Assad":12711,"berdayakan ":12712," Vs":12713,"urnal":12714,"kota di ":12715,"anak-anak ":12716,"laki-lak":12717," telah ber":12718,"liar":12719,"Gusti ":12720,"erusakan ":12721,"Telkom":12722,"Kehadiran ":12723,"lebih lanjut.\n":12724," sepeda motor":12725,"pergian ":12726,"tata kelola ":12727," selama dua ":12728,"jasad":12729,"Hukum dan HAM":12730,"Cirebon":12731,"eroyokan ":12732,"itsubishi ":12733," ia ":12734,"Do":12735,"EI":12736,"Edy":12737,"Hong Kong":12738,"Martin":12739,"RSUD":12740,"Tir":12741,"minggu":12742,"rombongan ":12743,"tap":12744,"enn":12745,", Jakarta Pusat, ":12746,"alem":12747,"alung":12748," dew":12749," kap":12750,"uskan ":12751," di bagian ":12752," dan J":12753," yang mereka ":12754,"untuk \"":12755,"uda.\n":12756," berbasis":12757," Kan":12758," terk":12759," perkar":12760,"ini bisa ":12761,"bahagi":12762,"ibah ":12763,"pertengahan ":12764,"a dan meng":12765,"amboj":12766,"Pemasyarakatan ":12767,"tusan ":12768,"a-nama ":12769,"hasil dari ":12770,"para peng":12771,"Kota (":12772," selain":12773,"eksklusif":12774,"ketahanan ":12775,"secara ber":12776,"Israel, ":12777," orang, ":12778,"at para ":12779,"Praset":12780,"ondon":12781,"SIG":12782,"aniy":12783,"Mereka juga ":12784,". [ab":12785,"asiat ":12786,"ayangan ":12787,"Trenggalek":12788,"belanj":12789,"incang":12790," terlibat dalam":12791," stabil":12792,"engkapi dengan ":12793," transaksi ":12794,"Peserta ":12795," Komisi Pemilihan Umum (KPU)":12796,"Jawa Tengah (Jateng":12797,"Ekonomi K":12798,"narap":12799,"Tak hanya itu, ":12800,"gerimis":12801,"Yudhoyono":12802,"BARU -":12803,"Pendayagunaan Aparatur":12804,"A, ":12805,"Ann":12806,"Fajar":12807,"H.":12808,"IG":12809,"Koordinasi ":12810,"M ":12811,"Myanmar":12812,"Natar":12813,"OP":12814,"kan\n":12815,"lew":12816,"markas":12817,"nutrisi ":12818,"panjang ":12819,"rar":12820,"rin":12821,"sander":12822,"wajah ":12823,"y ":12824,"en P":12825,"ahulu":12826," menargetkan ":12827," PLN":12828," sakit":12829," sisw":12830," yang hadir":12831," Bang":12832," Bakal":12833," lantas":12834,"andungan ":12835," Will":12836,"ang itu":12837," dalam Pilkada ":12838,"a di Stadion":12839,"ohol":12840,"a-sam":12841,"Bareskrim":12842,"penyidikan ":12843," bisa menjadi ":12844,"undai ":12845,"yang sam":12846," Pemain":12847,"Ini adalah":12848,"bakar ":12849,"terkait kasus":12850,"burg":12851,"iasaan ":12852,"tanggap":12853," Komunikasi ":12854,"yang tinggal":12855,"pemerintah dengan ":12856,"pulau ":12857,"ukseskan ":12858,"pelaku usaha ":12859,"Tanpa ":12860,"untuk menciptakan ":12861,"ganggu":12862,"perjanjian kerja ":12863,"Bakal ":12864," Gunung":12865,"jpnn.com, PALEMBANG -":12866,"ulungagung":12867," Operasi ":12868,"tetangg":12869," mencatatkan ":12870," kesehatan dan ":12871,"Indonesia Emas ":12872," unggulan ":12873,"Fik":12874,"Lam":12875,"Pondok":12876,"Panitia ":12877,"eet":12878,"hur":12879,"nah ":12880,"nomor urut":12881,"sist":12882,"yas":12883,"arja ":12884,"atika ":12885,"setujui ":12886," pind":12887,"ontar":12888," menjadikan ":12889," Ped":12890," Pantai ":12891," PSM":12892," Pemprov":12893,"ukir":12894,"alam.\n":12895," menganggap":12896," Apar":12897," BBC":12898,"resolusi ":12899," kehadiran ":12900,"penuhi ":12901,"seluas ":12902,"a di antaranya ":12903,"proy":12904,"annya sebagai ":12905," global":12906," membeli ":12907,"serup":12908," Perlindungan ":12909,"hasilnya ":12910," selatan ":12911," menjelaskan, ":12912,"pembalap":12913,"negara di ":12914,"baru saja ":12915,"tiga orang":12916,"plastik":12917," Januar":12918," kedua, ":12919,"menyampaikan bahwa ":12920,"kanan":12921,"embakkan ":12922,"sore":12923," putr":12924,"jenis sabu-sabu":12925,"soalan ":12926,"arus mudik":12927,"sendiri":12928,"Oleh karena itu":12929," kursi ":12930," Sulawesi ":12931,"ead of":12932,"Ahli ":12933," kandidat ":12934,"belah pihak":12935," Bojan Hodak":12936,"sociat":12937,"Bangsa-B":12938,"sela-sela ":12939,"\"Alhamdulill":12940,"-orang ":12941,"-kasus":12942,"89":12943,": S":12944,"Bung":12945,"Bantul":12946,"Corpor":12947,"Duel":12948,"Korb":12949,"Kadin":12950,"Top":12951,"Ul":12952,"aannya, ":12953,"dokter":12954,"kian ":12955,"mos":12956,"studi ":12957,"asco":12958,"adukan ":12959," pemen":12960,"berbagi ":12961,"bertemu ":12962,"yang jelas":12963,"imur":12964," tapi ":12965," di A":12966," di tengah":12967,"kese":12968," Bed":12969,"Inform":12970,"mengatasi ":12971,"road":12972," lahir":12973,"masukan ":12974,"ongkr":12975,"Perjuangan ":12976,"Indonesia dalam":12977,"seragam":12978,"iji ":12979," yang dipimpin":12980,"harus meng":12981,"Pelatihan ":12982,"terduga ":12983,"wiss":12984,"erangkan ":12985,"tulang":12986,"Penyebab":12987," beberapa waktu":12988,"udian di":12989,"Rusia dan ":12990,"yang akan di":12991,"saja":12992," Satuan ":12993,"generasi mud":12994,"Super":12995," Benjamin N":12996,"ografi ":12997,"suaminya ":12998,"populasi ":12999," Pengadilan Negeri ":13000,"roket":13001,"krisis":13002,"eskalasi ":13003,"Ada beberapa manfaat rutin":13004," emas":13005," industri ":13006,"Adi ":13007,"SW":13008,"Uj":13009,"bikin":13010,"dig":13011,"firmasi ":13012,"ruk":13013,"ves":13014,"yo, ":13015,"akar ":13016,", peng":13017," dampak":13018,"umbu":13019," Pulau ":13020," tantangan ":13021,"a, di ":13022," dan meny":13023,"anty":13024," Baik":13025," BMKG":13026," secara d":13027," Maj":13028," perawatan ":13029,"an, Jakarta Selatan, ":13030," haji ":13031,"harian ":13032," menyusul":13033," Cip":13034," Centr":13035,"ongs":13036,"Ang":13037,"besok":13038," tersebut merupakan ":13039,"gunung":13040," Perempuan ":13041,"ecut":13042," ini adalah ":13043,"timnas":13044,"kemuk":13045,"an dengan intensitas":13046," yang disebut":13047,"negaranya ":13048,"Pertandingan ":13049," Kota Bandung":13050,"Penyel":13051,"UNRWA":13052,"tibmas":13053,"tikoh":13054," Timnas U-":13055,"seperti k":13056,"sertifikasi ":13057,"kaki ":13058,"Ada beberapa jenis":13059," silam.\n":13060," Arief":13061,") sore.\n":13062," Pasaribu":13063,"serikatan ":13064," yang terjadi di ":13065,"Kota (Pemkot":13066,"Bintang":13067,"HT":13068,"Haj":13069,"Liv":13070,"MU":13071,"Nahd":13072,"cabang":13073,"o\n":13074,"amakan ":13075," minta ":13076,"adi":13077,"akan memb":13078," menewaskan ":13079,"ai di ":13080,"ke dalam":13081," yang saat ini ":13082," Sipil":13083," Bl":13084," Bantul":13085," Made":13086," Jogja ":13087,"entro":13088," kesejahteraan ":13089," Rel":13090,"ifinal ":13091," rud":13092," IV":13093," pemuda ":13094,"jalan, ":13095,"buku":13096,"kepada seluruh":13097," ujarnya ":13098," norm":13099," kepada masyarakat ":13100," memperhatikan ":13101,"berbagai pihak":13102,"berkolaborasi dengan ":13103," yang terus":13104,"kamar":13105,"erangi ":13106,"kedua negara ":13107,"untuh":13108,"Gibran Rakabuming Rak":13109,"tempat tinggal":13110,"arah ke":13111,"Brand":13112," Masjid":13113,"kerja.\n":13114,"Medan, ":13115,"KM ":13116,"keseluruhan ":13117,"sejauh ini ":13118," segala ":13119,"Sumber Daya Manusia ":13120," sekarang":13121,"ruf Amin":13122,"Pendayagunaan Aparatur Negara dan ":13123," enam":13124,"Bahrain":13125,"Kert":13126,"RK":13127,"Tu":13128,"XX":13129,"aing":13130,"hani ":13131,"koalisi ":13132,"mekanisme":13133,"i mengatakan ":13134," pintu":13135,"aput":13136,"ikal":13137,"itnya ":13138,"ingankan ":13139,"a dih":13140," dan G":13141," Sand":13142," mengenakan ":13143," Bert":13144," BPBD":13145," Mon":13146,"ajakan ":13147,"pada saat ":13148,"pemanfaatan ":13149,"indeks":13150,"penganiayaan ":13151,"bahwa \"":13152,"i kalau":13153," Persija ":13154,"o, Kabupaten":13155,"Profes":13156,"kalinya ":13157,"a dalam kasus":13158,"Komandan ":13159,"atang dari ":13160,"link":13161,"negara":13162," yang terdiri dari ":13163,"parekraf":13164," protes":13165,"irim ke":13166,"Amran ":13167,"thony":13168,"Manajemen":13169,"Reserse Kr":13170,"anggung jawab":13171,"Afrik":13172," Indonesia\n":13173," Madura United":13174," Award ":13175,"sebabkan ":13176,"Pegi Seti":13177,"Direktur Utama PT":13178,"hijau":13179,"perdamaian ":13180," responden":13181," Sekretaris Jenderal":13182,"Pemerintah dengan Perjanjian Kerja ":13183,"APBN":13184,"Bo":13185,"aan, dan ":13186,"benda ":13187,"cir":13188,"gaj":13189,"lv":13190,"ting":13191,"astr":13192,"alat":13193," debat ":13194,"ahul":13195,"amana ":13196," main":13197,"sebag":13198,"berjuang":13199,"terobos":13200,"oliga ":13201,"ada dua ":13202,"a dim":13203," teh":13204,"awi, ":13205," yang kini ":13206,"ok ":13207,"mengunjungi ":13208,"menghasilkan ":13209,"room":13210," lulus":13211," Jong":13212," Darm":13213," keuangan ":13214,"abup":13215,"pengharg":13216," No.\n":13217,"provin":13218," Luar Negeri ":13219,"ungkam":13220," pemeriksa":13221," Fit":13222,"jalan di ":13223,"annya pada ":13224,"konferensi pers":13225," membantah ":13226," mendampingi ":13227,"Dia mengatakan bahwa ":13228,"belum bisa ":13229," pertanian ":13230,"alia.\n":13231,"aliyah ":13232,"pemerintah dan ":13233,"secara resmi ":13234,"Komisaris":13235,"fav":13236,"presiasi ":13237,"jaring":13238,"yang mendukung":13239,"Personel":13240," keduanya ":13241,"igitalisasi ":13242,"KN)":13243,"yang membuat ":13244,"walkot":13245,"sepakat":13246,"beliau ":13247," terlihat":13248," lagi":13249," Andika ":13250,"Negara (B":13251,"pemberantasan ":13252," Karim":13253,"Parlemen":13254,"tidak ingin":13255,"Undang-Undang Nomor ":13256,"usnahkan ":13257,"kuliner":13258,"Australia, ":13259,"servatif":13260,"latul U":13261,"eliharaan ":13262," infrastruktur":13263,"material":13264,"kediaman ":13265,"Daerah (BPBD":13266,"hak-hak":13267,"Penanggulangan Bencana Daerah (BPBD":13268,"aparatur sipil negara ":13269,"74":13270,"BAZNAS":13271,"DK":13272,"Ida ":13273,"Memb":13274,"UD":13275,"leng":13276,"salah":13277,"alum":13278,"almarhum":13279," pangan ":13280,"berpikir":13281,"tertulis, ":13282,"ilah":13283,"esat":13284,"agon":13285,"a dampak":13286," di kota ":13287,"an dit":13288,"ebak":13289," dipl":13290," TikTok":13291," ke depan ":13292,"penandatanganan ":13293,"Indonesian ":13294," meliputi ":13295,"merusak":13296,"ebihi ":13297," No":13298,"odam":13299," penghitungan ":13300,"sementar":13301," Andi ":13302,"eksikan ":13303,"wilayah k":13304," kondusif":13305,"ree":13306,"unggung":13307,"kami akan ":13308," semuanya ":13309,"anggota DPR":13310,"Namun, dia ":13311," penyidikan ":13312," saat itu":13313,"RIS":13314,"tenggelam":13315,"Masuk":13316,"Aku ":13317,". [uh":13318," juta orang":13319," terkait dengan ":13320,"Penyanyi ":13321,"ilegon":13322," Timnas U":13323," Brand":13324,"kelanjutan.\n":13325,"amarind":13326,"jauh dari ":13327," jauh dari ":13328," Pertamina Patra Niaga ":13329,"Amerika.\n":13330,"implementasikan ":13331,"Panglima ":13332,"TANG":13333,"amerkan ":13334,"rezim":13335,"ikulum":13336,"kifli ":13337," y":13338,"(F":13339,"(I":13340,"Aku":13341,"Dj":13342,"Dat":13343,"Dasar":13344,"Karen":13345,"Lim":13346,"bl":13347,"hand":13348,"mohon":13349,"oo":13350,"ernas":13351,"aly":13352," panj":13353,"idi ":13354," senang":13355,"etiga ":13356," di beberapa ":13357,"nya adalah ":13358," Kembali ":13359,"pada pukul ":13360,"ehkan ":13361,"icarakan ":13362," penembakan ":13363," itu tidak":13364,"rambut":13365,"stansi ":13366," menjadi salah satu ":13367,"siang ":13368,"erja sama ":13369,", korban ":13370,"dalam rangka ":13371," cepat ":13372,"jpnn.com, JAKARTA - Komisi Pemberantasan Korupsi (KPK":13373,"azar":13374,"pendidikan, ":13375,"bisa mem":13376," ditahan ":13377," memperkirakan ":13378,"mencerminkan ":13379,"Ini merupakan ":13380,"Neger":13381,"enderal L":13382,"keluar dari ":13383,"serangan udara ":13384,"yang tingg":13385,"pencari":13386,"infl":13387," kuasa hukum":13388,"market":13389,"lapangan.\n":13390,", Tang":13391,"TNI AL":13392,") menggelar":13393,"memastikan bahwa ":13394,"terpaksa ":13395," keterangan tertulis":13396,"(TKP":13397," yang dilakukan oleh":13398,"esuaian ":13399,"efisiensi ":13400,"Turki ":13401,"Brigjen":13402,"simulasi ":13403,"barang-barang":13404," Si Jalak Harupat, ":13405,"EKANBARU -":13406," ayat ":13407,"PMI":13408,"Ria Ric":13409,"Vice":13410,"ceder":13411,"e K":13412,"s dan ":13413,"sikan ":13414,"anug":13415,"arbon":13416,"ali.\n":13417,"isi dengan ":13418," menyang":13419,"menambah":13420," tak ":13421,"keadilan ":13422,"keberlanjutan ":13423," Sc":13424,"egang ":13425," set":13426," Mil":13427," Teknologi ":13428,"artawan ":13429," WNA":13430," RUU":13431,"ingga, ":13432,"menyaksikan ":13433,"PPDB":13434,"sehari ":13435," Antar":13436,"yang berasal dari ":13437,"membunuh":13438,"Chief":13439," mencuri ":13440,"Tengah":13441,"Kecamatan C":13442,"juga, ":13443,"tak ber":13444,"atu.\n":13445," Bersama ":13446,"proses ":13447,"ormatan ":13448,"akan dit":13449,"langkah-langkah ":13450," Malik":13451,"Abd":13452,"susu ":13453,"Yogyakarta.\n":13454,"Franc":13455,"Kejagung":13456,"omendasikan ":13457," dibandingkan dengan ":13458,"sengketa ":13459,"Joe Biden":13460," Academ":13461,"Usaha M":13462," Tangerang":13463," Angkatan Laut":13464," sembilan ":13465,"kontribusi dalam":13466,"cita-":13467,"Aman":13468,"Gorontal":13469,"Kendaraan ":13470,"Lombok":13471,"Muh":13472,"Mac":13473,"Netanyahu":13474,"Sipil":13475,"Taj":13476,"Tenaga ":13477,"UL":13478,"Zain":13479,"bac":13480,"cak":13481,"cuc":13482,"iber":13483,"kis":13484,"misalnya ":13485,"naf":13486,"sinya ":13487,"anis":13488,"ala, ":13489,"engkel":13490,"bersenjata ":13491,"apa-":13492," Pj":13493," Pener":13494," sukar":13495,"menutup":13496,"menampilkan ":13497,"ulik":13498," bangs":13499,"round":13500," perlindungan ":13501,"andri ":13502," ke depan.\n":13503,"intang ":13504," melarikan ":13505,"juga akan ":13506," menyadari ":13507," Hel":13508,"Perempu":13509,"hadapan dengan ":13510,"asta ":13511,"menjadi salah satu":13512,"Polri, ":13513,"ra S":13514,"ketat ":13515,"penyedia ":13516,"Terl":13517,"seperti itu":13518,"masih banyak":13519,"PSK":13520," Pemkot":13521," dikabarkan ":13522,"Setidak":13523,"Tengah.\n":13524,"Mary":13525,"ational C":13526,"PDB":13527,"Iran.\n":13528,"Hari Ini, ":13529,"satu unit":13530,"belasan ":13531,"China dan ":13532," Putri ":13533,"Emir":13534,"e-yong":13535,"sekolah.\n":13536,"judul ":13537,"Hasto Kristiyanto":13538," Imam":13539,"di depan ":13540,"litar, ":13541,"Malang hari ini, ":13542," Gusti ":13543,"Pecco":13544,"awan-k":13545,"Solidaritas Indonesia (":13546,"ecretary":13547,"istyo Sigit Prabowo":13548,"aniyeh":13549,"sociated":13550,"Kota (Pemkot)":13551,"Pendayagunaan Aparatur Negara dan Reformasi Birokrasi ":13552," ialah ":13553,"\"C":13554,"(Un":13555,") hingga ":13556,"Covid-":13557,"ISIS":13558,"Listrik":13559,"NK":13560,
[...]
