{"\n":0," ":1,"!":2,"\"":3,"#":4,"$":5,"%":6,"&":7,"'":8,"(":9,")":10,"*":11,"+":12,",":13,"-":14,".":15,"/":16,"0":17,"1":18,"2":19,"3":20,"4":21,"5":22,"6":23,"7":24,"8":25,"9":26,":":27,";":28,"=":29,">":30,"?":31,"@":32,"A":33,"B":34,"C":35,"D":36,"E":37,"F":38,"G":39,"H":40,"I":41,"J":42,"K":43,"L":44,"M":45,"N":46,"O":47,"P":48,"Q":49,"R":50,"S":51,"T":52,"U":53,"V":54,"W":55,"X":56,"Y":57,"Z":58,"[":59,"\\":60,"]":61,"^":62,"_":63,"`":64,"a":65,"b":66,"c":67,"d":68,"e":69,"f":70,"g":71,"h":72,"i":73,"j":74,"k":75,"l":76,"m":77,"n":78,"o":79,"p":80,"q":81,"r":82,"s":83,"t":84,"u":85,"v":86,"w":87,"x":88,"y":89,"z":90,"~":91,"":92,"":93,"":94,"":95,"¡":96,"£":97,"¥":98,"¦":99,"¨":100,"¬":101,"­":102,"®":103,"°":104,"²":105,"·":106,"¸":107,"º":108,"¼":109,"½":110,"¾":111,"Â":112,"Ä":113,"Å":114,"Ç":115,"É":116,"Î":117,"Ñ":118,"Ö":119,"×":120,"Ø":121,"Û":122,"Ü":123,"ß":124,"à":125,"á":126,"â":127,"ã":128,"ä":129,"å":130,"æ":131,"ç":132,"è":133,"é":134,"ê":135,"ë":136,"í":137,"î":138,"ï":139,"ñ":140,"ó":141,"ö":142,"ø":143,"ù":144,"ú":145,"û":146,"ü":147,"ć":148,"ē":149,"Ğ":150,"ğ":151,"İ":152,"ı":153,"ł":154,"Ş":155,"ş":156,"ƒ":157,"ə":158,"ˆ":159,"̆":160,"̇":161,"̈":162,"̧":163,";":164,"α":165,"μ":166,"Л":167,"а":168,"е":169,"к":170,"н":171,"о":172,"п":173,"с":174,"т":175,"у":176,"і":177,"ا":178,"ة":179,"ح":180,"د":181,"ر":182,"س":183,"غ":184,"ق":185,"ل":186,"م":187,"ن":188,"و":189,"ي":190,"‎":191,"‏":192,"•":193,"‫":194,"‬":195,"′":196,"″":197,"›":198,"€":199,"™":200,"∂":201,"■":202,"◊":203,"●":204,"☮":205,"⭐":206,"️":207,"�":208,"🇷":209,"🇹":210,"🏆":211,"🏻":212,"👍":213,"👑":214,"💋":215,"💧":216,"💰":217,"😁":218,"😊":219,"🙏":220,"ar":221,"an":222,"er":223,"in":224,"ın":225," b":226,"de":227,".\n":228,"il":229," k":230,"en":231,"al":232," y":233,"da":234," s":235,"ir":236," g":237,"ak":238,"lar":239,"el":240,"ma":241,"et":242,"la":243," o":244,"ek":245," v":246,"iy":247," t":248,"un":249," i":250,"or":251," d":252,"ler":253,"at":254,"ay":255,"es":256,"on":257,"dı":258," h":259,"di":260,"as":261,"ur":262,"le":263," ve":264,"aş":265,"li":266,"ün":267,"ıl":268," de":269," bir":270,"ür":271," m":272,"im":273," ç":274,"ık":275,"iz":276,"ul":277,"em":278," ol":279,"ap":280," A":281," a":282,"ik":283,"ır":284,"st":285,"am":286,"ör":287,"ında":288,"ey":289,"inde":290," B":291,"dan":292,"ış":293," il":294," T":295,"iş":296," da":297,"az":298," ö":299," p":300,"ını":301,"ab":302," e":303," K":304,"ya":305,"ğı":306,"du":307," S":308,"ki":309,"um":310," M":311,"'n":312,"ini":313,"ah":314," al":315,"üz":316,"den":317,"ti":318," ş":319," yap":320,"ine":321,"tı":322," ar":323,"it":324,"ol":325,"ec":326,"lı":327,"sı":328,"esi":329," f":330,"lan":331,"ok":332,"ım":333,"iye":334," iç":335," \"":336,"yor":337,"ına":338,"is":339,"ları":340,"ük":341," bu":342,"ağ":343," n":344,"iyor":345," D":346," G":347,"ül":348,"uz":349,"leri":350,"ev":351,"inin":352," H":353,"iler":354,"ği":355," gör":356,"uş":357," E":358,"cak":359,"af":360,"ut":361,"oğ":362," baş":363," kar":364,"alar":365,"ön":366,"anı":367," et":368,"ta":369,"ez":370,"ürk":371," için":372," son":373,"ların":374,"ız":375,"eler":376," İ":377," ile":378,"üm":379,"us":380," gel":381,"dır":382," oldu":383," ön":384,"te":385,"av":386,"eç":387,"ca":388,"uk":389," ver":390," kon":391," r":392,"lik":393," an":394,"ad":395," z":396,"ce":397," ed":398,"üş":399," C":400,"ından":401," Y":402,"len":403," P":404,"ması":405,"se":406," aç":407,"dir":408,"yon":409," ger":410,"uy":411," c":412,"20":413,"unu":414,"öy":415,"mak":416,"me":417," F":418,"ının":419," ay":420,"öz":421," bul":422,"laş":423,"ra":424,"lu":425,"cı":426,"lay":427,"om":428," yıl":429,"üy":430," ma":431," Türk":432,"eş":433,"ildi":434,"op":435," tar":436,"lık":437,"ib":438,"ip":439," çık":440,"'da":441," en":442," yer":443,"ası":444," kal":445," bel":446," bil":447," olduğ":448,"Bu":449," değ":450,"man":451," in":452,"tir":453,"larak":454,"tan":455," sür":456," yaş":457," iş":458,"ıyor":459,"dığı":460,"'de":461," gün":462," geç":463,"mas":464,"ken":465,"mek":466,"üt":467," olarak":468,"'nin":469," yar":470,"öyle":471,"eh":472,"ade":473," ist":474," (":475," kad":476,"ıs":477," or":478,"ro":479,"aşk":480,"ılan":481,"tır":482,"ede":483,"iyle":484,"ecek":485," çok":486," O":487,"ama":488," ne":489,"eni":490,"eb":491,"alı":492,"ilm":493," olan":494,"ada":495,"ha":496,"ili":497,"ğini":498,"iyet":499," üz":500," çal":501,"asında":502,"aya":503,"aber":504,"yla":505,"let":506," kay":507,"ist":508," mil":509," R":510,"lü":511,"imiz":512,"ru":513,"ece":514," kur":515,"inden":516," bulun":517,"ih":518,"mış":519,"ed":520," belir":521,"ilen":522," Türkiye":523,"cu":524," ise":525," çalış":526," üzer":527," karş":528," var":529,"201":530,"lama":531,"eye":532,"uşt":533," dev":534," açık":535," daha":536,"unda":537,"arı":538,"aç":539," yön":540," kul":541,"ibi":542," el":543," ter":544," -":545," sor":546,"ci":547," ek":548,"'in":549," oy":550,"'ın":551,"si":552," ken":553," top":554,"lerin":555,"larını":556,"ğını":557,"aman":558,"..":559,"öl":560,"malar":561," yak":562,"por":563," gü":564,"eri":565,"leş":566,"os":567," yüz":568," bin":569," at":570,"'y":571," düş":572," dur":573," kiş":574,"ara":575,"üyük":576,"ıldı":577," Ş":578," N":579,"ğr":580," gö":581," yan":582,"ep":583," dön":584,"dür":585,"eli":586," taraf":587,"erek":588,"lem":589,"arak":590,"'nın":591,"ilir":592," kullan":593," Ç":594," uy":595,"erk":596,"uç":597,"sa":598,"unun":599,"lara":600,"ark":601,"ılı":602," sonra":603," gir":604,"diği":605,"oy":606," kadar":607,"maya":608," sağ":609,"ten":610," L":611," Ö":612," sah":613," gibi":614,"lerini":615,"miş":616,"ladı":617,"tığı":618," gerek":619," kap":620," etti":621,"men":622,"met":623," hal":624," kat":625,"id":626," tek":627," ola":628," tak":629,"dü":630,"oli":631," söyle":632," mü":633," ül":634,"anlı":635," Er":636,"00":637,"ayı":638," hak":639,"esinde":640," ü":641," ak":642," karşı":643," dedi":644,"aşkanı":645," terör":646,"isi":647,"acak":648,"san":649,"re":650,"ran":651," yeni":652,"asyon":653,"aat":654," böl":655,"may":656,"ter":657,"ımız":658," öz":659,"art":660,"dım":661,"una":662," ilg":663," her":664," V":665," büyük":666," if":667,"çek":668," ev":669,"ot":670,"ic":671," göre":672," ülk":673,"?\n":674,"kin":675," düz":676," as":677,"etir":678,"if":679,"ğu":680," ilk":681," alın":682," hay":683,"ven":684,"hur":685," getir":686," dün":687,"tr":688,"ef":689,"etim":690,"ers":691," olduğunu":692,"stan":693,"elik":694," ifade":695,"bul":696," olduğu":697,"umhur":698," An":699," neden":700," ort":701," pro":702,"üs":703," ör":704," doğ":705," do":706," zaman":707,"dik":708," on":709,"gi":710," belirt":711,"larda":712," yol":713," alan":714," sal":715,"'a":716," göz":717,"per":718," yüzde":719," tut":720,"larının":721,"oc":722,"alan":723,"lat":724," sır":725,"çe":726,"Türk":727,"azet":728,"cağı":729,"ac":730," öğr":731,"iv":732," maç":733,"üks":734,"iyi":735," Haber":736,"An":737," çek":738,"tar":739," ama":740,"gu":741," şek":742,"uh":743," önem":744,"ünde":745,"uştur":746," U":747," u":748," değil":749," devam":750," has":751,"rup":752,"oğlu":753," tarafından":754,"tık":755,"der":756,"güt":757," gerçek":758,"lam":759," ih":760,"iç":761,"ster":762,"iniz":763,"tik":764," arasında":765," ot":766,"uyor":767," uz":768," alt":769," biz":770," sev":771,"stanbul":772,"mesi":773,"ünü":774,"ley":775,"dından":776," Ar":777," poli":778,"erb":779," Al":780,"10":781," yaz":782,"bir":783,"cü":784," yapılan":785,"dık":786,"enel":787," '":788,"eyi":789,"ındaki":790,"ans":791,"akan":792," göster":793," kendi":794,"'ye":795,"doğ":796,"arb":797,"tü":798," diye":799,"lere":800,"anın":801," durum":802,"alık":803,"gün":804," ardından":805," iki":806,"15":807,"dar":808,"mız":809," milyon":810,"ğer":811," düzen":812," saat":813," Z":814," l":815," kaz":816," ad":817,"...\n":818," söz":819," ilgili":820,"atı":821," önce":822,"ub":823,"19":824," li":825," saldır":826," başk":827," bek":828,"larına":829,"sız":830,"liği":831,"ob":832," olma":833,"'nde":834,"dığını":835,"lerinin":836," eden":837,"eleri":838," sav":839," bölg":840,"atır":841,"edi":842," har":843," görev":844,"oz":845,"han":846," es":847," örgüt":848," bulundu":849," öl":850,"ğü":851,"eti":852,"uştu":853,"usu":854,"esine":855," bağ":856," önemli":857,"atan":858," özel":859," öğren":860,"ıp":861,"sun":862," par":863," insan":864," Başkanı":865,"Türkiye":866," yok":867," gelen":868,"up":869," güven":870,"ileri":871,"ıla":872,"ram":873," is":874,"Bir":875," karar":876," ür":877,"üp":878," hem":879," Mü":880,"BD":881,"ET":882,"enin":883," dönem":884," yet":885," oyun":886,"erkez":887,"bol":888,"lerde":889,"ank":890,"ocuk":891," Haberleri":892,"ne":893," söyledi":894,"'e":895,"lerine":896," den":897,"iyas":898," haf":899," san":900,"ekt":901," dest":902," iz":903," Cumhur":904," Bak":905,"leştir":906,"işim":907,"doğan":908," Öz":909,"dur":910,"rı":911,"iliyor":912," değer":913,"nı":914,"azı":915," birlik":916,"raf":917," duy":918,"aret":919," içinde":920,"rak":921,"cel":922,"esini":923," yüks":924," iyi":925,"lendir":926,"ika":927,"ulu":928," yaptığı":929," fark":930," say":931," ben":932," tarih":933,"siz":934," Ü":935," kam":936,"perasyon":937,"maz":938," hayat":939,"!\n":940," der":941," kor":942,"aşı":943," tem":944," Sur":945," Av":946," Ak":947," bak":948,"'un":949," bas":950," dış":951," ko":952,"det":953,"tür":954,"larında":955," Kur":956," ediyor":957," olay":958," geldi":959,"'ya":960,"ilecek":961," şeh":962,"daş":963," ok":964,"iyat":965,"layan":966," vur":967,"üyor":968,"ilerin":969," I":970," iliş":971,"'dan":972," oyn":973," yay":974," az":975," ede":976,"cade":977," İstanbul":978,"ilde":979,"lerinde":980,"ağı":981," haber":982,"ig":983," kişi":984,"ddi":985,"eki":986," zor":987," görüş":988," edildi":989,"lah":990," çıkar":991," tes":992," J":993,"taş":994,"asar":995," güç":996," ada":997," haz":998,"larla":999," bulunan":1000," im":1001,"ılık":1002,"eyen":1003," kim":1004," ağ":1005,"ali":1006," takım":1007,"ısı":1008," ki":1009,"ETÖ":1010,"esinin":1011,"\".":1012,"ile":1013,"eme":1014,"'den":1015," konuş":1016," eş":1017,"ülen":1018," açıklama":1019," tüm":1020," üzerine":1021,"iştir":1022," mes":1023," Baş":1024," polis":1025," dik":1026,"bet":1027," operasyon":1028," sat":1029," bilg":1030," şey":1031," lir":1032," ark":1033,"azla":1034," çocuk":1035,"anlığı":1036," şekilde":1037,"ket":1038," hakk":1039," hav":1040,"ğimiz":1041,"masına":1042,"masını":1043,"uv":1044,"rupa":1045," birlikte":1046,"meye":1047," cez":1048," kes":1049,"onom":1050,"utbol":1051,"lardan":1052,"anan":1053," Gazet":1054,"üne":1055," ser":1056," dav":1057,"iğer":1058," seç":1059," verdi":1060," fazla":1061," hazır":1062,"ov":1063,"ektör":1064,"ğit":1065," üst":1066," Mah":1067," gen":1068," vatan":1069,"sel":1070,"ilik":1071," git":1072," hiç":1073," em":1074,"Biz":1075," Müdür":1076,"kat":1077," geçir":1078," ulaş":1079," destek":1080,"mir":1081,"alat":1082," kan":1083,"iyon":1084," olacak":1085," konuştu":1086," olmak":1087," yür":1088,"istem":1089,"ide":1090," mücade":1091,"'nun":1092,"bar":1093," yaptı":1094," önc":1095,"12":1096," kaç":1097,"30":1098," Erdoğan":1099,"olo":1100,"liğ":1101," ask":1102,"ıcı":1103," tel":1104," Gazetesi":1105," tama":1106," aynı":1107,"adece":1108,"lanan":1109," yapıl":1110,"yan":1111," ekip":1112," sayı":1113," bır":1114,"lenen":1115,"KK":1116,"ret":1117,"ahçe":1118,"usunda":1119,"ilmesi":1120," art":1121,"alt":1122," kö":1123,"ağını":1124,"ulan":1125," darb":1126,"kan":1127,"tal":1128,"landı":1129,"est":1130,"indeki":1131," iddi":1132," suç":1133,"osy":1134,"luk":1135," sahip":1136," saldırı":1137," kazan":1138," ya":1139,"likle":1140," dikkat":1141,"sam":1142,"ğitim":1143," İs":1144," harek":1145," kab":1146," bugün":1147," bırak":1148," te":1149,"'te":1150,"mıştı":1151," bur":1152," sık":1153," fa":1154,"ilah":1155,"edef":1156," muh":1157," dak":1158,"ımı":1159,"AR":1160,"ilece":1161,"kara":1162," gön":1163,"aları":1164,"gan":1165," vatandaş":1166," veya":1167," konu":1168,"200":1169," Par":1170," nedeniyle":1171," ABD":1172,"hal":1173,"kü":1174," yapan":1175,"lığı":1176,"'ta":1177,"oloj":1178,"),":1179," ortaya":1180,"olu":1181,"lantı":1182,"11":1183,"mi":1184," diğer":1185," sistem":1186," yakın":1187," Suriye":1188,"eşik":1189," kıs":1190," üzere":1191,"başkanı":1192," kez":1193,"kil":1194," çıktı":1195," kr":1196,"AN":1197,"enerb":1198,"'nda":1199," yardım":1200," Genel":1201,"acağı":1202,"iyoruz":1203,"mer":1204," Avrupa":1205," İl":1206,"eşiktaş":1207," uç":1208,"maları":1209," açıkla":1210,"larımız":1211," hedef":1212," şu":1213," tekn":1214," aş":1215," şir":1216," başladı":1217,"muz":1218," TL":1219,"meler":1220,"asıl":1221,"ınız":1222,"usya":1223,"ütün":1224,"Ben":1225," gerçekleştir":1226,"Ay":1227," üy":1228," devlet":1229," Yıl":1230,"imi":1231,"manın":1232," edilen":1233,"bilir":1234,"emiz":1235," Bel":1236," futbol":1237," merkez":1238," Ay":1239," isim":1240," yaklaş":1241,"Al":1242,"ing":1243,"enerbahçe":1244,"ri":1245," geçen":1246,"mayı":1247," Gün":1248," içer":1249," yatır":1250,"ök":1251,"urt":1252,"larından":1253,"gı":1254,"eğ":1255," olur":1256," kapsam":1257,"yar":1258," yas":1259,"üküm":1260," sadece":1261,":\n":1262," millet":1263,"Ancak":1264," yönelik":1265,"çı":1266,"asaray":1267," bazı":1268,"alatasaray":1269,"ezon":1270,"lak":1271," sı":1272,"undan":1273," doğru":1274," pay":1275," aldı":1276," Tem":1277,"50":1278,"ünün":1279," er":1280," kend":1281," kaldır":1282,"ons":1283," Or":1284," İn":1285," kadın":1286," siyas":1287,"çi":1288," tutuk":1289,"gil":1290," hast":1291,"okt":1292,"yı":1293,"lüğü":1294,"niyet":1295,"ayan":1296," proj":1297," sonu":1298,"oş":1299,"lük":1300," tamam":1301," araç":1302," Kar":1303,"Son":1304,"ğın":1305,"osyal":1306," üç":1307,"'daki":1308," günü":1309,"ılması":1310,"'i":1311,"ana":1312,"ehir":1313,"medi":1314," Em":1315," FETÖ":1316," sonr":1317," tab":1318,"eden":1319," plan":1320,"daki":1321," gönder":1322,"gel":1323,"14":1324," hafta":1325," boy":1326," bildir":1327," gol":1328,"abilir":1329,"ER":1330,"nak":1331," PKK":1332,"omb":1333,"masının":1334,"vet":1335," görün":1336,"aşkan":1337,"lerden":1338,"dav":1339,"lerinden":1340,"üb":1341," düşün":1342,"adaş":1343,"van":1344,"isinde":1345," ik":1346," yerine":1347,"'ne":1348," uygu":1349,"eci":1350,"..\n":1351,"eniz":1352," iht":1353,"\"ın":1354,"16":1355,"asına":1356," girişim":1357,"ust":1358,"ivers":1359," üzerinde":1360," değerlendir":1361," dolar":1362,"kı":1363,"iyorum":1364," bit":1365,"iversit":1366,"Ar":1367,"ahat":1368," güvenlik":1369," uyg":1370," silah":1371,"cek":1372,"'deki":1373,"muş":1374," terörist":1375," düny":1376," ayr":1377,"gram":1378,"endi":1379,"okr":1380,"izmet":1381," nasıl":1382," gid":1383," tah":1384,"lerle":1385," mey":1386," yılında":1387,"ize":1388,"deki":1389," lira":1390," hareket":1391," yönetim":1392," diy":1393," şöyle":1394,"üph":1395," ilç":1396," milyar":1397," hakkında":1398,"18":1399,"las":1400," şirket":1401," pat":1402," sezon":1403,"pr":1404," süre":1405," kız":1406," hat":1407," gazet":1408,"bakan":1409," Mil":1410,"ilere":1411,"trol":1412," anlaş":1413,"ınır":1414," sen":1415," kil":1416," kır":1417,"dana":1418,"orm":1419," yüksek":1420," tal":1421," işlem":1422," Spor":1423,"eceğ":1424,"HP":1425,"ılacak":1426," çev":1427," yanı":1428,"aştır":1429,"17":1430," kurul":1431," değiş":1432,"rar":1433,"malı":1434,"sini":1435,"all":1436," mut":1437," konusunda":1438,"istan":1439,"\"n":1440,"Ama":1441,"kinci":1442,"leme":1443,"unları":1444," dünya":1445," oyuncu":1446," bile":1447,"isyon":1448,"mayan":1449,"amp":1450," W":1451,"25":1452,"evlet":1453," Temmuz":1454,"ehmet":1455,"ge":1456," ancak":1457," biri":1458," yatırım":1459,"üç":1460," farklı":1461,"ebilir":1462," Bir":1463," tedav":1464," Has":1465,"ilmiş":1466,"laya":1467,"ünya":1468," Cumhuriyet":1469,"ğa":1470," Şub":1471," yayın":1472," etm":1473," açıklamada":1474,"13":1475," kontrol":1476," met":1477,"uma":1478,"aliyet":1479," yaşındaki":1480," hız":1481," olması":1482," arkadaş":1483," paylaş":1484,"İn":1485," kabul":1486," soruştur":1487,"azar":1488,"kem":1489," mah":1490,"aj":1491,"üldü":1492,"ısında":1493,"izi":1494," tan":1495,"ledi":1496,"efon":1497,"üzel":1498," darbe":1499," ey":1500,"ümüz":1501,"rıca":1502," tur":1503," yönet":1504,"min":1505," Söz":1506,"altına":1507," iti":1508," mücadele":1509," sağlık":1510,"afa":1511," ekonom":1512,"lk":1513,"...":1514,"İş":1515," böyle":1516," geliş":1517," genel":1518," hizmet":1519,"etin":1520,"tin":1521," katıl":1522,"tiği":1523,"mekte":1524," başka":1525,"'yi":1526,"lum":1527," oluştur":1528," Ankara":1529," eğitim":1530," bölüm":1531,"lerimiz":1532,"lendi":1533,"duğu":1534," Ün":1535," ağır":1536,"fer":1537," şehit":1538," ilişkin":1539," asker":1540,"mişti":1541,"ğunu":1542,"ça":1543,"rab":1544,"ver":1545," bütün":1546," hes":1547,"üsü":1548," uzun":1549," eski":1550,"tu":1551,"suz":1552,"dem":1553," bab":1554," Bakanı":1555,"çok":1556," film":1557,"oğun":1558,"AK":1559," sınır":1560," mo":1561,"oğraf":1562," şüph":1563," mi":1564,"gin":1565,"şam":1566," bomb":1567,"ari":1568," teş":1569," olduk":1570," toplantı":1571,"alarında":1572," kapsamında":1573,"arası":1574," telefon":1575," tür":1576," Beled":1577,"imdi":1578," ün":1579," teh":1580,"tiğini":1581,"erör":1582,"tak":1583,"ırken":1584," ber":1585,"akat":1586," hep":1587," med":1588," Mehmet":1589," rağ":1590,"esiyle":1591,"Bur":1592,"uyla":1593," yağ":1594," büy":1595," halk":1596," çalışan":1597,"acı":1598,"can":1599," Ek":1600,"ala":1601," ülkeler":1602," bulunduğu":1603," yüksel":1604," kaybet":1605," gözaltına":1606," rağmen":1607,"ışma":1608,"'na":1609," rak":1610,"din":1611," belirten":1612,"ens":1613," koy":1614," dir":1615,"ışı":1616,"'ı":1617," yen":1618,"lim":1619,"asını":1620," etki":1621," seb":1622," çalışmalar":1623,"tep":1624," Kom":1625,"deş":1626,"cağını":1627,"net":1628," Dem":1629,"mez":1630,"vek":1631," su":1632,"sine":1633," çıkan":1634," Parti":1635,"vur":1636," hastan":1637," sok":1638," yaşa":1639," alınan":1640," kişinin":1641," Mahall":1642,"üc":1643,"anız":1644,"ani":1645," sürdür":1646," Müdürlüğü":1647," ait":1648,"Er":1649," örgütü":1650," tesp":1651,"ekli":1652,"ğında":1653," çöz":1654," ail":1655,"esin":1656," dakik":1657,"ünkü":1658," kararı":1659," la":1660,"siniz":1661," genç":1662," Rusya":1663,"uslar":1664,"mı":1665," orta":1666,"aha":1667,"larıyla":1668," fiyat":1669," etk":1670," ziy":1671,"erj":1672,"Baş":1673," karşılaş":1674,"On":1675,"sal":1676," hüküm":1677,"obil":1678," mev":1679," fin":1680," istedi":1681," yaklaşık":1682,"umu":1683," taş":1684,"azi":1685,"ült":1686,"yen":1687," sun":1688," başar":1689," gelir":1690,"sin":1691," mı":1692," sektör":1693," çağ":1694," başlat":1695,"fa":1696," ettiği":1697,"dırım":1698," sonuç":1699," savaş":1700,"lo":1701,"ıt":1702," oluş":1703," mad":1704," öldür":1705,"ayet":1706," anla":1707,"tay":1708," taşı":1709," bağlı":1710,"umuz":1711,"dül":1712," beklen":1713," Mahallesi":1714," Beşiktaş":1715," sab":1716," Yar":1717," konusu":1718," Kon":1719," anlat":1720,"Cumhur":1721,"En":1722," bar":1723," hiçbir":1724,"ici":1725,"İstanbul":1726," etmek":1727,"madı":1728," yaşan":1729," tep":1730," aldığı":1731," altında":1732,"sil":1733,"leyen":1734," yaralan":1735," dem":1736," başvur":1737,"esel":1738," ceza":1739," tespit":1740," mem":1741,"alet":1742,"eği":1743," kom":1744," incel":1745,"cısı":1746,"eyin":1747," Alman":1748," ikinci":1749,"ılığı":1750," hava":1751,"ğına":1752," pu":1753," sosyal":1754,"enk":1755," En":1756," yürüt":1757," program":1758,"masında":1759,"emek":1760," am":1761," Bur":1762," geri":1763," bunu":1764,"unuyor":1765,"amaz":1766," ihtiy":1767,"uslararası":1768," güzel":1769," Hal":1770," imz":1771,"ültür":1772," yeniden":1773,"ıyoruz":1774," yaşam":1775,"üf":1776," Kurulu":1777,"ladığı":1778,"24":1779,"apor":1780,"lıyor":1781," alındı":1782," Fenerbahçe":1783,"100":1784,"asının":1785,"umlu":1786," Ah":1787,"Öz":1788,"rub":1789,"Her":1790,"arp":1791," As":1792," para":1793," Ko":1794,"otoğraf":1795,"ABD":1796," ateş":1797," beraber":1798," din":1799," Bakanlığı":1800,"unca":1801," av":1802," Sözcü":1803,"Bunun":1804," birçok":1805," un":1806,"ch":1807," grup":1808,"ustafa":1809," itibar":1810," savun":1811,"ampiyon":1812,"od":1813," başkan":1814,"ayas":1815," tanı":1816," bizim":1817,"rabz":1818,"makta":1819," müz":1820,"lek":1821," Galatasaray":1822,"ullah":1823," üret":1824," engel":1825,"üçük":1826," otom":1827," anlam":1828," öğrenc":1829," Cumhurbaşkanı":1830," Büyük":1831,"lin":1832," artık":1833,"ej":1834," ele":1835,"uvvet":1836,"leriyle":1837," söy":1838,"aban":1839," kayde":1840," kamu":1841,"rans":1842," yine":1843," veren":1844,"elim":1845," kayb":1846," per":1847," res":1848," mak":1849," kullandı":1850," ülke":1851,"ocu":1852,"erken":1853,"duk":1854," dile":1855,"tat":1856," Tur":1857," okul":1858,"dın":1859," bor":1860," geçti":1861,"22":1862," Ali":1863," tart":1864," öde":1865," toplam":1866,"AŞ":1867," üzerinden":1868,"laştır":1869," hale":1870,"tif":1871," belirtildi":1872," soru":1873," dönüş":1874," şekl":1875,"talya":1876," yoğun":1877," bank":1878," kı":1879," rahat":1880,"işleri":1881," Merkez":1882," Devlet":1883,"mıştır":1884," his":1885," tük":1886,"esinden":1887," sonrası":1888,"AL":1889,"sman":1890," oran":1891," vurgu":1892,"lüğ":1893,"ünden":1894," kardeş":1895," artır":1896," Yıldırım":1897,"br":1898," hey":1899," Ad":1900," meydana":1901," dolay":1902,"tiv":1903,"akır":1904," tam":1905,"anıyor":1906," satış":1907," ziyaret":1908," anda":1909," sorun":1910," fotoğraf":1911," herk":1912," sey":1913,"pan":1914,"eyaz":1915,"elerin":1916," kav":1917," kurum":1918,"Ak":1919," ses":1920," kısa":1921," bun":1922," mağ":1923,"uldu":1924," kaynak":1925," for":1926," mer":1927," götür":1928," belirtti":1929,"gen":1930," bilin":1931," San":1932,"Kar":1933," adım":1934," ortak":1935,"40":1936," adam":1937,"uro":1938,"adan":1939," bunun":1940," Kan":1941," Üniversit":1942," Zaman":1943,"ecli":1944," içerisinde":1945,"21":1946,"üven":1947," zar":1948," gerçekleş":1949,"İL":1950," Mar":1951," araştır":1952," medya":1953,"aspor":1954," faaliyet":1955," burada":1956,"of":1957," Ab":1958,"AT":1959,"ağa":1960," yaşanan":1961,"akk":1962,"na":1963," madde":1964," verdiği":1965," istem":1966," akşam":1967," ul":1968," seçim":1969," çevr":1970,"madan":1971,"ıntı":1972,"23":1973,"ince":1974,"ale":1975," can":1976," belirterek":1977,"eceği":1978," otur":1979," nokt":1980,"mem":1981,"aların":1982," müda":1983," kaydet":1984," edecek":1985,"mektedir":1986," cev":1987,"elere":1988," yakalan":1989," Mustafa":1990," verildi":1991," sırasında":1992," mesaj":1993,"tem":1994," dah":1995," ekipleri":1996," kit":1997," hatır":1998," ilişk":1999," teknik":2000,"uyu":2001," gi":2002," puan":2003,"İN":2004," trans":2005,"ukuk":2006,"zmir":2007," fır":2008,"mada":2009," kol":2010,"enç":2011," hayatını":2012," basın":2013,"ören":2014," kalan":2015,"ğinde":2016," düzenlenen":2017,"ere":2018,"ılıyor":2019,"landır":2020," Ahmet":2021,"'ün":2022," Hav":2023," boz":2024,"ga":2025,"rum":2026,"şehir":2027,"etr":2028,"ort":2029," futbolcu":2030,"ast":2031," gelecek":2032," Doğ":2033,"ğine":2034," Pro":2035," bah":2036," Es":2037,"abancı":2038,"ıldığı":2039," fir":2040,"okras":2041," Bay":2042," toplum":2043,"mey":2044," dil":2045,"ilerine":2046," uzak":2047," Tek":2048," kent":2049," sonucu":2050,".,":2051,"mızı":2052," pr":2053,"siyon":2054," oluyor":2055,"eştir":2056," mu":2057,"uluk":2058," Başkan":2059,"Daha":2060,"sinin":2061," kalk":2062," eylem":2063,"EN":2064,"Geç":2065,"mar":2066,"eral":2067,"layacak":2068," ayında":2069," man":2070," Yön":2071," Demir":2072,"spor":2073," Üniversitesi":2074,"alarda":2075," özellikle":2076,"AB":2077," dönemde":2078," takip":2079," gerekiyor":2080," dol":2081," ürün":2082," sevk":2083,"gın":2084," Emniyet":2085," olsun":2086," Mart":2087,"teki":2088,"ton":2089," giy":2090," yapılacak":2091,"meden":2092," üretim":2093,"ova":2094,"ii":2095," sıra":2096," kapat":2097," Şubat":2098,"ivil":2099," inş":2100," yaptık":2101," yapıldı":2102," sırada":2103," öğrenildi":2104,"sunuz":2105,"sik":2106," ce":2107," sanat":2108," çat":2109,"gür":2110,"ğim":2111,"dak":2112," siz":2113,"'nün":2114," diyor":2115,"tığını":2116," üc":2117," boş":2118," Kay":2119,"müş":2120," müdahal":2121,"ternet":2122,"diler":2123,"su":2124," yor":2125,"tım":2126," aktar":2127," kaydetti":2128,"ilerinin":2129," indir":2130," yandan":2131," devr":2132,"sın":2133," olabilir":2134," duyur":2135,"for":2136,"iyesi":2137," uygula":2138,"kün":2139,"'u":2140," yurt":2141," mal":2142," ihra":2143," benz":2144," benim":2145," piyas":2146," geliyor":2147," spor":2148,"do":2149," AK":2150," pazar":2151," ölüm":2152," gal":2153," siyasi":2154," Hastan":2155," şeklinde":2156,"Sur":2157," Sav":2158,"elen":2159,"ayın":2160," yıllık":2161,"ent":2162," dair":2163,"FETÖ":2164,"Çünkü":2165,"ünüyor":2166,"erji":2167," tat":2168,"asım":2169," AB":2170,"Bugün":2171," rek":2172,"As":2173," bay":2174,"28":2175," aday":2176," yapmak":2177,"sat":2178," temsil":2179,"unuz":2180," değişik":2181," çocu":2182," yapıyor":2183," terc":2184," çalışma":2185," altına":2186," Başbakan":2187,"eg":2188," diz":2189," çarp":2190," değiştir":2191,"'yı":2192,"erim":2193,"taki":2194," isteyen":2195,"düğ":2196," kesin":2197," İş":2198," cid":2199,"şı":2200,"avut":2201," Li":2202,".'":2203,"Olay":2204," Der":2205," çif":2206," günde":2207,"mesini":2208,"yız":2209," han":2210," Deniz":2211,"eza":2212," bulunuyor":2213," Sü":2214," cin":2215," Dr":2216," çiz":2217," önünde":2218," ederek":2219,"altı":2220," lider":2221,"ğının":2222,"lamak":2223," Ser":2224,"Ön":2225,"ğin":2226," Ocak":2227," Dünya":2228," yana":2229,"alama":2230," başarı":2231,"ılıç":2232,"oloji":2233," ann":2234," müm":2235," yetkil":2236,"isinin":2237,"alim":2238," uçak":2239,"elç":2240,"ınca":2241,"lif":2242,"meyi":2243," sahibi":2244,"nik":2245,"ola":2246," arac":2247," tekrar":2248,"Av":2249,"ört":2250," dok":2251," kir":2252,"ilerini":2253," edil":2254,"dikleri":2255,"dıkları":2256,"uzey":2257,"Yeni":2258,"İlk":2259," Yardım":2260,"60":2261,"erli":2262," sar":2263,"izm":2264,"düğü":2265," gec":2266," alıyor":2267," tercih":2268," mümkün":2269,"liyor":2270," mens":2271,"ula":2272,"aba":2273," Fran":2274,"erbest":2275,"27":2276,"yip":2277,"ıda":2278," bölgede":2279,"eşit":2280," tartış":2281,"ektr":2282," tav":2283," cen":2284," kork":2285,"onspor":2286,"eceğiz":2287," gece":2288," Hol":2289,"alk":2290,"rabzonspor":2291," şunları":2292," iddia":2293," önceki":2294,"jan":2295," dakika":2296," İngil":2297,"og":2298,"ye":2299," adet":2300,"eceğini":2301," artış":2302,"aşa":2303," kolay":2304,"diklerini":2305," hap":2306," dışında":2307," politik":2308,"Ayrıca":2309," dakikada":2310," kaldı":2311,"İs":2312," Tay":2313,"YD":2314," edilm":2315," bilgi":2316," sit":2317,"redi":2318,"ileceği":2319," sivil":2320," giriş":2321," soruşturma":2322," seviy":2323,"lerce":2324,"dük":2325,"mat":2326," rapor":2327," zamanda":2328,"kır":2329," ris":2330," mode":2331,"tim":2332,"one":2333," Ey":2334," inan":2335," kadro":2336," küçük":2337," elektr":2338,"iyarb":2339,"izyon":2340," muhal":2341," transfer":2342," Amer":2343," Osman":2344,"imizin":2345," tepki":2346,"abı":2347," ara":2348," halinde":2349," askeri":2350," zarar":2351," Top":2352,"ileceğini":2353,"acağız":2354,"elerde":2355," Lig":2356,"Terör":2357,"alım":2358,"tur":2359," sayıda":2360," talep":2361," otomobil":2362,"iyarbakır":2363," koş":2364,"26":2365," it":2366," sak":2367," net":2368," geliştir":2369," organ":2370," kuruluş":2371,"yle":2372,"dam":2373,"üst":2374,"vekili":2375,"dum":2376," olmadığını":2377,"emal":2378," Gök":2379,"aşkanlığı":2380,"Cumhurbaşkanı":2381,"isini":2382," getirdi":2383," hemen":2384,"Şİ":2385,"etmen":2386,"çesi":2387,"utlu":2388,"inci":2389,"nek":2390," başlayan":2391," açıl":2392,"osu":2393," gereken":2394,"ami":2395," şah":2396,")\n":2397,"Mil":2398," Can":2399,"kenin":2400,"erson":2401," ücret":2402," internet":2403,"manı":2404," amacı":2405," uygun":2406," El":2407," Aralık":2408,"cılık":2409," açıkladı":2410," tehdi":2411," birbir":2412," köy":2413," yanında":2414," tedavi":2415," yaşayan":2416," sayısı":2417,"rek":2418,"İşte":2419," ettik":2420," vardı":2421,"Bun":2422,"ısından":2423,"\",":2424," Bil":2425," Yılmaz":2426,"ni":2427,"hangi":2428," eleştir":2429,"aten":2430,"ınav":2431,"avutoğlu":2432,"29":2433,"AS":2434,"lül":2435," öne":2436," gerektiğini":2437," oğ":2438," şid":2439," Az":2440,"Özel":2441,"ij":2442," tr":2443,"IN":2444,"iyatı":2445," taraftar":2446,"Or":2447,"OR":2448," hesap":2449,"ürt":2450," Son":2451," başına":2452,"maktadır":2453,"miyor":2454," kah":2455," hen":2456,"isan":2457,"masıyla":2458," ciddi":2459,"Beşiktaş":2460," yapı":2461," olab":2462," durumda":2463," itibaren":2464,"Fenerbahçe":2465,"DE":2466,"arken":2467," teklif":2468,"zı":2469," DE":2470," traf":2471," Bank":2472," boyunca":2473,"FA":2474,"Kon":2475,"adolu":2476,"ayasa":2477," sürec":2478," izin":2479,"Poli":2480,"dim":2481," Bar":2482,"199":2483," görüntü":2484," dolayı":2485," erk":2486," Kara":2487," hukuk":2488," sabah":2489,"dek":2490,"500":2491,"lamaya":2492," adına":2493,"mesine":2494," mark":2495," olmaya":2496," kas":2497," Almanya":2498,"'li":2499," Euro":2500," ifadelerini":2501," kayded":2502," çeşit":2503," olmayan":2504," şart":2505,"ağlık":2506,"elerinin":2507," edece":2508," söyleyen":2509,"cağız":2510," Komut":2511,"ildiği":2512,"onomi":2513,"lediği":2514," Kor":2515," iste":2516,"Galatasaray":2517," yük":2518," Millet":2519," laz":2520," ner":2521," faiz":2522," elde":2523,"oh":2524," serbest":2525,"ete":2526," adlı":2527,"Ne":2528,"ant":2529," DA":2530,"ğiniz":2531," mik":2532," oyunc":2533,"ba":2534,"kaç":2535,"meyen":2536," Hastanesi":2537,"üncü":2538,"rubu":2539,"EŞ":2540," CHP":2541," ora":2542," adı":2543," etkin":2544," Ligi":2545,"cat":2546,"bay":2547,"ısıyla":2548,"sak":2549,"efer":2550," Mahkem":2551," uluslararası":2552," Gül":2553," başla":2554,"45":2555," mas":2556,"ısına":2557,"okrat":2558,"DP":2559," başında":2560," büyüm":2561,"desi":2562," düştü":2563,"lemek":2564,"'tan":2565," Muh":2566," ayrı":2567," tasar":2568," cenaz":2569,"yi":2570,"ecep":2571," arasındaki":2572," karış":2573," yabancı":2574,"ısını":2575,"sta":2576," yat":2577,"taj":2578," eşi":2579," Fat":2580," zorunda":2581,"üvenlik":2582,"Çok":2583," düşünüyor":2584," verilen":2585," şark":2586," bana":2587," istiyor":2588,"tere":2589,"dıklarını":2590,"kur":2591," araya":2592," çözüm":2593,"ılmış":2594,"Yap":2595,"Dün":2596,"asıyla":2597," bize":2598," şimdi":2599,"alara":2600," kurtar":2601," Irak":2602,"lilik":2603," sig":2604,"urat":2605," şehir":2606,"Böyle":2607,"fes":2608,"mıyor":2609," Müdürü":2610," Yönetim":2611,"SK":2612," Mecli":2613,"ahim":2614,"Dünya":2615,"isine":2616," parç":2617," ilet":2618," geniş":2619,"ber":2620,"unan":2621," görül":2622,"acağını":2623,"he":2624," tic":2625," ayrıca":2626," herhangi":2627,"Es":2628,"cil":2629," belli":2630,"abilecek":2631," istih":2632,"oktor":2633,"35":2634," süreç":2635," Yardımcısı":2636,"rgüt":2637," Kasım":2638," konuda":2639," onun":2640," pek":2641," Tayyip":2642," karşısında":2643,"darma":2644," dep":2645,"ilerek":2646,"üman":2647," ha":2648,"liğini":2649," sonunda":2650," yarat":2651," haft":2652," katıldı":2653," kötü":2654,"apı":2655," güçlü":2656," sin":2657," saatlerinde":2658," ünlü":2659," Per":2660," Fet":2661,"iğ":2662,"diş":2663," iler":2664," ödül":2665," Recep":2666," tören":2667," yıldı":2668,"iliği":2669," tarihi":2670,"ışişleri":2671," teslim":2672," kut":2673," mült":2674,"İR":2675," şik":2676," sokak":2677," milli":2678," hastalık":2679," İzmir":2680," sağlan":2681," lazım":2682," parti":2683,"'ten":2684,"90":2685," taleb":2686,"ucu":2687," mez":2688," ülkenin":2689," dünyanın":2690,"Şimdi":2691,"lüyor":2692," temiz":2693," avuk":2694," Har":2695,"amaya":2696,"ve":2697," resmi":2698,"ısının":2699," Milli":2700,"ag":2701," şampiyon":2702," mahkem":2703," cevap":2704,"Yar":2705," alış":2706," nedenle":2707," şiddet":2708," uygulan":2709,"har":2710," erkek":2711,"IR":2712,"diğini":2713," Gülen":2714," Ceza":2715,"Rusya":2716,"ayıs":2717," belg":2718," hükümet":2719,"tın":2720," sol":2721," durumu":2722," açıklamalar":2723,"Şu":2724," yaralı":2725," ilçesinde":2726," düşür":2727,"cisi":2728,"İki":2729," poz":2730," alacak":2731,"eşil":2732," kayıt":2733,"birliği":2734," yılda":2735," herkes":2736,"ücü":2737,"'la":2738,"çak":2739,"lında":2740,"macı":2741," Sar":2742," yarış":2743,"menin":2744," dahil":2745,"rump":2746,"ilmek":2747," kurt":2748,"liy":2749,"ser":2750,"sav":2751," ileri":2752," maçında":2753," Uz":2754,"antep":2755," Su":2756," ana":2757," durdur":2758,"tatürk":2759," ip":2760,"ebek":2761," temel":2762," oyna":2763," sonrasında":2764," taz":2765," yöntem":2766,"liye":2767,"emi":2768," demokras":2769,"ŞİD":2770,"to":2771," Birliği":2772,"üyle":2773," Br":2774," Kılıç":2775,"ölg":2776," part":2777," işaret":2778," çift":2779,"tör":2780," yapacak":2781,"'lı":2782,"BM":2783,"uml":2784," risk":2785," rol":2786," tehdit":2787," person":2788," dışı":2789," duruş":2790,"70":2791,"elerinde":2792,"artesi":2793,"aziantep":2794," uğr":2795,"andır":2796," kaf":2797," tehlik":2798,"Burada":2799,"UR":2800,"çık":2801,"forman":2802," galib":2803," yansı":2804," ettiğini":2805," maçı":2806," almak":2807," mesel":2808," bilgiye":2809," kans":2810,"imize":2811," başarılı":2812,"üğ":2813," sözleş":2814,"abet":2815," yılı":2816," göç":2817,"evizyon":2818," Bakan":2819," öner":2820," kilo":2821," amacıyla":2822,"keme":2823," olm":2824,"deniz":2825," kriz":2826," giden":2827," Af":2828,"eyle":2829," ülkede":2830,"adem":2831,"oca":2832," arada":2833," yanıt":2834," türlü":2835," açı":2836,"Gün":2837,"İT":2838," ham":2839," tarihinde":2840," onu":2841," sınav":2842,"lış":2843," eder":2844," getiren":2845," bildirildi":2846,"sanız":2847," kredi":2848," gez":2849,"ST":2850,"ime":2851," Eğitim":2852,"uvar":2853," Belediye":2854," yorum":2855,"sızlık":2856," iy":2857,"Top":2858," canlı":2859,"imizi":2860," hızlı":2861,"Suriye":2862,"ekk":2863," yaptır":2864," yık":2865," Rus":2866," Val":2867," Terör":2868," katkı":2869,"Bizim":2870,"AY":2871," Nisan":2872," düzey":2873," ülkemiz":2874,"üle":2875,"Ankara":2876," ted":2877," henüz":2878,"meleri":2879," gazetec":2880," Bey":2881," görüyor":2882," gitti":2883," Davutoğlu":2884," ortam":2885,"neği":2886,"etrol":2887," model":2888," İlçesi":2889," fay":2890," Haz":2891," özgür":2892," list":2893," kart":2894," yemek":2895,"dağ":2896," gide":2897," kişiler":2898,"amız":2899,"Başbakan":2900,"nin":2901,"inç":2902," kültür":2903," giz":2904," açısından":2905," isimli":2906,"pek":2907,"madığı":2908," kendisine":2909," ihtiyaç":2910," Cad":2911," galibiyet":2912,"ayla":2913,"layıcı":2914," sarı":2915," ediliyor":2916," maçta":2917,"ormal":2918,"elerini":2919," sistemi":2920," performan":2921,"elerine":2922," ir":2923," Anadolu":2924," diyen":2925,"iyah":2926,"umsuz":2927," aylık":2928," emniyet":2929," kilom":2930," ekonomik":2931,"tepe":2932," memur":2933,"Ek":2934," çeken":2935,"'nden":2936,"layarak":2937," anlattı":2938," elektrik":2939," rej":2940," amaç":2941,"rik":2942," Merkezi":2943," düşük":2944," sebeb":2945," yılın":2946," unut":2947,"Tek":2948," kamer":2949,"med":2950," nok":2951,"ehit":2952," sığın":2953,"EL":2954,"ladık":2955,"lanıyor":2956,"evi":2957,"avuş":2958,"daroğlu":2959," üyesi":2960,"liler":2961," kulüb":2962," atan":2963," Mahkemesi":2964," vak":2965," Mayıs":2966," doğal":2967,"Oy":2968,"ork":2969," derece":2970,"asyonu":2971," azal":2972,"çev":2973,"EM":2974,"luğu":2975," sıkıntı":2976," Kul":2977," sebep":2978,"ena":2979," gören":2980,"lacak":2981,"doğu":2982,"Do":2983,"gun":2984,"set":2985," Kuvvet":2986,"usal":2987," olmadığı":2988," siyaset":2989," giren":2990," anlatan":2991," çeşitli":2992,"asından":2993," Kemal":2994,"DA":2995,"be":2996,"alarının":2997,"İY":2998," Ber":2999," istik":3000," imza":3001,"Yıl":3002," önlem":3003," ayak":3004,"80":3005," çer":3006," ab":3007," Dir":3008," sıcak":3009," fiyatı":3010," veriyor":3011,"rail":3012,"miştir":3013," Allah":3014," Süper":3015," dört":3016," civ":3017," diyerek":3018," acı":3019,"ağım":3020,"Ev":3021,"ıyla":3022,"emin":3023," konuşan":3024,"Hay":3025,"eyn":3026," nit":3027," konut":3028," Mus":3029,"eder":3030,"ediye":3031," görüşmeler":3032,"ydı":3033," olsa":3034,"EK":3035,"Eğer":3036,"dal":3037," yerde":3038," öğretmen":3039," akıl":3040,"yaspor":3041," yıldır":3042," kür":3043," Şen":3044," öncesi":3045," İslam":3046," bes":3047," Koç":3048," söylüyor":3049," çerçev":3050,"masından":3051,"onu":3052,"üksek":3053," uzman":3054," biraz":3055," Murat":3056,"31":3057,"İK":3058,"ağına":3059," gerekir":3060," ikti":3061,"ES":3062,"mesinin":3063," finans":3064,"?\"":3065,"uar":3066," birkaç":3067,"adın":3068," yani":3069," otob":3070," başta":3071,"sed":3072," şüphel":3073," hapis":3074,"dip":3075,"ıldığını":3076," mensup":3077,"LAR":3078,"fet":3079,"gör":3080," Bu":3081," olup":3082," günlerde":3083," tec":3084," soruml":3085," çekti":3086,"larca":3087," aralarında":3088," yarın":3089," aşk":3090,"tıyor":3091," beni":3092," num":3093," Dışişleri":3094," İran":3095," çalışıyor":3096,"bo":3097,"lardır":3098," sürekli":3099,"iyeli":3100,"sınız":3101,"err":3102,"üsl":3103," buna":3104," yal":3105," Man":3106," enerji":3107," yönünde":3108,"raman":3109,"xx":3110,"ışık":3111," eğ":3112,"alarını":3113," önüne":3114," doğr":3115,"Özellikle":3116," sene":3117,"iran":3118,"pany":3119,"Pro":3120," gider":3121," üniversit":3122,"nız":3123," At":3124," cih":3125," yaşadığı":3126,"Polis":3127,"cut":3128,"meli":3129," bakan":3130," Kup":3131," Kürt":3132," arama":3133," girdi":3134," gösterdi":3135," Tak":3136," tahmin":3137," bekleniyor":3138," ces":3139," rakam":3140," etkili":3141,"ON":3142,"şem":3143,"ira":3144," doktor":3145," yarg":3146,"Yani":3147,"udi":3148," kuvvet":3149," hayata":3150," işlet":3151," Çin":3152,"ümüzdeki":3153,"Avrupa":3154," dal":3155," yanlış":3156," tutuklandı":3157," mahal":3158,"olojik":3159," geçmiş":3160," gerekli":3161,"başı":3162," değildir":3163,"vis":3164," Kö":3165," ekran":3166," alanda":3167,"arında":3168,"mam":3169," görevli":3170," yazılı":3171,"brahim":3172," hangi":3173,"Gör":3174,"üler":3175,"ğur":3176," yarar":3177," Tar":3178," hakim":3179," döneminde":3180," dö":3181,"ow":3182," Dur":3183," um":3184," uyar":3185," bizi":3186,"eyim":3187,"oğu":3188," bomba":3189," dayan":3190," tüket":3191," sayesinde":3192," yerinde":3193,"Öte":3194," meş":3195," Caddesi":3196,"son":3197," ihracat":3198," gerekç":3199," kitap":3200," Eylül":3201," vaz":3202," ilan":3203,"lenmesi":3204," Örgüt":3205,"ulması":3206,"abiliyor":3207," sert":3208," tedbir":3209,"meni":3210,"eyecek":3211," nokta":3212,"geç":3213," karşılık":3214," vardır":3215," Başsav":3216,"Kendi":3217," öyle":3218," geçiş":3219,"'ndeki":3220," davran":3221," haline":3222,"oda":3223,"ıma":3224,"demir":3225," olumsuz":3226," Ul":3227," müş":3228," yardımcı":3229," bildirdi":3230," cep":3231," DAEŞ":3232,"Tar":3233,"luğ":3234," Orta":3235," yönetic":3236,"ona":3237," Atatürk":3238," Hak":3239,"avaş":3240," edilmesi":3241," yere":3242,"Erdoğan":3243,"El":3244,"akika":3245," oluşan":3246,"matik":3247," Ekim":3248,"uğ":3249," lig":3250," şüpheli":3251," personel":3252,"AM":3253," str":3254,"maması":3255," itir":3256,"ayi":3257," Ol":3258," amel":3259,"ümü":3260," Ok":3261," esn":3262,"fi":3263,"tel":3264," kendisini":3265,"Bunu":3266,"'ndan":3267,"lanacak":3268," Şah":3269," söyley":3270," hastalı":3271," sona":3272,"bama":3273,"cılı":3274," IŞİD":3275," Prof":3276," yıldız":3277,"air":3278,"üslüman":3279,"atif":3280," buluş":3281,"sinde":3282,"duğunu":3283," Antalya":3284," altın":3285,"Alman":3286," olmaz":3287," Fatih":3288," hüc":3289," men":3290," Diyarbakır":3291," bakım":3292," Aydın":3293,"lal":3294,"ildiğini":3295," tamamen":3296," yaşında":3297,"esindeki":3298,"alarına":3299," ıs":3300," beri":3301," günlük":3302," etkisiz":3303," demek":3304," Belediyesi":3305,"Kaz":3306," ders":3307,"cılığı":3308,"ultan":3309,"anış":3310," Ne":3311,"Kur":3312," çab":3313,"okak":3314,"ğust":3315,"alel":3316,"irken":3317," karak":3318," ruh":3319," kalp":3320,"Bel":3321,"Aynı":3322," Ekonomi":3323,"dası":3324," def":3325," etkil":3326," kesim":3327," kaydedildi":3328,"ırı":3329,"Buna":3330," baz":3331," kuş":3332,"etik":3333," kulüp":3334," cezası":3335," sonuc":3336,"34":3337,"sında":3338,"mayacak":3339," plak":3340," Kal":3341,"lığını":3342,"üseyin":3343," Güncel":3344,"ahç":3345,"uc":3346," süren":3347,"sur":3348," PYD":3349," Jan":3350," Bankası":3351,"Par":3352," Haberler":3353," incelem":3354,"lamen":3355," Grubu":3356," attı":3357,"ğan":3358," mot":3359," Dakika":3360," kaybetti":3361,"-G":3362,"Ülk":3363,"ektörü":3364,"ekkür":3365,"Devlet":3366,"lanması":3367," Hay":3368," zaten":3369," Ch":3370," yarı":3371," final":3372,"yum":3373,"ang":3374," bö":3375,"ışmalar":3376,"za":3377," ediyorum":3378,"dalı":3379," bede":3380," yayım":3381,"sen":3382,"TÜ":3383,"şk":3384,"unma":3385," Trump":3386," anne":3387," silahlı":3388," merak":3389," çocuğ":3390,"engin":3391,"emez":3392,"lasyon":3393," Trabzonspor":3394,"abir":3395," Sal":3396," yolcu":3397," babası":3398,"Geçen":3399," tesi":3400," dağı":3401," Kupası":3402," Kır":3403," kıy":3404,"ğustos":3405,"irv":3406," belirlendi":3407," kendini":3408,"Ve":3409,"türk":3410," olduğuna":3411," davet":3412," yapıla":3413,"mel":3414," ağr":3415," yargı":3416," kapı":3417," televizyon":3418," Derneği":3419,"PG":3420,"tiler":3421,"wit":3422,"inc":3423," durumunda":3424,"sizlik":3425," hesab":3426,"Bil":3427," dost":3428," dışarı":3429,"alimanı":3430," tali":3431,"uzur":3432," toprak":3433,"ımızın":3434," avukat":3435," çıkış":3436,"AD":3437," yüzden":3438,"'le":3439,"paşa":3440," bağım":3441," kullandığı":3442," prot":3443,"vekil":3444,"oto":3445," ,":3446,"ren":3447," beş":3448,"mail":3449,"espor":3450," deniz":3451," Güney":3452," yaralandı":3453,"Spor":3454,"mut":3455,"ınıf":3456," Güvenlik":3457," zam":3458,"tren":3459,"Yak":3460," gösteren":3461," oldukça":3462," orada":3463," bundan":3464,"ımızı":3465,"amak":3466,"Kim":3467,"gar":3468,"madığını":3469,"etre":3470,"ılır":3471," petrol":3472," çalışmaları":3473,"ıldız":3474," dava":3475," borç":3476," miktar":3477,"EFA":3478,"Uz":3479,"bak":3480,"yalı":3481," aile":3482,"başkan":3483,"Çocuk":3484," hik":3485," Genç":3486," dünyada":3487,"düğünü":3488," Ham":3489," fik":3490,"bur":3491,"gü":3492," idar":3493," güncel":3494," teşekkür":3495,"lamada":3496," kims":3497,"barat":3498," fırsat":3499," otel":3500," mevcut":3501," Özel":3502,"-b":3503,"süz":3504," çey":3505," edin":3506," geril":3507," normal":3508," pozisyon":3509,"ciler":3510,"allah":3511," gay":3512," alarak":3513," du":3514," enf":3515," bitir":3516,"Bakan":3517,"ite":3518," krit":3519," Şube":3520,"dat":3521," of":3522," gündem":3523," sanık":3524,"ilmişti":3525,"lılık":3526," yalnız":3527," j":3528,"300":3529," HDP":3530,"ebilecek":3531,"Açık":3532," başvuru":3533,"San":3534,"eksiyon":3535," hâ":3536,"iyeti":3537," edeb":3538," hazırlık":3539,"36":3540," Bul":3541,"duğ":3542,"ham":3543," örnek":3544,"rem":3545,"yo":3546,"ınan":3547,"atta":3548," değişiklik":3549," muhalif":3550,"res":3551," başken":3552," ona":3553,"İM":3554," oda":3555," derin":3556," yapılması":3557,"witter":3558,"ati":3559," öden":3560," Başkanlığı":3561," hakem":3562,"Hem":3563,"eyazlı":3564," gündeme":3565," Meclis":3566," Bin":3567,"İnsan":3568," mek":3569," Nur":3570," Ömer":3571," olmadı":3572," DEAŞ":3573," verilm":3574," edildiği":3575," teknoloj":3576," girişimi":3577,"barı":3578," çıkıyor":3579,"inizi":3580," ölç":3581," heyec":3582,"panya":3583,"Siz":3584," insanların":3585," çağrı":3586,"PD":3587,"Sal":3588,"anlar":3589,"iydi":3590,"uluyor":3591," Sin":3592," müdahale":3593,"pp":3594," İbrahim":3595," trafik":3596,"his":3597,"amsun":3598," ekibi":3599,"ou":3600," yum":3601," olumlu":3602," vermek":3603," barış":3604," mağdur":3605," İngiltere":3606,"ding":3607,"imde":3608," müdür":3609," yasak":3610," başkanlık":3611," şikayet":3612," detay":3613," hatta":3614," İst":3615," ihtim":3616," Örgütü":3617," kuzey":3618," yerleş":3619," insanlar":3620,"Tüm":3621,"anet":3622," po":3623," forma":3624,"yanın":3625,"Mah":3626,"kor":3627,"ene":3628," Osmanlı":3629," nerede":3630," renk":3631," işç":3632," isten":3633," cihaz":3634," yola":3635," Mer":3636,"ze":3637," ilaç":3638,"mediği":3639," mutlu":3640,"09":3641,"bek":3642,"larım":3643," Çelik":3644,"ımıza":3645," yürüy":3646,"liğe":3647," Halep":3648,"Hal":3649,"aka":3650,"urken":3651," mar":3652,"itir":3653,"cılar":3654,"lasman":3655,"\"nın":3656," patlayıcı":3657,".B":3658,"gr":3659," namaz":3660," geldiği":3661," sürede":3662," erken":3663," geçtiğimiz":3664," Amerika":3665,"üstü":3666," tip":3667," diş":3668," ordu":3669," sakat":3670,"198":3671,"Benim":3672,"siyle":3673,"ğinin":3674," ekib":3675," müs":3676,"nun":3677," defa":3678," Hüseyin":3679," etmesi":3680," Büyükşehir":3681,"AP":3682,"büs":3683," mutlak":3684,"Fakat":3685," Ağustos":3686," pas":3687," Yunan":3688,"blem":3689,"ğiz":3690,"İç":3691,"ırnak":3692,"ahmet":3693,"'lik":3694,"mur":3695," verecek":3696," hain":3697,"32":3698," Kültür":3699," Müslüman":3700," içeri":3701," Gaziantep":3702," düzenlen":3703," düzenlem":3704," metre":3705," katılım":3706,"ücu":3707," bölge":3708," Milletvekili":3709," Kılıçdaroğlu":3710,"AH":3711,"gisi":3712," ediyoruz":3713,"malıdır":3714,"Söz":3715," Sağlık":3716," getirildi":3717," tutuklan":3718," vurgulayan":3719," le":3720,"erin":3721," grub":3722," öğ":3723,"cüsü":3724," sefer":3725," tas":3726," şar":3727," yapma":3728," sürüyor":3729," peş":3730,"BMM":3731,"\".\n":3732," sınıf":3733," ilgi":3734," kamp":3735," çevir":3736,"Gel":3737,"onya":3738," yitir":3739," yıllarda":3740," kullanıcı":3741," kaçır":3742," rejim":3743,"Genel":3744," mis":3745," maliyet":3746," yaparak":3747," Gür":3748,"masın":3749,"etici":3750,"larımızın":3751,"zi":3752,"cadele":3753,"edeki":3754," kanal":3755," ambul":3756," müzik":3757,"ınar":3758," neler":3759," not":3760," sahn":3761,"ban":3762," biç":3763,"ulmuş":3764," anlay":3765," düşen":3766," aslında":3767,"CHP":3768," kup":3769," ettir":3770," düşüş":3771," hayal":3772," istiyorum":3773,"ilendir":3774," kullanılan":3775,"muştu":3776," huzur":3777," Bal":3778," bilim":3779,"car":3780,"par":3781," olacağını":3782," mücadel":3783," Hava":3784,"ılım":3785,"ult":3786," Cen":3787," Yeni":3788," endiş":3789," varsa":3790,"nan":3791,"atej":3792,"örü":3793," nak":3794,"ilirken":3795,"liğinde":3796," rakip":3797,"PKK":3798," kişilik":3799," kaybeden":3800,"Bazı":3801,"ker":3802," Boz":3803," eksik":3804," karşıya":3805," yolu":3806,"İZ":3807," ölü":3808," oranı":3809," bey":3810," Kap":3811," İç":3812," altını":3813," Hasan":3814," taşıyan":3815," unsur":3816," Fransa":3817," kayıp":3818," merkezi":3819,"kurmay":3820,"75":3821,"deri":3822,"ekiz":3823," birim":3824," St":3825," çıkacak":3826," katılan":3827," In":3828," dünyaya":3829," kırmızı":3830,"Kay":3831,"ku":3832," don":3833,"lenme":3834," aşağı":3835,"okratik":3836," içine":3837," güc":3838," Albay":3839," Cumhuriyeti":3840," kanser":3841," küresel":3842,"rüb":3843,"ğe":3844,"anam":3845," ayır":3846," Emre":3847,"Sadece":3848," kişilerin":3849,"'ü":3850,"abilirsiniz":3851," ameliyat":3852,"utin":3853," yolc":3854," emek":3855," Fetullah":3856,"39":3857,"bi":3858,"ğır":3859,"ED":3860,"slan":3861," halde":3862," müh":3863," alma":3864," problem":3865," ulaştı":3866," muhabir":3867," milletvekil":3868,"rim":3869,"sına":3870," gaz":3871," TV":3872," Sultan":3873,"ilerden":3874," çap":3875,"Peki":3876,"mit":3877," etmeye":3878," cam":3879," civarında":3880,"iyel":3881,"elerle":3882," Güneş":3883,"lardı":3884,"ital":3885," çünkü":3886,"emesi":3887," gelişmeler":3888,"Em":3889,"kr":3890,"ersiz":3891," bağlantı":3892," imk":3893,"mediğini":3894,"unc":3895," yapmaya":3896," Bas":3897," gerçekleştirilen":3898," kilometre":3899," yargılan":3900,"ahçeli":3901,"sim":3902,"yım":3903,"aket":3904,"ıyorum":3905," eser":3906," operasyonda":3907,"Genç":3908,"ğından":3909," depr":3910," pil":3911,"lamaz":3912," üçüncü":3913," gerekçesiyle":3914,"Ad":3915,"adi":3916,"tılı":3917,"âr":3918,"ester":3919," Mücadele":3920,"liğine":3921," inşaat":3922," İngiliz":3923," sem":3924," yerleştir":3925," istiyoruz":3926," Vak":3927,"ersin":3928," Araştır":3929," proje":3930,"İl":3931,"iyer":3932,"estiv":3933,"ikan":3934,"Büyük":3935,"sas":3936,"lanma":3937,"iyatro":3938," İsmail":3939," deplasman":3940,"ral":3941," alına":3942,"olkan":3943," lideri":3944," yoktur":3945," vuruş":3946,"şık":3947," uyarı":3948," emekli":3949," dolarlık":3950," yürütülen":3951," oğlu":3952," şarkı":3953,"Yapılan":3954," iktidar":3955,"Diğer":3956,"seri":3957,"ağının":3958,"mede":3959,"ündem":3960," yakalandı":3961," bask":3962," hatırlat":3963," tatil":3964," vazgeç":3965," ade":3966," Hakan":3967,"İngil":3968," turist":3969," Şahin":3970,"hat":3971," büt":3972,"onal":3973," hafif":3974," Suriyeli":3975," kamuoy":3976," Haziran":3977,".K":3978," soğ":3979," başlan":3980," öngör":3981," Van":3982,"general":3983,"33":3984,"gül":3985,"iber":3986," Çavuş":3987," baskı":3988,"Ün":3989," yıla":3990," Mes":3991,"osk":3992," sıralarında":3993," başkanı":3994," Hollan":3995,"lâ":3996,"ılmaz":3997," görüldü":3998," Poli":3999," On":4000," dokun":4001," yavaş":4002," soy":4003," park":4004," alk":4005," döv":4006," mutlaka":4007,"kiş":4008," yapımı":4009," Çağ":4010," oynan":4011," satın":4012," Kı":4013," Mad":4014," sonuna":4015," kayn":4016," Kurumu":4017," hastaneye":4018," sığınmacı":4019," numar":4020,"ke":4021," vatandaşlar":4022," direktör":4023," otobüs":4024,"amet":4025," Yüksek":4026,"laşma":4027,"dıktan":4028," özellik":4029," kaldırıldı":4030," annesi":4031," tuz":4032,"ond":4033," belirlen":4034,"isyonu":4035,"ıf":4036,"akar":4037," sorgu":4038,"üksel":4039," Jandarma":4040,"Darb":4041,"gaz":4042," dök":4043," uygulama":4044," çerçevesinde":4045,"Bütün":4046,"IK":4047,"laması":4048," ins":4049," ilişki":4050,"Doğ":4051,"ikat":4052," nüf":4053," iptal":4054,"LER":4055,"Sor":4056,"ansı":4057,"enek":4058," zengin":4059," Obama":4060," kampany":4061," Abd":4062,"cilik":4063,"hi":4064," etme":4065," red":4066," açıldı":4067,"oman":4068,"HA":4069," Dün":4070," ref":4071," savunma":4072,"vi":4073,"abi":4074," Kız":4075," onların":4076," Futbol":4077," ortadan":4078," sonucunda":4079,"liyoruz":4080," Ben":4081,"abak":4082," yapar":4083," Şampiyon":4084,"ubay":4085," güçleri":4086," Sokak":4087," asıl":4088,"elikle":4089," mağlu":4090," Doğan":4091,"65":4092,"rika":4093," Kons":4094," şans":4095," topu":4096," saygı":4097," Havalimanı":4098," Teknik":4099," Batı":4100," şif":4101,"usuna":4102,"vert":4103,"mesinde":4104,"sını":4105," kalit":4106," sağlıklı":4107," kaydeden":4108,"say":4109," boğ":4110," gösteriyor":4111," kazandı":4112," mahkeme":4113," Kuvvetleri":4114,"38":4115," yeri":4116,"mayın":4117,"ündeki":4118," Arena":4119," Kurt":4120," köpr":4121,".A":4122,"oç":4123," vide":4124," izley":4125," yaptığını":4126,"ka":4127," Adana":4128," Sel":4129," Fer":4130,"düm":4131," antren":4132," saç":4133,"ılmasına":4134," müt":4135," yazı":4136," geldiğini":4137," yaptıkları":4138,"cının":4139," Kam":4140," vergi":4141,"Şehit":4142,"tern":4143,"Ph":4144,"ınma":4145,"end":4146,"alandır":4147," malz":4148," açılış":4149," vade":4150," alanı":4151," seyir":4152," muhalef":4153,"fı":4154,"ây":4155,"atar":4156," pen":4157," Ot":4158,"civert":4159,"larımızı":4160,"Dem":4161,"Muh":4162,"keti":4163,"esiz":4164," şeyi":4165," hayvan":4166,"IL":4167,"larındaki":4168," dağ":4169,"lanmış":4170,"malarını":4171," attığı":4172," oku":4173," Kulüb":4174,"baş":4175,"ina":4176," gar":4177,"iklet":4178," aracı":4179," başlayacak":4180," etmiş":4181," önümüzdeki":4182," ederken":4183," buldu":4184," derec":4185," benzer":4186," istediği":4187,"'si":4188,"Hiç":4189," doğum":4190," yönetimi":4191," mültec":4192,"isyen":4193," asla":4194," bilgiler":4195,"Göz":4196," Tel":4197,"amadı":4198," sorumlu":4199,"\"ı":4200,"vik":4201," fil":4202,"evre":4203," Cam":4204,"mızılı":4205," evinde":4206," bilinen":4207," ambulans":4208," derb":4209,"izik":4210," olmuş":4211,"adir":4212,"rag":4213," sorunu":4214,"Trabzonspor":4215,"tarı":4216,"onik":4217,"landığı":4218,"ülüyor":4219," takımın":4220,"Hep":4221,"bu":4222,"iği":4223," Holding":4224," altı":4225," edilecek":4226," süreci":4227,"maların":4228," kısm":4229," olursa":4230,"UN":4231,"soy":4232," bebek":4233,"ülü":4234," ister":4235,"estor":4236," olduklarını":4237,"ğünü":4238," bulutlu":4239," krizi":4240,"veriş":4241," yağış":4242," rekor":4243," demokrasi":4244,"yer":4245," Han":4246," terk":4247," alanında":4248," kaldığı":4249,"raki":4250," bugüne":4251," mutl":4252," baba":4253,"aladı":4254,"55":4255,"IM":4256,"are":4257," sel":4258,"leniyor":4259," imkan":4260," genelinde":4261,"Milli":4262,"yse":4263,"ekim":4264,"tiğimiz":4265," kendilerine":4266," yaşandı":4267,"Başkan":4268,"mesiyle":4269," yiy":4270," alıp":4271," rahatsız":4272,"Bunlar":4273," iletişim":4274,"manız":4275," ton":4276," görülen":4277," yerli":4278," imha":4279,"bette":4280," İsrail":4281," vurguladı":4282," düşünüyorum":4283,"37":4284,"gal":4285,"abah":4286," kara":4287," Arab":4288," koşul":4289,"adı":4290,"mür":4291," size":4292," Tıp":4293,"ımda":4294," konum":4295," şeyler":4296,"rid":4297," skor":4298," gördü":4299," açılan":4300,"acılık":4301," denildi":4302," bunlar":4303," yeterli":4304," ayrıl":4305," harekete":4306," tanım":4307," cinsel":4308,"-K":4309,"Vatan":4310,"uncu":4311," Sarı":4312," bölgesinde":4313," kimlik":4314," kimse":4315,"başkanlığı":4316," fak":4317," evde":4318,"tıkları":4319," desteği":4320," hisset":4321," stratej":4322,"UL":4323," Sosyal":4324," arz":4325," yerel":4326,"Allah":4327," taban":4328," etkilen":4329,"Böylece":4330,".S":4331,"Tak":4332,"zan":4333,"emedi":4334,"ever":4335," açtı":4336," yazar":4337," operasyonu":4338,"'taki":4339,"Hav":4340,"indi":4341," biliyor":4342," bunların":4343," inşa":4344," tazmin":4345," gizli":4346,"Kan":4347,"Tur":4348,"dil":4349," korun":4350," açıklaması":4351," çağr":4352," Direktörü":4353,"Almanya":4354,"iyiz":4355," dolu":4356," Böl":4357," Twitter":4358,"umartesi":4359," nö":4360," Kaya":4361," gördük":4362," Komutanlığı":4363,"Ara":4364,"Lig":4365,"isay":4366," olacağı":4367," Muham":4368,"Eş":4369,"po":4370,"ırat":4371," Bor":4372," yapmış":4373," belki":4374," binlerce":4375," hakaret":4376," yaralanan":4377," Bayram":4378,"Dolay":4379,"abii":4380," maaş":4381," kuruş":4382,"dikten":4383," alty":4384," yurtdı":4385," ticaret":4386," odak":4387," çıkart":4388," ortalama":4389," salon":4390," arkasında":4391,"liğin":4392," siyah":4393," bulunduğunu":4394," liraya":4395," kaçak":4396," Doğu":4397," sanatçı":4398," vit":4399,"urum":4400," min":4401," belirtilen":4402," anlamda":4403," tecrüb":4404," New":4405,"44":4406,"Has":4407,"Sen":4408,"utan":4409," işbirliği":4410,"ediy":4411,"tığımız":4412,"ilahlı":4413," memnun":4414,"elçuk":4415,"'teki":4416," bı":4417," Cem":4418," takımı":4419," vücu":4420," yapacağı":4421," endek":4422," işi":4423," kapas":4424,"Artık":4425,"pple":4426,"Phone":4427,"nam":4428," gem":4429," tık":4430," ah":4431,"usunu":4432," cami":4433," kazandır":4434," toplantısında":4435," Harek":4436," %":4437,"emen":4438," Ka":4439," ifadesini":4440,"rabzon":4441,"kray":4442,"İzmir":4443,"akşehir":4444,"orta":4445," birinci":4446,"emiş":4447," Feder":4448,"neğin":4449," oynanan":4450," yaşamını":4451," seyahat":4452,"meyecek":4453,"Fran":4454," güney":4455," istis":4456,"imizde":4457," gidiyor":4458,"47":4459,"ace":4460," Başbak":4461,"muyor":4462,"ruk":4463,"emeyen":4464," önde":4465," Car":4466," çıkma":4467," işada":4468,"leşme":4469," Çetin":4470," evine":4471," sayf":4472,"Dr":4473,"kim":4474," rö":4475," ayı":4476," kendisi":4477,"197":4478," cezaev":4479," doldur":4480,"dun":4481," Bağ":4482," sonraki":4483," aşırı":4484," giderek":4485," Araştırma":4486," gur":4487,"'ni":4488," hakkı":4489," dahi":4490," Gökhan":4491," kop":4492,"liğinin":4493,"Sonra":4494," büyüme":4495," Arabistan":4496,"Sarı":4497,"mal":4498,"ân":4499,"iya":4500," Tan":4501," Re":4502," çıkardı":4503," yenil":4504," çağır":4505," bür":4506," sine":4507," düğ":4508," alb":4509,"Yaş":4510," değişim":4511," koru":4512,"Eski":4513,"46":4514," Sta":4515,"uluğ":4516," eyalet":4517,"Dolayısıyla":4518,"Mar":4519,"ulmaz":4520,"ezil":4521,"laşık":4522,"elikop":4523," ismi":4524,"OL":4525,"lili":4526," kurulan":4527,"ayıf":4528," haberine":4529," tesis":4530,"-beyazlı":4531,"PDY":4532,"Hak":4533,"veç":4534,"ğinden":4535," keş":4536," süt":4537,"ıştır":4538," eve":4539," bölgeye":4540," süredir":4541," medyada":4542," indirim":4543," mülteci":4544,"kar":4545," sap":4546," mor":4547," Sh":4548,"lığına":4549,"ebiliyor":4550," adli":4551," metrek":4552,"ğanüstü":4553,"ash":4554,"ürr":4555," zirv":4556," Sev":4557,"ilerle":4558," açıklandı":4559," alınması":4560," dolara":4561,"ülent":4562," çatışmalar":4563," edeceğiz":4564,"ele":4565," tez":4566," BM":4567," psik":4568," MHP":4569," başlıyor":4570," konuk":4571,"undaki":4572," servis":4573," katıldığı":4574," yalan":4575," iade":4576," fon":4577," YPG":4578," sürücü":4579," onlar":4580," yapılıyor":4581," Kulübü":4582,"Herk":4583," bunları":4584," Toto":4585," cumhur":4586,"Sav":4587,"abil":4588," kişiyi":4589," sahada":4590," kapalı":4591," And":4592," sokağa":4593,"ener":4594," dip":4595," eg":4596," yapım":4597," Anayasa":4598," düşünc":4599,"OK":4600," çalıştır":4601," yakal":4602,"idin":4603," bekliyor":4604," öncesinde":4605,"Onun":4606," hır":4607,"aşır":4608," Mo":4609,"ağın":4610," istif":4611," takdir":4612,"tek":4613," st":4614," örgütün":4615," dikkati":4616," sizin":4617," adeta":4618,"48":4619,"otiv":4620,"yıl":4621," stan":4622,"maat":4623," tüf":4624," Bat":4625," inanıyor":4626,"erbay":4627," test":4628,"book":4629,"AC":4630,"saspor":4631," Yas":4632," Ön":4633," devletin":4634," başlattı":4635,"ğuz":4636," hazırlanan":4637,"larımıza":4638,"lerimizi":4639,"amazan":4640," çatışma":4641,"lil":4642," bat":4643," Müz":4644,"tisi":4645,"Üç":4646," kem":4647,"enler":4648," olmasına":4649," sağlamak":4650," Volkan":4651," bağlan":4652," teşvik":4653," Bursa":4654,"Kal":4655,"sının":4656,"İH":4657," beğ":4658," Hat":4659,"afer":4660,"ıyorlar":4661,"01":4662,"Kam":4663," kıl":4664," hac":4665,"tacak":4666,"lıkla":4667," inti":4668," saldırıda":4669," uçuş":4670," boyut":4671," halkın":4672," ihtiyac":4673," akıllı":4674,"eysel":4675," Kuzey":4676," onları":4677," Arap":4678," ödeme":4679,"Ger":4680,"OB":4681,"Operasyon":4682,"anak":4683,"eydan":4684," Tic":4685," Yal":4686," itibarı":4687," Belediy":4688," temsilc":4689,"İst":4690,"İkinci":4691,"latan":4692,"elerinden":4693," üzerindeki":4694,"tıklarını":4695," güçlendir":4696," üstün":4697," noktada":4698,"\"de":4699,"400":4700,"EC":4701," yapıldığı":4702," Sanat":4703," istihdam":4704,"şembe":4705," motor":4706,"02":4707,"Sİ":4708,"ron":4709," kısı":4710,"matı":4711,"ordin":4712,"izasyon":4713," anayasa":4714,"lemeye":4715," tane":4716," karakter":4717,"bin":4718,"teri":4719," üye":4720," futbolc":4721," Madrid":4722,"isayar":4723,"Bak":4724,"iir":4725,"ılarak":4726,"elt":4727,"150":4728,"Çal":4729,"isa":4730," duyg":4731," ez":4732," Sen":4733," Jo":4734," ayrıldı":4735,"/PDY":4736," sız":4737,"ock":4738," sayısının":4739," ilişkiler":4740,"EO":4741," Kalk":4742,"sü":4743,"ori":4744," Mal":4745," yerini":4746," plakalı":4747,"aray":4748," dosy":4749,"ürken":4750," Pazar":4751," UEFA":4752," suçundan":4753," temas":4754," prim":4755,"azartesi":4756," Kah":4757," restor":4758,"ısır":4759,"ubu":4760," olacaktır":4761," götürüldü":4762,"Saldır":4763,"oskova":4764,"Ul":4765,"form":4766,"şek":4767," edip":4768," şub":4769,"elerden":4770," toplu":4771," kişiye":4772," kullanan":4773," terörle":4774," deng":4775," vatandaşların":4776," herkesin":4777," mekan":4778,"Diyarbakır":4779,"rin":4780,"ert":4781," kurulu":4782," ihlal":4783,"usuf":4784,"krayna":4785," kanı":4786," almaya":4787," yaparken":4788,"itesi":4789," güneş":4790," Le":4791," Başbakanı":4792,"AZ":4793,"irket":4794," avan":4795," acil":4796,"istik":4797," gerçekten":4798," çocukların":4799," anlaşma":4800," yükseldi":4801," Asya":4802," Yunanistan":4803,"yak":4804,"şe":4805," şok":4806," aray":4807,"tanın":4808," çalışması":4809," Altın":4810," etkisi":4811," göçmen":4812," Başsavcılığı":4813," yeme":4814,"umak":4815," hayır":4816," insanları":4817," çocuklar":4818,"ğimizi":4819," ilçesi":4820,"ücut":4821," kritik":4822," jan":4823,"Sağlık":4824," beyaz":4825," helikop":4826,"ağında":4827," cil":4828," sürpr":4829," içindeki":4830," Turan":4831," bedel":4832,"Kul":4833,"İddi":4834,"ındır":4835," onay":4836," güvenli":4837," ism":4838," meydan":4839," istihbarat":4840," doğrult":4841,"acebook":4842,"DI":4843,"SY":4844,"kili":4845," dar":4846," olmasını":4847," işe":4848," örgütünün":4849," patlama":4850," protest":4851,"erbaycan":4852,"oma":4853," balık":4854,"dev":4855,"ong":4856," gözy":4857," paylaşım":4858," Komutanı":4859," oynadığı":4860,"Ot":4861," olun":4862," TBMM":4863,"ümüş":4864," çalıştı":4865," düşman":4866," adını":4867," beklenen":4868," haberi":4869," serg":4870,"köy":4871," Ev":4872," Fak":4873," belediye":4874," Nec":4875,"hisar":4876,"sinden":4877,"erg":4878," Cuma":4879," savcı":4880,"hane":4881," kamyon":4882," oldukları":4883," duyurdu":4884," ticari":4885,"ole":4886,"ug":4887,"alisyon":4888," aldığını":4889," çıktığı":4890," Naz":4891,"leyman":4892," kızı":4893," hızla":4894,"faiye":4895," ihtiyacı":4896,"oya":4897,"ÜR":4898,"çu":4899," Sayın":4900,"eğin":4901," Komisyonu":4902," komş":4903," enflasyon":4904," avantaj":4905,"Yine":4906,"cra":4907,"inen":4908," vir":4909,"imin":4910," Di":4911,"ilerinden":4912," York":4913,"lücü":4914,"lamadı":4915," sağlayan":4916,"latform":4917," azalt":4918," süreçte":4919," alışveriş":4920,"Kıs":4921,"gre":4922," id":4923," maçın":4924," denetim":4925," Öztürk":4926," yatırımcı":4927,"ebilirsiniz":4928,"ijital":4929,"müyor":4930,"ud":4931,"lığa":4932," Dair":4933,"artal":4934," Savunma":4935," umut":4936," müsabak":4937,"ÜN":4938," beb":4939," ac":4940," ef":4941,"iyorlar":4942," aykır":4943," teknoloji":4944," doğrudan":4945," tutuklu":4946," turizm":4947," gerçekleşti":4948," hoc":4949," görmek":4950,"ukarı":4951," kural":4952," değerli":4953," yasal":4954," sebebiyle":4955," mahall":4956," bıçak":4957,"yal":4958,"emey":4959,"usunun":4960," zanlı":4961," Ödül":4962," hala":4963," kazanan":4964," İlçe":4965," üyeleri":4966," gecesi":4967,"kaya":4968,"illi":4969," belirlenen":4970,"ılıp":4971," duygu":4972," itibarıyla":4973,"03":4974,"arşam":4975," Bölg":4976,"uman":4977," istediğini":4978," tüketim":4979," başkenti":4980," Vakfı":4981," gr":4982," Sa":4983," zayıf":4984," geçici":4985," kadının":4986," üs":4987," dedim":4988,"dern":4989," uzat":4990,"uluğu":4991," yayınlanan":4992,"\"da":4993,",\n":4994,"Bölg":4995,"ilis":4996,"ayacak":4997," akadem":4998," Başakşehir":4999," medy":5000," mevz":5001," istikrar":5002," heyecan":5003,"fak":5004,"yken":5005,"areti":5006,"lab":5007," Selçuk":5008," De":5009,"alarla":5010," yüzünden":5011," Uy":5012," düzenlediği":5013," fikir":5014," key":5015," Mev":5016,"lıklı":5017," vurg":5018,"ükümet":5019," heyet":5020," araştırma":5021,"ATO":5022," ağrı":5023,"her":5024," tank":5025,"eyh":5026," edilmiş":5027," öğrenci":5028," diren":5029," itibariyle":5030," makam":5031," oyuncusu":5032,"Bank":5033,"rol":5034,"mamız":5035,"ekret":5036,"usul":5037," sürdü":5038," elinde":5039,"celona":5040," gönderildi":5041," etkinlik":5042," cenaze":5043," iyil":5044,"Ok":5045," pan":5046,"'nı":5047," getirilen":5048," bölümünde":5049," Sinan":5050," soğuk":5051,"arşamba":5052,"ko":5053," kok":5054,"ünüz":5055,"ihan":5056,"'inci":5057," yanına":5058," döndü":5059," mesaf":5060," şirketi":5061," taşın":5062," programı":5063," kahraman":5064,"liyeye":5065,"41":5066," arab":5067," fizik":5068,"alardan":5069," liralık":5070,"ketbol":5071," geçirdi":5072,"\"nda":5073," bölümü":5074," öldürüldü":5075," dönüşüm":5076," çeyrek":5077,"ürriyet":5078,"ezi":5079," topr":5080," liradan":5081," hücr":5082,"Az":5083,"Amer":5084,"Bar":5085,"Ör":5086," Samsun":5087," kaleci":5088," sürüc":5089," hasta":5090,"leyecek":5091," verdiğini":5092," arttır":5093," Karab":5094,"'cü":5095,"Kadın":5096,"Maç":5097," mekt":5098," pop":5099," uğ":5100," öldü":5101," iddianam":5102," birinin":5103," fab":5104," milletin":5105," Orman":5106,"İnş":5107," başlatılan":5108," Konya":5109," inceleme":5110," tartışma":5111,"Açıklamada":5112," Konseyi":5113," nöbet":5114,"atur":5115,"isel":5116," Yaş":5117,"amayan":5118," hassas":5119," parlamen":5120," aracın":5121,"Dünyanın":5122,"kişehir":5123," Ticaret":5124,"08":5125,"ity":5126," dönemi":5127," Suudi":5128,"Yet":5129," alır":5130," aralık":5131," içi":5132," yasağı":5133," girişiminin":5134," anlamına":5135," açıklamalarda":5136," performans":5137," Köpr":5138," müşter":5139," tazminat":5140,"49":5141,"iden":5142," bal":5143," kanun":5144," tabii":5145," /":5146,"-i":5147,"ho":5148,"esil":5149," Bab":5150," geride":5151,"lerince":5152," yangın":5153," kullanım":5154,"ivas":5155," yetiştir":5156," Binali":5157," vitam":5158,".Ş":5159," gül":5160," konser":5161," bilgileri":5162," Albayrak":5163,"ternatif":5164," Q":5165,"izre":5166," Port":5167," Fin":5168,"'yu":5169,"196":5170," görevi":5171," zorun":5172," gönül":5173," Musul":5174,"Hatta":5175,"iraat":5176," gıda":5177," olmalı":5178," Ef":5179,"lıkları":5180," sahaya":5181," görevl":5182," vurdu":5183," eşit":5184,"ington":5185," yasa":5186," bombalı":5187," dolandır":5188,"Millet":5189,"-Gündem":5190,"ck":5191,"içek":5192," işte":5193,"linton":5194," şahıs":5195,"errah":5196," bağımsız":5197," Fakült":5198,"Dk":5199,"fone":5200,"imşek":5201,"işi":5202," alım":5203,"avuz":5204," ülkeye":5205,"ondra":5206," diplo":5207," anı":5208,"Dİ":5209,"memiz":5210," kış":5211," sp":5212," sizi":5213," Bülent":5214,"anlıur":5215," geçirildi":5216," ihtimal":5217,"ano":5218,"atlı":5219," paket":5220," Ege":5221,"layıp":5222,"erkel":5223,"lardaki":5224,"Yaklaşık":5225," doğrultusunda":5226," ap":5227,"ales":5228,"amıyor":5229," arası":5230," başı":5231,"maktan":5232," sağlayacak":5233," onlara":5234," çocuğu":5235," aracılığı":5236," pilot":5237," sunu":5238," Ma":5239," Mel":5240,"ımın":5241,"evr":5242," rahmet":5243,"uşturucu":5244," Uğur":5245," örgütüne":5246," bağır":5247," bilgisayar":5248," isimler":5249,"memiş":5250," cinayet":5251," trib":5252," Federasyonu":5253,"42":5254,"lus":5255," hus":5256,"ahtar":5257,"202":5258," hatt":5259," sakin":5260,"85":5261,"EB":5262,"ost":5263,"atör":5264,"ılma":5265," almış":5266," verir":5267," Oğuz":5268,"sie":5269," makin":5270," Dündar":5271,"gari":5272,"urdu":5273,"ılmasını":5274," Se":5275," etraf":5276," işin":5277," insani":5278," farkı":5279," Akın":5280," görünt":5281," AKP":5282," muhalefet":5283," aykırı":5284," Çal":5285,"ılab":5286," talimat":5287,"Haber":5288,"TI":5289,"elal":5290," Yap":5291," karşısına":5292,"ladığını":5293," ilginç":5294," yazdı":5295," ateşk":5296," dilek":5297," Uluslararası":5298," Abdullah":5299,"mara":5300,"çın":5301," Meydan":5302,"itan":5303," İtalya":5304," enerj":5305," halkı":5306," Arslan":5307," kaza":5308," müzak":5309," intihar":5310," Karak":5311," Sor":5312," Putin":5313," kısmı":5314," reklam":5315,"Vatandaş":5316,"600":5317,"Sev":5318,"İŞ":5319,"larken":5320," teb":5321,"ukur":5322," takv":5323," memlek":5324," oranında":5325," ihraç":5326," video":5327,"İh":5328,"ınıyor":5329,"opa":5330," tahliye":5331," sinir":5332,"odafone":5333," sürpriz":5334,"-kır":5335,"Bor":5336,"cer":5337,"eyt":5338," verilecek":5339," bilen":5340,"uyoruz":5341," adres":5342," bağış":5343," deneyim":5344," olayı":5345," Paris":5346," eğlen":5347,"fik":5348,"reti":5349,"sek":5350," birisi":5351," İz":5352," çalıştığı":5353," temin":5354," tedavisi":5355," arkadaşı":5356," hastanede":5357,"Önc":5358," Afrika":5359," itiraz":5360," yurtdış":5361," gurur":5362," şaşır":5363," Ri":5364,"Onlar":5365," Ortadoğu":5366,"üper":5367," mobil":5368,"ğretim":5369," gözaltı":5370," adamı":5371," mücadeley":5372," kendilerini":5373," ışık":5374,"ai":5375," piş":5376," maden":5377," açıklamaya":5378," çocukları":5379," Partisi":5380," dolayısıyla":5381," satışa":5382," yetkilileri":5383," uğraş":5384," xx":5385,"43":5386,"OS":5387," ağı":5388," gelmiş":5389," olanlar":5390," teröristlerin":5391," tavs":5392," delil":5393," Moskova":5394," Gir":5395," başladığı":5396," Yusuf":5397," işbir":5398,"Geçtiğimiz":5399," Persie":5400," uğra":5401,"Dur":5402,"yesi":5403,"ard":5404,"anakk":5405,"erv":5406," bol":5407," veril":5408," Erdem":5409," nedeni":5410," düzenlendi":5411," Süleyman":5412," Aziz":5413,"Man":5414,"imd":5415,"tib":5416," anayas":5417," oyunu":5418," hasar":5419," esas":5420,"Ardından":5421,"elime":5422," irade":5423," öğle":5424,"ashington":5425," helikopter":5426," ima":5427," Yıldız":5428," alınarak":5429,"ovic":5430," kendine":5431,"ulacak":5432," Fakültesi":5433,"iri":5434," ide":5435,"ayol":5436," Ter":5437," İpek":5438,"lıklar":5439," yürüyüş":5440,"kal":5441," ku":5442," yeşil":5443," yuvar":5444,"yacak":5445," fakat":5446,"lendiği":5447," bilet":5448,"edek":5449," polise":5450,"eceğim":5451," paylaştı":5452,"lerimizin":5453," mağlup":5454," Belediyespor":5455,"alesef":5456,"anakkale":5457,"Bundan":5458,"Sür":5459,"bal":5460," kalab":5461," tutar":5462," adliyeye":5463," yaygın":5464," gitmek":5465," Adalet":5466," güncelleme":5467,"fan":5468,"şi":5469," anal":5470," bıraktı":5471," bırakıldı":5472,"ereira":5473,"-kırmızılı":5474," vücut":5475,"ese":5476," İdar":5477," Pr":5478,"makam":5479," dolaş":5480," Un":5481," edildiğini":5482," yönetmen":5483," bozuk":5484,"07":5485,"TV":5486,"Tabii":5487," çoğu":5488," Ken":5489," Gör":5490,"ülmesi":5491," saha":5492," arka":5493," Ordu":5494," kardeşi":5495," haftasında":5496,"Su":5497,"Şüph":5498," vek":5499," çök":5500," karşılı":5501,"malara":5502," harc":5503," suçla":5504,"amayacak":5505," neredeyse":5506," kum":5507,"ikalı":5508,"eytin":5509," zih":5510," Far":5511," insanın":5512," meslek":5513," sürdürdü":5514," bölücü":5515," Trabzon":5516," mücadelede":5517," antrenman":5518,"Edin":5519," stat":5520,"lerken":5521,"ata":5522,"üny":5523," açan":5524,"üye":5525,"lerindeki":5526,"\"na":5527," yaşadı":5528," üretic":5529," Valisi":5530," davranış":5531,"Yüz":5532,"nın":5533,"lacivert":5534," mali":5535," Kadın":5536,"itap":5537," Gö":5538," Fırat":5539," saatleri":5540," arttı":5541," yağmur":5542," devreye":5543,"Uzun":5544,"zin":5545,"Üst":5546,"ire":5547," hoş":5548," yapması":5549," kullanarak":5550," kararını":5551," yetiş":5552," ikram":5553," öğrenciler":5554,"jansı":5555," hesabından":5556,"250":5557,"cağına":5558,"fil":5559,"lığının":5560," Film":5561," olduğumuz":5562," elem":5563," halen":5564," Kurul":5565," sıf":5566," fiyatları":5567," beklent":5568," Büyükelç":5569,"we":5570," Hakk":5571," Ramazan":5572,"icdan":5573," Arda":5574," Müdürlüğ":5575,"liyet":5576,"day":5577," slo":5578," birik":5579,"elerek":5580,"ümr":5581," karşılan":5582," sorunun":5583," yakından":5584," Üs":5585,"'ndaki":5586," demokratik":5587," deprem":5588,"Bay":5589," Suç":5590,"alarından":5591," alındığı":5592," polisi":5593,"Alınan":5594," tanık":5595," rakib":5596," kurtul":5597," hikay":5598,"59":5599,"bey":5600,"oj":5601,"sem":5602,"yas":5603," demir":5604,"ulanan":5605," şut":5606," Yeşil":5607," sözlerini":5608," buraya":5609," banka":5610,"lerdir":5611," dam":5612," ödem":5613," olmadan":5614," dönüştür":5615,"ohn":5616,"ohbet":5617," çocuğun":5618,"Futbol":5619,"Kır":5620,"RT":5621," Taş":5622," Köy":5623,"ükle":5624," Yen":5625,"ilmesini":5626," Nus":5627," Akdeniz":5628," gönderdi":5629,"Bunların":5630," yararlan":5631," bazen":5632," protesto":5633," toprağa":5634," Ale":5635," alternatif":5636,"isip":5637," ayda":5638," nedir":5639," gücü":5640," sahte":5641," aktif":5642," profes":5643," oto":5644," milletvekili":5645," işlemleri":5646," aktaran":5647,"aliman":5648," cenazesi":5649," kimsenin":5650," oynanacak":5651,"Edinilen":5652,"Deniz":5653,"çiler":5654," saf":5655," tac":5656," mus":5657,"ilist":5658,"ustur":5659," filmi":5660,"66":5661,"Bab":5662,"HY":5663,"Sah":5664," Sah":5665," rast":5666,"oyu":5667," desteğ":5668," sergil":5669," ülkelerin":5670," kadros":5671," penaltı":5672,"Fet":5673,"unus":5674,"amış":5675," Mersin":5676,"dığımız":5677," ilgilen":5678,"tüğü":5679," Cumhurbaşkan":5680," dikkate":5681," teşkil":5682," kaybı":5683,"Ora":5684,"ly":5685,"akistan":5686," danış":5687," form":5688,"lenin":5689,"yonel":5690," gerçe":5691," kapan":5692," Genelkurmay":5693," açıklamasında":5694," kıya":5695," bahç":5696," memuru":5697,"Bana":5698,"Sosyal":5699,"oog":5700,"zet":5701," şof":5702," Dav":5703," işçi":5704,"ayıp":5705,"ift":5706," sayılı":5707," aktardı":5708," Karadeniz":5709,"Ülkemiz":5710," Salih":5711,"UM":5712," grubu":5713," diliyor":5714," aldık":5715,"atırım":5716," yükselt":5717," Turizm":5718," bayrak":5719," maruz":5720,"',":5721,"-lacivert":5722,"Uy":5723,"qu":5724," yönlendir":5725," şeker":5726," sözlerine":5727," bekleyen":5728," yeter":5729," olayın":5730," tamamlan":5731," Stadı":5732,"oogle":5733,"Yan":5734,"ord":5735,"abilmek":5736," Kaz":5737," Metin":5738," yıllar":5739," olduğunun":5740," OL":5741,"malarına":5742,"inize":5743,"uyorum":5744," isabet":5745," polisin":5746," Belç":5747," komisyon":5748,"dukları":5749," dalg":5750," biçimde":5751," tanın":5752," Sekret":5753," Mag":5754,"ıza":5755," tarım":5756," maça":5757," haftada":5758,"endis":5759," soruşturması":5760," hepsi":5761," ortada":5762," Amerikan":5763," stand":5764,"Osman":5765,"ner":5766,"tuk":5767,"Şirket":5768," gram":5769,"ılırken":5770," bulan":5771," hakları":5772," olurken":5773,"eclis":5774,"'üncü":5775," olmayacak":5776," parçası":5777,"\"te":5778,"Kız":5779,"yiz":5780,"anda":5781," Bahçeli":5782," ilçe":5783," eğer":5784," frag":5785," gelin":5786," sorg":5787," konuşma":5788," teröristler":5789,"ümüzde":5790," Sanayi":5791," Denizli":5792," bölgedeki":5793,"Br":5794,"SO":5795," day":5796," reh":5797," yolda":5798," çekiyor":5799," başkanlı":5800," Jap":5801," toplantısı":5802,"odrum":5803,"memesi":5804," Kayseri":5805," sigort":5806," alınacak":5807," köprü":5808," albüm":5809,"53":5810,"co":5811,"eğini":5812,"imar":5813," rad":5814," kaybol":5815," olağanüstü":5816," çekil":5817," düzenledi":5818," saldırısı":5819," görüşme":5820,"lerimize":5821," mevki":5822," Tekn":5823," itiraf":5824," döviz":5825," Kat":5826," Sey":5827," gördüğü":5828," coğraf":5829,"rağı":5830," nefes":5831," koruma":5832," merkezinde":5833,"tuğ":5834," cemaat":5835," sorumluluk":5836,"Uluslararası":5837,"ilistin":5838,"67":5839,"Güvenlik":5840,"com":5841,"raz":5842," çoğun":5843," Başk":5844," Mic":5845," Gel":5846,"ğren":5847,"chester":5848," esnaf":5849," anlayış":5850,"57":5851,"EY":5852,"GK":5853,"giz":5854,"miyorum":5855,"şun":5856," güçlerinin":5857," adayı":5858," sermay":5859," Birleş":5860,"Çin":5861," af":5862,"afir":5863," vermesi":5864,"uyum":5865," yaşıyor":5866,"dıköy":5867," koalisyon":5868," aşa":5869," tamamladı":5870," şirketin":5871," itfaiye":5872," organizasyon":5873," aracılığıyla":5874,"120":5875,"Zaman":5876,"ris":5877," Bo":5878,"ahar":5879," fatur":5880,"ağlığı":5881," Park":5882," belirtiliyor":5883,"enkul":5884," Fransız":5885," kaynağı":5886,"Örneğin":5887," Köprüsü":5888,"Lİ":5889,"subay":5890," euro":5891," şef":5892," asist":5893," şekil":5894," paralel":5895,"okrasi":5896," deplasmanda":5897,"112":5898,"Kap":5899,"kel":5900," gelip":5901," Clinton":5902," sağlıyor":5903," uc":5904," oynayan":5905," hisse":5906,"lüğe":5907," kentinde":5908," bayram":5909," oğl":5910," ligde":5911,"düz":5912," besin":5913," Men":5914," aydın":5915," kalma":5916," kurban":5917," güvenliği":5918," ertel":5919," tanış":5920,"limp":5921," kavg":5922," Takımı":5923,"52":5924,"Ağır":5925,"sever":5926," Ala":5927," Tuğ":5928," Grup":5929," mensubu":5930," jandarma":5931,"anlıurfa":5932,"-ı":5933,"Evet":5934,"des":5935," sta":5936," etmişti":5937," konuyla":5938," CEO":5939,"larınız":5940," ihbar":5941,"rafik":5942," sonuçları":5943," tepk":5944,"Ah":5945,"Halk":5946,"Sayın":5947,"Zaten":5948,"tük":5949," Şırnak":5950," çıkarıldı":5951," Sözcüsü":5952," gidip":5953," görülüyor":5954,"zurum":5955," verilmesi":5956," yerden":5957,"tans":5958," açıklan":5959,"Antalya":5960," kanat":5961,"gıç":5962," büyü":5963," uygulaması":5964," doğalgaz":5965," hastalığı":5966," nüfus":5967,"go":5968,"lis":5969," kariyer":5970,"lenmiş":5971," otomob":5972,"brıs":5973," üretimi":5974," kahv":5975," tasarım":5976," olmuştur":5977," gidecek":5978,"Darbe":5979," kapasit":5980,"Ab":5981," kafa":5982," dediği":5983," alması":5984," İh":5985," vererek":5986," maddi":5987,"asındaki":5988," Şehit":5989," sahne":5990," Özgür":5991," teşeb":5992," yükseliş":5993,"Ünlü":5994," Şampiyonlar":5995,"opagan":5996,"HDP":5997,"diniz":5998,"kun":5999,"ulh":6000," Silahlı":6001,"oğaz":6002," verim":6003," yoktu":6004," bilgilere":6005," senar":6006,"Cumhuriyet":6007," mesajı":6008," talebi":6009," görüyoruz":6010,"Sabah":6011,"diy":6012,"unç":6013," Ağ":6014,"eciler":6015," Dk":6016,"ilmesine":6017," topla":6018," cezalandır":6019," Konyaspor":6020," uzaklaştır":6021," kesinlikle":6022," hâlâ":6023,"İngiltere":6024,"TC":6025," ye":6026," çay":6027,"steri":6028," Bür":6029," Tah":6030," Eş":6031," gereği":6032," çıkması":6033," belediy":6034," yaşlı":6035," uğur":6036," kök":6037," içeren":6038,"suzluk":6039," anlatıyor":6040," Burak":6041," boşan":6042," üniversite":6043,"İnşallah":6044,"ger":6045,"gam":6046," yukarı":6047," sohbet":6048,"ekir":6049," ölen":6050," buz":6051," başladık":6052,"Oysa":6053,"Fransa":6054," dijital":6055,"ünel":6056," Alan":6057," Sch":6058," geleceğ":6059,"elidir":6060," hayatı":6061," otop":6062," John":6063," ailesi":6064,"Aslında":6065," Meclisi":6066,"iğe":6067," malzem":6068,"ükleer":6069,"'s":6070,"cık":6071,"seniz":6072,"İran":6073," yapacağız":6074," gelmesi":6075," Fik":6076," bilir":6077,"talyan":6078,"lediğini":6079,".T":6080,"AV":6081,"Rus":6082,"zer":6083,"âh":6084," vicdan":6085," hük":6086," birer":6087,"abileceği":6088," Düz":6089,"öyl":6090," projesi":6091," Halk":6092," propagan":6093," sürecinde":6094," ölçü":6095," lan":6096,"81":6097,"OM":6098,"Yön":6099," geçerli":6100,"iyetini":6101," uyuşturucu":6102," adalet":6103,"gıtay":6104," mahkemeye":6105,"Mahkeme":6106,".Bahçe":6107,"!..\n":6108,"Kom":6109,"Ser":6110," AA":6111," Sem":6112,"lığın":6113," ettiklerini":6114," Kore":6115," beğen":6116," fabrik":6117," ca":6118,"-C":6119,"rist":6120,"va":6121," sur":6122," ta":6123,"emeyecek":6124," AL":6125,"abilece":6126," Cer":6127,"ecektir":6128," nef":6129," duruma":6130," canlandır":6131," oturan":6132,"Orta":6133,"Ekonomi":6134," Çavuşoğlu":6135,"51":6136,"gesi":6137," şansı":6138," yapıyoruz":6139,"sıyla":6140,"iyede":6141," İd":6142,"ruf":6143,"alanan":6144," Esad":6145," endeksi":6146,"Kara":6147,"YA":6148,"ıd":6149,"str":6150," Kilis":6151,"ilerde":6152," bulundur":6153," gerektiği":6154," sanayi":6155,"Ark":6156," yenilen":6157,"elendir":6158,"Kö":6159," sunuyor":6160,"ulduğu":6161," Mor":6162," Fu":6163," kuru":6164," Ukrayna":6165," kaçan":6166," İspanya":6167," yakınları":6168," kadınlar":6169," kadınların":6170," Aslan":6171," sözleşme":6172," idari":6173,"Tel":6174,"ood":6175,"viç":6176," dizi":6177," damar":6178," Soy":6179," şiş":6180,"uzu":6181," verici":6182,"aşka":6183," Şimşek":6184," NATO":6185," yetki":6186," ödey":6187," marka":6188," olmuştu":6189," talimatı":6190,"estival":6191," kanıt":6192,"56":6193,"Gazet":6194,"İyi":6195,"ane":6196," tor":6197,"ılmıştı":6198," oluştu":6199,"'nu":6200," cüm":6201,"makla":6202,"manlık":6203," güne":6204," Londra":6205," tuttu":6206," öğret":6207," korumak":6208,"talyaspor":6209," hükümeti":6210,"06":6211,"58":6212,";\n":6213,"yüz":6214," geldik":6215," gelişim":6216," rok":6217," süresi":6218,"ciğer":6219," kişisel":6220," ihal":6221," yoksa":6222," ikili":6223," telefonu":6224," dağıt":6225,"nes":6226,"üzgar":6227," şer":6228," Facebook":6229," gerekti":6230,"meniz":6231,"elikli":6232," düzenleme":6233," harekat":6234," kaybed":6235," birbirine":6236,".com":6237,"Mesel":6238," büny":6239," mini":6240," vermiş":6241,"uyan":6242,"ildik":6243," evlilik":6244," geçiren":6245,"medim":6246," Washington":6247," hissed":6248," Saray":6249,"Emniyet":6250,"72":6251,"FF":6252,"Irak":6253,"Yol":6254,"ore":6255," duvar":6256," payı":6257," fel":6258,"land":6259,"önül":6260," Yavuz":6261," yaşama":6262,"ımızda":6263," yaptığımız":6264," iddiasıyla":6265," tablo":6266,"lektr":6267," maddesi":6268," potans":6269,"limpiyat":6270,".D":6271,"78":6272,"At":6273,"Haf":6274,"sey":6275,"ilip":6276,"lerdi":6277," TIR":6278,"anlığın":6279," ülkeyi":6280," gözlem":6281," gelenek":6282," Üyesi":6283," Bursaspor":6284," gerçekleşen":6285,"Ya":6286,"ras":6287,"anlık":6288,"illa":6289," yedi":6290,"landığını":6291,"isiyle":6292,"eliği":6293," kaps":6294,"000":6295," Özbek":6296," ekiplerinin":6297," mağaz":6298," karıştır":6299," açıdan":6300," açığa":6301," komşu":6302,"Merkez":6303," tır":6304,"aybin":6305," Tol":6306,"teşem":6307,"avüz":6308," işler":6309," taraftan":6310," önemlidir":6311," gittik":6312," büyüy":6313,"ümrük":6314,"HK":6315," gür":6316," ob":6317,"asın":6318,"imleri":6319,"azin":6320,"ahh":6321," açtığı":6322,"portaj":6323," sevg":6324," basit":6325," Koca":6326," sorularını":6327," korku":6328," sigorta":6329," düzenlenecek":6330," Muhammed":6331," standart":6332,"Et":6333,"Mer":6334,"ydi":6335,"şet":6336,"and":6337," beden":6338," ib":6339," algı":6340," Günü":6341," yerlerde":6342," geçiyor":6343," sorunları":6344,"malarının":6345," kateg":6346," yolunda":6347," Orhan":6348," Azerbaycan":6349," kilometr":6350,"'su":6351,"eker":6352,"iyim":6353," City":6354,"ick":6355," onur":6356," sözleri":6357,"abiliriz":6358," ettikleri":6359," şampiyonluk":6360,"Tarih":6361," reform":6362," Meydanı":6363," Belçika":6364,"Hükümet":6365,"sk":6366," devleti":6367," başlatıldı":6368," beraberlik":6369," kavuş":6370," giyen":6371,"Hol":6372,"IZ":6373,"pol":6374," Boy":6375," Tunc":6376," artan":6377," refer":6378," elbette":6379,"osiklet":6380," sahası":6381," getirmek":6382," gazeteci":6383,"\"ün":6384,"Tam":6385,"ski":6386,"tına":6387," gelerek":6388," tiyatro":6389," The":6390," Selim":6391," alg":6392,"okul":6393,"ispor":6394," Den":6395,"omez":6396," No":6397," Lis":6398," olacağız":6399," göreve":6400," özelliği":6401," sebebi":6402,"54":6403,"Cen":6404,"LI":6405,"ÖR":6406," Apple":6407," niyet":6408," Pereira":6409," ekledi":6410," sahib":6411," Ver":6412,"ansiyon":6413," okun":6414," Işık":6415," yapılmış":6416," İnsan":6417," tabi":6418,"Önce":6419," altyapı":6420,"AĞ":6421,"UT":6422,"zat":6423," Sivas":6424," Merkel":6425," biliyoruz":6426," günden":6427," yarım":6428,"araj":6429," kred":6430,"İsrail":6431,"Yaralı":6432," esnasında":6433,"Pat":6434,"lerbirliği":6435," Say":6436," may":6437," atış":6438," kod":6439," edebilir":6440," mahk":6441," hatırlatan":6442," Serdar":6443," yetkililer":6444,"76":6445,"lerim":6446," vef":6447,"landa":6448,"laştırma":6449,"ülebilir":6450," şifr":6451,"Gaziantep":6452,"memek":6453,"ota":6454,"dılar":6455,"isinden":6456,"uku":6457," Türkmen":6458," yüzyıl":6459," ağab":6460," operasyonlar":6461," kilit":6462," Proj":6463," mezar":6464," özgürlük":6465,"Hayat":6466,"Proj":6467,"-M":6468,"aca":6469,"muştur":6470,"stik":6471,"ited":6472," başından":6473,"alarak":6474,"eşme":6475,"imizden":6476," yang":6477," emin":6478," arkadaşları":6479," fayda":6480," misafir":6481," İçişleri":6482,"sh":6483," Kerim":6484," araz":6485," Gaz":6486," Göz":6487," Yak":6488," Yol":6489," yerinden":6490," karşın":6491," durumun":6492," sanay":6493," ulaştır":6494," Feth":6495," fayd":6496,"onald":6497," alkol":6498," bağlantılı":6499," kıyafet":6500,"DU":6501,"meyin":6502,"lamanın":6503," alak":6504," Çarşamba":6505," ifadeleri":6506,"leyici":6507," görevlendir":6508," dönemin":6509," köş":6510," hedefi":6511," taşıyor":6512,"Karşı":6513," Kanunu":6514,"müştü":6515,"MS":6516,"YOR":6517," ten":6518,"abileceğini":6519," kartı":6520,"üme":6521," çıkarak":6522," gerektir":6523," geçirdiği":6524," ert":6525," komut":6526," ayakta":6527," Kahraman":6528," oyla":6529," mük":6530," Am":6531," yılının":6532," kurşun":6533," girecek":6534," duyar":6535," zorluk":6536," sıkı":6537," merkezli":6538," suik":6539," tanıt":6540," Marmara":6541," Perşembe":6542," avukatı":6543," kamera":6544," usul":6545,"79":6546,"lamış":6547,"ışan":6548,"abri":6549," fuar":6550,"ezar":6551," Cizre":6552," kalın":6553," ortasında":6554,"Ann":6555," davası":6556," metr":6557," toplantıda":6558," yağışı":6559," etkisiyle":6560," Enerji":6561," noktasında":6562," Eskişehir":6563," netic":6564," yüklü":6565," Portekiz":6566,"Aile":6567,"Mü":6568,"liliği":6569,"sit":6570," icra":6571," dini":6572," niş":6573,"medik":6574," işgal":6575," asgari":6576,"leyerek":6577,"neij":6578," gittiği":6579," yürür":6580," buradan":6581," gazetesi":6582," ulusal":6583," temsilcisi":6584," Fetullahçı":6585,"neijder":6586,"68":6587,"Bin":6588,"bank":6589,"İB":6590," tör":6591,"ayolu":6592," birden":6593,"'nci":6594," yılından":6595," tarz":6596," öğretim":6597," bilgilendir":6598," sürdürüyor":6599,"Herkes":6600," cilt":6601,"isiplin":6602,"69":6603,"red":6604,"etiyle":6605,"azarı":6606," platform":6607," Mark":6608," İyi":6609," Cumartesi":6610," yönel":6611," getirdiği":6612," yoluyla":6613,"ınızı":6614," boyu":6615," oyuncular":6616," koydu":6617," yaşandığı":6618," kategor":6619,"05":6620,"Adana":6621,"DK":6622,"kek":6623," kus":6624," çar":6625," Ge":6626," süreli":6627," kendim":6628," Cumhurbaşkanlığı":6629," ağaç":6630," kavram":6631," yaptıklarını":6632," tavır":6633," Valiliği":6634," Berlin":6635," yalnızca":6636," şartı":6637," gözyaş":6638,"liyesi":6639," zan":6640," Piy":6641,"mekten":6642," girdiği":6643," görevini":6644," Ünal":6645," çalışmalarını":6646," ücretsiz":6647," Brezil":6648," istifa":6649,"Kat":6650,"adır":6651,"İS":6652," tıp":6653," öt":6654," yaşat":6655," Rob":6656,"ıldığında":6657," tutan":6658," sessiz":6659,"Taraf":6660,"Ey":6661,"PS":6662,"Yas":6663,"bil":6664,"ww":6665,"üntü":6666," birini":6667,"ste":6668," ilav":6669," Kartal":6670,"istler":6671," dönen":6672," Çakır":6673," yaklaşım":6674," değerlendirmesinde":6675," sektöründe":6676," Barcelona":6677," Uzman":6678," Brüksel":6679," finansal":6680," muhabirine":6681,"Gerçek":6682," akademisyen":6683," Faruk":6684,"keri":6685,"çılık":6686,"ırh":6687,"leriniz":6688," hayran":6689," düzenli":6690," önceden":6691," sektörü":6692," yapıldığını":6693," Topal":6694," sigara":6695," Dursun":6696," egz":6697," roket":6698," Res":6699," kullanıl":6700," söylem":6701," sevgil":6702," koordin":6703," bitti":6704," genellikle":6705,"Kamu":6706," mektup":6707,"lor":6708,"arım":6709," kere":6710," val":6711,"iyot":6712,"örd":6713," Sistem":6714,"ise":6715,"kent":6716,"acaktır":6717," ifadesi":6718," bakış":6719," üstünde":6720," İnş":6721," Şenol":6722," bütç":6723,"ette":6724," birleştir":6725," çoğ":6726,"lanarak":6727," İm":6728," İr":6729,"teş":6730," vermeye":6731," edilerek":6732," tarif":6733," çıkıp":6734," lüks":6735,"Bursa":6736," gecik":6737," tuzak":6738,"Can":6739,"lilerin":6740,"vin":6741,"Şeh":6742," beyin":6743,"mamış":6744," ocak":6745,"ikli":6746," şiir":6747," militan":6748," dedik":6749," kendisinin":6750," gelişme":6751," mezun":6752," yönündeki":6753," taciz":6754,"Mal":6755,"cin":6756," dey":6757," gördüğ":6758," Filistin":6759," işyer":6760,"dığım":6761," sağlam":6762," Angel":6763," havaliman":6764," modern":6765," Kanun":6766," düzeyde":6767," yiyecek":6768,"Nasıl":6769,"PYD":6770,"esir":6771," Medi":6772," uyku":6773," sağanak":6774," takıma":6775," ülkeleri":6776," dikkatli":6777," hükümetin":6778," Yönet":6779," sporcu":6780," rekabet":6781," Onur":6782,"Hiçbir":6783," efsan":6784," Magazin":6785,"Yurt":6786,"tının":6787," Tim":6788,"ibe":6789,"ilmiştir":6790," Lev":6791," merkezine":6792," halka":6793,"lüğünü":6794," kurtarı":6795,"Öyle":6796," veda":6797," mül":6798,"emiyor":6799," Mac":6800,"ağından":6801,"likleri":6802," ekmek":6803," saldırgan":6804," izledi":6805," teröristin":6806," öğrencisi":6807," yatak":6808," görevlisi":6809," bedeli":6810," beyan":6811,"rimenkul":6812," faktör":6813," kısıt":6814,"Siyas":6815,"Yer":6816," geleceği":6817," cerrah":6818," Fed":6819," yıldan":6820," sürülen":6821,"adet":6822,"ilenin":6823," bina":6824," atılan":6825," sağlığı":6826," Vodafone":6827," gösterdiği":6828," sözü":6829," Özdemir":6830," dışına":6831," kaçın":6832," ekipler":6833,"ladıkları":6834," istismar":6835," işadam":6836," röportaj":6837,"UZ":6838,"dde":6839,"İk":6840,"ıb":6841," sim":6842," olamaz":6843," Terim":6844," Mün":6845," Med":6846,"avi":6847," değeri":6848," Oy":6849,"idor":6850," evin":6851,"erber":6852," satışı":6853," eğitimi":6854," Savaşı":6855," ısrar":6856," redde":6857,"Film":6858,"dy":6859,"satı":6860," Salı":6861," Yayın":6862," yönde":6863," eşy":6864," gerçekleştirdi":6865," değerlendirmeler":6866," ekonomi":6867," Barış":6868," Terörle":6869," tecavüz":6870," meşin":6871," lez":6872,"Yüksek":6873,"pas":6874,"etro":6875," pah":6876," Gar":6877," görünüyor":6878,"eleriyle":6879," Po":6880,"ğrul":6881," Çay":6882," Burcu":6883," Mardin":6884,"erry":6885,"saydı":6886,"indistan":6887," müzaker":6888,"ukuki":6889,"ors":6890," aram":6891," nesil":6892," ettim":6893,"oper":6894," geçecek":6895,"lerdeki":6896," seçenek":6897," Mahmut":6898," kaldırılması":6899,"ullahçı":6900," benzeri":6901,"serispor":6902," aşkın":6903,"IŞ":6904,"göz":6905," yem":6906,"ekom":6907," AŞ":6908," Balık":6909," TSK":6910," fer":6911," Güven":6912," Yan":6913,"epe":6914," Çanakkale":6915," evlen":6916," bekliyoruz":6917,"onomik":6918," halkının":6919," Turk":6920,"erink":6921,"viçre":6922,"!\"":6923,"):":6924,"LE":6925,"iti":6926,"kları":6927," Gümüş":6928," Et":6929,"uşturma":6930," şehr":6931," üstüne":6932," saldırıları":6933," Adli":6934,"Kaza":6935,"burg":6936,"duğumuz":6937," tipi":6938,"EZ":6939,"Hakk":6940,"scar":6941,"çisi":6942," Ast":6943," gösteri":6944,"ARA":6945," hiss":6946," toplumun":6947," meselesi":6948,"Belki":6949," sinema":6950," kemik":6951,"Ol":6952,"TE":6953," omuz":6954,"ekerink":6955," imam":6956,"liam":6957,"izespor":6958," olmayı":6959," Küçük":6960," yapıp":6961," aran":6962,"sef":6963," işle":6964," Akhisar":6965," olayları":6966," tutuklama":6967," Hollanda":6968," insanı":6969,"Hava":6970," inanıyorum":6971," otomatik":6972,"77":6973,"?.\n":6974,"luluk":6975,"pat":6976,"atay":6977," Tor":6978," Kelime":6979," Mısır":6980," Dan":6981," buluştu":6982,"alığı":6983," kulak":6984,"osya":6985," görüştü":6986," ikna":6987," noktaya":6988," tehlikeli":6989," dokunulmaz":6990," ölçüde":6991,"\"e":6992,"Kılıç":6993,"MHP":6994,"Yok":6995,"mesinden":6996,"ende":6997,"etle":6998,"ike":6999," geçtik":7000," aktör":7001," örgü":7002,"Anahtar":7003," lisan":7004," harca":7005," Karşı":7006," taşım":7007," barikat":7008," gayret":7009," alkış":7010," Kıbrıs":7011,"Mesela":7012," ves":7013,"ablus":7014," anım":7015," göğ":7016," La":7017," santr":7018," farkında":7019," zorlu":7020," kapsamda":7021," golü":7022,"malıyız":7023," ürünleri":7024," İşleri":7025," organize":7026," mensuplarının":7027," profesyonel":7028," *":7029,"lüt":7030,"enn":7031,"ayiş":7032,"onun":7033," demiş":7034," MİT":7035," şimd":7036," fi":7037," cuma":7038," yıllardır":7039," çıkmış":7040," Ermeni":7041," haklı":7042," insanlara":7043," tarihinin":7044,"ASI":7045," motosiklet":7046,"Ma":7047," olmas":7048," Dil":7049," ettiler":7050," rez":7051,"ihbarat":7052," yakalama":7053," göm":7054,"erkan":7055," Erol":7056," aktiv":7057," Var":7058," Ziraat":7059," kişiden":7060,"liğiyle":7061," artarak":7062,"alarıyla":7063," uçağı":7064," metro":7065," fotoğrafı":7066," yansıt":7067," gidece":7068,"İYE":7069," yayımlanan":7070," karşılığında":7071,"Mev":7072,"TL":7073,"TSK":7074,"öğretim":7075," km":7076," birleş":7077,"eyerek":7078," Beyaz":7079,"omotiv":7080," günler":7081,"ısındaki":7082,"adaki":7083," toplanan":7084," adr":7085," olmaktan":7086," kırık":7087,".C":7088,"Küçük":7089,"OĞ":7090,"Samsun":7091,"fen":7092,"elli":7093," mür":7094," mec":7095,"eygam":7096," alacağı":7097,"lığında":7098," gergin":7099," değildi":7100,"osun":7101,"'yle":7102," Çocuk":7103," zamanlı":7104," zamanlarda":7105," geçirilen":7106,"ınıza":7107," üyelerinin":7108," işlemi":7109," tasarruf":7110," irtib":7111," kulübün":7112," beslenme":7113,"İngiliz":7114,"Orada":7115," teşebbüs":7116,"voca":7117," öf":7118," nam":7119,"iyordu":7120," Hır":7121,"afaz":7122,"likte":7123," Türkçe":7124," yarıda":7125," çalışıyoruz":7126," ört":7127,"cell":7128,"olog":7129," vatandaşı":7130," çıktığını":7131," kaybettiği":7132,"odol":7133," Demirel":7134,"Önümüzdeki":7135,"TÜR":7136," zamanı":7137," stratejik":7138," ağız":7139," slogan":7140,"vocaat":7141,".Y":7142,"Gö":7143,"Zira":7144,"lok":7145," suyu":7146," hediye":7147," Kim":7148," nez":7149," nükleer":7150,"laşması":7151,"layın":7152,"ihat":7153," belirledi":7154," uzan":7155," kimi":7156,"onsor":7157," uygulanan":7158," sezonunda":7159," yürüten":7160," söylen":7161,"Karar":7162," futbolcular":7163," kuvvetli":7164," meşru":7165," hikây":7166," virüs":7167,"GS":7168,"lob":7169," sil":7170," iken":7171,"ledik":7172," alırken":7173," verdik":7174," kalıcı":7175," bulunması":7176," Eren":7177," çekerek":7178,"tıktan":7179," lok":7180,"195":7181," savcılık":7182," Üst":7183," konuşmada":7184," Temsil":7185," sonuçlar":7186," madal":7187," kalkış":7188,"İYOR":7189," Takım":7190," Tarım":7191," yapılab":7192,"Genelkurmay":7193,"estivali":7194," Bölgesi":7195,"Mehmet":7196,"ht":7197,"int":7198,"ura":7199,"stit":7200," Sp":7201," verme":7202," maalesef":7203,"ilmez":7204," sağladı":7205,"Birçok":7206," sıv":7207," tatlı":7208," Milletler":7209," ülkemizin":7210," buluşan":7211," çeyre":7212," vekil":7213," İnşaat":7214,"Dav":7215,"HAL":7216,"Siyah":7217,"Van":7218,"rah":7219," mit":7220," Kav":7221," Din":7222," Paşa":7223," sürdüğü":7224," katk":7225," olası":7226," alana":7227," ihanet":7228,"içi":7229," gerçekleştirdiği":7230," planı":7231," hizmeti":7232," telefonla":7233," ihtimali":7234,".Saray":7235,"Osmanlı":7236," ilave":7237," X":7238,"'yla":7239,"LAN":7240,"Yaz":7241,"ry":7242,"rat":7243," yur":7244," senin":7245,"iyan":7246," başlar":7247,"ayacağı":7248," köpek":7249," muhtem":7250," yönetiminin":7251," hastane":7252," toplumsal":7253," oyuncunun":7254," Manchester":7255," numaralı":7256,"OBİ":7257," vefat":7258,"Trump":7259,"UEFA":7260,"ayım":7261," pla":7262," niye":7263,"usuz":7264,"omut":7265," kalıyor":7266," Odası":7267," teröre":7268," sözde":7269," kov":7270," girişimine":7271," hesabı":7272," yükselen":7273," oranda":7274," ortamda":7275," tüketic":7276," İdaresi":7277,"usturya":7278,".Ö":7279,"800":7280,"Davutoğlu":7281,"Har":7282,"Haz":7283,"MA":7284,"dınız":7285,"feri":7286,"idi":7287," ka":7288,"dağı":7289,"ell":7290," tok":7291," So":7292," Mat":7293," Mon":7294," ayakk":7295,"ısınız":7296,"ilmesinin":7297," düzelt":7298," olayda":7299," operasyonlarda":7300," Halil":7301," tanıtım":7302," sorunlar":7303," çizen":7304," ülkemizde":7305," Real":7306," Yalçın":7307," diliyorum":7308,"04":7309,"BA":7310,"Gerek":7311,"Tut":7312,"mesin":7313," skan":7314," ikin":7315,"imler":7316," olunca":7317," arasına":7318," gündür":7319," istendi":7320,"lamayı":7321," oyuna":7322," sırt":7323," derken":7324," kaçtı":7325,"melerini":7326," Demirtaş":7327," miktarda":7328," zorunlu":7329,"edav":7330,"çalı":7331,"eter":7332," hukuki":7333," aldıkları":7334," başrol":7335," re":7336," Yüz":7337," değinen":7338," bölün":7339," yazılım":7340," konularda":7341," meyve":7342," akşamı":7343,"ABAH":7344," edeceğini":7345," cesedi":7346," bakımından":7347," selam":7348," Ödülü":7349," keyif":7350," popüler":7351,".tr":7352,"62":7353,"63":7354,"line":7355,"Örgüt":7356,"şak":7357,"anti":7358," küç":7359," küf":7360," hekim":7361," demişti":7362," oldum":7363," Rizespor":7364," varlık":7365,"lemiş":7366," katlı":7367,"192":7368," köken":7369," Demokrat":7370," çevresinde":7371," riski":7372," şiddetli":7373," amaçlı":7374,"Teknik":7375," Güneydoğu":7376," Sekreteri":7377,"DHA":7378,"TK":7379,"lov":7380,"ned":7381,"rom":7382,"andev":7383," sist":7384," zırh":7385,"luğa":7386," işver":7387,"uştuk":7388,"ico":7389," Usta":7390," bölgesi":7391," başladığını":7392," başardı":7393," heyeti":7394," yıldızı":7395," sağlanması":7396," başkent":7397," yerleşim":7398," takdirde":7399," Köyü":7400,"Beni":7401,"ia":7402,"erler":7403," sam":7404," sön":7405,"iro":7406,"örf":7407," Sür":7408,"tıcı":7409," gördüm":7410," kalb":7411,"lamayan":7412," görevden":7413," est":7414," hazırlan":7415," ayrılan":7416," sınırlı":7417," ülkelerde":7418," incelen":7419," dua":7420,"akarya":7421," sıfır":7422,"-S":7423,"99":7424,"Af":7425,"tah":7426,"vil":7427," bine":7428," sef":7429," çatı":7430," Amir":7431," alama":7432," sürük":7433," sorusuna":7434," toplan":7435," maçının":7436," saldırının":7437,"ılacağı":7438," sana":7439," ekiplerince":7440," adımlar":7441," herkese":7442," söyleyerek":7443," imkanı":7444,"Mustafa":7445,"ÖZ":7446,"inal":7447," yedek":7448,"eks":7449," Beş":7450," Sig":7451," Güzel":7452," ayar":7453," kalem":7454," kalmış":7455," yarısı":7456," yüzlerce":7457," atıldı":7458," yetkili":7459," tarihleri":7460,"alatya":7461," kırsal":7462," çarptı":7463," Kalkanı":7464,"Şüphel":7465,"-B":7466,"Süper":7467," çaba":7468," por":7469," fiş":7470," Dön":7471," Gomez":7472," olmaması":7473," harit":7474," parayı":7475," Ülk":7476," hakkını":7477," üste":7478," tamamlandı":7479,"Araştır":7480," ailesinin":7481," Turg":7482," noktası":7483," puanla":7484," çizg":7485," edilmiştir":7486," Politik":7487," Bayramı":7488,"61":7489,"Kah":7490,"Mes":7491,"ÜK":7492,"lediklerini":7493," Aşk":7494," Ajansı":7495,"amik":7496," edi":7497," alev":7498," çıkarı":7499," istasyon":7500," elinden":7501," çıkarılan":7502," sisteminin":7503," yönetimindeki":7504," ailesine":7505," bahset":7506,"uğla":7507," çağrısı":7508," Hollandalı":7509," United":7510," üm":7511," ışı":7512,".E":7513,"Ali":7514,"SA":7515," sip":7516," vizyon":7517," tünel":7518," Tok":7519,"abını":7520," Kir":7521,"isiklet":7522,"tefik":7523," Pazartesi":7524," kullanıyor":7525," alanına":7526,"Anne":7527," Bakanlı":7528," Avcı":7529," eşlik":7530,"Bize":7531," açıklamaları":7532," Şubesi":7533," Kaynak":7534," oradan":7535," vakit":7536,"eynep":7537," geriledi":7538,"82":7539,"Ail":7540,"Han":7541," batı":7542," Teş":7543,"abilen":7544," füz":7545," yarışma":7546,"ebileceğini":7547," söylediği":7548," doğu":7549," tutum":7550," insanlık":7551," olayla":7552," sistemine":7553," çevre":7554," katılımı":7555," öğrencilerin":7556,"brek":7557," çatış":7558," olabileceğini":7559," yaptırım":7560,"Paralel":7561,"gresi":7562," mücadelesi":7563," düğün":7564," mevzu":7565," analiz":7566," ucuz":7567,"Ber":7568,"ığ":7569," ren":7570,"opi":7571," kaldığını":7572," gök":7573," sahasında":7574," seven":7575," ulaşan":7576,"çılar":7577," işlemlerinin":7578,"tuğrul":7579," komp":7580," hâkim":7581," yağışlı":7582,"Kısa":7583,"eygamber":7584," vize":7585," dek":7586," Kül":7587," aleyh":7588," Hil":7589," Hizmet":7590," Emir":7591,"ros":7592," akrab":7593,"lasik":7594," rahatsızlık":7595," başarısız":7596," elektronik":7597," oynadı":7598," endişe":7599," mühendis":7600," Kadıköy":7601," cezaevine":7602," sponsor":7603," fragmanı":7604,"Sezon":7605,"mamak":7606," dük":7607," Mak":7608," Donald":7609," buluştur":7610," kalmadı":7611," katliam":7612," gözden":7613," saldırısında":7614," dernek":7615," saldırılar":7616,"duklarını":7617,"Bugüne":7618," mahalle":7619," izleyic":7620," Yasin":7621," kalabalık":7622,"95":7623,"OT":7624,"Per":7625,"lılığı":7626,"vel":7627," birey":7628," ilde":7629," verg":7630," geriye":7631,"uydu":7632," Festivali":7633," kullanımı":7634," getiriyor":7635," ifadesinde":7636,"ılabilir":7637," dönemine":7638," eşliğinde":7639," saldırıyı":7640,"ahattin":7641,"uyucu":7642," muay":7643,"cılığın":7644," demektir":7645," mühim":7646,"Arkadaş":7647," potansiyel":7648,"Neden":7649,"Seç":7650,"TT":7651,"kut":7652,"sağlığı":7653,"eron":7654,"ilim":7655," birliği":7656," TÜ":7657," almıştı":7658," İtalyan":7659," zinc":7660," sürece":7661," yaşanıyor":7662,"Anadolu":7663," yazık":7664," bölgelerde":7665,"ağıt":7666," köt":7667," kaldırılan":7668," imkân":7669,"Fat":7670,"yl":7671,"eyiz":7672," Sneijder":7673," şunu":7674,"rama":7675,"omobil":7676," gününde":7677," Şehir":7678," aklı":7679," saniye":7680," bilgisi":7681," bugünkü":7682," böylece":7683,"ulduğunu":7684," inşallah":7685," modeli":7686," sorumlusu":7687," enfeksiyon":7688," tecrübeli":7689," ahlak":7690," tribün":7691," mücadeleyi":7692,"Kılıçdaroğlu":7693,"ırsa":7694," Part":7695," bölgenin":7696," Organ":7697," hata":7698," etmeyi":7699," çalışmalarına":7700,"aport":7701," borc":7702," artışla":7703," Kurtulmuş":7704," Semih":7705," x":7706,"Hast":7707,"Re":7708,"ysa":7709," kanlı":7710," bireysel":7711," Bah":7712," Sır":7713," konuyu":7714,"lıktan":7715,"amam":7716," çektir":7717," koridor":7718," görünüm":7719," bölümde":7720," Yargıtay":7721," bayrağı":7722," istediklerini":7723," bütçe":7724,"89":7725,"Kaç":7726,"bon":7727," dörd":7728,"ayarak":7729," Tiyatro":7730," Mu":7731," Mas":7732," Gazi":7733," Hacı":7734," başsağlığı":7735," karara":7736," roman":7737," edilir":7738," Yapı":7739," Fi":7740," katı":7741," evi":7742,"dikal":7743," şeyin":7744," kanaat":7745," aşama":7746,"Sonuç":7747," şirketlerin":7748,"panyol":7749," şarj":7750," psikolojik":7751," tavsiye":7752,"\"i":7753,"Düş":7754,"ılmıştır":7755,"emli":7756," Aki":7757," Acil":7758,"umda":7759," alıcı":7760," zemin":7761," geçerek":7762," açıkça":7763," akl":7764," yolunu":7765," Ulu":7766," Umut":7767," kararlı":7768," derg":7769," geldiğinde":7770," hazırladığı":7771," İlk":7772," planlanan":7773," Savaş":7774," görüntüleri":7775," şarkıcı":7776," Sarayı":7777,"Halep":7778," işadamı":7779," örgüte":7780,"71":7781,"sul":7782,"tvin":7783,"steş":7784," Bekir":7785," Sil":7786," nik":7787," Dağı":7788," kalacak":7789," kullanıldı":7790," Ök":7791," altındaki":7792," Suriyel":7793," olaylar":7794," Parlamen":7795,"aladığı":7796," bilinç":7797," ilişkileri":7798," Amerikalı":7799," Polis":7800," Bölge":7801,"ACAK":7802,"Okul":7803," ateşkes":7804,"Ağ":7805,"uel":7806,"Öğren":7807,"çısı":7808,"İST":7809," tetik":7810," ila":7811," Kol":7812," Mari":7813," kurduğu":7814," eline":7815," karşıtı":7816," örgütleri":7817," kararının":7818," Ür":7819," yardımcısı":7820," mutab":7821,"lendiğini":7822," dakikalarda":7823," mevsim":7824," sabır":7825," yürüttüğü":7826,"İLG":7827," taraftarlar":7828,"berg":7829," başlangıç":7830," suikast":7831,"Ham":7832,"vat":7833,"ıntılı":7834," idam":7835,"esma":7836," KAR":7837," Gen":7838," Esed":7839," gelince":7840," konfer":7841,"iba":7842," çıkmak":7843," çalışmaya":7844," savaşı":7845," denk":7846," oynuyor":7847," kimin":7848," muhafaz":7849," kapsamlı":7850," sabit":7851," bahsed":7852," sitesinde":7853," teklifi":7854," Ulusal":7855," Hamza":7856," Cengiz":7857,"İHAN":7858," Soylu":7859," egzersiz":7860,"lobal":7861,"'lık":7862,"?'":7863,"Ner":7864,"Yen":7865,"bor":7866,"dunuz":7867,"iğit":7868," dediler":7869,"işli":7870,"esis":7871," Don":7872,"uta":7873,"tein":7874," zeytin":7875," edilmişti":7876," ülkeden":7877," adlandır":7878," yetersiz":7879," hayatına":7880," kimliği":7881," sistemini":7882," patlat":7883," kavga":7884," kolaylaştır":7885," hendek":7886," performansı":7887," mutluluk":7888," tüfeği":7889," Nusaybin":7890,"Gök":7891,"dün":7892,"tre":7893,"Öl":7894,"çay":7895,"ılay":7896,"atistik":7897,"diven":7898,"ılmasının":7899," Kür":7900," Kral":7901," karanlık":7902,"roid":7903," Erzurum":7904," çekilen":7905," bölgesel":7906," tarihli":7907," araçlar":7908," görünce":7909," kıyı":7910," uygulamalar":7911," sitesi":7912,"ülecek":7913," gazetecilerin":7914," istikamet":7915," vadeli":7916," Yaşar":7917," Teknoloji":7918," Lisesi":7919,"-Spor":7920,"EV":7921,"Sin":7922,"UK":7923,"eda":7924,"rü":7925," kelim":7926," çö":7927," AR":7928,"iklal":7929," öv":7930," festival":7931,"okol":7932," Google":7933," Hukuk":7934," Yunus":7935,"dirne":7936," yılına":7937," Of":7938,"ebi":7939," oyunun":7940," Şanlıurfa":7941,"sızın":7942," Akar":7943," haberler":7944," polisler":7945," hakkındaki":7946," gazetecilere":7947," yitirdi":7948," ismini":7949,"Aç":7950,"Yunan":7951,"kın":7952,"mon":7953," güz":7954," Sez":7955,"tılar":7956,"ükür":7957," ederim":7958,"aşkın":7959," doları":7960,"dere":7961," Alt":7962," kararın":7963," burun":7964," Parçalı":7965," tutuklanan":7966," yenilik":7967,"İLİ":7968," gidiş":7969," kanseri":7970," vurgulan":7971," Kenan":7972," musunuz":7973," Fikret":7974," Tolga":7975," yürürlüğe":7976,"Rapor":7977,"halat":7978,"lılı":7979,"var":7980,"çü":7981," oper":7982,"atın":7983,"atış":7984," yılları":7985," kalması":7986," devir":7987,"terör":7988," amac":7989," Alper":7990," mücadelenin":7991," erdi":7992," sezonun":7993," firma":7994," değişikliği":7995,"İslam":7996," özgürlüğü":7997," beslen":7998,"uaresma":7999," Gençlik":8000," reddet":8001," fiziksel":8002," mahkum":8003,"BC":8004,"Başka":8005,"orumu":8006," Gönül":8007," başlıklı":8008," İli":8009," kayyum":8010,"larınızı":8011,"tüel":8012," saatte":8013," cezasına":8014," öncelikle":8015," suçu":8016," saldırıya":8017," bazıları":8018," şirketleri":8019," yayınlandı":8020," büyüt":8021," öğrencileri":8022," piyasa":8023," seviyesinde":8024," depo":8025," şikây":8026,"Uzman":8027," Bulut":8028,"ruklu":8029,"'er":8030,").\n":8031,"700":8032,"don":8033,"our":8034,"ses":8035,"lazı":8036,"orum":8037,"ılmaya":8038,"immet":8039," aldıklarını":8040," içinden":8041,"tadır":8042," ayına":8043," devre":8044," alanlarda":8045," hayati":8046," isimleri":8047," değerlendiren":8048," Uzmanı":8049," cadde":8050," lezzet":8051," rezerv":8052,"lazığ":8053,"gur":8054,"ktan":8055,"rib":8056," kına":8057,"ulma":8058,"ırım":8059," alçak":8060,"isar":8061,"ülük":8062,"racat":8063," masa":8064," binanın":8065," uyum":8066," sahil":8067," haksız":8068,"eceğine":8069," kontrolü":8070," gelişmiş":8071," taşıma":8072," transferi":8073," fırsatı":8074," Caner":8075,"stagram":8076,"73":8077,"TA":8078,"Yeşil":8079,"gat":8080," dosya":8081," mir":8082," Kr":8083," görsel":8084," olduğundan":8085," çalıştığını":8086," topar":8087," özen":8088," Vali":8089," getirilmesi":8090," durumunun":8091," güvenliğini":8092," mesl":8093,"estek":8094," İsveç":8095,"ebiliriz":8096," hızlandır":8097," askerlerin":8098,"Geçmiş":8099," olabileceği":8100," sürecinin":8101,"Dünyada":8102," Kasımpaşa":8103," Gençlerbirliği":8104," Telekom":8105," şoför":8106,"86":8107,"Emek":8108,"Zor":8109," somut":8110," Tal":8111," Ki":8112,"denin":8113,"isindeki":8114," başlandı":8115," konuldu":8116," gerekse":8117," belirtiyor":8118," yazdığı":8119," parmak":8120," erişim":8121," ilçesine":8122," forvet":8123," yakalanan":8124," diyorlar":8125," politika":8126," Fatma":8127," istenen":8128," Basketbol":8129," müttefik":8130,"Kend":8131,"nuv":8132,"pınar":8133," tey":8134,"emmel":8135," Ağır":8136," ailenin":8137," Gu":8138," anti":8139," bulmak":8140,"ebilmek":8141," yüzü":8142," duran":8143,"lemesi":8144," kullanmak":8145," özür":8146," alındığını":8147," zamanla":8148," durumlarda":8149,"ediğini":8150," eşinin":8151," artışı":8152,"ingöl":8153," araçların":8154," plana":8155," uzaklaş":8156," şahit":8157," düşünüyoruz":8158," kültürel":8159,"ladıklarını":8160," baskın":8161," harcam":8162," ır":8163,"83":8164,"ben":8165,"hiş":8166,"Şampiyon":8167," blok":8168,"ilebilir":8169,"ünce":8170," Kaç":8171," görme":8172," Cenk":8173," Yah":8174," Ozan":8175," evden":8176," alınmış":8177," sevin":8178," gerçekleştirilecek":8179," tüketici":8180," bunlara":8181," istemiyle":8182," karşılıklı":8183," ceph":8184," Osmanlıspor":8185," leh":8186," vuruşunda":8187," Sistemi":8188," çadır":8189," AV":8190," Tu":8191," artıyor":8192," zehir":8193,"lenecek":8194," ayn":8195," günün":8196," geçmek":8197,"ebileceği":8198," kaydı":8199,"eride":8200,"osa":8201," denet":8202," azından":8203," çocuklara":8204," muhteşem":8205," oluşuyor":8206," faaliyetleri":8207," ücreti":8208," kasab":8209," genişlet":8210,"ÜZ":8211,"arrem":8212," koc":8213,"lamalar":8214," tit":8215,"und":8216,"unlar":8217," hoca":8218,"asız":8219," çel":8220," amir":8221," şebek":8222," Hürriyet":8223," verilerine":8224," Pa":8225,"omp":8226," geçtiği":8227," belirli":8228,"lerinizi":8229," sağlaya":8230," Antalyaspor":8231," değiliz":8232," yapılandır":8233," kampanya":8234," Kurum":8235," serv":8236," geçirmek":8237,"ustral":8238," tanesi":8239,"ümüze":8240," oluşturuyor":8241," masaya":8242," önlemleri":8243,"Görüş":8244," kıyas":8245," vitamini":8246," ayakkabı":8247,"DAN":8248,"Kı":8249,"Tören":8250,"Ver":8251,"Şırnak":8252,"aydı":8253,"ikapı":8254," Be":8255," yapmayı":8256," Yatırım":8257," buluyor":8258," kurmak":8259," kişilere":8260," milyonlarca":8261," düzenleyen":8262," Bakır":8263," ediyorlar":8264," okula":8265," oluşturduğu":8266," laf":8267," yaşamak":8268," piyasaya":8269," galip":8270," kesinti":8271," hadi":8272," dağıtım":8273," Bozdağ":8274," ısı":8275,"De":8276,"gah":8277,"ja":8278,"les":8279,"xy":8280," kâ":8281," AT":8282," başbakan":8283," randev":8284," Plan":8285,"lıkta":8286," geçer":8287," Roma":8288," elini":8289," uyan":8290," uyruklu":8291," ondan":8292," bizzat":8293," Alp":8294," Zirv":8295,"obot":8296,"oza":8297," izni":8298," hayatta":8299," Aky":8300," ulaşım":8301," sahipliği":8302,"onser":8303," projenin":8304," manz":8305," Kaymakam":8306," kuruluşu":8307,"orku":8308," Camii":8309,"yasal":8310," geleneksel":8311," referan":8312,"64":8313,"pt":8314,"ıştı":8315,"ecer":8316," vermişti":8317,"194":8318," gerçekleştiren":8319," ayrım":8320," ayrıntı":8321," sektörün":8322," savundu":8323," engelli":8324," dizisi":8325," raporu":8326," hamile":8327," Direktör":8328," Kızıl":8329," Büyükelçisi":8330," söndür":8331,"La":8332,"Obama":8333,"bru":8334,"faz":8335,"kol":8336,"oter":8337,"ınç":8338,"madık":8339," aylarında":8340," yakaladı":8341," taksi":8342," konuya":8343,"lığıyla":8344," araçları":8345," uygulamaya":8346," dünyasının":8347," giderken":8348," babasının":8349," ülkelere":8350," rakibi":8351," direk":8352," sektörünün":8353," Bayrak":8354,"Kazada":8355," altyap":8356," Oğuzhan":8357,"Res":8358,"kiler":8359,"akende":8360," olmasının":8361," Tosun":8362," Serkan":8363,"anıp":8364," Cey":8365," coş":8366," olanların":8367," Rum":8368,"ediler":8369," dönük":8370," gerekmektedir":8371," hali":8372," müte":8373," getirerek":8374," yoluna":8375," bulunduğ":8376," yürek":8377," Ayşe":8378,"Altın":8379," hizmete":8380," seviyesine":8381," kilogram":8382," Manisa":8383,"ango":8384,"Hastan":8385," temsilcileri":8386," lanet":8387,"Apple":8388,"Ken":8389,"`n":8390,"cilerin":8391,"etler":8392,"orit":8393," horm":8394,"uluş":8395,"ecilerin":8396," Ha":8397," Co":8398," ince":8399,"Anayasa":8400," değilim":8401," yazarı":8402," yeten":8403," izleyen":8404," artması":8405,"endim":8406," sürdüren":8407," finale":8408," öldürdü":8409," araştırmalar":8410," Hakim":8411," ordus":8412," tebrik":8413," Projesi":8414,"TÜRK":8415," lay":8416,"'an":8417,"Sel":8418,"Sır":8419,"jen":8420,"Çocu":8421,"ekon":8422,"diğim":8423," Mem":8424,"okulu":8425," Geç":8426," veri":8427," vermedi":8428," zafer":8429," Yü":8430," müj":8431," onlarca":8432," uzmanı":8433," yakınlarında":8434," araçla":8435," golle":8436," diyal":8437," sunulan":8438," soruları":8439," rejimi":8440,"Yıldırım":8441," menf":8442,"Demir":8443," imamı":8444," neticesinde":8445,".G":8446,"Hedef":8447,"Müz":8448,"çilerin":8449," satı":8450,"etleri":8451,"ator":8452,"led":8453," Boğaz":8454," Tüm":8455," Sam":8456," falan":8457," intik":8458," duruyor":8459,"acaklarını":8460,"cağım":8461," ufak":8462," dönemlerde":8463," haftanın":8464," takımda":8465," kazanç":8466,"Aydın":8467," gönderilen":8468,"Bununla":8469," resim":8470," kapattı":8471," Kayserispor":8472," renkli":8473," katılımcı":8474,"Gözaltına":8475," zırhlı":8476,"çar":8477," kâr":8478," sesi":8479,"labilir":8480," vah":8481," tansiyon":8482,"imden":8483," Bro":8484," ayağa":8485," VE":8486," basına":8487," vatandaşın":8488," sistemin":8489," Orgeneral":8490," hattı":8491," çalışmalarının":8492,"Onu":8493," otomotiv":8494," cevabı":8495,"ABER":8496," ithal":8497," Karaca":8498,"Toplam":8499," emeklilik":8500," milletvekilleri":8501," futbolcunun":8502," lisans":8503," miting":8504,"\"den":8505,"yaka":8506,"Ür":8507," bildi":8508,"irkin":8509,"unt":8510,"tip":8511," Hindistan":8512," karayol":8513,"önü":8514,"üyü":8515," Oscar":8516," Ro":8517," Çam":8518," Erkan":8519," tarihe":8520," okur":8521," haberleri":8522," emir":8523," hareketi":8524," şirketler":8525," öldürül":8526," sars":8527," şahsın":8528," edeceği":8529," yanıtladı":8530," finansman":8531," yolculuk":8532," duygusal":8533," parlamento":8534," gerçeği":8535,"\"in":8536,"DEN":8537,"jans":8538,"tiy":8539," Diy":8540," Danış":8541,"alarca":8542," etmektedir":8543,"asıt":8544," bilmiyorum":8545," yarısında":8546," kadını":8547," yakıt":8548,"ladım":8549," gözet":8550," ihbarı":8551," sevgi":8552," kendimi":8553," kararına":8554," şehidin":8555," üstü":8556," gönderdiği":8557," karşılaşma":8558," kitl":8559," tren":8560,"Toplum":8561," sürücüsü":8562," apart":8563," Riekerink":8564," sermaye":8565,"lektrik":8566,"Taraftar":8567," Astsubay":8568,"Fatih":8569,"Am":8570,"CK":8571,"Ül":8572,"Şah":8573,"ındık":8574,"ekin":8575," Tug":8576," Koc":8577," Cev":8578," kadına":8579," oraya":8580,"ebilece":8581," belirsiz":8582," söylemek":8583," Vit":8584," yetenek":8585," sayısını":8586," düşünce":8587," meyv":8588," dünyadaki":8589," firmalar":8590,"Toplantı":8591," iktid":8592," mensupları":8593," tasarı":8594," bilimsel":8595," Bölümü":8596," moral":8597,"Bölgede":8598," Mevlüt":8599,"Amerika":8600," görevlileri":8601," sisteme":8602,"130":8603,"Oğ":8604,"ilmektedir":8605," küt":8606," AN":8607," Tesis":8608," arayan":8609," Dev":8610," edilirken":8611," açılması":8612,"lamay":8613," kenar":8614," sağladığı":8615," ilgilendir":8616," gözler":8617," ihmal":8618,"inizin":8619," saatlerde":8620," ligin":8621," iyice":8622," tarihine":8623," çıkarmak":8624,"acağım":8625," kendileri":8626,"alaxy":8627," Abdül":8628," başlamış":8629," partisi":8630," partinin":8631," Gaziantepspor":8632,"tığımızda":8633,"Üstelik":8634," töreni":8635," Zirvesi":8636,"88":8637,"Batı":8638,"nu":8639,"lası":8640,"lıca":8641," konv":8642," yıllarında":8643," çalışırken":8644," Şir":8645," evli":8646," maçını":8647," çekildi":8648," lise":8649," hazırlanıyor":8650," projeler":8651," toplamda":8652," herkesi":8653," şartları":8654," sinyal":8655," ilerleyen":8656,"Elbette":8657," böbrek":8658," çapında":8659,"Üniversit":8660," metrekar":8661," gönüllü":8662," nefret":8663," layık":8664,"Beyaz":8665,"irve":8666," Bodrum":8667,"uza":8668," anında":8669," olduğum":8670," isterim":8671,"eceğimiz":8672," Çiçek":8673," katılacak":8674," akın":8675," çekim":8676," altının":8677," göstermek":8678," dışındaki":8679," takımının":8680," İsviçre":8681," eriş":8682," oyuncuları":8683," filmin":8684," ithalat":8685," masraf":8686," kayıtlı":8687," İstihbarat":8688," Cenevre":8689," tezah":8690,"Saat":8691,"şen":8692," bini":8693," gıd":8694,"ayeti":8695," çukur":8696," pank":8697," HABER":8698," karn":8699,"dırdı":8700,"ukat":8701," aydır":8702," tarafında":8703," Lu":8704," iftir":8705," doğan":8706," Müsteş":8707,"ankaya":8708," sanki":8709," çıkarken":8710," mesle":8711," davanın":8712," ekiplerine":8713," tamamı":8714," boyun":8715,"tifak":8716," otomobilin":8717," düştüğü":8718," Dairesi":8719," Teşkil":8720,"Atatürk":8721,"Gülen":8722,"Lock":8723,"TBMM":8724,"ks":8725,"rit":8726," kaşı":8727," seni":8728,"esli":8729," olmay":8730," dayalı":8731,"lılar":8732," fen":8733," kaygı":8734," aksine":8735," büyüklüğ":8736," harika":8737," yaptım":8738,"\"nün":8739," beraberinde":8740," Advocaat":8741," eylemi":8742,"mıyorum":8743," mahkemece":8744," müthiş":8745,"Muhal":8746," Muhammet":8747," bünyesinde":8748," tezahür":8749,"\"a":8750,"Diy":8751,"cir":8752,"los":8753,"yurt":8754," bot":8755,"imle":8756," Açık":8757,"eydi":8758," Bit":8759," THY":8760," KOBİ":8761," aldım":8762," veriliyor":8763," anlar":8764," aya":8765," açıklayan":8766," atarak":8767," Na":8768," taraftarı":8769," Ercan":8770," seviyede":8771,"mıza":8772," Zeynep":8773,"191":8774," lis":8775,"dığınız":8776,"ozan":8777," bakın":8778," planlıyor":8779,"umuzu":8780," bahar":8781," çarptır":8782," adıyla":8783," pasaport":8784," hayırlı":8785," suretiyle":8786,"odolski":8787," w":8788,".Ç":8789,"Tah":8790,"yeni":8791," yüküm":8792,"ettin":8793,"atörü":8794," olsaydı":8795,"apoli":8796," ilti":8797," Her":8798," Hüküm":8799," geleceğini":8800," verdikleri":8801," zul":8802," girmek":8803," suçlu":8804," kazanmak":8805," açıklamasını":8806,"AKP":8807," sınırı":8808," doku":8809,"eteor":8810," faydalı":8811," sahneye":8812," Finans":8813," eleman":8814," pahalı":8815,"Tutuk":8816,"'luk":8817,"Aş":8818,"DER":8819,"Kür":8820,"mece":8821,"İtalya":8822," sanı":8823," dans":8824," Aile":8825," BİR":8826,"ecik":8827,"oks":8828,"tedir":8829," veriyoruz":8830," sürüldü":8831," Lim":8832," Ertuğrul":8833," ifadeler":8834," maçlarda":8835," sözler":8836," hariç":8837," konuşmasında":8838," iddiası":8839," değerlendirdi":8840," moda":8841," karşılaşmada":8842,"müştür":8843," inanç":8844," trafiğe":8845," hastalıkları":8846," Bakanlar":8847," listesinde":8848,"amızda":8849," Hakları":8850," Hayvan":8851," ağrısı":8852," Hanım":8853," Cerablus":8854," faydalan":8855,"74":8856,"IŞİD":8857,"larsa":8858," olmaları":8859," Ban":8860," öp":8861,"abildi":8862," Dağ":8863," vermey":8864," zem":8865," Şam":8866," müsa":8867," evinin":8868," kararları":8869," denilen":8870," Özer":8871," açıklamıştı":8872," oyuncuların":8873," motiv":8874," Enstit":8875," berabere":8876," bankacılık":8877," yakalanması":8878," Başbakanlık":8879," gücünü":8880," Müzesi":8881," desteğiyle":8882," kusur":8883,"\"\n":8884,"Sokak":8885,"The":8886,"elle":8887," hitap":8888," mart":8889," mide":8890," AY":8891," Kadir":8892," Sun":8893," şeye":8894," Ec":8895,"ecekler":8896," dönüm":8897," Çok":8898," sağlar":8899," zamanında":8900," alanları":8901," maçına":8902," ikisi":8903," hemş":8904," oynamak":8905," görüşmede":8906," iddiaları":8907," gelişen":8908,"Konya":8909,"ışıklık":8910," detaylı":8911," dondur":8912," teşkilat":8913,"'ini":8914,"BI":8915,"Der":8916,"ularak":8917,"ÖN":8918,"alp":8919,"lera":8920,"asus":8921," çiçek":8922," olmasın":8923,"abilmesi":8924," yapabilir":8925,"taç":8926," zek":8927," çalışmak":8928," karşılığı":8929," kararlılık":8930," yetk":8931," suçlarından":8932," İnan":8933," anlaşıldı":8934,"esince":8935," kitab":8936,"jantin":8937," birbirinden":8938," sürecini":8939," mezh":8940,"Güneş":8941," söylüyorum":8942," grubun":8943," maliyeti":8944," mağlub":8945," seyirc":8946," korunması":8947," Quaresma":8948," Balıkesir":8949," dördüncü":8950," Öksüz":8951,"Dev":8952,"Dışişleri":8953,"gazi":8954,"pe":8955,"vili":8956," yapacağını":8957," etap":8958," kons":8959," günleri":8960,"masyon":8961," istek":8962,"arka":8963," ilgisi":8964," yolları":8965," çekmek":8966,"tikleri":8967," liman":8968," sayede":8969," kimyasal":8970," lirayı":8971," yapılır":8972," gerçekleştirildi":8973," Emin":8974," anlaşması":8975," filmde":8976," komutan":8977," bors":8978," adamın":8979," yorgun":8980," Muharrem":8981," Yönetimi":8982,"Güney":8983," ekrana":8984," yolculuğ":8985," Fernan":8986,"name":8987," Japonya":8988," çekiliş":8989," &":8990,"Tem":8991,"ern":8992," suy":8993,"ünt":8994,"amı":8995,"umun":8996," maz":8997," düşüyor":8998," Çek":8999," terörün":9000," doğumlu":9001," tutul":9002,"rupalı":9003," Ümit":9004," gazete":9005," anlaşmaya":9006," kaynakları":9007," istemiyor":9008," Tekin":9009," ödülü":9010," gayrimenkul":9011," Mert":9012,"parator":9013," yuvarlak":9014," Suçlarla":9015," Levent":9016," küfür":9017,"örfez":9018,"Düz":9019,"Dön":9020,"dinde":9021,"yolu":9022,"ıcılık":9023," kuz":9024," tüp":9025,"urta":9026," piy":9027," Kıs":9028," Sağ":9029,"ülüğ":9030," etken":9031," ani":9032," anket":9033," işten":9034," işsizlik":9035," açıklanan":9036," Nev":9037,"ack":9038," çektiği":9039," denize":9040," izlen":9041,"uluğunu":9042," davada":9043," vatandaşları":9044," öldürülen":9045," Esen":9046," İşlet":9047," kurtarma":9048," uygulanacak":9049," Uzun":9050," şüphelilerin":9051,"ucusu":9052," tabanc":9053," mekaniz":9054," santral":9055,"ustralya":9056," Tesisleri":9057,"Dış":9058,"Gül":9059,"POR":9060,"hu":9061,"hay":9062,"itif":9063,"sün":9064," tad":9065," çet":9066," görür":9067," Coş":9068,"luğunu":9069," Zey":9070,"ektaş":9071," izle":9072," vatandaşlara":9073," yardımıyla":9074,"larımızla":9075," isimlerin":9076," siyasal":9077,"vanya":9078," askerin":9079," ortağı":9080,"Onların":9081," borcu":9082," sitesinden":9083," görüntüler":9084," tehlike":9085," nitelendir":9086," müdürü":9087," sorgulama":9088," Kızılay":9089," kısım":9090," Münih":9091," Akif":9092," â":9093,"Nit":9094,"adikal":9095,"ganı":9096,"mos":9097,"yim":9098," satır":9099,"dıy":9100," deş":9101," meden":9102," çor":9103," çant":9104," ömür":9105," Malatya":9106,"inema":9107," etmedi":9108," anlama":9109," indi":9110,"rov":9111," Şeri":9112," gözük":9113," saati":9114," saatlik":9115," loj":9116," muhat":9117," konusundaki":9118," sunan":9119," barındır":9120," Berat":9121," muhaliflerin":9122," semt":9123," hatırlattı":9124," Camisi":9125,"İddiaya":9126," Hakkari":9127," aşamasında":9128,"'o":9129,"110":9130,"IFA":9131,"LA":9132," kli":9133," kül":9134,"alayan":9135," tap":9136,"iki":9137," Kob":9138," Eli":9139," kentin":9140," ettiğimiz":9141," yolun":9142," sayısında":9143," oynama":9144," verdim":9145,"ınızda":9146," avro":9147," şeklindeki":9148," ürünler":9149,"tığınız":9150," cidd":9151," sürecin":9152," müşteri":9153," kriter":9154," metrekare":9155," arayış":9156," hassasiyet":9157,"350":9158,"Bey":9159,"IA":9160,"Meclis":9161,"ice":9162,"kas":9163,"mes":9164,"wa":9165,"çileri":9166," yav":9167," sekiz":9168," toz":9169," eh":9170,"old":9171," Doç":9172,"dıran":9173," kala":9174," düzel":9175," bizden":9176," Avusturya":9177," askerler":9178,"Cumhurbaşkanlığı":9179,"Enerji":9180," soruya":9181," koltuk":9182,"Ordu":9183," masum":9184,"iğeri":9185," şüpheliler":9186," Hatay":9187," husus":9188," ideal":9189," mecbur":9190," Organize":9191," mutabakat":9192,"LU":9193,"YPG":9194,"ft":9195,"ksiyon":9196," biy":9197," subay":9198," ec":9199," Som":9200," Mir":9201," alar":9202," aranan":9203," bulaş":9204," nas":9205," Gıda":9206,"ezzin":9207," robot":9208,"osna":9209,"aracak":9210,"ğrı":9211," olas":9212,"ifor":9213," Özcan":9214," güçlerine":9215," Günlük":9216," ilçede":9217," değişti":9218," bunlardan":9219," verildiği":9220," Program":9221," Toplantı":9222," olabilecek":9223," karışık":9224," İngilizce":9225," uyarısı":9226," tabanca":9227,"Mardin":9228,"Saldırı":9229," alakalı":9230," nişan":9231," Polat":9232," Temsilcisi":9233," kökenli":9234,"-Ekonomi":9235,"In":9236," yel":9237," twe":9238," öy":9239," Do":9240," kongr":9241," kalır":9242," kalec":9243," Olimpiyat":9244," sordu":9245,"ach":9246," sözcüsü":9247,"190":9248," beklet":9249," basketbol":9250," şehri":9251," etkisini":9252," sebze":9253," programında":9254," savunan":9255," uygulamaları":9256," Bilim":9257," personeli":9258,"Hayır":9259,"luğun":9260,"luğunda":9261," protokol":9262," peşinde":9263,"Araç":9264," idman":9265," propaganda":9266,"eteoroloji":9267," utan":9268,"Ac":9269,"Bağ":9270,"DV":9271,"yası":9272," bez":9273,"lamaları":9274,"üneyt":9275,"ıllı":9276," birine":9277,"afak":9278," karbon":9279," etik":9280," cumartesi":9281," çıkmaya":9282," yönetici":9283," prov":9284," göstererek":9285," bekledi":9286," Akadem":9287," bakıyor":9288," şehrin":9289," yürüm":9290," girişiminde":9291," yaşadık":9292," üretilen":9293," artırmak":9294," bilinmeyen":9295," sarf":9296," olmuyor":9297," Tarih":9298," dışarıda":9299,"Adalet":9300," Birleşmiş":9301,"Ahmet":9302," ertelen":9303,"İLGİLİ":9304,"Eğitim":9305,"Kol":9306,"aması":9307,"ÜL":9308," kuy":9309," diyet":9310,"ılmak":9311," Ateş":9312," TFF":9313," yapmıştı":9314," Güler":9315," Emek":9316,"ezya":9317,"lenerek":9318," belge":9319," sürecek":9320," Roman":9321," giriyor":9322," doların":9323," ağz":9324," bırakan":9325," yönetiminde":9326,"üldüğü":9327," ülkelerine":9328," kentte":9329," edilebilir":9330," nereye":9331," hükümetinin":9332," Afgan":9333," ilişkisi":9334," Şampiyonası":9335," kaliteli":9336," oğlunun":9337," Fuarı":9338,"Şehidin":9339,"\"ne":9340,"Yal":9341,"iha":9342,"Çık":9343," od":9344,"api":9345," Mezar":9346,"tion":9347," YAP":9348," yaşta":9349," atlat":9350,"ivan":9351," tarihinden":9352," bakıldığında":9353," oynayacağı":9354," zorla":9355," çıkaran":9356,"emediği":9357,"halde":9358," kızın":9359," taşıdı":9360," abon":9361," nitelik":9362," şüphelinin":9363," bakanlık":9364," işletmeler":9365," ekibinin":9366,"Takım":9367," hırsız":9368,"Operasyonda":9369,"Yönetim":9370," randevu":9371,"Cin":9372,"Eki":9373,"Hen":9374,"Kad":9375,"Sağ":9376,"ÖK":9377,"larımı":9378," diyorum":9379,"diğimiz":9380,"öre":9381," Kad":9382,"eck":9383,"ilerinde":9384," gelmişti":9385,"omuz":9386," işsiz":9387," olanak":9388," kenti":9389," yüzünü":9390," milyona":9391," oynat":9392," Jam":9393," seçilen":9394," fiyatlarının":9395," Asayiş":9396," Koordin":9397," Adnan":9398," isteyenler":9399,"Konuş":9400,"Oyuncu":9401,"cılığa":9402," kıymet":9403," Android":9404," ihtiyacımız":9405," cüml":9406," mükemmel":9407," şartıyla":9408," redded":9409," lehine":9410,"Bit":9411,"Fir":9412,"ica":9413,"yat":9414," bet":9415," idi":9416,"asp":9417," mecli":9418," Adem":9419,"abb":9420," Sakarya":9421," Ger":9422," Gal":9423,"ileriyle":9424," geçtiğini":9425," bulunmak":9426," ekim":9427," kullanılması":9428," Ergen":9429," ülkesi":9430,"erseniz":9431," zamanlar":9432," yolsuzluk":9433," Artvin":9434," isyan":9435," bilgisini":9436," gittiğini":9437,"eğe":9438," projeleri":9439," değişen":9440," imzalan":9441," resmen":9442," piyasada":9443," edilemez":9444," İstiklal":9445,"İddianam":9446," iyileş":9447," etrafında":9448," Yapılan":9449," Alex":9450,"84":9451,"Belç":9452,"ilme":9453," dür":9454," meclis":9455,"ışması":9456," Sim":9457," MİL":9458,"olak":9459," Fa":9460," işleri":9461," katil":9462,"ife":9463," doğur":9464," altından":9465," bölgelerinde":9466," farklılık":9467," bitki":9468," ağırlıklı":9469," vurgulayarak":9470," merm":9471," kitabı":9472," yöntemi":9473," çerçevede":9474," kuşat":9475," iddianamede":9476," Ordusu":9477," kanattan":9478," Kocaeli":9479," güzerg":9480," AVM":9481," kaşığı":9482," aşı":9483,"OP":9484,"THY":9485,"Yağ":9486," böyl":9487," bisiklet":9488," becer":9489," dele":9490," Biden":9491,"isk":9492," Da":9493," Dar":9494," Haf":9495," yara":9496,"isti":9497," Rize":9498," varlığı":9499," eleb":9500," kullanma":9501," uyumlu":9502," uyandır":9503," örgütlerinin":9504," deney":9505," kanalı":9506," faci":9507," İlhan":9508," turu":9509," oluşturulan":9510," teşhis":9511," hastanın":9512," savaşın":9513," olabiliyor":9514," törenine":9515," sokakta":9516," cesaret":9517," çatışmada":9518,"SYK":9519," Tuğgeneral":9520," skandal":9521,"CİHAN":9522,"gili":9523," kör":9524," klasik":9525,"lağı":9526,"ates":9527," çirkin":9528," Kuş":9529," Seç":9530," Del":9531," Hoca":9532," Pakistan":9533," orman":9534,"ebe":9535," tarafı":9536," girmesi":9537,"çekmece":9538," evlat":9539," görevine":9540," Özkan":9541," ulaşmak":9542," millete":9543," dünyası":9544," paylaştığı":9545," Komitesi":9546," yaşadıklarını":9547," kaynaklı":9548," cevabını":9549," aradı":9550," Bilgi":9551," pozitif":9552," geçmişte":9553," uyarınca":9554," yöneticileri":9555," derecede":9556," vitamin":9557," büyüyen":9558," sipar":9559,"Bal":9560,"Ceza":9561,"Kent":9562,"NA":9563,"Sı":9564,"ain":9565,"lının":9566," gole":9567,"ladi":9568," dü":9569,"esun":9570," mimar":9571," TRT":9572," SGK":9573," Sabri":9574," yapısı":9575,"ecilik":9576," Hz":9577,"larınca":9578," geleni":9579," riba":9580," Pat":9581,"masız":9582," geçmesi":9583,"eceklerini":9584,"lamadan":9585," yönelt":9586," ters":9587," girerek":9588,"ifre":9589," tutun":9590,"ükspor":9591,"deres":9592," Zeki":9593," çıkardığı":9594," seçen":9595," köp":9596," ikamet":9597," oluşturdu":9598," çalışmaların":9599," ziyareti":9600,"Cumhurbaşkan":9601," öğrencilere":9602," perde":9603," devred":9604," kesintisi":9605," töreninde":9606," temizlik":9607," ilçesindeki":9608," vakıf":9609,"Dolar":9610,"Prof":9611," yöneticisi":9612,"İnsanlar":9613,"hats":9614,"Yetkil":9615," muhtemel":9616," şikâyet":9617," ırk":9618," Enstitüsü":9619,"Rak":9620,"ean":9621,"İz":9622," viz":9623," mon":9624,"ulur":9625," ödü":9626," yapının":9627," başlay":9628," konulan":9629," ayağı":9630," kalmak":9631," varil":9632,"iver":9633," gösterilen":9634," kendisinden":9635," beklem":9636," öldüğü":9637," kararlar":9638," duyduğu":9639," habere":9640," şeyleri":9641," Gazete":9642,"Arda":9643," gazetesinin":9644," War":9645," sunduğu":9646," başlattığı":9647," Marmar":9648," zorundayız":9649,"eynir":9650," dayanışma":9651," çapraz":9652," tüfek":9653," arayarak":9654," sergilen":9655," iyileştir":9656,"Önceki":9657," ikramiye":9658," yeterince":9659," Birleşik":9660," otopsi":9661," Brezilya":9662," Çaykur":9663,"onservis":9664,"dıyaman":9665,"Jan":9666,"Koç":9667,"hak":9668,"sar":9669,"udu":9670,"ws":9671,"çının":9672,"ğimi":9673," siber":9674,"üneli":9675," eb":9676," Hik":9677,"usi":9678," Cihan":9679," Celal":9680," Yolu":9681," kale":9682,"cular":9683," yönlü":9684," elb":9685," topa":9686,"mayacağız":9687,"anlığa":9688," ast":9689," çekici":9690," bekley":9691," bağlam":9692," ürünü":9693," yetmez":9694," okuma":9695," konuşuyor":9696," milletimizin":9697," tabur":9698,"140":9699," hizmetleri":9700," sınırları":9701,"Bursaspor":9702," oluşum":9703,"umuzun":9704," Engin":9705," gruplar":9706,"Kardeş":9707," ilişkilerin":9708," koleksiyon":9709,"unuzu":9710,"ograf":9711," raporda":9712," zararlı":9713," haftalık":9714," talebinde":9715," haml":9716,"LARI":9717," çabuk":9718,"Kimse":9719," gündemde":9720,"Kayseri":9721,"Başkanlık":9722," fonksiyon":9723," restoran":9724,"Yoksa":9725," katılımıyla":9726,"'sı":9727,"Aşk":9728,"Bunları":9729,"Grup":9730,"Kurt":9731,"has":9732,"liyorum":9733,"ülasyon":9734,"ğındaki":9735,"dao":9736," muk":9737," Saf":9738," Güç":9739," Eki":9740," Pen":9741," biliyorum":9742," gündüz":9743,"ihayet":9744," taksit":9745," Ersoy":9746," ust":9747," uzay":9748," konular":9749," kaldırıldığı":9750," beraat":9751," manevi":9752,"Asker":9753," dizinin":9754," sindir":9755,"üleb":9756,"DAEŞ":9757," Basın":9758," görüntülen":9759,"-lacivertli":9760,"MSF":9761," sıvı":9762,"Bas":9763,"Baba":9764,"Fark":9765,"Keş":9766,"Kürt":9767," baraj":9768," bonservis":9769," çıl":9770," Kerry":9771," buy":9772," verirken":9773," zev":9774," zaf":9775," Yorumu":9776," Pan":9777," Pas":9778," Ana":9779,"üyoruz":9780," emanet":9781," Cumhuriyetçi":9782," bankalar":9783," biliniyor":9784," Martin":9785," şidde":9786,"ijer":9787," istedik":9788,"ESİ":9789,"melidir":9790,"meliyiz":9791," şikayetçi":9792," kuzeyinde":9793," ordusu":9794,"tekin":9795," bebeğin":9796," Üssü":9797," seferber":9798,"'\n":9799," salı":9800," ikil":9801,"emler":9802," olmanın":9803," Kas":9804," arındır":9805," başlaya":9806," bulduğu":9807," olduğunda":9808,"letico":9809,"leşmiş":9810," Nihat":9811,"ğretmen":9812," kapatı":9813," ifadelerine":9814,"gulama":9815," saatlerinden":9816,"ılacağını":9817,"leştirme":9818," görüşmeleri":9819,"emizde":9820," oluşturan":9821," seslendir":9822," Kanal":9823,"İLER":9824," prens":9825," boşalt":9826," ihrac":9827," niteli":9828," cesed":9829," tedbirler":9830," vadede":9831," Bürosu":9832," Turkcell":9833,"Yunanistan":9834,"Diz":9835,"Un":9836,"tor":9837,"tosu":9838,"İm":9839," sö":9840," vel":9841," doy":9842," disiplin":9843," Sabah":9844," Mit":9845," Galaxy":9846,"avan":9847," vermeden":9848,"likten":9849," Yazı":9850," elindeki":9851," asit":9852,"acağına":9853," Karar":9854," tabut":9855," etmez":9856," hepimiz":9857," havadan":9858," anlamı":9859," yoğunlaş":9860," oranının":9861,"lüğüne":9862," Adil":9863," duyurusunda":9864," inanılmaz":9865," ülkedeki":9866," emniyetteki":9867," içeride":9868," kupa":9869," Harekat":9870," David":9871," Ağbal":9872,"\"ü":9873,"AF":9874,"Din":9875,"Ter":9876,"US":9877,"Val":9878,"au":9879,"siyet":9880,"incisi":9881," van":9882,"emem":9883," Biz":9884,"ışın":9885," Th":9886," Katar":9887," bilmiyor":9888,"ıyordu":9889,"ölge":9890," kullanıldığı":9891," girmiş":9892," Erdal":9893," göze":9894," Ju":9895," güçlük":9896," havalandır":9897," kazandığı":9898," düşünen":9899," genelde":9900," aldığımız":9901,"duktan":9902," kurumsal":9903," uçaklarının":9904," taziye":9905," yapılacağı":9906," kampanyası":9907," Abdul":9908," kısmını":9909," İdman":9910," Yanal":9911,"'ler":9912,"Yabancı":9913,"calan":9914,"hid":9915,"Çağ":9916,"ino":9917," br":9918,"irse":9919,"lary":9920,"elçi":9921,"lit":9922,"imini":9923,"abank":9924," SABAH":9925," etmiştir":9926," verip":9927," Pol":9928," yaşay":9929," yaşıyoruz":9930," terörü":9931," Ve":9932,"iciler":9933," örneği":9934," bölgeler":9935," İspanyol":9936,"küdar":9937," düşünmüyor":9938," sezonu":9939," turnuv":9940," halkına":9941," ülkelerinin":9942," çalışmalara":9943," üreten":9944," buradaki":9945," edecektir":9946," kuruluşları":9947,"FAD":9948," başlaması":9949," yansıdı":9950,"Hemen":9951," tutuklanarak":9952," özellikleri":9953,"SİAD":9954," gözyaşı":9955," Akıncı":9956," mühimmat":9957," referandum":9958,"-H":9959,"-ma":9960,"keli":9961," sus":9962," satan":9963," gib":9964,"ektif":9965," gördüğünü":9966," Yer":9967," Podolski":9968," açılacak":9969," çıkmıştı":9970," yerlere":9971," infaz":9972,"hael":9973,"imizle":9974," binası":9975,"mayacağını":9976," dolardan":9977," bizler":9978," yazan":9979," eseri":9980," parça":9981," hayatın":9982," bırakıp":9983," değerlendirme":9984," sezonda":9985,"ümüzü":9986," ağırlık":9987," direkt":9988," etkileri":9989," istedim":9990,"sinler":9991," Kongre":9992," yaralandığı":9993," adamları":9994," ürünlerin":9995,"ğimde":9996," ölümü":9997,"Olayın":9998," miktarı":9999}