#version: 0.2
  क
  स
  म
  ह
  प
। 

ा र
े ं
न े
 क े
  ब
् र
य ा
 म ें
 ह ै
  ज
  द
  र
  ल
 क ी
ो ं
  अ
  व
  ग
र ्
 क ो
  न
ा न
 स े
 क ि
त ा
  ने
  आ
 क ा
 क र
  भ
ा ल
 प र
  त
न ा
ि क
् य
ि ल
  श
  उ
  औ
स ्
 औ र
  च
क ्
  थ
ा ं
 प ्र
  ए
इ स
ा म
ह ी
ि या
 ह ो
व ा
ि त
क े
ह ा
ल ा
क र
ल े
 है ं
 ब ा
ि य
ि स
ड ़
ि ए
ु र
 भ ी
 ज ा
ं ग
  ख
त े
  फ
त ्र
र ा
े श
 स ्
 व ि
  य
र ी
ि न
ार ी
त ी
ही ं
 र ा
 ह ु
ु ल
ट ी
 कि या
् या
स ी
न ी
व ार
ग ा
त ि
स े
 स ा
 ल िए
  ड
ं द
न ्
  इ
 ग या
 थ ा
 ए क
क् ष
 प ह
 स ं
ो ग
 ल े
 न हीं
 स म
 र ह
ा य
 द े
  इस
 न ि
क ा
िल ा
  घ
 क ार
  ट
 अ प
ल ी
क ी
 ह ी
िय ों
 बा द
भ ा
त ्
ार ्
प ी
 स ि
 म ु
म ा
ं ड
ा स
ि र
ुल िस
 ग ई
न् ह
ग ी
 क हा
 सा थ
स ा
 कर ने
ट र
र ो
र े
 क ु
द ी
 प ू
 ब ता
ं च
 रह े
 थ ी
 द िया
्र ी
 त ो
 अ ध
 व ाल
म ी
 स ु
क ार
ान ा
्र े
प ुर
व ि
2 0
 ल ोग
ौ र
स् ट
ज ी
 स ी
ज ा
ल ्
 त क
 र हा
द ा
म ें
 द ो
  छ
 प ुलिस
व ी
भ ी
ग े
द ेश
ह र
 अ न
ष ्
 द ी
 हु ए
 म ह
 ल ा
 बता या
 म िल
 च ु
ग र
ि श
 रा ज
ं ह
  ध
क ि
 र ही
 उ न
 थ े
 उ स
ं त्र
् त
ब ा
् ष
. 

ान ी
ह ां
ट े
  या
 म ौ
ज न
 ब ार
ा ई
श न
ओ ं
ों ने
ज े
ा ह
ब र
ि व
ढ ़
 सि ंह
प ा
न्ह ोंने
स् थ
  (
 ल गा
 ग ए
 ब ी
म ार
र् ट
व े
ु प
 जा ए
 पह ु
स् त
ि ंग
 पहु ंच
द ्
 ले कर
 स र
द ्र
 द िन
् म
च ्
 ब े
 ब ना
 म ो
 स् थ
 ज ो
न ों
 अध िक
ै ं
 पह ले
ा ज
क िन
 हु ई
क ्र
 लोग ों
 अप ने
ंत्र ी
े ल
 आ रो
श ्
 म ाम
ो ज
 म े
 द ौर
ो क
व र
 स ाल
ख ा
र् म
 य ह
ट ा
 हो ने
ं ध
 कार ्य
 स क
 वाल े
इस के
 दौर ान
ां च
त र
 भ ार
  टी
 क ्ष
 पर ि
ड ी
म ान
 स ो
 ज ी
व ाल
 हु आ
ब ी
ना व
 प ा
 ग ां
 प ी
  ओ
इ न
क ो
 द र्
 स ाम
 त र
ध ान
प ्र
्रे स
 व र्
 नि र्
 ज ान
 बा त
े त्र
ड़ ी
ए म
 ज िस
ू ल
क ारी
म े
 कर ते
 र ुप
र् व
ा प
ट ना
च् च
ू र
व ं
स र
 श ुर
ें द्र
 म ां
ष् ट
 कु मार
ि प
 क्ष ेत्र
 श ाम
ड़ ा
 घ र
 ब ि
 उ प
ए स
 ह म
1 0
उ न्होंने
 सर कार
ो ट
 श िक
ं प
क ों
् स
स् प
े ट
 आ य
ू न
 का म
क्ष ा
 र ू
  ऑ
20 2
ी न
 चु नाव
क् त
 य ु
 ल िया
 ब ै
ो र
् ल
ो ल
 व ह
 म ा
वा ई
 द ्
क् ट
ज ार
 ज ब
 प ार्
 अ ं
 क म
क् टर
वार ा
 प ास
स भा
 ले किन
ि ता
ि म
 क ह
भा ग
 क ै
 अन ु
ू स
च ार
 ड ॉ
 च ल
ा इ
 आ प
 मह िला
 स भी
न्ह ें
 द ु
ें गे
 प्र ति
 क ई
 ज ु
 कु छ
 स ब
श ी
 क ॉ
प र
 थ ाना
िक ा
 ग िर
ि ट
 गां व
 को ई
 द् वारा
ब ंध
्य क्ष
 अ ब
 र ो
 स ह
 व ्य
 न ाम
 टी म
ार ा
 च ौ
 शुर ू
र् स
ता ल
म ्
 ख िला
 दे ख
 सम य
ख ्य
द् ध
 भ ा
 अप नी
ै न
्य ू
  झ
 न िक
ण ा
 ह र
  ऐ
 ब ह
य र
 माम ले
 ग ्र
 ज न
म ु
ृ त
 दर् ज
 ब जे
 ल ग
 स् ट
य े
 स ू
च ा
 रुप ए
म ंत्री
 च ाह
 ट ्र
िल ्
ी ड
ज िस
 व िक
 ब च्च
 ह ि
ज र
 भार त
 उन के
ं बर
 आरो प
 इ ं
 रू प
य ह
 र ख
 तर ह
िल े
फ ्त
आ ई
्य ों
 अ व
 व े
ड़ े
ाय त
 वि भाग
 अ भ
  ठ
 न ा
  ता
 म ै
 बी च
 उ न्हें
 ह ा
 ब ु
द ार
 ग ो
ज ू
क् स
 य े
व न
 ज ांच
 का ंग
 शाम िल
व हीं
े ज
त ्या
 ला ख
 कि सी
 ब ढ़
ं ट
 स्थ ित
च ना
ल य
प ुलिस
ो र्ट
 द ि
 ए वं
ज ्
 ड ि
 कांग ्रेस
 आ ई
 द ेश
 ब न
ए ं
 स् क
 ज िला
 र ाम
स्प ताल
 हो गा
 कर ा
 जाए गा
 इ न
ाल ी
प ू
ाल ा
 प ै
 उ न्होंने
 कि ए
 ग ु
  '
र् ड
 अ ग
 यु व
व ान
रा ज
ी ब
प ्
वा सी
द ान
ब ह
क्र म
 त ै
 खिला फ
  "
ेश न
 ब द
्या दा
 ज ारी
ज ब
 प्र देश
 कार ण
ुर ु
 जा ने
ज य
ें ट
 ख ु
ध ार
 अ स्पताल
ां स
िया ं
न ि
ह ार
 प ु
 मु ख्य
 दो नों
 इ ला
फ ी
ह त
ध ी
ह ाल
 या द
उ स
 न गर
 अन ्य
 ए स
क् ति
द े
स ार
 छ ा
 ल ोक
र् थ
 जान कारी
 पार् टी
 सी ट
 स ुर
 वाल ी
ंद िर
 आरो पी
 ने ता
प ाल
 ज ्यादा
ती य
 उ से
स ान
त्र ा
ल ो
 ओ र
 आ ए
 कर ना
 जा ता
्या लय
 बै ठ
्र वाई
 अध ्यक्ष
ो ड़
 स द
5 0
 उस के
 र े
ु त
ल ग
 म ान
 आ ज
 उ त्
 घ टना
ड़ ी
 ज िले
िन ्
ाम ी
 ब ो
 न ी
 मौ त
 कार ्रवाई
 म ार
 फ िल
फ्त ार
 द ूस
 रा त
 ह जार
 वर् ष
ग त
 ल ी
ह म
 म ंत्री
 साम ने
 कर ीब
? 

क ान
 परि वार
 पू र्व
 ल ि
ध िक
1 2
 भ ाज
्री य
र् मा
 श ु
 दे ने
ं स
 भाज पा
 मां ग
3 0
ि छ
ब ्
वा स
 म ंदिर
 श ा
 फ िर
श े
 नि वासी
ड़ ा
िय ो
स म
ग ्
 उन की
 त ीन
 आ द
ो न
1 9
ं त
 याद व
 म ार्
ो ष
भा व
ू म
 मौ के
ाय ल
जू द
. .
ध ्य
 द िए
े त
 स्क ूल
 व ो
 च ला
 राज ्य
त ार
 फ ै
 ज ै
 सब से
 पहुंच े
ू ं
 हो गी
 शिक ्ष
ार ियों
आ र
 प ानी
 आ या
उ न
स्थ ा
ं ब
 ज ग
र ाम
ंग ल
 वि ध
 फिल ्म
 ज र
 प्र श
व ल
 आ ने
 तै य
ठ ा
िल् ली
 सु बह
  ई
ास न
 श हर
द र्
ंद र
इ क
 बार िश
 म हा
क ु
 अधिक ारी
र् ण
 य हां
 अनु सार
 रह ने
 मिल ी
ह न
ध ा
 क ्र
1 5
 शिक ायत
बा द
 श ्री
 युव क
वा द
ोज ना
 गिर फ्तार
 प ो
 ड ी
ले किन
 सक ता
क र्
 श र्मा
श् व
 चाह िए
ं ज
ाय र
ाय क
र ण
िय र
में ट
च् छ
त् व
्र ा
ें स
ज् ञ
ंग े
स ल
 क ्या
 द ा
 क ंप
 बा हर
ू ट
 म त
् ड
िछ ले
य ोग
 प द
 सं बंध
श ा
 मो दी
 प्र ा
 मिल े
ि ज
 अ म
 सू चना
 आ र
1 1
 म ैं
ो ध
ं क
र् फ
 म न
ला ई
 ग ा
िय म
20 1
 पू री
 म िला
थ ा
 ब ंद
स्थ ान
 क प
 रा ष्ट
द ्य
 कार्य क्रम
 प त्
 श व
ो जन
 श े
 ख ा
िप ोर्ट
0 0
 प्र ो
ख ्या
िश ्
 कर ें
 सह ित
 क र्म
 को र्ट
भ ार
च ान
 जाए गी
 च े
 ऑ फ
द ो
 म ी
ां ड
ग ्र
म ो
मा ण
 स् व
ां कि
 अ ला
मे र
 म ही
 अप ना
ता ब
 भार तीय
 का फी
 द िल्ली
य पुर
 श िव
म् मी
ी क्षा
त् म
 वि धान
 आ गे
 त ी
ग म
ए क
 हो ता
 जी त
व री
 ट ्रे
ट ्
 सद स
ब े
ु क्त
ु क
अ ब
 उस की
द न
ल ों
 त हत
 माम ला
रा ब
 मौ जूद
 रो ड
 बह ुत
 विक ास
 लोक सभा
ें द
इस में
च ी
स ि
ग ्री
 क ेंद्र
े म
 बार े
 स् वा
 इ ंड
 च ार
क्ष ण
 सक ते
ज ह
 सम ाज
म्मी द
 ट े
इ ल
 निर् देश
 स फ
 अला वा
ं टे
 य ू
 व्य व
 कि सान
त िक
 ह त्या
स् क
हाल ांकि
त म
 कर ोड़
2 5
 य ोजना
 स ंग
ग ढ़
 क ्यों
 र िपोर्ट
 जग ह
दर् शन
ड़ े
य हां
 ग ुरु
 प े
सा थ
 सु न
 कह ना
इस ी
ंग ा
 विधान सभा
फ ्
 म ीड
 उ म्मीद
ो री
ख ंड
 सं ख्या
 छ ो
म िक
 ब स
क ाल
 छा त्र
 व जह
 अ लग
ले ज
 प ता
शे ष
ता ओं
 बच्च ों
ें ड
 दिन ों
 व ाह
 बा इक
 ह ाल
च ित
 मीड िया
इस से
ु आ
ार् थ
 व ीड
ामी ण
झ े
 प्र धान
जे पी
 व हां
 स् प
 कर ता
 मु ताब
 ल गे
ां ग
श ल
 फ ी
 तर फ
स् ता
 मुताब िक
 कर ेंगे
 प िता
 आ ग
 हो ती
 घ ायल
ो ह
ण ी
 भा ग
च ाल
 ज हां
ै ल
जन ों
 विध ायक
क् शन
 व्य क्ति
 आ धार
 व ा
 ड े
 मही ने
त न
 पो स्ट
 वीड ियो
 र वि
ॉ ल
घ टना
 व ोट
 सुर क्षा
 क ुल
 पहुंच ी
 ह ों
a n
 बना ने
व र्
िया णा
 पत् नी
य ू
 घ ंटे
 प ुर
ड़ क
 पर ीक्षा
 प ढ़
श ि
 प ं
 पू छ
 ब ां
 कर वा
 ए न
प ति
र् य
 न ंबर
म वार
 हा थ
ित ि
 प ंच
 प क
 भ ग
 फ र
 आय ोजन
स ू
ज ़
 न जर
 ब ्र
र् चा
 प्र भ
द र
 स ांस
ब ल
1 4
ल िए
् ला
 ग ं
व ेश
 पू रा
 भ र
2 4
 प त्र
 शा दी
 भ ाई
 इस के
 था ने
च े
द ्यालय
स ु
 र न
 प्र त
 अधिक ारियों
 दि ख
 प्रश ासन
ंद ्र
- अ
 सा ह
 मुख्य मंत्री
 स च
 स र्
 दूस रे
 आ स
 क ृ
 द िव
 निर् माण
िक ल
 दु कान
 सक ती
 अ भी
म त
 सम ्म
 प िछले
ार े
 लगा या
 त ेज
  ढ
 तैय ार
 मिल ने
ा ने
भी र
 ए म
 ख ेल
 घ ोष
 बि ज
 वि शेष
वी र
 य ोग
 जिस में
 कंप नी
 वाल ा
 म ंड
स् ते
 न ्या
ंगल वार
1 8
 कॉ लेज
इ ट
 लगा तार
  S
ी य
 बैठ क
 ज ल
री ज
 क ल
 ह ूं
 व ै
ार् ट
 र ेल
ार् ड
 करा या
ैं क
ि स्ट
1 3
 स ौ
 ज ून
 से वा
 ल ड़
मी न
 दे ते
िय न
व ह
 डि ग्री
 आ म
 आरोप ियों
  ऊ
भ ग
 सांस द
श त
1 6
ोज ित
ज ु
 के स
 उ ठा
कर ण
- प
 भ े
 हि स्
 गं भीर
 ए क्स
 क ान
 बना या
 श ्र
 उन का
 जै से
या न
 ल ाल
 अ र
ऐ से
 म ाल
 पू रे
 आद ि
स्त ान
ध वार
 कर े
क्र वार
ल् ड
 ग र्
ष् ण
 गां धी
  -
स ं
 सम झ
ष् ठ
ब ता
ना थ
 व्यव स्था
 प्र दर्शन
 जा ती
 नि गम
 ल गी
 ज े
 डॉ क्टर
1 7
स् या
 ब ड़ी
 ख ान
 मै च
ै ंड
ू री
िया न
 म ाह
 वि श्व
 ह ाई
 रुप ये
न र
श ु
ंद ी
जा ब
ि टी
 ब ढ़
 ब ॉ
 भ र्
 न र
न िया
 व ाप
 ड ्र
 आय ोजित
  C
मु ख
का श
प मान
 प्र या
 सं चाल
फ र
 वि रो
ह ुल
 इला ज
म ह
 पह ली
 ह े
 सम ेत
 बी जेपी
िल ी
 प्रभ ारी
ड ा
 पर ेश
 पह चान
 प क्ष
 ग्र ामीण
ां त
म र
 प ांच
ाप ्त
 ख े
 ले ने
दी प
म ैं
न् न
ि रा
 व ्या
 द ें
ल ाल
 ता पमान
 भर् ती
 सदस ्य
आ रो
 स्थ ान
बंध न
 प ड़
ष ण
 पू जा
द ारी
 हो ते
 अ च्छ
 अ फ
 ब ाल
 आ देश
 ख री
िन् न
 भग वान
 म द
 म ना
 राज नी
 स्थित ि
 शिक्ष ा
ध ्यक्ष
20 0
 हो कर
जी त
 खु द
ि ंद
 उस ने
 बना ए
न् द्र
प ास
ह रा
 मे ड
वा ब
ए न
 ऐ सा
 ज ेल
 न ौ
ै क
 साम ान
 स ित
 चल ते
पू र्ण
त्र ी
ब ार
प हर
 र खा
 ए क्ट
 म ृत
 थी ं
 र ोक
 ट्रे न
भ िन्न
 ज ल्
 द र
 ग ठ
 चु के
 भ ेज
 न ए
 ज मीन
 ब ज
 जु लाई
 सो मवार
व त
 कर के
ू र्
 प ति
स् ती
 क ले
 अ ति
स्थ ्य
 सी एम
ू प
र् च
ू त
 प्रति शत
वा ह
 बिज ली
 फ ोन
 बे ह
 ब ल्
 त ब
 च ाल
 या त्रा
 ऐ से
फ ा
 ब ने
 मद द
 इस े
 त स्
ष द
 न ार
र ि
श ्य
 बा जार
बा इल
 बे टे
 हम ला
ट न
 त था
 जन ता
 च र्चा
 हों गे
ए ल
 अव सर
2 2
 शुर ुआ
 अग स्त
धिक ारी
 ग ै
 सम स्या
 स वाल
 जब कि
 पी छ
 ज िन
 चु की
 बच्च े
 श नि
 च ोरी
 सं प
 प्रया स
्र म
 वि भिन्न
 म ंगलवार
ानी य
 प ेश
म न
  A
 दे र
् ले
वे दन
 अभ ियान
े क
 फै स
क्ष क
 दे व
पी ट
ठ ी
 ब यान
 त ला
ध ि
 उस का
 द ल
 स ड़क
 स के
 प ार
 जा ते
र् क
 सर कारी
ल् प
 पहुंच ा
4 0
ग ंज
 न िय
 न ई
 बे टी
 फ ा
 ह मार
र िक
अ प
 प्रधान मंत्री
ज ाम
 य ून
 कर ती
 प ाल
 विरो ध
म ौ
 सच िव
म ाल
 सम्म ान
ब ू
a r
 म ि
 दे खा
च र
 र िक
 बि हार
ू बर
ै ध
 अ र्
 प्र मुख
 व ित
ह ित
म ाम
 ल ॉ
 दि खा
 ज ्
 ब ल
 ब चा
 उम्मीद वार
 ब ैंक
 वाह न
 राष्ट ्रीय
 म िन
 म िश
 स वार
 मु झे
आ ज
ज ान
 प्र े
कर ी
  P
 मा ध्य
 च ी
 मो बाइल
 अप रा
ग ढ़
 स् तर
ां व
 स्वा स्थ्य
ो पाल
 बु धवार
 मह त्व
श िश
 इला के
 ब र
 यु वा
 द ूर
 वि वाद
 वाप स
 सम िति
हा य
 महिला ओं
के श
ट क
 सि र्फ
 व न
 उ म
 इस की
 दे वी
 ज ैन
ा क
जिस के
त ना
 अ ल
शन ल
 व ी
 भ ूम
प क्ष
्या न
 जिस से
 ग्र ाम
 द िस
ंद ौर
एस पी
 रवि वार
 ल ौ
 शु क्रवार
 रा शि
पुर ा
 शनि वार
 कार्य कर्
न गर
 अ गर
ू ड
 ज य
 सो शल
 ब राम
ट ्र
 को शिश
ध र
 अ ंदर
क्ट ूबर
 लग भग
ं का
र् ग
 रा हुल
 दो पहर
 म ई
ए च
 वाल ों
ं भ
ब ि
 प्र भाव
वी ं
स् टर
 शे यर
 पंच ायत
 इं टर
 बराम द
क् कर
 सम र्थ
 म ध्य
मा श
ह री
 निक ल
ट ल
 अव ैध
 सित ंबर
 पु त्र
उ ंड
स ो
 जी वन
कार ्य
ल् स
 गुरु वार
र िया
 कह ते
ौ न
 परि जनों
श् च
 सं घ
रा त
ज हां
ा त
 चु का
जिस में
द से
ॉ प
ाल य
भ र
इ ड
2 1
 राज स्थान
दे व
 कर ो
 दे कर
 जर ूर
ता छ
ष ा
त ृ
 जल् द
 ब ड़ा
 श राब
ग ल
 ह ॉ
 अ क्टूबर
 सं त
 स ें
 मार् ग
 रेल वे
प ह
वं बर
 संग ठ
 पीछ े
ध री
 इंड िया
 म ंत्र
ए फ
 लि खा
दो नों
  N
 शुरुआ त
थ ि
ेंद ्रीय
ॉ र्ड
 कार ्यालय
ज ल
कि ंग
 ए ड
 ज म
िक ्ष
 ग ल
ती स
य न
  B
 सं भाव
 ध र्म
कि स्तान
भार त
 ट िक
 राष्ट ्र
 दिस ंबर
ैं प
2 3
 त ौर
सा द
ड़ क
 द ौ
 मु ख
 अभ ि
स्थ ित
ल ोग
ि वार
 जाए ंगे
प क
 ज ाना
ब ाल
 क्यों कि
 इस का
ो स
वि धा
 रा य
च ारी
 न वंबर
 अ मेर
 देख ने
 न ोट
िल ों
 मार पीट
2 6
 ग ुप
ला इन
 वि जय
10 0
 मिन ट
 र ि
 प्र ाप्त
ख न
ल र
 चौ धरी
र् जी
क त
ज ो
् ता
ंद ा
ख िल
 कि लो
 ब ड़े
टे ड
टे ल
i n
स व
िस र
प्र देश
 उप ल
 दूस री
 क ट
म ारी
 ल क्ष
िम ्म
प ्री
प ोर्ट
 म जब
ुर ा
फ ़
 प ्ल
 नेता ओं
ध न
 किसान ों
 स्ट ेशन
 माध्य म
 प्र त्या
 क र्
स् व
वि द्यालय
फ े
 र ु
 ब ्ल
 स हाय
ां क
ौ ल
स त
 मेड िकल
 के वल
 हो ना
 ज वाब
 न ियम
ंड ी
 बढ़ ा
 मे रे
a t
 अं तर
क ल
 लगा ए
म ृत
 मत दान
 ती स
व ित
िट ल
न ो
के ट
्य ो
 ध म
.. .

 व ार
 अप ्र
 स ंद
 ध ्यान
क ृ
 ग ण
र् या
िक ेट
 इस ी
 आस पास
 मा ता
2 8
व ो
 ए यर
र् ष
 पं जाब
 भ ारी
य ु
ग ू
द ाय
िश ा
भ व
 अं त
 त े
घ ा
छ ा
म ार्ट
 बद ल
 र ज
 निक ाल
क ांग
 मु द्
 ला इन
क्र िया
 ड ाल
  I
 स्थ ानीय
 श ाह
ज री
 ब नी
 करा ने
 स र्व
 सं य
त् ता
 ज न्
 सु विधा
 उत् तर
 म रीज
 न दी
-अ लग
 क भी
 लि ख
 मार् च
 मौ सम
ध ियों
 बद माश
2 7
 श ो
िय ार
 हि ंद
 ला भ
 आ वेदन
 हर ियाणा
ॉ क
 बि ना
द ि
 स प्
 ज यपुर
को र्ट
 टिक ट
 जिस के
िप ्
 छ ोड़
 हमार े
 स ां
 देख ते
ि री
ड े
 फर ार
 करो ड़
जब कि
 सीट ों
कांग ्रेस
 प दा
फ् ट
 प्र क्रिया
त री
ज्ञ ान
 उपल ब्
  M
 प ्ले
 बद ला
चार ियों
ं कर
फ िल
 ज मा
क्ष ित
ि ग
 अग ्र
 भे जा
 प्र साद
ंब ई
 सफ ल
तृ त्व
 क ्
 कै से
 संबंध ित
 उ द्
त् तीस
 पूछ ताछ
 ज िलों
 र ोज
 संभाव ना
ू क
 ए ज
 जन वरी
अ सल
 ह टा
 नि री
द ु
्र ोल
उस के
  R
ें सी
िम्म े
 त य
 फी स
 एक्स प
 ख बर
 सह योग
 ल ो
 ट्र ै
o n
 विक ेट
 अ हम
 ने तृत्व
 आ व
 रख ने
ज ों
 च ले
कार्य क्रम
 ध न
 बो र्ड
 पढ़ ें
अ गर
च ु
ृ ह
 कर्म चारी
 परेश ान
का ब
) ,
 श ि
ज द
 स ै
 गो ली
ना त
ध े
जी व
ट ो
स् ल
 नि श
ल ोक
 उ र्फ
 हिस् सा
िय ल
 लगा ने
 तैय ारी
 ह ास
त ों
य ों
घ र
फ िर
झ ा
 दा वा
 कले क्टर
 च ि
 तला श
 क ब्
ित ्
 जा कर
 की मत
 नी चे
न ियर
व ्य
ु ओं
 वि द्य
ला देश
ग ांव
 बो ले
 प्रत्या शी
चार ्य
 श्र द्ध
मु ख्य
 दु र्
आरो पी
 व ार्ड
हर ियाणा
- क
 आय ोग
उन के
द ूस
ग ु
 छात्र ों
 नर ेंद्र
ड़ ित
 इस लिए
 गुप ्ता
ड ्
 फैस ला
 ना गर
िन् ह
 ब च
 हास िल
 स जा
 फ ोट
ाम ा
आ प
 आप को
ू ब
लो नी
 छा त्रा
ष ्य
ॉ र्म
 मंड ल
 घ ु
 क ्ल
ष्ट ्र
  ।

2 9
 ज िम्मे
 व ायर
 ख ास
 वि देश
च न
 ग ति
 रह ते
स्ते माल
 ज ता
रा ह
 व क्त
 इ स्तेमाल
 पी एम
ाप न
 अप्र ैल
 क ेंद्रीय
क म
ी ल
 र ंग
 त री
 कर्म चारियों
 इस से
 बल् कि
 न्या य
 च िक
 ओ वर
 ज ़
e r
क िस
 च रण
 रहे गा
 स्थ ाप
 पा किस्तान
 टे स्ट
ां ति
िय ोग
ल ू
 प्र कार
ग् लादेश
ती श
ह ान
 ख ो
 वर् ग
ष ि
द म
 भा व
कु छ
 भ वन
िन ि
वाल ी
न ु
 र िश्
त् ति
 त त्
 ड ाय
ार ोह
ची त
दर असल
ब ्ल
  D
श् वास
3 5
ी क
 व्या प
त रा
् मी
क् ता
 सम ारोह
ज पा
 बु ला
ंग ी
द ों
ार खंड
ट ने
व ें
िश न
थ मिक
 सु नी
ाय ण
 ज् ञ
 बन ने
ख ी
 सं जय
 पा ए
स ुर
 ल ड़
 गर् मी
 र ण
 सा इ
 च ंद्र
 सा फ
 पर िसर
श्य क
 म कान
 ह थ
 प ेट
 ट क्कर
ग ार
बा जी
 मान स
 घोष णा
 मै दान
 ग ौ
 कर ाई
 हाल त
 म ॉ
 ख त्म
 ग ाय
 दिव स
 महत्व पूर्ण
ब ै
ैन िक
 चौ क
 इ ंदौर
 संगठ न
फ िक
 क ला
 बात चीत
 ह में
न ौ
 शु भ
 ब ंग
वा ही
 दु निया
खन ऊ
 म श
 चाल क
ड ्ड
 ग िरा
 कार ्ड
 दो स्त
े य
 आ श
ति म
 ह ार
मह िला
त नी
ाइ म
 म ाना
ंड ा
 सी मा
 रिक ॉर्ड
 पू र्ण
म ता
 न व
 त ि
 न्या या
ं सा
स भी
 प्र काश
भा जपा
 पै से
 राजनी तिक
 फ ायर
ेश ्
 एस पी
 मिल कर
 घोष ित
ल िया
द ाल
प िछले
इस लिए
 सि र
 न या
 च ा
हा स
द्य ोग
 गठ बंधन
 स त
 स ड़क
ख े
 आव श्यक
 भ ोपाल
 कि स
मी टर
 स् वी
 ठ ीक
 या नी
4 5
 ऊ पर
ब ु
 व हीं
मे टी
 म ूल
 व ृ
्रे ट
जान कारी
a l
 द िल
 आ वा
 त ्र
 फ ु
 उपलब् ध
 उप स्थित
 ऐ सी
वि धान
 ट्र ांस
 ड्र ाइ
प न
 मु काब
 खु ला
श ्री
ष ेक
वि ंद
 वि चार
 प श्च
 सें टर
 जर िए
 नागर िक
ूड ेंट
3 1
न िक
र ों
 भ ु
 पा या
 प्रा थमिक
6 0
 क मी
 घ ा
ठ क
 लगा ई
 ता कि
 मु क
 सद र
 खरी द
ड ल
 द ू
ित ्य
 मी टर
त ियों
 श ी
 अ श
चान क
 जन् म
 अग ले
 आ ख
 वर्ष ीय
 उ द
द्ध ि
 ख राब
 नि जी
मी र
त ु
र ल
ो त्
स् कार
रा य
 ध ारा
ुल ्
 राज ्यों
 प ांड
 ब ोल
सी टी
 तस् वीर
 र ै
ं ता
 प ल
स् कर
 सि टी
 चाह ते
व ाना
 अं क
 क हीं
 मो ह
 समर्थ न
क र्म
 दर् शन
 आ न
 ए ल
 वि द्यालय
 सम ु
ब ोध
व जूद
 प्र स्त
 क्षेत्र ों
 दे ना
 धम की
 प ड़ा
 सम ा
च िका
 मो हन
 कॉ न्
 फोट ो
च ल
ै या
 द िला
 ला गू
इन में
 सदस ्यों
 मु ला
 मु ंबई
 अम ित
7 0
 वायर ल
 प्र स्ता
 प्र वेश
 आ ते
 त ु
 अग्र वाल
 फ े
 प ौ
ि ब
 बा बा
पू र्व
ॉ ट
 स ही
 ख ेत
ेंड र
 अं तिम
ू ह
रा व
र् न
स्ट म
 चु ना
 आप के
ज िला
 न ुक
व ट
 इं त
 तै नात
 मैं ने
 क मेटी
 ऑ न
उ ट
 कॉ लोनी
 क ही
ुर ी
 उम ्र
पह ले
 यू पी
म ति
" 

सि ंह
 सुन वाई
 से ना
 त ह
 बना कर
 सु ना
बता या
 बदला व
्या ण
 राष्ट्र पति
िक ्
ार् ज
 उ च्च
 उ ठ
न् ना
 कान ून
क िल
ख ्त
स ों
 ट ै
 सं क
उस ने
 स भा
 परि षद
 क्र िकेट
 ग ेट
 इस में
प् शन
 दिख ाई
िक ी
दाल त
 रह ता
 वर् मा
 नि वेश
ियोग िता
 व रि
 ख ़
 प टेल
प ण
ु ण
 ए ंड
 रख ी
ध ्या
 प ड़
त ंत्र
ि द
 म ं
 ऑफ िस
सी ल
 प्रभाव ित
चु नाव
ड ॉ
प ं
दा त
 शिक्ष क
 ग ेंद
 गा ड़ी
ान ों
ष्ट ्रीय
 करे गी
य ोध
ति हास
 अमेर िका
ने ट
 बना ई
 निर् ण
 नुक सान
 स् टे
 पदा धिकारी
क ई
त ल
ि ड
 पह ला
 उप योग
स्प िटल
 ब ू
 न ्यू
 जर ूरी
 बेह तर
 जिस े
 हथ ियार
 अ सर
 च ोर
 कि न
ारा ष्ट्र
 स्ट ूडेंट
 ग्रामीण ों
ग ो
क्ष ि
 राजनी ति
ूर् ति
द ू
 प ढ़
 मृत क
 तरी के
 प्र ेम
इस े
 लग ने
 हा दसे
स ब
 सामान ्य
 प ुल
 बह न
 विश्व विद्यालय
योध ्या
स द
 त ुर
 ट्र क
o r
क ुल
त ने
ने श
 र ी
 पर िव
 ती नों
 जरूर त
सीटी वी
र् गत
 बा वजूद
 रा हत
 भूम िका
डी एम
 गल त
- ब
ड़ ों
 फ ़
 ल ूट
 मिश ्रा
ै र
 प्र ता
श हर
िन ी
ट िंग
ल् ल
s h
 र िली
 ए फ
मृत क
 वरि ष्ठ
 ध र
 फ ्र
ॉ र्ट
 न म
क् या
प ंच
 ब ड़ी
 लगा कर
 स्थ ल
 तत् काल
 प्र दान
का त
 कार ो
 मजब ूत
 अ चानक
जे क्ट
  ,
ै से
 म जद
 कॉ ल
ध ु
 मे री
 तुर ंत
 स्वा गत
 गिर फ्त
 ब िल्
 हो टल
 कै म
 र िज
कु मार
  E
ख र
ाल े
 वि ष
 सं स्थान
 ते जी
 च ंद
 ले ते
पर ि
 कृ ष्ण
ार्थ ियों
र्ड र
 फा इन
 को च
 लग ता
र्थ िक
 सफ ाई
 हॉ स्पिटल
ं की
 म नी
 उ पा
 बां ग्लादेश
  K
ल् ट
 मिले गा
 निरी क्षण
व हां
 ग्र ुप
 सीट ें
हम ्म
उ ंट
 सा त
त ो
बाल िग
 रिली ज
 ज ित
 फीस दी
्य ून
 लॉ न्
 जो र
 कार्यकर् ताओं
फ ्र
 अ स
 बे च
राज ्य
 रहे गी
 तो ड़
 या चिका
 प्र चार
ित ्र
डी ए
 वाह नों
ता ह
 द बा
 च ीन
 च ोट
 ल ंब
 अश ोक
ड िंग
 अपरा ध
 भ ू
 वि पक्ष
 ज िन्ह
 छ ु
 मह ार
 उन से
ह रे
इस का
 ता ला
 अफ सर
 ज ाम
ड़ ियों
प े
 जा गर
 करे गा
 ह ल्
 जब ्त
 कल ्याण
र ान
त्तीस गढ़
- स
 ग ुर
वि ष्य
ज्ञ ात
 नौ करी
 जम कर
8 0
 श ांति
बी र
 माल िक
उ न्हें
 ला इ
 हिंद ू
 उस से
 प ि
 सं भ
 ल ु
 अ जय
 कप ूर
 एक्सप ्रेस
हम्म द
 क दम
 ट ा
  ऋ
 ग ी
 हम ारी
 निर्ण य
व िल
रा सत
 रह ती
वर ण
 साम ना
 झ ारखंड
रिक ्त
ग ुरु
 ह वा
त्र ियों
 मुला कात
 अंत र्गत
व ती
 जु ड़े
 प्रत ियोगिता
 ग ृह
की य
ृ ति
 म ू
 रा स्ते
प थ
िव र्स
ब ्र
 नार ाज
 नोट िस
ग ण
 प्रत िनि
 सं बोध
 ज वान
्य ु
 बज ट
ेश् वर
 फर वरी
) 

 करवा या
 ड्राइ वर
ले क्ट
र् श
जिस से
 छो टे
 व्य क्त
ांक न
 फ ्ल
 अप ील
 लौ ट
मुख्य मंत्री
 श री
 ड ा
ल् ले
 इला कों
त्म क
्त ान
्या म
 परि जन
ोल न
.. .
त मान
 कि श
 हम ले
 अं जाम
लोग ों
त ब
 भ क्त
 देश ों
न ियों
 अ दालत
 मिल ते
ग्र ाम
 द ेंगे
थ म
व क
 त ारी
 ख ुल
आरो प
ं टी
ेश ल
 आन ंद
द िन
ाइ वे
 साह ू
 सु प्री
 ठ ाक
त वाली
स वाल
 बैठ े
 पक ड़
ें ज
 आ त्म
 फ ाय
ेश ा
 माम लों
ाइ ल
 किलो मीटर
 संय ुक्त
स्ल िम
फ ल
 म ंच
 प र्व
 पार् ट
िक ्स
्रे न
व ारी
ु ड
  F
वा दी
 क ौन
 राज ेश
 हा उस
 ठाक ुर
 प ंड
ैं स
 तह सील
 भ विष्य
 सि स्टम
 ध ो
 जै सी
 बंग ाल
 प टना
ां सी
 सं स्था
 कार्यकर् ता
िश् चित
 मुक द
 बे टा
 निर् वा
 सं र
t i
 चु नौ
ष्ट ि
 श्रद्ध ाल
50 0
 गिरफ्त ारी
प ो
 ठ े
 प्रस्ता व
 आ र्थिक
 ख र्च
 मु श्
ाज िक
 गै ंग
्र ाम
 आ ं
स् त्र
 स् टा
र ज
 म र
देश क
 स त्र
 सु धार
 सी सीटीवी
ं घ
 सु ख
 संचाल न
जरी वाल
 बता ते
दार ों
ॉ य
 द क्षि
 आ ंद
इस की
 आय ु
 प्रश िक्ष
 सी रीज
 बां ध
 अ ली
 आ वास
 उत् पा
 ऑन लाइन
 देख कर
 परेश ानी
 अभि षेक
रा ष्ट्रीय
स्ट ्री
 छ ह
 कृ षि
 वार दात
 ज िंद
 अ ज्ञात
 दी पक
 मत दा
 आ त
ला ह
माम ले
ण ्ड
 महार ाज
 अधिक ार
 अच्छ ी
ने शनल
 मंत्र ालय
टे ज
वाल ा
ध ानी
  T
ले ट
सू चना
सु बह
व ां
व नी
 अल र्ट
 च ली
ल पुर
 प र्य
 अति रिक्त
 गति वि
 अध ी
e s
 प ॉ
वे ज
 हम ने
 ह नु
 ना बालिग
 मन ोज
 फ र्जी
्य ार
 वि स्त
 पार् षद
उन की
प ु
ल ि
 निक ाला
 युव ती
 अच्छ ा
प ित
 ब िक
 आ शी
 जा य
 पी ड़ित
श् मीर
 मी णा
 मना या
 पेट ्रोल
r a
ड र
 गई ं
 प ड़े
 फ सल
 पै र
िव ारी
 सो ने
 चल ने
e n
म ैन
 ब र्
 आ कर
 कब् जे
ह े
 प र्या
 त िवारी
 प्रो जेक्ट
 द िशा
 ने शनल
स्क ृत
 क मा
 ग ौर
से ना
्रम ण
 मौ का
ज् ज
 आंद ोलन
न ्या
 त ुल
 सि विल
 मो हम्मद
 दे ता
 मह ाराष्ट्र
िवर्स िटी
J P
 अन िल
 साल ों
 झ ा
 सहाय क
 घा ट
3 3
व ानी
 सुर क्षित
 स्प ेशल
 डाय रे
स न
 त ेल
मार्ट म
 क ब
वा ड़ा
 घर ों
 प ट
 श ्रे
 स ल
श ाला
श िप
 प ारी
 द श
ंड ल
 अति थि
 जिम्मे दारी
 पूछ ा
h a
 रख े
ज िन
स ाय
 द म
 का ं
 गु ज
 उ सी
 च ां
 मै ने
 सम्मान ित
स्त व
थ ाना
 रा व
 खुला सा
 संबोध ित
 द ब
 सा गर
 सु पर
ल का
स ित
ां ट
 ए क्
 कु मारी
 सो न
 प्ल ान
द सा
र वि
ह ्
 किन ारे
पुर ी
 दी प
 रज िस्ट
नी य
 बदमाश ों
 उद् देश
व ुड
वे द
उन का
 सुनी ल
 र क्षा
ार् मिक
श् वर
मे ज
9 0
 अ का
 से क्टर
 आय ुक्त
 सुप्री म
 ह िस
 भूम ि
 प स
 ध ी
बै ठक
मौ के
अ भी
प त
 क ौ
 व ्र
 ख ोल
धिक ारियों
भार तीय
 प ाई
री ब
 रह ेंगे
 जागर ूक
 ला या
 पहुंच कर
ण ाम
 हम ेशा
 सप् ताह
7 5
ो श
्यू टी
 प्र ि
 स्कूल ों
 प्रता प
ब ारी
 युव कों
िय स
 युवा ओं
क ॉ
म ित
कार ों
 संप र्क
मौ सम
 श ासन
 मुश् किल
 ज ला
िए शन
 प्ले ट
म ि
 कार्य ों
 महिला एं
 अ ंग
 ल ं
 ड र
ें शन
 ख ाली
 श क्ति
 नि भा
 या त्रियों
 चुना वी
 ल खनऊ
 प्र ी
 रो हित
 नाम ांकन
ो द
्यून तम
e w
 बि ग
 लि स्ट
 मरीज ों
 आ ता
 कम रे
जु र्ग
 क ौर
 बच्च ी
 न्याया लय
 घ े
 ग ंगा
्य र्थ
 उप चार
 समु दाय
 बेह द
क ै
 स िल
 मु स्लिम
 अधिक तम
ंदी प
3 2
 च यन
 प्र बंधन
 हाई कोर्ट
 रिश् ते
 हनु मान
 छ ाप
त्र ि
 ग ोल
 को तवाली
ली वुड
 प िछ
 ब हा
 न ो
 यु द्ध
िट ्
ोत् सव
अ न
द िल्ली
व ै
 ब िल
 से क
 भी ड़
सी एम
पर ेशन
 भा स्कर
 आद मी
ुल् क
 क ैंप
र् जा
 ख ूब
 दूस रा
19 9
l e
 वि श
 घु स
 मे रा
 गण ेश
 आ ंक
 बता ई
 मिले गी
d i
हा दसे
त्र ों
 वि वाह
 यून िवर्सिटी
 पोस्ट मार्टम
ि फ
द् द
 सर् वे
थ र
 सं विधान
 अधी क्षक
श िव
 द ृ
 फ ो
वा या
स्ट े
 वर् ल्ड
 आवा ज
ाइवे ट
 उद्देश ्य
- ज
मान त
 मार ने
 योग ी
 प ुरु
 तक नी
 ला ने
 पहुंच ने
 चौ हान
 समा धान
4 8
 र वाना
रे न
 मु केश
म् प
 मुख ्यालय
 पे पर
 सफल ता
पं जाब
 पुरु ष
 वर्ष ों
फिल हाल
 पश्च िम
 रै ली
 से ल्स
 ऑ टो
 व्र त
 नि र
 छो ड़
 के जरीवाल
बी सी
भ ू
 र िट
कर ीब
ग् ध
 सुन िश्चित
 मंड ी
 अ योध्या
 निर् धार
 शिक्ष कों
 डॉक्टर ों
 दो ष
सर कार
द ल
 पह ल
 कह ानी
 सौ ंप
 इंत जार
 विष य
 फ ॉ
 इ लेक्ट
 नी तीश
प ेट
गी य
्री न
 साम ाजिक
 पार् क
 कै प्शन
- साथ
5 5
स च
 ज ॉ
वास ियों
 फी ट
 न क
सी बी
 सी जन
 स्थाप ित
िय े
ड ियो
 द वा
 आ उट
 सू र्य
 स्प ष्ट
3 6
इ ंट
क् सर
िय ोजना
हर ण
 शु क्
 वी र
ै ट
 पै सा
 क ैं
 उ तर
 प्र खंड
 ट ू
 चौ की
च ंद
ड़ ित
स् वी
सी पी
प्र त
 खु श
 नार ायण
क ाम
ग्र ामीण
िप् टी
 मिल ता
िम ांड
 तीस रे
्यो ति
 भु गत
ग री
दा बाद
 चे क
 एयर पोर्ट
 साइ बर
ब च्च
ार ण
 प्र व
 रोक ने
 स्टूडेंट ्स
क ृत
 आ ठ
रे ट
 परि णाम
शी ल
बि हार
 फाय दा
न ान
 ज ाल
 सि द्ध
ार्थ ी
 ति थि
 निर्वा चन
ा ब
 कि मी
प्र धान
मु झे
ट् टी
 एज ेंसी
 बुला या
म ेश
 स ूर
रा इल
बा ज
दर् श
 सौ ं
श िक
या त
 ज ंगल
 ब्ल ॉक
 प्रस्त ुत
 शरी र
 प ोल
 सा ब
 र फ्तार
 रा जा
मैं ने
 स्थान ों
 लॉन् च
  G
 ह रा
 भ जन
पी एस
 न ्यूनतम
वाल ियर
 रे प
 माह ौल
 दबा व
 प्रे र
 स्टा फ
ू नी
 म िस
 रा यपुर
 मार् केट
 सहाय ता
 मजद ूर
 लंब े
3 4
 पर ियोजना
 पू जन
 एक्ट ्रेस
 दक्षि ण
इ ज
 एस ोस
ब ारा
 ब ंध
 द स्ता
 य ही
 रा केश
 उस में
 पा ठ
00 0
 स त्ता
वी न
आई आर
प ल
 र िस
 हि रासत
ं जन
टे न
इ ंड
्म ू
a y
व धान
 कंप नियों
लोक सभा
जी नियर
ित् सा
 ब ड़े
क् का
वा ने
 चुनाव ों
 अभ ्यर्थ
 बचा ने
य ल
 स िक
 ख ंड
 लक्ष ्य
 आख िरी
  V
 अ ज
 सेल्स ियस
 म ल
 का उ
 का ट
ऐ सा
 श ान
 श पथ
टी म
 इ तिहास
्रे लिया
स्ट ्र
क्र िय
 अनु मति
ट् ट
ए ंगे
द् दी
 जान ते
 मश ीन
ॉर्ट म
 अभ िय
 ना ग
जु न
- च
 वित ्त
r i
 नि देशक
 फाइन ल
इ धर
 कर नी
ंद े
 बी ते
 गा ड़ी
ल म
ार ाम
कर ा
 निक ले
इ मेज
ना म
त् त
ल ब
ने स
 साथ ी
को र
 शिव िर
 लड़ की
सो मवार
प द
ु ति
 जा ति
 इ तनी
पी एम
इक िल
 जता ई
 उद यपुर
ज िले
ो प
 श ंकर
की ल
 उन को
 कम िश्
 बु जुर्ग
ं टर
र् जर
 रख ते
 आद ित्य
्य ता
 प्र ाइवेट
 फ ें
 मु ह
ोज क
 सै नी
ह त्या
ग्र ह
 उ द्योग
 सम ूह
 संत ोष
 मुकाब ले
रो ज
 ध ार्मिक
ांच ी
 संचाल क
दूस रे
न ल
 ए ग्
 मुकद मा
ew s
ब ां
 क ्ला
 द ास
 कि र
 कर वाई
 ट ूट
 रू म
 रे फर
 संचाल ित
स ंग
ह ारी
् व
 स ंदीप
ें गी
 नी ति
 फैस ले
 ड ्यूटी
 अम र
 चि ंता
 विद्य ार्थियों
 हा दसा
 गुज रात
ती न
  L
 ब ड़ा
र् तन
 सम ी
 ला पर
क ़
फ ॉर्म
्य ेक
 फ ूल
स्प े
 गिरा वट
 तारी ख
लका ता
थ ी
 श ूट
 स सुर
 ट ाइ
 सप् लाई
आ ग
व ्यू
 च ढ़
स ाल
 इ तना
शन िवार
 ऑ परेशन
 निय ंत्र
 सो नी
 मे ह
 हिस् से
प्री त
 भ रा
िया ना
श् न
त क
ु क्ति
ौ ली
 ए क्टर
 पाल न
ि पा
िक ्र
बा दी
 रोज गार
 प्रशिक्ष ण
 निर्धार ित
  U
' ,
 क ंट
 स क्रिय
 ह ल
 प्र थम
फिल ्म
ित् व
 ज मानत
 अ ट
ित ्स
िला स
3 7
ल् ला
 मो टर
उ त्
भ ि
ष् ठा
 सू ची
 पै दा
 संप त्ति
 इलेक्ट ्र
 साब ित
 क क्षा
 अ खिल
र् द
 इ न्
स्ट ्रेलिया
 उठा या
रवि वार
 सा ध
 करवा ने
 बू थ
इ ंदौर
 क हां
 से ल
 मां गी
 चे यर
 इं जीनियर
 एसोस िएशन
 पस ंद
 ख ड़े
 पु ष्
 ट्रै फिक
उ थ
 स प
 इ स्ती
 वे ब
 चिक ित्सा
 उ तार
ेल न
 क्ष मता
 आर क्षण
वं त
 अं ब
 डॉ लर
 खा ते
 अर विंद
 वित रण
 फायर िंग
 थ ो
ह ो
कर् मी
 मनी ष
a m
 प्र भा
 स् मार्ट
 झ ू
 दा खिल
अप ने
 उपा ध्यक्ष
 विस्त ार
u r
 आ ती
 मह ाम
 क्र म
गण ना
 लापर वाही
 चुनौ ती
 म ास
 अका उंट
 कि रा
ले श
 चाह ता
ेम ारी
प्रधान मंत्री
ि मा
 स्टे ट
ण सी
थ े
स्त र
- म
द ास
स्थ ल
' 

ल िंग
 वि वे
ंड र
प ट
 प्रति मा
 पोस्ट म
घा टन
ड्ड ा
 डायरे क्टर
क ्यों
 ल ै
ान ि
 वि श्वास
 स्ट ैंड
राज स्थान
 मुद् दे
 का ल
 ध ान
 उम्मीदवार ों
 संद ेश
 स्क ू
 भाव ना
श ासन
 द ूरी
 पोस्टम ॉर्टम
व ली
 स पा
 स लाह
 प ्ला
 ट ॉप
 सो च
 गु जर
ि मी
 श ै
 घ ूम
 निश ाना
 किश ोर
ि ग्ध
् वी
 ग ार्ड
 त भी
 प्र बंध
 क ने
 प्र माण
 अनु मान
 मानस ून
उ से
े न्द्र
ार् व
 आर ती
 योजना ओं
 गौर व
र ु
 सर पंच
 कमिश् नर
3 8
घ ायल
 र द्द
 सम ाप्त
 बढ़ ाने
 फै क्ट
प ार्
य ं
भा ष
वे ल
 सक ेंगे
 कर्म ियों
 निय ुक्त
सी य
 सी नियर
 ज्ञ ापन
 भी तर
सी सी
 ठ ंड
 इंड स्ट्री
शु क्रवार
ज ांच
ना टक
 प्र िय
 ड िप्टी
 ठ गी
 क ड़ी
िप ल
 यून िट
ट का
 ए ंट
 इ ंच
 स्थाप ना
ण ि
त भी
 कर ियर
 चला या
 संघ र्ष
 भुगत ान
  l
ं ती
 अ र्थ
क ंप
 फिल्म ों
 बल् ले
 ट्रै क्टर
 ले ना
ाला त
 इंटर व्यू
सा इड
 हे ड
 वृ द्धि
आरोप ियों
 तो ड़
धिक ार
 दुर् गा
 प्र दीप
 ताला ब
 भ रो
 पू र्
वि ध
 शिक ार
 हटा ने
सच िव
प ता
 प ्यार
 र हीं
 प्र ार
के शन
 बा की
 वर् तमान
 गो द
 गो पाल
 चे ता
 विश ाल
 रा जीव
 पा वर
म् बर
30 0
 र ुक
 हो नी
 स् पी
 सम ीक्षा
्रे ड
 सर्व िस
 न शे
ना ड
 सं सद
 कार्य काल
 गठ न
 आत ंक
 प्रि ंस
o l
औ र
 जो न
तिक ्रमण
 हाई वे
 बज कर
ब ो
म ंगलवार
द्र ा
स्टे बल
 ज बर
 व ्
 ड ाला
 ला इट
बी आई
जय पुर
अ ल
ज िद
 द ान
 र मेश
कार ा
ु न
 वि मान
किस ी
 एफ आईआर
स्पे क्टर
 क ू
 पर ी
ल् टी
 चाह ती
बि नेट
य ही
 स िन्
 त िर
 पु न
 संद िग्ध
h an
 ब ें
जन िक
ंप िक
 हि ंसा
1 50
 र ेट
 अ क्ष
स्थ िति
 खा ने
 क्ल ब
 भ ्र
 अमेर िकी
 चिक ित्स
 फु टेज
ठ े
 ग ्
 उ त
ंद न
 बाद ल
एस आई
 व ार्
से ज
 नि र्म
त् मा
सा ह
ष् टा
 N ews
ार्व जनिक
 प ड़ा
 ख ाना
्म ण
 स्ट ार
 शहर ों
 पुर ाने
 टै क्स
 जगह ों
ष्ण ु
 स ख्त
 ह ंग
 ह ेम
 ए रिया
 सो रेन
 विक सित
जू दा
 पद ों
 वोट िंग
कृ ष्ण
 कैम रे
ख ों
 ग े
 ख ी
 फ ्ला
 मा ध
 B JP
 शान दार
 ज ्योति
प री
 न ज
 गांव ों
 अच्छ े
छा त्रा
 मॉ डल
ड ेट
 ह ित
 रा ठ
 जिस की
 आप की
टेड ियम
ध ियाना
 च ाक
 च ार्ज
 पढ़ ाई
  O
4 4
 कम ल
6 5
 प हा
 स् टेडियम
 जो ड़
 खु शी
4 00
 ब ध
या त्रा
 य दि
सा इट
 मिल ती
 बह ु
 पुर स्कार
 ऊ ंच
 तीस री
बु धवार
- प्र
न ाल
 क थ
 प ॉल
 चला ने
स्क ूल
9 9
 स का
 न र्स
ड ्र
फ ोन
 व ाय
 बी मार
 समस्या ओं
 ठे के
े द
 न ारे
ान ु
बी जेपी
 पहुंचा या
फे सर
ब्ल िक
 द ह
 दो बारा
 अम ृत
क ू
ब ुल
य त
 आ जा
स्कृत िक
 सिन् हा
 द स
 च पेट
ला श
रा बाद
बी न
 दर् द
 जु ट
 पक ड़
 निय ुक्ति
 प ोर्ट
न् द
 या त्री
 बात ें
 उप ाय
 पुर ानी
 विशेष ज्ञ
-प िता
! 

 ह ालात
 इ मर
 ट िप्
 जिस का
ोर ख
 म च
 द लों
 ने ट
 श ्याम
 ट ाइम
गर ानी
 अर ब
 ज्ञ ान
 आ बादी
 ए क्शन
ार् म
 स्वी कार
परि जनों
 क ़
 अ तिक्रमण
 वि ज्ञान
 नम ः
फ ान
ह मार
 क ठ
 ल िम
 च र
 सं स्कार
 राज ेंद्र
 वे तन
 फिल हाल
 चेता वनी
ज ोर
स् त्री
गे ट
 निक ाली
 अध्यक्ष ता
ंक ज
 प्रे स
कंप नी
ट री
 स ार्वजनिक
 आ क्र
 त ार
 श ही
 न क्स
वा स्तव
 इ ज
 रे ड
 संग ी
 दिव सीय
कृ ति
i t
न ार
ने र
 अ ह
 स् म
 अनु भव
 लाख ों
 कप ्तान
 सत ्य
 जिन्ह ोंने
 म स्
 व ॉ
 ओ म
 उद् घाटन
 छाप ेमारी
ग िर
ल ान
ल ैंड
व िक
 प शु
 ल ू
कर् ता
 सम्म ेलन
 दर वा
 लक्ष ्मी
गुरु वार
- बार
ह ली
‍ ट
क् सी
 नि गरानी
 बॉ लीवुड
च ौ
श ाम
र् में
 न ाय
 राज स्व
पर िवार
 स्ट ्र
 योग दान
 इंटर नेशनल
 गतिवि धियों
श व
 क था
ट् टा
 आश ंका
ज्ज ैन
ली य
 एंट ्री
 ब म
 वि भा
धी श
 स्व तंत्र
 जम ्मू
 ट्रांस फर
 कारो बार
क हा
न न
 भी षण
ंग र
बा ग
 प्रत ्येक
 मं जू
 प वन
 व कील
 मह ोत्सव
स्क ृति
 आग ामी
तरी य
 द ाम
 अ के
 डि ज
दूस री
फ्र ेंस
 हल् की
म ंदिर
 अ त
 ग रीब
 तस् कर
 नियम ों
 दुर् घटना
 गाय ब
अ र
ई ओ
ड िया
 नि रा
 अंतर राष्ट्रीय
 बध ाई
ान गर
 फ ैंस
 दि नेश
 मिश न
 बा ग
 इ क
ोल ॉ
 ग्र ह
च क
 प्र योग
से स
 दे ती
 ट ॉ
 निक ला
माम ला
 श्रद्धाल ुओं
ख ्
हा ई
मो हन
 साह िब
नो ई
 प्रव क्ता
 क्ला स
ग न
म िल
 उ क्त
 स् तरीय
्ल ो
 बढ़ ा
 गौ तम
 बिक ्री
ौ ती
 वि नो
 भा षा
 सल मान
र त
 स ेंट
 रा स्ता
 ड ूब
 लगा ते
य ी
् तीय
ड़ िता
 कु श
 खिला ड़ी
 हर ि
आई टी
 सुर ेश
19 8
 समझ ौ
 निश ान
 धो खा
क्यों कि
इ ए
्री म
 मे हन
 स्व ामी
 सां स्कृतिक
त्तीस गढ़
 चां दी
ड़ ियों
 प ेंशन
 र ोल
 ग ुल
यु वक
 चाक ू
a s
श िक्ष
्र ेशन
 ज ू
िन ियम
ंप रा
 मी टिंग
 जीत ने
 ऊ र्जा
4 6
र् मी
 न हर
 आ कर्
 सम ान
 राज धानी
 ध ाम
स्थ ानीय
कर्म ियों
रे ज
 सो ना
 झ ां
सल मान
 सुना ई
 कंट ्रोल
 ब ॉल
 आ ना
ृत ्य
 गु ण
 आए ंगे
 बैठ ा
 स्व च्छ
 अपरा धियों
 नज दी
उ प
ब स
म ै
ो सी
 ग ह
जा इन
 जु ड़ी
 संक ल्प
छ त्तीसगढ़
श ंकर
 श ौ
 फ ॉर्म
रा हा
 ट्र ॉ
 खु ले
 शे ख
आ म
द ्या
म ार्
 ज स
 भ व्य
स् सा
 वि ष्णु
े ड
 स ुल
a d
श ोध
 श्री वास्तव
 हमार ा
 विनो द
प टना
‍ या
ंग ्ल
 सु ंदर
 इं स्पेक्टर
 पांड े
  H
श ्त
ि टेड
 स ैनिक
ड़ कों
 ख ार
 घ ोट
 विभाग ों
 बो ला
 विदेश ी
 स ौर
 र ानी
 का बू
 अन ुर
 उप चुनाव
 रू स
4 7
u n
ं वर
क ले
भ ो
 कह ती
 चौ राह
 C M
 अफसर ों
भ ोपाल
 न ती
 का े
सा त
जिस े
 मन ो
 काउ ंस
4 2
 म ाय
न् व
 सं जीव
 अध िनियम
वि ंदर
 सूर ज
 म ंज
क्ष ी
 सं स्कृति
ढ़ ी
 प्रो फेसर
ूर् त
 दिखा या
 कमा ई
न ई
 अ ना
 श ास
 छो टी
 बचा व
 मानस िक
 पंड ित
 स ारे
 सा उथ
 सी धे
 ला गत
 पं जी
 खे ला
 धर ना
ग्रामीण ों
 हंग ामा
  J
 प थ
 च तु
 भार ती
 वर्ष ा
 स्व यं
 एड म
क ट
रे स्ट
को ट
 कै बिनेट
 जु टी
 प्रो ड
ड् डी
सब से
 मेहन त
द िक
स ूस
 न वीन
 ट ो
रे ल
हम ने
 टे क्
 कब् जा
 फ ्री
 ध ार
 बै ग
 प्रा ण
 अर ुण
 गै स
 मुकाब ला
 संर क्षण
 हिस ाब
ष्टा चार
अ ग
 ऑ स्ट्रेलिया
 उत् सव
 बो ली
 ई रान
 जिन में
 कौ शल
 आ ंध
 मु क्त
 बे ट
श्वास न
 प्रार ंभ
 म चा
 पर ंपरा
 जी ता
 आवश्यक ता
ै क्ट
 अ ंडर
ता यात
 सा ज
 पास वान
न ्यू
्या स
 ड िप
रे लू
 अन ुप
 ब्र ि
 कान ूनी
 मुद् दों
 प ंकज
 फ िल्
मा ज
 सब ्
 एस डीएम
 पद ार्थ
 दिव ्या
 श्रे णी
 क च
 ल ें
 सम ्
सा इ
 डी एम
 बढ़ा वा
 तुल ना
 दस्ता वेज
3 9
वा ड़ा
 स् कोर
 ड ो
ाय कों
 सु भाष
 पड़ ता
फ िया
र िस
ल खनऊ
ना क
 उ चित
 च ंडी
 हो म
स्ट िस
 निक ली
 आदि वासी
 रण नी
 वेब साइट
घ ु
 ब ्रे
 आ श्वासन
 उ ड़
गा ह
 बन कर
 छोड़ कर
 मह ेंद्र
 अव धि
 करा ए
 गै र
 ची ज
ोरख पुर
म ल
 प ारा
 कम जोर
 इन कार
ोष ण
 हाथ ों
 पांड ेय
 परिव हन
 ससुर ाल
च ंद्र
ज ैसे
े ड़
ड़ ों
‍ य
 वि ज
प्र काश
 झ ग
 समझ ा
 पक्ष ों
 चेयर मैन
श ्म
। "

 के न्द्र
 को लकाता
 श ख
 छ त्तीसगढ़
 प्रति बंध
 चार ों
 निकल ने
ब द्ध
म ां
 श ब्
 य श
क्ष ेत्र
 जाए ं
 चोर ों
 भक्त ों
 शूट िंग
. "

e l
च ीन
 आ र्ट
 च ैंप
 गिर ने
 वित ्तीय
 मुद् दा
 फैक्ट ्री
 लिम िटेड
ह िता
 ब ुरी
 अ सम
 भ ोजन
 जा ट
 मु आ
ंड े
दी य
ल् थ
ज्ञान िक
 व्याप ार
 ह वाई
 भ ूप
 ए च
स्थ ाप
 कै द
 डि जाइन
 क्र ाइम
 मध्य प्रदेश
4 9
ग ज
य क
श ाह
 सु साइड
 पर्या वरण
h i
h ar
 म ंगल
 ह फ्
 र ोग
 प्र ती
 मह सूस
 दु बे
 जु र्म
 गो ल्ड
 महा सचिव
 श्री राम
ज फ्
म ध्य
 प र्
वी डियो
 राज कुमार
 हजार ों
सि द्ध
 वाप सी
र् ज
 प्र मो
 सं भव
 अप डेट
 मौ जूदा
डी पी
 ऐ लान
 ग्र ा
 ट्र ैक
 उत् साह
 दा वे
 ग् वालियर
 क श्मीर
 स ड़कों
 म गर
 द िक्
 व सू
र् त
 रा उंड
 साथ ियों
 मो र्चा
 मतदा ता
 खार िज
 भ ि
 भी ड़
 ख र
 ख ड़ा
 सा झा
 नि ष्
 आप का
 पश्च िमी
च र्स
ड िशा
म हा
 प ड़ी
 वि न
 मह तो
पू त
उस की
 बॉ क्स
 इस्ती फा
प त्र
स ाम
 व ही
 त ृ
जन क
 पा ने
 प्ल ांट
 निरी क्षक
 शुक् ला
कले क्टर
ड ेंट
 भ ंड
िल ंब
जा त
 छ ूट
 जो ध
ंध े
प्र ा
 संय ोजक
 बेच ने
 प्रतिनि धि
प ्त
म ेल
 को टा
मे रे
 लं बी
िट् टी
ज ारी
ि ंदर
रे न्द्र
 पक ड़ा
्यो हार
 दोष ी
क ्रेन
 प्र ण
 जा या
 सि ने
ैन ल
 पल ट
 नियंत्र ण
 फ्ला इट
 न वा
्य ोर
 प्र तिक
 ख ून
 एक ा
 मेड ल
 ट्रेन िंग
जफ् फर
4 3
ज वाब
 ग र्म
ना मेंट
 फ ल
 घ ट
रे ली
 साम ग्री
 अहम द
 मस् जिद
ं तर
ो तरी
 बा य
ंग ना
रा हुल
एस सी
 शि फ्ट
 आत्म हत्या
ग ौर
प णी
स ूर
ौ ज
 ब जा
रा ट
 ला श
एस टी
ूर् नामेंट
 कर् मी
 रु ख
 दू ध
 शख ्स
ज ेंसी
य दि
 व र
क् चर
 वर् क
मे ट
ाइ ड
 पत् थर
 एन डीए
 मैच ों
 जोध पुर
 कर ी
 ख ोज
 सं हिता
मा ता
पा त
्यू ट
 हि ंदी
 विध ि
 दौ रे
 व्याप ारी
 कथ ित
इ प
 पर म
 बा ढ़
 पी ड़ित
 कै लाश
 अब ्
 खिला ड़ियों
 मार कर
 दिक् कत
0 5
प ै
 स ैक
 दु ष्
 रख ना
 विध ायकों
ब न
ृ ज
 दुकान ों
दाय िक
ब्ल ्यू
 टिप् पणी
क ांत
 स िया
 ब ुल
 गो यल
 दि ग्
c e
अ मेर
ध ाम
प िता
ज़ ा
 सौं पा
 भरो सा
ज िस्ट
स ुप
 अ क्सर
 न शा
री न
 बता ए
 मान व
 प्रा वधान
 घायल ों
 नियम ित
 किर दार
 हफ् ते
्र िया
ली ल
 मार े
 जिन्ह ें
िलास पुर
व स्था
 स की
 म ारा
्र ो
 आ चार्य
वाल े
 रख ें
 आशी ष
 अखिल ेश
, 

द ुल
 प ाली
ने ता
 को हली
स् म
स् टी
गी र
 जान िए
 घटना स्थल
 संक ट
ां श
 पु ष्टि
 खे ती
 अर् जुन
 नागरिक ों
i d
भ ूम
ॉ न
ड़ िता
 फै ल
 जिम्मे दार
 न्याया धीश
 न ित
 आ सान
 घ रेलू
 अग ्
 जै सा
मो दी
 हिस् सों
 कर् नाटक
I R
या ं
के त
 मह ेश
 कार्य वाही
 जन रल
 ट्र ंप
 संभ ाल
ोलॉ जी
ह ि
 ब त
 च क्र
 जो शी
 मे ला
 दौ रा
 भ्र ष्टाचार
र िपोर्ट
 र ांची
 ग ्रे
ना डा
 वि हार
 सम र्
पी ड़ित
 सि ंध
 छ त
 सक ें
 गु र्जर
 परिवार ों
 फै ला
घा ट
 बिल् डिंग
 मतदा ताओं
 साज िश
ट ू
म ्म
 ल ेंगे
रा इ
 जी ते
 लड़ ाई
ड् ढ
 प्रस्त ुति
 फें क
क ेंद्रीय
स ारी
 ल ल
 प्र करण
 दी वार
 इं स्ट
 मांग ों
भार ंभ
फ् टी
उ धर
ू ंगा
 उन में
 बी मारी
 मै सेज
 छो टा
एच ओ
जल ि
 पदा धिकारियों
 चौराह े
a b
 ह री
त् नी
 या तायात
 आप ूर्ति
 बन ाना
 जिला ध्यक्ष
 घटना ओं
 जता या
 कैं सर
 शही द
 म ुर
र् वाद
ाय ी
 नि धन
 ला इस
 चल ता
 ली क
 जय ंती
 मैने जर
  W
B I
द राबाद
म गर
श ाली
 प ायल
मा स
 ध ूप
 रू ट
 प्रति भा
ti on
 म ैन
 इ ंद
 खे ले
 संगठ नों
ह में
 श ोर
वर ूप
ंध र
 मान ना
 प्रशासन िक
िली प
 अर् पित
 ची फ
ल्ले ख
 विवे क
 त िल
 श ांत
 श ुल्क
 प्रति ष्ठा
 केंद्र ों
 प्रिय ंका
e t
य म
 से ट
 भ री
 ए प
 पार् किंग
दे न
19 7
 राज्य सभा
 खा द्य
 मू वी
 प्रिंस िपल
 सिने मा
ॉ न्
 प ड़े
 ल ीड
िय त
ड़ िया
स्त ानी
 दर् जन
े न
टी एम
का ई
 सी ता
वे स्ट
 पे ड़
 आशी र्वाद
4 1
 ला पता
 जु ड़े
 मत लब
 सफ र
 आधार ित
 आख िर
 पोर्ट ल
ख ु
 न ही
 देख ी
 बढ़ ने
 वो टर
 पक ड़ा
वित ीय
 पह न
 शु भारंभ
च्छ ा
उत् तर
i s
 ह र्ष
 प ब्लिक
 त नाव
 उ न्
 सम ापन
ाइ यों
 कुल दीप
सं ख्य
 कॉन् फ्रेंस
िड ेट
क ां
ग राज
 बा ई
 बद ले
ग्र स्त
 जागरूक ता
 पूर् वी
व ेंट
 प ंप
्र ल
 द ैनिक
वा हा
 ख तरा
 फ ं
 फ ांसी
 क्ष ति
 निर् द
 पु ण
 फु ट
 अप र
 वे स्ट
 छात्रा ओं
2 50
ड कर
 आ वं
 बे स
 कै ंड
 अम न
 अपरा धी
 रिज र्व
 प्रेर ित
ग ति
 टी में
हरी र
ए क्स
फ ो
 स ैन
 आ काश
्या ज
 रो का
 ली टर
 बदल ने
 लिख ित
 दिला ने
 जिंद गी
 एग् जाम
दी श
 कह ने
 लु धियाना
द्दी न
 डिज िटल
5 6
 आ र्य
 इ ंग्ल
डी ह
 बच्च न
ंट ों
लो ड
आर पी
 यू ज
-अ प
 तस् करी
 दोस्त ों
 आक्र ोश
 आ रा
 टीम ों
 चौ राहा
r o
श िया
 क स्
 ल ोह
 ग ले
 च ै
 छ ीन
 शा खा
 तकनी की
पार् टी
ॉ ड
 म मता
रा त्रि
 रह ना
 डी एसपी
 वै ज्ञानिक
 खरी दी
 परिव र्तन
 हो ली
 सं शोध
 पी ने
 मां गा
 मां गे
 झ ु
.. ..
 संबंध ी
ट्र ो
 उत्पा दन
 मंजू री
  ताल
 ख ड़ी
वर ों
 इन के
 साह ब
 पाल िका
 लड़ की
 रिज ल्ट
 ग्रह ण
 जुर्म ाना
t h
 स ारी
 म ंग
 ह ट
 ह िम
 इ तने
 ट करा
जिस की
 ता कत
 मत गणना
 अफ ्री
 संप न्न
 विद्य ुत
द ुर
ल ंका
 वि श्
 ट ूर्नामेंट
 खेल ने
 चैंप ियन
स िया
 स श
वि जय
पा किस्तान
ाइ ट
भू षण
य ुक्त
 ज ंग
 ज ुल
 ज िक्र
 द ायर
 त ्योहार
इस को
 ऑ ल
 मा ने
 दु र्ग
 पद क
यू पी
 भेज ने
 दल ित
 अभ्यर्थ ियों
झ ी
ह िर
 न ृत्य
 ड ू
 रह ें
का या
 टी चर
 गु म
धिक रण
 राज्य पाल
वर् धन
 भर ने
 मि मी
 खरीद ने
 जवान ों
8 5
इ तना
 त ल
ित ्त
 रा ह
 गु ना
 इंड ियन
 वा दा
 पुर ाना
 तहसील दार
 लाइस ेंस
र िए
 अ श्व
 ग ेम
 प्र दर्श
 वि जे
सा गर
 मे ले
 पा इप
 मा स्टर
 सह मति
वर् क
 भर त
 नाराज गी
 क वि
 प िट
क्ष ्य
 ज्यादा तर
 महा प
 निकाल ने
 लाइ फ
 श्रद्धाल ु
 सिल स
 कैंड िडेट
म क
 म ारी
 ह ड़
 न ग
 दे री
 मु ंह
हर ू
 दर् श
 उप भो
 देख ें
 पै दल
 चे हरे
 प्लेट फॉर्म
अ भ
ड ब्ल्यू
 अ ल्प
 कि तना
ंग न
वार ्
 अप हरण
इन के
 ड्र ोन
in g
 अंग ्रे
- एक
ज ित
ड ू
 द ाय
 व ारा
र् टी
 ट ोल
 उस को
 मजब ूर
 पौ धे
े गा
 ग िरी
 हुई ं
डी ओ
 बच्च ा
 इं जन
 गु ट
 सुन कर
 बज ाय
शिक ायत
 कने क्शन
हमार े
 वारा णसी
न ै
टी आई
 ड ेट
 ड ांस
मा ने
 गो विंद
 भाग ने
 कारो बारी
le c
 मुह ूर्त
कारा त्मक
 म ूर्ति
 अ ल्
 कि शन
 भ रे
 त हरीर
 प्र श्न
 बा घ
रा धिक
 जन पद
 उठा ए
 P M
 जित ेंद्र
ह् न
 टेक् न
 मुआ व
 आ लम
्य ूल
 श क
 आई पी
नि र्
 टा टा
 जाय सवाल
 हेम ंत
 नजदी क
ौ ड़
 च ित्र
 सं स
 अध िव
ष्ट मी
 मा त्रा
 अं सारी
 विक ल्प
 ठ ग
हत क
 कले क्ट
 फो र्स
म ंडल
् ति
 ब िश्
 ग ाली
 जान ें
 ऐ प
 मही नों
 ट्रे नों
 हों गी
 कान पुर
गल ुरु
 त्र िपा
ंघ न
 दुष् कर्म
5 1
 प वार
 ज ख
 प्र दू
सी ना
 ध ्व
 पहुंच ाने
 पत्र कार
- छात्रा
प ानी
र ानी
 स ैल
 स राह
 कि तनी
 उ ल्ल
 उ ज्जैन
 इ न्हें
 ग्र ाह
 प्रो त्
 पर्य टन
 प्रतिक ्रिया
 त्रिपा ठी
 र ॉय
 अ वि
 औ सत
ंद ाज
 कु र्
 बे स्ट
 सदस्य ता
 सके गा
 ग हरा
ला इ
 फ र्
 विरो धी
 बाल िका
 नक्स ल
5 8
ए डा
ै म
 ह ेत
या ल
 द िलीप
 ग र
 मे र
 ट्र स्ट
गम न
 फा उंड
 स्वतंत्र ता
ग ह
ब द
 ग ंग
 त मिल
 रा धा
 इ श
 गिर ोह
 सद न
 ढ ा
आप को
 वसू ली
‍ त
 त माम
स् वा
 प्र जा
 प्र गति
नी त
 राज पूत
 ध ूम
 आरोप ों
 रख कर
 मैने ज
 प्रोत् सा
क ांड
फ ोट
ने क
हा ज
 वि रु
 क्षेत्र ीय
 ली ग
 बिज नेस
 बच ने
 भ ोग
 आप राधिक
 बह स
 रजिस्ट ्रेशन
 आदित्य नाथ
 पुष् प
 ग्रा उंड
द क
या नी
 र ेंज
 वि द्या
 महा देव
 महा विद्यालय
स्व ामी
 सां प
नाड ु
 जबर द
द शी
म ती
 फ ाइल
 विक ्रम
 ना थ
 नी रज
ार्ट मेंट
भग वान
 कोच िंग
1 20
S P
i l
च ि
 अ क
 भ ो
सा इकिल
 सु झा
 मह ज
 पा ठक
 नर ेश
 विरु द्ध
- ए
ि ने
 प र्स
 मान ्यता
 वोट ों
 जल् दी
 तत्काल ीन
 बिल् कुल
ए एस
ध ीन
ब त
 स न
 ब ाला
वा य
 सं सा
वि ड
 भा षण
व्य वस्था
 सोन ू
 किरा ए
विध ायक
 हेत ु
0 9
 इ स्ल
का नेर
 जिस ने
 बढ़ कर
 मंदिर ों
झ ारखंड
 के रल
 ज स्टिस
ंत्र ित
 जग दीश
 ई डी
 लड़ के
 F IR
अ स्पताल
न ए
स ला
 अ स्थ
ां जलि
न् स
 सी बीआई
 कारण ों
 पु त
 आए गी
 उत् तरा
श्व िक
 प्रा धिकरण
 समी प
ज िए
ह िंद
वा ज
 फ ंस
िला ई
 सि म
 ला ठी
 एम पी
डॉ क्टर
तिहास िक
व ृ
व ही
िक ो
 फ ते
 फ ंड
 ड िमांड
 सं भाग
 पी ठ
वर् ष
्ला ह
 हे ल्थ
पह ली
प्रत िनि
 उल्ल ंघन
 ल ोन
 अ रेस्ट
 ग ली
 राज ू
र द
ों क
क् की
 इ ंद्र
 ओ डिशा
 मान ते
शा दी
ार्थ ना
 इलेक्ट्र िक
5 2
5 7
 म िट्टी
 का ली
 सं वाद
ोग ्राम
प्र ो
 महा काल
 डे टा
 कैम रा
 जिंद ा
 महाम ंत्री
 ब ृज
 र िमांड
 बात ों
एस एस
 आप त्ति
पू छ
धी रे
 ऑफ र
 प्रभ ु
 देव ेंद्र
-क श्मीर
 बिश् नोई
0 1
a k
ध ित
फ ॉ
 स तीश
 भ क्ति
कर े
ारी रिक
ष् णा
 राज द
 जब लपुर
काल ीन
फिक ेशन
 धोखा ध
रेल वे
अग ले
a v
i r
उ सी
 व्यव साय
 तस्वीर ें
 अक्ष य
 संगी त
 गुण व
उ द
 कि रण
 च क्कर
 रा त्रि
 ले ख
 दे गा
 कार्य रत
प्र िय
ज् वल
 मिश ्र
 ठेके दार
 नाय ब
 आकर् ष
्योर िटी
D A
न व
व ण
 ह ॉल
क् ताओं
 बढ़ ती
प् पू
 डी जल
 मी ना
 सच िन
 मृत ्यु
 गठ ित
 संस दीय
ह ल
ो ली
 ब ोर
 र कम
 ग ार
 ग ्रीन
 न िलंब
 न रेन्द्र
बी ते
 थाना ध्यक्ष
 आद र्श
 तेज स्वी
 उठा ने
सं घ
बार िश
 सहयोग ी
 सुझा व
 प ्
 रा वत
स्ट िक
 उप स्थिति
प् टर
 आश ्रम
 गी त
 रिस र्च
 टाइ गर
धिकार िक
 नर्स िंग
 सेंट ्रल
ट ाला
फ ाई
म िली
 ब ुरा
 न ै
 ध ु
 कप ड़े
िस्ट ल
 शुरुआ ती
 मूल ्य
 विपक्ष ी
 म धु
 ग ोरखपुर
 त ेंद
 प्र ार्थना
िस ी
 ख नन
 इ वेंट
 राज कीय
 बैठ कर
 प्रा चार्य
 रिश् वत
 गी ता
 एका दशी
 अफ्री का
क प
ब िज
 ज वा
 जा ये
 मु सलमान
बा ई
डी सी
 कै श
धी र
 बॉ र्डर
 ब्ल ैक
ह ्म
 प िक
ला ब
 ले न
 घ ंटों
की म
दा ई
वी य
 पी ड़िता
 सब ूत
 यू क्रेन
स्क ्यू
ध्या य
 इंस्ट ा
6 7
 है दराबाद
ते ज
 ट ेंडर
ढ़ े
मु ंबई
पू रे
 कार्यक्रम ों
 जोर दार
 व्यक्त ियों
 शास कीय
 ब्रे क
ब ॉ
 स च्च
ें गू
 ख त
 दे गी
वी ण
 चु न
पा ही
 एक्सप र्ट
 खी ंच
 गुणव त्ता
थ ियों
ब रा
ु दायिक
 क ं
 क नाडा
 स पोर्ट
 ब स्ती
 ग ये
 ले वल
 जु टा
 रो शन
फा इन
0 6
छ ो
व ्या
े गी
 व िस
 स् नान
 वि राट
्री ट
 लग ते
 ठ ा
 बढ़ ोतरी
वर् तमान
ूह िक
  v
7 8
 ज ज
 र िप
 कि ताब
 का ंड
 ए ंब
हा बाद
पुर म
र्म दा
्यू ज
 मांग ने
 ती र्थ
 आस ानी
 पूर्ण िमा
 पर्या प्त
P S
ख ास
ब ॉल
स ैन
 कि तने
जी पी
 द् वितीय
 जु ड़ा
an d
 कले क्शन
 सुविधा ओं
 रोज ाना
 विद्य ार्थी
 प्राथमिक ता
 छु ट्टी
 दश क
 सैन ्य
ट ्स
ड ि
 आ धा
 आ शा
 कर ण
ना एं
रा यपुर
 इस राइल
 नि प
 सि ंघ
ाप ्ति
 न्याय िक
 इमर जेंसी
द री
ल क
 म क
 र क्त
र् वे
 ने हरू
 टी वी
 सुर ेंद्र
 पॉ इंट
 अभिय ंता
 सौर भ
 न ंद
ना तन
 सा इकिल
 ड िली
 सं केत
 पुलिस कर्मी
स्त क
को ई
 बै टरी
पू र्
वल प
दो पहर
सु नी
 ढ ूं
 कॉलेज ों
 भे जे
र्में द्र
 पिट ाई
आ य
भ ाल
् शा
 को र्स
वा इ
िता भ
 ऐ तिहासिक
किस ानों
धु निक
 हरा या
जफ्फर पुर
 निर्द लीय
 अल्प संख्य
lec tion
ज िट
। '

 स ार
 ह िन्
 मु क्ति
पा वली
एम सी
 मा फी
 स्क ्रीन
 पीछ ा
 संस्थान ों
 फ्ल ैट
 पड़े गा
 अज मेर
 इक ट्
0 2
 अ रो
 व ास
 से न
 फ ेल
 फ ोर
 फ ंसा
 रा णा
 छ ठ
 शो भा
7 2
ए ड
ब ंद
ि णी
 श रण
 उ ल
क्ष र
 मह ंत
 भा गी
 अभ िन
 आई ं
 इन की
19 6
 मौजूद गी
 व्यव हार
 गंभीर ता
 सुविधा एं
 बहा दुर
 स्वच्छ ता
ई डी
 ग ि
 का ला
 ए ंटी
 यून ियन
 अब् दुल
a c
ं जी
क ेंद्र
 प ड़ी
 न ाले
 श ारीरिक
बी यत
 प्रे मी
 मार्ग दर्शन
वित ्र
द्योग िक
 तु म
भि षेक
 प्रदू षण
 स त्
 स र्ट
 प ृ
वि पक्ष
 मा त्र
 कम ांड
प् ले
 लोक तंत्र
 पो स्टर
 डे ढ़
 लौ टा
 मुख िया
 कॉन् स्टेबल
 सेक ेंड
 आजा द
भूम ि
 पायल ट
A P
स ें
 ब िर
 ल ड़क
 आ ग्रह
 मे घ
 अस्पताल ों
 चले गा
 प्रतिनि ध
 पट वारी
 दिव्या ंग
 प्रती क
o m
आ त
थ ुरा
प ाली
ॉ स
् की
न् नी
 सम न्व
 मु झ
वि टी
 अन ुरा
कि स्तानी
 मे ट्रो
 जी ती
 अव ॉर्ड
 आए गा
 लाल ू
 एक्ट िव
 खेत ों
 इंत जाम
 हिस ार
 घोट ाले
र स
र ेंस
 स ड़
 ल ड़ा
 आ धिकारिक
 ए शिया
 इ काई
 मे न
 काम या
ग् न
 मिला कर
 ऑफ िसर
 तला शी
 गल ती
 तीस रा
 समर् पित
 प िस्टल
 र थ
 आ लोक
 रह कर
 अन िवार
 ओ पन
 चला ई
 व्या पक
 जिन के
 क् वि
 भजन लाल
 वाय ु
 अ नेक
 श ोध
 ख न्ना
 बे हत
 साम ूहिक
 द् वार
 निक ाय
 हर कत
 संबंध ों
 खा द
 मना ई
 माध्य मिक
 डाल ने
 चा चा
 धारा ओं
 मोटर साइकिल
पूछ ताछ
5 9
r e
द ियों
ा ग
 न गरी
ां तर
 ए एसआई
ाय द
कि ट
टे क
 ओ पी
 प्रति पक्ष
 देश भर
उस का
 रे स्क्यू
 ची जों
 कट ौती
 मजद ूरी
 मेह ता
 संशोध न
 ज ानी
 र ंजन
 आ लो
 च ढ़
सा ई
 पी जी
 बि हारी
मो ह
 गर् ग
 रणनी ति
ध ारा
व िर
 भ ती
 स् वरूप
 सम क्ष
बी एस
 बि ंद
 बस ों
 तैयार ियां
 जून ियर
बच्च ों
 ट्रॉ फी
स ंध
 ब ंट
 अ थ
 प्र ोग्राम
ाम ु
 ब्र ांच
 ब्र िज
लि ंपिक
ह् वान
 सिक ्योरिटी
 अंब ानी
 इंस्टा ग्राम
0 7
 ज मी
 भ ाइयों
 ट र्म
ंच ाई
 दु ख
किस ान
 तु म्
C C
u s
ष िक
 न ाल
 आ ह्वान
 कार ्
 सी ख
क्ट र्स
 जु ड़
 कृ ष्णा
 राशि फल
वो केट
 तुल सी
 चंडी गढ़
 क्षति ग्रस्त
- दूसरे
प ान
प रा
 ह सीना
 श ह
डी आर
मे री
 जन जा
 ठ हरा
शि ष्ट
 धन ्य
 ज़ ्यादा
ानि स्तान
 स्कू टी
 परी क्षण
5 4
6 6
 क च्च
 ब रा
 ग ़
 त बीयत
 ख ड़े
 फ री
 वै श्विक
 सेवा एं
 बाल क
बां ग्लादेश
 प्रण ाली
ध ारी
श ान
ड़ ियां
 ख ंग
 फ ूड
 सा य
जी वन
 जाए ंगी
भाग ्य
ोर्ट ्स
 शा स्त्री
बे डकर
वर् ती
सो शल
 अंक ित
 अके ले
 सब् जी
 ढूं ढ
अ योध्या
 क ंगना
 ह ार्
 ब घ
 ग यी
र् प
 ने पाल
 प्र सिद्ध
से न
्त िक
 लि ंक
 गा ने
 चे न
 आग रा
y a
न ियां
ल ु
स माज
 साम ुदायिक
 उप करण
म् ब
 डि वा
 शे ड
 नौ कर
 बाजार ों
 प्रभा वी
- ग
P L
आ उट
ख ़
र ू
 ह स्त
िय ंस
 सं ज्ञान
 कार ्तिक
 समर्थ क
 शी र्ष
 प्रबंध क
 कुश वाहा
ड ोर
 भ ूल
 उ दा
्यू ब
सम य
ॉप र्टी
 दौ ड़
 मोह ल्ले
 अभ्यर्थ ी
 उत ारा
e d
ज ल्
त िया
श ियों
 को र
 भ ले
रा ष्ट्र
 सं ध्या
 पी टा
 हि मा
ट्र िक
 समर्थ कों
 चंद न
 स्पी कर
 स ॉ
 म ानी
र् जन
 एक त्र
आई एम
 स्व र्ण
 गोद ाम
  in
- जा
आ इए
े ड़
ो पुर
 द फ्त
 ए सी
 इ च्छा
द् वारा
 आई डी
 दुकान दार
 चाल ू
 तला क
ड्ड ू
 अनुर ोध
 प्रमो द
 जुल ूस
 फाउंड ेशन
ं टा
भ ु
 स् टी
 ड ेंगू
 इ जा
 सि पाही
वि देश
 सी ईओ
 बी मा
प्र शासन
 ऑ ड
 बु क
 गु स्सा
सु न
 दिखा ने
 कर् ज
 सिल ेंडर
 काउंस िल
इ ंग
ष भ
ह ु
ह ूर
 ग ड्ढ
 भ ोज
 प्र वीण
 अप मान
गे ड
 सर् च
 लड़ ने
न्न ई
 बें गलुरु
 इंग्ल ैंड
o k
 क न्या
 ह क
 ल व
 ग ज
 ए के
स्ट ल
 बना ते
 पा त्र
मे रा
 रे स्ट
19 5
 ढ ाई
 पौ ध
 मनो हर
 बेहत रीन
ट िया
प न्न
 से मी
वा ड़ी
शे खर
 गुप ्त
 ब्ल ड
 धी रे
 तकनी क
 तिर ंगा
 नारे बाजी
 स्म ृति
 तमिल नाडु
 सर्ट िफ
0 3
0 4
ट िल
न पुर
 म ित्र
ना मा
हा ँ
ंग ाना
 हु सैन
िम ंडल
 जन सभा
लो त
 व्याप ारियों
 जाल ंधर
 आंध ्र
जिस्ट ्रेट
 जख ्मी
 अनिवार ्य
म नी
 म ाला
 ह ंस
 ब ौ
 ब ैं
 ख ि
 ट न
 मह ान
 जीत कर
 फी चर्स
 वा स्तव
 ची नी
 शुभ काम
 पार्ट ियों
गिर फ्तार
 विजे ता
े र
ार ों
 ज िम
 आ भार
वा ड़
ंग ार
 फ ोक
 मना ने
 कला कार
 यूज र्स
-छात्रा ओं
- धीरे
ज म
ज ाल
ब ड़ी
स ास
ु ष
् हा
 स ारा
 म णि
 ब ांस
 ल िये
 का टने
ले स
 सम स्त
 नि शा
 कु त्
 अधिक ांश
 मे यर
ूल ाल
 ऑ र्डर
 चल ती
 भे जी
 चले गी
 कला कारों
 पढ़ ें
 पिछ ली
 ब्रि गेड
 हड़ ताल
अ धिकारियों
 क ुर
 ब िलासपुर
 ज ि
 आ ंगन
 श हरी
 उ ल्लेख
ाह ्मण
ेंट ्स
 चे हरा
 खे ली
 रिश्ते दार
 दृ ष्ट
 दरवा जा
 कलेक्ट ्रेट
 एंब ुल
न म
ब ्यू
 प वित्र
 ल क
 च ू
क् के
वि ंग
 ध र्मेंद्र
जे डी
 आप स
श्च िम
 आत ंकी
 सप ना
 सड़ कों
ब रेली
म ंत्र
ह ूं
ौ दा
ार गेट
 फ िट
 अध ्य
 ओ लिंपिक
 मा फिया
 आप ने
 प्रति ष्ठ
 चौ थे
 चौ टाला
 बन र्जी
 बॉ डी
अप नी
 डाल कर
 एज ेंस
 मिस ाइल
 फिल् में
सुप ्रीम
u l
त ू
प ्रे
ल ला
 ब ्ला
 र िल
 का ग
 य ौन
 ट ूर
 सु मित
 ला ई
 जो ड़
 पी ड़िता
 मा इ
ंट ल
 श्री लंका
 व्यक्ति गत
अमेर िका
 टेक्न ोलॉजी
 एंबुल ेंस
- श
9 5
त ः
म पुर
 क ड़ी
 म छ
 ह ेल
 ब ट
्र ु
 ज गत
 र ौ
 अ दा
 ग ला
ना श
 औ द्योगिक
 बा ब
 स् कीम
 सा व
 सा ढ़े
त् कार
 आप सी
 उठा कर
 जे पी
 बर सात
 मध्य म
 श्रद्ध ांजलि
 मोह ल्ला
 प्रेर णा
 मजदूर ों
 समझौ ता
 इंद िरा
1 12
I M
i c
ग ्रा
फ री
वि श्व
 प्रति दिन
 जन प्रतिनि
 इं सान
 इन में
 खा ता
 उपा ध्याय
 राव ण
 घे र
 भूप ेंद्र
उद यपुर
 धन्य वाद
 सर्टिफ िकेट
6 00
न ू
ड़ िया
 ग वर्
 ड ायल
 एक ता
 सम ृ
 पुलिस कर्मियों
 ला ए
 गिर ि
 बढ़ ते
 आलो चना
- 

इ ं
म ूल
र ूर
 ह ाइ
 र चना
 त ू
िक े
ां शु
 सि ख
ंच ल
 छ िपा
 स्ट ोर
 अत ्य
ऐ सी
ब ंदी
व ों
 म प्र
 न ॉ
 वि ज्ञ
 सा इड
 इ को
भा ई
 सी ल
 कै प
 सू त्रों
सम ्म
 प्रश ांत
सि स्ट
 अर्थ व्यवस्था
 बत ौर
- आ
ज ै
ट र्स
ब िर
ौ रा
 कि ंग
 आ सार
 प्र ॉपर्टी
 रा शन
 पह ना
 मो ड
वं शी
 मंत्र ियों
 हिंद ुओं
तल ब
 शुक् ल
रिए ंट
 गार ंटी
5 3
A S
द पुर
प ांच
म णि
 स ैंप
ला इट
 भी ल
 ट ारगेट
 ओ ल
प् पी
 I n
 आं ख
 मल िक
परी क्षा
नार ायण
 एडम िशन
  X
- फ
छ त्तीसगढ़
ब िल
 अ न्
 च ाय
वि दा
 छ ू
प्र ति
 अग ली
 पे य
 ब्र ह्म
 मि ठ
 संभाव ित
स्व ती
 स्वी कृति
 ख़ िला
 अमृत सर
 हिमा चल
- द
a p
ठ भ
् वर
 म र्डर
 भ गत
ती नों
 कार ा
वि भाग
िव े
 मो ड़
 पा ते
 पे ड़
जु ट
 आं खों
 इंजीनियर िंग
 स्मार्ट फोन
 इस्ल ाम
 खत रे
ध ेश
 ब जर
 ग ्लो
 ए व
सी म
जा गर
वे यर
 कम लेश
 अम िताभ
िरा ग
 खरी दा
ेश् वरी
 लंब ित
 मैनेज मेंट
 पिक अप
- र
6 8
ज िन्ह
त ियां
ू ली
ै ना
 स कारात्मक
 म जिस्ट्रेट
 प टा
 ज ं
वा णी
वार ्ड
 सा झे
मा व
 दर् शा
वं श
 चाह े
 घटना एं
 ई वी
 सुन ने
 हाथ ी
-प ास
 क्वि ंटल
इ ला
ब ली
ढ़ ी
 र तन
ान ंद
 आ ति
 भ ेंट
 सु मन
 स्थ िर
पू री
 चे किंग
 ब्र ांड
 खोल ने
 छोड़ कर
 सैक ड़ों
 ख़िला फ़
अ व
आ स
प ड़
भ ंगा
ढ़ े
 ल ैंड
ता कि
ना ती
 च ुरा
वा कर
वार े
 बी एस
सर कारी
 रो म
 प्रया गराज
स्ती पुर
 जिन की
 खो ला
 टा उन
 मुआव जा
 सराह ना
a sh
द ैनिक
 म दन
िया बाद
 बा बू
 जा हिर
 हु ड्डा
ति र
 ही ट
मे ड
 रे ड्डी
 मान ें
 करें गी
 लो केशन
 सुनी ता
 मश हूर
 बिग ड़
 निर स्त
 वार् ता
ख् ती
 बघ ेल
॥ 

 म य
 ब ्याज
 र िव
 ग िन
 सी तार
 अव गत
 शा स्त्र
एच सी
6 9
थ ल
 स क्
 प ंत
 प प्पू
ाय र्ड
जी लैंड
 हाल ांकि
 ढ ंग
 एड वोकेट
 पढ़ ाई
बुल ेंस
 दर्श कों
 निलंब ित
ओ वर
‌ टी
 स त्या
 को ट
 का यम
 त त्व
वा ए
 ख तर
 एक जुट
 ट ुक
कार िणी
 देख ना
जिस का
सल मेर
 क् वाल
 करी बी
 महाप ौर
स ्य
 ह स्ता
 ग ाइड
 श तक
 बा ज
 अन ंत
 सो म
 कृ पा
पूर्व क
 व् ही
 बहु मत
-अप ने
 अधिव क्ता
च रण
 ब ं
 ब ग
 कि ड
 ए टीएम
वा यर
पी ठ
ंड न
 सी धा
ढ़ ा
्यू टर
 टे बल
 कुल पति
 संद े
 निकाल कर
 मर म्म
en t
 नो एडा
 नेट वर्क
गौर तलब
 नक्सल ियों
 v s
 फोक स
0 8
आ ख
श र
 ल ुक
 अ त्या
 त ्या
ंग ाई
 फ ुल
स्ट ार
 बी कानेर
 झ टका
हम ारी
 निर्देश न
 वै ष्ण
 श्र ृ
 कीमत ों
 ऋ षि
अन ्य
ल गा
 ग ड़
 आ स्था
 भी म
बा इक
 बी बीसी
 बु किंग
 तै नाती
ग् वालियर
राम पुर
 ब्र ाह्मण
 आस मान
 सेवा ओं
 इंच ार्ज
 कच रा
 विन य
 डिली वरी
थ ्वी
प ्ल
प ेय
 म स
 अ जीत
 कि ये
 का ले
 फ ंदे
 पा किस्तानी
जार ा
आई सी
 समाज वादी
 स्प े
 लगे गा
तल ाम
 नक ली
 संसा धन
7 7
ं श
द य
ध ाना
 है रान
 अ ंदाज
 कर ंट
ड़ की
 इस को
 अनु सू
 नाम क
 आई एएस
 आम जन
विधान सभा
 बहा ने
 विभा गीय
 ठा करे
- दो
6 2
श ्र
 म ेल
 सि ंचाई
 बता ने
 मिल ेंगे
 पी ट
 हा े
क्षण िक
 बस पा
 डे वलप
ज़ र
 व्या स
 चाल कों
फ्र ेंड
 चतु र्थ
 अग् नि
 धोखाध ड़ी
जल् द
 शुभकाम नाएं
8 00
प ाई
् लाई
 ह ार्ट
 अ टल
 व िल
 आ ब
 भ ट्ट
 श रद
 च ंप
कर ार
 फ ाइ
क्ष म
ंड ों
 सु र्
वी प
हर ु
बा जार
10 8
वारा णसी
 निक ट
 महा वीर
 कप िल
 मि थ
 अर् चना
 चां द
 सौं पी
 दिग् गज
 पुण े
 जवा हर
संध ान
- त
u p
अ नु
इ यों
म ंड
श ्याम
ॉ निक
 स भाग
 अ श्
 का शी
 उ छ
 बा हरी
 फ ार्म
 ड ु
ाय ती
 सी कर
ंत ु
ंब ल
 ड्र ग
 बने गा
वेदन शील
 एज ेंट
दु कान
 उद य
 गे हूं
 नित िन
 फं से
  ₹
 ब ारी
 आ चार
री य
नी श
 दो स्ती
 दी पावली
मान स
दे र
 रवि ंद्र
 एम एम
 प्रयास ों
 लक्ष ्मण
at e
 फॉ र
 अट ैक
 तस्कर ों
 शब् द
 तिल क
 फर् स्ट
 दफ्त र
a j
ख ियों
ग ां
थ न
र िज
 क क्ष
 स िक्
 म वेश
 त ट
 सा स
 ड ्रेस
टर िंग
जी पुर
 छ त्तीसगढ़
िश ियल
 सर स्वती
 सो ल
 देख भाल
 दर बार
 क् ली
 निवेश कों
 फसल ों
 लं बा
 अनुरा ग
i on
ख ल
प ारा
प त्नी
श नी
ड़ मेर
 ह वाले
 र घु
 से शन
 श ्रा
 बै र
 कम ्
 बह नों
 शु द्ध
श्य प
 हटा या
 डा उन
-ज गह
 उत्तरा खंड
ख ार
म स
म ू
 व जन
 श ायद
ां गी
 दे सी
ार् पण
 जान ने
ंप रिक
 कम ला
 कह कर
 बढ़ ी
वान िव
 दा दा
ंक ू
 स्प ोर्ट्स
सू त्रों
 दिख े
 अंतर िम
 साइ ंस
 वीर ेंद्र
स्टी ट
 मरम्म त
1 10
 म रा
 ग िल
जे ल
सर ों
 हम लों
ाइ क
श्व र्या
 साह ित्य
 पड़ ोसी
िंद े
 लिख ी
 पकड़ ने
 जाय जा
 कस् बे
 मेर ठ
 सैंप ल
3 50
M P
ं व
ब िन
 ह सन
 ब चे
सी न
 मु ठभ
 अध ि
 प्रति बद्ध
 पै सों
 छा ए
 रे खा
सम िति
 बुला कर
 उत्पा द
इंड िया
 प्ला स्टिक
 कू द
 उड़ ान
स्थाप क
 भागी दारी
झ ाने
‍ स
 म द्
 ल टका
 वि रासत
ोग ी
 अध ्या
 बे रोज
 गां जा
 बै क
नि गम
 एस आई
 बो तल
ंस ल
 चाल ान
 हथियार ों
 गोल ियां
 मास ूम
 वार् षिक
 प्रोत्सा हित
ट कों
ह ै
ि विटी
‍ ह
 ज श्न
 र ॉ
 से ल्
क् टे
 थ ानों
शी ट
 गा ड़ियों
 शिव सेना
 पढ़ ने
ल्प ना
लोग ्राम
 प्रत्या शियों
 किश ोरी
 तारी फ
 गह लोत
मार् ग
 सैनिक ों
 कवि ता
 हार् दिक
6 4
8 8
आ गे
 भ य
 प्र ाप्ति
वा ड़ी
ले ख
 सु शील
 राज न
्त ार
 ऑ प
 बै च
 अनु संधान
 डि फ
 जिला धिकारी
 गु हार
कान पुर
 प्रो फ
 स्व स्थ
 पाए ंगे
 दिला ई
 प्रस्ता वित
 रिट ायर
 अभिय ुक्त
 झां सा
ab ha
T V
प ढ़
र ित
 को ल
 बा धा
 नि वास
 थी म
मी डिया
 परि स्थित
वाल ों
ंप र
 अं बेडकर
 पहुंचे गी
 टे ली
 फी ल्ड
 सर् जरी
 चीज ें
मध्य प्रदेश
 मक सद
ग ोपाल
प र्ड
म ंच
ो पण
 स स्प
 र वी
 र ियल
 व स्त
 च ोप
 ए म्
का उ
भा षा
 मे गा
 श्री कृष्ण
 करोड़ ों
मह ाराष्ट्र
 रज त
 लिख कर
 हिंद ु
ुल् हन
 दब िश
 राठ ौर
श ो
 स ख्ती
 वि स्
सी डेंट
न्ह ैया
 छ ि
 निर् भर
ोर ेंट
 एस सी
 डे ब्यू
 कल श
 माय के
 लल ित
7 6
h o
ल ॉ
स ंत
ो च्च
 श िंदे
स् ड
 प्र सार
 ए आई
 बा धित
िर ो
रे टर
 लग ती
 अभ य
धार ण
 उत् तरी
 तैय ारियों
 शिव राज
at h
परि जन
 उत रे
 सिया सी
  ‎
- वे
ं झ
ख ला
स ांस
ह ाना
् ट
 आ र्मी
स् को
ोग ्रा
 ट ैं
ंत्र िक
 कै प्
 डि टेल
 राम लला
 डी सी
यू वी
 पूछ े
 संत ुल
 पंड ाल
 निभा ई
 घुस कर
 डूब ने
7 00
C B
‌ डा
 स नातन
 ज हर
 कर ार
 श ॉर्ट
दी व
जा बी
 देख े
 बह ू
 आई टी
कु श
बे टी
 संग ्र
 बढ़ ाने
 पड़ ताल
 बेह ोश
 घूम ने
 अना ज
 उदा हरण
राष्ट्र पति
र ह
ै ली
 ब ्यू
 न र्मदा
 उ ड़ा
 फ र्म
 फ िज
रे ख
कार ियों
वि शेष
वी जन
 बी ती
 पहुंच ते
 रो हतक
 बढ़ त
 सफ ेद
यु वा
 सत र्क
 प्राथमिक ी
 बोल ने
 रिट र्न
 काट कर
हिंद ू
फाइन ल
A D
t er
ग ूस
ग ानिस्तान
द िया
ब ई
र ियल
 क ल्
ें च
 आ वेद
 वि राज
न् ड
 तो मर
ष् मान
 दि मा
पू रा
दे वी
 शा ही
ोह ित
 सर् दी
 छोड़ ने
महिला ओं
 खुल कर
 आजा दी
गूस राय
- बह
ए क्ट
क र्मा
च य
च ार्ज
न ॉ
 ह वाला
 र ंज
 ल हर
 अ सल
 कर नाल
ुल र
 छ ान
 बन ना
 वै से
 सांसद ों
 सिलस िला
 पेय जल
 ब ुर
 र िया
 ल ह
 को रिया
 ख ाल
 स् नात
रो ना
 स्थ ायी
 जु टे
 नाम जद
आई पी
राज धानी
नि री
 महा त्मा
 मन ोर
ंगा बाद
 करवा ए
 खेल ते
 एक्ट िंग
 नक दी
 दह शत
 सिंध िया
 ग्लो बल
 अश् लील
अ फ
र न
् न
 ब काया
 हो श
 स् क्
पी ड़ित
 दु श्म
 इं स्टीट
 ठ िक
 ई यर
 शिकायत ों
 शे ष
 वन डे
 चि ह्न
 लाइ व
 इज राइल
 अंग्रे जी
बद माश
 फते ह
 इकट् ठा
 ब्यू रो
N D
i v
द ित्य
फ ार्म
व कों
स् से
 प्र को
के ज
 ख िल
िन ल
 इ रा
 ले टर
वि वे
 सी ओ
 छ ेड़
श् चित
 कार्य कारिणी
 कॉ म
 यू रो
 कल र
 सेक ंड
िको ण
 सभाग ार
 मद् देन
क्टे यर
  c
अ खिल
घ ्र
ध ना
म ण
स ां
 प ित
 प ैनल
 र त्
 न शी
 फ ट
टी क
 इ मार
 मु द्रा
ंच ित
 मिल ना
 स्ट ोरी
 अग ु
 एस एसपी
 यू जर
 उम स
 अभि भाव
 अस ली
 बल्ले बाज
िके टर
 अनुसू चित
श ुरु
स पा
ॉ फ
 क ट्
 क श्यप
 म थुरा
स् पी
 फ ीड
भा स्कर
िव ानी
 स्थ लों
िप ्त
 मा या
िल् ला
आई जी
वन ि
 हत्या कांड
 डे ढ़
 जल स्तर
 आम िर
 बढ़ ने
 शि खर
 वृ द्ध
 कां स्टेबल
 स्पी ड
 तृ तीय
बिज ली
 प्रतिनिध ित्व
पेय ी
7 1
त ान
न क
न िश
व मेंट
 स क्षम
 द ्र
 द हन
र् धा
टी टी
नी तिक
 सा धा
 सी न
 सी आई
द् दा
श् चा
 मन ु
 पे मेंट
 पार ंपरिक
 विष यों
 संस्था ओं
 चढ़ ा
 शै क्षणिक
्रेड िट
 मुझ से
ड ोज
त ला
ो गा
 ग श्त
ता वरण
 आ धे
 बा इड
 सा ढ़े
 घ ी
 लोग ो
 वे द
 इन का
 उत् पी
 शे र
 ट्रे लर
बे टे
 गुरु ग्राम
 वा टर
 सर् वा
कृ ष्ट
ॉट ्स
 पार्ट नर
 तेल ंगाना
 दरवा जे
 अरो ड़ा
 पृ थ्वी
 ओल ंपिक
 विस् फोट
S S
् टी
 अ ंधे
 ग ू
 न हा
 आ धुनिक
न् नाथ
ास ा
 मह ंगाई
 ध मा
 ओ बीसी
 रे त
षा ध्यक्ष
 चरण ों
सुर क्षा
 चा वल
 जन्म दिन
 स्कू ली
 आतंक वाद
 समझौ ते
त ूस
स िव
 म ्यूज
 ब र्फ
 ग वाह
 कि लोग्राम
ले वा
 मह ारा
 चु ने
 बे ल
िका सी
ज् जर
 पु जारी
12 5
सि टी
 एन एच
on e
 चिकित्स क
 विश् ले
हरु ख
9 4
क िश
क ्यू
ग ंग
 अ सिस्ट
 च ेत
 हैं ड
िए ट
ुर ू
 ख ाम
 ड ेम
 सि खा
रे प
 कु ंड
कार ो
 नी ल
कर् ताओं
सं जय
 E lection
राइ ली
 प्रदर्श नी
 एजेंस ियों
 गिन ती
 संदे ह
क र्स
ू ती
 व ेल
र् चना
 उ द्य
 उ जागर
 रा खी
 खिला ड़ी
 कंप नियां
 श्र मिक
यु वती
 पूर्ण िया
 मुकद मे
 सिद्ध ार्थ
विक ास
 जबरद स्त
9 2
फ ार
स ूल
 अ मे
 आ फ
 आ राम
स् सी
 प्र ैक्ट
 ए डी
हा द
 ख ड़ी
से वी
 सं वेदनशील
 नि धि
ली म
 पू नम
 माम ा
 लग ाना
 ना टक
 नी म
 छो ड़ा
 अल वर
 एड िशन
 दृ ष्टि
 गार्ड न
 व् हा
 ऊंच ाई
 लड़क ियों
 कामया ब
 दृष्ट िकोण
 हस्ता क्षर
8 1
S O
अ धिक
थ ान
द ोष
ध र्म
 क टा
 स तना
 प न
 न ष्ट
के स
ले क्शन
नी ता
 ड बल
क्ष े
 नि श्चित
 कार तूस
जी ब
 माम ूली
धान िक
म् भ
 ट्र ायल
 एस टी
दे ख
 बैठ ी
 घटना क्रम
 सवाल ों
 दिल च
 एक् सीडेंट
 बें च
 लोह े
 मणि पुर
 साझे दारी
क ला
प ुल
व ैसे
ो ड
 स िल्
 म जा
 भ ्रमण
ाल न
ाल ्ड
 पर फॉ
 त थ
 श ार
 श र्त
की न
 ला कर
 कह ता
 कॉ पी
 सू चित
 ई श्वर
 खा तों
 टे क
राय ल
पु ट
 दह ेज
 निष् पक्ष
वार् टर
 अल्पसंख्य क
 आब कारी
ज ग
म ाना
स मार
 को य
 से वन
सी आर
का फी
 छ वि
ाह े
 बे ड
 सो या
एम एस
 बै ंड
 जु ड़ी
 चौ ंका
 अव काश
वासी य
नि वास
 प्रो सेस
 फ्र ंट
 संर क्षक
 पॉल िसी
स्वा स्थ्य
 छान बीन
 मद्देन जर
6 3
प ार
व ्
ि स्तान
 म ाली
 ज र्जर
 से वानिव
 कर ाना
वा इंट
िस ू
 ट ्वी
जा पुर
टे गरी
 जो ड़ी
 अधिक तर
 कै च
 रो शनी
 ता ज
 शिकायत ें
 प्रा चीन
 शिव म
 वा तावरण
 दिखा कर
 उम ेश
 अभि नेता
 बढ़ा या
 जबर न
 बीमार ियों
डीपी ओ
 सश क्त
 धूम धाम
श्चा त
I n
व िन्
 क मेंट
 ब ंसल
 अ न्न
 न िकासी
 श शि
 च ैनल
 रा घ
 ले ता
बा की
टे स्ट
ोट ल
 डॉ क्टर्स
 प्रति भाग
 स्ट ो
िल् का
 लोक प्रिय
 सुर ाग
 निर्देश ित
 S abha
 विश्व नाथ
 पुल िया
 प्लान िंग
 रिट ायर्ड
 परियोजना ओं
 पुन र्
शिक्ष ा
 नती जे
 आवं ट
 रेस्ट ोरेंट
 बजर ंग
 टैं कर
- सी
o d
भ ारी
श ुप
 क स
 ग र्व
 त प
क् कत
 ए जु
ेश नों
 वि शिष्ट
 मौ ल
ाज िल्का
ोज पुर
वर िया
 कार्य कारी
 दर् जा
 विक ्की
वान ों
 ई द
 शे खा
 पक ड़े
 दुकान ें
 बॉ य
 पार ित
 रिश् ता
 फ़ ै
 चोट ें
 हवा ओं
 रजिस्ट ्री
ोद िया
 बेट ियों
साइ टी
 विस र्जन
 खतर नाक
i g
ग ौ
ट र्न
श ांत
 ह िर
 में बर
 ग ढ़
 को ड
 श ोषण
 च िराग
 सी मित
 ध ्रु
बा जों
 बार ात
प्र दर्शन
 झ ुल
 डि स्प
 एस यूवी
19 4
 आर क्षक
 हे ल्प
िवार िक
 चंद्र शेखर
बच्च े
 परी क्ष
 चिकित्स कों
र्में स
 निरा करण
विर ोध
 सोल ंकी
ह ू
 क न्हैया
 क ्रेडिट
 स िस
 च िप
ोग ु
दा ता
 अन ूप
 बी ज
 मो हित
 निर् मा
 जान लेवा
मु ना
 अव स्था
 आज म
 फै मिली
 पद स्थ
 चे न्नई
सि र्फ
 सर् जन
 भे द
 बर करार
 लौ टे
दु र्
 गेंद बाजी
 थो ड़ी
 परिस्थित ियों
समार ोह
 ट्वी ट
: 

ऊ दी
व रेज
 अ ड्ड
 ग हरी
ना मी
 प्र धाना
 य हीं
ति थि
 ड ाली
बा बा
 निर् यात
 दिव ाली
 गैंग स्टर
 आयु ष
 प्री म
 लै ब
 इमर ान
 कठ िन
 उपभो क्ताओं
 इंस्टीट ्यूट
  i
. ॐ
9 7
उ क्त
ग ारी
ण ु
स ोन
 द ंप
 स् वि
ली ला
आर ती
ियम ित
 रिपोर्ट ्स
 पं जाबी
 दिख ी
-अ र्चना
 प्ल ॉट
 खूब सूर
 मुसलमान ों
 अध्य यन
सांस द
 दिमा ग
M C
ं जय
च ोर
ठ न
 म ित्त
 ह िट
 ब ड़
 ज द
 को षाध्यक्ष
गा ड़ी
 मु ना
 सी पी
 कार्य शाला
 मां झी
 सब को
 रूप ए
 पै माने
 नी ट
 परीक्षा ओं
 समस्या एं
भव ती
छा त्र
 शि वा
 तत् वा
 मश क्कत
 दिला या
आग रा
 आवंट ित
व ला
ि ंक
 म ल्
 व ंचित
 श र्म
क्ष ्मी
मार पीट
 परि चय
 सो साइटी
 कै सा
 क्र िकेटर
 सर् किल
 योग ेश
 वित रित
 इंटर नेट
फ़ ी
 श्रद्ध ा
 न्यू ज
 री वा
 पाठ ्य
 इलेक्ट्र ॉनिक
 इन् वेस्ट
 पशु ओं
 शौ चाल
 मंज िल
 मित्त ल
क भी
ग ंगा
ब ैक
स राय
 ग हरे
 श ैल
 च क
से क्स
 सा ई
 नि च
रो ड
द् म
 पा कर
 ऑ प्शन
 ठ ोस
 डि वीजन
 छा या
 डी ए
 केंद्र ित
 हॉ स्टल
मृत का
 अहम दाबाद
घर ों
 विद्यालय ों
 झू ठ
 चैंपियन शिप
 ग्राह कों
- ड
- मु
- रिक
8 3
ए यर
ठ ान
फ ै
ब नान
ै ग
 न ायक
 ख ड़ा
 फ ेज
 वि नेश
 य ूट
ाय ंस
मा त्र
को लकाता
 रख ता
 उत् कृष्ट
 विध ेय
ज़ ी
 दुकान दारों
 खेल ों
 खरी दारी
 कमी शन
 एल ान
 फ्ल ोर
 थो ड़ा
 हरी श
9 6
E D
r at
ज नी
फ ार्
 ब लों
 र नों
ान ्
क् क
ड़ न
 नि स्त
भा गीय
 सु धीर
 सी ए
 दी क्षित
मान ्य
 जन स
 क्र िया
 डी पी
 पुर ी
ज़ ार
 पत्र कारों
 विश्व कर्मा
 मि ड
 विस्त ृत
 जॉ ब
कृत िक
 बल्ले बाजी
 कुर् सी
 सुर् खियों
  {
8 7
E O
E T
प ोल
 व ाइ
 ख ्या
 एक ड़
 अप लोड
रो हित
ंध ा
 सो लर
 देख िए
 झ लक
 स्ट ेशनों
 सू त्र
 डि स्
ब् दी
ोध पुर
 भाग वत
वर् गीय
 सर् किट
 योग ्य
 श्र वण
एन एस
 लौ टने
ट्र ै
 धम का
दु निया
 आवा गमन
 आयु ष्मान
 पर्य टकों
 कैंप स
शिव िर
 अत ुल
 आंध ी
 आवं टन
लगा तार
B JP
P M
u m
ट ्रेन
म ूर्ति
ु णा
् वे
 व ाज
 ग त
िय ंत्रित
ेश र
सी ए
गा ज
ार् क
 अध ीन
 ध क्का
जे क्शन
पा ट
स्त ों
द्ध व
मु ई
क्रम ण
ष्ठ ी
 व्या व
 खबर ें
दूस रा
 डिप ार्टमेंट
 एके ड
 जं क्शन
 सस्प ेंड
 गू गल
3 70
A L
a i
e m
ग िल
 ह ाज
 आ वासीय
 का लेज
ड़ का
 सि ंगल
मी त
ष् टी
 पी एच
एम पी
ोर ेशन
 कै टेगरी
 ऐ श्वर्या
 ली ला
 चला ए
्रा ट
 मन मोहन
 ब्र ज
 आम ने
 अति थियों
 ज् वेल
घायल ों
 निर्म ित
 जू झ
 निप टने
-रिक ्शा
ं बा
र ियर
ि फिकेशन
 द ुल्हन
ों डा
 ग ाज
 त बाद
 प्र ज्वल
 ले ती
 पार् वती
 बह ाल
 गु लाब
 पु त्री
 रे स
 ई रानी
16 0
 बॉ न्ड
 धन बाद
 बच पन
 सिर सा
 स्वी कृत
 बोल ते
 तोड़ कर
 एम् बुलेंस
 असिस्ट ेंट
C P
इ ंडी
ऊ ंगा
ओ म
फ ोड़
 ह ड़
र् की
 आ र्
 श ू
 ए ग्री
 बा इ
 ड रा
 ड ाक
 दी ं
इन की
 काम ना
 एम एल
 जे ई
 सजा या
 शुभ म
 त्र ि
 फे स्ट
 गेंद ों
 संभ ल
 उपाय ुक्त
 मिठ ाई
 चतुर्थ ी
 उत्पी ड़न
 परफॉ र्मेंस
6 1
ऐ प
द िव
प िंग
ौ ड़
 के शव
 र िम
 र ैंक
ले न
 य ज्ञ
 सा वन
 घ न
 मो र
श् ती
 आप दा
 सब ्स
 चौ थी
 ट्रे ड
 टे स्
 पड़ ने
 ट्रेन ें
 K han
 फाय दे
 कां व
कॉ म
 आंक ड़ों
 दस्ता वे
 प्रतिबंध ित
 कारा वास
माव स्या
 सक् सेना
  ज़
ं थ
ध िका
ब ड़ी
भ ूत
 ग ायक
 च म
 फ ि
 रा इ
टी पी
 सि ंगर
रो इन
 कु चल
 मो ती
 कम ्यु
 बु निया
पाल िका
सम ंद
 जग न्नाथ
 कप ल
 बाल ू
 दौ ड़
 अधिकार ों
 कने क्ट
 निर्म ला
 माध ोपुर
 कठ ोर
 ओम प्रकाश
 अनुर ूप
 बरा बर
 बाब ूलाल
लेख क
  ख़
क िर
ख ेल
फ ्ल
ि स्टर
ौ त
ार िया
 न ाज
ता प
वार दात
 ड ोन
 ले पर्ड
 बि छ
 ट्र ेंड
दे ही
माण ु
 स्प ॉट
बि ना
िम्म त
 शी घ्र
पीएस सी
 शोर ूम
 हिन् दू
ड ो
त ह
न स
ब ैंक
र थ
ि ंस
। ।

 क ल्पना
 स वाई
 ह द
 ल ड्डू
 न ल
 त र्क
 थ प्
 सा इट
ंद गी
 इ ट
 सं स्थापक
ाय ुक्त
 सि द्दी
 अन ियंत्रित
बा ड़ी
 सो निया
 जी व
 दर् जनों
 कॉ म्
 झ ांसी
 स्ट ्रीट
प् ति
 गर् भवती
 R E
 चुनौ तियों
-च ां
 प्रोड क्ट
 बोली ं
 झग ड़ा
 आईपी एल
 आकर्ष क
ांतर ण
- रो
7 4
a h
ख ाना
ख िम
च ंडी
ड ु
प िन
ल ांग
 ह मास
 ब या
 ब गल
 में टेन
 र ित
 न ान
 श ॉप
 फ ेम
 हु ड्
 इ धर
 मिल ियन
 अभ ्यास
 बैठ ने
 चला ते
 रोड वेज
 पे रिस
 ढ ांच
 हे ली
 अफ वाह
 पेश े
 लड़ के
 प्रतिनि धियों
 आंक ड़े
 सेल िब
छो टे
 रक्त दान
 ईवी एम
 सत्या पन
ं जीत
भ क्त
 म ल्ल
 ब ंदर
 र िए
 र ेज
 अ ख
 अ द्
 ग ाना
 न ाइट
 आ त्मा
 भ ौ
 भ ैर
क् फ
ार् ग
पी ड़िता
 सि ंग
 वे रिएंट
 ई ंट
्रा ष्ट्रीय
 कप ड़े
 मही ना
 श्र म
 जे वर
 C C
 बचा या
 उपलब् धि
 सै म
-स ाम
 पुरुष ों
 बंध क
 शब् दों
 अक ाली
आय ोजन
डोज र
- गल
7 3
S I
ग ठ
ष ित
 आ भूषण
 फ ्लाई
गा ट
 ट ंकी
रो गा
जा ही
 छ िप
 मौ र्य
 कै मर
 करा कर
 प्रा कृतिक
 शव ों
 समझ ने
 जे ब
 हे क्टेयर
 दिखा ते
 बल ि
षा द
 अभि ने
 अंतर िक्ष
छा ड़
 ट्रांस पोर्ट
 बर् बाद
 सेक ्रेट
 निर ंतर
 बाय ो
 वर ुण
 भती जे
 वास्तव िक
काउ ंटर
  Y
आ इ
ख ोर
ग ृह
च ू
द याल
प िछ
म राह
स िर
स दर
 क ंटे
 स रा
 द त्त
र् भ
 च ाइ
 प्र स
हा त
से वा
का शी
रो ध
टा इ
 बै नर
 स्ट ॉक
प् पा
18 0
 जे व
 मजब ूती
 मॉ नि
 फाइन ेंस
 लु टे
 दब ंग
ानु सार
 काउंस लिंग
 ब्रि टेन
 बाला जी
 जनजा ति
 रंज िश
गंग ानगर
. .

म य
ि हार
 स ्रो
 भ गा
ाल ाल
 पर माणु
 श िश
 मु जफ्फरपुर
 झ ेल
ंट न
नि र्मा
 A I
 पार िवारिक
 रिक ार्ड
 M o
गु जा
 आवा जाही
 पार्षद ों
 राठ ौड़
 विशेषज्ञ ों
 फैला ने
 उपभो क्ता
 सच्च ाई
 समन्व य
ामु मो
 वैष्ण व
एक्ट ्रेस
 अगु वाई
 प्रतिभाग ियों
 विधेय क
- भ
t o
अ ध्यक्ष
अ मृत
ज ोधपुर
ण िक
ब ्रे
ि डी
 क वर
 ह ायर
 ज हाज
 व सूल
 न ज़र
ना इ
वा ड़
 सं स्कृत
त् सव
मा ही
 परि चाल
 खिला ड़ियों
जिस को
 क्र ॉस
 शेयर ों
 छात्रा वास
 खो ले
पंच ायत
 भू षण
हाई कोर्ट
 लीड र
 शेखा वत
8 2
क ूल
ब ड़
श ्रे
 म दर
 ब ला
 अ मावस्या
 व ंद
 भ िज
 त िरा
ाम क
ुल ्लाह
 सम ित
 ट ैंक
 सि फार
 छ िंद
 जो खिम
 अनु ज
ंट ू
 बन ेंगे
कु ंभ
पह ला
ोत् तम
 गेंद बाज
सब ुक
 हल् के
 ऋ षभ
 गृह मंत्री
 आयु र्
 टू टा
 जोड़ ने
 गह ने
 प्रारंभ िक
 शोभा यात्रा
 माइ क्र
पढ़ ें
  ?

द ्री
स ौर
ू नों
 स वारी
 म ल्टी
 ह िल
 र च
 बा ढ़
 नि ंदा
्रे सी
 साल ाना
 एम बी
-प त्नी
बू झ
 लॉ रेंस
 क्ल िक
 चंद ्रा
 गतिवि ध
ोद य
करीब न
 दोष ियों
 फॉ लो
 सुल ्तान
 प्रजा पति
 एजु केशन
 शौचाल य
अ दालत
प ूर
म िन
 क न्
 ह िम्मत
 द ंड
 अ खा
 च ैल
ही न
टी ओ
 ध ा
 बी त
 सो चा
 जी एसटी
 रो ष
 विक ्र
 ना व
 बढ़ ता
 गुरु द्वारा
 जल कर
 लाल च
 जे डी
शु दा
 वन ्य
 टै ग
 नक द
ट्ट ू
ग्रह ण
 शेड ्यूल
आस पास
 डिफ ेंस
 चोप ड़ा
ंझ ुन
 कैप् टन
क्षे प
 सिफार िश
- वि
8 4
इ ंटर
द मी
व ांस
ह ट
ि ंडा
े यर
 ग ंदगी
 आ धी
 ख िता
रा त्र
 इ नाम
 घ बरा
 मु फ्त
द् वार
 पी ढ़ी
 ग्र ो
 बन ती
ियो जन
 एम ्स
 माल दीव
 जिन का
 जय शंकर
 I PL
 लिख े
 गे स्ट
न्द ्रीय
 आर्य न
 दाय रे
 सैल री
 सॉ फ्ट
आख िर
 पाठ्य क्रम
- इ
- पी
ए प
त ूल
न ंद
म ानी
 क ्यू
 ह ां
 अ द
 व ाई
ान िया
 ने हा
 भ ां
ना यक
िया ला
 पह ने
ार् जुन
 सी धी
देश ालय
 चु प
 जो ड़ा
 पहले लेखक
 काम का
 बै ड
 डॉ ग
 करवा कर
 विजय वर्गीय
 R e
्मी कि
 गौ री
-स फाई
 सर्वे क्षण
 सूर त
 फूल ों
 सिद्दी की
ार्ग व
 CC TV
  s
4 50
ग र्मी
ध ू
य री
स िक
ॉ म
ो र्
‍ च
 ह ड़क
 ब स्तर
 ज र्म
 ज हरी
 द ाल
 व ेट
 च ित्त
ले श्वर
 वि वि
 सा क्ष्य
िव ल
ूर ाम
 थाना धिकारी
 आरोप ित
ूं कि
 मिली मीटर
 गा ड़ियां
 C BI
न्न त
 पड़ ता
 दक्षि णी
 श्रे य
 नक्स ली
 आकर् षण
 टो ला
 भरत पुर
 गर बा
 फरी दाबाद
 डिवा इस
 विज्ञ ापन
 स्नात क
 सेक्रेट री
- तीन
उ न्
ख ड़
ज मेर
द गी
प श्चिम
फ ायर
स िल
 प ेंट
 र तलाम
 ग ूं
 न ु
 कर ूंगा
 उ ड़
 च न्द्र
नी तीश
 पह िया
्त ानी
 अव तार
 नी तियों
 कंप ्यूटर
 बस ें
 सुना या
 पि च
 दीप िका
 प्लेट फार्म
 प्रभा त
 नती जों
ॉन् ग
 एकत्र ित
 स्टी ल
 सेवानिव ृ
फार् मर
 बुनिया दी
 RE AD
 हड़क ंप
  p
इ यां
भ राव
स नी
ो ला
 प श्चात
 ब र्थ
ना ई
िस ल
 ले ट
 कु एं
 अध िसू
 ध ारण
 परि चित
 काम ों
 गिर कर
 स्ट ार्ट
प् ताह
 ई मान
 क्र ू
14 0
 गर् ल
 दर भंगा
 मुख बिर
 कर् त
 एज ेंड
 जित ना
 मू वमेंट
 नो डल
 फो गाट
 मास िक
 तुम् ह
 संतुल न
 अड्ड े
AL SO
- न
7 9
G B
अ चानक
ऑ फ
क ूट
र ेंद्र
 प शुप
 ल हरा
 भ ार्गव
िए टर
 सा इन
 इ कल
 ले बनान
 रह मान
मा ष्टमी
रो वर
 सु प
 दो हरा
जन ता
द् वाज
खा ने
 पास पोर्ट
 दु बई
 कॉ लो
शे दपुर
 महा सभा
 डी ल
ंक न
मो बाइल
an a
 उठा ते
 अफ गानिस्तान
 गण पति
 रण जीत
 शी तल
 दम कल
 जला ने
 अंब ाला
 जाये गा
 ओपी डी
 ऑड िट
 सर्वा धिक
 प्रैक्ट िस
 गाज ियाबाद
o v
उ म्मीद
क िशन
ु सार
ॉ ग
ौ फ
 प ेज
 प ट्टी
 प ोषण
 ब से
 व स्त्र
 ग ाल
र् ति
 कि स्
 त ंज
 ए ह
ही र
 हैं डल
 बा ड़मेर
 ख रा
टी एस
 नि षाद
 घ ंटा
स्ट ेट
 छ ी
 पा टी
 अं श
 बु द्ध
 शा हरुख
 डी जीपी
न्न ति
 हॉ की
 लो ड
 न्यू जीलैंड
 धर ने
डर ेशन
 समझा या
डब्ल्यू डी
 पर्स नल
लु धियाना
 गड्ढ े
इंडी ज
m e
उ ज्जैन
ख िला
फ ्रा
ब ंग
ड़ ियां
 स िले
 र ंजीत
 अ स्त
 अ ंचल
 व ें
 व ैन
 व ंदे
 त ंत्र
 प्र ाइम
 प्र कृति
त्र ु
 वि दाई
सी ट
 कार ों
 लगा एं
 बै ल
 कम ाल
चार िक
िट िश
 एस एचओ
 उत् पन्न
उन से
 मुताबिक ़
 हमला वर
 रु के
 निकाल े
 E D
 कैं ट
बो र्ड
हमार ा
 झां की
 भो ले
डीआर एफ
सुन वाई
 अत्या चार
सिव िल
व ्र
स िम
े क्षा
 म ंद
 ल ख
 आ र्म
 श ोक
 उ र्
 वि ंग
सी सीटीवी
 राज मार्ग
 सर दार
 अनु दान
नि ज
ंस क
जो त
 डाल े
 चि ंत
 तरी का
 रण वीर
 वृ क्ष
 शांति पूर्ण
 किरा या
 चर म
-जा ने
 वंद ना
आ ं
थ ो
य ्य
ु ए
या द
 है रिस
 द ुर
 अ भाव
 न ारा
 से फ्टी
 थ र्ड
 स् ने
 वि विध
पी एफ
ाना पुर
दा श्त
 राज ेन्द्र
 टी आई
 गो स्वामी
 लोक ल
हन ु
an g
िंद ्रा
 गण ना
 प्ले यर
 निश ुल्क
 डाय व
खे ड़ा
 स्टे ज
 फ्र ांस
 गतिवि धि
 प्री ति
 चयन ित
 जॉ इन
 क्रम ांक
 सलाह कार
 बुल डोजर
id e
 प्रदर्श ित
 इश ारा
 मछ ली
 क्वाल िटी
 तत्वा वधान
आ ने
श क्ति
स र्व
ह ोर
 स ऊदी
 ह ृ
 ल ड़क
 ग म
 का स्ट
 त ्वर
 च मक
ड़ के
रे गा
वि श
वि श्वास
बा बू
 उप मुख्यमंत्री
 डि ब्
 स्क ॉ
राज नीतिक
धार ोपण
आर एस
 समाज सेवी
 भाग लपुर
 पक ड़े
 रन ौत
 ढ ेर
 मृत का
 लॉ क
 रि ंकू
 क् वार्टर
गु ज
र्न िंग
राज्य पाल
 तोड़ ने
 संभ ाला
 दब ो
 घे राव
 हिम ांशु
 इमार त
 सिल् वर
-गल ौज
  ष
9 3
e ath
इ न्हें
भ वन
स मा
स ड़क
ा ध्यक्ष
ॉ र
 स राय
 प िप
ने शन
 ब रेली
 द लाल
 अ टक
 त करीबन
 उ मर
 च ौर
 प्र ौ
 ड ैम
 इ म
 मु नि
 भार द्वाज
डी एफ
 सब के
 राम ायण
 पै लेस
 एस डीओ
ुत ोष
 जै सलमेर
 कप ्तानी
 भेज कर
 अर् ध
 रि हा
 सर्व ोच्च
 सहयोग ियों
 खुल ने
पो स्ट
 घोट ाला
 पथ राव
 पदार्थ ों
 ग्राह क
 तत्व ों
 डेवलप मेंट
 कम् प
निरी क्षण
 चिह्न ित
 निस्त ारण
-साम ने
 त्वर ित
- ट
- पा
9 1
9 00
A I
U P
h one
अ मित
क ब
ग ित
ट के
प र्स
 क मान
 ब वाल
 द रोगा
 की र्तन
 को रोना
 से हत
 श िल्
सी कर
 सम ्राट
 नि पट
 सी ने
 अन ियमित
 जान ता
 सह कारी
णा धीन
 गो वा
 खा कर
 एम डी
 वी जा
 पंचायत ों
ियार पुर
 त्र िवे
 अपराध ों
 दश हरा
वै धानिक
 मुह ैया
 तोड़ कर
 प्रोड क्शन
 अश्व िन
 इजा फा
 बया नों
 चैल ेंज
ंझुन ूं
I T
c h
i k
m a
ज ्योति
ठ िंडा
द क्षि
य ोजना
 प द्म
 ब ड़
 ग रज
 आ गमन
 भ ंग
 श ेट
 श क्त
 उ र
 थ म
 ए एसपी
्या ंकन
 ड कै
 दे नी
 घ टा
 दी न
 इला का
 रे व
 चला कर
 आर जेडी
 माल वीय
 संचाल कों
 एड वांस
कल न
 खास कर
 नव रात्रि
 समु द्र
 तोड़ फोड़
 हवा एं
 पर्य टक
साय टी
 उन् हीं
 तल वार
 सिलस िले
 आकर्ष ित
जम ्मू
 अमे ठी
 जद यू
 मॉनि टरिंग
  फ़
9 8
e sh
च िंग
त पुर
भ ान
स ंच
ौ नी
 ल टक
 ग हन
 च ैन
 च ाली
 च िन्
 स् क्र
 वि फल
 इ र
 एक मात्र
 नि देशालय
 सु द
को टा
 व्य स्त
 बच्च ियों
 नी ंद
शा ही
 डे ड
आज म
 परेशान ियों
 प्रकाश ित
 शरी फ
 खुल ी
इंड ियन
पै ठ
 इको नॉ
मेड िकल
विवे दी
 भेद भाव
 गतिविध ियां
 खिता ब
I A
प ड़
म ंद
स ले
 क ंस
 म स्क
 प त
ार स
ों ग
 आ पात
 त ारा
 श ाला
 प्र ांत
 ए थ
 जा पान
 दे हात
 नि वार
त् तियों
पी ड़िता
 मह ंगा
जन ल
 उप र
 झ ंडा
 रख ेंगे
ंस ू
योग ी
ट् टे
णी य
 भर कर
 आम ंत्रित
 C h
 पड़ ोस
 मंत्र िमंडल
 दू ल्
र्श ियल
 समी करण
 बंट वारे
 सेमी फाइनल
 रवी ंद्र
 ठिक ानों
किश ोर
 प्रस न्न
- डी
C M
ए आई
क ल्प
क ौन
ढ े
श ोक
ह ला
 ह ाइवे
ने श्वर
 ल ाना
 ल िप
 को हरा
 वि धिक
ष् कार
वे न्यू
 पा ता
 निर् माता
 जान कार
 बै टिंग
 मा इन
 मा दक
िट िकल
 बु लाई
 आई आईटी
 सौ भाग्य
 लड़ का
ंदा वन
in d
ौल पुर
 D ay
 उठ े
 मर ने
di a
 टूट ने
 प्ला जा
 चार्ज िंग
 स्ट्र ाइक
 अवि नाश
कप ्तान
बॉ लीवुड
 छेड़ छाड़
ॉट्स ऐप
 जेव रात
 परिचाल न
ए सी
ए गा
ग या
श ुल्क
स ह
 क स्ट
्र ार
 ज ोग
 द याल
 भ व
 च र्च
ाम े
वा यु
 जा ग
 एक ड़
 सम स्तीपुर
 सि ग्
जा ज
्त ों
 पहुंच ेंगे
 बे ल्ट
मे न
 बि ता
 यु ग
 द् विवेदी
 गो वंश
 आई जी
प् ट
 शा तिर
 ई स्ट
 मी रा
 यू जी
 स्प िन
वर् तन
 एन काउंटर
मत ौर
जु ए
 जे सीबी
 बढ़ ी
 रिक ्त
 निकल कर
इड र
 वार ंट
छा त्रों
 खबर ों
 पाए गा
 लड़ ाई
 ट्रांस फार्मर
 बर् दाश्त
 U p
 साध क
 नगरी य
 हस्त क्षेप
 निशा ने
 विराज मान
 मेंटेन ेंस
 कैमर ों
निर्मा ण
H O
क ित
ख ्ता
र ांची
स हाय
ड़ ने
 द ोगु
 ल ंदन
 ल घु
 अ ख्त
 व क्फ
 न ाला
 से ठ
 आ ध्या
 पर ेड
हा दसा
 फ िसल
नी वाल
से वक
 इ लेक्शन
 बता कर
हर ाम
वर ि
को तवाली
एस एल
 सह ारा
 अभ द्र
 ता जा
 बु लेट
लग भग
 लि फ्ट
 बंद ूक
 पे न
 बने गी
 रण बीर
द्योग िकी
 पट री
भू ति
 सिद्ध ांत
 इज रायल
 घट कर
अमेर िकी
 डू ंगर
सें जर
‍ह ोंने
- बा
ग ार्ड
च ाहे
ढ ा
य ून
व र्ड
ु ट
ड़ की
 क ूल
 के यर
 र सो
र् चे
 आ ैर
िक रण
क् ल
 प्र संग
के जरीवाल
टी न
की लों
 ही रो
 मु ंडा
 छ ेड़
ांच ल
 झ ील
 रख ती
 बु झाने
 आर के
ांड ा
मेर ठ
 भग वंत
 जल भराव
 बर सा
फे यर
 मॉ ड
 विचार धारा
 मेह मान
 नाय डू
साइ बर
 बैं कों
 समृ द्धि
 गड़ बड़ी
 चौंका ने
 सिस ोदिया
 वाज पेयी
 दस्तावे जों
- घर
क ल्
ग ़
ग मेंट
ण ्
द िशा
फ ुल
ब ान
 क ट्टा
 स वा
 द ांव
 ल ता
 ख ट
 ड ोर
 कार ्म
 कु शल
 बता ती
पुर ुष
स्त ौल
 बना ता
 ऑ डियो
 कॉ रि
्यू शन
क्स ो
उस में
 फै शन
 पानी पत
यू ष
 P ro
 जन् माष्टमी
डे जा
 फे सबुक
 धर ती
 बंध न
 चंडी गढ़
 पुण ्य
प्ताह िक
- ह
अ ं
श िंग
ो हर
 म ूर्
 ह ौ
 के वी
या म
 ग ड़
र् वा
 फ ार
 वि वरण
 घ ो
कार ्रवाई
 सी एचसी
ल् ली
हर सा
 देख रेख
पू जा
कु मारी
 डी सीपी
 दा दरी
ख्या त
 योजना एं
 सके गी
 N DA
ुरा दाबाद
 गी तों
 पीड़ित ों
 खंड वा
िक्र मा
 बूथ ों
 भरो से
 पहा ड़ी
 भंड ार
 जिम ्
 कुत् ते
 उद्य म
 अभिने त्री
  n
u t
आ वेदन
उ ंस
ख ो
ी करण
 प च
 का टा
 श ाल
 श ्वे
 उ ग्र
 च चे
 च िल्ला
 स् मार
टी ए
गी रों
रो ल
जी न
 अन दे
 बि ख
 इं टेल
दर् शी
 डे यरी
 बां ट
ष्ठ ान
 A AP
 सें सेक्स
दु र्ग
 वार्ड ों
 ऋ ण
कॉ लेज
बुल ्लाह
 गरीब ों
स्थाप ित
र्त ित
 फुट बॉल
 जबरद स्ती
PS C
 मेघ वाल
 मय ंक
 डोन ाल्ड
 कॉरि डोर
u d
ं ठ
क ाय
ग ै
च ोरी
व िन
 ग ्रेड
 न ू
 न ॉन
 से गमेंट
ता ंत्रिक
 का लोनी
ना ग
 स् ल
से ट
 ड ंपर
 नि खिल
 घ ात
की पर
मा वत
 कु ंभ
ोक ्रेट
प्र थम
 नाम ों
 करा ते
 गा ड़ियों
 शिव पुरी
 जीत ू
 बस ंत
 व्या ख्या
 सित म्बर
 राय बरेली
 मू ंग
जिन में
प्रे म
 काग जात
 अग्नि वीर
 प्रोफ ेशन
 मजा क
गुज रात
" ,
i a
क ह
ह ेल
 म ियां
 प िला
 द ाह
 अ नीता
र् चित
 ख ां
 य मुना
सी आई
गा ई
 मु र्म
ुप योग
प्र या
 वर् दी
 कै ल
िका पुर
 गो प
 राम ा
बह ुत
 राज्य मंत्री
 वा इस
िस्ट ्री
 बॉ स
 सड़क ें
 शि ना
 ज़ रूर
गो ली
 जित ने
 स्टा इल
es t
 कब ूल
 घुस पैठ
प्रत ियोगिता
 झू ठे
 संगी ता
न्व यन
 धार दार
 दाय ित्व
ौड़ गढ़
 जनप्रतिनि धियों
 अत्य ंत
 नहा ने
 झुल स
 निर्मा णाधीन
वरि ष्ठ
U V
अ ति
अ शोक
इ न्
च िक
ड म
ण वी
म िया
य िक
य र्स
 क तार
 ह त
ना ंद
 श िल
 च ारा
 प्र ेशर
ले शन
 जा ओ
 ख ुर
 ख ाई
 फ ैन
 मह ल
बा त
स्थ ी
 बे गूसराय
 स्थ गित
 जान वरों
 द् वीप
 रख वाया
 पै केट
प् पल
भाव ना
 ऑफ ़
-प ु
 हे रोइन
 सचिव ालय
 रु चि
 संद र्भ
चु अल
 पौ धारोपण
 पि स्तौल
ब्र िज
 गैंग रेप
 बांध कर
 आंक ड़ा
सीबी आई
 उतर ने
 नियंत्र ित
 हिस्से दारी
निर् देश
 ठग ों
 पौध ों
 प्रतिष्ठ ित
 रिल ेशन
जिन्ह ें
 मुठभ ेड़
 एडिशन ल
 एकेड मी
 बला त्कार
 प्रौ द्योगिकी
  m
- फान
ग ोल
द िल
ब ानी
ब र्ग
ब िलासपुर
श राब
श ियल
स मी
 स रोज
 प ठान
 ब ची
 र िश
 को ठी
 त र्ज
क् ले
 जा वेद
 रा ख
क्र ा
 सो सायटी
 पा प
स्प ति
 रू सी
 झ ामुमो
 विक ्रे
 मै रिज
ंब े
 सुन ते
 फी चर
 पुर ा
 दिख ने
 उपल क्ष्य
 लड़ ने
 पड़ ताल
िड ेंट
 उत्पा दों
 खोल कर
मि थ
बच्च ी
 पुष् पा
 निर्म ल
-प्र ति
 पहन कर
 ठहरा या
 गवर् न
 शिवा जी
 मल्ल िक
 आयुर् वेद
 एह सास
 हृ दय
eath er
  f
अ म
अ ंत
अ जमेर
ए गी
ऑ न
ख बर
छ ाप
 प ला
 ज ेट
 आ लिया
 भ िवानी
 उ तरी
ंग त
रा उंड
का स्ट
 ट कर
 रो ह
 बु मराह
 डि स्क
 प्रदेश ाध्यक्ष
 छा पा
 मान क
 शिक्ष िका
तम ंद
बल ू
 एम एस
 मार्ग ों
 आश ुतोष
 ति माही
 फ्र ॉड
 प्रि ंट
 पहल ुओं
परी त
 क़ ान
 इक बाल
कां क्षा
एक्स प
 आक्रोश ित
‍त ान
र्वे दी
 सत् संग
ग्रा उंड
 त्या ग
ोर् टर
 शेट ्टी
-फान न
o t
ग ं
ज ्यादा
ट क्कर
ण िज
द ौ
न िस
ब ्स
स ेंट
ू ंगी
ॉ र्क
ौ री
 म च्छ
या चिका
 व ां
 भ ंवर
 सा क्षी
ाय न
 दे वास
 अप ार्टमेंट
रो हतक
दी न
 वाल ्मीकि
 सु चार
हर ि
ष् म
कि म
बी च
 ऑ यल
 जन गणना
 शिक्ष ण
 दा दी
 आदि वासियों
 नौ सेना
 फा स्ट
उंड ्री
 संत ु
 नोट िफिकेशन
 घु से
 मूल ्यांकन
 पोल िंग
 काउ ंटर
स्ट्र क्चर
 साध ना
 चतु र्वेदी
 जाट व
 पर् ची
अव ैध
 स्पे स
 ड्रग ्स
 म्यूज िक
 डिस्प ्ले
 हेल्प लाइन
 पाटी दार
 इंटेल िज
  ।
1 30
S T
a g
e e
o f
अ ली
घ ोष
ज ून
ण ाल
ण मूल
थ ुर
ब ूत
म रा
स रा
ह ार्
ै नी
 म ॉल
 न ड्डा
ान ्य
 से रे
ुर ाम
 फ ार्
 वि पिन
 रा उ
 सी मेंट
दा ताओं
 दी दी
 ध ूल
वे व
 मे जब
 पा उ
 पा पा
प्र साद
 सरकार ों
ाइ जी
 बु खार
 बन ता
 पै केज
 लि हाज
 प्रश ंसा
 श्री म
मिक ल
 पुर ोहित
 हमला वरों
 मि र्जा
 बढ़ा कर
 अंतर ्राष्ट्रीय
 धम क
 मॉ र्च
 E V
 मालिक ों
ैंस िल
 वाय नाड
 क़ रीब
 खोज बीन
 बौ द्ध
 श्रृ ंगार
मानस ून
 अधि ग्रहण
 रत् न
 ध्रु व
 हड़ ताल
 शू टर
 फेस्ट िवल
 घन श्याम
श्रे ष्ठ
 किस् मत
हनु मान
 अख्त र
नांद गांव
अ भिषेक
ग ुल
द ंड
भ जन
म ्र
स ड़क
 क ंड
 क न्न
 ज ां
 से क्शन
 च िर
 प्र कट
 सं पूर्ण
 सम ग्र
 ट ु
 सु ध
 मह ानगर
 मिल न
 सर ेंडर
 जी ंद
 बि ट्टू
 कम र
 कम रा
