{"\n":0," ":1,"!":2,"\"":3,"#":4,"$":5,"%":6,"&":7,"'":8,"(":9,")":10,"*":11,"+":12,",":13,"-":14,".":15,"/":16,"0":17,"1":18,"2":19,"3":20,"4":21,"5":22,"6":23,"7":24,"8":25,"9":26,":":27,";":28,"=":29,">":30,"?":31,"@":32,"A":33,"B":34,"C":35,"D":36,"E":37,"F":38,"G":39,"H":40,"I":41,"J":42,"K":43,"L":44,"M":45,"N":46,"O":47,"P":48,"Q":49,"R":50,"S":51,"T":52,"U":53,"V":54,"W":55,"X":56,"Y":57,"Z":58,"[":59,"\\":60,"]":61,"^":62,"_":63,"a":64,"b":65,"c":66,"d":67,"e":68,"f":69,"g":70,"h":71,"i":72,"j":73,"k":74,"l":75,"m":76,"n":77,"o":78,"p":79,"q":80,"r":81,"s":82,"t":83,"u":84,"v":85,"w":86,"x":87,"y":88,"z":89,"{":90,"}":91,"~":92,"£":93,"¨":94,"­":95,"°":96,"²":97,"·":98,"º":99,"½":100,"×":101,"ï":102,"ँ":103,"ं":104,"ः":105,"अ":106,"आ":107,"इ":108,"ई":109,"उ":110,"ऊ":111,"ऋ":112,"ऍ":113,"ए":114,"ऐ":115,"ऑ":116,"ओ":117,"औ":118,"क":119,"ख":120,"ग":121,"घ":122,"ङ":123,"च":124,"छ":125,"ज":126,"झ":127,"ञ":128,"ट":129,"ठ":130,"ड":131,"ढ":132,"ण":133,"त":134,"थ":135,"द":136,"ध":137,"न":138,"ऩ":139,"प":140,"फ":141,"ब":142,"भ":143,"म":144,"य":145,"र":146,"ऱ":147,"ल":148,"ळ":149,"व":150,"श":151,"ष":152,"स":153,"ह":154,"़":155,"ऽ":156,"ा":157,"ि":158,"ी":159,"ु":160,"ू":161,"ृ":162,"ॅ":163,"ॆ":164,"े":165,"ै":166,"ॉ":167,"ॊ":168,"ो":169,"ौ":170,"्":171,"ॐ":172,"॑":173,"क़":174,"ख़":175,"ग़":176,"ज़":177,"ड़":178,"ढ़":179,"फ़":180,"य़":181,"ॠ":182,"।":183,"॥":184,"०":185,"१":186,"२":187,"३":188,"४":189,"५":190,"६":191,"८":192,"९":193,"॰":194,"ঁ":195,"অ":196,"আ":197,"ই":198,"এ":199,"ও":200,"ক":201,"খ":202,"ঘ":203,"চ":204,"ছ":205,"জ":206,"ট":207,"ঠ":208,"ড":209,"ণ":210,"ত":211,"দ":212,"ধ":213,"ন":214,"প":215,"ব":216,"ম":217,"য":218,"র":219,"ল":220,"ষ":221,"স":222,"়":223,"া":224,"ি":225,"ী":226,"ু":227,"ে":228,"ো":229,"্":230,"ઢ":231,"ం":232,"ఇ":233,"క":234,"గ":235,"చ":236,"ఛ":237,"జ":238,"ట":239,"డ":240,"ణ":241,"త":242,"థ":243,"ద":244,"న":245,"ప":246,"ఫ":247,"బ":248,"భ":249,"ర":250,"ల":251,"వ":252,"శ":253,"స":254,"ా":255,"ి":256,"ీ":257,"ు":258,"ూ":259,"ె":260,"ే":261,"ొ":262,"ో":263,"్":264,"‌":265,"‍":266,"‎":267,"‛":268,"•":269,"⁠":270,"€":271,"₹":272,"℃":273,"⏩":274,"⏱":275,"▪":276,"○":277,"●":278,"☀":279,"♈":280,"♉":281,"♊":282,"♋":283,"♌":284,"♍":285,"♏":286,"♐":287,"♑":288,"♒":289,"♓":290,"♦":291,"⚠":292,"⚫":293,"❓":294,"❗":295,"➤":296,"⭐":297,"":298,"️":299,"𝐀":300,"𝐃":301,"𝐍":302,"𝟎":303,"𝟏":304,"𝟐":305,"𝟑":306,"𝟒":307,"𝟕":308,"𝟖":309,"𝟗":310,"🇮":311,"🇳":312,"🌅":313,"🌙":314,"🌟":315,"🎉":316,"🏅":317,"🏹":318,"🐉":319,"💫":320,"🔴":321,"🔵":322,"🕐":323,"🗓":324,"😉":325,"😎":326,"😜":327,"😸":328,"🤔":329,"🤩":330,"🦌":331,"🧭":332,"🪐":333," क":334," स":335," म":336," ह":337," प":338,"।\n":339,"ार":340,"ें":341,"ने":342," के":343," ब":344,"्र":345,"या":346," में":347," है":348," ज":349," द":350," र":351," ल":352," की":353,"ों":354," अ":355," व":356," ग":357,"र्":358," को":359," न":360,"ान":361," से":362," कि":363,"ता":364," ने":365," आ":366," का":367," कर":368," भ":369,"ाल":370," पर":371," त":372,"ना":373,"िक":374,"्य":375,"िल":376," श":377," उ":378," औ":379,"स्":380," और":381," च":382,"क्":383," थ":384,"ां":385," प्र":386," ए":387,"इस":388,"ाम":389,"ही":390,"िया":391," हो":392,"वा":393,"ित":394,"के":395,"हा":396,"ला":397,"कर":398,"ले":399," हैं":400," बा":401,"िय":402,"िस":403,"ड़":404,"िए":405,"ुर":406," भी":407," जा":408,"ंग":409," ख":410,"ते":411," फ":412,"त्र":413,"रा":414,"ेश":415," स्":416," वि":417," य":418,"री":419,"िन":420,"ारी":421,"ती":422,"हीं":423," रा":424," हु":425,"ुल":426,"टी":427," किया":428,"्या":429,"सी":430,"नी":431,"वार":432,"गा":433,"ति":434,"से":435," सा":436," लिए":437," ड":438,"ंद":439,"न्":440," इ":441," गया":442," था":443," एक":444,"क्ष":445," पह":446," सं":447,"ोग":448," ले":449," नहीं":450," सम":451," रह":452,"ाय":453," दे":454," इस":455," नि":456,"का":457,"िला":458," घ":459," कार":460," ट":461," अप":462,"ली":463,"की":464," ही":465,"ियों":466," बाद":467,"भा":468,"त्":469,"ार्":470,"पी":471," सि":472," मु":473,"मा":474,"ंड":475,"ास":476,"िर":477,"ुलिस":478," गई":479,"न्ह":480,"गी":481," कहा":482," साथ":483,"सा":484," करने":485,"टर":486,"रो":487,"रे":488," कु":489,"दी":490," पू":491," बता":492,"ंच":493," रहे":494," थी":495," दिया":496,"्री":497," तो":498," अध":499," वाल":500,"मी":501," सु":502,"कार":503,"ाना":504,"्रे":505,"पुर":506,"वि":507,"20":508," लोग":509,"ौर":510,"स्ट":511,"जी":512," सी":513,"जा":514,"ल्":515," तक":516," रहा":517,"दा":518,"में":519," दो":520," छ":521," पुलिस":522,"वी":523,"भी":524,"गे":525,"देश":526,"हर":527," अन":528,"ष्":529," दी":530," हुए":531," मह":532," ला":533," बताया":534," मिल":535," चु":536,"गर":537,"िश":538," राज":539,"ंह":540," ध":541,"कि":542," रही":543," उन":544," थे":545," उस":546,"ंत्र":547,"्त":548,"बा":549,"्ष":550,".\n":551,"ानी":552,"हां":553,"टे":554," या":555," मौ":556,"जन":557," बार":558,"ाई":559,"शन":560,"ओं":561,"ोंने":562,"जे":563,"ाह":564,"बर":565,"िव":566,"ढ़":567," सिंह":568,"पा":569,"न्होंने":570,"स्थ":571," (":572," लगा":573," गए":574," बी":575,"मार":576,"र्ट":577,"वे":578,"ुप":579," जाए":580," पहु":581,"स्त":582,"िंग":583," पहुंच":584,"द्":585," लेकर":586," सर":587,"द्र":588," दिन":589,"्म":590,"च्":591," बे":592," बना":593," मो":594," स्थ":595," जो":596,"नों":597," अधिक":598,"ैं":599," पहले":600,"ाज":601,"किन":602," हुई":603,"क्र":604," लोगों":605," अपने":606,"ंत्री":607,"ेल":608," आरो":609,"श्":610," माम":611,"ोज":612," मे":613," दौर":614,"ोक":615,"वर":616," साल":617,"खा":618,"र्म":619," यह":620,"टा":621," होने":622,"ंध":623," कार्य":624," सक":625," वाले":626,"इसके":627," दौरान":628,"ांच":629,"तर":630," भार":631," टी":632," क्ष":633," परि":634,"डी":635,"मान":636," सो":637," जी":638,"वाल":639," हुआ":640,"बी":641,"नाव":642," पा":643," गां":644," पी":645," ओ":646,"इन":647,"को":648," दर्":649," साम":650," तर":651,"धान":652,"प्र":653,"्रेस":654," वर्":655," निर्":656," जान":657," बात":658,"ेत्र":659,"ड़ी":660,"एम":661," जिस":662,"ूल":663,"कारी":664,"मे":665," करते":666," रुप":667,"र्व":668,"ाप":669,"टना":670,"च्च":671,"ूर":672,"वं":673,"सर":674," शुर":675,"ेंद्र":676," मां":677,"ष्ट":678," कुमार":679,"िप":680," क्षेत्र":681," शाम":682,"ड़ा":683," घर":684," बि":685," उप":686,"एस":687," हम":688,"10":689,"उन्होंने":690," सरकार":691,"ोट":692," शिक":693,"ंप":694,"कों":695,"्स":696,"स्प":697,"ेट":698," आय":699,"ून":700," काम":701,"क्षा":702," रू":703," ऑ":704,"202":705,"ीन":706," चुनाव":707,"क्त":708," यु":709," लिया":710," बै":711,"ोर":712,"्ल":713,"ोल":714," वह":715," मा":716,"वाई":717," द्":718,"क्ट":719,"जार":720," जब":721," पार्":722," अं":723," कम":724,"क्टर":725,"वारा":726," पास":727,"सभा":728," लेकिन":729,"िता":730,"िम":731," कह":732,"भाग":733," कै":734," अनु":735,"ूस":736,"चार":737," डॉ":738," चल":739,"ाइ":740," आप":741," महिला":742," सभी":743,"न्हें":744," दु":745,"ेंगे":746," प्रति":747," कई":748," जु":749," कुछ":750," सब":751,"शी":752," कॉ":753,"पर":754," थाना":755,"िका":756," गिर":757,"िट":758," गांव":759," कोई":760," द्वारा":761,"बंध":762,"्यक्ष":763," अब":764," रो":765," सह":766," व्य":767," नाम":768," टीम":769,"ारा":770," चौ":771," शुरू":772,"र्स":773,"ताल":774,"म्":775," खिला":776," देख":777," समय":778,"ख्य":779,"द्ध":780," भा":781," अपनी":782,"ैन":783,"्यू":784," झ":785," निक":786,"णा":787," हर":788," ऐ":789," बह":790,"यर":791," मामले":792," ग्र":793," जन":794,"मु":795,"ृत":796," दर्ज":797," बजे":798," लग":799," स्ट":800,"ये":801," सू":802,"चा":803," रुपए":804,"मंत्री":805," चाह":806," ट्र":807,"िल्":808,"ीड":809,"जिस":810," विक":811," बच्च":812," हि":813,"जर":814," भारत":815," उनके":816,"ंबर":817," आरोप":818," इं":819," रूप":820,"यह":821," रख":822," तरह":823,"िले":824,"फ्त":825,"आई":826,"्यों":827," अव":828," वे":829,"ड़े":830,"ायत":831," विभाग":832," अभ":833," ठ":834," ना":835," ता":836," मै":837," बीच":838," उन्हें":839," हा":840," बु":841,"दार":842," गो":843,"जू":844,"क्स":845," ये":846,"वन":847," जांच":848," कांग":849," शामिल":850,"वहीं":851,"ेज":852,"त्या":853," लाख":854," किसी":855," बढ़":856,"ंट":857," स्थित":858,"चना":859,"लय":860,"पुलिस":861,"ोर्ट":862," दि":863," एवं":864,"ज्":865," डि":866," कांग्रेस":867," आई":868," देश":869," बन":870,"एं":871," स्क":872," जिला":873," राम":874,"स्पताल":875," होगा":876," करा":877," जाएगा":878," इन":879,"ाली":880,"पू":881,"ाला":882," पै":883," उन्होंने":884," किए":885," गु":886," '":887,"र्ड":888," अग":889," युव":890,"वान":891,"राज":892,"ीब":893,"प्":894,"वासी":895,"दान":896,"बह":897,"क्रम":898," तै":899," खिलाफ":900," \"":901,"ेशन":902," बद":903,"्यादा":904," जारी":905,"जब":906," प्रदेश":907," कारण":908,"ुरु":909," जाने":910,"जय":911,"ेंट":912," खु":913,"धार":914," अस्पताल":915,"ांस":916,"ियां":917,"नि":918,"हार":919," पु":920," मुख्य":921," दोनों":922," इला":923,"फी":924,"हत":925,"धी":926,"हाल":927," याद":928,"उस":929," नगर":930," अन्य":931," एस":932,"क्ति":933,"दे":934,"सार":935," छा":936," लोक":937,"र्थ":938," जानकारी":939," पार्टी":940," सीट":941," सुर":942," वाली":943,"ंदिर":944," आरोपी":945," नेता":946,"पाल":947," ज्यादा":948,"तीय":949," उसे":950,"सान":951,"त्रा":952,"लो":953," ओर":954," आए":955," करना":956," जाता":957,"्यालय":958," बैठ":959,"्रवाई":960," अध्यक्ष":961,"ोड़":962," सद":963,"50":964," उसके":965," रे":966,"ुत":967,"लग":968," मान":969," आज":970," उत्":971," घटना":972,"ड़ी":973," जिले":974,"िन्":975,"ामी":976," बो":977," नी":978," मौत":979," कार्रवाई":980," मार":981," फिल":982,"फ्तार":983," दूस":984," रात":985," हजार":986," वर्ष":987,"गत":988," ली":989,"हम":990," मंत्री":991," सामने":992," करीब":993,"?\n":994,"कान":995," परिवार":996," पूर्व":997," लि":998,"धिक":999,"12":1000," भाज":1001,"्रीय":1002,"र्मा":1003," शु":1004," देने":1005,"ंस":1006," भाजपा":1007," मांग":1008,"30":1009,"िछ":1010,"ब्":1011,"वास":1012," मंदिर":1013," शा":1014," फिर":1015,"शे":1016," निवासी":1017,"ड़ा":1018,"ियो":1019,"सम":1020,"ग्":1021," उनकी":1022," तीन":1023," आद":1024,"ोन":1025,"19":1026,"ंत":1027," यादव":1028," मार्":1029,"ोष":1030,"भाव":1031,"ूम":1032," मौके":1033,"ायल":1034,"जूद":1035,"..":1036,"ध्य":1037," दिए":1038,"ेत":1039," स्कूल":1040," वो":1041," चला":1042," राज्य":1043,"तार":1044," फै":1045," जै":1046," सबसे":1047," पहुंचे":1048,"ूं":1049," होगी":1050," शिक्ष":1051,"ारियों":1052,"आर":1053," पानी":1054," आया":1055,"उन":1056,"स्था":1057,"ंब":1058," जग":1059,"राम":1060,"ंगल":1061," विध":1062," फिल्म":1063," जर":1064," प्रश":1065,"वल":1066," आने":1067," तैय":1068,"ठा":1069,"िल्ली":1070," सुबह":1071," ई":1072,"ासन":1073," शहर":1074,"दर्":1075,"ंदर":1076,"इक":1077," बारिश":1078," महा":1079,"कु":1080," अधिकारी":1081,"र्ण":1082," यहां":1083," अनुसार":1084," रहने":1085," मिली":1086,"हन":1087,"धा":1088," क्र":1089,"15":1090," शिकायत":1091,"बाद":1092," श्री":1093," युवक":1094,"वाद":1095,"ोजना":1096," गिरफ्तार":1097," पो":1098," डी":1099,"लेकिन":1100," सकता":1101,"कर्":1102," शर्मा":1103,"श्व":1104," चाहिए":1105,"ंज":1106,"ायर":1107,"ायक":1108,"रण":1109,"ियर":1110,"मेंट":1111,"च्छ":1112,"त्व":1113,"्रा":1114,"ेंस":1115,"ज्ञ":1116,"ंगे":1117,"सल":1118," क्या":1119," दा":1120," कंप":1121," बाहर":1122,"ूट":1123," मत":1124,"्ड":1125,"िछले":1126,"योग":1127," पद":1128," संबंध":1129,"शा":1130," मोदी":1131," प्रा":1132," मिले":1133,"िज":1134," अम":1135," सूचना":1136," आर":1137,"11":1138," मैं":1139,"ोध":1140,"ंक":1141,"र्फ":1142," मन":1143,"लाई":1144," गा":1145,"ियम":1146,"201":1147," पूरी":1148," मिला":1149,"था":1150," बंद":1151,"स्थान":1152," कप":1153," राष्ट":1154,"द्य":1155," कार्यक्रम":1156," पत्":1157," शव":1158,"ोजन":1159," शे":1160," खा":1161,"िपोर्ट":1162,"00":1163," प्रो":1164,"ख्या":1165,"िश्":1166," करें":1167," सहित":1168," कर्म":1169," कोर्ट":1170,"भार":1171,"चान":1172," जाएगी":1173," चे":1174," ऑफ":1175,"दो":1176," मी":1177,"ांड":1178,"ग्र":1179,"मो":1180,"माण":1181," स्व":1182,"ांकि":1183," अला":1184,"मेर":1185," मही":1186," अपना":1187,"ताब":1188," भारतीय":1189," काफी":1190," दिल्ली":1191,"यपुर":1192," शिव":1193,"म्मी":1194,"ीक्षा":1195,"त्म":1196," विधान":1197," आगे":1198," ती":1199,"गम":1200,"एक":1201," होता":1202," जीत":1203,"वरी":1204," ट्रे":1205,"ट्":1206," सदस":1207,"बे":1208,"ुक्त":1209,"ुक":1210,"अब":1211," उसकी":1212,"दन":1213,"लों":1214," तहत":1215," मामला":1216,"राब":1217," मौजूद":1218," रोड":1219," बहुत":1220," विकास":1221," लोकसभा":1222,"ेंद":1223,"इसमें":1224,"ची":1225,"सि":1226,"ग्री":1227," केंद्र":1228,"ेम":1229," बारे":1230," स्वा":1231," इंड":1232," चार":1233,"क्षण":1234," सकते":1235,"जह":1236," समाज":1237,"म्मीद":1238," टे":1239,"इल":1240," निर्देश":1241," सफ":1242," अलावा":1243,"ंटे":1244," यू":1245," व्यव":1246," किसान":1247,"तिक":1248," हत्या":1249,"स्क":1250,"हालांकि":1251,"तम":1252," करोड़":1253,"25":1254," योजना":1255," संग":1256,"गढ़":1257," क्यों":1258," रिपोर्ट":1259," जगह":1260,"दर्शन":1261,"ड़े":1262,"यहां":1263," गुरु":1264," पे":1265,"साथ":1266," सुन":1267," कहना":1268,"इसी":1269,"ंगा":1270," विधानसभा":1271,"फ्":1272," मीड":1273," उम्मीद":1274,"ोरी":1275,"खंड":1276," संख्या":1277," छो":1278,"मिक":1279," बस":1280,"काल":1281," छात्र":1282," वजह":1283," अलग":1284,"लेज":1285," पता":1286,"शेष":1287,"ताओं":1288," बच्चों":1289,"ेंड":1290," दिनों":1291," वाह":1292," बाइक":1293," हाल":1294,"चित":1295," मीडिया":1296,"इससे":1297,"ुआ":1298,"ार्थ":1299," वीड":1300,"ामीण":1301,"झे":1302," प्रधान":1303,"जेपी":1304," वहां":1305," स्प":1306," करता":1307," मुताब":1308," लगे":1309,"ांग":1310,"शल":1311," फी":1312," तरफ":1313,"स्ता":1314," मुताबिक":1315," करेंगे":1316," पिता":1317," आग":1318," होती":1319," घायल":1320,"ोह":1321,"णी":1322," भाग":1323,"चाल":1324," जहां":1325,"ैल":1326,"जनों":1327," विधायक":1328,"क्शन":1329," व्यक्ति":1330," आधार":1331," वा":1332," डे":1333," महीने":1334,"तन":1335," पोस्ट":1336," वीडियो":1337," रवि":1338,"ॉल":1339,"घटना":1340," वोट":1341," सुरक्षा":1342," कुल":1343," पहुंची":1344," हों":1345,"an":1346," बनाने":1347,"वर्":1348,"ियाणा":1349," पत्नी":1350,"यू":1351," घंटे":1352," पुर":1353,"ड़क":1354," परीक्षा":1355," पढ़":1356,"शि":1357," पं":1358," पूछ":1359," बां":1360," करवा":1361," एन":1362,"पति":1363,"र्य":1364," नंबर":1365,"मवार":1366," हाथ":1367,"िति":1368," पंच":1369," पक":1370," भग":1371," फर":1372," आयोजन":1373,"सू":1374,"ज़":1375," नजर":1376," ब्र":1377,"र्चा":1378," प्रभ":1379,"दर":1380," सांस":1381,"बल":1382,"14":1383,"लिए":1384,"्ला":1385," गं":1386,"वेश":1387," पूरा":1388," भर":1389,"24":1390," पत्र":1391," शादी":1392," भाई":1393," इसके":1394," थाने":1395,"चे":1396,"द्यालय":1397,"सु":1398," रन":1399," प्रत":1400," अधिकारियों":1401," दिख":1402," प्रशासन":1403,"ंद्र":1404,"-अ":1405," साह":1406," मुख्यमंत्री":1407," सच":1408," सर्":1409," दूसरे":1410," आस":1411," कृ":1412," दिव":1413," निर्माण":1414,"िकल":1415," दुकान":1416," सकती":1417," अभी":1418,"मत":1419," सम्म":1420," पिछले":1421,"ारे":1422," लगाया":1423," तेज":1424," ढ":1425," तैयार":1426," मिलने":1427,"ाने":1428,"भीर":1429," एम":1430," खेल":1431," घोष":1432," बिज":1433," विशेष":1434,"वीर":1435," योग":1436," जिसमें":1437," कंपनी":1438," वाला":1439," मंड":1440,"स्ते":1441," न्या":1442,"ंगलवार":1443,"18":1444," कॉलेज":1445,"इट":1446," लगातार":1447," S":1448,"ीय":1449," बैठक":1450," जल":1451,"रीज":1452," कल":1453," हूं":1454," वै":1455,"ार्ट":1456," रेल":1457,"ार्ड":1458," कराया":1459,"ैंक":1460,"िस्ट":1461,"13":1462," सौ":1463," जून":1464," सेवा":1465," लड़":1466,"मीन":1467," देते":1468,"ियन":1469,"वह":1470," डिग्री":1471," आम":1472," आरोपियों":1473," ऊ":1474,"भग":1475," सांसद":1476,"शत":1477,"16":1478,"ोजित":1479,"जु":1480," केस":1481," उठा":1482,"करण":1483,"-प":1484," भे":1485," हिस्":1486," गंभीर":1487," एक्स":1488," कान":1489," बनाया":1490," श्र":1491," उनका":1492," जैसे":1493,"यान":1494," लाल":1495," अर":1496,"ऐसे":1497," माल":1498," पूरे":1499," आदि":1500,"स्तान":1501,"धवार":1502," करे":1503,"क्रवार":1504,"ल्ड":1505," गर्":1506,"ष्ण":1507," गांधी":1508," -":1509,"सं":1510," समझ":1511,"ष्ठ":1512,"बता":1513,"नाथ":1514," व्यवस्था":1515," प्रदर्शन":1516," जाती":1517," निगम":1518," लगी":1519," जे":1520," डॉक्टर":1521,"17":1522,"स्या":1523," बड़ी":1524," खान":1525," मैच":1526,"ैंड":1527,"ूरी":1528,"ियान":1529," माह":1530," विश्व":1531," हाई":1532," रुपये":1533,"नर":1534,"शु":1535,"ंदी":1536,"जाब":1537,"िटी":1538," बढ़":1539," बॉ":1540," भर्":1541," नर":1542,"निया":1543," वाप":1544," ड्र":1545," आयोजित":1546," C":1547,"मुख":1548,"काश":1549,"पमान":1550," प्रया":1551," संचाल":1552,"फर":1553," विरो":1554,"हुल":1555," इलाज":1556,"मह":1557," पहली":1558," हे":1559," समेत":1560," बीजेपी":1561,"िली":1562," प्रभारी":1563,"डा":1564," परेश":1565," पहचान":1566," पक्ष":1567," ग्रामीण":1568,"ांत":1569,"मर":1570," पांच":1571,"ाप्त":1572," खे":1573," लेने":1574,"दीप":1575,"मैं":1576,"न्न":1577,"िरा":1578," व्या":1579," दें":1580,"लाल":1581," तापमान":1582," भर्ती":1583," सदस्य":1584,"आरो":1585," स्थान":1586,"बंधन":1587," पड़":1588,"षण":1589," पूजा":1590,"दारी":1591," होते":1592," अच्छ":1593," अफ":1594," बाल":1595," आदेश":1596," खरी":1597,"िन्न":1598," भगवान":1599," मद":1600," मना":1601," राजनी":1602," स्थिति":1603," शिक्षा":1604,"ध्यक्ष":1605,"200":1606," होकर":1607,"जीत":1608," खुद":1609,"िंद":1610," उसने":1611," बनाए":1612,"न्द्र":1613,"पास":1614,"हरा":1615," मेड":1616,"वाब":1617,"एन":1618," ऐसा":1619," जेल":1620," नौ":1621,"ैक":1622," सामान":1623," सित":1624," चलते":1625,"पूर्ण":1626,"त्री":1627,"बार":1628,"पहर":1629," रखा":1630," एक्ट":1631," मृत":1632," थीं":1633," रोक":1634," ट्रेन":1635,"भिन्न":1636," जल्":1637," दर":1638," गठ":1639," चुके":1640," भेज":1641," नए":1642," जमीन":1643," बज":1644," जुलाई":1645," सोमवार":1646,"वत":1647," करके":1648,"ूर्":1649," पति":1650,"स्ती":1651," कले":1652," अति":1653,"स्थ्य":1654," सीएम":1655,"ूप":1656,"र्च":1657,"ूत":1658," प्रतिशत":1659,"वाह":1660," बिजली":1661," फोन":1662," बेह":1663," बल्":1664," तब":1665," चाल":1666," यात्रा":1667," ऐसे":1668,"फा":1669," बने":1670," मदद":1671," इसे":1672," तस्":1673,"षद":1674," नार":1675,"रि":1676,"श्य":1677," बाजार":1678,"बाइल":1679," बेटे":1680," हमला":1681,"टन":1682," तथा":1683," जनता":1684," चर्चा":1685," होंगे":1686,"एल":1687," अवसर":1688,"22":1689," शुरुआ":1690," अगस्त":1691,"धिकारी":1692," गै":1693," समस्या":1694," सवाल":1695," जबकि":1696," पीछ":1697," जिन":1698," चुकी":1699," बच्चे":1700," शनि":1701," चोरी":1702," संप":1703," प्रयास":1704,"्रम":1705," विभिन्न":1706," मंगलवार":1707,"ानीय":1708," पेश":1709,"मन":1710," A":1711," देर":1712,"्ले":1713,"वेदन":1714," अभियान":1715,"ेक":1716," फैस":1717,"क्षक":1718," देव":1719,"पीट":1720,"ठी":1721," बयान":1722," तला":1723,"धि":1724," उसका":1725," दल":1726," सड़क":1727," सके":1728," पार":1729," जाते":1730,"र्क":1731," सरकारी":1732,"ल्प":1733," पहुंचा":1734,"40":1735,"गंज":1736," निय":1737," नई":1738," बेटी":1739," फा":1740," हमार":1741,"रिक":1742,"अप":1743," प्रधानमंत्री":1744,"जाम":1745," यून":1746," करती":1747," पाल":1748," विरोध":1749,"मौ":1750," सचिव":1751,"माल":1752," सम्मान":1753,"बू":1754,"ar":1755," मि":1756," देखा":1757,"चर":1758," रिक":1759," बिहार":1760,"ूबर":1761,"ैध":1762," अर्":1763," प्रमुख":1764," वित":1765,"हित":1766,"माम":1767," लॉ":1768," दिखा":1769," ज्":1770," बल":1771," बचा":1772," उम्मीदवार":1773," बैंक":1774," वाहन":1775," राष्ट्रीय":1776," मिन":1777," मिश":1778," सवार":1779," मुझे":1780,"आज":1781,"जान":1782," प्रे":1783,"करी":1784," P":1785," माध्य":1786," ची":1787," मोबाइल":1788," अपरा":1789,"गढ़":1790," स्तर":1791,"ांव":1792," स्वास्थ्य":1793,"ोपाल":1794," बुधवार":1795," महत्व":1796,"शिश":1797," इलाके":1798," बर":1799," युवा":1800," दूर":1801," विवाद":1802," वापस":1803," समिति":1804,"हाय":1805," महिलाओं":1806,"केश":1807,"टक":1808," सिर्फ":1809," वन":1810," उम":1811," इसकी":1812," देवी":1813," जैन":1814,"ाक":1815,"जिसके":1816,"तना":1817," अल":1818,"शनल":1819," वी":1820," भूम":1821,"पक्ष":1822,"्यान":1823," जिससे":1824," ग्राम":1825," दिस":1826,"ंदौर":1827,"एसपी":1828," रविवार":1829," लौ":1830," शुक्रवार":1831," राशि":1832,"पुरा":1833," शनिवार":1834," कार्यकर्":1835,"नगर":1836," अगर":1837,"ूड":1838," जय":1839," सोशल":1840," बराम":1841,"ट्र":1842," कोशिश":1843,"धर":1844," अंदर":1845,"क्टूबर":1846," लगभग":1847,"ंका":1848,"र्ग":1849," राहुल":1850," दोपहर":1851," मई":1852,"एच":1853," वालों":1854,"ंभ":1855,"बि":1856," प्रभाव":1857,"वीं":1858,"स्टर":1859," शेयर":1860," पंचायत":1861," इंटर":1862," बरामद":1863,"क्कर":1864," समर्थ":1865," मध्य":1866,"माश":1867,"हरी":1868," निकल":1869,"टल":1870," अवैध":1871," सितंबर":1872," पुत्र":1873,"उंड":1874,"सो":1875," जीवन":1876,"कार्य":1877,"ल्स":1878," गुरुवार":1879,"रिया":1880," कहते":1881,"ौन":1882," परिजनों":1883,"श्च":1884," संघ":1885,"रात":1886,"जहां":1887,"ात":1888," चुका":1889,"जिसमें":1890,"दसे":1891,"ॉप":1892,"ालय":1893,"भर":1894,"इड":1895,"21":1896," राजस्थान":1897,"देव":1898," करो":1899," देकर":1900," जरूर":1901,"ताछ":1902,"षा":1903,"तृ":1904," जल्द":1905," बड़ा":1906," शराब":1907,"गल":1908," हॉ":1909," अक्टूबर":1910," संत":1911," सें":1912," मार्ग":1913," रेलवे":1914,"पह":1915,"वंबर":1916," संगठ":1917," पीछे":1918,"धरी":1919," इंडिया":1920," मंत्र":1921,"एफ":1922," लिखा":1923,"दोनों":1924," N":1925," शुरुआत":1926,"थि":1927,"ेंद्रीय":1928,"ॉर्ड":1929," कार्यालय":1930,"जल":1931,"किंग":1932," एड":1933," जम":1934,"िक्ष":1935," गल":1936,"तीस":1937,"यन":1938," B":1939," संभाव":1940," धर्म":1941,"किस्तान":1942,"भारत":1943," टिक":1944," राष्ट्र":1945," दिसंबर":1946,"ैंप":1947,"23":1948," तौर":1949,"साद":1950,"ड़क":1951," दौ":1952," मुख":1953," अभि":1954,"स्थित":1955,"लोग":1956,"िवार":1957," जाएंगे":1958,"पक":1959," जाना":1960,"बाल":1961," क्योंकि":1962," इसका":1963,"ोस":1964,"विधा":1965," राय":1966,"चारी":1967," नवंबर":1968," अमेर":1969," देखने":1970," नोट":1971,"िलों":1972," मारपीट":1973,"26":1974," गुप":1975,"लाइन":1976," विजय":1977,"100":1978," मिनट":1979," रि":1980," प्राप्त":1981,"खन":1982,"लर":1983," चौधरी":1984,"र्जी":1985,"कत":1986,"जो":1987,"्ता":1988,"ंदा":1989,"खिल":1990," किलो":1991," बड़े":1992,"टेड":1993,"टेल":1994,"in":1995,"सव":1996,"िसर":1997,"प्रदेश":1998," उपल":1999," दूसरी":2000," कट":2001,"मारी":2002," लक्ष":2003,"िम्म":2004,"प्री":2005,"पोर्ट":2006," मजब":2007,"ुरा":2008,"फ़":2009," प्ल":2010," नेताओं":2011,"धन":2012," किसानों":2013," स्टेशन":2014," माध्यम":2015," प्रत्या":2016," कर्":2017,"स्व":2018,"विद्यालय":2019,"फे":2020," रु":2021," ब्ल":2022," सहाय":2023,"ांक":2024,"ौल":2025,"सत":2026," मेडिकल":2027," केवल":2028," होना":2029," जवाब":2030," नियम":2031,"ंडी":2032," बढ़ा":2033," मेरे":2034,"at":2035," अंतर":2036,"कल":2037," लगाए":2038,"मृत":2039," मतदान":2040," तीस":2041,"वित":2042,"िटल":2043,"नो":2044,"केट":2045,"्यो":2046," धम":2047,"...\n":2048," वार":2049," अप्र":2050," संद":2051," ध्यान":2052,"कृ":2053," गण":2054,"र्या":2055,"िकेट":2056," इसी":2057," आसपास":2058," माता":2059,"28":2060,"वो":2061," एयर":2062,"र्ष":2063," पंजाब":2064," भारी":2065,"यु":2066,"गू":2067,"दाय":2068,"िशा":2069,"भव":2070," अंत":2071," ते":2072,"घा":2073,"छा":2074,"मार्ट":2075," बदल":2076," रज":2077," निकाल":2078,"कांग":2079," मुद्":2080," लाइन":2081,"क्रिया":2082," डाल":2083," I":2084," स्थानीय":2085," शाह":2086,"जरी":2087," बनी":2088," कराने":2089," सर्व":2090," संय":2091,"त्ता":2092," जन्":2093," सुविधा":2094," उत्तर":2095," मरीज":2096," नदी":2097,"-अलग":2098," कभी":2099," लिख":2100," मार्च":2101," मौसम":2102,"धियों":2103," बदमाश":2104,"27":2105," शो":2106,"ियार":2107," हिंद":2108," लाभ":2109," आवेदन":2110," हरियाणा":2111,"ॉक":2112," बिना":2113,"दि":2114," सप्":2115," जयपुर":2116,"कोर्ट":2117," टिकट":2118," जिसके":2119,"िप्":2120," छोड़":2121," हमारे":2122," सां":2123," देखते":2124,"िरी":2125,"डे":2126," फरार":2127," करोड़":2128,"जबकि":2129," सीटों":2130,"कांग्रेस":2131," पदा":2132,"फ्ट":2133," प्रक्रिया":2134,"तरी":2135,"ज्ञान":2136," उपलब्":2137," M":2138," प्ले":2139," बदला":2140,"चारियों":2141,"ंकर":2142,"फिल":2143," जमा":2144,"क्षित":2145,"िग":2146," अग्र":2147," भेजा":2148," प्रसाद":2149,"ंबई":2150," सफल":2151,"तृत्व":2152," क्":2153," कैसे":2154," संबंधित":2155," उद्":2156,"त्तीस":2157," पूछताछ":2158," जिलों":2159," रोज":2160," संभावना":2161,"ूक":2162," एज":2163," जनवरी":2164,"असल":2165," हटा":2166," निरी":2167,"दु":2168,"्रोल":2169,"उसके":2170," R":2171,"ेंसी":2172,"िम्मे":2173," तय":2174," फीस":2175," एक्सप":2176," खबर":2177," सहयोग":2178," लो":2179," ट्रै":2180,"on":2181," विकेट":2182," अहम":2183," नेतृत्व":2184," आव":2185," रखने":2186,"जों":2187," चले":2188,"कार्यक्रम":2189," धन":2190," बोर्ड":2191," पढ़ें":2192,"अगर":2193,"चु":2194,"ृह":2195," कर्मचारी":2196," परेशान":2197,"काब":2198,"),":2199," शि":2200,"जद":2201," सै":2202," गोली":2203,"नात":2204,"धे":2205,"जीव":2206,"टो":2207,"स्ल":2208," निश":2209,"लोक":2210," उर्फ":2211," हिस्सा":2212,"ियल":2213," लगाने":2214," तैयारी":2215," हास":2216,"तों":2217,"यों":2218,"घर":2219,"फिर":2220,"झा":2221," दावा":2222," कलेक्टर":2223," चि":2224," तलाश":2225," कब्":2226,"ित्":2227," जाकर":2228," कीमत":2229," नीचे":2230,"नियर":2231,"व्य":2232,"ुओं":2233," विद्य":2234,"लादेश":2235,"गांव":2236," बोले":2237," प्रत्याशी":2238,"चार्य":2239," श्रद्ध":2240,"मुख्य":2241," दुर्":2242,"आरोपी":2243," वार्ड":2244,"हरियाणा":2245,"-क":2246," आयोग":2247,"उनके":2248,"दूस":2249,"गु":2250," छात्रों":2251," नरेंद्र":2252,"ड़ित":2253," इसलिए":2254," गुप्ता":2255,"ड्":2256," फैसला":2257," नागर":2258,"िन्ह":2259," बच":2260," हासिल":2261," सजा":2262," फोट":2263,"ामा":2264,"आप":2265," आपको":2266,"ूब":2267,"लोनी":2268," छात्रा":2269,"ष्य":2270,"ॉर्म":2271," मंडल":2272," घु":2273," क्ल":2274,"ष्ट्र":2275," ।\n":2276,"29":2277," जिम्मे":2278," वायर":2279," खास":2280," विदेश":2281,"चन":2282," गति":2283," रहते":2284,"स्तेमाल":2285," जता":2286,"राह":2287," वक्त":2288," इस्तेमाल":2289," पीएम":2290,"ापन":2291," अप्रैल":2292," केंद्रीय":2293,"कम":2294,"ील":2295," रंग":2296," तरी":2297," कर्मचारियों":2298," इससे":2299," बल्कि":2300," न्याय":2301," चिक":2302," ओवर":2303," ज़":2304,"er":2305,"किस":2306," चरण":2307," रहेगा":2308," स्थाप":2309," पाकिस्तान":2310," टेस्ट":2311,"ांति":2312,"ियोग":2313,"लू":2314," प्रकार":2315,"ग्लादेश":2316,"तीश":2317,"हान":2318," खो":2319," वर्ग":2320,"षि":2321,"दम":2322," भाव":2323,"कुछ":2324," भवन":2325,"िनि":2326,"वाली":2327,"नु":2328," रिश्":2329,"त्ति":2330," तत्":2331," डाय":2332,"ारोह":2333,"चीत":2334,"दरअसल":2335,"ब्ल":2336," D":2337,"श्वास":2338,"35":2339,"ीक":2340," व्याप":2341,"तरा":2342,"्मी":2343,"क्ता":2344," समारोह":2345,"जपा":2346," बुला":2347,"ंगी":2348,"दों":2349,"ारखंड":2350,"टने":2351,"वें":2352,"िशन":2353,"थमिक":2354," सुनी":2355,"ायण":2356," ज्ञ":2357," बनने":2358,"खी":2359," संजय":2360," पाए":2361,"सुर":2362," लड़":2363," गर्मी":2364," रण":2365," साइ":2366," चंद्र":2367," साफ":2368," परिसर":2369,"श्यक":2370," मकान":2371," हथ":2372," पेट":2373," टक्कर":2374,"गार":2375,"बाजी":2376," मानस":2377," घोषणा":2378," मैदान":2379," गौ":2380," कराई":2381," हालत":2382," मॉ":2383," खत्म":2384," गाय":2385," दिवस":2386," महत्वपूर्ण":2387,"बै":2388,"ैनिक":2389," चौक":2390," इंदौर":2391," संगठन":2392,"फिक":2393," कला":2394," बातचीत":2395," हमें":2396,"नौ":2397," शुभ":2398," बंग":2399,"वाही":2400," दुनिया":2401,"खनऊ":2402," मश":2403," चालक":2404,"ड्ड":2405," गिरा":2406," कार्ड":2407," दोस्त":2408,"ेय":2409," आश":2410,"तिम":2411," हार":2412,"महिला":2413,"तनी":2414,"ाइम":2415," माना":2416,"ंडा":2417," सीमा":2418," रिकॉर्ड":2419," पूर्ण":2420,"मता":2421," नव":2422," ति":2423," न्याया":2424,"ंसा":2425,"सभी":2426," प्रकाश":2427,"भाजपा":2428," पैसे":2429," राजनीतिक":2430," फायर":2431,"ेश्":2432," एसपी":2433," मिलकर":2434," घोषित":2435,"लिया":2436,"दाल":2437,"पिछले":2438,"इसलिए":2439," सिर":2440," नया":2441," चा":2442,"हास":2443,"द्योग":2444," गठबंधन":2445," सत":2446," सड़क":2447,"खे":2448," आवश्यक":2449," भोपाल":2450," किस":2451,"मीटर":2452," स्वी":2453," ठीक":2454," यानी":2455,"45":2456," ऊपर":2457,"बु":2458," वहीं":2459,"मेटी":2460," मूल":2461," वृ":2462,"्रेट":2463,"जानकारी":2464,"al":2465," दिल":2466," आवा":2467," त्र":2468," फु":2469," उपलब्ध":2470," उपस्थित":2471," ऐसी":2472,"विधान":2473," ट्रांस":2474," ड्राइ":2475,"पन":2476," मुकाब":2477," खुला":2478,"श्री":2479,"षेक":2480,"विंद":2481," विचार":2482," पश्च":2483," सेंटर":2484," जरिए":2485," नागरिक":2486,"ूडेंट":2487,"31":2488,"निक":2489,"रों":2490," भु":2491," पाया":2492," प्राथमिक":2493,"60":2494," कमी":2495," घा":2496,"ठक":2497," लगाई":2498," ताकि":2499," मुक":2500," सदर":2501," खरीद":2502,"डल":2503," दू":2504,"ित्य":2505," मीटर":2506,"तियों":2507," शी":2508," अश":2509,"चानक":2510," जन्म":2511," अगले":2512," आख":2513," वर्षीय":2514," उद":2515,"द्धि":2516," खराब":2517," निजी":2518,"मीर":2519,"तु":2520,"रल":2521,"ोत्":2522,"स्कार":2523,"राय":2524," धारा":2525,"ुल्":2526," राज्यों":2527," पांड":2528," बोल":2529,"सीटी":2530," तस्वीर":2531," रै":2532,"ंता":2533," पल":2534,"स्कर":2535," सिटी":2536," चाहते":2537,"वाना":2538," अंक":2539," कहीं":2540," मोह":2541," समर्थन":2542,"कर्म":2543," दर्शन":2544," आन":2545," एल":2546," विद्यालय":2547," समु":2548,"बोध":2549,"वजूद":2550," प्रस्त":2551," क्षेत्रों":2552," देना":2553," धमकी":2554," पड़ा":2555," समा":2556,"चिका":2557," मोहन":2558," कॉन्":2559," फोटो":2560,"चल":2561,"ैया":2562," दिला":2563," लागू":2564,"इनमें":2565," सदस्यों":2566," मुला":2567," मुंबई":2568," अमित":2569,"70":2570," वायरल":2571," प्रस्ता":2572," प्रवेश":2573," आते":2574," तु":2575," अग्रवाल":2576," फे":2577," पौ":2578,"िब":2579," बाबा":2580,"पूर्व":2581,"ॉट":2582," सही":2583," खेत":2584,"ेंडर":2585," अंतिम":2586,"ूह":2587,"राव":2588,"र्न":2589,"स्टम":2590," चुना":2591," आपके":2592,"जिला":2593," नुक":2594,"वट":2595," इंत":2596," तैनात":2597," मैंने":2598," कमेटी":2599," ऑन":2600,"उट":2601," कॉलोनी":2602," कही":2603,"ुरी":2604," उम्र":2605,"पहले":2606," यूपी":2607,"मति":2608,"\"\n":2609,"सिंह":2610," सुनवाई":2611," सेना":2612," तह":2613," बनाकर":2614," सुना":2615,"बताया":2616," बदलाव":2617,"्याण":2618," राष्ट्रपति":2619,"िक्":2620,"ार्ज":2621," उच्च":2622," उठ":2623,"न्ना":2624," कानून":2625,"किल":2626,"ख्त":2627,"सों":2628," टै":2629," संक":2630,"उसने":2631," सभा":2632," परिषद":2633," क्रिकेट":2634," गेट":2635," इसमें":2636,"प्शन":2637," दिखाई":2638,"िकी":2639,"दालत":2640," रहता":2641," वर्मा":2642," निवेश":2643,"ियोगिता":2644," वरि":2645," ख़":2646," पटेल":2647,"पण":2648,"ुण":2649," एंड":2650," रखी":2651,"ध्या":2652," पड़":2653,"तंत्र":2654,"िद":2655," मं":2656," ऑफिस":2657,"सील":2658," प्रभावित":2659,"चुनाव":2660,"डॉ":2661,"पं":2662,"दात":2663," शिक्षक":2664," गेंद":2665," गाड़ी":2666,"ानों":2667,"ष्ट्रीय":2668," करेगी":2669,"योध":2670,"तिहास":2671," अमेरिका":2672,"नेट":2673," बनाई":2674," निर्ण":2675," नुकसान":2676," स्टे":2677," पदाधिकारी":2678,"कई":2679,"तल":2680,"िड":2681," पहला":2682," उपयोग":2683,"स्पिटल":2684," बू":2685," न्यू":2686," जरूरी":2687," बेहतर":2688," जिसे":2689," हथियार":2690," असर":2691," चोर":2692," किन":2693,"ाराष्ट्र":2694," स्टूडेंट":2695," ग्रामीणों":2696,"गो":2697,"क्षि":2698," राजनीति":2699,"ूर्ति":2700,"दू":2701," पढ़":2702," मृतक":2703," तरीके":2704," प्रेम":2705,"इसे":2706," लगने":2707," हादसे":2708,"सब":2709," सामान्य":2710," पुल":2711," बहन":2712," विश्वविद्यालय":2713,"योध्या":2714,"सद":2715," तुर":2716," ट्रक":2717,"or":2718,"कुल":2719,"तने":2720,"नेश":2721," री":2722," परिव":2723," तीनों":2724," जरूरत":2725,"सीटीवी":2726,"र्गत":2727," बावजूद":2728," राहत":2729," भूमिका":2730,"डीएम":2731," गलत":2732,"-ब":2733,"ड़ों":2734," फ़":2735," लूट":2736," मिश्रा":2737,"ैर":2738," प्रता":2739,"शहर":2740,"िनी":2741,"टिंग":2742,"ल्ल":2743,"sh":2744," रिली":2745," एफ":2746,"मृतक":2747," वरिष्ठ":2748," धर":2749," फ्र":2750,"ॉर्ट":2751," नम":2752,"क्या":2753,"पंच":2754," बड़ी":2755," लगाकर":2756," स्थल":2757," तत्काल":2758," प्रदान":2759,"कात":2760," कारो":2761," मजबूत":2762," अचानक":2763,"जेक्ट":2764," ,":2765,"ैसे":2766," मजद":2767," कॉल":2768,"धु":2769," मेरी":2770," तुरंत":2771," स्वागत":2772," गिरफ्त":2773," बिल्":2774," होटल":2775," कैम":2776," रिज":2777,"कुमार":2778," E":2779,"खर":2780,"ाले":2781," विष":2782," संस्थान":2783," तेजी":2784," चंद":2785," लेते":2786,"परि":2787," कृष्ण":2788,"ार्थियों":2789,"र्डर":2790," फाइन":2791," कोच":2792," लगता":2793,"र्थिक":2794," सफाई":2795," हॉस्पिटल":2796,"ंकी":2797," मनी":2798," उपा":2799," बांग्लादेश":2800," K":2801,"ल्ट":2802," मिलेगा":2803," निरीक्षण":2804,"वहां":2805," ग्रुप":2806," सीटें":2807,"हम्म":2808,"उंट":2809," सात":2810,"तो":2811,"बालिग":2812," रिलीज":2813," जित":2814," फीसदी":2815,"्यून":2816," लॉन्":2817," जोर":2818," कार्यकर्ताओं":2819,"फ्र":2820," अस":2821," बेच":2822,"राज्य":2823," रहेगी":2824," तोड़":2825," याचिका":2826," प्रचार":2827,"ित्र":2828,"डीए":2829," वाहनों":2830,"ताह":2831," दबा":2832," चीन":2833," चोट":2834," लंब":2835," अशोक":2836,"डिंग":2837," अपराध":2838," भू":2839," विपक्ष":2840," जिन्ह":2841," छु":2842," महार":2843," उनसे":2844,"हरे":2845,"इसका":2846," ताला":2847," अफसर":2848," जाम":2849,"ड़ियों":2850,"पे":2851," जागर":2852," करेगा":2853," हल्":2854," जब्त":2855," कल्याण":2856,"रान":2857,"त्तीसगढ़":2858,"-स":2859," गुर":2860,"विष्य":2861,"ज्ञात":2862," नौकरी":2863," जमकर":2864,"80":2865," शांति":2866,"बीर":2867," मालिक":2868,"उन्हें":2869," लाइ":2870," हिंदू":2871," उससे":2872," पि":2873," संभ":2874," लु":2875," अजय":2876," कपूर":2877," एक्सप्रेस":2878,"हम्मद":2879," कदम":2880," टा":2881," ऋ":2882," गी":2883," हमारी":2884," निर्णय":2885,"विल":2886,"रासत":2887," रहती":2888,"वरण":2889," सामना":2890," झारखंड":2891,"रिक्त":2892,"गुरु":2893," हवा":2894,"त्रियों":2895," मुलाकात":2896," अंतर्गत":2897,"वती":2898," जुड़े":2899," प्रतियोगिता":2900," गृह":2901,"कीय":2902,"ृति":2903," मू":2904," रास्ते":2905,"पथ":2906,"िवर्स":2907,"ब्र":2908," नाराज":2909," नोटिस":2910,"गण":2911," प्रतिनि":2912," संबोध":2913," जवान":2914,"्यु":2915," बजट":2916,"ेश्वर":2917," फरवरी":2918,")\n":2919," करवाया":2920," ड्राइवर":2921,"लेक्ट":2922,"र्श":2923,"जिससे":2924," छोटे":2925," व्यक्त":2926,"ांकन":2927," फ्ल":2928," अपील":2929," लौट":2930,"मुख्यमंत्री":2931," शरी":2932," डा":2933,"ल्ले":2934," इलाकों":2935,"त्मक":2936,"्तान":2937,"्याम":2938," परिजन":2939,"ोलन":2940,"...":2941,"तमान":2942," किश":2943," हमले":2944," अंजाम":2945,"लोगों":2946,"तब":2947," भक्त":2948," देशों":2949,"नियों":2950," अदालत":2951," मिलते":2952,"ग्राम":2953," देंगे":2954,"थम":2955,"वक":2956," तारी":2957," खुल":2958,"आरोप":2959,"ंटी":2960,"ेशल":2961," आनंद":2962,"दिन":2963,"ाइवे":2964," साहू":2965," सुप्री":2966," ठाक":2967,"तवाली":2968,"सवाल":2969," बैठे":2970," पकड़":2971,"ेंज":2972," आत्म":2973," फाय":2974,"ेशा":2975," मामलों":2976,"ाइल":2977," किलोमीटर":2978," संयुक्त":2979,"स्लिम":2980,"फल":2981," मंच":2982," पर्व":2983," पार्ट":2984,"िक्स":2985,"्रेन":2986,"वारी":2987,"ुड":2988," F":2989,"वादी":2990," कौन":2991," राजेश":2992," हाउस":2993," ठाकुर":2994," पंड":2995,"ैंस":2996," तहसील":2997," भविष्य":2998," सिस्टम":2999," धो":3000," जैसी":3001," बंगाल":3002," पटना":3003,"ांसी":3004," संस्था":3005," कार्यकर्ता":3006,"िश्चित":3007," मुकद":3008," बेटा":3009," निर्वा":3010," संर":3011,"ti":3012," चुनौ":3013,"ष्टि":3014," श्रद्धाल":3015,"500":3016," गिरफ्तारी":3017,"पो":3018," ठे":3019," प्रस्ताव":3020," आर्थिक":3021," खर्च":3022," मुश्":3023,"ाजिक":3024," गैंग":3025,"्राम":3026," आं":3027,"स्त्र":3028," स्टा":3029,"रज":3030," मर":3031,"देशक":3032," सत्र":3033," सुधार":3034," सीसीटीवी":3035,"ंघ":3036," सुख":3037," संचालन":3038,"जरीवाल":3039," बताते":3040,"दारों":3041,"ॉय":3042," दक्षि":3043," आंद":3044,"इसकी":3045," आयु":3046," प्रशिक्ष":3047," सीरीज":3048," बांध":3049," अली":3050," आवास":3051," उत्पा":3052," ऑनलाइन":3053," देखकर":3054," परेशानी":3055," अभिषेक":3056,"राष्ट्रीय":3057,"स्ट्री":3058," छह":3059," कृषि":3060," वारदात":3061," जिंद":3062," अज्ञात":3063," दीपक":3064," मतदा":3065," आत":3066,"लाह":3067,"मामले":3068,"ण्ड":3069," महाराज":3070," अधिकार":3071," अच्छी":3072,"नेशनल":3073," मंत्रालय":3074,"टेज":3075,"वाला":3076,"धानी":3077," T":3078,"लेट":3079,"सूचना":3080,"सुबह":3081,"वां":3082,"वनी":3083," अलर्ट":3084," चली":3085,"लपुर":3086," पर्य":3087," अतिरिक्त":3088," गतिवि":3089," अधी":3090,"es":3091," पॉ":3092,"वेज":3093," हमने":3094," हनु":3095," नाबालिग":3096," मनोज":3097," फर्जी":3098,"्यार":3099," विस्त":3100," पार्षद":3101,"उनकी":3102,"पु":3103,"लि":3104," निकाला":3105," युवती":3106," अच्छा":3107,"पित":3108," बिक":3109," आशी":3110," जाय":3111," पीड़ित":3112,"श्मीर":3113," मीणा":3114," मनाया":3115," पेट्रोल":3116,"ra":3117,"डर":3118," गईं":3119," पड़े":3120," फसल":3121," पैर":3122,"िवारी":3123," सोने":3124," चलने":3125,"en":3126,"मैन":3127," बर्":3128," आकर":3129," कब्जे":3130,"हे":3131," पर्या":3132," तिवारी":3133," प्रोजेक्ट":3134," दिशा":3135," नेशनल":3136,"स्कृत":3137," कमा":3138," गौर":3139,"सेना":3140,"्रमण":3141," मौका":3142,"ज्ज":3143," आंदोलन":3144,"न्या":3145," तुल":3146," सिविल":3147," मोहम्मद":3148," देता":3149," महाराष्ट्र":3150,"िवर्सिटी":3151,"JP":3152," अनिल":3153," सालों":3154," झा":3155," सहायक":3156," घाट":3157,"33":3158,"वानी":3159," सुरक्षित":3160," स्पेशल":3161," डायरे":3162,"सन":3163," तेल":3164,"मार्टम":3165," कब":3166,"वाड़ा":3167," घरों":3168," पट":3169," श्रे":3170," सल":3171,"शाला":3172,"शिप":3173," पारी":3174," दश":3175,"ंडल":3176," अतिथि":3177," जिम्मेदारी":3178," पूछा":3179,"ha":3180," रखे":3181,"जिन":3182,"साय":3183," दम":3184," कां":3185," गुज":3186," उसी":3187," चां":3188," मैने":3189," सम्मानित":3190,"स्तव":3191,"थाना":3192," राव":3193," खुलासा":3194," संबोधित":3195," दब":3196," सागर":3197," सुपर":3198,"लका":3199,"सित":3200,"ांट":3201," एक्":3202," कुमारी":3203," सोन":3204," प्लान":3205,"दसा":3206,"रवि":3207,"ह्":3208," किनारे":3209,"पुरी":3210," दीप":3211," रजिस्ट":3212,"नीय":3213," बदमाशों":3214," उद्देश":3215,"वुड":3216,"वेद":3217,"उनका":3218," सुनील":3219," रक्षा":3220,"ार्मिक":3221,"श्वर":3222,"मेज":3223,"90":3224," अका":3225," सेक्टर":3226," आयुक्त":3227," सुप्रीम":3228," हिस":3229," भूमि":3230," पस":3231," धी":3232,"बैठक":3233,"मौके":3234,"अभी":3235,"पत":3236," कौ":3237," व्र":3238," खोल":3239,"धिकारियों":3240,"भारतीय":3241," पाई":3242,"रीब":3243," रहेंगे":3244," जागरूक":3245," लाया":3246," पहुंचकर":3247,"णाम":3248," हमेशा":3249," सप्ताह":3250,"75":3251,"ोश":3252,"्यूटी":3253," प्रि":3254," स्कूलों":3255," प्रताप":3256,"बारी":3257," युवकों":3258,"ियस":3259," युवाओं":3260,"कॉ":3261,"मित":3262,"कारों":3263," संपर्क":3264,"मौसम":3265," शासन":3266," मुश्किल":3267," जला":3268,"िएशन":3269," प्लेट":3270,"मि":3271," कार्यों":3272," महिलाएं":3273," अंग":3274," लं":3275," डर":3276,"ेंशन":3277," खाली":3278," शक्ति":3279," निभा":3280," यात्रियों":3281," चुनावी":3282," लखनऊ":3283," प्री":3284," रोहित":3285," नामांकन":3286,"ोद":3287,"्यूनतम":3288,"ew":3289," बिग":3290," लिस्ट":3291," मरीजों":3292," आता":3293," कमरे":3294,"जुर्ग":3295," कौर":3296," बच्ची":3297," न्यायालय":3298," घे":3299," गंगा":3300,"्यर्थ":3301," उपचार":3302," समुदाय":3303," बेहद":3304,"कै":3305," सिल":3306," मुस्लिम":3307," अधिकतम":3308,"ंदीप":3309,"32":3310," चयन":3311," प्रबंधन":3312," हाईकोर्ट":3313," रिश्ते":3314," हनुमान":3315," छाप":3316,"त्रि":3317," गोल":3318," कोतवाली":3319,"लीवुड":3320," पिछ":3321," बहा":3322," नो":3323," युद्ध":3324,"िट्":3325,"ोत्सव":3326,"अन":3327,"दिल्ली":3328,"वै":3329," बिल":3330," सेक":3331," भीड़":3332,"सीएम":3333,"परेशन":3334," भास्कर":3335," आदमी":3336,"ुल्क":3337," कैंप":3338,"र्जा":3339," खूब":3340," दूसरा":3341,"199":3342,"le":3343," विश":3344," घुस":3345," मेरा":3346," गणेश":3347," आंक":3348," बताई":3349," मिलेगी":3350,"di":3351,"हादसे":3352,"त्रों":3353," विवाह":3354," यूनिवर्सिटी":3355," पोस्टमार्टम":3356,"िफ":3357,"द्द":3358," सर्वे":3359,"थर":3360," संविधान":3361," अधीक्षक":3362,"शिव":3363," दृ":3364," फो":3365,"वाया":3366,"स्टे":3367," वर्ल्ड":3368," आवाज":3369,"ाइवेट":3370," उद्देश्य":3371,"-ज":3372,"मानत":3373," मारने":3374," योगी":3375," पुरु":3376," तकनी":3377," लाने":3378," पहुंचने":3379," चौहान":3380," समाधान":3381,"48":3382," रवाना":3383,"रेन":3384," मुकेश":3385,"म्प":3386," मुख्यालय":3387," पेपर":3388," सफलता":3389,"पंजाब":3390," पुरुष":3391," वर्षों":3392,"फिलहाल":3393," पश्चिम":3394," रैली":3395," सेल्स":3396," ऑटो":3397," व्रत":3398," निर":3399," छोड़":3400," केजरीवाल":3401,"बीसी":3402,"भू":3403," रिट":3404,"करीब":3405,"ग्ध":3406," सुनिश्चित":3407," मंडी":3408," अयोध्या":3409," निर्धार":3410," शिक्षकों":3411," डॉक्टरों":3412," दोष":3413,"सरकार":3414,"दल":3415," पहल":3416," कहानी":3417," सौंप":3418," इंतजार":3419," विषय":3420," फॉ":3421," इलेक्ट":3422," नीतीश":3423,"पेट":3424,"गीय":3425,"्रीन":3426," सामाजिक":3427," पार्क":3428," कैप्शन":3429,"-साथ":3430,"55":3431,"सच":3432," जॉ":3433,"वासियों":3434," फीट":3435," नक":3436,"सीबी":3437," सीजन":3438," स्थापित":3439,"िये":3440,"डियो":3441," दवा":3442," आउट":3443," सूर्य":3444," स्पष्ट":3445,"36":3446,"इंट":3447,"क्सर":3448,"ियोजना":3449,"हरण":3450," शुक्":3451," वीर":3452,"ैट":3453," पैसा":3454," कैं":3455," उतर":3456," प्रखंड":3457," टू":3458," चौकी":3459,"चंद":3460,"ड़ित":3461,"स्वी":3462,"सीपी":3463,"प्रत":3464," खुश":3465," नारायण":3466,"काम":3467,"ग्रामीण":3468,"िप्टी":3469," मिलता":3470,"िमांड":3471," तीसरे":3472,"्योति":3473," भुगत":3474,"गरी":3475,"दाबाद":3476," चेक":3477," एयरपोर्ट":3478," साइबर":3479,"बच्च":3480,"ारण":3481," प्रव":3482," रोकने":3483," स्टूडेंट्स":3484,"कृत":3485," आठ":3486,"रेट":3487," परिणाम":3488,"शील":3489,"बिहार":3490," फायदा":3491,"नान":3492," जाल":3493," सिद्ध":3494,"ार्थी":3495," तिथि":3496," निर्वाचन":3497,"ाब":3498," किमी":3499,"प्रधान":3500,"मुझे":3501,"ट्टी":3502," एजेंसी":3503," बुलाया":3504,"मेश":3505," सूर":3506,"राइल":3507,"बाज":3508,"दर्श":3509," सौं":3510,"शिक":3511,"यात":3512," जंगल":3513," ब्लॉक":3514," प्रस्तुत":3515," शरीर":3516," पोल":3517," साब":3518," रफ्तार":3519," राजा":3520,"मैंने":3521," स्थानों":3522," लॉन्च":3523," G":3524," हरा":3525," भजन":3526,"पीएस":3527," न्यूनतम":3528,"वालियर":3529," रेप":3530," माहौल":3531," दबाव":3532," प्रेर":3533," स्टाफ":3534,"ूनी":3535," मिस":3536," रायपुर":3537," मार्केट":3538," सहायता":3539," मजदूर":3540," लंबे":3541,"34":3542," परियोजना":3543," पूजन":3544," एक्ट्रेस":3545," दक्षिण":3546,"इज":3547," एसोस":3548,"बारा":3549," बंध":3550," दस्ता":3551," यही":3552," राकेश":3553," उसमें":3554," पाठ":3555,"000":3556," सत्ता":3557,"वीन":3558,"आईआर":3559,"पल":3560," रिस":3561," हिरासत":3562,"ंजन":3563,"टेन":3564,"इंड":3565,"्मू":3566,"ay":3567,"वधान":3568," कंपनियों":3569,"लोकसभा":3570,"जीनियर":3571,"ित्सा":3572," बड़े":3573,"क्का":3574,"वाने":3575," चुनावों":3576," अभ्यर्थ":3577," बचाने":3578,"यल":3579," सिक":3580," खंड":3581," लक्ष्य":3582," आखिरी":3583," V":3584," अज":3585," सेल्सियस":3586," मल":3587," काउ":3588," काट":3589,"ऐसा":3590," शान":3591," शपथ":3592,"टीम":3593," इतिहास":3594,"्रेलिया":3595,"स्ट्र":3596,"क्रिय":3597," अनुमति":3598,"ट्ट":3599,"एंगे":3600,"द्दी":3601," जानते":3602," मशीन":3603,"ॉर्टम":3604," अभिय":3605," नाग":3606,"जुन":3607,"-च":3608," वित्त":3609,"ri":3610," निदेशक":3611," फाइनल":3612,"इधर":3613," करनी":3614,"ंदे":3615," बीते":3616," गाड़ी":3617,"लम":3618,"ाराम":3619,"करा":3620," निकले":3621,"इमेज":3622,"नाम":3623,"त्त":3624,"लब":3625,"नेस":3626," साथी":3627,"कोर":3628," शिविर":3629," लड़की":3630,"सोमवार":3631,"पद":3632,"ुति":3633," जाति":3634," इतनी":3635,"पीएम":3636,"इकिल":3637," जताई":3638," उदयपुर":3639,"जिले":3640,"ोप":3641," शंकर":3642,"कील":3643," उनको":3644," कमिश्":3645," बुजुर्ग":3646,"ंटर":3647,"र्जर":3648," रखते":3649," आदित्य":3650,"्यता":3651," प्राइवेट":3652," फें":3653," मुह":3654,"ोजक":3655," सैनी":3656,"हत्या":3657,"ग्रह":3658," उद्योग":3659," समूह":3660," संतोष":3661," मुकाबले":3662,"रोज":3663," धार्मिक":3664,"ांची":3665," संचालक":3666,"दूसरे":3667,"नल":3668," एग्":3669," मुकदमा":3670,"ews":3671,"बां":3672," क्ला":3673," दास":3674," किर":3675," करवाई":3676," टूट":3677," रूम":3678," रेफर":3679," संचालित":3680,"संग":3681,"हारी":3682,"्व":3683," संदीप":3684,"ेंगी":3685," नीति":3686," फैसले":3687," ड्यूटी":3688," अमर":3689," चिंता":3690," विद्यार्थियों":3691," हादसा":3692," गुजरात":3693,"तीन":3694," L":3695," बड़ा":3696,"र्तन":3697," समी":3698," लापर":3699,"क़":3700,"फॉर्म":3701,"्येक":3702," फूल":3703,"स्पे":3704," गिरावट":3705," तारीख":3706,"लकाता":3707,"थी":3708," शूट":3709," ससुर":3710," टाइ":3711," सप्लाई":3712,"आग":3713,"व्यू":3714," चढ़":3715,"साल":3716," इतना":3717,"शनिवार":3718," ऑपरेशन":3719," नियंत्र":3720," सोनी":3721," मेह":3722," हिस्से":3723,"प्रीत":3724," भरा":3725,"ियाना":3726,"श्न":3727,"तक":3728,"ुक्ति":3729,"ौली":3730," एक्टर":3731," पालन":3732,"िपा":3733,"िक्र":3734,"बादी":3735," रोजगार":3736," प्रशिक्षण":3737," निर्धारित":3738," U":3739,"',":3740," कंट":3741," सक्रिय":3742," हल":3743," प्रथम":3744,"फिल्म":3745,"ित्व":3746," जमानत":3747," अट":3748,"ित्स":3749,"िलास":3750,"37":3751,"ल्ला":3752," मोटर":3753,"उत्":3754,"भि":3755,"ष्ठा":3756," सूची":3757," पैदा":3758," संपत्ति":3759," इलेक्ट्र":3760," साबित":3761," कक्षा":3762," अखिल":3763,"र्द":3764," इन्":3765,"स्ट्रेलिया":3766," उठाया":3767,"रविवार":3768," साध":3769," करवाने":3770," बूथ":3771,"इंदौर":3772," कहां":3773," सेल":3774," मांगी":3775," चेयर":3776," इंजीनियर":3777," एसोसिएशन":3778," पसंद":3779," खड़े":3780," पुष्":3781," ट्रैफिक":3782,"उथ":3783," सप":3784," इस्ती":3785," वेब":3786," चिकित्सा":3787," उतार":3788,"ेलन":3789," क्षमता":3790," आरक्षण":3791,"वंत":3792," अंब":3793," डॉलर":3794," खाते":3795," अरविंद":3796," वितरण":3797," फायरिंग":3798," थो":3799,"हो":3800,"कर्मी":3801," मनीष":3802,"am":3803," प्रभा":3804," स्मार्ट":3805," झू":3806," दाखिल":3807,"अपने":3808," उपाध्यक्ष":3809," विस्तार":3810,"ur":3811," आती":3812," महाम":3813," क्रम":3814,"गणना":3815," लापरवाही":3816," चुनौती":3817," मास":3818," अकाउंट":3819," किरा":3820,"लेश":3821," चाहता":3822,"ेमारी":3823,"प्रधानमंत्री":3824,"िमा":3825," स्टेट":3826,"णसी":3827,"थे":3828,"स्तर":3829,"-म":3830,"दास":3831,"स्थल":3832,"'\n":3833,"लिंग":3834," विवे":3835,"ंडर":3836,"पट":3837," प्रतिमा":3838," पोस्टम":3839,"घाटन":3840,"ड्डा":3841," डायरेक्टर":3842,"क्यों":3843," लै":3844,"ानि":3845," विश्वास":3846," स्टैंड":3847,"राजस्थान":3848," मुद्दे":3849," काल":3850," धान":3851," उम्मीदवारों":3852," संदेश":3853," स्कू":3854," भावना":3855,"शासन":3856," दूरी":3857," पोस्टमॉर्टम":3858,"वली":3859," सपा":3860," सलाह":3861," प्ला":3862," टॉप":3863," सोच":3864," गुजर":3865,"िमी":3866," शै":3867," घूम":3868," निशाना":3869," किशोर":3870,"िग्ध":3871,"्वी":3872," गार्ड":3873," तभी":3874," प्रबंध":3875," कने":3876," प्रमाण":3877," अनुमान":3878," मानसून":3879,"उसे":3880,"ेन्द्र":3881,"ार्व":3882," आरती":3883," योजनाओं":3884," गौरव":3885,"रु":3886," सरपंच":3887," कमिश्नर":3888,"38":3889,"घायल":3890," रद्द":3891," समाप्त":3892," बढ़ाने":3893," फैक्ट":3894,"पार्":3895,"यं":3896,"भाष":3897,"वेल":3898," सकेंगे":3899," कर्मियों":3900," नियुक्त":3901,"सीय":3902," सीनियर":3903," ज्ञापन":3904," भीतर":3905,"सीसी":3906," ठंड":3907," इंडस्ट्री":3908,"शुक्रवार":3909,"जांच":3910,"नाटक":3911," प्रिय":3912," डिप्टी":3913," ठगी":3914," कड़ी":3915,"िपल":3916," यूनिट":3917,"टका":3918," एंट":3919," इंच":3920," स्थापना":3921,"णि":3922,"तभी":3923," करियर":3924," चलाया":3925," संघर्ष":3926," भुगतान":3927," l":3928,"ंती":3929," अर्थ":3930,"कंप":3931," फिल्मों":3932," बल्ले":3933," ट्रैक्टर":3934," लेना":3935,"ालात":3936," इंटरव्यू":3937,"साइड":3938," हेड":3939," वृद्धि":3940,"आरोपियों":3941," तोड़":3942,"धिकार":3943," दुर्गा":3944," प्रदीप":3945," तालाब":3946," भरो":3947," पूर्":3948,"विध":3949," शिकार":3950," हटाने":3951,"सचिव":3952,"पता":3953," प्यार":3954," रहीं":3955," प्रार":3956,"केशन":3957," बाकी":3958," वर्तमान":3959," गोद":3960," गोपाल":3961," चेता":3962," विशाल":3963," राजीव":3964," पावर":3965,"म्बर":3966,"300":3967," रुक":3968," होनी":3969," स्पी":3970," समीक्षा":3971,"्रेड":3972," सर्विस":3973," नशे":3974,"नाड":3975," संसद":3976," कार्यकाल":3977," गठन":3978," आतंक":3979," प्रिंस":3980,"ol":3981,"और":3982," जोन":3983,"तिक्रमण":3984," हाईवे":3985," बजकर":3986,"बो":3987,"मंगलवार":3988,"द्रा":3989,"स्टेबल":3990," जबर":3991," व्":3992," डाला":3993," लाइट":3994,"बीआई":3995,"जयपुर":3996,"अल":3997,"जिद":3998," दान":3999," रमेश":4000,"कारा":4001,"ुन":4002," विमान":4003,"किसी":4004," एफआईआर":4005,"स्पेक्टर":4006," कू":4007," परी":4008,"ल्टी":4009," चाहती":4010,"बिनेट":4011,"यही":4012," सिन्":4013," तिर":4014," पुन":4015," संदिग्ध":4016,"han":4017," बें":4018,"जनिक":4019,"ंपिक":4020," हिंसा":4021,"150":4022," रेट":4023," अक्ष":4024,"स्थिति":4025," खाने":4026," क्लब":4027," भ्र":4028," अमेरिकी":4029," चिकित्स":4030," फुटेज":4031,"ठे":4032," ग्":4033," उत":4034,"ंदन":4035," बादल":4036,"एसआई":4037," वार्":4038,"सेज":4039," निर्म":4040,"त्मा":4041,"साह":4042,"ष्टा":4043," News":4044,"ार्वजनिक":4045," पड़ा":4046," खाना":4047,"्मण":4048," स्टार":4049," शहरों":4050," पुराने":4051," टैक्स":4052," जगहों":4053,"ष्णु":4054," सख्त":4055," हंग":4056," हेम":4057," एरिया":4058," सोरेन":4059," विकसित":4060,"जूदा":4061," पदों":4062," वोटिंग":4063,"कृष्ण":4064," कैमरे":4065,"खों":4066," गे":4067," खी":4068," फ्ला":4069," माध":4070," BJP":4071," शानदार":4072," ज्योति":4073,"परी":4074," नज":4075," गांवों":4076," अच्छे":4077,"छात्रा":4078," मॉडल":4079,"डेट":4080," हित":4081," राठ":4082," जिसकी":4083," आपकी":4084,"टेडियम":4085,"धियाना":4086," चाक":4087," चार्ज":4088," पढ़ाई":4089," O":4090,"44":4091," कमल":4092,"65":4093," पहा":4094," स्टेडियम":4095," जोड़":4096," खुशी":4097,"400":4098," बध":4099,"यात्रा":4100," यदि":4101,"साइट":4102," मिलती":4103," बहु":4104," पुरस्कार":4105," ऊंच":4106," तीसरी":4107,"बुधवार":4108,"-प्र":4109,"नाल":4110," कथ":4111," पॉल":4112," चलाने":4113,"स्कूल":4114,"99":4115," सका":4116," नर्स":4117,"ड्र":4118,"फोन":4119," वाय":4120," बीमार":4121," समस्याओं":4122," ठेके":4123,"ेद":4124," नारे":4125,"ानु":4126,"बीजेपी":4127," पहुंचाया":4128,"फेसर":4129,"ब्लिक":4130," दह":4131," दोबारा":4132," अमृत":4133,"कू":4134,"बुल":4135,"यत":4136," आजा":4137,"स्कृतिक":4138," सिन्हा":4139," दस":4140," चपेट":4141,"लाश":4142,"राबाद":4143,"बीन":4144," दर्द":4145," जुट":4146," पकड़":4147," नियुक्ति":4148," पोर्ट":4149,"न्द":4150," यात्री":4151," बातें":4152," उपाय":4153," पुरानी":4154," विशेषज्ञ":4155,"-पिता":4156,"!\n":4157," हालात":4158," इमर":4159," टिप्":4160," जिसका":4161,"ोरख":4162," मच":4163," दलों":4164," नेट":4165," श्याम":4166," टाइम":4167,"गरानी":4168," अरब":4169," ज्ञान":4170," आबादी":4171," एक्शन":4172,"ार्म":4173," स्वीकार":4174,"परिजनों":4175," क़":4176," अतिक्रमण":4177," विज्ञान":4178," नमः":4179,"फान":4180,"हमार":4181," कठ":4182," लिम":4183," चर":4184," संस्कार":4185," राजेंद्र":4186," वेतन":4187," फिलहाल":4188," चेतावनी":4189,"जोर":4190,"स्त्री":4191,"गेट":4192," निकाली":4193," अध्यक्षता":4194,"ंकज":4195," प्रेस":4196,"कंपनी":4197,"टरी":4198," सार्वजनिक":4199," आक्र":4200," तार":4201," शही":4202," नक्स":4203,"वास्तव":4204," इज":4205," रेड":4206," संगी":4207," दिवसीय":4208,"कृति":4209,"it":4210,"नार":4211,"नेर":4212," अह":4213," स्म":4214," अनुभव":4215," लाखों":4216," कप्तान":4217," सत्य":4218," जिन्होंने":4219," मस्":4220," वॉ":4221," ओम":4222," उद्घाटन":4223," छापेमारी":4224,"गिर":4225,"लान":4226,"लैंड":4227,"विक":4228," पशु":4229," लू":4230,"कर्ता":4231," सम्मेलन":4232," दरवा":4233," लक्ष्मी":4234,"गुरुवार":4235,"-बार":4236,"हली":4237,"‍ट":4238,"क्सी":4239," निगरानी":4240," बॉलीवुड":4241,"चौ":4242,"शाम":4243,"र्में":4244," नाय":4245," राजस्व":4246,"परिवार":4247," स्ट्र":4248," योगदान":4249," इंटरनेशनल":4250," गतिविधियों":4251,"शव":4252," कथा":4253,"ट्टा":4254," आशंका":4255,"ज्जैन":4256,"लीय":4257," एंट्री":4258," बम":4259," विभा":4260,"धीश":4261," स्वतंत्र":4262," जम्मू":4263," ट्रांसफर":4264," कारोबार":4265,"कहा":4266,"नन":4267," भीषण":4268,"ंगर":4269,"बाग":4270," प्रत्येक":4271," मंजू":4272," पवन":4273," वकील":4274," महोत्सव":4275,"स्कृति":4276," आगामी":4277,"तरीय":4278," दाम":4279," अके":4280," डिज":4281,"दूसरी":4282,"फ्रेंस":4283," हल्की":4284,"मंदिर":4285," अत":4286," गरीब":4287," तस्कर":4288," नियमों":4289," दुर्घटना":4290," गायब":4291,"अर":4292,"ईओ":4293,"डिया":4294," निरा":4295," अंतरराष्ट्रीय":4296," बधाई":4297,"ानगर":4298," फैंस":4299," दिनेश":4300," मिशन":4301," बाग":4302," इक":4303,"ोलॉ":4304," ग्रह":4305,"चक":4306," प्रयोग":4307,"सेस":4308," देती":4309," टॉ":4310," निकला":4311,"मामला":4312," श्रद्धालुओं":4313,"ख्":4314,"हाई":4315,"मोहन":4316," साहिब":4317,"नोई":4318," प्रवक्ता":4319," क्लास":4320,"गन":4321,"मिल":4322," उक्त":4323," स्तरीय":4324,"्लो":4325," बढ़ा":4326," गौतम":4327," बिक्री":4328,"ौती":4329," विनो":4330," भाषा":4331," सलमान":4332,"रत":4333," सेंट":4334," रास्ता":4335," डूब":4336," लगाते":4337,"यी":4338,"्तीय":4339,"ड़िता":4340," कुश":4341," खिलाड़ी":4342," हरि":4343,"आईटी":4344," सुरेश":4345,"198":4346," समझौ":4347," निशान":4348," धोखा":4349,"क्योंकि":4350,"इए":4351,"्रीम":4352," मेहन":4353," स्वामी":4354," सांस्कृतिक":4355,"त्तीसगढ़":4356," चांदी":4357,"ड़ियों":4358," पेंशन":4359," रोल":4360," गुल":4361,"युवक":4362," चाकू":4363,"as":4364,"शिक्ष":4365,"्रेशन":4366," जू":4367,"िनियम":4368,"ंपरा":4369," मीटिंग":4370," जीतने":4371," ऊर्जा":4372,"46":4373,"र्मी":4374," नहर":4375," आकर्":4376," समान":4377," राजधानी":4378," धाम":4379,"स्थानीय":4380,"कर्मियों":4381,"रेज":4382," सोना":4383," झां":4384,"सलमान":4385," सुनाई":4386," कंट्रोल":4387," बॉल":4388," आना":4389,"ृत्य":4390," गुण":4391," आएंगे":4392," बैठा":4393," स्वच्छ":4394," अपराधियों":4395," नजदी":4396,"उप":4397,"बस":4398,"मै":4399,"ोसी":4400," गह":4401,"जाइन":4402," जुड़ी":4403," संकल्प":4404,"छत्तीसगढ़":4405,"शंकर":4406," शौ":4407," फॉर्म":4408,"राहा":4409," ट्रॉ":4410," खुले":4411," शेख":4412,"आम":4413,"द्या":4414,"मार्":4415," जस":4416," भव्य":4417,"स्सा":4418," विष्णु":4419,"ेड":4420," सुल":4421,"ad":4422,"शोध":4423," श्रीवास्तव":4424," हमारा":4425," विनोद":4426,"पटना":4427,"‍या":4428,"ंग्ल":4429," सुंदर":4430," इंस्पेक्टर":4431," पांडे":4432," H":4433,"श्त":4434,"िटेड":4435," सैनिक":4436,"ड़कों":4437," खार":4438," घोट":4439," विभागों":4440," बोला":4441," विदेशी":4442," सौर":4443," रानी":4444," काबू":4445," अनुर":4446," उपचुनाव":4447," रूस":4448,"47":4449,"un":4450,"ंवर":4451,"कले":4452,"भो":4453," कहती":4454," चौराह":4455," CM":4456," अफसरों":4457,"भोपाल":4458," नती":4459," काे":4460,"सात":4461,"जिसे":4462," मनो":4463," काउंस":4464,"42":4465," माय":4466,"न्व":4467," संजीव":4468," अधिनियम":4469,"विंदर":4470," सूरज":4471," मंज":4472,"क्षी":4473," संस्कृति":4474,"ढ़ी":4475," प्रोफेसर":4476,"ूर्त":4477," दिखाया":4478," कमाई":4479,"नई":4480," अना":4481," शास":4482," छोटी":4483," बचाव":4484," मानसिक":4485," पंडित":4486," सारे":4487," साउथ":4488," सीधे":4489," लागत":4490," पंजी":4491," खेला":4492," धरना":4493,"ग्रामीणों":4494," हंगामा":4495," J":4496," पथ":4497," चतु":4498," भारती":4499," वर्षा":4500," स्वयं":4501," एडम":4502,"कट":4503,"रेस्ट":4504,"कोट":4505," कैबिनेट":4506," जुटी":4507," प्रोड":4508,"ड्डी":4509,"सबसे":4510," मेहनत":4511,"दिक":4512,"सूस":4513," नवीन":4514," टो":4515,"रेल":4516,"हमने":4517," टेक्":4518," कब्जा":4519," फ्री":4520," धार":4521," बैग":4522," प्राण":4523," अरुण":4524," गैस":4525," मुकाबला":4526," संरक्षण":4527," हिसाब":4528,"ष्टाचार":4529,"अग":4530," ऑस्ट्रेलिया":4531," उत्सव":4532," बोली":4533," ईरान":4534," जिनमें":4535," कौशल":4536," आंध":4537," मुक्त":4538," बेट":4539,"श्वासन":4540," प्रारंभ":4541," मचा":4542," परंपरा":4543," जीता":4544," आवश्यकता":4545,"ैक्ट":4546," अंडर":4547,"तायात":4548," साज":4549," पासवान":4550,"न्यू":4551,"्यास":4552," डिप":4553,"रेलू":4554," अनुप":4555," ब्रि":4556," कानूनी":4557," मुद्दों":4558," पंकज":4559," फिल्":4560,"माज":4561," सब्":4562," एसडीएम":4563," पदार्थ":4564," दिव्या":4565," श्रेणी":4566," कच":4567," लें":4568," सम्":4569,"साइ":4570," डीएम":4571," बढ़ावा":4572," तुलना":4573," दस्तावेज":4574,"39":4575,"वाड़ा":4576," स्कोर":4577," डो":4578,"ायकों":4579," सुभाष":4580," पड़ता":4581,"फिया":4582,"रिस":4583,"लखनऊ":4584,"नाक":4585," उचित":4586," चंडी":4587," होम":4588,"स्टिस":4589," निकली":4590," आदिवासी":4591," रणनी":4592," वेबसाइट":4593,"घु":4594," ब्रे":4595," आश्वासन":4596," उड़":4597,"गाह":4598," बनकर":4599," छोड़कर":4600," महेंद्र":4601," अवधि":4602," कराए":4603," गैर":4604," चीज":4605,"ोरखपुर":4606,"मल":4607," पारा":4608," कमजोर":4609," इनकार":4610,"ोषण":4611," हाथों":4612," पांडेय":4613," परिवहन":4614," ससुराल":4615,"चंद्र":4616,"जैसे":4617,"ेड़":4618,"ड़ों":4619,"‍य":4620," विज":4621,"प्रकाश":4622," झग":4623," समझा":4624," पक्षों":4625," चेयरमैन":4626,"श्म":4627,"।\"\n":4628," केन्द्र":4629," कोलकाता":4630," शख":4631," छत्तीसगढ़":4632," प्रतिबंध":4633," चारों":4634," निकलने":4635,"बद्ध":4636,"मां":4637," शब्":4638," यश":4639,"क्षेत्र":4640," जाएं":4641," चोरों":4642," भक्तों":4643," शूटिंग":4644,".\"\n":4645,"el":4646,"चीन":4647," आर्ट":4648," चैंप":4649," गिरने":4650," वित्तीय":4651," मुद्दा":4652," फैक्ट्री":4653," लिमिटेड":4654,"हिता":4655," बुरी":4656," असम":4657," भोजन":4658," जाट":4659," मुआ":4660,"ंडे":4661,"दीय":4662,"ल्थ":4663,"ज्ञानिक":4664," व्यापार":4665," हवाई":4666," भूप":4667," एच":4668,"स्थाप":4669," कैद":4670," डिजाइन":4671," क्राइम":4672," मध्यप्रदेश":4673,"49":4674,"गज":4675,"यक":4676,"शाह":4677," सुसाइड":4678," पर्यावरण":4679,"hi":4680,"har":4681," मंगल":4682," हफ्":4683," रोग":4684," प्रती":4685," महसूस":4686," दुबे":4687," जुर्म":4688," गोल्ड":4689," महासचिव":4690," श्रीराम":4691,"जफ्":4692,"मध्य":4693," पर्":4694,"वीडियो":4695," राजकुमार":4696," हजारों":4697,"सिद्ध":4698," वापसी":4699,"र्ज":4700," प्रमो":4701," संभव":4702," अपडेट":4703," मौजूदा":4704,"डीपी":4705," ऐलान":4706," ग्रा":4707," ट्रैक":4708," उत्साह":4709," दावे":4710," ग्वालियर":4711," कश्मीर":4712," सड़कों":4713," मगर":4714," दिक्":4715," वसू":4716,"र्त":4717," राउंड":4718," साथियों":4719," मोर्चा":4720," मतदाता":4721," खारिज":4722," भि":4723," भीड़":4724," खर":4725," खड़ा":4726," साझा":4727," निष्":4728," आपका":4729," पश्चिमी":4730,"चर्स":4731,"डिशा":4732,"महा":4733," पड़ी":4734," विन":4735," महतो":4736,"पूत":4737,"उसकी":4738," बॉक्स":4739," इस्तीफा":4740,"पत्र":4741,"साम":4742," वही":4743," तृ":4744,"जनक":4745," पाने":4746," प्लांट":4747," निरीक्षक":4748," शुक्ला":4749,"कलेक्टर":4750,"डेंट":4751," भंड":4752,"िलंब":4753,"जात":4754," छूट":4755," जोध":4756,"ंधे":4757,"प्रा":4758," संयोजक":4759," बेचने":4760," प्रतिनिधि":4761,"प्त":4762,"मेल":4763," कोटा":4764,"मेरे":4765," लंबी":4766,"िट्टी":4767,"जारी":4768,"िंदर":4769,"रेन्द्र":4770," पकड़ा":4771,"्योहार":4772," दोषी":4773,"क्रेन":4774," प्रण":4775," जाया":4776," सिने":4777,"ैनल":4778," पलट":4779," नियंत्रण":4780," फ्लाइट":4781," नवा":4782,"्योर":4783," प्रतिक":4784," खून":4785," एका":4786," मेडल":4787," ट्रेनिंग":4788,"जफ्फर":4789,"43":4790,"जवाब":4791," गर्म":4792,"नामेंट":4793," फल":4794," घट":4795,"रेली":4796," सामग्री":4797," अहमद":4798," मस्जिद":4799,"ंतर":4800,"ोतरी":4801," बाय":4802,"ंगना":4803,"राहुल":4804,"एससी":4805," शिफ्ट":4806," आत्महत्या":4807,"गौर":4808,"पणी":4809,"सूर":4810,"ौज":4811," बजा":4812,"राट":4813," लाश":4814,"एसटी":4815,"ूर्नामेंट":4816," कर्मी":4817," रुख":4818," दूध":4819," शख्स":4820,"जेंसी":4821,"यदि":4822," वर":4823,"क्चर":4824," वर्क":4825,"मेट":4826,"ाइड":4827," पत्थर":4828," एनडीए":4829," मैचों":4830," जोधपुर":4831," करी":4832," खोज":4833," संहिता":4834,"माता":4835,"पात":4836,"्यूट":4837," हिंदी":4838," विधि":4839," दौरे":4840," व्यापारी":4841," कथित":4842,"इप":4843," परम":4844," बाढ़":4845," पीड़ित":4846," कैलाश":4847," अब्":4848," खिलाड़ियों":4849," मारकर":4850," दिक्कत":4851,"05":4852,"पै":4853," सैक":4854," दुष्":4855," रखना":4856," विधायकों":4857,"बन":4858,"ृज":4859," दुकानों":4860,"दायिक":4861,"ब्ल्यू":4862," टिप्पणी":4863,"कांत":4864," सिया":4865," बुल":4866," गोयल":4867," दिग्":4868,"ce":4869,"अमेर":4870,"धाम":4871,"पिता":4872,"ज़ा":4873," सौंपा":4874," भरोसा":4875,"जिस्ट":4876,"सुप":4877," अक्सर":4878," नशा":4879,"रीन":4880," बताए":4881," मानव":4882," प्रावधान":4883," घायलों":4884," नियमित":4885," किरदार":4886," हफ्ते":4887,"्रिया":4888,"लील":4889," मारे":4890," जिन्हें":4891,"िलासपुर":4892,"वस्था":4893," सकी":4894," मारा":4895,"्रो":4896," आचार्य":4897,"वाले":4898," रखें":4899," आशीष":4900," अखिलेश":4901,",\n":4902,"दुल":4903," पाली":4904,"नेता":4905," कोहली":4906,"स्म":4907,"स्टी":4908,"गीर":4909," जानिए":4910," घटनास्थल":4911," संकट":4912,"ांश":4913," पुष्टि":4914," खेती":4915," अर्जुन":4916," नागरिकों":4917,"id":4918,"भूम":4919,"ॉन":4920,"ड़िता":4921," फैल":4922," जिम्मेदार":4923," न्यायाधीश":4924," नित":4925," आसान":4926," घरेलू":4927," अग्":4928," जैसा":4929,"मोदी":4930," हिस्सों":4931," कर्नाटक":4932,"IR":4933,"यां":4934,"केत":4935," महेश":4936," कार्यवाही":4937," जनरल":4938," ट्रंप":4939," संभाल":4940,"ोलॉजी":4941,"हि":4942," बत":4943," चक्र":4944," जोशी":4945," मेला":4946," दौरा":4947," भ्रष्टाचार":4948,"रिपोर्ट":4949," रांची":4950," ग्रे":4951,"नाडा":4952," विहार":4953," समर्":4954,"पीड़ित":4955," सिंध":4956," छत":4957," सकें":4958," गुर्जर":4959," परिवारों":4960," फैला":4961,"घाट":4962," बिल्डिंग":4963," मतदाताओं":4964," साजिश":4965,"टू":4966,"म्म":4967," लेंगे":4968,"राइ":4969," जीते":4970," लड़ाई":4971,"ड्ढ":4972," प्रस्तुति":4973," फेंक":4974,"केंद्रीय":4975,"सारी":4976," लल":4977," प्रकरण":4978," दीवार":4979," इंस्ट":4980," मांगों":4981,"भारंभ":4982,"फ्टी":4983,"उधर":4984,"ूंगा":4985," उनमें":4986," बीमारी":4987," मैसेज":4988," छोटा":4989,"एचओ":4990,"जलि":4991," पदाधिकारियों":4992," चौराहे":4993,"ab":4994," हरी":4995,"त्नी":4996," यातायात":4997," आपूर्ति":4998," बनाना":4999," जिलाध्यक्ष":5000," घटनाओं":5001," जताया":5002," कैंसर":5003," शहीद":5004," मुर":5005,"र्वाद":5006,"ायी":5007," निधन":5008," लाइस":5009," चलता":5010," लीक":5011," जयंती":5012," मैनेजर":5013," W":5014,"BI":5015,"दराबाद":5016,"मगर":5017,"शाली":5018," पायल":5019,"मास":5020," धूप":5021," रूट":5022," प्रतिभा":5023,"tion":5024," मैन":5025," इंद":5026," खेले":5027," संगठनों":5028,"हमें":5029," शोर":5030,"वरूप":5031,"ंधर":5032," मानना":5033," प्रशासनिक":5034,"िलीप":5035," अर्पित":5036," चीफ":5037,"ल्लेख":5038," विवेक":5039," तिल":5040," शांत":5041," शुल्क":5042," प्रतिष्ठा":5043," केंद्रों":5044," प्रियंका":5045,"et":5046,"यम":5047," सेट":5048," भरी":5049," एप":5050," पार्किंग":5051,"देन":5052,"197":5053," राज्यसभा":5054," खाद्य":5055," मूवी":5056," प्रिंसिपल":5057," सिनेमा":5058,"ॉन्":5059," पड़े":5060," लीड":5061,"ियत":5062,"ड़िया":5063,"स्तानी":5064," दर्जन":5065,"ेन":5066,"टीएम":5067,"काई":5068," सीता":5069,"वेस्ट":5070," पेड़":5071," आशीर्वाद":5072,"41":5073," लापता":5074," जुड़े":5075," मतलब":5076," सफर":5077," आधारित":5078," आखिर":5079," पोर्टल":5080,"खु":5081," नही":5082," देखी":5083," बढ़ने":5084," वोटर":5085," पकड़ा":5086,"वितीय":5087," पहन":5088," शुभारंभ":5089,"च्छा":5090,"उत्तर":5091,"is":5092," हर्ष":5093," पब्लिक":5094," तनाव":5095," उन्":5096," समापन":5097,"ाइयों":5098," कुलदीप":5099,"संख्य":5100," कॉन्फ्रेंस":5101,"िडेट":5102,"कां":5103,"गराज":5104," बाई":5105," बदले":5106,"ग्रस्त":5107," जागरूकता":5108," पूर्वी":5109,"वेंट":5110," पंप":5111,"्रल":5112," दैनिक":5113,"वाहा":5114," खतरा":5115," फं":5116," फांसी":5117," क्षति":5118," निर्द":5119," पुण":5120," फुट":5121," अपर":5122," वेस्ट":5123," छात्राओं":5124,"250":5125,"डकर":5126," आवं":5127," बेस":5128," कैंड":5129," अमन":5130," अपराधी":5131," रिजर्व":5132," प्रेरित":5133,"गति":5134," टीमें":5135,"हरीर":5136,"एक्स":5137,"फो":5138," सैन":5139," आकाश":5140,"्याज":5141," रोका":5142," लीटर":5143," बदलने":5144," लिखित":5145," दिलाने":5146," जिंदगी":5147," एग्जाम":5148,"दीश":5149," कहने":5150," लुधियाना":5151,"द्दीन":5152," डिजिटल":5153,"56":5154," आर्य":5155," इंग्ल":5156,"डीह":5157," बच्चन":5158,"ंटों":5159,"लोड":5160,"आरपी":5161," यूज":5162,"-अप":5163," तस्करी":5164," दोस्तों":5165," आक्रोश":5166," आरा":5167," टीमों":5168," चौराहा":5169,"ro":5170,"शिया":5171," कस्":5172," लोह":5173," गले":5174," चै":5175," छीन":5176," शाखा":5177," तकनीकी":5178,"पार्टी":5179,"ॉड":5180," ममता":5181,"रात्रि":5182," रहना":5183," डीएसपी":5184," वैज्ञानिक":5185," खरीदी":5186," परिवर्तन":5187," होली":5188," संशोध":5189," पीने":5190," मांगा":5191," मांगे":5192," झु":5193,"....":5194," संबंधी":5195,"ट्रो":5196," उत्पादन":5197," मंजूरी":5198," ताल":5199," खड़ी":5200,"वरों":5201," इनके":5202," साहब":5203," पालिका":5204," लड़की":5205," रिजल्ट":5206," ग्रहण":5207," जुर्माना":5208,"th":5209," सारी":5210," मंग":5211," हट":5212," हिम":5213," इतने":5214," टकरा":5215,"जिसकी":5216," ताकत":5217," मतगणना":5218," अफ्री":5219," संपन्न":5220," विद्युत":5221,"दुर":5222,"लंका":5223," विश्":5224," टूर्नामेंट":5225," खेलने":5226," चैंपियन":5227,"सिया":5228," सश":5229,"विजय":5230,"पाकिस्तान":5231,"ाइट":5232,"भूषण":5233,"युक्त":5234," जंग":5235," जुल":5236," जिक्र":5237," दायर":5238," त्योहार":5239,"इसको":5240," ऑल":5241," माने":5242," दुर्ग":5243," पदक":5244,"यूपी":5245," भेजने":5246," दलित":5247," अभ्यर्थियों":5248,"झी":5249,"हिर":5250," नृत्य":5251," डू":5252," रहें":5253,"काया":5254," टीचर":5255," गुम":5256,"धिकरण":5257," राज्यपाल":5258,"वर्धन":5259," भरने":5260," मिमी":5261," खरीदने":5262," जवानों":5263,"85":5264,"इतना":5265," तल":5266,"ित्त":5267," राह":5268," गुना":5269," इंडियन":5270," वादा":5271," पुराना":5272," तहसीलदार":5273," लाइसेंस":5274,"रिए":5275," अश्व":5276," गेम":5277," प्रदर्श":5278," विजे":5279,"सागर":5280," मेले":5281," पाइप":5282," मास्टर":5283," सहमति":5284,"वर्क":5285," भरत":5286," नाराजगी":5287," कवि":5288," पिट":5289,"क्ष्य":5290," ज्यादातर":5291," महाप":5292," निकालने":5293," लाइफ":5294," श्रद्धालु":5295," सिलस":5296," कैंडिडेट":5297,"मक":5298," मारी":5299," हड़":5300," नग":5301," देरी":5302," मुंह":5303,"हरू":5304," दर्श":5305," उपभो":5306," देखें":5307," पैदल":5308," चेहरे":5309," प्लेटफॉर्म":5310,"अभ":5311,"डब्ल्यू":5312," अल्प":5313," कितना":5314,"ंगन":5315,"वार्":5316," अपहरण":5317,"इनके":5318," ड्रोन":5319,"ing":5320," अंग्रे":5321,"-एक":5322,"जित":5323,"डू":5324," दाय":5325," वारा":5326,"र्टी":5327," टोल":5328," उसको":5329," मजबूर":5330," पौधे":5331,"ेगा":5332," गिरी":5333," हुईं":5334,"डीओ":5335," बच्चा":5336," इंजन":5337," गुट":5338," सुनकर":5339," बजाय":5340,"शिकायत":5341," कनेक्शन":5342,"हमारे":5343," वाराणसी":5344,"नै":5345,"टीआई":5346," डेट":5347," डांस":5348,"माने":5349," गोविंद":5350," भागने":5351," कारोबारी":5352,"lec":5353," मुहूर्त":5354,"कारात्मक":5355," मूर्ति":5356," अल्":5357," किशन":5358," भरे":5359," तहरीर":5360," प्रश्न":5361," बाघ":5362,"राधिक":5363," जनपद":5364," उठाए":5365," PM":5366," जितेंद्र":5367,"ह्न":5368," टेक्न":5369," मुआव":5370," आलम":5371,"्यूल":5372," शक":5373," आईपी":5374,"निर्":5375," टाटा":5376," जायसवाल":5377," हेमंत":5378," नजदीक":5379,"ौड़":5380," चित्र":5381," संस":5382," अधिव":5383,"ष्टमी":5384," मात्रा":5385," अंसारी":5386," विकल्प":5387," ठग":5388,"हतक":5389," कलेक्ट":5390," फोर्स":5391,"मंडल":5392,"्ति":5393," बिश्":5394," गाली":5395," जानें":5396," ऐप":5397," महीनों":5398," ट्रेनों":5399," होंगी":5400," कानपुर":5401,"गलुरु":5402," त्रिपा":5403,"ंघन":5404," दुष्कर्म":5405,"51":5406," पवार":5407," जख":5408," प्रदू":5409,"सीना":5410," ध्व":5411," पहुंचाने":5412," पत्रकार":5413,"-छात्रा":5414,"पानी":5415,"रानी":5416," सैल":5417," सराह":5418," कितनी":5419," उल्ल":5420," उज्जैन":5421," इन्हें":5422," ग्राह":5423," प्रोत्":5424," पर्यटन":5425," प्रतिक्रिया":5426," त्रिपाठी":5427," रॉय":5428," अवि":5429," औसत":5430,"ंदाज":5431," कुर्":5432," बेस्ट":5433," सदस्यता":5434," सकेगा":5435," गहरा":5436,"लाइ":5437," फर्":5438," विरोधी":5439," बालिका":5440," नक्सल":5441,"58":5442,"एडा":5443,"ैम":5444," हेत":5445,"याल":5446," दिलीप":5447," गर":5448," मेर":5449," ट्रस्ट":5450,"गमन":5451," फाउंड":5452," स्वतंत्रता":5453,"गह":5454,"बद":5455," गंग":5456," तमिल":5457," राधा":5458," इश":5459," गिरोह":5460," सदन":5461," ढा":5462,"आपको":5463," वसूली":5464,"‍त":5465," तमाम":5466,"स्वा":5467," प्रजा":5468," प्रगति":5469,"नीत":5470," राजपूत":5471," धूम":5472," आरोपों":5473," रखकर":5474," मैनेज":5475," प्रोत्सा":5476,"कांड":5477,"फोट":5478,"नेक":5479,"हाज":5480," विरु":5481," क्षेत्रीय":5482," लीग":5483," बिजनेस":5484," बचने":5485," भोग":5486," आपराधिक":5487," बहस":5488," रजिस्ट्रेशन":5489," आदित्यनाथ":5490," पुष्प":5491," ग्राउंड":5492,"दक":5493,"यानी":5494," रेंज":5495," विद्या":5496," महादेव":5497," महाविद्यालय":5498,"स्वामी":5499," सांप":5500,"नाडु":5501," जबरद":5502,"दशी":5503,"मती":5504," फाइल":5505," विक्रम":5506," नाथ":5507," नीरज":5508,"ार्टमेंट":5509,"भगवान":5510," कोचिंग":5511,"120":5512,"SP":5513,"il":5514,"चि":5515," अक":5516," भो":5517,"साइकिल":5518," सुझा":5519," महज":5520," पाठक":5521," नरेश":5522," विरुद्ध":5523,"-ए":5524,"िने":5525," पर्स":5526," मान्यता":5527," वोटों":5528," जल्दी":5529," तत्कालीन":5530," बिल्कुल":5531,"एएस":5532,"धीन":5533,"बत":5534," सन":5535," बाला":5536,"वाय":5537," संसा":5538,"विड":5539," भाषण":5540,"व्यवस्था":5541," सोनू":5542," किराए":5543,"विधायक":5544," हेतु":5545,"09":5546," इस्ल":5547,"कानेर":5548," जिसने":5549," बढ़कर":5550," मंदिरों":5551,"झारखंड":5552," केरल":5553," जस्टिस":5554,"ंत्रित":5555," जगदीश":5556," ईडी":5557," लड़के":5558," FIR":5559,"अस्पताल":5560,"नए":5561,"सला":5562," अस्थ":5563,"ांजलि":5564,"न्स":5565," सीबीआई":5566," कारणों":5567," पुत":5568," आएगी":5569," उत्तरा":5570,"श्विक":5571," प्राधिकरण":5572," समीप":5573,"जिए":5574,"हिंद":5575,"वाज":5576," फंस":5577,"िलाई":5578," सिम":5579," लाठी":5580," एमपी":5581,"डॉक्टर":5582,"तिहासिक":5583,"वृ":5584,"वही":5585,"िको":5586," फते":5587," फंड":5588," डिमांड":5589," संभाग":5590," पीठ":5591,"वर्ष":5592,"्लाह":5593," हेल्थ":5594,"पहली":5595,"प्रतिनि":5596," उल्लंघन":5597," लोन":5598," अरेस्ट":5599," गली":5600," राजू":5601,"रद":5602,"ोंक":5603,"क्की":5604," इंद्र":5605," ओडिशा":5606," मानते":5607,"शादी":5608,"ार्थना":5609," इलेक्ट्रिक":5610,"52":5611,"57":5612," मिट्टी":5613," काली":5614," संवाद":5615,"ोग्राम":5616,"प्रो":5617," महाकाल":5618," डेटा":5619," कैमरा":5620," जिंदा":5621," महामंत्री":5622," बृज":5623," रिमांड":5624," बातों":5625,"एसएस":5626," आपत्ति":5627,"पूछ":5628,"धीरे":5629," ऑफर":5630," प्रभु":5631," देवेंद्र":5632,"-कश्मीर":5633," बिश्नोई":5634,"01":5635,"ak":5636,"धित":5637,"फॉ":5638," सतीश":5639," भक्ति":5640,"करे":5641,"ारीरिक":5642,"ष्णा":5643," राजद":5644," जबलपुर":5645,"कालीन":5646,"फिकेशन":5647," धोखाध":5648,"रेलवे":5649,"अगले":5650,"av":5651,"ir":5652,"उसी":5653," व्यवसाय":5654," तस्वीरें":5655," अक्षय":5656," संगीत":5657," गुणव":5658,"उद":5659," किरण":5660," चक्कर":5661," रात्रि":5662," लेख":5663," देगा":5664," कार्यरत":5665,"प्रिय":5666,"ज्वल":5667," मिश्र":5668," ठेकेदार":5669," नायब":5670," आकर्ष":5671,"्योरिटी":5672,"DA":5673,"नव":5674,"वण":5675," हॉल":5676,"क्ताओं":5677," बढ़ती":5678,"प्पू":5679," डीजल":5680," मीना":5681," सचिन":5682," मृत्यु":5683," गठित":5684," संसदीय":5685,"हल":5686,"ोली":5687," बोर":5688," रकम":5689," गार":5690," ग्रीन":5691," निलंब":5692," नरेन्द्र":5693,"बीते":5694," थानाध्यक्ष":5695," आदर्श":5696," तेजस्वी":5697," उठाने":5698,"संघ":5699,"बारिश":5700," सहयोगी":5701," सुझाव":5702," प्":5703," रावत":5704,"स्टिक":5705," उपस्थिति":5706,"प्टर":5707," आश्रम":5708," गीत":5709," रिसर्च":5710," टाइगर":5711,"धिकारिक":5712," नर्सिंग":5713," सेंट्रल":5714,"टाला":5715,"फाई":5716,"मिली":5717," बुरा":5718," नै":5719," धु":5720," कपड़े":5721,"िस्टल":5722," शुरुआती":5723," मूल्य":5724," विपक्षी":5725," मधु":5726," गोरखपुर":5727," तेंद":5728," प्रार्थना":5729,"िसी":5730," खनन":5731," इवेंट":5732," राजकीय":5733," बैठकर":5734," प्राचार्य":5735," रिश्वत":5736," गीता":5737," एकादशी":5738," अफ्रीका":5739,"कप":5740,"बिज":5741," जवा":5742," जाये":5743," मुसलमान":5744,"बाई":5745,"डीसी":5746," कैश":5747,"धीर":5748," बॉर्डर":5749," ब्लैक":5750,"ह्म":5751," पिक":5752,"लाब":5753," लेन":5754," घंटों":5755,"कीम":5756,"दाई":5757,"वीय":5758," पीड़िता":5759," सबूत":5760," यूक्रेन":5761,"स्क्यू":5762,"ध्याय":5763," इंस्टा":5764,"67":5765," हैदराबाद":5766,"तेज":5767," टेंडर":5768,"ढ़े":5769,"मुंबई":5770,"पूरे":5771," कार्यक्रमों":5772," जोरदार":5773," व्यक्तियों":5774," शासकीय":5775," ब्रेक":5776,"बॉ":5777," सच्च":5778,"ेंगू":5779," खत":5780," देगी":5781,"वीण":5782," चुन":5783,"पाही":5784," एक्सपर्ट":5785," खींच":5786," गुणवत्ता":5787,"थियों":5788,"बरा":5789,"ुदायिक":5790," कं":5791," कनाडा":5792," सपोर्ट":5793," बस्ती":5794," गये":5795," लेवल":5796," जुटा":5797," रोशन":5798,"फाइन":5799,"06":5800,"छो":5801,"व्या":5802,"ेगी":5803," विस":5804," स्नान":5805," विराट":5806,"्रीट":5807," लगते":5808," ठा":5809," बढ़ोतरी":5810,"वर्तमान":5811,"ूहिक":5812," v":5813,"78":5814," जज":5815," रिप":5816," किताब":5817," कांड":5818," एंब":5819,"हाबाद":5820,"पुरम":5821,"र्मदा":5822,"्यूज":5823," मांगने":5824," तीर्थ":5825," आसानी":5826," पूर्णिमा":5827," पर्याप्त":5828,"PS":5829,"खास":5830,"बॉल":5831,"सैन":5832," कितने":5833,"जीपी":5834," द्वितीय":5835," जुड़ा":5836,"and":5837," कलेक्शन":5838," सुविधाओं":5839," रोजाना":5840," विद्यार्थी":5841," प्राथमिकता":5842," छुट्टी":5843," दशक":5844," सैन्य":5845,"ट्स":5846,"डि":5847," आधा":5848," आशा":5849," करण":5850,"नाएं":5851,"रायपुर":5852," इसराइल":5853," निप":5854," सिंघ":5855,"ाप्ति":5856," न्यायिक":5857," इमरजेंसी":5858,"दरी":5859,"लक":5860," मक":5861," रक्त":5862,"र्वे":5863," नेहरू":5864," टीवी":5865," सुरेंद्र":5866," पॉइंट":5867," अभियंता":5868," सौरभ":5869," नंद":5870,"नातन":5871," साइकिल":5872," डिली":5873," संकेत":5874," पुलिसकर्मी":5875,"स्तक":5876,"कोई":5877," बैटरी":5878,"पूर्":5879,"वलप":5880,"दोपहर":5881,"सुनी":5882," ढूं":5883," कॉलेजों":5884," भेजे":5885,"र्मेंद्र":5886," पिटाई":5887,"आय":5888,"भाल":5889,"्शा":5890," कोर्स":5891,"वाइ":5892,"िताभ":5893," ऐतिहासिक":5894,"किसानों":5895,"धुनिक":5896," हराया":5897,"जफ्फरपुर":5898," निर्दलीय":5899," अल्पसंख्य":5900,"lection":5901,"जिट":5902,"।'\n":5903," सार":5904," हिन्":5905," मुक्ति":5906,"पावली":5907,"एमसी":5908," माफी":5909," स्क्रीन":5910," पीछा":5911," संस्थानों":5912," फ्लैट":5913," पड़ेगा":5914," अजमेर":5915," इकट्":5916,"02":5917," अरो":5918," वास":5919," सेन":5920," फेल":5921," फोर":5922," फंसा":5923," राणा":5924," छठ":5925," शोभा":5926,"72":5927,"एड":5928,"बंद":5929,"िणी":5930," शरण":5931," उल":5932,"क्षर":5933," महंत":5934," भागी":5935," अभिन":5936," आईं":5937," इनकी":5938,"196":5939," मौजूदगी":5940," व्यवहार":5941," गंभीरता":5942," सुविधाएं":5943," बहादुर":5944," स्वच्छता":5945,"ईडी":5946," गि":5947," काला":5948," एंटी":5949," यूनियन":5950," अब्दुल":5951,"ac":5952,"ंजी":5953,"केंद्र":5954," पड़ी":5955," नाले":5956," शारीरिक":5957,"बीयत":5958," प्रेमी":5959," मार्गदर्शन":5960,"वित्र":5961,"द्योगिक":5962," तुम":5963,"भिषेक":5964," प्रदूषण":5965," सत्":5966," सर्ट":5967," पृ":5968,"विपक्ष":5969," मात्र":5970," कमांड":5971,"प्ले":5972," लोकतंत्र":5973," पोस्टर":5974," डेढ़":5975," लौटा":5976," मुखिया":5977," कॉन्स्टेबल":5978," सेकेंड":5979," आजाद":5980,"भूमि":5981," पायलट":5982,"AP":5983,"सें":5984," बिर":5985," लड़क":5986," आग्रह":5987," मेघ":5988," अस्पतालों":5989," चलेगा":5990," प्रतिनिध":5991," पटवारी":5992," दिव्यांग":5993," प्रतीक":5994,"om":5995,"आत":5996,"थुरा":5997,"पाली":5998,"ॉस":5999,"्की":6000,"न्नी":6001," समन्व":6002," मुझ":6003,"विटी":6004," अनुरा":6005,"किस्तानी":6006," मेट्रो":6007," जीती":6008," अवॉर्ड":6009," आएगा":6010," लालू":6011," एक्टिव":6012," खेतों":6013," इंतजाम":6014," हिसार":6015," घोटाले":6016,"रस":6017,"रेंस":6018," सड़":6019," लड़ा":6020," आधिकारिक":6021," एशिया":6022," इकाई":6023," मेन":6024," कामया":6025,"ग्न":6026," मिलाकर":6027," ऑफिसर":6028," तलाशी":6029," गलती":6030," तीसरा":6031," समर्पित":6032," पिस्टल":6033," रथ":6034," आलोक":6035," रहकर":6036," अनिवार":6037," ओपन":6038," चलाई":6039," व्यापक":6040," जिनके":6041," क्वि":6042," भजनलाल":6043," वायु":6044," अनेक":6045," शोध":6046," खन्ना":6047," बेहत":6048," सामूहिक":6049," द्वार":6050," निकाय":6051," हरकत":6052," संबंधों":6053," खाद":6054," मनाई":6055," माध्यमिक":6056," डालने":6057," चाचा":6058," धाराओं":6059," मोटरसाइकिल":6060,"पूछताछ":6061,"59":6062,"re":6063,"दियों":6064,"ाग":6065," नगरी":6066,"ांतर":6067," एएसआई":6068,"ायद":6069,"किट":6070,"टेक":6071," ओपी":6072," प्रतिपक्ष":6073," देशभर":6074,"उसका":6075," रेस्क्यू":6076," चीजों":6077," कटौती":6078," मजदूरी":6079," मेहता":6080," संशोधन":6081," जानी":6082," रंजन":6083," आलो":6084," चढ़":6085,"साई":6086," पीजी":6087," बिहारी":6088,"मोह":6089," गर्ग":6090," रणनीति":6091,"धारा":6092,"विर":6093," भती":6094," स्वरूप":6095," समक्ष":6096,"बीएस":6097," बिंद":6098," बसों":6099," तैयारियां":6100," जूनियर":6101,"बच्चों":6102," ट्रॉफी":6103,"संध":6104," बंट":6105," अथ":6106," प्रोग्राम":6107,"ामु":6108," ब्रांच":6109," ब्रिज":6110,"लिंपिक":6111,"ह्वान":6112," सिक्योरिटी":6113," अंबानी":6114," इंस्टाग्राम":6115,"07":6116," जमी":6117," भाइयों":6118," टर्म":6119,"ंचाई":6120," दुख":6121,"किसान":6122," तुम्":6123,"CC":6124,"us":6125,"षिक":6126," नाल":6127," आह्वान":6128," कार्":6129," सीख":6130,"क्टर्स":6131," जुड़":6132," कृष्णा":6133," राशिफल":6134,"वोकेट":6135," तुलसी":6136," चंडीगढ़":6137," क्षतिग्रस्त":6138,"-दूसरे":6139,"पान":6140,"परा":6141," हसीना":6142," शह":6143,"डीआर":6144,"मेरी":6145," जनजा":6146," ठहरा":6147,"शिष्ट":6148," धन्य":6149," ज़्यादा":6150,"ानिस्तान":6151," स्कूटी":6152," परीक्षण":6153,"54":6154,"66":6155," कच्च":6156," बरा":6157," ग़":6158," तबीयत":6159," खड़े":6160," फरी":6161," वैश्विक":6162," सेवाएं":6163," बालक":6164,"बांग्लादेश":6165," प्रणाली":6166,"धारी":6167,"शान":6168,"ड़ियां":6169," खंग":6170," फूड":6171," साय":6172,"जीवन":6173," जाएंगी":6174,"भाग्य":6175,"ोर्ट्स":6176," शास्त्री":6177,"बेडकर":6178,"वर्ती":6179,"सोशल":6180," अंकित":6181," अकेले":6182," सब्जी":6183," ढूंढ":6184,"अयोध्या":6185," कंगना":6186," हार्":6187," बघ":6188," गयी":6189,"र्प":6190," नेपाल":6191," प्रसिद्ध":6192,"सेन":6193,"्तिक":6194," लिंक":6195," गाने":6196," चेन":6197," आगरा":6198,"ya":6199,"नियां":6200,"लु":6201,"समाज":6202," सामुदायिक":6203," उपकरण":6204,"म्ब":6205," डिवा":6206," शेड":6207," नौकर":6208," बाजारों":6209," प्रभावी":6210,"-ग":6211,"PL":6212,"आउट":6213,"ख़":6214,"रू":6215," हस्त":6216,"ियंस":6217," संज्ञान":6218," कार्तिक":6219," समर्थक":6220," शीर्ष":6221," प्रबंधक":6222," कुशवाहा":6223,"डोर":6224," भूल":6225," उदा":6226,"्यूब":6227,"समय":6228,"ॉपर्टी":6229," दौड़":6230," मोहल्ले":6231," अभ्यर्थी":6232," उतारा":6233,"ed":6234,"जल्":6235,"तिया":6236,"शियों":6237," कोर":6238," भले":6239,"राष्ट्र":6240," संध्या":6241," पीटा":6242," हिमा":6243,"ट्रिक":6244," समर्थकों":6245," चंदन":6246," स्पीकर":6247," सॉ":6248," मानी":6249,"र्जन":6250," एकत्र":6251,"आईएम":6252," स्वर्ण":6253," गोदाम":6254," in":6255,"-जा":6256,"आइए":6257,"ेड़":6258,"ोपुर":6259," दफ्त":6260," एसी":6261," इच्छा":6262,"द्वारा":6263," आईडी":6264," दुकानदार":6265," चालू":6266," तलाक":6267,"ड्डू":6268," अनुरोध":6269," प्रमोद":6270," जुलूस":6271," फाउंडेशन":6272,"ंटा":6273,"भु":6274," स्टी":6275," डेंगू":6276," इजा":6277," सिपाही":6278,"विदेश":6279," सीईओ":6280," बीमा":6281,"प्रशासन":6282," ऑड":6283," बुक":6284," गुस्सा":6285,"सुन":6286," दिखाने":6287," कर्ज":6288," सिलेंडर":6289," काउंसिल":6290,"इंग":6291,"षभ":6292,"हु":6293,"हूर":6294," गड्ढ":6295," भोज":6296," प्रवीण":6297," अपमान":6298,"गेड":6299," सर्च":6300," लड़ने":6301,"न्नई":6302," बेंगलुरु":6303," इंग्लैंड":6304,"ok":6305," कन्या":6306," हक":6307," लव":6308," गज":6309," एके":6310,"स्टल":6311," बनाते":6312," पात्र":6313,"मेरा":6314," रेस्ट":6315,"195":6316," ढाई":6317," पौध":6318," मनोहर":6319," बेहतरीन":6320,"टिया":6321,"पन्न":6322," सेमी":6323,"वाड़ी":6324,"शेखर":6325," गुप्त":6326," ब्लड":6327," धीरे":6328," तकनीक":6329," तिरंगा":6330," नारेबाजी":6331," स्मृति":6332," तमिलनाडु":6333," सर्टिफ":6334,"03":6335,"04":6336,"टिल":6337,"नपुर":6338," मित्र":6339,"नामा":6340,"हाँ":6341,"ंगाना":6342," हुसैन":6343,"िमंडल":6344," जनसभा":6345,"लोत":6346," व्यापारियों":6347," जालंधर":6348," आंध्र":6349,"जिस्ट्रेट":6350," जख्मी":6351," अनिवार्य":6352,"मनी":6353," माला":6354," हंस":6355," बौ":6356," बैं":6357," खि":6358," टन":6359," महान":6360," जीतकर":6361," फीचर्स":6362," वास्तव":6363," चीनी":6364," शुभकाम":6365," पार्टियों":6366,"गिरफ्तार":6367," विजेता":6368,"ेर":6369,"ारों":6370," जिम":6371," आभार":6372,"वाड़":6373,"ंगार":6374," फोक":6375," मनाने":6376," कलाकार":6377," यूजर्स":6378,"-छात्राओं":6379,"-धीरे":6380,"जम":6381,"जाल":6382,"बड़ी":6383,"सास":6384,"ुष":6385,"्हा":6386," सारा":6387," मणि":6388," बांस":6389," लिये":6390," काटने":6391,"लेस":6392," समस्त":6393," निशा":6394," कुत्":6395," अधिकांश":6396," मेयर":6397,"ूलाल":6398," ऑर्डर":6399," चलती":6400," भेजी":6401," चलेगी":6402," कलाकारों":6403," पढ़ें":6404," पिछली":6405," ब्रिगेड":6406," हड़ताल":6407,"अधिकारियों":6408," कुर":6409," बिलासपुर":6410," जि":6411," आंगन":6412," शहरी":6413," उल्लेख":6414,"ाह्मण":6415,"ेंट्स":6416," चेहरा":6417," खेली":6418," रिश्तेदार":6419," दृष्ट":6420," दरवाजा":6421," कलेक्ट्रेट":6422," एंबुल":6423,"नम":6424,"ब्यू":6425," पवित्र":6426," लक":6427," चू":6428,"क्के":6429,"विंग":6430," धर्मेंद्र":6431,"जेडी":6432," आपस":6433,"श्चिम":6434," आतंकी":6435," सपना":6436," सड़कों":6437,"बरेली":6438,"मंत्र":6439,"हूं":6440,"ौदा":6441,"ारगेट":6442," फिट":6443," अध्य":6444," ओलिंपिक":6445," माफिया":6446," आपने":6447," प्रतिष्ठ":6448," चौथे":6449," चौटाला":6450," बनर्जी":6451," बॉडी":6452,"अपनी":6453," डालकर":6454," एजेंस":6455," मिसाइल":6456," फिल्में":6457,"सुप्रीम":6458,"ul":6459,"तू":6460,"प्रे":6461,"लला":6462," ब्ला":6463," रिल":6464," काग":6465," यौन":6466," टूर":6467," सुमित":6468," लाई":6469," जोड़":6470," पीड़िता":6471," माइ":6472,"ंटल":6473," श्रीलंका":6474," व्यक्तिगत":6475,"अमेरिका":6476," टेक्नोलॉजी":6477," एंबुलेंस":6478,"-श":6479,"95":6480,"तः":6481,"मपुर":6482," कड़ी":6483," मछ":6484," हेल":6485," बट":6486,"्रु":6487," जगत":6488," रौ":6489," अदा":6490," गला":6491,"नाश":6492," औद्योगिक":6493," बाब":6494," स्कीम":6495," साव":6496," साढ़े":6497,"त्कार":6498," आपसी":6499," उठाकर":6500," जेपी":6501," बरसात":6502," मध्यम":6503," श्रद्धांजलि":6504," मोहल्ला":6505," प्रेरणा":6506," मजदूरों":6507," समझौता":6508," इंदिरा":6509,"112":6510,"IM":6511,"ic":6512,"ग्रा":6513,"फरी":6514,"विश्व":6515," प्रतिदिन":6516," जनप्रतिनि":6517," इंसान":6518," इनमें":6519," खाता":6520," उपाध्याय":6521," रावण":6522," घेर":6523," भूपेंद्र":6524,"उदयपुर":6525," धन्यवाद":6526," सर्टिफिकेट":6527,"600":6528,"नू":6529,"ड़िया":6530," गवर्":6531," डायल":6532," एकता":6533," समृ":6534," पुलिसकर्मियों":6535," लाए":6536," गिरि":6537," बढ़ते":6538," आलोचना":6539,"-\n":6540,"इं":6541,"मूल":6542,"रूर":6543," हाइ":6544," रचना":6545," तू":6546,"िके":6547,"ांशु":6548," सिख":6549,"ंचल":6550," छिपा":6551," स्टोर":6552," अत्य":6553,"ऐसी":6554,"बंदी":6555,"वों":6556," मप्र":6557," नॉ":6558," विज्ञ":6559," साइड":6560," इको":6561,"भाई":6562," सील":6563," कैप":6564," सूत्रों":6565,"सम्म":6566," प्रशांत":6567,"सिस्ट":6568," अर्थव्यवस्था":6569," बतौर":6570,"-आ":6571,"जै":6572,"टर्स":6573,"बिर":6574,"ौरा":6575," किंग":6576," आसार":6577," प्रॉपर्टी":6578," राशन":6579," पहना":6580," मोड":6581,"वंशी":6582," मंत्रियों":6583," हिंदुओं":6584,"तलब":6585," शुक्ल":6586,"रिएंट":6587," गारंटी":6588,"53":6589,"AS":6590,"दपुर":6591,"पांच":6592,"मणि":6593," सैंप":6594,"लाइट":6595," भील":6596," टारगेट":6597," ओल":6598,"प्पी":6599," In":6600," आंख":6601," मलिक":6602,"परीक्षा":6603,"नारायण":6604," एडमिशन":6605," X":6606,"-फ":6607,"छत्तीसगढ़":6608,"बिल":6609," अन्":6610," चाय":6611,"विदा":6612," छू":6613,"प्रति":6614," अगली":6615," पेय":6616," ब्रह्म":6617," मिठ":6618," संभावित":6619,"स्वती":6620," स्वीकृति":6621," ख़िला":6622," अमृतसर":6623," हिमाचल":6624,"-द":6625,"ap":6626,"ठभ":6627,"्वर":6628," मर्डर":6629," भगत":6630,"तीनों":6631," कारा":6632,"विभाग":6633,"िवे":6634," मोड़":6635," पाते":6636," पेड़":6637,"जुट":6638," आंखों":6639," इंजीनियरिंग":6640," स्मार्टफोन":6641," इस्लाम":6642," खतरे":6643,"धेश":6644," बजर":6645," ग्लो":6646," एव":6647,"सीम":6648,"जागर":6649,"वेयर":6650," कमलेश":6651," अमिताभ":6652,"िराग":6653," खरीदा":6654,"ेश्वरी":6655," लंबित":6656," मैनेजमेंट":6657," पिकअप":6658,"-र":6659,"68":6660,"जिन्ह":6661,"तियां":6662,"ूली":6663,"ैना":6664," सकारात्मक":6665," मजिस्ट्रेट":6666," पटा":6667," जं":6668,"वाणी":6669,"वार्ड":6670," साझे":6671,"माव":6672," दर्शा":6673,"वंश":6674," चाहे":6675," घटनाएं":6676," ईवी":6677," सुनने":6678," हाथी":6679,"-पास":6680," क्विंटल":6681,"इला":6682,"बली":6683,"ढ़ी":6684," रतन":6685,"ानंद":6686," आति":6687," भेंट":6688," सुमन":6689," स्थिर":6690,"पूरी":6691," चेकिंग":6692," ब्रांड":6693," खोलने":6694," छोड़कर":6695," सैकड़ों":6696," ख़िलाफ़":6697,"अव":6698,"आस":6699,"पड़":6700,"भंगा":6701,"ढ़े":6702," लैंड":6703,"ताकि":6704,"नाती":6705," चुरा":6706,"वाकर":6707,"वारे":6708," बीएस":6709,"सरकारी":6710," रोम":6711," प्रयागराज":6712,"स्तीपुर":6713," जिनकी":6714," खोला":6715," टाउन":6716," मुआवजा":6717," सराहना":6718,"ash":6719,"दैनिक":6720," मदन":6721,"ियाबाद":6722," बाबू":6723," जाहिर":6724," हुड्डा":6725,"तिर":6726," हीट":6727,"मेड":6728," रेड्डी":6729," मानें":6730," करेंगी":6731," लोकेशन":6732," सुनीता":6733," मशहूर":6734," बिगड़":6735," निरस्त":6736," वार्ता":6737,"ख्ती":6738," बघेल":6739,"॥\n":6740," मय":6741," ब्याज":6742," रिव":6743," गिन":6744," सीतार":6745," अवगत":6746," शास्त्र":6747,"एचसी":6748,"69":6749,"थल":6750," सक्":6751," पंत":6752," पप्पू":6753,"ायर्ड":6754,"जीलैंड":6755," हालांकि":6756," ढंग":6757," एडवोकेट":6758," पढ़ाई":6759,"बुलेंस":6760," दर्शकों":6761," निलंबित":6762,"ओवर":6763,"‌टी":6764," सत्या":6765," कोट":6766," कायम":6767," तत्व":6768,"वाए":6769," खतर":6770," एकजुट":6771," टुक":6772,"कारिणी":6773," देखना":6774,"जिसका":6775,"सलमेर":6776," क्वाल":6777," करीबी":6778," महापौर":6779,"स्य":6780," हस्ता":6781," गाइड":6782," शतक":6783," बाज":6784," अनंत":6785," सोम":6786," कृपा":6787,"पूर्वक":6788," व्ही":6789," बहुमत":6790,"-अपने":6791," अधिवक्ता":6792,"चरण":6793," बं":6794," बग":6795," किड":6796," एटीएम":6797,"वायर":6798,"पीठ":6799,"ंडन":6800," सीधा":6801,"ढ़ा":6802,"्यूटर":6803," टेबल":6804," कुलपति":6805," संदे":6806," निकालकर":6807," मरम्म":6808,"ent":6809," नोएडा":6810," नेटवर्क":6811,"गौरतलब":6812," नक्सलियों":6813," vs":6814," फोकस":6815,"08":6816,"आख":6817,"शर":6818," लुक":6819," अत्या":6820," त्या":6821,"ंगाई":6822," फुल":6823,"स्टार":6824," बीकानेर":6825," झटका":6826,"हमारी":6827," निर्देशन":6828," वैष्ण":6829," श्रृ":6830," कीमतों":6831," ऋषि":6832,"अन्य":6833,"लगा":6834," गड़":6835," आस्था":6836," भीम":6837,"बाइक":6838," बीबीसी":6839," बुकिंग":6840," तैनाती":6841,"ग्वालियर":6842,"रामपुर":6843," ब्राह्मण":6844," आसमान":6845," सेवाओं":6846," इंचार्ज":6847," कचरा":6848," विनय":6849," डिलीवरी":6850,"थ्वी":6851,"प्ल":6852,"पेय":6853," मस":6854," अजीत":6855," किये":6856," काले":6857," फंदे":6858," पाकिस्तानी":6859,"जारा":6860,"आईसी":6861," समाजवादी":6862," स्पे":6863," लगेगा":6864,"तलाम":6865," नकली":6866," संसाधन":6867,"77":6868,"ंश":6869,"दय":6870,"धाना":6871," हैरान":6872," अंदाज":6873," करंट":6874,"ड़की":6875," इसको":6876," अनुसू":6877," नामक":6878," आईएएस":6879," आमजन":6880,"विधानसभा":6881," बहाने":6882," विभागीय":6883," ठाकरे":6884,"-दो":6885,"62":6886,"श्र":6887," मेल":6888," सिंचाई":6889," बताने":6890," मिलेंगे":6891," पीट":6892," हाे":6893,"क्षणिक":6894," बसपा":6895," डेवलप":6896,"ज़र":6897," व्यास":6898," चालकों":6899,"फ्रेंड":6900," चतुर्थ":6901," अग्नि":6902," धोखाधड़ी":6903,"जल्द":6904," शुभकामनाएं":6905,"800":6906,"पाई":6907,"्लाई":6908," हार्ट":6909," अटल":6910," विल":6911," आब":6912," भट्ट":6913," शरद":6914," चंप":6915,"करार":6916," फाइ":6917,"क्षम":6918,"ंडों":6919," सुर्":6920,"वीप":6921,"हरु":6922,"बाजार":6923,"108":6924,"वाराणसी":6925," निकट":6926," महावीर":6927," कपिल":6928," मिथ":6929," अर्चना":6930," चांद":6931," सौंपी":6932," दिग्गज":6933," पुणे":6934," जवाहर":6935,"संधान":6936,"-त":6937,"up":6938,"अनु":6939,"इयों":6940,"मंड":6941,"श्याम":6942,"ॉनिक":6943," सभाग":6944," अश्":6945," काशी":6946," उछ":6947," बाहरी":6948," फार्म":6949," डु":6950,"ायती":6951," सीकर":6952,"ंतु":6953,"ंबल":6954," ड्रग":6955," बनेगा":6956,"वेदनशील":6957," एजेंट":6958,"दुकान":6959," उदय":6960," गेहूं":6961," नितिन":6962," फंसे":6963," ₹":6964," बारी":6965," आचार":6966,"रीय":6967,"नीश":6968," दोस्ती":6969," दीपावली":6970,"मानस":6971,"देर":6972," रविंद्र":6973," एमएम":6974," प्रयासों":6975," लक्ष्मण":6976,"ate":6977," फॉर":6978," अटैक":6979," तस्करों":6980," शब्द":6981," तिलक":6982," फर्स्ट":6983," दफ्तर":6984,"aj":6985,"खियों":6986,"गां":6987,"थन":6988,"रिज":6989," कक्ष":6990," सिक्":6991," मवेश":6992," तट":6993," सास":6994," ड्रेस":6995,"टरिंग":6996,"जीपुर":6997," छत्तीसगढ़":6998,"िशियल":6999," सरस्वती":7000," सोल":7001," देखभाल":7002," दरबार":7003," क्ली":7004," निवेशकों":7005," फसलों":7006," लंबा":7007," अनुराग":7008,"ion":7009,"खल":7010,"पारा":7011,"पत्नी":7012,"शनी":7013,"ड़मेर":7014," हवाले":7015," रघु":7016," सेशन":7017," श्रा":7018," बैर":7019," कम्":7020," बहनों":7021," शुद्ध":7022,"श्यप":7023," हटाया":7024," डाउन":7025,"-जगह":7026," उत्तराखंड":7027,"खार":7028,"मस":7029,"मू":7030," वजन":7031," शायद":7032,"ांगी":7033," देसी":7034,"ार्पण":7035," जानने":7036,"ंपरिक":7037," कमला":7038," कहकर":7039," बढ़ी":7040,"वानिव":7041," दादा":7042,"ंकू":7043," स्पोर्ट्स":7044,"सूत्रों":7045," दिखे":7046," अंतरिम":7047," साइंस":7048," वीरेंद्र":7049,"स्टीट":7050," मरम्मत":7051,"110":7052," मरा":7053," गिल":7054,"जेल":7055,"सरों":7056," हमलों":7057,"ाइक":7058,"श्वर्या":7059," साहित्य":7060," पड़ोसी":7061,"िंदे":7062," लिखी":7063," पकड़ने":7064," जायजा":7065," कस्बे":7066," मेरठ":7067," सैंपल":7068,"350":7069,"MP":7070,"ंव":7071,"बिन":7072," हसन":7073," बचे":7074,"सीन":7075," मुठभ":7076," अधि":7077," प्रतिबद्ध":7078," पैसों":7079," छाए":7080," रेखा":7081,"समिति":7082," बुलाकर":7083," उत्पाद":7084,"इंडिया":7085," प्लास्टिक":7086," कूद":7087," उड़ान":7088,"स्थापक":7089," भागीदारी":7090,"झाने":7091,"‍स":7092," मद्":7093," लटका":7094," विरासत":7095,"ोगी":7096," अध्या":7097," बेरोज":7098," गांजा":7099," बैक":7100,"निगम":7101," एसआई":7102," बोतल":7103,"ंसल":7104," चालान":7105," हथियारों":7106," गोलियां":7107," मासूम":7108," वार्षिक":7109," प्रोत्साहित":7110,"टकों":7111,"है":7112,"िविटी":7113,"‍ह":7114," जश्न":7115," रॉ":7116," सेल्":7117,"क्टे":7118," थानों":7119,"शीट":7120," गाड़ियों":7121," शिवसेना":7122," पढ़ने":7123,"ल्पना":7124,"लोग्राम":7125," प्रत्याशियों":7126," किशोरी":7127," तारीफ":7128," गहलोत":7129,"मार्ग":7130," सैनिकों":7131," कविता":7132," हार्दिक":7133,"64":7134,"88":7135,"आगे":7136," भय":7137," प्राप्ति":7138,"वाड़ी":7139,"लेख":7140," सुशील":7141," राजन":7142,"्तार":7143," ऑप":7144," बैच":7145," अनुसंधान":7146," डिफ":7147," जिलाधिकारी":7148," गुहार":7149,"कानपुर":7150," प्रोफ":7151," स्वस्थ":7152," पाएंगे":7153," दिलाई":7154," प्रस्तावित":7155," रिटायर":7156," अभियुक्त":7157," झांसा":7158,"abha":7159,"TV":7160,"पढ़":7161,"रित":7162," कोल":7163," बाधा":7164," निवास":7165," थीम":7166,"मीडिया":7167," परिस्थित":7168,"वालों":7169,"ंपर":7170," अंबेडकर":7171," पहुंचेगी":7172," टेली":7173," फील्ड":7174," सर्जरी":7175," चीजें":7176,"मध्यप्रदेश":7177," मकसद":7178,"गोपाल":7179,"पर्ड":7180,"मंच":7181,"ोपण":7182," सस्प":7183," रवी":7184," रियल":7185," वस्त":7186," चोप":7187," एम्":7188,"काउ":7189,"भाषा":7190," मेगा":7191," श्रीकृष्ण":7192," करोड़ों":7193,"महाराष्ट्र":7194," रजत":7195," लिखकर":7196," हिंदु":7197,"ुल्हन":7198," दबिश":7199," राठौर":7200,"शो":7201," सख्ती":7202," विस्":7203,"सीडेंट":7204,"न्हैया":7205," छि":7206," निर्भर":7207,"ोरेंट":7208," एससी":7209," डेब्यू":7210," कलश":7211," मायके":7212," ललित":7213,"76":7214,"ho":7215,"लॉ":7216,"संत":7217,"ोच्च":7218," शिंदे":7219,"स्ड":7220," प्रसार":7221," एआई":7222," बाधित":7223,"िरो":7224,"रेटर":7225," लगती":7226," अभय":7227,"धारण":7228," उत्तरी":7229," तैयारियों":7230," शिवराज":7231,"ath":7232,"परिजन":7233," उतरे":7234," सियासी":7235," ‎":7236,"-वे":7237,"ंझ":7238,"खला":7239,"सांस":7240,"हाना":7241,"्ट":7242," आर्मी":7243,"स्को":7244,"ोग्रा":7245," टैं":7246,"ंत्रिक":7247," कैप्":7248," डिटेल":7249," रामलला":7250," डीसी":7251,"यूवी":7252," पूछे":7253," संतुल":7254," पंडाल":7255," निभाई":7256," घुसकर":7257," डूबने":7258,"700":7259,"CB":7260,"‌डा":7261," सनातन":7262," जहर":7263," करार":7264," शॉर्ट":7265,"दीव":7266,"जाबी":7267," देखे":7268," बहू":7269," आईटी":7270,"कुश":7271,"बेटी":7272," संग्र":7273," बढ़ाने":7274," पड़ताल":7275," बेहोश":7276," घूमने":7277," अनाज":7278," उदाहरण":7279,"राष्ट्रपति":7280,"रह":7281,"ैली":7282," ब्यू":7283," नर्मदा":7284," उड़ा":7285," फर्म":7286," फिज":7287,"रेख":7288,"कारियों":7289,"विशेष":7290,"वीजन":7291," बीती":7292," पहुंचते":7293," रोहतक":7294," बढ़त":7295," सफेद":7296,"युवा":7297," सतर्क":7298," प्राथमिकी":7299," बोलने":7300," रिटर्न":7301," काटकर":7302,"हिंदू":7303,"फाइनल":7304,"AD":7305,"ter":7306,"गूस":7307,"गानिस्तान":7308,"दिया":7309,"बई":7310,"रियल":7311," कल्":7312,"ेंच":7313," आवेद":7314," विराज":7315,"न्ड":7316," तोमर":7317,"ष्मान":7318," दिमा":7319,"पूरा":7320,"देवी":7321," शाही":7322,"ोहित":7323," सर्दी":7324," छोड़ने":7325,"महिलाओं":7326," खुलकर":7327," आजादी":7328,"गूसराय":7329,"-बह":7330,"एक्ट":7331,"कर्मा":7332,"चय":7333,"चार्ज":7334,"नॉ":7335," हवाला":7336," रंज":7337," लहर":7338," असल":7339," करनाल":7340,"ुलर":7341," छान":7342," बनना":7343," वैसे":7344," सांसदों":7345," सिलसिला":7346," पेयजल":7347," बुर":7348," रिया":7349," लह":7350," कोरिया":7351," खाल":7352," स्नात":7353,"रोना":7354," स्थायी":7355," जुटे":7356," नामजद":7357,"आईपी":7358,"राजधानी":7359,"निरी":7360," महात्मा":7361," मनोर":7362,"ंगाबाद":7363," करवाए":7364," खेलते":7365," एक्टिंग":7366," नकदी":7367," दहशत":7368," सिंधिया":7369," ग्लोबल":7370," अश्लील":7371,"अफ":7372,"रन":7373,"्न":7374," बकाया":7375," होश":7376," स्क्":7377,"पीड़ित":7378," दुश्म":7379," इंस्टीट":7380," ठिक":7381," ईयर":7382," शिकायतों":7383," शेष":7384," वनडे":7385," चिह्न":7386," लाइव":7387," इजराइल":7388," अंग्रेजी":7389,"बदमाश":7390," फतेह":7391," इकट्ठा":7392," ब्यूरो":7393,"ND":7394,"iv":7395,"दित्य":7396,"फार्म":7397,"वकों":7398,"स्से":7399," प्रको":7400,"केज":7401," खिल":7402,"िनल":7403," इरा":7404," लेटर":7405,"विवे":7406," सीओ":7407," छेड़":7408,"श्चित":7409," कार्यकारिणी":7410," कॉम":7411," यूरो":7412," कलर":7413," सेकंड":7414,"िकोण":7415," सभागार":7416," मद्देन":7417,"क्टेयर":7418," c":7419,"अखिल":7420,"घ्र":7421,"धना":7422,"मण":7423,"सां":7424," पित":7425," पैनल":7426," रत्":7427," नशी":7428," फट":7429,"टीक":7430," इमार":7431," मुद्रा":7432,"ंचित":7433," मिलना":7434," स्टोरी":7435," अगु":7436," एसएसपी":7437," यूजर":7438," उमस":7439," अभिभाव":7440," असली":7441," बल्लेबाज":7442,"िकेटर":7443," अनुसूचित":7444,"शुरु":7445,"सपा":7446,"ॉफ":7447," कट्":7448," कश्यप":7449," मथुरा":7450,"स्पी":7451," फीड":7452,"भास्कर":7453,"िवानी":7454," स्थलों":7455,"िप्त":7456," माया":7457,"िल्ला":7458,"आईजी":7459,"वनि":7460," हत्याकांड":7461," डेढ़":7462," जलस्तर":7463," आमिर":7464," बढ़ने":7465," शिखर":7466," वृद्ध":7467," कांस्टेबल":7468," स्पीड":7469," तृतीय":7470,"बिजली":7471," प्रतिनिधित्व":7472,"पेयी":7473,"71":7474,"तान":7475,"नक":7476,"निश":7477,"वमेंट":7478," सक्षम":7479," द्र":7480," दहन":7481,"र्धा":7482,"टीटी":7483,"नीतिक":7484," साधा":7485," सीन":7486," सीआई":7487,"द्दा":7488,"श्चा":7489," मनु":7490," पेमेंट":7491," पारंपरिक":7492," विषयों":7493," संस्थाओं":7494," चढ़ा":7495," शैक्षणिक":7496,"्रेडिट":7497," मुझसे":7498,"डोज":7499,"तला":7500,"ोगा":7501," गश्त":7502,"तावरण":7503," आधे":7504," बाइड":7505," साढ़े":7506," घी":7507," लोगो":7508," वेद":7509," इनका":7510," उत्पी":7511," शेर":7512," ट्रेलर":7513,"बेटे":7514," गुरुग्राम":7515," वाटर":7516," सर्वा":7517,"कृष्ट":7518,"ॉट्स":7519," पार्टनर":7520," तेलंगाना":7521," दरवाजे":7522," अरोड़ा":7523," पृथ्वी":7524," ओलंपिक":7525," विस्फोट":7526,"SS":7527,"्टी":7528," अंधे":7529," गू":7530," नहा":7531," आधुनिक":7532,"न्नाथ":7533,"ासा":7534," महंगाई":7535," धमा":7536," ओबीसी":7537," रेत":7538,"षाध्यक्ष":7539," चरणों":7540,"सुरक्षा":7541," चावल":7542," जन्मदिन":7543," स्कूली":7544," आतंकवाद":7545," समझौते":7546,"तूस":7547,"सिव":7548," म्यूज":7549," बर्फ":7550," गवाह":7551," किलोग्राम":7552,"लेवा":7553," महारा":7554," चुने":7555," बेल":7556,"िकासी":7557,"ज्जर":7558," पुजारी":7559,"125":7560,"सिटी":7561," एनएच":7562,"one":7563," चिकित्सक":7564," विश्ले":7565,"हरुख":7566,"94":7567,"किश":7568,"क्यू":7569,"गंग":7570," असिस्ट":7571," चेत":7572," हैंड":7573,"िएट":7574,"ुरू":7575," खाम":7576," डेम":7577," सिखा":7578,"रेप":7579," कुंड":7580,"कारो":7581," नील":7582,"कर्ताओं":7583,"संजय":7584," Election":7585,"राइली":7586," प्रदर्शनी":7587," एजेंसियों":7588," गिनती":7589," संदेह":7590,"कर्स":7591,"ूती":7592," वेल":7593,"र्चना":7594," उद्य":7595," उजागर":7596," राखी":7597," खिलाड़ी":7598," कंपनियां":7599," श्रमिक":7600,"युवती":7601," पूर्णिया":7602," मुकदमे":7603," सिद्धार्थ":7604,"विकास":7605," जबरदस्त":7606,"92":7607,"फार":7608,"सूल":7609," अमे":7610," आफ":7611," आराम":7612,"स्सी":7613," प्रैक्ट":7614," एडी":7615,"हाद":7616," खड़ी":7617,"सेवी":7618," संवेदनशील":7619," निधि":7620,"लीम":7621," पूनम":7622," मामा":7623," लगाना":7624," नाटक":7625," नीम":7626," छोड़ा":7627," अलवर":7628," एडिशन":7629," दृष्टि":7630," गार्डन":7631," व्हा":7632," ऊंचाई":7633," लड़कियों":7634," कामयाब":7635," दृष्टिकोण":7636," हस्ताक्षर":7637,"81":7638,"SO":7639,"अधिक":7640,"थान":7641,"दोष":7642,"धर्म":7643," कटा":7644," सतना":7645," पन":7646," नष्ट":7647,"केस":7648,"लेक्शन":7649,"नीता":7650," डबल":7651,"क्षे":7652," निश्चित":7653," कारतूस":7654,"जीब":7655," मामूली":7656,"धानिक":7657,"म्भ":7658," ट्रायल":7659," एसटी":7660,"देख":7661," बैठी":7662," घटनाक्रम":7663," सवालों":7664," दिलच":7665," एक्सीडेंट":7666," बेंच":7667," लोहे":7668," मणिपुर":7669," साझेदारी":7670,"कला":7671,"पुल":7672,"वैसे":7673,"ोड":7674," सिल्":7675," मजा":7676," भ्रमण":7677,"ालन":7678,"ाल्ड":7679," परफॉ":7680," तथ":7681," शार":7682," शर्त":7683,"कीन":7684," लाकर":7685," कहता":7686," कॉपी":7687," सूचित":7688," ईश्वर":7689," खातों":7690," टेक":7691,"रायल":7692,"पुट":7693," दहेज":7694," निष्पक्ष":7695,"वार्टर":7696," अल्पसंख्यक":7697," आबकारी":7698,"जग":7699,"माना":7700,"समार":7701," कोय":7702," सेवन":7703,"सीआर":7704,"काफी":7705," छवि":7706,"ाहे":7707," बेड":7708," सोया":7709,"एमएस":7710," बैंड":7711," जुड़ी":7712," चौंका":7713," अवकाश":7714,"वासीय":7715,"निवास":7716," प्रोसेस":7717," फ्रंट":7718," संरक्षक":7719," पॉलिसी":7720,"स्वास्थ्य":7721," छानबीन":7722," मद्देनजर":7723,"63":7724,"पार":7725,"व्":7726,"िस्तान":7727," माली":7728," जर्जर":7729," सेवानिव":7730," कराना":7731,"वाइंट":7732,"िसू":7733," ट्वी":7734,"जापुर":7735,"टेगरी":7736," जोड़ी":7737," अधिकतर":7738," कैच":7739," रोशनी":7740," ताज":7741," शिकायतें":7742," प्राचीन":7743," शिवम":7744," वातावरण":7745," दिखाकर":7746," उमेश":7747," अभिनेता":7748," बढ़ाया":7749," जबरन":7750," बीमारियों":7751,"डीपीओ":7752," सशक्त":7753," धूमधाम":7754,"श्चात":7755,"In":7756,"विन्":7757," कमेंट":7758," बंसल":7759," अन्न":7760," निकासी":7761," शशि":7762," चैनल":7763," राघ":7764," लेता":7765,"बाकी":7766,"टेस्ट":7767,"ोटल":7768," डॉक्टर्स":7769," प्रतिभाग":7770," स्टो":7771,"िल्का":7772," लोकप्रिय":7773," सुराग":7774," निर्देशित":7775," Sabha":7776," विश्वनाथ":7777," पुलिया":7778," प्लानिंग":7779," रिटायर्ड":7780," परियोजनाओं":7781," पुनर्":7782,"शिक्षा":7783," नतीजे":7784," आवंट":7785," रेस्टोरेंट":7786," बजरंग":7787," टैंकर":7788,"-सी":7789,"od":7790,"भारी":7791,"शुप":7792," कस":7793," गर्व":7794," तप":7795,"क्कत":7796," एजु":7797,"ेशनों":7798," विशिष्ट":7799," मौल":7800,"ाजिल्का":7801,"ोजपुर":7802,"वरिया":7803," कार्यकारी":7804," दर्जा":7805," विक्की":7806,"वानों":7807," ईद":7808," शेखा":7809," पकड़े":7810," दुकानें":7811," बॉय":7812," पारित":7813," रिश्ता":7814," फ़ै":7815," चोटें":7816," हवाओं":7817," रजिस्ट्री":7818,"ोदिया":7819," बेटियों":7820,"साइटी":7821," विसर्जन":7822," खतरनाक":7823,"ig":7824,"गौ":7825,"टर्न":7826,"शांत":7827," हिर":7828," मेंबर":7829," गढ़":7830," कोड":7831," शोषण":7832," चिराग":7833," सीमित":7834," ध्रु":7835,"बाजों":7836," बारात":7837,"प्रदर्शन":7838," झुल":7839," डिस्प":7840," एसयूवी":7841,"194":7842," आरक्षक":7843," हेल्प":7844,"िवारिक":7845," चंद्रशेखर":7846,"बच्चे":7847," परीक्ष":7848," चिकित्सकों":7849,"र्मेंस":7850," निराकरण":7851,"विरोध":7852," सोलंकी":7853,"हू":7854," कन्हैया":7855," क्रेडिट":7856," सिस":7857," चिप":7858,"ोगु":7859,"दाता":7860," अनूप":7861," बीज":7862," मोहित":7863," निर्मा":7864," जानलेवा":7865,"मुना":7866," अवस्था":7867," आजम":7868," फैमिली":7869," पदस्थ":7870," चेन्नई":7871,"सिर्फ":7872," सर्जन":7873," भेद":7874," बरकरार":7875," लौटे":7876,"दुर्":7877," गेंदबाजी":7878," थोड़ी":7879," परिस्थितियों":7880,"समारोह":7881," ट्वीट":7882,":\n":7883,"ऊदी":7884,"वरेज":7885," अड्ड":7886," गहरी":7887,"नामी":7888," प्रधाना":7889," यहीं":7890,"तिथि":7891," डाली":7892,"बाबा":7893," निर्यात":7894," दिवाली":7895," गैंगस्टर":7896," आयुष":7897," प्रीम":7898," लैब":7899," इमरान":7900," कठिन":7901," उपभोक्ताओं":7902," इंस्टीट्यूट":7903," i":7904,".ॐ":7905,"97":7906,"उक्त":7907,"गारी":7908,"णु":7909,"सोन":7910," दंप":7911," स्वि":7912,"लीला":7913,"आरती":7914,"ियमित":7915," रिपोर्ट्स":7916," पंजाबी":7917," दिखी":7918,"-अर्चना":7919," प्लॉट":7920," खूबसूर":7921," मुसलमानों":7922," अध्ययन":7923,"सांसद":7924," दिमाग":7925,"MC":7926,"ंजय":7927,"चोर":7928,"ठन":7929," मित्त":7930," हिट":7931," बड़":7932," जद":7933," कोषाध्यक्ष":7934,"गाड़ी":7935," मुना":7936," सीपी":7937," कार्यशाला":7938," मांझी":7939," सबको":7940," रूपए":7941," पैमाने":7942," नीट":7943," परीक्षाओं":7944," समस्याएं":7945,"भवती":7946,"छात्र":7947," शिवा":7948," तत्वा":7949," मशक्कत":7950," दिलाया":7951,"आगरा":7952," आवंटित":7953,"वला":7954,"िंक":7955," मल्":7956," वंचित":7957," शर्म":7958,"क्ष्मी":7959,"मारपीट":7960," परिचय":7961," सोसाइटी":7962," कैसा":7963," क्रिकेटर":7964," सर्किल":7965," योगेश":7966," वितरित":7967," इंटरनेट":7968,"फ़ी":7969," श्रद्धा":7970," न्यूज":7971," रीवा":7972," पाठ्य":7973," इलेक्ट्रॉनिक":7974," इन्वेस्ट":7975," पशुओं":7976," शौचाल":7977," मंजिल":7978," मित्तल":7979,"कभी":7980,"गंगा":7981,"बैक":7982,"सराय":7983," गहरे":7984," शैल":7985," चक":7986,"सेक्स":7987," साई":7988," निच":7989,"रोड":7990,"द्म":7991," पाकर":7992," ऑप्शन":7993," ठोस":7994," डिवीजन":7995," छाया":7996," डीए":7997," केंद्रित":7998," हॉस्टल":7999,"मृतका":8000," अहमदाबाद":8001,"घरों":8002," विद्यालयों":8003," झूठ":8004," चैंपियनशिप":8005," ग्राहकों":8006,"-ड":8007,"-मु":8008,"-रिक":8009,"83":8010,"एयर":8011,"ठान":8012,"फै":8013,"बनान":8014,"ैग":8015," नायक":8016," खड़ा":8017," फेज":8018," विनेश":8019," यूट":8020,"ायंस":8021,"मात्र":8022,"कोलकाता":8023," रखता":8024," उत्कृष्ट":8025," विधेय":8026,"ज़ी":8027," दुकानदारों":8028," खेलों":8029," खरीदारी":8030," कमीशन":8031," एलान":8032," फ्लोर":8033," थोड़ा":8034," हरीश":8035,"96":8036,"ED":8037,"rat":8038,"जनी":8039,"फार्":8040," बलों":8041," रनों":8042,"ान्":8043,"क्क":8044,"ड़न":8045," निस्त":8046,"भागीय":8047," सुधीर":8048," सीए":8049," दीक्षित":8050,"मान्य":8051," जनस":8052," क्रिया":8053," डीपी":8054," पुरी":8055,"ज़ार":8056," पत्रकारों":8057," विश्वकर्मा":8058," मिड":8059," विस्तृत":8060," जॉब":8061,"कृतिक":8062," बल्लेबाजी":8063," कुर्सी":8064," सुर्खियों":8065," {":8066,"87":8067,"EO":8068,"ET":8069,"पोल":8070," वाइ":8071," ख्या":8072," एकड़":8073," अपलोड":8074,"रोहित":8075,"ंधा":8076," सोलर":8077," देखिए":8078," झलक":8079," स्टेशनों":8080," सूत्र":8081," डिस्":8082,"ब्दी":8083,"ोधपुर":8084," भागवत":8085,"वर्गीय":8086," सर्किट":8087," योग्य":8088," श्रवण":8089,"एनएस":8090," लौटने":8091,"ट्रै":8092," धमका":8093,"दुनिया":8094," आवागमन":8095," आयुष्मान":8096," पर्यटकों":8097," कैंपस":8098,"शिविर":8099," अतुल":8100," आंधी":8101," आवंटन":8102,"लगातार":8103,"BJP":8104,"PM":8105,"um":8106,"ट्रेन":8107,"मूर्ति":8108,"ुणा":8109,"्वे":8110," वाज":8111," गत":8112,"ियंत्रित":8113,"ेशर":8114,"सीए":8115,"गाज":8116,"ार्क":8117," अधीन":8118," धक्का":8119,"जेक्शन":8120,"पाट":8121,"स्तों":8122,"द्धव":8123,"मुई":8124,"क्रमण":8125,"ष्ठी":8126," व्याव":8127," खबरें":8128,"दूसरा":8129," डिपार्टमेंट":8130," एकेड":8131," जंक्शन":8132," सस्पेंड":8133," गूगल":8134,"370":8135,"AL":8136,"ai":8137,"em":8138,"गिल":8139," हाज":8140," आवासीय":8141," कालेज":8142,"ड़का":8143," सिंगल":8144,"मीत":8145,"ष्टी":8146," पीएच":8147,"एमपी":8148,"ोरेशन":8149," कैटेगरी":8150," ऐश्वर्या":8151," लीला":8152," चलाए":8153,"्राट":8154," मनमोहन":8155," ब्रज":8156," आमने":8157," अतिथियों":8158," ज्वेल":8159,"घायलों":8160," निर्मित":8161," जूझ":8162," निपटने":8163,"-रिक्शा":8164,"ंबा":8165,"रियर":8166,"िफिकेशन":8167," दुल्हन":8168,"ोंडा":8169," गाज":8170," तबाद":8171," प्रज्वल":8172," लेती":8173," पार्वती":8174," बहाल":8175," गुलाब":8176," पुत्री":8177," रेस":8178," ईरानी":8179,"160":8180," बॉन्ड":8181," धनबाद":8182," बचपन":8183," सिरसा":8184," स्वीकृत":8185," बोलते":8186," तोड़कर":8187," एम्बुलेंस":8188," असिस्टेंट":8189,"CP":8190,"इंडी":8191,"ऊंगा":8192,"ओम":8193,"फोड़":8194," हड़":8195,"र्की":8196," आर्":8197," शू":8198," एग्री":8199," बाइ":8200," डरा":8201," डाक":8202," दीं":8203,"इनकी":8204," कामना":8205," एमएल":8206," जेई":8207," सजाया":8208," शुभम":8209," त्रि":8210," फेस्ट":8211," गेंदों":8212," संभल":8213," उपायुक्त":8214," मिठाई":8215," चतुर्थी":8216," उत्पीड़न":8217," परफॉर्मेंस":8218,"61":8219,"ऐप":8220,"दिव":8221,"पिंग":8222,"ौड़":8223," केशव":8224," रिम":8225," रैंक":8226,"लेन":8227," यज्ञ":8228," सावन":8229," घन":8230," मोर":8231,"श्ती":8232," आपदा":8233," सब्स":8234," चौथी":8235," ट्रेड":8236," टेस्":8237," पड़ने":8238," ट्रेनें":8239," Khan":8240," फायदे":8241," कांव":8242,"कॉम":8243," आंकड़ों":8244," दस्तावे":8245," प्रतिबंधित":8246," कारावास":8247,"मावस्या":8248," सक्सेना":8249," ज़":8250,"ंथ":8251,"धिका":8252,"बड़ी":8253,"भूत":8254," गायक":8255," चम":8256," फि":8257," राइ":8258,"टीपी":8259," सिंगर":8260,"रोइन":8261," कुचल":8262," मोती":8263," कम्यु":8264," बुनिया":8265,"पालिका":8266,"समंद":8267," जगन्नाथ":8268," कपल":8269," बालू":8270," दौड़":8271," अधिकारों":8272," कनेक्ट":8273," निर्मला":8274," माधोपुर":8275," कठोर":8276," ओमप्रकाश":8277," अनुरूप":8278," बराबर":8279," बाबूलाल":8280,"लेखक":8281," ख़":8282,"किर":8283,"खेल":8284,"फ्ल":8285,"िस्टर":8286,"ौत":8287,"ारिया":8288," नाज":8289,"ताप":8290,"वारदात":8291," डोन":8292," लेपर्ड":8293," बिछ":8294," ट्रेंड":8295,"देही":8296,"माणु":8297," स्पॉट":8298,"बिना":8299,"िम्मत":8300," शीघ्र":8301,"पीएससी":8302," शोरूम":8303," हिन्दू":8304,"डो":8305,"तह":8306,"नस":8307,"बैंक":8308,"रथ":8309,"िंस":8310,"।।\n":8311," कल्पना":8312," सवाई":8313," हद":8314," लड्डू":8315," नल":8316," तर्क":8317," थप्":8318," साइट":8319,"ंदगी":8320," इट":8321," संस्थापक":8322,"ायुक्त":8323," सिद्दी":8324," अनियंत्रित":8325,"बाड़ी":8326," सोनिया":8327," जीव":8328," दर्जनों":8329," कॉम्":8330," झांसी":8331," स्ट्रीट":8332,"प्ति":8333," गर्भवती":8334," RE":8335," चुनौतियों":8336,"-चां":8337," प्रोडक्ट":8338," बोलीं":8339," झगड़ा":8340," आईपीएल":8341," आकर्षक":8342,"ांतरण":8343,"-रो":8344,"74":8345,"ah":8346,"खाना":8347,"खिम":8348,"चंडी":8349,"डु":8350,"पिन":8351,"लांग":8352," हमास":8353," बया":8354," बगल":8355," मेंटेन":8356," रित":8357," नान":8358," शॉप":8359," फेम":8360," हुड्":8361," इधर":8362," मिलियन":8363," अभ्यास":8364," बैठने":8365," चलाते":8366," रोडवेज":8367," पेरिस":8368," ढांच":8369," हेली":8370," अफवाह":8371," पेशे":8372," लड़के":8373," प्रतिनिधियों":8374," आंकड़े":8375," सेलिब":8376,"छोटे":8377," रक्तदान":8378," ईवीएम":8379," सत्यापन":8380,"ंजीत":8381,"भक्त":8382," मल्ल":8383," बंदर":8384," रिए":8385," रेज":8386," अख":8387," अद्":8388," गाना":8389," नाइट":8390," आत्मा":8391," भौ":8392," भैर":8393,"क्फ":8394,"ार्ग":8395,"पीड़िता":8396," सिंग":8397," वेरिएंट":8398," ईंट":8399,"्राष्ट्रीय":8400," कपड़े":8401," महीना":8402," श्रम":8403," जेवर":8404," CC":8405," बचाया":8406," उपलब्धि":8407," सैम":8408,"-साम":8409," पुरुषों":8410," बंधक":8411," शब्दों":8412," अकाली":8413,"आयोजन":8414,"डोजर":8415,"-गल":8416,"73":8417,"SI":8418,"गठ":8419,"षित":8420," आभूषण":8421," फ्लाई":8422,"गाट":8423," टंकी":8424,"रोगा":8425,"जाही":8426," छिप":8427," मौर्य":8428," कैमर":8429," कराकर":8430," प्राकृतिक":8431," शवों":8432," समझने":8433," जेब":8434," हेक्टेयर":8435," दिखाते":8436," बलि":8437,"षाद":8438," अभिने":8439," अंतरिक्ष":8440,"छाड़":8441," ट्रांसपोर्ट":8442," बर्बाद":8443," सेक्रेट":8444," निरंतर":8445," बायो":8446," वरुण":8447," भतीजे":8448," वास्तविक":8449,"काउंटर":8450," Y":8451,"आइ":8452,"खोर":8453,"गृह":8454,"चू":8455,"दयाल":8456,"पिछ":8457,"मराह":8458,"सिर":8459,"सदर":8460," कंटे":8461," सरा":8462," दत्त":8463,"र्भ":8464," चाइ":8465," प्रस":8466,"हात":8467,"सेवा":8468,"काशी":8469,"रोध":8470,"टाइ":8471," बैनर":8472," स्टॉक":8473,"प्पा":8474,"180":8475," जेव":8476," मजबूती":8477," मॉनि":8478," फाइनेंस":8479," लुटे":8480," दबंग":8481,"ानुसार":8482," काउंसलिंग":8483," ब्रिटेन":8484," बालाजी":8485," जनजाति":8486," रंजिश":8487,"गंगानगर":8488,"..\n":8489,"मय":8490,"िहार":8491," स्रो":8492," भगा":8493,"ालाल":8494," परमाणु":8495," शिश":8496," मुजफ्फरपुर":8497," झेल":8498,"ंटन":8499,"निर्मा":8500," AI":8501," पारिवारिक":8502," रिकार्ड":8503," Mo":8504,"गुजा":8505," आवाजाही":8506," पार्षदों":8507," राठौड़":8508," विशेषज्ञों":8509," फैलाने":8510," उपभोक्ता":8511," सच्चाई":8512," समन्वय":8513,"ामुमो":8514," वैष्णव":8515,"एक्ट्रेस":8516," अगुवाई":8517," प्रतिभागियों":8518," विधेयक":8519,"-भ":8520,"to":8521,"अध्यक्ष":8522,"अमृत":8523,"जोधपुर":8524,"णिक":8525,"ब्रे":8526,"िडी":8527," कवर":8528," हायर":8529," जहाज":8530," वसूल":8531," नज़र":8532,"नाइ":8533,"वाड़":8534," संस्कृत":8535,"त्सव":8536,"माही":8537," परिचाल":8538," खिलाड़ियों":8539,"जिसको":8540," क्रॉस":8541," शेयरों":8542," छात्रावास":8543," खोले":8544,"पंचायत":8545," भूषण":8546,"हाईकोर्ट":8547," लीडर":8548," शेखावत":8549,"82":8550,"कूल":8551,"बड़":8552,"श्रे":8553," मदर":8554," बला":8555," अमावस्या":8556," वंद":8557," भिज":8558," तिरा":8559,"ामक":8560,"ुल्लाह":8561," समित":8562," टैंक":8563," सिफार":8564," छिंद":8565," जोखिम":8566," अनुज":8567,"ंटू":8568," बनेंगे":8569,"कुंभ":8570,"पहला":8571,"ोत्तम":8572," गेंदबाज":8573,"सबुक":8574," हल्के":8575," ऋषभ":8576," गृहमंत्री":8577," आयुर्":8578," टूटा":8579," जोड़ने":8580," गहने":8581," प्रारंभिक":8582," शोभायात्रा":8583," माइक्र":8584,"पढ़ें":8585," ?\n":8586,"द्री":8587,"सौर":8588,"ूनों":8589," सवारी":8590," मल्टी":8591," हिल":8592," रच":8593," बाढ़":8594," निंदा":8595,"्रेसी":8596," सालाना":8597," एमबी":8598,"-पत्नी":8599,"बूझ":8600," लॉरेंस":8601," क्लिक":8602," चंद्रा":8603," गतिविध":8604,"ोदय":8605,"करीबन":8606," दोषियों":8607," फॉलो":8608," सुल्तान":8609," प्रजापति":8610," एजुकेशन":8611," शौचालय":8612,"अदालत":8613,"पूर":8614,"मिन":8615," कन्":8616," हिम्मत":8617," दंड":8618," अखा":8619," चैल":8620,"हीन":8621,"टीओ":8622," धा":8623," बीत":8624," सोचा":8625," जीएसटी":8626," रोष":8627," विक्र":8628," नाव":8629," बढ़ता":8630," गुरुद्वारा":8631," जलकर":8632," लालच":8633," जेडी":8634,"शुदा":8635," वन्य":8636," टैग":8637," नकद":8638,"ट्टू":8639,"ग्रहण":8640," शेड्यूल":8641,"आसपास":8642," डिफेंस":8643," चोपड़ा":8644,"ंझुन":8645," कैप्टन":8646,"क्षेप":8647," सिफारिश":8648,"-वि":8649,"84":8650,"इंटर":8651,"दमी":8652,"वांस":8653,"हट":8654,"िंडा":8655,"ेयर":8656," गंदगी":8657," आधी":8658," खिता":8659,"रात्र":8660," इनाम":8661," घबरा":8662," मुफ्त":8663,"द्वार":8664," पीढ़ी":8665," ग्रो":8666," बनती":8667,"ियोजन":8668," एम्स":8669," मालदीव":8670," जिनका":8671," जयशंकर":8672," IPL":8673," लिखे":8674," गेस्ट":8675,"न्द्रीय":8676," आर्यन":8677," दायरे":8678," सैलरी":8679," सॉफ्ट":8680,"आखिर":8681," पाठ्यक्रम":8682,"-इ":8683,"-पी":8684,"एप":8685,"तूल":8686,"नंद":8687,"मानी":8688," क्यू":8689," हां":8690," अद":8691," वाई":8692,"ानिया":8693," नेहा":8694," भां":8695,"नायक":8696,"ियाला":8697," पहने":8698,"ार्जुन":8699," सीधी":8700,"देशालय":8701," चुप":8702," जोड़ा":8703," पहलेलेखक":8704," कामका":8705," बैड":8706," डॉग":8707," करवाकर":8708," विजयवर्गीय":8709," Re":8710,"्मीकि":8711," गौरी":8712,"-सफाई":8713," सर्वेक्षण":8714," सूरत":8715," फूलों":8716," सिद्दीकी":8717,"ार्गव":8718," CCTV":8719," s":8720,"450":8721,"गर्मी":8722,"धू":8723,"यरी":8724,"सिक":8725,"ॉम":8726,"ोर्":8727,"‍च":8728," हड़क":8729," बस्तर":8730," जर्म":8731," जहरी":8732," दाल":8733," वेट":8734," चित्त":8735,"लेश्वर":8736," विवि":8737," साक्ष्य":8738,"िवल":8739,"ूराम":8740," थानाधिकारी":8741," आरोपित":8742,"ूंकि":8743," मिलीमीटर":8744," गाड़ियां":8745," CBI":8746,"न्नत":8747," पड़ता":8748," दक्षिणी":8749," श्रेय":8750," नक्सली":8751," आकर्षण":8752," टोला":8753," भरतपुर":8754," गरबा":8755," फरीदाबाद":8756," डिवाइस":8757," विज्ञापन":8758," स्नातक":8759," सेक्रेटरी":8760,"-तीन":8761,"उन्":8762,"खड़":8763,"जमेर":8764,"दगी":8765,"पश्चिम":8766,"फायर":8767,"सिल":8768," पेंट":8769," रतलाम":8770," गूं":8771," नु":8772," करूंगा":8773," उड़":8774," चन्द्र":8775,"नीतीश":8776," पहिया":8777,"्तानी":8778," अवतार":8779," नीतियों":8780," कंप्यूटर":8781," बसें":8782," सुनाया":8783," पिच":8784," दीपिका":8785," प्लेटफार्म":8786," प्रभात":8787," नतीजों":8788,"ॉन्ग":8789," एकत्रित":8790," स्टील":8791," सेवानिवृ":8792,"फार्मर":8793," बुनियादी":8794," READ":8795," हड़कंप":8796," p":8797,"इयां":8798,"भराव":8799,"सनी":8800,"ोला":8801," पश्चात":8802," बर्थ":8803,"नाई":8804,"िसल":8805," लेट":8806," कुएं":8807," अधिसू":8808," धारण":8809," परिचित":8810," कामों":8811," गिरकर":8812," स्टार्ट":8813,"प्ताह":8814," ईमान":8815," क्रू":8816,"140":8817," गर्ल":8818," दरभंगा":8819," मुखबिर":8820," कर्त":8821," एजेंड":8822," जितना":8823," मूवमेंट":8824," नोडल":8825," फोगाट":8826," मासिक":8827," तुम्ह":8828," संतुलन":8829," अड्डे":8830,"ALSO":8831,"-न":8832,"79":8833,"GB":8834,"अचानक":8835,"ऑफ":8836,"कूट":8837,"रेंद्र":8838," पशुप":8839," लहरा":8840," भार्गव":8841,"िएटर":8842," साइन":8843," इकल":8844," लेबनान":8845," रहमान":8846,"माष्टमी":8847,"रोवर":8848," सुप":8849," दोहरा":8850,"जनता":8851,"द्वाज":8852,"खाने":8853," पासपोर्ट":8854," दुबई":8855," कॉलो":8856,"शेदपुर":8857," महासभा":8858," डील":8859,"ंकन":8860,"मोबाइल":8861,"ana":8862," उठाते":8863," अफगानिस्तान":8864," गणपति":8865," रणजीत":8866," शीतल":8867," दमकल":8868," जलाने":8869," अंबाला":8870," जायेगा":8871," ओपीडी":8872," ऑडिट":8873," सर्वाधिक":8874," प्रैक्टिस":8875," गाजियाबाद":8876,"ov":8877,"उम्मीद":8878,"किशन":8879,"ुसार":8880,"ॉग":8881,"ौफ":8882," पेज":8883," पट्टी":8884," पोषण":8885," बसे":8886," वस्त्र":8887," गाल":8888,"र्ति":8889," किस्":8890," तंज":8891," एह":8892,"हीर":8893," हैंडल":8894," बाड़मेर":8895," खरा":8896,"टीएस":8897," निषाद":8898," घंटा":8899,"स्टेट":8900," छी":8901," पाटी":8902," अंश":8903," बुद्ध":8904," शाहरुख":8905," डीजीपी":8906,"न्नति":8907," हॉकी":8908," लोड":8909," न्यूजीलैंड":8910," धरने":8911,"डरेशन":8912," समझाया":8913,"डब्ल्यूडी":8914," पर्सनल":8915,"लुधियाना":8916," गड्ढे":8917,"इंडीज":8918,"me":8919,"उज्जैन":8920,"खिला":8921,"फ्रा":8922,"बंग":8923,"ड़ियां":8924," सिले":8925," रंजीत":8926," अस्त":8927," अंचल":8928," वें":8929," वैन":8930," वंदे":8931," तंत्र":8932," प्राइम":8933," प्रकृति":8934,"त्रु":8935," विदाई":8936,"सीट":8937," कारों":8938," लगाएं":8939," बैल":8940," कमाल":8941,"चारिक":8942,"िटिश":8943," एसएचओ":8944," उत्पन्न":8945,"उनसे":8946," मुताबिक़":8947," हमलावर":8948," रुके":8949," निकाले":8950," ED":8951," कैंट":8952,"बोर्ड":8953,"हमारा":8954," झांकी":8955," भोले":8956,"डीआरएफ":8957,"सुनवाई":8958," अत्याचार":8959,"सिविल":8960,"व्र":8961,"सिम":8962,"ेक्षा":8963," मंद":8964," लख":8965," आर्म":8966," शोक":8967," उर्":8968," विंग":8969,"सीसीटीवी":8970," राजमार्ग":8971," सरदार":8972," अनुदान":8973,"निज":8974,"ंसक":8975,"जोत":8976," डाले":8977," चिंत":8978," तरीका":8979," रणवीर":8980," वृक्ष":8981," शांतिपूर्ण":8982," किराया":8983," चरम":8984,"-जाने":8985," वंदना":8986,"आं":8987,"थो":8988,"य्य":8989,"ुए":8990,"याद":8991," हैरिस":8992," दुर":8993," अभाव":8994," नारा":8995," सेफ्टी":8996," थर्ड":8997," स्ने":8998," विविध":8999,"पीएफ":9000,"ानापुर":9001,"दाश्त":9002," राजेन्द्र":9003," टीआई":9004," गोस्वामी":9005," लोकल":9006,"हनु":9007,"ang":9008,"िंद्रा":9009," गणना":9010," प्लेयर":9011," निशुल्क":9012," डायव":9013,"खेड़ा":9014," स्टेज":9015," फ्रांस":9016," गतिविधि":9017," प्रीति":9018," चयनित":9019," जॉइन":9020," क्रमांक":9021," सलाहकार":9022," बुलडोजर":9023,"ide":9024," प्रदर्शित":9025," इशारा":9026," मछली":9027," क्वालिटी":9028," तत्वावधान":9029,"आने":9030,"शक्ति":9031,"सर्व":9032,"होर":9033," सऊदी":9034," हृ":9035," लड़क":9036," गम":9037," कास्ट":9038," त्वर":9039," चमक":9040,"ड़के":9041,"रेगा":9042,"विश":9043,"विश्वास":9044,"बाबू":9045," उपमुख्यमंत्री":9046," डिब्":9047," स्कॉ":9048,"राजनीतिक":9049,"धारोपण":9050,"आरएस":9051," समाजसेवी":9052," भागलपुर":9053," पकड़े":9054," रनौत":9055," ढेर":9056," मृतका":9057," लॉक":9058," रिंकू":9059," क्वार्टर":9060,"गुज":9061,"र्निंग":9062,"राज्यपाल":9063," तोड़ने":9064," संभाला":9065," दबो":9066," घेराव":9067," हिमांशु":9068," इमारत":9069," सिल्वर":9070,"-गलौज":9071," ष":9072,"93":9073,"eath":9074,"इन्हें":9075,"भवन":9076,"समा":9077,"सड़क":9078,"ाध्यक्ष":9079,"ॉर":9080," सराय":9081," पिप":9082,"नेशन":9083," बरेली":9084," दलाल":9085," अटक":9086," तकरीबन":9087," उमर":9088," चौर":9089," प्रौ":9090," डैम":9091," इम":9092," मुनि":9093," भारद्वाज":9094,"डीएफ":9095," सबके":9096," रामायण":9097," पैलेस":9098," एसडीओ":9099,"ुतोष":9100," जैसलमेर":9101," कप्तानी":9102," भेजकर":9103," अर्ध":9104," रिहा":9105," सर्वोच्च":9106," सहयोगियों":9107," खुलने":9108,"पोस्ट":9109," घोटाला":9110," पथराव":9111," पदार्थों":9112," ग्राहक":9113," तत्वों":9114," डेवलपमेंट":9115," कम्प":9116,"निरीक्षण":9117," चिह्नित":9118," निस्तारण":9119,"-सामने":9120," त्वरित":9121,"-ट":9122,"-पा":9123,"91":9124,"900":9125,"AI":9126,"UP":9127,"hone":9128,"अमित":9129,"कब":9130,"गित":9131,"टके":9132,"पर्स":9133," कमान":9134," बवाल":9135," दरोगा":9136," कीर्तन":9137," कोरोना":9138," सेहत":9139," शिल्":9140,"सीकर":9141," सम्राट":9142," निपट":9143," सीने":9144," अनियमित":9145," जानता":9146," सहकारी":9147,"णाधीन":9148," गोवा":9149," खाकर":9150," एमडी":9151," वीजा":9152," पंचायतों":9153,"ियारपुर":9154," त्रिवे":9155," अपराधों":9156," दशहरा":9157,"वैधानिक":9158," मुहैया":9159," तोड़कर":9160," प्रोडक्शन":9161," अश्विन":9162," इजाफा":9163," बयानों":9164," चैलेंज":9165,"ंझुनूं":9166,"IT":9167,"ch":9168,"ik":9169,"ma":9170,"ज्योति":9171,"ठिंडा":9172,"दक्षि":9173,"योजना":9174," पद्म":9175," बड़":9176," गरज":9177," आगमन":9178," भंग":9179," शेट":9180," शक्त":9181," उर":9182," थम":9183," एएसपी":9184,"्यांकन":9185," डकै":9186," देनी":9187," घटा":9188," दीन":9189," इलाका":9190," रेव":9191," चलाकर":9192," आरजेडी":9193," मालवीय":9194," संचालकों":9195," एडवांस":9196,"कलन":9197," खासकर":9198," नवरात्रि":9199," समुद्र":9200," तोड़फोड़":9201," हवाएं":9202," पर्यटक":9203,"सायटी":9204," उन्हीं":9205," तलवार":9206," सिलसिले":9207," आकर्षित":9208,"जम्मू":9209," अमेठी":9210," जदयू":9211," मॉनिटरिंग":9212," फ़":9213,"98":9214,"esh":9215,"चिंग":9216,"तपुर":9217,"भान":9218,"संच":9219,"ौनी":9220," लटक":9221," गहन":9222," चैन":9223," चाली":9224," चिन्":9225," स्क्र":9226," विफल":9227," इर":9228," एकमात्र":9229," निदेशालय":9230," सुद":9231,"कोटा":9232," व्यस्त":9233," बच्चियों":9234," नींद":9235,"शाही":9236," डेड":9237,"आजम":9238," परेशानियों":9239," प्रकाशित":9240," शरीफ":9241," खुली":9242,"इंडियन":9243,"पैठ":9244," इकोनॉ":9245,"मेडिकल":9246,"विवेदी":9247," भेदभाव":9248," गतिविधियां":9249," खिताब":9250,"IA":9251,"पड़":9252,"मंद":9253,"सले":9254," कंस":9255," मस्क":9256," पत":9257,"ारस":9258,"ोंग":9259," आपात":9260," तारा":9261," शाला":9262," प्रांत":9263," एथ":9264," जापान":9265," देहात":9266," निवार":9267,"त्तियों":9268,"पीड़िता":9269," महंगा":9270,"जनल":9271," उपर":9272," झंडा":9273," रखेंगे":9274,"ंसू":9275,"योगी":9276,"ट्टे":9277,"णीय":9278," भरकर":9279," आमंत्रित":9280," Ch":9281," पड़ोस":9282," मंत्रिमंडल":9283," दूल्":9284,"र्शियल":9285," समीकरण":9286," बंटवारे":9287," सेमीफाइनल":9288," रवींद्र":9289," ठिकानों":9290,"किशोर":9291," प्रसन्न":9292,"-डी":9293,"CM":9294,"एआई":9295,"कल्प":9296,"कौन":9297,"ढे":9298,"शोक":9299,"हला":9300," हाइवे":9301,"नेश्वर":9302," लाना":9303," लिप":9304," कोहरा":9305," विधिक":9306,"ष्कार":9307,"वेन्यू":9308," पाता":9309," निर्माता":9310," जानकार":9311," बैटिंग":9312," माइन":9313," मादक":9314,"िटिकल":9315," बुलाई":9316," आईआईटी":9317," सौभाग्य":9318," लड़का":9319,"ंदावन":9320,"ind":9321,"ौलपुर":9322," Day":9323," उठे":9324," मरने":9325,"dia":9326," टूटने":9327," प्लाजा":9328," चार्जिंग":9329," स्ट्राइक":9330," अविनाश":9331,"कप्तान":9332,"बॉलीवुड":9333," छेड़छाड़":9334,"ॉट्सऐप":9335," जेवरात":9336," परिचालन":9337,"एसी":9338,"एगा":9339,"गया":9340,"शुल्क":9341,"सह":9342," कस्ट":9343,"्रार":9344," जोग":9345," दयाल":9346," भव":9347," चर्च":9348,"ामे":9349,"वायु":9350," जाग":9351," एकड़":9352," समस्तीपुर":9353," सिग्":9354,"जाज":9355,"्तों":9356," पहुंचेंगे":9357," बेल्ट":9358,"मेन":9359," बिता":9360," युग":9361," द्विवेदी":9362," गोवंश":9363," आईजी":9364,"प्ट":9365," शातिर":9366," ईस्ट":9367," मीरा":9368," यूजी":9369," स्पिन":9370,"वर्तन":9371," एनकाउंटर":9372,"मतौर":9373,"जुए":9374," जेसीबी":9375," बढ़ी":9376," रिक्त":9377," निकलकर":9378,"इडर":9379," वारंट":9380,"छात्रों":9381," खबरों":9382," पाएगा":9383," लड़ाई":9384," ट्रांसफार्मर":9385," बर्दाश्त":9386," Up":9387," साधक":9388," नगरीय":9389," हस्तक्षेप":9390," निशाने":9391," विराजमान":9392," मेंटेनेंस":9393," कैमरों":9394,"निर्माण":9395,"HO":9396,"कित":9397,"ख्ता":9398,"रांची":9399,"सहाय":9400,"ड़ने":9401," दोगु":9402," लंदन":9403," लघु":9404," अख्त":9405," वक्फ":9406," नाला":9407," सेठ":9408," आध्या":9409," परेड":9410,"हादसा":9411," फिसल":9412,"नीवाल":9413,"सेवक":9414," इलेक्शन":9415," बताकर":9416,"हराम":9417,"वरि":9418,"कोतवाली":9419,"एसएल":9420," सहारा":9421," अभद्र":9422," ताजा":9423," बुलेट":9424,"लगभग":9425," लिफ्ट":9426," बंदूक":9427," पेन":9428," बनेगी":9429," रणबीर":9430,"द्योगिकी":9431," पटरी":9432,"भूति":9433," सिद्धांत":9434," इजरायल":9435," घटकर":9436,"अमेरिकी":9437," डूंगर":9438,"सेंजर":9439,"‍होंने":9440,"-बा":9441,"गार्ड":9442,"चाहे":9443,"ढा":9444,"यून":9445,"वर्ड":9446,"ुट":9447,"ड़की":9448," कूल":9449," केयर":9450," रसो":9451,"र्चे":9452," आैर":9453,"िकरण":9454,"क्ल":9455," प्रसंग":9456,"केजरीवाल":9457,"टीन":9458,"कीलों":9459," हीरो":9460," मुंडा":9461," छेड़":9462,"ांचल":9463," झील":9464," रखती":9465," बुझाने":9466," आरके":9467,"ांडा":9468,"मेरठ":9469," भगवंत":9470," जलभराव":9471," बरसा":9472,"फेयर":9473," मॉड":9474," विचारधारा":9475," मेहमान":9476," नायडू":9477,"साइबर":9478," बैंकों":9479," समृद्धि":9480," गड़बड़ी":9481," चौंकाने":9482," सिसोदिया":9483," वाजपेयी":9484," दस्तावेजों":9485,"-घर":9486,"कल्":9487,"ग़":9488,"गमेंट":9489,"ण्":9490,"दिशा":9491,"फुल":9492,"बान":9493," कट्टा":9494," सवा":9495," दांव":9496," लता":9497," खट":9498," डोर":9499," कार्म":9500," कुशल":9501," बताती":9502,"पुरुष":9503,"स्तौल":9504," बनाता":9505," ऑडियो":9506," कॉरि":9507,"्यूशन":9508,"क्सो":9509,"उसमें":9510," फैशन":9511," पानीपत":9512,"यूष":9513," Pro":9514," जन्माष्टमी":9515,"डेजा":9516," फेसबुक":9517," धरती":9518," बंधन":9519," चंडीगढ़":9520," पुण्य":9521,"प्ताहिक":9522,"-ह":9523,"अं":9524,"शिंग":9525,"ोहर":9526," मूर्":9527," हौ":9528," केवी":9529,"याम":9530," गड़":9531,"र्वा":9532," फार":9533," विवरण":9534," घो":9535,"कार्रवाई":9536," सीएचसी":9537,"ल्ली":9538,"हरसा":9539," देखरेख":9540,"पूजा":9541,"कुमारी":9542," डीसीपी":9543," दादरी":9544,"ख्यात":9545," योजनाएं":9546," सकेगी":9547," NDA":9548,"ुरादाबाद":9549," गीतों":9550," पीड़ितों":9551," खंडवा":9552,"िक्रमा":9553," बूथों":9554," भरोसे":9555," पहाड़ी":9556," भंडार":9557," जिम्":9558," कुत्ते":9559," उद्यम":9560," अभिनेत्री":9561," n":9562,"ut":9563,"आवेदन":9564,"उंस":9565,"खो":9566,"ीकरण":9567," पच":9568," काटा":9569," शाल":9570," श्वे":9571," उग्र":9572," चचे":9573," चिल्ला":9574," स्मार":9575,"टीए":9576,"गीरों":9577,"रोल":9578,"जीन":9579," अनदे":9580," बिख":9581," इंटेल":9582,"दर्शी":9583," डेयरी":9584," बांट":9585,"ष्ठान":9586," AAP":9587," सेंसेक्स":9588,"दुर्ग":9589," वार्डों":9590," ऋण":9591,"कॉलेज":9592,"बुल्लाह":9593," गरीबों":9594,"स्थापित":9595,"र्तित":9596," फुटबॉल":9597," जबरदस्ती":9598,"PSC":9599," मेघवाल":9600," मयंक":9601," डोनाल्ड":9602," कॉरिडोर":9603,"ud":9604,"ंठ":9605,"काय":9606,"गै":9607,"चोरी":9608,"विन":9609," ग्रेड":9610," नू":9611," नॉन":9612," सेगमेंट":9613,"तांत्रिक":9614," कालोनी":9615,"नाग":9616," स्ल":9617,"सेट":9618," डंपर":9619," निखिल":9620," घात":9621,"कीपर":9622,"मावत":9623," कुंभ":9624,"ोक्रेट":9625,"प्रथम":9626," नामों":9627," कराते":9628," गाड़ियों":9629," शिवपुरी":9630," जीतू":9631," बसंत":9632," व्याख्या":9633," सितम्बर":9634," रायबरेली":9635," मूंग":9636,"जिनमें":9637,"प्रेम":9638," कागजात":9639," अग्निवीर":9640," प्रोफेशन":9641," मजाक":9642,"गुजरात":9643,"\",":9644,"ia":9645,"कह":9646,"हेल":9647," मियां":9648," पिला":9649," दाह":9650," अनीता":9651,"र्चित":9652," खां":9653," यमुना":9654,"सीआई":9655,"गाई":9656," मुर्म":9657,"ुपयोग":9658,"प्रया":9659," वर्दी":9660," कैल":9661,"िकापुर":9662," गोप":9663," रामा":9664,"बहुत":9665," राज्यमंत्री":9666," वाइस":9667,"िस्ट्री":9668," बॉस":9669," सड़कें":9670," शिना":9671," ज़रूर":9672,"गोली":9673," जितने":9674," स्टाइल":9675,"est":9676," कबूल":9677," घुसपैठ":9678,"प्रतियोगिता":9679," झूठे":9680," संगीता":9681,"न्वयन":9682," धारदार":9683," दायित्व":9684,"ौड़गढ़":9685," जनप्रतिनिधियों":9686," अत्यंत":9687," नहाने":9688," झुलस":9689," निर्माणाधीन":9690,"वरिष्ठ":9691,"UV":9692,"अति":9693,"अशोक":9694,"इन्":9695,"चिक":9696,"डम":9697,"णवी":9698,"मिया":9699,"यिक":9700,"यर्स":9701," कतार":9702," हत":9703,"नांद":9704," शिल":9705," चारा":9706," प्रेशर":9707,"लेशन":9708," जाओ":9709," खुर":9710," खाई":9711," फैन":9712," महल":9713,"बात":9714,"स्थी":9715," बेगूसराय":9716," स्थगित":9717," जानवरों":9718," द्वीप":9719," रखवाया":9720," पैकेट":9721,"प्पल":9722,"भावना":9723," ऑफ़":9724,"-पु":9725," हेरोइन":9726," सचिवालय":9727," रुचि":9728," संदर्भ":9729,"चुअल":9730," पौधारोपण":9731," पिस्तौल":9732,"ब्रिज":9733," गैंगरेप":9734," बांधकर":9735," आंकड़ा":9736,"सीबीआई":9737," उतरने":9738," नियंत्रित":9739," हिस्सेदारी":9740,"निर्देश":9741," ठगों":9742," पौधों":9743," प्रतिष्ठित":9744," रिलेशन":9745,"जिन्हें":9746," मुठभेड़":9747," एडिशनल":9748," एकेडमी":9749," बलात्कार":9750," प्रौद्योगिकी":9751," m":9752,"-फान":9753,"गोल":9754,"दिल":9755,"बानी":9756,"बर्ग":9757,"बिलासपुर":9758,"शराब":9759,"शियल":9760,"समी":9761," सरोज":9762," पठान":9763," बची":9764," रिश":9765," कोठी":9766," तर्ज":9767,"क्ले":9768," जावेद":9769," राख":9770,"क्रा":9771," सोसायटी":9772," पाप":9773,"स्पति":9774," रूसी":9775," झामुमो":9776," विक्रे":9777," मैरिज":9778,"ंबे":9779," सुनते":9780," फीचर":9781," पुरा":9782," दिखने":9783," उपलक्ष्य":9784," लड़ने":9785," पड़ताल":9786,"िडेंट":9787," उत्पादों":9788," खोलकर":9789,"मिथ":9790,"बच्ची":9791," पुष्पा":9792," निर्मल":9793,"-प्रति":9794," पहनकर":9795," ठहराया":9796," गवर्न":9797," शिवाजी":9798," मल्लिक":9799," आयुर्वेद":9800," एहसास":9801," हृदय":9802,"eather":9803," f":9804,"अम":9805,"अंत":9806,"अजमेर":9807,"एगी":9808,"ऑन":9809,"खबर":9810,"छाप":9811," पला":9812," जेट":9813," आलिया":9814," भिवानी":9815," उतरी":9816,"ंगत":9817,"राउंड":9818,"कास्ट":9819," टकर":9820," रोह":9821," बुमराह":9822," डिस्क":9823," प्रदेशाध्यक्ष":9824," छापा":9825," मानक":9826," शिक्षिका":9827,"तमंद":9828,"बलू":9829," एमएस":9830," मार्गों":9831," आशुतोष":9832," तिमाही":9833," फ्रॉड":9834," प्रिंट":9835," पहलुओं":9836,"परीत":9837," क़ान":9838," इकबाल":9839,"कांक्षा":9840,"एक्सप":9841," आक्रोशित":9842,"‍तान":9843,"र्वेदी":9844," सत्संग":9845,"ग्राउंड":9846," त्याग":9847,"ोर्टर":9848," शेट्टी":9849,"-फानन":9850,"ot":9851,"गं":9852,"ज्यादा":9853,"टक्कर":9854,"णिज":9855,"दौ":9856,"निस":9857,"ब्स":9858,"सेंट":9859,"ूंगी":9860,"ॉर्क":9861,"ौरी":9862," मच्छ":9863,"याचिका":9864," वां":9865," भंवर":9866," साक्षी":9867,"ायन":9868," देवास":9869," अपार्टमेंट":9870,"रोहतक":9871,"दीन":9872," वाल्मीकि":9873," सुचार":9874,"हरि":9875,"ष्म":9876,"किम":9877,"बीच":9878," ऑयल":9879," जनगणना":9880," शिक्षण":9881," दादी":9882," आदिवासियों":9883," नौसेना":9884," फास्ट":9885,"उंड्री":9886," संतु":9887," नोटिफिकेशन":9888," घुसे":9889," मूल्यांकन":9890," पोलिंग":9891," काउंटर":9892,"स्ट्रक्चर":9893," साधना":9894," चतुर्वेदी":9895," जाटव":9896," पर्ची":9897,"अवैध":9898," स्पेस":9899," ड्रग्स":9900," म्यूजिक":9901," डिस्प्ले":9902," हेल्पलाइन":9903," पाटीदार":9904," इंटेलिज":9905," ।":9906,"130":9907,"ST":9908,"ag":9909,"ee":9910,"of":9911,"अली":9912,"घोष":9913,"जून":9914,"णाल":9915,"णमूल":9916,"थुर":9917,"बूत":9918,"मरा":9919,"सरा":9920,"हार्":9921,"ैनी":9922," मॉल":9923," नड्डा":9924,"ान्य":9925," सेरे":9926,"ुराम":9927," फार्":9928," विपिन":9929," राउ":9930," सीमेंट":9931,"दाताओं":9932," दीदी":9933," धूल":9934,"वेव":9935," मेजब":9936," पाउ":9937," पापा":9938,"प्रसाद":9939," सरकारों":9940,"ाइजी":9941," बुखार":9942," बनता":9943," पैकेज":9944," लिहाज":9945," प्रशंसा":9946," श्रीम":9947,"मिकल":9948," पुरोहित":9949," हमलावरों":9950," मिर्जा":9951," बढ़ाकर":9952," अंतर्राष्ट्रीय":9953," धमक":9954," मॉर्च":9955," EV":9956," मालिकों":9957,"ैंसिल":9958," वायनाड":9959," क़रीब":9960," खोजबीन":9961," बौद्ध":9962," श्रृंगार":9963,"मानसून":9964," अधिग्रहण":9965," रत्न":9966," ध्रुव":9967," हड़ताल":9968," शूटर":9969," फेस्टिवल":9970," घनश्याम":9971,"श्रेष्ठ":9972," किस्मत":9973,"हनुमान":9974," अख्तर":9975,"नांदगांव":9976,"अभिषेक":9977,"गुल":9978,"दंड":9979,"भजन":9980,"म्र":9981,"सड़क":9982," कंड":9983," कन्न":9984," जां":9985," सेक्शन":9986," चिर":9987," प्रकट":9988," संपूर्ण":9989," समग्र":9990," टु":9991," सुध":9992," महानगर":9993," मिलन":9994," सरेंडर":9995," जींद":9996," बिट्टू":9997," कमर":9998," कमरा":9999}