#version: 0.2
  п
с т
  в
  с
е н
о в
р а
  н
. 

  о
т о
н о
р е
к о
  и
р о
г о
л и
 п о
а н
е т
  д
л ь
р и
 н а
н ы
к а
  м
т е
л а
з а
н и
е р
  б
т а
ен и
к и
л е
н а
т ь
  ч
д а
л о
т и
  у
в а
 н е
с я
ц и
  ко
  за
м и
р у
д и
в о
в и
  "
с с
 с о
 п ро
  ра
е м
  а
ан и
  э
л я
  -
д е
р ов
  к
с ко
ст и
ст а
  го
 о т
 ч то
 о б
 д о
н е
п о
м о
  г
 п ри
 п ре
р ы
е й
д у
 в о
ч а
ч е
ч и
ст о
б о
м а
с ки
ж е
  ре
 в ы
ени я
но й
  С
  е
  т
те ль
в е
ны х
х о
  Р
  то
сс и
 и з
к у
ов о
д о
с ь
но го
с е
л у
 б ы
  ка
ж и
м е
ш и
ов а
  М
г и
ст в
 э то
щ и
н у
 м о
  ф
з и
о б
м ен
  К
ю т
е ре
ени е
ци и
п а
ны е
  те
ны й
с и
ст ь
П о
м у
т у
п и
  ст
 ко то
  та
к ов
" ,
г а
2 0
р я
 по д
т ы
ш е
щ е
 д е
 б о
  А
н я
а р
о н
ет ся
  з
 м е
 Р о
 ра з
б и
л ю
с а
  В
 пре д
п е
  (
л ов
л ен
ско й
т ов
к е
 м и
о р
 Ро сси
ж а
  ро
ц е
с у
ны м
д ен
ани я
 п ере
е к
в ы
а к
 и н
ра н
ст ва
 б у
л ет
с ле
п ро
п у
ско го
20 1
  П
с по
" .

ств ен
 д ля
ст во
  ли
б ы
и н
Н а
  ру
 ко м
 м а
ка за
  ста
 в се
  Д
м ы
 с во
  Б
ж но
 кото ры
д ет
 ко н
д ы
 с у
  Г
 с а
 с и
щ а
е з
  я
 н о
а ль
в ер
 го да
с к
 п ра
но м
  Т
 та к
о на
 ка к
к ра
ть ся
у р
г ра
на я
ц ен
ан а
 со об
б а
ле й
 н и
 Росси и
ти в
 во з
но е
но сти
с ка
з ы
б е
ч ен
д ер
п ра
ски х
ени и
ов ы
г у
с о
т ся
  И
л ся
 е го
и з
ст у
ж ен
ф и
 в е
 с е
в ля
п ре
к с
  Н
ров а
ски й
  хо
  О
н ов
  сто
ци я
д ов
д ни
ш а
 о н
ль ко
 ра бо
ре м
 до л
ани е
 ст ра
хо ди
ю щи
ани и
ст ви
ет и
ко й
 по сле
  Л
ет а
м ер
ли сь
р г
я ви
  жи
ну ю
сси й
но сть
з у
  У
л ения
ста ви
 это м
  Е
ц а
  Ф
я т
ж д
ро м
ст ан
 п ер
 ч е
 ком п
 д а
ри и
е в
г да
х а
 п а
т ра
 по лу
  же
ло сь
ж ет
 п ров
ре д
ст ра
 бу дет
п ри
 ч а
г ла
в ши
 г ла
 в и
 ру б
ко м
 ра сс
 го ду
зи ден
 о с
л ы
ди н
 о д
то м
  ш
 а в
 в рем
с ли
 бо ль
 с ов
ени ю
сто я
р ен
 по ли
 так же
в у
ро д
ни к
да р
ски е
п ер
ру п
в я
т я
 д и
 ро ссий
 д ру
ф ор
 М о
ств у
 а к
б ли
ен ь
те р
с ов
ци ю
З а
ени й
 у же
ро й
ле е
ко но
 м л
  лю
л ова
то р
ла сь
в ет
 с лу
ют ся
 о рг
 бы л
з на
 об ъ
 бы ло
б у
 у ча
 че лов
ста в
ла сти
т ри
  цен
е с
зы ва
ти че
ем у
ны ми
 врем я
ж ду
 п ар
 которы е
те ля
 т ы
 б ез
пра в
г ово
о м
 об ра
с ы
 пре зиден
п ы
к ан
ле к
 и х
 за яви
г е
ска я
ни ка
р т
те лей
 про из
 на ча
ст ре
в ро
 д ан
ци он
 то м
 в а
 м ы
а з
ци аль
 г ра
ко н
л ение
ч но
 ч и
 г ово
ско м
0 0
не й
 ав то
хо д
б ря
 то лько
Ш А
 т ре
 ч ем
 и ли
р ь
ш ен
до м
ва ть
 са мо
к ры
 с по
) .

ен е
1 9
 е ще
го д
л ан
 те р
стан ов
ст е
 у с
  лет
 м у
 то го
 сооб ща
те ли
 С ША
она ль
 мо жет
 п у
ду т
т ре
су дар
ш ения
 з на
р та
 бо лее
не е
 с лова
ц ы
ти я
 ф и
каза л
ш ение
 что бы
з ов
 п и
 сооб щи
? 

а ли
 бы ли
ни ков
т ро
 с ле
чи та
 ра с
по л
 которы й
Н о
 орг ани
м ети
о й
 пра ви
К ак
  ле
 е е
о т
 о ни
П ри
кра и
 к у
) ,
о не
  х
ре ди
 Мо ск
ни ст
ло м
коно ми
 гово ри
тель но
 Р Ф
ле кс
к ово
ни ма
е д
 и спо
ст ро
ло ги
 в з
 го судар
 от но
 д ей
с ку
Э то
ло ж
 с вя
с ла
 ре ги
ти н
  Х
де ра
фор ма
 У краи
ени ем
ь ю
ль та
 М и
ст ве
 по мо
ки х
ст ов
 э ти
ан к
 ме жду
 и м
 во про
л ли
 сво и
 полу чи
ни м
сту п
о с
у т
ж да
 заяви л
 К а
р д
 с пе
т ру
ни ки
ан е
я в
 пред стави
дер ж
 и сто
ци й
п ла
ем ы
 е сть
к лю
  Ш
ч ет
па с
 в ер
 по л
 челов ек
ме ри
де й
щ ен
  ры
e n
О б
 это го
я с
год ня
ча с
 воз мо
e r
 те х
 го ро
 С и
ла ди
з д
ров ан
мен та
м ан
с лу
то ра
ей час
1 0
  Ч
 рабо та
зу льта
 М а
ль но
 с чита
 о к
 ре зульта
 К и
це в
ка х
 слова м
пе ра
ве ст
  По
ри й
 об ласти
ше го
 от мети
  Ц
ово й
 дру ги
з ова
  ки
чен ь
пу бли
 э кономи
с мо
 органи за
 э кс
стви я
 сто ро
е дера
на ко
тель ства
 со б
к ла
 мл н
ки е
 г руп
до л
те ри
у ю
ани й
 к ра
ве сти
 ч ет
г ен
  ж
 м ар
ц у
 де ла
- то
ва ет
во д
. .
 с ред
  це
 о на
гу т
ла га
 про ек
ски м
ч ения
мен т
 А лекс
 бу дут
 е сли
 А н
тру дни
ан д
ка з
ста вля
Р о
 пере да
 бы ла
 ин форма
ло жи
1 5
ко го
 п е
 В лади
 про ш
де ла
ч ение
бо р
ст ы
то му
 при ня
х и
 со трудни
ту а
де ль
 ко гда
 т у
 во ен
 н овы
 со гла
во й
 об о
 те м
ра бо
ри я
 б а
би ра
ре к
 руб лей
 а д
 слу ча
 мо жно
ш ей
 я вля
 б е
 бы ть
с но
 по до
лов и
 ос нов
ни стра
б ле
ра в
сси я
 б ан
ва ли
- за
О н
 о чень
и т
 не ско
 г де
 Е вро
ря д
ра к
 К о
 кото ро
 д ень
ве д
 гра жд
 С а
  L
 д ет
 стра ны
 раз ви
Т ак
В о
 ст ан
ра м
ч ь
 мл рд
р ти
 комп ании
 возмо жно
  На
Н е
t a
ка зыва
 го д
ра ни
ре мен
рова ть
 си ст
 Влади ми
 н у
н ер
ме ча
ф е
мери кан
 су д
ющи х
ан ы
 сообща ет
 ру ково
то ры
ч ер
 в стре
 П у
с ков
 ст ро
сс а
ри т
т вер
ско е
 ра й
  Э
ва л
те ре
на род
 ни х
 си туа
 дол ж
 п ов
ет е
не с
по м
20 0
 ко ми
ри то
ин ан
ши х
ще го
 о ста
но му
вши й
 в с
гра м
 ты ся
 не об
 гла в
 с мо
 жи з
ни й
 С ер
 д ву
де ли
ко ло
ти и
  S
ру к
С о
та й
ль ного
ст ран
 у да
r u
щ ей
М ы
ж ения
во ди
тель ство
 д ва
 пров е
ств ова
я ть
т ен
 и ме
пу та
 тер рито
 уча ст
 ты с
 ми лли
 с ер
мо би
 н ет
 про тив
ово го
ь я
ч у
 про бле
 о дин
o n
тя бря
б я
 да же
ров о
б ер
н ен
 про дол
 испо ль
С С
  ю
 пра во
 с казал
ра я
 на с
при я
О д
 м ного
  Ю
 В о
1 2
 дан ным
че ской
лу ч
ни и
 не ф
ш ь
ве ли
 мо гут
ж ден
  Я
л ани
ки м
3 0
не го
с об
сту пи
ка ми
 В а
 о фи
  A
ем о
. ru
 боль ше
ску ю
 необ ходи
 от кры
д ова
я х
 Алекс анд
 об ще
ше л
о пас
 по з
 о че
яс ни
 ком ан
г ро
 по ка
 все го
ро ме
 с ейчас
ли н
 Н и
ши н
Т а
 ф инан
 на з
 президен та
 Украи ны
 вы бо
 ры н
 по ч
н ь
ш ении
 это т
 у ров
 п ло
ани ю
 п ла
ми нистра
м ени
 со стоя
  T
 пер вы
 с ен
ли я
 пре сс
щ ения
 Б а
 а мерикан
 авто моби
ру ет
н ем
ле м
 про да
 кото рая
 сообщи л
 а р
ген т
 во й
ере з
 челов е
 до ро
 неско лько
 о пера
 ко р
и с
ци ональ
 о коло
 т ран
i n
 се годня
е ль
ю д
н ению
 о п
ж ение
 в ла
е ва
 П а
ющи й
 до ку
 из вест
о д
  жен
ане е
к ова
ани ма
Р анее
 уча сти
ст ей
 б ли
ющи е
м ет
ци ей
и мо
н ения
 Б о
 все х
к ре
 т ри
ль ной
 и то
от вет
ль ный
 про грам
ла го
 э к
 К у
 с ем
он ов
 са мы
 с ни
 ме ся
 по бе
дер жа
П ро
 ми нист
 с ко
О т
ра з
 отмети л
б ов
кра ин
 с дела
ро ри
 ф ор
 на ходи
че ских
a n
ви а
 т ра
б ур
ле дов
ли ч
  ан
 президен т
ло го
 и с
ва ют
 которы х
 во с
 д у
ки й
 поли ти
 го тов
 ф ак
 явля ется
ро н
1 8
5 0
з я
 ка ж
ту ры
о ру
 горо да
ре й
ль я
 ме сто
лен ы
то ч
пра ви
 без опас
 г аз
 и ю
 это й
 вы со
 за яв
т р
 ре шение
 стро и
  B
 де пута
ность ю
 об ви
 ме ст
  За
т ки
х ов
д ь
ти й
 к руп
 от меча
 се бя
че ского
 сво е
 в то
жд ения
- лет
ур на
 г а
  I
 в не
ну т
  C
ка м
 к ри
б ра
л ении
сту па
 Н ово
ль ных
 гражд ан
Е сли
ер ы
вши х
 на ру
з да
ще е
  F
ра х
 у станов
 ч ерез
 чем пи
чи на
в но
 Си рии
и л
 к то
 сов ер
бо й
 М ин
 дву х
 С о
 произ о
И з
 о каза
Од нако
 з анима
  M
 ма тери
 м ен
 чи сле
н ова
С а
  З
1 1
 на д
 у прав
 сво ю
 а гент
И н
 у го
Д о
 при зна
па д
 поз во
 тыся ч
 по с
 ин тер
ч ем
з е
 гла ва
 переда ет
 с пи
 к ва
ход я
 ко л
 ди рек
С е
смо т
з о
че ство
 об я
 экс пер
з ан
ен а
 между народ
ли м
 тер рори
пи са
го тов
м ь
ми три
мен но
но ги
 за пре
ци а
в ра
ми на
 д ви
 за коно
  $
 б юд
ду к
 е вро
 пере д
ка я
 про це
г ли
та м
К а
К роме
 т ру
 ин тере
По сле
к ну
 в ласти
овы х
 за щи
с пе
М И
 со ответ
 об ла
ло г
К о
 го ло
1 6
 ус лови
 а виа
ч ной
 по ль
 Т а
б ре
 у краин
 пер во
щ ение
 де ка
 ж урна
 Росси я
ходи т
 го спо
o r
 Моск ве
В се
ва ется
 сле ду
у н
т ета
 э та
 де я
 офи циаль
тель ных
г ей
 по ги
ти е
 я н
 ста ть
en ta
 от вет
 ре жи
 те ле
т но
 Т ур
в ан
ш ли
 И н
  луч
за ции
 до ма
ев ра
 у вели
 сво ей
й те
ко е
ти ть
 после дни
1 4
 раз ме
 ста л
 бо е
  R
! 

1 7
 а пре
 ян ва
 результа те
e s
 в ме
овы е
стви е
 Владими р
 ча ст
Т о
с ке
я м
 за клю
  G
сс е
 до ба
 ви де
вы е
 б из
ш о
 L enta
ан ди
 со зд
й ти
сси и
ствен ной
в шего
 рабо ты
 ш ко
н ет
 при з
ф ф
э тому
лен а
 на прав
 ф едера
А СС
 долж ны
ва я
 п лани
 ф евра
 мен я
 с ы
ру жи
 мо ло
в ле
 дол ла
 оче ред
о то
мо й
 ст ран
 кото рой
 дол жно
лим пи
2 5
 не го
 ад министра
 про сто
 пров о
 Д митри
 сторо ны
слу ж
М о
п ло
ст рой
се да
ем а
 безопас ности
пре де
ствен ного
 с ро
 лю дей
  P
  ци
ша я
a r
ни е
 свя зи
 к реди
 му ж
 и ск
то н
 произ вод
  ему
г ан
ди ть
 но я
 ак тив
П ре
 по каза
 ма т
 де ло
щи х
 необходи мо
чи ть
гра ни
ы х
 други х
пом ним
пу сти
1 3
г ре
 под держ
И А
п ей
 э лек
 Г ос
 го род
 испо л
 кон ку
та ли
 ре ши
дер жи
 об су
 уго лов
ес пе
се д
 случа е
" 

 по тре
 б и
 со зда
 слу ж
во з
ци али
ф ер
 ра нее
  ше
Р е
 помо щ
 и но
 про д
 про дук
 дея тель
На помним
ет ер
 со стави
 обра з
 на стоя
 до гово
 су ще
 б лаго
 не за
 ча сть
 В и
 вопро с
 террито рии
при мер
х рани
 ми ра
 продол жа
ани ем
 у ли
 с бор
ут бо
 по зи
Б о
 исто ч
 у би
 фи ль
 про ис
 ка че
 пра в
 челове ка
ши е
 расс казал
анди да
 кон тро
 жиз ни
В ы
 н ово
тиче ски
ки н
ы ре
 про цен
  Ж
ра зи
 ус пе
пер ь
к та
 под чер
 пред по
 з д
 об еспе
ди тель
 дру го
 с каза
  ана
 пре до
 В е
су т
 мар та
  ла
Г ла
 г у
ствен но
Д а
р ту
 организа ции
 п лан
 жен щи
 ве дом
 пе ри
 ч у
ль ные
 не ко
 ра спо
 то рг
 хо де
пол ни
 которо го
 Сер гей
 ли шь
 на зыва
 м нению
 россий ских
ра ви
ле з
ст рук
ров ания
пы т
ри ю
 матери а
к ти
 хо ро
 счита ет
то й
a l
 комп ания
та ми
 само лет
2 4
 со циаль
и ть
со м
 говори т
 де ся
  ша
де л
то ров
 пло ща
м ов
 пре ступ
ы е
щ ем
тель ные
ство м
ско му
 мо мент
 ну жно
ру ю
тель ной
ч ки
 свои х
те м
  ц
 за ме
ин ов
 Д ж
ствен ных
то к
 к андида
 ф он
ща я
 ста ло
ч ных
 Моск вы
е дин
 пре ду
 под твер
с ло
 о су
сти ту
 со кра
 Р а
 дей стви
 м ноги
 су м
ро ны
 ме ди
Так же
ь е
ен но
М и
 м ене
 Ново сти
ло н
 С МИ
 Г о
 по да
 на се
 тран спо
ля р
 Ф едера
ц ей
щ ении
 к ур
ту р
 Б е
 с ек
ло жен
 журна ли
е ха
 с чет
ен си
т ных
 поли тиче
 о жи
 со ставля
l e
 К ры
с публи
 та м
Се годня
т ан
 по яви
 полу ча
етер бур
 кон це
 у ни
ству ет
 отно шении
 чет ыре
 Л а
 доба ви
 до сти
ши й
 чет вер
 поч ти
 п овы
 ко ли
 пар тии
 об на
щи й
на д
че ские
 ра м
 зна чи
де сь
 на у
 сле д
 объ ек
ш ений
Д ля
ер ов
 п ы
 под готов
  ри
 по ку
ни цу
в ания
 ф утбо
 пар ла
 спо соб
 и менно
ни х
ди и
до й
лен о
пра вля
 О О
 ре спубли
 дет ей
 Т АСС
 после д
и м
ч ный
 стра не
 Гос ду
 Александ р
2 2
ди на
 за держ
вши е
у д
 в ра
i t
 Т рам
рова л
рова ли
 сов ет
ч ные
 ча сти
 лю ди
 А р
 пере гово
ро по
  N
 з ем
 бу ду
 апре ля
П ред
 д аль
ти во
ро т
вы х
ст ана
 говори тся
Ч то
ен ы
 н ор
ту ра
 сен тября
 с сы
  W
ра зу
 к ли
па ра
 од нако
 ре али
ене ра
б ан
 за ко
% .

та р
 С е
 гла вы
 государ ства
 к лу
 ав гу
 Ан д
 пре мь
Р а
я вля
га м
 элек тро
си ли
ер т
ви си
 Пу тин
 о г
ни я
ру г
 пре кра
 об ы
н ю
ж у
 пров ер
 ста ли
ст я
 в клю
 з ан
стра да
 С ов
 за кон
 из мен
 ро ссия
ч ного
ски ми
пи с
ь ез
 и г
б ен
 и сс
к т
 рам ках
ро б
 у твер
с мен
ня ть
 сообщи ли
н ение
 за вер
чен ко
 прави тельства
 стра на
- служ
 дол жен
 руково д
 чемпи она
 пред прия
но логи
ур ман
 ку ль
 на м
 пров ед
1 00
 спо рт
 доку мен
В е
По д
 са м
ст ри
- пре
Г аз
 на зна
по зи
л ению
 су б
М е
и ли
 у ч
ши м
 ре й
б лю
ше е
 ан ти
 от каза
 иск лю
 при чи
ва ться
 и дет
 ино стран
 с анк
 о преде
ди л
мы ш
 од ной
 участи е
 февра ля
 Л и
 финан с
 т я
ак си
o o
О ни
 сво бо
ри н
 не до
во р
 при мер
. ,
4 0
 цен тра
 Ф ран
 ос об
 подчер кну
М а
ф а
ко ла
че го
 Росси й
 образ ом
 спе циали
 бо рь
ви д
те лем
чи ты
 мене е
  ло
 п я
 врем ени
 пред седа
 по па
 од ного
ч ей
 подо з
t er
за д
Т е
 дека бря
 о грани
ре в
жа й
 ноя бря
 г ру
ра ми
Г о
 ма ши
 м ет
па рта
 ок тября
 разви тия
 при нима
 не м
 ко не
 про ку
 обя за
П ер
h e
 та кой
 ни ка
 информа ции
 ре з
 на зад
 на циональ
ма три
ну ть
 раз рабо
 возможно сть
че ский
 реги она
фф ек
 неко торы
 вы пол
ствова ть
 Дмитри й
% ,
 за сед
 янва ря
г ля
хо да
 представи тель
 с ре
т ет
ю щего
 ин ф
 ма я
 други е
 о публи
c e
в ен
 пы та
С ейчас
зиден т
2 1
ре ц
ж ных
л ют
  ря
 ро ди
 эти х
В Д
с ова
 про тиво
г но
 Ми ха
 по страда
ер м
тель ного
мыш лен
 Р у
 в ремен
тель ный
 реги ональ
л кой
 бюд жет
2 8
 а ре
 се бе
 дей ствия
 управ ления
 сер ьез
 сред ств
ти на
 а э
 ок ру
 россий ского
 Ц ен
 и гра
та х
 у гро
к ет
м я
ри л
 соб ствен
ов е
2 3
 за да
 ра ди
гра фи
19 9
ди ли
 при бы
 кон ф
 поги б
 ш та
 г и
 рабо ту
ан ов
но к
 е ди
теля м
 Тур ции
ю щей
ни л
ж ной
 тре х
 с реди
мо н
до ров
во бо
 долла ров
ш ло
ш ем
ни цы
мо м
 по тому
 ка р
пи н
 первы й
 на до
 к ла
 то же
 Г а
  ти
ц ени
 пред лага
 сво й
 на де
 т ур
бер на
му ще
не ш
 у вер
ющи м
 спе циаль
 на мер
х ва
 з о
и тся
ле га
овы й
 г е
 част ности
 п енси
 по ясни
 Е С
a t
ш ла
 в ним
ми и
 уда лось
во е
д ж
зи и
2 7
ри ть
 ч лен
до б
 пред лож
 сто ли
 до ста
 Р ИА
 рабо т
 ссы лкой
к то
 Л е
 рай оне
д ви
ж ды
r o
про ек
ли чи
 м не
ча ст
 ре гу
 свое го
 ре ко
 то т
 ситуа ции
в ание
К ом
й дет
 ин вести
пу ска
 сто имо
  D
  ха
.. .
 бли жай
 об е
 которо е
 ме ста
 ли дер
лимпи й
об е
фер ен
 с ез
 М ар
2 6
ру ют
 вз ры
к си
 то гда
 те чение
 пу бли
ня я
ре с
 д ня
 во т
 з десь
 и де
сса жи
 М е
жд ение
 э нер
.. .

 груп пы
 очеред ь
на ча
 с рав
при нима
 тре бов
 вер си
 зан я
Т О
 за кры
р ю
ше д
 о цен
ми р
 вме сте
 кон тра
 расс ледов
п ании
 К он
 го с
чи л
 н ы
ни ца
 законо да
зов ания
 извест но
 ре бен
 м ень
 ми ну
стви и
 с ло
 заме сти
ш ки
 со бира
ж ении
 день ги
 ожи да
 ли ц
 поли ции
 тре ть
 Д а
ез д
 д ене
лен ных
 те перь
 и ни
 спорт смен
б ро
ет ь
ско ль
 ле г
 находи тся
ро прия
пи та
фи ци
мо сти
 с мер
 вы ступа
 ста ла
 про фе
 голо сов
д ан
ме ст
ч ка
Д е
 по р
 при вле
 П ет
2 9
ем е
 сист емы
 проек т
 пред ложи
 пра ва
ви дет
ш ой
 с разу
теля ми
Р у
 нача ла
ку ю
 су да
 тех нологи
 по став
че ра
п рово
 И з
ле в
ру ется
 т ова
 евро пей
 э ту
б ова
г ов
л ением
сла в
 из бира
Ро ссия
 ст ре
ствен ный
 расс каза
ли т
щи е
 та ких
 все гда
 од но
 су де
  E
шен ко
 М урман
 произ води
 подо б
л ений
 н ового
 пу н
ова я
емы х
 ки но
 до полни
ль ным
 биз нес
 ре аль
ре ва
 ф ото
 кото ром
 сред ства
 коми тета
 пар т
 новы х
та ть
 эти м
бо ль
 ус лу
 у точ
ди т
Б а
ц ов
 э ффек
 вы пла
 ру сс
 Ч е
 конф ли
фи ка
а т
ф ак
 на блю
сс о
ци н
мен ти
 бан ков
то чно
 ме роприя
 с па
сколь ку
че ства
 россий ской
 во ору
 премь ер
О на
 ме сте
 п ря
ст ер
 ст рук
об ра
 де л
 ква рти
 уби й
у м
 не де
 каче стве
 Г ерм
 исс ледов
вер си
ва ла
 сдела ть
 К ра
 по ряд
сто й
 ре шения
 нача ле
ш ую
ль ная
дни м
 си рий
 па ссажи
c o
 го ды
 в нут
 ту ри
 му зы
 б ес
 Е в
те ра
 хо зя
 д ве
 г енера
 последни е
 по се
ще ств
 че го
 милли ар
 коли чество
 Р и
 са йте
 м я
 б ра
но мо
 сто ит
 прош лого
 тя же
ж де
 минист р
п ли
 отно шения
ву ю
о храни
х ра
 из д
 Х а
 х у
ло й
 ста в
 рын ке
 авгу ста
х ран
та рь
 ито гам
 исполь зова
  сти
 на пример
 деятель ности
 Ве ли
сто ч
  H
a g
р ения
6 0
 ответ ствен
са м
ю з
 раз ре
 дирек тор
ш та
ги и
 не й
 со ста
 агент ство
не ф
ча т
 хо тя
 прави тельство
ли ти
 обра ти
 спо р
 о пас
п ере
 воз бу
хо дов
 получи л
 аэ ропо
 ми ров
сть ю
 воз ду
 вс ем
ж ного
 от ра
 воз ра
 т рен
 пери од
ни це
 горо де
 рын ка
 внут рен
зи н
 о цени
 ф а
 по этому
 г ен
Х о
 п ять
т ной
 п ово
ве ден
пер вые
 рас про
г ру
 неф ти
 на ходя
ле г
 про гно
 М ВД
 Ни кола
з ма
 у че
 ини циа
 вз я
 сем ь
ня ет
ход ят
 вто рой
 о ружи
 ч инов
 кото рую
 новы й
ва ри
 отмеча ет
 бое ви
 ны неш
 по пу
 ма сс
 добави л
лет а
 подчеркну л
 вы з
 руково ди
 вы ро
жа ть
 позво ля
 конку р
  ши
i s
ни ком
ров ание
 ст у
е ди
казыва ет
Ин тер
ни н
ря т
 по ст
ан т
фор ми
щ ую
ка р
рит ан
ва ются
ча ет
 совер шен
 ди а
 долж на
 не о
е ра
стоя н
 б ар
 мо сков
нист р
 новы е
ству ют
С К
 та кие
 ду ма
лен ные
 комп аний
 настоя щее
ш у
 ию ля
  №
 б анк
 виде о
д но
ро ят
тель ным
лек ана
ч ении
 б ло
води т
 ми ре
 расс мо
ш ет
 ка са
и гра
би н
 со бы
 при мен
ю за
 Л у
 помо щи
 госпо дин
си ть
 сов ремен
об ре
об ще
ров ки
 поли цей
 по скольку
 не по
 поль зова
- П
i l
к ва
кон ча
- го
 от де
 Т у
Со гла
 уров не
 Росси ю
чен ы
 ми р
про с
 милли онов
 проце сс
хо ды
 Алекс ей
ш ению
па да
 со став
тра ф
 проек та
 Федера ции
o l
ри на
 сво ем
то го
 ви це
 на писа
 име ет
 вне ш
ча я
 И го
вед ения
- м
ст ров
 на шей
 сов мест
 Украи не
 получи ли
ди я
 спе ц
Гла ва
Н и
 боль шин
 объ яви
 работа ть
 стан ет
ро е
 М И
тай те
 за бо
ен та
 не у
 пред ставля
 пра к
 пробле мы
 вним ание
 за м
 воз вра
 право охрани
во ка
 кри зи
 при н
 ни чего
 вер ну
 н ов
 д ней
По этому
 рай она
i on
мен а
о к
 по том
 исто рии
 каж ды
u s
ре е
та я
 не из
 при ве
 вы с
 ро д
ль ное
Пре зидент
в то
 ак ти
 ро ст
 ведом ства
 те лекана
че ская
 од на
 увели чи
  V
я тся
 раз лич
спе к
e l
Ко гда
д ется
 вы да
 это му
 пи са
ты й
 Евро пы
 жиз нь
 гу берна
 пред принима
овы м
a m
 то н
 счита ют
у с
ша ть
 дан ные
 пол ностью
 ОО Н
 коне чно
до к
ствен ные
 эк спо
 тра ди
 законо проек
 сбор ной
 с ф
лы х
 в за
 по нима
вы й
 информа цию
 нор ма
ты х
В и
ми н
л ана
 з доров
 тре бу
 п ят
Ро ссий
и ч
 те рак
С и
 на род
би ли
т ные
 пред став
на ми
 сни зи
 к ру
 тех ни
 Сер ге
 к ана
о ни
тя бре
 запре щен
ет ы
к ро
 и ску
 до бы
 ни м
 меди цин
 а л
 програм мы
  жа
 на и
-лет ний
 администра ции
 про смот
 друго й
 с цен
ма р
ж ный
ро шенко
 то му
 свя зан
 С у
со к
 прош лом
 кол лек
 под держи
 получи ть
ч то
до ро
Е го
 мо г
жду народ
 х и
 объ ем
 самы х
в шей
щи ков
ы м
со бо
 ситуа ция
 оп пози
 составля ет
 по жа
ем он
 ми ни
ден т
 меся цев
 по стоян
ни ть
А О
 ф ран
си л
 Мо сков
 ве сь
емо кра
 биз не
 воз гла
 просмот ров
Б ы
те че
 С К
мо жно
 вы ступи
 те ку
 ю ри
 бли з
i c
 мо щ
ника ми
 а п
 минист ер
- й
П а
 са й
се дни
 ра кет
 го р
 П ри
 жи во
ж ета
 вы ра
 вой ны
 свя з
 муж чи
 осу ществ
 насе ления
 проку ра
во к
 мень ше
ль ном
 ва ри
 коман ды
д ения
п ов
ро к
 многи е
чи с
ес публи
к тор
 ( "
- ми
 не да
про чем
в ети
 па м
вести я
ле д
 ос вобо
 бан ка
 торг ов
 от ве
по ли
 жи телей
 од ном
 ф ун
 са ми
ни ц
ча ть
 ка м
 вос станов
ж ем
 Госду мы
 ха рак
 площа д
че ски
р ко
 при водит
 Б у
 Во сто
 в лия
по р
 И ван
 процен тов
 экономи ки
 наблю да
e t
л га
и х
 в первые
 за во
 служ бы
 россия н
 и гро
ти ю
стави ть
 цен ы
 возможно сти
 утвер жда
з м
 сло жно
: 

вы м
3 5
 пре вы
 вопро сы
к ви
 по ме
 на чина
. R
ти ли
 Н А
тив ных
 И ра
 выбо ров
 на лог
 груп пи
 по про
 участ ников
над ле
ж ей
 не е
 про те
ло т
 обви ня
 сро к
Согла сно
r e
гра д
 дела ть
 це ль
 тур ни
ж ные
з ер
да ря
 Ев г
ен о
та ки
 Д о
 выбо рах
то ром
 по лож
те й
 Герм ании
 прак тически
7 0
в ью
 транспо рт
з дни
сла м
 нача ль
А н
ч ным
 б ере
ле п
ве сто
 прави тель
 обсу жда
 при обре
ба ты
 стра те
нист ер
 о дним
по ра
мы е
 пя ти
8 0
ан ных
 заяви ла
 поку па
г ран
с ем
 сто л
 па ла
 обла ст
ти рует
цион ной
 сотрудни ков
 предпо лага
 от сут
 МИ Д
 на ши
 е дин
ово м
х у
 с ла
Р ос
С то
 к ры
 пред вари
 до ступ
тре ть
ч ета
 г ри
 из мени
чен о
рован ы
 парла мента
 Анд рей
  ряд
 финан си
не в
 при надле
 Росси ей
анк т
 полити ки
 у бе
ду ма
тре б
 ито ге
 рей тин
3 1
о логи
 та ким
 доста точно
л ла
ф он
 дол го
Т ем
 ча сов
 чи сло
 ква рта
ши ть
 ни ко
 кра й
 ту рец
 наз вал
 неза кон
ро ссий
 пра здни
 сооб щении
 ч ер
 иску с
ли и
ки ми
 от прави
су р
Е ще
п ания
 с ъ
 встре чи
Д и
ко б
 при о
 си л
 с ня
 К лин
 неско ль
 источ ник
мы х
кла д
 по лови
фак с
с ен
 террори сти
 разме ре
 к ре
 при гово
 сообщи ла
 агент ства
-П етербур
ля х
 те а
 представи тели
та лья
не ц
 по ня
 м еры
 у па
ци па
во го
 к ни
 ми нистра
 воен но
 интер вью
ве ро
 бюд жета
ста м
 В ер
 вс ей
 по не
 М у
 комп лек
 по те
 со бой
тив но
 произо шло
ма тиче
ша ет
 от став
 обо роны
 исполь зу
 ш траф
 стан ов
 неф ть
 доку мента
 попу ляр
с ро
 рас ши
 продол жи
у не
че ским
 Р еспубли
 К ар
пу ск
 исто ри
слу жи
 за тем
 бу д
 которы м
 услови ях
 у чи
ца м
с ер
 с видет
 во обще
ра б
 по пы
лы й
ника м
цион ных
 дви жения
 конку рен
 ро ста
 иностран ных
 Фран ции
 О ба
 уров ень
 круп ней
- ли
ч ная
 б ритан
 луч ше
л ер
Л и
тель ное
па р
бо лее
 ста р
 по стро
in g
 испол ни
 даль ней
9 0
 со сто
 то р
 Д у
 ситуа цию
и ла
ш ка
 Т о
a s
ф о
 д ово
 не ме
.R u
сто м
 ка кие
 уголов ное
К он
 пример но
в ли
я ми
 ка пита
 це лом
 ули це
 россий ские
 помощ ью
г на
ч ку
 кон ца
 цен тре
 кажды й
л ки
 Ш а
ле дова
 фран цу
коб рит
- се
 по станов
 да в
" В
 а ль
 ско ро
ди ви
ств ов
цион ного
 свои м
 поясни л
де в
 пре тен
ед ве
 заяв ление
 ин весто
 По рошенко
 отно си
 соответ ству
т ный
пре д
 уни верси
 кли ен
" )
 а у
 пи шет
 дей ству
 Владими ра
 в ну
 ад вока
п ря
ди й
 па ра
 встре ча
р пла
 в тор
 ра ск
ве л
 из у
 интере с
н ему
ту ру
 пер вую
 С анкт
 россий ский
 с ети
 за виси
 пробле м
 т р
т ного
ре з
 по ки
 депута т
 поги бли
 обна ружи
ю щая
 с ере
 у правля
 У К
 расс матри
 п си
ль зя
 за рпла
 Ч ер
 организа ция
r i
 сообща лось
 ко с
емы й
 особ енно
акси ма
 о про
ла й
 под писа
 государ ство
 пробле ма
 ре мон
  ей
 и муще
та к
 В се
 пи сь
 материа ле
 по хо
 по ступи
 при ходи
 следу ет
 н овой
 действи й
 Трам па
 Клин тон
 ка кой
 перво м
 профе сси
 ш о
 газ ета
 приз н
 НА ТО
o u
х е
х ани
 к лю
 уч ре
п ан
 поне дель
 по и
 заяви ли
 хоро шо
 Цен тра
 про мышлен
 ве дь
 ча сто
Во з
 ма ло
 ж ерт
 производ ства
ров и
 сов ета
 лю би
 поль зу
ем ой
 прово ди
в ета
в ченко
 ни з
са д
 ком му
 Д он
 а ва
 ре чь
 вы ше
 си м
 Вели кобрит
за х
 при сут
 чи тайте
 помощ ь
Гла в
 Россий ской
 суде б
В прочем
с шта
по рт
 вы рази
ше ствия
 я зы
 действи тельно
 подоз рева
 ли бо
СС Р
да ть
 у каз
 ва с
 парт нер
Б К
 с лож
си т
 фи зи
 провед ения
 дан ных
 Пу тина
 чу в
 республи ки
сточ ник
 с ли
ва р
ца ми
 тыся чи
 исполь зов
 о станов
ре ги
4 5
е сти
т ят
э кономи
 соб ра
 д ер
 де лу
кла ды
 м э
 пят ницу
д ово
с ной
ть я
во м
бо роны
 под держа
 ры нок
 сказа ть
бан ка
 ху до
Н Р
е л
ти ва
ня ется
 рабо те
 от вети
 де ле
 нача ли
 сторо н
 бар ре
 от дель
 т рав
 сотрудни ки
 сист ема
 пос ети
 сек ре
 стоимо сть
 хозя й
В а
про м
я н
 по зд
 ма га
т ря
ста ти
 сре ду
 боль шой
 ки тай
ми мо
 С ССР
ты е
т ова
 по лага
 на ч
 у си
 ра за
 Ц Б
 предприя тия
 реко мен
 до би
бо ра
га х
 вза имо
ер у
ру дов
 а рен
 вы ступ
 бо м
 А л
 груп па
в шая
щ у
 сле дова
П ере
б ло
 Кры ма
 воз ник
 ва жно
 фи на
 на ших
 го лов
ща ется
 ни кто
емо го
 Александ ра
 верси и
Е ди
 у строй
 про жи
 фор ми
 сф ере
 е же
 произо шел
смот ря
ло ру
П у
б ар
в ей
ко ми
 вы став
вши м
 гово рят
ль ную
 согла си
 меся ца
 ин ститу
 се ль
 интер нет
лимпи а
 поте ря
по д
 само м
 фор ма
 опубли кова
к са
с нов
тив ной
ка тери
 не смотря
 дви га
 ребен ка
 мини му
ч ное
 с дел
 на пад
" :
но стей
го м
 б аз
 та кое
лет и
сле д
 четыре х
 воору жен
леп по
 г лу
 работа ет
 перво го
 ог ром
ра во
 со бе
 кон ц
a ce
Под роб
 поряд ка
ве з
 та кого
ба й
 орг анов
 зако на
 Сов ета
ш лось
 об у
 распо ложен
 Трам п
 измен ения
-се кре
 Ме ждународ
e w
ш ему
ку п
 обра зования
 смо гут
ag e
ла х
ни ципа
 не боль
 про ходи
 А леппо
 пенси он
 понедель ник
 с ме
ствен ным
 И Г
 ци тирует
 в нес
ан ные
 за явля
щи м
 объ яв
 им ени
 б ро
 си лы
 I n
i r
 пере во
 пер вой
 ди пло
en t
 прин ци
е п
шин г
 Се вер
 дене г
 на ко
 ве ли
 ве роят
 замести тель
С Б
 с к
ля ть
 сы гра
 ап пара
 вы ход
 четвер г
 увер ен
 неиз вест
 га за
ч ном
ы й
 у зна
 до м
 Я по
 обна ру
е ст
 опера ции
e d
 с пу
 а рти
 т ен
 де парта
спо н
 потре би
 несколь ких
ю щее
ан да
 а б
че ское
 мо гли
 ро ль
те х
ди м
 во л
 О б
 прове сти
б ран
 коми ссии
 по ра
 со храни
 во к
цион ный
 собе седни
 М едве
ск рес
5 00
 опубли ков
А С
Э кс
б ере
но бороны
 успе ш
 куль туры
  ль
 за держа
че скую
 вы ясни
 объ яс
 ва лют
 каса ется
 ста ту
 уров ня
 Ин тер
 ОО О
 по ложи
ан ный
 В В
 не льзя
 ве ду
вши сь
  X
К и
з ор
за ция
 комп лекс
 явля ются
 нико гда
e u
ш ком
 строи тельство
 нару шения
 самолет а
 зо ло
ссо циа
 втор ник
 на ро
 до пин
ез да
 электро н
a p
с она
 с про
ри а
 ка рти
 Евро пе
Интер факс
г ры
 о пла
 К рем
 А лек
 ге ро
г ети
ш ением
те л
 ка те
На пример
 взры в
; 

за щи
ни ли
ло у
 со рев
 Э р
з ем
 перегово ры
 про па
 не воз
зи т
 си лу
 помо га
 преступ ления
Н у
 про йдет
 к м
 Д ональ
 кон кре
тив ного
3 00
 Б ер
 ва ж
 преду пре
б анк
 о то
 Бо ри
 строи тельства
 спи сок
 некоторы е
 Миха ил
би р
 му ниципа
 Са вченко
 неза виси
стана вли
Ч С
 во ди
лы е
 говори ть
 руково дитель
 находя тся
д ение
л ле
 вы во
тель ную
 ак ции
 Иго рь
 страте ги
- х
го род
ка де
 т ут
стя ми
т ром
ри ф
ма я
 вы де
 вы ну
од но
 Из вестия
л да
 за рабо
 ре сур
 приня то
 бе жен
То гда
 от мен
 ин ци
Та ким
 францу з
ч ную
са х
 сум му
 о собо
 Кра сно
Р аз
 обо рудов
жден о
 требов ания
 на каз
по мина
чен ных
 фон да
 бизне са
 по ко
 пре пара
 пос вя
 д ере
 бы вший
 з ри
 орг ана
ло к
 член ов
ж ар
 муж чина
 поддерж ку
 о р
 по ру
ти л
тив ные
 председа тель
 пам ят
ю сь
ля ции
мы й
 многи х
тель ная
лен ный
су ль
 состоя нии
 T he
 кор руп
 п ес
ся т
лом ет
 пово ду
о ны
 бы стро
 де ву
кре п
 срав нению
Т П
 в ов
 о ши
 д ра
по треб
ги п
 ни же
 смо жет
 разрабо т
 кате го
 о казыва
 само го
Бо ль
 пун к
 фун к
Ф ото
 милли она
 со пер
ча й
 дан ный
 чемпиона та
ести ва
сто к
 Ми нистер
 раз ных
рова но
 спо рта
пол не
 да вно
 случа й
мен ты
 оста ется
ню ю
ро з
 слу чи
 цен а
 глав ный
П Р
 на прави
 си х
 объ ясни
 поч ему
 благо даря
m age
 ко ло
рова ла
 реги оне
ва ти
 во скрес
 пол номо
 завер ши
 соста ве
 в ся
 за п
чи ли
 А б
 ми нут
 прове ден
 пери о
ра баты
