{
  "version": "1.0",
  "truncation": null,
  "padding": null,
  "added_tokens": [],
  "normalizer": null,
  "pre_tokenizer": {
    "type": "Sequence",
    "pretokenizers": [
      {
        "type": "Split",
        "pattern": {
          "Regex": "[^\\r\\n\\p{L}\\p{N}]?[\\p{Lu}\\p{Lt}\\p{Lm}\\p{Lo}\\p{M}]*[\\p{Ll}\\p{Lm}\\p{Lo}\\p{M}]+|[^\\r\\n\\p{L}\\p{N}]?[\\p{Lu}\\p{Lt}\\p{Lm}\\p{Lo}\\p{M}]+[\\p{Ll}\\p{Lm}\\p{Lo}\\p{M}]*|\\p{N}{1,3}| ?[^\\s\\p{L}\\p{N}]+[\\r\\n/]*|\\s*[\\r\\n]+|\\s+(?!\\S)|\\s+"
        },
        "behavior": "Isolated",
        "invert": false
      }
    ]
  },
  "post_processor": null,
  "decoder": null,
  "model": {
    "type": "BPE",
    "dropout": null,
    "unk_token": null,
    "continuing_subword_prefix": null,
    "end_of_word_suffix": null,
    "fuse_unk": false,
    "byte_fallback": false,
    "ignore_merges": false,
    "vocab": {
      "\n": 0,
      " ": 1,
      "!": 2,
      "\"": 3,
      "#": 4,
      "$": 5,
      "%": 6,
      "&": 7,
      "'": 8,
      "(": 9,
      ")": 10,
      "*": 11,
      "+": 12,
      ",": 13,
      "-": 14,
      ".": 15,
      "/": 16,
      "0": 17,
      "1": 18,
      "2": 19,
      "3": 20,
      "4": 21,
      "5": 22,
      "6": 23,
      "7": 24,
      "8": 25,
      "9": 26,
      ":": 27,
      ";": 28,
      "<": 29,
      "=": 30,
      ">": 31,
      "?": 32,
      "@": 33,
      "A": 34,
      "B": 35,
      "C": 36,
      "D": 37,
      "E": 38,
      "F": 39,
      "G": 40,
      "H": 41,
      "I": 42,
      "J": 43,
      "K": 44,
      "L": 45,
      "M": 46,
      "N": 47,
      "O": 48,
      "P": 49,
      "Q": 50,
      "R": 51,
      "S": 52,
      "T": 53,
      "U": 54,
      "V": 55,
      "W": 56,
      "X": 57,
      "Y": 58,
      "Z": 59,
      "[": 60,
      "\\": 61,
      "]": 62,
      "_": 63,
      "`": 64,
      "a": 65,
      "b": 66,
      "c": 67,
      "d": 68,
      "e": 69,
      "f": 70,
      "g": 71,
      "h": 72,
      "i": 73,
      "j": 74,
      "k": 75,
      "l": 76,
      "m": 77,
      "n": 78,
      "o": 79,
      "p": 80,
      "q": 81,
      "r": 82,
      "s": 83,
      "t": 84,
      "u": 85,
      "v": 86,
      "w": 87,
      "x": 88,
      "y": 89,
      "z": 90,
      "~": 91,
      "": 92,
      "£": 93,
      "¤": 94,
      "¥": 95,
      "¦": 96,
      "§": 97,
      "©": 98,
      "¬": 99,
      "­": 100,
      "°": 101,
      "²": 102,
      "³": 103,
      "µ": 104,
      "·": 105,
      "¹": 106,
      "º": 107,
      "¼": 108,
      "½": 109,
      "¾": 110,
      "É": 111,
      "Ë": 112,
      "Ö": 113,
      "×": 114,
      "ß": 115,
      "à": 116,
      "á": 117,
      "ä": 118,
      "ç": 119,
      "è": 120,
      "é": 121,
      "ê": 122,
      "ë": 123,
      "í": 124,
      "ð": 125,
      "ó": 126,
      "ô": 127,
      "õ": 128,
      "ö": 129,
      "ø": 130,
      "ü": 131,
      "þ": 132,
      "ā": 133,
      "ę": 134,
      "ī": 135,
      "İ": 136,
      "ı": 137,
      "Ł": 138,
      "ń": 139,
      "ŏ": 140,
      "ś": 141,
      "Ş": 142,
      "ş": 143,
      "Š": 144,
      "š": 145,
      "ʀ": 146,
      "ʼ": 147,
      "˚": 148,
      "́": 149,
      "̆": 150,
      "̈": 151,
      "Έ": 152,
      "Α": 153,
      "Γ": 154,
      "Η": 155,
      "Ν": 156,
      "Σ": 157,
      "έ": 158,
      "α": 159,
      "β": 160,
      "λ": 161,
      "μ": 162,
      "ν": 163,
      "ο": 164,
      "ρ": 165,
      "τ": 166,
      "χ": 167,
      "ώ": 168,
      "Є": 169,
      "І": 170,
      "Ї": 171,
      "Ў": 172,
      "А": 173,
      "Б": 174,
      "В": 175,
      "Г": 176,
      "Д": 177,
      "Е": 178,
      "Ж": 179,
      "З": 180,
      "И": 181,
      "Й": 182,
      "К": 183,
      "Л": 184,
      "М": 185,
      "Н": 186,
      "О": 187,
      "П": 188,
      "Р": 189,
      "С": 190,
      "Т": 191,
      "У": 192,
      "Ф": 193,
      "Х": 194,
      "Ц": 195,
      "Ч": 196,
      "Ш": 197,
      "Щ": 198,
      "Ъ": 199,
      "Ы": 200,
      "Ь": 201,
      "Э": 202,
      "Ю": 203,
      "Я": 204,
      "а": 205,
      "б": 206,
      "в": 207,
      "г": 208,
      "д": 209,
      "е": 210,
      "ж": 211,
      "з": 212,
      "и": 213,
      "й": 214,
      "к": 215,
      "л": 216,
      "м": 217,
      "н": 218,
      "о": 219,
      "п": 220,
      "р": 221,
      "с": 222,
      "т": 223,
      "у": 224,
      "ф": 225,
      "х": 226,
      "ц": 227,
      "ч": 228,
      "ш": 229,
      "щ": 230,
      "ъ": 231,
      "ы": 232,
      "ь": 233,
      "э": 234,
      "ю": 235,
      "я": 236,
      "є": 237,
      "і": 238,
      "ї": 239,
      "ў": 240,
      "џ": 241,
      "ғ": 242,
      "Қ": 243,
      "қ": 244,
      "ҳ": 245,
      "ӣ": 246,
      "‍": 247,
      "‎": 248,
      "‐": 249,
      "‑": 250,
      "‒": 251,
      "―": 252,
      "•": 253,
      "‪": 254,
      "‬": 255,
      "″": 256,
      "€": 257,
      "№": 258,
      "⅓": 259,
      "→": 260,
      "−": 261,
      "∙": 262,
      "⋅": 263,
      "─": 264,
      "■": 265,
      "▲": 266,
      "►": 267,
      "●": 268,
      "☃": 269,
      "☝": 270,
      "♫": 271,
      "⚽": 272,
      "❄": 273,
      "《": 274,
      "》": 275,
      "": 276,
      "️": 277,
      "🌞": 278,
      "🍺": 279,
      "🎂": 280,
      "🐅": 281,
      "🐗": 282,
      "🐺": 283,
      "💪": 284,
      "😂": 285,
      "🙈": 286,
      " п": 287,
      "ст": 288,
      " в": 289,
      " с": 290,
      "ен": 291,
      "ов": 292,
      "ра": 293,
      " н": 294,
      ".\n": 295,
      " о": 296,
      "то": 297,
      "но": 298,
      "ре": 299,
      "ко": 300,
      " и": 301,
      "ро": 302,
      "го": 303,
      "ли": 304,
      " по": 305,
      "ан": 306,
      "ет": 307,
      " д": 308,
      "ль": 309,
      "ри": 310,
      " на": 311,
      "ны": 312,
      "ка": 313,
      " м": 314,
      "те": 315,
      "ла": 316,
      "за": 317,
      "ни": 318,
      "ер": 319,
      " б": 320,
      "та": 321,
      "ени": 322,
      "ки": 323,
      "ле": 324,
      "на": 325,
      "ть": 326,
      " ч": 327,
      "да": 328,
      "ло": 329,
      "ти": 330,
      " у": 331,
      "ва": 332,
      " не": 333,
      "ся": 334,
      "ци": 335,
      " ко": 336,
      " за": 337,
      "ми": 338,
      "ру": 339,
      "ди": 340,
      "во": 341,
      "ви": 342,
      " \"": 343,
      "сс": 344,
      " со": 345,
      " про": 346,
      " ра": 347,
      "ем": 348,
      " а": 349,
      "ани": 350,
      " э": 351,
      "ля": 352,
      " -": 353,
      "де": 354,
      "ров": 355,
      " к": 356,
      "ско": 357,
      "сти": 358,
      "ста": 359,
      " го": 360,
      " от": 361,
      " что": 362,
      " об": 363,
      " до": 364,
      "не": 365,
      "по": 366,
      "мо": 367,
      " г": 368,
      " при": 369,
      " пре": 370,
      "ры": 371,
      "ей": 372,
      "ду": 373,
      " во": 374,
      "ча": 375,
      "че": 376,
      "чи": 377,
      "сто": 378,
      "бо": 379,
      "ма": 380,
      "ски": 381,
      "же": 382,
      " ре": 383,
      " вы": 384,
      "ения": 385,
      "ной": 386,
      " С": 387,
      " е": 388,
      " т": 389,
      "тель": 390,
      "ве": 391,
      "ных": 392,
      "хо": 393,
      " Р": 394,
      " то": 395,
      "сси": 396,
      " из": 397,
      "ку": 398,
      "ово": 399,
      "до": 400,
      "сь": 401,
      "ного": 402,
      "се": 403,
      "лу": 404,
      " бы": 405,
      " ка": 406,
      "жи": 407,
      "ме": 408,
      "ши": 409,
      "ова": 410,
      " М": 411,
      "ги": 412,
      "ств": 413,
      " это": 414,
      "щи": 415,
      "ну": 416,
      " мо": 417,
      " ф": 418,
      "зи": 419,
      "об": 420,
      "мен": 421,
      " К": 422,
      "ют": 423,
      "ере": 424,
      "ение": 425,
      "ции": 426,
      "па": 427,
      "ные": 428,
      " те": 429,
      "ный": 430,
      "си": 431,
      "сть": 432,
      "По": 433,
      "му": 434,
      "ту": 435,
      "пи": 436,
      " ст": 437,
      " кото": 438,
      " та": 439,
      "ков": 440,
      "\",": 441,
      "га": 442,
      "20": 443,
      "ря": 444,
      " под": 445,
      "ты": 446,
      "ше": 447,
      "ще": 448,
      " де": 449,
      " бо": 450,
      " А": 451,
      "ня": 452,
      "ар": 453,
      "он": 454,
      "ется": 455,
      " з": 456,
      " ме": 457,
      " Ро": 458,
      " раз": 459,
      "би": 460,
      "лю": 461,
      "са": 462,
      " В": 463,
      " пред": 464,
      "пе": 465,
      " (": 466,
      "лов": 467,
      "лен": 468,
      "ской": 469,
      "тов": 470,
      "ке": 471,
      " ми": 472,
      "ор": 473,
      " Росси": 474,
      "жа": 475,
      " ро": 476,
      "це": 477,
      "су": 478,
      "ным": 479,
      "ден": 480,
      "ания": 481,
      " пере": 482,
      "ек": 483,
      "вы": 484,
      "ак": 485,
      " ин": 486,
      "ран": 487,
      "ства": 488,
      " бу": 489,
      "лет": 490,
      "сле": 491,
      "про": 492,
      "пу": 493,
      "ского": 494,
      "201": 495,
      " П": 496,
      "спо": 497,
      "\".\n": 498,
      "ствен": 499,
      " для": 500,
      "ство": 501,
      " ли": 502,
      "бы": 503,
      "ин": 504,
      "На": 505,
      " ру": 506,
      " ком": 507,
      " ма": 508,
      "каза": 509,
      " ста": 510,
      " все": 511,
      " Д": 512,
      "мы": 513,
      " сво": 514,
      " Б": 515,
      "жно": 516,
      " которы": 517,
      "дет": 518,
      " кон": 519,
      "ды": 520,
      " су": 521,
      " Г": 522,
      " са": 523,
      " си": 524,
      "ща": 525,
      "ез": 526,
      " я": 527,
      " но": 528,
      "аль": 529,
      "вер": 530,
      " года": 531,
      "ск": 532,
      " пра": 533,
      "ном": 534,
      " Т": 535,
      " так": 536,
      "она": 537,
      " как": 538,
      "кра": 539,
      "ться": 540,
      "ур": 541,
      "гра": 542,
      "ная": 543,
      "цен": 544,
      "ана": 545,
      " сооб": 546,
      "ба": 547,
      "лей": 548,
      " ни": 549,
      " России": 550,
      "тив": 551,
      " воз": 552,
      "ное": 553,
      "ности": 554,
      "ска": 555,
      "зы": 556,
      "бе": 557,
      "чен": 558,
      "дер": 559,
      "пра": 560,
      "ских": 561,
      "ении": 562,
      "овы": 563,
      "гу": 564,
      "со": 565,
      "тся": 566,
      " И": 567,
      "лся": 568,
      " его": 569,
      "из": 570,
      "сту": 571,
      "жен": 572,
      "фи": 573,
      " ве": 574,
      " се": 575,
      "вля": 576,
      "пре": 577,
      "кс": 578,
      " Н": 579,
      "рова": 580,
      "ский": 581,
      " хо": 582,
      " О": 583,
      "нов": 584,
      " сто": 585,
      "ция": 586,
      "дов": 587,
      "дни": 588,
      "ша": 589,
      " он": 590,
      "лько": 591,
      " рабо": 592,
      "рем": 593,
      " дол": 594,
      "ание": 595,
      " стра": 596,
      "ходи": 597,
      "ющи": 598,
      "ании": 599,
      "стви": 600,
      "ети": 601,
      "кой": 602,
      " после": 603,
      " Л": 604,
      "ета": 605,
      "мер": 606,
      "лись": 607,
      "рг": 608,
      "яви": 609,
      " жи": 610,
      "ную": 611,
      "ссий": 612,
      "ность": 613,
      "зу": 614,
      " У": 615,
      "ления": 616,
      "стави": 617,
      " этом": 618,
      " Е": 619,
      "ца": 620,
      " Ф": 621,
      "ят": 622,
      "жд": 623,
      "ром": 624,
      "стан": 625,
      " пер": 626,
      " че": 627,
      " комп": 628,
      " да": 629,
      "рии": 630,
      "ев": 631,
      "гда": 632,
      "ха": 633,
      " па": 634,
      "тра": 635,
      " полу": 636,
      " же": 637,
      "лось": 638,
      "жет": 639,
      " пров": 640,
      "ред": 641,
      "стра": 642,
      " будет": 643,
      "при": 644,
      " ча": 645,
      "гла": 646,
      "вши": 647,
      " гла": 648,
      " ви": 649,
      " руб": 650,
      "ком": 651,
      " расс": 652,
      " году": 653,
      "зиден": 654,
      " ос": 655,
      "лы": 656,
      "дин": 657,
      " од": 658,
      "том": 659,
      " ш": 660,
      " ав": 661,
      " врем": 662,
      "сли": 663,
      " боль": 664,
      " сов": 665,
      "ению": 666,
      "стоя": 667,
      "рен": 668,
      " поли": 669,
      " также": 670,
      "ву": 671,
      "род": 672,
      "ник": 673,
      "дар": 674,
      "ские": 675,
      "пер": 676,
      "руп": 677,
      "вя": 678,
      "тя": 679,
      " ди": 680,
      " россий": 681,
      " дру": 682,
      "фор": 683,
      " Мо": 684,
      "ству": 685,
      " ак": 686,
      "бли": 687,
      "ень": 688,
      "тер": 689,
      "сов": 690,
      "цию": 691,
      "За": 692,
      "ений": 693,
      " уже": 694,
      "рой": 695,
      "лее": 696,
      "коно": 697,
      " мл": 698,
      " лю": 699,
      "лова": 700,
      "тор": 701,
      "лась": 702,
      "вет": 703,
      " слу": 704,
      "ются": 705,
      " орг": 706,
      " был": 707,
      "зна": 708,
      " объ": 709,
      " было": 710,
      "бу": 711,
      " уча": 712,
      " челов": 713,
      "став": 714,
      "ласти": 715,
      "три": 716,
      " цен": 717,
      "ес": 718,
      "зыва": 719,
      "тиче": 720,
      "ему": 721,
      "ными": 722,
      " время": 723,
      "жду": 724,
      " пар": 725,
      " которые": 726,
      "теля": 727,
      " ты": 728,
      " без": 729,
      "прав": 730,
      "гово": 731,
      "ом": 732,
      " обра": 733,
      "сы": 734,
      " президен": 735,
      "пы": 736,
      "кан": 737,
      "лек": 738,
      " их": 739,
      " заяви": 740,
      "ге": 741,
      "ская": 742,
      "ника": 743,
      "рт": 744,
      "телей": 745,
      " произ": 746,
      " нача": 747,
      "стре": 748,
      "вро": 749,
      " дан": 750,
      "цион": 751,
      " том": 752,
      " ва": 753,
      " мы": 754,
      "аз": 755,
      "циаль": 756,
      " гра": 757,
      "кон": 758,
      "ление": 759,
      "чно": 760,
      " чи": 761,
      " гово": 762,
      "ском": 763,
      "00": 764,
      "ней": 765,
      " авто": 766,
      "ход": 767,
      "бря": 768,
      " только": 769,
      "ША": 770,
      " тре": 771,
      " чем": 772,
      " или": 773,
      "рь": 774,
      "шен": 775,
      "дом": 776,
      "вать": 777,
      " само": 778,
      "кры": 779,
      " спо": 780,
      ").\n": 781,
      "ене": 782,
      "19": 783,
      " еще": 784,
      "год": 785,
      "лан": 786,
      " тер": 787,
      "станов": 788,
      "сте": 789,
      " ус": 790,
      " лет": 791,
      " му": 792,
      " того": 793,
      " сообща": 794,
      "тели": 795,
      " США": 796,
      "ональ": 797,
      " может": 798,
      " пу": 799,
      "дут": 800,
      "тре": 801,
      "судар": 802,
      "шения": 803,
      " зна": 804,
      "рта": 805,
      " более": 806,
      "нее": 807,
      " слова": 808,
      "цы": 809,
      "тия": 810,
      " фи": 811,
      "казал": 812,
      "шение": 813,
      " чтобы": 814,
      "зов": 815,
      " пи": 816,
      " сообщи": 817,
      "?\n": 818,
      "али": 819,
      " были": 820,
      "ников": 821,
      "тро": 822,
      " сле": 823,
      "чита": 824,
      " рас": 825,
      "пол": 826,
      " который": 827,
      "Но": 828,
      " органи": 829,
      "мети": 830,
      "ой": 831,
      " прави": 832,
      "Как": 833,
      " ле": 834,
      " ее": 835,
      "от": 836,
      " они": 837,
      "При": 838,
      "краи": 839,
      " ку": 840,
      "),": 841,
      "оне": 842,
      " х": 843,
      "реди": 844,
      " Моск": 845,
      "нист": 846,
      "лом": 847,
      "кономи": 848,
      " говори": 849,
      "тельно": 850,
      " РФ": 851,
      "лекс": 852,
      "ково": 853,
      "нима": 854,
      "ед": 855,
      " испо": 856,
      "стро": 857,
      "логи": 858,
      " вз": 859,
      " государ": 860,
      " отно": 861,
      " дей": 862,
      "ску": 863,
      "Это": 864,
      "лож": 865,
      " свя": 866,
      "сла": 867,
      " реги": 868,
      "тин": 869,
      " Х": 870,
      "дера": 871,
      "форма": 872,
      " Украи": 873,
      "ением": 874,
      "ью": 875,
      "льта": 876,
      " Ми": 877,
      "стве": 878,
      " помо": 879,
      "ких": 880,
      "стов": 881,
      " эти": 882,
      "анк": 883,
      " между": 884,
      " им": 885,
      " вопро": 886,
      "лли": 887,
      " свои": 888,
      " получи": 889,
      "ним": 890,
      "ступ": 891,
      "ос": 892,
      "ут": 893,
      "жда": 894,
      " заявил": 895,
      " Ка": 896,
      "рд": 897,
      " спе": 898,
      "тру": 899,
      "ники": 900,
      "ане": 901,
      "яв": 902,
      " представи": 903,
      "держ": 904,
      " исто": 905,
      "ций": 906,
      "пла": 907,
      "емы": 908,
      " есть": 909,
      "клю": 910,
      " Ш": 911,
      "чет": 912,
      "пас": 913,
      " вер": 914,
      " пол": 915,
      " человек": 916,
      "мери": 917,
      "дей": 918,
      "щен": 919,
      " ры": 920,
      "en": 921,
      "Об": 922,
      " этого": 923,
      "яс": 924,
      "годня": 925,
      "час": 926,
      " возмо": 927,
      "er": 928,
      " тех": 929,
      " горо": 930,
      " Си": 931,
      "лади": 932,
      "зд": 933,
      "рован": 934,
      "мента": 935,
      "ман": 936,
      "слу": 937,
      "тора": 938,
      "ейчас": 939,
      "10": 940,
      " Ч": 941,
      " работа": 942,
      "зульта": 943,
      " Ма": 944,
      "льно": 945,
      " счита": 946,
      " ок": 947,
      " результа": 948,
      " Ки": 949,
      "цев": 950,
      "ках": 951,
      " словам": 952,
      "пера": 953,
      "вест": 954,
      " По": 955,
      "рий": 956,
      " области": 957,
      "шего": 958,
      " отмети": 959,
      " Ц": 960,
      "овой": 961,
      " други": 962,
      "зова": 963,
      " ки": 964,
      "чень": 965,
      "публи": 966,
      " экономи": 967,
      "смо": 968,
      " организа": 969,
      " экс": 970,
      "ствия": 971,
      " сторо": 972,
      "едера": 973,
      "нако": 974,
      "тельства": 975,
      " соб": 976,
      "кла": 977,
      " млн": 978,
      "кие": 979,
      " груп": 980,
      "дол": 981,
      "тери": 982,
      "ую": 983,
      "аний": 984,
      " кра": 985,
      "вести": 986,
      " чет": 987,
      "ген": 988,
      " ж": 989,
      " мар": 990,
      "цу": 991,
      " дела": 992,
      "-то": 993,
      "вает": 994,
      "вод": 995,
      "..": 996,
      " сред": 997,
      " це": 998,
      " она": 999,
      "гут": 1000,
      "лага": 1001,
      " проек": 1002,
      "ским": 1003,
      "чения": 1004,
      "мент": 1005,
      " Алекс": 1006,
      " будут": 1007,
      " если": 1008,
      " Ан": 1009,
      "трудни": 1010,
      "анд": 1011,
      "каз": 1012,
      "ставля": 1013,
      "Ро": 1014,
      " переда": 1015,
      " была": 1016,
      " информа": 1017,
      "ложи": 1018,
      "15": 1019,
      "кого": 1020,
      " пе": 1021,
      " Влади": 1022,
      " прош": 1023,
      "дела": 1024,
      "чение": 1025,
      "бор": 1026,
      "сты": 1027,
      "тому": 1028,
      " приня": 1029,
      "хи": 1030,
      " сотрудни": 1031,
      "туа": 1032,
      "дель": 1033,
      " когда": 1034,
      " ту": 1035,
      " воен": 1036,
      " новы": 1037,
      " согла": 1038,
      "вой": 1039,
      " обо": 1040,
      " тем": 1041,
      "рабо": 1042,
      "рия": 1043,
      " ба": 1044,
      "бира": 1045,
      "рек": 1046,
      " рублей": 1047,
      " ад": 1048,
      " случа": 1049,
      " можно": 1050,
      "шей": 1051,
      " явля": 1052,
      " бе": 1053,
      " быть": 1054,
      "сно": 1055,
      " подо": 1056,
      "лови": 1057,
      " основ": 1058,
      "нистра": 1059,
      "бле": 1060,
      "рав": 1061,
      "ссия": 1062,
      " бан": 1063,
      "вали": 1064,
      "-за": 1065,
      "Он": 1066,
      " очень": 1067,
      "ит": 1068,
      " неско": 1069,
      " где": 1070,
      " Евро": 1071,
      "ряд": 1072,
      "рак": 1073,
      " Ко": 1074,
      " которо": 1075,
      " день": 1076,
      "вед": 1077,
      " гражд": 1078,
      " Са": 1079,
      " L": 1080,
      " дет": 1081,
      " страны": 1082,
      " разви": 1083,
      "Так": 1084,
      "Во": 1085,
      " стан": 1086,
      "рам": 1087,
      "чь": 1088,
      " млрд": 1089,
      "рти": 1090,
      " компании": 1091,
      " возможно": 1092,
      " На": 1093,
      "Не": 1094,
      "ta": 1095,
      "казыва": 1096,
      " год": 1097,
      "рани": 1098,
      "ремен": 1099,
      "ровать": 1100,
      " сист": 1101,
      " Владими": 1102,
      " ну": 1103,
      "нер": 1104,
      "меча": 1105,
      "фе": 1106,
      "мерикан": 1107,
      " суд": 1108,
      "ющих": 1109,
      "аны": 1110,
      " сообщает": 1111,
      " руково": 1112,
      "торы": 1113,
      "чер": 1114,
      " встре": 1115,
      " Пу": 1116,
      "сков": 1117,
      " стро": 1118,
      "сса": 1119,
      "рит": 1120,
      "твер": 1121,
      "ское": 1122,
      " рай": 1123,
      " Э": 1124,
      "вал": 1125,
      "тере": 1126,
      "народ": 1127,
      " них": 1128,
      " ситуа": 1129,
      " долж": 1130,
      " пов": 1131,
      "ете": 1132,
      "нес": 1133,
      "пом": 1134,
      "200": 1135,
      " коми": 1136,
      "рито": 1137,
      "инан": 1138,
      "ших": 1139,
      "щего": 1140,
      " оста": 1141,
      "ному": 1142,
      "вший": 1143,
      " вс": 1144,
      "грам": 1145,
      " тыся": 1146,
      " необ": 1147,
      " глав": 1148,
      " смо": 1149,
      " жиз": 1150,
      "ний": 1151,
      " Сер": 1152,
      " дву": 1153,
      "дели": 1154,
      "коло": 1155,
      "тии": 1156,
      " S": 1157,
      "рук": 1158,
      "Со": 1159,
      "тай": 1160,
      "льного": 1161,
      "стран": 1162,
      " уда": 1163,
      "ru": 1164,
      "щей": 1165,
      "Мы": 1166,
      "жения": 1167,
      "води": 1168,
      "тельство": 1169,
      " два": 1170,
      " прове": 1171,
      "ствова": 1172,
      "ять": 1173,
      "тен": 1174,
      " име": 1175,
      "пута": 1176,
      " террито": 1177,
      " участ": 1178,
      " тыс": 1179,
      " милли": 1180,
      " сер": 1181,
      "моби": 1182,
      " нет": 1183,
      " против": 1184,
      "ового": 1185,
      "ья": 1186,
      "чу": 1187,
      " пробле": 1188,
      " один": 1189,
      "on": 1190,
      "тября": 1191,
      "бя": 1192,
      " даже": 1193,
      "рово": 1194,
      "бер": 1195,
      "нен": 1196,
      " продол": 1197,
      " исполь": 1198,
      "СС": 1199,
      " ю": 1200,
      " право": 1201,
      " сказал": 1202,
      "рая": 1203,
      " нас": 1204,
      "прия": 1205,
      "Од": 1206,
      " много": 1207,
      " Ю": 1208,
      " Во": 1209,
      "12": 1210,
      " данным": 1211,
      "ческой": 1212,
      "луч": 1213,
      "нии": 1214,
      " неф": 1215,
      "шь": 1216,
      "вели": 1217,
      " могут": 1218,
      "жден": 1219,
      " Я": 1220,
      "лани": 1221,
      "ким": 1222,
      "30": 1223,
      "него": 1224,
      "соб": 1225,
      "ступи": 1226,
      "ками": 1227,
      " Ва": 1228,
      " офи": 1229,
      " A": 1230,
      "емо": 1231,
      ".ru": 1232,
      " больше": 1233,
      "скую": 1234,
      " необходи": 1235,
      " откры": 1236,
      "дова": 1237,
      "ях": 1238,
      " Александ": 1239,
      " обще": 1240,
      "шел": 1241,
      "опас": 1242,
      " поз": 1243,
      " оче": 1244,
      "ясни": 1245,
      " коман": 1246,
      "гро": 1247,
      " пока": 1248,
      " всего": 1249,
      "роме": 1250,
      " сейчас": 1251,
      "лин": 1252,
      " Ни": 1253,
      "шин": 1254,
      "Та": 1255,
      " финан": 1256,
      " наз": 1257,
      " президента": 1258,
      " Украины": 1259,
      " выбо": 1260,
      " рын": 1261,
      " поч": 1262,
      "нь": 1263,
      "шении": 1264,
      " этот": 1265,
      " уров": 1266,
      " пло": 1267,
      "анию": 1268,
      " пла": 1269,
      "министра": 1270,
      "мени": 1271,
      " состоя": 1272,
      " T": 1273,
      " первы": 1274,
      " сен": 1275,
      "лия": 1276,
      " пресс": 1277,
      "щения": 1278,
      " Ба": 1279,
      " американ": 1280,
      " автомоби": 1281,
      "рует": 1282,
      "нем": 1283,
      "лем": 1284,
      " прода": 1285,
      " которая": 1286,
      " сообщил": 1287,
      " ар": 1288,
      "гент": 1289,
      " вой": 1290,
      "ерез": 1291,
      " челове": 1292,
      " доро": 1293,
      " несколько": 1294,
      " опера": 1295,
      " кор": 1296,
      "ис": 1297,
      "циональ": 1298,
      " около": 1299,
      " тран": 1300,
      "in": 1301,
      " сегодня": 1302,
      "ель": 1303,
      "юд": 1304,
      "нению": 1305,
      " оп": 1306,
      "жение": 1307,
      " вла": 1308,
      "ева": 1309,
      " Па": 1310,
      "ющий": 1311,
      " доку": 1312,
      " извест": 1313,
      "од": 1314,
      " жен": 1315,
      "анее": 1316,
      "кова": 1317,
      "анима": 1318,
      "Ранее": 1319,
      " участи": 1320,
      "стей": 1321,
      " бли": 1322,
      "ющие": 1323,
      "мет": 1324,
      "цией": 1325,
      "имо": 1326,
      "нения": 1327,
      " Бо": 1328,
      " всех": 1329,
      "кре": 1330,
      " три": 1331,
      "льной": 1332,
      " ито": 1333,
      "ответ": 1334,
      "льный": 1335,
      " програм": 1336,
      "лаго": 1337,
      " эк": 1338,
      " Ку": 1339,
      " сем": 1340,
      "онов": 1341,
      " самы": 1342,
      " сни": 1343,
      " меся": 1344,
      " побе": 1345,
      "держа": 1346,
      "Про": 1347,
      " минист": 1348,
      " ско": 1349,
      "От": 1350,
      "раз": 1351,
      " отметил": 1352,
      "бов": 1353,
      "краин": 1354,
      " сдела": 1355,
      "рори": 1356,
      " фор": 1357,
      " находи": 1358,
      "ческих": 1359,
      "an": 1360,
      "виа": 1361,
      " тра": 1362,
      "бур": 1363,
      "ледов": 1364,
      "лич": 1365,
      " ан": 1366,
      " президент": 1367,
      "лого": 1368,
      " ис": 1369,
      "вают": 1370,
      " которых": 1371,
      " вос": 1372,
      " ду": 1373,
      "кий": 1374,
      " полити": 1375,
      " готов": 1376,
      " фак": 1377,
      " является": 1378,
      "рон": 1379,
      "18": 1380,
      "50": 1381,
      "зя": 1382,
      " каж": 1383,
      "туры": 1384,
      "ору": 1385,
      " города": 1386,
      "рей": 1387,
      "лья": 1388,
      " место": 1389,
      "лены": 1390,
      "точ": 1391,
      "прави": 1392,
      " безопас": 1393,
      " газ": 1394,
      " ию": 1395,
      " этой": 1396,
      " высо": 1397,
      " заяв": 1398,
      "тр": 1399,
      " решение": 1400,
      " строи": 1401,
      " B": 1402,
      " депута": 1403,
      "ностью": 1404,
      " обви": 1405,
      " мест": 1406,
      " За": 1407,
      "тки": 1408,
      "хов": 1409,
      "дь": 1410,
      "тий": 1411,
      " круп": 1412,
      " отмеча": 1413,
      " себя": 1414,
      "ческого": 1415,
      " свое": 1416,
      " вто": 1417,
      "ждения": 1418,
      "-лет": 1419,
      "урна": 1420,
      " га": 1421,
      " I": 1422,
      " вне": 1423,
      "нут": 1424,
      " C": 1425,
      "кам": 1426,
      " кри": 1427,
      "бра": 1428,
      "лении": 1429,
      "ступа": 1430,
      " Ново": 1431,
      "льных": 1432,
      " граждан": 1433,
      "Если": 1434,
      "еры": 1435,
      "вших": 1436,
      " нару": 1437,
      "зда": 1438,
      "щее": 1439,
      " F": 1440,
      "рах": 1441,
      " установ": 1442,
      " через": 1443,
      " чемпи": 1444,
      "чина": 1445,
      "вно": 1446,
      " Сирии": 1447,
      "ил": 1448,
      " кто": 1449,
      " совер": 1450,
      "бой": 1451,
      " Мин": 1452,
      " двух": 1453,
      " Со": 1454,
      " произо": 1455,
      "Из": 1456,
      " оказа": 1457,
      "Однако": 1458,
      " занима": 1459,
      " M": 1460,
      " матери": 1461,
      " мен": 1462,
      " числе": 1463,
      "нова": 1464,
      "Са": 1465,
      " З": 1466,
      "11": 1467,
      " над": 1468,
      " управ": 1469,
      " свою": 1470,
      " агент": 1471,
      "Ин": 1472,
      " уго": 1473,
      "До": 1474,
      " призна": 1475,
      "пад": 1476,
      " позво": 1477,
      " тысяч": 1478,
      " пос": 1479,
      " интер": 1480,
      "чем": 1481,
      "зе": 1482,
      " глава": 1483,
      " передает": 1484,
      " спи": 1485,
      " ква": 1486,
      "ходя": 1487,
      " кол": 1488,
      " дирек": 1489,
      "Се": 1490,
      "смот": 1491,
      "зо": 1492,
      "чество": 1493,
      " обя": 1494,
      " экспер": 1495,
      "зан": 1496,
      "ена": 1497,
      " международ": 1498,
      "лим": 1499,
      " террори": 1500,
      "писа": 1501,
      "готов": 1502,
      "мь": 1503,
      "митри": 1504,
      "менно": 1505,
      "ноги": 1506,
      " запре": 1507,
      "циа": 1508,
      "вра": 1509,
      "мина": 1510,
      " дви": 1511,
      " законо": 1512,
      " $": 1513,
      " бюд": 1514,
      "дук": 1515,
      " евро": 1516,
      " перед": 1517,
      "кая": 1518,
      " проце": 1519,
      "гли": 1520,
      "там": 1521,
      "Ка": 1522,
      "Кроме": 1523,
      " тру": 1524,
      " интере": 1525,
      "После": 1526,
      "кну": 1527,
      " власти": 1528,
      "овых": 1529,
      " защи": 1530,
      "спе": 1531,
      "МИ": 1532,
      " соответ": 1533,
      " обла": 1534,
      "лог": 1535,
      "Ко": 1536,
      " голо": 1537,
      "16": 1538,
      " услови": 1539,
      " авиа": 1540,
      "чной": 1541,
      " поль": 1542,
      " Та": 1543,
      "бре": 1544,
      " украин": 1545,
      " перво": 1546,
      "щение": 1547,
      " дека": 1548,
      " журна": 1549,
      " Россия": 1550,
      "ходит": 1551,
      " госпо": 1552,
      "or": 1553,
      " Москве": 1554,
      "Все": 1555,
      "вается": 1556,
      " следу": 1557,
      "ун": 1558,
      "тета": 1559,
      " эта": 1560,
      " дея": 1561,
      " официаль": 1562,
      "тельных": 1563,
      "гей": 1564,
      " поги": 1565,
      "тие": 1566,
      " ян": 1567,
      " стать": 1568,
      "enta": 1569,
      " ответ": 1570,
      " режи": 1571,
      " теле": 1572,
      "тно": 1573,
      " Тур": 1574,
      "ван": 1575,
      "шли": 1576,
      " Ин": 1577,
      " луч": 1578,
      "зации": 1579,
      " дома": 1580,
      "евра": 1581,
      " увели": 1582,
      " своей": 1583,
      "йте": 1584,
      "кое": 1585,
      "тить": 1586,
      " последни": 1587,
      "14": 1588,
      " разме": 1589,
      " стал": 1590,
      " бое": 1591,
      " R": 1592,
      "!\n": 1593,
      "17": 1594,
      " апре": 1595,
      " янва": 1596,
      " результате": 1597,
      "es": 1598,
      " вме": 1599,
      "овые": 1600,
      "ствие": 1601,
      " Владимир": 1602,
      " част": 1603,
      "То": 1604,
      "ске": 1605,
      "ям": 1606,
      " заклю": 1607,
      " G": 1608,
      "ссе": 1609,
      " доба": 1610,
      " виде": 1611,
      "вые": 1612,
      " биз": 1613,
      "шо": 1614,
      " Lenta": 1615,
      "анди": 1616,
      " созд": 1617,
      "йти": 1618,
      "ссии": 1619,
      "ственной": 1620,
      "вшего": 1621,
      " работы": 1622,
      " шко": 1623,
      "нет": 1624,
      " приз": 1625,
      "фф": 1626,
      "этому": 1627,
      "лена": 1628,
      " направ": 1629,
      " федера": 1630,
      "АСС": 1631,
      " должны": 1632,
      "вая": 1633,
      " плани": 1634,
      " февра": 1635,
      " меня": 1636,
      " сы": 1637,
      "ружи": 1638,
      " моло": 1639,
      "вле": 1640,
      " долла": 1641,
      " очеред": 1642,
      "ото": 1643,
      "мой": 1644,
      " стран": 1645,
      " которой": 1646,
      " должно": 1647,
      "лимпи": 1648,
      "25": 1649,
      " него": 1650,
      " администра": 1651,
      " просто": 1652,
      " прово": 1653,
      " Дмитри": 1654,
      " стороны": 1655,
      "служ": 1656,
      "Мо": 1657,
      "пло": 1658,
      "строй": 1659,
      "седа": 1660,
      "ема": 1661,
      " безопасности": 1662,
      "преде": 1663,
      "ственного": 1664,
      " сро": 1665,
      " людей": 1666,
      " P": 1667,
      " ци": 1668,
      "шая": 1669,
      "ar": 1670,
      "ние": 1671,
      " связи": 1672,
      " креди": 1673,
      " муж": 1674,
      " иск": 1675,
      "тон": 1676,
      " производ": 1677,
      " ему": 1678,
      "ган": 1679,
      "дить": 1680,
      " ноя": 1681,
      " актив": 1682,
      "Пре": 1683,
      " показа": 1684,
      " мат": 1685,
      " дело": 1686,
      "щих": 1687,
      " необходимо": 1688,
      "чить": 1689,
      "грани": 1690,
      "ых": 1691,
      " других": 1692,
      "помним": 1693,
      "пусти": 1694,
      "13": 1695,
      "гре": 1696,
      " поддерж": 1697,
      "ИА": 1698,
      "пей": 1699,
      " элек": 1700,
      " Гос": 1701,
      " город": 1702,
      " испол": 1703,
      " конку": 1704,
      "тали": 1705,
      " реши": 1706,
      "держи": 1707,
      " обсу": 1708,
      " уголов": 1709,
      "еспе": 1710,
      "сед": 1711,
      " случае": 1712,
      "\"\n": 1713,
      " потре": 1714,
      " би": 1715,
      " созда": 1716,
      " служ": 1717,
      "воз": 1718,
      "циали": 1719,
      "фер": 1720,
      " ранее": 1721,
      " ше": 1722,
      "Ре": 1723,
      " помощ": 1724,
      " ино": 1725,
      " прод": 1726,
      " продук": 1727,
      " деятель": 1728,
      "Напомним": 1729,
      "етер": 1730,
      " состави": 1731,
      " образ": 1732,
      " настоя": 1733,
      " догово": 1734,
      " суще": 1735,
      " благо": 1736,
      " неза": 1737,
      " часть": 1738,
      " Ви": 1739,
      " вопрос": 1740,
      " территории": 1741,
      "пример": 1742,
      "храни": 1743,
      " мира": 1744,
      " продолжа": 1745,
      "анием": 1746,
      " ули": 1747,
      " сбор": 1748,
      "утбо": 1749,
      " пози": 1750,
      "Бо": 1751,
      " источ": 1752,
      " уби": 1753,
      " филь": 1754,
      " проис": 1755,
      " каче": 1756,
      " прав": 1757,
      " человека": 1758,
      "шие": 1759,
      " рассказал": 1760,
      "андида": 1761,
      " контро": 1762,
      " жизни": 1763,
      "Вы": 1764,
      " ново": 1765,
      "тически": 1766,
      "кин": 1767,
      "ыре": 1768,
      " процен": 1769,
      " Ж": 1770,
      "рази": 1771,
      " успе": 1772,
      "перь": 1773,
      "кта": 1774,
      " подчер": 1775,
      " предпо": 1776,
      " зд": 1777,
      " обеспе": 1778,
      "дитель": 1779,
      " друго": 1780,
      " сказа": 1781,
      " ана": 1782,
      " предо": 1783,
      " Ве": 1784,
      "сут": 1785,
      " марта": 1786,
      " ла": 1787,
      "Гла": 1788,
      " гу": 1789,
      "ственно": 1790,
      "Да": 1791,
      "рту": 1792,
      " организации": 1793,
      " план": 1794,
      " женщи": 1795,
      " ведом": 1796,
      " пери": 1797,
      " чу": 1798,
      "льные": 1799,
      " неко": 1800,
      " распо": 1801,
      " торг": 1802,
      " ходе": 1803,
      "полни": 1804,
      " которого": 1805,
      " Сергей": 1806,
      " лишь": 1807,
      " называ": 1808,
      " мнению": 1809,
      " российских": 1810,
      "рави": 1811,
      "лез": 1812,
      "струк": 1813,
      "рования": 1814,
      "пыт": 1815,
      "рию": 1816,
      " материа": 1817,
      "кти": 1818,
      " хоро": 1819,
      " считает": 1820,
      "той": 1821,
      "al": 1822,
      " компания": 1823,
      "тами": 1824,
      " самолет": 1825,
      "24": 1826,
      " социаль": 1827,
      "ить": 1828,
      "сом": 1829,
      " говорит": 1830,
      " деся": 1831,
      " ша": 1832,
      "дел": 1833,
      "торов": 1834,
      " площа": 1835,
      "мов": 1836,
      " преступ": 1837,
      "ые": 1838,
      "щем": 1839,
      "тельные": 1840,
      "ством": 1841,
      "скому": 1842,
      " момент": 1843,
      " нужно": 1844,
      "рую": 1845,
      "тельной": 1846,
      "чки": 1847,
      " своих": 1848,
      "тем": 1849,
      " ц": 1850,
      " заме": 1851,
      "инов": 1852,
      " Дж": 1853,
      "ственных": 1854,
      "ток": 1855,
      " кандида": 1856,
      " фон": 1857,
      "щая": 1858,
      " стало": 1859,
      "чных": 1860,
      " Москвы": 1861,
      "един": 1862,
      " преду": 1863,
      " подтвер": 1864,
      "сло": 1865,
      " осу": 1866,
      "ститу": 1867,
      " сокра": 1868,
      " Ра": 1869,
      " действи": 1870,
      " многи": 1871,
      " сум": 1872,
      "роны": 1873,
      " меди": 1874,
      "Также": 1875,
      "ье": 1876,
      "енно": 1877,
      "Ми": 1878,
      " мене": 1879,
      " Новости": 1880,
      "лон": 1881,
      " СМИ": 1882,
      " Го": 1883,
      " пода": 1884,
      " насе": 1885,
      " транспо": 1886,
      "ляр": 1887,
      " Федера": 1888,
      "цей": 1889,
      "щении": 1890,
      " кур": 1891,
      "тур": 1892,
      " Бе": 1893,
      " сек": 1894,
      "ложен": 1895,
      " журнали": 1896,
      "еха": 1897,
      " счет": 1898,
      "енси": 1899,
      "тных": 1900,
      " политиче": 1901,
      " ожи": 1902,
      " составля": 1903,
      "le": 1904,
      " Кры": 1905,
      "спубли": 1906,
      " там": 1907,
      "Сегодня": 1908,
      "тан": 1909,
      " появи": 1910,
      " получа": 1911,
      "етербур": 1912,
      " конце": 1913,
      " уни": 1914,
      "ствует": 1915,
      " отношении": 1916,
      " четыре": 1917,
      " Ла": 1918,
      " добави": 1919,
      " дости": 1920,
      "ший": 1921,
      " четвер": 1922,
      " почти": 1923,
      " повы": 1924,
      " коли": 1925,
      " партии": 1926,
      " обна": 1927,
      "щий": 1928,
      "над": 1929,
      "ческие": 1930,
      " рам": 1931,
      " значи": 1932,
      "десь": 1933,
      " нау": 1934,
      " след": 1935,
      " объек": 1936,
      "шений": 1937,
      "Для": 1938,
      "еров": 1939,
      " пы": 1940,
      " подготов": 1941,
      " ри": 1942,
      " поку": 1943,
      "ницу": 1944,
      "вания": 1945,
      " футбо": 1946,
      " парла": 1947,
      " способ": 1948,
      " именно": 1949,
      "них": 1950,
      "дии": 1951,
      "дой": 1952,
      "лено": 1953,
      "правля": 1954,
      " ОО": 1955,
      " республи": 1956,
      " детей": 1957,
      " ТАСС": 1958,
      " послед": 1959,
      "им": 1960,
      "чный": 1961,
      " стране": 1962,
      " Госду": 1963,
      " Александр": 1964,
      "22": 1965,
      "дина": 1966,
      " задерж": 1967,
      "вшие": 1968,
      "уд": 1969,
      " вра": 1970,
      "it": 1971,
      " Трам": 1972,
      "ровал": 1973,
      "ровали": 1974,
      " совет": 1975,
      "чные": 1976,
      " части": 1977,
      " люди": 1978,
      " Ар": 1979,
      " перегово": 1980,
      "ропо": 1981,
      " N": 1982,
      " зем": 1983,
      " буду": 1984,
      " апреля": 1985,
      "Пред": 1986,
      " даль": 1987,
      "тиво": 1988,
      "рот": 1989,
      "вых": 1990,
      "стана": 1991,
      " говорится": 1992,
      "Что": 1993,
      "ены": 1994,
      " нор": 1995,
      "тура": 1996,
      " сентября": 1997,
      " ссы": 1998,
      " W": 1999,
      "разу": 2000,
      " кли": 2001,
      "пара": 2002,
      " однако": 2003,
      " реали": 2004,
      "енера": 2005,
      "бан": 2006,
      " зако": 2007,
      "%.\n": 2008,
      "тар": 2009,
      " Се": 2010,
      " главы": 2011,
      " государства": 2012,
      " клу": 2013,
      " авгу": 2014,
      " Анд": 2015,
      " премь": 2016,
      "Ра": 2017,
      "явля": 2018,
      "гам": 2019,
      " электро": 2020,
      "сили": 2021,
      "ерт": 2022,
      "виси": 2023,
      " Путин": 2024,
      " ог": 2025,
      "ния": 2026,
      "руг": 2027,
      " прекра": 2028,
      " обы": 2029,
      "ню": 2030,
      "жу": 2031,
      " провер": 2032,
      " стали": 2033,
      "стя": 2034,
      " вклю": 2035,
      " зан": 2036,
      "страда": 2037,
      " Сов": 2038,
      " закон": 2039,
      " измен": 2040,
      " россия": 2041,
      "чного": 2042,
      "скими": 2043,
      "пис": 2044,
      "ьез": 2045,
      " иг": 2046,
      "бен": 2047,
      " исс": 2048,
      "кт": 2049,
      " рамках": 2050,
      "роб": 2051,
      " утвер": 2052,
      "смен": 2053,
      "нять": 2054,
      " сообщили": 2055,
      "нение": 2056,
      " завер": 2057,
      "ченко": 2058,
      " правительства": 2059,
      " страна": 2060,
      "-служ": 2061,
      " должен": 2062,
      " руковод": 2063,
      " чемпиона": 2064,
      " предприя": 2065,
      "нологи": 2066,
      "урман": 2067,
      " куль": 2068,
      " нам": 2069,
      " провед": 2070,
      "100": 2071,
      " спорт": 2072,
      " докумен": 2073,
      "Ве": 2074,
      "Под": 2075,
      " сам": 2076,
      "стри": 2077,
      "-пре": 2078,
      "Газ": 2079,
      " назна": 2080,
      "пози": 2081,
      "лению": 2082,
      " суб": 2083,
      "Ме": 2084,
      "или": 2085,
      " уч": 2086,
      "шим": 2087,
      " рей": 2088,
      "блю": 2089,
      "шее": 2090,
      " анти": 2091,
      " отказа": 2092,
      " исклю": 2093,
      " причи": 2094,
      "ваться": 2095,
      " идет": 2096,
      " иностран": 2097,
      " санк": 2098,
      " опреде": 2099,
      "дил": 2100,
      "мыш": 2101,
      " одной": 2102,
      " участие": 2103,
      " февраля": 2104,
      " Ли": 2105,
      " финанс": 2106,
      " тя": 2107,
      "акси": 2108,
      "oo": 2109,
      "Они": 2110,
      " свобо": 2111,
      "рин": 2112,
      " недо": 2113,
      "вор": 2114,
      " пример": 2115,
      ".,": 2116,
      "40": 2117,
      " центра": 2118,
      " Фран": 2119,
      " особ": 2120,
      " подчеркну": 2121,
      "Ма": 2122,
      "фа": 2123,
      "кола": 2124,
      "чего": 2125,
      " Россий": 2126,
      " образом": 2127,
      " специали": 2128,
      " борь": 2129,
      "вид": 2130,
      "телем": 2131,
      "читы": 2132,
      " менее": 2133,
      " ло": 2134,
      " пя": 2135,
      " времени": 2136,
      " председа": 2137,
      " попа": 2138,
      " одного": 2139,
      "чей": 2140,
      " подоз": 2141,
      "ter": 2142,
      "зад": 2143,
      "Те": 2144,
      " декабря": 2145,
      " ограни": 2146,
      "рев": 2147,
      "жай": 2148,
      " ноября": 2149,
      " гру": 2150,
      "рами": 2151,
      "Го": 2152,
      " маши": 2153,
      " мет": 2154,
      "парта": 2155,
      " октября": 2156,
      " развития": 2157,
      " принима": 2158,
      " нем": 2159,
      " коне": 2160,
      " проку": 2161,
      " обяза": 2162,
      "Пер": 2163,
      "he": 2164,
      " такой": 2165,
      " ника": 2166,
      " информации": 2167,
      " рез": 2168,
      " назад": 2169,
      " националь": 2170,
      "матри": 2171,
      "нуть": 2172,
      " разрабо": 2173,
      " возможность": 2174,
      "ческий": 2175,
      " региона": 2176,
      "ффек": 2177,
      " некоторы": 2178,
      " выпол": 2179,
      "ствовать": 2180,
      " Дмитрий": 2181,
      "%,": 2182,
      " засед": 2183,
      " января": 2184,
      "гля": 2185,
      "хода": 2186,
      " представитель": 2187,
      " сре": 2188,
      "тет": 2189,
      "ющего": 2190,
      " инф": 2191,
      " мая": 2192,
      " другие": 2193,
      " опубли": 2194,
      "ce": 2195,
      "вен": 2196,
      " пыта": 2197,
      "Сейчас": 2198,
      "зидент": 2199,
      "21": 2200,
      "рец": 2201,
      "жных": 2202,
      "лют": 2203,
      " ря": 2204,
      " роди": 2205,
      " этих": 2206,
      "ВД": 2207,
      "сова": 2208,
      " противо": 2209,
      "гно": 2210,
      " Миха": 2211,
      " пострада": 2212,
      "ерм": 2213,
      "тельного": 2214,
      "мышлен": 2215,
      " Ру": 2216,
      " времен": 2217,
      "тельный": 2218,
      " региональ": 2219,
      "лкой": 2220,
      " бюджет": 2221,
      "28": 2222,
      " аре": 2223,
      " себе": 2224,
      " действия": 2225,
      " управления": 2226,
      " серьез": 2227,
      " средств": 2228,
      "тина": 2229,
      " аэ": 2230,
      " окру": 2231,
      " российского": 2232,
      " Цен": 2233,
      " игра": 2234,
      "тах": 2235,
      " угро": 2236,
      "кет": 2237,
      "мя": 2238,
      "рил": 2239,
      " собствен": 2240,
      "ове": 2241,
      "23": 2242,
      " зада": 2243,
      " ради": 2244,
      "графи": 2245,
      "199": 2246,
      "дили": 2247,
      " прибы": 2248,
      " конф": 2249,
      " погиб": 2250,
      " шта": 2251,
      " ги": 2252,
      " работу": 2253,
      "анов": 2254,
      "нок": 2255,
      " еди": 2256,
      "телям": 2257,
      " Турции": 2258,
      "ющей": 2259,
      "нил": 2260,
      "жной": 2261,
      " трех": 2262,
      " среди": 2263,
      "мон": 2264,
      "доров": 2265,
      "вобо": 2266,
      " долларов": 2267,
      "шло": 2268,
      "шем": 2269,
      "ницы": 2270,
      "мом": 2271,
      " потому": 2272,
      " кар": 2273,
      "пин": 2274,
      " первый": 2275,
      " надо": 2276,
      " кла": 2277,
      " тоже": 2278,
      " Га": 2279,
      " ти": 2280,
      "цени": 2281,
      " предлага": 2282,
      " свой": 2283,
      " наде": 2284,
      " тур": 2285,
      "берна": 2286,
      "муще": 2287,
      "неш": 2288,
      " увер": 2289,
      "ющим": 2290,
      " специаль": 2291,
      " намер": 2292,
      "хва": 2293,
      " зо": 2294,
      "ится": 2295,
      "лега": 2296,
      "овый": 2297,
      " ге": 2298,
      " частности": 2299,
      " пенси": 2300,
      " поясни": 2301,
      " ЕС": 2302,
      "at": 2303,
      "шла": 2304,
      " вним": 2305,
      "мии": 2306,
      " удалось": 2307,
      "вое": 2308,
      "дж": 2309,
      "зии": 2310,
      "27": 2311,
      "рить": 2312,
      " член": 2313,
      "доб": 2314,
      " предлож": 2315,
      " столи": 2316,
      " доста": 2317,
      " РИА": 2318,
      " работ": 2319,
      " ссылкой": 2320,
      "кто": 2321,
      " Ле": 2322,
      " районе": 2323,
      "дви": 2324,
      "жды": 2325,
      "ro": 2326,
      "проек": 2327,
      "личи": 2328,
      " мне": 2329,
      "част": 2330,
      " регу": 2331,
      " своего": 2332,
      " реко": 2333,
      " тот": 2334,
      " ситуации": 2335,
      "вание": 2336,
      "Ком": 2337,
      "йдет": 2338,
      " инвести": 2339,
      "пуска": 2340,
      " стоимо": 2341,
      " D": 2342,
      " ха": 2343,
      "...": 2344,
      " ближай": 2345,
      " обе": 2346,
      " которое": 2347,
      " места": 2348,
      " лидер": 2349,
      "лимпий": 2350,
      "обе": 2351,
      "ферен": 2352,
      " сез": 2353,
      " Мар": 2354,
      "26": 2355,
      "руют": 2356,
      " взры": 2357,
      "кси": 2358,
      " тогда": 2359,
      " течение": 2360,
      " публи": 2361,
      "няя": 2362,
      "рес": 2363,
      " дня": 2364,
      " вот": 2365,
      " здесь": 2366,
      " иде": 2367,
      "ссажи": 2368,
      " Ме": 2369,
      "ждение": 2370,
      " энер": 2371,
      "...\n": 2372,
      " группы": 2373,
      " очередь": 2374,
      "нача": 2375,
      " срав": 2376,
      "принима": 2377,
      " требов": 2378,
      " верси": 2379,
      " заня": 2380,
      "ТО": 2381,
      " закры": 2382,
      "рю": 2383,
      "шед": 2384,
      " оцен": 2385,
      "мир": 2386,
      " вместе": 2387,
      " контра": 2388,
      " расследов": 2389,
      "пании": 2390,
      " Кон": 2391,
      " гос": 2392,
      "чил": 2393,
      " ны": 2394,
      "ница": 2395,
      " законода": 2396,
      "зования": 2397,
      " известно": 2398,
      " ребен": 2399,
      " мень": 2400,
      " мину": 2401,
      "ствии": 2402,
      " сло": 2403,
      " замести": 2404,
      "шки": 2405,
      " собира": 2406,
      "жении": 2407,
      " деньги": 2408,
      " ожида": 2409,
      " лиц": 2410,
      " полиции": 2411,
      " треть": 2412,
      " Да": 2413,
      "езд": 2414,
      " дене": 2415,
      "ленных": 2416,
      " теперь": 2417,
      " ини": 2418,
      " спортсмен": 2419,
      "бро": 2420,
      "еть": 2421,
      "сколь": 2422,
      " лег": 2423,
      " находится": 2424,
      "роприя": 2425,
      "пита": 2426,
      "фици": 2427,
      "мости": 2428,
      " смер": 2429,
      " выступа": 2430,
      " стала": 2431,
      " профе": 2432,
      " голосов": 2433,
      "дан": 2434,
      "мест": 2435,
      "чка": 2436,
      "Де": 2437,
      " пор": 2438,
      " привле": 2439,
      " Пет": 2440,
      "29": 2441,
      "еме": 2442,
      " системы": 2443,
      " проект": 2444,
      " предложи": 2445,
      " права": 2446,
      "видет": 2447,
      "шой": 2448,
      " сразу": 2449,
      "телями": 2450,
      "Ру": 2451,
      " начала": 2452,
      "кую": 2453,
      " суда": 2454,
      " технологи": 2455,
      " постав": 2456,
      "чера": 2457,
      "прово": 2458,
      " Из": 2459,
      "лев": 2460,
      "руется": 2461,
      " това": 2462,
      " европей": 2463,
      " эту": 2464,
      "бова": 2465,
      "гов": 2466,
      "лением": 2467,
      "слав": 2468,
      " избира": 2469,
      "Россия": 2470,
      " стре": 2471,
      "ственный": 2472,
      " рассказа": 2473,
      "лит": 2474,
      "щие": 2475,
      " таких": 2476,
      " всегда": 2477,
      " одно": 2478,
      " суде": 2479,
      " E": 2480,
      "шенко": 2481,
      " Мурман": 2482,
      " производи": 2483,
      " подоб": 2484,
      "лений": 2485,
      " нового": 2486,
      " пун": 2487,
      "овая": 2488,
      "емых": 2489,
      " кино": 2490,
      " дополни": 2491,
      "льным": 2492,
      " бизнес": 2493,
      " реаль": 2494,
      "рева": 2495,
      " фото": 2496,
      " котором": 2497,
      " средства": 2498,
      " комитета": 2499,
      " парт": 2500,
      " новых": 2501,
      "тать": 2502,
      " этим": 2503,
      "боль": 2504,
      " услу": 2505,
      " уточ": 2506,
      "дит": 2507,
      "Ба": 2508,
      "цов": 2509,
      " эффек": 2510,
      " выпла": 2511,
      " русс": 2512,
      " Че": 2513,
      " конфли": 2514,
      "фика": 2515,
      "ат": 2516,
      "фак": 2517,
      " наблю": 2518,
      "ссо": 2519,
      "цин": 2520,
      "менти": 2521,
      " банков": 2522,
      "точно": 2523,
      " мероприя": 2524,
      " спа": 2525,
      "скольку": 2526,
      "чества": 2527,
      " российской": 2528,
      " воору": 2529,
      " премьер": 2530,
      "Она": 2531,
      " месте": 2532,
      " пря": 2533,
      "стер": 2534,
      " струк": 2535,
      "обра": 2536,
      " дел": 2537,
      " кварти": 2538,
      " убий": 2539,
      "ум": 2540,
      " неде": 2541,
      " качестве": 2542,
      " Герм": 2543,
      " исследов": 2544,
      "верси": 2545,
      "вала": 2546,
      " сделать": 2547,
      " Кра": 2548,
      " поряд": 2549,
      "стой": 2550,
      " решения": 2551,
      " начале": 2552,
      "шую": 2553,
      "льная": 2554,
      "дним": 2555,
      " сирий": 2556,
      " пассажи": 2557,
      "co": 2558,
      " годы": 2559,
      " внут": 2560,
      " тури": 2561,
      " музы": 2562,
      " бес": 2563,
      " Ев": 2564,
      "тера": 2565,
      " хозя": 2566,
      " две": 2567,
      " генера": 2568,
      " последние": 2569,
      " посе": 2570,
      "ществ": 2571,
      " чего": 2572,
      " миллиар": 2573,
      " количество": 2574,
      " Ри": 2575,
      " сайте": 2576,
      " мя": 2577,
      " бра": 2578,
      "номо": 2579,
      " стоит": 2580,
      " прошлого": 2581,
      " тяже": 2582,
      "жде": 2583,
      " министр": 2584,
      "пли": 2585,
      " отношения": 2586,
      "вую": 2587,
      "охрани": 2588,
      "хра": 2589,
      " изд": 2590,
      " Ха": 2591,
      " ху": 2592,
      "лой": 2593,
      " став": 2594,
      " рынке": 2595,
      " августа": 2596,
      "хран": 2597,
      "тарь": 2598,
      " итогам": 2599,
      " использова": 2600,
      " сти": 2601,
      " например": 2602,
      " деятельности": 2603,
      " Вели": 2604,
      "сточ": 2605,
      " H": 2606,
      "ag": 2607,
      "рения": 2608,
      "60": 2609,
      " ответствен": 2610,
      "сам": 2611,
      "юз": 2612,
      " разре": 2613,
      " директор": 2614,
      "шта": 2615,
      "гии": 2616,
      " ней": 2617,
      " соста": 2618,
      " агентство": 2619,
      "неф": 2620,
      "чат": 2621,
      " хотя": 2622,
      " правительство": 2623,
      "лити": 2624,
      " обрати": 2625,
      " спор": 2626,
      " опас": 2627,
      "пере": 2628,
      " возбу": 2629,
      "ходов": 2630,
      " получил": 2631,
      " аэропо": 2632,
      " миров": 2633,
      "стью": 2634,
      " возду": 2635,
      " всем": 2636,
      "жного": 2637,
      " отра": 2638,
      " возра": 2639,
      " трен": 2640,
      " период": 2641,
      "нице": 2642,
      " городе": 2643,
      " рынка": 2644,
      " внутрен": 2645,
      "зин": 2646,
      " оцени": 2647,
      " фа": 2648,
      " поэтому": 2649,
      " ген": 2650,
      "Хо": 2651,
      " пять": 2652,
      "тной": 2653,
      " пово": 2654,
      "веден": 2655,
      "первые": 2656,
      " распро": 2657,
      "гру": 2658,
      " нефти": 2659,
      " находя": 2660,
      "лег": 2661,
      " прогно": 2662,
      " МВД": 2663,
      " Никола": 2664,
      "зма": 2665,
      " уче": 2666,
      " инициа": 2667,
      " взя": 2668,
      " семь": 2669,
      "няет": 2670,
      "ходят": 2671,
      " второй": 2672,
      " оружи": 2673,
      " чинов": 2674,
      " которую": 2675,
      " новый": 2676,
      "вари": 2677,
      " отмечает": 2678,
      " боеви": 2679,
      " нынеш": 2680,
      " попу": 2681,
      " масс": 2682,
      " добавил": 2683,
      "лета": 2684,
      " подчеркнул": 2685,
      " выз": 2686,
      " руководи": 2687,
      " выро": 2688,
      "жать": 2689,
      " позволя": 2690,
      " конкур": 2691,
      " ши": 2692,
      "is": 2693,
      "ником": 2694,
      "рование": 2695,
      " сту": 2696,
      "еди": 2697,
      "казывает": 2698,
      "Интер": 2699,
      "нин": 2700,
      "рят": 2701,
      " пост": 2702,
      "ант": 2703,
      "форми": 2704,
      "щую": 2705,
      "кар": 2706,
      "ритан": 2707,
      "ваются": 2708,
      "чает": 2709,
      " совершен": 2710,
      " диа": 2711,
      " должна": 2712,
      " нео": 2713,
      "ера": 2714,
      "стоян": 2715,
      " бар": 2716,
      " москов": 2717,
      "нистр": 2718,
      " новые": 2719,
      "ствуют": 2720,
      "СК": 2721,
      " такие": 2722,
      " дума": 2723,
      "ленные": 2724,
      " компаний": 2725,
      " настоящее": 2726,
      "шу": 2727,
      " июля": 2728,
      " №": 2729,
      " банк": 2730,
      " видео": 2731,
      "дно": 2732,
      "роят": 2733,
      "тельным": 2734,
      "лекана": 2735,
      "чении": 2736,
      " бло": 2737,
      "водит": 2738,
      " мире": 2739,
      " рассмо": 2740,
      "шет": 2741,
      " каса": 2742,
      "игра": 2743,
      "бин": 2744,
      " собы": 2745,
      " примен": 2746,
      "юза": 2747,
      " Лу": 2748,
      " помощи": 2749,
      " господин": 2750,
      "сить": 2751,
      " современ": 2752,
      "обре": 2753,
      "обще": 2754,
      "ровки": 2755,
      " полицей": 2756,
      " поскольку": 2757,
      " непо": 2758,
      " пользова": 2759,
      "-П": 2760,
      "il": 2761,
      "ква": 2762,
      "конча": 2763,
      "-го": 2764,
      " отде": 2765,
      " Ту": 2766,
      "Согла": 2767,
      " уровне": 2768,
      " Россию": 2769,
      "чены": 2770,
      " мир": 2771,
      "прос": 2772,
      " миллионов": 2773,
      " процесс": 2774,
      "ходы": 2775,
      " Алексей": 2776,
      "шению": 2777,
      "пада": 2778,
      " состав": 2779,
      "траф": 2780,
      " проекта": 2781,
      " Федерации": 2782,
      "ol": 2783,
      "рина": 2784,
      " своем": 2785,
      "того": 2786,
      " вице": 2787,
      " написа": 2788,
      " имеет": 2789,
      " внеш": 2790,
      "чая": 2791,
      " Иго": 2792,
      "ведения": 2793,
      "-м": 2794,
      "стров": 2795,
      " нашей": 2796,
      " совмест": 2797,
      " Украине": 2798,
      " получили": 2799,
      "дия": 2800,
      " спец": 2801,
      "Глава": 2802,
      "Ни": 2803,
      " большин": 2804,
      " объяви": 2805,
      " работать": 2806,
      " станет": 2807,
      "рое": 2808,
      " МИ": 2809,
      "тайте": 2810,
      " забо": 2811,
      "ента": 2812,
      " неу": 2813,
      " представля": 2814,
      " прак": 2815,
      " проблемы": 2816,
      " внимание": 2817,
      " зам": 2818,
      " возвра": 2819,
      " правоохрани": 2820,
      "вока": 2821,
      " кризи": 2822,
      " прин": 2823,
      " ничего": 2824,
      " верну": 2825,
      " нов": 2826,
      " дней": 2827,
      "Поэтому": 2828,
      " района": 2829,
      "ion": 2830,
      "мена": 2831,
      "ок": 2832,
      " потом": 2833,
      " истории": 2834,
      " кажды": 2835,
      "us": 2836,
      "рее": 2837,
      "тая": 2838,
      " неиз": 2839,
      " приве": 2840,
      " выс": 2841,
      " род": 2842,
      "льное": 2843,
      "Президент": 2844,
      "вто": 2845,
      " акти": 2846,
      " рост": 2847,
      " ведомства": 2848,
      " телекана": 2849,
      "ческая": 2850,
      " одна": 2851,
      " увеличи": 2852,
      " V": 2853,
      "ятся": 2854,
      " различ": 2855,
      "спек": 2856,
      "el": 2857,
      "Когда": 2858,
      "дется": 2859,
      " выда": 2860,
      " этому": 2861,
      " писа": 2862,
      "тый": 2863,
      " Европы": 2864,
      " жизнь": 2865,
      " губерна": 2866,
      " предпринима": 2867,
      "овым": 2868,
      "am": 2869,
      " тон": 2870,
      " считают": 2871,
      "ус": 2872,
      "шать": 2873,
      " данные": 2874,
      " полностью": 2875,
      " ООН": 2876,
      " конечно": 2877,
      "док": 2878,
      "ственные": 2879,
      " экспо": 2880,
      " тради": 2881,
      " законопроек": 2882,
      " сборной": 2883,
      " сф": 2884,
      "лых": 2885,
      " вза": 2886,
      " понима": 2887,
      "вый": 2888,
      " информацию": 2889,
      " норма": 2890,
      "тых": 2891,
      "Ви": 2892,
      "мин": 2893,
      "лана": 2894,
      " здоров": 2895,
      " требу": 2896,
      " пят": 2897,
      "Россий": 2898,
      "ич": 2899,
      " терак": 2900,
      "Си": 2901,
      " народ": 2902,
      "били": 2903,
      "тные": 2904,
      " представ": 2905,
      "нами": 2906,
      " снизи": 2907,
      " кру": 2908,
      " техни": 2909,
      " Серге": 2910,
      " кана": 2911,
      "они": 2912,
      "тябре": 2913,
      " запрещен": 2914,
      "еты": 2915,
      "кро": 2916,
      " иску": 2917,
      " добы": 2918,
      " ним": 2919,
      " медицин": 2920,
      " ал": 2921,
      " программы": 2922,
      " жа": 2923,
      " наи": 2924,
      "-летний": 2925,
      " администрации": 2926,
      " просмот": 2927,
      " другой": 2928,
      " сцен": 2929,
      "мар": 2930,
      "жный": 2931,
      "рошенко": 2932,
      " тому": 2933,
      " связан": 2934,
      " Су": 2935,
      "сок": 2936,
      " прошлом": 2937,
      " коллек": 2938,
      " поддержи": 2939,
      " получить": 2940,
      "что": 2941,
      "доро": 2942,
      "Его": 2943,
      " мог": 2944,
      "ждународ": 2945,
      " хи": 2946,
      " объем": 2947,
      " самых": 2948,
      "вшей": 2949,
      "щиков": 2950,
      "ым": 2951,
      "собо": 2952,
      " ситуация": 2953,
      " оппози": 2954,
      " составляет": 2955,
      " пожа": 2956,
      "емон": 2957,
      " мини": 2958,
      "дент": 2959,
      " месяцев": 2960,
      " постоян": 2961,
      "нить": 2962,
      "АО": 2963,
      " фран": 2964,
      "сил": 2965,
      " Москов": 2966,
      " весь": 2967,
      "емокра": 2968,
      " бизне": 2969,
      " возгла": 2970,
      " просмотров": 2971,
      "Бы": 2972,
      "тече": 2973,
      " СК": 2974,
      "можно": 2975,
      " выступи": 2976,
      " теку": 2977,
      " юри": 2978,
      " близ": 2979,
      "ic": 2980,
      " мощ": 2981,
      "никами": 2982,
      " ап": 2983,
      " министер": 2984,
      "-й": 2985,
      "Па": 2986,
      " сай": 2987,
      "седни": 2988,
      " ракет": 2989,
      " гор": 2990,
      " При": 2991,
      " живо": 2992,
      "жета": 2993,
      " выра": 2994,
      " войны": 2995,
      " связ": 2996,
      " мужчи": 2997,
      " осуществ": 2998,
      " населения": 2999,
      " прокура": 3000,
      "вок": 3001,
      " меньше": 3002,
      "льном": 3003,
      " вари": 3004,
      " команды": 3005,
      "дения": 3006,
      "пов": 3007,
      "рок": 3008,
      " многие": 3009,
      "чис": 3010,
      "еспубли": 3011,
      "ктор": 3012,
      " (\"": 3013,
      "-ми": 3014,
      " неда": 3015,
      "прочем": 3016,
      "вети": 3017,
      " пам": 3018,
      "вестия": 3019,
      "лед": 3020,
      " освобо": 3021,
      " банка": 3022,
      " торгов": 3023,
      " отве": 3024,
      "поли": 3025,
      " жителей": 3026,
      " одном": 3027,
      " фун": 3028,
      " сами": 3029,
      "ниц": 3030,
      "чать": 3031,
      " кам": 3032,
      " восстанов": 3033,
      "жем": 3034,
      " Госдумы": 3035,
      " харак": 3036,
      " площад": 3037,
      "чески": 3038,
      "рко": 3039,
      " приводит": 3040,
      " Бу": 3041,
      " Восто": 3042,
      " влия": 3043,
      "пор": 3044,
      " Иван": 3045,
      " процентов": 3046,
      " экономики": 3047,
      " наблюда": 3048,
      "et": 3049,
      "лга": 3050,
      "их": 3051,
      " впервые": 3052,
      " заво": 3053,
      " службы": 3054,
      " россиян": 3055,
      " игро": 3056,
      "тию": 3057,
      "ставить": 3058,
      " цены": 3059,
      " возможности": 3060,
      " утвержда": 3061,
      "зм": 3062,
      " сложно": 3063,
      ":\n": 3064,
      "вым": 3065,
      "35": 3066,
      " превы": 3067,
      " вопросы": 3068,
      "кви": 3069,
      " поме": 3070,
      " начина": 3071,
      ".R": 3072,
      "тили": 3073,
      " НА": 3074,
      "тивных": 3075,
      " Ира": 3076,
      " выборов": 3077,
      " налог": 3078,
      " группи": 3079,
      " попро": 3080,
      " участников": 3081,
      "надле": 3082,
      "жей": 3083,
      " нее": 3084,
      " проте": 3085,
      "лот": 3086,
      " обвиня": 3087,
      " срок": 3088,
      "Согласно": 3089,
      "re": 3090,
      "град": 3091,
      " делать": 3092,
      " цель": 3093,
      " турни": 3094,
      "жные": 3095,
      "зер": 3096,
      "даря": 3097,
      " Евг": 3098,
      "ено": 3099,
      "таки": 3100,
      " До": 3101,
      " выборах": 3102,
      "тором": 3103,
      " полож": 3104,
      "тей": 3105,
      " Германии": 3106,
      " практически": 3107,
      "70": 3108,
      "вью": 3109,
      " транспорт": 3110,
      "здни": 3111,
      "слам": 3112,
      " началь": 3113,
      "Ан": 3114,
      "чным": 3115,
      " бере": 3116,
      "леп": 3117,
      "весто": 3118,
      " правитель": 3119,
      " обсужда": 3120,
      " приобре": 3121,
      "баты": 3122,
      " страте": 3123,
      "нистер": 3124,
      " одним": 3125,
      "пора": 3126,
      "мые": 3127,
      " пяти": 3128,
      "80": 3129,
      "анных": 3130,
      " заявила": 3131,
      " покупа": 3132,
      "гран": 3133,
      "сем": 3134,
      " стол": 3135,
      " пала": 3136,
      " област": 3137,
      "тирует": 3138,
      "ционной": 3139,
      " сотрудников": 3140,
      " предполага": 3141,
      " отсут": 3142,
      " МИД": 3143,
      " наши": 3144,
      " един": 3145,
      "овом": 3146,
      "ху": 3147,
      " сла": 3148,
      "Рос": 3149,
      "Сто": 3150,
      " кры": 3151,
      " предвари": 3152,
      " доступ": 3153,
      "треть": 3154,
      "чета": 3155,
      " гри": 3156,
      " измени": 3157,
      "чено": 3158,
      "рованы": 3159,
      " парламента": 3160,
      " Андрей": 3161,
      " ряд": 3162,
      " финанси": 3163,
      "нев": 3164,
      " принадле": 3165,
      " Россией": 3166,
      "анкт": 3167,
      " политики": 3168,
      " убе": 3169,
      "дума": 3170,
      "треб": 3171,
      " итоге": 3172,
      " рейтин": 3173,
      "31": 3174,
      "ологи": 3175,
      " таким": 3176,
      " достаточно": 3177,
      "лла": 3178,
      "фон": 3179,
      " долго": 3180,
      "Тем": 3181,
      " часов": 3182,
      " число": 3183,
      " кварта": 3184,
      "шить": 3185,
      " нико": 3186,
      " край": 3187,
      " турец": 3188,
      " назвал": 3189,
      " незакон": 3190,
      "россий": 3191,
      " праздни": 3192,
      " сообщении": 3193,
      " чер": 3194,
      " искус": 3195,
      "лии": 3196,
      "кими": 3197,
      " отправи": 3198,
      "сур": 3199,
      "Еще": 3200,
      "пания": 3201,
      " съ": 3202,
      " встречи": 3203,
      "Ди": 3204,
      "коб": 3205,
      " прио": 3206,
      " сил": 3207,
      " сня": 3208,
      " Клин": 3209,
      " несколь": 3210,
      " источник": 3211,
      "мых": 3212,
      "клад": 3213,
      " полови": 3214,
      "факс": 3215,
      "сен": 3216,
      " террористи": 3217,
      " размере": 3218,
      " кре": 3219,
      " пригово": 3220,
      " сообщила": 3221,
      " агентства": 3222,
      "-Петербур": 3223,
      "лях": 3224,
      " теа": 3225,
      " представители": 3226,
      "талья": 3227,
      "нец": 3228,
      " поня": 3229,
      " меры": 3230,
      " упа": 3231,
      "ципа": 3232,
      "вого": 3233,
      " кни": 3234,
      " министра": 3235,
      " военно": 3236,
      " интервью": 3237,
      "веро": 3238,
      " бюджета": 3239,
      "стам": 3240,
      " Вер": 3241,
      " всей": 3242,
      " поне": 3243,
      " Му": 3244,
      " комплек": 3245,
      " поте": 3246,
      " собой": 3247,
      "тивно": 3248,
      " произошло": 3249,
      "матиче": 3250,
      "шает": 3251,
      " отстав": 3252,
      " обороны": 3253,
      " использу": 3254,
      " штраф": 3255,
      " станов": 3256,
      " нефть": 3257,
      " документа": 3258,
      " популяр": 3259,
      "сро": 3260,
      " расши": 3261,
      " продолжи": 3262,
      "уне": 3263,
      "ческим": 3264,
      " Республи": 3265,
      " Кар": 3266,
      "пуск": 3267,
      " истори": 3268,
      "служи": 3269,
      " затем": 3270,
      " буд": 3271,
      " которым": 3272,
      " условиях": 3273,
      " учи": 3274,
      "цам": 3275,
      "сер": 3276,
      " свидет": 3277,
      " вообще": 3278,
      "раб": 3279,
      " попы": 3280,
      "лый": 3281,
      "никам": 3282,
      "ционных": 3283,
      " движения": 3284,
      " конкурен": 3285,
      " роста": 3286,
      " иностранных": 3287,
      " Франции": 3288,
      " Оба": 3289,
      " уровень": 3290,
      " крупней": 3291,
      "-ли": 3292,
      "чная": 3293,
      " британ": 3294,
      " лучше": 3295,
      "лер": 3296,
      "Ли": 3297,
      "тельное": 3298,
      "пар": 3299,
      "более": 3300,
      " стар": 3301,
      " постро": 3302,
      "ing": 3303,
      " исполни": 3304,
      " дальней": 3305,
      "90": 3306,
      " состо": 3307,
      " тор": 3308,
      " Ду": 3309,
      " ситуацию": 3310,
      "ила": 3311,
      "шка": 3312,
      " То": 3313,
      "as": 3314,
      "фо": 3315,
      " дово": 3316,
      " неме": 3317,
      ".Ru": 3318,
      "стом": 3319,
      " какие": 3320,
      " уголовное": 3321,
      "Кон": 3322,
      " примерно": 3323,
      "вли": 3324,
      "ями": 3325,
      " капита": 3326,
      " целом": 3327,
      " улице": 3328,
      " российские": 3329,
      " помощью": 3330,
      "гна": 3331,
      "чку": 3332,
      " конца": 3333,
      " центре": 3334,
      " каждый": 3335,
      "лки": 3336,
      " Ша": 3337,
      "ледова": 3338,
      " францу": 3339,
      "кобрит": 3340,
      "-се": 3341,
      " постанов": 3342,
      " дав": 3343,
      "\"В": 3344,
      " аль": 3345,
      " скоро": 3346,
      "диви": 3347,
      "ствов": 3348,
      "ционного": 3349,
      " своим": 3350,
      " пояснил": 3351,
      "дев": 3352,
      " претен": 3353,
      "едве": 3354,
      " заявление": 3355,
      " инвесто": 3356,
      " Порошенко": 3357,
      " относи": 3358,
      " соответству": 3359,
      "тный": 3360,
      "пред": 3361,
      " универси": 3362,
      " клиен": 3363,
      "\")": 3364,
      " ау": 3365,
      " пишет": 3366,
      " действу": 3367,
      " Владимира": 3368,
      " вну": 3369,
      " адвока": 3370,
      "пря": 3371,
      "дий": 3372,
      " пара": 3373,
      " встреча": 3374,
      "рпла": 3375,
      " втор": 3376,
      " раск": 3377,
      "вел": 3378,
      " изу": 3379,
      " интерес": 3380,
      "нему": 3381,
      "туру": 3382,
      " первую": 3383,
      " Санкт": 3384,
      " российский": 3385,
      " сети": 3386,
      " зависи": 3387,
      " проблем": 3388,
      " тр": 3389,
      "тного": 3390,
      "рез": 3391,
      " поки": 3392,
      " депутат": 3393,
      " погибли": 3394,
      " обнаружи": 3395,
      "ющая": 3396,
      " сере": 3397,
      " управля": 3398,
      " УК": 3399,
      " рассматри": 3400,
      " пси": 3401,
      "льзя": 3402,
      " зарпла": 3403,
      " Чер": 3404,
      " организация": 3405,
      "ri": 3406,
      " сообщалось": 3407,
      " кос": 3408,
      "емый": 3409,
      " особенно": 3410,
      "аксима": 3411,
      " опро": 3412,
      "лай": 3413,
      " подписа": 3414,
      " государство": 3415,
      " проблема": 3416,
      " ремон": 3417,
      " ей": 3418,
      " имуще": 3419,
      "так": 3420,
      " Все": 3421,
      " пись": 3422,
      " материале": 3423,
      " похо": 3424,
      " поступи": 3425,
      " приходи": 3426,
      " следует": 3427,
      " новой": 3428,
      " действий": 3429,
      " Трампа": 3430,
      " Клинтон": 3431,
      " какой": 3432,
      " первом": 3433,
      " професси": 3434,
      " шо": 3435,
      " газета": 3436,
      " призн": 3437,
      " НАТО": 3438,
      "ou": 3439,
      "хе": 3440,
      "хани": 3441,
      " клю": 3442,
      " учре": 3443,
      "пан": 3444,
      " понедель": 3445,
      " пои": 3446,
      " заявили": 3447,
      " хорошо": 3448,
      " Центра": 3449,
      " промышлен": 3450,
      " ведь": 3451,
      " часто": 3452,
      "Воз": 3453,
      " мало": 3454,
      " жерт": 3455,
      " производства": 3456,
      "рови": 3457,
      " совета": 3458,
      " люби": 3459,
      " пользу": 3460,
      "емой": 3461,
      " проводи": 3462,
      "вета": 3463,
      "вченко": 3464,
      " низ": 3465,
      "сад": 3466,
      " комму": 3467,
      " Дон": 3468,
      " ава": 3469,
      " речь": 3470,
      " выше": 3471,
      " сим": 3472,
      " Великобрит": 3473,
      "зах": 3474,
      " присут": 3475,
      " читайте": 3476,
      " помощь": 3477,
      "Глав": 3478,
      " Российской": 3479,
      " судеб": 3480,
      "Впрочем": 3481,
      "сшта": 3482,
      "порт": 3483,
      " вырази": 3484,
      "шествия": 3485,
      " язы": 3486,
      " действительно": 3487,
      " подозрева": 3488,
      " либо": 3489,
      "ССР": 3490,
      "дать": 3491,
      " указ": 3492,
      " вас": 3493,
      " партнер": 3494,
      "БК": 3495,
      " слож": 3496,
      "сит": 3497,
      " физи": 3498,
      " проведения": 3499,
      " данных": 3500,
      " Путина": 3501,
      " чув": 3502,
      " республики": 3503,
      "сточник": 3504,
      " сли": 3505,
      "вар": 3506,
      "цами": 3507,
      " тысячи": 3508,
      " использов": 3509,
      " останов": 3510,
      "реги": 3511,
      "45": 3512,
      "ести": 3513,
      "тят": 3514,
      "экономи": 3515,
      " собра": 3516,
      " дер": 3517,
      " делу": 3518,
      "клады": 3519,
      " мэ": 3520,
      " пятницу": 3521,
      "дово": 3522,
      "сной": 3523,
      "тья": 3524,
      "вом": 3525,
      "бороны": 3526,
      " поддержа": 3527,
      " рынок": 3528,
      " сказать": 3529,
      "банка": 3530,
      " худо": 3531,
      "НР": 3532,
      "ел": 3533,
      "тива": 3534,
      "няется": 3535,
      " работе": 3536,
      " ответи": 3537,
      " деле": 3538,
      " начали": 3539,
      " сторон": 3540,
      " барре": 3541,
      " отдель": 3542,
      " трав": 3543,
      " сотрудники": 3544,
      " система": 3545,
      " посети": 3546,
      " секре": 3547,
      " стоимость": 3548,
      " хозяй": 3549,
      "Ва": 3550,
      "пром": 3551,
      "ян": 3552,
      " позд": 3553,
      " мага": 3554,
      "тря": 3555,
      "стати": 3556,
      " среду": 3557,
      " большой": 3558,
      " китай": 3559,
      "мимо": 3560,
      " СССР": 3561,
      "тые": 3562,
      "това": 3563,
      " полага": 3564,
      " нач": 3565,
      " уси": 3566,
      " раза": 3567,
      " ЦБ": 3568,
      " предприятия": 3569,
      " рекомен": 3570,
      " доби": 3571,
      "бора": 3572,
      "гах": 3573,
      " взаимо": 3574,
      "еру": 3575,
      "рудов": 3576,
      " арен": 3577,
      " выступ": 3578,
      " бом": 3579,
      " Ал": 3580,
      " группа": 3581,
      "вшая": 3582,
      "щу": 3583,
      " следова": 3584,
      "Пере": 3585,
      "бло": 3586,
      " Крыма": 3587,
      " возник": 3588,
      " важно": 3589,
      " фина": 3590,
      " наших": 3591,
      " голов": 3592,
      "щается": 3593,
      " никто": 3594,
      "емого": 3595,
      " Александра": 3596,
      " версии": 3597,
      "Еди": 3598,
      " устрой": 3599,
      " прожи": 3600,
      " форми": 3601,
      " сфере": 3602,
      " еже": 3603,
      " произошел": 3604,
      "смотря": 3605,
      "лору": 3606,
      "Пу": 3607,
      "бар": 3608,
      "вей": 3609,
      "коми": 3610,
      " выстав": 3611,
      "вшим": 3612,
      " говорят": 3613,
      "льную": 3614,
      " согласи": 3615,
      " месяца": 3616,
      " институ": 3617,
      " сель": 3618,
      " интернет": 3619,
      "лимпиа": 3620,
      " потеря": 3621,
      "под": 3622,
      " самом": 3623,
      " форма": 3624,
      " опубликова": 3625,
      "кса": 3626,
      "снов": 3627,
      "тивной": 3628,
      "катери": 3629,
      " несмотря": 3630,
      " двига": 3631,
      " ребенка": 3632,
      " миниму": 3633,
      "чное": 3634,
      " сдел": 3635,
      " напад": 3636,
      "\":": 3637,
      "ностей": 3638,
      "гом": 3639,
      " баз": 3640,
      " такое": 3641,
      "лети": 3642,
      "след": 3643,
      " четырех": 3644,
      " вооружен": 3645,
      "леппо": 3646,
      " глу": 3647,
      " работает": 3648,
      " первого": 3649,
      " огром": 3650,
      "раво": 3651,
      " собе": 3652,
      " конц": 3653,
      "ace": 3654,
      "Подроб": 3655,
      " порядка": 3656,
      "вез": 3657,
      " такого": 3658,
      "бай": 3659,
      " органов": 3660,
      " закона": 3661,
      " Совета": 3662,
      "шлось": 3663,
      " обу": 3664,
      " расположен": 3665,
      " Трамп": 3666,
      " изменения": 3667,
      "-секре": 3668,
      " Международ": 3669,
      "ew": 3670,
      "шему": 3671,
      "куп": 3672,
      " образования": 3673,
      " смогут": 3674,
      "age": 3675,
      "лах": 3676,
      "ниципа": 3677,
      " неболь": 3678,
      " проходи": 3679,
      " Алеппо": 3680,
      " пенсион": 3681,
      " понедельник": 3682,
      " сме": 3683,
      "ственным": 3684,
      " ИГ": 3685,
      " цитирует": 3686,
      " внес": 3687,
      "анные": 3688,
      " заявля": 3689,
      "щим": 3690,
      " объяв": 3691,
      " имени": 3692,
      " бро": 3693,
      " силы": 3694,
      " In": 3695,
      "ir": 3696,
      " перево": 3697,
      " первой": 3698,
      " дипло": 3699,
      "ent": 3700,
      " принци": 3701,
      "еп": 3702,
      "шинг": 3703,
      " Север": 3704,
      " денег": 3705,
      " нако": 3706,
      " вели": 3707,
      " вероят": 3708,
      " заместитель": 3709,
      "СБ": 3710,
      " ск": 3711,
      "лять": 3712,
      " сыгра": 3713,
      " аппара": 3714,
      " выход": 3715,
      " четверг": 3716,
      " уверен": 3717,
      " неизвест": 3718,
      " газа": 3719,
      "чном": 3720,
      "ый": 3721,
      " узна": 3722,
      " дом": 3723,
      " Япо": 3724,
      " обнару": 3725,
      "ест": 3726,
      " операции": 3727,
      "ed": 3728,
      " спу": 3729,
      " арти": 3730,
      " тен": 3731,
      " департа": 3732,
      "спон": 3733,
      " потреби": 3734,
      " нескольких": 3735,
      "ющее": 3736,
      "анда": 3737,
      " аб": 3738,
      "ческое": 3739,
      " могли": 3740,
      " роль": 3741,
      "тех": 3742,
      "дим": 3743,
      " вол": 3744,
      " Об": 3745,
      " провести": 3746,
      "бран": 3747,
      " комиссии": 3748,
      " пора": 3749,
      " сохрани": 3750,
      " вок": 3751,
      "ционный": 3752,
      " собеседни": 3753,
      " Медве": 3754,
      "скрес": 3755,
      "500": 3756,
      " опубликов": 3757,
      "АС": 3758,
      "Экс": 3759,
      "бере": 3760,
      "нобороны": 3761,
      " успеш": 3762,
      " культуры": 3763,
      " ль": 3764,
      " задержа": 3765,
      "ческую": 3766,
      " выясни": 3767,
      " объяс": 3768,
      " валют": 3769,
      " касается": 3770,
      " стату": 3771,
      " уровня": 3772,
      " Интер": 3773,
      " ООО": 3774,
      " положи": 3775,
      "анный": 3776,
      " ВВ": 3777,
      " нельзя": 3778,
      " веду": 3779,
      "вшись": 3780,
      " X": 3781,
      "Ки": 3782,
      "зор": 3783,
      "зация": 3784,
      " комплекс": 3785,
      " являются": 3786,
      " никогда": 3787,
      "eu": 3788,
      "шком": 3789,
      " строительство": 3790,
      " нарушения": 3791,
      " самолета": 3792,
      " золо": 3793,
      "ссоциа": 3794,
      " вторник": 3795,
      " наро": 3796,
      " допин": 3797,
      "езда": 3798,
      " электрон": 3799,
      "ap": 3800,
      "сона": 3801,
      " спро": 3802,
      "риа": 3803,
      " карти": 3804,
      " Европе": 3805,
      "Интерфакс": 3806,
      "гры": 3807,
      " опла": 3808,
      " Крем": 3809,
      " Алек": 3810,
      " геро": 3811,
      "гети": 3812,
      "шением": 3813,
      "тел": 3814,
      " кате": 3815,
      "Например": 3816,
      " взрыв": 3817,
      ";\n": 3818,
      "защи": 3819,
      "нили": 3820,
      "лоу": 3821,
      " сорев": 3822,
      " Эр": 3823,
      "зем": 3824,
      " переговоры": 3825,
      " пропа": 3826,
      " невоз": 3827,
      "зит": 3828,
      " силу": 3829,
      " помога": 3830,
      " преступления": 3831,
      "Ну": 3832,
      " пройдет": 3833,
      " км": 3834,
      " Дональ": 3835,
      " конкре": 3836,
      "тивного": 3837,
      "300": 3838,
      " Бер": 3839,
      " важ": 3840,
      " предупре": 3841,
      "банк": 3842,
      " ото": 3843,
      " Бори": 3844,
      " строительства": 3845,
      " список": 3846,
      " некоторые": 3847,
      " Михаил": 3848,
      "бир": 3849,
      " муниципа": 3850,
      " Савченко": 3851,
      " независи": 3852,
      "станавли": 3853,
      "ЧС": 3854,
      " води": 3855,
      "лые": 3856,
      " говорить": 3857,
      " руководитель": 3858,
      " находятся": 3859,
      "дение": 3860,
      "лле": 3861,
      " выво": 3862,
      "тельную": 3863,
      " акции": 3864,
      " Игорь": 3865,
      " стратеги": 3866,
      "-х": 3867,
      "город": 3868,
      "каде": 3869,
      " тут": 3870,
      "стями": 3871,
      "тром": 3872,
      "риф": 3873,
      "мая": 3874,
      " выде": 3875,
      " выну": 3876,
      "одно": 3877,
      " Известия": 3878,
      "лда": 3879,
      " зарабо": 3880,
      " ресур": 3881,
      " принято": 3882,
      " бежен": 3883,
      "Тогда": 3884,
      " отмен": 3885,
      " инци": 3886,
      "Таким": 3887,
      " француз": 3888,
      "чную": 3889,
      "сах": 3890,
      " сумму": 3891,
      " особо": 3892,
      " Красно": 3893,
      "Раз": 3894,
      " оборудов": 3895,
      "ждено": 3896,
      " требования": 3897,
      " наказ": 3898,
      "помина": 3899,
      "ченных": 3900,
      " фонда": 3901,
      " бизнеса": 3902,
      " поко": 3903,
      " препара": 3904,
      " посвя": 3905,
      " дере": 3906,
      " бывший": 3907,
      " зри": 3908,
      " органа": 3909,
      "лок": 3910,
      " членов": 3911,
      "жар": 3912,
      " мужчина": 3913,
      " поддержку": 3914,
      " ор": 3915,
      " пору": 3916,
      "тил": 3917,
      "тивные": 3918,
      " председатель": 3919,
      " памят": 3920,
      "юсь": 3921,
      "ляции": 3922,
      "мый": 3923,
      " многих": 3924,
      "тельная": 3925,
      "ленный": 3926,
      "суль": 3927,
      " состоянии": 3928,
      " The": 3929,
      " корруп": 3930,
      " пес": 3931,
      "сят": 3932,
      "ломет": 3933,
      " поводу": 3934,
      "оны": 3935,
      " быстро": 3936,
      " деву": 3937,
      "креп": 3938,
      " сравнению": 3939,
      "ТП": 3940,
      " вов": 3941,
      " оши": 3942,
      " дра": 3943,
      "потреб": 3944,
      "гип": 3945,
      " ниже": 3946,
      " сможет": 3947,
      " разработ": 3948,
      " катего": 3949,
      " оказыва": 3950,
      " самого": 3951,
      "Боль": 3952,
      " пунк": 3953,
      " функ": 3954,
      "Фото": 3955,
      " миллиона": 3956,
      " сопер": 3957,
      "чай": 3958,
      " данный": 3959,
      " чемпионата": 3960,
      "естива": 3961,
      "сток": 3962,
      " Министер": 3963,
      " разных": 3964,
      "ровано": 3965,
      " спорта": 3966,
      "полне": 3967,
      " давно": 3968,
      " случай": 3969,
      "менты": 3970,
      " остается": 3971,
      "нюю": 3972,
      "роз": 3973,
      " случи": 3974,
      " цена": 3975,
      " главный": 3976,
      "ПР": 3977,
      " направи": 3978,
      " сих": 3979,
      " объясни": 3980,
      " почему": 3981,
      " благодаря": 3982,
      "mage": 3983,
      " коло": 3984,
      "ровала": 3985,
      " регионе": 3986,
      "вати": 3987,
      " воскрес": 3988,
      " полномо": 3989,
      " заверши": 3990,
      " составе": 3991,
      " вся": 3992,
      " зап": 3993,
      "чили": 3994,
      " Аб": 3995,
      " минут": 3996,
      " проведен": 3997,
      " перио": 3998,
      "рабаты": 3999
    },
    "merges": [
      [
        " ",
        "п"
      ],
      [
        "с",
        "т"
      ],
      [
        " ",
        "в"
      ],
      [
        " ",
        "с"
      ],
      [
        "е",
        "н"
      ],
      [
        "о",
        "в"
      ],
      [
        "р",
        "а"
      ],
      [
        " ",
        "н"
      ],
      [
        ".",
        "\n"
      ],
      [
        " ",
        "о"
      ],
      [
        "т",
        "о"
      ],
      [
        "н",
        "о"
      ],
      [
        "р",
        "е"
      ],
      [
        "к",
        "о"
      ],
      [
        " ",
        "и"
      ],
      [
        "р",
        "о"
      ],
      [
        "г",
        "о"
      ],
      [
        "л",
        "и"
      ],
      [
        " п",
        "о"
      ],
      [
        "а",
        "н"
      ],
      [
        "е",
        "т"
      ],
      [
        " ",
        "д"
      ],
      [
        "л",
        "ь"
      ],
      [
        "р",
        "и"
      ],
      [
        " н",
        "а"
      ],
      [
        "н",
        "ы"
      ],
      [
        "к",
        "а"
      ],
      [
        " ",
        "м"
      ],
      [
        "т",
        "е"
      ],
      [
        "л",
        "а"
      ],
      [
        "з",
        "а"
      ],
      [
        "н",
        "и"
      ],
      [
        "е",
        "р"
      ],
      [
        " ",
        "б"
      ],
      [
        "т",
        "а"
      ],
      [
        "ен",
        "и"
      ],
      [
        "к",
        "и"
      ],
      [
        "л",
        "е"
      ],
      [
        "н",
        "а"
      ],
      [
        "т",
        "ь"
      ],
      [
        " ",
        "ч"
      ],
      [
        "д",
        "а"
      ],
      [
        "л",
        "о"
      ],
      [
        "т",
        "и"
      ],
      [
        " ",
        "у"
      ],
      [
        "в",
        "а"
      ],
      [
        " н",
        "е"
      ],
      [
        "с",
        "я"
      ],
      [
        "ц",
        "и"
      ],
      [
        " ",
        "ко"
      ],
      [
        " ",
        "за"
      ],
      [
        "м",
        "и"
      ],
      [
        "р",
        "у"
      ],
      [
        "д",
        "и"
      ],
      [
        "в",
        "о"
      ],
      [
        "в",
        "и"
      ],
      [
        " ",
        "\""
      ],
      [
        "с",
        "с"
      ],
      [
        " с",
        "о"
      ],
      [
        " п",
        "ро"
      ],
      [
        " ",
        "ра"
      ],
      [
        "е",
        "м"
      ],
      [
        " ",
        "а"
      ],
      [
        "ан",
        "и"
      ],
      [
        " ",
        "э"
      ],
      [
        "л",
        "я"
      ],
      [
        " ",
        "-"
      ],
      [
        "д",
        "е"
      ],
      [
        "р",
        "ов"
      ],
      [
        " ",
        "к"
      ],
      [
        "с",
        "ко"
      ],
      [
        "ст",
        "и"
      ],
      [
        "ст",
        "а"
      ],
      [
        " ",
        "го"
      ],
      [
        " о",
        "т"
      ],
      [
        " ч",
        "то"
      ],
      [
        " о",
        "б"
      ],
      [
        " д",
        "о"
      ],
      [
        "н",
        "е"
      ],
      [
        "п",
        "о"
      ],
      [
        "м",
        "о"
      ],
      [
        " ",
        "г"
      ],
      [
        " п",
        "ри"
      ],
      [
        " п",
        "ре"
      ],
      [
        "р",
        "ы"
      ],
      [
        "е",
        "й"
      ],
      [
        "д",
        "у"
      ],
      [
        " в",
        "о"
      ],
      [
        "ч",
        "а"
      ],
      [
        "ч",
        "е"
      ],
      [
        "ч",
        "и"
      ],
      [
        "ст",
        "о"
      ],
      [
        "б",
        "о"
      ],
      [
        "м",
        "а"
      ],
      [
        "с",
        "ки"
      ],
      [
        "ж",
        "е"
      ],
      [
        " ",
        "ре"
      ],
      [
        " в",
        "ы"
      ],
      [
        "ени",
        "я"
      ],
      [
        "но",
        "й"
      ],
      [
        " ",
        "С"
      ],
      [
        " ",
        "е"
      ],
      [
        " ",
        "т"
      ],
      [
        "те",
        "ль"
      ],
      [
        "в",
        "е"
      ],
      [
        "ны",
        "х"
      ],
      [
        "х",
        "о"
      ],
      [
        " ",
        "Р"
      ],
      [
        " ",
        "то"
      ],
      [
        "сс",
        "и"
      ],
      [
        " и",
        "з"
      ],
      [
        "к",
        "у"
      ],
      [
        "ов",
        "о"
      ],
      [
        "д",
        "о"
      ],
      [
        "с",
        "ь"
      ],
      [
        "но",
        "го"
      ],
      [
        "с",
        "е"
      ],
      [
        "л",
        "у"
      ],
      [
        " б",
        "ы"
      ],
      [
        " ",
        "ка"
      ],
      [
        "ж",
        "и"
      ],
      [
        "м",
        "е"
      ],
      [
        "ш",
        "и"
      ],
      [
        "ов",
        "а"
      ],
      [
        " ",
        "М"
      ],
      [
        "г",
        "и"
      ],
      [
        "ст",
        "в"
      ],
      [
        " э",
        "то"
      ],
      [
        "щ",
        "и"
      ],
      [
        "н",
        "у"
      ],
      [
        " м",
        "о"
      ],
      [
        " ",
        "ф"
      ],
      [
        "з",
        "и"
      ],
      [
        "о",
        "б"
      ],
      [
        "м",
        "ен"
      ],
      [
        " ",
        "К"
      ],
      [
        "ю",
        "т"
      ],
      [
        "е",
        "ре"
      ],
      [
        "ени",
        "е"
      ],
      [
        "ци",
        "и"
      ],
      [
        "п",
        "а"
      ],
      [
        "ны",
        "е"
      ],
      [
        " ",
        "те"
      ],
      [
        "ны",
        "й"
      ],
      [
        "с",
        "и"
      ],
      [
        "ст",
        "ь"
      ],
      [
        "П",
        "о"
      ],
      [
        "м",
        "у"
      ],
      [
        "т",
        "у"
      ],
      [
        "п",
        "и"
      ],
      [
        " ",
        "ст"
      ],
      [
        " ко",
        "то"
      ],
      [
        " ",
        "та"
      ],
      [
        "к",
        "ов"
      ],
      [
        "\"",
        ","
      ],
      [
        "г",
        "а"
      ],
      [
        "2",
        "0"
      ],
      [
        "р",
        "я"
      ],
      [
        " по",
        "д"
      ],
      [
        "т",
        "ы"
      ],
      [
        "ш",
        "е"
      ],
      [
        "щ",
        "е"
      ],
      [
        " д",
        "е"
      ],
      [
        " б",
        "о"
      ],
      [
        " ",
        "А"
      ],
      [
        "н",
        "я"
      ],
      [
        "а",
        "р"
      ],
      [
        "о",
        "н"
      ],
      [
        "ет",
        "ся"
      ],
      [
        " ",
        "з"
      ],
      [
        " м",
        "е"
      ],
      [
        " Р",
        "о"
      ],
      [
        " ра",
        "з"
      ],
      [
        "б",
        "и"
      ],
      [
        "л",
        "ю"
      ],
      [
        "с",
        "а"
      ],
      [
        " ",
        "В"
      ],
      [
        " пре",
        "д"
      ],
      [
        "п",
        "е"
      ],
      [
        " ",
        "("
      ],
      [
        "л",
        "ов"
      ],
      [
        "л",
        "ен"
      ],
      [
        "ско",
        "й"
      ],
      [
        "т",
        "ов"
      ],
      [
        "к",
        "е"
      ],
      [
        " м",
        "и"
      ],
      [
        "о",
        "р"
      ],
      [
        " Ро",
        "сси"
      ],
      [
        "ж",
        "а"
      ],
      [
        " ",
        "ро"
      ],
      [
        "ц",
        "е"
      ],
      [
        "с",
        "у"
      ],
      [
        "ны",
        "м"
      ],
      [
        "д",
        "ен"
      ],
      [
        "ани",
        "я"
      ],
      [
        " п",
        "ере"
      ],
      [
        "е",
        "к"
      ],
      [
        "в",
        "ы"
      ],
      [
        "а",
        "к"
      ],
      [
        " и",
        "н"
      ],
      [
        "ра",
        "н"
      ],
      [
        "ст",
        "ва"
      ],
      [
        " б",
        "у"
      ],
      [
        "л",
        "ет"
      ],
      [
        "с",
        "ле"
      ],
      [
        "п",
        "ро"
      ],
      [
        "п",
        "у"
      ],
      [
        "ско",
        "го"
      ],
      [
        "20",
        "1"
      ],
      [
        " ",
        "П"
      ],
      [
        "с",
        "по"
      ],
      [
        "\"",
        ".\n"
      ],
      [
        "ств",
        "ен"
      ],
      [
        " д",
        "ля"
      ],
      [
        "ст",
        "во"
      ],
      [
        " ",
        "ли"
      ],
      [
        "б",
        "ы"
      ],
      [
        "и",
        "н"
      ],
      [
        "Н",
        "а"
      ],
      [
        " ",
        "ру"
      ],
      [
        " ко",
        "м"
      ],
      [
        " м",
        "а"
      ],
      [
        "ка",
        "за"
      ],
      [
        " ",
        "ста"
      ],
      [
        " в",
        "се"
      ],
      [
        " ",
        "Д"
      ],
      [
        "м",
        "ы"
      ],
      [
        " с",
        "во"
      ],
      [
        " ",
        "Б"
      ],
      [
        "ж",
        "но"
      ],
      [
        " кото",
        "ры"
      ],
      [
        "д",
        "ет"
      ],
      [
        " ко",
        "н"
      ],
      [
        "д",
        "ы"
      ],
      [
        " с",
        "у"
      ],
      [
        " ",
        "Г"
      ],
      [
        " с",
        "а"
      ],
      [
        " с",
        "и"
      ],
      [
        "щ",
        "а"
      ],
      [
        "е",
        "з"
      ],
      [
        " ",
        "я"
      ],
      [
        " н",
        "о"
      ],
      [
        "а",
        "ль"
      ],
      [
        "в",
        "ер"
      ],
      [
        " го",
        "да"
      ],
      [
        "с",
        "к"
      ],
      [
        " п",
        "ра"
      ],
      [
        "но",
        "м"
      ],
      [
        " ",
        "Т"
      ],
      [
        " та",
        "к"
      ],
      [
        "о",
        "на"
      ],
      [
        " ка",
        "к"
      ],
      [
        "к",
        "ра"
      ],
      [
        "ть",
        "ся"
      ],
      [
        "у",
        "р"
      ],
      [
        "г",
        "ра"
      ],
      [
        "на",
        "я"
      ],
      [
        "ц",
        "ен"
      ],
      [
        "ан",
        "а"
      ],
      [
        " со",
        "об"
      ],
      [
        "б",
        "а"
      ],
      [
        "ле",
        "й"
      ],
      [
        " н",
        "и"
      ],
      [
        " Росси",
        "и"
      ],
      [
        "ти",
        "в"
      ],
      [
        " во",
        "з"
      ],
      [
        "но",
        "е"
      ],
      [
        "но",
        "сти"
      ],
      [
        "с",
        "ка"
      ],
      [
        "з",
        "ы"
      ],
      [
        "б",
        "е"
      ],
      [
        "ч",
        "ен"
      ],
      [
        "д",
        "ер"
      ],
      [
        "п",
        "ра"
      ],
      [
        "ски",
        "х"
      ],
      [
        "ени",
        "и"
      ],
      [
        "ов",
        "ы"
      ],
      [
        "г",
        "у"
      ],
      [
        "с",
        "о"
      ],
      [
        "т",
        "ся"
      ],
      [
        " ",
        "И"
      ],
      [
        "л",
        "ся"
      ],
      [
        " е",
        "го"
      ],
      [
        "и",
        "з"
      ],
      [
        "ст",
        "у"
      ],
      [
        "ж",
        "ен"
      ],
      [
        "ф",
        "и"
      ],
      [
        " в",
        "е"
      ],
      [
        " с",
        "е"
      ],
      [
        "в",
        "ля"
      ],
      [
        "п",
        "ре"
      ],
      [
        "к",
        "с"
      ],
      [
        " ",
        "Н"
      ],
      [
        "ров",
        "а"
      ],
      [
        "ски",
        "й"
      ],
      [
        " ",
        "хо"
      ],
      [
        " ",
        "О"
      ],
      [
        "н",
        "ов"
      ],
      [
        " ",
        "сто"
      ],
      [
        "ци",
        "я"
      ],
      [
        "д",
        "ов"
      ],
      [
        "д",
        "ни"
      ],
      [
        "ш",
        "а"
      ],
      [
        " о",
        "н"
      ],
      [
        "ль",
        "ко"
      ],
      [
        " ра",
        "бо"
      ],
      [
        "ре",
        "м"
      ],
      [
        " до",
        "л"
      ],
      [
        "ани",
        "е"
      ],
      [
        " ст",
        "ра"
      ],
      [
        "хо",
        "ди"
      ],
      [
        "ю",
        "щи"
      ],
      [
        "ани",
        "и"
      ],
      [
        "ст",
        "ви"
      ],
      [
        "ет",
        "и"
      ],
      [
        "ко",
        "й"
      ],
      [
        " по",
        "сле"
      ],
      [
        " ",
        "Л"
      ],
      [
        "ет",
        "а"
      ],
      [
        "м",
        "ер"
      ],
      [
        "ли",
        "сь"
      ],
      [
        "р",
        "г"
      ],
      [
        "я",
        "ви"
      ],
      [
        " ",
        "жи"
      ],
      [
        "ну",
        "ю"
      ],
      [
        "сси",
        "й"
      ],
      [
        "но",
        "сть"
      ],
      [
        "з",
        "у"
      ],
      [
        " ",
        "У"
      ],
      [
        "л",
        "ения"
      ],
      [
        "ста",
        "ви"
      ],
      [
        " это",
        "м"
      ],
      [
        " ",
        "Е"
      ],
      [
        "ц",
        "а"
      ],
      [
        " ",
        "Ф"
      ],
      [
        "я",
        "т"
      ],
      [
        "ж",
        "д"
      ],
      [
        "ро",
        "м"
      ],
      [
        "ст",
        "ан"
      ],
      [
        " п",
        "ер"
      ],
      [
        " ч",
        "е"
      ],
      [
        " ком",
        "п"
      ],
      [
        " д",
        "а"
      ],
      [
        "ри",
        "и"
      ],
      [
        "е",
        "в"
      ],
      [
        "г",
        "да"
      ],
      [
        "х",
        "а"
      ],
      [
        " п",
        "а"
      ],
      [
        "т",
        "ра"
      ],
      [
        " по",
        "лу"
      ],
      [
        " ",
        "же"
      ],
      [
        "ло",
        "сь"
      ],
      [
        "ж",
        "ет"
      ],
      [
        " п",
        "ров"
      ],
      [
        "ре",
        "д"
      ],
      [
        "ст",
        "ра"
      ],
      [
        " бу",
        "дет"
      ],
      [
        "п",
        "ри"
      ],
      [
        " ч",
        "а"
      ],
      [
        "г",
        "ла"
      ],
      [
        "в",
        "ши"
      ],
      [
        " г",
        "ла"
      ],
      [
        " в",
        "и"
      ],
      [
        " ру",
        "б"
      ],
      [
        "ко",
        "м"
      ],
      [
        " ра",
        "сс"
      ],
      [
        " го",
        "ду"
      ],
      [
        "зи",
        "ден"
      ],
      [
        " о",
        "с"
      ],
      [
        "л",
        "ы"
      ],
      [
        "ди",
        "н"
      ],
      [
        " о",
        "д"
      ],
      [
        "то",
        "м"
      ],
      [
        " ",
        "ш"
      ],
      [
        " а",
        "в"
      ],
      [
        " в",
        "рем"
      ],
      [
        "с",
        "ли"
      ],
      [
        " бо",
        "ль"
      ],
      [
        " с",
        "ов"
      ],
      [
        "ени",
        "ю"
      ],
      [
        "сто",
        "я"
      ],
      [
        "р",
        "ен"
      ],
      [
        " по",
        "ли"
      ],
      [
        " так",
        "же"
      ],
      [
        "в",
        "у"
      ],
      [
        "ро",
        "д"
      ],
      [
        "ни",
        "к"
      ],
      [
        "да",
        "р"
      ],
      [
        "ски",
        "е"
      ],
      [
        "п",
        "ер"
      ],
      [
        "ру",
        "п"
      ],
      [
        "в",
        "я"
      ],
      [
        "т",
        "я"
      ],
      [
        " д",
        "и"
      ],
      [
        " ро",
        "ссий"
      ],
      [
        " д",
        "ру"
      ],
      [
        "ф",
        "ор"
      ],
      [
        " М",
        "о"
      ],
      [
        "ств",
        "у"
      ],
      [
        " а",
        "к"
      ],
      [
        "б",
        "ли"
      ],
      [
        "ен",
        "ь"
      ],
      [
        "те",
        "р"
      ],
      [
        "с",
        "ов"
      ],
      [
        "ци",
        "ю"
      ],
      [
        "З",
        "а"
      ],
      [
        "ени",
        "й"
      ],
      [
        " у",
        "же"
      ],
      [
        "ро",
        "й"
      ],
      [
        "ле",
        "е"
      ],
      [
        "ко",
        "но"
      ],
      [
        " м",
        "л"
      ],
      [
        " ",
        "лю"
      ],
      [
        "л",
        "ова"
      ],
      [
        "то",
        "р"
      ],
      [
        "ла",
        "сь"
      ],
      [
        "в",
        "ет"
      ],
      [
        " с",
        "лу"
      ],
      [
        "ют",
        "ся"
      ],
      [
        " о",
        "рг"
      ],
      [
        " бы",
        "л"
      ],
      [
        "з",
        "на"
      ],
      [
        " об",
        "ъ"
      ],
      [
        " бы",
        "ло"
      ],
      [
        "б",
        "у"
      ],
      [
        " у",
        "ча"
      ],
      [
        " че",
        "лов"
      ],
      [
        "ста",
        "в"
      ],
      [
        "ла",
        "сти"
      ],
      [
        "т",
        "ри"
      ],
      [
        " ",
        "цен"
      ],
      [
        "е",
        "с"
      ],
      [
        "зы",
        "ва"
      ],
      [
        "ти",
        "че"
      ],
      [
        "ем",
        "у"
      ],
      [
        "ны",
        "ми"
      ],
      [
        " врем",
        "я"
      ],
      [
        "ж",
        "ду"
      ],
      [
        " п",
        "ар"
      ],
      [
        " которы",
        "е"
      ],
      [
        "те",
        "ля"
      ],
      [
        " т",
        "ы"
      ],
      [
        " б",
        "ез"
      ],
      [
        "пра",
        "в"
      ],
      [
        "г",
        "ово"
      ],
      [
        "о",
        "м"
      ],
      [
        " об",
        "ра"
      ],
      [
        "с",
        "ы"
      ],
      [
        " пре",
        "зиден"
      ],
      [
        "п",
        "ы"
      ],
      [
        "к",
        "ан"
      ],
      [
        "ле",
        "к"
      ],
      [
        " и",
        "х"
      ],
      [
        " за",
        "яви"
      ],
      [
        "г",
        "е"
      ],
      [
        "ска",
        "я"
      ],
      [
        "ни",
        "ка"
      ],
      [
        "р",
        "т"
      ],
      [
        "те",
        "лей"
      ],
      [
        " про",
        "из"
      ],
      [
        " на",
        "ча"
      ],
      [
        "ст",
        "ре"
      ],
      [
        "в",
        "ро"
      ],
      [
        " д",
        "ан"
      ],
      [
        "ци",
        "он"
      ],
      [
        " то",
        "м"
      ],
      [
        " в",
        "а"
      ],
      [
        " м",
        "ы"
      ],
      [
        "а",
        "з"
      ],
      [
        "ци",
        "аль"
      ],
      [
        " г",
        "ра"
      ],
      [
        "ко",
        "н"
      ],
      [
        "л",
        "ение"
      ],
      [
        "ч",
        "но"
      ],
      [
        " ч",
        "и"
      ],
      [
        " г",
        "ово"
      ],
      [
        "ско",
        "м"
      ],
      [
        "0",
        "0"
      ],
      [
        "не",
        "й"
      ],
      [
        " ав",
        "то"
      ],
      [
        "хо",
        "д"
      ],
      [
        "б",
        "ря"
      ],
      [
        " то",
        "лько"
      ],
      [
        "Ш",
        "А"
      ],
      [
        " т",
        "ре"
      ],
      [
        " ч",
        "ем"
      ],
      [
        " и",
        "ли"
      ],
      [
        "р",
        "ь"
      ],
      [
        "ш",
        "ен"
      ],
      [
        "до",
        "м"
      ],
      [
        "ва",
        "ть"
      ],
      [
        " са",
        "мо"
      ],
      [
        "к",
        "ры"
      ],
      [
        " с",
        "по"
      ],
      [
        ")",
        ".\n"
      ],
      [
        "ен",
        "е"
      ],
      [
        "1",
        "9"
      ],
      [
        " е",
        "ще"
      ],
      [
        "го",
        "д"
      ],
      [
        "л",
        "ан"
      ],
      [
        " те",
        "р"
      ],
      [
        "стан",
        "ов"
      ],
      [
        "ст",
        "е"
      ],
      [
        " у",
        "с"
      ],
      [
        " ",
        "лет"
      ],
      [
        " м",
        "у"
      ],
      [
        " то",
        "го"
      ],
      [
        " сооб",
        "ща"
      ],
      [
        "те",
        "ли"
      ],
      [
        " С",
        "ША"
      ],
      [
        "она",
        "ль"
      ],
      [
        " мо",
        "жет"
      ],
      [
        " п",
        "у"
      ],
      [
        "ду",
        "т"
      ],
      [
        "т",
        "ре"
      ],
      [
        "су",
        "дар"
      ],
      [
        "ш",
        "ения"
      ],
      [
        " з",
        "на"
      ],
      [
        "р",
        "та"
      ],
      [
        " бо",
        "лее"
      ],
      [
        "не",
        "е"
      ],
      [
        " с",
        "лова"
      ],
      [
        "ц",
        "ы"
      ],
      [
        "ти",
        "я"
      ],
      [
        " ф",
        "и"
      ],
      [
        "каза",
        "л"
      ],
      [
        "ш",
        "ение"
      ],
      [
        " что",
        "бы"
      ],
      [
        "з",
        "ов"
      ],
      [
        " п",
        "и"
      ],
      [
        " сооб",
        "щи"
      ],
      [
        "?",
        "\n"
      ],
      [
        "а",
        "ли"
      ],
      [
        " бы",
        "ли"
      ],
      [
        "ни",
        "ков"
      ],
      [
        "т",
        "ро"
      ],
      [
        " с",
        "ле"
      ],
      [
        "чи",
        "та"
      ],
      [
        " ра",
        "с"
      ],
      [
        "по",
        "л"
      ],
      [
        " которы",
        "й"
      ],
      [
        "Н",
        "о"
      ],
      [
        " орг",
        "ани"
      ],
      [
        "м",
        "ети"
      ],
      [
        "о",
        "й"
      ],
      [
        " пра",
        "ви"
      ],
      [
        "К",
        "ак"
      ],
      [
        " ",
        "ле"
      ],
      [
        " е",
        "е"
      ],
      [
        "о",
        "т"
      ],
      [
        " о",
        "ни"
      ],
      [
        "П",
        "ри"
      ],
      [
        "кра",
        "и"
      ],
      [
        " к",
        "у"
      ],
      [
        ")",
        ","
      ],
      [
        "о",
        "не"
      ],
      [
        " ",
        "х"
      ],
      [
        "ре",
        "ди"
      ],
      [
        " Мо",
        "ск"
      ],
      [
        "ни",
        "ст"
      ],
      [
        "ло",
        "м"
      ],
      [
        "коно",
        "ми"
      ],
      [
        " гово",
        "ри"
      ],
      [
        "тель",
        "но"
      ],
      [
        " Р",
        "Ф"
      ],
      [
        "ле",
        "кс"
      ],
      [
        "к",
        "ово"
      ],
      [
        "ни",
        "ма"
      ],
      [
        "е",
        "д"
      ],
      [
        " и",
        "спо"
      ],
      [
        "ст",
        "ро"
      ],
      [
        "ло",
        "ги"
      ],
      [
        " в",
        "з"
      ],
      [
        " го",
        "судар"
      ],
      [
        " от",
        "но"
      ],
      [
        " д",
        "ей"
      ],
      [
        "с",
        "ку"
      ],
      [
        "Э",
        "то"
      ],
      [
        "ло",
        "ж"
      ],
      [
        " с",
        "вя"
      ],
      [
        "с",
        "ла"
      ],
      [
        " ре",
        "ги"
      ],
      [
        "ти",
        "н"
      ],
      [
        " ",
        "Х"
      ],
      [
        "де",
        "ра"
      ],
      [
        "фор",
        "ма"
      ],
      [
        " У",
        "краи"
      ],
      [
        "ени",
        "ем"
      ],
      [
        "ь",
        "ю"
      ],
      [
        "ль",
        "та"
      ],
      [
        " М",
        "и"
      ],
      [
        "ст",
        "ве"
      ],
      [
        " по",
        "мо"
      ],
      [
        "ки",
        "х"
      ],
      [
        "ст",
        "ов"
      ],
      [
        " э",
        "ти"
      ],
      [
        "ан",
        "к"
      ],
      [
        " ме",
        "жду"
      ],
      [
        " и",
        "м"
      ],
      [
        " во",
        "про"
      ],
      [
        "л",
        "ли"
      ],
      [
        " сво",
        "и"
      ],
      [
        " полу",
        "чи"
      ],
      [
        "ни",
        "м"
      ],
      [
        "сту",
        "п"
      ],
      [
        "о",
        "с"
      ],
      [
        "у",
        "т"
      ],
      [
        "ж",
        "да"
      ],
      [
        " заяви",
        "л"
      ],
      [
        " К",
        "а"
      ],
      [
        "р",
        "д"
      ],
      [
        " с",
        "пе"
      ],
      [
        "т",
        "ру"
      ],
      [
        "ни",
        "ки"
      ],
      [
        "ан",
        "е"
      ],
      [
        "я",
        "в"
      ],
      [
        " пред",
        "стави"
      ],
      [
        "дер",
        "ж"
      ],
      [
        " и",
        "сто"
      ],
      [
        "ци",
        "й"
      ],
      [
        "п",
        "ла"
      ],
      [
        "ем",
        "ы"
      ],
      [
        " е",
        "сть"
      ],
      [
        "к",
        "лю"
      ],
      [
        " ",
        "Ш"
      ],
      [
        "ч",
        "ет"
      ],
      [
        "па",
        "с"
      ],
      [
        " в",
        "ер"
      ],
      [
        " по",
        "л"
      ],
      [
        " челов",
        "ек"
      ],
      [
        "ме",
        "ри"
      ],
      [
        "де",
        "й"
      ],
      [
        "щ",
        "ен"
      ],
      [
        " ",
        "ры"
      ],
      [
        "e",
        "n"
      ],
      [
        "О",
        "б"
      ],
      [
        " это",
        "го"
      ],
      [
        "я",
        "с"
      ],
      [
        "год",
        "ня"
      ],
      [
        "ча",
        "с"
      ],
      [
        " воз",
        "мо"
      ],
      [
        "e",
        "r"
      ],
      [
        " те",
        "х"
      ],
      [
        " го",
        "ро"
      ],
      [
        " С",
        "и"
      ],
      [
        "ла",
        "ди"
      ],
      [
        "з",
        "д"
      ],
      [
        "ров",
        "ан"
      ],
      [
        "мен",
        "та"
      ],
      [
        "м",
        "ан"
      ],
      [
        "с",
        "лу"
      ],
      [
        "то",
        "ра"
      ],
      [
        "ей",
        "час"
      ],
      [
        "1",
        "0"
      ],
      [
        " ",
        "Ч"
      ],
      [
        " рабо",
        "та"
      ],
      [
        "зу",
        "льта"
      ],
      [
        " М",
        "а"
      ],
      [
        "ль",
        "но"
      ],
      [
        " с",
        "чита"
      ],
      [
        " о",
        "к"
      ],
      [
        " ре",
        "зульта"
      ],
      [
        " К",
        "и"
      ],
      [
        "це",
        "в"
      ],
      [
        "ка",
        "х"
      ],
      [
        " слова",
        "м"
      ],
      [
        "пе",
        "ра"
      ],
      [
        "ве",
        "ст"
      ],
      [
        " ",
        "По"
      ],
      [
        "ри",
        "й"
      ],
      [
        " об",
        "ласти"
      ],
      [
        "ше",
        "го"
      ],
      [
        " от",
        "мети"
      ],
      [
        " ",
        "Ц"
      ],
      [
        "ово",
        "й"
      ],
      [
        " дру",
        "ги"
      ],
      [
        "з",
        "ова"
      ],
      [
        " ",
        "ки"
      ],
      [
        "чен",
        "ь"
      ],
      [
        "пу",
        "бли"
      ],
      [
        " э",
        "кономи"
      ],
      [
        "с",
        "мо"
      ],
      [
        " органи",
        "за"
      ],
      [
        " э",
        "кс"
      ],
      [
        "стви",
        "я"
      ],
      [
        " сто",
        "ро"
      ],
      [
        "е",
        "дера"
      ],
      [
        "на",
        "ко"
      ],
      [
        "тель",
        "ства"
      ],
      [
        " со",
        "б"
      ],
      [
        "к",
        "ла"
      ],
      [
        " мл",
        "н"
      ],
      [
        "ки",
        "е"
      ],
      [
        " г",
        "руп"
      ],
      [
        "до",
        "л"
      ],
      [
        "те",
        "ри"
      ],
      [
        "у",
        "ю"
      ],
      [
        "ани",
        "й"
      ],
      [
        " к",
        "ра"
      ],
      [
        "ве",
        "сти"
      ],
      [
        " ч",
        "ет"
      ],
      [
        "г",
        "ен"
      ],
      [
        " ",
        "ж"
      ],
      [
        " м",
        "ар"
      ],
      [
        "ц",
        "у"
      ],
      [
        " де",
        "ла"
      ],
      [
        "-",
        "то"
      ],
      [
        "ва",
        "ет"
      ],
      [
        "во",
        "д"
      ],
      [
        ".",
        "."
      ],
      [
        " с",
        "ред"
      ],
      [
        " ",
        "це"
      ],
      [
        " о",
        "на"
      ],
      [
        "гу",
        "т"
      ],
      [
        "ла",
        "га"
      ],
      [
        " про",
        "ек"
      ],
      [
        "ски",
        "м"
      ],
      [
        "ч",
        "ения"
      ],
      [
        "мен",
        "т"
      ],
      [
        " А",
        "лекс"
      ],
      [
        " бу",
        "дут"
      ],
      [
        " е",
        "сли"
      ],
      [
        " А",
        "н"
      ],
      [
        "тру",
        "дни"
      ],
      [
        "ан",
        "д"
      ],
      [
        "ка",
        "з"
      ],
      [
        "ста",
        "вля"
      ],
      [
        "Р",
        "о"
      ],
      [
        " пере",
        "да"
      ],
      [
        " бы",
        "ла"
      ],
      [
        " ин",
        "форма"
      ],
      [
        "ло",
        "жи"
      ],
      [
        "1",
        "5"
      ],
      [
        "ко",
        "го"
      ],
      [
        " п",
        "е"
      ],
      [
        " В",
        "лади"
      ],
      [
        " про",
        "ш"
      ],
      [
        "де",
        "ла"
      ],
      [
        "ч",
        "ение"
      ],
      [
        "бо",
        "р"
      ],
      [
        "ст",
        "ы"
      ],
      [
        "то",
        "му"
      ],
      [
        " при",
        "ня"
      ],
      [
        "х",
        "и"
      ],
      [
        " со",
        "трудни"
      ],
      [
        "ту",
        "а"
      ],
      [
        "де",
        "ль"
      ],
      [
        " ко",
        "гда"
      ],
      [
        " т",
        "у"
      ],
      [
        " во",
        "ен"
      ],
      [
        " н",
        "овы"
      ],
      [
        " со",
        "гла"
      ],
      [
        "во",
        "й"
      ],
      [
        " об",
        "о"
      ],
      [
        " те",
        "м"
      ],
      [
        "ра",
        "бо"
      ],
      [
        "ри",
        "я"
      ],
      [
        " б",
        "а"
      ],
      [
        "би",
        "ра"
      ],
      [
        "ре",
        "к"
      ],
      [
        " руб",
        "лей"
      ],
      [
        " а",
        "д"
      ],
      [
        " слу",
        "ча"
      ],
      [
        " мо",
        "жно"
      ],
      [
        "ш",
        "ей"
      ],
      [
        " я",
        "вля"
      ],
      [
        " б",
        "е"
      ],
      [
        " бы",
        "ть"
      ],
      [
        "с",
        "но"
      ],
      [
        " по",
        "до"
      ],
      [
        "лов",
        "и"
      ],
      [
        " ос",
        "нов"
      ],
      [
        "ни",
        "стра"
      ],
      [
        "б",
        "ле"
      ],
      [
        "ра",
        "в"
      ],
      [
        "сси",
        "я"
      ],
      [
        " б",
        "ан"
      ],
      [
        "ва",
        "ли"
      ],
      [
        "-",
        "за"
      ],
      [
        "О",
        "н"
      ],
      [
        " о",
        "чень"
      ],
      [
        "и",
        "т"
      ],
      [
        " не",
        "ско"
      ],
      [
        " г",
        "де"
      ],
      [
        " Е",
        "вро"
      ],
      [
        "ря",
        "д"
      ],
      [
        "ра",
        "к"
      ],
      [
        " К",
        "о"
      ],
      [
        " кото",
        "ро"
      ],
      [
        " д",
        "ень"
      ],
      [
        "ве",
        "д"
      ],
      [
        " гра",
        "жд"
      ],
      [
        " С",
        "а"
      ],
      [
        " ",
        "L"
      ],
      [
        " д",
        "ет"
      ],
      [
        " стра",
        "ны"
      ],
      [
        " раз",
        "ви"
      ],
      [
        "Т",
        "ак"
      ],
      [
        "В",
        "о"
      ],
      [
        " ст",
        "ан"
      ],
      [
        "ра",
        "м"
      ],
      [
        "ч",
        "ь"
      ],
      [
        " мл",
        "рд"
      ],
      [
        "р",
        "ти"
      ],
      [
        " комп",
        "ании"
      ],
      [
        " возмо",
        "жно"
      ],
      [
        " ",
        "На"
      ],
      [
        "Н",
        "е"
      ],
      [
        "t",
        "a"
      ],
      [
        "ка",
        "зыва"
      ],
      [
        " го",
        "д"
      ],
      [
        "ра",
        "ни"
      ],
      [
        "ре",
        "мен"
      ],
      [
        "рова",
        "ть"
      ],
      [
        " си",
        "ст"
      ],
      [
        " Влади",
        "ми"
      ],
      [
        " н",
        "у"
      ],
      [
        "н",
        "ер"
      ],
      [
        "ме",
        "ча"
      ],
      [
        "ф",
        "е"
      ],
      [
        "мери",
        "кан"
      ],
      [
        " су",
        "д"
      ],
      [
        "ющи",
        "х"
      ],
      [
        "ан",
        "ы"
      ],
      [
        " сообща",
        "ет"
      ],
      [
        " ру",
        "ково"
      ],
      [
        "то",
        "ры"
      ],
      [
        "ч",
        "ер"
      ],
      [
        " в",
        "стре"
      ],
      [
        " П",
        "у"
      ],
      [
        "с",
        "ков"
      ],
      [
        " ст",
        "ро"
      ],
      [
        "сс",
        "а"
      ],
      [
        "ри",
        "т"
      ],
      [
        "т",
        "вер"
      ],
      [
        "ско",
        "е"
      ],
      [
        " ра",
        "й"
      ],
      [
        " ",
        "Э"
      ],
      [
        "ва",
        "л"
      ],
      [
        "те",
        "ре"
      ],
      [
        "на",
        "род"
      ],
      [
        " ни",
        "х"
      ],
      [
        " си",
        "туа"
      ],
      [
        " дол",
        "ж"
      ],
      [
        " п",
        "ов"
      ],
      [
        "ет",
        "е"
      ],
      [
        "не",
        "с"
      ],
      [
        "по",
        "м"
      ],
      [
        "20",
        "0"
      ],
      [
        " ко",
        "ми"
      ],
      [
        "ри",
        "то"
      ],
      [
        "ин",
        "ан"
      ],
      [
        "ши",
        "х"
      ],
      [
        "ще",
        "го"
      ],
      [
        " о",
        "ста"
      ],
      [
        "но",
        "му"
      ],
      [
        "вши",
        "й"
      ],
      [
        " в",
        "с"
      ],
      [
        "гра",
        "м"
      ],
      [
        " ты",
        "ся"
      ],
      [
        " не",
        "об"
      ],
      [
        " гла",
        "в"
      ],
      [
        " с",
        "мо"
      ],
      [
        " жи",
        "з"
      ],
      [
        "ни",
        "й"
      ],
      [
        " С",
        "ер"
      ],
      [
        " д",
        "ву"
      ],
      [
        "де",
        "ли"
      ],
      [
        "ко",
        "ло"
      ],
      [
        "ти",
        "и"
      ],
      [
        " ",
        "S"
      ],
      [
        "ру",
        "к"
      ],
      [
        "С",
        "о"
      ],
      [
        "та",
        "й"
      ],
      [
        "ль",
        "ного"
      ],
      [
        "ст",
        "ран"
      ],
      [
        " у",
        "да"
      ],
      [
        "r",
        "u"
      ],
      [
        "щ",
        "ей"
      ],
      [
        "М",
        "ы"
      ],
      [
        "ж",
        "ения"
      ],
      [
        "во",
        "ди"
      ],
      [
        "тель",
        "ство"
      ],
      [
        " д",
        "ва"
      ],
      [
        " пров",
        "е"
      ],
      [
        "ств",
        "ова"
      ],
      [
        "я",
        "ть"
      ],
      [
        "т",
        "ен"
      ],
      [
        " и",
        "ме"
      ],
      [
        "пу",
        "та"
      ],
      [
        " тер",
        "рито"
      ],
      [
        " уча",
        "ст"
      ],
      [
        " ты",
        "с"
      ],
      [
        " ми",
        "лли"
      ],
      [
        " с",
        "ер"
      ],
      [
        "мо",
        "би"
      ],
      [
        " н",
        "ет"
      ],
      [
        " про",
        "тив"
      ],
      [
        "ово",
        "го"
      ],
      [
        "ь",
        "я"
      ],
      [
        "ч",
        "у"
      ],
      [
        " про",
        "бле"
      ],
      [
        " о",
        "дин"
      ],
      [
        "o",
        "n"
      ],
      [
        "тя",
        "бря"
      ],
      [
        "б",
        "я"
      ],
      [
        " да",
        "же"
      ],
      [
        "ров",
        "о"
      ],
      [
        "б",
        "ер"
      ],
      [
        "н",
        "ен"
      ],
      [
        " про",
        "дол"
      ],
      [
        " испо",
        "ль"
      ],
      [
        "С",
        "С"
      ],
      [
        " ",
        "ю"
      ],
      [
        " пра",
        "во"
      ],
      [
        " с",
        "казал"
      ],
      [
        "ра",
        "я"
      ],
      [
        " на",
        "с"
      ],
      [
        "при",
        "я"
      ],
      [
        "О",
        "д"
      ],
      [
        " м",
        "ного"
      ],
      [
        " ",
        "Ю"
      ],
      [
        " В",
        "о"
      ],
      [
        "1",
        "2"
      ],
      [
        " дан",
        "ным"
      ],
      [
        "че",
        "ской"
      ],
      [
        "лу",
        "ч"
      ],
      [
        "ни",
        "и"
      ],
      [
        " не",
        "ф"
      ],
      [
        "ш",
        "ь"
      ],
      [
        "ве",
        "ли"
      ],
      [
        " мо",
        "гут"
      ],
      [
        "ж",
        "ден"
      ],
      [
        " ",
        "Я"
      ],
      [
        "л",
        "ани"
      ],
      [
        "ки",
        "м"
      ],
      [
        "3",
        "0"
      ],
      [
        "не",
        "го"
      ],
      [
        "с",
        "об"
      ],
      [
        "сту",
        "пи"
      ],
      [
        "ка",
        "ми"
      ],
      [
        " В",
        "а"
      ],
      [
        " о",
        "фи"
      ],
      [
        " ",
        "A"
      ],
      [
        "ем",
        "о"
      ],
      [
        ".",
        "ru"
      ],
      [
        " боль",
        "ше"
      ],
      [
        "ску",
        "ю"
      ],
      [
        " необ",
        "ходи"
      ],
      [
        " от",
        "кры"
      ],
      [
        "д",
        "ова"
      ],
      [
        "я",
        "х"
      ],
      [
        " Алекс",
        "анд"
      ],
      [
        " об",
        "ще"
      ],
      [
        "ше",
        "л"
      ],
      [
        "о",
        "пас"
      ],
      [
        " по",
        "з"
      ],
      [
        " о",
        "че"
      ],
      [
        "яс",
        "ни"
      ],
      [
        " ком",
        "ан"
      ],
      [
        "г",
        "ро"
      ],
      [
        " по",
        "ка"
      ],
      [
        " все",
        "го"
      ],
      [
        "ро",
        "ме"
      ],
      [
        " с",
        "ейчас"
      ],
      [
        "ли",
        "н"
      ],
      [
        " Н",
        "и"
      ],
      [
        "ши",
        "н"
      ],
      [
        "Т",
        "а"
      ],
      [
        " ф",
        "инан"
      ],
      [
        " на",
        "з"
      ],
      [
        " президен",
        "та"
      ],
      [
        " Украи",
        "ны"
      ],
      [
        " вы",
        "бо"
      ],
      [
        " ры",
        "н"
      ],
      [
        " по",
        "ч"
      ],
      [
        "н",
        "ь"
      ],
      [
        "ш",
        "ении"
      ],
      [
        " это",
        "т"
      ],
      [
        " у",
        "ров"
      ],
      [
        " п",
        "ло"
      ],
      [
        "ани",
        "ю"
      ],
      [
        " п",
        "ла"
      ],
      [
        "ми",
        "нистра"
      ],
      [
        "м",
        "ени"
      ],
      [
        " со",
        "стоя"
      ],
      [
        " ",
        "T"
      ],
      [
        " пер",
        "вы"
      ],
      [
        " с",
        "ен"
      ],
      [
        "ли",
        "я"
      ],
      [
        " пре",
        "сс"
      ],
      [
        "щ",
        "ения"
      ],
      [
        " Б",
        "а"
      ],
      [
        " а",
        "мерикан"
      ],
      [
        " авто",
        "моби"
      ],
      [
        "ру",
        "ет"
      ],
      [
        "н",
        "ем"
      ],
      [
        "ле",
        "м"
      ],
      [
        " про",
        "да"
      ],
      [
        " кото",
        "рая"
      ],
      [
        " сообщи",
        "л"
      ],
      [
        " а",
        "р"
      ],
      [
        "ген",
        "т"
      ],
      [
        " во",
        "й"
      ],
      [
        "ере",
        "з"
      ],
      [
        " челов",
        "е"
      ],
      [
        " до",
        "ро"
      ],
      [
        " неско",
        "лько"
      ],
      [
        " о",
        "пера"
      ],
      [
        " ко",
        "р"
      ],
      [
        "и",
        "с"
      ],
      [
        "ци",
        "ональ"
      ],
      [
        " о",
        "коло"
      ],
      [
        " т",
        "ран"
      ],
      [
        "i",
        "n"
      ],
      [
        " се",
        "годня"
      ],
      [
        "е",
        "ль"
      ],
      [
        "ю",
        "д"
      ],
      [
        "н",
        "ению"
      ],
      [
        " о",
        "п"
      ],
      [
        "ж",
        "ение"
      ],
      [
        " в",
        "ла"
      ],
      [
        "е",
        "ва"
      ],
      [
        " П",
        "а"
      ],
      [
        "ющи",
        "й"
      ],
      [
        " до",
        "ку"
      ],
      [
        " из",
        "вест"
      ],
      [
        "о",
        "д"
      ],
      [
        " ",
        "жен"
      ],
      [
        "ане",
        "е"
      ],
      [
        "к",
        "ова"
      ],
      [
        "ани",
        "ма"
      ],
      [
        "Р",
        "анее"
      ],
      [
        " уча",
        "сти"
      ],
      [
        "ст",
        "ей"
      ],
      [
        " б",
        "ли"
      ],
      [
        "ющи",
        "е"
      ],
      [
        "м",
        "ет"
      ],
      [
        "ци",
        "ей"
      ],
      [
        "и",
        "мо"
      ],
      [
        "н",
        "ения"
      ],
      [
        " Б",
        "о"
      ],
      [
        " все",
        "х"
      ],
      [
        "к",
        "ре"
      ],
      [
        " т",
        "ри"
      ],
      [
        "ль",
        "ной"
      ],
      [
        " и",
        "то"
      ],
      [
        "от",
        "вет"
      ],
      [
        "ль",
        "ный"
      ],
      [
        " про",
        "грам"
      ],
      [
        "ла",
        "го"
      ],
      [
        " э",
        "к"
      ],
      [
        " К",
        "у"
      ],
      [
        " с",
        "ем"
      ],
      [
        "он",
        "ов"
      ],
      [
        " са",
        "мы"
      ],
      [
        " с",
        "ни"
      ],
      [
        " ме",
        "ся"
      ],
      [
        " по",
        "бе"
      ],
      [
        "дер",
        "жа"
      ],
      [
        "П",
        "ро"
      ],
      [
        " ми",
        "нист"
      ],
      [
        " с",
        "ко"
      ],
      [
        "О",
        "т"
      ],
      [
        "ра",
        "з"
      ],
      [
        " отмети",
        "л"
      ],
      [
        "б",
        "ов"
      ],
      [
        "кра",
        "ин"
      ],
      [
        " с",
        "дела"
      ],
      [
        "ро",
        "ри"
      ],
      [
        " ф",
        "ор"
      ],
      [
        " на",
        "ходи"
      ],
      [
        "че",
        "ских"
      ],
      [
        "a",
        "n"
      ],
      [
        "ви",
        "а"
      ],
      [
        " т",
        "ра"
      ],
      [
        "б",
        "ур"
      ],
      [
        "ле",
        "дов"
      ],
      [
        "ли",
        "ч"
      ],
      [
        " ",
        "ан"
      ],
      [
        " президен",
        "т"
      ],
      [
        "ло",
        "го"
      ],
      [
        " и",
        "с"
      ],
      [
        "ва",
        "ют"
      ],
      [
        " которы",
        "х"
      ],
      [
        " во",
        "с"
      ],
      [
        " д",
        "у"
      ],
      [
        "ки",
        "й"
      ],
      [
        " поли",
        "ти"
      ],
      [
        " го",
        "тов"
      ],
      [
        " ф",
        "ак"
      ],
      [
        " явля",
        "ется"
      ],
      [
        "ро",
        "н"
      ],
      [
        "1",
        "8"
      ],
      [
        "5",
        "0"
      ],
      [
        "з",
        "я"
      ],
      [
        " ка",
        "ж"
      ],
      [
        "ту",
        "ры"
      ],
      [
        "о",
        "ру"
      ],
      [
        " горо",
        "да"
      ],
      [
        "ре",
        "й"
      ],
      [
        "ль",
        "я"
      ],
      [
        " ме",
        "сто"
      ],
      [
        "лен",
        "ы"
      ],
      [
        "то",
        "ч"
      ],
      [
        "пра",
        "ви"
      ],
      [
        " без",
        "опас"
      ],
      [
        " г",
        "аз"
      ],
      [
        " и",
        "ю"
      ],
      [
        " это",
        "й"
      ],
      [
        " вы",
        "со"
      ],
      [
        " за",
        "яв"
      ],
      [
        "т",
        "р"
      ],
      [
        " ре",
        "шение"
      ],
      [
        " стро",
        "и"
      ],
      [
        " ",
        "B"
      ],
      [
        " де",
        "пута"
      ],
      [
        "ность",
        "ю"
      ],
      [
        " об",
        "ви"
      ],
      [
        " ме",
        "ст"
      ],
      [
        " ",
        "За"
      ],
      [
        "т",
        "ки"
      ],
      [
        "х",
        "ов"
      ],
      [
        "д",
        "ь"
      ],
      [
        "ти",
        "й"
      ],
      [
        " к",
        "руп"
      ],
      [
        " от",
        "меча"
      ],
      [
        " се",
        "бя"
      ],
      [
        "че",
        "ского"
      ],
      [
        " сво",
        "е"
      ],
      [
        " в",
        "то"
      ],
      [
        "жд",
        "ения"
      ],
      [
        "-",
        "лет"
      ],
      [
        "ур",
        "на"
      ],
      [
        " г",
        "а"
      ],
      [
        " ",
        "I"
      ],
      [
        " в",
        "не"
      ],
      [
        "ну",
        "т"
      ],
      [
        " ",
        "C"
      ],
      [
        "ка",
        "м"
      ],
      [
        " к",
        "ри"
      ],
      [
        "б",
        "ра"
      ],
      [
        "л",
        "ении"
      ],
      [
        "сту",
        "па"
      ],
      [
        " Н",
        "ово"
      ],
      [
        "ль",
        "ных"
      ],
      [
        " гражд",
        "ан"
      ],
      [
        "Е",
        "сли"
      ],
      [
        "ер",
        "ы"
      ],
      [
        "вши",
        "х"
      ],
      [
        " на",
        "ру"
      ],
      [
        "з",
        "да"
      ],
      [
        "ще",
        "е"
      ],
      [
        " ",
        "F"
      ],
      [
        "ра",
        "х"
      ],
      [
        " у",
        "станов"
      ],
      [
        " ч",
        "ерез"
      ],
      [
        " чем",
        "пи"
      ],
      [
        "чи",
        "на"
      ],
      [
        "в",
        "но"
      ],
      [
        " Си",
        "рии"
      ],
      [
        "и",
        "л"
      ],
      [
        " к",
        "то"
      ],
      [
        " сов",
        "ер"
      ],
      [
        "бо",
        "й"
      ],
      [
        " М",
        "ин"
      ],
      [
        " дву",
        "х"
      ],
      [
        " С",
        "о"
      ],
      [
        " произ",
        "о"
      ],
      [
        "И",
        "з"
      ],
      [
        " о",
        "каза"
      ],
      [
        "Од",
        "нако"
      ],
      [
        " з",
        "анима"
      ],
      [
        " ",
        "M"
      ],
      [
        " ма",
        "тери"
      ],
      [
        " м",
        "ен"
      ],
      [
        " чи",
        "сле"
      ],
      [
        "н",
        "ова"
      ],
      [
        "С",
        "а"
      ],
      [
        " ",
        "З"
      ],
      [
        "1",
        "1"
      ],
      [
        " на",
        "д"
      ],
      [
        " у",
        "прав"
      ],
      [
        " сво",
        "ю"
      ],
      [
        " а",
        "гент"
      ],
      [
        "И",
        "н"
      ],
      [
        " у",
        "го"
      ],
      [
        "Д",
        "о"
      ],
      [
        " при",
        "зна"
      ],
      [
        "па",
        "д"
      ],
      [
        " поз",
        "во"
      ],
      [
        " тыся",
        "ч"
      ],
      [
        " по",
        "с"
      ],
      [
        " ин",
        "тер"
      ],
      [
        "ч",
        "ем"
      ],
      [
        "з",
        "е"
      ],
      [
        " гла",
        "ва"
      ],
      [
        " переда",
        "ет"
      ],
      [
        " с",
        "пи"
      ],
      [
        " к",
        "ва"
      ],
      [
        "ход",
        "я"
      ],
      [
        " ко",
        "л"
      ],
      [
        " ди",
        "рек"
      ],
      [
        "С",
        "е"
      ],
      [
        "смо",
        "т"
      ],
      [
        "з",
        "о"
      ],
      [
        "че",
        "ство"
      ],
      [
        " об",
        "я"
      ],
      [
        " экс",
        "пер"
      ],
      [
        "з",
        "ан"
      ],
      [
        "ен",
        "а"
      ],
      [
        " между",
        "народ"
      ],
      [
        "ли",
        "м"
      ],
      [
        " тер",
        "рори"
      ],
      [
        "пи",
        "са"
      ],
      [
        "го",
        "тов"
      ],
      [
        "м",
        "ь"
      ],
      [
        "ми",
        "три"
      ],
      [
        "мен",
        "но"
      ],
      [
        "но",
        "ги"
      ],
      [
        " за",
        "пре"
      ],
      [
        "ци",
        "а"
      ],
      [
        "в",
        "ра"
      ],
      [
        "ми",
        "на"
      ],
      [
        " д",
        "ви"
      ],
      [
        " за",
        "коно"
      ],
      [
        " ",
        "$"
      ],
      [
        " б",
        "юд"
      ],
      [
        "ду",
        "к"
      ],
      [
        " е",
        "вро"
      ],
      [
        " пере",
        "д"
      ],
      [
        "ка",
        "я"
      ],
      [
        " про",
        "це"
      ],
      [
        "г",
        "ли"
      ],
      [
        "та",
        "м"
      ],
      [
        "К",
        "а"
      ],
      [
        "К",
        "роме"
      ],
      [
        " т",
        "ру"
      ],
      [
        " ин",
        "тере"
      ],
      [
        "По",
        "сле"
      ],
      [
        "к",
        "ну"
      ],
      [
        " в",
        "ласти"
      ],
      [
        "овы",
        "х"
      ],
      [
        " за",
        "щи"
      ],
      [
        "с",
        "пе"
      ],
      [
        "М",
        "И"
      ],
      [
        " со",
        "ответ"
      ],
      [
        " об",
        "ла"
      ],
      [
        "ло",
        "г"
      ],
      [
        "К",
        "о"
      ],
      [
        " го",
        "ло"
      ],
      [
        "1",
        "6"
      ],
      [
        " ус",
        "лови"
      ],
      [
        " а",
        "виа"
      ],
      [
        "ч",
        "ной"
      ],
      [
        " по",
        "ль"
      ],
      [
        " Т",
        "а"
      ],
      [
        "б",
        "ре"
      ],
      [
        " у",
        "краин"
      ],
      [
        " пер",
        "во"
      ],
      [
        "щ",
        "ение"
      ],
      [
        " де",
        "ка"
      ],
      [
        " ж",
        "урна"
      ],
      [
        " Росси",
        "я"
      ],
      [
        "ходи",
        "т"
      ],
      [
        " го",
        "спо"
      ],
      [
        "o",
        "r"
      ],
      [
        " Моск",
        "ве"
      ],
      [
        "В",
        "се"
      ],
      [
        "ва",
        "ется"
      ],
      [
        " сле",
        "ду"
      ],
      [
        "у",
        "н"
      ],
      [
        "т",
        "ета"
      ],
      [
        " э",
        "та"
      ],
      [
        " де",
        "я"
      ],
      [
        " офи",
        "циаль"
      ],
      [
        "тель",
        "ных"
      ],
      [
        "г",
        "ей"
      ],
      [
        " по",
        "ги"
      ],
      [
        "ти",
        "е"
      ],
      [
        " я",
        "н"
      ],
      [
        " ста",
        "ть"
      ],
      [
        "en",
        "ta"
      ],
      [
        " от",
        "вет"
      ],
      [
        " ре",
        "жи"
      ],
      [
        " те",
        "ле"
      ],
      [
        "т",
        "но"
      ],
      [
        " Т",
        "ур"
      ],
      [
        "в",
        "ан"
      ],
      [
        "ш",
        "ли"
      ],
      [
        " И",
        "н"
      ],
      [
        " ",
        "луч"
      ],
      [
        "за",
        "ции"
      ],
      [
        " до",
        "ма"
      ],
      [
        "ев",
        "ра"
      ],
      [
        " у",
        "вели"
      ],
      [
        " сво",
        "ей"
      ],
      [
        "й",
        "те"
      ],
      [
        "ко",
        "е"
      ],
      [
        "ти",
        "ть"
      ],
      [
        " после",
        "дни"
      ],
      [
        "1",
        "4"
      ],
      [
        " раз",
        "ме"
      ],
      [
        " ста",
        "л"
      ],
      [
        " бо",
        "е"
      ],
      [
        " ",
        "R"
      ],
      [
        "!",
        "\n"
      ],
      [
        "1",
        "7"
      ],
      [
        " а",
        "пре"
      ],
      [
        " ян",
        "ва"
      ],
      [
        " результа",
        "те"
      ],
      [
        "e",
        "s"
      ],
      [
        " в",
        "ме"
      ],
      [
        "овы",
        "е"
      ],
      [
        "стви",
        "е"
      ],
      [
        " Владими",
        "р"
      ],
      [
        " ча",
        "ст"
      ],
      [
        "Т",
        "о"
      ],
      [
        "с",
        "ке"
      ],
      [
        "я",
        "м"
      ],
      [
        " за",
        "клю"
      ],
      [
        " ",
        "G"
      ],
      [
        "сс",
        "е"
      ],
      [
        " до",
        "ба"
      ],
      [
        " ви",
        "де"
      ],
      [
        "вы",
        "е"
      ],
      [
        " б",
        "из"
      ],
      [
        "ш",
        "о"
      ],
      [
        " L",
        "enta"
      ],
      [
        "ан",
        "ди"
      ],
      [
        " со",
        "зд"
      ],
      [
        "й",
        "ти"
      ],
      [
        "сси",
        "и"
      ],
      [
        "ствен",
        "ной"
      ],
      [
        "в",
        "шего"
      ],
      [
        " рабо",
        "ты"
      ],
      [
        " ш",
        "ко"
      ],
      [
        "н",
        "ет"
      ],
      [
        " при",
        "з"
      ],
      [
        "ф",
        "ф"
      ],
      [
        "э",
        "тому"
      ],
      [
        "лен",
        "а"
      ],
      [
        " на",
        "прав"
      ],
      [
        " ф",
        "едера"
      ],
      [
        "А",
        "СС"
      ],
      [
        " долж",
        "ны"
      ],
      [
        "ва",
        "я"
      ],
      [
        " п",
        "лани"
      ],
      [
        " ф",
        "евра"
      ],
      [
        " мен",
        "я"
      ],
      [
        " с",
        "ы"
      ],
      [
        "ру",
        "жи"
      ],
      [
        " мо",
        "ло"
      ],
      [
        "в",
        "ле"
      ],
      [
        " дол",
        "ла"
      ],
      [
        " оче",
        "ред"
      ],
      [
        "о",
        "то"
      ],
      [
        "мо",
        "й"
      ],
      [
        " ст",
        "ран"
      ],
      [
        " кото",
        "рой"
      ],
      [
        " дол",
        "жно"
      ],
      [
        "лим",
        "пи"
      ],
      [
        "2",
        "5"
      ],
      [
        " не",
        "го"
      ],
      [
        " ад",
        "министра"
      ],
      [
        " про",
        "сто"
      ],
      [
        " пров",
        "о"
      ],
      [
        " Д",
        "митри"
      ],
      [
        " сторо",
        "ны"
      ],
      [
        "слу",
        "ж"
      ],
      [
        "М",
        "о"
      ],
      [
        "п",
        "ло"
      ],
      [
        "ст",
        "рой"
      ],
      [
        "се",
        "да"
      ],
      [
        "ем",
        "а"
      ],
      [
        " безопас",
        "ности"
      ],
      [
        "пре",
        "де"
      ],
      [
        "ствен",
        "ного"
      ],
      [
        " с",
        "ро"
      ],
      [
        " лю",
        "дей"
      ],
      [
        " ",
        "P"
      ],
      [
        " ",
        "ци"
      ],
      [
        "ша",
        "я"
      ],
      [
        "a",
        "r"
      ],
      [
        "ни",
        "е"
      ],
      [
        " свя",
        "зи"
      ],
      [
        " к",
        "реди"
      ],
      [
        " му",
        "ж"
      ],
      [
        " и",
        "ск"
      ],
      [
        "то",
        "н"
      ],
      [
        " произ",
        "вод"
      ],
      [
        " ",
        "ему"
      ],
      [
        "г",
        "ан"
      ],
      [
        "ди",
        "ть"
      ],
      [
        " но",
        "я"
      ],
      [
        " ак",
        "тив"
      ],
      [
        "П",
        "ре"
      ],
      [
        " по",
        "каза"
      ],
      [
        " ма",
        "т"
      ],
      [
        " де",
        "ло"
      ],
      [
        "щи",
        "х"
      ],
      [
        " необходи",
        "мо"
      ],
      [
        "чи",
        "ть"
      ],
      [
        "гра",
        "ни"
      ],
      [
        "ы",
        "х"
      ],
      [
        " други",
        "х"
      ],
      [
        "пом",
        "ним"
      ],
      [
        "пу",
        "сти"
      ],
      [
        "1",
        "3"
      ],
      [
        "г",
        "ре"
      ],
      [
        " под",
        "держ"
      ],
      [
        "И",
        "А"
      ],
      [
        "п",
        "ей"
      ],
      [
        " э",
        "лек"
      ],
      [
        " Г",
        "ос"
      ],
      [
        " го",
        "род"
      ],
      [
        " испо",
        "л"
      ],
      [
        " кон",
        "ку"
      ],
      [
        "та",
        "ли"
      ],
      [
        " ре",
        "ши"
      ],
      [
        "дер",
        "жи"
      ],
      [
        " об",
        "су"
      ],
      [
        " уго",
        "лов"
      ],
      [
        "ес",
        "пе"
      ],
      [
        "се",
        "д"
      ],
      [
        " случа",
        "е"
      ],
      [
        "\"",
        "\n"
      ],
      [
        " по",
        "тре"
      ],
      [
        " б",
        "и"
      ],
      [
        " со",
        "зда"
      ],
      [
        " слу",
        "ж"
      ],
      [
        "во",
        "з"
      ],
      [
        "ци",
        "али"
      ],
      [
        "ф",
        "ер"
      ],
      [
        " ра",
        "нее"
      ],
      [
        " ",
        "ше"
      ],
      [
        "Р",
        "е"
      ],
      [
        " помо",
        "щ"
      ],
      [
        " и",
        "но"
      ],
      [
        " про",
        "д"
      ],
      [
        " про",
        "дук"
      ],
      [
        " дея",
        "тель"
      ],
      [
        "На",
        "помним"
      ],
      [
        "ет",
        "ер"
      ],
      [
        " со",
        "стави"
      ],
      [
        " обра",
        "з"
      ],
      [
        " на",
        "стоя"
      ],
      [
        " до",
        "гово"
      ],
      [
        " су",
        "ще"
      ],
      [
        " б",
        "лаго"
      ],
      [
        " не",
        "за"
      ],
      [
        " ча",
        "сть"
      ],
      [
        " В",
        "и"
      ],
      [
        " вопро",
        "с"
      ],
      [
        " террито",
        "рии"
      ],
      [
        "при",
        "мер"
      ],
      [
        "х",
        "рани"
      ],
      [
        " ми",
        "ра"
      ],
      [
        " продол",
        "жа"
      ],
      [
        "ани",
        "ем"
      ],
      [
        " у",
        "ли"
      ],
      [
        " с",
        "бор"
      ],
      [
        "ут",
        "бо"
      ],
      [
        " по",
        "зи"
      ],
      [
        "Б",
        "о"
      ],
      [
        " исто",
        "ч"
      ],
      [
        " у",
        "би"
      ],
      [
        " фи",
        "ль"
      ],
      [
        " про",
        "ис"
      ],
      [
        " ка",
        "че"
      ],
      [
        " пра",
        "в"
      ],
      [
        " челове",
        "ка"
      ],
      [
        "ши",
        "е"
      ],
      [
        " расс",
        "казал"
      ],
      [
        "анди",
        "да"
      ],
      [
        " кон",
        "тро"
      ],
      [
        " жиз",
        "ни"
      ],
      [
        "В",
        "ы"
      ],
      [
        " н",
        "ово"
      ],
      [
        "тиче",
        "ски"
      ],
      [
        "ки",
        "н"
      ],
      [
        "ы",
        "ре"
      ],
      [
        " про",
        "цен"
      ],
      [
        " ",
        "Ж"
      ],
      [
        "ра",
        "зи"
      ],
      [
        " ус",
        "пе"
      ],
      [
        "пер",
        "ь"
      ],
      [
        "к",
        "та"
      ],
      [
        " под",
        "чер"
      ],
      [
        " пред",
        "по"
      ],
      [
        " з",
        "д"
      ],
      [
        " об",
        "еспе"
      ],
      [
        "ди",
        "тель"
      ],
      [
        " дру",
        "го"
      ],
      [
        " с",
        "каза"
      ],
      [
        " ",
        "ана"
      ],
      [
        " пре",
        "до"
      ],
      [
        " В",
        "е"
      ],
      [
        "су",
        "т"
      ],
      [
        " мар",
        "та"
      ],
      [
        " ",
        "ла"
      ],
      [
        "Г",
        "ла"
      ],
      [
        " г",
        "у"
      ],
      [
        "ствен",
        "но"
      ],
      [
        "Д",
        "а"
      ],
      [
        "р",
        "ту"
      ],
      [
        " организа",
        "ции"
      ],
      [
        " п",
        "лан"
      ],
      [
        " жен",
        "щи"
      ],
      [
        " ве",
        "дом"
      ],
      [
        " пе",
        "ри"
      ],
      [
        " ч",
        "у"
      ],
      [
        "ль",
        "ные"
      ],
      [
        " не",
        "ко"
      ],
      [
        " ра",
        "спо"
      ],
      [
        " то",
        "рг"
      ],
      [
        " хо",
        "де"
      ],
      [
        "пол",
        "ни"
      ],
      [
        " которо",
        "го"
      ],
      [
        " Сер",
        "гей"
      ],
      [
        " ли",
        "шь"
      ],
      [
        " на",
        "зыва"
      ],
      [
        " м",
        "нению"
      ],
      [
        " россий",
        "ских"
      ],
      [
        "ра",
        "ви"
      ],
      [
        "ле",
        "з"
      ],
      [
        "ст",
        "рук"
      ],
      [
        "ров",
        "ания"
      ],
      [
        "пы",
        "т"
      ],
      [
        "ри",
        "ю"
      ],
      [
        " матери",
        "а"
      ],
      [
        "к",
        "ти"
      ],
      [
        " хо",
        "ро"
      ],
      [
        " счита",
        "ет"
      ],
      [
        "то",
        "й"
      ],
      [
        "a",
        "l"
      ],
      [
        " комп",
        "ания"
      ],
      [
        "та",
        "ми"
      ],
      [
        " само",
        "лет"
      ],
      [
        "2",
        "4"
      ],
      [
        " со",
        "циаль"
      ],
      [
        "и",
        "ть"
      ],
      [
        "со",
        "м"
      ],
      [
        " говори",
        "т"
      ],
      [
        " де",
        "ся"
      ],
      [
        " ",
        "ша"
      ],
      [
        "де",
        "л"
      ],
      [
        "то",
        "ров"
      ],
      [
        " пло",
        "ща"
      ],
      [
        "м",
        "ов"
      ],
      [
        " пре",
        "ступ"
      ],
      [
        "ы",
        "е"
      ],
      [
        "щ",
        "ем"
      ],
      [
        "тель",
        "ные"
      ],
      [
        "ство",
        "м"
      ],
      [
        "ско",
        "му"
      ],
      [
        " мо",
        "мент"
      ],
      [
        " ну",
        "жно"
      ],
      [
        "ру",
        "ю"
      ],
      [
        "тель",
        "ной"
      ],
      [
        "ч",
        "ки"
      ],
      [
        " свои",
        "х"
      ],
      [
        "те",
        "м"
      ],
      [
        " ",
        "ц"
      ],
      [
        " за",
        "ме"
      ],
      [
        "ин",
        "ов"
      ],
      [
        " Д",
        "ж"
      ],
      [
        "ствен",
        "ных"
      ],
      [
        "то",
        "к"
      ],
      [
        " к",
        "андида"
      ],
      [
        " ф",
        "он"
      ],
      [
        "ща",
        "я"
      ],
      [
        " ста",
        "ло"
      ],
      [
        "ч",
        "ных"
      ],
      [
        " Моск",
        "вы"
      ],
      [
        "е",
        "дин"
      ],
      [
        " пре",
        "ду"
      ],
      [
        " под",
        "твер"
      ],
      [
        "с",
        "ло"
      ],
      [
        " о",
        "су"
      ],
      [
        "сти",
        "ту"
      ],
      [
        " со",
        "кра"
      ],
      [
        " Р",
        "а"
      ],
      [
        " дей",
        "стви"
      ],
      [
        " м",
        "ноги"
      ],
      [
        " су",
        "м"
      ],
      [
        "ро",
        "ны"
      ],
      [
        " ме",
        "ди"
      ],
      [
        "Так",
        "же"
      ],
      [
        "ь",
        "е"
      ],
      [
        "ен",
        "но"
      ],
      [
        "М",
        "и"
      ],
      [
        " м",
        "ене"
      ],
      [
        " Ново",
        "сти"
      ],
      [
        "ло",
        "н"
      ],
      [
        " С",
        "МИ"
      ],
      [
        " Г",
        "о"
      ],
      [
        " по",
        "да"
      ],
      [
        " на",
        "се"
      ],
      [
        " тран",
        "спо"
      ],
      [
        "ля",
        "р"
      ],
      [
        " Ф",
        "едера"
      ],
      [
        "ц",
        "ей"
      ],
      [
        "щ",
        "ении"
      ],
      [
        " к",
        "ур"
      ],
      [
        "ту",
        "р"
      ],
      [
        " Б",
        "е"
      ],
      [
        " с",
        "ек"
      ],
      [
        "ло",
        "жен"
      ],
      [
        " журна",
        "ли"
      ],
      [
        "е",
        "ха"
      ],
      [
        " с",
        "чет"
      ],
      [
        "ен",
        "си"
      ],
      [
        "т",
        "ных"
      ],
      [
        " поли",
        "тиче"
      ],
      [
        " о",
        "жи"
      ],
      [
        " со",
        "ставля"
      ],
      [
        "l",
        "e"
      ],
      [
        " К",
        "ры"
      ],
      [
        "с",
        "публи"
      ],
      [
        " та",
        "м"
      ],
      [
        "Се",
        "годня"
      ],
      [
        "т",
        "ан"
      ],
      [
        " по",
        "яви"
      ],
      [
        " полу",
        "ча"
      ],
      [
        "етер",
        "бур"
      ],
      [
        " кон",
        "це"
      ],
      [
        " у",
        "ни"
      ],
      [
        "ству",
        "ет"
      ],
      [
        " отно",
        "шении"
      ],
      [
        " чет",
        "ыре"
      ],
      [
        " Л",
        "а"
      ],
      [
        " доба",
        "ви"
      ],
      [
        " до",
        "сти"
      ],
      [
        "ши",
        "й"
      ],
      [
        " чет",
        "вер"
      ],
      [
        " поч",
        "ти"
      ],
      [
        " п",
        "овы"
      ],
      [
        " ко",
        "ли"
      ],
      [
        " пар",
        "тии"
      ],
      [
        " об",
        "на"
      ],
      [
        "щи",
        "й"
      ],
      [
        "на",
        "д"
      ],
      [
        "че",
        "ские"
      ],
      [
        " ра",
        "м"
      ],
      [
        " зна",
        "чи"
      ],
      [
        "де",
        "сь"
      ],
      [
        " на",
        "у"
      ],
      [
        " сле",
        "д"
      ],
      [
        " объ",
        "ек"
      ],
      [
        "ш",
        "ений"
      ],
      [
        "Д",
        "ля"
      ],
      [
        "ер",
        "ов"
      ],
      [
        " п",
        "ы"
      ],
      [
        " под",
        "готов"
      ],
      [
        " ",
        "ри"
      ],
      [
        " по",
        "ку"
      ],
      [
        "ни",
        "цу"
      ],
      [
        "в",
        "ания"
      ],
      [
        " ф",
        "утбо"
      ],
      [
        " пар",
        "ла"
      ],
      [
        " спо",
        "соб"
      ],
      [
        " и",
        "менно"
      ],
      [
        "ни",
        "х"
      ],
      [
        "ди",
        "и"
      ],
      [
        "до",
        "й"
      ],
      [
        "лен",
        "о"
      ],
      [
        "пра",
        "вля"
      ],
      [
        " О",
        "О"
      ],
      [
        " ре",
        "спубли"
      ],
      [
        " дет",
        "ей"
      ],
      [
        " Т",
        "АСС"
      ],
      [
        " после",
        "д"
      ],
      [
        "и",
        "м"
      ],
      [
        "ч",
        "ный"
      ],
      [
        " стра",
        "не"
      ],
      [
        " Гос",
        "ду"
      ],
      [
        " Александ",
        "р"
      ],
      [
        "2",
        "2"
      ],
      [
        "ди",
        "на"
      ],
      [
        " за",
        "держ"
      ],
      [
        "вши",
        "е"
      ],
      [
        "у",
        "д"
      ],
      [
        " в",
        "ра"
      ],
      [
        "i",
        "t"
      ],
      [
        " Т",
        "рам"
      ],
      [
        "рова",
        "л"
      ],
      [
        "рова",
        "ли"
      ],
      [
        " сов",
        "ет"
      ],
      [
        "ч",
        "ные"
      ],
      [
        " ча",
        "сти"
      ],
      [
        " лю",
        "ди"
      ],
      [
        " А",
        "р"
      ],
      [
        " пере",
        "гово"
      ],
      [
        "ро",
        "по"
      ],
      [
        " ",
        "N"
      ],
      [
        " з",
        "ем"
      ],
      [
        " бу",
        "ду"
      ],
      [
        " апре",
        "ля"
      ],
      [
        "П",
        "ред"
      ],
      [
        " д",
        "аль"
      ],
      [
        "ти",
        "во"
      ],
      [
        "ро",
        "т"
      ],
      [
        "вы",
        "х"
      ],
      [
        "ст",
        "ана"
      ],
      [
        " говори",
        "тся"
      ],
      [
        "Ч",
        "то"
      ],
      [
        "ен",
        "ы"
      ],
      [
        " н",
        "ор"
      ],
      [
        "ту",
        "ра"
      ],
      [
        " сен",
        "тября"
      ],
      [
        " с",
        "сы"
      ],
      [
        " ",
        "W"
      ],
      [
        "ра",
        "зу"
      ],
      [
        " к",
        "ли"
      ],
      [
        "па",
        "ра"
      ],
      [
        " од",
        "нако"
      ],
      [
        " ре",
        "али"
      ],
      [
        "ене",
        "ра"
      ],
      [
        "б",
        "ан"
      ],
      [
        " за",
        "ко"
      ],
      [
        "%",
        ".\n"
      ],
      [
        "та",
        "р"
      ],
      [
        " С",
        "е"
      ],
      [
        " гла",
        "вы"
      ],
      [
        " государ",
        "ства"
      ],
      [
        " к",
        "лу"
      ],
      [
        " ав",
        "гу"
      ],
      [
        " Ан",
        "д"
      ],
      [
        " пре",
        "мь"
      ],
      [
        "Р",
        "а"
      ],
      [
        "я",
        "вля"
      ],
      [
        "га",
        "м"
      ],
      [
        " элек",
        "тро"
      ],
      [
        "си",
        "ли"
      ],
      [
        "ер",
        "т"
      ],
      [
        "ви",
        "си"
      ],
      [
        " Пу",
        "тин"
      ],
      [
        " о",
        "г"
      ],
      [
        "ни",
        "я"
      ],
      [
        "ру",
        "г"
      ],
      [
        " пре",
        "кра"
      ],
      [
        " об",
        "ы"
      ],
      [
        "н",
        "ю"
      ],
      [
        "ж",
        "у"
      ],
      [
        " пров",
        "ер"
      ],
      [
        " ста",
        "ли"
      ],
      [
        "ст",
        "я"
      ],
      [
        " в",
        "клю"
      ],
      [
        " з",
        "ан"
      ],
      [
        "стра",
        "да"
      ],
      [
        " С",
        "ов"
      ],
      [
        " за",
        "кон"
      ],
      [
        " из",
        "мен"
      ],
      [
        " ро",
        "ссия"
      ],
      [
        "ч",
        "ного"
      ],
      [
        "ски",
        "ми"
      ],
      [
        "пи",
        "с"
      ],
      [
        "ь",
        "ез"
      ],
      [
        " и",
        "г"
      ],
      [
        "б",
        "ен"
      ],
      [
        " и",
        "сс"
      ],
      [
        "к",
        "т"
      ],
      [
        " рам",
        "ках"
      ],
      [
        "ро",
        "б"
      ],
      [
        " у",
        "твер"
      ],
      [
        "с",
        "мен"
      ],
      [
        "ня",
        "ть"
      ],
      [
        " сообщи",
        "ли"
      ],
      [
        "н",
        "ение"
      ],
      [
        " за",
        "вер"
      ],
      [
        "чен",
        "ко"
      ],
      [
        " прави",
        "тельства"
      ],
      [
        " стра",
        "на"
      ],
      [
        "-",
        "служ"
      ],
      [
        " дол",
        "жен"
      ],
      [
        " руково",
        "д"
      ],
      [
        " чемпи",
        "она"
      ],
      [
        " пред",
        "прия"
      ],
      [
        "но",
        "логи"
      ],
      [
        "ур",
        "ман"
      ],
      [
        " ку",
        "ль"
      ],
      [
        " на",
        "м"
      ],
      [
        " пров",
        "ед"
      ],
      [
        "1",
        "00"
      ],
      [
        " спо",
        "рт"
      ],
      [
        " доку",
        "мен"
      ],
      [
        "В",
        "е"
      ],
      [
        "По",
        "д"
      ],
      [
        " са",
        "м"
      ],
      [
        "ст",
        "ри"
      ],
      [
        "-",
        "пре"
      ],
      [
        "Г",
        "аз"
      ],
      [
        " на",
        "зна"
      ],
      [
        "по",
        "зи"
      ],
      [
        "л",
        "ению"
      ],
      [
        " су",
        "б"
      ],
      [
        "М",
        "е"
      ],
      [
        "и",
        "ли"
      ],
      [
        " у",
        "ч"
      ],
      [
        "ши",
        "м"
      ],
      [
        " ре",
        "й"
      ],
      [
        "б",
        "лю"
      ],
      [
        "ше",
        "е"
      ],
      [
        " ан",
        "ти"
      ],
      [
        " от",
        "каза"
      ],
      [
        " иск",
        "лю"
      ],
      [
        " при",
        "чи"
      ],
      [
        "ва",
        "ться"
      ],
      [
        " и",
        "дет"
      ],
      [
        " ино",
        "стран"
      ],
      [
        " с",
        "анк"
      ],
      [
        " о",
        "преде"
      ],
      [
        "ди",
        "л"
      ],
      [
        "мы",
        "ш"
      ],
      [
        " од",
        "ной"
      ],
      [
        " участи",
        "е"
      ],
      [
        " февра",
        "ля"
      ],
      [
        " Л",
        "и"
      ],
      [
        " финан",
        "с"
      ],
      [
        " т",
        "я"
      ],
      [
        "ак",
        "си"
      ],
      [
        "o",
        "o"
      ],
      [
        "О",
        "ни"
      ],
      [
        " сво",
        "бо"
      ],
      [
        "ри",
        "н"
      ],
      [
        " не",
        "до"
      ],
      [
        "во",
        "р"
      ],
      [
        " при",
        "мер"
      ],
      [
        ".",
        ","
      ],
      [
        "4",
        "0"
      ],
      [
        " цен",
        "тра"
      ],
      [
        " Ф",
        "ран"
      ],
      [
        " ос",
        "об"
      ],
      [
        " подчер",
        "кну"
      ],
      [
        "М",
        "а"
      ],
      [
        "ф",
        "а"
      ],
      [
        "ко",
        "ла"
      ],
      [
        "че",
        "го"
      ],
      [
        " Росси",
        "й"
      ],
      [
        " образ",
        "ом"
      ],
      [
        " спе",
        "циали"
      ],
      [
        " бо",
        "рь"
      ],
      [
        "ви",
        "д"
      ],
      [
        "те",
        "лем"
      ],
      [
        "чи",
        "ты"
      ],
      [
        " мене",
        "е"
      ],
      [
        " ",
        "ло"
      ],
      [
        " п",
        "я"
      ],
      [
        " врем",
        "ени"
      ],
      [
        " пред",
        "седа"
      ],
      [
        " по",
        "па"
      ],
      [
        " од",
        "ного"
      ],
      [
        "ч",
        "ей"
      ],
      [
        " подо",
        "з"
      ],
      [
        "t",
        "er"
      ],
      [
        "за",
        "д"
      ],
      [
        "Т",
        "е"
      ],
      [
        " дека",
        "бря"
      ],
      [
        " о",
        "грани"
      ],
      [
        "ре",
        "в"
      ],
      [
        "жа",
        "й"
      ],
      [
        " ноя",
        "бря"
      ],
      [
        " г",
        "ру"
      ],
      [
        "ра",
        "ми"
      ],
      [
        "Г",
        "о"
      ],
      [
        " ма",
        "ши"
      ],
      [
        " м",
        "ет"
      ],
      [
        "па",
        "рта"
      ],
      [
        " ок",
        "тября"
      ],
      [
        " разви",
        "тия"
      ],
      [
        " при",
        "нима"
      ],
      [
        " не",
        "м"
      ],
      [
        " ко",
        "не"
      ],
      [
        " про",
        "ку"
      ],
      [
        " обя",
        "за"
      ],
      [
        "П",
        "ер"
      ],
      [
        "h",
        "e"
      ],
      [
        " та",
        "кой"
      ],
      [
        " ни",
        "ка"
      ],
      [
        " информа",
        "ции"
      ],
      [
        " ре",
        "з"
      ],
      [
        " на",
        "зад"
      ],
      [
        " на",
        "циональ"
      ],
      [
        "ма",
        "три"
      ],
      [
        "ну",
        "ть"
      ],
      [
        " раз",
        "рабо"
      ],
      [
        " возможно",
        "сть"
      ],
      [
        "че",
        "ский"
      ],
      [
        " реги",
        "она"
      ],
      [
        "фф",
        "ек"
      ],
      [
        " неко",
        "торы"
      ],
      [
        " вы",
        "пол"
      ],
      [
        "ствова",
        "ть"
      ],
      [
        " Дмитри",
        "й"
      ],
      [
        "%",
        ","
      ],
      [
        " за",
        "сед"
      ],
      [
        " янва",
        "ря"
      ],
      [
        "г",
        "ля"
      ],
      [
        "хо",
        "да"
      ],
      [
        " представи",
        "тель"
      ],
      [
        " с",
        "ре"
      ],
      [
        "т",
        "ет"
      ],
      [
        "ю",
        "щего"
      ],
      [
        " ин",
        "ф"
      ],
      [
        " ма",
        "я"
      ],
      [
        " други",
        "е"
      ],
      [
        " о",
        "публи"
      ],
      [
        "c",
        "e"
      ],
      [
        "в",
        "ен"
      ],
      [
        " пы",
        "та"
      ],
      [
        "С",
        "ейчас"
      ],
      [
        "зиден",
        "т"
      ],
      [
        "2",
        "1"
      ],
      [
        "ре",
        "ц"
      ],
      [
        "ж",
        "ных"
      ],
      [
        "л",
        "ют"
      ],
      [
        " ",
        "ря"
      ],
      [
        " ро",
        "ди"
      ],
      [
        " эти",
        "х"
      ],
      [
        "В",
        "Д"
      ],
      [
        "с",
        "ова"
      ],
      [
        " про",
        "тиво"
      ],
      [
        "г",
        "но"
      ],
      [
        " Ми",
        "ха"
      ],
      [
        " по",
        "страда"
      ],
      [
        "ер",
        "м"
      ],
      [
        "тель",
        "ного"
      ],
      [
        "мыш",
        "лен"
      ],
      [
        " Р",
        "у"
      ],
      [
        " в",
        "ремен"
      ],
      [
        "тель",
        "ный"
      ],
      [
        " реги",
        "ональ"
      ],
      [
        "л",
        "кой"
      ],
      [
        " бюд",
        "жет"
      ],
      [
        "2",
        "8"
      ],
      [
        " а",
        "ре"
      ],
      [
        " се",
        "бе"
      ],
      [
        " дей",
        "ствия"
      ],
      [
        " управ",
        "ления"
      ],
      [
        " сер",
        "ьез"
      ],
      [
        " сред",
        "ств"
      ],
      [
        "ти",
        "на"
      ],
      [
        " а",
        "э"
      ],
      [
        " ок",
        "ру"
      ],
      [
        " россий",
        "ского"
      ],
      [
        " Ц",
        "ен"
      ],
      [
        " и",
        "гра"
      ],
      [
        "та",
        "х"
      ],
      [
        " у",
        "гро"
      ],
      [
        "к",
        "ет"
      ],
      [
        "м",
        "я"
      ],
      [
        "ри",
        "л"
      ],
      [
        " соб",
        "ствен"
      ],
      [
        "ов",
        "е"
      ],
      [
        "2",
        "3"
      ],
      [
        " за",
        "да"
      ],
      [
        " ра",
        "ди"
      ],
      [
        "гра",
        "фи"
      ],
      [
        "19",
        "9"
      ],
      [
        "ди",
        "ли"
      ],
      [
        " при",
        "бы"
      ],
      [
        " кон",
        "ф"
      ],
      [
        " поги",
        "б"
      ],
      [
        " ш",
        "та"
      ],
      [
        " г",
        "и"
      ],
      [
        " рабо",
        "ту"
      ],
      [
        "ан",
        "ов"
      ],
      [
        "но",
        "к"
      ],
      [
        " е",
        "ди"
      ],
      [
        "теля",
        "м"
      ],
      [
        " Тур",
        "ции"
      ],
      [
        "ю",
        "щей"
      ],
      [
        "ни",
        "л"
      ],
      [
        "ж",
        "ной"
      ],
      [
        " тре",
        "х"
      ],
      [
        " с",
        "реди"
      ],
      [
        "мо",
        "н"
      ],
      [
        "до",
        "ров"
      ],
      [
        "во",
        "бо"
      ],
      [
        " долла",
        "ров"
      ],
      [
        "ш",
        "ло"
      ],
      [
        "ш",
        "ем"
      ],
      [
        "ни",
        "цы"
      ],
      [
        "мо",
        "м"
      ],
      [
        " по",
        "тому"
      ],
      [
        " ка",
        "р"
      ],
      [
        "пи",
        "н"
      ],
      [
        " первы",
        "й"
      ],
      [
        " на",
        "до"
      ],
      [
        " к",
        "ла"
      ],
      [
        " то",
        "же"
      ],
      [
        " Г",
        "а"
      ],
      [
        " ",
        "ти"
      ],
      [
        "ц",
        "ени"
      ],
      [
        " пред",
        "лага"
      ],
      [
        " сво",
        "й"
      ],
      [
        " на",
        "де"
      ],
      [
        " т",
        "ур"
      ],
      [
        "бер",
        "на"
      ],
      [
        "му",
        "ще"
      ],
      [
        "не",
        "ш"
      ],
      [
        " у",
        "вер"
      ],
      [
        "ющи",
        "м"
      ],
      [
        " спе",
        "циаль"
      ],
      [
        " на",
        "мер"
      ],
      [
        "х",
        "ва"
      ],
      [
        " з",
        "о"
      ],
      [
        "и",
        "тся"
      ],
      [
        "ле",
        "га"
      ],
      [
        "овы",
        "й"
      ],
      [
        " г",
        "е"
      ],
      [
        " част",
        "ности"
      ],
      [
        " п",
        "енси"
      ],
      [
        " по",
        "ясни"
      ],
      [
        " Е",
        "С"
      ],
      [
        "a",
        "t"
      ],
      [
        "ш",
        "ла"
      ],
      [
        " в",
        "ним"
      ],
      [
        "ми",
        "и"
      ],
      [
        " уда",
        "лось"
      ],
      [
        "во",
        "е"
      ],
      [
        "д",
        "ж"
      ],
      [
        "зи",
        "и"
      ],
      [
        "2",
        "7"
      ],
      [
        "ри",
        "ть"
      ],
      [
        " ч",
        "лен"
      ],
      [
        "до",
        "б"
      ],
      [
        " пред",
        "лож"
      ],
      [
        " сто",
        "ли"
      ],
      [
        " до",
        "ста"
      ],
      [
        " Р",
        "ИА"
      ],
      [
        " рабо",
        "т"
      ],
      [
        " ссы",
        "лкой"
      ],
      [
        "к",
        "то"
      ],
      [
        " Л",
        "е"
      ],
      [
        " рай",
        "оне"
      ],
      [
        "д",
        "ви"
      ],
      [
        "ж",
        "ды"
      ],
      [
        "r",
        "o"
      ],
      [
        "про",
        "ек"
      ],
      [
        "ли",
        "чи"
      ],
      [
        " м",
        "не"
      ],
      [
        "ча",
        "ст"
      ],
      [
        " ре",
        "гу"
      ],
      [
        " свое",
        "го"
      ],
      [
        " ре",
        "ко"
      ],
      [
        " то",
        "т"
      ],
      [
        " ситуа",
        "ции"
      ],
      [
        "в",
        "ание"
      ],
      [
        "К",
        "ом"
      ],
      [
        "й",
        "дет"
      ],
      [
        " ин",
        "вести"
      ],
      [
        "пу",
        "ска"
      ],
      [
        " сто",
        "имо"
      ],
      [
        " ",
        "D"
      ],
      [
        " ",
        "ха"
      ],
      [
        "..",
        "."
      ],
      [
        " бли",
        "жай"
      ],
      [
        " об",
        "е"
      ],
      [
        " которо",
        "е"
      ],
      [
        " ме",
        "ста"
      ],
      [
        " ли",
        "дер"
      ],
      [
        "лимпи",
        "й"
      ],
      [
        "об",
        "е"
      ],
      [
        "фер",
        "ен"
      ],
      [
        " с",
        "ез"
      ],
      [
        " М",
        "ар"
      ],
      [
        "2",
        "6"
      ],
      [
        "ру",
        "ют"
      ],
      [
        " вз",
        "ры"
      ],
      [
        "к",
        "си"
      ],
      [
        " то",
        "гда"
      ],
      [
        " те",
        "чение"
      ],
      [
        " пу",
        "бли"
      ],
      [
        "ня",
        "я"
      ],
      [
        "ре",
        "с"
      ],
      [
        " д",
        "ня"
      ],
      [
        " во",
        "т"
      ],
      [
        " з",
        "десь"
      ],
      [
        " и",
        "де"
      ],
      [
        "сса",
        "жи"
      ],
      [
        " М",
        "е"
      ],
      [
        "жд",
        "ение"
      ],
      [
        " э",
        "нер"
      ],
      [
        "..",
        ".\n"
      ],
      [
        " груп",
        "пы"
      ],
      [
        " очеред",
        "ь"
      ],
      [
        "на",
        "ча"
      ],
      [
        " с",
        "рав"
      ],
      [
        "при",
        "нима"
      ],
      [
        " тре",
        "бов"
      ],
      [
        " вер",
        "си"
      ],
      [
        " зан",
        "я"
      ],
      [
        "Т",
        "О"
      ],
      [
        " за",
        "кры"
      ],
      [
        "р",
        "ю"
      ],
      [
        "ше",
        "д"
      ],
      [
        " о",
        "цен"
      ],
      [
        "ми",
        "р"
      ],
      [
        " вме",
        "сте"
      ],
      [
        " кон",
        "тра"
      ],
      [
        " расс",
        "ледов"
      ],
      [
        "п",
        "ании"
      ],
      [
        " К",
        "он"
      ],
      [
        " го",
        "с"
      ],
      [
        "чи",
        "л"
      ],
      [
        " н",
        "ы"
      ],
      [
        "ни",
        "ца"
      ],
      [
        " законо",
        "да"
      ],
      [
        "зов",
        "ания"
      ],
      [
        " извест",
        "но"
      ],
      [
        " ре",
        "бен"
      ],
      [
        " м",
        "ень"
      ],
      [
        " ми",
        "ну"
      ],
      [
        "стви",
        "и"
      ],
      [
        " с",
        "ло"
      ],
      [
        " заме",
        "сти"
      ],
      [
        "ш",
        "ки"
      ],
      [
        " со",
        "бира"
      ],
      [
        "ж",
        "ении"
      ],
      [
        " день",
        "ги"
      ],
      [
        " ожи",
        "да"
      ],
      [
        " ли",
        "ц"
      ],
      [
        " поли",
        "ции"
      ],
      [
        " тре",
        "ть"
      ],
      [
        " Д",
        "а"
      ],
      [
        "ез",
        "д"
      ],
      [
        " д",
        "ене"
      ],
      [
        "лен",
        "ных"
      ],
      [
        " те",
        "перь"
      ],
      [
        " и",
        "ни"
      ],
      [
        " спорт",
        "смен"
      ],
      [
        "б",
        "ро"
      ],
      [
        "ет",
        "ь"
      ],
      [
        "ско",
        "ль"
      ],
      [
        " ле",
        "г"
      ],
      [
        " находи",
        "тся"
      ],
      [
        "ро",
        "прия"
      ],
      [
        "пи",
        "та"
      ],
      [
        "фи",
        "ци"
      ],
      [
        "мо",
        "сти"
      ],
      [
        " с",
        "мер"
      ],
      [
        " вы",
        "ступа"
      ],
      [
        " ста",
        "ла"
      ],
      [
        " про",
        "фе"
      ],
      [
        " голо",
        "сов"
      ],
      [
        "д",
        "ан"
      ],
      [
        "ме",
        "ст"
      ],
      [
        "ч",
        "ка"
      ],
      [
        "Д",
        "е"
      ],
      [
        " по",
        "р"
      ],
      [
        " при",
        "вле"
      ],
      [
        " П",
        "ет"
      ],
      [
        "2",
        "9"
      ],
      [
        "ем",
        "е"
      ],
      [
        " сист",
        "емы"
      ],
      [
        " проек",
        "т"
      ],
      [
        " пред",
        "ложи"
      ],
      [
        " пра",
        "ва"
      ],
      [
        "ви",
        "дет"
      ],
      [
        "ш",
        "ой"
      ],
      [
        " с",
        "разу"
      ],
      [
        "теля",
        "ми"
      ],
      [
        "Р",
        "у"
      ],
      [
        " нача",
        "ла"
      ],
      [
        "ку",
        "ю"
      ],
      [
        " су",
        "да"
      ],
      [
        " тех",
        "нологи"
      ],
      [
        " по",
        "став"
      ],
      [
        "че",
        "ра"
      ],
      [
        "п",
        "рово"
      ],
      [
        " И",
        "з"
      ],
      [
        "ле",
        "в"
      ],
      [
        "ру",
        "ется"
      ],
      [
        " т",
        "ова"
      ],
      [
        " евро",
        "пей"
      ],
      [
        " э",
        "ту"
      ],
      [
        "б",
        "ова"
      ],
      [
        "г",
        "ов"
      ],
      [
        "л",
        "ением"
      ],
      [
        "сла",
        "в"
      ],
      [
        " из",
        "бира"
      ],
      [
        "Ро",
        "ссия"
      ],
      [
        " ст",
        "ре"
      ],
      [
        "ствен",
        "ный"
      ],
      [
        " расс",
        "каза"
      ],
      [
        "ли",
        "т"
      ],
      [
        "щи",
        "е"
      ],
      [
        " та",
        "ких"
      ],
      [
        " все",
        "гда"
      ],
      [
        " од",
        "но"
      ],
      [
        " су",
        "де"
      ],
      [
        " ",
        "E"
      ],
      [
        "шен",
        "ко"
      ],
      [
        " М",
        "урман"
      ],
      [
        " произ",
        "води"
      ],
      [
        " подо",
        "б"
      ],
      [
        "л",
        "ений"
      ],
      [
        " н",
        "ового"
      ],
      [
        " пу",
        "н"
      ],
      [
        "ова",
        "я"
      ],
      [
        "емы",
        "х"
      ],
      [
        " ки",
        "но"
      ],
      [
        " до",
        "полни"
      ],
      [
        "ль",
        "ным"
      ],
      [
        " биз",
        "нес"
      ],
      [
        " ре",
        "аль"
      ],
      [
        "ре",
        "ва"
      ],
      [
        " ф",
        "ото"
      ],
      [
        " кото",
        "ром"
      ],
      [
        " сред",
        "ства"
      ],
      [
        " коми",
        "тета"
      ],
      [
        " пар",
        "т"
      ],
      [
        " новы",
        "х"
      ],
      [
        "та",
        "ть"
      ],
      [
        " эти",
        "м"
      ],
      [
        "бо",
        "ль"
      ],
      [
        " ус",
        "лу"
      ],
      [
        " у",
        "точ"
      ],
      [
        "ди",
        "т"
      ],
      [
        "Б",
        "а"
      ],
      [
        "ц",
        "ов"
      ],
      [
        " э",
        "ффек"
      ],
      [
        " вы",
        "пла"
      ],
      [
        " ру",
        "сс"
      ],
      [
        " Ч",
        "е"
      ],
      [
        " конф",
        "ли"
      ],
      [
        "фи",
        "ка"
      ],
      [
        "а",
        "т"
      ],
      [
        "ф",
        "ак"
      ],
      [
        " на",
        "блю"
      ],
      [
        "сс",
        "о"
      ],
      [
        "ци",
        "н"
      ],
      [
        "мен",
        "ти"
      ],
      [
        " бан",
        "ков"
      ],
      [
        "то",
        "чно"
      ],
      [
        " ме",
        "роприя"
      ],
      [
        " с",
        "па"
      ],
      [
        "сколь",
        "ку"
      ],
      [
        "че",
        "ства"
      ],
      [
        " россий",
        "ской"
      ],
      [
        " во",
        "ору"
      ],
      [
        " премь",
        "ер"
      ],
      [
        "О",
        "на"
      ],
      [
        " ме",
        "сте"
      ],
      [
        " п",
        "ря"
      ],
      [
        "ст",
        "ер"
      ],
      [
        " ст",
        "рук"
      ],
      [
        "об",
        "ра"
      ],
      [
        " де",
        "л"
      ],
      [
        " ква",
        "рти"
      ],
      [
        " уби",
        "й"
      ],
      [
        "у",
        "м"
      ],
      [
        " не",
        "де"
      ],
      [
        " каче",
        "стве"
      ],
      [
        " Г",
        "ерм"
      ],
      [
        " исс",
        "ледов"
      ],
      [
        "вер",
        "си"
      ],
      [
        "ва",
        "ла"
      ],
      [
        " сдела",
        "ть"
      ],
      [
        " К",
        "ра"
      ],
      [
        " по",
        "ряд"
      ],
      [
        "сто",
        "й"
      ],
      [
        " ре",
        "шения"
      ],
      [
        " нача",
        "ле"
      ],
      [
        "ш",
        "ую"
      ],
      [
        "ль",
        "ная"
      ],
      [
        "дни",
        "м"
      ],
      [
        " си",
        "рий"
      ],
      [
        " па",
        "ссажи"
      ],
      [
        "c",
        "o"
      ],
      [
        " го",
        "ды"
      ],
      [
        " в",
        "нут"
      ],
      [
        " ту",
        "ри"
      ],
      [
        " му",
        "зы"
      ],
      [
        " б",
        "ес"
      ],
      [
        " Е",
        "в"
      ],
      [
        "те",
        "ра"
      ],
      [
        " хо",
        "зя"
      ],
      [
        " д",
        "ве"
      ],
      [
        " г",
        "енера"
      ],
      [
        " последни",
        "е"
      ],
      [
        " по",
        "се"
      ],
      [
        "ще",
        "ств"
      ],
      [
        " че",
        "го"
      ],
      [
        " милли",
        "ар"
      ],
      [
        " коли",
        "чество"
      ],
      [
        " Р",
        "и"
      ],
      [
        " са",
        "йте"
      ],
      [
        " м",
        "я"
      ],
      [
        " б",
        "ра"
      ],
      [
        "но",
        "мо"
      ],
      [
        " сто",
        "ит"
      ],
      [
        " прош",
        "лого"
      ],
      [
        " тя",
        "же"
      ],
      [
        "ж",
        "де"
      ],
      [
        " минист",
        "р"
      ],
      [
        "п",
        "ли"
      ],
      [
        " отно",
        "шения"
      ],
      [
        "ву",
        "ю"
      ],
      [
        "о",
        "храни"
      ],
      [
        "х",
        "ра"
      ],
      [
        " из",
        "д"
      ],
      [
        " Х",
        "а"
      ],
      [
        " х",
        "у"
      ],
      [
        "ло",
        "й"
      ],
      [
        " ста",
        "в"
      ],
      [
        " рын",
        "ке"
      ],
      [
        " авгу",
        "ста"
      ],
      [
        "х",
        "ран"
      ],
      [
        "та",
        "рь"
      ],
      [
        " ито",
        "гам"
      ],
      [
        " исполь",
        "зова"
      ],
      [
        " ",
        "сти"
      ],
      [
        " на",
        "пример"
      ],
      [
        " деятель",
        "ности"
      ],
      [
        " Ве",
        "ли"
      ],
      [
        "сто",
        "ч"
      ],
      [
        " ",
        "H"
      ],
      [
        "a",
        "g"
      ],
      [
        "р",
        "ения"
      ],
      [
        "6",
        "0"
      ],
      [
        " ответ",
        "ствен"
      ],
      [
        "са",
        "м"
      ],
      [
        "ю",
        "з"
      ],
      [
        " раз",
        "ре"
      ],
      [
        " дирек",
        "тор"
      ],
      [
        "ш",
        "та"
      ],
      [
        "ги",
        "и"
      ],
      [
        " не",
        "й"
      ],
      [
        " со",
        "ста"
      ],
      [
        " агент",
        "ство"
      ],
      [
        "не",
        "ф"
      ],
      [
        "ча",
        "т"
      ],
      [
        " хо",
        "тя"
      ],
      [
        " прави",
        "тельство"
      ],
      [
        "ли",
        "ти"
      ],
      [
        " обра",
        "ти"
      ],
      [
        " спо",
        "р"
      ],
      [
        " о",
        "пас"
      ],
      [
        "п",
        "ере"
      ],
      [
        " воз",
        "бу"
      ],
      [
        "хо",
        "дов"
      ],
      [
        " получи",
        "л"
      ],
      [
        " аэ",
        "ропо"
      ],
      [
        " ми",
        "ров"
      ],
      [
        "сть",
        "ю"
      ],
      [
        " воз",
        "ду"
      ],
      [
        " вс",
        "ем"
      ],
      [
        "ж",
        "ного"
      ],
      [
        " от",
        "ра"
      ],
      [
        " воз",
        "ра"
      ],
      [
        " т",
        "рен"
      ],
      [
        " пери",
        "од"
      ],
      [
        "ни",
        "це"
      ],
      [
        " горо",
        "де"
      ],
      [
        " рын",
        "ка"
      ],
      [
        " внут",
        "рен"
      ],
      [
        "зи",
        "н"
      ],
      [
        " о",
        "цени"
      ],
      [
        " ф",
        "а"
      ],
      [
        " по",
        "этому"
      ],
      [
        " г",
        "ен"
      ],
      [
        "Х",
        "о"
      ],
      [
        " п",
        "ять"
      ],
      [
        "т",
        "ной"
      ],
      [
        " п",
        "ово"
      ],
      [
        "ве",
        "ден"
      ],
      [
        "пер",
        "вые"
      ],
      [
        " рас",
        "про"
      ],
      [
        "г",
        "ру"
      ],
      [
        " неф",
        "ти"
      ],
      [
        " на",
        "ходя"
      ],
      [
        "ле",
        "г"
      ],
      [
        " про",
        "гно"
      ],
      [
        " М",
        "ВД"
      ],
      [
        " Ни",
        "кола"
      ],
      [
        "з",
        "ма"
      ],
      [
        " у",
        "че"
      ],
      [
        " ини",
        "циа"
      ],
      [
        " вз",
        "я"
      ],
      [
        " сем",
        "ь"
      ],
      [
        "ня",
        "ет"
      ],
      [
        "ход",
        "ят"
      ],
      [
        " вто",
        "рой"
      ],
      [
        " о",
        "ружи"
      ],
      [
        " ч",
        "инов"
      ],
      [
        " кото",
        "рую"
      ],
      [
        " новы",
        "й"
      ],
      [
        "ва",
        "ри"
      ],
      [
        " отмеча",
        "ет"
      ],
      [
        " бое",
        "ви"
      ],
      [
        " ны",
        "неш"
      ],
      [
        " по",
        "пу"
      ],
      [
        " ма",
        "сс"
      ],
      [
        " добави",
        "л"
      ],
      [
        "лет",
        "а"
      ],
      [
        " подчеркну",
        "л"
      ],
      [
        " вы",
        "з"
      ],
      [
        " руково",
        "ди"
      ],
      [
        " вы",
        "ро"
      ],
      [
        "жа",
        "ть"
      ],
      [
        " позво",
        "ля"
      ],
      [
        " конку",
        "р"
      ],
      [
        " ",
        "ши"
      ],
      [
        "i",
        "s"
      ],
      [
        "ни",
        "ком"
      ],
      [
        "ров",
        "ание"
      ],
      [
        " ст",
        "у"
      ],
      [
        "е",
        "ди"
      ],
      [
        "казыва",
        "ет"
      ],
      [
        "Ин",
        "тер"
      ],
      [
        "ни",
        "н"
      ],
      [
        "ря",
        "т"
      ],
      [
        " по",
        "ст"
      ],
      [
        "ан",
        "т"
      ],
      [
        "фор",
        "ми"
      ],
      [
        "щ",
        "ую"
      ],
      [
        "ка",
        "р"
      ],
      [
        "рит",
        "ан"
      ],
      [
        "ва",
        "ются"
      ],
      [
        "ча",
        "ет"
      ],
      [
        " совер",
        "шен"
      ],
      [
        " ди",
        "а"
      ],
      [
        " долж",
        "на"
      ],
      [
        " не",
        "о"
      ],
      [
        "е",
        "ра"
      ],
      [
        "стоя",
        "н"
      ],
      [
        " б",
        "ар"
      ],
      [
        " мо",
        "сков"
      ],
      [
        "нист",
        "р"
      ],
      [
        " новы",
        "е"
      ],
      [
        "ству",
        "ют"
      ],
      [
        "С",
        "К"
      ],
      [
        " та",
        "кие"
      ],
      [
        " ду",
        "ма"
      ],
      [
        "лен",
        "ные"
      ],
      [
        " комп",
        "аний"
      ],
      [
        " настоя",
        "щее"
      ],
      [
        "ш",
        "у"
      ],
      [
        " ию",
        "ля"
      ],
      [
        " ",
        "№"
      ],
      [
        " б",
        "анк"
      ],
      [
        " виде",
        "о"
      ],
      [
        "д",
        "но"
      ],
      [
        "ро",
        "ят"
      ],
      [
        "тель",
        "ным"
      ],
      [
        "лек",
        "ана"
      ],
      [
        "ч",
        "ении"
      ],
      [
        " б",
        "ло"
      ],
      [
        "води",
        "т"
      ],
      [
        " ми",
        "ре"
      ],
      [
        " расс",
        "мо"
      ],
      [
        "ш",
        "ет"
      ],
      [
        " ка",
        "са"
      ],
      [
        "и",
        "гра"
      ],
      [
        "би",
        "н"
      ],
      [
        " со",
        "бы"
      ],
      [
        " при",
        "мен"
      ],
      [
        "ю",
        "за"
      ],
      [
        " Л",
        "у"
      ],
      [
        " помо",
        "щи"
      ],
      [
        " госпо",
        "дин"
      ],
      [
        "си",
        "ть"
      ],
      [
        " сов",
        "ремен"
      ],
      [
        "об",
        "ре"
      ],
      [
        "об",
        "ще"
      ],
      [
        "ров",
        "ки"
      ],
      [
        " поли",
        "цей"
      ],
      [
        " по",
        "скольку"
      ],
      [
        " не",
        "по"
      ],
      [
        " поль",
        "зова"
      ],
      [
        "-",
        "П"
      ],
      [
        "i",
        "l"
      ],
      [
        "к",
        "ва"
      ],
      [
        "кон",
        "ча"
      ],
      [
        "-",
        "го"
      ],
      [
        " от",
        "де"
      ],
      [
        " Т",
        "у"
      ],
      [
        "Со",
        "гла"
      ],
      [
        " уров",
        "не"
      ],
      [
        " Росси",
        "ю"
      ],
      [
        "чен",
        "ы"
      ],
      [
        " ми",
        "р"
      ],
      [
        "про",
        "с"
      ],
      [
        " милли",
        "онов"
      ],
      [
        " проце",
        "сс"
      ],
      [
        "хо",
        "ды"
      ],
      [
        " Алекс",
        "ей"
      ],
      [
        "ш",
        "ению"
      ],
      [
        "па",
        "да"
      ],
      [
        " со",
        "став"
      ],
      [
        "тра",
        "ф"
      ],
      [
        " проек",
        "та"
      ],
      [
        " Федера",
        "ции"
      ],
      [
        "o",
        "l"
      ],
      [
        "ри",
        "на"
      ],
      [
        " сво",
        "ем"
      ],
      [
        "то",
        "го"
      ],
      [
        " ви",
        "це"
      ],
      [
        " на",
        "писа"
      ],
      [
        " име",
        "ет"
      ],
      [
        " вне",
        "ш"
      ],
      [
        "ча",
        "я"
      ],
      [
        " И",
        "го"
      ],
      [
        "вед",
        "ения"
      ],
      [
        "-",
        "м"
      ],
      [
        "ст",
        "ров"
      ],
      [
        " на",
        "шей"
      ],
      [
        " сов",
        "мест"
      ],
      [
        " Украи",
        "не"
      ],
      [
        " получи",
        "ли"
      ],
      [
        "ди",
        "я"
      ],
      [
        " спе",
        "ц"
      ],
      [
        "Гла",
        "ва"
      ],
      [
        "Н",
        "и"
      ],
      [
        " боль",
        "шин"
      ],
      [
        " объ",
        "яви"
      ],
      [
        " работа",
        "ть"
      ],
      [
        " стан",
        "ет"
      ],
      [
        "ро",
        "е"
      ],
      [
        " М",
        "И"
      ],
      [
        "тай",
        "те"
      ],
      [
        " за",
        "бо"
      ],
      [
        "ен",
        "та"
      ],
      [
        " не",
        "у"
      ],
      [
        " пред",
        "ставля"
      ],
      [
        " пра",
        "к"
      ],
      [
        " пробле",
        "мы"
      ],
      [
        " вним",
        "ание"
      ],
      [
        " за",
        "м"
      ],
      [
        " воз",
        "вра"
      ],
      [
        " право",
        "охрани"
      ],
      [
        "во",
        "ка"
      ],
      [
        " кри",
        "зи"
      ],
      [
        " при",
        "н"
      ],
      [
        " ни",
        "чего"
      ],
      [
        " вер",
        "ну"
      ],
      [
        " н",
        "ов"
      ],
      [
        " д",
        "ней"
      ],
      [
        "По",
        "этому"
      ],
      [
        " рай",
        "она"
      ],
      [
        "i",
        "on"
      ],
      [
        "мен",
        "а"
      ],
      [
        "о",
        "к"
      ],
      [
        " по",
        "том"
      ],
      [
        " исто",
        "рии"
      ],
      [
        " каж",
        "ды"
      ],
      [
        "u",
        "s"
      ],
      [
        "ре",
        "е"
      ],
      [
        "та",
        "я"
      ],
      [
        " не",
        "из"
      ],
      [
        " при",
        "ве"
      ],
      [
        " вы",
        "с"
      ],
      [
        " ро",
        "д"
      ],
      [
        "ль",
        "ное"
      ],
      [
        "Пре",
        "зидент"
      ],
      [
        "в",
        "то"
      ],
      [
        " ак",
        "ти"
      ],
      [
        " ро",
        "ст"
      ],
      [
        " ведом",
        "ства"
      ],
      [
        " те",
        "лекана"
      ],
      [
        "че",
        "ская"
      ],
      [
        " од",
        "на"
      ],
      [
        " увели",
        "чи"
      ],
      [
        " ",
        "V"
      ],
      [
        "я",
        "тся"
      ],
      [
        " раз",
        "лич"
      ],
      [
        "спе",
        "к"
      ],
      [
        "e",
        "l"
      ],
      [
        "Ко",
        "гда"
      ],
      [
        "д",
        "ется"
      ],
      [
        " вы",
        "да"
      ],
      [
        " это",
        "му"
      ],
      [
        " пи",
        "са"
      ],
      [
        "ты",
        "й"
      ],
      [
        " Евро",
        "пы"
      ],
      [
        " жиз",
        "нь"
      ],
      [
        " гу",
        "берна"
      ],
      [
        " пред",
        "принима"
      ],
      [
        "овы",
        "м"
      ],
      [
        "a",
        "m"
      ],
      [
        " то",
        "н"
      ],
      [
        " счита",
        "ют"
      ],
      [
        "у",
        "с"
      ],
      [
        "ша",
        "ть"
      ],
      [
        " дан",
        "ные"
      ],
      [
        " пол",
        "ностью"
      ],
      [
        " ОО",
        "Н"
      ],
      [
        " коне",
        "чно"
      ],
      [
        "до",
        "к"
      ],
      [
        "ствен",
        "ные"
      ],
      [
        " эк",
        "спо"
      ],
      [
        " тра",
        "ди"
      ],
      [
        " законо",
        "проек"
      ],
      [
        " сбор",
        "ной"
      ],
      [
        " с",
        "ф"
      ],
      [
        "лы",
        "х"
      ],
      [
        " в",
        "за"
      ],
      [
        " по",
        "нима"
      ],
      [
        "вы",
        "й"
      ],
      [
        " информа",
        "цию"
      ],
      [
        " нор",
        "ма"
      ],
      [
        "ты",
        "х"
      ],
      [
        "В",
        "и"
      ],
      [
        "ми",
        "н"
      ],
      [
        "л",
        "ана"
      ],
      [
        " з",
        "доров"
      ],
      [
        " тре",
        "бу"
      ],
      [
        " п",
        "ят"
      ],
      [
        "Ро",
        "ссий"
      ],
      [
        "и",
        "ч"
      ],
      [
        " те",
        "рак"
      ],
      [
        "С",
        "и"
      ],
      [
        " на",
        "род"
      ],
      [
        "би",
        "ли"
      ],
      [
        "т",
        "ные"
      ],
      [
        " пред",
        "став"
      ],
      [
        "на",
        "ми"
      ],
      [
        " сни",
        "зи"
      ],
      [
        " к",
        "ру"
      ],
      [
        " тех",
        "ни"
      ],
      [
        " Сер",
        "ге"
      ],
      [
        " к",
        "ана"
      ],
      [
        "о",
        "ни"
      ],
      [
        "тя",
        "бре"
      ],
      [
        " запре",
        "щен"
      ],
      [
        "ет",
        "ы"
      ],
      [
        "к",
        "ро"
      ],
      [
        " и",
        "ску"
      ],
      [
        " до",
        "бы"
      ],
      [
        " ни",
        "м"
      ],
      [
        " меди",
        "цин"
      ],
      [
        " а",
        "л"
      ],
      [
        " програм",
        "мы"
      ],
      [
        " ",
        "жа"
      ],
      [
        " на",
        "и"
      ],
      [
        "-лет",
        "ний"
      ],
      [
        " администра",
        "ции"
      ],
      [
        " про",
        "смот"
      ],
      [
        " друго",
        "й"
      ],
      [
        " с",
        "цен"
      ],
      [
        "ма",
        "р"
      ],
      [
        "ж",
        "ный"
      ],
      [
        "ро",
        "шенко"
      ],
      [
        " то",
        "му"
      ],
      [
        " свя",
        "зан"
      ],
      [
        " С",
        "у"
      ],
      [
        "со",
        "к"
      ],
      [
        " прош",
[...]
