<unk>	0
<s>	0
</s>	0
▁s	-2.77742
▁the	-3.46315
,	-3.54865
.	-3.58763
▁a	-3.77956
▁to	-4.02334
▁in	-4.14282
▁ed	-4.18134
▁ing	-4.20583
▁and	-4.23646
▁of	-4.28625
'	-4.44464
s	-4.60951
▁y	-4.91992
▁be	-4.98579
▁on	-5.03774
▁e	-5.05619
-	-5.07694
▁that	-5.08756
▁"	-5.09642
▁ly	-5.10776
▁for	-5.14042
▁d	-5.1547
▁is	-5.1636
▁re	-5.23033
▁it	-5.25827
▁with	-5.33477
t	-5.33752
▁The	-5.4001
▁wa	-5.40445
▁he	-5.41485
▁er	-5.50387
▁en	-5.5731
▁I	-5.59476
▁al	-5.59892
▁an	-5.75867
▁o	-5.78346
▁at	-5.78944
▁said	-5.83353
▁hi	-5.89308
▁	-5.89481
▁have	-5.89504
▁has	-5.91811
▁from	-5.9386
▁by	-5.94214
▁es	-6.04336
:	-6.04822
▁-	-6.11805
▁A	-6.13073
▁not	-6.13989
▁out	-6.17815
▁thi	-6.2129
,"	-6.21518
▁her	-6.21979
▁n	-6.23176
▁you	-6.23784
▁ment	-6.26418
▁or	-6.2791
"	-6.30225
."	-6.30487
▁who	-6.31276
▁will	-6.35577
▁their	-6.38406
▁one	-6.39492
▁but	-6.4124
▁had	-6.42972
▁ers	-6.4439
▁we	-6.45476
▁year	-6.47175
a	-6.47608
d	-6.47827
▁can	-6.5083
m	-6.51438
▁up	-6.55639
▁t	-6.55797
▁(	-6.57651
▁more	-6.579
▁do	-6.60285
▁were	-6.60331
▁un	-6.61725
▁about	-6.62347
▁time	-6.63466
▁over	-6.65998
▁after	-6.66356
▁which	-6.665
▁other	-6.68225
▁all	-6.7138
e	-6.72015
▁de	-6.73771
▁like	-6.75119
▁man	-6.75211
)	-6.75855
▁S	-6.75957
▁It	-6.77951
re	-6.78913
▁would	-6.7941
▁In	-6.79788
▁wh	-6.82249
▁ation	-6.82356
▁'	-6.83066
u	-6.83639
▁people	-6.84545
▁He	-6.86189
n	-6.86467
▁my	-6.88706
▁able	-6.91931
▁say	-6.93566
▁us	-6.94916
I	-6.96369
▁some	-6.96434
▁just	-6.98263
▁there	-7.01096
▁off	-7.02085
▁day	-7.03776
▁play	-7.03959
▁what	-7.04076
▁than	-7.04467
▁ity	-7.04618
▁come	-7.05214
▁them	-7.05581
▁back	-7.05697
o	-7.05723
▁ion	-7.05774
▁first	-7.06032
▁work	-7.07551
▁two	-7.08641
▁new	-7.09454
▁land	-7.11081
▁ever	-7.11656
▁But	-7.13608
▁could	-7.13888
▁our	-7.13889
i	-7.14433
▁any	-7.15822
▁your	-7.18319
▁me	-7.18544
▁again	-7.18824
▁him	-7.19647
▁if	-7.20318
▁no	-7.20536
▁ally	-7.21078
▁state	-7.21398
▁r	-7.22591
▁ary	-7.23747
▁last	-7.2423
▁Trump	-7.25256
▁side	-7.27227
▁most	-7.27331
▁cause	-7.27904
▁get	-7.28192
?	-7.28367
▁thing	-7.28693
▁el	-7.29208
▁show	-7.2944
g	-7.2947
▁i	-7.29764
clu	-7.30087
▁how	-7.30304
▁where	-7.3056
▁age	-7.3116
▁O	-7.3174
ve	-7.33185
S	-7.33399
▁now	-7.33763
p	-7.33955
▁make	-7.35113
▁Re	-7.37267
▁way	-7.37436
in	-7.37888
▁want	-7.38338
very	-7.39247
r	-7.39271
▁And	-7.39647
▁while	-7.40988
c	-7.41275
▁c	-7.41819
▁before	-7.41913
▁report	-7.43773
▁need	-7.43921
▁le	-7.44147
▁go	-7.44199
▁even	-7.44704
▁son	-7.45095
▁look	-7.45803
▁ver	-7.46665
▁down	-7.47897
▁U	-7.48648
l	-7.48721
▁think	-7.49183
▁home	-7.49511
▁take	-7.50386
▁pre	-7.51228
▁well	-7.52011
▁week	-7.52427
▁ent	-7.52626
k	-7.5277
▁under	-7.53406
▁C	-7.53847
▁ive	-7.54118
▁know	-7.55285
▁E	-7.55816
▁Mr	-7.56057
▁cent	-7.56145
▁Thi	-7.5661
▁form	-7.57097
▁add	-7.57238
▁don	-7.57261
▁call	-7.57301
▁long	-7.57518
b	-7.57572
▁per	-7.586
y	-7.59035
▁end	-7.5914
▁We	-7.59212
▁head	-7.59258
▁through	-7.59397
▁told	-7.59465
▁She	-7.59697
▁see	-7.5978
▁start	-7.60312
The	-7.60319
▁right	-7.60985
▁G	-7.61324
▁line	-7.61658
▁game	-7.6176
▁hose	-7.62028
ur	-7.62141
▁high	-7.62212
▁month	-7.62463
▁st	-7.62507
▁three	-7.62513
▁then	-7.6292
▁going	-7.6338
▁made	-7.63589
▁F	-7.6401
▁dur	-7.64481
▁W	-7.64822
▁support	-7.65681
▁govern	-7.66377
▁ate	-7.66621
▁ance	-7.66698
▁ic	-7.67568
ll	-7.67897
▁help	-7.69257
▁am	-7.69583
▁ship	-7.70111
▁team	-7.70321
▁est	-7.70388
▁dis	-7.71469
/	-7.71677
▁life	-7.733
▁part	-7.73536
▁around	-7.73583
h	-7.73748
▁ful	-7.74046
▁ex	-7.74063
▁T	-7.75246
▁K	-7.75284
▁less	-7.75844
al	-7.76082
▁P	-7.76251
▁M	-7.77279
▁ies	-7.77398
▁ce	-7.77939
▁ry	-7.78372
▁much	-7.79708
▁con	-7.80096
▁change	-7.80757
▁vot	-7.81205
▁found	-7.81215
▁ia	-7.81629
▁still	-7.81631
▁since	-7.81787
▁hould	-7.82025
▁B	-7.82211
er	-7.82266
▁did	-7.82983
▁New	-7.83637
▁set	-7.8434
th	-7.84586
▁good	-7.85097
▁point	-7.85112
▁m	-7.85523
▁world	-7.85678
▁give	-7.85768
▁ext	-7.86252
▁D	-7.87357
▁national	-7.88078
▁p	-7.88096
▁invest	-7.88287
▁uch	-7.8884
A	-7.89254
▁place	-7.89597
▁country	-7.89804
▁four	-7.89866
▁ear	-7.89944
▁ian	-7.90264
▁election	-7.90275
▁ities	-7.90872
▁los	-7.91182
▁follow	-7.91488
▁case	-7.92004
▁w	-7.92416
▁cross	-7.92667
▁public	-7.93004
▁between	-7.93104
▁feel	-7.93215
▁came	-7.93629
▁ations	-7.94005
▁own	-7.94456
▁member	-7.94622
We	-7.95199
▁try	-7.95889
or	-7.96016
▁ways	-7.96091
▁family	-7.96515
▁im	-7.9699
▁self	-7.97073
▁l	-7.9712
▁president	-7.97328
▁contin	-7.97395
▁Biden	-7.97947
▁big	-7.97983
▁ty	-7.98438
▁second	-7.98455
▁politic	-7.98644
▁De	-7.99342
▁k	-7.99446
vi	-7.99644
▁co	-8.00134
▁Russ	-8.00714
▁season	-8.01558
year	-8.01828
▁open	-8.02388
▁ra	-8.02584
▁night	-8.02783
▁ember	-8.02826
▁group	-8.02984
▁post	-8.03054
▁left	-8.04033
▁law	-8.04478
▁got	-8.04487
▁may	-8.04828
▁million	-8.05147
▁use	-8.05241
f	-8.05351
;	-8.06148
▁br	-8.06526
▁attack	-8.06542
old	-8.06676
▁h	-8.07529
▁ask	-8.07536
▁Man	-8.0755
▁ence	-8.07919
▁best	-8.08304
▁win	-8.08387
▁expect	-8.09134
▁both	-8.09387
▁put	-8.09529
▁hand	-8.0957
▁share	-8.0957
It	-8.09772
▁ame	-8.10369
▁lot	-8.10828
▁There	-8.11165
▁health	-8.11725
▁How	-8.1196
▁That	-8.11985
▁office	-8.12263
▁US	-8.12513
▁ating	-8.12519
▁President	-8.12593
▁live	-8.1279
▁mean	-8.13082
▁g	-8.13217
▁turn	-8.13414
▁official	-8.13644
▁near	-8.13783
C	-8.13942
▁ments	-8.13978
▁air	-8.14408
▁ative	-8.14639
▁ous	-8.14995
▁com	-8.15027
▁So	-8.15242
▁friend	-8.15399
on	-8.15572
▁person	-8.15618
▁star	-8.15632
z	-8.15875
▁leader	-8.16005
▁ready	-8.16331
▁never	-8.16355
▁Sun	-8.16469
▁find	-8.16725
le	-8.16739
▁ton	-8.16787
▁face	-8.16788
▁N	-8.17011
▁ad	-8.17199
▁On	-8.17357
▁top	-8.17381
▁men	-8.17553
▁test	-8.17705
▁final	-8.17983
▁An	-8.18108
▁een	-8.1811
at	-8.18572
▁You	-8.18708
▁accord	-8.18897
▁too	-8.19115
▁ant	-8.19658
▁low	-8.2015
▁led	-8.20239
▁days	-8.2036
▁count	-8.20387
▁coming	-8.20472
st	-8.2068
ri	-8.20728
▁ie	-8.20753
▁th	-8.21207
▁la	-8.21234
▁great	-8.21299
▁ration	-8.21488
▁il	-8.21569
▁children	-8.2161
▁away	-8.22014
▁mis	-8.22379
▁hen	-8.22411
▁car	-8.22656
▁house	-8.23338
▁return	-8.2352
▁ness	-8.23575
▁media	-8.23709
▁ions	-8.23723
▁campaign	-8.23855
▁police	-8.23899
▁For	-8.24236
▁UK	-8.24247
▁court	-8.24349
▁ar	-8.24462
▁power	-8.24579
▁If	-8.24677
▁here	-8.24727
▁number	-8.24875
▁though	-8.24977
▁women	-8.25494
▁special	-8.25581
▁American	-8.25883
▁Isra	-8.26923
▁10	-8.26943
▁remain	-8.26946
▁company	-8.27072
▁L	-8.27158
▁provi	-8.27212
liev	-8.27227
▁run	-8.27657
▁war	-8.27945
▁State	-8.28098
▁issue	-8.28667
▁few	-8.28767
▁five	-8.2895
▁won	-8.2944
▁party	-8.29501
▁care	-8.29504
▁clear	-8.29671
▁happen	-8.29712
▁didn	-8.3
▁plan	-8.3005
▁R	-8.30247
▁force	-8.30427
▁large	-8.30542
▁took	-8.30915
▁school	-8.31099
▁area	-8.31154
▁later	-8.31231
▁pass	-8.31646
▁f	-8.32148
▁real	-8.32282
▁fan	-8.32418
▁love	-8.32769
▁young	-8.32909
▁business	-8.33122
▁move	-8.33552
▁ling	-8.33981
▁sure	-8.34258
E	-8.3435
▁water	-8.34461
▁X	-8.34492
▁hard	-8.34619
▁To	-8.34662
▁something	-8.34827
▁far	-8.35041
▁record	-8.35101
▁Unit	-8.35164
▁service	-8.35371
▁ong	-8.35915
▁rs	-8.36208
▁b	-8.36593
▁book	-8.36748
▁ch	-8.36755
▁2024	-8.36829
▁might	-8.36933
▁kill	-8.37188
▁deal	-8.37292
▁body	-8.37443
▁event	-8.37506
▁result	-8.37532
▁allow	-8.37628
ar	-8.37732
▁cost	-8.3781
an	-8.37866
T	-8.37896
▁sign	-8.38424
▁light	-8.38477
▁u	-8.38534
▁six	-8.38664
▁di	-8.38716
▁major	-8.38753
▁inter	-8.38976
▁talk	-8.39384
▁film	-8.39513
▁fire	-8.39542
▁social	-8.39944
]	-8.40223
▁free	-8.40346
▁Hi	-8.415
▁ley	-8.41552
▁commun	-8.41905
▁ster	-8.41916
▁meet	-8.42047
▁Al	-8.42447
▁One	-8.42461
▁position	-8.42541
▁little	-8.43132
▁past	-8.43279
▁hit	-8.43298
▁decision	-8.43374
!	-8.43394
▁different	-8.43473
▁better	-8.43675
▁No	-8.43808
▁market	-8.43882
▁east	-8.43967
▁question	-8.44067
▁claim	-8.44223
▁ecurity	-8.44415
▁local	-8.44515
▁making	-8.44735
▁til	-8.44789
it	-8.44816
▁system	-8.45015
▁each	-8.45024
▁Democrat	-8.45117
▁experience	-8.45166
▁South	-8.4517
▁having	-8.45669
▁pay	-8.45761
▁press	-8.46283
▁pro	-8.46355
▁Mon	-8.46362
▁[	-8.46436
▁city	-8.46594
▁along	-8.46686
▁comment	-8.46843
▁ism	-8.47195
▁announce	-8.47369
▁job	-8.4772
li	-8.47993
▁view	-8.48382
▁moment	-8.48433
▁perform	-8.4871
▁ball	-8.48951
▁creat	-8.49236
az	-8.49509
▁money	-8.4959
),	-8.49669
▁na	-8.49802
▁price	-8.50544
▁ated	-8.50697
▁death	-8.50799
▁train	-8.50948
▁ought	-8.51052
▁port	-8.51463
▁nation	-8.51505
▁half	-8.51678
▁keep	-8.51878
▁current	-8.51916
▁appear	-8.52026
▁video	-8.52089
▁wrote	-8.52131
▁reveal	-8.52186
▁eries	-8.52252
▁hour	-8.52256
P	-8.52271
▁ough	-8.52301
▁field	-8.52788
▁India	-8.52801
B	-8.52803
▁old	-8.52973
Harri	-8.53038
▁alleg	-8.5315
▁ist	-8.53237
▁pot	-8.53249
▁close	-8.53618
to	-8.53894
▁watch	-8.54195
▁Europe	-8.54203
▁John	-8.54373
▁York	-8.54584
▁V	-8.54781
▁Credit	-8.54948
x	-8.54961
▁room	-8.54981
▁visit	-8.55084
▁publican	-8.55123
▁interest	-8.55252
▁Be	-8.55297
▁Mini	-8.55393
▁news	-8.55459
▁20	-8.55462
▁ised	-8.55588
▁Whi	-8.55817
▁name	-8.55925
▁2	-8.55969
il	-8.561
▁bas	-8.56156
▁parent	-8.56255
v	-8.56445
av	-8.56474
▁red	-8.5658
▁Eng	-8.56627
▁Co	-8.56749
▁May	-8.56866
▁known	-8.56951
▁ability	-8.57098
▁level	-8.57131
▁militar	-8.57385
ch	-8.57576
▁match	-8.57629
▁tell	-8.57653
de	-8.57873
▁Ukraine	-8.579
▁thought	-8.58157
▁thir	-8.58299
▁seem	-8.5841
▁ground	-8.58709
▁full	-8.59017
the	-8.59033
▁ably	-8.591
▁rate	-8.5927
N	-8.59354
▁host	-8.59536
▁spite	-8.59619
▁goal	-8.59753
▁cut	-8.59817
▁Lo	-8.59861
▁ting	-8.59977
▁ped	-8.5999
▁short	-8.60026
▁fall	-8.60506
▁Con	-8.60523
▁treat	-8.60674
▁1	-8.60748
▁concern	-8.61021
▁together	-8.61257
▁House	-8.61556
▁small	-8.61561
▁author	-8.61857
halleng	-8.61967
5	-8.62063
▁food	-8.62209
▁taking	-8.62389
▁due	-8.62479
▁bar	-8.62513
▁critic	-8.62568
▁order	-8.62615
▁must	-8.62621
▁ries	-8.62691
▁19	-8.62857
▁ial	-8.62906
▁ine	-8.63126
▁Har	-8.63245
O	-8.63499
ic	-8.6369
▁reach	-8.63745
▁5	-8.63929
▁After	-8.64092
▁hope	-8.64108
▁often	-8.64303
▁consider	-8.64497
▁mid	-8.64537
▁role	-8.64695
▁City	-8.64798
▁why	-8.64916
▁taken	-8.65059
▁At	-8.6534
).	-8.65381
▁minute	-8.65398
▁app	-8.65616
▁action	-8.65734
▁receive	-8.66028
▁key	-8.66065
▁success	-8.66216
ro	-8.66224
▁fund	-8.66722
▁lead	-8.6677
▁News	-8.66811
D	-8.66896
▁ham	-8.66981
▁break	-8.67089
▁ago	-8.67291
▁wide	-8.67415
▁term	-8.67424
el	-8.67702
▁hold	-8.6792
▁ta	-8.68214
▁process	-8.68411
▁today	-8.68469
▁12	-8.6862
▁gett	-8.68699
up	-8.68701
▁With	-8.68823
2	-8.68902
▁ential	-8.68932
G	-8.69063
serv	-8.69065
▁important	-8.69112
▁future	-8.693
▁ite	-8.69387
la	-8.69419
▁non	-8.69457
▁ously	-8.69495
▁let	-8.6953
▁Friday	-8.69618
▁ber	-8.69619
▁club	-8.69683
▁strong	-8.69686
▁4	-8.69689
en	-8.70089
▁tax	-8.70158
▁relation	-8.70326
▁London	-8.70459
▁walk	-8.71045
▁agree	-8.71169
...	-8.71234
ra	-8.7132
7	-8.71491
▁West	-8.71592
▁human	-8.71767
▁mother	-8.71824
▁Ju	-8.71831
▁fully	-8.71885
▁z	-8.72121
▁hind	-8.72547
▁risk	-8.72592
▁stead	-8.72678
▁launch	-8.72812
▁ma	-8.72987
▁Tuesday	-8.73275
▁student	-8.73341
▁bit	-8.73546
▁leg	-8.73582
▁protect	-8.73683
▁done	-8.74257
▁problem	-8.74277
▁woman	-8.74479
▁late	-8.74718
▁suggest	-8.74816
▁further	-8.74952
M	-8.75064
▁Oct	-8.75209
▁gan	-8.75288
▁accu	-8.75426
▁fail	-8.75566
▁What	-8.75654
▁arm	-8.75712
▁kind	-8.75817
▁Mc	-8.75893
F	-8.75967
▁dy	-8.76075
▁ature	-8.76116
1	-8.76227
▁child	-8.76251
▁ping	-8.76347
▁ge	-8.76351
▁North	-8.76401
▁once	-8.76404
▁account	-8.7652
▁front	-8.76593
▁J	-8.76765
▁focus	-8.77011
▁China	-8.7716
▁11	-8.77616
▁charge	-8.77752
▁travel	-8.77839
▁ier	-8.77911
▁ese	-8.77975
w	-8.78022
▁wor	-8.78075
▁warn	-8.78094
▁Donald	-8.78121
▁list	-8.78363
▁cover	-8.78377
3	-8.78558
esda	-8.7861
▁ington	-8.78685
▁phone	-8.78815
▁den	-8.78826
▁stay	-8.78907
▁join	-8.79414
▁National	-8.79536
▁story	-8.79764
▁target	-8.79802
▁mark	-8.79835
▁Wed	-8.79844
▁strike	-8.79944
▁ors	-8.79961
▁Israeli	-8.80091
▁couple	-8.80231
▁H	-8.80416
▁building	-8.80455
▁design	-8.80608
▁Thursday	-8.80801
▁celeb	-8.81016
▁effort	-8.81534
W	-8.8164
▁Jun	-8.8179
▁wards	-8.81905
▁creas	-8.81908
▁space	-8.82173
▁candid	-8.82176
▁heart	-8.82339
▁World	-8.82395
▁possible	-8.82537
▁partner	-8.82556
▁career	-8.83043
▁ified	-8.83269
4	-8.83276
▁condition	-8.83418
▁Mar	-8.83519
ce	-8.83564
and	-8.8367
▁yet	-8.83775
▁Nov	-8.83985
▁Poli	-8.84164
▁eight	-8.84288
▁control	-8.84322
▁tri	-8.84616
▁data	-8.84756
▁ignificant	-8.84825
▁employ	-8.84872
▁whe	-8.84991
▁ban	-8.85015
▁minister	-8.8505
▁ward	-8.85237
▁saw	-8.85298
▁ob	-8.85555
▁course	-8.85576
▁board	-8.85727
minist	-8.85801
▁arrest	-8.85875
▁lier	-8.86137
ate	-8.86154
▁race	-8.86174
▁deliver	-8.86275
▁18	-8.86447
▁ising	-8.86473
▁La	-8.86731
▁history	-8.86793
▁particular	-8.8694
▁leave	-8.87007
ul	-8.87135
▁proper	-8.87257
▁ized	-8.87301
▁Some	-8.87646
▁poll	-8.87738
▁viol	-8.87856
▁15	-8.87947
▁access	-8.8801
▁mess	-8.88218
▁interview	-8.88319
▁complete	-8.88485
▁mov	-8.88625
▁percent	-8.88718
▁legal	-8.88834
▁feature	-8.88864
▁involve	-8.89096
▁confirm	-8.89329
▁hospital	-8.89329
▁fact	-8.89424
▁3	-8.89445
nivers	-8.8947
▁stand	-8.89575
▁project	-8.89647
▁impact	-8.89721
▁information	-8.90034
▁attempt	-8.90035
▁billion	-8.90222
":"	-8.90514
▁require	-8.90531
▁Saturday	-8.90592
am	-8.90696
▁ates	-8.90752
▁et	-8.90759
▁St	-8.90991
▁explain	-8.91147
▁present	-8.91286
▁suit	-8.91311
▁grow	-8.91344
▁vice	-8.91401
▁ide	-8.91495
▁Le	-8.91512
▁pick	-8.91564
▁vision	-8.91621
▁step	-8.91733
▁direct	-8.91988
▁stop	-8.92115
▁staff	-8.92185
▁ther	-8.922
▁hear	-8.92287
▁Her	-8.92358
▁deep	-8.92367
▁held	-8.92597
▁Court	-8.92665
un	-8.92749
decid	-8.92865
8	-8.92881
sh	-8.9292
▁drop	-8.92921
▁Australia	-8.93073
▁summer	-8.93155
▁town	-8.93184
▁ties	-8.93187
▁park	-8.93202
▁improv	-8.93231
et	-8.93455
▁understand	-8.93556
▁quick	-8.93558
▁seven	-8.93598
▁speak	-8.93608
▁protest	-8.9364
▁Black	-8.93652
▁felt	-8.93801
▁Just	-8.93956
▁AI	-8.93992
▁nce	-8.94089
▁reason	-8.94128
▁personal	-8.94304
ad	-8.94599
▁certain	-8.94709
▁Scot	-8.94763
▁word	-8.94802
impl	-8.94837
▁actual	-8.9512
▁League	-8.95282
▁eye	-8.95329
▁opport	-8.95365
R	-8.95417
▁forward	-8.95705
▁decade	-8.95871
▁rule	-8.95945
▁girl	-8.96128
▁30	-8.96179
▁father	-8.96199
▁crease	-8.96252
▁trial	-8.96255
▁British	-8.96376
▁All	-8.96449
▁ice	-8.96451
▁energ	-8.96795
▁coach	-8.96799
rgu	-8.96944
▁inciden	-8.97024
▁stage	-8.97085
▁manage	-8.97105
Thi	-8.97132
ne	-8.97226
▁general	-8.97229
▁policy	-8.97291
Apr	-8.97364
▁learn	-8.97463
▁mission	-8.97715
ma	-8.97742
▁product	-8.97904
▁...	-8.98102
▁research	-8.9814
▁6	-8.98143
▁wait	-8.98145
▁TV	-8.98273
He	-8.98335
▁cap	-8.98455
▁ish	-8.98476
▁Jam	-8.98621
▁act	-8.98654
▁te	-8.9887
▁Janu	-8.98878
▁7	-8.98989
▁avail	-8.99002
▁Sept	-8.99178
▁fast	-8.99273
▁March	-8.99801
,""	-8.99805
▁king	-8.99998
▁econom	-9.00017
▁erious	-9.00035
▁ca	-9.0029
▁main	-9.0032
▁operation	-9.00654
▁igation	-9.00732
▁ize	-9.00873
▁matter	-9.00911
▁lines	-9.01046
▁multi	-9.01259
L	-9.01315
▁finish	-9.01704
K	-9.01743
▁comp	-9.01842
▁seat	-9.01909
▁ists	-9.01967
▁director	-9.02013
▁German	-9.02055
▁represent	-9.02103
lo	-9.02359
▁Car	-9.02361
ol	-9.02392
▁8	-9.02583
▁bill	-9.02623
▁Dr	-9.02736
▁limit	-9.02767
▁ident	-9.02954
▁daughter	-9.03034
▁tic	-9.03076
▁ise	-9.03256
9	-9.03319
▁13	-9.0332
▁round	-9.03346
▁custom	-9.03399
▁Y	-9.03468
▁quarter	-9.03599
▁produc	-9.03661
▁prob	-9.03664
▁region	-9.03711
▁Labour	-9.03941
▁wife	-9.03952
▁fore	-9.04199
▁ample	-9.04401
▁My	-9.0444
▁anti	-9.04515
▁wood	-9.04569
▁happ	-9.04692
▁total	-9.04794
▁push	-9.04845
▁released	-9.05116
ter	-9.05316
▁16	-9.0542
▁Indian	-9.05472
▁attend	-9.05483
▁wear	-9.05515
▁running	-9.05685
▁boy	-9.05706
par	-9.05731
be	-9.05759
▁um	-9.05773
▁financial	-9.05853
▁Wash	-9.06147
▁ab	-9.0617
▁demand	-9.06227
j	-9.06285
▁initi	-9.06486
▁border	-9.06518
▁figure	-9.06602
▁ring	-9.0665
▁buy	-9.07065
▁football	-9.07149
▁bad	-9.0725
▁gun	-9.07344
▁serv	-9.07345
pl	-9.07382
▁v	-9.07494
▁les	-9.07623
▁sale	-9.07626
▁chief	-9.07814
▁claimed	-9.07913
▁ifficult	-9.07992
▁lease	-9.07994
▁shot	-9.08167
▁America	-9.08279
▁ible	-9.08301
▁rest	-9.0835
H	-9.08406
▁himself	-9.08466
▁develop	-9.08585
▁ees	-9.08599
▁Dec	-9.08663
▁address	-9.08748
0	-9.08839
▁global	-9.08937
▁owner	-9.08967
▁living	-9.09045
▁respond	-9.09361
▁ure	-9.09391
▁gu	-9.09429
6	-9.09525
▁vious	-9.09608
▁14	-9.09622
▁source	-9.09711
▁afety	-9.10373
▁dog	-9.1047
▁Joe	-9.1106
▁unity	-9.11075
▁table	-9.11257
▁mediate	-9.11273
▁emerge	-9.11341
▁scene	-9.11353
▁soon	-9.11357
▁ituation	-9.11439
▁Iran	-9.11553
▁detail	-9.11648
ha	-9.11689
▁ingly	-9.11699
▁road	-9.11742
▁Can	-9.11814
▁search	-9.1183
▁reduc	-9.11977
▁benefit	-9.12082
▁trans	-9.12228
▁brand	-9.12362
co	-9.12605
▁approach	-9.12615
▁ett	-9.12945
▁enjoy	-9.13208
▁federal	-9.13307
▁economic	-9.13335
▁foot	-9.13356
▁response	-9.13605
▁mass	-9.13833
▁safe	-9.13922
▁fight	-9.13965
▁panies	-9.14004
▁bank	-9.14282
▁period	-9.14305
▁worth	-9.14413
ccord	-9.14436
▁suffer	-9.14506
▁value	-9.14622
▁Brit	-9.14653
▁selves	-9.14706
ten	-9.14811
▁spoke	-9.14907
▁ba	-9.15048
▁White	-9.15359
▁expert	-9.15414
▁music	-9.15472
ut	-9.15695
▁box	-9.15736
?"	-9.15841
▁leading	-9.15843
▁Congress	-9.16025
▁option	-9.16026
▁tour	-9.16035
ck	-9.16109
▁industry	-9.1633
▁dead	-9.16373
▁Do	-9.16512
▁Di	-9.16545
00	-9.16788
▁met	-9.16805
te	-9.16858
▁shop	-9.16869
▁Sen	-9.16874
▁mind	-9.16968
ure	-9.17114
com	-9.17188
▁addition	-9.17255
▁huge	-9.17381
▁store	-9.17478
▁Now	-9.17642
▁victor	-9.17669
ir	-9.17709
▁Time	-9.17726
▁August	-9.17778
▁spot	-9.17791
▁prison	-9.17804
▁Hama	-9.17806
▁track	-9.17894
▁enter	-9.17986
se	-9.182
▁jury	-9.18296
▁compar	-9.18352
▁victim	-9.18397
▁similar	-9.18405
▁via	-9.18533
▁popular	-9.18622
▁serve	-9.18756
▁check	-9.18841
▁whole	-9.18982
▁nothing	-9.19034
▁quite	-9.19162
▁morning	-9.19236
▁assist	-9.19236
U	-9.19383
▁model	-9.19439
▁Olympic	-9.19447
▁resident	-9.19447
▁utive	-9.19448
▁San	-9.19528
▁character	-9.19553
▁card	-9.1966
▁defend	-9.19668
▁document	-9.19787
▁rath	-9.199
▁East	-9.20001
,000	-9.20082
▁picture	-9.20103
▁Day	-9.20136
▁Se	-9.20165
▁Inter	-9.20211
▁Instagram	-9.20302
▁shoot	-9.20324
▁crime	-9.20416
▁responsi	-9.20508
▁mile	-9.20509
▁firm	-9.20853
▁Per	-9.20915
wa	-9.21141
▁manager	-9.21228
▁gold	-9.21244
▁California	-9.21365
▁secret	-9.21371
▁drug	-9.21473
▁ger	-9.21504
▁program	-9.21571
▁op	-9.21579
▁va	-9.22031
▁50	-9.22052
▁&	-9.22055
▁ler	-9.22297
▁Gar	-9.22594
▁ir	-9.22601
▁super	-9.22683
▁Images	-9.22742
▁civil	-9.22774
▁platform	-9.22774
You	-9.22789
▁white	-9.2282
▁bed	-9.22879
▁ve	-9.22933
▁propo	-9.23052
▁accept	-9.2306
▁bo	-9.23061
▁evidence	-9.23321
▁dom	-9.23349
▁champion	-9.23431
▁development	-9.23436
▁Department	-9.2376
▁oper	-9.23965
▁BBC	-9.2399
mov	-9.24152
▁review	-9.24313
▁ants	-9.24317
▁que	-9.24364
▁Spa	-9.24404
▁Air	-9.24419
no	-9.24423
▁usual	-9.24535
▁ne	-9.2457
▁urge	-9.2465
▁drive	-9.24778
_	-9.24869
▁France	-9.25099
▁pent	-9.251
▁Not	-9.25157
▁2023	-9.25286
▁individual	-9.25315
▁Park	-9.2534
▁earn	-9.25511
▁rates	-9.25563
▁base	-9.25567
▁judge	-9.25661
▁caus	-9.26006
do	-9.26144
▁pur	-9.26195
▁Count	-9.2621
▁criminal	-9.26222
▁photo	-9.26224
▁publish	-9.26224
▁9	-9.26254
id	-9.26338
▁ble	-9.26428
▁wrong	-9.26441
▁fear	-9.26455
▁workers	-9.26465
▁Pari	-9.26486
▁art	-9.26548
▁uring	-9.26559
▁2022	-9.2671
▁oil	-9.26729
▁gave	-9.26807
▁Li	-9.26807
▁heat	-9.26839
▁Govern	-9.27008
▁Z	-9.2703
▁range	-9.2708
me	-9.27108
▁Cup	-9.27117
▁sense	-9.27249
▁venue	-9.2735
▁hreat	-9.2735
▁vari	-9.27509
▁sen	-9.27537
▁17	-9.2765
▁ious	-9.27855
▁pair	-9.27942
▁camp	-9.27952
▁affect	-9.2803
▁aging	-9.28039
▁William	-9.28159
▁cat	-9.28521
▁amount	-9.2859
▁murder	-9.28615
0,000	-9.28633
▁Getty	-9.28677
time	-9.28714
>	-9.28829
▁capital	-9.28846
ti	-9.28858
▁actor	-9.28893
▁read	-9.28957
▁average	-9.29078
▁image	-9.29228
ilit	-9.29242
da	-9.29355
▁David	-9.29373
▁Red	-9.29376
▁depart	-9.29457
▁door	-9.29475
▁class	-9.29476
▁War	-9.29836
▁Angel	-9.29906
▁husband	-9.29908
▁cho	-9.29949
▁rise	-9.29956
▁heard	-9.29957
▁ner	-9.29974
▁fair	-9.3014
▁Ne	-9.30166
▁centre	-9.30182
bas	-9.30429
hi	-9.30447
▁beat	-9.30453
▁dependent	-9.30487
There	-9.30585
▁debate	-9.30722
▁bus	-9.30781
▁aim	-9.30868
▁bi	-9.30921
▁foreign	-9.31202
▁exec	-9.31213
▁build	-9.31271
▁extra	-9.31271
▁Ben	-9.31385
▁pool	-9.31557
trateg	-9.31788
round	-9.31869
▁growth	-9.31966
▁flight	-9.32043
▁Ho	-9.32059
▁entire	-9.32174
▁ium	-9.32179
▁£1	-9.32189
ke	-9.32309
▁touch	-9.32318
▁patient	-9.32388
▁21	-9.32501
▁vehicle	-9.32507
▁Prince	-9.32518
▁title	-9.3267
▁More	-9.32758
▁fac	-9.33066
▁ro	-9.33097
▁lock	-9.33116
▁block	-9.33189
▁French	-9.33231
▁rated	-9.33312
▁link	-9.33433
▁Bo	-9.33435
▁Un	-9.33576
▁aid	-9.33674
▁40	-9.33802
▁pa	-9.33813
▁piece	-9.33857
▁easy	-9.33858
▁kids	-9.34072
▁activ	-9.34077
▁petition	-9.34082
▁Palestinian	-9.34116
▁prevent	-9.34331
▁clean	-9.3434
▁gone	-9.34592
▁lin	-9.34693
▁discuss	-9.34695
▁measure	-9.34837
▁sea	-9.34885
▁Jo	-9.34938
▁damage	-9.35067
▁weekend	-9.35087
▁Th	-9.35149
▁sexual	-9.35195
▁hood	-9.35205
▁thank	-9.35237
▁pen	-9.35358
▁ford	-9.35391
▁El	-9.35544
▁net	-9.35752
▁logy	-9.35819
▁river	-9.35938
ci	-9.35961
▁score	-9.35975
▁100	-9.36043
▁Febru	-9.36057
ca	-9.36145
▁cancer	-9.36182
▁eith	-9.36184
▁paper	-9.36187
▁dec	-9.36261
▁fence	-9.3631
▁paid	-9.36331
▁fil	-9.3638
▁thousand	-9.36431
▁Pro	-9.36468
▁street	-9.36564
▁structure	-9.36575
▁Hol	-9.36702
na	-9.36711
▁senior	-9.36807
▁pending	-9.36935
▁station	-9.36935
▁described	-9.36937
▁Office	-9.37065
▁lack	-9.37359
ni	-9.37421
▁speech	-9.37437
▁study	-9.37437
ta	-9.3756
▁birth	-9.37563
▁counter	-9.37563
▁os	-9.3759
▁terri	-9.37599
▁cha	-9.37719
▁grand	-9.37853
▁black	-9.37961
▁medical	-9.37963
▁sound	-9.37984
▁trust	-9.3809
▁ill	-9.38194
▁environment	-9.38202
▁Po	-9.38365
▁conduct	-9.38433
▁families	-9.38453
▁ris	-9.38583
▁har	-9.38586
▁24	-9.386
▁weight	-9.38631
▁arrive	-9.38965
▁rul	-9.38977
▁ten	-9.39108
▁ease	-9.39175
▁avoid	-9.39212
▁ts	-9.39289
▁effect	-9.39485
▁acy	-9.39525
▁clima	-9.3962
isl	-9.39651
▁By	-9.39724
▁Ja	-9.39754
▁Dur	-9.39759
▁flation	-9.3987
▁exist	-9.39912
▁Del	-9.40111
▁movie	-9.40135
Picture	-9.40239
▁ians	-9.40296
▁Christmas	-9.40522
▁Am	-9.40587
▁em	-9.40621
▁nine	-9.40782
▁driv	-9.408
▁teen	-9.40861
▁ted	-9.41023
▁prim	-9.41083
▁fit	-9.41147
▁exci	-9.41168
▁sex	-9.41187
ex	-9.4125
ia	-9.41364
▁ha	-9.41418
▁migrant	-9.41698
▁leav	-9.41714
▁mar	-9.41824
▁crowd	-9.41827
▁giving	-9.4196
▁promise	-9.41962
▁Prime	-9.41965
▁screen	-9.41978
▁complain	-9.42092
ed	-9.42199
▁Party	-9.42238
▁ign	-9.42263
▁Jack	-9.42504
▁style	-9.42582
▁favour	-9.42634
▁farm	-9.42664
▁Africa	-9.42669
▁Sam	-9.42707
▁answer	-9.42756
▁tribute	-9.42889
▁choice	-9.42899
▁song	-9.43016
▁quality	-9.43053
▁perfect	-9.43315
▁Or	-9.43541
▁Sin	-9.43663
▁Chin	-9.43678
▁appeal	-9.43828
▁rating	-9.4383
▁holiday	-9.43834
▁han	-9.43839
▁peace	-9.44107
▁chair	-9.44132
▁$1	-9.44172
▁Go	-9.44197
▁shock	-9.44339
▁ina	-9.44588
▁rival	-9.44639
▁works	-9.44658
▁comfort	-9.44775
▁credit	-9.44778
▁Ukrainian	-9.44784
▁gen	-9.44803
▁truggle	-9.44911
▁drink	-9.44912
onflic	-9.45037
▁Ed	-9.45151
▁chester	-9.45197
▁cy	-9.45272
spir	-9.4529
▁Game	-9.45346
▁regular	-9.45457
▁agency	-9.45594
▁draw	-9.45631
▁lation	-9.45731
▁pull	-9.45748
▁Last	-9.45953
▁Ad	-9.45953
▁ney	-9.46012
▁winn	-9.46025
termin	-9.46124
▁contract	-9.46158
▁tech	-9.46184
▁25	-9.462
▁ships	-9.46263
▁Paul	-9.46293
▁skin	-9.46354
If	-9.46389
▁voice	-9.46558
▁stor	-9.46611
▁commit	-9.46703
▁Tom	-9.46706
▁double	-9.46708
di	-9.46752
▁practic	-9.46793
▁trip	-9.46806
ver	-9.46857
▁named	-9.4694
▁techno	-9.46996
▁ves	-9.47079
▁Of	-9.47248
▁crisis	-9.47392
▁par	-9.47565
▁ticket	-9.47675
▁nomin	-9.47692
▁Mo	-9.47866
▁solution	-9.47952
▁progress	-9.47954
ion	-9.48034
▁weapon	-9.48233
▁engage	-9.48384
▁gain	-9.48446
timat	-9.48448
▁rain	-9.48487
▁carry	-9.48534
▁du	-9.48563
20	-9.48638
▁fill	-9.4864
▁spread	-9.48657
▁dress	-9.48666
▁express	-9.48684
▁Mac	-9.4879
▁ti	-9.4879
▁loved	-9.4917
▁culture	-9.49225
▁anim	-9.49235
▁pain	-9.49245
▁band	-9.49284
▁ran	-9.49336
▁doctor	-9.49365
▁stock	-9.4951
▁gas	-9.49557
io	-9.49571
▁aware	-9.49655
▁discover	-9.49661
▁ka	-9.49722
▁ned	-9.49778
▁sport	-9.49959
▁award	-9.50081
▁hair	-9.50112
▁hot	-9.50227
▁Mean	-9.50241
▁Tex	-9.50277
▁bag	-9.50333
▁blood	-9.50521
▁hap	-9.5054
▁Du	-9.50632
▁Char	-9.50814
▁recover	-9.50928
▁type	-9.50971
▁site	-9.51038
solut	-9.51088
▁cast	-9.51137
▁slow	-9.51147
▁Green	-9.51249
of	-9.51268
":	-9.51325
▁Smith	-9.51396
▁Bri	-9.51462
▁appearance	-9.51524
▁original	-9.51533
▁popul	-9.51643
▁contact	-9.51669
▁repeat	-9.51669
▁Michael	-9.51682
ng	-9.51735
▁mental	-9.51747
▁poor	-9.51842
▁ught	-9.51961
▁content	-9.51961
▁production	-9.51974
ing	-9.52021
▁replace	-9.52055
▁plant	-9.52113
50	-9.52161
▁Ra	-9.52202
▁sleep	-9.52254
▁common	-9.52268
▁ality	-9.52401
▁green	-9.52414
pm	-9.52549
▁truck	-9.52849
▁battle	-9.52999
▁migration	-9.53142
articip	-9.53147
▁posit	-9.53152
▁respect	-9.53362
▁standing	-9.53467
▁Ham	-9.53514
▁suspect	-9.53584
▁ily	-9.53643
▁establish	-9.53766
▁tra	-9.53832
▁Street	-9.53878
▁Pat	-9.53915
▁Champion	-9.54027
▁wind	-9.54085
▁kick	-9.54231
▁Mad	-9.54256
▁clos	-9.54301
chedul	-9.54326
▁broad	-9.54329
▁sub	-9.54416
▁wonder	-9.54491
▁wall	-9.54569
▁surprise	-9.54626
▁secure	-9.54629
▁brother	-9.54929
▁maintain	-9.5493
▁poke	-9.54943
▁soft	-9.54962
▁reme	-9.5501
▁ming	-9.55034
rem	-9.55127
▁ee	-9.55293
▁ncy	-9.5538
▁Scottish	-9.55382
▁Even	-9.55416
▁letter	-9.55418
▁attention	-9.55418
▁ances	-9.55434
we	-9.55529
nd	-9.55556
▁pitch	-9.5569
▁conver	-9.55703
▁mon	-9.55828
▁sort	-9.55831
▁Nigeria	-9.55985
▁sentence	-9.55985
▁High	-9.56138
▁effective	-9.56155
▁Korea	-9.56291
▁payment	-9.56305
▁23	-9.56507
▁natural	-9.56602
▁emotion	-9.5664
parat	-9.56648
▁professional	-9.56749
▁Chief	-9.56759
▁settle	-9.56816
▁winner	-9.56821
▁league	-9.56914
▁hotel	-9.5692
▁issu	-9.57032
▁standard	-9.57063
▁li	-9.5709
In	-9.57091
▁reflect	-9.57105
▁Japan	-9.57209
▁craft	-9.57212
▁hundred	-9.57217
▁budget	-9.57373
▁fun	-9.57377
▁warm	-9.57458
▁Mos	-9.57481
▁stream	-9.57518
▁fell	-9.5753
▁exac	-9.57579
▁factor	-9.57587
▁trength	-9.57673
rivat	-9.57735
▁22	-9.57791
▁true	-9.57807
▁request	-9.57827
▁artist	-9.5785
▁education	-9.57982
▁north	-9.5801
mo	-9.5803
▁ator	-9.58054
▁ification	-9.58138
▁influence	-9.58142
▁sector	-9.58143
ba	-9.58286
▁built	-9.58308
▁rough	-9.58323
!"	-9.58352
▁regard	-9.58368
▁throw	-9.58463
tern	-9.58474
he	-9.58475
mp	-9.5852
▁justice	-9.58605
▁above	-9.58763
▁Port	-9.5889
▁Wo	-9.58962
▁begin	-9.59236
▁shire	-9.59241
▁2020	-9.59267
▁conference	-9.59389
▁defeat	-9.59389
▁website	-9.59389
im	-9.59566
▁consum	-9.59582
ge	-9.59647
▁Pet	-9.59761
▁retire	-9.59912
But	-9.59933
▁ny	-9.60075
▁Wa	-9.601
▁camera	-9.60106
▁scar	-9.60109
▁ency	-9.6018
is	-9.60205
▁central	-9.60337
▁lit	-9.60552
▁People	-9.60559
▁electric	-9.60655
us	-9.60788
▁physical	-9.60817
▁sports	-9.60966
▁Service	-9.60975
▁2016	-9.60982
▁x	-9.61111
▁dream	-9.61136
▁lied	-9.6123
▁carri	-9.61235
V	-9.61276
▁convict	-9.61462
▁Ro	-9.61574
▁Secret	-9.61616
▁weather	-9.61616
▁MP	-9.61741
▁path	-9.61847
▁contain	-9.61953
▁Bill	-9.61991
▁lawyer	-9.621
▁abuse	-9.62105
▁der	-9.62276
▁afford	-9.62424
Speak	-9.62427
▁min	-9.62525
▁Bank	-9.62612
▁tele	-9.62677
▁da	-9.62746
▁Ab	-9.62876
▁prime	-9.62897
▁fix	-9.62917
ig	-9.62934
▁location	-9.63075
▁Over	-9.63172
▁ibility	-9.63238
▁charged	-9.63271
▁Robert	-9.63566
▁stone	-9.63569
▁tough	-9.63574
▁Act	-9.63585
▁active	-9.63733
tual	-9.63755
▁Su	-9.63818
▁Premier	-9.63895
▁bling	-9.63895
▁introduc	-9.63895
▁First	-9.63941
▁sight	-9.63959
▁pret	-9.6408
▁EU	-9.64141
appoint	-9.64235
▁specific	-9.64337
▁makers	-9.64518
▁Tor	-9.64529
▁vi	-9.64551
▁2024.	-9.64878
▁council	-9.64887
▁profit	-9.64915
▁Lu	-9.65082
▁normal	-9.65227
▁deni	-9.65235
▁kept	-9.65555
▁south	-9.65557
▁highlight	-9.65558
▁Sta	-9.65585
▁explo	-9.65718
▁illegal	-9.65733
▁shift	-9.65746
▁Bal	-9.65862
▁Mark	-9.6601
▁generation	-9.66088
▁enger	-9.66236
▁poli	-9.6625
▁ter	-9.66263
▁depend	-9.66418
▁alone	-9.66427
po	-9.66484
▁Pa	-9.6653
tatu	-9.66538
▁tory	-9.66613
▁trade	-9.66682
▁Council	-9.66733
ft	-9.66735
Y	-9.66759
▁hou	-9.66791
▁closed	-9.66878
▁comb	-9.669
▁essential	-9.66902
▁Putin	-9.66909
▁citizen	-9.67242
▁famous	-9.67245
▁assault	-9.67413
▁guard	-9.6742
▁Fox	-9.67441
ա	-9.67514
▁tion	-9.67578
▁para	-9.67597
▁burn	-9.67598
▁From	-9.67624
▁mer	-9.67649
▁Florida	-9.67754
▁TikTok	-9.67754
▁baby	-9.67759
▁Ali	-9.67762
ner	-9.67821
▁Ky	-9.67908
▁historic	-9.6793
▁mix	-9.67939
▁fuel	-9.67949
▁roll	-9.67951
▁Two	-9.67954
▁mate	-9.67964
▁Don	-9.68108
▁Ex	-9.6818
▁rich	-9.68187
▁priorit	-9.68278
▁connect	-9.68441
▁annual	-9.68441
▁memor	-9.68448
▁version	-9.68619
30	-9.68653
▁yard	-9.68779
press	-9.68779
▁iving	-9.68792
▁$2	-9.68868
▁Kar	-9.6887
▁Georg	-9.6888
▁demon	-9.6891
▁district	-9.68959
▁terror	-9.68996
▁Sup	-9.69057
▁ac	-9.69186
ze	-9.69281
▁cies	-9.69307
▁scored	-9.69346
▁sustain	-9.69357
▁Net	-9.69603
▁wild	-9.69671
▁adult	-9.69674
▁cash	-9.69739
▁storm	-9.69842
▁van	-9.70011
▁gar	-9.70157
pe	-9.70158
one	-9.70173
That	-9.70259
▁restaurant	-9.70354
▁ri	-9.70393
▁ify	-9.70418
▁pack	-9.70421
▁Fi	-9.70422
ent	-9.70423
▁Euro	-9.70524
▁network	-9.70532
▁priv	-9.70585
▁remark	-9.70594
pa	-9.7071
▁Thom	-9.7072
▁JP	-9.70756
▁spend	-9.70859
▁dem	-9.70881
▁rock	-9.70884
ous	-9.70906
▁Star	-9.70942
va	-9.70964
▁fine	-9.71054
▁2022,	-9.71168
▁Sch	-9.71272
ap	-9.71293
▁boss	-9.71429
▁Open	-9.71438
ka	-9.71448
▁cow	-9.71546
▁apart	-9.71554
▁fighting	-9.71614
▁2024,	-9.71653
▁cur	-9.71665
consist	-9.71704
▁Te	-9.71739
▁welcome	-9.71769
▁Health	-9.71769
▁UN	-9.71786
ac	-9.71801
Tayl	-9.71929
▁Martin	-9.71948
▁lined	-9.71961
▁quad	-9.71964
partie	-9.71995
▁Me	-9.7201
▁dai	-9.72022
▁born	-9.72115
▁union	-9.72124
▁floor	-9.72141
▁predict	-9.72153
▁ur	-9.72185
▁witness	-9.72304
▁ancing	-9.72305
▁ociety	-9.72308
▁Ga	-9.72495
▁Jan	-9.72531
▁Mel	-9.72641
▁stress	-9.72663
▁Royal	-9.72674
▁poss	-9.72682
▁wish	-9.72697
▁Super	-9.7271
Getty	-9.72927
▁island	-9.73024
beauti	-9.73039
▁placed	-9.73079
▁ators	-9.73118
▁Mi	-9.73168
▁harm	-9.73343
▁audience	-9.73384
▁advance	-9.73566
▁organization	-9.73566
▁boost	-9.73574
▁guilt	-9.73747
▁sey	-9.73785
▁Will	-9.73846
urviv	-9.73929
▁missile	-9.73929
▁defense	-9.73944
term	-9.74063
▁era	-9.74132
▁delay	-9.74133
▁mach	-9.74197
▁temper	-9.74309
▁gender	-9.7431
▁Georgi	-9.74377
▁elected	-9.745
▁row	-9.74521
off	-9.74648
▁batter	-9.74681
▁Mer	-9.74734
▁elling	-9.74851
bo	-9.74891
▁ongo	-9.74898
▁pleas	-9.74905
▁Here	-9.74919
sum	-9.75001
▁contest	-9.75037
▁lies	-9.75196
▁journey	-9.75211
▁unit	-9.75228
▁text	-9.75242
▁Apple	-9.75262
em	-9.75285
▁Q	-9.75393
▁ada	-9.75576
▁middle	-9.75582
▁fly	-9.75595
▁crash	-9.75596
▁2023,	-9.75662
▁inj	-9.75772
▁abort	-9.75792
▁ning	-9.75847
▁recall	-9.76092
▁village	-9.76138
▁rep	-9.76142
▁Hill	-9.76147
▁facing	-9.76161
▁debut	-9.76186
▁juries	-9.76323
▁dance	-9.76327
▁2021	-9.76353
▁Nor	-9.76369
▁attract	-9.76454
ie	-9.76515
▁Ry	-9.76529
nk	-9.76531
▁sell	-9.7654
▁attorney	-9.76697
▁recommend	-9.76753
▁po	-9.77003
▁angerous	-9.77077
▁bid	-9.77136
▁coast	-9.77287
▁advise	-9.77456
▁ho	-9.77477
▁Pre	-9.77552
▁inner	-9.77556
▁fresh	-9.77648
▁episode	-9.77676
▁auto	-9.77677
▁plann	-9.77697
▁rative	-9.77827
▁NH	-9.77881
go	-9.78071
▁lay	-9.78088
▁lo	-9.78159
▁circu	-9.78183
▁display	-9.78217
▁60	-9.78286
▁hop	-9.78408
▁univers	-9.78408
ki	-9.78444
▁straight	-9.78585
▁update	-9.78586
▁Jer	-9.78603
ry	-9.78658
▁center	-9.78758
▁lift	-9.78784
▁threa	-9.78852
▁ak	-9.78856
▁rank	-9.78949
▁bomb	-9.78981
▁ple	-9.78983
▁anger	-9.79051
▁English	-9.79159
▁doubt	-9.7916
▁insist	-9.79174
▁bum	-9.79195
▁prosecutor	-9.79351
▁Form	-9.79361
▁writer	-9.79409
▁cus	-9.79436
▁Gu	-9.79529
▁traditional	-9.79567
▁Sir	-9.79669
▁Ha	-9.79697
▁nel	-9.79749
ub	-9.79773
And	-9.79842
▁import	-9.79928
▁difference	-9.79929
▁Amazon	-9.79929
▁journalist	-9.79931
▁Carol	-9.79955
▁Union	-9.80138
▁ncies	-9.80316
▁Wale	-9.8048
▁stood	-9.80512
▁holding	-9.80533
▁page	-9.80549
tens	-9.80564
ee	-9.80598
▁spective	-9.80708
▁pandemic	-9.80729
▁construct	-9.80739
▁Ko	-9.80772
▁Bar	-9.80868
▁Island	-9.809
▁tree	-9.80903
▁favor	-9.81095
▁writing	-9.81095
▁scape	-9.81097
▁Ku	-9.81132
▁ites	-9.8114
ga	-9.81197
▁parliament	-9.81291
▁Post	-9.81339
▁29	-9.81432
▁balance	-9.81488
▁Bay	-9.81567
nov	-9.81598
▁married	-9.81683
▁é	-9.81743
▁beach	-9.81766
▁debt	-9.81858
▁ul	-9.81884
▁tournament	-9.82077
▁izing	-9.82081
▁CE	-9.82176
▁coll	-9.82204
▁Cam	-9.82254
▁ave	-9.82358
▁ending	-9.82368
▁rent	-9.82374
▁topped	-9.82473
▁aries	-9.82474
▁Kamala	-9.82484
▁agent	-9.82485
▁cool	-9.82548
▁plane	-9.82563
▁dish	-9.82572
▁pop	-9.82596
▁tip	-9.82665
▁lan	-9.82775
&	-9.82793
▁Shar	-9.82832
▁flood	-9.8287
▁id	-9.83057
▁enforce	-9.83069
▁email	-9.8307
▁cook	-9.8309
day	-9.83203
▁restrict	-9.83269
▁drone	-9.83273
▁cheme	-9.83273
▁bey	-9.8328
▁loan	-9.83293
tic	-9.83412
▁declare	-9.83504
▁college	-9.83669
▁encourage	-9.83669
▁dark	-9.83857
▁connection	-9.8408
▁subject	-9.84278
AP	-9.84343
▁1.	-9.84465
quip	-9.84574
▁write	-9.84616
▁Arm	-9.84816
ach	-9.8483
▁jump	-9.84887
▁nice	-9.84913
hoos	-9.84921
▁Wal	-9.85077
▁occasion	-9.85084
▁cream	-9.85096
▁Bel	-9.85134
rate	-9.85362
▁Sea	-9.85381
▁cloth	-9.85491
▁Gold	-9.85585
What	-9.85624
ho	-9.85648
▁Pri	-9.85686
▁Jones	-9.85713
out	-9.85775
▁char	-9.85793
▁organ	-9.85833
▁Nation	-9.85861
▁General	-9.85933
▁28	-9.86137
▁ey	-9.86187
▁wave	-9.86274
▁smart	-9.86327
▁Khan	-9.86389
ag	-9.8646
▁expand	-9.8653
▁committed	-9.8653
▁2017	-9.86534
ist	-9.86625
▁cit	-9.86668
ant	-9.86771
▁ell	-9.86889
▁female	-9.86932
▁window	-9.86938
▁occur	-9.8694
mi	-9.8706
▁rity	-9.87142
▁mini	-9.8717
▁Law	-9.87199
▁27	-9.87218
▁Cent	-9.87298
ang	-9.8735
▁Commission	-9.87555
▁allies	-9.87557
▁Pakistan	-9.87567
▁Home	-9.87571
▁tru	-9.87615
▁impress	-9.87799
▁spect	-9.87833
▁sav	-9.87853
My	-9.87854
▁2025	-9.87854
▁0	-9.87918
▁die	-9.87964
▁strict	-9.87985
▁dad	-9.88036
▁stated	-9.8808
▁reject	-9.88092
▁eek	-9.88268
▁Che	-9.88275
▁extend	-9.88455
▁ju	-9.88506
▁jail	-9.88623
▁Pra	-9.88645
▁Ste	-9.88697
▁material	-9.88816
▁ado	-9.88844
▁istic	-9.8886
▁boat	-9.88869
per	-9.8899
▁admitted	-9.89026
if	-9.89097
é	-9.891
▁ferred	-9.89238
▁gather	-9.89239
▁cultural	-9.89252
▁west	-9.89406
▁ocracy	-9.8945
▁blue	-9.8947
▁berg	-9.89685
▁ja	-9.89831
▁Cal	-9.89869
▁ballot	-9.89879
▁haven	-9.89879
▁traffic	-9.89896
▁Vic	-9.90007
▁logical	-9.90096
▁ique	-9.9013
▁31	-9.90139
▁kin	-9.90154
▁Daniel	-9.90306
▁brief	-9.90519
▁ically	-9.90521
▁Mike	-9.90557
So	-9.906
▁putt	-9.90639
▁Sha	-9.90643
maz	-9.90717
▁colleague	-9.90734
▁speed	-9.9077
▁Fin	-9.90794
▁stick	-9.9102
▁Den	-9.91042
back	-9.9114
▁sister	-9.91171
▁Test	-9.91203
▁achieve	-9.91245
uk	-9.91308
▁skill	-9.91371
%	-9.91422
J	-9.91461
▁ginning	-9.91599
▁trend	-9.91599
▁proud	-9.91616
▁hern	-9.91623
▁brain	-9.9164
▁fee	-9.91651
▁raise	-9.91786
▁Group	-9.91821
▁gate	-9.91909
▁En	-9.91916
▁Most	-9.91922
▁Far	-9.91949
con	-9.92039
abo	-9.92066
▁user	-9.92107
No	-9.92147
▁ji	-9.92177
▁ya	-9.92202
▁bowl	-9.9228
▁tle	-9.9231
cu	-9.92419
▁ana	-9.92459
▁fish	-9.92678
▁ultimate	-9.9269
▁supply	-9.92726
▁Vi	-9.92872
▁print	-9.92929
ment	-9.9296
▁winter	-9.92983
ah	-9.92987
▁School	-9.93132
▁trail	-9.93159
▁Twi	-9.93223
ine	-9.93225
▁Cha	-9.93282
trem	-9.93303
▁garden	-9.93355
▁modern	-9.93366
▁Dan	-9.93478
▁Ni	-9.9349
▁ester	-9.93554
▁mine	-9.93563
▁article	-9.93613
▁wan	-9.93661
▁2023.	-9.93765
▁cold	-9.93794
She	-9.93865
▁ged	-9.93896
▁Min	-9.93903
quir	-9.9399
▁Hou	-9.93994
▁ization	-9.94016
▁ception	-9.9402
▁intelligence	-9.94023
▁listen	-9.94068
▁infra	-9.94245
▁God	-9.94299
▁iv	-9.94328
ise	-9.9437
▁ility	-9.94463
▁Play	-9.94507
▁Hall	-9.9457
efinite	-9.94651
▁confide	-9.94708
▁paint	-9.94766
▁ress	-9.94895
▁pension	-9.9491
▁wealth	-9.94911
▁language	-9.94933
▁resource	-9.94958
▁grant	-9.94984
▁Gra	-9.95092
▁2019	-9.95112
▁committee	-9.95135
▁troop	-9.95138
▁stuff	-9.9521
▁ang	-9.95278
Elect	-9.95373
wedd	-9.954
▁emb	-9.95655
▁Ka	-9.95729
▁med	-9.95788
▁cities	-9.95812
▁Musk	-9.95838
▁nor	-9.95976
▁flu	-9.96031
tro	-9.96032
▁Photograph	-9.96039
▁talent	-9.96042
▁catch	-9.96086
▁prose	-9.9609
▁typical	-9.96266
▁flag	-9.96266
▁semi	-9.96347
▁aged	-9.96392
▁Pi	-9.96495
▁inform	-9.96502
▁survey	-9.96509
ow	-9.96513
▁guide	-9.9655
age	-9.96584
▁bridge	-9.96723
rd	-9.96754
▁luck	-9.96757
▁ried	-9.96773
▁hall	-9.96839
▁tee	-9.96878
▁Wil	-9.96907
▁necessary	-9.96951
▁degree	-9.9701
▁Queen	-9.97113
▁cre	-9.97132
▁ense	-9.97191
▁jo	-9.97273
▁Jew	-9.97295
▁Ram	-9.97321
+	-9.97363
▁Mil	-9.97392
▁institut	-9.9741
▁divers	-9.97592
▁fare	-9.97635
▁horr	-9.97683
cruci	-9.97687
▁feet	-9.97693
▁tool	-9.97699
▁maybe	-9.97722
▁trad	-9.97759
▁African	-9.97818
▁ston	-9.97853
▁collect	-9.9786
▁Chelsea	-9.97871
▁purchase	-9.97871
▁equal	-9.97872
▁Arab	-9.97876
▁Kate	-9.97897
▁Both	-9.97957
▁£2	-9.98026
anufactur	-9.98103
▁route	-9.98103
▁2022.	-9.98116
▁programme	-9.98123
▁Ar	-9.98139
▁esh	-9.98334
▁dry	-9.98335
▁corner	-9.98351
struct	-9.98391
▁retail	-9.98486
▁transport	-9.98568
▁prompt	-9.98568
▁Bru	-9.9863
▁AP	-9.9865
▁Modi	-9.98813
▁Liver	-9.98874
▁ron	-9.98894
▁soldier	-9.99034
▁llah	-9.99035
▁expos	-9.99036
▁Adam	-9.9906
▁colour	-9.99061
▁Is	-9.99063
▁eth	-9.99072
▁Mary	-9.99189
▁Arsenal	-9.99269
▁fur	-9.99336
▁Kat	-9.99444
ru	-9.99449
▁Lat	-9.99469
▁Tu	-9.99491
▁teacher	-9.99529
▁Cel	-9.99554
▁Art	-9.99563
▁Starmer	-9.99742
▁Why	-9.99858
pro	-9.99906
▁Netanyah	-9.99974
▁burgh	-9.99987
Re	-10.0011
▁organisation	-10.0021
▁register	-10.0021
▁--	-10.0024
▁sur	-10.0024
▁Ver	-10.0025
▁credible	-10.0045
▁complex	-10.0045
▁domestic	-10.0049
▁rick	-10.0055
▁lash	-10.0057
▁ig	-10.006
▁nuclear	-10.0069
▁dismiss	-10.0069
▁associate	-10.0069
▁planned	-10.007
▁fashion	-10.0072
▁blow	-10.0094
▁Scott	-10.0111
▁laugh	-10.0116
▁Chicago	-10.0117
ble	-10.0121
▁minor	-10.0121
▁appli	-10.0129
▁flow	-10.0138
▁Ca	-10.0148
uff	-10.0154
▁code	-10.0154
▁prom	-10.0154
▁Bor	-10.0161
▁commission	-10.0188
▁plenty	-10.0188
▁Ri	-10.019
▁odd	-10.0192
▁broke	-10.0196
ya	-10.0197
▁pan	-10.0204
▁Men	-10.0208
▁Mari	-10.0209
▁Francis	-10.0212
▁giant	-10.0213
▁fortunate	-10.0213
▁blame	-10.0213
▁dollar	-10.0216
▁Ita	-10.0217
▁twi	-10.0224
15	-10.0229
▁isation	-10.0236
▁keeping	-10.024
▁zone	-10.0241
▁mum	-10.0249
▁Pan	-10.0254
▁guest	-10.0262
▁written	-10.0262
▁Clark	-10.0263
▁ware	-10.0267
▁Mill	-10.0278
▁digital	-10.0285
▁Van	-10.0287
▁Grand	-10.0288
▁Big	-10.0292
ish	-10.0299
▁destroy	-10.0309
▁ST	-10.0321
▁Richard	-10.0334
▁implement	-10.0334
▁royal	-10.0335
▁crew	-10.0335
▁medal	-10.0338
▁Ag	-10.0352
▁fellow	-10.0359
▁object	-10.0359
▁Hav	-10.036
for	-10.0368
▁chain	-10.037
▁ci	-10.0376
▁sitting	-10.0383
▁ville	-10.0385
▁rose	-10.0389
um	-10.0398
▁honest	-10.0407
▁gift	-10.0407
▁Sara	-10.0415
▁cycle	-10.0432
▁cancel	-10.0432
▁disappoint	-10.0438
▁pe	-10.0441
ever	-10.0449
▁Google	-10.0457
▁conservative	-10.0458
▁2015	-10.0458
▁Face	-10.046
fa	-10.0465
▁nar	-10.0472
▁neighbor	-10.0481
▁udden	-10.0481
▁correct	-10.0481
▁transform	-10.0482
▁assess	-10.0483
▁governor	-10.0494
▁4.	-10.0504
om	-10.051
▁wag	-10.0518
▁2.	-10.053
25	-10.0531
▁Glas	-10.0531
▁Na	-10.0534
▁Press	-10.0535
▁broken	-10.0542
▁coal	-10.0542
▁scribe	-10.0556
▁encing	-10.0556
act	-10.0556
▁Syria	-10.0556
▁note	-10.056
▁remind	-10.0568
▁len	-10.0577
▁Louis	-10.0581
▁itude	-10.0581
▁bound	-10.0582
lu	-10.0584
▁tter	-10.0594
▁Bur	-10.0595
▁related	-10.0596
▁exp	-10.0596
▁Western	-10.0606
17	-10.0607
uch	-10.0612
▁Up	-10.0616
▁pensive	-10.0631
▁lative	-10.0631
▁3.	-10.0632
▁mi	-10.0638
▁Love	-10.0639
▁afternoon	-10.0656
▁lived	-10.0664
▁Brown	-10.0681
▁capture	-10.0681
▁crack	-10.0682
▁reform	-10.0682
▁Lake	-10.0686
ff	-10.0688
▁Victor	-10.0707
▁Sky	-10.0707
▁rator	-10.0709
▁ery	-10.0711
▁ordin	-10.0716
▁za	-10.0716
▁Ze	-10.0718
▁ard	-10.072
si	-10.0729
▁broadcast	-10.0732
40	-10.0742
▁upon	-10.0751
▁opponent	-10.0758
▁Col	-10.0761
ak	-10.0764
▁gent	-10.0772
▁tend	-10.0773
▁Ba	-10.078
▁activity	-10.0783
▁joke	-10.0784
▁cas	-10.0796
▁ition	-10.0801
ick	-10.0801
▁Pen	-10.0807
▁photograph	-10.0809
▁wise	-10.0817
</	-10.0823
▁Seat	-10.0825
▁Out	-10.0825
▁CO	-10.0826
▁marriage	-10.0834
disrupt	-10.0834
▁ction	-10.0834
nder	-10.0845
der	-10.0853
▁Kim	-10.0855
▁rescue	-10.086
▁Middle	-10.086
▁Ty	-10.0878
▁Tim	-10.088
tch	-10.0881
▁itarian	-10.0886
▁adopt	-10.0886
▁tance	-10.0887
▁athlete	-10.0912
▁Ash	-10.0927
▁Mexico	-10.094
au	-10.0942
▁rush	-10.0943
▁century	-10.0946
▁Gen	-10.0956
▁fer	-10.0963
▁captain	-10.0964
▁Va	-10.0966
▁fif	-10.0968
▁1,	-10.0973
range	-10.0975
▁pirit	-10.099
▁Miss	-10.0993
oo	-10.0997
ollaps	-10.1003
▁ral	-10.1003
strong	-10.1014
▁ivity	-10.1016
▁trouble	-10.1016
▁Christian	-10.1017
▁vers	-10.1024
▁Bi	-10.1029
▁soci	-10.103
rt	-10.1032
▁PM	-10.104
▁finance	-10.1042
▁opinion	-10.1042
▁intend	-10.1043
▁Earl	-10.1044
▁26	-10.1044
▁Kei	-10.1045
▁Under	-10.1051
▁Direct	-10.1068
▁cheap	-10.1068
▁mistake	-10.1069
▁render	-10.107
▁mouth	-10.1071
▁hole	-10.1079
▁ach	-10.1081
Thank	-10.1083
ard	-10.1088
▁Sports	-10.109
▁Cor	-10.1098
form	-10.111
▁sand	-10.112
▁Hunt	-10.1121
▁split	-10.1121
▁transfer	-10.1121
▁35	-10.1122
▁Blue	-10.1123
▁Swe	-10.1124
▁ren	-10.1128
▁Chan	-10.1143
▁Swift	-10.1147
▁sequence	-10.1147
▁Singh	-10.1147
▁hurt	-10.1148
▁asset	-10.1148
▁Commit	-10.1149
▁River	-10.1149
▁ki	-10.1151
▁80	-10.1152
▁ager	-10.1153
▁Chris	-10.1158
Be	-10.1161
▁frame	-10.1174
▁truth	-10.1179
▁consult	-10.118
OR	-10.119
▁$3	-10.1191
▁advantage	-10.12
▁maker	-10.1201
▁tur	-10.1208
▁Com	-10.1213
ec	-10.1218
▁hu	-10.1223
▁NBC	-10.1227
▁profess	-10.1227
advoc	-10.1228
▁Who	-10.1235
▁ni	-10.1238
▁90	-10.1242
▁collection	-10.1255
▁Mur	-10.1256
▁ns	-10.1256
▁200	-10.1263
▁load	-10.1282
▁Great	-10.1285
▁fin	-10.1286
▁acknowledge	-10.1307
▁festival	-10.1307
▁def	-10.1309
▁shape	-10.1312
▁diploma	-10.1313
ew	-10.1332
▁tension	-10.1335
▁2014	-10.1336
▁­	-10.1339
▁Like	-10.1341
▁neg	-10.1342
op	-10.1342
To	-10.1347
▁Well	-10.1353
▁male	-10.1356
▁cell	-10.1358
▁ibly	-10.1361
▁drama	-10.1362
ccin	-10.1379
▁Institut	-10.1389
▁locate	-10.1389
aw	-10.1389
▁ones	-10.1391
ip	-10.1411
▁Lebanon	-10.1416
▁breath	-10.1416
▁purpose	-10.1417
▁neighbour	-10.1417
▁offensive	-10.1418
▁capaci	-10.1418
ud	-10.1436
ollow	-10.1441
▁prospect	-10.1445
▁spring	-10.147
▁chat	-10.1481
▁2021,	-10.1489
▁vent	-10.1492
br	-10.1494
our	-10.1497
▁£3	-10.1497
▁Italian	-10.1498
▁task	-10.1498
▁promote	-10.1526
fe	-10.1535
▁ette	-10.1535
▁flix	-10.1553
▁approve	-10.1554
▁#	-10.1555
▁willing	-10.1558
▁@	-10.156
▁cri	-10.1569
▁flat	-10.1578
▁infect	-10.158
▁surgery	-10.158
ay	-10.1583
▁fused	-10.1587
ber	-10.1589
bn	-10.16
run	-10.1606
▁invite	-10.1608
▁breaking	-10.1619
▁ari	-10.162
▁regional	-10.1621
▁Atla	-10.1621
▁70	-10.1627
type	-10.1636
▁motor	-10.1637
-19	-10.1642
▁Ye	-10.1653
▁apolog	-10.1664
▁cricket	-10.1664
▁bear	-10.1667
▁Meg	-10.167
▁compete	-10.1692
▁surface	-10.1692
▁fraud	-10.1692
▁vul	-10.1696
▁wing	-10.1714
ja	-10.172
▁knock	-10.172
▁transition	-10.172
▁veteran	-10.172
▁lux	-10.172
▁Mail	-10.1723
▁Chi	-10.1733
▁hang	-10.1739
▁communication	-10.1748
▁suppose	-10.1748
million	-10.1748
▁direction	-10.175
▁Alex	-10.1752
bi	-10.1757
▁lie	-10.1762
▁scale	-10.1765
▁Sab	-10.1767
10	-10.1774
▁/	-10.1789
▁Colle	-10.1801
▁ceremony	-10.1804
▁master	-10.1806
▁Let	-10.1822
long	-10.1823
▁grew	-10.1833
ast	-10.1836
page	-10.1842
▁bert	-10.1853
▁truggling	-10.1861
▁stretch	-10.1861
▁45	-10.1872
▁Je	-10.1881
▁confident	-10.1889
▁Good	-10.1893
▁shut	-10.1904
▁cease	-10.1904
▁meal	-10.1918
man	-10.1918
▁hree	-10.1918
▁sweet	-10.1918
▁rations	-10.1919
▁PS	-10.1935
▁Gov	-10.1938
▁affair	-10.1947
▁clip	-10.1947
▁Fan	-10.1953
▁Met	-10.196
▁feed	-10.1967
▁Social	-10.1975
▁switch	-10.1975
▁elector	-10.1979
▁Jim	-10.1983
ab	-10.1983
▁Dai	-10.1984
▁bench	-10.1989
▁behaviour	-10.2004
▁monitor	-10.2004
▁podcast	-10.2004
▁presence	-10.2004
▁swim	-10.2005
▁youth	-10.2008
▁io	-10.2015
▁BI	-10.202
▁handle	-10.2026
end	-10.2028
▁accident	-10.2033
▁stances	-10.2033
▁erty	-10.2033
▁Han	-10.2039
▁ging	-10.2039
▁eat	-10.2047
▁ambit	-10.2048
▁Lee	-10.2051
▁suppl	-10.2058
ive	-10.2059
▁cientist	-10.2062
▁pet	-10.2063
▁reading	-10.2064
▁medic	-10.2065
▁tight	-10.2072
▁resign	-10.2073
▁bath	-10.2076
▁frust	-10.2091
▁ung	-10.2096
▁esca	-10.2096
▁eas	-10.211
▁sold	-10.2112
▁Brazil	-10.212
▁church	-10.212
▁tackle	-10.2121
▁Team	-10.2122
▁Road	-10.2123
ult	-10.2125
nvest	-10.2132
▁ez	-10.2135
▁Carl	-10.2138
▁tear	-10.2145
▁Central	-10.2149
▁exercise	-10.2149
▁negoti	-10.215
▁analyst	-10.216
▁indicate	-10.218
▁lief	-10.2183
▁notice	-10.2187
▁Dar	-10.2192
▁joint	-10.2201
▁insurance	-10.2208
▁Irish	-10.2208
▁entertain	-10.2209
▁length	-10.2211
▁Year	-10.2212
▁FA	-10.2234
ny	-10.2241
▁ga	-10.2254
▁channel	-10.2267
▁panel	-10.2269
24	-10.2271
▁Max	-10.2271
▁ap	-10.2277
▁Live	-10.2284
▁Sal	-10.2287
ian	-10.2291
▁regulation	-10.2297
▁Wood	-10.2297
▁appropriate	-10.2298
▁Sw	-10.2304
hu	-10.2304
-1	-10.2305
▁kar	-10.2321
▁Trans	-10.2327
▁Judge	-10.2328
▁constant	-10.2328
▁worry	-10.2329
all	-10.2332
▁bull	-10.2332
▁novel	-10.2332
right	-10.2346
▁bodies	-10.2357
▁command	-10.2357
▁Islam	-10.2357
▁neck	-10.236
▁reaction	-10.2366
▁mo	-10.2367
▁Best	-10.2374
▁hat	-10.2379
▁reli	-10.2385
▁NFL	-10.2387
▁emporary	-10.2387
▁imagine	-10.2387
▁elect	-10.2397
▁Ran	-10.2405
▁hate	-10.2409
▁Ten	-10.2416
▁horse	-10.2417
egor	-10.2418
▁Sp	-10.242
▁Ti	-10.2421
▁ko	-10.2427
▁ITV	-10.2429
volv	-10.2446
▁suspend	-10.2447
vo	-10.2448
▁Josh	-10.245
oph	-10.2453
▁Free	-10.2455
▁bottle	-10.2477
▁legend	-10.2479
▁gang	-10.2482
mon	-10.2482
▁Us	-10.2484
▁Real	-10.2492
▁bottom	-10.2508
▁mann	-10.2512
▁Sand	-10.2516
▁ke	-10.2519
▁rail	-10.2525
▁Qu	-10.2537
▁abilities	-10.2538
▁root	-10.254
▁joy	-10.2544
call	-10.2544
▁Pu	-10.2544
▁34	-10.2546
▁Force	-10.2548
desti	-10.255
▁trap	-10.2555
▁wound	-10.2571
final	-10.2571
▁ural	-10.2577
▁fold	-10.259
▁pin	-10.2593
▁clusion	-10.2599
▁forecast	-10.2599
▁solid	-10.2606
▁5.	-10.261
▁Matt	-10.2613
▁Bas	-10.2616
▁onic	-10.262
▁label	-10.2637
▁gow	-10.2649
▁Boe	-10.265
ok	-10.2651
▁Read	-10.2652
get	-10.2653
99	-10.2661
rain	-10.2679
▁clash	-10.2691
lic	-10.2693
▁fake	-10.2694
▁classic	-10.2696
-2	-10.27
▁NC	-10.2707
▁studi	-10.2716
▁easily	-10.2722
▁prize	-10.2722
▁proceed	-10.2722
▁ami	-10.2723
false	-10.2725
▁solve	-10.2739
▁Kel	-10.274
▁Gi	-10.2748
▁Vo	-10.2753
▁conclude	-10.2754
▁waste	-10.2755
▁McC	-10.2755
ear	-10.2759
rn	-10.2763
▁nish	-10.2766
▁33	-10.2771
▁Da	-10.2781
▁deploy	-10.2784
▁withdraw	-10.2784
▁praise	-10.2784
▁2012	-10.2786
▁Nav	-10.2788
▁Nick	-10.2791
▁false	-10.2814
▁draft	-10.2816
▁cious	-10.2816
▁violent	-10.282
▁pound	-10.2822
▁Tour	-10.2823
▁trick	-10.2824
▁bond	-10.2827
▁chip	-10.2835
▁Arizona	-10.2847
▁ical	-10.286
▁ray	-10.2863
45	-10.2874
▁Mal	-10.2876
▁bonus	-10.2879
▁arti	-10.288
har	-10.2882
ի	-10.2883
80	-10.2884
▁Moha	-10.2885
ea	-10.2904
▁Element	-10.291
▁Pennsylvania	-10.291
▁trigger	-10.291
▁sky	-10.2921
▁chi	-10.2926
▁beauty	-10.2941
▁Yo	-10.2957
▁tir	-10.2968
▁commercial	-10.2973
▁adapt	-10.2973
▁Work	-10.2974
▁Bos	-10.2977
▁Ala	-10.2982
▁bal	-10.2984
▁MA	-10.2996
▁mates	-10.2999
▁dict	-10.2999
▁bio	-10.3002
▁fa	-10.3002
▁yan	-10.3004
▁routine	-10.3005
▁section	-10.3007
▁detect	-10.3009
▁sharp	-10.3011
pp	-10.3012
▁32	-10.3037
▁pledge	-10.3037
▁assum	-10.3041
▁Right	-10.3042
▁q	-10.3066
▁frequent	-10.3069
▁divid	-10.3069
▁integ	-10.3069
▁Lord	-10.3076
star	-10.3077
▁vast	-10.308
esir	-10.308
-4	-10.3086
▁Ke	-10.309
12	-10.3093
▁renew	-10.31
▁fam	-10.3103
▁refer	-10.3104
▁bright	-10.3106
▁Ass	-10.3107
▁shots	-10.312
▁achiev	-10.3122
▁alysis	-10.3133
▁guarantee	-10.3133
▁method	-10.3133
▁northern	-10.3133
ly	-10.3138
▁gram	-10.3142
▁intention	-10.3144
▁Barr	-10.3156
▁Dia	-10.3159
▁wake	-10.3161
▁wer	-10.3162
▁Frank	-10.3169
▁Ki	-10.3177
▁gap	-10.3178
▁Jay	-10.3181
▁sha	-10.3195
▁Federal	-10.3198
▁Parliament	-10.3198
▁alcohol	-10.3199
▁admit	-10.32
fi	-10.3219
▁<	-10.3222
▁Jr	-10.323
▁Michigan	-10.3231
▁Tur	-10.3235
mm	-10.3243
▁Brad	-10.3245
▁PA	-10.3246
▁RT	-10.3248
▁manda	-10.3264
▁cor	-10.3266
▁Tri	-10.3269
ternal	-10.327
like	-10.3275
▁36	-10.3291
hy	-10.3299
▁plus	-10.3302
▁Mun	-10.3303
▁mat	-10.3307
▁technic	-10.3329
▁client	-10.3329
▁verse	-10.3331
Kenned	-10.3334
▁strange	-10.3339
▁indic	-10.334
▁ures	-10.3344
▁cade	-10.335
▁invasion	-10.3362
▁mobile	-10.3371
▁Mas	-10.3377
▁signal	-10.3392
cent	-10.3397
▁Dis	-10.34
▁tens	-10.3402
▁Fore	-10.3422
▁oppose	-10.3428
▁ology	-10.3429
▁Simon	-10.343
▁Dun	-10.3434
▁ledge	-10.3439
▁Kha	-10.3439
▁dam	-10.3446
empt	-10.3448
▁LA	-10.3456
▁identify	-10.3462
▁quiet	-10.3463
model	-10.3468
▁Pad	-10.3474
▁Hu	-10.3476
▁2020,	-10.3498
▁Hen	-10.3499
For	-10.3504
▁FC	-10.3505
ey	-10.3524
▁kitchen	-10.3529
▁helter	-10.3529
▁closure	-10.3531
▁Also	-10.3532
▁notes	-10.3538
▁Lan	-10.3547
▁racing	-10.3563
▁prefer	-10.3566
▁snow	-10.3571
▁Christ	-10.3576
60	-10.3583
▁Za	-10.3587
point	-10.3591
fghan	-10.3596
▁igate	-10.3598
▁grab	-10.3599
▁MS	-10.3615
▁prove	-10.3617
row	-10.3619
▁Par	-10.3623
▁recognise	-10.363
▁Jeff	-10.3631
duct	-10.3639
▁vil	-10.364
▁fighter	-10.3644
▁Ob	-10.3644
▁ol	-10.3651
▁advert	-10.3653
▁Rep	-10.3661
▁recruit	-10.3664
▁lating	-10.3664
▁sanction	-10.3664
▁changing	-10.367
▁atory	-10.3675
▁wel	-10.3678
▁Bra	-10.3692
▁nda	-10.3693
▁kid	-10.3697
▁Disney	-10.3698
▁Egypt	-10.3698
▁coffee	-10.3698
▁Tai	-10.3702
▁CBS	-10.3704
▁£5	-10.3706
▁pub	-10.3709
▁ingham	-10.3715
ject	-10.3721
▁brilliant	-10.3733
▁mountain	-10.3733
▁install	-10.3733
▁tries	-10.3733
▁color	-10.3738
led	-10.3753
present	-10.3762
▁Club	-10.3767
▁science	-10.3767
▁Vega	-10.3767
▁hir	-10.3769
▁inn	-10.3772
▁Photo	-10.3776
▁tuck	-10.3779
war	-10.3792
▁Wall	-10.3792
▁bu	-10.3795
eput	-10.3795
▁assassin	-10.3801
▁virus	-10.3802
▁Ya	-10.3818
▁ica	-10.3825
▁Guard	-10.3836
▁spoken	-10.3836
dot	-10.3838
▁Watch	-10.3838
▁Long	-10.384
▁holders	-10.3841
▁enhance	-10.3843
duc	-10.3843
▁Gall	-10.3853
▁wine	-10.3857
▁Hy	-10.3859
▁swing	-10.3868
▁ison	-10.387
▁fruit	-10.3871
▁NBA	-10.3871
▁endorse	-10.3871
▁Guardian	-10.3871
▁Medic	-10.3877
free	-10.3878
▁Show	-10.3878
lam	-10.3882
▁belong	-10.3885
▁const	-10.3887
▁£4	-10.3895
▁excel	-10.3906
▁Back	-10.391
ight	-10.3914
▁ancy	-10.3941
▁confront	-10.3941
▁familiar	-10.3941
▁honor	-10.3941
▁qual	-10.3942
▁Muslim	-10.3944
▁upset	-10.395
▁2018	-10.395
▁ches	-10.3971
▁Hospital	-10.3976
▁clinic	-10.3976
▁residency	-10.3976
▁dramatic	-10.3976
▁feat	-10.3977
▁Plu	-10.3982
▁elig	-10.399
▁lean	-10.3991
▁Ber	-10.3995
spect	-10.3997
▁IP	-10.4
▁ifying	-10.4012
▁Er	-10.4016
▁Four	-10.4021
▁Id	-10.4027
pi	-10.4031
▁Sydney	-10.4046
▁Phone	-10.4047
▁NAT	-10.4047
▁egg	-10.4047
▁competitive	-10.4048
minute	-10.4054
▁iz	-10.4057
▁tz	-10.4072
▁sus	-10.4072
▁refuge	-10.4082
▁potted	-10.4082
▁Emma	-10.4082
▁ski	-10.4082
▁gam	-10.4101
▁illa	-10.4104
▁pal	-10.4108
▁ino	-10.4112
▁forget	-10.4115
▁Gre	-10.4118
▁mount	-10.4121
▁del	-10.4121
za	-10.4127
▁grown	-10.4127
velop	-10.4141
▁Are	-10.4142
dict	-10.4142
▁desperate	-10.4153
▁Rafa	-10.4156
▁core	-10.4184
▁Little	-10.4189
▁YouTube	-10.4189
▁distance	-10.4191
▁peak	-10.4192
ր	-10.4201
du	-10.4201
▁Get	-10.4207
▁Rom	-10.4207
▁regime	-10.4208
▁boot	-10.4213
que	-10.4219
ren	-10.4225
▁Still	-10.4226
▁forest	-10.4238
18	-10.4241
▁weak	-10.4246
▁labor	-10.4263
▁Earth	-10.4263
23	-10.4265
▁wicket	-10.4266
▁37	-10.4268
power	-10.4269
▁pla	-10.4279
ray	-10.4287
ev	-10.4296
▁thrill	-10.4297
▁viral	-10.4298
▁Child	-10.4299
▁scoring	-10.4299
▁wi	-10.4302
▁generate	-10.4302
element	-10.4306
▁Look	-10.4308
▁2019,	-10.4313
▁keeper	-10.4324
▁element	-10.4325
▁Davi	-10.4329
▁CN	-10.4331
▁Associate	-10.4333
▁possess	-10.4333
not	-10.4338
▁pace	-10.4345
▁eva	-10.4345
▁stat	-10.4349
own	-10.4366
▁Sur	-10.4366
▁teach	-10.437
▁folk	-10.437
▁climb	-10.437
▁Saudi	-10.437
▁j	-10.4372
pecu	-10.4372
▁formal	-10.4373
▁Space	-10.4375
▁$5	-10.4375
▁castle	-10.4377
▁GOP	-10.4407
▁vital	-10.4411
▁II	-10.4421
▁chel	-10.4429
▁Ru	-10.4442
▁function	-10.4443
▁abandon	-10.4443
▁package	-10.4444
▁Lead	-10.4449
lim	-10.445
▁istan	-10.4461
11	-10.4474
▁glass	-10.448
▁Digital	-10.448
▁riety	-10.448
▁Phil	-10.448
▁wrap	-10.4482
axim	-10.4496
▁Centre	-10.45
22	-10.4517
▁Sher	-10.452
▁dates	-10.452
▁Share	-10.4522
▁Bad	-10.4525
▁cam	-10.4542
▁Brook	-10.4555
▁obtain	-10.4556
▁2010	-10.4557
ep	-10.4558
ddi	-10.4568
▁Cle	-10.4568
▁spin	-10.4572
▁exit	-10.4587
▁tro	-10.4588
▁500	-10.459
▁symptom	-10.4592
▁numer	-10.4592
▁western	-10.4592
▁val	-10.4598
▁tank	-10.4603
▁lap	-10.4622
▁prior	-10.4627
▁Stephen	-10.4629
▁mortgage	-10.4629
▁punish	-10.4629
▁engineer	-10.4632
▁plot	-10.4632
▁Ker	-10.4633
▁pu	-10.4635
▁Foun	-10.4648
ib	-10.4651
▁ummit	-10.4668
▁Fami	-10.4674
▁studio	-10.4677
▁wash	-10.4681
▁Lau	-10.4696
▁clar	-10.4707
▁acting	-10.4708
▁mal	-10.4709
▁hid	-10.471
▁flower	-10.4711
▁metre	-10.4713
equit	-10.4734
▁Vin	-10.4741
▁Lewis	-10.4742
▁belief	-10.4742
▁mayor	-10.4744
▁diet	-10.4745
ake	-10.4748
low	-10.4749
▁cock	-10.4755
▁Ma	-10.4767
▁48	-10.477
▁Public	-10.478
▁procedure	-10.478
▁shoulder	-10.478
▁hunt	-10.4781
▁End	-10.4782
▁Ever	-10.4792
Ma	-10.4795
▁Line	-10.4801
gu	-10.481
ran	-10.4813
▁Bell	-10.4815
▁coin	-10.4816
▁hill	-10.4818
▁permanent	-10.4819
▁basket	-10.4819
▁ennis	-10.482
▁contrast	-10.4821
▁alert	-10.4821
▁Beach	-10.4822
▁lent	-10.4823
▁chick	-10.4824
▁dia	-10.4829
▁Stud	-10.4833
▁ck	-10.4854
▁Tra	-10.4856
▁edicated	-10.4857
▁ficial	-10.4857
▁eastern	-10.4858
▁Anton	-10.4859
▁cry	-10.4863
▁Ray	-10.4873
▁ideal	-10.4877
▁Ken	-10.4879
bb	-10.4882
state	-10.4884
▁ker	-10.4888
14	-10.4891
▁icit	-10.4892
▁qualify	-10.4895
▁opt	-10.4897
▁exhibit	-10.4899
▁Ask	-10.49
▁Defense	-10.4934
▁shadow	-10.4934
▁riot	-10.4934
70	-10.4935
▁delight	-10.4937
▁cution	-10.4939
use	-10.4943
▁Der	-10.4946
▁Ban	-10.4951
▁convinc	-10.4972
▁immun	-10.4973
▁trauma	-10.4976
mpose	-10.4979
▁Jon	-10.4979
▁Down	-10.498
▁pic	-10.4981
,500	-10.4987
▁anni	-10.4994
ash	-10.5
▁condemn	-10.5012
▁candal	-10.5012
▁2011	-10.5014
▁pit	-10.5014
▁react	-10.5016
▁seed	-10.5022
▁Palm	-10.5024
▁Val	-10.5027
▁rape	-10.5035
▁pose	-10.5038
▁fra	-10.5039
▁ov	-10.5045
▁Virgin	-10.5051
▁mentioned	-10.5051
▁reference	-10.5051
▁Philip	-10.5051
▁Mont	-10.5054
▁2008	-10.5054
▁Gor	-10.5056
▁iness	-10.5058
▁leak	-10.506
▁Mid	-10.5067
▁sh	-10.5073
▁Fa	-10.5074
▁ologist	-10.509
▁organise	-10.5091
▁adjust	-10.5091
▁corrupt	-10.5093
ound	-10.5093
▁motion	-10.5095
▁2021.	-10.5098
sign	-10.5104
▁ze	-10.5109
▁Valle	-10.5132
▁combat	-10.5137
▁Media	-10.5142
ster	-10.5142
▁bin	-10.5145
hand	-10.5152
▁Mor	-10.5162
▁Mu	-10.5163
▁Obama	-10.5169
▁golf	-10.5169
▁pilot	-10.5169
▁tensive	-10.5169
▁38	-10.5176
onym	-10.5176
▁pol	-10.5186
▁Son	-10.5192
▁Bol	-10.5195
▁tactic	-10.5209
▁cheer	-10.5212
▁radio	-10.5213
▁7.	-10.5216
▁bot	-10.5217
▁49	-10.5229
▁las	-10.5232
▁ride	-10.5234
qui	-10.5239
▁ture	-10.5242
▁asylum	-10.5248
▁regulator	-10.5248
▁plastic	-10.5248
▁carbon	-10.5248
▁rapid	-10.525
▁Roman	-10.5252
▁sick	-10.5254
7%	-10.5254
▁Water	-10.5255
▁Bu	-10.5267
▁jun	-10.5269
▁AF	-10.527
▁tine	-10.5287
.1	-10.5288
▁Author	-10.5288
▁exclusive	-10.5288
▁surprising	-10.5288
▁isaster	-10.5289
▁Common	-10.5291
▁uine	-10.5292
▁Walz	-10.5296
▁Boy	-10.5304
rita	-10.5313
▁planet	-10.5314
ize	-10.5315
▁lets	-10.5321
▁cl	-10.5321
▁Lin	-10.5328
▁Jordan	-10.5329
▁credibly	-10.5329
▁hopper	-10.533
▁nam	-10.533
▁vow	-10.5332
▁Lad	-10.534
▁Im	-10.5342
35	-10.5345
▁rot	-10.5361
01	-10.5362
▁therapy	-10.5369
▁honour	-10.5369
▁riff	-10.537
▁calm	-10.5375
X	-10.5376
▁gener	-10.5381
▁teal	-10.5394
▁dian	-10.5396
6%	-10.5402
90	-10.5404
19	-10.5405
html	-10.5409
▁eliminat	-10.5409
▁igator	-10.5409
gi	-10.5419
▁gotten	-10.5423
by	-10.5428
▁Has	-10.5449
▁franchise	-10.545
▁stadium	-10.545
▁VID	-10.5451
▁Life	-10.5451
▁$4	-10.5453
▁math	-10.5455
▁Robin	-10.5456
▁Comp	-10.5461
▁entry	-10.5462
qu	-10.5472
▁tie	-10.5475
▁6.	-10.5477
▁Tro	-10.5478
▁GM	-10.548
▁Win	-10.5488
▁native	-10.5491
▁aved	-10.5491
▁Jess	-10.5492
▁Bridge	-10.5494
▁pray	-10.5497
▁detain	-10.5502
▁Hag	-10.5507
▁jet	-10.5509
umb	-10.5514
-3	-10.5517
▁gon	-10.5522
▁tunning	-10.5532
▁ication	-10.5532
▁ella	-10.5534
▁Whe	-10.5537
13	-10.5544
▁42	-10.5565
tle	-10.5571
▁alliance	-10.5573
▁approval	-10.5573
▁export	-10.5573
▁Ohio	-10.5574
▁micro	-10.5574
▁mond	-10.5574
▁Bowl	-10.5576
ik	-10.5584
▁pric	-10.5603
De	-10.5604
▁fe	-10.5607
▁habit	-10.5615
▁shell	-10.5615
▁Rose	-10.5616
vel	-10.5619
▁fest	-10.5623
Kev	-10.5646
uck	-10.5647
▁concert	-10.5656
▁submit	-10.5656
▁outfit	-10.5662
▁Cy	-10.5671
ն	-10.5677
▁mom	-10.5681
▁Fire	-10.5683
▁nick	-10.569
▁IT	-10.5694
▁Capitol	-10.5697
▁Zelensky	-10.5697
▁religious	-10.5698
▁overwhelm	-10.5699
▁Rob	-10.5723
▁vol	-10.5724
▁bies	-10.5734
▁Bre	-10.5736
▁cup	-10.5737
http	-10.5739
▁2013	-10.5741
▁tab	-10.5746
▁lov	-10.5747
▁shirt	-10.5751
"},{"	-10.5758
▁Yu	-10.5764
▁ani	-10.5771
▁faith	-10.5781
▁loyal	-10.5781
▁Micro	-10.5782
▁Tony	-10.5785
pri	-10.5788
▁Walk	-10.5793
▁ional	-10.5798
▁Dy	-10.581
▁Ann	-10.5824
▁guess	-10.5824
▁Para	-10.5827
▁pour	-10.584
▁promo	-10.5844
▁Fo	-10.5847
▁tail	-10.5847
▁cra	-10.5853
▁motiv	-10.5854
Al	-10.586
ddle	-10.5868
vacu	-10.5869
▁rier	-10.5878
▁cle	-10.5878
Z	-10.5881
▁Ven	-10.5884
▁Nar	-10.5888
▁Rah	-10.5899
▁tepped	-10.5908
▁recognize	-10.5908
▁bow	-10.5913
▁Color	-10.5914
▁creation	-10.5915
▁Young	-10.5916
iv	-10.5927
▁fat	-10.5929
▁speaker	-10.5929
▁align	-10.5938
▁batt	-10.5943
▁militant	-10.5951
▁omorrow	-10.5951
▁trictly	-10.5951
▁breach	-10.5951
://	-10.5951
▁string	-10.5952
▁drew	-10.5952
▁Rock	-10.5953
▁moral	-10.5953
▁rac	-10.5956
▁(1	-10.5958
▁Pop	-10.5966
▁mad	-10.5972
bu	-10.598
▁rus	-10.5982
▁ID	-10.5988
hel	-10.5994
▁defensive	-10.5994
▁piracy	-10.5994
▁finger	-10.5994
▁Week	-10.5994
▁appreciate	-10.5995
▁shore	-10.5996
▁kilo	-10.5996
▁snap	-10.5997
▁taste	-10.5998
▁ram	-10.6001
▁fr	-10.6002
▁Old	-10.6005
▁tional	-10.6005
▁wheel	-10.6007
ill	-10.6007
▁chart	-10.6011
▁Where	-10.6012
29	-10.6018
▁tun	-10.6021
▁lor	-10.6027
▁charging	-10.6037
▁hattan	-10.6037
▁relax	-10.6037
▁hung	-10.6038
▁USA	-10.6039
▁cutting	-10.604
Oh	-10.6046
▁xy	-10.605
▁dies	-10.6073
▁contribution	-10.608
▁Mitch	-10.6082
▁Report	-10.6083
▁blast	-10.6084
▁Ron	-10.6093
▁cine	-10.6094
▁Die	-10.6114
▁Land	-10.612
▁mu	-10.6129
▁Bull	-10.6129
▁Shan	-10.6129
sess	-10.6133
▁Nu	-10.6147
▁quit	-10.6148
▁10-	-10.6149
▁2020.	-10.616
▁2000	-10.616
ո	-10.6163
▁yn	-10.6166
▁reputation	-10.6168
BlockElement	-10.6168
▁SN	-10.6168
▁bourne	-10.6169
>,""	-10.6172
▁Final	-10.6176
▁ph	-10.6178
▁Fur	-10.618
Q	-10.6184
▁nie	-10.6187
▁ile	-10.6198
▁corporate	-10.6211
▁casual	-10.6211
▁graduate	-10.6213
troph	-10.6218
5,000	-10.6218
▁Hay	-10.6224
▁aire	-10.6231
▁diagnose	-10.6256
▁Asia	-10.6256
▁aggressive	-10.6258
▁fatal	-10.626
▁Plan	-10.626
▁ow	-10.6274
▁proved	-10.6276
▁bell	-10.6281
▁Op	-10.6282
AN	-10.6284
▁Bro	-10.6288
▁vin	-10.629
under	-10.6291
▁eff	-10.6292
▁1990	-10.6302
▁keen	-10.6302
▁NAS	-10.6303
▁Sc	-10.6305
▁matic	-10.6306
ER	-10.6309
▁Kur	-10.6314
▁Turn	-10.6314
unveil	-10.6325
▁Pal	-10.6328
16	-10.6337
▁Luc	-10.6338
▁outdoor	-10.6344
▁embrace	-10.6344
▁controversial	-10.6344
▁narrow	-10.6345
▁bol	-10.635
▁Wat	-10.6353
▁Corp	-10.6353
▁Cre	-10.6358
related	-10.6361
Do	-10.6367
rgan	-10.6367
▁psych	-10.638
▁Dor	-10.6388
▁crypto	-10.6389
▁silver	-10.6389
tain	-10.639
▁tiny	-10.6395
▁prop	-10.6396
▁impe	-10.641
▁tag	-10.6412
▁contr	-10.6417
▁Wild	-10.6419
▁Call	-10.6423
▁graphic	-10.6431
▁che	-10.6431
▁assure	-10.6434
▁loud	-10.6435
▁Book	-10.6435
▁shake	-10.6436
▁map	-10.6437
All	-10.6451
▁iest	-10.6453
▁Gri	-10.6455
▁Cana	-10.6461
An	-10.647
▁cia	-10.6485
▁define	-10.6488
▁Hale	-10.6492
▁compl	-10.6518
▁medi	-10.6519
▁rang	-10.652
▁Attorney	-10.6524
▁evastating	-10.6524
▁dispu	-10.6524
▁itzer	-10.6524
▁patter	-10.6525
ax	-10.6525
▁Board	-10.6525
ron	-10.6527
▁industrial	-10.6527
▁milk	-10.6528
▁arch	-10.6535
▁Top	-10.6541
▁Stan	-10.655
tract	-10.6553
▁notic	-10.6555
▁tradition	-10.6565
▁Villa	-10.6569
▁Edward	-10.6569
▁Vladimir	-10.6569
▁minimum	-10.6569
▁Six	-10.657
▁borrow	-10.657
▁wick	-10.6576
▁DA	-10.6584
▁plea	-10.6587
▁Lion	-10.6589
▁Ric	-10.6589
ounc	-10.6591
▁tan	-10.6596
08	-10.6598
▁din	-10.6601
▁dez	-10.6603
▁chemical	-10.6615
▁brutal	-10.6615
▁dated	-10.6616
▁mash	-10.6633
team	-10.664
▁py	-10.6647
▁Nik	-10.6649
hibit	-10.6657
▁premier	-10.6661
▁pursue	-10.6661
▁Michel	-10.6664
rass	-10.6664
▁Jean	-10.6665
▁slip	-10.6665
aj	-10.6677
Pa	-10.6678
▁Bir	-10.6683
▁earth	-10.6684
▁alter	-10.6684
leg	-10.6686
▁Cooper	-10.6707
▁divorce	-10.6707
▁museum	-10.6707
▁omebody	-10.6707
▁volunteer	-10.6707
▁suburb	-10.6707
▁Did	-10.6708
▁Major	-10.6708
▁shoe	-10.6709
09	-10.6713
▁Reuters	-10.6714
lot	-10.6715
▁bla	-10.6718
▁Rod	-10.6748
▁mas	-10.6749
▁zi	-10.6752
▁architect	-10.6753
▁counsel	-10.6753
▁branch	-10.6754
▁uncertain	-10.6755
ansa	-10.677
norm	-10.6773
▁Mayor	-10.6782
▁Ball	-10.6785
▁drawn	-10.6788
▁imp	-10.679
▁75	-10.6799
ե	-10.6799
▁symbol	-10.68
▁caption	-10.68
▁Ethio	-10.68
▁Gala	-10.6814
▁EV	-10.6815
Credit	-10.6819
▁Ger	-10.6822
▁2,	-10.6824
▁DP	-10.6832
▁dar	-10.6835
▁temp	-10.684
▁arian	-10.6843
▁warrant	-10.6847
▁phase	-10.6847
▁collective	-10.6847
▁slide	-10.6848
▁pov	-10.6851
▁kit	-10.6854
▁continent	-10.6856
▁Lar	-10.6865
nch	-10.687
month	-10.6872
▁39	-10.6877
▁por	-10.6884
▁cop	-10.6888
▁Festival	-10.6894
▁pregnant	-10.6894
▁rocket	-10.6897
▁grave	-10.6902
▁hero	-10.6914
▁Tre	-10.6915
▁alarm	-10.692
▁Ok	-10.6922
elect	-10.6929
hour	-10.6931
▁Cole	-10.6938
▁Church	-10.6941
▁caution	-10.6941
":"<	-10.6941
▁logue	-10.6941
▁square	-10.6941
▁shout	-10.6942
▁Coast	-10.6944
▁zero	-10.6946
▁beaten	-10.6948
▁Sol	-10.6953
▁meters	-10.6957
▁Mus	-10.6969
Con	-10.6972
title	-10.6973
af	-10.6985
mend	-10.6986
▁boast	-10.699
min	-10.699
▁stein	-10.699
▁constitutional	-10.6991
ty	-10.6992
▁Alli	-10.7007
block	-10.7008
part	-10.701
▁Tru	-10.7029
\	-10.703
▁Kan	-10.7032
▁cept	-10.7035
▁meat	-10.7035
▁Senator	-10.7036
▁xiety	-10.7036
▁speci	-10.7036
▁gi	-10.7037
▁spell	-10.7037
▁Emil	-10.7037
▁Santa	-10.704
mer	-10.7045
▁Take	-10.7047
▁mony	-10.7051
▁Sud	-10.7052
▁glo	-10.7074
49	-10.7074
sembl	-10.7077
▁regret	-10.7084
▁posing	-10.7084
▁remote	-10.7084
▁Tesla	-10.7084
air	-10.7084
▁lunch	-10.7085
▁plate	-10.7085
▁Cro	-10.7089
▁Bet	-10.7093
▁Tam	-10.7111
▁tant	-10.712
▁SE	-10.712
ers	-10.7129
ton	-10.7131
▁gging	-10.7132
▁Local	-10.7132
▁lining	-10.7135
▁vo	-10.7145
▁sters	-10.7152
▁bon	-10.7158
law	-10.7163
wing	-10.7166
▁knee	-10.718
▁bread	-10.7182
▁bury	-10.7183
▁moon	-10.7184
▁haul	-10.7185
▁lyn	-10.7194
05	-10.7195
▁musical	-10.72
▁Lis	-10.7209
Dub	-10.721
▁iff	-10.7211
▁iscussions	-10.7229
▁ric	-10.7229
▁quot	-10.7229
cur	-10.7235
▁Ross	-10.7236
▁layer	-10.7239
▁Var	-10.7245
class	-10.725
▁liver	-10.7265
▁guid	-10.727
▁Anthony	-10.7277
▁diagnosis	-10.7277
▁Stock	-10.7277
▁Storm	-10.7277
▁ABC	-10.7277
▁mium	-10.7278
▁Project	-10.7279
▁ah	-10.728
▁rug	-10.7282
▁salt	-10.7286
▁retain	-10.7286
▁skip	-10.7288
▁vis	-10.7291
ó	-10.7298
▁rap	-10.73
▁Aga	-10.7325
▁cloud	-10.7326
▁ensitive	-10.7326
▁placing	-10.7326
▁Dodge	-10.7327
▁breast	-10.7327
4%	-10.7328
qua	-10.733
▁addict	-10.7331
commod	-10.7331
▁ich	-10.7337
▁raid	-10.734
▁mail	-10.7341
▁ero	-10.7346
▁profile	-10.7348
At	-10.7366
▁Power	-10.7376
▁Food	-10.7376
▁brush	-10.7376
▁reek	-10.7377
▁interact	-10.738
▁lessly	-10.7382
▁Comm	-10.7387
▁reader	-10.7393
▁yo	-10.7403
▁rah	-10.7408
▁gy	-10.7416
▁Mau	-10.7416
▁Cop	-10.7417
▁killer	-10.7418
▁opposite	-10.7425
▁yellow	-10.7425
▁una	-10.7433
▁Dem	-10.7441
▁Tod	-10.7443
▁tin	-10.7444
▁chu	-10.7445
▁Kent	-10.7449
gri	-10.7452
▁PR	-10.7454
▁lic	-10.7455
mic	-10.7455
21	-10.7468
▁pocket	-10.7477
▁cute	-10.7477
▁Luke	-10.7478
▁roof	-10.7478
▁Pale	-10.7478
▁grass	-10.7479
▁lence	-10.748
▁tar	-10.7484
▁nurse	-10.7485
ssemb	-10.7485
▁hail	-10.7486
▁Rub	-10.7488
▁Jen	-10.7494
high	-10.7497
▁Hard	-10.7503
tiv	-10.7507
▁magazine	-10.7525
▁Helen	-10.7525
▁1980	-10.7528
but	-10.7528
▁nes	-10.7531
▁weigh	-10.7533
▁Roh	-10.7539
▁Moor	-10.7539
▁forc	-10.7543
8%	-10.7543
▁Wind	-10.7545
▁cul	-10.7547
chocolat	-10.7548
▁bone	-10.755
▁bak	-10.7552
2%	-10.7564
▁halt	-10.7565
life	-10.7567
▁smooth	-10.7575
▁Doug	-10.7575
▁Football	-10.7575
▁Eliza	-10.7575
▁lands	-10.7575
▁levant	-10.7575
▁sugar	-10.7576
▁Fla	-10.7576
cifi	-10.758
▁chef	-10.7581
▁plain	-10.7584
Some	-10.7604
▁ening	-10.7605
▁mere	-10.7605
▁beth	-10.7611
eport	-10.7617
▁nesota	-10.7626
▁provision	-10.7626
▁chan	-10.7627
▁Cli	-10.763
▁Mol	-10.763
▁Part	-10.7636
Human	-10.7637
▁Conf	-10.7639
▁Tel	-10.7641
▁lett	-10.7651
▁nei	-10.766
▁grat	-10.7664
▁Comb	-10.7665
.</	-10.7666
▁behavior	-10.7676
▁fundamental	-10.7676
▁fantastic	-10.7677
▁rebel	-10.7677
▁error	-10.7677
▁dominate	-10.7678
▁aide	-10.7678
rosecut	-10.7689
▁Town	-10.769
▁Sar	-10.7703
▁2019.	-10.7712
▁tal	-10.7715
▁300	-10.7717
▁cab	-10.7724
▁Matthew	-10.7727
▁partisan	-10.7727
▁triking	-10.7727
▁ubstantial	-10.7727
▁valuable	-10.7727
▁Celeb	-10.7727
tamin	-10.7729
▁testi	-10.7731
▁Metro	-10.7732
▁Bron	-10.7744
nish	-10.7745
▁ML	-10.7751
▁topic	-10.7753
▁metal	-10.7766
▁impl	-10.7769
▁tim	-10.777
▁Cab	-10.7778
▁Armenia	-10.7779
▁Bangladesh	-10.7779
▁computer	-10.7779
▁experiment	-10.7779
▁Ang	-10.7779
▁Ros	-10.7781
ph	-10.7782
▁lace	-10.7803
▁Meta	-10.7808
▁Special	-10.783
▁cabinet	-10.783
▁fiscal	-10.783
▁file	-10.783
▁recipe	-10.7831
▁Jul	-10.7832
▁Music	-10.7832
▁geo	-10.7834
▁permit	-10.7834
▁Stone	-10.7834
▁bird	-10.7836
▁hint	-10.7837
▁GA	-10.7838
▁bat	-10.7845
9%	-10.7845
▁44	-10.7848
licate	-10.7849
▁Low	-10.785
▁log	-10.785
▁Rog	-10.7852
friend	-10.7854
▁Dav	-10.7858
▁ala	-10.7872
▁Museum	-10.7882
▁consecutive	-10.7882
▁repair	-10.7883
▁Dutch	-10.7884
▁resto	-10.7884
list	-10.7884
▁pump	-10.7886
▁Night	-10.7886
▁mask	-10.7888
can	-10.7891
▁elev	-10.7891
▁IS	-10.79
▁solved	-10.7908
▁pad	-10.7914
▁Medi	-10.7923
▁ef	-10.7924
▁Add	-10.7926
eleg	-10.7927
▁Global	-10.7934
▁eferring	-10.7934
▁knife	-10.7934
▁succeed	-10.7934
▁tragic	-10.7934
▁sheet	-10.7934
▁Morgan	-10.7935
▁Shah	-10.7935
▁Master	-10.7936
▁Sav	-10.7939
cc	-10.7944
▁strip	-10.7954
▁tea	-10.7961
▁Tech	-10.7975
5%	-10.798
▁41	-10.7982
ack	-10.7983
▁resort	-10.7986
▁Mount	-10.7987
▁ridge	-10.7988
▁buyers	-10.7988
▁Dam	-10.7989
▁thick	-10.7989
▁Raj	-10.7992
▁bike	-10.7996
▁laid	-10.7999
▁1,000	-10.8004
car	-10.8018
75	-10.8018
▁Lev	-10.8022
tric	-10.8025
▁Ve	-10.8027
▁eb	-10.8033
▁Kings	-10.8039
▁Aust	-10.804
▁Hung	-10.804
▁Dalla	-10.804
▁Alexander	-10.8041
Text	-10.8042
▁upgrade	-10.8043
▁iron	-10.8061
▁Sho	-10.8062
▁mus	-10.8062
▁See	-10.8078
▁domin	-10.8084
ս	-10.8092
▁Spring	-10.8092
▁excess	-10.8092
▁Energ	-10.8092
▁magic	-10.8093
▁lung	-10.8097
mar	-10.811
▁lam	-10.8114
person	-10.8118
▁ik	-10.812
▁acqui	-10.8135
▁Non	-10.8135
▁Wi	-10.8138
▁Rwanda	-10.8145
▁Second	-10.8145
▁disappear	-10.8145
▁principle	-10.8145
▁scrap	-10.8145
▁punch	-10.8146
▁solar	-10.8146
dge	-10.8148
▁Cho	-10.8154
▁Ea	-10.8155
▁Elli	-10.816
rove	-10.8162
▁embar	-10.8165
▁endra	-10.8168
▁Iowa	-10.8199
▁Trust	-10.8202
▁Abu	-10.8202
▁soul	-10.8202
fer	-10.8204
▁runner	-10.8207
▁nan	-10.821
▁$6	-10.8215
▁wire	-10.8216
▁bing	-10.822
▁8.	-10.8223
half	-10.8225
▁400	-10.8245
***	-10.8246
▁Bei	-10.8248
մ	-10.8251
▁Constitution	-10.8252
▁romantic	-10.8252
▁concept	-10.8252
▁promotion	-10.8253
▁virtual	-10.8254
▁Arch	-10.8255
▁Cook	-10.8256
▁Sport	-10.8261
▁Heart	-10.8261
Tele	-10.8265
top	-10.8268
▁Tenn	-10.8271
▁tent	-10.8282
▁icon	-10.8282
let	-10.8289
▁47	-10.8291
▁hike	-10.8298
▁tourism	-10.8306
▁liberal	-10.8309
▁dynamic	-10.8317
▁$7	-10.8319
ob	-10.8329
dis	-10.8348
ssert	-10.8349
▁journal	-10.836
▁atmosphere	-10.8361
▁cognition	-10.8361
▁script	-10.8361
▁Haiti	-10.8361
▁deposit	-10.8364
▁Fund	-10.8372
▁Row	-10.8372
▁cake	-10.8375
▁55	-10.8375
▁lake	-10.8378
▁noise	-10.8379
:30	-10.8381
ef	-10.8382
▁sole	-10.8385
-20	-10.8396
libr	-10.84
▁rat	-10.8412
▁Argent	-10.8415
▁advisor	-10.8415
▁tweet	-10.8415
▁latter	-10.8416
crutin	-10.8416
▁Rishi	-10.8416
▁disorder	-10.8417
▁copy	-10.8421
▁Nat	-10.8423
▁bail	-10.8426
66	-10.8427
▁Main	-10.8433
▁65	-10.8437
▁DO	-10.845
▁deter	-10.8466
▁urging	-10.847
▁idence	-10.8471
▁vince	-10.8472
▁venture	-10.8473
▁Buck	-10.8477
▁obli	-10.8492
gar	-10.8495
▁span	-10.8495
▁butter	-10.8513
Ro	-10.8517
▁2018,	-10.8518
ign	-10.8521
▁cheese	-10.8526
▁ingredient	-10.8526
▁Morning	-10.8529
laud	-10.853
▁gradu	-10.853
▁cient	-10.8532
▁twist	-10.8533
▁rever	-10.8533
▁flee	-10.8533
▁Beck	-10.8536
▁Bry	-10.8537
▁hub	-10.8545
▁izes	-10.8545
á	-10.8553
foot	-10.8554
28	-10.8562
▁seal	-10.8568
▁Journal	-10.8581
▁explosion	-10.8581
▁Brand	-10.8582
▁bra	-10.8584
▁2009	-10.8586
▁deb	-10.859
▁ramp	-10.8601
▁jan	-10.8602
▁Af	-10.8604
.""	-10.8614
▁Cai	-10.8614
▁Len	-10.8614
-0	-10.8631
▁muscle	-10.8637
▁ologies	-10.8637
▁Morris	-10.8637
▁Display	-10.8637
▁neath	-10.8638
▁harass	-10.8639
▁Labor	-10.8639
▁Sci	-10.8644
▁Picture	-10.8644
▁cru	-10.8645
▁proof	-10.8645
▁hide	-10.8646
▁var	-10.8648
▁Reform	-10.8651
▁iya	-10.8656
▁(20	-10.8658
election	-10.8666
ite	-10.8673
winn	-10.8676
▁OK	-10.8687
▁tive	-10.869
▁merging	-10.8693
▁ultra	-10.8693
▁hrew	-10.8693
▁Hotel	-10.8694
▁congress	-10.8695
▁stair	-10.8703
▁Allen	-10.8704
▁Saint	-10.8706
▁tap	-10.8707
style	-10.8722
work	-10.8725
with	-10.8726
How	-10.8726
▁gall	-10.873
▁ն	-10.8731
▁lip	-10.8739
One	-10.8745
▁engine	-10.8746
▁Carr	-10.8749
▁Video	-10.875
▁comprehen	-10.875
▁£7	-10.875
▁£8	-10.875
▁tower	-10.8751
▁pi	-10.8751
▁Steven	-10.8751
▁Strip	-10.8752
▁1970	-10.8752
▁Price	-10.8754
▁pat	-10.8755
▁Greg	-10.8757
▁psycho	-10.8762
3%	-10.8765
▁DI	-10.8769
▁sack	-10.8774
▁2025.	-10.8786
▁pup	-10.8794
▁twin	-10.8795
▁gri	-10.8796
del	-10.8797
▁Education	-10.8807
▁Phillip	-10.8807
▁flash	-10.8807
▁Berlin	-10.8807
▁radical	-10.8807
▁flex	-10.8807
▁rumour	-10.8807
▁pause	-10.8808
▁context	-10.8809
▁hook	-10.881
▁theatre	-10.8812
▁cable	-10.8813
▁hack	-10.8814
▁sail	-10.8816
▁rum	-10.8821
▁lance	-10.8821
▁elder	-10.8822
▁visa	-10.8825
▁compos	-10.8829
▁gay	-10.8838
▁volu	-10.8845
▁duo	-10.8845
▁App	-10.8846
▁olo	-10.8849
▁Est	-10.8859
55	-10.8859
▁Gil	-10.8862
▁Gandhi	-10.8864
▁outrage	-10.8864
▁crore	-10.8864
▁silence	-10.8864
▁9.	-10.8864
▁edition	-10.8864
▁chill	-10.8867
▁bedroom	-10.8875
▁Head	-10.8878
▁Leg	-10.8883
new	-10.8896
98	-10.8897
jo	-10.8898
Me	-10.8915
circl	-10.8921
▁Wisconsin	-10.8921
▁necessarily	-10.8921
▁toilet	-10.8922
www	-10.8922
▁drag	-10.8922
▁Cur	-10.8925
▁exploit	-10.8928
▁Cu	-10.8932
▁Cath	-10.8934
▁Mir	-10.8936
▁Oh	-10.8939
▁30-	-10.894
▁nail	-10.8943
▁emphasis	-10.895
dra	-10.8962
ale	-10.8966
▁lane	-10.8975
▁Mumbai	-10.8979
▁float	-10.8979
▁visible	-10.8979
▁eadline	-10.8979
▁crown	-10.8979
▁stroke	-10.8979
▁ually	-10.8979
▁nathan	-10.8982
▁zing	-10.8986
▁Ly	-10.8989
▁stag	-10.8992
▁RO	-10.9003
▁gra	-10.9013
▁itor	-10.9015
▁GP	-10.9018
▁46	-10.9023
▁ened	-10.9033
▁43	-10.9036
▁Budget	-10.9037
▁expansion	-10.9037
▁Bengal	-10.9037
▁mood	-10.9037
dmir	-10.9038
▁wich	-10.904
▁diff	-10.9042
▁soar	-10.9044
▁tics	-10.9046
▁Mala	-10.9049
▁quest	-10.9053
▁Gill	-10.9058
▁academic	-10.9065
▁gh	-10.9068
▁zo	-10.907
▁Rat	-10.9075
ñ	-10.9095
▁suicide	-10.9096
▁sweep	-10.9096
▁Lauren	-10.9096
▁scent	-10.9099
47	-10.9102
▁conscious	-10.9103
▁offend	-10.9114
▁Ira	-10.9116
▁Evan	-10.9118
▁Give	-10.9119
▁54	-10.9125
On	-10.9133
▁inde	-10.9133
▁onent	-10.9138
▁HO	-10.9148
▁efficient	-10.9154
▁manifest	-10.9154
▁reduction	-10.9154
▁proportion	-10.9155
▁democratic	-10.9155
▁funny	-10.9156
▁Jake	-10.9161
eij	-10.9162
▁convert	-10.9163
▁peer	-10.9164
▁Tan	-10.9168
▁qui	-10.9173
▁RE	-10.9175
▁Pay	-10.9179
▁Kir	-10.9184
▁anna	-10.9187
▁Mat	-10.919
▁WA	-10.9192
42	-10.9196
▁angle	-10.9197
gen	-10.9197
▁ek	-10.9201
><	-10.9203
how	-10.9206
hiladelphi	-10.9214
▁intervention	-10.9214
▁eager	-10.9214
▁sauce	-10.9214
▁pson	-10.9214
▁util	-10.9215
set	-10.9216
▁toxic	-10.9216
▁troll	-10.9221
▁Il	-10.9222
▁mit	-10.923
▁gym	-10.9232
▁dose	-10.9241
▁bor	-10.9245
Pala	-10.9256
▁(19	-10.9261
▁fuse	-10.9264
▁styl	-10.9268
▁Columbia	-10.9273
▁clusive	-10.9273
▁courage	-10.9273
▁loose	-10.9276
▁Cat	-10.9281
ient	-10.9281
▁march	-10.9281
▁shine	-10.9283
▁Turk	-10.9283
▁smoke	-10.9284
▁Ur	-10.9285
▁Off	-10.9302
wi	-10.9324
▁Sri	-10.9324
▁mil	-10.9327
▁Affair	-10.9333
▁Netherland	-10.9333
▁Fern	-10.9333
▁Radio	-10.9334
▁index	-10.9336
▁2006	-10.9337
▁Film	-10.9341
▁Pass	-10.9361
▁hell	-10.9361
her	-10.9362
▁LE	-10.9365
▁fi	-10.9367
found	-10.937
▁donor	-10.9374
cover	-10.9378
▁Kal	-10.9387
▁sistance	-10.9393
▁Russell	-10.9393
▁fault	-10.9394
▁2026	-10.9395
▁unprecedented	-10.9396
interpret	-10.9396
▁Fair	-10.9401
▁Bha	-10.9402
promis	-10.9408
▁grid	-10.941
▁contra	-10.9411
▁IM	-10.9417
44	-10.9417
▁Tin	-10.9417
▁ets	-10.9428
▁agon	-10.9435
07	-10.9438
kh	-10.9438
▁Care	-10.9438
▁TI	-10.9441
Whi	-10.9442
-6	-10.9443
▁("	-10.9443
▁Nas	-10.9447
▁ade	-10.9448
fo	-10.9448
▁Sub	-10.945
▁Charlotte	-10.9454
▁blind	-10.9454
▁cribing	-10.9454
▁racial	-10.9454
▁compens	-10.9454
▁kiss	-10.9456
▁Chair	-10.9457
▁Girl	-10.9458
▁Ge	-10.9461
▁NY	-10.9464
▁tick	-10.9466
▁lated	-10.947
▁pia	-10.9475
▁VP	-10.9476
▁Burn	-10.9479
▁Stra	-10.9481
▁eco	-10.9482
▁worn	-10.9482
▁summ	-10.9484
▁MI	-10.9497
Mo	-10.9498
▁DC	-10.9504
▁lateral	-10.9513
▁experi	-10.9514
▁Business	-10.9515
▁Convention	-10.9515
▁Murphy	-10.9515
▁distinct	-10.9515
▁6,	-10.9515
▁assy	-10.9515
▁pipe	-10.9515
▁Alban	-10.9516
▁musician	-10.9517
▁Eric	-10.9518
▁cyber	-10.9518
▁blend	-10.9519
▁Market	-10.952
▁Mah	-10.9521
ical	-10.9522
▁ven	-10.9524
▁PC	-10.9524
▁Pol	-10.9535
▁rice	-10.9535
app	-10.9545
ann	-10.9548
Un	-10.9551
▁Farm	-10.9561
▁mobil	-10.9565
▁Catholic	-10.9576
▁ambassador	-10.9576
▁license	-10.9576
▁Square	-10.9576
▁liberate	-10.9577
nguish	-10.9577
▁applied	-10.9578
▁7,	-10.9579
▁cher	-10.9581
▁bless	-10.9583
▁external	-10.9584
▁lice	-10.9597
▁hal	-10.96
Ferr	-10.96
▁posed	-10.96
Man	-10.9609
profile	-10.961
respond	-10.961
▁chap	-10.9613
pen	-10.9616
▁150	-10.9626
Le	-10.9628
than	-10.963
▁ua	-10.9633
sid	-10.9636
▁Clinton	-10.9638
▁evolution	-10.9638
▁Crime	-10.9638
▁inherit	-10.9638
▁ocean	-10.9638
▁contend	-10.9638
▁urban	-10.9638
▁foster	-10.9638
isturb	-10.9638
▁Cross	-10.9639
▁grace	-10.964
▁ի	-10.9641
▁accurate	-10.9643
▁Forest	-10.9644
▁resist	-10.9646
you	-10.965
▁12-	-10.9652
▁ff	-10.9662
▁bett	-10.9662
▁Vir	-10.967
With	-10.9672
gratu	-10.9687
▁Vol	-10.9694
▁afraid	-10.97
▁funeral	-10.97
▁scope	-10.97
▁nique	-10.9701
▁examine	-10.9701
▁burst	-10.9702
▁52	-10.9702
▁Case	-10.9703
▁brown	-10.9705
▁rence	-10.9709
27	-10.9711
hit	-10.9723
▁Libe	-10.9733
▁AN	-10.9737
06	-10.9738
▁AT	-10.9739
ther	-10.974
▁53	-10.9741
▁upper	-10.9743
▁rin	-10.9751
▁ola	-10.9752
▁tale	-10.9757
q	-10.9758
▁mart	-10.9759
▁ual	-10.9762
▁ystery	-10.9763
Barcelo	-10.9763
▁gins	-10.9764
▁chant	-10.9766
▁pac	-10.9769
▁ida	-10.9771
▁Fu	-10.9772
▁Make	-10.9787
▁vet	-10.9787
▁stem	-10.9794
▁Barn	-10.9796
game	-10.9801
yo	-10.9803
26	-10.9811
95	-10.9819
ko	-10.982
▁origin	-10.9821
▁iciency	-10.9825
▁liquid	-10.9825
▁sovereign	-10.9825
▁persist	-10.9826
▁adequate	-10.9826
▁cruise	-10.9826
▁Garden	-10.9826
▁sufficient	-10.9828
▁Santi	-10.9831
▁faction	-10.9833
▁practical	-10.9845
▁gear	-10.9852
▁Anna	-10.9863
▁iev	-10.9866
▁PD	-10.9868
▁MO	-10.9869
ighten	-10.9869
▁rhetoric	-10.9889
▁mock	-10.9891
▁oon	-10.9892
▁anticipate	-10.9893
▁mont	-10.9894
▁Bear	-10.9895
hock	-10.99
▁augh	-10.991
▁lone	-10.9914
evit	-10.9914
▁Ch	-10.9915
RE	-10.9926
igg	-10.9946
▁decla	-10.995
▁Dal	-10.9951
▁ubstance	-10.9952
▁wipe	-10.9954
▁2004	-10.9957
▁cert	-10.9966
▁Shi	-10.9971
▁Ren	-10.9971
Trump	-10.9989
ET	-10.9996
▁ova	-11.0002
raz	-11.0002
58	-11.0007
▁vac	-11.0014
▁disagree	-11.0017
▁graph	-11.0017
▁ctor	-11.0017
▁Aug	-11.0017
fine	-11.0019
▁genocide	-11.0021
▁Thai	-11.0023
▁shed	-11.0023
▁Event	-11.0027
▁Cher	-11.0028
▁abad	-11.0028
▁Tat	-11.003
▁tape	-11.0037
level	-11.0058
▁fitt	-11.0058
▁Schu	-11.0065
▁bro	-11.0075
▁oli	-11.0077
▁associ	-11.008
▁kidnap	-11.0081
▁qualified	-11.0081
▁romance	-11.0081
▁ncing	-11.0081
▁Pitt	-11.0082
ensu	-11.0082
▁easing	-11.0083
▁erupt	-11.0083
▁sponsor	-11.0087
ipul	-11.0088
▁iture	-11.0089
▁rid	-11.0089
▁dale	-11.0094
Hi	-11.0097
▁mut	-11.0105
▁rell	-11.011
over	-11.0111
▁vy	-11.0114
▁Ol	-11.0117
▁demo	-11.0119
▁fir	-11.0137
▁Deb	-11.014
▁£6	-11.0144
▁equent	-11.0146
▁helicopter	-11.0146
▁topping	-11.0146
▁burden	-11.0146
▁Glen	-11.0146
▁steel	-11.0147
▁smell	-11.0148
▁Crown	-11.015
▁ruin	-11.0152
▁Vie	-11.0154
▁lia	-11.0156
▁passion	-11.0156
▁pink	-11.0158
▁Wel	-11.0159
▁eron	-11.0164
Ja	-11.0168
PA	-11.0168
▁Tow	-11.017
▁ena	-11.0176
▁thy	-11.0187
▁pure	-11.0193
▁scal	-11.0204
▁Mexican	-11.0211
▁Official	-11.0211
▁currency	-11.0211
▁mies	-11.0212
▁partial	-11.0212
km	-11.0213
▁reasonable	-11.0214
▁lakh	-11.0214
▁Jose	-11.0217
▁fo	-11.0227
▁gut	-11.023
▁erson	-11.023
▁AR	-11.0233
▁TO	-11.0235
▁decent	-11.0238
▁Glo	-11.0239
▁Sad	-11.0248
known	-11.0249
scale	-11.025
▁decor	-11.0251
▁wal	-11.0254
▁£10	-11.0257
▁tical	-11.0258
▁charm	-11.0261
▁payer	-11.0263
tinu	-11.0265
▁Rad	-11.0268
fire	-11.0273
▁termin	-11.0277
▁Qatar	-11.0277
▁fortune	-11.0277
▁swift	-11.0277
▁instant	-11.0277
▁echo	-11.0278
▁bold	-11.0279
▁Country	-11.028
100	-11.0283
65	-11.0286
▁Jenni	-11.0286
US	-11.029
▁gue	-11.0292
▁boom	-11.0293
▁satellite	-11.0297
▁Pel	-11.0304
GB	-11.0306
▁emphasi	-11.031
ominate	-11.0316
read	-11.0321
Lo	-11.0328
▁Neil	-11.0328
▁smok	-11.0335
▁dim	-11.034
▁mill	-11.034
mit	-11.0342
▁mari	-11.0342
▁electronic	-11.0343
▁felon	-11.0343
▁pride	-11.0343
▁minster	-11.0345
▁Command	-11.0345
▁OS	-11.0346
▁productive	-11.0346
▁bullet	-11.0346
▁bitter	-11.0355
▁Chat	-11.0357
▁Hon	-11.0361
▁chest	-11.0368
▁anne	-11.0375
▁col	-11.0376
▁marg	-11.0378
▁mos	-11.0383
timid	-11.0403
▁fossil	-11.041
▁intercept	-11.041
▁scenario	-11.041
▁interior	-11.041
▁Mother	-11.0412
▁negotiate	-11.0413
▁3,	-11.0414
▁Bright	-11.0419
▁Field	-11.0423
▁quote	-11.0427
▁dust	-11.0428
▁attac	-11.0428
▁bul	-11.043
▁Set	-11.0435
▁lord	-11.0436
▁Gro	-11.045
Just	-11.0451
born	-11.0452
=	-11.0459
▁$10	-11.0463
▁Rich	-11.0464
▁uni	-11.0476
▁Oregon	-11.0477
▁distress	-11.0477
▁encouraging	-11.0477
▁extension	-11.0477
▁fabric	-11.0477
▁iscrimination	-11.0477
▁nervous	-11.0477
▁FT	-11.0479
▁20-	-11.0483
▁2005	-11.0484
▁SP	-11.0486
▁IC	-11.0487
▁Roy	-11.0493
▁Lib	-11.0495
89	-11.0499
my	-11.0501
▁Whit	-11.0506
▁lad	-11.0514
▁tile	-11.0516
large	-11.0517
▁syn	-11.052
▁Mile	-11.0522
▁mega	-11.0523
▁Bla	-11.0529
▁CB	-11.0537
▁ache	-11.0537
▁birds	-11.054
=\"	-11.0545
▁Doctor	-11.0545
▁Economic	-11.0545
▁fusing	-11.0545
▁perpet	-11.0545
▁optim	-11.0545
thir	-11.0546
▁exami	-11.0549
▁vada	-11.0551
▁2007	-11.0551
▁RI	-11.0557
1%	-11.0558
▁nav	-11.056
▁rav	-11.0563
▁Key	-11.0564
▁dock	-11.0567
edic	-11.0567
▁bump	-11.0571
▁AC	-11.0572
host	-11.0575
▁AD	-11.0575
▁igh	-11.058
making	-11.0585
▁NS	-11.0593
arm	-11.0596
Bo	-11.06
Co	-11.0602
ց	-11.0612
▁visual	-11.0613
▁Totten	-11.0613
▁Next	-11.0613
▁racist	-11.0614
▁Sim	-11.0615
▁laughter	-11.0616
▁lime	-11.0617
▁Mai	-11.062
▁Bow	-11.0628
▁á	-11.0637
▁vard	-11.0637
▁IN	-11.0642
hr	-11.0642
▁Way	-11.0645
▁ius	-11.0646
▁NI	-11.0647
Star	-11.0655
cro	-11.0656
▁lev	-11.0661
▁Ford	-11.0665
name	-11.0669
▁Clar	-11.0676
▁pregnancy	-11.0681
▁silience	-11.0681
▁£9	-11.0681
▁clock	-11.0681
▁fusion	-11.0681
▁sentiment	-11.0681
▁ula	-11.0682
exceed	-11.0683
▁tenant	-11.0684
▁panic	-11.0686
▁Yan	-11.0687
38	-11.0702
▁zz	-11.0704
▁button	-11.0705
03	-11.0706
54	-11.0711
week	-11.0723
▁cord	-11.0724
▁Bren	-11.0727
▁dan	-11.0732
Mar	-11.0738
▁RA	-11.0743
▁ox	-11.0747
▁subsi	-11.0748
▁confess	-11.075
▁Soviet	-11.075
▁Civil	-11.0751
▁medicine	-11.0751
▁bargain	-11.0752
▁NO	-11.0752
▁incen	-11.0752
▁rod	-11.0759
▁Charli	-11.076
▁tall	-11.077
▁Never	-11.0772
season	-11.0792
org	-11.0795
ye	-11.0796
▁Ak	-11.0797
ark	-11.0798
▁raz	-11.0803
▁Had	-11.0805
erial	-11.0811
48	-11.0818
▁judgment	-11.082
▁pivot	-11.082
▁ography	-11.082
▁greet	-11.082
▁jacket	-11.082
▁soap	-11.0822
▁Brexit	-11.0823
▁Jenn	-11.0826
▁dirt	-11.0828
▁51	-11.0831
▁Moon	-11.0838
▁Tar	-11.0838
pel	-11.0841
▁250	-11.0843
▁Kay	-11.0846
▁lu	-11.085
▁$8	-11.0852
ken	-11.0856
▁Anne	-11.0863
▁creator	-11.0866
▁zy	-11.0871
▁Des	-11.0871
▁Cap	-11.0876
▁Jar	-11.0876
▁Stu	-11.0882
37	-11.0883
▁mirror	-11.089
▁supplement	-11.089
▁tributing	-11.089
▁uries	-11.089
▁expression	-11.0893
▁buck	-11.0894
Well	-11.0899
mat	-11.09
▁oversee	-11.0903
fy	-11.0909
▁tune	-11.0909
▁Grant	-11.0911
▁58	-11.0912
▁lab	-11.0914
▁Gray	-11.0914
▁Mag	-11.0915
▁ON	-11.0921
People	-11.0932
play	-11.0935
American	-11.0936
▁Gal	-11.0943
▁AL	-11.0946
39	-11.095
▁Gau	-11.0952
▁Pas	-11.0955
36	-11.0956
▁Nichol	-11.096
▁Joseph	-11.096
▁tumble	-11.096
▁Short	-11.0961
▁Kenya	-11.0961
▁Heath	-11.0963
-8	-11.0965
▁edit	-11.0966
▁await	-11.0967
▁Cub	-11.0968
▁Kenn	-11.0969
▁Hope	-11.0971
▁Hur	-11.0981
▁lick	-11.0982
▁sec	-11.0982
pre	-11.0983
▁hip	-11.0989
▁pod	-11.0992
▁Beat	-11.0996
▁boo	-11.0998
▁ru	-11.0999
▁Wim	-11.1
▁dit	-11.1004
▁Leb	-11.1005
▁coup	-11.101
▁Jane	-11.1014
▁Marc	-11.1017
▁Abe	-11.1018
▁Jet	-11.1024
գ	-11.1031
▁lessness	-11.1031
▁Austria	-11.1031
▁interfere	-11.1031
▁sensor	-11.1031
▁Erik	-11.1032
▁valid	-11.1033
▁Express	-11.1033
▁Light	-11.1036
▁lady	-11.1036
▁attribute	-11.1039
▁brave	-11.104
-5	-11.1042
▁poster	-11.1046
▁JD	-11.1048
▁Marin	-11.105
▁vic	-11.1051
▁quan	-11.1053
esse	-11.1058
▁dig	-11.1076
los	-11.1076
atr	-11.1082
▁bel	-11.1086
rv	-11.1095
even	-11.1099
▁Treasury	-11.1102
▁enthusiast	-11.1102
▁lahoma	-11.1102
▁Simps	-11.1102
▁weird	-11.1103
▁transaction	-11.1103
▁CTV	-11.1106
▁chase	-11.1109
▁Mak	-11.1113
▁loom	-11.1115
▁pati	-11.1119
:00	-11.1122
▁Fre	-11.114
▁Warr	-11.114
▁Date	-11.1141
▁Indu	-11.1143
▁yield	-11.1147
▁BO	-11.1151
▁adver	-11.1156
see	-11.1162
▁gr	-11.1166
▁bloc	-11.117
▁Jacob	-11.1174
▁jewel	-11.1174
▁privilege	-11.1174
▁neuro	-11.1174
▁Aaron	-11.1174
▁formula	-11.1174
▁ifies	-11.1175
▁navigate	-11.1175
▁skirt	-11.1175
Mi	-11.1176
▁drill	-11.1178
gistr	-11.1178
pend	-11.1179
▁Corn	-11.1181
augu	-11.1183
mul	-11.1183
lig	-11.1184
▁Horn	-11.1186
▁Marsh	-11.1187
▁seller	-11.1189
▁sink	-11.119
Bri	-11.1192
▁lid	-11.1193
▁Roll	-11.1195
▁stall	-11.1197
▁Kane	-11.1197
▁Pea	-11.1199
▁jar	-11.12
▁gie	-11.1204
▁hai	-11.1206
▁Say	-11.1208
▁ut	-11.1211
La	-11.1211
93	-11.1212
▁Rama	-11.1212
wo	-11.1213
ump	-11.1214
After	-11.1219
▁Ful	-11.122
Li	-11.1223
tali	-11.1246
▁instrument	-11.1247
▁buzz	-11.1247
▁ան	-11.125
▁depth	-11.1252
▁shade	-11.1252
▁Hong	-11.1259
inch	-11.1261
▁կ	-11.127
▁tamp	-11.1278
▁Rio	-11.1286
▁tain	-11.1291
▁(3	-11.1294
▁fu	-11.1299
mph	-11.13
000,"	-11.1305
▁ece	-11.132
▁Gabriel	-11.132
▁exhaust	-11.132
▁Support	-11.132
▁breed	-11.132
▁teas	-11.132
▁ution	-11.1321
▁moderate	-11.1321
▁mutual	-11.1321
▁Ep	-11.1321
▁Fede	-11.1321
▁Hugh	-11.1322
▁Arena	-11.1322
▁cott	-11.1322
▁Barb	-11.1323
▁2030	-11.1328
▁thin	-11.1328
urren	-11.1331
den	-11.1332
Po	-11.1342
▁tone	-11.1342
▁Fall	-11.1344
▁mod	-11.1347
▁surve	-11.1349
32	-11.1356
▁nod	-11.136
look	-11.1372
▁57	-11.1375
▁gal	-11.1378
turn	-11.1381
▁belt	-11.1383
▁coat	-11.1385
▁Ear	-11.1388
▁auction	-11.1393
▁flavour	-11.1393
▁Ocean	-11.1393
▁Yemen	-11.1393
▁protein	-11.1393
▁Summer	-11.1393
▁licence	-11.1393
▁Brother	-11.1394
▁click	-11.1394
▁Talk	-11.1396
▁1960	-11.1397
▁desk	-11.1398
▁theft	-11.1403
▁Seven	-11.1405
▁ue	-11.1409
▁Pier	-11.1412
▁grade	-11.1415
AF	-11.142
▁ref	-11.1423
▁Tig	-11.1427
▁27,	-11.1432
▁mare	-11.1438
gra	-11.1439
han	-11.1442
▁Kra	-11.1443
wor	-11.1444
▁hire	-11.1448
50,000	-11.1456
Ho	-11.146
▁accompanied	-11.1467
▁approximate	-11.1467
▁fiction	-11.1467
▁revolution	-11.1467
▁tunnel	-11.1467
▁carpet	-11.1467
▁robust	-11.1468
▁spoon	-11.1468
▁Welsh	-11.1469
▁Exec	-11.1469
▁Know	-11.1471
▁ugal	-11.1471
▁Hindu	-11.1472
▁gentle	-11.1477
41	-11.1478
02	-11.1485
art	-11.1489
▁igni	-11.1495
▁rant	-11.1508
▁Ell	-11.1511
▁25,	-11.1529
▁72	-11.1536
▁authentic	-11.1542
▁classified	-11.1542
▁entrepreneur	-11.1542
▁nutrition	-11.1542
▁Expert	-11.1542
▁rebound	-11.1542
▁evolve	-11.1542
▁Protect	-11.1543
▁sweat	-11.1543
▁Vote	-11.1544
▁Kelce	-11.1545
▁rolled	-11.1546
▁Lou	-11.1547
▁Rap	-11.1548
▁berry	-11.1549
▁intent	-11.155
▁án	-11.1553
▁boil	-11.1555
▁Kam	-11.1567
▁roy	-11.1567
era	-11.1568
▁asi	-11.158
▁Run	-11.1586
▁Fort	-11.1592
34	-11.1601
▁dump	-11.1609
▁2018.	-11.1612
▁distribution	-11.1617
▁crop	-11.1617
59	-11.1617
▁lobby	-11.1617
▁referee	-11.1618
▁Bab	-11.1623
▁theater	-11.1625
▁Fish	-11.1638
CA	-11.1639
▁ott	-11.1643
▁endure	-11.1655
ու	-11.1665
▁Rid	-11.1667
Why	-11.1669
talk	-11.1669
▁lum	-11.1677
test	-11.1683
▁Ahmed	-11.1693
▁cousin	-11.1693
▁audio	-11.1693
▁arity	-11.1694
▁moist	-11.1694
▁UP	-11.1695
▁vocal	-11.1696
▁Rodri	-11.1697
▁Flor	-11.1698
dg	-11.17
▁nest	-11.1712
▁Oak	-11.1713
▁Ana	-11.1714
▁GB	-11.1718
▁Camp	-11.172
▁fic	-11.1732
▁Duk	-11.1735
▁ub	-11.1738
▁Come	-11.174
ար	-11.1741
made	-11.1758
tray	-11.1764
▁meter	-11.1769
▁Professor	-11.1769
▁equivalent	-11.1769
▁execution	-11.1769
▁munition	-11.1769
▁Ronald	-11.1769
▁innocent	-11.1769
▁rehab	-11.177
▁Dev	-11.177
▁utter	-11.1771
▁Trav	-11.1771
▁cruel	-11.1771
▁LGBTQ	-11.1772
▁illus	-11.1777
▁Rail	-11.1781
▁Fred	-11.1784
▁Dog	-11.1802
▁$	-11.1805
")	-11.1809
▁arr	-11.1809
▁tum	-11.1813
▁terr	-11.1816
▁dash	-11.1824
▁CI	-11.1824
▁pant	-11.183
rank	-11.1838
▁Pla	-11.1838
▁Capital	-11.1846
▁discipline	-11.1846
▁entrance	-11.1846
escript	-11.1846
▁riding	-11.1847
▁Broad	-11.1848
▁Hanna	-11.1848
▁radi	-11.1856
▁ME	-11.186
▁liner	-11.186
▁Nicola	-11.1861
▁ante	-11.1861
▁acle	-11.1862
▁+	-11.1862
▁ili	-11.1869
luc	-11.1872
▁Bat	-11.1878
▁corn	-11.1878
▁humi	-11.1896
▁2002	-11.1904
▁2001	-11.1914
▁Hor	-11.1918
▁drain	-11.1919
FirstPublished	-11.1924
▁Venezuela	-11.1924
▁chamber	-11.1924
▁froze	-11.1924
▁lawful	-11.1924
▁woke	-11.1924
▁Craig	-11.1924
▁1997	-11.1925
▁crush	-11.1927
▁Knight	-11.1928
▁oven	-11.1928
▁Zu	-11.194
▁Much	-11.1941
▁Kol	-11.195
▁napp	-11.1953
llow	-11.1955
▁Ce	-11.1956
▁Base	-11.1957
▁62	-11.1959
▁ched	-11.1965
▁Amb	-11.1965
▁sati	-11.1965
▁Bon	-11.1995
▁flip	-11.2001
▁explicit	-11.2002
▁hurricane	-11.2002
▁pixel	-11.2002
▁suspicion	-11.2002
▁regulate	-11.2002
▁memoir	-11.2002
▁Tali	-11.2006
▁Shaw	-11.2007
▁affirm	-11.2009
▁atic	-11.2013
▁Maha	-11.2021
տ	-11.2023
63	-11.2024
▁í	-11.2026
33	-11.2031
▁dip	-11.2035
▁orbit	-11.2036
▁Poll	-11.2037
▁som	-11.2038
▁melt	-11.2047
▁gru	-11.2051
▁gig	-11.2057
Ar	-11.2058
cru	-11.206
▁stan	-11.2064
left	-11.2066
▁nell	-11.2071
▁Bil	-11.2072
▁Spi	-11.2079
▁cycling	-11.2081
▁grocer	-11.2081
▁etitor	-11.2081
▁ption	-11.2081
▁spray	-11.2082
▁Azerbaijan	-11.2082
Ye	-11.2082
Lago	-11.2085
▁É	-11.2085
▁cheat	-11.2086
▁patch	-11.2086
▁thus	-11.2096
▁porn	-11.2099
▁Gav	-11.2101
▁III	-11.2103
▁proven	-11.2105
▁Math	-11.2106
▁Tas	-11.211
▁slot	-11.2122
85	-11.2127
▁(2	-11.2134
▁3-	-11.2135
▁corr	-11.2136
▁Ice	-11.2137
▁Nicol	-11.2145
▁Leicester	-11.216
▁phrase	-11.216
▁triumph	-11.216
▁ubsequently	-11.216
▁Eagle	-11.216
▁Stewart	-11.216
▁glasses	-11.216
▁mode	-11.2162
▁Blink	-11.2162
▁Travel	-11.2162
▁DNA	-11.2163
▁neutral	-11.2163
▁flame	-11.2165
46	-11.2165
▁Furth	-11.2167
▁Wy	-11.2169
▁Rick	-11.218
▁Kill	-11.2184
▁tig	-11.2188
▁Bern	-11.2188
▁RB	-11.2196
temp	-11.2203
▁rack	-11.2205
▁Hold	-11.2212
▁nut	-11.2212
▁PG	-11.2213
▁15-	-11.2221
▁Hart	-11.2225
▁iser	-11.2233
▁hya	-11.2239
ք	-11.224
▁Abbott	-11.224
▁Sussex	-11.224
▁stepping	-11.224
▁Build	-11.224
▁insula	-11.224
▁glad	-11.224
▁adventure	-11.224
▁drum	-11.224
olish	-11.2241
▁streak	-11.2243
97	-11.2248
▁colon	-11.2248
▁rag	-11.2255
▁ndar	-11.2255
▁Ei	-11.2256
wh	-11.2259
▁Near	-11.2262
▁mot	-11.2263
▁Queens	-11.2267
mis	-11.2268
▁tack	-11.2272
▁rez	-11.2294
▁emo	-11.2298
pict	-11.232
▁Bureau	-11.2321
▁bankrupt	-11.2321
▁eclipse	-11.2321
▁statistic	-11.2321
▁ethnic	-11.2321
▁consent	-11.2321
▁foul	-11.2322
▁intimate	-11.2322
▁tors	-11.2326
▁Steel	-11.2327
▁10%	-11.2331
▁2,000	-11.2335
▁$9	-11.2347
$	-11.2361
▁Eth	-11.2361
Let	-11.2368
line	-11.2374
head	-11.2381
▁structur	-11.239
▁erie	-11.2395
ü	-11.2402
▁Campbell	-11.2402
▁Caribbean	-11.2402
▁Financial	-11.2402
▁accomplish	-11.2402
▁pepper	-11.2402
▁bronze	-11.2402
▁fasci	-11.2402
▁Story	-11.2402
▁comedian	-11.2402
▁crisp	-11.2402
▁quake	-11.2402
▁rapper	-11.2403
▁ros	-11.2403
▁passionate	-11.2404
▁indus	-11.2407
▁bras	-11.2407
win	-11.2407
▁Bush	-11.2407
▁ED	-11.2407
▁poet	-11.2408
▁bly	-11.2408
▁hy	-11.2412
▁50-	-11.2417
▁uk	-11.243
▁tern	-11.2436
▁benefi	-11.2436
▁worthy	-11.2441
▁RS	-11.2444
▁tel	-11.2444
Th	-11.2444
▁Anti	-11.2447
augh	-11.2464
▁acre	-11.247
night	-11.2475
▁Nel	-11.2476
▁eta	-11.248
▁magn	-11.248
▁56	-11.2481
key	-11.2482
tail	-11.2483
▁autumn	-11.2484
▁escalate	-11.2484
▁Kohl	-11.2484
▁Swiss	-11.2484
▁tint	-11.2484
▁fierce	-11.2484
▁uniform	-11.2484
▁THE	-11.2486
▁hyper	-11.2486
▁Keep	-11.2489
▁Gregor	-11.2489
▁tenure	-11.2491
▁2003	-11.2491
down	-11.2491
▁acted	-11.2492
▁forth	-11.2494
այ	-11.2499
▁Kris	-11.2501
▁hor	-11.2502
▁61	-11.2505
▁HP	-11.2506
▁Coul	-11.2508
57	-11.2511
▁alien	-11.2513
**	-11.2516
▁ampl	-11.2517
▁vey	-11.2523
▁Gene	-11.2524
▁ku	-11.2524
▁Alam	-11.2527
▁cale	-11.2528
Not	-11.2529
▁Tha	-11.2545
▁Start	-11.2546
▁ises	-11.2554
▁AS	-11.2554
▁burg	-11.2563
▁Sai	-11.2564
▁Connect	-11.2566
▁column	-11.2566
▁hampton	-11.2566
▁scientific	-11.2566
▁explosive	-11.2566
▁borough	-11.2567
▁NSW	-11.2568
place	-11.2569
▁mature	-11.2569
▁fulfill	-11.2571
rich	-11.2576
▁lump	-11.2579
▁Box	-11.258
▁Too	-11.2584
▁59	-11.259
▁Ris	-11.2592
▁Cost	-11.2597
nounce	-11.2602
▁rub	-11.2604
▁IA	-11.2618
which	-11.2622
▁liest	-11.2625
▁26,	-11.2633
▁measur	-11.2638
gul	-11.2644
▁reign	-11.2648
Fi	-11.265
▁nose	-11.265
▁Illinois	-11.265
▁Yorkshire	-11.265
▁awful	-11.265
▁bacteria	-11.265
▁pectacular	-11.265
▁thorough	-11.265
▁logist	-11.2651
▁swap	-11.2653
▁bud	-11.2654
▁1999	-11.2655
▁Pep	-11.266
▁endous	-11.2675
▁vert	-11.2688
put	-11.269
▁Gam	-11.2691
▁Gab	-11.2692
62	-11.2692
vise	-11.2697
61	-11.2703
president	-11.2706
Isra	-11.2707
▁Oz	-11.2709
sit	-11.2721
04	-11.2728
▁ador	-11.2731
▁eng	-11.2731
▁fantas	-11.2733
▁chancellor	-11.2734
▁incumbent	-11.2734
▁soccer	-11.2734
▁Region	-11.2734
▁Thou	-11.2734
▁preserve	-11.2734
iabete	-11.2734
▁labour	-11.2734
▁rip	-11.2739
▁vibe	-11.2752
▁dual	-11.2762
▁spec	-11.2765
í	-11.2779
lav	-11.2781
կ	-11.2782
▁Memo	-11.2783
▁28,	-11.2795
nge	-11.2798
▁reci	-11.2799
▁Coll	-11.2803
▁dealer	-11.2806
▁pile	-11.2807
▁Kid	-11.2812
▁Cra	-11.2818
▁Verstappen	-11.2819
▁elicious	-11.2819
▁threshold	-11.2819
▁flew	-11.2819
▁juror	-11.2819
▁leather	-11.2819
▁Indig	-11.2819
▁annou	-11.2819
▁UCL	-11.2819
▁Place	-11.282
▁prise	-11.2821
▁compound	-11.2822
▁hush	-11.2823
▁Bloom	-11.2824
▁Money	-11.2824
▁Nazi	-11.2825
▁grip	-11.2828
▁Eight	-11.2831
▁Arc	-11.2831
▁heal	-11.2832
▁jer	-11.2832
▁ello	-11.2833
▁kov	-11.2846
▁fum	-11.2852
▁dro	-11.2857
ence	-11.2862
▁120	-11.2873
century	-11.2876
▁Eve	-11.2886
▁lib	-11.2887
ú	-11.2904
▁awkward	-11.2904
▁conventional	-11.2904
▁guitar	-11.2904
▁poison	-11.2904
▁scholar	-11.2904
▁urvival	-11.2904
izz	-11.2904
▁drought	-11.2904
▁brows	-11.2904
▁Aston	-11.2905
▁Baker	-11.2908
▁Serb	-11.2914
\">	-11.2914
▁och	-11.2916
▁ouri	-11.2919
▁tempo	-11.292
▁lemon	-11.2921
▁Hum	-11.2928
▁yea	-11.294
▁etz	-11.2941
▁ET	-11.2947
*	-11.2951
▁cco	-11.2957
▁pel	-11.2972
party	-11.2974
▁deva	-11.2974
▁66	-11.2975
▁concrete	-11.299
▁horrific	-11.299
▁sculpt	-11.299
▁compass	-11.299
▁torture	-11.299
▁forgive	-11.299
▁persua	-11.2991
▁kovic	-11.2992
▁occupied	-11.2997
▁Terr	-11.2998
▁Deep	-11.2999
▁harsh	-11.2999
flict	-11.3005
▁Oli	-11.3006
▁Sound	-11.3014
▁Ale	-11.3014
43	-11.3015
▁64	-11.3026
carce	-11.303
67	-11.3031
▁1.5	-11.3031
▁midst	-11.3035
▁cred	-11.3052
▁PI	-11.3054
ել	-11.3077
▁Chancellor	-11.3077
▁Environment	-11.3077
▁Jazeera	-11.3077
▁Program	-11.3077
▁Record	-11.3077
▁immense	-11.3077
▁interrupt	-11.3077
▁communicate	-11.3077
▁reckon	-11.3077
▁lyric	-11.3079
lativ	-11.308
Writ	-11.3083
who	-11.3084
▁rance	-11.3086
▁astro	-11.3087
▁Massa	-11.3091
▁str	-11.3093
▁triple	-11.3094
▁HD	-11.3098
▁ken	-11.3099
64	-11.3102
▁Luca	-11.3112
url	-11.3113
▁reopen	-11.3114
▁Wei	-11.3118
uzzl	-11.3119
▁Ut	-11.312
chi	-11.3121
thi	-11.3123
▁nack	-11.3127
▁NT	-11.313
▁85	-11.3132
riev	-11.3133
world	-11.3137
▁Bot	-11.3155
imilar	-11.3159
fill	-11.3161
▁onia	-11.3162
▁glimpse	-11.3165
▁lihood	-11.3165
▁perceive	-11.3165
▁semitism	-11.3165
▁execute	-11.3165
▁Opera	-11.3165
▁concede	-11.3166
▁euro	-11.3168
▁weaken	-11.3169
▁pea	-11.3181
▁ular	-11.3183
▁rie	-11.3185
▁Bond	-11.3188
▁Em	-11.3203
▁Amend	-11.3209
▁deck	-11.3217
▁24-	-11.3224
▁ory	-11.3235
▁ket	-11.324
▁tang	-11.3244
▁Bee	-11.3246
ustom	-11.3248
▁Hot	-11.3252
•	-11.3253
▁athletic	-11.3253
▁consumption	-11.3253
▁helpful	-11.3253
▁politan	-11.3253
▁relent	-11.3254
▁bias	-11.3255
▁NEW	-11.3255
▁bunch	-11.3255
▁nur	-11.3257
▁Tak	-11.3258
▁umb	-11.326
ez	-11.3263
▁nomy	-11.3264
▁refresh	-11.3264
▁endum	-11.3272
▁tender	-11.3274
je	-11.3279
▁mel	-11.328
▁"[	-11.328
-9	-11.3285
▁Hal	-11.329
▁Mou	-11.3307
second	-11.3315
▁cult	-11.3326
▁Bara	-11.333
▁fleet	-11.333
▁Kil	-11.3332
88	-11.3339
è	-11.3343
▁Kejriwal	-11.3343
▁confuse	-11.3343
▁notorious	-11.3343
▁rookie	-11.3343
▁subscription	-11.3343
▁precise	-11.3343
▁Point	-11.3343
▁gium	-11.3344
▁blog	-11.3345
▁exceptional	-11.3346
▁Arr	-11.335
▁buff	-11.3352
▁buster	-11.3355
▁DJ	-11.3359
▁Jud	-11.3361
▁idor	-11.3364
▁titled	-11.3368
▁Quin	-11.3369
▁web	-11.3379
▁Cow	-11.3389
that	-11.341
▁wy	-11.3416
յ	-11.3416
big	-11.3424
▁bite	-11.3426
▁SO	-11.3426
▁vib	-11.3432
▁absorb	-11.3433
▁treasure	-11.3433
▁whisk	-11.3433
▁premise	-11.3433
▁legitimate	-11.3433
ntelli	-11.3434
▁flaw	-11.3437
▁Mess	-11.3438
▁iola	-11.3438
ritic	-11.3439
▁lun	-11.3442
▁Mick	-11.3453
▁Chang	-11.346
▁Juan	-11.3464
▁holder	-11.3481
31	-11.3483
▁conserv	-11.3491
prison	-11.3496
▁mor	-11.3497
▁Ath	-11.3497
▁Fam	-11.3506
ieg	-11.3514
▁bou	-11.3519
▁Friend	-11.3524
▁Margaret	-11.3524
▁Respon	-11.3524
▁ambulance	-11.3524
▁bizarre	-11.3524
▁fertil	-11.3524
▁enemy	-11.3524
▁grey	-11.3524
▁Auto	-11.3524
▁droid	-11.3525
▁ordinator	-11.3526
▁Break	-11.3527
▁modest	-11.3527
▁glam	-11.3531
▁extract	-11.3533
▁epi	-11.3534
▁FL	-11.3539
▁Pear	-11.3544
▁Thor	-11.355
▁mir	-11.355
gain	-11.3555
▁81	-11.356
▁ican	-11.356
▁TH	-11.3562
teer	-11.3563
▁NA	-11.3565
claim	-11.3588
▁till	-11.3592
▁Hand	-11.3594
▁whil	-11.36
Now	-11.3602
▁Sale	-11.3607
ö	-11.3615
▁encampment	-11.3615
▁ituency	-11.3615
▁predecessor	-11.3615
▁Control	-11.3616
▁100%	-11.3621
▁FO	-11.3621
▁mentor	-11.3628
▁Mull	-11.3631
▁Wol	-11.3632
▁ía	-11.3636
▁voy	-11.3636
▁McG	-11.3638
van	-11.3644
▁Raja	-11.3645
▁leap	-11.3646
▁List	-11.3652
▁Ji	-11.3655
▁raj	-11.3662
▁pon	-11.3672
billion	-11.368
ltima	-11.3703
▁pizza	-11.3708
▁Emir	-11.3709
▁Nic	-11.3712
-10	-11.3714
▁dives	-11.3718
▁17-	-11.3718
▁Noth	-11.3725
▁Mis	-11.373
true	-11.3733
▁VO	-11.3738
▁Hil	-11.374
▁proto	-11.3746
▁Shiv	-11.3746
▁pole	-11.375
▁Chen	-11.3756
▁Hud	-11.3757
▁lon	-11.3757
▁pine	-11.3762
had	-11.3762
▁Dh	-11.3767
▁oka	-11.3776
mega	-11.3778
77	-11.378
▁mechan	-11.38
▁Hurricane	-11.3801
▁principal	-11.3801
▁thrive	-11.3802
rawl	-11.3804
▁Wolf	-11.3805
▁hammer	-11.3805
▁Emb	-11.3807
▁tooth	-11.3809
▁passage	-11.3812
▁Rev	-11.3813
▁queen	-11.3815
▁mug	-11.3816
ahara	-11.3817
▁rider	-11.3824
▁Christi	-11.3825
▁tani	-11.3831
▁Rath	-11.3833
▁nab	-11.3835
▁77	-11.3839
▁ND	-11.384
▁Lang	-11.3841
▁illy	-11.3845
▁nin	-11.3847
78	-11.3864
▁Brent	-11.3867
74	-11.3867
mbi	-11.387
▁Toro	-11.3886
▁Cann	-11.389
▁Mik	-11.389
▁conso	-11.3891
.5%	-11.3891
▁villa	-11.3894
vict	-11.3894
▁Band	-11.3895
▁Singapore	-11.3896
▁aggression	-11.3896
▁isolate	-11.3896
▁worsen	-11.3896
▁arena	-11.3899
▁ICC	-11.39
▁glow	-11.3906
▁trait	-11.3909
▁bother	-11.391
96	-11.3919
▁ters	-11.3924
▁shin	-11.3932
▁Joy	-11.3933
▁lion	-11.3936
▁emi	-11.3941
▁esco	-11.3941
▁tit	-11.3941
▁NE	-11.3945
▁lever	-11.3954
▁jam	-11.3966
will	-11.3974
▁nud	-11.3976
zz	-11.3989
▁Colombia	-11.3991
▁ESPN	-11.3991
▁Klopp	-11.3991
▁introduction	-11.3991
▁Dream	-11.3991
▁seeker	-11.3991
▁agher	-11.3994
▁hatter	-11.3995
▁Drive	-11.3995
▁Should	-11.3996
▁Liv	-11.3996
▁Collin	-11.3998
▁20%	-11.4001
▁Stat	-11.4005
▁1-0	-11.4008
▁DE	-11.4009
▁Pack	-11.401
▁phy	-11.4012
▁Nin	-11.4021
▁inson	-11.4031
▁Cast	-11.4035
▁rides	-11.404
68	-11.4054
▁Prop	-11.4056
naly	-11.4058
▁16-	-11.4061
▁68	-11.4063
mile	-11.4072
▁Inc	-11.4074
▁phenomen	-11.4083
	-11.4087
▁sacrifice	-11.4087
▁cheek	-11.4087
▁Nathan	-11.4088
▁propag	-11.4088
▁Assist	-11.4089
▁chronic	-11.4089
▁1996	-11.4089
▁IR	-11.409
▁cafe	-11.4092
▁ppy	-11.4092
▁wept	-11.4092
▁highway	-11.4092
▁insult	-11.4093
="	-11.4095
▁horn	-11.41
▁homer	-11.4109
▁taxi	-11.411
▁glu	-11.4115
▁Dead	-11.4126
52	-11.4128
▁bri	-11.4137
69	-11.4138
300	-11.4141
cap	-11.4142
shirt	-11.4157
▁76	-11.4162
TV	-11.4164
▁2-1	-11.4167
now	-11.4172
▁Aid	-11.4173
▁ev	-11.4174
most	-11.4177
ignifica	-11.4184
▁surpass	-11.4184
▁Nigel	-11.4184
▁gorge	-11.4184
▁wreck	-11.4184
▁Motor	-11.4184
▁excuse	-11.4185
▁religi	-11.4185
▁Emerge	-11.4185
▁shield	-11.4185
▁judicial	-11.4187
▁naut	-11.4189
rap	-11.4194
▁Coach	-11.4194
▁acid	-11.4194
ակ	-11.4194
AL	-11.4199
▁Dame	-11.421
▁nuts	-11.4211
▁exempt	-11.4213
tween	-11.4218
▁ior	-11.4224
76	-11.4229
Pro	-11.4232
▁Por	-11.4234
politic	-11.4242
▁loo	-11.4242
▁Saf	-11.4242
▁14-	-11.4251
Even	-11.4255
▁Lab	-11.4257
▁Haa	-11.4259
▁Bak	-11.4261
!!!	-11.4262
take	-11.4262
▁Gate	-11.4262
/1	-11.4267
▁Mass	-11.4269
▁polis	-11.4271
▁quel	-11.4273
▁Card	-11.4277
▁Lloyd	-11.4282
▁corporation	-11.4282
▁gesture	-11.4282
▁Latino	-11.4282
▁ucker	-11.4282
▁Person	-11.4283
▁nuel	-11.4283
▁ankle	-11.4283
▁gross	-11.4283
▁haunt	-11.4284
▁Dol	-11.4285
▁€1	-11.4285
▁pra	-11.4288
▁hypo	-11.4288
56	-11.4288
▁Trade	-11.4289
▁ER	-11.4292
▁BC	-11.4293
▁embark	-11.4293
▁Shin	-11.4299
▁վ	-11.4299
▁gage	-11.4304
▁vel	-11.4305
▁CS	-11.4308
▁irri	-11.4311
▁Kai	-11.4312
▁Fra	-11.4316
▁dri	-11.4317
▁raw	-11.4319
▁whip	-11.432
risk	-11.4323
▁pala	-11.4324
▁zoo	-11.4326
▁rut	-11.433
First	-11.4354
quarter	-11.4354
▁Jais	-11.4355
▁myth	-11.4355
Don	-11.4358
▁Age	-11.4361
Har	-11.4362
fam	-11.4375
▁Clo	-11.4376
▁Athletic	-11.4381
▁Fergus	-11.4381
▁Member	-11.4381
▁sympath	-11.4381
▁NCAA	-11.4381
▁Corona	-11.4381
▁minimal	-11.4381
▁Titan	-11.4381
▁Spence	-11.4382
▁tus	-11.4384
▁ethic	-11.4385
▁Sil	-11.4389
▁array	-11.439
have	-11.4391
▁spare	-11.4393
ogg	-11.4393
Your	-11.4403
▁gil	-11.4404
▁trem	-11.4406
53	-11.4409
▁Rex	-11.4413
ju	-11.4414
▁25-	-11.4421
▁Leon	-11.4423
▁mud	-11.4425
▁hol	-11.4425
▁Dann	-11.4429
▁ug	-11.4435
82	-11.4439
▁63	-11.4445
from	-11.4454
good	-11.4454
▁penn	-11.4459
▁tha	-11.4472
▁System	-11.4481
▁Yadav	-11.4481
▁orchestra	-11.4481
▁valuation	-11.4481
▁ում	-11.4482
▁Silva	-11.4482
▁blanket	-11.4482
▁Partner	-11.4483
▁cave	-11.4483
▁chin	-11.4484
▁Castle	-11.4484
clude	-11.4484
▁ulent	-11.4485
▁impression	-11.4485
▁rone	-11.4486
▁40%	-11.4487
▁Clear	-11.4487
▁hydr	-11.4488
▁Grace	-11.449
></	-11.4493
▁tide	-11.4495
▁retreat	-11.45
▁broker	-11.4507
▁18-	-11.451
▁Ul	-11.4513
▁UV	-11.4516
▁ud	-11.4517
mploy	-11.4519
▁pas	-11.4525
more	-11.4527
▁rib	-11.453
▁lac	-11.4535
well	-11.4547
▁WW	-11.4548
▁Shu	-11.455
Palestinian	-11.4555
just	-11.4556
▁wr	-11.4567
▁78	-11.4568
▁£100	-11.4572
▁74	-11.4579
Ա	-11.4582
▁Origin	-11.4582
▁accelerate	-11.4582
▁pharma	-11.4582
▁prince	-11.4582
▁rarily	-11.4582
▁Bharat	-11.4582
▁expla	-11.4583
▁crunch	-11.4583
▁drome	-11.4584
▁pretend	-11.4585
▁substitute	-11.4585
▁philo	-11.4589
▁Mona	-11.4592
▁pill	-11.4596
▁Plea	-11.4597
▁maid	-11.4597
uri	-11.4608
▁grad	-11.4609
▁Trib	-11.4612
▁hawks	-11.4613
▁condo	-11.4619
▁10,000	-11.4623
▁gna	-11.4625
▁UA	-11.4625
▁Abb	-11.4627
▁22-	-11.4627
▁Rain	-11.463
▁hra	-11.463
-12	-11.4631
anger	-11.4638
hop	-11.4639
terio	-11.4641
▁Flo	-11.4649
▁Alc	-11.4651
▁grim	-11.4656
▁Shr	-11.4658
▁illo	-11.4671
▁Gan	-11.4672
comp	-11.4673
yard	-11.4677
▁pies	-11.4682
▁Nvidia	-11.4684
▁Weather	-11.4684
▁formation	-11.4684
▁ucky	-11.4684
▁immers	-11.4684
▁Spot	-11.4685
▁ller	-11.4685
cipal	-11.4685
▁torial	-11.4686
▁View	-11.4689
▁Design	-11.4694
ball	-11.4697
▁Pac	-11.4701
▁Link	-11.4704
▁Sala	-11.4708
▁Scar	-11.4713
▁motive	-11.4714
▁Slam	-11.472
▁gro	-11.4723
▁Ph	-11.474
Ha	-11.4743
▁Const	-11.4744
▁Cru	-11.4747
▁tub	-11.475
▁nto	-11.4757
▁Fab	-11.4769
tect	-11.4773
▁EN	-11.4775
vote	-11.4785
pin	-11.4786
▁femi	-11.4787
▁prising	-11.4788
▁ridiculous	-11.4788
▁scratch	-11.4788
▁segment	-11.4788
▁uspicious	-11.4788
▁Senior	-11.4788
▁shtra	-11.4788
▁annoy	-11.4788
▁GPT	-11.4792
▁cular	-11.4792
▁infla	-11.4792
▁cal	-11.4796
▁bang	-11.4796
▁hydro	-11.4796
▁fever	-11.48
▁brick	-11.4801
▁Gas	-11.4806
▁lus	-11.4808
▁ix	-11.4809
urse	-11.4824
▁Arti	-11.4824
▁erman	-11.4834
▁Pin	-11.4839
▁zen	-11.4841
tud	-11.4845
▁SU	-11.4852
▁antic	-11.4862
breaking	-11.4864
▁pie	-11.487
▁5,000	-11.4873
▁kan	-11.4873
▁Fol	-11.4878
▁vid	-11.4882
▁Rand	-11.4884
way	-11.4885
▁WhatsApp	-11.4892
▁firefight	-11.4892
▁isastrous	-11.4892
▁parallel	-11.4892
▁portrait	-11.4892
▁tupid	-11.4892
▁whistle	-11.4892
▁Golf	-11.4892
▁Gulf	-11.4892
▁drunk	-11.4892
▁honey	-11.4892
▁ute	-11.4897
tiqu	-11.4906
▁merit	-11.4906
▁Robb	-11.4906
▁jab	-11.4918
▁Dick	-11.4919
▁Marco	-11.492
▁DS	-11.4924
▁clam	-11.493
two	-11.4934
dia	-11.4944
▁71	-11.4959
Can	-11.4963
▁Roe	-11.497
▁BE	-11.497
what	-11.4973
▁irre	-11.4977
▁myr	-11.4978
▁Phoenix	-11.4997
▁urgency	-11.4997
▁educate	-11.4997
guardian	-11.4997
▁Season	-11.4997
▁Silver	-11.4998
non	-11.4998
▁CAR	-11.5002
▁â	-11.5012
▁HR	-11.5016
gist	-11.5021
▁lender	-11.5026
too	-11.503
▁elle	-11.5032
▁Rit	-11.5048
▁Join	-11.5051
erb	-11.5053
▁tier	-11.506
▁itis	-11.5061
▁Mul	-11.5063
▁bane	-11.5073
Russ	-11.5076
200	-11.5076
▁£50	-11.5079
▁sect	-11.5079
▁Made	-11.5087
▁Sat	-11.509
Ra	-11.5096
▁constitution	-11.51
▁aesthetic	-11.5103
▁certificate	-11.5103
▁flock	-11.5103
▁plunge	-11.5103
▁portfolio	-11.5103
▁Review	-11.5103
▁rifle	-11.5103
▁audit	-11.5104
inish	-11.5104
▁Utah	-11.5104
ham	-11.5105
▁Studio	-11.5105
▁bride	-11.5105
▁disti	-11.5106
▁aggr	-11.5108
▁invent	-11.5109
▁Baby	-11.5111
▁Left	-11.5112
evi	-11.5113
zi	-11.5117
▁initiate	-11.512
▁Orange	-11.5131
rect	-11.5133
▁curb	-11.5134
▁Chap	-11.5134
▁tam	-11.5138
irr	-11.5142
);	-11.5149
87	-11.515
51	-11.5154
▁Thu	-11.5159
vad	-11.5162
▁RC	-11.5176
there	-11.518
degree	-11.5183
aq	-11.5186
▁issa	-11.5192
▁luc	-11.5195
▁Sid	-11.52
պ	-11.5204
▁imagi	-11.521
▁ock	-11.521
▁eria	-11.521
▁cautious	-11.5211
▁easonal	-11.5211
▁uitable	-11.5211
▁Baile	-11.5211
▁Small	-11.5211
▁Blair	-11.5212
▁washing	-11.5213
▁1995	-11.5214
▁arthy	-11.5214
▁roast	-11.5214
▁hom	-11.5216
▁Dad	-11.5216
▁marine	-11.5217
▁2024:	-11.5226
▁cou	-11.5228
▁Ring	-11.5232
▁Tyl	-11.5234
▁AM	-11.5237
▁coca	-11.524
has	-11.524
▁pathy	-11.5244
▁(4	-11.5249
▁requir	-11.5257
▁£20	-11.526
▁Bum	-11.5265
grate	-11.5267
▁ceased	-11.5269
side	-11.5272
▁allah	-11.5274
▁lud	-11.5276
▁TM	-11.5279
home	-11.528
▁pho	-11.5285
▁heel	-11.5285
▁ambi	-11.529
▁Beth	-11.5296
face	-11.5297
▁67	-11.5308
▁ido	-11.5311
▁blaze	-11.5315
▁Kashmir	-11.532
▁convenience	-11.532
▁fracture	-11.532
▁monarch	-11.532
▁waukee	-11.532
▁desert	-11.532
▁spice	-11.532
▁1992	-11.5321
▁Bett	-11.5321
▁1994	-11.5321
▁strand	-11.5321
▁Cruz	-11.5322
▁Cris	-11.5324
▁Match	-11.5324
▁frank	-11.5325
▁ón	-11.5327
▁grill	-11.5329
▁arrow	-11.5329
Di	-11.5331
▁Sign	-11.5343
ourne	-11.5344
▁Guy	-11.5347
▁cram	-11.5347
▁IV	-11.5348
▁Ark	-11.5353
▁beef	-11.5356
94	-11.5357
▁dra	-11.5363
Ju	-11.5365
▁pp	-11.5373
▁Ward	-11.5376
AR	-11.5383
@	-11.5383
Wo	-11.5385
unn	-11.5389
rash	-11.5395
▁jee	-11.5397
Look	-11.5402
▁Rac	-11.5403
▁OC	-11.5408
▁Bou	-11.5416
▁Jama	-11.5418
Photo	-11.5426
▁Switch	-11.5429
▁usiasm	-11.5429
ción	-11.543
▁descend	-11.543
▁Death	-11.543
lovak	-11.543
▁subscri	-11.543
▁tage	-11.543
▁Visit	-11.543
▁optimist	-11.543
▁ifier	-11.543
▁Village	-11.5431
▁sheer	-11.5431
▁spill	-11.5431
▁clever	-11.5433
▁1998	-11.5433
▁Gun	-11.5434
▁Happ	-11.5435
▁lug	-11.5441
▁PAC	-11.5443
▁Kas	-11.5445
▁pronounc	-11.545
▁BA	-11.5451
▁norm	-11.5455
▁Bash	-11.5463
▁Nine	-11.5463
▁usive	-11.5465
▁endo	-11.5473
▁Hell	-11.5489
▁Alv	-11.549
ttar	-11.5498
▁CL	-11.5502
▁Eli	-11.5506
▁73	-11.5506
▁PO	-11.5516
▁CD	-11.5521
▁linger	-11.5527
▁izer	-11.5531
gard	-11.5539
▁companion	-11.5541
▁generative	-11.5541
▁tabbing	-11.5541
▁terranean	-11.5541
▁commence	-11.5541
▁dementia	-11.5541
▁random	-11.5541
▁Owen	-11.5541
▁prosper	-11.5541
▁affiliate	-11.5541
▁1,200	-11.5541
▁stunt	-11.5541
▁Dragon	-11.5542
▁Peters	-11.5542
▁pleasant	-11.5544
▁brace	-11.5545
▁Kin	-11.5545
▁Gon	-11.5547
▁Dance	-11.5548
▁hum	-11.5549
▁Truth	-11.555
▁Maj	-11.555
dent	-11.555
▁lander	-11.5552
▁stack	-11.5558
▁KC	-11.5559
▁Zo	-11.556
▁800	-11.5567
▁Pick	-11.5569
▁$50	-11.5573
▁Step	-11.5575
▁3,000	-11.5576
▁chal	-11.5581
zo	-11.5581
▁cope	-11.5591
lay	-11.5595
▁Mack	-11.5597
▁Cav	-11.561
Mr	-11.5613
prim	-11.5619
kg	-11.5621
solid	-11.5635
],"	-11.5643
▁rhythm	-11.5653
▁acquisition	-11.5653
▁bubble	-11.5653
▁vacation	-11.5653
▁Arthur	-11.5653
▁UFC	-11.5653
▁psy	-11.5653
▁convey	-11.5653
▁plug	-11.5653
▁anchor	-11.5653
▁Griff	-11.5654
▁Limit	-11.5655
▁clue	-11.5655
▁Payne	-11.5655
▁Magic	-11.5656
▁Susan	-11.5656
▁carriage	-11.5656
▁Cass	-11.5657
▁3-0	-11.5657
MA	-11.5658
▁Check	-11.5659
▁600	-11.566
79	-11.5662
▁Pic	-11.5664
▁pox	-11.5665
bat	-11.5665
▁Manu	-11.5666
▁Gunn	-11.5669
▁bug	-11.5675
▁bust	-11.5676
▁FI	-11.5676
▁Sau	-11.5677
NA	-11.5684
▁pig	-11.569
▁refund	-11.5694
▁forum	-11.5694
▁elli	-11.5707
cha	-11.5735
AM	-11.5743
ին	-11.5747
match	-11.5747
ien	-11.5748
memo	-11.575
▁BT	-11.5751
▁Domin	-11.5761
▁Bey	-11.5765
▁Dj	-11.5765
▁Indonesia	-11.5767
▁invitation	-11.5767
▁petrol	-11.5767
▁evident	-11.5767
▁empire	-11.5767
▁convenient	-11.5767
▁robber	-11.5767
▁straw	-11.5767
mind	-11.5768
▁Jin	-11.5769
▁1993	-11.5769
▁1989	-11.5769
▁tiff	-11.577
▁hoo	-11.5771
▁50%	-11.5773
▁tally	-11.5775
▁lend	-11.5776
▁Else	-11.5777
▁merch	-11.5779
▁pier	-11.5781
▁Ter	-11.5787
▁bik	-11.5792
▁surf	-11.5793
":"1	-11.5795
▁Bit	-11.5796
▁ogue	-11.5797
▁Deal	-11.5806
▁etic	-11.5815
▁gel	-11.5819
Cric	-11.582
▁Rut	-11.5824
▁vor	-11.5824
bit	-11.5828
▁Rh	-11.5828
▁Ivan	-11.5828
▁Chu	-11.5832
gue	-11.5847
▁Lei	-11.585
govern	-11.5854
▁exc	-11.5868
ED	-11.5871
Of	-11.5878
▁READ	-11.5881
▁aintenance	-11.5881
▁decisive	-11.5881
▁horizon	-11.5881
▁patriot	-11.5881
▁uration	-11.5881
▁Samuel	-11.5882
▁Would	-11.5882
▁memorial	-11.5882
▁balloon	-11.5882
▁barrel	-11.5882
▁mourn	-11.5882
▁flick	-11.5882
ortion	-11.5883
▁jack	-11.5886
▁functional	-11.5895
▁freeze	-11.5897
▁Nash	-11.5905
▁Fac	-11.591
▁bie	-11.5912
▁revenge	-11.5914
▁owe	-11.5917
▁Bird	-11.5922
▁Swan	-11.5928
▁Med	-11.5929
▁ky	-11.594
▁mono	-11.5941
▁$100	-11.5951
▁Maz	-11.5958
▁ika	-11.596
▁nik	-11.5964
ը	-11.597
From	-11.597
▁USC	-11.5975
▁Fr	-11.5978
▁Yar	-11.5988
gress	-11.5989
blockLastUpdated	-11.5998
blockCreatedOn	-11.5998
▁Sophie	-11.5998
▁Ticket	-11.5998
▁pundit	-11.5998
▁spiritual	-11.5998
▁taggering	-11.5998
▁reiterate	-11.5998
▁Clair	-11.5998
▁Future	-11.5998
▁Patriot	-11.5998
▁Serge	-11.5998
▁splash	-11.5998
▁definition	-11.5998
▁feud	-11.5999
▁Bobb	-11.6
▁ING	-11.6001
▁Staff	-11.6002
▁colonial	-11.6002
/@	-11.6003
▁glove	-11.6014
log	-11.6014
▁Ruth	-11.6015
▁ES	-11.6015
▁Full	-11.6016
utical	-11.6018
▁Nova	-11.6022
▁encia	-11.6024
▁trace	-11.6025
▁apple	-11.6031
trib	-11.6031
▁Fil	-11.6042
7,000	-11.6042
▁Vik	-11.6047
▁nerve	-11.6064
Com	-11.6065
▁TE	-11.6071
AI	-11.6072
▁VI	-11.6078
▁Ott	-11.6087
▁$30	-11.609
Jo	-11.6095
▁acco	-11.6101
դ	-11.6109
▁rov	-11.6112
Criminal	-11.6115
▁Campaign	-11.6115
▁Circu	-11.6115
▁hurdle	-11.6115
▁disputed	-11.6115
▁Challenge	-11.6116
▁steep	-11.6116
▁enroll	-11.6116
▁1991	-11.6117
▁Peace	-11.6118
▁neglect	-11.6118
▁ision	-11.6121
▁Charge	-11.6121
▁Round	-11.6122
rbit	-11.6122
▁tray	-11.6125
▁filter	-11.6126
▁IL	-11.613
▁metric	-11.6133
▁Keith	-11.6133
▁Lor	-11.6134
▁simu	-11.6135
▁universal	-11.6142
▁pian	-11.6146
▁Nai	-11.6156
hot	-11.6159
▁£15	-11.6162
▁cub	-11.6169
udi	-11.6172
▁Bus	-11.6176
▁je	-11.6178
▁Lane	-11.6179
▁Cau	-11.6187
ield	-11.6191
2024	-11.6204
label	-11.6207
▁bage	-11.6209
New	-11.6217
▁dart	-11.6229
▁Qui	-11.6233
ծ	-11.6234
▁Olympia	-11.6234
▁dictator	-11.6234
▁solicit	-11.6234
▁tropical	-11.6234
▁owski	-11.6234
▁pardon	-11.6235
▁usalem	-11.6235
▁Smart	-11.6235
▁Entertain	-11.6235
ological	-11.6235
▁infant	-11.6235
▁calculate	-11.6235
▁ferry	-11.6237
▁Hawk	-11.6238
83	-11.6239
▁Nada	-11.6239
▁aux	-11.624
▁teria	-11.624
▁2-0	-11.624
mortal	-11.6241
▁ditch	-11.6249
▁Lock	-11.6256
▁piled	-11.6257
▁fry	-11.6263
▁Think	-11.6266
▁SA	-11.6269
▁nic	-11.627
Sha	-11.6273
▁Rud	-11.6277
Collect	-11.6277
▁£12	-11.6284
!!	-11.6285
tention	-11.6286
▁alum	-11.6297
▁ario	-11.6303
▁feas	-11.6306
▁SW	-11.6308
▁Plat	-11.6308
▁borne	-11.6318
▁behave	-11.6318
9.99	-11.6325
▁Wit	-11.6325
▁Lav	-11.633
▁ria	-11.6334
▁$20	-11.6335
▁Chop	-11.6345
May	-11.635
▁bod	-11.6352
ղ	-11.6355
▁Trafford	-11.6355
▁completion	-11.6355
▁prescription	-11.6355
▁replica	-11.6355
▁surgeon	-11.6355
▁vacuum	-11.6355
▁RWA	-11.6355
▁cision	-11.6355
▁dissent	-11.6355
▁gene	-11.6356
▁lodge	-11.6356
▁Blake	-11.6357
▁ura	-11.6357
▁diary	-11.6357
▁mund	-11.6358
▁operative	-11.6359
▁ritual	-11.636
▁ghost	-11.636
▁69	-11.6364
▁tailor	-11.6365
▁cliffe	-11.6365
▁loop	-11.6366
▁Fight	-11.6371
▁quar	-11.6372
▁Mali	-11.6378
▁robe	-11.6378
▁Amor	-11.6389
▁Bene	-11.639
▁Hoo	-11.6392
▁Mam	-11.6393
▁99	-11.6409
▁Finn	-11.6413
▁ivo	-11.643
quality	-11.6449
control	-11.6449
▁aria	-11.6457
▁voc	-11.6464
▁izers	-11.6466
84	-11.6473
▁Class	-11.6475
▁appreci	-11.6475
▁absent	-11.6476
▁navig	-11.6477
▁ient	-11.6477
▁Kardashian	-11.6477
▁Natural	-11.6477
▁absurd	-11.6477
▁censor	-11.6477
▁priest	-11.6477
▁precedent	-11.6477
▁sleeve	-11.6477
▁corona	-11.6477
▁clave	-11.6477
eopard	-11.6479
▁Idah	-11.6479
▁Wayne	-11.6479
▁globe	-11.648
▁EC	-11.6484
▁Tax	-11.6489
▁plum	-11.6491
▁Wen	-11.6492
▁pest	-11.6493
▁Sco	-11.6493
▁Fat	-11.6495
▁tribe	-11.6497
▁Costa	-11.65
▁Audi	-11.6502
▁mob	-11.6505
▁pav	-11.6505
RA	-11.6508
▁Song	-11.6522
cin	-11.6523
92	-11.6528
▁Abdul	-11.6531
▁mph	-11.6534
▁$200	-11.6544
72	-11.6557
▁Lip	-11.6557
▁Pot	-11.6561
▁EM	-11.6567
▁gle	-11.6569
Shutterstock	-11.66
▁Crystal	-11.66
▁Dakota	-11.66
▁militia	-11.66
▁trousers	-11.66
▁digest	-11.66
▁elegant	-11.66
▁lecture	-11.66
▁eties	-11.66
▁queue	-11.66
▁slogan	-11.66
▁ների	-11.6601
▁Kee	-11.6601
▁sketch	-11.6601
▁humble	-11.6601
▁racket	-11.6602
▁mechanic	-11.6603
▁burger	-11.6606
▁Lyon	-11.6606
▁fli	-11.6607
▁guez	-11.6607
▁CR	-11.6612
,600	-11.6613
▁tube	-11.6615
▁eater	-11.662
▁ugu	-11.6622
▁Shel	-11.6623
▁Fran	-11.6625
▁Dow	-11.663
lean	-11.6634
▁conductor	-11.6634
▁vend	-11.6643
▁seam	-11.6643
▁LO	-11.6653
▁Acc	-11.6654
▁(6	-11.666
ecur	-11.6661
Or	-11.6665
▁bay	-11.6671
▁Lott	-11.6671
▁VA	-11.6679
▁Patt	-11.6685
▁Dart	-11.6688
pple	-11.67
wide	-11.6702
ceiv	-11.6709
▁accommodate	-11.6725
▁caucus	-11.6725
▁hybrid	-11.6725
▁Beyond	-11.6725
▁Shadow	-11.6725
▁download	-11.6725
▁scatter	-11.6725
▁reunite	-11.6725
▁Saka	-11.6726
▁ckless	-11.6726
▁Supp	-11.6726
▁Crook	-11.6726
▁drift	-11.6726
▁Multi	-11.6726
▁Alexand	-11.6728
▁IVE	-11.6728
▁Flight	-11.6728
▁accent	-11.6728
▁Brew	-11.673
▁disgust	-11.6732
▁clan	-11.6733
▁Domini	-11.6734
five	-11.6736
▁Buy	-11.6739
▁Side	-11.674
▁Zoo	-11.674
▁rope	-11.6741
▁Wick	-11.6751
AC	-11.6752
hon	-11.6752
▁Barba	-11.6756
▁TA	-11.6762
▁lob	-11.6763
rac	-11.6775
ease	-11.6775
▁diver	-11.6776
open	-11.6795
▁lag	-11.6803
▁2%	-11.6804
▁rage	-11.681
▁conce	-11.6814
cend	-11.6819
▁Chad	-11.6823
President	-11.6824
white	-11.6825
three	-11.6825
span	-11.6828
▁nak	-11.6828
istoric	-11.6849
▁SC	-11.6849
revent	-11.685
▁Norwegian	-11.6852
▁ophisticated	-11.6852
▁pioneer	-11.6852
▁diamond	-11.6852
▁shrink	-11.6852
▁vigil	-11.6852
▁harvest	-11.6852
▁therapist	-11.6852
▁Front	-11.6852
trigu	-11.6853
▁phil	-11.6853
▁Norman	-11.6855
▁fluid	-11.6857
▁marry	-11.6857
▁Enter	-11.6859
▁Bed	-11.6865
add	-11.6867
▁(@	-11.6868
▁Bun	-11.6868
▁Rug	-11.687
▁Product	-11.6877
▁deepen	-11.6878
-16	-11.6878
▁Cork	-11.6879
imb	-11.6882
linch	-11.6886
▁alloc	-11.6887
▁Cou	-11.689
Ne	-11.6896
▁տ	-11.6897
▁Sit	-11.6897
▁26-	-11.6897
▁Jude	-11.6904
minate	-11.6904
▁Amit	-11.6917
andid	-11.6921
▁comic	-11.6922
▁zer	-11.6941
▁uru	-11.6943
▁Chand	-11.6949
▁Born	-11.695
video	-11.6953
uggle	-11.6963
▁Zi	-11.6973
▁iah	-11.6974
▁rol	-11.6977
four	-11.6977
▁Toy	-11.6978
ceremoni	-11.698
▁Rescue	-11.698
▁fascinating	-11.698
▁lipped	-11.698
▁lounge	-11.698
▁եւ	-11.698
▁Pedro	-11.698
▁Ultra	-11.698
▁patrol	-11.698
▁deserved	-11.698
▁tattoo	-11.698
▁fancy	-11.698
▁Standard	-11.698
▁Thame	-11.6982
▁2028	-11.6985
▁bur	-11.6987
▁Pes	-11.699
▁ntha	-11.6992
▁activate	-11.6995
▁leaf	-11.6996
▁Sure	-11.6998
▁poly	-11.6998
▁mild	-11.7014
▁100,000	-11.7019
kill	-11.7023
▁tire	-11.7026
pone	-11.7029
▁ր	-11.703
▁mou	-11.7037
▁Belle	-11.7038
▁thro	-11.7044
▁dispar	-11.7044
▁Scho	-11.7044
▁metro	-11.7044
▁Monte	-11.7047
▁ardo	-11.7058
▁geon	-11.706
▁Sel	-11.7061
▁Kon	-11.7063
proxi	-11.7067
secut	-11.7076
check	-11.7082
Hama	-11.7084
▁Gib	-11.7089
▁Rebe	-11.7091
▁Hai	-11.7106
▁stabil	-11.711
▁Cardinal	-11.711
զ	-11.711
▁Holiday	-11.711
▁Lincoln	-11.711
▁Punjab	-11.711
▁Reagan	-11.711
▁Together	-11.711
▁hazard	-11.711
▁obstacle	-11.711
▁sheriff	-11.711
▁lavish	-11.711
▁mineral	-11.711
▁Yousaf	-11.711
▁avage	-11.711
▁Store	-11.7111
▁trim	-11.7111
▁60%	-11.7115
jec	-11.7116
eptic	-11.7119
▁Kean	-11.7119
▁Meet	-11.712
▁pient	-11.712
▁shaw	-11.712
hid	-11.7126
best	-11.7129
▁taker	-11.713
▁Cold	-11.7134
▁logo	-11.7136
▁95	-11.7136
digit	-11.7141
▁trou	-11.7142
▁damn	-11.7152
▁hara	-11.7153
▁cess	-11.7161
▁duck	-11.7177
▁nath	-11.7208
produc	-11.7211
▁PP	-11.7213
▁uro	-11.7222
շ	-11.7242
▁Chamber	-11.7242
▁elaborate	-11.7242
▁instinct	-11.7242
▁occupation	-11.7242
▁tresses	-11.7242
▁staple	-11.7242
▁Foot	-11.7242
▁Snap	-11.7242
▁Father	-11.7242
▁fool	-11.7244
▁prevail	-11.7245
▁Winter	-11.7245
▁lawn	-11.7249
▁bulk	-11.7252
▁Lam	-11.7263
▁Isa	-11.7268
▁Prof	-11.7275
▁nary	-11.7282
grad	-11.7283
pecific	-11.7284
▁veto	-11.7285
▁lec	-11.7293
▁£25	-11.7294
▁turb	-11.7306
▁doom	-11.731
olph	-11.7316
▁tact	-11.7317
media	-11.7319
73	-11.7345
running	-11.7347
border	-11.735
▁LG	-11.7355
timu	-11.7361
▁TT	-11.7364
▁kha	-11.7365
▁Fal	-11.7373
Car	-11.7375
▁cognitive	-11.7375
▁evaluate	-11.7375
▁issippi	-11.7375
▁Appeal	-11.7375
▁Somali	-11.7375
▁intervene	-11.7375
▁drown	-11.7375
▁ordination	-11.7376
▁Raven	-11.7376
▁Potter	-11.7376
▁towel	-11.7376
Hav	-11.7377
grow	-11.7377
▁Label	-11.7377
▁shark	-11.7377
▁convincing	-11.7377
▁subtle	-11.7378
▁ovich	-11.7378
▁Room	-11.7378
▁IND	-11.7378
▁Data	-11.7379
▁Div	-11.7381
last	-11.7381
less	-11.7381
▁ethical	-11.7382
▁Connell	-11.7391
▁Aldi	-11.7396
▁hug	-11.7397
Ex	-11.7403
▁transit	-11.7403
▁rob	-11.7404
▁Winn	-11.7409
▁rella	-11.7413
▁tighten	-11.7413
▁MC	-11.7415
▁Train	-11.7415
▁Pai	-11.7431
▁gown	-11.7431
▁NG	-11.7433
▁Bag	-11.7434
▁UC	-11.7445
▁հ	-11.7463
▁Hub	-11.7466
▁gum	-11.7467
Yeah	-11.7483
sky	-11.7485
pop	-11.7489
▁bun	-11.7493
▁guin	-11.7496
▁tast	-11.7496
▁ocialist	-11.751
▁elephant	-11.751
▁integration	-11.751
▁ripping	-11.751
▁voluntary	-11.751
▁marginal	-11.751
▁massacre	-11.751
▁goodbye	-11.751
▁Stoke	-11.751
▁Fraser	-11.751
▁spiral	-11.751
▁Fitz	-11.751
▁stiff	-11.751
▁curious	-11.7511
▁chunk	-11.7512
▁Chlo	-11.7513
▁snake	-11.7513
revive	-11.7513
▁80%	-11.7514
▁VAR	-11.7514
▁agh	-11.7515
▁dine	-11.7515
▁nti	-11.7525
▁wager	-11.7534
▁Boot	-11.7536
▁83	-11.7537
▁Natal	-11.7539
▁chy	-11.7539
▁UE	-11.7543
▁Roth	-11.7543
▁Corr	-11.7545
▁Stay	-11.7557
Je	-11.7559
▁wig	-11.7566
▁Map	-11.757
nip	-11.7576
▁scorer	-11.7578
▁mic	-11.7578
▁Vio	-11.7599
▁cel	-11.7609
4,000	-11.7619
Day	-11.7629
▁analys	-11.7631
▁cliff	-11.7635
lough	-11.7647
▁algorithm	-11.7647
▁aspiration	-11.7647
▁faithful	-11.7647
▁hormone	-11.7647
▁imminent	-11.7647
▁jurisdiction	-11.7647
▁powder	-11.7647
▁bishop	-11.7647
▁provoc	-11.7647
▁crumb	-11.7647
▁parole	-11.7647
▁Logan	-11.7647
▁costume	-11.7647
▁facial	-11.7647
▁escort	-11.7648
▁Callum	-11.7648
▁bribe	-11.7649
▁Quest	-11.7649
▁yacht	-11.765
▁jean	-11.765
▁icot	-11.765
▁Sharif	-11.7651
▁rious	-11.7652
IST	-11.7652
▁cotton	-11.7652
▁magnet	-11.7653
▁SCO	-11.7657
▁Eye	-11.7658
▁Chile	-11.766
-21	-11.7668
Ab	-11.7669
▁cement	-11.7674
▁dial	-11.7675
▁grain	-11.7675
▁mack	-11.7679
▁Blu	-11.7681
▁Luck	-11.7681
▁Tree	-11.7683
▁Stein	-11.7689
▁rina	-11.7689
86	-11.7692
▁82	-11.7692
▁ré	-11.7695
▁Todd	-11.7695
▁Web	-11.7696
▁asto	-11.7703
▁Nit	-11.7712
▁BR	-11.7718
▁neo	-11.7727
▁BM	-11.7729
0)	-11.7756
▁Mum	-11.7756
school	-11.7758
▁SD	-11.7763
▁Curt	-11.7764
▁OR	-11.7766
emb	-11.7771
need	-11.7772
▁PT	-11.7773
east	-11.7779
ME	-11.7785
խ	-11.7786
▁Ipswich	-11.7786
▁anxious	-11.7786
▁historia	-11.7786
▁obesity	-11.7786
▁satisfied	-11.7786
▁Czech	-11.7786
▁itories	-11.7786
▁Draft	-11.7786
▁cluster	-11.7786
▁verbal	-11.7786
▁Emmy	-11.7786
▁wives	-11.7786
▁sneak	-11.7786
▁Leonard	-11.7786
▁bucket	-11.7789
▁vanish	-11.7792
▁adv	-11.7793
▁dragon	-11.7793
kick	-11.7794
▁Treat	-11.7795
▁Need	-11.7796
▁MAR	-11.7797
▁jaw	-11.7798
▁optic	-11.78
▁1950	-11.7803
▁weed	-11.7816
▁Paw	-11.7819
▁Mae	-11.7843
park	-11.7846
▁rake	-11.785
▁Image	-11.7854
▁Merc	-11.786
▁abh	-11.7862
▁Agri	-11.7865
▁Tal	-11.7884
▁BB	-11.7888
▁Fen	-11.7888
▁Bin	-11.7891
€	-11.7907
alenti	-11.7908
▁vie	-11.7911
▁constitut	-11.7915
LA	-11.7926
▁Use	-11.7926
"}],"	-11.7927
▁Communist	-11.7927
▁Paralympic	-11.7927
▁appliance	-11.7927
▁blunt	-11.7927
▁iracle	-11.7927
▁mpagne	-11.7927
▁Factor	-11.7927
▁surrender	-11.7927
▁plague	-11.7927
▁wrist	-11.7928
tagon	-11.7928
▁cigar	-11.7928
▁meteor	-11.7929
▁muni	-11.793
▁spire	-11.793
▁RAM	-11.7933
▁catastrophic	-11.7933
▁moil	-11.7936
▁cargo	-11.7947
▁Emer	-11.7949
▁Orb	-11.795
▁Race	-11.7955
▁Polish	-11.796
▁Shop	-11.7961
▁Fast	-11.7961
▁88	-11.7965
▁Abi	-11.7966
▁RK	-11.7967
▁Prom	-11.7974
oxy	-11.7974
▁Dunn	-11.7976
earn	-11.7977
▁ու	-11.7979
fit	-11.798
ssu	-11.7988
pik	-11.7988
tial	-11.7992
▁rous	-11.7995
Ri	-11.7996
▁Giu	-11.7999
▁Grad	-11.8009
triev	-11.8009
▁Salt	-11.8018
▁2.5	-11.8018
▁Uni	-11.802
mpir	-11.8021
Go	-11.8025
▁Heat	-11.803
▁Stur	-11.803
▁Sag	-11.8037
▁Gat	-11.8038
bedroom	-11.8042
great	-11.8042
wife	-11.8043
picture	-11.8044
drive	-11.8046
link	-11.8052
threa	-11.8052
▁Nord	-11.8059
▁libera	-11.8063
▁Muk	-11.8066
▁recogn	-11.8069
▁Leo	-11.8069
▁twenty	-11.807
▁Pelosi	-11.807
▁commute	-11.807
▁dough	-11.807
▁hilarious	-11.807
▁intellect	-11.807
▁potatoes	-11.807
▁predator	-11.807
▁tornado	-11.807
▁traightforward	-11.807
▁Source	-11.807
▁Anima	-11.807
▁Urban	-11.807
▁Trent	-11.807
▁Cruise	-11.807
▁leverage	-11.807
▁eira	-11.8072
▁Order	-11.8074
▁Penny	-11.8076
wy	-11.8077
▁Webb	-11.8094
▁Shang	-11.8097
0%	-11.8108
81	-11.8115
▁Ayo	-11.8121
▁DR	-11.8126
quil	-11.8128
▁ionist	-11.8129
▁Core	-11.8132
▁Job	-11.8134
▁1%	-11.8145
,800	-11.8151
Tod	-11.8157
▁Poc	-11.8165
▁Jh	-11.8165
▁TD	-11.8168
ydd	-11.8168
rough	-11.8179
▁Wor	-11.8179
first	-11.8187
▁Ola	-11.8192
▁etti	-11.8207
▁Arn	-11.8211
▁GT	-11.8212
▁abrupt	-11.8215
▁bureau	-11.8215
▁ական	-11.8215
▁sphere	-11.8215
▁tripped	-11.8215
▁enberg	-11.8215
▁stereo	-11.8215
▁utton	-11.8215
▁spoil	-11.8216
▁Astro	-11.8216
Donnell	-11.8217
▁Serv	-11.8217
▁($1	-11.8217
▁CDC	-11.8218
▁limb	-11.8219
Ob	-11.8221
▁crawl	-11.8224
▁30%	-11.8225
▁101	-11.8233
obble	-11.8234
▁LY	-11.8237
▁Sullivan	-11.8237
▁Ster	-11.824
▁Abba	-11.8244
affe	-11.8247
▁angel	-11.8248
▁grap	-11.8254
▁gala	-11.8254
▁ICE	-11.8257
▁96	-11.8259
mark	-11.8265
▁Gay	-11.8266
rian	-11.8271
▁Pip	-11.8283
▁Brig	-11.8283
▁Stand	-11.8298
91	-11.8311
▁max	-11.834
▁gran	-11.834
▁Jai	-11.8346
։	-11.8362
▁(£1	-11.8362
▁Maguire	-11.8362
▁academy	-11.8362
▁compliment	-11.8362
▁defect	-11.8362
▁hopped	-11.8362
▁recession	-11.8362
▁seizure	-11.8362
▁necess	-11.8362
▁evolving	-11.8362
▁upload	-11.8362
▁genetic	-11.8362
ommunic	-11.8363
▁Crow	-11.8364
▁pike	-11.8364
▁smith	-11.8364
▁sanit	-11.8366
▁Olli	-11.8367
▁79	-11.8368
▁NDA	-11.8368
▁1,500	-11.8369
▁slop	-11.837
▁Dawn	-11.8371
▁Sym	-11.8371
▁SEC	-11.8371
▁thumb	-11.8371
▁brew	-11.8376
▁Fle	-11.8376
▁15%	-11.8376
rise	-11.8377
▁iq	-11.8378
▁SB	-11.8379
▁բ	-11.8382
crypt	-11.8387
rgy	-11.8389
▁£30	-11.8392
▁dear	-11.8393
▁Try	-11.8395
▁trash	-11.8395
▁RL	-11.8403
▁LL	-11.8404
▁Privat	-11.8404
▁SK	-11.8409
▁foe	-11.8415
▁Gui	-11.8422
ctu	-11.8425
fund	-11.843
▁Mora	-11.8438
8,000	-11.8449
▁Cum	-11.8461
▁oir	-11.8475
▁hedge	-11.8485
▁Pav	-11.8491
▁chard	-11.8497
stitutional	-11.8507
▁wrest	-11.8508
▁flour	-11.851
corpora	-11.8511
▁Citizen	-11.8511
▁Diamond	-11.8511
▁Henderson	-11.8511
▁assurance	-11.8511
▁submarine	-11.8511
▁bundle	-11.8511
▁drastic	-11.8511
▁inhabit	-11.8511
▁Cancer	-11.8511
▁evoke	-11.8511
▁radar	-11.8511
▁heimer	-11.8511
▁Falcon	-11.8511
▁Julian	-11.8512
▁Protest	-11.8513
▁Roos	-11.8514
▁1968	-11.8514
▁groom	-11.8514
▁tongue	-11.8515
▁humor	-11.8516
▁calor	-11.8516
aunch	-11.8517
▁Prima	-11.852
▁Better	-11.852
▁thunder	-11.852
▁soup	-11.8524
▁grind	-11.8524
▁Kirk	-11.8525
▁knot	-11.8525
▁igan	-11.8525
▁indig	-11.8526
▁Pul	-11.8534
Mon	-11.8535
▁եր	-11.8536
▁roar	-11.8539
article	-11.854
▁ը	-11.8547
▁Third	-11.8547
րա	-11.8549
Form	-11.855
▁Host	-11.8551
▁essa	-11.8559
▁Cox	-11.8562
▁Exp	-11.857
▁ար	-11.8578
asi	-11.8586
▁trac	-11.859
▁Lid	-11.8592
▁rian	-11.861
▁Mind	-11.8622
CH	-11.863
lance	-11.8633
perfect	-11.8635
after	-11.864
about	-11.8645
▁1-1	-11.8656
▁Ambassador	-11.8662
▁Hawaii	-11.8662
▁concession	-11.8662
▁fentanyl	-11.8662
▁forensic	-11.8662
▁settling	-11.8662
▁unleash	-11.8662
▁sheep	-11.8663
▁Captain	-11.8663
▁Reyn	-11.8663
▁Skin	-11.8663
▁Target	-11.8663
▁candle	-11.8663
▁Legend	-11.8663
▁audition	-11.8663
CE	-11.8664
herent	-11.8664
incide	-11.8664
▁Libra	-11.8666
▁essay	-11.8669
▁Croat	-11.8671
▁visor	-11.8674
▁rational	-11.8674
▁Geo	-11.8674
▁tracked	-11.8675
▁stump	-11.868
▁Snow	-11.868
▁Tag	-11.8695
▁HM	-11.8696
▁Yeah	-11.8697
▁garh	-11.87
▁Stop	-11.8702
heav	-11.8702
rtho	-11.8708
▁20,000	-11.8715
▁caster	-11.8716
ibert	-11.872
▁Nap	-11.8727
▁Move	-11.8732
▁ó	-11.8739
▁Lill	-11.8744
▁Eco	-11.8744
▁laun	-11.8754
▁MD	-11.8765
▁ordinat	-11.8771
▁nock	-11.8774
▁Hour	-11.8777
▁Jor	-11.8783
loc	-11.8786
Image	-11.8788
changing	-11.8789
generation	-11.8789
John	-11.8789
require	-11.8789
▁thread	-11.8792
▁bil	-11.8793
▁barb	-11.8793
▁HS	-11.8801
plus	-11.8802
raffic	-11.8803
▁fals	-11.8806
թ	-11.8816
▁acknowl	-11.8816
▁junction	-11.8816
▁resonate	-11.8816
▁default	-11.8816
▁Sheikh	-11.8816
▁amateur	-11.8816
▁flare	-11.8816
▁crystal	-11.8816
▁Emmer	-11.8817
▁Discover	-11.8817
▁terrace	-11.8818
▁Eras	-11.8818
▁Lynch	-11.8818
▁hydrate	-11.8818
▁slug	-11.8819
▁1987	-11.8819
▁Parent	-11.8819
▁Million	-11.8821
▁merge	-11.8822
▁Ibrahim	-11.8825
▁rumor	-11.8826
▁peel	-11.8827
▁Gee	-11.8829
▁Return	-11.883
▁ragg	-11.883
▁piano	-11.883
Arnold	-11.8832
▁mall	-11.8836
seat	-11.8838
Her	-11.8842
▁fisher	-11.8844
▁Santo	-11.8846
▁Cape	-11.8847
▁Shore	-11.8849
▁Tay	-11.8861
▁nox	-11.8868
▁GC	-11.8871
▁veer	-11.8873
▁4,000	-11.8873
▁Penn	-11.8875
▁minimi	-11.8876
▁հա	-11.8889
irl	-11.8898
▁5%	-11.8906
▁Alon	-11.8907
▁kur	-11.8912
▁hab	-11.8931
▁sue	-11.8933
▁MB	-11.8937
▁lamb	-11.8944
▁ark	-11.8944
▁Sum	-11.8951
▁Put	-11.8957
By	-11.8967
▁Atkins	-11.8972
▁Commerce	-11.8972
▁boycott	-11.8972
▁fatigue	-11.8972
▁phobia	-11.8972
▁pinning	-11.8972
▁clause	-11.8972
▁pulse	-11.8972
▁queeze	-11.8972
▁Body	-11.8973
▁ocaust	-11.8973
▁shamed	-11.8973
▁spouse	-11.8973
▁Stephan	-11.8973
▁flourish	-11.8973
▁rooftop	-11.8973
▁Horse	-11.8975
▁Hab	-11.8976
▁qua	-11.8977
▁inventor	-11.8978
▁Drug	-11.8979
▁flatter	-11.8979
▁backpack	-11.8981
▁BRI	-11.8983
▁Rule	-11.8984
▁ghan	-11.8985
▁sofa	-11.8986
Did	-11.8991
mperial	-11.8995
esee	-11.9001
=""	-11.9003
▁YO	-11.9003
▁Tab	-11.9003
▁rop	-11.9007
ensit	-11.9011
▁tino	-11.9013
▁92	-11.9014
▁cure	-11.9014
▁conti	-11.9019
▁daunt	-11.9024
never	-11.9026
▁Sac	-11.9026
▁Gran	-11.9029
▁fy	-11.9036
▁grav	-11.9047
▁LP	-11.9047
▁brun	-11.9048
▁Rum	-11.9053
▁Donn	-11.9067
▁Bio	-11.9071
▁Ny	-11.9083
demi	-11.9088
▁hon	-11.9089
member	-11.9104
clear	-11.9104
▁Iron	-11.9109
▁occu	-11.9114
deep	-11.9114
▁pha	-11.9117
enti	-11.9119
inforce	-11.9131
▁Glastonbury	-11.9131
▁Temple	-11.9131
▁chemist	-11.9131
▁dispatch	-11.9131
▁gymnast	-11.9131
▁ibilities	-11.9131
▁marathon	-11.9131
▁Holland	-11.9131
▁fibre	-11.9131
▁rigor	-11.9131
▁Hassan	-11.9131
▁rador	-11.9132
▁Kor	-11.9132
▁humour	-11.9132
▁woe	-11.9132
▁patron	-11.9132
աց	-11.9133
▁witch	-11.9133
▁1986	-11.9133
▁Lamb	-11.9138
▁Zara	-11.9139
▁moder	-11.9143
▁Mangi	-11.9144
juven	-11.9145
▁Hug	-11.9161
▁Bath	-11.9163
▁Page	-11.9168
▁Kab	-11.9168
▁Wang	-11.9174
▁meme	-11.9175
▁NL	-11.9182
▁vamp	-11.9186
▁sanct	-11.9235
Fil	-11.9236
▁Meh	-11.9242
▁Mall	-11.9258
char	-11.926
break	-11.9269
▁dread	-11.927
▁$15	-11.9272
▁judici	-11.9288
▁Sah	-11.929
▁Sweeney	-11.9292
▁bloom	-11.9292
▁editorial	-11.9292
▁ivities	-11.9292
▁pedestrian	-11.9292
▁scramble	-11.9292
▁tribunal	-11.9292
▁iyeh	-11.9293
▁tapped	-11.9293
▁derail	-11.9293
▁lethal	-11.9293
▁resemble	-11.9293
▁tolerate	-11.9293
▁anthem	-11.9294
/2024	-11.9294
▁creep	-11.9295
▁cosy	-11.9295
▁Cert	-11.9295
▁1982	-11.9295
▁Worth	-11.9297
▁911	-11.9298
▁baum	-11.93
▁Malik	-11.9301
▁Pink	-11.9305
coot	-11.9311
▁Wait	-11.9315
▁holm	-11.9319
▁quin	-11.9321
ugen	-11.9324
▁Berg	-11.9324
Vi	-11.9327
▁Dark	-11.9331
▁anga	-11.934
▁mantle	-11.9342
▁ppe	-11.9347
echno	-11.9351
▁Torr	-11.9354
▁BU	-11.9355
▁bush	-11.9359
tort	-11.9374
cuff	-11.9387
bstruct	-11.9387
▁MU	-11.9389
▁hay	-11.9391
lek	-11.9395
▁$12	-11.941
terror	-11.9429
count	-11.943
Most	-11.9437
some	-11.9446
▁bash	-11.9451
լ	-11.9456
▁Blood	-11.9456
▁Profession	-11.9456
▁Spaniard	-11.9456
▁Uganda	-11.9456
▁blond	-11.9456
▁illennial	-11.9456
▁nutrient	-11.9456
▁rubbish	-11.9456
▁sensational	-11.9456
▁Strike	-11.9456
▁Fried	-11.9456
▁Ghana	-11.9456
▁juana	-11.9456
▁feld	-11.9457
▁Prison	-11.9457
▁Modern	-11.9457
▁heroes	-11.9457
▁impair	-11.9457
▁witt	-11.9458
▁Classic	-11.9459
▁chemo	-11.9459
▁1988	-11.946
▁մա	-11.946
▁Devon	-11.9463
▁Detail	-11.9463
▁Mobil	-11.9466
▁Lime	-11.947
▁EPA	-11.947
▁Zoe	-11.9475
▁Petro	-11.9479
hriv	-11.9486
▁Few	-11.9487
▁corp	-11.949
▁dessert	-11.9493
▁delicate	-11.9495
▁Wire	-11.9503
▁£40	-11.9508
any	-11.9511
3,000	-11.9524
▁86	-11.9533
▁Minn	-11.9534
omp	-11.9538
▁Rab	-11.9538
▁von	-11.9543
▁bour	-11.9555
flect	-11.9557
tell	-11.9563
▁08	-11.9571
▁CH	-11.9572
▁depr	-11.9576
▁Cata	-11.9582
ograph	-11.9593
speed	-11.9595
perform	-11.9599
India	-11.96
վ	-11.9601
▁Moo	-11.9608
pack	-11.9617
ucces	-11.9617
▁700	-11.9618
Callout	-11.9623
▁Belgian	-11.9623
▁Hundred	-11.9623
▁berries	-11.9623
▁homicide	-11.9623
▁intelligent	-11.9623
▁lapped	-11.9623
▁mushroom	-11.9623
▁perfume	-11.9623
▁riculum	-11.9623
▁satisfy	-11.9623
▁fried	-11.9623
▁steroid	-11.9623
▁Stella	-11.9623
▁flies	-11.9623
commerce	-11.9623
▁IFA	-11.9623
▁dling	-11.9624
▁Battle	-11.9624
▁cherish	-11.9624
▁vague	-11.9625
▁gaard	-11.9625
▁Spec	-11.9625
▁1979	-11.9626
▁soak	-11.9627
▁throat	-11.9627
▁tique	-11.9627
▁90%	-11.9627
▁liga	-11.9629
▁Wheel	-11.963
▁affection	-11.9634
eteran	-11.9635
▁Clean	-11.9641
▁Poly	-11.9641
▁circuit	-11.9642
▁lly	-11.9642
▁Daw	-11.9643
▁zzi	-11.9645
▁finalist	-11.9646
▁Edit	-11.9646
▁Word	-11.9647
▁vian	-11.9649
uda	-11.9662
▁Rai	-11.9665
west	-11.9667
▁socio	-11.9679
▁Moro	-11.9681
▁Zel	-11.9688
▁vine	-11.969
▁*	-11.9694
▁Than	-11.9702
text	-11.9713
▁Tip	-11.9715
agge	-11.9716
▁Bau	-11.9764
­	-11.9765
value	-11.9765
եր	-11.9766
▁thon	-11.9766
▁Fun	-11.9767
Like	-11.9767
store	-11.9769
▁cum	-11.9772
▁ratio	-11.9785
▁Fashion	-11.9793
▁Sainsbury	-11.9793
▁cyclist	-11.9793
▁disciplina	-11.9793
▁indulge	-11.9793
▁naissance	-11.9793
▁refusal	-11.9793
▁որ	-11.9793
°	-11.9793
▁worship	-11.9793
▁Rhod	-11.9793
▁blur	-11.9793
▁clutch	-11.9793
▁eagle	-11.9793
▁Help	-11.9793
▁Adrian	-11.9794
▁pillow	-11.9794
▁hyp	-11.9794
▁dresses	-11.9794
▁Murder	-11.9795
▁Self	-11.9797
▁helm	-11.9797
▁Rush	-11.9799
▁Kitt	-11.9801
▁Mahon	-11.9801
▁vape	-11.9802
▁villain	-11.9804
▁$1,000	-11.9805
▁Legal	-11.9806
▁ERA	-11.9807
hide	-11.9808
▁Zach	-11.981
▁(10	-11.9813
▁Raid	-11.9819
trans	-11.982
▁chen	-11.982
▁Rout	-11.9825
▁frag	-11.9827
▁Bund	-11.9839
▁Trip	-11.984
rape	-11.9843
6,000	-11.9847
other	-11.9853
▁180	-11.9854
▁lik	-11.9862
▁91	-11.9867
▁$500	-11.9873
▁Jok	-11.9877
▁Chau	-11.9878
▁Path	-11.9883
action	-11.9885
▁3%	-11.9891
▁enko	-11.9898
▁Alf	-11.9909
tire	-11.9913
▁bind	-11.9926
Black	-11.9937
general	-11.9937
change	-11.9938
▁87	-11.9943
":[{"	-11.9965
▁ipation	-11.9965
▁Bishop	-11.9965
▁Empire	-11.9965
▁Mirror	-11.9965
▁genius	-11.9965
▁jungle	-11.9965
▁HIV	-11.9965
▁Warrior	-11.9965
▁ladies	-11.9965
▁leigh	-11.9965
vasive	-11.9965
cognis	-11.9965
▁Vision	-11.9965
▁Feel	-11.9965
▁vinegar	-11.9965
▁competent	-11.9965
▁cartel	-11.9965
▁Root	-11.9966
▁Bernard	-11.9966
▁Visa	-11.9966
slave	-11.9966
▁canvas	-11.9966
▁ummy	-11.9968
▁semitic	-11.9969
▁Tamil	-11.9972
▁Push	-11.9972
EL	-11.9978
▁flux	-11.998
▁taka	-11.9982
Dr	-11.9983
▁Fly	-11.9991
▁Fear	-11.9992
▁Duck	-11.9994
▁Patri	-11.9996
▁Cash	-12
▁roller	-12.0005
▁Magn	-12.0007
▁scot	-12.0018
▁RF	-12.0029
▁Shap	-12.0031
▁84	-12.0035
hole	-12.0036
commend	-12.0047
Neill	-12.0047
aff	-12.0079
▁memo	-12.0086
stit	-12.009
▁cran	-12.01
▁Fine	-12.0112
Reuters	-12.0113
General	-12.0113
loved	-12.0114
grand	-12.0115
nthrop	-12.0126
udd	-12.0136
▁virtu	-12.0136
չ	-12.014
▁Access	-12.014
▁Initiative	-12.014
▁Shakespeare	-12.014
▁cooperate	-12.014
▁despair	-12.014
▁divisive	-12.014
▁ecoglou	-12.014
▁irregular	-12.014
▁lagged	-12.014
▁MGM	-12.014
▁coroner	-12.014
▁Panama	-12.014
▁Junior	-12.0141
▁Bennet	-12.0141
▁dazzl	-12.0141
punctu	-12.0141
▁siding	-12.0141
▁mitigate	-12.0141
▁NGO	-12.0143
▁1984	-12.0143
▁Priya	-12.0144
▁assa	-12.0146
▁2027	-12.0146
▁LED	-12.015
▁blazer	-12.015
▁Naga	-12.0153
▁fringe	-12.0156
▁Hind	-12.0156
▁ukh	-12.0157
▁antly	-12.0157
},"	-12.016
▁Insu	-12.016
▁Ship	-12.0161
pay	-12.0161
wirl	-12.0168
▁Chef	-12.0168
▁rox	-12.0169
▁Jail	-12.0174
▁Brave	-12.0174
▁fren	-12.0176
Twi	-12.018
▁Tara	-12.018
▁Wilk	-12.0183
▁Slot	-12.0184
▁Pash	-12.0186
▁Bach	-12.0188
▁illon	-12.0198
▁builder	-12.02
scri	-12.0201
aug	-12.021
opol	-12.0215
▁obsc	-12.0227
▁CU	-12.0231
▁dug	-12.0235
▁Gru	-12.0235
Per	-12.0247
▁ulu	-12.0256
metic	-12.0263
.99,	-12.0276
▁prolif	-12.0282
profit	-12.0292
▁Lyn	-12.0293
Field	-12.0294
Where	-12.03
▁Haw	-12.0302
Oppen	-12.0307
water	-12.0311
ndition	-12.0316
▁crimin	-12.0316
▁Blanc	-12.0318
conges	-12.0319
▁Advisor	-12.0319
▁Algeria	-12.0319
▁Broadcast	-12.0319
▁Gujarat	-12.0319
▁Hopkin	-12.0319
▁Montgomery	-12.0319
▁Muhammad	-12.0319
▁Pixel	-12.0319
▁Twenty	-12.0319
▁Zimbabwe	-12.0319
▁ominance	-12.0319
▁Defend	-12.0319
▁cough	-12.0319
▁widow	-12.0319
▁Minute	-12.0319
▁Speed	-12.0319
▁oxide	-12.0319
▁stigma	-12.0319
▁ptive	-12.0319
▁exile	-12.0319
▁oncé	-12.0319
▁Guinea	-12.0319
▁kumar	-12.0319
▁scrub	-12.032
▁lator	-12.032
▁jazz	-12.032
▁Foster	-12.032
▁ceptive	-12.032
▁copper	-12.0321
▁oath	-12.0323
▁Rocket	-12.0325
▁737	-12.0325
▁€2	-12.0325
▁spr	-12.0326
▁minus	-12.0328
▁agit	-12.0329
▁cardio	-12.0332
▁Beau	-12.0332
▁constitu	-12.0333
▁Jal	-12.0334
▁Nasr	-12.0338
▁Mix	-12.0338
▁Flow	-12.0345
▁heroin	-12.0346
▁Lamm	-12.0349
▁polish	-12.0352
tier	-12.0361
▁dogan	-12.0362
▁Dru	-12.0365
▁True	-12.0365
▁6,000	-12.0371
aunt	-12.0373
rvin	-12.0376
▁Tell	-12.0384
▁Que	-12.0385
▁Dani	-12.0388
▁chim	-12.0388
Germa	-12.0404
▁Rav	-12.0412
▁Wine	-12.0414
},{"	-12.0421
room	-12.0429
lov	-12.0431
post	-12.0437
vangel	-12.0442
1,000	-12.0446
▁attain	-12.0447
Wow	-12.0449
▁quo	-12.0452
▁Kad	-12.0459
posit	-12.0463
Sullivan	-12.0473
dollar	-12.0473
money	-12.0475
Kath	-12.0478
ffle	-12.0495
▁Alzheimer	-12.0501
©	-12.0501
à	-12.0501
▁Consider	-12.0501
▁Murdoch	-12.0501
▁judice	-12.0501
▁logging	-12.0501
▁provoke	-12.0501
Ե	-12.0501
▁uplift	-12.0501
▁Nepal	-12.0501
▁superior	-12.0501
▁WSL	-12.0501
▁ceding	-12.0501
▁grasp	-12.0501
▁fraction	-12.0501
▁Indie	-12.0501
▁migrate	-12.0502
▁brook	-12.0502
▁Wolver	-12.0502
▁logic	-12.0503
▁Timber	-12.0504
▁Triple	-12.0504
▁Berry	-12.0504
▁lept	-12.0504
▁sober	-12.0505
▁70%	-12.0506
▁Name	-12.0508
▁champ	-12.051
auto	-12.0512
▁Riv	-12.0513
▁deflect	-12.0514
▁batch	-12.0515
imate	-12.0521
▁void	-12.0525
365	-12.0525
trus	-12.053
chae	-12.0539
▁Shir	-12.0542
▁Bian	-12.0542
▁raiser	-12.0553
▁gag	-12.0555
▁dice	-12.0558
▁cage	-12.0564
▁3-1	-12.0569
▁curve	-12.0569
▁Nag	-12.0569
ատ	-12.057
▁stow	-12.057
tech	-12.0574
▁colo	-12.0575
complement	-12.0575
mphi	-12.058
▁gard	-12.059
▁chic	-12.0602
▁iche	-12.0603
}	-12.0637
could	-12.0658
where	-12.0658
track	-12.0659
girl	-12.0667
ienn	-12.0667
keep	-12.0669
9,000	-12.0669
ín	-12.0674
▁aero	-12.068
step	-12.0685
▁Culture	-12.0686
▁Elliott	-12.0686
▁Senegal	-12.0686
▁catastrophe	-12.0686
▁physician	-12.0686
▁stubborn	-12.0686
▁tolerance	-12.0686
▁tuition	-12.0686
▁Clinic	-12.0686
minisc	-12.0686
▁mould	-12.0686
▁Stream	-12.0686
▁elbow	-12.0686
▁warrior	-12.0686
▁ensemble	-12.0686
▁Syn	-12.0687
cnn	-12.0687
▁Hutch	-12.0689
▁intendent	-12.069
▁Brock	-12.069
▁$150	-12.0691
/2024/	-12.0691
▁1975	-12.0693
▁Half	-12.0693
▁Lynn	-12.0697
▁lush	-12.0697
▁litter	-12.07
▁stellar	-12.0705
▁laine	-12.0709
▁grove	-12.0709
▁Omar	-12.0711
▁contributor	-12.0712
▁Initia	-12.0713
reak	-12.0715
▁Baron	-12.0715
▁puff	-12.0718
▁McK	-12.072
▁FOR	-12.0723
▁ISI	-12.0724
▁դ	-12.073
▁Rico	-12.0731
▁30,000	-12.0731
▁neat	-12.0732
▁Ravi	-12.0736
▁Rosen	-12.0739
▁aunt	-12.0742
ASH	-12.0745
▁pok	-12.0751
▁Provi	-12.0751
▁Guin	-12.076
▁2.3	-12.0764
▁succ	-12.0766
▁palm	-12.0766
▁mone	-12.0777
▁Rao	-12.0792
/20	-12.0793
orph	-12.0817
▁zon	-12.0827
▁Rae	-12.0832
ban	-12.0833
ustain	-12.0839
â	-12.0847
focus	-12.0847
would	-12.0847
OL	-12.0848
▁Jab	-12.0853
Who	-12.0861
▁Gir	-12.0867
ortunate	-12.0873
▁Advance	-12.0875
▁Giovanni	-12.0875
▁McLaren	-12.0875
▁currencies	-12.0875
▁nuance	-12.0875
▁pilgrim	-12.0875
▁solving	-12.0875
■	-12.0875
▁leisure	-12.0875
▁plummet	-12.0875
▁volley	-12.0875
▁Account	-12.0875
▁elfish	-12.0875
▁Alpha	-12.0875
▁urreal	-12.0875
▁ulsion	-12.0875
twitter	-12.0876
▁illusion	-12.0877
▁inity	-12.0878
▁1976	-12.0878
▁Editor	-12.0879
▁Launch	-12.0879
▁scout	-12.088
▁Wonder	-12.088
▁foil	-12.088
coop	-12.0883
▁Rebel	-12.0883
▁Clay	-12.0884
trick	-12.0885
▁dupe	-12.0886
▁25%	-12.0888
ciss	-12.0891
▁Volk	-12.0892
▁osis	-12.0892
centric	-12.0895
▁idol	-12.0896
▁Lux	-12.0897
▁adorn	-12.0901
▁Sas	-12.0907
▁ival	-12.0912
▁ranch	-12.0913
your	-12.0913
hard	-12.0915
▁Yam	-12.0916
▁jay	-12.092
▁fod	-12.092
▁cial	-12.0932
▁Buk	-12.0935
▁lust	-12.0936
▁gust	-12.0939
orgi	-12.094
▁Marri	-12.0944
▁Siri	-12.0955
ettle	-12.0958
▁deau	-12.0963
▁Doll	-12.0972
▁Lov	-12.0973
hoot	-12.0987
hutter	-12.0998
eren	-12.1
▁$40	-12.1
screen	-12.1039
piece	-12.1039
author	-12.1039
full	-12.1041
rippl	-12.1065
▁flavor	-12.1067
▁phobic	-12.1067
▁Number	-12.1067
▁analyze	-12.1067
▁swamy	-12.1067
▁Experi	-12.1067
▁Pha	-12.1068
▁blank	-12.1068
▁ETF	-12.1071
▁pillar	-12.1071
ulgar	-12.1076
▁compact	-12.1076
▁Sweet	-12.1077
▁electro	-12.1078
▁chuck	-12.1082
▁Ranch	-12.1082
▁zard	-12.1083
▁Birth	-12.1084
▁graphical	-12.1086
▁Crowd	-12.1087
▁Mode	-12.1089
▁Matter	-12.1096
▁}	-12.1096
▁definit	-12.1097
▁Pok	-12.11
▁Dix	-12.1104
▁Zak	-12.1106
▁Rank	-12.1111
▁Gian	-12.1115
▁Pho	-12.1121
▁Height	-12.1125
▁lade	-12.1153
hearted	-12.1153
Chuck	-12.1183
Col	-12.1195
▁Ley	-12.1198
▁consul	-12.1216
contributor	-12.1235
standing	-12.1235
shift	-12.1236
▁3.5	-12.1239
abort	-12.124
exist	-12.1243
watch	-12.1243
CO	-12.1258
▁Isabel	-12.1263
▁Maverick	-12.1263
▁Naomi	-12.1263
▁Salvado	-12.1263
▁agnificent	-12.1263
▁capsule	-12.1263
▁cushion	-12.1263
▁lapping	-12.1263
▁menopause	-12.1263
▁opioid	-12.1263
▁barrage	-12.1263
▁curator	-12.1263
▁pheric	-12.1263
▁estructive	-12.1263
▁bruise	-12.1263
▁collide	-12.1263
▁adhere	-12.1263
▁más	-12.1263
▁Beauty	-12.1263
▁Husk	-12.1263
mAh	-12.1264
▁leek	-12.1264
▁Cloud	-12.1264
▁Isaac	-12.1264
▁brink	-12.1264
▁frey	-12.1265
▁amento	-12.1265
▁Close	-12.1265
▁Kemp	-12.1267
▁1985	-12.1268
▁fluent	-12.1268
▁Teach	-12.1269
▁HER	-12.1269
▁Honor	-12.1274
nchant	-12.1275
▁ovsk	-12.1278
▁pork	-12.1286
▁incidence	-12.1296
▁fist	-12.1297
▁15,000	-12.1297
▁grin	-12.1299
▁Raw	-12.13
▁gyn	-12.1302
▁Uber	-12.1303
▁200,000	-12.1304
▁Lego	-12.1307
▁Venu	-12.1314
▁conven	-12.1316
▁terra	-12.1321
ugg	-12.1323
▁saver	-12.1324
6.5	-12.1333
▁Bang	-12.1341
▁vir	-12.1351
lude	-12.1352
▁Rak	-12.1356
gical	-12.1367
▁ripe	-12.1385
light	-12.1418
iqu	-12.1425
բ	-12.1435
support	-12.1435
people	-12.1435
Plea	-12.1435
field	-12.1441
eliver	-12.145
wise	-12.1453
Love	-12.1456
Joe	-12.1456
":{"	-12.1463
▁Cristian	-12.1463
▁Horizon	-12.1463
▁Kitchen	-12.1463
▁arsenal	-12.1463
▁demeanor	-12.1463
▁rehearsal	-12.1463
▁rugged	-12.1463
▁scammer	-12.1463
▁Block	-12.1463
▁Fellow	-12.1463
▁screw	-12.1463
▁refurb	-12.1463
▁Xiao	-12.1463
▁Draper	-12.1463
▁cynic	-12.1463
▁vegan	-12.1463
▁osity	-12.1463
▁Dress	-12.1463
▁faint	-12.1463
▁HEL	-12.1465
▁sitcom	-12.1466
▁freak	-12.1466
▁fuss	-12.1466
▁wrestle	-12.1467
▁torch	-12.1467
▁1967	-12.1467
▁Budd	-12.1468
▁thorn	-12.1469
▁rude	-12.1469
vigor	-12.1471
▁Model	-12.1472
▁Trail	-12.1473
▁riti	-12.1474
▁$18	-12.1476
▁130	-12.1477
▁ERS	-12.1477
gulf	-12.1478
▁Margo	-12.1479
▁baker	-12.1479
▁slap	-12.1479
▁Score	-12.1483
▁malic	-12.1483
▁ruth	-12.1484
▁Terri	-12.1487
▁uous	-12.149
▁chilli	-12.1491
▁MAN	-12.1494
▁Coco	-12.1502
▁Kick	-12.1503
▁RU	-12.1511
▁BY	-12.1512
▁zza	-12.1519
▁Wid	-12.1547
venge	-12.1564
[	-12.1577
▁xi	-12.1625
grade	-12.1639
record	-12.164
▁£22	-12.1641
image	-12.1646
▁Sain	-12.1647
▁Bridg	-12.1657
God	-12.1662
▁ներ	-12.1667
▁Circle	-12.1667
▁Holyrood	-12.1667
▁articulate	-12.1667
▁calculation	-12.1667
▁են	-12.1667
▁Double	-12.1667
▁Sleep	-12.1667
▁getaway	-12.1667
▁Search	-12.1667
▁ucci	-12.1667
▁Attack	-12.1667
▁tribal	-12.1667
▁Sister	-12.1667
▁potting	-12.1667
▁dentist	-12.1667
pound	-12.1668
▁sceptic	-12.1668
▁YOU	-12.1669
▁raving	-12.1669
▁1973	-12.167
▁flam	-12.167
▁1983	-12.167
▁€3	-12.1671
▁Colum	-12.1671
▁4-0	-12.1673
▁Comment	-12.1674
▁ovic	-12.1674
▁loft	-12.1674
again	-12.1674
▁Gren	-12.1677
▁massage	-12.1677
▁Luna	-12.1678
▁silk	-12.168
OK	-12.1681
Get	-12.1682
▁Mich	-12.1687
▁brake	-12.1687
▁scalp	-12.1688
▁ffer	-12.1691
▁convo	-12.1696
,900	-12.1697
▁cosm	-12.1697
held	-12.171
▁Kish	-12.1713
▁110	-12.1718
▁Hima	-12.172
▁Chal	-12.1733
%20	-12.1758
▁Adv	-12.1807
vok	-12.1818
America	-12.1838
Ukraine	-12.1848
expect	-12.1848
shape	-12.1848
court	-12.1849
total	-12.1849
house	-12.1851
complete	-12.1851
chair	-12.1858
Gra	-12.1861
plen	-12.1869
▁ociet	-12.1871
▁advent	-12.1875
ռ	-12.1875
′	-12.1875
▁Airbnb	-12.1875
▁Coventry	-12.1875
▁Traitor	-12.1875
▁dimension	-12.1875
▁tsunami	-12.1875
ä	-12.1876
ջ	-12.1876
▁flora	-12.1876
▁fulness	-12.1876
▁tweak	-12.1876
▁theatrical	-12.1876
▁ullah	-12.1876
▁2022-23	-12.1876
▁burglar	-12.1876
▁Glad	-12.1876
▁vomit	-12.1876
▁shelf	-12.1876
▁rubber	-12.1876
▁doorstep	-12.1877
▁feather	-12.1877
▁implant	-12.1878
mbodi	-12.1878
▁1981	-12.1878
▁Craw	-12.1879
▁Fresh	-12.1879
▁glance	-12.188
Mari	-12.188
▁Crew	-12.1883
▁synth	-12.1886
▁ysia	-12.1888
▁պա	-12.189
▁populate	-12.1896
▁pinch	-12.19
Ver	-12.1903
▁hyg	-12.1904
▁Kind	-12.191
▁Nish	-12.1913
▁TY	-12.1929
UN	-12.194
1.6	-12.1999
▁£200	-12.2005
figure	-12.2061
Biden	-12.2061
Donald	-12.2061
child	-12.2061
▁culmi	-12.2061
nation	-12.2062
earth	-12.2088
Beautiful	-12.2088
▁Cincinnati	-12.2088
▁Gomez	-12.2088
▁Krishna	-12.2088
▁Medvedev	-12.2088
▁Slovenia	-12.2088
▁afeguarding	-12.2088
▁apprentice	-12.2088
▁credential	-12.2088
▁cuisine	-12.2088
▁existential	-12.2088
▁occupy	-12.2088
▁percussion	-12.2088
▁vascular	-12.2088
▁pistol	-12.2088
▁ություն	-12.2088
▁Pension	-12.2088
▁hurst	-12.2088
▁ceipt	-12.2088
▁repeal	-12.2089
▁Blanche	-12.2089
▁helmet	-12.209
▁gamble	-12.2091
▁Chester	-12.2091
▁Colour	-12.2091
▁Batter	-12.2092
▁Bomb	-12.2093
▁Expl	-12.2093
▁flak	-12.2094
▁Terror	-12.2097
vail	-12.2097
▁Sepa	-12.2101
▁baba	-12.2103
▁Bonn	-12.2104
▁EMA	-12.2105
▁Nix	-12.2107
▁Gael	-12.2107
▁900	-12.211
▁fide	-12.2116
▁EX	-12.2116
▁couch	-12.2122
▁Dust	-12.2135
booz	-12.2186
motion	-12.2212
րդ	-12.2267
fashion	-12.2278
pandemic	-12.2278
living	-12.2278
creat	-12.2278
human	-12.2281
paid	-12.229
▁lian	-12.2291
Never	-12.2296
order	-12.2296
six	-12.2298
՝	-12.2306
ձ	-12.2306
▁(£2	-12.2306
▁Economist	-12.2306
▁Ecuador	-12.2306
▁López	-12.2306
▁abdominal	-12.2306
▁accuracy	-12.2306
▁conciliation	-12.2306
▁discriminate	-12.2306
▁intersect	-12.2306
▁pathetic	-12.2306
▁Gupta	-12.2306
▁Impact	-12.2306
▁Strong	-12.2306
▁MRC	-12.2306
▁pawn	-12.2306
▁Jolie	-12.2306
▁Agree	-12.2306
▁Peck	-12.2306
":[	-12.2307
▁scroll	-12.2307
▁Brett	-12.2307
▁Progress	-12.2307
▁Troop	-12.2308
▁Strang	-12.2308
▁nium	-12.2309
▁VIP	-12.2309
▁Track	-12.2312
▁terminate	-12.2312
▁Loren	-12.232
▁Hack	-12.2323
▁cue	-12.2328
▁Maxim	-12.2336
▁Nay	-12.2344
laci	-12.2353
▁oste	-12.2398
▁350	-12.2404
Abdulla	-12.2429
chiev	-12.2444
lesc	-12.2467
Smith	-12.25
Fox	-12.25
safe	-12.2502
flight	-12.2504
establish	-12.2505
arv	-12.2508
frain	-12.2512
▁Abraham	-12.2528
▁Magistrate	-12.2528
▁Sierra	-12.2528
▁computing	-12.2528
▁fiancé	-12.2528
▁iatrist	-12.2528
▁jealous	-12.2528
▁mosquito	-12.2528
▁revival	-12.2528
▁sabotage	-12.2528
▁steward	-12.2528
▁1971	-12.2528
▁bunker	-12.2528
▁copies	-12.2528
▁Vivek	-12.2528
▁Style	-12.2528
▁Desert	-12.2528
▁Own	-12.2528
▁itation	-12.2528
▁ounce	-12.2528
▁knit	-12.2528
shrin	-12.2529
▁cheque	-12.2529
▁eux	-12.2531
▁Gross	-12.2531
▁ALL	-12.2532
▁Chandra	-12.2532
Alam	-12.2533
▁ENT	-12.2533
▁collage	-12.2533
▁£60	-12.2535
▁Chick	-12.2538
▁phenomenal	-12.2538
▁CHA	-12.2539
▁Artist	-12.254
▁Gibb	-12.254
filt	-12.2543
▁Yash	-12.2544
▁Insta	-12.2544
▁grape	-12.2553
▁moor	-12.2554
▁Bride	-12.2556
▁12,000	-12.2562
▁slur	-12.2567
ending	-12.2622
essi	-12.2651
ggle	-12.2683
rade	-12.2708
▁intim	-12.2719
Connell	-12.2727
attribute	-12.2727
հ	-12.2728
maker	-12.2728
▁$60	-12.2739
Whe	-12.2739
▁Apollo	-12.2755
▁Gonzalez	-12.2755
▁Jacque	-12.2755
▁autonomous	-12.2755
▁edieval	-12.2755
▁flank	-12.2755
▁fragrance	-12.2755
▁frantic	-12.2755
▁logged	-12.2755
▁ության	-12.2755
▁Storie	-12.2755
▁thrust	-12.2755
▁Byrne	-12.2755
▁Survey	-12.2755
▁ographer	-12.2755
▁Viktor	-12.2755
▁cartoon	-12.2755
▁skull	-12.2755
▁insane	-12.2755
▁Heavy	-12.2755
▁thermal	-12.2755
▁hrie	-12.2755
▁decree	-12.2755
▁snatch	-12.2756
▁ngent	-12.2756
▁insert	-12.2756
▁glamour	-12.2756
▁Yellow	-12.2756
Over	-12.2757
▁vsky	-12.2757
▁agua	-12.2757
▁FIR	-12.2758
▁Surya	-12.2758
▁foam	-12.276
▁ponder	-12.2761
▁Paper	-12.2762
▁curio	-12.2764
▁Buda	-12.2766
▁quiz	-12.2766
▁Capri	-12.2766
llumin	-12.2768
▁Appl	-12.2769
▁hurr	-12.2771
▁polite	-12.2771
▁passive	-12.2774
▁hatch	-12.2777
▁Duel	-12.2781
▁collar	-12.2781
▁chew	-12.2784
▁300,000	-12.2786
▁Wake	-12.2796
▁skate	-12.2808
weigh	-12.282
▁Vita	-12.2882
7.5	-12.2903
conscious	-12.296
Africa	-12.296
Good	-12.296
black	-12.296
speak	-12.296
trial	-12.2964
song	-12.2966
Հ	-12.2988
―	-12.2988
▁Aussie	-12.2988
▁Concern	-12.2988
▁Counsel	-12.2988
▁INGTON	-12.2988
▁Lithuania	-12.2988
▁Madonna	-12.2988
▁OLED	-12.2988
▁breeze	-12.2988
▁bureaucrat	-12.2988
▁charisma	-12.2988
▁Pharma	-12.2988
▁insurrection	-12.2988
▁Harbor	-12.2988
▁Eisen	-12.2988
▁acies	-12.2988
▁quirk	-12.2988
compensate	-12.2988
▁Taco	-12.2988
▁Easy	-12.2988
▁Maggi	-12.2989
▁Correct	-12.2989
▁psis	-12.2989
▁trademark	-12.2989
▁Total	-12.2989
▁lashes	-12.2989
▁Burrow	-12.2991
▁agne	-12.2992
▁fred	-12.2993
▁Fanta	-12.2993
▁€5	-12.2995
▁Huss	-12.2995
▁6-3	-12.2995
▁Drew	-12.2999
yber	-12.3
▁fier	-12.3002
▁Nak	-12.3004
▁1940	-12.3005
▁Shri	-12.3006
fest	-12.3007
▁BET	-12.3007
▁Osa	-12.301
▁hound	-12.3015
▁Hair	-12.3018
ropic	-12.3023
▁170	-12.3023
%2	-12.3024
lleg	-12.3039
▁360	-12.3093
nstru	-12.3104
wicket	-12.3198
leading	-12.3198
China	-12.3198
fuel	-12.3199
through	-12.3205
Will	-12.3206
Last	-12.3219
Մ	-12.3226
▁Ahmad	-12.3226
▁Perfect	-12.3226
▁blossom	-12.3226
▁fiance	-12.3226
▁metaphor	-12.3226
▁Cinema	-12.3226
▁whisper	-12.3226
▁OUR	-12.3226
▁physio	-12.3226
▁Century	-12.3226
▁frost	-12.3226
surrect	-12.3226
▁Machin	-12.3226
▁chorus	-12.3226
▁CCI	-12.3226
▁nated	-12.3227
▁fling	-12.3227
▁quash	-12.3228
▁neider	-12.3228
▁Aero	-12.3228
▁patent	-12.3229
▁1972	-12.3229
▁fied	-12.3229
▁Spice	-12.323
▁1969	-12.323
▁1977	-12.3231
▁1964	-12.3231
Bahra	-12.3231
▁Stefani	-12.3232
▁REN	-12.3233
▁rift	-12.3235
▁dorm	-12.3235
▁Drop	-12.3237
▁Nagar	-12.3239
▁penny	-12.3245
▁hover	-12.3247
▁Teen	-12.3247
▁13%	-12.3248
▁Pool	-12.3249
▁Beast	-12.3249
esteem	-12.3261
roach	-12.3269
▁Raf	-12.3344
noma	-12.3394
story	-12.3415
Scot	-12.3443
▁Saa	-12.3444
vital	-12.3447
super	-12.3448
igrant	-12.3466
▁legitim	-12.3468
ā	-12.347
▁apprehen	-12.347
ø	-12.347
▁Caesar	-12.347
▁Feature	-12.347
▁Publish	-12.347
▁Shepherd	-12.347
▁avocado	-12.347
▁cemetery	-12.347
▁graceful	-12.347
▁iteration	-12.347
▁robotic	-12.347
▁secular	-12.347
▁voluntarily	-12.347
▁wrinkle	-12.347
▁Claim	-12.347
▁tbsp	-12.347
▁Inspector	-12.347
▁ría	-12.347
▁icating	-12.347
▁beverage	-12.347
▁2024-25	-12.347
ող	-12.347
▁cted	-12.347
▁Peg	-12.3471
▁Filip	-12.3471
ctri	-12.3471
▁mitig	-12.3471
▁Franco	-12.3472
void	-12.3472
▁Guide	-12.3473
▁Geoff	-12.3473
▁valent	-12.3474
▁1974	-12.3475
▁croc	-12.3475
▁gaze	-12.3475
▁Swim	-12.3475
▁Boule	-12.3476
▁1948	-12.3476
▁broil	-12.3477
▁lapse	-12.3477
▁fizz	-12.3477
▁gaff	-12.3478
▁Lodge	-12.3478
▁limp	-12.348
▁scour	-12.3481
transmit	-12.3485
▁CON	-12.3488
▁RET	-12.3489
▁COP	-12.3489
ourish	-12.3493
▁Oppo	-12.3495
▁0-0	-12.3505
▁Lear	-12.3529
▁fog	-12.3571
odd	-12.3578
caus	-12.3584
ropri	-12.362
source	-12.3638
nant	-12.3679
oxid	-12.3691
husband	-12.3692
operation	-12.3692
building	-12.3692
horr	-12.3692
national	-12.3697
▁dele	-12.3697
Two	-12.37
feel	-12.3707
patri	-12.3712
ç	-12.372
ô	-12.372
Ի	-12.372
▁Expect	-12.372
▁Newspape	-12.372
▁Refuge	-12.372
▁Restaurant	-12.372
▁disguise	-12.372
▁liquor	-12.372
▁nephew	-12.372
▁provincial	-12.372
▁sausage	-12.372
▁spearhead	-12.372
փ	-12.372
▁Explain	-12.372
▁millionaire	-12.372
▁Focus	-12.372
▁Canyon	-12.372
▁Thirty	-12.372
▁Tibet	-12.372
▁Movie	-12.372
▁Extra	-12.372
▁Klein	-12.372
▁artisan	-12.372
▁thug	-12.372
▁Egg	-12.372
fisc	-12.372
▁steak	-12.372
▁stabilise	-12.3721
▁mogul	-12.3721
▁rattle	-12.3721
▁forbid	-12.3721
▁Johan	-12.3723
▁Tiff	-12.3723
▁gloss	-12.3725
▁finery	-12.3728
▁INE	-12.3729
▁Panda	-12.373
▁TRA	-12.373
▁VER	-12.373
▁guru	-12.3733
1.5	-12.3738
resist	-12.3776
▁2.0	-12.3809
Bas	-12.3925
▁£35	-12.3926
▁3-2	-12.3937
length	-12.3948
though	-12.3948
business	-12.3948
Free	-12.3949
chief	-12.3949
bust	-12.3956
egoti	-12.3959
onstant	-12.3971
<	-12.3972
Ն	-12.3976
ntibiotic	-12.3976
▁Corbyn	-12.3976
▁Gloucester	-12.3976
▁Iraqi	-12.3976
▁Tradition	-12.3976
▁abundant	-12.3976
▁barrister	-12.3976
▁cholesterol	-12.3976
▁glitter	-12.3976
▁rtney	-12.3976
▁surrogate	-12.3976
▁sympathetic	-12.3976
▁debunk	-12.3976
▁harbour	-12.3976
▁Insider	-12.3976
▁Thatcher	-12.3976
▁greed	-12.3976
jpg	-12.3976
▁newcomer	-12.3976
▁gorod	-12.3976
▁ման	-12.3977
▁sensual	-12.3977
▁supervise	-12.3979
meter	-12.3979
▁thieve	-12.398
▁derby	-12.3981
▁ody	-12.3982
▁shek	-12.3982
▁macro	-12.3983
▁Elite	-12.3983
▁brewer	-12.3983
▁nagar	-12.3986
▁bleach	-12.3989
▁Drag	-12.3989
,999	-12.4003
▁6-4	-12.4004
olitician	-12.4011
glar	-12.4032
eteor	-12.4075
trip	-12.4106
culous	-12.4132
rovid	-12.4171
ocument	-12.4183
Kristi	-12.4187
language	-12.4212
function	-12.4212
crime	-12.4212
major	-12.4212
think	-12.4214
director	-12.4215
huge	-12.4218
Right	-12.4221
going	-12.4222
Under	-12.4224
tank	-12.4225
▁biscuit	-12.4239
▁coconut	-12.4239
▁ketamine	-12.4239
▁tabloid	-12.4239
▁ես	-12.4239
▁Gwyn	-12.4239
▁Ibiza	-12.4239
▁angling	-12.4239
▁unravel	-12.4239
▁Shield	-12.4239
▁fleck	-12.4239
▁Single	-12.4239
▁wool	-12.4239
▁eaves	-12.4239
▁Firm	-12.424
▁shred	-12.424
ILL	-12.424
▁detach	-12.424
▁churn	-12.4241
▁Craft	-12.4241
▁prit	-12.4241
▁Cliff	-12.4241
▁Pont	-12.4242
▁fetch	-12.4242
▁rapist	-12.4242
▁Present	-12.4244
▁skew	-12.4245
▁Luka	-12.4249
equin	-12.4249
▁Lance	-12.4251
$2	-12.4252
▁Fail	-12.4252
Elev	-12.4262
rrog	-12.429
BER	-12.4335
2.5	-12.4424
Mexico	-12.4482
Press	-12.4482
Sept	-12.4482
protect	-12.4483
market	-12.4484
confide	-12.4485
elected	-12.4487
share	-12.4487
Play	-12.4487
▁scen	-12.4487
hysical	-12.4506
▁Akshay	-12.451
▁Barclay	-12.451
▁Podcast	-12.451
▁Quarter	-12.451
▁barbecue	-12.451
▁imagining	-12.451
▁meticulous	-12.451
▁respirator	-12.451
▁Magazin	-12.451
▁enstein	-12.451
▁nhagen	-12.451
▁Politico	-12.451
▁config	-12.451
▁cracy	-12.451
▁flesh	-12.451
▁freight	-12.451
▁gadget	-12.451
▁Strategic	-12.451
▁Drink	-12.451
▁lurk	-12.451
▁Schedule	-12.451
▁Ivor	-12.451
▁practitioner	-12.451
▁cries	-12.4511
▁eiro	-12.4513
▁blink	-12.4514
▁Hammer	-12.4514
▁1978	-12.4515
▁EST	-12.4515
pook	-12.4516
▁Witch	-12.4516
▁Argo	-12.4516
▁magi	-12.4517
▁Agent	-12.4517
▁illian	-12.4517
▁Planet	-12.4518
ւ	-12.4787
{	-12.5073
ï	-12.5983
ë	-12.6305
å	-12.6639
️	-12.6639
#	-12.6956
Á	-12.6983
ć	-12.6983
Ր	-12.7711
‐	-12.8096
ê	-12.8496
Ö	-12.8912
ժ	-12.8912
Կ	-12.9347
É	-12.9774
Ս	-13.0278
ճ	-13.0778
`	-13.186
♦	-13.186
Բ	-13.2448
î	-13.3073
č	-13.3073
Գ	-13.3073
⁄	-13.3739
ō	-13.374
Ø	-13.5223
ł	-13.5223
Լ	-13.6056
Պ	-13.6965
Տ	-13.6965
ă	-13.7965
·	-13.7965
¿	-13.7965
Â	-13.7965
ı	-13.7965
š	-13.7965
ã	-13.9077
Å	-13.9077
®	-13.9077
●	-13.9077
¢	-14.0327
ò	-14.0327
Յ	-14.1755
😂	-14.1755
ș	-14.3422
¡	-14.3422
ֆ	-14.3422
Ռ	-14.5422
	-14.5422
ù	-14.5422
⁠	-14.5422
−	-14.5422
×	-14.5422
ŷ	-14.5422
‍	-14.5422
À	-14.7922
Ã	-14.7922
ì	-14.7922
ý	-14.7922
ū	-14.7922
ž	-14.7922
♬	-14.7922
🔥	-14.7922
û	-14.7922
ŵ	-14.7922
⁣	-14.7922
😍	-15.1255
±	-15.1255
Ü	-15.1255
ė	-15.1255
Օ	-15.1255
⚽	-15.1255
🙏	-15.1255
Ժ	-15.1255
^	-15.6255
Î	-15.6255
	-15.6255
§	-15.6255
È	-15.6255
æ	-15.6255
ē	-15.6255
ģ	-15.6255
ń	-15.6255
ň	-15.6255
С	-15.6255
Չ	-15.6255
՛	-15.6255
՞	-15.6255
ạ	-15.6255
ầ	-15.6255
ắ	-15.6255
ờ	-15.6255
‭	-15.6255
›	-15.6255
⁩	-15.6255
℞	-15.6255
☆	-15.6255
❌	-15.6255
︎	-15.6255
𝄒	-15.6255
🏻	-15.6255
🏼	-15.6255
👈	-15.6255
📸	-15.6255
😅	-15.6255
ņ	-15.6255
🤦	-15.6255
😮	-16.6203
💨	-16.6204
💕	-16.6205
👉	-16.6206
・	-16.6207
♪	-16.6208
♂	-16.6209
₱	-16.621
⁦	-16.6211
Ճ	-16.6212
Đ	-16.6213
ß	-16.6214
	-16.6215
🙄	-16.6216
✔	-16.6217
▶	-16.6218
Ք	-16.6219
ț	-16.622
Ä	-16.6221
¦	-16.6222
🐎	-16.6223
Ւ	-16.6224
Ջ	-16.6225
Շ	-16.6226
Ç	-16.6227
Փ	-16.6228
Զ	-16.6229
Š	-16.623
ş	-16.6231
🥹	-16.6232
🤣	-16.6233
😭	-16.6234
Ֆ	-16.6235
Թ	-16.6236
Ը	-16.6237
Դ	-16.6238
đ	-16.6239
Ո	-16.624
❤	-16.6241
Ó	-16.6242
🥇	-16.6243
	-16.6244
ğ	-16.6245
	-16.6246
Վ	-16.6247
	-16.6248
★	-16.6249
օ	-16.625
	-16.6251
₹	-16.6252
է	-16.6253
£	-16.6254
ę	-16.6255
Խ	-16.6255
Ձ	-16.6255
ṣ	-16.6255
	-16.6255
ţ	-16.6255
₦	-16.6255
👀	-16.6255
~	-16.6255
	-16.6255
Í	-16.6255
Ò	-16.6255
þ	-16.6255
ÿ	-16.6255
ą	-16.6255
Ć	-16.6255
Ē	-16.6255
ī	-16.6255
İ	-16.6255
ř	-16.6255
ś	-16.6255
Ş	-16.6255
ż	-16.6255
ư	-16.6255
ə	-16.6255
ʔ	-16.6255
ʻ	-16.6255
̄	-16.6255
̈	-16.6255
μ	-16.6255
О	-16.6255
У	-16.6255
а	-16.6255
и	-16.6255
к	-16.6255
н	-16.6255
р	-16.6255
ї	-16.6255
Է	-16.6255
Ծ	-16.6255
Ղ	-16.6255
฿	-16.6255
ḥ	-16.6255
Ṡ	-16.6255
ả	-16.6255
ẹ	-16.6255
ế	-16.6255
ệ	-16.6255
ị	-16.6255
ọ	-16.6255
ố	-16.6255
ộ	-16.6255
ợ	-16.6255
ừ	-16.6255
ự	-16.6255
ỹ	-16.6255
‬	-16.6255
↔	-16.6255
⊕	-16.6255
⏳	-16.6255
►	-16.6255
◀	-16.6255
☀	-16.6255
♀	-16.6255
♥	-16.6255
✅	-16.6255
✨	-16.6255
⭐	-16.6255
🇱	-16.6255
🇳	-16.6255
🇸	-16.6255
🇺	-16.6255
🌪	-16.6255
🌴	-16.6255
🌹	-16.6255
🍓	-16.6255
🍹	-16.6255
🎁	-16.6255
🎢	-16.6255
🎪	-16.6255
🏆	-16.6255
🏽	-16.6255
🏾	-16.6255
👍	-16.6255
💙	-16.6255
💥	-16.6255
📋	-16.6255
📍	-16.6255
📷	-16.6255
😆	-16.6255
😊	-16.6255
😢	-16.6255
😱	-16.6255
😳	-16.6255
🙌	-16.6255
🛒	-16.6255
🤎	-16.6255
🤔	-16.6255
🤫	-16.6255
🤯	-16.6255
🤵	-16.6255
🤷	-16.6255
🥅	-16.6255
🥥	-16.6255
🥪	-16.6255
🥺	-16.6255
👏	-16.6255
(	-16.6255
Ô	-16.6255
⁤	-16.6255
