<unk>	0
<s>	0
</s>	0
▁s	-2.75797
▁the	-3.43827
,	-3.53988
.	-3.57813
▁a	-3.77554
▁to	-4.0046
▁in	-4.1249
▁ed	-4.15483
▁ing	-4.17902
▁and	-4.20983
▁of	-4.25999
'	-4.4202
s	-4.70622
▁y	-4.90101
▁be	-4.96706
▁on	-5.01464
▁e	-5.05061
▁that	-5.06111
▁"	-5.07129
▁ly	-5.08169
-	-5.10524
▁for	-5.11805
▁d	-5.142
▁is	-5.14422
▁re	-5.22261
▁it	-5.24195
▁with	-5.30833
▁The	-5.37389
▁wa	-5.39149
▁he	-5.40407
▁er	-5.47949
▁en	-5.55841
▁al	-5.57751
▁I	-5.59272
t	-5.62084
▁an	-5.73828
▁at	-5.76687
▁said	-5.80718
▁o	-5.81819
▁have	-5.86901
▁hi	-5.87352
▁has	-5.89411
▁from	-5.91216
▁by	-5.91749
▁	-5.977
▁es	-6.0239
:	-6.04816
▁-	-6.09092
▁not	-6.11577
▁out	-6.1516
▁thi	-6.18743
,"	-6.18828
▁her	-6.19971
▁you	-6.21188
▁A	-6.21706
▁ment	-6.23879
▁n	-6.25687
▁or	-6.27311
."	-6.28579
▁who	-6.28652
"	-6.29652
▁will	-6.32936
▁their	-6.35637
▁one	-6.36872
▁but	-6.38726
▁had	-6.40322
▁ers	-6.41527
▁we	-6.44508
▁year	-6.4452
▁can	-6.4915
▁up	-6.53814
▁more	-6.55254
▁were	-6.57654
▁t	-6.58735
▁about	-6.59703
▁un	-6.60407
▁(	-6.61
▁time	-6.61088
▁do	-6.6166
▁over	-6.63346
▁after	-6.63712
▁which	-6.63856
▁other	-6.65578
▁all	-6.68784
▁like	-6.72473
▁man	-6.73485
▁It	-6.74999
▁would	-6.76766
▁de	-6.77945
)	-6.79396
▁ation	-6.79785
▁'	-6.80497
▁In	-6.80581
m	-6.80793
▁people	-6.81901
▁wh	-6.82523
▁my	-6.86091
d	-6.86309
▁He	-6.88683
▁able	-6.89193
▁say	-6.90722
▁S	-6.9275
▁us	-6.93612
▁some	-6.93796
▁just	-6.95617
▁there	-6.9754
▁off	-6.993
▁day	-7.01197
▁play	-7.01313
▁what	-7.01423
▁them	-7.01578
▁ity	-7.01808
▁than	-7.01842
▁come	-7.02549
▁back	-7.03051
▁ion	-7.03214
▁first	-7.03388
a	-7.03999
▁work	-7.04988
▁two	-7.05996
re	-7.06057
▁new	-7.0689
I	-7.08369
▁land	-7.08534
▁our	-7.11217
▁could	-7.11244
▁But	-7.11783
▁ever	-7.12553
▁any	-7.13442
▁your	-7.15567
▁again	-7.16171
▁him	-7.16859
▁if	-7.18122
▁ally	-7.18387
▁state	-7.18791
▁ary	-7.20952
▁me	-7.2126
▁last	-7.21573
▁Trump	-7.22611
▁no	-7.2304
u	-7.24147
▁side	-7.24581
▁most	-7.24682
▁cause	-7.25252
▁get	-7.25625
▁thing	-7.2603
▁show	-7.26718
▁el	-7.27725
▁where	-7.27911
clu	-7.28067
▁how	-7.28111
▁age	-7.28395
▁r	-7.29639
?	-7.29704
▁now	-7.31098
▁make	-7.32499
very	-7.32889
▁way	-7.34682
▁want	-7.35682
▁i	-7.35862
▁And	-7.37183
▁while	-7.38344
▁before	-7.39271
▁report	-7.41132
▁son	-7.4172
▁need	-7.42243
▁even	-7.42619
n	-7.43069
▁Re	-7.4315
▁look	-7.43475
▁O	-7.43714
e	-7.43964
▁ver	-7.44665
▁down	-7.45245
▁think	-7.46521
ve	-7.46694
▁home	-7.46896
▁le	-7.47685
▁take	-7.47806
▁c	-7.48171
▁go	-7.48554
▁well	-7.49323
▁week	-7.49786
▁under	-7.5075
▁ent	-7.50963
▁ive	-7.51438
▁st	-7.51617
▁pre	-7.51804
▁know	-7.52685
▁Mr	-7.53384
▁Thi	-7.53862
▁cent	-7.53954
▁form	-7.54038
▁call	-7.54646
▁don	-7.54693
▁long	-7.54871
▁U	-7.54876
▁add	-7.55365
▁head	-7.56531
▁see	-7.56693
▁through	-7.56753
▁told	-7.56811
▁end	-7.57233
▁start	-7.57602
▁then	-7.57603
The	-7.57715
▁right	-7.58336
▁per	-7.59094
▁game	-7.59112
▁line	-7.59167
▁hose	-7.59383
▁high	-7.59568
▁month	-7.59816
▁three	-7.5987
▁We	-7.60534
▁going	-7.60731
▁made	-7.60937
▁She	-7.61215
▁dur	-7.61665
▁support	-7.63037
▁ate	-7.63336
▁govern	-7.6375
▁ance	-7.64063
▁help	-7.66615
o	-7.67217
▁ship	-7.67557
▁team	-7.67665
▁ic	-7.67738
▁C	-7.68115
▁est	-7.68449
▁am	-7.70006
▁life	-7.70655
▁around	-7.70881
▁ful	-7.71432
▁dis	-7.72433
▁part	-7.72693
▁less	-7.73174
▁ex	-7.7402
▁ies	-7.74785
▁E	-7.75648
▁much	-7.77064
S	-7.77137
▁ry	-7.77875
▁change	-7.78112
▁G	-7.78116
/	-7.78125
▁vot	-7.78557
▁found	-7.78569
▁still	-7.78984
▁hould	-7.79382
▁ce	-7.79573
▁did	-7.80271
▁set	-7.80551
▁since	-7.80614
▁New	-7.81076
▁good	-7.82453
▁point	-7.82465
▁con	-7.82571
▁ia	-7.82992
▁world	-7.83034
▁F	-7.83103
▁W	-7.83733
▁give	-7.84227
▁national	-7.85421
▁invest	-7.85643
▁uch	-7.86175
▁ext	-7.86931
▁place	-7.86996
▁ear	-7.87072
▁country	-7.87157
i	-7.87183
▁four	-7.87219
▁election	-7.8763
▁M	-7.87876
▁ities	-7.88228
▁los	-7.88441
▁follow	-7.88845
▁ian	-7.89138
▁case	-7.89352
▁cross	-7.90025
▁public	-7.90375
▁between	-7.90458
▁feel	-7.90565
▁ations	-7.91089
▁own	-7.91827
▁member	-7.91978
▁came	-7.92604
p	-7.93032
in	-7.93181
▁try	-7.93229
▁ways	-7.93285
ur	-7.93329
▁family	-7.93871
▁self	-7.94428
▁m	-7.94533
▁president	-7.94685
▁Biden	-7.95303
▁second	-7.9581
▁big	-7.95849
We	-7.95949
▁contin	-7.95966
▁politic	-7.95999
▁B	-7.96065
▁T	-7.97172
▁w	-7.97886
▁Russ	-7.98076
▁season	-7.98914
▁im	-7.98935
year	-7.99197
▁ty	-7.9968
▁open	-7.99729
▁K	-8.00121
▁ember	-8.00178
▁group	-8.00342
▁night	-8.00387
▁post	-8.0043
ll	-8.00865
▁p	-8.01042
▁P	-8.01239
▁left	-8.01381
▁law	-8.01859
▁may	-8.02188
▁use	-8.02423
▁million	-8.02501
▁got	-8.02757
;	-8.03441
▁attack	-8.03897
▁ask	-8.04874
▁best	-8.05303
▁ence	-8.0533
▁De	-8.06069
▁expect	-8.0649
▁win	-8.06639
It	-8.06686
▁both	-8.06763
▁co	-8.06781
▁share	-8.06921
▁hand	-8.06927
▁put	-8.0695
▁D	-8.07379
▁lot	-8.08106
▁There	-8.08121
▁ame	-8.08604
▁health	-8.0908
▁How	-8.0931
▁That	-8.09329
▁office	-8.0962
▁ating	-8.09827
▁President	-8.09949
▁live	-8.10221
▁mean	-8.1041
▁k	-8.10453
▁l	-8.1075
▁ments	-8.10759
▁turn	-8.10762
▁official	-8.11
▁near	-8.11119
▁air	-8.11281
▁ative	-8.11967
old	-8.12
▁com	-8.12224
▁ous	-8.12267
▁br	-8.12392
▁ton	-8.12561
g	-8.12568
▁friend	-8.12754
▁person	-8.12995
▁star	-8.13053
▁US	-8.13337
▁leader	-8.13346
r	-8.13483
▁top	-8.13504
▁ready	-8.13681
▁never	-8.1371
▁ra	-8.13781
▁too	-8.13995
▁face	-8.14118
▁Man	-8.14407
▁find	-8.14543
▁On	-8.14777
▁men	-8.14895
▁test	-8.15015
▁een	-8.15224
▁final	-8.15336
▁Sun	-8.15526
▁ad	-8.15941
▁accord	-8.16258
▁h	-8.17429
▁days	-8.17431
▁led	-8.17471
▁low	-8.17487
▁count	-8.1777
▁ant	-8.17793
▁coming	-8.17826
th	-8.18519
▁great	-8.18655
▁ration	-8.18956
▁children	-8.18966
▁You	-8.19279
▁away	-8.19363
▁hen	-8.20435
▁house	-8.20691
▁ions	-8.20788
▁return	-8.20877
▁ness	-8.20916
▁media	-8.21061
▁here	-8.2117
▁campaign	-8.21213
▁police	-8.21254
▁UK	-8.21594
▁court	-8.21705
▁If	-8.21767
▁power	-8.21933
▁number	-8.22233
▁ie	-8.22247
▁mis	-8.22332
▁though	-8.22447
b	-8.22842
▁women	-8.22851
▁special	-8.22935
▁American	-8.2322
▁For	-8.23495
vi	-8.23869
▁Isra	-8.24274
▁remain	-8.2431
▁company	-8.24429
▁th	-8.24508
▁provi	-8.24725
▁An	-8.24879
▁run	-8.2498
▁war	-8.25215
liev	-8.25439
▁State	-8.25446
k	-8.25616
▁il	-8.25706
▁issue	-8.26008
▁few	-8.2612
▁five	-8.26301
▁won	-8.2678
▁care	-8.26799
▁party	-8.26807
▁clear	-8.27023
▁happen	-8.27063
▁didn	-8.27288
▁ar	-8.27372
▁force	-8.27505
▁large	-8.27898
▁took	-8.28054
▁plan	-8.28334
▁school	-8.28454
▁area	-8.28501
▁later	-8.2858
▁pass	-8.29012
▁real	-8.29121
▁love	-8.30163
▁young	-8.30222
▁car	-8.30474
▁business	-8.30478
▁fan	-8.30632
c	-8.30863
▁move	-8.3087
▁N	-8.31018
▁water	-8.3165
▁sure	-8.31871
▁hard	-8.31948
▁something	-8.32184
▁ong	-8.32186
▁So	-8.32438
▁ling	-8.32454
▁record	-8.32457
▁Unit	-8.32513
▁service	-8.32727
▁far	-8.32797
▁g	-8.33096
▁rs	-8.33123
▁la	-8.3321
▁event	-8.33457
▁book	-8.34104
▁might	-8.34286
▁deal	-8.34551
▁kill	-8.3456
▁body	-8.34798
▁allow	-8.34863
▁result	-8.34888
▁sign	-8.35487
▁light	-8.35828
▁six	-8.36016
▁cost	-8.36046
▁major	-8.36109
▁inter	-8.3638
▁talk	-8.36727
▁film	-8.36855
▁fire	-8.36887
▁ster	-8.37173
▁social	-8.37295
▁free	-8.37702
▁di	-8.37735
▁2024	-8.37755
▁X	-8.37953
▁ley	-8.38829
▁commun	-8.39263
▁meet	-8.39378
▁hit	-8.39491
▁One	-8.39706
▁position	-8.39897
▁little	-8.40488
▁decision	-8.40731
▁different	-8.40831
▁better	-8.41031
▁east	-8.4121
▁market	-8.41233
▁question	-8.41424
▁claim	-8.41584
▁ecurity	-8.41772
▁local	-8.41873
▁making	-8.4209
▁each	-8.42311
▁system	-8.42373
▁Democrat	-8.42474
▁experience	-8.42523
▁South	-8.42526
▁having	-8.43028
▁ch	-8.43088
▁pay	-8.43122
A	-8.43172
▁ism	-8.43506
l	-8.43552
▁til	-8.43557
▁press	-8.43608
▁city	-8.43945
▁[	-8.43993
▁along	-8.44032
▁To	-8.44067
▁comment	-8.44197
▁10	-8.44284
▁No	-8.4464
▁announce	-8.44728
▁job	-8.45071
Harri	-8.45101
▁pro	-8.45284
▁past	-8.45685
▁Mon	-8.45719
▁view	-8.4574
▁moment	-8.45789
▁perform	-8.46065
▁ball	-8.46283
▁creat	-8.46611
▁money	-8.46945
▁ated	-8.47848
▁price	-8.47897
▁death	-8.48154
▁R	-8.48246
▁ought	-8.48294
▁ist	-8.48619
▁port	-8.48801
▁nation	-8.48882
▁L	-8.48902
▁half	-8.49031
▁keep	-8.4926
▁current	-8.49273
▁appear	-8.49382
▁video	-8.49444
▁wrote	-8.49489
▁reveal	-8.49554
▁hour	-8.49587
▁eries	-8.49602
▁train	-8.49625
▁ough	-8.49778
▁field	-8.50143
▁India	-8.50195
▁old	-8.50259
!	-8.5093
]	-8.51039
h	-8.51267
▁watch	-8.51462
▁Europe	-8.51558
▁John	-8.51729
▁alleg	-8.51749
▁York	-8.5194
▁Credit	-8.52302
▁room	-8.52331
▁news	-8.5244
▁visit	-8.5244
az	-8.52445
▁publican	-8.52453
▁close	-8.52601
▁interest	-8.52609
▁Mini	-8.52728
▁ised	-8.52741
▁name	-8.53304
▁parent	-8.53613
▁Eng	-8.53962
▁red	-8.54178
▁known	-8.54188
▁May	-8.54226
▁pot	-8.54348
▁ability	-8.54454
▁level	-8.54484
▁Whi	-8.54622
),	-8.54686
▁militar	-8.54741
▁match	-8.54978
▁Ukraine	-8.55256
▁thought	-8.55354
▁ine	-8.5537
y	-8.55628
▁seem	-8.55663
▁Al	-8.55971
▁bas	-8.56058
▁ground	-8.56064
▁full	-8.56319
▁ably	-8.56455
▁thir	-8.56553
▁rate	-8.56677
▁host	-8.56874
▁tell	-8.56932
▁spite	-8.56975
▁ting	-8.5729
▁short	-8.57414
al	-8.57499
▁goal	-8.57559
▁f	-8.57644
▁fall	-8.57856
▁treat	-8.58031
▁cut	-8.58347
▁concern	-8.58379
▁together	-8.58614
▁Hi	-8.58723
▁House	-8.58911
▁small	-8.58915
▁u	-8.59076
▁author	-8.59212
halleng	-8.59561
▁food	-8.59565
▁taking	-8.59746
▁critic	-8.59926
▁order	-8.59941
▁must	-8.59962
▁ries	-8.60029
▁ial	-8.60091
▁na	-8.60613
▁reach	-8.61031
▁due	-8.61376
▁hope	-8.61446
▁After	-8.61446
▁often	-8.61586
▁consider	-8.61853
▁role	-8.6204
▁ped	-8.62093
▁why	-8.62098
▁City	-8.62157
▁taken	-8.62282
▁mid	-8.62609
▁b	-8.62705
▁minute	-8.62751
▁action	-8.63086
▁receive	-8.63389
▁key	-8.63407
▁success	-8.63573
or	-8.63582
▁News	-8.63966
▁fund	-8.64054
▁lead	-8.64126
▁ago	-8.6429
▁wide	-8.64768
▁term	-8.64783
▁app	-8.64893
▁ite	-8.64953
▁ham	-8.65251
▁hold	-8.65296
▁gett	-8.65589
▁At	-8.6568
▁process	-8.65767
▁today	-8.65798
▁With	-8.66173
▁ential	-8.66279
▁non	-8.66427
▁important	-8.66467
▁break	-8.66645
▁future	-8.66656
▁ously	-8.66848
▁Friday	-8.66976
▁strong	-8.67038
▁club	-8.67039
the	-8.67064
▁tax	-8.67534
▁ber	-8.67579
▁relation	-8.67684
▁let	-8.67794
▁London	-8.67815
▁agree	-8.68527
▁20	-8.68803
▁West	-8.68917
at	-8.68947
).	-8.69004
▁human	-8.69121
▁mother	-8.69181
▁fully	-8.69207
▁Con	-8.69491
serv	-8.69575
▁Har	-8.69759
▁risk	-8.69928
▁hind	-8.69965
▁stead	-8.70034
▁Be	-8.70092
▁launch	-8.70171
...	-8.70619
▁Tuesday	-8.70632
▁student	-8.707
▁walk	-8.70897
▁protect	-8.71039
▁done	-8.71266
▁bit	-8.71494
▁problem	-8.71636
▁woman	-8.71837
▁late	-8.72123
▁suggest	-8.72173
▁further	-8.72309
▁fail	-8.72926
▁What	-8.73005
▁kind	-8.73162
▁Oct	-8.73205
▁Ju	-8.73252
▁once	-8.73279
▁gan	-8.73316
▁bar	-8.73436
▁ature	-8.73472
▁accu	-8.73558
▁child	-8.73607
▁leg	-8.73681
▁ping	-8.73682
▁account	-8.73876
▁front	-8.73954
▁North	-8.73959
▁ese	-8.74052
▁Mc	-8.7417
▁focus	-8.74367
▁China	-8.74479
▁ta	-8.74603
▁ier	-8.74995
▁travel	-8.75195
▁warn	-8.75311
▁Donald	-8.75477
▁cover	-8.75721
▁ington	-8.7589
▁ors	-8.76034
▁phone	-8.76172
▁stay	-8.76248
esda	-8.76386
▁V	-8.76554
▁join	-8.76878
▁National	-8.76884
▁Wed	-8.7701
▁whe	-8.77073
▁story	-8.77105
▁target	-8.77162
▁mark	-8.77176
▁strike	-8.77304
▁Israeli	-8.77448
▁couple	-8.77587
▁list	-8.77669
▁den	-8.77706
▁building	-8.77808
▁design	-8.77965
▁charge	-8.78025
▁arm	-8.78057
▁wor	-8.78089
▁Thursday	-8.78159
▁celeb	-8.78376
▁effort	-8.7889
▁wards	-8.79174
▁dy	-8.79244
▁creas	-8.79325
▁space	-8.79531
▁candid	-8.79537
▁World	-8.79751
▁possible	-8.79894
▁partner	-8.79912
▁ge	-8.7997
▁Jun	-8.80249
▁career	-8.80359
C	-8.80548
▁ified	-8.80625
▁heart	-8.80689
▁yet	-8.80748
▁condition	-8.80777
▁saw	-8.81506
▁Poli	-8.8152
▁eight	-8.81542
▁control	-8.81676
▁data	-8.82108
▁ignificant	-8.82181
▁employ	-8.82218
▁minister	-8.82406
▁ward	-8.82538
▁ob	-8.82684
▁course	-8.82934
▁board	-8.83088
minist	-8.83157
▁tri	-8.83218
▁arrest	-8.83233
▁race	-8.83469
▁lier	-8.8347
▁deliver	-8.83629
▁ising	-8.83647
▁Nov	-8.84021
▁history	-8.8415
▁et	-8.8415
▁particular	-8.84296
▁leave	-8.84331
▁proper	-8.84606
▁ized	-8.84614
▁Some	-8.8489
▁ther	-8.84936
▁poll	-8.85077
to	-8.85114
er	-8.85361
▁Lo	-8.85393
▁mess	-8.85567
▁interview	-8.85677
▁complete	-8.85841
▁access	-8.86065
▁percent	-8.86075
▁legal	-8.86164
▁feature	-8.8622
▁mov	-8.8626
▁viol	-8.8637
▁involve	-8.86513
▁ban	-8.86593
▁hospital	-8.86687
▁confirm	-8.86688
▁fact	-8.86735
nivers	-8.86865
▁stand	-8.86911
▁project	-8.87004
▁impact	-8.8708
▁information	-8.87392
▁attempt	-8.87393
▁billion	-8.87572
▁ates	-8.87804
▁require	-8.87882
▁Saturday	-8.87948
▁2	-8.88207
av	-8.88475
▁explain	-8.88501
▁present	-8.88631
▁suit	-8.88663
▁grow	-8.88739
▁vice	-8.88744
▁pick	-8.88907
▁vision	-8.8898
▁step	-8.89073
▁z	-8.89219
▁hear	-8.89294
▁direct	-8.89366
▁staff	-8.89542
▁deep	-8.89717
decid	-8.89897
▁held	-8.89953
▁Court	-8.90038
up	-8.90138
▁drop	-8.90274
on	-8.90344
▁stop	-8.9035
▁Australia	-8.90429
▁ties	-8.90497
▁seven	-8.90501
▁summer	-8.90512
▁park	-8.90532
▁town	-8.90558
▁improv	-8.9059
▁understand	-8.90916
▁quick	-8.90917
▁protest	-8.90997
▁Black	-8.91007
z	-8.91115
▁speak	-8.91136
▁felt	-8.91174
▁nce	-8.91269
▁Just	-8.91289
▁reason	-8.91487
▁personal	-8.91614
▁certain	-8.92063
▁word	-8.92105
impl	-8.92187
▁Scot	-8.92222
▁actual	-8.92479
▁eye	-8.92626
▁League	-8.92642
▁1	-8.9284
▁5	-8.92879
▁forward	-8.9306
▁decade	-8.93227
▁rule	-8.93263
▁girl	-8.93483
▁ice	-8.93527
▁crease	-8.93539
▁father	-8.93556
▁trial	-8.93581
▁British	-8.9373
▁ide	-8.93785
▁AI	-8.93824
▁opport	-8.94058
rgu	-8.94124
▁energ	-8.9415
▁coach	-8.9415
▁inciden	-8.94392
▁stage	-8.94423
▁manage	-8.94471
▁general	-8.9458
▁policy	-8.94649
▁learn	-8.94821
▁wait	-8.95014
▁mission	-8.95073
▁product	-8.95162
▁Mar	-8.95177
Apr	-8.95218
▁research	-8.95498
▁TV	-8.95601
Thi	-8.95845
▁act	-8.95877
▁Her	-8.95939
▁Jam	-8.95998
▁ma	-8.9612
▁Janu	-8.96216
▁avail	-8.96356
▁fast	-8.96624
▁ish	-8.96664
▁Co	-8.96684
▁Sept	-8.96886
▁March	-8.97144
▁king	-8.97325
▁econom	-8.97386
▁erious	-8.97397
▁All	-8.97813
▁ise	-8.97919
▁operation	-8.9801
▁lines	-8.98043
▁igation	-8.98089
▁12	-8.98248
▁matter	-8.98265
▁ize	-8.98352
▁...	-8.98469
▁multi	-8.98621
▁fore	-8.98807
▁finish	-8.99061
▁ists	-8.99119
f	-8.99347
▁director	-8.9935
▁seat	-8.99369
▁German	-8.99415
▁represent	-8.99451
▁comp	-8.99667
▁main	-8.99928
▁bill	-8.99968
2	-9.00126
▁limit	-9.0013
▁ident	-9.00309
st	-9.0035
▁daughter	-9.00393
▁round	-9.00654
▁custom	-9.00757
▁quarter	-9.00953
▁region	-9.01093
▁produc	-9.01121
":"	-9.01122
▁Labour	-9.01296
▁wife	-9.01304
▁tic	-9.01542
▁My	-9.0167
▁ample	-9.0175
▁prob	-9.01796
▁wood	-9.0193
▁happ	-9.02042
▁te	-9.02065
▁total	-9.02129
▁push	-9.02204
▁released	-9.02474
▁wear	-9.02664
▁anti	-9.02758
▁Indian	-9.02763
▁attend	-9.0284
▁running	-9.0304
▁boy	-9.03046
▁cap	-9.03154
▁financial	-9.03209
▁Wash	-9.0349
▁demand	-9.03587
▁initi	-9.03849
▁border	-9.03873
▁figure	-9.03958
▁ring	-9.03973
▁sale	-9.04193
▁les	-9.04356
▁buy	-9.0442
▁football	-9.04508
▁gun	-9.04617
▁serv	-9.04886
▁J	-9.0497
▁chief	-9.0517
▁claimed	-9.05259
▁shot	-9.05323
▁ifficult	-9.05348
▁lease	-9.05349
▁ible	-9.05634
▁America	-9.05678
▁himself	-9.05822
▁ees	-9.05922
▁develop	-9.05944
▁3	-9.05994
▁address	-9.06107
▁rest	-9.06159
▁owner	-9.06252
▁global	-9.06297
▁living	-9.064
▁4	-9.06645
▁respond	-9.06715
▁vious	-9.06962
▁ab	-9.06987
▁Dec	-9.07266
▁afety	-9.07729
▁30	-9.08365
▁Joe	-9.08365
par	-9.08393
▁unity	-9.08417
▁bad	-9.08503
▁mediate	-9.0861
▁table	-9.08612
▁emerge	-9.08702
▁soon	-9.08704
▁scene	-9.08706
▁ingly	-9.08751
,""	-9.0876
▁ituation	-9.08795
▁Iran	-9.08845
▁dog	-9.08867
▁detail	-9.09
▁road	-9.09097
He	-9.0911
▁search	-9.09186
▁reduc	-9.09214
▁benefit	-9.09426
▁um	-9.09511
▁brand	-9.09713
▁approach	-9.09971
▁trans	-9.1002
▁La	-9.10365
▁enjoy	-9.1057
▁v	-9.10574
▁federal	-9.10664
▁economic	-9.10677
▁foot	-9.10702
▁response	-9.10964
▁tour	-9.11106
▁mass	-9.11139
▁safe	-9.11273
▁fight	-9.11349
▁panies	-9.11361
▁bank	-9.116
▁period	-9.11663
▁source	-9.11764
ccord	-9.11778
▁worth	-9.11786
▁suffer	-9.11865
▁Y	-9.11915
▁value	-9.11978
▁ure	-9.12048
▁selves	-9.12063
▁Can	-9.12301
▁18	-9.12395
▁spoke	-9.12431
▁White	-9.12693
▁expert	-9.12772
▁music	-9.12856
▁box	-9.13087
▁leading	-9.13192
▁Congress	-9.13384
▁option	-9.13385
▁Dr	-9.13433
and	-9.13685
▁industry	-9.13689
▁15	-9.13988
▁shop	-9.14038
▁mind	-9.1428
▁addition	-9.14612
▁gu	-9.14638
▁dead	-9.14654
▁huge	-9.14729
▁store	-9.14785
▁enter	-9.14898
▁Now	-9.14967
▁victor	-9.1503
▁Time	-9.15055
▁Hama	-9.15109
▁August	-9.15134
▁prison	-9.15158
▁track	-9.15247
▁spot	-9.1537
▁jury	-9.1565
▁compar	-9.15689
▁victim	-9.15757
▁similar	-9.15776
▁via	-9.15839
▁whole	-9.15956
W	-9.15961
▁popular	-9.1597
▁serve	-9.16034
▁check	-9.16193
▁nothing	-9.16391
▁quite	-9.16509
▁morning	-9.16596
▁assist	-9.16597
▁model	-9.16783
▁Olympic	-9.16805
▁utive	-9.16805
▁resident	-9.16806
▁card	-9.16855
1	-9.16903
▁character	-9.16911
▁defend	-9.17024
▁document	-9.17139
▁rath	-9.17205
▁East	-9.17345
▁picture	-9.17458
▁Day	-9.17469
▁Inter	-9.17473
▁shoot	-9.17595
▁bed	-9.17639
▁Instagram	-9.17658
▁crime	-9.1777
▁mile	-9.17828
▁firm	-9.1821
▁ett	-9.18312
▁manager	-9.18544
▁gold	-9.18586
▁sen	-9.18624
▁California	-9.18723
▁secret	-9.18727
▁drug	-9.18845
▁7	-9.18873
▁ger	-9.18902
▁program	-9.18935
▁ca	-9.1897
▁ler	-9.19366
▁&	-9.19389
▁11	-9.19521
▁Images	-9.20091
▁platform	-9.20132
▁civil	-9.20133
?"	-9.20148
▁white	-9.2016
▁accept	-9.20387
▁propo	-9.20467
▁Spa	-9.20583
▁evidence	-9.20678
▁champion	-9.20789
▁development	-9.20792
▁Department	-9.21119
▁super	-9.21128
▁oper	-9.21191
▁dom	-9.21335
▁ants	-9.21342
▁BBC	-9.21345
▁met	-9.21592
▁Air	-9.21623
▁review	-9.21688
▁Brit	-9.21838
▁usual	-9.21903
▁urge	-9.22003
▁drive	-9.22101
▁Not	-9.22245
▁pent	-9.22315
You	-9.22399
▁France	-9.22454
5	-9.22626
▁individual	-9.22672
▁Park	-9.22684
▁earn	-9.22696
▁rates	-9.22744
▁base	-9.22797
ten	-9.22875
mov	-9.22914
▁judge	-9.23016
▁responsi	-9.23178
▁caus	-9.23409
▁criminal	-9.23576
▁photo	-9.23579
▁publish	-9.2358
▁oil	-9.23738
▁wrong	-9.23801
▁fear	-9.23804
▁workers	-9.23816
▁uring	-9.23914
▁gave	-9.24153
▁Govern	-9.2437
▁Cup	-9.24433
▁2023	-9.24497
▁op	-9.24548
▁San	-9.24591
▁hreat	-9.24707
▁venue	-9.24707
▁sense	-9.24778
▁vari	-9.24835
▁Gar	-9.24908
▁heat	-9.25173
▁ious	-9.25174
▁2022	-9.25222
▁pair	-9.25286
▁camp	-9.25297
▁aging	-9.25398
▁affect	-9.25424
▁William	-9.25515
▁Per	-9.2562
▁read	-9.25783
▁amount	-9.25903
▁murder	-9.25976
▁Getty	-9.26022
time	-9.26065
▁ir	-9.26158
▁capital	-9.26207
▁actor	-9.2623
▁range	-9.26419
▁average	-9.2644
▁image	-9.26573
▁door	-9.2658
▁David	-9.26711
▁Red	-9.26733
▁cat	-9.26765
▁Car	-9.26769
▁depart	-9.26797
▁beat	-9.27029
>	-9.27113
▁heard	-9.27119
▁aim	-9.27143
▁rise	-9.27223
▁husband	-9.27264
▁Count	-9.27356
_	-9.27368
▁centre	-9.27391
▁Sen	-9.27467
▁fair	-9.27498
▁Pari	-9.2762
There	-9.27814
▁dependent	-9.2784
▁St	-9.27849
▁debate	-9.28078
▁bus	-9.28212
▁50	-9.28347
▁ner	-9.2836
ilit	-9.28367
▁foreign	-9.28556
▁exec	-9.28558
▁extra	-9.28595
▁build	-9.28656
pl	-9.28696
▁class	-9.28717
▁Angel	-9.28742
▁pool	-9.28907
▁8	-9.29267
il	-9.29305
▁growth	-9.29312
▁flight	-9.29398
▁touch	-9.29475
▁ium	-9.2951
▁entire	-9.29521
▁ford	-9.29584
▁aid	-9.29667
▁patient	-9.29745
▁vehicle	-9.29867
▁Prince	-9.29874
▁More	-9.30045
▁title	-9.30062
▁lock	-9.30471
▁block	-9.30537
O	-9.3054
▁rated	-9.30579
▁French	-9.3059
▁sea	-9.30595
▁link	-9.30755
▁6	-9.30758
▁easy	-9.31208
▁piece	-9.31211
▁kids	-9.314
▁ina	-9.31423
▁petition	-9.31439
E	-9.31441
▁Palestinian	-9.3147
▁H	-9.31493
▁activ	-9.31498
trateg	-9.31562
▁ble	-9.316
▁prevent	-9.31691
▁que	-9.31837
▁gone	-9.31849
▁discuss	-9.32055
▁measure	-9.32184
▁Un	-9.32276
▁thank	-9.32318
▁pur	-9.32331
▁War	-9.32354
▁ne	-9.32422
▁damage	-9.32425
▁weekend	-9.32435
▁sexual	-9.32551
▁hood	-9.32552
▁art	-9.3305
▁logy	-9.33169
▁river	-9.33293
▁Febru	-9.33415
▁eith	-9.33539
▁paper	-9.33542
▁score	-9.3363
▁fence	-9.33663
▁paid	-9.33681
▁thousand	-9.33792
▁street	-9.3392
▁structure	-9.33922
▁senior	-9.34165
▁sex	-9.34226
▁pending	-9.34291
▁described	-9.34293
▁station	-9.34293
▁sound	-9.34298
▁Office	-9.34421
▁lack	-9.34681
com	-9.34745
▁study	-9.34793
▁speech	-9.34797
▁counter	-9.34846
▁birth	-9.34921
▁terri	-9.34942
▁grand	-9.35202
▁cancer	-9.35302
▁medical	-9.35312
▁black	-9.35313
▁trust	-9.35438
▁environment	-9.35559
▁conduct	-9.35806
▁families	-9.3581
3	-9.35889
▁weight	-9.35918
▁clean	-9.35947
▁ve	-9.36033
▁rul	-9.36308
▁arrive	-9.36322
▁fac	-9.36344
▁ease	-9.36486
▁avoid	-9.36568
▁effect	-9.3685
▁acy	-9.36851
▁fil	-9.36909
▁ians	-9.37191
▁flation	-9.37224
▁exist	-9.37236
▁lin	-9.37307
bas	-9.37313
▁movie	-9.37485
Picture	-9.37613
▁ts	-9.37782
ri	-9.3785
▁Christmas	-9.37878
7	-9.37898
▁ten	-9.3798
▁nine	-9.38053
N	-9.38062
▁ted	-9.38192
isl	-9.3821
▁driv	-9.38214
▁fit	-9.38503
▁pen	-9.38701
▁By	-9.38702
▁exci	-9.38708
▁Hol	-9.38823
▁migrant	-9.39054
▁leav	-9.39084
▁clima	-9.39131
▁cha	-9.3918
▁crowd	-9.39188
▁net	-9.3921
▁promise	-9.39318
▁giving	-9.39319
▁Prime	-9.3932
▁screen	-9.39334
▁prim	-9.39416
▁complain	-9.39448
▁Party	-9.39585
▁100	-9.39665
▁Jack	-9.39859
▁farm	-9.39905
▁style	-9.39918
▁favour	-9.3999
▁Africa	-9.4006
▁song	-9.40077
▁answer	-9.40116
▁Jo	-9.40154
▁tribute	-9.40246
▁choice	-9.40255
▁14	-9.4039
▁quality	-9.40407
4	-9.40448
▁perfect	-9.40664
▁em	-9.40928
▁works	-9.4109
▁rating	-9.41185
▁appeal	-9.41185
▁shock	-9.41189
▁holiday	-9.4119
▁han	-9.41237
▁peace	-9.41461
▁chair	-9.4148
▁ris	-9.4159
▁Dur	-9.41623
▁Se	-9.41686
▁dec	-9.41879
▁rival	-9.41999
▁ill	-9.42064
▁bi	-9.42067
▁credit	-9.42135
▁comfort	-9.42138
▁Ukrainian	-9.42139
▁Le	-9.42254
▁truggle	-9.42267
▁drink	-9.42271
▁Sin	-9.42334
▁16	-9.42339
▁Del	-9.42341
▁chester	-9.42544
onflic	-9.42618
▁Game	-9.42689
▁regular	-9.42817
▁Di	-9.42833
▁Tom	-9.42921
▁agency	-9.42954
▁ba	-9.42954
▁teen	-9.42972
an	-9.42996
▁draw	-9.43034
▁lation	-9.43088
▁pull	-9.43096
▁ships	-9.43106
termin	-9.43133
▁gen	-9.43225
▁winn	-9.43226
▁Last	-9.43263
▁ney	-9.4328
If	-9.43509
▁tech	-9.43517
▁contract	-9.43517
8	-9.43575
▁Paul	-9.43647
▁skin	-9.43678
▁bo	-9.43699
round	-9.43809
▁stor	-9.439
▁voice	-9.43919
▁Chin	-9.43968
▁commit	-9.44057
▁double	-9.44064
▁practic	-9.44175
▁named	-9.44178
▁ign	-9.44209
▁Of	-9.44439
▁crisis	-9.44753
▁ticket	-9.45036
▁solution	-9.45308
▁progress	-9.45313
▁weapon	-9.45594
▁rain	-9.45646
▁trip	-9.4566
▁13	-9.45674
▁engage	-9.45739
▁gain	-9.45772
▁carry	-9.45878
▁fill	-9.45939
▁spread	-9.46014
▁dress	-9.46018
▁techno	-9.46033
▁express	-9.46042
rivat	-9.46244
▁Ho	-9.46347
▁loved	-9.46367
▁Mac	-9.46456
▁band	-9.46513
▁culture	-9.46584
▁pain	-9.4668
▁doctor	-9.46724
▁ned	-9.46902
▁nomin	-9.46971
T	-9.46973
▁stock	-9.46996
▁discover	-9.47021
▁aware	-9.47029
▁va	-9.47112
▁site	-9.47302
▁hot	-9.47311
▁award	-9.47439
▁hair	-9.47462
▁slow	-9.47496
▁Mean	-9.47588
▁sport	-9.47601
▁ee	-9.47684
timat	-9.47836
▁anim	-9.47846
▁hap	-9.47867
▁blood	-9.47877
▁os	-9.47964
▁Z	-9.48057
▁recover	-9.48276
▁type	-9.48302
▁mental	-9.48496
▁Green	-9.486
▁Smith	-9.48753
▁appearance	-9.4888
▁original	-9.48884
▁popul	-9.49016
▁repeat	-9.49028
▁contact	-9.49032
▁Michael	-9.49037
▁plant	-9.4907
pm	-9.49075
▁Ham	-9.49159
▁poor	-9.49184
▁content	-9.4932
▁ught	-9.49322
▁production	-9.49325
▁replace	-9.49359
▁har	-9.49475
▁sub	-9.49568
▁sleep	-9.49615
▁common	-9.49623
▁ality	-9.49757
▁green	-9.4977
▁mar	-9.49957
it	-9.50049
▁El	-9.50144
▁truck	-9.50201
▁par	-9.50342
▁battle	-9.5035
▁bag	-9.50357
articip	-9.50494
▁migration	-9.50498
▁posit	-9.50502
li	-9.50627
▁respect	-9.50693
6	-9.50718
▁standing	-9.50814
▁ily	-9.50869
▁Tex	-9.50884
▁suspect	-9.50939
B	-9.51054
▁establish	-9.51121
▁ran	-9.51214
▁wind	-9.51233
▁Street	-9.51236
solut	-9.51383
▁Champion	-9.51384
▁wall	-9.51529
▁kick	-9.51565
chedul	-9.51683
▁broad	-9.51684
be	-9.51738
▁clos	-9.5177
▁reme	-9.51833
▁wonder	-9.51841
▁surprise	-9.51986
▁secure	-9.51988
▁ances	-9.52207
▁maintain	-9.52287
▁brother	-9.52288
▁poke	-9.52297
▁soft	-9.52312
▁ming	-9.5232
spir	-9.52357
▁cast	-9.52443
▁ncy	-9.52735
▁Scottish	-9.52741
▁attention	-9.52743
▁letter	-9.52749
ure	-9.52818
▁Even	-9.52877
▁exac	-9.5289
▁pitch	-9.53047
▁sort	-9.53094
▁Pat	-9.53192
▁Nigeria	-9.53345
▁sentence	-9.53345
▁High	-9.53501
▁effective	-9.53508
▁cho	-9.53539
▁Korea	-9.53649
▁payment	-9.53656
▁Or	-9.53867
▁settle	-9.53956
▁natural	-9.53958
▁emotion	-9.53967
parat	-9.53989
D	-9.54007
▁professional	-9.54108
▁Chief	-9.54114
▁Th	-9.54132
▁winner	-9.54151
▁Mad	-9.54231
▁Sam	-9.54239
▁hotel	-9.54265
▁league	-9.54269
▁issu	-9.54415
▁standard	-9.54421
▁reflect	-9.54456
▁craft	-9.54566
▁hundred	-9.54572
▁Japan	-9.54573
▁warm	-9.54675
▁budget	-9.54729
▁ator	-9.54743
▁Pro	-9.54799
▁stream	-9.54882
▁fell	-9.54883
▁factor	-9.54913
▁trength	-9.55029
▁true	-9.55103
x	-9.55146
▁request	-9.55184
▁artist	-9.55194
▁education	-9.55343
▁north	-9.55361
▁40	-9.55398
G	-9.55436
9	-9.55459
▁ification	-9.55494
▁influence	-9.55498
▁sector	-9.555
▁built	-9.55663
▁rough	-9.55673
▁regard	-9.55715
▁ves	-9.55758
▁throw	-9.55819
▁justice	-9.55965
▁above	-9.56118
▁scar	-9.56251
▁25	-9.56282
▁conver	-9.56481
▁begin	-9.56592
▁website	-9.56745
▁conference	-9.56747
▁defeat	-9.56747
▁shire	-9.56748
▁Ja	-9.56902
▁consum	-9.56945
▁retire	-9.57259
▁du	-9.57281
But	-9.57287
▁camera	-9.57403
▁ency	-9.57535
▁central	-9.577
▁People	-9.57911
▁electric	-9.58019
▁Ed	-9.58113
▁physical	-9.58178
▁Char	-9.58187
▁Port	-9.58214
▁sports	-9.58222
▁Service	-9.58334
▁dream	-9.58496
▁carri	-9.58524
▁lied	-9.58544
▁2020	-9.58583
▁convict	-9.58819
▁Mos	-9.58916
▁weather	-9.58977
▁Secret	-9.58979
▁sight	-9.58983
▁MP	-9.5902
▁ka	-9.5905
▁gas	-9.59103
▁contain	-9.593
▁lawyer	-9.59458
▁abuse	-9.59461
ate	-9.59562
▁afford	-9.59782
partie	-9.59799
▁Bank	-9.59966
▁mon	-9.59978
▁da	-9.59998
▁prime	-9.60178
▁fix	-9.60278
▁pret	-9.60413
▁location	-9.60431
▁ti	-9.60466
▁Over	-9.6049
▁charged	-9.60506
▁ibility	-9.60595
K	-9.60786
am	-9.60812
un	-9.60818
▁stone	-9.60857
In	-9.60865
▁Robert	-9.6093
▁tough	-9.60992
▁active	-9.61014
ar	-9.61053
▁17	-9.61087
▁bling	-9.61251
▁Premier	-9.61253
▁introduc	-9.61254
▁First	-9.61294
▁specific	-9.61358
▁fun	-9.61653
▁Tor	-9.61697
▁Wo	-9.61732
▁makers	-9.61825
Speak	-9.61845
▁Act	-9.61966
▁2024.	-9.61971
▁council	-9.62244
▁tele	-9.62266
▁profit	-9.62269
▁der	-9.62332
!"	-9.62352
▁deni	-9.62376
▁normal	-9.62594
▁cy	-9.62698
▁tory	-9.62714
▁x	-9.62795
▁highlight	-9.62914
▁south	-9.62915
▁kept	-9.62916
▁Do	-9.62946
▁ny	-9.62973
▁explo	-9.63079
▁illegal	-9.63089
▁shift	-9.63101
▁Mark	-9.63305
▁generation	-9.63442
tatu	-9.6352
▁enger	-9.63586
▁EU	-9.63614
▁24	-9.63647
▁alone	-9.63678
▁poli	-9.63693
▁depend	-9.63777
appoint	-9.63814
▁trade	-9.63976
▁closed	-9.64076
▁Council	-9.64089
▁hou	-9.64113
▁essential	-9.64265
▁Putin	-9.64271
▁Ben	-9.64312
▁Ali	-9.64379
▁citizen	-9.64604
▁famous	-9.64606
▁guard	-9.64776
▁Fox	-9.6479
▁tion	-9.64802
▁assault	-9.64823
▁burn	-9.64954
▁From	-9.64978
▁Ky	-9.65053
▁Am	-9.65112
▁Florida	-9.65112
▁TikTok	-9.65114
▁baby	-9.65121
▁mix	-9.65289
▁historic	-9.65292
▁Two	-9.65301
▁fuel	-9.65302
▁roll	-9.65312
▁mate	-9.65315
▁rich	-9.65492
▁priorit	-9.65632
▁Du	-9.65636
▁Bri	-9.6579
▁annual	-9.658
▁memor	-9.658
▁connect	-9.65802
▁yard	-9.65833
▁version	-9.65971
▁iving	-9.66146
▁pa	-9.66206
▁demon	-9.66207
▁Georg	-9.66283
▁district	-9.66315
▁Sup	-9.66326
▁terror	-9.66348
▁Net	-9.66529
▁sustain	-9.6657
▁scored	-9.66634
▁ro	-9.66651
▁cies	-9.66686
ic	-9.66746
▁wild	-9.67028
▁cash	-9.67048
":	-9.67082
of	-9.67132
▁adult	-9.6715
▁storm	-9.67154
▁path	-9.67248
▁Bill	-9.67356
▁ify	-9.67438
▁9	-9.67443
That	-9.6763
▁restaurant	-9.67713
▁pack	-9.67743
▁Euro	-9.67887
▁network	-9.67895
▁remark	-9.67937
▁spend	-9.67939
Tayl	-9.68011
▁JP	-9.68077
▁rock	-9.68243
▁Thom	-9.68253
▁fine	-9.68352
▁apart	-9.68404
▁2022,	-9.68511
▁2024,	-9.68718
▁boss	-9.6878
▁Open	-9.68781
▁cow	-9.68817
▁Pet	-9.68864
▁lined	-9.68922
rem	-9.68947
▁fighting	-9.68962
F	-9.69026
▁sey	-9.69085
▁ha	-9.69102
▁welcome	-9.69129
▁Health	-9.69131
consist	-9.69144
▁quad	-9.69312
▁Martin	-9.69313
▁union	-9.69349
▁floor	-9.69496
▁born	-9.69499
▁predict	-9.69505
▁witness	-9.69662
▁ociety	-9.69662
▁ancing	-9.69664
▁lit	-9.69927
▁stress	-9.7002
▁Royal	-9.70028
▁poss	-9.70043
▁Super	-9.70045
▁wish	-9.70046
▁placed	-9.70152
▁ac	-9.70202
Getty	-9.70301
▁ators	-9.70365
▁island	-9.7042
▁inj	-9.70599
▁ter	-9.70664
▁audience	-9.70742
▁organization	-9.70922
▁advance	-9.70927
▁boost	-9.70931
▁guilt	-9.71104
▁Will	-9.71147
term	-9.71223
▁tra	-9.71236
▁missile	-9.71288
▁dai	-9.71292
▁defense	-9.713
▁delay	-9.71485
▁mach	-9.71494
▁Here	-9.71604
▁temper	-9.71659
▁gender	-9.71663
▁mer	-9.71692
▁Georgi	-9.71697
▁row	-9.71739
▁ongo	-9.71763
▁elected	-9.71851
en	-9.71916
v	-9.71927
▁Ne	-9.7197
▁batter	-9.7203
urviv	-9.72199
▁elling	-9.72202
▁pleas	-9.72241
▁unit	-9.72276
▁contest	-9.7239
▁lies	-9.7254
▁journey	-9.72567
▁Bo	-9.72595
▁Apple	-9.72597
▁text	-9.72603
▁ak	-9.72619
▁crash	-9.72944
▁middle	-9.72948
▁fly	-9.72951
▁2023,	-9.7297
▁ning	-9.73035
20	-9.73095
▁abort	-9.73146
▁recall	-9.73402
▁Hill	-9.73426
▁dem	-9.7344
▁village	-9.73496
▁facing	-9.73509
▁UN	-9.73566
▁juries	-9.7368
▁dance	-9.73685
▁Ry	-9.73759
▁attract	-9.73802
▁sell	-9.73874
▁attorney	-9.74054
▁recommend	-9.74112
▁Don	-9.74287
▁para	-9.74357
▁angerous	-9.74428
▁inner	-9.74509
▁Ad	-9.74569
▁advise	-9.74814
▁plann	-9.7487
▁fresh	-9.75004
▁episode	-9.75022
▁auto	-9.75028
▁rative	-9.75182
▁NH	-9.75198
▁lay	-9.75286
▁Star	-9.75438
▁display	-9.75577
▁2016	-9.75683
▁hop	-9.75749
▁univers	-9.75778
P	-9.75782
▁21	-9.75798
▁center	-9.75898
▁straight	-9.75946
▁update	-9.75947
▁harm	-9.7596
▁Sch	-9.76015
▁lift	-9.76139
▁rank	-9.76227
▁threa	-9.76254
▁ave	-9.76356
▁anger	-9.76383
▁insist	-9.76518
▁doubt	-9.76522
▁English	-9.76523
▁bum	-9.76539
▁Form	-9.76555
no	-9.76564
▁prosecutor	-9.76707
▁writer	-9.76739
▁cus	-9.76855
▁19	-9.76906
▁traditional	-9.76913
tual	-9.77201
▁bey	-9.77253
▁difference	-9.77285
▁journalist	-9.77288
▁import	-9.77292
▁Carol	-9.77293
▁Amazon	-9.77293
▁Union	-9.77483
▁nel	-9.7761
▁ncies	-9.77672
▁Wale	-9.77738
▁page	-9.77862
▁stood	-9.77868
▁holding	-9.77875
▁Ex	-9.78018
▁spective	-9.78062
▁pandemic	-9.78084
▁construct	-9.78098
co	-9.78181
▁Island	-9.78257
▁ites	-9.78266
▁tree	-9.78267
▁bomb	-9.78269
▁scape	-9.78452
▁favor	-9.78452
▁Mer	-9.78455
▁writing	-9.78457
▁parliament	-9.7865
▁Post	-9.78666
▁debut	-9.78685
▁Jer	-9.7877
▁beach	-9.78795
▁balance	-9.78852
▁Bay	-9.78861
▁2021	-9.7894
▁bid	-9.78945
▁min	-9.79014
▁married	-9.79041
▁priv	-9.79068
▁Jan	-9.79163
▁debt	-9.79178
▁izing	-9.79435
▁tournament	-9.79436
▁ada	-9.79448
▁dish	-9.79502
▁rent	-9.79566
▁Mel	-9.79611
▁ending	-9.7968
▁aries	-9.7983
▁topped	-9.79833
▁Kamala	-9.7984
▁agent	-9.79843
▁cool	-9.79851
▁pop	-9.79888
▁tip	-9.79903
▁Nor	-9.79924
▁plane	-9.79935
▁ey	-9.80036
sum	-9.80047
tens	-9.80209
▁flood	-9.80229
▁cook	-9.80447
▁enforce	-9.80449
▁email	-9.80461
▁CE	-9.8059
▁drone	-9.80629
▁cheme	-9.80629
▁restrict	-9.80632
▁loan	-9.80635
hoos	-9.80638
▁declare	-9.8086
▁college	-9.81028
▁encourage	-9.81028
▁dark	-9.81112
▁connection	-9.8143
nov	-9.81587
▁era	-9.81597
0	-9.81604
▁subject	-9.81633
▁rep	-9.81695
And	-9.81805
▁Sta	-9.81985
▁write	-9.82011
▁jump	-9.82242
▁nice	-9.82261
▁Sir	-9.82266
▁occasion	-9.82448
▁cream	-9.82456
▁circu	-9.82789
▁cloth	-9.82849
▁Gold	-9.82896
What	-9.82999
▁Jones	-9.83068
▁organ	-9.83177
▁char	-9.83178
▁Nation	-9.8324
▁General	-9.83287
▁Go	-9.83307
▁van	-9.83423
▁Lu	-9.83426
▁coast	-9.83456
▁smart	-9.83677
▁Khan	-9.8371
▁committed	-9.83885
▁expand	-9.83886
trem	-9.84182
▁wave	-9.84192
le	-9.84242
▁occur	-9.84292
▁window	-9.84293
▁female	-9.84295
▁mini	-9.84432
▁rity	-9.84497
▁Cent	-9.84633
▁cur	-9.84699
▁stated	-9.84739
▁gar	-9.84804
▁Commission	-9.84912
▁allies	-9.84918
▁Home	-9.84921
▁Pakistan	-9.84922
▁haven	-9.84954
My	-9.85092
▁die	-9.8512
▁spect	-9.85129
▁impress	-9.85152
▁Sea	-9.85291
▁strict	-9.85334
▁reject	-9.85404
▁ell	-9.85427
▁eek	-9.85655
▁istic	-9.85735
▁Li	-9.85745
▁extend	-9.85791
off	-9.85862
▁jail	-9.85968
de	-9.8615
▁material	-9.86171
▁boat	-9.86202
▁dad	-9.86209
▁cit	-9.86212
▁west	-9.86257
▁admitted	-9.86384
▁Wal	-9.86539
▁ferred	-9.86595
▁gather	-9.86598
▁cultural	-9.86607
▁ana	-9.86755
R	-9.8678
▁ocracy	-9.86807
▁blue	-9.86827
▁hern	-9.87075
▁ballot	-9.87238
▁traffic	-9.87255
day	-9.87292
▁putt	-9.87303
▁coll	-9.87362
AP	-9.87381
▁logical	-9.87449
▁ique	-9.87455
▁Wa	-9.87507
▁Daniel	-9.87666
▁Ab	-9.8769
▁ically	-9.87876
▁brief	-9.87877
▁Mike	-9.87896
quir	-9.88082
et	-9.8809
▁colleague	-9.8809
▁speed	-9.88123
▁comb	-9.88161
▁stick	-9.88325
back	-9.88482
▁sister	-9.88526
▁achieve	-9.88561
▁skill	-9.8858
▁Bel	-9.88618
▁Cam	-9.88759
▁user	-9.88779
▁tle	-9.88903
▁ginning	-9.88955
▁trend	-9.88959
▁proud	-9.88967
▁brain	-9.88993
▁ple	-9.89021
▁Most	-9.89055
▁raise	-9.89167
▁Group	-9.89176
▁gate	-9.89218
&	-9.89308
▁bowl	-9.89623
▁Den	-9.89841
▁kin	-9.89923
w	-9.89997
▁ultimate	-9.90047
▁fish	-9.90048
▁supply	-9.90065
▁ester	-9.90085
ner	-9.90137
▁Law	-9.9023
▁Arm	-9.90266
▁print	-9.90284
▁Test	-9.90287
▁winter	-9.90292
▁Dan	-9.90295
▁ang	-9.90416
▁School	-9.90491
▁trail	-9.90498
▁Hall	-9.90591
▁garden	-9.90712
▁modern	-9.90723
▁fee	-9.90723
▁mine	-9.90785
efinite	-9.90826
maz	-9.9092
▁Hou	-9.90945
▁article	-9.90967
▁ged	-9.91035
▁2023.	-9.9108
▁cold	-9.91088
▁ization	-9.91373
▁ception	-9.91373
▁intelligence	-9.91379
▁listen	-9.91399
▁tool	-9.91491
▁God	-9.91514
▁infra	-9.916
▁ur	-9.91665
M	-9.917
▁ility	-9.91819
▁Play	-9.91848
▁paint	-9.91951
▁wan	-9.91985
▁ress	-9.92045
▁confide	-9.92056
▁nor	-9.92133
▁pension	-9.92266
▁wealth	-9.9227
▁language	-9.92288
▁resource	-9.92308
▁grant	-9.92322
▁sur	-9.92348
▁Q	-9.92374
▁committee	-9.92493
▁stuff	-9.92531
Elect	-9.92721
▁aged	-9.93078
▁ston	-9.93092
▁22	-9.93153
▁cities	-9.93168
▁Musk	-9.93177
quip	-9.93326
▁Ra	-9.93333
▁med	-9.93336
▁talent	-9.93396
▁Photograph	-9.93397
▁prose	-9.93407
So	-9.93408
▁Pra	-9.93408
▁Vic	-9.93503
▁Pri	-9.93522
ul	-9.93568
▁sav	-9.9361
▁typical	-9.93626
▁flag	-9.93629
▁inform	-9.93705
▁ense	-9.9385
▁tee	-9.93865
▁guide	-9.93881
▁survey	-9.93922
▁semi	-9.94049
▁hall	-9.94065
▁bridge	-9.94082
▁ried	-9.94102
▁luck	-9.94104
cruci	-9.94161
▁Shar	-9.94211
▁necessary	-9.9431
▁degree	-9.94362
▁2019	-9.94548
▁Queen	-9.94557
▁Wil	-9.94581
▁fare	-9.94644
▁institut	-9.94767
▁feet	-9.94915
▁divers	-9.94938
tern	-9.94968
▁horr	-9.9502
▁maybe	-9.95055
▁trad	-9.95081
▁Kate	-9.95094
▁African	-9.95112
▁dry	-9.95144
▁collect	-9.9523
▁purchase	-9.95231
▁equal	-9.95234
▁Chelsea	-9.95235
▁Arab	-9.95241
▁Po	-9.95241
▁Both	-9.95279
▁2022.	-9.95457
anufactur	-9.95459
▁programme	-9.95465
▁route	-9.95466
▁ya	-9.95511
▁berg	-9.95552
▁ron	-9.95638
▁corner	-9.95699
▁retail	-9.95763
▁vi	-9.95816
▁transport	-9.95925
▁prompt	-9.95928
press	-9.96119
▁Modi	-9.96167
▁Lat	-9.96168
▁esh	-9.96374
▁llah	-9.96392
▁soldier	-9.96394
▁expos	-9.96399
▁Art	-9.96403
▁Adam	-9.96413
▁colour	-9.96414
▁Mary	-9.9645
▁Arsenal	-9.96633
▁Pre	-9.96645
▁Ku	-9.96713
▁teacher	-9.96873
▁Fin	-9.96992
▁ware	-9.97069
▁Starmer	-9.97099
▁--	-9.97129
▁Liver	-9.97134
▁60	-9.9718
▁Why	-9.97181
▁Ita	-9.97333
▁Netanyah	-9.97334
▁burgh	-9.97337
She	-9.97453
ever	-9.97537
▁organisation	-9.97567
▁register	-9.97576
wa	-9.97771
▁Jew	-9.9779
▁credible	-9.97808
▁complex	-9.97813
▁domestic	-9.97837
▁rick	-9.97839
▁lash	-9.97844
▁associate	-9.98049
▁nuclear	-9.98049
▁planned	-9.98051
▁dismiss	-9.98054
▁fashion	-9.9807
▁Scott	-9.98131
▁Bal	-9.98173
▁Men	-9.98192
+	-9.98484
▁Chicago	-9.98526
▁laugh	-9.98537
▁minor	-9.98544
struct	-9.98596
▁Ste	-9.98643
▁flow	-9.98758
▁code	-9.98804
abo	-9.98967
▁eth	-9.98969
▁Ram	-9.99015
▁troop	-9.99224
▁plenty	-9.99238
▁commission	-9.99242
▁odd	-9.99256
▁Mari	-9.99321
▁broke	-9.99395
▁giant	-9.99479
▁Francis	-9.99481
▁fortunate	-9.99481
▁blame	-9.99483
▁dollar	-9.99514
▁isation	-9.9974
▁keeping	-9.99741
▁zone	-9.99741
▁mum	-9.99782
▁guest	-9.99969
▁written	-9.99977
▁Clark	-9.99978
▁note	-10.0003
▁Big	-10.0011
▁ado	-10.0015
▁digital	-10.0021
▁Grand	-10.0023
▁Kar	-10.0035
ver	-10.0044
▁Cel	-10.0047
▁destroy	-10.0048
▁ja	-10.0059
▁implement	-10.007
▁crew	-10.007
▁Richard	-10.007
▁royal	-10.0071
▁Ver	-10.0072
▁medal	-10.0072
▁lan	-10.0085
▁fellow	-10.0094
▁object	-10.0095
▁chain	-10.0101
▁li	-10.0108
▁Is	-10.0116
▁sitting	-10.0119
▁ville	-10.0119
▁rose	-10.012
▁ery	-10.0125
▁é	-10.0125
▁prom	-10.0139
▁honest	-10.0143
▁gift	-10.0144
▁Bor	-10.0162
▁cycle	-10.0168
▁cancel	-10.0168
▁disappoint	-10.0175
▁Google	-10.0193
▁catch	-10.0194
▁conservative	-10.0194
▁Face	-10.0195
▁Mi	-10.0199
▁twi	-10.0211
▁governor	-10.0211
▁neighbor	-10.0217
▁udden	-10.0217
▁correct	-10.0218
▁transform	-10.0218
▁coal	-10.023
▁assess	-10.0231
▁Bar	-10.0237
▁En	-10.024
j	-10.025
one	-10.0256
▁Press	-10.027
▁AP	-10.0271
▁emb	-10.0272
▁broken	-10.0274
▁ren	-10.028
▁encing	-10.0291
▁Syria	-10.0292
▁scribe	-10.0299
▁tter	-10.03
▁ju	-10.0303
▁remind	-10.0303
▁Up	-10.0311
▁itude	-10.0317
▁Louis	-10.0317
▁sand	-10.0317
▁bound	-10.0319
▁related	-10.0331
▁Western	-10.0343
▁id	-10.0353
No	-10.0361
▁Far	-10.0364
▁Love	-10.0364
▁lived	-10.0366
▁pensive	-10.0367
▁lative	-10.0367
▁afternoon	-10.0392
wedd	-10.0394
▁wag	-10.0396
▁reform	-10.0412
▁Lake	-10.0418
▁capture	-10.0418
▁Brown	-10.0418
▁ach	-10.0431
▁upon	-10.0438
▁Victor	-10.0443
▁rator	-10.0443
▁Sky	-10.0444
▁23	-10.0449
▁ition	-10.0464
▁2017	-10.0467
▁broadcast	-10.0468
▁gent	-10.0484
▁opponent	-10.0493
▁tend	-10.0495
▁activity	-10.0519
▁joke	-10.0519
▁Tim	-10.0522
▁Sara	-10.0537
▁Twi	-10.054
▁ordin	-10.054
▁Seat	-10.0541
▁photograph	-10.0544
▁wise	-10.0551
▁ard	-10.0551
▁marriage	-10.057
▁ction	-10.057
▁fur	-10.0577
▁cre	-10.0581
▁rescue	-10.0596
▁Middle	-10.0597
▁Ash	-10.0616
▁ul	-10.0619
▁itarian	-10.0622
▁tance	-10.0622
▁adopt	-10.0628
▁cas	-10.0639
▁vers	-10.0643
▁athlete	-10.0648
▁blow	-10.0649
▁Kim	-10.0655
▁Che	-10.066
auti	-10.0663
▁rush	-10.0675
▁Mexico	-10.0676
▁century	-10.0681
▁captain	-10.0701
▁fif	-10.0702
▁Ag	-10.0723
▁Miss	-10.0725
▁pirit	-10.0725
▁ral	-10.0748
▁ivity	-10.0751
▁trouble	-10.0752
strong	-10.0752
▁Christian	-10.0752
▁pan	-10.0767
▁soci	-10.0772
▁render	-10.0776
▁finance	-10.0778
▁opinion	-10.0778
▁intend	-10.0778
▁Earl	-10.0779
▁Under	-10.0783
Thank	-10.079
▁ones	-10.0799
▁Out	-10.0801
▁cheap	-10.0804
▁Direct	-10.0804
▁mistake	-10.0805
▁mouth	-10.0806
▁hole	-10.0809
▁Sports	-10.0822
▁ager	-10.0833
▁transfer	-10.0857
▁split	-10.0857
▁Blue	-10.0858
▁Hunt	-10.0859
▁Singh	-10.0883
▁sequence	-10.0883
▁Commit	-10.0883
▁River	-10.0883
▁hurt	-10.0884
▁Swift	-10.0884
range	-10.0885
▁asset	-10.0887
▁Hav	-10.089
▁Chris	-10.0894
▁maker	-10.0894
▁Su	-10.0906
▁frame	-10.091
▁Ro	-10.0911
▁truth	-10.0913
▁Mill	-10.0914
▁consult	-10.0914
▁PM	-10.0915
OR	-10.092
▁Pen	-10.0927
▁Bru	-10.0932
▁advantage	-10.0936
ollaps	-10.0948
▁profess	-10.0963
▁NBC	-10.0963
out	-10.0964
▁ns	-10.0971
▁Mur	-10.0972
▁collection	-10.099
advoc	-10.1016
▁fin	-10.1017
▁load	-10.1019
▁Great	-10.1021
▁festival	-10.1043
▁acknowledge	-10.1043
▁shape	-10.1047
▁diploma	-10.1049
▁Well	-10.1068
▁tension	-10.107
▁­	-10.1074
▁Like	-10.1074
▁male	-10.1076
▁cell	-10.1078
▁ibly	-10.1097
▁drama	-10.1098
▁Van	-10.1108
▁Swe	-10.1108
▁Cha	-10.1118
▁Institut	-10.1125
▁locate	-10.1125
▁Kei	-10.1125
▁Lebanon	-10.1152
▁breath	-10.1152
▁purpose	-10.1152
▁neighbour	-10.1153
▁offensive	-10.1153
▁ig	-10.1155
▁prospect	-10.118
▁nar	-10.1201
▁2021,	-10.1206
▁spring	-10.1207
▁vent	-10.1225
▁crack	-10.1233
▁Italian	-10.1234
▁task	-10.1235
bn	-10.1242
▁ette	-10.1251
▁promote	-10.1262
▁capaci	-10.1263
▁willing	-10.1274
▁flix	-10.1289
▁approve	-10.129
▁chat	-10.1291
▁@	-10.1295
▁iv	-10.1309
▁surgery	-10.1316
▁flat	-10.1319
▁fused	-10.1321
▁infect	-10.1323
sh	-10.1343
▁bear	-10.1344
▁invite	-10.1344
▁tru	-10.1345
ccin	-10.1347
▁regional	-10.135
▁breaking	-10.1352
L	-10.1361
▁motor	-10.1372
type	-10.1373
▁cricket	-10.14
▁apolog	-10.14
▁wing	-10.1412
▁surface	-10.1428
▁fraud	-10.1428
▁compete	-10.1428
▁ari	-10.1435
▁Pa	-10.1443
▁veteran	-10.1455
▁transition	-10.1456
▁knock	-10.1456
▁lux	-10.1456
▁Mail	-10.1457
▁hang	-10.1464
▁appli	-10.1479
▁suppose	-10.1483
▁communication	-10.1484
▁direction	-10.1484
▁Alex	-10.1485
million	-10.1486
▁Glas	-10.1489
▁scale	-10.1497
▁/	-10.1504
▁Fi	-10.1508
▁Bur	-10.1511
▁vul	-10.1519
▁Colle	-10.1539
▁ceremony	-10.154
▁master	-10.1541
▁neg	-10.1543
▁sold	-10.156
▁grew	-10.1568
page	-10.1572
▁Chan	-10.1589
▁rations	-10.1592
▁truggling	-10.1597
▁stretch	-10.1597
▁meal	-10.1604
▁confident	-10.1626
▁ez	-10.1626
▁Good	-10.1628
▁ji	-10.1642
▁cease	-10.1644
▁shut	-10.1651
▁hree	-10.1654
▁Gov	-10.1655
▁Atla	-10.1661
▁bert	-10.1663
▁Fan	-10.1664
▁Gra	-10.1677
▁PS	-10.1678
▁200	-10.1682
▁clip	-10.1682
▁affair	-10.1683
▁youth	-10.1685
▁Com	-10.1687
▁2025	-10.1691
▁bench	-10.1694
▁feed	-10.1697
▁Kat	-10.1702
▁Social	-10.1712
▁elector	-10.1713
▁Jim	-10.1714
▁Dai	-10.1716
▁behaviour	-10.174
▁presence	-10.174
▁podcast	-10.174
▁monitor	-10.174
▁swim	-10.174
▁handle	-10.1744
▁erty	-10.1748
▁Lee	-10.1754
▁switch	-10.1764
ra	-10.1765
▁stances	-10.1769
▁accident	-10.1769
▁ging	-10.1771
▁ambit	-10.1779
▁ung	-10.1789
▁suppl	-10.1797
▁cientist	-10.1798
▁reading	-10.1798
▁tight	-10.1799
▁medic	-10.1799
▁resign	-10.1802
▁bath	-10.1807
▁FA	-10.1813
▁jo	-10.1817
▁frust	-10.1827
▁Cor	-10.1834
▁eas	-10.1854
▁church	-10.1856
▁Road	-10.1856
▁Brazil	-10.1856
▁tackle	-10.1856
▁Team	-10.1858
▁Carl	-10.1862
▁tear	-10.1863
▁inn	-10.1879
▁exercise	-10.1885
▁Central	-10.1886
▁negoti	-10.1887
▁joint	-10.1889
▁analyst	-10.1893
long	-10.1904
▁indicate	-10.1915
▁lief	-10.1916
▁notice	-10.192
▁flu	-10.1938
▁insurance	-10.1944
▁entertain	-10.1944
▁Irish	-10.1944
▁Year	-10.1946
▁length	-10.1947
▁Who	-10.1949
▁Us	-10.1959
el	-10.1971
▁len	-10.1972
▁ap	-10.1978
▁esca	-10.1987
▁CO	-10.1989
▁28	-10.1994
▁io	-10.1998
▁channel	-10.2003
▁Max	-10.2004
▁panel	-10.2004
▁Live	-10.2011
U	-10.2015
▁regulation	-10.2033
▁Wood	-10.2033
▁appropriate	-10.2034
▁exp	-10.2035
uk	-10.2059
▁worry	-10.2063
▁Judge	-10.2063
▁constant	-10.2064
▁novel	-10.2067
▁bull	-10.2067
▁ino	-10.2089
▁bodies	-10.2092
▁command	-10.2093
▁neck	-10.2094
▁Islam	-10.2095
▁Dar	-10.2098
▁fer	-10.2099
▁Best	-10.2102
▁reaction	-10.2102
▁mann	-10.2105
▁ST	-10.211
▁emporary	-10.2122
▁imagine	-10.2122
▁NFL	-10.2123
▁Sha	-10.2124
ollow	-10.2135
▁onic	-10.215
▁horse	-10.2153
▁ITV	-10.2159
id	-10.2169
▁Josh	-10.2184
▁Free	-10.2187
desti	-10.2188
▁Trans	-10.219
▁gang	-10.2197
▁suspend	-10.22
▁ami	-10.2201
▁bottle	-10.2213
▁legend	-10.2214
▁sweet	-10.2243
▁bottom	-10.2244
egor	-10.2244
form	-10.2244
-19	-10.2245
▁Ten	-10.2248
▁rail	-10.2251
▁Let	-10.2257
▁80	-10.2266
▁Ye	-10.2271
▁abilities	-10.2273
▁root	-10.2275
▁Force	-10.2275
▁joy	-10.2276
▁trap	-10.2281
▁hat	-10.2282
▁wound	-10.2305
▁ural	-10.2307
▁fold	-10.2321
ze	-10.2325
▁clusion	-10.2334
▁forecast	-10.2334
right	-10.2339
▁eat	-10.2341
▁solid	-10.2341
▁26	-10.236
▁sha	-10.2362
▁Mo	-10.2362
▁gow	-10.2369
▁label	-10.2372
▁Read	-10.2373
▁Boe	-10.2391
▁BI	-10.2412
▁Meg	-10.2422
▁clash	-10.2427
▁classic	-10.2429
▁fake	-10.2429
▁Je	-10.2432
▁Me	-10.2436
▁Gen	-10.2445
▁studi	-10.2454
▁easily	-10.2458
▁prize	-10.2458
▁proceed	-10.2458
false	-10.2463
▁hate	-10.2468
▁nish	-10.2484
▁conclude	-10.249
▁waste	-10.249
he	-10.2492
ut	-10.2507
ci	-10.2509
nvest	-10.2517
▁deploy	-10.252
▁praise	-10.252
▁withdraw	-10.2522
▁27	-10.2528
ch	-10.2531
▁Tour	-10.2543
▁false	-10.2547
▁pet	-10.2548
▁ical	-10.2549
▁cious	-10.2551
▁draft	-10.2552
▁violent	-10.2554
▁trick	-10.2556
▁pound	-10.2556
▁ray	-10.2556
▁bond	-10.2557
▁chip	-10.2558
▁solve	-10.256
do	-10.2581
▁Arizona	-10.2583
▁Ala	-10.2592
▁Bos	-10.2611
▁bonus	-10.2614
▁90	-10.2636
Re	-10.264
▁Kha	-10.2641
▁Min	-10.2641
▁Kel	-10.2645
▁Element	-10.2645
▁Pennsylvania	-10.2646
▁trigger	-10.2646
▁sky	-10.2648
▁beauty	-10.2678
final	-10.2683
▁tir	-10.2691
▁70	-10.27
▁Sand	-10.2701
for	-10.2702
▁commercial	-10.2709
▁Real	-10.2711
▁Work	-10.2711
▁adapt	-10.2719
▁mates	-10.272
▁routine	-10.2741
▁section	-10.2743
▁sharp	-10.2743
▁detect	-10.2744
▁McC	-10.2754
▁reli	-10.2755
la	-10.2763
uch	-10.2764
▁pledge	-10.2773
▁assum	-10.2776
▁Right	-10.2776
▁Mil	-10.2787
▁wake	-10.2795
▁divid	-10.2805
▁frequent	-10.2805
▁Lord	-10.2809
▁vast	-10.2812
▁refer	-10.2815
▁fam	-10.2822
▁shots	-10.2825
▁renew	-10.2827
▁integ	-10.2831
▁bright	-10.284
▁intention	-10.2846
▁wer	-10.285
▁achiev	-10.2853
▁yan	-10.2857
▁lie	-10.286
▁Met	-10.2867
▁alysis	-10.2869
▁method	-10.2869
▁northern	-10.2869
▁guarantee	-10.2869
te	-10.2872
▁Jay	-10.288
▁bio	-10.2882
▁Frank	-10.2905
▁gap	-10.2906
▁arti	-10.2912
▁Federal	-10.2934
▁Parliament	-10.2934
▁admit	-10.2935
▁alcohol	-10.2935
▁Tur	-10.294
▁elect	-10.2945
▁Sab	-10.2955
▁Jr	-10.2962
▁Michigan	-10.2967
▁Brad	-10.2973
Kenned	-10.2975
▁manda	-10.2976
▁PA	-10.2978
</	-10.3002
▁Dun	-10.3023
ise	-10.303
▁ures	-10.3033
▁ko	-10.3036
▁plus	-10.3037
▁Yo	-10.3041
▁po	-10.3043
▁verse	-10.3044
▁def	-10.3054
▁<	-10.3063
▁client	-10.3065
▁technic	-10.3065
▁strange	-10.3074
▁invasion	-10.3098
▁mobile	-10.3102
▁tens	-10.3107
esir	-10.311
▁signal	-10.3112
eput	-10.3125
▁pin	-10.3129
oph	-10.3134
▁Matt	-10.3141
▁Barr	-10.3142
▁dict	-10.3152
▁ology	-10.3164
▁oppose	-10.3164
▁ledge	-10.3166
▁Simon	-10.3166
▁29	-10.3186
▁hir	-10.3188
▁cri	-10.3196
▁identify	-10.3198
▁quiet	-10.3199
model	-10.3205
▁Fore	-10.321
▁NC	-10.321
▁sus	-10.321
we	-10.3213
empt	-10.3222
▁2020,	-10.3227
▁wel	-10.3239
▁Sw	-10.3245
▁Sal	-10.3247
▁helter	-10.3265
▁notes	-10.3265
▁kitchen	-10.3265
▁closure	-10.3266
▁cade	-10.3267
▁Also	-10.3267
▁indic	-10.3278
▁ci	-10.3278
▁ki	-10.3285
▁2014	-10.3295
rd	-10.3295
▁racing	-10.3298
▁prefer	-10.3299
▁Nick	-10.33
ad	-10.3306
▁Christ	-10.3316
▁MA	-10.3329
▁dam	-10.333
fghan	-10.3332
▁igate	-10.3333
▁grab	-10.3335
▁ison	-10.3342
▁prove	-10.3355
▁recognise	-10.3366
▁Jeff	-10.3367
▁fighter	-10.3371
▁vil	-10.3382
▁Col	-10.3383
▁advert	-10.3384
▁lating	-10.34
▁sanction	-10.34
▁atory	-10.3404
▁recruit	-10.3405
▁changing	-10.3406
▁gram	-10.3406
▁ingham	-10.3421
▁Pan	-10.3422
▁coffee	-10.3434
▁Egypt	-10.3434
▁Disney	-10.3435
▁CBS	-10.3438
▁pub	-10.3438
▁$1	-10.3438
▁kid	-10.3442
▁ski	-10.3447
▁Dia	-10.3465
▁mountain	-10.3468
▁tries	-10.3469
▁brilliant	-10.3469
▁install	-10.347
For	-10.3471
▁color	-10.3472
▁snow	-10.3491
▁mi	-10.35
▁Club	-10.3503
▁Vega	-10.3503
▁science	-10.3503
▁tuck	-10.3506
▁Photo	-10.3511
▁Wall	-10.3515
▁Pad	-10.3525
▁wine	-10.3528
▁virus	-10.3537
▁assassin	-10.3537
▁spoken	-10.3558
▁Bas	-10.3572
▁Guard	-10.3572
▁holders	-10.3572
▁Watch	-10.3573
▁Long	-10.3574
▁enhance	-10.3577
▁Moha	-10.3578
▁Mal	-10.358
like	-10.3581
▁Hen	-10.3582
ub	-10.359
run	-10.3595
▁Guardian	-10.3606
▁fruit	-10.3607
▁NBA	-10.3607
▁endorse	-10.3608
▁Show	-10.3609
▁Medic	-10.361
▁q	-10.361
▁swing	-10.3612
ddi	-10.3618
▁belong	-10.3619
Dub	-10.3638
▁Mun	-10.364
▁excel	-10.3642
Be	-10.3662
▁IP	-10.3674
▁ancy	-10.3676
▁familiar	-10.3676
▁honor	-10.3676
▁confront	-10.3677
▁qual	-10.3677
dot	-10.3678
▁Muslim	-10.3679
▁upset	-10.368
▁Lan	-10.3681
▁Rep	-10.369
▁lean	-10.3696
▁ches	-10.37
▁const	-10.3709
▁feat	-10.3711
▁residency	-10.3711
▁Hospital	-10.3712
▁clinic	-10.3712
▁dramatic	-10.3712
▁ica	-10.3717
▁elig	-10.3717
▁Back	-10.3734
▁ifying	-10.3747
rate	-10.3748
▁tur	-10.3749
▁Four	-10.3751
▁Ty	-10.3752
▁FC	-10.3766
▁Are	-10.3769
▁Ass	-10.3778
▁Phone	-10.3782
▁Sydney	-10.3782
▁NAT	-10.3783
▁competitive	-10.3783
Kev	-10.3784
volv	-10.3788
minute	-10.3791
▁MS	-10.3799
▁illa	-10.3809
▁potted	-10.3817
▁refuge	-10.3818
▁Emma	-10.3818
▁za	-10.3819
▁gam	-10.3828
▁grown	-10.3845
▁forget	-10.3847
▁mount	-10.3855
10	-10.3857
▁cor	-10.3858
free	-10.3862
▁tz	-10.3877
▁core	-10.3878
▁RT	-10.3882
▁desperate	-10.3889
▁Rafa	-10.389
call	-10.3911
▁YouTube	-10.3925
▁Foun	-10.3925
▁Little	-10.3926
▁kar	-10.3927
▁distance	-10.3927
▁peak	-10.3928
▁Ran	-10.3931
▁boot	-10.3941
▁Tai	-10.396
▁Tri	-10.3962
▁Still	-10.3962
▁weak	-10.3966
nd	-10.3971
▁forest	-10.3973
▁hid	-10.3977
▁Cal	-10.3978
▁labor	-10.3997
▁Earth	-10.3999
▁wicket	-10.4001
power	-10.4007
▁Han	-10.4015
axim	-10.402
▁thrill	-10.4033
▁viral	-10.4034
▁scoring	-10.4035
▁Child	-10.4035
▁generate	-10.4037
▁Look	-10.4042
element	-10.4043
▁2019,	-10.4043
▁keeper	-10.4043
▁CN	-10.4046
▁element	-10.4059
▁#	-10.4063
▁Davi	-10.4065
▁formal	-10.4066
▁Associate	-10.407
▁possess	-10.407
▁pace	-10.4072
pecu	-10.4081
▁folk	-10.4106
▁climb	-10.4106
▁Saudi	-10.4106
▁Space	-10.4107
▁castle	-10.4107
▁teach	-10.4109
ol	-10.4114
▁chi	-10.4131
▁GOP	-10.4143
▁vital	-10.4147
▁chel	-10.4149
▁2018	-10.4174
▁egg	-10.4178
▁function	-10.4178
▁package	-10.4179
▁Lead	-10.4181
▁istan	-10.4186
▁abandon	-10.4187
if	-10.419
▁Sher	-10.4194
▁spin	-10.4205
▁Bad	-10.4211
ach	-10.4212
▁Digital	-10.4216
▁riety	-10.4216
▁glass	-10.4217
▁wrap	-10.4217
ny	-10.423
▁Centre	-10.4231
▁cam	-10.4232
▁Share	-10.4238
▁iz	-10.4239
▁bet	-10.4242
▁dates	-10.4254
▁sick	-10.4267
hi	-10.4271
point	-10.4279
▁wash	-10.4282
▁obtain	-10.429
▁Brook	-10.4291
▁sh	-10.4301
▁exit	-10.4304
▁Ze	-10.4316
▁lap	-10.4321
star	-10.4325
▁symptom	-10.4327
▁numer	-10.4328
▁western	-10.4329
▁tank	-10.434
▁prior	-10.4364
▁regime	-10.4365
▁mortgage	-10.4365
▁Stephen	-10.4365
▁punish	-10.4366
▁engineer	-10.4366
▁plot	-10.4369
ternal	-10.4386
▁Get	-10.4398
▁45	-10.4399
▁ummit	-10.4403
▁studio	-10.4408
▁1,	-10.4409
get	-10.441
24	-10.441
▁hill	-10.4421
▁metre	-10.4436
▁clar	-10.4441
▁Id	-10.4442
▁acting	-10.4442
▁flower	-10.4442
equit	-10.4444
▁ol	-10.4458
▁Ob	-10.446
▁mayor	-10.446
▁belief	-10.4479
▁Lewis	-10.4479
▁Ke	-10.4481
▁cock	-10.4482
▁Ka	-10.4488
not	-10.4495
▁procedure	-10.4516
▁Public	-10.4517
▁shoulder	-10.4517
▁coin	-10.4517
▁Line	-10.4523
▁hunt	-10.4524
▁lent	-10.4527
▁Jon	-10.4542
▁bu	-10.4545
▁basket	-10.4555
▁ennis	-10.4555
▁alert	-10.4555
▁contrast	-10.4555
▁permanent	-10.4556
▁chick	-10.4556
▁Beach	-10.4557
▁Stud	-10.4562
▁opt	-10.4591
▁Vo	-10.4592
▁edicated	-10.4593
▁ficial	-10.4593
▁eastern	-10.4594
▁Anton	-10.4594
▁Fami	-10.4596
▁cry	-10.4597
▁Ray	-10.4597
▁ideal	-10.4602
▁Der	-10.4603
▁icit	-10.4605
state	-10.461
▁Ken	-10.4611
ir	-10.4613
▁ker	-10.4616
▁Son	-10.462
▁qualify	-10.4632
▁500	-10.4632
▁Ask	-10.4634
▁Tu	-10.4634
▁exhibit	-10.4635
▁Ban	-10.4646
▁seed	-10.4669
▁Defense	-10.467
▁shadow	-10.4671
▁cution	-10.4671
▁delight	-10.4672
▁riot	-10.4673
▁II	-10.4676
▁Ri	-10.4686
▁pic	-10.4688
▁pit	-10.4697
▁Mont	-10.4702
▁react	-10.4706
▁convinc	-10.4708
▁trauma	-10.4711
▁Down	-10.4714
▁Tod	-10.4715
▁Lin	-10.4715
▁Te	-10.4721
▁Gi	-10.4722
is	-10.4724
Tele	-10.473
▁anni	-10.4738
▁condemn	-10.4747
mpose	-10.4748
▁candal	-10.4749
▁Palm	-10.4755
▁rape	-10.4755
▁Ga	-10.4761
▁End	-10.477
▁Mid	-10.4772
▁pose	-10.4776
▁las	-10.4778
▁reference	-10.4786
▁mentioned	-10.4787
▁Virgin	-10.4787
▁Philip	-10.4787
▁leak	-10.4789
▁iness	-10.4793
▁Chi	-10.4803
▁2021.	-10.4808
ing	-10.4808
▁35	-10.4816
▁bot	-10.4822
▁Phil	-10.4822
▁pal	-10.4823
▁motion	-10.4827
▁organise	-10.4828
▁corrupt	-10.4829
▁Lau	-10.4833
▁adjust	-10.4834
▁nda	-10.4839
▁Nav	-10.4864
▁Valle	-10.4866
▁combat	-10.4869
▁Media	-10.4872
▁Ar	-10.4887
led	-10.4891
velop	-10.4893
▁yn	-10.4894
▁Obama	-10.4905
▁tensive	-10.4905
▁golf	-10.4905
▁pilot	-10.4905
▁bin	-10.4906
onym	-10.4907
V	-10.4917
▁ho	-10.4919
present	-10.4922
▁AF	-10.4923
▁ani	-10.4924
▁tactic	-10.4944
▁cheer	-10.4946
▁Ever	-10.4947
▁radio	-10.4948
▁ture	-10.4955
hand	-10.4961
ject	-10.4975
▁ride	-10.4976
▁planet	-10.4982
▁Gall	-10.4983
▁asylum	-10.4984
▁plastic	-10.4984
▁regulator	-10.4984
▁carbon	-10.4986
▁rapid	-10.4986
▁Water	-10.4987
▁Roman	-10.4987
▁lets	-10.4991
▁tine	-10.4996
rita	-10.5024
▁Author	-10.5024
▁isaster	-10.5024
▁surprising	-10.5024
▁exclusive	-10.5025
▁uine	-10.5025
▁Common	-10.5025
▁Walz	-10.5029
▁Lad	-10.5031
▁dia	-10.5033
▁Plu	-10.5055
▁dian	-10.5057
▁credibly	-10.5064
▁hopper	-10.5065
▁Jordan	-10.5065
▁vow	-10.5066
▁Ker	-10.5085
▁31	-10.5094
ter	-10.5094
▁nam	-10.5103
▁riff	-10.5105
▁therapy	-10.5105
▁honour	-10.5105
ish	-10.5106
▁calm	-10.5108
▁gener	-10.5111
▁teal	-10.5115
To	-10.5115
▁Cle	-10.5127
▁ga	-10.5133
▁LA	-10.5136
html	-10.5145
▁igator	-10.5145
▁eliminat	-10.5146
▁2012	-10.5149
▁ah	-10.515
▁gotten	-10.5157
▁Ha	-10.516
▁diet	-10.518
▁stadium	-10.5186
▁franchise	-10.5186
▁Life	-10.5188
▁Robin	-10.5189
▁entry	-10.5193
▁GM	-10.5194
▁Qu	-10.5201
▁aved	-10.5213
▁Ni	-10.5226
▁native	-10.5227
▁Bridge	-10.5228
▁detain	-10.5229
▁Jess	-10.5229
▁Hag	-10.523
▁pray	-10.5232
▁jet	-10.5238
▁Hy	-10.5249
▁Mas	-10.525
▁Gor	-10.5261
▁tunning	-10.5267
▁ication	-10.5268
▁mond	-10.5294
Pala	-10.5295
▁alliance	-10.5309
▁export	-10.5309
▁Bowl	-10.531
▁Ohio	-10.5311
▁approval	-10.5314
▁£1	-10.5319
▁Gu	-10.5326
▁Rose	-10.5349
▁rot	-10.535
▁habit	-10.535
▁VID	-10.5351
▁shell	-10.5352
▁fest	-10.5354
▁Par	-10.5365
▁Whe	-10.5378
▁concert	-10.5392
▁submit	-10.5393
▁pric	-10.5394
▁outfit	-10.5394
▁nick	-10.5398
▁mom	-10.54
▁Fire	-10.5406
spect	-10.5425
▁Capitol	-10.5433
▁Zelensky	-10.5433
▁religious	-10.5434
▁overwhelm	-10.5435
▁stat	-10.5454
▁ional	-10.5455
ti	-10.5458
dict	-10.5465
▁bies	-10.5466
▁cup	-10.5467
▁plea	-10.5475
▁Dis	-10.548
▁shirt	-10.5486
da	-10.549
"},{"	-10.5494
go	-10.5499
▁ala	-10.5505
▁Ann	-10.551
▁loyal	-10.5517
▁Micro	-10.5518
▁faith	-10.5518
▁Bi	-10.552
▁Tony	-10.5521
▁Walk	-10.5524
vacu	-10.5528
io	-10.5529
▁Mor	-10.5531
▁ni	-10.5534
▁immun	-10.5554
▁guess	-10.556
▁gon	-10.5564
▁pour	-10.5566
▁promo	-10.557
▁tail	-10.5571
▁ri	-10.5594
▁Pop	-10.5594
▁motiv	-10.5597
▁Has	-10.5597
▁rier	-10.5604
cent	-10.5616
ni	-10.564
▁tepped	-10.5644
▁recognize	-10.5645
▁bow	-10.5645
▁creation	-10.5646
▁Color	-10.5648
▁Young	-10.5648
▁speaker	-10.5652
▁mad	-10.5654
▁align	-10.5659
▁j	-10.5664
▁batt	-10.5666
H	-10.5673
▁Da	-10.5675
▁imp	-10.5686
▁militant	-10.5687
▁omorrow	-10.5687
▁trictly	-10.5687
▁drew	-10.5687
://	-10.5687
▁Rock	-10.5687
▁breach	-10.5688
▁string	-10.5688
▁moral	-10.5689
▁chart	-10.5721
▁piracy	-10.573
▁appreciate	-10.573
▁shore	-10.573
▁defensive	-10.573
▁snap	-10.573
▁Week	-10.5731
▁finger	-10.5731
▁taste	-10.5732
▁tional	-10.5734
▁wheel	-10.5735
▁Old	-10.5739
▁Where	-10.5745
▁USA	-10.5757
▁val	-10.5767
▁hattan	-10.5773
▁charging	-10.5773
▁relax	-10.5773
▁cutting	-10.5775
▁hung	-10.5775
▁xy	-10.5778
▁dies	-10.5789
▁Ron	-10.5794
▁Comp	-10.5816
▁contribution	-10.5816
▁Mitch	-10.5817
▁blast	-10.5817
▁Report	-10.5818
▁cine	-10.5821
▁Corp	-10.5827
▁math	-10.5832
▁Nar	-10.5833
na	-10.5833
▁Land	-10.5839
▁Er	-10.5849
▁quit	-10.5876
▁2020.	-10.5887
▁Para	-10.5887
▁yo	-10.589
▁SN	-10.5892
▁Bull	-10.5895
▁aire	-10.5897
▁Luc	-10.5901
BlockElement	-10.5903
▁bourne	-10.5904
▁reputation	-10.5905
>,""	-10.5908
▁Final	-10.5909
ray	-10.5936
ft	-10.5938
▁casual	-10.5948
▁corporate	-10.5948
▁graduate	-10.5948
▁Hay	-10.595
▁ov	-10.5956
▁ella	-10.5973
▁rac	-10.5973
▁iest	-10.5974
▁lo	-10.5982
uff	-10.5983
troph	-10.5984
▁diagnose	-10.5992
▁Asia	-10.5993
▁aggressive	-10.5993
▁fatal	-10.5995
▁proved	-10.6005
▁map	-10.6021
25	-10.6024
▁1990	-10.6036
▁keen	-10.6036
▁matic	-10.6037
▁NAS	-10.6037
▁Turn	-10.6045
unveil	-10.6046
▁hero	-10.6059
▁del	-10.6062
mm	-10.6071
▁cia	-10.6076
▁embrace	-10.608
▁controversial	-10.608
▁narrow	-10.6081
▁outdoor	-10.6084
▁Rob	-10.6084
related	-10.6099
ow	-10.6105
▁tag	-10.6113
▁lov	-10.6115
▁psych	-10.6121
▁silver	-10.6125
▁crypto	-10.6125
▁tiny	-10.6127
▁Wild	-10.6146
▁din	-10.6154
▁contr	-10.6161
▁Cana	-10.6165
▁graphic	-10.6168
▁assure	-10.617
▁shake	-10.617
▁loud	-10.6172
▁lor	-10.6178
▁notic	-10.618
30	-10.6206
duct	-10.6207
▁Top	-10.6214
▁Hale	-10.6218
▁fat	-10.6218
▁define	-10.6223
▁tab	-10.6226
▁compl	-10.6239
▁Ber	-10.624
▁Book	-10.6245
▁dez	-10.6248
▁Attorney	-10.626
▁evastating	-10.626
▁dispu	-10.626
▁itzer	-10.626
▁Board	-10.626
▁patter	-10.626
▁milk	-10.6262
▁industrial	-10.6262
▁Stan	-10.6266
▁Fur	-10.6273
▁Did	-10.6285
▁Bell	-10.6292
▁pol	-10.6293
▁Win	-10.6295
▁ke	-10.6295
▁tradition	-10.6303
▁Villa	-10.6305
▁borrow	-10.6305
▁Vladimir	-10.6306
▁wick	-10.6306
▁Edward	-10.6306
▁Six	-10.6306
▁minimum	-10.6306
▁Lion	-10.631
▁arch	-10.6319
▁Bol	-10.6319
▁cle	-10.6325
▁tro	-10.6338
all	-10.6343
▁chemical	-10.6351
▁dated	-10.6352
▁brutal	-10.6352
▁mash	-10.6356
▁rang	-10.6364
▁Gre	-10.6386
▁Ven	-10.6388
hibit	-10.6392
▁pursue	-10.6397
▁premier	-10.6397
▁slip	-10.6398
▁Jean	-10.6399
▁Michel	-10.6399
▁earth	-10.6401
▁forc	-10.6401
▁10-	-10.6404
All	-10.6423
ag	-10.6427
▁Val	-10.6435
▁ck	-10.6439
▁tan	-10.6442
▁museum	-10.6443
▁volunteer	-10.6443
▁omebody	-10.6443
▁Cooper	-10.6443
▁shoe	-10.6443
▁Major	-10.6444
▁divorce	-10.6444
▁Reuters	-10.6449
isrupt	-10.6455
▁Rod	-10.6461
▁suburb	-10.6463
ro	-10.647
vel	-10.6476
0,000	-10.6483
▁counsel	-10.6489
▁branch	-10.6489
▁architect	-10.6489
▁uncertain	-10.649
ab	-10.6502
▁Mayor	-10.6504
▁drawn	-10.6516
sembl	-10.6519
▁vin	-10.6534
▁caption	-10.6536
▁Ethio	-10.6536
▁Gala	-10.6541
▁arian	-10.6546
Credit	-10.6556
ne	-10.6559
▁symbol	-10.6562
▁bal	-10.6578
▁alter	-10.6581
▁warrant	-10.6582
▁slide	-10.6582
▁collective	-10.6583
▁pov	-10.6583
▁2010	-10.6583
▁phase	-10.6584
▁continent	-10.6585
ha	-10.6594
lam	-10.6605
month	-10.6605
Oh	-10.6611
▁Festival	-10.6629
▁micro	-10.6629
▁pregnant	-10.6629
▁rocket	-10.6632
▁grave	-10.6637
▁Cole	-10.664
▁Boy	-10.6646
▁alarm	-10.6648
hour	-10.6654
ig	-10.6673
▁Church	-10.6676
▁caution	-10.6676
":"<	-10.6677
▁Coast	-10.6677
▁logue	-10.6677
▁shout	-10.6677
▁beaten	-10.668
▁square	-10.668
▁zero	-10.6681
▁meters	-10.6686
▁Dor	-10.6704
ed	-10.6704
▁tun	-10.671
▁boast	-10.6724
▁stein	-10.6724
▁Alli	-10.6726
▁constitutional	-10.6726
▁Rom	-10.6735
▁meat	-10.6739
block	-10.6746
▁2015	-10.6749
▁Lis	-10.6752
rgan	-10.6756
▁IT	-10.6757
▁eva	-10.6762
▁una	-10.6767
▁xiety	-10.6771
▁Senator	-10.6771
▁spell	-10.6772
▁speci	-10.6772
▁Santa	-10.6772
▁Emil	-10.6774
▁cept	-10.6777
▁mony	-10.6778
▁Take	-10.6778
▁ram	-10.678
▁sters	-10.6786
J	-10.679
sign	-10.6807
▁Dy	-10.6811
▁posing	-10.6819
▁remote	-10.6819
▁lunch	-10.6819
▁plate	-10.682
▁Tesla	-10.682
▁tant	-10.682
▁regret	-10.682
▁temp	-10.6833
▁tie	-10.6856
▁gging	-10.6867
▁lining	-10.6868
▁Local	-10.6869
im	-10.6872
▁ID	-10.688
wing	-10.6884
▁py	-10.6896
50	-10.6907
▁Yu	-10.6911
▁bread	-10.6916
▁bury	-10.6916
▁knee	-10.6916
▁moon	-10.6917
▁haul	-10.6919
▁wi	-10.6921
Human	-10.6921
▁Sur	-10.6922
Do	-10.6924
▁musical	-10.6925
▁iff	-10.6929
ansa	-10.694
▁liver	-10.6956
▁Shan	-10.6962
▁iscussions	-10.6964
▁layer	-10.6969
▁quot	-10.697
▁kit	-10.6972
▁retain	-10.6975
life	-10.6981
▁salt	-10.6983
tract	-10.6991
▁dar	-10.6998
▁beth	-10.6999
▁eff	-10.7001
▁guid	-10.7009
▁lands	-10.701
▁diagnosis	-10.7013
▁mium	-10.7013
▁Stock	-10.7014
▁Anthony	-10.7014
▁ABC	-10.7014
▁Project	-10.7015
▁Storm	-10.7015
▁Call	-10.7015
▁rug	-10.7018
▁skip	-10.7018
se	-10.7046
▁ai	-10.7056
▁Vin	-10.706
▁ensitive	-10.7062
▁placing	-10.7062
▁Dodge	-10.7062
▁cloud	-10.7062
▁breast	-10.7063
commod	-10.7064
▁addict	-10.7067
▁raid	-10.7069
ck	-10.707
▁mail	-10.707
▁profile	-10.7083
▁Bet	-10.7087
▁Hu	-10.7092
▁rah	-10.7095
▁2000	-10.7098
▁Comm	-10.71
▁ich	-10.7104
eleg	-10.7104
▁cop	-10.7111
▁brush	-10.7111
▁Ric	-10.7112
▁Food	-10.7113
▁interact	-10.7113
▁lessly	-10.7113
▁Power	-10.7114
▁1.	-10.7116
▁reader	-10.7119
▁DP	-10.712
▁reek	-10.7127
▁killer	-10.7128
▁Tre	-10.7143
▁Cy	-10.7156
▁Kent	-10.7161
▁opposite	-10.7161
▁cute	-10.7161
▁yellow	-10.7162
▁2,	-10.7175
▁Bre	-10.7181
▁Pale	-10.7187
end	-10.7191
▁Hard	-10.7192
▁lence	-10.7211
▁Luke	-10.7212
▁pocket	-10.7213
▁roof	-10.7213
▁grass	-10.7213
▁mere	-10.7214
▁hail	-10.7216
▁nurse	-10.7217
▁Jen	-10.7217
▁Aga	-10.7233
high	-10.7235
▁ening	-10.726
▁magazine	-10.726
▁Helen	-10.7261
▁1980	-10.7261
▁Moor	-10.7266
▁bone	-10.727
▁bak	-10.7272
▁Wind	-10.7273
title	-10.7275
▁weigh	-10.7278
chocolat	-10.728
▁halt	-10.7285
.</	-10.7286
▁lett	-10.7293
▁lyn	-10.7309
▁Ok	-10.731
▁levant	-10.7311
▁Eliza	-10.7311
▁Doug	-10.7311
▁Football	-10.7312
▁sugar	-10.7312
▁smooth	-10.7312
▁chef	-10.7313
cifi	-10.7313
▁plain	-10.7314
▁mu	-10.7328
class	-10.7335
Some	-10.734
▁Ger	-10.7343
▁49	-10.7347
▁nesota	-10.7361
▁provision	-10.7361
▁kilo	-10.7365
▁Comb	-10.7381
▁nei	-10.7382
▁aide	-10.7387
▁impl	-10.739
▁Ang	-10.7394
▁rap	-10.7398
▁dominate	-10.7412
▁behavior	-10.7412
▁fundamental	-10.7413
▁error	-10.7413
▁fantastic	-10.7413
▁rebel	-10.7418
▁Town	-10.7421
ex	-10.7421
mend	-10.7427
rosecut	-10.7428
▁Bir	-10.7428
▁vo	-10.7431
elect	-10.7437
▁2019.	-10.7456
ize	-10.7457
▁ubstantial	-10.7463
▁valuable	-10.7463
▁triking	-10.7463
tamin	-10.7464
▁partisan	-10.7464
▁Celeb	-10.7465
▁Matthew	-10.7465
▁Metro	-10.7466
▁Bron	-10.7468
▁ML	-10.7471
▁Cab	-10.7474
rass	-10.7479
▁eb	-10.7484
▁Sud	-10.7487
▁topic	-10.7498
▁ow	-10.7505
▁testi	-10.751
▁computer	-10.7515
▁experiment	-10.7515
▁Bangladesh	-10.7515
▁Armenia	-10.7515
ssemb	-10.7516
▁lace	-10.7519
▁ef	-10.7527
▁Meta	-10.7529
▁jun	-10.7531
▁fra	-10.7531
▁Jul	-10.7534
▁geo	-10.7541
▁file	-10.7542
gri	-10.7555
▁cabinet	-10.7566
▁fiscal	-10.7566
▁recipe	-10.7566
▁Special	-10.7566
▁Music	-10.7567
▁Stone	-10.7568
▁permit	-10.7568
licate	-10.7568
▁hint	-10.757
▁Rog	-10.7572
▁Low	-10.7573
▁Mau	-10.7578
▁Dav	-10.7583
▁bird	-10.7583
friend	-10.7592
▁resto	-10.7595
▁prop	-10.7597
▁Kan	-10.76
▁Pi	-10.7612
▁Museum	-10.7618
▁Dutch	-10.7618
▁repair	-10.7618
▁consecutive	-10.7618
▁pump	-10.7618
▁elev	-10.762
▁mask	-10.7621
▁Night	-10.7621
Al	-10.7625
own	-10.763
▁solved	-10.7635
▁thick	-10.7641
mo	-10.7644
▁strip	-10.7666
▁Medi	-10.7668
▁eferring	-10.767
▁succeed	-10.767
▁knife	-10.767
▁Morgan	-10.767
▁sheet	-10.767
▁Global	-10.7671
▁Master	-10.7671
▁tragic	-10.7671
▁Ball	-10.7679
▁tea	-10.7692
▁ile	-10.7721
▁resort	-10.7722
▁ridge	-10.7722
▁buyers	-10.7723
▁Mount	-10.7723
▁laid	-10.7727
▁36	-10.7727
▁bike	-10.7728
▁1,000	-10.7728
by	-10.7731
▁mat	-10.7736
▁ologist	-10.7736
ce	-10.7743
▁33	-10.7768
▁Tru	-10.7771
▁Kings	-10.7775
▁Dalla	-10.7775
▁fa	-10.7775
▁Hung	-10.7776
▁Alexander	-10.7776
▁upgrade	-10.7778
▁iron	-10.7786
▁domin	-10.7796
http	-10.7801
▁Non	-10.7803
▁Spring	-10.7828
▁Energ	-10.7828
▁lung	-10.7829
▁excess	-10.783
▁magic	-10.783
▁Var	-10.7832
ounc	-10.7843
▁endra	-10.7844
ah	-10.786
▁che	-10.7874
▁Pu	-10.788
▁principle	-10.7881
▁cab	-10.7881
▁disappear	-10.7881
▁solar	-10.7882
▁Rwanda	-10.7882
▁Second	-10.7882
▁punch	-10.7883
em	-10.7884
▁Elli	-10.7886
▁Ya	-10.7895
▁Kur	-10.7909
▁Sar	-10.7925
▁Die	-10.7934
▁Iowa	-10.7935
▁tent	-10.7935
▁Trust	-10.7936
▁bing	-10.7941
▁$5	-10.7942
▁runner	-10.7943
▁wire	-10.7946
▁Rah	-10.7953
half	-10.7962
Text	-10.7965
di	-10.7974
▁2013	-10.7976
▁2.	-10.7983
▁sack	-10.7987
▁romantic	-10.7989
▁Constitution	-10.7989
▁promotion	-10.7989
▁concept	-10.7989
▁virtual	-10.7991
ap	-10.7991
▁Cook	-10.7992
▁Tenn	-10.7999
▁lic	-10.7999
▁Sav	-10.8003
▁32	-10.8005
▁Heart	-10.8006
▁Sport	-10.8008
▁Arch	-10.8011
▁Dam	-10.8015
At	-10.8032
▁Len	-10.8038
▁Aust	-10.8043
▁tourism	-10.8043
▁liberal	-10.8044
▁Roh	-10.8048
▁dynamic	-10.8051
raz	-10.8056
▁pad	-10.808
ssert	-10.8086
▁journal	-10.8096
▁atmosphere	-10.8096
▁cognition	-10.8096
▁Haiti	-10.8097
▁script	-10.8098
▁deposit	-10.8098
▁lake	-10.8099
▁Row	-10.81
▁Im	-10.8107
▁noise	-10.8109
▁34	-10.811
▁Ross	-10.8116
▁vis	-10.8135
▁advisor	-10.8151
crutin	-10.8151
▁Argent	-10.8152
▁disorder	-10.8152
▁tweet	-10.8152
▁Rishi	-10.8152
▁latter	-10.8153
▁copy	-10.8153
▁soul	-10.8155
▁bail	-10.8155
▁Main	-10.8161
00	-10.817
▁Plan	-10.8175
▁butter	-10.8175
▁deb	-10.8187
▁hide	-10.8187
▁bell	-10.8197
▁urging	-10.8206
▁idence	-10.8206
▁vince	-10.8206
▁Ma	-10.8207
▁venture	-10.8208
▁Buck	-10.8208
▁Rub	-10.8208
-4	-10.8218
ang	-10.8219
▁izes	-10.8225
▁2018,	-10.8235
▁Carr	-10.824
▁icon	-10.8243
▁Nat	-10.825
▁ingredient	-10.8261
▁cheese	-10.8262
▁Morning	-10.8264
▁Beck	-10.8264
▁gradu	-10.8265
▁cient	-10.8265
▁twist	-10.8265
▁volu	-10.8266
▁EV	-10.8267
▁metal	-10.8269
me	-10.827
▁hub	-10.827
▁seal	-10.8275
▁itor	-10.8288
▁mal	-10.8289
▁ade	-10.8291
▁rus	-10.8292
▁nan	-10.8296
▁Nu	-10.8298
15	-10.8299
▁GA	-10.8302
▁Raj	-10.8309
▁2025.	-10.8311
▁400	-10.8311
▁span	-10.8311
▁explosion	-10.8317
▁Journal	-10.8318
X	-10.832
▁Tech	-10.8326
▁ramp	-10.8326
45	-10.8328
▁tap	-10.8331
▁Sci	-10.8336
.""	-10.8351
\	-10.8354
▁Picture	-10.8373
▁ologies	-10.8373
▁Morris	-10.8373
▁Display	-10.8373
▁muscle	-10.8373
▁neath	-10.8373
▁Labor	-10.8374
▁harass	-10.8375
▁Reform	-10.8384
▁proof	-10.8384
▁tive	-10.8399
▁OK	-10.84
▁ze	-10.84
▁nes	-10.8402
election	-10.8403
▁inde	-10.8408
under	-10.8417
▁log	-10.8429
▁merging	-10.8429
▁hrew	-10.8429
▁Hotel	-10.8429
▁Nik	-10.843
▁congress	-10.843
▁ultra	-10.843
▁Fund	-10.8433
▁ena	-10.8434
▁Allen	-10.8434
▁stair	-10.8435
ensu	-10.8436
▁Tam	-10.8436
▁Saint	-10.8439
▁Bra	-10.8441
disrupt	-10.8448
▁Abu	-10.8458
▁ek	-10.8458
How	-10.846
with	-10.846
style	-10.846
One	-10.8466
▁Lev	-10.8473
60	-10.8474
▁mas	-10.8474
▁twin	-10.8478
▁engine	-10.8485
▁1970	-10.8486
▁tower	-10.8486
▁Steven	-10.8486
▁Video	-10.8486
▁Strip	-10.8487
▁Price	-10.8487
▁Greg	-10.8488
▁300	-10.8496
▁lam	-10.8498
eij	-10.8501
▁Ea	-10.8507
▁Leg	-10.8509
▁pup	-10.851
▁ik	-10.8516
beauti	-10.8524
▁Phillip	-10.8542
▁rumour	-10.8542
▁Education	-10.8543
▁Berlin	-10.8543
▁cable	-10.8543
▁pause	-10.8543
▁flash	-10.8543
▁hook	-10.8543
▁flex	-10.8544
▁radical	-10.8544
▁theatre	-10.8545
▁hack	-10.8546
▁elder	-10.8547
▁Shah	-10.8548
▁lance	-10.855
▁visa	-10.8552
▁gay	-10.8554
▁duo	-10.856
▁Head	-10.8561
age	-10.8572
▁DA	-10.8576
▁Oh	-10.8584
,000	-10.8589
Y	-10.8593
▁silence	-10.8599
▁outrage	-10.86
▁crore	-10.86
▁Gandhi	-10.86
▁edition	-10.8602
▁chill	-10.8603
▁scent	-10.8606
▁Ko	-10.8606
▁bedroom	-10.861
▁olo	-10.8613
▁Ira	-10.8613
eport	-10.8617
▁Sp	-10.8621
▁75	-10.8627
sess	-10.8639
po	-10.864
▁sail	-10.8647
▁ened	-10.8648
17	-10.8651
><	-10.8654
▁necessarily	-10.8657
▁drag	-10.8657
▁toilet	-10.8657
▁Wisconsin	-10.8658
▁exploit	-10.8659
▁Cath	-10.866
▁Cop	-10.8661
▁mus	-10.8665
▁nail	-10.8669
▁lane	-10.8675
▁Pal	-10.8678
▁Lar	-10.8679
▁emphasis	-10.8681
▁Vol	-10.8686
▁gy	-10.8689
act	-10.8712
▁Mumbai	-10.8715
▁eadline	-10.8715
▁visible	-10.8715
▁stroke	-10.8715
▁ually	-10.8715
▁tics	-10.8716
▁float	-10.8716
▁crown	-10.8716
▁nathan	-10.8716
▁zing	-10.8717
circl	-10.8718
tinu	-10.8718
▁onent	-10.8721
ba	-10.8722
▁Ki	-10.8723
▁GP	-10.8743
▁var	-10.877
▁Mala	-10.8771
▁mood	-10.8773
▁expansion	-10.8773
dmir	-10.8773
▁wich	-10.8773
▁Budget	-10.8774
▁diff	-10.8774
▁soar	-10.8774
▁Bengal	-10.8774
▁Brand	-10.8775
▁quest	-10.878
rain	-10.878
▁Gill	-10.8782
ca	-10.8783
▁tal	-10.8793
▁medi	-10.8801
▁academic	-10.8801
▁Kir	-10.8806
▁Ly	-10.8812
▁48	-10.8813
▁anna	-10.8817
29	-10.8822
▁chan	-10.8823
▁Ru	-10.8826
▁Bry	-10.8827
▁sweep	-10.8831
▁Lauren	-10.8832
▁suicide	-10.8832
▁conscious	-10.8838
▁offend	-10.8842
▁Give	-10.8847
▁gall	-10.8848
▁convert	-10.885
▁£5	-10.8858
-1	-10.8872
▁Il	-10.888
nder	-10.8883
▁manifest	-10.889
▁reduction	-10.889
▁proportion	-10.8891
▁funny	-10.8891
▁democratic	-10.8891
▁peer	-10.8892
▁efficient	-10.8892
▁Jake	-10.8892
ac	-10.8894
▁Evan	-10.8895
On	-10.8896
▁Pay	-10.8896
▁$2	-10.8908
▁dose	-10.8909
▁impe	-10.891
▁stag	-10.8929
▁Sri	-10.8938
but	-10.8942
▁Mol	-10.8942
us	-10.8947
▁scrap	-10.8948
▁sauce	-10.8949
hiladelphi	-10.8949
▁eager	-10.8949
▁Cur	-10.8949
▁intervention	-10.895
▁pson	-10.895
▁toxic	-10.8952
Con	-10.8954
▁troll	-10.8956
▁gym	-10.8961
▁RO	-10.8963
▁Gil	-10.8971
ment	-10.8975
23	-10.8979
▁6,	-10.8983
é	-10.8996
▁Tra	-10.9
▁clusive	-10.9009
▁courage	-10.9009
▁Columbia	-10.9009
▁loose	-10.901
▁march	-10.9011
▁context	-10.9011
▁shine	-10.9012
▁smoke	-10.9014
▁Turk	-10.9014
▁Off	-10.9018
▁Op	-10.9018
▁bon	-10.9024
▁grat	-10.9026
▁Va	-10.9044
▁ets	-10.9059
▁donor	-10.906
▁Add	-10.906
▁Cro	-10.9065
▁Pass	-10.9068
▁Netherland	-10.9069
▁Affair	-10.9069
▁index	-10.907
▁Radio	-10.907
▁Fern	-10.9071
▁sole	-10.9072
law	-10.9073
▁Film	-10.9076
▁PR	-10.9077
***	-10.908
ho	-10.9087
▁tin	-10.9087
▁flee	-10.9093
▁Conf	-10.9094
libr	-10.9096
found	-10.9104
▁Care	-10.9105
▁Wat	-10.911
▁Tel	-10.9118
▁agon	-10.9127
▁sistance	-10.9129
▁Russell	-10.9129
▁embar	-10.913
▁fault	-10.9131
▁unprecedented	-10.9131
▁Fair	-10.9133
promis	-10.9136
▁grid	-10.9137
▁Cre	-10.9138
▁contra	-10.914
▁tick	-10.9152
▁lated	-10.9162
▁7,	-10.9166
▁("	-10.9166
Whi	-10.917
▁DC	-10.9173
▁nie	-10.9179
▁worn	-10.9181
▁pia	-10.9189
▁blind	-10.919
▁cribing	-10.919
▁racial	-10.9191
▁Charlotte	-10.9191
▁Chair	-10.9191
▁pat	-10.9192
▁kiss	-10.9192
▁Girl	-10.9195
▁30-	-10.9196
▁psycho	-10.9196
▁Burn	-10.9204
▁lateral	-10.9216
lic	-10.9223
▁summ	-10.9235
per	-10.9238
ya	-10.9241
▁Convention	-10.925
▁experi	-10.925
▁Murphy	-10.9251
▁musician	-10.9251
▁distinct	-10.9251
▁Business	-10.9252
▁assy	-10.9252
▁blend	-10.9252
▁Alban	-10.9252
▁cyber	-10.9253
▁pipe	-10.9253
▁Eric	-10.9253
▁Market	-10.9253
▁ola	-10.9255
▁rice	-10.9257
▁cher	-10.9273
▁Farm	-10.928
▁Tro	-10.9287
▁£3	-10.93
▁4.	-10.9301
▁Square	-10.9312
▁license	-10.9312
▁liberate	-10.9312
▁ambassador	-10.9312
▁applied	-10.9312
▁Catholic	-10.9313
tiv	-10.9315
lig	-10.9315
▁bless	-10.9316
▁AT	-10.9317
▁external	-10.9319
▁lice	-10.932
▁Part	-10.9324
▁posed	-10.9328
pel	-10.9335
profile	-10.9348
respond	-10.9348
▁oon	-10.9357
▁Vie	-10.9368
ta	-10.9371
▁lip	-10.9373
▁Clinton	-10.9374
▁evolution	-10.9374
▁ocean	-10.9374
▁foster	-10.9374
▁urban	-10.9374
▁contend	-10.9374
▁inherit	-10.9374
▁grace	-10.9374
▁Cross	-10.9374
▁Crime	-10.9375
▁mo	-10.9376
▁accurate	-10.9376
▁Forest	-10.9377
▁resist	-10.938
▁Vi	-10.9395
▁12-	-10.9398
▁Sol	-10.9401
isturb	-10.9406
▁ph	-10.9407
person	-10.9408
With	-10.941
▁bett	-10.9423
gratu	-10.9428
▁compens	-10.943
▁$3	-10.9431
▁funeral	-10.9436
▁afraid	-10.9436
▁scope	-10.9436
▁nique	-10.9436
▁burst	-10.9436
▁examine	-10.9437
▁vet	-10.9437
▁rence	-10.9438
ent	-10.9439
▁Case	-10.9439
▁brown	-10.9442
mon	-10.9449
▁tale	-10.945
▁upper	-10.9454
▁DI	-10.9455
▁Sub	-10.9459
▁ual	-10.9468
▁rever	-10.9468
▁eron	-10.9472
winn	-10.9475
▁chant	-10.9476
Man	-10.9484
▁edit	-10.9493
Barcelo	-10.9498
▁ystery	-10.9498
con	-10.9501
▁stem	-10.9509
▁Make	-10.9509
▁Barn	-10.9513
▁jan	-10.9514
▁gins	-10.9524
game	-10.9536
▁iciency	-10.9561
▁origin	-10.9561
▁persist	-10.9561
▁cruise	-10.9561
▁Garden	-10.9561
▁liquid	-10.9561
▁adequate	-10.9562
▁sovereign	-10.9562
▁Bei	-10.9563
▁faction	-10.9563
▁sufficient	-10.9563
▁Santi	-10.9564
▁Vir	-10.9568
▁gear	-10.9568
▁practical	-10.957
▁iev	-10.9572
▁PD	-10.9577
▁Anna	-10.958
norm	-10.9597
16	-10.9599
▁Mir	-10.9602
▁Cher	-10.9604
ion	-10.9605
▁7.	-10.9612
▁fuse	-10.9615
19	-10.9619
▁rhetoric	-10.9624
▁mock	-10.9625
▁anticipate	-10.9628
▁lone	-10.9636
km	-10.9645
12	-10.9647
Ferr	-10.9648
man	-10.9663
▁Schu	-10.9666
▁See	-10.9671
evit	-10.9674
▁decla	-10.9681
▁65	-10.9683
▁ubstance	-10.9688
▁wipe	-10.9688
▁iya	-10.9693
▁deter	-10.9706
▁Event	-10.9714
▁compos	-10.9716
▁iture	-10.9725
Trump	-10.9726
▁ua	-10.9732
pp	-10.9735
▁fitt	-10.974
▁comprehen	-10.9743
▁ctor	-10.9752
▁disagree	-10.9752
▁graph	-10.9752
▁shed	-10.9754
▁Aug	-10.9755
▁Thai	-10.9755
▁bel	-10.9756
▁genocide	-10.9756
fine	-10.9757
▁HO	-10.9758
▁tape	-10.976
▁dale	-10.977
▁eco	-10.9772
▁ric	-10.9774
▁Abe	-10.9779
▁bol	-10.9782
▁hell	-10.9785
level	-10.9792
▁ita	-10.9805
▁tone	-10.9807
▁sec	-10.981
▁pe	-10.9813
▁abad	-10.9814
▁Ros	-10.9815
▁associ	-10.9816
▁romance	-10.9817
▁ncing	-10.9817
▁kidnap	-10.9817
▁easing	-10.9817
▁qualified	-10.9818
▁erupt	-10.982
▁Pitt	-10.9828
▁vy	-10.983
▁vac	-10.9832
▁150	-10.9832
▁erson	-10.9834
▁sponsor	-10.9838
▁hike	-10.984
▁dim	-10.9854
foot	-10.9856
ik	-10.9861
cover	-10.9865
▁fir	-10.9868
▁pure	-10.9868
▁toll	-10.9871
▁pla	-10.9882
▁helicopter	-10.9882
▁equent	-10.9882
▁burden	-10.9882
▁steel	-10.9883
▁Glen	-10.9883
▁smell	-10.9883
▁topping	-10.9884
▁Crown	-10.9884
▁passion	-10.9885
▁ruin	-10.9886
▁Tow	-10.9887
▁pink	-10.9889
▁uni	-10.9892
sid	-10.9904
pe	-10.9919
ber	-10.9933
▁Wel	-10.9935
▁partial	-10.9947
▁Mexican	-10.9947
▁currency	-10.9947
▁lakh	-10.9948
▁Official	-10.9948
▁Jose	-10.9948
▁reasonable	-10.9949
▁por	-10.9955
ja	-10.9957
▁Cat	-10.9959
▁mies	-10.9961
▁tical	-10.9963
▁OS	-10.9964
▁decent	-10.9965
▁payer	-10.9966
▁termin	-10.9977
▁charm	-10.9986
known	-10.9988
▁bold	-10.999
fire	-10.9993
GB	-11.001
▁swift	-11.0013
▁instant	-11.0013
▁Qatar	-11.0013
▁Country	-11.0013
▁fortune	-11.0015
▁Jenni	-11.0018
▁echo	-11.0022
▁demo	-11.0024
▁boom	-11.0024
▁igni	-11.0026
▁satellite	-11.0034
▁mari	-11.0036
▁Chat	-11.0037
▁gra	-11.0043
▁Sad	-11.005
Un	-11.0053
▁bat	-11.0055
▁emphasi	-11.0056
low	-11.006
ke	-11.0069
▁smok	-11.0076
▁electronic	-11.0079
▁felon	-11.0079
▁pride	-11.0079
▁minster	-11.008
▁productive	-11.008
▁bullet	-11.008
▁Command	-11.008
▁bitter	-11.0082
▁chest	-11.0082
▁VP	-11.0084
▁dit	-11.0086
▁38	-11.0089
▁marg	-11.0092
▁scal	-11.0096
08	-11.0097
▁Whit	-11.0102
▁chap	-11.0105
▁Mah	-11.0107
An	-11.0137
▁fossil	-11.0146
▁intercept	-11.0146
▁scenario	-11.0146
▁interior	-11.0146
▁negotiate	-11.0147
▁Mother	-11.0148
▁dust	-11.0153
▁Bright	-11.0153
▁quote	-11.0154
▁Field	-11.0157
▁tile	-11.0159
▁lord	-11.0162
▁Rat	-11.0171
▁ova	-11.0174
▁Ak	-11.0178
Just	-11.0187
▁rum	-11.0188
▁Rich	-11.0191
interpret	-11.0209
rove	-11.0209
▁encouraging	-11.0213
▁extension	-11.0213
▁iscrimination	-11.0213
▁fabric	-11.0213
▁Oregon	-11.0213
▁nervous	-11.0214
▁distress	-11.0215
▁Roy	-11.022
▁Mile	-11.0227
▁dock	-11.0231
▁Mus	-11.0232
▁mega	-11.0235
bin	-11.0239
▁decor	-11.0242
ighten	-11.0249
▁gut	-11.0253
▁gue	-11.0253
scale	-11.0254
large	-11.0254
▁Lib	-11.0259
thir	-11.0261
▁birds	-11.0264
▁nav	-11.0268
▁NS	-11.028
▁Economic	-11.028
▁fusing	-11.028
=\"	-11.028
▁perpet	-11.0281
▁vada	-11.0282
▁optim	-11.0282
▁Doctor	-11.0282
▁exami	-11.0284
▁46	-11.0294
▁bump	-11.0295
ster	-11.0304
▁Ford	-11.0316
making	-11.0322
▁Totten	-11.0348
▁laughter	-11.0349
▁visual	-11.0349
▁lime	-11.035
▁racist	-11.0351
▁Neil	-11.0352
▁Next	-11.0355
▁Bow	-11.0355
▁ius	-11.0358
▁Way	-11.0359
▁Cai	-11.0361
▁vard	-11.0363
▁Dem	-11.0369
▁theft	-11.0373
▁Tat	-11.0382
▁lev	-11.0387
.1	-11.0413
▁Clar	-11.0415
▁Bear	-11.0416
▁fusion	-11.0417
▁pregnancy	-11.0417
▁sentiment	-11.0417
▁silience	-11.0417
exceed	-11.0417
▁tenant	-11.0418
▁panic	-11.0419
▁clock	-11.042
▁button	-11.0425
grate	-11.0429
▁ff	-11.0437
▁Ur	-11.0441
▁cord	-11.0444
▁lad	-11.0456
▁Bren	-11.046
week	-11.046
Your	-11.0464
▁MI	-11.0468
▁tall	-11.0475
▁thin	-11.0478
▁£2	-11.0486
▁medicine	-11.0486
▁confess	-11.0486
▁Soviet	-11.0487
▁bargain	-11.0488
▁Civil	-11.0488
▁Charli	-11.0491
▁3.	-11.0499
▁ache	-11.0501
▁Never	-11.0503
leg	-11.0509
▁5,	-11.0515
season	-11.0529
▁mil	-11.053
▁dan	-11.0536
ipul	-11.0542
▁ography	-11.0555
▁jacket	-11.0556
▁soap	-11.0556
▁judgment	-11.0556
▁pivot	-11.0556
▁greet	-11.0558
▁wed	-11.0558
▁Brexit	-11.0558
▁chu	-11.0561
▁Moon	-11.0561
▁Jenn	-11.0561
▁Kay	-11.0561
▁rell	-11.0563
▁dirt	-11.0566
▁mont	-11.057
▁Anne	-11.057
▁ece	-11.0572
▁zy	-11.0573
▁creator	-11.0581
▁qui	-11.0582
▁3,	-11.0595
▁ula	-11.0595
▁tim	-11.0595
work	-11.0599
Well	-11.0603
br	-11.0619
▁Jar	-11.0624
▁supplement	-11.0625
▁tributing	-11.0625
▁uries	-11.0625
▁mirror	-11.0626
▁expression	-11.0627
▁angle	-11.0629
▁oversee	-11.0634
▁tune	-11.0635
▁Gray	-11.0637
▁Grant	-11.0638
▁Pel	-11.0642
▁42	-11.065
People	-11.067
▁pod	-11.067
American	-11.0672
40	-11.0677
▁Rad	-11.0681
▁Libe	-11.0683
].	-11.0689
laud	-11.0691
▁Ge	-11.0692
▁styl	-11.0695
▁Nichol	-11.0696
▁tumble	-11.0696
▁Kenya	-11.0696
▁Joseph	-11.0696
▁util	-11.0697
▁Heath	-11.0697
▁Short	-11.0697
▁Ras	-11.0699
▁lick	-11.0701
▁37	-11.0703
▁Hope	-11.0704
▁lab	-11.0707
▁Wim	-11.0707
▁hire	-11.0707
▁Leb	-11.071
▁Shi	-11.0711
▁Nas	-11.0712
▁FT	-11.0713
▁Jet	-11.0714
▁Beat	-11.0719
▁Jane	-11.072
▁await	-11.0721
▁poster	-11.0727
▁Marin	-11.0743
nish	-11.0745
De	-11.0758
▁mobil	-11.0762
▁Austria	-11.0767
▁sensor	-11.0767
▁lessness	-11.0767
▁interfere	-11.0767
▁Erik	-11.0768
▁valid	-11.0768
▁Express	-11.0768
▁lady	-11.0769
▁Light	-11.077
▁JD	-11.0772
▁2009	-11.0773
nounce	-11.0773
▁brave	-11.0774
▁attribute	-11.0775
▁lid	-11.078
▁250	-11.0796
▁mos	-11.0803
Star	-11.0812
▁cl	-11.0814
▁20-	-11.0815
▁Na	-11.0819
▁nod	-11.083
▁Treasury	-11.0838
▁enthusiast	-11.0838
▁lahoma	-11.0838
▁transaction	-11.0838
ng	-11.0839
▁Simps	-11.0839
▁chase	-11.0839
▁CTV	-11.084
▁weird	-11.0841
▁som	-11.0843
▁pati	-11.0844
▁loom	-11.0846
PA	-11.0849
▁Date	-11.0852
▁Warr	-11.0855
▁hu	-11.0856
▁18,	-11.0863
▁Corn	-11.0872
▁wal	-11.0876
▁yield	-11.0878
▁27,	-11.0879
ominate	-11.0888
Z	-11.0894
▁atic	-11.0899
11	-11.0901
▁Kenn	-11.0902
▁bloc	-11.0908
▁jewel	-11.091
▁formula	-11.091
▁ifies	-11.091
▁skirt	-11.091
▁Aaron	-11.0911
▁navigate	-11.0911
▁privilege	-11.0911
▁Jacob	-11.0911
gistr	-11.0912
▁drill	-11.0913
▁Marsh	-11.0913
▁neuro	-11.0914
▁Horn	-11.0915
▁mut	-11.0916
▁seller	-11.0917
▁Kane	-11.0919
ew	-11.0919
▁col	-11.0919
▁jar	-11.092
▁hai	-11.092
▁Roll	-11.0921
▁Ful	-11.0922
▁Say	-11.0922
▁dig	-11.0935
▁39	-11.0949
After	-11.0956
▁2008	-11.0963
▁AL	-11.0964
▁adver	-11.0974
▁ON	-11.0976
▁tain	-11.0978
ia	-11.0981
▁Ol	-11.0982
▁buzz	-11.0983
▁instrument	-11.0984
▁shade	-11.0984
▁Hong	-11.0986
▁depth	-11.0987
▁iser	-11.0987
▁vic	-11.0989
▁Key	-11.0991
▁BO	-11.0993
▁Rio	-11.0995
▁hip	-11.0997
▁hal	-11.0997
▁lia	-11.1002
you	-11.1002
▁DO	-11.1002
▁glo	-11.1003
▁stall	-11.1003
▁sink	-11.1006
80	-11.1011
▁rid	-11.1014
▁slot	-11.1025
▁Ear	-11.103
▁Af	-11.1041
▁eng	-11.1044
▁Gabriel	-11.1056
▁ution	-11.1056
▁exhaust	-11.1056
op	-11.1056
▁breed	-11.1056
▁cott	-11.1057
▁Arena	-11.1057
▁Support	-11.1057
▁mutual	-11.1057
▁moderate	-11.1058
▁Hugh	-11.1058
▁Barb	-11.1059
▁Mai	-11.1064
air	-11.1066
▁Fall	-11.1068
Hi	-11.108
▁surve	-11.1081
▁Est	-11.1084
▁mare	-11.1085
▁Dal	-11.1092
▁coat	-11.1092
lim	-11.1094
born	-11.1097
▁belt	-11.1101
▁Kam	-11.1107
look	-11.1107
▁Fort	-11.111
turn	-11.1117
▁rant	-11.1117
▁auction	-11.1129
▁licence	-11.1129
▁Yemen	-11.1129
▁WA	-11.113
▁protein	-11.113
▁1960	-11.113
▁click	-11.113
▁Brother	-11.113
▁Summer	-11.113
▁flavour	-11.113
▁desk	-11.1131
▁Glo	-11.1132
▁Talk	-11.1132
▁Seven	-11.1134
▁Tig	-11.1134
▁Pier	-11.1137
▁Indu	-11.114
▁grade	-11.1143
▁IN	-11.1155
▁Ell	-11.1158
▁25,	-11.1173
bo	-11.1182
timid	-11.1183
▁NO	-11.1193
▁Cli	-11.1196
▁bla	-11.1198
▁accompanied	-11.1203
▁revolution	-11.1203
▁tunnel	-11.1203
▁spoon	-11.1203
▁robust	-11.1203
▁Exec	-11.1203
▁Welsh	-11.1203
▁ugal	-11.1204
▁carpet	-11.1204
inch	-11.1205
▁approximate	-11.1205
▁fiction	-11.1205
▁gentle	-11.1205
▁Hindu	-11.1206
▁Know	-11.1206
ie	-11.1208
▁4,	-11.1209
49	-11.1215
AF	-11.1217
ant	-11.1225
▁attac	-11.1234
ee	-11.1245
lo	-11.1247
cur	-11.1249
▁Ren	-11.1251
▁Za	-11.1256
▁SE	-11.1262
18	-11.1265
▁classified	-11.1278
▁entrepreneur	-11.1278
▁Expert	-11.1278
▁sweat	-11.1278
▁nutrition	-11.1278
▁Kelce	-11.1278
▁Ocean	-11.1278
▁authentic	-11.1278
▁Vote	-11.1278
▁rolled	-11.1279
▁berry	-11.1279
▁Protect	-11.1279
▁intent	-11.1282
▁NY	-11.1283
▁án	-11.1283
14	-11.1284
▁roy	-11.1284
gu	-11.1291
▁Gau	-11.1293
▁rebound	-11.1293
▁Run	-11.1295
▁dump	-11.1299
▁cert	-11.13
▁subsi	-11.1301
▁evolve	-11.1301
▁syn	-11.1313
▁Mat	-11.1318
▁2018.	-11.1324
▁distribution	-11.1353
▁lobby	-11.1353
▁referee	-11.1353
▁crop	-11.1353
augu	-11.1354
▁theater	-11.1354
▁ru	-11.1358
▁yl	-11.1359
▁Fish	-11.1361
▁Fa	-11.1371
▁UP	-11.1378
▁endure	-11.138
▁Tar	-11.1387
Lago	-11.1397
Why	-11.1403
▁GB	-11.1404
edic	-11.1412
▁nest	-11.1416
iv	-11.1419
▁Fo	-11.1422
▁rat	-11.1425
▁cousin	-11.1429
▁arity	-11.1429
▁moist	-11.1429
▁Ahmed	-11.1429
▁audio	-11.1429
▁vocal	-11.143
▁Rodri	-11.143
▁Flor	-11.143
▁Oak	-11.1432
▁Camp	-11.1441
▁meter	-11.1444
▁Tan	-11.1446
▁Duk	-11.1448
▁Come	-11.145
▁rez	-11.1465
▁liner	-11.1469
▁dash	-11.1476
play	-11.1476
▁Amb	-11.1477
made	-11.1482
new	-11.1498
▁execution	-11.1505
▁munition	-11.1505
▁rehab	-11.1505
▁Professor	-11.1505
▁equivalent	-11.1505
▁innocent	-11.1505
▁Ronald	-11.1506
▁Trav	-11.1506
▁cruel	-11.1506
▁LGBTQ	-11.1507
▁utter	-11.1507
▁illus	-11.1507
▁Pol	-11.1508
▁Rail	-11.1509
▁asi	-11.1514
▁tum	-11.1521
atr	-11.1524
▁coup	-11.1537
over	-11.1537
▁Ti	-11.1541
▁ue	-11.1549
▁igh	-11.1551
▁5.	-11.1553
tic	-11.1554
▁£4	-11.1557
war	-11.1559
▁Ice	-11.1559
▁8.	-11.1564
▁cake	-11.157
▁entrance	-11.1582
▁Capital	-11.1582
▁discipline	-11.1582
▁radi	-11.1583
▁riding	-11.1583
▁Broad	-11.1584
▁acle	-11.1584
▁drain	-11.1585
▁Hanna	-11.1586
▁quan	-11.1588
▁Nicola	-11.159
▁gal	-11.1592
▁dip	-11.1595
▁corn	-11.1598
▁17,	-11.1603
▁ili	-11.1607
▁PC	-11.1617
▁augh	-11.1625
▁ox	-11.1635
▁Kal	-11.1644
urren	-11.165
27	-11.1652
▁Venezuela	-11.1659
FirstPublished	-11.1659
▁chamber	-11.1659
▁Craig	-11.1659
▁froze	-11.166
▁lawful	-11.166
▁oven	-11.1661
▁Knight	-11.1663
▁crush	-11.1663
▁woke	-11.1664
▁Much	-11.167
▁napp	-11.1671
▁Base	-11.1673
▁Deb	-11.1677
▁ched	-11.1681
tray	-11.1683
▁mart	-11.1695
▁Rama	-11.1706
▁flip	-11.1709
www	-11.1711
▁Set	-11.1723
▁hurricane	-11.1737
▁suspicion	-11.1737
▁pixel	-11.1737
▁explicit	-11.1738
▁memoir	-11.1738
▁regulate	-11.1739
▁Shaw	-11.1739
▁Tali	-11.1741
▁affirm	-11.1745
▁Poll	-11.1751
▁16,	-11.1754
▁melt	-11.1756
▁forth	-11.1757
▁Had	-11.1758
▁orbit	-11.1764
▁Hart	-11.1776
▁emo	-11.1784
left	-11.1791
riev	-11.1792
▁heal	-11.1792
▁obli	-11.1797
▁hya	-11.1812
der	-11.1816
▁etitor	-11.1816
▁grocer	-11.1816
▁ption	-11.1816
▁cycling	-11.1816
▁patch	-11.1817
▁Azerbaijan	-11.1817
▁Mak	-11.1819
▁boo	-11.1819
▁thus	-11.1821
▁cheat	-11.1822
doz	-11.1823
▁porn	-11.1824
▁proven	-11.183
▁III	-11.1835
▁eta	-11.1842
=	-11.1847
▁44	-11.1848
75	-11.1849
au	-11.185
▁Gal	-11.1853
▁tig	-11.1854
▁Hon	-11.1861
▁Ana	-11.1872
▁Bro	-11.1875
▁rag	-11.1881
▁Nicol	-11.189
▁mode	-11.1894
5,000	-11.1895
▁incen	-11.1895
▁Eagle	-11.1896
▁Stewart	-11.1896
▁triumph	-11.1896
▁ubsequently	-11.1896
▁glasses	-11.1896
▁phrase	-11.1896
▁DNA	-11.1896
▁Leicester	-11.1897
▁Travel	-11.1897
▁Blink	-11.1897
▁flame	-11.1898
▁Hold	-11.1899
▁neutral	-11.1899
▁spray	-11.19
▁Furth	-11.1902
▁Rick	-11.1903
▁Kill	-11.1905
▁fic	-11.1906
▁RB	-11.1907
▁Bern	-11.1907
▁á	-11.1908
▁rack	-11.1908
22	-11.1911
Bri	-11.1918
▁Bil	-11.192
ers	-11.1921
ard	-11.1922
▁Eth	-11.1938
▁ero	-11.1941
q	-11.195
▁TI	-11.1954
▁pant	-11.1955
99	-11.196
▁PG	-11.1961
▁dee	-11.1965
ey	-11.1966
▁Queens	-11.1972
▁Sussex	-11.1976
▁insula	-11.1976
▁drum	-11.1976
▁stepping	-11.1976
▁Build	-11.1976
▁adventure	-11.1977
▁streak	-11.1978
▁Abbott	-11.1978
▁raz	-11.1979
▁bul	-11.1979
▁Near	-11.198
▁colon	-11.1981
ine	-11.1981
▁tack	-11.1981
▁corr	-11.1983
▁ndar	-11.1984
▁gh	-11.1992
▁stan	-11.2005
▁Gro	-11.201
oh	-11.2013
▁tors	-11.2013
▁erie	-11.2013
▁Tin	-11.205
▁rav	-11.2052
▁$10	-11.2054
▁2011	-11.2055
▁Bureau	-11.2056
▁eclipse	-11.2056
▁statistic	-11.2056
▁bankrupt	-11.2056
▁consent	-11.2056
▁fu	-11.2057
▁intimate	-11.2057
▁Steel	-11.2057
▁ethnic	-11.2058
▁foul	-11.2058
▁10%	-11.2058
escript	-11.206
pict	-11.2064
olish	-11.2066
▁2,000	-11.2071
▁Wei	-11.208
▁vert	-11.2081
tali	-11.2092
▁vib	-11.2092
▁tern	-11.2094
▁bra	-11.2104
▁gi	-11.2112
head	-11.2112
▁Bon	-11.2129
▁Campbell	-11.2137
▁Caribbean	-11.2137
▁bronze	-11.2137
▁pepper	-11.2138
▁quake	-11.2138
▁rapper	-11.2138
▁buck	-11.2138
▁Financial	-11.2138
▁Story	-11.2138
▁accomplish	-11.2138
▁crisp	-11.2138
▁passionate	-11.2138
▁poet	-11.2139
▁bly	-11.2139
▁indus	-11.2139
▁Bush	-11.2139
▁comedian	-11.214
▁gri	-11.2143
▁Fred	-11.2148
▁bor	-11.2149
▁Nel	-11.2154
▁worthy	-11.2158
▁IC	-11.216
▁47	-11.2163
▁nell	-11.2165
-3	-11.2167
▁í	-11.217
▁structur	-11.2178
▁Gav	-11.2179
▁benefi	-11.2183
▁rod	-11.2188
▁acre	-11.219
▁28,	-11.2193
▁tint	-11.2197
night	-11.2198
url	-11.2202
down	-11.221
▁Start	-11.2214
▁Sho	-11.2214
▁autumn	-11.2219
▁fierce	-11.222
▁uniform	-11.222
▁Dev	-11.222
▁Kohl	-11.222
▁Swiss	-11.222
▁THE	-11.222
▁Alam	-11.2221
▁magn	-11.2221
▁acted	-11.2222
▁Gregor	-11.2222
▁oli	-11.2222
▁escalate	-11.2222
▁HP	-11.2223
▁gig	-11.2224
▁tenure	-11.2224
▁Keep	-11.2227
▁26,	-11.2227
▁ises	-11.2229
▁cale	-11.2229
▁vey	-11.2234
▁Gene	-11.2237
▁Anti	-11.2238
▁alien	-11.2242
▁ampl	-11.2248
▁RS	-11.2252
▁Ei	-11.2252
pro	-11.2257
▁Stu	-11.2259
▁thy	-11.2265
del	-11.227
▁tel	-11.227
▁anne	-11.2273
ա	-11.2288
enj	-11.2291
▁och	-11.2298
▁burg	-11.23
▁column	-11.2302
▁hampton	-11.2302
▁borough	-11.2302
▁explosive	-11.2303
▁scientific	-11.2303
▁NSW	-11.2304
▁liest	-11.2304
▁Connect	-11.2304
▁mature	-11.2305
▁lump	-11.2306
▁Box	-11.2307
▁fulfill	-11.2308
▁Arc	-11.2322
▁nose	-11.2323
▁rub	-11.2325
▁Tha	-11.2328
▁reign	-11.2336
▁41	-11.2338
era	-11.2346
▁cult	-11.2353
which	-11.236
▁Oz	-11.2361
▁reci	-11.2367
▁fo	-11.2372
▁2004	-11.2377
▁Kol	-11.2378
▁Hur	-11.2378
▁terr	-11.2378
▁measur	-11.238
▁Fede	-11.2385
▁Illinois	-11.2385
▁pectacular	-11.2385
▁bacteria	-11.2386
▁logist	-11.2386
▁Yorkshire	-11.2386
▁thorough	-11.2386
▁ouri	-11.2386
▁swap	-11.2386
▁awful	-11.2388
▁endous	-11.2388
Ye	-11.2393
esse	-11.2396
▁RA	-11.2441
▁stern	-11.2443
28	-11.2444
Isra	-11.2444
president	-11.2444
▁ory	-11.245
▁Kris	-11.2455
▁fantas	-11.2469
▁incumbent	-11.2469
▁soccer	-11.2469
iabete	-11.247
▁6.	-11.247
▁Region	-11.247
▁labour	-11.247
▁chancellor	-11.247
▁preserve	-11.2473
▁vibe	-11.2478
▁pel	-11.2486
▁Memo	-11.249
▁dealer	-11.2496
US	-11.2496
▁ello	-11.2497
▁Coll	-11.2498
▁dual	-11.2511
▁rip	-11.2519
▁9.	-11.2522
▁yea	-11.2527
▁+	-11.2544
▁pile	-11.2545
▁Too	-11.2551
▁elicious	-11.2554
▁juror	-11.2554
▁threshold	-11.2554
▁annou	-11.2554
▁flew	-11.2554
▁Verstappen	-11.2555
▁hyper	-11.2555
▁leather	-11.2555
▁UCL	-11.2555
▁hush	-11.2556
▁Place	-11.2556
▁compound	-11.2556
▁Indig	-11.2557
▁Eight	-11.2557
▁grip	-11.2558
▁Money	-11.2559
▁Bloom	-11.2559
▁prise	-11.256
▁Nazi	-11.2561
Not	-11.2564
▁bras	-11.2564
▁Dog	-11.2567
▁arr	-11.2569
▁spec	-11.2573
▁21,	-11.2582
▁ET	-11.2583
▁30,	-11.2602
▁Sim	-11.2606
century	-11.2614
▁pac	-11.2616
▁Eve	-11.2627
▁onia	-11.2633
▁scholar	-11.264
▁է	-11.264
▁urvival	-11.264
▁drought	-11.264
▁glad	-11.264
▁conventional	-11.264
▁Aston	-11.264
▁awkward	-11.264
▁guitar	-11.264
▁$4	-11.264
▁deva	-11.2641
▁Baker	-11.2641
▁poison	-11.2642
pa	-11.2645
▁Coul	-11.2647
▁Serb	-11.2648
▁lemon	-11.2648
▁tempo	-11.2648
70	-11.2649
▁etz	-11.2657
▁55	-11.2664
")	-11.267
▁brows	-11.267
▁ador	-11.2675
mph	-11.2678
temp	-11.2689
13	-11.2697
▁19,	-11.2699
party	-11.2702
▁Kra	-11.2715
▁15-	-11.2716
▁8,	-11.2726
▁torture	-11.2726
▁concrete	-11.2726
▁kovic	-11.2726
▁compass	-11.2726
▁horrific	-11.2727
▁harsh	-11.273
luc	-11.273
▁22,	-11.273
fi	-11.2731
▁occupied	-11.2732
▁Deep	-11.2733
▁Sound	-11.2736
▁Hal	-11.2737
▁£10	-11.274
▁sch	-11.2741
▁forgive	-11.2743
▁fr	-11.2743
ma	-11.2744
▁midst	-11.2748
▁nur	-11.2748
▁ros	-11.2752
▁ken	-11.276
▁IM	-11.2769
▁IA	-11.2781
pend	-11.279
▁2007	-11.2795
▁sculpt	-11.2806
▁Environment	-11.2813
▁Jazeera	-11.2813
▁Program	-11.2813
▁Record	-11.2813
▁communicate	-11.2813
▁immense	-11.2813
▁reckon	-11.2813
▁interrupt	-11.2813
▁Chancellor	-11.2814
▁astro	-11.2814
▁rance	-11.2814
▁triple	-11.2816
▁1.5	-11.2816
▁Massa	-11.2821
▁nack	-11.2826
lativ	-11.2826
▁lyric	-11.2827
▁Luca	-11.2831
RE	-11.2833
▁Marc	-11.2833
dis	-11.2841
▁reopen	-11.285
▁deck	-11.2851
▁Des	-11.286
▁Hot	-11.2864
90	-11.2874
world	-11.2875
▁120	-11.2875
imilar	-11.2881
▁Ale	-11.2886
ի	-11.2893
▁execute	-11.2901
▁glimpse	-11.2901
▁lihood	-11.2901
▁semitism	-11.2901
▁concede	-11.2901
▁perceive	-11.2901
▁weaken	-11.2902
▁Opera	-11.2903
▁ular	-11.2907
▁euro	-11.2913
▁Bond	-11.2913
▁15,	-11.2915
vise	-11.2919
▁tang	-11.2931
▁Zu	-11.2933
▁App	-11.2937
▁Amend	-11.2939
▁cred	-11.294
▁CI	-11.2947
▁66	-11.2949
▁HD	-11.2957
▁steam	-11.2963
▁ash	-11.2977
ank	-11.2983
•	-11.2989
▁politan	-11.2989
▁relent	-11.2989
▁consumption	-11.2989
▁bunch	-11.2989
▁athletic	-11.299
▁helpful	-11.299
▁nomy	-11.2995
▁endum	-11.2996
▁tender	-11.2997
▁refresh	-11.3
▁bias	-11.3001
▁Thor	-11.3004
▁"[	-11.3007
▁Cost	-11.3008
▁PI	-11.3018
▁Bara	-11.3022
fy	-11.3034
21	-11.304
▁fleet	-11.3043
▁Tak	-11.3044
▁11,	-11.3049
second	-11.3052
▁att	-11.3066
▁50-	-11.3066
▁titled	-11.3069
▁bite	-11.3072
▁web	-11.3072
Writ	-11.3075
\">	-11.3076
▁notorious	-11.3078
▁rookie	-11.3078
▁subscription	-11.3078
▁precise	-11.3078
▁gium	-11.3078
▁Kejriwal	-11.3079
▁confuse	-11.3079
▁Point	-11.3079
▁blog	-11.3079
▁exceptional	-11.3081
▁buster	-11.3082
▁IS	-11.3083
▁DJ	-11.3084
▁idor	-11.3087
▁mentor	-11.3091
▁Cow	-11.3096
▁24,	-11.3097
that	-11.3102
▁nin	-11.311
▁stain	-11.3144
key	-11.3156
row	-11.3162
▁whisk	-11.3168
▁premise	-11.3168
▁treasure	-11.3169
ntelli	-11.3169
▁iola	-11.317
▁legitimate	-11.317
▁absorb	-11.3171
▁flaw	-11.3171
▁Mick	-11.3174
▁Juan	-11.3179
▁mill	-11.318
▁Chang	-11.3182
▁zo	-11.3188
▁holder	-11.3189
▁Fam	-11.3201
La	-11.3204
▁FL	-11.3204
▁ED	-11.3205
▁cra	-11.3209
▁Gam	-11.3212
du	-11.3214
▁ican	-11.3219
▁mir	-11.322
▁dro	-11.3224
▁till	-11.323
prison	-11.3233
▁24-	-11.3245
▁whil	-11.3245
▁Kid	-11.3248
▁ref	-11.3248
95	-11.3257
▁Margaret	-11.3259
▁Respon	-11.3259
▁ambulance	-11.3259
▁fertil	-11.326
▁enemy	-11.3261
▁bizarre	-11.3261
▁grey	-11.3261
▁modest	-11.3262
▁Friend	-11.3263
▁ordinator	-11.3263
▁Break	-11.3263
▁Auto	-11.3264
teer	-11.3264
▁glam	-11.3264
▁extract	-11.3268
win	-11.327
▁Ut	-11.3277
▁droid	-11.3278
▁Maha	-11.3295
▁Hand	-11.3297
claim	-11.3325
55	-11.3326
▁3-	-11.3328
Now	-11.3329
▁Wol	-11.3333
▁Gri	-11.3336
▁List	-11.3343
▁predecessor	-11.3351
▁encampment	-11.3351
▁ituency	-11.3351
▁Control	-11.3351
▁100%	-11.3353
▁Mull	-11.3356
▁leap	-11.3361
▁raj	-11.3365
▁voy	-11.3366
▁Raja	-11.3366
nguish	-11.3387
▁Hil	-11.339
▁shy	-11.3407
▁É	-11.3408
▁lon	-11.3414
billion	-11.3418
▁ass	-11.3421
who	-11.3422
▁Noth	-11.3423
ltima	-11.3427
▁£6	-11.343
▁Cann	-11.3436
▁pizza	-11.3444
▁Emir	-11.3444
▁vel	-11.3451
▁Inc	-11.3454
▁FO	-11.3455
▁Dh	-11.3455
▁VO	-11.3456
-20	-11.3456
▁pole	-11.3457
big	-11.346
▁Hud	-11.3464
▁pine	-11.3464
▁Chen	-11.3466
▁proto	-11.347
▁Mag	-11.3484
▁$6	-11.3489
▁10,	-11.3494
▁Fla	-11.3504
▁cru	-11.3505
mega	-11.3511
▁tooth	-11.3517
▁tout	-11.3518
▁mechan	-11.3536
▁thrive	-11.3538
▁principal	-11.3538
▁Hurricane	-11.3538
▁hammer	-11.3539
▁Wolf	-11.3539
▁passage	-11.3541
▁queen	-11.3542
▁mug	-11.3543
▁rider	-11.3546
▁Christi	-11.3548
▁tani	-11.3548
▁Lang	-11.355
▁Emb	-11.3551
▁CB	-11.3554
▁Rath	-11.3554
▁illy	-11.3555
▁nab	-11.3558
▁ters	-11.3558
▁esco	-11.3563
si	-11.3567
▁mit	-11.3568
▁Toro	-11.3568
▁Ve	-11.3574
▁bother	-11.3577
▁Brent	-11.3587
▁ara	-11.359
▁Band	-11.3596
bi	-11.3598
▁nut	-11.3602
▁2025,	-11.361
fill	-11.362
▁Stat	-11.3621
▁31,	-11.3624
▁ket	-11.3627
ient	-11.3629
▁villa	-11.3629
▁Cap	-11.363
▁1997	-11.3631
▁conso	-11.3631
▁worsen	-11.3632
▁Singapore	-11.3632
▁arena	-11.3632
▁aggression	-11.3633
▁isolate	-11.3633
▁Thou	-11.3633
▁ICC	-11.3635
▁ub	-11.3635
▁glow	-11.3636
▁trait	-11.3637
Let	-11.3638
▁lion	-11.3642
▁Joy	-11.3647
▁lever	-11.3668
▁20,	-11.3668
42	-11.367
▁jam	-11.3676
ash	-11.3678
▁homer	-11.3684
▁rel	-11.3694
▁fi	-11.3699
▁13,	-11.3701
▁bou	-11.3701
jo	-11.3708
▁AD	-11.3726
▁2001	-11.3727
▁ESPN	-11.3727
▁introduction	-11.3727
▁Klopp	-11.3727
▁Liv	-11.3727
▁Colombia	-11.3727
▁hatter	-11.3728
▁agher	-11.3728
▁Dream	-11.3728
▁20%	-11.3729
▁Drive	-11.373
▁Pack	-11.3731
▁Collin	-11.3731
▁Should	-11.3731
▁seeker	-11.3731
▁boil	-11.3732
▁phy	-11.3735
!'	-11.3737
▁Jud	-11.3749
▁vol	-11.3749
▁rides	-11.3754
▁1-0	-11.3758
Pa	-11.3775
-2	-11.3782
▁taxi	-11.3784
hit	-11.3789
▁Aid	-11.3794
mile	-11.3797
▁17-	-11.381
▁Pas	-11.3816
▁ven	-11.3817
▁inson	-11.3817
▁phenomen	-11.3821
▁Assist	-11.3823
▁Nathan	-11.3824
▁sacrifice	-11.3824
▁insult	-11.3824
▁chronic	-11.3824
▁ppy	-11.3825
▁wept	-11.3825
▁horn	-11.3826
▁cafe	-11.3826
▁cheek	-11.3827
▁highway	-11.3827
▁Hor	-11.383
▁ior	-11.3835
▁Dead	-11.3836
▁9,	-11.3844
▁43	-11.3855
▁Mou	-11.3861
▁Ca	-11.3865
**	-11.3883
▁Mu	-11.3886
▁Por	-11.389
org	-11.389
▁lum	-11.3891
rt	-11.3892
shirt	-11.3894
most	-11.3897
ann	-11.391
▁16-	-11.3911
▁nuts	-11.3917
ignifica	-11.392
▁excuse	-11.392
▁religi	-11.392
▁surpass	-11.392
▁shield	-11.392
hu	-11.3921
▁Nigel	-11.3921
▁wreck	-11.3921
▁Emerge	-11.3921
▁judicial	-11.3921
▁Motor	-11.3922
▁gorge	-11.3922
▁acid	-11.3923
▁Coach	-11.3923
▁Arr	-11.3927
▁Dame	-11.3933
▁Mass	-11.3934
▁Haa	-11.3941
▁ev	-11.3943
▁2-1	-11.3943
▁pala	-11.3945
▁exempt	-11.3946
▁Ath	-11.3946
▁Em	-11.3946
▁Gate	-11.395
▁Lab	-11.3952
▁polis	-11.3956
▁Age	-11.3957
▁BC	-11.3967
rv	-11.3969
▁myth	-11.3986
politic	-11.3987
Don	-11.3989
true	-11.3991
▁rut	-11.3993
Even	-11.3994
▁IR	-11.3997
ry	-11.3999
▁raw	-11.4002
▁pas	-11.4015
ly	-11.4016
▁Lloyd	-11.4018
▁corporation	-11.4018
▁gesture	-11.4018
▁ankle	-11.4018
▁ku	-11.4019
▁ucker	-11.4019
▁haunt	-11.4019
▁Latino	-11.402
▁nuel	-11.4022
▁Person	-11.4022
▁Trade	-11.4022
▁embark	-11.4022
▁gross	-11.4024
▁gage	-11.4026
▁whip	-11.4026
▁Shin	-11.4028
▁bro	-11.4031
ustom	-11.4032
▁ace	-11.406
▁Rex	-11.4062
ay	-11.4067
▁quel	-11.4071
▁2002	-11.4073
▁Jais	-11.4081
▁Fu	-11.4088
▁teas	-11.409
First	-11.4091
quarter	-11.4091
deem	-11.4092
▁irri	-11.4092
▁Athletic	-11.4117
▁Corona	-11.4117
▁Fergus	-11.4117
▁sympath	-11.4117
▁Spence	-11.4117
▁NCAA	-11.4117
▁Dann	-11.4117
▁ethic	-11.4118
▁Member	-11.4118
▁rin	-11.4118
▁minimal	-11.4119
▁Titan	-11.4119
▁spare	-11.4122
▁ía	-11.4122
clude	-11.4122
▁naut	-11.4123
▁array	-11.4124
▁Leon	-11.4131
000,"	-11.4132
▁Prop	-11.414
ec	-11.4149
▁penn	-11.416
▁Dol	-11.4163
tiqu	-11.4165
▁rone	-11.4171
▁Mona	-11.4188
from	-11.4192
good	-11.4196
ddle	-11.4204
▁Lou	-11.421
more	-11.4211
▁Ul	-11.4211
▁Yadav	-11.4217
▁orchestra	-11.4217
▁valuation	-11.4217
▁ում	-11.4217
▁blanket	-11.4217
▁Castle	-11.4217
▁System	-11.4218
▁ulent	-11.4218
▁Partner	-11.4218
▁impression	-11.4218
▁40%	-11.4218
▁Silva	-11.4218
tric	-11.4219
▁Grace	-11.4219
▁jer	-11.422
▁tide	-11.422
▁Clear	-11.4222
▁Ba	-11.4226
></	-11.4227
terio	-11.4228
▁14-	-11.4228
▁rib	-11.4229
▁broker	-11.4229
▁Ch	-11.423
▁UV	-11.423
▁Gab	-11.4233
▁retreat	-11.4236
▁zz	-11.4238
▁Rid	-11.424
let	-11.4242
▁toma	-11.4242
▁Gas	-11.4254
▁WW	-11.4255
▁2016.	-11.4256
▁shi	-11.4263
▁2015,	-11.4268
▁Les	-11.4272
▁76	-11.4279
pre	-11.4279
▁tha	-11.4282
Palestinian	-11.4292
▁12,	-11.4301
▁UA	-11.4306
33	-11.4311
▁expla	-11.4316
▁rarily	-11.4318
▁crunch	-11.4318
▁drome	-11.4318
▁substitute	-11.4319
▁accelerate	-11.4319
▁prince	-11.4319
▁pretend	-11.4319
▁Bharat	-11.432
▁Origin	-11.4322
Kath	-11.4323
▁10,000	-11.4325
▁maid	-11.4326
▁Ant	-11.4326
▁22-	-11.4328
▁condo	-11.4331
▁Plea	-11.4335
▁hra	-11.4336
▁Rain	-11.4338
▁gil	-11.4339
▁grad	-11.434
▁52	-11.4341
▁hawks	-11.4346
▁loo	-11.4351
▁illo	-11.4351
▁Ris	-11.4356
uzzl	-11.4366
▁Mis	-11.437
▁nto	-11.4373
▁Merc	-11.4379
▁pies	-11.4382
▁18-	-11.4385
than	-11.4395
yard	-11.4397
▁0	-11.4399
▁sati	-11.4399
▁(1	-11.4403
▁myr	-11.4403
▁Cho	-11.4409
▁antic	-11.4412
34	-11.4416
▁Nvidia	-11.442
▁Weather	-11.442
▁ucky	-11.442
▁immers	-11.442
▁torial	-11.442
▁propag	-11.4421
▁formation	-11.4421
▁View	-11.4421
▁ller	-11.4421
▁Spot	-11.4424
▁Scar	-11.4427
▁Design	-11.4427
▁Link	-11.4428
▁Zo	-11.4434
▁motive	-11.4435
▁dra	-11.4435
▁vid	-11.4437
ran	-11.4441
▁Slam	-11.4443
100	-11.4447
▁Kil	-11.445
▁Hit	-11.4454
▁tub	-11.4457
▁ix	-11.4462
▁bang	-11.4466
▁Const	-11.4469
los	-11.4475
▁heel	-11.448
▁erman	-11.4488
▁conserv	-11.4491
▁awa	-11.4503
▁shel	-11.4503
▁kov	-11.4515
▁prising	-11.4523
▁scratch	-11.4523
▁uspicious	-11.4523
▁segment	-11.4523
▁shtra	-11.4523
▁annoy	-11.4523
▁Senior	-11.4524
▁cular	-11.4524
▁GPT	-11.4525
▁brick	-11.4526
▁ridiculous	-11.4526
▁ի	-11.4527
▁hydro	-11.4527
arm	-11.4529
▁fever	-11.4532
▁Cub	-11.4532
gen	-11.4534
▁Arti	-11.4539
▁zen	-11.4542
▁DS	-11.4543
▁infla	-11.4546
▁54	-11.4547
▁ute	-11.4556
▁5,000	-11.4559
heav	-11.4563
▁14,	-11.4568
▁Rand	-11.4575
▁Alc	-11.4575
▁Kai	-11.458
▁elle	-11.4589
▁emi	-11.4601
breaking	-11.4602
erb	-11.4602
▁Fre	-11.4607
two	-11.4614
name	-11.462
▁WhatsApp	-11.4627
▁isastrous	-11.4627
▁parallel	-11.4627
▁pharma	-11.4627
▁tupid	-11.4627
▁firefight	-11.4628
flict	-11.4628
▁honey	-11.4628
anger	-11.4628
▁Gulf	-11.4629
▁portrait	-11.4629
▁Golf	-11.4629
▁tamp	-11.4629
▁drunk	-11.463
▁whistle	-11.4631
="	-11.4633
▁Robb	-11.4634
▁merit	-11.4634
▁Ep	-11.4639
▁jab	-11.4639
▁Marco	-11.464
▁trem	-11.4641
vote	-11.465
mat	-11.4651
▁Roe	-11.4651
▁BE	-11.4656
▁zi	-11.4661
▁53	-11.4672
▁eria	-11.4688
▁Rac	-11.4689
-8	-11.469
▁ock	-11.4691
04	-11.4698
▁29,	-11.4699
what	-11.4708
▁bane	-11.4709
ka	-11.4721
38	-11.4723
guardian	-11.4733
▁urgency	-11.4733
▁Phoenix	-11.4733
▁Silver	-11.4733
▁mod	-11.4733
▁Season	-11.4734
▁CAR	-11.4735
▁educate	-11.474
▁Sai	-11.474
▁â	-11.4742
▁lender	-11.4744
▁mud	-11.4751
▁Join	-11.4761
▁cco	-11.4763
▁bri	-11.4763
▁tier	-11.4763
▁23,	-11.4767
▁oka	-11.4769
▁Made	-11.4779
▁25-	-11.4787
ea	-11.4791
▁sect	-11.4793
▁Bha	-11.4796
aw	-11.4811
Russ	-11.4813
▁Quin	-11.4814
?'	-11.4818
▁77	-11.4828
▁Rev	-11.4834
▁constitution	-11.4837
▁plunge	-11.4839
cipal	-11.4839
▁portfolio	-11.4839
▁flock	-11.4839
▁certificate	-11.4839
▁Studio	-11.484
▁bride	-11.484
▁rifle	-11.484
▁Utah	-11.484
▁Review	-11.484
▁Left	-11.4841
hock	-11.4846
▁initiate	-11.4847
▁Eli	-11.4851
▁curb	-11.4853
▁Chap	-11.4853
▁grim	-11.4854
▁LE	-11.4854
▁SP	-11.4858
41	-11.4862
▁Orange	-11.4863
▁endo	-11.4869
▁invent	-11.4871
ր	-11.4875
▁aesthetic	-11.4876
▁NI	-11.4885
85	-11.4885
▁issa	-11.4886
▁ambi	-11.4888
bu	-11.489
▁sake	-11.4891
▁oo	-11.4893
*	-11.4909
▁Pac	-11.4918
degree	-11.4921
▁£7	-11.494
▁IV	-11.494
▁2024:	-11.4942
▁imagi	-11.4946
▁easonal	-11.4946
▁uitable	-11.4947
▁Blair	-11.4947
▁arthy	-11.4947
▁1995	-11.4947
▁washing	-11.4947
▁cautious	-11.4947
▁Abb	-11.4948
▁marine	-11.4948
▁roast	-11.4948
▁Baile	-11.4949
▁Mik	-11.4949
▁Small	-11.495
home	-11.4952
▁coca	-11.4952
▁cont	-11.4953
▁Ring	-11.4954
▁Tyl	-11.4955
▁Bum	-11.4958
▁pathy	-11.4959
▁Mul	-11.4965
▁TM	-11.4965
▁allah	-11.4972
▁rie	-11.4973
▁13.	-11.4985
▁ceased	-11.4986
09	-11.4987
▁wha	-11.4987
▁beef	-11.4989
▁requir	-11.4993
▁SU	-11.4994
▁humi	-11.5003
see	-11.5008
have	-11.5009
har	-11.501
▁Bett	-11.5028
face	-11.503
our	-11.5035
:00	-11.5036
um	-11.5036
▁Ward	-11.5046
▁fe	-11.5048
▁TH	-11.5051
▁blaze	-11.5053
▁convenience	-11.5055
▁waukee	-11.5055
▁monarch	-11.5055
▁fracture	-11.5055
▁1992	-11.5056
▁1994	-11.5056
▁Kashmir	-11.5056
▁strand	-11.5056
▁desert	-11.5056
▁Cruz	-11.5056
▁Match	-11.5057
▁frank	-11.5058
▁arrow	-11.5059
▁spice	-11.5059
▁ón	-11.5059
▁Jama	-11.506
▁grill	-11.5062
▁2006	-11.5064
▁Guy	-11.5064
▁Sign	-11.5065
▁Pic	-11.5066
▁Hell	-11.5072
▁lander	-11.5072
▁Ark	-11.5074
▁af	-11.5083
▁Oli	-11.5083
▁58	-11.509
▁ante	-11.509
ren	-11.5091
▁god	-11.5092
▁Gun	-11.5093
ear	-11.5096
▁tage	-11.5098
▁lac	-11.5111
ó	-11.5113
@	-11.5121
Look	-11.5139
▁Gon	-11.5144
vad	-11.5146
▁norm	-11.5153
▁Baby	-11.5163
▁usiasm	-11.5165
lovak	-11.5165
▁optimist	-11.5165
▁Village	-11.5165
▁spill	-11.5165
▁sheer	-11.5165
▁Visit	-11.5166
▁clever	-11.5167
▁Death	-11.5167
▁Switch	-11.5168
▁lug	-11.5169
▁hypo	-11.5169
▁subscri	-11.517
▁descend	-11.5171
▁2017.	-11.5171
▁PAC	-11.5171
▁pho	-11.5174
▁Nine	-11.5175
▁usive	-11.5175
▁Bash	-11.5178
▁linger	-11.5201
ttar	-11.5203
▁umb	-11.5207
▁Beth	-11.5207
mer	-11.5208
):	-11.521
▁Yan	-11.5211
▁KC	-11.5216
▁izer	-11.5227
▁forum	-11.523
▁ND	-11.5243
Photo	-11.525
Har	-11.5253
Mr	-11.5265
▁Manu	-11.5265
▁etic	-11.5269
team	-11.5276
▁dementia	-11.5276
▁generative	-11.5276
▁tabbing	-11.5276
▁terranean	-11.5276
▁commence	-11.5276
▁prosper	-11.5276
▁Owen	-11.5276
▁random	-11.5276
▁1,200	-11.5277
▁companion	-11.5277
▁Dragon	-11.5277
▁pleasant	-11.5277
▁affiliate	-11.5277
▁Peters	-11.5277
▁Dance	-11.5277
▁Maj	-11.5277
▁stunt	-11.5279
▁brace	-11.5279
▁stack	-11.5281
▁ut	-11.5283
▁MO	-11.5284
▁Truth	-11.5285
Le	-11.529
mp	-11.529
▁shin	-11.5291
▁3,000	-11.5296
▁cope	-11.5296
▁Lam	-11.5298
▁bust	-11.5299
▁tam	-11.5307
);	-11.5308
mul	-11.5321
▁Med	-11.5324
-9	-11.5327
▁1999	-11.5328
▁lib	-11.5338
▁67	-11.5349
▁Bou	-11.535
▁85	-11.5357
▁2003	-11.536
irr	-11.536
solid	-11.5365
▁hydr	-11.5374
▁tus	-11.5379
▁Card	-11.538
kg	-11.5381
▁tar	-11.5381
▁Terr	-11.5381
▁bubble	-11.5389
▁vacation	-11.5389
▁convey	-11.5389
▁psy	-11.5389
▁Payne	-11.5389
▁Magic	-11.5389
▁Limit	-11.5389
▁UFC	-11.5389
▁Arthur	-11.539
▁clue	-11.539
▁carriage	-11.539
▁3-0	-11.539
▁anchor	-11.539
▁Griff	-11.5391
▁pox	-11.5391
▁Check	-11.5391
▁Susan	-11.5392
▁bug	-11.5397
▁Gunn	-11.5397
▁Lei	-11.54
▁McG	-11.54
▁73	-11.5406
▁fum	-11.5406
▁acquisition	-11.5409
fam	-11.5413
▁51	-11.5422
my	-11.5422
..."	-11.5425
▁refund	-11.5425
▁Bey	-11.5428
▁Jin	-11.5435
▁bik	-11.5445
▁Deal	-11.545
▁lend	-11.5455
▁ida	-11.5457
▁Cass	-11.5458
▁AS	-11.546
fe	-11.5464
▁Rut	-11.5465
thi	-11.5474
match	-11.5477
will	-11.5478
▁Stra	-11.5478
memo	-11.5478
▁Tas	-11.549
▁gel	-11.5491
▁ision	-11.5494
mit	-11.55
▁Domin	-11.55
▁Indonesia	-11.5502
▁invitation	-11.5502
▁convenient	-11.5502
▁petrol	-11.5502
▁empire	-11.5502
▁straw	-11.5503
▁1989	-11.5503
▁robber	-11.5503
▁tiff	-11.5503
▁owe	-11.5504
▁evident	-11.5504
▁Else	-11.5504
▁merch	-11.5505
▁pill	-11.5506
▁tally	-11.5506
26	-11.5506
▁BT	-11.551
▁Bus	-11.551
▁50%	-11.5511
▁nud	-11.5511
ahara	-11.5519
▁ogue	-11.552
ep	-11.5521
46	-11.5522
▁vor	-11.5529
▁Wen	-11.5531
▁dri	-11.5539
rbit	-11.5543
▁IL	-11.5547
ound	-11.5555
Th	-11.5555
▁(3	-11.5561
▁IB	-11.5561
▁ky	-11.5566
▁Vik	-11.5573
▁ES	-11.5581
▁bie	-11.5586
govern	-11.5591
44	-11.5594
▁pier	-11.5595
▁TO	-11.5597
▁Sil	-11.5602
▁800	-11.5603
tect	-11.5603
▁CL	-11.5611
64	-11.5613
▁aintenance	-11.5617
▁decisive	-11.5617
▁horizon	-11.5617
▁patriot	-11.5617
▁balloon	-11.5617
▁memorial	-11.5617
▁READ	-11.5617
▁barrel	-11.5617
▁Samuel	-11.5617
▁uration	-11.5617
▁mourn	-11.5618
▁jack	-11.5621
▁buff	-11.5622
▁Math	-11.5622
▁Would	-11.5622
89	-11.5623
▁functional	-11.5623
],	-11.5623
▁Nash	-11.5624
▁bean	-11.5624
▁lee	-11.5624
▁HR	-11.5625
68	-11.5627
▁600	-11.5627
▁freeze	-11.5628
ive	-11.5632
▁Kin	-11.5636
▁Nova	-11.5638
▁ora	-11.5639
▁Bird	-11.5642
▁apple	-11.5643
▁ika	-11.5646
▁lus	-11.5647
▁revenge	-11.5647
▁mono	-11.5652
▁Swan	-11.5658
▁nik	-11.5659
▁USC	-11.5664
mind	-11.5674
48	-11.5683
▁NA	-11.5685
▁toss	-11.5689
From	-11.5707
cru	-11.5708
way	-11.5708
▁persua	-11.5711
▁Rap	-11.5713
va	-11.5725
▁2015.	-11.5733
blockCreatedOn	-11.5733
blockLastUpdated	-11.5733
▁Ticket	-11.5733
▁pundit	-11.5733
▁reiterate	-11.5733
▁taggering	-11.5733
▁splash	-11.5733
▁feud	-11.5733
▁Staff	-11.5734
▁definition	-11.5734
▁spiritual	-11.5734
▁Patriot	-11.5734
▁ING	-11.5735
zz	-11.5735
▁$	-11.5735
▁Serge	-11.5735
▁Sophie	-11.5735
▁Future	-11.5735
has	-11.5735
▁Clair	-11.5736
▁philo	-11.5736
▁Bobb	-11.5737
▁Pea	-11.5737
▁colonial	-11.5738
/@	-11.5738
▁Ruth	-11.5741
▁Full	-11.5744
▁glove	-11.5744
▁trace	-11.5745
▁Ivan	-11.5756
▁encia	-11.5757
▁Nai	-11.5757
▁rov	-11.5761
▁dou	-11.5762
▁alo	-11.5765
▁Cra	-11.5787
▁nerve	-11.5792
▁RI	-11.5794
AI	-11.5794
carce	-11.5794
▁exc	-11.5795
▁Kas	-11.5811
▁AR	-11.5816
host	-11.5818
▁tray	-11.5823
▁OC	-11.5828
▁hol	-11.5829
ibert	-11.5829
▁eras	-11.5833
▁Fil	-11.5838
-12	-11.5844
▁Campaign	-11.5851
▁hurdle	-11.5851
▁steep	-11.5851
Criminal	-11.5851
▁Peace	-11.5851
▁Circu	-11.5851
▁Charge	-11.5852
▁disputed	-11.5852
wh	-11.5852
▁Challenge	-11.5852
▁Round	-11.5853
▁neglect	-11.5854
▁Bit	-11.5857
▁filter	-11.5857
▁Hei	-11.5858
gul	-11.5861
▁metric	-11.5861
▁pian	-11.5861
▁enroll	-11.5863
▁universal	-11.5863
▁Keith	-11.5863
ն	-11.5865
rank	-11.5868
▁dart	-11.587
▁Sala	-11.5871
▁Lane	-11.5873
▁10.	-11.5874
▁Cast	-11.5885
▁AC	-11.5885
▁alum	-11.5895
depress	-11.5905
▁cul	-11.592
▁Toy	-11.5924
ritic	-11.5938
▁oni	-11.5939
▁11.	-11.594
▁72	-11.5943
▁VI	-11.5944
label	-11.5944
▁SI	-11.5953
31	-11.5954
▁luc	-11.5961
▁SW	-11.5969
ological	-11.597
▁owski	-11.597
▁tropical	-11.597
▁usalem	-11.597
▁Smart	-11.597
▁Entertain	-11.597
▁solicit	-11.597
▁calculate	-11.597
▁ferry	-11.5971
▁£100	-11.5971
▁pardon	-11.5971
▁teria	-11.5971
▁Nada	-11.5971
▁aux	-11.5971
▁infant	-11.5971
oxy	-11.5972
▁Olympia	-11.5972
▁dictator	-11.5972
▁Hawk	-11.5972
▁11-	-11.5973
▁ditch	-11.5976
▁fry	-11.5977
▁2-0	-11.5978
▁Think	-11.5979
▁ն	-11.5983
Collect	-11.5984
▁piled	-11.5985
▁jee	-11.5989
▁ura	-11.5992
▁ario	-11.5999
▁2026	-11.6001
Can	-11.6006
01	-11.6007
side	-11.6011
▁Mess	-11.6011
dg	-11.6014
▁borne	-11.6014
▁pp	-11.6018
▁Bene	-11.6019
▁Chop	-11.6024
▁Fat	-11.6027
▁cou	-11.6028
▁epi	-11.6029
▁Thu	-11.6032
minate	-11.6033
▁Pot	-11.6039
▁behave	-11.605
▁tol	-11.6051
58	-11.6054
▁tre	-11.6062
ud	-11.6066
May	-11.6067
rawl	-11.6084
▁Shiv	-11.6085
▁Trafford	-11.6091
▁completion	-11.6091
▁vacuum	-11.6091
▁cision	-11.6091
▁surgeon	-11.6091
▁lodge	-11.6091
▁replica	-11.6091
▁dissent	-11.6091
▁prescription	-11.6091
▁RWA	-11.6091
▁Blake	-11.6092
▁diary	-11.6092
▁ritual	-11.6092
▁operative	-11.6094
▁loop	-11.6095
▁tailor	-11.6096
▁Fight	-11.6096
▁cliffe	-11.6096
▁ghost	-11.6097
▁Dick	-11.6098
▁Rit	-11.6099
▁Sel	-11.61
▁robe	-11.6101
▁Amor	-11.6104
▁mund	-11.6108
▁chin	-11.6109
▁ivo	-11.6114
▁glu	-11.6118
▁Finn	-11.6123
▁Britt	-11.6126
39	-11.6132
gist	-11.6134
▁63	-11.6139
▁Lav	-11.6141
▁Pin	-11.6153
▁Nin	-11.6171
▁$7	-11.6175
▁RE	-11.6177
▁gru	-11.6184
▁bod	-11.6185
quality	-11.6187
control	-11.6187
▁£20	-11.619
▁izers	-11.6191
▁awe	-11.6201
▁navig	-11.6212
▁absent	-11.6212
▁Kardashian	-11.6213
▁priest	-11.6213
▁corona	-11.6213
▁precedent	-11.6213
▁clave	-11.6213
▁Idah	-11.6213
▁Natural	-11.6214
▁censor	-11.6214
▁Wayne	-11.6214
▁globe	-11.6214
▁Shel	-11.6215
▁Class	-11.6215
▁absurd	-11.6215
▁sleeve	-11.6217
▁acco	-11.6218
▁mob	-11.6219
▁surf	-11.622
▁hum	-11.6224
▁tribe	-11.6225
▁Costa	-11.6225
▁Song	-11.6227
there	-11.6229
▁gle	-11.6233
▁Nic	-11.6234
▁Lip	-11.6235
▁pest	-11.6236
▁ER	-11.6237
▁appreci	-11.6239
▁mph	-11.6252
▁RC	-11.6253
▁Alt	-11.6258
▁ori	-11.6259
▁bage	-11.6265
tween	-11.6267
96	-11.6268
mi	-11.6292
line	-11.63
Cric	-11.6301
▁Patt	-11.6307
▁NEW	-11.6315
69	-11.632
can	-11.6324
pur	-11.6327
▁Ay	-11.6329
▁seam	-11.6329
▁BA	-11.6334
▁militia	-11.6336
▁trousers	-11.6336
▁sketch	-11.6336
▁slogan	-11.6336
▁elegant	-11.6336
▁humble	-11.6336
▁lecture	-11.6336
▁queue	-11.6336
▁digest	-11.6336
▁ների	-11.6336
▁eties	-11.6336
▁Crystal	-11.6336
▁Dakota	-11.6336
▁mechanic	-11.6337
▁racket	-11.6337
▁burger	-11.6338
▁Lyon	-11.6339
▁guez	-11.6339
Tod	-11.6341
▁eater	-11.6342
▁tube	-11.6344
▁Dow	-11.6345
▁ugu	-11.6346
▁conductor	-11.6353
▁pu	-11.6356
▁bay	-11.6356
▁Dart	-11.6366
▁lag	-11.6371
inish	-11.6377
▁ria	-11.6379
▁irre	-11.638
▁lob	-11.6383
fa	-11.6388
▁gna	-11.6389
▁Pla	-11.641
▁nak	-11.6412
],"	-11.6412
▁simultane	-11.6417
▁Ta	-11.6425
▁Cau	-11.6426
▁1996	-11.6427
wide	-11.6435
▁pav	-11.6441
uggle	-11.6441
▁62	-11.6442
▁reel	-11.6442
76	-11.6443
five	-11.6445
65	-11.6449
▁CD	-11.646
▁accommodate	-11.6461
▁caucus	-11.6461
▁reunite	-11.6461
▁Shadow	-11.6461
▁ckless	-11.6461
▁hybrid	-11.6461
▁Beyond	-11.6462
▁Ph	-11.6462
▁download	-11.6462
▁Brew	-11.6462
▁drift	-11.6462
▁Crook	-11.6463
▁Multi	-11.6463
▁accent	-11.6463
▁Alexand	-11.6464
▁Pep	-11.6464
▁Flight	-11.6465
▁Buy	-11.6465
▁Domini	-11.6465
▁Pear	-11.6466
▁Saka	-11.6466
▁IVE	-11.6466
▁disgust	-11.6467
▁rope	-11.6467
▁Side	-11.6467
▁Zoo	-11.6467
▁Wick	-11.6468
▁Bab	-11.6472
▁2%	-11.6474
▁Barba	-11.6477
gain	-11.648
▁rage	-11.6488
part	-11.649
▁$20	-11.6493
▁clan	-11.65
▁wr	-11.6504
open	-11.6513
▁Chad	-11.6514
82	-11.6514
▁uk	-11.6517
how	-11.6517
▁scatter	-11.6517
▁Gan	-11.6519
prim	-11.6524
just	-11.6533
▁dys	-11.6539
iter	-11.6546
▁Lott	-11.6547
white	-11.6562
President	-11.6562
three	-11.6562
▁rol	-11.6564
▁iah	-11.6569
▁Bed	-11.6569
Q	-11.657
▁tole	-11.6571
▁clam	-11.6572
200	-11.6573
Of	-11.6573
á	-11.6578
78	-11.6583
▁gl	-11.6586
▁tit	-11.6586
span	-11.6586
▁diamond	-11.6588
▁ophisticated	-11.6588
▁pioneer	-11.6588
▁therapist	-11.6588
▁vigil	-11.6588
▁Front	-11.6588
▁harvest	-11.6588
▁shrink	-11.6588
▁Norwegian	-11.6588
▁marry	-11.6589
▁Norman	-11.6589
▁fluid	-11.6589
trigu	-11.6589
▁Enter	-11.659
▁Trib	-11.6595
▁Kre	-11.6595
rn	-11.6596
▁alloc	-11.6597
▁deepen	-11.6597
▁68	-11.6598
/1	-11.6599
▁Cork	-11.6599
▁Sure	-11.6601
▁(@	-11.6603
▁Jude	-11.6605
▁Product	-11.6606
▁Bee	-11.6608
▁Flo	-11.6612
▁comic	-11.6613
▁zer	-11.6613
▁Dj	-11.6614
66	-11.6615
▁Sid	-11.6618
▁acqui	-11.6621
▁Amit	-11.6625
▁uru	-11.6631
▁conce	-11.6631
erial	-11.6636
▁Chand	-11.6652
▁Kon	-11.6654
Co	-11.6658
▁taker	-11.6662
▁Rug	-11.6666
▁Born	-11.667
▁FI	-11.6679
video	-11.669
▁iso	-11.6691
risk	-11.6691
▁Maz	-11.6692
▁tire	-11.6693
four	-11.6693
▁Bak	-11.6706
▁Abdul	-11.6715
▁fasci	-11.6715
ceremoni	-11.6716
▁Pedro	-11.6716
▁patrol	-11.6716
▁tattoo	-11.6716
▁Standard	-11.6716
▁fascinating	-11.6716
▁Rescue	-11.6717
▁deserved	-11.6717
▁fancy	-11.6717
▁Ultra	-11.6718
▁Thame	-11.672
▁lipped	-11.672
▁եւ	-11.6721
▁leaf	-11.6721
▁poly	-11.6722
▁activate	-11.6723
▁Pick	-11.6724
▁100,000	-11.6724
▁metro	-11.6724
Mo	-11.6725
▁13-	-11.6735
▁mild	-11.6735
▁Belle	-11.6736
06	-11.6738
▁diver	-11.674
Fi	-11.6743
▁Monte	-11.6745
sex	-11.6749
▁57	-11.675
▁£9	-11.6751
▁ardo	-11.6751
▁disti	-11.6753
▁lec	-11.6753
▁geon	-11.6755
▁TA	-11.6763
▁duck	-11.6772
mar	-11.6775
▁dispar	-11.6775
▁je	-11.6776
▁Rebe	-11.6777
▁trim	-11.6777
▁Cru	-11.6788
pone	-11.6788
▁Cold	-11.6789
▁hara	-11.6797
▁21-	-11.6808
▁CS	-11.6815
jec	-11.6817
▁lawn	-11.6819
check	-11.682
Hama	-11.6822
▁SC	-11.6831
za	-11.6832
▁2005	-11.6834
best	-11.6835
naly	-11.6837
▁stabil	-11.6845
▁sheriff	-11.6846
▁Cardinal	-11.6846
▁Punjab	-11.6846
▁obstacle	-11.6846
▁Yousaf	-11.6846
▁hazard	-11.6846
▁lavish	-11.6846
▁mineral	-11.6846
▁avage	-11.6846
▁Lincoln	-11.6846
▁Reagan	-11.6846
▁60%	-11.6847
▁Holiday	-11.6847
▁shaw	-11.6848
▁Together	-11.685
▁Kean	-11.685
▁pient	-11.685
▁Store	-11.6854
▁lud	-11.6857
▁logo	-11.6857
▁damn	-11.6869
▁£8	-11.6869
▁PP	-11.6871
▁Meet	-11.6871
▁uro	-11.6879
▁cess	-11.6886
32	-11.6899
▁nath	-11.6907
▁mot	-11.6914
▁$9	-11.6915
alenti	-11.6928
▁Isa	-11.6928
57	-11.693
▁elli	-11.6932
▁AM	-11.6933
▁Natal	-11.6944
▁wen	-11.6947
▁Cou	-11.6949
-10	-11.6953
54	-11.6955
▁Got	-11.6956
▁26-	-11.696
▁VA	-11.696
▁2011,	-11.6961
▁dine	-11.6967
▁71	-11.6976
▁Foot	-11.6977
▁Chamber	-11.6977
▁instinct	-11.6977
▁staple	-11.6977
▁tresses	-11.6977
▁Snap	-11.6977
▁fool	-11.6978
▁elaborate	-11.6978
▁occupation	-11.6979
▁Father	-11.6979
▁Winter	-11.698
▁prevail	-11.698
▁bulk	-11.6982
▁voc	-11.6982
▁27-	-11.6984
▁Mali	-11.6984
▁Prof	-11.6988
▁doom	-11.699
▁Sale	-11.6993
▁nary	-11.6998
▁veto	-11.7003
▁Reg	-11.7004
mic	-11.701
▁56	-11.7011
▁tact	-11.7014
▁TT	-11.7014
▁ila	-11.7016
▁$200	-11.7019
▁gie	-11.7033
74	-11.7036
▁ax	-11.7041
▁Sco	-11.7043
es	-11.7057
▁23-	-11.7064
use	-11.7066
▁12.	-11.707
▁itch	-11.7074
▁64	-11.7078
running	-11.7085
border	-11.7086
▁Cu	-11.7087
ge	-11.7088
▁LG	-11.7088
▁isle	-11.7088
Hav	-11.7089
ak	-11.7095
revive	-11.7102
▁cal	-11.7102
▁hug	-11.711
▁rhythm	-11.711
▁cognitive	-11.7111
▁intervene	-11.7111
▁issippi	-11.7111
▁Somali	-11.7111
▁drown	-11.7111
▁ordination	-11.7111
timu	-11.7111
▁Potter	-11.7111
▁subtle	-11.7111
▁Room	-11.7111
▁Raven	-11.7111
▁shark	-11.7111
▁Label	-11.7111
▁convincing	-11.7112
▁Appeal	-11.7112
▁ovich	-11.7112
▁evaluate	-11.7112
▁ethical	-11.7113
▁Data	-11.7114
▁Ac	-11.7114
▁IND	-11.7115
ga	-11.7116
▁Aldi	-11.7117
ourne	-11.7119
▁EC	-11.712
▁transit	-11.7121
▁Sat	-11.7121
▁gum	-11.7124
▁Bag	-11.7125
▁Connell	-11.7126
▁Train	-11.7129
▁rella	-11.713
▁NG	-11.7131
▁Winn	-11.7133
ib	-11.7134
▁tighten	-11.7141
Pro	-11.7142
▁tast	-11.7144
▁gown	-11.7144
▁$100	-11.7151
ign	-11.7155
▁Wy	-11.7158
▁chy	-11.7169
▁UE	-11.7169
▁towel	-11.7172
▁vest	-11.7173
▁neo	-11.7175
▁Nit	-11.7175
▁guin	-11.7176
▁UC	-11.7187
▁SO	-11.7192
▁Lor	-11.7192
ye	-11.72
▁2008,	-11.7204
gard	-11.7205
Yeah	-11.722
▁2012.	-11.7236
▁Wi	-11.7238
▁zoo	-11.7243
05	-11.7244
▁elephant	-11.7246
▁goodbye	-11.7246
▁marginal	-11.7246
▁ocialist	-11.7246
▁ripping	-11.7246
▁Fraser	-11.7246
▁stiff	-11.7246
▁integration	-11.7246
▁chunk	-11.7246
▁agh	-11.7246
▁curious	-11.7246
▁Stoke	-11.7246
▁massacre	-11.7246
▁spiral	-11.7247
▁80%	-11.7247
▁VAR	-11.7247
▁Chlo	-11.7247
▁snake	-11.7247
▁voluntary	-11.7247
▁wager	-11.7254
▁Hai	-11.7257
▁Roth	-11.7261
▁pig	-11.7262
▁Stay	-11.7263
▁2014.	-11.7263
▁wig	-11.7264
▁40-	-11.728
▁Web	-11.7282
▁scorer	-11.7284
▁Pes	-11.7284
eptic	-11.7289
▁accele	-11.7292
▁74	-11.7296
eh	-11.7297
▁mm	-11.7307
98	-11.7312
Ab	-11.7326
▁SD	-11.7334
linch	-11.7335
02	-11.7341
media	-11.735
9%	-11.7358
Day	-11.7358
▁Ce	-11.7359
37	-11.7361
▁ug	-11.7369
▁1998	-11.7372
▁cel	-11.7372
▁aga	-11.7374
▁cliff	-11.7377
▁Gat	-11.7377
echno	-11.7378
▁asto	-11.7382
▁algorithm	-11.7383
▁aspiration	-11.7383
▁hormone	-11.7383
▁jurisdiction	-11.7383
▁plug	-11.7383
▁powder	-11.7383
▁facial	-11.7383
▁faithful	-11.7383
▁bishop	-11.7383
▁parole	-11.7383
▁escort	-11.7383
▁Callum	-11.7383
▁Logan	-11.7383
▁costume	-11.7383
▁jean	-11.7384
▁yacht	-11.7384
▁bribe	-11.7384
▁icot	-11.7384
▁imminent	-11.7384
▁Quest	-11.7384
▁rious	-11.7384
▁Sharif	-11.7384
▁provoc	-11.7385
▁magnet	-11.7385
▁cotton	-11.7385
▁crumb	-11.7386
▁Chile	-11.7386
▁SCO	-11.7389
▁Eye	-11.7389
▁mack	-11.739
▁cement	-11.7392
▁rina	-11.7396
▁Luck	-11.7398
uck	-11.7399
▁grain	-11.7399
▁Tree	-11.74
▁Stein	-11.7404
35	-11.7411
▁(19	-11.7421
▁constitut	-11.7421
▁Todd	-11.7422
-6	-11.7423
▁weed	-11.7434
87	-11.7435
▁gene	-11.7444
▁oh	-11.7448
▁grap	-11.7467
lav	-11.7468
▁Curt	-11.7468
▁Step	-11.7474
secut	-11.7479
0%	-11.7484
▁Muk	-11.7493
▁$8	-11.7494
▁fli	-11.7494
school	-11.7496
need	-11.7496
kick	-11.7499
▁OR	-11.75
▁avi	-11.7504
▁15.	-11.7506
▁Grad	-11.7509
▁Ipswich	-11.7522
▁historia	-11.7522
▁itories	-11.7522
▁Czech	-11.7522
▁sneak	-11.7522
▁Emmy	-11.7522
▁Leonard	-11.7522
▁wives	-11.7522
▁Draft	-11.7522
▁cluster	-11.7522
▁obesity	-11.7523
▁satisfied	-11.7523
▁bucket	-11.7524
▁anxious	-11.7524
▁verbal	-11.7524
▁1950	-11.7525
▁jaw	-11.7525
▁dragon	-11.7525
▁vanish	-11.7525
▁MAR	-11.7526
▁optic	-11.7526
ax	-11.7526
▁Treat	-11.7527
▁Paw	-11.7528
▁rake	-11.7532
▁Need	-11.7533
▁analys	-11.7539
▁rob	-11.7546
▁Ap	-11.7546
ki	-11.755
▁Fen	-11.7552
▁abh	-11.7554
-5	-11.7555
▁Bat	-11.7563
▁28-	-11.7566
▁Use	-11.7572
▁95	-11.7574
▁Abi	-11.7576
set	-11.7579
▁Mae	-11.7582
-16	-11.7586
▁Bin	-11.7588
▁Image	-11.7596
hid	-11.7596
ff	-11.7598
rich	-11.76
▁BM	-11.7606
▁gr	-11.7609
▁Uni	-11.761
▁Heat	-11.7611
▁Shu	-11.7611
▁2.5	-11.7619
▁Agri	-11.7622
▁slim	-11.7624
▁Dee	-11.7627
red	-11.7629
▁16.	-11.763
▁mor	-11.7631
grad	-11.7639
▁cu	-11.7657
▁Paralympic	-11.7662
▁appliance	-11.7662
▁blunt	-11.7662
▁iracle	-11.7662
▁mpagne	-11.7662
▁plague	-11.7662
▁wrist	-11.7663
▁surrender	-11.7663
▁Tax	-11.7663
▁Communist	-11.7663
ball	-11.7663
▁Factor	-11.7664
▁muni	-11.7664
▁RAM	-11.7664
▁meteor	-11.7664
▁moil	-11.7665
"}],"	-11.7665
▁cigar	-11.7666
▁PT	-11.7668
▁waver	-11.7668
▁catastrophic	-11.7669
ian	-11.7669
▁Emer	-11.767
▁cargo	-11.7671
▁Race	-11.7673
threa	-11.7676
▁Polish	-11.7677
▁Shop	-11.7679
▁Salt	-11.7679
▁NT	-11.7681
▁RK	-11.7681
▁Dunn	-11.7691
▁Core	-11.7694
▁rous	-11.7696
▁83	-11.7696
▁Fast	-11.7697
▁dear	-11.7697
▁Leo	-11.7705
ju	-11.7707
▁ick	-11.7712
▁Stur	-11.7713
▁EM	-11.7718
▁Orb	-11.7723
triev	-11.7728
47	-11.7732
▁Ola	-11.7741
▁gem	-11.7743
▁Nord	-11.7747
▁Lop	-11.7752
▁Shein	-11.7752
Ob	-11.7763
▁€1	-11.7765
list	-11.7775
link	-11.7775
bedroom	-11.7779
great	-11.7779
picture	-11.7781
36	-11.7785
drive	-11.7787
▁MC	-11.779
▁oid	-11.7803
igg	-11.7804
▁libera	-11.7804
▁commute	-11.7805
▁hilarious	-11.7805
▁predator	-11.7805
▁tornado	-11.7805
▁traightforward	-11.7805
▁Pelosi	-11.7805
▁Urban	-11.7805
▁Cruise	-11.7806
▁potatoes	-11.7806
▁Fitz	-11.7806
▁Source	-11.7807
▁intellect	-11.7807
▁twenty	-11.7807
▁Order	-11.7807
▁leverage	-11.7807
▁Anima	-11.7807
▁adv	-11.7808
▁Penny	-11.7808
▁Trent	-11.7809
pik	-11.7809
▁Webb	-11.7811
▁eira	-11.7812
▁recogn	-11.7813
▁ionist	-11.7814
▁$50	-11.7814
▁spire	-11.7816
▁Shang	-11.7816
83	-11.7816
▁Happ	-11.7817
▁dough	-11.7818
▁1%	-11.782
Me	-11.7822
▁IO	-11.7824
▁Ayo	-11.7829
▁Job	-11.7835
▁GT	-11.7836
▁Supp	-11.7839
▁Giu	-11.7848
yp	-11.7849
hop	-11.7854
mis	-11.7855
▁pie	-11.7858
▁femi	-11.786
67	-11.7862
▁stalk	-11.7862
izz	-11.7862
▁etti	-11.7863
▁Gay	-11.7868
▁LI	-11.7875
ield	-11.7875
imb	-11.788
▁ient	-11.7884
▁pi	-11.7885
▁ré	-11.7889
din	-11.7893
▁AA	-11.7896
▁SB	-11.7901
77	-11.7903
them	-11.7905
▁(4	-11.7917
▁£15	-11.7919
▁pronounc	-11.7922
first	-11.7924
▁Ari	-11.7937
vict	-11.7945
▁cave	-11.7949
▁bureau	-11.795
▁ական	-11.795
▁enberg	-11.795
▁sphere	-11.795
▁stereo	-11.795
▁abrupt	-11.795
▁tripped	-11.795
▁Astro	-11.795
▁utton	-11.7951
▁spoil	-11.7952
▁30%	-11.7953
▁CDC	-11.7953
▁Serv	-11.7955
▁LY	-11.7955
▁heft	-11.7956
▁crawl	-11.7957
▁limb	-11.7959
▁Abba	-11.7964
▁gala	-11.7968
▁ICE	-11.7969
▁Sullivan	-11.7971
▁vend	-11.7972
▁կ	-11.7975
▁Brig	-11.7975
▁cub	-11.7976
▁cart	-11.7982
too	-11.7987
▁SS	-11.7987
▁Ster	-11.7987
▁av	-11.7991
ml	-11.7997
▁ordinat	-11.7999
▁Stand	-11.8003
erc	-11.8007
▁Hat	-11.8012
▁Hoo	-11.8016
▁(2	-11.8026
evi	-11.8027
▁gro	-11.8027
▁PO	-11.8027
▁19-	-11.8028
show	-11.803
61	-11.8033
▁99	-11.8039
▁Jai	-11.8043
▁88	-11.8056
43	-11.8058
86	-11.8058
▁wander	-11.8061
umb	-11.8062
▁gran	-11.8072
▁96	-11.8077
▁toast	-11.8079
▁Zi	-11.8091
ien	-11.8093
▁Crow	-11.8094
▁Maguire	-11.8097
։	-11.8097
▁academy	-11.8097
▁compliment	-11.8097
▁seizure	-11.8097
▁hopped	-11.8097
▁recession	-11.8098
▁smith	-11.8098
▁genetic	-11.8098
▁slop	-11.8098
▁1,500	-11.8099
▁Olli	-11.8099
▁15%	-11.8099
88	-11.81
▁evolving	-11.8101
▁brew	-11.8102
▁pike	-11.8103
▁SEC	-11.8104
▁Dawn	-11.8104
▁defect	-11.8104
▁NDA	-11.8105
▁upload	-11.8105
▁kha	-11.8107
▁RL	-11.8108
▁iq	-11.8109
▁Try	-11.811
▁thumb	-11.8111
▁trash	-11.8113
▁Pant	-11.8114
▁hedge	-11.8115
%)	-11.8115
ist	-11.8116
▁foe	-11.8119
▁Ing	-11.8121
▁59	-11.8128
▁forge	-11.8129
▁Privat	-11.813
▁Mora	-11.813
▁ME	-11.8146
▁Fol	-11.8161
▁dial	-11.8165
▁necess	-11.8174
▁Kor	-11.8178
▁ան	-11.8179
▁aut	-11.8184
▁chard	-11.8185
▁Fr	-11.8208
▁quar	-11.8211
om	-11.8211
▁Sit	-11.8214
Shutterstock	-11.822
▁ush	-11.8224
article	-11.8225
▁dex	-11.8226
cu	-11.8238
▁2:	-11.8238
▁trou	-11.8241
▁pra	-11.8245
▁wrest	-11.8246
▁flour	-11.8246
▁ok	-11.8246
▁Pul	-11.8246
▁Citizen	-11.8247
▁Diamond	-11.8247
▁Henderson	-11.8247
▁assurance	-11.8247
▁drastic	-11.8247
▁inhabit	-11.8247
▁bundle	-11.8247
▁evoke	-11.8247
▁Falcon	-11.8247
▁submarine	-11.8247
▁Protest	-11.8247
▁Prima	-11.8247
ick	-11.8247
▁heimer	-11.8248
▁tongue	-11.8248
▁Julian	-11.8248
▁Cancer	-11.8248
▁calor	-11.8249
▁humor	-11.8249
▁Clo	-11.8249
▁radar	-11.8249
Or	-11.8249
▁Better	-11.8249
proxi	-11.825
▁groom	-11.825
▁igan	-11.8251
▁NE	-11.8251
▁soup	-11.8252
▁roar	-11.8252
▁Kirk	-11.8253
▁thunder	-11.8254
▁grind	-11.8255
▁ou	-11.8259
▁knot	-11.8259
▁Cox	-11.8259
▁Host	-11.8263
▁lun	-11.8266
▁trac	-11.8267
Form	-11.8269
▁Third	-11.8271
▁cara	-11.8271
▁essa	-11.8272
▁Mack	-11.8272
▁tu	-11.8283
▁rian	-11.8283
▁gor	-11.8284
non	-11.8284
▁aria	-11.8285
▁waist	-11.8294
▁beam	-11.8298
▁Mind	-11.8302
ceiv	-11.8306
nip	-11.8318
▁rational	-11.8319
▁chal	-11.8326
▁hom	-11.8328
▁Sc	-11.8339
▁tyre	-11.8343
▁Prom	-11.8351
▁Bot	-11.8355
▁ido	-11.836
▁dives	-11.8364
▁aerial	-11.8369
▁82	-11.8369
about	-11.8376
▁79	-11.8379
kill	-11.8388
▁heim	-11.839
▁mic	-11.8392
▁Less	-11.8392
▁lounge	-11.8395
▁Ambassador	-11.8398
▁concession	-11.8398
▁fentanyl	-11.8398
▁settling	-11.8398
▁sheep	-11.8398
▁Reyn	-11.8398
▁candle	-11.8398
▁audition	-11.8398
incide	-11.8398
▁Legend	-11.8399
▁forensic	-11.8399
▁Libra	-11.8399
▁unleash	-11.8399
▁Captain	-11.84
▁Hawaii	-11.84
tagon	-11.84
▁Target	-11.8401
▁DR	-11.8402
▁101	-11.8403
▁Croat	-11.8403
▁visor	-11.8403
▁Lock	-11.8403
bast	-11.8403
▁stump	-11.8404
▁HM	-11.8404
▁tracked	-11.8405
▁Skin	-11.8405
▁Snow	-11.8407
▁essay	-11.8407
▁20,000	-11.8407
▁Mum	-11.8408
▁Hub	-11.841
▁Nap	-11.8413
▁garh	-11.8413
▁Tag	-11.8413
,500	-11.8413
▁caster	-11.8418
▁Stop	-11.842
▁heir	-11.8423
▁Poc	-11.8426
▁ó	-11.8428
▁Yeah	-11.8428
▁nock	-11.8429
▁Move	-11.843
▁Eco	-11.8432
▁MD	-11.8436
▁EI	-11.8441
▁bil	-11.8443
▁Mot	-11.8454
▁barb	-11.8458
▁Hour	-11.8459
▁nox	-11.8469
97	-11.8477
▁thread	-11.8483
▁GC	-11.8486
gar	-11.8499
51	-11.8501
▁inho	-11.8507
▁Rh	-11.8508
▁Put	-11.8523
▁Fac	-11.8526
Image	-11.8526
changing	-11.8526
generation	-11.8526
require	-11.8526
▁itis	-11.8529
plus	-11.8529
▁Bu	-11.8539
take	-11.8549
eopard	-11.855
93	-11.8551
▁acknowl	-11.8552
▁resonate	-11.8552
▁junction	-11.8552
▁amateur	-11.8552
▁Emmer	-11.8552
▁Lynch	-11.8552
▁Eras	-11.8552
▁terrace	-11.8552
▁1987	-11.8553
▁Discover	-11.8553
▁crystal	-11.8553
▁merge	-11.8553
▁hydrate	-11.8553
▁peel	-11.8553
▁default	-11.8554
▁Meh	-11.8554
▁flare	-11.8555
▁Sheikh	-11.8555
esee	-11.8555
92	-11.8556
▁Million	-11.8556
▁rumor	-11.8556
▁Parent	-11.8556
▁Ott	-11.8558
▁piano	-11.856
ommunic	-11.856
▁Ibrahim	-11.8561
▁slug	-11.8562
▁ragg	-11.8562
▁Cape	-11.8562
▁fisher	-11.8562
▁Corr	-11.8564
▁Return	-11.8564
▁Cas	-11.8565
%	-11.8566
By	-11.8566
▁5%	-11.8567
▁Shore	-11.8568
▁veer	-11.857
▁Santo	-11.8572
▁4,000	-11.8574
Lo	-11.8574
que	-11.858
▁Pip	-11.8585
▁fals	-11.8588
Li	-11.8593
▁Alon	-11.86
oul	-11.86
▁Hum	-11.8603
▁Bund	-11.8614
▁Hear	-11.8615
cm	-11.8622
pop	-11.8632
rect	-11.8633
▁61	-11.8634
mploy	-11.8638
▁Lid	-11.864
▁Py	-11.8647
▁vit	-11.865
ok	-11.8653
53	-11.866
▁Fra	-11.8661
▁matt	-11.8661
▁Kos	-11.8662
▁EN	-11.8663
▁ologists	-11.8666
▁Alv	-11.867
ez	-11.8676
▁Kab	-11.8677
▁ark	-11.8679
▁cure	-11.8681
▁1993	-11.8685
▁laun	-11.8687
!!	-11.8688
Did	-11.8692
utical	-11.8706
▁Atkins	-11.8708
▁Commerce	-11.8708
▁boycott	-11.8708
▁clause	-11.8708
▁fatigue	-11.8708
▁phobia	-11.8708
▁pinning	-11.8708
▁queeze	-11.8708
▁shamed	-11.8708
▁spouse	-11.8708
▁ocaust	-11.8708
▁pulse	-11.8708
▁rooftop	-11.8708
▁flourish	-11.8708
▁Stephan	-11.8708
▁Rule	-11.871
▁flatter	-11.871
▁Horse	-11.871
arv	-11.871
▁inventor	-11.8711
▁81	-11.8711
▁ghan	-11.8711
▁Drug	-11.8712
▁Body	-11.8712
▁sofa	-11.8714
▁backpack	-11.8716
▁mac	-11.8719
ensit	-11.8721
▁YO	-11.8722
never	-11.8723
▁conti	-11.8724
▁tino	-11.8733
▁Ade	-11.8733
=""	-11.8736
▁Iron	-11.8739
▁Bio	-11.8739
▁daunt	-11.8741
▁ente	-11.8742
earn	-11.8743
▁Rum	-11.8745
▁Jh	-11.8745
▁brun	-11.8751
▁Bla	-11.8758
▁Donn	-11.8758
je	-11.8764
revent	-11.8773
▁amp	-11.8782
▁Nis	-11.8787
▁mall	-11.8788
▁Sum	-11.8793
ü	-11.8802
af	-11.8804
▁Ib	-11.8805
▁anga	-11.8808
yo	-11.8812
▁ania	-11.8815
▁gies	-11.8817
demi	-11.8829
▁BRI	-11.8831
ty	-11.8832
▁kan	-11.8835
▁equ	-11.8839
John	-11.8841
member	-11.8841
deep	-11.8842
▁dox	-11.8844
▁Sama	-11.8855
ton	-11.8856
▁92	-11.886
min	-11.8862
istoric	-11.8862
▁ntha	-11.8866
▁Glastonbury	-11.8867
▁dispatch	-11.8867
▁gymnast	-11.8867
▁ibilities	-11.8867
▁chemist	-11.8867
▁Hassan	-11.8867
▁humour	-11.8867
▁patron	-11.8867
▁Temple	-11.8867
▁1986	-11.8867
▁Holland	-11.8868
▁Mangi	-11.8869
▁moder	-11.8869
▁fibre	-11.8869
inforce	-11.8869
▁woe	-11.8869
▁marathon	-11.887
▁rador	-11.887
▁Zara	-11.8871
▁Lamb	-11.8871
▁Gut	-11.8871
juven	-11.8872
▁rigor	-11.8873
▁Bath	-11.8874
▁Hug	-11.8875
▁Arn	-11.8875
▁Jor	-11.8876
▁audit	-11.8876
▁Page	-11.8878
▁witch	-11.8879
▁Pai	-11.888
▁NL	-11.8881
▁Wang	-11.8883
▁meme	-11.889
▁dread	-11.8892
ID	-11.8893
▁($1	-11.8895
art	-11.8903
andid	-11.8903
▁sanct	-11.8905
▁sue	-11.8906
▁cer	-11.8916
▁grav	-11.8919
▁hay	-11.8925
ieg	-11.8927
▁ec	-11.8934
cc	-11.8939
lu	-11.8956
▁vie	-11.8958
▁Kee	-11.8963
Mar	-11.8965
her	-11.897
▁1-1	-11.8972
hel	-11.8973
▁Att	-11.8976
?""	-11.8983
lean	-11.8996
stop	-11.8996
▁Plat	-11.8998
▁$30	-11.9004
don	-11.9012
62	-11.9012
urse	-11.9017
last	-11.9017
▁judici	-11.9026
▁Sweeney	-11.9028
▁editorial	-11.9028
▁ivities	-11.9028
▁scramble	-11.9028
▁tribunal	-11.9028
▁bloom	-11.9028
▁tapped	-11.9028
▁lethal	-11.9028
▁resemble	-11.9028
▁pedestrian	-11.9028
▁Sym	-11.9028
▁derail	-11.9028
▁iyeh	-11.9029
▁tolerate	-11.9029
▁Penn	-11.9029
▁baum	-11.9029
▁creep	-11.903
▁cosy	-11.903
▁Worth	-11.9031
▁911	-11.9031
▁Malik	-11.9032
▁Pink	-11.9033
07	-11.9035
▁mantle	-11.9035
▁Berg	-11.9039
▁Rud	-11.9043
▁ppe	-11.9044
▁Dark	-11.9045
▁cram	-11.9048
81	-11.9048
▁Lit	-11.9049
▁Wait	-11.9052
▁Torr	-11.9058
▁bush	-11.9058
Sin	-11.9061
▁Bun	-11.9064
▁anthem	-11.9066
▁inder	-11.9067
bstruct	-11.9068
▁1991	-11.9068
▁Sag	-11.9071
▁Chu	-11.9072
▁Ax	-11.9077
real	-11.9078
▁hab	-11.9084
▁max	-11.9085
▁bart	-11.9085
▁AB	-11.9086
▁bash	-11.9094
▁Wer	-11.9095
pens	-11.9096
Are	-11.9098
east	-11.9099
El	-11.9103
Her	-11.9111
▁Exp	-11.912
▁inch	-11.9121
▁mone	-11.9129
ite	-11.9142
í	-11.9146
▁XI	-11.9153
▁Cara	-11.9155
ip	-11.9166
Most	-11.9168
terror	-11.9171
▁bru	-11.9178
▁depr	-11.9178
some	-11.9186
▁Moo	-11.9186
test	-11.9187
stitutional	-11.9188
seat	-11.9189
▁Uganda	-11.9192
▁Spaniard	-11.9192
▁illennial	-11.9192
▁rubbish	-11.9192
▁nutrient	-11.9192
▁juana	-11.9192
▁Ghana	-11.9192
▁Prison	-11.9193
▁heroes	-11.9193
▁impair	-11.9193
▁1988	-11.9193
▁sensational	-11.9193
▁Classic	-11.9193
▁Profession	-11.9193
▁Dra	-11.9194
▁blond	-11.9194
▁chemo	-11.9194
▁Strike	-11.9194
▁Devon	-11.9195
▁Detail	-11.9195
▁Blood	-11.9196
▁Modern	-11.9196
▁Lime	-11.9197
▁atro	-11.9199
▁Fried	-11.92
▁feld	-11.92
▁38,	-11.9201
▁Mobil	-11.9201
▁Few	-11.9201
▁Cav	-11.9202
▁Zoe	-11.9202
lay	-11.9205
2,000	-11.9207
▁corp	-11.9209
▁EPA	-11.921
▁witt	-11.9211
▁Wire	-11.9214
▁ր	-11.9223
▁Minn	-11.9225
▁GI	-11.9227
▁dessert	-11.9227
▁gard	-11.9227
▁delicate	-11.9229
▁Dad	-11.9231
▁von	-11.9234
▁Scho	-11.9236
▁indig	-11.9238
59	-11.924
▁jit	-11.9241
▁36,	-11.9242
Ma	-11.925
▁Gui	-11.9254
▁hy	-11.9255
▁Cata	-11.9259
▁reset	-11.9259
ru	-11.9261
03	-11.9267
79	-11.9267
car	-11.9269
▁Fun	-11.9275
▁torn	-11.9284
▁ideo	-11.9285
fund	-11.9286
▁Watt	-11.9294
▁vian	-11.9294
▁Acc	-11.9295
rash	-11.9298
Judi	-11.9311
▁Ama	-11.9313
▁Rai	-11.9313
▁34,	-11.9321
▁ego	-11.9322
▁Petro	-11.9329
top	-11.9331
▁dle	-11.9331
speed	-11.9333
perform	-11.9334
▁69	-11.9347
▁flick	-11.9358
corpora	-11.9358
▁Belgian	-11.9359
▁Hundred	-11.9359
▁berries	-11.9359
▁intelligent	-11.9359
▁perfume	-11.9359
▁riculum	-11.9359
▁satisfy	-11.9359
▁steroid	-11.9359
▁lapped	-11.9359
▁dling	-11.9359
Callout	-11.9359
▁Stella	-11.9359
▁homicide	-11.9359
▁mushroom	-11.9359
▁Battle	-11.9359
▁flies	-11.9359
▁vague	-11.9359
▁gaard	-11.9359
▁1979	-11.9359
▁cherish	-11.9359
▁tique	-11.936
▁Daw	-11.936
eteran	-11.9361
▁affection	-11.9361
▁Wheel	-11.9361
▁liga	-11.9363
▁fried	-11.9363
▁Poly	-11.9364
▁Edit	-11.9365
▁90%	-11.9366
▁soak	-11.9366
▁zzi	-11.9366
▁Clean	-11.9367
▁circuit	-11.9367
▁finalist	-11.9367
▁throat	-11.9368
▁եր	-11.9368
▁IFA	-11.937
9.99	-11.9371
▁Ort	-11.9373
▁Zel	-11.9374
▁Mili	-11.9376
ther	-11.9376
▁Word	-11.9377
ugen	-11.9377
▁lly	-11.9377
▁Moro	-11.9379
▁vine	-11.9384
▁Gee	-11.9386
▁socio	-11.9389
-21	-11.9392
▁BR	-11.9401
▁plum	-11.9404
▁(20	-11.9406
▁Ode	-11.9406
▁18.	-11.9409
52	-11.9417
▁thon	-11.9424
▁lavery	-11.9434
▁Vis	-11.9434
▁mel	-11.944
▁Hig	-11.9445
▁chen	-11.9451
▁ome	-11.9456
▁Trip	-11.9464
nch	-11.9476
▁2026.	-11.948
▁spic	-11.9483
tro	-11.9496
­	-11.9502
value	-11.9502
Like	-11.9502
store	-11.9505
west	-11.9511
hide	-11.9512
imate	-11.9519
nk	-11.9523
▁ratio	-11.9523
▁£50	-11.9525
hy	-11.9526
▁Fashion	-11.9528
▁Sainsbury	-11.9528
▁naissance	-11.9528
▁refusal	-11.9528
▁clutch	-11.9528
▁cyclist	-11.9528
▁eagle	-11.9528
▁pillow	-11.9529
▁worship	-11.9529
▁Adrian	-11.9529
▁blur	-11.9529
▁CR	-11.9529
▁$1,000	-11.9529
▁disciplina	-11.9529
pi	-11.953
▁dresses	-11.953
▁vape	-11.953
▁Rush	-11.953
▁Murder	-11.9531
▁որ	-11.9531
▁indulge	-11.9532
▁Rhod	-11.9532
▁ERA	-11.9532
▁Self	-11.9532
▁Zach	-11.9533
3,000	-11.9533
▁Help	-11.9534
▁Legal	-11.9534
▁helm	-11.9534
▁villain	-11.9535
▁lu	-11.9535
▁Mahon	-11.9536
▁frag	-11.954
▁Gib	-11.9543
▁3%	-11.9543
▁Raid	-11.9543
▁ega	-11.9543
▁29-	-11.9548
▁Map	-11.9551
▁6-	-11.9552
▁Rout	-11.9553
-15	-11.9553
▁typ	-11.9557
fer	-11.9562
▁enko	-11.9562
▁Jok	-11.9566
▁Path	-11.9569
.5%	-11.9571
▁Chau	-11.9574
Ra	-11.9582
▁UT	-11.9592
▁Aur	-11.9596
▁Pav	-11.9602
▁Cut	-11.9606
▁rec	-11.9608
action	-11.9618
▁Tal	-11.9619
71	-11.9623
▁TC	-11.9625
▁(10	-11.9627
▁SK	-11.9632
!!!	-11.9633
▁Peru	-11.9636
73	-11.964
▁2030	-11.9651
▁Kitt	-11.9664
▁ados	-11.9672
wife	-11.9673
change	-11.9675
Black	-11.9675
general	-11.9675
-7	-11.9677
▁aro	-11.9691
":[{"	-11.9701
▁Warrior	-11.9701
▁leigh	-11.9701
▁ipation	-11.9701
▁ladies	-11.9701
▁Empire	-11.9701
▁jungle	-11.9701
▁vinegar	-11.9701
▁Bishop	-11.9701
▁Root	-11.9701
▁competent	-11.9701
▁Vision	-11.9701
▁HIV	-11.9701
▁Bernard	-11.9701
▁canvas	-11.9701
▁cartel	-11.9701
▁semitic	-11.9702
▁Mirror	-11.9702
▁ummy	-11.9702
▁genius	-11.9703
▁Feel	-11.9703
▁700	-11.9703
▁Tamil	-11.9704
▁flux	-11.9705
▁Push	-11.9706
▁Duck	-11.9707
▁Fly	-11.9708
▁Fear	-11.971
▁Visa	-11.971
▁taka	-11.971
▁Patri	-11.971
orph	-11.9711
▁Cash	-11.9712
▁Fran	-11.9714
qua	-11.9714
▁roller	-11.9716
metic	-11.9716
▁Ara	-11.9719
▁LP	-11.972
▁RF	-11.9721
▁scot	-11.9721
▁Shap	-11.9725
Mon	-11.973
commend	-11.9733
each	-11.9735
▁Ter	-11.9737
▁(6	-11.9738
now	-11.9744
ind	-11.9744
En	-11.9746
▁AG	-11.9749
▁ib	-11.975
ob	-11.975
▁Fine	-11.9755
▁Mam	-11.9758
▁Benn	-11.9762
▁memo	-11.9763
▁180	-11.9764
▁$15	-11.9764
▁Qa	-11.9781
ek	-11.9783
▁£12	-11.9785
▁lis	-11.979
tail	-11.9795
▁Kad	-11.9804
▁noc	-11.9805
▁Tay	-11.9811
oo	-11.9812
unn	-11.9835
▁Yam	-11.9835
▁(£1	-11.9837
hriv	-11.984
cap	-11.9845
▁eau	-11.9846
Reuters	-11.985
General	-11.985
after	-11.9851
▁£25	-11.9851
▁lik	-11.9852
grand	-11.9852
▁91	-11.9856
▁Hin	-11.9858
loved	-11.9859
▁inous	-11.986
▁Haw	-11.9866
▁84	-11.9868
▁virtu	-11.9874
▁Initiative	-11.9876
▁cooperate	-11.9876
▁despair	-11.9876
▁ecoglou	-11.9876
▁lagged	-11.9876
▁coroner	-11.9876
▁siding	-11.9876
▁irregular	-11.9876
▁Panama	-11.9876
▁mitigate	-11.9877
▁1984	-11.9877
▁Fle	-11.9877
▁MGM	-11.9877
},"	-11.9877
▁Bennet	-11.9877
▁Shakespeare	-11.9877
▁NGO	-11.9877
▁pr	-11.9877
▁Priya	-11.9877
▁divisive	-11.9878
▁Junior	-11.9878
ograph	-11.9878
▁Access	-11.9879
▁LED	-11.9879
▁oma	-11.9879
▁ukh	-11.988
▁blazer	-11.9881
▁antly	-11.9881
▁Naga	-11.9882
▁rox	-11.9883
▁Chef	-11.9885
▁Insu	-11.9888
▁Pash	-11.9889
▁ured	-11.9889
punctu	-11.9889
▁Jail	-11.989
▁Hind	-11.989
▁fringe	-11.9891
▁cran	-11.9891
▁Bach	-11.9893
▁Slot	-11.9894
▁Brave	-11.9894
▁shit	-11.9895
▁Wilk	-11.9896
▁builder	-11.9898
▁Tara	-11.9899
▁CU	-11.9904
conges	-11.9905
▁illon	-11.9906
rl	-11.9907
▁dug	-11.9911
▁quip	-11.9912
▁amo	-11.9912
▁TD	-11.9914
wirl	-11.9915
had	-11.9917
Com	-11.9918
▁FF	-11.9924
▁Sex	-11.9924
▁hoo	-11.9927
▁ulu	-11.9928
72	-11.9928
▁carve	-11.9928
pin	-11.9929
▁Sac	-11.9929
▁anta	-11.9929
tag	-11.9931
▁Jal	-11.9938
New	-11.9939
▁HS	-11.9945
▁obsc	-11.9946
▁Kit	-11.9948
▁appa	-11.995
around	-11.9965
▁Lyn	-11.997
▁bolt	-11.9977
olph	-11.998
cin	-11.9983
▁eum	-11.9989
▁ud	-11.9991
,600	-11.9999
63	-12.0022
chae	-12.0026
▁deli	-12.0027
profit	-12.0029
Field	-12.0029
water	-12.0031
Where	-12.0035
Ex	-12.0038
▁ima	-12.0042
▁crimin	-12.0054
▁Blanc	-12.0054
▁occu	-12.0054
▁Advisor	-12.0055
▁Algeria	-12.0055
▁Gujarat	-12.0055
▁Minute	-12.0055
▁Montgomery	-12.0055
▁Muhammad	-12.0055
▁Zimbabwe	-12.0055
▁ominance	-12.0055
▁widow	-12.0055
▁oxide	-12.0055
▁Broadcast	-12.0055
▁Speed	-12.0055
▁ptive	-12.0055
▁stigma	-12.0055
▁oncé	-12.0055
▁exile	-12.0055
▁Guinea	-12.0055
▁Pixel	-12.0055
▁scrub	-12.0055
▁ceptive	-12.0055
▁kumar	-12.0055
▁Foster	-12.0055
▁copper	-12.0055
▁jazz	-12.0055
▁Hopkin	-12.0055
▁oath	-12.0056
▁cough	-12.0057
▁Defend	-12.0057
▁Rocket	-12.0057
▁minus	-12.0057
▁iel	-12.0058
▁Twenty	-12.0058
▁Mix	-12.006
▁cardio	-12.006
▁bur	-12.006
▁lator	-12.0061
▁Beau	-12.0061
▁Nasr	-12.0062
▁Flow	-12.0066
▁dogan	-12.007
▁heroin	-12.007
▁agit	-12.0071
▁polish	-12.0071
ef	-12.0073
▁True	-12.0075
▁Lamm	-12.0078
▁Que	-12.0079
▁attain	-12.0082
▁6,000	-12.0082
▁2011.	-12.0084
▁Boot	-12.0084
▁Tell	-12.0086
▁hesi	-12.0086
▁Dani	-12.0087
▁Wine	-12.0088
▁87	-12.0088
ual	-12.0089
CA	-12.01
▁Rav	-12.0101
▁beg	-12.0103
▁Loc	-12.0105
▁bind	-12.0107
▁bour	-12.011
▁acquit	-12.011
▁FE	-12.012
▁adi	-12.0122
▁Than	-12.0126
pack	-12.0129
sav	-12.0143
▁dev	-12.0146
},{"	-12.0152
▁terre	-12.0155
▁cove	-12.0162
mphi	-12.0177
▁rust	-12.0178
▁Mall	-12.0194
ienn	-12.0199
Chuck	-12.0201
▁ake	-12.0203
▁quo	-12.0204
▁etta	-12.021
Sullivan	-12.021
dollar	-12.0211
money	-12.0211
▁oda	-12.022
ous	-12.0223
▁Iv	-12.0226
▁kur	-12.0232
▁Riv	-12.0235
▁Murdoch	-12.0236
▁judice	-12.0236
▁logging	-12.0236
▁provoke	-12.0236
▁fraction	-12.0237
▁logic	-12.0237
▁ceding	-12.0237
▁Berry	-12.0237
▁grasp	-12.0237
▁Nepal	-12.0237
▁sober	-12.0237
▁Alzheimer	-12.0237
▁WSL	-12.0237
▁migrate	-12.0238
▁brook	-12.0238
▁Timber	-12.0238
▁lept	-12.0238
▁superior	-12.0238
▁70%	-12.0238
▁Wolver	-12.0239
▁champ	-12.0239
▁Consider	-12.0239
▁uplift	-12.0239
▁Triple	-12.0239
▁str	-12.024
▁batch	-12.024
▁Name	-12.0242
▁Bian	-12.0245
▁deflect	-12.0246
rvin	-12.0246
▁Indie	-12.0247
▁colo	-12.0247
▁Nag	-12.0249
▁Shir	-12.0252
▁gag	-12.0253
▁cage	-12.0256
▁void	-12.0257
▁Mann	-12.0265
▁Pha	-12.0265
▁raiser	-12.0266
▁stow	-12.0269
▁dawn	-12.027
▁mitt	-12.0272
▁dice	-12.0273
▁ien	-12.0273
▁sincere	-12.0273
▁chic	-12.0274
▁iche	-12.0286
▁osa	-12.0287
▁curve	-12.029
7,000	-12.0297
▁WO	-12.0297
▁pastor	-12.03
▁pha	-12.0305
complement	-12.0305
▁peri	-12.0308
▁bud	-12.0308
▁Kara	-12.0313
▁Ace	-12.0314
▁educ	-12.0316
▁Past	-12.0319
▁2028	-12.0325
▁buds	-12.0328
▁ifier	-12.033
int	-12.0334
▁Fri	-12.0334
app	-12.034
▁BB	-12.0353
▁3-1	-12.0355
▁stra	-12.0357
ffle	-12.0361
▁Fal	-12.0364
train	-12.0367
▁assa	-12.0368
▁Gir	-12.0371
▁constitu	-12.0371
eb	-12.0382
text	-12.0392
rough	-12.0394
could	-12.0396
where	-12.0396
girl	-12.0398
tort	-12.0398
ulgar	-12.04
▁Hem	-12.0401
tier	-12.0403
▁34-	-12.0406
uri	-12.0408
▁angel	-12.042
▁Clinic	-12.0422
▁Senegal	-12.0422
▁physician	-12.0422
▁stubborn	-12.0422
▁tuition	-12.0422
▁mould	-12.0422
minisc	-12.0422
▁ensemble	-12.0422
cnn	-12.0422
▁Syn	-12.0422
▁Hutch	-12.0422
▁catastrophe	-12.0422
▁Elliott	-12.0423
▁intendent	-12.0423
▁1975	-12.0423
▁Brock	-12.0423
▁warrior	-12.0423
▁elbow	-12.0424
▁Half	-12.0424
▁Stream	-12.0425
▁Culture	-12.0425
▁lush	-12.0425
▁Cert	-12.0426
▁tolerance	-12.0427
▁laine	-12.0427
▁Lynn	-12.0428
▁30,000	-12.043
▁Omar	-12.0431
▁litter	-12.0431
▁MU	-12.0431
▁Baron	-12.0432
▁holm	-12.0433
▁pok	-12.0435
▁grove	-12.0436
▁puff	-12.0436
▁Initia	-12.0438
▁relat	-12.0438
▁stellar	-12.0439
▁McK	-12.044
▁Rico	-12.0442
▁Cum	-12.0443
▁allot	-12.0443
▁ISI	-12.0446
▁contributor	-12.0446
▁neat	-12.0447
▁Ravi	-12.0448
▁Rosen	-12.045
▁33-	-12.0453
▁Apart	-12.0453
▁cakes	-12.0456
▁Rao	-12.0461
▁2-	-12.0463
▁Yar	-12.0464
▁MB	-12.0468
▁Rae	-12.0472
▁enlist	-12.0473
▁orie	-12.0474
▁nic	-12.0474
▁palm	-12.0475
booz	-12.0475
▁Provi	-12.0476
wy	-12.0477
▁Wan	-12.0477
▁retro	-12.0482
Dur	-12.0485
Go	-12.0485
West	-12.049
▁FOR	-12.0493
▁Fit	-12.0494
▁Din	-12.0495
talk	-12.05
mark	-12.05
▁Jana	-12.051
place	-12.0513
▁Soc	-12.0519
▁yang	-12.0521
▁aggr	-12.0525
▁Pok	-12.054
1,	-12.0552
▁bore	-12.0554
▁ista	-12.0564
focus	-12.0584
would	-12.0584
Who	-12.0588
▁abi	-12.0589
▁Audi	-12.059
▁Hel	-12.0597
coot	-12.0602
▁Rein	-12.0604
expi	-12.0608
▁herb	-12.0609
ortunate	-12.0609
▁McLaren	-12.061
▁Advance	-12.061
▁currencies	-12.061
▁leisure	-12.061
▁nuance	-12.061
▁pilgrim	-12.061
▁plummet	-12.061
twitter	-12.0611
▁illusion	-12.0611
▁ulsion	-12.0611
▁inity	-12.0611
▁urreal	-12.0611
▁1976	-12.0611
▁elfish	-12.0611
▁volley	-12.0612
▁Alpha	-12.0612
▁vamp	-12.0612
▁scout	-12.0612
▁Account	-12.0612
▁Launch	-12.0612
▁Editor	-12.0612
▁foil	-12.0612
▁Giovanni	-12.0613
▁dupe	-12.0613
▁solving	-12.0615
▁Wonder	-12.0615
ciss	-12.0616
▁Rebel	-12.0616
▁osis	-12.0617
▁idol	-12.0617
▁Clay	-12.0617
▁Lux	-12.0617
▁ranch	-12.0618
▁Volk	-12.0619
▁turb	-12.062
▁meth	-12.0622
▁adorn	-12.0624
▁ival	-12.0625
▁25%	-12.0626
coop	-12.0627
▁Marri	-12.0629
▁Lov	-12.063
ros	-12.063
▁cial	-12.0631
▁jay	-12.0631
▁aunt	-12.0634
▁4%	-12.0634
▁fod	-12.0635
▁Buk	-12.0636
▁wallow	-12.0638
▁deau	-12.0639
▁gust	-12.0639
hutter	-12.0641
obble	-12.0643
▁Siri	-12.0647
▁FM	-12.0649
▁Ame	-12.065
▁Doll	-12.0653
mortal	-12.0654
▁89	-12.0662
91	-12.0663
▁pea	-12.0664
▁needle	-12.0666
6,000	-12.0676
▁aki	-12.0679
-18	-12.068
far	-12.0685
van	-12.0685
▁ación	-12.069
84	-12.0694
▁lena	-12.0694
▁og	-12.0694
▁volt	-12.0704
ron	-12.0746
▁Expl	-12.0747
▁Mit	-12.0752
▁Sor	-12.0753
plen	-12.0754
▁Fab	-12.076
▁Til	-12.076
▁nna	-12.0764
▁capt	-12.0764
ս	-12.0773
screen	-12.0777
author	-12.0777
piece	-12.0777
break	-12.0778
▁alist	-12.078
trans	-12.0783
▁noon	-12.0784
▁32-	-12.0788
▁oga	-12.079
post	-12.0791
▁Pod	-12.0793
ucces	-12.0796
nge	-12.0797
▁AN	-12.0801
rippl	-12.0802
▁Number	-12.0803
▁phobic	-12.0803
cognis	-12.0803
▁swamy	-12.0803
▁analyze	-12.0803
▁aj	-12.0803
▁pillar	-12.0804
▁ETF	-12.0804
▁flavor	-12.0804
▁spr	-12.0805
▁Ranch	-12.0805
▁blank	-12.0806
▁chuck	-12.0806
▁orate	-12.0806
▁electro	-12.0806
▁Sweet	-12.0807
▁2010.	-12.0807
▁compact	-12.0807
andal	-12.081
▁Zak	-12.0811
▁graphical	-12.0811
▁Dix	-12.0813
▁Height	-12.0813
▁Matter	-12.0813
▁Birth	-12.0813
▁Bau	-12.0814
▁gyn	-12.0816
▁Crowd	-12.0816
▁LL	-12.0817
Hey	-12.0817
▁zard	-12.0817
▁Pho	-12.0819
▁Rank	-12.0822
▁37,	-12.0831
▁Sk	-12.0836
▁6%	-12.0836
▁Ley	-12.0837
▁93	-12.0839
▁USD	-12.084
▁Dru	-12.0841
▁Vid	-12.0846
▁Cad	-12.0852
▁Nee	-12.0862
▁leen	-12.0874
▁pact	-12.0897
▁37-	-12.0915
teg	-12.0935
▁cav	-12.0936
▁Bonn	-12.0936
TV	-12.0939
▁19.	-12.0941
▁HA	-12.0942
▁ira	-12.0945
▁Wor	-12.0947
▁mast	-12.096
▁£30	-12.0962
▁consul	-12.0963
▁TE	-12.0968
-0	-12.097
▁lade	-12.097
contributor	-12.0973
standing	-12.0973
watch	-12.0973
shift	-12.0973
abort	-12.0974
auto	-12.0977
▁Colo	-12.0978
▁meta	-12.0979
▁ripe	-12.0987
▁sanit	-12.0997
▁Maverick	-12.0999
▁agnificent	-12.0999
▁barrage	-12.0999
▁capsule	-12.0999
▁cushion	-12.0999
▁lapping	-12.0999
▁menopause	-12.0999
▁estructive	-12.0999
▁más	-12.0999
mAh	-12.0999
▁Beauty	-12.0999
▁Husk	-12.0999
▁Salvado	-12.0999
▁curator	-12.0999
▁collide	-12.0999
▁pheric	-12.0999
▁bruise	-12.0999
▁Kemp	-12.0999
nchant	-12.0999
▁HER	-12.0999
▁adhere	-12.1
▁fluent	-12.1
▁1985	-12.1
▁Naomi	-12.1
°	-12.1
▁brink	-12.1
fat	-12.1
▁Cloud	-12.1
▁opioid	-12.1
▁Gran	-12.1
▁amento	-12.1
▁frey	-12.1
▁Isabel	-12.1001
▁737	-12.1002
▁Isaac	-12.1002
▁Honor	-12.1003
▁incidence	-12.1004
▁fist	-12.1005
▁Teach	-12.1005
▁Close	-12.1006
▁15,000	-12.1006
▁200,000	-12.1007
▁pork	-12.1007
▁grin	-12.1008
▁leek	-12.101
▁Raw	-12.101
▁conven	-12.1014
▁Uber	-12.1015
▁Fas	-12.1018
▁saver	-12.1019
▁Lego	-12.1019
gical	-12.102
▁PU	-12.1021
▁terra	-12.1024
▁vir	-12.1027
▁Bang	-12.1028
▁Venu	-12.103
▁Div	-12.1032
▁kel	-12.1034
▁Bella	-12.1041
▁Nava	-12.1044
▁fad	-12.1044
▁Gul	-12.1045
▁ott	-12.1046
▁Want	-12.1048
ugg	-12.1055
▁lene	-12.1063
Fil	-12.1066
▁Indo	-12.107
ko	-12.1095
▁£40	-12.1097
▁BU	-12.11
▁hor	-12.1101
▁fy	-12.1116
94	-12.1121
▁*	-12.1127
Du	-12.113
ph	-12.1135
▁Suk	-12.114
▁3.5	-12.1144
Twi	-12.1148
Sun	-12.115
▁rist	-12.1155
▁ու	-12.1163
hole	-12.1169
lance	-12.117
▁ois	-12.1172
Plea	-12.1173
clear	-12.1173
people	-12.1173
support	-12.1173
field	-12.1175
step	-12.1175
wise	-12.1176
Joe	-12.1178
Love	-12.1181
▁bend	-12.1182
atric	-12.1186
▁(11	-12.1189
▁35-	-12.1189
▁phil	-12.1191
▁Gian	-12.1193
":{"	-12.1199
▁Kitchen	-12.1199
▁Xiao	-12.1199
▁arsenal	-12.1199
▁rehearsal	-12.1199
▁rugged	-12.1199
▁scammer	-12.1199
▁screw	-12.1199
▁vegan	-12.1199
▁osity	-12.1199
▁refurb	-12.1199
▁Cristian	-12.1199
▁Fellow	-12.1199
▁faint	-12.1199
▁sitcom	-12.12
▁1967	-12.12
▁demeanor	-12.12
▁rude	-12.12
▁cynic	-12.12
▁$150	-12.1201
▁slap	-12.1201
▁Draper	-12.1201
▁fuss	-12.1201
▁Dress	-12.1201
▁wrestle	-12.1201
▁riti	-12.1202
▁Model	-12.1202
9,	-12.1202
▁Trail	-12.1202
▁freak	-12.1203
▁Horizon	-12.1204
▁Kick	-12.1204
▁Cris	-12.1205
▁baker	-12.1205
▁Ship	-12.1205
▁uous	-12.1205
▁MAN	-12.1206
▁Terri	-12.1207
▁ERS	-12.1207
▁ank	-12.1207
▁Margo	-12.1208
▁Block	-12.1209
▁malic	-12.1209
▁Geo	-12.1209
▁Budd	-12.1211
▁BY	-12.1211
▁Coco	-12.1212
▁chilli	-12.1212
▁ը	-12.1215
pple	-12.1217
▁ruth	-12.1217
▁Score	-12.1218
▁RU	-12.1218
▁zza	-12.1219
▁1:	-12.1223
▁Trad	-12.1229
Cor	-12.123
▁punt	-12.1231
▁Roma	-12.1232
▁prolif	-12.1234
ED	-12.1235
rated	-12.1236
▁Billi	-12.1244
▁Stag	-12.1244
56	-12.1245
▁torch	-12.1245
▁dwell	-12.125
▁130	-12.1256
▁Chart	-12.1258
▁anth	-12.1262
▁31-	-12.1262
▁35,	-12.1262
▁Wit	-12.127
ark	-12.1283
▁illi	-12.1291
▁oul	-12.1297
son	-12.1299
▁http	-12.1299
▁Bul	-12.1304
yber	-12.131
▁arte	-12.1314
ö	-12.1315
api	-12.1323
Ha	-12.1324
ար	-12.1327
▁WP	-12.1327
Bo	-12.133
▁Sti	-12.1332
▁Sof	-12.1334
rian	-12.1341
▁oir	-12.135
Ro	-12.135
raffic	-12.1352
grade	-12.1354
▁98	-12.1369
ú	-12.1376
Neill	-12.1377
record	-12.1377
image	-12.1378
▁wav	-12.1379
pound	-12.1381
▁Sain	-12.1381
Get	-12.1384
OK	-12.1388
God	-12.1389
6)	-12.1389
held	-12.139
▁Ski	-12.139
again	-12.1391
.8%	-12.1392
mpir	-12.1397
▁Bridg	-12.1398
▁disc	-12.1401
▁Circle	-12.1403
▁Holyrood	-12.1403
▁calculation	-12.1403
▁tribal	-12.1403
▁potting	-12.1403
▁dentist	-12.1403
▁articulate	-12.1403
▁sceptic	-12.1403
▁Sister	-12.1403
▁YOU	-12.1403
▁succ	-12.1403
▁Colum	-12.1403
▁1983	-12.1404
▁loft	-12.1404
▁ovic	-12.1404
▁getaway	-12.1404
▁4-0	-12.1405
▁brake	-12.1405
▁Attack	-12.1405
▁Double	-12.1405
Abdulla	-12.1405
▁raving	-12.1405
▁Search	-12.1405
▁silk	-12.1406
▁78	-12.1406
▁convo	-12.1406
▁Luna	-12.1407
▁Mich	-12.1407
▁massage	-12.1407
▁Comment	-12.1407
Ass	-12.1408
rk	-12.1408
▁ucci	-12.1409
▁flam	-12.141
▁Sleep	-12.1411
▁nap	-12.1412
▁akh	-12.1413
▁scalp	-12.1414
▁Magn	-12.1415
udd	-12.1416
park	-12.1418
▁Kish	-12.1423
▁ար	-12.1423
▁Chal	-12.1423
volve	-12.1425
▁Vio	-12.1426
4,000	-12.1427
▁Guin	-12.1429
▁Fer	-12.143
▁RG	-12.1431
▁60-	-12.1433
▁KR	-12.1436
▁Rab	-12.1437
▁Gru	-12.1439
▁23.	-12.1442
▁sted	-12.1442
Mari	-12.1451
ight	-12.1451
▁dele	-12.1452
%20	-12.1461
▁Lum	-12.1468
▁Mate	-12.1469
▁rout	-12.147
▁bun	-12.1474
▁Rot	-12.1479
!)	-12.1481
quil	-12.1483
▁Holl	-12.1486
▁Grim	-12.1488
▁qu	-12.1492
▁peril	-12.1493
▁32,	-12.1493
Ri	-12.1496
▁Ish	-12.1508
2024	-12.1508
venge	-12.1509
▁responsive	-12.1509
▁Ir	-12.1521
cut	-12.1524
▁Stam	-12.1526
▁Neu	-12.1527
▁Kh	-12.154
produc	-12.1541
▁Sou	-12.1562
▁synth	-12.1563
▁5-	-12.1572
▁Nay	-12.1575
▁ava	-12.1578
▁atti	-12.1579
America	-12.1579
vok	-12.158
perfect	-12.1582
educ	-12.1583
shape	-12.1585
Ukraine	-12.1585
expect	-12.1585
court	-12.1585
total	-12.1585
house	-12.1586
complete	-12.1587
chair	-12.1588
Wow	-12.159
▁goat	-12.1592
▁Gla	-12.1601
▁110	-12.1603
herent	-12.1608
▁dé	-12.1608
/2024/	-12.1609
▁ociet	-12.1609
ե	-12.1611
▁Airbnb	-12.1611
▁Coventry	-12.1611
▁Traitor	-12.1611
▁flora	-12.1611
▁burglar	-12.1611
▁theatrical	-12.1611
▁vomit	-12.1612
▁rubber	-12.1612
▁advent	-12.1612
▁ullah	-12.1612
▁2022-23	-12.1612
▁fulness	-12.1612
▁implant	-12.1612
▁1981	-12.1612
▁Spec	-12.1612
▁Fresh	-12.1612
▁Craw	-12.1612
▁doorstep	-12.1612
▁dimension	-12.1613
▁tsunami	-12.1613
▁feather	-12.1613
▁glance	-12.1614
▁shelf	-12.1614
▁33,	-12.1615
▁Crew	-12.1615
▁tweak	-12.1615
▁hyg	-12.1615
acre	-12.1616
▁populate	-12.1621
▁sourced	-12.1622
▁Glad	-12.1622
▁pinch	-12.1623
▁TY	-12.1624
▁Nish	-12.1629
Jo	-12.1631
365	-12.1631
▁Chip	-12.1631
▁oste	-12.1631
▁Levi	-12.1635
▁Cope	-12.1639
▁ysia	-12.1639
▁Kind	-12.164
mbodi	-12.1641
▁Sau	-12.1641
▁DM	-12.1641
▁Boo	-12.1641
▁1968	-12.1642
▁Milli	-12.1645
▁2.3	-12.1646
.6%	-12.1647
▁42,	-12.1649
▁pale	-12.1653
▁Haz	-12.1656
▁Mani	-12.1657
▁Alf	-12.1657
▁Zam	-12.1658
▁bald	-12.1659
▁chim	-12.1664
▁Cala	-12.1664
▁Saba	-12.1669
ump	-12.1674
▁Tem	-12.1683
▁roe	-12.1684
▁comm	-12.1685
rtho	-12.1689
▁$500	-12.1696
ura	-12.1697
▁TR	-12.1699
▁Dou	-12.17
▁Ny	-12.1701
▁undo	-12.1707
▁$12	-12.1712
▁cosm	-12.1718
lek	-12.1721
▁Must	-12.1729
less	-12.1743
▁fel	-12.1746
Kap	-12.1748
flect	-12.1749
▁Alp	-12.1751
▁nett	-12.176
▁CH	-12.1765
▁ced	-12.1766
▁aka	-12.1774
▁hon	-12.1775
Mi	-12.1777
▁Hima	-12.1779
Donald	-12.1798
Biden	-12.1798
figure	-12.1798
earth	-12.1804
▁culmi	-12.1807
1/	-12.1814
▁iac	-12.1824
▁lamb	-12.1824
▁Cincinnati	-12.1824
▁Gomez	-12.1824
▁Medvedev	-12.1824
▁Slovenia	-12.1824
▁afeguarding	-12.1824
▁apprentice	-12.1824
▁credential	-12.1824
▁cuisine	-12.1824
▁occupy	-12.1824
▁percussion	-12.1824
▁pistol	-12.1824
▁vascular	-12.1824
▁ceipt	-12.1824
▁hurst	-12.1824
▁repeal	-12.1824
▁gamble	-12.1824
▁Blanche	-12.1824
▁Krishna	-12.1824
▁helmet	-12.1825
▁existential	-12.1825
▁Pension	-12.1825
▁Chester	-12.1826
aj	-12.1827
▁Batter	-12.1827
▁Nix	-12.1828
▁Terror	-12.1828
▁Colour	-12.1829
▁EMA	-12.183
▁Sepa	-12.183
▁baba	-12.1831
care	-12.1835
▁Mara	-12.1837
▁Dust	-12.1844
▁Saw	-12.1844
▁couch	-12.1846
▁Wig	-12.1847
compensate	-12.1848
▁vez	-12.1848
▁Tina	-12.1848
▁zar	-12.185
any	-12.1851
▁50,000	-12.1854
▁chok	-12.1857
▁loa	-12.186
▁zon	-12.186
▁Gol	-12.1863
▁Dob	-12.1865
▁$18	-12.1865
▁tort	-12.1867
ast	-12.1875
comp	-12.1877
▁enrich	-12.1884
tech	-12.1884
▁Sas	-12.1913
▁laud	-12.1914
▁definit	-12.1924
Ho	-12.1932
bb	-12.1932
▁Carn	-12.1935
▁adu	-12.1946
8,000	-12.196
▁fide	-12.1965
▁KA	-12.1968
:30	-12.1981
▁anthrop	-12.1982
▁Strat	-12.1987
IP	-12.1993
▁Aut	-12.2003
▁Av	-12.2003
▁Ji	-12.2008
▁բ	-12.201
order	-12.2011
start	-12.2012
fashion	-12.2015
pandemic	-12.2015
living	-12.2016
human	-12.2016
six	-12.2018
paid	-12.2019
Never	-12.2023
▁rad	-12.2025
▁CA	-12.2031
your	-12.2033
ortion	-12.2038
vangel	-12.2041
՝	-12.2041
▁(£2	-12.2041
▁Economist	-12.2041
▁Ecuador	-12.2041
▁Gupta	-12.2041
▁López	-12.2041
▁abdominal	-12.2041
▁accuracy	-12.2041
▁conciliation	-12.2041
▁discriminate	-12.2041
▁intersect	-12.2041
▁Agree	-12.2041
▁DU	-12.2041
▁Jolie	-12.2041
▁Strong	-12.2041
▁scroll	-12.2042
":[	-12.2042
▁Progress	-12.2042
▁Troop	-12.2042
▁nium	-12.2042
▁Brett	-12.2042
▁Peck	-12.2042
▁pathetic	-12.2043
▁MRC	-12.2043
▁Track	-12.2043
▁Hack	-12.2043
▁Impact	-12.2043
▁VIP	-12.2044
▁terminate	-12.2045
▁Loren	-12.2045
▁Strang	-12.2047
▁pawn	-12.2047
▁defining	-12.2048
▁Calif	-12.205
▁Cool	-12.2051
▁quet	-12.2052
▁nia	-12.2052
▁Tab	-12.2055
▁Baba	-12.2057
▁Leav	-12.2057
▁veil	-12.2058
hon	-12.206
▁900	-12.2061
▁Karl	-12.2061
Burk	-12.2064
▁Maxim	-12.2066
▁21.	-12.2067
▁paste	-12.2076
▁Geno	-12.2079
▁Lac	-12.208
▁bah	-12.2082
▁nate	-12.2085
▁17.	-12.2088
▁Mold	-12.2088
▁lieu	-12.2091
uda	-12.2092
▁Nak	-12.2092
▁2013.	-12.2094
love	-12.2094
▁Glass	-12.2097
▁1.2	-12.2103
ñ	-12.2103
pen	-12.2104
4%	-12.2109
hard	-12.2111
0)	-12.2113
▁www	-12.2115
▁86	-12.212
▁350	-12.2126
frain	-12.2126
pers	-12.2127
deal	-12.2127
▁Gur	-12.2132
▁Sie	-12.2134
▁Mom	-12.2135
harm	-12.2144
even	-12.2146
▁cue	-12.215
▁sprinkle	-12.2155
▁indra	-12.2163
Se	-12.2164
ctu	-12.2166
tell	-12.2168
▁Fel	-12.2169
nar	-12.2174
▁14.	-12.219
▁token	-12.2191
fo	-12.2192
▁1982	-12.22
▁notch	-12.2212
▁aero	-12.2216
▁feas	-12.2227
vail	-12.2229
Fox	-12.2238
Smith	-12.2238
safe	-12.2238
flight	-12.2239
establish	-12.224
Ver	-12.2246
▁ali	-12.2249
placed	-12.225
Alam	-12.2254
ble	-12.2261
zi	-12.2262
,800	-12.2263
▁Magistrate	-12.2264
▁Sierra	-12.2264
▁computing	-12.2264
▁iatrist	-12.2264
▁mosquito	-12.2264
▁revival	-12.2264
▁Vivek	-12.2264
▁copies	-12.2264
▁Desert	-12.2264
▁Abraham	-12.2264
▁steward	-12.2264
shrin	-12.2264
▁cheque	-12.2264
▁bunker	-12.2264
▁eux	-12.2264
▁1971	-12.2264
▁ALL	-12.2265
▁jealous	-12.2265
▁Chick	-12.2266
▁collage	-12.2266
▁sabotage	-12.2266
▁Gross	-12.2266
▁Chandra	-12.2266
▁fiancé	-12.2267
▁Artist	-12.2268
▁Style	-12.2268
▁Own	-12.2269
▁phenomenal	-12.2269
▁Yash	-12.227
▁ENT	-12.227
▁moor	-12.227
▁Shr	-12.227
▁12,000	-12.2271
▁knit	-12.2271
▁Bride	-12.2272
▁ounce	-12.2273
▁fascist	-12.2273
▁slur	-12.2274
▁grape	-12.2274
lesc	-12.2275
▁bypass	-12.2278
▁sip	-12.2279
news	-12.2279
▁coaster	-12.228
▁itation	-12.228
unda	-12.2281
▁hue	-12.2283
▁7%	-12.2287
▁lish	-12.2287
▁Gang	-12.2288
▁CV	-12.229
▁Experi	-12.229
▁icio	-12.2292
BER	-12.2297
▁uar	-12.23
▁Rak	-12.2301
▁bent	-12.2301
▁Insta	-12.2305
▁nka	-12.2306
▁Zen	-12.2309
▁hog	-12.2311
ending	-12.2312
▁ryn	-12.2316
▁Thur	-12.2322
---	-12.2324
duc	-12.2325
▁tard	-12.2335
▁Cour	-12.2337
▁Cob	-12.2338
▁Kia	-12.2344
▁ema	-12.2345
▁2006,	-12.2345
▁EE	-12.2349
▁8-	-12.2355
Su	-12.2357
▁Qui	-12.2365
▁Sto	-12.2368
500	-12.2368
▁Abo	-12.2372
▁qua	-12.2393
Car	-12.2395
Vick	-12.2405
▁hort	-12.2408
▁}	-12.2412
▁medit	-12.2414
▁Plant	-12.2414
▁Si	-12.2418
▁gin	-12.2418
emb	-12.2421
veal	-12.2437
▁£22	-12.2445
▁Roos	-12.2454
ssu	-12.2459
Connell	-12.2465
attribute	-12.2465
light	-12.2467
▁intim	-12.2472
Over	-12.2474
ecur	-12.2474
track	-12.2474
▁stro	-12.2475
▁situ	-12.2478
zo	-12.248
▁bb	-12.2489
▁են	-12.2491
▁Byrne	-12.2491
▁Gonzalez	-12.2491
▁edieval	-12.2491
▁thrust	-12.2491
▁ության	-12.2491
▁Apollo	-12.2491
▁Viktor	-12.2491
▁cartoon	-12.2491
▁ographer	-12.2491
▁skull	-12.2491
▁flank	-12.2491
▁Heavy	-12.2491
▁thermal	-12.2491
▁decree	-12.2491
▁hrie	-12.2491
▁Storie	-12.2491
▁frantic	-12.2491
▁ngent	-12.2491
▁Yellow	-12.2491
▁glamour	-12.2491
▁vsky	-12.2491
▁agua	-12.2491
▁Surya	-12.2492
▁Survey	-12.2492
▁fragrance	-12.2492
▁logged	-12.2492
▁foam	-12.2493
▁autonomous	-12.2493
llumin	-12.2493
▁Capri	-12.2493
▁Gael	-12.2493
▁insert	-12.2493
▁ponder	-12.2493
▁curio	-12.2494
▁Jacque	-12.2494
▁hatch	-12.2494
▁insane	-12.2494
▁Paper	-12.2494
▁Wake	-12.2495
▁■	-12.2496
▁passive	-12.2496
▁polite	-12.2496
▁Mode	-12.2496
▁FIR	-12.2497
▁300,000	-12.2497
▁Duel	-12.2497
▁Adv	-12.2498
▁WI	-12.2499
▁Hey	-12.25
▁kes	-12.25
▁Yang	-12.2502
▁Buda	-12.2503
▁UI	-12.2504
▁quiz	-12.2505
.4%	-12.2505
▁Bis	-12.2505
▁170	-12.2506
▁Yard	-12.2508
▁EX	-12.2509
▁truc	-12.2509
▁collar	-12.2509
▁chew	-12.2509
▁Milk	-12.2509
▁HT	-12.2511
▁hyp	-12.2512
▁RM	-12.2512
▁rigg	-12.2519
▁£14	-12.2521
IST	-12.2522
▁gic	-12.253
▁HI	-12.2532
▁Elvi	-12.2533
▁delic	-12.2545
▁Pug	-12.2545
▁Soft	-12.2545
▁AU	-12.2545
▁kara	-12.2549
▁Equi	-12.255
▁CM	-12.2552
Creat	-12.2557
UN	-12.2561
well	-12.2562
▁Pil	-12.2562
▁etch	-12.2564
▁lust	-12.2564
omp	-12.2566
▁Liu	-12.257
sit	-12.2571
cha	-12.2575
▁iam	-12.2589
▁dick	-12.2595
-13	-12.26
▁Ent	-12.2601
▁snatch	-12.261
▁dell	-12.2611
▁pon	-12.2613
Brun	-12.2614
Am	-12.2624
Wo	-12.2636
▁2008.	-12.264
transmit	-12.2643
▁nal	-12.2649
▁esta	-12.2661
scend	-12.2666
▁Ple	-12.2667
sib	-12.2673
▁recur	-12.2673
India	-12.2676
▁90-	-12.2677
▁aff	-12.2683
tain	-12.2688
Good	-12.2697
conscious	-12.2697
make	-12.2704
stage	-12.2704
▁BL	-12.2719
ask	-12.2722
▁Madonna	-12.2723
―	-12.2723
▁Aussie	-12.2723
▁Counsel	-12.2723
▁INGTON	-12.2723
▁Lithuania	-12.2723
▁charisma	-12.2723
▁Eisen	-12.2723
▁OLED	-12.2723
▁acies	-12.2723
▁breeze	-12.2723
▁Maggi	-12.2724
▁quirk	-12.2724
▁Total	-12.2724
▁agne	-12.2724
▁Correct	-12.2724
▁trademark	-12.2724
▁bureaucrat	-12.2724
▁lashes	-12.2725
▁£200	-12.2725
▁insurrection	-12.2725
▁Harbor	-12.2725
▁Fanta	-12.2725
▁Burrow	-12.2725
▁1940	-12.2726
▁BET	-12.2727
▁Wes	-12.2727
▁Taco	-12.2727
▁6-3	-12.2727
▁Huss	-12.2727
▁fier	-12.2727
▁Concern	-12.2728
▁Easy	-12.2728
▁Shri	-12.2728
▁Screen	-12.273
▁Drew	-12.2731
▁Hair	-12.2733
▁Osa	-12.2733
▁zip	-12.2734
▁hound	-12.2734
▁ել	-12.2735
▁fred	-12.2736
▁rode	-12.2736
▁Casa	-12.2737
▁deaf	-12.2741
▁Mee	-12.2741
resent	-12.2741
▁psis	-12.2741
▁BH	-12.2743
▁brig	-12.2745
▁LM	-12.2745
▁Dig	-12.2751
▁Poor	-12.2752
▁hone	-12.2755
▁USS	-12.2756
▁Lill	-12.2757
speak	-12.2759
ture	-12.2768
▁Cod	-12.2776
yad	-12.2778
▁Ble	-12.2781
▁Stal	-12.2784
▁29.	-12.2789
edo	-12.279
▁upend	-12.2798
▁DE	-12.2801
▁Dio	-12.2804
▁tti	-12.2806
▁Ek	-12.281
▁Indi	-12.2817
▁Au	-12.2818
▁iti	-12.282
▁grit	-12.2833
▁Eu	-12.2834
▁legg	-12.2836
▁360	-12.2848
▁Vas	-12.285
bc	-12.2853
▁hun	-12.2858
▁omo	-12.2862
rovid	-12.2866
▁dod	-12.2869
Elev	-12.2869
▁LO	-12.2882
▁fog	-12.2896
▁SA	-12.2903
▁devo	-12.2904
sure	-12.2907
▁advi	-12.2908
▁31.	-12.2915
elv	-12.2916
▁prep	-12.2921
▁mint	-12.2934
wicket	-12.2936
leading	-12.2936
Will	-12.2937
through	-12.2939
China	-12.294
fuel	-12.294
Last	-12.294
▁heck	-12.2942
ham	-12.2946
boy	-12.2947
▁Bart	-12.295
▁lur	-12.2954
▁OUR	-12.2961
▁blossom	-12.2961
▁fiance	-12.2961
▁whisper	-12.2961
▁Century	-12.2961
▁physio	-12.2961
▁Cinema	-12.2961
▁Machin	-12.2962
▁metaphor	-12.2962
▁chorus	-12.2962
▁Spice	-12.2962
▁Aero	-12.2962
▁quash	-12.2962
▁neider	-12.2962
▁frost	-12.2962
▁1972	-12.2962
▁patent	-12.2962
▁fling	-12.2962
▁1977	-12.2962
fc	-12.2963
▁1969	-12.2963
▁1964	-12.2963
▁rift	-12.2963
tch	-12.2963
▁Ahmad	-12.2964
▁REN	-12.2964
▁13%	-12.2964
▁CCI	-12.2964
▁Perfect	-12.2964
▁fied	-12.2964
▁Stefani	-12.2965
▁dorm	-12.2965
ei	-12.2966
▁HEL	-12.2966
▁Nagar	-12.2967
Po	-12.2968
▁Drop	-12.2968
▁Saf	-12.2968
▁Teen	-12.2969
▁Beast	-12.2969
▁Pool	-12.297
▁penny	-12.2971
▁Choo	-12.2973
▁nated	-12.2973
▁Leave	-12.2975
▁nomic	-12.2975
▁hover	-12.2976
▁lund	-12.2979
▁uka	-12.2979
bit	-12.2979
▁Colt	-12.298
▁€2	-12.2981
▁lamp	-12.2982
▁Goal	-12.2984
▁CBI	-12.2987
▁Rosa	-12.2995
▁pedia	-12.2998
▁Ah	-12.3002
▁UL	-12.3008
▁mala	-12.3018
▁lith	-12.3018
▁divest	-12.302
▁wheat	-12.3024
▁Gus	-12.3026
▁quer	-12.303
▁2030.	-12.305
▁Arma	-12.306
Bahra	-12.3069
▁ayo	-12.307
▁Aw	-12.307
▁inha	-12.3071
▁Beg	-12.3074
▁sonic	-12.3083
,400	-12.309
trib	-12.3094
▁Bod	-12.3099
▁Kot	-12.3101
▁4.5	-12.3101
▁Lie	-12.3105
▁հ	-12.3108
den	-12.3109
▁ա	-12.3114
Whe	-12.3116
apid	-12.3125
Ben	-12.3125
.7%	-12.3127
▁wy	-12.3129
wi	-12.3129
net	-12.3134
olve	-12.3136
▁info	-12.314
▁Spi	-12.3143
story	-12.3151
▁idas	-12.3158
▁PL	-12.3159
inter	-12.3169
door	-12.3172
ä	-12.3176
tax	-12.318
opol	-12.3185
Mae	-12.3188
Wa	-12.3191
due	-12.3197
▁Wu	-12.3198
void	-12.3199
vital	-12.3201
▁heed	-12.3202
reach	-12.3203
igrant	-12.3203
▁legitim	-12.3205
stud	-12.3205
▁mitig	-12.3205
▁Caesar	-12.3205
▁Publish	-12.3205
▁Shepherd	-12.3205
▁apprehen	-12.3205
▁avocado	-12.3205
▁cemetery	-12.3205
▁robotic	-12.3205
▁secular	-12.3205
▁wrinkle	-12.3205
▁Inspector	-12.3205
▁beverage	-12.3205
▁icating	-12.3205
▁2024-25	-12.3205
▁graceful	-12.3205
▁Claim	-12.3205
▁Filip	-12.3205
▁cted	-12.3205
ctri	-12.3206
▁Feature	-12.3206
▁iteration	-12.3206
▁Guide	-12.3206
▁Franco	-12.3206
▁Lodge	-12.3206
▁voluntarily	-12.3206
▁valent	-12.3206
▁1974	-12.3206
▁Boule	-12.3207
▁£60	-12.3207
▁1948	-12.3207
▁Geoff	-12.3207
▁Appl	-12.3207
▁lapse	-12.3207
▁ría	-12.3207
▁€3	-12.3207
▁gaff	-12.3208
▁broil	-12.3208
▁RET	-12.3208
▁tbsp	-12.3208
▁fizz	-12.3209
▁Swim	-12.3209
▁pun	-12.321
▁COP	-12.321
▁limp	-12.3211
▁gaze	-12.3212
▁60,000	-12.3212
▁Imagine	-12.3213
come	-12.3213
ourish	-12.3214
▁CON	-12.3214
▁Stir	-12.3215
▁Safe	-12.3216
▁Eva	-12.3218
▁Ghost	-12.3218
▁Tip	-12.3219
pecific	-12.3221
▁Kash	-12.3221
▁Parti	-12.3222
▁wow	-12.3225
▁noi	-12.3228
▁DH	-12.323
▁Sh	-12.323
buk	-12.323
▁hew	-12.3232
այ	-12.3232
▁2.0	-12.3237
:45	-12.3238
tud	-12.3238
gi	-12.3239
▁ydd	-12.3239
▁Ai	-12.324
▁daq	-12.3245
augh	-12.3247
▁feast	-12.3249
▁watt	-12.325
Kristi	-12.3255
mate	-12.3263
▁48-	-12.3268
og	-12.3268
▁imit	-12.3278
ij	-12.328
lude	-12.329
▁beast	-12.3291
oxid	-12.3292
▁Fau	-12.3297
IC	-12.33
▁dumb	-12.3305
kh	-12.3309
▁charger	-12.3309
▁GE	-12.331
lat	-12.3314
▁Coo	-12.3331
▁caf	-12.3332
rise	-12.3346
▁ille	-12.3347
կ	-12.3349
▁mou	-12.3358
ASH	-12.336
ale	-12.336
▁nym	-12.3373
▁atha	-12.339
lov	-12.3396
▁iles	-12.34
trus	-12.3403
▁aggre	-12.3407
▁£13	-12.3409
▁heap	-12.3417
▁(7	-12.3422
wor	-12.3429
husband	-12.3429
operation	-12.3429
building	-12.343
Two	-12.343
national	-12.343
feel	-12.343
put	-12.3437
resist	-12.3439
blow	-12.344
▁Blu	-12.3444
▁cum	-12.3444
▁Lai	-12.3445
ban	-12.3449
▁ote	-12.345
▁դ	-12.3452
Per	-12.3455
▁Pharma	-12.3455
▁Explain	-12.3455
▁Focus	-12.3455
▁Newspape	-12.3455
▁Refuge	-12.3455
▁Restaurant	-12.3455
▁disguise	-12.3455
▁liquor	-12.3455
▁Canyon	-12.3455
▁Thirty	-12.3455
▁millionaire	-12.3455
▁sausage	-12.3455
▁Extra	-12.3455
▁spearhead	-12.3455
▁steak	-12.3455
▁Egg	-12.3455
▁Movie	-12.3455
▁Tibet	-12.3455
▁thug	-12.3455
▁Tiff	-12.3456
▁forbid	-12.3456
▁mogul	-12.3456
▁rattle	-12.3456
▁simu	-12.3456
▁stabilise	-12.3456
▁Johan	-12.3456
▁provincial	-12.3456
fisc	-12.3456
▁finery	-12.3457
▁artisan	-12.3457
▁Klein	-12.3458
▁Hab	-12.3458
▁Panda	-12.3458
▁nephew	-12.3458
▁EET	-12.3458
▁gloss	-12.3458
▁INE	-12.3459
▁Expect	-12.3459
▁Edge	-12.346
▁guru	-12.346
▁տ	-12.346
▁Bud	-12.3461
▁pip	-12.3461
▁potent	-12.3463
patri	-12.3464
▁Troy	-12.3464
▁40,000	-12.3465
▁tread	-12.3465
▁Nico	-12.3466
▁Sl	-12.3472
▁fig	-12.3473
▁kro	-12.3475
▁giver	-12.3475
▁Mask	-12.3475
▁ndall	-12.3477
▁retention	-12.3477
▁Dadd	-12.3479
▁slave	-12.3479
▁claw	-12.348
lan	-12.3482
cuff	-12.3485
▁Moi	-12.3485
▁Mud	-12.3491
▁LT	-12.3492
▁RP	-12.3493
▁CHA	-12.3497
▁Recall	-12.3498
▁TRA	-12.3498
▁olin	-12.3499
▁RN	-12.35
Mal	-12.3501
▁Yun	-12.3504
▁Nir	-12.3517
▁belly	-12.352
▁Dear	-12.3523
▁beard	-12.3523
▁Twin	-12.3524
▁chop	-12.3534
▁Carp	-12.3534
▁ին	-12.3535
Pre	-12.3537
bust	-12.3542
eight	-12.3542
▁(16	-12.3547
irl	-12.3561
▁beck	-12.3563
▁Vale	-12.3577
▁08	-12.3578
▁Ci	-12.3578
8)	-12.358
▁mear	-12.3584
isch	-12.3585
▁Pit	-12.3592
:01	-12.3593
▁lant	-12.3594
▁cameo	-12.3596
▁insta	-12.3606
▁Stro	-12.3613
▁Garr	-12.3619
▁Cult	-12.3621
▁48,	-12.363
bad	-12.3634
▁100-	-12.3637
uffl	-12.3637
bound	-12.3638
▁brow	-12.3638
ropic	-12.3658
▁pes	-12.3659
rumb	-12.3665
▁3-2	-12.3667
▁125	-12.3673
cure	-12.3676
▁antes	-12.3681
child	-12.3686
length	-12.3686
business	-12.3686
Free	-12.3686
chief	-12.3686
song	-12.3691
brain	-12.3698
▁hash	-12.37
▁amen	-12.3702
▁2009.	-12.3705
▁dazzl	-12.3706
jpg	-12.3712
ntibiotic	-12.3712
▁Corbyn	-12.3712
▁Gloucester	-12.3712
▁Thatcher	-12.3712
▁abundant	-12.3712
▁cholesterol	-12.3712
▁debunk	-12.3712
▁harbour	-12.3712
▁rtney	-12.3712
▁sympathetic	-12.3712
▁Insider	-12.3712
▁newcomer	-12.3712
▁gorod	-12.3712
▁Iraqi	-12.3712
▁barrister	-12.3712
▁surrogate	-12.3712
▁sensual	-12.3712
▁glitter	-12.3713
▁ody	-12.3713
▁macro	-12.3713
▁thieve	-12.3713
▁Tradition	-12.3713
▁ման	-12.3714
▁shek	-12.3714
▁Elite	-12.3714
▁$10,000	-12.3714
▁brewer	-12.3714
▁ui	-12.3715
Ju	-12.3715
▁supervise	-12.3715
▁derby	-12.3715
▁nagar	-12.3716
▁fren	-12.3716
▁Calv	-12.3716
▁oney	-12.3717
▁bleach	-12.3718
▁greed	-12.3719
▁astic	-12.3719
▁Retail	-12.3721
▁Drag	-12.3721
▁Stol	-12.3721
▁STE	-12.3724
▁pear	-12.3724
▁Asp	-12.3726
olitician	-12.3726
▁crypt	-12.3727
▁Grin	-12.3727
▁asso	-12.3727
▁exo	-12.3727
▁berger	-12.3728
▁Haver	-12.3729
▁lough	-12.3729
▁hoon	-12.373
eteor	-12.3732
▁bian	-12.3733
▁rico	-12.3734
▁Pine	-12.3737
▁Stor	-12.3737
hoot	-12.3738
▁Bran	-12.3738
Hon	-12.3739
▁cker	-12.3739
▁Rip	-12.3739
▁Dale	-12.374
▁Mand	-12.374
▁Jab	-12.3751
▁rine	-12.3752
▁urin	-12.3752
hwart	-12.3752
▁1-	-12.3753
▁Blo	-12.3756
ín	-12.3763
tire	-12.377
▁Lay	-12.3771
ustain	-12.3771
,999	-12.3771
▁perm	-12.3777
Sha	-12.3777
aunch	-12.3778
▁arra	-12.3778
▁isha	-12.3784
▁mesh	-12.3787
▁itous	-12.3789
▁invasive	-12.3792
▁itz	-12.3796
▁Lear	-12.38
▁1.3	-12.3801
▁Oc	-12.3802
▁OF	-12.3802
▁rop	-12.3804
9,000	-12.3806
ev	-12.3809
▁SL	-12.3814
▁AJ	-12.3822
▁Coin	-12.3823
▁$11	-12.3823
▁iva	-12.3831
▁Bard	-12.3835
did	-12.3845
▁akis	-12.3846
▁Youn	-12.3847
event	-12.3852
▁Sah	-12.3856
-30	-12.3867
mbi	-12.3868
▁cic	-12.387
▁6-4	-12.3879
vade	-12.3884
▁Sib	-12.3886
eg	-12.3901
▁Diet	-12.3901
Find	-12.3905
▁190	-12.3906
▁Suf	-12.3906
▁94	-12.3912
▁adam	-12.3913
▁sol	-12.3914
▁Kro	-12.3916
▁tram	-12.3923
orgi	-12.3924
▁Om	-12.3928
-17	-12.3928
Here	-12.3929
▁մ	-12.3934
▁Won	-12.3936
ram	-12.3939
▁Rest	-12.3941
count	-12.3947
language	-12.3949
major	-12.3949
huge	-12.3949
Right	-12.395
black	-12.395
crime	-12.3951
director	-12.3951
going	-12.3951
Under	-12.3951
think	-12.3952
▁savour	-12.3958
▁hob	-12.3961
dent	-12.3969
▁cid	-12.397
▁Buc	-12.3974
▁Gwyn	-12.3975
▁angling	-12.3975
▁biscuit	-12.3975
▁ketamine	-12.3975
▁unravel	-12.3975
▁Ibiza	-12.3975
▁Shield	-12.3975
▁eaves	-12.3975
▁fleck	-12.3975
▁Cliff	-12.3975
▁rapist	-12.3975
▁Craft	-12.3975
▁Pont	-12.3976
▁skew	-12.3976
▁shred	-12.3976
▁tabloid	-12.3976
▁Luka	-12.3976
▁Lance	-12.3976
▁coconut	-12.3977
▁cyclo	-12.3977
▁wool	-12.3977
▁TER	-12.3978
▁Single	-12.3978
▁NAN	-12.3979
▁Present	-12.3979
AC	-12.3979
▁prit	-12.3979
▁ես	-12.3979
▁fetch	-12.398
▁Temp	-12.398
▁detach	-12.398
▁Peak	-12.3981
agge	-12.3981
▁churn	-12.3981
▁Fail	-12.3982
▁Firm	-12.3983
▁Lieu	-12.3983
▁turf	-12.3985
▁Zero	-12.3985
▁fade	-12.3986
▁rini	-12.3987
▁flop	-12.3987
▁LV	-12.3989
▁hora	-12.3989
▁Grey	-12.3991
▁milli	-12.3995
▁Donnell	-12.3996
▁crib	-12.3996
IT	-12.3999
▁Maga	-12.4001
represent	-12.4007
▁sym	-12.401
▁LD	-12.4011
ult	-12.4012
▁Hann	-12.4013
cal	-12.4015
▁Jac	-12.402
▁Gren	-12.4021
▁Saj	-12.4022
Di	-12.4028
▁dha	-12.403
▁walker	-12.4034
▁Sa	-12.404
▁lure	-12.405
▁KO	-12.405
▁Oka	-12.405
▁ushi	-12.4053
▁97	-12.4053
yl	-12.4054
▁allu	-12.4054
AM	-12.4066
▁insky	-12.4067
▁Wear	-12.4068
%2	-12.4071
tank	-12.4076
ո	-12.4077
▁fork	-12.408
▁uri	-12.4082
▁amuse	-12.4083
ակ	-12.4091
▁Sang	-12.4094
▁Done	-12.4099
▁£35	-12.4099
Sham	-12.4103
▁Sul	-12.4105
▁140	-12.4115
▁hart	-12.4117
▁nag	-12.4119
▁ratt	-12.4121
▁emic	-12.4126
2%	-12.4132
▁Tau	-12.4134
▁128	-12.4137
▁tran	-12.4151
.2%	-12.4164
▁Yas	-12.4165
▁Og	-12.4166
agg	-12.4168
▁43,	-12.4178
ken	-12.4179
▁Heal	-12.4181
Bas	-12.4183
▁lav	-12.4183
▁pus	-12.4192
▁iano	-12.4195
▁lop	-12.4197
▁PE	-12.4199
eliver	-12.4199
mb	-12.4202
▁scen	-12.4207
glar	-12.4209
▁Bai	-12.4214
mean	-12.4216
7%	-12.4219
Mexico	-12.4219
Sept	-12.4219
protect	-12.422
share	-12.422
market	-12.422
Press	-12.422
elected	-12.4221
▁(8	-12.4224
Dr	-12.4227
▁mea	-12.4227
▁115	-12.4229
MP	-12.4229
▁2030,	-12.4233
super	-12.4239
▁Akshay	-12.4245
▁Magazin	-12.4245
▁Politico	-12.4245
▁barbecue	-12.4245
▁cracy	-12.4245
▁enstein	-12.4245
▁gadget	-12.4245
▁imagining	-12.4245
▁meticulous	-12.4245
▁nhagen	-12.4245
▁Strategic	-12.4245
▁Podcast	-12.4245
▁Quarter	-12.4245
▁Schedule	-12.4245
▁config	-12.4245
▁freight	-12.4245
▁flesh	-12.4245
▁eiro	-12.4246
▁Witch	-12.4246
▁Drink	-12.4246
▁practitioner	-12.4246
▁cries	-12.4246
▁1978	-12.4246
▁Barclay	-12.4247
▁respirator	-12.4247
▁Hammer	-12.4247
▁£10,000	-12.4247
▁Agent	-12.4247
energ	-12.4247
▁fox	-12.4248
▁illian	-12.4248
▁Ivor	-12.4248
▁Planet	-12.4248
▁lurk	-12.4248
▁14%	-12.4248
▁blink	-12.4249
▁minimi	-12.4249
▁Boyle	-12.4249
▁henko	-12.4249
▁Argo	-12.4249
▁tamper	-12.4249
▁crust	-12.425
▁extortion	-12.425
▁MTV	-12.4251
▁EST	-12.4251
▁mole	-12.4252
▁gren	-12.4253
▁Proba	-12.4254
▁width	-12.4255
▁Lili	-12.4255
▁homo	-12.4255
▁thro	-12.4256
▁cramp	-12.4256
▁nti	-12.4256
▁penet	-12.4257
▁Shee	-12.4257
cost	-12.4257
pook	-12.4258
▁Oppen	-12.4259
▁2,500	-12.426
▁45-	-12.426
aid	-12.4262
▁modu	-12.4265
▁bach	-12.4265
▁magi	-12.4266
▁VR	-12.4266
▁humid	-12.4273
lleg	-12.4275
uz	-12.4278
vo	-12.4279
▁squat	-12.428
▁2004.	-12.4284
▁escu	-12.4292
spe	-12.4302
▁Vita	-12.4302
▁Tir	-12.4306
▁lang	-12.4306
▁Soli	-12.4308
▁atom	-12.4318
yc	-12.4318
▁mela	-12.4319
▁Kob	-12.4322
▁Mega	-12.4325
▁Jaz	-12.4328
1%	-12.4333
▁Marg	-12.4337
▁oud	-12.4338
▁pou	-12.434
▁bark	-12.4352
▁zel	-12.4353
▁gart	-12.4355
▁Harb	-12.4356
ST	-12.4356
▁մա	-12.4362
laci	-12.4362
Play	-12.437
▁noun	-12.437
nant	-12.4372
▁peas	-12.4378
:15	-12.4381
▁ifiers	-12.4382
AR	-12.4387
cro	-12.4397
▁(5	-12.4398
▁(12	-12.4399
live	-12.44
▁worm	-12.44
Ali	-12.4408
▁Nan	-12.4412
▁ight	-12.4412
var	-12.4425
▁1.4	-12.4432
pot	-12.4432
5-	-12.4435
▁4-	-12.4438
▁Tia	-12.4442
▁42-	-12.4444
▁bao	-12.4449
▁Ava	-12.445
▁Yi	-12.4452
▁enne	-12.4465
▁240	-12.4465
mput	-12.4469
cend	-12.4471
1,000	-12.4478
▁Nur	-12.4485
▁Produc	-12.4487
iz	-12.4489
300	-12.449
digit	-12.4495
direct	-12.4496
full	-12.4496
stellar	-12.4497
taking	-12.4497
generate	-12.4497
Hope	-12.4497
leader	-12.4498
▁Nie	-12.4498
▁Zan	-12.4499
▁skate	-12.4499
await	-12.45
Make	-12.45
mass	-12.4502
▁36-	-12.4504
▁40,	-12.4505
▁bada	-12.4505
lived	-12.4508
▁Warm	-12.4508
word	-12.4509
dark	-12.4513
▁thorn	-12.4517
▁ներ	-12.4523
▁Cameroon	-12.4523
▁Cheltenham	-12.4523
▁Zverev	-12.4523
▁concussion	-12.4523
▁consequential	-12.4523
▁embryo	-12.4523
▁reboot	-12.4523
▁sburg	-12.4523
▁talgia	-12.4523
▁template	-12.4523
▁Consult	-12.4523
▁Dermot	-12.4523
▁cocoa	-12.4523
▁coffin	-12.4523
▁մի	-12.4523
▁hobby	-12.4523
▁Raisi	-12.4523
▁oaks	-12.4524
▁Pitch	-12.4524
▁phony	-12.4524
▁nitro	-12.4524
▁blister	-12.4524
▁sdale	-12.4524
▁MEP	-12.4524
▁Kazakh	-12.4524
▁Sugar	-12.4524
▁conquer	-12.4524
▁scrum	-12.4525
▁Camera	-12.4525
▁Crypto	-12.4526
▁Improv	-12.4526
▁NER	-12.4526
ող	-12.4526
▁donald	-12.4526
▁teaser	-12.4527
▁static	-12.4527
▁5-0	-12.4528
▁marvel	-12.4528
▁Lemon	-12.4528
▁Kush	-12.4528
▁Moh	-12.4529
▁Huff	-12.4529
▁wyn	-12.453
▁Soren	-12.453
▁punk	-12.4531
Hz	-12.4531
▁Suit	-12.4531
CO	-12.4533
hot	-12.4534
▁Clip	-12.4537
▁pond	-12.4537
▁clad	-12.4537
han	-12.4538
▁ք	-12.4538
▁catcher	-12.454
▁28.	-12.454
▁Moy	-12.4542
emi	-12.4543
▁doll	-12.4546
▁IRA	-12.4546
▁XL	-12.4547
pit	-12.4549
▁tangle	-12.455
▁Demi	-12.455
▁Shock	-12.455
aged	-12.4551
▁flur	-12.4552
▁IF	-12.4553
▁mop	-12.4554
▁jug	-12.4556
▁TU	-12.4556
▁Cain	-12.4559
▁Bean	-12.4561
▁Semi	-12.4563
▁eke	-12.4564
▁bir	-12.4565
▁Jak	-12.4566
▁tina	-12.457
▁Bali	-12.4571
▁2005.	-12.4571
race	-12.4571
ring	-12.4581
▁teenth	-12.4581
▁nit	-12.4583
Poli	-12.4588
▁Dry	-12.4588
▁PB	-12.459
▁purr	-12.4592
tle	-12.4593
▁Alb	-12.4594
Red	-12.4594
▁IST	-12.4596
▁Plum	-12.4602
,700	-12.4607
▁zal	-12.4608
▁Ground	-12.461
ill	-12.4612
eren	-12.4613
▁Eat	-12.462
\"	-12.4625
▁envi	-12.4628
▁tik	-12.463
▁£300	-12.4637
▁..."	-12.4638
▁trate	-12.4642
ալ	-12.4643
▁tart	-12.4646
▁bats	-12.4648
▁EA	-12.4649
▁50,	-12.4649
▁mina	-12.4654
AL	-12.4658
▁$13	-12.4659
▁circus	-12.4663
$	-12.4666
▁Vit	-12.4668
▁cos	-12.4668
affe	-12.4674
pay	-12.4678
▁soo	-12.468
▁SF	-12.4681
▁Soh	-12.4687
▁£17	-12.4695
rive	-12.47
▁Abd	-12.4704
▁Baz	-12.4708
▁gn	-12.471
▁chor	-12.4713
▁Kis	-12.4714
4)	-12.4714
iva	-12.4718
▁beau	-12.4723
▁tomb	-12.4727
treat	-12.473
abol	-12.4741
shock	-12.4741
sta	-12.4742
iploma	-12.475
▁lar	-12.475
▁cr	-12.4753
▁lim	-12.4755
▁ele	-12.4759
▁Rin	-12.4761
iqu	-12.4768
▁Pis	-12.4769
ateg	-12.4777
Shi	-12.4777
▁Bert	-12.478
â	-12.4781
affirm	-12.4783
Prince	-12.4783
built	-12.4783
health	-12.4783
drop	-12.4783
grow	-12.4783
small	-12.4784
wild	-12.4784
White	-12.4784
▁gott	-12.4785
creat	-12.4785
fail	-12.4786
brand	-12.4787
normal	-12.479
Eng	-12.4792
employ	-12.4794
gulf	-12.4802
Andre	-12.4809
▁precede	-12.4809
surrect	-12.4809
{	-12.4809
▁Johannes	-12.4809
▁Princip	-12.4809
▁Tenerife	-12.4809
▁defiant	-12.4809
▁diligent	-12.4809
▁discretion	-12.4809
▁mammal	-12.4809
▁occurrence	-12.4809
▁torrent	-12.4809
▁transplant	-12.4809
▁Guild	-12.4809
▁easies	-12.4809
▁pencil	-12.4809
▁rogation	-12.4809
▁upheaval	-12.4809
▁fabulous	-12.4809
▁culprit	-12.4809
▁Result	-12.4809
▁mutation	-12.4809
▁appell	-12.4809
▁trench	-12.4809
▁Wiki	-12.4809
▁Talent	-12.4809
▁fiber	-12.4809
▁eering	-12.4809
▁rnal	-12.481
▁vault	-12.481
▁acqua	-12.481
▁1966	-12.481
▁hustle	-12.4811
▁bleak	-12.4811
▁annex	-12.4811
▁ով	-12.4812
▁mural	-12.4812
▁volcano	-12.4812
cad	-12.4812
▁TON	-12.4812
▁1930	-12.4813
▁ից	-12.4813
▁Stick	-12.4814
▁Cafe	-12.4814
▁zier	-12.4814
▁Amir	-12.4815
▁Poet	-12.4816
▁trek	-12.4816
▁kilogram	-12.4817
▁fax	-12.4817
▁Plain	-12.4817
▁SEA	-12.4817
▁hijack	-12.4818
▁Dome	-12.4819
▁SIM	-12.4819
▁choke	-12.4821
▁owl	-12.4821
,900	-12.4822
▁ADA	-12.4822
▁nical	-12.4823
▁moto	-12.4823
▁Fry	-12.4824
▁(9	-12.4825
▁Koh	-12.4829
nstru	-12.4831
▁1000	-12.4831
▁Kom	-12.4831
aunt	-12.4836
-14	-12.4838
▁Pole	-12.4838
▁ashi	-12.4839
▁Arnold	-12.484
▁polo	-12.484
▁Jaw	-12.4843
▁salu	-12.4849
▁Vine	-12.4851
▁heit	-12.4853
▁Olu	-12.4853
bar	-12.4856
harmon	-12.4859
▁Bog	-12.486
▁Kari	-12.4861
▁Witt	-12.4862
▁arty	-12.4862
▁mania	-12.4863
▁PF	-12.4863
ara	-12.4863
▁WR	-12.4864
▁Male	-12.4867
stit	-12.4868
▁Bour	-12.4869
▁und	-12.487
▁Bent	-12.4872
▁breaker	-12.4876
▁reus	-12.4878
▁UR	-12.4881
add	-12.4882
▁satir	-12.4884
▁OL	-12.4886
▁yama	-12.4887
▁WB	-12.4887
▁Bale	-12.4888
land	-12.4891
"?	-12.4893
▁Mina	-12.4894
▁SM	-12.4899
▁ée	-12.4899
▁hari	-12.49
seven	-12.4903
▁iad	-12.4906
oda	-12.4914
5%	-12.4925
lon	-12.4926
▁grun	-12.4941
hair	-12.4944
▁Log	-12.4945
▁dio	-12.4945
▁Fig	-12.4954
ama	-12.4958
▁Pom	-12.4961
qui	-12.4965
▁cep	-12.4979
dra	-12.498
▁exer	-12.4981
bear	-12.4985
▁Clos	-12.4995
noma	-12.5003
▁24.	-12.5005
▁Prem	-12.5007
reak	-12.5008
ska	-12.501
ary	-12.5016
vers	-12.5019
ji	-12.502
bet	-12.5021
▁spir	-12.5021
▁lla	-12.5023
gress	-12.5042
▁Kah	-12.5049
▁topp	-12.5053
<	-12.5062
▁Nort	-12.5064
dian	-12.5068
▁վ	-12.5068
▁գ	-12.5069
Arnold	-12.5077
blue	-12.5077
capaci	-12.5077
green	-12.5077
heart	-12.5077
▁anya	-12.5079
wear	-12.5085
sponsor	-12.5087
Oct	-12.5091
▁2005,	-12.5091
▁Ele	-12.5095
plic	-12.5096
▁Stefan	-12.5099
▁Ev	-12.5102
▁congre	-12.5102
▁bob	-12.5102
imagin	-12.5103
▁Apprentice	-12.5103
▁Guatemala	-12.5103
▁Plymouth	-12.5103
▁Soldier	-12.5103
▁Worcester	-12.5103
▁blitz	-12.5103
▁ceramic	-12.5103
▁delusion	-12.5103
hectare	-12.5103
▁transcript	-12.5103
▁izzy	-12.5103
▁stitch	-12.5103
▁dolphin	-12.5103
_960	-12.5103
▁Vijay	-12.5103
▁Enjoy	-12.5103
▁año	-12.5103
▁ruffle	-12.5103
540,	-12.5103
▁Pract	-12.5103
▁kirk	-12.5103
▁Broke	-12.5103
▁Doyle	-12.5103
▁rife	-12.5104
▁gossip	-12.5104
▁fluff	-12.5104
▁earnest	-12.5104
▁hoard	-12.5104
▁falter	-12.5104
▁bloat	-12.5104
▁aspirin	-12.5104
▁dental	-12.5105
▁erode	-12.5105
▁0-0	-12.5105
▁Baptist	-12.5106
▁simmer	-12.5106
▁Chapel	-12.5106
▁Cream	-12.5106
▁armour	-12.5107
trick	-12.5108
▁6-2	-12.5108
▁cleanse	-12.5109
rrog	-12.5109
▁deci	-12.5111
▁Dre	-12.5111
fit	-12.5112
▁Hump	-12.5112
▁Exce	-12.5113
▁devil	-12.5113
▁Forge	-12.5114
▁à	-12.5114
prod	-12.5114
▁ffer	-12.5115
▁strom	-12.5119
▁Yak	-12.512
▁Loch	-12.512
▁trav	-12.5121
▁ilo	-12.5122
▁arse	-12.5122
▁Till	-12.5123
▁FY	-12.5124
asket	-12.5124
▁Smi	-12.5125
▁plex	-12.5125
▁fend	-12.5125
▁litz	-12.5125
▁Lew	-12.5129
▁boro	-12.513
▁7-	-12.513
▁lair	-12.5134
▁39-	-12.5135
russia	-12.5136
▁Shark	-12.5137
▁Door	-12.5138
▁MV	-12.5138
▁hearted	-12.5138
▁bub	-12.514
▁FU	-12.5143
▁hiker	-12.5144
▁hoff	-12.5145
50,000	-12.5147
▁Guan	-12.5148
▁dott	-12.5152
8%	-12.5156
▁enda	-12.5157
▁OT	-12.5159
▁ip	-12.516
▁9%	-12.5161
▁Koe	-12.517
▁Mine	-12.5174
roid	-12.5174
▁Lah	-12.5177
gue	-12.5178
▁teller	-12.5179
▁Nam	-12.5181
▁160	-12.519
▁TB	-12.5193
qu	-12.5195
▁Lim	-12.5199
▁prof	-12.5199
▁4-2	-12.52
▁Nab	-12.5207
ragm	-12.521
rap	-12.5242
site	-12.5247
▁fre	-12.5247
▁Abra	-12.5253
▁Vel	-12.5263
▁mur	-12.5268
▁Cul	-12.5274
olden	-12.528
▁Rup	-12.5282
fest	-12.5282
▁carb	-12.5285
▁Vu	-12.5302
▁Az	-12.5307
▁Mes	-12.531
▁Kurt	-12.5311
▁timer	-12.5317
▁1.8	-12.5321
▁Gel	-12.5325
GE	-12.5328
▁adia	-12.533
▁22.	-12.5332
give	-12.5337
ence	-12.5342
IM	-12.5342
լ	-12.5348
▁54,	-12.535
▁preserv	-12.535
▁dean	-12.5357
rit	-12.5367
▁$25	-12.537
▁Gha	-12.5373
▁fem	-12.5375
ել	-12.5379
hearted	-12.538
horr	-12.538
something	-12.538
catch	-12.538
▁exemp	-12.538
Give	-12.5385
help	-12.5387
metre	-12.5388
:40	-12.539
table	-12.539
▁Kn	-12.5401
nfra	-12.5404
▁9/11	-12.5406
▁Leclerc	-12.5406
▁istically	-12.5406
▁maneuver	-12.5406
▁physics	-12.5406
▁pigeon	-12.5406
▁sourcing	-12.5406
▁Fritz	-12.5406
▁Meyer	-12.5406
▁orphan	-12.5406
▁vivid	-12.5406
▁vocation	-12.5406
▁spider	-12.5406
▁hortlist	-12.5406
▁eiman	-12.5406
▁diverge	-12.5406
▁Claus	-12.5406
▁railroad	-12.5406
▁shuttle	-12.5406
▁lique	-12.5407
▁Bonus	-12.5407
▁Fleet	-12.5407
▁1962	-12.5407
▁inflate	-12.5407
▁WIN	-12.5407
▁marina	-12.5407
▁$100,000	-12.5407
▁1947	-12.5407
▁shear	-12.5407
▁Victim	-12.5408
▁HQ	-12.5408
▁£500	-12.5408
▁30.	-12.5408
▁wolf	-12.5408
▁վել	-12.5408
▁Cuban	-12.5408
▁cringe	-12.5408
Pri	-12.5409
▁Choice	-12.5409
▁Parisi	-12.541
▁MER	-12.541
▁salon	-12.5411
▁PH	-12.5412
▁Normal	-12.5412
▁blade	-12.5413
Gar	-12.5413
▁haka	-12.5414
▁eaten	-12.5414
▁Pound	-12.5416
▁Flag	-12.5416
▁Beautiful	-12.5417
▁naught	-12.5417
riol	-12.5419
▁suf	-12.5419
▁Seek	-12.542
Vi	-12.5421
▁junk	-12.5422
▁lisa	-12.5422
▁axe	-12.5423
▁blower	-12.5423
▁Minor	-12.5423
▁Boom	-12.5424
▁Dro	-12.5425
▁brac	-12.5427
▁pex	-12.5429
▁աց	-12.5429
sport	-12.5432
▁jah	-12.5433
▁digit	-12.5436
▁umba	-12.5437
▁rman	-12.5439
▁DL	-12.5441
▁goers	-12.5443
▁Counter	-12.5445
▁inci	-12.5446
dem	-12.5447
▁hove	-12.5448
▁8,000	-12.5448
▁Neal	-12.545
▁61,	-12.545
▁rro	-12.5451
▁mani	-12.5459
NA	-12.5459
were	-12.546
▁colli	-12.5465
▁Raf	-12.5466
lit	-12.5468
▁tala	-12.5469
dult	-12.547
▁$60	-12.5472
▁bog	-12.5473
▁Pie	-12.5479
▁zan	-12.548
shot	-12.5482
▁Bott	-12.5483
▁2007.	-12.5484
▁én	-12.5486
▁gat	-12.5493
specific	-12.5495
▁IQ	-12.5498
▁2003,	-12.5498
▁eck	-12.5504
▁gast	-12.5508
▁Aj	-12.5508
պ	-12.5512
▁Rau	-12.5513
-11	-12.5519
":"1	-12.5521
yll	-12.5525
▁fen	-12.5532
▁coma	-12.5542
3)	-12.5548
▁$250	-12.5548
▁Mela	-12.5551
▁Tap	-12.5552
▁thal	-12.5555
▁£11	-12.5556
▁combe	-12.5558
▁berth	-12.5566
▁zin	-12.5567
▁cano	-12.5569
other	-12.5571
▁rev	-12.5572
▁41,	-12.5578
▁Ton	-12.5586
▁clum	-12.5592
ledg	-12.5605
Big	-12.5609
▁tomy	-12.5612
unt	-12.5614
250	-12.5615
▁nder	-12.5616
[	-12.5616
bed	-12.5617
▁Belt	-12.5624
▁rak	-12.5628
▁Dom	-12.5633
անի	-12.5647
▁Hid	-12.5655
ettle	-12.5666
ker	-12.5668
▁inda	-12.5669
Sam	-12.5674
awn	-12.5678
keep	-12.5691
floor	-12.5692
forward	-12.5692
mouth	-12.5692
effective	-12.5692
fringe	-12.5693
Also	-12.5693
David	-12.5696
didn	-12.57
▁Bomb	-12.5711
▁JA	-12.5715
▁quin	-12.5715
More	-12.5716
="{"	-12.5718
oeuvr	-12.5718
▁Clyde	-12.5718
▁Flint	-12.5718
▁Grealish	-12.5718
▁Nairobi	-12.5718
▁Nugget	-12.5718
▁Terminal	-12.5718
▁abundance	-12.5718
▁anecdote	-12.5718
▁demolition	-12.5718
▁diaspora	-12.5718
▁moniker	-12.5718
▁nburg	-12.5718
▁pyramid	-12.5718
▁snooker	-12.5718
▁syrup	-12.5718
▁thwaite	-12.5718
▁yoghurt	-12.5718
▁հետ	-12.5718
▁2023-24	-12.5718
▁tractor	-12.5718
▁blunder	-12.5718
▁hurr	-12.5718
▁scanner	-12.5718
▁Destin	-12.5718
eradicate	-12.5719
▁rigid	-12.5719
▁clerk	-12.5719
▁59,	-12.5719
▁ntus	-12.5719
▁Honey	-12.5719
▁Problem	-12.5719
▁candy	-12.5719
▁clown	-12.5719
▁£100,000	-12.572
▁75%	-12.572
▁fri	-12.572
▁curry	-12.572
▁atmos	-12.572
▁Arrow	-12.572
▁Tyne	-12.572
▁23%	-12.5721
▁Abdel	-12.5721
▁woo	-12.5722
▁999	-12.5723
▁Vander	-12.5723
▁WE	-12.5723
▁Roj	-12.5724
▁Gibb	-12.5724
▁AVE	-12.5725
▁timulate	-12.5726
▁Liga	-12.5728
▁2029	-12.5728
filt	-12.5729
▁Zay	-12.5729
▁$17	-12.573
▁Guer	-12.573
▁dodge	-12.573
▁Mandel	-12.573
▁Haf	-12.573
▁Nev	-12.573
▁Tier	-12.5731
▁Katz	-12.5733
▁Bake	-12.5733
pleas	-12.5735
▁Keen	-12.5735
▁Opti	-12.5737
▁gish	-12.5739
▁LU	-12.5741
▁Mandi	-12.5741
▁repa	-12.5741
▁Duff	-12.5743
▁idiot	-12.5746
▁Mama	-12.5747
▁Lot	-12.5749
▁React	-12.5751
▁melo	-12.5752
▁lian	-12.5753
▁Rust	-12.5756
▁Mori	-12.5756
▁Gallo	-12.5757
DE	-12.5757
******	-12.5757
▁IMS	-12.5758
ease	-12.5759
▁Send	-12.5765
▁Sharp	-12.5769
▁JC	-12.577
▁NEWS	-12.5775
▁lax	-12.5775
▁Amar	-12.5776
▁Soul	-12.5777
rmo	-12.5778
▁KE	-12.5779
▁ovo	-12.5789
▁Batt	-12.5801
then	-12.5802
▁Fact	-12.5815
Jun	-12.5815
▁Mod	-12.5819
ital	-12.5819
▁Bam	-12.5824
▁Ole	-12.5824
▁lore	-12.5827
▁igo	-12.5828
▁GO	-12.5829
▁Lol	-12.5832
▁Poi	-12.5833
▁eous	-12.5833
gra	-12.5834
▁Khu	-12.5839
▁01	-12.5857
▁Ani	-12.5857
pric	-12.5859
▁ific	-12.5861
▁wei	-12.5872
Tom	-12.5873
▁Cos	-12.5875
▁Senn	-12.5882
▁derma	-12.5891
wo	-12.5911
▁tow	-12.5923
▁44,	-12.5924
▁duct	-12.5926
▁ume	-12.5926
▁07	-12.5927
Ru	-12.5928
▁Feli	-12.5929
▁eros	-12.5932
▁IX	-12.5936
▁09	-12.5942
▁wara	-12.5944
▁Doo	-12.5944
.99,	-12.5955
ack	-12.5963
.35	-12.5974
▁trot	-12.5977
▁Ard	-12.6
▁52,	-12.6001
▁39,	-12.6002
▁Butt	-12.6003
▁barn	-12.6003
tial	-12.6013
գ	-12.6014
Donnell	-12.6015
publish	-12.6015
corrupt	-12.6015
double	-12.6015
Michael	-12.6015
defense	-12.6015
interest	-12.6015
country	-12.6015
print	-12.6015
Scot	-12.6015
board	-12.6016
▁intern	-12.6016
design	-12.6019
pos	-12.602
happ	-12.602
▁wax	-12.6021
price	-12.6021
UK	-12.6023
▁105	-12.6024
.3%	-12.603
eye	-12.6034
:</	-12.6036
▁ovsk	-12.6037
▁evalu	-12.6041
▁ություն	-12.6041
▁bachelor	-12.6041
▁Bosnia	-12.6041
▁Ferdinand	-12.6041
▁Vehicle	-12.6041
▁caramel	-12.6041
▁conglomerate	-12.6041
▁excursion	-12.6041
▁expansive	-12.6041
▁handicap	-12.6041
▁instalment	-12.6041
▁jockey	-12.6041
▁owitz	-12.6041
▁pesticide	-12.6041
▁practise	-12.6041
▁pudding	-12.6041
▁ulsory	-12.6041
▁Miguel	-12.6041
▁cinct	-12.6041
▁odile	-12.6041
▁Heaven	-12.6041
▁recreate	-12.6041
▁shrimp	-12.6041
▁abstract	-12.6041
▁blush	-12.6041
▁tumult	-12.6041
▁Oslo	-12.6041
▁vinyl	-12.6041
▁Tunis	-12.6041
▁absentee	-12.6041
▁retrospect	-12.6041
▁Large	-12.6041
▁clair	-12.6042
▁Felix	-12.6042
▁1963	-12.6042
dynast	-12.6042
journ	-12.6042
▁saint	-12.6042
▁yuan	-12.6042
▁croc	-12.6042
equin	-12.6043
▁Champ	-12.6043
▁paraly	-12.6043
▁Baltic	-12.6043
▁frequency	-12.6043
▁peck	-12.6044
▁Dist	-12.6044
▁mince	-12.6044
▁GET	-12.6044
▁auditor	-12.6045
▁Predict	-12.6045
▁dismay	-12.6045
▁caveat	-12.6045
▁scour	-12.6045
pso	-12.6046
▁NYC	-12.6048
▁Flu	-12.6049
▁urine	-12.6051
gov	-12.6051
▁2050	-12.6052
vot	-12.6053
▁odor	-12.6057
▁mick	-12.6057
▁stove	-12.6057
▁cracker	-12.6059
▁oku	-12.6059
▁256	-12.6059
▁26.	-12.6059
▁zig	-12.606
▁Toni	-12.6061
▁squa	-12.6062
3%	-12.6062
▁Lean	-12.6064
pri	-12.6065
▁itism	-12.6065
▁commerce	-12.6066
▁Chou	-12.6066
▁Sax	-12.6066
▁401	-12.6068
▁57,	-12.6072
slave	-12.6073
▁Imperial	-12.6074
▁ellar	-12.6075
▁այ	-12.6075
trip	-12.6077
bat	-12.6077
▁rada	-12.6079
▁gio	-12.6079
Jam	-12.6079
▁Pak	-12.608
Rough	-12.6084
▁Brod	-12.6085
NC	-12.6086
▁Brom	-12.6087
▁blo	-12.6088
▁induc	-12.6088
▁funk	-12.6092
▁7,000	-12.6094
▁Este	-12.6097
▁Mohan	-12.6099
▁Mig	-12.61
▁Gle	-12.6103
▁tonic	-12.6109
▁Butter	-12.6112
▁Stall	-12.6112
▁dull	-12.6116
inc	-12.6117
Ar	-12.6127
Non	-12.6128
▁mul	-12.6133
▁Beal	-12.6138
chiev	-12.6149
▁brav	-12.6159
scri	-12.6172
ը	-12.6177
MA	-12.6177
▁6:	-12.6177
▁$300	-12.6181
▁60,	-12.6189
▁lli	-12.6195
▁1973	-12.6196
▁oso	-12.6196
lly	-12.62
▁pau	-12.6202
▁scarce	-12.6204
inn	-12.621
Cha	-12.6217
▁8%	-12.6221
▁atta	-12.6223
▁£45	-12.6233
Top	-12.6237
▁47,	-12.6238
hocolat	-12.624
itu	-12.6242
▁£150	-12.6244
▁Tun	-12.6251
▁ule	-12.6263
▁lina	-12.6273
▁hawk	-12.6284
source	-12.6285
▁Contr	-12.6289
▁Ey	-12.6299
▁esp	-12.6303
▁53,	-12.6304
▁LS	-12.6306
▁Hero	-12.6307
culi	-12.631
]."	-12.6315
gol	-12.6325
▁($3	-12.633
▁wit	-12.6333
▁JO	-12.6339
Germa	-12.6341
extra	-12.6344
know	-12.6347
decade	-12.6348
colour	-12.6348
defend	-12.6349
Happ	-12.6349
favour	-12.6349
social	-12.6349
Pier	-12.6349
March	-12.6349
▁afa	-12.635
cook	-12.6351
torn	-12.6353
thumb	-12.6355
terri	-12.6356
Out	-12.6359
goal	-12.6364
▁IE	-12.6367
guish	-12.6372
▁calcul	-12.6374
	-12.6374
▁Architect	-12.6374
▁Grazia	-12.6374
▁Namibia	-12.6374
▁Ngannou	-12.6374
▁Uruguay	-12.6374
▁egregious	-12.6374
▁ifiable	-12.6374
▁24/7	-12.6374
▁LOVE	-12.6374
▁buoy	-12.6374
▁Value	-12.6374
▁uli	-12.6374
▁Solomon	-12.6374
▁Reich	-12.6375
explic	-12.6375
▁velvet	-12.6375
▁Surge	-12.6375
▁Attempt	-12.6375
▁iggs	-12.6375
▁precarious	-12.6375
▁tutor	-12.6375
ecurit	-12.6375
▁niece	-12.6375
▁Cotton	-12.6376
▁£1,000	-12.6376
▁bamboo	-12.6376
iffer	-12.6376
▁LIN	-12.6376
▁PFL	-12.6376
▁Gerald	-12.6376
▁TSA	-12.6377
▁surname	-12.6377
▁Casino	-12.6377
▁Pretty	-12.6377
▁Bail	-12.6378
▁inski	-12.6378
▁Solar	-12.6378
▁Cott	-12.6378
▁extinct	-12.6378
▁lazy	-12.6378
▁Thunder	-12.6379
▁Marti	-12.6379
▁Demand	-12.638
▁stoke	-12.638
▁axis	-12.638
▁Pearl	-12.638
▁Romeo	-12.6381
▁13,000	-12.6382
▁Mov	-12.6383
▁Attend	-12.6383
▁turbo	-12.6384
▁demean	-12.6387
cruit	-12.6388
▁maze	-12.6389
▁trump	-12.639
▁bhi	-12.6393
▁Duran	-12.6397
hr	-12.6397
▁Sunny	-12.6398
contin	-12.6398
▁Parr	-12.6399
▁ISS	-12.6399
▁Hank	-12.6403
▁Tek	-12.6404
▁MH	-12.6405
▁fal	-12.6405
-22	-12.6407
▁Marx	-12.6408
bey	-12.6408
Bar	-12.6409
▁chuk	-12.6412
▁quint	-12.6414
try	-12.6414
▁Farr	-12.6415
▁Cir	-12.6418
▁lynn	-12.6422
▁Glam	-12.6423
▁raft	-12.643
▁Chao	-12.6434
▁rog	-12.6438
տ	-12.645
▁1.7	-12.6453
▁Esc	-12.6457
▁xi	-12.6458
▁rama	-12.6458
▁Beer	-12.6458
▁(13	-12.6458
▁Pap	-12.6461
Ja	-12.6461
-35	-12.6462
▁38-	-12.6465
▁Wave	-12.6468
▁yev	-12.6473
peak	-12.6476
▁$35	-12.6477
▁Mic	-12.6479
San	-12.6482
****	-12.6482
udg	-12.6482
▁lut	-12.6483
▁embe	-12.6484
▁CT	-12.6486
▁TS	-12.6487
▁rash	-12.649
▁bide	-12.6492
▁Herr	-12.6495
աց	-12.6502
▁ord	-12.6503
2.5	-12.6508
Ki	-12.6509
eth	-12.6513
▁analy	-12.6516
▁$1.5	-12.652
▁հա	-12.6527
▁6-0	-12.6532
▁suck	-12.6535
witch	-12.6542
ral	-12.6542
▁aint	-12.6554
▁1999.	-12.6555
▁Shell	-12.6557
▁Rig	-12.6559
men	-12.6563
Gu	-12.6563
cup	-12.6585
▁Novo	-12.6591
▁Kaz	-12.6597
▁closet	-12.6598
aug	-12.6606
▁Sob	-12.6607
▁mol	-12.6623
▁5.5	-12.6625
▁Bala	-12.6626
▁HE	-12.6638
▁Hut	-12.664
▁2027.	-12.664
▁surer	-12.6641
main	-12.6645
▁49,	-12.6646
▁lem	-12.6652
weigh	-12.6656
▁hr	-12.6658
eme	-12.6659
▁acro	-12.666
ffort	-12.6664
▁Cl	-12.6664
est	-12.6665
▁Ast	-12.6666
▁Tea	-12.6667
▁9-	-12.6672
▁Him	-12.6679
commerce	-12.6693
crypt	-12.6693
Muslim	-12.6693
British	-12.6693
Great	-12.6693
attack	-12.6693
family	-12.6693
food	-12.6693
South	-12.6693
€	-12.6694
case	-12.6695
invent	-12.6695
▁</	-12.6696
Pale	-12.6696
Read	-12.6697
Bill	-12.6697
meter	-12.6698
aff	-12.6699
limit	-12.6699
eighbour	-12.67
Bala	-12.6701
▁GR	-12.6701
Bad	-12.6702
▁zu	-12.6703
EU	-12.6704
omplete	-12.6713
anti	-12.6714
▁gol	-12.6714
▁SH	-12.6715
thank	-12.6715
▁affili	-12.6718
egreg	-12.6719
▁Kenzie	-12.6719
▁Nutrition	-12.6719
▁OnlyFans	-12.6719
▁Sánchez	-12.6719
▁Wegovy	-12.6719
▁aciones	-12.6719
▁affidavit	-12.6719
▁asthma	-12.6719
▁burial	-12.6719
▁dilemma	-12.6719
▁fountain	-12.6719
▁hysteric	-12.6719
▁khtar	-12.6719
▁patriarch	-12.6719
▁peculiar	-12.6719
▁pneumonia	-12.6719
▁remorse	-12.6719
▁silhouette	-12.6719
▁stalwart	-12.6719
▁subpoena	-12.6719
▁therapies	-12.6719
▁vodka	-12.6719
▁Monitor	-12.6719
▁endeavor	-12.6719
▁tycoon	-12.6719
▁uperpower	-12.6719
▁Compare	-12.6719
▁missive	-12.6719
▁mishap	-12.6719
▁fumble	-12.6719
conci	-12.6719
▁croft	-12.6719
▁Title	-12.6719
▁Blind	-12.6719
▁Aleks	-12.672
▁mouse	-12.672
▁timber	-12.672
▁cathedral	-12.672
▁Pune	-12.6721
▁gastro	-12.6721
▁Malcolm	-12.6721
▁Smoke	-12.6722
▁rimmed	-12.6722
▁Sgt	-12.6722
▁MEN	-12.6723
▁Fest	-12.6723
▁boiler	-12.6724
▁Pande	-12.6725
▁իր	-12.6725
▁nuous	-12.6725
▁ային	-12.6725
▁AND	-12.6726
llow	-12.6726
▁narco	-12.6726
▁vender	-12.6728
▁Kher	-12.6729
▁prank	-12.6729
▁incre	-12.6731
▁rabbit	-12.6731
▁banter	-12.6732
▁RES	-12.6733
▁Rana	-12.6733
dia	-12.6735
See	-12.6736
▁Sight	-12.6736
▁tta	-12.6736
▁potter	-12.6737
▁Alba	-12.6737
▁ruck	-12.6737
▁Ա	-12.6738
▁vigor	-12.6738
▁trooper	-12.6741
▁amber	-12.6745
▁pied	-12.6745
▁Terra	-12.6748
▁zoom	-12.6748
▁Rib	-12.6749
ggi	-12.6752
▁Baha	-12.6754
▁Loan	-12.6756
▁Tang	-12.6757
▁Gain	-12.6758
avor	-12.6765
▁Navi	-12.6767
▁Mei	-12.6769
▁eca	-12.6769
▁Hoy	-12.677
▁kle	-12.6772
gas	-12.6773
Fa	-12.6774
▁barri	-12.6775
▁Lig	-12.6776
95%	-12.6776
▁Aqu	-12.6783
▁nun	-12.679
▁1.1	-12.679
▁54-	-12.6791
▁VC	-12.6793
▁(£3	-12.68
▁lister	-12.681
▁Sell	-12.6814
▁CK	-12.682
rac	-12.6824
fut	-12.6825
▁squirrel	-12.6829
▁58,	-12.6831
▁arc	-12.6837
▁howl	-12.685
▁caste	-12.6862
Ste	-12.6863
erv	-12.6873
▁furt	-12.6873
▁asp	-12.6881
▁Vet	-12.6883
▁tte	-12.6893
plet	-12.6895
▁Gh	-12.6895
▁duel	-12.6899
▁gaz	-12.6902
entle	-12.6903
-47	-12.6904
▁$40	-12.6909
▁fec	-12.6911
vert	-12.6912
▁OP	-12.6917
▁kon	-12.6919
iels	-12.6927
▁1.6	-12.693
▁Kart	-12.6932
core	-12.6958
▁1/2	-12.6968
▁pil	-12.6969
▁acc	-12.6971
Men	-12.699
▁Wis	-12.6994
▁($	-12.7009
hl	-12.7013
▁47-	-12.7026
▁ault	-12.7031
ail	-12.7033
room	-12.7039
met	-12.7045
▁wang	-12.7045
road	-12.7047
exist	-12.7048
▁dow	-12.705
esque	-12.705
league	-12.705
trauma	-12.705
Israeli	-12.705
choice	-12.705
public	-12.705
Jones	-12.705
judge	-12.705
nothing	-12.7051
office	-12.7051
body	-12.7051
little	-12.7052
box	-12.7054
proof	-12.7054
cross	-12.7054
laugh	-12.7054
posit	-12.7055
lb	-12.7056
dead	-12.7056
fair	-12.7057
lk	-12.706
una	-12.7062
owner	-12.7065
Pet	-12.7065
Best	-12.7068
▁addy	-12.7068
6%	-12.7069
bath	-12.7071
fast	-12.7072
▁Caf	-12.7073
▁109	-12.7074
▁asse	-12.7076
▁Cavalier	-12.7076
▁Deutsch	-12.7076
▁Edmonton	-12.7076
▁Humphrey	-12.7076
▁Keogh	-12.7076
▁Mallorca	-12.7076
▁Speech	-12.7076
▁efinitely	-12.7076
▁endeavour	-12.7076
▁heoretical	-12.7076
▁ornament	-12.7076
▁ountains	-12.7076
▁refrigerator	-12.7076
▁skeleton	-12.7076
▁synagogue	-12.7076
▁atories	-12.7076
▁nnial	-12.7076
▁Admiral	-12.7076
▁Flip	-12.7076
▁Illus	-12.7076
▁Meadow	-12.7076
▁Fein	-12.7076
▁Á	-12.7077
▁trunk	-12.7077
▁Faith	-12.7077
▁aughter	-12.7078
▁1961	-12.7078
▁nacho	-12.7078
▁$50,000	-12.7078
▁1944	-12.7078
▁piss	-12.7079
▁Except	-12.7079
▁Dutt	-12.7079
▁raven	-12.7079
▁37%	-12.708
▁11%	-12.7081
War	-12.7081
▁mold	-12.7081
▁flush	-12.7081
▁Essential	-12.7082
▁toppers	-12.7082
▁Civi	-12.7082
▁relish	-12.7082
▁kanth	-12.7083
licit	-12.7083
▁Dhan	-12.7083
▁TED	-12.7084
▁SON	-12.7084
▁Allah	-12.7085
▁Ayr	-12.7086
ogg	-12.7086
bull	-12.7087
▁150,000	-12.7087
▁HU	-12.7087
▁1920	-12.7088
▁Tube	-12.7088
▁cken	-12.7089
▁3:	-12.709
▁roam	-12.7091
▁pher	-12.7092
▁Camil	-12.7092
▁Blum	-12.7092
▁ANI	-12.7093
▁1500	-12.7094
▁bait	-12.7095
▁Cardi	-12.7095
▁zzo	-12.7096
▁Letter	-12.7096
▁kg	-12.7097
▁peg	-12.7098
▁VM	-12.71
pic	-12.7101
▁©	-12.7102
▁Shoe	-12.7103
▁liar	-12.7104
▁Cheat	-12.7105
▁Tank	-12.7105
▁զ	-12.7105
hronic	-12.7108
▁ակ	-12.7109
▁cose	-12.7112
▁hollow	-12.7112
▁idad	-12.7115
▁asco	-12.7116
▁4-1	-12.7118
▁Ost	-12.7122
▁blad	-12.7122
▁Grove	-12.7126
▁Vau	-12.7128
▁weep	-12.7129
▁angled	-12.7136
▁Sana	-12.7137
ggle	-12.7138
udi	-12.7143
▁nian	-12.7144
▁55-	-12.7145
▁Mint	-12.7146
▁2.6	-12.715
▁tash	-12.7151
ore	-12.7151
▁06	-12.7154
▁dent	-12.7154
nomi	-12.7157
▁TG	-12.7158
▁Bli	-12.7161
▁2027	-12.7166
▁cele	-12.717
▁pap	-12.7175
▁Cave	-12.7176
▁astri	-12.7177
▁2.7	-12.7178
▁2002.	-12.7182
▁tilt	-12.7184
mates	-12.7188
▁Tol	-12.7198
Hu	-12.7209
▁UG	-12.7214
▁nip	-12.7216
fle	-12.7218
▁kim	-12.7222
▁Shad	-12.7226
▁acu	-12.723
▁lex	-12.7232
▁6.5	-12.7234
▁barg	-12.7237
▁2.1	-12.7238
Che	-12.7239
News	-12.724
natal	-12.7241
▁(0	-12.7246
▁uth	-12.7261
▁Ez	-12.7261
▁heid	-12.7261
▁51,	-12.7261
/20	-12.7261
fur	-12.7266
til	-12.7267
▁3.3	-12.7267
▁minim	-12.7273
▁Rent	-12.7274
1.5	-12.7286
▁£16	-12.7287
▁extin	-12.7289
▁Lal	-12.729
▁lig	-12.7291
Ad	-12.7294
▁Pr	-12.73
▁£28	-12.7305
▁dir	-12.7307
alin	-12.7313
▁Brat	-12.7317
die	-12.732
Dec	-12.7324
▁yne	-12.7325
▁maine	-12.7332
▁Rag	-12.734
▁27.	-12.7341
▁eternal	-12.7346
▁Bend	-12.735
eno	-12.7351
▁Inspir	-12.7353
▁25.	-12.7361
▁պա	-12.7368
▁,""	-12.7374
7.7	-12.7376
▁upp	-12.7378
▁$1.2	-12.738
▁45,	-12.7381
▁Sens	-12.7383
▁gli	-12.7392
▁BP	-12.7394
▁Lem	-12.7395
ua	-12.7399
rgy	-12.7409
▁WF	-12.7409
firm	-12.7413
▁bled	-12.7414
©	-12.742
#	-12.742
occupied	-12.7421
Nazi	-12.7421
Saturday	-12.7421
blood	-12.7421
death	-12.7421
important	-12.7421
wheel	-12.7421
color	-12.7422
fake	-12.7422
book	-12.7423
rang	-12.7428
personal	-12.7432
▁ú	-12.7433
db	-12.7436
mperial	-12.7438
▁plo	-12.7445
▁Cambodia	-12.7447
▁Cecil	-12.7447
▁Ernest	-12.7447
▁Siddiq	-12.7447
▁Swiatek	-12.7447
▁Treasure	-12.7447
▁biology	-12.7447
▁cracies	-12.7447
▁etrimental	-12.7447
▁ipelago	-12.7447
▁locating	-12.7447
▁oodles	-12.7447
▁opoulos	-12.7447
▁sergeant	-12.7447
▁virgin	-12.7447
▁wollen	-12.7447
▁Dravid	-12.7447
▁Olivier	-12.7447
▁Zambia	-12.7447
▁Gwen	-12.7447
▁emulate	-12.7447
▁ransom	-12.7447
▁glitch	-12.7447
▁Ciara	-12.7447
▁Wealth	-12.7447
▁athlon	-12.7447
dilute	-12.7447
▁nugget	-12.7447
▁exotic	-12.7447
▁Appear	-12.7447
▁gloom	-12.7447
▁sorrow	-12.7447
▁Message	-12.7447
▁Suzan	-12.7447
▁Thread	-12.7447
▁omics	-12.7447
▁Siraj	-12.7448
▁£2,000	-12.7448
▁ivist	-12.7448
▁Oppo	-12.7448
▁hameful	-12.7448
▁ITY	-12.7448
▁Marcel	-12.7448
▁Lakh	-12.7448
▁utilise	-12.7448
▁Koch	-12.7449
▁ferment	-12.7449
▁Sultan	-12.7449
hat	-12.7449
▁debutant	-12.745
▁maje	-12.745
▁pearl	-12.745
▁flicker	-12.745
▁ված	-12.745
▁ulsive	-12.745
▁paddle	-12.745
▁0.1%	-12.745
▁hunk	-12.7451
▁martyr	-12.7451
▁posh	-12.7451
▁Wrap	-12.7452
area	-12.7452
▁Folk	-12.7453
▁otti	-12.7455
▁Hook	-12.7456
▁rau	-12.7456
tane	-12.7457
▁ISA	-12.7457
▁Sem	-12.746
▁Mead	-12.746
▁RIS	-12.7461
▁Conduct	-12.7461
▁Whole	-12.7461
▁LES	-12.7463
▁Bally	-12.7463
may	-12.7465
▁ARC	-12.7466
▁factual	-12.7468
▁Uma	-12.7468
ramp	-12.7468
▁kian	-12.7468
▁Yv	-12.7469
▁crest	-12.747
▁mba	-12.7471
▁Mé	-12.7471
▁Gali	-12.7473
▁Twist	-12.7476
▁(18	-12.7482
▁Uz	-12.7483
▁Boat	-12.7484
▁cannon	-12.7486
Spa	-12.7487
SP	-12.7492
▁Lone	-12.7494
▁Amal	-12.7496
▁Pig	-12.7496
rangle	-12.7496
▁opol	-12.7497
▁Lori	-12.7499
Barb	-12.7503
▁pul	-12.7503
why	-12.7505
kind	-12.7521
▁cox	-12.7524
▁Dot	-12.7525
nine	-12.7528
iner	-12.754
▁ender	-12.754
▁leni	-12.7546
Je	-12.7546
▁Lawn	-12.7554
▁3.4	-12.7561
dens	-12.7569
▁Tyro	-12.758
▁AY	-12.758
▁Amin	-12.7583
dge	-12.7587
rigg	-12.7587
ndition	-12.7588
▁stylist	-12.759
CH	-12.7597
base	-12.7599
induc	-12.7601
lva	-12.7602
▁Tou	-12.7604
▁(15	-12.7607
read	-12.7608
▁107	-12.7615
ope	-12.7618
▁gau	-12.762
AN	-12.7625
Pol	-12.7628
▁2-2	-12.7632
▁Shot	-12.7633
▁aba	-12.7651
▁€5	-12.7652
ER	-12.7654
▁raf	-12.7655
iph	-12.7655
▁akes	-12.7656
▁Stre	-12.7664
▁Opt	-12.7665
easure	-12.7672
cb	-12.7673
▁2006.	-12.7674
2)	-12.7679
▁idos	-12.7679
▁basin	-12.7692
եկ	-12.7703
▁efa	-12.7712
▁175	-12.7713
▁Cla	-12.7714
▁hm	-12.774
ice	-12.7743
▁rim	-12.7745
▁wo	-12.7746
▁preci	-12.7754
▁DF	-12.776
aq	-12.7767
though	-12.7769
▁mara	-12.777
▁lal	-12.7781
400	-12.7791
caus	-12.7801
front	-12.7801
▁AW	-12.7804
Wire	-12.7805
distance	-12.7805
special	-12.7805
economic	-12.7805
bomb	-12.7806
Jack	-12.7806
mund	-12.7806
▁hel	-12.7807
service	-12.7807
file	-12.7808
▁rio	-12.7809
consum	-12.7809
ric	-12.7811
fb	-12.7813
critic	-12.7814
coming	-12.7814
▁stav	-12.7816
▁Poo	-12.7819
▁Text	-12.7822
å	-12.7831
‐	-12.7831
▁Advocate	-12.7831
▁Atleti	-12.7831
▁Couple	-12.7831
▁Elephant	-12.7831
▁GoFundMe	-12.7831
▁Language	-12.7831
▁Nehru	-12.7831
▁Temperature	-12.7831
▁emphatic	-12.7831
▁exponent	-12.7831
▁insurgent	-12.7831
▁ipating	-12.7831
▁orthodox	-12.7831
▁ridicu	-12.7831
▁uicidal	-12.7831
▁Fowl	-12.7831
▁erratic	-12.7831
▁Female	-12.7831
▁tidy	-12.7831
▁malfunction	-12.7831
▁skyrocket	-12.7831
▁bloke	-12.7831
▁0.3%	-12.7831
Frederic	-12.7831
▁èle	-12.7831
▁oedd	-12.7831
▁citation	-12.7831
▁torment	-12.7832
▁turtle	-12.7832
▁Fiji	-12.7832
▁Ridge	-12.7832
▁dorf	-12.7832
▁counterfeit	-12.7832
▁rupture	-12.7832
▁Axel	-12.7832
▁PRESS	-12.7832
▁siren	-12.7832
▁DAY	-12.7833
▁herald	-12.7833
▁Marseille	-12.7833
▁ijk	-12.7833
▁VER	-12.7833
▁fede	-12.7833
▁ambush	-12.7834
▁misogynist	-12.7834
▁HAN	-12.7834
▁loch	-12.7834
▁pinpoint	-12.7835
▁friction	-12.7835
▁Zack	-12.7835
▁Afri	-12.7836
▁1-2	-12.7836
▁Survivor	-12.7836
▁bogey	-12.7836
▁thump	-12.7836
▁blackmail	-12.7837
▁12%	-12.7837
▁rupt	-12.7837
▁curv	-12.7837
▁Wynn	-12.7837
▁ստ	-12.7837
▁fuck	-12.7838
▁ACC	-12.7838
▁Gladiator	-12.7838
▁Spider	-12.7838
▁elope	-12.7838
▁LOS	-12.7838
▁Dock	-12.7838
▁lton	-12.7839
▁Prepa	-12.784
▁COL	-12.784
▁kesh	-12.7841
▁Epic	-12.7842
▁Wyn	-12.7843
▁culp	-12.7843
▁Squi	-12.7844
▁Brea	-12.7845
▁mound	-12.7845
▁hyn	-12.7846
▁oire	-12.7846
▁Weight	-12.7847
▁RH	-12.7851
Up	-12.7853
stock	-12.7854
▁drape	-12.7858
▁Tribe	-12.7858
▁pei	-12.7861
▁Shiva	-12.7861
▁EY	-12.7861
▁Olive	-12.7861
▁electr	-12.7862
9)	-12.7863
▁25,000	-12.7863
▁Cri	-12.7863
▁SHA	-12.7864
սի	-12.7865
յ	-12.7869
Lu	-12.787
▁Kale	-12.7873
▁disse	-12.7874
▁rill	-12.7875
▁Cali	-12.7876
▁Kang	-12.7881
sec	-12.7881
▁Vil	-12.7887
▁0.1	-12.7888
▁Aza	-12.7889
▁Eze	-12.7894
▁Fir	-12.7896
card	-12.7897
▁lle	-12.7898
▁103	-12.79
▁vale	-12.7903
-23	-12.7905
▁cad	-12.7909
▁Clap	-12.7911
▁itos	-12.7916
▁lani	-12.7916
▁chol	-12.7917
tip	-12.7919
▁Pall	-12.7923
luck	-12.7924
▁vain	-12.7933
tangle	-12.7938
▁0.0	-12.7939
▁270	-12.7944
▁fle	-12.7947
▁Bah	-12.795
}"	-12.7952
▁Rus	-12.7953
▁fili	-12.7953
▁vall	-12.7954
ense	-12.7959
▁Tie	-12.7964
Luc	-12.7967
PM	-12.797
Sad	-12.7973
!""	-12.7974
▁expedit	-12.7979
▁Def	-12.7981
cat	-12.7991
▁2.8	-12.7991
▁Tav	-12.8002
Qu	-12.8012
▁rand	-12.8019
antic	-12.802
euro	-12.8021
▁Carm	-12.8033
bf	-12.8035
Buen	-12.8036
culous	-12.8038
▁0.7	-12.8042
ANT	-12.8045
▁Spar	-12.8053
ée	-12.8054
kayak	-12.8068
Da	-12.8068
."</	-12.8072
▁Gai	-12.8072
wel	-12.8072
▁Dri	-12.8078
cra	-12.8081
olit	-12.8092
ydd	-12.8092
trial	-12.8112
bla	-12.8129
EC	-12.8132
▁idle	-12.8134
Marque	-12.8162
rug	-12.8168
roll	-12.8169
plan	-12.8171
▁Ow	-12.8176
▁119	-12.8184
sea	-12.8184
▁Mea	-12.8192
▁Maa	-12.8199
▁2024"	-12.8202
Labour	-12.8205
scene	-12.8205
process	-12.8205
facing	-12.8205
violent	-12.8205
aware	-12.8205
illegal	-12.8206
quite	-12.8206
Islam	-12.8206
active	-12.8206
must	-12.8206
multi	-12.8206
educate	-12.8207
depth	-12.8207
East	-12.8207
Mark	-12.8212
▁անց	-12.8212
▁athi	-12.8213
USA	-12.8216
enter	-12.8221
▁futur	-12.8225
TB	-12.8226
▁flak	-12.8227
tru	-12.8229
want	-12.823
	-12.8231
▁Ambani	-12.8231
▁Discuss	-12.8231
▁Juliet	-12.8231
▁Muizzu	-12.8231
▁Neighbor	-12.8231
▁apologetic	-12.8231
▁approving	-12.8231
▁bystander	-12.8231
▁graffiti	-12.8231
▁molecule	-12.8231
▁nostalgic	-12.8231
▁picnic	-12.8231
▁ucking	-12.8231
▁ão	-12.8231
Wrestle	-12.8231
▁Snoop	-12.8231
▁Samoa	-12.8231
▁zuki	-12.8231
▁Joao	-12.8231
▁Fuji	-12.8231
▁galore	-12.8231
▁dhary	-12.8231
▁Pilot	-12.8231
▁Honour	-12.8232
▁Pepper	-12.8232
▁haz	-12.8232
▁nacht	-12.8232
▁font	-12.8232
▁$500,000	-12.8232
▁plaster	-12.8232
▁incentivi	-12.8233
▁Bambi	-12.8233
▁Mosque	-12.8233
▁Edgar	-12.8233
▁buffet	-12.8233
▁7.30	-12.8233
Qa	-12.8234
▁porch	-12.8234
▁brazen	-12.8234
▁contour	-12.8234
▁frack	-12.8234
▁Gift	-12.8234
▁41-	-12.8234
▁DEA	-12.8235
▁Blade	-12.8235
cio	-12.8235
▁TCH	-12.8236
▁hassle	-12.8236
▁Barrow	-12.8236
▁lingual	-12.8238
▁DON	-12.8238
▁rix	-12.8238
mmel	-12.8238
▁chute	-12.8238
▁Wide	-12.8239
tomic	-12.8239
▁intra	-12.8239
▁Tess	-12.824
▁puck	-12.8242
▁80,000	-12.8242
▁trainee	-12.8242
▁Ե	-12.8243
▁exual	-12.8243
▁Papa	-12.8244
▁ատ	-12.8244
▁HL	-12.8245
Bra	-12.8245
▁CAA	-12.8245
▁bulb	-12.8245
▁shing	-12.8247
▁Fix	-12.8248
▁Chow	-12.8249
9&	-12.8249
▁rical	-12.825
▁paw	-12.825
▁otta	-12.825
▁Cont	-12.8251
▁Info	-12.8251
▁Hoff	-12.8252
▁0.4	-12.8254
▁uti	-12.8255
port	-12.8257
▁Flav	-12.8257
▁rite	-12.8258
▁Term	-12.8258
▁riz	-12.8259
▁MJ	-12.8264
▁num	-12.8269
rusad	-12.8269
▁Kaur	-12.827
▁ffe	-12.8271
poll	-12.8273
▁Manda	-12.8274
▁Doro	-12.8278
roze	-12.828
▁opa	-12.8286
▁DG	-12.8286
▁(22	-12.8288
▁Spin	-12.8291
▁rig	-12.8292
▁VE	-12.8293
▁chio	-12.8306
▁undu	-12.8307
▁Wid	-12.8311
suad	-12.8311
▁fern	-12.8314
▁tr	-12.8315
lough	-12.8317
▁Sig	-12.8319
▁EP	-12.8322
▁rar	-12.8326
▁UM	-12.8328
▁AK	-12.8328
lot	-12.8332
▁Tyre	-12.8333
ղ	-12.8334
▁Bhat	-12.834
7.5	-12.8348
▁sod	-12.8349
much	-12.835
▁Dim	-12.8353
▁nta	-12.8354
quet	-12.8355
def	-12.8356
▁hui	-12.8357
▁pedal	-12.8361
bak	-12.8362
▁Oba	-12.8371
▁Nou	-12.8372
▁0.5	-12.8373
wall	-12.8377
▁UB	-12.838
dren	-12.8388
▁olu	-12.839
▁nne	-12.8395
▁EW	-12.8402
թ	-12.8407
▁baz	-12.8409
chi	-12.8411
▁2024?	-12.8414
7)	-12.8415
Col	-12.8415
▁ores	-12.8416
▁ama	-12.8426
▁Debt	-12.8428
▁OO	-12.8436
▁Edu	-12.8442
enti	-12.8446
Nikola	-12.845
▁eleg	-12.8452
dom	-12.8472
Shank	-12.8475
▁Anc	-12.8478
▁impo	-12.8481
▁hut	-12.8485
▁anguish	-12.8489
*****	-12.8493
▁gw	-12.8509
▁nard	-12.8518
▁Հ	-12.852
▁Conver	-12.8522
▁450	-12.8527
▁Shen	-12.8533
maker	-12.8534
.05	-12.8541
▁Nut	-12.8541
▁adas	-12.8543
SE	-12.8543
NS	-12.8554
▁144	-12.8563
LA	-12.8567
▁lau	-12.8576
force	-12.8579
ocument	-12.8579
▁ool	-12.8582
align	-12.8593
▁116	-12.8608
dai	-12.8613
▁pl	-12.8614
driv	-12.8616
bd	-12.862
ø	-12.8621
slug	-12.8622
anticipate	-12.8622
industrial	-12.8622
confide	-12.8622
CBS	-12.8622
conservative	-12.8622
cultural	-12.8622
Ukrainian	-12.8622
Instagram	-12.8622
London	-12.8622
Green	-12.8622
street	-12.8622
militar	-12.8622
Old	-12.8622
women	-12.8622
Life	-12.8622
▁idio	-12.8622
Miss	-12.8624
North	-12.8624
Roy	-12.8624
zero	-12.8625
skin	-12.8625
Keep	-12.8626
destroy	-12.8626
▁veni	-12.8627
Kee	-12.8628
▁infer	-12.8632
Dis	-12.8632
▁2001.	-12.8635
▁yna	-12.8641
▁Ald	-12.8642
▁volcan	-12.8644
▁Amo	-12.8644
▁glide	-12.8645
▁uma	-12.8646
ռ	-12.8648
▁Alcohol	-12.8648
▁Chalamet	-12.8648
▁Nicaragua	-12.8648
▁Opinion	-12.8648
▁Tanzania	-12.8648
▁Zendaya	-12.8648
▁ayhem	-12.8648
▁battalion	-12.8648
▁catapult	-12.8648
▁espicable	-12.8648
▁exquisite	-12.8648
▁fairytale	-12.8648
▁poiled	-12.8648
▁prosthetic	-12.8648
▁remacy	-12.8648
▁trespass	-12.8648
▁exterior	-12.8648
▁abstain	-12.8648
▁համա	-12.8648
▁Frost	-12.8648
▁blouse	-12.8648
▁swamp	-12.8648
▁Bavar	-12.8648
▁SPCA	-12.8648
▁cleric	-12.8648
▁ecological	-12.8648
▁Wife	-12.8648
▁catalyst	-12.8649
▁odle	-12.8649
▁Roch	-12.8649
▁catalog	-12.8649
▁LAND	-12.8649
▁pirate	-12.8649
▁Trouble	-12.8649
▁enski	-12.8649
▁arctic	-12.8649
▁Muir	-12.8649
▁Bargain	-12.8649
▁BAFTA	-12.865
▁marshal	-12.865
▁Vista	-12.865
▁Serg	-12.865
toler	-12.865
▁€6	-12.865
▁Issa	-12.865
▁35%	-12.865
▁homosexual	-12.8651
▁Chance	-12.8651
▁€4	-12.8652
▁17%	-12.8652
▁Manning	-12.8652
▁CPR	-12.8653
▁Nickel	-12.8653
▁nautical	-12.8653
▁Moza	-12.8653
▁brisk	-12.8654
▁Gadd	-12.8654
▁brawl	-12.8654
▁Tipp	-12.8655
▁4-3	-12.8656
▁frail	-12.8656
▁80-	-12.8656
▁venor	-12.8656
▁chalk	-12.8656
▁Taj	-12.8657
▁mortar	-12.8657
▁amble	-12.8657
▁SEN	-12.8658
▁2040	-12.8658
▁Ranj	-12.8658
▁500,000	-12.8658
▁SME	-12.8658
▁7-6	-12.8658
▁Afro	-12.8659
▁Risk	-12.8659
▁Cock	-12.8659
won	-12.866
▁phile	-12.8661
▁RY	-12.8664
▁NIA	-12.8664
1.4	-12.8664
equate	-12.8665
▁Gail	-12.8666
seed	-12.8667
▁Reign	-12.8667
"}"	-12.8668
▁Gear	-12.8669
▁yatt	-12.8669
pass	-12.8669
▁00	-12.8669
▁370	-12.8669
▁Rapp	-12.8669
▁mie	-12.867
▁dinosaur	-12.8672
▁rial	-12.8675
▁Shay	-12.8677
▁Rossi	-12.8679
▁Sett	-12.8682
▁Chil	-12.8684
▁Pett	-12.8685
▁Rei	-12.8685
▁Bhatt	-12.8687
▁Chill	-12.8687
▁fab	-12.8688
▁Kik	-12.869
Mur	-12.8692
▁Hate	-12.8693
▁Solo	-12.8694
Ga	-12.8697
▁Mata	-12.87
▁Bess	-12.8702
▁£27	-12.8703
▁Hain	-12.8706
▁Chain	-12.8706
Chi	-12.8707
respect	-12.8711
ccup	-12.8712
▁Meat	-12.8712
PS	-12.8714
▁Kle	-12.8715
▁1993.	-12.8719
▁Wah	-12.8721
▁Tama	-12.8721
focal	-12.8722
ür	-12.8726
▁Crist	-12.8728
վոր	-12.8728
stiller	-12.8729
▁hitch	-12.8731
▁avat	-12.8733
▁iang	-12.8735
▁tron	-12.8736
▁itus	-12.8744
▁56,	-12.8744
▁cuff	-12.8748
▁MG	-12.8753
▁armor	-12.8756
▁Nah	-12.8756
▁leton	-12.8756
▁preet	-12.8764
▁1996.	-12.8766
runa	-12.8768
oper	-12.8769
▁Dip	-12.8771
Us	-12.8771
▁ghe	-12.8771
▁Ou	-12.8773
▁scor	-12.8773
▁enza	-12.8777
▁KS	-12.8779
▁vas	-12.8781
▁orca	-12.8786
▁£18	-12.8798
bie	-12.8808
ál	-12.8808
▁lol	-12.8826
▁Phe	-12.8843
▁tif	-12.8846
▁Ado	-12.8855
▁agi	-12.8864
MI	-12.8869
▁nies	-12.8875
▁gul	-12.8879
Mc	-12.8879
▁2028.	-12.8881
▁£80	-12.8887
Sp	-12.8891
▁(17	-12.8895
▁111	-12.8907
▁Icon	-12.8908
▁112	-12.8912
6.5	-12.8919
hol	-12.8922
Te	-12.8928
▁230	-12.8946
").	-12.8947
▁Sep	-12.8947
▁Sent	-12.895
Sea	-12.8958
▁disor	-12.8962
▁"90	-12.8963
rawn	-12.8965
▁yuk	-12.8971
fresh	-12.9002
view	-12.9007
ynamic	-12.9013
ին	-12.9014
▁5-1	-12.9016
▁allego	-12.9024
DR	-12.9027
▁6-1	-12.9035
Den	-12.9036
▁2.4	-12.9042
self	-12.9049
amaj	-12.905
UP	-12.905
photo	-12.9052
▁Tran	-12.9054
mortem	-12.9055
Bloom	-12.9057
genocide	-12.9057
cutting	-12.9057
scoring	-12.9057
written	-12.9057
BBC	-12.9057
engage	-12.9057
section	-12.9057
travel	-12.9057
Chief	-12.9057
Metro	-12.9057
before	-12.9057
woke	-12.9057
Western	-12.9057
Walz	-12.9057
Back	-12.9058
Matt	-12.9058
demand	-12.9058
egoti	-12.9059
kilo	-12.9059
worth	-12.906
growth	-12.9061
List	-12.9062
buy	-12.9065
▁ryk	-12.9073
▁intro	-12.9073
hysical	-12.9076
ogged	-12.9081
otswold	-12.9083
▁Caledonia	-12.9083
▁Fortnite	-12.9083
▁Fruit	-12.9083
▁García	-12.9083
▁Hertford	-12.9083
▁IGHT	-12.9083
▁Orchestra	-12.9083
▁Schwartz	-12.9083
▁atisfactory	-12.9083
▁avalanche	-12.9083
▁bungalow	-12.9083
▁catalogue	-12.9083
▁concoct	-12.9083
▁ctomy	-12.9083
▁discreet	-12.9083
▁inkling	-12.9083
▁masculinity	-12.9083
▁maturity	-12.9083
▁ordinarily	-12.9083
▁pristine	-12.9083
▁shampoo	-12.9083
▁vehement	-12.9083
▁yogurt	-12.9083
▁Chrome	-12.9083
▁Loose	-12.9083
▁compartment	-12.9083
▁flaunt	-12.9083
▁grease	-12.9083
▁jelly	-12.9083
▁Referee	-12.9083
▁tuary	-12.9083
▁Scale	-12.9083
▁thyroid	-12.9083
▁Lounge	-12.9083
iative	-12.9083
▁Ö	-12.9083
▁zhou	-12.9083
▁ARY	-12.9083
▁Cairn	-12.9084
▁Indy	-12.9084
▁riddle	-12.9084
▁£5,000	-12.9084
▁Bachelor	-12.9084
▁Fool	-12.9084
▁abnormal	-12.9085
▁marque	-12.9085
▁£400	-12.9085
▁Guada	-12.9085
▁Odd	-12.9085
▁creek	-12.9086
▁Essen	-12.9086
▁Tide	-12.9086
▁PEN	-12.9086
▁certif	-12.9086
▁Citi	-12.9086
▁Mello	-12.9086
▁ropy	-12.9086
▁viva	-12.9086
▁1/3	-12.9087
▁kettle	-12.9087
▁Iain	-12.9088
▁1997.	-12.9088
▁effic	-12.9088
▁Aditya	-12.9089
▁Nawa	-12.909
▁immortal	-12.9091
▁SAS	-12.9091
▁chapel	-12.9091
▁Brick	-12.9092
▁CMA	-12.9093
▁marsh	-12.9094
▁Mackin	-12.9094
▁bolic	-12.9094
▁pug	-12.9094
▁Lille	-12.9094
▁broth	-12.9094
▁COM	-12.9095
▁1900	-12.9096
▁Crash	-12.9097
▁ntino	-12.9097
▁NCE	-12.9097
▁Cull	-12.9098
throw	-12.9098
lac	-12.9098
▁2026,	-12.9098
▁spon	-12.9098
▁Guru	-12.9099
▁JU	-12.9101
▁Rho	-12.9102
▁loy	-12.9102
▁NTA	-12.9103
Ne	-12.9105
Va	-12.9108
▁maul	-12.9108
▁Pair	-12.9116
▁nook	-12.9121
▁Suz	-12.9121
▁nier	-12.9121
▁Scan	-12.9121
▁kova	-12.9122
Atla	-12.9125
mport	-12.9126
▁AIN	-12.9129
▁jog	-12.9129
▁ès	-12.9131
▁Balk	-12.9131
▁9,000	-12.9132
▁Bolo	-12.9133
▁asio	-12.9134
▁Cron	-12.9138
▁Dyn	-12.9139
":"0	-12.9142
▁hua	-12.9142
▁loe	-12.9144
CE	-12.9145
▁Dap	-12.9147
▁Atten	-12.9148
Min	-12.9149
▁Mira	-12.9153
▁Tub	-12.9153
▁Roost	-12.9155
▁ondo	-12.9155
▁hief	-12.9155
▁hater	-12.9155
!!"	-12.9155
ylv	-12.9155
pret	-12.9157
▁Obi	-12.9157
hold	-12.9157
▁Tee	-12.9168
prob	-12.9172
▁Grave	-12.9178
▁Calla	-12.9179
▁02	-12.918
▁Agar	-12.918
▁Ching	-12.9183
▁Eid	-12.9205
▁nous	-12.9206
▁62,	-12.9212
asi	-12.9218
▁ela	-12.9227
▁52-	-12.9233
▁108	-12.9233
▁ranger	-12.9244
▁cyn	-12.9245
▁hav	-12.9249
nqui	-12.9249
▁$400	-12.9255
▁Anto	-12.9258
▁81-	-12.926
▁ebb	-12.927
▁2.2	-12.9271
Nov	-12.9272
cho	-12.9273
PO	-12.9275
▁Hurt	-12.9283
▁$16	-12.9287
▁(14	-12.9306
▁3.1	-12.931
▁$24	-12.9312
▁03	-12.9312
▁oke	-12.9319
▁tah	-12.9337
▁$80	-12.934
roach	-12.9344
ու	-12.9344
▁0.3	-12.9347
▁106	-12.9349
Pi	-12.935
sage	-12.9361
▁vue	-12.9363
eprec	-12.9375
town	-12.9378
imp	-12.9379
▁aw	-12.9381
bel	-12.939
▁bha	-12.9394
▁Ud	-12.9396
▁oj	-12.94
orecast	-12.9414
[...]
