[UNK]	0
[CLS]	1
[SEP]	2
[PAD]	3
[MASK]	4
!	5
"	6
#	7
$	8
%	9
&	10
'	11
(	12
)	13
*	14
+	15
,	16
-	17
.	18
/	19
0	20
1	21
2	22
3	23
4	24
5	25
6	26
7	27
8	28
9	29
:	30
;	31
<	32
=	33
>	34
?	35
@	36
[	37
\	38
]	39
^	40
_	41
`	42
a	43
b	44
c	45
d	46
e	47
f	48
g	49
h	50
i	51
j	52
k	53
l	54
m	55
n	56
o	57
p	58
q	59
r	60
s	61
t	62
u	63
v	64
w	65
x	66
y	67
z	68
{	69
}	70
~	71
	72
	73
	74
	75
	76
	77
	78
	79
	80
	81
¡	82
¢	83
£	84
¦	85
§	86
©	87
­	88
®	89
°	90
±	91
·	92
¿	93
×	94
ß	95
à	96
á	97
â	98
ã	99
ä	100
å	101
æ	102
ç	103
è	104
é	105
ê	106
ë	107
ì	108
í	109
î	110
ï	111
ñ	112
ò	113
ó	114
ô	115
ö	116
ø	117
ù	118
ú	119
û	120
ü	121
ý	122
þ	123
ÿ	124
ā	125
ă	126
ą	127
ć	128
č	129
đ	130
ē	131
ė	132
ę	133
ğ	134
ģ	135
ī	136
ı	137
ł	138
ń	139
ņ	140
ň	141
ō	142
ř	143
ś	144
ş	145
š	146
ţ	147
ū	148
ŵ	149
ŷ	150
ż	151
ž	152
ư	153
ș	154
ț	155
ə	156
ʔ	157
ʻ	158
̄	159
̇	160
̈	161
μ	162
а	163
и	164
к	165
н	166
о	167
р	168
с	169
у	170
ї	171
՛	172
՝	173
՞	174
ա	175
բ	176
գ	177
դ	178
ե	179
զ	180
է	181
ը	182
թ	183
ժ	184
ի	185
լ	186
խ	187
ծ	188
կ	189
հ	190
ձ	191
ղ	192
ճ	193
մ	194
յ	195
ն	196
շ	197
ո	198
չ	199
պ	200
ջ	201
ռ	202
ս	203
վ	204
տ	205
ր	206
ց	207
ւ	208
փ	209
ք	210
օ	211
ֆ	212
։	213
฿	214
ḥ	215
ṡ	216
ṣ	217
ạ	218
ả	219
ầ	220
ắ	221
ẹ	222
ế	223
ệ	224
ị	225
ọ	226
ố	227
ộ	228
ờ	229
ợ	230
ừ	231
ự	232
ỹ	233
‌	234
‍	235
‐	236
―	237
•	238
‬	239
‭	240
′	241
›	242
⁄	243
⁠	244
⁣	245
⁤	246
⁦	247
⁩	248
₦	249
€	250
₱	251
₹	252
℞	253
↔	254
−	255
⊕	256
⏳	257
■	258
▶	259
►	260
◀	261
●	262
☀	263
★	264
☆	265
♀	266
♂	267
♥	268
♦	269
♪	270
♬	271
⚽	272
✅	273
✔	274
✨	275
❌	276
❤	277
➡	278
⭐	279
・	280
︎	281
️	282
�	283
𝄒	284
🇦	285
🇱	286
🇳	287
🇸	288
🇺	289
🌪	290
🌴	291
🌹	292
🍓	293
🍹	294
🍺	295
🎁	296
🎢	297
🎪	298
🏆	299
🏻	300
🏼	301
🏽	302
🏾	303
🐎	304
👀	305
👈	306
👉	307
👍	308
👏	309
💕	310
💙	311
💥	312
💨	313
💬	314
📋	315
📍	316
📷	317
📸	318
🔥	319
😂	320
😅	321
😆	322
😊	323
😍	324
😢	325
😭	326
😮	327
😱	328
😳	329
🙄	330
🙌	331
🙏	332
🚨	333
🛒	334
🤎	335
🤔	336
🤣	337
🤦	338
🤫	339
🤯	340
🤵	341
🤷	342
🥅	343
🥇	344
🥥	345
🥪	346
🥹	347
🥺	348
🫣	349
##w	350
##e	351
##t	352
##i	353
##s	354
##h	355
##r	356
##z	357
##a	358
##c	359
##y	360
##n	361
##k	362
##o	363
##p	364
##u	365
##l	366
##d	367
##m	368
##f	369
##b	370
##3	371
##x	372
##9	373
##g	374
##4	375
##8	376
##2	377
##5	378
##7	379
##6	380
##0	381
##1	382
##j	383
##v	384
##q	385
##ú	386
##ü	387
##é	388
##)	389
##,	390
##ó	391
##"	392
##-	393
##ս	394
##ր	395
##ա	396
##յ	397
##ե	398
##լ	399
##ո	400
##ւ	401
##մ	402
##օ	403
##գ	404
##տ	405
##վ	406
##ն	407
##í	408
##ի	409
##á	410
##'	411
##$	412
##_	413
##>	414
##դ	415
##խ	416
##ծ	417
##ä	418
##ճ	419
##?	420
##ñ	421
##զ	422
##կ	423
##պ	424
##£	425
##æ	426
##ā	427
##­	428
##ê	429
##չ	430
##â	431
##ջ	432
##ö	433
##ը	434
##ğ	435
##🇸	436
##è	437
##թ	438
##շ	439
##ց	440
##!	441
##ղ	442
##ք	443
##բ	444
##ò	445
##`	446
##<	447
##/	448
##ï	449
##ռ	450
##.	451
##å	452
##ç	453
##à	454
##ձ	455
##ã	456
##■	457
##ŷ	458
##@	459
##©	460
##;	461
##č	462
##🏻	463
##հ	464
##ë	465
##ø	466
##:	467
##փ	468
##ŵ	469
##\	470
##ž	471
##ժ	472
##ă	473
##̇	474
##′	475
##ý	476
##🥹	477
##ū	478
##[	479
##&	480
##]	481
##*	482
##ı	483
##🌹	484
##ֆ	485
##û	486
##î	487
##ô	488
##}	489
##ạ	490
##ł	491
##ì	492
##ộ	493
##‌	494
##ḥ	495
##ʔ	496
##¦	497
##ự	498
##к	499
##р	500
##а	501
##ї	502
##н	503
##и	504
##❤	505
##ư	506
##ờ	507
##➡	508
##ț	509
##+	510
##🫣	511
##😊	512
###	513
##%	514
##ù	515
##ē	516
##ō	517
##ș	518
##ệ	519
##ả	520
##ć	521
##😍	522
##ň	523
##ẹ	524
##{	525
##ī	526
##★	527
##ố	528
##🥇	529
##ę	530
##ÿ	531
##🥥	532
##🤎	533
##😮	534
##ė	535
##š	536
##🍺	537
##🚨	538
##🏾	539
##ṣ	540
##ņ	541
##ģ	542
##ắ	543
##🇱	544
##⁣	545
##։	546
##😭	547
##ş	548
##	549
##☆	550
##🥺	551
##ế	552
##^	553
##€	554
##ỹ	555
##ś	556
##ß	557
##ą	558
##⁠	559
##(	560
##ị	561
##🤣	562
##📸	563
##😂	564
##μ	565
##ţ	566
##🔥	567
##️	568
##է	569
##	570
##ř	571
##ọ	572
##🤦	573
##🏽	574
##🙏	575
##🏼	576
##	577
##ừ	578
##=	579
##ợ	580
##🇺	581
##🇦	582
##ż	583
##℞	584
##	585
##с	586
##о	587
##ầ	588
##þ	589
##ə	590
##💬	591
##	592
##ń	593
##¡	594
##😅	595
##	596
##ʻ	597
##•	598
##¿	599
th	600
##er	601
the	602
##in	603
##en	604
##on	605
##ed	606
##at	607
##es	608
##or	609
##nd	610
##ing	611
##ar	612
to	613
##an	614
in	615
##it	616
##al	617
##ou	618
##is	619
##as	620
of	621
and	622
##ic	623
##re	624
##om	625
##il	626
##el	627
##ion	628
##ent	629
##id	630
##le	631
be	632
##ot	633
##st	634
on	635
re	636
for	637
##ut	638
wh	639
##ay	640
st	641
##ac	642
##ur	643
##ve	644
##et	645
##ad	646
##ow	647
##am	648
##ly	649
it	650
is	651
that	652
##ol	653
##ig	654
pr	655
##ir	656
##im	657
##ter	658
##ec	659
##ver	660
he	661
##ith	662
sh	663
##th	664
with	665
as	666
al	667
an	668
was	669
##se	670
##ers	671
##ation	672
##ce	673
##ch	674
at	675
ch	676
##ill	677
ha	678
fr	679
##est	680
##ld	681
##ere	682
con	683
##op	684
sa	685
##ag	686
##em	687
we	688
tr	689
##ul	690
##ess	691
ne	692
you	693
su	694
##ak	695
##ain	696
com	697
##os	698
##igh	699
##oc	700
##od	701
##pp	702
##ct	703
##us	704
his	705
,"	706
##and	707
said	708
##um	709
##ear	710
##ate	711
##ts	712
are	713
have	714
de	715
has	716
ex	717
##ity	718
se	719
from	720
##ore	721
##if	722
this	723
by	724
##ab	725
le	726
##iv	727
but	728
##un	729
cou	730
##ment	731
not	732
sp	733
##ies	734
##art	735
go	736
##ort	737
pl	738
##ust	739
20	740
##ive	741
ab	742
##all	743
##ast	744
they	745
##ack	746
##ia	747
or	748
##ial	749
##ight	750
##ant	751
##ist	752
af	753
##gh	754
un	755
##end	756
wor	757
##ok	758
she	759
##ost	760
##ard	761
en	762
ar	763
will	764
her	765
br	766
##ie	767
who	768
##out	769
year	770
##ome	771
##ap	772
."	773
##ect	774
##ud	775
##ik	776
":	777
ad	778
##ell	779
im	780
cl	781
their	782
can	783
##our	784
out	785
##ich	786
ag	787
##her	788
all	789
up	790
off	791
me	792
had	793
ac	794
##ong	795
##ice	796
##ould	797
##ip	798
cr	799
##ound	800
gr	801
do	802
##ian	803
new	804
pro	805
##tr	806
been	807
so	808
##00	809
after	810
##ue	811
one	812
##ough	813
##ally	814
more	815
##ous	816
##ib	817
##ge	818
##one	819
##age	820
##ime	821
co	822
##ions	823
res	824
##ine	825
man	826
pe	827
rep	828
##ure	829
am	830
us	831
inc	832
were	833
about	834
##ub	835
there	836
exp	837
##so	838
##ated	839
##ame	840
##ide	841
##ish	842
lo	843
over	844
which	845
when	846
dr	847
also	848
##ays	849
##ake	850
qu	851
comp	852
##ans	853
##ary	854
str	855
##av	856
int	857
202	858
##ord	859
##ond	860
sc	861
##ff	862
pol	863
part	864
ev	865
##au	866
##ence	867
##pt	868
##ber	869
lik	870
##ign	871
##ely	872
peop	873
no	874
people	875
just	876
##ace	877
":"	878
would	879
tw	880
fir	881
per	882
##own	883
my	884
its	885
bl	886
##ach	887
##ile	888
fe	889
##ind	890
if	891
##ther	892
rec	893
get	894
app	895
dis	896
##ick	897
what	898
car	899
##act	900
acc	901
##ents	902
time	903
##ire	904
ro	905
##ock	906
##ance	907
some	908
than	909
mar	910
bec	911
##ict	912
work	913
##ail	914
how	915
te	916
##qu	917
ind	918
##ass	919
pres	920
med	921
first	922
##ations	923
kn	924
form	925
coun	926
like	927
##able	928
##ens	929
##day	930
##ep	931
uk	932
##oss	933
##aw	934
two	935
##gr	936
them	937
##ite	938
##ree	939
pre	940
##ump	941
bo	942
into	943
##ident	944
##iz	945
##ink	946
dec	947
##ning	948
##orm	949
##ose	950
sec	951
ever	952
play	953
him	954
##ty	955
##oll	956
ser	957
gu	958
our	959
##ek	960
comm	961
##ra	962
back	963
##ied	964
em	965
##ild	966
##amp	967
jo	968
inter	969
act	970
##lect	971
##ase	972
imp	973
,""	974
##ical	975
##uc	976
##reat	977
could	978
##ro	979
min	980
##ors	981
ma	982
add	983
last	984
your	985
any	986
##ubl	987
##ade	988
att	989
##ting	990
fl	991
again	992
rel	993
now	994
und	995
other	996
##ition	997
par	998
years	999
##ang	1000
cont	1001
##ious	1002
mo	1003
trump	1004
inv	1005
##old	1006
##lud	1007
##enc	1008
wid	1009
mon	1010
##oun	1011
fin	1012
##ory	1013
don	1014
##ings	1015
op	1016
##ult	1017
##iver	1018
##ause	1019
##ates	1020
des	1021
##land	1022
##ps	1023
under	1024
##uring	1025
##urn	1026
while	1027
did	1028
bet	1029
hel	1030
show	1031
##fore	1032
##ery	1033
ph	1034
##ood	1035
thr	1036
##ry	1037
includ	1038
ke	1039
supp	1040
every	1041
president	1042
##other	1043
##anc	1044
high	1045
po	1046
before	1047
##og	1048
##iss	1049
week	1050
##form	1051
ve	1052
##uct	1053
##ater	1054
aut	1055
width	1056
rem	1057
media	1058
cons	1059
##als	1060
may	1061
##hing	1062
gover	1063
##ved	1064
##fer	1065
being	1066
##aking	1067
only	1068
war	1069
##itt	1070
where	1071
##ft	1072
need	1073
govern	1074
even	1075
##ath	1076
19	1077
most	1078
elect	1079
look	1080
##we	1081
lead	1082
##az	1083
##wn	1084
then	1085
##ug	1086
because	1087
call	1088
##ife	1089
ear	1090
##ublic	1091
##{"	1092
##ational	1093
##pl	1094
wr	1095
cent	1096
##ily	1097
##int	1098
day	1099
fam	1100
ass	1101
##ating	1102
reg	1103
think	1104
##ise	1105
cour	1106
##uch	1107
##atch	1108
##are	1109
##erm	1110
world	1111
end	1112
dem	1113
##ince	1114
##uss	1115
def	1116
##pr	1117
##ason	1118
win	1119
##ah	1120
##xt	1121
##ful	1122
sch	1123
##ks	1124
##arg	1125
want	1126
make	1127
during	1128
say	1129
against	1130
down	1131
bu	1132
##ities	1133
##vel	1134
mr	1135
long	1136
three	1137
##oth	1138
know	1139
##ement	1140
##ality	1141
sm	1142
well	1143
##ier	1144
##cc	1145
many	1146
these	1147
countr	1148
##ward	1149
month	1150
##aster	1151
through	1152
##ited	1153
state	1154
##ving	1155
col	1156
##erson	1157
##elf	1158
government	1159
##ues	1160
##red	1161
har	1162
sur	1163
ht	1164
##ix	1165
##ash	1166
told	1167
##air	1168
##ne	1169
team	1170
made	1171
201	1172
##sp	1173
offic	1174
those	1175
going	1176
inst	1177
set	1178
old	1179
way	1180
home	1181
##iew	1182
see	1183
ret	1184
##les	1185
very	1186
star	1187
##hip	1188
##illion	1189
since	1190
wom	1191
gen	1192
report	1193
law	1194
own	1195
contr	1196
start	1197
##ote	1198
says	1199
around	1200
child	1201
good	1202
isra	1203
israel	1204
should	1205
bel	1206
##,{"	1207
##ister	1208
##ased	1209
##ert	1210
sign	1211
cap	1212
##any	1213
2024	1214
sl	1215
##ouse	1216
found	1217
gl	1218
take	1219
del	1220
el	1221
help	1222
still	1223
resp	1224
sy	1225
run	1226
##ower	1227
much	1228
##led	1229
##ked	1230
##way	1231
##ope	1232
##br	1233
##ons	1234
##alth	1235
##ner	1236
conf	1237
##oy	1238
former	1239
support	1240
invest	1241
##ected	1242
##und	1243
four	1244
right	1245
bid	1246
##ather	1247
##ible	1248
000	1249
##ets	1250
including	1251
##ific	1252
##eric	1253
##ollow	1254
##ether	1255
mod	1256
big	1257
life	1258
id	1259
##imes	1260
##ives	1261
follow	1262
10	1263
dif	1264
mem	1265
put	1266
another	1267
eng	1268
##iel	1269
##ording	1270
fit	1271
##ool	1272
camp	1273
##gan	1274
americ	1275
##man	1276
##ering	1277
##ular	1278
##ures	1279
sw	1280
air	1281
##bs	1282
##tps	1283
:/	1284
##ics	1285
://	1286
second	1287
https	1288
##orts	1289
country	1290
##ange	1291
##oot	1292
##ned	1293
##ress	1294
post	1295
leg	1296
such	1297
##ott	1298
cle	1299
city	1300
contin	1301
##its	1302
##hn	1303
dep	1304
##ames	1305
sou	1306
mil	1307
spe	1308
open	1309
##up	1310
##ene	1311
really	1312
ed	1313
far	1314
##ently	1315
ann	1316
##ments	1317
max	1318
##ling	1319
according	1320
soc	1321
##ought	1322
police	1323
##ised	1324
family	1325
grou	1326
jp	1327
##ters	1328
quality	1329
polit	1330
happ	1331
##ying	1332
##ween	1333
news	1334
game	1335
between	1336
person	1337
##ages	1338
bus	1339
feel	1340
##ual	1341
##ven	1342
russ	1343
##omet	1344
##eral	1345
##con	1346
house	1347
##ative	1348
##ves	1349
##med	1350
inf	1351
##side	1352
public	1353
##20	1354
##ank	1355
head	1356
does	1357
##ton	1358
##ility	1359
sr	1360
hand	1361
biden	1362
red	1363
##ices	1364
best	1365
char	1366
##ric	1367
both	1368
eff	1369
##ble	1370
health	1371
trans	1372
court	1373
##ced	1374
##ys	1375
##ged	1376
##ady	1377
##ull	1378
stud	1379
nor	1380
##ants	1381
##ital	1382
##aim	1383
##alk	1384
##ever	1385
##ared	1386
fil	1387
##ale	1388
bre	1389
la	1390
det	1391
prod	1392
season	1393
master	1394
##irect	1395
added	1396
##ave	1397
left	1398
loc	1399
party	1400
##..	1401
prot	1402
##iving	1403
care	1404
##io	1405
cur	1406
##ead	1407
here	1408
direct	1409
##ork	1410
##ee	1411
##ered	1412
guim	1413
mark	1414
##let	1415
jpg	1416
##eng	1417
conc	1418
sim	1419
##ision	1420
come	1421
prov	1422
src	1423
sk	1424
##rain	1425
bar	1426
iss	1427
disc	1428
plan	1429
auto	1430
next	1431
##ief	1432
##ren	1433
somet	1434
sen	1435
got	1436
##40	1437
opp	1438
##son	1439
##iend	1440
attack	1441
##per	1442
##ris	1443
great	1444
serv	1445
exper	1446
##ivers	1447
national	1448
claim	1449
12	1450
arr	1451
##ina	1452
...	1453
ra	1454
format	1455
##line	1456
##ency	1457
lot	1458
adv	1459
cor	1460
##ished	1461
top	1462
##ists	1463
prev	1464
never	1465
met	1466
too	1467
##ody	1468
official	1469
near	1470
spec	1471
##ocr	1472
pass	1473
stat	1474
prop	1475
0_	1476
##iness	1477
##ph	1478
##ines	1479
##ield	1480
women	1481
##istr	1482
school	1483
##erg	1484
##ount	1485
num	1486
find	1487
##ually	1488
miss	1489
img	1490
same	1491
commun	1492
pay	1493
minister	1494
##ior	1495
election	1496
however	1497
place	1498
strong	1499
mus	1500
group	1501
##pe	1502
##ng	1503
democr	1504
##ember	1505
##ness	1506
##over	1507
##com	1508
fac	1509
ukrain	1510
##be	1511
gre	1512
##augh	1513
##ele	1514
##used	1515
##res	1516
expl	1517
##akes	1518
##mer	1519
vot	1520
##ways	1521
##ecut	1522
##urs	1523
##att	1524
art	1525
##olog	1526
differ	1527
children	1528
##ax	1529
days	1530
##bers	1531
million	1532
##ury	1533
eur	1534
15	1535
##aign	1536
five	1537
cond	1538
##ained	1539
sub	1540
block	1541
real	1542
##ially	1543
##ark	1544
campaign	1545
##ats	1546
##ret	1547
##ird	1548
vis	1549
##ral	1550
##ern	1551
##orn	1552
use	1553
rest	1554
kill	1555
av	1556
power	1557
cre	1558
##thing	1559
prom	1560
sing	1561
young	1562
##ience	1563
##ional	1564
stand	1565
south	1566
ref	1567
social	1568
business	1569
adm	1570
times	1571
##ism	1572
appear	1573
friend	1574
maj	1575
},{"	1576
turn	1577
incre	1578
##ights	1579
case	1580
##aff	1581
intern	1582
##ross	1583
called	1584
foot	1585
##ety	1586
##,"	1587
lab	1588
keep	1589
##gest	1590
company	1591
cost	1592
rele	1593
night	1594
##view	1595
##atur	1596
##iam	1597
##oney	1598
aff	1599
across	1600
econ	1601
prof	1602
econom	1603
ob	1604
##ined	1605
##err	1606
hard	1607
vict	1608
press	1609
few	1610
let	1611
later	1612
##unch	1613
beh	1614
##atic	1615
hal	1616
term	1617
won	1618
##ived	1619
##gress	1620
ris	1621
##ued	1622
didn	1623
ste	1624
deb	1625
six	1626
litt	1627
pos	1628
things	1629
##ms	1630
30	1631
##ains	1632
##app	1633
ir	1634
love	1635
used	1636
major	1637
##cr	1638
away	1639
always	1640
pat	1641
##80	1642
pop	1643
point	1644
##iting	1645
mom	1646
seen	1647
##der	1648
sit	1649
took	1650
##60	1651
build	1652
something	1653
ll	1654
11	1655
hum	1656
months	1657
##ont	1658
without	1659
mid	1660
##uck	1661
##ney	1662
##earch	1663
##ald	1664
##osp	1665
##ute	1666
200	1667
sever	1668
est	1669
##iday	1670
grow	1671
##wh	1672
little	1673
mean	1674
why	1675
##ately	1676
##velop	1677
sum	1678
ins	1679
##ins	1680
stre	1681
having	1682
reported	1683
record	1684
each	1685
##itch	1686
##ention	1687
##self	1688
##iven	1689
milit	1690
##ob	1691
##ush	1692
united	1693
came	1694
manag	1695
return	1696
mor	1697
cal	1698
brit	1699
##aring	1700
belie	1701
might	1702
pal	1703
quest	1704
rece	1705
secur	1706
##ces	1707
##ri	1708
test	1709
##opp	1710
pa	1711
final	1712
vi	1713
develop	1714
45	1715
##enn	1716
phot	1717
hist	1718
),	1719
oper	1720
black	1721
curr	1722
##ike	1723
hour	1724
wed	1725
17	1726
making	1727
requ	1728
men	1729
vide	1730
##stem	1731
announ	1732
unt	1733
water	1734
along	1735
val	1736
saf	1737
##osed	1738
##lement	1739
better	1740
##ester	1741
watch	1742
##bc	1743
money	1744
model	1745
past	1746
allow	1747
##af	1748
##uary	1749
##ject	1750
republic	1751
auth	1752
##ians	1753
partic	1754
proc	1755
##ov	1756
went	1757
move	1758
meet	1759
ball	1760
##ew	1761
face	1762
##ple	1763
exc	1764
##30	1765
states	1766
net	1767
##ague	1768
##ands	1769
##ten	1770
today	1771
clear	1772
political	1773
main	1774
import	1775
ap	1776
"}	1777
less	1778
##ending	1779
polic	1780
es	1781
product	1782
fund	1783
##nes	1784
##iously	1785
system	1786
death	1787
free	1788
hit	1789
.'	1790
alle	1791
perform	1792
tec	1793
event	1794
##oke	1795
sal	1796
##aken	1797
deal	1798
ext	1799
##atter	1800
following	1801
2023	1802
alre	1803
2022	1804
working	1805
already	1806
though	1807
white	1808
##ution	1809
games	1810
pict	1811
office	1812
poss	1813
harris	1814
until	1815
local	1816
happen	1817
##str	1818
half	1819
##aining	1820
change	1821
jan	1822
pot	1823
##ift	1824
##ball	1825
level	1826
##rem	1827
fact	1828
different	1829
host	1830
early	1831
##ipp	1832
india	1833
##ided	1834
number	1835
##cept	1836
crit	1837
##sh	1838
infl	1839
##ured	1840
investig	1841
ur	1842
security	1843
asked	1844
).	1845
reve	1846
ukraine	1847
full	1848
jud	1849
doc	1850
third	1851
##ley	1852
18	1853
##ection	1854
john	1855
view	1856
interest	1857
north	1858
york	1859
##dd	1860
inj	1861
fur	1862
gaz	1863
##ham	1864
cut	1865
organ	1866
ham	1867
europe	1868
food	1869
wrote	1870
##ically	1871
##ony	1872
##35	1873
read	1874
match	1875
##ient	1876
side	1877
author	1878
sol	1879
among	1880
west	1881
##ata	1882
##acy	1883
fed	1884
##ired	1885
small	1886
appro	1887
american	1888
##rist	1889
##redit	1890
live	1891
univers	1892
club	1893
sent	1894
military	1895
desp	1896
ant	1897
chang	1898
##utes	1899
##elling	1900
terr	1901
##ann	1902
##by	1903
yet	1904
##ably	1905
recent	1906
once	1907
jun	1908
must	1909
##ea	1910
list	1911
league	1912
film	1913
tax	1914
sun	1915
known	1916
hold	1917
chief	1918
bill	1919
whether	1920
##45	1921
depart	1922
sn	1923
chall	1924
##less	1925
line	1926
sug	1927
seem	1928
become	1929
ca	1930
##ploy	1931
25	1932
hol	1933
il	1934
trav	1935
book	1936
##gram	1937
##wards	1938
video	1939
gaza	1940
short	1941
tog	1942
##ential	1943
##ects	1944
able	1945
champ	1946
ms	1947
international	1948
members	1949
based	1950
##elt	1951
13	1952
class	1953
russia	1954
several	1955
series	1956
fut	1957
##ising	1958
##ances	1959
together	1960
##ements	1961
##ized	1962
##inal	1963
##ense	1964
earl	1965
##erv	1966
viol	1967
85	1968
##ones	1969
england	1970
fans	1971
consid	1972
##bo	1973
given	1974
##10	1975
##ots	1976
fire	1977
ty	1978
##ified	1979
statement	1980
despite	1981
sund	1982
saying	1983
photo	1984
getting	1985
often	1986
##ended	1987
succ	1988
comes	1989
##ize	1990
50	1991
taking	1992
give	1993
##ases	1994
##ature	1995
step	1996
wal	1997
ju	1998
due	1999
##71	2000
opt	2001
##igr	2002
14	2003
ah	2004
##ru	2005
sex	2006
mond	2007
##co	2008
##25	2009
inform	2010
aust	2011
oct	2012
compet	2013
mur	2014
charg	2015
ge	2016
reach	2017
##ints	2018
##ison	2019
process	2020
cand	2021
market	2022
least	2023
hosp	2024
##0_	2025
##els	2026
further	2027
future	2028
cele	2029
##aph	2030
gener	2031
taken	2032
service	2033
lond	2034
christ	2035
important	2036
success	2037
reveal	2038
##ortun	2039
##89	2040
##ively	2041
page	2042
##ane	2043
decision	2044
hot	2045
looking	2046
london	2047
earlier	2048
eas	2049
players	2050
##ba	2051
##ences	2052
che	2053
##ination	2054
launch	2055
monday	2056
foc	2057
##idence	2058
##ator	2059
leaders	2060
##ugg	2061
##cent	2062
bit	2063
##esh	2064
invol	2065
talk	2066
doing	2067
thing	2068
ago	2069
led	2070
fall	2071
##itions	2072
key	2073
sunday	2074
dou	2075
rul	2076
friday	2077
##15	2078
##thers	2079
##36	2080
human	2081
cert	2082
##play	2083
fail	2084
officials	2085
##ards	2086
celebr	2087
thought	2088
proble	2089
##irl	2090
land	2091
likely	2092
##72	2093
break	2094
moment	2095
ban	2096
conv	2097
secret	2098
special	2099
16	2100
fight	2101
tues	2102
enough	2103
equ	2104
area	2105
expected	2106
started	2107
role	2108
mc	2109
tuesday	2110
relations	2111
kind	2112
##ium	2113
60	2114
done	2115
targ	2116
others	2117
hom	2118
suggest	2119
underst	2120
design	2121
##crib	2122
100	2123
##my	2124
##</	2125
##vers	2126
indust	2127
ang	2128
threat	2129
dev	2130
imm	2131
china	2132
alm	2133
##32	2134
data	2135
arg	2136
bas	2137
research	2138
cust	2139
##90	2140
##lex	2141
##bl	2142
program	2143
text	2144
story	2145
wa	2146
gold	2147
##credit	2148
##port	2149
candid	2150
tal	2151
getty	2152
general	2153
university	2154
close	2155
behind	2156
##par	2157
hope	2158
woman	2159
community	2160
within	2161
lim	2162
sure	2163
jour	2164
bring	2165
park	2166
hours	2167
techn	2168
##ming	2169
coming	2170
##go	2171
##get	2172
di	2173
signific	2174
wednes	2175
##ored	2176
weeks	2177
##99	2178
son	2179
##gin	2180
cho	2181
##ival	2182
den	2183
mess	2184
deep	2185
##mp	2186
bro	2187
wednesday	2188
doesn	2189
##ories	2190
continue	2191
##inc	2192
complet	2193
port	2194
priv	2195
##lic	2196
##eck	2197
energ	2198
played	2199
##ublished	2200
los	2201
conn	2202
treat	2203
body	2204
using	2205
russian	2206
fre	2207
##imate	2208
thurs	2209
tot	2210
##itted	2211
##ides	2212
everything	2213
job	2214
comment	2215
images	2216
staff	2217
thursday	2218
fun	2219
##ke	2220
israeli	2221
40	2222
girl	2223
##aps	2224
lat	2225
##ench	2226
march	2227
history	2228
almost	2229
heart	2230
ent	2231
##empt	2232
kid	2233
mother	2234
occ	2235
##ensive	2236
trying	2237
announced	2238
dpr	2239
susp	2240
bord	2241
tit	2242
##ech	2243
##use	2244
name	2245
enter	2246
reason	2247
fore	2248
financ	2249
##ove	2250
capt	2251
larg	2252
shared	2253
arrest	2254
stay	2255
##ram	2256
super	2257
donald	2258
ey	2259
prime	2260
##ops	2261
repres	2262
##16	2263
cam	2264
everyone	2265
bad	2266
low	2267
experience	2268
trad	2269
access	2270
road	2271
department	2272
bank	2273
colle	2274
pick	2275
var	2276
esp	2277
killed	2278
friends	2279
particular	2280
summer	2281
significant	2282
director	2283
"},{"	2284
saw	2285
ahead	2286
pros	2287
leader	2288
policy	2289
lar	2290
##ults	2291
admin	2292
share	2293
interview	2294
canc	2295
mich	2296
glob	2297
energy	2298
shar	2299
##ission	2300
music	2301
points	2302
satur	2303
bene	2304
vote	2305
front	2306
##ted	2307
field	2308
someone	2309
##uge	2310
enc	2311
##graph	2312
##eal	2313
space	2314
room	2315
dam	2316
deliver	2317
##83	2318
##19	2319
percent	2320
apr	2321
fav	2322
##aut	2323
##17	2324
activ	2325
##orr	2326
cover	2327
minutes	2328
age	2329
impro	2330
##que	2331
round	2332
san	2333
##ried	2334
confir	2335
dead	2336
picture	2337
tour	2338
##aly	2339
employ	2340
federal	2341
mass	2342
pet	2343
ens	2344
##aged	2345
coach	2346
const	2347
##ners	2348
init	2349
question	2350
ident	2351
late	2352
football	2353
price	2354
##okes	2355
june	2356
lost	2357
labour	2358
##85	2359
action	2360
##uce	2361
##thern	2362
tell	2363
saturday	2364
clos	2365
mag	2366
austral	2367
element	2368
pur	2369
##te	2370
certain	2371
##ler	2372
aw	2373
describ	2374
career	2375
##ober	2376
lear	2377
wind	2378
outside	2379
quick	2380
##39	2381
##ateg	2382
grand	2383
##amed	2384
wanted	2385
mult	2386
##ring	2387
concern	2388
##ability	2389
prem	2390
risk	2391
coll	2392
nation	2393
try	2394
##ai	2395
##itive	2396
distr	2397
sept	2398
##12	2399
october	2400
image	2401
july	2402
tem	2403
walk	2404
hospital	2405
agre	2406
ground	2407
24	2408
##fic	2409
online	2410
dav	2411
control	2412
opportun	2413
execut	2414
abs	2415
visit	2416
administr	2417
##ape	2418
issues	2419
##rend	2420
##iff	2421
instead	2422
sour	2423
repl	2424
##aced	2425
dot	2426
held	2427
aug	2428
british	2429
tre	2430
profess	2431
##oci	2432
afric	2433
speak	2434
vir	2435
revealed	2436
##ger	2437
##ators	2438
ple	2439
custom	2440
##ips	2441
forward	2442
nearly	2443
##66	2444
cred	2445
suff	2446
couple	2447
##ented	2448
##lin	2449
services	2450
germ	2451
##yl	2452
legal	2453
##ology	2454
fig	2455
impact	2456
felt	2457
running	2458
means	2459
associ	2460
countries	2461
##sel	2462
counc	2463
dist	2464
word	2465
billion	2466
seven	2467
playing	2468
##mber	2469
##ilar	2470
##ef	2471
bur	2472
pain	2473
tur	2474
foreign	2475
voters	2476
fal	2477
poll	2478
2020	2479
effect	2480
div	2481
relationship	2482
nove	2483
building	2484
morning	2485
november	2486
palest	2487
cult	2488
washing	2489
january	2490
##uel	2491
##ental	2492
course	2493
quar	2494
2021	2495
information	2496
congress	2497
believe	2498
0_0_	2499
april	2500
##88	2501
order	2502
dom	2503
##nal	2504
##ca	2505
##aces	2506
avail	2507
##da	2508
stop	2509
##asing	2510
living	2511
addition	2512
border	2513
civ	2514
er	2515
wife	2516
shows	2517
green	2518
bal	2519
scot	2520
roy	2521
republican	2522
##tra	2523
result	2524
race	2525
geor	2526
##rendering	2527
makes	2528
eight	2529
dotcom	2530
##type	2531
##,""	2532
east	2533
target	2534
_type	2535
##elements	2536
prim	2537
recently	2538
pageelements	2539
dotcomrendering	2540
died	2541
hon	2542
##aughter	2543
loss	2544
##ars	2545
understand	2546
financial	2547
ask	2548
35	2549
##uation	2550
##ither	2551
expect	2552
squ	2553
mot	2554
non	2555
trial	2556
</	2557
king	2558
##han	2559
began	2560
,'	2561
wasn	2562
que	2563
##44	2564
prosecut	2565
##27	2566
tom	2567
##yn	2568
##ml	2569
##fl	2570
##oph	2571
##yle	2572
large	2573
hun	2574
famil	2575
street	2576
##set	2577
##ama	2578
##rupt	2579
global	2580
address	2581
champions	2582
light	2583
rich	2584
##oud	2585
plans	2586
became	2587
released	2588
creat	2589
##24	2590
possible	2591
mill	2592
ai	2593
offer	2594
joe	2595
town	2596
seek	2597
env	2598
##block	2599
##ream	2600
leav	2601
detail	2602
##ox	2603
##dle	2604
cross	2605
elementid	2606
##ender	2607
##ference	2608
issue	2609
washington	2610
compan	2611
rights	2612
true	2613
alleged	2614
father	2615
nothing	2616
council	2617
scott	2618
collect	2619
soon	2620
students	2621
##ises	2622
espec	2623
fell	2624
civil	2625
##ims	2626
tv	2627
##iding	2628
strugg	2629
especially	2630
##ode	2631
anything	2632
##idents	2633
proper	2634
presidential	2635
##bb	2636
##icket	2637
respond	2638
america	2639
bud	2640
lives	2641
##joy	2642
##ests	2643
player	2644
democratic	2645
focus	2646
iran	2647
##element	2648
needs	2649
##blockelement	2650
22	2651
##uction	2652
##86	2653
##ades	2654
island	2655
##ulation	2656
mind	2657
##ban	2658
latest	2659
##iod	2660
scotland	2661
travel	2662
benef	2663
21	2664
conserv	2665
actually	2666
similar	2667
available	2668
##erc	2669
discuss	2670
dig	2671
##enal	2672
gar	2673
leave	2674
decl	2675
mis	2676
##ma	2677
board	2678
diffic	2679
##for	2680
ce	2681
himself	2682
hamas	2683
account	2684
contrib	2685
else	2686
enjoy	2687
dest	2688
oly	2689
amaz	2690
bir	2691
industry	2692
vill	2693
attempt	2694
meeting	2695
olymp	2696
rate	2697
##ows	2698
broad	2699
aud	2700
false	2701
##oring	2702
aver	2703
##lo	2704
##fully	2705
ep	2706
vo	2707
##oint	2708
safety	2709
self	2710
##por	2711
september	2712
ul	2713
respons	2714
quarter	2715
sil	2716
##iter	2717
##iety	2718
##ha	2719
prob	2720
parents	2721
##e5	2722
cup	2723
##medi	2724
##ength	2725
approach	2726
##14	2727
heav	2728
##uced	2729
justice	2730
crim	2731
bab	2732
track	2733
html	2734
##attle	2735
##ex	2736
##body	2737
review	2738
potential	2739
hop	2740
##rew	2741
european	2742
stage	2743
spokes	2744
position	2745
period	2746
educ	2747
plat	2748
hus	2749
##18	2750
##agram	2751
##iple	2752
economic	2753
##field	2754
current	2755
administration	2756
##000	2757
county	2758
##ify	2759
indian	2760
>,""	2761
neg	2762
drug	2763
instagram	2764
companies	2765
##26	2766
##atives	2767
meas	2768
dog	2769
reports	2770
hy	2771
##uff	2772
##33	2773
compl	2774
calif	2775
august	2776
rather	2777
##ron	2778
pract	2779
express	2780
needed	2781
##49	2782
box	2783
sold	2784
quite	2785
leading	2786
single	2787
rad	2788
inside	2789
buy	2790
##work	2791
goal	2792
project	2793
rock	2794
immedi	2795
gun	2796
claimed	2797
region	2798
bow	2799
prison	2800
pan	2801
##epend	2802
##gn	2803
ho	2804
jack	2805
ten	2806
vol	2807
pack	2808
##ends	2809
anyone	2810
received	2811
difficult	2812
independ	2813
##selves	2814
lib	2815
challeng	2816
sle	2817
beaut	2818
agency	2819
fear	2820
":"<	2821
##opped	2822
##anger	2823
##not	2824
orig	2825
worth	2826
include	2827
personal	2828
##irc	2829
protect	2830
investigation	2831
##oon	2832
##band	2833
##atures	2834
provide	2835
represent	2836
?"	2837
link	2838
draw	2839
sup	2840
incident	2841
##sw	2842
##ada	2843
central	2844
palestin	2845
##onse	2846
shot	2847
##ivid	2848
capital	2849
wel	2850
brand	2851
workers	2852
previously	2853
intr	2854
##icle	2855
##aper	2856
oppos	2857
daughter	2858
centre	2859
continued	2860
##lish	2861
##arr	2862
alth	2863
charac	2864
cy	2865
##ural	2866
##ky	2867
shoot	2868
##95	2869
response	2870
economy	2871
huge	2872
although	2873
hur	2874
force	2875
##iron	2876
performance	2877
##uit	2878
##ibility	2879
##de	2880
cris	2881
##iec	2882
##ese	2883
prior	2884
sports	2885
development	2886
##owd	2887
californ	2888
platform	2889
##read	2890
private	2891
currently	2892
##ees	2893
docum	2894
push	2895
ran	2896
insp	2897
claims	2898
popular	2899
tim	2900
isn	2901
attr	2902
present	2903
matter	2904
##cd	2905
whole	2906
showed	2907
2019	2908
##fa	2909
guard	2910
assist	2911
medical	2912
higher	2913
##ule	2914
accused	2915
##reme	2916
hous	2917
mad	2918
thous	2919
##f5	2920
middle	2921
bbc	2922
forces	2923
##back	2924
nom	2925
##b0	2926
wrong	2927
laws	2928
judge	2929
##ges	2930
##ened	2931
evidence	2932
individ	2933
increase	2934
##ging	2935
environ	2936
surpr	2937
total	2938
##ients	2939
secretary	2940
##oor	2941
##ster	2942
veh	2943
wall	2944
##ala	2945
california	2946
perf	2947
examp	2948
lu	2949
##iant	2950
winning	2951
23	2952
ach	2953
union	2954
circ	2955
##ara	2956
demand	2957
dan	2958
remains	2959
card	2960
sound	2961
chance	2962
confirmed	2963
aid	2964
paris	2965
'.	2966
weight	2967
longer	2968
trust	2969
worked	2970
release	2971
growth	2972
fair	2973
happened	2974
##umb	2975
##la	2976
hear	2977
ver	2978
december	2979
member	2980
david	2981
##a0	2982
##f0	2983
##ening	2984
problem	2985
happy	2986
strateg	2987
victory	2988
william	2989
title	2990
li	2991
##omm	2992
speaking	2993
camer	2994
500	2995
##na	2996
emerg	2997
lower	2998
results	2999
##hi	3000
critic	3001
26	3002
pair	3003
fa	3004
##ugh	3005
begin	3006
areas	3007
climate	3008
##while	3009
##75	3010
ord	3011
parl	3012
france	3013
kids	3014
husband	3015
cast	3016
##iger	3017
gave	3018
##ford	3019
unf	3020
involved	3021
reb	3022
whose	3023
journal	3024
rob	3025
pressure	3026
manager	3027
environment	3028
boy	3029
instit	3030
bed	3031
##ogn	3032
comb	3033
situation	3034
rev	3035
spot	3036
remain	3037
influ	3038
swe	3039
##cast	3040
biggest	3041
turned	3042
royal	3043
chair	3044
brought	3045
##icted	3046
phone	3047
textblockelement	3048
mal	3049
song	3050
commission	3051
particularly	3052
sam	3053
##eg	3054
##lus	3055
angel	3056
unc	3057
amb	3058
events	3059
doct	3060
either	3061
anti	3062
consum	3063
##ilt	3064
senior	3065
##leg	3066
##aging	3067
##orters	3068
spent	3069
##rop	3070
sport	3071
##enced	3072
touch	3073
##70	3074
average	3075
center	3076
idea	3077
entire	3078
##emic	3079
cases	3080
":[	3081
##mas	3082
##where	3083
authorities	3084
probably	3085
norm	3086
easy	3087
french	3088
costs	3089
parliam	3090
##2f	3091
heard	3092
##ael	3093
##ilities	3094
violence	3095
##hold	3096
##ico	3097
families	3098
peace	3099
experi	3100
##ana	3101
phys	3102
clean	3103
speech	3104
stock	3105
esc	3106
cancer	3107
parliament	3108
pred	3109
neigh	3110
##ya	3111
recogn	3112
via	3113
mov	3114
meanwhile	3115
prices	3116
pret	3117
credit	3118
neighb	3119
##oid	3120
mart	3121
nine	3122
febr	3123
phil	3124
concerns	3125
sat	3126
##hood	3127
##87	3128
tried	3129
previous	3130
range	3131
extra	3132
described	3133
james	3134
shock	3135
scre	3136
february	3137
rac	3138
##a5	3139
prep	3140
.</	3141
wild	3142
##istan	3143
elections	3144
democrats	3145
published	3146
budget	3147
##11	3148
##34	3149
##ining	3150
towards	3151
check	3152
##akers	3153
strik	3154
executive	3155
fest	3156
##ores	3157
refer	3158
example	3159
##ev	3160
##oming	3161
ensure	3162
thousands	3163
beat	3164
included	3165
takes	3166
##ecess	3167
oil	3168
rout	3169
##wood	3170
##eth	3171
##ruct	3172
##isplay	3173
defense	3174
##ett	3175
photograph	3176
australia	3177
committ	3178
achie	3179
majority	3180
opportunity	3181
perfect	3182
emb	3183
attacks	3184
organiz	3185
##uted	3186
unl	3187
conditions	3188
criminal	3189
##ession	3190
scr	3191
efforts	3192
##eline	3193
arm	3194
growing	3195
sect	3196
birth	3197
rom	3198
appeared	3199
immigr	3200
danger	3201
piec	3202
wants	3203
##ida	3204
questions	3205
##isl	3206
common	3207
weekend	3208
favour	3209
challen	3210
blood	3211
sense	3212
lack	3213
ess	3214
accept	3215
drink	3216
knew	3217
serious	3218
launched	3219
primary	3220
christmas	3221
cit	3222
##68	3223
crisis	3224
kick	3225
roll	3226
##a9	3227
britain	3228
ful	3229
sel	3230
##idge	3231
progress	3232
improve	3233
cause	3234
search	3235
beach	3236
tex	3237
looked	3238
80	3239
gone	3240
vers	3241
##iers	3242
training	3243
district	3244
ben	3245
migr	3246
arrested	3247
multiple	3248
leaving	3249
je	3250
##bert	3251
##room	3252
officers	3253
changes	3254
crowd	3255
themselves	3256
consider	3257
africa	3258
##light	3259
##tern	3260
regular	3261
##tain	3262
##mb	3263
##aur	3264
##come	3265
allowed	3266
groups	3267
sea	3268
adding	3269
create	3270
paid	3271
fan	3272
##cement	3273
crime	3274
##ato	3275
answ	3276
##action	3277
debate	3278
oh	3279
##fort	3280
attor	3281
obv	3282
vice	3283
weap	3284
27	3285
fast	3286
princ	3287
terms	3288
##65	3289
candidate	3290
##fr	3291
quickly	3292
mat	3293
199	3294
carry	3295
flor	3296
officer	3297
respect	3298
increasing	3299
hall	3300
##bur	3301
##48	3302
legisl	3303
ath	3304
pand	3305
partners	3306
inflation	3307
date	3308
strike	3309
conduct	3310
constit	3311
##oken	3312
bott	3313
ready	3314
estab	3315
rules	3316
natur	3317
committee	3318
dut	3319
##me	3320
##64	3321
##aker	3322
exist	3323
remember	3324
##22	3325
doub	3326
college	3327
##ament	3328
wond	3329
##ortion	3330
partner	3331
discover	3332
mer	3333
moved	3334
sometimes	3335
##off	3336
study	3337
helped	3338
americans	3339
hands	3340
histor	3341
hund	3342
conference	3343
looks	3344
bag	3345
storm	3346
##pm	3347
##chester	3348
##ae	3349
cannot	3350
firm	3351
charges	3352
hundred	3353
investment	3354
typ	3355
decades	3356
smith	3357
posted	3358
opening	3359
paul	3360
ill	3361
niger	3362
anim	3363
teams	3364
determ	3365
28	3366
##person	3367
##62	3368
##ension	3369
##nings	3370
##ishing	3371
decided	3372
alongside	3373
fourth	3374
vac	3375
##ply	3376
fill	3377
site	3378
##ij	3379
recover	3380
eg	3381
##essed	3382
##ny	3383
gard	3384
##aught	3385
treatment	3386
customers	3387
eth	3388
##f7	3389
repe	3390
blue	3391
talking	3392
education	3393
ol	3394
rates	3395
rise	3396
##vid	3397
amount	3398
giving	3399
safe	3400
pitch	3401
scene	3402
tradition	3403
kam	3404
##using	3405
disapp	3406
commit	3407
technology	3408
save	3409
amid	3410
actor	3411
surv	3412
##inese	3413
##inated	3414
reflect	3415
29	3416
dail	3417
mos	3418
##ka	3419
works	3420
bey	3421
weather	3422
hill	3423
ways	3424
##uth	3425
myself	3426
politics	3427
value	3428
##estern	3429
daily	3430
ele	3431
ram	3432
##den	3433
chinese	3434
property	3435
##ding	3436
##lear	3437
michael	3438
character	3439
##isc	3440
emot	3441
##dr	3442
##fir	3443
##istic	3444
tele	3445
##78	3446
introd	3447
bst	3448
fox	3449
##ena	3450
separ	3451
source	3452
##kn	3453
##ibly	3454
##ipped	3455
fem	3456
ire	3457
##c0	3458
##ites	3459
coast	3460
ukrainian	3461
dream	3462
##c5	3463
##uing	3464
##ino	3465
##iles	3466
summ	3467
gas	3468
sens	3469
hotel	3470
eu	3471
nav	3472
trade	3473
contact	3474
absol	3475
sleep	3476
mum	3477
##uries	3478
goes	3479
##ikt	3480
award	3481
ps	3482
##iet	3483
##down	3484
##itor	3485
above	3486
##apan	3487
skin	3488
##opping	3489
homes	3490
baby	3491
##\"	3492
##owing	3493
specific	3494
particip	3495
##going	3496
cook	3497
##ceed	3498
immediately	3499
##69	3500
trip	3501
##istry	3502
2025	3503
sched	3504
followed	3505
failed	3506
##uses	3507
arch	3508
stra	3509
starting	3510
production	3511
maybe	3512
ireland	3513
obs	3514
itself	3515
email	3516
ended	3517
products	3518
message	3519
japan	3520
##elled	3521
digital	3522
##bd	3523
manchester	3524
couldn	3525
sett	3526
challenge	3527
mac	3528
ut	3529
##b5	3530
lawy	3531
southern	3532
.,	3533
620	3534
=\"	3535
spending	3536
residents	3537
scottish	3538
drive	3539
championship	3540
445	3541
forced	3542
##haps	3543
convers	3544
attention	3545
confl	3546
murder	3547
mel	3548
prevent	3549
wood	3550
runs	3551
terror	3552
##outh	3553
605	3554
##ona	3555
levels	3556
appeal	3557
built	3558
##book	3559
alex	3560
cop	3561
##anch	3562
goals	3563
minute	3564
independent	3565
":[{"	3566
cash	3567
##fc	3568
kore	3569
heat	3570
perhaps	3571
raised	3572
\"	3573
feeling	3574
holiday	3575
opposition	3576
##ique	3577
##itter	3578
inn	3579
poor	3580
illeg	3581
300	3582
##ude	3583
gets	3584
encour	3585
aim	3586
path	3587
born	3588
rain	3589
calls	3590
spokesperson	3591
du	3592
lif	3593
sand	3594
offers	3595
explained	3596
base	3597
cas	3598
hair	3599
train	3600
upd	3601
electric	3602
germany	3603
pretty	3604
##aft	3605
##bed	3606
##arian	3607
##asion	3608
defence	3609
throughout	3610
citiz	3611
--	3612
strength	3613
lang	3614
largest	3615
vet	3616
republicans	3617
problems	3618
##iful	3619
cat	3620
sir	3621
##isions	3622
finally	3623
##he	3624
##entially	3625
words	3626
palestinian	3627
texas	3628
pers	3629
##d0	3630
webs	3631
surve	3632
premier	3633
sell	3634
comments	3635
schools	3636
sexual	3637
eye	3638
housing	3639
parties	3640
simply	3641
avoid	3642
conservative	3643
tough	3644
style	3645
defe	3646
freed	3647
details	3648
tikt	3649
##73	3650
##iction	3651
2016	3652
heavy	3653
tiktok	3654
##utions	3655
##ellig	3656
reached	3657
##yan	3658
##isation	3659
":{"	3660
includes	3661
lock	3662
tay	3663
##7b	3664
related	3665
effort	3666
leadership	3667
challenges	3668
##79	3669
ken	3670
named	3671
seems	3672
##lor	3673
regul	3674
wit	3675
intellig	3676
##of	3677
users	3678
flight	3679
cab	3680
mental	3681
western	3682
##jects	3683
restaur	3684
emergency	3685
conflict	3686
##lying	3687
jobs	3688
regard	3689
90	3690
##sequ	3691
noted	3692
sky	3693
sales	3694
johnson	3695
athlet	3696
traff	3697
compared	3698
injury	3699
mount	3700
##eless	3701
##aming	3702
seeing	3703
god	3704
spl	3705
thank	3706
attorney	3707
qual	3708
voice	3709
straight	3710
horr	3711
farm	3712
beyond	3713
spoke	3714
mob	3715
van	3716
sust	3717
exact	3718
##onstr	3719
choice	3720
!"	3721
bom	3722
dark	3723
sad	3724
##ani	3725
putin	3726
meant	3727
kept	3728
assa	3729
behav	3730
rap	3731
##cl	3732
##ypt	3733
##iled	3734
chann	3735
warned	3736
boss	3737
incred	3738
##ounts	3739
##first	3740
alb	3741
dism	3742
harry	3743
changed	3744
store	3745
2018	3746
apart	3747
band	3748
station	3749
joined	3750
contract	3751
##e9	3752
movie	3753
##published	3754
alone	3755
fighting	3756
supreme	3757
ok	3758
##ago	3759
mex	3760
northern	3761
angeles	3762
##hs	3763
##enty	3764
experts	3765
><	3766
jew	3767
##ction	3768
door	3769
calling	3770
stars	3771
various	3772
##display	3773
enfor	3774
funding	3775
necess	3776
##eration	3777
##aded	3778
blockfirst	3779
wait	3780
blockfirstpublished	3781
stad	3782
content	3783
##ground	3784
##ki	3785
issued	3786
positive	3787
caused	3788
candidates	3789
pun	3790
covid	3791
evening	3792
##43	3793
features	3794
charge	3795
communities	3796
highest	3797
hor	3798
nations	3799
##ari	3800
reform	3801
boost	3802
##ours	3803
loved	3804
returned	3805
alleg	3806
beautiful	3807
battle	3808
##ifying	3809
impress	3810
##oo	3811
apple	3812
ministry	3813
signed	3814
florida	3815
stadium	3816
mater	3817
pul	3818
##urch	3819
##ams	3820
parts	3821
created	3822
increased	3823
required	3824
complain	3825
thom	3826
opened	3827
meaning	3828
70	3829
##agn	3830
##ander	3831
seat	3832
thinking	3833
senate	3834
##gu	3835
brown	3836
31	3837
bon	3838
##ously	3839
recall	3840
##ston	3841
indic	3842
georg	3843
##7f	3844
##airs	3845
slow	3846
kh	3847
##imately	3848
##ipt	3849
limited	3850
natural	3851
facing	3852
condition	3853
culture	3854
doll	3855
height	3856
appoint	3857
concer	3858
promot	3859
afford	3860
double	3861
website	3862
mic	3863
yes	3864
speed	3865
propos	3866
witness	3867
fat	3868
comfort	3869
passed	3870
victims	3871
extrem	3872
injured	3873
bul	3874
dad	3875
ton	3876
##sey	3877
brother	3878
ult	3879
sector	3880
lay	3881
##wor	3882
transport	3883
charged	3884
mix	3885
##asc	3886
##iance	3887
network	3888
hundreds	3889
narr	3890
##iat	3891
disp	3892
numbers	3893
epis	3894
attend	3895
feels	3896
produc	3897
faced	3898
river	3899
##ung	3900
pandemic	3901
taylor	3902
intelligence	3903
##ado	3904
missing	3905
recomm	3906
governor	3907
defin	3908
passeng	3909
ongoing	3910
deg	3911
display	3912
ven	3913
##amb	3914
fresh	3915
##anda	3916
##astic	3917
dress	3918
miles	3919
agreed	3920
society	3921
gm	3922
table	3923
##ania	3924
spir	3925
mcc	3926
critical	3927
##oti	3928
reality	3929
considered	3930
temper	3931
##c4	3932
moving	3933
subst	3934
patients	3935
estim	3936
shut	3937
doz	3938
medic	3939
insur	3940
additional	3941
hers	3942
pod	3943
rh	3944
cool	3945
teen	3946
counter	3947
##to	3948
initi	3949
george	3950
businesses	3951
policies	3952
eventually	3953
##ci	3954
##f9	3955
professional	3956
hearing	3957
imag	3958
kamala	3959
##ille	3960
provided	3961
##50	3962
tourn	3963
##anced	3964
##coming	3965
competition	3966
linked	3967
##inary	3968
income	3969
student	3970
repeated	3971
jail	3972
dise	3973
millions	3974
##ray	3975
##jp	3976
##olution	3977
army	3978
reportedly	3979
management	3980
cold	3981
rose	3982
##ancy	3983
##uf	3984
##ola	3985
##pped	3986
overall	3987
bi	3988
fle	3989
##sc	3990
##iced	3991
offered	3992
index	3993
##ification	3994
swift	3995
##ems	3996
batter	3997
##c9	3998
##uals	3999
##3d	4000
church	4001
applic	4002
airport	4003
learn	4004
associated	4005
bay	4006
pak	4007
abortion	4008
beg	4009
seats	4010
soft	4011
century	4012
smart	4013
##4b	4014
tro	4015
##ustr	4016
watching	4017
certainly	4018
figure	4019
figures	4020
amazon	4021
langu	4022
freedom	4023
defend	4024
winner	4025
english	4026
damage	4027
luck	4028
##_5	4029
##aries	4030
require	4031
rule	4032
##hen	4033
spread	4034
showing	4035
demonstr	4036
##erry	4037
##icles	4038
ones	4039
wouldn	4040
flood	4041
fash	4042
##eed	4043
##erve	4044
##rel	4045
analy	4046
coop	4047
modern	4048
wales	4049
shooting	4050
##ze	4051
count	4052
massive	4053
festival	4054
##unt	4055
spend	4056
##ghan	4057
##ickets	4058
serve	4059
communic	4060
reven	4061
prince	4062
##bing	4063
##atory	4064
expert	4065
flag	4066
annual	4067
planning	4068
holly	4069
options	4070
type	4071
##ey	4072
exch	4073
thanks	4074
##itten	4075
writing	4076
squad	4077
benefits	4078
negoti	4079
##oved	4080
trib	4081
owners	4082
continues	4083
injuries	4084
sale	4085
driving	4086
scen	4087
scored	4088
protest	4089
wonder	4090
32	4091
kar	4092
ars	4093
married	4094
tech	4095
rally	4096
##ries	4097
##itz	4098
fort	4099
shop	4100
contest	4101
request	4102
##ider	4103
spain	4104
schem	4105
penal	4106
##bi	4107
##arily	4108
tra	4109
places	4110
ability	4111
completely	4112
jump	4113
##ga	4114
winter	4115
queen	4116
obviously	4117
jones	4118
sem	4119
sister	4120
telling	4121
chel	4122
decade	4123
complete	4124
fully	4125
fashion	4126
fix	4127
##utely	4128
sav	4129
politic	4130
girls	4131
##pool	4132
##],"	4133
usually	4134
document	4135
##round	4136
chic	4137
entr	4138
##reg	4139
resc	4140
twitter	4141
views	4142
connect	4143
##74	4144
haven	4145
crash	4146
cars	4147
##encies	4148
records	4149
row	4150
trail	4151
##osh	4152
teach	4153
warning	4154
population	4155
fif	4156
lou	4157
wide	4158
##oom	4159
##sea	4160
guil	4161
surround	4162
2017	4163
bjp	4164
penn	4165
exam	4166
becoming	4167
citizens	4168
liver	4169
##uk	4170
##lines	4171
##28	4172
franc	4173
pen	4174
size	4175
##jected	4176
operations	4177
designed	4178
physical	4179
36	4180
##har	4181
eyes	4182
\">	4183
##472	4184
leban	4185
served	4186
##overs	4187
purch	4188
agreement	4189
nature	4190
stories	4191
finish	4192
reduce	4193
restr	4194
bat	4195
##e6	4196
##aud	4197
plant	4198
arrived	4199
debt	4200
immigration	4201
guilty	4202
cere	4203
mir	4204
nuc	4205
constr	4206
supporters	4207
village	4208
##hib	4209
##1a	4210
##iny	4211
proud	4212
grant	4213
expand	4214
earth	4215
journey	4216
cn	4217
fine	4218
rang	4219
carol	4220
join	4221
color	4222
seeking	4223
screen	4224
pakistan	4225
rs	4226
wing	4227
letter	4228
mach	4229
##olf	4230
score	4231
##izz	4232
##ahu	4233
harm	4234
assault	4235
##makers	4236
infr	4237
suggested	4238
arsenal	4239
rub	4240
sar	4241
##ipl	4242
olympic	4243
illegal	4244
herself	4245
##vin	4246
##rect	4247
##owers	4248
##oles	4249
truth	4250
plus	4251
mort	4252
##ych	4253
##bn	4254
##asts	4255
resour	4256
weapons	4257
##friend	4258
48	4259
##e2	4260
driver	4261
##ological	4262
debut	4263
##apped	4264
original	4265
##estic	4266
acad	4267
##roy	4268
dangerous	4269
##iest	4270
##iring	4271
##ager	4272
##berg	4273
putting	4274
measures	4275
##ills	4276
committed	4277
retail	4278
nuclear	4279
catch	4280
##e8	4281
##zz	4282
stick	4283
absolutely	4284
##abor	4285
brief	4286
seemed	4287
talks	4288
gmt	4289
wil	4290
##d5	4291
closed	4292
camera	4293
version	4294
gather	4295
##cb	4296
wearing	4297
female	4298
era	4299
nick	4300
##gers	4301
shel	4302
altern	4303
champion	4304
waiting	4305
mike	4306
pm	4307
sort	4308
##31	4309
spring	4310
killing	4311
channel	4312
##orter	4313
syr	4314
singer	4315
admitted	4316
receive	4317
album	4318
comed	4319
abuse	4320
##ounds	4321
believed	4322
operation	4323
territ	4324
##ancing	4325
asking	4326
material	4327
burn	4328
khan	4329
tack	4330
##arks	4331
##ols	4332
older	4333
##izing	4334
ide	4335
normal	4336
paper	4337
allegations	4338
55	4339
wish	4340
engine	4341
article	4342
practice	4343
piece	4344
49	4345
##astruct	4346
##apt	4347
actions	4348
floor	4349
consist	4350
amazing	4351
bowl	4352
infrastruct	4353
die	4354
movement	4355
bod	4356
mist	4357
nice	4358
##82	4359
trou	4360
##ective	4361
drop	4362
99	4363
##lad	4364
##etic	4365
ship	4366
brain	4367
register	4368
standing	4369
williams	4370
veter	4371
##dy	4372
##acts	4373
scient	4374
##ictions	4375
##itely	4376
protection	4377
votes	4378
tournament	4379
##46	4380
##ask	4381
feature	4382
highlight	4383
advis	4384
achieve	4385
georgia	4386
33	4387
##oked	4388
easter	4389
gall	4390
##cing	4391
supporting	4392
denied	4393
##imum	4394
clearly	4395
holding	4396
losing	4397
pin	4398
rail	4399
suit	4400
##une	4401
martin	4402
ded	4403
fuel	4404
mention	4405
traditional	4406
infrastructure	4407
lands	4408
rough	4409
##c2	4410
##irt	4411
upon	4412
confidence	4413
deput	4414
moments	4415
german	4416
ceo	4417
emer	4418
benefit	4419
olympics	4420
jam	4421
##hol	4422
##cow	4423
coal	4424
decisions	4425
focused	4426
employees	4427
caught	4428
##bre	4429
stated	4430
transfer	4431
individuals	4432
##owled	4433
famous	4434
below	4435
democracy	4436
telev	4437
luc	4438
starmer	4439
simple	4440
organization	4441
ice	4442
##1b	4443
finished	4444
filed	4445
fields	4446
00	4447
din	4448
tens	4449
##ero	4450
stuff	4451
complex	4452
diagn	4453
occur	4454
shares	4455
nigeria	4456
kel	4457
##well	4458
##ires	4459
worse	4460
lose	4461
daniel	4462
jer	4463
##lam	4464
##6a	4465
ash	4466
span	4467
cruc	4468
netany	4469
allegedly	4470
vehicle	4471
ticket	4472
tow	4473
ackn	4474
##raft	4475
gives	4476
laugh	4477
##eing	4478
##omes	4479
##ume	4480
arab	4481
dropped	4482
guy	4483
appears	4484
labor	4485
dismiss	4486
netanyahu	4487
acknowled	4488
pac	4489
tenn	4490
attract	4491
bond	4492
##uled	4493
wins	4494
chelsea	4495
cerem	4496
manuf	4497
user	4498
secure	4499
##riage	4500
##zb	4501
goog	4502
musk	4503
option	4504
captain	4505
manufact	4506
las	4507
supply	4508
46	4509
rid	4510
feet	4511
status	4512
crew	4513
rising	4514
successful	4515
fellow	4516
responsible	4517
garden	4518
der	4519
##last	4520
uns	4521
aren	4522
owner	4523
systems	4524
##vert	4525
##pper	4526
cricket	4527
helping	4528
planned	4529
association	4530
beginning	4531
mail	4532
except	4533
scale	4534
generation	4535
psych	4536
##reated	4537
##isted	4538
wedding	4539
prosecutors	4540
moscow	4541
language	4542
##eb	4543
##**	4544
##ica	4545
whom	4546
prec	4547
switch	4548
mission	4549
footage	4550
strikes	4551
muse	4552
##ու	4553
##arm	4554
##ota	4555
directly	4556
kate	4557
lived	4558
##dated	4559
shift	4560
protests	4561
younger	4562
doctors	4563
placed	4564
modi	4565
mary	4566
ww	4567
##lant	4568
enforcement	4569
##ivity	4570
plenty	4571
offering	4572
setting	4573
powerful	4574
chicago	4575
sharing	4576
asp	4577
34	4578
##egr	4579
##vent	4580
##ushing	4581
victim	4582
favor	4583
domestic	4584
nhs	4585
pad	4586
aged	4587
##ollah	4588
transform	4589
voting	4590
essential	4591
answer	4592
cities	4593
##igan	4594
struct	4595
surf	4596
sitting	4597
potentially	4598
vehicles	4599
##burgh	4600
mp	4601
##e0	4602
##gar	4603
note	4604
grad	4605
exactly	4606
##ingly	4607
surg	4608
vs	4609
stopped	4610
youth	4611
perm	4612
audience	4613
survey	4614
cabin	4615
purs	4616
andrew	4617
items	4618
bright	4619
clin	4620
missed	4621
affected	4622
mexico	4623
disease	4624
jon	4625
##ան	4626
knows	4627
victor	4628
ruling	4629
honest	4630
individual	4631
liverpool	4632
google	4633
names	4634
##oned	4635
suppl	4636
url	4637
suffered	4638
episode	4639
troops	4640
37	4641
##mar	4642
##iling	4643
italy	4644
greater	4645
photos	4646
opportunities	4647
surprise	4648
definitely	4649
##ez	4650
##d9	4651
worst	4652
controvers	4653
expressed	4654
sustain	4655
>\	4656
gal	4657
carried	4658
eat	4659
frank	4660
finding	4661
faces	4662
african	4663
ber	4664
cha	4665
implement	4666
retire	4667
polls	4668
##cle	4669
whate	4670
yourself	4671
##cript	4672
walking	4673
concerned	4674
whatever	4675
dar	4676
kim	4677
rare	4678
wat	4679
corner	4680
##ipping	4681
australian	4682
shown	4683
subs	4684
##ears	4685
aftern	4686
opin	4687
warm	4688
commitment	4689
francis	4690
send	4691
##iar	4692
##val	4693
twice	4694
appearance	4695
reasons	4696
defeat	4697
##iplom	4698
39	4699
diplom	4700
##wide	4701
##ta	4702
##c8	4703
##dat	4704
##omp	4705
regional	4706
investors	4707
keeping	4708
##house	4709
stun	4710
bridge	4711
##aves	4712
robert	4713
highly	4714
2015	4715
',	4716
mand	4717
##bit	4718
broke	4719
oppon	4720
42	4721
##ini	4722
sho	4723
##encing	4724
##key	4725
strategy	4726
doctor	4727
stress	4728
appar	4729
advoc	4730
managed	4731
believes	4732
matches	4733
museum	4734
rod	4735
##itarian	4736
##acity	4737
asse	4738
armed	4739
emp	4740
joy	4741
remind	4742
delhi	4743
lines	4744
integr	4745
establish	4746
ky	4747
##c3	4748
##urning	4749
unp	4750
identified	4751
responded	4752
lux	4753
emotional	4754
territory	4755
deputy	4756
##dateline	4757
ign	4758
##aj	4759
emph	4760
sources	4761
afternoon	4762
##ador	4763
struck	4764
professor	4765
##ropri	4766
ly	4767
##time	4768
onto	4769
hezb	4770
foundation	4771
aware	4772
ultimately	4773
hezbollah	4774
bought	4775
##iation	4776
##night	4777
##oms	4778
##oted	4779
prosp	4780
crack	4781
coff	4782
advice	4783
increasingly	4784
tel	4785
##rid	4786
##emy	4787
sudd	4788
plays	4789
abd	4790
adop	4791
projects	4792
keir	4793
patr	4794
analyst	4795
##oral	4796
##antly	4797
domin	4798
www	4799
##pts	4800
minor	4801
slight	4802
providing	4803
devast	4804
radio	4805
sudden	4806
jim	4807
##created	4808
carr	4809
written	4810
signs	4811
##updated	4812
happens	4813
charles	4814
blocklast	4815
blockcreated	4816
drugs	4817
vacc	4818
blockfirstpublisheddisplay	4819
resources	4820
blocklastupdated	4821
##alys	4822
ali	4823
welcome	4824
thomas	4825
hid	4826
##agues	4827
delay	4828
cuts	4829
steps	4830
initially	4831
odd	4832
ryan	4833
##mark	4834
##4a	4835
influence	4836
##ulated	4837
spr	4838
allies	4839
pregn	4840
meth	4841
prompt	4842
activities	4843
##bon	4844
##_2	4845
legislation	4846
restaurant	4847
38	4848
59	4849
75	4850
bird	4851
icon	4852
##23	4853
toward	4854
exerc	4855
##ube	4856
##ruption	4857
scheme	4858
television	4859
rene	4860
tar	4861
##2a	4862
##igg	4863
elected	4864
insurance	4865
breat	4866
##d6	4867
##_35	4868
enh	4869
viewers	4870
princess	4871
sor	4872
##fire	4873
##uters	4874
chris	4875
braz	4876
canada	4877
mostly	4878
##otted	4879
peter	4880
##e3	4881
appre	4882
household	4883
declared	4884
fant	4885
##d8	4886
##inting	4887
wealth	4888
corpor	4889
favourite	4890
sides	4891
ye	4892
chat	4893
starts	4894
charl	4895
markets	4896
maint	4897
carolina	4898
gender	4899
liter	4900
mim	4901
##owed	4902
adj	4903
backed	4904
difference	4905
subject	4906
##retch	4907
books	4908
##others	4909
##]}	4910
##atively	4911
forec	4912
resident	4913
##fb	4914
##76	4915
theat	4916
pra	4917
##ables	4918
##ashed	4919
paying	4920
profit	4921
suffering	4922
partnership	4923
hasn	4924
##ells	4925
glass	4926
doubt	4927
bath	4928
none	4929
##nel	4930
##itation	4931
consequ	4932
origin	4933
passengers	4934
##ils	4935
##ula	4936
colour	4937
swed	4938
proposed	4939
streets	4940
motor	4941
contribut	4942
length	4943
mun	4944
##dc	4945
chem	4946
knock	4947
singh	4948
standard	4949
estate	4950
activity	4951
collabor	4952
##ville	4953
ital	4954
##aked	4955
choose	4956
discovered	4957
140	4958
selling	4959
##wa	4960
##ici	4961
acqu	4962
raise	4963
authority	4964
effective	4965
cultural	4966
hollywood	4967
fifth	4968
lebanon	4969
crucial	4970
vance	4971
yester	4972
deals	4973
expensive	4974
accounts	4975
migrants	4976
korea	4977
behavi	4978
surgery	4979
assemb	4980
emphas	4981
dance	4982
unique	4983
cru	4984
marriage	4985
2014	4986
videos	4987
funds	4988
pictures	4989
reading	4990
conversation	4991
split	4992
ceremony	4993
gy	4994
##59	4995
pled	4996
relig	4997
##phone	4998
balance	4999
cease	5000
beauty	5001
lawsuit	5002
experienced	5003
kil	5004
##ref	5005
whe	5006
aggress	5007
purp	5008
##eds	5009
spect	5010
joint	5011
convicted	5012
richard	5013
atlant	5014
confident	5015
affairs	5016
attrib	5017
scheduled	5018
yesterday	5019
wear	5020
actress	5021
golden	5022
introduced	5023
separate	5024
vul	5025
hero	5026
appl	5027
assess	5028
transition	5029
categ	5030
kat	5031
tight	5032
##77	5033
drag	5034
bigger	5035
programme	5036
bringing	5037
connection	5038
largely	5039
tickets	5040
##acing	5041
broken	5042
strict	5043
necessary	5044
extremely	5045
repeatedly	5046
bol	5047
code	5048
ii	5049
mayor	5050
founder	5051
dedic	5052
nato	5053
pil	5054
seattle	5055
nov	5056
capacity	5057
netfl	5058
deaths	5059
creating	5060
destroy	5061
netflix	5062
bull	5063
et	5064
##care	5065
offensive	5066
crimes	5067
everybody	5068
swim	5069
shortly	5070
bang	5071
ko	5072
##gb	5073
islam	5074
##iment	5075
sab	5076
boys	5077
frequ	5078
birthday	5079
bottom	5080
ri	5081
##erate	5082
##ption	5083
solid	5084
65	5085
male	5086
sin	5087
frustr	5088
draft	5089
standards	5090
snow	5091
hopes	5092
exchange	5093
dub	5094
##wan	5095
##kin	5096
inqu	5097
##itude	5098
unit	5099
loan	5100
##shire	5101
innov	5102
traffic	5103
ren	5104
ring	5105
agree	5106
serving	5107
consult	5108
grew	5109
bills	5110
institute	5111
spirit	5112
renew	5113
kitch	5114
ron	5115
upcoming	5116
resign	5117
recorded	5118
excited	5119
changing	5120
convention	5121
collection	5122
responsibility	5123
lawyer	5124
tor	5125
##38	5126
##ura	5127
tru	5128
##ipe	5129
returning	5130
healthy	5131
watched	5132
sunak	5133
fraud	5134
##ella	5135
dram	5136
guys	5137
glas	5138
affect	5139
400	5140
gang	5141
pu	5142
stretch	5143
analys	5144
##illed	5145
friendly	5146
happening	5147
%.	5148
href	5149
jul	5150
##ios	5151
##erved	5152
dry	5153
claiming	5154
square	5155
dogs	5156
47	5157
vision	5158
##gen	5159
##ita	5160
##oul	5161
##rey	5162
anth	5163
active	5164
facebook	5165
argum	5166
soldiers	5167
incredible	5168
44	5169
rum	5170
##e4	5171
itv	5172
##unk	5173
sym	5174
conclud	5175
murd	5176
identity	5177
struggling	5178
measure	5179
historic	5180
mobile	5181
##guard	5182
awards	5183
bor	5184
##f2	5185
lee	5186
location	5187
limit	5188
deeply	5189
revenue	5190
penalty	5191
##ype	5192
##ns	5193
##d4	5194
legend	5195
irish	5196
hospit	5197
please	5198
nomine	5199
louis	5200
120	5201
lic	5202
alco	5203
worry	5204
targets	5205
turning	5206
italian	5207
sant	5208
##craft	5209
##bour	5210
##3a	5211
arms	5212
##lands	5213
correct	5214
nearby	5215
internet	5216
sweet	5217
escal	5218
dish	5219
##hire	5220
##arked	5221
##iev	5222
democrat	5223
treated	5224
environmental	5225
##ros	5226
##cy	5227
##akh	5228
clark	5229
presence	5230
##gas	5231
##icip	5232
drama	5233
commerc	5234
films	5235
suggests	5236
researchers	5237
brazil	5238
alcohol	5239
giant	5240
lord	5241
ment	5242
decide	5243
guar	5244
##issions	5245
supported	5246
risks	5247
pushed	5248
##draw	5249
withdraw	5250
2000	5251
unable	5252
ballot	5253
nas	5254
advant	5255
christian	5256
fly	5257
jury	5258
##rim	5259
##lim	5260
brill	5261
relief	5262
owned	5263
voted	5264
subm	5265
targeted	5266
inspired	5267
unfortun	5268
carrying	5269
roughly	5270
##df	5271
react	5272
science	5273
messages	5274
occup	5275
documents	5276
vulner	5277
guarant	5278
nut	5279
nfl	5280
ariz	5281
proceed	5282
reporters	5283
remaining	5284
edge	5285
plane	5286
stands	5287
urged	5288
initial	5289
learned	5290
criticism	5291
rush	5292
finance	5293
breaking	5294
suspect	5295
mas	5296
tast	5297
##gow	5298
##esters	5299
gov	5300
novel	5301
helps	5302
##porary	5303
bodies	5304
dur	5305
##ware	5306
##3_	5307
raf	5308
weighting	5309
construction	5310
></	5311
crown	5312
prefer	5313
threats	5314
tells	5315
eastern	5316
ow	5317
##och	5318
##bled	5319
fired	5320
larger	5321
understanding	5322
estimated	5323
ros	5324
trick	5325
2012	5326
direction	5327
label	5328
guardian	5329
existing	5330
typically	5331
podcast	5332
core	5333
nic	5334
##ole	5335
lew	5336
notice	5337
charity	5338
artist	5339
cnn	5340
emerged	5341
commercial	5342
lift	5343
##29	5344
ther	5345
consp	5346
150	5347
easier	5348
prepared	5349
fab	5350
josh	5351
##ja	5352
##ization	5353
desper	5354
payments	5355
entertain	5356
faith	5357
coalition	5358
}]}	5359
##67	5360
clim	5361
srcset	5362
"},"	5363
learning	5364
hate	5365
section	5366
yards	5367
stone	5368
willing	5369
##ylv	5370
coffee	5371
bench	5372
golf	5373
##1c	5374
##era	5375
apply	5376
profile	5377
picked	5378
palestinians	5379
determined	5380
gh	5381
pull	5382
##lished	5383
##more	5384
##fall	5385
##izes	5386
closer	5387
established	5388
method	5389
bound	5390
tag	5391
##sylv	5392
##acher	5393
explos	5394
refuge	5395
##board	5396
easily	5397
pennsylv	5398
behaviour	5399
ba	5400
##oz	5401
deploy	5402
quiet	5403
accident	5404
promised	5405
window	5406
kitchen	5407
##wr	5408
##rant	5409
stab	5410
cloth	5411
recru	5412
mediat	5413
remained	5414
humanitarian	5415
colleagues	5416
ordered	5417
pulled	5418
truly	5419
lake	5420
##outs	5421
##ads	5422
trend	5423
drivers	5424
jpeg	5425
##etype	5426
talent	5427
arizona	5428
gon	5429
##rial	5430
##13	5431
autom	5432
writer	5433
severe	5434
extreme	5435
silver	5436
glasgow	5437
##wise	5438
##ulate	5439
##pping	5440
flights	5441
secondary	5442
senator	5443
pointed	5444
announcement	5445
allowing	5446
exclus	5447
falling	5448
covered	5449
assembly	5450
pennsylvania	5451
remove	5452
urg	5453
appreci	5454
mimetype	5455
mediatype	5456
dod	5457
pub	5458
rival	5459
zel	5460
coord	5461
elements	5462
brilliant	5463
hang	5464
rat	5465
##63	5466
##ano	5467
##icit	5468
sus	5469
command	5470
flat	5471
write	5472
missiles	5473
celebrity	5474
##orrow	5475
route	5476
lawyers	5477
jewish	5478
tonight	5479
iv	5480
sought	5481
tend	5482
##ius	5483
##ror	5484
clar	5485
resol	5486
produced	5487
protesters	5488
failure	5489
##ophy	5490
hoping	5491
conducted	5492
spanish	5493
eating	5494
matt	5495
zone	5496
shad	5497
web	5498
##ulting	5499
likes	5500
removed	5501
publicly	5502
advance	5503
visitors	5504
chairman	5505
alternative	5506
jr	5507
lady	5508
##oft	5509
reuters	5510
##olk	5511
chain	5512
feed	5513
##ucks	5514
barr	5515
##resp	5516
smaller	5517
occasion	5518
600	5519
jur	5520
sid	5521
##men	5522
##ste	5523
##ctions	5524
adults	5525
aircraft	5526
banks	5527
delivered	5528
speaker	5529
scenes	5530
politicians	5531
opinion	5532
.)	5533
ec	5534
gift	5535
neck	5536
##inent	5537
embr	5538
violent	5539
ruled	5540
michigan	5541
circum	5542
jeff	5543
rapid	5544
dozens	5545
hits	5546
##ading	5547
invasion	5548
lawmakers	5549
memor	5550
refused	5551
bask	5552
jackson	5553
recovery	5554
dollars	5555
cabinet	5556
fish	5557
flex	5558
tes	5559
wer	5560
##fit	5561
overs	5562
slam	5563
hurt	5564
##erous	5565
forest	5566
depr	5567
pool	5568
syd	5569
studies	5570
replied	5571
assistance	5572
ble	5573
pension	5574
session	5575
##amin	5576
##illing	5577
adds	5578
install	5579
reporting	5580
payment	5581
basis	5582
filled	5583
rent	5584
##cel	5585
##iders	5586
complic	5587
maintain	5588
classic	5589
treas	5590
division	5591
leaves	5592
immediate	5593
degree	5594
tennis	5595
dramatic	5596
bh	5597
ru	5598
tun	5599
##ograph	5600
##eness	5601
##inger	5602
##icious	5603
##osis	5604
##ighter	5605
attended	5606
receiving	5607
##onym	5608
equip	5609
delivery	5610
bomb	5611
cin	5612
jose	5613
##eff	5614
##li	5615
##mon	5616
##ette	5617
chap	5618
##ivals	5619
notes	5620
grab	5621
##ucing	5622
parent	5623
assass	5624
assets	5625
causing	5626
kenned	5627
cbs	5628
forg	5629
##enders	5630
alliance	5631
supposed	5632
seconds	5633
lots	5634
operating	5635
distrib	5636
pieces	5637
egypt	5638
advantage	5639
nar	5640
oce	5641
##head	5642
##f8	5643
##47	5644
strip	5645
disney	5646
buying	5647
located	5648
listen	5649
animal	5650
fu	5651
##stand	5652
crypt	5653
manage	5654
mah	5655
panel	5656
temperatures	5657
mortg	5658
##ropriate	5659
cath	5660
gain	5661
ped	5662
##pet	5663
##udi	5664
resist	5665
log	5666
viral	5667
duty	5668
slightly	5669
chances	5670
##oking	5671
controll	5672
argued	5673
proposal	5674
vast	5675
##wal	5676
anx	5677
##iana	5678
perman	5679
capit	5680
editor	5681
da	5682
jay	5683
rug	5684
newsp	5685
diss	5686
background	5687
imposs	5688
handed	5689
proced	5690
industrial	5691
egg	5692
rescue	5693
kennedy	5694
hell	5695
wake	5696
##bor	5697
##bury	5698
##gate	5699
##umn	5700
agent	5701
displ	5702
belong	5703
struggle	5704
dating	5705
publ	5706
##aa	5707
##inations	5708
shr	5709
yout	5710
worried	5711
feat	5712
surge	5713
skills	5714
attacked	5715
hostages	5716
reveals	5717
encoun	5718
animals	5719
##don	5720
spin	5721
earned	5722
edin	5723
cream	5724
palace	5725
sentence	5726
walked	5727
generally	5728
experiences	5729
41	5730
##rum	5731
guid	5732
showc	5733
governments	5734
provides	5735
struggled	5736
##million	5737
##42	5738
prize	5739
overse	5740
raj	5741
taxes	5742
luxury	5743
43	5744
acting	5745
effects	5746
facilities	5747
organisation	5748
approved	5749
imagine	5750
comedy	5751
sydney	5752
%,	5753
batt	5754
fi	5755
mu	5756
##icient	5757
nobody	5758
twe	5759
completed	5760
virgin	5761
update	5762
comfortable	5763
08	5764
fel	5765
gop	5766
mile	5767
na	5768
rank	5769
##inate	5770
##idency	5771
rejected	5772
##eted	5773
agencies	5774
carl	5775
##gry	5776
directed	5777
artists	5778
steve	5779
attempted	5780
sympt	5781
edinburgh	5782
az	5783
sick	5784
##esp	5785
afp	5786
brings	5787
cry	5788
marks	5789
##quote	5790
boat	5791
contain	5792
trading	5793
journalists	5794
traum	5795
##guardian	5796
circumst	5797
theguardian	5798
##oma	5799
peak	5800
elig	5801
seasons	5802
valley	5803
250	5804
celebrate	5805
analysis	5806
celt	5807
lit	5808
##utional	5809
stood	5810
##athan	5811
passing	5812
object	5813
excell	5814
disappoint	5815
athletes	5816
mountain	5817
##cription	5818
vib	5819
adam	5820
moon	5821
mont	5822
##pson	5823
memory	5824
blockquote	5825
sites	5826
importance	5827
apolog	5828
interested	5829
solution	5830
listed	5831
conservatives	5832
strategic	5833
diver	5834
tory	5835
##aire	5836
##usted	5837
aband	5838
##ikely	5839
decline	5840
clubs	5841
entered	5842
hat	5843
jord	5844
##kins	5845
bear	5846
stores	5847
##abilities	5848
##enda	5849
boeing	5850
flo	5851
widely	5852
##otten	5853
reduced	5854
ministers	5855
developed	5856
unlikely	5857
dun	5858
dyn	5859
##osing	5860
scand	5861
moham	5862
kevin	5863
##aze	5864
##whel	5865
critics	5866
62	5867
fake	5868
tact	5869
yell	5870
##otic	5871
stake	5872
##illa	5873
hag	5874
bob	5875
##week	5876
verd	5877
consumers	5878
dinner	5879
nominee	5880
##lig	5881
##aling	5882
sher	5883
chick	5884
suc	5885
clash	5886
seriously	5887
visited	5888
models	5889
neighbor	5890
racing	5891
lucky	5892
equipment	5893
eld	5894
hind	5895
vent	5896
##96	5897
##amm	5898
shap	5899
upset	5900
driven	5901
drones	5902
finals	5903
electoral	5904
values	5905
pictured	5906
ensuring	5907
##iffs	5908
complaint	5909
semi	5910
inquir	5911
impossible	5912
buck	5913
ox	5914
##b8	5915
##va	5916
inch	5917
rein	5918
##tered	5919
neither	5920
##apy	5921
##000_	5922
vegas	5923
leads	5924
barb	5925
0_1	5926
##atured	5927
buildings	5928
confirm	5929
virt	5930
assistant	5931
consumer	5932
##works	5933
recommend	5934
surrounding	5935
syria	5936
wine	5937
##cer	5938
##ocol	5939
spotted	5940
therefore	5941
indeed	5942
medal	5943
guests	5944
ending	5945
produce	5946
greatest	5947
tests	5948
interesting	5949
considering	5950
customer	5951
spokesman	5952
weren	5953
58	5954
ray	5955
ties	5956
zero	5957
##inct	5958
reaction	5959
anc	5960
saudi	5961
clip	5962
playoff	5963
continuing	5964
facility	5965
##lusion	5966
initiative	5967
registered	5968
occurred	5969
zelens	5970
66	5971
frame	5972
afghan	5973
##ellor	5974
overt	5975
##ogue	5976
involve	5977
significantly	5978
recalled	5979
##agement	5980
exhib	5981
manh	5982
##place	5983
developing	5984
priority	5985
francisco	5986
vital	5987
##oe	5988
##ua	5989
2010	5990
allows	5991
walz	5992
involving	5993
consequences	5994
}]},{"	5995
54	5996
sending	5997
##west	5998
##bf	5999
##rees	6000
forget	6001
##odes	6002
becomes	6003
remark	6004
##aley	6005
closely	6006
entirely	6007
gab	6008
os	6009
##dom	6010
shopping	6011
##astr	6012
civilians	6013
affordable	6014
basket	6015
circumstances	6016
shots	6017
alt	6018
featured	6019
flu	6020
missile	6021
possibility	6022
3500	6023
retirement	6024
purpose	6025
kr	6026
##ront	6027
##ker	6028
ingr	6029
##ali	6030
chec	6031
##empts	6032
drone	6033
##enses	6034
euro	6035
turns	6036
platforms	6037
korean	6038
##uate	6039
##iser	6040
align	6041
##oster	6042
bron	6043
adult	6044
attempts	6045
optim	6046
bonus	6047
battery	6048
veteran	6049
rafah	6050
mut	6051
osc	6052
##hab	6053
##ooth	6054
##mates	6055
##b4	6056
ends	6057
elim	6058
condem	6059
interests	6060
basic	6061
coverage	6062
constitution	6063
impressive	6064
clothes	6065
lie	6066
sac	6067
##win	6068
##za	6069
##inals	6070
retr	6071
lean	6072
advert	6073
##achel	6074
##ledge	6075
legacy	6076
insisted	6077
reaching	6078
speaks	6079
weapon	6080
hay	6081
##war	6082
##ili	6083
asyl	6084
grown	6085
scoring	6086
planet	6087
numerous	6088
broadcast	6089
farmers	6090
hidden	6091
iconic	6092
vulnerable	6093
asylum	6094
bac	6095
cu	6096
cow	6097
gap	6098
hen	6099
pushing	6100
roles	6101
vess	6102
chanc	6103
##anged	6104
2011	6105
sets	6106
##erties	6107
patient	6108
2008	6109
familiar	6110
regularly	6111
aimed	6112
horse	6113
exercise	6114
divers	6115
flying	6116
rah	6117
##inson	6118
##ati	6119
##illy	6120
stor	6121
anton	6122
extr	6123
##azy	6124
swing	6125
diet	6126
regarding	6127
jersey	6128
##3f	6129
##inating	6130
##isa	6131
##olic	6132
alive	6133
engaged	6134
raising	6135
suspended	6136
declined	6137
neighbour	6138
symptoms	6139
cos	6140
rav	6141
##elle	6142
waste	6143
##agon	6144
agents	6145
prove	6146
amend	6147
uses	6148
##icking	6149
fewer	6150
factor	6151
winds	6152
iranian	6153
machine	6154
youtube	6155
jordan	6156
dj	6157
tree	6158
##ias	6159
##gl	6160
##osure	6161
unus	6162
outr	6163
##ounded	6164
testing	6165
chiefs	6166
caption	6167
losses	6168
villa	6169
wheel	6170
coc	6171
rape	6172
##ien	6173
##vant	6174
arts	6175
loy	6176
##ansas	6177
intens	6178
acts	6179
earn	6180
knowledge	6181
delight	6182
competitive	6183
magn	6184
ohio	6185
princip	6186
yeah	6187
lewis	6188
52	6189
aside	6190
weak	6191
throw	6192
campus	6193
explain	6194
distance	6195
enjoyed	6196
summit	6197
academy	6198
lad	6199
##laim	6200
unr	6201
unless	6202
enth	6203
brut	6204
outd	6205
reput	6206
overwhel	6207
returns	6208
drinking	6209
persp	6210
trouble	6211
09	6212
jenn	6213
##ties	6214
otherwise	6215
thinks	6216
knowing	6217
heads	6218
advanced	6219
cutting	6220
effectively	6221
expectations	6222
elsewhere	6223
fears	6224
characters	6225
sorry	6226
conspir	6227
pace	6228
##iable	6229
##aid	6230
##osen	6231
##iley	6232
disrupt	6233
keen	6234
retired	6235
signing	6236
posts	6237
annivers	6238
sharp	6239
prosecutor	6240
negative	6241
challenging	6242
superm	6243
journalist	6244
matters	6245
documentary	6246
tackle	6247
landsc	6248
tensions	6249
sustainable	6250
stunning	6251
religious	6252
##sex	6253
atm	6254
##oses	6255
exciting	6256
entry	6257
cinem	6258
##37	6259
##ար	6260
pray	6261
contrast	6262
busy	6263
songs	6264
suddenly	6265
theatre	6266
mi	6267
sight	6268
sees	6269
intense	6270
accus	6271
healthcare	6272
informed	6273
replace	6274
japanese	6275
restrictions	6276
wilson	6277
surface	6278
dedicated	6279
entertainment	6280
##stein	6281
anniversary	6282
dim	6283
tony	6284
wave	6285
##9b	6286
agenda	6287
disaster	6288
worker	6289
bars	6290
midfield	6291
equal	6292
programs	6293
schedule	6294
##fe	6295
##isf	6296
##oured	6297
minimum	6298
studio	6299
greg	6300
##attan	6301
judges	6302
sentenced	6303
holds	6304
creative	6305
summary	6306
yellow	6307
ak	6308
gut	6309
ira	6310
zeal	6311
relatively	6312
remarks	6313
shouldn	6314
contributed	6315
illness	6316
kyiv	6317
ocean	6318
700	6319
lies	6320
##ran	6321
##di	6322
##arch	6323
innings	6324
##aks	6325
adapt	6326
outlet	6327
positions	6328
##anna	6329
banned	6330
talked	6331
welcom	6332
concluded	6333
chancellor	6334
***	6335
mps	6336
##wich	6337
##ll	6338
##6b	6339
franch	6340
anticip	6341
compete	6342
staying	6343
heavily	6344
houses	6345
archit	6346
producer	6347
cooper	6348
ideas	6349
shadow	6350
bes	6351
kir	6352
mate	6353
##aver	6354
##91	6355
##vi	6356
branch	6357
cloud	6358
compar	6359
##away	6360
relax	6361
invited	6362
formerly	6363
heading	6364
requires	6365
bedroom	6366
rugby	6367
bure	6368
fisc	6369
pit	6370
vlad	6371
##equ	6372
##fd	6373
##lets	6374
firms	6375
presented	6376
2013	6377
founded	6378
coron	6379
organis	6380
institutions	6381
referred	6382
encourage	6383
mortgage	6384
hub	6385
jac	6386
rt	6387
tai	6388
##ship	6389
actors	6390
##road	6391
genu	6392
genoc	6393
goods	6394
passion	6395
tomorrow	6396
(£	6397
bell	6398
tan	6399
##po	6400
##mo	6401
##cho	6402
##ched	6403
saving	6404
##ighters	6405
presidency	6406
##weight	6407
belief	6408
brook	6409
motiv	6410
incredibly	6411
72	6412
cards	6413
##icide	6414
brothers	6415
evac	6416
confront	6417
stephen	6418
victoria	6419
native	6420
##amy	6421
1990	6422
breach	6423
subsequ	6424
extended	6425
cheap	6426
hopefully	6427
sounds	6428
capitol	6429
fiscal	6430
ay	6431
gay	6432
pel	6433
##min	6434
##maker	6435
##gment	6436
##umar	6437
brad	6438
carbon	6439
prepar	6440
moves	6441
demands	6442
musical	6443
artific	6444
thoughts	6445
threatened	6446
girlfriend	6447
closing	6448
turkey	6449
relationships	6450
apartment	6451
mentioned	6452
zelensky	6453
miam	6454
tank	6455
##erves	6456
spoken	6457
wider	6458
##ertain	6459
##201	6460
improved	6461
magaz	6462
hurric	6463
sarah	6464
manhattan	6465
miami	6466
cul	6467
fame	6468
file	6469
task	6470
##itage	6471
##ales	6472
##olly	6473
haw	6474
unve	6475
##ikes	6476
##berts	6477
newsweek	6478
obama	6479
pleas	6480
combined	6481
unlike	6482
navig	6483
wonderful	6484
hospitals	6485
61	6486
##fast	6487
##iti	6488
##unte	6489
plot	6490
teacher	6491
guess	6492
regime	6493
colon	6494
properties	6495
representative	6496
disappear	6497
rangers	6498
scientists	6499
ax	6500
mitch	6501
mouth	6502
##isan	6503
##eman	6504
trophy	6505
headed	6506
salt	6507
factors	6508
types	6509
gym	6510
ride	6511
som	6512
soph	6513
##iop	6514
##55	6515
accomm	6516
earnings	6517
assum	6518
symb	6519
variety	6520
trees	6521
prosecution	6522
volunte	6523
representatives	6524
application	6525
begins	6526
negotiations	6527
dismissed	6528
structure	6529
chaos	6530
forecast	6531
strictly	6532
accommod	6533
bost	6534
pounds	6535
##եր	6536
##imir	6537
alert	6538
unex	6539
promises	6540
"}],"	6541
islands	6542
quarterback	6543
selection	6544
micros	6545
unfortunately	6546
dynam	6547
rish	6548
tied	6549
##itors	6550
##ids	6551
sparked	6552
intent	6553
blow	6554
steel	6555
sixth	6556
possibly	6557
divor	6558
targeting	6559
liberal	6560
orders	6561
armen	6562
obvious	6563
appointed	6564
##standing	6565
permanent	6566
featuring	6567
loyal	6568
bureau	6569
math	6570
##uits	6571
##b1	6572
##erland	6573
##aled	6574
shape	6575
anonym	6576
cham	6577
##ulous	6578
heritage	6579
incidents	6580
guide	6581
hitting	6582
ambass	6583
substant	6584
sweden	6585
chemical	6586
lav	6587
mine	6588
outcome	6589
followers	6590
internal	6591
iron	6592
temporary	6593
dozen	6594
attributes	6595
kl	6596
lam	6597
##e7	6598
##dan	6599
tools	6600
##anth	6601
##ashing	6602
##icing	6603
marc	6604
hung	6605
escape	6606
matth	6607
celtic	6608
jen	6609
##ilit	6610
shirt	6611
chocol	6612
##antic	6613
lov	6614
empt	6615
stronger	6616
charging	6617
tourists	6618
motion	6619
hunt	6620
uncertain	6621
venue	6622
purchase	6623
boston	6624
citing	6625
##pass	6626
##b7	6627
##isher	6628
usa	6629
polling	6630
transpar	6631
stepped	6632
equity	6633
technical	6634
identify	6635
hunter	6636
madrid	6637
commissioner	6638
casual	6639
enthus	6640
vladimir	6641
##eves	6642
##jo	6643
forever	6644
stuck	6645
chosen	6646
exter	6647
flav	6648
instruct	6649
deleg	6650
airlines	6651
stream	6652
replaced	6653
surprising	6654
jean	6655
mixed	6656
##bourne	6657
rice	6658
##8a	6659
##61	6660
##verty	6661
asia	6662
scar	6663
follows	6664
simon	6665
corruption	6666
##ologist	6667
##oppers	6668
snap	6669
failing	6670
sanctions	6671
boyfriend	6672
combat	6673
constitu	6674
degrees	6675
shelter	6676
pinned	6677
newspaper	6678
taiwan	6679
artificial	6680
64	6681
800	6682
890	6683
aims	6684
lok	6685
nba	6686
##zone	6687
spark	6688
meg	6689
##iants	6690
proved	6691
fees	6692
columb	6693
soul	6694
##phere	6695
electricity	6696
cooperation	6697
savings	6698
literally	6699
chicken	6700
conspiracy	6701
genocide	6702
dancing	6703
##c1	6704
##dp	6705
##essions	6706
##acked	6707
##istics	6708
resolution	6709
depend	6710
activists	6711
analysts	6712
devastating	6713
cell	6714
pock	6715
pink	6716
tall	6717
tiny	6718
##_4	6719
##itting	6720
brid	6721
agric	6722
meghan	6723
crazy	6724
compon	6725
roberts	6726
poverty	6727
##neys	6728
chef	6729
discussed	6730
accepted	6731
originally	6732
ceasefire	6733
destroyed	6734
inquiry	6735
].	6736
nik	6737
tears	6738
##_32	6739
##stone	6740
##ece	6741
plants	6742
comput	6743
##icks	6744
marked	6745
emissions	6746
childhood	6747
##2099	6748
statements	6749
explains	6750
subur	6751
##apping	6752
miller	6753
nomination	6754
opponents	6755
##_3500	6756
eligible	6757
storage	6758
51	6759
punch	6760
##81	6761
##onom	6762
inher	6763
##ighth	6764
##ifts	6765
upgr	6766
intended	6767
meetings	6768
solar	6769
device	6770
devices	6771
surprised	6772
pregnant	6773
zealand	6774
fasc	6775
wage	6776
##ko	6777
##ón	6778
thick	6779
courts	6780
defensive	6781
ell	6782
dealing	6783
roads	6784
select	6785
odds	6786
hamp	6787
lights	6788
nat	6789
##uated	6790
wash	6791
trag	6792
plastic	6793
orange	6794
doors	6795
puts	6796
personnel	6797
urban	6798
percentage	6799
hole	6800
dates	6801
lunch	6802
rar	6803
ross	6804
##wart	6805
##life	6806
blame	6807
1240	6808
1210	6809
##ijing	6810
acknowledged	6811
prospect	6812
category	6813
welcomed	6814
ward	6815
##rom	6816
##01	6817
beijing	6818
uncom	6819
##apse	6820
##rah	6821
##inton	6822
milk	6823
locations	6824
harder	6825
drawn	6826
liqu	6827
contributors	6828
sabha	6829
agricult	6830
drew	6831
iphone	6832
ny	6833
tip	6834
##mate	6835
##b2	6836
##acement	6837
##ira	6838
exit	6839
coupl	6840
##ounced	6841
approval	6842
snp	6843
murray	6844
honor	6845
restaurants	6846
diplomatic	6847
($	6848
53	6849
="	6850
dial	6851
nad	6852
pier	6853
##een	6854
##edd	6855
##olit	6856
pride	6857
##estyle	6858
expans	6859
overnight	6860
somebody	6861
phill	6862
officially	6863
hosts	6864
sugar	6865
rooms	6866
profession	6867
package	6868
liber	6869
specifically	6870
innoc	6871
anthony	6872
neighborhood	6873
5472	6874
hug	6875
samp	6876
tie	6877
##nam	6878
##uild	6879
andy	6880
shah	6881
##ateful	6882
brian	6883
joining	6884
ideal	6885
promise	6886
managing	6887
celebrated	6888
homeless	6889
shocked	6890
highlighted	6891
favorite	6892
architect	6893
68	6894
pap	6895
##mes	6896
##cher	6897
abroad	6898
##acks	6899
##oker	6900
arena	6901
cohen	6902
unders	6903
syn	6904
announce	6905
travelling	6906
function	6907
cycle	6908
##rell	6909
cart	6910
cott	6911
map	6912
om	6913
##mond	6914
##alf	6915
##ican	6916
saved	6917
##azz	6918
regions	6919
discl	6920
appearances	6921
pattern	6922
excess	6923
performing	6924
privacy	6925
commented	6926
palestine	6927
libr	6928
navy	6929
controversial	6930
corporate	6931
reputation	6932
84	6933
##ois	6934
##orse	6935
##othing	6936
##vey	6937
##usion	6938
canad	6939
outs	6940
##ails	6941
engagement	6942
finds	6943
streaming	6944
questioned	6945
temperature	6946
colorado	6947
mistake	6948
kelly	6949
patrick	6950
breath	6951
borr	6952
fought	6953
gamb	6954
kent	6955
##cf	6956
##itable	6957
rever	6958
chose	6959
reducing	6960
custody	6961
regulations	6962
scandal	6963
rand	6964
rural	6965
##e1	6966
##iences	6967
##caster	6968
##put	6969
##uations	6970
##92	6971
##inn	6972
##asy	6973
##aine	6974
resil	6975
backl	6976
desire	6977
1980	6978
glad	6979
elite	6980
depos	6981
advent	6982
calm	6983
understood	6984
suspected	6985
captured	6986
practices	6987
luke	6988
routine	6989
migration	6990
ethiop	6991
settlement	6992
terrorist	6993
##worth	6994
teachers	6995
tesla	6996
ib	6997
ts	6998
tips	6999
yard	7000
##iqu	7001
##car	7002
##cious	7003
theory	7004
##reh	7005
stability	7006
##acle	7007
shout	7008
##abeth	7009
##uster	7010
abc	7011
.""	7012
cro	7013
accomp	7014
harv	7015
belg	7016
transl	7017
keeps	7018
connected	7019
totally	7020
damaged	7021
revolution	7022
##holders	7023
estimates	7024
tower	7025
matthew	7026
gand	7027
ja	7028
rw	7029
},"	7030
##ilton	7031
weigh	7032
##acking	7033
compens	7034
schol	7035
mrs	7036
feelings	7037
hosted	7038
magic	7039
##ronic	7040
predict	7041
preparing	7042
##event	7043
complaints	7044
granted	7045
diagnosis	7046
desperate	7047
anxiety	7048
rachel	7049
##ti	7050
##bell	7051
##oration	7052
stations	7053
trained	7054
abb	7055
##allas	7056
##awn	7057
##reek	7058
anywhere	7059
eliz	7060
handle	7061
tested	7062
causes	7063
fallen	7064
entering	7065
addressing	7066
discussions	7067
adjust	7068
bathroom	7069
basketball	7070
56	7071
78	7072
gary	7073
jess	7074
kansas	7075
mech	7076
##ulations	7077
incor	7078
maximum	7079
visiting	7080
windows	7081
packed	7082
determine	7083
argument	7084
verdict	7085
afghanistan	7086
unusual	7087
ambassador	7088
chocolate	7089
95	7090
aston	7091
hou	7092
liv	7093
loud	7094
wire	7095
##ario	7096
anderson	7097
##urt	7098
ally	7099
##agg	7100
tri	7101
theme	7102
170	7103
performances	7104
##box	7105
detailed	7106
horror	7107
communication	7108
franchise	7109
faster	7110
ga	7111
rivals	7112
##idays	7113
reun	7114
angry	7115
ups	7116
grass	7117
reck	7118
instance	7119
secured	7120
ultra	7121
boxing	7122
conversations	7123
lying	7124
nin	7125
rely	7126
tories	7127
##oir	7128
##pro	7129
##inform	7130
##ora	7131
meal	7132
prominent	7133
appearing	7134
performed	7135
crossing	7136
independence	7137
primarydateline	7138
cooking	7139
alexander	7140
jamie	7141
swimming	7142
secondarydateline	7143
astr	7144
pip	7145
##iy	7146
##dog	7147
##ակ	7148
sty	7149
##irty	7150
butter	7151
mini	7152
delays	7153
fitness	7154
##yson	7155
muslim	7156
threatening	7157
employment	7158
movies	7159
satisf	7160
immigrants	7161
kilomet	7162
excellent	7163
perspective	7164
microsoft	7165
barg	7166
gained	7167
races	7168
t20	7169
fruit	7170
##ulty	7171
##osphere	7172
resort	7173
laur	7174
##afe	7175
choices	7176
resulted	7177
opposite	7178
##castle	7179
##ladesh	7180
apparently	7181
aggressive	7182
bangladesh	7183
magazine	7184
pow	7185
##ji	7186
toky	7187
toll	7188
brands	7189
emma	7190
fled	7191
buff	7192
concert	7193
findings	7194
voter	7195
investigating	7196
tourism	7197
priorit	7198
merch	7199
macron	7200
narrative	7201
unpre	7202
praised	7203
unexp	7204
tokyo	7205
01	7206
cub	7207
gent	7208
ni	7209
powers	7210
wore	7211
##lights	7212
##bel	7213
thor	7214
stan	7215
##iration	7216
##iano	7217
##imezone	7218
##ondisplay	7219
roof	7220
ourselves	7221
consecut	7222
terrible	7223
##lessly	7224
keyevent	7225
##notimezone	7226
dutch	7227
pacific	7228
blockcreatedon	7229
blockcreatedondisplay	7230
blockfirstpublisheddisplaynotimezone	7231
blocklastupdateddisplay	7232
innovation	7233
landscape	7234
bail	7235
gor	7236
haley	7237
kiss	7238
##sl	7239
##f3	7240
##areness	7241
##iber	7242
intention	7243
blind	7244
serves	7245
wars	7246
##athy	7247
smooth	7248
protected	7249
discrim	7250
testim	7251
balls	7252
celebration	7253
stayed	7254
awareness	7255
punish	7256
fantastic	7257
mechan	7258
unexpected	7259
57	7260
lind	7261
##elines	7262
isol	7263
newly	7264
reporter	7265
fee	7266
interv	7267
minnes	7268
capable	7269
limits	7270
represented	7271
discussion	7272
hearts	7273
unclear	7274
elev	7275
gonna	7276
oscar	7277
consecutive	7278
jere	7279
kap	7280
pump	7281
tas	7282
tap	7283
##lyn	7284
trigg	7285
sean	7286
##ika	7287
actual	7288
phase	7289
switz	7290
locals	7291
meta	7292
explore	7293
campaigns	7294
##308	7295
argue	7296
constantly	7297
parliamentary	7298
extraord	7299
contacted	7300
dollar	7301
##owa	7302
asian	7303
unkn	7304
##aved	7305
backing	7306
widesp	7307
engage	7308
increases	7309
interviews	7310
premium	7311
collaps	7312
prepare	7313
amendment	7314
iraq	7315
minnesota	7316
widespread	7317
por	7318
##f4	7319
##xic	7320
##atar	7321
##esse	7322
shoppers	7323
grateful	7324
scream	7325
myst	7326
bloom	7327
accel	7328
marg	7329
veget	7330
obt	7331
improving	7332
answers	7333
succeed	7334
supermark	7335
lane	7336
nurs	7337
tab	7338
##84	7339
##repr	7340
conven	7341
##uls	7342
sequ	7343
noting	7344
compreh	7345
appe	7346
appropriate	7347
interact	7348
underm	7349
1960	7350
promote	7351
junior	7352
occas	7353
benj	7354
manufacturing	7355
switzerland	7356
07	7357
71	7358
fo	7359
fury	7360
ist	7361
od	7362
ramp	7363
##ext	7364
tool	7365
##ito	7366
chip	7367
lev	7368
intim	7369
disord	7370
accur	7371
counsel	7372
monit	7373
powered	7374
foods	7375
represents	7376
sharma	7377
surviv	7378
waters	7379
frequently	7380
rishi	7381
rarely	7382
elizabeth	7383
cock	7384
sevent	7385
everywhere	7386
monthly	7387
advised	7388
species	7389
shocking	7390
##burg	7391
73	7392
bern	7393
dying	7394
fbi	7395
kit	7396
lor	7397
reeves	7398
##ecredit	7399
minim	7400
1900	7401
##aham	7402
##otte	7403
##252	7404
breakfast	7405
suggesting	7406
argent	7407
deadline	7408
additionally	7409
assassination	7410
virginia	7411
benjamin	7412
380	7413
bin	7414
dallas	7415
iowa	7416
vin	7417
wol	7418
##uable	7419
##f6	7420
##aron	7421
justin	7422
blast	7423
##409	7424
attacking	7425
calc	7426
universities	7427
enjoying	7428
presenter	7429
scrut	7430
essentially	7431
copy	7432
materials	7433
permission	7434
enhance	7435
islamic	7436
##donald	7437
sheriff	7438
("	7439
xi	7440
##row	7441
##uous	7442
stol	7443
##adel	7444
suicide	7445
spons	7446
orch	7447
cole	7448
scores	7449
##ounting	7450
smoke	7451
harass	7452
investments	7453
arrival	7454
behalf	7455
honour	7456
ranked	7457
striking	7458
organizations	7459
awarded	7460
fatal	7461
galax	7462
opponent	7463
atlanta	7464
henry	7465
##information	7466
##eep	7467
##ck	7468
##pay	7469
##bling	7470
##ila	7471
##tery	7472
##emen	7473
##endra	7474
euros	7475
patri	7476
antis	7477
deadly	7478
referring	7479
narrow	7480
taste	7481
ingred	7482
external	7483
beng	7484
merc	7485
##vis	7486
##eries	7487
spaces	7488
quoted	7489
moore	7490
legs	7491
friendship	7492
properly	7493
teenager	7494
santa	7495
recruit	7496
hurricane	7497
lovely	7498
empty	7499
480	7500
dil	7501
voc	7502
yn	7503
##dca	7504
##mad	7505
toil	7506
##omb	7507
whis	7508
plain	7509
hadn	7510
exposed	7511
##encer	7512
##cedented	7513
##ova	7514
##tenham	7515
landing	7516
awa	7517
broader	7518
bottle	7519
bags	7520
settle	7521
baseball	7522
gathered	7523
urgent	7524
controlled	7525
unprecedented	7526
ease	7527
lag	7528
liam	7529
tort	7530
##wick	7531
##etor	7532
anne	7533
traged	7534
##usal	7535
enr	7536
meat	7537
newcastle	7538
usual	7539
margin	7540
flow	7541
beloved	7542
barely	7543
2009	7544
hosting	7545
designer	7546
collapse	7547
painting	7548
sensitive	7549
melbourne	7550
fortun	7551
outdoor	7552
atmosphere	7553
!!	7554
furn	7555
jet	7556
notably	7557
cann	7558
craft	7559
oblig	7560
landed	7561
buyers	7562
achieved	7563
kicked	7564
mumba	7565
lifestyle	7566
berlin	7567
katie	7568
abandoned	7569
accusations	7570
##ss	7571
##57	7572
prad	7573
manif	7574
##aving	7575
somewhere	7576
##assy	7577
##umph	7578
1970	7579
detained	7580
opposed	7581
investigators	7582
competing	7583
anger	7584
##86d	7585
silence	7586
radical	7587
sporting	7588
dreams	7589
passenger	7590
unknown	7591
antisem	7592
aven	7593
jason	7594
kumar	7595
nich	7596
##c7	7597
##ping	7598
##oman	7599
stir	7600
##etime	7601
##aka	7602
seed	7603
grace	7604
roh	7605
marsh	7606
airline	7607
solutions	7608
##anny	7609
seemingly	7610
generations	7611
delivering	7612
##179	7613
virus	7614
##arrass	7615
cameras	7616
embarrass	7617
arabia	7618
fern	7619
##ho	7620
##here	7621
##zy	7622
##1d	7623
beating	7624
shops	7625
chips	7626
##ifer	7627
tea	7628
##quar	7629
winners	7630
##onsin	7631
bread	7632
letters	7633
lowest	7634
employee	7635
constant	7636
multi	7637
pleaded	7638
congressional	7639
representing	7640
drinks	7641
behavior	7642
software	7643
pilot	7644
testimony	7645
jeremy	7646
660	7647
hide	7648
ip	7649
lip	7650
lau	7651
latter	7652
lyn	7653
pure	7654
wisc	7655
##gg	7656
##vere	7657
frag	7658
scor	7659
recip	7660
counts	7661
context	7662
phen	7663
glo	7664
breast	7665
corresp	7666
speculation	7667
blocked	7668
nationwide	7669
davis	7670
stocks	7671
recognition	7672
recommended	7673
gandhi	7674
wisconsin	7675
correspond	7676
gig	7677
wra	7678
thin	7679
##agh	7680
reserve	7681
blamed	7682
formed	7683
supports	7684
personally	7685
handling	7686
##ologies	7687
walker	7688
collective	7689
":[],"	7690
participants	7691
appointment	7692
adviser	7693
adopted	7694
collaboration	7695
atlantic	7696
>,	7697
eag	7698
krem	7699
rig	7700
##849	7701
conce	7702
sudan	7703
crore	7704
prohib	7705
quit	7706
knife	7707
deport	7708
##phy	7709
explo	7710
holy	7711
inspect	7712
updates	7713
tribute	7714
elder	7715
mitchell	7716
canadian	7717
antisemit	7718
67	7719
giants	7720
lem	7721
pill	7722
tum	7723
tail	7724
##tt	7725
##hand	7726
##a4	7727
##do	7728
##entr	7729
chase	7730
allen	7731
contem	7732
defender	7733
brew	7734
arrive	7735
breaks	7736
parking	7737
funny	7738
cancel	7739
prisoners	7740
sweep	7741
touchdown	7742
constitutional	7743
consistent	7744
households	7745
cruise	7746
rushed	7747
")	7748
780	7749
nether	7750
rot	7751
tu	7752
##ruction	7753
##ye	7754
##8ce	7755
##itious	7756
whit	7757
clock	7758
evol	7759
feb	7760
emily	7761
glam	7762
investing	7763
redd	7764
laid	7765
coaching	7766
##392	7767
##668	7768
broadcaster	7769
historical	7770
settled	7771
diagnosed	7772
remarkable	7773
houston	7774
extraordinary	7775
galaxy	7776
740	7777
aer	7778
cited	7779
dol	7780
##can	7781
##icop	7782
clothing	7783
indig	7784
filing	7785
strongly	7786
1300	7787
marketing	7788
suffer	7789
tracks	7790
hoped	7791
communications	7792
exclusive	7793
crypto	7794
guidance	7795
05	7796
nag	7797
tam	7798
##town	7799
##km	7800
##lined	7801
##b9	7802
threw	7803
##eta	7804
##ifting	7805
##abled	7806
adams	7807
stressed	7808
blank	7809
recording	7810
caps	7811
memories	7812
concentr	7813
facts	7814
killer	7815
2006	7816
satell	7817
encouraged	7818
slowly	7819
micro	7820
flooding	7821
ownership	7822
politician	7823
organisations	7824
undersc	7825
rwanda	7826
appeals	7827
cens	7828
lgb	7829
torn	7830
welf	7831
##d2	7832
##inely	7833
##anes	7834
##ilst	7835
##eld	7836
seized	7837
noticed	7838
##alled	7839
sovere	7840
loves	7841
apps	7842
root	7843
phones	7844
defending	7845
effici	7846
metal	7847
##iveness	7848
operate	7849
cheese	7850
walls	7851
nasa	7852
overturn	7853
overwhelming	7854
expansion	7855
mumbai	7856
sovereign	7857
860	7858
eric	7859
echo	7860
lions	7861
rash	7862
yield	7863
reward	7864
whilst	7865
shame	7866
concept	7867
marine	7868
depending	7869
bush	7870
metro	7871
visa	7872
portug	7873
temple	7874
regardless	7875
disappointed	7876
columbia	7877
##adelph	7878
phenom	7879
980	7880
dust	7881
diam	7882
houth	7883
jake	7884
naz	7885
tear	7886
vit	7887
##a2	7888
congr	7889
spots	7890
units	7891
clients	7892
writes	7893
morris	7894
basically	7895
attempting	7896
philipp	7897
philadelph	7898
fulf	7899
recovered	7900
##break	7901
supplies	7902
therapy	7903
lgbt	7904
gains	7905
ml	7906
nights	7907
##rition	7908
##boy	7909
##54	7910
##_3	7911
##_0_	7912
##inge	7913
##icial	7914
##opher	7915
##ached	7916
carter	7917
interior	7918
southgate	7919
holidays	7920
activist	7921
addressed	7922
similarly	7923
approached	7924
reviews	7925
normally	7926
romantic	7927
absolute	7928
vaccine	7929
manifest	7930
gul	7931
gear	7932
hann	7933
wicket	7934
##c6	7935
##px	7936
reject	7937
reference	7938
forum	7939
2026	7940
liked	7941
formal	7942
anyway	7943
betting	7944
thrown	7945
falls	7946
selected	7947
netherlands	7948
welfare	7949
?'	7950
ale	7951
dies	7952
nerv	7953
##_36	7954
##stream	7955
##thy	7956
noise	7957
margar	7958
guest	7959
##ublin	7960
attending	7961
humans	7962
morgan	7963
duo	7964
locked	7965
##_5472	7966
manufactur	7967
tariffs	7968
maintaining	7969
dodgers	7970
##_3283	7971
kremlin	7972
##_5472_3283	7973
eighth	7974
uc	7975
upper	7976
##rod	7977
##a8	7978
##bal	7979
##ela	7980
reign	7981
##urd	7982
##estr	7983
##alling	7984
dropping	7985
##icked	7986
underw	7987
endorse	7988
##under	7989
reduction	7990
##phones	7991
creation	7992
promising	7993
funded	7994
murphy	7995
kidn	7996
titles	7997
coaches	7998
crossed	7999
civilian	8000
##look	8001
drawing	8002
discovery	8003
promoting	8004
medicine	8005
controversy	8006
tragedy	8007
pradesh	8008
dublin	8009
fold	8010
joke	8011
lakh	8012
ter	8013
##mm	8014
##born	8015
##xit	8016
##sters	8017
reel	8018
##add	8019
##iro	8020
##thr	8021
blink	8022
##raid	8023
helicop	8024
wrest	8025
elon	8026
depth	8027
russell	8028
##anka	8029
deter	8030
relevant	8031
1140	8032
2004	8033
insist	8034
valuable	8035
kingdom	8036
rolling	8037
consistently	8038
charlotte	8039
residential	8040
applied	8041
treasury	8042
resistance	8043
tragic	8044
bald	8045
fer	8046
gill	8047
ian	8048
py	8049
rome	8050
si	8051
ug	8052
##part	8053
##rets	8054
##aya	8055
weird	8056
##abet	8057
abu	8058
weekly	8059
remote	8060
warnings	8061
worldwide	8062
endors	8063
wanting	8064
legit	8065
avo	8066
jane	8067
walks	8068
1000	8069
immun	8070
distress	8071
cyber	8072
robinson	8073
predicted	8074
progressive	8075
survived	8076
witnesses	8077
divorce	8078
computer	8079
74	8080
foss	8081
gp	8082
nbc	8083
##tar	8084
##yer	8085
##master	8086
reass	8087
stating	8088
alan	8089
habit	8090
gray	8091
soil	8092
##roid	8093
flowers	8094
param	8095
detect	8096
barcel	8097
realise	8098
profits	8099
menu	8100
generated	8101
equally	8102
protecting	8103
emerging	8104
cleaning	8105
hills	8106
proposals	8107
transportation	8108
rhetor	8109
apparent	8110
automatic	8111
brutal	8112
fighters	8113
##tle	8114
##rc	8115
##nic	8116
##mi	8117
##_6	8118
ford	8119
##igue	8120
##istol	8121
scared	8122
opens	8123
highlights	8124
##ixel	8125
capabilities	8126
##oyd	8127
##ovic	8128
austin	8129
surely	8130
hyp	8131
cameron	8132
necessarily	8133
initiatives	8134
shoes	8135
gentle	8136
mystery	8137
06	8138
eager	8139
mall	8140
piv	8141
tin	8142
##ria	8143
##gender	8144
##greg	8145
inev	8146
unw	8147
forms	8148
interp	8149
shoulder	8150
airstr	8151
corn	8152
approx	8153
filming	8154
celebrating	8155
momentum	8156
borders	8157
expecting	8158
rocket	8159
screens	8160
fixed	8161
appreciate	8162
unveiled	8163
congrat	8164
philadelphia	8165
dave	8166
sits	8167
##how	8168
##ointing	8169
##star	8170
##ami	8171
prol	8172
truck	8173
nev	8174
##abad	8175
spo	8176
unn	8177
clinton	8178
boats	8179
##uctive	8180
transgender	8181
2005	8182
##ception	8183
funeral	8184
balt	8185
destination	8186
criticized	8187
experiencing	8188
strengthen	8189
delayed	8190
koh	8191
library	8192
obtained	8193
stolen	8194
bump	8195
bold	8196
dw	8197
gil	8198
nu	8199
conver	8200
neut	8201
neur	8202
##umm	8203
bru	8204
proof	8205
resulting	8206
commander	8207
edition	8208
brexit	8209
refere	8210
affair	8211
departure	8212
successfully	8213
specialist	8214
audio	8215
voices	8216
jonathan	8217
adopt	8218
maintained	8219
assessment	8220
displaced	8221
mock	8222
tent	8223
yor	8224
##woman	8225
##3b	8226
##aska	8227
##real	8228
##eland	8229
##ione	8230
##urr	8231
lever	8232
cous	8233
afraid	8234
ages	8235
poland	8236
disag	8237
regret	8238
smile	8239
situations	8240
factory	8241
badly	8242
describe	8243
grounds	8244
##egu	8245
embassy	8246
emotion	8247
dispute	8248
backlash	8249
seventh	8250
gav	8251
pup	8252
rall	8253
raw	8254
##rics	8255
##die	8256
##1f	8257
toy	8258
##oli	8259
ships	8260
hab	8261
##agan	8262
##una	8263
unif	8264
enorm	8265
outfit	8266
meals	8267
loans	8268
loving	8269
imposed	8270
##angers	8271
buzz	8272
##bridge	8273
##beat	8274
2007	8275
fundra	8276
capture	8277
distur	8278
towns	8279
babies	8280
demanding	8281
racist	8282
striker	8283
woods	8284
updated	8285
exhibition	8286
liquid	8287
barcelona	8288
81	8289
lin	8290
sib	8291
taught	8292
##ports	8293
##án	8294
##oning	8295
stages	8296
##irts	8297
##agers	8298
deem	8299
gross	8300
knee	8301
lasting	8302
##kshire	8303
posting	8304
soccer	8305
possession	8306
investigations	8307
classes	8308
absence	8309
##rupted	8310
nominated	8311
rebuild	8312
applications	8313
riot	8314
comprehensive	8315
rohit	8316
les	8317
##ih	8318
##enous	8319
##oni	8320
##iture	8321
uncon	8322
anymore	8323
flash	8324
##ucted	8325
owns	8326
singing	8327
cheaper	8328
globally	8329
burning	8330
tommy	8331
sams	8332
peaceful	8333
begun	8334
minority	8335
prompted	8336
showcase	8337
vessel	8338
%)	8339
76	8340
dh	8341
jd	8342
qatar	8343
wim	8344
##ws	8345
##pa	8346
##ped	8347
thumb	8348
toxic	8349
##eli	8350
shall	8351
combs	8352
grid	8353
##auc	8354
indict	8355
boom	8356
implic	8357
regulation	8358
clever	8359
continent	8360
infect	8361
realised	8362
ballots	8363
salary	8364
technologies	8365
contribute	8366
institution	8367
romance	8368
illustr	8369
##heim	8370
indicated	8371
teaching	8372
memorial	8373
component	8374
ethiopia	8375
compensation	8376
laund	8377
##4d	8378
inline	8379
bets	8380
forcing	8381
stable	8382
prote	8383
brush	8384
manip	8385
##onduct	8386
perpet	8387
formula	8388
dece	8389
deserve	8390
carefully	8391
##aughters	8392
viet	8393
investigate	8394
christopher	8395
deeper	8396
portray	8397
impacted	8398
seeks	8399
combination	8400
respectively	8401
championships	8402
thompson	8403
requirements	8404
complicated	8405
encounter	8406
f1	8407
kay	8408
lap	8409
pic	8410
##hy	8411
##bles	8412
##7d	8413
##այ	8414
thus	8415
##onc	8416
beer	8417
sauce	8418
triple	8419
##umes	8420
client	8421
reserv	8422
exposure	8423
dressed	8424
mood	8425
symp	8426
passes	8427
grey	8428
managers	8429
extent	8430
pleased	8431
##lining	8432
pollution	8433
focusing	8434
castle	8435
jailed	8436
##regon	8437
mirror	8438
pursue	8439
pregnancy	8440
outrage	8441
liz	8442
wickets	8443
##nie	8444
##viet	8445
##itement	8446
chest	8447
plate	8448
##ardo	8449
##grap	8450
warrant	8451
registr	8452
extensive	8453
convin	8454
replacement	8455
turk	8456
physically	8457
recognise	8458
perfectly	8459
sustained	8460
cnbc	8461
dc	8462
gate	8463
oregon	8464
rating	8465
ta	8466
##lah	8467
##7c	8468
saint	8469
##antis	8470
grade	8471
graham	8472
soviet	8473
##owned	8474
decre	8475
finishing	8476
pharm	8477
instrum	8478
##enez	8479
##ipper	8480
hamilton	8481
conviction	8482
petition	8483
describes	8484
painful	8485
duties	8486
participate	8487
encouraging	8488
refugees	8489
embrace	8490
ancient	8491
chamber	8492
hampshire	8493
69	8494
aj	8495
jets	8496
lt	8497
lisa	8498
wounded	8499
##math	8500
##ares	8501
neil	8502
exceed	8503
unac	8504
manner	8505
string	8506
accom	8507
medium	8508
##aware	8509
decor	8510
interim	8511
impacts	8512
monitor	8513
mainly	8514
revealing	8515
arguing	8516
##mingham	8517
tottenham	8518
##force	8519
birmingham	8520
criticised	8521
festive	8522
naturally	8523
connections	8524
cryst	8525
diverse	8526
involvement	8527
delighted	8528
jennifer	8529
dialogue	8530
pivot	8531
boun	8532
tired	8533
wre	8534
waves	8535
##pan	8536
##ía	8537
print	8538
asks	8539
exha	8540
afterwards	8541
##aug	8542
##pton	8543
oldest	8544
personality	8545
province	8546
facilit	8547
rises	8548
palm	8549
viewed	8550
membership	8551
##keep	8552
colleague	8553
unfold	8554
beaten	8555
survive	8556
surrounded	8557
birds	8558
deployed	8559
resolve	8560
trauma	8561
##astroph	8562
monitoring	8563
scrutiny	8564
dear	8565
pose	8566
tier	8567
vig	8568
##ել	8569
prest	8570
ank	8571
aftermath	8572
export	8573
##ensions	8574
pointing	8575
governing	8576
greens	8577
calend	8578
lessons	8579
organised	8580
caution	8581
##255	8582
entrepr	8583
##load	8584
roman	8585
sleeping	8586
catastroph	8587
bombs	8588
bosses	8589
horiz	8590
academic	8591
gathering	8592
##ozen	8593
joseph	8594
catholic	8595
eggs	8596
overseas	8597
##minster	8598
accompan	8599
diamond	8600
nervous	8601
samsung	8602
convinced	8603
accompl	8604
daughters	8605
eve	8606
kiev	8607
##itar	8608
##utch	8609
##uru	8610
##vet	8611
frozen	8612
conced	8613
cruel	8614
repair	8615
bloc	8616
##acted	8617
##roit	8618
parks	8619
assign	8620
assert	8621
laura	8622
curt	8623
urging	8624
universal	8625
taxpay	8626
queens	8627
veterans	8628
clinic	8629
integrity	8630
pledged	8631
arguments	8632
discrimination	8633
triggered	8634
rhetoric	8635
approximately	8636
entreprene	8637
bub	8638
cav	8639
cord	8640
ipl	8641
mit	8642
pear	8643
vowed	8644
yemen	8645
##aig	8646
##ivan	8647
amy	8648
inclus	8649
fever	8650
autumn	8651
headlines	8652
detroit	8653
lottery	8654
valid	8655
readers	8656
tourist	8657
trials	8658
struggles	8659
links	8660
reforms	8661
maryland	8662
resilience	8663
a4	8664
bike	8665
hu	8666
hong	8667
jab	8668
pound	8669
##rence	8670
##94	8671
##5e	8672
##eding	8673
##iters	8674
##oto	8675
rear	8676
##uts	8677
##amental	8678
trains	8679
##ando	8680
dean	8681
##ellers	8682
soap	8683
quant	8684
comprom	8685
throwing	8686
longtime	8687
handful	8688
comeback	8689
judgment	8690
solo	8691
executives	8692
guns	8693
circle	8694
wildlife	8695
improvement	8696
mexican	8697
occupied	8698
genuine	8699
aaron	8700
dict	8701
gam	8702
gdp	8703
hud	8704
kane	8705
pizz	8706
tyson	8707
##east	8708
##cles	8709
##gi	8710
theft	8711
##onn	8712
inaug	8713
stance	8714
alter	8715
trig	8716
leon	8717
maria	8718
##awa	8719
conscious	8720
explaining	8721
reads	8722
solve	8723
entit	8724
describing	8725
plea	8726
error	8727
unfair	8728
racism	8729
beaches	8730
##front	8731
reflected	8732
citizen	8733
impressed	8734
substit	8735
establishment	8736
ghost	8737
rahul	8738
1990s	8739
bengal	8740
79	8741
dump	8742
finger	8743
ted	8744
tone	8745
##cling	8746
##oa	8747
##point	8748
##lers	8749
##mother	8750
##gle	8751
##56	8752
##orous	8753
todd	8754
forth	8755
##olis	8756
prost	8757
##ulating	8758
notable	8759
unh	8760
outstanding	8761
groc	8762
probe	8763
robb	8764
presum	8765
boots	8766
##ateral	8767
israelis	8768
careful	8769
visits	8770
##enny	8771
privile	8772
rounds	8773
audiences	8774
fairly	8775
trafficking	8776
requested	8777
expanded	8778
dynamic	8779
indigenous	8780
lgbtq	8781
margaret	8782
fossil	8783
nevada	8784
82	8785
bil	8786
ku	8787
pig	8788
##king	8789
##8f	8790
##6d	8791
inner	8792
andre	8793
##etz	8794
lob	8795
strange	8796
decent	8797
underway	8798
assad	8799
contracts	8800
discip	8801
militants	8802
excitement	8803
industries	8804
choosing	8805
reasonable	8806
billionaire	8807
attorneys	8808
coastal	8809
obser	8810
oklah	8811
daniels	8812
procedure	8813
couples	8814
1980s	8815
disorder	8816
ingredients	8817
lon	8818
##inity	8819
##entic	8820
##agen	8821
butler	8822
20th	8823
2030	8824
drove	8825
partly	8826
##eney	8827
headquar	8828
arrang	8829
visible	8830
steven	8831
stepping	8832
fundamental	8833
billions	8834
lineup	8835
launching	8836
distinct	8837
destruction	8838
epic	8839
panic	8840
robust	8841
ambul	8842
ambitious	8843
##atoes	8844
anticipated	8845
substantial	8846
uncertainty	8847
enthusi	8848
collapsed	8849
reddit	8850
89	8851
auction	8852
bf	8853
gord	8854
hack	8855
joked	8856
mour	8857
till	8858
##riel	8859
##yth	8860
##oop	8861
##dale	8862
##father	8863
##enz	8864
rehab	8865
hey	8866
alab	8867
alban	8868
##ifies	8869
##aped	8870
##ibilities	8871
intel	8872
scul	8873
eval	8874
everyday	8875
earning	8876
centuries	8877
starring	8878
##atherine	8879
##oval	8880
hostage	8881
hotels	8882
hopeful	8883
divided	8884
routes	8885
nigerian	8886
sadly	8887
ultimate	8888
restrict	8889
##breaking	8890
guaranteed	8891
methods	8892
checks	8893
ast	8894
dal	8895
gotten	8896
kyle	8897
porn	8898
##sen	8899
##onia	8900
fried	8901
##ctv	8902
notting	8903
covers	8904
workplace	8905
imper	8906
##rog	8907
moist	8908
##intend	8909
bund	8910
extend	8911
dominated	8912
criminals	8913
popularity	8914
migrant	8915
reflects	8916
jumped	8917
honestly	8918
empire	8919
proceedings	8920
rapidly	8921
diversity	8922
lauren	8923
oklahoma	8924
biz	8925
danc	8926
ecl	8927
foster	8928
hugh	8929
ic	8930
kong	8931
kings	8932
toler	8933
##agu	8934
plun	8935
##eller	8936
beck	8937
contains	8938
wright	8939
courage	8940
farage	8941
filmed	8942
rapper	8943
##attered	8944
westminster	8945
sexually	8946
celebrities	8947
equival	8948
picking	8949
welsh	8950
demanded	8951
terrorism	8952
lifetime	8953
episodes	8954
jimmy	8955
guarantee	8956
symbol	8957
innocent	8958
],	8959
bou	8960
hired	8961
pope	8962
##ded	8963
##eter	8964
aber	8965
grav	8966
grave	8967
accusing	8968
cleared	8969
..."	8970
youngest	8971
admit	8972
##what	8973
safegu	8974
urge	8975
ahmed	8976
deny	8977
treatments	8978
accessible	8979
closure	8980
absor	8981
burst	8982
paint	8983
inspiration	8984
athletic	8985
fleet	8986
ridic	8987
empower	8988
ronald	8989
nutrition	8990
depression	8991
azer	8992
bronze	8993
midfielder	8994
professionals	8995
intimid	8996
1970s	8997
##grapher	8998
83	8999
bash	9000
gem	9001
kash	9002
sons	9003
venez	9004
wages	9005
##e40	9006
##rick	9007
##rical	9008
##burn	9009
##esth	9010
chand	9011
chart	9012
##employ	9013
leices	9014
unemploy	9015
incent	9016
highway	9017
signature	9018
memoir	9019
engaging	9020
explicit	9021
posed	9022
30pm	9023
2002	9024
2001	9025
bitter	9026
suspects	9027
erik	9028
contributions	9029
timing	9030
1997	9031
doubled	9032
duke	9033
surveill	9034
advocate	9035
slammed	9036
alabama	9037
63	9038
fier	9039
ferr	9040
fighter	9041
gest	9042
gib	9043
hors	9044
nico	9045
pas	9046
tamp	9047
##hal	9048
##gal	9049
##isons	9050
pron	9051
heating	9052
cher	9053
##ikh	9054
##ords	9055
scan	9056
somehow	9057
desert	9058
shower	9059
governance	9060
##erman	9061
starred	9062
providers	9063
barry	9064
arrests	9065
cancelled	9066
covering	9067
neighbours	9068
searching	9069
disappointing	9070
persist	9071
spreading	9072
batting	9073
expanding	9074
retailers	9075
##ում	9076
fantasy	9077
##bledon	9078
uniform	9079
wimbledon	9080
surveillance	9081
77	9082
cells	9083
ft	9084
hip	9085
ry	9086
rivers	9087
woke	9088
##rd	9089
##98	9090
##erb	9091
theater	9092
##arre	9093
##isive	9094
##icate	9095
rex	9096
##uting	9097
##acular	9098
priced	9099
shield	9100
##opa	9101
trips	9102
notor	9103
twenty	9104
medi	9105
commer	9106
anybody	9107
desk	9108
discount	9109
##bean	9110
announcing	9111
networks	9112
immers	9113
pete	9114
nonpro	9115
priorities	9116
crowds	9117
sacr	9118
argentina	9119
wrapped	9120
88	9121
bum	9122
cctv	9123
dd	9124
pour	9125
patch	9126
sessions	9127
##eb0	9128
##tv	9129
##700	9130
##imp	9131
haz	9132
tries	9133
goalk	9134
craig	9135
residence	9136
evil	9137
blog	9138
##ocks	9139
defended	9140
deficit	9141
offices	9142
slot	9143
infection	9144
norway	9145
hardly	9146
pressures	9147
requests	9148
##baij	9149
involves	9150
suspic	9151
damaging	9152
accountable	9153
illegally	9154
examination	9155
dubai	9156
distribution	9157
tweet	9158
##azeera	9159
transparency	9160
azerbaij	9161
dining	9162
fishing	9163
ger	9164
hart	9165
kem	9166
vine	9167
##esy	9168
##ington	9169
stops	9170
##season	9171
unity	9172
enable	9173
whenever	9174
firing	9175
carpet	9176
desantis	9177
centres	9178
invested	9179
opener	9180
##ricts	9181
##riers	9182
authentic	9183
cheer	9184
controls	9185
primarily	9186
collected	9187
##187	9188
telegram	9189
##7b6	9190
teenage	9191
diego	9192
gallery	9193
kelce	9194
laughing	9195
prompting	9196
gabriel	9197
cinema	9198
accommodation	9199
thorough	9200
turkish	9201
accompanied	9202
equivalent	9203
goalkeep	9204
hint	9205
honey	9206
jazeera	9207
lod	9208
nur	9209
rick	9210
trop	9211
##ums	9212
spray	9213
somewhat	9214
preced	9215
finances	9216
poison	9217
makeup	9218
provision	9219
metres	9220
##rete	9221
2003	9222
extension	9223
michelle	9224
benefic	9225
minds	9226
participation	9227
lockdown	9228
entrance	9229
aspects	9230
subsid	9231
frustration	9232
sussex	9233
chapter	9234
mohammed	9235
mutual	9236
survivors	9237
venezuel	9238
02	9239
900	9240
bip	9241
gb	9242
mack	9243
wag	9244
##900	9245
##ingham	9246
ster	9247
##che	9248
gram	9249
backs	9250
anna	9251
politically	9252
mcdonald	9253
boxes	9254
legislative	9255
qualify	9256
pulling	9257
witnessed	9258
supplied	9259
immunity	9260
bot	9261
fol	9262
gw	9263
lapt	9264
mothers	9265
pent	9266
tang	9267
##rome	9268
##bcc	9269
##475	9270
##8c	9271
##iner	9272
inject	9273
stem	9274
##irates	9275
##ima	9276
shake	9277
alar	9278
sued	9279
button	9280
spell	9281
##aping	9282
alloc	9283
incumb	9284
loose	9285
strain	9286
blues	9287
##ockey	9288
##iverse	9289
undert	9290
1999	9291
##xture	9292
harsh	9293
moderate	9294
idf	9295
publication	9296
restore	9297
investigated	9298
illin	9299
err	9300
volume	9301
legislature	9302
engineering	9303
scientific	9304
fabric	9305
narendra	9306
publish	9307
playoffs	9308
uncomfort	9309
calendar	9310
gordon	9311
fights	9312
han	9313
holl	9314
mul	9315
nap	9316
ruth	9317
##e30	9318
##sa	9319
##aa5	9320
##nc	9321
##gy	9322
inning	9323
##elson	9324
bears	9325
revel	9326
anch	9327
##child	9328
##oks	9329
twist	9330
perry	9331
flour	9332
relie	9333
warns	9334
centers	9335
assists	9336
signal	9337
differences	9338
refres	9339
##80e	9340
moral	9341
listening	9342
awful	9343
periods	9344
##267	9345
spotlight	9346
rolled	9347
mountains	9348
producing	9349
railway	9350
incorpor	9351
intervention	9352
endorsed	9353
deemed	9354
sculpt	9355
bizarre	9356
!'	9357
240	9358
dor	9359
eleg	9360
nit	9361
wade	9362
##lings	9363
##df7	9364
##inator	9365
##online	9366
##etch	9367
##imore	9368
alamy	9369
##esty	9370
bris	9371
##ouri	9372
mans	9373
expects	9374
disgr	9375
presents	9376
securing	9377
poly	9378
writers	9379
belt	9380
swiss	9381
efficient	9382
letting	9383
stewart	9384
##enna	9385
cheek	9386
landl	9387
equipped	9388
associate	9389
expression	9390
recognised	9391
repeat	9392
oliver	9393
##c58	9394
observed	9395
lebanese	9396
procedures	9397
##laimed	9398
subsequently	9399
pocket	9400
abbott	9401
toilet	9402
efficiency	9403
enormous	9404
):	9405
.-	9406
87	9407
dual	9408
hush	9409
nh	9410
rut	9411
yu	9412
##rie	9413
##lie	9414
##ayed	9415
##emies	9416
trucks	9417
##abel	9418
butt	9419
##berry	9420
carib	9421
guards	9422
##press	9423
edwards	9424
conclusion	9425
arriving	9426
raid	9427
##806	9428
##ucky	9429
exclud	9430
travis	9431
bankrupt	9432
awk	9433
garc	9434
##333	9435
ordinary	9436
historically	9437
kenya	9438
mistakes	9439
reminder	9440
renewed	9441
recruitment	9442
lemon	9443
baltimore	9444
yorkshire	9445
headquarters	9446
nottingham	9447
98	9448
gi	9449
greek	9450
oak	9451
rib	9452
riding	9453
sull	9454
##ses	9455
##ds	9456
##arge	9457
##aser	9458
revers	9459
proven	9460
recipe	9461
teh	9462
##rov	9463
warr	9464
longest	9465
homeown	9466
masters	9467
barn	9468
statistics	9469
classified	9470
##109	9471
talib	9472
bottles	9473
ethnic	9474
emotions	9475
attendance	9476
highlighting	9477
ignore	9478
dubbed	9479
submitted	9480
checked	9481
condemned	9482
agriculture	9483
acceler	9484
interpret	9485
aberde	9486
awkward	9487
91	9488
cauc	9489
dy	9490
mud	9491
moss	9492
nig	9493
sink	9494
wis	9495
wet	9496
##oh	9497
##mail	9498
beth	9499
betr	9500
##aba	9501
##ante	9502
##ellar	9503
crying	9504
amounts	9505
amanda	9506
rook	9507
medals	9508
guitar	9509
mae	9510
parade	9511
phr	9512
supportive	9513
simpson	9514
profound	9515
grandmother	9516
misc	9517
educational	9518
thousand	9519
reflecting	9520
horrific	9521
producers	9522
mailonline	9523
murdered	9524
occasionally	9525
venture	9526
crystal	9527
illinois	9528
sullivan	9529
130	9530
86	9531
96	9532
bish	9533
cats	9534
dign	9535
fare	9536
gaming	9537
rated	9538
trem	9539
tension	9540
vary	9541
##sk	9542
##oen	9543
##bul	9544
##52	9545
forb	9546
stamp	9547
trends	9548
brun	9549
compos	9550
scam	9551
experiment	9552
economist	9553
##ea2	9554
##176	9555
creates	9556
responding	9557
traveling	9558
hyd	9559
bullet	9560
medication	9561
comedian	9562
wealthy	9563
knocked	9564
rumours	9565
hanging	9566
gorge	9567
occasions	9568
avenue	9569
manifesto	9570
##through	9571
unaccept	9572
commerce	9573
bour	9574
billy	9575
lists	9576
sed	9577
yo	9578
yank	9579
##lan	9580
##mouth	9581
##որ	9582
##ին	9583
inapp	9584
##icy	9585
leather	9586
unch	9587
worn	9588
sheer	9589
click	9590
expenses	9591
howard	9592
teeth	9593
##orship	9594
helm	9595
remo	9596
warn	9597
lawrence	9598
##comes	9599
affir	9600
steady	9601
operational	9602
sentences	9603
diabet	9604
baden	9605
employed	9606
complained	9607
terrorists	9608
triumph	9609
harassment	9610
satellite	9611
indictment	9612
taliban	9613
cable	9614
dna	9615
ka	9616
nam	9617
nca	9618
oz	9619
rab	9620
##ept	9621
##bfa	9622
##939	9623
##5cd	9624
##stapp	9625
##ec6	9626
shy	9627
fred	9628
##estone	9629
##apes	9630
offense	9631
sole	9632
overd	9633
justices	9634
##actions	9635
contained	9636
##olds	9637
removal	9638
wrap	9639
campbell	9640
exploring	9641
useful	9642
irre	9643
violations	9644
##192	9645
absent	9646
##iece	9647
ranks	9648
assisted	9649
verstapp	9650
racial	9651
achieving	9652
typical	9653
survival	9654
introduce	9655
meaningful	9656
flags	9657
jurors	9658
cosm	9659
anonymous	9660
phillips	9661
reverse	9662
deposit	9663
caribbean	9664
unacceptable	9665
92	9666
;-	9667
fals	9668
ferg	9669
fisher	9670
molly	9671
nod	9672
riley	9673
##389	9674
##inter	9675
##icts	9676
whist	9677
stead	9678
##emble	9679
trapped	9680
##ivia	9681
spare	9682
universe	9683
##ello	9684
inclusion	9685
flaw	9686
thresh	9687
##ogan	9688
consent	9689
##ussels	9690
##veland	9691
investor	9692
mode	9693
sri	9694
detention	9695
turner	9696
##608	9697
developments	9698
firef	9699
banking	9700
employers	9701
villages	9702
fault	9703
rescued	9704
swedish	9705
spectacular	9706
verstappen	9707
fate	9708
lid	9709
##iot	9710
##mun	9711
##fol	9712
##57f	9713
##alo	9714
##oda	9715
debr	9716
##usting	9717
unions	9718
enemy	9719
outcomes	9720
fires	9721
relatives	9722
monet	9723
thrill	9724
skill	9725
midnight	9726
holes	9727
processes	9728
denmark	9729
latin	9730
districts	9731
circuit	9732
##f08	9733
existence	9734
flew	9735
retailer	9736
withdrawal	9737
leaning	9738
supermarket	9739
helicopter	9740
uncomfortable	9741
bunch	9742
dock	9743
fing	9744
horn	9745
jar	9746
kal	9747
mick	9748
pages	9749
tub	9750
va	9751
wolf	9752
##zing	9753
##ystem	9754
##ups	9755
##8e5	9756
##639	9757
##_1	9758
##orate	9759
##aro	9760
styl	9761
isa	9762
##olas	9763
resur	9764
perce	9765
disruption	9766
whats	9767
everton	9768
finland	9769
downtown	9770
deliber	9771
##406	9772
arrives	9773
pressed	9774
breakthrough	9775
convent	9776
silent	9777
practical	9778
soldier	9779
naval	9780
defeated	9781
promotion	9782
crashed	9783
citizenship	9784
purchased	9785
attractive	9786
brighton	9787
pledge	9788
resigned	9789
resignation	9790
explosion	9791
stabbed	9792
carlos	9793
shaped	9794
bacter	9795
gambling	9796
portugal	9797
diabetes	9798
180	9799
bans	9800
baker	9801
dup	9802
jes	9803
nc	9804
##c78	9805
##lims	9806
##arity	9807
##isi	9808
##urity	9809
shan	9810
offences	9811
grat	9812
prox	9813
overcome	9814
myster	9815
boot	9816
serb	9817
commons	9818
actively	9819
signup	9820
openly	9821
transm	9822
topic	9823
steal	9824
irr	9825
safely	9826
movements	9827
mainstream	9828
salv	9829
opted	9830
portra	9831
titled	9832
encamp	9833
##1782	9834
gardens	9835
persu	9836
athlete	9837
qualifying	9838
syrian	9839
charlie	9840
lengthy	9841
munich	9842
frequent	9843
legendary	9844
joshua	9845
oxford	9846
neutral	9847
##heimer	9848
pizza	9849
entitled	9850
);	9851
bio	9852
lion	9853
rif	9854
tape	9855
##kov	9856
##mph	9857
##bow	9858
##9a0	9859
##7_	9860
##step	9861
reop	9862
shell	9863
chant	9864
trillion	9865
craw	9866
serge	9867
impe	9868
mining	9869
autonom	9870
warming	9871
##mann	9872
marking	9873
sentencing	9874
##coin	9875
humanity	9876
talented	9877
portion	9878
tenure	9879
cycl	9880
##111	9881
casino	9882
okay	9883
diseases	9884
bayern	9885
penny	9886
devastated	9887
preferred	9888
refugee	9889
principal	9890
subsequent	9891
vocal	9892
horizon	9893
nonprofit	9894
bass	9895
bhar	9896
nsw	9897
pets	9898
sara	9899
tale	9900
yog	9901
##yk	9902
##fare	9903
##bish	9904
##4e	9905
##ouch	9906
prix	9907
bristol	9908
ads	9909
##ipse	9910
##troom	9911
reprod	9912
drunk	9913
marath	9914
presidents	9915
impl	9916
courtroom	9917
legally	9918
cleveland	9919
careers	9920
##iov	9921
aviation	9922
opera	9923
travelled	9924
booked	9925
burden	9926
1996	9927
rams	9928
util	9929
catal	9930
splash	9931
layer	9932
defendants	9933
affecting	9934
clarke	9935
installed	9936
tactics	9937
volunteers	9938
punishment	9939
antisemitism	9940
unemployment	9941
badenoch	9942
whatsapp	9943
duch	9944
fence	9945
foul	9946
jas	9947
lanc	9948
rio	9949
##iola	9950
##mers	9951
##mah	9952
##2c3	9953
##jri	9954
##esc	9955
stopping	9956
sue	9957
org	9958
##endous	9959
brent	9960
offence	9961
addiction	9962
reliable	9963
monum	9964
donors	9965
kejri	9966
smugg	9967
smoking	9968
muscle	9969
greece	9970
differently	9971
johnny	9972
##3501	9973
generate	9974
celebrations	9975
portfol	9976
closest	9977
hydr	9978
jacket	9979
consideration	9980
emails	9981
regulatory	9982
frustrated	9983
lifted	9984
recommendations	9985
powell	9986
cockt	9987
hannah	9988
kohli	9989
##elihood	9990
ambulance	9991
leicester	9992
"[	9993
6000	9994
ae5	9995
bout	9996
cops	9997
dawn	9998
fiction	9999
