<unk>	0
<s>	0
</s>	0
s	-3.27406
▁the	-3.38624
,	-3.39862
.	-3.43415
▁to	-3.95023
▁a	-4.06348
▁and	-4.09746
▁of	-4.14237
▁in	-4.2626
'	-4.30049
-	-4.88729
▁that	-4.94375
▁"	-4.9509
▁for	-4.99105
ing	-5.04346
▁on	-5.0764
▁is	-5.07803
ed	-5.21922
t	-5.23563
▁with	-5.26969
▁was	-5.28734
▁it	-5.36497
▁The	-5.39521
▁I	-5.41559
d	-5.49846
▁as	-5.64807
▁be	-5.64953
▁at	-5.67759
▁he	-5.67864
▁said	-5.68989
▁	-5.73365
▁have	-5.75098
▁has	-5.7754
▁from	-5.795
▁his	-5.80217
▁are	-5.84213
▁by	-5.85632
:	-5.89355
n	-5.92415
▁-	-5.97471
▁an	-6.01829
▁not	-6.05878
ly	-6.06042
,"	-6.06823
▁this	-6.08105
▁you	-6.09293
"	-6.11496
m	-6.12032
er	-6.12445
."	-6.15577
y	-6.16477
e	-6.16969
▁who	-6.19174
▁will	-6.19711
▁her	-6.20597
re	-6.21004
▁they	-6.2316
▁their	-6.24324
▁but	-6.26033
▁A	-6.29024
▁had	-6.29222
▁we	-6.31233
▁been	-6.3358
▁(	-6.3773
▁or	-6.38504
▁she	-6.39036
a	-6.4194
▁were	-6.43978
▁can	-6.45093
▁more	-6.47537
▁about	-6.48624
▁out	-6.50128
▁up	-6.51399
▁one	-6.51965
▁which	-6.52136
▁after	-6.54562
▁also	-6.54707
al	-6.576
)	-6.58035
r	-6.58993
I	-6.5927
▁all	-6.61157
▁It	-6.63868
▁would	-6.65046
▁'	-6.69218
▁people	-6.70383
▁so	-6.71075
▁In	-6.72092
▁He	-6.72147
▁over	-6.72477
▁when	-6.73312
▁time	-6.77683
ve	-6.79787
es	-6.79908
in	-6.8228
p	-6.83269
▁like	-6.8347
▁just	-6.84309
g	-6.85926
S	-6.88076
▁into	-6.8831
c	-6.88872
o	-6.90344
▁than	-6.90659
▁first	-6.91743
▁there	-6.92136
▁its	-6.92192
▁my	-6.92691
▁two	-6.94298
▁year	-6.95503
▁what	-6.96036
▁do	-6.99836
▁But	-7.01142
▁new	-7.02716
▁me	-7.04493
▁him	-7.05061
▁our	-7.05835
▁them	-7.06372
▁could	-7.08553
▁if	-7.08699
▁other	-7.09555
▁years	-7.09555
▁your	-7.10066
▁last	-7.10193
▁back	-7.10323
▁Trump	-7.10907
th	-7.11505
▁S	-7.11879
▁some	-7.13594
?	-7.13937
▁no	-7.14638
b	-7.15049
i	-7.15818
▁now	-7.19828
▁get	-7.20116
ers	-7.2115
▁re	-7.23736
l	-7.26555
▁before	-7.27547
ll	-7.28014
▁being	-7.31856
▁how	-7.32053
▁where	-7.32426
k	-7.33086
an	-7.33204
f	-7.3348
▁We	-7.34522
▁only	-7.36044
on	-7.36348
▁make	-7.37136
▁because	-7.37963
▁And	-7.38923
A	-7.4051
▁against	-7.41493
▁Mr	-7.41708
▁off	-7.42374
▁She	-7.43044
▁while	-7.43434
en	-7.44885
C	-7.45214
▁This	-7.45238
▁told	-7.45478
▁most	-7.46238
/	-7.46535
le	-7.46576
▁think	-7.47357
▁three	-7.4815
▁home	-7.49135
▁down	-7.49487
▁U	-7.49616
or	-7.49862
▁C	-7.50221
▁any	-7.5106
▁un	-7.51118
▁made	-7.51208
ion	-7.51807
▁during	-7.5193
▁know	-7.52237
▁don	-7.52368
▁going	-7.5259
▁even	-7.52678
el	-7.53559
u	-7.53591
▁way	-7.53713
▁well	-7.54338
▁work	-7.54934
ic	-7.56471
▁many	-7.56724
▁go	-7.56832
ation	-7.57228
▁then	-7.58516
▁day	-7.58899
▁those	-7.59092
▁very	-7.59316
▁de	-7.59557
se	-7.59806
▁around	-7.60389
▁under	-7.60495
▁E	-7.60662
▁through	-7.60956
▁government	-7.61056
li	-7.6122
▁says	-7.6145
▁take	-7.61718
▁see	-7.62441
▁want	-7.6305
P	-7.6352
man	-7.63679
T	-7.64627
▁much	-7.65372
la	-7.66147
▁since	-7.67502
▁should	-7.67679
The	-7.67689
▁still	-7.67994
▁including	-7.68141
to	-7.6824
ne	-7.68283
▁did	-7.69157
▁need	-7.70762
▁F	-7.71207
▁good	-7.71244
▁They	-7.71244
▁O	-7.71467
▁B	-7.7235
▁state	-7.72673
▁these	-7.72714
▁life	-7.72875
▁part	-7.73252
ur	-7.74035
▁us	-7.74157
▁New	-7.74306
▁week	-7.74525
▁right	-7.75101
B	-7.75171
de	-7.75196
it	-7.75436
▁country	-7.7567
ck	-7.75733
able	-7.75735
▁team	-7.75778
D	-7.75829
▁long	-7.76088
▁really	-7.76179
il	-7.76824
▁world	-7.77018
▁such	-7.7716
▁say	-7.77362
▁between	-7.78989
▁end	-7.80042
We	-7.80339
ro	-7.81096
ri	-7.81193
h	-7.81866
am	-7.81993
▁family	-7.82241
ment	-7.8243
▁co	-7.82472
na	-7.82967
M	-7.83062
▁per	-7.83065
▁help	-7.83082
▁added	-7.83301
▁Biden	-7.83586
▁own	-7.83737
▁former	-7.83877
▁does	-7.84105
▁game	-7.84354
▁set	-7.84701
▁support	-7.84708
F	-7.85347
▁show	-7.86316
▁got	-7.86512
year	-7.86669
▁second	-7.87531
ar	-7.87639
▁found	-7.87696
ive	-7.88191
;	-7.88652
▁So	-7.89172
▁left	-7.89694
▁come	-7.89854
▁season	-7.89954
▁D	-7.89957
▁may	-7.90341
ra	-7.90637
ch	-7.90809
old	-7.91587
▁both	-7.91816
▁another	-7.92289
ter	-7.9305
co	-7.93063
▁next	-7.93928
▁best	-7.93954
O	-7.94001
ce	-7.94232
▁p	-7.94708
5	-7.9513
us	-7.95355
lo	-7.9537
▁Re	-7.95503
It	-7.95867
▁That	-7.96178
▁T	-7.96472
▁US	-7.96774
▁For	-7.96845
▁four	-7.96929
up	-7.97595
▁President	-7.98194
ent	-7.98271
x	-7.9828
G	-7.98304
▁P	-7.98457
▁19	-7.98581
▁same	-7.99028
▁place	-7.99229
ity	-7.99469
▁G	-7.99496
▁There	-7.99511
▁high	-7.99905
ge	-8.00295
ul	-8.00457
R	-8.01251
▁lot	-8.01314
▁As	-8.01881
▁too	-8.02545
▁public	-8.02923
ton	-8.03108
▁never	-8.03167
▁put	-8.04235
me	-8.04399
▁million	-8.04468
is	-8.04554
▁W	-8.04563
▁media	-8.04627
▁10	-8.05287
▁use	-8.05711
L	-8.06762
▁M	-8.07037
▁according	-8.07506
z	-8.07604
st	-8.07654
est	-8.09261
▁campaign	-8.09491
▁police	-8.09532
▁play	-8.09871
ant	-8.09876
▁war	-8.099
at	-8.10159
▁election	-8.1031
ate	-8.1049
▁UK	-8.10677
ma	-8.10683
▁children	-8.10844
▁If	-8.10855
▁N	-8.10883
▁man	-8.10913
ry	-8.11127
▁women	-8.11251
▁case	-8.11629
▁here	-8.11633
et	-8.12332
▁You	-8.12342
▁Israel	-8.12486
2	-8.12526
▁look	-8.13419
3	-8.13745
id	-8.13781
1	-8.1391
▁across	-8.1393
▁days	-8.13961
▁win	-8.13973
▁every	-8.14298
te	-8.14303
▁five	-8.14448
ist	-8.14614
▁group	-8.1484
▁2024	-8.14854
▁top	-8.15422
▁company	-8.15426
▁won	-8.15507
▁party	-8.15635
E	-8.15819
▁didn	-8.15894
▁R	-8.16308
ty	-8.16537
um	-8.16871
▁post	-8.17406
▁used	-8.1771
▁president	-8.17737
as	-8.1774
▁keep	-8.17776
▁K	-8.17814
▁To	-8.18063
w	-8.18114
▁took	-8.18133
▁seen	-8.18269
un	-8.18497
▁court	-8.18628
▁far	-8.18683
▁always	-8.18886
▁away	-8.18896
the	-8.19167
▁later	-8.19728
▁called	-8.19763
▁car	-8.19816
▁On	-8.20026
N	-8.203
ie	-8.20315
▁month	-8.20569
▁something	-8.20778
▁No	-8.2084
▁came	-8.20848
▁love	-8.21269
no	-8.21282
▁health	-8.21537
]	-8.21597
!	-8.2169
▁again	-8.21777
ir	-8.21798
▁head	-8.22176
▁months	-8.22431
▁night	-8.22653
▁start	-8.228
▁might	-8.23353
▁reported	-8.23422
▁things	-8.23492
ted	-8.23548
▁social	-8.24055
H	-8.24353
ol	-8.24477
▁L	-8.24661
ci	-8.25634
ba	-8.25648
W	-8.26037
▁United	-8.26072
▁La	-8.2612
▁20	-8.2619
▁find	-8.26259
▁few	-8.2637
▁without	-8.26545
,000	-8.26676
son	-8.27308
▁final	-8.27324
ti	-8.27434
mo	-8.27459
com	-8.2752
ia	-8.27529
▁feel	-8.27584
ling	-8.27729
ine	-8.2801
▁went	-8.28481
be	-8.28764
▁little	-8.29158
▁big	-8.29422
▁past	-8.2951
▁better	-8.29564
▁political	-8.29614
ated	-8.29664
▁different	-8.29752
▁An	-8.29758
ad	-8.29913
▁become	-8.29953
▁water	-8.29955
▁local	-8.30153
▁each	-8.30812
▁side	-8.3082
▁One	-8.3098
▁1	-8.31453
▁Le	-8.31731
▁[	-8.32099
tic	-8.32108
sh	-8.3214
▁change	-8.32246
▁power	-8.32456
4	-8.32879
▁having	-8.32884
▁law	-8.33111
▁When	-8.33225
▁De	-8.33344
▁great	-8.33416
▁6	-8.33479
▁point	-8.33727
▁star	-8.3375
▁number	-8.33937
▁2	-8.34019
ness	-8.34074
▁making	-8.34166
▁hard	-8.34167
▁hit	-8.34321
▁However	-8.34854
K	-8.34892
▁six	-8.34991
di	-8.35074
ta	-8.35096
▁money	-8.3522
7	-8.35316
▁already	-8.35426
▁con	-8.3597
▁less	-8.36239
▁H	-8.36291
▁city	-8.3632
age	-8.36367
▁India	-8.36666
▁pro	-8.36739
),	-8.37012
▁At	-8.37128
ha	-8.37161
▁statement	-8.37682
▁wrote	-8.38198
Credit	-8.38416
8	-8.38506
▁Harris	-8.38646
▁Ra	-8.38884
▁until	-8.39013
ke	-8.39467
▁working	-8.39469
out	-8.39544
▁early	-8.3971
▁York	-8.4022
▁Al	-8.4027
▁open	-8.40375
▁7	-8.40635
▁12	-8.4105
ver	-8.41312
ner	-8.42018
▁3	-8.42211
▁school	-8.42255
▁person	-8.42387
ish	-8.42582
▁report	-8.43029
ting	-8.43071
less	-8.43282
▁American	-8.43403
▁attack	-8.43441
▁Ukraine	-8.43595
▁run	-8.43616
▁full	-8.4372
▁thought	-8.43924
ni	-8.43968
▁film	-8.44197
▁recent	-8.443
▁dis	-8.4484
▁Co	-8.45001
▁face	-8.45677
ies	-8.45867
▁able	-8.45934
▁business	-8.46078
▁deal	-8.46249
im	-8.46265
6	-8.4667
▁Dr	-8.46828
▁following	-8.46844
▁clear	-8.46914
▁live	-8.47271
▁move	-8.47428
▁military	-8.4743
▁House	-8.47489
▁third	-8.47748
▁national	-8.48058
▁must	-8.48133
▁half	-8.48176
▁8	-8.48261
▁asked	-8.48274
▁give	-8.48342
ous	-8.48387
▁free	-8.49177
▁5	-8.49569
▁After	-8.49731
0	-8.50134
per	-8.50138
▁cent	-8.50248
▁why	-8.50274
▁pre	-8.50281
▁Russia	-8.50307
▁role	-8.50367
▁decision	-8.50529
▁England	-8.50556
▁City	-8.50648
do	-8.50722
▁saying	-8.51039
▁South	-8.51043
ful	-8.51164
time	-8.51256
▁Gaza	-8.51301
ary	-8.51323
▁together	-8.51417
▁food	-8.51481
▁Na	-8.51482
▁St	-8.51536
▁thing	-8.51559
▁f	-8.51707
go	-8.51807
▁experience	-8.51818
▁ever	-8.51858
ga	-8.52108
▁least	-8.52286
▁4	-8.52417
▁e	-8.52456
▁men	-8.52544
▁due	-8.52547
▁ex	-8.52585
▁lead	-8.52731
▁young	-8.52958
).	-8.53015
00	-8.5309
▁ago	-8.53184
▁Ba	-8.53215
▁often	-8.53221
▁among	-8.53544
pe	-8.53573
▁death	-8.53652
▁pay	-8.53866
▁Ha	-8.53944
▁getting	-8.53949
▁video	-8.5424
and	-8.54274
▁known	-8.5431
▁line	-8.54432
▁With	-8.545
line	-8.54531
▁today	-8.54772
▁taken	-8.54781
▁return	-8.54848
▁future	-8.54933
▁Sunday	-8.54938
▁important	-8.55002
▁May	-8.55057
der	-8.55064
▁Friday	-8.55189
▁X	-8.55458
▁g	-8.55596
▁real	-8.55698
▁Monday	-8.55708
▁whether	-8.55898
9	-8.56209
▁am	-8.5621
▁Ka	-8.56224
▁taking	-8.56259
ru	-8.56284
▁system	-8.56352
▁London	-8.56479
lu	-8.566
▁house	-8.56789
▁comes	-8.56801
▁Ro	-8.56896
▁15	-8.57426
land	-8.57629
▁series	-8.57792
ian	-8.57822
▁several	-8.57853
▁given	-8.58079
ally	-8.58092
U	-8.58293
▁close	-8.58631
ating	-8.58761
▁30	-8.58898
▁Tuesday	-8.5891
▁club	-8.5931
led	-8.59369
▁players	-8.59568
▁11	-8.5957
▁started	-8.59656
▁Mo	-8.59753
vi	-8.59855
▁though	-8.59986
mi	-8.60146
▁enough	-8.60187
▁market	-8.60238
▁fans	-8.60508
▁further	-8.60539
▁likely	-8.60605
▁doing	-8.60691
▁bit	-8.60861
▁While	-8.60892
▁members	-8.61286
▁What	-8.61306
▁18	-8.61312
ley	-8.61386
▁9	-8.61517
...	-8.61741
▁office	-8.61823
▁Sa	-8.61849
ance	-8.6193
rs	-8.62036
va	-8.62042
▁process	-8.62104
ut	-8.62151
▁care	-8.62333
▁call	-8.62334
▁security	-8.62533
▁done	-8.62644
▁China	-8.62801
▁hand	-8.63522
v	-8.63539
▁expected	-8.6357
▁st	-8.63846
▁kind	-8.64029
▁Russian	-8.64194
▁area	-8.64209
▁continue	-8.64523
▁air	-8.64527
ca	-8.64637
▁once	-8.64671
▁ma	-8.64753
▁State	-8.64905
":"	-8.65069
▁behind	-8.65083
▁Wednesday	-8.65154
way	-8.65177
▁National	-8.65242
▁times	-8.6537
▁Israeli	-8.65848
▁job	-8.65884
▁couple	-8.66034
▁games	-8.66098
▁event	-8.66279
op	-8.664
▁Thursday	-8.66436
▁officials	-8.66586
▁small	-8.66866
▁moment	-8.66928
▁major	-8.67714
▁looking	-8.67929
▁Minister	-8.68027
▁World	-8.68245
▁sure	-8.68285
▁d	-8.68442
▁Be	-8.68608
▁en	-8.68612
bi	-8.6868
▁coming	-8.68691
▁Ms	-8.68731
▁t	-8.6891
▁His	-8.6901
▁career	-8.69016
▁Ca	-8.691
▁yet	-8.69215
▁West	-8.6922
▁announced	-8.6924
▁hours	-8.69323
▁result	-8.69386
▁played	-8.69438
▁order	-8.69464
▁mother	-8.69499
▁shared	-8.69619
min	-8.6973
wa	-8.69787
▁race	-8.69826
one	-8.69971
▁cost	-8.7009
▁plan	-8.70589
▁community	-8.7061
▁trying	-8.70734
▁Do	-8.70763
▁data	-8.70771
▁minister	-8.70838
ka	-8.70952
ak	-8.713
▁body	-8.71361
▁woman	-8.71458
▁building	-8.71659
V	-8.71798
▁fact	-8.71858
da	-8.71865
▁vote	-8.72203
▁history	-8.727
▁All	-8.72783
▁name	-8.73314
▁using	-8.73388
▁turn	-8.73766
▁Mar	-8.73816
▁Bo	-8.74015
▁interview	-8.74111
ning	-8.74183
▁Ma	-8.74242
▁within	-8.74246
▁short	-8.74396
▁heart	-8.74407
▁Donald	-8.74515
▁record	-8.74615
▁near	-8.74809
▁killed	-8.74879
▁la	-8.74882
▁along	-8.74945
tion	-8.74961
▁weeks	-8.75006
▁impact	-8.75204
▁News	-8.75464
▁price	-8.75518
▁space	-8.75549
▁front	-8.7563
▁late	-8.75649
▁saw	-8.75686
▁story	-8.75992
▁b	-8.76047
▁age	-8.76058
po	-8.76197
▁Saturday	-8.76229
hi	-8.76321
▁almost	-8.76343
▁June	-8.76563
▁son	-8.76677
▁match	-8.76712
▁Ga	-8.76875
▁news	-8.77055
▁interest	-8.77141
▁Pro	-8.77308
▁legal	-8.77326
▁course	-8.7744
▁outside	-8.77721
ial	-8.78015
▁Ta	-8.78173
▁earlier	-8.783
▁light	-8.78569
▁risk	-8.78721
▁tell	-8.78746
▁believe	-8.78753
▁book	-8.78775
▁position	-8.79062
▁staff	-8.79192
▁summer	-8.79277
▁Black	-8.79295
▁minutes	-8.79786
▁international	-8.79846
ten	-8.79973
▁everything	-8.80093
▁ahead	-8.80142
▁points	-8.80164
▁wanted	-8.80267
▁lost	-8.80297
tra	-8.80357
▁North	-8.80368
▁Li	-8.80551
▁someone	-8.80593
▁Court	-8.80624
▁July	-8.80631
▁room	-8.80674
▁old	-8.80715
▁leader	-8.80724
▁16	-8.80735
▁control	-8.80925
▁led	-8.80963
▁League	-8.81001
▁October	-8.81001
▁Man	-8.81056
▁di	-8.81239
▁revealed	-8.81275
▁meeting	-8.81367
▁stop	-8.81588
▁forward	-8.81665
He	-8.81864
▁J	-8.81879
▁key	-8.81905
▁British	-8.81923
ja	-8.8207
▁14	-8.82214
dy	-8.82516
▁try	-8.82555
,""	-8.82637
▁let	-8.82724
▁ball	-8.82731
▁hospital	-8.82808
▁13	-8.82808
▁policy	-8.82842
▁Republican	-8.82894
▁cut	-8.83029
▁felt	-8.83181
con	-8.83209
▁service	-8.83318
▁countries	-8.83356
vo	-8.83433
▁incident	-8.83436
%	-8.83477
▁fire	-8.83513
▁March	-8.83589
ff	-8.8359
▁shot	-8.83591
▁...	-8.83733
▁ground	-8.83911
▁relationship	-8.84204
▁Con	-8.84244
ki	-8.84254
▁issues	-8.84266
side	-8.84394
bo	-8.84581
▁stage	-8.84643
les	-8.84702
ho	-8.84731
nd	-8.84758
ism	-8.84772
This	-8.84828
▁$1	-8.84916
▁held	-8.84935
▁Ho	-8.84939
▁level	-8.85146
▁online	-8.85226
▁January	-8.85237
▁November	-8.85323
em	-8.85398
▁Me	-8.85579
▁special	-8.85606
▁child	-8.85772
ise	-8.85981
ster	-8.85983
▁Vi	-8.85988
ow	-8.85993
▁means	-8.86114
che	-8.86229
▁hold	-8.8638
ac	-8.86622
▁April	-8.86719
▁V	-8.86811
▁Pa	-8.86888
▁everyone	-8.86929
▁action	-8.86979
▁died	-8.87009
▁issue	-8.87148
▁matter	-8.87349
▁began	-8.87492
▁Some	-8.87507
ex	-8.87518
ring	-8.87562
▁share	-8.8757
▁director	-8.87728
▁Jo	-8.8786
▁strong	-8.88077
▁voters	-8.88236
▁tax	-8.88288
ee	-8.88354
ah	-8.88592
0,000	-8.88745
han	-8.88953
▁region	-8.88981
he	-8.89129
▁became	-8.89209
ard	-8.8921
▁University	-8.89389
▁nearly	-8.89569
▁Labour	-8.8957
▁human	-8.89731
é	-8.89751
▁energy	-8.89841
red	-8.89891
▁playing	-8.89914
▁access	-8.89925
J	-8.90139
▁question	-8.90649
▁billion	-8.90671
▁performance	-8.90758
▁Lo	-8.90788
▁possible	-8.91026
▁trial	-8.91067
▁official	-8.91078
▁information	-8.91302
▁seven	-8.91315
▁increase	-8.91352
▁idea	-8.91353
mon	-8.91382
▁financial	-8.91486
▁single	-8.91623
▁percent	-8.91761
▁wife	-8.91794
▁running	-8.91815
▁others	-8.91842
▁released	-8.91884
▁bring	-8.91989
om	-8.92052
▁border	-8.92063
by	-8.92162
▁recently	-8.92324
▁daughter	-8.92504
▁Joe	-8.92589
▁read	-8.92816
▁football	-8.9288
our	-8.9295
▁large	-8.93016
▁50	-8.93599
▁America	-8.93686
▁comment	-8.93842
fe	-8.93966
▁My	-8.94115
▁Ja	-8.94186
▁Washington	-8.94194
▁himself	-8.94194
▁leave	-8.94318
▁offer	-8.94546
▁Police	-8.94574
▁rate	-8.94658
▁investigation	-8.94766
▁break	-8.94825
▁Da	-8.94924
▁chief	-8.94955
▁Scotland	-8.94957
▁bar	-8.95052
▁John	-8.95129
▁anything	-8.95147
▁father	-8.95174
▁travel	-8.95291
▁living	-8.95528
▁hope	-8.95768
▁TV	-8.96051
▁list	-8.96072
ach	-8.96123
▁form	-8.96127
▁available	-8.96202
▁friends	-8.96334
ging	-8.9638
▁app	-8.96583
▁San	-8.96595
▁player	-8.96715
ft	-8.9674
▁difficult	-8.96783
▁European	-8.9693
▁£1	-8.96983
▁17	-8.97056
▁actually	-8.97311
▁focus	-8.97416
▁eight	-8.9744
▁Ru	-8.97464
▁shows	-8.97504
▁Ar	-8.97986
▁latest	-8.98025
▁AI	-8.98273
tu	-8.98315
▁especially	-8.98349
▁plans	-8.98414
▁met	-8.98514
▁visit	-8.9864
av	-8.98686
▁fight	-8.98707
▁25	-8.98756
ա	-8.98816
▁situation	-8.98843
▁Su	-8.9885
▁federal	-8.98943
▁services	-8.9908
▁response	-8.99141
que	-8.99177
lin	-8.99229
▁include	-8.99247
ence	-8.9932
▁Her	-8.99419
▁provide	-8.99459
▁round	-8.99491
ite	-8.99493
▁potential	-8.99506
▁Indian	-8.99739
j	-8.99825
nt	-8.99873
▁phone	-9.00031
▁period	-9.00041
fa	-9.00109
ot	-9.00148
den	-9.0038
▁goal	-9.00464
▁soon	-9.00484
os	-9.00523
▁despite	-9.00544
▁pressure	-9.00653
▁Lu	-9.00662
▁Se	-9.00693
▁White	-9.00806
▁music	-9.0088
▁students	-9.00885
▁current	-9.00931
we	-9.01228
▁claimed	-9.01231
Y	-9.014
▁road	-9.01475
▁significant	-9.01656
?"	-9.01696
ell	-9.01754
▁expect	-9.01823
You	-9.01825
▁September	-9.01863
▁industry	-9.02068
▁allow	-9.02324
▁received	-9.02544
ever	-9.02625
▁economic	-9.02803
▁huge	-9.02926
▁stay	-9.03068
▁lives	-9.03195
▁parents	-9.03241
▁August	-9.03408
▁se	-9.035
▁view	-9.03519
▁date	-9.03546
▁similar	-9.0372
ger	-9.03728
▁Now	-9.03763
▁v	-9.03802
▁lo	-9.0388
all	-9.04067
bb	-9.04188
au	-9.04218
▁ban	-9.04302
▁low	-9.04316
▁Di	-9.0434
▁States	-9.04386
▁nothing	-9.04775
tro	-9.04861
off	-9.04889
▁term	-9.04924
▁morning	-9.0498
▁quite	-9.05139
▁brand	-9.05343
▁whole	-9.05346
▁According	-9.054
▁cause	-9.05418
▁Hamas	-9.05443
▁c	-9.0549
▁companies	-9.05506
▁continued	-9.05691
▁presidential	-9.05862
ving	-9.05884
▁Instagram	-9.05931
▁24	-9.06057
▁Day	-9.06126
▁2023	-9.06204
▁demand	-9.06257
▁release	-9.06633
ig	-9.06705
▁track	-9.06708
▁needed	-9.06847
▁manager	-9.06869
king	-9.07069
▁California	-9.07108
_	-9.07218
for	-9.07225
▁Ni	-9.07368
qui	-9.07421
▁private	-9.0754
▁&	-9.07719
▁general	-9.07762
▁personal	-9.07864
▁firm	-9.07904
▁o	-9.07983
ay	-9.08069
▁Bar	-9.08102
▁chance	-9.08143
ng	-9.08152
▁project	-9.08239
▁anti	-9.08262
▁pick	-9.08332
▁needs	-9.08347
ya	-9.08377
▁Pe	-9.08424
cu	-9.08446
▁King	-9.08495
▁global	-9.08503
har	-9.08609
▁title	-9.08678
▁evidence	-9.08847
▁Images	-9.08848
▁Congress	-9.08956
▁press	-9.09085
▁account	-9.09098
▁red	-9.09099
▁showed	-9.09254
▁Go	-9.0926
▁stand	-9.09378
▁Department	-9.09396
ier	-9.09419
50	-9.09424
▁El	-9.0948
▁accused	-9.09562
▁white	-9.09651
▁leading	-9.09697
▁previously	-9.09708
▁understand	-9.09754
▁research	-9.09755
▁review	-9.09967
▁BBC	-9.1007
▁mean	-9.10195
▁sp	-9.10219
▁makes	-9.10227
▁total	-9.10284
▁rather	-9.10288
▁states	-9.10338
ham	-9.10394
▁check	-9.10441
▁Fa	-9.10456
▁based	-9.10522
ized	-9.10557
▁fall	-9.10604
▁fl	-9.10642
▁rest	-9.10726
▁example	-9.10729
▁remain	-9.10807
▁France	-9.10952
▁Ex	-9.11027
▁economy	-9.11063
▁problem	-9.11157
hu	-9.11233
ship	-9.11358
▁2022	-9.11361
▁Park	-9.11495
▁happened	-9.11502
▁administration	-9.11625
▁Gu	-9.11638
▁non	-9.11671
▁board	-9.11694
▁judge	-9.1185
▁confirmed	-9.11861
▁Democratic	-9.11869
>	-9.12056
▁bank	-9.12063
▁fear	-9.12108
▁development	-9.12205
▁claims	-9.12355
pa	-9.12366
▁rise	-9.12468
▁gave	-9.12469
▁Paris	-9.1248
▁worth	-9.12634
▁safety	-9.12674
▁host	-9.12674
▁longer	-9.12701
▁Cup	-9.12992
ran	-9.13218
▁safe	-9.13222
▁higher	-9.13433
▁involved	-9.13446
▁Po	-9.13447
▁anyone	-9.1353
▁These	-9.13549
▁criminal	-9.1357
▁ten	-9.13894
▁How	-9.13954
▁murder	-9.1425
▁watch	-9.1427
▁coach	-9.14345
▁town	-9.14345
▁Getty	-9.1435
ations	-9.14405
▁sent	-9.14409
▁Car	-9.14505
▁create	-9.14541
▁test	-9.14552
ions	-9.14582
▁worked	-9.14586
▁ensure	-9.14649
20	-9.14684
▁average	-9.14715
▁bill	-9.14857
lic	-9.14961
▁mo	-9.14967
▁inside	-9.14985
▁capital	-9.15063
tri	-9.15163
▁December	-9.1518
▁pair	-9.15227
▁amount	-9.15313
ey	-9.1532
▁Ne	-9.15389
▁brought	-9.15414
▁remains	-9.15496
▁husband	-9.15531
sta	-9.15549
▁self	-9.1577
▁War	-9.158
▁bad	-9.15818
ec	-9.15935
▁approach	-9.16051
▁protect	-9.1619
day	-9.16236
ised	-9.16291
ction	-9.16347
▁mind	-9.1643
ical	-9.16444
There	-9.16445
▁leaders	-9.16457
▁debate	-9.16474
▁success	-9.16497
▁spent	-9.16508
back	-9.1664
▁21	-9.16641
▁Har	-9.16705
▁comp	-9.16757
▁foreign	-9.16829
▁David	-9.16851
ud	-9.1687
ab	-9.16992
▁workers	-9.17043
▁More	-9.17124
du	-9.17126
▁el	-9.17175
▁victory	-9.17185
▁currently	-9.17221
▁particularly	-9.17316
ped	-9.17423
▁actor	-9.17423
▁via	-9.17443
▁meet	-9.17507
▁step	-9.17857
▁100	-9.18214
▁centre	-9.18269
▁main	-9.18271
▁member	-9.18461
▁land	-9.18641
▁growth	-9.18677
▁mis	-9.18805
▁loss	-9.18857
▁French	-9.18867
▁biggest	-9.18867
▁instead	-9.18904
▁40	-9.18938
▁Or	-9.19118
▁cover	-9.19118
▁investment	-9.19241
▁treatment	-9.19255
za	-9.19278
ag	-9.19364
▁challenge	-9.19485
▁Can	-9.19517
▁talk	-9.19655
▁Pi	-9.19723
▁reason	-9.19823
▁heard	-9.19896
▁prevent	-9.19963
▁reports	-9.20122
▁black	-9.20454
ize	-9.2063
▁weekend	-9.20752
▁follow	-9.21048
▁wrong	-9.21071
▁lower	-9.21108
▁gun	-9.21123
▁tried	-9.21157
▁spot	-9.21179
ze	-9.21231
▁prison	-9.21236
▁gr	-9.2126
▁friend	-9.21326
▁areas	-9.2142
▁Mc	-9.21451
▁feeling	-9.21479
▁February	-9.21817
▁field	-9.21883
▁kids	-9.22194
▁sense	-9.22197
▁cancer	-9.22292
▁happy	-9.22319
▁senior	-9.22443
▁executive	-9.2245
▁results	-9.22628
ney	-9.22719
▁turned	-9.22816
van	-9.22818
▁described	-9.2286
▁aid	-9.22955
ative	-9.22974
▁trade	-9.23013
▁Europe	-9.23145
ber	-9.23184
▁either	-9.23199
▁speech	-9.23199
ina	-9.23297
▁po	-9.23313
▁violence	-9.23325
▁sea	-9.23367
▁else	-9.23514
pro	-9.23572
▁James	-9.23581
mer	-9.23583
▁buy	-9.23621
▁Australia	-9.23693
▁study	-9.23706
▁nation	-9.23868
▁appeared	-9.23885
ably	-9.23885
▁rights	-9.23909
In	-9.23942
▁probably	-9.23961
▁families	-9.24088
▁included	-9.2423
▁previous	-9.24366
▁County	-9.24372
▁Democrats	-9.2451
field	-9.24525
▁Bu	-9.24542
gan	-9.24597
▁however	-9.24683
▁knew	-9.24731
▁Mi	-9.24803
▁easy	-9.25115
▁medical	-9.2515
ph	-9.25202
▁walk	-9.2527
▁costs	-9.25335
▁ho	-9.25341
end	-9.25539
ight	-9.25595
▁opportunity	-9.25762
Picture	-9.25827
▁scene	-9.25895
▁movie	-9.26024
▁Du	-9.2606
▁build	-9.26077
▁towards	-9.26149
▁Christmas	-9.26152
▁themselves	-9.26152
ious	-9.26302
▁sign	-9.26369
▁isn	-9.26602
▁avoid	-9.26806
▁fan	-9.26854
▁nine	-9.27091
▁Britain	-9.27203
▁events	-9.27248
▁Dur	-9.27395
▁popular	-9.27432
▁Iran	-9.27587
▁gone	-9.27604
▁concerns	-9.27661
▁candidate	-9.27663
▁22	-9.27706
▁Prime	-9.27728
ev	-9.27848
▁launch	-9.27851
▁sound	-9.27962
kin	-9.27987
▁door	-9.28123
▁arrested	-9.2827
ide	-9.28313
▁authorities	-9.28398
▁ro	-9.28584
▁choice	-9.28663
▁force	-9.28695
▁Africa	-9.28773
▁allowed	-9.28827
▁Party	-9.28878
row	-9.28936
▁By	-9.28948
":	-9.28991
▁looked	-9.29029
▁climate	-9.2906
based	-9.29063
▁serve	-9.29093
od	-9.29094
▁ask	-9.29095
▁lack	-9.29268
▁East	-9.29382
▁Another	-9.29469
▁quarter	-9.29506
ler	-9.29507
▁strike	-9.2957
▁score	-9.29594
▁quickly	-9.29616
▁value	-9.29647
ren	-9.29685
▁conditions	-9.29696
▁cases	-9.297
ap	-9.29711
▁holiday	-9.29733
▁appeal	-9.29734
▁dead	-9.29756
▁art	-9.29811
▁Wa	-9.29847
ising	-9.29907
▁partner	-9.29987
▁launched	-9.30148
cc	-9.30158
▁mental	-9.30191
▁leaving	-9.30274
▁Ukrainian	-9.30421
▁Che	-9.30531
▁imp	-9.30544
▁extra	-9.3065
▁address	-9.30726
ities	-9.30783
▁gold	-9.30839
▁efforts	-9.30899
▁Sun	-9.30951
▁deep	-9.30987
▁majority	-9.31019
of	-9.31045
▁present	-9.31102
ny	-9.31111
ward	-9.31153
▁Cha	-9.31167
ries	-9.3133
▁ran	-9.31363
▁agency	-9.31368
iv	-9.31449
▁moved	-9.31492
▁training	-9.31492
▁su	-9.31513
▁happen	-9.31634
▁Of	-9.31637
▁conflict	-9.31642
▁Last	-9.31663
ron	-9.3173
▁Ben	-9.31734
▁Fi	-9.31774
▁answer	-9.31782
oo	-9.31906
ip	-9.32047
▁forces	-9.32063
her	-9.3233
▁fine	-9.32422
▁Los	-9.32439
▁l	-9.32551
▁decided	-9.32564
If	-9.32588
▁trip	-9.326
▁crisis	-9.3261
▁contract	-9.3261
▁search	-9.32614
▁range	-9.32679
▁remember	-9.32769
▁growing	-9.32807
▁Ri	-9.32891
▁ra	-9.32939
▁oil	-9.33013
bu	-9.33221
ain	-9.33293
▁winning	-9.33299
▁Paul	-9.33368
▁Not	-9.33496
▁reach	-9.33633
▁serious	-9.33635
▁Red	-9.33653
gi	-9.33674
ble	-9.33741
▁double	-9.33747
▁prices	-9.33862
▁crowd	-9.33869
▁character	-9.33904
gu	-9.34003
▁posted	-9.34049
▁station	-9.34135
▁helped	-9.34191
▁certain	-9.34199
▁act	-9.34241
▁charges	-9.34292
▁voice	-9.34297
▁k	-9.34331
tal	-9.34344
▁cannot	-9.34391
▁adding	-9.34509
▁paid	-9.34672
▁multiple	-9.34721
io	-9.34832
▁questions	-9.3489
▁program	-9.34963
▁message	-9.35087
ator	-9.35114
▁claim	-9.3515
They	-9.35215
▁Mon	-9.3524
▁ch	-9.35255
▁myself	-9.35286
pm	-9.35503
▁sex	-9.3564
▁cast	-9.35683
light	-9.35839
rry	-9.35986
▁Times	-9.36022
▁Even	-9.36054
▁Bi	-9.36107
ice	-9.36182
val	-9.3631
▁ready	-9.36325
▁count	-9.36339
▁attacks	-9.36435
▁save	-9.36487
▁Hu	-9.3649
▁terms	-9.36556
▁wait	-9.3658
men	-9.36642
port	-9.36691
▁Green	-9.36746
gra	-9.36769
▁decades	-9.36935
▁thousands	-9.37039
pi	-9.37053
cy	-9.3707
▁blood	-9.37159
▁trust	-9.37212
▁pass	-9.37251
act	-9.3734
ping	-9.37361
over	-9.37391
▁sport	-9.3755
bl	-9.37617
▁Smith	-9.37767
▁site	-9.37802
▁Chinese	-9.37889
▁model	-9.38013
fi	-9.38077
▁respect	-9.38259
▁Michael	-9.38348
▁credit	-9.38361
▁hair	-9.38499
▁si	-9.38514
ick	-9.38572
▁practice	-9.38624
▁itself	-9.38625
▁platform	-9.38698
▁changes	-9.39045
▁opening	-9.39162
▁Th	-9.39383
▁drive	-9.39389
ug	-9.39397
▁production	-9.39568
▁screen	-9.3958
▁property	-9.39671
lan	-9.39673
▁alongside	-9.39692
▁followed	-9.39714
▁Street	-9.39813
▁Ju	-9.39838
▁23	-9.39873
term	-9.39887
▁rules	-9.4001
▁goes	-9.40107
gar	-9.40137
so	-9.40209
▁giving	-9.40262
▁officer	-9.40544
▁sub	-9.40668
X	-9.40688
▁elections	-9.40703
▁brother	-9.40715
▁Ko	-9.40926
ath	-9.4095
▁clean	-9.40974
▁box	-9.4101
▁Scottish	-9.41028
▁fun	-9.41207
gen	-9.41254
▁immediately	-9.41265
▁groups	-9.4129
▁heat	-9.41317
▁y	-9.41326
▁fourth	-9.41359
▁attention	-9.41469
▁content	-9.41471
▁super	-9.41493
▁pitch	-9.41699
▁failed	-9.41931
well	-9.41933
▁Americans	-9.41954
▁source	-9.42054
▁2025	-9.42097
▁plant	-9.42138
▁consider	-9.42165
▁green	-9.42265
air	-9.42269
▁eye	-9.42269
!"	-9.42378
▁Manchester	-9.42384
▁Chief	-9.4239
cing	-9.42391
▁effort	-9.42449
pped	-9.42671
▁rates	-9.42834
▁2019	-9.4289
▁pe	-9.42917
▁ended	-9.4298
ett	-9.43036
▁inflation	-9.43043
▁sun	-9.43103
▁Z	-9.43232
▁Meanwhile	-9.43308
▁customers	-9.43361
▁true	-9.43526
▁suit	-9.43536
▁Mu	-9.4354
▁winner	-9.43552
▁budget	-9.43618
▁Germany	-9.43619
hy	-9.43627
uk	-9.43654
▁professional	-9.43659
▁receive	-9.43676
▁Un	-9.43683
▁forced	-9.43687
AP	-9.43792
▁dress	-9.43823
▁north	-9.43824
▁hotel	-9.43825
▁raised	-9.43919
▁2020	-9.43929
▁explained	-9.43938
▁bo	-9.4395
▁spending	-9.44042
▁published	-9.44085
▁prime	-9.44086
▁sector	-9.4409
▁officers	-9.44147
▁base	-9.44238
▁Ireland	-9.44243
▁0	-9.44281
▁sexual	-9.44363
▁hear	-9.44395
▁above	-9.444
right	-9.44456
▁couldn	-9.44558
▁sla	-9.4456
▁talking	-9.44596
▁spokesperson	-9.44867
br	-9.44869
amp	-9.44896
No	-9.44975
▁website	-9.45024
▁27	-9.4511
ors	-9.45257
But	-9.45432
▁Chris	-9.45481
long	-9.45492
dd	-9.45561
▁conference	-9.45814
▁Ke	-9.45844
▁products	-9.45882
▁camera	-9.45943
▁mid	-9.46031
▁reached	-9.46108
▁common	-9.46132
▁alleged	-9.46292
▁shop	-9.46462
ugh	-9.46502
▁People	-9.46525
▁Government	-9.4661
▁2016	-9.46624
ub	-9.46716
▁sit	-9.46743
▁pa	-9.4675
▁appearance	-9.46783
▁charge	-9.46931
▁Service	-9.46931
▁Despite	-9.46949
▁takes	-9.46965
▁wants	-9.47067
▁touch	-9.47083
▁Texas	-9.47091
▁Other	-9.4713
▁stock	-9.47152
ue	-9.47251
▁hot	-9.47266
▁league	-9.47413
▁central	-9.47426
▁warning	-9.47644
▁positive	-9.47736
▁dream	-9.47736
▁defeat	-9.47738
▁technology	-9.47898
▁hands	-9.47992
▁28	-9.4811
▁spoke	-9.48119
▁Cor	-9.48336
▁skin	-9.48397
▁parties	-9.48517
▁champion	-9.48536
▁looks	-9.48552
▁w	-9.48553
▁Ki	-9.48575
▁built	-9.48581
30	-9.4862
▁sleep	-9.48711
▁fit	-9.48747
▁gas	-9.48862
▁letter	-9.48866
▁crime	-9.48891
▁fell	-9.48894
form	-9.48912
▁starting	-9.48926
▁Over	-9.49027
▁weather	-9.49038
▁bag	-9.49049
ef	-9.49137
▁Robert	-9.49214
▁damage	-9.49284
▁Premier	-9.4953
tan	-9.49538
▁Johnson	-9.49578
▁train	-9.49629
▁design	-9.49658
▁abuse	-9.49722
▁levels	-9.49955
set	-9.50039
▁named	-9.50075
▁goals	-9.50126
uc	-9.50145
▁tour	-9.50161
▁table	-9.50175
▁First	-9.50249
▁seat	-9.50322
▁Office	-9.50333
▁sell	-9.50341
▁offers	-9.50347
▁politics	-9.50357
▁injury	-9.50378
▁Bank	-9.50459
▁perfect	-9.50658
cent	-9.50697
▁words	-9.50831
▁competition	-9.50856
▁2018	-9.50869
▁pretty	-9.51023
▁warned	-9.51058
▁south	-9.5119
▁26	-9.51233
▁quality	-9.51258
ple	-9.51296
▁seems	-9.51343
▁kept	-9.51361
ible	-9.51374
use	-9.5141
▁tra	-9.51584
▁tough	-9.51586
▁trans	-9.51601
▁attempt	-9.51619
▁residents	-9.51637
▁unit	-9.51658
▁Putin	-9.517
▁problems	-9.51794
▁Mark	-9.51796
▁justice	-9.51823
ai	-9.51984
▁includes	-9.52002
▁sh	-9.52019
▁joined	-9.52037
▁cur	-9.52115
▁ba	-9.52185
▁shift	-9.52203
▁Republicans	-9.52292
▁Council	-9.52368
▁Angeles	-9.52402
▁limit	-9.52507
war	-9.52509
▁leg	-9.52608
▁poor	-9.52624
ana	-9.52665
if	-9.5269
▁changed	-9.52714
▁runs	-9.52883
▁Per	-9.52928
▁al	-9.52983
par	-9.52987
▁assault	-9.53051
▁$2	-9.53055
▁compared	-9.53084
▁Fox	-9.53112
▁2024.	-9.53148
▁EU	-9.53177
▁Two	-9.53246
▁En	-9.533
▁ca	-9.53304
▁TikTok	-9.5339
▁2.	-9.5341
ang	-9.53429
▁ship	-9.53441
▁Te	-9.53441
▁Many	-9.53531
▁Florida	-9.53562
▁mu	-9.53659
▁foot	-9.53661
▁cash	-9.53788
low	-9.53798
mm	-9.53837
▁challenges	-9.53889
▁funding	-9.53913
▁comments	-9.54062
▁baby	-9.5409
ric	-9.54175
▁accept	-9.54228
▁High	-9.54252
▁returned	-9.54326
▁qu	-9.54372
▁critical	-9.54375
▁du	-9.54446
▁hearing	-9.54457
▁Harry	-9.54488
▁annual	-9.54597
▁leadership	-9.54618
▁roll	-9.5462
▁alone	-9.54622
▁From	-9.54648
▁simply	-9.54768
▁fuel	-9.54768
▁author	-9.54786
▁condition	-9.54816
ford	-9.5506
▁communities	-9.55115
▁Com	-9.55152
ov	-9.55269
▁path	-9.55361
▁spend	-9.55389
▁Don	-9.55443
▁various	-9.55464
▁enjoy	-9.55502
▁i	-9.55539
▁arrest	-9.55624
▁wall	-9.55746
▁drug	-9.55765
▁Star	-9.55766
▁beat	-9.55803
That	-9.55842
▁dog	-9.55966
▁district	-9.5599
▁opposition	-9.5599
▁fair	-9.55998
▁threat	-9.56027
▁figure	-9.56124
▁warm	-9.56166
▁network	-9.5617
▁shooting	-9.56239
▁entire	-9.56284
▁caused	-9.56319
▁population	-9.56344
▁park	-9.56349
▁add	-9.56373
▁teams	-9.56422
▁class	-9.56446
▁issued	-9.56459
▁users	-9.56481
▁conversation	-9.56518
▁restaurant	-9.56518
cor	-9.56637
▁throughout	-9.56678
▁signed	-9.56717
▁opened	-9.56826
▁Senate	-9.56895
▁seek	-9.57004
ign	-9.57014
▁George	-9.57049
▁pain	-9.57057
▁em	-9.57068
▁speak	-9.57119
▁rule	-9.57128
▁join	-9.5714
ified	-9.57247
▁generation	-9.57282
▁ta	-9.57345
und	-9.57369
▁details	-9.57389
Ma	-9.57411
▁Ti	-9.57474
▁culture	-9.57584
▁2022,	-9.57588
head	-9.57702
▁fast	-9.57743
▁ru	-9.57748
▁agreement	-9.57792
▁passed	-9.57889
▁Tom	-9.57897
▁sort	-9.57967
▁calling	-9.58011
▁rep	-9.5805
▁largest	-9.58082
▁card	-9.58154
▁Royal	-9.58168
▁Sam	-9.58173
▁target	-9.58196
▁band	-9.58235
▁Sir	-9.5828
▁poll	-9.58341
▁Cla	-9.58382
▁store	-9.58389
▁charged	-9.58399
Getty	-9.58515
▁finding	-9.58588
▁draw	-9.58648
ի	-9.58654
▁version	-9.58659
▁increased	-9.58741
▁features	-9.58783
▁evening	-9.58838
▁sometimes	-9.58848
▁Since	-9.58893
▁wind	-9.58914
gue	-9.58918
▁highest	-9.58991
▁audience	-9.5902
▁Air	-9.59074
▁block	-9.59099
▁girl	-9.59102
▁amid	-9.59126
▁Pre	-9.59131
▁flow	-9.59149
▁battle	-9.59192
▁seeing	-9.59275
▁bus	-9.59363
▁housing	-9.59383
chi	-9.59396
▁Sp	-9.59501
▁boost	-9.59538
▁60	-9.5954
▁defense	-9.59567
▁Act	-9.59617
▁calls	-9.59688
pping	-9.59839
▁created	-9.59851
▁agreed	-9.59883
▁International	-9.5993
▁organization	-9.59931
▁Ya	-9.59967
▁improve	-9.59977
▁respond	-9.6012
▁2024,	-9.602
nce	-9.60205
▁Supreme	-9.60295
▁injured	-9.60354
▁Palestinian	-9.60439
▁meant	-9.60451
▁Taylor	-9.60479
▁ongoing	-9.60491
▁island	-9.60573
▁concern	-9.60583
▁lose	-9.60742
▁considered	-9.6076
▁movement	-9.60787
▁Apple	-9.60874
house	-9.60922
▁2021	-9.61008
▁protest	-9.61074
▁middle	-9.61218
▁na	-9.61398
▁journey	-9.61401
ned	-9.61439
▁policies	-9.61587
▁Here	-9.61613
▁peace	-9.61666
▁debut	-9.61802
▁village	-9.6181
▁Pu	-9.61856
cl	-9.61885
▁learn	-9.61894
▁reduce	-9.61921
▁Then	-9.6206
ji	-9.62068
▁Win	-9.62145
ability	-9.6215
▁flight	-9.62151
99	-9.62218
▁crash	-9.62244
▁sales	-9.62314
▁attorney	-9.62332
▁2023,	-9.6235
ill	-9.62479
▁progress	-9.62481
▁massive	-9.6255
▁offered	-9.62665
▁slow	-9.62675
point	-9.62782
10	-9.62792
▁style	-9.62866
▁worse	-9.62895
▁floor	-9.62932
▁missing	-9.62999
▁cross	-9.63029
▁cap	-9.63039
▁jobs	-9.6306
▁department	-9.63095
ists	-9.6314
su	-9.63158
▁ways	-9.63258
▁grow	-9.63271
▁beautiful	-9.63272
▁episode	-9.63272
▁benefit	-9.63279
▁sports	-9.63349
▁push	-9.63454
▁suggest	-9.63501
▁rain	-9.63607
▁Health	-9.63653
▁education	-9.63715
▁businesses	-9.63847
▁fighting	-9.63937
▁camp	-9.6395
▁display	-9.64045
▁paper	-9.64055
▁victims	-9.64077
nes	-9.64153
maker	-9.64198
▁straight	-9.64221
run	-9.64277
▁reality	-9.64322
▁fresh	-9.64415
▁abortion	-9.64443
▁Union	-9.64489
▁thinking	-9.64514
▁finally	-9.64568
▁beyond	-9.64603
▁primary	-9.64642
ko	-9.64664
pp	-9.64669
▁Mike	-9.64709
▁weight	-9.64726
▁council	-9.64789
▁English	-9.64795
▁facing	-9.64802
▁provided	-9.64814
▁Georgia	-9.64987
▁Justice	-9.64995
▁drop	-9.65003
▁mark	-9.65102
▁patients	-9.65405
▁killing	-9.65423
▁effect	-9.65475
▁Amazon	-9.65564
▁famous	-9.65565
▁scored	-9.65572
▁noted	-9.65589
▁Dan	-9.65849
▁29	-9.65856
▁decade	-9.65888
▁independent	-9.65952
rk	-9.65956
mor	-9.65958
▁product	-9.66037
wn	-9.66078
▁traditional	-9.66104
▁vi	-9.66107
▁additional	-9.66126
▁spread	-9.66152
▁student	-9.66267
▁Super	-9.66395
▁Our	-9.66457
▁bu	-9.66503
▁natural	-9.66523
▁injuries	-9.66538
▁storm	-9.6658
▁Island	-9.66585
▁Just	-9.66664
▁Am	-9.66666
▁works	-9.66733
wi	-9.66745
▁pandemic	-9.66761
&	-9.66795
ake	-9.66816
▁Wales	-9.66827
sha	-9.66882
▁separate	-9.66927
▁Wi	-9.66947
▁ability	-9.66957
▁reflect	-9.66973
▁maintain	-9.66974
▁sold	-9.66991
▁1.	-9.66992
ր	-9.67043
vis	-9.67055
▁finish	-9.67115
▁Olympic	-9.67284
▁emergency	-9.67319
▁debt	-9.67322
rate	-9.67329
▁loved	-9.67361
▁treat	-9.67376
ear	-9.6741
my	-9.67417
▁gain	-9.67484
▁moving	-9.67536
▁center	-9.67559
▁affect	-9.67567
▁tournament	-9.67713
▁request	-9.67788
▁candidates	-9.67809
▁Gi	-9.67817
▁Hi	-9.67822
▁Bill	-9.67857
▁subject	-9.67911
▁Spain	-9.67921
star	-9.67923
▁influence	-9.67955
▁contain	-9.6803
jo	-9.68062
▁complete	-9.68107
▁Kamala	-9.68109
ker	-9.68111
▁faced	-9.68115
▁fr	-9.68126
So	-9.68237
mar	-9.68241
▁Sha	-9.68271
▁award	-9.68271
▁although	-9.68307
▁farm	-9.68342
▁Prince	-9.68359
▁direct	-9.68437
fu	-9.6844
ile	-9.6851
▁coast	-9.68514
work	-9.68582
And	-9.68599
▁ti	-9.68604
▁£2	-9.68627
az	-9.68665
▁difference	-9.68705
press	-9.68787
▁certainly	-9.68835
▁email	-9.68916
▁miles	-9.68922
ea	-9.68941
let	-9.69009
serv	-9.69051
▁cool	-9.69086
▁Hill	-9.69186
▁Za	-9.69226
▁Tu	-9.69266
▁college	-9.69305
ther	-9.69412
▁civil	-9.69487
▁dark	-9.69514
▁arrived	-9.69536
▁Y	-9.69739
▁hundreds	-9.69865
▁drink	-9.69869
▁cat	-9.70003
uff	-9.70082
▁seats	-9.70091
▁disease	-9.70111
▁becoming	-9.7012
tin	-9.70133
▁required	-9.70172
▁options	-9.70176
▁hour	-9.70204
▁size	-9.7024
▁schools	-9.70269
▁showing	-9.703
▁photo	-9.70348
▁figures	-9.70404
▁Tri	-9.70506
▁contact	-9.70585
▁image	-9.7063
cer	-9.70684
ition	-9.70701
▁guilty	-9.70744
▁broke	-9.70837
▁benefits	-9.70915
▁herself	-9.70923
▁married	-9.70923
▁defence	-9.70932
▁Jan	-9.70971
What	-9.71213
▁picture	-9.71242
▁fully	-9.71313
▁Jones	-9.71417
▁telling	-9.71526
▁General	-9.71575
▁Sal	-9.71616
When	-9.71641
▁watching	-9.71654
▁Col	-9.71691
▁rival	-9.71748
▁planning	-9.7179
▁loan	-9.71871
▁suggested	-9.71916
▁Khan	-9.71928
▁environment	-9.71929
▁quick	-9.71932
▁income	-9.7195
▁feels	-9.72001
▁connection	-9.72027
▁wide	-9.72048
▁option	-9.72149
▁commitment	-9.72166
▁served	-9.72167
▁2017	-9.72177
▁dangerous	-9.7219
▁Port	-9.72229
▁numbers	-9.72263
▁eventually	-9.7236
▁Ed	-9.72446
-1	-9.72474
ked	-9.72477
▁female	-9.72567
▁window	-9.72584
▁German	-9.72585
ters	-9.72625
▁seemed	-9.72685
▁Fo	-9.7271
▁homes	-9.72891
▁song	-9.72921
▁driver	-9.72933
My	-9.72946
▁Conservative	-9.72991
▁original	-9.73003
▁limited	-9.73062
▁Pakistan	-9.73191
▁driving	-9.73191
▁rock	-9.73201
▁BJP	-9.734
dra	-9.73458
▁kick	-9.735
▁fund	-9.73574
▁spark	-9.73577
▁physical	-9.73584
▁Queen	-9.7382
▁experts	-9.73821
▁completely	-9.73856
ery	-9.73916
▁Fe	-9.73996
rie	-9.73998
▁Home	-9.74037
▁Martin	-9.7405
nny	-9.74113
▁im	-9.74124
like	-9.74163
▁scheme	-9.74239
iti	-9.74284
▁31	-9.74293
▁deliver	-9.74302
▁va	-9.7432
▁regular	-9.74428
▁balance	-9.7445
▁squad	-9.74538
▁nice	-9.7457
▁word	-9.74597
▁complaint	-9.74632
▁particular	-9.7464
▁Chi	-9.74707
▁send	-9.74772
▁secret	-9.74853
▁material	-9.74874
▁£3	-9.74874
▁believed	-9.74884
board	-9.75008
ure	-9.75053
▁views	-9.75236
len	-9.75236
▁sa	-9.75286
▁writing	-9.75335
▁feature	-9.75385
▁offering	-9.7549
▁illegal	-9.75491
▁blue	-9.75512
▁rally	-9.75522
▁admitted	-9.75534
▁Mas	-9.7555
pl	-9.75582
zi	-9.7561
▁ballot	-9.75758
▁aim	-9.75777
25	-9.75855
▁union	-9.75953
▁seem	-9.76017
▁usually	-9.7603
▁individual	-9.76031
40	-9.76088
▁allegations	-9.76154
▁profit	-9.76166
▁sale	-9.76192
▁Williams	-9.76235
▁simple	-9.76369
▁lawsuit	-9.76376
▁write	-9.76748
▁designed	-9.76859
ER	-9.76863
ib	-9.76947
▁Most	-9.76949
ani	-9.76961
▁Peter	-9.76989
▁protection	-9.77012
▁CEO	-9.77017
▁closed	-9.77065
type	-9.77076
▁supporters	-9.77148
▁album	-9.77234
▁committed	-9.77244
▁favourite	-9.7726
▁sister	-9.77266
▁suspect	-9.77346
▁fo	-9.77417
▁eyes	-9.77437
▁heavy	-9.77451
▁southern	-9.77452
▁born	-9.77474
▁speed	-9.77672
▁depend	-9.77672
▁proud	-9.77713
ez	-9.77752
▁user	-9.77771
▁older	-9.77813
▁singer	-9.77851
▁Mac	-9.77867
▁trend	-9.77888
▁Group	-9.77905
▁seeking	-9.77906
▁waiting	-9.78038
▁Open	-9.78144
▁brain	-9.78212
▁continues	-9.78253
▁measures	-9.78268
▁asking	-9.78282
die	-9.78286
▁Test	-9.7829
▁perhaps	-9.78326
▁ha	-9.78339
hand	-9.7836
leg	-9.78457
She	-9.78522
▁regard	-9.78524
▁stories	-9.78546
lar	-9.78549
▁secretary	-9.78567
▁addition	-9.78576
Those	-9.78592
ik	-9.78605
bar	-9.78726
▁proposal	-9.78766
▁denied	-9.78767
▁School	-9.78772
▁surprise	-9.78797
▁overall	-9.78806
▁raise	-9.78821
fo	-9.78825
uch	-9.78868
▁tend	-9.78887
▁tu	-9.78919
wo	-9.78926
▁filed	-9.78944
▁3.	-9.79104
▁doubt	-9.79209
ox	-9.79218
lor	-9.79221
vin	-9.79298
▁dad	-9.79308
▁emotional	-9.79311
▁wearing	-9.79353
cal	-9.79415
▁article	-9.7943
▁modern	-9.79432
▁Jack	-9.79501
▁bid	-9.79552
▁Sc	-9.79586
▁Nigeria	-9.79607
▁Sea	-9.80089
▁winter	-9.80097
▁Dar	-9.80159
▁holding	-9.80171
15	-9.80283
▁supply	-9.80322
▁dropped	-9.80334
round	-9.80377
▁90	-9.80396
yn	-9.80404
▁listen	-9.80462
▁appear	-9.80527
▁intelligence	-9.80546
▁Australian	-9.80568
▁language	-9.80573
▁God	-9.80614
▁2023.	-9.80638
Q	-9.80671
▁operations	-9.80697
▁page	-9.80701
▁weapons	-9.80748
▁Daniel	-9.80772
▁beginning	-9.80787
▁flag	-9.8081
q	-9.80967
▁Min	-9.80991
▁laugh	-9.81021
strong	-9.81124
▁finished	-9.81165
▁Euro	-9.81192
▁garden	-9.81221
▁Speak	-9.81222
▁sw	-9.81326
▁solution	-9.81448
▁Musk	-9.81454
▁street	-9.8153
▁stated	-9.81659
▁Photograph	-9.81677
▁caught	-9.8168
▁pop	-9.81772
▁allegedly	-9.8178
▁thank	-9.81831
▁piece	-9.81883
ink	-9.8189
▁talent	-9.81907
▁route	-9.81914
▁stuff	-9.81922
▁Will	-9.81959
list	-9.82004
top	-9.82091
▁survey	-9.82129
▁Gen	-9.82137
▁Olympics	-9.8217
▁fe	-9.82189
tz	-9.82207
▁Sch	-9.82271
ank	-9.8233
▁Center	-9.82359
ken	-9.82398
car	-9.82433
can	-9.8246
▁Bro	-9.82507
▁normal	-9.82655
▁boy	-9.82684
▁Je	-9.827
▁secure	-9.82723
page	-9.82784
▁Cal	-9.82812
▁successful	-9.82851
▁struggle	-9.82865
ture	-9.82878
▁Shi	-9.82893
▁cold	-9.82902
nie	-9.82922
+	-9.82951
▁nature	-9.83053
mber	-9.83085
not	-9.8313
▁shut	-9.83142
▁Qu	-9.83188
▁vehicle	-9.83193
▁inter	-9.83253
ye	-9.83272
▁catch	-9.83309
▁da	-9.83361
▁wedding	-9.83371
▁Modi	-9.83444
▁maybe	-9.835
▁Chelsea	-9.83507
▁infrastructure	-9.83507
▁amazing	-9.83507
▁exchange	-9.83513
▁stick	-9.83537
▁grand	-9.83545
▁Ali	-9.83552
▁Both	-9.8356
▁losing	-9.83561
▁Post	-9.83585
▁rich	-9.83645
▁Kate	-9.83648
▁70	-9.8369
▁Ram	-9.83753
lea	-9.83753
▁society	-9.83774
▁feet	-9.83787
▁African	-9.83807
iz	-9.8382
▁Bre	-9.83913
▁victim	-9.83914
▁UN	-9.83931
▁programme	-9.83941
▁corner	-9.83991
▁mass	-9.84021
mu	-9.84085
▁Tra	-9.84183
▁freedom	-9.84215
▁wave	-9.84218
17	-9.84246
▁lift	-9.84334
▁multi	-9.8434
▁chair	-9.84417
af	-9.84434
▁Pan	-9.84471
▁ne	-9.84507
ically	-9.84531
ara	-9.84621
fer	-9.84666
▁Gar	-9.8467
▁purchase	-9.8467
▁responsible	-9.8467
▁Secretary	-9.84679
▁Reg	-9.84684
▁2022.	-9.8476
▁parts	-9.84769
▁individuals	-9.84804
▁Bur	-9.84843
▁Arsenal	-9.84904
▁die	-9.84909
▁agree	-9.84924
▁attend	-9.85118
ju	-9.85219
gy	-9.85258
▁wonder	-9.85298
▁Sh	-9.85328
▁expert	-9.85358
▁daily	-9.85378
▁era	-9.8538
▁Starmer	-9.85388
log	-9.85411
▁directly	-9.85416
▁begin	-9.85419
▁Love	-9.85437
berg	-9.85484
▁Why	-9.85524
▁appears	-9.85562
▁NHS	-9.8561
▁wish	-9.8561
▁confidence	-9.85631
▁ruling	-9.85645
▁boat	-9.85706
▁nu	-9.85706
▁Scott	-9.85708
▁employees	-9.85735
▁fish	-9.85833
▁Moscow	-9.85847
rd	-9.85854
▁mission	-9.85858
12	-9.8589
▁text	-9.85902
tch	-9.85981
▁Yet	-9.85988
▁Netanyahu	-9.86083
▁complex	-9.86083
▁committee	-9.86084
▁plane	-9.86093
▁Former	-9.86152
spec	-9.86185
ute	-9.86239
art	-9.86292
▁domestic	-9.86321
lly	-9.86339
▁below	-9.8634
lia	-9.86461
▁flat	-9.86566
▁suffered	-9.86568
▁powerful	-9.86581
▁tech	-9.86675
▁gets	-9.86721
▁cr	-9.86765
▁surge	-9.86767
pper	-9.86773
▁contest	-9.86787
▁harm	-9.86793
▁Chicago	-9.86798
▁associate	-9.86798
▁session	-9.86798
▁Adam	-9.86814
▁stopped	-9.86829
mark	-9.86899
▁standing	-9.86925
▁4.	-9.86952
▁Games	-9.87003
▁specific	-9.87018
▁immigration	-9.87038
▁Pr	-9.87039
▁Sen	-9.87046
lon	-9.87087
▁measure	-9.87101
▁boss	-9.87139
▁Hall	-9.8716
▁fashion	-9.87191
▁min	-9.87263
▁potentially	-9.87358
▁actions	-9.87395
▁speaking	-9.87427
▁nuclear	-9.87518
▁Charles	-9.87531
ook	-9.87591
cra	-9.87621
▁expressed	-9.87654
final	-9.87707
▁delay	-9.87758
▁Security	-9.87758
▁organisation	-9.87761
▁que	-9.87768
▁Big	-9.87863
▁net	-9.87893
▁helping	-9.87908
▁Ab	-9.87934
▁Liverpool	-9.88
▁owner	-9.88006
▁Italy	-9.88024
▁mum	-9.88038
▁perform	-9.88065
down	-9.88231
ification	-9.88241
▁pull	-9.88254
ou	-9.88382
▁digital	-9.88485
▁airport	-9.88515
▁ga	-9.88543
▁exactly	-9.88586
▁talks	-9.88688
▁Grand	-9.88753
▁meaning	-9.88767
▁younger	-9.88847
▁discuss	-9.88854
▁ticket	-9.88869
▁Si	-9.8892
▁Ch	-9.88971
▁opportunities	-9.88972
▁prompt	-9.88972
▁royal	-9.88972
▁carried	-9.88975
▁Richard	-9.88977
▁medal	-9.8899
▁colour	-9.8907
▁Ham	-9.89088
▁Sho	-9.89097
▁girls	-9.89173
ix	-9.89223
▁fellow	-9.89237
wan	-9.89244
▁van	-9.89283
▁plenty	-9.89461
▁Delhi	-9.8947
▁Ten	-9.89486
▁planned	-9.8949
ade	-9.89538
▁decide	-9.89552
▁teacher	-9.89573
▁focused	-9.8959
▁votes	-9.8959
▁yourself	-9.89707
▁fill	-9.89721
▁missed	-9.89741
▁shown	-9.89772
iff	-9.90024
▁para	-9.90178
▁Google	-9.902
▁gift	-9.90201
▁Japan	-9.90205
▁governor	-9.9022
▁wear	-9.9022
▁2015	-9.90229
▁writer	-9.90307
▁minute	-9.90368
▁electric	-9.90418
▁tight	-9.90484
▁cities	-9.90486
▁items	-9.905
▁Ge	-9.90528
</	-9.90615
▁clearly	-9.90686
▁troops	-9.90696
▁sitting	-9.90742
hire	-9.90778
▁whom	-9.908
▁conduct	-9.90903
▁Their	-9.90911
▁sentence	-9.91059
▁matches	-9.91069
▁responded	-9.91182
▁conservative	-9.91194
▁essential	-9.9121
▁type	-9.91283
▁reform	-9.91305
▁William	-9.91351
▁80	-9.91354
▁port	-9.91394
▁Ber	-9.91438
▁giant	-9.91445
▁update	-9.91538
5%	-9.91593
▁affected	-9.91661
▁assist	-9.91677
▁identified	-9.91695
▁Western	-9.91698
▁birth	-9.91726
▁management	-9.9173
▁managed	-9.91803
kh	-9.91837
rated	-9.91926
▁haven	-9.9197
▁millions	-9.9199
▁vehicles	-9.92037
qua	-9.92212
▁Andrew	-9.92215
▁records	-9.92276
▁protests	-9.92301
▁apply	-9.92306
▁opt	-9.92309
ari	-9.92419
▁struck	-9.9245
▁afternoon	-9.92451
▁35	-9.92453
▁Brown	-9.92458
▁places	-9.92535
▁rare	-9.92589
Z	-9.9263
wood	-9.92642
▁--	-9.92678
▁crew	-9.92719
▁footage	-9.92738
ash	-9.92742
sur	-9.92763
▁Press	-9.92768
nu	-9.92812
24	-9.93013
▁sad	-9.93035
▁wage	-9.9309
cha	-9.93136
▁concerned	-9.93195
▁fa	-9.93244
▁unique	-9.93245
▁Sky	-9.93267
▁setting	-9.93426
▁Hezbollah	-9.93467
▁wa	-9.93476
▁eat	-9.93486
▁Q	-9.93493
▁carry	-9.93518
▁Out	-9.93649
▁le	-9.93695
▁stress	-9.937
▁crucial	-9.93723
▁Thomas	-9.93723
▁photograph	-9.93728
ane	-9.93752
▁require	-9.93789
▁decisions	-9.93836
shi	-9.93877
▁Ver	-9.93946
▁twice	-9.93979
▁worst	-9.93979
▁Middle	-9.93985
▁bought	-9.93986
▁voting	-9.93994
▁highlight	-9.94015
▁operation	-9.94071
▁bomb	-9.94206
▁marriage	-9.94236
▁strategy	-9.94236
▁truth	-9.94236
aw	-9.94338
▁confirm	-9.94477
▁rescue	-9.94498
▁200	-9.9454
▁Singh	-9.94579
11	-9.94603
▁Bra	-9.94665
pur	-9.94698
▁explain	-9.94706
▁auto	-9.94718
▁lived	-9.94731
▁Carolina	-9.94756
▁rising	-9.94776
▁artist	-9.94799
fully	-9.94865
eva	-9.94892
▁upon	-9.949
ek	-9.94981
▁legislation	-9.95011
▁severe	-9.95019
▁blow	-9.95036
▁Instead	-9.95041
▁Mexico	-9.95042
▁polls	-9.95206
▁democracy	-9.95271
▁captain	-9.95271
▁moments	-9.95323
▁row	-9.95326
rn	-9.95349
▁providing	-9.95532
▁arm	-9.95534
get	-9.95567
▁toward	-9.95576
▁effective	-9.9561
▁increasingly	-9.95731
fin	-9.95736
▁Christian	-9.95793
▁Canada	-9.95801
▁Ryan	-9.95812
▁activities	-9.96054
▁opinion	-9.96054
ita	-9.96074
▁Under	-9.96089
▁definitely	-9.96095
▁Nu	-9.96105
▁Who	-9.9611
▁PM	-9.96126
▁shock	-9.96186
▁Han	-9.96223
wing	-9.96272
▁$3	-9.96289
▁Korea	-9.96313
▁advice	-9.96317
▁revenue	-9.96317
▁initiative	-9.96317
▁mistake	-9.96328
▁dance	-9.96359
▁chain	-9.96404
ino	-9.96412
▁occasion	-9.96561
take	-9.96589
▁Art	-9.96634
▁Max	-9.96675
▁century	-9.96686
▁cho	-9.96728
rick	-9.96743
▁reasons	-9.96791
▁putt	-9.96809
▁linked	-9.96828
▁transfer	-9.96838
▁walking	-9.96842
▁Although	-9.96844
▁split	-9.96855
▁stars	-9.96961
million	-9.97049
▁gives	-9.97057
-4	-9.97086
▁mi	-9.97095
▁Swift	-9.97108
▁counter	-9.97132
pre	-9.9714
▁Matt	-9.9717
▁suffering	-9.97171
▁River	-9.97188
▁declared	-9.97231
▁semi	-9.97345
▁wild	-9.97367
▁aware	-9.97373
▁placed	-9.97422
▁McC	-9.97497
▁code	-9.97656
▁gender	-9.97657
▁aged	-9.97696
▁cu	-9.9773
▁absolutely	-9.97731
ral	-9.97793
ew	-9.97796
▁onto	-9.97812
▁gu	-9.97841
▁Pen	-9.97842
shed	-9.97867
▁trouble	-9.97906
▁Vice	-9.9799
hal	-9.97999
-2	-9.98135
▁Social	-9.98174
▁failure	-9.98177
table	-9.98312
▁guy	-9.98359
▁expensive	-9.98442
▁choose	-9.98442
▁activity	-9.98446
▁Sports	-9.98458
▁Great	-9.98469
ong	-9.98502
▁Real	-9.98649
▁honest	-9.98711
▁hurt	-9.98712
izing	-9.98782
des	-9.98882
▁2014	-9.99
ough	-9.99004
▁sha	-9.99029
▁­	-9.99031
▁highly	-9.9907
▁Like	-9.9909
▁Ran	-9.99113
▁allies	-9.99114
zo	-9.99194
▁Pat	-9.99199
▁festival	-9.9925
▁proposed	-9.99251
▁male	-9.99316
▁note	-9.99337
▁h	-9.9936
▁Mag	-9.99365
cro	-9.99485
ն	-9.99497
▁resources	-9.99523
▁Hollywood	-9.99523
▁Well	-9.99539
▁pu	-9.99576
▁vice	-9.99596
ttle	-9.99601
▁status	-9.99633
▁discovered	-9.99788
▁Lebanon	-9.99793
▁breath	-9.99793
▁recommend	-9.99797
▁enforcement	-9.99808
graph	-9.99837
▁photos	-10.0001
▁application	-10.0007
▁territory	-10.0007
▁par	-10.0014
▁vs	-10.0017
▁household	-10.0036
▁Nor	-10.0042
▁Keir	-10.0051
▁Italian	-10.0061
ball	-10.0062
▁Kim	-10.0063
▁Bay	-10.0064
▁beach	-10.0069
▁1,	-10.0073
▁celebrate	-10.0075
▁Gra	-10.0078
cap	-10.0081
▁compete	-10.0088
▁Before	-10.0089
▁Championship	-10.0089
▁promote	-10.0089
lock	-10.0099
▁MP	-10.0116
▁#	-10.0119
isation	-10.0123
▁drugs	-10.0124
▁2021,	-10.0126
▁guard	-10.0131
▁@	-10.0132
ville	-10.0138
▁strikes	-10.0142
▁introduced	-10.0144
▁alternative	-10.0144
▁television	-10.0144
AN	-10.0151
▁miss	-10.0153
▁supporting	-10.0153
▁repeatedly	-10.0155
▁happens	-10.0157
ray	-10.0161
▁Committee	-10.0172
▁machine	-10.0172
▁finance	-10.0172
▁collection	-10.0179
▁believes	-10.0182
ith	-10.0191
bn	-10.0192
under	-10.0195
▁convicted	-10.0199
▁Seattle	-10.02
▁estate	-10.0201
▁surgery	-10.0203
▁written	-10.0206
-19	-10.0216
▁prospect	-10.0217
▁Inter	-10.0219
▁link	-10.0221
▁mostly	-10.0222
▁cricket	-10.0227
▁names	-10.0227
▁45	-10.0239
▁regional	-10.0242
▁experienced	-10.0244
pen	-10.0256
gin	-10.0268
▁projects	-10.0271
▁doctor	-10.0278
▁cla	-10.0279
▁drama	-10.0281
▁cor	-10.0283
▁necessary	-10.0283
▁veteran	-10.0283
iver	-10.0285
▁Bas	-10.0294
ե	-10.0296
▁images	-10.0299
▁enter	-10.0303
▁knock	-10.0311
▁university	-10.0311
▁upcoming	-10.0312
▁transition	-10.0312
▁task	-10.0313
bil	-10.0317
▁pan	-10.0318
▁Alex	-10.0318
▁Ken	-10.0321
▁bed	-10.0329
▁ri	-10.0332
▁announcement	-10.0342
▁ju	-10.0352
RA	-10.0357
▁lawyer	-10.0358
ular	-10.0359
east	-10.0359
tle	-10.0359
tric	-10.0362
▁ceremony	-10.0368
▁jump	-10.0371
▁Law	-10.0375
▁investors	-10.0377
▁migrants	-10.0384
elect	-10.0402
▁Vance	-10.0406
▁outlet	-10.0419
▁signs	-10.042
▁Women	-10.0424
▁structure	-10.0429
▁cultural	-10.0431
dis	-10.0432
▁kill	-10.0433
▁initially	-10.0446
yl	-10.0447
▁related	-10.045
▁parliament	-10.0451
▁/	-10.0452
▁bringing	-10.0452
▁cars	-10.0453
▁brief	-10.0458
▁largely	-10.0467
▁shares	-10.0467
ella	-10.0478
DA	-10.0479
▁grew	-10.0483
▁obviously	-10.0497
▁direction	-10.0497
▁rent	-10.05
▁happening	-10.0501
xi	-10.0504
▁Netflix	-10.051
▁confident	-10.051
▁creating	-10.0511
nda	-10.0511
▁Good	-10.0513
cus	-10.0513
▁Sunak	-10.0514
▁expand	-10.0514
▁manage	-10.0517
▁bigger	-10.0517
▁streets	-10.0528
ON	-10.053
state	-10.0534
▁£4	-10.0539
▁laws	-10.0541
▁elected	-10.0541
dent	-10.0542
▁spring	-10.0543
To	-10.0549
istic	-10.0561
play	-10.0564
▁Par	-10.0566
▁location	-10.0566
▁offensive	-10.0568
▁podcast	-10.0568
▁scheduled	-10.0569
don	-10.0572
▁def	-10.0575
vy	-10.0576
▁sat	-10.0581
non	-10.0581
▁Kar	-10.0581
▁Commission	-10.0585
lay	-10.0592
▁Live	-10.0595
▁accident	-10.0597
▁excited	-10.0597
▁clip	-10.0597
▁edge	-10.0599
zz	-10.0602
▁funds	-10.0616
▁del	-10.0623
▁aren	-10.0623
▁hate	-10.0624
▁rose	-10.0625
տ	-10.0626
▁MORE	-10.0626
▁behaviour	-10.0626
▁switch	-10.0626
pic	-10.0633
▁shape	-10.0634
lf	-10.0639
▁passengers	-10.0643
ese	-10.0643
▁citizens	-10.0644
▁presence	-10.0655
▁outcome	-10.0656
▁birthday	-10.0656
▁hat	-10.0659
▁Men	-10.067
▁flood	-10.0678
▁lit	-10.0679
▁systems	-10.0683
▁purpose	-10.0684
▁tackle	-10.0684
▁Sta	-10.0686
cker	-10.0695
▁thanks	-10.0696
▁bowl	-10.0696
▁claiming	-10.0699
▁Hol	-10.0701
▁Lee	-10.0704
▁Mer	-10.071
▁Val	-10.0712
▁exercise	-10.0713
▁penalty	-10.0713
▁nominee	-10.0713
▁Team	-10.072
▁Tim	-10.0724
▁scale	-10.0732
▁sources	-10.0734
Re	-10.0737
▁fi	-10.0742
▁Let	-10.0742
▁notice	-10.075
▁bra	-10.0755
▁faces	-10.0756
▁Road	-10.0758
▁36	-10.077
▁argument	-10.0772
▁Irish	-10.0772
▁Year	-10.0775
▁paying	-10.0778
put	-10.0779
ization	-10.0783
▁treated	-10.0794
▁youth	-10.0797
▁ring	-10.0799
▁viewers	-10.0801
▁Central	-10.0801
yard	-10.0805
mate	-10.0822
▁Char	-10.0824
▁strength	-10.0825
▁steps	-10.0826
▁Facebook	-10.0831
▁analyst	-10.0831
▁capacity	-10.0831
▁insurance	-10.0831
▁producer	-10.0832
▁lay	-10.0836
▁spin	-10.0839
▁dry	-10.0844
▁doctors	-10.0845
mic	-10.0847
▁healthy	-10.0847
▁34	-10.0849
▁advance	-10.0849
RE	-10.086
▁joint	-10.086
▁Ministry	-10.0861
▁Stadium	-10.0861
▁stretch	-10.0861
▁struggling	-10.0861
model	-10.0861
▁partnership	-10.0863
je	-10.0868
▁Met	-10.0872
▁standard	-10.0874
▁recorded	-10.0888
▁traffic	-10.0889
▁worry	-10.089
▁Wood	-10.089
▁Judge	-10.0891
tting	-10.0892
ifi	-10.0907
cep	-10.0911
rum	-10.0915
▁trail	-10.092
▁identity	-10.092
▁Blue	-10.092
▁nearby	-10.0925
▁AP	-10.0934
place	-10.0935
▁produce	-10.0938
▁NFL	-10.095
▁novel	-10.0954
▁Because	-10.0957
▁broken	-10.096
hen	-10.0961
▁welcome	-10.0969
60	-10.0971
▁learned	-10.0977
▁ni	-10.0977
▁channel	-10.098
▁deserve	-10.0983
▁jail	-10.0986
45	-10.0988
▁zone	-10.099
▁document	-10.0992
▁rid	-10.0997
rendering	-10.0999
sey	-10.1
tar	-10.1003
dia	-10.1003
▁urged	-10.1003
For	-10.1005
▁meal	-10.1005
life	-10.1008
▁Earlier	-10.101
▁Em	-10.1011
▁panel	-10.1017
oon	-10.1025
▁ITV	-10.1034
▁ice	-10.1037
▁whatever	-10.1038
▁easier	-10.104
▁bottle	-10.1041
▁Twitter	-10.1045
▁encourage	-10.106
ties	-10.1066
▁pushed	-10.1067
▁criticism	-10.1072
▁develop	-10.1075
16	-10.1084
▁operate	-10.1084
▁reaction	-10.1085
▁Rob	-10.1091
▁cell	-10.1092
▁emerged	-10.1094
▁nor	-10.1099
▁reading	-10.1099
▁bottom	-10.1101
▁sweet	-10.1101
▁pension	-10.1102
cho	-10.1103
▁Best	-10.1104
▁hu	-10.1115
▁soft	-10.1119
▁remove	-10.1122
á	-10.1122
▁5.	-10.1127
▁transport	-10.1128
false	-10.113
▁responsibility	-10.1132
▁church	-10.1132
▁targeted	-10.1132
▁serving	-10.1132
test	-10.1134
▁Chan	-10.1137
▁greater	-10.1139
▁increasing	-10.1139
▁accounts	-10.114
ory	-10.1144
▁hi	-10.1144
▁voted	-10.1146
ending	-10.1154
▁forecast	-10.1162
▁returning	-10.1165
▁guys	-10.1165
▁ultimately	-10.117
▁33	-10.1174
▁larger	-10.1177
▁Democrat	-10.1179
▁cuts	-10.1179
▁College	-10.1193
▁glass	-10.1193
▁initial	-10.1201
,500	-10.1205
▁Princess	-10.1216
▁unable	-10.1221
▁Ac	-10.1225
▁jury	-10.1227
ung	-10.1236
▁incredible	-10.1238
▁Today	-10.124
▁extremely	-10.1245
MA	-10.1248
▁Read	-10.1252
▁pal	-10.1254
▁fifth	-10.1255
▁surface	-10.1255
PA	-10.1256
▁Ku	-10.1268
▁watched	-10.1275
▁soldiers	-10.1278
▁remaining	-10.1278
▁mar	-10.1284
▁Institute	-10.1286
▁advantage	-10.1286
▁prize	-10.1286
▁classic	-10.1286
▁snap	-10.1291
cher	-10.1296
▁estimated	-10.1299
▁handle	-10.1305
▁Gold	-10.1311
▁Hor	-10.1311
born	-10.1311
▁Follow	-10.1317
▁easily	-10.1317
▁bodies	-10.1317
▁lines	-10.1321
▁scar	-10.1325
▁correct	-10.1326
ound	-10.1333
▁clash	-10.1335
dor	-10.1338
load	-10.1338
▁Van	-10.1351
▁2012	-10.1351
▁Force	-10.1352
sure	-10.136
ency	-10.1362
▁historic	-10.1363
ender	-10.1366
▁Nick	-10.1367
▁decline	-10.1371
dar	-10.1372
▁Rep	-10.1374
▁reporters	-10.1374
att	-10.1375
▁Tre	-10.1375
▁Association	-10.1379
▁yards	-10.138
▁false	-10.1381
ado	-10.14
▁suggests	-10.1407
▁Arizona	-10.141
▁District	-10.141
▁actress	-10.141
lit	-10.1411
ched	-10.1411
▁lu	-10.1412
ama	-10.1433
80	-10.1437
▁ear	-10.1437
season	-10.1441
▁crimes	-10.1443
▁throw	-10.1445
▁bond	-10.1445
▁active	-10.1445
▁label	-10.1464
stitution	-10.1464
▁prior	-10.1469
▁prepared	-10.1472
▁Pennsylvania	-10.1473
▁imagine	-10.1473
▁Three	-10.1473
▁bonus	-10.1473
Our	-10.148
▁Gov	-10.1485
▁feed	-10.149
▁remained	-10.1499
▁picked	-10.1504
▁smart	-10.1505
▁communication	-10.1505
▁tea	-10.1507
▁exist	-10.1509
▁Tour	-10.1512
▁pulled	-10.1512
fire	-10.153
kar	-10.1534
ord	-10.1536
▁horse	-10.1537
▁sharing	-10.1539
win	-10.1549
▁documents	-10.1553
▁pool	-10.1555
LA	-10.1558
▁Game	-10.1561
ium	-10.1564
▁promised	-10.1565
▁commercial	-10.1569
▁routine	-10.1569
▁sharp	-10.1569
▁function	-10.1571
▁32	-10.1574
▁owners	-10.1576
▁ill	-10.1577
▁Nations	-10.1578
book	-10.1579
▁fix	-10.1584
▁carrying	-10.1585
▁deeply	-10.1591
▁prosecutors	-10.1595
▁bear	-10.1597
▁beauty	-10.1601
tte	-10.1607
▁sy	-10.1609
ST	-10.1614
▁pledge	-10.1633
▁sought	-10.1633
▁hoping	-10.1635
▁Lord	-10.1638
▁Right	-10.164
hood	-10.1645
▁<	-10.1649
▁pen	-10.1653
▁vision	-10.1656
▁rec	-10.1661
▁Glasgow	-10.1665
▁existing	-10.1666
▁Bal	-10.1674
▁tri	-10.1686
ira	-10.1686
▁colleagues	-10.1691
▁chip	-10.1692
▁targets	-10.1696
մ	-10.1697
▁venue	-10.1697
▁yesterday	-10.1697
▁method	-10.1697
▁northern	-10.1697
▁Frank	-10.1697
very	-10.1699
▁guide	-10.1699
▁section	-10.17
▁surrounding	-10.1704
ura	-10.1708
▁describe	-10.1721
▁sides	-10.1725
▁Spanish	-10.1729
▁violent	-10.1729
▁construction	-10.1732
▁river	-10.1732
late	-10.1734
▁gang	-10.1735
▁conducted	-10.1735
some	-10.1743
▁burn	-10.1743
▁pointed	-10.1743
▁campus	-10.1746
▁standards	-10.1751
▁Mal	-10.1753
▁implement	-10.1757
▁books	-10.1758
bal	-10.1761
law	-10.1762
▁Parliament	-10.1762
▁draft	-10.1762
▁Federal	-10.1762
▁$5	-10.1765
ada	-10.1765
free	-10.1765
18	-10.177
▁ride	-10.1779
▁Brit	-10.1791
▁admit	-10.1792
▁Michigan	-10.1794
▁alcohol	-10.1794
▁closer	-10.1798
▁removed	-10.1806
▁learning	-10.1809
▁Cu	-10.181
▁refused	-10.181
▁Wal	-10.1811
CC	-10.1812
itt	-10.1813
▁Jr	-10.1822
▁Jay	-10.1828
▁Once	-10.1829
▁hopes	-10.1831
ica	-10.1832
▁cook	-10.1833
▁ski	-10.1834
▁joy	-10.184
▁Victoria	-10.1845
but	-10.1847
▁Er	-10.1849
▁object	-10.1856
▁replied	-10.186
▁$4	-10.1861
▁relief	-10.1864
▁turning	-10.1869
▁Louis	-10.1876
▁delivered	-10.1878
▁Bet	-10.1879
▁army	-10.1887
▁payments	-10.1889
▁ob	-10.1891
▁client	-10.1893
Elements	-10.1893
▁armed	-10.1895
▁bright	-10.1897
mph	-10.1902
▁flu	-10.1905
ima	-10.1911
▁achieve	-10.1914
▁Ste	-10.192
▁plays	-10.1921
▁fired	-10.1922
Mo	-10.1922
▁invasion	-10.1926
▁supported	-10.1926
▁Every	-10.1926
AT	-10.1927
lton	-10.1935
▁parent	-10.1951
▁transform	-10.1954
▁determined	-10.1956
▁spirit	-10.1959
▁smaller	-10.196
▁typically	-10.1968
▁attended	-10.1969
▁messages	-10.1974
▁receiving	-10.1992
▁truly	-10.1992
▁bird	-10.1993
▁environmental	-10.1995
▁collect	-10.1995
stone	-10.1996
▁Work	-10.1996
▁supposed	-10.2
▁dollars	-10.2001
▁Lake	-10.2001
▁Clark	-10.2006
▁ruled	-10.2006
ail	-10.2007
▁tickets	-10.2007
▁signal	-10.2009
▁gap	-10.2019
▁Yo	-10.2024
▁Jewish	-10.2025
▁Kennedy	-10.2025
▁charity	-10.2025
▁escape	-10.2025
rim	-10.2026
▁snow	-10.2026
dotcom	-10.2026
▁pack	-10.2029
▁motor	-10.2029
▁publicly	-10.203
▁pace	-10.2037
▁connect	-10.2038
An	-10.2039
app	-10.2041
▁mix	-10.2042
▁wins	-10.2042
▁identify	-10.2059
ան	-10.206
cle	-10.2063
▁Jackson	-10.2063
▁ordered	-10.207
▁hole	-10.2076
▁danger	-10.209
west	-10.2091
▁kitchen	-10.2092
▁professor	-10.2092
▁Covid	-10.2095
▁cit	-10.2095
▁Also	-10.21
▁earn	-10.211
▁deaths	-10.211
▁prove	-10.2112
▁pet	-10.2116
zy	-10.2119
ctor	-10.2123
▁understanding	-10.2124
▁stands	-10.2125
gr	-10.2128
▁championship	-10.2128
room	-10.214
ati	-10.2141
▁threats	-10.2141
▁br	-10.2144
▁Simon	-10.2151
▁partners	-10.2155
▁explore	-10.216
▁aircraft	-10.2161
▁deals	-10.2166
element	-10.2168
ori	-10.2168
▁2020,	-10.2169
▁extreme	-10.2176
▁arms	-10.2177
▁afford	-10.219
▁Research	-10.2194
▁starts	-10.2198
▁crack	-10.22
▁argued	-10.22
▁missiles	-10.2218
▁PA	-10.2219
are	-10.2221
▁causing	-10.2228
▁quiet	-10.2228
count	-10.2228
▁color	-10.2234
read	-10.2239
▁Va	-10.2242
▁Pra	-10.2253
▁falling	-10.2255
▁Dis	-10.2256
▁rape	-10.2258
ena	-10.2261
▁convention	-10.2262
▁Disney	-10.2263
▁visitors	-10.2265
▁apartment	-10.2266
08	-10.2284
tors	-10.2289
▁Rs	-10.229
▁brilliant	-10.2296
▁coffee	-10.2296
▁mountain	-10.2296
▁nomination	-10.2299
aries	-10.2306
-3	-10.2318
night	-10.2324
▁Club	-10.2331
▁intention	-10.2336
▁cop	-10.2337
bel	-10.2337
▁express	-10.2339
▁minor	-10.2341
▁produced	-10.2343
hor	-10.2345
▁covered	-10.2346
away	-10.2352
▁selling	-10.2361
bra	-10.2365
▁encounter	-10.2365
▁£5	-10.2365
▁operating	-10.2366
▁CBS	-10.2385
▁Rose	-10.2388
▁swing	-10.2393
▁argue	-10.2394
ET	-10.2398
▁enhance	-10.24
▁trick	-10.2407
23	-10.2407
ense	-10.2408
▁vast	-10.2409
▁Dec	-10.2423
▁payment	-10.2426
▁struggled	-10.2427
▁eating	-10.2429
▁dinner	-10.2434
▁faith	-10.2435
▁Guardian	-10.2436
vid	-10.2438
▁terrorist	-10.244
▁walked	-10.2441
▁gene	-10.2441
▁flee	-10.2442
▁belong	-10.2443
ffer	-10.2449
unk	-10.245
▁37	-10.2458
▁Vo	-10.2467
▁Edinburgh	-10.2469
▁celebration	-10.2469
▁internet	-10.2469
▁Bridge	-10.2472
▁hero	-10.2479
▁ensur	-10.2494
▁Muslim	-10.2504
▁fraud	-10.2504
itch	-10.2506
▁slightly	-10.2512
▁Long	-10.2513
▁established	-10.2514
▁Photo	-10.2515
▁recovery	-10.2521
wick	-10.2523
▁adults	-10.253
▁Back	-10.2532
▁comfort	-10.2535
ied	-10.2539
▁facilities	-10.2539
▁Up	-10.2544
minute	-10.2544
▁strengthen	-10.2546
▁adult	-10.2549
▁upset	-10.2553
▁factor	-10.2558
▁Tro	-10.2561
5,000	-10.2565
▁delivery	-10.2574
▁stood	-10.2574
▁honor	-10.2575
worth	-10.2577
look	-10.2589
▁wine	-10.2598
▁agencies	-10.261
▁margin	-10.261
▁representative	-10.261
▁importance	-10.2611
▁completed	-10.2612
▁assets	-10.2614
▁attempted	-10.2617
▁taxes	-10.2622
ify	-10.2625
▁founder	-10.2625
▁protesters	-10.2626
▁attacked	-10.2626
▁Sydney	-10.2645
ott	-10.2648
▁videos	-10.2651
▁flights	-10.2652
lie	-10.2654
22	-10.2657
▁immediate	-10.2657
▁attract	-10.266
illa	-10.2661
▁Four	-10.267
▁bi	-10.2673
range	-10.2674
▁arrive	-10.2676
mond	-10.2679
▁favour	-10.268
▁Celtic	-10.2681
21	-10.2685
cover	-10.2696
▁Steve	-10.2702
body	-10.2702
▁Show	-10.2708
▁dogs	-10.2709
▁pub	-10.2709
▁adds	-10.2712
▁neighbour	-10.2716
▁Hospital	-10.2717
▁desperate	-10.2717
▁shortly	-10.2717
▁wing	-10.272
▁hang	-10.2723
***	-10.2727
01	-10.2731
▁Ban	-10.2739
▁commission	-10.274
▁Dun	-10.2741
▁markets	-10.2742
▁Son	-10.2746
-0	-10.2746
▁entered	-10.275
▁humanitarian	-10.2752
▁Foreign	-10.2752
▁Mary	-10.2753
▁regime	-10.2755
▁rejected	-10.2755
▁everybody	-10.2755
phone	-10.2761
í	-10.2763
igh	-10.2764
aj	-10.2775
▁Bor	-10.2781
▁Jen	-10.2786
▁YouTube	-10.2788
▁worried	-10.2788
▁distance	-10.2788
▁basis	-10.2789
14	-10.2792
▁Only	-10.2796
▁Still	-10.2798
election	-10.2799
tes	-10.2801
hel	-10.282
rin	-10.2822
▁skills	-10.2822
▁assistance	-10.2827
▁wake	-10.283
▁Phil	-10.2832
posing	-10.2835
▁airline	-10.2835
▁Wall	-10.2853
town	-10.2855
▁replace	-10.2861
▁thrill	-10.2861
▁Earth	-10.2861
▁occurred	-10.2862
▁competitive	-10.2863
▁widely	-10.2866
▁risks	-10.2874
▁dating	-10.2875
▁roughly	-10.2876
▁Look	-10.2877
bert	-10.2881
▁animals	-10.2883
yo	-10.2888
hold	-10.2893
ria	-10.2895
▁element	-10.2897
▁Associate	-10.2897
▁negative	-10.2897
▁NATO	-10.2897
▁memory	-10.2897
ich	-10.2897
▁Korean	-10.2898
▁comfortable	-10.2901
▁chat	-10.2904
▁reduced	-10.2904
▁reporting	-10.2909
▁hall	-10.2912
▁peak	-10.2914
ette	-10.2918
era	-10.2924
▁react	-10.2927
▁defend	-10.2933
▁Saudi	-10.2934
▁Northern	-10.2934
▁fruit	-10.2934
▁Fu	-10.2935
ement	-10.2939
▁deter	-10.2939
even	-10.2948
▁pieces	-10.2955
erson	-10.2957
35	-10.2961
vic	-10.2962
▁developed	-10.2962
turn	-10.297
▁Sur	-10.297
▁involving	-10.297
▁coalition	-10.297
▁climb	-10.297
▁Boeing	-10.2971
▁appointment	-10.2971
▁vital	-10.2972
related	-10.2975
Al	-10.2984
▁passing	-10.2986
▁recalled	-10.2992
▁earned	-10.2993
Do	-10.2997
▁GOP	-10.3007
▁lawmakers	-10.3007
▁spokesman	-10.3007
▁reveals	-10.3012
ology	-10.3015
▁FA	-10.3015
▁unlikely	-10.3018
▁approved	-10.3018
Oh	-10.3031
ddy	-10.3042
▁luxury	-10.3044
▁possibility	-10.3044
▁Digital	-10.3044
▁wicket	-10.3044
▁Vegas	-10.3044
▁Francisco	-10.3046
▁Director	-10.3047
▁politicians	-10.3048
▁customer	-10.305
▁Syria	-10.3054
part	-10.3058
▁Palestinians	-10.3064
▁boys	-10.3068
rist	-10.3069
rra	-10.3074
▁patient	-10.3074
water	-10.3075
▁equipment	-10.3081
▁impressive	-10.3081
▁egg	-10.3081
▁Centre	-10.3081
▁micro	-10.3082
▁Oct	-10.3083
▁package	-10.3084
▁editor	-10.3085
▁temperatures	-10.3086
▁agent	-10.3087
▁mobile	-10.3088
▁spotted	-10.309
rri	-10.309
▁Cro	-10.3093
▁500	-10.3097
▁48	-10.3097
▁broad	-10.3098
ո	-10.3103
▁dec	-10.3105
▁circumstances	-10.3118
▁interesting	-10.3119
▁viral	-10.3119
▁Watch	-10.312
▁apart	-10.3123
▁2010	-10.3123
▁Tory	-10.3125
pan	-10.3126
▁changing	-10.3129
▁cry	-10.3132
ero	-10.3135
▁visited	-10.3135
▁researchers	-10.3146
ED	-10.3148
▁studio	-10.3155
▁organ	-10.3159
▁bat	-10.3159
▁Iranian	-10.3161
13	-10.3161
▁bridge	-10.3167
▁teenager	-10.3168
▁Ol	-10.3168
▁2019,	-10.3184
▁equal	-10.3189
▁Ter	-10.319
▁Stephen	-10.3193
▁desire	-10.3193
▁buying	-10.3196
▁root	-10.3197
▁Mor	-10.3204
▁entirely	-10.3205
▁recall	-10.3219
▁exit	-10.322
▁insisted	-10.3231
▁shelter	-10.3231
▁sight	-10.3234
▁background	-10.3235
▁journalist	-10.3247
▁closely	-10.325
▁Bru	-10.3251
▁fly	-10.3265
ku	-10.3268
▁CNN	-10.3268
▁Nov	-10.327
▁labor	-10.3272
▁drivers	-10.3279
▁lawyers	-10.3281
ily	-10.3288
▁registered	-10.3299
▁signing	-10.3303
▁mortgage	-10.3306
▁located	-10.3306
html	-10.3306
▁Lewis	-10.3306
▁bills	-10.3319
▁headline	-10.3326
▁inspired	-10.3327
▁chances	-10.3328
▁detail	-10.3336
arch	-10.3336
▁featured	-10.3341
▁Call	-10.3341
▁Rock	-10.3342
▁basic	-10.3343
▁procedure	-10.3344
▁clothes	-10.3344
▁plus	-10.3346
▁weapon	-10.3348
▁diet	-10.3351
▁engineer	-10.3353
ony	-10.3357
▁waste	-10.3358
▁athletes	-10.336
▁sick	-10.3364
ս	-10.3382
▁contrast	-10.3382
▁truck	-10.3382
▁dispute	-10.3383
▁intense	-10.3383
▁Kevin	-10.3384
▁stake	-10.3388
▁Beach	-10.3389
▁alert	-10.3392
bie	-10.3401
▁leaves	-10.3408
▁interested	-10.341
▁relations	-10.342
▁vulnerable	-10.3421
▁permanent	-10.3421
▁plot	-10.3421
▁cream	-10.3423
gate	-10.3431
▁significantly	-10.3432
▁declined	-10.3433
ram	-10.3438
▁Part	-10.3442
▁Your	-10.3442
ush	-10.3446
▁seriously	-10.3446
▁familiar	-10.3459
▁strategic	-10.3459
▁instance	-10.3459
▁shopping	-10.3461
▁priority	-10.3463
pose	-10.3464
▁generally	-10.3465
▁op	-10.3467
▁drone	-10.3467
▁fake	-10.3473
▁pictures	-10.3476
▁remind	-10.3479
▁greatest	-10.3482
▁facility	-10.3498
▁Defense	-10.3498
▁technical	-10.3498
▁Mil	-10.3499
▁settlement	-10.35
cut	-10.3509
plan	-10.3517
rich	-10.3531
▁deputy	-10.3536
▁Dev	-10.3541
▁assistant	-10.3541
burg	-10.3543
▁films	-10.3545
▁dig	-10.3546
▁missile	-10.3549
▁Bri	-10.3552
▁Jon	-10.3555
▁mention	-10.3571
more	-10.3572
▁schedule	-10.3573
▁cha	-10.3574
▁vessel	-10.3575
▁fighter	-10.3576
high	-10.3576
oke	-10.3578
▁2011	-10.3579
▁joke	-10.3579
▁regularly	-10.3579
▁developing	-10.358
▁affordable	-10.358
class	-10.3583
▁38	-10.3584
▁witness	-10.3587
▁ideal	-10.3595
▁Ph	-10.3604
NC	-10.3609
style	-10.361
▁Champions	-10.3611
▁Foundation	-10.3614
▁newspaper	-10.3614
75	-10.3616
▁radio	-10.3617
▁2008	-10.3621
▁animal	-10.3629
▁7.	-10.3629
▁suspended	-10.363
"},{"	-10.3633
▁effects	-10.3635
▁acting	-10.3638
▁mate	-10.3641
▁ties	-10.3652
▁Gri	-10.3652
▁Public	-10.3654
▁tennis	-10.3654
▁trauma	-10.3654
▁retirement	-10.3656
US	-10.367
▁49	-10.3671
▁sites	-10.3674
EN	-10.3674
▁Plan	-10.3675
▁tonight	-10.3679
▁stream	-10.3683
▁paint	-10.3687
▁Yu	-10.3688
▁consequences	-10.3691
▁favor	-10.3692
▁scenes	-10.3692
▁Oscar	-10.3693
▁cycle	-10.3693
▁enjoyed	-10.3696
wy	-10.3701
▁filled	-10.3701
▁Mad	-10.371
3%	-10.3717
▁tank	-10.3718
▁provides	-10.3721
▁analysis	-10.3732
▁Obama	-10.3732
▁Election	-10.3732
▁reference	-10.3733
▁documentary	-10.3735
ini	-10.3735
▁sending	-10.3736
▁Ty	-10.375
▁pin	-10.375
drew	-10.3761
19	-10.3761
atory	-10.3765
▁2021.	-10.3766
ock	-10.3769
▁impossible	-10.3772
▁trading	-10.3773
empt	-10.379
block	-10.3795
name	-10.3803
▁engaged	-10.3804
▁Mill	-10.3809
▁asylum	-10.3812
▁Channel	-10.3812
CA	-10.3813
Be	-10.3815
▁leak	-10.3815
▁Down	-10.3818
▁tele	-10.3819
▁golf	-10.3819
▁considering	-10.3821
▁Sin	-10.3825
▁artists	-10.3836
ky	-10.3836
▁dozens	-10.3838
▁Ce	-10.3839
▁effectively	-10.3848
▁instruct	-10.3852
▁scandal	-10.3852
▁smile	-10.3853
▁Walz	-10.3856
▁coverage	-10.386
bble	-10.3861
▁civilians	-10.3862
90	-10.3867
▁combat	-10.3869
▁battery	-10.387
▁Arm	-10.387
▁Comp	-10.3871
La	-10.3878
bor	-10.3879
yan	-10.3882
▁Water	-10.3883
▁Zo	-10.3883
▁involve	-10.3887
▁Jordan	-10.3892
▁exclusive	-10.3892
▁prosecution	-10.3892
▁adjust	-10.3893
▁cheer	-10.3893
▁Wilson	-10.3895
▁42	-10.3904
▁alive	-10.3906
▁consumers	-10.3911
▁notes	-10.3916
▁sentenced	-10.3918
27	-10.3922
ida	-10.3925
▁challenging	-10.3932
▁mine	-10.3934
ppy	-10.3935
▁lock	-10.3939
▁prop	-10.3951
▁Fed	-10.3955
▁mini	-10.3957
▁Cho	-10.3958
▁(1	-10.3964
▁losses	-10.3972
▁blame	-10.3972
▁dedicated	-10.3973
▁numerous	-10.3973
▁journalists	-10.3973
▁perspective	-10.3974
▁illness	-10.3976
▁Ray	-10.3979
▁Boy	-10.398
▁concluded	-10.3985
70	-10.3987
most	-10.3991
▁restrict	-10.4013
▁exciting	-10.4014
▁stadium	-10.4014
▁restrictions	-10.4015
▁iconic	-10.4017
▁Media	-10.4017
▁destination	-10.4018
>,""	-10.4021
ept	-10.4021
▁lie	-10.4021
▁neck	-10.4022
▁crossing	-10.4031
hin	-10.4035
կ	-10.4041
▁directed	-10.4043
▁models	-10.4043
bit	-10.4051
▁der	-10.4051
rant	-10.4053
ora	-10.4053
▁honour	-10.4054
▁knowledge	-10.4054
▁Japanese	-10.4055
▁Among	-10.4056
▁continuing	-10.4059
29	-10.4059
▁Free	-10.4062
2%	-10.4078
▁brings	-10.4082
▁contributed	-10.4085
▁drones	-10.4087
▁Bull	-10.4091
EC	-10.4093
▁forget	-10.4094
▁stores	-10.4094
▁science	-10.4095
▁hostages	-10.4096
▁agenda	-10.4098
IT	-10.4102
▁authority	-10.4103
▁playoff	-10.4107
▁guests	-10.4108
▁master	-10.4121
OR	-10.413
Tex	-10.4135
▁reveal	-10.4136
▁vaccine	-10.4137
▁heavily	-10.4137
▁remarks	-10.4137
67	-10.4144
▁Bowl	-10.4144
▁failing	-10.4146
tta	-10.4151
ington	-10.4152
cat	-10.4154
▁App	-10.4163
she	-10.4164
▁planet	-10.4164
▁plea	-10.4165
▁bull	-10.4177
TA	-10.4177
▁landscape	-10.4178
▁participate	-10.4178
▁Ohio	-10.4178
▁internal	-10.4179
▁expectations	-10.4183
▁export	-10.4184
▁selection	-10.4186
try	-10.4189
▁wi	-10.4189
ola	-10.419
▁lucky	-10.4192
▁invited	-10.4198
lies	-10.4199
▁grown	-10.4203
▁extend	-10.4207
poli	-10.4208
SA	-10.4211
▁wonderful	-10.4212
▁calm	-10.4217
▁alliance	-10.4219
▁creative	-10.422
iya	-10.422
▁referred	-10.422
▁favorite	-10.4221
▁engagement	-10.4223
▁busy	-10.4228
▁outfit	-10.4233
▁bin	-10.4238
esh	-10.4239
▁relatively	-10.424
▁san	-10.424
ister	-10.4241
▁fewer	-10.4242
▁innings	-10.4251
sky	-10.4258
▁Capitol	-10.4261
▁Zelensky	-10.4261
▁narrative	-10.4261
▁stunning	-10.4261
▁scoring	-10.4261
▁informed	-10.4263
▁bench	-10.4264
▁banned	-10.4264
mmer	-10.4271
▁talked	-10.4278
▁comedy	-10.4281
▁Bel	-10.4284
matic	-10.4292
▁Greg	-10.4293
88	-10.4293
▁occur	-10.4301
ique	-10.4302
▁unusual	-10.4303
://	-10.4303
▁plastic	-10.4303
▁2013	-10.4306
All	-10.4307
▁Fla	-10.4311
▁mayor	-10.4314
▁pushing	-10.432
ire	-10.4325
▁none	-10.4329
▁Far	-10.4338
▁Mari	-10.4342
▁marks	-10.4344
▁mom	-10.4346
▁$6	-10.4346
▁Share	-10.4346
▁sustainable	-10.4347
▁Valley	-10.4348
▁east	-10.4351
▁drinking	-10.4353
▁improvement	-10.4354
▁Tony	-10.4359
▁recover	-10.4364
dom	-10.4366
▁wealth	-10.4367
▁allows	-10.4374
▁tie	-10.4375
▁religious	-10.4387
▁guess	-10.4388
bin	-10.4397
▁Fire	-10.4398
power	-10.44
▁mentioned	-10.4404
mun	-10.4415
▁establish	-10.442
▁sky	-10.4421
▁Independent	-10.4429
▁Palace	-10.443
▁symptoms	-10.4431
breaking	-10.4438
cia	-10.4443
▁cup	-10.4462
▁values	-10.4468
▁import	-10.4469
▁franchise	-10.4472
▁iPhone	-10.4472
▁belief	-10.4472
now	-10.4473
▁habit	-10.4473
▁Young	-10.4485
aging	-10.4491
cast	-10.4492
▁platforms	-10.4493
shot	-10.4501
iest	-10.4501
▁Ze	-10.4502
▁flying	-10.4504
▁threatened	-10.4506
▁Bell	-10.4513
▁militant	-10.4515
▁breach	-10.4515
▁qualify	-10.4515
▁grant	-10.4516
ware	-10.452
▁10-	-10.4521
▁institutions	-10.4522
key	-10.4522
▁agents	-10.4522
▁speaks	-10.4524
▁Vin	-10.4537
▁core	-10.4539
▁pot	-10.454
▁reaching	-10.454
▁wider	-10.4545
▁presented	-10.4555
▁yes	-10.4556
▁conviction	-10.4558
▁defensive	-10.4558
▁concert	-10.4558
▁Agency	-10.4558
▁Miami	-10.4559
▁entry	-10.456
▁prepare	-10.456
▁dismissed	-10.4562
▁strip	-10.4565
▁Where	-10.4566
▁sal	-10.4573
how	-10.4573
▁jet	-10.4578
▁exam	-10.4583
▁spoken	-10.4585
▁advocate	-10.459
▁relax	-10.4601
▁provider	-10.4601
arm	-10.4602
▁frame	-10.4604
▁riot	-10.4604
imp	-10.4606
ux	-10.461
▁Week	-10.4612
mile	-10.4619
▁cheap	-10.4622
▁testing	-10.4623
▁nations	-10.4625
▁listed	-10.4627
Id	-10.4628
▁foundation	-10.4629
OS	-10.4635
▁boot	-10.464
▁Brazil	-10.4642
▁Manhattan	-10.4644
▁demonstrate	-10.4644
▁contribution	-10.4645
▁Play	-10.4646
PS	-10.4646
▁Report	-10.4655
▁predict	-10.4657
▁extended	-10.4657
uri	-10.4659
▁retailer	-10.4661
▁attempts	-10.4662
▁Old	-10.4664
▁Den	-10.4665
hour	-10.4666
▁Gro	-10.4669
▁Army	-10.467
ddle	-10.4677
izz	-10.4682
▁Hag	-10.4684
iber	-10.4684
▁Kyiv	-10.4688
▁pounds	-10.4688
▁legacy	-10.4688
▁wash	-10.4706
▁dozen	-10.4711
▁west	-10.4713
▁GP	-10.4714
▁broadcast	-10.4715
avi	-10.4716
org	-10.4717
tail	-10.472
▁Gre	-10.4721
▁Gall	-10.4727
▁reputation	-10.4731
▁arrival	-10.4731
":"<	-10.4732
ologist	-10.4733
▁2000	-10.4735
▁finger	-10.4735
▁resolve	-10.4735
▁load	-10.4744
thro	-10.475
▁shoulder	-10.4752
IN	-10.4756
▁enable	-10.4757
▁retired	-10.4758
▁taste	-10.4758
fit	-10.476
▁characters	-10.4764
▁anniversary	-10.4775
▁appreciate	-10.4775
▁pilot	-10.4775
▁solid	-10.4776
▁quarterback	-10.4778
view	-10.4785
ó	-10.4788
claim	-10.4791
▁craft	-10.4795
▁Land	-10.4795
ulation	-10.4808
▁requires	-10.4812
▁Madrid	-10.4819
Li	-10.482
▁determine	-10.4822
▁refugee	-10.4823
▁motion	-10.4825
▁BST	-10.4825
▁songs	-10.4829
▁tools	-10.4845
▁followers	-10.4848
▁Hy	-10.4851
real	-10.4853
▁2020.	-10.4861
▁Zealand	-10.4863
▁approval	-10.4863
▁Rangers	-10.4863
boy	-10.4864
▁properties	-10.4864
▁division	-10.4865
▁aggressive	-10.4866
fall	-10.4867
▁1990	-10.4867
▁hunt	-10.4867
▁replaced	-10.4869
▁combined	-10.4881
GB	-10.4883
▁obvious	-10.4884
▁tensions	-10.4887
▁cra	-10.4888
▁offence	-10.489
itz	-10.4891
▁MPs	-10.4896
▁knowing	-10.4902
▁genuine	-10.4908
▁narrow	-10.4908
▁legend	-10.4908
▁closing	-10.491
▁Asia	-10.4918
▁outdoor	-10.4921
zer	-10.4921
VE	-10.4925
▁Ask	-10.4925
del	-10.4933
making	-10.4934
▁Hav	-10.4935
▁consumer	-10.4941
nov	-10.4945
▁degree	-10.4946
called	-10.4947
▁tree	-10.4948
▁incredibly	-10.4952
▁COVID	-10.4952
▁presidency	-10.4953
▁keen	-10.4953
▁dealing	-10.4953
▁announce	-10.4955
▁Sarah	-10.4957
▁Life	-10.4962
▁cutting	-10.4967
▁suddenly	-10.4967
rid	-10.497
emi	-10.4971
▁farmers	-10.4972
made	-10.4974
▁dish	-10.4978
ore	-10.4979
37	-10.498
hear	-10.4988
74	-10.499
▁Republic	-10.4992
▁Sweden	-10.4997
▁ministry	-10.4997
▁silver	-10.4997
▁stepped	-10.5001
▁promises	-10.5003
▁wood	-10.5004
▁Though	-10.5005
▁Miss	-10.5005
▁proved	-10.5008
gle	-10.5008
▁Hay	-10.501
These	-10.5017
▁programs	-10.5018
▁Miller	-10.5024
▁please	-10.5027
▁fatal	-10.503
▁acts	-10.5032
▁Arab	-10.5035
oli	-10.5036
verse	-10.5042
▁controversial	-10.5042
▁possibly	-10.5042
▁resolution	-10.5042
▁disaster	-10.5042
▁hung	-10.5046
▁rating	-10.5049
vil	-10.5058
▁Final	-10.5061
77	-10.5062
▁stronger	-10.5063
▁Take	-10.5063
▁Lok	-10.5068
gram	-10.5068
▁device	-10.5072
▁pose	-10.5077
49	-10.5085
▁Attorney	-10.5088
▁aspect	-10.5089
ata	-10.509
▁types	-10.5094
▁vo	-10.5099
▁Tru	-10.51
SE	-10.5101
▁shoot	-10.5102
▁improved	-10.511
▁tip	-10.5111
▁Villa	-10.5112
▁chosen	-10.5113
▁worker	-10.5114
rog	-10.5122
De	-10.5126
dding	-10.5127
▁driven	-10.5132
05	-10.5133
▁Governor	-10.5133
▁Taiwan	-10.5133
▁Vladimir	-10.5133
▁Sabha	-10.5133
▁Edward	-10.5135
▁racing	-10.5136
▁chart	-10.5137
▁Board	-10.5141
▁rail	-10.5145
▁reward	-10.5157
▁length	-10.5164
▁Shan	-10.5169
▁tied	-10.517
7%	-10.5171
▁quit	-10.5178
▁borrow	-10.5179
▁Meghan	-10.5179
▁charging	-10.5179
▁featuring	-10.5179
▁minimum	-10.5179
▁violation	-10.5179
▁stuck	-10.5179
▁brutal	-10.5179
▁Pla	-10.5184
▁Jeff	-10.5187
87	-10.519
▁fame	-10.5205
▁Wild	-10.5206
▁Brad	-10.5209
▁designer	-10.521
vision	-10.5211
▁Raj	-10.5211
▁speaker	-10.5214
▁Cooper	-10.5222
▁horror	-10.5225
▁pursue	-10.5225
▁NBA	-10.5225
▁steal	-10.5225
▁Boston	-10.5225
▁heading	-10.5226
▁vet	-10.5227
▁raising	-10.5228
▁Reuters	-10.5233
month	-10.5234
▁chairman	-10.5234
▁75	-10.5235
▁staying	-10.5235
▁Stra	-10.5239
▁adviser	-10.5241
▁Six	-10.5247
▁39	-10.5247
▁bio	-10.5248
arian	-10.5252
69	-10.5258
▁seed	-10.5263
▁factors	-10.5264
▁Cam	-10.5265
▁divorce	-10.5271
▁volunteer	-10.5271
▁Major	-10.5271
▁Family	-10.5271
▁infection	-10.5271
▁conspiracy	-10.5271
▁therefore	-10.5271
▁suburb	-10.5271
hether	-10.5273
▁accepted	-10.5276
▁($	-10.5281
▁stone	-10.5283
▁restore	-10.5289
▁county	-10.5291
▁breaking	-10.5295
▁disrupt	-10.5302
▁intended	-10.5305
▁temperature	-10.5311
ES	-10.5312
▁Mul	-10.5314
▁negotiations	-10.5315
▁promise	-10.5316
▁counsel	-10.5317
▁museum	-10.5317
▁Josh	-10.5317
▁branch	-10.5317
tory	-10.532
lee	-10.5331
▁USA	-10.5332
▁Ag	-10.5332
▁appropriate	-10.5338
▁Ron	-10.5344
▁acknowledged	-10.5346
▁Get	-10.5349
wear	-10.5359
▁Mayor	-10.536
elle	-10.5362
▁studies	-10.5363
▁symbol	-10.5363
▁discount	-10.5366
▁caption	-10.5367
▁industrial	-10.5368
95	-10.537
▁ease	-10.5371
ancy	-10.5372
▁lies	-10.5377
1%	-10.5381
▁advanced	-10.5381
▁Wil	-10.5383
▁sixth	-10.539
78	-10.5395
▁teen	-10.5395
▁marked	-10.5403
▁adopt	-10.5403
\	-10.5404
pin	-10.5408
▁eligible	-10.541
▁pattern	-10.541
▁phase	-10.541
▁cinema	-10.541
▁healthcare	-10.5412
ordinat	-10.5417
▁por	-10.5422
▁dive	-10.5422
owned	-10.5427
▁cards	-10.543
▁trees	-10.5432
wise	-10.5438
82	-10.5441
oma	-10.5441
09	-10.5447
▁sorry	-10.5448
▁surprised	-10.5451
▁employ	-10.5455
▁pregnant	-10.5457
▁electoral	-10.5457
▁SNP	-10.5457
▁emissions	-10.5457
▁Newsweek	-10.5459
▁alarm	-10.5459
tBlockElement	-10.5461
▁filing	-10.5462
ami	-10.5464
▁fees	-10.5464
loo	-10.5468
▁carbon	-10.547
▁Ash	-10.5471
▁Jean	-10.5472
▁kid	-10.5473
▁degrees	-10.5479
▁targeting	-10.5485
▁savings	-10.5486
▁monitor	-10.5487
▁lean	-10.5495
▁Festival	-10.5504
▁Rafah	-10.5504
▁storage	-10.5504
▁Church	-10.5504
▁Coast	-10.5505
▁blast	-10.5505
▁Airport	-10.5507
▁align	-10.5507
▁Cohen	-10.5508
▁About	-10.5509
▁collective	-10.551
▁shout	-10.5511
▁electricity	-10.5511
▁discussed	-10.5514
▁Thank	-10.5524
▁Hunter	-10.5527
▁relative	-10.5528
▁una	-10.5533
card	-10.554
▁Shar	-10.5541
standing	-10.5546
6%	-10.5551
▁chemical	-10.5552
▁smoke	-10.5552
▁personnel	-10.5552
▁boast	-10.5552
▁Murray	-10.5552
Ha	-10.5553
▁chaos	-10.5554
▁begins	-10.5554
▁rocket	-10.5559
▁batter	-10.556
▁boo	-10.5563
▁tall	-10.5566
▁Arabia	-10.5566
▁square	-10.5566
[	-10.5567
▁EV	-10.5568
▁welcomed	-10.5569
foot	-10.5571
▁shirt	-10.5572
▁hitting	-10.5575
▁Top	-10.5583
wel	-10.5591
wal	-10.5598
▁abroad	-10.5599
▁sanctions	-10.5599
▁Senator	-10.5601
acy	-10.5604
▁harder	-10.5609
▁Ross	-10.5616
▁critics	-10.5617
▁Jim	-10.5623
BC	-10.5624
▁mixed	-10.5629
▁Santa	-10.5631
▁chose	-10.5631
hr	-10.5631
person	-10.5636
with	-10.5641
▁understood	-10.5647
▁prominent	-10.5647
▁regret	-10.5647
▁remote	-10.5647
▁Tesla	-10.5648
▁Storm	-10.5648
▁destroyed	-10.5651
https	-10.5652
▁highlighted	-10.5652
▁clo	-10.5653
▁ending	-10.5664
game	-10.5665
▁appointed	-10.5669
▁celebrated	-10.5671
▁Cra	-10.5671
▁Ball	-10.5688
▁Cole	-10.5689
cade	-10.5695
▁Beijing	-10.5695
▁Ethiopia	-10.5695
▁zero	-10.5695
▁lunch	-10.5695
▁ceasefire	-10.5696
▁Local	-10.5698
▁slip	-10.5699
▁Mur	-10.5701
▁prosecutor	-10.5704
▁tiny	-10.571
ago	-10.5713
▁drawn	-10.5718
48	-10.5725
▁commented	-10.573
▁sing	-10.5731
▁300	-10.5733
▁custody	-10.5744
▁surprising	-10.5744
▁poverty	-10.5744
▁inquiry	-10.5744
▁knee	-10.5744
▁temporary	-10.5744
▁tourists	-10.5747
▁warrant	-10.5747
▁spell	-10.5749
▁Fin	-10.5751
▁duty	-10.5752
▁Nigerian	-10.5753
mission	-10.5754
▁Kelly	-10.5759
79	-10.5759
gel	-10.5765
▁shower	-10.5766
▁mouth	-10.577
▁polling	-10.5772
agh	-10.5775
▁represent	-10.5776
▁install	-10.5778
▁defender	-10.5779
band	-10.5782
▁Colorado	-10.5792
▁chicken	-10.5792
▁statu	-10.5793
▁Daily	-10.5794
▁childhood	-10.5794
AC	-10.5798
▁aside	-10.58
▁earnings	-10.58
▁percentage	-10.5805
▁Time	-10.5808
▁Kir	-10.5809
holder	-10.5809
▁Cat	-10.5811
▁invest	-10.5816
imed	-10.5822
▁Kha	-10.5829
▁pla	-10.5829
▁Ven	-10.5832
▁saved	-10.5833
▁sum	-10.5834
link	-10.5835
▁dismiss	-10.5836
▁questioned	-10.5836
.</	-10.5838
▁Project	-10.5841
▁artificial	-10.5841
▁tribute	-10.5841
▁retain	-10.5841
▁tears	-10.5846
▁Anderson	-10.585
zen	-10.5852
▁Jane	-10.5858
▁aims	-10.5861
▁headed	-10.5878
▁odds	-10.5887
▁Afghanistan	-10.589
▁Anthony	-10.589
▁celebrity	-10.589
▁devastating	-10.589
▁scream	-10.589
▁verdict	-10.589
▁milk	-10.589
▁Kansas	-10.589
▁neighborhood	-10.589
▁locations	-10.5894
▁map	-10.5894
Ro	-10.59
▁resident	-10.5905
▁devices	-10.5907
have	-10.5908
▁loud	-10.5909
▁musical	-10.5915
▁profile	-10.5916
▁officially	-10.5917
Some	-10.5921
▁Brian	-10.5924
everal	-10.5925
Le	-10.5932
▁Turkey	-10.5939
▁girlfriend	-10.594
▁diagnosis	-10.594
▁shoe	-10.594
member	-10.5947
ivity	-10.5951
▁starr	-10.5954
▁activists	-10.5962
▁captured	-10.5976
2024	-10.5982
mates	-10.5982
▁destroy	-10.5984
▁opposite	-10.5989
▁yellow	-10.5989
▁reducing	-10.5989
▁virus	-10.5989
▁Food	-10.5991
Co	-10.5992
▁fee	-10.5994
▁elite	-10.5994
▁otherwise	-10.5997
▁raid	-10.6
▁Tories	-10.6001
▁travelling	-10.6002
vie	-10.6004
▁Luke	-10.6014
▁fallen	-10.6014
▁anger	-10.6016
Lo	-10.602
▁accus	-10.6023
▁employer	-10.6023
ace	-10.6025
▁44	-10.6026
▁embrace	-10.603
▁Egypt	-10.6036
▁Jersey	-10.6038
▁Power	-10.604
▁equity	-10.604
ano	-10.604
▁cloud	-10.604
▁anywhere	-10.6041
IA	-10.6041
▁assassination	-10.6041
▁explains	-10.6044
CE	-10.6046
▁Shah	-10.6046
▁Tar	-10.6047
▁collapse	-10.6047
▁41	-10.6049
▁eastern	-10.605
▁performed	-10.605
▁opponents	-10.605
▁damaged	-10.6063
inch	-10.6064
anna	-10.6068
▁retail	-10.6077
▁Maybe	-10.6078
ien	-10.6083
▁reject	-10.6085
▁elect	-10.6085
▁diplomatic	-10.6087
▁magazine	-10.6088
▁literally	-10.6088
▁Jamie	-10.6088
▁assess	-10.6089
▁nurse	-10.6089
▁1980	-10.6094
▁granted	-10.6102
RC	-10.6102
▁overnight	-10.6106
▁detailed	-10.6109
Every	-10.6111
▁emotion	-10.6115
bury	-10.6116
▁secured	-10.6116
▁weak	-10.612
▁discussion	-10.6124
▁weigh	-10.6132
ok	-10.6132
hop	-10.6133
▁Bon	-10.6136
▁neighbor	-10.6138
▁Canadian	-10.6139
▁ourselves	-10.6139
▁£6	-10.6139
▁smooth	-10.6139
▁preparing	-10.6139
▁tomorrow	-10.6139
▁bathroom	-10.6139
▁wore	-10.614
▁sugar	-10.6142
▁Helen	-10.6146
hra	-10.6149
wer	-10.6155
▁Fre	-10.6162
▁praised	-10.6164
▁presenter	-10.6166
▁chocolate	-10.6189
▁expense	-10.6189
▁summit	-10.6189
▁Southern	-10.619
▁breast	-10.619
▁scam	-10.619
▁Patrick	-10.619
28	-10.619
▁provision	-10.6192
▁engage	-10.6195
▁entering	-10.6204
▁ABC	-10.6209
▁suspected	-10.6214
scale	-10.6215
ban	-10.6221
pha	-10.6231
▁Football	-10.624
▁fundamental	-10.624
▁error	-10.624
▁closure	-10.624
▁Cur	-10.6241
▁dramatic	-10.6242
▁renew	-10.6244
▁urgent	-10.6251
path	-10.626
▁Cap	-10.6262
new	-10.6265
▁tips	-10.6274
print	-10.6283
▁fat	-10.6288
▁Matthew	-10.6291
▁anxiety	-10.6291
▁behavior	-10.6291
▁Mail	-10.6292
▁fought	-10.6293
▁stability	-10.6296
aught	-10.6296
▁Town	-10.6298
▁meat	-10.6302
▁nobody	-10.6302
▁somebody	-10.6302
*	-10.6305
▁faster	-10.6305
▁rap	-10.6316
▁joining	-10.6323
▁Abu	-10.6327
hol	-10.6328
▁Yes	-10.6331
▁layer	-10.6332
door	-10.6335
rise	-10.6339
▁Bangladesh	-10.6342
▁cooperation	-10.6342
▁experiment	-10.6342
▁fiscal	-10.6342
▁cy	-10.6342
▁Armenia	-10.6343
▁prefer	-10.6344
▁regulations	-10.6347
▁assume	-10.6354
rio	-10.6357
▁Human	-10.636
gh	-10.6362
▁define	-10.6368
bon	-10.6377
ía	-10.6379
▁pill	-10.6379
▁handed	-10.6379
▁Gary	-10.6388
AL	-10.6394
▁succeed	-10.6394
▁Special	-10.6394
▁pocket	-10.6394
▁strain	-10.6394
▁boyfriend	-10.6394
Me	-10.6394
▁$7	-10.6395
▁cabinet	-10.6395
▁hint	-10.6398
▁unclear	-10.6399
▁metal	-10.6401
▁deadline	-10.6401
▁plate	-10.641
▁salt	-10.6415
▁spi	-10.6417
At	-10.6429
char	-10.6432
▁gained	-10.6433
▁affairs	-10.6439
▁deposit	-10.644
▁Microsoft	-10.6446
▁Minnesota	-10.6446
▁variety	-10.6446
▁Museum	-10.6446
▁recipe	-10.6446
▁homeless	-10.6446
▁Dutch	-10.6448
▁collaboration	-10.6453
wide	-10.6453
Display	-10.6454
▁reserve	-10.6454
▁47	-10.6454
▁pictured	-10.6455
▁Night	-10.6458
▁Sharma	-10.6458
▁forest	-10.646
▁Stone	-10.6462
▁constantly	-10.6463
▁moral	-10.6466
▁Music	-10.6466
▁55	-10.6484
▁suffer	-10.6485
▁opponent	-10.6485
▁sand	-10.6486
▁fail	-10.6495
▁Global	-10.6498
▁Strictly	-10.6498
▁ambition	-10.6498
▁consecutive	-10.6498
▁continent	-10.6498
▁maximum	-10.6498
▁privacy	-10.6498
▁Kumar	-10.6499
▁tragic	-10.65
▁Macron	-10.65
▁scan	-10.6501
▁shocked	-10.6501
▁Meta	-10.6512
▁Haley	-10.6513
▁Sand	-10.6513
▁Did	-10.6513
▁overturn	-10.6515
▁immigrants	-10.6517
▁visiting	-10.6525
▁Each	-10.6525
▁rush	-10.6527
▁connected	-10.653
▁confront	-10.6542
▁Pal	-10.6543
▁estimates	-10.6546
▁rebel	-10.6548
▁Secret	-10.6548
▁Switzerland	-10.655
▁silence	-10.655
▁gonna	-10.655
▁Del	-10.6551
▁Trans	-10.6552
▁repair	-10.6552
▁specifically	-10.6554
ison	-10.6556
▁Asian	-10.6562
▁Emma	-10.6563
▁realize	-10.6564
week	-10.6571
▁1,000	-10.6577
▁discussions	-10.6579
▁See	-10.6582
▁contacted	-10.6585
▁Andy	-10.6588
98	-10.6593
▁Alexander	-10.6603
▁grateful	-10.6603
▁computer	-10.6603
▁Rachel	-10.6603
▁assessment	-10.6607
▁represented	-10.6609
▁corruption	-10.6609
meter	-10.6609
▁Officer	-10.6611
▁upgrade	-10.6613
▁stayed	-10.6614
half	-10.6615
▁Any	-10.6619
▁teammate	-10.6624
-20	-10.6626
85	-10.6633
▁peaceful	-10.6634
▁command	-10.6642
▁surround	-10.6644
▁select	-10.6649
▁Academy	-10.6656
▁knife	-10.6656
▁thick	-10.6656
▁unexpected	-10.6657
▁magic	-10.6658
▁Spring	-10.666
▁lifestyle	-10.6662
▁mess	-10.6665
ID	-10.6667
▁shadow	-10.6669
▁theory	-10.6674
▁Add	-10.6674
▁Var	-10.6689
▁print	-10.6689
▁Mid	-10.6692
▁hosted	-10.6696
▁400	-10.6697
▁cancel	-10.6697
▁adapt	-10.67
▁recruit	-10.6705
▁proceed	-10.6706
▁Perhaps	-10.6709
▁Rwanda	-10.6709
▁Tokyo	-10.6709
▁fantastic	-10.6709
▁principle	-10.6709
▁Second	-10.6709
▁Iraq	-10.6709
▁resort	-10.6709
▁investigating	-10.6709
▁punch	-10.6709
4%	-10.6709
▁Carl	-10.6711
step	-10.6715
▁Justin	-10.6717
▁Ana	-10.6722
gor	-10.6724
weight	-10.6734
▁solar	-10.6738
EA	-10.6741
▁streaming	-10.6743
▁behalf	-10.6744
▁excellent	-10.6762
▁neither	-10.6762
▁Dallas	-10.6762
▁shake	-10.6762
▁innovation	-10.6762
▁Henry	-10.6763
▁Iowa	-10.6764
▁roof	-10.6765
▁Davis	-10.6767
▁defendant	-10.6767
▁possession	-10.6767
▁Virginia	-10.6767
FC	-10.6769
▁iron	-10.6769
▁originally	-10.677
▁Sar	-10.6771
roll	-10.6775
stein	-10.6777
65	-10.6777
▁Wor	-10.6779
▁kit	-10.6781
Po	-10.6781
▁solve	-10.6785
LE	-10.6788
▁Spe	-10.6789
▁advised	-10.679
match	-10.6794
▁tested	-10.6796
▁performing	-10.6798
▁Elizabeth	-10.6816
▁promotion	-10.6816
▁virtual	-10.6816
bul	-10.6817
▁Constitution	-10.6818
▁chef	-10.6819
▁Trust	-10.6824
▁tradition	-10.6828
▁urge	-10.6828
▁guarantee	-10.6829
▁Sy	-10.6831
ika	-10.6834
▁Ve	-10.6843
▁rely	-10.6844
▁forever	-10.685
▁detect	-10.687
դ	-10.687
▁striking	-10.687
▁widespread	-10.687
▁senator	-10.687
▁65	-10.6872
68	-10.6884
55	-10.6886
far	-10.6899
On	-10.6902
▁broader	-10.6902
een	-10.6908
bol	-10.6913
media	-10.6913
▁chill	-10.6921
▁atmosphere	-10.6924
▁category	-10.6924
▁romantic	-10.6924
▁species	-10.6924
▁empty	-10.6924
▁FBI	-10.6925
▁Leader	-10.6925
▁crazy	-10.6925
▁grave	-10.6926
▁wound	-10.6926
dio	-10.6928
▁fitness	-10.6933
▁Ger	-10.6936
▁soul	-10.694
▁bail	-10.6942
▁western	-10.6942
▁properly	-10.6948
▁realise	-10.695
▁gathered	-10.696
:30	-10.6963
▁represents	-10.6966
▁emerge	-10.6973
active	-10.6973
asi	-10.6975
▁relie	-10.6978
ու	-10.6979
▁Assembly	-10.6979
▁manufacturing	-10.6979
▁disorder	-10.6979
▁pump	-10.698
▁Rishi	-10.6981
▁Bob	-10.6982
▁halt	-10.6983
▁medication	-10.6985
mount	-10.6986
▁soil	-10.6989
▁golden	-10.7003
66	-10.7004
▁Fund	-10.7007
▁actual	-10.7011
▁copy	-10.7013
▁enjoying	-10.7017
▁discover	-10.7017
▁arch	-10.7019
▁appearing	-10.7027
▁Labor	-10.7038
▁permission	-10.7039
▁capable	-10.7047
▁achieved	-10.7047
▁capture	-10.705
▁frequently	-10.705
▁totally	-10.705
▁proper	-10.7058
▁McG	-10.7067
▁Heart	-10.7068
How	-10.7075
▁awarded	-10.7078
▁Mun	-10.7079
Un	-10.7079
▁noise	-10.7085
▁Tor	-10.7087
teen	-10.7088
▁ingredient	-10.7089
▁cheese	-10.7089
▁Melbourne	-10.7089
▁concept	-10.7089
▁46	-10.709
▁seemingly	-10.709
▁strict	-10.709
▁voter	-10.709
▁rural	-10.7091
▁Morning	-10.7092
▁entertainment	-10.7093
▁Cook	-10.7095
▁reverse	-10.7099
ote	-10.71
▁Sept	-10.7101
▁Book	-10.7101
▁(20	-10.7102
▁contribute	-10.7104
▁improving	-10.7105
▁shortage	-10.7106
▁PS	-10.7108
▁Rome	-10.7111
▁deny	-10.7112
▁opposed	-10.7115
▁protected	-10.712
▁Lind	-10.7121
▁usual	-10.7122
▁te	-10.7127
▁specialist	-10.713
▁rarely	-10.7141
▁54	-10.7144
▁Mitchell	-10.7145
▁Newcastle	-10.7145
▁explosion	-10.7145
▁exposed	-10.7145
ND	-10.7145
▁pleaded	-10.7145
▁angry	-10.7146
▁hike	-10.7146
▁Palestine	-10.715
▁Series	-10.715
▁2009	-10.7152
▁endorse	-10.7158
▁recording	-10.716
▁apparently	-10.7166
36	-10.7174
▁LA	-10.7176
angle	-10.718
▁withdraw	-10.7188
▁killer	-10.72
▁Journal	-10.7201
▁Space	-10.7201
▁muscle	-10.7201
▁departure	-10.7201
▁Sudan	-10.7201
▁signature	-10.7201
▁somewhere	-10.7205
▁file	-10.7205
▁Additionally	-10.7205
▁fled	-10.7207
▁progressive	-10.7212
▁Reform	-10.7213
▁beloved	-10.7215
▁trained	-10.7217
known	-10.7219
pit	-10.7222
face	-10.7225
▁Hard	-10.7226
▁Picture	-10.7229
26	-10.7238
▁exact	-10.7241
▁Fra	-10.7242
▁Sean	-10.7247
▁Awards	-10.725
▁menu	-10.7251
▁Atlanta	-10.7257
▁Islamic	-10.7257
▁Representative	-10.7257
▁twist	-10.7257
▁latter	-10.7257
▁basketball	-10.7257
▁Hotel	-10.7257
▁elsewhere	-10.7257
▁supermarket	-10.7257
publish	-10.7258
▁Saint	-10.7258
▁Strip	-10.7258
▁43	-10.7259
▁developer	-10.7259
▁bread	-10.7259
▁Moore	-10.726
▁Sara	-10.7261
▁Guard	-10.7262
▁Tam	-10.7263
One	-10.7264
▁monthly	-10.7265
gger	-10.7269
▁Low	-10.7271
▁visa	-10.7271
action	-10.7272
▁insight	-10.728
▁kicked	-10.729
▁pour	-10.7299
▁engine	-10.7301
▁disappear	-10.7312
▁Benjamin	-10.7313
▁speculation	-10.7313
▁terrible	-10.7313
▁£7	-10.7313
▁£8	-10.7313
▁Video	-10.7313
▁ultra	-10.7313
▁competing	-10.7313
www	-10.7314
▁exhibition	-10.7318
▁1970	-10.7318
▁ramp	-10.7321
▁mask	-10.7324
▁indicate	-10.7329
▁landing	-10.7335
▁yn	-10.7355
wr	-10.7357
▁Steven	-10.7359
▁fur	-10.736
pot	-10.7366
▁cooking	-10.7369
▁Education	-10.737
▁tweet	-10.737
▁volume	-10.737
▁swimming	-10.737
▁barrier	-10.737
▁Katie	-10.7371
▁accusations	-10.7372
▁everywhere	-10.7372
▁operator	-10.7373
▁dying	-10.7373
▁Berlin	-10.7374
ility	-10.738
Go	-10.7385
IM	-10.7387
▁detained	-10.7391
▁passenger	-10.7392
▁lying	-10.7393
▁saving	-10.7395
▁abandoned	-10.74
friendly	-10.7411
zar	-10.742
▁Allen	-10.742
▁Credit	-10.7426
▁blocked	-10.7427
▁dynamic	-10.7427
▁sensitive	-10.7427
▁Gandhi	-10.7427
▁outrage	-10.7428
▁radical	-10.7428
▁crore	-10.7428
▁touchdown	-10.7429
▁Price	-10.743
▁trigger	-10.7431
▁substantial	-10.7431
▁employment	-10.7432
horn	-10.7435
▁Kenya	-10.7436
▁topic	-10.7437
ց	-10.7441
mming	-10.7442
▁diagnosed	-10.7447
NE	-10.7449
47	-10.7449
world	-10.7452
▁landed	-10.7456
▁settle	-10.7459
▁scientists	-10.7464
▁painting	-10.7472
psy	-10.7477
charge	-10.7483
▁Wisconsin	-10.7485
▁emphasis	-10.7485
▁Phillip	-10.7485
▁GMT	-10.7485
▁Walker	-10.7486
▁context	-10.7486
▁beating	-10.7488
TV	-10.749
▁creation	-10.7491
▁adopted	-10.7494
▁toilet	-10.7495
▁bedroom	-10.7499
▁Little	-10.7504
▁custom	-10.7513
▁employee	-10.7514
rap	-10.7514
▁tent	-10.7519
▁$10	-10.7527
▁deadly	-10.7527
▁Head	-10.7536
▁Mumbai	-10.7543
▁valuable	-10.7543
▁testimony	-10.7543
▁Reeves	-10.7543
▁acquir	-10.7543
▁convert	-10.7544
▁tourism	-10.7548
▁theatre	-10.7552
lift	-10.7554
▁hide	-10.7555
PR	-10.756
▁representing	-10.7562
▁handling	-10.7564
mann	-10.7566
▁continu	-10.7567
▁friendly	-10.7569
▁Liam	-10.7571
▁crown	-10.7578
44	-10.7581
▁Lyn	-10.7582
▁Deb	-10.7584
▁essentially	-10.7597
▁exploit	-10.7601
▁expansion	-10.7601
▁liberal	-10.7601
▁rugby	-10.7601
▁threw	-10.7601
▁academic	-10.7601
▁Budget	-10.7601
▁barely	-10.7601
kov	-10.7603
▁slid	-10.7604
▁rushed	-10.7604
▁End	-10.7606
9%	-10.7609
▁Mel	-10.7612
▁graduate	-10.7612
▁assert	-10.7614
care	-10.7614
bri	-10.7615
▁Jason	-10.7618
▁attacking	-10.7618
64	-10.7624
▁repeated	-10.7626
mouth	-10.7627
▁spa	-10.763
▁activist	-10.7632
▁Roman	-10.7633
63	-10.7636
▁Sub	-10.764
▁settled	-10.7643
><	-10.7646
▁terror	-10.7648
▁combination	-10.7659
▁suicide	-10.7659
▁portray	-10.766
▁resume	-10.7661
▁ownership	-10.7662
▁delivering	-10.7663
▁Lauren	-10.7663
▁Pad	-10.7663
▁friendship	-10.7664
▁awareness	-10.7665
▁Fans	-10.7671
you	-10.7674
▁recognise	-10.7676
▁format	-10.7676
@	-10.768
▁Jake	-10.7689
▁cited	-10.7695
▁buyers	-10.7697
iness	-10.7703
▁Prosecutor	-10.7718
▁Houston	-10.7718
▁sweep	-10.7718
▁native	-10.7718
▁software	-10.7719
▁Plus	-10.7719
▁scrap	-10.7722
▁managing	-10.7722
▁reduction	-10.7723
▁pause	-10.7726
▁corporate	-10.7727
loss	-10.7728
8%	-10.7732
▁skill	-10.7735
▁reporter	-10.7736
▁encouraged	-10.7739
▁hopefully	-10.774
▁laid	-10.774
HA	-10.7756
▁Cri	-10.7763
bell	-10.777
RO	-10.7775
post	-10.7775
ttered	-10.7777
▁intervention	-10.7777
▁investigator	-10.7777
▁recognition	-10.7777
▁referring	-10.7779
▁critic	-10.7781
ello	-10.7786
▁migration	-10.7787
▁recovered	-10.7794
▁butter	-10.7796
▁AFP	-10.7799
▁Ly	-10.78
▁shocking	-10.7804
bow	-10.7805
▁jo	-10.7816
▁bike	-10.7823
fill	-10.7824
onic	-10.7827
▁Columbia	-10.7837
▁sauce	-10.7837
▁gym	-10.7837
▁blamed	-10.7837
▁undergo	-10.7842
▁replacement	-10.7843
▁stressed	-10.7843
▁lovely	-10.7844
▁Brook	-10.7851
▁formal	-10.7851
▁Kh	-10.7854
▁formed	-10.7854
▁Eric	-10.7856
▁Carter	-10.7857
="	-10.7858
▁hoped	-10.7858
07	-10.7861
▁noticed	-10.7865
suming	-10.787
ón	-10.7874
▁Hunt	-10.7874
▁consistent	-10.7875
▁height	-10.7876
▁Lib	-10.7884
▁Whit	-10.7886
▁guest	-10.7886
▁OK	-10.7888
▁recommended	-10.7896
▁Dodgers	-10.7897
▁Jeremy	-10.7897
▁Pradesh	-10.7897
▁extensive	-10.7897
▁Energy	-10.7897
▁Film	-10.7897
▁petition	-10.7898
▁Girl	-10.7898
▁Southgate	-10.79
▁funny	-10.79
▁index	-10.7902
▁seized	-10.7903
▁2006	-10.7904
▁Golden	-10.7908
▁Gill	-10.791
▁Bla	-10.791
▁lowest	-10.7917
▁53	-10.7917
pack	-10.7921
ille	-10.7923
▁gay	-10.7927
▁drawing	-10.7931
76	-10.7932
▁Angel	-10.7933
▁Barr	-10.7934
այ	-10.7937
▁tar	-10.7937
▁gathering	-10.7944
▁civilian	-10.7947
▁Sri	-10.7947
▁thrown	-10.7948
▁prohibit	-10.7957
▁Netherlands	-10.7957
▁universities	-10.7957
▁unprecedented	-10.7957
}	-10.7957
▁meanwhile	-10.7957
▁smartphone	-10.7957
▁loose	-10.7958
▁2026	-10.796
▁flash	-10.796
▁Kan	-10.7967
▁Make	-10.7967
NA	-10.797
▁hail	-10.797
▁tower	-10.7971
Jo	-10.7973
▁indeed	-10.7973
▁Ye	-10.7982
▁sole	-10.7984
source	-10.7986
▁Fair	-10.799
▁duo	-10.7993
▁packed	-10.7995
taking	-10.7997
▁luck	-10.8005
ego	-10.8007
▁Pol	-10.8007
▁addressed	-10.8015
▁Charlotte	-10.8017
▁trophy	-10.8017
▁Russell	-10.8017
▁advisor	-10.8017
▁blind	-10.8017
▁Development	-10.8018
▁kiss	-10.8018
▁Cost	-10.8019
▁Morgan	-10.8019
▁showcase	-10.8022
erie	-10.8026
▁sack	-10.803
▁string	-10.803
▁apologise	-10.8032
gun	-10.8036
▁150	-10.805
▁approached	-10.8052
gui	-10.8054
▁survived	-10.8055
▁52	-10.8058
▁panic	-10.8059
▁Cop	-10.806
▁thin	-10.8064
ography	-10.8073
▁cease	-10.8078
▁Murphy	-10.8078
▁Convention	-10.8078
▁conclusion	-10.8078
▁controversy	-10.8078
▁remarkable	-10.8078
▁absence	-10.8078
▁clothing	-10.8078
▁blend	-10.8079
▁Emily	-10.8079
▁cyber	-10.808
▁billionaire	-10.808
▁fault	-10.808
▁Which	-10.8081
ME	-10.8082
▁hub	-10.8084
▁attach	-10.8084
▁clinic	-10.8084
42	-10.8089
▁mode	-10.8091
▁hidden	-10.8091
▁Para	-10.8091
▁disruption	-10.8097
▁Lady	-10.8098
▁broadcaster	-10.8102
▁Farm	-10.8115
▁apparent	-10.8116
▁march	-10.8131
▁collaborat	-10.8131
▁Affairs	-10.814
▁Catholic	-10.814
▁ambassador	-10.814
▁demonstration	-10.814
▁economist	-10.814
▁eliminate	-10.814
▁preparation	-10.814
▁Dublin	-10.814
▁Robinson	-10.814
▁Business	-10.814
▁violate	-10.814
▁external	-10.814
▁unknown	-10.8146
▁Pay	-10.8147
▁musician	-10.8151
որ	-10.8164
▁consistently	-10.8164
profile	-10.8169
winning	-10.817
▁(19	-10.8171
▁king	-10.8171
եր	-10.8173
▁hack	-10.8174
▁Off	-10.8177
▁moon	-10.8178
▁Sol	-10.8179
▁parking	-10.8183
▁attending	-10.8186
▁politician	-10.8195
quest	-10.8196
գ	-10.8201
▁Atlantic	-10.8201
▁disappointed	-10.8201
▁Square	-10.8202
▁distinct	-10.8202
▁tap	-10.8203
▁brush	-10.8203
▁Crime	-10.8205
vit	-10.8206
other	-10.8212
▁lip	-10.8213
level	-10.8215
▁slowly	-10.8217
▁refer	-10.8217
▁complain	-10.8218
With	-10.8237
▁Dia	-10.8239
mail	-10.8242
▁attempting	-10.8253
▁Anna	-10.8258
▁democratic	-10.8264
▁necessarily	-10.8264
▁Clinton	-10.8264
▁funeral	-10.8264
▁Medical	-10.8264
▁brown	-10.8266
▁permit	-10.8273
ought	-10.8275
hill	-10.8279
▁stating	-10.8281
▁Cross	-10.829
wl	-10.8292
▁Sport	-10.8295
▁coaching	-10.83
burn	-10.8307
▁tear	-10.8315
▁guidance	-10.8326
▁supplies	-10.8326
▁Houthi	-10.8326
▁Austin	-10.8326
▁memories	-10.8326
▁cruise	-10.8326
▁folk	-10.8326
▁Coll	-10.8326
▁applied	-10.8326
▁Children	-10.8327
▁ethic	-10.833
▁tail	-10.833
▁parliamentary	-10.8331
▁foster	-10.8331
▁achievement	-10.8334
▁flooding	-10.8339
39	-10.8342
hir	-10.8354
piece	-10.8357
▁obtained	-10.8363
▁Row	-10.8363
=	-10.8366
▁origin	-10.8373
▁wh	-10.8375
▁entertain	-10.8385
▁Galaxy	-10.8389
▁province	-10.8389
▁ocean	-10.8389
▁eager	-10.8389
▁Sim	-10.8389
▁Garden	-10.8393
▁involvement	-10.8395
▁Speaker	-10.8397
▁Carr	-10.8398
▁Fred	-10.84
rian	-10.8403
▁Nation	-10.8403
▁sail	-10.8405
ole	-10.8405
▁Alan	-10.8406
▁CO	-10.8408
hn	-10.8412
EL	-10.8421
▁formerly	-10.8433
▁Later	-10.8438
58	-10.8439
▁Five	-10.8439
▁Elon	-10.8439
▁shi	-10.8441
▁Forest	-10.8445
▁cal	-10.8446
▁capabilities	-10.8452
▁extraordinary	-10.8452
▁overwhelming	-10.8452
▁rhetoric	-10.8452
▁tragedy	-10.8452
▁sample	-10.8452
▁Reddit	-10.8453
▁selected	-10.8454
▁coaches	-10.8454
▁successfully	-10.8456
word	-10.8457
▁invent	-10.8459
case	-10.8459
▁pure	-10.846
▁odd	-10.8463
▁Market	-10.8464
▁predicted	-10.8468
▁lend	-10.8469
▁Bear	-10.847
▁locked	-10.8475
▁Anne	-10.8478
Trump	-10.8484
▁audit	-10.8489
▁constitutional	-10.8492
▁strongly	-10.8492
▁hosting	-10.8495
will	-10.8498
udge	-10.8501
▁consult	-10.8502
▁Eli	-10.8505
06	-10.851
▁Maria	-10.8511
▁Philadelphia	-10.8516
▁promoting	-10.8516
▁wheel	-10.8516
▁Come	-10.8516
▁participants	-10.8519
▁Radio	-10.8519
▁Burn	-10.8524
▁2004	-10.8524
▁unveiled	-10.8539
▁criticized	-10.854
script	-10.8548
▁gate	-10.8554
▁deem	-10.8555
▁Have	-10.8556
▁wire	-10.8571
▁genocide	-10.858
▁liquid	-10.858
▁Jonathan	-10.858
▁disagree	-10.858
▁experiencing	-10.858
▁relevant	-10.858
▁survivor	-10.858
▁welfare	-10.858
▁tariffs	-10.858
▁Rohit	-10.858
▁nationwide	-10.8581
▁Fury	-10.8586
▁mandate	-10.8588
▁affair	-10.8589
▁offense	-10.8592
▁Mah	-10.8594
▁stance	-10.8597
▁striker	-10.8597
▁manufacturer	-10.86
dale	-10.8609
100	-10.8632
pass	-10.8632
54	-10.8633
agged	-10.8635
▁Kris	-10.8637
38	-10.8642
▁Kremlin	-10.8645
▁independence	-10.8645
▁premium	-10.8645
direct	-10.8645
▁kidnap	-10.8648
▁twin	-10.8652
▁anymore	-10.8654
▁stem	-10.8654
▁colleague	-10.8656
▁therapy	-10.8656
▁Aug	-10.8657
▁hip	-10.8657
quo	-10.8662
▁investigate	-10.8668
▁acknowledge	-10.8668
▁Award	-10.8676
▁rear	-10.8681
▁prisoners	-10.8688
▁span	-10.8691
▁maintained	-10.8694
▁defending	-10.8695
=\"	-10.8709
▁afraid	-10.871
▁celebrating	-10.871
▁helicopter	-10.871
▁satellite	-10.871
▁license	-10.871
▁Science	-10.871
▁fossil	-10.871
▁respectively	-10.871
▁smell	-10.871
▁shoppers	-10.871
▁Crown	-10.8711
▁basically	-10.8713
▁efficient	-10.8715
▁repeat	-10.8721
▁Glen	-10.8722
▁hundred	-10.8724
▁painful	-10.8725
CO	-10.8725
▁examine	-10.8729
▁momentum	-10.8735
▁chi	-10.8748
▁gig	-10.8751
▁ruin	-10.8755
▁indicated	-10.8757
stand	-10.8769
▁realised	-10.877
mitted	-10.8771
ը	-10.8775
▁Barcelona	-10.8775
▁Mexican	-10.8775
▁frustration	-10.8775
▁venture	-10.8775
▁Scot	-10.8775
▁extent	-10.8775
▁charm	-10.8776
▁NBC	-10.8779
▁historical	-10.8781
▁gear	-10.8782
▁Poland	-10.8788
cie	-10.8792
▁attitude	-10.8798
▁cable	-10.8805
▁scared	-10.8823
fil	-10.8836
▁Jose	-10.8839
▁badly	-10.8841
▁Official	-10.8841
▁smash	-10.8841
▁Qatar	-10.8841
▁intercept	-10.8841
▁requirements	-10.8841
▁Combs	-10.8842
▁$8	-10.8842
▁instant	-10.8842
▁lakh	-10.8845
▁Navy	-10.8846
▁rip	-10.8847
▁bur	-10.8848
▁betting	-10.8855
▁Dave	-10.8857
▁survive	-10.8866
▁bro	-10.8872
Just	-10.8875
▁regulator	-10.8886
▁fixed	-10.8887
▁gut	-10.8889
▁crossed	-10.8898
▁Bha	-10.8903
hil	-10.8904
▁breakfast	-10.8907
▁swift	-10.8907
▁heritage	-10.8907
▁pride	-10.8907
▁Command	-10.8908
▁CB	-10.8909
▁Stock	-10.8911
▁sheet	-10.8911
NS	-10.8924
▁cleaning	-10.8925
▁boom	-10.8934
▁grip	-10.8935
89	-10.8936
▁Kra	-10.8941
front	-10.8947
▁addressing	-10.8956
▁except	-10.8958
▁grab	-10.8966
▁Vietnam	-10.8974
▁interior	-10.8974
▁romance	-10.8974
▁duties	-10.8975
▁mood	-10.8979
▁Mother	-10.8984
▁register	-10.8987
▁chest	-10.8989
tress	-10.8997
▁midfielder	-10.9004
▁strange	-10.9007
Israel	-10.9008
Fi	-10.901
▁probe	-10.9013
▁deeper	-10.9014
▁begun	-10.9014
▁decor	-10.9015
▁Mir	-10.9028
▁£10	-10.9039
▁caution	-10.9041
▁Oregon	-10.9041
▁inspiration	-10.9041
▁nervous	-10.9041
▁practical	-10.9041
▁sponsor	-10.9041
▁emerging	-10.9041
▁complicated	-10.9041
▁Cameron	-10.9041
▁babies	-10.9041
▁backlash	-10.9041
▁drove	-10.9041
▁criticised	-10.9042
▁distress	-10.9043
▁salary	-10.9044
▁bullet	-10.9046
▁hill	-10.905
▁shame	-10.9053
▁2005	-10.9054
▁inject	-10.9062
break	-10.9064
▁eighth	-10.9068
stage	-10.907
▁pink	-10.907
track	-10.9073
▁cheaper	-10.9075
ifying	-10.9076
▁threaten	-10.9079
32	-10.9084
gni	-10.909
▁Lisa	-10.9095
▁passes	-10.9096
▁seventh	-10.9101
Star	-10.9102
▁bitter	-10.9104
▁51	-10.9107
â	-10.9108
▁Economic	-10.9108
▁association	-10.9108
▁encouraging	-10.9108
▁extension	-10.9108
▁arguing	-10.9108
ել	-10.9109
host	-10.911
▁residential	-10.911
▁ranked	-10.9112
▁Doctor	-10.9112
▁RT	-10.9113
▁depart	-10.9114
▁Jess	-10.9117
▁2007	-10.9117
▁Sel	-10.9119
▁owe	-10.9126
▁retire	-10.9131
▁rat	-10.9133
▁Care	-10.9134
▁shall	-10.9144
▁manner	-10.9147
▁Main	-10.9149
▁rang	-10.9151
▁absolute	-10.9153
▁Liz	-10.9154
brow	-10.9158
bound	-10.916
▁Birmingham	-10.9176
▁Christopher	-10.9176
▁compensation	-10.9176
▁indictment	-10.9176
▁scenario	-10.9176
▁technique	-10.9176
▁deficit	-10.9176
▁electronic	-10.9176
▁unfold	-10.9176
▁steel	-10.9177
▁Voice	-10.9178
▁Country	-10.9178
▁suggestion	-10.9179
▁taught	-10.9179
▁slice	-10.9179
▁Kiev	-10.918
▁establishment	-10.9183
▁Roger	-10.919
▁Boo	-10.919
▁Palm	-10.9195
▁compar	-10.9198
▁convinced	-10.9204
▁Mali	-10.9208
▁deployed	-10.9208
▁tape	-10.9214
▁publication	-10.9214
▁Grant	-10.9214
▁equally	-10.9219
▁stable	-10.9222
jan	-10.9227
elli	-10.9229
▁DC	-10.9234
000,"	-10.9235
▁commit	-10.9235
▁Rich	-10.9244
▁Administration	-10.9245
▁Hamilton	-10.9245
▁Tottenham	-10.9245
▁fabric	-10.9245
▁pregnancy	-10.9245
▁sensation	-10.9245
▁substance	-10.9245
▁transgender	-10.9245
▁£9	-10.9245
▁racist	-10.9245
▁Samsung	-10.9245
▁Next	-10.9245
▁burden	-10.9246
▁normally	-10.9246
▁Tommy	-10.9247
▁Everyone	-10.9248
▁Border	-10.9249
▁Such	-10.9253
▁bone	-10.9258
▁undermine	-10.926
▁commander	-10.9262
▁perfectly	-10.9273
▁Tel	-10.9277
▁mock	-10.9279
▁passion	-10.9282
▁lineup	-10.9282
▁cre	-10.9287
▁Roy	-10.9293
about	-10.9295
▁anyway	-10.9299
▁execut	-10.93
▁villa	-10.9303
▁Holly	-10.9305
▁250	-10.931
▁NASA	-10.9314
▁Civil	-10.9314
▁bargain	-10.9314
▁Soviet	-10.9314
▁crypto	-10.9314
▁aftermath	-10.9314
▁Graham	-10.9317
▁Maryland	-10.9317
▁rebuild	-10.932
▁clock	-10.9323
▁workplace	-10.9326
bby	-10.9327
▁stolen	-10.9327
OL	-10.9333
MC	-10.9344
▁brave	-10.9345
backed	-10.9347
▁personally	-10.9348
▁portion	-10.9349
rock	-10.9349
People	-10.9351
▁sustained	-10.9352
▁lap	-10.9354
▁Dor	-10.9356
box	-10.9356
▁classes	-10.9361
just	-10.9375
03	-10.9379
▁demanding	-10.9379
▁Francis	-10.938
▁pleased	-10.9381
ղ	-10.9383
▁Hampshire	-10.9383
▁Thompson	-10.9383
▁pollution	-10.9383
▁sentiment	-10.9383
▁urban	-10.9383
▁Brexit	-10.9383
▁Field	-10.9383
▁exceed	-10.9383
▁bump	-10.9385
Well	-10.9387
▁worldwide	-10.9389
▁dirt	-10.9396
▁Kur	-10.94
▁alter	-10.9405
wen	-10.9408
▁singing	-10.941
▁carefully	-10.941
▁vowed	-10.9419
▁Kane	-10.9422
▁resist	-10.9424
▁58	-10.9429
American	-10.943
▁constant	-10.943
ground	-10.944
▁teaching	-10.9442
▁soap	-10.9448
flow	-10.9449
▁wounded	-10.9453
▁accommodation	-10.9453
▁circle	-10.9453
▁dialogue	-10.9453
▁enormous	-10.9453
▁mirror	-10.9453
▁scrutiny	-10.9453
▁supplement	-10.9453
▁greet	-10.9453
▁creator	-10.9454
ին	-10.9455
▁wrap	-10.9456
▁dropping	-10.9456
▁membership	-10.946
hara	-10.946
▁physically	-10.9461
▁Pacific	-10.9466
aire	-10.9467
▁finishing	-10.9473
96	-10.9479
▁beaches	-10.9484
▁Moon	-10.9497
▁tro	-10.9498
▁jailed	-10.9509
▁secur	-10.951
▁JD	-10.9511
▁Gray	-10.9516
▁educat	-10.9518
▁triggered	-10.952
▁oversee	-10.9523
▁Oklahoma	-10.9524
▁airstrike	-10.9524
▁excitement	-10.9524
▁displaced	-10.9524
▁visual	-10.9524
▁interpret	-10.9524
▁delighted	-10.9524
▁Joseph	-10.9525
▁Transport	-10.9525
▁medicine	-10.9525
41	-10.9525
▁Short	-10.9525
▁baseball	-10.9526
▁Tyson	-10.9529
▁withdrawal	-10.9541
án	-10.9545
▁Lions	-10.9545
▁personality	-10.9546
▁comeback	-10.9546
▁lane	-10.9549
▁beaten	-10.9549
third	-10.9563
▁grid	-10.9564
paid	-10.9584
▁Austria	-10.9594
▁comprehensive	-10.9594
▁negotiate	-10.9594
▁impressed	-10.9594
▁timing	-10.9595
▁Defence	-10.9595
▁grass	-10.9596
▁icon	-10.9596
component	-10.9598
34	-10.96
▁tired	-10.96
▁drag	-10.961
▁fence	-10.9611
found	-10.9614
▁expression	-10.9614
▁handful	-10.9615
leading	-10.9626
▁Erik	-10.9628
▁bow	-10.9634
bility	-10.9637
▁je	-10.9637
▁57	-10.9645
▁reflected	-10.9649
▁punish	-10.9662
▁introduce	-10.9665
▁Treasury	-10.9666
▁drill	-10.9666
▁stroke	-10.9666
▁racial	-10.9666
▁Nichol	-10.9667
▁Kyle	-10.9667
▁weird	-10.967
▁echo	-10.9671
Con	-10.9677
▁Light	-10.9681
▁Fall	-10.9681
▁Sid	-10.9687
▁investing	-10.9689
ova	-10.9692
▁oldest	-10.9693
▁Way	-10.9695
▁runner	-10.9698
▁bosses	-10.9702
uous	-10.9702
▁revealing	-10.9706
▁Fel	-10.9708
▁governing	-10.9714
▁consideration	-10.9715
▁requested	-10.9719
▁intend	-10.9724
▁attribute	-10.9732
97	-10.9736
ccompanied	-10.9738
▁judgment	-10.9738
▁residence	-10.9738
▁Deputy	-10.9738
▁Detroit	-10.9738
▁Rahul	-10.9738
▁sensor	-10.9738
▁gentle	-10.9738
▁urging	-10.9738
▁Jacob	-10.9738
▁overseas	-10.9738
▁Aaron	-10.9738
▁Sometimes	-10.9738
▁resistance	-10.974
▁Philip	-10.974
▁diverse	-10.974
▁Amy	-10.9741
▁threatening	-10.9749
▁Tech	-10.9754
▁imposed	-10.9765
▁Beat	-10.9766
▁bloc	-10.977
▁Inside	-10.9777
▁Est	-10.9778
After	-10.9778
▁construct	-10.9804
change	-10.9807
FirstPublished	-10.981
è	-10.981
▁accurate	-10.981
▁calendar	-10.981
▁instrument	-10.981
▁jacket	-10.981
▁technologies	-10.981
▁Simpson	-10.981
▁depth	-10.9811
cell	-10.9812
cluding	-10.9815
▁joked	-10.9815
▁visible	-10.9815
hole	-10.9817
▁Hong	-10.9827
▁witnesses	-10.9833
▁Roll	-10.9834
▁MA	-10.9835
▁stir	-10.9839
Yeah	-10.9839
▁decent	-10.9839
**	-10.9839
illo	-10.9842
appropriate	-10.9851
security	-10.9851
screen	-10.9851
▁Anti	-10.986
▁underway	-10.9862
ature	-10.9866
wind	-10.9879
▁mainly	-10.9879
▁yield	-10.9883
▁Safety	-10.9883
▁Westminster	-10.9883
▁discrimination	-10.9883
▁Support	-10.9883
▁Gabriel	-10.9883
▁festive	-10.9883
▁promising	-10.9883
▁ancient	-10.9883
▁valid	-10.9883
▁transaction	-10.9884
▁empower	-10.9885
▁lobby	-10.9885
▁slot	-10.9886
▁reminder	-10.9892
▁globally	-10.9894
▁2030	-10.9895
▁popularity	-10.9902
▁condemn	-10.9902
▁Tur	-10.9905
astic	-10.9909
▁reign	-10.9914
▁Chu	-10.9916
▁bold	-10.9919
earn	-10.9924
▁tune	-10.9939
▁influencer	-10.9941
▁expanded	-10.9948
▁loyal	-10.9954
▁careful	-10.9955
▁exhaust	-10.9957
ü	-10.9957
▁Jennifer	-10.9957
▁Nevada	-10.9957
▁exposure	-10.9957
▁flavour	-10.9957
▁taxpayer	-10.9957
▁slammed	-10.9957
▁licence	-10.9957
▁mutual	-10.9957
▁Ocean	-10.9957
▁medium	-10.9957
▁comparison	-10.9957
ում	-10.9957
▁fortune	-10.9957
▁auction	-10.9958
▁Yemen	-10.9958
▁Brother	-10.9959
▁Summer	-10.9959
▁Farage	-10.9961
▁Arena	-10.9961
▁$9	-10.9963
▁1960	-10.9965
▁Laura	-10.9966
▁moderate	-10.9967
▁Hur	-10.9972
▁lady	-10.9972
▁cake	-10.9977
pay	-10.9982
▁solo	-10.9992
▁Poll	-10.9993
▁hired	-11
▁FC	-11.0004
▁factory	-11.0005
▁sudden	-11.0008
▁earning	-11.0017
▁collapsed	-11.0018
▁hopeful	-11.0023
▁tick	-11.0024
▁regulation	-11.0025
▁pad	-11.0027
guardian	-11.0029
▁casual	-11.003
▁ambitious	-11.0031
▁robust	-11.0031
▁Hindu	-11.0031
▁Welsh	-11.0031
▁mystery	-11.0031
▁carpet	-11.0031
▁Jimmy	-11.0032
▁click	-11.0032
▁proceedings	-11.0034
▁Bow	-11.004
▁desk	-11.0044
▁Wright	-11.0046
suit	-11.0048
▁fairly	-11.0056
▁chase	-11.0066
▁Ji	-11.0067
▁Butler	-11.0083
▁Xi	-11.0101
▁destruction	-11.0106
▁junior	-11.0106
▁privilege	-11.0106
▁tunnel	-11.0106
▁CNBC	-11.0106
▁unfair	-11.0106
▁sweat	-11.0106
▁irre	-11.0107
▁dump	-11.0107
▁burning	-11.0107
▁Kelce	-11.0109
▁passport	-11.011
▁Know	-11.0111
▁neuro	-11.0111
▁72	-11.0112
▁regardless	-11.0113
▁Neil	-11.0114
flat	-11.0114
▁Kong	-11.0119
▁intent	-11.012
▁delayed	-11.0122
▁Seven	-11.0123
▁Corp	-11.0129
▁monitoring	-11.0133
▁Commissioner	-11.0138
▁upper	-11.0141
Bo	-11.0156
▁tourist	-11.0164
▁Pur	-11.0166
▁Dean	-11.0167
▁jumped	-11.0174
▁enforce	-11.0177
պ	-11.0181
▁Alabama	-11.0181
▁assembly	-11.0181
▁revolution	-11.0181
▁Kingdom	-11.0183
▁referee	-11.0183
▁buzz	-11.0183
▁firing	-11.0185
▁Julia	-11.0188
▁edition	-11.019
▁mob	-11.0192
▁hostage	-11.0197
▁Say	-11.0199
▁everyday	-11.02
59	-11.0206
▁pit	-11.0214
DP	-11.0223
lick	-11.0226
▁Key	-11.0231
check	-11.0233
33	-11.0235
Why	-11.0237
▁Lang	-11.0245
Sha	-11.0251
deep	-11.0251
temp	-11.0256
բ	-11.0256
ք	-11.0256
▁integrity	-11.0256
▁vegetable	-11.0256
▁Ahmed	-11.0256
▁CCTV	-11.0256
▁deliberate	-11.0256
▁inaugura	-11.0256
▁cousin	-11.0257
▁Greek	-11.0257
▁vocal	-11.0258
▁trafficking	-11.0259
▁orange	-11.026
▁posed	-11.0262
▁interim	-11.0264
▁rebound	-11.0265
▁Flor	-11.0278
▁dust	-11.0284
▁divided	-11.0285
▁generate	-11.0293
shirt	-11.0304
46	-11.0324
▁Conference	-11.0333
▁LGBTQ	-11.0333
▁Professor	-11.0333
▁Wimbledon	-11.0333
▁engaging	-11.0333
▁equivalent	-11.0333
▁resilience	-11.0333
▁cruel	-11.0333
▁innocent	-11.0333
▁drain	-11.0333
▁audio	-11.0333
▁Given	-11.0333
▁uncertainty	-11.0335
▁Ronald	-11.0335
▁cancelled	-11.0336
held	-11.0336
▁throwing	-11.0337
▁Express	-11.0337
▁accessible	-11.0339
▁burst	-11.0342
▁execution	-11.0344
▁outbreak	-11.035
▁rapidly	-11.0354
▁boil	-11.0356
▁accountable	-11.0363
▁ignore	-11.0368
▁attraction	-11.037
craft	-11.038
▁Syrian	-11.0389
02	-11.0401
tech	-11.0406
isi	-11.0407
nik	-11.0407
▁navigate	-11.0408
▁DeSantis	-11.041
▁entrance	-11.041
▁nonprofit	-11.041
▁Capital	-11.041
▁Nicola	-11.041
▁Airlines	-11.041
▁tan	-11.0412
▁afterwards	-11.0413
▁Norway	-11.0415
▁metres	-11.0417
▁teach	-11.0424
title	-11.0429
▁earth	-11.0431
▁Cher	-11.0432
solve	-11.0434
▁+	-11.0442
▁mor	-11.0446
▁youngest	-11.0448
▁organised	-11.045
▁Carol	-11.0453
▁collected	-11.0458
▁2002	-11.0468
61	-11.0472
▁2001	-11.0478
▁Argentina	-11.0487
▁Authority	-11.0487
▁Executive	-11.0487
▁Mohammed	-11.0487
▁Venezuela	-11.0487
▁anonymous	-11.0487
▁approximately	-11.0487
▁disclose	-11.0488
▁breed	-11.0489
▁Diego	-11.0489
ological	-11.0489
▁Craig	-11.0489
▁priorities	-11.0489
▁Talk	-11.049
▁1997	-11.0491
▁ranking	-11.0494
▁theater	-11.0498
▁fate	-11.0504
▁Rio	-11.0506
▁toxic	-11.0511
▁witnessed	-11.0517
▁reasonable	-11.0524
▁sexually	-11.0526
▁script	-11.0527
▁tries	-11.0527
While	-11.0533
ñ	-11.0535
▁Much	-11.0538
grade	-11.0539
ounce	-11.0544
▁unlike	-11.0562
think	-11.0565
▁damaging	-11.0565
▁disappointing	-11.0565
▁hurricane	-11.0565
▁suspicion	-11.0565
▁Management	-11.0565
▁Dubai	-11.0565
▁Gordon	-11.0565
▁memoir	-11.0565
▁robot	-11.0567
▁Camp	-11.0571
▁batting	-11.0573
▁illegally	-11.0573
▁minority	-11.0573
▁invested	-11.0574
▁geo	-11.0578
last	-11.0583
▁controlled	-11.0584
▁crop	-11.059
▁fri	-11.0592
▁62	-11.0598
▁Dog	-11.0601
eep	-11.0605
▁shade	-11.0606
▁flip	-11.0606
▁generated	-11.0609
$	-11.0609
▁investigated	-11.0615
▁pray	-11.0616
guard	-11.0617
left	-11.0625
▁lone	-11.0627
▁Barry	-11.0628
Unfortunately	-11.0644
▁Azerbaijan	-11.0644
▁Lebanese	-11.0644
▁Telegram	-11.0644
▁authentic	-11.0644
▁explicit	-11.0644
ú	-11.0644
▁decrease	-11.0644
▁chapter	-11.0644
▁crush	-11.0646
▁fiction	-11.0647
▁attendance	-11.065
▁Knight	-11.0651
▁trainer	-11.0652
▁advise	-11.0655
▁adaptation	-11.0657
▁հ	-11.0659
▁56	-11.0663
ridge	-11.0679
▁hire	-11.0681
▁Find	-11.0685
▁Vol	-11.0692
▁Ever	-11.0693
▁Thi	-11.0703
▁formula	-11.0706
▁Narendra	-11.0723
▁immunity	-11.0723
▁neutral	-11.0723
▁triumph	-11.0723
▁Leicester	-11.0723
▁temple	-11.0723
▁Eagle	-11.0724
▁chamber	-11.0725
borough	-11.0725
▁Pete	-11.0725
▁Tower	-11.0728
quality	-11.0729
▁cheat	-11.0736
▁grabb	-11.074
▁Staff	-11.0742
▁NY	-11.0747
04	-11.0748
looking	-11.0758
heat	-11.076
▁Rick	-11.0766
SU	-11.0768
▁updated	-11.0776
▁Kill	-11.0778
▁boxes	-11.0787
true	-11.0795
▁Turkish	-11.0803
▁participation	-11.0803
▁Abbott	-11.0803
▁Stewart	-11.0803
▁Sussex	-11.0803
▁centuries	-11.0803
▁choosing	-11.0803
▁courage	-11.0803
▁protein	-11.0804
▁IPL	-11.0804
▁laptop	-11.0804
▁Marine	-11.0805
▁Place	-11.0805
assi	-11.0813
▁Nazi	-11.0815
▁interaction	-11.0821
▁cow	-11.083
▁proof	-11.0839
▁defended	-11.0842
▁bath	-11.0843
▁observed	-11.0844
position	-11.0845
▁observe	-11.0846
▁Fac	-11.0847
▁fold	-11.0852
▁Shaw	-11.0862
▁guaranteed	-11.0865
fact	-11.0868
▁recognize	-11.0869
▁nail	-11.0871
Sullivan	-11.0884
▁Cabinet	-11.0884
▁discipline	-11.0884
▁eclipse	-11.0884
▁statistic	-11.0884
▁ethnic	-11.0884
▁trillion	-11.0884
▁Bureau	-11.0884
▁streak	-11.0884
▁intimate	-11.0884
▁Student	-11.0885
▁lockdown	-11.0885
▁glad	-11.0885
▁distribution	-11.0885
▁consent	-11.0886
▁classified	-11.0887
▁Stu	-11.0888
▁GDP	-11.0888
▁submitted	-11.0888
▁somewhat	-11.0891
▁tag	-11.0895
▁59	-11.0898
▁Pass	-11.09
▁dining	-11.0902
▁exception	-11.0904
bank	-11.0908
▁citizen	-11.0911
▁10%	-11.0915
shore	-11.0923
▁2,000	-11.0924
quarter	-11.0933
century	-11.0933
▁entrepreneur	-11.0938
▁meaningful	-11.0938
▁frequent	-11.0942
call	-11.0945
▁makeup	-11.0946
logy	-11.0953
62	-11.0956
▁enthusiast	-11.0959
▁61	-11.0963
Let	-11.0965
hl	-11.0965
▁Financial	-11.0965
▁compromise	-11.0965
▁diversity	-11.0965
▁addiction	-11.0965
▁bronze	-11.0965
▁crisp	-11.0965
▁comedian	-11.0966
▁McDonald	-11.0966
▁distract	-11.0967
▁Travel	-11.0967
▁Travis	-11.0968
▁pepper	-11.0968
▁Michelle	-11.097
▁DNA	-11.097
▁spotlight	-11.0971
▁rapper	-11.0972
▁Again	-11.0976
▁Duke	-11.098
▁Perry	-11.0986
▁nominated	-11.099
▁poet	-11.0999
▁Bush	-11.1012
▁gather	-11.1013
president	-11.1015
▁lifetime	-11.1024
chan	-11.1026
safe	-11.1029
▁mega	-11.1029
▁Aberdeen	-11.1047
▁Baltimore	-11.1047
▁accomplish	-11.1047
▁explosive	-11.1047
▁surveillance	-11.1047
▁removal	-11.1047
▁uniform	-11.1047
▁autumn	-11.1047
▁Swiss	-11.1047
▁fierce	-11.1047
▁admission	-11.1049
▁wrapped	-11.1049
▁depict	-11.1049
▁woke	-11.105
▁tenure	-11.1053
▁resignation	-11.1053
▁attractive	-11.1056
▁dancer	-11.1059
▁2003	-11.106
▁Kin	-11.1063
▁Steel	-11.1067
▁shooter	-11.107
▁hyp	-11.1073
▁vary	-11.1075
▁commissioner	-11.1076
party	-11.1076
▁migrant	-11.1083
▁insider	-11.1089
▁praise	-11.1089
▁Feb	-11.1089
build	-11.1091
which	-11.1098
watch	-11.1115
beat	-11.1122
▁hyper	-11.1125
▁tale	-11.1128
▁Caribbean	-11.113
▁arrangement	-11.113
▁column	-11.113
▁depression	-11.113
▁racism	-11.113
▁teeth	-11.113
▁Amanda	-11.113
▁Campbell	-11.113
▁Oliver	-11.1131
▁spray	-11.1133
▁manifesto	-11.1135
▁dubb	-11.1136
▁blog	-11.1137
▁Dha	-11.1138
\">	-11.1141
▁Amb	-11.1146
▁supportive	-11.1147
keeper	-11.1151
▁Easter	-11.1155
▁inspect	-11.1157
▁PC	-11.1167
▁tension	-11.117
▁NC	-11.1172
▁refuse	-11.1172
▁bound	-11.1175
▁stranger	-11.1176
▁porn	-11.1177
EP	-11.1186
acious	-11.1187
▁organise	-11.119
▁condemned	-11.1191
▁Jar	-11.1193
▁useful	-11.1199
▁complained	-11.1203
▁clinical	-11.1206
▁$50	-11.1207
▁Illinois	-11.1213
▁competitor	-11.1213
▁describing	-11.1213
▁prosecute	-11.1213
▁supplier	-11.1213
▁Lawrence	-11.1213
▁escalate	-11.1213
▁dancing	-11.1213
▁thorough	-11.1213
▁casino	-11.1213
▁Yorkshire	-11.1214
▁goalkeeper	-11.1215
Date	-11.1215
▁recognised	-11.1217
▁Keep	-11.1217
▁punishment	-11.1218
▁awful	-11.1219
▁sink	-11.122
▁loving	-11.1223
▁foul	-11.1226
▁1999	-11.1228
31	-11.1233
kill	-11.124
friend	-11.124
▁lake	-11.1243
▁66	-11.1255
stream	-11.1265
▁Qui	-11.1272
93	-11.1273
national	-11.1277
▁rapid	-11.1279
€	-11.1284
▁edit	-11.1285
▁120	-11.129
▁celebrities	-11.1297
▁grandmother	-11.1297
▁primarily	-11.1297
▁reception	-11.1297
▁detention	-11.1297
▁THE	-11.1297
▁chancellor	-11.1297
▁Sheriff	-11.1297
▁soccer	-11.1298
▁adventure	-11.1298
▁safeguard	-11.1299
Please	-11.1299
▁labour	-11.1299
▁stepping	-11.1304
▁Def	-11.1308
▁vibe	-11.1309
▁Everything	-11.1311
▁mal	-11.1313
▁colon	-11.1313
who	-11.1319
▁letting	-11.1324
▁1.5	-11.1335
Connell	-11.1349
billion	-11.135
second	-11.1351
▁bake	-11.1352
▁Wade	-11.1356
▁teenage	-11.1357
▁endless	-11.1361
good	-11.1365
▁dash	-11.1376
▁Taliban	-11.1382
▁Verstappen	-11.1382
▁incumbent	-11.1382
▁industries	-11.1382
▁stabbed	-11.1382
▁threshold	-11.1382
▁generous	-11.1382
▁leather	-11.1382
icul	-11.1382
▁steady	-11.1382
▁headquarters	-11.1382
▁steam	-11.1383
▁counterpart	-11.1383
▁compound	-11.1385
▁preserve	-11.1385
▁Finland	-11.1386
▁juice	-11.1386
▁hook	-11.1387
▁Molly	-11.1389
▁loom	-11.1393
▁melt	-11.1395
▁anybody	-11.1395
▁somehow	-11.1398
▁64	-11.14
▁belt	-11.1401
▁Howard	-11.1401
▁Money	-11.1402
▁Story	-11.1403
▁announc	-11.1407
▁Metro	-11.1408
▁resigned	-11.1432
▁athlete	-11.1432
connect	-11.1436
▁swap	-11.144
▁typical	-11.1444
▁processes	-11.1445
▁proven	-11.1451
kha	-11.1452
▁GB	-11.1459
▁85	-11.1461
▁Society	-11.1468
▁awkward	-11.1468
▁frozen	-11.1468
▁Philippine	-11.1468
▁Portugal	-11.1468
▁amendment	-11.1468
▁scholar	-11.1468
▁guitar	-11.1468
▁retaliat	-11.1468
home	-11.1468
▁thus	-11.1469
▁poison	-11.1469
▁flew	-11.1471
▁consultant	-11.1472
master	-11.1474
▁Baker	-11.1478
▁contestant	-11.1479
▁Kel	-11.148
▁trailer	-11.149
▁outstanding	-11.1495
▁Eastern	-11.1496
Connor	-11.1505
▁pig	-11.1514
Thank	-11.1521
▁educational	-11.1531
fish	-11.1548
▁submit	-11.1551
▁Zu	-11.1552
▁MailOnline	-11.1554
▁drought	-11.1554
▁horrific	-11.1554
▁Nottingham	-11.1554
▁potato	-11.1554
▁yeah	-11.1554
▁Reserve	-11.1554
▁Lanka	-11.1554
▁Mountain	-11.1555
▁torture	-11.1555
▁profound	-11.1557
▁patch	-11.1557
▁Aston	-11.1561
walk	-11.1571
▁dominated	-11.1581
▁Trade	-11.1586
▁Whi	-11.1588
▁Turn	-11.1589
▁lengthy	-11.1594
▁orbit	-11.1594
▁wealthy	-11.1597
▁allege	-11.16
▁tin	-11.1615
▁Chancellor	-11.1641
▁Swedish	-11.1641
▁concrete	-11.1641
▁immense	-11.1641
▁scientific	-11.1641
▁uncomfortable	-11.1641
▁reopen	-11.1641
▁silent	-11.1641
▁reckon	-11.1641
▁Munich	-11.1641
▁Denmark	-11.1642
▁governance	-11.1642
▁Theatre	-11.1643
▁forgive	-11.1643
▁Program	-11.1644
▁Everton	-11.1644
▁renewable	-11.1648
Pro	-11.1649
▁Billy	-11.165
▁Deep	-11.1652
▁Things	-11.1655
▁container	-11.1675
▁oppose	-11.1688
▁Zi	-11.1703
▁investor	-11.1712
UR	-11.1713
▁triple	-11.1714
▁Jazeera	-11.1728
▁glimpse	-11.1728
▁transparency	-11.1728
▁Environment	-11.1728
▁Company	-11.1729
▁Network	-11.1729
▁arriving	-11.1729
▁harsh	-11.1729
▁Bayern	-11.1729
▁overcome	-11.1729
▁carrier	-11.1729
▁concede	-11.173
▁framework	-11.173
▁harassment	-11.1731
▁Sound	-11.1731
▁existence	-11.1732
▁longest	-11.1735
▁detective	-11.1735
▁alien	-11.1735
▁weaken	-11.174
▁naturally	-11.1746
▁subsequently	-11.1751
▁spare	-11.1753
▁discovery	-11.1762
▁oust	-11.1766
▁shore	-11.1767
▁Rice	-11.1769
pool	-11.177
▁lab	-11.177
hav	-11.1773
▁declare	-11.1776
▁invite	-11.178
▁premier	-11.1782
▁pile	-11.1792
▁coup	-11.1795
market	-11.1795
▁dual	-11.1801
▁dollar	-11.181
•	-11.1817
▁Community	-11.1817
▁communicate	-11.1817
▁refresh	-11.1817
▁Climate	-11.1817
▁Oxford	-11.1817
▁phrase	-11.1817
▁Greece	-11.1817
▁NSW	-11.1817
▁absent	-11.1817
▁Record	-11.1817
▁euro	-11.1817
▁Finance	-11.182
▁Albert	-11.1824
▁courtroom	-11.1824
encies	-11.1829
spiring	-11.1832
▁mentor	-11.1834
▁Pop	-11.1834
▁Patel	-11.1835
▁plain	-11.1837
▁anticipated	-11.184
Now	-11.1849
public	-11.1871
AFP	-11.1874
trust	-11.1875
space	-11.1877
▁Dol	-11.1899
wash	-11.1901
▁Child	-11.1906
լ	-11.1906
▁Amendment	-11.1906
▁Kejriwal	-11.1906
▁exploring	-11.1906
▁pursuit	-11.1906
▁subscription	-11.1906
▁athletic	-11.1906
▁rookie	-11.1906
▁Brighton	-11.1906
▁bureau	-11.1906
▁Joshua	-11.1906
▁notorious	-11.1906
▁Division	-11.1909
▁firearm	-11.1909
▁Carlos	-11.191
▁Brazilian	-11.191
▁occasionally	-11.1913
▁youngster	-11.1934
▁bout	-11.1943
▁DJ	-11.1943
▁Player	-11.1944
▁Clarke	-11.1963
▁subsequent	-11.1973
▁closest	-11.1977
▁spike	-11.1977
▁feat	-11.1979
▁thousand	-11.198
▁whil	-11.1983
▁Through	-11.1994
▁operational	-11.1995
▁Indigenous	-11.1996
▁Tehran	-11.1996
▁inclusion	-11.1996
▁legislative	-11.1996
▁producing	-11.1996
▁Kohli	-11.1996
▁entitled	-11.1996
▁Grammy	-11.1996
▁bunch	-11.1996
▁premise	-11.1997
▁whisk	-11.1997
▁lung	-11.2004
ngressional	-11.2006
▁hush	-11.2012
▁rice	-11.2022
Line	-11.2032
rou	-11.2047
logical	-11.2048
▁Mick	-11.2063
ppe	-11.2087
▁exceptional	-11.2087
▁Friend	-11.2087
▁Margaret	-11.2087
▁absorb	-11.2087
▁ambulance	-11.2087
▁bizarre	-11.2087
▁perception	-11.2087
▁spectacular	-11.2087
▁suspension	-11.2087
▁treasure	-11.2087
▁Blinken	-11.2087
▁proportion	-11.2087
▁Woman	-11.2087
▁nightmare	-11.2087
▁blaze	-11.2088
▁fixture	-11.2089
▁trapped	-11.2092
▁commentator	-11.2096
▁grey	-11.2096
▁fulfill	-11.2102
▁Mai	-11.2105
▁travelled	-11.2106
▁Juan	-11.2111
▁advertise	-11.2112
▁Turner	-11.2115
▁rack	-11.2116
▁conscious	-11.2118
▁obtain	-11.2125
րա	-11.2131
▁successor	-11.214
child	-11.2147
▁81	-11.215
▁recognized	-11.215
firm	-11.2156
▁briefly	-11.2163
▁Math	-11.2168
ö	-11.2179
▁stomach	-11.2179
▁Cleveland	-11.2179
▁efficiency	-11.2179
▁encampment	-11.2179
▁penalties	-11.2179
▁predecessor	-11.2179
▁unemployment	-11.2179
▁UCLA	-11.2179
▁Hannah	-11.2179
▁elderly	-11.2179
▁precise	-11.2179
▁worn	-11.2179
▁Gareth	-11.2179
▁Control	-11.2179
▁diplomat	-11.2181
▁wipe	-11.2181
▁leap	-11.2183
▁Auto	-11.2184
▁100%	-11.219
▁modest	-11.2192
▁Leeds	-11.2221
▁till	-11.2221
▁prediction	-11.2222
▁76	-11.2226
First	-11.2239
author	-11.2239
▁actively	-11.2248
▁ultimate	-11.2248
New	-11.2249
▁Lau	-11.226
Yes	-11.2265
▁psycho	-11.2271
▁illustrat	-11.2272
▁achieving	-11.2272
▁antisemitism	-11.2272
▁bacteria	-11.2272
▁cocktail	-11.2272
▁delicious	-11.2272
▁distribute	-11.2272
▁evolve	-11.2272
▁library	-11.2272
▁ordinary	-11.2272
▁rumours	-11.2272
▁survival	-11.2272
▁vibrant	-11.2272
▁Antonio	-11.2272
▁Bristol	-11.2272
▁examination	-11.2272
▁oven	-11.2272
▁Merchan	-11.2272
▁railway	-11.2275
▁Unlike	-11.2275
▁endorsement	-11.2278
ING	-11.2284
▁quoted	-11.2303
▁resign	-11.2305
Ex	-11.2312
▁hug	-11.2318
▁mail	-11.232
▁£20	-11.2329
peak	-11.2354
▁Hurricane	-11.2365
▁diabetes	-11.2365
▁principal	-11.2365
▁thrive	-11.2365
▁pizza	-11.2365
▁OpenAI	-11.2365
▁Android	-11.2365
▁reliable	-11.2365
▁Douglas	-11.2365
▁Bengal	-11.2366
▁mainstream	-11.2366
▁Charlie	-11.2366
▁interact	-11.2367
brand	-11.2371
gainst	-11.2372
▁Powell	-11.2372
founder	-11.238
▁passage	-11.238
ակ	-11.2395
▁emphasized	-11.2404
▁donors	-11.2406
ault	-11.2412
▁wishes	-11.2413
▁grade	-11.2414
duction	-11.2415
▁ignored	-11.2415
▁formally	-11.2423
still	-11.243
▁Made	-11.2437
300	-11.2451
▁Step	-11.2455
▁Actor	-11.2455
▁veg	-11.2457
▁Celebrity	-11.2459
▁Belgium	-11.2459
▁Hungary	-11.2459
▁Singapore	-11.2459
▁Tennessee	-11.2459
▁consumption	-11.2459
▁devastated	-11.2459
▁embassy	-11.2459
▁registration	-11.2459
▁Policy	-11.2459
▁debris	-11.246
▁relation	-11.246
▁utter	-11.246
etween	-11.2461
▁Bryan	-11.2461
▁classroom	-11.2461
▁Direct	-11.2461
▁preferred	-11.2462
▁organized	-11.2462
▁legendary	-11.2464
▁Line	-11.2465
▁recruitment	-11.2467
▁epic	-11.2467
▁Tiger	-11.2467
▁Riley	-11.2472
tree	-11.2477
Image	-11.2499
berry	-11.2501
▁parade	-11.2502
▁Sign	-11.2505
▁cave	-11.2516
ծ	-11.2555
▁Colombia	-11.2555
▁ESPN	-11.2555
▁Guardiola	-11.2555
▁adequate	-11.2555
▁categories	-11.2555
▁description	-11.2555
▁frustrated	-11.2555
▁referendum	-11.2555
▁Klopp	-11.2555
▁nutrition	-11.2555
▁Should	-11.2555
▁Could	-11.2555
▁buried	-11.2555
▁stint	-11.2555
▁Point	-11.2556
▁rainfall	-11.2556
▁Haiti	-11.2557
▁Wolf	-11.2558
enko	-11.2561
▁Warren	-11.2563
▁glow	-11.2566
▁downtown	-11.2569
▁Warner	-11.2573
▁1-0	-11.2577
▁68	-11.2578
igan	-11.2578
▁2-1	-11.2579
▁20%	-11.2584
▁premiere	-11.2593
▁Eight	-11.2595
▁rental	-11.2602
credible	-11.261
▁secondary	-11.2615
▁estimate	-11.2617
conscious	-11.2618
▁Count	-11.2631
▁Bond	-11.2634
▁bowler	-11.2636
▁£100	-11.2648
▁cabin	-11.265
	-11.2651
▁Avenue	-11.2651
▁Organization	-11.2651
▁Thousand	-11.2651
▁extremist	-11.2651
▁sacrifice	-11.2651
▁Catherine	-11.2651
▁Harvard	-11.2651
▁qualified	-11.2651
▁Political	-11.2651
▁landlord	-11.2651
▁enemy	-11.2651
▁ninth	-11.2651
▁cheek	-11.2651
▁chronic	-11.2651
▁incentive	-11.2651
▁Jews	-11.2651
▁equipped	-11.2652
▁pleasure	-11.2652
▁Nothing	-11.2652
▁citizenship	-11.2652
▁insult	-11.2654
▁grace	-11.2655
▁1996	-11.2656
▁cafe	-11.2659
▁regulate	-11.2661
▁terrorism	-11.2662
▁occupied	-11.2663
▁enact	-11.2663
▁III	-11.2666
▁brace	-11.2671
▁unfortunately	-11.2672
▁queen	-11.2676
▁dishes	-11.2678
risk	-11.2678
▁govern	-11.268
▁humanity	-11.2687
▁Mak	-11.2691
▁highway	-11.2697
▁Dead	-11.2698
ggle	-11.2711
▁inches	-11.2715
from	-11.2719
rush	-11.2721
▁Dame	-11.2726
▁consume	-11.2729
▁rough	-11.273
▁Mala	-11.2735
▁Mount	-11.2747
▁ecosystem	-11.2748
▁legitimate	-11.2748
▁phenomenon	-11.2748
▁grief	-11.2748
▁integrate	-11.2748
▁restrain	-11.2748
▁Essex	-11.2748
!!!	-11.2748
▁boundaries	-11.2748
stock	-11.2748
▁Nathan	-11.2749
▁steer	-11.2749
▁excuse	-11.2749
▁Lou	-11.2751
▁Nigel	-11.2751
▁superstar	-11.2752
▁lemon	-11.2753
▁theories	-11.2755
▁objective	-11.2759
▁Diana	-11.2761
▁consultation	-11.2765
▁sustain	-11.2787
▁Motor	-11.2794
▁Unit	-11.2795
what	-11.2806
Even	-11.2813
Palestinian	-11.2813
clear	-11.2824
▁accuse	-11.2827
▁Mau	-11.2831
▁Brussels	-11.2846
▁Djokovic	-11.2846
▁Intelligence	-11.2846
▁Lloyd	-11.2846
▁coincide	-11.2846
▁evacuation	-11.2846
▁jurors	-11.2846
▁obligation	-11.2846
▁chaotic	-11.2846
▁gesture	-11.2846
▁Serbia	-11.2846
▁Liberal	-11.2846
▁haunt	-11.2846
▁Dream	-11.2846
▁advertising	-11.2846
▁lime	-11.2846
▁breakthrough	-11.2847
▁sovereignty	-11.2848
▁Prix	-11.2848
▁preference	-11.2848
▁€1	-11.285
▁pivotal	-11.2852
▁whip	-11.2853
▁harmful	-11.2854
▁Lucy	-11.2855
▁Brand	-11.2857
></	-11.286
▁Milan	-11.2861
▁Latino	-11.2863
▁transformation	-11.2864
▁compare	-11.2864
▁lens	-11.2878
▁squa	-11.2879
▁Creat	-11.2904
▁Pope	-11.2912
▁Scho	-11.294
▁Sav	-11.2943
▁Athletic	-11.2945
▁Similar	-11.2945
▁aggression	-11.2945
▁contributing	-11.2945
▁furniture	-11.2945
▁mechanism	-11.2945
▁religion	-11.2945
▁surpass	-11.2945
▁NCAA	-11.2945
▁psychological	-11.2945
▁minimal	-11.2946
▁gaming	-11.2946
▁terminal	-11.2947
▁ankle	-11.2947
▁sprint	-11.2947
▁landmark	-11.2949
▁stamp	-11.2957
▁implementation	-11.2961
▁transportation	-11.2962
▁Obviously	-11.2963
▁sufficient	-11.2969
▁apologi	-11.2969
▁Palmer	-11.2994
control	-11.3016
▁Littler	-11.3017
▁stag	-11.3031
▁Sale	-11.3037
▁Massachusetts	-11.3045
▁applicant	-11.3045
▁smoking	-11.3045
▁bolster	-11.3045
▁orchestra	-11.3045
▁Yadav	-11.3045
▁hydro	-11.3045
▁Brooklyn	-11.3045
▁guidelines	-11.3045
▁publisher	-11.3045
▁hiding	-11.3046
▁blanket	-11.3047
▁assured	-11.3047
▁Indeed	-11.3047
titude	-11.3048
▁Titan	-11.305
▁backdrop	-11.305
▁Member	-11.3051
▁Utd	-11.3055
▁40%	-11.3057
▁roster	-11.3057
▁Grace	-11.3058
▁taxi	-11.3061
▁haul	-11.3061
▁acid	-11.3064
▁linger	-11.3066
▁soldier	-11.3076
▁Pack	-11.3078
Com	-11.3083
▁convince	-11.3105
▁Beck	-11.3105
western	-11.3114
Photo	-11.3114
store	-11.3139
Ա	-11.3146
▁significance	-11.3146
▁substitute	-11.3146
▁impression	-11.3146
▁prince	-11.3146
▁NEW	-11.3146
▁overhaul	-11.3146
▁Bharat	-11.3146
▁pricing	-11.3146
▁Silva	-11.3146
▁wildlife	-11.3148
▁pretend	-11.3148
▁midnight	-11.3148
▁translate	-11.315
▁retreat	-11.3151
▁Corporat	-11.3151
▁Denver	-11.3151
▁swim	-11.3154
▁Congo	-11.3171
▁regulatory	-11.3178
▁insists	-11.3179
▁prayer	-11.3196
after	-11.3197
rmal	-11.3197
▁trace	-11.3206
▁Sanders	-11.3216
dress	-11.323
▁slight	-11.3233
ւ	-11.3248
խ	-11.3248
▁explanation	-11.3248
▁forgotten	-11.3248
▁interrupt	-11.3248
▁misconduct	-11.3248
▁Nvidia	-11.3248
▁snack	-11.3248
▁Nicole	-11.3248
▁Alliance	-11.3248
▁RTÉ	-11.3248
▁Design	-11.3249
▁introduction	-11.3249
▁consist	-11.3252
▁Dancing	-11.3253
▁Castle	-11.3254
▁Johnny	-11.3258
▁Season	-11.3261
scribed	-11.3267
▁carries	-11.3269
▁Mack	-11.3285
▁Buck	-11.3286
▁historically	-11.3291
generation	-11.3319
income	-11.3319
▁Marco	-11.3327
▁Newsom	-11.3328
▁requir	-11.333
witch	-11.3337
▁Morris	-11.3346
▁£50	-11.3351
▁Emergency	-11.3351
▁Pittsburgh	-11.3351
▁confusion	-11.3351
▁determination	-11.3351
▁escalation	-11.3351
▁fantasy	-11.3351
▁replacing	-11.3351
▁ridiculous	-11.3351
▁scratch	-11.3351
▁sentencing	-11.3351
▁studied	-11.3351
▁clarity	-11.3351
▁segment	-11.3351
▁Senior	-11.3351
▁Giants	-11.3352
▁genre	-11.3352
▁furious	-11.3353
▁Assad	-11.3354
▁zoo	-11.3356
յ	-11.3386
▁scientist	-11.3389
▁facilitate	-11.3398
zone	-11.3401
▁extract	-11.3401
▁abandon	-11.3401
▁journal	-11.3407
▁Beth	-11.3428
keep	-11.3449
▁Kentucky	-11.3455
▁accelerate	-11.3455
▁administrator	-11.3455
▁constituency	-11.3455
▁disappointment	-11.3455
▁kilometers	-11.3455
▁solidarity	-11.3455
▁unacceptable	-11.3455
▁felony	-11.3455
▁portrait	-11.3455
▁WhatsApp	-11.3455
▁admire	-11.3455
▁correspondent	-11.3457
▁Latin	-11.3459
▁excessive	-11.3459
▁Gulf	-11.3459
▁Golf	-11.3459
▁passionate	-11.346
▁View	-11.3461
gio	-11.3462
▁Slam	-11.3466
▁filmmaker	-11.3467
▁motivated	-11.3468
▁Cast	-11.3482
▁fever	-11.3486
▁Hope	-11.3487
▁trio	-11.3493
▁hospitality	-11.3497
▁bounce	-11.3506
▁spar	-11.3517
▁midfield	-11.3519
▁combine	-11.3522
▁vow	-11.3522
▁raw	-11.3526
▁List	-11.3533
▁unfortunate	-11.3537
▁Michel	-11.3556
▁cult	-11.356
megapixel	-11.356
▁Phoenix	-11.356
▁influential	-11.356
▁enemies	-11.3561
▁Kapoor	-11.3561
▁tackling	-11.3561
▁shield	-11.3561
▁whistle	-11.3561
▁Nelson	-11.3561
▁Silver	-11.3561
▁drunk	-11.3561
▁Jessica	-11.3561
▁Garcia	-11.3562
▁hammer	-11.3562
▁devote	-11.3563
▁hiring	-11.3566
▁honey	-11.3569
▁stopping	-11.3572
▁stain	-11.3574
▁pole	-11.3575
▁uncle	-11.3575
▁equi	-11.3577
▁Willis	-11.3577
present	-11.3628
school	-11.3635
course	-11.3635
From	-11.3635
wife	-11.3645
▁Doug	-11.3651
▁Dick	-11.3658
▁popp	-11.3661
▁ceiling	-11.3667
▁corporation	-11.3667
▁portfolio	-11.3667
▁stunned	-11.3667
▁Louisiana	-11.3667
▁plunge	-11.3667
▁innovative	-11.3667
▁variant	-11.3667
▁deportation	-11.3667
▁milestone	-11.3667
▁Weather	-11.3667
▁skirt	-11.3667
▁Utah	-11.3668
▁selfie	-11.3668
lude	-11.3672
▁Clear	-11.3673
▁testified	-11.3673
▁texture	-11.3673
▁Nancy	-11.3674
▁Review	-11.3675
▁flock	-11.3678
▁Area	-11.3682
▁confrontation	-11.3688
▁spill	-11.369
▁Left	-11.3695
where	-11.3736
degree	-11.3742
correct	-11.3743
stead	-11.3747
▁rage	-11.3763
woman	-11.3766
▁excess	-11.3771
Bloomberg	-11.3774
▁Maharashtra	-11.3774
▁Rodgers	-11.3774
▁bipartisan	-11.3774
▁cautious	-11.3774
▁certificate	-11.3774
▁gambling	-11.3774
▁landslide	-11.3774
▁participating	-11.3774
▁Studies	-11.3774
▁Nearly	-11.3775
▁Small	-11.3775
▁architecture	-11.3775
▁apology	-11.3775
▁casualties	-11.3775
▁desert	-11.3775
▁acres	-11.3776
▁placing	-11.3776
▁glam	-11.3776
bridge	-11.3777
▁Eddie	-11.3778
▁evil	-11.378
▁transferred	-11.3781
▁1995	-11.3782
▁Glas	-11.3785
operative	-11.3786
▁bias	-11.3787
▁Amid	-11.3787
▁Boris	-11.3788
▁Orange	-11.3788
dicating	-11.3791
▁Blair	-11.3791
▁Angela	-11.3804
ño	-11.3816
▁constitution	-11.3823
▁impose	-11.3844
government	-11.3851
▁presentation	-11.3858
▁Chase	-11.3865
label	-11.3874
blockCreatedOn	-11.3883
blockLastUpdated	-11.3883
շ	-11.3883
▁Emmanuel	-11.3883
▁Ferguson	-11.3883
▁Kashmir	-11.3883
▁Mercedes	-11.3883
▁Milwaukee	-11.3883
▁Wembley	-11.3883
▁collision	-11.3883
▁fracture	-11.3883
▁pupils	-11.3883
▁relentless	-11.3883
▁contemporary	-11.3883
▁coordinator	-11.3883
▁1992	-11.3883
▁1994	-11.3883
▁Origin	-11.3883
▁monarch	-11.3883
▁removing	-11.3883
▁Arteta	-11.3883
▁resembl	-11.3883
▁beneath	-11.3883
▁Studio	-11.3883
▁System	-11.3884
▁Wallace	-11.3884
▁Freedom	-11.3884
▁roast	-11.3884
▁battleground	-11.3884
▁denies	-11.3885
▁Spurs	-11.3885
▁tomato	-11.3886
▁Egyptian	-11.3887
▁Match	-11.389
▁Lakers	-11.3892
▁Vote	-11.3895
▁disability	-11.3896
▁grill	-11.3909
▁divide	-11.3951
▁contender	-11.3974
Look	-11.3975
ռ	-11.3993
▁Authorities	-11.3993
▁Badenoch	-11.3993
▁currency	-11.3993
▁nickname	-11.3993
▁perceived	-11.3993
▁terrifying	-11.3993
▁Beirut	-11.3993
▁emoji	-11.3993
▁Alaska	-11.3993
▁crunch	-11.3993
▁embark	-11.3993
▁Usyk	-11.3993
▁clever	-11.3993
▁Cruz	-11.3993
▁bankruptcy	-11.3993
▁interference	-11.3993
▁isolated	-11.3993
▁messaging	-11.3994
▁SpaceX	-11.3995
▁wildfire	-11.3995
▁Visit	-11.3996
▁Protection	-11.3996
▁steep	-11.3996
▁1998	-11.4
▁pending	-11.4007
▁releas	-11.4007
▁skipper	-11.401
▁Death	-11.4011
▁accord	-11.404
▁Never	-11.4047
▁Village	-11.4053
white	-11.4072
Russia	-11.4072
changing	-11.4074
Today	-11.4076
text	-11.4093
▁1,200	-11.4104
▁corridor	-11.4104
▁Resident	-11.4104
▁commence	-11.4104
▁descend	-11.4104
▁mysterious	-11.4104
▁cocaine	-11.4104
▁rallies	-11.4104
▁indication	-11.4104
▁dementia	-11.4104
▁Bailey	-11.4104
▁Dragon	-11.4104
▁deciding	-11.4104
▁companion	-11.4104
▁rifle	-11.4104
▁bilateral	-11.4104
▁stunt	-11.4105
▁Celeb	-11.4105
▁olive	-11.4105
▁gross	-11.4105
▁random	-11.4107
stellar	-11.4108
▁loyalty	-11.4109
▁salad	-11.4111
▁Owen	-11.4112
▁Gavin	-11.4112
▁nowhere	-11.4113
▁drum	-11.4117
Time	-11.4123
▁Truth	-11.4124
▁Baby	-11.4128
9.99	-11.4132
▁Jill	-11.4169
▁Further	-11.419
spective	-11.4197
▁assassin	-11.4209
▁Emirates	-11.4216
▁Thailand	-11.4216
▁Wolves	-11.4216
▁acquisition	-11.4216
▁confused	-11.4216
▁disastrous	-11.4216
▁immune	-11.4216
▁monument	-11.4216
▁Nikki	-11.4216
▁Toronto	-11.4216
▁precious	-11.4216
▁Gaetz	-11.4216
▁Federation	-11.4217
▁tactical	-11.4217
▁scope	-11.4217
▁vacation	-11.4217
▁creature	-11.4217
▁clue	-11.4217
▁convey	-11.4217
▁implications	-11.4217
▁whale	-11.4217
▁Jesus	-11.4217
▁anchor	-11.4218
▁bubble	-11.4218
են	-11.4218
▁3-0	-11.4224
▁Payne	-11.4226
▁revelation	-11.4227
▁battl	-11.4232
Barack	-11.4253
▁Susan	-11.4257
▁Full	-11.4271
▁Victor	-11.4272
owski	-11.4272
▁petrol	-11.4328
catastrophic	-11.433
▁Afghan	-11.433
▁Brisbane	-11.433
▁Indonesia	-11.433
▁Missouri	-11.433
▁Ultimate	-11.433
▁aesthetic	-11.433
▁demographic	-11.433
▁evident	-11.433
▁gorgeous	-11.433
▁judicial	-11.433
▁qualification	-11.433
▁empire	-11.433
▁Spencer	-11.433
▁disgrace	-11.433
▁universe	-11.433
▁puzzle	-11.433
▁prestig	-11.433
▁invitation	-11.433
▁neighbourhood	-11.4331
▁pipeline	-11.4332
▁McKe	-11.4334
▁Anyone	-11.4334
▁1993	-11.4335
▁1989	-11.4336
loud	-11.4336
▁underground	-11.4338
▁renown	-11.434
▁50%	-11.4348
▁fastest	-11.435
▁Karen	-11.4371
▁deploy	-11.4387
sexual	-11.4413
▁rib	-11.4416
lmost	-11.4418
▁£25	-11.442
▁McCarthy	-11.4445
▁Would	-11.4445
▁ammunition	-11.4445
▁dedication	-11.4445
▁fundraising	-11.4445
▁grocery	-11.4445
▁rhythm	-11.4445
▁temporarily	-11.4445
▁Chairman	-11.4445
▁delegation	-11.4445
▁horizon	-11.4445
▁shelves	-11.4445
▁Samuel	-11.4445
▁endanger	-11.4445
▁strand	-11.4445
▁barrel	-11.4446
▁mourn	-11.4446
▁heavyweight	-11.4446
▁navigat	-11.4448
▁balloon	-11.4451
▁UFC	-11.4457
▁Ellis	-11.4457
▁Early	-11.4457
▁$30	-11.4459
▁embrac	-11.4464
▁troll	-11.4464
▁allowance	-11.4466
wich	-11.4483
▁appoint	-11.4504
▁abduct	-11.4509
▁strap	-11.4521
girl	-11.4534
▁Commonwealth	-11.4561
▁MAGA	-11.4561
▁definition	-11.4561
▁economies	-11.4561
▁electorate	-11.4561
▁enthusiasm	-11.4561
▁financing	-11.4561
▁persuade	-11.4561
▁propaganda	-11.4561
▁protocol	-11.4561
▁Sophie	-11.4561
▁pundit	-11.4561
▁refusing	-11.4561
▁Bellingham	-11.4561
▁Lopez	-11.4561
▁refund	-11.4561
▁Patriot	-11.4561
▁spiritual	-11.4561
Brien	-11.4562
▁sandwich	-11.4562
▁lottery	-11.4562
▁console	-11.4562
▁Serge	-11.4562
▁nerve	-11.4562
▁Future	-11.4563
▁Carroll	-11.4564
▁oversight	-11.4565
▁feud	-11.4567
/@	-11.4573
▁Maha	-11.4573
▁flick	-11.4575
▁counties	-11.458
▁opera	-11.461
▁Sharon	-11.4622
▁uncertain	-11.4676
▁Challenge	-11.4679
▁Ohtani	-11.4679
▁Technology	-11.4679
▁advocacy	-11.4679
▁arranged	-11.4679
▁declaration	-11.4679
▁horrible	-11.4679
▁motivation	-11.4679
▁neglect	-11.4679
▁pronounced	-11.4679
▁revenge	-11.4679
▁universal	-11.4679
▁1991	-11.4679
▁Ticket	-11.4679
▁hurdle	-11.4679
▁Opposition	-11.4679
▁intensity	-11.4679
▁stakeholders	-11.4679
▁Montana	-11.4679
▁glory	-11.4679
▁spoil	-11.4679
▁Dundee	-11.4679
▁cancellation	-11.4679
▁Manager	-11.4679
▁Kursk	-11.4679
▁inclusive	-11.4679
▁Collins	-11.468
▁productivity	-11.4681
▁Peace	-11.4682
▁Martinez	-11.4682
▁enroll	-11.4683
▁dramatically	-11.4683
▁expertise	-11.4686
▁scent	-11.4688
▁deliveries	-11.4692
▁Alison	-11.4699
▁Round	-11.4703
▁Cuba	-11.4706
▁grim	-11.4716
minded	-11.4735
▁shine	-11.4756
effect	-11.4766
court	-11.4772
▁Campaign	-11.4798
▁Currently	-11.4798
▁Delaware	-11.4798
▁Previous	-11.4798
▁READ	-11.4798
▁anonymity	-11.4798
▁dictator	-11.4798
▁firefighter	-11.4798
▁misinformation	-11.4798
▁stabbing	-11.4798
▁strategies	-11.4798
▁suspicious	-11.4798
▁welcoming	-11.4798
▁Buckingham	-11.4798
▁memorial	-11.4798
▁Cambridge	-11.4798
▁automatically	-11.48
▁swept	-11.48
▁journalism	-11.48
▁crackdown	-11.48
▁array	-11.48
▁infant	-11.4801
▁brew	-11.4801
▁Keith	-11.4802
▁Hawk	-11.4802
▁Julie	-11.4804
▁breakdown	-11.4804
▁Marcus	-11.4806
▁2-0	-11.4808
▁radiat	-11.481
▁wooden	-11.4814
▁Walter	-11.4832
▁rh	-11.4848
▁comic	-11.4868
metre	-11.4903
▁$200	-11.4907
▁exhibit	-11.4908
▁Pentagon	-11.4918
▁Trafford	-11.4918
▁explode	-11.4918
▁impeachment	-11.4918
▁optimistic	-11.4918
▁oxygen	-11.4918
▁transparent	-11.4918
▁vacuum	-11.4918
▁Baldwin	-11.4919
▁prescription	-11.4919
▁Neither	-11.4919
ների	-11.4919
▁warehouse	-11.4919
▁garage	-11.4919
▁affirm	-11.4919
▁Watson	-11.4919
▁RBI	-11.4919
▁Until	-11.4919
▁sculpture	-11.4919
▁Tesco	-11.492
summary	-11.4921
▁dissent	-11.4921
▁ghost	-11.4922
▁ferry	-11.4923
▁Think	-11.4923
▁batteries	-11.4924
▁Blake	-11.4927
▁$20	-11.4928
▁Switch	-11.4928
▁brick	-11.4929
pinned	-11.4936
▁designate	-11.4952
▁inspire	-11.4999
video	-11.5008
proof	-11.5017
father	-11.5019
▁organic	-11.5037
▁Alcaraz	-11.504
▁Kardashian	-11.504
▁Mediterranean	-11.504
▁Olivia	-11.504
▁absurd	-11.504
▁escalating	-11.504
▁legislature	-11.504
▁tremendous	-11.504
▁vitamin	-11.504
▁Seahawks	-11.504
▁globe	-11.504
▁sneak	-11.504
▁Natural	-11.504
▁workforce	-11.504
▁Coronation	-11.504
▁garlic	-11.5041
▁servant	-11.5041
▁policing	-11.5041
▁reunion	-11.5041
▁priest	-11.5041
▁Dominic	-11.5041
▁disabled	-11.5041
▁mild	-11.5041
▁pardon	-11.5043
artisan	-11.5044
▁unrest	-11.5044
▁applies	-11.5045
▁committing	-11.5045
▁ballistic	-11.5047
▁persist	-11.5047
▁mansion	-11.5049
▁Rather	-11.5055
versus	-11.5055
▁Audi	-11.5061
▁representation	-11.5062
trans	-11.5066
▁installation	-11.5079
▁handset	-11.5079
▁quote	-11.5125
significant	-11.5131
health	-11.5132
shadow	-11.5132
▁Abdul	-11.5164
Shutterstock	-11.5164
▁Crystal	-11.5164
▁Dakota	-11.5164
▁Investigation	-11.5164
▁Tinubu	-11.5164
▁affiliate	-11.5164
▁arguably	-11.5164
▁happiness	-11.5164
▁lecture	-11.5164
▁militia	-11.5164
▁sketch	-11.5164
▁sleeve	-11.5164
▁slogan	-11.5164
▁Cricket	-11.5164
▁decisive	-11.5164
▁iPad	-11.5164
▁smiling	-11.5164
▁staggering	-11.5164
▁humble	-11.5164
▁declining	-11.5164
▁trousers	-11.5164
▁okay	-11.5164
▁Arthur	-11.5164
▁Harvey	-11.5164
▁mechanic	-11.5165
▁Smart	-11.5165
▁colonial	-11.5166
▁plum	-11.517
▁queue	-11.5172
▁Wayne	-11.5172
▁realistic	-11.5175
▁comb	-11.5177
▁Lyon	-11.5178
▁Danny	-11.5178
,600	-11.5181
▁Romania	-11.521
▁manufacture	-11.5249
running	-11.5269
▁possess	-11.5278
▁architect	-11.5288
զ	-11.5289
▁Beyond	-11.5289
▁Ferrari	-11.5289
▁MSNBC	-11.5289
▁accommodate	-11.5289
▁concentration	-11.5289
▁hockey	-11.5289
▁luggage	-11.5289
▁maintenance	-11.5289
▁simultaneous	-11.5289
▁worries	-11.5289
▁Criminal	-11.5289
▁ritual	-11.5289
▁parallel	-11.5289
▁disgust	-11.5289
▁Shadow	-11.5289
▁dignity	-11.5289
▁dominant	-11.5289
▁splash	-11.5289
▁reunite	-11.5289
▁unlawful	-11.5289
▁Derby	-11.5289
ական	-11.5289
▁grappl	-11.5289
▁travellers	-11.5289
▁Stuart	-11.529
▁respondents	-11.529
▁accent	-11.5291
▁Tyler	-11.5292
▁Alexandr	-11.5292
▁councillor	-11.5293
▁Mariners	-11.5293
▁polar	-11.5295
▁hostile	-11.5296
▁Aviv	-11.5298
▁Garland	-11.5299
▁Bruce	-11.5301
▁marine	-11.5307
▁inspection	-11.5313
▁incorporat	-11.5315
shaw	-11.5361
President	-11.5383
three	-11.5387
value	-11.541
▁basket	-11.5415
▁Revolution	-11.5415
voluntary	-11.5415
▁Norwegian	-11.5415
▁Telegraph	-11.5415
▁calculate	-11.5415
▁hybrid	-11.5415
▁preliminar	-11.5415
▁tropical	-11.5415
▁Gallagher	-11.5415
▁Jerusalem	-11.5415
▁elegant	-11.5415
▁gratitude	-11.5415
▁harvest	-11.5415
▁pioneer	-11.5415
▁precedent	-11.5415
▁suppress	-11.5415
▁diamond	-11.5416
▁diminish	-11.5416
▁stupid	-11.5416
▁Cardiff	-11.5416
▁shrink	-11.5416
▁Stanley	-11.5416
▁Uttar	-11.5416
▁Prior	-11.5416
▁Housing	-11.5416
▁Front	-11.5417
▁Operation	-11.5417
▁skincare	-11.5417
▁lease	-11.5418
▁divert	-11.5419
▁penned	-11.5419
▁Xbox	-11.5419
▁surf	-11.542
▁Delta	-11.5422
▁Haitian	-11.5424
stud	-11.5492
slav	-11.5507
Pierre	-11.5508
▁obstruct	-11.5544
▁rehabilitat	-11.5544
▁EastEnders	-11.5544
▁Elsewhere	-11.5544
▁Metropolitan	-11.5544
▁Nintendo	-11.5544
▁fascinating	-11.5544
▁inevitable	-11.5544
▁tattoo	-11.5544
▁Standard	-11.5544
▁Windsor	-11.5544
▁urgency	-11.5544
▁podium	-11.5544
▁Ultra	-11.5544
▁patrol	-11.5544
▁plug	-11.5544
▁Pedro	-11.5545
▁Update	-11.5547
▁summon	-11.5547
▁Ltd	-11.555
▁Europa	-11.555
▁2028	-11.555
▁Sinner	-11.5551
▁Morrison	-11.5552
▁Brandon	-11.5552
▁shipping	-11.5552
▁baking	-11.5553
▁confine	-11.5553
▁tribe	-11.5554
▁turnover	-11.5558
▁Brew	-11.5591
▁emphasiz	-11.5619
tribution	-11.5669
▁Lincoln	-11.5674
▁culminat	-11.5674
responsibilities	-11.5674
▁Cardinal	-11.5674
▁Holiday	-11.5674
▁Punjab	-11.5674
▁Together	-11.5674
▁administrative	-11.5674
▁agricultural	-11.5674
▁censor	-11.5674
▁earthquake	-11.5674
▁jersey	-11.5674
▁obstacle	-11.5674
▁pursuing	-11.5674
▁Heritage	-11.5674
▁completion	-11.5674
▁depriv	-11.5674
▁Schumer	-11.5674
▁spokeswoman	-11.5674
▁MLB	-11.5674
▁vigil	-11.5674
▁curtain	-11.5674
▁assigned	-11.5674
▁inflict	-11.5674
▁Reagan	-11.5674
▁testament	-11.5674
▁MSP	-11.5674
▁sheriff	-11.5674
▁Yousaf	-11.5674
▁sustainability	-11.5674
▁wellbeing	-11.5674
▁Rescue	-11.5675
▁jar	-11.5675
▁mineral	-11.5675
▁introduc	-11.5676
▁fridge	-11.5677
▁persistent	-11.5677
▁deployment	-11.5678
▁Bradley	-11.5679
▁artwork	-11.568
▁slim	-11.5684
▁60%	-11.5684
▁Highway	-11.5687
▁Store	-11.569
▁suspend	-11.5751
▁dominate	-11.5764
▁approve	-11.5764
while	-11.5772
written	-11.5773
formerly	-11.5773
Hamas	-11.5774
evolving	-11.5778
▁Broadway	-11.5805
▁astronaut	-11.5805
▁availability	-11.5805
▁elaborate	-11.5805
▁instinct	-11.5805
▁perpetrator	-11.5805
▁subscribers	-11.5805
▁Duchess	-11.5805
▁prevail	-11.5805
▁watchdog	-11.5805
▁PGA	-11.5805
▁concentrate	-11.5805
▁Thames	-11.5805
▁Rooney	-11.5805
▁Jeffrey	-11.5805
▁wrongdoing	-11.5805
▁filter	-11.5805
▁revive	-11.5805
▁grandfather	-11.5806
▁bulk	-11.5806
▁Stefan	-11.5806
▁Beckham	-11.5807
▁outlined	-11.5808
▁Throughout	-11.5808
▁capability	-11.581
▁Chamber	-11.581
▁Bobby	-11.5812
▁weakness	-11.5812
▁Father	-11.5813
▁Snap	-11.5813
▁accountability	-11.5813
▁fluid	-11.5817
▁etc	-11.582
▁ditch	-11.5823
▁jewel	-11.5846
▁conclude	-11.5897
largest	-11.5906
complete	-11.5906
first	-11.5906
normal	-11.5912
border	-11.5913
▁ChatGPT	-11.5938
▁Entertainment	-11.5938
▁Investment	-11.5938
▁cognitive	-11.5938
▁flexibility	-11.5938
▁fortunate	-11.5938
▁violating	-11.5938
▁Epstein	-11.5938
▁caucus	-11.5938
▁lavish	-11.5939
▁wreck	-11.5939
"}],"	-11.5939
▁Hudson	-11.5939
▁staple	-11.5939
▁Appeal	-11.5939
▁conceal	-11.5939
▁prioritise	-11.5939
▁Elliot	-11.5939
▁Potter	-11.5939
▁intervene	-11.5939
▁Norris	-11.594
▁enduring	-11.594
▁workshop	-11.5941
▁lounge	-11.5941
▁denounc	-11.5941
▁slipped	-11.5942
▁Somali	-11.5942
▁jab	-11.5942
▁partisan	-11.5942
▁bride	-11.5943
▁naked	-11.5943
▁History	-11.5944
▁merit	-11.5945
▁pipe	-11.5947
▁mindset	-11.5949
▁conspir	-11.5952
▁testify	-11.5985
▁medic	-11.6004
▁Lamb	-11.6035
develop	-11.6041
▁societ	-11.6056
Volodymyr	-11.6074
▁Connecticut	-11.6074
▁McIlroy	-11.6074
▁Mississippi	-11.6074
▁Rebecca	-11.6074
▁agriculture	-11.6074
▁convenient	-11.6074
▁cottage	-11.6074
▁disinformation	-11.6074
▁elephant	-11.6074
▁exacerbate	-11.6074
▁optimism	-11.6074
▁vaccination	-11.6074
▁victories	-11.6074
▁chatbot	-11.6074
▁memorable	-11.6074
▁massacre	-11.6074
▁clinch	-11.6074
▁Mahomes	-11.6074
▁Idaho	-11.6074
▁goodbye	-11.6074
▁Paramount	-11.6074
▁postpone	-11.6074
▁spiral	-11.6075
▁benchmark	-11.6075
▁Rodri	-11.6076
▁kidney	-11.6077
▁chunk	-11.6077
▁Fraser	-11.6077
▁salmon	-11.6078
▁subtle	-11.6079
▁80%	-11.6082
▁Stoke	-11.6082
▁Glad	-11.609
▁Sharif	-11.6138
sufficient	-11.6178
▁stole	-11.6188
▁VAR	-11.621
▁administer	-11.6211
▁algorithm	-11.6211
▁Kharkiv	-11.6211
▁Norfolk	-11.6211
▁UNRWA	-11.6211
▁evacuated	-11.6211
▁hormone	-11.6211
▁imminent	-11.6211
▁jurisdiction	-11.6211
▁patience	-11.6211
▁recipient	-11.6211
▁Consumer	-11.6211
▁Trophy	-11.6211
▁aspiration	-11.6211
▁Rugby	-11.6211
▁cycling	-11.6211
▁VOA	-11.6211
▁Mohamed	-11.6211
▁blew	-11.6211
▁cotton	-11.6211
▁analyse	-11.6211
▁Camilla	-11.6212
▁parole	-11.6212
▁jaw	-11.6213
▁reproducti	-11.6214
▁bribe	-11.6214
▁Close	-11.6215
▁costume	-11.6216
▁stride	-11.6216
▁fancy	-11.6226
▁bounc	-11.6285
▁geopolitic	-11.6308
great	-11.6318
▁Ipswich	-11.6349
▁Kolkata	-11.6349
▁PlayStation	-11.6349
▁Slovakia	-11.6349
▁altogether	-11.6349
▁creativity	-11.6349
▁criteria	-11.6349
▁gallery	-11.6349
▁sophisticated	-11.6349
▁spectator	-11.6349
▁bucket	-11.6349
▁stumble	-11.6349
▁powder	-11.635
▁Leonard	-11.635
▁crude	-11.635
▁Information	-11.635
▁heightened	-11.635
▁Czech	-11.635
▁Dylan	-11.635
▁anxious	-11.635
▁Nadal	-11.6351
▁swimmer	-11.6351
▁Venice	-11.6352
▁Tampa	-11.6352
▁leaf	-11.6353
▁Emmy	-11.6353
▁shark	-11.6353
▁comprise	-11.6355
▁Ashley	-11.6355
▁curious	-11.6357
▁amass	-11.6362
uzz	-11.6381
umbling	-11.64
loved	-11.643
people	-11.6458
bedroom	-11.6458
waiting	-11.6458
Har	-11.6463
▁Product	-11.647
▁municipal	-11.649
▁Bumrah	-11.649
▁Communist	-11.649
▁Memorial	-11.649
▁Paralympic	-11.649
▁Swinney	-11.649
▁blunt	-11.649
▁bombardment	-11.649
▁convincing	-11.649
▁disturbing	-11.649
▁frustrating	-11.649
▁reluctant	-11.649
▁unnecessary	-11.649
▁Limited	-11.649
▁NDTV	-11.649
▁obesity	-11.649
▁Walmart	-11.649
▁WHO	-11.649
▁escort	-11.649
▁facial	-11.649
▁verbal	-11.649
▁surrender	-11.649
▁Surrey	-11.6491
▁relating	-11.6491
▁overdose	-11.6491
▁meteor	-11.6491
▁stack	-11.6491
▁aviation	-11.6492
▁Claire	-11.6493
▁wrist	-11.6493
▁boundary	-11.6494
▁plague	-11.6495
▁disappearance	-11.6495
▁Polish	-11.6496
political	-11.6501
▁contend	-11.6516
աց	-11.6599
Donald	-11.66
eastern	-11.6601
Harris	-11.6601
storm	-11.6602
midst	-11.6605
Hopefully	-11.6625
ջ	-11.6633
▁cluster	-11.6633
▁Detective	-11.6633
▁Pelosi	-11.6633
▁advancing	-11.6633
▁exploration	-11.6633
▁hilarious	-11.6633
▁integration	-11.6633
▁lucrative	-11.6633
▁twenty	-11.6633
▁vintage	-11.6633
▁appliance	-11.6633
▁charities	-11.6633
▁hazard	-11.6633
▁reassure	-11.6633
▁Urban	-11.6633
▁Cruise	-11.6633
▁tumble	-11.6633
▁tornado	-11.6633
▁Source	-11.6633
▁blessed	-11.6633
▁expire	-11.6634
▁freezing	-11.6634
▁Patrol	-11.6634
▁biological	-11.6634
▁Quinn	-11.6635
▁stalk	-11.6638
▁Pride	-11.6639
▁invade	-11.6682
,800	-11.6692
treat	-11.6696
▁Factor	-11.6709
▁socio	-11.6717
▁detain	-11.6726
▁Opera	-11.6737
lateral	-11.6741
▁Virgin	-11.6764
▁destin	-11.6765
digit	-11.677
▁distinguish	-11.6778
▁Bournemouth	-11.6778
▁Rajasthan	-11.6778
▁WNBA	-11.6778
▁abrupt	-11.6778
▁evaluate	-11.6778
▁inherited	-11.6778
▁institute	-11.6778
▁slump	-11.6778
▁spectrum	-11.6778
▁straightforward	-11.6778
▁trajectory	-11.6778
▁turmoil	-11.6778
▁wheelchair	-11.6778
▁sequel	-11.6778
▁unbeaten	-11.6778
▁underneath	-11.6778
▁Barbara	-11.6778
▁WWE	-11.6778
▁Elector	-11.6778
▁SUV	-11.6778
▁commute	-11.6778
▁Sheffield	-11.6778
▁snake	-11.6778
▁reservation	-11.6778
▁underwent	-11.6778
▁monster	-11.6778
▁Davies	-11.6778
▁Slater	-11.6778
▁partially	-11.6778
▁regain	-11.6778
▁Lagos	-11.6781
▁limb	-11.6781
▁Congressional	-11.6782
▁soaring	-11.6782
▁Robbie	-11.6782
▁Trent	-11.6791
Arnold	-11.6808
willingness	-11.6843
ggling	-11.6848
Donnell	-11.687
▁unveil	-11.6871
Because	-11.6893
։	-11.6925
▁(£1	-11.6925
▁Menendez	-11.6925
▁blockbuster	-11.6925
▁compassion	-11.6925
▁condolences	-11.6925
▁faculty	-11.6925
▁overwhelmed	-11.6925
▁recession	-11.6925
▁seizure	-11.6925
▁strategist	-11.6925
▁Maguire	-11.6925
▁stereo	-11.6925
▁MVP	-11.6925
▁cliff	-11.6925
▁compliment	-11.6925
▁Crooks	-11.6925
▁garner	-11.6925
▁Albania	-11.6925
▁serial	-11.6925
▁Clement	-11.6925
▁wander	-11.6925
▁Ruben	-11.6925
▁consistency	-11.6926
▁headache	-11.6926
▁Madison	-11.6926
▁acute	-11.6929
▁childcare	-11.6929
▁Ellie	-11.693
▁defect	-11.6932
▁ratio	-11.6952
▁Relations	-11.6956
Label	-11.6963
▁profession	-11.7034
cultural	-11.7042
▁congress	-11.7055
▁automatic	-11.7074
▁Candidate	-11.7074
▁Citizen	-11.7074
▁Medicare	-11.7074
▁Mohammad	-11.7074
▁NASCAR	-11.7074
▁Orleans	-11.7074
▁constitute	-11.7074
▁submarine	-11.7074
▁Henderson	-11.7074
▁Spirit	-11.7074
▁Summit	-11.7074
▁exemption	-11.7074
▁forthcoming	-11.7074
▁Marshall	-11.7074
▁declaring	-11.7074
▁Haryana	-11.7074
▁mandatory	-11.7074
▁dairy	-11.7075
▁Falcon	-11.7075
▁thunder	-11.7075
▁asleep	-11.7075
▁bundle	-11.7075
▁denial	-11.7075
▁Oasis	-11.7075
▁mounting	-11.7075
▁mosque	-11.7075
▁Diamond	-11.7075
vocation	-11.7077
▁joking	-11.7077
▁humor	-11.7078
ennial	-11.7079
▁evict	-11.7079
product	-11.7093
▁criticiz	-11.7153
figure	-11.7194
John	-11.7196
carbon	-11.7196
perfect	-11.7197
credit	-11.7198
▁Ambassador	-11.7226
▁Bengaluru	-11.7226
▁Circuit	-11.7226
▁Electric	-11.7226
▁Eventually	-11.7226
▁Hispanic	-11.7226
▁certified	-11.7226
▁concession	-11.7226
▁drift	-11.7226
▁infected	-11.7226
▁inheritance	-11.7226
▁kilometres	-11.7226
▁obsessed	-11.7226
▁Albanese	-11.7226
▁Belfast	-11.7226
▁Formula	-11.7226
▁Hawaii	-11.7226
▁cannabis	-11.7226
▁enclave	-11.7226
▁Captain	-11.7226
▁Gilbert	-11.7226
▁Southampton	-11.7226
▁academy	-11.7226
▁Chloe	-11.7226
▁essay	-11.7226
▁unleash	-11.7226
▁Legend	-11.7226
▁prioritize	-11.7226
▁Critics	-11.7226
▁PTI	-11.7226
▁stump	-11.7226
enhancing	-11.7227
▁grind	-11.7227
▁insisting	-11.7227
▁rooftop	-11.7228
▁forensic	-11.7228
▁mixture	-11.7228
▁navy	-11.723
▁Forbes	-11.723
▁sheep	-11.7232
teroid	-11.7234
▁aisle	-11.7235
▁candle	-11.7246
inspired	-11.7347
through	-11.7349
▁harass	-11.7376
թ	-11.738
▁Ibrahim	-11.738
▁artillery	-11.738
▁constituencies	-11.738
▁deceased	-11.738
▁demonstrators	-11.738
▁fentanyl	-11.738
▁intellectual	-11.738
▁legislator	-11.738
▁plaintiff	-11.738
▁purchasing	-11.738
▁speculate	-11.738
▁technological	-11.738
▁terrace	-11.738
▁Private	-11.738
▁Welcome	-11.738
▁compliance	-11.738
▁ideology	-11.738
▁unsuccessful	-11.738
▁Brendan	-11.738
▁believing	-11.738
▁Fulham	-11.738
▁Chopra	-11.738
▁wisdom	-11.738
▁Recently	-11.738
▁thread	-11.738
▁dragged	-11.738
▁amateur	-11.738
▁crises	-11.738
▁Sheikh	-11.738
▁default	-11.7381
▁crystal	-11.7381
▁nasty	-11.7381
▁palace	-11.7381
▁Ashwin	-11.7381
▁Ollie	-11.7381
▁cried	-11.7383
▁soared	-11.7384
▁tongue	-11.7385
▁resonate	-11.7387
regulat	-11.739
RIS	-11.7407
tolerance	-11.7464
songwriter	-11.7466
▁Messi	-11.7478
built	-11.7504
▁skipp	-11.7517
▁corrupt	-11.753
▁thumb	-11.7536
phobia	-11.7536
▁Brentford	-11.7536
▁Damascus	-11.7536
▁Nebraska	-11.7536
▁beneficial	-11.7536
▁congratulate	-11.7536
▁evolution	-11.7536
▁fatigue	-11.7536
▁flourish	-11.7536
▁identification	-11.7536
▁phenomena	-11.7536
▁sequence	-11.7536
▁territories	-11.7536
▁conservation	-11.7536
▁defamation	-11.7536
▁enabling	-11.7536
▁observation	-11.7536
▁supreme	-11.7536
▁Coalition	-11.7536
▁Temple	-11.7536
▁boycott	-11.7536
▁NHL	-11.7536
▁historian	-11.7536
▁completing	-11.7536
▁Amorim	-11.7536
▁piano	-11.7536
▁Herald	-11.7537
▁mobility	-11.7539
▁Kyr	-11.7599
▁render	-11.7603
▁immigrant	-11.7635
▁diagnos	-11.7637
▁recognis	-11.7641
dragon	-11.766
primary	-11.7662
hidden	-11.7662
▁Celsius	-11.7695
▁Jamaica	-11.7695
▁Starbucks	-11.7695
▁consensus	-11.7695
▁enterprise	-11.7695
▁grandchildren	-11.7695
▁happily	-11.7695
▁precaution	-11.7695
▁smuggle	-11.7695
▁surviving	-11.7695
▁unanimous	-11.7695
phobic	-11.7695
▁Commerce	-11.7695
▁Glastonbury	-11.7695
▁dispatch	-11.7695
▁frankly	-11.7695
▁Rashford	-11.7695
▁1986	-11.7695
▁Railway	-11.7695
▁humour	-11.7695
▁mattress	-11.7695
▁Arctic	-11.7695
▁Kerala	-11.7695
▁Malaysia	-11.7695
▁Liberty	-11.7695
▁reckless	-11.7695
▁patron	-11.7695
▁gently	-11.7695
▁Croatia	-11.7695
▁blessing	-11.7695
▁Johnston	-11.7695
▁pleasant	-11.7695
▁Derek	-11.7695
▁Martha	-11.7695
▁Queensland	-11.7695
▁Hassan	-11.7695
▁isolation	-11.7696
▁gymnast	-11.7696
▁packaging	-11.7696
▁equat	-11.7696
▁dividend	-11.7697
▁submission	-11.7698
▁lamb	-11.7701
Getting	-11.7753
green	-11.7827
proving	-11.7842
▁Buffalo	-11.7856
▁Legislature	-11.7856
▁Reynolds	-11.7856
▁Thanksgiving	-11.7856
▁balcony	-11.7856
▁commend	-11.7856
▁flexible	-11.7856
▁pedestrian	-11.7856
▁rallied	-11.7856
▁satisfied	-11.7856
▁syndrome	-11.7856
▁tribunal	-11.7856
▁Belarus	-11.7856
▁Scholz	-11.7856
▁Oakland	-11.7856
▁bloom	-11.7856
▁Hitler	-11.7856
▁envoy	-11.7856
▁Midlands	-11.7856
▁Timoth	-11.7856
▁fireworks	-11.7857
▁verify	-11.7857
":[{"	-11.7857
▁bullying	-11.7857
▁jeans	-11.7857
▁dismantl	-11.7857
▁naming	-11.7857
▁creep	-11.7857
▁toddler	-11.7858
▁presid	-11.7926
▁tolerate	-11.794
threatening	-11.7987
graduate	-11.7987
limited	-11.7988
attack	-11.7988
undoubtedly	-11.802
▁Communication	-11.802
▁Medicine	-11.802
▁Spaniard	-11.802
▁UEFA	-11.802
▁certification	-11.802
▁cryptocurrency	-11.802
▁indicator	-11.802
▁marathon	-11.802
▁rubbish	-11.802
▁scramble	-11.802
▁spectacle	-11.802
▁dessert	-11.802
▁bleeding	-11.802
▁delicate	-11.802
▁maritime	-11.802
▁Pelicot	-11.802
▁Uganda	-11.802
▁Immigration	-11.802
▁yacht	-11.802
▁Ghana	-11.802
▁liability	-11.802
▁Blood	-11.802
▁calorie	-11.802
▁Sterling	-11.802
▁Holmes	-11.8021
▁crawl	-11.8021
▁Fried	-11.8022
▁Prison	-11.8022
▁Modern	-11.8022
,700	-11.8025
▁crumb	-11.803
Neill	-11.805
floor	-11.8155
▁disclosure	-11.8187
▁homicide	-11.8187
▁intelligent	-11.8187
▁mushroom	-11.8187
▁squeeze	-11.8187
▁structural	-11.8187
▁Belgian	-11.8187
▁Military	-11.8187
▁appetite	-11.8187
▁indicted	-11.8187
▁separation	-11.8187
▁turbulen	-11.8187
▁Trevor	-11.8187
▁renovation	-11.8187
▁RHP	-11.8187
▁cherish	-11.8187
▁abolish	-11.8187
▁valley	-11.8187
▁perfume	-11.8187
▁YOU	-11.8187
▁activate	-11.8187
▁attendees	-11.8187
▁injur	-11.8187
commerce	-11.8188
▁retriev	-11.8188
▁anthem	-11.8192
Mobile	-11.8203
arried	-11.8248
հ	-11.8324
official	-11.8324
­	-11.8324
general	-11.8326
▁guilt	-11.8335
nclusive	-11.8355
°	-11.8356
▁Engineer	-11.8356
▁Industrial	-11.8356
▁Scientists	-11.8356
▁allocated	-11.8356
▁circuit	-11.8356
▁clutch	-11.8356
▁convenience	-11.8356
▁fragment	-11.8356
▁judiciary	-11.8356
▁manipulate	-11.8356
▁refusal	-11.8356
▁resilient	-11.8356
▁stylish	-11.8356
▁Rodriguez	-11.8356
▁conversion	-11.8356
▁paramedic	-11.8356
▁Sainsbury	-11.8356
▁qualities	-11.8356
▁worship	-11.8356
▁Orlando	-11.8356
▁likelihood	-11.8356
▁Wheel	-11.8356
▁throat	-11.8356
▁Fashion	-11.8356
▁Ravens	-11.8356
▁Bragg	-11.8356
▁nursing	-11.8356
▁UAE	-11.8356
▁duration	-11.8356
▁Adrian	-11.8356
▁motive	-11.8356
▁forefront	-11.8357
▁Jenkins	-11.8357
▁temper	-11.8357
▁unaware	-11.8357
▁Lineker	-11.8357
▁rational	-11.8357
▁Third	-11.8358
eyEvent	-11.8359
ilicon	-11.8396
drop	-11.8416
Black	-11.8496
urgent	-11.8498
▁correspond	-11.8525
▁Assistant	-11.8529
▁Enforcement	-11.8529
▁Holocaust	-11.8529
▁Nashville	-11.8529
▁YORK	-11.8529
▁accompany	-11.8529
▁cigarette	-11.8529
▁disabilities	-11.8529
▁inevitably	-11.8529
▁jewellery	-11.8529
▁philosophy	-11.8529
▁satisfy	-11.8529
▁unwavering	-11.8529
▁Empire	-11.8529
▁Gunners	-11.8529
▁empathy	-11.8529
▁jungle	-11.8529
▁vinegar	-11.8529
▁monkey	-11.8529
▁Bernard	-11.8529
▁Globe	-11.8529
▁clarify	-11.8529
▁vicious	-11.8529
▁indulge	-11.8529
▁contempt	-11.8529
▁Animal	-11.8529
▁Bishop	-11.8529
▁Warrior	-11.8529
▁Address	-11.8529
ignoring	-11.8529
▁Iceland	-11.8529
▁distant	-11.8529
▁blur	-11.8532
ación	-11.8543
▁composit	-11.8566
writer	-11.8574
▁Serv	-11.8591
volt	-11.8644
Obviously	-11.8671
Reuters	-11.8672
General	-11.8672
required	-11.8672
▁sovereign	-11.8701
▁irregular	-11.8704
disciplinary	-11.8704
չ	-11.8704
▁Assange	-11.8704
▁Mangione	-11.8704
▁Postecoglou	-11.8704
▁Professional	-11.8704
▁Scheffler	-11.8704
▁despair	-11.8704
▁glamorous	-11.8704
▁imagination	-11.8704
▁manslaughter	-11.8704
▁monetary	-11.8704
▁unpopular	-11.8704
▁wrestling	-11.8704
▁Caitlin	-11.8704
▁Initiative	-11.8704
▁Shakespeare	-11.8704
▁Veteran	-11.8704
▁divisive	-11.8704
▁laundry	-11.8704
▁utiliz	-11.8704
▁Junior	-11.8704
▁Rafael	-11.8704
▁Mirror	-11.8704
▁retiring	-11.8704
▁unchanged	-11.8704
▁bitcoin	-11.8704
▁Historic	-11.8704
▁prolonged	-11.8704
▁Haaland	-11.8704
▁Milei	-11.8704
▁coroner	-11.8704
▁Curtis	-11.8704
▁therapist	-11.8705
▁darts	-11.8705
▁Algeria	-11.8705
dollar	-11.885
grown	-11.8851
Where	-11.8851
obbie	-11.8857
▁contradict	-11.8883
▁Donetsk	-11.8883
▁Gujarat	-11.8883
▁Investigators	-11.8883
▁Lottery	-11.8883
▁Melissa	-11.8883
▁Montgomery	-11.8883
▁Morocco	-11.8883
▁Muhammad	-11.8883
▁Twenty	-11.8883
▁Zimbabwe	-11.8883
▁antisemitic	-11.8883
▁bombshell	-11.8883
▁candidacy	-11.8883
▁excluded	-11.8883
▁genius	-11.8883
▁intimidate	-11.8883
▁magnitude	-11.8883
▁patriot	-11.8883
▁scrub	-11.8883
▁wardrobe	-11.8883
▁Heathrow	-11.8883
▁coordination	-11.8883
▁applaud	-11.8883
▁earliest	-11.8883
▁populist	-11.8883
▁complement	-11.8883
▁magnet	-11.8883
▁Maduro	-11.8883
▁Pixel	-11.8883
▁widow	-11.8883
▁Access	-11.8883
▁NGO	-11.8883
▁captive	-11.8883
▁entities	-11.8883
▁ODI	-11.8883
▁Guinea	-11.8883
▁Athens	-11.8883
▁Help	-11.8887
▁€2	-11.8892
▁Oppo	-11.8917
▁fringe	-11.893
journ	-11.8945
},{"	-11.8983
▁nominat	-11.9014
▁suppose	-11.9023
Pacific	-11.9032
group	-11.9032
mobile	-11.9034
▁refuge	-11.9048
▁celeb	-11.9063
Especially	-11.9064
©	-11.9064
à	-11.9064
▁Cornwall	-11.9064
▁McGregor	-11.9064
▁bikini	-11.9064
▁cosmetic	-11.9064
▁curriculum	-11.9064
▁embarrassed	-11.9064
▁excellence	-11.9064
▁inflammation	-11.9064
▁mitigate	-11.9064
▁motorcycle	-11.9064
▁psychologist	-11.9064
▁sprawling	-11.9064
▁Alternative	-11.9064
▁INDIA	-11.9064
▁Lancashire	-11.9064
▁assignment	-11.9064
▁deepfake	-11.9064
▁Alzheimer	-11.9064
▁premature	-11.9064
▁valuation	-11.9064
▁Stanford	-11.9064
▁jazz	-11.9064
Ե	-11.9064
▁HIV	-11.9064
▁Stacey	-11.9064
▁superior	-11.9064
▁animated	-11.9065
▁Consider	-11.9065
▁grasp	-11.9065
▁outreach	-11.9065
▁deflect	-11.9066
▁Nepal	-11.9066
▁polish	-11.9066
employed	-11.9109
pictured	-11.9217
Since	-11.9218
could	-11.9218
▁disregard	-11.925
Oppenheimer	-11.925
▁Alejandro	-11.925
▁Higgins	-11.925
▁Hopkins	-11.925
▁Hungarian	-11.925
▁Hyderabad	-11.925
▁Industry	-11.925
▁Murdoch	-11.925
▁Nevertheless	-11.925
▁OnePlus	-11.925
▁Pochettino	-11.925
▁Raducanu	-11.925
▁Senegal	-11.925
▁catastrophe	-11.925
▁ensemble	-11.925
▁incursion	-11.925
▁physician	-11.925
▁possibilities	-11.925
▁prosperity	-11.925
▁purported	-11.925
▁robbery	-11.925
▁satisfaction	-11.925
▁steadily	-11.925
▁stubborn	-11.925
▁terrific	-11.925
▁terrified	-11.925
▁volatile	-11.925
▁Natalie	-11.925
▁Vatican	-11.925
▁arbitra	-11.925
▁sunshine	-11.925
▁tissue	-11.925
▁Culture	-11.925
▁Kylie	-11.925
▁Arvind	-11.925
▁Meloni	-11.925
▁chanting	-11.925
▁spouse	-11.925
▁inequality	-11.925
▁ladies	-11.925
▁courtesy	-11.9251
▁manual	-11.9256
contributors	-11.9256
▁Featur	-11.9315
▁advert	-11.9386
expected	-11.94
driven	-11.9406
would	-11.9406
writing	-11.9406
major	-11.9406
roughly	-11.9413
▁contributor	-11.9431
CalloutFormField	-11.9438
":{"	-11.9438
ç	-11.9438
▁Giuliani	-11.9438
iStock	-11.9438
▁Fernandes	-11.9438
▁Indianapolis	-11.9438
▁Mbappe	-11.9438
▁McLaren	-11.9438
▁Samantha	-11.9438
▁astonishing	-11.9438
▁coronavirus	-11.9438
▁grandparents	-11.9438
▁ideological	-11.9438
▁infectious	-11.9438
▁innocence	-11.9438
▁litigation	-11.9438
▁moisture	-11.9438
▁obsession	-11.9438
▁trophies	-11.9438
▁volley	-11.9438
■	-11.9438
▁Myanmar	-11.9438
▁stigma	-11.9438
▁Inflation	-11.9438
▁Insurance	-11.9438
▁contemplat	-11.9438
▁undeniabl	-11.9438
twitter	-11.9438
▁Editor	-11.9438
▁intensive	-11.9438
▁Analyst	-11.9438
▁Wonder	-11.9438
▁scout	-11.9438
▁tumour	-11.9438
▁essence	-11.9438
▁maiden	-11.9438
▁fibre	-11.9438
▁plummet	-11.9438
▁warrior	-11.9439
▁mould	-11.9439
▁idol	-11.9439
▁Launch	-11.9439
mAh	-11.9439
▁Clinic	-11.9439
▁Clean	-11.9439
grove	-11.9467
width	-11.9467
hurst	-11.9502
countless	-11.9564
because	-11.9598
birth	-11.9599
▁blank	-11.9628
▁Arkansas	-11.9631
▁Maldives	-11.9631
▁Portuguese	-11.9631
▁Watkins	-11.9631
▁glorious	-11.9631
▁hamstring	-11.9631
▁imprisoned	-11.9631
▁reconstruct	-11.9631
▁rumoured	-11.9631
▁sympathy	-11.9631
▁territorial	-11.9631
▁Advance	-11.9631
▁Beyoncé	-11.9631
▁Floyd	-11.9631
▁Giovanni	-11.9631
▁Hegseth	-11.9631
▁Nasrallah	-11.9631
▁Spotify	-11.9631
▁Vancouver	-11.9631
▁livelihood	-11.9631
▁unhappy	-11.9631
▁illicit	-11.9631
▁relocate	-11.9631
▁LeBron	-11.9631
▁DOJ	-11.9631
▁abusive	-11.9631
▁dominance	-11.9631
▁Interior	-11.9631
▁Sweet	-11.9631
▁seamless	-11.9631
▁sworn	-11.9631
▁Rhode	-11.9631
▁inhabit	-11.9631
▁millennia	-11.9631
▁Heather	-11.9631
▁rehab	-11.9632
awaited	-11.9632
▁Dmitr	-11.9635
▁consequence	-11.9642
▁advocat	-11.9677
▁deduct	-11.9774
abortion	-11.9794
Everything	-11.9794
therapy	-11.9795
toxic	-11.9815
É	-11.9826
Absolutely	-11.9827
▁Customer	-11.9827
▁Embassy	-11.9827
▁Haniyeh	-11.9827
▁Multiple	-11.9827
▁Organisation	-11.9827
▁Sebastian	-11.9827
▁autonomy	-11.9827
▁credibility	-11.9827
▁eligibility	-11.9827
▁harrowing	-11.9827
▁incarcerated	-11.9827
▁logistics	-11.9827
▁nutrient	-11.9827
▁opioid	-11.9827
▁rigorous	-11.9827
unconstitutional	-11.9827
▁intensified	-11.9827
▁Library	-11.9827
▁disadvantage	-11.9827
▁Vanessa	-11.9827
▁capsule	-11.9827
▁cushion	-11.9827
▁Somerset	-11.9827
▁purple	-11.9827
▁restoration	-11.9827
▁Isaac	-11.9827
▁TNT	-11.9827
▁barrage	-11.9827
▁distort	-11.9827
▁hotspot	-11.9827
▁Naomi	-11.9827
▁Farrell	-11.9827
▁Chargers	-11.9827
▁Harriet	-11.9827
▁IVF	-11.9827
▁revised	-11.9827
▁Flower	-11.9827
▁bruise	-11.9827
▁Isabel	-11.9828
▁flirt	-11.9829
▁Honor	-11.983
▁Kemp	-11.9834
▁adhere	-11.9834
▁Champion	-11.9845
▁revel	-11.9885
Smith	-11.9995
▁straw	-11.9995
Chris	-11.9996
▁Earl	-12.0016
close	-12.0022
▁Agriculture	-12.0027
▁Bitcoin	-12.0027
▁Horizon	-12.0027
▁McMahon	-12.0027
▁Salvador	-12.0027
▁Shanghai	-12.0027
▁Toyota	-12.0027
▁diplomacy	-12.0027
▁embarrassment	-12.0027
▁expenditure	-12.0027
▁fundraiser	-12.0027
▁identities	-12.0027
▁luxurious	-12.0027
▁miracle	-12.0027
▁negotiating	-12.0027
▁nightclub	-12.0027
▁presumptive	-12.0027
▁reconsider	-12.0027
▁rehearsal	-12.0027
▁Kitchen	-12.0027
▁arsenal	-12.0027
▁scoop	-12.0027
▁Splash	-12.0027
▁wrestle	-12.0027
▁Bennett	-12.0027
▁flavor	-12.0027
▁Jinping	-12.0027
▁carriage	-12.0027
▁falsify	-12.0027
▁Article	-12.0027
▁Maresca	-12.0027
▁Creek	-12.0027
▁Ralph	-12.0027
▁interfere	-12.0027
▁Average	-12.0027
▁freak	-12.0027
▁Stream	-12.0027
ficiency	-12.0027
▁Draper	-12.0027
▁Manuel	-12.0027
▁quota	-12.0041
▁facilitat	-12.0139
▁fulfil	-12.0198
establish	-12.0198
extreme	-12.0198
Ukraine	-12.0198
interest	-12.0198
business	-12.0198
▁manifest	-12.0219
▁Dolphins	-12.0231
▁Halloween	-12.0231
▁Holyrood	-12.0231
▁Hundreds	-12.0231
▁Karnataka	-12.0231
▁acknowledging	-12.0231
▁betrayal	-12.0231
▁champagne	-12.0231
▁circulated	-12.0231
▁inadequate	-12.0231
▁literature	-12.0231
▁pharmaceutical	-12.0231
▁prejudice	-12.0231
▁tangible	-12.0231
▁Companies	-12.0231
▁Melania	-12.0231
▁necklace	-12.0231
▁Already	-12.0231
▁Gibson	-12.0231
▁Gemini	-12.0231
▁Double	-12.0231
▁Tuchel	-12.0231
▁Writing	-12.0231
▁scalp	-12.0231
ä	-12.0439
′	-12.0439
՝	-12.0869
ձ	-12.0869
⁄	-12.1091
―	-12.1551
Մ	-12.1789
ø	-12.2033
ā	-12.2033
ô	-12.2283
Ի	-12.2283
<	-12.2535
Ն	-12.254
{	-12.3637
ã	-12.3931
ï	-12.4546
ë	-12.4869
å	-12.5202
Հ	-12.5202
️	-12.5202
#	-12.5515
ć	-12.5547
օ	-12.5904
Ր	-12.6275
‐	-12.6659
ê	-12.7059
ժ	-12.7476
Ö	-12.7476
Կ	-12.7911
Ս	-12.8841
`	-13.0423
♦	-13.0423
Բ	-13.1011
î	-13.1636
č	-13.1636
Գ	-13.1636
ō	-13.2303
Ø	-13.3787
ł	-13.3787
Լ	-13.462
Պ	-13.5529
Տ	-13.5529
ı	-13.6529
·	-13.6529
¿	-13.6529
Â	-13.6529
ă	-13.6529
š	-13.6529
Å	-13.764
®	-13.764
●	-13.764
¢	-13.889
ò	-13.889
😂	-14.0319
Յ	-14.0319
ֆ	-14.1985
ș	-14.1985
¡	-14.1985
×	-14.3985
	-14.3985
ù	-14.3985
ŷ	-14.3985
Ռ	-14.3985
⁠	-14.3985
−	-14.3985
ş	-14.3985
‍	-14.3985
û	-14.6485
Ã	-14.6485
ì	-14.6485
ý	-14.6485
ŵ	-14.6485
ž	-14.6485
⁣	-14.6485
♬	-14.6485
🔥	-14.6485
ū	-14.6485
Ժ	-14.9819
🙏	-14.9819
±	-14.9819
ė	-14.9819
Օ	-14.9819
⚽	-14.9819
😍	-14.9819
Ü	-14.9819
ň	-15.4819
^	-15.4819
	-15.4819
§	-15.4819
ģ	-15.4819
ņ	-15.4819
՛	-15.4819
՞	-15.4819
ạ	-15.4819
ầ	-15.4819
ắ	-15.4819
ờ	-15.4819
‭	-15.4819
›	-15.4819
⁩	-15.4819
℞	-15.4819
☆	-15.4819
❌	-15.4819
︎	-15.4819
𝄒	-15.4819
🏻	-15.4819
🏼	-15.4819
👈	-15.4819
📸	-15.4819
😅	-15.4819
ē	-15.4819
С	-15.4819
Î	-15.4819
🤦	-15.4819
😮	-16.476
💨	-16.4761
💕	-16.4762
👉	-16.4763
・	-16.4764
♪	-16.4765
♂	-16.4766
₱	-16.4767
⁦	-16.4768
Չ	-16.4769
Ճ	-16.477
ń	-16.4771
Đ	-16.4772
æ	-16.4773
ß	-16.4774
È	-16.4775
	-16.4776
🙄	-16.4777
✔	-16.4778
▶	-16.4779
Ք	-16.478
ț	-16.4781
Ä	-16.4782
¦	-16.4783
🐎	-16.4784
Ւ	-16.4785
Ջ	-16.4786
Շ	-16.4787
Ç	-16.4788
À	-16.4789
Փ	-16.479
Զ	-16.4791
Š	-16.4792
🥹	-16.4793
🤣	-16.4794
😭	-16.4795
Ֆ	-16.4796
Թ	-16.4797
Ը	-16.4798
Դ	-16.4799
đ	-16.48
Ո	-16.4801
❤	-16.4802
Ó	-16.4803
🥇	-16.4804
	-16.4805
ճ	-16.4806
ğ	-16.4807
	-16.4808
Վ	-16.4809
	-16.481
★	-16.4811
	-16.4812
₹	-16.4813
փ	-16.4814
Á	-16.4815
է	-16.4816
վ	-16.4817
£	-16.4818
ę	-16.4819
У	-16.4819
а	-16.4819
к	-16.4819
р	-16.4819
ї	-16.4819
ṣ	-16.4819
🌴	-16.4819
Ş	-16.4819
⁤	-16.4819
₦	-16.4819
🥥	-16.4819
~	-16.4819
	-16.4819
	-16.4819
Í	-16.4819
Ò	-16.4819
Ô	-16.4819
Ē	-16.4819
ī	-16.4819
İ	-16.4819
ř	-16.4819
ż	-16.4819
ə	-16.4819
ʔ	-16.4819
ʻ	-16.4819
̄	-16.4819
̈	-16.4819
μ	-16.4819
О	-16.4819
и	-16.4819
н	-16.4819
Է	-16.4819
Խ	-16.4819
Ծ	-16.4819
Ձ	-16.4819
฿	-16.4819
ḥ	-16.4819
Ṡ	-16.4819
ả	-16.4819
ẹ	-16.4819
ế	-16.4819
ệ	-16.4819
ị	-16.4819
ọ	-16.4819
ố	-16.4819
ộ	-16.4819
ợ	-16.4819
ừ	-16.4819
ự	-16.4819
ỹ	-16.4819
↔	-16.4819
⊕	-16.4819
⏳	-16.4819
►	-16.4819
◀	-16.4819
☀	-16.4819
♀	-16.4819
♥	-16.4819
✅	-16.4819
✨	-16.4819
⭐	-16.4819
🇱	-16.4819
🇳	-16.4819
🇸	-16.4819
🇺	-16.4819
🌪	-16.4819
🌹	-16.4819
🍓	-16.4819
🍹	-16.4819
🎁	-16.4819
🎢	-16.4819
🎪	-16.4819
🏆	-16.4819
🏽	-16.4819
🏾	-16.4819
👀	-16.4819
👍	-16.4819
👏	-16.4819
💙	-16.4819
💥	-16.4819
📋	-16.4819
📍	-16.4819
📷	-16.4819
😆	-16.4819
😊	-16.4819
😢	-16.4819
😱	-16.4819
😳	-16.4819
🙌	-16.4819
🛒	-16.4819
🤎	-16.4819
🤔	-16.4819
🤫	-16.4819
🤯	-16.4819
🤵	-16.4819
🤷	-16.4819
🥅	-16.4819
🥪	-16.4819
🥺	-16.4819
🫣	-16.4819
ÿ	-16.4819
þ	-16.4819
ą	-16.4819
Ć	-16.4819
ś	-16.4819
ţ	-16.4819
ư	-16.4819
‬	-16.4819
(	-16.4819
Ղ	-16.4819
