<unk>	0
<s>	0
</s>	0
▁t	-0
▁a	-1
▁s	-2
▁i	-3
▁e	-4
he	-5
▁o	-6
▁the	-7
▁c	-8
re	-9
▁w	-10
▁in	-11
▁l	-12
▁,	-13
▁.	-14
▁n	-15
▁f	-16
▁p	-17
▁d	-18
▁m	-19
▁b	-20
er	-21
nd	-22
ha	-23
▁to	-24
in	-25
▁r	-26
on	-27
en	-28
or	-29
▁of	-30
▁and	-31
▁re	-32
▁g	-33
ou	-34
▁u	-35
ar	-36
hi	-37
▁ing	-38
▁"	-39
st	-40
▁'	-41
it	-42
an	-43
ed	-44
al	-45
▁T	-46
▁ha	-47
▁er	-48
▁ed	-49
▁y	-50
▁st	-51
es	-52
ll	-53
▁on	-54
ing	-55
ro	-56
▁-	-57
ve	-58
▁I	-59
▁ti	-60
▁S	-61
at	-62
le	-63
as	-64
▁he	-65
▁A	-66
ho	-67
hat	-68
▁for	-69
▁be	-70
ic	-71
id	-72
▁is	-73
ent	-74
▁it	-75
ay	-76
▁at	-77
▁M	-78
▁en	-79
▁C	-80
▁that	-81
▁an	-82
▁co	-83
me	-84
▁v	-85
ce	-86
ut	-87
ot	-88
▁B	-89
▁0	-90
se	-91
ch	-92
▁2	-93
ra	-94
ld	-95
his	-96
▁The	-97
ith	-98
▁de	-99
▁as	-100
▁we	-101
ri	-102
▁al	-103
▁with	-104
et	-105
ir	-106
▁P	-107
▁H	-108
▁or	-109
▁was	-110
▁tion	-111
▁1	-112
▁th	-113
ter	-114
▁li	-115
ur	-116
▁sa	-117
▁W	-118
mp	-119
▁te	-120
ver	-121
▁le	-122
ow	-123
ke	-124
ly	-125
▁ly	-126
▁se	-127
▁D	-128
▁ne	-129
▁R	-130
gh	-131
la	-132
▁ma	-133
▁ar	-134
li	-135
▁su	-136
▁ho	-137
ct	-138
▁N	-139
▁mo	-140
▁are	-141
▁di	-142
ck	-143
▁ab	-144
▁la	-145
▁L	-146
▁F	-147
si	-148
▁G	-149
ge	-150
il	-151
▁you	-152
th	-153
▁h	-154
▁said	-155
ad	-156
▁so	-157
rom	-158
▁ex	-159
ill	-160
▁have	-161
▁his	-162
▁ri	-163
▁has	-164
▁pro	-165
▁k	-166
▁E	-167
▁lo	-168
▁from	-169
▁j	-170
▁by	-171
▁un	-172
▁:	-173
▁J	-174
▁all	-175
am	-176
▁hi	-177
▁go	-178
▁me	-179
▁sp	-180
▁O	-181
ght	-182
▁ca	-183
▁ta	-184
ue	-185
▁es	-186
ear	-187
▁si	-188
▁not	-189
ould	-190
▁po	-191
▁U	-192
▁do	-193
ti	-194
us	-195
▁out	-196
ate	-197
▁whi	-198
▁con	-199
▁mi	-200
ul	-201
▁this	-202
io	-203
▁fi	-204
▁whe	-205
▁ra	-206
▁who	-207
▁ro	-208
lo	-209
▁ent	-210
▁K	-211
ess	-212
▁year	-213
▁wor	-214
el	-215
▁ion	-216
ust	-217
▁up	-218
▁her	-219
▁ers	-220
un	-221
▁they	-222
▁ad	-223
▁will	-224
▁3	-225
▁she	-226
▁fa	-227
▁4	-228
▁af	-229
▁their	-230
art	-231
▁ag	-232
ma	-233
ci	-234
▁but	-235
co	-236
▁us	-237
▁had	-238
so	-239
▁off	-240
ss	-241
ment	-242
▁ment	-243
▁nd	-244
▁5	-245
mb	-246
ry	-247
▁q	-248
▁(	-249
▁9	-250
ru	-251
▁pre	-252
▁been	-253
fe	-254
to	-255
▁pa	-256
out	-257
▁)	-258
ion	-259
lu	-260
▁op	-261
▁one	-262
▁pp	-263
▁ot	-264
ort	-265
▁fe	-266
▁gh	-267
▁can	-268
op	-269
de	-270
▁In	-271
ant	-272
▁no	-273
ia	-274
▁were	-275
▁cha	-276
▁It	-277
▁more	-278
▁fo	-279
▁over	-280
▁tw	-281
ok	-282
▁tt	-283
▁our	-284
▁man	-285
▁about	-286
▁ve	-287
od	-288
ep	-289
▁after	-290
▁ba	-291
▁nt	-292
▁dent	-293
our	-294
▁which	-295
▁vi	-296
▁per	-297
ard	-298
mm	-299
ity	-300
▁also	-301
ide	-302
▁ev	-303
one	-304
ong	-305
▁like	-306
ays	-307
▁eop	-308
ne	-309
pp	-310
▁eople	-311
▁tra	-312
▁rep	-313
▁time	-314
▁ur	-315
▁would	-316
▁est	-317
iv	-318
rou	-319
ound	-320
▁6	-321
▁sh	-322
▁qu	-323
▁work	-324
▁ef	-325
▁get	-326
▁some	-327
▁sho	-328
lic	-329
han	-330
▁ll	-331
▁du	-332
▁ver	-333
▁et	-334
▁sta	-335
gn	-336
▁rec	-337
▁Y	-338
▁He	-339
ine	-340
▁when	-341
▁7	-342
▁8	-343
her	-344
▁V	-345
ree	-346
ew	-347
▁its	-348
▁if	-349
▁sc	-350
all	-351
▁new	-352
▁wi	-353
ec	-354
▁bu	-355
▁dis	-356
▁und	-357
▁my	-358
use	-359
▁than	-360
▁fir	-361
▁ter	-362
▁just	-363
▁ng	-364
ore	-365
▁there	-366
ag	-367
▁mp	-368
▁thing	-369
▁imp	-370
ain	-371
▁ty	-372
▁am	-373
om	-374
▁ser	-375
▁ous	-376
oth	-377
▁ever	-378
▁ation	-379
▁tri	-380
▁into	-381
own	-382
▁ear	-383
▁nal	-384
▁ele	-385
▁back	-386
▁pla	-387
ol	-388
▁ck	-389
▁pl	-390
▁what	-391
▁him	-392
▁other	-393
▁ac	-394
▁str	-395
▁first	-396
▁ted	-397
▁kn	-398
▁ni	-399
▁able	-400
ans	-401
▁tor	-402
▁two	-403
▁ic	-404
▁tr	-405
▁ort	-406
atio	-407
po	-408
ek	-409
▁gra	-410
nt	-411
▁ow	-412
▁But	-413
mo	-414
▁eco	-415
▁ial	-416
ini	-417
▁them	-418
▁how	-419
▁end	-420
ink	-421
ach	-422
▁lli	-423
▁ga	-424
▁bo	-425
▁ord	-426
▁shi	-427
▁cc	-428
▁ou	-429
▁part	-430
▁We	-431
ast	-432
um	-433
▁tre	-434
▁ss	-435
vi	-436
▁again	-437
▁inc	-438
▁na	-439
▁el	-440
▁years	-441
▁last	-442
▁Tru	-443
▁?	-444
ng	-445
ath	-446
▁gre	-447
ase	-448
di	-449
▁pe	-450
▁exp	-451
▁res	-452
int	-453
▁nn	-454
▁could	-455
▁inter	-456
▁Trump	-457
▁day	-458
▁any	-459
▁fu	-460
▁your	-461
▁son	-462
▁chi	-463
▁state	-464
im	-465
▁spe	-466
▁now	-467
▁ster	-468
▁mon	-469
▁tive	-470
▁z	-471
▁ub	-472
▁real	-473
day	-474
▁comp	-475
▁where	-476
▁under	-477
ies	-478
ft	-479
▁ay	-480
pe	-481
▁And	-482
▁did	-483
ence	-484
▁ring	-485
▁efore	-486
ite	-487
is	-488
▁round	-489
▁week	-490
▁act	-491
te	-492
▁/	-493
ak	-494
▁unt	-495
▁bi	-496
urn	-497
▁This	-498
▁ity	-499
▁want	-500
ice	-501
▁ke	-502
▁set	-503
▁add	-504
tu	-505
▁way	-506
▁being	-507
▁nc	-508
lf	-509
▁gu	-510
▁app	-511
▁while	-512
mer	-513
▁mer	-514
ga	-515
▁side	-516
▁offic	-517
▁need	-518
▁id	-519
▁ff	-520
▁De	-521
▁look	-522
▁cause	-523
▁show	-524
▁high	-525
▁ry	-526
va	-527
▁down	-528
▁New	-529
▁only	-530
▁every	-531
▁right	-532
▁lead	-533
▁see	-534
ark	-535
▁turn	-536
▁Co	-537
▁long	-538
ta	-539
ive	-540
▁ld	-541
▁aw	-542
gi	-543
▁think	-544
▁ns	-545
ty	-546
ev	-547
▁even	-548
▁olic	-549
▁going	-550
▁hel	-551
▁fam	-552
ers	-553
▁elec	-554
▁well	-555
▁llion	-556
▁ding	-557
▁make	-558
▁emb	-559
mes	-560
▁cre	-561
▁then	-562
cu	-563
▁rt	-564
▁Mr	-565
ince	-566
▁clu	-567
▁gen	-568
▁old	-569
▁ill	-570
▁nment	-571
▁war	-572
▁red	-573
▁grou	-574
▁She	-575
▁most	-576
ves	-577
▁sent	-578
▁month	-579
▁gover	-580
▁natio	-581
rd	-582
▁throu	-583
na	-584
▁told	-585
▁il	-586
▁ate	-587
▁ist	-588
row	-589
▁tal	-590
▁start	-591
▁age	-592
uch	-593
▁ob	-594
▁home	-595
▁line	-596
▁made	-597
▁three	-598
ater	-599
▁know	-600
▁pport	-601
▁x	-602
mi	-603
▁hu	-604
ord	-605
ica	-606
▁med	-607
cal	-608
▁don	-609
▁own	-610
▁lay	-611
ca	-612
▁tu	-613
▁ship	-614
▁come	-615
▁Ch	-616
▁team	-617
▁ran	-618
▁help	-619
▁They	-620
▁tin	-621
▁famil	-622
▁ness	-623
▁comm	-624
▁stu	-625
▁$	-626
▁sday	-627
▁ence	-628
▁point	-629
▁han	-630
▁tho	-631
▁very	-632
▁mak	-633
▁life	-634
ouse	-635
▁tak	-636
▁poli	-637
pt	-638
▁sm	-639
▁read	-640
▁many	-641
▁run	-642
ef	-643
▁ci	-644
ass	-645
▁cho	-646
ff	-647
▁less	-648
▁ward	-649
▁£	-650
ris	-651
▁os	-652
▁You	-653
▁let	-654
▁sk	-655
▁des	-656
▁ght	-657
▁says	-658
▁thou	-659
▁ell	-660
▁those	-661
▁ru	-662
ua	-663
▁inclu	-664
em	-665
▁rs	-666
▁sra	-667
▁take	-668
▁bro	-669
▁sing	-670
era	-671
▁da	-672
aso	-673
▁que	-674
▁ct	-675
▁cle	-676
▁ey	-677
▁law	-678
▁ance	-679
tl	-680
▁pri	-681
▁led	-682
▁wom	-683
▁tions	-684
▁srael	-685
▁play	-686
▁ress	-687
een	-688
▁fin	-689
▁Pre	-690
▁hould	-691
▁cul	-692
ob	-693
▁ond	-694
▁sion	-695
▁No	-696
▁much	-697
▁ann	-698
▁nu	-699
ack	-700
▁ies	-701
▁serv	-702
▁mil	-703
▁ign	-704
▁iss	-705
▁good	-706
▁Jo	-707
▁ice	-708
▁Ma	-709
▁dd	-710
red	-711
▁view	-712
▁ia	-713
▁still	-714
▁ive	-715
xt	-716
▁these	-717
▁oll	-718
men	-719
▁wa	-720
▁world	-721
▁So	-722
▁since	-723
▁There	-724
▁sha	-725
▁For	-726
▁found	-727
▁ement	-728
meri	-729
▁Ameri	-730
▁ssi	-731
▁ublic	-732
▁untry	-733
▁ris	-734
▁land	-735
▁presi	-736
ren	-737
▁pu	-738
ten	-739
▁ccord	-740
▁head	-741
▁ary	-742
▁vide	-743
ick	-744
▁olice	-745
▁St	-746
▁four	-747
▁rit	-748
arge	-749
▁wo	-750
▁enc	-751
ower	-752
▁ful	-753
ts	-754
▁tween	-755
▁rat	-756
llo	-757
▁happ	-758
▁such	-759
▁econd	-760
▁follo	-761
▁feel	-762
▁sed	-763
ms	-764
▁ep	-765
▁fri	-766
▁That	-767
▁oun	-768
▁nor	-769
▁hand	-770
▁camp	-771
▁erson	-772
av	-773
any	-774
atch	-775
iden	-776
ual	-777
▁night	-778
▁memb	-779
sta	-780
ina	-781
▁Ind	-782
▁ul	-783
▁say	-784
per	-785
▁open	-786
▁arti	-787
▁cl	-788
▁ei	-789
▁does	-790
▁clo	-791
ote	-792
▁Biden	-793
ba	-794
▁lot	-795
ger	-796
▁game	-797
▁sign	-798
▁Mi	-799
▁order	-800
▁ussi	-801
▁added	-802
▁test	-803
▁alth	-804
▁ble	-805
▁US	-806
▁nti	-807
outh	-808
▁ussia	-809
▁ember	-810
▁air	-811
▁rm	-812
▁ge	-813
▁ud	-814
▁left	-815
rec	-816
▁Cha	-817
▁ai	-818
▁top	-819
ount	-820
▁car	-821
▁cro	-822
▁au	-823
▁ass	-824
▁here	-825
▁ce	-826
▁fr	-827
▁full	-828
▁gn	-829
▁group	-830
▁wr	-831
▁cri	-832
▁fil	-833
▁may	-834
▁oci	-835
▁rid	-836
anc	-837
▁got	-838
▁ttack	-839
▁seaso	-840
▁India	-841
▁ting	-842
▁nom	-843
▁both	-844
▁!	-845
▁dep	-846
▁win	-847
▁port	-848
▁ated	-849
▁best	-850
▁od	-851
▁ask	-852
▁dra	-853
▁anoth	-854
▁How	-855
▁ant	-856
▁place	-857
▁mb	-858
atu	-859
▁ties	-860
▁Whi	-861
sib	-862
▁rk	-863
▁ently	-864
▁;	-865
ustr	-866
▁each	-867
▁trans	-868
▁issue	-869
▁next	-870
▁tinue	-871
▁frien	-872
▁use	-873
▁tain	-874
▁ities	-875
▁ol	-876
▁Presi	-877
▁ug	-878
▁ir	-879
hy	-880
▁dat	-881
▁too	-882
▁quest	-883
▁thi	-884
▁clear	-885
▁direc	-886
▁far	-887
▁call	-888
▁cer	-889
▁mm	-890
▁force	-891
rai	-892
lea	-893
ance	-894
▁ak	-895
▁Con	-896
ven	-897
▁tell	-898
▁ppear	-899
▁redit	-900
▁chool	-901
▁clude	-902
▁same	-903
▁oppo	-904
▁event	-905
▁near	-906
▁alled	-907
▁dri	-908
▁sur	-909
wi	-910
ited	-911
▁lit	-912
▁ning	-913
▁nce	-914
▁ldren	-915
▁temp	-916
▁lw	-917
▁offer	-918
for	-919
▁As	-920
▁never	-921
▁Z	-922
▁deci	-923
▁ready	-924
▁emp	-925
moc	-926
▁form	-927
▁exper	-928
▁Ga	-929
▁art	-930
▁pi	-931
▁case	-932
ffe	-933
▁ren	-934
▁sec	-935
▁Pa	-936
▁omm	-937
▁rent	-938
▁media	-939
qu	-940
▁light	-941
▁lic	-942
▁ong	-943
iti	-944
ali	-945
▁keep	-946
▁great	-947
▁power	-948
▁kill	-949
▁days	-950
▁Uk	-951
▁inves	-952
sh	-953
▁ctor	-954
▁Ukrai	-955
▁respo	-956
▁away	-957
▁ine	-958
▁try	-959
▁diffe	-960
▁10	-961
ani	-962
▁ard	-963
▁gener	-964
▁acc	-965
ner	-966
▁face	-967
▁ocial	-968
ild	-969
▁ju	-970
▁Re	-971
▁ess	-972
▁Mo	-973
gan	-974
▁cour	-975
▁tment	-976
▁times	-977
▁mpany	-978
▁sul	-979
▁Mar	-980
▁vo	-981
We	-982
▁court	-983
▁house	-984
▁che	-985
▁put	-986
▁numb	-987
▁campa	-988
▁UK	-989
ict	-990
▁If	-991
▁free	-992
▁final	-993
fec	-994
hen	-995
▁leg	-996
▁self	-997
▁ience	-998
▁cla	-999
▁cross	-1000
▁women	-1001
gin	-1002
▁eli	-1003
▁party	-1004
vel	-1005
ub	-1006
▁ut	-1007
▁When	-1008
▁five	-1009
▁An	-1010
▁bod	-1011
ze	-1012
ect	-1013
▁plan	-1014
▁ern	-1015
▁oc	-1016
▁stra	-1017
▁Su	-1018
▁giv	-1019
▁gge	-1020
jor	-1021
▁char	-1022
▁ki	-1023
▁rela	-1024
▁ens	-1025
▁ccess	-1026
▁post	-1027
▁tting	-1028
▁ously	-1029
▁ste	-1030
▁body	-1031
ale	-1032
▁ggest	-1033
▁build	-1034
rol	-1035
▁gr	-1036
▁didn	-1037
▁seen	-1038
▁Rep	-1039
▁love	-1040
▁won	-1041
ugh	-1042
▁used	-1043
▁care	-1044
ac	-1045
▁ny	-1046
ames	-1047
▁chang	-1048
▁spect	-1049
lop	-1050
▁late	-1051
▁ago	-1052
▁lways	-1053
ap	-1054
▁Go	-1055
▁vis	-1056
▁took	-1057
▁manag	-1058
▁sen	-1059
ee	-1060
▁cent	-1061
▁stor	-1062
▁ie	-1063
▁fire	-1064
▁mini	-1065
▁tter	-1066
▁sub	-1067
▁later	-1068
▁cap	-1069
ush	-1070
▁water	-1071
▁tical	-1072
▁enter	-1073
▁young	-1074
▁Sc	-1075
▁ok	-1076
▁tory	-1077
▁foot	-1078
▁earch	-1079
▁cket	-1080
▁opera	-1081
▁eas	-1082
▁ust	-1083
▁cur	-1084
▁fic	-1085
▁llen	-1086
▁velop	-1087
ace	-1088
▁bre	-1089
▁ean	-1090
▁rse	-1091
▁ral	-1092
▁bas	-1093
▁sive	-1094
gu	-1095
▁One	-1096
▁gram	-1097
▁Af	-1098
▁charg	-1099
▁ap	-1100
▁blo	-1101
ash	-1102
▁amp	-1103
▁Ju	-1104
▁talk	-1105
▁[	-1106
▁hard	-1107
uc	-1108
▁went	-1109
▁etter	-1110
▁bit	-1111
▁star	-1112
▁ten	-1113
▁To	-1114
▁grow	-1115
ari	-1116
▁might	-1117
▁On	-1118
▁six	-1119
▁Wi	-1120
▁came	-1121
▁av	-1122
lack	-1123
▁men	-1124
▁cost	-1125
▁major	-1126
▁]	-1127
▁ional	-1128
▁claim	-1129
▁yst	-1130
▁curr	-1131
▁ide	-1132
▁give	-1133
▁nited	-1134
ita	-1135
▁net	-1136
▁relea	-1137
▁arri	-1138
▁met	-1139
▁ts	-1140
▁inf	-1141
za	-1142
hoto	-1143
▁hit	-1144
▁uth	-1145
▁wing	-1146
▁break	-1147
▁film	-1148
▁ball	-1149
▁ost	-1150
▁ystem	-1151
▁few	-1152
ous	-1153
▁sid	-1154
▁eg	-1155
ary	-1156
▁fie	-1157
▁ntial	-1158
▁South	-1159
▁large	-1160
▁mark	-1161
▁aying	-1162
▁mov	-1163
▁deal	-1164
▁ec	-1165
▁big	-1166
▁rai	-1167
▁cli	-1168
▁dro	-1169
oney	-1170
▁annou	-1171
▁low	-1172
▁hour	-1173
▁littl	-1174
▁meet	-1175
▁Un	-1176
▁Mc	-1177
▁milit	-1178
▁lac	-1179
▁allow	-1180
▁What	-1181
▁half	-1182
▁fra	-1183
▁Democ	-1184
eg	-1185
▁X	-1186
▁hav	-1187
▁sy	-1188
▁hold	-1189
▁level	-1190
▁val	-1191
▁mment	-1192
▁tic	-1193
▁pass	-1194
▁ecome	-1195
▁ssion	-1196
▁ley	-1197
ank	-1198
▁sever	-1199
▁rket	-1200
▁local	-1201
▁ind	-1202
▁actio	-1203
hn	-1204
▁gress	-1205
ara	-1206
▁uthor	-1207
▁fight	-1208
▁along	-1209
▁ture	-1210
▁Howev	-1211
▁spo	-1212
▁forma	-1213
bu	-1214
uni	-1215
▁oy	-1216
▁vol	-1217
▁West	-1218
▁ew	-1219
▁nut	-1220
▁money	-1221
▁Ra	-1222
▁yers	-1223
ton	-1224
▁urity	-1225
ork	-1226
ictu	-1227
▁room	-1228
▁ossib	-1229
▁job	-1230
▁tiga	-1231
▁city	-1232
▁video	-1233
itu	-1234
▁sider	-1235
▁early	-1236
▁York	-1237
▁ee	-1238
▁hange	-1239
▁momen	-1240
▁adv	-1241
▁known	-1242
ph	-1243
▁im	-1244
▁posi	-1245
▁Natio	-1246
mage	-1247
▁news	-1248
▁lle	-1249
▁live	-1250
▁death	-1251
▁lin	-1252
vea	-1253
▁lu	-1254
▁main	-1255
▁stitu	-1256
▁close	-1257
▁ight	-1258
▁deli	-1259
▁Q	-1260
▁field	-1261
ular	-1262
▁stop	-1263
▁date	-1264
▁ori	-1265
▁ject	-1266
▁ries	-1267
▁John	-1268
▁impor	-1269
▁dence	-1270
▁wro	-1271
▁hy	-1272
▁cess	-1273
▁vel	-1274
▁wrote	-1275
ont	-1276
▁find	-1277
▁ound	-1278
▁ook	-1279
▁stic	-1280
▁count	-1281
▁watch	-1282
▁cover	-1283
▁sto	-1284
▁revea	-1285
▁der	-1286
▁ham	-1287
▁flo	-1288
▁pr	-1289
▁inj	-1290
ble	-1291
▁Chi	-1292
▁activ	-1293
▁until	-1294
▁um	-1295
▁fini	-1296
▁bra	-1297
▁treat	-1298
▁fac	-1299
▁name	-1300
▁arris	-1301
▁wal	-1302
▁busi	-1303
▁third	-1304
▁nta	-1305
▁visit	-1306
▁News	-1307
▁crea	-1308
▁past	-1309
▁shed	-1310
▁reg	-1311
▁lican	-1312
▁omp	-1313
▁tech	-1314
▁Mini	-1315
be	-1316
ept	-1317
▁quir	-1318
fi	-1319
▁rre	-1320
▁cu	-1321
▁volv	-1322
▁Repub	-1323
▁em	-1324
▁After	-1325
▁dec	-1326
ist	-1327
▁hed	-1328
▁lleng	-1329
▁ritic	-1330
pi	-1331
▁At	-1332
▁eal	-1333
▁short	-1334
▁dy	-1335
▁Pro	-1336
▁Nor	-1337
▁groun	-1338
▁cy	-1339
▁pay	-1340
▁front	-1341
▁goal	-1342
▁nter	-1343
▁eries	-1344
▁ally	-1345
▁rn	-1346
▁Get	-1347
gy	-1348
▁Eu	-1349
▁role	-1350
▁ric	-1351
▁injur	-1352
▁%	-1353
▁cial	-1354
▁hum	-1355
▁arent	-1356
▁small	-1357
▁spite	-1358
▁tand	-1359
▁ch	-1360
▁eat	-1361
▁stru	-1362
▁olo	-1363
▁sure	-1364
▁vers	-1365
▁orted	-1366
▁unity	-1367
▁desi	-1368
▁ref	-1369
▁food	-1370
▁ian	-1371
▁min	-1372
▁resi	-1373
▁om	-1374
tion	-1375
▁geth	-1376
▁House	-1377
▁rd	-1378
▁due	-1379
▁tant	-1380
▁tribu	-1381
cia	-1382
▁previ	-1383
▁ded	-1384
▁ming	-1385
▁br	-1386
▁book	-1387
▁gett	-1388
▁expec	-1389
▁asked	-1390
enc	-1391
tio	-1392
igh	-1393
▁lla	-1394
▁sit	-1395
▁Eng	-1396
▁liv	-1397
▁mus	-1398
▁iz	-1399
▁layed	-1400
▁rease	-1401
▁why	-1402
▁eng	-1403
▁vio	-1404
▁hope	-1405
▁Scot	-1406
ald	-1407
▁Ro	-1408
mmi	-1409
▁race	-1410
▁Engla	-1411
▁dam	-1412
▁nced	-1413
▁comes	-1414
▁bor	-1415
▁taken	-1416
▁City	-1417
▁must	-1418
▁step	-1419
▁based	-1420
▁stand	-1421
▁Gaza	-1422
▁viol	-1423
▁ara	-1424
▁rou	-1425
▁omb	-1426
▁dre	-1427
▁doing	-1428
▁20	-1429
▁abi	-1430
▁Me	-1431
▁often	-1432
▁fli	-1433
▁Euro	-1434
▁ton	-1435
BC	-1436
▁sl	-1437
▁risk	-1438
▁anc	-1439
▁onald	-1440
▁list	-1441
▁least	-1442
▁duce	-1443
▁ph	-1444
utu	-1445
▁cal	-1446
▁ctu	-1447
▁done	-1448
▁While	-1449
▁With	-1450
ade	-1451
▁Th	-1452
▁orn	-1453
▁anti	-1454
▁futu	-1455
rea	-1456
▁among	-1457
▁mpion	-1458
▁fur	-1459
▁today	-1460
▁tax	-1461
▁eleb	-1462
▁unday	-1463
ful	-1464
▁ondon	-1465
▁int	-1466
▁ner	-1467
▁tail	-1468
▁human	-1469
▁given	-1470
▁fer	-1471
▁ions	-1472
▁riday	-1473
▁club	-1474
▁sult	-1475
▁Chris	-1476
▁onday	-1477
▁struc	-1478
▁umm	-1479
by	-1480
▁walk	-1481
▁wheth	-1482
▁fla	-1483
▁tch	-1484
▁rod	-1485
▁ple	-1486
▁ntrol	-1487
▁har	-1488
▁sco	-1489
▁perc	-1490
▁ials	-1491
ea	-1492
▁moth	-1493
▁elebr	-1494
▁wards	-1495
▁pecia	-1496
▁Tue	-1497
▁Al	-1498
▁driv	-1499
▁oup	-1500
▁games	-1501
▁rema	-1502
▁graph	-1503
oy	-1504
▁Is	-1505
▁duct	-1506
▁threa	-1507
▁ehi	-1508
▁North	-1509
pa	-1510
▁fans	-1511
▁ism	-1512
▁featu	-1513
▁Oct	-1514
▁fle	-1515
▁remai	-1516
▁His	-1517
▁Jan	-1518
▁sso	-1519
▁ened	-1520
▁speak	-1521
▁evi	-1522
▁share	-1523
ndi	-1524
▁rtner	-1525
▁ack	-1526
▁rul	-1527
▁enou	-1528
▁child	-1529
▁ven	-1530
▁woman	-1531
au	-1532
▁dustr	-1533
▁furth	-1534
▁nning	-1535
▁nf	-1536
▁effec	-1537
▁China	-1538
▁ect	-1539
▁mul	-1540
▁class	-1541
▁lmo	-1542
▁regio	-1543
lv	-1544
It	-1545
▁ngle	-1546
▁rence	-1547
▁eag	-1548
▁andi	-1549
▁Ms	-1550
▁kind	-1551
▁ds	-1552
▁Nov	-1553
▁tempt	-1554
▁heart	-1555
▁mod	-1556
▁ehind	-1557
▁ices	-1558
▁ned	-1559
▁raise	-1560
▁once	-1561
▁depen	-1562
▁signi	-1563
▁Br	-1564
▁All	-1565
▁Thur	-1566
▁move	-1567
▁spi	-1568
une	-1569
▁Bo	-1570
▁ling	-1571
▁disp	-1572
▁Ca	-1573
▁gi	-1574
▁area	-1575
▁match	-1576
▁ava	-1577
▁pote	-1578
▁ouple	-1579
▁lie	-1580
▁Wor	-1581
▁phone	-1582
▁Wed	-1583
ided	-1584
▁tro	-1585
▁stay	-1586
▁ummer	-1587
▁mind	-1588
▁serve	-1589
▁roduc	-1590
▁targe	-1591
▁glo	-1592
▁nner	-1593
▁rac	-1594
▁Getty	-1595
▁Wedne	-1596
sio	-1597
▁def	-1598
tai	-1599
▁nder	-1600
▁weeks	-1601
▁dm	-1602
▁doesn	-1603
▁ier	-1604
▁shot	-1605
▁term	-1606
▁Austr	-1607
▁rance	-1608
▁ngton	-1609
▁ount	-1610
▁tect	-1611
▁ick	-1612
▁fess	-1613
▁tract	-1614
▁World	-1615
▁fel	-1616
▁scen	-1617
▁areer	-1618
▁mis	-1619
▁hours	-1620
▁effor	-1621
▁lmost	-1622
▁space	-1623
▁iv	-1624
▁Ka	-1625
▁ency	-1626
▁runn	-1627
▁ctual	-1628
▁May	-1629
▁State	-1630
▁commi	-1631
▁yet	-1632
▁ast	-1633
▁music	-1634
▁story	-1635
▁lete	-1636
end	-1637
▁Man	-1638
▁Some	-1639
▁hared	-1640
qua	-1641
▁Di	-1642
▁hot	-1643
▁fund	-1644
▁rrest	-1645
▁using	-1646
▁wait	-1647
▁bring	-1648
▁ail	-1649
▁nge	-1650
▁ourse	-1651
▁Be	-1652
▁unc	-1653
▁board	-1654
▁mid	-1655
▁>	-1656
▁com	-1657
▁saw	-1658
▁aring	-1659
▁condi	-1660
▁stead	-1661
▁key	-1662
▁lly	-1663
▁idea	-1664
▁cular	-1665
▁Sat	-1666
▁Lo	-1667
▁hos	-1668
▁quali	-1669
▁inv	-1670
▁data	-1671
▁secu	-1672
▁eign	-1673
▁deliv	-1674
dy	-1675
▁layer	-1676
▁rp	-1677
▁reach	-1678
▁ahe	-1679
▁ugg	-1680
sed	-1681
▁bri	-1682
▁dding	-1683
▁meone	-1684
▁pect	-1685
▁finan	-1686
▁ping	-1687
▁hospi	-1688
ult	-1689
▁techn	-1690
▁trike	-1691
▁alleg	-1692
▁plain	-1693
▁repre	-1694
▁rsity	-1695
▁lear	-1696
▁dmini	-1697
▁nne	-1698
irm	-1699
uss	-1700
▁Satur	-1701
▁nfirm	-1702
▁Ge	-1703
▁ener	-1704
▁mess	-1705
▁Ha	-1706
▁Ni	-1707
▁deep	-1708
▁ause	-1709
▁stage	-1710
led	-1711
▁trict	-1712
▁rri	-1713
▁coll	-1714
▁olicy	-1715
▁ident	-1716
▁earli	-1717
▁inci	-1718
▁medic	-1719
▁nutes	-1720
▁<	-1721
▁tire	-1722
▁photo	-1723
▁jour	-1724
▁serva	-1725
▁impac	-1726
▁exc	-1727
▁tat	-1728
▁held	-1729
▁vote	-1730
▁La	-1731
▁ft	-1732
▁June	-1733
▁draw	-1734
▁*	-1735
▁spoke	-1736
▁kid	-1737
▁warn	-1738
▁Black	-1739
▁fully	-1740
▁journ	-1741
▁shop	-1742
▁cut	-1743
▁swi	-1744
▁spot	-1745
▁rison	-1746
▁desc	-1747
▁fact	-1748
▁suit	-1749
▁sty	-1750
▁ught	-1751
▁impro	-1752
▁legal	-1753
▁tted	-1754
▁price	-1755
▁Cu	-1756
▁nding	-1757
eti	-1758
▁AI	-1759
▁seven	-1760
ana	-1761
▁gir	-1762
▁eye	-1763
▁ourt	-1764
▁atch	-1765
▁TV	-1766
▁fy	-1767
▁ah	-1768
▁30	-1769
▁staff	-1770
▁tru	-1771
▁emer	-1772
▁Ap	-1773
▁girl	-1774
▁word	-1775
▁died	-1776
▁ahead	-1777
▁hing	-1778
▁oter	-1779
▁quick	-1780
▁ped	-1781
▁spend	-1782
▁isa	-1783
▁grant	-1784
▁Ger	-1785
▁ski	-1786
ps	-1787
▁felt	-1788
▁Do	-1789
▁tow	-1790
▁trip	-1791
▁oters	-1792
▁Ham	-1793
▁July	-1794
▁lost	-1795
▁rtuni	-1796
▁pain	-1797
▁nes	-1798
▁Octob	-1799
▁defen	-1800
▁oo	-1801
▁lea	-1802
▁ome	-1803
▁frica	-1804
▁ise	-1805
▁eague	-1806
▁energ	-1807
▁ustom	-1808
tim	-1809
▁enj	-1810
▁Briti	-1811
▁ari	-1812
▁wide	-1813
▁12	-1814
ecu	-1815
▁ical	-1816
▁road	-1817
▁oil	-1818
▁arli	-1819
▁cultu	-1820
▁eight	-1821
▁disc	-1822
▁ensu	-1823
▁model	-1824
▁uni	-1825
▁Gu	-1826
▁equ	-1827
▁Was	-1828
▁fall	-1829
▁nic	-1830
ns	-1831
▁esta	-1832
▁uncil	-1833
▁Sept	-1834
▁emerg	-1835
▁ssoci	-1836
cti	-1837
▁March	-1838
▁sw	-1839
▁learn	-1840
ril	-1841
▁lov	-1842
▁mand	-1843
▁15	-1844
▁Germa	-1845
▁means	-1846
▁ake	-1847
▁ike	-1848
▁nv	-1849
▁entra	-1850
▁dead	-1851
▁lieve	-1852
▁ility	-1853
▁mount	-1854
▁Vi	-1855
▁oach	-1856
▁wife	-1857
▁door	-1858
▁Pal	-1859
▁enn	-1860
▁sand	-1861
▁stice	-1862
▁fath	-1863
▁Janua	-1864
▁priva	-1865
▁oint	-1866
▁mar	-1867
▁avail	-1868
▁ones	-1869
▁rning	-1870
▁tot	-1871
▁worth	-1872
ie	-1873
▁multi	-1874
▁trial	-1875
▁April	-1876
org	-1877
▁Joe	-1878
▁host	-1879
▁ump	-1880
▁ont	-1881
efi	-1882
▁enefi	-1883
ims	-1884
▁mate	-1885
▁sonal	-1886
▁eca	-1887
▁tors	-1888
▁Georg	-1889
▁Gre	-1890
▁eiv	-1891
▁fied	-1892
▁rain	-1893
▁ross	-1894
▁ource	-1895
▁ales	-1896
▁sea	-1897
▁Dr	-1898
▁fed	-1899
▁entre	-1900
▁diff	-1901
▁daugh	-1902
▁total	-1903
▁shows	-1904
▁figu	-1905
▁town	-1906
▁began	-1907
▁treet	-1908
▁abour	-1909
▁esp	-1910
▁ext	-1911
▁odi	-1912
▁bad	-1913
▁lco	-1914
▁King	-1915
▁edu	-1916
▁ease	-1917
▁Pales	-1918
▁jud	-1919
▁wasn	-1920
▁arriv	-1921
▁hip	-1922
▁ports	-1923
▁ttend	-1924
▁&	-1925
get	-1926
▁Europ	-1927
▁Fe	-1928
▁nse	-1929
▁arter	-1930
▁ecame	-1931
▁ls	-1932
▁push	-1933
▁nnect	-1934
▁These	-1935
▁mina	-1936
▁wood	-1937
▁non	-1938
▁rim	-1939
▁bed	-1940
▁Unive	-1941
▁dr	-1942
▁pur	-1943
▁ache	-1944
▁dents	-1945
▁eni	-1946
▁cor	-1947
▁safe	-1948
▁lives	-1949
▁natu	-1950
▁organ	-1951
ure	-1952
▁tori	-1953
▁chief	-1954
▁..	-1955
▁messa	-1956
▁vest	-1957
▁yment	-1958
▁audi	-1959
▁cru	-1960
▁nian	-1961
▁...	-1962
▁ye	-1963
lat	-1964
▁super	-1965
▁nec	-1966
▁explo	-1967
▁Dep	-1968
▁bar	-1969
▁ret	-1970
▁pand	-1971
▁footb	-1972
▁ially	-1973
▁begin	-1974
▁jo	-1975
▁Off	-1976
▁eliev	-1977
▁makes	-1978
▁Hu	-1979
▁execu	-1980
▁mic	-1981
▁leav	-1982
▁track	-1983
▁aut	-1984
▁elf	-1985
▁owner	-1986
▁ratic	-1987
▁lk	-1988
▁hou	-1989
▁eived	-1990
▁lim	-1991
▁Sha	-1992
▁ali	-1993
▁kno	-1994
▁ample	-1995
▁ision	-1996
▁vari	-1997
▁park	-1998
▁Scotl	-1999
▁milar	-2000
▁Dec	-2001
▁Now	-2002
▁cade	-2003
▁mean	-2004
▁dru	-2005
▁lica	-2006
▁south	-2007
▁mpeti	-2008
▁ressu	-2009
▁scene	-2010
▁addre	-2011
▁roach	-2012
▁Ever	-2013
▁cult	-2014
▁plans	-2015
▁globa	-2016
▁needs	-2017
▁qui	-2018
▁heat	-2019
▁Washi	-2020
▁cas	-2021
▁writ	-2022
▁ised	-2023
▁scuss	-2024
▁situa	-2025
▁ash	-2026
▁rate	-2027
▁rise	-2028
▁ffer	-2029
▁diffi	-2030
▁nomic	-2031
▁Da	-2032
▁ors	-2033
▁ition	-2034
▁ccuse	-2035
▁ons	-2036
ert	-2037
▁Si	-2038
▁neg	-2039
▁Image	-2040
▁verag	-2041
▁versa	-2042
ety	-2043
▁ncer	-2044
▁apita	-2045
lymp	-2046
▁Olymp	-2047
▁gun	-2048
▁edly	-2049
▁espec	-2050
ai	-2051
▁ffic	-2052
▁Gen	-2053
▁nch	-2054
▁afety	-2055
▁link	-2056
▁tent	-2057
▁atter	-2058
▁cast	-2059
▁press	-2060
▁ily	-2061
▁lock	-2062
▁feder	-2063
▁tely	-2064
▁seri	-2065
▁check	-2066
act	-2067
▁50	-2068
▁soon	-2069
▁ingly	-2070
▁iti	-2071
▁erio	-2072
▁ounty	-2073
▁lid	-2074
▁rest	-2075
▁agenc	-2076
▁store	-2077
▁White	-2078
▁era	-2079
▁tten	-2080
▁Her	-2081
▁cra	-2082
▁Hamas	-2083
▁brand	-2084
▁leave	-2085
▁mains	-2086
▁cing	-2087
▁enjoy	-2088
▁van	-2089
▁racti	-2090
▁disa	-2091
▁rupt	-2092
▁eriod	-2093
▁else	-2094
▁sle	-2095
let	-2096
▁Du	-2097
▁pictu	-2098
▁tates	-2099
▁box	-2100
▁huge	-2101
▁rc	-2102
▁ctim	-2103
▁Net	-2104
▁kne	-2105
▁ars	-2106
▁fore	-2107
▁Ho	-2108
alif	-2109
▁Tim	-2110
▁inten	-2111
▁pular	-2112
▁ssing	-2113
▁white	-2114
▁sell	-2115
▁Calif	-2116
▁anies	-2117
▁neede	-2118
▁Insta	-2119
▁fast	-2120
▁eb	-2121
▁dit	-2122
▁rib	-2123
▁Star	-2124
▁creat	-2125
▁optio	-2126
▁nent	-2127
▁agree	-2128
▁dev	-2129
▁lain	-2130
▁fine	-2131
▁nyone	-2132
▁ugust	-2133
▁diate	-2134
▁speci	-2135
▁ez	-2136
▁eith	-2137
▁imme	-2138
▁maker	-2139
▁Ba	-2140
▁nam	-2141
▁heav	-2142
▁iled	-2143
▁Inter	-2144
vie	-2145
▁rti	-2146
▁site	-2147
▁ood	-2148
▁My	-2149
▁oth	-2150
▁cter	-2151
▁ating	-2152
ney	-2153
▁civ	-2154
▁Offic	-2155
▁lth	-2156
▁crime	-2157
form	-2158
▁buy	-2159
▁ert	-2160
▁rrow	-2161
▁quite	-2162
▁minal	-2163
▁rr	-2164
▁cou	-2165
▁Ti	-2166
▁dates	-2167
▁fre	-2168
▁sli	-2169
▁gain	-2170
▁pack	-2171
▁cot	-2172
▁11	-2173
▁ere	-2174
▁nomy	-2175
▁whole	-2176
▁meas	-2177
▁reaso	-2178
gni	-2179
▁ways	-2180
▁chara	-2181
▁north	-2182
▁repar	-2183
▁ead	-2184
▁East	-2185
▁ban	-2186
▁nsib	-2187
▁oast	-2188
▁shoot	-2189
▁block	-2190
▁ani	-2191
▁ory	-2192
▁drug	-2193
▁ath	-2194
▁damag	-2195
▁tress	-2196
▁lue	-2197
▁rank	-2198
▁ncern	-2199
▁nsi	-2200
▁gold	-2201
▁Pictu	-2202
▁ommon	-2203
▁mat	-2204
▁tform	-2205
▁cce	-2206
▁mur	-2207
▁firm	-2208
▁rath	-2209
▁Te	-2210
▁Air	-2211
▁fen	-2212
▁arm	-2213
▁encou	-2214
▁lthou	-2215
▁oss	-2216
▁gani	-2217
▁ccept	-2218
▁ony	-2219
▁ray	-2220
▁oin	-2221
▁type	-2222
▁ganiz	-2223
▁ornia	-2224
▁affec	-2225
▁Swi	-2226
▁Feb	-2227
▁ov	-2228
▁cipa	-2229
▁ould	-2230
▁oppos	-2231
▁stant	-2232
▁value	-2233
▁loss	-2234
▁ado	-2235
▁uro	-2236
▁measu	-2237
▁eer	-2238
▁seek	-2239
▁ubli	-2240
▁howed	-2241
▁laims	-2242
▁ull	-2243
▁rown	-2244
▁ety	-2245
▁civil	-2246
▁BBC	-2247
▁den	-2248
▁hood	-2249
▁sba	-2250
▁ger	-2251
▁idual	-2252
▁bat	-2253
▁Depar	-2254
▁anal	-2255
▁fence	-2256
▁tinia	-2257
▁usual	-2258
▁ig	-2259
ang	-2260
▁harm	-2261
▁dou	-2262
▁abili	-2263
ka	-2264
▁len	-2265
▁rself	-2266
▁Day	-2267
▁Sta	-2268
▁ire	-2269
▁range	-2270
▁env	-2271
▁ative	-2272
▁gri	-2273
▁ins	-2274
▁Har	-2275
▁suc	-2276
▁lliam	-2277
▁sband	-2278
▁isn	-2279
▁ics	-2280
▁bank	-2281
ati	-2282
▁tes	-2283
▁beau	-2284
▁remo	-2285
▁confi	-2286
▁enior	-2287
▁hance	-2288
▁male	-2289
▁lar	-2290
▁ssa	-2291
▁tit	-2292
▁indiv	-2293
▁wrong	-2294
▁score	-2295
▁ib	-2296
▁erc	-2297
▁sav	-2298
▁Isla	-2299
▁blem	-2300
▁fear	-2301
▁Fo	-2302
▁mal	-2303
▁pply	-2304
▁bus	-2305
▁tary	-2306
▁lower	-2307
▁amb	-2308
ori	-2309
▁dom	-2310
▁equi	-2311
▁Par	-2312
▁terri	-2313
▁Fa	-2314
▁scor	-2315
▁ctory	-2316
▁Gover	-2317
▁ery	-2318
▁ford	-2319
▁gular	-2320
▁teg	-2321
▁Part	-2322
▁fill	-2323
▁gave	-2324
▁ancer	-2325
▁pit	-2326
▁murd	-2327
▁dic	-2328
▁bate	-2329
▁pick	-2330
▁poll	-2331
▁pie	-2332
▁Not	-2333
▁ita	-2334
▁path	-2335
▁refu	-2336
▁Paris	-2337
▁tient	-2338
▁venue	-2339
hil	-2340
avid	-2341
▁beat	-2342
▁lett	-2343
▁prev	-2344
▁David	-2345
▁sults	-2346
▁Po	-2347
▁fair	-2348
▁happy	-2349
▁dc	-2350
▁nda	-2351
▁ppe	-2352
▁admi	-2353
▁ollec	-2354
▁25	-2355
▁Cup	-2356
▁ompar	-2357
▁exist	-2358
▁sis	-2359
▁More	-2360
▁ribed	-2361
▁Ex	-2362
▁Sec	-2363
▁areas	-2364
▁sense	-2365
▁engag	-2366
▁ening	-2367
▁sla	-2368
▁Park	-2369
▁sist	-2370
▁title	-2371
▁mum	-2372
▁ndu	-2373
▁roll	-2374
che	-2375
▁18	-2376
▁bab	-2377
▁tance	-2378
▁dv	-2379
▁llow	-2380
▁sold	-2381
▁creen	-2382
▁laced	-2383
▁yer	-2384
▁heard	-2385
▁infla	-2386
▁remov	-2387
▁Sea	-2388
▁Even	-2389
▁image	-2390
▁whose	-2391
▁ester	-2392
▁War	-2393
▁ney	-2394
▁origi	-2395
hic	-2396
▁regi	-2397
▁doub	-2398
▁black	-2399
ran	-2400
▁tn	-2401
▁vehic	-2402
▁Phil	-2403
▁ogni	-2404
▁rv	-2405
▁ore	-2406
▁legi	-2407
▁extra	-2408
▁spent	-2409
▁Commi	-2410
▁actor	-2411
▁earn	-2412
▁nduct	-2413
▁rench	-2414
▁13	-2415
▁pee	-2416
▁liday	-2417
▁paper	-2418
▁udget	-2419
▁bb	-2420
▁zz	-2421
▁dcast	-2422
▁fense	-2423
▁pen	-2424
▁sex	-2425
▁uck	-2426
▁paid	-2427
▁via	-2428
▁logi	-2429
▁prov	-2430
▁bably	-2431
▁nomin	-2432
▁Sm	-2433
▁les	-2434
▁Last	-2435
▁dium	-2436
▁thank	-2437
▁flic	-2438
▁ridge	-2439
▁owl	-2440
▁flict	-2441
▁pool	-2442
▁Na	-2443
▁bir	-2444
▁fect	-2445
▁ane	-2446
▁grand	-2447
▁cons	-2448
▁kids	-2449
▁judge	-2450
▁nally	-2451
▁uring	-2452
▁ock	-2453
▁clean	-2454
▁Dis	-2455
▁thr	-2456
▁ula	-2457
▁cases	-2458
▁peech	-2459
▁base	-2460
▁bill	-2461
▁educa	-2462
▁llege	-2463
▁offen	-2464
▁hys	-2465
▁arlia	-2466
▁wn	-2467
▁awa	-2468
▁div	-2469
▁join	-2470
▁tm	-2471
▁unch	-2472
cus	-2473
▁aid	-2474
▁dio	-2475
▁Photo	-2476
▁ppeal	-2477
▁Our	-2478
▁ata	-2479
▁costs	-2480
▁ology	-2481
▁40	-2482
sis	-2483
▁gar	-2484
▁avo	-2485
▁deb	-2486
▁eed	-2487
▁appro	-2488
▁chiev	-2489
▁exual	-2490
inc	-2491
▁Fi	-2492
▁Fir	-2493
▁boy	-2494
▁Every	-2495
▁az	-2496
▁lays	-2497
▁ably	-2498
▁gula	-2499
▁squa	-2500
▁hen	-2501
▁rot	-2502
▁hoice	-2503
▁tried	-2504
▁easy	-2505
▁okes	-2506
▁para	-2507
▁First	-2508
▁erous	-2509
▁tness	-2510
▁plo	-2511
▁cerns	-2512
▁tatio	-2513
▁telli	-2514
▁gone	-2515
▁ttee	-2516
▁Febru	-2517
▁anger	-2518
▁prise	-2519
▁prom	-2520
▁arg	-2521
▁alia	-2522
▁east	-2523
▁14	-2524
▁colla	-2525
▁insta	-2526
▁16	-2527
▁James	-2528
▁influ	-2529
▁sti	-2530
▁refer	-2531
▁ark	-2532
▁occ	-2533
▁demo	-2534
▁fit	-2535
▁envir	-2536
▁onsum	-2537
▁rices	-2538
▁rats	-2539
▁ax	-2540
▁onmen	-2541
▁trust	-2542
unc	-2543
▁ual	-2544
▁loc	-2545
▁assi	-2546
▁gree	-2547
▁immi	-2548
▁nnel	-2549
▁sands	-2550
▁urope	-2551
▁ili	-2552
▁Ital	-2553
▁study	-2554
▁git	-2555
▁birth	-2556
▁locat	-2557
▁nst	-2558
▁onfe	-2559
▁focus	-2560
▁ining	-2561
▁nine	-2562
▁tmas	-2563
▁Ki	-2564
▁ona	-2565
▁tric	-2566
▁clima	-2567
▁_	-2568
▁ought	-2569
wer	-2570
▁chair	-2571
▁ental	-2572
▁rag	-2573
▁addi	-2574
▁uggl	-2575
▁avoid	-2576
▁shock	-2577
▁gla	-2578
▁nct	-2579
▁analy	-2580
▁nswer	-2581
▁rant	-2582
▁howev	-2583
▁crow	-2584
▁knew	-2585
▁lling	-2586
▁Ama	-2587
▁ther	-2588
▁table	-2589
▁mse	-2590
▁mine	-2591
▁neigh	-2592
▁Qu	-2593
▁Jack	-2594
▁esca	-2595
▁tche	-2596
▁takes	-2597
▁wants	-2598
▁mf	-2599
▁lan	-2600
▁lack	-2601
▁Iran	-2602
▁epi	-2603
▁page	-2604
▁termi	-2605
▁dia	-2606
▁movie	-2607
▁cir	-2608
▁gent	-2609
▁hear	-2610
▁volu	-2611
▁shire	-2612
▁stori	-2613
▁Bi	-2614
▁hysic	-2615
▁mselv	-2616
▁mfort	-2617
▁ami	-2618
▁umb	-2619
▁pair	-2620
▁rney	-2621
▁fford	-2622
▁Pri	-2623
▁ritai	-2624
est	-2625
▁bs	-2626
▁sort	-2627
▁Prime	-2628
▁loved	-2629
▁crowd	-2630
▁peace	-2631
▁qua	-2632
▁rite	-2633
▁excit	-2634
▁rimar	-2635
▁touch	-2636
▁ride	-2637
▁torm	-2638
▁lent	-2639
▁size	-2640
▁Anoth	-2641
▁stock	-2642
▁creas	-2643
▁olly	-2644
▁Party	-2645
▁launc	-2646
▁risis	-2647
▁sport	-2648
▁ditio	-2649
▁Spe	-2650
▁Or	-2651
▁rush	-2652
▁yn	-2653
▁abo	-2654
▁cided	-2655
▁fav	-2656
▁chael	-2657
ilt	-2658
▁esse	-2659
▁ferr	-2660
▁pt	-2661
▁dog	-2662
ars	-2663
▁ndard	-2664
▁Bu	-2665
▁drink	-2666
▁cans	-2667
▁tour	-2668
▁solu	-2669
▁ina	-2670
▁Paul	-2671
▁moved	-2672
▁erry	-2673
▁osted	-2674
▁kick	-2675
▁lish	-2676
▁pull	-2677
▁Wal	-2678
▁nel	-2679
▁ater	-2680
▁lash	-2681
▁teen	-2682
▁itial	-2683
▁ese	-2684
▁easi	-2685
▁ain	-2686
▁wea	-2687
▁ndred	-2688
▁pread	-2689
▁battl	-2690
▁estab	-2691
▁named	-2692
▁bur	-2693
▁send	-2694
▁Smith	-2695
▁istan	-2696
▁geria	-2697
▁plant	-2698
▁settl	-2699
▁stain	-2700
▁terms	-2701
▁true	-2702
▁sse	-2703
▁prior	-2704
▁homes	-2705
▁guard	-2706
▁tream	-2707
▁gned	-2708
▁menta	-2709
▁eth	-2710
▁ator	-2711
▁aware	-2712
▁ssess	-2713
▁ala	-2714
▁annot	-2715
▁emplo	-2716
▁weapo	-2717
▁eil	-2718
▁hair	-2719
▁occu	-2720
▁tics	-2721
▁ttle	-2722
▁throw	-2723
▁Del	-2724
▁hop	-2725
▁slow	-2726
cl	-2727
▁ura	-2728
▁Ser	-2729
▁AP	-2730
▁Mu	-2731
▁sci	-2732
▁ized	-2733
▁aint	-2734
▁carry	-2735
▁green	-2736
▁voice	-2737
▁gro	-2738
▁Char	-2739
▁relat	-2740
▁ades	-2741
▁ontr	-2742
▁Green	-2743
▁depar	-2744
▁teach	-2745
▁treme	-2746
▁ish	-2747
▁ans	-2748
▁mmuni	-2749
He	-2750
If	-2751
▁bag	-2752
▁pper	-2753
▁spir	-2754
▁Times	-2755
▁terna	-2756
▁skin	-2757
▁ntact	-2758
▁ntent	-2759
▁focu	-2760
▁lines	-2761
▁looks	-2762
▁posed	-2763
▁hedul	-2764
▁sions	-2765
▁stanc	-2766
▁rian	-2767
▁perty	-2768
▁yd	-2769
▁ature	-2770
ledg	-2771
▁promi	-2772
▁wledg	-2773
▁alm	-2774
▁rew	-2775
▁nese	-2776
▁award	-2777
▁teria	-2778
▁igned	-2779
▁miss	-2780
▁gital	-2781
▁rules	-2782
▁nk	-2783
▁ool	-2784
▁aily	-2785
▁epara	-2786
▁teams	-2787
▁San	-2788
▁poor	-2789
▁sleep	-2790
▁ttent	-2791
hav	-2792
▁clar	-2793
▁estim	-2794
▁Li	-2795
▁ston	-2796
▁senta	-2797
▁Cla	-2798
▁oke	-2799
▁drive	-2800
ula	-2801
▁goes	-2802
▁Manch	-2803
▁intro	-2804
▁erg	-2805
▁ians	-2806
▁gg	-2807
▁redi	-2808
▁seat	-2809
▁rg	-2810
▁oon	-2811
▁zen	-2812
▁arra	-2813
▁dvanc	-2814
▁rates	-2815
▁Fl	-2816
▁ior	-2817
▁yal	-2818
▁hose	-2819
▁stat	-2820
▁amera	-2821
▁signa	-2822
▁views	-2823
▁Then	-2824
▁leag	-2825
▁ector	-2826
▁wall	-2827
▁ouldn	-2828
▁aj	-2829
▁mit	-2830
▁inly	-2831
▁intai	-2832
▁Prem	-2833
▁born	-2834
▁By	-2835
▁NA	-2836
▁ama	-2837
▁ana	-2838
▁broth	-2839
▁eeing	-2840
▁wed	-2841
▁ason	-2842
▁ducts	-2843
▁17	-2844
▁Of	-2845
▁Ale	-2846
▁Tex	-2847
▁ega	-2848
ret	-2849
▁fan	-2850
▁ile	-2851
▁Serv	-2852
▁nned	-2853
▁rotec	-2854
▁vided	-2855
▁raz	-2856
▁pitch	-2857
▁lip	-2858
▁dden	-2859
▁llar	-2860
▁Charl	-2861
▁built	-2862
▁nings	-2863
▁Ar	-2864
▁Ire	-2865
▁ole	-2866
▁styl	-2867
▁Chief	-2868
▁ecret	-2869
▁ounda	-2870
▁ip	-2871
▁ada	-2872
▁tab	-2873
▁Irela	-2874
▁issed	-2875
▁Tra	-2876
▁row	-2877
▁exten	-2878
▁hands	-2879
▁bel	-2880
▁scar	-2881
▁drama	-2882
▁ealth	-2883
▁nging	-2884
com	-2885
▁rad	-2886
▁cotti	-2887
▁leagu	-2888
▁Mean	-2889
▁ream	-2890
▁ctors	-2891
▁High	-2892
▁cale	-2893
▁drop	-2894
▁gard	-2895
▁text	-2896
▁broad	-2897
▁ssful	-2898
▁Red	-2899
▁Los	-2900
▁fal	-2901
▁ffa	-2902
▁spr	-2903
▁From	-2904
▁runs	-2905
▁ended	-2906
apan	-2907
▁Japan	-2908
▁lab	-2909
▁Kore	-2910
▁fresh	-2911
▁24	-2912
▁bso	-2913
▁ifi	-2914
▁Cana	-2915
▁succe	-2916
▁embl	-2917
▁haps	-2918
▁Korea	-2919
▁bsolu	-2920
▁yard	-2921
▁ments	-2922
que	-2923
▁gui	-2924
▁defe	-2925
▁riv	-2926
▁ords	-2927
▁norma	-2928
▁roper	-2929
▁edi	-2930
▁mart	-2931
▁hotel	-2932
▁nvict	-2933
▁ace	-2934
▁cky	-2935
▁docu	-2936
▁stake	-2937
▁Put	-2938
▁ade	-2939
▁Ab	-2940
▁ero	-2941
▁Alex	-2942
▁amid	-2943
▁Tho	-2944
▁loy	-2945
▁sia	-2946
▁Over	-2947
▁tests	-2948
▁nger	-2949
▁alone	-2950
▁behav	-2951
▁fru	-2952
▁craft	-2953
▁retty	-2954
▁ength	-2955
▁limit	-2956
▁ghout	-2957
att	-2958
▁above	-2959
▁trade	-2960
▁tz	-2961
▁Many	-2962
▁rviv	-2963
▁okesp	-2964
▁shift	-2965
▁opt	-2966
▁blood	-2967
▁lcome	-2968
▁ommit	-2969
▁ich	-2970
▁auto	-2971
▁lose	-2972
▁seem	-2973
▁gets	-2974
▁spec	-2975
▁llage	-2976
▁arb	-2977
wo	-2978
▁card	-2979
▁ached	-2980
▁blems	-2981
▁ler	-2982
▁defea	-2983
▁bsite	-2984
▁opula	-2985
▁words	-2986
▁lf	-2987
▁wear	-2988
▁loyee	-2989
ich	-2990
▁mu	-2991
▁emi	-2992
▁gue	-2993
▁scr	-2994
▁Just	-2995
▁Texas	-2996
▁dream	-2997
▁imply	-2998
▁ys	-2999
▁Gra	-3000
▁aus	-3001
▁reli	-3002
▁train	-3003
▁Ko	-3004
▁ounts	-3005
▁Andr	-3006
▁rden	-3007
▁sens	-3008
▁fue	-3009
▁bort	-3010
▁illeg	-3011
▁Fox	-3012
▁rist	-3013
▁nnual	-3014
▁sight	-3015
RE	-3016
▁weath	-3017
▁nest	-3018
▁obert	-3019
▁thlet	-3020
vis	-3021
▁rich	-3022
▁ising	-3023
▁tough	-3024
▁Two	-3025
▁gan	-3026
▁phi	-3027
▁sal	-3028
▁ora	-3029
▁fell	-3030
▁west	-3031
▁centu	-3032
▁versi	-3033
▁Col	-3034
▁plea	-3035
▁noted	-3036
▁tails	-3037
▁dult	-3038
▁ific	-3039
▁democ	-3040
▁ified	-3041
▁rtist	-3042
▁reat	-3043
▁parts	-3044
▁seems	-3045
▁mbl	-3046
▁ope	-3047
▁dest	-3048
▁stry	-3049
▁tele	-3050
▁aight	-3051
▁oined	-3052
▁save	-3053
▁Flori	-3054
▁sca	-3055
▁prime	-3056
▁@	-3057
▁cked	-3058
▁sequ	-3059
▁Speak	-3060
▁EU	-3061
▁eyo	-3062
▁mmy	-3063
▁ots	-3064
▁rof	-3065
▁rsen	-3066
▁goals	-3067
▁sound	-3068
▁urant	-3069
▁ang	-3070
▁ddle	-3071
▁tone	-3072
▁eyond	-3073
▁spond	-3074
▁tives	-3075
▁MP	-3076
▁nion	-3077
▁Putin	-3078
▁preme	-3079
▁ose	-3080
▁uts	-3081
▁fuel	-3082
▁pple	-3083
▁tera	-3084
▁Gener	-3085
▁arrie	-3086
▁inger	-3087
▁nap	-3088
▁erti	-3089
▁ique	-3090
▁lus	-3091
▁Mark	-3092
▁ave	-3093
▁ola	-3094
▁urg	-3095
▁oost	-3096
▁wild	-3097
▁losed	-3098
▁kept	-3099
▁mala	-3100
▁Since	-3101
▁sault	-3102
▁ecu	-3103
▁tiful	-3104
▁rve	-3105
▁enger	-3106
▁Ed	-3107
▁calls	-3108
▁fl	-3109
▁famou	-3110
▁gic	-3111
▁baby	-3112
▁ngele	-3113
▁uk	-3114
itiz	-3115
▁Sch	-3116
▁Here	-3117
▁citiz	-3118
mor	-3119
▁Sa	-3120
▁ove	-3121
▁perts	-3122
▁rare	-3123
▁tly	-3124
▁sses	-3125
▁Harry	-3126
▁ht	-3127
▁eem	-3128
▁aylo	-3129
▁cept	-3130
▁cious	-3131
▁dropp	-3132
▁propo	-3133
▁syl	-3134
▁anon	-3135
▁cash	-3136
▁semi	-3137
▁exact	-3138
▁expen	-3139
▁provi	-3140
ah	-3141
▁exic	-3142
▁nica	-3143
▁obvi	-3144
▁alanc	-3145
▁users	-3146
Tok	-3147
▁ank	-3148
▁kTok	-3149
▁oot	-3150
▁bili	-3151
▁floo	-3152
▁rock	-3153
▁lift	-3154
▁sett	-3155
▁unit	-3156
▁aning	-3157
▁UN	-3158
▁fun	-3159
▁ird	-3160
▁rvey	-3161
▁Sen	-3162
▁argu	-3163
▁essio	-3164
▁log	-3165
▁tto	-3166
▁rash	-3167
▁pm	-3168
▁jobs	-3169
▁uper	-3170
▁false	-3171
▁argue	-3172
▁memor	-3173
▁rom	-3174
▁warm	-3175
▁greed	-3176
▁dress	-3177
▁ema	-3178
▁aused	-3179
▁piece	-3180
▁conc	-3181
▁ried	-3182
▁ode	-3183
▁eive	-3184
▁rgin	-3185
▁shion	-3186
▁ssive	-3187
uri	-3188
▁dad	-3189
▁lace	-3190
▁oyal	-3191
▁commu	-3192
▁pande	-3193
▁resta	-3194
▁gas	-3195
▁Guard	-3196
▁artin	-3197
▁ets	-3198
▁ayo	-3199
▁band	-3200
▁arc	-3201
▁rch	-3202
▁sod	-3203
▁nou	-3204
▁Dani	-3205
▁omen	-3206
▁Sun	-3207
▁rince	-3208
no	-3209
▁ik	-3210
▁100	-3211
▁Sam	-3212
▁mise	-3213
▁urch	-3214
▁21	-3215
▁imm	-3216
▁ntest	-3217
▁union	-3218
▁ngu	-3219
▁sky	-3220
▁rity	-3221
▁flect	-3222
▁ife	-3223
▁olor	-3224
▁disco	-3225
▁laugh	-3226
▁mited	-3227
▁nsist	-3228
▁xi	-3229
▁dal	-3230
▁ppo	-3231
▁wri	-3232
▁stiv	-3233
▁gence	-3234
▁aren	-3235
▁amin	-3236
▁ower	-3237
▁enate	-3238
ces	-3239
▁een	-3240
▁sets	-3241
▁assed	-3242
▁pace	-3243
▁mony	-3244
▁trou	-3245
▁duc	-3246
▁ngli	-3247
▁tend	-3248
▁tick	-3249
▁predi	-3250
▁ees	-3251
▁fly	-3252
▁missi	-3253
▁isla	-3254
▁outh	-3255
▁zon	-3256
▁nia	-3257
▁ree	-3258
▁uct	-3259
▁ills	-3260
▁ually	-3261
▁mor	-3262
▁rry	-3263
▁ordin	-3264
▁ists	-3265
▁pose	-3266
▁rack	-3267
▁meant	-3268
▁plann	-3269
▁Don	-3270
▁McC	-3271
▁eri	-3272
▁idd	-3273
▁fying	-3274
gr	-3275
ott	-3276
▁agg	-3277
▁pop	-3278
▁atri	-3279
▁eats	-3280
▁urge	-3281
▁ister	-3282
▁ommen	-3283
▁sun	-3284
▁equa	-3285
▁etic	-3286
▁urna	-3287
▁ombin	-3288
▁oti	-3289
▁rap	-3290
▁isco	-3291
▁ndow	-3292
▁song	-3293
▁faced	-3294
▁Wa	-3295
▁bt	-3296
▁aim	-3297
▁typ	-3298
▁ze	-3299
▁oes	-3300
▁oft	-3301
▁pec	-3302
▁sale	-3303
▁esses	-3304
▁CE	-3305
▁cies	-3306
▁facil	-3307
▁handl	-3308
▁lam	-3309
▁oat	-3310
▁--	-3311
▁Liv	-3312
▁pse	-3313
▁atto	-3314
▁touri	-3315
ni	-3316
▁22	-3317
▁Bro	-3318
▁rmy	-3319
▁nstra	-3320
▁tches	-3321
▁wer	-3322
▁rely	-3323
▁19	-3324
▁advis	-3325
▁alist	-3326
▁rofit	-3327
ya	-3328
▁ure	-3329
▁llah	-3330
▁rried	-3331
▁lied	-3332
▁prem	-3333
▁iance	-3334
▁ya	-3335
▁arol	-3336
▁rcha	-3337
▁eptio	-3338
▁llega	-3339
▁Bank	-3340
▁dark	-3341
▁fica	-3342
▁eta	-3343
▁ively	-3344
▁Sh	-3345
▁dang	-3346
▁valu	-3347
▁bj	-3348
▁dor	-3349
▁ift	-3350
▁lec	-3351
▁tars	-3352
▁Mich	-3353
▁asio	-3354
▁abuse	-3355
▁ium	-3356
▁busin	-3357
▁utter	-3358
▁nds	-3359
▁yan	-3360
▁bora	-3361
▁mach	-3362
▁vita	-3363
▁aught	-3364
▁ction	-3365
▁Stu	-3366
▁guil	-3367
▁onto	-3368
▁shing	-3369
▁ghan	-3370
▁io	-3371
▁ps	-3372
▁yo	-3373
▁torie	-3374
▁nna	-3375
▁dern	-3376
▁pped	-3377
▁dg	-3378
▁nty	-3379
▁ander	-3380
JP	-3381
▁hall	-3382
▁rner	-3383
▁artic	-3384
▁bject	-3385
▁enne	-3386
▁hole	-3387
▁stric	-3388
▁ale	-3389
▁die	-3390
▁riz	-3391
▁ico	-3392
▁jec	-3393
▁ncy	-3394
▁urb	-3395
▁enal	-3396
▁otion	-3397
▁bum	-3398
▁ith	-3399
▁rule	-3400
▁email	-3401
▁laces	-3402
▁lding	-3403
▁ortun	-3404
▁ages	-3405
▁ides	-3406
▁rpor	-3407
▁addit	-3408
▁bio	-3409
▁eld	-3410
▁vet	-3411
▁sten	-3412
▁cry	-3413
▁ima	-3414
▁itt	-3415
▁Matt	-3416
▁Pi	-3417
▁cau	-3418
▁stab	-3419
▁rival	-3420
▁gs	-3421
▁nny	-3422
▁item	-3423
▁maz	-3424
▁moni	-3425
▁cue	-3426
▁usk	-3427
▁cell	-3428
▁urr	-3429
▁etch	-3430
▁dance	-3431
lie	-3432
▁nov	-3433
▁cycl	-3434
▁mile	-3435
▁nance	-3436
▁sente	-3437
▁BJP	-3438
▁flu	-3439
▁phy	-3440
man	-3441
▁lour	-3442
▁ffici	-3443
▁lb	-3444
▁hic	-3445
▁nts	-3446
▁eter	-3447
▁heme	-3448
▁ano	-3449
▁esi	-3450
▁certa	-3451
▁rb	-3452
▁rab	-3453
▁miles	-3454
▁ach	-3455
▁eep	-3456
▁choo	-3457
▁ntion	-3458
▁write	-3459
▁eu	-3460
▁Tom	-3461
▁ink	-3462
▁heir	-3463
▁nvent	-3464
▁plane	-3465
▁pic	-3466
▁elen	-3467
▁becom	-3468
▁destr	-3469
▁60	-3470
▁impl	-3471
▁ech	-3472
▁imple	-3473
▁ork	-3474
▁ncing	-3475
▁secre	-3476
▁terro	-3477
▁irs	-3478
lec	-3479
▁aci	-3480
▁elt	-3481
▁etro	-3482
▁mpt	-3483
▁ille	-3484
▁eau	-3485
▁fail	-3486
▁otes	-3487
▁aba	-3488
▁lex	-3489
▁Ira	-3490
▁dee	-3491
▁rief	-3492
▁older	-3493
TV	-3494
▁gger	-3495
▁nctio	-3496
▁eet	-3497
▁odd	-3498
▁stle	-3499
inu	-3500
▁uke	-3501
▁uri	-3502
▁wave	-3503
▁colle	-3504
▁nice	-3505
▁deter	-3506
▁ntage	-3507
▁ա	-3508
▁va	-3509
▁mir	-3510
▁burg	-3511
▁eemed	-3512
▁favou	-3513
▁gle	-3514
▁ubt	-3515
▁broke	-3516
▁neces	-3517
▁ewer	-3518
▁rect	-3519
▁yl	-3520
▁gna	-3521
▁gno	-3522
▁hat	-3523
▁pet	-3524
▁+	-3525
▁Gar	-3526
▁twi	-3527
▁urn	-3528
▁olls	-3529
▁spen	-3530
▁ntinu	-3531
▁redib	-3532
▁tedly	-3533
▁amme	-3534
▁dica	-3535
▁racy	-3536
▁stri	-3537
▁Le	-3538
▁ja	-3539
▁roo	-3540
▁eing	-3541
▁ulti	-3542
▁oting	-3543
▁=	-3544
▁Ot	-3545
▁ckets	-3546
▁overs	-3547
▁CEO	-3548
▁Mur	-3549
▁ged	-3550
▁iling	-3551
▁mbi	-3552
▁till	-3553
▁dow	-3554
▁eek	-3555
▁basi	-3556
▁tip	-3557
▁ague	-3558
▁roup	-3559
▁vent	-3560
▁neu	-3561
▁bott	-3562
▁hang	-3563
▁hase	-3564
▁CB	-3565
▁Gla	-3566
▁emot	-3567
▁ench	-3568
▁rally	-3569
▁23	-3570
▁ses	-3571
▁user	-3572
▁Other	-3573
▁eva	-3574
▁hell	-3575
▁solv	-3576
▁ely	-3577
▁27	-3578
▁spee	-3579
▁teve	-3580
▁thu	-3581
▁ible	-3582
▁lter	-3583
▁trend	-3584
▁pil	-3585
▁bera	-3586
ST	-3587
▁cow	-3588
▁fix	-3589
▁rger	-3590
▁vour	-3591
▁alian	-3592
▁ssist	-3593
My	-3594
▁asta	-3595
▁insu	-3596
▁mote	-3597
▁vered	-3598
FL	-3599
▁28	-3600
▁Hou	-3601
▁xed	-3602
▁uggle	-3603
▁26	-3604
▁Art	-3605
▁burn	-3606
▁ntain	-3607
▁Per	-3608
▁wag	-3609
▁wan	-3610
▁entr	-3611
▁nied	-3612
ու	-3613
▁}	-3614
▁NH	-3615
▁hri	-3616
▁elect	-3617
▁MO	-3618
▁uty	-3619
▁stly	-3620
▁engin	-3621
▁Sir	-3622
▁ats	-3623
▁CO	-3624
▁ahu	-3625
▁axi	-3626
▁bet	-3627
▁sts	-3628
▁ecure	-3629
▁ories	-3630
▁Ben	-3631
▁ited	-3632
▁manu	-3633
▁selec	-3634
▁ber	-3635
▁rror	-3636
▁noo	-3637
▁yri	-3638
▁vs	-3639
▁kin	-3640
▁ybe	-3641
▁nton	-3642
▁Ob	-3643
▁Goo	-3644
▁ury	-3645
▁sum	-3646
▁Will	-3647
▁ants	-3648
▁grad	-3649
▁Mos	-3650
▁eck	-3651
▁uel	-3652
▁gate	-3653
▁mas	-3654
▁tep	-3655
▁soci	-3656
▁tus	-3657
▁alla	-3658
▁ueen	-3659
▁ately	-3660
▁tual	-3661
▁spira	-3662
▁apo	-3663
▁gua	-3664
▁ken	-3665
▁dies	-3666
▁sary	-3667
▁tist	-3668
▁eason	-3669
▁Gi	-3670
▁Ri	-3671
▁eir	-3672
▁lton	-3673
▁stin	-3674
▁pecta	-3675
▁1.	-3676
▁CN	-3677
▁Kate	-3678
▁ware	-3679
▁style	-3680
▁rl	-3681
▁una	-3682
▁feet	-3683
▁ames	-3684
▁endo	-3685
▁sual	-3686
▁wish	-3687
▁allie	-3688
▁ancel	-3689
▁retai	-3690
▁\	-3691
▁kh	-3692
▁ein	-3693
▁oys	-3694
▁shes	-3695
▁trad	-3696
▁geo	-3697
▁rand	-3698
▁pot	-3699
▁wind	-3700
▁urces	-3701
▁note	-3702
▁olid	-3703
▁lease	-3704
▁egr	-3705
▁tude	-3706
▁progr	-3707
▁mou	-3708
▁logy	-3709
▁oral	-3710
▁Scott	-3711
cy	-3712
▁fec	-3713
▁ute	-3714
In	-3715
▁Secre	-3716
▁­	-3717
▁eff	-3718
▁ndy	-3719
▁arth	-3720
▁ined	-3721
▁weet	-3722
▁accu	-3723
▁ardi	-3724
▁Ku	-3725
▁PA	-3726
▁hol	-3727
▁tla	-3728
▁Act	-3729
▁ald	-3730
▁del	-3731
▁ego	-3732
▁uch	-3733
▁ceed	-3734
▁erci	-3735
▁sb	-3736
▁nat	-3737
▁eran	-3738
▁info	-3739
▁laws	-3740
▁lined	-3741
▁testi	-3742
▁aro	-3743
▁pid	-3744
▁quo	-3745
▁ceiv	-3746
▁circ	-3747
▁hill	-3748
▁ologi	-3749
▁Cap	-3750
▁disap	-3751
▁verse	-3752
▁oph	-3753
▁ests	-3754
▁flow	-3755
rov	-3756
▁IN	-3757
▁Val	-3758
▁nz	-3759
▁azi	-3760
▁nis	-3761
▁aged	-3762
▁hank	-3763
▁mend	-3764
▁hain	-3765
▁heri	-3766
▁tur	-3767
▁orce	-3768
▁ssel	-3769
▁apped	-3770
▁gy	-3771
▁lv	-3772
▁elle	-3773
▁oday	-3774
▁lean	-3775
▁asons	-3776
▁é	-3777
▁GB	-3778
▁sad	-3779
▁lega	-3780
▁stone	-3781
▁Mac	-3782
▁rus	-3783
▁nded	-3784
▁rmed	-3785
▁rose	-3786
▁PM	-3787
▁Ali	-3788
▁vac	-3789
▁yed	-3790
▁enda	-3791
▁marri	-3792
▁Pu	-3793
▁Res	-3794
▁ular	-3795
▁uses	-3796
▁bid	-3797
▁ipl	-3798
▁ult	-3799
▁gage	-3800
▁rill	-3801
▁tian	-3802
▁zone	-3803
▁tiona	-3804
▁II	-3805
▁rra	-3806
▁nute	-3807
▁abs	-3808
▁plu	-3809
▁imag	-3810
▁opin	-3811
▁worst	-3812
▁lls	-3813
▁mob	-3814
▁sib	-3815
▁enha	-3816
▁troo	-3817
▁ectio	-3818
▁scien	-3819
▁29	-3820
▁urk	-3821
▁ells	-3822
▁vert	-3823
▁reath	-3824
▁ustin	-3825
▁Ber	-3826
▁ker	-3827
▁ledg	-3828
▁pres	-3829
▁visio	-3830
da	-3831
▁{	-3832
▁ela	-3833
▁lum	-3834
▁rone	-3835
▁sman	-3836
▁Comm	-3837
▁uctur	-3838
▁2.	-3839
▁mix	-3840
▁nth	-3841
▁ssed	-3842
▁wers	-3843
▁ounds	-3844
▁doc	-3845
▁eam	-3846
▁gns	-3847
▁sym	-3848
▁tha	-3849
▁hara	-3850
▁rish	-3851
▁duced	-3852
▁iddle	-3853
▁lev	-3854
▁bour	-3855
▁broa	-3856
▁Port	-3857
▁ko	-3858
▁lm	-3859
▁Nic	-3860
▁osh	-3861
▁uff	-3862
▁ndon	-3863
▁Why	-3864
▁El	-3865
▁fat	-3866
▁file	-3867
▁tery	-3868
-0	-3869
os	-3870
▁#	-3871
▁dut	-3872
▁Mus	-3873
▁rize	-3874
▁anima	-3875
▁ensio	-3876
▁bl	-3877
▁Bill	-3878
▁otor	-3879
▁wins	-3880
▁arms	-3881
▁bert	-3882
▁meth	-3883
▁pani	-3884
▁lau	-3885
▁iers	-3886
▁iver	-3887
▁reduc	-3888
ky	-3889
▁py	-3890
▁lob	-3891
▁ates	-3892
▁AN	-3893
▁Pla	-3894
▁guy	-3895
▁initi	-3896
▁Cal	-3897
▁mma	-3898
▁matic	-3899
▁ui	-3900
▁ense	-3901
▁ingh	-3902
▁sey	-3903
▁alls	-3904
▁ddit	-3905
▁shar	-3906
▁AF	-3907
▁ify	-3908
▁erse	-3909
▁leng	-3910
▁ooks	-3911
▁Rs	-3912
▁gl	-3913
▁ends	-3914
▁itch	-3915
we	-3916
▁80	-3917
▁alt	-3918
▁hor	-3919
▁rug	-3920
▁eder	-3921
▁ms	-3922
▁iga	-3923
▁rchi	-3924
▁rinc	-3925
▁udge	-3926
▁wast	-3927
▁cript	-3928
BA	-3929
▁reso	-3930
▁nj	-3931
▁ize	-3932
▁empt	-3933
▁chan	-3934
▁ckle	-3935
▁ka	-3936
▁dian	-3937
▁mmit	-3938
▁Hi	-3939
▁Pr	-3940
▁hut	-3941
▁iou	-3942
▁pin	-3943
▁vor	-3944
▁anda	-3945
▁denc	-3946
▁mmer	-3947
▁Car	-3948
▁avi	-3949
▁nak	-3950
▁aster	-3951
▁nus	-3952
ER	-3953
▁ox	-3954
▁Fra	-3955
▁nim	-3956
▁ateg	-3957
▁€	-3958
▁ino	-3959
▁nly	-3960
▁edge	-3961
▁larg	-3962
▁vice	-3963
▁bly	-3964
▁eets	-3965
▁dicat	-3966
▁igger	-3967
ki	-3968
▁anni	-3969
▁asis	-3970
▁farm	-3971
▁stea	-3972
▁Princ	-3973
▁dge	-3974
▁err	-3975
▁tom	-3976
▁tti	-3977
▁Poli	-3978
▁lies	-3979
▁rade	-3980
▁sted	-3981
▁essed	-3982
▁pprov	-3983
▁repea	-3984
▁ij	-3985
▁Vic	-3986
▁dry	-3987
▁hai	-3988
▁mass	-3989
▁ն	-3990
▁Big	-3991
▁Yet	-3992
▁acy	-3993
▁heer	-3994
▁bn	-3995
▁arl	-3996
▁rev	-3997
▁alit	-3998
▁indi	-3999
▁ppose	-4000
▁Up	-4001
▁hab	-4002
▁ella	-4003
▁flat	-4004
▁iller	-4005
▁toria	-4006
▁oe	-4007
▁mani	-4008
▁mble	-4009
▁reci	-4010
▁stro	-4011
▁secur	-4012
▁strat	-4013
▁ky	-4014
▁ena	-4015
▁core	-4016
▁xu	-4017
▁chem	-4018
▁loan	-4019
▁tiva	-4020
▁ences	-4021
▁strik	-4022
SA	-4023
go	-4024
▁grew	-4025
▁llie	-4026
▁ntly	-4027
▁icked	-4028
▁eh	-4029
▁oul	-4030
▁ube	-4031
▁acci	-4032
▁Tre	-4033
▁tta	-4034
▁guid	-4035
▁lend	-4036
▁rans	-4037
▁70	-4038
▁ix	-4039
▁Bar	-4040
▁ello	-4041
▁ovid	-4042
▁istic	-4043
▁bru	-4044
▁oad	-4045
▁desp	-4046
▁entu	-4047
▁iser	-4048
▁offe	-4049
▁terr	-4050
▁tb	-4051
▁NHS	-4052
▁dly	-4053
▁las	-4054
▁twe	-4055
▁uis	-4056
▁mist	-4057
▁oney	-4058
▁gon	-4059
▁ruit	-4060
▁31	-4061
▁iP	-4062
▁Gov	-4063
▁uli	-4064
▁vot	-4065
▁load	-4066
▁rout	-4067
▁circu	-4068
▁kes	-4069
▁MORE	-4070
▁ribe	-4071
▁iding	-4072
▁oid	-4073
▁rail	-4074
▁rape	-4075
unt	-4076
▁dot	-4077
▁llian	-4078
▁rante	-4079
OP	-4080
▁Ta	-4081
▁ild	-4082
▁ange	-4083
TO	-4084
▁chu	-4085
▁ett	-4086
BI	-4087
lt	-4088
▁Ru	-4089
▁mph	-4090
▁rum	-4091
▁ears	-4092
▁ging	-4093
ury	-4094
▁oud	-4095
▁ror	-4096
▁san	-4097
▁pping	-4098
▁pplie	-4099
▁Mad	-4100
▁chel	-4101
▁oted	-4102
LA	-4103
fic	-4104
▁cker	-4105
▁hree	-4106
▁nnes	-4107
▁peat	-4108
ono	-4109
▁NFL	-4110
▁affi	-4111
▁lief	-4112
▁ndra	-4113
▁MA	-4114
▁aches	-4115
▁lp	-4116
▁Jer	-4117
▁oom	-4118
▁vic	-4119
▁anta	-4120
▁jury	-4121
▁wash	-4122
▁convi	-4123
▁ollow	-4124
▁nb	-4125
▁iar	-4126
▁ymp	-4127
▁dism	-4128
▁joy	-4129
▁ron	-4130
▁Au	-4131
▁eut	-4132
▁minu	-4133
▁forms	-4134
▁ewi	-4135
▁hef	-4136
▁lso	-4137
▁ram	-4138
▁illa	-4139
▁tima	-4140
▁aling	-4141
▁cline	-4142
▁og	-4143
▁hau	-4144
▁sei	-4145
▁anna	-4146
▁imon	-4147
▁rame	-4148
▁sg	-4149
▁rice	-4150
▁unds	-4151
▁trong	-4152
▁90	-4153
▁lem	-4154
▁nci	-4155
▁ngr	-4156
▁rej	-4157
▁Marc	-4158
▁ntic	-4159
▁reco	-4160
▁preci	-4161
▁Bra	-4162
▁danc	-4163
▁ender	-4164
▁IC	-4165
▁ea	-4166
▁uma	-4167
▁eath	-4168
▁hone	-4169
▁ites	-4170
▁scov	-4171
▁usse	-4172
▁voca	-4173
▁draft	-4174
▁ek	-4175
▁RE	-4176
▁evin	-4177
▁lder	-4178
sa	-4179
▁ym	-4180
▁ddl	-4181
▁obi	-4182
▁rei	-4183
▁ected	-4184
▁hrist	-4185
▁iting	-4186
So	-4187
▁ito	-4188
▁lon	-4189
▁nish	-4190
▁yr	-4191
▁lat	-4192
▁orda	-4193
▁asion	-4194
▁zer	-4195
▁assa	-4196
▁irec	-4197
▁king	-4198
▁wake	-4199
▁docum	-4200
▁lance	-4201
▁porta	-4202
ID	-4203
▁Ken	-4204
▁aga	-4205
▁bon	-4206
▁llo	-4207
▁loca	-4208
▁rough	-4209
▁35	-4210
▁gli	-4211
▁IP	-4212
▁ipe	-4213
▁eeds	-4214
▁elly	-4215
▁requ	-4216
▁rious	-4217
▁river	-4218
▁arr	-4219
▁capt	-4220
▁acked	-4221
gel	-4222
▁inn	-4223
▁nie	-4224
▁grab	-4225
▁gap	-4226
▁wei	-4227
▁yle	-4228
▁eces	-4229
▁tact	-4230
▁tast	-4231
▁aur	-4232
▁din	-4233
▁eap	-4234
▁Game	-4235
▁ush	-4236
▁uta	-4237
▁nimal	-4238
▁ents	-4239
▁ings	-4240
▁vast	-4241
▁lying	-4242
As	-4243
▁ete	-4244
▁oca	-4245
▁par	-4246
▁usi	-4247
▁ved	-4248
▁scri	-4249
▁romot	-4250
▁anks	-4251
▁oman	-4252
▁wine	-4253
▁ourne	-4254
▁ime	-4255
▁och	-4256
▁oms	-4257
▁pan	-4258
▁rav	-4259
▁assin	-4260
▁Can	-4261
▁ads	-4262
▁ato	-4263
▁nha	-4264
▁lled	-4265
▁pers	-4266
▁tank	-4267
▁zens	-4268
▁AR	-4269
▁cio	-4270
▁lap	-4271
▁aske	-4272
▁Jr	-4273
▁esh	-4274
▁imb	-4275
▁lst	-4276
▁cate	-4277
▁ghts	-4278
▁hate	-4279
▁ament	-4280
▁compl	-4281
▁num	-4282
▁hire	-4283
▁rick	-4284
ja	-4285
▁Ky	-4286
▁rob	-4287
▁erra	-4288
▁nces	-4289
▁tora	-4290
▁erman	-4291
▁Wil	-4292
▁ite	-4293
▁mot	-4294
▁lame	-4295
▁anned	-4296
▁Fr	-4297
▁lub	-4298
▁hare	-4299
CA	-4300
▁aha	-4301
▁liz	-4302
▁proc	-4303
▁surge	-4304
ան	-4305
▁lt	-4306
▁sin	-4307
▁ypt	-4308
▁Live	-4309
▁bout	-4310
▁edia	-4311
▁erate	-4312
▁Ja	-4313
▁bol	-4314
▁hew	-4315
▁gest	-4316
▁ospi	-4317
ley	-4318
▁Kan	-4319
▁ung	-4320
▁ativ	-4321
▁ghly	-4322
▁cr	-4323
▁Its	-4324
▁ces	-4325
▁auti	-4326
▁ligi	-4327
▁sting	-4328
20	-4329
▁cat	-4330
▁egg	-4331
▁ody	-4332
▁cting	-4333
▁los	-4334
▁mba	-4335
▁lari	-4336
▁sked	-4337
▁Who	-4338
▁exi	-4339
▁ota	-4340
▁rst	-4341
▁dict	-4342
▁ams	-4343
▁lta	-4344
▁ols	-4345
▁smo	-4346
▁peak	-4347
▁sume	-4348
▁fruit	-4349
▁Bel	-4350
▁ame	-4351
▁tle	-4352
▁leak	-4353
▁peri	-4354
▁rred	-4355
SP	-4356
▁ID	-4357
▁Jam	-4358
▁Franc	-4359
▁opi	-4360
▁ager	-4361
▁eligi	-4362
▁enced	-4363
▁recov	-4364
▁Rob	-4365
▁antly	-4366
▁Str	-4367
▁swa	-4368
▁lity	-4369
▁otic	-4370
▁ked	-4371
▁nde	-4372
▁ulat	-4373
▁edica	-4374
▁scrib	-4375
▁tea	-4376
▁NATO	-4377
▁ermi	-4378
▁mort	-4379
▁ndem	-4380
▁ivity	-4381
▁waste	-4382
▁$1	-4383
▁Sky	-4384
▁nchi	-4385
▁paren	-4386
key	-4387
▁Van	-4388
▁gni	-4389
▁lad	-4390
▁nfor	-4391
▁Ac	-4392
▁pha	-4393
▁reb	-4394
▁rage	-4395
▁AFP	-4396
▁Fou	-4397
▁ays	-4398
▁pto	-4399
▁judg	-4400
▁Angel	-4401
▁ipa	-4402
▁unco	-4403
▁raw	-4404
▁arry	-4405
▁pment	-4406
▁ira	-4407
▁inco	-4408
▁fro	-4409
▁sna	-4410
▁aire	-4411
▁enni	-4412
▁illy	-4413
▁consu	-4414
▁react	-4415
▁3.	-4416
▁GOP	-4417
▁vil	-4418
▁oked	-4419
▁hyd	-4420
▁ied	-4421
▁reh	-4422
▁bell	-4423
▁enny	-4424
▁ewis	-4425
▁mong	-4426
▁nting	-4427
unk	-4428
▁rust	-4429
▁scape	-4430
▁45	-4431
▁alk	-4432
▁dua	-4433
▁ups	-4434
▁erna	-4435
▁elief	-4436
▁200	-4437
▁amm	-4438
▁mad	-4439
▁tum	-4440
▁anic	-4441
▁overt	-4442
▁rpris	-4443
▁FA	-4444
▁ici	-4445
▁utu	-4446
▁oper	-4447
▁truck	-4448
DA	-4449
▁36	-4450
▁CNN	-4451
▁rma	-4452
▁sus	-4453
▁omin	-4454
▁thes	-4455
▁adm	-4456
▁bai	-4457
▁lav	-4458
▁lik	-4459
▁rey	-4460
▁ongs	-4461
oul	-4462
▁hm	-4463
▁als	-4464
▁ede	-4465
▁iro	-4466
▁sas	-4467
▁Sena	-4468
▁acco	-4469
▁SN	-4470
▁Sp	-4471
▁hore	-4472
▁entir	-4473
RA	-4474
▁ept	-4475
▁sue	-4476
▁tec	-4477
▁yes	-4478
▁lice	-4479
▁mari	-4480
▁mber	-4481
▁obil	-4482
▁rter	-4483
▁supp	-4484
▁Ji	-4485
▁pub	-4486
▁sel	-4487
▁iles	-4488
▁lots	-4489
▁uter	-4490
▁GP	-4491
▁ils	-4492
▁mys	-4493
▁anag	-4494
▁cert	-4495
▁memo	-4496
▁rink	-4497
▁tree	-4498
▁CBS	-4499
▁enu	-4500
▁ves	-4501
▁trac	-4502
▁ption	-4503
▁rimin	-4504
-1	-4505
▁Vo	-4506
▁Met	-4507
▁hio	-4508
▁kil	-4509
▁essi	-4510
▁aimed	-4511
▁erful	-4512
▁ilita	-4513
▁dn	-4514
▁McD	-4515
▁Tha	-4516
▁cam	-4517
▁ards	-4518
▁ario	-4519
▁cine	-4520
▁seiz	-4521
▁tine	-4522
▁Pe	-4523
▁ku	-4524
▁lers	-4525
▁rgen	-4526
▁trol	-4527
▁wond	-4528
▁wheel	-4529
▁կ	-4530
▁Bri	-4531
▁Cor	-4532
▁lyn	-4533
▁econo	-4534
my	-4535
▁arv	-4536
▁squ	-4537
▁wns	-4538
▁orry	-4539
GA	-4540
▁lib	-4541
MA	-4542
▁cs	-4543
▁Vla	-4544
▁ica	-4545
▁scu	-4546
▁tock	-4547
▁RT	-4548
▁Tu	-4549
▁pho	-4550
▁tari	-4551
▁alent	-4552
AP	-4553
SC	-4554
▁cia	-4555
▁iet	-4556
▁arah	-4557
▁medi	-4558
▁rson	-4559
▁eaten	-4560
wa	-4561
▁NE	-4562
▁Las	-4563
▁Ram	-4564
▁siv	-4565
▁arre	-4566
▁scal	-4567
▁ering	-4568
▁4.	-4569
▁USA	-4570
▁eel	-4571
▁rea	-4572
▁acts	-4573
▁rine	-4574
▁ե	-4575
▁hoc	-4576
▁ria	-4577
▁veni	-4578
▁detai	-4579
oo	-4580
▁sat	-4581
▁lake	-4582
▁resc	-4583
▁tens	-4584
▁credi	-4585
▁Uni	-4586
▁att	-4587
▁lia	-4588
▁aking	-4589
▁alter	-4590
▁cab	-4591
▁lva	-4592
▁ough	-4593
▁iness	-4594
▁ae	-4595
▁none	-4596
▁rave	-4597
▁sian	-4598
▁oking	-4599
▁mre	-4600
▁pel	-4601
▁tabl	-4602
▁shoul	-4603
▁yb	-4604
▁Lee	-4605
▁McG	-4606
▁hra	-4607
▁oug	-4608
▁dive	-4609
▁icit	-4610
▁nson	-4611
▁onne	-4612
▁sher	-4613
▁llect	-4614
▁uce	-4615
▁dyna	-4616
▁ette	-4617
▁favo	-4618
▁zing	-4619
▁antic	-4620
▁viv	-4621
▁asur	-4622
▁deni	-4623
▁nves	-4624
▁ocate	-4625
▁ompli	-4626
▁MPs	-4627
▁ids	-4628
▁mom	-4629
▁thea	-4630
▁tled	-4631
▁ngers	-4632
▁rable	-4633
VID	-4634
▁Bla	-4635
▁Mid	-4636
▁adi	-4637
▁mes	-4638
▁airs	-4639
▁ntee	-4640
▁ours	-4641
▁prop	-4642
▁lands	-4643
▁logic	-4644
▁ila	-4645
▁ngs	-4646
▁oni	-4647
▁rty	-4648
▁aper	-4649
▁duca	-4650
▁ocal	-4651
▁rint	-4652
▁aller	-4653
▁aving	-4654
▁IS	-4655
▁Jac	-4656
▁alo	-4657
▁imi	-4658
▁une	-4659
▁duty	-4660
▁erri	-4661
▁hout	-4662
▁orri	-4663
▁rena	-4664
▁dotco	-4665
▁eport	-4666
▁mrend	-4667
▁pageE	-4668
IS	-4669
usto	-4670
▁yth	-4671
▁aybe	-4672
▁ller	-4673
▁mail	-4674
▁34	-4675
▁Kim	-4676
▁acr	-4677
▁rsh	-4678
▁atic	-4679
▁atta	-4680
▁isit	-4681
▁mitt	-4682
▁ngla	-4683
▁rang	-4684
▁succ	-4685
▁admit	-4686
▁rring	-4687
▁afe	-4688
▁orm	-4689
▁wel	-4690
▁noun	-4691
▁risti	-4692
▁eon	-4693
▁gym	-4694
▁rby	-4695
▁arts	-4696
▁roof	-4697
▁tein	-4698
▁Vladi	-4699
ese	-4700
▁dex	-4701
▁mme	-4702
▁nga	-4703
▁tag	-4704
▁vir	-4705
▁drew	-4706
▁arked	-4707
▁gency	-4708
▁onger	-4709
ko	-4710
▁EV	-4711
▁eti	-4712
▁noc	-4713
▁oro	-4714
▁dual	-4715
▁muse	-4716
▁ommo	-4717
▁Cri	-4718
▁deo	-4719
▁seas	-4720
▁amily	-4721
▁rming	-4722
▁thers	-4723
▁unter	-4724
DP	-4725
▁Dan	-4726
▁ase	-4727
▁osp	-4728
▁spa	-4729
▁amon	-4730
▁tied	-4731
▁COVID	-4732
▁custo	-4733
▁inner	-4734
▁ji	-4735
▁abu	-4736
▁oli	-4737
▁acro	-4738
▁merg	-4739
▁navi	-4740
▁aca	-4741
▁ffs	-4742
▁pou	-4743
▁zed	-4744
▁keen	-4745
▁motio	-4746
▁satio	-4747
ey	-4748
▁Far	-4749
▁NBA	-4750
▁Tro	-4751
▁eak	-4752
▁feed	-4753
▁gang	-4754
▁lind	-4755
▁vant	-4756
▁stern	-4757
▁weigh	-4758
ON	-4759
ml	-4760
ons	-4761
▁33	-4762
▁Se	-4763
▁awn	-4764
▁fee	-4765
▁siz	-4766
▁tte	-4767
▁fest	-4768
▁hrou	-4769
▁estiv	-4770
▁hough	-4771
▁IT	-4772
▁OK	-4773
▁bbi	-4774
▁htt	-4775
▁epre	-4776
▁oard	-4777
▁stal	-4778
▁conti	-4779
▁grate	-4780
▁iam	-4781
▁idi	-4782
▁Mari	-4783
▁aims	-4784
▁aker	-4785
▁amer	-4786
▁augh	-4787
▁esla	-4788
▁expo	-4789
▁uman	-4790
▁aya	-4791
▁html	-4792
▁oyed	-4793
▁erial	-4794
▁moder	-4795
sit	-4796
▁Ty	-4797
▁mps	-4798
▁rop	-4799
▁tun	-4800
▁arch	-4801
▁dist	-4802
▁fees	-4803
▁ient	-4804
▁error	-4805
▁trees	-4806
AS	-4807
ora	-4808
▁GM	-4809
▁Fed	-4810
▁Men	-4811
▁abha	-4812
▁ajor	-4813
▁inti	-4814
▁osed	-4815
▁ropo	-4816
▁reast	-4817
ala	-4818
▁Ass	-4819
▁atm	-4820
▁unf	-4821
▁usa	-4822
▁diet	-4823
▁llis	-4824
▁cup	-4825
▁nclu	-4826
▁eader	-4827
▁labor	-4828
do	-4829
▁ET	-4830
▁SE	-4831
▁UC	-4832
▁coun	-4833
▁eler	-4834
▁hero	-4835
▁expan	-4836
▁https	-4837
▁ndent	-4838
▁SNP	-4839
▁bes	-4840
▁oma	-4841
▁thy	-4842
▁anno	-4843
▁ored	-4844
▁nders	-4845
▁taste	-4846
▁tured	-4847
▁loo	-4848
▁tie	-4849
▁uit	-4850
▁ayne	-4851
▁tiny	-4852
▁Indi	-4853
▁erty	-4854
▁lass	-4855
▁ript	-4856
▁rrie	-4857
▁chest	-4858
▁posit	-4859
▁ution	-4860
▁32	-4861
▁haw	-4862
▁selv	-4863
fa	-4864
▁atu	-4865
▁spl	-4866
▁ugh	-4867
▁urs	-4868
▁afah	-4869
▁enci	-4870
▁ltim	-4871
▁CC	-4872
▁eav	-4873
▁hro	-4874
▁emor	-4875
▁ishi	-4876
▁tears	-4877
Id	-4878
▁km	-4879
▁Jos	-4880
▁Tri	-4881
▁ilm	-4882
▁chol	-4883
▁heth	-4884
▁ntId	-4885
▁rtur	-4886
▁eleme	-4887
FC	-4888
▁5.	-4889
▁els	-4890
▁hei	-4891
▁mag	-4892
▁rex	-4893
▁rme	-4894
▁Brit	-4895
▁colo	-4896
▁quit	-4897
▁wned	-4898
▁works	-4899
▁bow	-4900
▁ipp	-4901
▁wic	-4902
▁defi	-4903
▁nver	-4904
▁sper	-4905
▁wore	-4906
ED	-4907
RC	-4908
▁հ	-4909
▁LA	-4910
▁dol	-4911
▁tan	-4912
▁anne	-4913
▁bing	-4914
▁knee	-4915
▁ootb	-4916
▁ouch	-4917
▁soft	-4918
▁teri	-4919
▁usic	-4920
▁lence	-4921
▁statu	-4922
▁tball	-4923
▁ende	-4924
▁meat	-4925
▁mill	-4926
▁48	-4927
▁wk	-4928
▁500	-4929
▁Tok	-4930
▁rts	-4931
▁dical	-4932
▁ras	-4933
▁rmo	-4934
▁flec	-4935
▁nche	-4936
▁itive	-4937
▁37	-4938
▁ej	-4939
▁loa	-4940
▁nick	-4941
▁ether	-4942
▁rf	-4943
▁dan	-4944
▁sena	-4945
▁lockE	-4946
IA	-4947
▁tac	-4948
▁aria	-4949
▁atis	-4950
▁elev	-4951
▁reed	-4952
▁ventu	-4953
ete	-4954
▁Us	-4955
▁irm	-4956
▁root	-4957
▁eo	-4958
▁Pol	-4959
▁ndo	-4960
▁ois	-4961
▁owa	-4962
▁pat	-4963
▁tig	-4964
▁olat	-4965
▁romi	-4966
▁vill	-4967
▁gains	-4968
▁lobal	-4969
▁theme	-4970
IC	-4971
▁God	-4972
▁tim	-4973
▁rior	-4974
▁cific	-4975
▁grave	-4976
▁inema	-4977
▁nounc	-4978
▁olida	-4979
hu	-4980
▁Cro	-4981
▁Lok	-4982
▁tap	-4983
▁eart	-4984
▁indu	-4985
▁meal	-4986
▁reak	-4987
▁ociet	-4988
▁unded	-4989
եր	-4990
▁Oh	-4991
▁lc	-4992
▁Max	-4993
▁emo	-4994
▁enga	-4995
▁icul	-4996
▁lise	-4997
▁nior	-4998
▁omet	-4999
▁ifica	-5000
AT	-5001
▁ux	-5002
▁pta	-5003
▁eves	-5004
▁exam	-5005
▁hort	-5006
▁nist	-5007
▁ovie	-5008
▁evera	-5009
▁marke	-5010
▁Xi	-5011
▁hl	-5012
▁Cam	-5013
▁xic	-5014
▁desh	-5015
▁erem	-5016
▁osing	-5017
▁tched	-5018
▁Old	-5019
▁cit	-5020
▁eme	-5021
▁aine	-5022
▁cott	-5023
▁erre	-5024
▁tall	-5025
▁ather	-5026
▁PS	-5027
▁ais	-5028
▁epp	-5029
▁homa	-5030
▁heese	-5031
▁Ten	-5032
▁ady	-5033
▁bal	-5034
▁osa	-5035
▁rem	-5036
▁rip	-5037
▁enry	-5038
▁rary	-5039
▁7.	-5040
▁MS	-5041
▁mn	-5042
▁ua	-5043
line	-5044
▁FBI	-5045
▁ITV	-5046
▁eba	-5047
▁gor	-5048
▁ttl	-5049
▁tty	-5050
▁Text	-5051
▁ield	-5052
▁prec	-5053
▁fatal	-5054
▁grace	-5055
▁neith	-5056
▁sters	-5057
ata	-5058
▁Va	-5059
▁Jon	-5060
▁hide	-5061
▁sity	-5062
▁asure	-5063
▁spons	-5064
OR	-5065
▁Hy	-5066
▁BST	-5067
▁oly	-5068
▁ova	-5069
▁wen	-5070
▁ouse	-5071
▁tale	-5072
▁nline	-5073
AR	-5074
▁Ut	-5075
▁uc	-5076
▁aff	-5077
▁irl	-5078
▁kle	-5079
▁rdo	-5080
▁abor	-5081
▁aura	-5082
▁mmed	-5083
▁tack	-5084
▁arden	-5085
▁ounce	-5086
pm	-5087
▁gel	-5088
▁nca	-5089
▁uti	-5090
▁dona	-5091
▁ious	-5092
▁stil	-5093
▁utin	-5094
▁ality	-5095
▁conom	-5096
▁ittle	-5097
zi	-5098
orm	-5099
▁ու	-5100
▁bul	-5101
▁tau	-5102
▁aiti	-5103
▁deny	-5104
▁ethi	-5105
▁hame	-5106
▁rele	-5107
▁ailed	-5108
▁eform	-5109
EN	-5110
▁ON	-5111
▁ao	-5112
▁Are	-5113
▁Kha	-5114
▁ati	-5115
▁erb	-5116
▁ien	-5117
▁eigh	-5118
▁rren	-5119
▁sess	-5120
▁wire	-5121
▁metal	-5122
▁tweet	-5123
▁cca	-5124
▁ott	-5125
▁poo	-5126
▁erce	-5127
▁ider	-5128
▁olli	-5129
▁itter	-5130
▁nativ	-5131
▁neral	-5132
▁strai	-5133
▁38	-5134
▁Wo	-5135
▁opp	-5136
▁slo	-5137
▁assu	-5138
▁atie	-5139
▁barr	-5140
▁otel	-5141
▁tart	-5142
▁andhi	-5143
▁twist	-5144
▁Oc	-5145
▁RA	-5146
▁TH	-5147
▁oi	-5148
▁Bay	-5149
▁nab	-5150
▁rin	-5151
▁iron	-5152
▁otte	-5153
▁ppen	-5154
▁eting	-5155
▁42	-5156
▁Jim	-5157
▁Pen	-5158
▁rke	-5159
▁allo	-5160
▁ired	-5161
▁rime	-5162
▁suppl	-5163
To	-5164
▁1,	-5165
▁ws	-5166
▁aco	-5167
▁utl	-5168
▁grid	-5169
▁merc	-5170
▁asses	-5171
gg	-5172
▁zi	-5173
▁ece	-5174
▁ndl	-5175
▁tar	-5176
▁eeks	-5177
▁ilia	-5178
▁ourna	-5179
▁վ	-5180
▁cks	-5181
▁gay	-5182
▁olv	-5183
▁ilet	-5184
▁voter	-5185
▁մ	-5186
▁75	-5187
▁upt	-5188
▁ampa	-5189
▁halt	-5190
▁laid	-5191
▁omer	-5192
▁veri	-5193
▁winn	-5194
▁attac	-5195
▁float	-5196
▁bie	-5197
▁eds	-5198
▁lti	-5199
▁elli	-5200
▁erge	-5201
▁llin	-5202
▁peti	-5203
yn	-5204
▁7,	-5205
▁yi	-5206
▁ote	-5207
▁sch	-5208
▁hich	-5209
▁ndar	-5210
▁eless	-5211
▁nergy	-5212
▁ravel	-5213
▁ait	-5214
▁gend	-5215
▁grat	-5216
▁eside	-5217
▁essar	-5218
▁rtion	-5219
No	-5220
▁ww	-5221
▁GBT	-5222
▁ods	-5223
▁ubb	-5224
▁uto	-5225
▁ania	-5226
▁cula	-5227
▁edit	-5228
▁enti	-5229
▁mily	-5230
▁magin	-5231
OS	-5232
lfa	-5233
▁CD	-5234
▁aug	-5235
▁ayer	-5236
▁mper	-5237
▁ners	-5238
▁tise	-5239
▁Harri	-5240
▁acted	-5241
SW	-5242
▁oh	-5243
▁gut	-5244
▁hap	-5245
▁rga	-5246
▁rlo	-5247
▁unk	-5248
▁wav	-5249
▁blin	-5250
▁lane	-5251
▁lway	-5252
▁ortu	-5253
▁rive	-5254
▁roth	-5255
▁carri	-5256
▁eding	-5257
FA	-5258
LL	-5259
TS	-5260
VE	-5261
ía	-5262
ար	-5263
▁ի	-5264
▁Lu	-5265
▁uic	-5266
▁dono	-5267
▁pret	-5268
▁radi	-5269
▁sati	-5270
▁cally	-5271
▁rated	-5272
CC	-5273
▁á	-5274
har	-5275
▁Aug	-5276
▁Thi	-5277
▁lse	-5278
▁rge	-5279
▁rla	-5280
▁twin	-5281
▁mance	-5282
OC	-5283
▁udi	-5284
▁bled	-5285
▁inde	-5286
▁ndle	-5287
▁stan	-5288
▁nable	-5289
▁oward	-5290
At	-5291
fu	-5292
vo	-5293
▁£1	-5294
▁Rea	-5295
▁agu	-5296
▁gam	-5297
▁hah	-5298
▁owe	-5299
▁www	-5300
▁ycl	-5301
▁Pete	-5302
▁endu	-5303
▁lone	-5304
TA	-5305
▁Fu	-5306
▁Ya	-5307
▁Ye	-5308
▁rik	-5309
▁vou	-5310
▁arro	-5311
▁enta	-5312
▁mpli	-5313
▁nted	-5314
▁tape	-5315
▁feren	-5316
▁onent	-5317
▁tally	-5318
son	-5319
▁ffi	-5320
▁oal	-5321
▁orp	-5322
▁oice	-5323
▁uild	-5324
որ	-5325
▁6,	-5326
▁DN	-5327
▁Mrs	-5328
▁lio	-5329
▁ndi	-5330
▁til	-5331
▁urd	-5332
▁fled	-5333
▁ienc	-5334
▁ison	-5335
▁TextB	-5336
▁doubl	-5337
▁թ	-5338
▁$5	-5339
▁NBC	-5340
▁edd	-5341
▁isi	-5342
▁rhe	-5343
▁tir	-5344
▁lien	-5345
▁omic	-5346
▁pera	-5347
▁tina	-5348
▁torn	-5349
▁tres	-5350
▁ights	-5351
▁rexit	-5352
▁stati	-5353
▁toric	-5354
▁ulate	-5355
ov	-5356
tra	-5357
▁6.	-5358
▁Ian	-5359
▁Med	-5360
▁duo	-5361
▁oks	-5362
▁udd	-5363
▁gear	-5364
▁othe	-5365
▁hydra	-5366
▁kl	-5367
▁rh	-5368
▁wl	-5369
▁Top	-5370
▁bvi	-5371
▁eph	-5372
▁eur	-5373
▁ivi	-5374
▁eans	-5375
▁hest	-5376
▁plac	-5377
▁justi	-5378
▁tures	-5379
eth	-5380
▁yp	-5381
▁iev	-5382
▁rie	-5383
▁swe	-5384
▁osta	-5385
▁sect	-5386
▁grade	-5387
▁sheet	-5388
▁SP	-5389
▁Mer	-5390
▁ibi	-5391
▁lur	-5392
▁vid	-5393
▁orne	-5394
▁loose	-5395
▁parti	-5396
▁welfa	-5397
▁DC	-5398
▁ks	-5399
▁ABC	-5400
▁Wat	-5401
▁aze	-5402
▁hub	-5403
▁map	-5404
▁fits	-5405
▁ivil	-5406
▁raft	-5407
▁indic	-5408
AD	-5409
▁39	-5410
▁65	-5411
▁18,	-5412
▁ubs	-5413
▁ands	-5414
▁enge	-5415
▁illi	-5416
▁ntal	-5417
▁pter	-5418
▁unic	-5419
▁estor	-5420
▁senti	-5421
▁uctio	-5422
▁kit	-5423
▁dish	-5424
▁owns	-5425
▁ssil	-5426
▁aging	-5427
▁inanc	-5428
▁ousin	-5429
▁tigat	-5430
AC	-5431
▁lg	-5432
▁dub	-5433
▁gal	-5434
▁lig	-5435
▁lme	-5436
▁lor	-5437
▁iven	-5438
▁olve	-5439
▁unda	-5440
▁mpani	-5441
▁mplet	-5442
▁osses	-5443
▁quart	-5444
▁quire	-5445
▁CP	-5446
▁aa	-5447
▁Bur	-5448
▁avy	-5449
▁esc	-5450
▁ivo	-5451
▁osi	-5452
▁iner	-5453
▁nown	-5454
▁rris	-5455
▁vern	-5456
-2	-5457
zo	-5458
una	-5459
▁UP	-5460
▁iu	-5461
▁za	-5462
▁Bob	-5463
▁Pho	-5464
▁Pra	-5465
▁urse	-5466
▁lists	-5467
▁ority	-5468
▁splay	-5469
▁McK	-5470
▁Mon	-5471
▁dem	-5472
▁eve	-5473
▁hon	-5474
▁nai	-5475
▁rni	-5476
▁roc	-5477
▁dina	-5478
▁duti	-5479
▁iter	-5480
▁mall	-5481
▁nical	-5482
▁oring	-5483
▁ssure	-5484
1,	-5485
ET	-5486
pl	-5487
vy	-5488
▁յ	-5489
▁HS	-5490
▁Ven	-5491
▁cta	-5492
▁erm	-5493
▁ket	-5494
▁roy	-5495
▁cuse	-5496
▁echn	-5497
▁gian	-5498
▁cient	-5499
▁Blo	-5500
▁aka	-5501
▁ppy	-5502
▁sua	-5503
▁uca	-5504
▁akes	-5505
▁weat	-5506
▁woke	-5507
▁drove	-5508
▁rging	-5509
▁tl	-5510
▁25,	-5511
▁300	-5512
▁lwa	-5513
▁omo	-5514
▁mood	-5515
▁ommu	-5516
▁sers	-5517
▁tern	-5518
▁ortio	-5519
▁cin	-5520
▁dig	-5521
▁ldi	-5522
▁dust	-5523
▁eens	-5524
▁eers	-5525
▁egal	-5526
▁emed	-5527
▁lime	-5528
▁aders	-5529
▁nforc	-5530
▁tensi	-5531
▁2,	-5532
▁Ul	-5533
▁ews	-5534
▁obb	-5535
▁NASA	-5536
▁elic	-5537
▁ideo	-5538
▁inst	-5539
▁lady	-5540
▁rivi	-5541
▁uthe	-5542
▁rying	-5543
▁ships	-5544
▁steel	-5545
AN	-5546
of	-5547
▁JD	-5548
▁10,	-5549
▁30,	-5550
▁IPL	-5551
▁asi	-5552
▁gne	-5553
▁rel	-5554
▁ensi	-5555
▁slip	-5556
▁annah	-5557
▁nsion	-5558
IP	-5559
▁46	-5560
▁27,	-5561
▁Ant	-5562
▁App	-5563
▁hak	-5564
▁irc	-5565
▁arne	-5566
▁emen	-5567
▁outs	-5568
▁sona	-5569
▁etary	-5570
▁5,	-5571
▁MT	-5572
▁NY	-5573
▁rah	-5574
▁Whit	-5575
▁ahul	-5576
▁mmon	-5577
▁ngel	-5578
▁rman	-5579
▁vise	-5580
▁ratio	-5581
▁elc	-5582
▁oop	-5583
▁uan	-5584
▁GBTQ	-5585
▁Medi	-5586
▁hari	-5587
▁laim	-5588
▁sued	-5589
▁tral	-5590
▁Tyson	-5591
▁ented	-5592
ada	-5593
▁47	-5594
▁55	-5595
▁AT	-5596
▁Kn	-5597
▁uz	-5598
▁17,	-5599
▁Six	-5600
▁bin	-5601
▁ddi	-5602
▁hug	-5603
▁tore	-5604
▁ooked	-5605
▁hr	-5606
▁asp	-5607
▁onn	-5608
▁ops	-5609
▁fuse	-5610
▁gust	-5611
▁inds	-5612
▁mili	-5613
▁owne	-5614
▁ghter	-5615
▁hings	-5616
▁dar	-5617
▁eit	-5618
▁lah	-5619
▁oct	-5620
▁bloc	-5621
▁ntra	-5622
▁pend	-5623
▁rede	-5624
▁rett	-5625
▁sham	-5626
▁ustra	-5627
ama	-5628
aya	-5629
▁Kh	-5630
▁ML	-5631
▁cci	-5632
▁hal	-5633
▁kel	-5634
▁ngo	-5635
▁oet	-5636
▁omi	-5637
▁rno	-5638
▁andy	-5639
▁athe	-5640
▁elsh	-5641
▁erly	-5642
▁ouri	-5643
▁pric	-5644
▁toni	-5645
▁compa	-5646
OU	-5647
hya	-5648
▁15,	-5649
▁20,	-5650
▁Out	-5651
▁aye	-5652
▁lop	-5653
▁sly	-5654
▁aste	-5655
▁egan	-5656
▁surv	-5657
▁tier	-5658
▁acing	-5659
▁ahara	-5660
▁eased	-5661
▁ordon	-5662
▁urage	-5663
▁տ	-5664
▁$3	-5665
▁En	-5666
▁vy	-5667
▁16,	-5668
▁nco	-5669
▁owd	-5670
▁Land	-5671
▁abso	-5672
▁itar	-5673
▁livi	-5674
▁oing	-5675
▁pati	-5676
▁ibera	-5677
▁sn	-5678
▁GDP	-5679
▁Roy	-5680
▁ebe	-5681
▁sab	-5682
▁stl	-5683
▁CNBC	-5684
▁inary	-5685
▁44	-5686
▁8.	-5687
▁hun	-5688
▁ndr	-5689
▁oto	-5690
▁expl	-5691
▁raig	-5692
▁sibl	-5693
▁stem	-5694
▁tali	-5695
▁urth	-5696
▁xecu	-5697
▁tific	-5698
ES	-5699
dd	-5700
▁IM	-5701
▁Ph	-5702
▁ape	-5703
▁iab	-5704
▁nto	-5705
▁rui	-5706
▁erth	-5707
▁mont	-5708
▁onic	-5709
▁prin	-5710
▁nster	-5711
OA	-5712
TI	-5713
▁53	-5714
▁WN	-5715
▁ced	-5716
▁dul	-5717
▁llu	-5718
▁ngl	-5719
▁CCTV	-5720
▁tear	-5721
▁lobby	-5722
▁â	-5723
ler	-5724
▁43	-5725
▁54	-5726
▁WH	-5727
▁ffe	-5728
▁irr	-5729
▁itz	-5730
▁lou	-5731
▁nas	-5732
▁oco	-5733
▁org	-5734
▁tol	-5735
▁ders	-5736
▁eice	-5737
▁thor	-5738
▁triu	-5739
▁vege	-5740
▁nesse	-5741
▁profi	-5742
▁iy	-5743
▁Any	-5744
▁Cry	-5745
▁Tor	-5746
▁aby	-5747
▁ibe	-5748
▁oor	-5749
▁ppl	-5750
▁urf	-5751
▁von	-5752
▁atin	-5753
▁lign	-5754
▁tenu	-5755
tar	-5756
▁26,	-5757
▁Pub	-5758
▁alf	-5759
▁isp	-5760
▁mun	-5761
▁seg	-5762
▁wha	-5763
▁Form	-5764
▁dash	-5765
▁erie	-5766
▁hopp	-5767
▁horr	-5768
▁melt	-5769
▁ully	-5770
du	-5771
▁28,	-5772
▁agn	-5773
▁bac	-5774
▁ckl	-5775
▁emy	-5776
▁inl	-5777
▁lee	-5778
▁tew	-5779
▁vin	-5780
▁heim	-5781
▁hunt	-5782
▁lect	-5783
▁liev	-5784
▁rega	-5785
▁sons	-5786
▁surr	-5787
▁teel	-5788
▁thin	-5789
▁bling	-5790
▁orces	-5791
▁tries	-5792
ji	-5793
▁ը	-5794
▁FI	-5795
▁400	-5796
▁cep	-5797
▁cus	-5798
▁eda	-5799
▁ggi	-5800
▁unn	-5801
▁yon	-5802
▁hanc	-5803
▁ators	-5804
▁attle	-5805
▁ealed	-5806
▁eeded	-5807
▁greet	-5808
▁ibili	-5809
▁liver	-5810
▁quent	-5811
▁usion	-5812
ել	-5813
▁$2	-5814
▁LS	-5815
▁Za	-5816
▁Law	-5817
▁roa	-5818
▁shu	-5819
▁Thea	-5820
▁ared	-5821
▁casi	-5822
▁cide	-5823
▁fate	-5824
▁oses	-5825
▁seed	-5826
▁chanc	-5827
▁meter	-5828
▁tural	-5829
▁AC	-5830
▁MI	-5831
▁NC	-5832
▁enz	-5833
▁ias	-5834
▁por	-5835
▁web	-5836
▁anka	-5837
▁ebra	-5838
▁orse	-5839
▁pare	-5840
▁pire	-5841
▁scho	-5842
▁sour	-5843
▁worn	-5844
▁22,	-5845
▁NEW	-5846
▁elv	-5847
▁utt	-5848
▁bran	-5849
▁dded	-5850
▁ecli	-5851
▁nera	-5852
▁trai	-5853
▁atura	-5854
▁hyper	-5855
▁ssage	-5856
▁պ	-5857
▁21,	-5858
▁hur	-5859
▁pes	-5860
▁sim	-5861
▁bone	-5862
▁egio	-5863
▁hush	-5864
▁mode	-5865
▁oods	-5866
▁pict	-5867
▁subs	-5868
▁illed	-5869
SS	-5870
▁9.	-5871
▁ER	-5872
▁12,	-5873
▁24,	-5874
▁Did	-5875
▁McL	-5876
▁kie	-5877
▁oga	-5878
▁tam	-5879
▁amil	-5880
▁aven	-5881
▁ista	-5882
▁nose	-5883
▁orat	-5884
▁vary	-5885
▁entor	-5886
▁ontra	-5887
▁riend	-5888
9,	-5889
▁11,	-5890
▁Jay	-5891
▁McI	-5892
▁anu	-5893
▁nqu	-5894
▁rdl	-5895
▁epti	-5896
▁glad	-5897
▁hild	-5898
▁orth	-5899
▁entit	-5900
▁ersta	-5901
▁leath	-5902
▁teeth	-5903
▁villa	-5904
MS	-5905
▁PC	-5906
▁NCA	-5907
▁egi	-5908
▁hli	-5909
▁lty	-5910
▁ono	-5911
▁rue	-5912
▁nged	-5913
▁rlie	-5914
▁eping	-5915
▁victo	-5916
bo	-5917
▁CH	-5918
▁Zu	-5919
▁ue	-5920
▁150	-5921
▁Eve	-5922
▁blu	-5923
▁igu	-5924
▁rda	-5925
▁ador	-5926
▁ando	-5927
▁cure	-5928
▁enna	-5929
▁ippi	-5930
▁ncre	-5931
▁pula	-5932
▁ween	-5933
▁ellow	-5934
▁ollin	-5935
▁tradi	-5936
▁uting	-5937
EC	-5938
▁է	-5939
▁3,	-5940
▁ED	-5941
▁LI	-5942
▁13,	-5943
▁19,	-5944
▁Des	-5945
▁IDF	-5946
▁gig	-5947
▁urp	-5948
▁ntil	-5949
▁oldi	-5950
▁oris	-5951
▁thus	-5952
▁aming	-5953
▁elled	-5954
▁gical	-5955
▁8,	-5956
▁ING	-5957
▁Ron	-5958
▁alc	-5959
▁cco	-5960
▁nac	-5961
▁nar	-5962
▁rgo	-5963
▁uin	-5964
▁flew	-5965
▁grey	-5966
▁hint	-5967
▁lion	-5968
▁lated	-5969
▁lates	-5970
viro	-5971
▁Bre	-5972
▁Sri	-5973
▁cid	-5974
▁elg	-5975
▁hem	-5976
▁arie	-5977
▁arly	-5978
▁lemon	-5979
▁nviro	-5980
▁4,	-5981
▁je	-5982
▁250	-5983
▁Geo	-5984
▁NSW	-5985
▁alb	-5986
▁opa	-5987
▁ruc	-5988
▁harg	-5989
▁ongo	-5990
▁opti	-5991
▁orta	-5992
EA	-5993
PA	-5994
▁52	-5995
▁DJ	-5996
▁Amy	-5997
▁Cou	-5998
▁abb	-5999
▁cti	-6000
▁eto	-6001
▁jet	-6002
▁mel	-6003
▁tex	-6004
▁tos	-6005
▁ased	-6006
▁ases	-6007
▁iant	-6008
▁ittl	-6009
▁urns	-6010
▁lster	-6011
▁rigin	-6012
ME	-6013
▁գ	-6014
war	-6015
▁AL	-6016
▁Fri	-6017
▁elo	-6018
▁luc	-6019
▁edic	-6020
▁etty	-6021
▁itia	-6022
▁ives	-6023
▁onte	-6024
▁oven	-6025
▁owed	-6026
▁stig	-6027
▁truc	-6028
▁unti	-6029
▁vail	-6030
▁iving	-6031
▁•	-6032
▁73	-6033
▁Kri	-6034
▁nan	-6035
▁pal	-6036
▁argo	-6037
▁arni	-6038
▁asse	-6039
▁atel	-6040
▁gion	-6041
▁grim	-6042
▁mere	-6043
▁rkin	-6044
▁fleet	-6045
▁tters	-6046
-3	-6047
▁ó	-6048
▁դ	-6049
hal	-6050
▁kg	-6051
▁apt	-6052
▁itc	-6053
▁rio	-6054
▁rut	-6055
▁ude	-6056
▁ctic	-6057
▁esth	-6058
▁gher	-6059
▁glow	-6060
▁iger	-6061
▁iola	-6062
▁itan	-6063
▁centr	-6064
▁conta	-6065
▁gestu	-6066
▁mpact	-6067
▁ument	-6068
▁AD	-6069
▁Hot	-6070
▁aki	-6071
▁pra	-6072
▁ynd	-6073
▁UCLA	-6074
▁emie	-6075
▁uted	-6076
▁Publi	-6077
▁extre	-6078
▁reign	-6079
IN	-6080
ish	-6081
▁CS	-6082
▁FC	-6083
▁HE	-6084
▁ND	-6085
▁31,	-6086
▁Hag	-6087
▁Let	-6088
▁ben	-6089
▁hin	-6090
▁igi	-6091
▁isc	-6092
▁urv	-6093
▁arna	-6094
▁heck	-6095
▁marr	-6096
▁wise	-6097
▁essor	-6098
▁oming	-6099
▁popul	-6100
▁uture	-6101
Oh	-6102
ute	-6103
▁41	-6104
▁Dun	-6105
▁ESP	-6106
▁Lat	-6107
▁THE	-6108
▁cel	-6109
▁nsu	-6110
▁sma	-6111
▁inal	-6112
▁inda	-6113
▁lege	-6114
▁mpos	-6115
▁nant	-6116
▁olan	-6117
▁oner	-6118
▁tune	-6119
▁dated	-6120
▁iming	-6121
▁ingap	-6122
▁ropos	-6123
▁10%	-6124
▁ICC	-6125
▁hir	-6126
▁hoo	-6127
▁pea	-6128
▁ներ	-6129
▁divi	-6130
▁etti	-6131
▁gene	-6132
▁revi	-6133
▁shor	-6134
▁Andre	-6135
▁ligen	-6136
▁rings	-6137
WA	-6138
yk	-6139
gie	-6140
▁57	-6141
▁AS	-6142
▁CA	-6143
▁MV	-6144
▁14,	-6145
▁esy	-6146
▁gho	-6147
▁lto	-6148
▁mpa	-6149
▁sne	-6150
▁ESPN	-6151
▁arya	-6152
▁dale	-6153
▁dise	-6154
▁hink	-6155
▁ises	-6156
▁onat	-6157
▁uite	-6158
▁ying	-6159
▁lemen	-6160
▁oping	-6161
▁steer	-6162
GP	-6163
OT	-6164
RI	-6165
▁Bet	-6166
▁Llo	-6167
▁ene	-6168
▁haz	-6169
▁pst	-6170
▁rna	-6171
▁ths	-6172
▁ches	-6173
▁ergu	-6174
▁mman	-6175
▁grief	-6176
ami	-6177
▁WW	-6178
▁թյ	-6179
▁Acc	-6180
▁esu	-6181
▁ghe	-6182
▁gio	-6183
▁lew	-6184
▁phe	-6185
▁pix	-6186
▁ucy	-6187
▁adav	-6188
▁andl	-6189
▁enin	-6190
▁eted	-6191
▁iest	-6192
▁llel	-6193
▁oose	-6194
▁rran	-6195
▁usan	-6196
▁ading	-6197
▁drunk	-6198
▁ecuri	-6199
▁neath	-6200
▁ntrac	-6201
▁stint	-6202
MC	-6203
ին	-6204
▁72	-6205
▁Cl	-6206
▁Ste	-6207
▁Win	-6208
▁etc	-6209
▁pol	-6210
▁toc	-6211
▁avin	-6212
▁empl	-6213
▁haul	-6214
▁heel	-6215
▁lant	-6216
▁lymp	-6217
▁naly	-6218
▁riot	-6219
▁onten	-6220
▁shtra	-6221
On	-6222
▁Tr	-6223
▁23,	-6224
▁III	-6225
▁Pat	-6226
▁erk	-6227
▁imo	-6228
▁mie	-6229
▁oan	-6230
▁Kent	-6231
▁addy	-6232
▁astr	-6233
▁ften	-6234
▁hawk	-6235
▁leap	-6236
▁ntry	-6237
▁spar	-6238
▁ithin	-6239
▁jects	-6240
ye	-6241
▁9,	-6242
▁Ci	-6243
▁WA	-6244
▁29,	-6245
▁Hol	-6246
▁sie	-6247
▁NCAA	-6248
▁heek	-6249
▁rial	-6250
▁unne	-6251
▁harge	-6252
▁menti	-6253
▁ompet	-6254
▁urned	-6255
▁85	-6256
▁yc	-6257
phin	-6258
▁Cru	-6259
▁Gil	-6260
▁Gua	-6261
▁acu	-6262
▁arn	-6263
▁arp	-6264
▁cen	-6265
▁ebb	-6266
▁lks	-6267
▁mmi	-6268
▁nya	-6269
▁pti	-6270
▁shy	-6271
▁tui	-6272
▁umi	-6273
▁Pres	-6274
▁appy	-6275
▁forg	-6276
▁ndit	-6277
▁snack	-6278
ud	-6279
tah	-6280
▁IR	-6281
▁oa	-6282
▁DNA	-6283
▁McM	-6284
▁adl	-6285
▁bou	-6286
▁cil	-6287
▁eft	-6288
▁rek	-6289
▁sda	-6290
▁ayed	-6291
▁coup	-6292
▁issi	-6293
▁lank	-6294
▁lati	-6295
▁nkey	-6296
▁nshi	-6297
▁reda	-6298
▁roba	-6299
▁akers	-6300
▁ememb	-6301
▁olici	-6302
▁ompan	-6303
adi	-6304
nde	-6305
▁0.	-6306
▁ST	-6307
▁RTÉ	-6308
▁cip	-6309
▁lek	-6310
▁mai	-6311
▁oxy	-6312
▁dhya	-6313
▁nals	-6314
▁obby	-6315
▁rien	-6316
▁touc	-6317
▁genre	-6318
▁honey	-6319
▁laska	-6320
▁stark	-6321
▁ո	-6322
▁58	-6323
▁Liz	-6324
▁aul	-6325
▁bia	-6326
▁edo	-6327
▁nni	-6328
▁tiv	-6329
▁gers	-6330
▁rama	-6331
▁cogni	-6332
▁grati	-6333
▁incom	-6334
▁otter	-6335
▁roast	-6336
▁ssent	-6337
ino	-6338
ram	-6339
▁SA	-6340
▁SU	-6341
▁dl	-6342
▁wy	-6343
▁20%	-6344
▁eid	-6345
▁tua	-6346
▁ums	-6347
▁Utah	-6348
▁cles	-6349
▁mult	-6350
▁tica	-6351
▁hydro	-6352
▁riest	-6353
րա	-6354
▁Yo	-6355
▁£5	-6356
▁Ele	-6357
▁atr	-6358
▁coa	-6359
▁ini	-6360
▁Davi	-6361
▁anim	-6362
▁itat	-6363
▁ladi	-6364
▁mara	-6365
▁mono	-6366
▁nsit	-6367
▁trio	-6368
▁ardon	-6369
jan	-6370
ona	-6371
ony	-6372
▁Cy	-6373
▁UA	-6374
▁yu	-6375
▁McA	-6376
▁USC	-6377
▁dmi	-6378
▁pul	-6379
▁ska	-6380
▁tas	-6381
▁ume	-6382
▁vey	-6383
▁erba	-6384
▁flee	-6385
▁olin	-6386
▁rece	-6387
▁riti	-6388
▁tany	-6389
▁tton	-6390
▁ylan	-6391
▁pixel	-6392
HP	-6393
SL	-6394
fo	-6395
▁56	-6396
▁IV	-6397
▁ln	-6398
▁Abu	-6399
▁ahi	-6400
▁anj	-6401
▁beg	-6402
▁sau	-6403
▁Cruz	-6404
▁cuss	-6405
▁igar	-6406
▁ikki	-6407
▁laze	-6408
▁rith	-6409
▁ryan	-6410
▁thro	-6411
▁cture	-6412
▁grain	-6413
if	-6414
▁PR	-6415
▁bee	-6416
▁eor	-6417
▁iel	-6418
▁rog	-6419
▁ues	-6420
▁brid	-6421
▁rvin	-6422
▁tage	-6423
▁arian	-6424
▁eview	-6425
▁mmitt	-6426
▁nerve	-6427
▁ntary	-6428
▁rland	-6429
▁Ա	-6430
▁(1	-6431
▁np	-6432
▁xp	-6433
▁Bea	-6434
▁Flo	-6435
▁Utd	-6436
▁adu	-6437
▁eis	-6438
▁iri	-6439
▁ril	-6440
▁roi	-6441
▁rto	-6442
▁Usyk	-6443
▁almo	-6444
▁asha	-6445
▁dart	-6446
▁hine	-6447
▁lyri	-6448
▁mery	-6449
▁orts	-6450
▁rgan	-6451
▁riva	-6452
▁slam	-6453
▁ukee	-6454
▁lphin	-6455
▁nated	-6456
▁stunt	-6457
▁whale	-6458
▁62	-6459
▁RN	-6460
▁£3	-6461
geth	-6462
▁Ann	-6463
▁Rex	-6464
▁fry	-6465
▁nag	-6466
▁nte	-6467
▁saf	-6468
▁tel	-6469
▁MAGA	-6470
▁egis	-6471
▁iona	-6472
▁opez	-6473
▁sage	-6474
▁yler	-6475
▁ntana	-6476
▁ogeth	-6477
▁sible	-6478
PS	-6479
án	-6480
▁HI	-6481
▁1-0	-6482
▁UFC	-6483
▁asa	-6484
▁laz	-6485
▁nea	-6486
▁uru	-6487
▁wai	-6488
▁wre	-6489
▁appl	-6490
▁ched	-6491
▁clin	-6492
▁conv	-6493
▁cord	-6494
▁exac	-6495
▁ixel	-6496
▁mond	-6497
▁olds	-6498
▁pear	-6499
▁sban	-6500
▁taff	-6501
▁ured	-6502
▁uris	-6503
▁edera	-6504
hed	-6505
▁66	-6506
▁FT	-6507
▁KC	-6508
▁Ima	-6509
▁ems	-6510
▁mmo	-6511
▁rig	-6512
▁rms	-6513
▁amal	-6514
▁eace	-6515
▁eded	-6516
▁glor	-6517
▁grip	-6518
▁loom	-6519
▁norm	-6520
▁ritt	-6521
▁egisl	-6522
▁insti	-6523
▁umber	-6524
xy	-6525
▁NG	-6526
▁NI	-6527
▁£2	-6528
▁Kra	-6529
▁Tes	-6530
▁hoe	-6531
▁lgo	-6532
▁Holl	-6533
▁adal	-6534
▁priv	-6535
▁shan	-6536
▁onder	-6537
▁pposi	-6538
▁wrest	-6539
LE	-6540
▁ք	-6541
win	-6542
▁51	-6543
▁77	-6544
▁91	-6545
▁EC	-6546
▁oj	-6547
▁rj	-6548
▁հա	-6549
▁10.	-6550
▁2-1	-6551
▁afa	-6552
▁alu	-6553
▁inu	-6554
▁kha	-6555
▁mbo	-6556
▁orc	-6557
▁alah	-6558
▁eria	-6559
▁erto	-6560
▁essa	-6561
▁irat	-6562
▁nkin	-6563
▁trap	-6564
▁undr	-6565
▁void	-6566
▁icket	-6567
▁nters	-6568
▁welco	-6569
▁BC	-6570
▁DO	-6571
▁Zi	-6572
▁Hea	-6573
▁McN	-6574
▁RBI	-6575
▁WHO	-6576
▁erd	-6577
▁gem	-6578
▁vas	-6579
▁affe	-6580
▁aken	-6581
▁araz	-6582
▁elan	-6583
▁epen	-6584
▁lore	-6585
▁rita	-6586
▁andal	-6587
▁defin	-6588
▁ghost	-6589
▁htani	-6590
▁orman	-6591
▁rithm	-6592
▁tings	-6593
Is	-6594
▁ñ	-6595
▁AM	-6596
▁HM	-6597
▁40%	-6598
▁bli	-6599
▁hre	-6600
▁lde	-6601
▁lei	-6602
▁lud	-6603
▁nod	-6604
▁tub	-6605
▁ckey	-6606
▁dura	-6607
▁uate	-6608
▁ursk	-6609
▁cepti	-6610
▁nches	-6611
▁sneak	-6612
▁sures	-6613
NT	-6614
ny	-6615
▁	-6616
NBC	-6617
▁49	-6618
▁Rio	-6619
▁Use	-6620
▁asc	-6621
▁mbr	-6622
▁pon	-6623
▁ubi	-6624
▁anga	-6625
▁enic	-6626
▁loop	-6627
▁drift	-6628
▁polic	-6629
▁shian	-6630
BS	-6631
▁բ	-6632
▁63	-6633
▁OR	-6634
▁sd	-6635
▁IND	-6636
▁Spa	-6637
▁Ted	-6638
▁oxi	-6639
▁rif	-6640
▁wet	-6641
▁READ	-6642
▁arat	-6643
▁edro	-6644
▁ersa	-6645
▁erta	-6646
▁hane	-6647
▁mers	-6648
▁nity	-6649
▁okay	-6650
▁resh	-6651
▁ront	-6652
▁Tesco	-6653
▁appli	-6654
▁glove	-6655
▁rtain	-6656
ox	-6657
▁ր	-6658
RWA	-6659
▁67	-6660
▁ME	-6661
▁uy	-6662
▁AAP	-6663
▁Kat	-6664
▁ewa	-6665
▁oya	-6666
▁ske	-6667
▁antl	-6668
▁ewel	-6669
▁hike	-6670
▁lare	-6671
▁leaf	-6672
▁lens	-6673
▁pone	-6674
▁ppre	-6675
▁tatt	-6676
▁unge	-6677
▁UNRWA	-6678
▁esign	-6679
▁metre	-6680
▁promo	-6681
▁robab	-6682
▁ultur	-6683
▁BS	-6684
▁DA	-6685
▁Lt	-6686
▁RO	-6687
▁եւ	-6688
▁Vet	-6689
▁mos	-6690
▁rsu	-6691
▁Gett	-6692
▁cien	-6693
▁estr	-6694
▁hade	-6695
▁hana	-6696
▁igni	-6697
▁lavi	-6698
▁lunt	-6699
▁mplo	-6700
▁ntar	-6701
▁orwe	-6702
▁pile	-6703
▁pion	-6704
▁whip	-6705
▁MSNBC	-6706
▁ingle	-6707
▁physi	-6708
▁valid	-6709
II	-6710
▁ս	-6711
aga	-6712
kar	-6713
▁BM	-6714
▁VP	-6715
▁Gro	-6716
▁IST	-6717
▁Isl	-6718
▁MLB	-6719
▁lut	-6720
▁sni	-6721
▁uci	-6722
▁erit	-6723
▁esti	-6724
▁glam	-6725
▁hail	-6726
▁hile	-6727
▁iden	-6728
▁lips	-6729
▁nate	-6730
▁tong	-6731
▁umer	-6732
▁yach	-6733
▁Uttar	-6734
US	-6735
bb	-6736
hem	-6737
▁74	-6738
▁BA	-6739
▁HD	-6740
▁Ur	-6741
▁3-0	-6742
▁Hud	-6743
▁MSP	-6744
▁glu	-6745
▁rce	-6746
▁rez	-6747
▁ulu	-6748
▁lina	-6749
▁lize	-6750
▁logo	-6751
▁lood	-6752
▁ollo	-6753
▁pent	-6754
▁tanc	-6755
▁avour	-6756
▁globe	-6757
▁stron	-6758
▁yndro	-6759
ում	-6760
▁$6	-6761
▁2%	-6762
▁95	-6763
▁99	-6764
▁CF	-6765
▁Cz	-6766
▁Ve	-6767
▁Zo	-6768
▁Ban	-6769
▁End	-6770
▁See	-6771
▁aps	-6772
▁gha	-6773
▁hea	-6774
▁hyp	-6775
▁lag	-6776
▁niz	-6777
▁oda	-6778
▁daho	-6779
▁dair	-6780
▁eddy	-6781
▁erin	-6782
▁ersh	-6783
▁flip	-6784
▁hein	-6785
▁iddy	-6786
▁inch	-6787
▁ksha	-6788
▁lush	-6789
▁ngin	-6790
▁terl	-6791
▁xper	-6792
▁ersey	-6793
▁luded	-6794
▁rator	-6795
LC	-6796
▁RS	-6797
▁ml	-6798
▁50%	-6799
▁Cel	-6800
▁Fle	-6801
▁gru	-6802
▁rbi	-6803
▁rfo	-6804
▁eyon	-6805
▁nnou	-6806
▁rito	-6807
▁tlin	-6808
▁drain	-6809
▁riori	-6810
GPT	-6811
ndo	-6812
oni	-6813
▁64	-6814
▁78	-6815
▁PGA	-6816
▁amo	-6817
▁eyn	-6818
▁ppi	-6819
▁uby	-6820
▁ule	-6821
▁կան	-6822
▁eels	-6823
▁ided	-6824
▁ines	-6825
▁ixon	-6826
▁seam	-6827
▁tGPT	-6828
▁tron	-6829
▁octor	-6830
▁omali	-6831
RO	-6832
ée	-6833
ado	-6834
▁gt	-6835
▁13.	-6836
▁2-0	-6837
▁NDA	-6838
▁Too	-6839
▁VOA	-6840
▁bic	-6841
▁epe	-6842
▁mut	-6843
▁ros	-6844
▁uld	-6845
▁arte	-6846
▁chin	-6847
▁ctiv	-6848
▁eads	-6849
▁enko	-6850
▁ickl	-6851
▁erage	-6852
▁necti	-6853
▁stole	-6854
▁tered	-6855
myr	-6856
▁LE	-6857
▁SI	-6858
▁hn	-6859
▁Add	-6860
▁ida	-6861
▁rte	-6862
▁sks	-6863
▁wak	-6864
▁xis	-6865
▁Know	-6866
▁bles	-6867
▁dire	-6868
▁educ	-6869
▁hool	-6870
▁inju	-6871
▁rder	-6872
▁repa	-6873
▁ribu	-6874
▁tons	-6875
▁uffe	-6876
▁uran	-6877
▁dymyr	-6878
▁nvers	-6879
▁snake	-6880
▁Jul	-6881
▁Mat	-6882
▁PAC	-6883
▁cie	-6884
▁dau	-6885
▁erv	-6886
▁icy	-6887
▁uda	-6888
▁NDTV	-6889
▁amat	-6890
▁angu	-6891
▁ault	-6892
▁avid	-6893
▁eril	-6894
▁erma	-6895
▁lleg	-6896
▁nfla	-6897
▁rovi	-6898
▁sdom	-6899
▁teph	-6900
▁turi	-6901
▁arget	-6902
▁ienna	-6903
▁irect	-6904
▁lkata	-6905
▁ontin	-6906
▁yacht	-6907
DI	-6908
jo	-6909
zz	-6910
▁12.	-6911
▁60%	-6912
▁Ips	-6913
▁MVP	-6914
▁PTI	-6915
▁SEC	-6916
▁aso	-6917
▁elp	-6918
▁leb	-6919
▁mac	-6920
▁tia	-6921
▁Scho	-6922
▁Shar	-6923
▁Unit	-6924
▁eard	-6925
▁espo	-6926
▁irth	-6927
▁issu	-6928
▁itiz	-6929
▁ndan	-6930
▁shna	-6931
▁astha	-6932
▁crude	-6933
▁rport	-6934
▁trodu	-6935
▁wrist	-6936
▁IF	-6937
▁OS	-6938
▁ար	-6939
▁Set	-6940
▁Thr	-6941
▁WWE	-6942
▁dhe	-6943
▁ebo	-6944
▁gly	-6945
▁het	-6946
▁ngi	-6947
▁nsp	-6948
▁olu	-6949
▁ppa	-6950
▁tee	-6951
▁wid	-6952
▁dela	-6953
▁ghes	-6954
▁ikes	-6955
▁imit	-6956
▁inem	-6957
▁isin	-6958
▁losi	-6959
▁mith	-6960
▁ompo	-6961
▁rood	-6962
▁rude	-6963
▁ների	-6964
▁astor	-6965
▁hools	-6966
▁mmigr	-6967
▁munic	-6968
BO	-6969
zu	-6970
esh	-6971
▁1%	-6972
▁gw	-6973
▁15.	-6974
▁FDA	-6975
▁Kap	-6976
▁Key	-6977
▁SUV	-6978
▁boo	-6979
▁dde	-6980
▁dox	-6981
▁ege	-6982
▁eru	-6983
▁ict	-6984
▁sic	-6985
▁spy	-6986
▁Imag	-6987
▁WNBA	-6988
▁efen	-6989
▁eill	-6990
▁eman	-6991
▁neth	-6992
▁orte	-6993
▁rima	-6994
▁tort	-6995
▁tongu	-6996
DC	-6997
DS	-6998
rez	-6999
▁Ib	-7000
▁OL	-7001
▁ael	-7002
▁agi	-7003
▁bhi	-7004
▁god	-7005
▁goo	-7006
▁hey	-7007
▁psy	-7008
▁toe	-7009
▁Kath	-7010
▁anch	-7011
▁arge	-7012
▁heal	-7013
▁heph	-7014
▁holy	-7015
▁homi	-7016
▁ilit	-7017
▁leep	-7018
▁ocat	-7019
▁rres	-7020
▁sius	-7021
▁tide	-7022
▁ules	-7023
▁vell	-7024
▁vict	-7025
▁whop	-7026
▁yank	-7027
▁ynch	-7028
▁Truss	-7029
▁grind	-7030
▁gymna	-7031
▁onven	-7032
▁seizu	-7033
▁waist	-7034
fty	-7035
▁(2	-7036
▁MC	-7037
▁SS	-7038
▁UE	-7039
▁zy	-7040
▁1.5	-7041
▁11.	-7042
▁80%	-7043
▁Che	-7044
▁Cre	-7045
▁ICE	-7046
▁Lot	-7047
▁gia	-7048
▁gov	-7049
▁hij	-7050
▁kay	-7051
▁nua	-7052
▁rer	-7053
▁toy	-7054
▁NASC	-7055
▁alsh	-7056
▁dget	-7057
▁drum	-7058
▁eant	-7059
▁hird	-7060
▁llan	-7061
▁mush	-7062
▁onor	-7063
▁orie	-7064
▁ssue	-7065
▁toss	-7066
▁tube	-7067
▁entur	-7068
▁itize	-7069
▁mmend	-7070
▁76	-7071
▁DI	-7072
▁IA	-7073
▁Mb	-7074
▁XI	-7075
▁dj	-7076
▁Dur	-7077
▁ERA	-7078
▁Ray	-7079
▁gag	-7080
▁lve	-7081
▁udy	-7082
▁yeh	-7083
▁aver	-7084
▁dear	-7085
▁eral	-7086
▁homo	-7087
▁itor	-7088
▁navy	-7089
▁ober	-7090
▁oles	-7091
▁trem	-7092
▁Count	-7093
▁orter	-7094
▁sleev	-7095
▁viden	-7096
PD	-7097
PR	-7098
▁։	-7099
itt	-7100
▁AG	-7101
▁HR	-7102
▁Yu	-7103
▁zo	-7104
▁120	-7105
▁EVs	-7106
▁Nat	-7107
▁Oil	-7108
▁Roe	-7109
▁apa	-7110
▁dai	-7111
▁edg	-7112
▁fig	-7113
▁hid	-7114
▁iew	-7115
▁igg	-7116
▁rne	-7117
▁rtu	-7118
▁tay	-7119
▁adde	-7120
▁enis	-7121
▁erum	-7122
▁fati	-7123
▁kini	-7124
▁omed	-7125
▁orti	-7126
▁oura	-7127
▁reep	-7128
▁rowd	-7129
▁sche	-7130
▁scus	-7131
▁uppl	-7132
▁Niger	-7133
▁essay	-7134
▁falsi	-7135
▁heren	-7136
▁metri	-7137
▁nthem	-7138
▁reven	-7139
▁stonb	-7140
▁trait	-7141
▁uther	-7142
bi	-7143
▁61	-7144
▁BB	-7145
▁CDC	-7146
▁cos	-7147
▁gie	-7148
▁rbo	-7149
▁sno	-7150
▁uki	-7151
▁wes	-7152
▁hung	-7153
▁idge	-7154
▁matt	-7155
▁mois	-7156
▁ncou	-7157
▁ounc	-7158
▁uing	-7159
▁ural	-7160
▁Trevo	-7161
▁anded	-7162
▁artha	-7163
▁eturn	-7164
▁iscov	-7165
▁retir	-7166
▁seize	-7167
Do	-7168
HS	-7169
tt	-7170
ատ	-7171
chi	-7172
lar	-7173
▁5%	-7174
▁68	-7175
▁ANC	-7176
▁NHL	-7177
▁UAE	-7178
▁Ver	-7179
▁abe	-7180
▁gaz	-7181
▁itl	-7182
▁rup	-7183
▁rva	-7184
▁zoo	-7185
▁Cher	-7186
▁arty	-7187
▁fort	-7188
▁ggle	-7189
▁lobe	-7190
▁nage	-7191
▁asser	-7192
▁enzie	-7193
▁ished	-7194
▁tease	-7195
▁urder	-7196
-4	-7197
OW	-7198
Of	-7199
yo	-7200
ás	-7201
▁71	-7202
▁uf	-7203
▁36,	-7204
▁Tel	-7205
▁Uga	-7206
▁Way	-7207
▁epa	-7208
▁hay	-7209
▁hus	-7210
▁moo	-7211
▁nso	-7212
▁obs	-7213
▁alin	-7214
▁ante	-7215
▁cted	-7216
▁damp	-7217
▁earl	-7218
▁ianc	-7219
▁lade	-7220
▁mela	-7221
▁ploy	-7222
▁stag	-7223
▁dread	-7224
▁nther	-7225
▁wenty	-7226
PC	-7227
մա	-7228
ORK	-7229
▁$4	-7230
▁59	-7231
▁CM	-7232
▁OB	-7233
▁wb	-7234
▁600	-7235
▁YOU	-7236
▁aum	-7237
▁ayl	-7238
▁ige	-7239
▁ilo	-7240
▁urt	-7241
▁UEFA	-7242
▁aceu	-7243
▁duck	-7244
▁erfu	-7245
▁feld	-7246
▁knot	-7247
▁ncia	-7248
▁nual	-7249
▁olla	-7250
▁runo	-7251
▁ollar	-7252
▁spike	-7253
An	-7254
asp	-7255
ric	-7256
ուն	-7257
▁AU	-7258
▁NR	-7259
▁iS	-7260
▁oz	-7261
▁16.	-7262
▁18.	-7263
▁GMT	-7264
▁Had	-7265
▁Has	-7266
▁Pea	-7267
▁eci	-7268
▁eso	-7269
▁iff	-7270
▁mpl	-7271
▁nos	-7272
▁oar	-7273
▁ogy	-7274
▁uss	-7275
▁alli	-7276
▁ardy	-7277
▁ashv	-7278
▁dime	-7279
▁dore	-7280
▁dvis	-7281
▁meme	-7282
▁nita	-7283
▁onda	-7284
▁rkan	-7285
▁sane	-7286
▁unde	-7287
▁urve	-7288
▁ynth	-7289
▁likel	-7290
▁oetry	-7291
▁oning	-7292
▁orced	-7293
▁resse	-7294
▁rrent	-7295
▁sexua	-7296
▁toast	-7297
CH	-7298
ակ	-7299
had	-7300
yer	-7301
▁EN	-7302
▁որ	-7303
▁34,	-7304
▁AND	-7305
▁Bad	-7306
▁Cat	-7307
▁Got	-7308
▁RAM	-7309
▁RHP	-7310
▁TON	-7311
▁VAR	-7312
▁WAS	-7313
▁aks	-7314
▁cop	-7315
▁lvi	-7316
▁oel	-7317
▁rth	-7318
▁ains	-7319
▁crat	-7320
▁emic	-7321
▁endi	-7322
▁gush	-7323
▁icky	-7324
▁ikel	-7325
▁inek	-7326
▁lini	-7327
▁mpic	-7328
▁pira	-7329
▁pted	-7330
▁rtis	-7331
▁shit	-7332
▁tles	-7333
▁INDIA	-7334
▁ayner	-7335
▁drobe	-7336
▁ictor	-7337
▁isten	-7338
▁longe	-7339
▁negar	-7340
▁ntend	-7341
▁peare	-7342
By	-7343
TY	-7344
eta	-7345
▁3%	-7346
▁DE	-7347
▁Dy	-7348
▁ES	-7349
▁FE	-7350
▁TD	-7351
▁cm	-7352
▁£4	-7353
▁20.	-7354
▁Alt	-7355
▁Bal	-7356
▁Ill	-7357
▁NGO	-7358
▁Sto	-7359
▁dug	-7360
▁mbe	-7361
▁neo	-7362
▁nit	-7363
▁rsi	-7364
▁slu	-7365
▁som	-7366
▁vit	-7367
▁ddre	-7368
▁deer	-7369
▁emon	-7370
▁ente	-7371
▁esar	-7372
▁evel	-7373
▁evol	-7374
▁feat	-7375
▁garh	-7376
▁hypo	-7377
▁inni	-7378
▁lope	-7379
▁nail	-7380
▁nama	-7381
▁oine	-7382
▁oren	-7383
▁sinc	-7384
▁vian	-7385
▁distr	-7386
▁flies	-7387
kh	-7388
▁í	-7389
isu	-7390
sey	-7391
▁81	-7392
▁83	-7393
▁BR	-7394
▁TU	-7395
▁Wy	-7396
▁mud	-7397
▁sth	-7398
▁Flor	-7399
▁YORK	-7400
▁ahon	-7401
▁anit	-7402
▁eatu	-7403
▁esel	-7404
▁fade	-7405
▁helm	-7406
▁igna	-7407
▁ladd	-7408
▁lanc	-7409
▁mera	-7410
▁oria	-7411
▁pill	-7412
▁rope	-7413
▁upre	-7414
▁antha	-7415
▁debat	-7416
▁fecti	-7417
▁ither	-7418
▁leksa	-7419
▁longs	-7420
▁secut	-7421
▁stard	-7422
▁urviv	-7423
WS	-7424
ron	-7425
▁cé	-7426
▁nh	-7427
▁DOJ	-7428
▁dip	-7429
▁efu	-7430
▁hee	-7431
▁nho	-7432
▁oze	-7433
▁yne	-7434
▁chae	-7435
▁dupe	-7436
▁ecog	-7437
▁fool	-7438
▁istu	-7439
▁nati	-7440
▁oise	-7441
▁saac	-7442
▁vape	-7443
▁ndica	-7444
▁nspir	-7445
▁stapl	-7446
▁thens	-7447
▁ummar	-7448
-6	-7449
ik	-7450
asa	-7451
cey	-7452
ota	-7453
▁Ke	-7454
▁PP	-7455
▁cz	-7456
▁AFL	-7457
▁ARE	-7458
▁Dam	-7459
▁Guj	-7460
▁Ice	-7461
▁ODI	-7462
▁Tan	-7463
▁bud	-7464
▁mmu	-7465
▁poi	-7466
▁ում	-7467
▁chal	-7468
▁dazz	-7469
▁dose	-7470
▁eave	-7471
▁enka	-7472
▁erez	-7473
▁etsk	-7474
▁gade	-7475
▁gita	-7476
▁lida	-7477
▁lint	-7478
▁lori	-7479
▁nise	-7480
▁nite	-7481
▁ntag	-7482
▁oath	-7483
▁oble	-7484
▁ocks	-7485
▁onth	-7486
▁orma	-7487
▁redo	-7488
▁ruck	-7489
▁tati	-7490
▁istol	-7491
▁itted	-7492
▁perfo	-7493
▁proba	-7494
▁slide	-7495
▁stian	-7496
▁tella	-7497
GB	-7498
IL	-7499
են	-7500
amy	-7501
▁(3	-7502
▁82	-7503
▁DU	-7504
▁uj	-7505
mond	-7506
▁AFC	-7507
▁ETF	-7508
▁HIV	-7509
▁IOC	-7510
▁IVF	-7511
▁eke	-7512
▁gat	-7513
▁ohn	-7514
▁oic	-7515
▁rpe	-7516
▁tif	-7517
▁wol	-7518
▁Coll	-7519
▁anie	-7520
▁appe	-7521
▁ecla	-7522
▁ncie	-7523
▁outi	-7524
▁resu	-7525
▁rjun	-7526
▁taka	-7527
▁ardik	-7528
▁asina	-7529
▁awyer	-7530
▁criti	-7531
▁estio	-7532
▁grasp	-7533
▁opped	-7534
▁oriti	-7535
▁ouble	-7536
▁pendi	-7537
▁regar	-7538
▁rsion	-7539
▁tacey	-7540
▁ydera	-7541
Ah	-7542
RG	-7543
xi	-7544
▁°	-7545
▁$10	-7546
▁30%	-7547
▁30.	-7548
▁35,	-7549
▁37,	-7550
▁50,	-7551
▁Gun	-7552
▁Lea	-7553
▁Mum	-7554
▁alw	-7555
▁asy	-7556
▁ció	-7557
▁dva	-7558
▁dys	-7559
▁ipt	-7560
▁iza	-7561
▁ocr	-7562
▁pad	-7563
▁arus	-7564
▁aves	-7565
▁cite	-7566
▁comb	-7567
▁lier	-7568
▁llon	-7569
▁lude	-7570
▁ntel	-7571
▁pact	-7572
▁rmal	-7573
▁tyle	-7574
▁xplo	-7575
▁ecord	-7576
▁fried	-7577
▁horeo	-7578
▁leach	-7579
▁leisu	-7580
▁lejan	-7581
▁londe	-7582
▁nched	-7583
▁oment	-7584
▁twins	-7585
FF	-7586
▁■	-7587
ERS	-7588
aro	-7589
▁AK	-7590
▁EM	-7591
▁RC	-7592
▁RF	-7593
▁TM	-7594
▁mg	-7595
▁15%	-7596
▁33,	-7597
▁38,	-7598
▁Lab	-7599
▁Pep	-7600
▁Pic	-7601
▁Thu	-7602
▁WNS	-7603
▁mAh	-7604
▁vap	-7605
▁zak	-7606
▁arse	-7607
▁avor	-7608
▁cree	-7609
▁eena	-7610
▁fici	-7611
▁fond	-7612
▁hode	-7613
▁ifie	-7614
▁indy	-7615
▁itis	-7616
▁itua	-7617
▁mmel	-7618
▁mous	-7619
▁neat	-7620
▁qual	-7621
▁reet	-7622
▁ssip	-7623
▁uhan	-7624
▁unni	-7625
▁anyon	-7626
▁istry	-7627
▁raper	-7628
▁shwin	-7629
▁sourc	-7630
▁traya	-7631
▁uprem	-7632
▁ymond	-7633
AL	-7634
AM	-7635
ane	-7636
jee	-7637
oby	-7638
ung	-7639
▁4%	-7640
ster	-7641
▁2.5	-7642
▁70%	-7643
▁800	-7644
▁atc	-7645
▁cea	-7646
▁eno	-7647
▁nno	-7648
▁pok	-7649
▁rdi	-7650
▁rya	-7651
▁tis	-7652
▁£10	-7653
▁LIVE	-7654
▁aree	-7655
▁arma	-7656
▁gues	-7657
▁isse	-7658
▁loot	-7659
▁lves	-7660
▁ordi	-7661
▁rtic	-7662
▁tyre	-7663
▁vels	-7664
▁arvel	-7665
▁champ	-7666
▁feath	-7667
▁lette	-7668
▁ogram	-7669
▁onduc	-7670
▁rents	-7671
▁sitiv	-7672
▁swamy	-7673
▁tsuna	-7674
HD	-7675
▁$9	-7676
▁6%	-7677
▁86	-7678
▁IB	-7679
▁RB	-7680
▁dé	-7681
▁40,	-7682
▁911	-7683
▁Bed	-7684
▁ION	-7685
▁TNT	-7686
▁Try	-7687
▁aru	-7688
▁bil	-7689
▁iOS	-7690
▁lym	-7691
▁ntr	-7692
▁rns	-7693
▁aces	-7694
▁alon	-7695
▁arey	-7696
▁dare	-7697
▁eque	-7698
▁hunk	-7699
▁inge	-7700
▁iole	-7701
▁ioni	-7702
▁naco	-7703
▁nude	-7704
▁onia	-7705
▁ooki	-7706
▁otal	-7707
▁ters	-7708
▁tray	-7709
▁wedi	-7710
▁andid	-7711
▁hated	-7712
▁itors	-7713
▁litar	-7714
▁nsive	-7715
▁rdina	-7716
▁rticl	-7717
▁stort	-7718
-5	-7719
PM	-7720
ño	-7721
▁ծ	-7722
gna	-7723
nda	-7724
▁(4	-7725
▁98	-7726
▁EE	-7727
▁FO	-7728
▁Je	-7729
▁42,	-7730
▁90%	-7731
▁Age	-7732
▁DNC	-7733
▁Fre	-7734
▁Kno	-7735
▁Ola	-7736
▁Sex	-7737
▁kis	-7738
▁rvi	-7739
▁sby	-7740
▁sou	-7741
▁athl	-7742
▁cono	-7743
▁erab	-7744
▁genc	-7745
▁hash	-7746
▁lows	-7747
▁nesh	-7748
▁odel	-7749
▁ripe	-7750
▁roxy	-7751
▁tcom	-7752
▁mster	-7753
▁ncial	-7754
▁ourag	-7755
▁renna	-7756
▁rglar	-7757
▁tione	-7758
HA	-7759
Ps	-7760
ետ	-7761
▁©	-7762
▁É	-7763
▁ö	-7764
▁ü	-7765
SCO	-7766
usk	-7767
▁$7	-7768
▁1/	-7769
▁LO	-7770
▁tM	-7771
▁td	-7772
▁zu	-7773
▁32,	-7774
▁Dow	-7775
▁McB	-7776
▁azz	-7777
▁etr	-7778
▁gul	-7779
▁ibu	-7780
▁oba	-7781
▁pus	-7782
▁udg	-7783
▁Zone	-7784
▁arla	-7785
▁bend	-7786
▁bolt	-7787
▁egre	-7788
▁endy	-7789
▁esty	-7790
▁itiv	-7791
▁levy	-7792
▁orro	-7793
▁rake	-7794
▁reen	-7795
▁uded	-7796
▁vili	-7797
▁agner	-7798
▁armer	-7799
▁erjee	-7800
▁ermin	-7801
▁hefty	-7802
▁heric	-7803
▁lmond	-7804
▁ommun	-7805
ku	-7806
ես	-7807
▁շ	-7808
oda	-7809
tor	-7810
▁Am	-7811
▁CV	-7812
▁DM	-7813
▁Jh	-7814
▁£7	-7815
▁ía	-7816
▁25%	-7817
▁700	-7818
▁Ear	-7819
▁FAA	-7820
▁IMF	-7821
▁LED	-7822
▁Sue	-7823
▁bey	-7824
▁ccu	-7825
▁cov	-7826
▁dha	-7827
▁idu	-7828
▁jam	-7829
▁lai	-7830
▁nei	-7831
▁tba	-7832
▁uge	-7833
▁wee	-7834
▁ande	-7835
▁awar	-7836
▁eine	-7837
▁feit	-7838
▁fork	-7839
▁gray	-7840
▁grin	-7841
▁hali	-7842
▁hart	-7843
▁hygi	-7844
▁lein	-7845
▁noma	-7846
▁omez	-7847
▁sert	-7848
▁andya	-7849
▁ardin	-7850
▁dhere	-7851
▁frain	-7852
▁inted	-7853
▁lings	-7854
▁mploy	-7855
▁ngana	-7856
▁rtial	-7857
▁spill	-7858
▁urora	-7859
▁թյուն	-7860
yi	-7861
ano	-7862
cha	-7863
▁88	-7864
▁92	-7865
▁93	-7866
▁DW	-7867
▁Ir	-7868
▁MB	-7869
▁SM	-7870
▁UG	-7871
lica	-7872
▁1-1	-7873
▁19.	-7874
▁21.	-7875
▁CBI	-7876
▁Due	-7877
▁HBO	-7878
▁Mea	-7879
▁Por	-7880
▁Sho	-7881
▁Sim	-7882
▁VIP	-7883
▁dve	-7884
▁eac	-7885
▁kar	-7886
▁lga	-7887
▁nex	-7888
▁nro	-7889
▁nzo	-7890
▁rci	-7891
▁wat	-7892
▁ynn	-7893
▁FIFA	-7894
▁Trud	-7895
▁agar	-7896
▁aher	-7897
▁aisy	-7898
▁athy	-7899
▁ceme	-7900
▁eane	-7901
▁efer	-7902
▁emma	-7903
▁erná	-7904
▁esto	-7905
▁hock	-7906
▁iffe	-7907
▁lite	-7908
▁nato	-7909
▁ncin	-7910
▁oste	-7911
▁ptur	-7912
▁rass	-7913
▁yder	-7914
▁alway	-7915
▁andra	-7916
▁ankar	-7917
▁dried	-7918
▁figur	-7919
▁grove	-7920
▁nsume	-7921
▁restr	-7922
▁rment	-7923
▁shelf	-7924
▁spine	-7925
▁stopp	-7926
▁uster	-7927
ND	-7928
uk	-7929
կա	-7930
▁ց	-7931
ICS	-7932
adh	-7933
pez	-7934
ste	-7935
▁FS	-7936
▁jp	-7937
▁kr	-7938
▁17.	-7939
▁3-1	-7940
▁DIY	-7941
▁EPA	-7942
▁RNC	-7943
▁Tax	-7944
▁USS	-7945
▁api	-7946
▁hom	-7947
▁hwa	-7948
▁iqu	-7949
▁lis	-7950
▁meo	-7951
▁pox	-7952
▁rtm	-7953
▁tem	-7954
▁woo	-7955
▁ype	-7956
▁ISIS	-7957
▁Time	-7958
▁Tina	-7959
▁abwe	-7960
▁ctri	-7961
▁curi	-7962
▁dani	-7963
▁elve	-7964
▁fani	-7965
▁fron	-7966
▁gart	-7967
▁guar	-7968
▁ippe	-7969
▁lynn	-7970
▁mint	-7971
▁mora	-7972
▁nmen	-7973
▁orge	-7974
▁rane	-7975
▁reca	-7976
▁rton	-7977
▁soli	-7978
▁yrne	-7979
▁ópez	-7980
▁Tracy	-7981
▁anjay	-7982
▁esley	-7983
▁ettle	-7984
▁grabs	-7985
▁iktor	-7986
▁prima	-7987
▁vendo	-7988
▁volve	-7989
EL	-7990
ab	-7991
wy	-7992
asi	-7993
nik	-7994
▁69	-7995
▁7%	-7996
▁AA	-7997
▁GO	-7998
▁Il	-7999
▁RM	-8000
▁Xa	-8001
▁29.	-8002
▁Boy	-8003
▁Cox	-8004
▁Kit	-8005
▁Lib	-8006
▁Wes	-8007
▁evy	-8008
▁hia	-8009
▁hob	-8010
▁ilk	-8011
▁lys	-8012
▁pas	-8013
▁rli	-8014
▁thw	-8015
▁tiz	-8016
▁tob	-8017
▁bent	-8018
▁cher	-8019
▁deta	-8020
▁eavy	-8021
▁envi	-8022
▁eren	-8023
▁fere	-8024
▁herd	-8025
▁icks	-8026
▁kash	-8027
▁lici	-8028
▁neph	-8029
▁nies	-8030
▁njur	-8031
▁noon	-8032
▁orgi	-8033
▁orre	-8034
▁ourn	-8035
▁slew	-8036
▁ulga	-8037
▁yoga	-8038
▁թյան	-8039
▁alman	-8040
▁mente	-8041
▁ourth	-8042
▁rever	-8043
▁secon	-8044
ei	-8045
ago	-8046
ero	-8047
oro	-8048
▁84	-8049
▁GT	-8050
▁NL	-8051
▁PF	-8052
▁PG	-8053
▁PH	-8054
▁WS	-8055
▁4-0	-8056
▁GPS	-8057
▁Kay	-8058
▁USB	-8059
▁VAT	-8060
▁aud	-8061
▁awk	-8062
▁bby	-8063
▁bla	-8064
▁dwi	-8065
▁ofi	-8066
▁ryo	-8067
▁Texa	-8068
▁abel	-8069
▁acer	-8070
▁acks	-8071
▁amir	-8072
▁anto	-8073
▁atio	-8074
▁etby	-8075
▁eyer	-8076
▁heet	-8077
▁nana	-8078
▁obel	-8079
▁offi	-8080
▁omat	-8081
▁otti	-8082
▁peci	-8083
▁rene	-8084
▁shaw	-8085
▁skip	-8086
▁tyra	-8087
▁vity	-8088
▁amara	-8089
▁heney	-8090
▁inwar	-8091
▁laine	-8092
▁niper	-8093
▁sleek	-8094
▁tchin	-8095
ña	-8096
▁―	-8097
ell	-8098
ida	-8099
tok	-8100
▁AB	-8101
▁Gr	-8102
▁OT	-8103
▁SH	-8104
▁sf	-8105
▁sz	-8106
▁£8	-8107
▁48,	-8108
▁737	-8109
▁Bee	-8110
▁Guy	-8111
▁ddy	-8112
▁dli	-8113
▁ggl	-8114
▁iki	-8115
▁oge	-8116
▁ogi	-8117
▁rro	-8118
▁Coun	-8119
▁arga	-8120
▁atur	-8121
▁eddi	-8122
▁elin	-8123
▁este	-8124
▁igra	-8125
▁ithu	-8126
▁kull	-8127
▁lena	-8128
▁lerk	-8129
▁lico	-8130
▁loat	-8131
▁meli	-8132
▁meri	-8133
▁nath	-8134
▁ples	-8135
▁rica	-8136
▁tead	-8137
▁tria	-8138
▁uton	-8139
▁vine	-8140
▁aggie	-8141
▁arbor	-8142
▁demic	-8143
▁ellar	-8144
▁eller	-8145
▁gotta	-8146
▁ients	-8147
▁iring	-8148
▁mitry	-8149
▁reeze	-8150
▁ssain	-8151
NA	-8152
ín	-8153
▁Á	-8154
▁՝	-8155
▁զ	-8156
ena	-8157
ito	-8158
lan	-8159
▁IG	-8160
▁OU	-8161
▁SC	-8162
▁XL	-8163
▁pd	-8164
▁$50	-8165
▁60,	-8166
▁Fan	-8167
▁Few	-8168
▁Ltd	-8169
▁McE	-8170
▁NOT	-8171
▁PhD	-8172
▁iso	-8173
▁más	-8174
▁nen	-8175
▁sfu	-8176
▁ssy	-8177
▁uds	-8178
▁amar	-8179
▁arbo	-8180
▁ashi	-8181
▁atya	-8182
▁avel	-8183
▁civi	-8184
▁eiss	-8185
▁elea	-8186
▁ergy	-8187
▁holm	-8188
▁hoot	-8189
▁knit	-8190
▁midt	-8191
▁muta	-8192
▁ocus	-8193
▁ostu	-8194
▁ramm	-8195
▁rtan	-8196
▁surg	-8197
▁tiya	-8198
▁wick	-8199
▁woes	-8200
▁wrin	-8201
▁yron	-8202
▁Krake	-8203
▁anana	-8204
▁cloth	-8205
▁denti	-8206
▁enner	-8207
▁llain	-8208
▁nking	-8209
▁ticul	-8210
▁yanka	-8211
TC	-8212
TE	-8213
sy	-8214
ռա	-8215
▁Հ	-8216
hea	-8217
mar	-8218
oto	-8219
psy	-8220
▁(5	-8221
▁87	-8222
▁AJ	-8223
▁GA	-8224
▁UW	-8225
▁WE	-8226
▁այ	-8227
▁եր	-8228
▁ին	-8229
▁$30	-8230
▁14.	-8231
▁ALL	-8232
▁Com	-8233
▁HEL	-8234
▁RSF	-8235
▁Son	-8236
▁alv	-8237
▁esa	-8238
▁fea	-8239
▁lun	-8240
▁nad	-8241
▁omy	-8242
▁ows	-8243
▁raf	-8244
▁rgu	-8245
▁rha	-8246
▁var	-8247
▁vat	-8248
▁Toby	-8249
▁WASH	-8250
▁abar	-8251
▁asco	-8252
▁bore	-8253
▁clad	-8254
▁dumb	-8255
▁engu	-8256
▁iall	-8257
▁igns	-8258
▁ince	-8259
▁mpox	-8260
▁nagh	-8261
▁nald	-8262
▁olde	-8263
▁raci	-8264
▁rbyn	-8265
▁rcel	-8266
▁rkas	-8267
▁rogr	-8268
▁rous	-8269
▁summ	-8270
▁vere	-8271
▁eflec	-8272
▁feast	-8273
▁ickey	-8274
▁itish	-8275
▁leged	-8276
▁munit	-8277
▁perso	-8278
▁tread	-8279
▁uffer	-8280
▁wheat	-8281
NG	-8282
ez	-8283
mu	-8284
nu	-8285
▁₹	-8286
ayo	-8287
olt	-8288
rey	-8289
uti	-8290
▁DP	-8291
▁HP	-8292
▁MD	-8293
▁NO	-8294
▁Rh	-8295
▁SD	-8296
▁bh	-8297
▁24.	-8298
▁CIA	-8299
▁McF	-8300
▁Sox	-8301
▁Zoe	-8302
▁aly	-8303
▁ffo	-8304
▁gin	-8305
▁hec	-8306
▁ika	-8307
▁lts	-8308
▁nju	-8309
▁nyl	-8310
▁obe	-8311
▁ssu	-8312
▁Disp	-8313
▁Send	-8314
▁aded	-8315
▁akin	-8316
▁alen	-8317
▁aran	-8318
▁arme	-8319
▁asin	-8320
▁atte	-8321
▁dere	-8322
▁djac	-8323
▁evea	-8324
▁fist	-8325
▁kers	-8326
▁litt	-8327
▁lson	-8328
▁melo	-8329
▁mmar	-8330
▁mple	-8331
▁nada	-8332
▁orch	-8333
▁oric	-8334
▁rned	-8335
▁sank	-8336
▁sery	-8337
▁skar	-8338
▁ssen	-8339
▁stak	-8340
▁thos	-8341
▁anter	-8342
▁epend	-8343
▁illon	-8344
▁milli	-8345
▁mprov	-8346
▁otent	-8347
▁tland	-8348
▁ukesh	-8349
Mr	-8350
bh	-8351
ած	-8352
CCI	-8353
gno	-8354
oun	-8355
▁$8	-8356
▁96	-8357
▁Ag	-8358
▁BY	-8359
▁CG	-8360
▁EL	-8361
▁Ev	-8362
▁KK	-8363
▁NS	-8364
▁TB	-8365
▁TS	-8366
▁WI	-8367
▁fs	-8368
well	-8369
▁$20	-8370
▁28.	-8371
▁BMW	-8372
▁Bha	-8373
▁Fah	-8374
▁Hyd	-8375
▁Inn	-8376
▁PSG	-8377
▁Ric	-8378
▁Zoo	-8379
▁col	-8380
▁cyc	-8381
▁egu	-8382
▁elu	-8383
▁fou	-8384
▁ieb	-8385
▁jpg	-8386
▁kra	-8387
▁kur	-8388
▁sol	-8389
▁soy	-8390
▁wyn	-8391
▁Katy	-8392
▁eliv	-8393
▁ffen	-8394
▁haun	-8395
▁heit	-8396
▁icki	-8397
▁kate	-8398
▁lagg	-8399
▁lata	-8400
▁louc	-8401
▁ncho	-8402
▁njoy	-8403
▁omeo	-8404
▁ondi	-8405
▁oran	-8406
▁pris	-8407
▁roke	-8408
▁sini	-8409
▁ssia	-8410
▁stel	-8411
▁unta	-8412
▁wart	-8413
▁worm	-8414
▁xtra	-8415
▁BRICS	-8416
▁cienc	-8417
▁ediat	-8418
▁emper	-8419
▁facto	-8420
▁khtar	-8421
▁requi	-8422
▁steak	-8423
Ms	-8424
▁Ե	-8425
ato	-8426
ghu	-8427
hol	-8428
neu	-8429
rus	-8430
▁CI	-8431
▁IL	-8432
▁LP	-8433
▁OC	-8434
▁SO	-8435
▁TO	-8436
▁UF	-8437
▁VI	-8438
▁eB	-8439
▁ան	-8440
▁130	-8441
▁BET	-8442
▁Dem	-8443
▁FIR	-8444
▁LIV	-8445
▁Ras	-8446
▁cad	-8447
▁dle	-8448
▁fog	-8449
▁ius	-8450
▁mea	-8451
▁ngk	-8452
▁pac	-8453
▁tma	-8454
▁vai	-8455
▁wit	-8456
▁ADHD	-8457
▁HMRC	-8458
▁NYPD	-8459
▁arle	-8460
▁chai	-8461
▁heed	-8462
▁heli	-8463
▁ivek	-8464
▁limp	-8465
▁magi	-8466
▁meni	-8467
▁nked	-8468
▁nock	-8469
▁nolo	-8470
▁olby	-8471
▁perm	-8472
▁pher	-8473
▁prim	-8474
▁rbor	-8475
▁rove	-8476
▁snub	-8477
▁spel	-8478
▁sser	-8479
▁trim	-8480
▁uest	-8481
▁urit	-8482
▁usta	-8483
▁wool	-8484
▁zakh	-8485
▁achin	-8486
▁eanor	-8487
▁ernic	-8488
▁gyang	-8489
▁inder	-8490
▁iyadh	-8491
▁nough	-8492
▁nstru	-8493
▁olenc	-8494
▁proof	-8495
▁ragma	-8496
▁spice	-8497
▁tasha	-8498
▁à	-8499
▁ջ	-8500
pen	-8501
▁HO	-8502
▁Hz	-8503
▁sq	-8504
▁té	-8505
▁xe	-8506
▁£6	-8507
▁2.3	-8508
▁23.	-8509
▁31.	-8510
▁Arm	-8511
▁Buy	-8512
▁COP	-8513
▁Chr	-8514
▁Dog	-8515
▁Hur	-8516
▁IRA	-8517
▁NCP	-8518
▁NFC	-8519
▁Nga	-8520
▁Pay	-8521
▁Pil	-8522
▁REN	-8523
▁WSL	-8524
▁afi	-8525
▁anD	-8526
▁aza	-8527
▁bug	-8528
▁erw	-8529
▁lte	-8530
▁mae	-8531
▁odu	-8532
▁rgy	-8533
▁abba	-8534
▁ampl	-8535
▁attr	-8536
▁dera	-8537
▁dine	-8538
▁edar	-8539
▁erva	-8540
▁fuss	-8541
▁gutt	-8542
▁hier	-8543
▁keta	-8544
▁lenn	-8545
▁lkin	-8546
▁nflu	-8547
▁oces	-8548
▁othi	-8549
▁pora	-8550
▁rban	-8551
▁roar	-8552
▁surp	-8553
▁tate	-8554
▁thel	-8555
▁tomb	-8556
▁ydia	-8557
▁ailor	-8558
▁anata	-8559
▁endor	-8560
▁ergen	-8561
▁ervic	-8562
▁etiti	-8563
▁hanne	-8564
▁ibute	-8565
▁lyric	-8566
▁nahan	-8567
▁ollen	-8568
▁owers	-8569
▁tigma	-8570
▁tooth	-8571
▁veget	-8572
).	-8573
AI	-8574
HT	-8575
NC	-8576
lin	-8577
▁#1	-8578
▁89	-8579
▁PB	-8580
▁TC	-8581
▁kk	-8582
▁xx	-8583
▁մի	-8584
▁43,	-8585
▁Aid	-8586
▁Joy	-8587
▁MLA	-8588
▁MTV	-8589
▁VER	-8590
▁hil	-8591
▁ibb	-8592
▁ips	-8593
▁izz	-8594
▁jar	-8595
▁nef	-8596
▁nki	-8597
▁raj	-8598
▁rov	-8599
▁sil	-8600
▁sow	-8601
▁tox	-8602
▁wow	-8603
▁BCCI	-8604
▁ESCO	-8605
▁acha	-8606
▁aris	-8607
▁boob	-8608
▁cers	-8609
▁claw	-8610
▁dama	-8611
▁dega	-8612
▁elet	-8613
▁enty	-8614
▁erve	-8615
▁evie	-8616
▁fury	-8617
▁honi	-8618
▁kara	-8619
▁lans	-8620
▁mero	-8621
▁rift	-8622
▁runa	-8623
▁smal	-8624
▁trek	-8625
▁trom	-8626
▁ugge	-8627
▁ultu	-8628
▁despi	-8629
▁disha	-8630
▁hoard	-8631
▁hobby	-8632
▁ician	-8633
▁infor	-8634
▁oving	-8635
▁pdate	-8636
▁scort	-8637
▁vance	-8638
▁vatar	-8639
EM	-8640
▁փ	-8641
bon	-8642
hel	-8643
leb	-8644
wic	-8645
▁CR	-8646
▁EA	-8647
▁EP	-8648
▁NF	-8649
▁NW	-8650
▁án	-8651
pect	-8652
▁180	-8653
▁DEI	-8654
▁DWP	-8655
▁FOR	-8656
▁FOX	-8657
▁Hit	-8658
▁Int	-8659
▁Kab	-8660
▁Led	-8661
▁Mom	-8662
▁NRL	-8663
▁PRE	-8664
▁Pod	-8665
▁cum	-8666
▁ecl	-8667
▁eho	-8668
▁eks	-8669
▁fau	-8670
▁fox	-8671
▁kan	-8672
▁sio	-8673
▁uka	-8674
▁upp	-8675
▁ync	-8676
▁Kari	-8677
▁Pari	-8678
▁amou	-8679
▁asan	-8680
▁atek	-8681
▁aunc	-8682
▁berg	-8683
▁dida	-8684
▁dres	-8685
▁elgo	-8686
▁etin	-8687
▁hoke	-8688
▁hype	-8689
▁lamp	-8690
▁lana	-8691
▁latt	-8692
▁lazy	-8693
▁leed	-8694
▁lmar	-8695
▁ltan	-8696
▁mpan	-8697
▁nell	-8698
▁nook	-8699
▁nroe	-8700
▁onny	-8701
▁pest	-8702
▁plet	-8703
▁prit	-8704
▁ranc	-8705
▁tudy	-8706
▁umza	-8707
▁Macdo	-8708
▁assie	-8709
▁ching	-8710
▁estro	-8711
▁etire	-8712
▁ewelr	-8713
▁ffect	-8714
▁grunt	-8715
▁heeky	-8716
▁kshay	-8717
▁nefit	-8718
▁ortho	-8719
▁osley	-8720
▁raine	-8721
▁ssanc	-8722
▁xpect	-8723
GE	-8724
oh	-8725
▁ú	-8726
hei	-8727
mru	-8728
oti	-8729
yll	-8730
▁2:	-8731
▁9%	-8732
▁CT	-8733
▁CU	-8734
▁DV	-8735
▁TT	-8736
▁Yi	-8737
▁rz	-8738
▁xa	-8739
▁մա	-8740
▁13%	-8741
▁25.	-8742
▁3-2	-8743
▁45,	-8744
▁49,	-8745
▁59,	-8746
▁61,	-8747
▁900	-8748
▁CPS	-8749
▁CSK	-8750
▁Fin	-8751
▁IRS	-8752
▁Kai	-8753
▁LSU	-8754
▁MAX	-8755
▁MLS	-8756
▁Mys	-8757
▁Pet	-8758
▁USD	-8759
▁VII	-8760
▁aji	-8761
▁aun	-8762
▁cub	-8763
▁eha	-8764
▁isk	-8765
▁oye	-8766
▁tou	-8767
▁yme	-8768
▁ynt	-8769
▁Hyde	-8770
▁Kano	-8771
▁acle	-8772
▁ader	-8773
▁alki	-8774
▁amed	-8775
▁amic	-8776
▁asca	-8777
▁bake	-8778
▁cier	-8779
▁comf	-8780
▁damn	-8781
▁eepi	-8782
▁erch	-8783
▁erde	-8784
▁ered	-8785
▁hama	-8786
▁imen	-8787
▁ingo	-8788
▁lito	-8789
▁loft	-8790
▁mita	-8791
▁onti	-8792
▁pert	-8793
▁prod	-8794
▁rvel	-8795
▁shir	-8796
▁ssan	-8797
▁tona	-8798
▁trat	-8799
▁urne	-8800
▁velt	-8801
▁volt	-8802
▁watt	-8803
▁Cyrus	-8804
▁Kapil	-8805
▁Kapla	-8806
▁anged	-8807
▁celeb	-8808
▁ennon	-8809
▁fluen	-8810
▁incid	-8811
▁leeve	-8812
▁ochul	-8813
▁redic	-8814
▁riter	-8815
▁telly	-8816
▁trand	-8817
▁venti	-8818
Be	-8819
gs	-8820
wu	-8821
խա	-8822
eno	-8823
fer	-8824
gra	-8825
ker	-8826
▁#2	-8827
▁DR	-8828
▁Er	-8829
▁OF	-8830
▁Pl	-8831
▁RR	-8832
▁yw	-8833
▁են	-8834
▁կա	-8835
anye	-8836
▁47,	-8837
▁Cle	-8838
▁Fro	-8839
▁Gus	-8840
▁LSO	-8841
▁Leo	-8842
▁PDP	-8843
▁PTS	-8844
▁Pan	-8845
▁RFK	-8846
▁aja	-8847
▁dhi	-8848
▁nks	-8849
▁oja	-8850
▁oki	-8851
▁ovi	-8852
▁sem	-8853
▁ucc	-8854
▁uha	-8855
▁ARET	-8856
▁Dyna	-8857
▁MARG	-8858
▁RENN	-8859
▁adge	-8860
▁ainz	-8861
▁aise	-8862
▁ancé	-8863
▁bery	-8864
▁brox	-8865
▁caly	-8866
▁dule	-8867
▁eyen	-8868
▁haka	-8869
▁ikol	-8870
▁ltry	-8871
▁oder	-8872
▁reta	-8873
▁rida	-8874
▁runt	-8875
▁scer	-8876
▁shek	-8877
▁ssid	-8878
▁staf	-8879
▁uddy	-8880
▁uide	-8881
▁wara	-8882
▁wolf	-8883
▁ynne	-8884
▁yson	-8885
▁Fleet	-8886
▁Kanye	-8887
▁ashar	-8888
▁ashma	-8889
▁epsis	-8890
▁erode	-8891
▁euver	-8892
▁glori	-8893
▁ionel	-8894
▁lking	-8895
▁olony	-8896
▁onnec	-8897
▁penin	-8898
▁pulat	-8899
▁reali	-8900
▁riana	-8901
▁ryant	-8902
▁ssein	-8903
▁troke	-8904
▁ukayo	-8905
▁waite	-8906
OO	-8907
▁ձ	-8908
ber	-8909
den	-8910
obb	-8911
▁94	-8912
▁97	-8913
▁AY	-8914
▁IQ	-8915
▁OM	-8916
▁Oz	-8917
▁PT	-8918
▁SB	-8919
▁Sl	-8920
▁110	-8921
▁3.5	-8922
▁52,	-8923
▁53,	-8924
▁54,	-8925
▁57,	-8926
▁AfD	-8927
▁CPI	-8928
▁DUP	-8929
▁Dry	-8930
▁Ivy	-8931
▁KKR	-8932
▁Kar	-8933
▁McV	-8934
▁ONS	-8935
▁RCB	-8936
▁Tur	-8937
▁atz	-8938
▁cto	-8939
▁gid	-8940
▁gil	-8941
▁oké	-8942
▁pag	-8943
▁pex	-8944
▁rix	-8945
▁rub	-8946
▁tef	-8947
▁tut	-8948
▁uiz	-8949
▁yen	-8950
▁£20	-8951
▁Heal	-8952
▁Howe	-8953
▁Xavi	-8954
▁abal	-8955
▁alle	-8956
▁angi	-8957
▁asti	-8958
▁atra	-8959
▁atum	-8960
▁bine	-8961
▁ctua	-8962
▁dele	-8963
▁eone	-8964
▁ezos	-8965
▁fide	-8966
▁gala	-8967
▁hoir	-8968
▁hora	-8969
▁iper	-8970
▁lava	-8971
▁lias	-8972
▁llet	-8973
▁lyde	-8974
▁ogey	-8975
▁osse	-8976
▁pier	-8977
▁rlin	-8978
▁rtyr	-8979
▁shid	-8980
▁shra	-8981
▁ssey	-8982
▁stma	-8983
▁tham	-8984
▁toes	-8985
▁ttor	-8986
▁ainoo	-8987
▁anche	-8988
▁arbon	-8989
▁arity	-8990
▁assey	-8991
▁ehicl	-8992
▁hrain	-8993
▁incre	-8994
▁lemma	-8995
▁llpen	-8996
▁naive	-8997
▁omers	-8998
▁sauna	-8999
▁serie	-9000
▁snook	-9001
▁sthea	-9002
▁ynago	-9003
▁yoghu	-9004
24	-9005
IM	-9006
LP	-9007
LU	-9008
LY	-9009
fL	-9010
bal	-9011
▁(7	-9012
▁(8	-9013
▁79	-9014
▁8%	-9015
▁BP	-9016
▁JJ	-9017
▁MM	-9018
▁MU	-9019
▁OP	-9020
▁QB	-9021
▁1.2	-9022
▁350	-9023
▁44,	-9024
▁ACC	-9025
▁BBQ	-9026
▁Box	-9027
▁Gas	-9028
▁ISS	-9029
▁NER	-9030
▁NYC	-9031
▁Sal	-9032
▁Sep	-9033
▁Yat	-9034
▁aho	-9035
▁coo	-9036
▁erz	-9037
▁gum	-9038
▁hue	-9039
▁nfo	-9040
▁nve	-9041
▁pod	-9042
▁ryn	-9043
▁uno	-9044
▁upe	-9045
▁հետ	-9046
▁ETFs	-9047
▁Mach	-9048
▁NEET	-9049
▁Olaf	-9050
▁Stre	-9051
▁bike	-9052
▁bove	-9053
▁dall	-9054
▁deri	-9055
▁dges	-9056
▁echo	-9057
▁entl	-9058
▁eona	-9059
▁erla	-9060
▁eung	-9061
▁flop	-9062
▁fray	-9063
▁gren	-9064
▁hini	-9065
▁hona	-9066
▁hony	-9067
▁ktok	-9068
▁laya	-9069
▁mage	-9070
▁mati	-9071
▁moor	-9072
▁ntes	-9073
▁onta	-9074
▁prep	-9075
▁ritz	-9076
▁spre	-9077
▁stre	-9078
▁tala	-9079
▁tena	-9080
▁vaga	-9081
▁wain	-9082
▁wess	-9083
▁astry	-9084
▁aveat	-9085
▁erish	-9086
▁essag	-9087
▁helif	-9088
▁measl	-9089
▁melia	-9090
▁narco	-9091
▁nterb	-9092
▁orwic	-9093
▁scara	-9094
▁shabh	-9095
▁sliga	-9096
▁sniff	-9097
▁sthma	-9098
▁stove	-9099
▁tasty	-9100
▁xpert	-9101
IR	-9102
je	-9103
ju	-9104
այ	-9105
⁄2	-9106
▁	-9107
FTA	-9108
TSE	-9109
ene	-9110
lon	-9111
rum	-9112
uth	-9113
▁HQ	-9114
▁aq	-9115
▁cn	-9116
▁ստ	-9117
▁101	-9118
▁26.	-9119
▁4.5	-9120
▁41,	-9121
▁5-0	-9122
▁Bas	-9123
▁CHR	-9124
▁Dad	-9125
▁ERS	-9126
▁GPs	-9127
▁Gan	-9128
▁Gee	-9129
▁Mae	-9130
▁Ple	-9131
▁SIM	-9132
▁SPF	-9133
▁WAT	-9134
▁aws	-9135
▁eol	-9136
▁jab	-9137
▁jit	-9138
▁nem	-9139
▁nol	-9140
▁nsa	-9141
▁nza	-9142
▁pun	-9143
▁rar	-9144
▁rde	-9145
▁rmi	-9146
▁sep	-9147
▁wis	-9148
▁xpo	-9149
▁AIDS	-9150
▁FTSE	-9151
▁PTSD	-9152
▁aini	-9153
▁alue	-9154
▁amib	-9155
▁annu	-9156
▁atwi	-9157
▁buse	-9158
▁dles	-9159
▁drai	-9160
▁dren	-9161
▁duly	-9162
▁enos	-9163
▁frie	-9164
▁hale	-9165
▁jogg	-9166
▁kart	-9167
▁nast	-9168
▁nett	-9169
▁nora	-9170
▁oley	-9171
▁ossi	-9172
▁pond	-9173
▁ques	-9174
▁rada	-9175
▁rtai	-9176
▁rtho	-9177
▁tial	-9178
▁ubic	-9179
▁vani	-9180
▁xist	-9181
▁alize	-9182
▁ancho	-9183
▁asing	-9184
▁canno	-9185
▁corre	-9186
▁croft	-9187
▁eismi	-9188
▁encha	-9189
▁erfec	-9190
▁isbon	-9191
▁ondit	-9192
▁owing	-9193
▁pster	-9194
▁ricey	-9195
▁rname	-9196
▁shida	-9197
▁smine	-9198
▁tosse	-9199
DF	-9200
RT	-9201
oe	-9202
sl	-9203
ոն	-9204
▁gm	-9205
▁1.3	-9206
▁39,	-9207
▁51,	-9208
▁58,	-9209
▁CAA	-9210
▁Hub	-9211
▁IPO	-9212
▁MMA	-9213
▁McQ	-9214
▁Pia	-9215
▁Rao	-9216
▁TfL	-9217
▁UFO	-9218
▁Yes	-9219
▁aku	-9220
▁bay	-9221
▁epo	-9222
▁hog	-9223
▁ido	-9224
▁jaw	-9225
▁lma	-9226
▁maj	-9227
▁olt	-9228
▁pig	-9229
▁ply	-9230
▁rly	-9231
▁sai	-9232
▁sev	-9233
▁tai	-9234
▁ugu	-9235
▁uns	-9236
▁wax	-9237
▁yna	-9238
▁yte	-9239
▁£50	-9240
▁éin	-9241
▁Afri	-9242
▁HERE	-9243
▁Hyun	-9244
▁Indo	-9245
▁adra	-9246
▁ahma	-9247
▁anci	-9248
▁arjo	-9249
▁attl	-9250
▁beta	-9251
▁bett	-9252
▁eady	-9253
▁eams	-9254
▁eega	-9255
▁eged	-9256
▁forc	-9257
▁gasp	-9258
▁hati	-9259
▁hees	-9260
▁heid	-9261
▁hiny	-9262
▁lisa	-9263
▁mona	-9264
▁mons	-9265
▁ombi	-9266
▁orni	-9267
▁pneu	-9268
▁rati	-9269
▁remi	-9270
▁rini	-9271
▁rius	-9272
▁rmat	-9273
▁roam	-9274
▁rode	-9275
▁roma	-9276
▁shav	-9277
▁skat	-9278
▁taps	-9279
▁ulso	-9280
▁utti	-9281
▁uven	-9282
▁yuan	-9283
▁ánch	-9284
▁Cymru	-9285
▁HELOC	-9286
▁arche	-9287
▁arley	-9288
▁ctive	-9289
▁estle	-9290
▁heera	-9291
▁lichi	-9292
▁llott	-9293
▁menei	-9294
▁nagar	-9295
▁ngkok	-9296
▁nston	-9297
▁ocrat	-9298
▁plete	-9299
▁spers	-9300
▁ssail	-9301
▁swell	-9302
▁twent	-9303
▁ynony	-9304
AK	-9305
FS	-9306
HL	-9307
km	-9308
ug	-9309
ón	-9310
ից	-9311
մբ	-9312
▁Ն	-9313
die	-9314
lly	-9315
oli	-9316
vre	-9317
▁(6	-9318
▁EB	-9319
▁FM	-9320
▁KL	-9321
▁KO	-9322
▁SR	-9323
▁TI	-9324
▁zh	-9325
▁£9	-9326
itya	-9327
odka	-9328
▁140	-9329
▁170	-9330
▁6-3	-9331
▁ANG	-9332
▁Bhu	-9333
▁Cer	-9334
▁Dua	-9335
▁Gaz	-9336
▁Kia	-9337
▁Les	-9338
▁Lin	-9339
▁Mel	-9340
▁Ren	-9341
▁Say	-9342
▁erp	-9343
▁itu	-9344
▁khi	-9345
▁max	-9346
▁oos	-9347
▁pio	-9348
▁rfu	-9349
▁rso	-9350
▁uad	-9351
▁wad	-9352
▁ման	-9353
▁յին	-9354
▁Gute	-9355
▁LOVE	-9356
▁MSPs	-9357
▁OLED	-9358
▁PFAS	-9359
▁alsa	-9360
▁arda	-9361
▁artn	-9362
▁arun	-9363
▁avan	-9364
▁carr	-9365
▁darl	-9366
▁dull	-9367
▁eals	-9368
▁ercy	-9369
▁erro	-9370
▁eyes	-9371
▁fend	-9372
▁grea	-9373
▁hoop	-9374
▁mite	-9375
▁nagg	-9376
▁ncha	-9377
▁ncil	-9378
▁ndal	-9379
▁nden	-9380
▁noop	-9381
▁ntha	-9382
▁olit	-9383
▁onge	-9384
▁poke	-9385
▁rapp	-9386
▁rong	-9387
▁ronx	-9388
▁rune	-9389
▁ucia	-9390
▁ulin	-9391
▁vich	-9392
▁wadi	-9393
▁xten	-9394
▁yteD	-9395
▁Unite	-9396
▁arlem	-9397
▁astel	-9398
▁ditya	-9399
▁ehold	-9400
▁eling	-9401
▁elsey	-9402
▁ennia	-9403
▁hohei	-9404
▁lions	-9405
▁nacho	-9406
▁ndall	-9407
▁ntyre	-9408
▁publi	-9409
▁rmagh	-9410
▁shore	-9411
▁spina	-9412
▁tated	-9413
▁trive	-9414
▁trunk	-9415
▁vodka	-9416
El	-9417
LD	-9418
աց	-9419
aka	-9420
gen	-9421
ilb	-9422
lda	-9423
▁Aa	-9424
▁FP	-9425
▁HU	-9426
▁RG	-9427
▁SW	-9428
▁UV	-9429
▁rw	-9430
▁ré	-9431
▁yg	-9432
▁22.	-9433
▁27.	-9434
▁401	-9435
▁75%	-9436
▁ANI	-9437
▁Ask	-9438
▁Eva	-9439
▁GoF	-9440
▁JPM	-9441
▁LSG	-9442
▁Low	-9443
▁McS	-9444
▁NPR	-9445
▁RAF	-9446
▁Sin	-9447
▁elm	-9448
▁fod	-9449
▁fus	-9450
▁gus	-9451
▁hoa	-9452
▁hyn	-9453
▁ikh	-9454
▁iko	-9455
▁iol	-9456
▁jay	-9457
▁kic	-9458
▁lmi	-9459
▁ocu	-9460
▁peg	-9461
▁rae	-9462
▁sar	-9463
▁tad	-9464
▁vez	-9465
▁xio	-9466
▁yah	-9467
▁yra	-9468
▁վել	-9469
▁ETTY	-9470
▁Knox	-9471
▁TERS	-9472
▁Tusk	-9473
▁agen	-9474
▁aggy	-9475
▁aliz	-9476
▁aram	-9477
▁easu	-9478
▁ecky	-9479
▁egin	-9480
▁ehru	-9481
▁elda	-9482
▁furt	-9483
▁goat	-9484
▁gran	-9485
▁hami	-9486
▁hind	-9487
▁ival	-9488
▁kyro	-9489
▁lama	-9490
▁mran	-9491
▁nery	-9492
▁oets	-9493
▁oute	-9494
▁oyah	-9495
▁renc	-9496
▁rigi	-9497
▁unil	-9498
▁urie	-9499
▁urin	-9500
▁zoom	-9501
▁admin	-9502
▁andha	-9503
▁argre	-9504
▁arton	-9505
▁astic	-9506
▁aunch	-9507
▁demon	-9508
▁enera	-9509
▁enten	-9510
▁estos	-9511
▁kayak	-9512
▁lumni	-9513
▁malfu	-9514
▁malnu	-9515
▁nform	-9516
▁ngola	-9517
▁poulo	-9518
▁reate	-9519
▁rsten	-9520
▁stion	-9521
▁tihad	-9522
▁urgum	-9523
GC	-9524
LS	-9525
La	-9526
TH	-9527
ՐԵ	-9528
եղ	-9529
▁Մ	-9530
▁‐	-9531
oum	-9532
▁AV	-9533
▁BO	-9534
▁JB	-9535
▁JC	-9536
▁LG	-9537
▁Sr	-9538
▁TR	-9539
▁VR	-9540
▁WF	-9541
▁Ze	-9542
▁kW	-9543
▁mr	-9544
▁0-0	-9545
▁1.4	-9546
▁125	-9547
▁46,	-9548
▁70,	-9549
▁999	-9550
▁Bon	-9551
▁CMA	-9552
▁Eye	-9553
▁GMB	-9554
▁Hab	-9555
▁Jen	-9556
▁UPI	-9557
▁Uma	-9558
▁bha	-9559
▁dwa	-9560
▁ewe	-9561
▁hru	-9562
▁odo	-9563
▁olf	-9564
▁sak	-9565
▁uir	-9566
▁veh	-9567
▁voc	-9568
▁wth	-9569
▁yll	-9570
▁£30	-9571
▁Demo	-9572
▁Doha	-9573
▁FEMA	-9574
▁MacD	-9575
▁Tanz	-9576
▁Witt	-9577
▁abby	-9578
▁alis	-9579
▁alta	-9580
▁arno	-9581
▁asso	-9582
▁atho	-9583
▁auda	-9584
▁cise	-9585
▁cnic	-9586
▁dorf	-9587
▁eale	-9588
▁eely	-9589
▁erni	-9590
▁hemo	-9591
▁hist	-9592
▁inha	-9593
▁inks	-9594
▁inny	-9595
▁isti	-9596
▁lick	-9597
▁lima	-9598
▁loaf	-9599
▁lord	-9600
▁lumb	-9601
▁lust	-9602
▁mano	-9603
▁mney	-9604
▁nkar	-9605
▁noid	-9606
▁oups	-9607
▁pita	-9608
▁quar	-9609
▁rbán	-9610
▁rdon	-9611
▁ryce	-9612
▁saka	-9613
▁shpa	-9614
▁tidy	-9615
▁treb	-9616
▁uled	-9617
▁unts	-9618
▁BAFTA	-9619
▁PRESS	-9620
▁addie	-9621
▁alami	-9622
▁alvag	-9623
▁atest	-9624
▁cated	-9625
▁etail	-9626
▁louse	-9627
▁nistr	-9628
▁nsibl	-9629
▁pleas	-9630
▁prose	-9631
▁rrend	-9632
▁stool	-9633
▁tyres	-9634
-7	-9635
EG	-9636
IG	-9637
Rs	-9638
iu	-9639
su	-9640
նա	-9641
▁	-9642
IMS	-9643
efa	-9644
isy	-9645
lac	-9646
lee	-9647
ulu	-9648
▁CL	-9649
▁GW	-9650
▁Ip	-9651
▁MG	-9652
▁PI	-9653
▁SK	-9654
▁VW	-9655
▁lr	-9656
▁mé	-9657
▁$15	-9658
▁14%	-9659
▁23%	-9660
▁4-2	-9661
▁62,	-9662
▁Ash	-9663
▁EST	-9664
▁Edo	-9665
▁FSB	-9666
▁Gay	-9667
▁HTS	-9668
▁Isa	-9669
▁LLC	-9670
▁LON	-9671
▁Lai	-9672
▁McT	-9673
▁Mil	-9674
▁NTA	-9675
▁Olu	-9676
▁Raj	-9677
▁Rod	-9678
▁akh	-9679
▁asu	-9680
▁bst	-9681
▁deg	-9682
▁eeb	-9683
▁eod	-9684
▁evo	-9685
▁iah	-9686
▁mho	-9687
▁nah	-9688
▁syn	-9689
▁tsp	-9690
▁vow	-9691
▁vsk	-9692
▁yev	-9693
▁zra	-9694
▁Gosl	-9695
▁aber	-9696
▁abie	-9697
▁andr	-9698
▁arer	-9699
▁ascó	-9700
▁cian	-9701
▁ecta	-9702
▁elch	-9703
▁ires	-9704
▁itha	-9705
▁izzu	-9706
▁kshi	-9707
▁nand	-9708
▁ndiv	-9709
▁olog	-9710
▁orga	-9711
▁oust	-9712
▁riam	-9713
▁scha	-9714
▁stco	-9715
▁titu	-9716
▁ttis	-9717
▁uard	-9718
▁wobb	-9719
▁wser	-9720
▁yana	-9721
▁Kabul	-9722
▁NEWSW	-9723
▁andum	-9724
▁asino	-9725
▁crati	-9726
▁dered	-9727
▁eplac	-9728
▁ffort	-9729
▁frack	-9730
▁frost	-9731
▁grape	-9732
▁indus	-9733
▁inney	-9734
▁lamet	-9735
▁lense	-9736
▁lpine	-9737
▁rater	-9738
▁rowth	-9739
▁siona	-9740
▁sther	-9741
▁thium	-9742
▁tutor	-9743
▁wanna	-9744
.,	-9745
CE	-9746
LO	-9747
NP	-9748
NS	-9749
PO	-9750
lb	-9751
ão	-9752
իա	-9753
▁խ	-9754
▁′	-9755
der	-9756
lai	-9757
mph	-9758
udo	-9759
▁00	-9760
▁BT	-9761
▁EY	-9762
▁GC	-9763
▁HC	-9764
▁OH	-9765
▁WC	-9766
▁ih	-9767
▁yt	-9768
▁11%	-9769
▁2-2	-9770
▁240	-9771
▁4-1	-9772
▁55,	-9773
▁72,	-9774
▁75,	-9775
▁BYD	-9776
▁CSE	-9777
▁Cut	-9778
▁FCC	-9779
▁FTC	-9780
▁FTX	-9781
▁ICJ	-9782
▁IVE	-9783
▁Job	-9784
▁MAN	-9785
▁MOL	-9786
▁Mal	-9787
▁NOA	-9788
▁TAC	-9789
▁Tea	-9790
▁Tem	-9791
▁Yve	-9792
▁ajo	-9793
▁aph	-9794
▁aqu	-9795
▁awe	-9796
▁bok	-9797
▁efe	-9798
▁emm	-9799
▁fet	-9800
▁gou	-9801
▁kni	-9802
▁kow	-9803
▁nfr	-9804
▁nsk	-9805
▁pru	-9806
▁wse	-9807
▁yre	-9808
▁zor	-9809
▁Desp	-9810
▁abre	-9811
▁adia	-9812
▁ahya	-9813
▁aleh	-9814
▁alty	-9815
▁anes	-9816
▁arto	-9817
▁atla	-9818
▁atus	-9819
▁azar	-9820
▁bees	-9821
▁cant	-9822
▁cest	-9823
▁chuk	-9824
▁dgar	-9825
▁dubi	-9826
▁etra	-9827
▁glar	-9828
▁glee	-9829
▁herb	-9830
▁ilar	-9831
▁inja	-9832
▁inta	-9833
▁itle	-9834
▁lese	-9835
▁lond	-9836
▁ltar	-9837
▁lved	-9838
▁medy	-9839
▁mena	-9840
▁mull	-9841
▁nach	-9842
▁obey	-9843
▁prob	-9844
▁rady	-9845
▁rall	-9846
▁rost	-9847
▁rwar	-9848
▁skew	-9849
▁snip	-9850
▁suff	-9851
▁tomi	-9852
▁uilt	-9853
▁unct	-9854
▁undo	-9855
▁vain	-9856
▁weed	-9857
▁xeno	-9858
▁yndi	-9859
▁zuki	-9860
▁Knick	-9861
▁armen	-9862
▁blica	-9863
▁candi	-9864
▁edict	-9865
▁eline	-9866
▁euvre	-9867
▁evron	-9868
▁forty	-9869
▁fries	-9870
▁honed	-9871
▁hreat	-9872
▁khail	-9873
▁ledge	-9874
▁leton	-9875
▁llows	-9876
▁mayor	-9877
▁nesty	-9878
▁omina	-9879
▁ounge	-9880
▁rinse	-9881
▁ronny	-9882
▁tresp	-9883
▁ucous	-9884
▁ukone	-9885
▁yriad	-9886
IE	-9887
KS	-9888
MP	-9889
oz	-9890
▁լ	-9891
APD	-9892
OUR	-9893
bbl	-9894
kel	-9895
lam	-9896
sie	-9897
utz	-9898
vet	-9899
▁AZ	-9900
▁BE	-9901
▁LC	-9902
▁MJ	-9903
▁OV	-9904
▁Ou	-9905
▁PE	-9906
▁dw	-9907
▁uo	-9908
▁uv	-9909
▁նա	-9910
▁ող	-9911
▁քա	-9912
lico	-9913
nest	-9914
▁$60	-9915
▁64,	-9916
▁ARY	-9917
▁Ana	-9918
▁CBN	-9919
▁Dum	-9920
▁EEK	-9921
▁Fat	-9922
▁GPT	-9923
▁IAN	-9924
▁Jun	-9925
▁Lal	-9926
▁Liu	-9927
▁Lou	-9928
▁MBE	-9929
▁Mia	-9930
▁Pop	-9931
▁REU	-9932
▁Sou	-9933
▁TMZ	-9934
▁adb	-9935
▁das	-9936
▁dos	-9937
▁dur	-9938
▁ifa	-9939
▁irk	-9940
▁jax	-9941
▁lom	-9942
▁mei	-9943
▁ntz	-9944
▁nun	-9945
▁ptu	-9946
▁rta	-9947
▁suf	-9948
▁tna	-9949
▁veg	-9950
▁xes	-9951
▁yar	-9952
▁£40	-9953
▁վոր	-9954
▁Gene	-9955
▁Mort	-9956
▁Moza	-9957
▁Theo	-9958
▁Wash	-9959
▁Yoav	-9960
▁acie	-9961
▁afoe	-9962
▁amba	-9963
▁anju	-9964
▁arim	-9965
▁ayfa	-9966
▁dean	-9967
▁desa	-9968
▁eact	-9969
▁eagu	-9970
▁eanu	-9971
▁eaty	-9972
▁erne	-9973
▁estl	-9974
▁etai	-9975
▁hael	-9976
▁hani	-9977
▁hoax	-9978
▁horo	-9979
▁isha	-9980
▁itta	-9981
▁lani	-9982
▁ldon	-9983
▁leni	-9984
▁lkar	-9985
▁llia	-9986
▁lsen	-9987
▁mata	-9988
▁nova	-9989
▁nush	-9990
▁octo	-9991
▁onna	-9992
▁oole	-9993
▁oone	-9994
▁opul	-9995
▁owle	-9996
▁prud	-9997
▁rend	-9998
▁ridg	-9999
▁rten	-10000
▁rthy	-10001
▁rtín	-10002
▁rugg	-10003
▁shov	-10004
▁sner	-10005
▁ssis	-10006
▁tani	-10007
▁thyr	-10008
▁tify	-10009
▁vana	-10010
▁vory	-10011
▁waiv	-10012
▁wari	-10013
▁wink	-10014
▁wkin	-10015
▁yogu	-10016
▁érez	-10017
▁ackin	-10018
▁aliba	-10019
▁arten	-10020
▁drape	-10021
▁eared	-10022
▁elleh	-10023
▁erena	-10024
▁eresa	-10025
▁gluco	-10026
▁hines	-10027
▁ilico	-10028
▁lecti	-10029
▁loath	-10030
▁lutio	-10031
▁mirez	-10032
▁mnest	-10033
▁nkara	-10034
▁nowle	-10035
▁ooley	-10036
▁ritis	-10037
▁rking	-10038
▁socia	-10039
▁stein	-10040
▁stoun	-10041
▁trate	-10042
▁wartz	-10043
▁whack	-10044
10	-10045
25	-10046
DR	-10047
KE	-10048
RP	-10049
▁օ	-10050
ARS	-10051
hao	-10052
idi	-10053
ido	-10054
jar	-10055
kee	-10056
ola	-10057
zan	-10058
zig	-10059
▁Io	-10060
▁JU	-10061
▁KS	-10062
▁LL	-10063
▁Mā	-10064
▁XC	-10065
▁YS	-10066
▁db	-10067
▁hb	-10068
▁sé	-10069
▁vu	-10070
▁ԱՐ	-10071
nton	-10072
▁115	-10073
▁12%	-10074
▁160	-10075
▁270	-10076
▁37%	-10077
▁56,	-10078
▁6-4	-10079
▁7-6	-10080
▁AMD	-10081
▁APC	-10082
▁ATP	-10083
▁Aam	-10084
▁Ace	-10085
▁Dha	-10086
▁Eli	-10087
▁Era	-10088
▁Fel	-10089
▁Gal	-10090
▁IMD	-10091
▁Meg	-10092
▁Mix	-10093
▁NTS	-10094
▁ONE	-10095
▁OTT	-10096
▁RES	-10097
▁Row	-10098
▁STV	-10099
▁TMC	-10100
▁TVs	-10101
▁UPF	-10102
▁WSU	-10103
▁afé	-10104
▁aui	-10105
▁ezz	-10106
▁eña	-10107
▁foe	-10108
▁hod	-10109
▁hoi	-10110
▁lol	-10111
▁lug	-10112
▁nka	-10113
▁nox	-10114
▁pup	-10115
▁rky	-10116
▁rza	-10117
▁svi	-10118
▁wra	-10119
▁yli	-10120
▁առա	-10121
▁յան	-10122
▁Ange	-10123
▁ISRO	-10124
▁Ipso	-10125
▁Kend	-10126
▁LAPD	-10127
▁MEPs	-10128
▁Mace	-10129
▁RMEN	-10130
▁Uefa	-10131
▁aime	-10132
▁aira	-10133
▁anza	-10134
▁arco	-10135
▁arko	-10136
▁avag	-10137
▁ayes	-10138
▁azza	-10139
▁bull	-10140
▁cris	-10141
▁czar	-10142
▁dell	-10143
▁duke	-10144
▁ecto	-10145
▁elby	-10146
▁enza	-10147
▁erst	-10148
▁grit	-10149
▁hadi	-10150
▁ilin	-10151
▁iste	-10152
▁itin	-10153
▁lara	-10154
▁lgar	-10155
▁liss	-10156
▁lizz	-10157
▁mish	-10158
▁misl	-10159
▁mmun	-10160
▁nday	-10161
▁nsta	-10162
▁olle	-10163
▁ompe	-10164
▁ondo	-10165
▁orde	-10166
▁orin	-10167
▁otox	-10168
▁rful	-10169
▁rina	-10170
▁ropp	-10171
▁secr	-10172
▁slug	-10173
▁tang	-10174
▁tark	-10175
▁tero	-10176
▁tlej	-10177
▁unus	-10178
▁usto	-10179
▁vena	-10180
▁wali	-10181
▁wank	-10182
▁xios	-10183
▁afari	-10184
▁ainta	-10185
▁anine	-10186
▁arwin	-10187
▁clama	-10188
▁daddy	-10189
▁drank	-10190
▁eally	-10191
▁egion	-10192
▁elena	-10193
▁enney	-10194
▁erner	-10195
▁eshki	-10196
▁fanik	-10197
▁gatha	-10198
▁greas	-10199
▁guyen	-10200
▁ignor	-10201
▁krono	-10202
▁logna	-10203
▁meric	-10204
▁olidi	-10205
▁rnton	-10206
▁rshal	-10207
▁seudo	-10208
▁spies	-10209
▁stral	-10210
▁tefan	-10211
▁urley	-10212
▁wynet	-10213
▁yeast	-10214
▁ynthi	-10215
▁yrone	-10216
Gs	-10217
OM	-10218
SE	-10219
Us	-10220
up	-10221
▁	-10222
▁★	-10223
ING	-10224
bek	-10225
edo	-10226
iny	-10227
jah	-10228
jit	-10229
lez	-10230
min	-10231
uta	-10232
yip	-10233
zee	-10234
▁Dj	-10235
▁HA	-10236
▁JP	-10237
▁Ly	-10238
▁MK	-10239
▁PO	-10240
▁RP	-10241
▁UI	-10242
▁nr	-10243
▁oC	-10244
▁sè	-10245
▁ակ	-10246
▁ել	-10247
▁1.7	-10248
▁1.8	-10249
▁17%	-10250
▁190	-10251
▁2.0	-10252
▁360	-10253
▁6-0	-10254
▁6-2	-10255
▁60.	-10256
▁69,	-10257
▁74,	-10258
▁95%	-10259
▁BAC	-10260
▁BMI	-10261
▁CBD	-10262
▁CLA	-10263
▁CPR	-10264
▁Cul	-10265
▁DRC	-10266
▁ECB	-10267
▁FIA	-10268
▁GRA	-10269
▁HAR	-10270
▁IBF	-10271
▁IIT	-10272
▁LBC	-10273
▁LNG	-10274
▁Lad	-10275
▁NWS	-10276
▁OPS	-10277
▁RSP	-10278
▁Rae	-10279
▁SAS	-10280
▁SoC	-10281
▁TUI	-10282
▁Tap	-10283
▁Tek	-10284
▁Ter	-10285
▁aar	-10286
▁amu	-10287
▁dea	-10288
▁eny	-10289
▁eog	-10290
▁iat	-10291
▁idn	-10292
▁ijk	-10293
▁iya	-10294
▁lha	-10295
▁mra	-10296
▁nfe	-10297
▁oac	-10298
▁oha	-10299
▁opo	-10300
▁qsa	-10301
▁rcy	-10302
▁rls	-10303
▁smi	-10304
▁yat	-10305
▁yro	-10306
▁գոր	-10307
▁մաս	-10308
▁Bala	-10309
▁Cham	-10310
▁Cleo	-10311
▁NWSL	-10312
▁SAVE	-10313
▁Tama	-10314
▁Temu	-10315
▁Tyre	-10316
▁Yoga	-10317
▁agea	-10318
▁anmo	-10319
▁arel	-10320
▁arta	-10321
▁artm	-10322
▁cann	-10323
▁dude	-10324
▁earc	-10325
▁eech	-10326
▁ehta	-10327
▁esco	-10328
▁etri	-10329
▁fera	-10330
▁glue	-10331
▁hafi	-10332
▁hamp	-10333
▁holi	-10334
▁hord	-10335
▁incl	-10336
▁jolt	-10337
▁lict	-10338
▁lita	-10339
▁llic	-10340
▁mana	-10341
▁mary	-10342
▁moun	-10343
▁musc	-10344
▁nara	-10345
▁ndre	-10346
▁ndro	-10347
▁nize	-10348
▁ntis	-10349
▁oals	-10350
▁ondu	-10351
▁onfi	-10352
▁orno	-10353
▁otta	-10354
▁pham	-10355
▁prah	-10356
▁pzig	-10357
▁reap	-10358
▁romo	-10359
▁rshi	-10360
▁ryna	-10361
▁snia	-10362
▁trus	-10363
▁urdy	-10364
▁usea	-10365
▁ynes	-10366
▁TACMS	-10367
▁ayyip	-10368
▁drier	-10369
▁edkar	-10370
▁ehler	-10371
▁eisma	-10372
▁ffers	-10373
▁fooli	-10374
▁graft	-10375
▁heerl	-10376
▁hovel	-10377
▁idyll	-10378
▁illia	-10379
▁linke	-10380
▁merge	-10381
▁nator	-10382
▁ncrea	-10383
▁oints	-10384
▁orona	-10385
▁rragh	-10386
▁shton	-10387
▁ssier	-10388
▁tenti	-10389
▁thora	-10390
▁tonne	-10391
▁valve	-10392
▁venom	-10393
▁woven	-10394
MM	-10395
NY	-10396
TF	-10397
WO	-10398
cm	-10399
գա	-10400
ող	-10401
ով	-10402
▁ժ	-10403
▁️	-10404
ICE	-10405
LLY	-10406
car	-10407
icu	-10408
met	-10409
obo	-10410
sel	-10411
▁NP	-10412
▁QR	-10413
▁RI	-10414
▁RU	-10415
▁TE	-10416
▁UT	-10417
▁VC	-10418
▁Wu	-10419
▁dk	-10420
▁dz	-10421
▁yj	-10422
▁ér	-10423
▁իր	-10424
▁$12	-10425
▁1/2	-10426
▁1/3	-10427
▁2.6	-10428
▁230	-10429
▁3.3	-10430
▁35%	-10431
▁5.5	-10432
▁85%	-10433
▁BRI	-10434
▁CDO	-10435
▁CDs	-10436
▁DVD	-10437
▁Das	-10438
▁Dee	-10439
▁Hut	-10440
▁IPC	-10441
▁Lan	-10442
▁Ono	-10443
▁Pam	-10444
▁Pew	-10445
▁Rey	-10446
▁SEN	-10447
▁Una	-10448
▁aat	-10449
▁asn	-10450
▁auc	-10451
▁bba	-10452
▁cki	-10453
▁dah	-10454
▁daí	-10455
▁efi	-10456
▁etz	-10457
▁goa	-10458
▁hes	-10459
▁huk	-10460
▁igo	-10461
▁lyz	-10462
▁nee	-10463
▁niq	-10464
▁nji	-10465
▁njo	-10466
▁nva	-10467
▁oak	-10468
▁obl	-10469
▁rho	-10470
▁sap	-10471
▁sht	-10472
▁tsw	-10473
▁udo	-10474
▁uja	-10475
▁zhn	-10476
▁zip	-10477
▁պատ	-10478
▁ված	-10479
▁ARIS	-10480
▁HSBC	-10481
▁IRGC	-10482
▁NOAA	-10483
▁Nest	-10484
▁VIII	-10485
▁Went	-10486
▁addo	-10487
▁agra	-10488
▁aida	-10489
▁aigh	-10490
▁airy	-10491
▁amas	-10492
▁ambi	-10493
▁aois	-10494
▁aría	-10495
▁batt	-10496
▁beam	-10497
▁bird	-10498
▁boat	-10499
▁bred	-10500
▁cene	-10501
▁chat	-10502
▁decl	-10503
▁demi	-10504
▁dong	-10505
▁elop	-10506
▁eltz	-10507
▁emov	-10508
▁enie	-10509
▁erga	-10510
▁gina	-10511
▁grue	-10512
▁hake	-10513
▁hrub	-10514
▁hune	-10515
▁iero	-10516
▁iler	-10517
▁itte	-10518
▁ived	-10519
▁lang	-10520
▁lesh	-10521
▁lian	-10522
▁lkan	-10523
▁mila	-10524
▁moot	-10525
▁nelm	-10526
▁nerg	-10527
▁ngra	-10528
▁nila	-10529
▁nnet	-10530
▁odor	-10531
▁olff	-10532
▁omes	-10533
▁onsu	-10534
▁ppro	-10535
▁rche	-10536
▁riah	-10537
▁rriv	-10538
▁saki	-10539
▁sele	-10540
▁sigh	-10541
▁slav	-10542
▁teme	-10543
▁thom	-10544
▁tile	-10545
▁tink	-10546
▁uble	-10547
▁urga	-10548
▁urre	-10549
▁ursi	-10550
▁usal	-10551
▁ushi	-10552
▁utte	-10553
▁warp	-10554
▁wner	-10555
▁wolv	-10556
▁Yatra	-10557
▁agari	-10558
▁akeem	-10559
▁ariah	-10560
▁asman	-10561
▁assau	-10562
▁chana	-10563
▁cribe	-10564
▁ebble	-10565
▁elley	-10566
▁entin	-10567
▁epeat	-10568
▁glide	-10569
▁gnifi	-10570
▁haven	-10571
▁hrunk	-10572
▁hunky	-10573
▁ileen	-10574
▁lumsy	-10575
▁metry	-10576
▁morph	-10577
▁nanci	-10578
▁orden	-10579
▁renas	-10580
▁rgenc	-10581
▁rkney	-10582
▁rnest	-10583
▁shdie	-10584
▁shima	-10585
▁shnik	-10586
▁slack	-10587
▁spate	-10588
▁ssues	-10589
▁tarni	-10590
▁toxin	-10591
▁uhana	-10592
▁ulter	-10593
▁wment	-10594
LT	-10595
oc	-10596
sm	-10597
yd	-10598
yl	-10599
ét	-10600
▁ğ	-10601
▁Ի	-10602
ERE	-10603
MER	-10604
amo	-10605
ory	-10606
pie	-10607
pri	-10608
▁(9	-10609
▁2)	-10610
▁4"	-10611
▁BG	-10612
▁DB	-10613
▁FX	-10614
▁IK	-10615
▁IX	-10616
▁KN	-10617
▁NJ	-10618
▁Ne	-10619
▁QU	-10620
▁ii	-10621
▁kb	-10622
▁kw	-10623
▁vr	-10624
▁yf	-10625
▁yz	-10626
▁նց	-10627
▁′′	-10628
▁$25	-10629
▁1.1	-10630
▁16%	-10631
▁2.1	-10632
▁35.	-10633
▁4-3	-10634
▁450	-10635
▁5-1	-10636
▁50.	-10637
▁AST	-10638
▁AYS	-10639
▁CFO	-10640
▁Cen	-10641
▁FCA	-10642
▁HMS	-10643
▁Han	-10644
▁LOS	-10645
▁Min	-10646
▁NYU	-10647
▁OBE	-10648
▁ORT	-10649
▁Que	-10650
▁REX	-10651
▁RIP	-10652
▁Run	-10653
▁SAN	-10654
▁SME	-10655
▁TER	-10656
▁Tam	-10657
▁Zac	-10658
▁aft	-10659
▁axe	-10660
▁dum	-10661
▁gbo	-10662
▁ggy	-10663
▁gyn	-10664
▁ilt	-10665
▁kWh	-10666
▁lox	-10667
▁mop	-10668
▁mpo	-10669
▁nil	-10670
▁nky	-10671
▁ntu	-10672
▁rdy	-10673
▁rwa	-10674
▁sip	-10675
▁sot	-10676
▁tsi	-10677
▁uga	-10678
▁usp	-10679
▁wig	-10680
▁yba	-10681
▁zee	-10682
▁£15	-10683
▁íaz	-10684
▁նել	-10685
▁Inco	-10686
▁LOND	-10687
▁Rich	-10688
▁Tees	-10689
▁Trek	-10690
▁Zhao	-10691
▁achi	-10692
▁aden	-10693
▁affo	-10694
▁afta	-10695
▁agan	-10696
▁agel	-10697
▁aina	-10698
▁alma	-10699
▁anat	-10700
▁arac	-10701
▁ardo	-10702
▁armi	-10703
▁atha	-10704
▁athi	-10705
▁atvi	-10706
▁ausa	-10707
▁awaz	-10708
▁azan	-10709
▁bana	-10710
▁chiz	-10711
▁dram	-10712
▁dunk	-10713
▁ecov	-10714
▁eefe	-10715
▁eger	-10716
▁enri	-10717
▁está	-10718
▁evro	-10719
▁evue	-10720
▁ewey	-10721
▁fare	-10722
▁gast	-10723
▁gieg	-10724
▁giga	-10725
▁hela	-10726
▁hish	-10727
▁hoea	-10728
▁hosh	-10729
▁hows	-10730
▁idhu	-10731
▁ilda	-10732
▁iren	-10733
▁irst	-10734
▁kina	-10735
▁laga	-10736
▁lful	-10737
▁lgae	-10738
▁ligo	-10739
▁limo	-10740
▁lman	-10741
▁loch	-10742
▁lyan	-10743
▁mane	-10744
▁moro	-10745
▁mura	-10746
▁ndri	-10747
▁nsic	-10748
▁okro	-10749
▁olfe	-10750
▁orig	-10751
▁osti	-10752
▁otro	-10753
▁otus	-10754
▁phon	-10755
▁raun	-10756
▁reas	-10757
▁sama	-10758
▁sani	-10759
▁sapp	-10760
▁shev	-10761
▁sync	-10762
▁tote	-10763
▁ubin	-10764
▁udes	-10765
▁uire	-10766
▁ulsa	-10767
▁vein	-10768
▁visi	-10769
▁wale	-10770
▁womb	-10771
▁xact	-10772
▁ylon	-10773
▁zbek	-10774
▁Coste	-10775
▁Hydro	-10776
▁WATCH	-10777
▁Wyatt	-10778
▁acoma	-10779
▁acula	-10780
▁agala	-10781
▁aheem	-10782
▁albot	-10783
▁ankee	-10784
▁annik	-10785
▁arrod	-10786
▁astri	-10787
▁bbutz	-10788
▁clero	-10789
▁eapon	-10790
▁eggie	-10791
▁ellen	-10792
▁eogha	-10793
▁ergic	-10794
▁eroni	-10795
▁gesta	-10796
▁haraj	-10797
▁hatia	-10798
▁heila	-10799
▁leric	-10800
▁leuth	-10801
▁lvani	-10802
▁nsure	-10803
▁obese	-10804
▁rgyll	-10805
▁rship	-10806
▁rsley	-10807
▁rting	-10808
▁ryson	-10809
▁sland	-10810
▁spicu	-10811
▁ssidy	-10812
▁thany	-10813
▁tishi	-10814
▁verbe	-10815
▁wobbl	-10816
MI	-10817
Vs	-10818
hr	-10819
zy	-10820
▁è	-10821
▁♦	-10822
REE	-10823
aly	-10824
don	-10825
esa	-10826
iah	-10827
irt	-10828
lov	-10829
usa	-10830
▁BU	-10831
▁CQ	-10832
▁EX	-10833
▁NN	-10834
▁NZ	-10835
▁Og	-10836
▁PD	-10837
▁SF	-10838
▁SL	-10839
▁df	-10840
▁lh	-10841
▁nw	-10842
▁ña	-10843
▁Ար	-10844
▁19%	-10845
▁2-3	-10846
▁2.8	-10847
▁22%	-10848
▁260	-10849
▁45%	-10850
▁6-1	-10851
▁65,	-10852
▁78,	-10853
▁81,	-10854
▁ACL	-10855
▁Bus	-10856
▁CAS	-10857
▁CFP	-10858
▁DEA	-10859
▁DMK	-10860
▁Dot	-10861
▁EFL	-10862
▁Eat	-10863
▁Fry	-10864
▁Huw	-10865
▁IMA	-10866
▁LGA	-10867
▁Lap	-10868
▁NOW	-10869
▁NSC	-10870
▁OBR	-10871
▁PDC	-10872
▁RBC	-10873
▁RSS	-10874
▁Suk	-10875
▁XCX	-10876
▁agh	-10877
▁bah	-10878
▁cly	-10879
▁dju	-10880
▁eym	-10881
▁ghd	-10882
▁ims	-10883
▁iru	-10884
▁kip	-10885
▁kka	-10886
▁kro	-10887
▁lld	-10888
▁lne	-10889
▁ltz	-10890
▁nid	-10891
▁nin	-10892
▁nip	-10893
▁roj	-10894
▁sew	-10895
▁vie	-10896
▁wiz	-10897
▁xar	-10898
▁yak	-10899
▁yla	-10900
▁zzy	-10901
▁áil	-10902
▁ños	-10903
▁պես	-10904
▁Fran	-10905
▁Hama	-10906
▁Hoov	-10907
▁ICEF	-10908
▁MacL	-10909
▁SPFL	-10910
▁SUVs	-10911
▁Tide	-10912
▁Yash	-10913
▁acin	-10914
▁adda	-10915
▁ahra	-10916
▁akar	-10917
▁akir	-10918
▁alam	-10919
▁alem	-10920
▁alvo	-10921
▁arez	-10922
▁auer	-10923
▁ayan	-10924
▁azur	-10925
▁bask	-10926
▁belt	-10927
▁ceit	-10928
▁cern	-10929
▁chip	-10930
▁crab	-10931
▁dhar	-10932
▁dolu	-10933
▁dome	-10934
▁eaks	-10935
▁eera	-10936
▁egra	-10937
▁egro	-10938
▁eins	-10939
▁enzo	-10940
▁erzo	-10941
▁fers	-10942
▁goug	-10943
▁hack	-10944
▁hred	-10945
▁humm	-10946
▁idle	-10947
▁inai	-10948
▁inna	-10949
▁inod	-10950
▁itro	-10951
▁kami	-10952
▁leop	-10953
▁lest	-10954
▁lino	-10955
▁lley	-10956
▁loke	-10957
▁lora	-10958
▁mant	-10959
▁maul	-10960
▁mete	-10961
▁moan	-10962
▁mpet	-10963
▁nata	-10964
▁ncti	-10965
▁ngue	-10966
▁nuis	-10967
▁owry	-10968
▁oyne	-10969
▁rael	-10970
▁ratt	-10971
▁rees	-10972
▁reme	-10973
▁rimm	-10974
▁ssar	-10975
▁ssor	-10976
▁stun	-10977
▁tatu	-10978
▁titl	-10979
▁velo	-10980
▁xxon	-10981
▁ynic	-10982
▁zest	-10983
▁AIIMS	-10984
▁Champ	-10985
▁Polic	-10986
▁acili	-10987
▁adeem	-10988
▁adine	-10989
▁allon	-10990
▁ancée	-10991
▁aneer	-10992
▁avana	-10993
▁deshi	-10994
▁dribb	-10995
▁egeta	-10996
▁emove	-10997
▁ernon	-10998
▁gears	-10999
▁hores	-11000
▁iscus	-11001
▁licia	-11002
▁linda	-11003
▁motel	-11004
▁njure	-11005
▁noisy	-11006
▁nslet	-11007
▁opete	-11008
▁plica	-11009
▁risto	-11010
▁ritzk	-11011
▁scout	-11012
▁shyap	-11013
▁slain	-11014
▁stave	-11015
▁vious	-11016
23	-11017
DE	-11018
EE	-11019
FT	-11020
IT	-11021
RN	-11022
YI	-11023
hh	-11024
jj	-11025
yr	-11026
és	-11027
եց	-11028
▁`	-11029
▁չ	-11030
▁❤	-11031
BER	-11032
fie	-11033
gil	-11034
gma	-11035
hee	-11036
yan	-11037
րես	-11038
▁1:	-11039
▁AW	-11040
▁GE	-11041
▁GQ	-11042
▁GS	-11043
▁NB	-11044
▁SG	-11045
▁Sy	-11046
▁WB	-11047
▁WO	-11048
▁Xu	-11049
▁eS	-11050
▁hs	-11051
▁iQ	-11052
▁sr	-11053
▁xc	-11054
▁xy	-11055
▁}"	-11056
▁},	-11057
▁ալ	-11058
▁նի	-11059
▁ով	-11060
▁պա	-11061
▁€1	-11062
ashi	-11063
▁$18	-11064
▁$40	-11065
▁105	-11066
▁106	-11067
▁109	-11068
▁127	-11069
▁18%	-11070
▁2.2	-11071
▁2.7	-11072
▁21%	-11073
▁42%	-11074
▁5-2	-11075
▁ACT	-11076
▁ANT	-11077
▁CAR	-11078
▁Det	-11079
▁Die	-11080
▁Dom	-11081
▁EMA	-11082
▁HAM	-11083
▁HMP	-11084
▁IBA	-11085
▁Kul	-11086
▁MCG	-11087
▁MOT	-11088
▁MRI	-11089
▁McP	-11090
▁McR	-11091
▁NAT	-11092
▁Ole	-11093
▁PEN	-11094
▁RAC	-11095
▁RSV	-11096
▁Sao	-11097
▁TWO	-11098
▁VAN	-11099
▁Von	-11100
▁aif	-11101
▁anz	-11102
▁bec	-11103
▁dus	-11104
▁eka	-11105
▁etu	-11106
▁gwe	-11107
▁hik	-11108
▁hly	-11109
▁ilf	-11110
▁iva	-11111
▁iño	-11112
▁jan	-11113
▁kah	-11114
▁lax	-11115
▁lba	-11116
▁mez	-11117
▁oir	-11118
▁oko	-11119
▁ppg	-11120
▁pud	-11121
▁rtz	-11122
▁tug	-11123
▁umy	-11124
▁uud	-11125
▁ych	-11126
▁ydd	-11127
▁zam	-11128
▁հար	-11129
▁վար	-11130
▁Dyke	-11131
▁Gore	-11132
▁Kala	-11133
▁LAFC	-11134
▁Leaf	-11135
▁Lola	-11136
▁MacI	-11137
▁Maga	-11138
▁Mogg	-11139
▁Voda	-11140
▁adna	-11141
▁adri	-11142
▁agal	-11143
▁ahmo	-11144
▁andu	-11145
▁asar	-11146
▁atti	-11147
▁cchi	-11148
▁cino	-11149
▁clam	-11150
▁coat	-11151
▁cube	-11152
▁dora	-11153
▁duch	-11154
▁eful	-11155
▁ergi	-11156
▁erod	-11157
▁erte	-11158
▁eser	-11159
▁etta	-11160
▁eura	-11161
▁foes	-11162
▁fold	-11163
▁fone	-11164
▁font	-11165
▁gyda	-11166
▁harl	-11167
▁hatt	-11168
▁heen	-11169
▁hoai	-11170
▁hove	-11171
▁ianz	-11172
▁ibbo	-11173
▁iber	-11174
▁ierc	-11175
▁impa	-11176
▁irch	-11177
▁ircu	-11178
▁ixar	-11179
▁jett	-11180
▁leas	-11181
▁logg	-11182
▁maha	-11183
▁mian	-11184
▁nalo	-11185
▁nano	-11186
▁neti	-11187
▁ngie	-11188
▁niac	-11189
▁obre	-11190
▁obyn	-11191
▁ogus	-11192
▁onka	-11193
▁ooke	-11194
▁ores	-11195
▁orst	-11196
▁phra	-11197
▁plex	-11198
▁ranç	-11199
▁raya	-11200
▁redu	-11201
▁reez	-11202
▁rigg	-11203
▁sley	-11204
▁somn	-11205
▁ssib	-11206
▁stav	-11207
▁tarm	-11208
▁teak	-11209
▁tint	-11210
▁twer	-11211
▁ucha	-11212
▁ulsi	-11213
▁wicz	-11214
▁yama	-11215
▁yche	-11216
▁actic	-11217
▁alach	-11218
▁arsha	-11219
▁ayton	-11220
▁chlan	-11221
▁clout	-11222
▁diffu	-11223
▁duvet	-11224
▁erino	-11225
▁erzog	-11226
▁esame	-11227
▁fepri	-11228
▁ficia	-11229
▁flirt	-11230
▁gloom	-11231
▁hakti	-11232
▁happe	-11233
▁heesy	-11234
▁hello	-11235
▁ingto	-11236
▁irgil	-11237
▁ishal	-11238
▁isted	-11239
▁knath	-11240
▁nveer	-11241
▁ornet	-11242
▁stado	-11243
▁taura	-11244
▁tifie	-11245
▁trath	-11246
▁uhara	-11247
▁uvena	-11248
▁vigno	-11249
▁ygone	-11250
-8	-11251
-9	-11252
6,	-11253
60	-11254
FK	-11255
HC	-11256
JD	-11257
PT	-11258
RF	-11259
TT	-11260
ib	-11261
qa	-11262
ալ	-11263
եկ	-11264
իր	-11265
ստ	-11266
▁🥇	-11267
alu	-11268
eda	-11269
ede	-11270
ico	-11271
isa	-11272
kan	-11273
kin	-11274
mal	-11275
oka	-11276
ryk	-11277
մար	-11278
վել	-11279
▁#3	-11280
▁1)	-11281
▁3:	-11282
▁BH	-11283
▁BL	-11284
▁DS	-11285
▁EI	-11286
▁Id	-11287
▁JN	-11288
▁JO	-11289
▁LT	-11290
▁OJ	-11291
▁PJ	-11292
▁PW	-11293
▁TG	-11294
▁TK	-11295
▁VA	-11296
▁Vu	-11297
▁WP	-11298
▁dh	-11299
▁fé	-11300
▁nm	-11301
▁vp	-11302
▁ár	-11303
▁դա	-11304
▁դր	-11305
▁հի	-11306
▁$17	-11307
▁1-2	-11308
▁1.6	-11309
▁225	-11310
▁27%	-11311
▁3.2	-11312
▁3.4	-11313
▁36%	-11314
▁40.	-11315
▁ANN	-11316
▁Dal	-11317
▁Gin	-11318
▁Gru	-11319
▁HDR	-11320
▁HRW	-11321
▁Him	-11322
▁ICT	-11323
▁ILL	-11324
▁INC	-11325
▁IPP	-11326
▁ISA	-11327
▁MEP	-11328
▁Map	-11329
▁NRA	-11330
▁OBC	-11331
▁ODA	-11332
▁PSR	-11333
▁Pot	-11334
▁SNL	-11335
▁SON	-11336
▁SRH	-11337
▁Sai	-11338
▁TDs	-11339
▁VPN	-11340
▁Wyn	-11341
▁arx	-11342
▁bov	-11343
▁ché	-11344
▁dim	-11345
▁eus	-11346
▁hry	-11347
▁kim	-11348
▁lko	-11349
▁lky	-11350
▁nhw	-11351
▁nik	-11352
▁nke	-11353
▁oho	-11354
▁olm	-11355
▁orr	-11356
▁osk	-11357
▁rds	-11358
▁rle	-11359
▁rol	-11360
▁tyl	-11361
▁tég	-11362
▁uku	-11363
▁xit	-11364
▁zad	-11365
▁zov	-11366
▁կեր	-11367
▁հայ	-11368
▁ARTI	-11369
▁IGHT	-11370
▁KCNA	-11371
▁LEAD	-11372
▁Lott	-11373
▁Usha	-11374
▁adma	-11375
▁ahel	-11376
▁ails	-11377
▁akim	-11378
▁aman	-11379
▁aney	-11380
▁ango	-11381
▁apua	-11382
▁ardu	-11383
▁ariu	-11384
▁artz	-11385
▁ayle	-11386
▁azir	-11387
▁bada	-11388
▁bode	-11389
▁brat	-11390
▁dips	-11391
▁eato	-11392
▁enji	-11393
▁enue	-11394
▁epsi	-11395
▁eras	-11396
▁ergo	-11397
▁eron	-11398
▁esis	-11399
▁esso	-11400
▁eved	-11401
▁exec	-11402
▁flag	-11403
▁gail	-11404
▁gali	-11405
▁graz	-11406
▁harf	-11407
▁hifa	-11408
▁hrow	-11409
▁iala	-11410
▁idal	-11411
▁inki	-11412
▁inus	-11413
▁kaze	-11414
▁lage	-11415
▁laxy	-11416
▁lemn	-11417
▁lobb	-11418
▁loma	-11419
▁lphi	-11420
▁lunk	-11421
▁luti	-11422
▁mama	-11423
▁mola	-11424
▁mpor	-11425
▁neon	-11426
▁nerd	-11427
▁nime	-11428
▁noia	-11429
▁ocie	-11430
▁oved	-11431
▁pike	-11432
▁rasp	-11433
▁rbit	-11434
▁rnet	-11435
▁rooy	-11436
▁rora	-11437
▁rote	-11438
▁rtey	-11439
▁saic	-11440
▁sovo	-11441
▁spin	-11442
▁ssie	-11443
▁tach	-11444
▁tame	-11445
▁teet	-11446
▁teyn	-11447
▁tida	-11448
▁tner	-11449
▁todo	-11450
▁tony	-11451
▁udha	-11452
▁urel	-11453
▁urma	-11454
▁urni	-11455
▁vegg	-11456
▁voic	-11457
▁yarn	-11458
▁zhny	-11459
▁ález	-11460
▁Brita	-11461
▁Hydra	-11462
▁Train	-11463
▁allen	-11464
▁andel	-11465
▁andir	-11466
▁arhol	-11467
▁arica	-11468
▁arney	-11469
▁arvis	-11470
▁aylen	-11471
▁bakar	-11472
▁dysse	-11473
▁eddar	-11474
▁eeney	-11475
▁egler	-11476
▁ellet	-11477
▁erica	-11478
▁ermon	-11479
▁eslie	-11480
▁ewell	-11481
▁gacar	-11482
▁glass	-11483
▁graci	-11484
▁halil	-11485
▁hanna	-11486
▁heist	-11487
▁helby	-11488
▁hesio	-11489
▁horse	-11490
▁hypno	-11491
▁insey	-11492
▁intel	-11493
▁istel	-11494
▁izzie	-11495
▁leine	-11496
▁mbiid	-11497
▁menac	-11498
▁methi	-11499
▁morti	-11500
▁nanza	-11501
▁negro	-11502
▁niciu	-11503
▁nship	-11504
▁oreti	-11505
▁orsey	-11506
▁prepa	-11507
▁racey	-11508
▁rteen	-11509
▁schwi	-11510
▁talia	-11511
▁thani	-11512
▁udrey	-11513
▁udryk	-11514
▁urice	-11515
▁vanov	-11516
,"	-11517
/1	-11518
50	-11519
Qs	-11520
RY	-11521
TB	-11522
XT	-11523
az	-11524
qi	-11525
	-11526
ör	-11527
ür	-11528
▁Ö	-11529
ACP	-11530
OCK	-11531
ahu	-11532
baz	-11533
kei	-11534
lak	-11535
oko	-11536
ssa	-11537
umi	-11538
▁!!	-11539
▁4)	-11540
▁6:	-11541
▁Ea	-11542
▁GH	-11543
▁IE	-11544
▁IU	-11545
▁Mt	-11546
▁NU	-11547
▁OG	-11548
▁PV	-11549
▁TA	-11550
▁Ud	-11551
▁XV	-11552
▁gd	-11553
▁hw	-11554
▁շխ	-11555
aldo	-11556
veno	-11557
▁$11	-11558
▁$5,	-11559
▁103	-11560
▁107	-11561
▁165	-11562
▁175	-11563
▁220	-11564
▁28%	-11565
▁32%	-11566
▁51%	-11567
▁6.5	-11568
▁63,	-11569
▁66,	-11570
▁80,	-11571
▁ACA	-11572
▁AKA	-11573
▁ASA	-11574
▁ASI	-11575
▁BHP	-11576
▁BMA	-11577
▁CAP	-11578
▁CBP	-11579
▁Cra	-11580
▁DMA	-11581
▁Doe	-11582
▁Dru	-11583
▁ECO	-11584
▁EID	-11585
▁ENT	-11586
▁ESG	-11587
▁ESS	-11588
▁Eid	-11589
▁IDA	-11590
▁INE	-11591
▁Iga	-11592
▁Isn	-11593
▁Kho	-11594
▁Klo	-11595
▁Kna	-11596
▁Len	-11597
▁Lil	-11598
▁MEA	-11599
▁MND	-11600
▁Mas	-11601
▁NET	-11602
▁NIL	-11603
▁NLC	-11604
▁OUT	-11605
▁Rai	-11606
▁TOW	-11607
▁UNC	-11608
▁WBC	-11609
▁Woo	-11610
▁abr	-11611
▁aip	-11612
▁ako	-11613
▁bho	-11614
▁ddo	-11615
▁doo	-11616
▁día	-11617
▁eim	-11618
▁enf	-11619
▁eón	-11620
▁gyz	-11621
▁iot	-11622
▁kri	-11623
▁lak	-11624
▁lbs	-11625
▁lyt	-11626
▁ogo	-11627
▁orb	-11628
▁psi	-11629
▁pso	-11630
▁rca	-11631
▁uko	-11632
▁vpx	-11633
▁xam	-11634
▁yam	-11635
▁yng	-11636
▁£25	-11637
▁£60	-11638
▁Հայ	-11639
▁մար	-11640
▁նակ	-11641
▁պար	-11642
▁տեղ	-11643
▁Gone	-11644
▁Grid	-11645
▁Kali	-11646
▁NNPC	-11647
▁NTSB	-11648
▁ODAY	-11649
▁REAL	-11650
▁Russ	-11651
▁VERY	-11652
▁Zuma	-11653
▁aced	-11654
▁acey	-11655
▁ació	-11656
▁adon	-11657
▁ahal	-11658
▁aifa	-11659
▁aldi	-11660
▁ammy	-11661
▁anji	-11662
▁arde	-11663
▁auli	-11664
▁avre	-11665
▁azio	-11666
▁bilt	-11667
▁chev	-11668
▁cifi	-11669
▁ctur	-11670
▁ddin	-11671
▁dena	-11672
▁dero	-11673
▁dula	-11674
▁easo	-11675
▁eggy	-11676
▁ehav	-11677
▁elia	-11678
▁elma	-11679
▁emis	-11680
▁enas	-11681
▁euer	-11682
▁fari	-11683
▁gado	-11684
▁geni	-11685
▁gong	-11686
▁herl	-11687
▁ibby	-11688
▁ieth	-11689
▁igne	-11690
▁ihad	-11691
▁ijay	-11692
▁ikip	-11693
▁insi	-11694
▁ione	-11695
▁jaya	-11696
▁kere	-11697
▁kesh	-11698
▁lags	-11699
▁lazo	-11700
▁llop	-11701
▁lurk	-11702
▁lute	-11703
▁lwyn	-11704
▁mare	-11705
▁mbra	-11706
▁mchi	-11707
▁mole	-11708
▁nadi	-11709
▁ncic	-11710
▁ndid	-11711
▁ngag	-11712
▁ngar	-11713
▁nges	-11714
▁nnis	-11715
▁oesn	-11716
▁ommi	-11717
▁onde	-11718
▁onga	-11719
▁oooo	-11720
▁orea	-11721
▁orna	-11722
▁orra	-11723
▁oult	-11724
▁peop	-11725
▁rbon	-11726
▁rody	-11727
▁roga	-11728
▁roja	-11729
▁rtiz	-11730
▁runk	-11731
▁sica	-11732
▁ssad	-11733
▁tabs	-11734
▁taco	-11735
▁tara	-11736
▁tard	-11737
▁tesh	-11738
▁thal	-11739
▁thik	-11740
▁tien	-11741
▁tini	-11742
▁tisa	-11743
▁ttal	-11744
▁tuss	-11745
▁tégé	-11746
▁unci	-11747
▁urag	-11748
▁urmu	-11749
▁vank	-11750
▁vial	-11751
▁wade	-11752
▁wald	-11753
▁wydd	-11754
▁ypsy	-11755
▁zedi	-11756
▁համա	-11757
▁Cyril	-11758
▁EMBER	-11759
▁Hyper	-11760
▁RSPCA	-11761
▁adame	-11762
▁aheer	-11763
▁allah	-11764
▁amous	-11765
▁andey	-11766
▁anist	-11767
▁anlon	-11768
▁arlon	-11769
▁asper	-11770
▁azaar	-11771
▁cades	-11772
▁clove	-11773
▁coupl	-11774
▁crest	-11775
▁ebber	-11776
▁eddah	-11777
▁elves	-11778
▁entua	-11779
▁erenc	-11780
▁erney	-11781
▁esper	-11782
▁essim	-11783
▁estar	-11784
▁gravy	-11785
▁graze	-11786
▁groov	-11787
▁hiite	-11788
▁hrine	-11789
▁iddha	-11790
▁ikita	-11791
▁nasal	-11792
▁natic	-11793
▁natur	-11794
▁ndora	-11795
▁nisto	-11796
▁njaro	-11797
▁odore	-11798
▁ombud	-11799
▁ontri	-11800
▁oodle	-11801
▁owell	-11802
▁ramer	-11803
▁ranth	-11804
▁raven	-11805
▁renda	-11806
▁resno	-11807
▁rmani	-11808
▁rouch	-11809
▁stadi	-11810
▁sveno	-11811
▁thana	-11812
▁thesi	-11813
▁tinol	-11814
▁trove	-11815
▁twell	-11816
▁ustri	-11817
▁vents	-11818
▁whiff	-11819
▁yashi	-11820
."	-11821
FE	-11822
GH	-11823
HI	-11824
OK	-11825
SO	-11826
UL	-11827
hl	-11828
hz	-11829
uz	-11830
xa	-11831
ís	-11832
ՄԵ	-11833
եւ	-11834
▁ø	-11835
▁Բ	-11836
▁Գ	-11837
▁Կ	-11838
▁Ս	-11839
ISS	-11840
aye	-11841
far	-11842
hvi	-11843
ise	-11844
lde	-11845
lla	-11846
net	-11847
odl	-11848
omo	-11849
raj	-11850
ray	-11851
rod	-11852
sif	-11853
ՊՐԵ	-11854
▁2"	-11855
▁Ah	-11856
▁Ai	-11857
▁CW	-11858
▁DH	-11859
▁Es	-11860
▁FL	-11861
▁GI	-11862
▁GK	-11863
▁KP	-11864
▁Ng	-11865
▁Ps	-11866
▁TN	-11867
▁VM	-11868
▁XP	-11869
▁Zh	-11870
▁iC	-11871
▁mú	-11872
▁յի	-11873
▁նդ	-11874
▁րա	-11875
▁փո	-11876
warf	-11877
ՊՐԵՍ	-11878
▁$35	-11879
▁(2)	-11880
▁108	-11881
▁112	-11882
▁129	-11883
▁1⁄2	-11884
▁4.2	-11885
▁42.	-11886
▁47%	-11887
▁55%	-11888
▁68,	-11889
▁71,	-11890
▁76,	-11891
▁ATM	-11892
▁ATO	-11893
▁Apr	-11894
▁Ava	-11895
▁Ayo	-11896
▁BBL	-11897
▁Bin	-11898
▁CGT	-11899
▁Chu	-11900
▁Egg	-11901
▁FCT	-11902
▁Fit	-11903
▁Goa	-11904
▁HER	-11905
▁HIP	-11906
▁HOU	-11907
▁HSE	-11908
▁INS	-11909
▁Kal	-11910
▁Kin	-11911
▁Kla	-11912
▁Kub	-11913
▁LEG	-11914
▁Lam	-11915
▁MSC	-11916
▁MVA	-11917
▁Mam	-11918
▁NAP	-11919
▁NMC	-11920
▁Num	-11921
▁Oak	-11922
▁PBS	-11923
▁PLA	-11924
▁PPE	-11925
▁PPP	-11926
▁Phi	-11927
▁Pie	-11928
▁REP	-11929
▁SAG	-11930
▁SIT	-11931
▁SOS	-11932
▁Sol	-11933
▁TAS	-11934
▁TOR	-11935
▁WFP	-11936
▁Wri	-11937
▁Zak	-11938
▁adg	-11939
▁agy	-11940
▁bun	-11941
▁dmo	-11942
▁eif	-11943
▁fia	-11944
▁gob	-11945
▁gur	-11946
▁hul	-11947
▁igh	-11948
▁iob	-11949
▁jer	-11950
▁jun	-11951
▁kat	-11952
▁kop	-11953
▁lif	-11954
▁lka	-11955
▁mii	-11956
▁nym	-11957
▁ogn	-11958
▁opl	-11959
▁osc	-11960
▁otl	-11961
▁paw	-11962
▁pip	-11963
▁pir	-11964
▁rbe	-11965
▁reo	-11966
▁tsu	-11967
▁tud	-11968
▁vlo	-11969
▁wip	-11970
▁yin	-11971
▁yni	-11972
▁հաղ	-11973
▁ուց	-11974
▁Asif	-11975
▁BRIT	-11976
▁Bolt	-11977
▁Holt	-11978
▁IFIL	-11979
▁LSEG	-11980
▁Nuse	-11981
▁SARS	-11982
▁SEBI	-11983
▁Stat	-11984
▁TIME	-11985
▁Tilb	-11986
▁UPSC	-11987
▁WILL	-11988
▁YERE	-11989
▁acio	-11990
▁adam	-11991
▁afia	-11992
▁ajiv	-11993
▁ambo	-11994
▁aolo	-11995
▁arak	-11996
▁atan	-11997
▁aulk	-11998
▁bido	-11999
▁bola	-12000
▁bonk	-12001
▁cone	-12002
▁crib	-12003
▁crux	-12004
▁deit	-12005
▁dema	-12006
▁dosa	-12007
▁dusk	-12008
▁egel	-12009
▁egum	-12010
▁eite	-12011
▁elfa	-12012
▁emag	-12013
▁emin	-12014
▁empe	-12015
▁eror	-12016
▁gaff	-12017
▁gara	-12018
▁ggie	-12019
▁giar	-12020
▁glio	-12021
▁gosh	-12022
▁guts	-12023
▁hady	-12024
▁haki	-12025
▁hedg	-12026
▁hevy	-12027
▁hitt	-12028
▁hrap	-12029
▁huja	-12030
▁hull	-12031
▁huta	-12032
▁icah	-12033
▁igma	-12034
▁ilal	-12035
▁ilky	-12036
▁imba	-12037
▁kens	-12038
▁laxi	-12039
▁lbon	-12040
▁lcox	-12041
▁leur	-12042
▁levi	-12043
▁loak	-12044
▁lory	-12045
▁luna	-12046
▁maid	-12047
▁mein	-12048
▁mesh	-12049
▁mest	-12050
▁mino	-12051
▁nale	-12052
▁namo	-12053
▁nash	-12054
▁ncel	-12055
▁neda	-12056
▁neta	-12057
▁ntom	-12058
▁ocke	-12059
▁odox	-12060
▁ools	-12061
▁pala	-12062
▁phan	-12063
▁rabh	-12064
▁reac	-12065
▁rhan	-12066
▁rimi	-12067
▁riso	-12068
▁roch	-12069
▁ronk	-12070
▁rore	-12071
▁rpse	-12072
▁sakh	-12073
▁scoe	-12074
▁slum	-12075
▁spik	-12076
▁spit	-12077
▁ssem	-12078
▁stim	-12079
▁stur	-12080
▁tish	-12081
▁tosh	-12082
▁trot	-12083
▁twee	-12084
▁udin	-12085
▁ukwu	-12086
▁unip	-12087
▁usca	-12088
▁usti	-12089
▁uzzi	-12090
▁vall	-12091
▁vase	-12092
▁veer	-12093
▁vend	-12094
▁vera	-12095
▁vlin	-12096
▁wala	-12097
▁wane	-12098
▁wark	-12099
▁wigs	-12100
▁wini	-12101
▁yaan	-12102
▁yato	-12103
▁zart	-12104
▁ԱՐՄԵ	-12105
▁Block	-12106
▁Croft	-12107
▁MOLED	-12108
▁ORMER	-12109
▁Valdo	-12110
▁addow	-12111
▁agara	-12112
▁ahore	-12113
▁aloon	-12114
▁arina	-12115
▁arket	-12116
▁arlay	-12117
▁aston	-12118
▁atima	-12119
▁atool	-12120
▁atten	-12121
▁atton	-12122
▁capit	-12123
▁drumm	-12124
▁dwarf	-12125
▁earic	-12126
▁edley	-12127
▁eldom	-12128
▁elrod	-12129
▁ereni	-12130
▁ersio	-12131
▁erved	-12132
▁ewitt	-12133
▁forth	-12134
▁ghast	-12135
▁goose	-12136
▁grime	-12137
▁hawan	-12138
▁herri	-12139
▁hiker	-12140
▁hooli	-12141
▁ikkei	-12142
▁ilmen	-12143
▁indhu	-12144
▁ingya	-12145
▁knack	-12146
▁laney	-12147
▁lermo	-12148
▁llone	-12149
▁lyamo	-12150
▁migra	-12151
▁monst	-12152
▁motto	-12153
▁ndale	-12154
▁nsiti	-12155
▁nvest	-12156
▁orton	-12157
▁pathi	-12158
▁radha	-12159
▁ranus	-12160
▁rdent	-12161
▁reass	-12162
▁rizhz	-12163
▁rsuch	-12164
▁rvell	-12165
▁stani	-12166
▁talki	-12167
▁tenna	-12168
▁thena	-12169
▁tilda	-12170
▁triol	-12171
▁tussl	-12172
▁uitto	-12173
▁vaila	-12174
▁viole	-12175
▁wanky	-12176
▁warya	-12177
▁wners	-12178
▁ython	-12179
▁ՆՊՐԵՍ	-12180
▁մասին	-12181
12	-12182
2,	-12183
Am	-12184
EW	-12185
GS	-12186
RS	-12187
UT	-12188
▁Ó	-12189
ECD	-12190
FSA	-12191
MAN	-12192
MEU	-12193
agi	-12194
ett	-12195
ffl	-12196
iva	-12197
mbi	-12198
mel	-12199
oya	-12200
sto	-12201
զմա	-12202
մեն	-12203
▁#5	-12204
▁("	-12205
▁."	-12206
▁2/	-12207
▁DD	-12208
▁DG	-12209
▁GR	-12210
▁JA	-12211
▁JK	-12212
▁JS	-12213
▁LD	-12214
▁MN	-12215
▁Om	-12216
▁Ow	-12217
▁PK	-12218
▁PU	-12219
▁UM	-12220
▁WR	-12221
▁XX	-12222
▁eñ	-12223
▁iè	-12224
▁mv	-12225
▁pc	-12226
▁tf	-12227
▁wu	-12228
▁գն	-12229
▁ցի	-12230
▁0.3	-12231
▁0.4	-12232
▁128	-12233
▁132	-12234
▁134	-12235
▁135	-12236
▁2.4	-12237
▁280	-12238
▁3.1	-12239
▁3.7	-12240
▁38%	-12241
▁39%	-12242
▁4.3	-12243
▁46%	-12244
▁54.	-12245
▁7-0	-12246
▁70.	-12247
▁750	-12248
▁777	-12249
▁AMC	-12250
▁AWS	-12251
▁BGT	-12252
▁CAL	-12253
▁CCP	-12254
▁CIS	-12255
▁DEN	-12256
▁DHS	-12257
▁Den	-12258
▁ESA	-12259
▁EVA	-12260
▁FAI	-12261
▁FBC	-12262
▁GAA	-12263
▁GLP	-12264
▁GPU	-12265
▁Gap	-12266
▁HBC	-12267
▁HMD	-12268
▁HPV	-12269
▁IAS	-12270
▁ICU	-12271
▁INR	-12272
▁ITC	-12273
▁ITY	-12274
▁JFK	-12275
▁JMM	-12276
▁Kre	-12277
▁Kro	-12278
▁Kru	-12279
▁McH	-12280
▁MoD	-12281
▁NFT	-12282
▁NIA	-12283
▁NYT	-12284
▁Ops	-12285
▁Oti	-12286
▁PIF	-12287
▁PRI	-12288
▁PSC	-12289
▁Pin	-12290
▁QPR	-12291
▁ROG	-12292
▁TAT	-12293
▁Tip	-12294
▁UAW	-12295
▁UGC	-12296
▁URC	-12297
▁Web	-12298
▁aad	-12299
▁aan	-12300
▁aap	-12301
▁ahr	-12302
▁anb	-12303
▁bos	-12304
▁bot	-12305
▁bye	-12306
▁chn	-12307
▁dir	-12308
▁ehu	-12309
▁erh	-12310
▁eyi	-12311
▁fab	-12312
▁hae	-12313
▁kal	-12314
▁kea	-12315
▁kun	-12316
▁mug	-12317
▁oed	-12318
▁oim	-12319
▁olk	-12320
▁onm	-12321
▁oso	-12322
▁rba	-12323
▁rsa	-12324
▁sme	-12325
▁teo	-12326
▁tid	-12327
▁tvi	-12328
▁uat	-12329
▁utc	-12330
▁voi	-12331
▁voy	-12332
▁wap	-12333
▁xel	-12334
▁yce	-12335
▁ynx	-12336
▁ծակ	-12337
▁կար	-12338
▁յել	-12339
▁յու	-12340
▁CITY	-12341
▁Cell	-12342
▁DACA	-12343
▁Damn	-12344
▁ELES	-12345
▁Gang	-12346
▁IONS	-12347
▁Kolo	-12348
▁OECD	-12349
▁THIS	-12350
▁Teja	-12351
▁Them	-12352
▁UPFs	-12353
▁Umar	-12354
▁WADA	-12355
▁WHAT	-12356
▁acia	-12357
▁acne	-12358
▁agde	-12359
▁aied	-12360
▁alan	-12361
▁alid	-12362
▁apri	-12363
▁arca	-12364
▁arfa	-12365
▁aric	-12366
▁arza	-12367
▁azel	-12368
▁bahc	-12369
▁bakh	-12370
▁bast	-12371
▁bona	-12372
▁chio	-12373
▁dkar	-12374
▁dopa	-12375
▁dove	-12376
▁ebri	-12377
▁econ	-12378
▁eela	-12379
▁eisu	-12380
▁elon	-12381
▁emba	-12382
▁emia	-12383
▁enet	-12384
▁enor	-12385
▁erdi	-12386
▁erha	-12387
▁erms	-12388
▁esch	-12389
▁estu	-12390
▁exus	-12391
▁ezzl	-12392
▁fana	-12393
▁germ	-12394
▁glac	-12395
▁glaz	-12396
▁goer	-12397
▁haft	-12398
▁hava	-12399
▁hesi	-12400
▁hina	-12401
▁hiva	-12402
▁hoal	-12403
▁hris	-12404
▁ibet	-12405
▁iece	-12406
▁igby	-12407
▁iggy	-12408
▁inck	-12409
▁inne	-12410
▁iore	-12411
▁iyuk	-12412
▁kene	-12413
▁kmph	-12414
▁koda	-12415
▁lado	-12416
▁lawi	-12417
▁leat	-12418
▁lewd	-12419
▁ljit	-12420
▁lldo	-12421
▁lulu	-12422
▁malt	-12423
▁mbié	-12424
▁miso	-12425
▁msby	-12426
▁mund	-12427
▁nahi	-12428
▁nary	-12429
▁naut	-12430
▁nduc	-12431
▁neos	-12432
▁nero	-12433
▁ngan	-12434
▁ngst	-12435
▁nzee	-12436
▁nzel	-12437
▁ohan	-12438
▁oire	-12439
▁olac	-12440
▁olei	-12441
▁oret	-12442
▁orty	-12443
▁osco	-12444
▁osin	-12445
▁pens	-12446
▁qbal	-12447
▁rfan	-12448
▁robe	-12449
▁roor	-12450
▁shta	-12451
▁skit	-12452
▁slaw	-12453
▁sood	-12454
▁stew	-12455
▁stud	-12456
▁teal	-12457
▁teas	-12458
▁thaw	-12459
▁ttar	-12460
▁ussy	-12461
▁wack	-12462
▁wasp	-12463
▁wist	-12464
▁xcit	-12465
▁xena	-12466
▁yren	-12467
▁zobo	-12468
▁írez	-12469
▁Հայա	-12470
▁պրես	-12471
▁CFMEU	-12472
▁FAFSA	-12473
▁NAACP	-12474
▁Troon	-12475
▁agpie	-12476
▁akhar	-12477
▁andas	-12478
▁andon	-12479
▁andov	-12480
▁andry	-12481
▁anhvi	-12482
▁arino	-12483
▁arisa	-12484
▁artia	-12485
▁ashin	-12486
▁ayesi	-12487
▁brate	-12488
▁cessa	-12489
▁cutta	-12490
▁dhaar	-12491
▁dusty	-12492
▁dysph	-12493
▁eeley	-12494
▁endri	-12495
▁endry	-12496
▁ensur	-12497
▁enton	-12498
▁erley	-12499
▁ertin	-12500
▁esium	-12501
▁ested	-12502
▁eston	-12503
▁estra	-12504
▁estry	-12505
▁fetti	-12506
▁garni	-12507
▁gland	-12508
▁glare	-12509
▁heehy	-12510
▁helin	-12511
▁hoddy	-12512
▁hotra	-12513
▁huahu	-12514
▁iegma	-12515
▁ijjar	-12516
▁inall	-12517
▁iwell	-12518
▁mandu	-12519
▁moose	-12520
▁mpare	-12521
▁nacio	-12522
▁nasta	-12523
▁ncake	-12524
▁nothe	-12525
▁nwick	-12526
▁obias	-12527
▁odour	-12528
▁oloni	-12529
▁omega	-12530
▁onths	-12531
▁ousov	-12532
▁renzo	-12533
▁ritch	-12534
▁rtoum	-12535
▁smaid	-12536
▁spagh	-12537
▁stipa	-12538
▁szlai	-12539
▁talli	-12540
▁tendo	-12541
▁twerp	-12542
▁udaci	-12543
▁udhar	-12544
▁ullen	-12545
▁utala	-12546
▁utkan	-12547
▁vanka	-12548
▁vasto	-12549
▁waffl	-12550
▁wrath	-12551
▁yneca	-12552
▁Արմեն	-12553
BT	-12554
GM	-12555
Go	-12556
MO	-12557
UR	-12558
WN	-12559
ZA	-12560
gl	-12561
jh	-12562
qf	-12563
ús	-12564
ԱՆ	-12565
ոց	-12566
ջա	-12567
▁Ø	-12568
TRA	-12569
TSA	-12570
bin	-12571
dal	-12572
elt	-12573
ham	-12574
hau	-12575
obs	-12576
omi	-12577
ope	-12578
orn	-12579
pin	-12580
ras	-12581
rie	-12582
tro	-12583
ulo	-12584
uso	-12585
vez	-12586
wan	-12587
zel	-12588
ՎԱՆ	-12589
անի	-12590
ման	-12591
սրա	-12592
▁4'	-12593
▁4:	-12594
▁HG	-12595
▁HT	-12596
▁KT	-12597
▁Ll	-12598
▁MW	-12599
▁Op	-12600
▁SV	-12601
▁TJ	-12602
▁Um	-12603
▁Vy	-12604
▁hé	-12605
▁kt	-12606
▁lé	-12607
▁rè	-12608
▁uh	-12609
▁wh	-12610
▁ée	-12611
▁ՐԵ	-12612
▁աց	-12613
▁գր	-12614
▁իա	-12615
▁ից	-12616
▁ծա	-12617
▁յն	-12618
▁ոն	-12619
▁րդ	-12620
emen	-12621
▁$70	-12622
▁0.5	-12623
▁0.7	-12624
▁113	-12625
▁116	-12626
▁124	-12627
▁144	-12628
▁2/3	-12629
▁24%	-12630
▁26%	-12631
▁3%.	-12632
▁33.	-12633
▁34%	-12634
▁370	-12635
▁48%	-12636
▁5-3	-12637
▁5-4	-12638
▁5.6	-12639
▁53%	-12640
▁54%	-12641
▁65%	-12642
▁67%	-12643
▁67,	-12644
▁720	-12645
▁73,	-12646
▁77,	-12647
▁99%	-12648
▁ANS	-12649
▁ARD	-12650
▁ATE	-12651
▁Abi	-12652
▁Ala	-12653
▁BNP	-12654
▁BTS	-12655
▁CGI	-12656
▁CSI	-12657
▁CSO	-12658
▁DCP	-12659
▁DOT	-12660
▁EAR	-12661
▁ECI	-12662
▁EMT	-12663
▁GST	-12664
▁Hay	-12665
▁IEA	-12666
▁IFS	-12667
▁Inc	-12668
▁Jai	-12669
▁Kid	-12670
▁Kot	-12671
▁LHP	-12672
▁Lip	-12673
▁MAY	-12674
▁MIT	-12675
▁MSE	-12676
▁MSF	-12677
▁Mot	-12678
▁OMG	-12679
▁PHO	-12680
▁RIC	-12681
▁SAF	-12682
▁SMS	-12683
▁TBD	-12684
▁TDP	-12685
▁TRA	-12686
▁Tab	-12687
▁UCL	-12688
▁WTA	-12689
▁Yee	-12690
▁aiz	-12691
▁cod	-12692
▁fas	-12693
▁heb	-12694
▁hib	-12695
▁igm	-12696
▁keg	-12697
▁knu	-12698
▁loe	-12699
▁lpe	-12700
▁lvd	-12701
▁nep	-12702
▁pry	-12703
▁rax	-12704
▁rgh	-12705
▁rka	-12706
▁rze	-12707
▁sbo	-12708
▁sko	-12709
▁toh	-12710
▁trn	-12711
▁ubo	-12712
▁uer	-12713
▁uft	-12714
▁uva	-12715
▁vre	-12716
▁ylo	-12717
▁£22	-12718
▁âte	-12719
▁üll	-12720
▁թյա	-12721
▁ACLU	-12722
▁ANTA	-12723
▁ASIC	-12724
▁BACK	-12725
▁Bone	-12726
▁CBDC	-12727
▁FILE	-12728
▁Gyll	-12729
▁MAFS	-12730
▁NEWS	-12731
▁OLIS	-12732
▁OPEC	-12733
▁PBKS	-12734
▁SEPT	-12735
▁SMEs	-12736
▁Tiny	-12737
▁Trea	-12738
▁Troo	-12739
▁Tyne	-12740
▁USDA	-12741
▁WWII	-12742
▁Wynn	-12743
▁adel	-12744
▁adet	-12745
▁adha	-12746
▁adyr	-12747
▁aili	-12748
▁ajik	-12749
▁alda	-12750
▁alim	-12751
▁alse	-12752
▁alsy	-12753
▁alve	-12754
▁amza	-12755
▁anaa	-12756
▁anca	-12757
▁andb	-12758
▁anja	-12759
▁arek	-12760
▁aret	-12761
▁arlo	-12762
▁arou	-12763
▁aser	-12764
▁atar	-12765
▁aymo	-12766
▁bric	-12767
▁calv	-12768
▁coct	-12769
▁ddha	-12770
▁deca	-12771
▁deno	-12772
▁dens	-12773
▁dler	-12774
▁dmin	-12775
▁dope	-12776
▁eira	-12777
▁ensa	-12778
▁ento	-12779
▁eret	-12780
▁esky	-12781
▁esús	-12782
▁eton	-12783
▁etsy	-12784
▁euph	-12785
▁evis	-12786
▁frog	-12787
▁gall	-12788
▁glob	-12789
▁guri	-12790
▁halo	-12791
▁halv	-12792
▁hera	-12793
▁horn	-12794
▁hukr	-12795
▁ibly	-12796
▁idya	-12797
▁ieva	-12798
▁iful	-12799
▁imes	-12800
▁incy	-12801
▁indo	-12802
▁inku	-12803
▁ioma	-12804
▁ital	-12805
▁itra	-12806
▁itus	-12807
▁kira	-12808
▁kono	-12809
▁kunk	-12810
▁lamo	-12811
▁lasp	-12812
▁lets	-12813
▁lifa	-12814
▁lige	-12815
▁luto	-12816
▁mira	-12817
▁movi	-12818
▁ndel	-12819
▁neuv	-12820
▁nker	-12821
▁nten	-12822
▁ocha	-12823
▁octa	-12824
▁oggy	-12825
▁orgo	-12826
▁orgy	-12827
▁osit	-12828
▁psom	-12829
▁raha	-12830
▁rata	-12831
▁rbin	-12832
▁rind	-12833
▁sala	-12834
▁schi	-12835
▁shin	-12836
▁sler	-12837
▁sota	-12838
▁ssin	-12839
▁ssou	-12840
▁stec	-12841
▁stok	-12842
▁syan	-12843
▁tchi	-12844
▁tedi	-12845
▁teer	-12846
▁thed	-12847
▁thee	-12848
▁thée	-12849
▁tome	-12850
▁trea	-12851
▁trik	-12852
▁uget	-12853
▁undi	-12854
▁unis	-12855
▁urdo	-12856
▁vina	-12857
▁wkey	-12858
▁wyer	-12859
▁ymna	-12860
▁yner	-12861
▁zinc	-12862
▁zzar	-12863
▁ները	-12864
▁քում	-12865
▁EIDRE	-12866
▁Hyatt	-12867
▁Kochi	-12868
▁Kravi	-12869
▁Kyoto	-12870
▁Trend	-12871
▁ackay	-12872
▁agdeb	-12873
▁aisie	-12874
▁alifa	-12875
▁ances	-12876
▁antar	-12877
▁appen	-12878
▁arlow	-12879
▁attel	-12880
▁aurus	-12881
▁avare	-12882
▁billy	-12883
▁choly	-12884
▁corch	-12885
▁cumen	-12886
▁douse	-12887
▁eitei	-12888
▁elery	-12889
▁elman	-12890
▁elvic	-12891
▁ennox	-12892
▁ergie	-12893
▁ernia	-12894
▁ferno	-12895
▁ferti	-12896
▁festa	-12897
▁ffaly	-12898
▁gorno	-12899
▁haker	-12900
▁helma	-12901
▁hesiv	-12902
▁hobbl	-12903
▁hyalu	-12904
▁icada	-12905
▁ickel	-12906
▁idier	-12907
▁iktok	-12908
▁insid	-12909
▁ioren	-12910
▁istin	-12911
▁lasta	-12912
▁lefty	-12913
▁lepsy	-12914
▁llard	-12915
▁lofty	-12916
▁lyssa	-12917
▁mmett	-12918
▁mpsey	-12919
▁mvent	-12920
▁naira	-12921
▁nhaal	-12922
▁nkita	-12923
▁nnaah	-12924
▁ntern	-12925
▁onali	-12926
▁ontai	-12927
▁patra	-12928
▁rants	-12929
▁saiah	-12930
▁shiba	-12931
▁smond	-12932
▁stell	-12933
▁taley	-12934
▁tepid	-12935
▁tiene	-12936
▁troop	-12937
▁ultry	-12938
▁uries	-12939
▁ՐԵՎԱՆ	-12940
▁հաղոր	-12941
30	-12942
8,	-12943
BM	-12944
BY	-12945
EK	-12946
RB	-12947
cz	-12948
lm	-12949
sk	-12950
vr	-12951
wd	-12952
xo	-12953
zb	-12954
ça	-12955
ոլ	-12956
ոս	-12957
⁄4	-12958
▁ä	-12959
▁č	-12960
HRA	-12961
IDE	-12962
RCP	-12963
TON	-12964
asu	-12965
noi	-12966
xic	-12967
ène	-12968
ñez	-12969
ոնի	-12970
ված	-12971
▁#4	-12972
▁AQ	-12973
▁Gl	-12974
▁JL	-12975
▁LF	-12976
▁NV	-12977
▁Pw	-12978
▁Ts	-12979
▁Ug	-12980
▁có	-12981
▁eV	-12982
▁mR	-12983
▁գա	-12984
▁եղ	-12985
▁ոլ	-12986
▁տր	-12987
▁օր	-12988
REAM	-12989
▁(16	-12990
▁0.6	-12991
▁06,	-12992
▁10:	-12993
▁118	-12994
▁138	-12995
▁139	-12996
▁142	-12997
▁151	-12998
▁155	-12999
▁157	-13000
▁162	-13001
▁179	-13002
▁185	-13003
▁29%	-13004
▁3-3	-13005
▁3.6	-13006
▁3.9	-13007
▁33%	-13008
▁39.	-13009
▁4.8	-13010
▁52%	-13011
▁55.	-13012
▁61%	-13013
▁65.	-13014
▁7-5	-13015
▁8.5	-13016
▁ADA	-13017
▁AGM	-13018
▁APR	-13019
▁ASX	-13020
▁AZN	-13021
▁Ano	-13022
▁Arc	-13023
▁BIG	-13024
▁Bit	-13025
▁CAC	-13026
▁CCC	-13027
▁CME	-13028
▁CNG	-13029
▁COM	-13030
▁CST	-13031
▁DES	-13032
▁EDT	-13033
▁EIS	-13034
▁FEC	-13035
▁Fla	-13036
▁GOA	-13037
▁HOR	-13038
▁HRT	-13039
▁IFA	-13040
▁IPS	-13041
▁JEE	-13042
▁Kne	-13043
▁LAS	-13044
▁Lon	-13045
▁MAG	-13046
▁MBA	-13047
▁MCD	-13048
▁MER	-13049
▁Mes	-13050
▁Mir	-13051
▁Mul	-13052
▁NHK	-13053
▁NIC	-13054
▁Ned	-13055
▁Nix	-13056
▁POP	-13057
▁PSV	-13058
▁Qin	-13059
▁RAB	-13060
▁RIA	-13061
▁Rev	-13062
▁SAD	-13063
▁SMU	-13064
▁SPD	-13065
▁TAR	-13066
▁TDA	-13067
▁TLA	-13068
▁TPO	-13069
▁TSA	-13070
▁UAP	-13071
▁UAS	-13072
▁UBS	-13073
▁VLA	-13074
▁VMH	-13075
▁Vas	-13076
▁Via	-13077
▁Vin	-13078
▁aib	-13079
▁ajj	-13080
▁ayy	-13081
▁bía	-13082
▁cke	-13083
▁dey	-13084
▁dun	-13085
▁elk	-13086
▁fax	-13087
▁foy	-13088
▁haf	-13089
▁hym	-13090
▁iji	-13091
▁iju	-13092
▁inx	-13093
▁iña	-13094
▁kon	-13095
▁lbw	-13096
▁lef	-13097
▁ncs	-13098
▁ngy	-13099
▁nio	-13100
▁oer	-13101
▁oeu	-13102
▁oof	-13103
▁ooz	-13104
▁pah	-13105
▁shw	-13106
▁smu	-13107
▁uba	-13108
▁uco	-13109
▁vdi	-13110
▁wab	-13111
▁wyd	-13112
▁xxx	-13113
▁yco	-13114
▁yma	-13115
▁yub	-13116
▁£12	-13117
▁£75	-13118
▁£80	-13119
▁éli	-13120
▁ğan	-13121
▁այս	-13122
▁բեր	-13123
▁ստա	-13124
▁Boer	-13125
▁CHAK	-13126
▁Hoda	-13127
▁IKEA	-13128
▁IPAC	-13129
▁Kata	-13130
▁Keen	-13131
▁Kota	-13132
▁Lyft	-13133
▁Manp	-13134
▁Mats	-13135
▁SEAL	-13136
▁SEAN	-13137
▁THER	-13138
▁Trio	-13139
▁YOUR	-13140
▁aali	-13141
▁aasa	-13142
▁actu	-13143
▁acui	-13144
▁adar	-13145
▁agee	-13146
▁agga	-13147
▁agna	-13148
▁ahir	-13149
▁ahri	-13150
▁airi	-13151
▁akha	-13152
▁alak	-13153
▁amen	-13154
▁aqvi	-13155
▁arki	-13156
▁armo	-13157
▁atna	-13158
▁auch	-13159
▁avya	-13160
▁awke	-13161
▁ayna	-13162
▁balk	-13163
▁blic	-13164
▁choa	-13165
▁cion	-13166
▁cito	-13167
▁ckin	-13168
▁clem	-13169
▁damb	-13170
▁diol	-13171
▁doxy	-13172
▁duet	-13173
▁eems	-13174
▁eeta	-13175
▁eles	-13176
▁eney	-13177
▁epar	-13178
▁ervi	-13179
▁escu	-13180
▁etit	-13181
▁etor	-13182
▁exte	-13183
▁gale	-13184
▁ggan	-13185
▁glid	-13186
▁glyc	-13187
▁gour	-13188
▁grop	-13189
▁gual	-13190
▁gyna	-13191
▁haus	-13192
▁hift	-13193
▁hime	-13194
▁himp	-13195
▁hono	-13196
▁iara	-13197
▁idio	-13198
▁iffi	-13199
▁inar	-13200
▁inis	-13201
▁izen	-13202
▁jack	-13203
▁kari	-13204
▁khan	-13205
▁knap	-13206
▁kong	-13207
▁kram	-13208
▁leba	-13209
▁lesi	-13210
▁lide	-13211
▁lieb	-13212
▁llyn	-13213
▁lova	-13214
▁lull	-13215
▁mbre	-13216
▁mire	-13217
▁mirk	-13218
▁mmal	-13219
▁mphi	-13220
▁msic	-13221
▁mule	-13222
▁muni	-13223
▁mute	-13224
▁méri	-13225
▁nake	-13226
▁nasc	-13227
▁naya	-13228
▁nead	-13229
▁nega	-13230
▁noga	-13231
▁nons	-13232
▁novo	-13233
▁noxi	-13234
▁nsum	-13235
▁ntho	-13236
▁ntre	-13237
▁nuns	-13238
▁ogba	-13239
▁olie	-13240
▁oltz	-13241
▁orah	-13242
▁osch	-13243
▁otin	-13244
▁ouza	-13245
▁ozzi	-13246
▁pott	-13247
▁ptum	-13248
▁rafa	-13249
▁rano	-13250
▁rean	-13251
▁reem	-13252
▁reer	-13253
▁rete	-13254
▁reud	-13255
▁reya	-13256
▁rion	-13257
▁rium	-13258
▁rkar	-13259
▁rmon	-13260
▁rook	-13261
▁rrin	-13262
▁ruze	-13263
▁sbah	-13264
▁shad	-13265
▁sina	-13266
▁skyi	-13267
▁sliv	-13268
▁sola	-13269
▁sped	-13270
▁ssus	-13271
▁tana	-13272
▁tbit	-13273
▁teem	-13274
▁tney	-13275
▁tout	-13276
▁toxi	-13277
▁trew	-13278
▁tuna	-13279
▁uchi	-13280
▁udor	-13281
▁ulia	-13282
▁umen	-13283
▁urea	-13284
▁urza	-13285
▁utsi	-13286
▁vale	-13287
▁vara	-13288
▁vati	-13289
▁vcha	-13290
▁vier	-13291
▁waja	-13292
▁wami	-13293
▁wati	-13294
▁yake	-13295
▁yoti	-13296
▁yuti	-13297
▁շխատ	-13298
▁AFTRA	-13299
▁EMAIL	-13300
▁NHTSA	-13301
▁Yates	-13302
▁adger	-13303
▁affle	-13304
▁ahony	-13305
▁arlor	-13306
▁aviar	-13307
▁ayers	-13308
▁casus	-13309
▁cladd	-13310
▁clyde	-13311
▁cully	-13312
▁dries	-13313
▁drome	-13314
▁dwell	-13315
▁easer	-13316
▁easur	-13317
▁eggar	-13318
▁elmut	-13319
▁enari	-13320
▁enary	-13321
▁endra	-13322
▁erris	-13323
▁essen	-13324
▁ewels	-13325
▁eymou	-13326
▁facet	-13327
▁feasi	-13328
▁fetal	-13329
▁garve	-13330
▁geist	-13331
▁gobsm	-13332
▁gooey	-13333
▁hafik	-13334
▁halve	-13335
▁hemia	-13336
▁henge	-13337
▁hilpa	-13338
▁hrewd	-13339
▁hriek	-13340
▁hyber	-13341
▁iletr	-13342
▁inton	-13343
▁irana	-13344
▁ivory	-13345
▁iyush	-13346
▁kanga	-13347
▁kater	-13348
▁kshya	-13349
▁lapel	-13350
▁leima	-13351
▁lekse	-13352
▁lhaji	-13353
▁lijah	-13354
▁loise	-13355
▁lpana	-13356
▁lstic	-13357
▁lynch	-13358
▁lysée	-13359
▁matta	-13360
▁mbele	-13361
▁megra	-13362
▁moist	-13363
▁mwell	-13364
▁ngone	-13365
▁nrith	-13366
▁nsari	-13367
▁nyama	-13368
▁nyder	-13369
▁phecy	-13370
▁pindi	-13371
▁rando	-13372
▁rasno	-13373
▁ratha	-13374
▁rdona	-13375
▁reddy	-13376
▁retta	-13377
▁rista	-13378
▁rouse	-13379
▁rpedo	-13380
▁scoll	-13381
▁secco	-13382
▁shant	-13383
▁sheva	-13384
▁snian	-13385
▁spoof	-13386
▁ssard	-13387
▁stink	-13388
▁stoic	-13389
▁sturb	-13390
▁tacky	-13391
▁talis	-13392
▁teely	-13393
▁theby	-13394
▁tinum	-13395
▁ubrey	-13396
▁uftha	-13397
▁ukele	-13398
▁ushal	-13399
▁vitol	-13400
▁volta	-13401
▁wacky	-13402
▁թյամբ	-13403
2.	-13404
Or	-13405
dé	-13406
ić	-13407
kg	-13408
sb	-13409
ղա	-13410
ոտ	-13411
▁·	-13412
▁¿	-13413
ATE	-13414
DPH	-13415
GHS	-13416
LEZ	-13417
RES	-13418
aki	-13419
bao	-13420
ció	-13421
eri	-13422
fir	-13423
gae	-13424
low	-13425
mag	-13426
ndy	-13427
nga	-13428
sin	-13429
ucy	-13430
urt	-13431
▁""	-13432
▁#9	-13433
▁,"	-13434
▁5:	-13435
▁EQ	-13436
▁FU	-13437
▁Iz	-13438
▁MY	-13439
▁NT	-13440
▁OA	-13441
▁RL	-13442
▁RV	-13443
▁UL	-13444
▁UR	-13445
▁VO	-13446
▁VS	-13447
▁Vs	-13448
▁WX	-13449
▁aú	-13450
▁eá	-13451
▁mc	-13452
▁mk	-13453
▁pú	-13454
▁rá	-13455
▁yx	-13456
▁առ	-13457
▁ըն	-13458
▁թե	-13459
▁փա	-13460
anta	-13461
asey	-13462
▁$80	-13463
▁(10	-13464
▁(11	-13465
▁0-3	-13466
▁119	-13467
▁164	-13468
▁235	-13469
▁4.6	-13470
▁48.	-13471
▁49.	-13472
▁5.3	-13473
▁555	-13474
▁56%	-13475
▁6%.	-13476
▁6-7	-13477
▁6.4	-13478
▁7.4	-13479
▁7.5	-13480
▁71%	-13481
▁82,	-13482
▁91,	-13483
▁AAA	-13484
▁AIN	-13485
▁ALA	-13486
▁AMA	-13487
▁ANU	-13488
▁ARC	-13489
▁ARM	-13490
▁ASP	-13491
▁AVE	-13492
▁BLA	-13493
▁Bab	-13494
▁Bud	-13495
▁Bye	-13496
▁CAN	-13497
▁CNY	-13498
▁CON	-13499
▁COT	-13500
▁CVS	-13501
▁Cop	-13502
▁DEC	-13503
▁DLC	-13504
▁Dei	-13505
▁Der	-13506
▁EAC	-13507
▁EBU	-13508
▁ERC	-13509
▁Fun	-13510
▁GMP	-13511
▁GTA	-13512
▁Gri	-13513
▁HCR	-13514
▁Hai	-13515
▁Hey	-13516
▁Hyp	-13517
▁ICK	-13518
▁INK	-13519
▁ISP	-13520
▁Ida	-13521
▁Idi	-13522
▁JDU	-13523
▁Jio	-13524
▁Kil	-13525
▁LCD	-13526
▁LDP	-13527
▁LaV	-13528
▁Leg	-13529
▁Lla	-13530
▁MEN	-13531
▁Mai	-13532
▁Mao	-13533
▁NEC	-13534
▁NED	-13535
▁NSA	-13536
▁Neo	-13537
▁Nur	-13538
▁OIS	-13539
▁PMI	-13540
▁PML	-13541
▁PRC	-13542
▁Pad	-13543
▁RET	-13544
▁RFU	-13545
▁SNC	-13546
▁SNS	-13547
▁SPS	-13548
▁SSP	-13549
▁STE	-13550
▁SZA	-13551
▁Sid	-13552
▁TOP	-13553
▁TUC	-13554
▁Ubi	-13555
▁VMA	-13556
▁WAG	-13557
▁WAR	-13558
▁aís	-13559
▁bek	-13560
▁cef	-13561
▁chy	-13562
▁dye	-13563
▁ebu	-13564
▁ecz	-13565
▁ehr	-13566
▁enk	-13567
▁erl	-13568
▁fak	-13569
▁fps	-13570
▁gyf	-13571
▁hud	-13572
▁ibo	-13573
▁iec	-13574
▁jad	-13575
▁jek	-13576
▁ldr	-13577
▁mah	-13578
▁mha	-13579
▁mow	-13580
▁muy	-13581
▁ngh	-13582
▁nir	-13583
▁nob	-13584
▁nra	-13585
▁nri	-13586
▁obo	-13587
▁olg	-13588
▁orz	-13589
▁ouk	-13590
▁rco	-13591
▁rki	-13592
▁rsk	-13593
▁snu	-13594
▁sob	-13595
▁soc	-13596
▁sor	-13597
▁sys	-13598
▁uen	-13599
▁ugo	-13600
▁uig	-13601
▁ymi	-13602
▁£35	-13603
▁£70	-13604
▁ախա	-13605
▁հան	-13606
▁ուր	-13607
▁ջին	-13608
▁ATED	-13609
▁ATOR	-13610
▁CBSE	-13611
▁CUET	-13612
▁Coff	-13613
▁Colt	-13614
▁EVER	-13615
▁FOUR	-13616
▁FREE	-13617
▁Hoch	-13618
▁IAEA	-13619
▁IANS	-13620
▁IMAX	-13621
▁INEC	-13622
▁IRST	-13623
▁ITED	-13624
▁Kaye	-13625
▁LPGA	-13626
▁MacK	-13627
▁Oleh	-13628
▁Thee	-13629
▁Trey	-13630
▁ULEZ	-13631
▁USSR	-13632
▁Vida	-13633
▁agre	-13634
▁ahab	-13635
▁ahar	-13636
▁aith	-13637
▁akpo	-13638
▁akub	-13639
▁alal	-13640
▁alek	-13641
▁amam	-13642
▁anai	-13643
▁andt	-13644
▁anis	-13645
▁anoe	-13646
▁anor	-13647
▁arai	-13648
▁aspi	-13649
▁astu	-13650
▁atia	-13651
▁babu	-13652
▁balt	-13653
▁bham	-13654
▁bind	-13655
▁biri	-13656
▁boks	-13657
▁brea	-13658
▁clan	-13659
▁cora	-13660
▁dage	-13661
▁dder	-13662
▁deed	-13663
▁dhan	-13664
▁dher	-13665
▁diti	-13666
▁dobe	-13667
▁dodo	-13668
▁drea	-13669
▁drip	-13670
▁drow	-13671
▁easa	-13672
▁ecom	-13673
▁edfe	-13674
▁edim	-13675
▁eema	-13676
▁effe	-13677
▁egri	-13678
▁ehra	-13679
▁elat	-13680
▁elhu	-13681
▁erbi	-13682
▁eroa	-13683
▁eroo	-13684
▁ería	-13685
▁esko	-13686
▁etel	-13687
▁etis	-13688
▁feeb	-13689
▁fred	-13690
▁ghee	-13691
▁giri	-13692
▁gnar	-13693
▁hahi	-13694
▁hamb	-13695
▁harb	-13696
▁hazy	-13697
▁hbaz	-13698
▁hied	-13699
▁iQoo	-13700
▁idda	-13701
▁idia	-13702
▁inen	-13703
▁iric	-13704
▁irla	-13705
▁izzo	-13706
▁izzy	-13707
▁jara	-13708
▁jeev	-13709
▁judo	-13710
▁kaya	-13711
▁khar	-13712
▁khin	-13713
▁ladk	-13714
▁lami	-13715
▁laud	-13716
▁laus	-13717
▁limt	-13718
▁llam	-13719
▁llur	-13720
▁loor	-13721
▁lpit	-13722
▁lyte	-13723
▁mbar	-13724
▁mbro	-13725
▁meld	-13726
▁mets	-13727
▁mike	-13728
▁mops	-13729
▁mori	-13730
▁nack	-13731
▁nbar	-13732
▁ndol	-13733
▁neck	-13734
▁nika	-13735
▁nima	-13736
▁nisa	-13737
▁njan	-13738
▁nnum	-13739
▁nods	-13740
▁noir	-13741
▁nola	-13742
▁ntro	-13743
▁ochi	-13744
▁ocum	-13745
▁odil	-13746
▁ogen	-13747
▁olce	-13748
▁oler	-13749
▁ompl	-13750
▁onya	-13751
▁ooda	-13752
▁oosi	-13753
▁orba	-13754
▁ouli	-13755
▁ovin	-13756
▁pane	-13757
▁punk	-13758
▁rado	-13759
▁rali	-13760
▁reek	-13761
▁reft	-13762
▁retz	-13763
▁rham	-13764
▁rias	-13765
▁rifi	-13766
▁rivo	-13767
▁riya	-13768
▁rjah	-13769
▁rphi	-13770
▁rtez	-13771
▁rtie	-13772
▁rvat	-13773
▁rème	-13774
▁seni	-13775
▁shka	-13776
▁sick	-13777
▁slee	-13778
▁snug	-13779
▁stas	-13780
▁tasa	-13781
▁thna	-13782
▁tipe	-13783
▁titi	-13784
▁tmus	-13785
▁trei	-13786
▁ttas	-13787
▁tudi	-13788
▁tunk	-13789
▁ukas	-13790
▁umin	-13791
▁ures	-13792
▁urty	-13793
▁urtz	-13794
▁uten	-13795
▁utur	-13796
▁vali	-13797
▁verg	-13798
▁vett	-13799
▁vgen	-13800
▁vila	-13801
▁voli	-13802
▁wani	-13803
▁widt	-13804
▁wilt	-13805
▁wyne	-13806
▁yani	-13807
▁ydon	-13808
▁yman	-13809
▁zure	-13810
▁éxic	-13811
▁úñez	-13812
▁հայտ	-13813
▁մամբ	-13814
▁վում	-13815
▁AUGHS	-13816
▁BREAM	-13817
▁YSRCP	-13818
▁adaga	-13819
▁agdal	-13820
▁agnus	-13821
▁ahiti	-13822
▁aisal	-13823
▁amage	-13824
▁andwa	-13825
▁ansal	-13826
▁anthi	-13827
▁arius	-13828
▁arrad	-13829
▁aseem	-13830
▁avory	-13831
▁azzar	-13832
▁cemen	-13833
▁crats	-13834
▁dhesi	-13835
▁dhika	-13836
▁echel	-13837
▁enske	-13838
▁entha	-13839
▁erona	-13840
▁flora	-13841
▁frock	-13842
▁froze	-13843
▁garde	-13844
▁garte	-13845
▁gente	-13846
▁glaze	-13847
▁gleam	-13848
▁grass	-13849
▁haled	-13850
▁harti	-13851
▁hashi	-13852
▁hlone	-13853
▁horde	-13854
▁husha	-13855
▁hynny	-13856
▁idder	-13857
▁iesta	-13858
▁illin	-13859
▁inden	-13860
▁ingam	-13861
▁isseu	-13862
▁karta	-13863
▁lazzo	-13864
▁leapt	-13865
▁leksi	-13866
▁lioma	-13867
▁lmain	-13868
▁loton	-13869
▁lotov	-13870
▁mitri	-13871
▁mytro	-13872
▁ndalk	-13873
▁ngega	-13874
▁nohar	-13875
▁oarse	-13876
▁obble	-13877
▁oirse	-13878
▁ombre	-13879
▁omond	-13880
▁onfir	-13881
▁overn	-13882
▁oyola	-13883
▁pathy	-13884
▁pertu	-13885
▁puram	-13886
▁ratah	-13887
▁redom	-13888
▁regma	-13889
▁rende	-13890
▁rgyle	-13891
▁rmond	-13892
▁rocus	-13893
▁roost	-13894
▁rphed	-13895
▁scoff	-13896
▁sconi	-13897
▁shnaw	-13898
▁shnoi	-13899
▁sholm	-13900
▁shtri	-13901
▁sitsi	-13902
▁slava	-13903
▁smael	-13904
▁ssipa	-13905
▁steba	-13906
▁stilt	-13907
▁tangy	-13908
▁taple	-13909
▁teddy	-13910
▁theoc	-13911
▁trott	-13912
▁tweed	-13913
▁ulisa	-13914
▁umbri	-13915
▁unken	-13916
▁ushar	-13917
▁usine	-13918
▁vdiiv	-13919
▁verde	-13920
▁wayne	-13921
▁worke	-13922
▁yllab	-13923
▁yndon	-13924
▁ynerg	-13925
/2	-13926
1.	-13927
11	-13928
48	-13929
55	-13930
7,	-13931
Al	-13932
BE	-13933
BL	-13934
DO	-13935
Ds	-13936
EU	-13937
Ed	-13938
FM	-13939
FW	-13940
HO	-13941
Me	-13942
OG	-13943
PE	-13944
rí	-13945
vs	-13946
եմ	-13947
սա	-13948
▁®	-13949
▁Å	-13950
▁ô	-13951
▁ճ	-13952
▁ւ	-13953
▁●	-13954
CHA	-13955
EMP	-13956
ICK	-13957
IPS	-13958
LIN	-13959
OCO	-13960
OPC	-13961
alt	-13962
can	-13963
cic	-13964
cin	-13965
din	-13966
dos	-13967
eto	-13968
ffi	-13969
fil	-13970
ire	-13971
mba	-13972
nea	-13973
nor	-13974
ogh	-13975
rer	-13976
rin	-13977
rio	-13978
unu	-13979
vah	-13980
van	-13981
yah	-13982
zuk	-13983
անա	-13984
▁0%	-13985
▁1"	-13986
▁AO	-13987
▁AX	-13988
▁CJ	-13989
▁Cr	-13990
▁Cs	-13991
▁Cô	-13992
▁DL	-13993
▁FD	-13994
▁HY	-13995
▁Hø	-13996
▁JI	-13997
▁KE	-13998
▁KI	-13999
▁KY	-14000
▁OX	-14001
▁Ol	-14002
▁Py	-14003
▁RW	-14004
▁Tü	-14005
▁gv	-14006
▁hd	-14007
▁iw	-14008
▁ió	-14009
▁lí	-14010
▁né	-14011
▁ró	-14012
▁sí	-14013
▁yk	-14014
▁ör	-14015
▁ախ	-14016
▁եխ	-14017
▁թի	-14018
▁վի	-14019
▁րի	-14020
▁քի	-14021
▁€3	-14022
faha	-14023
hish	-14024
▁"60	-14025
▁$13	-14026
▁$75	-14027
▁$99	-14028
▁0-1	-14029
▁0.1	-14030
▁0.2	-14031
▁007	-14032
▁1%.	-14033
▁111	-14034
▁114	-14035
▁122	-14036
▁126	-14037
▁131	-14038
▁147	-14039
▁174	-14040
▁193	-14041
▁195	-14042
▁215	-14043
▁266	-14044
▁3-5	-14045
▁31%	-14046
▁38.	-14047
▁4.7	-14048
▁41.	-14049
▁5.1	-14050
▁5.2	-14051
▁52.	-14052
▁59%	-14053
▁66.	-14054
▁72%	-14055
▁787	-14056
▁79,	-14057
▁850	-14058
▁86%	-14059
▁9.2	-14060
▁90,	-14061
▁97%	-14062
▁ABS	-14063
▁ANY	-14064
▁ARO	-14065
▁ASU	-14066
▁ATL	-14067
▁Abe	-14068
▁BFF	-14069
▁BSW	-14070
▁Bag	-14071
▁Bam	-14072
▁Bhi	-14073
▁Bot	-14074
▁CAF	-14075
▁CHP	-14076
▁CID	-14077
▁COS	-14078
▁Cly	-14079
▁DPP	-14080
▁EEA	-14081
▁Emi	-14082
▁FYI	-14083
▁Flu	-14084
▁GET	-14085
▁Gol	-14086
▁HAN	-14087
▁HHS	-14088
▁Hip	-14089
▁IAF	-14090
▁IGA	-14091
▁ISI	-14092
▁Imo	-14093
▁Ina	-14094
▁Ita	-14095
▁Jew	-14096
▁KFF	-14097
▁Klu	-14098
▁Koh	-14099
▁Kym	-14100
▁LAC	-14101
▁LMs	-14102
▁LNP	-14103
▁Lut	-14104
▁MCA	-14105
▁MLC	-14106
▁MMR	-14107
▁MPC	-14108
▁MyS	-14109
▁NIH	-14110
▁NXT	-14111
▁Noa	-14112
▁OGE	-14113
▁Ora	-14114
▁Oyo	-14115
▁PCs	-14116
▁PNG	-14117
▁POS	-14118
▁Phe	-14119
▁Pig	-14120
▁PwC	-14121
▁ROS	-14122
▁RSM	-14123
▁SAT	-14124
▁SKY	-14125
▁SSC	-14126
▁Sub	-14127
▁TEC	-14128
▁TRU	-14129
▁Tar	-14130
▁Tua	-14131
▁Tun	-14132
▁UCC	-14133
▁UPA	-14134
▁Uri	-14135
▁Vaz	-14136
▁WCK	-14137
▁YSL	-14138
▁aab	-14139
▁aas	-14140
▁aju	-14141
▁baz	-14142
▁bei	-14143
▁bob	-14144
▁cey	-14145
▁dab	-14146
▁dak	-14147
▁daw	-14148
▁dod	-14149
▁dyn	-14150
▁eio	-14151
▁eum	-14152
▁ewy	-14153
▁eán	-14154
▁eño	-14155
▁faç	-14156
▁gad	-14157
▁hac	-14158
▁hag	-14159
▁hao	-14160
▁hie	-14161
▁hui	-14162
▁iak	-14163
▁img	-14164
▁inz	-14165
▁itk	-14166
▁ivy	-14167
▁jog	-14168
▁ksh	-14169
▁msy	-14170
▁nev	-14171
▁nje	-14172
▁nyo	-14173
▁oka	-14174
▁otb	-14175
▁rji	-14176
▁rtb	-14177
▁sag	-14178
▁sam	-14179
▁sió	-14180
▁sku	-14181
▁sos	-14182
▁tka	-14183
▁ujo	-14184
▁ués	-14185
▁vex	-14186
▁wil	-14187
▁wir	-14188
▁yab	-14189
▁yad	-14190
▁éle	-14191
▁ñoz	-14192
▁անի	-14193
▁դատ	-14194
▁հատ	-14195
▁մեն	-14196
▁նոր	-14197
▁վեր	-14198
▁վրա	-14199
▁ANCE	-14200
▁Appl	-14201
▁Cald	-14202
▁GOAT	-14203
▁Gilc	-14204
▁Indy	-14205
▁Isha	-14206
▁Kato	-14207
▁Llan	-14208
▁MILL	-14209
▁NORC	-14210
▁PMQs	-14211
▁PRIL	-14212
▁STEM	-14213
▁TEMP	-14214
▁USPS	-14215
▁VIDE	-14216
▁Yoko	-14217
▁Yugo	-14218
▁abil	-14219
▁acas	-14220
▁acho	-14221
▁ahia	-14222
▁aika	-14223
▁ajak	-14224
▁ajid	-14225
▁akai	-14226
▁akob	-14227
▁alya	-14228
▁ammi	-14229
▁anco	-14230
▁ancu	-14231
▁anff	-14232
▁anko	-14233
▁anya	-14234
▁apas	-14235
▁apin	-14236
▁arit	-14237
▁arsi	-14238
▁asir	-14239
▁atma	-14240
▁avlo	-14241
▁ayak	-14242
▁bris	-14243
▁ccle	-14244
▁cera	-14245
▁ceta	-14246
▁chee	-14247
▁chur	-14248
▁crit	-14249
▁czuk	-14250
▁czyk	-14251
▁daft	-14252
▁ddim	-14253
▁dery	-14254
▁desz	-14255
▁digy	-14256
▁doni	-14257
▁dung	-14258
▁eaky	-14259
▁eary	-14260
▁eden	-14261
▁edri	-14262
▁eide	-14263
▁eila	-14264
▁eita	-14265
▁erdo	-14266
▁erdu	-14267
▁erea	-14268
▁eres	-14269
▁erke	-14270
▁ermo	-14271
▁erno	-14272
▁eroi	-14273
▁erza	-14274
▁esha	-14275
▁ezel	-14276
▁fier	-14277
▁fluo	-14278
▁geot	-14279
▁gild	-14280
▁goof	-14281
▁gore	-14282
▁gori	-14283
▁grub	-14284
▁guna	-14285
▁gyro	-14286
▁haja	-14287
▁hazi	-14288
▁hedo	-14289
▁hena	-14290
▁hirp	-14291
▁hosp	-14292
▁husk	-14293
▁ikil	-14294
▁inga	-14295
▁inky	-14296
▁inro	-14297
▁iogo	-14298
▁issa	-14299
▁itto	-14300
▁jbal	-14301
▁jmal	-14302
▁kale	-14303
▁kbar	-14304
▁kima	-14305
▁lair	-14306
▁lams	-14307
▁laye	-14308
▁lhan	-14309
▁liya	-14310
▁lkit	-14311
▁llay	-14312
▁llem	-14313
▁lmer	-14314
▁loin	-14315
▁lyne	-14316
▁magn	-14317
▁mead	-14318
▁mkar	-14319
▁mpol	-14320
▁muda	-14321
▁nace	-14322
▁naga	-14323
▁nays	-14324
▁ndwi	-14325
▁neer	-14326
▁nnot	-14327
▁nona	-14328
▁novi	-14329
▁nwar	-14330
▁obhi	-14331
▁oche	-14332
▁oddy	-14333
▁odrí	-14334
▁ogan	-14335
▁ogic	-14336
▁oife	-14337
▁ombe	-14338
▁ompa	-14339
▁onel	-14340
▁onis	-14341
▁onko	-14342
▁onzi	-14343
▁oona	-14344
▁oora	-14345
▁oote	-14346
▁opus	-14347
▁oron	-14348
▁oror	-14349
▁otra	-14350
▁owan	-14351
▁pero	-14352
▁pida	-14353
▁plic	-14354
▁pont	-14355
▁prot	-14356
▁pump	-14357
▁rabl	-14358
▁reib	-14359
▁rept	-14360
▁rmen	-14361
▁rnyn	-14362
▁rtex	-14363
▁rubb	-14364
▁sack	-14365
▁sall	-14366
▁sana	-14367
▁shma	-14368
▁shmi	-14369
▁shoo	-14370
▁siti	-14371
▁sium	-14372
▁smin	-14373
▁soud	-14374
▁ssau	-14375
▁ssay	-14376
▁ssum	-14377
▁stad	-14378
▁stov	-14379
▁syth	-14380
▁tacy	-14381
▁tarl	-14382
▁task	-14383
▁thru	-14384
▁thud	-14385
▁tich	-14386
▁tirz	-14387
▁toad	-14388
▁toon	-14389
▁ttun	-14390
▁typo	-14391
▁uary	-14392
▁ubba	-14393
▁uber	-14394
▁ucho	-14395
▁udol	-14396
▁uffa	-14397
▁ufti	-14398
▁ulus	-14399
▁umba	-14400
▁uxta	-14401
▁veka	-14402
▁waha	-14403
▁winc	-14404
▁wita	-14405
▁yang	-14406
▁ynop	-14407
▁york	-14408
▁yran	-14409
▁yush	-14410
▁zona	-14411
▁ալու	-14412
▁նում	-14413
▁ոլոր	-14414
▁փոխա	-14415
▁Corve	-14416
▁Keogh	-14417
▁RESEN	-14418
▁WOMAN	-14419
▁adden	-14420
▁agnum	-14421
▁agore	-14422
▁agram	-14423
▁ahiya	-14424
▁ahler	-14425
▁ahrir	-14426
▁aline	-14427
▁alise	-14428
▁ancee	-14429
▁andip	-14430
▁andre	-14431
▁angal	-14432
▁angan	-14433
▁angel	-14434
▁ardwi	-14435
▁arler	-14436
▁artik	-14437
▁artyr	-14438
▁ashim	-14439
▁askin	-14440
▁assis	-14441
▁asson	-14442
▁azirX	-14443
▁berna	-14444
▁carbo	-14445
▁chita	-14446
▁chrom	-14447
▁clava	-14448
▁dagni	-14449
▁dkari	-14450
▁donde	-14451
▁eauti	-14452
▁efeat	-14453
▁egean	-14454
▁enden	-14455
▁eneta	-14456
▁entro	-14457
▁ereva	-14458
▁erfor	-14459
▁ewari	-14460
▁eymar	-14461
▁eynes	-14462
▁eyton	-14463
▁fanta	-14464
▁fiori	-14465
▁floun	-14466
▁fussy	-14467
▁gesti	-14468
▁ghadi	-14469
▁ghdad	-14470
▁godfa	-14471
▁grift	-14472
▁groan	-14473
▁gwart	-14474
▁gwneu	-14475
▁haste	-14476
▁heron	-14477
▁hmani	-14478
▁iento	-14479
▁ilbao	-14480
▁immag	-14481
▁inkin	-14482
▁iocic	-14483
▁laran	-14484
▁lbini	-14485
▁leash	-14486
▁loner	-14487
▁lwell	-14488
▁lyest	-14489
▁malno	-14490
▁marca	-14491
▁melio	-14492
▁mirno	-14493
▁mmell	-14494
▁naste	-14495
▁nchov	-14496
▁ndeer	-14497
▁nesth	-14498
▁netic	-14499
▁ngoro	-14500
▁ngric	-14501
▁noodl	-14502
▁noord	-14503
▁ntell	-14504
▁nthal	-14505
▁nzhen	-14506
▁odora	-14507
▁ojana	-14508
▁ooooo	-14509
▁orena	-14510
▁orenz	-14511
▁otros	-14512
▁owled	-14513
▁pensi	-14514
▁phron	-14515
▁phyla	-14516
▁pokes	-14517
▁profe	-14518
▁rabhu	-14519
▁racha	-14520
▁rafat	-14521
▁raith	-14522
▁ramco	-14523
▁rande	-14524
▁rbita	-14525
▁rendo	-14526
▁rewsb	-14527
▁rphin	-14528
▁rroyo	-14529
▁rshad	-14530
▁rusty	-14531
▁saucy	-14532
▁sfaha	-14533
▁shkin	-14534
▁spada	-14535
▁spian	-14536
▁ssidu	-14537
▁ssoum	-14538
▁stall	-14539
▁stien	-14540
▁tamar	-14541
▁tamed	-14542
▁teinb	-14543
▁terni	-14544
▁terus	-14545
▁thell	-14546
▁tilla	-14547
▁trekk	-14548
▁uatro	-14549
▁ulane	-14550
▁urmet	-14551
▁vonne	-14552
▁wiser	-14553
▁wkeye	-14554
▁üller	-14555
▁համար	-14556
**	-14557
14	-14558
16	-14559
18	-14560
3,	-14561
45	-14562
DY	-14563
HR	-14564
Hi	-14565
IX	-14566
LF	-14567
MT	-14568
OD	-14569
PL	-14570
QA	-14571
SH	-14572
UE	-14573
VA	-14574
VP	-14575
XM	-14576
YO	-14577
aw	-14578
cc	-14579
gt	-14580
nm	-14581
rt	-14582
áz	-14583
êt	-14584
ío	-14585
եջ	-14586
վա	-14587
տա	-14588
▁Լ	-14589
▁Պ	-14590
GAS	-14591
STA	-14592
TLE	-14593
aru	-14594
chu	-14595
cik	-14596
cto	-14597
dod	-14598
esi	-14599
fel	-14600
heo	-14601
hey	-14602
hov	-14603
iac	-14604
kun	-14605
lav	-14606
lio	-14607
osa	-14608
rel	-14609
rya	-14610
uno	-14611
val	-14612
wyr	-14613
ïse	-14614
ïve	-14615
órd	-14616
յու	-14617
▁#6	-14618
▁(0	-14619
▁5"	-14620
▁Ad	-14621
▁CK	-14622
▁Ce	-14623
▁FF	-14624
▁HF	-14625
▁IJ	-14626
▁JW	-14627
▁Jü	-14628
▁LU	-14629
▁Nu	-14630
▁OW	-14631
▁RJ	-14632
▁Uy	-14633
▁YA	-14634
▁Yn	-14635
▁bé	-14636
▁dó	-14637
▁hh	-14638
▁hō	-14639
▁ić	-14640
▁ná	-14641
▁yy	-14642
▁él	-14643
▁ür	-14644
▁վա	-14645
▁րկ	-14646
▁€5	-14647
STON	-14648
bare	-14649
bell	-14650
nius	-14651
trak	-14652
▁!!!	-14653
▁#22	-14654
▁$16	-14655
▁$23	-14656
▁$33	-14657
▁$38	-14658
▁$61	-14659
▁(1)	-14660
▁(20	-14661
▁(22	-14662
▁(24	-14663
▁(40	-14664
▁(7)	-14665
▁(80	-14666
▁0.8	-14667
▁121	-14668
▁12:	-14669
▁137	-14670
▁148	-14671
▁158	-14672
▁168	-14673
▁177	-14674
▁182	-14675
▁189	-14676
▁2.9	-14677
▁211	-14678
▁218	-14679
▁251	-14680
▁264	-14681
▁3-4	-14682
▁3-6	-14683
▁3.0	-14684
▁304	-14685
▁30:	-14686
▁340	-14687
▁36.	-14688
▁365	-14689
▁4.1	-14690
▁4.4	-14691
▁43%	-14692
▁5.4	-14693
▁53.	-14694
▁6.1	-14695
▁62%	-14696
▁63%	-14697
▁66%	-14698
▁68.	-14699
▁74.	-14700
▁76.	-14701
▁77%	-14702
▁8-0	-14703
▁8.3	-14704
▁82%	-14705
▁83%	-14706
▁83.	-14707
▁84,	-14708
▁85,	-14709
▁87,	-14710
▁88,	-14711
▁AGO	-14712
▁AHL	-14713
▁ALP	-14714
▁ANA	-14715
▁AOC	-14716
▁APP	-14717
▁APS	-14718
▁ARS	-14719
▁ATH	-14720
▁Ari	-14721
▁Avi	-14722
▁BAE	-14723
▁BDS	-14724
▁BJD	-14725
▁BLM	-14726
▁BPA	-14727
▁BPM	-14728
▁BYU	-14729
▁CDU	-14730
▁CFA	-14731
▁CMS	-14732
▁COO	-14733
▁CRA	-14734
▁Cho	-14735
▁DAY	-14736
▁DJs	-14737
▁Deb	-14738
▁Dev	-14739
▁Dia	-14740
▁Dig	-14741
▁Doc	-14742
▁EBI	-14743
▁ECT	-14744
▁EDF	-14745
▁EFC	-14746
▁ENS	-14747
▁EOR	-14748
▁ERE	-14749
▁Eau	-14750
▁Faf	-14751
▁Fay	-14752
▁HDM	-14753
▁HIM	-14754
▁HSA	-14755
▁Hoy	-14756
▁Hui	-14757
▁Hun	-14758
▁IBM	-14759
▁IBS	-14760
▁IDs	-14761
▁IRF	-14762
▁Jet	-14763
▁Juv	-14764
▁KGB	-14765
▁KSI	-14766
▁Kah	-14767
▁Kaz	-14768
▁Kyi	-14769
▁LEC	-14770
▁LEX	-14771
▁LaC	-14772
▁MAR	-14773
▁MON	-14774
▁MOU	-14775
▁Miu	-14776
▁NAB	-14777
▁NES	-14778
▁NFP	-14779
▁NPC	-14780
▁NPS	-14781
▁Nia	-14782
▁OSC	-14783
▁OUR	-14784
▁Obi	-14785
▁PCB	-14786
▁PCE	-14787
▁PER	-14788
▁PET	-14789
▁PFL	-14790
▁PIN	-14791
▁PIP	-14792
▁PKK	-14793
▁PPS	-14794
▁PRK	-14795
▁PRO	-14796
▁PSA	-14797
▁PSN	-14798
▁Pac	-14799
▁Pit	-14800
▁RED	-14801
▁REL	-14802
▁RJD	-14803
▁Raw	-14804
▁Rus	-14805
▁SCO	-14806
▁SDF	-14807
▁SER	-14808
▁Sad	-14809
▁Sag	-14810
▁Saw	-14811
▁Sgt	-14812
▁Spy	-14813
▁Suu	-14814
▁São	-14815
▁TOS	-14816
▁Taj	-14817
▁Tui	-14818
▁UBT	-14819
▁ULA	-14820
▁UPS	-14821
▁Ukr	-14822
▁Ula	-14823
▁Uti	-14824
▁Ved	-14825
▁WTI	-14826
▁Wax	-14827
▁Yas	-14828
▁Yoo	-14829
▁Zhi	-14830
▁ags	-14831
▁bdi	-14832
▁bdu	-14833
▁bis	-14834
▁deh	-14835
▁eef	-14836
▁eiz	-14837
▁eya	-14838
▁eys	-14839
▁eál	-14840
▁iad	-14841
▁irt	-14842
▁jor	-14843
▁jör	-14844
▁kai	-14845
▁kee	-14846
▁kor	-14847
▁kpe	-14848
▁kph	-14849
▁kto	-14850
▁kul	-14851
▁kwa	-14852
▁kwi	-14853
▁kya	-14854
▁lbb	-14855
▁lph	-14856
▁lsa	-14857
▁lya	-14858
▁mew	-14859
▁mni	-14860
▁mpi	-14861
▁naz	-14862
▁nja	-14863
▁nze	-14864
▁oeb	-14865
▁ojo	-14866
▁onc	-14867
▁onv	-14868
▁roz	-14869
▁rye	-14870
▁rán	-14871
▁shl	-14872
▁sop	-14873
▁taw	-14874
▁tib	-14875
▁trö	-14876
▁uil	-14877
▁ukh	-14878
▁ulk	-14879
▁vag	-14880
▁waj	-14881
▁wok	-14882
▁wry	-14883
▁yee	-14884
▁yot	-14885
▁zah	-14886
▁zai	-14887
▁zej	-14888
▁zem	-14889
▁£24	-14890
▁čić	-14891
▁դրա	-14892
▁ինչ	-14893
▁կել	-14894
▁յաց	-14895
▁նից	-14896
▁պետ	-14897
▁AVID	-14898
▁Acco	-14899
▁Bare	-14900
▁CALI	-14901
▁CLAT	-14902
▁Córd	-14903
▁Côte	-14904
▁EGAS	-14905
▁FORN	-14906
▁FTER	-14907
▁Feet	-14908
▁GAIN	-14909
▁Gogh	-14910
▁HELL	-14911
▁Hume	-14912
▁Hygi	-14913
▁ILLE	-14914
▁IOPC	-14915
▁Illa	-14916
▁Kang	-14917
▁Load	-14918
▁MDMA	-14919
▁NEOS	-14920
▁NICE	-14921
▁Nast	-14922
▁OCHA	-14923
▁Octo	-14924
▁POCO	-14925
▁Plea	-14926
▁Senn	-14927
▁Syke	-14928
▁THAT	-14929
▁TOWN	-14930
▁TSMC	-14931
▁TURN	-14932
▁Tena	-14933
▁Tito	-14934
▁Tren	-14935
▁User	-14936
▁VIPs	-14937
▁WAGs	-14938
▁Waqf	-14939
▁Wyco	-14940
▁Yose	-14941
▁aari	-14942
▁abah	-14943
▁aban	-14944
▁abya	-14945
▁ackl	-14946
▁adid	-14947
▁aeth	-14948
▁afer	-14949
▁afka	-14950
▁agey	-14951
▁agno	-14952
▁ahin	-14953
▁aier	-14954
▁ajan	-14955
▁ajee	-14956
▁ajra	-14957
▁amra	-14958
▁anak	-14959
▁arba	-14960
▁arci	-14961
▁argi	-14962
▁asty	-14963
▁atom	-14964
▁atos	-14965
▁atsy	-14966
▁auri	-14967
▁avou	-14968
▁ayab	-14969
▁ayla	-14970
▁aziz	-14971
▁baum	-14972
▁bbat	-14973
▁bers	-14974
▁blat	-14975
▁breu	-14976
▁butt	-14977
▁byss	-14978
▁cart	-14979
▁ccoo	-14980
▁cedo	-14981
▁cold	-14982
▁daff	-14983
▁dala	-14984
▁dara	-14985
▁deft	-14986
▁dese	-14987
▁deth	-14988
▁dham	-14989
▁dría	-14990
▁dune	-14991
▁eSIM	-14992
▁eere	-14993
▁eima	-14994
▁eitr	-14995
▁elio	-14996
▁elst	-14997
▁elyn	-14998
▁enth	-14999
▁eong	-15000
▁epka	-15001
▁erhi	-15002
▁eriz	-15003
▁erle	-15004
▁ermè	-15005
▁erns	-15006
▁erny	-15007
▁erts	-15008
▁esos	-15009
▁etfa	-15010
▁evan	-15011
▁ewin	-15012
▁ewry	-15013
▁eych	-15014
▁fish	-15015
▁flak	-15016
▁fret	-15017
▁gags	-15018
▁gata	-15019
▁ggae	-15020
▁glut	-15021
▁haha	-15022
▁hala	-15023
▁haze	-15024
▁hiev	-15025
▁hima	-15026
▁hodi	-15027
▁huli	-15028
▁huna	-15029
▁hunb	-15030
▁iará	-15031
▁iath	-15032
▁idhi	-15033
▁iese	-15034
▁ighy	-15035
▁ikor	-15036
▁ingi	-15037
▁inke	-15038
▁inno	-15039
▁irti	-15040
▁itos	-15041
▁ivan	-15042
▁juga	-15043
▁kedi	-15044
▁keri	-15045
▁knob	-15046
▁lany	-15047
▁lapi	-15048
▁leer	-15049
▁lemi	-15050
▁lera	-15051
▁llov	-15052
▁luka	-15053
▁luke	-15054
▁lund	-15055
▁meta	-15056
▁metz	-15057
▁moon	-15058
▁mrit	-15059
▁nesc	-15060
▁ngus	-15061
▁nisi	-15062
▁nits	-15063
▁node	-15064
▁nous	-15065
▁ntan	-15066
▁ntor	-15067
▁ntón	-15068
▁olgo	-15069
▁olis	-15070
▁omme	-15071
▁onam	-15072
▁ongu	-15073
▁onus	-15074
▁orca	-15075
▁orka	-15076
▁osas	-15077
▁oshi	-15078
▁otto	-15079
▁ousa	-15080
▁ovde	-15081
▁pcom	-15082
▁pipe	-15083
▁pong	-15084
▁poop	-15085
▁pout	-15086
▁pram	-15087
▁raga	-15088
▁ragh	-15089
▁raja	-15090
▁rana	-15091
▁rbet	-15092
▁rdia	-15093
▁rech	-15094
▁remn	-15095
▁reun	-15096
▁rges	-15097
▁rmor	-15098
▁ronu	-15099
▁rsch	-15100
▁rski	-15101
▁rtak	-15102
▁rthi	-15103
▁rtun	-15104
▁rtyn	-15105
▁rudi	-15106
▁rumb	-15107
▁rumm	-15108
▁ryer	-15109
▁sain	-15110
▁saxo	-15111
▁seer	-15112
▁shmu	-15113
▁sich	-15114
▁ssef	-15115
▁taib	-15116
▁tarp	-15117
▁tarr	-15118
▁teed	-15119
▁thio	-15120
▁toma	-15121
▁trab	-15122
▁tram	-15123
▁tute	-15124
▁tway	-15125
▁ucce	-15126
▁uche	-15127
▁uede	-15128
▁ugan	-15129
▁unty	-15130
▁urce	-15131
▁urlo	-15132
▁uruk	-15133
▁usXM	-15134
▁usab	-15135
▁uval	-15136
▁vano	-15137
▁venc	-15138
▁veng	-15139
▁verb	-15140
▁vile	-15141
▁vost	-15142
▁wail	-15143
▁warz	-15144
▁witt	-15145
▁xpan	-15146
▁ylve	-15147
▁ylvi	-15148
▁ynon	-15149
▁yres	-15150
▁yrin	-15151
▁zaki	-15152
▁zhin	-15153
▁zmin	-15154
▁zrao	-15155
▁Իսրա	-15156
▁արգա	-15157
▁ստան	-15158
▁Marti	-15159
▁Moïse	-15160
▁OSTON	-15161
▁TRUMP	-15162
▁aalii	-15163
▁addin	-15164
▁aiser	-15165
▁alaam	-15166
▁alkin	-15167
▁allop	-15168
▁ambio	-15169
▁annua	-15170
▁anted	-15171
▁armar	-15172
▁arnik	-15173
▁aroni	-15174
▁arzan	-15175
▁asado	-15176
▁atsby	-15177
▁auber	-15178
▁awasi	-15179
▁axony	-15180
▁ccato	-15181
▁choke	-15182
▁cione	-15183
▁cking	-15184
▁coach	-15185
▁crumb	-15186
▁dbare	-15187
▁ddell	-15188
▁docto	-15189
▁drumi	-15190
▁dular	-15191
▁dysmo	-15192
▁earne	-15193
▁edden	-15194
▁eesha	-15195
▁efend	-15196
▁egasu	-15197
▁egger	-15198
▁egula	-15199
▁eliba	-15200
▁ellon	-15201
▁emana	-15202
▁entia	-15203
▁epart	-15204
▁epoch	-15205
▁errod	-15206
▁eshav	-15207
▁ethau	-15208
▁eveni	-15209
▁fecta	-15210
▁ffice	-15211
▁giddy	-15212
▁gladi	-15213
▁glued	-15214
▁gotry	-15215
▁grins	-15216
▁hacer	-15217
▁haikh	-15218
▁hazel	-15219
▁heath	-15220
▁hiver	-15221
▁houri	-15222
▁hukla	-15223
▁hushi	-15224
▁illan	-15225
▁indal	-15226
▁ingia	-15227
▁istro	-15228
▁ixies	-15229
▁khaki	-15230
▁koala	-15231
▁kunku	-15232
▁kurta	-15233
▁laman	-15234
▁layan	-15235
▁layas	-15236
▁lazar	-15237
▁ldrum	-15238
▁lench	-15239
▁lesha	-15240
▁lesta	-15241
▁levie	-15242
▁levin	-15243
▁liyah	-15244
▁lkali	-15245
▁lnius	-15246
▁lumsi	-15247
▁lwark	-15248
▁mandi	-15249
▁matte	-15250
▁meaty	-15251
▁menco	-15252
▁mento	-15253
▁mower	-15254
▁mport	-15255
▁mtrak	-15256
▁mulus	-15257
▁naïve	-15258
▁nemic	-15259
▁ngeri	-15260
▁njali	-15261
▁njeev	-15262
▁noopy	-15263
▁nsali	-15264
▁ntago	-15265
▁ntrum	-15266
▁nylon	-15267
▁oeuvr	-15268
▁ogano	-15269
▁ognac	-15270
▁olano	-15271
▁oldov	-15272
▁oogie	-15273
▁oomph	-15274
▁ordna	-15275
▁orode	-15276
▁osteo	-15277
▁paste	-15278
▁phany	-15279
▁phemi	-15280
▁raghi	-15281
▁rillo	-15282
▁rinda	-15283
▁ringu	-15284
▁rixto	-15285
▁rkiye	-15286
▁rogno	-15287
▁romit	-15288
▁rover	-15289
▁rphia	-15290
▁rtake	-15291
▁rtier	-15292
▁rtini	-15293
▁rumma	-15294
▁savag	-15295
▁shdod	-15296
▁shish	-15297
▁shund	-15298
▁shwag	-15299
▁simil	-15300
▁smane	-15301
▁sneez	-15302
▁sotho	-15303
▁stach	-15304
▁stava	-15305
▁stavo	-15306
▁stema	-15307
▁swald	-15308
▁swara	-15309
▁swick	-15310
▁tando	-15311
▁tense	-15312
▁terio	-15313
▁thala	-15314
▁theus	-15315
▁thias	-15316
▁thyme	-15317
▁troot	-15318
▁tvian	-15319
▁twink	-15320
▁ufasa	-15321
▁uigde	-15322
▁vacic	-15323
▁vanth	-15324
▁vapor	-15325
▁vesti	-15326
▁warze	-15327
▁wooed	-15328
▁yatra	-15329
▁ycoph	-15330
▁ynthe	-15331
▁կազմա	-15332
19	-15333
21	-15334
4,	-15335
80	-15336
CO	-15337
EP	-15338
IK	-15339
NE	-15340
RL	-15341
dh	-15342
eo	-15343
ig	-15344
og	-15345
sp	-15346
tr	-15347
xb	-15348
xe	-15349
ys	-15350
én	-15351
ël	-15352
ñe	-15353
ՄՆ	-15354
զա	-15355
ոգ	-15356
▁Â	-15357
▁ղ	-15358
▁ռ	-15359
Car	-15360
ICH	-15361
IDA	-15362
LAS	-15363
RCH	-15364
UST	-15365
YMI	-15366
atz	-15367
bah	-15368
cie	-15369
ciu	-15370
deh	-15371
eny	-15372
ffa	-15373
gal	-15374
hew	-15375
idd	-15376
lev	-15377
lis	-15378
lli	-15379
nar	-15380
oba	-15381
omy	-15382
oty	-15383
pal	-15384
ria	-15385
roe	-15386
ura	-15387
uru	-15388
uts	-15389
vig	-15390
vil	-15391
wyn	-15392
zal	-15393
լխա	-15394
րան	-15395
▁"2	-15396
▁0,	-15397
▁6)	-15398
▁BI	-15399
▁BK	-15400
▁CY	-15401
▁DF	-15402
▁EF	-15403
▁FY	-15404
▁GD	-15405
▁Hé	-15406
▁KH	-15407
▁LB	-15408
▁LV	-15409
▁MQ	-15410
▁Md	-15411
▁NK	-15412
▁PL	-15413
▁QS	-15414
▁RD	-15415
▁Uh	-15416
▁Wr	-15417
▁XS	-15418
▁YT	-15419
▁bp	-15420
▁dè	-15421
▁eF	-15422
▁hk	-15423
▁hz	-15424
▁iG	-15425
▁iM	-15426
▁mz	-15427
▁ní	-15428
▁pH	-15429
▁sj	-15430
▁sv	-15431
▁tv	-15432
▁xG	-15433
▁zc	-15434
▁éz	-15435
▁ño	-15436
▁Այ	-15437
▁աղ	-15438
▁գտ	-15439
▁դի	-15440
▁եռ	-15441
▁թֆ	-15442
▁ժշ	-15443
▁կո	-15444
▁հր	-15445
▁տա	-15446
arda	-15447
cett	-15448
illa	-15449
ndch	-15450
reck	-15451
ture	-15452
weud	-15453
▁$22	-15454
▁$26	-15455
▁$27	-15456
▁$55	-15457
▁(12	-15458
▁(3)	-15459
▁(30	-15460
▁(8)	-15461
▁000	-15462
▁020	-15463
▁1,"	-15464
▁1.9	-15465
▁104	-15466
▁133	-15467
▁156	-15468
▁159	-15469
▁161	-15470
▁18:	-15471
▁192	-15472
▁2%.	-15473
▁212	-15474
▁25:	-15475
▁274	-15476
▁290	-15477
▁3.8	-15478
▁301	-15479
▁310	-15480
▁32.	-15481
▁320	-15482
▁346	-15483
▁390	-15484
▁4).	-15485
▁4.0	-15486
▁49%	-15487
▁538	-15488
▁57.	-15489
▁58%	-15490
▁6-5	-15491
▁6.3	-15492
▁6.7	-15493
▁62.	-15494
▁650	-15495
▁7.3	-15496
▁7.6	-15497
▁73%	-15498
▁81.	-15499
▁86,	-15500
▁87%	-15501
▁89%	-15502
▁95.	-15503
▁98%	-15504
▁98,	-15505
▁ADR	-15506
▁ALD	-15507
▁AMR	-15508
▁ARK	-15509
▁ARL	-15510
▁ATA	-15511
▁ATF	-15512
▁BCA	-15513
▁BHF	-15514
▁BRA	-15515
▁BSE	-15516
▁BSF	-15517
▁Bae	-15518
▁Bol	-15519
▁CAD	-15520
▁CAT	-15521
▁CBT	-15522
▁CEN	-15523
▁CIO	-15524
▁CQC	-15525
▁CSU	-15526
▁Cod	-15527
▁DCI	-15528
▁DOC	-15529
▁DPC	-15530
▁DRS	-15531
▁Dak	-15532
▁EBR	-15533
▁ELL	-15534
▁EMI	-15535
▁ENG	-15536
▁EPS	-15537
▁ETH	-15538
▁Eze	-15539
▁FSD	-15540
▁Fix	-15541
▁GCC	-15542
▁GHz	-15543
▁GMO	-15544
▁GPA	-15545
▁Gel	-15546
▁Gio	-15547
▁Gut	-15548
▁HOT	-15549
▁HOW	-15550
▁HSC	-15551
▁Haq	-15552
▁Hum	-15553
▁Høj	-15554
▁ICO	-15555
▁IES	-15556
▁IFT	-15557
▁INN	-15558
▁ISL	-15559
▁Jak	-15560
▁KFC	-15561
▁Kas	-15562
▁LDL	-15563
▁LLM	-15564
▁LaP	-15565
▁LaR	-15566
▁Lau	-15567
▁Lie	-15568
▁LoP	-15569
▁Loh	-15570
▁MAC	-15571
▁MCU	-15572
▁MED	-15573
▁MET	-15574
▁MIL	-15575
▁MRP	-15576
▁MSI	-15577
▁Mau	-15578
▁Moo	-15579
▁NCC	-15580
▁NDP	-15581
▁NLI	-15582
▁NOR	-15583
▁NRC	-15584
▁Nag	-15585
▁OCT	-15586
▁OHN	-15587
▁Oba	-15588
▁Odu	-15589
▁Own	-15590
▁PCC	-15591
▁PCN	-15592
▁PDF	-15593
▁Pax	-15594
▁RHS	-15595
▁RMT	-15596
▁ROB	-15597
▁RON	-15598
▁RTE	-15599
▁SAM	-15600
▁SAP	-15601
▁SEA	-15602
▁SFA	-15603
▁SFC	-15604
▁SSD	-15605
▁STA	-15606
▁STI	-15607
▁TCG	-15608
▁TES	-15609
▁TTP	-15610
▁Tie	-15611
▁Toy	-15612
▁Twe	-15613
▁Umm	-15614
▁VMs	-15615
▁Vox	-15616
▁WBA	-15617
▁WBO	-15618
▁WSJ	-15619
▁WTC	-15620
▁WTF	-15621
▁Won	-15622
▁XLM	-15623
▁YES	-15624
▁Yin	-15625
▁abl	-15626
▁aer	-15627
▁arf	-15628
▁así	-15629
▁awi	-15630
▁año	-15631
▁cht	-15632
▁cic	-15633
▁dag	-15634
▁dei	-15635
▁dew	-15636
▁dil	-15637
▁dka	-15638
▁dna	-15639
▁eez	-15640
▁eik	-15641
▁eix	-15642
▁eoh	-15643
▁esb	-15644
▁eyk	-15645
▁fol	-15646
▁ghi	-15647
▁gol	-15648
▁gyd	-15649
▁gyr	-15650
▁hex	-15651
▁hig	-15652
▁huh	-15653
▁itb	-15654
▁kam	-15655
▁khe	-15656
▁kru	-15657
▁kut	-15658
▁lbo	-15659
▁lep	-15660
▁lge	-15661
▁lki	-15662
▁lok	-15663
▁loé	-15664
▁lpa	-15665
▁lux	-15666
▁lyc	-15667
▁nav	-15668
▁nig	-15669
▁noz	-15670
▁nét	-15671
▁ooh	-15672
▁oum	-15673
▁qué	-15674
▁rau	-15675
▁rox	-15676
▁ryl	-15677
▁ría	-15678
▁sac	-15679
▁sir	-15680
▁skr	-15681
▁sut	-15682
▁taa	-15683
▁tei	-15684
▁tez	-15685
▁tfi	-15686
▁tsy	-15687
▁tts	-15688
▁umo	-15689
▁uph	-15690
▁uso	-15691
▁uza	-15692
▁vad	-15693
▁vik	-15694
▁vri	-15695
▁vya	-15696
▁wod	-15697
▁wyr	-15698
▁yay	-15699
▁yew	-15700
▁yuk	-15701
▁zag	-15702
▁zhy	-15703
▁£27	-15704
▁£45	-15705
▁ԱՄՆ	-15706
▁այդ	-15707
▁արի	-15708
▁երի	-15709
▁զգա	-15710
▁միջ	-15711
▁նեց	-15712
▁շար	-15713
▁ուն	-15714
▁պայ	-15715
▁ջար	-15716
▁տես	-15717
▁AFLW	-15718
▁ASIO	-15719
▁Baal	-15720
▁Bloc	-15721
▁CDPH	-15722
▁CHIC	-15723
▁COAS	-15724
▁COLA	-15725
▁Coul	-15726
▁Culv	-15727
▁Curt	-15728
▁EFCC	-15729
▁ETRO	-15730
▁FAST	-15731
▁FORD	-15732
▁GPUs	-15733
▁HOME	-15734
▁IDEN	-15735
▁IMDb	-15736
▁INCE	-15737
▁IPPR	-15738
▁ISTO	-15739
▁Kaif	-15740
▁Kana	-15741
▁Kare	-15742
▁Kilb	-15743
▁LAAD	-15744
▁LIFE	-15745
▁LiRT	-15746
▁MBER	-15747
▁MSCI	-15748
▁MacA	-15749
▁MacG	-15750
▁MacN	-15751
▁NFTs	-15752
▁NICs	-15753
▁Nuss	-15754
▁OBER	-15755
▁OKYO	-15756
▁ONOR	-15757
▁Ogwu	-15758
▁PHER	-15759
▁RAIN	-15760
▁ROCK	-15761
▁ROME	-15762
▁STON	-15763
▁TASS	-15764
▁Toto	-15765
▁Tria	-15766
▁UASU	-15767
▁Used	-15768
▁VERD	-15769
▁Vang	-15770
▁Vela	-15771
▁WEEK	-15772
▁Wynd	-15773
▁aama	-15774
▁abbi	-15775
▁abir	-15776
▁acke	-15777
▁ageo	-15778
▁agma	-15779
▁agne	-15780
▁agnu	-15781
▁agri	-15782
▁ahat	-15783
▁ahim	-15784
▁aidt	-15785
▁aigo	-15786
▁aird	-15787
▁ajaj	-15788
▁ajpa	-15789
▁akul	-15790
▁alud	-15791
▁alzb	-15792
▁amda	-15793
▁amee	-15794
▁amma	-15795
▁angh	-15796
▁anth	-15797
▁apan	-15798
▁arbi	-15799
▁arot	-15800
▁arzi	-15801
▁asen	-15802
▁aska	-15803
▁ataj	-15804
▁atil	-15805
▁avra	-15806
▁awri	-15807
▁axal	-15808
▁ayal	-15809
▁ayat	-15810
▁ayno	-15811
▁bach	-15812
▁bain	-15813
▁baja	-15814
▁bbot	-15815
▁bear	-15816
▁cala	-15817
▁cari	-15818
▁carj	-15819
▁cile	-15820
▁crop	-15821
▁cuti	-15822
▁dane	-15823
▁dans	-15824
▁darn	-15825
▁ddam	-15826
▁delv	-15827
▁digi	-15828
▁dion	-15829
▁dmit	-15830
▁doxi	-15831
▁duit	-15832
▁dyen	-15833
▁eade	-15834
▁eadl	-15835
▁eake	-15836
▁eara	-15837
▁ecan	-15838
▁eclu	-15839
▁ecur	-15840
▁eene	-15841
▁einz	-15842
▁emes	-15843
▁enel	-15844
▁enol	-15845
▁ensh	-15846
▁eodo	-15847
▁eoli	-15848
▁erat	-15849
▁erdy	-15850
▁erik	-15851
▁erka	-15852
▁erlu	-15853
▁essl	-15854
▁exor	-15855
▁fern	-15856
▁flea	-15857
▁gana	-15858
▁ganj	-15859
▁gash	-15860
▁gawa	-15861
▁ggar	-15862
▁ghet	-15863
▁haga	-15864
▁heda	-15865
▁hede	-15866
▁heez	-15867
▁hemy	-15868
▁heny	-15869
▁heol	-15870
▁hese	-15871
▁hian	-15872
▁hias	-15873
▁hoga	-15874
▁hong	-15875
▁htak	-15876
▁hula	-15877
▁hurs	-15878
▁iQOO	-15879
▁iana	-15880
▁icht	-15881
▁iema	-15882
▁ikiL	-15883
▁ilah	-15884
▁imed	-15885
▁immo	-15886
▁inay	-15887
▁ineh	-15888
▁inho	-15889
▁inot	-15890
▁iptr	-15891
▁isto	-15892
▁izur	-15893
▁izzi	-15894
▁jaha	-15895
▁jeet	-15896
▁kala	-15897
▁keto	-15898
▁kiti	-15899
▁kola	-15900
▁kura	-15901
▁laba	-15902
▁lach	-15903
▁lada	-15904
▁lala	-15905
▁latc	-15906
▁lave	-15907
▁leek	-15908
▁leen	-15909
▁lema	-15910
▁lemm	-15911
▁lene	-15912
▁leta	-15913
▁lili	-15914
▁limi	-15915
▁lkie	-15916
▁llad	-15917
▁lloy	-15918
▁llup	-15919
▁lorn	-15920
▁loud	-15921
▁lsam	-15922
▁lten	-15923
▁lvey	-15924
▁lyna	-15925
▁lyph	-15926
▁lyth	-15927
▁mael	-15928
▁manc	-15929
▁mcha	-15930
▁meno	-15931
▁migo	-15932
▁mmac	-15933
▁mojo	-15934
▁moso	-15935
▁msel	-15936
▁mzan	-15937
▁naea	-15938
▁naff	-15939
▁ndha	-15940
▁ndor	-15941
▁nefa	-15942
▁nego	-15943
▁neka	-15944
▁ngri	-15945
▁niya	-15946
▁nkot	-15947
▁noho	-15948
▁nole	-15949
▁nore	-15950
▁nsul	-15951
▁ntri	-15952
▁oacá	-15953
▁oats	-15954
▁ochy	-15955
▁odhi	-15956
▁odie	-15957
▁oiri	-15958
▁ojan	-15959
▁omad	-15960
▁omax	-15961
▁onar	-15962
▁onas	-15963
▁onja	-15964
▁onsi	-15965
▁onty	-15966
▁opra	-15967
▁orks	-15968
▁osca	-15969
▁oulo	-15970
▁ouma	-15971
▁oyer	-15972
▁pade	-15973
▁pard	-15974
▁peck	-15975
▁plow	-15976
▁pold	-15977
▁pole	-15978
▁pova	-15979
▁rach	-15980
▁rags	-15981
▁raps	-15982
▁rato	-15983
▁raud	-15984
▁rdal	-15985
▁reel	-15986
▁reig	-15987
▁rere	-15988
▁rewe	-15989
▁rgaz	-15990
▁rgis	-15991
▁rgue	-15992
▁rhub	-15993
▁ridi	-15994
▁rigl	-15995
▁rigo	-15996
▁riou	-15997
▁rivy	-15998
▁rowi	-15999
▁rrid	-16000
▁rsha	-16001
▁rumi	-16002
▁rung	-16003
▁ryen	-16004
▁ryng	-16005
▁rédé	-16006
▁saba	-16007
▁shun	-16008
▁sied	-16009
▁sino	-16010
▁ssim	-16011
▁stha	-16012
▁stoc	-16013
▁tamp	-16014
▁tees	-16015
▁thak	-16016
▁tili	-16017
▁timi	-16018
▁tins	-16019
▁tnam	-16020
▁trix	-16021
▁trup	-16022
▁tröm	-16023
▁tson	-16024
▁ttan	-16025
▁ttin	-16026
▁ttir	-16027
▁uart	-16028
▁ucek	-16029
▁ukha	-16030
▁ulic	-16031
▁ulip	-16032
▁umio	-16033
▁ungo	-16034
▁unna	-16035
▁unto	-16036
▁upay	-16037
▁upur	-16038
▁uraj	-16039
▁urha	-16040
▁urle	-16041
▁urus	-16042
▁uspi	-16043
▁uvin	-16044
▁vrou	-16045
▁vska	-16046
▁waft	-16047
▁whey	-16048
▁xide	-16049
▁xpen	-16050
▁xyno	-16051
▁yaar	-16052
▁yobs	-16053
▁ypro	-16054
▁yton	-16055
▁yyan	-16056
▁գլխա	-16057
▁դում	-16058
▁յուն	-16059
▁սմար	-16060
▁CHIPS	-16061
▁CHRIS	-16062
▁HARRY	-16063
▁ICYMI	-16064
▁ITTLE	-16065
▁Knott	-16066
▁Kroos	-16067
▁NSCDC	-16068
▁Stree	-16069
▁TOWIE	-16070
▁Theme	-16071
▁Tsuna	-16072
▁UGUST	-16073
▁Valle	-16074
▁Wreck	-16075
▁aboso	-16076
▁actua	-16077
▁addon	-16078
▁addox	-16079
▁adler	-16080
▁affar	-16081
▁aghav	-16082
▁agogo	-16083
▁agyar	-16084
▁aholi	-16085
▁aised	-16086
▁align	-16087
▁aliva	-16088
▁allam	-16089
▁andaV	-16090
▁andor	-16091
▁andow	-16092
▁andro	-16093
▁ansah	-16094
▁ardyc	-16095
▁arlan	-16096
▁armon	-16097
▁arted	-16098
▁aryan	-16099
▁assee	-16100
▁astin	-16101
▁atred	-16102
▁awick	-16103
▁booby	-16104
▁cabre	-16105
▁cchio	-16106
▁cente	-16107
▁clysm	-16108
▁colic	-16109
▁crack	-16110
▁cybin	-16111
▁demás	-16112
▁dweud	-16113
▁dwick	-16114
▁dyCar	-16115
▁eater	-16116
▁ectin	-16117
▁edric	-16118
▁egard	-16119
▁eigen	-16120
▁eisha	-16121
▁emain	-16122
▁engen	-16123
▁ennie	-16124
▁ensel	-16125
▁ensen	-16126
▁entee	-16127
▁erati	-16128
▁erina	-16129
▁erlad	-16130
▁erton	-16131
▁eslav	-16132
▁esthe	-16133
▁estre	-16134
▁faith	-16135
▁ffray	-16136
▁flout	-16137
▁gagwa	-16138
▁garda	-16139
▁genea	-16140
▁glean	-16141
▁glint	-16142
▁googl	-16143
▁greyh	-16144
▁grini	-16145
▁guchi	-16146
▁gusto	-16147
▁hahed	-16148
▁hayne	-16149
▁heery	-16150
▁hefyd	-16151
▁henga	-16152
▁hisel	-16153
▁horny	-16154
▁ijiju	-16155
▁ilded	-16156
▁ilian	-16157
▁illey	-16158
▁indra	-16159
▁inist	-16160
▁itali	-16161
▁itani	-16162
▁ittel	-16163
▁itton	-16164
▁kanth	-16165
▁khali	-16166
▁kkari	-16167
▁kkina	-16168
▁kylar	-16169
▁laden	-16170
▁lande	-16171
▁larna	-16172
▁laswe	-16173
▁latte	-16174
▁leggy	-16175
▁letal	-16176
▁lewis	-16177
▁lisha	-16178
▁ltola	-16179
▁lture	-16180
▁lumin	-16181
▁manna	-16182
▁meier	-16183
▁mhara	-16184
▁mondo	-16185
▁mpala	-16186
▁mycin	-16187
▁natal	-16188
▁ndalu	-16189
▁ndial	-16190
▁ndrii	-16191
▁nesar	-16192
▁nexus	-16193
▁ngray	-16194
▁nibal	-16195
▁nibbl	-16196
▁nisha	-16197
▁nnest	-16198
▁ntero	-16199
▁ntomi	-16200
▁obago	-16201
▁obrov	-16202
▁oftus	-16203
▁ohsin	-16204
▁olana	-16205
▁oleil	-16206
▁oligo	-16207
▁oliti	-16208
▁olore	-16209
▁olyte	-16210
▁onfer	-16211
▁onoma	-16212
▁ordes	-16213
▁ordid	-16214
▁orkin	-16215
▁orley	-16216
▁ormat	-16217
▁orsch	-16218
▁oslov	-16219
▁othen	-16220
▁oudon	-16221
▁owatt	-16222
▁phalt	-16223
▁pheus	-16224
▁phile	-16225
▁pilot	-16226
▁platz	-16227
▁print	-16228
▁priya	-16229
▁prove	-16230
▁rafto	-16231
▁rasha	-16232
▁rasil	-16233
▁ravda	-16234
▁rayon	-16235
▁rcane	-16236
▁recel	-16237
▁rensh	-16238
▁reyer	-16239
▁rgama	-16240
▁rghum	-16241
▁rphan	-16242
▁rties	-16243
▁rwish	-16244
▁ryani	-16245
▁salin	-16246
▁scarf	-16247
▁shank	-16248
▁shise	-16249
▁snark	-16250
▁ssett	-16251
▁sties	-16252
▁stika	-16253
▁stmen	-16254
▁strac	-16255
▁stray	-16256
▁strio	-16257
▁tadel	-16258
▁tanya	-16259
▁taper	-16260
▁teleh	-16261
▁tence	-16262
▁tench	-16263
▁tenor	-16264
▁theti	-16265
▁thiya	-16266
▁todos	-16267
▁toire	-16268
▁torto	-16269
▁toshi	-16270
▁trian	-16271
▁trier	-16272
▁ttach	-16273
▁tteri	-16274
▁ttima	-16275
▁ucius	-16276
▁udlow	-16277
▁udvig	-16278
▁umami	-16279
▁ununu	-16280
▁urasi	-16281
▁urtzi	-16282
▁usser	-16283
▁utnik	-16284
▁vapou	-16285
▁vende	-16286
▁verda	-16287
▁wcett	-16288
▁wente	-16289
▁yalur	-16290
▁yjama	-16291
▁yloid	-16292
▁ymied	-16293
▁ynsey	-16294
▁ynter	-16295
▁ypher	-16296
▁yzant	-16297
▁zhdin	-16298
▁ündch	-16299
.;	-16300
17	-16301
3.	-16302
5,	-16303
63	-16304
CK	-16305
CT	-16306
DH	-16307
EF	-16308
IB	-16309
IV	-16310
JA	-16311
VC	-16312
VI	-16313
YN	-16314
YY	-16315
aa	-16316
bn	-16317
dr	-16318
hs	-16319
lé	-16320
tz	-16321
wl	-16322
wr	-16323
yu	-16324
ãe	-16325
ôn	-16326
ún	-16327
մի	-16328
նդ	-16329
րո	-16330
▁¡	-16331
▁å	-16332
▁ç	-16333
▁ë	-16334
▁đ	-16335
▁Դ	-16336
▁Ը	-16337
▁Ֆ	-16338
▁😂	-16339
▁😭	-16340
▁🤣	-16341
▁🥹	-16342
ATS	-16343
Hub	-16344
ISH	-16345
LEA	-16346
LED	-16347
LUE	-16348
MAS	-16349
MCA	-16350
MEs	-16351
UMA	-16352
YIV	-16353
arh	-16354
ats	-16355
bey	-16356
cke	-16357
eel	-16358
enb	-16359
hap	-16360
haw	-16361
jam	-16362
kur	-16363
lad	-16364
lei	-16365
leo	-16366
lik	-16367
mat	-16368
mbo	-16369
nip	-16370
obl	-16371
ois	-16372
opa	-16373
pam	-16374
ppi	-16375
sov	-16376
tis	-16377
tle	-16378
tom	-16379
tsy	-16380
tte	-16381
usu	-16382
vin	-16383
zer	-16384
áfi	-16385
եղի	-16386
▁"7	-16387
▁2'	-16388
▁3-	-16389
▁4/	-16390
▁7)	-16391
▁7:	-16392
▁8)	-16393
▁9)	-16394
▁AH	-16395
▁BF	-16396
▁BN	-16397
▁DK	-16398
▁Df	-16399
▁EW	-16400
▁FR	-16401
▁GG	-16402
▁GN	-16403
▁GV	-16404
▁HL	-16405
▁IO	-16406
▁Ig	-16407
▁Im	-16408
▁Iw	-16409
▁Kl	-16410
▁LM	-16411
▁Os	-16412
▁PN	-16413
▁Qi	-16414
▁TX	-16415
▁TY	-16416
▁UD	-16417
▁VF	-16418
▁VK	-16419
▁VV	-16420
▁WD	-16421
▁eG	-16422
▁eM	-16423
▁gb	-16424
▁gé	-16425
▁iR	-16426
▁lz	-16427
▁má	-16428
▁nD	-16429
▁pw	-16430
▁rü	-16431
▁tó	-16432
▁vn	-16433
▁ál	-16434
▁ñi	-16435
▁ôl	-16436
▁ած	-16437
▁ատ	-16438
▁եմ	-16439
▁ես	-16440
▁իս	-16441
▁յս	-16442
▁շր	-16443
▁ռա	-16444
▁տե	-16445
▁տի	-16446
▁ւղ	-16447
▁€4	-16448
arta	-16449
buro	-16450
essa	-16451
gner	-16452
noea	-16453
ourt	-16454
▁"48	-16455
▁$28	-16456
▁$29	-16457
▁$36	-16458
▁$45	-16459
▁$53	-16460
▁$68	-16461
▁$90	-16462
▁$95	-16463
▁(19	-16464
▁(25	-16465
▁(28	-16466
▁(31	-16467
▁(49	-16468
▁(5)	-16469
▁(50	-16470
▁(6)	-16471
▁(71	-16472
▁0.9	-16473
▁07,	-16474
▁08,	-16475
▁09,	-16476
▁1-3	-16477
▁1."	-16478
▁1.0	-16479
▁102	-16480
▁117	-16481
▁11:	-16482
▁123	-16483
▁136	-16484
▁143	-16485
▁145	-16486
▁14:	-16487
▁152	-16488
▁153	-16489
▁16)	-16490
▁171	-16491
▁176	-16492
▁187	-16493
▁194	-16494
▁1⁄4	-16495
▁2%,	-16496
▁202	-16497
▁209	-16498
▁210	-16499
▁22)	-16500
▁221	-16501
▁224	-16502
▁243	-16503
▁245	-16504
▁255	-16505
▁267	-16506
▁272	-16507
▁27:	-16508
▁3).	-16509
▁303	-16510
▁330	-16511
▁4-4	-16512
▁4-6	-16513
▁44%	-16514
▁44.	-16515
▁440	-16516
▁46.	-16517
▁460	-16518
▁470	-16519
▁5-7	-16520
▁5.7	-16521
▁50+	-16522
▁501	-16523
▁537	-16524
▁543	-16525
▁550	-16526
▁58.	-16527
▁6-8	-16528
▁6.6	-16529
▁6.8	-16530
▁6.9	-16531
▁61.	-16532
▁620	-16533
▁630	-16534
▁64.	-16535
▁69%	-16536
▁7-3	-16537
▁7.7	-16538
▁702	-16539
▁71.	-16540
▁78.	-16541
▁80.	-16542
▁89,	-16543
▁90.	-16544
▁92,	-16545
▁93%	-16546
▁950	-16547
▁AEW	-16548
▁AGE	-16549
▁AGI	-16550
▁AIG	-16551
▁AMI	-16552
▁APY	-16553
▁AQI	-16554
▁AUS	-16555
▁Ada	-16556
▁Aus	-16557
▁BAR	-16558
▁BHA	-16559
▁BIS	-16560
▁BMC	-16561
▁BMX	-16562
▁BRS	-16563
▁BSP	-16564
▁CCS	-16565
▁CET	-16566
▁CMF	-16567
▁CTA	-16568
▁DER	-16569
▁DGP	-16570
▁DJT	-16571
▁DPS	-16572
▁DRI	-16573
▁DUI	-16574
▁Dar	-16575
▁Deo	-16576
▁Dja	-16577
▁Dob	-16578
▁Duo	-16579
▁ECA	-16580
▁ECR	-16581
▁EVM	-16582
▁Ely	-16583
▁FDP	-16584
▁FFS	-16585
▁FPL	-16586
▁FPS	-16587
▁FSA	-16588
▁Fee	-16589
▁Fly	-16590
▁GEN	-16591
▁GER	-16592
▁Gei	-16593
▁Gig	-16594
▁Guo	-16595
▁HAL	-16596
▁HES	-16597
▁HGV	-16598
▁HON	-16599
▁HUD	-16600
▁Hat	-16601
▁Hed	-16602
▁Hil	-16603
▁Hoo	-16604
▁IAL	-16605
▁ICA	-16606
▁IED	-16607
▁IEG	-16608
▁IFF	-16609
▁IGP	-16610
▁IHT	-16611
▁ILA	-16612
▁INA	-16613
▁IPX	-16614
▁ISK	-16615
▁JAM	-16616
▁JCP	-16617
▁JLo	-16618
▁Jha	-16619
▁Jin	-16620
▁KLM	-16621
▁KOK	-16622
▁Knu	-16623
▁Kry	-16624
▁LAN	-16625
▁LEO	-16626
▁LOL	-16627
▁LOT	-16628
▁LOW	-16629
▁LPs	-16630
▁LSD	-16631
▁LTE	-16632
▁LaL	-16633
▁Lay	-16634
▁Log	-16635
▁Lol	-16636
▁Lue	-16637
▁MCC	-16638
▁MEX	-16639
▁MIA	-16640
▁MIN	-16641
▁MOD	-16642
▁MSS	-16643
▁MTG	-16644
▁Mag	-16645
▁Mee	-16646
▁MoS	-16647
▁Mub	-16648
▁Muc	-16649
▁Mud	-16650
▁NAO	-16651
▁NEU	-16652
▁NFU	-16653
▁NGA	-16654
▁Nit	-16655
▁OFF	-16656
▁OMB	-16657
▁OSF	-16658
▁OSU	-16659
▁Ona	-16660
▁Owl	-16661
▁PBM	-16662
▁PES	-16663
▁PFA	-16664
▁PHI	-16665
▁PIC	-16666
▁PLC	-16667
▁PMO	-16668
▁POW	-16669
▁PSE	-16670
▁Pas	-16671
▁Ped	-16672
▁RIS	-16673
▁ROI	-16674
▁RPG	-16675
▁RTX	-16676
▁Rat	-16677
▁SBI	-16678
▁SBU	-16679
▁SOP	-16680
▁Seb	-16681
▁Ski	-16682
▁Sul	-16683
▁Sur	-16684
▁TEA	-16685
▁TED	-16686
▁TEL	-16687
▁TEN	-16688
▁TIA	-16689
▁TKO	-16690
▁TLC	-16691
▁TMs	-16692
▁TPC	-16693
▁TSB	-16694
▁TTS	-16695
▁TWS	-16696
▁Tag	-16697
▁Tah	-16698
▁Tal	-16699
▁Tid	-16700
▁UAV	-16701
▁UCI	-16702
▁UFS	-16703
▁URG	-16704
▁USE	-16705
▁UTI	-16706
▁Ugg	-16707
▁Ugo	-16708
▁Uxb	-16709
▁VHS	-16710
▁WAC	-16711
▁WAP	-16712
▁WIN	-16713
▁WOO	-16714
▁WRC	-16715
▁Wei	-16716
▁Wow	-16717
▁XSW	-16718
▁XVI	-16719
▁Yun	-16720
▁Zoë	-16721
▁arz	-16722
▁até	-16723
▁auw	-16724
▁aúl	-16725
▁bam	-16726
▁bbo	-16727
▁beh	-16728
▁bhu	-16729
▁boa	-16730
▁cox	-16731
▁dob	-16732
▁dpa	-16733
▁dud	-16734
▁dze	-16735
▁déb	-16736
▁ecc	-16737
▁edb	-16738
▁edl	-16739
▁eee	-16740
▁eeg	-16741
▁ehl	-16742
▁elb	-16743
▁enm	-16744
▁exy	-16745
▁fah	-16746
▁gau	-16747
▁gbe	-16748
▁gib	-16749
▁goi	-16750
▁hhh	-16751
▁hof	-16752
▁idc	-16753
▁irn	-16754
▁jen	-16755
▁jug	-16756
▁jul	-16757
▁kab	-16758
▁kry	-16759
▁kti	-16760
▁leu	-16761
▁lét	-16762
▁mci	-16763
▁mex	-16764
▁mia	-16765
▁mro	-16766
▁naw	-16767
▁nay	-16768
▁nek	-16769
▁niv	-16770
▁nog	-16771
▁nys	-16772
▁oby	-16773
▁olz	-16774
▁olí	-16775
▁owy	-16776
▁oão	-16777
▁pam	-16778
▁pli	-16779
▁pna	-16780
▁raa	-16781
▁rfe	-16782
▁rok	-16783
▁rpg	-16784
▁ryd	-16785
▁rzo	-16786
▁tey	-16787
▁tme	-16788
▁ttu	-16789
▁tya	-16790
▁tze	-16791
▁urm	-16792
▁wda	-16793
▁wle	-16794
▁wne	-16795
▁woe	-16796
▁yno	-16797
▁yun	-16798
▁zea	-16799
▁zri	-16800
▁£16	-16801
▁£38	-16802
▁£8,	-16803
▁£90	-16804
▁éal	-16805
▁örg	-16806
▁ակա	-16807
▁գիա	-16808
▁դար	-16809
▁զատ	-16810
▁խոր	-16811
▁ծրա	-16812
▁հաս	-16813
▁հիմ	-16814
▁հրա	-16815
▁ձակ	-16816
▁յալ	-16817
▁նոլ	-16818
▁պահ	-16819
▁տու	-16820
▁ցու	-16821
▁քան	-16822
▁ALLY	-16823
▁ASHA	-16824
▁AURA	-16825
▁BEST	-16826
▁CACI	-16827
▁CERT	-16828
▁CLIP	-16829
▁CONC	-16830
▁CPAC	-16831
▁CSTO	-16832
▁CUNY	-16833
▁EBRU	-16834
▁FDIC	-16835
▁FELA	-16836
▁FISA	-16837
▁GAME	-16838
▁GOAL	-16839
▁GRAM	-16840
▁IPOC	-16841
▁ISCO	-16842
▁KYIV	-16843
▁Kant	-16844
▁Kola	-16845
▁LEGO	-16846
▁Ladd	-16847
▁MASS	-16848
▁MATT	-16849
▁MHRA	-16850
▁MISS	-16851
▁Macb	-16852
▁Macs	-16853
▁Manv	-16854
▁McCl	-16855
▁Moms	-16856
▁Mota	-16857
▁NOVE	-16858
▁NSTA	-16859
▁NYSC	-16860
▁Nist	-16861
▁OSHA	-16862
▁PDDR	-16863
▁PETA	-16864
▁PMLA	-16865
▁RANC	-16866
▁RSPB	-16867
▁SADC	-16868
▁SDLP	-16869
▁STEV	-16870
▁SWNS	-16871
▁Sent	-16872
▁THEY	-16873
▁Taap	-16874
▁Tana	-16875
▁Tori	-16876
▁Tric	-16877
▁Triu	-16878
▁Tuft	-16879
▁UAVs	-16880
▁Vege	-16881
▁Vlad	-16882
▁Wren	-16883
▁Xabi	-16884
▁aatu	-16885
▁abib	-16886
▁acti	-16887
▁adga	-16888
▁adli	-16889
▁aesa	-16890
▁affa	-16891
▁ahil	-16892
▁ahui	-16893
▁aila	-16894
▁ainb	-16895
▁aipa	-16896
▁aist	-16897
▁aito	-16898
▁ajal	-16899
▁ajar	-16900
▁ajhi	-16901
▁akla	-16902
▁aley	-16903
▁alke	-16904
▁amis	-16905
[...]
