<unk>	0
<s>	0
</s>	0
▁s	-3.3102
▁the	-3.6359
▁,	-3.67402
▁.	-3.72222
▁a	-3.81411
▁to	-4.21368
▁in	-4.22786
▁and	-4.38144
▁of	-4.42383
▁"	-4.55194
▁ing	-4.55682
▁'	-4.5793
▁c	-4.66637
e	-4.67695
i	-4.73672
▁ed	-4.77492
▁-	-4.91404
t	-4.99209
▁p	-5.03652
a	-5.07086
▁n	-5.10665
▁er	-5.11901
▁on	-5.13771
▁re	-5.16291
n	-5.17118
▁for	-5.17477
▁e	-5.22975
r	-5.24353
y	-5.26482
▁that	-5.27458
s	-5.27626
▁be	-5.28541
▁b	-5.33121
▁is	-5.34851
▁S	-5.3708
▁0	-5.37502
▁t	-5.3848
▁The	-5.41796
▁A	-5.41879
▁2	-5.49891
▁with	-5.51296
▁I	-5.55857
▁d	-5.56425
▁it	-5.60363
▁was	-5.61658
▁as	-5.72943
▁tion	-5.73768
▁ly	-5.77617
▁he	-5.78785
▁at	-5.8689
▁co	-5.91182
▁C	-5.9171
▁1	-5.9181
en	-5.96451
▁B	-6.0133
▁said	-6.02231
▁de	-6.04213
o	-6.05589
▁y	-6.06372
▁have	-6.06411
l	-6.07557
▁his	-6.08073
▁you	-6.0811
▁M	-6.08799
▁has	-6.09823
▁from	-6.12344
▁are	-6.13768
d	-6.1505
▁:	-6.1602
u	-6.16021
c	-6.16219
▁by	-6.16394
▁P	-6.16488
▁L	-6.20103
▁pro	-6.20315
▁we	-6.20882
▁R	-6.22723
▁an	-6.25974
ould	-6.27628
▁al	-6.29227
▁not	-6.30975
ly	-6.3307
▁T	-6.34059
▁l	-6.36311
▁or	-6.37702
▁out	-6.38531
▁F	-6.39134
▁this	-6.40998
▁w	-6.43057
▁H	-6.43872
▁who	-6.44144
▁wh	-6.47974
▁con	-6.48864
▁her	-6.49752
ed	-6.50068
▁up	-6.52538
▁su	-6.52739
▁E	-6.53763
▁will	-6.54001
▁D	-6.54488
▁their	-6.57242
▁es	-6.59665
▁but	-6.5996
▁had	-6.61226
▁ex	-6.65175
▁(	-6.65722
▁ent	-6.66216
▁G	-6.66675
▁W	-6.67835
▁4	-6.67993
fter	-6.68038
▁m	-6.68248
▁ma	-6.68315
▁)	-6.68984
▁all	-6.70205
▁9	-6.70564
▁ment	-6.71778
▁she	-6.71957
▁ion	-6.7373
▁te	-6.74391
▁ers	-6.75257
▁5	-6.76272
▁one	-6.76321
▁3	-6.772
▁more	-6.77392
▁N	-6.78745
▁can	-6.79242
re	-6.79854
.	-6.79892
▁about	-6.80752
ich	-6.81473
▁en	-6.82894
▁over	-6.83357
▁It	-6.83526
▁mi	-6.83564
ome	-6.8545
▁r	-6.87084
▁also	-6.87657
▁do	-6.88701
▁O	-6.89332
▁In	-6.91017
▁dent	-6.91373
▁like	-6.92725
▁th	-6.9303
▁me	-6.94073
▁so	-6.942
▁fa	-6.95597
▁eople	-6.95654
p	-6.9581
▁wer	-6.96168
▁time	-6.97084
▁J	-6.97228
▁year	-6.97256
ter	-6.985
m	-6.99891
,	-7.00687
th	-7.00882
▁per	-7.01027
▁work	-7.01738
▁rec	-7.02567
▁le	-7.02677
▁K	-7.03914
▁un	-7.04097
▁gh	-7.06587
▁its	-7.10975
▁rep	-7.12185
▁He	-7.12481
▁than	-7.12918
▁just	-7.13178
▁6	-7.1401
▁my	-7.14826
▁8	-7.15486
▁thing	-7.15777
▁st	-7.17128
▁Bu	-7.17689
er	-7.18285
▁there	-7.19208
▁7	-7.19304
▁no	-7.19517
▁ever	-7.19618
▁into	-7.19886
▁ation	-7.19963
b	-7.19999
▁back	-7.21213
▁our	-7.21743
▁nal	-7.21961
▁him	-7.2255
▁other	-7.23054
▁v	-7.23736
▁first	-7.2415
▁U	-7.24917
▁able	-7.25296
▁h	-7.2546
▁ted	-7.2552
▁two	-7.26294
▁o	-7.27076
▁str	-7.27361
▁man	-7.27805
atio	-7.28587
▁wha	-7.30398
▁how	-7.30599
▁them	-7.31048
▁get	-7.32297
▁sh	-7.32738
▁new	-7.3293
v	-7.33079
▁if	-7.3313
se	-7.35649
▁again	-7.37005
▁ver	-7.37985
▁last	-7.3868
▁whe	-7.38969
▁years	-7.39206
▁?	-7.3943
▁di	-7.39871
▁est	-7.39966
▁ty	-7.41519
▁day	-7.41691
▁Trump	-7.41855
▁now	-7.42948
▁state	-7.44111
▁any	-7.4421
▁i	-7.44875
▁off	-7.45196
▁tive	-7.45309
▁wi	-7.46999
▁unde	-7.4744
▁cha	-7.4768
▁real	-7.47875
▁comp	-7.48187
▁where	-7.48761
▁f	-7.48962
▁go	-7.49793
▁ial	-7.51549
▁ous	-7.51876
▁did	-7.52264
fic	-7.52426
▁tra	-7.52541
▁make	-7.52717
ame	-7.52914
▁V	-7.5315
▁efore	-7.53501
▁res	-7.53757
I	-7.53773
▁round	-7.53785
▁Thi	-7.53872
▁ster	-7.54063
▁dis	-7.5409
▁come	-7.54408
▁ring	-7.54884
▁/	-7.55008
▁ve	-7.56055
▁end	-7.56584
▁want	-7.56747
▁way	-7.57416
▁being	-7.58798
▁while	-7.59673
ou	-7.60045
▁ity	-7.60317
▁side	-7.6097
▁cause	-7.62567
▁ho	-7.62628
▁And	-7.62999
▁high	-7.64114
▁vi	-7.64131
▁down	-7.64336
▁long	-7.64797
▁us	-7.65228
▁right	-7.65359
▁lead	-7.65446
▁turn	-7.65772
▁ort	-7.65826
▁think	-7.67313
▁De	-7.67757
▁We	-7.68246
▁son	-7.68614
▁tor	-7.68697
▁even	-7.68844
▁serv	-7.69415
▁age	-7.69464
▁ry	-7.69585
▁going	-7.70014
▁mer	-7.70318
▁elec	-7.70965
▁line	-7.7142
▁well	-7.71695
▁llion	-7.71823
▁ne	-7.71955
▁ding	-7.72239
▁li	-7.73323
▁du	-7.73848
▁nment	-7.75202
▁look	-7.75475
▁mad	-7.75729
▁take	-7.76183
▁most	-7.76188
ing	-7.76333
▁old	-7.76334
▁Mr	-7.76739
▁month	-7.76775
▁sent	-7.77162
▁told	-7.78233
▁start	-7.78732
▁Sh	-7.78768
ever	-7.78819
▁home	-7.79165
▁know	-7.79402
▁gove	-7.79442
▁ll	-7.79479
▁three	-7.79973
▁pport	-7.80015
▁pa	-7.8004
▁expe	-7.80518
▁week	-7.80528
▁ra	-7.81096
▁Re	-7.81433
▁don	-7.82228
▁need	-7.82422
▁ness	-7.82723
g	-7.83089
ag	-7.83293
▁ship	-7.83783
▁fi	-7.83791
▁ck	-7.83813
▁dec	-7.84357
▁help	-7.84868
▁part	-7.85166
▁show	-7.85542
▁comm	-7.85761
▁sday	-7.86263
▁ence	-7.86283
▁mo	-7.86533
▁poli	-7.86636
▁app	-7.86953
▁point	-7.87085
▁life	-7.87917
clu	-7.88272
▁la	-7.88325
▁j	-7.88865
▁read	-7.89008
▁pla	-7.89169
▁less	-7.89644
▁many	-7.90163
▁You	-7.90504
▁see	-7.91483
▁says	-7.91863
▁those	-7.92081
▁ght	-7.92909
in	-7.92923
▁ate	-7.93067
▁	-7.93098
▁chi	-7.93444
▁pres	-7.93751
'	-7.95034
▁ance	-7.95197
▁Co	-7.95491
▁srael	-7.95805
▁set	-7.96221
▁ca	-7.9626
▁play	-7.96592
k	-7.97148
▁form	-7.97999
▁much	-7.98094
easo	-7.9819
▁nd	-7.98217
▁ies	-7.98369
▁sing	-7.98624
▁ign	-7.98797
▁pre	-7.9939
▁good	-7.99452
▁ice	-7.99952
▁tions	-8.00564
till	-8.00743
▁team	-8.00798
▁arti	-8.00828
▁$	-8.00962
▁sinc	-8.01
▁world	-8.01442
▁ress	-8.01803
▁ia	-8.01964
▁diff	-8.02075
▁£	-8.02251
▁ic	-8.02322
▁ns	-8.02428
noth	-8.02471
▁found	-8.02603
▁For	-8.02635
meri	-8.03021
▁ement	-8.03037
▁ublic	-8.03393
▁untry	-8.03511
cord	-8.03806
al	-8.03924
▁sta	-8.04336
▁ti	-8.04922
▁New	-8.05109
▁imp	-8.05266
▁head	-8.05286
ual	-8.05824
▁law	-8.05964
▁crea	-8.06578
▁olice	-8.0661
▁four	-8.06698
▁ga	-8.06749
▁give	-8.06847
▁No	-8.07066
▁ful	-8.07606
▁Ma	-8.07789
▁stu	-8.08146
▁own	-8.08222
▁led	-8.08449
▁Wi	-8.09194
▁such	-8.09505
▁econd	-8.09507
▁ary	-8.09554
▁foll	-8.09609
▁ive	-8.09953
▁des	-8.10207
▁land	-8.10703
▁feel	-8.10901
▁hu	-8.11173
▁twee	-8.11274
▁hi	-8.11281
▁That	-8.12291
▁ge	-8.12461
▁camp	-8.12604
▁erson	-8.12678
▁Mi	-8.13807
▁night	-8.1386
▁say	-8.14767
▁open	-8.15235
▁does	-8.15515
▁game	-8.15688
▁Biden	-8.15733
▁then	-8.16386
▁order	-8.16415
▁added	-8.16488
▁lot	-8.16631
▁alth	-8.17175
▁air	-8.17365
▁sign	-8.17403
▁sion	-8.17545
▁ussia	-8.17999
▁ember	-8.1805
▁let	-8.18098
ting	-8.18522
▁left	-8.18761
▁loca	-8.18774
▁view	-8.19727
▁rela	-8.20198
▁war	-8.21307
▁group	-8.21427
▁thro	-8.21949
ctio	-8.22041
ra	-8.22177
▁nce	-8.2259
▁ttack	-8.22858
▁po	-8.22986
▁India	-8.2327
▁face	-8.23584
▁both	-8.24038
▁got	-8.2418
▁top	-8.24268
▁best	-8.24529
▁Pres	-8.24582
▁!	-8.2467
▁may	-8.24726
▁ob	-8.24979
▁place	-8.25319
▁bro	-8.25624
▁ab	-8.25799
▁ties	-8.25818
▁here	-8.26004
▁fe	-8.26243
▁;	-8.26414
▁lo	-8.26419
▁each	-8.26426
▁ting	-8.26602
▁ated	-8.26649
▁issue	-8.26711
▁next	-8.26768
ch	-8.26886
▁tinue	-8.27069
▁na	-8.27114
▁stra	-8.27343
▁tain	-8.27572
rans	-8.27782
▁ities	-8.27837
▁use	-8.28119
▁acc	-8.28714
▁quest	-8.2897
▁ro	-8.28991
▁mean	-8.29729
▁clear	-8.2986
▁bu	-8.307
▁force	-8.30774
▁fo	-8.30868
▁ppea	-8.30895
▁tell	-8.30953
emb	-8.30976
▁redit	-8.31241
▁sed	-8.31414
▁chool	-8.31617
▁Con	-8.31673
lude	-8.31753
▁oppo	-8.31883
▁US	-8.31986
▁near	-8.32013
▁k	-8.32332
▁fic	-8.32635
▁alled	-8.32751
▁inc	-8.32914
▁event	-8.33311
▁ldren	-8.33593
hou	-8.33669
▁bi	-8.33842
ial	-8.33961
▁offer	-8.34443
▁frie	-8.34512
▁hand	-8.34632
le	-8.34788
ves	-8.35004
▁case	-8.3517
▁As	-8.35299
▁ward	-8.35313
ustr	-8.35575
irec	-8.3582
▁rent	-8.36288
▁media	-8.36318
▁light	-8.36374
▁ant	-8.36508
▁grea	-8.36632
h	-8.3688
▁win	-8.36896
▁ord	-8.36954
▁g	-8.37215
▁keep	-8.3733
▁cap	-8.37421
▁power	-8.37522
spo	-8.37546
▁kill	-8.37775
▁happ	-8.37922
▁Ukra	-8.38449
▁away	-8.38662
▁late	-8.38725
ma	-8.39087
▁try	-8.39144
▁gen	-8.39157
▁days	-8.39166
▁test	-8.39232
▁nt	-8.39245
▁ri	-8.39249
▁Y	-8.39686
▁ocial	-8.39746
▁prev	-8.40128
▁tment	-8.40318
▁mpany	-8.40448
We	-8.41185
▁court	-8.41292
▁oper	-8.41299
umb	-8.41498
▁sp	-8.4151
▁too	-8.41654
▁lway	-8.41681
▁house	-8.41711
▁UK	-8.42304
▁times	-8.42442
▁put	-8.42581
▁free	-8.42825
▁final	-8.4284
▁If	-8.42844
▁ha	-8.42991
▁self	-8.43063
▁ience	-8.43252
▁women	-8.434
ross	-8.43419
ffec	-8.44145
▁fu	-8.44198
▁five	-8.44323
el	-8.44332
▁el	-8.44512
▁party	-8.44522
▁bo	-8.44532
llow	-8.4468
▁ld	-8.44891
▁tri	-8.44901
at	-8.44957
▁Whe	-8.44958
▁x	-8.4514
▁pu	-8.45436
▁far	-8.45477
▁ian	-8.45679
▁ta	-8.45841
jor	-8.46016
▁Cha	-8.46287
▁ccess	-8.46456
▁post	-8.46538
▁body	-8.46806
▁ggest	-8.46921
▁Su	-8.46923
▁ously	-8.47131
▁build	-8.47132
▁love	-8.47542
▁busi	-8.47717
▁u	-8.47975
▁won	-8.48001
▁rm	-8.48289
▁call	-8.48302
▁ago	-8.48434
▁vers	-8.48503
▁used	-8.48599
▁spect	-8.48626
▁seen	-8.48894
▁took	-8.49057
▁care	-8.49151
▁da	-8.49434
▁rele	-8.49441
amil	-8.49549
▁fire	-8.49824
▁cent	-8.50085
▁mini	-8.50156
▁star	-8.50448
▁sub	-8.5045
▁mark	-8.5048
hang	-8.50501
▁eco	-8.50562
▁later	-8.50603
▁To	-8.50636
▁water	-8.50655
▁tical	-8.50876
▁ong	-8.50885
▁young	-8.51076
an	-8.51114
▁foot	-8.51423
▁earch	-8.5145
▁vide	-8.51873
▁enter	-8.51939
▁gene	-8.52026
▁mak	-8.52414
▁car	-8.52624
▁gram	-8.52839
▁sive	-8.52856
▁ean	-8.53174
▁tory	-8.53336
▁So	-8.53482
▁talk	-8.5369
▁[	-8.53703
▁qu	-8.53704
▁One	-8.53716
▁hard	-8.5383
▁mili	-8.54167
tal	-8.54239
▁term	-8.54524
▁etter	-8.54534
▁velo	-8.54766
▁grow	-8.54982
▁might	-8.55339
▁bit	-8.55535
▁six	-8.556
▁]	-8.55902
▁run	-8.56055
▁claim	-8.56226
▁ional	-8.5626
▁tter	-8.56563
▁went	-8.56692
▁nited	-8.56747
ev	-8.56778
▁On	-8.56894
▁arri	-8.57024
▁Z	-8.57376
harg	-8.57804
▁break	-8.58054
▁film	-8.58141
▁dep	-8.58184
▁ball	-8.58221
▁ystem	-8.5829
▁wing	-8.58441
▁hit	-8.58467
▁few	-8.58546
▁litt	-8.58667
▁ard	-8.58786
▁tiga	-8.58963
▁ntial	-8.59336
▁aying	-8.5946
▁sc	-8.59509
▁South	-8.59579
▁large	-8.59624
▁sur	-8.59694
▁men	-8.59772
▁base	-8.59822
▁tal	-8.59945
urr	-8.59967
▁Demo	-8.59972
▁hav	-8.6006
▁add	-8.60069
▁big	-8.60071
▁gran	-8.60149
▁deal	-8.60188
▁meet	-8.60479
▁fra	-8.60632
▁cal	-8.60987
▁half	-8.6103
▁Mo	-8.61036
mil	-8.61211
▁mus	-8.61269
▁ot	-8.61724
▁ost	-8.61782
▁ill	-8.61811
▁hold	-8.6191
▁low	-8.61962
▁level	-8.61966
▁ern	-8.62146
▁pass	-8.62162
▁mment	-8.623
▁ssion	-8.62408
▁fin	-8.62515
ked	-8.62644
▁rket	-8.62761
▁live	-8.62961
tic	-8.62961
▁gree	-8.63082
▁ning	-8.63134
▁net	-8.63201
▁mom	-8.63905
▁gress	-8.63947
▁Man	-8.64054
▁uthor	-8.64197
▁fight	-8.64267
▁adv	-8.64474
▁along	-8.64568
▁ries	-8.64619
▁date	-8.64738
▁ossi	-8.64799
nnou	-8.65068
▁ley	-8.65082
▁West	-8.65339
▁money	-8.65467
ve	-8.6556
▁ie	-8.65652
▁urity	-8.65677
▁room	-8.65801
▁yers	-8.65839
▁z	-8.65969
▁unti	-8.66347
▁ham	-8.66576
▁duce	-8.66699
▁posi	-8.66906
▁city	-8.66935
▁York	-8.6695
▁quir	-8.66988
▁video	-8.67017
▁Wha	-8.67112
▁gra	-8.67152
▁reve	-8.67239
▁hange	-8.67283
▁early	-8.67389
▁plan	-8.67498
▁ear	-8.67845
▁sider	-8.68324
▁death	-8.68457
▁Jo	-8.68554
▁known	-8.68693
▁close	-8.68984
▁wo	-8.69026
▁field	-8.69304
▁move	-8.69356
▁stop	-8.69419
▁Ra	-8.69505
tu	-8.69613
▁ject	-8.69731
▁John	-8.69781
▁news	-8.69915
▁dence	-8.70125
▁Ro	-8.70145
rote	-8.70231
olu	-8.70375
▁cess	-8.70405
itu	-8.70419
▁watch	-8.70422
▁count	-8.705
▁find	-8.7056
▁cover	-8.70682
▁pot	-8.70705
▁nomi	-8.70748
▁emp	-8.71244
▁Pa	-8.71467
▁port	-8.71541
▁ell	-8.7166
▁defe	-8.71708
▁am	-8.71768
▁ist	-8.71826
ctiv	-8.71836
▁vel	-8.7195
▁treat	-8.7228
▁volv	-8.72304
▁tak	-8.7233
▁liv	-8.72347
lleg	-8.72796
▁ture	-8.73168
▁impo	-8.73263
▁arris	-8.73403
▁visit	-8.73435
▁stic	-8.73493
▁ble	-8.73516
▁id	-8.73652
▁ecom	-8.7369
▁past	-8.73986
▁tech	-8.74294
▁lican	-8.74368
▁gu	-8.74487
▁name	-8.74574
▁News	-8.74642
▁full	-8.74673
▁ts	-8.74779
▁cket	-8.74924
▁Tu	-8.74948
▁gn	-8.7507
▁eng	-8.75609
pub	-8.75749
▁ritic	-8.75855
▁ec	-8.75934
▁shed	-8.76036
▁ral	-8.76063
▁grou	-8.76108
▁short	-8.76196
▁tch	-8.76374
▁Min	-8.7654
▁Pro	-8.76569
▁front	-8.76734
▁eries	-8.76815
▁secu	-8.77019
▁sec	-8.77028
▁amon	-8.77423
▁ight	-8.77482
▁role	-8.77624
▁flo	-8.77705
▁%	-8.77863
▁disc	-8.78046
▁spit	-8.78145
▁small	-8.78214
▁pay	-8.78225
▁ng	-8.7824
▁lu	-8.7855
▁tand	-8.78627
▁unity	-8.79274
▁tten	-8.79323
jur	-8.79356
▁food	-8.79377
▁evi	-8.79387
▁orted	-8.79546
▁10	-8.79654
▁terr	-8.79783
▁od	-8.79855
▁House	-8.79862
▁tant	-8.7994
▁trib	-8.80008
▁cri	-8.80568
ce	-8.80573
▁sm	-8.8069
▁book	-8.80751
▁anti	-8.80777
▁ut	-8.81066
▁ming	-8.81101
▁ask	-8.81108
ring	-8.81584
▁layed	-8.82
▁rease	-8.82003
ngla	-8.82159
▁regi	-8.82165
▁gula	-8.82167
▁due	-8.82222
▁viol	-8.82349
▁hope	-8.8246
▁mov	-8.82592
ald	-8.82636
▁nced	-8.82769
▁race	-8.82804
▁City	-8.82872
▁um	-8.82894
▁bor	-8.83032
▁fli	-8.83097
▁X	-8.83169
▁Gaza	-8.83202
▁ally	-8.83353
▁gett	-8.83643
▁doing	-8.84043
▁Howe	-8.84289
tand	-8.84394
▁nor	-8.84618
▁taken	-8.84725
leng	-8.8475
▁Euro	-8.84849
▁equ	-8.84965
▁Ca	-8.8508
▁risk	-8.85101
▁list	-8.85166
▁nter	-8.85368
ic	-8.85565
▁often	-8.85597
▁least	-8.85619
▁thir	-8.85703
tep	-8.85814
▁sure	-8.85888
▁futu	-8.86056
per	-8.86196
▁mpion	-8.86468
▁today	-8.86531
▁tax	-8.86687
▁feat	-8.86748
▁Bo	-8.8681
▁ten	-8.86872
▁eleb	-8.86882
▁unday	-8.86896
▁ondon	-8.86994
▁why	-8.87001
▁peci	-8.87503
hile	-8.87566
▁ter	-8.87601
▁sult	-8.87622
▁ded	-8.87946
▁riday	-8.87997
sta	-8.88108
▁club	-8.88141
▁Chri	-8.88188
▁onday	-8.88198
▁done	-8.8824
▁writ	-8.88476
▁walk	-8.88568
truc	-8.88746
rou	-8.88991
▁ntrol	-8.89271
▁huma	-8.8948
▁driv	-8.89537
▁ff	-8.89759
▁fla	-8.90013
▁moth	-8.90109
▁art	-8.9034
▁ey	-8.90455
ept	-8.90687
▁occ	-8.90701
▁graph	-8.90705
▁lega	-8.90722
▁wards	-8.90802
▁ials	-8.91505
▁North	-8.91507
▁games	-8.9172
▁ook	-8.91765
▁fur	-8.91767
▁rema	-8.91775
▁fans	-8.91793
▁thre	-8.92086
▁Hi	-8.92169
▁ions	-8.92275
▁min	-8.924
▁Jan	-8.9242
▁rtner	-8.92422
▁child	-8.92495
▁woman	-8.92627
▁share	-8.92644
▁ac	-8.92719
▁typ	-8.92823
▁nning	-8.92834
▁China	-8.93099
▁Thu	-8.9311
rent	-8.93205
ten	-8.93241
▁class	-8.9336
▁lay	-8.9345
▁ple	-8.93495
▁ened	-8.93507
▁ound	-8.9381
▁speak	-8.93869
▁sha	-8.94126
▁rence	-8.94301
▁ngle	-8.94427
▁kind	-8.94515
arge	-8.94752
▁ehind	-8.9492
▁ism	-8.94982
▁heart	-8.95003
▁tempt	-8.95147
▁Al	-8.95196
ro	-8.95274
▁raise	-8.95438
▁ju	-8.95651
▁demo	-8.95673
▁vote	-8.96004
▁All	-8.96033
▁rt	-8.96126
▁Mu	-8.96175
▁match	-8.96377
▁ause	-8.96453
▁ices	-8.96493
It	-8.96692
▁ling	-8.96703
▁ouple	-8.96715
▁phone	-8.96867
▁et	-8.96895
▁ul	-8.97046
▁Brit	-8.97141
▁ummer	-8.97277
▁ud	-8.97298
▁red	-8.9731
▁At	-8.97334
▁rs	-8.97613
&	-8.97693
▁Ch	-8.97783
▁nder	-8.97789
▁nner	-8.97792
edne	-8.97926
▁Getty	-8.97934
▁stay	-8.98482
par	-8.98618
▁ount	-8.98654
▁shot	-8.98709
▁rance	-8.99024
▁wait	-8.99068
▁ngton	-8.99111
▁ier	-8.9918
▁ak	-8.99184
▁ass	-8.99386
▁qual	-8.99726
▁Ni	-8.99814
▁weeks	-8.99848
▁World	-8.99897
▁tract	-8.99953
▁lmos	-8.99978
▁fel	-9.00122
▁clo	-9.00259
▁hours	-9.00292
▁space	-9.00332
rg	-9.00611
ffor	-9.00709
▁serve	-9.00724
▁State	-9.00842
▁ency	-9.00979
▁com	-9.01052
▁ir	-9.01211
▁music	-9.01369
▁areer	-9.01448
▁story	-9.01456
▁job	-9.01553
▁yet	-9.01565
▁runn	-9.01586
▁fund	-9.01666
▁rodu	-9.01793
▁Uni	-9.01807
▁rrest	-9.01826
▁using	-9.01951
▁earl	-9.01954
▁disa	-9.01965
▁Ka	-9.01978
▁ake	-9.02076
tio	-9.02116
▁fes	-9.02201
▁May	-9.02213
▁leg	-9.02262
tai	-9.02269
▁board	-9.02298
▁saw	-9.02426
▁>	-9.02444
▁bri	-9.02581
▁Be	-9.02612
▁stead	-9.02649
▁ourse	-9.02706
▁cult	-9.02806
▁key	-9.03003
▁met	-9.03131
▁Ha	-9.03259
▁idea	-9.03419
▁Di	-9.03421
▁iden	-9.03438
tual	-9.0346
▁ned	-9.035
▁cost	-9.03586
▁Ms	-9.03686
▁data	-9.03849
▁hosp	-9.04234
▁il	-9.04335
▁mid	-9.04389
▁layer	-9.04398
▁eye	-9.04404
▁reach	-9.04522
▁ch	-9.04589
▁ft	-9.04713
▁dmin	-9.04735
▁dding	-9.04766
▁cli	-9.04928
▁trike	-9.05159
es	-9.05193
▁aring	-9.05386
▁sses	-9.05391
atur	-9.05406
▁rsity	-9.0544
▁prov	-9.0552
▁pect	-9.0572
▁der	-9.05758
▁lear	-9.05874
▁How	-9.05885
firm	-9.05933
▁rse	-9.05971
▁mess	-9.06331
▁stage	-9.0642
vi	-9.06479
▁inci	-9.06519
▁meon	-9.06554
▁ru	-9.06699
▁olicy	-9.06848
▁coll	-9.0689
poke	-9.06926
▁area	-9.07005
▁trict	-9.07071
▁medic	-9.07101
▁liev	-9.07136
▁<	-9.072
▁photo	-9.07201
▁nutes	-9.07208
▁jour	-9.07299
▁ping	-9.07312
▁lly	-9.07408
▁tire	-9.07673
▁addi	-9.07704
▁draw	-9.07745
▁June	-9.07758
▁held	-9.07822
ua	-9.07922
▁*	-9.08023
▁Black	-9.08107
▁shop	-9.08145
▁rison	-9.08298
▁spot	-9.08325
▁non	-9.08537
▁lac	-9.08661
▁uni	-9.08725
▁suit	-9.08905
▁ught	-9.08966
▁olog	-9.09008
▁price	-9.09101
▁warn	-9.09109
▁fully	-9.09114
▁cond	-9.0913
▁cut	-9.09197
▁fact	-9.09278
▁Geo	-9.09336
▁tted	-9.09341
ep	-9.0943
▁drop	-9.0944
▁nding	-9.09445
▁seven	-9.09492
▁ike	-9.09625
am	-9.09724
▁tic	-9.09856
▁miss	-9.09978
▁priv	-9.1006
▁TV	-9.10068
▁mult	-9.10069
▁staff	-9.10106
▁impl	-9.10419
▁ski	-9.10446
ine	-9.10449
▁dy	-9.10514
▁girl	-9.10581
▁Comm	-9.10589
▁atch	-9.10623
▁inv	-9.10743
pend	-9.10861
▁ahead	-9.10901
▁ds	-9.10938
▁fina	-9.11041
▁rest	-9.11057
▁quick	-9.11064
▁rtun	-9.11257
▁thr	-9.1127
▁trip	-9.11487
▁Scot	-9.11521
▁temp	-9.11532
▁oters	-9.11629
▁Octo	-9.11678
▁swi	-9.11783
▁died	-9.11795
▁An	-9.11805
▁Du	-9.11933
ath	-9.11959
▁July	-9.12054
▁lost	-9.12101
▁usto	-9.12192
nerg	-9.12245
▁pain	-9.12285
▁ease	-9.12364
▁frica	-9.12438
▁eague	-9.12618
▁act	-9.12914
▁wide	-9.13018
▁expl	-9.13195
▁road	-9.13204
▁ical	-9.13246
▁oil	-9.13299
▁ensu	-9.13373
▁arli	-9.13521
he	-9.13735
▁cu	-9.13829
▁ourt	-9.13964
▁eight	-9.14139
▁ara	-9.14312
▁model	-9.1439
▁hare	-9.14404
▁fall	-9.14594
▁uncil	-9.14913
liv	-9.1496
soci	-9.15055
▁March	-9.15197
A	-9.15208
▁20	-9.15539
merg	-9.1554
▁figu	-9.16007
ox	-9.16066
▁AI	-9.16082
▁quit	-9.16253
▁ommo	-9.16412
▁dead	-9.16456
erma	-9.16605
▁mount	-9.16607
▁ility	-9.16656
▁trad	-9.16677
▁oach	-9.16682
▁wife	-9.16684
ular	-9.16769
▁door	-9.16867
▁Do	-9.16935
▁sea	-9.17032
▁que	-9.17032
▁argu	-9.17068
▁ack	-9.17137
▁Of	-9.17191
▁Go	-9.17413
▁Whit	-9.17471
vail	-9.17572
▁nu	-9.17593
▁mand	-9.17617
▁urg	-9.17703
epar	-9.17706
▁rning	-9.17713
▁Vi	-9.17717
▁worth	-9.17962
ha	-9.17975
▁entr	-9.18064
▁April	-9.18136
▁trial	-9.18141
▁ail	-9.18142
▁host	-9.18361
▁Chi	-9.18401
▁cer	-9.18436
▁ump	-9.18584
▁glob	-9.18617
▁stice	-9.18621
nefi	-9.18638
▁rain	-9.18703
▁sonal	-9.18839
▁han	-9.18845
▁mon	-9.18959
▁mate	-9.19071
▁ross	-9.19116
▁oint	-9.19187
▁ource	-9.19299
▁emb	-9.19318
▁Gov	-9.19673
▁fied	-9.1972
▁goal	-9.19737
▁tour	-9.19737
▁prem	-9.19806
▁ales	-9.19832
▁hug	-9.1992
▁ess	-9.20009
▁omb	-9.20043
▁odi	-9.2007
▁began	-9.20142
▁admi	-9.20144
▁mp	-9.20157
▁town	-9.20187
▁spir	-9.20413
▁treet	-9.20473
▁abour	-9.20594
▁bad	-9.20776
▁ped	-9.20871
▁King	-9.21223
ales	-9.21235
▁ens	-9.21327
▁hip	-9.21404
▁tors	-9.21447
▁ttend	-9.2164
▁scus	-9.21852
▁arter	-9.21899
▁shows	-9.2193
▁push	-9.21951
▁entre	-9.21996
▁wood	-9.22115
▁nch	-9.22122
▁ports	-9.22129
nect	-9.22187
▁natu	-9.22303
▁pur	-9.2237
▁mina	-9.22776
lain	-9.22787
▁safe	-9.22805
▁hing	-9.22826
▁organ	-9.23011
▁tec	-9.2305
▁chief	-9.23094
▁gi	-9.23112
▁vest	-9.23462
▁exec	-9.23475
▁yment	-9.2353
▁audi	-9.23586
▁Dr	-9.23628
▁...	-9.23845
▁lives	-9.23973
av	-9.24055
▁leav	-9.24183
▁nian	-9.24248
men	-9.24294
▁kno	-9.24409
▁ones	-9.2457
▁bar	-9.24603
▁pict	-9.24612
▁begin	-9.24734
▁pand	-9.24756
▁cade	-9.24759
augh	-9.24766
▁mpet	-9.24829
▁track	-9.25039
▁jo	-9.25045
▁Wash	-9.25055
▁elf	-9.25084
▁wor	-9.25093
▁van	-9.25392
▁Si	-9.25396
▁owner	-9.25421
▁logi	-9.25609
▁eived	-9.25687
▁vari	-9.25795
▁ision	-9.25879
▁ffer	-9.26051
▁park	-9.26079
▁Now	-9.26195
outh	-9.26293
▁cru	-9.26294
▁rate	-9.26344
wi	-9.26412
▁lica	-9.26439
▁roach	-9.26596
▁nic	-9.26774
▁scene	-9.26779
▁ome	-9.26936
mple	-9.26937
▁seri	-9.27201
▁link	-9.27387
liev	-9.27496
▁eal	-9.27543
▁plans	-9.27618
▁dents	-9.27709
▁Ju	-9.27757
▁heat	-9.27915
▁ition	-9.27982
lack	-9.28019
pita	-9.28024
▁tte	-9.2803
▁ccus	-9.28138
▁mic	-9.28144
▁rise	-9.28194
▁div	-9.28255
▁Ever	-9.2826
▁Image	-9.28356
lymp	-9.28464
▁impr	-9.28464
▁Mc	-9.2848
▁arm	-9.28618
▁ffic	-9.28624
spec	-9.28672
genc	-9.28811
▁nse	-9.28981
▁needs	-9.29053
▁sk	-9.29104
▁afety	-9.29254
mpac	-9.29307
▁Hama	-9.29308
▁dica	-9.29341
▁anno	-9.29511
▁Sha	-9.29583
▁lock	-9.29651
▁lace	-9.29724
▁cast	-9.29869
▁ribe	-9.29904
▁check	-9.29932
ke	-9.29956
▁gun	-9.3006
▁soon	-9.3015
▁lain	-9.30358
ver	-9.30391
▁oth	-9.30458
▁ctor	-9.30614
▁store	-9.30787
▁tent	-9.30792
▁ner	-9.30958
▁Ga	-9.30961
▁ounty	-9.3103
▁brand	-9.31034
on	-9.31101
▁ars	-9.31291
▁Q	-9.31378
▁ily	-9.31459
▁ract	-9.31468
▁eriod	-9.31498
▁rupt	-9.31542
▁mains	-9.31546
▁press	-9.31548
▁enjo	-9.31721
▁leave	-9.31997
▁tates	-9.32212
▁tely	-9.32284
▁giv	-9.32318
▁sto	-9.3232
▁ctim	-9.32594
▁whi	-9.32727
▁Net	-9.32763
▁gui	-9.32881
▁neg	-9.3306
▁alia	-9.33088
▁ough	-9.33251
▁Pic	-9.33261
▁cor	-9.33399
▁ash	-9.33483
▁white	-9.33504
alif	-9.33541
▁ssing	-9.33577
▁Hu	-9.33601
▁anies	-9.33622
▁sell	-9.33658
▁stat	-9.3368
▁fede	-9.33704
▁La	-9.33875
▁spi	-9.34015
▁fast	-9.34017
▁hed	-9.34236
▁else	-9.34294
▁pular	-9.34357
▁nyone	-9.34398
▁Star	-9.34491
▁ugust	-9.345
ign	-9.34641
▁nent	-9.34701
gree	-9.3473
▁ish	-9.34801
▁eith	-9.3482
▁30	-9.34983
▁situ	-9.35049
▁fer	-9.35075
▁docu	-9.35094
la	-9.35117
▁Las	-9.35121
▁iled	-9.35159
▁ors	-9.35187
▁imme	-9.35269
▁crime	-9.3542
▁site	-9.35574
▁rrow	-9.35622
▁ised	-9.35666
▁cing	-9.35772
▁ls	-9.35783
▁Inter	-9.35898
▁Her	-9.36013
ugh	-9.36038
▁eat	-9.36162
▁civi	-9.36172
▁tru	-9.36237
▁minal	-9.36245
▁Isl	-9.36263
▁lic	-9.3636
▁mur	-9.36384
▁fine	-9.36406
▁Fa	-9.36406
▁dev	-9.36581
▁nomy	-9.3673
qua	-9.36756
▁pack	-9.36807
▁rac	-9.36944
▁Mar	-9.36967
▁north	-9.37017
▁meas	-9.37029
▁East	-9.37139
fu	-9.37155
▁buy	-9.37166
▁ban	-9.37205
▁dates	-9.37294
▁ompa	-9.37368
▁nsib	-9.37407
▁oast	-9.37416
▁block	-9.375
hoot	-9.37566
▁tail	-9.37626
▁drug	-9.37698
▁exp	-9.37864
▁rath	-9.37884
▁tress	-9.3789
▁ncern	-9.37963
▁rank	-9.37981
eek	-9.37982
▁diat	-9.38088
▁ado	-9.38147
▁maker	-9.38167
▁gold	-9.38238
igh	-9.38357
▁tform	-9.38429
▁firm	-9.38489
▁rinc	-9.38838
▁ornia	-9.39199
or	-9.39251
cept	-9.39267
au	-9.3937
tiv	-9.3943
▁Feb	-9.39509
▁lue	-9.39628
▁ddl	-9.39862
▁ways	-9.39965
▁loss	-9.40021
▁ubli	-9.40041
▁scor	-9.40056
▁tini	-9.40188
▁value	-9.4024
▁laims	-9.40324
▁amp	-9.40413
▁ould	-9.40635
▁ew	-9.40665
▁rown	-9.40754
▁BBC	-9.40816
▁hood	-9.40819
▁fil	-9.40931
▁ez	-9.41046
ful	-9.41102
ultu	-9.4119
▁Sta	-9.41258
▁mb	-9.41313
▁fence	-9.41461
▁ety	-9.41496
▁abil	-9.41545
▁ray	-9.41572
▁Da	-9.41784
▁harm	-9.41846
▁mila	-9.4185
▁isa	-9.41851
▁lett	-9.41991
▁rself	-9.42092
▁Ba	-9.4211
▁pi	-9.42138
▁Eve	-9.42232
▁eer	-9.42267
▁bed	-9.42356
▁ire	-9.42405
▁qui	-9.42477
▁bas	-9.42521
▁range	-9.42669
▁sband	-9.42772
▁Day	-9.42779
▁lliam	-9.42783
▁ative	-9.4284
▁tro	-9.42949
ect	-9.43064
div	-9.43092
▁Can	-9.43149
▁par	-9.43178
▁Ho	-9.43208
▁educ	-9.43211
▁bank	-9.43335
▁nda	-9.43352
▁succ	-9.43362
▁hance	-9.43364
ir	-9.43388
▁blem	-9.43648
nior	-9.43692
▁wrong	-9.4375
▁male	-9.43897
▁opti	-9.43973
▁olle	-9.44
▁fear	-9.4403
▁ating	-9.4404
is	-9.44189
▁pply	-9.44446
▁fect	-9.4448
ru	-9.4449
▁12	-9.44499
▁lower	-9.44506
▁tary	-9.44624
▁dom	-9.44653
tant	-9.44708
▁score	-9.44861
▁teg	-9.44994
ncou	-9.45024
▁ics	-9.45075
niz	-9.45087
▁15	-9.4516
▁main	-9.45239
▁gave	-9.45281
▁ctory	-9.45355
▁fill	-9.45464
▁pick	-9.45689
▁poll	-9.45707
▁cter	-9.45717
▁path	-9.45937
▁ull	-9.45991
▁bate	-9.46062
▁orig	-9.46102
▁bab	-9.4611
▁ssa	-9.46116
▁Paris	-9.46137
▁tient	-9.46163
▁venue	-9.46231
hic	-9.46299
▁David	-9.46368
▁ach	-9.46561
▁fair	-9.46611
amag	-9.46715
▁Cup	-9.46788
▁ana	-9.46875
x	-9.46892
fla	-9.46973
▁More	-9.47211
▁sults	-9.47263
▁Ex	-9.47294
▁Park	-9.47389
▁title	-9.47399
▁sav	-9.47469
▁iz	-9.47495
▁roll	-9.47506
▁mum	-9.47588
▁tance	-9.47722
▁thi	-9.47749
▁sold	-9.47761
▁ancer	-9.47764
▁ood	-9.47767
fer	-9.4777
f	-9.47794
▁creen	-9.47838
▁cott	-9.47883
▁ening	-9.47891
▁sense	-9.47911
▁happy	-9.47999
▁areas	-9.48002
mov	-9.48037
▁heard	-9.48068
▁spec	-9.48307
▁Sea	-9.48312
▁image	-9.48399
▁ogn	-9.48407
▁ke	-9.48423
▁doub	-9.48442
▁owl	-9.48456
▁ory	-9.48596
▁War	-9.48619
▁ow	-9.48625
▁sist	-9.48682
▁Not	-9.48752
▁hop	-9.48829
ar	-9.49007
▁extra	-9.49114
▁actor	-9.4915
ging	-9.49152
▁nduct	-9.49366
▁earn	-9.49371
▁rench	-9.4938
▁ick	-9.494
▁ula	-9.49501
▁liday	-9.49515
▁zz	-9.4959
▁My	-9.49654
D	-9.49686
▁paper	-9.49686
▁dcast	-9.49718
▁fense	-9.49725
▁rou	-9.4974
▁udget	-9.49901
flu	-9.49932
▁lk	-9.49934
▁uck	-9.49979
▁paid	-9.50054
▁tu	-9.50071
▁conf	-9.50117
▁fac	-9.50158
▁yer	-9.50202
▁dium	-9.5024
▁legi	-9.50248
▁llow	-9.50329
▁ridge	-9.50338
▁duct	-9.50429
▁flict	-9.50432
▁exis	-9.5045
▁ester	-9.50468
▁hou	-9.50474
ecre	-9.50504
▁hap	-9.5058
▁memo	-9.50595
▁pool	-9.50758
▁uring	-9.51105
▁ath	-9.51111
▁sli	-9.51181
▁peech	-9.51268
▁kids	-9.51302
▁judge	-9.5134
▁ny	-9.51634
▁ney	-9.51652
▁bill	-9.51889
▁dio	-9.51993
▁llege	-9.5207
sum	-9.52085
▁Photo	-9.52113
▁unch	-9.5217
low	-9.52266
ry	-9.52425
▁Dis	-9.52428
▁rima	-9.52433
▁sis	-9.52499
▁tes	-9.52502
▁via	-9.52651
▁dul	-9.52661
▁clea	-9.52837
▁ppeal	-9.52889
▁cases	-9.52906
▁amb	-9.52943
▁rita	-9.53003
▁costs	-9.53187
▁ontr	-9.53252
E	-9.53288
00	-9.53296
▁hoice	-9.53462
▁First	-9.53576
▁tness	-9.53576
▁erous	-9.5361
▁lth	-9.53701
▁oke	-9.5372
▁tern	-9.53791
lar	-9.53811
▁ult	-9.53819
▁cerns	-9.53826
▁plo	-9.53886
▁bra	-9.53913
▁prise	-9.54029
▁easy	-9.5404
▁ou	-9.54121
▁lays	-9.5415
▁dam	-9.54153
▁ific	-9.54187
▁anger	-9.54235
▁gone	-9.54238
▁rul	-9.54269
▁trus	-9.54282
▁ide	-9.54385
▁James	-9.54449
▁boy	-9.54599
▁okes	-9.54762
▁deb	-9.54807
▁ola	-9.54935
▁oss	-9.55022
▁east	-9.55107
▁nes	-9.55223
▁ock	-9.5526
▁rices	-9.55277
eigh	-9.5529
▁ap	-9.55523
▁urope	-9.55562
▁pp	-9.55593
▁rats	-9.55607
▁nnel	-9.55633
▁aid	-9.55733
▁ev	-9.55751
▁ual	-9.55764
redi	-9.55769
▁sands	-9.55801
▁study	-9.55818
▁onfe	-9.55825
▁Na	-9.55857
▁ye	-9.55888
▁birth	-9.55941
▁Qu	-9.55949
▁mis	-9.55996
▁uggl	-9.56179
▁immi	-9.56215
ppro	-9.56309
nce	-9.56322
▁tmas	-9.56342
▁har	-9.56421
▁ffor	-9.56591
▁focus	-9.56649
▁tric	-9.56683
▁ki	-9.56727
▁chair	-9.56928
▁avoid	-9.57078
▁shock	-9.57206
▁_	-9.57333
▁epi	-9.57347
▁sex	-9.57419
peci	-9.57647
tro	-9.57773
▁rant	-9.5794
▁trem	-9.57984
▁lling	-9.57986
▁ran	-9.58072
▁esca	-9.58243
▁Jack	-9.58303
▁table	-9.58388
▁Dan	-9.5844
▁fam	-9.58514
▁hear	-9.58517
▁ad	-9.58527
▁eli	-9.58584
▁lin	-9.5866
▁flec	-9.58722
▁movie	-9.58765
:	-9.58768
▁page	-9.58785
▁rai	-9.58858
▁Iran	-9.58859
▁rag	-9.58879
▁Ti	-9.58981
▁circ	-9.5901
▁shire	-9.59021
▁assi	-9.59098
▁les	-9.59162
▁erc	-9.59228
▁mfort	-9.59266
▁gain	-9.59341
▁hysi	-9.5945
ided	-9.59462
▁rney	-9.59601
▁pair	-9.59612
swer	-9.59772
cit	-9.59778
▁Me	-9.59811
▁oin	-9.59836
▁Prime	-9.59919
▁msel	-9.59926
lima	-9.60006
▁sort	-9.60006
▁peace	-9.60053
▁crowd	-9.60055
▁mine	-9.60099
im	-9.60134
▁touch	-9.60232
▁Ki	-9.603
su	-9.60393
▁rite	-9.60422
▁stock	-9.6045
▁loved	-9.60655
▁size	-9.60724
▁Party	-9.60795
▁oll	-9.60796
▁risis	-9.60846
▁sport	-9.60865
▁rush	-9.60873
▁lent	-9.60913
▁em	-9.60968
▁ise	-9.60992
▁ride	-9.61032
aunc	-9.61038
▁torm	-9.61044
▁cert	-9.61203
▁gent	-9.61265
▁qua	-9.613
▁olly	-9.61353
▁ford	-9.614
tain	-9.61717
▁dog	-9.61887
▁deli	-9.61906
▁ferr	-9.62206
▁ndard	-9.62226
▁drink	-9.62305
▁lish	-9.62309
▁aim	-9.62424
▁mas	-9.62438
each	-9.62593
▁esse	-9.62628
▁eas	-9.62685
▁Paul	-9.6271
new	-9.63101
▁kick	-9.63118
▁pull	-9.63158
▁ark	-9.63232
▁xi	-9.6328
▁lash	-9.63294
▁rian	-9.63373
▁dia	-9.63474
▁ndred	-9.63689
▁pread	-9.6375
▁erry	-9.6392
▁eil	-9.63927
▁mmun	-9.63974
▁Smith	-9.64065
▁ngel	-9.64071
pent	-9.64076
▁Wal	-9.64112
▁geria	-9.64202
▁Inst	-9.64206
▁istan	-9.64222
▁ele	-9.64274
▁ose	-9.64287
▁gar	-9.64302
hara	-9.64351
▁send	-9.64403
▁named	-9.64499
hav	-9.64564
▁tream	-9.64762
▁guard	-9.64764
▁eth	-9.64799
rend	-9.6481
▁favo	-9.64984
▁alm	-9.65242
▁rri	-9.65354
▁St	-9.65362
▁Ab	-9.65371
▁hair	-9.6546
▁ining	-9.65473
rior	-9.65541
dul	-9.65545
▁true	-9.65581
▁throw	-9.65609
eapo	-9.6566
▁terms	-9.65734
▁tre	-9.65787
w	-9.65803
▁ttle	-9.65836
▁50	-9.65903
▁om	-9.65963
▁plant	-9.66002
▁essi	-9.66187
▁tics	-9.6634
▁voice	-9.66433
▁ized	-9.66568
▁ole	-9.66626
▁ator	-9.66793
▁Green	-9.6685
▁pe	-9.66858
attl	-9.66864
erv	-9.66879
▁focu	-9.66888
▁cho	-9.66915
▁oon	-9.66978
▁Lo	-9.67049
▁aint	-9.67105
If	-9.67141
▁Times	-9.67151
▁emi	-9.67236
▁nica	-9.67242
▁ades	-9.67256
▁ntent	-9.67293
He	-9.67299
ture	-9.67317
z	-9.67317
▁prom	-9.67321
tori	-9.67406
▁ool	-9.67477
▁posed	-9.67563
tion	-9.6768
▁perty	-9.67728
▁ag	-9.67739
▁epar	-9.67799
sh	-9.67888
▁homes	-9.67917
ledg	-9.67933
▁Or	-9.68009
▁scar	-9.68077
▁rvi	-9.68081
▁rati	-9.68149
▁iv	-9.68264
▁teen	-9.6832
▁Char	-9.68353
▁ntac	-9.68394
▁teria	-9.68582
▁skin	-9.68608
▁ega	-9.6869
▁gital	-9.68727
▁nel	-9.68759
▁ade	-9.68763
▁award	-9.6877
▁ior	-9.68783
▁pper	-9.6882
▁rules	-9.69067
▁Wil	-9.69073
▁vo	-9.691
▁sleep	-9.69107
gio	-9.69109
▁rew	-9.69125
▁poor	-9.69289
▁wall	-9.6941
▁norm	-9.69468
ettl	-9.69485
▁rote	-9.69525
▁erg	-9.69603
▁ile	-9.69767
▁sti	-9.69784
▁arra	-9.69827
▁sions	-9.6984
▁Cla	-9.70057
▁bag	-9.70107
▁ston	-9.70108
▁abi	-9.70128
vanc	-9.70195
▁aily	-9.70247
▁llar	-9.70349
tanc	-9.70383
▁ector	-9.7043
▁ngl	-9.70458
▁amera	-9.70475
▁sia	-9.70508
▁ace	-9.7056
▁hose	-9.70671
▁dro	-9.70729
▁ada	-9.70829
▁looks	-9.70918
▁rates	-9.70921
▁ee	-9.7097
▁hour	-9.70976
▁fri	-9.71012
ware	-9.71017
▁lines	-9.71087
▁styl	-9.71291
▁aw	-9.71406
▁cans	-9.71482
▁teams	-9.71582
▁lip	-9.71604
▁drive	-9.71617
ov	-9.71714
▁nned	-9.71726
▁pitch	-9.71732
▁ducts	-9.71763
▁yal	-9.71772
▁raz	-9.71802
▁oti	-9.71818
▁gard	-9.7182
▁built	-9.71869
▁Fi	-9.71907
▁ffa	-9.71932
▁ead	-9.71998
▁dden	-9.72058
▁ortu	-9.72077
rela	-9.72109
▁Flor	-9.72158
▁ecret	-9.72167
▁umb	-9.72171
▁Chief	-9.72176
▁gan	-9.72188
▁gue	-9.72188
st	-9.722
out	-9.72366
▁issed	-9.72385
▁sla	-9.72551
▁views	-9.72574
▁ita	-9.72599
▁drama	-9.72646
▁ealth	-9.72753
▁hot	-9.72756
▁ok	-9.7296
▁seat	-9.72969
▁Mean	-9.72978
▁ssful	-9.73083
▁text	-9.73173
▁broad	-9.73182
▁fy	-9.73191
▁Ou	-9.73258
ust	-9.73306
▁nings	-9.7341
▁ili	-9.7344
▁Japan	-9.73506
lex	-9.73532
▁cept	-9.7363
▁cy	-9.73644
▁aren	-9.7365
▁ctors	-9.73689
▁Col	-9.73726
peak	-9.73796
▁embl	-9.73915
▁Los	-9.73935
▁Korea	-9.73958
▁opul	-9.73967
▁ream	-9.74052
▁ommi	-9.74054
▁yard	-9.74145
▁nvic	-9.7445
▁hands	-9.745
▁ip	-9.74554
▁hotel	-9.74591
▁Andr	-9.74621
▁spr	-9.74651
ipa	-9.74683
▁stake	-9.74822
▁nge	-9.74873
ptio	-9.74873
▁ich	-9.74912
hift	-9.74916
▁runs	-9.75017
▁gro	-9.75025
▁mart	-9.75037
mb	-9.75165
▁ille	-9.752
rom	-9.75427
▁14	-9.75432
▁nger	-9.75432
▁nti	-9.75441
▁alone	-9.75476
▁craft	-9.75477
▁11	-9.75515
▁row	-9.75738
▁limi	-9.75741
com	-9.75836
▁fals	-9.75898
▁opt	-9.76029
▁Sch	-9.7609
▁above	-9.76093
let	-9.76247
▁gla	-9.76292
▁exac	-9.76333
▁pet	-9.76353
ight	-9.76355
▁ave	-9.76361
▁blood	-9.76399
▁ane	-9.76435
▁lcome	-9.76435
▁auto	-9.76472
▁ords	-9.76487
▁tz	-9.76578
▁seem	-9.76635
▁ore	-9.76639
▁rden	-9.76678
▁nec	-9.76806
▁pen	-9.76851
▁llage	-9.76877
▁lose	-9.77172
▁tests	-9.77174
▁25	-9.77316
▁AP	-9.77325
▁menta	-9.77386
▁lf	-9.77464
▁bsite	-9.77485
▁anal	-9.77692
▁plea	-9.77704
▁eb	-9.77705
nd	-9.77741
▁rist	-9.77784
▁blems	-9.77888
▁rge	-9.77928
▁loyee	-9.77955
▁fan	-9.78015
▁card	-9.78065
▁dream	-9.78115
▁words	-9.7813
▁Texas	-9.78147
▁sens	-9.78194
▁ama	-9.78259
to	-9.78326
▁wear	-9.7838
stab	-9.78391
▁reli	-9.78488
▁gg	-9.78575
▁Gra	-9.78736
▁train	-9.78783
▁nta	-9.78832
resh	-9.78846
▁rk	-9.78916
▁reat	-9.7901
sive	-9.79138
▁Fox	-9.79219
▁obert	-9.79289
▁shi	-9.79473
▁scr	-9.79492
▁ounts	-9.79561
▁gre	-9.79672
ious	-9.79804
▁Two	-9.7986
▁phi	-9.80103
▁mbl	-9.8011
▁sw	-9.80112
emi	-9.8046
▁cons	-9.80466
▁bort	-9.80522
▁ified	-9.8053
▁west	-9.80549
▁rtist	-9.80567
▁fell	-9.80699
mplo	-9.80724
▁nap	-9.80778
▁lan	-9.80779
▁rit	-9.81081
▁rgin	-9.81089
equ	-9.81103
▁tails	-9.81118
▁llen	-9.81168
▁seems	-9.81191
▁fit	-9.81208
▁prime	-9.81255
▁rich	-9.81297
▁@	-9.81304
▁Tra	-9.81321
▁tele	-9.8134
▁omen	-9.81345
▁rat	-9.81413
▁nest	-9.81413
▁spen	-9.81427
▁sound	-9.8147
▁urant	-9.81549
▁eyond	-9.81656
▁lleg	-9.81666
▁ur	-9.81688
▁uts	-9.81729
▁Putin	-9.81796
▁nion	-9.81875
▁EU	-9.81886
▁erti	-9.81895
▁save	-9.81904
▁mmy	-9.81927
▁arc	-9.81929
▁word	-9.82152
▁18	-9.82184
▁fuel	-9.82213
▁ique	-9.82352
▁pple	-9.82355
▁ata	-9.82368
▁ain	-9.82384
▁goals	-9.82415
▁Mark	-9.82514
▁mala	-9.82546
▁urn	-9.8262
▁wild	-9.82637
▁oost	-9.82658
▁sett	-9.82684
▁ove	-9.82746
▁sight	-9.82761
▁isn	-9.82771
▁sault	-9.82775
pre	-9.8283
▁Ko	-9.82854
▁lif	-9.82901
▁losed	-9.82928
lu	-9.82996
ta	-9.83053
▁hen	-9.83063
▁ots	-9.83218
▁ising	-9.83251
▁tone	-9.83271
▁rsen	-9.83327
▁enger	-9.83465
pond	-9.83506
▁grad	-9.83539
▁lus	-9.83706
▁ower	-9.83749
▁ert	-9.83753
▁rett	-9.83755
▁ony	-9.83825
mid	-9.83844
▁wed	-9.83866
▁rope	-9.83877
▁anc	-9.8388
▁rch	-9.83915
itiz	-9.84004
ylo	-9.84131
▁orce	-9.84146
▁perts	-9.84159
▁bb	-9.84222
▁ans	-9.84245
▁parts	-9.84316
▁tera	-9.8432
▁cro	-9.84339
▁oot	-9.84369
cing	-9.84435
▁rash	-9.845
▁baby	-9.84528
▁dest	-9.84898
▁Harry	-9.84904
▁cash	-9.8499
▁ngu	-9.84995
▁rap	-9.85024
▁Sa	-9.85072
▁ments	-9.85133
ur	-9.85154
▁imm	-9.85246
▁calls	-9.85252
▁kTok	-9.85275
▁rock	-9.85471
▁users	-9.85512
▁syl	-9.8561
▁noted	-9.85646
▁tto	-9.8567
▁rvey	-9.85785
▁anon	-9.85807
▁rpor	-9.85807
▁ami	-9.85834
▁ird	-9.86001
▁fle	-9.86201
▁prop	-9.86362
eing	-9.86412
ent	-9.86414
▁bil	-9.86439
▁ura	-9.86499
▁unit	-9.86726
▁warm	-9.86826
▁dress	-9.86837
▁piece	-9.86987
▁pan	-9.87118
▁ope	-9.87208
▁eive	-9.87241
▁aning	-9.8729
▁Here	-9.87333
▁tives	-9.87343
▁ayo	-9.87384
▁fun	-9.87465
▁jobs	-9.87487
▁oyal	-9.87566
sist	-9.87648
▁Guard	-9.87667
ang	-9.8772
▁ried	-9.87918
lanc	-9.88087
▁band	-9.88379
▁olor	-9.88571
▁vis	-9.88574
▁dad	-9.88689
▁urch	-9.88746
▁ze	-9.8877
▁ode	-9.88785
▁vou	-9.88797
▁union	-9.8892
▁ntest	-9.88923
▁agg	-9.88962
▁40	-9.88989
▁gri	-9.89
▁100	-9.89094
▁Rep	-9.89109
▁Un	-9.89235
▁lli	-9.89424
▁amin	-9.89646
▁mited	-9.89663
▁gas	-9.89672
▁rity	-9.89688
no	-9.89788
▁laugh	-9.89808
▁Ed	-9.89842
▁enate	-9.9003
▁wri	-9.90058
▁lam	-9.90141
▁hel	-9.90287
▁zon	-9.90327
▁pace	-9.90331
▁mit	-9.90332
▁24	-9.90381
▁shio	-9.9044
▁rid	-9.90544
▁Gu	-9.90546
▁assed	-9.90591
ther	-9.90603
▁Sun	-9.90637
▁ler	-9.9074
▁tick	-9.90752
▁clu	-9.90919
▁tend	-9.91086
▁ang	-9.91192
▁Mat	-9.91211
rem	-9.91273
ief	-9.91322
▁Gene	-9.91398
▁mise	-9.91506
▁16	-9.91508
▁pec	-9.91527
▁artin	-9.9154
B	-9.91542
▁mony	-9.91546
▁dal	-9.91819
▁outh	-9.92052
▁atto	-9.92071
▁isla	-9.92079
▁pose	-9.92088
▁rack	-9.92092
▁sod	-9.92094
▁rry	-9.92104
▁McC	-9.92274
ack	-9.92299
▁fying	-9.92319
▁Wa	-9.92483
▁genc	-9.92489
▁nia	-9.92588
▁lit	-9.92592
▁trou	-9.92615
▁ndow	-9.92842
▁Liv	-9.93057
▁obi	-9.93108
▁urna	-9.93151
▁sky	-9.93155
▁fly	-9.93164
▁atri	-9.93192
▁oes	-9.93236
▁ills	-9.9324
▁eats	-9.93356
▁enc	-9.93403
▁cies	-9.93446
▁cyc	-9.93462
▁ees	-9.93634
▁sets	-9.93735
▁enne	-9.9374
▁13	-9.93752
▁arb	-9.93755
▁Don	-9.938
▁idd	-9.93884
▁ists	-9.93952
▁--	-9.9402
▁thu	-9.94023
▁esses	-9.94054
▁exc	-9.9413
▁tches	-9.94174
▁oat	-9.94244
▁sale	-9.94335
▁By	-9.94433
▁rofit	-9.94462
▁song	-9.94506
▁yan	-9.94511
▁alist	-9.94552
▁llah	-9.94685
▁iou	-9.94829
us	-9.94888
▁op	-9.95034
▁wa	-9.95072
▁rried	-9.95158
▁arol	-9.95201
▁valu	-9.95221
▁iance	-9.95243
▁pic	-9.95267
▁sit	-9.95268
▁Bank	-9.9558
▁dark	-9.95617
arry	-9.95675
▁uke	-9.9577
▁ery	-9.95781
▁bel	-9.95915
▁rcha	-9.95929
▁Phi	-9.9597
▁urr	-9.96131
▁uma	-9.96146
▁ure	-9.96221
▁abuse	-9.96362
▁rmy	-9.96365
▁ium	-9.9639
▁nov	-9.96469
▁tars	-9.96472
▁eta	-9.96507
▁lied	-9.96573
▁dra	-9.96614
▁osp	-9.96626
▁mach	-9.96688
▁nna	-9.96799
▁riz	-9.96821
▁utter	-9.96854
▁ively	-9.96924
▁urb	-9.96926
▁ov	-9.97011
▁oca	-9.97089
▁era	-9.97199
▁asio	-9.97244
▁guil	-9.97352
▁hall	-9.97355
▁oy	-9.97447
▁Th	-9.97498
▁ghan	-9.97534
▁abs	-9.97621
▁cou	-9.9766
▁lar	-9.97678
▁jec	-9.97795
ject	-9.97815
▁onto	-9.97817
▁faci	-9.979
▁rner	-9.97967
▁ction	-9.97983
▁usk	-9.98211
C	-9.98247
▁pm	-9.98443
▁maz	-9.98468
▁otion	-9.98537
▁email	-9.98617
▁ora	-9.98738
▁ncy	-9.98886
▁marr	-9.98905
▁dern	-9.98918
▁und	-9.99004
▁hole	-9.99049
▁lec	-9.99141
▁item	-9.99152
vent	-9.99187
▁mm	-9.99197
▁bum	-9.99199
▁ico	-9.99382
▁rival	-9.9945
▁ets	-9.9948
duc	-9.99576
▁ol	-9.9958
▁rule	-9.99611
ri	-9.99612
▁ides	-9.99664
▁laces	-9.99679
▁alit	-9.99732
▁irs	-9.99806
▁inger	-9.99823
▁etch	-9.9991
▁nny	-9.99976
▁prec	-10.0001
▁stab	-10.0002
▁cell	-10.0003
▁ala	-10.0013
▁flu	-10.0022
▁wn	-10.0023
▁orn	-10.004
▁ari	-10.0042
▁nance	-10.0045
▁os	-10.0046
▁bio	-10.0051
▁BJP	-10.0057
▁nds	-10.0062
▁mile	-10.0079
▁dance	-10.0081
▁eld	-10.009
▁lour	-10.009
▁aba	-10.0091
▁tac	-10.0098
▁Po	-10.0106
▁heme	-10.0112
▁tly	-10.012
▁cry	-10.0133
▁hic	-10.0145
▁yd	-10.0161
▁choo	-10.0166
▁ife	-10.0167
▁Tom	-10.0179
▁miles	-10.0188
▁odd	-10.0199
▁gs	-10.0206
▁im	-10.0217
▁Kat	-10.0218
▁ister	-10.0224
▁ese	-10.0231
▁ench	-10.0236
▁omme	-10.024
ffic	-10.0241
▁heir	-10.0244
▁dee	-10.0245
na	-10.0253
▁cue	-10.0259
▁ombi	-10.026
▁cau	-10.0272
▁ork	-10.0286
▁val	-10.0287
rew	-10.0296
▁gle	-10.0312
▁eep	-10.0316
▁pri	-10.0328
▁mpt	-10.0328
▁isco	-10.0329
▁eau	-10.0331
▁arth	-10.0338
▁fail	-10.0349
▁vit	-10.0354
▁otes	-10.0363
▁pse	-10.0364
▁Sec	-10.0369
▁esta	-10.0369
▁lex	-10.0379
▁nts	-10.0385
▁dri	-10.0387
▁etro	-10.0387
▁ages	-10.0415
▁elen	-10.0419
▁rad	-10.0422
▁gger	-10.0431
olv	-10.0435
▁advi	-10.0454
▁rab	-10.0458
▁tip	-10.0476
▁ntage	-10.049
▁wave	-10.0492
▁eva	-10.0507
▁ift	-10.0509
▁stle	-10.052
▁sal	-10.0521
▁grat	-10.0532
ught	-10.0532
▁plane	-10.0538
▁mor	-10.0544
▁gna	-10.055
▁hell	-10.0556
▁vet	-10.0565
▁enn	-10.0569
▁noo	-10.0574
▁ubt	-10.0575
▁mu	-10.0577
iti	-10.0585
▁Ira	-10.0589
▁gic	-10.0593
▁UN	-10.0595
▁twi	-10.0604
▁mote	-10.0608
▁wr	-10.0615
▁nty	-10.0623
tinu	-10.063
ge	-10.0632
▁lig	-10.0635
▁amme	-10.0659
▁=	-10.0664
it	-10.0665
▁+	-10.0666
▁duc	-10.0666
tric	-10.067
ow	-10.0671
▁olls	-10.0682
▁CEO	-10.0687
▁ah	-10.0695
▁elt	-10.0699
▁nice	-10.07
▁gno	-10.0702
hing	-10.0707
▁uri	-10.0718
▁racy	-10.0727
S	-10.0732
▁rre	-10.0733
▁hang	-10.0736
▁dow	-10.0748
▁lco	-10.0752
▁ys	-10.0753
▁kin	-10.0764
▁bott	-10.0772
▁blo	-10.0776
▁till	-10.0778
ith	-10.078
▁eek	-10.0783
▁roup	-10.0788
▁mbi	-10.0796
▁ero	-10.0831
▁mma	-10.0837
▁Gla	-10.0848
▁emot	-10.0853
▁ckets	-10.0856
▁tur	-10.0857
▁soci	-10.087
▁lim	-10.0879
▁rally	-10.0882
our	-10.0883
▁die	-10.0888
▁neu	-10.0913
eces	-10.0914
▁ged	-10.0915
▁ible	-10.0921
▁yri	-10.0927
pee	-10.0932
▁pil	-10.0937
▁egr	-10.0941
▁tori	-10.0956
▁fix	-10.097
▁ano	-10.0976
▁ahu	-10.0978
▁dor	-10.0981
)	-10.0982
My	-10.0994
▁dg	-10.1014
▁aci	-10.1037
▁stin	-10.1045
▁aj	-10.1072
▁wan	-10.1076
de	-10.1078
▁burn	-10.1081
▁Art	-10.1086
▁xed	-10.1086
▁lab	-10.1089
▁}	-10.1091
▁ater	-10.1101
ky	-10.1104
▁cow	-10.1105
▁nied	-10.1106
▁vent	-10.1107
▁olo	-10.1112
il	-10.112
▁axi	-10.1152
▁ntain	-10.1154
▁uggle	-10.1164
▁ories	-10.1166
▁ker	-10.1172
▁endo	-10.1176
▁ecure	-10.118
▁uch	-10.1181
▁wag	-10.1187
▁sun	-10.1189
▁user	-10.12
elec	-10.1202
▁eing	-10.1205
dib	-10.1206
▁rror	-10.1207
▁info	-10.121
▁eir	-10.1221
▁nton	-10.1223
▁leas	-10.1227
▁Hou	-10.1252
▁kid	-10.1279
▁ybe	-10.1303
▁roo	-10.1303
▁uel	-10.1308
▁envi	-10.1315
▁eff	-10.1319
▁lter	-10.1324
▁Ob	-10.1336
▁eter	-10.1337
▁gate	-10.1341
ast	-10.1355
▁ury	-10.1366
▁aske	-10.1369
0%	-10.1374
▁ueen	-10.1387
▁eck	-10.1388
▁ib	-10.1392
▁lb	-10.1396
used	-10.1398
▁Gen	-10.1399
▁ses	-10.1402
▁Sir	-10.1411
?	-10.142
▁lton	-10.1422
▁eason	-10.1426
▁tist	-10.1429
▁ssist	-10.1431
▁tus	-10.1444
▁ardi	-10.145
▁opin	-10.1457
▁ulat	-10.1472
▁ppos	-10.1485
▁ug	-10.1497
▁gua	-10.1503
▁dies	-10.1506
▁pop	-10.1511
emed	-10.1515
▁geo	-10.1532
▁feet	-10.155
▁sum	-10.1552
man	-10.1558
\	-10.156
▁sary	-10.1571
▁ames	-10.1578
▁oto	-10.1578
▁apo	-10.1583
▁Mos	-10.1586
▁stly	-10.1587
▁rand	-10.1593
co	-10.1597
id	-10.1599
▁lov	-10.1603
▁ust	-10.1603
▁oys	-10.1605
▁urces	-10.1607
▁style	-10.1613
▁ants	-10.1632
▁elle	-10.1635
▁olid	-10.1648
▁asta	-10.165
▁ken	-10.1657
▁tab	-10.1676
▁eig	-10.1698
▁ordi	-10.1701
▁sten	-10.1716
▁logy	-10.1717
▁mir	-10.173
▁­	-10.1745
▁wind	-10.1745
▁phy	-10.1746
▁rp	-10.1751
▁fec	-10.1752
▁weet	-10.1778
▁cle	-10.178
▁avi	-10.1789
▁tual	-10.1791
▁El	-10.1796
▁Li	-10.1798
▁tep	-10.1813
▁troo	-10.1814
▁ute	-10.1819
▁lad	-10.182
rogr	-10.1821
▁ensi	-10.1824
▁Af	-10.1825
▁hat	-10.1827
▁oc	-10.183
▁oph	-10.1846
uti	-10.1854
▁Act	-10.1855
▁oral	-10.1862
▁elect	-10.1864
▁Scott	-10.1869
▁ici	-10.187
▁indi	-10.1872
▁tim	-10.1877
▁ego	-10.1878
▁accu	-10.1882
▁Val	-10.1893
▁azi	-10.1898
▁ko	-10.1915
▁ceed	-10.1921
▁hill	-10.1938
eiv	-10.1943
▁Mac	-10.1946
▁17	-10.1948
▁lla	-10.1956
▁Sc	-10.1966
▁nis	-10.1967
▁Gre	-10.1981
▁hain	-10.1987
▁ja	-10.1991
▁flow	-10.1995
▁ssel	-10.2007
▁Cap	-10.2011
▁rect	-10.2024
▁dat	-10.2025
▁del	-10.2025
urg	-10.2027
▁overs	-10.2041
"	-10.2042
▁pid	-10.2049
▁erci	-10.2055
▁quo	-10.2057
▁Pre	-10.2066
▁ein	-10.2077
▁vol	-10.209
▁oday	-10.2111
▁ith	-10.2113
▁offe	-10.2127
▁rave	-10.213
▁mend	-10.2133
▁hol	-10.2138
▁vac	-10.214
▁Ku	-10.2146
▁ware	-10.2151
▁asons	-10.2158
▁yo	-10.216
ian	-10.2163
▁rus	-10.2167
▁osh	-10.2169
▁ena	-10.2171
▁lean	-10.2186
ig	-10.2217
▁imag	-10.2233
▁rose	-10.2236
▁apped	-10.2236
▁ndy	-10.2237
▁kh	-10.2253
▁ona	-10.2254
▁char	-10.2275
▁rill	-10.228
▁gage	-10.2289
▁sad	-10.2296
▁nute	-10.2303
der	-10.2312
▁stone	-10.2313
ck	-10.2329
▁ular	-10.2335
▁ledg	-10.2341
▁laws	-10.2347
▁tian	-10.2348
▁nded	-10.2349
▁urk	-10.235
ate	-10.2353
▁ub	-10.2359
po	-10.2361
▁ya	-10.2367
▁cip	-10.237
▁ustin	-10.2376
▁eran	-10.2379
▁Ken	-10.2387
▁zone	-10.24
prov	-10.2421
▁dust	-10.2424
▁mob	-10.2426
▁rd	-10.243
{	-10.2444
▁rish	-10.2462
▁mou	-10.2463
HS	-10.2466
ng	-10.2467
1,	-10.2486
▁bon	-10.2492
ish	-10.2517
2	-10.2518
▁bid	-10.2518
▁rone	-10.2521
▁q	-10.2524
▁sts	-10.2527
▁rl	-10.2527
▁Ali	-10.2538
In	-10.2545
▁ink	-10.2546
▁Le	-10.2551
▁meth	-10.2559
▁Port	-10.2577
▁ssed	-10.2588
▁ella	-10.2595
▁tens	-10.2595
▁verse	-10.2601
▁ndon	-10.2605
▁ells	-10.2605
nvir	-10.2616
ctur	-10.2619
▁uses	-10.2631
▁yle	-10.2639
▁Why	-10.2646
▁aro	-10.267
▁ounds	-10.2684
▁ited	-10.269
▁rra	-10.2695
▁eam	-10.2696
▁ani	-10.2713
▁iga	-10.2733
▁lev	-10.2742
▁mar	-10.2751
▁gns	-10.2752
▁lau	-10.2754
▁Bill	-10.2755
▁ela	-10.2771
llie	-10.2772
▁tta	-10.2784
▁omp	-10.2822
▁nak	-10.2828
▁bert	-10.2833
▁sman	-10.2833
▁rize	-10.2849
▁una	-10.2862
▁desp	-10.2867
▁ests	-10.2867
▁av	-10.2876
▁lls	-10.2883
▁iers	-10.2885
▁ddit	-10.2904
▁arms	-10.2912
▁eder	-10.2913
cien	-10.2916
eak	-10.2917
▁file	-10.2921
▁ates	-10.2922
▁tery	-10.2924
▁din	-10.2935
L	-10.2947
▁tla	-10.296
▁rib	-10.2965
▁hara	-10.2965
▁io	-10.2971
▁enda	-10.2977
▁udge	-10.2982
ym	-10.2983
▁rug	-10.2983
▁leng	-10.2988
▁broa	-10.2996
▁Poli	-10.2998
▁Pi	-10.3008
▁ste	-10.3023
8,	-10.3034
▁ize	-10.3034
1	-10.3051
▁cript	-10.3062
tor	-10.3073
▁ba	-10.3076
▁zen	-10.3079
▁vor	-10.3082
▁Ben	-10.3085
▁guy	-10.3097
▁wins	-10.3102
▁sand	-10.3102
▁unc	-10.3107
▁entu	-10.3114
▁shar	-10.3122
▁cula	-10.3131
▁denc	-10.3131
▁oul	-10.3133
▁Ber	-10.3143
▁Cal	-10.3147
▁ooks	-10.316
▁vs	-10.3165
gue	-10.3171
▁mmit	-10.3175
▁rchi	-10.3176
7,	-10.3179
▁stea	-10.3191
▁stro	-10.3202
▁ckle	-10.3203
▁cam	-10.3212
▁uff	-10.3219
▁mmer	-10.322
▁larg	-10.3232
▁alla	-10.3241
é	-10.3244
▁PM	-10.3245
▁yed	-10.327
▁chan	-10.3282
▁iver	-10.3305
▁che	-10.3313
▁Cu	-10.3314
▁shes	-10.3314
▁nk	-10.3325
▁ateg	-10.3327
rinc	-10.333
▁eets	-10.3346
▁dian	-10.3348
▁Pu	-10.335
▁ense	-10.3353
▁vice	-10.3363
▁Yet	-10.3365
▁Fra	-10.3376
▁mat	-10.3392
▁nie	-10.3396
▁rade	-10.3412
▁nth	-10.3413
▁lies	-10.3417
▁asis	-10.3417
▁fru	-10.343
▁mph	-10.3434
ment	-10.3446
▁vert	-10.3447
▁farm	-10.3448
▁sey	-10.3461
▁dge	-10.3465
▁hef	-10.348
▁los	-10.3492
▁heer	-10.3493
▁anni	-10.3505
▁essed	-10.3508
▁Up	-10.3512
▁ello	-10.3523
▁hab	-10.353
▁bus	-10.3535
▁Vic	-10.3537
▁ka	-10.354
▁Othe	-10.3543
▁nus	-10.3549
▁dry	-10.3564
▁arl	-10.3599
▁tiva	-10.36
▁ange	-10.3605
▁visi	-10.3605
ORE	-10.3609
▁ald	-10.3613
▁toria	-10.3614
▁ube	-10.3617
▁ech	-10.3633
▁hone	-10.364
by	-10.3652
▁exi	-10.3654
▁loan	-10.3658
▁MP	-10.3662
▁iller	-10.3667
▁igge	-10.367
▁mble	-10.367
ted	-10.3678
trik	-10.3684
▁ms	-10.3687
▁icked	-10.3693
▁xu	-10.3698
▁lum	-10.3707
▁acy	-10.3733
▁tti	-10.3735
▁ovid	-10.3735
▁voc	-10.3736
▁lend	-10.3741
▁ingh	-10.3745
fi	-10.3751
▁lv	-10.3752
▁oad	-10.3753
hil	-10.3755
ho	-10.3758
▁ends	-10.3759
▁Bar	-10.3761
▁ali	-10.3781
▁llie	-10.3784
▁ache	-10.3806
▁log	-10.3806
▁flat	-10.3816
ank	-10.3819
▁bru	-10.3821
▁uk	-10.3833
▁uis	-10.3834
▁ruit	-10.3834
▁iP	-10.3838
▁rans	-10.3839
▁ely	-10.3844
▁load	-10.3847
▁ky	-10.3852
om	-10.3878
▁iding	-10.3885
▁carr	-10.3902
2,	-10.3905
▁oid	-10.3906
▁oom	-10.3912
▁wers	-10.3936
▁mist	-10.3942
▁hut	-10.3947
▁rum	-10.395
▁leag	-10.3951
▁60	-10.3956
▁21	-10.3958
▁nnes	-10.3962
▁tud	-10.3967
▁pin	-10.3985
▁ush	-10.3997
▁rape	-10.3998
▁istic	-10.401
▁num	-10.4019
▁rout	-10.4022
hem	-10.4037
▁hau	-10.4044
sio	-10.4046
▁ild	-10.4047
▁sca	-10.4047
▁ging	-10.4052
▁nci	-10.4063
▁nz	-10.4067
▁pping	-10.4069
▁nnu	-10.4073
plie	-10.4078
▁€	-10.4084
▁unt	-10.4084
▁fre	-10.4101
▁chel	-10.4102
▁lanc	-10.4104
▁ears	-10.4112
▁hree	-10.4113
eagu	-10.4138
▁ris	-10.414
nima	-10.4144
▁affi	-10.4145
▁ric	-10.4148
▁cra	-10.4152
▁NFL	-10.4157
▁kes	-10.4176
▁oud	-10.4179
6,	-10.4182
▁lief	-10.4185
▁minu	-10.4186
▁rame	-10.4208
▁hai	-10.4212
▁lm	-10.4212
▁ndra	-10.422
▁een	-10.423
▁tar	-10.423
▁cker	-10.4238
▁aches	-10.4243
▁ime	-10.4244
▁aster	-10.4247
▁ences	-10.4249
▁Gi	-10.4257
▁ymp	-10.4259
lian	-10.4295
▁imon	-10.4296
▁rav	-10.4308
▁illa	-10.4308
▁Ri	-10.4309
▁emo	-10.4327
▁sted	-10.433
▁lso	-10.4334
▁gli	-10.4347
▁é	-10.4355
▁romo	-10.4357
▁acci	-10.4358
▁cline	-10.4362
ó	-10.4363
▁anta	-10.4373
▁hris	-10.4378
▁wash	-10.4384
▁trong	-10.4398
▁usse	-10.44
▁rev	-10.4401
▁danc	-10.4402
M	-10.4402
▁aga	-10.4407
▁edia	-10.4409
▁assa	-10.4411
▁22	-10.4414
▁ett	-10.4433
▁eut	-10.4437
▁joy	-10.4445
▁ror	-10.4449
▁ermi	-10.445
▁rice	-10.4457
▁chu	-10.4469
▁nish	-10.4478
▁ewi	-10.4479
▁unds	-10.4481
▁Marc	-10.4486
▁draft	-10.4487
▁ef	-10.4494
▁19	-10.4503
▁hate	-10.4508
ga	-10.4517
▁seiz	-10.4521
▁egg	-10.4529
▁Ru	-10.4532
▁eu	-10.4538
▁rej	-10.4546
▁rob	-10.4551
OP	-10.4566
▁PA	-10.4577
▁mode	-10.4579
▁ected	-10.4582
▁vil	-10.459
stra	-10.4592
▁ilit	-10.4605
▁wake	-10.4609
eat	-10.4629
So	-10.4641
ew	-10.4654
▁ete	-10.4687
▁zer	-10.469
▁irec	-10.4695
▁ites	-10.4704
▁Is	-10.4704
▁eath	-10.4708
▁arr	-10.4708
▁rough	-10.4711
▁ui	-10.4712
▁Bra	-10.4716
▁king	-10.4719
▁scov	-10.4724
▁scen	-10.4735
▁asion	-10.4745
▁eces	-10.4749
▁ngr	-10.4753
▁omin	-10.4781
▁iar	-10.4786
▁rious	-10.4787
▁med	-10.4801
▁nc	-10.4803
▁gon	-10.4806
▁river	-10.4809
▁gap	-10.4811
▁requ	-10.482
▁eeds	-10.4827
▁ipe	-10.4829
▁ches	-10.4834
▁grab	-10.4844
▁imi	-10.4858
▁acked	-10.4867
▁ntic	-10.4868
▁eg	-10.4881
▁ivi	-10.4885
▁Sep	-10.4893
▁eap	-10.4901
▁enti	-10.4904
▁forms	-10.4918
▁nimal	-10.4927
▁#	-10.4935
▁rim	-10.4938
▁gest	-10.4941
▁cur	-10.4947
▁uli	-10.4949
▁oman	-10.4951
▁mba	-10.4952
▁core	-10.4959
▁ven	-10.496
▁cio	-10.4966
▁ij	-10.4968
▁alls	-10.4968
▁lap	-10.4974
▁sci	-10.4984
▁jur	-10.5002
▁enni	-10.501
ն	-10.502
▁vast	-10.5023
▁hy	-10.5024
▁uta	-10.5027
▁cia	-10.503
9,	-10.5041
▁anks	-10.5061
▁orda	-10.5077
▁ung	-10.5088
▁bol	-10.5093
▁ourne	-10.5104
▁pie	-10.511
▁cate	-10.513
▁oo	-10.5133
▁1.	-10.514
▁Game	-10.5144
▁aria	-10.5172
▁Fran	-10.5181
BA	-10.5182
▁tank	-10.5182
▁llo	-10.5182
▁zens	-10.5183
▁nde	-10.5185
▁va	-10.519
▁dic	-10.5203
do	-10.5204
▁oms	-10.5208
▁iser	-10.5213
▁Kan	-10.522
▁rick	-10.5224
▁elly	-10.5227
▁lt	-10.5228
sure	-10.523
▁lub	-10.5238
▁truc	-10.5245
As	-10.5249
▁sso	-10.525
▁assin	-10.5252
▁ols	-10.5289
▁anned	-10.5305
▁ads	-10.531
▁kn	-10.5352
hat	-10.5353
▁lled	-10.5356
▁surge	-10.5366
king	-10.5366
▁och	-10.5376
ac	-10.5378
▁hire	-10.5391
3,	-10.5416
▁mort	-10.5421
▁ypt	-10.5428
▁ax	-10.5438
▁ota	-10.5439
▁ym	-10.5441
▁nha	-10.5442
▁lying	-10.545
▁lari	-10.5459
▁hew	-10.5468
▁swa	-10.5509
▁aur	-10.5512
▁esi	-10.5533
▁bout	-10.5536
▁enga	-10.5538
▁Live	-10.5558
▁asur	-10.5559
▁cus	-10.5585
▁Who	-10.56
▁mani	-10.5612
▁pers	-10.5616
▁squ	-10.5621
▁fruit	-10.5622
▁rop	-10.5626
▁nct	-10.5637
▁imb	-10.5647
▁dict	-10.5662
▁elig	-10.567
rie	-10.5677
NN	-10.5678
▁leak	-10.5685
▁defi	-10.5696
▁opi	-10.5696
ssu	-10.571
▁ron	-10.5714
▁lta	-10.5715
▁hor	-10.5722
wer	-10.5723
▁Jam	-10.5739
▁sume	-10.5779
▁lame	-10.5823
▁ody	-10.5824
▁ava	-10.5825
▁esh	-10.5827
▁ved	-10.5836
▁arv	-10.5837
ATO	-10.5842
crib	-10.5843
▁ende	-10.5847
▁ipa	-10.5847
▁ivity	-10.5865
▁ox	-10.5868
▁augh	-10.5878
ving	-10.588
▁Tim	-10.5882
▁Str	-10.5896
▁judg	-10.5913
▁Van	-10.5915
▁ams	-10.5916
▁lity	-10.5917
▁agu	-10.5946
-0	-10.5947
▁amm	-10.5947
▁wine	-10.5951
▁waste	-10.5953
▁eed	-10.596
cov	-10.5981
▁ces	-10.5983
▁Angel	-10.6007
▁ori	-10.6008
▁AFP	-10.601
▁liz	-10.6014
▁oney	-10.6018
▁cul	-10.6024
▁olic	-10.6025
▁olli	-10.6043
▁raw	-10.6045
tra	-10.605
▁ked	-10.6069
▁riv	-10.6074
▁ativ	-10.6074
▁enced	-10.6076
gag	-10.6077
▁ats	-10.608
pea	-10.608
▁nstr	-10.6102
▁sco	-10.6103
▁hro	-10.6105
▁twe	-10.6128
▁ig	-10.6134
ird	-10.6144
▁arry	-10.6149
▁pment	-10.6165
▁nb	-10.617
▁lik	-10.6178
▁ays	-10.6183
▁pto	-10.6184
▁heri	-10.6193
▁cla	-10.6196
▁react	-10.6197
▁ira	-10.6198
▁tr	-10.621
▁nchi	-10.6228
▁rior	-10.6235
▁rage	-10.624
▁rst	-10.625
▁ond	-10.6254
▁scape	-10.6258
▁dly	-10.6262
▁rom	-10.6293
▁ame	-10.6297
▁elief	-10.6299
▁ewis	-10.6304
▁gni	-10.6306
N	-10.6307
iz	-10.632
▁bell	-10.632
▁rga	-10.6324
▁enny	-10.6327
▁reci	-10.6344
pris	-10.6346
▁Oct	-10.6353
6	-10.6356
▁lav	-10.6363
▁oci	-10.6379
▁tum	-10.6381
▁rust	-10.6391
▁alt	-10.6402
▁sib	-10.6444
▁23	-10.6446
ity	-10.6448
4	-10.6449
▁bai	-10.6458
▁smo	-10.647
▁ept	-10.6476
▁alk	-10.6489
▁iro	-10.649
▁Sena	-10.6494
▁Rs	-10.6496
▁kil	-10.6498
▁anic	-10.6505
▁mber	-10.6519
▁usa	-10.6526
▁inco	-10.6527
▁supp	-10.6557
▁ext	-10.6561
▁esti	-10.6564
▁cting	-10.6585
▁ason	-10.6601
▁ria	-10.6603
▁len	-10.6619
▁illy	-10.6627
▁cien	-10.6629
▁rink	-10.6635
▁mari	-10.6635
▁CBS	-10.6649
▁hydr	-10.6661
▁iles	-10.6664
▁rgen	-10.6668
um	-10.6674
▁stor	-10.6693
▁lp	-10.6698
try	-10.6707
▁ager	-10.671
-1	-10.6711
▁fro	-10.6723
▁tle	-10.6745
▁hm	-10.6748
▁ario	-10.6755
▁rma	-10.6759
▁omi	-10.6771
▁acr	-10.6777
▁tine	-10.6786
▁tree	-10.6786
▁reh	-10.679
j	-10.6799
▁els	-10.6811
▁uter	-10.6815
▁ied	-10.6818
▁trol	-10.6826
▁ption	-10.6847
▁ils	-10.6853
▁Bri	-10.6854
▁lib	-10.6856
▁ois	-10.6869
▁Kh	-10.688
▁ongs	-10.6887
▁enu	-10.689
▁hore	-10.689
▁gne	-10.6893
▁Tha	-10.6894
▁yes	-10.6902
▁28	-10.6904
▁pho	-10.6906
▁lers	-10.6907
▁Bi	-10.6911
▁rsh	-10.6927
▁hio	-10.6947
▁80	-10.6951
▁ek	-10.6954
▁sas	-10.6958
▁Met	-10.6968
one	-10.6971
▁siv	-10.6982
▁wns	-10.6983
▁anag	-10.6984
▁scal	-10.6988
▁nting	-10.6991
▁conv	-10.7001
V	-10.7002
▁wond	-10.7004
▁arch	-10.7009
▁rtu	-10.7012
▁erna	-10.7013
▁hoc	-10.7026
▁scu	-10.7027
▁rimi	-10.7029
▁rson	-10.7032
▁rter	-10.7032
▁nga	-10.7042
▁eh	-10.7052
▁arah	-10.7058
▁trac	-10.7059
▁Ja	-10.706
▁nou	-10.7066
▁medi	-10.7069
▁oug	-10.7077
▁ompl	-10.7092
▁wal	-10.7096
▁ica	-10.7103
▁veni	-10.7111
▁rme	-10.7114
▁eaten	-10.7121
▁nut	-10.7121
▁atur	-10.7141
▁26	-10.7145
▁tall	-10.7153
▁ards	-10.7164
▁note	-10.7167
▁Jr	-10.7171
▁USA	-10.7187
▁tock	-10.7194
▁bur	-10.7197
▁lake	-10.7198
▁dua	-10.7214
▁rine	-10.7218
▁lva	-10.7223
▁Ram	-10.7231
Q	-10.7237
▁arre	-10.7241
▁essa	-10.7248
▁gr	-10.7251
▁ounc	-10.7252
▁itiv	-10.7271
▁tabl	-10.7286
ybe	-10.7299
▁obb	-10.7301
▁oine	-10.7302
▁nly	-10.7316
▁oking	-10.7318
▁adi	-10.7328
▁merg	-10.7331
▁onne	-10.7333
▁pha	-10.7334
▁erri	-10.7344
▁Vo	-10.7355
▁aire	-10.7377
▁McG	-10.738
▁ette	-10.7388
▁hra	-10.7392
asi	-10.7393
▁iness	-10.7401
ug	-10.741
▁90	-10.7413
▁nson	-10.7426
▁Get	-10.743
▁cab	-10.7431
▁hase	-10.7431
▁Ji	-10.7459
di	-10.7462
▁Vlad	-10.7464
▁las	-10.7484
▁ocate	-10.7488
ft	-10.7495
▁ntee	-10.7507
▁uce	-10.7519
▁yc	-10.7532
▁tled	-10.7534
▁rang	-10.7541
▁tha	-10.7545
▁rint	-10.7551
▁nves	-10.7553
▁hid	-10.7558
houl	-10.7566
▁MPs	-10.7577
▁Fo	-10.758
▁lon	-10.7587
20	-10.7592
▁dyn	-10.7593
▁ix	-10.7602
▁deni	-10.7607
▁edic	-10.7611
▁Lee	-10.7612
▁eport	-10.7629
▁duty	-10.7635
▁ila	-10.7637
▁ngers	-10.7642
▁70	-10.7646
▁afe	-10.7647
▁ents	-10.7655
▁Bla	-10.7661
▁orri	-10.7661
▁seas	-10.7664
▁Jac	-10.7664
▁35	-10.7665
otco	-10.7666
▁redi	-10.7672
▁mail	-10.7675
F	-10.7678
▁cl	-10.7689
▁eti	-10.769
▁II	-10.7696
▁hout	-10.77
NP	-10.7716
▁mul	-10.7717
▁reg	-10.7723
▁ssi	-10.7724
▁27	-10.7727
▁rena	-10.7729
▁ngla	-10.7758
dem	-10.7762
▁Kim	-10.7773
G	-10.7773
▁Cor	-10.7788
▁roof	-10.78
▁reb	-10.7815
▁lie	-10.782
▁dire	-10.782
▁ller	-10.784
▁pub	-10.7844
▁ngs	-10.7851
▁rby	-10.7858
▁eak	-10.7859
▁llia	-10.7863
▁2.	-10.7864
▁ovi	-10.7865
ah	-10.7875
▁ids	-10.7882
▁Ky	-10.7896
▁pel	-10.7896
mo	-10.7909
▁den	-10.792
▁rty	-10.7922
▁onger	-10.7922
hi	-10.7934
▁yl	-10.7935
▁dex	-10.7939
mi	-10.794
▁ank	-10.7945
▁aya	-10.7955
▁isit	-10.796
▁gency	-10.7962
▁COVID	-10.7969
▁tea	-10.7978
▁oli	-10.7993
▁gang	-10.7995
▁amily	-10.8002
▁inner	-10.8002
▁stan	-10.8009
elv	-10.803
▁exte	-10.8031
▁navi	-10.8032
▁tein	-10.8046
▁GB	-10.8049
▁aca	-10.8051
usto	-10.8097
▁tho	-10.8101
▁km	-10.8106
▁reas	-10.8107
▁yb	-10.8123
▁arts	-10.8137
▁ves	-10.8142
▁keen	-10.8156
▁vant	-10.8157
▁Nor	-10.8164
▁Sen	-10.8178
▁Tru	-10.8192
▁spa	-10.8197
▁lind	-10.8204
▁bbi	-10.8204
▁fest	-10.8207
▁rti	-10.8208
▁lia	-10.8213
▁abu	-10.823
▁eon	-10.8234
▁oard	-10.8241
▁45	-10.8245
▁zed	-10.8247
▁oma	-10.825
▁thers	-10.8274
▁http	-10.8277
▁lands	-10.8289
▁noc	-10.829
▁feed	-10.832
▁html	-10.8322
▁Sp	-10.8324
▁ilm	-10.8336
▁iet	-10.8338
▁mys	-10.8339
▁unter	-10.8345
▁esla	-10.8356
▁amer	-10.8359
▁Tre	-10.836
▁oyed	-10.8364
NBC	-10.8365
▁awn	-10.8366
▁haw	-10.8366
▁indu	-10.837
▁error	-10.8371
▁cat	-10.8374
▁cit	-10.8387
ap	-10.8387
▁ffs	-10.8404
▁tun	-10.8415
▁ient	-10.8422
▁idi	-10.8424
▁abha	-10.8427
▁trees	-10.8433
▁29	-10.8434
▁fees	-10.8436
▁ropo	-10.8449
▁yth	-10.8449
▁mps	-10.845
▁tiny	-10.8461
▁tap	-10.8462
▁urs	-10.8473
▁ugh	-10.851
▁osed	-10.8521
▁eader	-10.853
▁ku	-10.8532
▁siz	-10.8558
ess	-10.8566
tim	-10.8574
▁rabl	-10.8576
tty	-10.8583
▁iam	-10.8585
▁ayne	-10.8592
▁RT	-10.8593
▁coun	-10.8604
ld	-10.861
▁aker	-10.8619
▁llis	-10.862
▁mag	-10.8622
▁diet	-10.8624
▁ndi	-10.8633
▁ram	-10.8634
▁taste	-10.8637
▁otte	-10.864
▁OK	-10.8644
▁tag	-10.8648
▁Indi	-10.865
▁dar	-10.8654
▁chol	-10.8655
▁dan	-10.8657
▁lass	-10.8661
▁owa	-10.8667
▁nam	-10.867
▁ution	-10.8696
▁ript	-10.8703
▁elem	-10.8705
we	-10.8712
▁orm	-10.8733
7	-10.8753
▁knee	-10.8755
▁ato	-10.8755
▁ltim	-10.8761
▁pare	-10.8765
▁uit	-10.8766
▁anna	-10.8778
▁afah	-10.8783
▁Tri	-10.8786
▁inti	-10.8787
▁econ	-10.8788
▁ale	-10.8802
▁tured	-10.8807
▁anne	-10.884
▁ji	-10.8843
▁eler	-10.8851
▁ocie	-10.8854
▁tears	-10.8863
▁vic	-10.8889
▁labo	-10.8889
▁yn	-10.8896
form	-10.89
▁nfor	-10.8908
▁fat	-10.892
▁enci	-10.893
▁nders	-10.8936
▁rrie	-10.8941
▁erty	-10.8949
▁desh	-10.8954
▁rmo	-10.8964
▁wned	-10.8969
▁ouch	-10.8986
▁romi	-10.8998
▁tball	-10.902
▁soft	-10.9034
▁stil	-10.9035
▁flee	-10.9054
▁lence	-10.9058
▁nne	-10.9058
ka	-10.9067
▁usic	-10.9077
▁vir	-10.9078
▁eag	-10.9084
▁ott	-10.9102
▁mill	-10.9104
▁Tok	-10.9126
▁lem	-10.917
▁ecl	-10.9188
ica	-10.9191
▁nick	-10.9201
▁ova	-10.9202
uri	-10.9207
P	-10.9208
▁ua	-10.9217
▁icul	-10.9219
▁meat	-10.9221
▁enj	-10.9244
▁fee	-10.9279
▁aper	-10.9281
▁nver	-10.9282
▁ote	-10.9287
▁irm	-10.9288
▁teri	-10.9293
▁3.	-10.9294
▁tie	-10.9303
▁bul	-10.9313
▁posit	-10.9313
▁elev	-10.9313
▁rts	-10.9338
▁ours	-10.935
▁ras	-10.9354
▁Pol	-10.9368
▁spon	-10.937
eath	-10.941
ric	-10.9419
▁34	-10.9425
▁31	-10.9428
▁moo	-10.9429
▁Pet	-10.9436
▁uthe	-10.9464
▁rb	-10.9469
▁hah	-10.9479
▁grave	-10.9481
▁Tro	-10.9481
▁osa	-10.9485
▁cific	-10.949
Id	-10.9492
ong	-10.9496
▁inema	-10.9503
▁cca	-10.9506
▁ommu	-10.9526
▁reak	-10.9541
▁empl	-10.9567
▁magi	-10.957
▁eav	-10.9577
▁nior	-10.9584
▁Max	-10.9586
▁God	-10.9592
cro	-10.9598
▁uil	-10.96
▁loba	-10.9605
▁gains	-10.9611
▁ա	-10.9639
▁sena	-10.964
anc	-10.9656
▁meal	-10.9715
▁Ta	-10.972
▁Ham	-10.9725
▁irl	-10.9725
▁hort	-10.9725
tary	-10.9728
▁rip	-10.9734
▁ndo	-10.9735
▁Oh	-10.9738
▁dit	-10.974
▁gel	-10.9741
▁eba	-10.9742
▁uc	-10.9758
ko	-10.9767
▁epp	-10.9782
▁heese	-10.9795
ven	-10.9811
▁homa	-10.9813
▁dol	-10.9816
▁loa	-10.982
▁ttl	-10.9823
▁pend	-10.9824
▁rren	-10.9832
▁udd	-10.9833
▁nist	-10.9848
▁overt	-10.9851
▁rary	-10.9856
▁erem	-10.986
▁4.	-10.986
▁dd	-10.9868
act	-10.9869
▁Text	-10.9875
olo	-10.9878
▁alo	-10.9879
▁wk	-10.988
▁ITV	-10.9881
▁FBI	-10.9882
▁ield	-10.9887
▁enry	-10.989
▁atm	-10.9896
▁ups	-10.9904
▁glo	-10.9915
▁rdo	-10.992
▁ux	-10.9929
▁opp	-10.9931
▁oro	-10.9931
▁Cam	-10.9933
▁omet	-10.9938
▁pta	-10.9945
lo	-10.9971
▁abor	-10.9973
▁tty	-10.9973
▁nline	-10.9981
▁tau	-10.9982
▁fatal	-10.9984
▁BST	-10.9986
▁mpan	-11.0017
ude	-11.0018
▁ady	-11.002
▁ep	-11.0022
ab	-11.0023
▁vid	-11.0031
▁urd	-11.0058
▁utin	-11.0067
ming	-11.0068
qu	-11.0073
▁ored	-11.0076
▁pit	-11.0084
▁mmed	-11.0086
▁Whi	-11.0088
5%	-11.0097
▁ej	-11.0106
▁nab	-11.0129
▁mple	-11.0141
▁ittle	-11.0149
me	-11.0149
▁kle	-11.0154
▁aura	-11.0155
▁ubb	-11.0162
▁poo	-11.0164
▁sel	-11.017
▁erge	-11.0183
▁tack	-11.0184
▁vict	-11.0191
▁nca	-11.0205
ried	-11.021
▁bing	-11.0223
▁deny	-11.0226
pen	-11.0231
▁ailed	-11.0238
▁Xi	-11.0253
▁atie	-11.0258
▁neral	-11.0285
▁twist	-11.0306
▁otel	-11.0358
▁ethi	-11.0359
able	-11.0373
▁tart	-11.0381
▁aff	-11.039
▁tale	-11.0398
▁ayer	-11.0401
▁Cro	-11.0405
▁Hol	-11.0425
▁grac	-11.0426
▁dist	-11.0427
▁eigh	-11.0428
▁ampa	-11.0435
▁eves	-11.0437
▁iron	-11.0451
▁ilia	-11.0479
▁andhi	-11.0481
▁Ya	-11.0484
To	-11.0488
ph	-11.0497
pm	-11.0502
▁iol	-11.0507
▁olv	-11.0531
▁grid	-11.0538
▁rke	-11.0539
▁ider	-11.0542
ounc	-11.0553
▁eve	-11.0567
▁gia	-11.0568
▁Jon	-11.058
▁owe	-11.0597
▁oh	-11.0601
▁ppen	-11.0616
▁lone	-11.0619
▁wic	-11.0624
▁sity	-11.0628
▁wire	-11.0631
▁sper	-11.0638
3	-11.0639
▁mes	-11.0645
▁hero	-11.0648
▁quar	-11.0649
▁og	-11.0658
▁float	-11.0664
▁sting	-11.0666
▁Bay	-11.0673
▁halt	-11.0698
▁slo	-11.0702
▁harg	-11.0708
▁til	-11.0721
▁aiti	-11.0746
▁iev	-11.0751
▁nergy	-11.0752
▁eph	-11.0764
▁FA	-11.0772
▁orne	-11.0785
ok	-11.0787
va	-11.0791
▁bou	-11.0803
▁rik	-11.0809
▁ndar	-11.0815
▁loo	-11.083
▁hl	-11.0839
▁Dep	-11.0846
of	-11.0848
▁llin	-11.0849
O	-11.0863
▁epti	-11.0863
▁unk	-11.0866
▁GBT	-11.0871
▁ilet	-11.0874
op	-11.0898
▁ndl	-11.0898
No	-11.0901
▁inde	-11.0902
▁uic	-11.0905
▁mal	-11.091
▁oly	-11.0916
▁lti	-11.0924
▁mper	-11.0926
H	-11.0927
▁rr	-11.0932
▁uti	-11.0947
▁Harr	-11.0962
▁yp	-11.0965
▁omer	-11.0972
ա	-11.0989
▁rlo	-11.1
▁eel	-11.101
▁lst	-11.1012
▁wav	-11.1021
▁fie	-11.1029
▁rh	-11.103
ttac	-11.1034
▁merc	-11.1035
▁vot	-11.1042
▁blin	-11.1043
▁tan	-11.1049
K	-11.1053
ba	-11.1064
▁sati	-11.108
▁uto	-11.108
▁rexi	-11.1081
▁tise	-11.1093
ani	-11.1094
▁gym	-11.1094
▁rega	-11.1101
▁deo	-11.1102
▁rive	-11.111
up	-11.1111
▁tin	-11.1111
▁ania	-11.1111
▁Wo	-11.1114
▁osi	-11.1116
T	-11.1117
▁vege	-11.1129
▁aug	-11.1134
▁bal	-11.1142
▁tape	-11.1148
▁kl	-11.1182
▁mpli	-11.1195
▁GP	-11.1202
▁7,	-11.1211
▁www	-11.1221
▁rem	-11.1221
▁nsi	-11.1235
▁kit	-11.1239
▁Am	-11.124
▁mance	-11.1242
▁rated	-11.1252
▁radi	-11.1253
▁ners	-11.1257
▁ndle	-11.1268
ak	-11.1277
▁lane	-11.1285
ary	-11.1286
▁ienc	-11.1325
▁erce	-11.1329
▁mil	-11.133
▁arro	-11.1338
▁raft	-11.136
▁welf	-11.1365
▁IT	-11.1371
▁rin	-11.1374
▁elli	-11.1377
▁oice	-11.1377
▁illi	-11.1378
▁sher	-11.1379
▁eem	-11.1382
▁AR	-11.1385
▁ods	-11.1387
▁5.	-11.1395
▁ivo	-11.1401
▁inst	-11.1405
▁anka	-11.1409
▁roa	-11.1412
▁hame	-11.1418
eve	-11.1419
▁aze	-11.1423
▁dig	-11.1433
▁lwa	-11.1444
▁7.	-11.1446
▁aut	-11.1451
▁appl	-11.1455
go	-11.1468
▁NBC	-11.1478
▁ipp	-11.148
▁ewe	-11.1502
▁tweet	-11.1503
▁avy	-11.1517
▁eur	-11.1523
▁tina	-11.1534
▁Ye	-11.1535
▁gam	-11.1539
▁rman	-11.1539
▁gear	-11.155
▁udi	-11.155
▁af	-11.1552
▁gor	-11.1568
▁lc	-11.1571
▁sus	-11.1576
▁aine	-11.1584
▁hum	-11.1608
▁oks	-11.1614
▁mpo	-11.1621
.5	-11.1634
▁allo	-11.1637
▁dv	-11.1655
▁utu	-11.1656
▁tres	-11.166
af	-11.1663
▁rhe	-11.1664
▁gay	-11.1672
▁lor	-11.1685
▁irc	-11.171
At	-11.1712
▁loose	-11.1721
▁Oc	-11.1722
▁works	-11.1724
▁36	-11.1724
Y	-11.1724
▁aka	-11.1727
▁sters	-11.1736
▁pou	-11.1754
▁endu	-11.1764
▁ppe	-11.1774
▁hest	-11.1802
▁dish	-11.1806
▁ABC	-11.1811
ward	-11.1815
▁ssil	-11.1822
▁mall	-11.1825
▁cide	-11.1839
▁def	-11.1842
hu	-11.1851
▁ffi	-11.186
▁6,	-11.192
▁idu	-11.1929
▁uca	-11.1938
▁cks	-11.1955
▁hub	-11.1955
▁ubs	-11.1973
▁aste	-11.1976
▁othe	-11.1977
cK	-11.1983
▁rni	-11.1983
▁fits	-11.1989
▁lio	-11.1991
▁osses	-11.1992
50	-11.1993
▁olve	-11.2004
ek	-11.2009
▁ights	-11.2025
▁ece	-11.2031
▁lme	-11.2031
▁mem	-11.2049
W	-11.2053
▁unda	-11.2056
▁plac	-11.2066
▁ousin	-11.2071
▁tub	-11.2078
!	-11.2093
play	-11.2102
▁une	-11.2115
▁pula	-11.2118
▁echn	-11.2119
▁dub	-11.2125
▁1,	-11.2147
▁Ian	-11.2152
▁ger	-11.2162
▁Pho	-11.2164
▁woke	-11.2178
▁az	-11.2178
▁za	-11.2183
▁tures	-11.2188
▁weat	-11.2195
▁bat	-11.2217
▁duo	-11.2218
▁thor	-11.2249
▁Men	-11.2254
▁bie	-11.2256
▁urse	-11.2262
▁hal	-11.23
▁fl	-11.2308
▁eans	-11.2322
▁arne	-11.2324
▁rah	-11.2328
▁rie	-11.2335
▁ige	-11.2337
▁urag	-11.234
▁org	-11.2344
▁egal	-11.2357
▁als	-11.238
▁aco	-11.2391
▁elg	-11.2396
▁300	-11.2429
▁aders	-11.2438
▁orp	-11.2444
▁omo	-11.2447
DA	-11.2457
▁lse	-11.2457
▁iber	-11.2468
▁roc	-11.2478
▁sers	-11.2483
▁ddi	-11.2494
.3	-11.2495
▁NASA	-11.2505
▁stru	-11.2505
▁lect	-11.252
R	-11.2522
▁lur	-11.2529
ana	-11.2539
▁Va	-11.2543
▁emed	-11.2543
▁hype	-11.2548
▁gust	-11.2564
▁osta	-11.2565
▁nati	-11.2571
▁nsion	-11.2573
▁IPL	-11.2578
▁ppy	-11.2602
▁map	-11.2623
▁App	-11.2642
▁egi	-11.265
▁enge	-11.2654
▁cta	-11.2672
if	-11.2674
▁lion	-11.2676
▁mmon	-11.2687
▁pea	-11.2694
▁oal	-11.2712
teel	-11.2714
▁Ul	-11.2714
▁stal	-11.2714
▁tali	-11.2715
side	-11.2732
▁lime	-11.2741
▁kel	-11.2742
▁nco	-11.2747
▁laim	-11.275
▁ntal	-11.2765
▁eers	-11.277
▁Tyson	-11.2778
▁ahul	-11.2783
▁elic	-11.2789
sses	-11.2789
▁uan	-11.2799
▁lah	-11.2815
▁oop	-11.2828
▁ews	-11.2832
▁Ph	-11.2835
▁esc	-11.2838
▁egio	-11.2847
▁cci	-11.2863
▁hush	-11.2871
▁stem	-11.2879
▁sid	-11.2889
▁Six	-11.2895
▁iu	-11.2902
▁owd	-11.2908
▁ops	-11.2918
dent	-11.2922
▁Ten	-11.2943
ET	-11.2949
▁rno	-11.2949
▁ket	-11.2952
▁ncre	-11.2959
▁ebe	-11.2973
9	-11.2983
▁erse	-11.3003
ari	-11.3006
▁Fu	-11.3018
▁Lu	-11.3025
▁hak	-11.3031
▁inds	-11.3045
▁cre	-11.3049
▁bloc	-11.3059
▁uro	-11.3067
ubli	-11.3079
▁itiz	-11.3094
▁tear	-11.3098
▁oor	-11.3098
▁sham	-11.3124
▁roy	-11.3133
▁Was	-11.3135
▁prin	-11.3136
▁pric	-11.3142
▁LA	-11.3152
hya	-11.3158
▁ordon	-11.316
▁Mon	-11.3167
▁32	-11.3168
8	-11.3174
▁emen	-11.318
▁gal	-11.3183
fo	-11.3197
▁vin	-11.3203
heet	-11.3206
X	-11.321
▁Land	-11.3215
▁xec	-11.3216
▁ibe	-11.3218
FC	-11.3225
da	-11.323
▁usi	-11.3231
dic	-11.3234
rove	-11.3235
▁aye	-11.3253
▁eni	-11.3256
▁atel	-11.3258
▁cin	-11.3272
▁48	-11.3277
▁lop	-11.3284
▁Spe	-11.3285
▁GDP	-11.3288
▁eit	-11.3293
▁rigi	-11.3295
▁abb	-11.3298
ina	-11.3301
▁sibl	-11.3308
▁nche	-11.3311
lip	-11.3312
▁33	-11.3316
▁pati	-11.332
▁hari	-11.3323
▁uth	-11.3324
▁urth	-11.3325
▁hings	-11.333
▁elc	-11.3334
nah	-11.334
▁seg	-11.3379
▁sab	-11.3381
▁raig	-11.3387
▁tier	-11.3394
▁tir	-11.3395
wa	-11.3397
▁HS	-11.3424
▁teel	-11.3427
▁itia	-11.3448
▁ngo	-11.3451
runk	-11.3455
▁iab	-11.3457
▁egan	-11.3462
ara	-11.3467
▁rn	-11.3468
▁75	-11.3471
▁oco	-11.3474
▁anim	-11.3485
▁EV	-11.3494
▁hri	-11.3501
▁CCTV	-11.3505
▁lobby	-11.3511
▁pes	-11.3513
▁zi	-11.3513
▁JD	-11.3515
▁lde	-11.3527
▁MT	-11.3535
▁unn	-11.3541
▁ryan	-11.3562
▁ppl	-11.3565
;	-11.3577
▁Out	-11.3583
í	-11.3591
▁oet	-11.3596
▁triu	-11.362
▁eno	-11.3635
▁MS	-11.3638
▁torn	-11.3639
so	-11.3642
▁nai	-11.3646
▁irr	-11.3655
▁dash	-11.367
▁hunt	-11.3686
▁urf	-11.3689
▁Blo	-11.3695
▁glad	-11.3698
▁Har	-11.3706
▁melt	-11.3717
▁DC	-11.3735
▁oga	-11.3736
▁lude	-11.3742
▁tral	-11.3745
▁cid	-11.3746
▁rda	-11.3787
▁itar	-11.3787
▁6.	-11.3787
▁ու	-11.3796
▁elv	-11.38
▁itz	-11.3802
▁bling	-11.3822
▁Za	-11.3835
▁casi	-11.3836
▁orth	-11.3839
▁ghter	-11.3841
▁tries	-11.3844
▁ourn	-11.3844
▁bac	-11.3847
ll	-11.386
▁rif	-11.3866
▁ibil	-11.3868
▁llu	-11.3873
▁ldi	-11.389
▁usion	-11.3894
▁ape	-11.39
AP	-11.3922
▁Part	-11.3923
▁ouse	-11.3926
▁eeded	-11.3936
▁vail	-11.3937
▁ruc	-11.3962
▁attle	-11.3973
5	-11.3974
▁rui	-11.3978
▁Law	-11.3986
▁twin	-11.3992
▁hanc	-11.3997
▁grim	-11.4022
▁mont	-11.4032
▁trai	-11.4034
▁$1	-11.404
▁lign	-11.404
ist	-11.4041
▁Roy	-11.4044
▁shor	-11.4081
▁rede	-11.4086
▁utt	-11.4097
▁pat	-11.4101
▁alf	-11.4124
▁erb	-11.4124
▁von	-11.4127
OS	-11.4129
▁Off	-11.4135
▁scho	-11.4162
▁Tor	-11.4164
▁hir	-11.4176
▁lg	-11.4178
ja	-11.4183
gni	-11.4188
▁yon	-11.4193
▁urp	-11.4196
▁fate	-11.4199
▁erie	-11.4218
▁ID	-11.4246
▁erma	-11.4259
▁elo	-11.4267
sage	-11.4284
▁enta	-11.4284
▁riend	-11.4308
▁por	-11.4311
▁vary	-11.432
▁rlie	-11.4332
▁rdl	-11.4371
▁ppo	-11.4381
▁muni	-11.4381
▁teeth	-11.4382
▁hild	-11.4386
▁villa	-11.4414
▁rio	-11.4423
▁igu	-11.4442
ton	-11.4463
ի	-11.447
▁astr	-11.4474
▁glor	-11.4478
▁65	-11.4481
▁bran	-11.4498
▁ompe	-11.4503
▁Jay	-11.4509
▁wl	-11.4509
▁nvir	-11.4509
▁hli	-11.4526
▁thin	-11.4529
▁nom	-11.4534
▁uin	-11.4536
▁esto	-11.4543
▁ckl	-11.4543
▁enna	-11.4543
▁agn	-11.4552
▁IDF	-11.457
▁oods	-11.4571
▁150	-11.4573
▁kie	-11.4575
▁rgo	-11.4579
BC	-11.459
well	-11.4594
▁swe	-11.4604
ley	-11.4606
▁stig	-11.4615
▁â	-11.462
▁lid	-11.4625
▁gical	-11.4636
▁atin	-11.4637
ց	-11.4641
iya	-11.4652
▁uting	-11.4661
▁ndr	-11.4673
▁gig	-11.4681
lew	-11.4688
▁ը	-11.4707
▁ING	-11.4735
PS	-11.4745
▁luc	-11.4747
▁ima	-11.4764
▁hint	-11.4778
▁onte	-11.4778
▁nose	-11.4788
▁lemon	-11.4796
40	-11.4805
▁nera	-11.4806
za	-11.4816
▁ador	-11.4825
ice	-11.4837
▁vern	-11.4859
▁է	-11.4878
▁NSW	-11.4883
▁veri	-11.4885
▁blu	-11.4897
age	-11.4914
▁ittl	-11.4928
▁250	-11.4933
▁eto	-11.4943
▁inju	-11.4946
▁arni	-11.495
▁Fri	-11.495
ini	-11.4958
▁wai	-11.4958
▁aby	-11.496
▁cure	-11.4966
▁rot	-11.4968
▁oris	-11.4971
▁DJ	-11.4975
▁orat	-11.4986
ix	-11.4989
▁grey	-11.5011
▁tex	-11.5014
▁jet	-11.5016
▁rkin	-11.502
ping	-11.5039
▁igi	-11.5043
▁hine	-11.5043
▁wise	-11.5048
▁lster	-11.5066
▁nac	-11.5069
▁coup	-11.5076
10	-11.5077
▁olan	-11.5099
▁opa	-11.5102
▁hur	-11.5102
less	-11.5102
lin	-11.512
▁cco	-11.513
▁Kri	-11.514
▁fed	-11.514
•	-11.5141
▁argo	-11.5167
GA	-11.5171
▁leap	-11.5172
▁nni	-11.5176
▁seed	-11.5179
▁adl	-11.5184
▁asp	-11.5187
▁olla	-11.5201
▁aki	-11.5203
▁gion	-11.5206
▁arna	-11.522
▁mpact	-11.5233
▁grin	-11.5234
▁mpa	-11.5241
▁ó	-11.5244
ff	-11.5246
▁Zo	-11.5247
▁ument	-11.5248
▁glow	-11.5249
▁stl	-11.5258
▁bin	-11.5264
land	-11.528
▁44	-11.5291
▁ON	-11.5295
ր	-11.5307
▁37	-11.5308
▁ggi	-11.5311
▁lou	-11.5315
▁inda	-11.5316
▁UCLA	-11.5321
▁etty	-11.5325
ol	-11.5331
▁sect	-11.5333
▁kg	-11.5334
EN	-11.534
▁rran	-11.5367
▁ude	-11.5378
tha	-11.5385
▁rue	-11.5387
▁riti	-11.5408
ու	-11.5411
▁Zu	-11.542
▁8,	-11.5426
▁sona	-11.5427
▁essor	-11.5429
▁owne	-11.5432
▁nant	-11.5436
▁ongo	-11.5447
▁uture	-11.5451
▁Coun	-11.5453
opul	-11.5461
▁oven	-11.5503
Oh	-11.5504
▁GM	-11.5506
lam	-11.5513
▁ue	-11.5529
▁pol	-11.553
▁heck	-11.5535
▁ecur	-11.5549
▁adav	-11.5595
▁rog	-11.561
▁web	-11.5612
▁ICC	-11.5619
▁oge	-11.5624
▁hoo	-11.5626
▁ias	-11.5633
▁uted	-11.565
▁uite	-11.5671
▁ultu	-11.5677
▁3,	-11.5677
▁ener	-11.5681
▁ESPN	-11.569
ili	-11.5692
▁hink	-11.5694
▁tune	-11.5698
▁ista	-11.5712
▁urv	-11.5729
▁ph	-11.5732
ney	-11.5744
▁8.	-11.5758
▁nsit	-11.576
▁etti	-11.577
▁haul	-11.5773
TA	-11.5796
70	-11.5803
her	-11.5814
bra	-11.5815
▁antl	-11.5817
▁Hot	-11.5817
▁ntar	-11.5818
▁THE	-11.5823
urv	-11.5832
▁oose	-11.5834
▁Llo	-11.5837
▁shu	-11.5842
▁arie	-11.5847
▁reign	-11.5854
▁tam	-11.5857
U	-11.5864
ius	-11.5878
▁umi	-11.5893
▁2,	-11.5901
30	-11.5902
▁arp	-11.591
▁uz	-11.5919
▁ebb	-11.592
▁afa	-11.5932
▁ading	-11.5934
▁ergu	-11.5941
▁rod	-11.5961
▁riot	-11.5961
	-11.5975
▁gher	-11.5981
EAD	-11.5983
▁lto	-11.5983
▁orse	-11.6002
▁oan	-11.6007
▁lati	-11.6013
nik	-11.6042
▁haz	-11.6042
▁lymp	-11.6048
▁asha	-11.6049
▁III	-11.605
▁eet	-11.6063
▁trio	-11.6067
▁nto	-11.6068
▁կա	-11.6069
▁ithin	-11.6091
▁acu	-11.6098
▁avin	-11.6099
▁hin	-11.61
▁itan	-11.6107
▁Hag	-11.6112
▁gio	-11.615
▁sons	-11.6151
On	-11.6168
▁NCAA	-11.6173
▁etc	-11.6174
▁unne	-11.6175
▁stint	-11.6186
▁cil	-11.6187
ze	-11.6189
▁tters	-11.6191
▁rut	-11.6201
▁tiv	-11.6207
▁PS	-11.6227
▁lew	-11.6229
▁$5	-11.6234
▁env	-11.6238
▁38	-11.624
▁eft	-11.6246
▁dmi	-11.6248
▁dale	-11.6262
rest	-11.6271
tani	-11.6273
▁ET	-11.6273
▁ntry	-11.6281
OA	-11.6281
▁կ	-11.6302
▁zoo	-11.6304
▁nj	-11.6314
mic	-11.6316
▁yder	-11.6333
▁Gil	-11.6341
▁imo	-11.6343
read	-11.6347
ska	-11.6356
▁abo	-11.6358
▁hr	-11.636
É	-11.6366
▁lens	-11.6368
▁nar	-11.6371
▁NEW	-11.6374
▁lege	-11.6374
ard	-11.6375
▁DNA	-11.6375
▁heek	-11.6385
▁nkey	-11.6386
▁esth	-11.639
gh	-11.6392
▁Acc	-11.6395
▁AN	-11.6396
▁gut	-11.6404
▁divi	-11.6406
fa	-11.6406
▁rig	-11.6406
▁lant	-11.6406
▁tui	-11.6444
SG	-11.647
▁ն	-11.6476
▁revi	-11.6478
▁enin	-11.6478
▁lank	-11.6479
▁akers	-11.6485
▁niz	-11.6488
▁iant	-11.6492
▁42	-11.6523
ruz	-11.6543
▁touc	-11.6547
TI	-11.6558
ost	-11.6568
▁nya	-11.6569
▁lyri	-11.6571
▁Utah	-11.6573
▁nas	-11.6579
▁ikki	-11.6582
▁46	-11.6592
▁pti	-11.6596
be	-11.6596
▁ayed	-11.6599
▁rial	-11.661
á	-11.661
▁9.	-11.6611
▁ssent	-11.6612
▁dde	-11.662
▁rama	-11.6654
▁tat	-11.6659
▁gers	-11.6663
▁honey	-11.6665
▁nate	-11.6671
▁xis	-11.6692
tz	-11.6693
▁heel	-11.67
ide	-11.671
▁uffe	-11.6713
▁hem	-11.6721
▁tast	-11.6722
▁ggl	-11.6723
ated	-11.6747
60	-11.6747
▁Davi	-11.6773
bo	-11.6782
▁wel	-11.6786
▁ladi	-11.6796
▁ardon	-11.6813
▁awa	-11.6815
▁vy	-11.6817
▁Gua	-11.6819
▁lag	-11.6823
▁MAG	-11.684
▁ED	-11.6845
▁olin	-11.6853
▁20%	-11.6867
▁Bet	-11.6868
▁hike	-11.6876
▁eid	-11.6877
▁pixel	-11.6885
▁anga	-11.6885
▁tton	-11.6886
LB	-11.6892
▁ives	-11.6895
▁rov	-11.6898
▁ylan	-11.6903
HL	-11.6909
▁Ips	-11.6916
▁eme	-11.6922
▁erba	-11.6926
▁oya	-11.6926
▁ctiv	-11.6936
▁mara	-11.6939
▁tany	-11.6993
ill	-11.6996
▁ises	-11.6996
▁igar	-11.7003
▁rith	-11.7028
տ	-11.7064
▁uru	-11.7071
▁laze	-11.7075
▁sty	-11.708
11	-11.7094
▁IS	-11.7098
▁eview	-11.7104
▁onat	-11.7117
▁ues	-11.7127
80	-11.7128
▁oka	-11.7153
▁Flo	-11.7154
▁grip	-11.7158
▁rien	-11.7158
▁USC	-11.7175
▁Usyk	-11.7208
▁lphin	-11.7217
▁Utd	-11.722
▁stunt	-11.7223
▁nkin	-11.7223
▁aul	-11.7225
▁roba	-11.7231
▁adu	-11.725
▁anch	-11.7251
▁rsu	-11.7253
▁55	-11.7255
▁asse	-11.7266
▁sda	-11.7286
▁gru	-11.7294
▁Eu	-11.73
▁sban	-11.7309
▁brid	-11.7312
▁deta	-11.7318
▁opez	-11.7326
▁Unit	-11.7341
▁drum	-11.7344
▁iel	-11.7349
▁FC	-11.735
▁ynth	-11.7354
▁rvin	-11.7356
▁ska	-11.736
▁sim	-11.7361
▁Rex	-11.7371
▁ums	-11.7374
▁riva	-11.7383
▁39	-11.7386
▁adal	-11.7391
▁egis	-11.7404
▁IN	-11.7407
▁54	-11.741
▁tage	-11.7419
▁pear	-11.7432
▁tica	-11.7437
▁UFC	-11.7439
▁taff	-11.744
▁amal	-11.7441
▁Ev	-11.7449
▁PC	-11.746
▁sible	-11.7464
ez	-11.7465
▁amil	-11.7477
▁ubi	-11.7481
trac	-11.7481
▁9,	-11.7506
▁rto	-11.7518
▁uris	-11.7525
▁ntan	-11.7525
▁oup	-11.7528
▁nshi	-11.7532
▁Use	-11.7543
▁mmo	-11.7549
▁git	-11.7551
▁mbo	-11.7553
▁pter	-11.7555
▁mel	-11.7574
▁ront	-11.7577
▁ugg	-11.7579
▁loom	-11.758
▁arya	-11.7591
▁mme	-11.7591
▁eace	-11.7597
▁umber	-11.7605
▁lgo	-11.7636
▁mond	-11.7654
▁ured	-11.7664
▁rne	-11.7666
lco	-11.7681
Z	-11.77
▁affe	-11.7729
▁mbr	-11.7751
▁eria	-11.7764
▁tua	-11.7767
em	-11.7769
▁uat	-11.7769
▁undr	-11.7782
▁vas	-11.779
▁icket	-11.7806
OC	-11.7816
▁ril	-11.7821
RC	-11.7828
ía	-11.7833
▁alah	-11.7837
▁ien	-11.7858
ki	-11.7866
▁ems	-11.788
▁WHO	-11.7891
▁saf	-11.7896
▁araz	-11.7896
MC	-11.7909
▁RBI	-11.7911
▁elan	-11.7916
▁irat	-11.7918
▁ritt	-11.792
▁sage	-11.7925
aid	-11.7926
▁awar	-11.7929
my	-11.7937
▁uci	-11.7944
▁bli	-11.795
▁ewel	-11.7982
▁aha	-11.7984
▁epen	-11.7989
▁ffe	-11.7989
▁10.	-11.7993
▁dura	-11.7999
▁alb	-11.8004
▁cel	-11.8018
▁ollo	-11.8018
▁iest	-11.8023
▁orman	-11.8025
▁rla	-11.8034
SE	-11.8036
▁ckey	-11.8056
▁glov	-11.8059
▁Pat	-11.8099
-	-11.8102
BI	-11.8104
▁onti	-11.8113
▁erto	-11.8128
▁loop	-11.8148
▁arn	-11.8182
▁ewa	-11.8206
▁ctu	-11.8207
▁enic	-11.822
▁trap	-11.8221
▁47	-11.8223
▁omm	-11.8225
▁oxi	-11.8235
▁Tesco	-11.8243
▁arg	-11.8244
▁gem	-11.8263
NC	-11.827
▁tow	-11.8278
aj	-11.8284
▁Vet	-11.8288
▁Cel	-11.8292
▁lush	-11.8322
▁rna	-11.8329
▁tatt	-11.834
▁amo	-11.8341
▁rv	-11.8341
▁shtr	-11.8346
▁ncia	-11.8357
▁clin	-11.8367
▁leks	-11.8371
CB	-11.8374
▁avou	-11.8376
q	-11.8389
▁orta	-11.8392
▁iri	-11.8395
sp	-11.8397
▁lunt	-11.8398
LA	-11.8399
▁ngin	-11.8408
▁orwe	-11.8412
J	-11.8426
NRW	-11.8427
▁vali	-11.8428
RK	-11.843
▁AAP	-11.8436
▁toss	-11.844
▁Spa	-11.8453
mp	-11.846
▁erk	-11.8465
▁bia	-11.8484
▁Utta	-11.849
▁ksha	-11.849
▁UP	-11.8491
ima	-11.851
CH	-11.8517
dica	-11.8532
▁rfo	-11.8532
▁mplo	-11.8537
▁esign	-11.8538
25	-11.8538
▁lea	-11.8539
▁igg	-11.8546
CO	-11.8547
▁lavi	-11.8547
SU	-11.857
▁matt	-11.8573
▁PR	-11.8577
▁lore	-11.8581
▁pion	-11.8587
ub	-11.8608
▁drai	-11.8617
▁yach	-11.8638
▁Gett	-11.8642
▁aps	-11.8656
▁umm	-11.8659
ndro	-11.8668
▁laz	-11.8669
▁unge	-11.8685
▁Hud	-11.869
▁ncer	-11.8695
PR	-11.8706
▁hom	-11.8713
ik	-11.8719
▁agar	-11.8719
▁oldi	-11.8733
▁umer	-11.8737
▁hail	-11.8748
▁41	-11.8756
▁ulu	-11.8757
▁tanc	-11.8759
▁ume	-11.8773
▁3-0	-11.8781
▁repa	-11.8801
▁esp	-11.8804
▁nters	-11.881
▁Lot	-11.881
az	-11.881
▁dair	-11.8816
▁tray	-11.8824
▁lond	-11.8836
▁Win	-11.8838
NT	-11.8839
▁hile	-11.885
▁leb	-11.8858
hysi	-11.8858
+	-11.8864
▁Kra	-11.8871
▁2%	-11.8872
▁MSP	-11.8877
▁daho	-11.8882
AE	-11.8884
▁rings	-11.8889
▁mut	-11.8893
tol	-11.8895
▁xper	-11.8917
▁rce	-11.8921
▁rbi	-11.8926
▁lips	-11.8932
7%	-11.8942
▁fool	-11.8948
▁ik	-11.8963
▁mois	-11.8966
▁asin	-11.8974
▁resh	-11.8975
9%	-11.8979
▁gov	-11.8979
▁efen	-11.8981
▁rms	-11.8993
▁eyon	-11.9003
▁eddy	-11.9003
▁ների	-11.9012
▁eman	-11.9015
▁uy	-11.9016
▁եւ	-11.9019
▁alc	-11.9024
▁pile	-11.9026
▁vill	-11.9028
▁rude	-11.9052
▁50%	-11.9066
SF	-11.9067
▁ersey	-11.9078
▁sures	-11.9082
▁lize	-11.9083
aw	-11.9104
▁See	-11.9111
ED	-11.9111
GPT	-11.9126
▁omali	-11.9131
▁ixon	-11.9133
ngu	-11.9136
CS	-11.9138
forc	-11.9139
▁nnou	-11.914
è	-11.9141
▁octor	-11.9148
▁hane	-11.915
▁gie	-11.9156
▁Cz	-11.9171
▁rof	-11.9179
▁Thr	-11.9185
▁dox	-11.9191
▁43	-11.9195
TC	-11.9233
▁iddy	-11.9242
▁oda	-11.925
NS	-11.9255
▁eels	-11.9256
]	-11.9259
▁nerv	-11.9262
▁rf	-11.9262
▁erit	-11.9271
▁apa	-11.928
▁prim	-11.9285
▁NDA	-11.9285
myr	-11.9297
▁ida	-11.93
ում	-11.9304
▁tron	-11.9306
▁oste	-11.9309
▁arat	-11.9326
▁nod	-11.9336
▁nden	-11.9342
▁13.	-11.9348
ji	-11.9353
3%	-11.9357
dd	-11.9364
▁Trev	-11.9399
▁Know	-11.94
GO	-11.9408
▁AD	-11.9408
▁NDT	-11.9416
▁ppi	-11.9417
▁rez	-11.942
▁uby	-11.9423
nake	-11.9423
▁pst	-11.9433
▁crat	-11.9434
avy	-11.944
▁ickl	-11.9444
▁hana	-11.945
▁Zi	-11.9451
▁lkat	-11.9461
▁ար	-11.9492
lop	-11.9506
▁KC	-11.9516
▁rder	-11.9525
oli	-11.9537
▁ienna	-11.9538
IV	-11.9545
▁UC	-11.9546
▁BC	-11.9549
▁elp	-11.9557
▁angu	-11.9564
▁nea	-11.9573
▁lina	-11.9584
▁arget	-11.9602
▁teph	-11.9605
▁sdom	-11.961
▁ault	-11.9621
CA	-11.9625
▁uran	-11.9636
▁eiv	-11.9639
▁dip	-11.9665
-3	-11.9667
▁nim	-11.967
rodu	-11.9673
24	-11.9677
▁MVP	-11.9679
▁lare	-11.9691
▁ի	-11.9692
migr	-11.9692
▁ebo	-11.9696
▁je	-11.97
▁CO	-11.9707
▁epa	-11.9717
▁nfla	-11.9721
▁NA	-11.9734
▁eads	-11.9738
SB	-11.9753
▁mush	-11.9756
DP	-11.9758
▁esu	-11.9766
▁ided	-11.9779
▁spin	-11.9782
▁tings	-11.9797
▁cas	-11.9802
▁shna	-11.9805
uck	-11.9812
▁WWE	-11.9816
DS	-11.9819
▁12.	-11.9819
▁arle	-11.9821
▁hools	-11.9824
▁Jul	-11.9829
zi	-11.9835
▁hunk	-11.9839
▁irect	-11.9857
▁ersh	-11.9861
▁SEC	-11.9864
▁arge	-11.9865
son	-11.9867
▁Imag	-11.9868
▁beg	-11.987
▁Yo	-11.9871
▁IST	-11.9881
▁rup	-11.9894
▁ghes	-11.9916
▁ndan	-11.9931
▁olu	-11.994
▁wak	-11.9942
▁ICE	-11.9944
▁ompo	-11.995
▁1%	-11.9962
▁rood	-11.9964
▁WNB	-11.9968
ս	-12
▁ibb	-12.0004
▁hyp	-12.0025
▁Too	-12.003
▁XI	-12.0035
▁arbo	-12.0035
▁shan	-12.0039
gg	-12.0042
ola	-12.0047
MS	-12.0084
▁pent	-12.0086
▁wais	-12.0086
▁NC	-12.0091
▁urt	-12.0092
▁edro	-12.0096
▁15.	-12.0102
▁ahon	-12.0117
▁ynch	-12.0122
▁eril	-12.0141
▁bhi	-12.0141
▁inem	-12.0147
▁homi	-12.0155
▁amat	-12.0174
37	-12.0175
▁ules	-12.019
▁Fro	-12.0191
▁uki	-12.0194
▁llan	-12.0194
tir	-12.0196
▁ouri	-12.0202
RA	-12.0207
▁ule	-12.021
▁helm	-12.0211
▁Kap	-12.0217
▁issu	-12.0217
ood	-12.0233
▁ssue	-12.0242
nna	-12.0246
▁hij	-12.0261
▁NAS	-12.0262
▁mos	-12.0268
▁enz	-12.0271
uj	-12.0276
▁gymn	-12.0283
▁leep	-12.0286
▁yeh	-12.0302
▁1.5	-12.0315
▁alsh	-12.0316
▁rva	-12.0322
▁PAC	-12.0345
▁neo	-12.0356
6%	-12.0362
▁extr	-12.0363
▁11.	-12.0364
▁agi	-12.0366
▁sna	-12.0369
leev	-12.0371
nko	-12.0404
▁rres	-12.0408
IP	-12.0408
▁yank	-12.0413
▁ssan	-12.0413
▁ncou	-12.0416
▁Yu	-12.0436
AS	-12.0459
▁iall	-12.0464
▁stri	-12.0482
▁ER	-12.0485
kar	-12.0485
▁85	-12.0486
▁Ban	-12.0497
LS	-12.0499
ded	-12.0501
▁hys	-12.0507
▁enzi	-12.0511
law	-12.0514
▁ppa	-12.0538
▁ros	-12.0539
▁atta	-12.0541
lf	-12.0549
▁։	-12.0551
▁Niger	-12.0551
▁erum	-12.0554
▁ocat	-12.0554
▁roi	-12.0557
▁rek	-12.056
▁mud	-12.0562
▁nthem	-12.0566
▁cie	-12.0588
sley	-12.0589
▁iew	-12.0601
▁gaz	-12.0603
NG	-12.0614
riti	-12.0622
▁oj	-12.0624
▁enis	-12.0624
▁dget	-12.0625
án	-12.0625
▁mery	-12.0632
▁120	-12.065
▁բ	-12.0653
▁EVs	-12.0655
▁Oil	-12.0668
▁fen	-12.0671
▁74	-12.0673
▁arte	-12.0675
▁bles	-12.0695
▁rbo	-12.0696
▁eturn	-12.0705
▁arla	-12.0713
▁ober	-12.0741
▁yron	-12.0741
▁51	-12.0747
▁essay	-12.0754
▁CDC	-12.0757
AF	-12.0768
▁eill	-12.0774
▁ural	-12.0793
▁72	-12.0798
▁Che	-12.0807
▁sche	-12.0809
▁Bal	-12.0809
▁dau	-12.0823
▁orie	-12.0828
▁vey	-12.0833
▁llon	-12.0834
ook	-12.0835
▁eop	-12.0875
ion	-12.0898
▁dear	-12.0898
▁tease	-12.0912
▁lobe	-12.0929
ggie	-12.0929
▁eles	-12.0937
EFA	-12.0942
▁$2	-12.0944
12	-12.0948
ú	-12.095
▁erfu	-12.0955
▁53	-12.0972
▁oles	-12.0979
▁£1	-12.098
8%	-12.0982
▁rka	-12.0985
▁mmen	-12.099
▁sau	-12.0992
▁eyn	-12.1005
Of	-12.1018
SS	-12.1018
▁ST	-12.1018
DC	-12.1034
▁Uga	-12.1061
▁Des	-12.1061
▁nno	-12.1072
CC	-12.1076
▁nte	-12.1084
▁nita	-12.1087
▁vell	-12.1089
▁nato	-12.1118
▁vend	-12.1121
▁ngi	-12.1132
▁ondi	-12.1147
▁CB	-12.1154
▁mela	-12.1156
▁ege	-12.1162
Do	-12.1178
▁տ	-12.1178
▁uka	-12.1179
▁YO	-12.119
▁Ver	-12.1191
OJ	-12.1194
PI	-12.1202
▁kini	-12.122
▁spike	-12.1222
▁MI	-12.1232
ü	-12.1232
▁idg	-12.1242
▁mmel	-12.1246
ax	-12.1246
▁shid	-12.1251
▁god	-12.126
ef	-12.1265
har	-12.1274
▁INDI	-12.1276
▁boo	-12.1291
▁lita	-12.1312
▁ayl	-12.1317
▁ashv	-12.1332
▁ERA	-12.1337
▁AND	-12.1338
▁64	-12.1346
▁VAR	-12.1346
▁GMT	-12.135
▁ampl	-12.1351
▁66	-12.1371
▁ilk	-12.1374
gram	-12.1399
▁garh	-12.1409
▁lade	-12.1413
▁rkan	-12.143
▁ssip	-12.1437
ada	-12.1438
▁16.	-12.1449
▁AL	-12.1453
▁BS	-12.1455
▁18.	-12.1459
▁bic	-12.1464
▁í	-12.1468
1%	-12.1471
▁Sm	-12.1482
▁RAM	-12.1487
▁oel	-12.1493
▁evel	-12.1494
▁nail	-12.1496
▁esar	-12.1498
▁ogy	-12.15
▁emer	-12.1503
▁ndal	-12.1504
▁reez	-12.1508
▁որ	-12.1515
▁RHP	-12.1517
▁OR	-12.1534
▁negar	-12.1535
usk	-12.1544
▁mpic	-12.1545
▁orma	-12.155
▁Way	-12.156
▁oble	-12.157
▁ngan	-12.1573
▁52	-12.1579
▁udy	-12.1586
hma	-12.1597
▁uge	-12.161
▁VP	-12.1614
որ	-12.1615
▁emon	-12.1631
▁oze	-12.1636
▁ntel	-12.1636
TS	-12.1645
▁mith	-12.1657
▁rg	-12.1664
▁TON	-12.1673
▁rtis	-12.1674
▁5%	-12.1681
▁peare	-12.1681
▁elin	-12.1686
▁tati	-12.1686
▁feld	-12.169
▁dher	-12.169
ES	-12.1696
▁ayner	-12.1705
▁nsu	-12.1709
▁ilo	-12.171
▁hypo	-12.1712
PA	-12.1715
▁xpl	-12.1741
▁pok	-12.1747
▁tles	-12.1752
▁shit	-12.1753
▁NE	-12.1761
ex	-12.1768
▁iki	-12.1771
▁aum	-12.1779
▁onda	-12.178
vis	-12.1785
▁ianc	-12.1795
▁ika	-12.1798
▁pul	-12.1807
▁doc	-12.1808
exua	-12.1811
▁som	-12.1823
▁upp	-12.1823
րա	-12.183
▁rrent	-12.1834
ium	-12.1837
▁reep	-12.184
▁Ill	-12.1842
▁vape	-12.1846
▁rjun	-12.1853
▁gag	-12.187
▁urvi	-12.1874
▁zy	-12.1875
▁mers	-12.1889
use	-12.1892
▁stag	-12.1896
▁etsk	-12.19
▁20.	-12.1912
▁lope	-12.1913
▁rpe	-12.1914
▁mpl	-12.1922
LY	-12.1928
▁tif	-12.1928
▁Nat	-12.1941
2%	-12.1945
▁49	-12.1948
▁nals	-12.195
▁alin	-12.1973
▁rmal	-12.1985
-2	-12.1999
▁wid	-12.201
▁mmu	-12.2026
▁dupe	-12.2037
▁holy	-12.2041
▁umma	-12.2058
▁leis	-12.2075
spir	-12.208
vol	-12.2101
mor	-12.2105
▁kra	-12.211
▁kar	-12.2115
▁eave	-12.2118
▁nite	-12.2123
▁iff	-12.2133
tapl	-12.2165
▁aliz	-12.2178
By	-12.2183
▁dug	-12.2204
▁ODI	-12.2207
▁arty	-12.221
▁dazz	-12.2213
▁ohn	-12.2227
EC	-12.2228
▁noun	-12.2234
▁uda	-12.2234
▁oath	-12.2236
▁AFL	-12.2237
▁pill	-12.2246
▁gade	-12.2249
▁Ger	-12.225
▁Trac	-12.2251
▁lori	-12.2252
▁enka	-12.2253
ud	-12.2266
▁nho	-12.2271
▁lve	-12.2272
▁պ	-12.2273
▁Cou	-12.2298
FO	-12.2303
▁fere	-12.2303
▁gita	-12.2306
99	-12.2306
tur	-12.2307
▁oria	-12.2307
▁lida	-12.2321
▁anit	-12.2324
An	-12.2359
▁erez	-12.236
▁TD	-12.2366
▁lvi	-12.2375
©	-12.2389
à	-12.2389
▁ouble	-12.2389
▁IVF	-12.2389
▁FT	-12.2392
▁oar	-12.2395
▁arus	-12.2423
▁arma	-12.2424
▁lga	-12.2429
▁nach	-12.243
▁hart	-12.245
▁knot	-12.2453
▁avor	-12.2466
▁glu	-12.2472
▁ntag	-12.2472
▁ceme	-12.2478
▁bod	-12.2488
▁chin	-12.2509
GB	-12.2517
▁SP	-12.2541
▁swam	-12.2542
▁lici	-12.2546
EL	-12.2546
▁toast	-12.2554
▁dva	-12.2556
▁spl	-12.2562
▁°	-12.2574
▁redo	-12.2583
▁Us	-12.2586
▁tyle	-12.2589
▁tsun	-12.2593
▁rub	-12.2596
EA	-12.2596
lon	-12.2599
▁eism	-12.2601
▁uf	-12.2604
▁ANC	-12.2622
Ah	-12.2625
▁ում	-12.2626
▁ussi	-12.2628
▁fond	-12.2631
▁inni	-12.2633
▁vian	-12.2639
▁£5	-12.2642
▁aud	-12.2644
▁shwi	-12.2654
▁hode	-12.2661
▁30%	-12.2671
ER	-12.2678
▁awy	-12.2692
▁aks	-12.2693
IS	-12.2694
▁twins	-12.2699
tend	-12.2703
▁Dam	-12.2718
kin	-12.2721
▁vap	-12.2745
▁stard	-12.2755
▁esel	-12.2757
▁reta	-12.276
▁CD	-12.2761
▁eant	-12.2762
▁թյ	-12.2762
▁■	-12.2763
▁nso	-12.2769
▁ymond	-12.2773
▁uhan	-12.278
▁tem	-12.2781
▁WNS	-12.2781
▁atte	-12.2781
▁30.	-12.2782
agg	-12.2785
ku	-12.2791
▁rwa	-12.2798
▁nsum	-12.2825
MA	-12.2827
US	-12.2839
RI	-12.2849
▁tay	-12.2852
18	-12.2855
▁ifie	-12.2856
ona	-12.2864
▁ccu	-12.2866
▁lini	-12.2869
▁leja	-12.288
▁noma	-12.2882
▁nua	-12.2884
4%	-12.2889
▁Ted	-12.2898
▁tia	-12.2907
▁SUV	-12.2908
▁slid	-12.2909
▁WA	-12.2913
▁OS	-12.2916
▁oic	-12.2918
▁kul	-12.2934
▁rgla	-12.2938
had	-12.2955
▁iza	-12.2958
▁4%	-12.2959
▁£10	-12.2962
▁ocks	-12.2973
▁ynn	-12.2979
▁wenty	-12.2984
ourc	-12.2985
▁hwa	-12.2993
▁58	-12.3
▁Got	-12.3003
▁nise	-12.3024
▁ipt	-12.3046
SIS	-12.3046
▁56	-12.3064
▁rtai	-12.3075
▁estr	-12.3077
▁rdin	-12.3078
▁efu	-12.3092
▁mous	-12.3096
▁rte	-12.3099
bel	-12.3104
▁dem	-12.3105
▁tel	-12.3108
▁clad	-12.3109
▁nesh	-12.3147
▁itors	-12.3156
▁63	-12.3159
▁eena	-12.3165
▁ancé	-12.3167
▁udg	-12.3173
▁Kar	-12.319
▁njur	-12.3196
▁ref	-12.32
▁hyg	-12.32
IVE	-12.3228
▁Gun	-12.323
▁lint	-12.3233
▁gly	-12.3235
▁թյա	-12.3239
▁ncin	-12.324
▁57	-12.3248
▁Trud	-12.3261
▁dé	-12.327
▁azz	-12.3274
CP	-12.3277
▁anie	-12.3295
▁YOU	-12.3295
dia	-12.33
gra	-12.3328
▁jam	-12.3329
HD	-12.3331
▁mbe	-12.3337
▁ardy	-12.3337
▁hay	-12.3341
▁raper	-12.3348
▁ocr	-12.3352
▁roxy	-12.3353
▁rns	-12.3357
pez	-12.338
ASH	-12.3386
▁neat	-12.3408
▁Sex	-12.3415
▁emm	-12.3422
AC	-12.3422
Is	-12.3427
▁plet	-12.3429
▁elve	-12.3429
▁ntra	-12.3431
15	-12.3439
▁alon	-12.3441
▁eke	-12.3461
▁amou	-12.3473
▁cree	-12.3484
▁á	-12.3488
▁77	-12.3493
▁ibu	-12.35
▁odel	-12.3511
▁Kit	-12.3537
CD	-12.3539
SC	-12.354
▁lier	-12.3541
▁rtic	-12.3545
▁Ola	-12.3548
IFA	-12.3556
▁spo	-12.3556
▁epsi	-12.3561
▁É	-12.3563
▁hobb	-12.3563
▁otal	-12.3565
▁Try	-12.3567
▁lmond	-12.3567
▁FAA	-12.3581
▁IMF	-12.3585
ung	-12.3597
ST	-12.3606
▁rci	-12.3612
rvel	-12.3621
▁67	-12.3622
▁AT	-12.3634
▁fus	-12.3638
▁ogi	-12.3641
▁Ice	-12.3646
▁ripe	-12.3654
▁IP	-12.366
▁athl	-12.3676
▁lein	-12.3678
▁DA	-12.3684
hen	-12.3692
▁61	-12.3709
▁adde	-12.3712
▁goo	-12.3712
▁hash	-12.3713
▁iffe	-12.3721
▁Mb	-12.3739
erna	-12.3741
▁izz	-12.3751
▁feit	-12.3763
lway	-12.3773
▁Jh	-12.3778
▁rvel	-12.3783
▁obs	-12.3784
est	-12.3792
▁nzo	-12.3792
▁LED	-12.3797
▁aisy	-12.3801
▁nkar	-12.3808
▁HD	-12.3813
▁fici	-12.3814
▁Age	-12.3837
ան	-12.3844
▁itis	-12.3855
▁tM	-12.3873
▁RB	-12.3889
▁gul	-12.3897
WP	-12.3899
rez	-12.3908
16	-12.391
▁kis	-12.3911
▁25%	-12.3927
▁rba	-12.3942
▁má	-12.3953
FK	-12.3955
▁3%	-12.3971
▁lves	-12.3976
▁tcom	-12.398
▁tba	-12.398
▁kash	-12.3982
▁HBO	-12.3984
▁$3	-12.399
▁loft	-12.3991
▁VIP	-12.3991
▁rdi	-12.3994
▁eci	-12.3995
▁EPA	-12.3999
▁grove	-12.4009
▁meli	-12.4015
17	-12.4016
NY	-12.403
▁hre	-12.4051
▁19.	-12.4056
▁21.	-12.407
▁nex	-12.4081
▁lynn	-12.4091
▁lmo	-12.4091
▁agne	-12.4096
▁62	-12.4114
▁iqu	-12.4125
EI	-12.4126
tya	-12.4139
▁lax	-12.4144
▁orro	-12.4146
▁nju	-12.4151
▁pad	-12.4165
՝	-12.4194
IY	-12.4194
▁yrne	-12.4195
▁abwe	-12.4207
▁Tax	-12.4223
▁RNC	-12.423
▁73	-12.4261
▁Zon	-12.4266
▁fron	-12.427
▁ippe	-12.4276
▁orgi	-12.4279
jo	-12.4288
▁woo	-12.4294
▁17.	-12.4299
AN	-12.43
▁ctri	-12.4301
ná	-12.4301
▁ikto	-12.4304
▁rro	-12.4305
▁rgu	-12.4315
▁shy	-12.4335
▁jp	-12.4337
SO	-12.4347
▁eac	-12.4349
▁ía	-12.435
▁wat	-12.4359
▁rton	-12.4372
▁nath	-12.4377
▁orge	-12.4403
▁oz	-12.4417
▁remo	-12.4419
▁7%	-12.4423
LE	-12.4426
▁avo	-12.4441
▁shaw	-12.4466
▁yoga	-12.4467
▁29.	-12.4472
▁rtan	-12.4477
▁dai	-12.4487
38	-12.4503
tel	-12.4506
▁hali	-12.4515
▁59	-12.4537
▁amir	-12.4538
13	-12.4548
▁orter	-12.4562
▁melo	-12.4568
▁ES	-12.4571
▁bud	-12.4576
▁Ur	-12.4578
▁omat	-12.458
▁egre	-12.4581
▁Texa	-12.4592
PM	-12.4593
▁SS	-12.4594
▁guar	-12.4596
▁dani	-12.4608
▁bend	-12.4615
▁istu	-12.4651
FF	-12.4654
▁avan	-12.466
▁aise	-12.466
pl	-12.4678
▁etr	-12.468
35	-12.4688
PD	-12.469
han	-12.4694
▁odor	-12.4697
▁ecu	-12.4713
▁heney	-12.4729
▁chal	-12.4729
▁nana	-12.4731
▁Time	-12.4746
▁ters	-12.4747
ool	-12.475
▁ddy	-12.4751
▁heet	-12.4752
DF	-12.4754
▁amara	-12.4761
▁inwar	-12.4761
itiv	-12.4766
▁յի	-12.4775
▁andya	-12.478
▁rous	-12.4784
DR	-12.4792
▁VAT	-12.4812
▁lis	-12.4823
▁prep	-12.4824
▁ucc	-12.484
▁BRI	-12.4853
▁adge	-12.4861
▁ntr	-12.4869
▁ALL	-12.487
▁arga	-12.4875
▁tyre	-12.4875
―	-12.4876
rist	-12.4879
▁tead	-12.4882
▁eiss	-12.4886
▁otti	-12.4888
▁spic	-12.4888
▁kate	-12.4888
TP	-12.4902
▁boob	-12.4906
45	-12.4911
▁evro	-12.4914
gar	-12.4915
▁uton	-12.4918
▁knit	-12.4918
23	-12.492
▁tyra	-12.4922
▁գ	-12.493
▁IRS	-12.4935
▁tiz	-12.4936
▁dli	-12.4958
▁uror	-12.4963
▁evo	-12.4973
jac	-12.4974
▁mora	-12.4974
▁holm	-12.4974
▁arbor	-12.4975
OX	-12.4989
▁cher	-12.499
▁dore	-12.4994
▁vels	-12.4999
▁batt	-12.5005
▁arme	-12.5016
RO	-12.5018
MG	-12.5021
▁ulg	-12.5025
TY	-12.5026
MO	-12.5076
▁Por	-12.5083
▁amar	-12.5093
▁efer	-12.5098
yll	-12.5105
▁nit	-12.5105
ք	-12.511
Á	-12.5114
▁awk	-12.5116
ogg	-12.512
▁nagh	-12.5125
▁AC	-12.5126
RY	-12.5128
njay	-12.5129
▁lts	-12.5132
RS	-12.5141
▁ocus	-12.5167
▁rogr	-12.5167
▁latt	-12.5169
RT	-12.5172
▁wick	-12.5192
▁Ltd	-12.5192
▁woes	-12.5194
▁njo	-12.5197
▁evy	-12.5202
▁Fle	-12.5202
22	-12.5218
vel	-12.5225
▁rane	-12.5225
ել	-12.5229
NA	-12.5233
▁thw	-12.5234
▁athy	-12.5237
▁Cox	-12.5246
▁ctua	-12.5248
▁iring	-12.5259
▁loat	-12.5263
PP	-12.5278
MP	-12.5279
▁nada	-12.5284
▁Gee	-12.5288
▁arse	-12.5288
▁var	-12.529
ler	-12.5293
PC	-12.5298
▁api	-12.5306
▁Put	-12.531
tri	-12.5319
▁vity	-12.5342
▁volt	-12.5344
▁95	-12.5347
▁6%	-12.5353
SW	-12.5355
▁lob	-12.5356
ā	-12.5358
▁gart	-12.5362
flec	-12.5363
▁$30	-12.5366
▁yne	-12.5374
▁Mea	-12.5381
-4	-12.5386
vo	-12.5396
▁abar	-12.54
▁hoot	-12.5401
▁ibut	-12.5441
▁icks	-12.5447
▁lson	-12.5447
▁dwi	-12.5453
▁Wor	-12.5456
▁etit	-12.5466
aka	-12.5467
AM	-12.547
լ	-12.55
▁lows	-12.5506
SD	-12.551
▁obe	-12.5514
▁nro	-12.5516
95	-12.5518
▁UW	-12.5522
/	-12.5533
vic	-12.5538
▁14.	-12.5542
▁jay	-12.5545
▁kara	-12.5568
▁hil	-12.5575
▁omy	-12.5576
icul	-12.5576
▁uest	-12.5584
▁rli	-12.5597
MW	-12.5603
▁jar	-12.5607
▁₹	-12.5608
▁kay	-12.5615
▁վ	-12.5626
IA	-12.563
PO	-12.5643
▁ikol	-12.5655
▁CIA	-12.5661
▁trim	-12.5688
▁PG	-12.569
▁rove	-12.57
▁rbor	-12.5705
▁mati	-12.5708
▁haun	-12.571
▁skar	-12.5734
▁furt	-12.5739
▁tland	-12.5745
▁24.	-12.577
AY	-12.577
▁nmen	-12.5773
▁kur	-12.5776
ghu	-12.5779
▁asco	-12.5792
▁LIV	-12.5798
hra	-12.5806
▁erod	-12.5822
▁eller	-12.5828
▁pher	-12.5829
▁elea	-12.5832
▁mac	-12.5838
▁thos	-12.5844
aq	-12.5851
▁aft	-12.5851
▁gutt	-12.5858
▁oole	-12.586
▁vai	-12.5864
▁khtar	-12.5864
▁mmar	-12.5868
-5	-12.5871
▁pox	-12.5875
▁stak	-12.5881
rk	-12.5885
▁$20	-12.5885
jee	-12.5887
IM	-12.5896
▁COP	-12.5898
▁AJ	-12.5899
lan	-12.5906
▁iyad	-12.591
▁bla	-12.591
▁eddi	-12.5929
▁CM	-12.5938
▁ffo	-12.5938
▁28.	-12.594
▁eine	-12.5949
▁án	-12.5951
▁ssia	-12.5953
▁enner	-12.5953
▁honi	-12.5958
zar	-12.5959
BS	-12.5977
▁icke	-12.5993
▁kka	-12.5993
▁wool	-12.5999
unk	-12.6002
IL	-12.6015
▁ieb	-12.6016
▁NYP	-12.6016
▁zak	-12.6019
▁Pal	-12.6022
19	-12.6023
rity	-12.6023
▁71	-12.6039
▁ION	-12.6066
▁annu	-12.6071
eph	-12.6092
▁akin	-12.6098
75	-12.6114
aki	-12.612
▁Lea	-12.6122
▁HMRC	-12.6129
▁snub	-12.6135
▁abba	-12.6136
▁tasha	-12.6137
▁ips	-12.614
FL	-12.6145
▁MEP	-12.6146
▁gray	-12.6161
▁ius	-12.6171
▁aran	-12.6175
IG	-12.6177
▁84	-12.6184
▁hun	-12.6191
▁nza	-12.6196
▁76	-12.6202
▁arto	-12.6223
▁engu	-12.6224
▁NI	-12.6225
▁BCC	-12.6235
▁99	-12.6262
կ	-12.6269
▁ows	-12.6282
▁NCP	-12.6287
▁Dog	-12.6296
▁urne	-12.6306
▁hoke	-12.6308
▁ltan	-12.6312
▁spel	-12.6313
Mr	-12.6322
ush	-12.633
▁tate	-12.6366
▁dega	-12.6368
▁lkin	-12.637
▁CA	-12.6373
▁Bha	-12.6385
▁NOT	-12.6388
55	-12.6395
▁oric	-12.6396
▁kha	-12.6403
▁nahan	-12.6403
▁WSL	-12.6411
▁veh	-12.6424
▁ք	-12.6427
▁ynon	-12.6427
▁vata	-12.6429
▁ailor	-12.6431
ով	-12.6434
▁Uma	-12.6449
▁sem	-12.6451
▁31.	-12.6463
▁nolo	-12.648
▁fuss	-12.6486
▁stel	-12.6489
▁23.	-12.649
▁pris	-12.65
▁pac	-12.6503
▁watt	-12.6507
▁MA	-12.6513
▁agal	-12.6519
zel	-12.6526
jah	-12.6534
oni	-12.654
▁olit	-12.6543
▁ema	-12.6546
▁omeo	-12.6551
▁lenn	-12.6552
▁ranc	-12.6557
WS	-12.656
▁gala	-12.6574
▁aku	-12.6595
▁ին	-12.6623
lif	-12.6642
▁ync	-12.6646
▁staf	-12.6663
▁lte	-12.6671
▁tigm	-12.6684
▁BA	-12.6685
▁grun	-12.6688
▁MTV	-12.6696
CR	-12.6702
▁llet	-12.6705
▁ks	-12.6707
▁uiz	-12.6715
▁Com	-12.6717
▁mint	-12.6717
ston	-12.6721
▁gil	-12.6727
▁ryo	-12.6729
▁urit	-12.6733
TX	-12.6734
▁ssid	-12.6751
▁81	-12.6755
▁fou	-12.6764
▁GT	-12.6767
▁ugge	-12.6779
▁naga	-12.6786
▁odo	-12.6795
▁rex	-12.6798
▁alki	-12.6806
▁CPS	-12.6807
▁olf	-12.6809
fe	-12.6814
▁FIR	-12.6816
65	-12.6824
SP	-12.6826
▁hove	-12.6829
▁oct	-12.6835
eam	-12.6842
▁usta	-12.6855
▁kaya	-12.6862
▁rdon	-12.6871
▁mita	-12.6873
ado	-12.6882
dra	-12.6911
▁smal	-12.6927
OR	-12.6933
▁uir	-12.6937
RE	-12.6939
date	-12.694
cio	-12.6955
▁NRL	-12.6961
▁xpect	-12.6962
▁nefit	-12.6962
90	-12.6968
▁Hyde	-12.6969
akh	-12.6973
▁bake	-12.6985
▁dres	-12.6994
▁etin	-12.7
▁sser	-12.7006
▁lmar	-12.7012
▁RN	-12.7029
▁XL	-12.7031
▁IRA	-12.7033
▁aunc	-12.7043
▁orch	-12.7047
ENN	-12.7054
▁cier	-12.7059
▁Pari	-12.706
▁bug	-12.7072
▁ynag	-12.7075
▁eks	-12.7093
▁dama	-12.7099
▁զ	-12.7101
▁IA	-12.7107
▁Ric	-12.711
▁ffen	-12.7113
▁lumn	-12.7118
gma	-12.7121
▁ochu	-12.7144
war	-12.7148
▁euve	-12.715
▁disha	-12.715
PL	-12.7155
▁lamp	-12.7193
▁eol	-12.7197
▁Sox	-12.7199
ttle	-12.7202
▁ecord	-12.7205
▁Cyr	-12.7206
▁sq	-12.7209
anz	-12.7217
▁USD	-12.7222
OL	-12.7223
▁arlo	-12.7234
▁orwi	-12.7237
▁Stre	-12.7239
▁easu	-12.7246
win	-12.7255
▁Ե	-12.7256
▁wolf	-12.7259
▁VII	-12.726
▁ayle	-12.7261
▁Dem	-12.7262
ARG	-12.7263
▁9%	-12.7265
▁CSK	-12.7268
▁mons	-12.7273
▁ennon	-12.7274
▁3-2	-12.7275
▁nip	-12.728
▁jit	-12.7281
eleb	-12.7281
▁MAX	-12.7284
▁wow	-12.7288
don	-12.7292
▁yog	-12.7294
efa	-12.7313
▁13%	-12.7316
▁maln	-12.7327
▁raci	-12.7339
▁wad	-12.7345
▁xp	-12.7347
▁rix	-12.7354
▁iya	-12.7354
▁UG	-12.7355
GM	-12.7355
▁nki	-12.7357
▁Chr	-12.7378
▁ocu	-12.738
▁Flee	-12.7384
▁Bee	-12.7385
▁oye	-12.7394
▁haka	-12.7396
▁ugu	-12.7401
▁դ	-12.7402
EMA	-12.7409
▁wner	-12.741
▁odu	-12.7413
▁acle	-12.7416
▁NL	-12.7425
AI	-12.743
▁£2	-12.7432
▁uj	-12.7451
▁tudy	-12.7453
CT	-12.7454
▁asca	-12.7455
ite	-12.7458
bul	-12.746
34	-12.7463
▁ssen	-12.7467
0	-12.7474
▁25.	-12.7475
▁rfu	-12.7478
KR	-12.7479
նա	-12.7479
BL	-12.7481
AT	-12.7496
▁fog	-12.7498
▁Kano	-12.7503
▁PT	-12.7504
nne	-12.7513
auna	-12.7518
▁Aid	-12.7519
▁asti	-12.7529
▁Tam	-12.7529
uda	-12.7531
▁aime	-12.7532
inz	-12.7535
▁LSO	-12.7553
ã	-12.7558
14	-12.7559
▁են	-12.7562
▁olony	-12.7563
▁oba	-12.7564
uss	-12.7569
▁SA	-12.7575
▁elm	-12.7581
28	-12.7592
▁stav	-12.7596
▁uide	-12.7597
▁Dyn	-12.7597
▁ritz	-12.7597
85	-12.7598
▁OF	-12.76
▁wax	-12.7605
▁oja	-12.7623
▁estro	-12.7637
▁brox	-12.7638
TF	-12.7651
▁laya	-12.7651
▁Xav	-12.7653
▁nell	-12.7655
▁lans	-12.7663
▁shra	-12.7667
▁SE	-12.7669
bb	-12.7673
▁£3	-12.7678
uk	-12.7688
27	-12.7697
▁TO	-12.7699
▁եր	-12.7699
bal	-12.7699
▁rha	-12.7704
▁83	-12.7708
▁lemm	-12.7709
RET	-12.7715
▁68	-12.7715
▁69	-12.772
▁gin	-12.7724
▁ibi	-12.7725
▁moor	-12.7731
▁fea	-12.7734
▁ynne	-12.7737
▁hind	-12.7742
▁clam	-12.7748
▁IV	-12.7753
▁oki	-12.7754
▁aris	-12.7764
▁rlin	-12.7765
▁ikh	-12.7769
▁tria	-12.7778
neu	-12.7781
▁AF	-12.7787
▁Mom	-12.7794
AL	-12.7807
26	-12.7816
▁78	-12.783
reat	-12.7872
HO	-12.7875
▁naive	-12.788
▁DUP	-12.788
▁vaga	-12.7885
umm	-12.7887
▁£20	-12.7896
rah	-12.7899
▁pus	-12.7911
▁lug	-12.7913
▁wyne	-12.7915
▁ս	-12.7921
▁onta	-12.7927
▁NY	-12.7939
▁yme	-12.7949
▁ISS	-12.7952
▁hale	-12.7955
▁Ple	-12.7959
▁xa	-12.7963
▁այ	-12.7968
▁110	-12.797
▁atum	-12.7981
▁crib	-12.7991
SL	-12.7995
▁SO	-12.8008
▁Leo	-12.8017
▁86	-12.8022
▁xe	-12.8026
▁urie	-12.8039
▁hona	-12.8045
▁eone	-12.8047
▁jab	-12.805
BN	-12.805
▁ogey	-12.8054
▁eeb	-12.8055
▁azza	-12.8065
ju	-12.8067
▁82	-12.808
▁HELO	-12.808
▁assey	-12.8086
▁uja	-12.8087
cus	-12.8088
▁93	-12.8094
▁hoir	-12.8101
▁PTS	-12.8104
▁Oz	-12.8108
▁ezo	-12.8113
▁aino	-12.8127
▁USS	-12.8129
TV	-12.813
կա	-12.8133
29	-12.8135
▁elet	-12.8156
▁ներ	-12.8158
▁arjo	-12.8161
ä	-12.8162
▁JJ	-12.8163
▁IQ	-12.8184
▁Gus	-12.8185
niff	-12.8191
▁հետ	-12.8193
▁BBQ	-12.8193
▁ktok	-12.8195
habh	-12.8197
▁yw	-12.8199
▁8%	-12.8202
ika	-12.8202
▁Gut	-12.8204
▁ulso	-12.8208
▁lava	-12.8212
▁tang	-12.8213
▁maj	-12.8213
▁tham	-12.8214
OW	-12.8214
EAL	-12.8215
ark	-12.8216
▁rtho	-12.8218
▁trom	-12.8219
▁wig	-12.822
BER	-12.822
yatt	-12.8224
IN	-12.8228
▁ETFs	-12.8236
▁wain	-12.824
▁sthma	-12.8242
▁2:	-12.8263
▁vsk	-12.8264
▁aji	-12.8265
RP	-12.8265
VA	-12.827
LC	-12.8273
▁ergi	-12.8277
BR	-12.8282
▁akh	-12.8285
▁ubic	-12.8291
▁atz	-12.8292
▁stove	-12.8296
LO	-12.83
oza	-12.8301
▁lias	-12.8301
01	-12.8321
▁acha	-12.8323
anna	-12.8338
▁azar	-12.8345
▁lun	-12.8349
▁ERS	-12.8351
dka	-12.8352
▁ssey	-12.8353
▁pond	-12.8357
▁fir	-12.8358
39	-12.8364
▁HR	-12.837
▁eane	-12.8379
▁tish	-12.8386
▁emov	-12.8386
▁elu	-12.8387
▁etai	-12.8396
▁92	-12.8399
▁ntes	-12.8404
▁lisa	-12.8415
yan	-12.8419
▁nfo	-12.8423
▁ACC	-12.8434
▁gum	-12.8444
HA	-12.8444
▁nyl	-12.8464
▁Hur	-12.8467
MI	-12.8474
▁SPF	-12.8475
UI	-12.848
▁alsa	-12.8485
."	-12.8486
fec	-12.8491
OT	-12.8498
LM	-12.8499
EP	-12.8502
▁toxi	-12.8503
▁Kno	-12.8525
	-12.8527
▁Cham	-12.8527
▁isbon	-12.8529
33	-12.8531
EU	-12.8533
▁graz	-12.8535
▁echo	-12.8541
▁eña	-12.8546
▁shir	-12.8546
▁eega	-12.855
▁dles	-12.855
▁amic	-12.8555
▁CHR	-12.856
▁croft	-12.8571
▁101	-12.8574
▁arun	-12.8575
▁NYC	-12.8575
▁llot	-12.8578
▁ollen	-12.8579
▁yst	-12.858
▁zuk	-12.8581
▁WAT	-12.8582
▁ssy	-12.8582
▁xpo	-12.8587
▁SIM	-12.8592
▁Hyu	-12.8592
▁hord	-12.8595
▁LP	-12.8603
56	-12.861
▁skat	-12.8614
DO	-12.8617
MEN	-12.862
▁26.	-12.8624
▁ancho	-12.8624
▁tche	-12.8628
MR	-12.8629
▁5-0	-12.864
▁lyde	-12.8645
▁cers	-12.8656
▁tani	-12.8657
▁wadi	-12.8661
▁HQ	-12.8666
▁dall	-12.8683
AW	-12.8683
ymru	-12.8689
▁CAA	-12.8691
▁rida	-12.8696
▁astry	-12.8713
▁cep	-12.8717
▁gus	-12.8718
▁VI	-12.8718
▁kart	-12.8731
▁91	-12.875
▁98	-12.8755
yfa	-12.8756
եր	-12.8776
▁ncho	-12.8783
մբ	-12.8791
dar	-12.8792
YD	-12.8793
▁iko	-12.8796
▁udha	-12.8797
▁glid	-12.8798
▁QB	-12.8805
▁gya	-12.8806
▁NER	-12.8813
▁raj	-12.8814
▁IPO	-12.8821
▁rode	-12.8822
▁ր	-12.8825
yke	-12.8827
nick	-12.8834
▁roma	-12.8835
▁uss	-12.8846
▁dren	-12.8853
▁dges	-12.8857
mar	-12.8862
▁մի	-12.8868
rá	-12.8871
ć	-12.8871
▁ngkok	-12.8871
▁udo	-12.8872
▁kal	-12.8877
▁ttor	-12.8877
▁LOVE	-12.8878
▁OLED	-12.8878
▁ronx	-12.888
▁Cle	-12.888
▁HERE	-12.8881
▁zor	-12.8882
▁uven	-12.8889
▁£50	-12.889
▁shek	-12.8892
▁ido	-12.8906
▁nji	-12.891
AD	-12.8919
32	-12.8922
▁shpa	-12.8923
▁aram	-12.8924
▁rgyl	-12.8937
▁iper	-12.894
▁onfi	-12.8946
▁CV	-12.8947
▁oder	-12.8957
ham	-12.8985
▁berg	-12.8992
▁ANI	-12.9003
▁oos	-12.9006
են	-12.9007
▁kron	-12.9013
▁bay	-12.9027
▁poi	-12.9044
▁նի	-12.9052
▁attl	-12.9056
uff	-12.9058
▁trek	-12.9065
▁hora	-12.9065
▁IF	-12.9078
ship	-12.9097
▁EM	-12.911
▁mage	-12.9115
IC	-12.9116
BF	-12.9117
▁hog	-12.9119
▁uad	-12.9124
▁darl	-12.9124
je	-12.9129
dhu	-12.9166
43	-12.9168
▁gge	-12.9173
▁պա	-12.9181
Be	-12.9183
RIS	-12.9185
▁Yes	-12.9188
AVE	-12.919
▁dine	-12.9202
▁fury	-12.9208
▁ANG	-12.9211
GI	-12.9221
▁Gaz	-12.9227
▁ման	-12.923
SA	-12.9232
HC	-12.9234
▁angi	-12.9237
CJ	-12.9238
hold	-12.9241
▁mran	-12.9245
▁6-3	-12.925
▁Box	-12.9258
▁88	-12.9262
FAS	-12.9263
SI	-12.9265
FP	-12.9269
▁urle	-12.9281
▁Hub	-12.9284
FA	-12.9285
▁96	-12.9288
21	-12.9288
▁CT	-12.9303
▁assie	-12.9334
▁ival	-12.9341
▁opo	-12.9351
▁renc	-12.9375
▁fend	-12.9378
▁Bhu	-12.9378
▁CR	-12.9388
▁anci	-12.9391
▁rong	-12.9392
▁$6	-12.9393
▁Ras	-12.9402
rum	-12.9416
▁arno	-12.9425
▁yte	-12.943
▁erz	-12.9432
▁ucia	-12.9433
▁ntyre	-12.945
mon	-12.9455
▁aja	-12.9456
▁tma	-12.9457
▁noop	-12.9458
▁bett	-12.9458
fr	-12.9463
iq	-12.9465
▁rsha	-12.9474
▁ձ	-12.9479
▁DP	-12.9492
▁peg	-12.9515
IE	-12.9522
մա	-12.9546
▁ilin	-12.9557
▁ukon	-12.9563
▁snia	-12.9564
ö	-12.958
YU	-12.9595
▁ETTY	-12.9599
▁Knox	-12.9602
▁aunch	-12.9603
▁PRES	-12.9603
▁ngola	-12.9609
▁TERS	-12.9613
▁riter	-12.9624
hore	-12.9628
▁elch	-12.9629
▁SC	-12.9637
▁cnic	-12.9638
▁khi	-12.9646
▁Desp	-12.9649
rud	-12.9652
▁xx	-12.967
MK	-12.9684
GP	-12.969
▁mnes	-12.9692
▁atwi	-12.9698
▁27.	-12.9701
▁pig	-12.9702
MT	-12.9702
▁վել	-12.9714
▁yah	-12.9722
▁BP	-12.9722
▁alam	-12.9723
▁ե	-12.9736
▁IL	-12.9746
▁AB	-12.9752
▁22.	-12.9759
▁alis	-12.9762
▁yndi	-12.978
ON	-12.9796
▁sho	-12.9797
▁utti	-12.9803
▁erje	-12.981
▁irk	-12.9821
▁aws	-12.9827
▁ulin	-12.9829
▁kam	-12.9835
▁ntha	-12.9841
▁mmi	-12.9846
▁EA	-12.9852
oulo	-12.9864
07	-12.9875
CE	-12.988
չ	-12.9888
went	-12.9901
fri	-12.9918
▁lums	-12.9919
▁pita	-12.9919
bot	-12.9921
▁tomb	-12.9931
▁raf	-12.9951
MZ	-12.9957
▁rbit	-12.9963
▁MMA	-12.9968
‐	-12.9984
▁ssie	-12.9985
▁kshi	-12.9987
▁GMB	-12.9992
▁£30	-12.9997
▁euvr	-12.9999
▁lman	-13.0001
48	-13.0008
ón	-13.0014
gu	-13.0015
▁oung	-13.0019
▁Kay	-13.002
▁lmi	-13.0021
▁tw	-13.0021
▁louse	-13.0026
▁AK	-13.0026
▁afar	-13.0027
▁zo	-13.003
▁Doha	-13.0034
DU	-13.0035
▁mney	-13.0039
▁wser	-13.0039
ull	-13.0047
VD	-13.0047
05	-13.0052
ée	-13.0053
▁goat	-13.0054
▁urin	-13.006
UT	-13.0063
ndo	-13.0072
IF	-13.0072
▁vez	-13.0092
▁79	-13.0093
▁ehle	-13.0097
▁Troo	-13.0106
44	-13.0112
▁ssis	-13.0117
El	-13.0121
▁etri	-13.0122
FS	-13.013
▁RG	-13.0134
▁eca	-13.014
OM	-13.0149
raj	-13.016
YS	-13.0164
SR	-13.0176
▁ETF	-13.0176
▁89	-13.018
adi	-13.0181
▁drap	-13.0194
mu	-13.0204
utz	-13.0214
NL	-13.0215
▁ái	-13.0216
▁nsk	-13.0216
▁treb	-13.0221
nzo	-13.0222
87	-13.0225
▁Gas	-13.0233
▁FM	-13.0243
▁AM	-13.0264
nda	-13.03
78	-13.0306
▁orni	-13.0309
▁Tee	-13.0313
gone	-13.0331
09	-13.0334
▁ryce	-13.0342
▁PB	-13.0361
▁hati	-13.0362
▁AU	-13.0371
77	-13.0373
▁nox	-13.0377
ը	-13.038
å	-13.0381
▁ME	-13.0382
▁	-13.0384
▁hake	-13.0384
SM	-13.0385
▁rza	-13.0386
▁eod	-13.0386
plac	-13.0386
▁wobb	-13.0386
▁$15	-13.0391
▁snip	-13.0392
▁MAN	-13.0392
▁yna	-13.0396
PAC	-13.0408
▁rok	-13.0409
▁LLC	-13.0409
▁4-2	-13.0413
-7	-13.0417
▁VW	-13.0418
▁kan	-13.042
EE	-13.0424
▁lama	-13.0425
▁lick	-13.0427
▁NEWS	-13.0429
▁ucou	-13.0431
▁NTA	-13.0434
▁zar	-13.0439
▁dys	-13.0443
▁kic	-13.0443
▁huk	-13.0448
▁aleh	-13.045
▁egu	-13.0451
km	-13.0462
▁ariu	-13.0467
▁mod	-13.0488
TM	-13.0499
TO	-13.0509
▁tefa	-13.0519
▁iah	-13.0525
▁ո	-13.0525
▁Yog	-13.0533
▁IVE	-13.0534
▁նա	-13.0535
▁rtí	-13.0545
▁ստա	-13.0546
▁vow	-13.0547
all	-13.0558
▁mho	-13.0562
▁hama	-13.057
▁mop	-13.0583
zan	-13.0591
▁NH	-13.0592
CK	-13.0597
31	-13.0597
BD	-13.0605
▁rso	-13.0613
▁asso	-13.0614
▁riam	-13.0623
▁shov	-13.0625
▁rowth	-13.063
▁nad	-13.0631
▁zra	-13.0634
▁pio	-13.0635
▁Yve	-13.0637
▁ծ	-13.0662
▁lesh	-13.067
▁CP	-13.0677
▁1/	-13.0683
▁buse	-13.069
▁vani	-13.0704
▁VR	-13.0705
IT	-13.072
▁HP	-13.0722
▁agnu	-13.0722
▁aph	-13.0729
▁GC	-13.0733
▁7-	-13.0735
▁ashi	-13.0742
▁PO	-13.0747
▁ngra	-13.0751
EM	-13.0759
▁UV	-13.0761
▁scha	-13.0769
▁Dj	-13.0776
▁artn	-13.0786
▁EST	-13.0794
▁khar	-13.0795
ilb	-13.0804
▁surg	-13.0807
▁ú	-13.081
▁anju	-13.0835
MER	-13.0836
ILL	-13.0836
▁lima	-13.085
▁chuk	-13.0851
TR	-13.0855
▁blic	-13.0861
▁zip	-13.0862
▁11%	-13.087
63	-13.0872
▁IRG	-13.0882
▁Gos	-13.0886
▁hees	-13.0891
բ	-13.0895
▁Tyre	-13.0897
▁CSE	-13.0899
▁ques	-13.09
/2	-13.0901
▁lang	-13.0902
▁AA	-13.0903
CU	-13.0903
▁ttis	-13.0911
▁raine	-13.092
CG	-13.0929
▁AG	-13.0934
▁osse	-13.0937
▁oac	-13.0938
▁aggy	-13.0939
▁lpin	-13.0941
▁arin	-13.0941
▁lkar	-13.0944
▁inks	-13.0952
▁obey	-13.0953
tti	-13.0958
89	-13.0968
դ	-13.0968
▁ESC	-13.0972
▁ldon	-13.0972
▁nah	-13.0973
▁BAF	-13.0979
▁lgar	-13.0982
▁orga	-13.0983
▁glar	-13.0992
▁nush	-13.0993
SN	-13.0996
La	-13.1018
▁glue	-13.1018
gli	-13.1023
PV	-13.1031
OO	-13.1038
47	-13.1053
▁undo	-13.1066
▁lom	-13.1067
08	-13.1071
▁bah	-13.1078
▁lved	-13.1102
▁malf	-13.111
mine	-13.1125
lica	-13.1134
▁Say	-13.1135
▁arko	-13.1141
RR	-13.1143
UN	-13.1155
▁rost	-13.1163
▁ajo	-13.1163
▁mull	-13.1165
mond	-13.1167
▁dhi	-13.1169
ղ	-13.117
joy	-13.117
▁xio	-13.1172
▁grap	-13.118
▁rmag	-13.1182
▁ntz	-13.1185
DE	-13.1196
▁rde	-13.1198
vag	-13.1208
EF	-13.1216
▁demi	-13.1218
▁auc	-13.122
▁թ	-13.122
shki	-13.1224
▁MBE	-13.1231
▁inja	-13.1233
▁octo	-13.1234
▁վոր	-13.1235
74	-13.1236
▁EEK	-13.1237
▁ող	-13.1238
▁cum	-13.1238
▁aliba	-13.124
▁gluc	-13.1243
93	-13.1246
▁ridg	-13.1247
▁lizz	-13.1247
64	-13.1256
▁GPT	-13.1257
BO	-13.1258
▁mirez	-13.1261
▁ssar	-13.1263
▁lvan	-13.1265
▁ayyi	-13.1266
▁ija	-13.1269
▁REU	-13.1273
▁FCC	-13.1275
▁anza	-13.129
▁oyne	-13.1295
▁Tea	-13.1308
▁ehr	-13.1311
▁MJ	-13.132
ID	-13.1321
▁seud	-13.1322
▁elsey	-13.133
▁IMD	-13.1332
▁brat	-13.1338
▁94	-13.1341
▁uzz	-13.1342
OUR	-13.1346
▁logn	-13.135
nton	-13.1356
▁está	-13.1358
▁ilar	-13.1364
▁glaz	-13.1377
OND	-13.1378
▁osk	-13.1385
▁EN	-13.1392
58	-13.1399
▁Kai	-13.1407
▁mite	-13.1417
▁halv	-13.1417
▁eagu	-13.1424
LD	-13.1427
▁izzi	-13.1428
▁LG	-13.143
▁JB	-13.1437
TE	-13.144
▁Job	-13.1448
▁gw	-13.1454
▁առ	-13.1457
▁Ն	-13.1462
▁oret	-13.1465
▁հա	-13.1468
▁liss	-13.1477
RW	-13.1479
▁eals	-13.148
▁velt	-13.1486
zo	-13.1495
▁ltar	-13.1502
▁87	-13.1516
▁fani	-13.1519
NCE	-13.152
yah	-13.1523
▁mish	-13.1524
lug	-13.1532
▁igm	-13.1536
▁ան	-13.156
▁Ա	-13.1568
67	-13.1579
▁yam	-13.1593
▁abre	-13.1598
▁zad	-13.1613
▁lara	-13.1618
▁enza	-13.1624
▁bba	-13.1624
▁NO	-13.1628
▁ño	-13.1637
▁$4	-13.1639
▁akar	-13.1649
▁avag	-13.1649
▁Մ	-13.1651
▁Isa	-13.1651
RH	-13.1654
▁alta	-13.1663
lé	-13.1665
▁gina	-13.1677
LES	-13.1681
PN	-13.1683
Ն	-13.1686
▁ISRO	-13.169
FI	-13.169
▁ambi	-13.1691
▁UPF	-13.1694
▁TACM	-13.1695
▁1⁄	-13.1695
▁OTT	-13.1696
▁ayes	-13.1698
▁ecto	-13.1704
HAT	-13.1704
▁6-4	-13.1705
▁yeast	-13.171
▁Ange	-13.171
▁kni	-13.1713
qa	-13.1729
▁tach	-13.173
▁37%	-13.1732
▁ndro	-13.1732
▁CPR	-13.1733
▁NTS	-13.1733
▁TB	-13.1734
▁AMD	-13.1735
ode	-13.1744
▁յան	-13.175
▁115	-13.1756
▁STV	-13.1759
ayo	-13.1762
LP	-13.1762
▁12%	-13.1763
▁KL	-13.1772
▁APC	-13.179
▁tsw	-13.1806
▁bov	-13.1811
▁idal	-13.1813
53	-13.1817
▁ONE	-13.1839
▁suf	-13.1842
▁rabh	-13.1847
▁ynes	-13.1847
42	-13.1852
▁agan	-13.1854
▁dkar	-13.1857
MD	-13.186
▁uku	-13.1863
▁£4	-13.1869
▁NWS	-13.1873
▁VER	-13.1894
▁eech	-13.19
▁pham	-13.1911
▁etra	-13.1911
▁ppro	-13.1912
HT	-13.1924
▁nfe	-13.1929
▁eact	-13.193
▁atla	-13.1931
TB	-13.194
▁cest	-13.1956
iah	-13.1959
die	-13.1961
UP	-13.1973
▁unus	-13.1975
GC	-13.1984
ARS	-13.2009
▁elma	-13.2013
▁ATE	-13.2019
▁CBD	-13.202
▁AS	-13.2039
▁rafa	-13.2042
▁nett	-13.2047
CI	-13.2053
▁bok	-13.207
▁IC	-13.2073
VS	-13.208
▁lumb	-13.2081
▁olg	-13.2082
▁Meg	-13.2088
▁ña	-13.2092
▁levi	-13.2106
ACK	-13.2108
▁OL	-13.2108
▁EY	-13.211
▁yana	-13.2115
Մ	-13.2117
▁inny	-13.2128
▁dwa	-13.2128
ակ	-13.2131
▁2)	-13.2136
▁yev	-13.214
▁eale	-13.2159
cho	-13.2166
	-13.2166
▁pzig	-13.2166
▁2.0	-13.2166
▁Temu	-13.2166
▁wydd	-13.2167
▁hrub	-13.2167
▁rragh	-13.2168
▁ryna	-13.2169
▁gyn	-13.2181
▁graft	-13.2187
▁6-2	-13.2188
▁jol	-13.2189
▁rins	-13.2191
▁oko	-13.2193
▁ogg	-13.2199
▁FIA	-13.2199
▁BMI	-13.2202
▁zam	-13.2204
▁իր	-13.2205
▁meric	-13.2206
▁Row	-13.2211
▁190	-13.2213
▁IIT	-13.2213
▁ondu	-13.2214
▁SoC	-13.222
▁Rod	-13.222
▁360	-13.2221
▁rael	-13.2228
ASS	-13.2231
▁yli	-13.2231
▁aois	-13.2231
▁uva	-13.2233
▁nata	-13.2233
▁lunk	-13.2243
▁igo	-13.2245
▁Mel	-13.2247
▁Gan	-13.225
bek	-13.2254
▁rph	-13.2258
▁IPC	-13.2263
▁arza	-13.2263
66	-13.2266
▁urma	-13.2267
▁ondo	-13.2271
▁slav	-13.2271
▁veg	-13.2283
▁epo	-13.2284
net	-13.2286
▁rdy	-13.2288
▁yps	-13.2289
▁IM	-13.229
MH	-13.2293
▁itte	-13.2298
▁evie	-13.2303
▁OPS	-13.2316
▁ntom	-13.2316
▁leni	-13.2316
▁wali	-13.2317
▁kne	-13.2317
lej	-13.2318
▁SAS	-13.2318
82	-13.2323
▁phon	-13.2325
▁Zha	-13.2332
▁xen	-13.2334
▁hafi	-13.2335
dah	-13.2338
▁Tur	-13.234
AG	-13.2341
▁lkan	-13.2345
▁olk	-13.2346
▁oC	-13.2351
▁sync	-13.2355
ord	-13.2357
▁60.	-13.236
▁AZ	-13.2362
▁hosh	-13.2362
▁FOR	-13.237
ես	-13.2371
▁ér	-13.239
▁lust	-13.2406
▁yak	-13.2411
▁WE	-13.2413
▁ré	-13.242
▁roja	-13.2428
uch	-13.2442
▁ár	-13.2444
▁յու	-13.2454
ké	-13.2454
▁azir	-13.2462
▁njar	-13.2463
ING	-13.2466
▁ԱՐ	-13.2472
hail	-13.2473
▁EP	-13.2483
▁nadi	-13.2488
WSL	-13.2495
ME	-13.2496
▁tida	-13.2504
▁enet	-13.2516
▁Tap	-13.2519
EO	-13.2523
▁oals	-13.2543
▁runt	-13.2549
hw	-13.2554
▁idle	-13.2565
59	-13.2568
▁rina	-13.2578
▁olm	-13.2579
min	-13.2581
▁CMA	-13.2586
▁fray	-13.2587
▁shwa	-13.26
RB	-13.261
uz	-13.2613
aya	-13.2623
▁anji	-13.2626
▁(1	-13.2643
▁ledge	-13.2649
▁eefe	-13.2657
▁DO	-13.266
▁hus	-13.2661
▁ncha	-13.2664
ogha	-13.2665
▁NOAA	-13.2666
▁zhny	-13.2666
▁️	-13.2666
▁eget	-13.2667
▁Cul	-13.2668
▁Yatra	-13.2669
▁aría	-13.2671
մ	-13.2672
▁ված	-13.2673
▁awaz	-13.2673
▁GPU	-13.2674
SPCA	-13.2675
▁kim	-13.2677
▁GW	-13.2679
car	-13.2679
TON	-13.2683
ADA	-13.2686
▁OBE	-13.2686
▁gbo	-13.2696
▁redu	-13.2696
▁RO	-13.2705
▁CFP	-13.2706
▁lian	-13.2714
▁hrunk	-13.2716
▁horn	-13.2717
▁alvo	-13.2723
▁CL	-13.2725
▁rall	-13.2725
WA	-13.2727
▁osc	-13.2727
▁rigg	-13.2732
▁oak	-13.2738
EX	-13.2739
▁lani	-13.2743
▁MV	-13.2749
▁tink	-13.276
▁յ	-13.2761
PEC	-13.2763
PFL	-13.2785
▁rind	-13.2785
▁ausa	-13.2788
▁mund	-13.2804
pri	-13.2805
▁CDs	-13.2813
ICE	-13.2815
khar	-13.2821
ï	-13.2826
▁MK	-13.283
▁Sat	-13.2831
HER	-13.2838
▁SEN	-13.2842
▁ssues	-13.2851
54	-13.2851
▁arda	-13.2851
68	-13.2851
▁Zac	-13.2855
▁scri	-13.2855
▁llows	-13.286
▁oho	-13.2866
▁musc	-13.2872
▁nva	-13.2873
գա	-13.2877
▁SB	-13.2883
dha	-13.2892
▁WAS	-13.2901
▁etz	-13.2903
▁RE	-13.2905
rank	-13.2907
▁dru	-13.2908
▁dell	-13.2925
▁ogu	-13.2935
▁abie	-13.2937
▁llic	-13.2953
▁Ար	-13.2956
▁vena	-13.2963
▁ngar	-13.2966
▁guts	-13.2968
key	-13.298
▁TT	-13.2984
▁thom	-13.2985
▁maha	-13.2998
▁nelm	-13.3022
▁QR	-13.3031
▁itta	-13.3052
▁lsen	-13.3066
▁ebbl	-13.3072
▁nze	-13.3075
▁adg	-13.3076
TH	-13.3085
▁SME	-13.3097
▁rphi	-13.3113
omo	-13.3119
TL	-13.3137
▁luti	-13.3141
▁dera	-13.3142
88	-13.3144
▁aus	-13.3147
▁giga	-13.3147
▁DR	-13.3149
▁alem	-13.3152
▁acie	-13.3165
WO	-13.3174
▁yba	-13.3176
MM	-13.3177
▁laga	-13.3179
sby	-13.3183
arni	-13.3184
ida	-13.3186
mus	-13.319
▁′′	-13.3192
▁aheem	-13.3192
▁նց	-13.3193
▁kWh	-13.3193
▁Hydr	-13.3195
▁utte	-13.3202
▁$25	-13.3207
▁mun	-13.3208
▁ց	-13.3213
▁REX	-13.3214
▁verb	-13.3216
▁Hydro	-13.3216
▁udes	-13.3219
▁loch	-13.3227
▁NCA	-13.323
▁sapp	-13.3236
▁hodd	-13.3237
▁INE	-13.3238
▁Russ	-13.3239
▁rsley	-13.324
EST	-13.3241
▁WAG	-13.3243
bah	-13.3246
▁nanc	-13.3247
▁ssor	-13.325
▁wank	-13.3251
NO	-13.3253
▁ceit	-13.326
▁yash	-13.3263
▁usal	-13.3269
▁gado	-13.3275
▁harf	-13.3276
▁rnam	-13.3284
▁dhar	-13.3289
▁usca	-13.329
▁16%	-13.3292
▁նել	-13.3292
▁jan	-13.3294
ERS	-13.3301
▁LSE	-13.3306
▁urz	-13.331
▁tifi	-13.3314
▁trot	-13.3314
CN	-13.3319
▁FX	-13.3319
▁erzo	-13.3321
▁KO	-13.3325
zak	-13.3329
▁agra	-13.3331
▁renas	-13.3332
ERY	-13.3335
▁hune	-13.3338
49	-13.334
▁35.	-13.334
▁ahir	-13.3341
▁moun	-13.335
CL	-13.3368
36	-13.3383
▁nerd	-13.3389
▁ANT	-13.3418
▁Pub	-13.342
▁dram	-13.3422
TER	-13.3427
▁yra	-13.3428
▁IR	-13.3431
▁ORT	-13.3445
▁hatt	-13.3447
▁$9	-13.3449
cula	-13.3463
▁hik	-13.3468
anza	-13.3469
lami	-13.3476
▁esli	-13.348
▁Tide	-13.348
▁rbon	-13.3486
▁4"	-13.3487
▁դա	-13.3492
▁IX	-13.3494
▁fav	-13.3509
▁IE	-13.3514
▁nara	-13.3516
DD	-13.352
▁limo	-13.3522
▁kba	-13.3526
shi	-13.3533
▁amba	-13.3538
▁ushi	-13.354
▁eger	-13.3551
▁kah	-13.3557
▁nois	-13.3562
hmo	-13.3562
▁ö	-13.3562
ova	-13.3566
▁bask	-13.3575
▁ubin	-13.3577
▁IND	-13.3578
off	-13.3601
▁ahal	-13.3607
Rs	-13.3616
▁roj	-13.3618
BT	-13.3623
zur	-13.3624
▁JP	-13.3626
▁AST	-13.3627
▁ntis	-13.3629
lum	-13.363
▁Trek	-13.3637
▁Հ	-13.3638
▁50.	-13.3648
▁ndri	-13.365
▁rsk	-13.365
▁RES	-13.365
▁onsu	-13.3657
▁otro	-13.3677
▁քա	-13.3677
ար	-13.3678
AB	-13.3682
▁ikit	-13.3683
▁DE	-13.3688
▁titl	-13.3695
bit	-13.3708
UD	-13.3709
▁baka	-13.3713
hta	-13.3714
▁KP	-13.3715
▁ssou	-13.372
▁NJ	-13.372
▁NAT	-13.3723
▁VC	-13.3724
wan	-13.3728
▁onna	-13.3733
yz	-13.3741
`	-13.3748
	-13.3748
▁XCX	-13.3748
▁շխա	-13.3748
▁★	-13.3748
♦	-13.3748
▁AIIMS	-13.3748
▁gid	-13.3749
▁LAFC	-13.3749
▁kro	-13.375
ltz	-13.3755
▁lyz	-13.3763
▁crow	-13.3765
▁NOW	-13.3768
HP	-13.3769
▁irgi	-13.377
hvi	-13.3775
▁MOT	-13.3777
▁iño	-13.3779
▁ACL	-13.3781
▁addo	-13.3781
▁è	-13.3787
▁RAC	-13.3789
▁Zh	-13.3793
▁ynic	-13.3796
▁ltz	-13.3798
▁ulsi	-13.38
▁MD	-13.3806
▁NZ	-13.3807
KS	-13.3809
▁uga	-13.3811
▁ños	-13.3812
nia	-13.3813
▁dju	-13.3819
▁OT	-13.382
▁rfa	-13.3823
AH	-13.3824
▁epea	-13.3826
▁RR	-13.3828
▁loma	-13.3833
▁ցի	-13.3836
46	-13.3839
▁Kala	-13.3846
▁NSC	-13.3853
▁zov	-13.386
▁NS	-13.3862
▁humm	-13.3865
▁LGA	-13.3884
▁Bol	-13.3885
▁22%	-13.3886
▁nslet	-13.389
ILE	-13.3891
▁ddo	-13.3894
▁lbo	-13.3897
▁Kul	-13.3901
▁SUVs	-13.3903
RG	-13.3905
▁gyda	-13.3905
▁1)	-13.3913
▁eene	-13.3937
▁lox	-13.3939
▁$7	-13.3952
▁hred	-13.3953
▁Lad	-13.3962
▁ACT	-13.3972
▁pens	-13.3976
▁260	-13.3981
▁lba	-13.3984
▁kaz	-13.3985
▁sele	-13.399
▁elley	-13.3991
▁lemn	-13.4005
▁sama	-13.4006
▁osin	-13.4012
▁enri	-13.4013
▁lley	-13.4016
▁hack	-13.4018
▁éli	-13.4028
▁IPP	-13.403
▁ü	-13.4032
hru	-13.4036
BM	-13.4039
▁anja	-13.4042
▁TH	-13.4042
▁spik	-13.405
▁llop	-13.4054
CLU	-13.4058
▁ayan	-13.4063
▁PSR	-13.4077
▁HE	-13.4078
▁egl	-13.4134
▁ursi	-13.4135
▁chev	-13.4146
DM	-13.4155
▁lut	-13.4162
gwa	-13.4165
jiv	-13.4173
ulk	-13.4187
▁tarm	-13.4188
▁té	-13.4205
▁ծա	-13.4206
▁mary	-13.4221
ssa	-13.4227
▁#2	-13.4229
▁ango	-13.4235
TRA	-13.4239
▁WR	-13.4246
▁ooz	-13.425
▁nik	-13.4252
▁vlo	-13.4252
for	-13.4255
▁HAM	-13.4266
76	-13.4273
Ա	-13.4277
▁HO	-13.4278
▁kna	-13.4281
▁uft	-13.4292
ín	-13.4305
▁eele	-13.4308
▁րա	-13.4309
▁cour	-13.4316
▁nora	-13.4319
▁tug	-13.4324
▁GO	-13.433
▁harl	-13.433
ո	-13.4331
Վ	-13.4332
Ե	-13.4332
▁incl	-13.4334
▁IGHT	-13.4336
▁agpi	-13.434
▁ranç	-13.4341
▁չ	-13.4342
▁wicz	-13.4343
▁McP	-13.4348
▁ixar	-13.4353
▁cube	-13.4356
▁urtz	-13.4357
▁RSV	-13.4359
▁tien	-13.4361
▁DEA	-13.4361
/1	-13.4362
▁VAN	-13.4364
▁vegg	-13.4365
uvet	-13.4368
▁MCG	-13.4369
amo	-13.4382
SX	-13.4384
▁AKA	-13.4387
▁fig	-13.4388
▁dhaa	-13.4389
PSC	-13.4394
▁erino	-13.4396
▁arx	-13.4398
▁rtak	-13.4404
▁Era	-13.4408
▁Jun	-13.441
▁HMP	-13.4412
▁adri	-13.4413
▁LOS	-13.4416
▁roch	-13.4432
DL	-13.4434
▁deri	-13.4434
▁slee	-13.4435
▁earc	-13.4436
▁18%	-13.4442
▁UI	-13.4443
▁udac	-13.4446
73	-13.4451
▁ozz	-13.4461
wyn	-13.4463
▁Lola	-13.4472
ISS	-13.4473
▁adam	-13.4473
ACA	-13.4474
▁ahel	-13.4484
oste	-13.4497
▁zin	-13.45
▁ydd	-13.4504
▁agre	-13.4508
▁gali	-13.4525
▁GQ	-13.4535
LV	-13.4538
▁cchi	-13.454
IX	-13.456
wal	-13.4578
aff	-13.4578
ող	-13.4602
▁ctur	-13.4605
▁eura	-13.461
▁ncti	-13.4624
ռ	-13.4625
▁EL	-13.4632
▁egro	-13.464
▁վար	-13.4665
▁nash	-13.4666
▁յա	-13.467
▁irch	-13.4671
▁iñ	-13.4689
▁kon	-13.4691
OV	-13.4698
1)	-13.4702
oka	-13.4702
▁akim	-13.4703
▁ehi	-13.471
IB	-13.4716
եց	-13.4718
▁SAN	-13.4721
▁nahi	-13.4748
jan	-13.4749
▁amas	-13.4756
▁grop	-13.4757
▁Kyo	-13.4761
IR	-13.477
▁njan	-13.4773
▁secr	-13.4781
▁ngie	-13.4792
▁lwy	-13.48
▁axe	-13.48
zu	-13.4806
շ	-13.4806
▁arac	-13.4823
▁hypn	-13.4825
▁Kub	-13.4825
HI	-13.4856
▁ել	-13.4867
▁ufa	-13.487
▁3-	-13.4875
▁ANN	-13.4892
mza	-13.4894
VP	-13.4895
▁aza	-13.49
HF	-13.4904
▁nky	-13.4907
▁lphi	-13.4911
▁Vod	-13.4913
▁ylv	-13.4927
▁ucha	-13.493
▁INC	-13.493
▁lora	-13.4933
▁eved	-13.4935
▁lobb	-13.4936
ե	-13.4936
▁ardo	-13.4936
KK	-13.4939
ERE	-13.4942
▁voic	-13.4949
գ	-13.4957
met	-13.4958
▁gall	-13.4959
▁tégé	-13.4961
▁հայ	-13.4961
▁🥇	-13.4961
▁կեր	-13.4961
▁ARTI	-13.4966
▁Usha	-13.4972
▁flag	-13.4974
▁hifa	-13.4983
▁aifa	-13.4988
▁ché	-13.499
ikh	-13.4996
rhol	-13.4997
▁97	-13.501
▁lino	-13.5013
▁kri	-13.5028
▁BT	-13.5034
▁ECO	-13.504
▁ISA	-13.5042
▁OBC	-13.5043
AME	-13.5046
SK	-13.5047
hol	-13.5047
JD	-13.5056
▁PPE	-13.5059
▁ouk	-13.5061
▁1-2	-13.5063
ONS	-13.5067
CNA	-13.5067
▁kwa	-13.5072
▁onka	-13.508
▁ARE	-13.5082
lie	-13.5086
ilda	-13.5089
▁niac	-13.5091
VC	-13.5103
▁glyc	-13.5112
▁germ	-13.5114
TU	-13.5126
▁rasp	-13.5128
▁rca	-13.514
wo	-13.5142
▁OC	-13.5149
▁lazo	-13.5162
▁ICT	-13.5162
▁iyu	-13.5167
▁27%	-13.5173
▁ambo	-13.5177
▁ále	-13.5178
EW	-13.5191
▁jog	-13.5192
▁հ	-13.5213
▁Hype	-13.5225
▁Xu	-13.5234
▁իա	-13.5237
arn	-13.5238
▁eif	-13.5243
▁ojan	-13.5248
▁TM	-13.5253
▁Wyn	-13.5292
▁Gru	-13.53
▁ogo	-13.5306
fel	-13.5308
▁nkit	-13.5315
UR	-13.5321
▁plic	-13.5325
▁SON	-13.5327
▁tard	-13.5329
▁ragh	-13.5333
▁eym	-13.5341
▁IB	-13.535
NF	-13.5357
▁LM	-13.5359
▁schw	-13.5359
▁SU	-13.5359
▁insey	-13.536
GN	-13.5368
tum	-13.5368
AK	-13.5374
▁հար	-13.539
61	-13.5393
▁40.	-13.5395
far	-13.54
զ	-13.5432
▁bho	-13.5443
HIS	-13.5453
wick	-13.5462
▁alva	-13.5469
tell	-13.5472
▁rá	-13.5488
▁arney	-13.5499
▁iva	-13.5501
enz	-13.5508
▁lute	-13.5512
▁Dom	-13.5512
▁vign	-13.5523
▁zmi	-13.5524
kha	-13.5524
▁SEB	-13.5526
▁ndid	-13.5528
▁mé	-13.5532
▁teet	-13.5539
▁eka	-13.5541
PT	-13.5553
▁dwar	-13.5558
▁LAP	-13.5582
▁owle	-13.5583
▁yro	-13.5596
VO	-13.5597
▁TS	-13.5606
▁ENT	-13.5614
dad	-13.5622
պ	-13.5624
IZ	-13.5626
▁rmon	-13.5627
▁համա	-13.5627
ō	-13.5628
▁ODAY	-13.5628
▁NNPC	-13.5628
▁oooo	-13.5629
▁azaar	-13.5629
▁մար	-13.5629
▁urmu	-13.5629
ԵՍ	-13.563
▁Ö	-13.563
▁Cyri	-13.5631
YT	-13.5631
▁gravy	-13.5634
LT	-13.5635
▁cifi	-13.5636
▁oints	-13.5638
57	-13.564
▁frog	-13.5643
▁Grid	-13.5644
▁MND	-13.5645
▁OUT	-13.5646
▁£25	-13.5647
▁XV	-13.5654
▁ezzl	-13.5657
▁igle	-13.5658
▁BHP	-13.5659
hz	-13.5659
1⁄	-13.566
▁ynd	-13.566
▁ylla	-13.5661
▁տեղ	-13.5664
▁rtiz	-13.5665
▁Kali	-13.5668
▁ijja	-13.567
▁duch	-13.5671
▁Das	-13.5672
▁ndora	-13.5674
▁32%	-13.5674
▁ICU	-13.5674
▁51%	-13.5677
▁Una	-13.568
▁naut	-13.5683
EAN	-13.5688
▁ikke	-13.569
ISA	-13.5693
▁OV	-13.5695
▁SAG	-13.5696
▁usp	-13.5696
▁teak	-13.57
▁Von	-13.5703
▁aip	-13.5713
▁6.5	-13.5719
▁Kho	-13.5724
▁lji	-13.5725
▁£8	-13.5727
▁Ի	-13.5731
▁1:	-13.5732
LF	-13.5735
ռա	-13.5739
▁Yas	-13.5753
▁gast	-13.5758
▁OG	-13.5764
sib	-13.5769
▁sakh	-13.5781
▁alma	-13.5782
▁Tip	-13.5786
▁egel	-13.579
ին	-13.5802
▁alid	-13.5807
▁MEA	-13.581
▁aida	-13.5813
ATE	-13.5816
▁BRIT	-13.5819
▁REP	-13.5837
VER	-13.5841
▁né	-13.5847
▁NAA	-13.5854
nest	-13.5856
éri	-13.5856
CY	-13.5863
▁erga	-13.5874
▁luna	-13.5898
▁պար	-13.5903
▁urel	-13.5915
▁FCT	-13.5919
▁nyam	-13.5929
▁#1	-13.5958
▁yj	-13.596
▁mbra	-13.5961
▁CBP	-13.5961
▁rook	-13.5965
▁NAP	-13.5971
▁£7	-13.5978
▁ymn	-13.598
▁lldo	-13.5986
▁haki	-13.5994
▁acin	-13.6
83	-13.6001
▁meld	-13.6019
rica	-13.602
▁arak	-13.6022
▁dah	-13.6022
▁urga	-13.6025
KY	-13.6036
▁rody	-13.604
▁4)	-13.6041
▁warz	-13.6043
▁uko	-13.6047
▁TR	-13.6051
▁plex	-13.6052
Ի	-13.6058
▁gong	-13.6058
jik	-13.6069
TD	-13.6078
veno	-13.6084
▁OE	-13.6095
▁ujo	-13.6096
▁xel	-13.6097
▁mmet	-13.6101
▁MSC	-13.6121
▁ssem	-13.6131
RF	-13.6143
dom	-13.6155
▁yuk	-13.6158
▁TOW	-13.6159
▁lak	-13.6169
GE	-13.6175
▁igb	-13.6177
▁udin	-13.6179
ô	-13.6198
▁lpan	-13.6213
▁OH	-13.6216
▁rze	-13.6216
98	-13.6218
▁ahar	-13.6223
OD	-13.6228
ehy	-13.6229
▁ratt	-13.6238
▁KN	-13.624
▁eez	-13.6244
▁MSF	-13.6248
▁drea	-13.6257
▁elk	-13.627
▁kun	-13.6271
lí	-13.6299
▁INS	-13.63
▁PBS	-13.6303
MX	-13.6306
▁SIT	-13.6315
94	-13.6316
▁mbre	-13.6323
▁mesh	-13.6326
▁natic	-13.6327
▁ddin	-13.6332
▁OJ	-13.6338
ՊՐ	-13.634
▁magn	-13.6341
▁TIME	-13.6342
▁մասին	-13.6342
▁հաղ	-13.6342
▁Բ	-13.6342
▁(2)	-13.6342
▁ukwu	-13.6342
▁elrod	-13.6342
▁Ս	-13.6343
▁nibb	-13.6343
▁Կ	-13.6344
▁iobh	-13.6345
▁YSR	-13.6346
▁iddh	-13.6349
rtz	-13.635
▁ewitt	-13.6354
▁CGT	-13.6358
PG	-13.6361
FIL	-13.6362
OLED	-13.6364
▁WILL	-13.6365
▁UNC	-13.6368
▁CFM	-13.6368
▁INR	-13.637
▁huja	-13.6371
▁TER	-13.6374
▁ixie	-13.6379
▁գր	-13.6386
▁GAA	-13.6392
▁oire	-13.641
▁vlin	-13.641
ahu	-13.6416
▁eise	-13.6423
▁iru	-13.6424
▁Tü	-13.6425
62	-13.643
▁hynn	-13.6432
▁42.	-13.6437
▁hevy	-13.6438
▁zob	-13.6439
▁rcan	-13.6439
71	-13.6444
▁dum	-13.6446
ggy	-13.6448
▁ibet	-13.6448
▁ynec	-13.6452
▁Ole	-13.6457
▁raja	-13.6461
▁NLC	-13.6463
▁eela	-13.6469
BB	-13.6472
▁leps	-13.6475
JP	-13.6477
vez	-13.6478
ատ	-13.6481
▁hyal	-13.6482
▁MIT	-13.6483
▁ø	-13.6484
▁112	-13.6491
▁Lil	-13.6492
▁auli	-13.6492
FT	-13.6496
TSA	-13.6512
▁ahr	-13.6516
նչ	-13.6517
LK	-13.6519
▁EX	-13.652
▁PLA	-13.6524
▁giar	-13.653
▁Apr	-13.6532
▁mú	-13.6534
▁HIP	-13.6536
▁Krav	-13.6544
▁rhan	-13.6552
97	-13.6553
AST	-13.6566
▁awke	-13.6572
▁Tej	-13.6574
▁LEG	-13.6583
itz	-13.661
▁NIA	-13.6612
▁մա	-13.6617
▁$8	-13.6627
▁PET	-13.6633
VM	-13.6638
▁ndre	-13.6655
▁erio	-13.6655
sid	-13.6655
OY	-13.6671
▁NG	-13.6672
▁haja	-13.6674
▁angh	-13.6678
▁dhes	-13.668
▁Kla	-13.6696
▁hyn	-13.6719
DMA	-13.6752
▁yren	-13.6766
oll	-13.6766
▁apri	-13.677
PH	-13.6776
▁hool	-13.6784
▁hyd	-13.6788
72	-13.6798
▁vara	-13.6801
▁ttar	-13.6804
▁BNP	-13.6816
▁lbs	-13.6826
▁Wri	-13.6829
▁DHS	-13.6831
▁adha	-13.6848
yuk	-13.685
EY	-13.6853
▁Hut	-13.6866
▁ggie	-13.6868
▁vall	-13.6868
79	-13.6888
▁DB	-13.6891
▁scoe	-13.691
▁Him	-13.6912
▁ակ	-13.6926
▁obl	-13.6929
▁WH	-13.6943
▁3:	-13.6948
▁riso	-13.6967
▁zee	-13.6987
▁EID	-13.6992
▁leur	-13.7
▁FL	-13.701
▁Zum	-13.702
▁stok	-13.7027
▁ntho	-13.7027
wl	-13.7031
▁qb	-13.7043
ysph	-13.7064
91	-13.7067
▁ragg	-13.707
FM	-13.7073
▁OB	-13.7076
▁laney	-13.7081
▁Acco	-13.7092
oph	-13.7106
մեն	-13.7107
ux	-13.7109
▁❤	-13.7111
▁szlai	-13.7111
▁Հայա	-13.7111
րես	-13.7111
▁SEPT	-13.7112
▁Ó	-13.7112
▁eño	-13.7113
▁Ava	-13.7116
▁maid	-13.7117
▁AUGH	-13.7123
▁NFT	-13.7123
▁BGT	-13.7124
▁wap	-13.7129
▁Hum	-13.713
▁dmo	-13.7131
gula	-13.7133
RU	-13.7133
▁âte	-13.7135
▁mmal	-13.7138
▁wyn	-13.7139
▁czy	-13.714
▁RAB	-13.714
affl	-13.7141
▁utala	-13.7144
ORT	-13.7147
▁ROG	-13.7148
▁iè	-13.7148
▁CCP	-13.7148
▁agde	-13.7155
▁FAI	-13.7156
▁ebri	-13.7165
▁BL	-13.7165
▁MC	-13.7166
▁PJ	-13.7166
▁osco	-13.717
DY	-13.7174
▁vase	-13.7174
▁Kota	-13.718
▁nwick	-13.7186
▁rtie	-13.7186
TN	-13.7187
▁kod	-13.7187
som	-13.7191
▁54.	-13.7195
▁acne	-13.72
jar	-13.72
▁stov	-13.7201
▁ASIC	-13.7204
▁ALD	-13.7207
UK	-13.7219
TT	-13.7222
աց	-13.7223
▁haft	-13.7235
FSA	-13.7235
▁imba	-13.7238
▁2/	-13.7242
▁GK	-13.7248
aí	-13.7248
▁EE	-13.725
▁xena	-13.7253
▁shka	-13.7261
IST	-13.7264
▁ohan	-13.7275
▁pip	-13.7278
▁MSE	-13.728
▁Vla	-13.7283
HK	-13.729
▁beam	-13.7292
3)	-13.7303
▁fers	-13.7309
now	-13.733
▁70.	-13.7335
▁kang	-13.7336
▁haf	-13.7341
▁ulk	-13.7342
▁uza	-13.7346
zad	-13.7347
▁CU	-13.7348
▁aisi	-13.7359
▁gyr	-13.7363
▁onths	-13.7364
▁eite	-13.7375
ë	-13.7379
siv	-13.738
▁naya	-13.7387
MB	-13.7396
▁AMC	-13.7401
▁COM	-13.7408
▁waja	-13.7409
▁JN	-13.741
▁FP	-13.7417
OG	-13.7419
GR	-13.7438
AKE	-13.7439
▁kat	-13.7448
▁orba	-13.7459
roft	-13.7469
▁iggy	-13.7478
▁IPS	-13.7488
▁6:	-13.7495
▁IFS	-13.7499
oodl	-13.7505
▁nka	-13.7509
lock	-13.7513
RD	-13.7513
▁rvat	-13.7514
UM	-13.7515
▁MO	-13.7521
▁ubre	-13.7522
▁lamo	-13.7523
ç	-13.7538
▁nasc	-13.754
HR	-13.7543
SV	-13.7548
▁tuss	-13.7554
▁nym	-13.7554
jak	-13.7555
▁Kil	-13.7564
▁HER	-13.7567
▁("	-13.7568
▁rbin	-13.7568
▁wald	-13.7571
▁glut	-13.758
▁shya	-13.7581
▁oult	-13.76
was	-13.7601
▁ogb	-13.7602
▁anz	-13.7602
▁EMA	-13.7609
cia	-13.7613
92	-13.7619
▁endry	-13.7627
REE	-13.767
▁lé	-13.7676
aï	-13.7678
▁IAN	-13.768
▁գի	-13.7695
▁DM	-13.7695
▁esso	-13.7696
41	-13.77
NTA	-13.77
GS	-13.7723
▁WW	-13.7723
▁£6	-13.7736
▁ako	-13.7742
▁nici	-13.7743
ñ	-13.7744
hab	-13.7748
▁2"	-13.7754
▁CAL	-13.7758
hna	-13.7762
▁utk	-13.7765
▁eima	-13.7767
▁IG	-13.7772
LED	-13.7775
▁Kru	-13.7793
▁ESA	-13.7794
AFS	-13.7798
▁epe	-13.7798
EAT	-13.7809
AU	-13.7812
▁orz	-13.7837
▁wack	-13.7846
▁դր	-13.7852
▁ITC	-13.7856
▁DCP	-13.7863
▁CAS	-13.7874
ORN	-13.7881
zzo	-13.7897
▁ndol	-13.7909
▁ardu	-13.7909
▁ndel	-13.7912
▁yres	-13.7919
UL	-13.7921
qvi	-13.7928
ՐԵ	-13.7944
▁WWII	-13.7944
▁UAV	-13.7944
▁Ø	-13.7945
▁դի	-13.7945
▁üll	-13.7945
▁յն	-13.7945
▁մ	-13.7946
▁lhaj	-13.7946
▁Tyne	-13.7949
▁աց	-13.795
▁ruze	-13.7957
▁UCL	-13.7957
▁mpsey	-13.7958
▁£22	-13.7958
▁iktok	-13.7958
▁PP	-13.7958
▁akha	-13.7964
▁eeta	-13.7965
▁phec	-13.7966
▁ECI	-13.7972
▁LHP	-13.7977
▁UBS	-13.7977
▁kunk	-13.7977
▁ackay	-13.7979
▁EMT	-13.7979
▁dwe	-13.7982
▁lysé	-13.7986
▁TAT	-13.7989
▁gidd	-13.7989
▁wkey	-13.7989
▁3%.	-13.7992
▁Kochi	-13.7995
▁34%	-13.7998
▁OLIS	-13.8
SHA	-13.8002
▁zhi	-13.8004
▁rol	-13.8009
▁yoti	-13.8013
▁gwa	-13.8014
▁rè	-13.8016
▁HEL	-13.8019
▁5-3	-13.802
▁53%	-13.8022
▁Wynn	-13.8023
▁lhan	-13.8023
▁iric	-13.803
jia	-13.8034
▁քի	-13.8038
▁dope	-13.8042
▁գա	-13.8054
▁zur	-13.8054
Am	-13.8064
▁Map	-13.8069
▁TJ	-13.8075
▁րդ	-13.8078
ús	-13.8079
▁CIT	-13.8079
CHA	-13.8083
▁PML	-13.8084
▁33.	-13.809
rket	-13.81
▁RU	-13.8106
▁osch	-13.8125
▁24%	-13.8139
DT	-13.8144
▁ovin	-13.8148
OLA	-13.816
▁vri	-13.8181
▁oosi	-13.8183
▁hé	-13.8184
▁YOUR	-13.8193
▁dler	-13.8203
96	-13.8203
▁eful	-13.8206
▁BTS	-13.8212
▁rbid	-13.8213
▁lka	-13.8215
▁DG	-13.8217
ARC	-13.8225
69	-13.8239
ekh	-13.825
▁umin	-13.8251
▁rtou	-13.8261
ORC	-13.8263
▁yno	-13.8272
fil	-13.8272
▁vank	-13.8274
▁keg	-13.8274
▁nker	-13.8285
▁MG	-13.8289
▁TN	-13.829
▁ITT	-13.829
▁mule	-13.8293
èn	-13.8305
BDC	-13.8324
▁ogen	-13.8334
▁rax	-13.8336
kul	-13.8337
▁ajj	-13.8337
▁WP	-13.8348
▁CIS	-13.8363
▁njee	-13.8373
▁eide	-13.8388
▁nero	-13.8394
▁vex	-13.8409
▁rgi	-13.8411
▁inki	-13.8422
▁KY	-13.8431
▁usti	-13.844
▁ué	-13.8445
▁ubar	-13.8447
▁նակ	-13.8454
WN	-13.8454
Go	-13.8454
▁իս	-13.8485
WR	-13.8497
▁teas	-13.851
▁estar	-13.8516
▁rumm	-13.8516
▁harb	-13.8522
▁raha	-13.8523
▁reac	-13.8527
▁affa	-13.8552
▁ջ	-13.8556
▁Hyp	-13.8563
▁erbi	-13.8572
▁gwar	-13.8574
▁lbin	-13.8577
▁gour	-13.8578
AMA	-13.8584
FE	-13.8586
1.	-13.8588
▁nges	-13.8596
▁SK	-13.8606
OME	-13.8613
▁olac	-13.8646
▁lvd	-13.8663
▁VM	-13.8668
▁(3	-13.867
▁ngst	-13.8673
▁SPD	-13.8673
mun	-13.8692
▁ssin	-13.8705
▁kab	-13.8709
▁waj	-13.8709
▁HOL	-13.8711
▁AV	-13.8711
sky	-13.8716
▁ARD	-13.8724
▁trik	-13.8732
▁ESS	-13.8733
urus	-13.8742
ստ	-13.8744
▁EBU	-13.8764
52	-13.8773
ê	-13.8781
▁dka	-13.8803
MF	-13.881
▁ARC	-13.8812
▁ocha	-13.8813
ø	-13.8819
UST	-13.8823
GF	-13.8828
EG	-13.8831
TEM	-13.8833
ված	-13.885
վել	-13.885
Տ	-13.8854
▁ğan	-13.8854
▁օր	-13.8854
▁բեր	-13.8854
▁Գ	-13.8854
▁ոլ	-13.8855
▁ATOR	-13.8855
▁dría	-13.8855
▁SM	-13.886
▁VS	-13.8863
▁ä	-13.8865
▁clyde	-13.8866
▁£75	-13.8866
▁4:	-13.8869
▁oltz	-13.8871
▁iju	-13.8871
holm	-13.8871
▁EDT	-13.8871
▁pindi	-13.8871
▁reddy	-13.8873
▁nrith	-13.8875
▁EIS	-13.8876
▁OP	-13.8876
▁goog	-13.8879
▁7-5	-13.8883
▁axon	-13.8887
rov	-13.8887
▁SMU	-13.889
▁iffi	-13.8891
2.	-13.8895
▁syth	-13.89
PU	-13.8903
▁ahim	-13.8908
▁TSA	-13.8908
HAK	-13.8909
ró	-13.891
▁kola	-13.8914
▁HM	-13.8914
▁ajan	-13.8914
▁dhik	-13.8927
WC	-13.8928
եւ	-13.8929
▁kong	-13.8931
▁RIA	-13.8934
oot	-13.8941
▁ría	-13.8944
▁39.	-13.8954
▁DES	-13.8954
▁55.	-13.8955
▁uré	-13.8958
▁ayna	-13.896
▁155	-13.8962
▁DU	-13.8963
86	-13.8964
▁vial	-13.8968
▁haze	-13.8969
▁izzo	-13.8974
▁ulia	-13.8976
zal	-13.8977
▁rism	-13.8978
▁8.5	-13.898
▁gyna	-13.8983
▁garve	-13.8987
▁65.	-13.8988
▁arwa	-13.899
▁LPG	-13.8992
AAD	-13.8994
GL	-13.8998
▁GH	-13.9001
ôn	-13.9004
KEA	-13.901
▁փոխ	-13.9011
▁Knu	-13.9018
▁EG	-13.9021
▁վա	-13.9023
▁mR	-13.9038
eez	-13.9044
▁EVA	-13.9054
▁CLA	-13.9066
▁shoo	-13.908
▁egur	-13.9086
▁Keen	-13.909
coll	-13.9101
▁eroo	-13.9121
▁ieg	-13.9129
SON	-13.9136
▁aldi	-13.9137
ICK	-13.915
▁nsp	-13.9152
▁PH	-13.9153
▁yub	-13.9153
▁udor	-13.9154
VR	-13.9177
▁(2	-13.9178
más	-13.918
▁ukas	-13.9185
▁lkal	-13.9188
wara	-13.9188
▁ayak	-13.919
▁aube	-13.9194
IO	-13.9201
▁sauc	-13.9207
▁eán	-13.9212
▁vdi	-13.9222
LAT	-13.9224
▁Kaye	-13.9228
▁ugan	-13.9233
▁ahri	-13.9235
**	-13.9238
▁alsy	-13.9241
gdal	-13.9244
▁uig	-13.9245
baz	-13.925
▁lky	-13.9251
ña	-13.9251
▁փա	-13.9253
▁shno	-13.9274
turb	-13.9279
▁lpe	-13.9281
▁khal	-13.9281
▁Kaz	-13.9283
uph	-13.9292
▁SNC	-13.9293
▁NYS	-13.9306
RV	-13.9309
▁ukh	-13.9323
▁Trea	-13.9323
▁rho	-13.933
▁VA	-13.9334
zb	-13.9335
▁mandu	-13.9342
▁baz	-13.9343
▁CQ	-13.9344
dod	-13.935
▁TRA	-13.9352
ask	-13.9362
▁nika	-13.9364
▁kto	-13.9367
kee	-13.9378
▁renz	-13.9382
ALL	-13.9395
gno	-13.94
▁haj	-13.9403
ENT	-13.9414
▁CHA	-13.9428
▁ahle	-13.9444
FW	-13.9451
▁rz	-13.9453
▁nig	-13.9455
▁RED	-13.9459
▁HAR	-13.9462
▁cito	-13.9469
▁yni	-13.948
bin	-13.9486
▁yad	-13.9496
lava	-13.9498
▁bind	-13.9501
▁ssim	-13.9507
▁տա	-13.9511
7)	-13.9531
▁soud	-13.9538
oda	-13.9544
▁Kna	-13.9544
▁INK	-13.9549
▁£9	-13.9552
fiq	-13.9555
▁lbw	-13.9577
▁Dru	-13.958
▁ibo	-13.9594
▁shta	-13.9615
▁roor	-13.9622
▁liya	-13.9622
▁alak	-13.9625
hur	-13.9629
▁CAR	-13.9642
lov	-13.9648
VID	-13.9654
▁khan	-13.9659
▁#5	-13.9664
RTS	-13.9678
zuk	-13.9686
▁hman	-13.9691
▁CON	-13.9693
▁neck	-13.9696
7:	-13.97
▁ál	-13.97
▁fax	-13.9717
▁GOA	-13.9718
jam	-13.9718
▁ulis	-13.9718
▁5-	-13.9719
▁OM	-13.9721
▁jug	-13.9724
▁PSV	-13.9725
▁EAR	-13.9725
REN	-13.9727
▁ոն	-13.9754
▁գն	-13.9767
UMA	-13.9771
▁#4	-13.9773
MQs	-13.9783
â	-13.9788
▁RIS	-13.9789
EMP	-13.9798
▁hazi	-13.9812
▁(4	-13.9822
▁ugo	-13.9828
▁ULE	-13.9835
ELL	-13.9835
▁aju	-13.9837
RES	-13.9851
·	-13.9853
Â	-13.9853
ă	-13.9853
š	-13.9853
▁úñez	-13.9853
ı	-13.9854
▁ջին	-13.9854
▁կազմ	-13.9854
▁iQoo	-13.9854
▁SZA	-13.9854
▁či	-13.9854
▁ախա	-13.9854
▁IANS	-13.9854
▁zhd	-13.9855
▁KS	-13.9855
▁lmain	-13.9857
▁AAA	-13.9857
▁ըն	-13.9857
▁CAP	-13.9858
▁hymn	-13.9858
▁WOMA	-13.9867
▁ooga	-13.9868
▁ratah	-13.9869
▁£35	-13.987
▁RFU	-13.9871
▁TUC	-13.9873
▁MOL	-13.9876
▁ahiti	-13.9879
MAX	-13.988
UET	-13.9881
▁phro	-13.9882
▁ilba	-13.9883
▁lpit	-13.9887
▁$80	-13.9888
▁opus	-13.989
▁hlor	-13.9891
▁Umm	-13.9894
▁COT	-13.9895
▁nbar	-13.9902
▁6%.	-13.9904
▁151	-13.9905
▁ttun	-13.9913
▁RC	-13.9917
▁taple	-13.9918
▁LLM	-13.992
▁njal	-13.9922
▁49.	-13.9924
▁amage	-13.9926
▁164	-13.9935
▁amam	-13.994
▁rny	-13.9944
▁Coff	-13.9951
kur	-13.9956
▁MER	-13.9959
▁lkit	-13.9964
PF	-13.9966
▁hiz	-13.9967
-8	-13.9973
▁TLA	-13.9978
▁ajid	-13.9979
▁lkie	-13.9982
▁եխ	-13.9986
▁uha	-13.9986
▁ayno	-13.9987
REA	-13.9989
▁goof	-13.999
հ	-13.9994
▁jek	-13.9996
▁mza	-13.9996
▁երի	-13.9997
▁Indy	-14.0008
IMS	-14.001
▁ARM	-14.001
ffe	-14.0011
▁rji	-14.0012
▁SPS	-14.0019
▁veka	-14.0022
▁48.	-14.0023
▁sick	-14.0031
ASU	-14.0033
▁OGE	-14.0039
RIL	-14.005
▁ANU	-14.0052
▁235	-14.0055
▁migo	-14.0067
ça	-14.008
▁fano	-14.0089
▁riya	-14.0092
▁VMA	-14.0092
▁PHI	-14.0094
OE	-14.0095
▁Klo	-14.0104
▁CAF	-14.0104
▁yran	-14.011
▁LDP	-14.0111
▁llem	-14.0114
▁TK	-14.0119
▁UL	-14.0121
▁lund	-14.0122
▁utur	-14.0126
▁iren	-14.0127
▁dhan	-14.0127
▁AVE	-14.0134
ál	-14.014
▁WF	-14.0146
▁kwi	-14.0146
▁ACA	-14.0151
▁msha	-14.0153
XX	-14.0166
PE	-14.0167
▁ssef	-14.0169
▁#3	-14.0172
▁RET	-14.0176
▁ikor	-14.0177
▁erdu	-14.0178
▁balt	-14.0179
pas	-14.0186
▁MON	-14.0215
DN	-14.0219
▁kwe	-14.0224
▁rdia	-14.0234
NEC	-14.0234
gard	-14.0237
լու	-14.0247
▁7)	-14.0251
IK	-14.0252
▁EQ	-14.026
▁edfe	-14.026
DH	-14.0265
▁malt	-14.0274
seem	-14.0282
▁crats	-14.029
▁brea	-14.0311
▁acia	-14.032
▁uid	-14.033
IDA	-14.033
▁MAT	-14.0334
▁Kli	-14.0336
▁ICA	-14.0353
OOK	-14.0363
MV	-14.0364
▁aydo	-14.0364
ELA	-14.0374
ATS	-14.0374
▁él	-14.0378
nog	-14.0384
nug	-14.0393
▁IFA	-14.0412
▁RV	-14.0414
NR	-14.0419
ML	-14.0419
▁slava	-14.0427
▁Yug	-14.0431
▁ehra	-14.0442
ERT	-14.0448
▁rsch	-14.0456
▁ALA	-14.046
▁NEC	-14.047
▁Yok	-14.0478
▁roz	-14.0483
FR	-14.0483
▁#9	-14.0491
▁garb	-14.0495
84	-14.0526
▁JC	-14.0531
▁eyma	-14.0533
▁ojo	-14.0534
LR	-14.0538
81	-14.0549
OSE	-14.0553
▁ehu	-14.0554
▁ffra	-14.0576
▁Tsu	-14.0577
▁AW	-14.0589
եկ	-14.0597
adh	-14.0604
▁Kah	-14.0607
▁այի	-14.0614
խա	-14.063
▁avlo	-14.0633
▁Tyr	-14.0637
▁lef	-14.0649
▁ajja	-14.065
▁SSP	-14.0671
CM	-14.0692
riya	-14.0709
SJ	-14.0709
▁PRC	-14.0709
OK	-14.0714
ooz	-14.0723
END	-14.0725
▁Ida	-14.0725
uki	-14.0729
րել	-14.0745
weed	-14.0749
QA	-14.0776
▁CSI	-14.079
UE	-14.0801
▁TUR	-14.0823
OST	-14.0834
ման	-14.0862
▁pix	-14.0869
▁yab	-14.0879
ife	-14.0883
▁ulus	-14.0886
▁MET	-14.0897
RM	-14.0909
▁CAN	-14.0918
▁SEA	-14.0919
NU	-14.0924
▁FY	-14.0931
RN	-14.0933
▁khu	-14.0933
Or	-14.0934
LIN	-14.0937
î	-14.0953
▁IBS	-14.096
Ö	-14.0961
Կ	-14.0961
EEK	-14.0961
eogh	-14.0963
azz	-14.0964
▁ախ	-14.0964
®	-14.0965
●	-14.0965
▁տրոն	-14.0965
▁gyps	-14.0965
▁վեր	-14.0965
▁համար	-14.0965
▁րի	-14.0965
▁նոր	-14.0965
▁ւ	-14.0966
▁oogi	-14.0966
▁VIDE	-14.0966
▁անի	-14.0968
▁oimh	-14.0968
▁GOAT	-14.0969
▁york	-14.0969
▁NXT	-14.097
rekk	-14.0973
▁CHIP	-14.0975
▁efeat	-14.0977
▁lpho	-14.0978
▁eynes	-14.098
▁$75	-14.098
▁mrit	-14.0982
▁akob	-14.0983
édé	-14.0983
▁rbet	-14.0984
▁egean	-14.0985
▁Hø	-14.0986
▁oora	-14.0996
▁ASI	-14.0997
▁RPG	-14.0998
▁gyro	-14.1003
AND	-14.1008
gum	-14.101
▁Cô	-14.1011
▁TAR	-14.1014
OF	-14.1017
BE	-14.102
▁baja	-14.1022
▁Hyg	-14.1027
▁(11	-14.1029
▁86%	-14.103
▁chok	-14.1031
▁NPC	-14.1033
▁yzan	-14.1036
▁ahia	-14.1041
▁tarl	-14.1043
▁MLC	-14.1051
▁dung	-14.1054
▁52.	-14.1063
▁rbha	-14.1069
▁ERC	-14.1074
▁AIN	-14.1078
▁41.	-14.1092
▁aziz	-14.1093
▁DW	-14.1096
▁ILLE	-14.1096
▁ulip	-14.11
▁COS	-14.1102
▁38.	-14.1106
▁LAS	-14.1122
▁ABS	-14.1123
▁hirp	-14.1127
MAS	-14.1127
wneu	-14.1131
drí	-14.1151
▁ALP	-14.1153
OVE	-14.1166
▁noir	-14.1168
▁pont	-14.1174
▁gild	-14.1176
▁դատ	-14.1178
▁pheu	-14.1181
lic	-14.1183
▁éle	-14.119
▁Eng	-14.1192
▁jad	-14.1195
▁olta	-14.1196
▁Vase	-14.1198
▁ARO	-14.1199
▁ç	-14.1203
ndon	-14.1218
▁Knot	-14.1219
▁gadi	-14.122
IH	-14.1223
▁yman	-14.1223
▁դրա	-14.1224
▁SG	-14.1225
▁idio	-14.1228
zca	-14.123
▁zem	-14.1234
▁gwy	-14.1236
UC	-14.1246
▁mike	-14.125
▁CSU	-14.1252
▁tamed	-14.1256
▁JCP	-14.1259
▁վի	-14.1285
▁ivan	-14.1285
▁ELL	-14.1286
▁ör	-14.1286
▁POS	-14.1287
▁UAP	-14.1288
▁MW	-14.1303
▁Koh	-14.1304
▁111	-14.1308
▁SF	-14.1313
▁apin	-14.1317
▁SMS	-14.1318
▁dysm	-14.133
roos	-14.1334
YI	-14.1337
▁JL	-14.1341
▁gale	-14.1344
▁flak	-14.1345
AIL	-14.1355
▁ENS	-14.1363
▁Trey	-14.1367
▁ikk	-14.1369
▁UM	-14.1369
▁nima	-14.137
▁ikhi	-14.1372
▁tarp	-14.1382
▁NIC	-14.1383
zha	-14.1388
▁auw	-14.1396
▁ró	-14.1407
▁VLA	-14.1408
▁քաղ	-14.1414
▁SSC	-14.1415
▁ASU	-14.142
unu	-14.1421
▁civ	-14.1441
▁Uz	-14.1451
AIR	-14.1457
gho	-14.1457
▁niga	-14.1462
▁OHN	-14.1465
▁NW	-14.1466
▁Gri	-14.1468
OH	-14.1482
▁fogg	-14.1485
▁NAB	-14.1518
ԱՄ	-14.152
BY	-14.1522
▁daw	-14.1527
▁Kne	-14.1528
▁kop	-14.1542
▁փ	-14.1549
▁ATH	-14.1553
▁թե	-14.1558
▁Faf	-14.1598
▁ür	-14.1599
4)	-14.1601
kg	-14.1608
▁սի	-14.1618
cul	-14.1622
▁քան	-14.1636
յու	-14.1642
▁TOP	-14.1655
▁gory	-14.1658
SMC	-14.1673
▁gual	-14.1689
▁մեն	-14.169
▁loud	-14.1695
▁ISL	-14.1697
▁SAD	-14.1721
▁indh	-14.1722
▁WIT	-14.1726
▁kurt	-14.1735
AX	-14.174
YE	-14.1741
shya	-14.1774
▁zab	-14.1785
▁agno	-14.1789
AO	-14.1793
▁rzo	-14.1793
▁UPS	-14.1807
obs	-14.1822
halt	-14.183
DB	-14.1834
▁amra	-14.1834
▁cada	-14.1843
▁adid	-14.1853
▁PW	-14.1855
տա	-14.1893
▁lmon	-14.1922
վ	-14.1934
STA	-14.1941
OCK	-14.1954
▁wyr	-14.1961
KO	-14.1962
▁owan	-14.1963
▁kti	-14.1974
MU	-14.1978
axo	-14.1982
▁gwel	-14.1993
▁tka	-14.1994
TG	-14.1997
▁pipe	-14.2004
ած	-14.2008
URA	-14.2011
▁յել	-14.2019
▁հի	-14.2027
aku	-14.2036
ERF	-14.2063
▁ooj	-14.2068
▁iku	-14.207
yron	-14.208
▁alud	-14.2113
▁NSA	-14.2115
STO	-14.2132
▁chra	-14.2149
▁Vand	-14.215
VT	-14.2155
FU	-14.217
▁Ukr	-14.2172
▁€1	-14.2177
SIM	-14.2193
▁€5	-14.2201
թ	-14.2211
$	-14.2211
▁MOU	-14.2211
euvr	-14.2212
ORO	-14.2213
ł	-14.2215
¢	-14.2215
ò	-14.2215
▁TRUMP	-14.2215
▁tröm	-14.2215
▁HGV	-14.2215
▁պետ	-14.2215
▁!!!	-14.2215
▁րկ	-14.2215
▁jör	-14.2215
▁շա	-14.2215
▁3.0	-14.2215
▁año	-14.2216
▁fwy	-14.2218
▁ünd	-14.222
▁Պ	-14.222
▁GAIN	-14.2221
▁epka	-14.2222
▁thyme	-14.2222
áz	-14.2223
▁aalii	-14.2224
▁epoch	-14.2226
▁hrys	-14.2226
▁arzi	-14.2227
▁phany	-14.2227
▁lí	-14.2228
▁shund	-14.2228
▁Feet	-14.223
▁nkot	-14.2234
▁kkin	-14.2235
EVE	-14.2236
▁urlo	-14.2236
▁ajra	-14.2237
▁ymbi	-14.2237
▁OKY	-14.2239
CHR	-14.2242
▁RJ	-14.2243
▁gobb	-14.2245
▁baum	-14.2247
▁kpe	-14.2247
▁OUR	-14.2248
MJ	-14.2262
▁Vege	-14.2264
▁68.	-14.2266
▁gbe	-14.2273
▁83.	-14.2274
▁76.	-14.2274
▁llig	-14.2274
▁(0	-14.2274
▁TOR	-14.2279
▁LDL	-14.2279
EPA	-14.2282
jaj	-14.2284
▁251	-14.2285
▁apne	-14.2292
MCA	-14.2292
▁xito	-14.2294
▁Yose	-14.2299
▁yaar	-14.231
▁30:	-14.2311
CF	-14.2312
▁DH	-14.2312
▁urce	-14.2315
REM	-14.2317
▁74.	-14.2318
▁MOD	-14.2319
▁177	-14.232
▁aigo	-14.232
/4	-14.2327
▁53.	-14.2327
▁NDR	-14.2333
▁yuda	-14.2335
▁ggar	-14.2335
▁Odu	-14.2339
ICO	-14.2342
▁PFL	-14.2346
▁wynn	-14.2347
▁BPA	-14.2348
▁ooh	-14.2352
▁ewry	-14.2352
▁LAC	-14.236
▁WOR	-14.2367
▁BPM	-14.2369
▁OW	-14.237
trak	-14.2373
▁KT	-14.2374
▁urha	-14.238
KA	-14.2382
oja	-14.2384
bell	-14.2389
▁NPS	-14.2403
▁ILL	-14.2406
▁340	-14.2407
▁hupi	-14.241
▁lmer	-14.2426
hwa	-14.2435
▁JW	-14.2443
▁RAD	-14.2448
▁ogha	-14.2449
▁rhoi	-14.2455
▁luke	-14.2456
▁uspi	-14.2459
▁ISP	-14.246
▁CJ	-14.2461
▁LIF	-14.2465
▁ogot	-14.2465
▁36.	-14.247
▁IMA	-14.2473
▁Հա	-14.2476
▁TTP	-14.2479
ետ	-14.248
3.	-14.2483
▁ROB	-14.2488
▁BDS	-14.249
▁etiz	-14.2497
▁etze	-14.2499
▁Zhi	-14.25
▁PFO	-14.2505
▁oeb	-14.251
GH	-14.2513
ío	-14.2523
▁Yoo	-14.2529
▁LEC	-14.2531
▁TOS	-14.2532
▁locu	-14.2539
▁PRO	-14.254
▁ISI	-14.2559
▁ukha	-14.2565
▁rgy	-14.2567
▁einz	-14.2582
▁nja	-14.259
▁rtier	-14.2595
▁vya	-14.2598
▁HOT	-14.2606
▁ալ	-14.2623
▁Tila	-14.2631
ACT	-14.2636
▁(6	-14.2637
IFF	-14.2644
▁HOUS	-14.2658
▁orca	-14.2672
▁CCR	-14.2673
▁blat	-14.2674
▁jeet	-14.2692
▁MCC	-14.2694
wald	-14.2704
▁Bloc	-14.2713
ND	-14.2715
LEA	-14.2748
▁jaha	-14.2751
▁6)	-14.2751
UND	-14.2773
▁AOC	-14.2773
▁մե	-14.2773
▁ezz	-14.2783
▁erzi	-14.2784
▁lemi	-14.2788
PY	-14.2802
▁ISTO	-14.2806
wyr	-14.2808
▁WAR	-14.2815
▁ICO	-14.2829
▁aesa	-14.2836
▁XX	-14.2836
BG	-14.2836
▁AMI	-14.284
▁yja	-14.2847
▁COO	-14.2868
sett	-14.2873
▁ARL	-14.2877
▁vé	-14.2899
▁Uti	-14.2903
▁lair	-14.2919
▁anj	-14.292
▁5"	-14.2927
jpa	-14.2939
▁զա	-14.2942
▁kta	-14.2958
▁huna	-14.2959
riek	-14.2959
▁hula	-14.2967
▁fish	-14.299
▁տե	-14.3002
▁upay	-14.3004
ruk	-14.3008
KC	-14.3009
ates	-14.301
EV	-14.3018
ará	-14.3024
▁IFT	-14.3028
▁bber	-14.3029
▁կի	-14.3044
▁urus	-14.3064
▁SAM	-14.3068
3:	-14.3092
▁crop	-14.3093
յի	-14.3097
▁ghet	-14.3099
vian	-14.3109
▁NAO	-14.3118
▁ouma	-14.3136
oë	-14.314
▁€3	-14.3158
FG	-14.3159
▁anzi	-14.316
▁aqi	-14.3165
51	-14.3177
want	-14.3178
▁MQ	-14.318
▁Jet	-14.3185
▁raph	-14.3225
azzo	-14.3231
EED	-14.3242
▁հան	-14.3242
OB	-14.3247
▁եմ	-14.3267
mul	-14.3275
▁hoga	-14.3283
▁MIL	-14.3313
▁Uda	-14.3324
▁OSC	-14.3334
▁HELL	-14.3352
▁միջ	-14.3355
▁PSA	-14.3361
▁ilad	-14.3362
hum	-14.3371
LAS	-14.3374
▁HSA	-14.3385
▁NR	-14.339
▁YS	-14.3391
եմ	-14.3399
▁APP	-14.34
íci	-14.3408
▁NES	-14.3416
▁MED	-14.3425
▁վիր	-14.3467
vig	-14.3477
▁NAF	-14.3493
▁leid	-14.35
nsey	-14.3533
CW	-14.3554
ALT	-14.3557
▁UT	-14.3562
▁ayla	-14.3582
LUE	-14.3586
▁abib	-14.3588
USA	-14.359
▁Wyc	-14.3594
PW	-14.3596
SIO	-14.3609
▁iyam	-14.3637
▁ASP	-14.3638
մար	-14.364
ճ	-14.3643
▁թֆոն	-14.3643
▁եռ	-14.3643
▁ICBM	-14.3643
▁հր	-14.3643
▁ջար	-14.3643
▁մաս	-14.3643
▁շար	-14.3643
▁ակի	-14.3643
▁(8)	-14.3644
▁գտ	-14.3644
iño	-14.3644
▁օ	-14.3644
▁CHE	-14.3646
▁êt	-14.3647
▁zhy	-14.3647
սա	-14.3648
▁arzo	-14.3648
▁gwei	-14.3649
▁rooq	-14.3649
▁kkari	-14.3649
URE	-14.3652
FCC	-14.3652
▁CHIC	-14.3652
▁gdal	-14.3655
▁kshm	-14.3655
▁iksi	-14.3655
IJ	-14.3656
îm	-14.3658
▁RAIN	-14.3659
▁zha	-14.366
▁wada	-14.3661
▁£27	-14.3662
▁nkaj	-14.3662
▁$27	-14.3663
▁ROI	-14.3665
▁$55	-14.3665
▁4).	-14.367
▁waft	-14.367
MES	-14.3671
▁HOME	-14.3672
▁ROCK	-14.3672
BW	-14.3674
▁Kaja	-14.3677
▁oars	-14.3683
▁MARC	-14.3686
ARP	-14.3687
WD	-14.3691
▁wyl	-14.3696
▁shok	-14.3699
▁4-	-14.3699
▁ddam	-14.3699
▁nazi	-14.37
▁dahl	-14.3702
▁kW	-14.3702
ղա	-14.3702
▁JUL	-14.3703
▁oudon	-14.3707
▁!!	-14.3709
▁95.	-14.3719
▁oax	-14.3721
▁81.	-14.3723
▁CBT	-14.3724
▁kaf	-14.3725
▁onoma	-14.3725
▁DUI	-14.3725
▁xG	-14.3727
▁CFA	-14.3733
▁zcz	-14.3736
▁57.	-14.3736
▁ayal	-14.3737
▁END	-14.3738
▁dwick	-14.374
▁RTE	-14.3742
▁62.	-14.3743
GT	-14.3744
▁ICKE	-14.3746
▁LEO	-14.3747
▁TAS	-14.3748
▁yuz	-14.3751
cett	-14.3751
▁FDI	-14.3752
nez	-14.3753
▁Kabi	-14.3755
▁ASA	-14.3755
êt	-14.3757
▁NFF	-14.376
▁GPA	-14.3763
anj	-14.3765
▁mí	-14.3769
▁LEA	-14.3769
▁osla	-14.3779
HG	-14.3782
▁haq	-14.3789
▁ksan	-14.379
▁(8	-14.3791
▁PDF	-14.3794
SME	-14.3799
▁Vela	-14.3809
TERS	-14.3811
▁tlá	-14.3815
▁riez	-14.3816
իա	-14.3823
FTA	-14.3826
▁TES	-14.3831
▁աղ	-14.3836
▁KFC	-14.3843
▁NDP	-14.3849
▁MEX	-14.385
▁DOC	-14.3852
▁lsam	-14.3854
▁ես	-14.3864
PPR	-14.3866
▁uxt	-14.3866
▁IAL	-14.3872
▁gyfe	-14.3874
▁leaz	-14.3875
▁ncra	-14.388
▁ñad	-14.3884
Ս	-14.53
[	-14.5306
_	-14.5306
č	-14.531
ș	-14.531
😭	-14.531
🥹	-14.531
ծ	-14.5588
*	-14.6466
°	-14.7306
	-14.731
×	-14.731
ù	-14.731
ş	-14.731
ŷ	-14.731
‍	-14.731
−	-14.731
յ	-14.8851
Լ	-14.9805
ժ	-14.9806
փ	-14.9806
Ó	-14.9806
À	-14.981
Ã	-14.981
ì	-14.981
ý	-14.981
ū	-14.981
ŵ	-14.981
ž	-14.981
ֆ	-14.981
♬	-14.981
û	-14.981
ձ	-15.2494
ւ	-15.2735
⁄	-15.2747
Պ	-15.3139
️	-15.3139
£	-15.314
ğ	-15.3143
¦	-15.3143
±	-15.3143
Ü	-15.3143
ė	-15.3143
ț	-15.3143
Ժ	-15.3143
Օ	-15.3143
⚽	-15.3143
😍	-15.3143
%	-15.3797
ջ	-15.8139
Թ	-15.8139
Յ	-15.8139
օ	-15.8139
Գ	-15.8139
Հ	-15.8139
։	-15.814
Ր	-15.8143
ē	-15.8143
^	-15.8143
	-15.8143
	-15.8143
§	-15.8143
È	-15.8143
Î	-15.8143
ß	-15.8143
ģ	-15.8143
ń	-15.8143
ņ	-15.8143
ň	-15.8143
́	-15.8143
̈	-15.8143
С	-15.8143
՛	-15.8143
՞	-15.8143
ạ	-15.8143
ầ	-15.8143
ắ	-15.8143
ờ	-15.8143
‭	-15.8143
›	-15.8143
⁦	-15.8143
⁩	-15.8143
₱	-15.8143
℞	-15.8143
☆	-15.8143
♂	-15.8143
❌	-15.8143
・	-15.8143
︎	-15.8143
𝄒	-15.8143
🏻	-15.8143
🏼	-15.8143
👈	-15.8143
👉	-15.8143
💨	-15.8143
📸	-15.8143
😮	-15.8143
🤦	-15.8143
😅	-16.8099
💕	-16.81
♪	-16.8101
Չ	-16.8102
Ճ	-16.8103
Đ	-16.8104
æ	-16.8105
🙏	-16.8106
🙄	-16.8107
✔	-16.8108
▶	-16.8109
Ք	-16.811
Ä	-16.8111
🔥	-16.8112
🐎	-16.8113
⁣	-16.8114
Ւ	-16.8115
Ջ	-16.8116
Շ	-16.8117
Ç	-16.8118
⁠	-16.8119
Փ	-16.812
Ռ	-16.8121
Զ	-16.8122
Š	-16.8123
🤣	-16.8124
Ֆ	-16.8125
Ը	-16.8126
Դ	-16.8127
đ	-16.8128
¡	-16.8129
Ո	-16.813
Å	-16.8131
¿	-16.8132
❤	-16.8133
🥇	-16.8134
	-16.8135
★	-16.8136
₹	-16.8137
′	-16.8138
■	-16.8139
😂	-16.8139
խ	-16.814
Ø	-16.814
Բ	-16.814
#	-16.814
է	-16.814
<	-16.814
=	-16.814
@	-16.814
€	-16.814
­	-16.8141
}	-16.8142
>	-16.8143
ư	-16.8143
~	-16.8143
	-16.8143
	-16.8143
Í	-16.8143
Ò	-16.8143
Ô	-16.8143
ÿ	-16.8143
ą	-16.8143
Ć	-16.8143
Ē	-16.8143
ę	-16.8143
ī	-16.8143
İ	-16.8143
ř	-16.8143
ś	-16.8143
Ş	-16.8143
ţ	-16.8143
ż	-16.8143
ə	-16.8143
ʔ	-16.8143
ʻ	-16.8143
̀	-16.8143
̃	-16.8143
̄	-16.8143
μ	-16.8143
О	-16.8143
У	-16.8143
а	-16.8143
и	-16.8143
к	-16.8143
н	-16.8143
р	-16.8143
ї	-16.8143
Է	-16.8143
Խ	-16.8143
Ծ	-16.8143
Ձ	-16.8143
Ղ	-16.8143
฿	-16.8143
ḥ	-16.8143
Ṡ	-16.8143
ṣ	-16.8143
ả	-16.8143
ẹ	-16.8143
ế	-16.8143
ệ	-16.8143
ị	-16.8143
ọ	-16.8143
ố	-16.8143
ộ	-16.8143
ợ	-16.8143
ừ	-16.8143
ự	-16.8143
ỹ	-16.8143
‬	-16.8143
⁤	-16.8143
₦	-16.8143
↔	-16.8143
⊕	-16.8143
⏳	-16.8143
►	-16.8143
◀	-16.8143
☀	-16.8143
♀	-16.8143
♥	-16.8143
✅	-16.8143
✨	-16.8143
⭐	-16.8143
🇱	-16.8143
🇳	-16.8143
🇸	-16.8143
🇺	-16.8143
🌪	-16.8143
🌴	-16.8143
🌹	-16.8143
🍓	-16.8143
🍹	-16.8143
🎁	-16.8143
🎢	-16.8143
🎪	-16.8143
🏆	-16.8143
🏽	-16.8143
🏾	-16.8143
👀	-16.8143
👍	-16.8143
👏	-16.8143
💙	-16.8143
💥	-16.8143
📋	-16.8143
📍	-16.8143
📷	-16.8143
😆	-16.8143
😊	-16.8143
😢	-16.8143
😱	-16.8143
😳	-16.8143
🙌	-16.8143
🛒	-16.8143
🤎	-16.8143
🤔	-16.8143
🤫	-16.8143
🤯	-16.8143
🤵	-16.8143
🤷	-16.8143
🥅	-16.8143
🥥	-16.8143
🥪	-16.8143
🥺	-16.8143
þ	-16.8143
(	-16.8144
