<unk>	0
<s>	0
</s>	0
▁s	-3.3637
▁the	-3.64836
▁,	-3.68598
▁.	-3.73434
▁a	-3.84611
▁to	-4.22928
▁in	-4.28262
▁and	-4.40202
▁of	-4.45412
▁"	-4.56217
▁ing	-4.57277
▁'	-4.59089
▁	-4.69723
▁c	-4.7759
▁ed	-4.79905
e	-4.85915
▁-	-4.92399
▁p	-5.05041
i	-5.06587
a	-5.15557
▁er	-5.15644
▁for	-5.18247
▁re	-5.20474
▁on	-5.20724
n	-5.20809
▁n	-5.22164
▁e	-5.23277
▁that	-5.28635
t	-5.32347
▁b	-5.32839
▁t	-5.33556
▁S	-5.35378
s	-5.36886
▁is	-5.36902
▁0	-5.38703
y	-5.39464
▁be	-5.40924
▁The	-5.43863
▁A	-5.44939
r	-5.51281
▁2	-5.52057
▁with	-5.52375
▁I	-5.58005
▁d	-5.59876
▁was	-5.62628
▁it	-5.63955
▁tion	-5.75048
▁as	-5.78112
▁ly	-5.80666
▁he	-5.82614
▁co	-5.88592
o	-5.89311
▁at	-5.89411
▁C	-5.93679
▁1	-5.95231
▁B	-5.97579
▁de	-5.9904
▁said	-6.03368
▁M	-6.05768
▁have	-6.07503
▁his	-6.09658
▁you	-6.10068
▁has	-6.10916
▁y	-6.12505
▁from	-6.13414
▁are	-6.13495
d	-6.16988
▁:	-6.1717
▁by	-6.1731
▁we	-6.17364
▁pro	-6.1746
▁an	-6.18335
c	-6.18977
▁L	-6.20566
▁w	-6.20639
▁R	-6.22618
▁P	-6.23502
▁l	-6.24059
▁T	-6.24334
l	-6.26168
en	-6.27112
▁al	-6.30803
u	-6.31995
▁not	-6.32345
ould	-6.32807
▁H	-6.40084
▁out	-6.40189
▁or	-6.40476
▁o	-6.41088
▁F	-6.4115
▁this	-6.42356
er	-6.42829
▁who	-6.46247
▁con	-6.46279
▁m	-6.4744
ly	-6.48859
▁her	-6.51144
ed	-6.52567
▁th	-6.52744
▁up	-6.54291
▁D	-6.54409
▁will	-6.55116
▁su	-6.55585
re	-6.57286
▁their	-6.58438
▁r	-6.59709
▁E	-6.60969
▁but	-6.61132
▁had	-6.62483
▁es	-6.64782
▁G	-6.66432
▁ex	-6.66748
▁(	-6.66839
▁ma	-6.68787
▁W	-6.69003
▁i	-6.69142
▁)	-6.70138
▁4	-6.70742
▁all	-6.70791
▁9	-6.7176
▁ent	-6.72658
▁ment	-6.73322
fter	-6.73409
.	-6.74573
▁she	-6.75791
▁ion	-6.76687
▁ers	-6.76694
▁te	-6.77602
▁one	-6.77776
▁more	-6.78531
▁mi	-6.78972
▁5	-6.78992
▁3	-6.80573
▁can	-6.81058
,	-6.81597
▁about	-6.81876
▁It	-6.8256
▁N	-6.8354
▁over	-6.85248
▁O	-6.85594
▁en	-6.87919
▁also	-6.88795
▁me	-6.89222
▁wh	-6.89638
▁do	-6.89986
▁st	-6.91806
▁In	-6.92396
▁dent	-6.93061
▁like	-6.93819
m	-6.95162
▁so	-6.95218
▁eople	-6.9673
▁time	-6.98115
▁year	-6.98252
▁un	-6.99094
p	-6.99157
▁J	-7.00001
▁le	-7.00729
▁work	-7.02735
▁K	-7.03259
ing	-7.03648
▁f	-7.03877
▁rec	-7.04291
▁per	-7.05718
th	-7.05933
ome	-7.06665
ch	-7.07735
▁rep	-7.09052
▁gh	-7.09151
b	-7.10169
▁fa	-7.10601
▁its	-7.12246
▁just	-7.14265
▁He	-7.14476
▁my	-7.16135
▁6	-7.16269
▁no	-7.16939
▁8	-7.17149
▁than	-7.17156
▁thing	-7.17403
▁v	-7.20216
ter	-7.2022
▁7	-7.21427
v	-7.2146
▁ation	-7.21721
▁back	-7.22314
▁into	-7.22327
▁there	-7.2251
▁him	-7.23675
▁h	-7.23889
in	-7.24056
▁other	-7.24176
▁our	-7.24205
▁ever	-7.24926
▁first	-7.25232
▁U	-7.26055
g	-7.26371
▁di	-7.26619
▁able	-7.26792
▁wer	-7.26946
▁two	-7.27406
▁sh	-7.27574
▁get	-7.28449
▁str	-7.28707
▁ted	-7.29252
▁nal	-7.29873
▁whe	-7.30271
ou	-7.31747
▁new	-7.3415
▁cha	-7.34439
▁if	-7.34802
▁them	-7.35325
▁whi	-7.35356
▁Bu	-7.35444
al	-7.371
▁how	-7.37435
▁again	-7.38153
▁est	-7.38579
▁last	-7.39818
at	-7.4039
▁years	-7.40442
▁?	-7.40733
se	-7.41262
▁off	-7.42457
▁Trump	-7.42928
▁day	-7.43117
▁go	-7.44194
▁now	-7.44635
▁ty	-7.4469
▁state	-7.45297
h	-7.45675
▁wi	-7.45722
▁any	-7.46098
▁tive	-7.46651
▁tra	-7.49369
▁real	-7.49532
▁comp	-7.49542
▁where	-7.49974
▁ve	-7.51014
I	-7.51586
ich	-7.51962
▁ous	-7.53337
▁ster	-7.53933
▁did	-7.5453
▁efore	-7.54624
▁make	-7.54772
▁round	-7.54884
▁man	-7.55814
▁/	-7.5604
or	-7.56427
▁V	-7.56583
atio	-7.56812
▁ring	-7.57537
he	-7.57817
▁want	-7.57978
▁ho	-7.58057
▁come	-7.58464
▁dis	-7.58679
▁way	-7.58741
▁ne	-7.58799
▁ver	-7.60761
▁vi	-7.60792
▁while	-7.60798
▁being	-7.60843
▁ity	-7.60912
▁li	-7.61396
▁end	-7.62386
▁side	-7.62578
▁cause	-7.63676
▁ial	-7.6372
▁And	-7.64428
▁high	-7.652
▁down	-7.65446
▁res	-7.65675
▁ort	-7.65928
▁long	-7.66052
▁right	-7.66494
▁lead	-7.66603
▁turn	-7.66901
▁du	-7.67096
▁think	-7.68412
▁tor	-7.69947
▁We	-7.70344
▁even	-7.70351
▁serv	-7.70383
▁going	-7.7126
▁mo	-7.71742
an	-7.71801
▁elec	-7.72527
▁age	-7.72622
▁us	-7.7284
▁llion	-7.72947
▁well	-7.73024
▁line	-7.73292
▁De	-7.73743
▁pla	-7.74107
▁mer	-7.75023
▁ding	-7.75251
▁nment	-7.76426
▁look	-7.76458
is	-7.76604
▁son	-7.7748
▁month	-7.77856
▁most	-7.7799
▁Mr	-7.77992
▁take	-7.78112
▁ry	-7.78175
▁imp	-7.78328
▁pa	-7.78768
▁old	-7.79647
▁start	-7.79827
▁told	-7.79928
▁home	-7.8021
▁know	-7.80454
▁three	-7.80893
▁pport	-7.81133
▁ca	-7.81207
▁week	-7.81507
▁fi	-7.82001
ame	-7.82675
▁pre	-7.82955
▁need	-7.83725
▁ness	-7.84159
▁ship	-7.85056
▁don	-7.85206
▁sent	-7.85868
▁help	-7.85945
▁app	-7.86212
▁la	-7.86241
▁ll	-7.8641
▁part	-7.8655
▁show	-7.86849
▁ck	-7.87112
hat	-7.87196
▁sta	-7.87284
▁ra	-7.87425
▁g	-7.87558
▁poli	-7.8782
▁sday	-7.87865
▁point	-7.88187
▁ence	-7.88412
▁j	-7.88594
'	-7.88869
▁unde	-7.88938
▁life	-7.88986
▁many	-7.9086
▁less	-7.91012
▁You	-7.91577
▁comm	-7.92345
ng	-7.92402
▁se	-7.93013
le	-7.93179
▁says	-7.93228
▁those	-7.93278
▁see	-7.94759
es	-7.95775
clu	-7.96029
ic	-7.9622
▁Co	-7.96381
▁ght	-7.96605
▁srael	-7.96905
▁play	-7.9778
▁ance	-7.98786
rou	-7.99099
▁much	-7.99199
▁si	-7.99486
▁set	-7.99752
ever	-7.99908
▁good	-8.00542
on	-8.00788
ar	-8.0116
▁ies	-8.01174
▁dec	-8.01211
▁bee	-8.01592
▁u	-8.01632
▁team	-8.01821
▁ice	-8.01897
▁world	-8.0252
▁tions	-8.02625
▁ns	-8.02916
▁ign	-8.03134
▁hi	-8.03523
▁ti	-8.03687
▁found	-8.03693
▁chi	-8.04026
cord	-8.04093
▁pres	-8.04188
meri	-8.04233
▁For	-8.0431
▁ement	-8.04394
▁ublic	-8.04472
▁untry	-8.04602
▁£	-8.04777
▁arti	-8.05053
▁ate	-8.05387
▁gen	-8.05841
▁form	-8.05855
▁New	-8.06075
▁$	-8.06185
▁diff	-8.06252
▁head	-8.06597
▁ress	-8.06657
ra	-8.06746
▁Ma	-8.069
▁law	-8.07122
▁nd	-8.07212
▁give	-8.0756
▁olice	-8.07718
▁four	-8.07889
▁Mi	-8.08728
▁mad	-8.08871
▁hu	-8.09396
▁ia	-8.09561
▁read	-8.09766
▁ful	-8.09896
▁own	-8.09939
▁econd	-8.1064
▁stu	-8.10758
▁sinc	-8.10873
▁such	-8.11085
▁No	-8.11534
▁led	-8.11596
ma	-8.11946
▁feel	-8.11988
▁ic	-8.12
▁land	-8.12672
amil	-8.13038
▁That	-8.13829
▁sing	-8.13953
▁Re	-8.14158
▁erson	-8.14187
▁ary	-8.1424
▁ive	-8.14555
▁Wi	-8.14714
till	-8.1481
▁night	-8.15035
▁fe	-8.15959
▁open	-8.16477
▁game	-8.16745
▁Biden	-8.16811
▁does	-8.16887
▁Th	-8.17202
▁say	-8.17369
ur	-8.17434
▁added	-8.1767
▁order	-8.17711
▁ri	-8.17861
▁lot	-8.18299
▁na	-8.18505
▁crea	-8.18644
▁alth	-8.18653
▁twee	-8.18807
▁ussia	-8.1908
▁ha	-8.19082
▁po	-8.19151
de	-8.19193
▁ember	-8.19218
▁sign	-8.19364
▁lo	-8.19594
▁left	-8.19854
▁ga	-8.20048
▁view	-8.20721
▁ro	-8.21399
easo	-8.21583
▁foll	-8.21679
▁air	-8.21757
▁ge	-8.2194
▁then	-8.21978
fic	-8.22035
▁group	-8.22499
▁sion	-8.23165
▁war	-8.23574
▁Thi	-8.23879
▁ttack	-8.23953
te	-8.24189
▁bi	-8.24254
noth	-8.24272
▁India	-8.24356
▁got	-8.25342
▁both	-8.25436
▁may	-8.25447
▁rela	-8.25481
▁!	-8.2593
▁ob	-8.25963
▁face	-8.26179
▁place	-8.26448
▁expe	-8.26476
▁best	-8.26623
▁camp	-8.26654
▁fo	-8.26758
nd	-8.26862
▁ties	-8.27456
▁;	-8.27623
it	-8.2778
▁issue	-8.2781
▁next	-8.27852
▁top	-8.27904
▁tinue	-8.28166
▁Pres	-8.28274
▁each	-8.28685
▁ities	-8.29035
▁ated	-8.2915
▁tain	-8.29376
▁bu	-8.29568
▁ord	-8.29767
▁bro	-8.30071
▁quest	-8.30078
▁gove	-8.30093
▁use	-8.30627
▁here	-8.30766
▁clear	-8.30912
▁loca	-8.31118
▁wha	-8.31554
▁sp	-8.31741
▁force	-8.32079
▁let	-8.32164
ry	-8.32184
▁redit	-8.32445
▁acc	-8.32466
▁chool	-8.32696
k	-8.3338
▁inc	-8.33387
▁nce	-8.33421
▁near	-8.33439
▁Con	-8.33784
▁US	-8.33997
▁event	-8.34229
▁oppo	-8.34249
▁alled	-8.34258
la	-8.34323
▁stra	-8.34636
▁ldren	-8.34669
me	-8.34902
▁da	-8.35511
▁tell	-8.35592
▁offer	-8.35885
▁ab	-8.36039
▁gra	-8.36109
ting	-8.36239
▁case	-8.3633
▁hand	-8.36375
▁mean	-8.36684
▁ward	-8.36749
▁bo	-8.37335
▁media	-8.37418
▁light	-8.37573
We	-8.37638
▁ting	-8.37931
▁keep	-8.38405
tu	-8.38488
▁power	-8.38639
lude	-8.38692
ual	-8.38742
▁kill	-8.38873
▁fic	-8.3892
▁el	-8.39022
▁happ	-8.39157
▁cap	-8.39202
▁sed	-8.39273
▁Ukra	-8.39732
▁rent	-8.39851
▁away	-8.40091
si	-8.40191
▁days	-8.40493
▁win	-8.40672
▁ocial	-8.40984
▁late	-8.41174
▁Y	-8.41383
▁mpany	-8.41514
▁As	-8.41699
▁tment	-8.41858
▁court	-8.42425
ffic	-8.42464
ross	-8.42494
st	-8.42528
▁test	-8.42682
▁house	-8.42814
▁try	-8.42937
ro	-8.43161
▁UK	-8.43451
ctio	-8.43767
▁final	-8.43925
▁times	-8.43975
▁free	-8.43999
▁put	-8.44397
▁ience	-8.44448
▁self	-8.44465
▁women	-8.44564
▁nt	-8.45148
▁party	-8.45356
▁eco	-8.45483
▁oper	-8.45524
▁five	-8.45527
▁frie	-8.45865
▁If	-8.45944
▁Cha	-8.46591
▁far	-8.46975
to	-8.47142
▁fu	-8.47424
▁ta	-8.47559
▁ccess	-8.47586
▁pu	-8.47654
▁tri	-8.4779
▁post	-8.47837
▁body	-8.47896
▁ggest	-8.47999
▁ously	-8.48051
▁build	-8.48244
▁Su	-8.48717
▁love	-8.48749
▁x	-8.49119
el	-8.49254
▁car	-8.49646
▁spect	-8.49976
▁took	-8.50371
▁ago	-8.50422
▁busi	-8.50445
▁used	-8.5048
llow	-8.50925
▁fire	-8.51204
▁care	-8.51214
▁mak	-8.51349
▁won	-8.5137
▁prev	-8.51455
▁later	-8.51606
▁mark	-8.51627
▁water	-8.51799
ffec	-8.51843
▁tical	-8.5209
▁mini	-8.52174
▁earch	-8.52585
▁young	-8.52859
▁k	-8.52972
▁sc	-8.53008
▁call	-8.53135
▁qu	-8.53392
▁vide	-8.53402
▁sub	-8.53893
▁star	-8.53898
▁too	-8.53979
▁ant	-8.54051
▁gram	-8.54118
▁enter	-8.54232
umb	-8.54326
▁vers	-8.54397
▁seen	-8.54445
▁talk	-8.54795
▁adv	-8.54901
▁One	-8.54962
▁[	-8.55
▁hard	-8.55005
▁wo	-8.5511
▁foot	-8.55721
▁etter	-8.55827
il	-8.56036
▁und	-8.56057
▁grow	-8.56077
▁So	-8.5647
▁might	-8.56559
▁six	-8.569
▁tory	-8.56978
▁]	-8.57063
▁lway	-8.57077
▁rm	-8.57131
▁sive	-8.57283
▁claim	-8.57309
▁ional	-8.57622
▁To	-8.57681
▁Z	-8.57853
▁nited	-8.57858
ustr	-8.5823
▁bit	-8.58309
▁ong	-8.58316
▁On	-8.58365
▁run	-8.5841
▁ian	-8.58858
▁went	-8.59118
▁break	-8.5914
▁film	-8.59225
▁ean	-8.59238
▁ystem	-8.59367
▁ball	-8.59654
nce	-8.59666
▁few	-8.59708
ves	-8.59984
▁regi	-8.60028
▁add	-8.60047
▁tiga	-8.60188
▁tter	-8.60249
▁ntial	-8.60478
▁South	-8.60563
ent	-8.6066
▁large	-8.60752
and	-8.60784
▁term	-8.60797
▁aying	-8.60813
▁hit	-8.6109
▁big	-8.61291
▁meet	-8.61652
▁base	-8.61772
ve	-8.61832
▁sur	-8.61956
▁cent	-8.61987
▁fin	-8.62089
▁half	-8.62105
emb	-8.62149
▁deal	-8.62151
▁wing	-8.62403
▁hav	-8.62423
▁Demo	-8.62964
▁des	-8.62966
▁level	-8.63057
▁hold	-8.63136
▁grea	-8.63278
▁ppea	-8.63308
▁vel	-8.63315
▁pass	-8.63399
▁fra	-8.6348
▁mment	-8.63546
▁rket	-8.63854
▁ssion	-8.64125
▁Mo	-8.64293
▁am	-8.64663
▁ac	-8.65071
▁gress	-8.65075
▁uthor	-8.65279
▁fight	-8.6544
▁low	-8.65639
▁net	-8.65823
▁along	-8.66019
▁live	-8.6613
▁men	-8.66186
f	-8.66393
▁money	-8.66568
ver	-8.66596
▁West	-8.6663
▁ley	-8.66744
▁urity	-8.66764
▁ries	-8.66775
▁date	-8.66799
▁room	-8.66906
▁yers	-8.67135
▁ard	-8.67557
▁ld	-8.67884
▁ern	-8.67997
▁York	-8.68019
▁ossi	-8.68158
▁early	-8.68226
▁city	-8.6824
▁video	-8.6824
▁posi	-8.68264
▁hange	-8.68376
▁quir	-8.68611
▁Pa	-8.68719
▁duce	-8.68841
▁ham	-8.68868
▁ar	-8.69018
▁velo	-8.69026
▁ning	-8.69074
▁plan	-8.69243
▁sider	-8.69368
▁death	-8.69464
▁ill	-8.69709
▁known	-8.6983
w	-8.69948
▁z	-8.70026
▁close	-8.70093
▁field	-8.70386
▁ng	-8.70656
▁John	-8.70848
▁Jo	-8.70915
▁move	-8.71155
▁stop	-8.71159
▁news	-8.71403
▁watch	-8.71523
nt	-8.71579
▁ask	-8.71583
▁count	-8.71683
▁dence	-8.71689
▁tal	-8.71845
▁find	-8.71896
▁tak	-8.72031
▁ject	-8.72083
▁Ra	-8.72418
▁cess	-8.72583
▁cover	-8.73153
▁mili	-8.73155
▁volv	-8.73414
▁gu	-8.73653
▁treat	-8.73709
vi	-8.73737
▁port	-8.73842
▁ist	-8.73851
ut	-8.73935
lleg	-8.73982
▁stic	-8.74157
▁name	-8.74475
▁arris	-8.74504
▁visit	-8.74507
▁ear	-8.74517
ti	-8.74551
▁liv	-8.75
▁ell	-8.75314
▁past	-8.75356
▁ture	-8.75387
▁lican	-8.75498
▁cal	-8.75514
ally	-8.75723
▁News	-8.75923
▁full	-8.75932
▁ot	-8.75933
▁cket	-8.76032
tic	-8.76203
een	-8.76366
his	-8.7681
▁ritic	-8.7696
▁exp	-8.77081
ctiv	-8.77089
▁short	-8.77396
▁front	-8.77818
▁Pro	-8.77995
▁eries	-8.78224
▁sec	-8.78259
▁shed	-8.78407
▁cult	-8.78493
▁10	-8.78584
▁arri	-8.78626
ne	-8.78641
▁role	-8.78836
▁ral	-8.79189
ag	-8.79315
▁small	-8.79386
▁%	-8.79501
▁som	-8.79602
▁pay	-8.7967
▁reve	-8.80299
▁unity	-8.80344
▁food	-8.80496
▁orted	-8.80791
▁House	-8.80946
▁ble	-8.81067
▁flo	-8.81254
▁gree	-8.81614
ta	-8.81646
▁Howe	-8.81812
▁um	-8.81835
▁book	-8.8193
▁tant	-8.81999
▁ost	-8.82031
▁grou	-8.82435
tio	-8.82644
▁cri	-8.8296
▁ju	-8.82997
▁layed	-8.83119
▁Ro	-8.83135
ri	-8.83159
▁lu	-8.83328
▁rease	-8.83434
▁viol	-8.83447
▁anti	-8.83487
▁hope	-8.83507
▁ight	-8.83617
rote	-8.83641
▁emp	-8.83761
ce	-8.83781
▁nati	-8.83951
▁City	-8.84035
▁due	-8.84082
▁nced	-8.84108
▁unti	-8.84178
▁gett	-8.84248
▁Gaza	-8.84275
▁race	-8.84278
▁tch	-8.84521
nnou	-8.84537
▁Sh	-8.84953
▁fli	-8.85143
sta	-8.85208
▁disc	-8.85211
▁secu	-8.85534
▁taken	-8.85765
▁why	-8.85851
▁ming	-8.85852
▁defe	-8.85894
▁often	-8.86032
▁doing	-8.86075
▁tand	-8.86099
▁risk	-8.86184
▁mov	-8.86582
lack	-8.86633
▁least	-8.86667
▁Rep	-8.86668
▁list	-8.86896
▁X	-8.86932
▁futu	-8.87138
per	-8.87173
▁gula	-8.87221
men	-8.87536
▁mpion	-8.87572
▁spit	-8.87578
▁evi	-8.8763
▁tax	-8.87805
▁od	-8.87928
▁leg	-8.87969
▁unday	-8.88019
rans	-8.88039
▁nor	-8.88064
▁ondon	-8.88191
▁today	-8.88265
▁Man	-8.88389
▁eleb	-8.88755
▁sure	-8.88813
▁sm	-8.88879
▁ie	-8.89004
▁riday	-8.89093
▁Al	-8.89113
▁club	-8.89335
▁Tu	-8.8939
▁ally	-8.89396
▁onday	-8.89497
▁walk	-8.89654
▁sult	-8.89758
▁dep	-8.89806
▁done	-8.90007
cial	-8.90105
▁Euro	-8.90148
▁gn	-8.90206
▁ntrol	-8.90363
▁trib	-8.90464
▁driv	-8.90696
▁nter	-8.90739
▁writ	-8.90889
▁ff	-8.91051
▁resp	-8.91167
harg	-8.91207
It	-8.91259
▁moth	-8.91665
▁graph	-8.9178
▁art	-8.91812
▁wards	-8.92057
▁mus	-8.92177
▁fla	-8.92449
▁ials	-8.92566
▁North	-8.92591
▁tten	-8.92665
▁games	-8.93023
A	-8.93025
▁fans	-8.9303
▁nomi	-8.93052
arge	-8.93065
▁et	-8.93304
▁rtner	-8.93501
truc	-8.93547
▁Ca	-8.93553
▁child	-8.93624
tal	-8.93635
▁woman	-8.93725
▁Ka	-8.93875
▁share	-8.93971
▁nning	-8.94102
▁China	-8.94189
▁feat	-8.9427
▁lay	-8.9431
▁class	-8.94474
▁ions	-8.94919
▁speak	-8.9495
▁com	-8.95003
▁At	-8.9513
▁ngle	-8.95461
▁ook	-8.95489
▁bri	-8.9562
▁ak	-8.95622
▁ened	-8.95642
▁kind	-8.95645
▁ehind	-8.96
▁heart	-8.96119
▁ten	-8.96141
▁tempt	-8.96258
▁Chri	-8.96271
ha	-8.96336
▁rence	-8.96388
▁ded	-8.9646
▁raise	-8.96528
ev	-8.96573
▁ause	-8.96881
▁ism	-8.97299
▁match	-8.97526
▁ouple	-8.97797
▁Bo	-8.97882
▁phone	-8.97978
▁vote	-8.98006
▁All	-8.98023
▁ices	-8.98099
▁ummer	-8.98379
&	-8.98593
▁ple	-8.98831
▁Getty	-8.99033
▁cur	-8.99077
▁ter	-8.99324
▁nner	-8.99459
am	-8.99634
▁inv	-8.99844
▁stay	-8.99947
▁gre	-8.99948
▁Ch	-8.99977
▁int	-9.0009
▁ud	-9.00102
▁bor	-9.00139
▁ngton	-9.00187
▁huma	-9.00227
▁wait	-9.00264
▁shot	-9.00306
▁rance	-9.00308
▁ount	-9.00348
▁ound	-9.00578
▁World	-9.0097
▁ey	-9.01066
▁tract	-9.01094
▁weeks	-9.01303
▁Whe	-9.01333
▁hours	-9.01418
▁maj	-9.01488
▁space	-9.01576
▁ass	-9.01616
▁sha	-9.01687
▁State	-9.02005
▁serve	-9.02049
▁ency	-9.02233
▁ul	-9.0234
firm	-9.02369
▁music	-9.02466
▁job	-9.02535
▁runn	-9.02658
▁fund	-9.02902
▁rrest	-9.02928
▁story	-9.03102
▁yet	-9.03201
▁May	-9.03285
▁Di	-9.0337
▁ling	-9.03398
▁board	-9.03401
▁demo	-9.03404
▁>	-9.03446
▁using	-9.03514
▁thr	-9.03538
▁nder	-9.03734
▁omb	-9.03769
▁clo	-9.03783
▁ourse	-9.03786
▁stead	-9.03833
▁Brit	-9.03955
▁saw	-9.03977
▁red	-9.04223
▁key	-9.04314
▁ch	-9.04452
▁idea	-9.04511
▁met	-9.04652
as	-9.04677
▁data	-9.05064
▁cli	-9.05214
▁typ	-9.05269
▁Min	-9.05366
▁qual	-9.05449
di	-9.05531
▁sti	-9.05591
▁areer	-9.05682
▁layer	-9.05702
▁char	-9.05719
▁reach	-9.0592
▁rele	-9.06005
ir	-9.06058
▁dding	-9.06096
▁peci	-9.06107
▁cost	-9.06109
▁tech	-9.06131
▁trike	-9.06273
▁disa	-9.06316
li	-9.06341
▁rsity	-9.06522
▁aring	-9.06576
▁Ni	-9.06656
▁eye	-9.06828
▁fel	-9.07385
poke	-9.07479
▁stage	-9.07707
▁Jan	-9.0777
▁mid	-9.07858
▁Be	-9.07889
▁ru	-9.07901
▁olicy	-9.07912
▁gran	-9.08014
▁trict	-9.08097
▁pect	-9.08167
▁medic	-9.08204
▁rse	-9.08274
▁photo	-9.08288
▁nutes	-9.0833
▁<	-9.08345
▁Ms	-9.08371
▁rt	-9.08413
ub	-9.08492
▁draw	-9.08836
▁inci	-9.0886
▁June	-9.08878
▁jour	-9.0899
▁*	-9.09081
▁Black	-9.092
▁held	-9.09316
▁terr	-9.09424
▁rison	-9.0944
▁shop	-9.09494
▁tire	-9.09555
▁spot	-9.09861
▁fully	-9.09869
▁hosp	-9.0987
itu	-9.09905
▁rodu	-9.09927
▁Ha	-9.09972
▁price	-9.10226
▁warn	-9.10264
▁area	-9.10408
ere	-9.10653
over	-9.10746
▁suit	-9.1085
▁litt	-9.1103
▁fact	-9.11125
▁nding	-9.11149
▁cu	-9.11174
▁dy	-9.11263
▁staff	-9.11283
▁TV	-9.11318
mi	-9.11551
▁seven	-9.11569
▁tted	-9.11647
▁girl	-9.11654
▁occ	-9.1167
▁How	-9.11672
▁lly	-9.11689
▁drop	-9.11711
▁pot	-9.11722
▁dire	-9.11824
▁ned	-9.11858
soci	-9.11953
irec	-9.11983
ep	-9.12036
▁quick	-9.1215
▁ught	-9.12253
▁ahead	-9.12297
▁ski	-9.12331
tai	-9.12648
▁trip	-9.12661
▁ier	-9.1269
▁Scot	-9.12728
▁oters	-9.12746
rg	-9.12774
▁cut	-9.12803
▁temp	-9.12831
atur	-9.13013
▁July	-9.13105
▁spen	-9.13218
▁lost	-9.13441
▁frica	-9.13532
▁Ju	-9.13539
▁20	-9.13571
▁died	-9.13632
▁mult	-9.13639
hen	-9.13648
▁uni	-9.13791
▁eague	-9.13886
ess	-9.13987
▁nu	-9.14076
▁Octo	-9.14111
▁atch	-9.14167
▁sses	-9.1426
▁ease	-9.14281
▁pain	-9.1432
▁swi	-9.14328
▁road	-9.14443
▁wide	-9.1457
▁ourt	-9.14598
▁ike	-9.14604
▁ensu	-9.14723
▁tran	-9.14743
▁mess	-9.15056
▁ut	-9.15079
co	-9.1521
▁ake	-9.15275
▁model	-9.15453
▁oil	-9.15539
▁rs	-9.15558
▁eight	-9.15672
▁miss	-9.15798
▁ical	-9.1584
▁uncil	-9.16002
▁An	-9.16038
▁fall	-9.16046
▁March	-9.16348
▁ec	-9.16732
▁amon	-9.16741
▁figu	-9.17106
ring	-9.17196
▁prov	-9.17427
▁gi	-9.17439
▁ping	-9.17458
▁ility	-9.17725
▁mount	-9.17729
▁wife	-9.17825
▁Vi	-9.17871
▁id	-9.1793
▁dead	-9.18016
us	-9.18027
▁oach	-9.18061
▁arli	-9.181
▁que	-9.18122
tep	-9.18171
▁pe	-9.18445
▁argu	-9.18702
▁door	-9.18761
▁equ	-9.18802
▁pi	-9.18846
▁rning	-9.1889
▁worth	-9.19085
▁Du	-9.19124
▁April	-9.19208
▁tic	-9.1921
▁tru	-9.19247
▁spi	-9.193
▁trial	-9.19395
ect	-9.19439
▁Chi	-9.19549
na	-9.19677
▁AI	-9.19711
olu	-9.1973
▁Comm	-9.19846
▁stice	-9.19857
▁host	-9.19937
▁ess	-9.20182
par	-9.20437
▁ource	-9.20439
▁sonal	-9.20557
▁ump	-9.20714
▁oint	-9.20816
▁Do	-9.20923
▁rain	-9.20928
▁goal	-9.21045
▁began	-9.2128
▁fied	-9.213
▁glob	-9.21326
▁mate	-9.21449
lu	-9.2147
▁treet	-9.21556
▁odi	-9.217
▁town	-9.21852
▁admi	-9.21882
▁mand	-9.22004
eign	-9.22063
▁mp	-9.22076
▁abour	-9.22176
x	-9.22177
▁act	-9.22323
ffor	-9.2242
▁rest	-9.22704
▁fam	-9.22752
▁ttend	-9.22791
sh	-9.22972
▁push	-9.23093
merg	-9.23197
▁bad	-9.23198
▁ens	-9.23218
▁wood	-9.23278
▁entre	-9.23291
▁ports	-9.23308
augh	-9.23381
▁shows	-9.23433
mb	-9.23459
▁natu	-9.23478
▁King	-9.23485
▁arter	-9.23633
▁ss	-9.23654
▁hip	-9.23721
▁Si	-9.23847
▁spir	-9.23858
▁safe	-9.23973
▁mina	-9.23985
▁fac	-9.24002
▁organ	-9.24136
▁chief	-9.24189
▁Mc	-9.24309
vail	-9.24371
▁ales	-9.24505
▁liev	-9.24537
dent	-9.24578
▁nch	-9.24615
nefi	-9.24704
▁scus	-9.24729
▁audi	-9.24752
▁yment	-9.2492
▁...	-9.24938
▁rtun	-9.2499
▁lace	-9.24994
▁vest	-9.25006
ked	-9.25024
▁gene	-9.25212
▁kno	-9.25227
liev	-9.25233
▁lives	-9.25247
▁leav	-9.2532
▁impl	-9.25394
▁rac	-9.25442
▁tors	-9.25454
▁nian	-9.25464
▁hug	-9.25685
▁addi	-9.25817
▁expl	-9.25847
▁begin	-9.25876
▁Dr	-9.25917
wi	-9.2601
lymp	-9.26061
▁alia	-9.26116
outh	-9.26142
▁track	-9.26231
▁quit	-9.26268
▁pur	-9.26287
hang	-9.26359
uld	-9.26692
▁ped	-9.26762
▁eived	-9.26806
▁vari	-9.2688
▁owner	-9.27014
▁llen	-9.27104
▁lear	-9.27231
▁Whit	-9.27233
▁park	-9.27273
▁emb	-9.27285
▁Now	-9.27446
▁cade	-9.27552
▁lica	-9.27629
▁mpet	-9.27669
▁roach	-9.27708
▁elf	-9.27845
▁scene	-9.27911
su	-9.27954
▁ara	-9.27968
▁ross	-9.27994
▁ffer	-9.28084
▁Wash	-9.28105
▁il	-9.28387
▁lega	-9.28401
▁ack	-9.28528
▁ision	-9.28557
▁link	-9.28574
▁sea	-9.28714
▁logi	-9.28739
der	-9.28772
▁plans	-9.28947
▁eng	-9.2895
▁rate	-9.28996
nect	-9.29034
▁cru	-9.29067
▁ail	-9.29212
▁ine	-9.29309
▁nic	-9.29394
▁Image	-9.2945
hou	-9.29528
▁thi	-9.2957
▁non	-9.29837
▁Go	-9.29868
▁dents	-9.29891
▁rise	-9.29939
▁ones	-9.30166
▁jo	-9.30251
▁hing	-9.30265
▁afety	-9.30338
▁needs	-9.30518
▁Mu	-9.30596
▁van	-9.3064
▁ccus	-9.30684
▁Uni	-9.30817
jor	-9.30985
▁check	-9.3103
▁lock	-9.31065
▁ds	-9.31358
▁heat	-9.31447
▁ition	-9.31475
▁La	-9.31494
▁Sha	-9.31607
▁pict	-9.31608
▁ft	-9.31634
igh	-9.31658
▁ir	-9.31742
▁nse	-9.31744
▁priv	-9.31772
▁gun	-9.31815
▁cast	-9.31832
ua	-9.31839
▁cer	-9.31849
▁hed	-9.31865
▁ounty	-9.31889
▁spec	-9.31892
▁sk	-9.31966
▁ke	-9.32079
▁brand	-9.32289
▁ribe	-9.32395
▁seri	-9.32397
▁store	-9.32499
▁eriod	-9.3258
▁cam	-9.32589
▁rupt	-9.32617
▁soon	-9.32631
▁mains	-9.32688
▁ce	-9.32692
▁coll	-9.32704
▁ctor	-9.32728
ox	-9.32773
▁mic	-9.32866
▁press	-9.32875
▁leave	-9.33202
liv	-9.33241
▁lain	-9.33272
▁tates	-9.33393
▁lac	-9.33583
▁ctim	-9.33756
▁situ	-9.33759
▁tely	-9.33963
▁Net	-9.34012
▁Wh	-9.34078
▁bar	-9.34391
▁qui	-9.34412
qua	-9.34514
▁arm	-9.3473
▁anies	-9.34993
▁Hama	-9.34994
▁pular	-9.35088
▁white	-9.35132
▁entr	-9.35149
▁Hu	-9.35178
come	-9.35189
▁giv	-9.3528
▁Whi	-9.35293
▁Q	-9.35425
▁nyone	-9.35487
▁ugust	-9.35585
▁fast	-9.35637
▁else	-9.35643
▁Star	-9.35659
▁30	-9.35712
▁rema	-9.3584
genc	-9.35954
eek	-9.35961
nerg	-9.35973
▁neg	-9.35992
▁ev	-9.36076
▁der	-9.36272
▁imme	-9.36458
cept	-9.36479
▁iled	-9.36589
▁ssing	-9.36668
▁eith	-9.36672
▁crime	-9.3668
▁rrow	-9.36724
▁ad	-9.36956
▁docu	-9.36967
▁sell	-9.36985
▁Inter	-9.37189
▁meon	-9.37284
▁Na	-9.37407
▁han	-9.37473
▁minal	-9.37475
▁gui	-9.37484
ust	-9.37599
▁ily	-9.37648
▁pand	-9.37838
▁fine	-9.37882
our	-9.38001
▁exc	-9.3802
▁nomy	-9.38037
▁wor	-9.38058
▁buy	-9.38147
▁north	-9.38167
anag	-9.38218
▁East	-9.38245
▁pack	-9.38266
▁dev	-9.38299
▁ommo	-9.38331
▁12	-9.38361
▁Ever	-9.38474
ful	-9.38517
ni	-9.38572
▁ised	-9.38591
▁dates	-9.38613
▁block	-9.38614
low	-9.38627
▁ts	-9.38662
▁nsib	-9.38683
urr	-9.38741
▁drug	-9.38787
▁oast	-9.38881
ird	-9.38885
▁tte	-9.38923
▁site	-9.38944
▁tour	-9.38977
▁ncern	-9.3906
▁tail	-9.39082
▁nent	-9.39157
▁rank	-9.39282
▁maker	-9.39284
▁tress	-9.3929
av	-9.39385
▁gold	-9.39472
▁rath	-9.39512
▁exec	-9.39583
▁tform	-9.39647
▁Her	-9.3971
iv	-9.39879
spec	-9.39924
ion	-9.40115
▁tent	-9.40212
▁ornia	-9.4032
▁Geo	-9.40333
▁civi	-9.40439
▁mon	-9.40569
ke	-9.4062
▁aske	-9.40712
▁eal	-9.40749
▁amp	-9.40951
ate	-9.40988
▁lue	-9.41184
epar	-9.41232
▁Da	-9.41238
▁value	-9.41335
▁loss	-9.41343
▁laims	-9.41456
▁ors	-9.417
▁ubli	-9.41719
D	-9.41775
▁ez	-9.41849
▁rown	-9.4189
▁BBC	-9.41902
▁oll	-9.41954
▁hood	-9.41967
▁scor	-9.42117
ey	-9.42472
peak	-9.42501
pend	-9.42525
ular	-9.42552
▁fil	-9.42616
▁fence	-9.42727
tion	-9.42886
▁harm	-9.42992
▁Pic	-9.4303
▁fina	-9.43055
▁cter	-9.43081
▁rself	-9.43199
▁lett	-9.43336
▁ado	-9.43457
▁Eve	-9.43534
▁prem	-9.43534
▁ou	-9.43734
▁range	-9.43777
▁deli	-9.4383
▁lliam	-9.43859
▁Day	-9.43971
▁sband	-9.44051
▁oth	-9.44116
▁15	-9.44117
▁ety	-9.44131
▁Feb	-9.44137
ady	-9.44231
▁ray	-9.44563
▁bank	-9.44579
spo	-9.44624
▁blem	-9.44656
▁Mar	-9.44705
▁hance	-9.44724
▁Sta	-9.44861
ru	-9.44871
▁wrong	-9.44886
▁Ho	-9.45072
▁ye	-9.45117
▁har	-9.45125
▁anno	-9.45135
▁div	-9.45178
▁ban	-9.45219
▁ash	-9.45231
▁ag	-9.45239
tual	-9.45377
S	-9.45433
▁nda	-9.4547
▁ative	-9.45476
▁ffic	-9.45547
▁ways	-9.45562
▁pply	-9.45584
▁fear	-9.45619
▁trad	-9.4566
▁dica	-9.45677
▁male	-9.45696
▁ny	-9.45834
▁succ	-9.45856
lea	-9.45888
▁lower	-9.46033
▁fect	-9.4604
▁pri	-9.4605
▁firm	-9.46051
▁score	-9.46107
id	-9.46147
▁cy	-9.46234
▁ating	-9.4639
▁ele	-9.46391
▁ctory	-9.46429
▁gave	-9.46472
div	-9.46564
▁earl	-9.46584
one	-9.46632
▁dmin	-9.46683
▁ars	-9.4683
ov	-9.46893
▁path	-9.46896
▁ics	-9.469
▁pick	-9.46916
▁tary	-9.46936
▁poll	-9.47068
▁fill	-9.47117
▁usto	-9.47122
▁ni	-9.47161
ial	-9.47217
▁Paris	-9.47227
▁stat	-9.47227
▁venue	-9.47307
▁David	-9.47455
▁tient	-9.47598
▁dom	-9.47648
▁ddl	-9.47769
▁fair	-9.47771
▁enjo	-9.47931
▁hou	-9.48032
▁isa	-9.48056
▁Cup	-9.4809
▁teg	-9.48097
▁bate	-9.48257
z	-9.48322
▁tre	-9.48374
▁Ex	-9.48472
▁title	-9.48499
▁Park	-9.48499
▁sults	-9.48536
▁main	-9.48539
▁bab	-9.48577
▁More	-9.48585
▁sav	-9.48612
▁happy	-9.48658
▁ancer	-9.48675
▁lmos	-9.48729
▁roll	-9.48782
▁mum	-9.48982
▁creen	-9.49066
▁sense	-9.49333
▁heard	-9.49355
▁Not	-9.4947
▁tance	-9.49471
▁image	-9.49504
▁owl	-9.49598
▁fer	-9.49611
▁mb	-9.49855
▁My	-9.49879
▁olog	-9.49889
▁tro	-9.49925
▁ula	-9.50178
▁Ba	-9.50225
▁extra	-9.50334
▁ick	-9.50477
▁nduct	-9.50481
▁doub	-9.50497
▁War	-9.50583
▁liday	-9.50637
▁Eng	-9.50659
▁rench	-9.50708
▁ory	-9.50717
▁actor	-9.50758
▁fense	-9.50816
▁dcast	-9.50817
▁Sea	-9.50819
▁paper	-9.50819
▁hare	-9.50866
▁udget	-9.50926
▁legi	-9.51029
▁ner	-9.51136
omen	-9.51138
▁areas	-9.51173
ss	-9.51259
▁dust	-9.51296
▁ecom	-9.51299
▁zz	-9.51355
▁dium	-9.51411
▁ridge	-9.51448
ill	-9.51471
▁sold	-9.51488
▁flict	-9.51526
▁abil	-9.51585
▁duct	-9.51645
▁paid	-9.51694
▁Isl	-9.51765
▁Sep	-9.51778
▁uck	-9.51884
▁ening	-9.51903
▁pool	-9.51934
▁bed	-9.51974
ngla	-9.52082
▁ood	-9.52085
▁Fa	-9.5209
ll	-9.52174
▁cing	-9.52325
▁peech	-9.52355
▁earn	-9.524
▁kids	-9.52422
▁tu	-9.52426
▁judge	-9.5243
▁oke	-9.52433
ept	-9.52589
▁uring	-9.52596
hile	-9.52631
▁Pre	-9.52712
▁ester	-9.52787
▁shi	-9.528
▁inte	-9.52828
▁thro	-9.52872
:	-9.52958
ted	-9.53015
▁llege	-9.53021
▁iz	-9.53031
▁lk	-9.53105
▁Photo	-9.53197
▁rinc	-9.5327
▁gan	-9.53466
▁ki	-9.53477
▁ppeal	-9.53734
▁unch	-9.54031
▁cases	-9.54347
▁bill	-9.54385
▁costs	-9.54416
fu	-9.54517
▁hoice	-9.54574
▁sist	-9.54602
▁mu	-9.54636
▁First	-9.54655
▁tness	-9.54877
▁hap	-9.54925
▁cerns	-9.54938
▁easy	-9.54941
▁via	-9.54984
▁amb	-9.55051
▁enc	-9.55061
▁erous	-9.55177
▁prise	-9.55229
▁sto	-9.55271
▁ull	-9.55388
▁Un	-9.55414
▁hop	-9.55445
▁James	-9.5555
▁lays	-9.55571
▁wa	-9.55631
▁om	-9.55747
▁cor	-9.5578
▁boy	-9.55782
▁anger	-9.558
▁oss	-9.55881
▁gone	-9.55905
im	-9.55937
▁rul	-9.55973
▁Can	-9.56059
▁lth	-9.56112
▁epi	-9.56216
▁Dis	-9.56301
▁qua	-9.56348
▁fri	-9.56377
▁rices	-9.56444
▁ee	-9.56507
▁mis	-9.56617
▁urope	-9.56655
E	-9.56757
▁ew	-9.56761
▁ur	-9.56767
▁ific	-9.5685
▁nnel	-9.56874
▁bas	-9.56954
▁Las	-9.56973
▁study	-9.57001
▁birth	-9.57039
▁rats	-9.57112
▁sands	-9.57133
▁onfe	-9.57141
▁immi	-9.57155
▁uggl	-9.57227
▁east	-9.57231
▁ran	-9.57249
▁tmas	-9.57491
▁lic	-9.57624
▁Ga	-9.57655
▁lin	-9.57663
▁bra	-9.57679
▁ney	-9.57731
po	-9.57752
▁50	-9.57788
▁focus	-9.57821
▁Ti	-9.57829
▁ise	-9.58024
▁ow	-9.58137
▁chair	-9.58149
gree	-9.58165
▁ap	-9.58211
▁eat	-9.58296
▁avoid	-9.5834
▁yer	-9.58364
▁_	-9.58371
▁Qu	-9.58395
▁thir	-9.58402
▁shock	-9.58434
▁gov	-9.58458
▁Ki	-9.5857
▁St	-9.58599
▁Wha	-9.58768
▁plo	-9.58794
▁par	-9.58876
▁urg	-9.59108
▁rat	-9.59244
▁deb	-9.59391
▁dia	-9.59402
▁Jack	-9.59433
▁ock	-9.59472
▁esca	-9.5958
▁tric	-9.59581
▁min	-9.5959
▁mem	-9.59638
ught	-9.5969
▁cip	-9.59705
▁nc	-9.59714
▁ssa	-9.59722
▁ontr	-9.59772
▁llow	-9.59779
jur	-9.59865
▁movie	-9.59904
▁lling	-9.6002
▁msel	-9.60039
▁table	-9.6007
▁Iran	-9.60082
▁inju	-9.60121
▁rag	-9.60129
▁circ	-9.60202
▁em	-9.60262
▁mfort	-9.60343
▁dio	-9.60356
▁page	-9.60392
▁shire	-9.60437
▁mom	-9.60634
pub	-9.60659
▁rney	-9.60787
the	-9.60849
▁enga	-9.60883
▁dro	-9.60897
ight	-9.60911
ine	-9.60951
▁pair	-9.60955
▁Prime	-9.61025
▁peace	-9.61147
▁crowd	-9.6118
▁andi	-9.61224
▁educ	-9.61389
▁stock	-9.61707
▁ba	-9.61749
▁ay	-9.61773
▁Party	-9.61855
▁touch	-9.61867
▁mine	-9.61895
ptio	-9.61944
▁hear	-9.61949
▁dam	-9.61951
▁risis	-9.61993
▁loved	-9.62002
▁rush	-9.62085
ci	-9.62087
▁ls	-9.62185
▁okes	-9.62228
lo	-9.62231
▁assi	-9.62244
▁infl	-9.62255
mple	-9.62277
▁nec	-9.62354
▁size	-9.62359
He	-9.62508
mov	-9.62558
▁gain	-9.62656
▁tes	-9.62783
▁ride	-9.62794
▁olly	-9.62832
▁rite	-9.62885
io	-9.63019
▁ferr	-9.63034
hav	-9.63062
▁gr	-9.63108
▁Me	-9.63161
▁eli	-9.63212
▁aren	-9.6326
▁ndard	-9.6335
▁sport	-9.63396
▁drink	-9.63398
If	-9.63407
out	-9.63502
▁lish	-9.63536
▁torm	-9.63627
▁Paul	-9.63812
▁Hi	-9.63832
▁erc	-9.63882
▁gent	-9.64063
▁esse	-9.64164
▁abi	-9.6419
▁sex	-9.64193
ec	-9.64204
▁kick	-9.64207
▁dog	-9.64258
▁pull	-9.64468
▁ide	-9.64502
▁lash	-9.64609
▁stan	-9.64614
ledg	-9.64673
▁rita	-9.64713
▁ndred	-9.6481
▁sli	-9.64888
hoot	-9.6489
▁pread	-9.65016
▁Wed	-9.65046
▁Smith	-9.65142
▁geria	-9.65292
▁sort	-9.65333
▁lent	-9.65363
▁rian	-9.65495
▁lli	-9.65559
▁ire	-9.65562
▁istan	-9.6559
▁sett	-9.65621
hic	-9.65673
▁gar	-9.65691
▁named	-9.65794
▁ony	-9.65801
▁guard	-9.65864
▁tream	-9.6594
oth	-9.6616
▁Wal	-9.6624
▁ol	-9.66241
ious	-9.66274
▁Fi	-9.66462
▁vo	-9.66586
▁clu	-9.66634
ten	-9.66724
▁18	-9.66745
▁cert	-9.66758
▁throw	-9.66784
▁hair	-9.66859
leng	-9.66861
▁true	-9.66882
▁terms	-9.66895
▁plant	-9.6713
▁ttle	-9.67395
▁ish	-9.67428
▁ult	-9.67446
▁rant	-9.67512
▁voice	-9.67528
ittl	-9.67531
▁tics	-9.67649
▁ized	-9.67714
▁hysi	-9.67743
▁focu	-9.67873
▁Green	-9.6789
▁11	-9.68003
pita	-9.68068
▁rou	-9.68113
▁erry	-9.68231
▁Times	-9.68268
▁ool	-9.6852
▁xi	-9.6855
▁ntent	-9.68749
▁Or	-9.68785
▁posed	-9.688
▁Of	-9.68953
▁ades	-9.69035
▁perty	-9.69036
fi	-9.69145
▁les	-9.69231
▁flec	-9.69502
▁ngel	-9.69616
▁homes	-9.69718
▁teria	-9.69725
▁ome	-9.6973
▁eil	-9.69787
▁gital	-9.69793
▁aint	-9.69929
▁bag	-9.70033
▁scar	-9.70151
▁skin	-9.70222
▁rules	-9.70292
▁sleep	-9.70293
▁eff	-9.70301
▁award	-9.70353
each	-9.70626
▁idu	-9.70748
▁send	-9.70778
▁poor	-9.70884
▁cho	-9.7097
▁Dan	-9.71104
▁aily	-9.71146
mpac	-9.71182
▁pper	-9.71203
▁14	-9.71447
▁wall	-9.71486
▁impo	-9.71508
ive	-9.71551
▁ili	-9.71611
▁amera	-9.71623
▁ega	-9.71635
▁ector	-9.71669
rela	-9.71761
C	-9.71906
▁thre	-9.7206
let	-9.72137
ow	-9.72162
▁llar	-9.72173
▁arra	-9.72176
▁tr	-9.72234
▁rates	-9.72247
▁teen	-9.72288
▁Cla	-9.72372
▁styl	-9.72425
▁ford	-9.72526
▁ola	-9.72528
▁sions	-9.72543
ppro	-9.72571
▁alm	-9.72705
▁looks	-9.72749
▁drive	-9.72789
▁nel	-9.72861
▁lines	-9.72893
▁opt	-9.72921
▁ducts	-9.72949
▁pitch	-9.72954
▁hour	-9.72955
▁gro	-9.72975
▁built	-9.72989
▁raz	-9.73039
▁nta	-9.7313
▁mur	-9.73164
▁Gov	-9.73228
▁gard	-9.73233
▁teams	-9.73239
▁Chief	-9.73246
▁ecret	-9.73251
▁dden	-9.7333
▁ffa	-9.73536
▁drama	-9.73748
▁nned	-9.73797
▁mmun	-9.73949
▁ealth	-9.73951
▁issed	-9.74079
ith	-9.74103
▁views	-9.74135
▁ssful	-9.74195
▁Mean	-9.74238
▁text	-9.74308
▁broad	-9.74399
▁lip	-9.74406
▁Japan	-9.74578
rea	-9.74584
▁nings	-9.74624
▁nes	-9.74827
▁ompa	-9.75014
▁nge	-9.75021
▁cott	-9.75022
▁Korea	-9.75045
▁ctors	-9.75076
▁embl	-9.75094
▁orig	-9.75096
▁ston	-9.75109
▁Los	-9.75274
▁cans	-9.75275
▁yard	-9.75431
dul	-9.75482
▁hotel	-9.75671
▁ami	-9.75712
no	-9.75714
▁hands	-9.75742
erv	-9.75772
▁yal	-9.75839
▁rew	-9.75914
▁Flor	-9.75954
▁epar	-9.76038
▁ough	-9.76139
▁rima	-9.76325
▁vol	-9.76394
▁runs	-9.76398
▁iv	-9.7643
▁hose	-9.76436
▁craft	-9.76592
▁mart	-9.76663
▁ert	-9.7673
▁Andr	-9.76755
▁ream	-9.76765
▁eer	-9.76854
▁cula	-9.76877
▁ok	-9.76979
man	-9.77051
▁aid	-9.77132
▁above	-9.77227
▁alone	-9.77239
▁stake	-9.77279
▁op	-9.77285
ank	-9.77339
▁Sec	-9.77358
▁ntac	-9.77473
▁blood	-9.77497
hift	-9.7752
mil	-9.77561
tiv	-9.77663
▁hot	-9.77667
▁rgin	-9.77684
erma	-9.77696
au	-9.77797
▁16	-9.77832
▁auto	-9.77839
▁num	-9.77875
swer	-9.77912
▁Gen	-9.77941
▁25	-9.7798
▁ada	-9.77987
▁llage	-9.77997
▁lcome	-9.78018
▁diat	-9.78036
▁seem	-9.78133
▁ana	-9.78135
▁onal	-9.7822
lar	-9.783
▁Lo	-9.78332
▁tests	-9.78389
▁nger	-9.78407
▁gue	-9.7851
▁AP	-9.78512
▁offi	-9.78569
▁bsite	-9.78601
▁ords	-9.78629
▁sa	-9.78753
▁seat	-9.78771
▁lose	-9.78993
▁loyee	-9.79026
om	-9.79056
▁blems	-9.7911
▁menta	-9.79169
▁rden	-9.79181
▁nica	-9.79209
▁Texas	-9.79229
▁13	-9.79234
▁dream	-9.79242
▁words	-9.79294
pen	-9.79396
▁rk	-9.79441
▁Col	-9.79454
▁Ab	-9.79504
▁spr	-9.79539
▁ile	-9.79762
▁tt	-9.79897
▁cept	-9.79971
▁emi	-9.79985
▁Fox	-9.8011
▁mila	-9.80135
▁ark	-9.80138
▁tz	-9.80155
▁plea	-9.80158
00	-9.80188
▁Gra	-9.80293
▁card	-9.80306
pre	-9.80353
▁obert	-9.80378
▁furt	-9.80424
▁cro	-9.80725
▁fy	-9.8081
▁ounts	-9.80816
hi	-9.80818
▁ste	-9.81028
▁Two	-9.81045
▁train	-9.81219
▁sens	-9.81236
itiz	-9.81261
▁40	-9.81263
▁fals	-9.8131
flu	-9.81335
rent	-9.81335
▁mbl	-9.81371
gni	-9.81453
▁ope	-9.8146
▁Inst	-9.8157
▁fan	-9.8161
pear	-9.81634
▁rtist	-9.81666
▁ified	-9.81677
▁bort	-9.81711
equ	-9.81774
▁oon	-9.81792
▁Char	-9.81823
▁fell	-9.81963
▁ille	-9.81965
▁favo	-9.82056
▁scr	-9.82218
ea	-9.82219
rom	-9.82261
▁@	-9.82312
▁tails	-9.82332
▁seems	-9.82421
▁wear	-9.82438
▁gla	-9.8253
▁prime	-9.8253
wer	-9.82648
▁Sch	-9.82656
▁urant	-9.82679
▁eyond	-9.82743
redi	-9.82829
▁Thu	-9.82859
nou	-9.82875
▁Putin	-9.82881
sive	-9.83025
▁Gu	-9.83033
▁rich	-9.83072
▁mmy	-9.83218
▁fuel	-9.8331
▁uts	-9.83311
▁EU	-9.83365
▁nap	-9.83402
▁ique	-9.83472
amag	-9.83497
▁aft	-9.8354
▁reli	-9.83565
▁ior	-9.83576
▁Mark	-9.83665
▁clea	-9.83675
▁goals	-9.83687
▁word	-9.83689
▁phi	-9.8369
▁aw	-9.83727
▁memo	-9.83739
▁rit	-9.83745
▁pen	-9.8379
▁ator	-9.83895
▁ita	-9.83917
▁sault	-9.83966
▁Tra	-9.84045
▁oost	-9.84051
▁wild	-9.8407
▁tele	-9.84083
▁losed	-9.84149
edne	-9.84156
▁ose	-9.84163
▁rsen	-9.84187
▁pple	-9.84238
▁west	-9.8433
▁exis	-9.84368
▁Sa	-9.84494
▁isn	-9.84508
▁sound	-9.84519
▁mala	-9.84634
et	-9.84748
▁rvi	-9.84842
▁ole	-9.84894
▁enger	-9.84936
▁umb	-9.8503
▁lan	-9.85098
▁nest	-9.85137
▁ach	-9.85178
▁gg	-9.85242
▁row	-9.85379
▁baby	-9.85393
▁perts	-9.8541
0	-9.85417
fer	-9.85796
▁rash	-9.85817
▁Harry	-9.85861
▁mana	-9.85894
▁lus	-9.85929
▁lf	-9.85963
▁ots	-9.86104
ge	-9.86179
B	-9.86219
▁parts	-9.86245
▁ead	-9.86291
▁ai	-9.8631
▁kTok	-9.86339
▁cash	-9.86509
▁calls	-9.86639
▁rock	-9.86699
ugh	-9.8674
▁users	-9.86798
▁rvey	-9.86889
aunc	-9.87021
▁erg	-9.87042
"	-9.87061
▁opti	-9.87096
un	-9.87097
▁syl	-9.871
▁imm	-9.87121
▁nion	-9.87203
▁ton	-9.87281
▁nti	-9.87335
▁ano	-9.87348
▁ove	-9.8735
▁gri	-9.87455
▁ower	-9.87578
▁erti	-9.87581
▁save	-9.87654
▁seas	-9.87712
▁ngu	-9.87716
▁fit	-9.87736
nald	-9.87759
ales	-9.87764
▁cou	-9.878
2	-9.87846
▁sight	-9.87892
▁lle	-9.87933
▁tera	-9.87983
▁noted	-9.88056
▁piece	-9.8808
▁oti	-9.881
ini	-9.88109
▁warm	-9.88138
▁dress	-9.88169
▁vis	-9.88186
▁rai	-9.88323
▁ments	-9.88345
peci	-9.8839
▁hel	-9.88397
▁rri	-9.88483
▁oyal	-9.88707
▁Ko	-9.88739
▁unit	-9.8874
▁Guard	-9.88749
▁jobs	-9.88798
▁rist	-9.88843
duc	-9.88946
ty	-9.89242
ture	-9.89243
▁fun	-9.89359
▁fur	-9.89408
▁eth	-9.89439
ck	-9.89461
▁tives	-9.89572
▁fede	-9.89587
▁rpor	-9.896
▁ura	-9.89681
▁By	-9.89804
ther	-9.89835
▁rap	-9.89865
▁olor	-9.89935
▁100	-9.89976
▁rch	-9.90012
▁urch	-9.90033
▁24	-9.90044
▁eive	-9.90076
▁arc	-9.90096
▁ntest	-9.90176
▁ama	-9.90216
▁Here	-9.90297
▁eas	-9.90332
rd	-9.90346
niz	-9.9043
▁union	-9.90769
▁laugh	-9.90924
▁eb	-9.90958
▁mited	-9.90995
▁fle	-9.91023
▁tec	-9.91047
▁ngl	-9.91319
ld	-9.91384
▁ayo	-9.91454
▁enate	-9.91514
▁wri	-9.91542
▁zon	-9.91834
lex	-9.92106
▁ze	-9.92187
str	-9.92195
▁tick	-9.922
▁mony	-9.92356
▁ona	-9.92457
▁assed	-9.92506
▁sia	-9.9254
▁pace	-9.92608
▁pec	-9.92639
▁meas	-9.92726
▁ct	-9.92915
▁rity	-9.92961
▁artin	-9.92997
▁pic	-9.93043
▁grad	-9.93139
▁mise	-9.93141
▁amin	-9.93245
▁McC	-9.93356
▁mil	-9.9341
tter	-9.93422
▁sky	-9.93518
▁lam	-9.93525
▁agg	-9.93531
▁fying	-9.93552
▁urn	-9.93568
▁Sun	-9.93586
▁limi	-9.93651
▁omp	-9.93677
ject	-9.93753
▁Ed	-9.93822
▁anc	-9.93851
▁redi	-9.93854
▁ried	-9.93906
▁ndow	-9.9402
▁rack	-9.94249
▁rote	-9.94257
▁gas	-9.94324
▁eats	-9.94378
▁urna	-9.9444
▁orce	-9.94475
▁pet	-9.94536
▁ills	-9.94569
▁dad	-9.94658
▁pose	-9.94712
com	-9.94722
▁reat	-9.94817
▁Liv	-9.9484
▁exac	-9.94929
▁rid	-9.94971
▁spe	-9.95005
most	-9.95012
▁ird	-9.95027
▁im	-9.95308
▁pp	-9.95321
▁esses	-9.95481
▁arb	-9.95496
act	-9.95514
▁rofit	-9.9554
eapo	-9.95554
▁tches	-9.95575
▁anon	-9.95699
ettl	-9.95851
▁llah	-9.95885
▁cies	-9.95889
▁isla	-9.95946
▁ising	-9.9603
tro	-9.96043
▁dra	-9.96216
op	-9.96238
▁alist	-9.96245
▁valu	-9.96269
▁clim	-9.9627
▁rried	-9.96343
▁ists	-9.96422
ad	-9.96423
▁sets	-9.96431
▁lab	-9.96446
▁arol	-9.96554
▁sis	-9.96556
▁rmy	-9.96611
▁fly	-9.96635
▁tend	-9.96642
▁Bank	-9.96795
▁dark	-9.96827
1	-9.96871
▁iance	-9.9688
▁enne	-9.96888
▁atri	-9.96923
▁ode	-9.96934
▁sla	-9.97005
eigh	-9.97066
▁ery	-9.97162
▁mm	-9.97211
▁esta	-9.97219
ment	-9.97277
▁rcha	-9.97332
red	-9.9735
▁Wa	-9.97366
▁sale	-9.97423
tra	-9.97462
▁ively	-9.97482
▁abuse	-9.97512
▁impr	-9.97522
▁av	-9.97573
▁cyc	-9.97631
▁trou	-9.97645
ew	-9.97703
▁--	-9.97881
▁utter	-9.97942
▁tars	-9.98087
▁uke	-9.98097
ath	-9.98098
▁bel	-9.98108
▁atto	-9.98109
▁omen	-9.98111
▁Don	-9.98148
ecre	-9.98208
▁riz	-9.98241
▁guil	-9.98469
▁bb	-9.98488
▁era	-9.98524
▁urb	-9.98675
▁ining	-9.98768
▁ium	-9.98802
▁rry	-9.98981
▁nia	-9.99013
▁17	-9.99088
▁jec	-9.99128
▁cons	-9.99204
▁idd	-9.99251
▁Pi	-9.99292
▁val	-9.99303
▁hall	-9.99345
▁ract	-9.99351
rend	-9.99352
▁lied	-9.99373
▁rner	-9.99427
▁Ger	-9.99432
▁tern	-9.99458
▁asio	-9.9957
▁mach	-9.99652
vent	-9.997
▁email	-9.99733
▁maz	-9.99828
▁nvic	-9.99972
▁ghan	-10
▁dern	-10.0007
▁nov	-10.001
ultu	-10.0018
▁lim	-10.0022
▁usk	-10.0031
▁rival	-10.0055
▁tini	-10.006
▁rule	-10.006
▁offe	-10.008
▁item	-10.0086
▁Phi	-10.0089
▁band	-10.0092
▁aning	-10.0099
▁laces	-10.0107
▁ides	-10.0118
▁amo	-10.0124
▁ister	-10.013
▁unt	-10.0141
▁nna	-10.0146
▁cl	-10.0149
▁ncy	-10.0156
▁tone	-10.0157
▁sod	-10.0158
▁dal	-10.016
tly	-10.0162
▁BJP	-10.0163
▁bum	-10.0164
▁etch	-10.0168
anc	-10.0178
▁cell	-10.0205
▁song	-10.0206
▁Pal	-10.0214
▁otion	-10.0215
▁nance	-10.0238
▁hole	-10.0241
▁sw	-10.0246
▁yan	-10.0246
▁empl	-10.0247
▁nny	-10.0256
▁dance	-10.0257
resh	-10.0257
▁lit	-10.0291
▁choo	-10.0296
▁ction	-10.0311
▁entl	-10.0324
▁miles	-10.0327
▁lour	-10.0328
▁orn	-10.0329
atic	-10.0353
▁Tom	-10.037
▁ov	-10.0374
stab	-10.0386
▁odd	-10.0398
▁cau	-10.0413
by	-10.0434
▁mile	-10.0443
hey	-10.0446
▁eta	-10.0448
so	-10.0453
olv	-10.0457
▁etro	-10.0467
▁ata	-10.0471
▁rab	-10.0491
▁fail	-10.0518
▁otes	-10.052
▁nds	-10.052
▁ets	-10.0529
▁ust	-10.0536
echn	-10.0544
▁ffor	-10.0549
pond	-10.056
▁essi	-10.0564
)	-10.0567
reat	-10.0577
pl	-10.0591
▁mpt	-10.0594
▁flu	-10.0596
▁heme	-10.0603
▁ntage	-10.0606
▁ace	-10.0633
▁urr	-10.0636
▁eau	-10.0637
▁stab	-10.0637
▁isco	-10.0639
▁wave	-10.0662
▁ade	-10.0669
▁ages	-10.067
nc	-10.067
▁bio	-10.0672
iz	-10.0678
▁oes	-10.0679
▁oat	-10.0685
▁elen	-10.0687
▁cue	-10.0691
My	-10.0691
▁ubt	-10.0703
▁plane	-10.0709
▁wr	-10.0716
▁pse	-10.0723
▁mor	-10.0726
▁wed	-10.0734
▁ico	-10.0736
▁Li	-10.0752
▁lar	-10.0753
▁gger	-10.0754
▁=	-10.0765
▁outh	-10.0783
▁CEO	-10.0791
ided	-10.0801
tor	-10.0801
▁ench	-10.082
▁gle	-10.0823
▁onto	-10.0825
▁acti	-10.0827
▁amme	-10.0828
▁ift	-10.0829
▁tip	-10.0829
▁Ira	-10.0831
▁mit	-10.0844
▁olls	-10.0848
▁yo	-10.0848
▁gno	-10.0851
▁stle	-10.0857
▁racy	-10.0858
▁oin	-10.0873
▁lex	-10.0874
▁+	-10.0874
▁lleg	-10.0877
▁gna	-10.0879
▁gic	-10.088
▁nice	-10.0886
▁mote	-10.0888
mid	-10.0889
▁aj	-10.0892
▁bott	-10.0896
llec	-10.0902
um	-10.0913
ist	-10.0926
?	-10.0927
▁ife	-10.0931
▁mbi	-10.0932
▁envi	-10.0933
▁UN	-10.0938
ab	-10.0941
▁emot	-10.0944
▁cry	-10.0959
alif	-10.096
tand	-10.0961
▁nty	-10.0964
▁pm	-10.0965
▁aba	-10.0966
▁lco	-10.0968
▁twi	-10.0981
▁ora	-10.0992
▁ckets	-10.1001
▁enn	-10.1013
▁au	-10.102
elec	-10.1023
▁dow	-10.1025
▁roup	-10.1031
▁lif	-10.1034
▁Gla	-10.104
mini	-10.1055
▁ible	-10.1073
▁rally	-10.1074
▁blo	-10.1078
▁ork	-10.1089
▁hell	-10.1092
▁fix	-10.1094
▁kin	-10.1095
▁eld	-10.1103
▁Cali	-10.1108
▁chan	-10.1118
▁lec	-10.1123
▁anal	-10.1136
▁irs	-10.114
ery	-10.1142
▁arth	-10.1143
▁vet	-10.1146
ia	-10.1155
▁eva	-10.1167
▁nts	-10.1167
▁twe	-10.1173
rec	-10.1186
▁ath	-10.119
▁}	-10.1191
▁xed	-10.1201
▁opul	-10.1216
▁ntain	-10.1219
▁ahu	-10.1221
▁burn	-10.1232
▁neve	-10.1233
sist	-10.1234
▁heir	-10.1235
▁Ja	-10.125
▁ure	-10.1261
▁uri	-10.1276
▁uggle	-10.1276
▁Art	-10.1278
▁ecure	-10.1289
▁nied	-10.1296
▁axi	-10.1305
ky	-10.1306
▁ssist	-10.1309
▁neu	-10.1311
ast	-10.1315
▁stor	-10.1319
▁egr	-10.132
▁tto	-10.1321
▁ories	-10.1322
▁aim	-10.1323
▁yd	-10.1329
▁rror	-10.1335
be	-10.1335
▁del	-10.1353
▁yri	-10.137
tori	-10.1372
▁rad	-10.1375
tain	-10.1385
▁eep	-10.1391
▁ortu	-10.1408
▁kid	-10.1408
▁wag	-10.141
▁omm	-10.1412
▁Po	-10.1419
▁nton	-10.144
▁user	-10.144
▁indi	-10.1443
L	-10.1448
▁Hou	-10.1459
▁dee	-10.1473
▁os	-10.1484
▁trem	-10.1487
▁abs	-10.1497
▁hang	-10.1506
▁uel	-10.1507
tant	-10.1507
In	-10.1514
▁ater	-10.1519
▁ees	-10.152
▁elt	-10.1524
▁mas	-10.1533
▁gate	-10.1535
▁ueen	-10.1541
mo	-10.1551
▁lton	-10.1553
▁phy	-10.1553
▁Ob	-10.1557
▁eason	-10.156
nves	-10.1565
▁Sir	-10.1573
▁die	-10.1588
▁olo	-10.16
▁pil	-10.1613
▁lter	-10.1614
▁fre	-10.1614
▁ybe	-10.1625
xpec	-10.1638
eath	-10.1646
\	-10.165
▁pop	-10.1662
▁ug	-10.1674
▁ury	-10.168
▁feet	-10.1684
▁cle	-10.1707
▁gua	-10.1715
▁urces	-10.1716
▁Sc	-10.1737
▁style	-10.1737
▁ore	-10.174
▁ali	-10.1741
do	-10.1742
▁oys	-10.1749
▁eter	-10.1757
▁ogn	-10.1761
▁Mos	-10.1765
▁lau	-10.1768
▁sten	-10.1776
▁Af	-10.1793
▁mar	-10.1795
▁lov	-10.18
da	-10.1809
▁prop	-10.1811
▁ged	-10.1819
0%	-10.1822
▁tist	-10.1837
▁­	-10.1845
▁Am	-10.1866
▁cow	-10.187
▁dies	-10.1882
▁ys	-10.1895
▁awar	-10.1903
ns	-10.1906
esi	-10.1907
▁elect	-10.1909
ac	-10.1914
▁Mat	-10.1923
▁sary	-10.1933
▁endo	-10.1934
eat	-10.1941
▁eck	-10.1947
▁Scott	-10.1949
▁ache	-10.1971
▁aci	-10.1974
▁geo	-10.1983
▁dul	-10.1984
▁azi	-10.1992
▁weet	-10.2011
▁oph	-10.2023
▁wan	-10.2028
▁ants	-10.2028
▁ames	-10.2033
▁dri	-10.2036
▁Val	-10.205
▁troo	-10.2054
pped	-10.2061
ul	-10.2068
▁wind	-10.2076
▁hic	-10.2076
ga	-10.208
▁elle	-10.2084
▁Act	-10.2085
▁ardi	-10.2087
ca	-10.2093
M	-10.2099
▁fec	-10.2112
▁ken	-10.2118
new	-10.2119
arry	-10.2122
▁ceed	-10.2136
▁flow	-10.2138
▁ego	-10.2139
▁mma	-10.2147
▁ala	-10.215
▁hill	-10.2157
▁Cap	-10.216
▁eca	-10.217
qui	-10.2175
▁ommi	-10.2182
nly	-10.2182
▁Bi	-10.2187
▁duc	-10.2187
▁tab	-10.2188
▁ref	-10.219
▁accu	-10.219
▁opin	-10.2194
nder	-10.2197
eve	-10.2202
▁arr	-10.2202
▁info	-10.2207
▁ker	-10.2208
eagu	-10.2219
▁oral	-10.2222
of	-10.2223
▁tly	-10.2223
lanc	-10.2224
▁Mac	-10.2232
▁rect	-10.2237
▁ari	-10.2241
▁exi	-10.2242
▁uma	-10.2244
▁ute	-10.2254
▁ctua	-10.2256
used	-10.2256
▁erci	-10.2276
arli	-10.2276
tinu	-10.2278
▁lla	-10.2282
▁kh	-10.2283
▁Ku	-10.2285
▁asons	-10.229
▁ssel	-10.229
▁dg	-10.2292
▁Gre	-10.2295
▁ulat	-10.2306
▁ndy	-10.2319
▁cond	-10.2319
▁vac	-10.2323
▁quo	-10.2323
▁stly	-10.2337
prov	-10.234
▁uch	-10.2348
▁imag	-10.2353
▁obi	-10.2357
▁asta	-10.236
▁oday	-10.2369
▁ani	-10.2373
▁ja	-10.238
▁soci	-10.2386
▁houl	-10.2386
ylo	-10.2395
▁olid	-10.2398
▁logy	-10.2404
▁tus	-10.2408
▁stil	-10.2412
▁rose	-10.2417
▁gage	-10.2418
▁reas	-10.2423
▁nute	-10.2426
▁oot	-10.243
▁ave	-10.2433
▁howe	-10.2434
▁hen	-10.2439
▁ler	-10.2445
iti	-10.2446
▁lb	-10.2454
▁oy	-10.2456
eep	-10.2464
▁pan	-10.2468
▁overs	-10.247
▁ampl	-10.2472
▁mir	-10.2477
▁urk	-10.2483
▁tual	-10.2484
▁Cal	-10.2489
▁ustin	-10.2506
▁stone	-10.2514
▁zone	-10.2516
▁apped	-10.2519
▁hain	-10.2523
{	-10.2534
her	-10.2535
▁noo	-10.2536
▁laws	-10.2536
▁fes	-10.2538
▁ese	-10.254
nter	-10.2547
▁21	-10.255
▁bso	-10.255
▁Ge	-10.2553
▁ya	-10.2554
▁19	-10.2557
▁mat	-10.2575
▁rp	-10.2577
▁rus	-10.2578
▁pid	-10.2583
▁sum	-10.2586
▁nnu	-10.2589
▁rop	-10.259
▁q	-10.259
nior	-10.2592
▁norm	-10.2598
▁stin	-10.2608
▁dat	-10.261
▁sl	-10.2615
▁verse	-10.2615
▁rish	-10.2622
▁rill	-10.2625
▁osh	-10.2656
ampa	-10.2658
▁mob	-10.266
▁mend	-10.266
▁tur	-10.2691
▁hol	-10.2692
▁tian	-10.2717
▁ko	-10.2719
▁Port	-10.2724
▁oc	-10.2729
▁kn	-10.2745
▁ounds	-10.2758
▁br	-10.2761
▁El	-10.2764
▁impa	-10.2765
▁ells	-10.2765
ncou	-10.2772
ough	-10.2778
ude	-10.2782
▁nded	-10.2783
▁rone	-10.2787
▁Ben	-10.28
▁Fra	-10.282
▁apo	-10.2831
nsum	-10.2845
eing	-10.2857
▁dor	-10.287
▁eir	-10.2873
▁gns	-10.2876
tanc	-10.2879
▁pr	-10.2905
▁22	-10.2912
▁uses	-10.2917
▁batt	-10.2921
▁Wil	-10.2927
▁Why	-10.2927
▁Ali	-10.2947
▁ndon	-10.2963
▁rize	-10.2967
▁ef	-10.2973
▁lean	-10.2976
▁lev	-10.2976
▁gs	-10.299
ult	-10.2993
▁Bill	-10.3009
▁uff	-10.3025
▁tep	-10.3028
▁arms	-10.3036
▁rand	-10.3039
▁broa	-10.3051
▁mou	-10.3058
▁rea	-10.3066
▁bus	-10.3068
▁bid	-10.3081
sp	-10.3095
emi	-10.3097
▁udge	-10.3125
▁meth	-10.3128
▁rave	-10.3147
▁bert	-10.3148
▁ware	-10.315
▁iers	-10.3155
▁file	-10.3162
▁zen	-10.3165
logy	-10.3168
▁Poli	-10.3168
▁guy	-10.317
▁cript	-10.3175
▁ddit	-10.3179
cit	-10.3184
▁ib	-10.3185
urge	-10.3186
▁enda	-10.3198
▁sit	-10.32
▁cla	-10.3202
▁iga	-10.3224
inia	-10.3228
▁alit	-10.3232
▁rchi	-10.3246
▁vert	-10.3249
▁tori	-10.325
▁ella	-10.3275
▁ledg	-10.3275
▁ests	-10.3286
▁rug	-10.3291
mai	-10.3298
▁ero	-10.33
▁wins	-10.3306
▁ooks	-10.3317
▁till	-10.3323
▁PM	-10.3335
▁nak	-10.3338
▁prec	-10.3344
▁ckle	-10.3349
▁larg	-10.3359
▁ize	-10.3362
▁denc	-10.3384
ft	-10.34
▁shar	-10.3405
nvir	-10.3406
▁desp	-10.3406
▁Pu	-10.3418
▁sy	-10.3419
▁rra	-10.3429
▁ang	-10.3437
▁roo	-10.3441
▁exte	-10.345
▁ular	-10.3456
▁Is	-10.3459
▁eets	-10.3476
▁Yet	-10.3479
cal	-10.348
▁rev	-10.3491
try	-10.3497
▁mmer	-10.3497
▁nde	-10.3504
ways	-10.3507
▁vice	-10.3512
▁ka	-10.3543
▁conf	-10.3548
▁avi	-10.355
▁mmit	-10.3554
▁ateg	-10.3557
4	-10.356
▁tery	-10.3562
▁log	-10.3564
▁Gi	-10.3575
▁farm	-10.3581
▁eve	-10.3581
▁cul	-10.3582
ief	-10.3596
em	-10.3602
▁hara	-10.3603
▁sman	-10.3606
▁ould	-10.3609
▁nis	-10.3613
stra	-10.3615
we	-10.3625
▁60	-10.3634
▁osp	-10.3643
ong	-10.3645
▁mph	-10.3649
able	-10.3653
ote	-10.3653
▁lls	-10.3656
▁Dep	-10.3663
▁lig	-10.3665
▁fru	-10.3668
ans	-10.3675
▁stea	-10.3682
▁ited	-10.3686
▁essed	-10.369
▁sun	-10.3691
▁enio	-10.3692
xper	-10.3699
▁Vic	-10.3707
▁den	-10.3719
▁lum	-10.372
▁vent	-10.3729
P	-10.373
▁Up	-10.3735
▁Le	-10.3756
▁toria	-10.3772
▁Cu	-10.3779
▁tiva	-10.378
▁dian	-10.3786
▁ori	-10.3802
▁MP	-10.3804
▁ssed	-10.3804
rust	-10.3808
▁mble	-10.3824
▁icked	-10.3826
are	-10.3828
ven	-10.3829
▁yle	-10.3831
▁ub	-10.3836
▁ovid	-10.3842
▁xu	-10.3844
▁lies	-10.3847
sc	-10.3854
▁iller	-10.3854
▁dvan	-10.3866
▁vor	-10.3874
▁ello	-10.3884
▁tim	-10.3887
▁loan	-10.3889
▁flat	-10.3894
▁ense	-10.3897
ian	-10.3899
▁ink	-10.3907
▁una	-10.3913
▁uk	-10.3914
ORE	-10.3914
▁iden	-10.392
▁hef	-10.3921
▁apit	-10.3925
▁visi	-10.393
▁rade	-10.3931
ili	-10.3938
▁ends	-10.3957
▁iver	-10.3957
▁anni	-10.3969
▁load	-10.3978
▁ruit	-10.3983
▁ich	-10.3984
▁thu	-10.3995
▁ris	-10.4001
ie	-10.4002
▁hab	-10.4003
▁ube	-10.4005
▁dge	-10.4012
▁rett	-10.405
▁arl	-10.4055
cked	-10.4055
▁tta	-10.4065
▁leng	-10.4079
▁Ken	-10.4079
▁istic	-10.4083
▁iP	-10.4083
ym	-10.4089
▁squ	-10.4099
▁rape	-10.411
trik	-10.4112
▁cide	-10.4116
▁iding	-10.4119
▁inger	-10.412
▁nus	-10.4132
▁ange	-10.4144
▁shes	-10.4152
ak	-10.4159
▁aga	-10.416
▁rge	-10.4173
▁acy	-10.4183
▁wers	-10.4191
▁lend	-10.4206
acti	-10.4207
▁nz	-10.4208
▁acci	-10.4209
▁ser	-10.4217
▁bru	-10.4226
▁pping	-10.4236
▁hone	-10.4241
▁llie	-10.4242
T	-10.4246
▁oad	-10.4251
▁nnes	-10.4252
▁uis	-10.4254
ague	-10.4256
▁NFL	-10.4265
▁nom	-10.4267
▁eran	-10.4269
▁chel	-10.4269
▁tti	-10.4274
▁dry	-10.4281
ct	-10.4292
ig	-10.4295
▁alla	-10.43
▁eam	-10.4305
▁lief	-10.4307
ho	-10.431
not	-10.4313
▁oca	-10.4317
org	-10.4324
▁Ri	-10.4331
▁rib	-10.4331
▁minu	-10.4331
attl	-10.4335
▁entu	-10.4348
hil	-10.435
▁mist	-10.4356
ried	-10.4358
▁ndra	-10.436
tric	-10.4369
▁sen	-10.4376
▁affi	-10.4386
▁yed	-10.4388
▁oid	-10.4389
▁rout	-10.4392
▁aster	-10.44
▁asis	-10.4408
vanc	-10.4419
ap	-10.4421
▁aches	-10.4432
urth	-10.4435
▁rob	-10.4436
ay	-10.4438
sum	-10.4447
▁hut	-10.445
▁Bar	-10.445
So	-10.4453
N	-10.4467
▁imon	-10.4469
▁ences	-10.4527
▁trong	-10.4529
6	-10.4532
▁lea	-10.4535
▁cline	-10.4541
▁hree	-10.4542
▁rav	-10.4545
▁rame	-10.4551
ity	-10.4561
▁nish	-10.4567
eiv	-10.4568
▁tens	-10.4572
▁lv	-10.4587
▁danc	-10.4591
▁Marc	-10.4592
▁usse	-10.4596
▁draft	-10.46
▁rim	-10.4605
▁ely	-10.4606
▁gli	-10.4608
▁illa	-10.4612
▁iou	-10.4614
▁incl	-10.4614
▁oom	-10.4616
▁ymp	-10.4617
ue	-10.4621
▁vs	-10.4623
▁28	-10.4627
▁che	-10.4631
▁tla	-10.4633
▁cker	-10.4633
▁ensi	-10.465
▁wn	-10.465
▁tha	-10.4652
▁los	-10.4682
▁23	-10.469
▁va	-10.4695
▁rej	-10.4707
▁ected	-10.4709
▁bur	-10.4714
▁vera	-10.4718
cien	-10.4727
▁rice	-10.4731
ex	-10.4735
▁sal	-10.4736
▁oul	-10.4737
▁scov	-10.474
▁seiz	-10.4743
rior	-10.4743
▁hau	-10.4746
ack	-10.4756
ald	-10.4758
▁€	-10.4764
▁wake	-10.4785
▁ewi	-10.4801
gr	-10.481
▁Ber	-10.4818
▁scen	-10.4818
▁Kat	-10.4822
▁assa	-10.4829
▁oud	-10.4829
▁nin	-10.4835
▁rum	-10.4856
▁rough	-10.4858
▁dic	-10.4858
▁olle	-10.4861
▁lm	-10.4879
▁romo	-10.4881
reme	-10.4882
fla	-10.4889
▁ates	-10.4898
▁27	-10.4906
est	-10.491
▁rious	-10.4913
▁stro	-10.4934
▁ans	-10.4938
▁grat	-10.4955
▁zer	-10.4959
▁uli	-10.4959
▁river	-10.4963
▁ntic	-10.498
▁mani	-10.4986
▁gap	-10.4994
▁sad	-10.4998
▁26	-10.4999
▁ipe	-10.5005
▁PA	-10.5006
▁eeds	-10.501
▁hy	-10.5014
▁ush	-10.5031
njur	-10.5031
▁kes	-10.5032
▁nimal	-10.5035
▁grab	-10.5036
rie	-10.5037
▁joy	-10.504
▁alt	-10.5048
▁chu	-10.5055
ani	-10.5057
As	-10.5059
▁trus	-10.5067
▁Bra	-10.5071
▁rati	-10.5086
▁unds	-10.5093
emed	-10.511
▁Game	-10.5116
ot	-10.5128
▁vou	-10.5131
▁forms	-10.5134
▁egg	-10.5135
use	-10.5141
▁ears	-10.5144
▁vast	-10.5147
▁ngr	-10.5158
mpor	-10.5192
▁nk	-10.5195
▁nci	-10.5196
▁anks	-10.5198
▁acked	-10.5201
rinc	-10.5208
▁ild	-10.5214
▁anta	-10.5216
▁ela	-10.5216
▁ci	-10.5219
▁ett	-10.522
▁cra	-10.5222
▁ging	-10.523
▁hai	-10.5237
▁Ru	-10.5259
▁king	-10.5259
▁heri	-10.5268
▁din	-10.5276
▁eces	-10.5276
▁ourne	-10.5289
▁mba	-10.5298
▁zens	-10.5305
▁fed	-10.5331
▁enni	-10.5336
▁ext	-10.5339
▁1.	-10.5343
▁uta	-10.5345
hing	-10.5347
▁oman	-10.5347
▁hate	-10.5348
▁leas	-10.5358
▁rick	-10.5368
▁ky	-10.5405
▁elly	-10.5406
▁tank	-10.5416
bu	-10.5418
▁orda	-10.5422
▁nie	-10.5432
gh	-10.5433
▁lap	-10.544
▁assin	-10.5447
▁rre	-10.5459
ó	-10.5462
ade	-10.5466
▁rl	-10.5477
▁ven	-10.5479
epen	-10.5479
▁eut	-10.548
▁ain	-10.5498
▁lso	-10.55
▁asion	-10.5506
▁oms	-10.5513
▁gon	-10.5518
easu	-10.5537
▁anned	-10.5539
▁sup	-10.5551
▁ypt	-10.5562
▁io	-10.557
▁cio	-10.5577
▁ij	-10.5579
▁eap	-10.5584
▁genc	-10.5605
▁marr	-10.5607
ware	-10.5617
up	-10.5633
▁lub	-10.5636
▁lari	-10.5645
ica	-10.5649
ollo	-10.5665
7	-10.5676
▁ici	-10.5695
▁eath	-10.57
▁gne	-10.5707
HS	-10.5707
pt	-10.5707
▁edia	-10.5721
▁kne	-10.5728
▁fruit	-10.5735
plie	-10.5745
▁ites	-10.5767
ts	-10.5769
▁anna	-10.5776
▁Live	-10.5779
sure	-10.5789
▁omin	-10.5796
pa	-10.5798
arri	-10.5799
▁sca	-10.5804
▁ane	-10.5805
▁hire	-10.5817
▁surge	-10.5822
3	-10.5823
▁leak	-10.5825
▁dict	-10.5828
eci	-10.583
▁edi	-10.5846
crib	-10.5855
▁é	-10.5858
OP	-10.587
for	-10.5873
ccu	-10.5874
▁voc	-10.5875
▁requ	-10.5876
▁Jam	-10.5878
▁reci	-10.5878
sa	-10.5879
▁mort	-10.5895
▁opi	-10.5896
▁Oct	-10.5897
urg	-10.5917
go	-10.5918
mplo	-10.5936
▁ava	-10.5953
▁ivity	-10.5975
▁ols	-10.6001
hem	-10.6002
▁ric	-10.6012
▁judg	-10.6015
▁imb	-10.6015
▁Who	-10.6018
▁sci	-10.6029
▁Tim	-10.6031
▁chie	-10.604
▁bol	-10.6042
▁dama	-10.6042
▁lame	-10.6046
▁ig	-10.6051
▁pie	-10.6052
▁nct	-10.6056
ers	-10.6058
▁heer	-10.6063
▁cate	-10.6066
▁alls	-10.6067
▁ea	-10.6085
K	-10.6086
▁Van	-10.6105
erna	-10.6106
NN	-10.6107
▁AFP	-10.6113
▁Bri	-10.6119
▁Angel	-10.6119
▁ody	-10.6127
▁oci	-10.6134
hara	-10.614
▁asur	-10.616
ol	-10.6163
▁lta	-10.6164
G	-10.6174
▁liz	-10.6182
▁hew	-10.6182
▁ativ	-10.6185
▁gest	-10.6188
▁ermi	-10.6189
▁atur	-10.6196
▁Str	-10.6202
▁Gene	-10.6229
▁ads	-10.6235
▁eg	-10.6235
▁note	-10.6236
▁ah	-10.624
▁wash	-10.6241
▁ym	-10.625
▁lik	-10.6251
▁cting	-10.6255
▁ppos	-10.6269
▁ombi	-10.6274
▁sume	-10.6282
▁29	-10.6285
▁lled	-10.6287
▁ilit	-10.6294
▁olic	-10.6295
▁rans	-10.6298
▁wro	-10.6298
▁nchi	-10.6301
▁oney	-10.6303
▁ena	-10.6309
tty	-10.6312
▁nha	-10.6319
▁Kan	-10.6322
▁#	-10.6339
▁irec	-10.6341
ATO	-10.6358
▁vil	-10.6359
▁wine	-10.6371
▁scape	-10.6371
▁elig	-10.6372
▁enced	-10.6375
▁ung	-10.638
▁nth	-10.6386
pris	-10.6387
▁dly	-10.6388
▁raw	-10.639
-0	-10.6393
5	-10.6398
▁Othe	-10.6405
▁lity	-10.6405
ai	-10.6412
▁elief	-10.6412
▁ewis	-10.6417
▁react	-10.6417
▁ech	-10.6418
▁ui	-10.6432
uri	-10.6444
▁pt	-10.6457
▁enny	-10.6461
▁tac	-10.6468
F	-10.6472
▁aro	-10.6485
▁rage	-10.6491
rs	-10.6514
ttl	-10.6515
▁abl	-10.6521
▁llo	-10.6529
▁swa	-10.6536
j	-10.6541
ny	-10.6542
▁ax	-10.6543
dy	-10.6555
ctur	-10.6558
▁ipa	-10.6566
▁eek	-10.6569
ding	-10.6589
▁usu	-10.6612
orma	-10.6617
▁mul	-10.6623
▁80	-10.6629
▁med	-10.663
▁Sena	-10.6633
▁arv	-10.6643
▁augh	-10.6652
▁pment	-10.6653
▁ams	-10.6668
▁hum	-10.6686
mic	-10.6688
ined	-10.6692
▁kil	-10.6694
▁ond	-10.6702
▁core	-10.6706
▁illy	-10.6708
▁eni	-10.6717
spi	-10.6721
ipa	-10.6726
▁lav	-10.6744
ant	-10.6777
▁rgen	-10.6781
ssu	-10.6795
▁advi	-10.6807
▁CBS	-10.681
O	-10.681
ն	-10.6812
▁pin	-10.6822
▁rink	-10.6833
▁esti	-10.684
▁GB	-10.6872
▁cia	-10.688
ang	-10.6886
▁epti	-10.6887
▁hydr	-10.6904
▁tum	-10.6932
▁sso	-10.6935
▁amm	-10.6955
▁tea	-10.6957
▁ende	-10.6969
▁reg	-10.6972
any	-10.6976
▁iles	-10.698
▁mber	-10.6983
ces	-10.6984
▁31	-10.6986
▁hris	-10.6987
▁nting	-10.6988
asi	-10.6991
▁ongs	-10.7009
▁lie	-10.7019
▁mari	-10.703
▁ario	-10.7037
▁waste	-10.7043
▁ip	-10.7047
▁Ji	-10.7073
▁bil	-10.7076
▁lying	-10.7077
ob	-10.708
▁scu	-10.7085
▁trol	-10.7098
▁ota	-10.7099
▁tree	-10.7114
▁aria	-10.7115
▁ein	-10.7119
▁pers	-10.7126
▁bell	-10.7131
▁lva	-10.7142
▁rsh	-10.7142
▁rior	-10.7152
▁las	-10.7156
▁och	-10.7174
▁eing	-10.7181
▁eaten	-10.7183
▁acr	-10.7184
▁arah	-10.7184
▁medi	-10.7198
▁rust	-10.72
tur	-10.72
▁fro	-10.7208
▁uter	-10.7213
▁Met	-10.7225
nk	-10.7225
▁def	-10.7231
▁lers	-10.7236
▁Jr	-10.7247
▁USA	-10.7249
▁veni	-10.725
▁Ou	-10.7254
▁pho	-10.7257
▁bout	-10.7271
▁wns	-10.7279
▁35	-10.7281
▁defi	-10.7286
▁imi	-10.7296
age	-10.7314
▁lib	-10.7315
▁trac	-10.7316
▁eu	-10.7324
▁af	-10.734
▁wond	-10.7344
▁spon	-10.7365
▁len	-10.7371
▁ils	-10.7375
▁sts	-10.7391
tim	-10.7393
▁Rs	-10.7398
▁arry	-10.74
▁lake	-10.7402
-1	-10.7404
▁tabl	-10.7404
▁lad	-10.7405
▁cre	-10.7416
▁Ram	-10.7416
▁oug	-10.7417
20	-10.7417
▁70	-10.7419
▁ager	-10.7421
▁hase	-10.7424
▁nsi	-10.7432
uty	-10.7445
▁ved	-10.7446
ger	-10.7452
▁rd	-10.7457
▁alk	-10.7461
▁oking	-10.7469
ssio	-10.7474
9	-10.7476
otb	-10.7478
▁McG	-10.7489
▁ards	-10.7503
▁sted	-10.7513
▁anic	-10.7516
▁ror	-10.752
▁iar	-10.7521
▁els	-10.7523
▁Sen	-10.7529
▁rson	-10.7539
▁lon	-10.754
uti	-10.7553
▁ept	-10.756
ana	-10.7563
▁rope	-10.7574
▁ette	-10.7581
▁ppe	-10.759
▁esi	-10.76
riv	-10.7601
▁ocate	-10.7605
▁tine	-10.7607
▁hore	-10.7636
▁Ky	-10.7639
▁dua	-10.7645
rew	-10.7652
BA	-10.7659
▁Vo	-10.7666
▁Vlad	-10.7667
▁Fo	-10.767
▁90	-10.7675
▁ption	-10.7692
▁rie	-10.7692
entu	-10.7693
▁MPs	-10.7701
ommi	-10.7704
▁agre	-10.7724
▁rine	-10.7734
qu	-10.7743
▁iro	-10.7748
▁yl	-10.7773
▁nut	-10.7774
▁ngers	-10.7775
▁ntee	-10.7776
▁ira	-10.7779
mpro	-10.7781
riva	-10.7784
ima	-10.7787
▁Som	-10.7788
▁nson	-10.7792
▁Get	-10.78
▁ald	-10.7805
▁duty	-10.7806
▁bai	-10.7807
R	-10.7811
▁sib	-10.7816
▁Lee	-10.7819
▁loc	-10.7822
▁Pe	-10.7825
▁unc	-10.7828
▁eport	-10.7832
▁rang	-10.7834
▁Jac	-10.7841
▁tled	-10.7858
▁ete	-10.7866
▁vic	-10.7869
▁nn	-10.7872
unc	-10.7873
ign	-10.7876
▁gni	-10.7879
▁II	-10.7901
▁Kim	-10.7902
houl	-10.7909
▁mode	-10.7912
▁ual	-10.7933
▁nne	-10.7943
ok	-10.7955
▁nga	-10.7962
▁oli	-10.7974
NP	-10.7977
▁ssi	-10.7982
▁roof	-10.7985
▁aire	-10.7994
▁gency	-10.7995
▁mag	-10.8004
▁ria	-10.8004
▁rme	-10.8013
▁rter	-10.8015
▁rint	-10.802
▁oo	-10.8038
ba	-10.8042
▁erna	-10.8046
▁orri	-10.8059
▁uce	-10.807
▁COVID	-10.8075
▁rby	-10.8088
▁2.	-10.8109
▁esh	-10.8116
▁Bla	-10.812
ndi	-10.8121
▁mail	-10.8131
▁hoc	-10.8162
▁amily	-10.8164
▁fl	-10.8175
▁navi	-10.8177
if	-10.8187
▁deni	-10.819
▁nb	-10.8202
▁ku	-10.8205
▁sey	-10.8206
▁ids	-10.822
▁faci	-10.8224
▁cab	-10.8232
▁45	-10.8237
▁ica	-10.8239
▁Ham	-10.8252
ford	-10.8255
▁onger	-10.8263
▁tock	-10.8268
▁vant	-10.8287
▁fest	-10.8293
▁scal	-10.8294
▁gang	-10.8294
▁ason	-10.8298
▁arch	-10.832
▁keen	-10.8326
▁smo	-10.8333
▁bbi	-10.8352
ging	-10.8368
▁stru	-10.8368
here	-10.8369
▁dr	-10.8372
tely	-10.8374
▁ayl	-10.8374
▁yn	-10.838
▁http	-10.8383
▁shoo	-10.8384
▁Nor	-10.8407
ned	-10.8416
▁html	-10.8427
8	-10.8449
▁dex	-10.8451
▁Tru	-10.8463
▁rom	-10.8464
eces	-10.8474
▁olli	-10.8486
▁oyed	-10.8488
▁ked	-10.8489
▁rena	-10.8491
▁Fran	-10.8492
▁Tha	-10.8503
▁arre	-10.851
▁rma	-10.851
▁lands	-10.8511
▁error	-10.8512
▁RT	-10.8512
▁ander	-10.8523
▁ngs	-10.8528
▁inner	-10.8534
▁unter	-10.8536
▁abha	-10.8573
▁Sp	-10.8577
▁hor	-10.8581
▁zed	-10.8582
▁ffs	-10.859
▁trees	-10.8596
hu	-10.8602
▁oard	-10.8606
▁vid	-10.8624
▁ep	-10.8627
▁dest	-10.8632
▁sel	-10.8639
▁tiny	-10.8643
▁arts	-10.8649
▁feed	-10.8652
▁bon	-10.8653
▁vit	-10.8654
▁eader	-10.8669
▁ats	-10.8687
▁enu	-10.8694
▁rti	-10.87
▁hout	-10.8713
nal	-10.8732
▁fees	-10.8736
▁wal	-10.874
▁taste	-10.874
ecia	-10.8742
▁iness	-10.8743
▁iser	-10.8746
▁ents	-10.8758
▁OK	-10.8764
▁ayne	-10.8773
▁mps	-10.8782
▁esla	-10.8783
▁ivi	-10.8786
empt	-10.879
▁ays	-10.8796
▁rty	-10.8797
▁km	-10.8803
▁diet	-10.8808
mor	-10.881
▁awn	-10.8812
H	-10.8812
▁ces	-10.8812
▁inco	-10.8815
end	-10.8825
▁yes	-10.8832
▁yb	-10.8836
▁ript	-10.8839
▁chol	-10.884
etty	-10.884
▁supp	-10.886
▁ngla	-10.8864
▁sco	-10.8867
ek	-10.8874
▁ilm	-10.8876
▁uc	-10.8889
▁Indi	-10.889
▁afah	-10.8897
▁ltim	-10.8899
▁afe	-10.8899
▁ller	-10.8903
▁aker	-10.8922
▁pha	-10.8924
▁ale	-10.8929
▁anim	-10.8929
aid	-10.8949
▁ution	-10.896
▁eag	-10.8963
nua	-10.8964
ric	-10.897
▁mys	-10.8972
▁osed	-10.8975
▁lind	-10.8979
form	-10.8992
▁rel	-10.8993
▁hm	-10.9001
ka	-10.9006
▁tured	-10.9011
▁knee	-10.9016
▁hio	-10.9016
▁idi	-10.9017
▁anag	-10.9029
▁hro	-10.9037
▁nly	-10.9054
▁siz	-10.9058
é	-10.9059
▁tears	-10.9061
▁chae	-10.9065
my	-10.9074
▁fat	-10.9077
aso	-10.9093
▁enti	-10.9098
▁nders	-10.9099
▁glo	-10.911
▁rrie	-10.9127
wa	-10.913
pula	-10.9147
V	-10.9148
egal	-10.9149
▁wned	-10.9152
▁tball	-10.9161
▁llis	-10.9165
▁eder	-10.9175
til	-10.9177
▁pel	-10.9179
▁indu	-10.918
▁nstr	-10.918
▁coun	-10.9183
▁fee	-10.9188
nag	-10.92
NBC	-10.9203
▁hra	-10.9206
▁ropo	-10.9221
▁lass	-10.9233
▁aya	-10.9246
▁3.	-10.925
▁Cor	-10.9258
W	-10.9264
▁soft	-10.9271
▁prom	-10.9273
▁amer	-10.9275
elv	-10.9291
▁eed	-10.9298
sio	-10.9314
▁abu	-10.9315
▁Tok	-10.9315
▁ron	-10.9327
▁tag	-10.9327
▁merg	-10.9328
▁posit	-10.9341
▁enj	-10.9348
ary	-10.9354
▁ours	-10.936
▁enci	-10.9369
▁aur	-10.9371
tial	-10.9373
ish	-10.9383
▁romi	-10.9383
▁ouch	-10.9393
▁tar	-10.9398
joy	-10.9401
▁nick	-10.9413
▁lence	-10.9416
ari	-10.942
▁icul	-10.9427
▁usic	-10.9433
▁oine	-10.9443
▁rst	-10.9446
▁elev	-10.9462
▁leag	-10.947
otco	-10.9473
▁nou	-10.9476
▁carr	-10.9479
▁overt	-10.9488
▁owa	-10.9489
ice	-10.9495
▁noc	-10.9499
▁Pol	-10.9505
▁ast	-10.9508
▁onne	-10.951
▁siv	-10.9519
▁lp	-10.9524
▁tap	-10.9526
▁ener	-10.9529
▁reb	-10.9542
Q	-10.9546
▁erri	-10.955
▁ji	-10.9556
▁uit	-10.9559
▁als	-10.9563
▁tein	-10.9575
▁riv	-10.958
▁pto	-10.959
▁34	-10.959
ded	-10.9597
▁36	-10.9606
▁rr	-10.962
▁cific	-10.9621
▁ches	-10.9623
▁rg	-10.9632
art	-10.9634
▁grave	-10.9636
▁nves	-10.9648
▁inema	-10.966
▁pub	-10.9663
▁iam	-10.9668
▁erty	-10.9683
▁usa	-10.9689
▁flee	-10.9689
ide	-10.9695
▁eak	-10.9705
▁gains	-10.9708
▁ei	-10.9714
▁Max	-10.9718
stom	-10.9729
▁desh	-10.9755
▁ocie	-10.9762
▁God	-10.9773
▁iet	-10.9774
earn	-10.9783
▁eti	-10.9784
▁otte	-10.9784
▁weat	-10.9785
ara	-10.9787
ecu	-10.9798
ug	-10.98
▁ա	-10.9808
▁rmo	-10.9826
▁ms	-10.9826
▁tle	-10.9831
▁sting	-10.9844
▁ek	-10.9845
▁spa	-10.9862
▁irm	-10.9865
▁ugh	-10.9869
▁nam	-10.9923
▁rren	-10.9925
▁4.	-10.9956
▁ux	-10.996
▁heese	-10.9966
▁ingh	-10.9972
▁ber	-10.9973
▁FBI	-10.9981
rigi	-10.999
▁Text	-10.9992
cov	-10.9999
▁ITV	-11.0001
▁omet	-11.0006
▁teri	-11.0021
▁ime	-11.0026
fa	-11.0031
med	-11.0033
▁tie	-11.0043
▁fatal	-11.0044
erri	-11.0052
▁ova	-11.0057
▁Tri	-11.007
To	-11.0086
▁isit	-11.0091
▁BST	-11.0093
▁vir	-11.0096
5%	-11.0097
▁homa	-11.0103
▁Xi	-11.0116
▁hort	-11.0118
pent	-11.0119
▁epp	-11.0126
▁rary	-11.014
▁tall	-11.014
▁irl	-11.0147
1,	-11.0152
▁nline	-11.0155
▁Tre	-11.0156
▁eler	-11.0178
tr	-11.0185
va	-11.0194
▁erem	-11.0196
▁oma	-11.0202
▁rdo	-11.0203
▁anne	-11.0203
ster	-11.0206
lect	-11.0208
▁agu	-11.0213
▁ield	-11.0215
▁ott	-11.0217
▁mal	-11.0223
▁reak	-11.0229
ese	-11.0254
lima	-11.0255
▁eba	-11.0262
▁Cam	-11.0264
▁loa	-11.0269
▁yth	-11.0275
▁Off	-11.0278
▁ittle	-11.0289
urd	-11.0297
▁rip	-11.0298
▁mmed	-11.0299
ance	-11.0302
▁enry	-11.0302
▁econ	-11.0307
▁utin	-11.0312
king	-11.0315
▁rts	-11.0321
▁udd	-11.0323
▁ank	-11.0329
No	-11.0342
▁Kh	-11.0345
▁ubb	-11.0348
▁sam	-11.035
▁ind	-11.0352
▁Tro	-11.036
▁kle	-11.0366
▁rin	-11.0375
▁cid	-11.0386
▁ups	-11.0387
-	-11.0391
▁sena	-11.0407
▁cus	-11.0413
▁ailed	-11.0413
▁aura	-11.0413
▁edu	-11.0415
▁rem	-11.0417
▁neral	-11.0418
▁meat	-11.042
▁twist	-11.0422
gag	-11.0428
▁Au	-11.0434
▁lt	-11.0443
lop	-11.0449
▁ram	-11.0456
▁ommu	-11.0456
tary	-11.0465
ilit	-11.0473
▁rga	-11.049
▁tho	-11.0494
▁ps	-11.0495
▁dan	-11.0507
▁ndo	-11.0521
▁ethi	-11.0527
▁deny	-11.0536
▁meal	-11.0537
▁aper	-11.0539
▁emo	-11.0547
ondi	-11.0551
▁ila	-11.0552
▁otel	-11.059
les	-11.0593
▁osa	-11.0598
▁thes	-11.0599
▁nior	-11.0599
▁iron	-11.061
▁GP	-11.0611
▁Cro	-11.0613
pe	-11.0616
▁wei	-11.0629
▁mpan	-11.0631
Id	-11.0645
lain	-11.0663
▁$1	-11.0665
7,	-11.0669
revi	-11.0675
▁vot	-11.0682
▁grid	-11.069
ling	-11.0694
ee	-11.0697
▁orm	-11.0702
▁onl	-11.0747
▁dyn	-11.0754
▁ilia	-11.0798
▁ej	-11.08
gger	-11.0802
▁abor	-11.0811
▁oste	-11.0814
▁float	-11.0819
▁oft	-11.0821
▁bet	-11.0824
▁Oh	-11.084
▁bea	-11.0844
ley	-11.0855
▁halt	-11.0858
▁nist	-11.087
ya	-11.0871
nima	-11.0875
▁nergy	-11.0875
▁ined	-11.0877
▁rke	-11.0885
8,	-11.0896
▁itia	-11.0898
▁mill	-11.09
▁ored	-11.0905
▁rv	-11.0907
▁Ph	-11.0914
▁aff	-11.0925
▁ves	-11.0926
▁Bay	-11.0929
otal	-11.0933
min	-11.0945
▁wel	-11.0969
▁ndar	-11.0974
▁gym	-11.0999
▁aiti	-11.1002
od	-11.102
▁sin	-11.1021
▁nab	-11.1023
▁dd	-11.1032
ood	-11.1043
cou	-11.1049
pm	-11.105
bour	-11.1058
all	-11.1071
rt	-11.1072
▁atm	-11.1079
usto	-11.1081
▁og	-11.1091
ward	-11.1091
▁sand	-11.1099
▁poo	-11.1111
▁eem	-11.1114
▁gel	-11.1137
aims	-11.1142
esc	-11.1145
ա	-11.1158
▁ilet	-11.1158
▁erge	-11.1171
▁merc	-11.1199
▁tweet	-11.1204
▁33	-11.1204
▁ndl	-11.1208
▁allo	-11.1213
Y	-11.1218
rri	-11.1219
▁cca	-11.122
▁blin	-11.1225
▁eigh	-11.1228
▁hea	-11.1236
▁tun	-11.1241
▁dol	-11.1244
▁conv	-11.1245
▁eh	-11.1249
oper	-11.1259
▁FA	-11.1267
▁gani	-11.1267
▁ctu	-11.127
ovie	-11.128
▁uti	-11.1283
tt	-11.1302
▁wav	-11.1304
▁ppen	-11.1326
▁eav	-11.1336
oo	-11.1343
▁eves	-11.1349
▁www	-11.1359
▁radi	-11.1368
▁bul	-11.137
mpar	-11.1371
▁aug	-11.1372
▁tape	-11.1376
▁tale	-11.138
▁tack	-11.1384
▁Jon	-11.139
tha	-11.1399
▁atie	-11.1399
▁eph	-11.1448
▁wk	-11.146
▁fie	-11.1468
▁unk	-11.1477
play	-11.1482
▁5.	-11.1489
▁ndle	-11.149
▁llin	-11.1523
▁adi	-11.1527
▁ann	-11.153
ming	-11.153
▁nfor	-11.1534
▁mpli	-11.1537
▁ienc	-11.1541
▁rated	-11.155
▁eri	-11.1553
▁mper	-11.1554
ype	-11.157
rem	-11.1579
▁Men	-11.158
▁32	-11.1582
At	-11.1591
▁pta	-11.1591
!	-11.1596
uild	-11.1601
▁Ya	-11.1608
▁rlo	-11.1615
▁ox	-11.1622
apo	-11.1627
▁7.	-11.163
▁rive	-11.1639
▁48	-11.1647
fen	-11.1648
ner	-11.1653
ix	-11.1658
▁raft	-11.1662
▁Oc	-11.1665
▁ttl	-11.1666
▁lwa	-11.1671
▁az	-11.1679
▁thers	-11.1683
▁dv	-11.1688
sted	-11.1692
▁wire	-11.1702
▁ayer	-11.1705
pec	-11.1706
▁uic	-11.1708
▁aine	-11.1708
▁mance	-11.171
▁rb	-11.1715
▁orne	-11.1718
▁ois	-11.172
led	-11.1723
▁tise	-11.1729
▁vege	-11.1738
▁gay	-11.1742
▁kl	-11.1758
▁cit	-11.1759
▁ods	-11.1761
▁aze	-11.1774
ybe	-11.1775
▁Ye	-11.1777
▁ses	-11.178
cl	-11.1785
▁lem	-11.1791
▁owe	-11.1794
▁ider	-11.1798
▁rik	-11.1801
▁ther	-11.1814
atu	-11.1824
ttac	-11.1831
▁oice	-11.1845
▁loose	-11.1845
erg	-11.1846
6,	-11.1847
▁gam	-11.1869
mp	-11.1879
ina	-11.188
▁dit	-11.1889
▁wea	-11.1905
▁lane	-11.192
rma	-11.1921
▁avy	-11.1929
vea	-11.1931
aly	-11.194
▁tart	-11.194
▁ivo	-11.1941
▁ABC	-11.1942
▁udi	-11.1942
▁iti	-11.1943
▁illi	-11.1951
▁endu	-11.1957
▁bt	-11.1965
▁7,	-11.1969
ph	-11.1991
▁olv	-11.1996
▁urs	-11.1999
▁hah	-11.2
▁emer	-11.2006
▁NH	-11.2019
▁tin	-11.203
▁oks	-11.2049
▁sati	-11.2051
onfi	-11.2058
▁omer	-11.2063
▁ania	-11.2087
▁NBC	-11.2097
▁ners	-11.2103
▁erce	-11.2123
▁ssil	-11.2127
▁ights	-11.2127
▁Va	-11.2134
▁fits	-11.2137
ard	-11.2142
ib	-11.2143
▁arro	-11.2149
▁utu	-11.215
▁olve	-11.2155
uca	-11.2155
▁andhi	-11.2158
▁reh	-11.216
▁osses	-11.2164
▁tau	-11.2165
▁hame	-11.2172
▁aut	-11.2177
▁obb	-11.2178
▁ndi	-11.2189
▁kit	-11.221
▁lone	-11.2212
2,	-11.2214
cing	-11.2233
▁plac	-11.2235
▁gear	-11.2237
▁usi	-11.2242
▁ppl	-11.2243
rien	-11.2244
▁elli	-11.2271
▁pare	-11.2281
ain	-11.2286
▁ient	-11.2289
▁tina	-11.2291
▁ubs	-11.23
▁ffi	-11.2307
vict	-11.231
os	-11.2313
▁erse	-11.2314
emai	-11.2317
▁ompl	-11.2326
▁rig	-11.2329
▁works	-11.2334
▁irc	-11.2351
llie	-11.2358
vel	-11.2362
sed	-11.2364
▁woke	-11.2382
▁Pho	-11.2391
cro	-11.2393
mmen	-11.2414
▁uto	-11.2424
▁hub	-11.2429
▁Ove	-11.2429
▁plai	-11.243
lian	-11.243
▁dish	-11.2431
▁pend	-11.2437
▁lti	-11.2445
▁anka	-11.2446
▁Wo	-11.2457
▁enge	-11.2458
▁omme	-11.2468
▁tures	-11.2472
▁roa	-11.2486
9,	-11.2493
▁300	-11.2508
tent	-11.251
▁hri	-11.251
▁rman	-11.2511
▁cks	-11.2516
▁mes	-11.2519
▁nca	-11.2521
▁IT	-11.2526
▁py	-11.2529
▁effe	-11.254
eeks	-11.2546
mmit	-11.2554
▁llia	-11.2572
era	-11.258
▁urse	-11.2581
▁alo	-11.2585
▁rni	-11.2585
▁AR	-11.2602
▁sters	-11.2603
▁ote	-11.2607
▁NASA	-11.2608
▁omi	-11.2621
▁alli	-11.2622
▁aders	-11.2623
▁ounc	-11.2629
▁edic	-11.2636
ener	-11.2648
▁nver	-11.2654
.5	-11.2654
ake	-11.2672
▁Wit	-11.2673
▁lia	-11.2676
▁IPL	-11.2678
▁ousin	-11.2684
▁enta	-11.2685
▁truc	-11.2687
▁pit	-11.2693
ddit	-11.271
▁6,	-11.2719
▁essa	-11.273
▁aka	-11.2732
ff	-11.2743
▁sity	-11.2753
▁ppo	-11.2771
ift	-11.2785
▁opp	-11.2803
gi	-11.2803
ach	-11.2806
▁lst	-11.2811
fo	-11.2816
▁GBT	-11.2877
ik	-11.2877
gio	-11.2878
▁hal	-11.2884
▁ina	-11.2885
▁Tyson	-11.2887
▁igg	-11.2892
▁ahul	-11.2893
▁arne	-11.2893
▁aca	-11.2894
▁Was	-11.2931
▁uca	-11.2934
▁laim	-11.294
▁nsion	-11.2946
▁rexi	-11.2956
llo	-11.2965
▁Fro	-11.2965
▁iber	-11.2971
rk	-11.2973
▁ldi	-11.2979
▁ppy	-11.3006
;	-11.3007
▁stal	-11.301
▁welf	-11.3011
ubli	-11.3023
▁rega	-11.3027
runk	-11.3035
▁Six	-11.3051
▁sse	-11.3057
▁ampa	-11.306
▁mple	-11.3068
ose	-11.3083
▁gust	-11.3093
▁hush	-11.3094
▁roc	-11.3113
▁ntal	-11.312
▁37	-11.3122
ort	-11.3125
▁osta	-11.3126
ef	-11.314
side	-11.3144
▁ati	-11.3146
▁bloc	-11.3179
ical	-11.32
▁veri	-11.3203
▁elic	-11.3218
▁awa	-11.322
BC	-11.3232
▁App	-11.3233
▁rtu	-11.3241
▁EV	-11.3248
▁Pet	-11.325
▁hak	-11.3272
▁dig	-11.328
▁dub	-11.3286
▁uro	-11.3287
▁owd	-11.3292
▁vict	-11.3296
▁mall	-11.3309
▁tty	-11.3314
▁75	-11.333
▁pl	-11.3334
▁Ev	-11.3352
lip	-11.3356
▁orp	-11.3361
▁zi	-11.3365
▁ddi	-11.3373
▁othe	-11.3374
▁Spe	-11.3375
eau	-11.3377
▁hings	-11.3379
▁uthe	-11.3382
lt	-11.3388
▁GDP	-11.339
▁haw	-11.3394
▁iev	-11.3397
anch	-11.341
▁za	-11.3419
▁JD	-11.342
▁sibl	-11.3426
▁pric	-11.3429
▁slo	-11.3438
▁kel	-11.3451
▁wic	-11.3469
▁MT	-11.3481
well	-11.3495
▁ordon	-11.3508
▁oop	-11.3524
▁raig	-11.3525
▁eel	-11.3531
▁Ten	-11.357
▁Fe	-11.357
▁duo	-11.3572
▁unda	-11.3578
▁38	-11.3578
▁cat	-11.359
▁eans	-11.3595
▁sham	-11.3598
▁lime	-11.36
▁CCTV	-11.3611
▁tom	-11.3613
▁ece	-11.3613
▁Ul	-11.3622
▁pula	-11.3629
▁lobby	-11.3638
.3	-11.3642
ost	-11.3645
▁elg	-11.3645
▁uth	-11.3648
▁egal	-11.3651
▁osi	-11.3665
▁emen	-11.3666
▁bal	-11.3677
▁tres	-11.3683
▁tan	-11.3686
▁rno	-11.3692
▁hero	-11.3694
▁roy	-11.3709
▁rah	-11.3713
ght	-11.3716
▁Ta	-11.372
▁cien	-11.3729
▁ras	-11.3733
eri	-11.3733
▁ews	-11.3733
▁rot	-11.3737
▁sper	-11.3763
ous	-11.3767
▁1,	-11.3767
ite	-11.3768
▁dist	-11.3775
▁igge	-11.3775
▁mmon	-11.3786
mmon	-11.3786
hya	-11.3801
▁Out	-11.3804
▁elc	-11.3826
▁urf	-11.3862
▁pati	-11.3863
▁Har	-11.3872
▁Roy	-11.3879
▁melt	-11.3884
▁ops	-11.3885
▁dash	-11.3896
▁hari	-11.3898
gue	-11.3899
tuni	-11.3903
▁onsu	-11.3911
▁glad	-11.3911
▁eers	-11.3919
▁egan	-11.3923
▁hest	-11.3943
▁inds	-11.3951
▁urd	-11.3952
▁tali	-11.3959
▁hunt	-11.3962
▁triu	-11.3973
ail	-11.3987
▁emed	-11.3997
▁map	-11.4004
▁veh	-11.4008
riti	-11.4033
▁mont	-11.4034
▁DC	-11.405
▁eeded	-11.4054
▁utt	-11.4054
▁Fu	-11.406
▁6.	-11.4062
▁itz	-11.4077
lla	-11.4082
▁ghter	-11.4126
▁Lu	-11.4127
▁bling	-11.4127
eak	-11.4133
▁pou	-11.4141
▁Law	-11.4143
▁Part	-11.4146
▁stem	-11.4148
▁rui	-11.4154
▁ncre	-11.4164
▁attle	-11.4174
▁usion	-11.4176
▁ndr	-11.4178
moc	-11.4187
▁teel	-11.4196
ki	-11.4206
▁Blo	-11.4235
▁ibe	-11.4247
▁hanc	-11.4258
▁irr	-11.4269
▁echn	-11.4271
▁lc	-11.4272
▁lign	-11.4277
▁lah	-11.4294
▁omo	-11.4298
gu	-11.4304
▁diti	-11.4307
▁esc	-11.4317
less	-11.4323
ecom	-11.4326
lean	-11.4347
▁ու	-11.4348
▁een	-11.4355
▁tries	-11.436
▁42	-11.4366
▁casi	-11.4375
▁cco	-11.4387
▁repa	-11.4392
▁65	-11.4399
▁LA	-11.4401
▁egio	-11.4405
▁oga	-11.4411
▁ibil	-11.443
ord	-11.444
▁bat	-11.4445
▁iab	-11.4446
▁itt	-11.4448
▁ix	-11.4451
▁bie	-11.4462
▁riend	-11.4464
▁vary	-11.4465
▁ordi	-11.4469
bo	-11.4469
50	-11.4471
ear	-11.4473
oke	-11.4488
▁grim	-11.4489
▁rdl	-11.449
▁rlie	-11.4492
sk	-11.4494
▁quar	-11.4499
▁Nat	-11.4501
▁magi	-11.4507
▁teeth	-11.4518
za	-11.452
▁sid	-11.4521
▁spo	-11.4528
▁egi	-11.4532
▁villa	-11.4534
3,	-11.4536
▁ckl	-11.4542
▁ame	-11.4547
▁Za	-11.4577
▁bac	-11.4584
▁aste	-11.4595
du	-11.46
▁$5	-11.4605
▁urag	-11.4605
▁lse	-11.4642
ց	-11.4643
▁vern	-11.4644
▁org	-11.4646
▁bs	-11.4651
▁oods	-11.4651
▁IDF	-11.4656
▁ady	-11.4656
▁uan	-11.4663
sti	-11.4674
▁150	-11.4685
▁twin	-11.4698
▁ua	-11.4723
cha	-11.4724
▁ith	-11.4726
ence	-11.4736
▁lme	-11.4738
▁Hol	-11.4744
▁bran	-11.4745
▁ipp	-11.4765
▁cin	-11.4766
▁lect	-11.4779
▁Land	-11.4785
▁gical	-11.4791
▁erie	-11.4793
▁scho	-11.4815
fe	-11.4829
▁tir	-11.4839
▁Jay	-11.484
▁hild	-11.485
▁urp	-11.4856
eg	-11.4873
pro	-11.4876
▁rda	-11.488
▁owne	-11.4884
ud	-11.4885
▁ը	-11.4891
▁atel	-11.4901
▁ING	-11.4906
sing	-11.4909
▁ont	-11.4918
▁tral	-11.4923
emov	-11.4928
▁gig	-11.4931
▁lemon	-11.4934
▁ene	-11.4965
▁oly	-11.4967
▁prin	-11.4971
▁hys	-11.4975
▁cr	-11.4975
▁ryan	-11.4977
▁է	-11.4981
▁cci	-11.4987
▁â	-11.4995
▁NSW	-11.5009
ehic	-11.5012
▁250	-11.5038
▁uting	-11.5039
▁eur	-11.504
lam	-11.5042
▁կ	-11.507
▁lur	-11.5071
ies	-11.5071
rtun	-11.5084
rogr	-11.5093
▁elv	-11.5093
otti	-11.5093
▁nev	-11.5105
▁glor	-11.5122
ney	-11.5137
▁rgo	-11.5144
▁Se	-11.5163
▁Pr	-11.5174
▁DJ	-11.5174
▁ador	-11.5177
Oh	-11.5187
▁igu	-11.5188
▁aki	-11.5208
▁rkin	-11.5219
▁urth	-11.5222
▁sona	-11.5223
•	-11.5231
▁nera	-11.5238
ook	-11.5249
▁ied	-11.5281
▁lster	-11.5286
▁44	-11.5287
▁hint	-11.5307
▁gal	-11.5309
lice	-11.5323
▁hli	-11.5329
▁46	-11.533
egio	-11.5339
▁harg	-11.5344
▁shor	-11.5344
▁torn	-11.5345
hrea	-11.5351
▁yp	-11.5352
▁ID	-11.5353
▁mpact	-11.5357
ctu	-11.5357
▁enna	-11.5359
▁argo	-11.5378
▁ree	-11.538
erc	-11.5383
▁ggi	-11.5386
lin	-11.5418
▁hyp	-11.5422
▁GM	-11.5425
▁39	-11.5427
▁UCLA	-11.543
▁glow	-11.5442
▁gor	-11.5444
edi	-11.5455
▁jet	-11.5458
mar	-11.5463
▁llu	-11.5473
▁arni	-11.5492
▁luc	-11.5498
▁Sw	-11.5501
▁erb	-11.5504
▁Ian	-11.5509
▁tear	-11.5509
igi	-11.5512
▁Kri	-11.5518
▁nose	-11.5518
▁avin	-11.5529
▁grey	-11.5546
▁aye	-11.5556
▁leap	-11.556
▁stig	-11.5566
▁kie	-11.5573
▁fate	-11.5579
▁abb	-11.558
▁uture	-11.5584
▁lanc	-11.5587
▁ument	-11.5595
hose	-11.5598
uck	-11.5602
▁ON	-11.5603
▁stri	-11.5621
gg	-11.5629
▁essor	-11.5636
▁ebe	-11.5637
▁ito	-11.564
▁THE	-11.5643
sla	-11.5648
▁Sat	-11.5661
sses	-11.5663
▁HS	-11.5671
ngin	-11.5672
▁blu	-11.5675
▁rran	-11.5675
ise	-11.5682
ez	-11.5686
▁trai	-11.5694
▁tub	-11.5695
▁Fri	-11.5696
On	-11.5699
ole	-11.57
ile	-11.5714
ave	-11.5725
rm	-11.5737
▁ICC	-11.5738
enta	-11.5743
▁ger	-11.5747
obby	-11.5749
inc	-11.575
▁olan	-11.5752
▁adav	-11.5758
▁inti	-11.5764
▁rod	-11.5783
▁ESPN	-11.5794
▁tune	-11.5804
ր	-11.5812
dib	-11.5821
ell	-11.5849
nive	-11.5851
▁lop	-11.5851
▁ket	-11.5854
▁kg	-11.5862
▁arna	-11.5864
isp	-11.5881
ah	-11.5886
▁Zu	-11.5907
eth	-11.5908
▁Mon	-11.5912
bra	-11.5937
ated	-11.594
▁reign	-11.5942
▁hat	-11.5954
ore	-11.5964
▁uted	-11.5964
▁uz	-11.5968
▁Hag	-11.5978
▁uite	-11.5982
▁gion	-11.5996
▁ins	-11.5997
▁eeme	-11.6004
▁haul	-11.6017
É	-11.6027
▁xec	-11.6051
	-11.6065
▁tex	-11.607
lly	-11.6081
▁pter	-11.6086
tti	-11.61
▁yr	-11.611
▁8.	-11.6113
ze	-11.6137
▁uct	-11.6143
▁etti	-11.6144
▁une	-11.6151
▁urv	-11.6153
▁riot	-11.6164
▁wise	-11.6172
opul	-11.6173
▁ongo	-11.6179
▁sue	-11.6186
▁En	-11.6193
▁env	-11.6193
▁mme	-11.6197
▁heck	-11.622
▁III	-11.6224
AP	-11.6229
▁pol	-11.6239
ire	-11.6241
▁coup	-11.6256
▁sb	-11.6266
▁Llo	-11.6269
▁NCAA	-11.6277
▁oro	-11.6277
EAD	-11.6278
▁nco	-11.6285
kes	-11.6286
▁oya	-11.6286
▁oose	-11.6297
oted	-11.6302
▁ergu	-11.6304
▁ithin	-11.6307
▁divi	-11.6315
▁Eu	-11.6318
▁hine	-11.6327
▁hl	-11.6334
▁umm	-11.6335
▁tier	-11.6338
ko	-11.6339
▁agn	-11.6339
▁47	-11.634
▁Zo	-11.6346
▁Ac	-11.6349
▁ngo	-11.6357
▁hype	-11.6367
sage	-11.6377
▁haz	-11.6379
▁til	-11.6381
▁nai	-11.6427
▁affe	-11.6428
▁oco	-11.6436
▁stint	-11.6438
▁ere	-11.6444
han	-11.6445
▁von	-11.6451
▁ebb	-11.6476
▁DNA	-11.6479
▁fr	-11.6491
▁Flo	-11.6496
forc	-11.6498
▁sect	-11.65
▁Hot	-11.6505
nsta	-11.6517
▁itar	-11.653
▁nant	-11.6531
▁ruc	-11.6546
▁tters	-11.6548
▁nkey	-11.6553
son	-11.6559
▁8,	-11.6564
▁etc	-11.6569
▁pat	-11.6572
▁fea	-11.6573
▁Acc	-11.6585
ind	-11.6589
▁nj	-11.6605
▁ato	-11.6622
read	-11.6622
▁heek	-11.6622
olla	-11.6647
▁akers	-11.6649
nch	-11.665
▁ecur	-11.6666
▁dale	-11.6669
▁Utah	-11.6678
ving	-11.6686
▁stl	-11.6697
▁ikki	-11.6698
▁honey	-11.6711
▁Ai	-11.6712
ruz	-11.6714
▁mea	-11.6727
▁ET	-11.6744
▁nsit	-11.6745
▁adl	-11.6754
dic	-11.6756
▁unne	-11.6763
▁cta	-11.6776
▁MS	-11.6778
land	-11.6784
▁lank	-11.6791
elea	-11.6793
▁oven	-11.6797
▁abo	-11.6798
▁thin	-11.6799
▁mpa	-11.6822
▁ite	-11.6831
▁MAG	-11.6835
▁vail	-11.6839
▁dmi	-11.6842
▁loba	-11.6855
iev	-11.6858
▁antl	-11.6862
▁rimi	-11.6882
▁Gil	-11.6882
▁Davi	-11.6884
that	-11.6886
▁Gua	-11.6891
▁sher	-11.6901
▁ó	-11.6904
▁3,	-11.6904
▁55	-11.6906
tri	-11.6907
▁ista	-11.691
▁rog	-11.692
X	-11.6922
▁20%	-11.6926
ecur	-11.6939
▁wai	-11.6942
▁ladi	-11.6947
lity	-11.6959
ior	-11.6968
▁web	-11.6968
▁nya	-11.6975
bil	-11.6981
irs	-11.6983
▁itiz	-11.6984
▁43	-11.7015
▁riti	-11.7016
▁arie	-11.7024
▁orat	-11.7026
▁PS	-11.703
▁zoo	-11.7036
▁pixel	-11.7039
▁lid	-11.7045
tive	-11.7046
dica	-11.7053
▁bing	-11.7057
pea	-11.7072
▁ylan	-11.7076
uc	-11.7081
▁oto	-11.7081
▁appl	-11.7082
▁eme	-11.7085
SG	-11.7088
▁iant	-11.7093
▁lati	-11.7099
▁alf	-11.7104
▁gers	-11.7112
cu	-11.7116
▁ardon	-11.712
▁AN	-11.7123
▁Tor	-11.7129
▁hink	-11.713
▁sus	-11.7131
▁54	-11.7139
▁Ips	-11.714
40	-11.7145
▁Harr	-11.7149
▁9.	-11.7159
▁cure	-11.7159
▁nkin	-11.7166
GA	-11.7169
had	-11.7171
▁USC	-11.7171
ure	-11.7174
▁oldi	-11.7179
▁orse	-11.7186
▁rey	-11.7191
▁igar	-11.7193
▁ouse	-11.7194
▁laze	-11.7201
▁rama	-11.7211
rist	-11.7221
iffe	-11.7228
stry	-11.7252
ermi	-11.727
▁touc	-11.7271
▁umi	-11.7272
▁ape	-11.7281
▁eit	-11.7289
▁rh	-11.7292
▁grip	-11.7301
▁Usyk	-11.7312
▁eview	-11.7318
▁lphin	-11.7324
▁Utd	-11.7329
ton	-11.7329
▁oris	-11.7337
▁igi	-11.7353
▁asse	-11.7356
OS	-11.7368
▁yder	-11.7378
▁41	-11.7379
▁rvin	-11.7382
▁lio	-11.7388
rry	-11.7392
▁erba	-11.7411
▁san	-11.7416
▁rio	-11.7421
ja	-11.7424
▁por	-11.7425
nu	-11.7426
▁heel	-11.7431
▁ED	-11.7432
oxy	-11.7434
▁hike	-11.7436
ale	-11.7439
▁Bet	-11.7454
tz	-11.7462
▁opez	-11.7465
▁gut	-11.7472
imar	-11.7477
▁Sin	-11.7479
gra	-11.7498
▁lege	-11.7505
chi	-11.7523
▁reed	-11.7529
▁stunt	-11.7532
rris	-11.7533
ora	-11.7536
▁UFC	-11.7547
ntra	-11.7549
har	-11.7556
▁opa	-11.7568
▁ngin	-11.7573
▁dar	-11.7576
▁PC	-11.7593
▁egis	-11.7596
day	-11.7606
▁imo	-11.7609
▁deta	-11.7625
▁vy	-11.7627
▁avai	-11.763
dd	-11.7632
▁nni	-11.7642
▁seg	-11.7645
▁ik	-11.7646
U	-11.7649
▁tiv	-11.766
▁atin	-11.766
▁rif	-11.7668
J	-11.7676
orn	-11.7677
tani	-11.768
iya	-11.7683
▁sible	-11.7696
▁tton	-11.7707
▁wen	-11.7721
▁NEW	-11.7722
▁drum	-11.7724
▁nche	-11.7725
▁ssent	-11.7731
mer	-11.7734
▁brid	-11.7735
bi	-11.7737
ble	-11.7738
▁sban	-11.774
▁tica	-11.774
▁oge	-11.7741
ixel	-11.7742
▁Rex	-11.7761
▁ugg	-11.7764
▁upt	-11.7767
▁ayed	-11.777
▁ntry	-11.7788
▁rue	-11.7795
ու	-11.7798
mit	-11.7799
▁lens	-11.7823
30	-11.7825
▁ph	-11.7833
▁yc	-11.7847
▁uin	-11.785
▁nat	-11.7851
▁aime	-11.7861
▁umber	-11.7862
▁reta	-11.7867
ona	-11.7883
▁loom	-11.7884
▁FC	-11.789
11	-11.7891
▁taff	-11.7913
▁ynth	-11.7916
lat	-11.7919
▁etty	-11.7922
▁icket	-11.7954
▁ittl	-11.7966
▁adal	-11.7981
cK	-11.7985
pose	-11.7987
▁WHO	-11.7991
▁lyri	-11.7994
q	-11.7998
▁RBI	-11.8
trac	-11.8019
ama	-11.8019
▁rn	-11.8021
ime	-11.8022
aj	-11.8033
▁ubi	-11.8036
▁hom	-11.8039
eder	-11.8046
▁saf	-11.8047
▁deo	-11.8049
▁olin	-11.8055
▁lant	-11.8057
▁alah	-11.806
vil	-11.8073
was	-11.8089
▁arya	-11.809
▁hei	-11.8094
▁exu	-11.8103
▁araz	-11.8113
▁mbr	-11.8132
gin	-11.8148
▁ums	-11.8153
▁bes	-11.8168
▁irat	-11.8174
▁tui	-11.8175
▁tud	-11.8182
ideo	-11.8184
▁ntar	-11.8184
▁2,	-11.8191
▁uris	-11.8199
▁10.	-11.8208
dem	-11.8216
LB	-11.8225
▁gio	-11.8228
oot	-11.8236
▁lew	-11.826
cy	-11.8261
▁orman	-11.8265
▁gia	-11.8267
տ	-11.8273
▁ska	-11.8275
ark	-11.8283
ens	-11.8287
▁amal	-11.8287
▁ret	-11.8295
▁ured	-11.8302
▁uru	-11.8314
▁dura	-11.8323
▁lgo	-11.8328
rag	-11.8331
▁loop	-11.8333
10	-11.8342
▁nshi	-11.8346
dle	-11.8347
▁Tesco	-11.8349
rest	-11.8352
▁esp	-11.8353
reas	-11.8369
▁Use	-11.837
▁eon	-11.8381
dded	-11.8384
NRW	-11.8387
▁oxi	-11.8393
▁aby	-11.8403
▁erre	-11.8406
void	-11.8409
▁sons	-11.8416
▁ewel	-11.8417
▁sab	-11.842
▁trio	-11.8422
▁onc	-11.843
▁mbo	-11.8441
▁arp	-11.8442
▁loo	-11.8448
▁mmo	-11.8459
▁Chr	-11.8465
▁wl	-11.8483
▁git	-11.8489
▁rial	-11.8504
▁ncer	-11.8506
▁muni	-11.8509
▁gher	-11.8514
▁tany	-11.8517
▁ritt	-11.8527
▁unn	-11.8537
▁enin	-11.8538
▁onte	-11.8538
▁AAP	-11.8548
▁ima	-11.8548
▁ckey	-11.8557
▁enco	-11.856
▁ren	-11.8562
ան	-11.8576
▁Vet	-11.8582
▁nte	-11.8584
▁53	-11.8586
▁lush	-11.8592
▁inda	-11.8597
▁ading	-11.8607
▁rbi	-11.861
]	-11.8622
▁riva	-11.8623
▁gru	-11.8627
▁hur	-11.8631
▁uffe	-11.8669
▁hoo	-11.8688
▁eace	-11.8689
lie	-11.8696
▁lunt	-11.8696
▁mara	-11.8699
▁esign	-11.87
efen	-11.871
▁dot	-11.8723
▁ksha	-11.8729
▁eria	-11.873
▁tast	-11.8734
▁Gett	-11.874
▁Unit	-11.8741
▁ives	-11.8745
▁lavi	-11.8753
eav	-11.8769
GPT	-11.8772
▁orwe	-11.8785
ip	-11.8794
▁clin	-11.8799
▁hir	-11.8805
▁tatt	-11.8808
ilar	-11.8812
▁Ano	-11.882
▁lto	-11.8821
nik	-11.8824
rime	-11.8828
rade	-11.8835
▁Yo	-11.8838
war	-11.8848
▁oup	-11.8853
rity	-11.8854
▁xis	-11.8857
▁tel	-11.8858
▁mel	-11.8865
▁3-0	-11.8868
hed	-11.8871
▁igne	-11.8872
70	-11.8873
▁labo	-11.8883
▁ourn	-11.8887
25	-11.8907
▁կա	-11.8912
▁leks	-11.8914
▁yach	-11.8925
RK	-11.8929
▁unge	-11.8931
▁ն	-11.8934
▁je	-11.894
▁anga	-11.8943
▁Hud	-11.8952
▁sho	-11.8954
▁ngi	-11.8966
▁Utta	-11.8967
▁lion	-11.8971
▁MSP	-11.8978
7%	-11.899
ի	-11.8992
9%	-11.901
ike	-11.9012
ita	-11.9013
win	-11.9014
▁afa	-11.9024
▁grac	-11.9029
▁vas	-11.9035
▁daho	-11.9038
▁9,	-11.9041
▁ront	-11.9049
old	-11.9058
nia	-11.9063
The	-11.9067
▁ouri	-11.9068
▁եւ	-11.907
▁rede	-11.908
▁elan	-11.9094
SU	-11.9097
▁cel	-11.9101
sion	-11.9113
▁dair	-11.9122
▁trap	-11.9123
▁nters	-11.9127
▁lips	-11.9127
▁orth	-11.9128
▁rfo	-11.9134
with	-11.9136
shi	-11.9142
ared	-11.9145
▁72	-11.915
▁50%	-11.9154
▁ffe	-11.9158
▁ների	-11.916
▁sty	-11.9178
▁sers	-11.918
▁laz	-11.9186
elt	-11.9201
▁acu	-11.9211
▁sol	-11.9217
lia	-11.9223
▁omali	-11.9244
▁ixon	-11.9252
▁iddy	-11.9254
▁49	-11.926
PS	-11.9273
res	-11.9287
nmen	-11.929
▁noun	-11.929
▁uci	-11.9314
ում	-11.9315
▁nac	-11.9317
att	-11.9317
▁lize	-11.9318
▁eyon	-11.9319
▁gem	-11.9327
▁Spa	-11.9331
▁octor	-11.9333
MC	-11.934
▁astr	-11.9342
3%	-11.9345
▁oal	-11.9348
▁eels	-11.9352
▁tage	-11.9356
▁Cz	-11.9365
▁nea	-11.9372
ye	-11.9375
▁NDA	-11.9381
60	-11.9381
▁eet	-11.9384
▁seed	-11.9388
▁Hig	-11.9421
▁tua	-11.9422
▁eo	-11.9435
▁rings	-11.9441
gen	-11.9442
rodu	-11.946
▁arg	-11.9478
▁ulu	-11.9481
▁umer	-11.9497
▁asha	-11.9503
ully	-11.9506
dia	-11.9508
▁13.	-11.9516
▁ues	-11.9516
▁shu	-11.9517
▁revi	-11.9518
▁51	-11.9521
▁2%	-11.9526
▁inde	-11.953
▁ickl	-11.9533
▁NAS	-11.9536
▁hail	-11.9544
▁dau	-11.9547
▁Know	-11.9558
▁52	-11.9558
▁Zi	-11.9597
▁sda	-11.9609
▁cas	-11.9618
▁Ol	-11.9625
essa	-11.9631
elli	-11.9633
▁sau	-11.9647
▁rude	-11.9649
▁ienna	-11.9655
ounc	-11.9673
▁ersey	-11.968
▁eig	-11.9684
▁erma	-11.9684
▁nvir	-11.9692
▁UC	-11.9699
▁mond	-11.9701
▁eft	-11.9706
▁pile	-11.9708
ía	-11.9723
▁esth	-11.9723
▁err	-11.9727
ola	-11.9728
edge	-11.973
▁Ar	-11.9736
▁eads	-11.9742
▁teph	-11.9748
▁arget	-11.9757
▁MVP	-11.9782
▁lor	-11.979
▁inst	-11.9803
▁vin	-11.9832
▁uby	-11.9837
▁sures	-11.9842
▁engi	-11.9843
+	-11.9851
▁undr	-11.9858
▁iall	-11.9867
nded	-11.9871
▁erfu	-11.9872
ska	-11.9873
itch	-11.9875
▁sdom	-11.9879
▁$2	-11.9885
▁irect	-11.9902
pos	-11.9904
▁fool	-11.9905
▁vill	-11.9911
▁rut	-11.9918
▁WWE	-11.9919
▁hools	-11.9924
▁uran	-11.993
▁lyn	-11.9933
▁secr	-11.9947
▁oe	-11.9948
▁lkat	-11.9949
▁epa	-11.9968
yo	-11.9991
FC	-11.9997
logi	-12
▁hunk	-12.0005
▁12.	-12.0006
teel	-12.0007
▁eddy	-12.0009
▁SEC	-12.0012
az	-12.0012
IV	-12.0022
▁enic	-12.0023
▁rms	-12.0031
▁orta	-12.0033
▁enz	-12.0048
▁Imag	-12.0048
pp	-12.0055
▁eno	-12.0056
▁hem	-12.0057
▁hr	-12.0065
▁ICE	-12.0066
▁alle	-12.0079
▁tings	-12.0085
ific	-12.0087
▁WNB	-12.0093
FDA	-12.0097
ace	-12.0102
24	-12.0104
law	-12.0106
▁lou	-12.0112
▁mush	-12.0122
▁ems	-12.0123
▁rhe	-12.0127
eam	-12.013
▁IN	-12.0134
▁elem	-12.0158
HL	-12.0166
rrie	-12.0168
▁iest	-12.0174
▁Jul	-12.0175
SF	-12.0176
▁PR	-12.0182
rn	-12.0185
▁rsu	-12.0196
▁PAC	-12.0207
▁oet	-12.0211
▁tanc	-12.0211
▁asp	-12.0221
▁shna	-12.0226
▁cc	-12.023
▁dre	-12.0235
lega	-12.0239
▁Cel	-12.0241
bal	-12.0244
▁lis	-12.0252
nsio	-12.0254
-3	-12.0255
migr	-12.0259
▁Lot	-12.0268
uch	-12.0273
lle	-12.0275
muni	-12.0276
▁15.	-12.028
▁ude	-12.0283
▁tron	-12.0289
▁66	-12.0295
plo	-12.0307
NC	-12.0322
▁IS	-12.0326
hysi	-12.0327
▁lmo	-12.0334
▁angu	-12.0341
▁iel	-12.0344
af	-12.0346
▁rood	-12.0351
dne	-12.0355
agu	-12.0367
▁ynch	-12.0379
▁ի	-12.0385
ks	-12.0388
▁£1	-12.039
▁1.5	-12.039
▁ompo	-12.0397
▁ume	-12.0398
▁hij	-12.0399
ied	-12.0401
▁matt	-12.0407
Z	-12.0415
▁rup	-12.0422
▁lob	-12.0426
▁ahon	-12.0441
ս	-12.0443
▁niz	-12.0444
▁KC	-12.0446
▁lg	-12.0452
▁hid	-12.0459
▁dox	-12.0463
asu	-12.0469
NT	-12.047
▁lde	-12.0482
6%	-12.0482
▁Trev	-12.0491
▁oda	-12.0496
▁issu	-12.0501
▁pti	-12.0503
lit	-12.0506
▁alb	-12.0508
▁jur	-12.051
ged	-12.0517
▁57	-12.0519
GO	-12.0531
▁lag	-12.0534
▁11.	-12.0537
gram	-12.0551
▁Coun	-12.056
▁mery	-12.057
oll	-12.0576
Of	-12.0581
PR	-12.0592
▁mos	-12.0597
▁lore	-12.0603
▁1%	-12.0608
▁rres	-12.0609
urop	-12.061
▁erk	-12.0615
▁ril	-12.0616
ds	-12.0619
▁sua	-12.0624
rgan	-12.0638
▁ntin	-12.0639
▁XI	-12.0647
án	-12.0647
▁IST	-12.0648
▁swe	-12.0649
▁ons	-12.0652
ass	-12.0657
▁nfla	-12.0658
pi	-12.066
▁։	-12.0662
▁Niger	-12.0664
avou	-12.0686
uss	-12.0686
37	-12.0688
▁sem	-12.0701
ati	-12.0702
▁goe	-12.0707
▁uki	-12.0732
▁adu	-12.0755
▁ules	-12.0756
▁74	-12.0763
ax	-12.0765
▁mplo	-12.0765
don	-12.0768
den	-12.0769
▁Sm	-12.0773
▁EVs	-12.0787
▁essay	-12.0787
▁120	-12.0788
▁gaz	-12.0794
▁85	-12.0797
ften	-12.0807
▁ocat	-12.0816
Do	-12.0816
▁rla	-12.082
▁ewa	-12.0822
ping	-12.0829
tors	-12.0832
▁VP	-12.0836
▁homi	-12.0845
80	-12.085
ease	-12.0859
▁arte	-12.0875
▁fere	-12.0875
▁CDC	-12.0881
▁epen	-12.0881
EFA	-12.093
▁remo	-12.0932
lf	-12.0932
▁NA	-12.0938
▁nthem	-12.0941
▁58	-12.0948
▁gymn	-12.0954
kar	-12.0957
▁tw	-12.096
hris	-12.096
cli	-12.0963
▁enzi	-12.0965
▁ppi	-12.0972
▁Pat	-12.0976
▁61	-12.0979
▁helm	-12.0982
▁mois	-12.0986
▁tati	-12.0996
avy	-12.0997
▁hana	-12.1002
▁rith	-12.1031
mag	-12.1041
▁rbo	-12.1049
OC	-12.1054
▁ghes	-12.1055
▁ros	-12.1073
kin	-12.1077
▁eturn	-12.1086
▁wak	-12.1092
8%	-12.1095
▁Too	-12.1098
efer	-12.1106
▁tray	-12.1108
▁amat	-12.1113
▁leep	-12.1122
▁yeh	-12.1149
TA	-12.1152
erro	-12.1156
▁UP	-12.1156
▁engt	-12.117
▁NB	-12.1187
▁thor	-12.1191
exua	-12.1191
aw	-12.1194
▁att	-12.1202
▁bn	-12.1203
▁rez	-12.1214
▁iss	-12.1233
lec	-12.1236
▁beg	-12.1239
TI	-12.1242
▁ebo	-12.1242
AE	-12.1248
▁CB	-12.1255
▁kini	-12.1257
▁gul	-12.1257
OJ	-12.1285
mpli	-12.1286
▁oj	-12.1289
gar	-12.1292
▁dget	-12.1295
▁ndan	-12.1305
▁Oil	-12.1307
▁Uga	-12.131
▁pea	-12.1311
▁INDI	-12.1312
TC	-12.1316
▁yank	-12.1316
▁YO	-12.1317
DP	-12.1328
▁ollo	-12.1329
▁doc	-12.1333
▁lobe	-12.1335
ori	-12.1336
▁tif	-12.1341
lif	-12.1347
vis	-12.1354
▁rien	-12.1361
▁uka	-12.1361
▁spike	-12.1381
▁NDT	-12.1382
▁itan	-12.1404
▁tease	-12.1409
▁56	-12.141
▁cie	-12.1414
rtic	-12.142
▁ashv	-12.1432
▁lymp	-12.1446
▁Cl	-12.1448
EN	-12.145
con	-12.1451
▁VAR	-12.1452
▁GMT	-12.1453
▁64	-12.1457
%	-12.1461
▁AND	-12.1469
▁բ	-12.1473
▁ural	-12.1475
▁dem	-12.1482
▁vey	-12.1483
ead	-12.1497
▁ober	-12.1503
harl	-12.1513
▁yron	-12.1516
▁sage	-12.1519
▁ultu	-12.1529
▁rne	-12.1534
▁RAM	-12.1534
▁sas	-12.1549
▁Kra	-12.155
▁espe	-12.155
▁elo	-12.1553
▁bli	-12.1566
▁rof	-12.1578
MS	-12.1579
▁ien	-12.1582
▁$3	-12.1591
unda	-12.1592
1%	-12.1613
▁RHP	-12.1618
▁atte	-12.163
rr	-12.1632
▁16.	-12.1632
▁oni	-12.1636
▁lina	-12.1638
▁Br	-12.1642
▁neig	-12.1643
▁18.	-12.1651
ibu	-12.1668
▁efen	-12.1668
▁ncia	-12.1674
ngu	-12.1676
▁aps	-12.1687
lled	-12.1699
▁alsh	-12.1718
▁garh	-12.1722
í	-12.1723
mon	-12.1723
▁ecl	-12.1728
▁negar	-12.1732
▁yon	-12.1733
▁ERA	-12.1737
▁տ	-12.1739
▁agen	-12.1744
▁FT	-12.1748
▁bou	-12.1749
▁ssip	-12.1754
▁olla	-12.176
▁uf	-12.176
▁See	-12.1773
▁թյ	-12.1776
▁oles	-12.1776
ull	-12.1798
▁dva	-12.1803
▁mpic	-12.1803
ush	-12.1806
▁ayner	-12.1815
amou	-12.1827
▁bles	-12.1828
▁nita	-12.183
ssa	-12.1831
▁BC	-12.1832
▁col	-12.184
▁ssue	-12.1846
mes	-12.185
SE	-12.186
▁nate	-12.1864
▁63	-12.1866
▁hypo	-12.1866
▁peare	-12.1867
▁Win	-12.1871
mm	-12.1888
By	-12.1889
leev	-12.1905
▁62	-12.1909
▁TON	-12.191
▁tat	-12.191
▁orie	-12.1914
▁rtis	-12.1915
▁erum	-12.1916
rain	-12.1916
▁eman	-12.1925
▁mmu	-12.1929
▁iu	-12.1937
▁rrent	-12.1948
▁59	-12.1948
▁zy	-12.1951
▁ncin	-12.1953
▁eop	-12.1955
▁rjun	-12.1957
▁ayb	-12.1969
▁rkan	-12.1975
2%	-12.1978
▁oze	-12.1978
▁rva	-12.1983
▁ibb	-12.1999
▁tche	-12.2
▁udy	-12.2005
ami	-12.2013
▁Way	-12.2019
yna	-12.202
▁etsk	-12.2023
▁vape	-12.2025
tec	-12.203
▁ianc	-12.2034
▁որ	-12.2037
▁prim	-12.2049
▁holy	-12.2056
▁ises	-12.2075
▁outs	-12.2087
▁mmel	-12.2088
An	-12.2123
▁feld	-12.2124
▁grin	-12.2128
▁esy	-12.2144
▁77	-12.2144
tee	-12.2157
▁20.	-12.2159
▁reez	-12.216
GB	-12.2194
itio	-12.2194
▁fav	-12.2199
▁erm	-12.2203
▁stag	-12.2208
▁hane	-12.2211
▁eid	-12.2215
▁lope	-12.2225
▁itc	-12.2237
▁atta	-12.2237
▁dupe	-12.2246
▁mud	-12.2259
▁atu	-12.2275
▁thy	-12.2277
▁boo	-12.2284
eel	-12.2285
▁eyn	-12.2289
ize	-12.2293
cho	-12.2294
▁eiv	-12.2302
sley	-12.2303
ppl	-12.2306
▁inem	-12.2311
▁mpl	-12.2313
▁dazz	-12.2319
▁ODI	-12.2326
▁bia	-12.233
▁BS	-12.2335
▁fen	-12.2335
▁pear	-12.234
▁AFL	-12.234
▁ilk	-12.2354
omin	-12.2366
▁wenty	-12.2379
mpet	-12.2388
▁73	-12.239
ps	-12.239
▁bre	-12.24
idn	-12.2401
myr	-12.2403
▁ault	-12.2409
CH	-12.2412
▁rna	-12.2414
▁arat	-12.2416
▁ար	-12.2428
▁rek	-12.2431
tin	-12.2437
▁enka	-12.2451
rden	-12.2469
ssi	-12.2471
▁gita	-12.2474
▁glu	-12.2477
©	-12.2479
▁ogy	-12.2481
▁IVF	-12.2493
▁tam	-12.2493
romi	-12.2495
▁erez	-12.2514
▁aco	-12.2515
▁ouble	-12.252
▁oh	-12.2524
▁oble	-12.2526
▁£5	-12.2536
▁pul	-12.2536
erag	-12.2541
spir	-12.2542
▁gag	-12.2542
▁sim	-12.2547
▁mela	-12.2547
▁nail	-12.2547
▁TD	-12.2549
▁rmal	-12.255
ris	-12.2551
▁alc	-12.2553
▁Yu	-12.2553
gal	-12.256
▁aud	-12.2567
acil	-12.2581
▁NC	-12.2599
▁agar	-12.2604
▁vell	-12.2608
▁itiv	-12.261
▁nto	-12.262
Is	-12.2624
▁llan	-12.2624
▁ANC	-12.2627
▁ncti	-12.2629
▁extr	-12.2633
▁adde	-12.2658
▁lade	-12.267
▁onda	-12.2683
dge	-12.2688
ET	-12.2697
ndro	-12.2712
▁°	-12.2714
ler	-12.2721
▁crat	-12.2723
ali	-12.2731
▁ardy	-12.2734
rth	-12.2748
▁nals	-12.2751
▁30%	-12.2752
▁isi	-12.2757
▁rder	-12.277
▁ntag	-12.2782
▁nite	-12.2785
ses	-12.2789
oli	-12.2798
▁olde	-12.2798
▁elp	-12.2802
ED	-12.2805
▁twins	-12.2814
bel	-12.282
tar	-12.2833
▁CO	-12.2833
arn	-12.2835
ranc	-12.2848
ju	-12.2856
SB	-12.2858
▁■	-12.2859
▁MI	-12.2865
▁WNS	-12.2871
▁ymond	-12.2876
port	-12.2902
awk	-12.2902
cco	-12.2903
ghts	-12.2907
▁gade	-12.2915
▁ohn	-12.2933
IP	-12.2946
▁emon	-12.2948
▁ntel	-12.2955
▁oath	-12.2956
omes	-12.2957
▁67	-12.2969
▁bin	-12.297
ropo	-12.2971
▁30.	-12.2978
▁iri	-12.2981
▁á	-12.2984
ool	-12.2995
▁SUV	-12.3001
▁tles	-12.3014
enc	-12.3024
lan	-12.3039
▁ussi	-12.304
▁ompe	-12.3048
vol	-12.3051
▁reep	-12.3067
▁£10	-12.3068
▁tsun	-12.3068
▁ocks	-12.3074
FO	-12.308
▁uhan	-12.3083
NG	-12.309
▁hin	-12.3093
99	-12.31
nda	-12.3126
▁lida	-12.3126
▁Ban	-12.3146
▁5%	-12.3158
▁ER	-12.3158
sib	-12.3171
way	-12.3176
LS	-12.3182
▁ifie	-12.3185
▁wid	-12.3186
gli	-12.3215
▁lude	-12.3217
▁leb	-12.3229
▁ում	-12.3249
ntro	-12.3269
▁nim	-12.3272
▁zak	-12.3277
IFA	-12.3277
▁Us	-12.3282
ium	-12.3282
ove	-12.3287
▁ancé	-12.329
▁Dam	-12.3293
▁Ver	-12.3316
oin	-12.3318
efi	-12.3319
րա	-12.3327
▁Des	-12.3329
nna	-12.3337
▁ccu	-12.3346
▁arbo	-12.3353
▁uda	-12.3355
▁scie	-12.3363
▁iona	-12.3374
AFC	-12.3374
más	-12.3384
sy	-12.3399
tch	-12.3404
▁iol	-12.3406
pez	-12.3408
lew	-12.341
▁PT	-12.3416
▁swam	-12.3422
▁ST	-12.3425
▁HD	-12.343
▁avor	-12.3432
ys	-12.3446
stor	-12.3447
has	-12.3457
▁ncou	-12.3458
▁udg	-12.3462
▁mpo	-12.3463
-2	-12.3463
hole	-12.3466
▁knot	-12.3467
▁YOU	-12.3471
▁arus	-12.3482
▁ige	-12.3505
▁ida	-12.3506
▁roxy	-12.3506
▁4%	-12.3507
▁itors	-12.3512
▁eena	-12.3516
ctor	-12.3539
è	-12.3542
roun	-12.3546
▁esel	-12.3548
SIS	-12.3559
18	-12.3566
▁lori	-12.3572
ls	-12.3574
ham	-12.3585
▁FAA	-12.3595
▁Cou	-12.3601
▁tyle	-12.3605
▁sna	-12.3608
▁Trud	-12.3621
▁sat	-12.3621
▁roba	-12.3637
vo	-12.3643
cia	-12.3649
ete	-12.365
nces	-12.3652
▁$6	-12.3655
▁oor	-12.3656
ouri	-12.3659
▁IMF	-12.3664
mu	-12.3683
tom	-12.3684
▁lmond	-12.3692
rge	-12.3692
▁inta	-12.3699
tel	-12.3709
որ	-12.3709
▁dug	-12.3716
▁Sk	-12.3717
▁elve	-12.373
▁iew	-12.3733
leg	-12.3738
▁raper	-12.3749
▁Got	-12.375
cted	-12.3754
hout	-12.376
▁fir	-12.3763
12	-12.3765
▁athl	-12.3769
▁rto	-12.3774
ASH	-12.3776
ggle	-12.3776
rst	-12.3777
eng	-12.3778
▁gie	-12.3787
▁rf	-12.3788
ays	-12.3791
▁esu	-12.3805
have	-12.3806
esh	-12.3807
▁aul	-12.3815
▁rpe	-12.3823
IVE	-12.3828
▁lvi	-12.3833
▁jam	-12.3841
▁ule	-12.3841
ced	-12.386
▁nei	-12.3864
▁anie	-12.3889
▁tow	-12.3894
▁iza	-12.3899
▁dé	-12.3911
▁CD	-12.3925
▁VO	-12.3925
▁oria	-12.3933
ppos	-12.3934
▁iki	-12.3935
etai	-12.3935
▁izz	-12.3941
▁lves	-12.3943
▁ripe	-12.3944
▁bhi	-12.3959
lli	-12.396
CA	-12.3963
OA	-12.398
▁Ser	-12.3985
▁hode	-12.3986
▁sche	-12.3987
▁LED	-12.3991
▁PG	-12.4
▁25%	-12.4001
ná	-12.4005
à	-12.4005
usk	-12.4014
▁epsi	-12.4034
▁asi	-12.404
▁avo	-12.405
nfla	-12.405
FK	-12.4051
▁sle	-12.4058
▁պ	-12.4061
▁onat	-12.4063
▁HBO	-12.4083
▁isp	-12.4084
▁VIP	-12.4086
▁arla	-12.4087
15	-12.4093
▁Gun	-12.4094
▁llon	-12.4105
idge	-12.4114
▁xper	-12.4119
▁toast	-12.4119
▁aisy	-12.412
▁esar	-12.4128
▁kash	-12.4139
LY	-12.4144
▁ggl	-12.4151
▁cil	-12.4154
▁nise	-12.4158
16	-12.4162
▁isc	-12.4162
DC	-12.4171
▁clad	-12.4174
▁EPA	-12.4178
▁grove	-12.4178
▁ovi	-12.4188
said	-12.4192
ji	-12.4208
nic	-12.421
IY	-12.421
RC	-12.421
▁RB	-12.4221
Mr	-12.4227
▁dip	-12.4231
▁19.	-12.4233
▁api	-12.4235
▁shy	-12.4244
▁sg	-12.4248
▁21.	-12.425
▁eism	-12.4256
cti	-12.4259
▁loft	-12.4268
▁stard	-12.4271
▁nzo	-12.4272
▁AT	-12.4273
▁hwa	-12.4277
▁OS	-12.4282
՝	-12.4284
CBI	-12.4288
▁ewe	-12.4288
urv	-12.43
oul	-12.4327
▁yrne	-12.4333
eith	-12.4338
▁RNC	-12.4339
▁ipt	-12.434
4%	-12.4353
▁vap	-12.436
▁Tax	-12.436
tir	-12.4366
rum	-12.4367
▁mai	-12.4372
▁ided	-12.4373
▁edro	-12.4393
á	-12.4399
▁abwe	-12.4404
amp	-12.4404
ú	-12.4406
▁dde	-12.4416
▁Ap	-12.4422
▁lici	-12.4436
ink	-12.4438
▁nesh	-12.4438
bso	-12.4447
▁ias	-12.4456
▁aks	-12.446
▁mers	-12.4466
LA	-12.4472
ommu	-12.4476
▁odel	-12.4478
▁agi	-12.4489
▁ippe	-12.4493
▁17.	-12.45
ely	-12.4501
▁xpl	-12.4524
▁roi	-12.4524
▁feit	-12.4525
▁lga	-12.4536
▁Pl	-12.4538
vers	-12.4557
▁yoga	-12.4562
ega	-12.4563
▁OR	-12.4563
▁eril	-12.4578
▁iqu	-12.4579
oc	-12.4584
▁ika	-12.4584
▁ceme	-12.4593
dly	-12.46
rate	-12.4606
▁lare	-12.4612
▁mous	-12.4616
ash	-12.4622
▁azz	-12.4636
▁29.	-12.4639
ppi	-12.4641
▁orgi	-12.4642
▁yi	-12.4645
▁dise	-12.4655
▁cree	-12.4658
▁lynn	-12.4659
▁vian	-12.468
ran	-12.4687
▁fron	-12.4694
jo	-12.4695
CB	-12.4696
▁Texa	-12.4698
▁rigi	-12.4699
lon	-12.4703
▁awy	-12.471
ourc	-12.4711
ple	-12.4718
ddy	-12.4734
▁76	-12.4734
▁amil	-12.4751
▁ynn	-12.4756
▁pes	-12.4759
▁seve	-12.4761
▁nkar	-12.4777
▁guar	-12.4783
CS	-12.4789
CC	-12.479
▁Sex	-12.479
hur	-12.4792
▁SP	-12.4807
▁bl	-12.4809
▁oi	-12.4818
▁3%	-12.4819
▁dm	-12.482
▁IRS	-12.482
ount	-12.4824
ONS	-12.4838
▁eac	-12.4839
▁xe	-12.4848
▁AD	-12.4853
▁71	-12.4856
▁shaw	-12.4859
CD	-12.4872
▁VAT	-12.4878
▁sch	-12.4879
▁athy	-12.488
▁amara	-12.491
▁ait	-12.4913
▁vali	-12.4913
▁kay	-12.4927
▁69	-12.4928
▁shio	-12.4944
▁LIV	-12.4949
▁78	-12.4953
▁Time	-12.4957
▁heney	-12.4958
―	-12.4966
ppli	-12.4967
Ah	-12.4978
▁cen	-12.498
▁leja	-12.4994
loo	-12.5012
▁81	-12.5018
▁Cox	-12.5024
▁nju	-12.5034
▁nex	-12.5047
▁fond	-12.5049
▁ersh	-12.5051
▁resh	-12.5053
▁ppa	-12.5057
agg	-12.5058
▁fici	-12.5063
▁rton	-12.5067
▁ía	-12.507
love	-12.5076
▁mati	-12.5088
▁ege	-12.5091
▁alon	-12.51
▁knit	-12.5109
▁orti	-12.5137
US	-12.5144
▁ntr	-12.5144
▁estr	-12.5147
get	-12.5149
▁enis	-12.5149
▁mod	-12.515
▁rtai	-12.5152
PM	-12.5154
bby	-12.5158
▁arbor	-12.5166
ions	-12.5184
▁kate	-12.5184
▁bod	-12.5186
OX	-12.5188
17	-12.5193
Á	-12.5204
▁lat	-12.5209
lica	-12.5213
▁Age	-12.5221
▁rov	-12.5222
olo	-12.5225
▁boob	-12.5234
nfi	-12.5241
ել	-12.5243
mpa	-12.5244
▁rtan	-12.5255
▁theme	-12.5257
CO	-12.5257
▁urne	-12.5262
▁É	-12.5267
FF	-12.5275
▁erth	-12.5278
/	-12.5284
▁Ice	-12.5285
▁rvel	-12.5286
▁holm	-12.5288
▁tba	-12.5291
▁glov	-12.5295
you	-12.5296
MG	-12.5299
▁rabl	-12.5301
▁orte	-12.5303
▁Ltd	-12.5311
▁omat	-12.5322
him	-12.5327
zi	-12.534
▁tyra	-12.5343
▁eiss	-12.5347
▁dani	-12.5349
▁obs	-12.5349
▁rdin	-12.5361
ggie	-12.5365
▁ffo	-12.5372
▁nho	-12.5377
NY	-12.5381
▁chin	-12.54
but	-12.5404
▁ctri	-12.5404
bru	-12.541
▁hyg	-12.5414
▁sma	-12.5427
flec	-12.5434
ffe	-12.5435
from	-12.5436
▁nagh	-12.5443
▁$30	-12.547
▁egre	-12.5475
rl	-12.5484
▁kha	-12.5489
▁uton	-12.5492
▁NI	-12.5494
▁DA	-12.5497
reci	-12.55
▁arn	-12.5505
▁Ur	-12.5506
▁edg	-12.5506
▁nso	-12.5517
▁pox	-12.5518
▁god	-12.5531
ship	-12.5532
▁moo	-12.5545
ula	-12.5549
▁NY	-12.5549
▁andya	-12.5549
▁95	-12.5552
▁UW	-12.5556
▁amir	-12.5561
stu	-12.5569
▁lai	-12.5577
▁COP	-12.558
▁lini	-12.5585
▁awk	-12.5593
now	-12.5593
lv	-12.5599
oca	-12.5601
rowd	-12.5602
pla	-12.5605
aren	-12.5608
▁յի	-12.5613
obal	-12.5627
▁mac	-12.5631
▁kra	-12.5648
▁aha	-12.5666
▁uss	-12.5667
▁eill	-12.5674
▁nsu	-12.5676
DF	-12.568
▁vity	-12.57
▁ntan	-12.5703
TV	-12.5704
▁cot	-12.5715
▁99	-12.5724
▁neat	-12.5724
▁CIA	-12.5733
▁WA	-12.5734
lway	-12.5738
nko	-12.5738
▁ALL	-12.5741
▁nada	-12.5744
▁14.	-12.5749
▁kar	-12.5751
▁anda	-12.5752
▁inwar	-12.5754
▁icks	-12.5757
▁USD	-12.5767
ntal	-12.5773
▁nst	-12.5778
▁etr	-12.5781
▁ikol	-12.5794
▁eave	-12.5796
▁esto	-12.5799
38	-12.5801
▁poi	-12.5804
elf	-12.5816
▁nana	-12.5821
mmi	-12.5822
▁nas	-12.5826
ock	-12.5833
▁Dem	-12.5838
▁գ	-12.5849
MW	-12.5854
▁թյա	-12.5866
own	-12.5873
▁nato	-12.5892
▁thos	-12.5895
efu	-12.5895
▁Bal	-12.5897
▁kara	-12.59
▁efu	-12.5901
▁eant	-12.5907
ung	-12.5908
▁shid	-12.5909
▁ocus	-12.5911
▁Ve	-12.5918
▁cust	-12.592
▁GO	-12.5937
▁XL	-12.5954
▁24.	-12.596
SS	-12.5962
▁ngan	-12.5964
app	-12.5964
▁rbor	-12.5968
▁khtar	-12.5969
xi	-12.5975
▁NYP	-12.5982
▁redo	-12.5986
▁$20	-12.599
▁wick	-12.5991
▁68	-12.5994
▁iyad	-12.5994
▁gutt	-12.5996
▁iter	-12.5997
▁ecu	-12.6001
date	-12.6007
▁orter	-12.6012
▁sul	-12.6027
▁pion	-12.6033
ensi	-12.6035
▁melo	-12.6036
BET	-12.6037
▁rci	-12.6049
cel	-12.6051
WP	-12.6054
ida	-12.606
▁mbe	-12.6063
PC	-12.6079
▁ION	-12.6084
▁repe	-12.6097
line	-12.6103
▁orro	-12.6123
▁28.	-12.6128
▁AL	-12.6135
kay	-12.6135
▁orge	-12.6135
▁IP	-12.616
nake	-12.6167
▁Mea	-12.6168
▁6%	-12.6175
▁skar	-12.618
▁lve	-12.6181
▁akin	-12.6187
▁FIR	-12.6194
rant	-12.62
▁iff	-12.6208
▁Com	-12.6232
▁MEP	-12.6234
▁ikto	-12.6238
▁HMRC	-12.6244
heir	-12.6251
▁tasha	-12.626
▁nar	-12.627
▁intr	-12.627
▁aliz	-12.6271
▁Lea	-12.6272
▁BCC	-12.6291
PA	-12.6295
▁NCP	-12.6295
thi	-12.6304
▁7%	-12.6304
▁arga	-12.6306
ada	-12.6308
gna	-12.6311
կ	-12.6313
eleb	-12.6313
▁arty	-12.6317
▁noma	-12.6323
▁tcom	-12.6336
▁rgla	-12.6342
▁jp	-12.6343
ké	-12.6344
▁snub	-12.6352
▁evro	-12.6359
▁rro	-12.6367
▁mmar	-12.6372
▁ecord	-12.6381
▁abba	-12.6386
▁rogr	-12.6387
▁lson	-12.639
tab	-12.6394
▁84	-12.6398
▁Kit	-12.6402
sha	-12.6405
▁engu	-12.6406
int	-12.6407
nde	-12.6411
▁Put	-12.6413
posi	-12.6418
▁lows	-12.6432
nsu	-12.6433
▁wool	-12.6434
▁goo	-12.6446
▁nua	-12.6448
▁ips	-12.6457
▁USS	-12.6462
▁ue	-12.647
▁nki	-12.648
▁rdi	-12.6481
▁istu	-12.6482
▁Sox	-12.6484
▁tland	-12.6491
how	-12.6504
vy	-12.6511
▁Ill	-12.6519
opp	-12.6534
▁obe	-12.6544
▁nahan	-12.6547
▁AJ	-12.6548
▁nach	-12.6551
tua	-12.6553
▁odor	-12.6559
nti	-12.656
▁Cyr	-12.657
fec	-12.6575
-4	-12.658
▁nmen	-12.6583
▁£3	-12.6586
ork	-12.659
▁NEWS	-12.6592
▁NOT	-12.6593
▁nnou	-12.6595
TX	-12.6608
▁31.	-12.6626
▁anch	-12.663
▁Try	-12.6633
yer	-12.6633
▁lax	-12.6638
35	-12.6638
ք	-12.6639
EC	-12.6641
▁hart	-12.6644
▁GT	-12.6649
▁ucc	-12.6661
▁enk	-12.6665
▁haun	-12.6667
ST	-12.6669
▁UG	-12.6673
▁23.	-12.6675
▁lond	-12.6677
▁lkin	-12.6685
▁WSL	-12.6686
ick	-12.6693
▁rgu	-12.6705
▁vels	-12.6706
▁Dog	-12.6715
arr	-12.6732
anz	-12.6745
13	-12.6746
▁₹	-12.6747
off	-12.6748
dre	-12.6754
▁tb	-12.6764
▁sou	-12.6765
eme	-12.6768
dra	-12.677
▁ailor	-12.6771
▁CPS	-12.6772
▁Hea	-12.6786
can	-12.6787
▁loat	-12.6789
▁Ov	-12.6801
▁woes	-12.6803
▁ESC	-12.6807
xtra	-12.6809
▁enner	-12.6819
arg	-12.6824
▁kur	-12.6826
▁urvi	-12.6826
▁rns	-12.6842
▁MTV	-12.6843
23	-12.6856
▁honi	-12.6867
▁fuss	-12.6879
▁nod	-12.6881
▁urit	-12.6887
▁rar	-12.6891
▁վ	-12.6894
TY	-12.6897
▁stak	-12.6911
njay	-12.6917
eone	-12.6927
aka	-12.6935
ով	-12.6949
▁orma	-12.6952
DS	-12.6965
▁eller	-12.6967
▁uiz	-12.6983
▁ibu	-12.6991
▁jay	-12.6992
ons	-12.6997
▁IRA	-12.7002
ient	-12.7011
TP	-12.7016
ente	-12.7019
▁ynon	-12.7025
RA	-12.7026
lood	-12.7032
▁nno	-12.7042
vic	-12.7042
dit	-12.7042
ü	-12.7047
ggy	-12.7051
▁ieb	-12.7058
▁rex	-12.7061
▁NRL	-12.7063
▁nolo	-12.7066
EMA	-12.7069
ES	-12.7089
▁ltan	-12.7096
▁woo	-12.7099
▁xpect	-12.7101
▁ugge	-12.7102
▁gray	-12.7104
rian	-12.7109
▁զ	-12.7113
▁erje	-12.7116
▁hoke	-12.7118
▁nefit	-12.7124
▁erto	-12.7124
▁դ	-12.7133
EA	-12.7134
▁Fle	-12.7136
▁ibi	-12.7144
▁Hyde	-12.7152
▁Ci	-12.7155
▁pill	-12.7156
▁abar	-12.7158
▁pok	-12.7165
hol	-12.7175
▁CM	-12.7179
▁ին	-12.7186
ieve	-12.7191
CP	-12.7193
ker	-12.7201
ase	-12.7207
▁Kap	-12.7209
▁tol	-12.721
▁evel	-12.722
▁aji	-12.7239
▁83	-12.724
▁ctiv	-12.7245
▁evy	-12.725
▁toss	-12.7254
mou	-12.7257
▁£2	-12.7262
▁Ola	-12.7266
ound	-12.7268
ENN	-12.7269
▁82	-12.7289
wn	-12.7305
erve	-12.7308
▁ogi	-12.7309
▁surg	-12.7318
▁rub	-12.7324
▁alki	-12.7329
▁Pari	-12.7334
gan	-12.7337
▁ddy	-12.7342
▁CSK	-12.7365
▁3-2	-12.7366
nah	-12.7371
▁wolf	-12.7376
AI	-12.7384
▁alin	-12.7386
▁ntra	-12.7386
▁DE	-12.7388
▁meo	-12.7393
▁mith	-12.7406
▁13%	-12.7411
▁BRI	-12.7414
oes	-12.7422
eb	-12.7429
▁án	-12.743
▁gya	-12.7439
-5	-12.7448
cil	-12.7453
▁sq	-12.7457
▁í	-12.7473
▁RN	-12.7474
▁86	-12.7476
▁uj	-12.7481
▁lenn	-12.7481
▁nza	-12.7482
rna	-12.7494
ARG	-12.7495
bb	-12.7496
ā	-12.7503
▁fou	-12.7506
▁rya	-12.7515
▁MAX	-12.7519
▁zo	-12.7527
▁gala	-12.753
▁Mb	-12.7532
▁lmar	-12.7532
▁omeo	-12.7535
▁LSO	-12.7559
▁ranc	-12.7566
tl	-12.7568
▁volt	-12.7572
▁latt	-12.7575
▁Ted	-12.7581
▁ennon	-12.7583
▁aus	-12.7586
▁Ե	-12.7596
▁haka	-12.7598
▁avan	-12.7613
▁arma	-12.7613
նա	-12.7616
▁nyl	-12.762
▁otti	-12.7624
▁gho	-12.7631
▁amar	-12.7651
▁tem	-12.7651
19	-12.7652
▁Wor	-12.7663
▁jar	-12.7664
▁disha	-12.7664
▁shit	-12.7667
▁adge	-12.7672
ffi	-12.7678
▁olony	-12.768
oun	-12.7681
unt	-12.7682
uk	-12.7682
▁ings	-12.7684
▁25.	-12.7694
net	-12.7696
ala	-12.7708
▁mot	-12.7709
▁watt	-12.7711
▁iring	-12.7714
▁NAT	-12.7715
▁var	-12.7717
▁pac	-12.7728
hy	-12.7733
▁smal	-12.7735
RT	-12.7737
▁HELO	-12.7742
▁ared	-12.7747
▁ssan	-12.7756
ien	-12.7763
this	-12.7763
45	-12.7764
eir	-12.777
rove	-12.777
▁bla	-12.7783
nta	-12.7789
ura	-12.779
bor	-12.7791
▁Kano	-12.7791
▁aum	-12.7801
▁cep	-12.7805
75	-12.7806
▁heet	-12.7817
▁dega	-12.7819
▁tria	-12.7821
▁wit	-12.7825
▁brox	-12.7825
▁staf	-12.783
▁arke	-12.783
bab	-12.7834
▁fury	-12.7841
ttle	-12.7846
▁lamp	-12.7856
▁eine	-12.7858
add	-12.7861
RY	-12.7871
▁PTS	-12.7877
▁Por	-12.7881
▁ynag	-12.7885
tol	-12.7888
▁kis	-12.7891
cé	-12.7893
abor	-12.7894
▁tudy	-12.7895
lk	-12.7897
▁whet	-12.7904
SO	-12.7914
TQ	-12.7923
▁drai	-12.7929
▁njur	-12.7933
▁vere	-12.7933
orm	-12.7937
▁sev	-12.7943
hold	-12.7946
▁ente	-12.7947
SD	-12.7955
▁Flee	-12.7956
55	-12.7961
car	-12.7973
▁trim	-12.7973
▁DUP	-12.7977
▁uide	-12.7977
▁ynne	-12.7978
▁88	-12.7983
▁£20	-12.8
▁են	-12.8002
ets	-12.8004
▁ollen	-12.8014
▁OF	-12.8031
ku	-12.8047
▁oz	-12.8053
▁HR	-12.8054
niff	-12.8058
▁dres	-12.8064
▁ogey	-12.8067
MEN	-12.8071
▁$4	-12.8073
▁vaga	-12.808
▁oja	-12.808
▁oel	-12.8081
RET	-12.8092
▁tiz	-12.8094
▁uge	-12.8102
rez	-12.8105
▁CV	-12.8106
▁rix	-12.8114
▁ibut	-12.8114
95	-12.8115
▁110	-12.8126
▁gly	-12.8145
▁oki	-12.8156
▁wyne	-12.8156
▁elin	-12.8159
ren	-12.8173
▁98	-12.8181
▁NEE	-12.8183
CPI	-12.8186
oast	-12.8199
PD	-12.8203
▁եր	-12.8207
▁naive	-12.8216
▁ISS	-12.8219
կա	-12.8219
▁lint	-12.822
wo	-12.8221
▁AC	-12.8229
▁JJ	-12.8235
▁estro	-12.8238
▁ներ	-12.825
Be	-12.8261
▁vsk	-12.8262
▁rdon	-12.8267
▁այ	-12.827
ele	-12.8274
che	-12.828
▁urt	-12.8283
RCB	-12.8283
▁wax	-12.8286
eti	-12.8289
▁Xav	-12.8292
dka	-12.8293
▁BBQ	-12.8293
▁ktok	-12.8303
▁հետ	-12.8315
key	-12.8322
sse	-12.8325
▁SPF	-12.8333
14	-12.8335
▁ETFs	-12.8346
▁sthma	-12.8357
▁jab	-12.8358
lso	-12.8359
WS	-12.8359
educ	-12.8364
▁ino	-12.8368
▁$9	-12.8369
olle	-12.8374
pri	-12.8375
ata	-12.838
▁ACC	-12.8392
IG	-12.8395
▁uest	-12.8396
▁IPO	-12.84
▁appe	-12.841
▁assey	-12.8411
▁Tr	-12.8424
▁Oz	-12.8426
▁gart	-12.843
▁arjo	-12.8432
nne	-12.8433
▁asin	-12.8434
▁uja	-12.8434
▁9%	-12.8443
uj	-12.8451
▁avou	-12.8466
EU	-12.8471
▁91	-12.8481
▁ikh	-12.8483
27	-12.8484
▁Jh	-12.8493
fan	-12.85
22	-12.8502
28	-12.8515
rat	-12.852
▁ubic	-12.8524
▁ulso	-12.8551
▁QB	-12.8557
ken	-12.8559
▁plet	-12.8563
26	-12.8565
▁sai	-12.8579
yatt	-12.8581
▁rlin	-12.8589
▁lava	-12.8597
▁ritz	-12.8605
AS	-12.8609
	-12.8617
uth	-12.8632
▁NYC	-12.8636
▁etin	-12.8639
▁mmen	-12.8646
hip	-12.8648
orie	-12.8651
EAL	-12.8657
▁Leo	-12.8659
▁croft	-12.8662
▁hoir	-12.8663
▁WAT	-12.8664
tend	-12.8664
▁rove	-12.8671
▁isbon	-12.8681
▁oa	-12.8682
BS	-12.8683
▁lts	-12.8686
ett	-12.869
▁5-0	-12.8692
▁NER	-12.8695
▁101	-12.8699
▁raci	-12.8703
▁azza	-12.8714
GM	-12.872
▁Ke	-12.8722
KR	-12.8724
eart	-12.8727
▁mmi	-12.8727
▁azar	-12.8733
din	-12.875
DR	-12.8751
bout	-12.8761
▁pal	-12.8764
▁bic	-12.8768
▁ske	-12.8771
▁leis	-12.8773
▁erit	-12.8776
avid	-12.879
▁dn	-12.8796
▁rtho	-12.8803
▁dwi	-12.8806
▁TO	-12.8808
▁alan	-12.8815
▁ք	-12.8819
▁CAA	-12.882
▁rida	-12.8823
AVE	-12.8828
cus	-12.8831
▁dear	-12.8838
▁26.	-12.8839
▁SIM	-12.8844
▁£4	-12.8844
AF	-12.8846
▁HQ	-12.8846
▁chal	-12.8856
▁Box	-12.8858
IA	-12.8863
ries	-12.8865
▁oye	-12.8873
irth	-12.8876
▁dai	-12.889
▁spel	-12.889
մբ	-12.8893
▁hun	-12.8895
▁isin	-12.89
▁92	-12.8904
TF	-12.8906
ndo	-12.8907
▁ttin	-12.8911
▁Kno	-12.8915
▁zuk	-12.8917
▁rli	-12.8918
NA	-12.8919
▁gl	-12.8921
ram	-12.8932
▁ede	-12.8943
▁ancho	-12.8948
▁stove	-12.8951
ć	-12.8961
▁ync	-12.8964
▁omy	-12.8965
arly	-12.8968
▁ngkok	-12.8973
▁1/	-12.8973
▁oic	-12.8976
▁xpo	-12.8976
▁LOVE	-12.8977
▁Stre	-12.898
▁ronx	-12.8989
ped	-12.8989
▁£50	-12.8989
lco	-12.8991
▁yne	-12.8991
▁pus	-12.9002
▁2:	-12.9008
▁IQ	-12.9012
▁shir	-12.9022
▁spl	-12.9031
ory	-12.9032
▁acle	-12.9035
aga	-12.9038
▁arme	-12.9039
▁bake	-12.9043
▁Med	-12.9043
▁ugu	-12.9048
ban	-12.9051
▁HERE	-12.906
lida	-12.9062
▁93	-12.9088
▁dir	-12.9092
rik	-12.9093
▁aku	-12.9096
habh	-12.9101
rdin	-12.9105
▁eke	-12.9108
▁mn	-12.9112
onsu	-12.9112
▁Fr	-12.9137
▁ynd	-12.9138
▁shan	-12.9153
▁dges	-12.9154
▁atum	-12.9155
RIS	-12.9159
ã	-12.9165
լ	-12.9165
▁trie	-12.9173
▁Uma	-12.9175
▁snak	-12.9176
▁kron	-12.9176
▁OLED	-12.9179
gn	-12.9182
▁Kar	-12.9187
▁ANG	-12.9191
rv	-12.9195
its	-12.9195
ER	-12.9195
▁efer	-12.9213
HD	-12.9215
CR	-12.9223
racy	-12.9227
▁arse	-12.9229
▁ffen	-12.9229
▁hona	-12.9239
34	-12.924
▁8%	-12.9241
▁vend	-12.9267
EL	-12.9267
aps	-12.9269
oss	-12.9272
▁VII	-12.9273
pee	-12.9292
▁Gaz	-12.9297
▁kart	-12.931
DA	-12.9314
eph	-12.9319
▁6-3	-12.934
▁nath	-12.9343
IL	-12.9357
▁IV	-12.9357
nge	-12.9358
hal	-12.9363
▁uven	-12.9366
umm	-12.9372
▁ANI	-12.9373
oved	-12.9381
▁eega	-12.939
▁lei	-12.9392
▁shek	-12.9393
ui	-12.9395
▁skat	-12.9403
▁nfo	-12.941
▁PRES	-12.9413
▁wadi	-12.9413
▁bud	-12.9414
▁CHR	-12.9417
ning	-12.9421
who	-12.9427
▁Ric	-12.9434
ber	-12.9443
▁rfu	-12.9445
▁96	-12.9452
▁rgyl	-12.9455
▁raj	-12.9456
essu	-12.9461
jah	-12.9463
DMA	-12.9471
wan	-12.9475
PP	-12.9478
▁0.	-12.9493
▁ման	-12.9508
CJ	-12.9518
▁graz	-12.9519
▁oos	-12.9523
չ	-12.9523
▁atz	-12.9528
▁DP	-12.9533
▁echo	-12.9535
hock	-12.9537
▁darl	-12.9539
▁uy	-12.9541
▁ERS	-12.9543
▁NL	-12.9544
▁ntes	-12.9547
▁ucia	-12.9583
their	-12.9596
▁xp	-12.9598
El	-12.9603
▁shpa	-12.9604
▁ntyre	-12.9606
RAF	-12.961
alk	-12.9614
▁nav	-12.9615
ira	-12.9618
▁BA	-12.9619
▁ifi	-12.9634
PO	-12.9637
▁kaya	-12.9639
▁dles	-12.9654
▁trek	-12.9655
nick	-12.9657
eans	-12.966
▁Bha	-12.9661
▁pris	-12.9672
will	-12.9673
MZ	-12.9686
▁ETTY	-12.9699
lic	-12.9703
▁nji	-12.9703
▁Knox	-12.9704
▁Ib	-12.9711
▁ilo	-12.9723
▁ngola	-12.9726
UPI	-12.973
▁#2	-12.9734
LC	-12.9748
even	-12.9749
▁assie	-12.9758
եր	-12.9764
FL	-12.9765
unk	-12.9777
▁aja	-12.9783
ars	-12.9786
▁MSN	-12.9789
fy	-12.9791
▁amou	-12.9791
▁89	-12.9792
▁Wes	-12.9793
▁berg	-12.9793
she	-12.9803
▁TERS	-12.9804
▁mran	-12.9804
▁dore	-12.9807
ode	-12.981
oma	-12.9829
▁orni	-12.983
▁ows	-12.9836
▁slee	-12.9847
▁eane	-12.9851
▁MMA	-12.9855
▁rane	-12.987
▁isse	-12.9876
ado	-12.9877
iva	-12.9881
nity	-12.9883
▁resse	-12.9884
YD	-12.9895
arl	-12.9917
▁annu	-12.9917
zel	-12.9924
eed	-12.9925
▁ssey	-12.9937
▁27.	-12.994
▁udha	-12.9945
more	-12.9946
esti	-12.9953
▁gge	-12.9955
▁civ	-12.9957
nts	-12.9964
▁scri	-12.9965
▁eale	-12.998
neu	-12.9988
▁7-	-12.9988
mine	-12.9989
▁22.	-12.999
▁pent	-12.9996
▁cier	-13.0004
▁SS	-13.0009
ved	-13.0016
▁aves	-13.0021
▁mora	-13.0026
▁tM	-13.0027
▁hile	-13.0037
inz	-13.0052
▁ques	-13.0056
▁LP	-13.006
85	-13.0067
‐	-13.0074
rc	-13.0075
▁Kay	-13.0078
PAC	-13.008
▁GMB	-13.0089
▁IA	-13.0095
▁£30	-13.0099
PSC	-13.01
rtz	-13.0113
▁redu	-13.0118
▁ETF	-13.0121
▁aunch	-13.0122
▁վել	-13.0123
mma	-13.0126
vid	-13.0129
AN	-13.0133
ARS	-13.0136
▁shra	-13.0145
▁metr	-13.0164
▁մի	-13.0168
▁bug	-13.0174
uge	-13.0177
hra	-13.018
eet	-13.0181
▁ս	-13.0183
oy	-13.019
far	-13.0196
▁Doha	-13.0202
▁eks	-13.0203
tun	-13.0204
▁noop	-13.0212
▁Hyu	-13.0214
▁SE	-13.0214
tta	-13.0227
▁oar	-13.0236
▁eto	-13.0239
▁cov	-13.0239
▁hre	-13.0252
▁hali	-13.0258
▁ES	-13.0259
ande	-13.0261
▁mita	-13.0268
ena	-13.0269
▁vez	-13.0279
▁ssen	-13.028
east	-13.0285
ashi	-13.0295
65	-13.0299
hin	-13.03
▁elie	-13.0306
isco	-13.0309
▁tia	-13.031
▁kshi	-13.0311
▁Gus	-13.0311
▁պա	-13.0313
UI	-13.0317
▁asc	-13.0321
ree	-13.0321
▁AF	-13.0325
▁Pri	-13.0338
▁79	-13.0339
▁նի	-13.0341
▁eña	-13.0341
ruc	-13.0346
▁usta	-13.0349
▁iko	-13.0361
▁erin	-13.0384
▁mney	-13.0386
▁iffe	-13.0392
ը	-13.0394
▁anu	-13.0402
vir	-13.0407
▁pst	-13.0408
nest	-13.0408
MO	-13.0425
▁atr	-13.0426
▁astry	-13.0431
▁asco	-13.0432
je	-13.0432
heet	-13.0433
▁spin	-13.0435
▁xx	-13.0446
▁gum	-13.0446
▁asca	-13.0451
▁louse	-13.0464
GP	-13.0469
plac	-13.0475
▁utti	-13.0476
▁	-13.0477
▁lumn	-13.0478
▁ival	-13.0486
▁$15	-13.0495
▁4-2	-13.0498
▁LLC	-13.0498
▁tate	-13.0503
loba	-13.0509
▁Yes	-13.0509
AY	-13.0511
▁lisa	-13.0517
▁wat	-13.052
▁pas	-13.0522
▁sour	-13.0534
take	-13.0534
▁VI	-13.0537
wk	-13.0548
mus	-13.056
▁թ	-13.0566
MER	-13.0581
DO	-13.0583
La	-13.0583
▁ryce	-13.0584
▁cnic	-13.0585
HTS	-13.0586
▁rtí	-13.059
▁apa	-13.0599
▁IRG	-13.0601
▁Hub	-13.0606
▁snip	-13.0607
▁nden	-13.0615
▁evie	-13.0615
SW	-13.0616
▁vani	-13.0617
▁VW	-13.0621
▁renc	-13.0621
▁յ	-13.0628
▁ե	-13.0635
oni	-13.0635
▁Gr	-13.0636
▁ncho	-13.0653
▁ingle	-13.0654
▁NTA	-13.0657
48	-13.0659
rial	-13.0666
29	-13.067
են	-13.0676
▁roma	-13.0682
▁CA	-13.0682
ump	-13.0696
▁Bee	-13.0698
▁nsum	-13.0702
ston	-13.0702
▁Desp	-13.0712
lent	-13.072
▁jit	-13.0726
▁itis	-13.0727
▁ocr	-13.0728
▁elsey	-13.073
▁aggy	-13.0739
▁rous	-13.074
▁lpin	-13.0742
GI	-13.0747
▁inf	-13.0751
▁inni	-13.0761
ism	-13.0767
▁FOR	-13.0772
MP	-13.0781
▁$7	-13.0782
▁Cymr	-13.0785
pan	-13.0786
ress	-13.0788
▁vata	-13.0789
▁wser	-13.0806
yan	-13.0807
▁rowth	-13.0808
▁87	-13.0818
YU	-13.0824
▁ajo	-13.0826
90	-13.0827
▁hora	-13.0831
▁#1	-13.0834
▁lemm	-13.0836
YS	-13.0844
▁առ	-13.0848
▁Aid	-13.0856
▁eeb	-13.0865
▁Kai	-13.0868
▁CBD	-13.0874
cer	-13.0876
▁Ale	-13.0882
▁nerv	-13.0885
▁NWS	-13.0886
▁VR	-13.0886
▁Bhu	-13.0887
▁BP	-13.0895
▁MAN	-13.0902
▁treb	-13.0904
▁inn	-13.0908
▁zra	-13.0908
BF	-13.0926
ativ	-13.0943
▁rbit	-13.0946
▁raf	-13.0952
▁11%	-13.0964
und	-13.097
▁CSE	-13.0975
▁Mom	-13.0976
39	-13.0986
▁rei	-13.0989
▁rza	-13.0996
MR	-13.1
row	-13.1
name	-13.1003
▁yndi	-13.1005
▁rka	-13.1022
▁oka	-13.1034
▁AID	-13.1044
rica	-13.1044
▁zip	-13.1048
▁Dj	-13.1059
ond	-13.1063
▁chuk	-13.1069
MT	-13.107
▁fus	-13.1072
▁kic	-13.1072
lem	-13.1082
▁glue	-13.1096
stic	-13.1098
lé	-13.111
▁Tyre	-13.1122
▁VER	-13.1125
▁upp	-13.1128
▁dou	-13.113
▁UV	-13.1135
▁FCC	-13.1135
▁arno	-13.1136
▁zor	-13.1142
cup	-13.1144
FAS	-13.1144
km	-13.1147
▁raine	-13.116
56	-13.1163
zo	-13.1166
▁DO	-13.1171
▁AU	-13.1177
▁sra	-13.1179
▁MBE	-13.1185
▁orga	-13.1188
ADH	-13.1197
▁angi	-13.1198
▁yah	-13.1202
▁lgar	-13.1202
▁tyre	-13.1211
▁nan	-13.1215
ert	-13.122
▁aleh	-13.1227
VA	-13.1228
▁gha	-13.1232
PV	-13.1235
FA	-13.1241
▁Cre	-13.1242
lay	-13.1245
21	-13.1254
▁otal	-13.1262
▁Yve	-13.1263
anna	-13.1266
▁uad	-13.127
▁IL	-13.1277
▁ML	-13.1283
▁HP	-13.1288
zar	-13.1293
ար	-13.1293
▁ստա	-13.1297
EI	-13.1299
▁urin	-13.131
Ն	-13.1312
▁está	-13.1315
aken	-13.132
▁lkar	-13.1324
▁GC	-13.1331
RI	-13.1341
▁INE	-13.1346
▁mirez	-13.1353
▁osse	-13.1359
33	-13.1363
▁FM	-13.1371
▁aliba	-13.1375
▁REU	-13.1377
BD	-13.1384
isa	-13.1384
▁վոր	-13.139
▁ridg	-13.1395
▁oan	-13.1396
▁oole	-13.1399
▁lizz	-13.1403
▁£8	-13.1405
▁IVE	-13.1407
▁hoot	-13.1423
▁CT	-13.1425
▁obey	-13.1434
▁alen	-13.1434
ches	-13.1435
▁lved	-13.1442
▁pra	-13.1445
բ	-13.1446
▁riam	-13.1458
CG	-13.1459
▁odo	-13.1462
▁lias	-13.1466
cam	-13.1467
xit	-13.1473
▁AK	-13.1474
▁ayyi	-13.1478
bit	-13.1482
▁tigm	-13.1487
MA	-13.1491
▁tead	-13.1493
sm	-13.15
▁lein	-13.1507
CT	-13.1507
▁EEK	-13.1507
▁elch	-13.1508
▁amic	-13.151
▁fray	-13.151
ste	-13.1513
▁rwa	-13.1524
▁gus	-13.1524
▁pag	-13.1525
▁KL	-13.1543
77	-13.1547
uilt	-13.1564
▁reco	-13.1565
▁CMA	-13.157
▁wee	-13.1571
raj	-13.1572
Ms	-13.1572
▁alu	-13.1573
▁oric	-13.1577
▁Che	-13.1582
ying	-13.1589
shki	-13.159
▁rtic	-13.1595
▁xa	-13.1598
▁ր	-13.1599
▁ntz	-13.1609
▁yst	-13.1614
43	-13.1621
▁UA	-13.1625
ties	-13.1625
▁ase	-13.1627
OND	-13.1631
▁arge	-13.1631
▁ող	-13.1632
BI	-13.1636
HC	-13.1638
▁ո	-13.1641
▁AG	-13.1647
▁ME	-13.1652
▁izzi	-13.1654
OW	-13.1659
itt	-13.1661
▁octo	-13.1667
imp	-13.1668
ural	-13.1671
▁akh	-13.1672
gone	-13.1675
▁uror	-13.1683
▁yme	-13.1694
tho	-13.1695
iger	-13.1695
▁orch	-13.1695
▁glaz	-13.1696
LE	-13.1702
▁3-	-13.1706
▁ér	-13.1706
ատ	-13.1711
▁RG	-13.1717
▁ulin	-13.1718
▁euvr	-13.172
RH	-13.1729
▁94	-13.173
▁nve	-13.1745
▁erz	-13.1748
BN	-13.175
▁atwi	-13.1753
HA	-13.1757
▁onor	-13.1764
▁lick	-13.1775
▁anju	-13.1777
long	-13.1777
Մ	-13.1781
vin	-13.1785
RS	-13.1786
mza	-13.1787
▁ISRO	-13.179
▁nush	-13.1791
▁UPF	-13.1791
IM	-13.1792
▁6-4	-13.1795
ée	-13.1803
▁TACM	-13.1803
IE	-13.1805
▁AMD	-13.1813
▁Hur	-13.1814
ին	-13.1817
▁37%	-13.1823
▁OTT	-13.1837
IDA	-13.1843
▁ONE	-13.1847
hei	-13.1848
▁LG	-13.185
VD	-13.1851
▁glar	-13.186
▁12%	-13.1862
▁nsk	-13.1874
▁IPC	-13.1875
▁prep	-13.1876
▁anza	-13.188
▁115	-13.1892
▁riter	-13.1894
▁kka	-13.1897
▁CPR	-13.1898
▁APC	-13.1899
▁WAS	-13.1908
▁avag	-13.1915
▁ilin	-13.1916
▁enza	-13.1934
bed	-13.1938
mily	-13.1939
▁NTS	-13.194
▁odu	-13.1945
▁huk	-13.1946
tes	-13.1955
nny	-13.1966
▁IMD	-13.197
▁JB	-13.1971
ntic	-13.1975
▁PB	-13.1981
wed	-13.1985
about	-13.1991
▁1⁄	-13.2001
▁inja	-13.2004
▁dja	-13.2013
ean	-13.2018
NCE	-13.2019
▁ryo	-13.2025
▁STV	-13.2027
▁hein	-13.2027
ING	-13.2038
jac	-13.2042
cre	-13.2046
▁olu	-13.2047
itiv	-13.2071
▁arun	-13.2072
▁olit	-13.2082
▁lug	-13.2083
BR	-13.2083
did	-13.2086
▁jog	-13.2088
ACK	-13.2098
evi	-13.2101
LM	-13.2104
▁rce	-13.2113
▁vow	-13.2116
▁moor	-13.2126
▁նա	-13.2126
rov	-13.2128
▁vai	-13.2132
arti	-13.2139
▁(1	-13.2143
▁Job	-13.2146
estr	-13.2149
▁inks	-13.2151
▁uzz	-13.2151
▁iya	-13.2158
TM	-13.2166
▁arko	-13.2168
▁Dyn	-13.2171
AT	-13.2172
BER	-13.2173
IS	-13.2184
HAT	-13.2184
ask	-13.2197
NL	-13.2199
▁EST	-13.2205
▁MA	-13.2209
▁aram	-13.2229
▁յան	-13.2243
ears	-13.2245
▁Ange	-13.2247
	-13.2256
▁yeast	-13.2259
▁Je	-13.2267
▁pzig	-13.2267
▁lier	-13.2268
▁Temu	-13.2269
▁rode	-13.227
▁lumb	-13.2272
▁AB	-13.2274
▁6-2	-13.2276
aki	-13.2277
▁rragh	-13.228
▁hrub	-13.2281
SPCA	-13.2285
▁FIA	-13.2287
▁ulg	-13.2288
viro	-13.2295
▁BMI	-13.2297
▁phon	-13.2297
▁ema	-13.2301
▁2.0	-13.2302
▁atc	-13.2306
▁lige	-13.2311
▁Մ	-13.2317
▁clam	-13.2318
▁360	-13.2322
▁dru	-13.2322
TON	-13.2323
▁nox	-13.2326
nn	-13.2329
▁IIT	-13.2339
▁190	-13.2342
▁MJ	-13.2342
▁fani	-13.2343
ents	-13.2346
▁oyne	-13.235
▁OPS	-13.2354
cono	-13.2358
▁Thr	-13.236
▁SAS	-13.2365
iga	-13.2367
rse	-13.2378
▁lums	-13.2379
MK	-13.238
▁OBE	-13.2381
▁Zon	-13.2387
-7	-13.2397
▁shov	-13.2408
▁uir	-13.2413
▁ú	-13.2416
IF	-13.2425
▁graft	-13.2427
ղ	-13.244
▁SoC	-13.2445
lej	-13.2447
▁իր	-13.2452
▁ltar	-13.2454
▁ña	-13.2459
▁nit	-13.2459
▁lunk	-13.2461
▁pham	-13.2461
PL	-13.2464
ano	-13.2466
▁ocu	-13.2475
▁ergi	-13.248
rah	-13.2481
dar	-13.2486
▁Trac	-13.2489
eal	-13.249
ADA	-13.2492
▁ecto	-13.2495
del	-13.2505
ela	-13.2505
▁ukon	-13.2508
▁hord	-13.2509
▁EY	-13.2515
som	-13.2519
▁pon	-13.2523
FS	-13.2527
▁ppro	-13.2532
tre	-13.2543
▁yana	-13.2556
▁Ն	-13.2556
▁nv	-13.2557
▁Ita	-13.2558
▁bett	-13.2559
num	-13.2568
wyn	-13.2577
▁maln	-13.2578
FP	-13.2579
▁60.	-13.2585
▁pir	-13.2589
BO	-13.2595
▁Zha	-13.2598
tell	-13.2601
▁ծ	-13.2605
▁TB	-13.2613
▁SEN	-13.263
▁LAP	-13.2644
ott	-13.2646
▁lym	-13.2664
enu	-13.2678
▁ձ	-13.2679
▁ehle	-13.2683
▁ARE	-13.2685
▁mera	-13.2686
▁edd	-13.2689
hest	-13.2712
▁llet	-13.2713
sky	-13.2722
omi	-13.2728
/2	-13.2731
ors	-13.2736
▁eddi	-13.2737
CE	-13.2737
▁ynes	-13.274
▁Ա	-13.2742
▁laya	-13.2758
▁NOAA	-13.2764
ser	-13.2766
rep	-13.2769
▁ԱՐ	-13.2769
▁հա	-13.277
▁GPU	-13.2771
▁Yatra	-13.2772
▁QR	-13.2776
dhu	-13.278
cula	-13.2785
▁zhny	-13.2787
▁awaz	-13.2791
ms	-13.2792
▁CFP	-13.28
▁ryna	-13.2807
▁lkan	-13.2808
nton	-13.2809
ghu	-13.2815
▁hrunk	-13.282
▁glid	-13.2826
▁cke	-13.2827
▁toxi	-13.2828
▁lte	-13.2829
▁wis	-13.2829
▁️	-13.2832
race	-13.2834
դ	-13.2834
44	-13.2839
ife	-13.2846
▁endi	-13.2855
nnec	-13.2857
ron	-13.2859
OUR	-13.286
▁mint	-13.2865
gle	-13.2871
ASS	-13.2871
▁yu	-13.2874
ates	-13.2884
DU	-13.2889
▁dkar	-13.2889
PFL	-13.2906
▁aría	-13.2921
ILL	-13.2924
die	-13.2924
▁ssues	-13.2927
van	-13.2928
▁nell	-13.2934
▁inj	-13.2935
47	-13.2939
▁mull	-13.294
auna	-13.2942
▁tren	-13.2947
▁gluc	-13.2947
▁oct	-13.2948
▁ANT	-13.2949
lti	-13.2957
una	-13.2961
▁rabh	-13.2963
▁ND	-13.2963
▁zam	-13.2968
▁wner	-13.2968
▁CDs	-13.2974
▁Pub	-13.298
RW	-13.2981
▁kul	-13.2988
▁aigh	-13.299
ika	-13.2991
▁MV	-13.2991
▁roja	-13.2991
▁urie	-13.2994
▁tsw	-13.2997
▁oba	-13.3001
▁alvo	-13.3005
▁GPT	-13.3009
went	-13.3017
ogha	-13.3018
▁rc	-13.302
▁ORT	-13.3029
մ	-13.3029
▁ված	-13.3031
▁mite	-13.3034
▁slav	-13.3039
zak	-13.3043
▁յու	-13.3048
▁Cham	-13.3051
urn	-13.3057
WO	-13.3058
rand	-13.3063
say	-13.307
like	-13.3073
63	-13.3075
▁ais	-13.3077
▁shwi	-13.3085
▁lsen	-13.3087
wh	-13.309
▁AZ	-13.3095
▁gil	-13.3099
▁ldon	-13.31
▁anja	-13.3103
▁seud	-13.3114
also	-13.3119
▁Zac	-13.312
▁Kab	-13.3124
air	-13.3133
▁Aus	-13.3136
▁hil	-13.3142
▁SME	-13.3143
FTA	-13.3144
▁sync	-13.3149
▁DR	-13.3155
amo	-13.3159
▁fend	-13.3162
▁anji	-13.3166
fri	-13.317
▁aois	-13.3171
▁nag	-13.3175
urna	-13.3188
bro	-13.3191
▁nelm	-13.32
▁irk	-13.3201
▁fol	-13.3205
▁AA	-13.3209
▁inl	-13.3218
rty	-13.3221
nten	-13.3224
▁lans	-13.3229
ane	-13.3235
resp	-13.3243
▁gina	-13.3253
▁chai	-13.3257
64	-13.326
▁oren	-13.3271
▁musc	-13.3273
▁njar	-13.328
SP	-13.3296
▁guts	-13.3298
▁kWh	-13.33
▁WAG	-13.3303
▁$25	-13.3306
▁aheem	-13.3307
▁moun	-13.332
▁sank	-13.3326
iffi	-13.3329
▁fal	-13.333
▁hik	-13.333
▁Hydro	-13.3332
▁pher	-13.3348
▁ariu	-13.335
▁REX	-13.3352
▁rsley	-13.3363
▁ledge	-13.3364
▁NCA	-13.3372
▁16%	-13.3378
▁llows	-13.3378
▁eefe	-13.3388
tire	-13.3391
▁rigg	-13.3395
87	-13.3396
ei	-13.3409
▁kni	-13.341
▁rmi	-13.3412
▁2)	-13.3416
mond	-13.3425
nom	-13.3444
lum	-13.3448
lock	-13.3451
▁նց	-13.3458
▁ondo	-13.346
▁cono	-13.3463
ienc	-13.348
WSL	-13.348
▁unus	-13.3486
▁CP	-13.3487
▁idal	-13.3493
ago	-13.3496
▁roj	-13.3501
top	-13.3507
▁Hydr	-13.3508
▁Jun	-13.3514
eople	-13.3515
▁LSE	-13.352
▁giga	-13.3522
jan	-13.3523
▁35.	-13.3529
▁Rod	-13.3531
▁velt	-13.3535
մա	-13.3537
sel	-13.354
▁IPP	-13.3541
vou	-13.3543
yuk	-13.3551
▁ssy	-13.3559
than	-13.3563
▁Meg	-13.3565
HER	-13.3566
▁ayle	-13.3576
▁khi	-13.3576
▁grie	-13.3577
aí	-13.358
▁FX	-13.3586
▁lun	-13.3591
▁utte	-13.3591
nha	-13.3598
cla	-13.36
▁gbo	-13.3601
▁alva	-13.3603
▁meric	-13.3616
31	-13.3624
78	-13.3629
ERY	-13.3632
▁rece	-13.364
met	-13.3649
▁$8	-13.3655
▁halv	-13.3661
▁earc	-13.367
▁orc	-13.3671
▁ATE	-13.3677
bot	-13.3681
▁քա	-13.3697
▁′′	-13.3703
▁arza	-13.3707
tail	-13.3707
▁GW	-13.3715
▁lama	-13.3718
▁Trek	-13.3719
▁ssis	-13.3721
▁stel	-13.3721
pr	-13.3731
HO	-13.3747
▁agnu	-13.3753
LES	-13.3756
▁MOT	-13.3758
AD	-13.3768
▁ezo	-13.3771
ERS	-13.3772
rvel	-13.3773
aya	-13.3781
▁ssia	-13.3791
▁ծա	-13.3791
▁aza	-13.3799
▁etit	-13.38
▁ACL	-13.3806
▁titl	-13.3813
▁ooke	-13.3814
gno	-13.3816
▁lita	-13.3821
▁aggi	-13.3823
SM	-13.3833
dom	-13.3835
aff	-13.3836
▁NJ	-13.3837
`	-13.3838
	-13.3838
♦	-13.3838
rit	-13.3839
▁★	-13.3842
fin	-13.3842
▁XCX	-13.3844
▁SC	-13.3845
▁AIIMS	-13.3846
▁ré	-13.3847
▁hus	-13.3849
▁nip	-13.3852
▁շխա	-13.3856
▁renas	-13.3857
▁anit	-13.3864
▁gyn	-13.3868
gre	-13.387
▁NOW	-13.3872
oza	-13.3875
bek	-13.3876
PEC	-13.3886
rch	-13.3888
▁gyda	-13.389
▁pig	-13.389
leme	-13.3896
▁LAFC	-13.3901
▁ár	-13.3907
rank	-13.3908
▁elley	-13.3909
MD	-13.3911
▁khar	-13.3912
▁ño	-13.3913
▁ños	-13.3915
want	-13.3922
og	-13.3932
▁IF	-13.3933
Ե	-13.3936
fore	-13.3937
crat	-13.3939
▁ondu	-13.3942
▁PSR	-13.3944
▁oac	-13.3945
icul	-13.3946
such	-13.3947
▁LGA	-13.3947
rman	-13.3956
▁crud	-13.396
Վ	-13.3966
▁22%	-13.3971
rac	-13.3974
▁rso	-13.3975
▁azir	-13.3982
▁nslet	-13.3983
▁etz	-13.3987
▁erzo	-13.399
▁xen	-13.3995
▁Ար	-13.4
ón	-13.4002
val	-13.4003
▁dli	-13.4004
▁dram	-13.4006
▁hoe	-13.401
▁Russ	-13.4015
whi	-13.4016
▁rbon	-13.4018
ես	-13.4027
Ա	-13.4028
▁elm	-13.403
▁SUVs	-13.4033
▁ACT	-13.4035
▁NE	-13.4038
▁£7	-13.4042
▁IX	-13.4044
▁260	-13.4044
inan	-13.4046
▁fog	-13.4046
▁erod	-13.4048
▁SO	-13.4052
▁umma	-13.4055
▁nadi	-13.4057
▁zad	-13.4061
67	-13.4066
▁ANN	-13.4069
▁EA	-13.4073
▁iño	-13.4075
▁50.	-13.4075
time	-13.4078
▁Gee	-13.4082
▁tee	-13.4086
year	-13.4092
nte	-13.4098
▁mons	-13.41
▁VC	-13.4103
rder	-13.4112
▁ցի	-13.4112
MI	-13.4142
sia	-13.4152
▁AM	-13.4152
▁նել	-13.4155
▁MK	-13.416
ony	-13.4167
▁kah	-13.4168
gula	-13.4172
▁Tam	-13.4175
▁rall	-13.4178
▁osk	-13.418
▁akar	-13.4185
▁ondi	-13.4198
UT	-13.4201
▁nett	-13.4213
▁aws	-13.4213
▁ynic	-13.4215
lov	-13.4217
lot	-13.4221
mez	-13.4223
▁udes	-13.423
▁tma	-13.4232
▁agne	-13.4232
▁tomb	-13.4233
tak	-13.4238
▁dall	-13.424
▁gado	-13.4241
▁naga	-13.4243
gain	-13.4246
▁idle	-13.4252
▁onti	-13.4255
▁lemn	-13.4259
ín	-13.426
▁HAM	-13.4262
▁EP	-13.4263
93	-13.4277
ICE	-13.4285
▁laga	-13.4287
▁ltz	-13.4297
▁zov	-13.4302
yson	-13.4309
▁alis	-13.4313
▁ursi	-13.4322
▁NO	-13.4325
omb	-13.4326
SX	-13.4335
uni	-13.4336
▁amba	-13.4341
▁bask	-13.4342
HP	-13.4345
▁luti	-13.4345
▁harf	-13.4345
ube	-13.4347
ria	-13.4349
anza	-13.435
ila	-13.4352
▁ngra	-13.4353
GC	-13.4359
▁lee	-13.4368
▁nky	-13.4374
▁DEA	-13.4379
ovi	-13.4379
74	-13.4381
▁yps	-13.4382
▁Row	-13.4383
▁Kala	-13.4395
▁hale	-13.4395
▁5-	-13.4396
▁ulsi	-13.4398
▁njo	-13.44
rack	-13.4405
▁ttis	-13.4407
▁ան	-13.4421
RE	-13.4427
▁ranç	-13.4434
gs	-13.4443
ski	-13.4446
ISS	-13.4449
▁ines	-13.4449
▁MCG	-13.4454
▁ambi	-13.4459
▁dhar	-13.446
cio	-13.4461
▁urtz	-13.4462
▁wicz	-13.4469
lb	-13.447
▁IGHT	-13.4474
▁Ple	-13.4475
oda	-13.4478
▁nze	-13.4483
uff	-13.4484
▁wydd	-13.4486
▁ixar	-13.4486
ael	-13.4487
mana	-13.4491
▁RSV	-13.4496
▁HMP	-13.4504
▁VAN	-13.4505
▁ái	-13.4516
▁prob	-13.4517
mal	-13.452
▁18%	-13.4526
▁oals	-13.4528
▁pert	-13.4534
▁dju	-13.4535
▁veg	-13.4536
▁crow	-13.4544
MM	-13.4546
▁McP	-13.4549
work	-13.4554
▁ehr	-13.4555
▁tien	-13.4559
fel	-13.456
obbl	-13.4564
▁vegg	-13.4574
ILE	-13.4576
▁RAC	-13.4576
▁mé	-13.4583
LP	-13.4588
▁neo	-13.459
▁GQ	-13.459
▁eagu	-13.4593
TB	-13.4596
NS	-13.4597
▁kro	-13.4601
▁rafa	-13.4607
gic	-13.4624
ava	-13.4633
▁rphi	-13.4635
▁hog	-13.4637
SL	-13.4637
▁hosh	-13.4663
▁IND	-13.4669
▁spik	-13.4697
▁lyz	-13.47
▁este	-13.4703
fr	-13.4708
▁hobb	-13.4714
▁aise	-13.4718
▁gat	-13.4718
▁OT	-13.4724
▁TT	-13.4727
ON	-13.4734
▁Հ	-13.4735
▁Lola	-13.4736
▁elet	-13.4745
ltz	-13.4754
▁ausa	-13.4755
▁ubin	-13.4756
lter	-13.4763
AW	-13.4763
▁yev	-13.4766
▁ushi	-13.4768
▁JP	-13.4768
yn	-13.4773
KS	-13.4779
eas	-13.4782
▁Tap	-13.4788
EO	-13.4794
gma	-13.4794
▁NS	-13.4804
▁agpi	-13.4804
Rs	-13.4807
uz	-13.481
▁orde	-13.4813
br	-13.4816
▁icke	-13.482
▁kaz	-13.4838
rá	-13.4842
▁kba	-13.485
CNA	-13.4853
hr	-13.486
▁plex	-13.4862
▁tay	-13.4864
▁AKA	-13.4869
▁lka	-13.4872
uard	-13.4875
ffer	-13.4876
khar	-13.4884
tte	-13.4884
hma	-13.4886
▁tig	-13.4894
▁eals	-13.4921
▁fig	-13.4923
▁cour	-13.4926
AC	-13.4932
▁KP	-13.4933
▁ooz	-13.4948
▁mish	-13.4949
▁NZ	-13.4956
▁hama	-13.4959
yl	-13.496
▁aunc	-13.4962
RO	-13.4964
58	-13.4964
▁INC	-13.4975
ող	-13.4976
OR	-13.4982
▁hash	-13.4989
JD	-13.4992
llar	-13.4996
▁cred	-13.4997
▁ante	-13.4998
sco	-13.5011
ahu	-13.5013
▁դա	-13.5013
hel	-13.5014
▁urma	-13.5016
▁erino	-13.5019
▁Ras	-13.502
▁RR	-13.5022
▁humm	-13.5033
appy	-13.5039
▁SB	-13.505
▁🥇	-13.5051
▁efor	-13.5054
▁հայ	-13.5056
▁tégé	-13.5057
cor	-13.5058
▁MD	-13.5058
▁ndro	-13.5078
TRA	-13.5079
lio	-13.5084
▁կեր	-13.5085
▁sé	-13.5085
▁cube	-13.5094
tory	-13.5096
▁rol	-13.51
▁1-2	-13.5105
▁lobb	-13.5106
▁ARTI	-13.5111
▁mun	-13.5113
▁PPE	-13.5121
jay	-13.5123
▁rdy	-13.5125
▁ché	-13.5128
▁lox	-13.5137
▁SAN	-13.514
▁evo	-13.5147
▁voic	-13.5148
▁Troo	-13.5152
▁chev	-13.5152
BBL	-13.5153
▁հ	-13.5154
SN	-13.5161
▁LOS	-13.5162
ará	-13.5166
▁ICT	-13.5166
eva	-13.5173
▁OBC	-13.5188
eta	-13.5191
▁lphi	-13.5198
▁ICU	-13.5201
▁alam	-13.5202
CK	-13.5212
▁éli	-13.5214
HF	-13.5215
▁ahar	-13.5219
▁Yog	-13.5221
▁njan	-13.523
36	-13.5231
▁27%	-13.5236
pu	-13.5239
▁onka	-13.5242
▁Mel	-13.5244
▁ced	-13.5245
▁97	-13.525
PN	-13.5254
▁վար	-13.5258
uma	-13.5258
EST	-13.5267
rti	-13.528
RP	-13.5284
▁Usha	-13.5285
KK	-13.529
▁goat	-13.5293
▁SEB	-13.5294
AME	-13.5302
hit	-13.5307
▁iper	-13.5308
▁հար	-13.5311
▁nee	-13.5313
▁aru	-13.5318
▁aifa	-13.5322
shar	-13.5324
ier	-13.5331
▁trom	-13.5333
▁yba	-13.5337
▁hifa	-13.5342
▁MSF	-13.5342
▁vena	-13.5343
rab	-13.535
▁Gas	-13.5356
▁gin	-13.5359
mpt	-13.5365
▁uku	-13.5367
OO	-13.5379
ild	-13.5381
TER	-13.5381
ern	-13.5382
▁ntom	-13.5396
ACA	-13.5397
▁sakh	-13.5397
▁liss	-13.5399
ness	-13.5401
niq	-13.5402
▁£6	-13.5418
▁acie	-13.5421
աց	-13.5424
tan	-13.543
ivi	-13.5438
▁glyc	-13.544
ակ	-13.5443
▁pad	-13.545
▁gy	-13.5453
▁NAP	-13.5454
▁SON	-13.5457
tco	-13.5458
▁Tide	-13.5461
▁IC	-13.5467
▁eech	-13.5481
▁hune	-13.5482
▁ISA	-13.5495
88	-13.5497
▁wow	-13.5499
nzo	-13.5499
▁udo	-13.5507
▁eura	-13.5514
▁peg	-13.5517
▁ENT	-13.5518
▁hake	-13.5535
▁mage	-13.5538
▁ntha	-13.5543
ID	-13.5544
▁ále	-13.5546
66	-13.5554
▁ECO	-13.5555
hore	-13.5558
SK	-13.5563
hree	-13.5564
amas	-13.5575
▁mpe	-13.5576
▁wil	-13.5586
▁elma	-13.5592
lug	-13.5593
ope	-13.5596
▁lazo	-13.5603
VP	-13.5604
▁ucou	-13.5619
54	-13.5629
▁UI	-13.5631
▁horn	-13.5632
AL	-13.5634
rai	-13.5634
▁idy	-13.5641
▁hay	-13.5643
ntai	-13.5648
▁ucha	-13.5649
oci	-13.5649
thing	-13.565
▁wobb	-13.5656
▁oko	-13.5657
▁ceit	-13.5663
▁attl	-13.5667
ISA	-13.5672
▁mho	-13.5672
▁udac	-13.5681
ims	-13.5683
des	-13.5684
▁cos	-13.5686
46	-13.5693
▁runt	-13.5693
▁ojan	-13.5699
(	-13.5702
CN	-13.5703
▁oder	-13.5714
ō	-13.5718
ԵՍ	-13.5718
▁4"	-13.5719
CI	-13.572
▁ARC	-13.5722
▁NNPC	-13.5724
▁mut	-13.5725
▁ODAY	-13.5728
▁համա	-13.5733
▁azaar	-13.5734
▁BRIT	-13.5734
FI	-13.5737
rite	-13.574
IX	-13.5744
▁£25	-13.5744
▁urmu	-13.5745
just	-13.5746
Ի	-13.5747
▁demi	-13.5748
▁ijja	-13.5751
▁BHP	-13.5756
▁MND	-13.5759
sto	-13.5765
▁51%	-13.5765
▁32%	-13.5766
▁gravy	-13.5767
▁SAG	-13.5769
▁OUT	-13.5775
sent	-13.5776
▁ezzl	-13.5777
▁6.5	-13.5778
▁urz	-13.578
kee	-13.578
▁Grid	-13.5794
▁Kul	-13.5797
▁CBP	-13.5798
▁abie	-13.5799
move	-13.5799
▁dus	-13.5799
▁dine	-13.58
▁REP	-13.5808
▁40.	-13.5808
▁wast	-13.5808
▁NLC	-13.5813
RB	-13.5813
rket	-13.5823
▁niac	-13.5826
▁akim	-13.5833
udi	-13.5843
crea	-13.5845
▁ndora	-13.5858
▁Say	-13.5864
dg	-13.5865
▁KO	-13.5866
anu	-13.5866
▁MIT	-13.5868
▁rtiz	-13.5872
pox	-13.5874
▁leni	-13.5878
▁FCT	-13.5878
▁(3	-13.5887
▁Yi	-13.5888
HIS	-13.5892
▁TOW	-13.5895
▁£9	-13.5895
oja	-13.59
▁cifi	-13.5904
▁arda	-13.5904
▁yna	-13.5913
▁lldo	-13.5915
▁nva	-13.5915
elfa	-13.5917
▁ikke	-13.5928
▁NAA	-13.5944
▁rasp	-13.5946
mmu	-13.595
ecti	-13.5956
▁sele	-13.5958
▁tang	-13.5958
▁insey	-13.5969
▁oints	-13.5972
▁egu	-13.5973
▁kwa	-13.5976
▁տեղ	-13.5989
▁EN	-13.599
▁ngie	-13.6004
ral	-13.6005
adi	-13.6014
▁dwa	-13.6014
▁Ire	-13.6016
▁Hy	-13.6023
esta	-13.6027
stru	-13.6031
▁owle	-13.6045
▁INS	-13.6048
EX	-13.606
▁RES	-13.6061
mph	-13.6062
▁stav	-13.6066
nes	-13.6074
պ	-13.6075
▁hind	-13.6076
▁ndre	-13.6077
▁PBS	-13.6079
▁axe	-13.6082
▁չ	-13.6083
▁hred	-13.6092
▁MEA	-13.6095
ation	-13.6096
▁né	-13.6099
▁ecti	-13.6102
EE	-13.6104
OLED	-13.6105
them	-13.6108
▁Era	-13.611
▁Te	-13.6118
EAN	-13.6124
▁NSC	-13.6125
hru	-13.6126
MX	-13.6127
▁arx	-13.6135
▁պար	-13.6139
▁tida	-13.614
▁dren	-13.6141
▁AS	-13.6147
▁urga	-13.6157
▁liya	-13.6162
OL	-13.6168
▁kim	-13.6171
ՊՐ	-13.6172
there	-13.6178
shed	-13.618
▁haki	-13.6186
▁OE	-13.6192
▁nos	-13.6193
▁ahir	-13.6197
89	-13.6199
▁nro	-13.6205
▁lesh	-13.6214
▁euve	-13.6224
▁nara	-13.6233
▁RE	-13.6233
gla	-13.6241
jee	-13.6241
▁lvan	-13.6241
into	-13.6254
▁Kali	-13.6256
▁dym	-13.626
▁ustr	-13.6263
ute	-13.6265
▁SA	-13.6274
▁arney	-13.6278
▁lyde	-13.6283
▁llop	-13.6283
▁lman	-13.6289
GN	-13.6294
▁onn	-13.6306
▁flag	-13.6307
lori	-13.6315
▁Xu	-13.6316
▁SIT	-13.6321
▁andy	-13.6329
▁uva	-13.633
49	-13.6331
▁egel	-13.6334
rap	-13.6334
▁slid	-13.6335
ä	-13.6342
CU	-13.6346
eem	-13.6351
other	-13.6351
▁TH	-13.6356
▁nten	-13.636
rim	-13.6362
▁alsa	-13.6366
sin	-13.6371
BT	-13.6382
▁PML	-13.6387
▁hove	-13.6392
▁è	-13.6419
▁հաղ	-13.6432
unit	-13.6433
JP	-13.6434
▁YSR	-13.6434
hor	-13.6435
▁(2)	-13.6435
▁TIME	-13.6437
▁մասին	-13.6438
▁ukwu	-13.6438
▁urle	-13.6444
▁elrod	-13.6445
gy	-13.6449
▁CFM	-13.6452
▁Hyp	-13.6453
▁WILL	-13.6454
▁ewitt	-13.6454
▁limo	-13.6456
vag	-13.6459
first	-13.646
FIL	-13.6462
▁bend	-13.6463
▁INR	-13.6464
▁huja	-13.6468
▁EM	-13.6469
▁tarm	-13.6478
TSA	-13.648
▁OV	-13.6482
▁4)	-13.6484
tle	-13.6501
ause	-13.6503
▁wali	-13.6504
▁mre	-13.6504
▁ardo	-13.6506
▁Kyo	-13.6509
▁Tü	-13.651
▁rde	-13.651
▁XV	-13.6513
▁tort	-13.6518
▁luna	-13.6518
AST	-13.652
▁ius	-13.6521
▁mie	-13.6534
▁իա	-13.6535
vez	-13.6544
▁WR	-13.6553
▁atio	-13.6557
ERE	-13.6557
▁raja	-13.656
▁usca	-13.656
▁zu	-13.6563
▁NIA	-13.6565
▁elu	-13.6571
68	-13.6575
▁arin	-13.6578
back	-13.6581
▁1)	-13.6584
▁igm	-13.6589
▁arle	-13.659
▁olk	-13.659
▁iobh	-13.6591
▁irch	-13.6592
▁մա	-13.6595
▁wb	-13.6598
CLU	-13.6603
▁ել	-13.6617
▁Tur	-13.662
▁42.	-13.6621
▁hevy	-13.6623
▁ALD	-13.6624
TR	-13.6626
▁Vla	-13.6627
▁inal	-13.6642
▁112	-13.6649
42	-13.6649
▁ndal	-13.6651
▁mú	-13.6651
▁6:	-13.6652
▁acha	-13.6659
▁ttor	-13.6659
▁Cle	-13.667
▁OC	-13.6672
▁dwar	-13.6674
▁ehi	-13.6677
▁HSB	-13.6681
▁րա	-13.6685
▁llot	-13.6687
▁Kub	-13.6693
▁BAF	-13.6694
76	-13.6695
▁DHS	-13.6697
nse	-13.6699
մեն	-13.6706
▁vlin	-13.6709
sey	-13.6715
▁dys	-13.6719
cum	-13.672
▁np	-13.6724
▁cs	-13.6726
▁urel	-13.6731
ense	-13.674
aft	-13.6741
▁adam	-13.6742
ATE	-13.6751
▁1:	-13.6764
▁Gos	-13.6773
▁artn	-13.6774
▁Ukr	-13.6777
SA	-13.6784
aq	-13.679
AFS	-13.6799
▁Isa	-13.6801
▁etri	-13.6827
▁ITC	-13.683
▁Ի	-13.6847
▁erni	-13.6851
▁մար	-13.6852
▁nka	-13.6856
ergy	-13.6857
▁ibet	-13.6858
▁eka	-13.6867
nec	-13.6872
▁agal	-13.6885
▁gali	-13.6889
▁usal	-13.6893
▁Cr	-13.6893
SI	-13.6895
yke	-13.6903
▁yog	-13.691
ռա	-13.6913
▁hees	-13.6916
▁hon	-13.6928
endo	-13.6929
▁ddin	-13.693
▁pond	-13.6933
▁LEG	-13.6948
▁easu	-13.6951
▁ngar	-13.6952
▁BT	-13.6955
▁TER	-13.6955
▁sby	-13.696
▁lute	-13.696
uka	-13.6971
▁rody	-13.6976
qvi	-13.6983
▁waja	-13.6986
▁germ	-13.6987
FSA	-13.6993
eams	-13.6993
▁mbra	-13.6997
▁HIP	-13.6998
▁ndri	-13.7008
▁oun	-13.7009
▁GAA	-13.7009
Go	-13.7012
lí	-13.7016
▁FAI	-13.7017
DL	-13.7018
tac	-13.7023
▁loma	-13.7047
tiga	-13.7048
▁VM	-13.7055
dis	-13.7063
ICS	-13.7069
▁IE	-13.7074
bar	-13.7081
FM	-13.7082
▁aso	-13.7084
head	-13.7096
WA	-13.7101
▁2-	-13.7107
TO	-13.7109
▁iste	-13.7112
nga	-13.7114
▁ptu	-13.7116
▁rte	-13.7118
econ	-13.712
▁ahal	-13.7133
▁laney	-13.7135
▁hypn	-13.7137
▁EE	-13.7139
▁nig	-13.7143
host	-13.7154
▁ctur	-13.7159
rus	-13.716
▁UNC	-13.7166
▁cers	-13.7171
▁leps	-13.7174
▁HM	-13.7186
ins	-13.7189
▁onge	-13.7194
▁#3	-13.7199
▁❤	-13.7201
▁szlai	-13.7201
Am	-13.7207
▁ROG	-13.7207
▁SEPT	-13.7208
▁NFT	-13.7213
▁Հայա	-13.7225
▁wes	-13.7228
AG	-13.7236
▁nwick	-13.7238
▁nall	-13.7239
▁OB	-13.724
▁BGT	-13.7244
▁AUGH	-13.7246
▁Zh	-13.7249
▁unci	-13.7251
▁RAB	-13.7253
▁mero	-13.7261
bee	-13.7262
▁ASIC	-13.7267
▁iah	-13.7267
▁nah	-13.7276
ains	-13.7281
▁dl	-13.7291
▁utala	-13.7295
▁IFS	-13.7297
KY	-13.7297
entr	-13.7304
▁AMC	-13.7307
cts	-13.7316
▁xena	-13.7319
▁akha	-13.732
tura	-13.7321
▁OL	-13.7322
▁âte	-13.7328
▁BNP	-13.7333
▁arak	-13.7339
▁54.	-13.7343
▁Ó	-13.7347
▁oooo	-13.7347
▁MSE	-13.7351
▁dhaa	-13.7352
▁bba	-13.7353
OV	-13.7353
ï	-13.7358
rati	-13.736
wick	-13.736
oh	-13.7361
RG	-13.7363
nvi	-13.7366
53	-13.7373
▁euv	-13.7379
▁orre	-13.7382
▁haja	-13.7399
▁trea	-13.7401
▁arde	-13.7404
▁orwi	-13.7405
▁IPS	-13.7411
▁warz	-13.7413
UN	-13.7414
▁PJ	-13.7424
▁rong	-13.7426
▁cern	-13.7431
▁ixie	-13.7432
▁lust	-13.7433
▁hafi	-13.7434
▁nibb	-13.7435
▁յա	-13.7439
▁nahi	-13.7443
▁xio	-13.7452
▁rá	-13.7457
▁(4	-13.7457
fea	-13.7468
▁obl	-13.7481
▁CCP	-13.7488
VC	-13.7492
hink	-13.7494
▁tink	-13.7496
▁nanc	-13.7503
▁czy	-13.7504
REE	-13.7504
32	-13.751
▁egro	-13.7511
▁bir	-13.7519
▁Apr	-13.7525
▁NG	-13.7533
▁Ö	-13.7534
▁ISI	-13.7538
▁ochu	-13.754
▁lbs	-13.754
▁grap	-13.7542
▁kal	-13.7544
▁hyd	-13.7553
EF	-13.756
▁Tip	-13.7561
HT	-13.7564
յու	-13.7565
dah	-13.7568
▁athe	-13.7569
▁ajj	-13.757
▁70.	-13.7572
jit	-13.7575
sl	-13.7579
▁mund	-13.7585
▁4-	-13.7586
test	-13.7593
▁aida	-13.7603
07	-13.7603
aura	-13.761
TL	-13.7612
▁upe	-13.7613
▁riso	-13.7614
URC	-13.7619
▁naut	-13.7628
▁LPG	-13.7635
▁DB	-13.7638
▁ց	-13.7638
ourt	-13.7643
▁giar	-13.7644
▁OJ	-13.7647
IT	-13.7649
▁hami	-13.7658
▁TN	-13.766
zzi	-13.7661
jik	-13.7661
▁nyam	-13.7664
▁3:	-13.7671
▁2/	-13.7671
▁onths	-13.7675
raz	-13.7677
գա	-13.7687
last	-13.7689
kh	-13.7697
IN	-13.77
▁cher	-13.7701
tart	-13.7706
▁snia	-13.7706
▁uko	-13.7708
▁HER	-13.7709
▁ayan	-13.7709
▁iggy	-13.771
▁DCP	-13.7711
itz	-13.7716
ayo	-13.7718
▁hynn	-13.7726
▁drea	-13.7736
nown	-13.7738
▁ակ	-13.7738
գ	-13.7744
pin	-13.7749
VER	-13.7749
▁IB	-13.7753
▁GK	-13.776
▁€1	-13.7765
ARC	-13.7771
▁sser	-13.7779
two	-13.7784
▁otro	-13.7784
▁Krav	-13.7791
▁eles	-13.7797
BM	-13.7797
▁Kho	-13.7798
lue	-13.7803
▁té	-13.7805
again	-13.7805
▁shka	-13.7832
dad	-13.7838
▁Gru	-13.7842
▁ITT	-13.7844
rape	-13.7847
hrow	-13.7852
▁nerd	-13.7854
▁ncha	-13.7858
▁awke	-13.786
▁abre	-13.7861
▁CIT	-13.7863
▁suf	-13.7868
▁KY	-13.7869
▁rsha	-13.788
▁tish	-13.7884
▁wank	-13.789
▁kri	-13.7893
▁sie	-13.7907
UK	-13.7916
▁Ir	-13.7919
▁#5	-13.7919
▁anci	-13.7935
usin	-13.7937
▁ESA	-13.7938
deb	-13.7944
sume	-13.7951
▁lpan	-13.7957
▁yj	-13.7961
affl	-13.7961
ater	-13.7964
▁imba	-13.7967
▁tai	-13.7967
73	-13.7978
▁kun	-13.7978
▁lani	-13.7979
▁epo	-13.7985
AKE	-13.7986
▁lba	-13.7988
▁shtr	-13.7997
fil	-13.8005
▁onta	-13.8007
ATS	-13.8012
▁ikit	-13.8015
may	-13.8021
▁Cul	-13.8026
▁CIS	-13.8033
▁ujo	-13.8033
▁adg	-13.8034
ՐԵ	-13.8034
▁WWII	-13.8035
▁IAN	-13.8038
▁UAV	-13.8039
▁OLIS	-13.804
uda	-13.8041
▁գի	-13.8042
years	-13.8044
▁iktok	-13.8044
bul	-13.8046
▁CGT	-13.8046
▁£22	-13.8049
▁lhaj	-13.8051
SC	-13.8059
▁LHP	-13.8059
▁EMT	-13.8061
▁üll	-13.8064
▁teet	-13.8067
▁kunk	-13.8069
▁Ø	-13.8069
▁Բ	-13.807
▁bah	-13.8071
UP	-13.8072
▁Kochi	-13.8072
rva	-13.8074
▁YOUR	-13.8075
▁ECI	-13.8076
▁5-3	-13.8077
▁34%	-13.8077
▁PLA	-13.8078
▁BTS	-13.8078
▁malf	-13.8082
▁UCL	-13.8083
▁kan	-13.8084
▁lysé	-13.8086
whe	-13.8086
▁Ava	-13.8092
▁mpsey	-13.8095
▁Wynn	-13.8095
▁53%	-13.8102
▁iè	-13.8102
wic	-13.8103
▁Tyne	-13.8104
▁alem	-13.8104
▁3%.	-13.8105
▁ader	-13.8107
▁ruze	-13.8119
▁lky	-13.8121
mad	-13.8129
▁Kota	-13.8129
▁JN	-13.8134
▁WE	-13.8136
▁meni	-13.8139
▁քի	-13.8141
▁ssem	-13.8146
EM	-13.8156
▁eol	-13.8157
LF	-13.8158
▁urni	-13.816
▁Klo	-13.816
▁eor	-13.816
▁ackay	-13.8165
ncil	-13.8175
rjee	-13.818
▁24%	-13.8186
▁PET	-13.8194
▁6-	-13.8196
▁lora	-13.8199
ռ	-13.8204
▁ynec	-13.8212
▁ggie	-13.8214
▁EID	-13.8215
▁adri	-13.8217
hro	-13.822
▁rost	-13.8221
▁NYS	-13.8233
▁rze	-13.8235
▁etai	-13.8242
▁voi	-13.8242
▁Stat	-13.8251
▁osco	-13.826
sis	-13.8269
▁OG	-13.8273
CHA	-13.8278
EW	-13.828
nor	-13.828
▁sak	-13.8281
ilda	-13.8283
▁init	-13.8284
ús	-13.8295
▁EBU	-13.8298
▁asso	-13.8299
▁kang	-13.8299
▁phe	-13.8301
Trump	-13.8304
▁SPD	-13.8305
ANS	-13.8309
▁renz	-13.8313
▁rè	-13.8314
▁33.	-13.8316
▁sio	-13.8317
ova	-13.8322
▁yren	-13.8323
éri	-13.8331
▁DW	-13.8336
▁vase	-13.8346
▁ks	-13.8349
▁ws	-13.8365
yz	-13.837
coll	-13.8375
▁րդ	-13.8379
▁itte	-13.8379
ech	-13.838
▁MSC	-13.8382
▁osin	-13.8384
▁acin	-13.8385
De	-13.8386
▁WH	-13.839
nian	-13.8398
utz	-13.8399
▁glut	-13.8404
▁յն	-13.8409
▁xel	-13.8415
lmo	-13.8416
▁olm	-13.8417
eck	-13.842
rib	-13.8422
▁CQ	-13.8425
▁arlo	-13.8426
▁nash	-13.8436
LD	-13.8443
▁wkey	-13.8446
▁oner	-13.8456
▁hack	-13.8457
▁Him	-13.8483
▁hé	-13.8487
gro	-13.8488
▁auli	-13.849
cul	-13.8493
chul	-13.85
նչ	-13.8503
▁FY	-13.8509
ebr	-13.851
վել	-13.8516
ված	-13.8527
▁ebri	-13.8539
eer	-13.8545
▁tani	-13.8546
▁lmi	-13.8548
state	-13.8552
▁olf	-13.8568
iff	-13.8569
ndon	-13.8572
▁eger	-13.8574
▁DM	-13.8579
▁ryn	-13.8583
yr	-13.8585
▁նակ	-13.8589
ticl	-13.859
▁CAL	-13.8594
▁rvat	-13.8616
rath	-13.8623
NTA	-13.8626
▁nora	-13.8635
turn	-13.8636
▁Gan	-13.8639
եւ	-13.8642
rio	-13.8644
▁nja	-13.8646
SHA	-13.865
▁enh	-13.8667
▁CU	-13.8669
VS	-13.8672
rin	-13.8673
ICK	-13.8675
▁rbin	-13.8693
▁nh	-13.8699
▁njee	-13.8702
pul	-13.8703
▁alma	-13.8703
▁addo	-13.8704
▁dera	-13.8707
▁EIS	-13.8714
▁Կ	-13.8726
▁asti	-13.8727
UST	-13.8729
▁raya	-13.8731
▁Rh	-13.8737
late	-13.8738
▁CR	-13.8742
▁դի	-13.8744
eld	-13.8747
glar	-13.8756
▁levi	-13.8767
pect	-13.877
▁ebbl	-13.8777
vie	-13.878
uke	-13.8793
▁CAP	-13.88
ower	-13.8806
▁cad	-13.8806
tru	-13.8806
▁TAT	-13.8808
ORT	-13.8808
nto	-13.8809
▁nasc	-13.8812
wal	-13.8815
emen	-13.8822
▁DG	-13.8827
▁փա	-13.8833
sè	-13.8833
▁rba	-13.8844
prem	-13.8846
▁ARD	-13.8849
▁utk	-13.8857
yah	-13.8869
ssar	-13.887
▁frog	-13.8871
▁UBS	-13.8885
ստ	-13.8888
▁CAS	-13.8893
▁aran	-13.8897
TD	-13.8901
▁reac	-13.8901
baz	-13.8908
DM	-13.8914
▁naya	-13.8914
▁hyn	-13.8916
▁Que	-13.8917
rage	-13.8923
bl	-13.8936
▁ssar	-13.8936
Տ	-13.8943
▁օր	-13.8944
▁kam	-13.8944
▁ğan	-13.8946
mas	-13.8949
▁EMA	-13.8951
PG	-13.8952
▁yra	-13.8952
▁£75	-13.8954
▁lara	-13.8955
▁ATOR	-13.8956
▁7-5	-13.8956
▁EDT	-13.8957
té	-13.8961
▁vign	-13.8964
▁Cyri	-13.8966
lone	-13.897
ux	-13.8979
▁SMU	-13.8988
▁ebr	-13.8988
▁ylla	-13.8996
▁dhik	-13.8997
ocat	-13.8999
dn	-13.9004
▁nrith	-13.9005
▁wyn	-13.9008
iè	-13.9012
▁usti	-13.9014
▁dría	-13.9015
▁loch	-13.9017
▁oltz	-13.9018
▁clyde	-13.9018
wneu	-13.9019
▁8.5	-13.9019
▁cop	-13.9026
hab	-13.903
▁zob	-13.9032
▁olei	-13.9035
MQs	-13.9036
▁(2	-13.9037
sol	-13.9038
▁lvd	-13.904
▁kyr	-13.9041
where	-13.9042
heel	-13.9046
sid	-13.9047
▁ono	-13.9061
▁prose	-13.9063
▁VA	-13.9064
zuk	-13.9068
▁155	-13.9069
▁hatt	-13.9083
▁RIA	-13.9091
EAT	-13.9092
▁isti	-13.9099
▁բեր	-13.9101
tus	-13.9101
arni	-13.9105
րես	-13.9106
▁inny	-13.9107
▁gyna	-13.9112
ymp	-13.9114
lah	-13.9118
ña	-13.9118
zan	-13.912
cle	-13.9122
TEM	-13.9123
▁55.	-13.9125
▁bery	-13.9125
82	-13.9129
ray	-13.913
▁PSV	-13.9133
rra	-13.9144
lac	-13.9144
▁ambo	-13.9146
▁39.	-13.915
▁փոխ	-13.915
als	-13.9155
▁65.	-13.9159
GF	-13.916
2.	-13.9161
▁ESS	-13.917
▁adha	-13.9173
▁uré	-13.9176
NO	-13.9177
▁ոլ	-13.9179
▁rmag	-13.9182
▁MAT	-13.9184
▁kola	-13.9187
▁ters	-13.9192
ein	-13.9195
▁eeta	-13.9199
▁eget	-13.9202
▁tou	-13.9207
▁PFA	-13.9212
mpl	-13.922
dal	-13.9224
emp	-13.9226
▁endry	-13.9233
▁adm	-13.924
▁garve	-13.9246
▁mbre	-13.9255
▁#9	-13.9255
▁avlo	-13.9261
▁Wyn	-13.9264
▁RED	-13.9267
por	-13.9268
Al	-13.9268
▁ardu	-13.9277
▁Tej	-13.9282
alia	-13.9282
▁DES	-13.9285
▁nduc	-13.9287
▁MC	-13.9287
▁ido	-13.9291
tern	-13.9294
aï	-13.9303
▁izzo	-13.9318
▁ozz	-13.9326
HAK	-13.9328
▁yw	-13.9328
▁oak	-13.9335
▁MOR	-13.9335
onal	-13.9336
akh	-13.9345
▁eán	-13.9347
OLA	-13.9349
▁ndid	-13.9352
IST	-13.9354
▁pindi	-13.9355
▁inch	-13.9358
ota	-13.9359
SR	-13.9362
▁INK	-13.9366
▁wald	-13.9367
eks	-13.9374
DD	-13.9378
▁udin	-13.9384
kil	-13.9386
SON	-13.9393
▁thens	-13.9401
ffen	-13.9402
▁WW	-13.9406
▁ect	-13.9408
ouse	-13.941
▁Una	-13.9424
trai	-13.9424
real	-13.9425
comp	-13.9426
1.	-13.9441
▁cto	-13.9443
▁nika	-13.9446
yed	-13.9447
▁SEA	-13.9448
▁ULE	-13.9454
▁reddy	-13.9456
MAX	-13.9459
▁meta	-13.946
▁ulk	-13.9465
lita	-13.9477
zu	-13.9479
▁aph	-13.9482
rwic	-13.9485
▁vara	-13.9491
oon	-13.9492
▁dler	-13.9496
ribe	-13.9496
uit	-13.9498
▁buse	-13.9501
▁FE	-13.9503
cess	-13.9504
usi	-13.9505
▁orz	-13.9509
▁Tea	-13.9511
▁kong	-13.9516
good	-13.9517
▁Int	-13.9518
▁CON	-13.9522
▁SPS	-13.9522
▁CL	-13.9523
▁rph	-13.9527
▁EVA	-13.9528
▁orba	-13.953
efore	-13.9531
oint	-13.9531
▁Zum	-13.9532
▁llic	-13.9538
WR	-13.9541
hot	-13.9542
▁zin	-13.9554
▁գո	-13.9555
▁eds	-13.9558
CME	-13.9558
round	-13.9558
▁#4	-13.957
Or	-13.9575
▁nfe	-13.9576
▁haze	-13.9579
▁eact	-13.958
▁EMB	-13.9588
acy	-13.959
▁rumm	-13.9591
▁dysp	-13.9592
▁oosi	-13.9596
▁Ima	-13.9597
▁4:	-13.9597
▁rhan	-13.96
nnua	-13.9601
lth	-13.9603
▁ydd	-13.9604
yers	-13.9608
▁Dom	-13.9623
▁acne	-13.9624
▁ukas	-13.9628
▁SAD	-13.9639
py	-13.9643
▁COM	-13.9643
▁gast	-13.9644
▁osch	-13.9644
▁haft	-13.9652
jk	-13.9658
WN	-13.9663
1)	-13.9665
▁rbid	-13.9667
ulk	-13.967
▁Kil	-13.9677
▁Yas	-13.9679
▁owar	-13.9679
▁Kaye	-13.9683
▁CAR	-13.9688
▁lbw	-13.9696
edit	-13.9696
oad	-13.9696
kel	-13.9696
OME	-13.97
unde	-13.9712
MH	-13.972
▁agra	-13.972
▁nke	-13.9721
▁COT	-13.9724
▁rune	-13.973
▁mandu	-13.9743
EMP	-13.9744
▁pos	-13.9744
▁դր	-13.9745
▁nad	-13.9745
ket	-13.9754
shma	-13.9757
▁nym	-13.9766
anno	-13.9768
▁shev	-13.9771
▁shya	-13.9788
զ	-13.979
▁uga	-13.979
ema	-13.9792
ders	-13.9793
▁baka	-13.9799
mat	-13.9808
UMA	-13.9808
tum	-13.9809
▁stok	-13.9811
hz	-13.9814
▁eela	-13.9823
alse	-13.9831
ius	-13.9841
TN	-13.9843
▁ayak	-13.9855
▁TLA	-13.9857
▁aver	-13.9859
ELL	-13.9861
Bu	-13.9862
▁abe	-13.9867
lse	-13.9868
▁DU	-13.9869
▁ría	-13.987
▁cchi	-13.9882
▁lut	-13.9883
mak	-13.9883
▁NF	-13.9889
▁NEO	-13.9894
holm	-13.9903
▁Dru	-13.9903
ORN	-13.9908
rgil	-13.9909
▁goog	-13.991
▁eño	-13.9912
▁AST	-13.9923
·	-13.9943
Â	-13.9943
▁¿	-13.9943
▁úñez	-13.9943
▁կազմ	-13.9944
▁iQoo	-13.9944
▁TS	-13.9944
▁ջին	-13.9944
▁gwar	-13.9954
▁UAP	-13.9955
▁£35	-13.9959
UET	-13.9961
▁ahel	-13.9965
▁hymn	-13.9965
▁$80	-13.9967
VR	-13.9968
▁ratah	-13.997
▁LLM	-13.9971
make	-13.9977
▁Ag	-13.9985
▁IANS	-13.9985
▁SZA	-13.9989
▁teak	-13.9997
å	-13.9999
▁alta	-14.0003
▁WOMA	-14.0003
▁VMA	-14.0008
▁hazi	-14.0008
▁ahiti	-14.0008
▁JCP	-14.001
ily	-14.0017
▁6%.	-14.0018
▁či	-14.0021
▁grop	-14.0032
▁164	-14.0033
LV	-14.0035
▁wain	-14.0037
98	-14.0039
▁ANU	-14.0041
▁KN	-14.0042
nger	-14.0048
hap	-14.005
▁PO	-14.005
bat	-14.005
▁ör	-14.0052
▁emov	-14.0063
rro	-14.0068
saw	-14.0073
▁151	-14.0076
▁եխ	-14.0079
▁ilba	-14.008
fici	-14.0081
▁RFU	-14.0083
▁աց	-14.0084
▁LDP	-14.0089
▁ըն	-14.0089
▁GH	-14.009
nci	-14.009
▁lwy	-14.0091
▁IO	-14.0099
▁ál	-14.0101
▁cum	-14.0113
▁49.	-14.0113
ORC	-14.0116
gard	-14.0118
▁235	-14.0124
▁IM	-14.0126
▁SNC	-14.0135
rekk	-14.0138
zah	-14.0138
▁NEC	-14.0139
tack	-14.014
OCK	-14.0141
▁atla	-14.0143
▁UPS	-14.0164
▁eggi	-14.0164
▁RS	-14.0166
▁lmain	-14.0173
IC	-14.0173
▁Knu	-14.0174
sur	-14.0178
while	-14.0181
▁EX	-14.0185
being	-14.0186
▁zhd	-14.0189
zz	-14.0195
▁slava	-14.0203
▁rgi	-14.0206
osi	-14.021
▁HEL	-14.0212
▁fau	-14.0224
▁axon	-14.0225
elp	-14.0225
▁vlo	-14.0227
OT	-14.0227
▁ako	-14.0227
oard	-14.0236
1⁄	-14.0236
IMS	-14.0239
KEA	-14.0243
▁ajan	-14.0246
hum	-14.0246
see	-14.0255
▁PP	-14.0258
▁yoti	-14.0261
▁ksh	-14.0264
▁48.	-14.0267
▁veka	-14.0268
▁ACA	-14.0269
▁PRC	-14.0269
RR	-14.0273
LAT	-14.0276
▁GOA	-14.0292
▁MON	-14.0295
enna	-14.0295
▁lak	-14.0297
▁MET	-14.0303
▁ndu	-14.0309
▁ndol	-14.0314
imin	-14.0318
SMC	-14.0318
DY	-14.0319
▁jek	-14.0326
▁ajid	-14.0327
▁dle	-14.033
▁taple	-14.0335
enti	-14.0339
zy	-14.034
ման	-14.0347
REA	-14.0348
AAD	-14.0349
oks	-14.0349
▁ALP	-14.0356
▁տա	-14.0356
gus	-14.0358
AMA	-14.0364
lls	-14.0366
▁Vod	-14.0368
▁գր	-14.0369
Ed	-14.0374
rop	-14.0374
▁ashi	-14.038
pil	-14.0385
շ	-14.0386
cce	-14.0387
ntir	-14.039
urt	-14.0394
▁hlor	-14.0395
▁roch	-14.0395
▁Ne	-14.0409
eter	-14.0413
▁ARM	-14.0414
cur	-14.0415
▁zee	-14.0416
▁lpit	-14.042
▁ehra	-14.0422
▁ntis	-14.0423
▁MG	-14.0425
▁OGE	-14.0446
▁nkit	-14.0453
▁herb	-14.0454
▁hos	-14.0456
▁inki	-14.0462
VID	-14.0465
97	-14.0467
▁TSA	-14.0473
▁ախա	-14.0477
▁ø	-14.048
cause	-14.0485
▁CAF	-14.0485
▁IG	-14.0485
yle	-14.0486
▁EC	-14.0491
seem	-14.0495
▁ICA	-14.0497
▁nbar	-14.0497
part	-14.0507
ants	-14.051
▁AAA	-14.0523
▁deri	-14.0531
▁ué	-14.0539
▁ovin	-14.0541
ALL	-14.0542
▁erro	-14.0545
▁eez	-14.0549
RF	-14.0553
▁ahr	-14.0554
eogh	-14.0559
▁etra	-14.057
anka	-14.0574
▁VLA	-14.0579
Կ	-14.0581
Ö	-14.0583
▁erat	-14.0583
▁sly	-14.0583
▁երի	-14.0586
sten	-14.0589
▁saun	-14.059
iq	-14.0604
▁erga	-14.0626
▁ոն	-14.0634
▁isk	-14.0636
▁Kr	-14.0637
▁crats	-14.0637
▁afar	-14.064
▁mnes	-14.064
▁lley	-14.0643
▁hyal	-14.0645
▁arey	-14.0646
LO	-14.0654
AND	-14.0657
▁իս	-14.0662
rson	-14.0663
▁mary	-14.0664
CNG	-14.0677
▁nker	-14.0679
ASU	-14.0681
▁IBS	-14.0682
gel	-14.0689
▁ERC	-14.0705
▁cont	-14.0713
▁Kla	-14.0715
ews	-14.072
TS	-14.0721
ալ	-14.0724
▁ukh	-14.0726
▁udor	-14.0732
mani	-14.0733
▁utur	-14.0734
▁TM	-14.0739
▁esso	-14.0741
set	-14.0743
▁ALA	-14.0746
▁ír	-14.0747
RES	-14.0747
▁rji	-14.0755
▁tala	-14.0758
59	-14.0759
▁achi	-14.0759
▁stov	-14.0761
WC	-14.0762
▁zmi	-14.0768
▁EQ	-14.077
wl	-14.0778
right	-14.0783
▁պե	-14.0786
AB	-14.0789
▁aree	-14.079
▁ldr	-14.0791
▁riya	-14.0794
▁Sou	-14.0801
▁Hype	-14.0805
RIL	-14.0806
EEK	-14.0816
▁MOL	-14.0823
▁ssor	-14.0826
▁ikor	-14.0831
▁yli	-14.0835
▁harb	-14.0836
▁zar	-14.084
▁eci	-14.0845
▁rsk	-14.0848
▁RET	-14.0854
olic	-14.0857
▁ASI	-14.0867
ccor	-14.0867
▁lé	-14.0873
▁fue	-14.0873
jak	-14.0875
nds	-14.0878
▁MER	-14.0883
▁ABS	-14.0883
▁TUR	-14.0889
▁Kaz	-14.089
ddi	-14.0896
ckey	-14.0905
▁rz	-14.091
ogg	-14.0914
▁vall	-14.0918
▁TUC	-14.0923
mina	-14.0924
▁herd	-14.0925
▁AIN	-14.093
▁ELL	-14.0932
▁tore	-14.0932
▁itl	-14.094
▁lef	-14.0947
▁rook	-14.0948
▁nald	-14.0954
lm	-14.0959
ody	-14.0968
▁HE	-14.0971
▁hade	-14.0971
▁rrin	-14.0976
run	-14.0979
▁nici	-14.098
▁dum	-14.0985
think	-14.0986
▁aino	-14.0989
EP	-14.0989
eh	-14.0991
▁meli	-14.0991
rsk	-14.0995
CL	-14.1004
▁ssid	-14.1005
▁lkit	-14.1011
▁onm	-14.1012
▁gw	-14.1014
▁logn	-14.1015
71	-14.1021
▁bot	-14.1022
▁onna	-14.1034
▁մ	-14.1041
UD	-14.1042
®	-14.1055
▁Å	-14.1055
●	-14.1055
▁համար	-14.1055
ider	-14.1055
▁GOAT	-14.1059
ø	-14.1062
▁NXT	-14.1062
édé	-14.1063
▁goa	-14.1066
▁gyps	-14.1067
▁VIDE	-14.1067
▁$75	-14.1068
▁WF	-14.107
▁Hø	-14.1072
▁€5	-14.1072
AU	-14.1073
▁OH	-14.1075
oka	-14.1076
high	-14.1078
▁RPG	-14.1082
lass	-14.1088
phi	-14.1093
▁Cô	-14.1095
▁lang	-14.1095
▁trot	-14.1096
down	-14.1104
▁armi	-14.1105
▁նոր	-14.1105
AIL	-14.1108
▁86%	-14.1109
▁iner	-14.1109
▁AVE	-14.1111
▁egean	-14.1118
▁ragg	-14.1123
▁MLC	-14.1124
▁forc	-14.1132
▁TJ	-14.1133
▁SMS	-14.1139
▁IR	-14.114
▁gyro	-14.1146
omo	-14.1149
▁CHIP	-14.1152
▁Գ	-14.1153
▁eynes	-14.1157
▁Trey	-14.1158
▁TOR	-14.1159
▁NR	-14.116
▁phec	-14.116
▁umy	-14.116
▁գն	-14.1164
▁rina	-14.1166
▁ehl	-14.1168
▁dah	-14.117
▁ILLE	-14.1171
len	-14.1171
▁lkie	-14.1177
atch	-14.118
▁OHN	-14.118
▁lima	-14.1185
▁lji	-14.1194
րել	-14.1195
▁(11	-14.1197
▁uza	-14.12
▁epe	-14.1207
mot	-14.1207
▁LAS	-14.1208
BDC	-14.1213
▁akob	-14.1214
▁Yok	-14.1219
bin	-14.1221
ró	-14.1225
lead	-14.1227
▁CAN	-14.1229
efea	-14.1233
▁դատ	-14.1237
TDA	-14.1242
57	-14.1249
▁52.	-14.1251
▁տրոն	-14.1253
▁yak	-14.1256
ERT	-14.1262
▁ajja	-14.1262
▁aziz	-14.1264
▁ubre	-14.1264
▁ml	-14.1269
rude	-14.1271
▁NIC	-14.1271
▁NPC	-14.1273
yfa	-14.1274
▁CAC	-14.1277
▁WIT	-14.1283
oph	-14.1285
▁nik	-14.1285
▁hirp	-14.1287
going	-14.1288
▁ssie	-14.1289
▁("	-14.1291
▁rbet	-14.1291
▁41.	-14.1292
DN	-14.1295
▁grun	-14.1296
▁վա	-14.1297
83	-14.13
▁baja	-14.1303
▁ENS	-14.1305
▁SN	-14.1313
▁yzan	-14.1319
▁ilar	-14.1326
▁kee	-14.1337
▁pip	-14.1338
▁ulip	-14.1338
▁keg	-14.1339
▁KS	-14.1339
եկ	-14.1348
▁otin	-14.1352
▁ulia	-14.1352
LED	-14.1361
drí	-14.1363
▁38.	-14.1364
▁Ս	-14.1368
▁EAR	-14.137
▁VS	-14.1372
▁eone	-14.1376
FT	-14.1377
▁SSC	-14.1379
BL	-14.1387
▁crib	-14.1389
GE	-14.1389
▁yam	-14.1393
▁OM	-14.1396
▁jol	-14.1398
▁magn	-14.1401
sign	-14.1412
home	-14.1424
sett	-14.1433
▁անի	-14.1441
▁Led	-14.1444
llah	-14.145
▁111	-14.1453
▁DI	-14.1455
▁թե	-14.1459
EGA	-14.1461
▁erw	-14.1464
llion	-14.1467
cr	-14.1469
▁€3	-14.1469
sen	-14.147
oe	-14.1477
▁DH	-14.1477
▁oogi	-14.1487
XX	-14.1492
NEC	-14.1493
oz	-14.1496
▁rtak	-14.1499
▁oimh	-14.1505
VO	-14.1509
▁opus	-14.1516
▁BAC	-14.1517
nks	-14.1518
▁ayes	-14.1527
▁oire	-14.1528
▁քաղ	-14.1529
ator	-14.1539
▁rcan	-14.154
▁jan	-14.1549
▁olac	-14.1549
▁7)	-14.1557
ած	-14.1563
▁ayna	-14.1566
ԱՄ	-14.1569
▁rha	-14.157
zie	-14.1571
▁rbha	-14.1575
▁lija	-14.1578
zur	-14.1585
▁ISTO	-14.1585
▁usp	-14.1593
AIR	-14.1597
GR	-14.1598
▁Gyl	-14.1599
▁elea	-14.1601
▁éle	-14.1604
[	-14.1604
▁mg	-14.161
III	-14.1613
▁iñ	-14.1619
nel	-14.1619
ría	-14.1623
rts	-14.1626
serv	-14.1629
▁iji	-14.1629
▁nata	-14.1631
▁brat	-14.164
▁վի	-14.1646
▁Lad	-14.1647
wald	-14.1651
▁ht	-14.1661
udy	-14.1663
▁trik	-14.1667
aba	-14.1668
▁Yug	-14.1675
▁TK	-14.1676
▁BR	-14.168
SIM	-14.1682
And	-14.1682
non	-14.1683
▁REA	-14.1685
լու	-14.1688
▁gir	-14.1689
euvr	-14.1703
▁LE	-14.1705
▁յել	-14.1705
zer	-14.1707
▁PD	-14.1712
wag	-14.1714
▁oning	-14.1717
▁mete	-14.1719
▁maha	-14.1724
siv	-14.1728
Hi	-14.173
EG	-14.1732
kita	-14.1735
AX	-14.174
sub	-14.1753
▁NSA	-14.176
bri	-14.1762
scov	-14.1764
pot	-14.1771
▁TAR	-14.1777
ICY	-14.178
▁վեր	-14.1788
BB	-14.1788
▁estl	-14.1792
▁COO	-14.1792
nkar	-14.1793
▁khan	-14.18
▁0-1	-14.18
▁eru	-14.1807
▁Kru	-14.1816
▁դրա	-14.1822
▁yuk	-14.1823
agar	-14.1824
mmun	-14.1829
maz	-14.1829
▁Ze	-14.1835
▁Bol	-14.1836
nment	-14.1838
▁dula	-14.1847
▁Mic	-14.1849
▁BPA	-14.185
▁kon	-14.1853
trat	-14.1858
▁igle	-14.1864
▁CN	-14.1874
▁ATH	-14.1874
▁ASU	-14.1875
▁Von	-14.1876
▁kat	-14.1877
▁tifi	-14.1884
7)	-14.1884
▁moti	-14.1891
VM	-14.1892
tia	-14.1895
raya	-14.1895
gdal	-14.1896
▁osc	-14.1899
meet	-14.1901
▁ulus	-14.1902
nies	-14.1903
▁FP	-14.1904
sca	-14.1907
dri	-14.1913
▁vank	-14.1918
▁njal	-14.1921
zzo	-14.1922
wyr	-14.1928
EVE	-14.1931
ller	-14.1932
vet	-14.1932
▁ahia	-14.1937
▁amam	-14.194
▁efeat	-14.1941
▁anz	-14.1944
▁mesh	-14.1944
▁JC	-14.1952
▁yro	-14.1957
NF	-14.1963
▁mmal	-14.1964
▁eym	-14.1966
▁arac	-14.1968
▁PE	-14.1968
▁erve	-14.1969
▁TOP	-14.1972
▁emia	-14.1974
▁BB	-14.1978
oulo	-14.1979
▁tamed	-14.1979
▁Tan	-14.198
▁ö	-14.1982
▁shwa	-14.1984
▁AMI	-14.1987
month	-14.199
**	-14.1991
▁toc	-14.1994
▁ITE	-14.1994
▁nvi	-14.2011
arc	-14.2019
▁Keen	-14.2024
▁gidd	-14.2026
▁ARO	-14.2027
▁bay	-14.2034
▁POS	-14.2035
▁gyr	-14.2039
bon	-14.2039
▁ssou	-14.2041
URA	-14.2041
▁Coff	-14.2042
▁միջ	-14.2046
▁fax	-14.2048
▁pix	-14.205
▁ogo	-14.2056
▁gwy	-14.2058
▁movi	-14.2059
▁AW	-14.2059
▁elk	-14.2081
▁CC	-14.2081
▁ée	-14.2082
▁dea	-14.2084
▁ssef	-14.209
STO	-14.2095
▁MOU	-14.2105
▁RV	-14.2108
MCA	-14.2109
obs	-14.2119
▁tas	-14.2121
▁lbin	-14.2126
▁waj	-14.2129
oodl	-14.213
▁PHI	-14.213
IFF	-14.2135
▁SK	-14.214
▁ajra	-14.2144
▁orr	-14.2146
▁այի	-14.2148
▁CE	-14.215
ury	-14.2153
Me	-14.2165
▁NAB	-14.2171
AM	-14.2174
MF	-14.2177
▁MIL	-14.2177
▁gild	-14.2178
▁meld	-14.2184
▁él	-14.2185
mmy	-14.2193
start	-14.22
▁aini	-14.2212
tian	-14.2213
▁րի	-14.2219
▁ahri	-14.2241
fiq	-14.2247
▁kwi	-14.2249
▁(6	-14.2252
▁CSI	-14.2257
▁undo	-14.2262
▁Indy	-14.227
▁ouk	-14.2274
▁drap	-14.2276
look	-14.2276
ogy	-14.2289
▁amage	-14.229
▁baz	-14.2292
▁erd	-14.2304
¢	-14.2305
ò	-14.2305
▁TRUMP	-14.2305
▁tröm	-14.2305
▁!!!	-14.2305
ío	-14.2306
NFP	-14.2306
▁HGV	-14.2307
▁cades	-14.2309
▁GAIN	-14.231
▁anj	-14.2311
▁ւ	-14.2312
▁LIF	-14.2313
three	-14.2314
▁olg	-14.2319
▁dope	-14.232
▁epka	-14.2321
▁CSU	-14.2325
▁ünd	-14.2326
▁yja	-14.2327
▁YS	-14.2329
chin	-14.2329
▁epoch	-14.2334
▁LDL	-14.2338
rush	-14.2339
pport	-14.2339
mall	-14.2346
alth	-14.2347
▁aalii	-14.2352
tapl	-14.2355
EPA	-14.2361
եց	-14.2367
epti	-14.2369
▁flak	-14.2371
▁phany	-14.2372
▁մեն	-14.2373
ORO	-14.2375
▁3.0	-14.238
▁BDS	-14.2381
lev	-14.2382
▁TTP	-14.2404
▁itta	-14.2405
▁177	-14.2409
▁83.	-14.2409
▁tis	-14.241
MV	-14.2415
▁68.	-14.2415
▁BY	-14.2417
▁yuda	-14.242
▁HELL	-14.242
▁ango	-14.2425
▁76.	-14.243
▁ssur	-14.2432
azzo	-14.2436
▁NPS	-14.2437
▁arto	-14.2437
▁251	-14.2449
▁պետ	-14.245
▁arzi	-14.245
▁xit	-14.2453
▁ubar	-14.2455
▁jör	-14.2459
▁30:	-14.2463
▁74.	-14.2467
▁5:	-14.2469
▁IMA	-14.2471
▁BPM	-14.2473
renz	-14.2475
tati	-14.248
."	-14.2483
▁gall	-14.2487
▁OSC	-14.2489
▁MO	-14.249
▁Ng	-14.249
wing	-14.249
▁hoi	-14.2492
▁ntho	-14.2492
▁eful	-14.25
cto	-14.2502
lize	-14.2504
▁WP	-14.2505
▁iju	-14.2505
▁340	-14.2507
▁kkin	-14.2511
ncy	-14.2513
▁ró	-14.2516
oom	-14.2518
rima	-14.252
▁loy	-14.252
96	-14.252
TH	-14.2525
▁HOUS	-14.2526
▁orin	-14.2529
gly	-14.2536
▁53.	-14.2542
▁thyme	-14.2542
▁րկ	-14.2545
bell	-14.2549
ngel	-14.255
▁TOS	-14.2552
cat	-14.2556
▁dysm	-14.2557
nj	-14.2558
3.	-14.2561
▁yte	-14.2561
▁MCC	-14.2561
hri	-14.2563
▁fwy	-14.2564
OMB	-14.2565
▁einz	-14.2566
▁LEC	-14.2567
▁SAM	-14.2567
WD	-14.2572
▁GE	-14.2576
Mi	-14.2581
▁COS	-14.2581
▁AOC	-14.2596
▁(8	-14.26
▁Cru	-14.2611
▁ooga	-14.2611
LK	-14.2621
IO	-14.2629
▁ymbi	-14.263
halt	-14.2632
▁erio	-14.2636
ffo	-14.2644
told	-14.2647
ML	-14.2649
▁rhoi	-14.2657
▁scoe	-14.2671
▁nkot	-14.2672
USA	-14.2675
▁COA	-14.2679
▁Vege	-14.2679
խա	-14.2679
aci	-14.2681
lp	-14.2682
տա	-14.2683
oë	-14.2684
▁WOR	-14.2686
▁baum	-14.2686
que	-14.269
▁Hut	-14.2691
▁hrys	-14.2692
▁քան	-14.2695
egin	-14.2698
▁Uz	-14.2699
ô	-14.2699
▁PFO	-14.2701
know	-14.2703
jar	-14.2703
amm	-14.2706
▁HARR	-14.2711
▁ylv	-14.2718
▁NES	-14.2718
▁hee	-14.2719
ej	-14.2728
▁ewry	-14.2732
GL	-14.2734
▁sigh	-14.2735
▁onfi	-14.2736
▁pipe	-14.2739
▁ragh	-14.2744
▁hodd	-14.2746
got	-14.2748
ifie	-14.275
▁NDR	-14.2756
▁APP	-14.2766
▁beam	-14.2768
plet	-14.2771
hanc	-14.2771
▁Feet	-14.2775
phy	-14.2778
▁RO	-14.2782
rly	-14.2787
ikh	-14.2791
▁arki	-14.2797
▁oult	-14.2801
▁տե	-14.2801
▁hani	-14.2802
▁tham	-14.2802
▁dha	-14.2813
week	-14.2816
▁36.	-14.2816
rug	-14.2823
▁POC	-14.2825
scus	-14.2835
▁rmon	-14.2836
▁ewy	-14.2836
▁PSA	-14.2838
▁խ	-14.2844
OVE	-14.2851
▁IFT	-14.2852
▁WAR	-14.2857
▁EAC	-14.2864
eez	-14.2865
LT	-14.2876
▁aú	-14.2879
tag	-14.2894
▁etze	-14.2896
▁pita	-14.2898
▁año	-14.2904
▁Yose	-14.291
▁lom	-14.2919
chn	-14.2919
MAS	-14.2944
▁rax	-14.296
ERF	-14.2965
▁lí	-14.2966
eli	-14.2966
CHR	-14.2966
icy	-14.2978
▁SSP	-14.2978
arm	-14.2981
hub	-14.2984
▁york	-14.2985
▁HOT	-14.2985
▁Zhi	-14.2998
SJ	-14.3005
ACT	-14.3009
kers	-14.301
tana	-14.3015
▁plic	-14.3021
▁luke	-14.3024
▁harl	-14.303
emo	-14.3047
▁lhan	-14.3048
▁IGA	-14.3051
need	-14.3055
▁RJ	-14.3059
▁stud	-14.3062
▁Ind	-14.3063
fal	-14.3064
▁alak	-14.3075
▁urce	-14.3076
ymru	-14.3081
hail	-14.3082
▁rki	-14.3087
▁CDP	-14.3089
MJ	-14.3089
▁oora	-14.3094
point	-14.3094
ract	-14.3096
rol	-14.3102
dro	-14.3104
▁SD	-14.3112
zon	-14.3114
▁uchi	-14.3118
▁apri	-14.3118
▁ախ	-14.3124
▁RM	-14.3132
▁ayno	-14.3137
▁spic	-14.3138
RN	-14.3139
íci	-14.314
then	-14.3141
▁lamo	-14.3142
▁Faf	-14.3144
▁ugan	-14.3148
lad	-14.315
DAY	-14.3153
▁bak	-14.3157
▁tarp	-14.3157
մար	-14.3159
▁tefa	-14.3162
ict	-14.3163
cket	-14.3165
mber	-14.3171
SV	-14.3173
▁Wri	-14.3182
SNS	-14.3221
▁emm	-14.3224
▁END	-14.3227
▁rgy	-14.3228
▁ija	-14.3232
EPS	-14.3235
▁lpho	-14.3238
▁SM	-14.3238
86	-14.3249
▁TAS	-14.3251
sty	-14.3251
▁վիր	-14.3254
ABC	-14.3255
arch	-14.3256
▁xito	-14.3258
▁eso	-14.3267
▁oby	-14.3272
▁shund	-14.3276
PU	-14.3285
▁PRO	-14.3287
ees	-14.329
help	-14.3292
▁ալ	-14.3292
▁zh	-14.3295
JA	-14.3316
uki	-14.3317
▁alsy	-14.3329
▁yres	-14.3333
▁blic	-14.3333
▁ջ	-14.3335
dl	-14.3335
inu	-14.3335
▁jeet	-14.3336
lik	-14.3336
riz	-14.3337
▁wig	-14.3347
▁zem	-14.3348
abi	-14.3353
▁ROB	-14.3356
▁Acco	-14.3358
▁urlo	-14.3361
▁kna	-14.3365
▁ukha	-14.3366
թ	-14.3371
▁gid	-14.3371
▁Koh	-14.3376
▁neck	-14.3378
▁IDE	-14.3382
GS	-14.3382
LEA	-14.3383
▁MED	-14.3386
▁aqi	-14.3389
show	-14.339
▁Og	-14.339
RD	-14.339
cc	-14.3394
š	-14.3396
▁má	-14.3411
jaj	-14.3412
▁rsch	-14.3415
րի	-14.3417
EMI	-14.3419
urs	-14.3421
▁ezz	-14.3423
▁EL	-14.3427
▁AV	-14.343
cie	-14.3432
▁mrit	-14.3433
pit	-14.3435
▁Gal	-14.3441
OY	-14.3449
DH	-14.3449
▁Gut	-14.3452
▁erbi	-14.3456
AH	-14.3456
OK	-14.3459
ND	-14.3465
dor	-14.347
ELA	-14.3474
acc	-14.3476
ENT	-14.3477
▁egga	-14.3491
poli	-14.3494
AK	-14.3496
sday	-14.3499
▁dele	-14.3508
Tu	-14.3515
▁ojo	-14.3515
▁(7	-14.3516
▁wais	-14.352
êt	-14.3521
▁loud	-14.3528
▁HOR	-14.3531
/4	-14.3533
ALT	-14.3538
▁wara	-14.354
rael	-14.3542
SME	-14.3545
imi	-14.3547
▁Klu	-14.3547
▁հի	-14.3557
▁etiz	-14.356
▁lw	-14.356
nie	-14.3567
eop	-14.357
▁6)	-14.3571
7:	-14.3583
▁trat	-14.3583
hir	-14.3585
uta	-14.3601
▁rtier	-14.3608
_	-14.3613
▁KT	-14.3613
IZ	-14.3614
▁agga	-14.3617
▁LON	-14.3618
life	-14.362
▁Map	-14.3621
KO	-14.3624
▁yran	-14.3624
▁BAS	-14.3626
ht	-14.3628
▁GPA	-14.3633
ça	-14.3634
▁հան	-14.3637
▁irgi	-14.3637
OM	-14.3642
those	-14.3643
rno	-14.3651
▁XX	-14.3657
pace	-14.3664
▁rzo	-14.3672
▁kab	-14.3673
bre	-14.3674
▁ocke	-14.3681
▁ISL	-14.3682
անի	-14.3688
▁kpe	-14.369
▁jaha	-14.3696
hite	-14.3697
▁CEN	-14.3701
▁whal	-14.3701
▁OUR	-14.3702
▁rta	-14.3706
ARP	-14.3708
bs	-14.3719
▁թֆոն	-14.3733
▁հր	-14.3733
▁ICBM	-14.3733
▁khal	-14.3734
▁(8)	-14.3735
ոտ	-14.3738
▁սի	-14.3744
▁rooq	-14.3744
oach	-14.3746
▁bj	-14.3751
îm	-14.3754
▁HOME	-14.3755
nth	-14.3755
▁£27	-14.3756
▁$27	-14.3759
▁օ	-14.3759
▁$55	-14.376
▁vé	-14.376
▁nkaj	-14.3761
▁շար	-14.3761
▁ջար	-14.3764
▁ROCK	-14.3769
▁RU	-14.377
oti	-14.3771
llen	-14.3771
▁4).	-14.378
FW	-14.3781
▁Rey	-14.3783
▁ROI	-14.3785
▁մաս	-14.3785
ocus	-14.3789
▁DUI	-14.379
▁kkari	-14.3791
▁shno	-14.3791
▁dwick	-14.3793
UV	-14.3798
▁HSA	-14.38
▁PW	-14.3805
▁CBT	-14.3806
▁CHIC	-14.381
RTS	-14.3813
▁ttun	-14.3813
▁SAP	-14.3813
▁PBM	-14.3818
▁umen	-14.3819
many	-14.3821
▁CFA	-14.3823
▁Kaja	-14.3823
▁!!	-14.3826
oid	-14.3826
▁LEA	-14.3829
chel	-14.383
▁zcz	-14.383
▁ակի	-14.3831
ելի	-14.3832
3)	-14.3838
▁Iz	-14.3838
▁PDF	-14.3838
▁RAIN	-14.3841
▁OKY	-14.3844
▁egur	-14.3845
▁ICO	-14.385
SIO	-14.3851
LUE	-14.3855
▁եռ	-14.3856
▁laye	-14.3862
sby	-14.3865
NSW	-14.387
jam	-14.3871
▁NSF	-14.3871
▁NAO	-14.3877
▁het	-14.3881
▁95.	-14.3881
▁FDI	-14.3885
▁մե	-14.3887
▁Umm	-14.3889
▁81.	-14.3895
eft	-14.3896
▁ndel	-14.3897
ohn	-14.3898
▁zhy	-14.3906
▁sí	-14.3911
▁dka	-14.3916
kha	-14.3927
▁LEO	-14.3927
hana	-14.3936
▁62.	-14.3937
ARD	-14.3938
▁RAD	-14.3938
ilb	-14.3943
nz	-14.3945
▁MEX	-14.3945
▁KFC	-14.3945
▁pens	-14.3948
▁xG	-14.3952
NU	-14.3954
▁MCA	-14.3954
▁MIA	-14.3955
▁rdia	-14.3956
▁Roz	-14.3961
▁tuss	-14.3962
▁57.	-14.3963
▁ini	-14.3968
▁soy	-14.3969
▁Lil	-14.3969
▁գա	-14.3977
▁lkal	-14.3977
FCC	-14.3984
comm	-14.3985
lear	-14.3987
▁ufa	-14.399
▁ICKE	-14.3991
▁ADA	-14.3993
▁#6	-14.3996
▁yar	-14.4006
▁DOC	-14.4012
▁exa	-14.4012
▁SU	-14.4015
veno	-14.4015
▁dè	-14.4017
VT	-14.4018
▁LAC	-14.402
QA	-14.4021
▁tlá	-14.4022
ogi	-14.4022
▁erzi	-14.4024
ws	-14.403
41	-14.4032
srael	-14.4033
▁nerg	-14.4034
iño	-14.4037
▁mpi	-14.4038
▁kW	-14.4038
chuk	-14.4039
ij	-14.404
â	-14.404
garh	-14.4043
▁IAL	-14.4044
▁THRE	-14.4045
▁bé	-14.4047
ál	-14.4049
▁duch	-14.4051
▁nf	-14.4052
▁aigo	-14.4066
asty	-14.4072
▁SDL	-14.4072
says	-14.4077
▁JAM	-14.4081
▁bok	-14.4083
▁PH	-14.4085
▁RESI	-14.4085
tya	-14.4088
▁ASP	-14.4091
TERS	-14.4096
▁շա	-14.4097
▁RON	-14.4098
▁egri	-14.4098
▁Bloc	-14.4099
▁ngst	-14.41
view	-14.4105
▁IIM	-14.4106
ջա	-14.4106
▁yaar	-14.4107
▁(5	-14.4111
▁1-	-14.4121
▁stai	-14.4126
TRO	-14.4142
mend	-14.4144
PI	-14.4145
loy	-14.4148
▁Odu	-14.4154
▁AGE	-14.4161
impl	-14.4161
sts	-14.4163
▁asan	-14.4166
▁Knot	-14.4166
▁yub	-14.4167
chá	-14.4186
▁rtie	-14.419
ղի	-14.4191
▁PFL	-14.4193
▁ervi	-14.4197
▁ISP	-14.4201
MIS	-14.4205
ntu	-14.4206
▁CLA	-14.4209
▁QS	-14.421
lton	-14.4212
▁rael	-14.4215
▁egl	-14.4222
▁CCR	-14.4224
kka	-14.4226
▁HO	-14.4231
▁NDP	-14.4234
▁32.	-14.4235
▁ARL	-14.4237
ghan	-14.4238
Mo	-14.4244
▁raha	-14.4246
▁IKE	-14.4246
▁dahl	-14.4249
eco	-14.4252
kur	-14.426
▁yuz	-14.4264
▁BM	-14.4267
ՐԻ	-14.4268
▁gwei	-14.4274
ssed	-14.4278
▁ikk	-14.4283
mala	-14.4285
sit	-14.4285
▁kya	-14.4286
▁vie	-14.4287
▁JUL	-14.4292
▁QUE	-14.4294
SEN	-14.4296
▁NOR	-14.4298
*	-14.4302
▁ahi	-14.4306
nco	-14.4306
▁ksan	-14.4308
▁LM	-14.4308
▁lvey	-14.431
▁oret	-14.4311
▁nol	-14.4329
▁tach	-14.433
zb	-14.4331
▁êt	-14.4332
▁STI	-14.4333
▁Lan	-14.4335
▁gyf	-14.4341
▁ddam	-14.4346
KA	-14.4348
▁Par	-14.4348
rish	-14.4351
▁Kn	-14.4351
▁kurt	-14.4354
▁ahm	-14.4355
▁կե	-14.4363
deo	-14.4364
▁mí	-14.4366
▁ssin	-14.4398
▁vett	-14.4401
▁oC	-14.4402
▁uspi	-14.4403
▁Rae	-14.4406
KC	-14.4414
lub	-14.4414
▁iric	-14.4417
▁pod	-14.4417
FR	-14.442
94	-14.4425
▁Vel	-14.4425
▁ahl	-14.4427
HR	-14.4431
▁wynn	-14.4434
▁tug	-14.4441
rga	-14.4443
UL	-14.4445
ygi	-14.4448
VEN	-14.4454
▁ratt	-14.4463
tis	-14.4465
▁lek	-14.4469
▁isha	-14.4473
▁NFF	-14.4475
▁sauc	-14.4477
▁bov	-14.4483
▁gwa	-14.4483
▁FL	-14.4493
ske	-14.4508
▁տես	-14.4511
PF	-14.4514
▁արգ	-14.4516
urk	-14.4516
▁haj	-14.4519
OOT	-14.4521
▁MQ	-14.4521
dow	-14.4521
▁pio	-14.4523
CM	-14.4523
▁oudon	-14.4524
▁ñad	-14.4524
▁ակա	-14.4525
▁gadi	-14.4528
kari	-14.4534
յի	-14.4536
▁ntro	-14.4539
▁dó	-14.4543
HQ	-14.4555
END	-14.4556
avi	-14.4563
▁lsam	-14.457
▁nsa	-14.4571
▁Wy	-14.4572
▁IFF	-14.4573
▁UT	-14.4575
▁wet	-14.4575
▁Ug	-14.458
▁FI	-14.4588
You	-14.4597
▁UL	-14.4597
▁arzo	-14.4598
▁vya	-14.4599
rid	-14.4605
▁soud	-14.4605
mpan	-14.4605
MES	-14.4606
▁ael	-14.4623
▁amas	-14.4634
ê	-14.4641
world	-14.4641
ł	-14.4647
tions	-14.4653
eja	-14.4657
▁weig	-14.4664
tten	-14.4669
▁gwel	-14.4672
ene	-14.4684
URE	-14.4692
eard	-14.4699
NOR	-14.47
YN	-14.4704
ddl	-14.4706
▁cub	-14.4706
▁uat	-14.4708
▁ASTE	-14.4713
▁onoma	-14.4715
much	-14.4724
▁sapp	-14.4725
rot	-14.473
GT	-14.4754
ream	-14.4754
▁HES	-14.4766
▁roz	-14.4766
found	-14.4769
▁nsp	-14.4771
TT	-14.4773
▁MOD	-14.4778
▁MARC	-14.479
iko	-14.4792
▁eod	-14.4793
▁nen	-14.4795
▁asa	-14.4796
▁ggar	-14.4796
azy	-14.4803
ı	-14.4804
PH	-14.481
lim	-14.4814
▁JW	-14.4814
oba	-14.4817
▁tox	-14.4818
MRC	-14.4818
▁REG	-14.4832
ESS	-14.4835
PPR	-14.4836
bah	-14.4838
riya	-14.4839
CAA	-14.4842
▁NAR	-14.4845
ement	-14.4846
irst	-14.4847
EV	-14.4852
ublic	-14.4853
▁hig	-14.4865
azz	-14.4867
untry	-14.4867
jiv	-14.4868
Ս	-14.4871
▁XS	-14.4884
▁TRI	-14.4886
zad	-14.4887
▁WS	-14.4895
▁RTE	-14.4903
▁houg	-14.4908
▁Vase	-14.4911
cz	-14.4924
▁ikhi	-14.4925
▁yno	-14.4927
lsh	-14.4933
▁erde	-14.4933
nsi	-14.4941
reet	-14.4942
▁riez	-14.4944
▁balt	-14.495
▁huna	-14.4958
▁ubl	-14.4962
▁vdi	-14.4968
TTS	-14.4968
ո	-14.498
lab	-14.498
▁ստ	-14.4982
▁igo	-14.4982
▁Պ	-14.4994
▁garb	-14.4999
▁yni	-14.5
▁enri	-14.5001
CW	-14.5007
mme	-14.5007
team	-14.5009
yper	-14.5009
▁ցու	-14.5009
▁դե	-14.5015
▁agan	-14.5018
▁erla	-14.5021
▁pun	-14.5033
self	-14.504
efa	-14.5045
▁elfa	-14.5047
ME	-14.5048
anjh	-14.506
ODE	-14.506
▁slu	-14.5064
azi	-14.5067
yne	-14.5073
ball	-14.5073
ICC	-14.5074
▁nyo	-14.5076
▁կո	-14.5084
▁nima	-14.5085
nam	-14.5086
nus	-14.5097
wri	-14.5097
rds	-14.5101
ffa	-14.5101
rce	-14.5111
Hub	-14.5112
axo	-14.5119
gum	-14.5129
▁8)	-14.5131
oya	-14.5136
▁ETH	-14.5139
նի	-14.5141
▁Kin	-14.5146
▁CER	-14.5148
star	-14.5155
dec	-14.516
ICO	-14.516
iden	-14.5163
▁STA	-14.5164
▁stee	-14.5165
▁Kyi	-14.5166
▁RC	-14.5166
▁migo	-14.5167
omp	-14.5172
RU	-14.5178
OE	-14.5183
GEN	-14.5183
lenc	-14.5187
▁iyam	-14.5189
▁NK	-14.519
հ	-14.5195
▁poke	-14.5202
trak	-14.5204
olice	-14.5207
ppy	-14.5209
tto	-14.5216
եմ	-14.5221
gui	-14.5225
rel	-14.5226
hare	-14.5233
rad	-14.5233
▁PES	-14.5242
իա	-14.5245
▁auc	-14.5246
▁WI	-14.5249
▁anzi	-14.5255
urb	-14.5256
▁ASA	-14.5266
▁տու	-14.5267
▁MIN	-14.5268
HOP	-14.5268
aç	-14.5271
▁kop	-14.5272
pres	-14.5274
▁ILL	-14.5275
II	-14.5275
eni	-14.5277
▁LAN	-14.5283
▁Tyr	-14.5284
fir	-14.5288
ono	-14.529
▁գտ	-14.5293
▁UF	-14.5307
▁Ole	-14.5312
bá	-14.5314
▁Kah	-14.5318
▁brea	-14.5321
èn	-14.5334
▁զա	-14.5337
roup	-14.5337
▁CJ	-14.5347
epi	-14.5348
▁RIS	-14.5363
▁TU	-14.5364
▁aris	-14.5365
gett	-14.5367
▁suc	-14.5367
▁ծառ	-14.5371
roo	-14.5374
81	-14.5375
une	-14.5376
▁vag	-14.5377
▁aq	-14.5377
DDR	-14.5378
LIN	-14.5392
sal	-14.5399
▁¡	-14.54
▁đ	-14.54
▁Դ	-14.54
▁Ֆ	-14.54
▁նոլո	-14.54
▁🤣	-14.54
😭	-14.54
🥹	-14.54
▁Ը	-14.54
▁zijj	-14.54
▁խոր	-14.54
▁հրա	-14.54
▁kanji	-14.5401
սի	-14.5402
▁(5)	-14.5403
▁(6)	-14.5404
▁IPX	-14.5404
▁xxx	-14.5405
▁eykj	-14.5406
▁6-8	-14.5407
▁GRAM	-14.5407
UM	-14.5408
▁urus	-14.5412
▁ñig	-14.5412
▁SWNS	-14.5413
▁3).	-14.5414
tiz	-14.5416
▁SBU	-14.5416
▁HAN	-14.5417
▁UTT	-14.5419
▁աղ	-14.5423
▁dwaj	-14.5425
▁շր	-14.5426
▁IFA	-14.5426
▁$28	-14.5429
▁ü	-14.5431
▁TES	-14.5436
▁Ujj	-14.5436
▁rbex	-14.5436
OSE	-14.5442
ubb	-14.5443
▁£16	-14.5445
▁fers	-14.5445
▁Trott	-14.5447
pers	-14.5453
▁KK	-14.5456
ă	-14.5458
▁😂	-14.5463
▁ôl	-14.5466
▁zai	-14.547
▁22)	-14.5471
▁cti	-14.5471
▁CHA	-14.5471
▁LTE	-14.5474
▁LOT	-14.5477
▁auté	-14.5483
wel	-14.5484
jaz	-14.5485
▁RANC	-14.5488
$	-14.5492
CAL	-14.5495
▁44%	-14.5498
▁69%	-14.5498
diff	-14.5498
lby	-14.5498
▁AEW	-14.5501
▁STD	-14.5502
▁amra	-14.5506
ape	-14.5514
econd	-14.5526
▁cei	-14.5527
Dr	-14.5528
ö	-14.5533
ctua	-14.5533
▁agno	-14.5537
▁mezz	-14.5548
▁MB	-14.555
▁ajhi	-14.5553
▁fogg	-14.5555
pas	-14.5555
TEV	-14.5556
▁iddh	-14.5557
▁171	-14.5562
var	-14.5563
▁thw	-14.5564
▁14:	-14.5566
cap	-14.5566
▁gibb	-14.5569
ECO	-14.5569
▁BSE	-14.5573
imm	-14.5574
▁PSN	-14.5575
▁78.	-14.5579
PT	-14.558
▁MoU	-14.5584
▁161	-14.5584
▁71.	-14.5591
▁RSP	-14.5591
esp	-14.5592
▁CAT	-14.5592
նդի	-14.5594
hop	-14.5595
bbi	-14.5595
▁mza	-14.5596
▁պահ	-14.5597
▁ben	-14.5601
▁msha	-14.5602
▁PIN	-14.5603
lion	-14.5605
ases	-14.5607
▁dut	-14.5607
▁hupi	-14.5608
laji	-14.5611
▁CSIR	-14.5613
▁64.	-14.5615
ITE	-14.5616
BRU	-14.5617
CIS	-14.562
▁WTS	-14.5623
/1	-14.5624
arty	-14.5624
▁wyr	-14.5626
▁Vu	-14.5627
▁lino	-14.5627
▁Op	-14.563
erm	-14.5636
UF	-14.5637
give	-14.5638
▁4'	-14.5642
▁Das	-14.5649
▁zik	-14.565
▁58.	-14.5654
shaw	-14.5656
stol	-14.5656
MAN	-14.5658
▁EPP	-14.5667
▁ճա	-14.5671
▁rzan	-14.5672
four	-14.5672
▁dwy	-14.5673
▁բան	-14.5679
▁izen	-14.5681
llin	-14.5683
▁կի	-14.5684
▁eó	-14.5688
▁URG	-14.5689
OLU	-14.5698
▁REAT	-14.5705
▁նե	-14.5719
mark	-14.5721
▁ğl	-14.5725
▁245	-14.5728
▁NOTE	-14.5729
▁scha	-14.573
ison	-14.5735
▁nges	-14.5744
Re	-14.5762
ân	-14.5763
ntry	-14.5764
sic	-14.5765
▁BL	-14.5766
rope	-14.5772
▁usov	-14.5773
▁nega	-14.5774
▁khara	-14.5778
▁BE	-14.5781
kara	-14.5783
▁IED	-14.5794
▁44.	-14.5794
watt	-14.5795
▁rzy	-14.5796
▁nuka	-14.58
▁hudd	-14.5801
oing	-14.5805
▁IRF	-14.5809
list	-14.5812
▁TG	-14.5818
▁hoga	-14.582
▁Fl	-14.5822
▁iren	-14.5833
▁vex	-14.5833
kg	-14.5838
նդ	-14.5843
▁OUS	-14.5843
▁sig	-14.5844
Lo	-14.5849
յա	-14.5851
▁vial	-14.5852
▁GER	-14.5853
▁JL	-14.5854
▁iQ	-14.5856
reen	-14.5857
▁uil	-14.5859
YI	-14.5865
▁FPS	-14.5867
▁gale	-14.5869
▁natic	-14.5875
▁ISK	-14.5875
▁LOW	-14.5884
▁rox	-14.5884
6.	-14.5893
▁CEC	-14.5895
▁hia	-14.5908
▁CTA	-14.5911
erson	-14.5914
rip	-14.5923
▁nté	-14.5924
▁INA	-14.5926
▁IEG	-14.5927
▁UM	-14.5929
▁urha	-14.5938
▁NOS	-14.5939
▁én	-14.5939
▁MN	-14.5946
kaya	-14.5958
▁deba	-14.5966
SAP	-14.5973
▁arwa	-14.5975
▁desa	-14.5977
▁NGA	-14.5979
RIC	-14.598
For	-14.5987
▁öl	-14.5992
▁shin	-14.5993
▁iksi	-14.5994
▁RIC	-14.6
▁asy	-14.6004
▁verb	-14.6007
night	-14.6007
eo	-14.6008
sinc	-14.6009
▁eq	-14.6016
reve	-14.6017
QC	-14.6017
ULL	-14.6018
▁WWD	-14.6019
dox	-14.6025
TE	-14.6033
ç	-14.6038
▁amz	-14.6046
▁evels	-14.6051
GH	-14.6054
▁leur	-14.6058
-8	-14.6063
▁ixit	-14.6066
rive	-14.6069
▁IDP	-14.6081
ero	-14.6085
axi	-14.6088
▁coa	-14.609
▁դար	-14.6091
▁argi	-14.6093
▁zhi	-14.6095
▁oggi	-14.6095
▁տան	-14.6101
▁uteng	-14.6104
▁′	-14.6107
▁ngol	-14.6109
▁aldi	-14.611
5.	-14.611
gho	-14.6115
feel	-14.6121
odel	-14.6122
mun	-14.6124
afik	-14.6131
▁WTT	-14.6133
▁ynna	-14.6134
radi	-14.6144
▁tura	-14.6146
▁shab	-14.6153
▁ACE	-14.616
▁gt	-14.6161
fra	-14.6168
LAS	-14.6171
naya	-14.6171
▁empe	-14.6171
▁rca	-14.6172
▁Hyg	-14.6174
New	-14.618
near	-14.6182
ety	-14.6187
▁ATC	-14.6189
▁mop	-14.6193
▁ür	-14.6199
▁rth	-14.62
Biden	-14.6202
▁abib	-14.6202
▁oax	-14.6205
REM	-14.6207
▁CMO	-14.6209
▁syth	-14.621
▁Հա	-14.6225
▁NW	-14.6229
▁Goa	-14.6235
▁ehu	-14.6238
ejan	-14.6238
▁tev	-14.6243
4)	-14.6247
udge	-14.6252
ysph	-14.6255
▁90.	-14.6255
shya	-14.6256
▁DV	-14.6258
PE	-14.6272
hvi	-14.6272
▁olz	-14.6276
gove	-14.6277
▁lém	-14.6279
orce	-14.6284
nni	-14.6285
▁yman	-14.6292
lace	-14.6296
WU	-14.6296
added	-14.6296
▁AUD	-14.6297
▁apne	-14.6299
order	-14.6301
▁ohan	-14.6304
BBC	-14.6304
▁lud	-14.6306
▁olmb	-14.6311
▁ochi	-14.6312
sko	-14.6312
▁Hum	-14.6319
eze	-14.632
▁ALT	-14.6321
That	-14.6324
▁եմ	-14.6325
91	-14.6325
▁MAP	-14.6327
OLO	-14.6338
Co	-14.6339
▁€4	-14.6341
Jo	-14.6341
▁vsar	-14.635
ino	-14.635
hta	-14.6353
▁gdal	-14.6369
too	-14.637
▁SSE	-14.6376
BW	-14.6376
▁IMS	-14.6377
ised	-14.6378
esse	-14.638
▁UTI	-14.6383
▁փ	-14.6385
KD	-14.6386
cta	-14.6386
▁SMB	-14.6386
▁HOU	-14.6388
▁GS	-14.6388
▁gyd	-14.639
oney	-14.6391
▁dher	-14.6395
▁yash	-14.6398
▁kr	-14.6398
▁MoS	-14.64
STA	-14.6403
leb	-14.6422
▁Oka	-14.6423
hort	-14.6429
61	-14.643
yll	-14.6432
▁iyu	-14.6432
▁kere	-14.6435
rp	-14.6438
▁haq	-14.644
▁wok	-14.6447
nced	-14.6449
ussia	-14.6452
HEL	-14.6453
fect	-14.6459
▁MW	-14.6461
ache	-14.6461
ugg	-14.6464
ember	-14.6467
▁ndisa	-14.6478
EED	-14.648
▁Vela	-14.6492
▁nois	-14.6498
▁erch	-14.6503
aye	-14.6505
▁տի	-14.6511
mari	-14.6514
NRI	-14.6514
▁zag	-14.6516
elco	-14.6518
DE	-14.653
ndl	-14.653
▁malt	-14.6532
aji	-14.6533
▁tyl	-14.6535
▁uft	-14.654
xel	-14.6542
bove	-14.6553
DT	-14.6561
▁NCC	-14.6568
▁kori	-14.6576
շի	-14.6581
pie	-14.6581
ARB	-14.6582
▁vano	-14.6584
dé	-14.6585
▁Trea	-14.6589
nati	-14.659
▁asu	-14.659
▁DER	-14.6591
▁armo	-14.6593
dyn	-14.6597
▁uha	-14.66
▁nigh	-14.6601
▁GV	-14.6603
xu	-14.661
open	-14.6615
▁HC	-14.6622
nan	-14.6631
▁uig	-14.6633
alue	-14.6634
game	-14.6644
uvet	-14.6648
IJ	-14.6656
▁shee	-14.6658
does	-14.6661
YE	-14.6661
pic	-14.6662
XO	-14.6662
▁NRC	-14.6668
▁gara	-14.667
▁WAC	-14.6674
▁BIS	-14.6675
NR	-14.6676
wara	-14.6676
ited	-14.6678
▁SHO	-14.6678
CTE	-14.668
▁ekha	-14.6688
▁HT	-14.6688
hoo	-14.6689
69	-14.6694
usa	-14.6695
▁KOK	-14.6696
51	-14.6711
uce	-14.6717
gam	-14.6719
▁kshm	-14.6722
CF	-14.6723
▁stol	-14.6725
JC	-14.6733
▁chok	-14.6734
unch	-14.6735
▁wonk	-14.6737
ubs	-14.6746
yi	-14.6748
▁Yun	-14.6765
vian	-14.6766
▁ené	-14.6768
▁nzer	-14.6773
BY	-14.6789
▁alud	-14.679
▁ngor	-14.6792
▁gobb	-14.68
helm	-14.6803
ench	-14.6809
room	-14.6811
ծ	-14.6812
lman	-14.6815
▁oré	-14.6817
pur	-14.6821
SAC	-14.6825
▁ROS	-14.6828
group	-14.6829
agin	-14.6829
▁noir	-14.683
°	-14.683
edia	-14.683
▁ssim	-14.6836
անդ	-14.6839
▁alim	-14.6851
▁tka	-14.6852
▁etir	-14.6853
enz	-14.6859
mul	-14.6861
▁tot	-14.6867
lett	-14.6868
ոհ	-14.6868
▁uzm	-14.6869
ոց	-14.6876
▁ASS	-14.6878
HERE	-14.688
twee	-14.6883
▁jeed	-14.6891
HAN	-14.691
REN	-14.6913
tage	-14.6926
ulu	-14.6927
yron	-14.6927
▁whee	-14.693
▁aydo	-14.6931
sue	-14.6931
▁րե	-14.6938
NE	-14.6947
USD	-14.6949
qa	-14.6953
OUL	-14.6963
▁ած	-14.6965
▁Veld	-14.6966
▁até	-14.6975
▁ymn	-14.6979
cri	-14.698
▁auw	-14.6985
▁ackl	-14.6985
left	-14.6988
ttack	-14.699
▁MAS	-14.699
▁SG	-14.6995
▁DN	-14.6999
▁QF	-14.7004
UE	-14.7005
IRF	-14.7006
riek	-14.7014
▁umin	-14.7015
▁UR	-14.7017
aste	-14.7019
▁Vya	-14.7025
main	-14.7028
India	-14.7034
gri	-14.7037
▁Ea	-14.7037
rni	-14.7037
▁ucie	-14.7043
▁SF	-14.7044
▁gé	-14.705
aze	-14.7052
բա	-14.7068
hl	-14.7074
Ca	-14.7078
▁ERT	-14.7085
▁REV	-14.7088
▁ogot	-14.7092
AGO	-14.7093
84	-14.7098
▁sba	-14.7101
▁DS	-14.7106
▁REM	-14.7111
rre	-14.7129
▁erka	-14.7132
occ	-14.7134
gne	-14.7135
rash	-14.7137
▁Koch	-14.7148
XY	-14.7152
▁Tren	-14.7156
▁ä	-14.7158
▁nimb	-14.7158
hes	-14.7162
▁ych	-14.717
rli	-14.7173
orth	-14.7173
▁cest	-14.7181
GW	-14.7186
▁wack	-14.7188
▁հու	-14.7194
▁phro	-14.7197
effe	-14.7202
foll	-14.7208
▁dj	-14.7209
▁ocha	-14.7209
▁ví	-14.7216
lig	-14.7219
▁WIN	-14.722
▁Wren	-14.722
▁mule	-14.7221
▁erv	-14.7221
▁hula	-14.7235
▁cz	-14.7237
▁dí	-14.724
OLL	-14.7241
MON	-14.7244
▁9)	-14.7244
hau	-14.7245
▁PIC	-14.7248
xa	-14.7248
IND	-14.7256
▁Opt	-14.7259
place	-14.7267
yd	-14.7267
bol	-14.7281
WE	-14.7284
▁mko	-14.7287
ames	-14.7288
▁CST	-14.729
oko	-14.729
isi	-14.7293
▁nisa	-14.7298
▁reti	-14.7301
▁TEL	-14.7305
▁llem	-14.7308
▁anto	-14.7313
▁HEI	-14.7317
▁rok	-14.7321
quo	-14.733
▁erdu	-14.7333
kki	-14.7346
▁կու	-14.7364
▁wad	-14.7365
ás	-14.7372
TG	-14.7375
▁NAC	-14.7378
▁nfl	-14.738
▁aira	-14.7381
▁HON	-14.7382
irm	-14.7382
IQ	-14.7389
▁PSE	-14.739
▁IAM	-14.739
▁luga	-14.7394
swi	-14.7399
▁Զ	-14.74
	-14.74
×	-14.74
ù	-14.74
‍	-14.74
−	-14.74
▁___	-14.74
▁Š	-14.74
▁Փ	-14.74
▁թիվ	-14.74
▁մեջ	-14.74
▁⁠	-14.74
▁եղեկ	-14.74
▁վտո	-14.74
▁վրո	-14.74
▁խոս	-14.74
▁Ավել	-14.74
▁ddo	-14.7401
UGE	-14.7402
▁xxxx	-14.7404
▁կց	-14.7404
▁ABV	-14.7405
▁ivan	-14.7406
▁£79	-14.7406
▁HSC	-14.7407
NZ	-14.7409
▁WOOD	-14.7409
ław	-14.7411
▁hymru	-14.7415
£	-14.7416
dium	-14.7416
▁Kol	-14.7417
issue	-14.7418
▁ndhaa	-14.7418
▁EORG	-14.7419
▁£85	-14.742
▁orra	-14.742
▁RA	-14.742
jia	-14.7421
▁SOP	-14.7421
rod	-14.7427
▁CBB	-14.7427
▁9/2	-14.7427
▁REEN	-14.7427
tem	-14.7432
▁£28	-14.7432
▁SDG	-14.7434
▁mena	-14.7435
▁ogen	-14.7435
▁oël	-14.7438
▁ASDA	-14.744
▁Bon	-14.744
BZ	-14.7448
▁JOE	-14.7448
▁փո	-14.7449
▁GRAS	-14.7452
▁AYL	-14.7452
tinue	-14.7458
79	-14.7462
▁SMH	-14.7465
▁LLP	-14.7466
rone	-14.7469
ourn	-14.7471
▁ghue	-14.7471
▁MARK	-14.7477
uli	-14.7479
▁Tzu	-14.748
AAC	-14.7486
NLD	-14.7493
52	-14.7494
smal	-14.7494
ouch	-14.7495
tech	-14.7495
▁78%	-14.7496
PW	-14.7496
▁AXA	-14.7497
▁ես	-14.75
▁Inn	-14.7503
hw	-14.7504
▁27)	-14.7505
▁CFR	-14.7508
rè	-14.7509
▁հեռ	-14.7515
▁79%	-14.7515
▁kå	-14.752
iew	-14.7523
▁umba	-14.7531
▁TMO	-14.7533
▁MOI	-14.7536
▁rumb	-14.7537
▁11⁄	-14.754
▁TIA	-14.7544
▁VE	-14.7547
▁WIL	-14.7549
ities	-14.7554
▁kkar	-14.7559
▁XO	-14.7561
Ma	-14.757
▁ogb	-14.7571
▁KID	-14.7573
▁ժշկ	-14.7574
▁12)	-14.7575
▁EIR	-14.7577
▁kopf	-14.7578
▁DL	-14.7579
▁kwu	-14.7582
▁POE	-14.7583
▁Յ	-14.7586
▁IHR	-14.7587
▁CGM	-14.7589
teen	-14.7591
▁mra	-14.7595
▁NOA	-14.7596
oga	-14.7597
▁Valid	-14.7597
▁elvi	-14.7597
▁mmet	-14.7602
▁ooh	-14.7602
▁EXA	-14.7603
pse	-14.7603
both	-14.7609
zca	-14.761
pac	-14.7613
dus	-14.7616
▁BEA	-14.7627
▁API	-14.7635
▁AMAL	-14.7635
CDC	-14.7636
▁եղ	-14.7639
▁EAL	-14.7642
▁5%.	-14.7643
uts	-14.7644
▁waq	-14.7646
EEP	-14.7648
▁PLE	-14.7651
tay	-14.7652
OB	-14.7654
▁ADR	-14.7654
OOK	-14.7658
yal	-14.766
▁mR	-14.7662
▁idio	-14.7662
▁հաս	-14.7665
reak	-14.7665
▁ամ	-14.7667
▁FSA	-14.7667
quest	-14.767
▁adda	-14.7672
QI	-14.7673
▁ashm	-14.7679
▁SMR	-14.7679
▁NWC	-14.7682
▁vein	-14.7687
▁2."	-14.7689
▁agda	-14.7692
face	-14.7693
ceu	-14.7696
▁հիմն	-14.77
▁10)	-14.77
CAN	-14.7702
▁kane	-14.7704
▁MBI	-14.7706
▁elia	-14.7707
FE	-14.7709
▁56.	-14.7712
IB	-14.7717
▁ROW	-14.7717
▁XPER	-14.7724
▁rism	-14.7725
expe	-14.7728
hari	-14.7729
best	-14.7742
eap	-14.7745
CV	-14.7747
camp	-14.7748
▁OAP	-14.7748
▁GRA	-14.775
▁tsu	-14.7751
▁kje	-14.7752
▁ilad	-14.7757
hak	-14.7758
ոն	-14.7761
▁TR	-14.7763
clear	-14.7763
▁KAN	-14.7766
tá	-14.7766
▁ivy	-14.7767
VI	-14.7774
▁72.	-14.7776
▁Axe	-14.7783
yder	-14.7785
DRI	-14.7786
rms	-14.779
ür	-14.779
hus	-14.7797
▁nazi	-14.7802
lak	-14.7805
GX	-14.7806
kun	-14.7808
▁ynod	-14.781
▁ILA	-14.7814
tate	-14.7817
DB	-14.7818
fyd	-14.7819
▁IMC	-14.782
rí	-14.782
VV	-14.7823
▁hue	-14.7828
vera	-14.7837
path	-14.7839
zov	-14.7841
▁éze	-14.7842
▁ssu	-14.7843
▁Kro	-14.7845
▁(9	-14.7845
▁#8	-14.7858
▁Լի	-14.7861
OMA	-14.7862
lfa	-14.7868
nap	-14.7869
iece	-14.7869
▁QP	-14.7876
next	-14.7877
dmin	-14.788
tone	-14.7887
HAM	-14.789
▁CHAN	-14.7892
force	-14.7894
▁ooha	-14.7898
ella	-14.7911
yj	-14.7916
cene	-14.7918
▁Kal	-14.7922
▁gwl	-14.7927
Pres	-14.7929
fire	-14.7932
redit	-14.7934
▁ART	-14.794
▁CRP	-14.794
▁TRA	-14.7944
xy	-14.7946
▁kyla	-14.795
Cha	-14.7957
chool	-14.7962
▁dija	-14.7962
rcu	-14.7963
▁rjee	-14.7965
GER	-14.7967
▁yaku	-14.797
▁WEE	-14.7973
▁argil	-14.7978
▁mitz	-14.7979
▁nspi	-14.798
icat	-14.7982
TAM	-14.7995
▁ë	-14.8
▁ohm	-14.8
cent	-14.8006
zed	-14.8007
▁leuk	-14.8008
▁ALLA	-14.8012
▁trá	-14.8017
▁ebbe	-14.803
▁tio	-14.8035
▁LAM	-14.8037
▁CF	-14.8039
bad	-14.8054
GD	-14.8058
▁37.	-14.8063
▁Mott	-14.8066
abb	-14.8066
HEY	-14.8067
kra	-14.8073
epea	-14.808
aim	-14.8083
▁Son	-14.8085
▁shq	-14.8087
illa	-14.8089
▁ettl	-14.8097
PRA	-14.8099
▁rtou	-14.81
▁BJ	-14.8101
▁REI	-14.8102
ño	-14.8102
▁ժ	-14.8103
▁eif	-14.8119
bag	-14.8122
▁doo	-14.8125
▁tér	-14.8127
▁ugus	-14.8131
diat	-14.8133
event	-14.8135
IEW	-14.8137
▁IMB	-14.8137
alled	-14.8137
▁oeb	-14.8137
▁noz	-14.8147
▁BLA	-14.8149
▁crim	-14.8151
▁todo	-14.8157
▁տին	-14.8159
took	-14.8163
▁#7	-14.8171
▁nnik	-14.8172
▁rumi	-14.8178
pay	-14.8178
▁lbo	-14.818
▁eiko	-14.818
ldren	-14.8182
Thi	-14.8185
ARK	-14.8185
▁NLR	-14.8185
▁gory	-14.8194
▁lej	-14.8208
▁yaz	-14.8221
▁QC	-14.8222
▁XPL	-14.8231
egg	-14.8234
▁rbil	-14.8237
▁erne	-14.8238
▁USE	-14.824
▁AMA	-14.824
▁riou	-14.8244
ré	-14.8245
▁34.	-14.8245
▁iva	-14.8249
bur	-14.8253
▁urj	-14.8255
▁igh	-14.8257
loca	-14.8258
ats	-14.8265
▁նդ	-14.8272
▁UBA	-14.8275
▁8-	-14.8279
▁Toto	-14.8279
▁uñ	-14.8284
▁AH	-14.8285
▁INO	-14.8296
▁նդա	-14.83
tted	-14.8302
ետ	-14.8303
▁örg	-14.8304
roft	-14.8306
vij	-14.8306
orts	-14.8314
pill	-14.8314
offer	-14.832
92	-14.8324
ղա	-14.8334
▁HOLL	-14.8337
ici	-14.8347
▁gong	-14.8349
ange	-14.8349
▁vax	-14.8353
rve	-14.8357
▁ahle	-14.8359
▁մո	-14.8369
talk	-14.8369
nobb	-14.8369
▁lph	-14.837
▁(0	-14.8374
▁lgun	-14.8376
▁ռ	-14.8382
7.	-14.8383
yard	-14.8383
ssue	-14.8385
ruk	-14.8388
yon	-14.8391
▁itie	-14.8392
LR	-14.8396
▁45.	-14.8397
▁auru	-14.8401
UNE	-14.8403
▁efo	-14.8404
▁րո	-14.8404
▁NCR	-14.8406
bble	-14.8408
▁ltav	-14.8408
▁uba	-14.8409
done	-14.8412
▁okol	-14.8415
▁ELT	-14.8418
iah	-14.8421
tini	-14.8431
▁LEV	-14.8432
▁heed	-14.8437
▁NAF	-14.8437
rb	-14.8445
lè	-14.8446
▁վու	-14.8446
SY	-14.8447
heer	-14.8448
dale	-14.8453
Wi	-14.8454
sav	-14.8455
▁loqu	-14.8456
▁uuk	-14.8458
awa	-14.846
▁HU	-14.846
▁schw	-14.8466
▁zok	-14.8471
nno	-14.8475
▁aqu	-14.8476
▁etar	-14.848
▁յելի	-14.8484
ubl	-14.8486
▁LUS	-14.8487
▁iyar	-14.8489
media	-14.8491
▁OW	-14.8497
ICA	-14.8498
ooz	-14.8498
ASA	-14.8503
▁olta	-14.8504
light	-14.8509
▁vila	-14.8513
olt	-14.8518
▁իկա	-14.852
ստա	-14.8538
bum	-14.8541
▁HIS	-14.8546
▁cito	-14.8547
▁ATES	-14.8552
wha	-14.857
uku	-14.857
▁SV	-14.8573
OTA	-14.8575
▁skit	-14.8577
▁HAR	-14.8578
CTV	-14.8584
COT	-14.8585
▁uji	-14.8585
▁epha	-14.8591
▁stoc	-14.8594
▁Ida	-14.8598
oppo	-14.8599
gun	-14.86
▁rmot	-14.8604
▁Kana	-14.8605
▁aip	-14.8613
▁jaz	-14.8623
zen	-14.8624
power	-14.8628
RV	-14.8633
gå	-14.8637
ckle	-14.8641
HEN	-14.8641
oday	-14.8644
▁xy	-14.8644
oste	-14.8646
maj	-14.8654
▁snob	-14.8654
ազա	-14.8662
▁eis	-14.867
ule	-14.8671
ont	-14.8674
▁ío	-14.8678
OOD	-14.868
▁lorn	-14.8683
JM	-14.8687
▁ngri	-14.8687
tzik	-14.8688
▁USP	-14.8694
zma	-14.8698
Th	-14.8699
DIS	-14.8701
gie	-14.8701
01	-14.8707
udo	-14.8709
OTE	-14.8719
▁ieg	-14.872
magh	-14.8723
▁Kna	-14.8729
▁CH	-14.873
LUS	-14.8737
ձա	-14.8739
▁MOS	-14.874
▁SSS	-14.8752
▁rphe	-14.8753
APE	-14.8753
▁hitt	-14.8762
▁shav	-14.8764
NB	-14.8764
▁loos	-14.8764
▁dell	-14.8764
▁fish	-14.8773
▁Vá	-14.8776
kish	-14.878
▁ECU	-14.8782
▁kry	-14.8785
mage	-14.8787
ié	-14.8791
▁LL	-14.8797
▁slut	-14.8814
nner	-14.8817
▁ooch	-14.8824
▁MAR	-14.8828
case	-14.8829
).	-14.8831
▁urts	-14.8833
▁lese	-14.8833
▁TX	-14.8837
tie	-14.884
hand	-14.884
▁eda	-14.8841
▁eeler	-14.8848
▁eima	-14.8851
▁NV	-14.8856
ams	-14.887
lava	-14.8877
hm	-14.8879
mean	-14.888
haz	-14.888
dha	-14.888
egi	-14.8882
▁chur	-14.889
▁RBA	-14.8892
ocial	-14.8892
▁gnar	-14.8893
char	-14.8895
dry	-14.8896
▁ձա	-14.8898
imes	-14.89
▁aaaa	-14.8904
BRE	-14.8906
ION	-14.8906
▁KCC	-14.8909
thu	-14.8917
▁etu	-14.8918
▁sku	-14.892
ehy	-14.8921
uph	-14.8928
pet	-14.8929
▁MH	-14.8931
onne	-14.8934
zumi	-14.8937
▁ELE	-14.8943
OD	-14.8944
▁Uda	-14.8944
▁Jet	-14.8944
OST	-14.8951
▁Wye	-14.8952
oman	-14.8952
mpany	-14.8952
▁ushu	-14.8953
rama	-14.8955
▁GI	-14.8956
▁MY	-14.8961
▁rfa	-14.8962
▁IHS	-14.8964
▁fern	-14.8971
ayne	-14.8976
մի	-14.8978
rey	-14.8984
RSA	-14.8985
WF	-14.8985
WG	-14.8991
rney	-14.8993
nov	-14.8993
tment	-14.8995
▁urpa	-14.8997
▁TEN	-14.8998
▁akot	-14.9
▁scap	-14.9005
▁YA	-14.9006
▁ALC	-14.9008
▁kund	-14.9015
▁edar	-14.902
▁Oath	-14.902
HI	-14.9023
LOW	-14.9024
uto	-14.9026
▁tinu	-14.9033
mba	-14.9034
cast	-14.9039
court	-14.9056
HRC	-14.9059
keep	-14.9062
enga	-14.9066
▁crit	-14.9069
▁shta	-14.9069
▁reig	-14.9071
rul	-14.9072
▁HAL	-14.9076
▁DAC	-14.9079
▁ազ	-14.9082
▁ISC	-14.9083
nak	-14.9084
lud	-14.9091
house	-14.9099
mbi	-14.9104
dam	-14.9109
BLE	-14.9111
▁eV	-14.9112
uan	-14.9112
abl	-14.9113
ամա	-14.9114
kill	-14.9115
▁SHE	-14.9122
▁lsar	-14.9127
▁վր	-14.9127
nsey	-14.913
ներ	-14.9134
▁gwyd	-14.914
▁դու	-14.914
WW	-14.9143
happ	-14.9148
ues	-14.9156
▁iku	-14.9159
UCH	-14.9161
omm	-14.9177
ext	-14.9194
yri	-14.9199
▁Kasi	-14.9199
▁uya	-14.9201
▁IMP	-14.9214
▁emmo	-14.9216
Ukra	-14.9217
▁MM	-14.9218
▁zab	-14.9219
final	-14.9225
▁POL	-14.9227
HG	-14.9229
▁OLL	-14.9229
▁ERO	-14.9229
▁ESO	-14.923
times	-14.9232
fl	-14.9234
▁պայ	-14.9238
▁dete	-14.924
▁nio	-14.9241
▁WC	-14.9245
▁amry	-14.9251
away	-14.9254
▁ROM	-14.9257
▁drie	-14.9262
▁Nus	-14.9264
▁khu	-14.9269
kez	-14.9269
Con	-14.9271
MY	-14.9276
▁usin	-14.928
▁SPA	-14.928
▁ERI	-14.9282
▁urm	-14.9283
▁Վ	-14.9285
uza	-14.9286
ience	-14.9286
sé	-14.9287
▁CEP	-14.9288
▁sn	-14.9291
▁2"	-14.9292
▁laji	-14.9293
hn	-14.9295
▁upay	-14.9296
women	-14.9298
▁mó	-14.9298
jci	-14.9299
days	-14.9299
▁UAS	-14.9303
▁mike	-14.9305
Ab	-14.9313
lgo	-14.9317
ario	-14.9319
kul	-14.9322
iser	-14.9332
▁gual	-14.9337
ճա	-14.934
▁QU	-14.934
▁wyd	-14.9341
▁ատ	-14.9343
▁urea	-14.9344
ALA	-14.9352
▁Pie	-14.9352
▁peck	-14.9352
▁keto	-14.9353
øre	-14.9353
sell	-14.9358
▁€2	-14.9365
▁iñe	-14.9365
▁Gol	-14.9366
zal	-14.9372
gl	-14.9374
dera	-14.9375
▁alid	-14.9383
IR	-14.9385
party	-14.9387
LAG	-14.939
▁eish	-14.9395
▁HOL	-14.9396
Ó	-14.94
▁XT	-14.94
ôn	-14.9402
▁sama	-14.9404
▁det	-14.941
Լ	-14.9415
▁arta	-14.9418
osp	-14.9426
▁FCS	-14.9426
▁AUL	-14.9428
▁ldin	-14.9428
KU	-14.9429
▁shok	-14.9436
▁ikar	-14.9438
▁LN	-14.9438
č	-14.9446
ցի	-14.9446
▁PU	-14.9449
upe	-14.9459
ONC	-14.946
IGH	-14.9461
▁SW	-14.9462
▁itin	-14.9465
▁ensa	-14.9466
NH	-14.9468
ots	-14.9468
chu	-14.9469
ossi	-14.9479
▁dza	-14.9483
▁Til	-14.9487
VIV	-14.9495
▁ppin	-14.9509
MB	-14.951
GOT	-14.9514
POC	-14.9516
▁akka	-14.9516
rock	-14.9518
▁hsan	-14.9521
ե	-14.9524
▁Xa	-14.9525
▁hec	-14.9527
gest	-14.9529
▁SOU	-14.953
akar	-14.9532
▁sciu	-14.9536
WAC	-14.9559
▁reej	-14.9559
▁yada	-14.9562
▁աս	-14.9563
▁dim	-14.9567
▁Tee	-14.9569
▁estar	-14.957
otel	-14.9586
aku	-14.9587
▁YT	-14.9589
▁Zia	-14.9594
ë	-14.9597
▁Ioni	-14.9598
LDS	-14.9599
elo	-14.9599
DX	-14.96
▁gash	-14.96
▁MEN	-14.9617
ssag	-14.9619
URT	-14.9621
USS	-14.9624
▁prof	-14.9627
▁rato	-14.9634
ices	-14.9637
RAN	-14.9639
ccess	-14.964
oug	-14.9643
bli	-14.9647
DAR	-14.965
PRO	-14.9651
▁sner	-14.9654
oto	-14.9655
mmar	-14.9656
▁Այ	-14.966
MIC	-14.9662
▁ssai	-14.9663
▁kwe	-14.9681
▁Lla	-14.9684
ggest	-14.9687
ously	-14.9693
rofi	-14.9695
▁Il	-14.9698
free	-14.9699
INE	-14.9702
build	-14.9715
ocia	-14.9722
ngs	-14.9727
IKE	-14.9728
▁alko	-14.9732
hair	-14.9734
INK	-14.9747
isti	-14.9748
órt	-14.9754
▁mez	-14.9763
etz	-14.9765
OH	-14.9766
wat	-14.9767
▁MX	-14.9769
▁nect	-14.9778
lann	-14.9782
▁gyfe	-14.9784
EDI	-14.9787
▁ogg	-14.9794
▁eha	-14.9797
FU	-14.9813
▁ABI	-14.9814
▁spre	-14.9815
▁ROL	-14.9816
▁tm	-14.9816
IFT	-14.9829
seen	-14.9833
▁SLO	-14.9833
dzi	-14.9834
▁edda	-14.9835
▁Leg	-14.9855
INA	-14.9857
▁+1	-14.9857
▁nyol	-14.9858
▁lmon	-14.9869
five	-14.9873
USH	-14.9873
AIC	-14.9874
▁THR	-14.9874
▁IUM	-14.9886
▁TEA	-14.9891
▁MR	-14.9893
hai	-14.9894
afe	-14.9898
À	-14.99
Ã	-14.99
ì	-14.99
ý	-14.99
ū	-14.99
ŵ	-14.99
▁Ç	-14.99
▁Շ	-14.99
▁⁣	-14.99
▁🐎	-14.99
▁🔥	-14.99
♬	-14.99
▁❤️	-14.99
▁թվա	-14.99
▁լրա	-14.99
▁ghet	-14.99
▁գրես	-14.99
▁érrez	-14.99
▁4/5	-14.99
▁մակ	-14.99
▁almö	-14.9901
▁ncún	-14.9901
▁(9)	-14.9901
▁MAGES	-14.9902
միկ	-14.9902
▁öcke	-14.9902
FUL	-14.9904
▁OUIS	-14.9904
▁TGV	-14.9906
▁նօր	-14.9908
▁för	-14.9909
▁GOLD	-14.991
▁rekk	-14.9911
▁4/1	-14.9912
▁lrika	-14.9912
spect	-14.9914
▁öder	-14.9916
odi	-14.9917
▁NPU	-14.9918
▁omaze	-14.9918
AGE	-14.9924
▁£65	-14.9926
▁HITE	-14.9926
▁BOB	-14.9927
LAR	-14.9927
▁UTSA	-14.9928
RED	-14.9929
▁TECH	-14.9932
▁idcot	-14.9933
frie	-14.9935
IBE	-14.9937
▁dley	-14.9937
▁YEAR	-14.9943
▁9).	-14.9944
▁égu	-14.9949
▁CCO	-14.9951
▁opoly	-14.9955
RIDG	-14.9957
▁seido	-14.9958
UY	-14.9958
▁GTB	-14.9963
▁muy	-14.9964
▁29)	-14.9967
wee	-14.9967
▁shaq	-14.9968
▁իլի	-14.9969
▁NPP	-14.9971
Wh	-14.9972
▁ջեր	-14.9973
▁RRP	-14.9973
▁COG	-14.9975
▁afi	-14.9975
lose	-14.9975
▁£18	-14.9976
▁darn	-14.9977
▁jad	-14.998
72	-14.9981
AMI	-14.9982
▁IMO	-14.9983
▁oyote	-14.9984
▁PLO	-14.9985
▁kach	-14.9989
▁REN	-14.9991
▁26)	-14.9991
andi	-14.9992
▁kuba	-14.9993
▁84%	-14.9998
▁WES	-14.9999
▁hool	-15.0001
band	-15.0003
▁RAV	-15.0004
▁IOM	-15.0005
rice	-15.0007
ULA	-15.0019
▁indh	-15.002
▁azzo	-15.0022
rise	-15.0025
nka	-15.0026
▁HARD	-15.0027
alaq	-15.0028
▁owan	-15.0031
arte	-15.0032
▁DVS	-15.0037
▁CHO	-15.0039
▁kkara	-15.0041
3:	-15.0044
vest	-15.0047
▁Tric	-15.0048
▁RIZ	-15.0048
▁AO	-15.0049
▁ALED	-15.0049
▁UZ	-15.0054
▁ukka	-15.0055
ompl	-15.0057
won	-15.0061
▁AVO	-15.0061
eede	-15.0063
▁ertz	-15.0065
okes	-15.0066
▁ntañ	-15.0069
▁ORL	-15.0074
▁ARTS	-15.0075
▁SHR	-15.0079
thm	-15.0079
pho	-15.0085
▁EEF	-15.0085
▁kkal	-15.0089
▁178	-15.009
later	-15.01
rud	-15.0102
▁muc	-15.0108
▁wyddo	-15.0109
éré	-15.011
▁rantz	-15.011
▁7%,	-15.0113
▁kant	-15.0115
▁wse	-15.0119
▁UB	-15.0119
LOS	-15.0121
water	-15.0122
▁IRL	-15.0124
▁MART	-15.0126
rmi	-15.0127
dio	-15.0128
▁är	-15.0131
DG	-15.0132
▁QUA	-15.0132
▁ç	-15.0136
▁93.	-15.0136
láz	-15.0136
post	-15.0137
▁pee	-15.014
body	-15.0142
▁drin	-15.0143
mmo	-15.0144
▁₹1	-15.0146
▁icto	-15.0146
▁xte	-15.0147
onc	-15.015
▁WAP	-15.0153
▁Tah	-15.0154
san	-15.0155
tical	-15.0155
▁DIS	-15.0157
ADE	-15.016
osh	-15.0162
ayak	-15.0164
stri	-15.0164
▁komb	-15.0167
▁idli	-15.0168
▁TRC	-15.0169
▁CTR	-15.0169
eye	-15.017
▁imé	-15.0174
▁dmo	-15.0174
▁cyff	-15.0175
▁ESSE	-15.0175
▁TEC	-15.0175
▁wumi	-15.0175
aza	-15.0182
▁EIB	-15.0183
սա	-15.0187
▁rudh	-15.0187
EY	-15.0187
▁hiz	-15.0193
▁ULA	-15.0193
▁khb	-15.0197
▁207	-15.0204
▁5"	-15.0207
▁EREN	-15.0209
▁Iryo	-15.0212
earch	-15.0212
▁LCP	-15.0215
mmer	-15.0215
▁WDF	-15.0217
▁EWS	-15.0218
▁£5.	-15.022
▁91.	-15.0223
oubl	-15.0223
rgu	-15.0225
▁ICR	-15.0231
▁ñer	-15.0233
▁aiz	-15.0235
tat	-15.0235
▁CDT	-15.0236
▁ERAL	-15.0237
nju	-15.0238
▁GEH	-15.0242
young	-15.0243
▁WPL	-15.0245
kle	-15.0245
▁CCD	-15.0246
▁Mbp	-15.025
▁232	-15.0252
▁LR	-15.0252
▁ntia	-15.0264
▁SWP	-15.0265
uva	-15.028
▁ijan	-15.028
ips	-15.0282
1:	-15.0289
jó	-15.0289
▁հիվ	-15.029
ANG	-15.0291
mis	-15.0296
atri	-15.0297
▁egui	-15.0298
▁aycan	-15.0299
via	-15.0303
XR	-15.0312
դա	-15.0316
▁SUN	-15.0321
sar	-15.0322
▁MDP	-15.033
▁SPL	-15.033
▁WTO	-15.033
asa	-15.0331
▁bric	-15.0333
▁cki	-15.0333
ATH	-15.0334
▁FEL	-15.0336
LI	-15.0339
▁eune	-15.0341
enny	-15.0342
sw	-15.0345
CAF	-15.0347
ems	-15.0348
▁ALK	-15.0359
▁WAY	-15.036
▁igwe	-15.0363
▁LLE	-15.0366
▁LOC	-15.0368
▁lemi	-15.0386
▁LLA	-15.039
▁nko	-15.0396
08	-15.0397
enter	-15.0403
▁BH	-15.0403
PY	-15.0405
▁pyri	-15.0405
OLE	-15.0411
▁թակ	-15.0413
▁éj	-15.0414
▁éc	-15.0415
▁kadi	-15.0417
▁zur	-15.0422
▁VRC	-15.0423
▁Ռ	-15.0424
▁LAT	-15.0428
gaz	-15.043
վա	-15.0431
▁Gri	-15.0437
busi	-15.0441
▁IEL	-15.0443
▁aesa	-15.0446
▁aghu	-15.0448
TK	-15.0452
▁jita	-15.0452
log	-15.0455
▁chlo	-15.0458
▁USL	-15.0458
▁Er	-15.0471
HY	-15.0473
▁tuft	-15.0473
GHT	-15.0474
▁là	-15.0474
▁CMI	-15.0475
▁MBB	-15.0477
reed	-15.0477
▁WB	-15.0478
cott	-15.048
▁luck	-15.0481
put	-15.0484
uja	-15.0486
ERC	-15.0487
▁foo	-15.049
▁ymun	-15.0494
▁iru	-15.0496
role	-15.0499
aker	-15.0511
▁Zug	-15.0519
2:	-15.0522
iu	-15.0526
care	-15.0528
▁ñu	-15.053
AIN	-15.0531
▁AIM	-15.0535
▁cce	-15.0536
sau	-15.0537
jid	-15.0537
▁FOM	-15.0537
▁alí	-15.0546
etro	-15.0547
▁itle	-15.055
▁ORC	-15.055
▁rj	-15.055
▁gob	-15.055
owl	-15.0557
prev	-15.0557
▁OP	-15.0564
RID	-15.0569
SAI	-15.0569
gap	-15.0571
ço	-15.0575
▁VEN	-15.0579
etter	-15.0584
աղ	-15.0585
ART	-15.0594
▁PAP	-15.0595
AO	-15.0604
▁ajim	-15.0611
rta	-15.0614
uest	-15.0614
kaz	-15.0617
▁eika	-15.062
▁OPD	-15.0625
raw	-15.0628
▁ARI	-15.0629
▁ibl	-15.0631
urse	-15.0634
▁osla	-15.0634
▁cza	-15.0634
▁VF	-15.0635
▁VOO	-15.064
▁NEL	-15.0641
▁kó	-15.0642
▁shun	-15.0649
վ	-15.0655
▁VOC	-15.0655
▁nsar	-15.0656
▁ELO	-15.066
▁jug	-15.0661
▁laiz	-15.0663
CAT	-15.0664
amb	-15.0667
might	-15.0668
▁JA	-15.0669
rter	-15.0669
gana	-15.0676
▁amma	-15.068
taff	-15.0689
gwa	-15.0691
▁Ox	-15.0691
ilm	-15.0693
▁ANK	-15.0695
▁SDR	-15.0699
▁IEC	-15.0702
WJ	-15.0704
cá	-15.0712
▁ndic	-15.0716
▁adar	-15.0716
▁kö	-15.0725
▁OX	-15.0729
▁APA	-15.0729
▁Hoag	-15.0733
▁wyl	-15.0733
cin	-15.0733
▁esch	-15.0733
sman	-15.0735
usu	-15.0735
▁YER	-15.0739
▁SOE	-15.074
los	-15.0743
▁dere	-15.0743
ompa	-15.0744
call	-15.0746
▁tmeg	-15.0748
claim	-15.0754
rmy	-15.0764
oft	-15.0764
XT	-15.0765
ndy	-15.0768
vide	-15.0778
▁khma	-15.078
▁CHAM	-15.0782
mand	-15.0783
▁dhi	-15.0784
ional	-15.0791
▁orit	-15.0792
▁ysle	-15.0794
▁vada	-15.0795
▁goj	-15.0803
▁ñol	-15.0814
nited	-15.0818
taq	-15.0822
▁ín	-15.0827
eems	-15.083
REC	-15.0832
▁stun	-15.0836
▁niff	-15.0837
▁ands	-15.0838
▁aiba	-15.0838
▁WASP	-15.084
▁IRC	-15.0857
owe	-15.0871
▁HFC	-15.0872
uid	-15.0875
eil	-15.0877
oice	-15.088
rã	-15.088
ár	-15.088
lga	-15.0892
▁MU	-15.0893
ield	-15.0898
▁ROV	-15.0901
▁rins	-15.0902
▁ogra	-15.0907
▁dif	-15.0911
LAD	-15.0919
sí	-15.0921
▁koy	-15.0934
▁hhhh	-15.094
▁RL	-15.0941
▁Ադ	-15.0943
▁grup	-15.0945
▁hob	-15.0954
▁ISO	-15.0961
hard	-15.0961
break	-15.0965
▁utel	-15.0966
ters	-15.0971
▁CNC	-15.0974
wy	-15.0985
pid	-15.0985
62	-15.0986
ystem	-15.0992
omy	-15.0998
▁WD	-15.1002
▁HK	-15.1007
▁rnau	-15.1009
▁affa	-15.1011
▁arba	-15.1015
alt	-15.102
▁OPP	-15.103
▁yx	-15.1035
dol	-15.1036
pel	-15.1037
▁yukt	-15.1039
▁KG	-15.105
foot	-15.1051
cond	-15.1059
▁anat	-15.106
▁XY	-15.106
▁Vell	-15.1071
▁yatt	-15.1078
skin	-15.108
nfir	-15.1081
▁ICK	-15.1081
▁arve	-15.1081
grow	-15.1084
▁usha	-15.1092
▁LEM	-15.1092
awar	-15.1092
wr	-15.1096
▁RP	-15.1106
▁CLAR	-15.1119
ntial	-15.1121
▁xac	-15.1124
road	-15.1128
South	-15.113
▁KV	-15.1136
▁Zhu	-15.1136
YT	-15.1141
large	-15.1153
ISH	-15.1155
ոլ	-15.1159
▁ckin	-15.1159
aying	-15.116
09	-15.116
ija	-15.1164
▁cré	-15.1179
cade	-15.1185
▁nbaa	-15.1191
▁մշ	-15.1194
▁NHR	-15.1197
▁arbi	-15.1199
▁GRE	-15.1199
ede	-15.1206
▁ugo	-15.1208
gala	-15.1216
▁prod	-15.1219
agya	-15.122
▁akam	-15.1221
▁opu	-15.1227
▁ITU	-15.1235
▁teas	-15.1235
▁Wyc	-15.1237
▁NAH	-15.1239
9.	-15.1246
▁ավ	-15.1249
▁gour	-15.1251
JB	-15.1252
ACE	-15.1255
▁PAW	-15.1259
Us	-15.1265
▁ոշ	-15.1269
▁SSR	-15.1269
▁OU	-15.127
▁WHE	-15.1278
BSA	-15.1281
én	-15.1288
Ok	-15.129
▁Yoo	-15.1299
▁ando	-15.1302
▁usea	-15.1306
ref	-15.1306
▁oho	-15.1307
ows	-15.131
▁zeit	-15.131
▁zade	-15.1321
SSR	-15.1323
RDA	-15.1331
FB	-15.1332
rbon	-15.1335
ives	-15.1342
▁ABA	-15.1345
▁dhav	-15.1347
▁leve	-15.1352
▁SL	-15.1353
slav	-15.1353
CBS	-15.1361
▁SER	-15.1363
▁rben	-15.1367
▁acia	-15.1371
▁AQA	-15.1375
VE	-15.1376
obi	-15.1377
▁COL	-15.1381
KM	-15.1385
Up	-15.1392
MED	-15.1401
▁ADD	-15.1402
▁gorg	-15.1406
▁tash	-15.1407
▁PV	-15.1407
▁hahi	-15.141
▁rata	-15.1411
level	-15.142
stem	-15.1425
▁hyam	-15.1426
▁leat	-15.143
▁Tiff	-15.1442
▁HOP	-15.1442
▁Իր	-15.1442
▁KIE	-15.1442
film	-15.1449
nday	-15.1449
arra	-15.145
▁FG	-15.1451
▁Fla	-15.146
▁ngus	-15.1466
OF	-15.1466
mment	-15.1479
user	-15.1479
▁AQ	-15.1482
hna	-15.1488
LG	-15.1495
rine	-15.1502
DV	-15.1502
▁njay	-15.1503
▁hta	-15.1512
▁jah	-15.1514
▁naka	-15.1521
▁IER	-15.1527
civi	-15.153
▁tchi	-15.1535
▁ndin	-15.1537
▁roze	-15.1543
ssion	-15.1545
▁stó	-15.155
regi	-15.1551
lav	-15.1554
▁lenc	-15.1555
▁ñ	-15.156
▁hati	-15.1561
rwy	-15.1578
▁ngk	-15.1579
▁kto	-15.1583
▁elb	-15.159
▁olt	-15.16
▁AHS	-15.1601
▁TY	-15.1605
▁EG	-15.1605
risk	-15.1609
isio	-15.1617
▁Sol	-15.1627
▁XII	-15.1629
aud	-15.1632
tka	-15.1636
term	-15.1639
▁նձ	-15.1642
fied	-15.1644
▁յց	-15.1648
tob	-15.165
gress	-15.1655
ulat	-15.1656
▁eja	-15.1658
stop	-15.1663
▁KIM	-15.1671
mir	-15.1671
▁rö	-15.1673
uthor	-15.1679
▁OHC	-15.1683
▁kti	-15.1688
dr	-15.169
bet	-15.1694
▁luk	-15.1695
fight	-15.1698
adv	-15.17
▁novi	-15.1702
▁ALB	-15.1704
One	-15.1705
▁XE	-15.1707
▁ERL	-15.1712
cett	-15.1719
▁yab	-15.172
▁skov	-15.1721
▁ayla	-15.1722
LL	-15.1731
▁teme	-15.1732
▁goof	-15.1733
▁EF	-15.1736
▁TE	-15.1742
isk	-15.1746
ups	-15.1748
agne	-15.1748
▁ekh	-15.1753
sup	-15.1754
▁Vasi	-15.1755
ico	-15.1758
base	-15.1759
along	-15.1766
▁PHA	-15.177
▁nero	-15.1781
doz	-15.1782
▁CRR	-15.1784
half	-15.1785
▁tbol	-15.1788
deal	-15.1793
▁zug	-15.1794
anj	-15.18
▁bony	-15.1802
AJ	-15.1803
▁rwan	-15.1806
orta	-15.1809
▁ժե	-15.1828
money	-15.1829
trol	-15.1831
tax	-15.1835
BX	-15.1837
rda	-15.1839
▁Նա	-15.1844
dep	-15.1845
Bo	-15.1851
isu	-15.1852
urity	-15.1852
նց	-15.1859
PAT	-15.1866
tó	-15.1867
pha	-15.188
▁Tin	-15.1884
Demo	-15.189
tox	-15.1896
thro	-15.1902
▁lada	-15.1902
▁Uyo	-15.1904
▁ijn	-15.1905
ssia	-15.1908
▁eix	-15.1909
ժ	-15.191
NV	-15.1912
▁CCS	-15.192
eant	-15.1922
▁NP	-15.1927
six	-15.1931
▁idia	-15.1935
▁Toy	-15.1935
pass	-15.1938
evel	-15.1938
sam	-15.1938
▁GD	-15.1939
ppea	-15.1943
▁GSA	-15.1945
ists	-15.1946
grea	-15.1955
▁SSL	-15.1966
▁waft	-15.1967
▁idg	-15.1982
▁CHS	-15.1984
▁uzh	-15.1985
▁yddo	-15.1987
▁JU	-15.199
ocu	-15.1993
St	-15.2011
▁eyma	-15.2011
aja	-15.2012
male	-15.2013
mara	-15.2017
▁shak	-15.2021
▁Bag	-15.2021
▁YN	-15.2022
▁mian	-15.2022
early	-15.2023
video	-15.2026
ghou	-15.2027
shal	-15.203
▁NX	-15.2036
roos	-15.2036
aî	-15.2037
ucc	-15.2038
hange	-15.2042
▁arz	-15.2047
dan	-15.2051
▁CHE	-15.2058
▁nipe	-15.2062
▁bind	-15.2063
▁edfe	-15.207
idi	-15.2071
▁grav	-15.2078
▁ASH	-15.2078
▁Mam	-15.2086
nza	-15.2086
ics	-15.2089
VH	-15.2089
▁wle	-15.2101
▁das	-15.211
ún	-15.2111
fina	-15.2112
nin	-15.2136
▁PK	-15.2142
▁ypho	-15.2144
▁shik	-15.2146
utu	-15.2146
▁íc	-15.2152
AA	-15.2154
sider	-15.2159
▁PRI	-15.2161
sap	-15.2168
death	-15.2169
▁rny	-15.2171
▁ջա	-15.2174
▁ELA	-15.2181
raba	-15.2182
▁ksa	-15.2183
▁եւա	-15.2186
Mc	-15.2187
▁EMO	-15.2194
ered	-15.2194
eka	-15.22
▁ngko	-15.2201
▁uls	-15.2206
▁luny	-15.2209
known	-15.2212
▁neti	-15.2213
SDA	-15.2213
sail	-15.2217
▁clai	-15.2217
▁Kni	-15.2217
▁lian	-15.2219
BE	-15.2222
▁crop	-15.2222
anne	-15.2225
nty	-15.2227
▁tero	-15.2229
▁rais	-15.2229
Vs	-15.2232
ladi	-15.2237
fle	-15.2243
close	-15.2244
▁ayya	-15.2245
ros	-15.225
▁aï	-15.2253
tner	-15.2254
ORG	-15.2256
live	-15.226
dren	-15.226
few	-15.2263
eksa	-15.2263
loss	-15.2267
▁uxt	-15.2268
▁rja	-15.2274
field	-15.2277
▁adj	-15.2281
och	-15.2282
▁lbie	-15.2284
ITI	-15.2301
lee	-15.2302
nji	-15.2304
ante	-15.2308
BJ	-15.2313
IRS	-15.2315
West	-15.2316
▁waka	-15.2317
stin	-15.2323
▁GLA	-15.2328
WH	-15.2331
▁PPI	-15.2334
romo	-15.2335
▁rtsy	-15.2338
▁vku	-15.2341
Su	-15.2354
pti	-15.2355
▁xyl	-15.2357
big	-15.2358
aug	-15.2363
▁acke	-15.2371
▁ADM	-15.2384
eño	-15.2391
wait	-15.2391
▁LS	-15.2395
soon	-15.2398
▁anded	-15.2401
eech	-15.2405
watch	-15.2411
▁kyu	-15.2411
ANT	-15.2425
▁hul	-15.2431
count	-15.2432
▁XD	-15.2432
ajh	-15.2432
odu	-15.2433
dence	-15.2433
▁bec	-15.2433
ekh	-15.2437
hone	-15.2443
feat	-15.2445
ջոց	-15.2446
▁lber	-15.2451
▁pud	-15.2457
éa	-15.2461
MDA	-15.2463
▁ám	-15.2471
owd	-15.2475
York	-15.2479
▁eei	-15.2481
▁yric	-15.2481
és	-15.2484
▁epea	-15.2487
EAK	-15.2487
▁fana	-15.2491
oimh	-15.2494
▁eila	-15.2496
▁9-	-15.2497
▁orks	-15.2502
▁faz	-15.2503
city	-15.2506
▁dong	-15.2516
teg	-15.2516
osed	-15.2517
▁NIS	-15.2525
▁hrad	-15.2529
weed	-15.2531
▁ulis	-15.2534
▁nep	-15.2534
▁zim	-15.2537
▁CS	-15.2538
▁BIO	-15.2541
áci	-15.2541
quir	-15.2551
lai	-15.2555
▁shw	-15.2559
▁Zeu	-15.2565
duce	-15.2582
▁lmer	-15.2586
▁aola	-15.2592
▁MAD	-15.2597
▁LOO	-15.2597
NTS	-15.2598
yra	-15.2602
մե	-15.2604
cover	-15.2605
▁gol	-15.2608
velo	-15.2612
plan	-15.2624
▁utz	-15.2629
▁WCC	-15.2633
▁CRA	-15.2637
քր	-15.264
Պ	-15.2642
nomi	-15.2645
նվ	-15.2647
▁karn	-15.2662
▁vat	-15.2665
️	-15.2666
DRE	-15.2668
▁ozn	-15.267
▁uhas	-15.267
treat	-15.2672
oor	-15.2677
lag	-15.2679
gov	-15.2686
▁taci	-15.2691
▁epr	-15.2692
▁eydo	-15.2699
ajo	-15.2699
▁MUN	-15.27
EYE	-15.2701
Pa	-15.2706
AZ	-15.2706
▁Kabi	-15.2707
▁Dy	-15.2719
▁MRA	-15.2724
iled	-15.2725
▁WX	-15.2728
▁elba	-15.273
▁chil	-15.2731
▁aisi	-15.2733
▁PRA	-15.2737
oil	-15.2738
ŷ	-15.2739
hild	-15.2744
erms	-15.2745
zha	-15.2747
HK	-15.2747
▁alky	-15.2751
ards	-15.2757
▁RAL	-15.2763
visit	-15.2764
arris	-15.2765
oos	-15.2765
dua	-15.2767
▁ամա	-15.2771
thy	-15.2772
▁Um	-15.2772
▁dh	-15.2781
▁CG	-15.2788
KP	-15.2797
dó	-15.2804
flo	-15.2805
▁kod	-15.2809
▁eccl	-15.281
agi	-15.2812
John	-15.2813
Fi	-15.2814
RM	-15.2817
ARE	-15.2822
▁üs	-15.2827
WAR	-15.2829
▁lpe	-15.2834
▁Bye	-15.2835
ngl	-15.2843
▁zil	-15.2848
▁Hoy	-15.2849
NSC	-15.2853
ACI	-15.2868
RFU	-15.2868
▁geri	-15.287
▁renn	-15.2871
HIC	-15.2876
news	-15.288
ntó	-15.2881
lican	-15.2882
alf	-15.2886
▁guna	-15.2888
nnik	-15.2889
▁bber	-15.2896
ոնի	-15.2899
NFL	-15.2903
URG	-15.2904
▁պր	-15.2907
▁UPP	-15.2909
▁5)	-15.2909
▁ttas	-15.2913
lor	-15.2915
▁jö	-15.2919
եզ	-15.2921
WAY	-15.2926
▁rekh	-15.293
▁dung	-15.2931
▁yla	-15.2937
▁mwy	-15.2942
find	-15.2942
▁geni	-15.2943
OKE	-15.2945
▁laba	-15.2947
ALK	-15.2949
▁tarl	-15.295
▁FTE	-15.295
IPO	-15.2954
▁պու	-15.2956
OTT	-15.2957
xis	-15.2969
▁oulo	-15.2972
▁AIR	-15.2974
iona	-15.2985
▁enet	-15.2997
▁BSL	-15.3005
aper	-15.3012
PIN	-15.3012
EDD	-15.302
NSA	-15.302
ITU	-15.3022
nug	-15.3023
rä	-15.3027
▁PRS	-15.3028
nox	-15.3039
anni	-15.3048
▁NCT	-15.3052
ritic	-15.3055
▁gyfr	-15.3056
⁄	-15.3067
fli	-15.3067
▁BBM	-15.307
▁FIB	-15.3071
▁BLU	-15.3073
CPA	-15.3073
▁SPCA	-15.3079
▁cada	-15.3083
ODA	-15.3085
yk	-15.3087
▁OBB	-15.3093
furt	-15.3093
▁haik	-15.3095
rink	-15.3096
abil	-15.3097
րան	-15.3105
hea	-15.3108
short	-15.3108
omé	-15.3111
▁atra	-15.3111
▁NAL	-15.3112
ayed	-15.3113
OAT	-15.3117
▁Lt	-15.3118
volv	-15.3119
▁NT	-15.3119
mili	-15.312
▁Լ	-15.312
▁swal	-15.3127
▁ermo	-15.3134
▁JI	-15.3138
ogo	-15.3138
urus	-15.3138
CSU	-15.3151
▁Ty	-15.3156
front	-15.3159
▁BOA	-15.316
bert	-15.3162
noo	-15.3166
KN	-15.3166
ծի	-15.3169
▁aibe	-15.3171
▁yya	-15.3172
▁eide	-15.3181
upam	-15.3181
Ka	-15.3182
abh	-15.3185
▁ouli	-15.3185
UND	-15.3193
▁olon	-15.3194
▁ACS	-15.3194
hire	-15.3195
kk	-15.3195
LSE	-15.3198
▁HI	-15.3199
OPD	-15.3203
▁DX	-15.3205
OG	-15.3206
eries	-15.3207
inci	-15.3209
▁eene	-15.3213
Si	-15.3221
twyt	-15.3228
▁Veg	-15.3231
▁bho	-15.3231
▁dz	-15.3232
anga	-15.3232
¦	-15.3233
±	-15.3233
Ü	-15.3233
ė	-15.3233
ț	-15.3233
ՈՒՆ	-15.3233
Օ	-15.3233
▁Քա	-15.3233
▁հաջո	-15.3233
▁▶	-15.3233
▁★★★	-15.3233
▁✔️	-15.3233
▁🙄	-15.3233
⚽	-15.3233
😍	-15.3233
▁🙏	-15.3233
▁Ä	-15.3233
▁լինի	-15.3233
▁ádiz	-15.3233
▁Գյու	-15.3233
▁QUIT	-15.3233
▁Եվ	-15.3233
▁մեկ	-15.3233
▁րեւ	-15.3233
▁???	-15.3233
▁նակի	-15.3234
▁մու	-15.3234
▁Ամ	-15.3234
▁jør	-15.3234
▁OOGL	-15.3234
▁HOURS	-15.3235
▁kish	-15.3235
▁իմ	-15.3236
▁Süd	-15.3236
▁OSI	-15.3237
սահ	-15.3238
▁էր	-15.3238
wor	-15.3243
▁MCQ	-15.3244
fall	-15.3244
▁8/1	-15.3244
▁6/1	-15.3245
▁ézan	-15.3252
▁SOLD	-15.3252
▁qb	-15.3253
▁vapi	-15.3253
bha	-15.3254
▁korj	-15.3255
▁otaph	-15.3257
lva	-15.3259
▁BTU	-15.326
▁SHIP	-15.3261
▁TTE	-15.3262
▁fóni	-15.3265
▁IUG	-15.3267
nez	-15.3268
▁azr	-15.3273
▁SFG	-15.3275
▁CW	-15.3276
▁$59	-15.3277
▁5).	-15.328
krä	-15.3287
tí	-15.3289
▁roor	-15.3291
ndra	-15.3293
▁Môn	-15.3294
▁GOG	-15.3294
▁kai	-15.3295
▁alá	-15.3296
site	-15.3297
HSA	-15.3298
▁ժամա	-15.3301
▁szy	-15.3301
▁րգ	-15.3302
▁cuaro	-15.3303
▁£23	-15.3304
ël	-15.3305
▁ULT	-15.3306
▁dos	-15.3308
▁CROS	-15.331
clav	-15.3311
▁nsta	-15.3312
ACR	-15.3312
▁RIME	-15.3312
▁kru	-15.3313
▁Sai	-15.3314
▁սկ	-15.3317
▁HOLD	-15.3319
▁CAB	-15.3321
▁rho	-15.3324
CPC	-15.3325
WRA	-15.3328
▁ieuw	-15.3328
▁ERIE	-15.3328
▁FPU	-15.3328
▁edo	-15.3329
▁slä	-15.333
▁LTD	-15.3331
▁£13	-15.3331
▁ձայ	-15.3331
▁TRAC	-15.3332
▁MNF	-15.3334
նձ	-15.3334
▁GIF	-15.3337
▁ZEE	-15.3338
▁BAM	-15.3343
small	-15.3345
▁vale	-15.3351
▁üh	-15.3352
▁IMI	-15.3353
past	-15.3355
mode	-15.3357
▁TMK	-15.3358
▁WMT	-15.336
▁Lol	-15.3361
▁BOY	-15.3367
MSF	-15.3368
▁shma	-15.3369
▁RSL	-15.3369
▁19)	-15.337
▁DSP	-15.3372
▁նտ	-15.3373
▁izá	-15.3375
▁laï	-15.338
▁RANK	-15.338
anti	-15.3381
▁erze	-15.3381
▁CORR	-15.3382
▁INF	-15.3383
▁yawn	-15.3384
▁Troop	-15.3385
▁ynnw	-15.3386
▁գու	-15.3388
SPS	-15.3388
▁EON	-15.3389
▁SH	-15.3394
▁1).	-15.3397
▁TCE	-15.3397
▁uid	-15.3399
▁ranz	-15.34
▁ESV	-15.3402
▁lhof	-15.3403
▁RNS	-15.3405
RIA	-15.3409
edg	-15.3409
▁UFL	-15.3409
▁SIP	-15.3416
News	-15.3418
full	-15.342
▁aif	-15.342
ront	-15.3421
rück	-15.3424
▁TET	-15.3425
▁llaig	-15.3431
ürze	-15.3439
KT	-15.344
▁ahbi	-15.3444
lami	-15.345
▁IPI	-15.345
Ra	-15.3451
▁oña	-15.3456
yet	-15.3459
unity	-15.3459
▁ALO	-15.346
▁avia	-15.3461
MET	-15.3466
▁ahay	-15.3469
▁cloud	-15.3471
▁arci	-15.3471
JF	-15.3473
▁rbaa	-15.3473
▁NIP	-15.3474
▁CPA	-15.3476
▁ié	-15.3477
▁Թ	-15.3478
▁79.	-15.348
glo	-15.3481
▁ARB	-15.3485
▁engbo	-15.3487
▁ADU	-15.3489
▁opo	-15.3489
unti	-15.349
▁NDC	-15.3493
▁09	-15.3494
▁#0	-15.3504
▁NOC	-15.3512
▁319	-15.3513
orted	-15.3513
▁նոց	-15.3515
▁SUP	-15.3515
drum	-15.3516
▁SOL	-15.3517
▁bh	-15.3518
TELY	-15.3519
▁sno	-15.3525
▁illan	-15.3527
▁Tyla	-15.3528
House	-15.353
▁TFL	-15.3531
▁TEP	-15.3533
cks	-15.3533
▁Tob	-15.3534
▁քն	-15.3535
▁chra	-15.3537
▁ռաջ	-15.3538
▁kwet	-15.3547
▁AMU	-15.3549
▁ACU	-15.3552
▁ljam	-15.3556
CON	-15.3556
▁rqa	-15.3558
▁BOT	-15.356
▁NTO	-15.356
▁uju	-15.3561
▁ryng	-15.3563
▁uche	-15.3569
▁4."	-15.357
▁ALS	-15.357
▁MUD	-15.3571
▁ynter	-15.3576
▁Այն	-15.3576
▁dur	-15.3579
▁OSS	-15.3581
▁aldí	-15.3581
▁meri	-15.3585
▁lä	-15.3586
ձ	-15.3586
▁COST	-15.3587
▁UNO	-15.3596
teak	-15.3597
▁AYA	-15.3601
▁NORT	-15.3601
▁ngam	-15.3602
▁NPA	-15.3602
▁üb	-15.3607
▁LOSE	-15.361
▁NUP	-15.3612
▁OUND	-15.3613
▁FEF	-15.3618
ewis	-15.3619
▁HCP	-15.3621
▁BDA	-15.3628
▁rogn	-15.363
ntr	-15.3632
▁clave	-15.3637
▁olfa	-15.3638
▁eade	-15.364
▁eele	-15.3643
▁eved	-15.365
▁URL	-15.365
▁dzie	-15.3654
▁POI	-15.3654
▁EPC	-15.3656
▁nné	-15.3658
▁NCL	-15.3659
▁gyfa	-15.3668
▁CYP	-15.3669
UC	-15.3669
▁adiy	-15.367
▁udzi	-15.3675
▁20)	-15.3676
+1	-15.3685
▁ալի	-15.3692
▁412	-15.3698
▁BSB	-15.3699
core	-15.37
▁kure	-15.3701
▁AFT	-15.3706
▁Bhup	-15.3706
▁PF	-15.3706
▁MPG	-15.3715
▁dkat	-15.3719
Da	-15.3721
▁RTC	-15.3721
cult	-15.3724
hí	-15.3724
▁PHE	-15.3731
▁GRO	-15.3732
▁czk	-15.3732
▁67.	-15.3736
▁lol	-15.3737
▁հեղ	-15.374
▁BIT	-15.3742
rena	-15.3749
▁atna	-15.3749
▁ukov	-15.375
▁lami	-15.3751
▁Umma	-15.3759
▁թեմա	-15.376
EIR	-15.3766
welf	-15.3768
nica	-15.3769
rita	-15.3769
▁Yip	-15.3771
▁ilb	-15.3774
գու	-15.3775
▁HA	-15.3777
▁uvu	-15.3779
DMC	-15.3786
▁Év	-15.3787
▁ttar	-15.3787
ôni	-15.3787
▁EOR	-15.3788
▁SOF	-15.3791
layed	-15.3792
▁CK	-15.3793
▁chec	-15.3793
▁DOH	-15.3797
YBE	-15.3801
▁MEC	-15.3805
ANK	-15.3805
CDH	-15.3806
unge	-15.3808
▁smin	-15.3811
▁urta	-15.3817
▁okin	-15.3818
SH	-15.382
▁ayat	-15.3821
▁59.	-15.3829
pact	-15.3829
▁85.	-15.3833
rease	-15.3833
▁REB	-15.3833
▁wra	-15.3836
▁FF	-15.3839
▁ozo	-15.384
▁ADRI	-15.384
▁MARE	-15.3841
fee	-15.3846
▁KJ	-15.3846
RVM	-15.3847
▁DOU	-15.3849
▁ZY	-15.385
ISHE	-15.3851
▁շ	-15.3851
ål	-15.3854
▁dwal	-15.3867
▁£1.	-15.3872
▁Tsu	-15.3881
▁actu	-15.3897
▁lsac	-15.3898
▁rezz	-15.3898
▁BBF	-15.3902
▁CLAS	-15.3904
▁sic	-15.3907
▁TCC	-15.3911
▁OA	-15.3914
▁ROU	-15.3917
▁HLP	-15.3919
▁ixe	-15.3921
UA	-15.3922
nent	-15.3922
▁maid	-15.3923
▁urde	-15.3926
▁ERAT	-15.3926
▁kk	-15.393
iú	-15.393
uko	-15.3932
JO	-15.3933
IDE	-15.3936
▁uerk	-15.3937
▁rcol	-15.3939
▁oyo	-15.3939
▁zha	-15.3944
▁CRIS	-15.3945
▁RTA	-15.3946
▁ROST	-15.3949
▁302	-15.3949
stan	-15.3956
ngle	-15.3965
thin	-15.3967
food	-15.397
▁REST	-15.397
▁UX	-15.3972
▁հասա	-15.3974
alu	-15.3975
▁nake	-15.3977
moth	-15.3978
▁nyu	-15.3983
HIN	-15.3983
▁MDB	-15.3985
tm	-15.3985
▁raka	-15.3986
▁ISTE	-15.3991
ét	-15.3991
avo	-15.3998
▁TUD	-15.4001
aois	-15.4005
▁deg	-15.4007
audi	-15.4012
▁és	-15.4021
▁RF	-15.4022
▁áp	-15.4023
HM	-15.4024
▁perf	-15.4025
yalu	-15.4027
SOM	-15.4028
▁bá	-15.4042
AWA	-15.4043
▁arik	-15.405
ibe	-15.4051
tzk	-15.4062
URP	-15.4063
isit	-15.4063
igu	-15.4065
▁rmin	-15.4067
PRC	-15.4071
IZI	-15.4072
▁typo	-15.4074
driv	-15.4078
▁JS	-15.4081
▁valo	-15.4085
▁dc	-15.4085
aint	-15.4086
BG	-15.41
▁lgam	-15.4106
▁aydn	-15.4113
taken	-15.4113
▁ACO	-15.4119
OMO	-15.412
▁Trove	-15.412
FAF	-15.4121
▁աշ	-15.4124
stí	-15.4124
▁laki	-15.4125
[...]
