{
  "version": "1.0",
  "truncation": null,
  "padding": null,
  "added_tokens": [
    {
      "id": 0,
      "content": "[UNK]",
      "single_word": false,
      "lstrip": false,
      "rstrip": false,
      "normalized": false,
      "special": true
    },
    {
      "id": 1,
      "content": "[CLS]",
      "single_word": false,
      "lstrip": false,
      "rstrip": false,
      "normalized": false,
      "special": true
    },
    {
      "id": 2,
      "content": "[SEP]",
      "single_word": false,
      "lstrip": false,
      "rstrip": false,
      "normalized": false,
      "special": true
    },
    {
      "id": 3,
      "content": "[PAD]",
      "single_word": false,
      "lstrip": false,
      "rstrip": false,
      "normalized": false,
      "special": true
    },
    {
      "id": 4,
      "content": "[MASK]",
      "single_word": false,
      "lstrip": false,
      "rstrip": false,
      "normalized": false,
      "special": true
    }
  ],
  "normalizer": {
    "type": "Sequence",
    "normalizers": [
      {
        "type": "NFKC"
      },
      {
        "type": "Lowercase"
      }
    ]
  },
  "pre_tokenizer": {
    "type": "Whitespace"
  },
  "post_processor": null,
  "decoder": {
    "type": "WordPiece",
    "prefix": "##",
    "cleanup": true
  },
  "model": {
    "type": "WordPiece",
    "unk_token": "[UNK]",
    "continuing_subword_prefix": "##",
    "max_input_chars_per_word": 100,
    "vocab": {
      "[UNK]": 0,
      "[CLS]": 1,
      "[SEP]": 2,
      "[PAD]": 3,
      "[MASK]": 4,
      "!": 5,
      "\"": 6,
      "#": 7,
      "$": 8,
      "%": 9,
      "&": 10,
      "'": 11,
      "(": 12,
      ")": 13,
      "*": 14,
      "+": 15,
      ",": 16,
      "-": 17,
      ".": 18,
      "/": 19,
      "0": 20,
      "1": 21,
      "2": 22,
      "3": 23,
      "4": 24,
      "5": 25,
      "6": 26,
      "7": 27,
      "8": 28,
      "9": 29,
      ":": 30,
      ";": 31,
      "<": 32,
      "=": 33,
      ">": 34,
      "?": 35,
      "@": 36,
      "[": 37,
      "\\": 38,
      "]": 39,
      "^": 40,
      "_": 41,
      "`": 42,
      "a": 43,
      "b": 44,
      "c": 45,
      "d": 46,
      "e": 47,
      "f": 48,
      "g": 49,
      "h": 50,
      "i": 51,
      "j": 52,
      "k": 53,
      "l": 54,
      "m": 55,
      "n": 56,
      "o": 57,
      "p": 58,
      "q": 59,
      "r": 60,
      "s": 61,
      "t": 62,
      "u": 63,
      "v": 64,
      "w": 65,
      "x": 66,
      "y": 67,
      "z": 68,
      "{": 69,
      "}": 70,
      "~": 71,
      "": 72,
      "": 73,
      "": 74,
      "": 75,
      "": 76,
      "": 77,
      "": 78,
      "": 79,
      "": 80,
      "": 81,
      "¡": 82,
      "¢": 83,
      "£": 84,
      "¦": 85,
      "§": 86,
      "©": 87,
      "­": 88,
      "®": 89,
      "°": 90,
      "±": 91,
      "·": 92,
      "¿": 93,
      "×": 94,
      "ß": 95,
      "à": 96,
      "á": 97,
      "â": 98,
      "ã": 99,
      "ä": 100,
      "å": 101,
      "æ": 102,
      "ç": 103,
      "è": 104,
      "é": 105,
      "ê": 106,
      "ë": 107,
      "ì": 108,
      "í": 109,
      "î": 110,
      "ï": 111,
      "ñ": 112,
      "ò": 113,
      "ó": 114,
      "ô": 115,
      "ö": 116,
      "ø": 117,
      "ù": 118,
      "ú": 119,
      "û": 120,
      "ü": 121,
      "ý": 122,
      "þ": 123,
      "ÿ": 124,
      "ā": 125,
      "ă": 126,
      "ą": 127,
      "ć": 128,
      "č": 129,
      "đ": 130,
      "ē": 131,
      "ė": 132,
      "ę": 133,
      "ğ": 134,
      "ģ": 135,
      "ī": 136,
      "ı": 137,
      "ł": 138,
      "ń": 139,
      "ņ": 140,
      "ň": 141,
      "ō": 142,
      "ř": 143,
      "ś": 144,
      "ş": 145,
      "š": 146,
      "ţ": 147,
      "ū": 148,
      "ŵ": 149,
      "ŷ": 150,
      "ż": 151,
      "ž": 152,
      "ư": 153,
      "ș": 154,
      "ț": 155,
      "ə": 156,
      "ʔ": 157,
      "ʻ": 158,
      "̀": 159,
      "́": 160,
      "̃": 161,
      "̄": 162,
      "̇": 163,
      "̈": 164,
      "μ": 165,
      "а": 166,
      "и": 167,
      "к": 168,
      "н": 169,
      "о": 170,
      "р": 171,
      "с": 172,
      "у": 173,
      "ї": 174,
      "՛": 175,
      "՝": 176,
      "՞": 177,
      "ա": 178,
      "բ": 179,
      "գ": 180,
      "դ": 181,
      "ե": 182,
      "զ": 183,
      "է": 184,
      "ը": 185,
      "թ": 186,
      "ժ": 187,
      "ի": 188,
      "լ": 189,
      "խ": 190,
      "ծ": 191,
      "կ": 192,
      "հ": 193,
      "ձ": 194,
      "ղ": 195,
      "ճ": 196,
      "մ": 197,
      "յ": 198,
      "ն": 199,
      "շ": 200,
      "ո": 201,
      "չ": 202,
      "պ": 203,
      "ջ": 204,
      "ռ": 205,
      "ս": 206,
      "վ": 207,
      "տ": 208,
      "ր": 209,
      "ց": 210,
      "ւ": 211,
      "փ": 212,
      "ք": 213,
      "օ": 214,
      "ֆ": 215,
      "։": 216,
      "฿": 217,
      "ḥ": 218,
      "ṡ": 219,
      "ṣ": 220,
      "ạ": 221,
      "ả": 222,
      "ầ": 223,
      "ắ": 224,
      "ẹ": 225,
      "ế": 226,
      "ệ": 227,
      "ị": 228,
      "ọ": 229,
      "ố": 230,
      "ộ": 231,
      "ờ": 232,
      "ợ": 233,
      "ừ": 234,
      "ự": 235,
      "ỹ": 236,
      "‌": 237,
      "‍": 238,
      "‐": 239,
      "―": 240,
      "•": 241,
      "‬": 242,
      "‭": 243,
      "′": 244,
      "›": 245,
      "⁄": 246,
      "⁠": 247,
      "⁣": 248,
      "⁤": 249,
      "⁦": 250,
      "⁩": 251,
      "₦": 252,
      "€": 253,
      "₱": 254,
      "₹": 255,
      "℞": 256,
      "↔": 257,
      "−": 258,
      "⊕": 259,
      "⏳": 260,
      "■": 261,
      "▶": 262,
      "►": 263,
      "◀": 264,
      "●": 265,
      "☀": 266,
      "★": 267,
      "☆": 268,
      "♀": 269,
      "♂": 270,
      "♥": 271,
      "♦": 272,
      "♪": 273,
      "♬": 274,
      "⚽": 275,
      "✅": 276,
      "✔": 277,
      "✨": 278,
      "❌": 279,
      "❤": 280,
      "➡": 281,
      "⭐": 282,
      "・": 283,
      "︎": 284,
      "️": 285,
      "�": 286,
      "𝄒": 287,
      "🇦": 288,
      "🇱": 289,
      "🇳": 290,
      "🇸": 291,
      "🇺": 292,
      "🌪": 293,
      "🌴": 294,
      "🌹": 295,
      "🍓": 296,
      "🍹": 297,
      "🍺": 298,
      "🎁": 299,
      "🎢": 300,
      "🎪": 301,
      "🏆": 302,
      "🏻": 303,
      "🏼": 304,
      "🏽": 305,
      "🏾": 306,
      "🐎": 307,
      "👀": 308,
      "👈": 309,
      "👉": 310,
      "👍": 311,
      "👏": 312,
      "💕": 313,
      "💙": 314,
      "💥": 315,
      "💨": 316,
      "💬": 317,
      "📋": 318,
      "📍": 319,
      "📷": 320,
      "📸": 321,
      "🔥": 322,
      "😂": 323,
      "😅": 324,
      "😆": 325,
      "😊": 326,
      "😍": 327,
      "😢": 328,
      "😭": 329,
      "😮": 330,
      "😱": 331,
      "😳": 332,
      "🙄": 333,
      "🙌": 334,
      "🙏": 335,
      "🚨": 336,
      "🛒": 337,
      "🤎": 338,
      "🤔": 339,
      "🤣": 340,
      "🤦": 341,
      "🤫": 342,
      "🤯": 343,
      "🤵": 344,
      "🤷": 345,
      "🥅": 346,
      "🥇": 347,
      "🥥": 348,
      "🥪": 349,
      "🥹": 350,
      "🥺": 351,
      "🫣": 352,
      "##r": 353,
      "##o": 354,
      "##ղ": 355,
      "##ի": 356,
      "##ց": 357,
      "##u": 358,
      "##b": 359,
      "##e": 360,
      "##h": 361,
      "##i": 362,
      "##c": 363,
      "##n": 364,
      "##t": 365,
      "##l": 366,
      "##g": 367,
      "##s": 368,
      "##d": 369,
      "##a": 370,
      "##y": 371,
      "##f": 372,
      "##p": 373,
      "##5": 374,
      "##z": 375,
      "##v": 376,
      "##k": 377,
      "##m": 378,
      "##\"": 379,
      "##w": 380,
      "##à": 381,
      "##8": 382,
      "##ր": 383,
      "##ն": 384,
      "##j": 385,
      "##q": 386,
      "##á": 387,
      "##ó": 388,
      "##յ": 389,
      "##ժ": 390,
      "##մ": 391,
      "##տ": 392,
      "##ո": 393,
      "##ւ": 394,
      "##x": 395,
      "##ø": 396,
      "##ա": 397,
      "##ռ": 398,
      "##í": 399,
      "##7": 400,
      "##4": 401,
      "##1": 402,
      "##0": 403,
      "##ö": 404,
      "##é": 405,
      "##կ": 406,
      "##6": 407,
      "##3": 408,
      "##ձ": 409,
      "##ճ": 410,
      "##հ": 411,
      "##ú": 412,
      "##.": 413,
      "##զ": 414,
      "##չ": 415,
      "##ե": 416,
      "##ô": 417,
      "##2": 418,
      "##ê": 419,
      "##ñ": 420,
      "##ջ": 421,
      "##,": 422,
      "##9": 423,
      "##ł": 424,
      "##փ": 425,
      "##լ": 426,
      "##բ": 427,
      "##ắ": 428,
      "##â": 429,
      "##պ": 430,
      "##ս": 431,
      "##վ": 432,
      "##ծ": 433,
      "##ç": 434,
      "##շ": 435,
      "##è": 436,
      "##ū": 437,
      "##խ": 438,
      "##)": 439,
      "##ã": 440,
      "##ā": 441,
      "##դ": 442,
      "##ը": 443,
      "##ć": 444,
      "##ï": 445,
      "##ü": 446,
      "##թ": 447,
      "##ō": 448,
      "##ş": 449,
      "##ä": 450,
      "##😂": 451,
      "##ž": 452,
      "##æ": 453,
      "##ë": 454,
      "##ğ": 455,
      "##ֆ": 456,
      "##ı": 457,
      "##🏼": 458,
      "##'": 459,
      "##̇": 460,
      "##*": 461,
      "##:": 462,
      "##ք": 463,
      "##+": 464,
      "##ʔ": 465,
      "##ș": 466,
      "##ę": 467,
      "##;": 468,
      "##ṣ": 469,
      "##գ": 470,
      "##օ": 471,
      "##î": 472,
      "##ŵ": 473,
      "##ŷ": 474,
      "##℞": 475,
      "##š": 476,
      "##ò": 477,
      "##է": 478,
      "##′": 479,
      "##?": 480,
      "##@": 481,
      "##ì": 482,
      "##ư": 483,
      "##ờ": 484,
      "##🥺": 485,
      "##%": 486,
      "##<": 487,
      "##å": 488,
      "##$": 489,
      "##ă": 490,
      "##[": 491,
      "##&": 492,
      "##ù": 493,
      "##ỹ": 494,
      "##🇱": 495,
      "##ţ": 496,
      "##č": 497,
      "##ß": 498,
      "##û": 499,
      "##ņ": 500,
      "##ģ": 501,
      "##ś": 502,
      "##ừ": 503,
      "##": 504,
      "##ạ": 505,
      "##/": 506,
      "##-": 507,
      "##©": 508,
      "##с": 509,
      "##о": 510,
      "##🏻": 511,
      "##🌹": 512,
      "##ż": 513,
      "##ẹ": 514,
      "##ń": 515,
      "##ē": 516,
      "##ň": 517,
      "##ė": 518,
      "##ə": 519,
      "##!": 520,
      "##ī": 521,
      "##ÿ": 522,
      "##£": 523,
      "##ị": 524,
      "##։": 525,
      "##€": 526,
      "##]": 527,
      "##ț": 528,
      "##🇸": 529,
      "##ố": 530,
      "##📸": 531,
      "##★": 532,
      "##ự": 533,
      "##р": 534,
      "##а": 535,
      "##ї": 536,
      "##н": 537,
      "##ợ": 538,
      "##ế": 539,
      "##ệ": 540,
      "##ý": 541,
      "##_": 542,
      "##": 543,
      "##ầ": 544,
      "##🥇": 545,
      "##ọ": 546,
      "th": 547,
      "the": 548,
      "in": 549,
      "##er": 550,
      "##nd": 551,
      "to": 552,
      "##en": 553,
      "##in": 554,
      "##or": 555,
      "##on": 556,
      "##at": 557,
      "of": 558,
      "and": 559,
      "##ar": 560,
      "re": 561,
      "##ou": 562,
      "##an": 563,
      "##re": 564,
      "ing": 565,
      "##it": 566,
      "##as": 567,
      "##ed": 568,
      "##al": 569,
      "##es": 570,
      "ed": 571,
      "er": 572,
      "st": 573,
      "##is": 574,
      "on": 575,
      "##ll": 576,
      "##ic": 577,
      "##ing": 578,
      "##ro": 579,
      "it": 580,
      "##le": 581,
      "ti": 582,
      "for": 583,
      "##id": 584,
      "wh": 585,
      "is": 586,
      "##ent": 587,
      "##ve": 588,
      "##st": 589,
      "be": 590,
      "co": 591,
      "at": 592,
      "##ay": 593,
      "ha": 594,
      "en": 595,
      "that": 596,
      "he": 597,
      "an": 598,
      "##ot": 599,
      "##me": 600,
      "##ut": 601,
      "de": 602,
      "##ce": 603,
      "sh": 604,
      "##ld": 605,
      "as": 606,
      "##ra": 607,
      "##ow": 608,
      "##ith": 609,
      "al": 610,
      "or": 611,
      "##et": 612,
      "with": 613,
      "##se": 614,
      "##ir": 615,
      "##ch": 616,
      "was": 617,
      "ma": 618,
      "we": 619,
      "tion": 620,
      "ne": 621,
      "##ter": 622,
      "sa": 623,
      "##ri": 624,
      "le": 625,
      "se": 626,
      "##ur": 627,
      "ch": 628,
      "##mp": 629,
      "li": 630,
      "##ver": 631,
      "te": 632,
      "##th": 633,
      "##ly": 634,
      "ar": 635,
      "ly": 636,
      "su": 637,
      "##gh": 638,
      "##la": 639,
      "you": 640,
      "##ck": 641,
      "##li": 642,
      "##ct": 643,
      "ab": 644,
      "so": 645,
      "##ke": 646,
      "##il": 647,
      "##ge": 648,
      "wi": 649,
      "are": 650,
      "pro": 651,
      "said": 652,
      "##ad": 653,
      "lo": 654,
      "his": 655,
      "ex": 656,
      "##si": 657,
      "un": 658,
      "have": 659,
      "has": 660,
      "fro": 661,
      "go": 662,
      "from": 663,
      "by": 664,
      "me": 665,
      "sp": 666,
      "all": 667,
      "this": 668,
      "##ore": 669,
      "la": 670,
      "##ere": 671,
      "ho": 672,
      "but": 673,
      "##igh": 674,
      "di": 675,
      "ta": 676,
      "##el": 677,
      "not": 678,
      "po": 679,
      "es": 680,
      "con": 681,
      "do": 682,
      "##ear": 683,
      "fa": 684,
      "ca": 685,
      "##ould": 686,
      "mo": 687,
      "they": 688,
      "##io": 689,
      "tr": 690,
      "##ion": 691,
      "ra": 692,
      "ro": 693,
      "##us": 694,
      "##ate": 695,
      "out": 696,
      "##ia": 697,
      "wor": 698,
      "us": 699,
      "##ue": 700,
      "##ul": 701,
      "af": 702,
      "her": 703,
      "pre": 704,
      "she": 705,
      "##ast": 706,
      "##est": 707,
      "fi": 708,
      "who": 709,
      "ent": 710,
      "##ma": 711,
      "up": 712,
      "##ess": 713,
      "no": 714,
      "year": 715,
      "mi": 716,
      "ion": 717,
      "##lo": 718,
      "qu": 719,
      "##ust": 720,
      "ment": 721,
      "ers": 722,
      "##im": 723,
      "will": 724,
      "##op": 725,
      "ad": 726,
      "nt": 727,
      "off": 728,
      "##un": 729,
      "##art": 730,
      "one": 731,
      "pa": 732,
      "ag": 733,
      "their": 734,
      "si": 735,
      "##co": 736,
      "##ight": 737,
      "had": 738,
      "fe": 739,
      "nd": 740,
      "##so": 741,
      "gh": 742,
      "##ment": 743,
      "new": 744,
      "##mb": 745,
      "man": 746,
      "been": 747,
      "can": 748,
      "##ard": 749,
      "##ss": 750,
      "after": 751,
      "##fe": 752,
      "more": 753,
      "##out": 754,
      "##ci": 755,
      "op": 756,
      "##lu": 757,
      "pp": 758,
      "##am": 759,
      "##ort": 760,
      "tt": 761,
      "##ich": 762,
      "tw": 763,
      "over": 764,
      "ri": 765,
      "our": 766,
      "ba": 767,
      "rep": 768,
      "##ant": 769,
      "##de": 770,
      "were": 771,
      "am": 772,
      "if": 773,
      "fo": 774,
      "ev": 775,
      "ty": 776,
      "there": 777,
      "about": 778,
      "dent": 779,
      "per": 780,
      "##ok": 781,
      "sc": 782,
      "##our": 783,
      "##od": 784,
      "##ry": 785,
      "when": 786,
      "which": 787,
      "int": 788,
      "##ong": 789,
      "get": 790,
      "##ide": 791,
      "##ity": 792,
      "##mm": 793,
      "also": 794,
      "##one": 795,
      "some": 796,
      "tra": 797,
      "ga": 798,
      "ap": 799,
      "du": 800,
      "like": 801,
      "##ti": 802,
      "##ie": 803,
      "##ays": 804,
      "ur": 805,
      "eop": 806,
      "eople": 807,
      "sta": 808,
      "time": 809,
      "my": 810,
      "fir": 811,
      "ef": 812,
      "ver": 813,
      "est": 814,
      "would": 815,
      "how": 816,
      "gu": 817,
      "dis": 818,
      "ll": 819,
      "what": 820,
      "##ound": 821,
      "##iv": 822,
      "work": 823,
      "et": 824,
      "str": 825,
      "##pe": 826,
      "bu": 827,
      "##gn": 828,
      "##lic": 829,
      "##ine": 830,
      "##all": 831,
      "##rou": 832,
      "rec": 833,
      "its": 834,
      "oth": 835,
      "just": 836,
      "##ree": 837,
      "first": 838,
      "ever": 839,
      "ele": 840,
      "mp": 841,
      "bo": 842,
      "ster": 843,
      "ser": 844,
      "kn": 845,
      "cha": 846,
      "und": 847,
      "ter": 848,
      "than": 849,
      "##use": 850,
      "ng": 851,
      "uk": 852,
      "tri": 853,
      "imp": 854,
      "thing": 855,
      "nat": 856,
      "pla": 857,
      "other": 858,
      "ous": 859,
      "two": 860,
      "##oth": 861,
      "gra": 862,
      "ear": 863,
      "##ill": 864,
      "##own": 865,
      "ation": 866,
      "into": 867,
      "nal": 868,
      "back": 869,
      "##ep": 870,
      "part": 871,
      "pl": 872,
      "na": 873,
      "ck": 874,
      "tru": 875,
      "tor": 876,
      "ted": 877,
      "last": 878,
      "him": 879,
      "ort": 880,
      "nn": 881,
      "##om": 882,
      "##ite": 883,
      "ic": 884,
      "whi": 885,
      "state": 886,
      "##ans": 887,
      "spe": 888,
      "able": 889,
      "gre": 890,
      "ss": 891,
      "##mo": 892,
      "##ek": 893,
      "inter": 894,
      "##ist": 895,
      "ow": 896,
      "##ain": 897,
      "eco": 898,
      "ial": 899,
      "cc": 900,
      "##ini": 901,
      "day": 902,
      "pe": 903,
      "end": 904,
      "now": 905,
      "them": 906,
      "el": 907,
      "##ence": 908,
      "##ag": 909,
      "fu": 910,
      "tre": 911,
      "##po": 912,
      "##ink": 913,
      "hu": 914,
      "ord": 915,
      "##ach": 916,
      "ac": 917,
      "ct": 918,
      "ou": 919,
      "##ol": 920,
      "##ght": 921,
      "res": 922,
      "jo": 923,
      "while": 924,
      "lli": 925,
      "da": 926,
      "inc": 927,
      "##ip": 928,
      "again": 929,
      "years": 930,
      "##ase": 931,
      "any": 932,
      "##di": 933,
      "##ath": 934,
      "mar": 935,
      "ph": 936,
      "##int": 937,
      "trump": 938,
      "could": 939,
      "mon": 940,
      "##ies": 941,
      "your": 942,
      "natio": 943,
      "son": 944,
      "ub": 945,
      "offic": 946,
      "presi": 947,
      "tive": 948,
      "##cu": 949,
      "rt": 950,
      "bi": 951,
      "comp": 952,
      "##day": 953,
      "act": 954,
      "real": 955,
      "where": 956,
      "##are": 957,
      "under": 958,
      "med": 959,
      "##ft": 960,
      "vi": 961,
      "ay": 962,
      "did": 963,
      "ve": 964,
      "mu": 965,
      "id": 966,
      "every": 967,
      "high": 968,
      "ot": 969,
      "ns": 970,
      "week": 971,
      "ring": 972,
      "efore": 973,
      "round": 974,
      "even": 975,
      "gen": 976,
      "##ak": 977,
      "##ne": 978,
      "unt": 979,
      "add": 980,
      "set": 981,
      "##ice": 982,
      "##urn": 983,
      "ity": 984,
      "mer": 985,
      "serv": 986,
      "want": 987,
      "way": 988,
      "chi": 989,
      "ris": 990,
      "##ga": 991,
      "hou": 992,
      "app": 993,
      "war": 994,
      "##em": 995,
      "ry": 996,
      "being": 997,
      "##mes": 998,
      "gover": 999,
      "red": 1000,
      "##per": 1001,
      "comm": 1002,
      "then": 1003,
      "need": 1004,
      "ff": 1005,
      "side": 1006,
      "##ali": 1007,
      "##vi": 1008,
      "show": 1009,
      "look": 1010,
      "nc": 1011,
      "cause": 1012,
      "##pt": 1013,
      "down": 1014,
      "lead": 1015,
      "ke": 1016,
      "only": 1017,
      "right": 1018,
      "turn": 1019,
      "long": 1020,
      "ld": 1021,
      "aw": 1022,
      "##mi": 1023,
      "world": 1024,
      "think": 1025,
      "ut": 1026,
      "ob": 1027,
      "##ual": 1028,
      "##gi": 1029,
      "wid": 1030,
      "olic": 1031,
      "nor": 1032,
      "ind": 1033,
      "hel": 1034,
      "##ers": 1035,
      "sm": 1036,
      "going": 1037,
      "##ance": 1038,
      "fam": 1039,
      "don": 1040,
      "old": 1041,
      "elec": 1042,
      "llion": 1043,
      "emb": 1044,
      "ding": 1045,
      "tic": 1046,
      "cre": 1047,
      "well": 1048,
      "##ps": 1049,
      "ate": 1050,
      "mr": 1051,
      "##ive": 1052,
      "make": 1053,
      "##pp": 1054,
      "ill": 1055,
      "clu": 1056,
      "##ince": 1057,
      "tho": 1058,
      "nment": 1059,
      "im": 1060,
      "ht": 1061,
      "grou": 1062,
      "stu": 1063,
      "many": 1064,
      "these": 1065,
      "line": 1066,
      "ru": 1067,
      "##ves": 1068,
      "ju": 1069,
      "##ial": 1070,
      "most": 1071,
      "sent": 1072,
      "il": 1073,
      "month": 1074,
      "##ris": 1075,
      "##row": 1076,
      "age": 1077,
      "throu": 1078,
      "told": 1079,
      "start": 1080,
      "know": 1081,
      "ght": 1082,
      "pu": 1083,
      "##uc": 1084,
      "three": 1085,
      "poli": 1086,
      "home": 1087,
      "made": 1088,
      "pport": 1089,
      "##xt": 1090,
      "##ord": 1091,
      "##ater": 1092,
      "tu": 1093,
      "tal": 1094,
      "amer": 1095,
      "lay": 1096,
      "##ict": 1097,
      "##ica": 1098,
      "bro": 1099,
      "own": 1100,
      "tin": 1101,
      "rs": 1102,
      "##ty": 1103,
      "##ru": 1104,
      "sk": 1105,
      "ship": 1106,
      "may": 1107,
      "eng": 1108,
      "come": 1109,
      "ness": 1110,
      "team": 1111,
      "hi": 1112,
      "ir": 1113,
      "help": 1114,
      "##na": 1115,
      "famil": 1116,
      "sday": 1117,
      "##ev": 1118,
      "since": 1119,
      "har": 1120,
      "##ass": 1121,
      "read": 1122,
      "ence": 1123,
      "point": 1124,
      "very": 1125,
      "ni": 1126,
      "mak": 1127,
      "let": 1128,
      "des": 1129,
      "os": 1130,
      "life": 1131,
      "tak": 1132,
      "house": 1133,
      "ge": 1134,
      "run": 1135,
      "nu": 1136,
      "less": 1137,
      "sra": 1138,
      "ward": 1139,
      "ist": 1140,
      "mini": 1141,
      "says": 1142,
      "see": 1143,
      "vel": 1144,
      "air": 1145,
      "srael": 1146,
      "quali": 1147,
      "pri": 1148,
      "ell": 1149,
      "law": 1150,
      "par": 1151,
      "han": 1152,
      "thou": 1153,
      "dd": 1154,
      "those": 1155,
      "##va": 1156,
      "dep": 1157,
      "char": 1158,
      "inclu": 1159,
      "##qu": 1160,
      "cle": 1161,
      "ey": 1162,
      "ant": 1163,
      "led": 1164,
      "sing": 1165,
      "##fi": 1166,
      "take": 1167,
      "media": 1168,
      "cho": 1169,
      "##aso": 1170,
      "ann": 1171,
      "ance": 1172,
      "tions": 1173,
      "ress": 1174,
      "wom": 1175,
      "##een": 1176,
      "fin": 1177,
      "wa": 1178,
      "aut": 1179,
      "##ote": 1180,
      "ice": 1181,
      "ond": 1182,
      "play": 1183,
      "cul": 1184,
      "hould": 1185,
      "mil": 1186,
      "##iew": 1187,
      "##ack": 1188,
      "sion": 1189,
      "news": 1190,
      "iss": 1191,
      "ign": 1192,
      "much": 1193,
      "ies": 1194,
      "ia": 1195,
      "view": 1196,
      "good": 1197,
      "##ca": 1198,
      "ive": 1199,
      "ary": 1200,
      "gui": 1201,
      "land": 1202,
      "still": 1203,
      "here": 1204,
      "sec": 1205,
      "wo": 1206,
      "blo": 1207,
      "bid": 1208,
      "##men": 1209,
      "oll": 1210,
      "anoth": 1211,
      "pr": 1212,
      "##oun": 1213,
      "dif": 1214,
      "##tl": 1215,
      "found": 1216,
      "ement": 1217,
      "##hi": 1218,
      "ameri": 1219,
      "ublic": 1220,
      "htt": 1221,
      "untry": 1222,
      "https": 1223,
      "rat": 1224,
      "ai": 1225,
      "city": 1226,
      "ccord": 1227,
      "gg": 1228,
      "ce": 1229,
      "##ba": 1230,
      "##lf": 1231,
      "head": 1232,
      "fit": 1233,
      "au": 1234,
      "vide": 1235,
      "##arge": 1236,
      "##ick": 1237,
      "demo": 1238,
      "four": 1239,
      "##ang": 1240,
      "game": 1241,
      "car": 1242,
      "rit": 1243,
      "olice": 1244,
      "##ect": 1245,
      "##ower": 1246,
      "cl": 1247,
      "fri": 1248,
      "auto": 1249,
      "ful": 1250,
      "art": 1251,
      "enc": 1252,
      "tween": 1253,
      "ul": 1254,
      "##llo": 1255,
      "econd": 1256,
      "such": 1257,
      "sw": 1258,
      "fr": 1259,
      "happ": 1260,
      "follo": 1261,
      "sed": 1262,
      "feel": 1263,
      "##era": 1264,
      "port": 1265,
      "em": 1266,
      "camp": 1267,
      "oun": 1268,
      "##atch": 1269,
      "ima": 1270,
      "erson": 1271,
      "sign": 1272,
      "hand": 1273,
      "ass": 1274,
      "dat": 1275,
      "br": 1276,
      "cro": 1277,
      "memb": 1278,
      "biden": 1279,
      "star": 1280,
      "lot": 1281,
      "say": 1282,
      "night": 1283,
      "top": 1284,
      "##sia": 1285,
      "rc": 1286,
      "cri": 1287,
      "rm": 1288,
      "##ha": 1289,
      "order": 1290,
      "sou": 1291,
      "##ina": 1292,
      "open": 1293,
      "times": 1294,
      "arti": 1295,
      "clo": 1296,
      "party": 1297,
      "does": 1298,
      "ember": 1299,
      "ussia": 1300,
      "added": 1301,
      "##anc": 1302,
      "ble": 1303,
      "alth": 1304,
      "mm": 1305,
      "##sta": 1306,
      "ud": 1307,
      "test": 1308,
      "wr": 1309,
      "form": 1310,
      "jp": 1311,
      "south": 1312,
      "net": 1313,
      "gener": 1314,
      "put": 1315,
      "cla": 1316,
      "##rec": 1317,
      "cu": 1318,
      "##ount": 1319,
      "left": 1320,
      "jpg": 1321,
      "ham": 1322,
      "orm": 1323,
      "##um": 1324,
      "##te": 1325,
      "win": 1326,
      "full": 1327,
      "mb": 1328,
      "got": 1329,
      "group": 1330,
      "gn": 1331,
      "ttack": 1332,
      "india": 1333,
      "oci": 1334,
      "rid": 1335,
      "far": 1336,
      "ki": 1337,
      "##ank": 1338,
      "fil": 1339,
      "nom": 1340,
      "ah": 1341,
      "ting": 1342,
      "##itu": 1343,
      "ol": 1344,
      "seaso": 1345,
      "ssi": 1346,
      "##ren": 1347,
      "both": 1348,
      "ated": 1349,
      "od": 1350,
      "ask": 1351,
      "use": 1352,
      "dra": 1353,
      "best": 1354,
      "rk": 1355,
      "ug": 1356,
      "place": 1357,
      "##sib": 1358,
      "eu": 1359,
      "dec": 1360,
      "ties": 1361,
      "sen": 1362,
      "ently": 1363,
      "too": 1364,
      "trans": 1365,
      "##ustr": 1366,
      "issue": 1367,
      "tinue": 1368,
      "each": 1369,
      "next": 1370,
      "vis": 1371,
      "##rai": 1372,
      "ong": 1373,
      "ities": 1374,
      "redit": 1375,
      "tain": 1376,
      "frien": 1377,
      "ep": 1378,
      "vo": 1379,
      "mov": 1380,
      "cer": 1381,
      "call": 1382,
      "ak": 1383,
      "clear": 1384,
      "quest": 1385,
      "force": 1386,
      "direc": 1387,
      "loc": 1388,
      "##lea": 1389,
      "oc": 1390,
      "tell": 1391,
      "img": 1392,
      "ormat": 1393,
      "ppear": 1394,
      "clude": 1395,
      "chool": 1396,
      "event": 1397,
      "oppo": 1398,
      "howev": 1399,
      "##pec": 1400,
      "dri": 1401,
      "##ise": 1402,
      "near": 1403,
      "same": 1404,
      "alled": 1405,
      "sur": 1406,
      "##lt": 1407,
      "mpan": 1408,
      "ning": 1409,
      "cap": 1410,
      "democ": 1411,
      "nce": 1412,
      "##ited": 1413,
      "temp": 1414,
      "case": 1415,
      "mark": 1416,
      "deci": 1417,
      "##for": 1418,
      "ldren": 1419,
      "offer": 1420,
      "lit": 1421,
      "##ta": 1422,
      "10": 1423,
      "lw": 1424,
      "ready": 1425,
      "acc": 1426,
      "##erg": 1427,
      "never": 1428,
      "ukrai": 1429,
      "cal": 1430,
      "emp": 1431,
      "exper": 1432,
      "sha": 1433,
      "##man": 1434,
      "omm": 1435,
      "##iti": 1436,
      "kill": 1437,
      "rent": 1438,
      "chie": 1439,
      "light": 1440,
      "west": 1441,
      "try": 1442,
      "power": 1443,
      "keep": 1444,
      "##ead": 1445,
      "great": 1446,
      "days": 1447,
      "inves": 1448,
      "respo": 1449,
      "ine": 1450,
      "image": 1451,
      "wal": 1452,
      "ctor": 1453,
      "lic": 1454,
      "away": 1455,
      "cour": 1456,
      "ard": 1457,
      "##ten": 1458,
      "diffe": 1459,
      "ess": 1460,
      "hal": 1461,
      "face": 1462,
      "##ild": 1463,
      "##ner": 1464,
      "court": 1465,
      "ocial": 1466,
      "mpany": 1467,
      "tment": 1468,
      "##gan": 1469,
      "ok": 1470,
      "val": 1471,
      "campa": 1472,
      "free": 1473,
      "north": 1474,
      "##av": 1475,
      "ny": 1476,
      "numb": 1477,
      "leg": 1478,
      "##fec": 1479,
      "adv": 1480,
      "exp": 1481,
      "final": 1482,
      "eli": 1483,
      "shed": 1484,
      "##eld": 1485,
      "cross": 1486,
      "##ze": 1487,
      "##vel": 1488,
      "ience": 1489,
      "self": 1490,
      "sult": 1491,
      "women": 1492,
      "##ng": 1493,
      "big": 1494,
      "ern": 1495,
      "bla": 1496,
      "stra": 1497,
      "fra": 1498,
      "five": 1499,
      "plan": 1500,
      "##ac": 1501,
      "gr": 1502,
      "bod": 1503,
      "met": 1504,
      "lu": 1505,
      "##ani": 1506,
      "ens": 1507,
      "mod": 1508,
      "giv": 1509,
      "##jor": 1510,
      "men": 1511,
      "rela": 1512,
      "post": 1513,
      "bre": 1514,
      "tter": 1515,
      "ten": 1516,
      "ously": 1517,
      "##ms": 1518,
      "ccess": 1519,
      "tting": 1520,
      "ggest": 1521,
      "build": 1522,
      "##rol": 1523,
      "love": 1524,
      "body": 1525,
      "tch": 1526,
      "seen": 1527,
      "won": 1528,
      "chang": 1529,
      "didn": 1530,
      "block": 1531,
      "used": 1532,
      "##ames": 1533,
      "late": 1534,
      "uth": 1535,
      "av": 1536,
      "spect": 1537,
      "care": 1538,
      "##ugh": 1539,
      "ago": 1540,
      "manag": 1541,
      "took": 1542,
      "sub": 1543,
      "ew": 1544,
      "fire": 1545,
      "six": 1546,
      "lways": 1547,
      "live": 1548,
      "dr": 1549,
      "stor": 1550,
      "##ush": 1551,
      "sive": 1552,
      "enter": 1553,
      "cent": 1554,
      "opera": 1555,
      "pi": 1556,
      "later": 1557,
      "bas": 1558,
      "cult": 1559,
      "ust": 1560,
      "water": 1561,
      "tory": 1562,
      "cur": 1563,
      "tical": 1564,
      "young": 1565,
      "ean": 1566,
      "eas": 1567,
      "fic": 1568,
      "liv": 1569,
      "foot": 1570,
      "llen": 1571,
      "earch": 1572,
      "##ace": 1573,
      "cket": 1574,
      "amp": 1575,
      "velop": 1576,
      "rse": 1577,
      "##oto": 1578,
      "ral": 1579,
      "commi": 1580,
      "##ash": 1581,
      "gram": 1582,
      "eg": 1583,
      "wed": 1584,
      "grow": 1585,
      "ts": 1586,
      "talk": 1587,
      "charg": 1588,
      "went": 1589,
      "field": 1590,
      "swi": 1591,
      "hard": 1592,
      "##za": 1593,
      "edia": 1594,
      "bit": 1595,
      "ture": 1596,
      "etter": 1597,
      "cost": 1598,
      "photo": 1599,
      "bra": 1600,
      "ger": 1601,
      "shi": 1602,
      "might": 1603,
      "##ee": 1604,
      "hit": 1605,
      "major": 1606,
      "yst": 1607,
      "came": 1608,
      "curr": 1609,
      "##gu": 1610,
      "relea": 1611,
      "claim": 1612,
      "ian": 1613,
      "ms": 1614,
      "##ita": 1615,
      "inf": 1616,
      "ional": 1617,
      "ide": 1618,
      "mis": 1619,
      "nited": 1620,
      "few": 1621,
      "speak": 1622,
      "black": 1623,
      "give": 1624,
      "arri": 1625,
      "tat": 1626,
      "ystem": 1627,
      "wing": 1628,
      "sid": 1629,
      "ost": 1630,
      "model": 1631,
      "half": 1632,
      "large": 1633,
      "break": 1634,
      "low": 1635,
      "milit": 1636,
      "ball": 1637,
      "##ary": 1638,
      "dro": 1639,
      "film": 1640,
      "aying": 1641,
      "##ous": 1642,
      "lac": 1643,
      "ie": 1644,
      "pec": 1645,
      "cli": 1646,
      "deal": 1647,
      "annou": 1648,
      "meet": 1649,
      "ntial": 1650,
      "hour": 1651,
      "pict": 1652,
      "##oney": 1653,
      "hy": 1654,
      "ec": 1655,
      "ight": 1656,
      "allow": 1657,
      "rket": 1658,
      "why": 1659,
      "##bu": 1660,
      "sy": 1661,
      "littl": 1662,
      "hav": 1663,
      "hold": 1664,
      "mus": 1665,
      "white": 1666,
      "##ph": 1667,
      "lin": 1668,
      "level": 1669,
      "##ff": 1670,
      "mment": 1671,
      "ecome": 1672,
      "ssion": 1673,
      "dc": 1674,
      "ount": 1675,
      "##ork": 1676,
      "sever": 1677,
      "pass": 1678,
      "rre": 1679,
      "sea": 1680,
      "ley": 1681,
      "sat": 1682,
      "local": 1683,
      "york": 1684,
      "actio": 1685,
      "fight": 1686,
      "nov": 1687,
      "##hn": 1688,
      "##gin": 1689,
      "gress": 1690,
      "uthor": 1691,
      "##eg": 1692,
      "job": 1693,
      "forma": 1694,
      "along": 1695,
      "nut": 1696,
      "oy": 1697,
      "##ton": 1698,
      "flo": 1699,
      "##ap": 1700,
      "spo": 1701,
      "##uni": 1702,
      "money": 1703,
      "ee": 1704,
      "ossib": 1705,
      "urity": 1706,
      "vol": 1707,
      "yers": 1708,
      "room": 1709,
      "##ont": 1710,
      "pictu": 1711,
      "video": 1712,
      "count": 1713,
      "##ird": 1714,
      "hange": 1715,
      "sto": 1716,
      "sider": 1717,
      "tiga": 1718,
      "posi": 1719,
      "early": 1720,
      "momen": 1721,
      "park": 1722,
      "lock": 1723,
      "known": 1724,
      "##ub": 1725,
      "lle": 1726,
      "deli": 1727,
      "##ari": 1728,
      "name": 1729,
      "death": 1730,
      "main": 1731,
      "type": 1732,
      "date": 1733,
      "close": 1734,
      "stitu": 1735,
      "rn": 1736,
      "der": 1737,
      "stop": 1738,
      "##vea": 1739,
      "ries": 1740,
      "watch": 1741,
      "ject": 1742,
      "bb": 1743,
      "dence": 1744,
      "nf": 1745,
      "impor": 1746,
      "##ular": 1747,
      "john": 1748,
      "cess": 1749,
      "busi": 1750,
      "stic": 1751,
      "sho": 1752,
      "wro": 1753,
      "ound": 1754,
      "##ger": 1755,
      "cover": 1756,
      "find": 1757,
      "arris": 1758,
      "ook": 1759,
      "wrote": 1760,
      "nta": 1761,
      "cy": 1762,
      "tribu": 1763,
      "inj": 1764,
      "revea": 1765,
      "until": 1766,
      "mal": 1767,
      "##ai": 1768,
      "##ble": 1769,
      "activ": 1770,
      "##eth": 1771,
      "fl": 1772,
      "##atu": 1773,
      "fac": 1774,
      "role": 1775,
      "ei": 1776,
      "fini": 1777,
      "dy": 1778,
      "third": 1779,
      "reg": 1780,
      "treat": 1781,
      "##pi": 1782,
      "visit": 1783,
      "omp": 1784,
      "tech": 1785,
      "pay": 1786,
      "crea": 1787,
      "past": 1788,
      "lican": 1789,
      "gi": 1790,
      "quir": 1791,
      "hed": 1792,
      "##be": 1793,
      "chief": 1794,
      "east": 1795,
      "groun": 1796,
      "eal": 1797,
      "insta": 1798,
      "repub": 1799,
      "ritic": 1800,
      "volv": 1801,
      "ire": 1802,
      "ka": 1803,
      "##ven": 1804,
      "lie": 1805,
      "lleng": 1806,
      "ran": 1807,
      "nter": 1808,
      "front": 1809,
      "goal": 1810,
      "short": 1811,
      "gett": 1812,
      "equ": 1813,
      "ally": 1814,
      "fer": 1815,
      "due": 1816,
      "ref": 1817,
      "mean": 1818,
      "eries": 1819,
      "eat": 1820,
      "yet": 1821,
      "cial": 1822,
      "min": 1823,
      "##to": 1824,
      "orted": 1825,
      "injur": 1826,
      "um": 1827,
      "spite": 1828,
      "small": 1829,
      "##enc": 1830,
      "arent": 1831,
      "sure": 1832,
      "tand": 1833,
      "ments": 1834,
      "gaza": 1835,
      "vers": 1836,
      "20": 1837,
      "fle": 1838,
      "olo": 1839,
      "oct": 1840,
      "rd": 1841,
      "unity": 1842,
      "food": 1843,
      "tro": 1844,
      "desi": 1845,
      "resi": 1846,
      "expec": 1847,
      "page": 1848,
      "tant": 1849,
      "com": 1850,
      "geth": 1851,
      "previ": 1852,
      "rease": 1853,
      "ded": 1854,
      "lla": 1855,
      "ming": 1856,
      "text": 1857,
      "iz": 1858,
      "ton": 1859,
      "layed": 1860,
      "asked": 1861,
      "ach": 1862,
      "book": 1863,
      "race": 1864,
      "##ade": 1865,
      "engla": 1866,
      "mc": 1867,
      "nced": 1868,
      "must": 1869,
      "vio": 1870,
      "sl": 1871,
      "hope": 1872,
      "scot": 1873,
      "step": 1874,
      "ven": 1875,
      "omb": 1876,
      "##ish": 1877,
      "taken": 1878,
      "rou": 1879,
      "tax": 1880,
      "opt": 1881,
      "##ald": 1882,
      "ara": 1883,
      "comes": 1884,
      "based": 1885,
      "bor": 1886,
      "viol": 1887,
      "ned": 1888,
      "stand": 1889,
      "dre": 1890,
      "doing": 1891,
      "risk": 1892,
      "om": 1893,
      "depar": 1894,
      "onald": 1895,
      "euro": 1896,
      "abi": 1897,
      "often": 1898,
      "least": 1899,
      "today": 1900,
      "fli": 1901,
      "list": 1902,
      "ip": 1903,
      "##utu": 1904,
      "key": 1905,
      "mid": 1906,
      "nch": 1907,
      "anc": 1908,
      "duce": 1909,
      "futu": 1910,
      "anti": 1911,
      "ions": 1912,
      "done": 1913,
      "mpion": 1914,
      "fur": 1915,
      "class": 1916,
      "onday": 1917,
      "bri": 1918,
      "orn": 1919,
      "nic": 1920,
      "among": 1921,
      "human": 1922,
      "ondon": 1923,
      "eleb": 1924,
      "tue": 1925,
      "guard": 1926,
      "##rea": 1927,
      "los": 1928,
      "unday": 1929,
      "jan": 1930,
      "tail": 1931,
      "ple": 1932,
      "rod": 1933,
      "struc": 1934,
      "##ful": 1935,
      "riday": 1936,
      "umm": 1937,
      "graph": 1938,
      "fla": 1939,
      "club": 1940,
      "given": 1941,
      "wheth": 1942,
      "ism": 1943,
      "chris": 1944,
      "ntrol": 1945,
      "##by": 1946,
      "walk": 1947,
      "ials": 1948,
      "mat": 1949,
      "perc": 1950,
      "pecia": 1951,
      "elebr": 1952,
      "wards": 1953,
      "rema": 1954,
      "##gy": 1955,
      "moth": 1956,
      "driv": 1957,
      "games": 1958,
      "share": 1959,
      "iv": 1960,
      "rul": 1961,
      "duct": 1962,
      "disp": 1963,
      "remai": 1964,
      "threa": 1965,
      "ack": 1966,
      "ect": 1967,
      "sso": 1968,
      "china": 1969,
      "rch": 1970,
      "##ndi": 1971,
      "fans": 1972,
      "rtner": 1973,
      "woman": 1974,
      "featu": 1975,
      "dustr": 1976,
      "ened": 1977,
      "furth": 1978,
      "enou": 1979,
      "mul": 1980,
      "ds": 1981,
      "regio": 1982,
      "##au": 1983,
      "nning": 1984,
      "effec": 1985,
      "oup": 1986,
      "child": 1987,
      "ama": 1988,
      "data": 1989,
      "##ec": 1990,
      "##vid": 1991,
      "ngle": 1992,
      "hot": 1993,
      "rence": 1994,
      "lmo": 1995,
      "ali": 1996,
      "ren": 1997,
      "ehi": 1998,
      "##lv": 1999,
      "raise": 2000,
      "andi": 2001,
      "tempt": 2002,
      "eag": 2003,
      "ices": 2004,
      "bank": 2005,
      "kind": 2006,
      "heart": 2007,
      "move": 2008,
      "ehind": 2009,
      "depen": 2010,
      "once": 2011,
      "ick": 2012,
      "signi": 2013,
      "king": 2014,
      "isla": 2015,
      "area": 2016,
      "##une": 2017,
      "dm": 2018,
      "match": 2019,
      "thur": 2020,
      "ast": 2021,
      "ling": 2022,
      "targe": 2023,
      "bar": 2024,
      "spi": 2025,
      "glo": 2026,
      "ava": 2027,
      "pote": 2028,
      "wedne": 2029,
      "uni": 2030,
      "##ided": 2031,
      "phone": 2032,
      "ci": 2033,
      "getty": 2034,
      "stay": 2035,
      "green": 2036,
      "serve": 2037,
      "def": 2038,
      "mind": 2039,
      "ouple": 2040,
      "ummer": 2041,
      "##ua": 2042,
      "nder": 2043,
      "roduc": 2044,
      "mur": 2045,
      "ner": 2046,
      "rac": 2047,
      "weeks": 2048,
      "nner": 2049,
      "term": 2050,
      "ier": 2051,
      "ngton": 2052,
      "imm": 2053,
      "shot": 2054,
      "austr": 2055,
      "doesn": 2056,
      "fel": 2057,
      "che": 2058,
      "rance": 2059,
      "prime": 2060,
      "hours": 2061,
      "ft": 2062,
      "effor": 2063,
      "tract": 2064,
      "tect": 2065,
      "space": 2066,
      "areer": 2067,
      "fess": 2068,
      "scen": 2069,
      "hos": 2070,
      "lmost": 2071,
      "ency": 2072,
      "eign": 2073,
      "runn": 2074,
      "fund": 2075,
      "ath": 2076,
      "ail": 2077,
      "trike": 2078,
      "ctual": 2079,
      "##ob": 2080,
      "evi": 2081,
      "unc": 2082,
      "wait": 2083,
      "story": 2084,
      "cor": 2085,
      "fed": 2086,
      "saw": 2087,
      "lete": 2088,
      "music": 2089,
      "rrest": 2090,
      "using": 2091,
      "bring": 2092,
      "condi": 2093,
      "hared": 2094,
      "nge": 2095,
      "board": 2096,
      "inv": 2097,
      "ourse": 2098,
      "aring": 2099,
      "stead": 2100,
      "coll": 2101,
      "lly": 2102,
      "pal": 2103,
      "deliv": 2104,
      "cular": 2105,
      "tte": 2106,
      "idea": 2107,
      "dding": 2108,
      "hospi": 2109,
      "30": 2110,
      "tou": 2111,
      "reach": 2112,
      "secu": 2113,
      "pect": 2114,
      "finan": 2115,
      "layer": 2116,
      "ugg": 2117,
      "van": 2118,
      "##uss": 2119,
      "olicy": 2120,
      "ping": 2121,
      "alleg": 2122,
      "##ult": 2123,
      "cut": 2124,
      "techn": 2125,
      "meone": 2126,
      "plain": 2127,
      "rp": 2128,
      "rison": 2129,
      "mess": 2130,
      "repre": 2131,
      "dmini": 2132,
      "earli": 2133,
      "tors": 2134,
      "lear": 2135,
      "##irm": 2136,
      "rsity": 2137,
      "satur": 2138,
      "serva": 2139,
      "nfirm": 2140,
      "deep": 2141,
      "nutes": 2142,
      "ause": 2143,
      "##ure": 2144,
      "gar": 2145,
      "stage": 2146,
      "warn": 2147,
      "draw": 2148,
      "impac": 2149,
      "medic": 2150,
      "fy": 2151,
      "trict": 2152,
      "kid": 2153,
      "june": 2154,
      "inci": 2155,
      "ident": 2156,
      "rri": 2157,
      "held": 2158,
      "ori": 2159,
      "jour": 2160,
      "eye": 2161,
      "vote": 2162,
      "tire": 2163,
      "desc": 2164,
      "12": 2165,
      "##ns": 2166,
      "isa": 2167,
      "dot": 2168,
      "sty": 2169,
      "shop": 2170,
      "exc": 2171,
      "oil": 2172,
      "spoke": 2173,
      "lea": 2174,
      "price": 2175,
      "journ": 2176,
      "fully": 2177,
      "ye": 2178,
      "fact": 2179,
      "impro": 2180,
      "spot": 2181,
      "legal": 2182,
      "staff": 2183,
      "ught": 2184,
      "tv": 2185,
      "ene": 2186,
      "suit": 2187,
      "##eti": 2188,
      "seven": 2189,
      "gir": 2190,
      "nding": 2191,
      "tted": 2192,
      "nes": 2193,
      "word": 2194,
      "seem": 2195,
      "ourt": 2196,
      "oo": 2197,
      "atch": 2198,
      "##ara": 2199,
      "ari": 2200,
      "15": 2201,
      "tow": 2202,
      "spend": 2203,
      "ahead": 2204,
      "ped": 2205,
      "july": 2206,
      "girl": 2207,
      "died": 2208,
      "hing": 2209,
      "oter": 2210,
      "quick": 2211,
      "trip": 2212,
      "energ": 2213,
      "rtuni": 2214,
      "octob": 2215,
      "gla": 2216,
      "##ecu": 2217,
      "pain": 2218,
      "ustom": 2219,
      "grant": 2220,
      "oters": 2221,
      "felt": 2222,
      "sept": 2223,
      "defen": 2224,
      "ise": 2225,
      "lost": 2226,
      "ome": 2227,
      "ource": 2228,
      "frica": 2229,
      "bill": 2230,
      "oly": 2231,
      "wide": 2232,
      "enj": 2233,
      "briti": 2234,
      "prem": 2235,
      "ical": 2236,
      "eague": 2237,
      "arli": 2238,
      "road": 2239,
      "ski": 2240,
      "ensu": 2241,
      "cultu": 2242,
      "eight": 2243,
      "nv": 2244,
      "sal": 2245,
      "trong": 2246,
      "ber": 2247,
      "march": 2248,
      "fall": 2249,
      "ssoci": 2250,
      "ale": 2251,
      "disc": 2252,
      "##ept": 2253,
      "cru": 2254,
      "host": 2255,
      "mand": 2256,
      "uncil": 2257,
      "joe": 2258,
      "esta": 2259,
      "emerg": 2260,
      "ike": 2261,
      "##ril": 2262,
      "bad": 2263,
      "ls": 2264,
      "stice": 2265,
      "##cti": 2266,
      "ales": 2267,
      "enn": 2268,
      "##ims": 2269,
      "ake": 2270,
      "##dy": 2271,
      "lov": 2272,
      "learn": 2273,
      "means": 2274,
      "rning": 2275,
      "entra": 2276,
      "germa": 2277,
      "ib": 2278,
      "mount": 2279,
      "dead": 2280,
      "ric": 2281,
      "ering": 2282,
      "odi": 2283,
      "ility": 2284,
      "priva": 2285,
      "lieve": 2286,
      "pales": 2287,
      "que": 2288,
      "sand": 2289,
      "wife": 2290,
      "door": 2291,
      "janua": 2292,
      "tot": 2293,
      "oach": 2294,
      "oint": 2295,
      "eca": 2296,
      "avail": 2297,
      "fal": 2298,
      "april": 2299,
      "fath": 2300,
      "multi": 2301,
      "trial": 2302,
      "##org": 2303,
      "hip": 2304,
      "ash": 2305,
      "worth": 2306,
      "bed": 2307,
      "mre": 2308,
      "ones": 2309,
      "##led": 2310,
      "ont": 2311,
      "ump": 2312,
      "thi": 2313,
      "enefi": 2314,
      "mate": 2315,
      "sun": 2316,
      "abour": 2317,
      "fied": 2318,
      "sonal": 2319,
      "rim": 2320,
      "treet": 2321,
      "pagee": 2322,
      "dotco": 2323,
      "mrend": 2324,
      "ross": 2325,
      "rain": 2326,
      "georg": 2327,
      "arter": 2328,
      "ease": 2329,
      "del": 2330,
      "total": 2331,
      "eiv": 2332,
      "entre": 2333,
      "shows": 2334,
      "jud": 2335,
      "eth": 2336,
      "lco": 2337,
      "town": 2338,
      "figu": 2339,
      "nse": 2340,
      "ext": 2341,
      "nian": 2342,
      "began": 2343,
      "daugh": 2344,
      "push": 2345,
      "arriv": 2346,
      "europ": 2347,
      "ste": 2348,
      "vest": 2349,
      "##oy": 2350,
      "kno": 2351,
      "wood": 2352,
      "50": 2353,
      "ports": 2354,
      "wasn": 2355,
      "ttend": 2356,
      "..": 2357,
      "non": 2358,
      "mina": 2359,
      "##red": 2360,
      "ecame": 2361,
      "organ": 2362,
      "nnect": 2363,
      "pur": 2364,
      "era": 2365,
      "tori": 2366,
      "eni": 2367,
      "...": 2368,
      "safe": 2369,
      "messa": 2370,
      "pt": 2371,
      "unive": 2372,
      "lives": 2373,
      "dents": 2374,
      "san": 2375,
      "execu": 2376,
      "ratic": 2377,
      "nec": 2378,
      "natu": 2379,
      "yment": 2380,
      "gun": 2381,
      "ons": 2382,
      "ret": 2383,
      "pand": 2384,
      "audi": 2385,
      "box": 2386,
      "ubli": 2387,
      "explo": 2388,
      "lk": 2389,
      "mic": 2390,
      "super": 2391,
      "cup": 2392,
      "ially": 2393,
      "eb": 2394,
      "begin": 2395,
      "leav": 2396,
      "dru": 2397,
      "lim": 2398,
      "makes": 2399,
      "footb": 2400,
      "eliev": 2401,
      "plans": 2402,
      "ision": 2403,
      "ntid": 2404,
      "track": 2405,
      "eleme": 2406,
      "elf": 2407,
      "sch": 2408,
      "addre": 2409,
      "owner": 2410,
      "ample": 2411,
      "globa": 2412,
      "false": 2413,
      "cade": 2414,
      "ressu": 2415,
      "locke": 2416,
      "vari": 2417,
      "tit": 2418,
      "##get": 2419,
      "eived": 2420,
      "squ": 2421,
      "mpeti": 2422,
      "scotl": 2423,
      "cas": 2424,
      "roach": 2425,
      "lica": 2426,
      "milar": 2427,
      "rate": 2428,
      "rr": 2429,
      "situ": 2430,
      "washi": 2431,
      "needs": 2432,
      "ors": 2433,
      "scuss": 2434,
      "ition": 2435,
      "press": 2436,
      "ccuse": 2437,
      "scene": 2438,
      "situa": 2439,
      "rise": 2440,
      "ncer": 2441,
      "nomic": 2442,
      "qui": 2443,
      "neg": 2444,
      "ised": 2445,
      "heat": 2446,
      "writ": 2447,
      "edly": 2448,
      "##ety": 2449,
      "ko": 2450,
      "ffer": 2451,
      "diffi": 2452,
      "bj": 2453,
      "ban": 2454,
      "verag": 2455,
      "##sh": 2456,
      "apita": 2457,
      "true": 2458,
      "versa": 2459,
      "cast": 2460,
      "cra": 2461,
      "seri": 2462,
      "ffic": 2463,
      "hamas": 2464,
      "afety": 2465,
      "pen": 2466,
      "espec": 2467,
      "ily": 2468,
      "##ml": 2469,
      "store": 2470,
      "olymp": 2471,
      "cip": 2472,
      "link": 2473,
      "tent": 2474,
      "tely": 2475,
      "arm": 2476,
      "feder": 2477,
      "atter": 2478,
      "ingly": 2479,
      "title": 2480,
      "erio": 2481,
      "agenc": 2482,
      "check": 2483,
      "##act": 2484,
      "soon": 2485,
      "lid": 2486,
      "buy": 2487,
      "rest": 2488,
      "disa": 2489,
      "cing": 2490,
      "html": 2491,
      "ounty": 2492,
      "fre": 2493,
      "tten": 2494,
      "brand": 2495,
      "leave": 2496,
      "mains": 2497,
      "eriod": 2498,
      "racti": 2499,
      "enjoy": 2500,
      "else": 2501,
      "rupt": 2502,
      "sle": 2503,
      "fore": 2504,
      "sell": 2505,
      "huge": 2506,
      "ars": 2507,
      "ray": 2508,
      "rrow": 2509,
      "##let": 2510,
      "tates": 2511,
      "ert": 2512,
      "ctim": 2513,
      "11": 2514,
      "anies": 2515,
      "cali": 2516,
      "ugust": 2517,
      "tes": 2518,
      "fast": 2519,
      "##sio": 2520,
      "dev": 2521,
      "inten": 2522,
      "neede": 2523,
      "rib": 2524,
      "ssing": 2525,
      "dama": 2526,
      "civ": 2527,
      "ood": 2528,
      "dit": 2529,
      "pular": 2530,
      "agree": 2531,
      "pm": 2532,
      "calif": 2533,
      "eith": 2534,
      "maker": 2535,
      "site": 2536,
      "heav": 2537,
      "diate": 2538,
      "nent": 2539,
      "imme": 2540,
      "creat": 2541,
      "lth": 2542,
      "pack": 2543,
      "optio": 2544,
      "lain": 2545,
      "speci": 2546,
      "nomy": 2547,
      "fine": 2548,
      "nyone": 2549,
      "ez": 2550,
      "cot": 2551,
      "ating": 2552,
      "ani": 2553,
      "docu": 2554,
      "dates": 2555,
      "iled": 2556,
      "crime": 2557,
      "gain": 2558,
      "minal": 2559,
      "cter": 2560,
      "repar": 2561,
      "##form": 2562,
      "dv": 2563,
      "tinia": 2564,
      "value": 2565,
      "meas": 2566,
      "quite": 2567,
      "sli": 2568,
      "##ef": 2569,
      "##gni": 2570,
      "nsib": 2571,
      "reaso": 2572,
      "ncern": 2573,
      "feb": 2574,
      "ead": 2575,
      "bel": 2576,
      "gold": 2577,
      "whole": 2578,
      "ways": 2579,
      "lue": 2580,
      "ory": 2581,
      "firm": 2582,
      "damag": 2583,
      "den": 2584,
      "chara": 2585,
      "oast": 2586,
      "cce": 2587,
      "rath": 2588,
      "rank": 2589,
      "nda": 2590,
      "ommon": 2591,
      "shoot": 2592,
      "tress": 2593,
      "lthou": 2594,
      "secre": 2595,
      "drug": 2596,
      "ere": 2597,
      "fen": 2598,
      "fence": 2599,
      "reat": 2600,
      "affec": 2601,
      "ccept": 2602,
      "oss": 2603,
      "tform": 2604,
      "ig": 2605,
      "oin": 2606,
      "encou": 2607,
      "eer": 2608,
      "ull": 2609,
      "pos": 2610,
      "civil": 2611,
      "gani": 2612,
      "ony": 2613,
      "tm": 2614,
      "uro": 2615,
      "measu": 2616,
      "ganiz": 2617,
      "oppos": 2618,
      "ornia": 2619,
      "25": 2620,
      "loss": 2621,
      "laims": 2622,
      "ado": 2623,
      "ould": 2624,
      "cipa": 2625,
      "howed": 2626,
      "len": 2627,
      "seek": 2628,
      "spl": 2629,
      "bat": 2630,
      "stant": 2631,
      "aid": 2632,
      "ety": 2633,
      "18": 2634,
      "ins": 2635,
      "mum": 2636,
      "##ney": 2637,
      "dou": 2638,
      "rown": 2639,
      "anal": 2640,
      "nam": 2641,
      "bbc": 2642,
      "sba": 2643,
      "tn": 2644,
      "hood": 2645,
      "isn": 2646,
      "rself": 2647,
      "idual": 2648,
      "abili": 2649,
      "harm": 2650,
      "tary": 2651,
      "usual": 2652,
      "bus": 2653,
      "gri": 2654,
      "env": 2655,
      "range": 2656,
      "fear": 2657,
      "lar": 2658,
      "wn": 2659,
      "educ": 2660,
      "ative": 2661,
      "bate": 2662,
      "lower": 2663,
      "ita": 2664,
      "suc": 2665,
      "confi": 2666,
      "ssa": 2667,
      "enior": 2668,
      "thr": 2669,
      "pply": 2670,
      "erc": 2671,
      "ics": 2672,
      "lliam": 2673,
      "dom": 2674,
      "hance": 2675,
      "sband": 2676,
      "ppe": 2677,
      "score": 2678,
      "remo": 2679,
      "sav": 2680,
      "terri": 2681,
      "blem": 2682,
      "beau": 2683,
      "nsw": 2684,
      "male": 2685,
      "amb": 2686,
      "pie": 2687,
      "path": 2688,
      "wrong": 2689,
      "ford": 2690,
      "equi": 2691,
      "teg": 2692,
      "indiv": 2693,
      "sex": 2694,
      "lett": 2695,
      "pit": 2696,
      "ctory": 2697,
      "scor": 2698,
      "pub": 2699,
      "##hic": 2700,
      "ery": 2701,
      "david": 2702,
      "bur": 2703,
      "sla": 2704,
      "poll": 2705,
      "roll": 2706,
      "fill": 2707,
      "ompar": 2708,
      "gular": 2709,
      "venue": 2710,
      "##ori": 2711,
      "sults": 2712,
      "les": 2713,
      "pick": 2714,
      "murd": 2715,
      "hen": 2716,
      "fair": 2717,
      "gave": 2718,
      "refu": 2719,
      "ancer": 2720,
      "rl": 2721,
      "prev": 2722,
      "bab": 2723,
      "dic": 2724,
      "tient": 2725,
      "40": 2726,
      "udget": 2727,
      "beat": 2728,
      "paris": 2729,
      "happy": 2730,
      "ribed": 2731,
      "sis": 2732,
      "13": 2733,
      "infla": 2734,
      "yer": 2735,
      "tom": 2736,
      "exist": 2737,
      "admi": 2738,
      "##ka": 2739,
      "rel": 2740,
      "stat": 2741,
      "sold": 2742,
      "ndu": 2743,
      "areas": 2744,
      "ollec": 2745,
      "laced": 2746,
      "splay": 2747,
      "sist": 2748,
      "div": 2749,
      "regi": 2750,
      "ening": 2751,
      "engag": 2752,
      "tance": 2753,
      "sky": 2754,
      "textb": 2755,
      "whose": 2756,
      "ester": 2757,
      "boy": 2758,
      "sense": 2759,
      "ney": 2760,
      "llow": 2761,
      "rv": 2762,
      "creen": 2763,
      "bs": 2764,
      "ogni": 2765,
      "heard": 2766,
      "remov": 2767,
      "origi": 2768,
      "ax": 2769,
      "phil": 2770,
      "doub": 2771,
      "vehic": 2772,
      "offen": 2773,
      "##cus": 2774,
      "ock": 2775,
      "ata": 2776,
      "legi": 2777,
      "spent": 2778,
      "pee": 2779,
      "extra": 2780,
      "via": 2781,
      "flic": 2782,
      "ane": 2783,
      "az": 2784,
      "fense": 2785,
      "nduct": 2786,
      "pris": 2787,
      "xi": 2788,
      "prov": 2789,
      "earn": 2790,
      "ridge": 2791,
      "flict": 2792,
      "unch": 2793,
      "actor": 2794,
      "nomin": 2795,
      "rench": 2796,
      "paid": 2797,
      "liday": 2798,
      "lan": 2799,
      "dio": 2800,
      "dcast": 2801,
      "uck": 2802,
      "zz": 2803,
      "paper": 2804,
      "ore": 2805,
      "logi": 2806,
      "thank": 2807,
      "bably": 2808,
      "owl": 2809,
      "ula": 2810,
      "pool": 2811,
      "ppeal": 2812,
      "dium": 2813,
      "arlia": 2814,
      "judge": 2815,
      "16": 2816,
      "cou": 2817,
      "uring": 2818,
      "educa": 2819,
      "plo": 2820,
      "cons": 2821,
      "kids": 2822,
      "14": 2823,
      "base": 2824,
      "peech": 2825,
      "fect": 2826,
      "clean": 2827,
      "grand": 2828,
      "nally": 2829,
      "costs": 2830,
      "deb": 2831,
      "hys": 2832,
      "cases": 2833,
      "llege": 2834,
      "arg": 2835,
      "join": 2836,
      "bir": 2837,
      "okes": 2838,
      "avo": 2839,
      "gone": 2840,
      "gula": 2841,
      "ology": 2842,
      "rices": 2843,
      "eed": 2844,
      "focus": 2845,
      "chiev": 2846,
      "##inc": 2847,
      "exual": 2848,
      "cerns": 2849,
      "lays": 2850,
      "ira": 2851,
      "appro": 2852,
      "ov": 2853,
      "hoice": 2854,
      "##ah": 2855,
      "alia": 2856,
      "##ew": 2857,
      "ark": 2858,
      "rats": 2859,
      "telli": 2860,
      "tness": 2861,
      "james": 2862,
      "anger": 2863,
      "ably": 2864,
      "ttee": 2865,
      "easy": 2866,
      "erous": 2867,
      "yn": 2868,
      "tried": 2869,
      "squa": 2870,
      "tatio": 2871,
      "febru": 2872,
      "ital": 2873,
      "para": 2874,
      "prise": 2875,
      "gro": 2876,
      "hr": 2877,
      "ish": 2878,
      "tric": 2879,
      "refer": 2880,
      "onsum": 2881,
      "influ": 2882,
      "urope": 2883,
      "ept": 2884,
      "shire": 2885,
      "colla": 2886,
      "##unc": 2887,
      "nnel": 2888,
      "envir": 2889,
      "ili": 2890,
      "iran": 2891,
      "onmen": 2892,
      "occ": 2893,
      "trust": 2894,
      "clima": 2895,
      "sands": 2896,
      "git": 2897,
      "ther": 2898,
      "ona": 2899,
      "onfe": 2900,
      "tex": 2901,
      "dog": 2902,
      "gree": 2903,
      "nine": 2904,
      "ual": 2905,
      "assi": 2906,
      "lab": 2907,
      "locat": 2908,
      "nst": 2909,
      "sti": 2910,
      "immi": 2911,
      "ining": 2912,
      "study": 2913,
      "birth": 2914,
      "chair": 2915,
      "analy": 2916,
      "ja": 2917,
      "tmas": 2918,
      "jack": 2919,
      "ought": 2920,
      "crow": 2921,
      "size": 2922,
      "nct": 2923,
      "lling": 2924,
      "stock": 2925,
      "mse": 2926,
      "uggl": 2927,
      "mf": 2928,
      "ental": 2929,
      "takes": 2930,
      "table": 2931,
      "nswer": 2932,
      "avoid": 2933,
      "send": 2934,
      "shock": 2935,
      "rant": 2936,
      "lack": 2937,
      "rag": 2938,
      "knew": 2939,
      "risis": 2940,
      "dia": 2941,
      "esca": 2942,
      "neigh": 2943,
      "cir": 2944,
      "mine": 2945,
      "wants": 2946,
      "hear": 2947,
      "termi": 2948,
      "volu": 2949,
      "stori": 2950,
      "ritai": 2951,
      "epi": 2952,
      "ami": 2953,
      "movie": 2954,
      "gent": 2955,
      "crowd": 2956,
      "hysic": 2957,
      "fford": 2958,
      "mselv": 2959,
      "mfort": 2960,
      "rney": 2961,
      "umb": 2962,
      "qua": 2963,
      "pair": 2964,
      "creas": 2965,
      "torm": 2966,
      "ken": 2967,
      "sport": 2968,
      "launc": 2969,
      "rimar": 2970,
      "sort": 2971,
      "peace": 2972,
      "olly": 2973,
      "touch": 2974,
      "loved": 2975,
      "rite": 2976,
      "##ars": 2977,
      "excit": 2978,
      "ditio": 2979,
      "ride": 2980,
      "abo": 2981,
      "rian": 2982,
      "ferr": 2983,
      "lent": 2984,
      "ina": 2985,
      "addi": 2986,
      "ps": 2987,
      "tics": 2988,
      "cided": 2989,
      "esse": 2990,
      "rush": 2991,
      "wea": 2992,
      "##ilt": 2993,
      "tour": 2994,
      "fav": 2995,
      "chael": 2996,
      "ain": 2997,
      "ator": 2998,
      "solu": 2999,
      "ndard": 3000,
      "pull": 3001,
      "nel": 3002,
      "cans": 3003,
      "drink": 3004,
      "lash": 3005,
      "##cl": 3006,
      "moved": 3007,
      "kick": 3008,
      "lish": 3009,
      "paul": 3010,
      "battl": 3011,
      "ese": 3012,
      "erry": 3013,
      "osted": 3014,
      "weapo": 3015,
      "terms": 3016,
      "plant": 3017,
      "settl": 3018,
      "sse": 3019,
      "ater": 3020,
      "pread": 3021,
      "ndred": 3022,
      "teen": 3023,
      "prior": 3024,
      "easi": 3025,
      "ema": 3026,
      "fan": 3027,
      "itial": 3028,
      "ntact": 3029,
      "estab": 3030,
      "named": 3031,
      "geria": 3032,
      "aj": 3033,
      "smith": 3034,
      "istan": 3035,
      "homes": 3036,
      "ntent": 3037,
      "stain": 3038,
      "annot": 3039,
      "occu": 3040,
      "ya": 3041,
      "hop": 3042,
      "menta": 3043,
      "tream": 3044,
      "ssess": 3045,
      "gned": 3046,
      "aware": 3047,
      "slow": 3048,
      "bst": 3049,
      "ura": 3050,
      "hair": 3051,
      "ans": 3052,
      "24": 3053,
      "eil": 3054,
      "emplo": 3055,
      "17": 3056,
      "throw": 3057,
      "bag": 3058,
      "erg": 3059,
      "ttle": 3060,
      "dden": 3061,
      "nk": 3062,
      "pper": 3063,
      "carry": 3064,
      "relat": 3065,
      "aint": 3066,
      "dam": 3067,
      "ized": 3068,
      "ians": 3069,
      "sci": 3070,
      "rew": 3071,
      "quo": 3072,
      "ades": 3073,
      "sions": 3074,
      "voice": 3075,
      "##tai": 3076,
      "yd": 3077,
      "treme": 3078,
      "teach": 3079,
      "mmuni": 3080,
      "ontr": 3081,
      "stanc": 3082,
      "lines": 3083,
      "hedul": 3084,
      "ana": 3085,
      "lip": 3086,
      "focu": 3087,
      "rg": 3088,
      "estim": 3089,
      "terna": 3090,
      "zen": 3091,
      "##ula": 3092,
      "spir": 3093,
      "posed": 3094,
      "row": 3095,
      "wled": 3096,
      "ston": 3097,
      "promi": 3098,
      "skin": 3099,
      "nese": 3100,
      "looks": 3101,
      "aily": 3102,
      "miss": 3103,
      "rules": 3104,
      "wledg": 3105,
      "perty": 3106,
      "teams": 3107,
      "mit": 3108,
      "ature": 3109,
      "fox": 3110,
      "teria": 3111,
      "award": 3112,
      "rates": 3113,
      "dvanc": 3114,
      "ober": 3115,
      "ool": 3116,
      "##ts": 3117,
      "poor": 3118,
      "ile": 3119,
      "igned": 3120,
      "ior": 3121,
      "clar": 3122,
      "kh": 3123,
      "ky": 3124,
      "senta": 3125,
      "epara": 3126,
      "drive": 3127,
      "sleep": 3128,
      "dar": 3129,
      "ku": 3130,
      "gital": 3131,
      "rote": 3132,
      "ttent": 3133,
      "ector": 3134,
      "oke": 3135,
      "seat": 3136,
      "ole": 3137,
      "pet": 3138,
      "goes": 3139,
      "intro": 3140,
      "intai": 3141,
      "oon": 3142,
      "rad": 3143,
      "manch": 3144,
      "nings": 3145,
      "dal": 3146,
      "signa": 3147,
      "va": 3148,
      "tab": 3149,
      "wall": 3150,
      "yal": 3151,
      "arra": 3152,
      "inly": 3153,
      "redi": 3154,
      "hose": 3155,
      "##hav": 3156,
      "ducts": 3157,
      "gard": 3158,
      "amera": 3159,
      "views": 3160,
      "vided": 3161,
      "leag": 3162,
      "##cov": 3163,
      "trade": 3164,
      "ouldn": 3165,
      "ace": 3166,
      "llar": 3167,
      "ype": 3168,
      "ason": 3169,
      "ada": 3170,
      "nned": 3171,
      "bso": 3172,
      "born": 3173,
      "rich": 3174,
      "broth": 3175,
      "eeing": 3176,
      "charl": 3177,
      "rotec": 3178,
      "bsolu": 3179,
      "ega": 3180,
      "raz": 3181,
      "irela": 3182,
      "pitch": 3183,
      "##ya": 3184,
      "drop": 3185,
      "styl": 3186,
      "##com": 3187,
      "built": 3188,
      "ounda": 3189,
      "jap": 3190,
      "unit": 3191,
      "nging": 3192,
      "issed": 3193,
      "japan": 3194,
      "##ret": 3195,
      "exten": 3196,
      "ecret": 3197,
      "ealth": 3198,
      "fresh": 3199,
      "cotti": 3200,
      "hands": 3201,
      "ffa": 3202,
      "drama": 3203,
      "ich": 3204,
      "mart": 3205,
      "ream": 3206,
      "amid": 3207,
      "scar": 3208,
      "cale": 3209,
      "ctors": 3210,
      "rb": 3211,
      "ade": 3212,
      "ended": 3213,
      "broad": 3214,
      "leagu": 3215,
      "ys": 3216,
      "defe": 3217,
      "train": 3218,
      "runs": 3219,
      "spr": 3220,
      "ssful": 3221,
      "andr": 3222,
      "cana": 3223,
      "email": 3224,
      "tz": 3225,
      "edi": 3226,
      "ala": 3227,
      "ifi": 3228,
      "embl": 3229,
      "lcome": 3230,
      "gan": 3231,
      "kore": 3232,
      "alm": 3233,
      "##que": 3234,
      "haps": 3235,
      "roper": 3236,
      "riv": 3237,
      "stake": 3238,
      "ords": 3239,
      "succe": 3240,
      "okesp": 3241,
      "korea": 3242,
      "yard": 3243,
      "ero": 3244,
      "nvict": 3245,
      "io": 3246,
      "ola": 3247,
      "sia": 3248,
      "loy": 3249,
      "kt": 3250,
      "cky": 3251,
      "norma": 3252,
      "hotel": 3253,
      "craft": 3254,
      "spec": 3255,
      "limit": 3256,
      "nger": 3257,
      "alex": 3258,
      "alone": 3259,
      "tests": 3260,
      "llage": 3261,
      "aus": 3262,
      "fru": 3263,
      "col": 3264,
      "ength": 3265,
      "behav": 3266,
      "retty": 3267,
      "lose": 3268,
      "shift": 3269,
      "above": 3270,
      "ghout": 3271,
      "opula": 3272,
      "ommit": 3273,
      "lf": 3274,
      "ange": 3275,
      "wei": 3276,
      "rviv": 3277,
      "defea": 3278,
      "stry": 3279,
      "cry": 3280,
      "ler": 3281,
      "arb": 3282,
      "rof": 3283,
      "gets": 3284,
      "blood": 3285,
      "card": 3286,
      "blems": 3287,
      "ached": 3288,
      "scr": 3289,
      "nest": 3290,
      "words": 3291,
      "uts": 3292,
      "bsite": 3293,
      "save": 3294,
      "imply": 3295,
      "nnual": 3296,
      "texas": 3297,
      "loyee": 3298,
      "wear": 3299,
      "gue": 3300,
      "ora": 3301,
      "ounts": 3302,
      "yo": 3303,
      "reli": 3304,
      "ang": 3305,
      "dream": 3306,
      "phi": 3307,
      "illeg": 3308,
      "sit": 3309,
      "rai": 3310,
      "rden": 3311,
      "sight": 3312,
      "weath": 3313,
      "sens": 3314,
      "bort": 3315,
      "plea": 3316,
      "ising": 3317,
      "fell": 3318,
      "publi": 3319,
      "parts": 3320,
      "mala": 3321,
      "tails": 3322,
      "thlet": 3323,
      "sequ": 3324,
      "nap": 3325,
      "rsen": 3326,
      "obert": 3327,
      "tough": 3328,
      "ific": 3329,
      "mbl": 3330,
      "urg": 3331,
      "dest": 3332,
      "dani": 3333,
      "mad": 3334,
      "fuel": 3335,
      "tives": 3336,
      "tele": 3337,
      "versi": 3338,
      "ddle": 3339,
      "noted": 3340,
      "ope": 3341,
      "centu": 3342,
      "flori": 3343,
      "ified": 3344,
      "ktok": 3345,
      "aight": 3346,
      "zone": 3347,
      "calls": 3348,
      "oined": 3349,
      "dult": 3350,
      "las": 3351,
      "rtist": 3352,
      "seems": 3353,
      "ave": 3354,
      "lt": 3355,
      "cked": 3356,
      "sca": 3357,
      "mmy": 3358,
      "arrie": 3359,
      "lus": 3360,
      "tone": 3361,
      "eyo": 3362,
      "spond": 3363,
      "dad": 3364,
      "nion": 3365,
      "sault": 3366,
      "ots": 3367,
      "putin": 3368,
      "eyond": 3369,
      "gas": 3370,
      "ose": 3371,
      "sound": 3372,
      "pple": 3373,
      "urant": 3374,
      "goals": 3375,
      "oost": 3376,
      "preme": 3377,
      "ecu": 3378,
      "rve": 3379,
      "rgin": 3380,
      "olor": 3381,
      "ique": 3382,
      "tera": 3383,
      "inger": 3384,
      "anon": 3385,
      "wild": 3386,
      "losed": 3387,
      "kept": 3388,
      "erti": 3389,
      "imag": 3390,
      "vet": 3391,
      "thu": 3392,
      "tto": 3393,
      "cash": 3394,
      "tiful": 3395,
      "sses": 3396,
      "enger": 3397,
      "medi": 3398,
      "gic": 3399,
      "tly": 3400,
      "famou": 3401,
      "harry": 3402,
      "log": 3403,
      "baby": 3404,
      "dropp": 3405,
      "fun": 3406,
      "bet": 3407,
      "perts": 3408,
      "ove": 3409,
      "rare": 3410,
      "propo": 3411,
      "ngele": 3412,
      "citi": 3413,
      "ank": 3414,
      "semi": 3415,
      "provi": 3416,
      "rob": 3417,
      "citiz": 3418,
      "cept": 3419,
      "eem": 3420,
      "ode": 3421,
      "rock": 3422,
      "syl": 3423,
      "lat": 3424,
      "##mor": 3425,
      "agg": 3426,
      "jobs": 3427,
      "whe": 3428,
      "ets": 3429,
      "aylo": 3430,
      "obvi": 3431,
      "rvey": 3432,
      "21": 3433,
      "nth": 3434,
      "oot": 3435,
      "alanc": 3436,
      "lift": 3437,
      "argu": 3438,
      "argue": 3439,
      "22": 3440,
      "nh": 3441,
      "nica": 3442,
      "exact": 3443,
      "expen": 3444,
      "cious": 3445,
      "sam": 3446,
      "bili": 3447,
      "aning": 3448,
      "exic": 3449,
      "users": 3450,
      "floo": 3451,
      "bt": 3452,
      "greed": 3453,
      "essio": 3454,
      "ayo": 3455,
      "ird": 3456,
      "aused": 3457,
      "rash": 3458,
      "arc": 3459,
      "sett": 3460,
      "artin": 3461,
      "ik": 3462,
      "conc": 3463,
      "rom": 3464,
      "uper": 3465,
      "eive": 3466,
      "union": 3467,
      "pop": 3468,
      "warm": 3469,
      "matt": 3470,
      "pande": 3471,
      "nia": 3472,
      "ze": 3473,
      "shion": 3474,
      "memor": 3475,
      "ith": 3476,
      "ried": 3477,
      "dress": 3478,
      "vic": 3479,
      "ssive": 3480,
      "oyal": 3481,
      "piece": 3482,
      "df": 3483,
      "resta": 3484,
      "commu": 3485,
      "indi": 3486,
      "lace": 3487,
      "tha": 3488,
      "band": 3489,
      "nsist": 3490,
      "omen": 3491,
      "rity": 3492,
      "sod": 3493,
      "mise": 3494,
      "rince": 3495,
      "amin": 3496,
      "100": 3497,
      "missi": 3498,
      "gence": 3499,
      "enate": 3500,
      "ntest": 3501,
      "disco": 3502,
      "sets": 3503,
      "flect": 3504,
      "aren": 3505,
      "urch": 3506,
      "ngu": 3507,
      "ife": 3508,
      "trou": 3509,
      "rofit": 3510,
      "fly": 3511,
      "pace": 3512,
      "ppo": 3513,
      "ower": 3514,
      "assed": 3515,
      "mited": 3516,
      "oh": 3517,
      "mach": 3518,
      "laugh": 3519,
      "ben": 3520,
      "een": 3521,
      "ech": 3522,
      "##ces": 3523,
      "urge": 3524,
      "pic": 3525,
      "stiv": 3526,
      "lam": 3527,
      "ees": 3528,
      "predi": 3529,
      "mony": 3530,
      "idd": 3531,
      "tick": 3532,
      "60": 3533,
      "##gr": 3534,
      "tend": 3535,
      "outh": 3536,
      "oti": 3537,
      "duc": 3538,
      "ills": 3539,
      "atri": 3540,
      "eats": 3541,
      "yan": 3542,
      "zon": 3543,
      "pose": 3544,
      "ages": 3545,
      "ngli": 3546,
      "ordin": 3547,
      "aim": 3548,
      "lad": 3549,
      "uct": 3550,
      "19": 3551,
      "ree": 3552,
      "geo": 3553,
      "ually": 3554,
      "rack": 3555,
      "mcc": 3556,
      "ipl": 3557,
      "rry": 3558,
      "meant": 3559,
      "ists": 3560,
      "plann": 3561,
      "equa": 3562,
      "twi": 3563,
      "ommen": 3564,
      "faced": 3565,
      "cies": 3566,
      "emi": 3567,
      "rap": 3568,
      "facil": 3569,
      "ombin": 3570,
      "fying": 3571,
      "pin": 3572,
      "ure": 3573,
      "ister": 3574,
      "artic": 3575,
      "pse": 3576,
      "ndow": 3577,
      "typ": 3578,
      "urna": 3579,
      "esses": 3580,
      "song": 3581,
      "etic": 3582,
      "handl": 3583,
      "mos": 3584,
      "sale": 3585,
      "oat": 3586,
      "oes": 3587,
      "oft": 3588,
      "dark": 3589,
      "eta": 3590,
      "rmy": 3591,
      "atto": 3592,
      "##ott": 3593,
      "alist": 3594,
      "gua": 3595,
      "touri": 3596,
      "dg": 3597,
      "wer": 3598,
      "tches": 3599,
      "nstra": 3600,
      "--": 3601,
      "mor": 3602,
      "rely": 3603,
      "advis": 3604,
      "iance": 3605,
      "mich": 3606,
      "lied": 3607,
      "llah": 3608,
      "asio": 3609,
      "ift": 3610,
      "sn": 3611,
      "lding": 3612,
      "irs": 3613,
      "llega": 3614,
      "rried": 3615,
      "eptio": 3616,
      "arol": 3617,
      "ium": 3618,
      "die": 3619,
      "nti": 3620,
      "ively": 3621,
      "dow": 3622,
      "nb": 3623,
      "goo": 3624,
      "valu": 3625,
      "dang": 3626,
      "fica": 3627,
      "gs": 3628,
      "lb": 3629,
      "dor": 3630,
      "lec": 3631,
      "nds": 3632,
      "nna": 3633,
      "tars": 3634,
      "item": 3635,
      "ction": 3636,
      "busin": 3637,
      "eld": 3638,
      "itt": 3639,
      "ico": 3640,
      "abuse": 3641,
      "onto": 3642,
      "nts": 3643,
      "pped": 3644,
      "utter": 3645,
      "bora": 3646,
      "vita": 3647,
      "shing": 3648,
      "riz": 3649,
      "guil": 3650,
      "aught": 3651,
      "rcha": 3652,
      "torie": 3653,
      "otion": 3654,
      "rner": 3655,
      "ander": 3656,
      "ghan": 3657,
      "hole": 3658,
      "stric": 3659,
      "mt": 3660,
      "sten": 3661,
      "sente": 3662,
      "cell": 3663,
      "laces": 3664,
      "dern": 3665,
      "hat": 3666,
      "nty": 3667,
      "bject": 3668,
      "bio": 3669,
      "ww": 3670,
      "dance": 3671,
      "hall": 3672,
      "enne": 3673,
      "##lie": 3674,
      "bum": 3675,
      "addit": 3676,
      "rule": 3677,
      "cue": 3678,
      "jec": 3679,
      "ano": 3680,
      "urb": 3681,
      "ortun": 3682,
      "ncy": 3683,
      "rpor": 3684,
      "enal": 3685,
      "urr": 3686,
      "ides": 3687,
      "flu": 3688,
      "stab": 3689,
      "nny": 3690,
      "elen": 3691,
      "rival": 3692,
      "cau": 3693,
      "dee": 3694,
      "rab": 3695,
      "etch": 3696,
      "eter": 3697,
      "nance": 3698,
      "ink": 3699,
      "maz": 3700,
      "moni": 3701,
      "23": 3702,
      "esi": 3703,
      "usk": 3704,
      "eva": 3705,
      "plane": 3706,
      "wri": 3707,
      "hol": 3708,
      "phy": 3709,
      "ffici": 3710,
      "mir": 3711,
      "mile": 3712,
      "miles": 3713,
      "cycl": 3714,
      "nvent": 3715,
      "lour": 3716,
      "pres": 3717,
      "hic": 3718,
      "heme": 3719,
      "ncing": 3720,
      "bjp": 3721,
      "eep": 3722,
      "lex": 3723,
      "ji": 3724,
      "pil": 3725,
      "ench": 3726,
      "write": 3727,
      "ntion": 3728,
      "mpt": 3729,
      "certa": 3730,
      "destr": 3731,
      "aci": 3732,
      "eek": 3733,
      "eau": 3734,
      "becom": 3735,
      "heir": 3736,
      "ram": 3737,
      "etro": 3738,
      "imple": 3739,
      "ille": 3740,
      "choo": 3741,
      "fix": 3742,
      "elt": 3743,
      "rh": 3744,
      "##inu": 3745,
      "ork": 3746,
      "aba": 3747,
      "fail": 3748,
      "impl": 3749,
      "lter": 3750,
      "uri": 3751,
      "##lec": 3752,
      "rief": 3753,
      "urn": 3754,
      "terro": 3755,
      "arth": 3756,
      "nice": 3757,
      "eet": 3758,
      "alt": 3759,
      "otes": 3760,
      "27": 3761,
      "ntinu": 3762,
      "ubt": 3763,
      "older": 3764,
      "uke": 3765,
      "gger": 3766,
      "odd": 3767,
      "nctio": 3768,
      "vent": 3769,
      "rect": 3770,
      "stle": 3771,
      "tip": 3772,
      "tim": 3773,
      "isco": 3774,
      "gle": 3775,
      "wag": 3776,
      "##da": 3777,
      "deter": 3778,
      "wave": 3779,
      "colle": 3780,
      "neces": 3781,
      "eing": 3782,
      "gna": 3783,
      "mari": 3784,
      "ntage": 3785,
      "burg": 3786,
      "##ea": 3787,
      "ewer": 3788,
      "28": 3789,
      "amme": 3790,
      "eff": 3791,
      "broke": 3792,
      "ceo": 3793,
      "favou": 3794,
      "spen": 3795,
      "eemed": 3796,
      "tedly": 3797,
      "bott": 3798,
      "ely": 3799,
      "fat": 3800,
      "vs": 3801,
      "olls": 3802,
      "gno": 3803,
      "redib": 3804,
      "ged": 3805,
      "kate": 3806,
      "iling": 3807,
      "stri": 3808,
      "roo": 3809,
      "overs": 3810,
      "trend": 3811,
      "ulti": 3812,
      "roup": 3813,
      "26": 3814,
      "dica": 3815,
      "tus": 3816,
      "uc": 3817,
      "yl": 3818,
      "till": 3819,
      "neu": 3820,
      "oting": 3821,
      "racy": 3822,
      "hell": 3823,
      "mbi": 3824,
      "basi": 3825,
      "user": 3826,
      "ahu": 3827,
      "ckets": 3828,
      "usa": 3829,
      "ague": 3830,
      "og": 3831,
      "ses": 3832,
      "uch": 3833,
      "cow": 3834,
      "hase": 3835,
      "cn": 3836,
      "teve": 3837,
      "sena": 3838,
      "rally": 3839,
      "hang": 3840,
      "cb": 3841,
      "uty": 3842,
      "solv": 3843,
      "asta": 3844,
      "bera": 3845,
      "ible": 3846,
      "mas": 3847,
      "sir": 3848,
      "wan": 3849,
      "ited": 3850,
      "mps": 3851,
      "emot": 3852,
      "alian": 3853,
      "kin": 3854,
      "sb": 3855,
      "xed": 3856,
      "spee": 3857,
      "ssist": 3858,
      "vour": 3859,
      "una": 3860,
      "eir": 3861,
      "mote": 3862,
      "rger": 3863,
      "##ana": 3864,
      "vered": 3865,
      "insu": 3866,
      "yri": 3867,
      "nton": 3868,
      "nied": 3869,
      "uggle": 3870,
      "burn": 3871,
      "ron": 3872,
      "ats": 3873,
      "entr": 3874,
      "ntain": 3875,
      "elect": 3876,
      "engin": 3877,
      "shar": 3878,
      "ories": 3879,
      "manu": 3880,
      "ecure": 3881,
      "sts": 3882,
      "stly": 3883,
      "noo": 3884,
      "selec": 3885,
      "style": 3886,
      "rror": 3887,
      "axi": 3888,
      "eck": 3889,
      "weet": 3890,
      "gate": 3891,
      "pot": 3892,
      "ury": 3893,
      "grad": 3894,
      "29": 3895,
      "uel": 3896,
      "ants": 3897,
      "alla": 3898,
      "ybe": 3899,
      "retai": 3900,
      "lease": 3901,
      "nis": 3902,
      "tur": 3903,
      "tep": 3904,
      "sum": 3905,
      "soci": 3906,
      "cam": 3907,
      "olid": 3908,
      "sary": 3909,
      "apo": 3910,
      "pecta": 3911,
      "allie": 3912,
      "note": 3913,
      "feet": 3914,
      "endo": 3915,
      "ately": 3916,
      "ueen": 3917,
      "gb": 3918,
      "nz": 3919,
      "tist": 3920,
      "ware": 3921,
      "trad": 3922,
      "ult": 3923,
      "lton": 3924,
      "tual": 3925,
      "stin": 3926,
      "spira": 3927,
      "llo": 3928,
      "wind": 3929,
      "dies": 3930,
      "fec": 3931,
      "eason": 3932,
      "dan": 3933,
      "##ni": 3934,
      "ined": 3935,
      "sual": 3936,
      "progr": 3937,
      "ames": 3938,
      "ald": 3939,
      "wish": 3940,
      "shes": 3941,
      "rand": 3942,
      "ein": 3943,
      "mac": 3944,
      "ancel": 3945,
      "gy": 3946,
      "hei": 3947,
      "urces": 3948,
      "oys": 3949,
      "oday": 3950,
      "tla": 3951,
      "##rov": 3952,
      "rame": 3953,
      "scott": 3954,
      "tude": 3955,
      "ceed": 3956,
      "bn": 3957,
      "oral": 3958,
      "dated": 3959,
      "egr": 3960,
      "ute": 3961,
      "logy": 3962,
      "aro": 3963,
      "lv": 3964,
      "ndy": 3965,
      "gl": 3966,
      "pat": 3967,
      "info": 3968,
      "accu": 3969,
      "eh": 3970,
      "hill": 3971,
      "vac": 3972,
      "gov": 3973,
      "flow": 3974,
      "aster": 3975,
      "pid": 3976,
      "sad": 3977,
      "rose": 3978,
      "guy": 3979,
      "ego": 3980,
      "bl": 3981,
      "erci": 3982,
      "gage": 3983,
      "mou": 3984,
      "eran": 3985,
      "oph": 3986,
      "apped": 3987,
      "ologi": 3988,
      "troo": 3989,
      "circ": 3990,
      "lev": 3991,
      "disap": 3992,
      "laws": 3993,
      "testi": 3994,
      "lined": 3995,
      "ssel": 3996,
      "hain": 3997,
      "mend": 3998,
      "verse": 3999,
      "ceiv": 4000,
      "rus": 4001,
      "rea": 4002,
      "att": 4003,
      "orce": 4004,
      "mob": 4005,
      "rmed": 4006,
      "mix": 4007,
      "aged": 4008,
      "hank": 4009,
      "ardi": 4010,
      "ests": 4011,
      "stone": 4012,
      "enda": 4013,
      "mma": 4014,
      "pho": 4015,
      "80": 4016,
      "lean": 4017,
      "abs": 4018,
      "##iz": 4019,
      "heri": 4020,
      "elle": 4021,
      "asons": 4022,
      "lega": 4023,
      "ular": 4024,
      "yed": 4025,
      "nded": 4026,
      "hor": 4027,
      "plu": 4028,
      "tiona": 4029,
      "urk": 4030,
      "vert": 4031,
      "lls": 4032,
      "ledg": 4033,
      "www": 4034,
      "tian": 4035,
      "worst": 4036,
      "marri": 4037,
      "iddle": 4038,
      "lm": 4039,
      "rist": 4040,
      "##os": 4041,
      "uses": 4042,
      "ells": 4043,
      "nute": 4044,
      "ker": 4045,
      "rone": 4046,
      "opin": 4047,
      "osh": 4048,
      "rra": 4049,
      "ates": 4050,
      "sib": 4051,
      "azi": 4052,
      "liz": 4053,
      "file": 4054,
      "visio": 4055,
      "ectio": 4056,
      "scien": 4057,
      "py": 4058,
      "enha": 4059,
      "ela": 4060,
      "reath": 4061,
      "wash": 4062,
      "rill": 4063,
      "ustin": 4064,
      "wins": 4065,
      "ounds": 4066,
      "sman": 4067,
      "uctur": 4068,
      "arms": 4069,
      "broa": 4070,
      "bour": 4071,
      "tery": 4072,
      "ssed": 4073,
      "rish": 4074,
      "gns": 4075,
      "sym": 4076,
      "dry": 4077,
      "hut": 4078,
      "lum": 4079,
      "wers": 4080,
      "duced": 4081,
      "eam": 4082,
      "lau": 4083,
      "ndon": 4084,
      "hara": 4085,
      "nj": 4086,
      "tb": 4087,
      "iga": 4088,
      "asis": 4089,
      "lob": 4090,
      "dut": 4091,
      "iers": 4092,
      "uff": 4093,
      "otor": 4094,
      "reduc": 4095,
      "och": 4096,
      "ensio": 4097,
      "rize": 4098,
      "iver": 4099,
      "ox": 4100,
      "pani": 4101,
      "meth": 4102,
      "bert": 4103,
      "anima": 4104,
      "matic": 4105,
      "erse": 4106,
      "nim": 4107,
      "initi": 4108,
      "eder": 4109,
      "hab": 4110,
      "70": 4111,
      "kan": 4112,
      "nsi": 4113,
      "ense": 4114,
      "rinc": 4115,
      "ingh": 4116,
      "sey": 4117,
      "alls": 4118,
      "ooks": 4119,
      "ij": 4120,
      "itch": 4121,
      "ify": 4122,
      "rug": 4123,
      "ddit": 4124,
      "mmer": 4125,
      "ii": 4126,
      "rev": 4127,
      "leng": 4128,
      "vice": 4129,
      "pprov": 4130,
      "ends": 4131,
      "udge": 4132,
      "avi": 4133,
      "desp": 4134,
      "reso": 4135,
      "lee": 4136,
      "rchi": 4137,
      "sted": 4138,
      "cript": 4139,
      "nus": 4140,
      "xu": 4141,
      "ino": 4142,
      "inn": 4143,
      "err": 4144,
      "mmit": 4145,
      "31": 4146,
      "ize": 4147,
      "ckle": 4148,
      "joy": 4149,
      "empt": 4150,
      "denc": 4151,
      "ix": 4152,
      "iou": 4153,
      "capt": 4154,
      "nak": 4155,
      "nly": 4156,
      "load": 4157,
      "dian": 4158,
      "igger": 4159,
      "vor": 4160,
      "lp": 4161,
      "arl": 4162,
      "ateg": 4163,
      "mass": 4164,
      "thea": 4165,
      "anda": 4166,
      "aug": 4167,
      "eets": 4168,
      "bly": 4169,
      "acy": 4170,
      "ui": 4171,
      "edge": 4172,
      "ences": 4173,
      "stea": 4174,
      "larg": 4175,
      "lso": 4176,
      "rade": 4177,
      "hai": 4178,
      "tta": 4179,
      "ello": 4180,
      "essed": 4181,
      "core": 4182,
      "lies": 4183,
      "repea": 4184,
      "dicat": 4185,
      "db": 4186,
      "##wa": 4187,
      "stro": 4188,
      "ena": 4189,
      "alit": 4190,
      "anni": 4191,
      "princ": 4192,
      "farm": 4193,
      "dge": 4194,
      "oe": 4195,
      "ovid": 4196,
      "flat": 4197,
      "toria": 4198,
      "cat": 4199,
      "mani": 4200,
      "uma": 4201,
      "heer": 4202,
      "lend": 4203,
      "mble": 4204,
      "ppose": 4205,
      "chu": 4206,
      "loan": 4207,
      "reci": 4208,
      "tiva": 4209,
      "ush": 4210,
      "strat": 4211,
      "iller": 4212,
      "ella": 4213,
      "secur": 4214,
      "gon": 4215,
      "oul": 4216,
      "requ": 4217,
      "chel": 4218,
      "offe": 4219,
      "twe": 4220,
      "icked": 4221,
      "strik": 4222,
      "sg": 4223,
      "iser": 4224,
      "dex": 4225,
      "chem": 4226,
      "mph": 4227,
      "grew": 4228,
      "llie": 4229,
      "bon": 4230,
      "jer": 4231,
      "mist": 4232,
      "nas": 4233,
      "rans": 4234,
      "ntly": 4235,
      "oney": 4236,
      "guid": 4237,
      "ube": 4238,
      "anta": 4239,
      "bru": 4240,
      "oad": 4241,
      "uis": 4242,
      "rail": 4243,
      "acci": 4244,
      "lap": 4245,
      "dly": 4246,
      "ea": 4247,
      "eut": 4248,
      "entu": 4249,
      "pplie": 4250,
      "ruit": 4251,
      "istic": 4252,
      "terr": 4253,
      "nhs": 4254,
      "kes": 4255,
      "illa": 4256,
      "circu": 4257,
      "anna": 4258,
      "ribe": 4259,
      "ett": 4260,
      "rout": 4261,
      "vot": 4262,
      "##ki": 4263,
      "##ury": 4264,
      "##unt": 4265,
      "iding": 4266,
      "90": 4267,
      "ging": 4268,
      "ild": 4269,
      "oid": 4270,
      "tan": 4271,
      "ym": 4272,
      "rape": 4273,
      "nfl": 4274,
      "rante": 4275,
      "35": 4276,
      "oud": 4277,
      "llian": 4278,
      "cr": 4279,
      "pan": 4280,
      "eri": 4281,
      "ads": 4282,
      "ears": 4283,
      "iar": 4284,
      "jam": 4285,
      "mort": 4286,
      "nou": 4287,
      "ror": 4288,
      "oted": 4289,
      "cs": 4290,
      "jury": 4291,
      "pping": 4292,
      "peat": 4293,
      "imon": 4294,
      "lief": 4295,
      "hree": 4296,
      "##fic": 4297,
      "ndra": 4298,
      "cker": 4299,
      "ollow": 4300,
      "hm": 4301,
      "lon": 4302,
      "oom": 4303,
      "uli": 4304,
      "##bi": 4305,
      "nnes": 4306,
      "rej": 4307,
      "hef": 4308,
      "affi": 4309,
      "rum": 4310,
      "yr": 4311,
      "hau": 4312,
      "aling": 4313,
      "lem": 4314,
      "convi": 4315,
      "aches": 4316,
      "ek": 4317,
      "gap": 4318,
      "dism": 4319,
      "forms": 4320,
      "minu": 4321,
      "mot": 4322,
      "ymp": 4323,
      "cline": 4324,
      "nato": 4325,
      "obi": 4326,
      "rei": 4327,
      "iting": 4328,
      "tima": 4329,
      "tti": 4330,
      "eath": 4331,
      "rice": 4332,
      "usse": 4333,
      "ngr": 4334,
      "marc": 4335,
      "##ono": 4336,
      "tag": 4337,
      "preci": 4338,
      "ntic": 4339,
      "unds": 4340,
      "ewi": 4341,
      "ected": 4342,
      "danc": 4343,
      "hone": 4344,
      "nci": 4345,
      "voca": 4346,
      "ites": 4347,
      "abu": 4348,
      "ender": 4349,
      "orda": 4350,
      "fou": 4351,
      "egg": 4352,
      "sin": 4353,
      "scov": 4354,
      "ito": 4355,
      "draft": 4356,
      "nish": 4357,
      "evin": 4358,
      "dn": 4359,
      "asion": 4360,
      "lder": 4361,
      "hrist": 4362,
      "ved": 4363,
      "zer": 4364,
      "ato": 4365,
      "aga": 4366,
      "ddl": 4367,
      "sco": 4368,
      "##cy": 4369,
      "supp": 4370,
      "porta": 4371,
      "docum": 4372,
      "irec": 4373,
      "jpe": 4374,
      "loca": 4375,
      "spa": 4376,
      "wake": 4377,
      "assa": 4378,
      "acked": 4379,
      "jpeg": 4380,
      "ipe": 4381,
      "lance": 4382,
      "nie": 4383,
      "za": 4384,
      "rex": 4385,
      "arr": 4386,
      "elly": 4387,
      "rough": 4388,
      "din": 4389,
      "aur": 4390,
      "eap": 4391,
      "tast": 4392,
      "ete": 4393,
      "gest": 4394,
      "##ja": 4395,
      "river": 4396,
      "rious": 4397,
      "uta": 4398,
      "lub": 4399,
      "eeds": 4400,
      "##bc": 4401,
      "tact": 4402,
      "scri": 4403,
      "num": 4404,
      "hyd": 4405,
      "eces": 4406,
      "tank": 4407,
      "wil": 4408,
      "yle": 4409,
      "sue": 4410,
      "zens": 4411,
      "cio": 4412,
      "gli": 4413,
      "jr": 4414,
      "nha": 4415,
      "pol": 4416,
      "nimal": 4417,
      "oca": 4418,
      "oman": 4419,
      "ria": 4420,
      "vast": 4421,
      "ings": 4422,
      "lying": 4423,
      "ents": 4424,
      "compl": 4425,
      "anks": 4426,
      "pers": 4427,
      "ament": 4428,
      "imb": 4429,
      "rav": 4430,
      "grab": 4431,
      "wns": 4432,
      "##ան": 4433,
      "esh": 4434,
      "ourne": 4435,
      "nca": 4436,
      "romot": 4437,
      "ime": 4438,
      "mba": 4439,
      "oms": 4440,
      "usi": 4441,
      "wine": 4442,
      "mys": 4443,
      "##go": 4444,
      "rick": 4445,
      "ite": 4446,
      "nde": 4447,
      "lled": 4448,
      "assin": 4449,
      "hate": 4450,
      "hare": 4451,
      "tora": 4452,
      "erman": 4453,
      "aske": 4454,
      "bout": 4455,
      "cate": 4456,
      "lst": 4457,
      "yes": 4458,
      "ypt": 4459,
      "tea": 4460,
      "dict": 4461,
      "##sa": 4462,
      "erra": 4463,
      "ghts": 4464,
      "hire": 4465,
      "ces": 4466,
      "rti": 4467,
      "lame": 4468,
      "ays": 4469,
      "nces": 4470,
      "edu": 4471,
      "erate": 4472,
      "ativ": 4473,
      "ota": 4474,
      "anned": 4475,
      "kit": 4476,
      "##fa": 4477,
      "hew": 4478,
      "proc": 4479,
      "dua": 4480,
      "sked": 4481,
      "surge": 4482,
      "45": 4483,
      "sting": 4484,
      "leak": 4485,
      "ghly": 4486,
      "ospi": 4487,
      "ung": 4488,
      "##unk": 4489,
      "ams": 4490,
      "auti": 4491,
      "cia": 4492,
      "tle": 4493,
      "inco": 4494,
      "ups": 4495,
      "ody": 4496,
      "judg": 4497,
      "ame": 4498,
      "rst": 4499,
      "lib": 4500,
      "ligi": 4501,
      "lta": 4502,
      "lari": 4503,
      "##ley": 4504,
      "cting": 4505,
      "rsh": 4506,
      "ols": 4507,
      "exi": 4508,
      "peak": 4509,
      "recov": 4510,
      "sume": 4511,
      "franc": 4512,
      "rred": 4513,
      "fruit": 4514,
      "angel": 4515,
      "smo": 4516,
      "ager": 4517,
      "scrib": 4518,
      "sas": 4519,
      "raw": 4520,
      "rie": 4521,
      "peri": 4522,
      "ermi": 4523,
      "afp": 4524,
      "ndem": 4525,
      "opi": 4526,
      "otic": 4527,
      "antly": 4528,
      "enced": 4529,
      "rey": 4530,
      "roy": 4531,
      "paren": 4532,
      "eligi": 4533,
      "reb": 4534,
      "edica": 4535,
      "ulat": 4536,
      "36": 4537,
      "lity": 4538,
      "nfor": 4539,
      "uf": 4540,
      "waste": 4541,
      "swa": 4542,
      "ivity": 4543,
      "dh": 4544,
      "ked": 4545,
      "kil": 4546,
      "lav": 4547,
      "enni": 4548,
      "ied": 4549,
      "pto": 4550,
      "rage": 4551,
      "gni": 4552,
      "ipa": 4553,
      "pment": 4554,
      "rink": 4555,
      "alk": 4556,
      "arry": 4557,
      "enny": 4558,
      "reh": 4559,
      "dyna": 4560,
      "nchi": 4561,
      "bal": 4562,
      "erna": 4563,
      "unco": 4564,
      "acco": 4565,
      "sna": 4566,
      "ua": 4567,
      "rust": 4568,
      "##ey": 4569,
      "anic": 4570,
      "aire": 4571,
      "oked": 4572,
      "consu": 4573,
      "cine": 4574,
      "mong": 4575,
      "vil": 4576,
      "##ու": 4577,
      "react": 4578,
      "bell": 4579,
      "nga": 4580,
      "illy": 4581,
      "arv": 4582,
      "gop": 4583,
      "cnn": 4584,
      "entir": 4585,
      "adm": 4586,
      "nting": 4587,
      "mber": 4588,
      "grat": 4589,
      "ewis": 4590,
      "##ute": 4591,
      "sus": 4592,
      "bai": 4593,
      "elief": 4594,
      "mcd": 4595,
      "rpris": 4596,
      "scape": 4597,
      "eve": 4598,
      "vla": 4599,
      "##no": 4600,
      "als": 4601,
      "overt": 4602,
      "tum": 4603,
      "cert": 4604,
      "thes": 4605,
      "ede": 4606,
      "god": 4607,
      "mom": 4608,
      "oper": 4609,
      "amm": 4610,
      "truck": 4611,
      "200": 4612,
      "omin": 4613,
      "ici": 4614,
      "tec": 4615,
      "iro": 4616,
      "rma": 4617,
      "lik": 4618,
      "uter": 4619,
      "iles": 4620,
      "lots": 4621,
      "ongs": 4622,
      "lers": 4623,
      "anag": 4624,
      "obil": 4625,
      "ae": 4626,
      "lice": 4627,
      "pra": 4628,
      "ws": 4629,
      "trac": 4630,
      "rter": 4631,
      "tine": 4632,
      "zo": 4633,
      "sel": 4634,
      "scal": 4635,
      "tree": 4636,
      "ves": 4637,
      "memo": 4638,
      "wat": 4639,
      "ils": 4640,
      "ilita": 4641,
      "econo": 4642,
      "mcg": 4643,
      "aimed": 4644,
      "coun": 4645,
      "hio": 4646,
      "none": 4647,
      "enu": 4648,
      "siv": 4649,
      "ario": 4650,
      "rimin": 4651,
      "ption": 4652,
      "wheel": 4653,
      "trol": 4654,
      "erful": 4655,
      "alter": 4656,
      "seiz": 4657,
      "ica": 4658,
      "##oul": 4659,
      "arch": 4660,
      "lyn": 4661,
      "ards": 4662,
      "rgen": 4663,
      "tari": 4664,
      "essi": 4665,
      "bol": 4666,
      "wond": 4667,
      "max": 4668,
      "tock": 4669,
      "orry": 4670,
      "arah": 4671,
      "kim": 4672,
      "rf": 4673,
      "viv": 4674,
      "arre": 4675,
      "scu": 4676,
      "mes": 4677,
      "alent": 4678,
      "afah": 4679,
      "acts": 4680,
      "cbs": 4681,
      "eel": 4682,
      "rine": 4683,
      "detai": 4684,
      "lake": 4685,
      "hoc": 4686,
      "cab": 4687,
      "ids": 4688,
      "rson": 4689,
      "eaten": 4690,
      "34": 4691,
      "lia": 4692,
      "airs": 4693,
      "veni": 4694,
      "pel": 4695,
      "statu": 4696,
      "onent": 4697,
      "ase": 4698,
      "asur": 4699,
      "chan": 4700,
      "sher": 4701,
      "oug": 4702,
      "resc": 4703,
      "lva": 4704,
      "vid": 4705,
      "iness": 4706,
      "credi": 4707,
      "oking": 4708,
      "tens": 4709,
      "hore": 4710,
      "rby": 4711,
      "ough": 4712,
      "aking": 4713,
      "ila": 4714,
      "alo": 4715,
      "rave": 4716,
      "sian": 4717,
      "icit": 4718,
      "lands": 4719,
      "uce": 4720,
      "zing": 4721,
      "##ko": 4722,
      "shoul": 4723,
      "nson": 4724,
      "fest": 4725,
      "imi": 4726,
      "##we": 4727,
      "onne": 4728,
      "pha": 4729,
      "deni": 4730,
      "tabl": 4731,
      "hra": 4732,
      "mail": 4733,
      "dive": 4734,
      "ocal": 4735,
      "llect": 4736,
      "ompli": 4737,
      "hout": 4738,
      "yth": 4739,
      "adi": 4740,
      "ette": 4741,
      "antic": 4742,
      "favo": 4743,
      "nves": 4744,
      "yb": 4745,
      "atic": 4746,
      "deo": 4747,
      "une": 4748,
      "ngers": 4749,
      "aca": 4750,
      "ocate": 4751,
      "jac": 4752,
      "rint": 4753,
      "tled": 4754,
      "rable": 4755,
      "aper": 4756,
      "succ": 4757,
      "logic": 4758,
      "duty": 4759,
      "33": 4760,
      "eon": 4761,
      "gang": 4762,
      "ras": 4763,
      "##ese": 4764,
      "prop": 4765,
      "ntee": 4766,
      "ours": 4767,
      "duca": 4768,
      "ller": 4769,
      "keen": 4770,
      "eport": 4771,
      "erri": 4772,
      "oni": 4773,
      "aller": 4774,
      "ngs": 4775,
      "rty": 4776,
      "aybe": 4777,
      "arts": 4778,
      "aving": 4779,
      "rena": 4780,
      "iet": 4781,
      "mn": 4782,
      "isit": 4783,
      "orri": 4784,
      "noc": 4785,
      "gency": 4786,
      "thers": 4787,
      "vladi": 4788,
      "oro": 4789,
      "rang": 4790,
      "atta": 4791,
      "##usto": 4792,
      "acr": 4793,
      "admit": 4794,
      "ield": 4795,
      "noun": 4796,
      "tun": 4797,
      "zi": 4798,
      "wel": 4799,
      "siz": 4800,
      "stern": 4801,
      "ngla": 4802,
      "ffs": 4803,
      "augh": 4804,
      "drew": 4805,
      "rring": 4806,
      "mitt": 4807,
      "vir": 4808,
      "vant": 4809,
      "tied": 4810,
      "afe": 4811,
      "risti": 4812,
      "onger": 4813,
      "roof": 4814,
      "gym": 4815,
      "mme": 4816,
      "nl": 4817,
      "tein": 4818,
      "fee": 4819,
      "ript": 4820,
      "osp": 4821,
      "aa": 4822,
      "muse": 4823,
      "inde": 4824,
      "atm": 4825,
      "weigh": 4826,
      "seas": 4827,
      "dual": 4828,
      "nai": 4829,
      "arked": 4830,
      "32": 4831,
      "nba": 4832,
      "web": 4833,
      "##key": 4834,
      "feed": 4835,
      "ommo": 4836,
      "amily": 4837,
      "eak": 4838,
      "kha": 4839,
      "zed": 4840,
      "unter": 4841,
      "rming": 4842,
      "custo": 4843,
      "inner": 4844,
      "covid": 4845,
      "expo": 4846,
      "amon": 4847,
      "acro": 4848,
      "merg": 4849,
      "tiny": 4850,
      "motio": 4851,
      "iam": 4852,
      "oli": 4853,
      "pou": 4854,
      "idi": 4855,
      "haw": 4856,
      "navi": 4857,
      "aker": 4858,
      "satio": 4859,
      "##ons": 4860,
      "rem": 4861,
      "lind": 4862,
      "awn": 4863,
      "brit": 4864,
      "uman": 4865,
      "stal": 4866,
      "rop": 4867,
      "inti": 4868,
      "hough": 4869,
      "epre": 4870,
      "error": 4871,
      "aims": 4872,
      "hrou": 4873,
      "estiv": 4874,
      "moder": 4875,
      "oyed": 4876,
      "oard": 4877,
      "conti": 4878,
      "aya": 4879,
      "ott": 4880,
      "grate": 4881,
      "bbi": 4882,
      "eti": 4883,
      "km": 4884,
      "ugh": 4885,
      "yi": 4886,
      "tie": 4887,
      "mag": 4888,
      "esla": 4889,
      "ajor": 4890,
      "erial": 4891,
      "unf": 4892,
      "tap": 4893,
      "ropo": 4894,
      "dist": 4895,
      "ient": 4896,
      "wy": 4897,
      "thy": 4898,
      "iti": 4899,
      "fees": 4900,
      "llis": 4901,
      "trees": 4902,
      "nclu": 4903,
      "osed": 4904,
      "sim": 4905,
      "tar": 4906,
      "reast": 4907,
      "tac": 4908,
      "ndent": 4909,
      "urs": 4910,
      "eler": 4911,
      "tured": 4912,
      "aria": 4913,
      "48": 4914,
      "bes": 4915,
      "gal": 4916,
      "##ora": 4917,
      "abha": 4918,
      "diet": 4919,
      "labor": 4920,
      "bay": 4921,
      "oma": 4922,
      "ored": 4923,
      "loo": 4924,
      "hero": 4925,
      "expan": 4926,
      "eader": 4927,
      "eo": 4928,
      "uit": 4929,
      "colo": 4930,
      "snp": 4931,
      "jim": 4932,
      "nders": 4933,
      "anno": 4934,
      "taste": 4935,
      "37": 4936,
      "##do": 4937,
      "erty": 4938,
      "chest": 4939,
      "mill": 4940,
      "els": 4941,
      "ayne": 4942,
      "hro": 4943,
      "lc": 4944,
      "lass": 4945,
      "ishi": 4946,
      "atu": 4947,
      "enci": 4948,
      "chol": 4949,
      "rip": 4950,
      "works": 4951,
      "ution": 4952,
      "rrie": 4953,
      "posit": 4954,
      "ml": 4955,
      "wk": 4956,
      "selv": 4957,
      "ltim": 4958,
      "ais": 4959,
      "defi": 4960,
      "quit": 4961,
      "eves": 4962,
      "emor": 4963,
      "wned": 4964,
      "bow": 4965,
      "eav": 4966,
      "wic": 4967,
      "##ho": 4968,
      "heth": 4969,
      "tears": 4970,
      "soft": 4971,
      "teri": 4972,
      "jos": 4973,
      "ois": 4974,
      "sper": 4975,
      "rtur": 4976,
      "utt": 4977,
      "ilm": 4978,
      "rme": 4979,
      "tok": 4980,
      "ouch": 4981,
      "rts": 4982,
      "tina": 4983,
      "bing": 4984,
      "nver": 4985,
      "wore": 4986,
      "itive": 4987,
      "loa": 4988,
      "dol": 4989,
      "ootb": 4990,
      "ej": 4991,
      "lence": 4992,
      "anne": 4993,
      "meat": 4994,
      "usic": 4995,
      "knee": 4996,
      "tball": 4997,
      "rmo": 4998,
      "##dp": 4999
    }
  }
}