[UNK]	0
[CLS]	1
[SEP]	2
[PAD]	3
[MASK]	4
!	5
"	6
#	7
$	8
%	9
&	10
'	11
(	12
)	13
*	14
+	15
,	16
-	17
.	18
/	19
0	20
1	21
2	22
3	23
4	24
5	25
6	26
7	27
8	28
9	29
:	30
;	31
<	32
=	33
>	34
?	35
@	36
[	37
\	38
]	39
^	40
_	41
`	42
a	43
b	44
c	45
d	46
e	47
f	48
g	49
h	50
i	51
j	52
k	53
l	54
m	55
n	56
o	57
p	58
q	59
r	60
s	61
t	62
u	63
v	64
w	65
x	66
y	67
z	68
{	69
}	70
~	71
	72
	73
	74
	75
	76
	77
	78
	79
	80
	81
¡	82
¢	83
£	84
¦	85
§	86
©	87
­	88
®	89
°	90
±	91
·	92
¿	93
×	94
ß	95
à	96
á	97
â	98
ã	99
ä	100
å	101
æ	102
ç	103
è	104
é	105
ê	106
ë	107
ì	108
í	109
î	110
ï	111
ñ	112
ò	113
ó	114
ô	115
ö	116
ø	117
ù	118
ú	119
û	120
ü	121
ý	122
þ	123
ÿ	124
ā	125
ă	126
ą	127
ć	128
č	129
đ	130
ē	131
ė	132
ę	133
ğ	134
ģ	135
ī	136
ı	137
ł	138
ń	139
ņ	140
ň	141
ō	142
ř	143
ś	144
ş	145
š	146
ţ	147
ū	148
ŵ	149
ŷ	150
ż	151
ž	152
ư	153
ș	154
ț	155
ə	156
ʔ	157
ʻ	158
̄	159
̇	160
̈	161
μ	162
а	163
и	164
к	165
н	166
о	167
р	168
с	169
у	170
ї	171
՛	172
՝	173
՞	174
ա	175
բ	176
գ	177
դ	178
ե	179
զ	180
է	181
ը	182
թ	183
ժ	184
ի	185
լ	186
խ	187
ծ	188
կ	189
հ	190
ձ	191
ղ	192
ճ	193
մ	194
յ	195
ն	196
շ	197
ո	198
չ	199
պ	200
ջ	201
ռ	202
ս	203
վ	204
տ	205
ր	206
ց	207
ւ	208
փ	209
ք	210
օ	211
ֆ	212
։	213
฿	214
ḥ	215
ṡ	216
ṣ	217
ạ	218
ả	219
ầ	220
ắ	221
ẹ	222
ế	223
ệ	224
ị	225
ọ	226
ố	227
ộ	228
ờ	229
ợ	230
ừ	231
ự	232
ỹ	233
‌	234
‍	235
‐	236
―	237
•	238
‬	239
‭	240
′	241
›	242
⁄	243
⁠	244
⁣	245
⁤	246
⁦	247
⁩	248
₦	249
€	250
₱	251
₹	252
℞	253
↔	254
−	255
⊕	256
⏳	257
■	258
▶	259
►	260
◀	261
●	262
☀	263
★	264
☆	265
♀	266
♂	267
♥	268
♦	269
♪	270
♬	271
⚽	272
✅	273
✔	274
✨	275
❌	276
❤	277
➡	278
⭐	279
・	280
︎	281
️	282
�	283
𝄒	284
🇦	285
🇱	286
🇳	287
🇸	288
🇺	289
🌪	290
🌴	291
🌹	292
🍓	293
🍹	294
🍺	295
🎁	296
🎢	297
🎪	298
🏆	299
🏻	300
🏼	301
🏽	302
🏾	303
🐎	304
👀	305
👈	306
👉	307
👍	308
👏	309
💕	310
💙	311
💥	312
💨	313
💬	314
📋	315
📍	316
📷	317
📸	318
🔥	319
😂	320
😅	321
😆	322
😊	323
😍	324
😢	325
😭	326
😮	327
😱	328
😳	329
🙄	330
🙌	331
🙏	332
🚨	333
🛒	334
🤎	335
🤔	336
🤣	337
🤦	338
🤫	339
🤯	340
🤵	341
🤷	342
🥅	343
🥇	344
🥥	345
🥪	346
🥹	347
🥺	348
🫣	349
##a	350
##f	351
##4	352
##6	353
##0	354
##1	355
##5	356
##r	357
##k	358
##o	359
##d	360
##e	361
##c	362
##2	363
##8	364
##7	365
##9	366
##3	367
##i	368
##n	369
##t	370
##ü	371
##b	372
##x	373
##u	374
##s	375
##m	376
##]	377
##l	378
##w	379
##y	380
##p	381
##q	382
##z	383
##g	384
##á	385
##h	386
##_	387
##v	388
##"	389
##é	390
##ե	391
##ք	392
##ë	393
##:	394
##'	395
##è	396
##ր	397
##ա	398
##ս	399
##տ	400
##ն	401
##j	402
##,	403
##-	404
##ự	405
##¦	406
##ո	407
##խ	408
##զ	409
##ñ	410
##í	411
##<	412
##կ	413
##!	414
##ă	415
##ș	416
##>	417
##\	418
##.	419
##ó	420
##ē	421
##ā	422
##@	423
##մ	424
##բ	425
##ի	426
##ց	427
##պ	428
##ը	429
##*	430
##դ	431
##փ	432
##ö	433
##å	434
##լ	435
##/	436
##ì	437
##ạ	438
##թ	439
##ã	440
##ř	441
##ý	442
##ô	443
##à	444
##č	445
##ջ	446
##ä	447
##ç	448
##ú	449
##⁠	450
##📸	451
##ձ	452
##ղ	453
##ō	454
##′	455
##[	456
##յ	457
##?	458
##ֆ	459
##ï	460
##ծ	461
##ū	462
##վ	463
##ł	464
##;	465
##€	466
##ժ	467
##գ	468
##😅	469
##$	470
##`	471
##š	472
##ə	473
##)	474
##&	475
##{	476
##ø	477
##ư	478
##ờ	479
##ւ	480
##🇸	481
##ÿ	482
##â	483
##}	484
##ê	485
###	486
##ռ	487
##հ	488
##©	489
##ṣ	490
##★	491
##☆	492
##🔥	493
##­	494
##շ	495
##£	496
##չ	497
##️	498
##ą	499
##ճ	500
##î	501
##🏻	502
##ŷ	503
##	504
##ḥ	505
##ʔ	506
##	507
##❤	508
##ị	509
##æ	510
##է	511
##+	512
##û	513
##•	514
##ố	515
##💬	516
##ņ	517
##ģ	518
##ī	519
##ŵ	520
##ầ	521
##ś	522
##😍	523
##ş	524
##⁣	525
##🏾	526
##%	527
##ć	528
##🤣	529
##ß	530
##ù	531
##=	532
##^	533
##μ	534
##с	535
##о	536
##ė	537
##℞	538
##ắ	539
##😭	540
##🫣	541
##😊	542
##օ	543
##ʻ	544
##ế	545
##🥺	546
##➡	547
##🍺	548
##к	549
##р	550
##а	551
##ї	552
##н	553
##и	554
##ğ	555
##🇱	556
##ệ	557
##¡	558
##■	559
##ż	560
##ò	561
##։	562
##😮	563
##ı	564
##ộ	565
##ň	566
##ț	567
##🙏	568
##🏼	569
##🇺	570
##🇦	571
##	572
##🥇	573
##‌	574
##ţ	575
##	576
##	577
##ừ	578
##🚨	579
##¿	580
##ả	581
##ę	582
##ỹ	583
##🌹	584
##🥥	585
##🤎	586
##(	587
##	588
##ợ	589
##😂	590
##ọ	591
##ž	592
##🥹	593
##🤦	594
##🏽	595
##̇	596
th	597
the	598
in	599
##er	600
##on	601
##nd	602
##or	603
##at	604
to	605
##en	606
##in	607
##ar	608
##an	609
##ou	610
##it	611
##st	612
of	613
##al	614
ed	615
ing	616
and	617
re	618
##re	619
##ic	620
##om	621
##le	622
##id	623
##ll	624
##ion	625
be	626
##ent	627
##ve	628
on	629
ha	630
it	631
st	632
for	633
##ut	634
at	635
he	636
##ot	637
is	638
wh	639
##ce	640
##ay	641
##ing	642
##ow	643
##ss	644
an	645
en	646
that	647
##se	648
er	649
##ur	650
##et	651
##ct	652
ly	653
de	654
##ld	655
##ed	656
##ig	657
##ir	658
##am	659
##ith	660
##ver	661
##ch	662
##im	663
with	664
##ro	665
wa	666
al	667
##is	668
##ra	669
ch	670
we	671
##th	672
##ge	673
##ad	674
##il	675
##ie	676
le	677
com	678
##ill	679
con	680
sh	681
ne	682
##ol	683
fr	684
##ter	685
se	686
##ck	687
sa	688
##ke	689
la	690
you	691
ab	692
##ate	693
hi	694
##ri	695
ma	696
##pe	697
##igh	698
li	699
ex	700
su	701
,"	702
said	703
ar	704
##ation	705
##ort	706
or	707
have	708
by	709
##ul	710
has	711
go	712
pro	713
from	714
##um	715
thi	716
cou	717
##ere	718
##art	719
##la	720
not	721
but	722
lo	723
ca	724
all	725
##ore	726
es	727
me	728
##us	729
##op	730
un	731
##ight	732
##od	733
te	734
##pp	735
tr	736
##ue	737
ment	738
20	739
##un	740
##as	741
her	742
out	743
pre	744
##ust	745
im	746
co	747
af	748
##ive	749
wor	750
##all	751
ad	752
##ear	753
po	754
##ain	755
##gh	756
do	757
one	758
who	759
##el	760
will	761
##ant	762
year	763
##ine	764
##ia	765
##ard	766
."	767
am	768
##ome	769
##ime	770
man	771
##lo	772
ta	773
pl	774
":	775
##ies	776
can	777
up	778
##ice	779
per	780
off	781
ho	782
their	783
mo	784
##fe	785
##ity	786
ba	787
ag	788
ers	789
pr	790
new	791
pa	792
##ich	793
had	794
##ure	795
pe	796
##ould	797
##ist	798
if	799
##ial	800
##ound	801
##our	802
us	803
ro	804
##00	805
fa	806
time	807
after	808
more	809
##ide	810
##out	811
sp	812
ever	813
##ok	814
##ther	815
ation	816
##pt	817
ac	818
over	819
fe	820
##ong	821
were	822
there	823
about	824
day	825
##ame	826
part	827
di	828
which	829
##ub	830
##per	831
bo	832
no	833
fo	834
em	835
sc	836
ev	837
##es	838
br	839
other	840
like	841
ra	842
##ff	843
mon	844
202	845
##ber	846
mar	847
my	848
##ip	849
qu	850
##age	851
##ish	852
##ree	853
ion	854
gr	855
cont	856
##ment	857
##ople	858
people	859
just	860
":"	861
car	862
would	863
tw	864
##ud	865
dis	866
##nt	867
med	868
what	869
some	870
##ough	871
cre	872
tra	873
fir	874
comp	875
pol	876
##ence	877
work	878
res	879
get	880
##nder	881
so	882
cr	883
jo	884
ele	885
##ction	886
##ath	887
than	888
rep	889
##em	890
##ile	891
way	892
spe	893
##ord	894
state	895
say	896
##ick	897
##and	898
how	899
able	900
##own	901
##ign	902
first	903
back	904
don	905
##ict	906
form	907
uk	908
##ly	909
play	910
##ite	911
##use	912
cent	913
##ach	914
el	915
##ble	916
them	917
two	918
our	919
att	920
inc	921
ent	922
##ump	923
comm	924
pres	925
come	926
##ond	927
##ult	928
kn	929
##ink	930
ity	931
him	932
##ft	933
land	934
##lu	935
##iv	936
##ous	937
##ident	938
min	939
##orm	940
cl	941
gu	942
acc	943
par	944
inter	945
ce	946
##ast	947
##ild	948
##ance	949
ind	950
##int	951
fi	952
any	953
ver	954
,""	955
##est	956
dec	957
ph	958
##ition	959
last	960
add	961
##lic	962
could	963
your	964
nation	965
ke	966
ap	967
##ag	968
##sh	969
##ress	970
now	971
##ep	972
again	973
count	974
##oth	975
##ry	976
most	977
ary	978
##urn	979
##cial	980
##du	981
##ak	982
ve	983
fin	984
pub	985
ally	986
trump	987
ic	988
bu	989
##reat	990
under	991
##ade	992
imp	993
end	994
show	995
##tt	996
##ual	997
##wn	998
side	999
##ek	1000
where	1001
est	1002
line	1003
##ugh	1004
age	1005
war	1006
cause	1007
##vel	1008
bet	1009
app	1010
did	1011
thing	1012
##erv	1013
sec	1014
##ian	1015
media	1016
act	1017
##one	1018
president	1019
##amp	1020
inclu	1021
make	1022
supp	1023
high	1024
every	1025
id	1026
##ise	1027
wid	1028
##form	1029
aut	1030
str	1031
##ect	1032
width	1033
ant	1034
fu	1035
son	1036
look	1037
##qu	1038
ass	1039
want	1040
##vern	1041
##ater	1042
ru	1043
report	1044
##day	1045
may	1046
govern	1047
thr	1048
down	1049
ext	1050
cla	1051
##cess	1052
home	1053
##are	1054
she	1055
rec	1056
fam	1057
lead	1058
mi	1059
even	1060
while	1061
ty	1062
need	1063
exp	1064
19	1065
bef	1066
before	1067
well	1068
##ange	1069
##ase	1070
ear	1071
har	1072
ter	1073
op	1074
game	1075
call	1076
public	1077
##{"	1078
week	1079
take	1080
##ster	1081
##itt	1082
rem	1083
fl	1084
pla	1085
win	1086
hou	1087
dur	1088
long	1089
think	1090
hel	1091
reg	1092
ec	1093
right	1094
##av	1095
tri	1096
cons	1097
##itic	1098
world	1099
##orn	1100
cour	1101
##atch	1102
##ince	1103
blo	1104
ive	1105
wr	1106
dem	1107
##we	1108
set	1109
##if	1110
##pect	1111
ance	1112
know	1113
ship	1114
national	1115
head	1116
char	1117
mr	1118
see	1119
col	1120
mu	1121
##illion	1122
start	1123
##get	1124
then	1125
##ap	1126
##oc	1127
##ason	1128
dr	1129
gen	1130
##iden	1131
month	1132
##act	1133
##ens	1134
##ire	1135
made	1136
through	1137
told	1138
##ans	1139
support	1140
sch	1141
aw	1142
team	1143
three	1144
##son	1145
mem	1146
201	1147
own	1148
##ale	1149
read	1150
##ail	1151
hose	1152
going	1153
ig	1154
ret	1155
##te	1156
life	1157
##llow	1158
old	1159
##iver	1160
##ack	1161
##ug	1162
help	1163
ry	1164
gra	1165
less	1166
##iew	1167
ur	1168
qual	1169
ate	1170
##lf	1171
famil	1172
ful	1173
as	1174
conf	1175
law	1176
eng	1177
mark	1178
plan	1179
child	1180
##alk	1181
sur	1182
ous	1183
##cy	1184
house	1185
found	1186
place	1187
though	1188
##ey	1189
sm	1190
good	1191
isra	1192
iz	1193
person	1194
cro	1195
around	1196
vis	1197
##,{"	1198
ist	1199
run	1200
bre	1201
2024	1202
que	1203
star	1204
sy	1205
still	1206
serv	1207
##king	1208
ann	1209
put	1210
ga	1211
vi	1212
##ical	1213
point	1214
much	1215
##vest	1216
wom	1217
cle	1218
vot	1219
sen	1220
ies	1221
il	1222
##ctor	1223
care	1224
##ving	1225
##ph	1226
##alth	1227
ban	1228
invest	1229
##ory	1230
change	1231
ia	1232
four	1233
mod	1234
000	1235
##eric	1236
des	1237
air	1238
court	1239
##ute	1240
big	1241
clo	1242
follow	1243
hould	1244
bl	1245
ge	1246
news	1247
10	1248
da	1249
ough	1250
bel	1251
since	1252
ham	1253
##fect	1254
camp	1255
open	1256
fit	1257
ste	1258
jp	1259
block	1260
americ	1261
##ind	1262
##ttp	1263
http	1264
:/	1265
country	1266
://	1267
city	1268
second	1269
##ital	1270
election	1271
give	1272
case	1273
contin	1274
bus	1275
##oup	1276
accord	1277
bar	1278
far	1279
office	1280
##cer	1281
##ffer	1282
quality	1283
post	1284
live	1285
cred	1286
hand	1287
happ	1288
cross	1289
auto	1290
exper	1291
rel	1292
group	1293
los	1294
love	1295
##os	1296
max	1297
uch	1298
ian	1299
nor	1300
##pl	1301
appe	1302
member	1303
mean	1304
russ	1305
##ers	1306
##ru	1307
ber	1308
##ween	1309
##ular	1310
feel	1311
ations	1312
both	1313
##ner	1314
ities	1315
met	1316
##ssion	1317
full	1318
##ilit	1319
##eral	1320
dep	1321
cur	1322
health	1323
master	1324
try	1325
continu	1326
fil	1327
bas	1328
between	1329
##ang	1330
bra	1331
del	1332
politic	1333
##20	1334
east	1335
got	1336
test	1337
night	1338
trans	1339
##cc	1340
best	1341
prot	1342
pri	1343
let	1344
came	1345
loc	1346
produ	1347
stud	1348
leg	1349
season	1350
iss	1351
##io	1352
biden	1353
ways	1354
self	1355
##ower	1356
##icial	1357
family	1358
top	1359
##ene	1360
final	1361
ob	1362
##ix	1363
party	1364
##da	1365
##ount	1366
##hing	1367
##ated	1368
left	1369
dire	1370
che	1371
##rc	1372
ton	1373
ask	1374
share	1375
##..	1376
resp	1377
million	1378
face	1379
##ject	1380
led	1381
ame	1382
men	1383
here	1384
sk	1385
src	1386
use	1387
claim	1388
##ab	1389
jpg	1390
pay	1391
ember	1392
sim	1393
ir	1394
turn	1395
event	1396
##ience	1397
##ty	1398
##outh	1399
attack	1400
mid	1401
pos	1402
##40	1403
art	1404
prov	1405
##be	1406
##og	1407
##ote	1408
##iend	1409
great	1410
##lish	1411
friend	1412
bro	1413
##eng	1414
expect	1415
##iz	1416
det	1417
##iev	1418
12	1419
##ren	1420
...	1421
lot	1422
bla	1423
ration	1424
##ool	1425
##ief	1426
##any	1427
inst	1428
##ace	1429
##der	1430
##sday	1431
mus	1432
cap	1433
official	1434
too	1435
ments	1436
never	1437
ence	1438
red	1439
na	1440
near	1441
service	1442
low	1443
num	1444
sw	1445
##ven	1446
0_	1447
hen	1448
stand	1449
##ious	1450
##leg	1451
school	1452
##ple	1453
##ott	1454
##ield	1455
strong	1456
free	1457
##ied	1458
image	1459
fore	1460
ward	1461
##uc	1462
##ac	1463
unit	1464
sign	1465
power	1466
##sp	1467
find	1468
ball	1469
ong	1470
gre	1471
av	1472
ref	1473
stre	1474
##ric	1475
ating	1476
port	1477
sun	1478
##ract	1479
credit	1480
element	1481
lar	1482
leader	1483
##uro	1484
force	1485
bod	1486
real	1487
ative	1488
fan	1489
rate	1490
are	1491
##ork	1492
##ather	1493
hold	1494
ready	1495
##ram	1496
##end	1497
ukra	1498
commun	1499
den	1500
hal	1501
##ne	1502
net	1503
special	1504
mis	1505
south	1506
days	1507
##min	1508
ie	1509
pass	1510
pat	1511
een	1512
fire	1513
mat	1514
def	1515
som	1516
15	1517
##ient	1518
differ	1519
##ution	1520
##aign	1521
campaign	1522
appear	1523
coming	1524
kill	1525
youn	1526
lab	1527
american	1528
euro	1529
ions	1530
et	1531
##oun	1532
return	1533
##ib	1534
sub	1535
##rat	1536
prom	1537
adv	1538
pop	1539
water	1540
children	1541
away	1542
foot	1543
ness	1544
ris	1545
cor	1546
press	1547
young	1548
##iness	1549
close	1550
business	1551
number	1552
maj	1553
##ert	1554
int	1555
inv	1556
clear	1557
##other	1558
build	1559
##onom	1560
},{"	1561
wo	1562
##ral	1563
##ush	1564
social	1565
hard	1566
cost	1567
large	1568
police	1569
rest	1570
##,"	1571
later	1572
keep	1573
##gan	1574
women	1575
##ific	1576
colle	1577
remain	1578
##iday	1579
provid	1580
##ague	1581
##iate	1582
econom	1583
five	1584
val	1585
##arch	1586
few	1587
book	1588
cra	1589
elect	1590
##ility	1591
company	1592
deal	1593
hit	1594
vict	1595
won	1596
six	1597
##vi	1598
ster	1599
##ister	1600
##ier	1601
major	1602
record	1603
##ittle	1604
rs	1605
##her	1606
field	1607
ger	1608
oper	1609
##de	1610
issue	1611
##view	1612
little	1613
chin	1614
sure	1615
##gress	1616
didn	1617
happen	1618
##unch	1619
30	1620
move	1621
ine	1622
hum	1623
deb	1624
##ision	1625
coun	1626
area	1627
ling	1628
sol	1629
light	1630
talk	1631
took	1632
mini	1633
pan	1634
tex	1635
##cing	1636
##80	1637
ll	1638
hu	1639
##ocrat	1640
opp	1641
film	1642
arm	1643
##60	1644
##mm	1645
quest	1646
cha	1647
11	1648
market	1649
ign	1650
##ock	1651
grow	1652
fur	1653
dra	1654
poss	1655
brit	1656
##up	1657
##velop	1658
democrat	1659
body	1660
mom	1661
200	1662
##ger	1663
##ething	1664
local	1665
something	1666
believ	1667
appro	1668
why	1669
milit	1670
break	1671
##ken	1672
result	1673
##dition	1674
develop	1675
##ounce	1676
allow	1677
##ption	1678
might	1679
##no	1680
term	1681
meet	1682
cal	1683
watch	1684
rat	1685
phot	1686
half	1687
mov	1688
jan	1689
model	1690
45	1691
import	1692
),	1693
making	1694
creat	1695
hour	1696
north	1697
vide	1698
speak	1699
park	1700
black	1701
##ret	1702
price	1703
17	1704
video	1705
auth	1706
##rib	1707
cut	1708
west	1709
cho	1710
##stem	1711
ley	1712
system	1713
pur	1714
better	1715
dri	1716
pet	1717
##ont	1718
emp	1719
past	1720
money	1721
hist	1722
##ba	1723
##ety	1724
##lain	1725
log	1726
key	1727
pal	1728
position	1729
##itch	1730
pot	1731
til	1732
##atur	1733
list	1734
fund	1735
tech	1736
##ank	1737
##30	1738
thir	1739
white	1740
je	1741
partic	1742
##ible	1743
concer	1744
view	1745
##ark	1746
decision	1747
respon	1748
##urity	1749
comment	1750
job	1751
different	1752
ism	1753
"}	1754
wed	1755
question	1756
##ec	1757
sl	1758
perform	1759
disc	1760
ecurity	1761
##rent	1762
ju	1763
harri	1764
dy	1765
each	1766
##ury	1767
death	1768
##ider	1769
.'	1770
##ten	1771
announce	1772
having	1773
##hn	1774
author	1775
experience	1776
name	1777
train	1778
along	1779
ef	1780
minute	1781
poli	1782
2023	1783
2022	1784
stri	1785
##ning	1786
ey	1787
##bc	1788
##fit	1789
lin	1790
bat	1791
york	1792
##icture	1793
##pend	1794
tar	1795
picture	1796
match	1797
ped	1798
organ	1799
comple	1800
host	1801
sport	1802
##ald	1803
moment	1804
level	1805
ell	1806
const	1807
food	1808
known	1809
ins	1810
jud	1811
ut	1812
eff	1813
##rist	1814
visit	1815
ple	1816
##dd	1817
room	1818
john	1819
).	1820
##inal	1821
reve	1822
alleg	1823
reveal	1824
ated	1825
##ik	1826
18	1827
league	1828
du	1829
cy	1830
gaz	1831
ought	1832
india	1833
whi	1834
short	1835
jun	1836
##ivers	1837
parent	1838
current	1839
ukraine	1840
non	1841
dist	1842
##gu	1843
##loy	1844
fall	1845
club	1846
eight	1847
europe	1848
wrote	1849
tell	1850
suc	1851
univers	1852
ill	1853
ul	1854
##red	1855
##35	1856
interest	1857
##pr	1858
eries	1859
lu	1860
hope	1861
ground	1862
cand	1863
militar	1864
small	1865
hol	1866
inform	1867
page	1868
ised	1869
order	1870
publican	1871
sha	1872
tax	1873
##res	1874
goal	1875
walk	1876
chief	1877
critic	1878
##ee	1879
##erg	1880
general	1881
bank	1882
treat	1883
toget	1884
together	1885
contro	1886
human	1887
sex	1888
thought	1889
concern	1890
summ	1891
class	1892
##ift	1893
depart	1894
##45	1895
pen	1896
chall	1897
ability	1898
inf	1899
must	1900
##inian	1901
sug	1902
bill	1903
seem	1904
25	1905
bit	1906
mc	1907
role	1908
##ceive	1909
##ton	1910
eas	1911
ting	1912
##iam	1913
dro	1914
due	1915
step	1916
spite	1917
consider	1918
ably	1919
13	1920
sta	1921
##que	1922
phone	1923
##ward	1924
taking	1925
dou	1926
reach	1927
fight	1928
wide	1929
fut	1930
ial	1931
##ata	1932
##ource	1933
##duc	1934
defe	1935
##par	1936
hot	1937
##ife	1938
glo	1939
hind	1940
85	1941
champ	1942
action	1943
ries	1944
##tle	1945
##ci	1946
bi	1947
cit	1948
mother	1949
challeng	1950
##10	1951
##fa	1952
protect	1953
mur	1954
space	1955
direct	1956
##mp	1957
often	1958
future	1959
50	1960
##lement	1961
taken	1962
heart	1963
##ival	1964
viol	1965
mig	1966
cele	1967
ai	1968
##man	1969
##71	1970
14	1971
receive	1972
##25	1973
##az	1974
##cus	1975
risk	1976
oct	1977
feat	1978
ite	1979
ago	1980
super	1981
##0_	1982
gett	1983
success	1984
today	1985
celeb	1986
ten	1987
region	1988
christ	1989
process	1990
##over	1991
launch	1992
hosp	1993
secret	1994
text	1995
##89	1996
agree	1997
champion	1998
aust	1999
important	2000
seat	2001
tour	2002
hospital	2003
ors	2004
travel	2005
tue	2006
lond	2007
##ourn	2008
gan	2009
lat	2010
london	2011
israel	2012
friday	2013
story	2014
focus	2015
ential	2016
dom	2017
data	2018
whet	2019
front	2020
cam	2021
board	2022
gar	2023
bur	2024
ide	2025
ri	2026
##blem	2027
ously	2028
relation	2029
migr	2030
bir	2031
cert	2032
##15	2033
fel	2034
fail	2035
done	2036
##ave	2037
##36	2038
strike	2039
control	2040
donald	2041
kind	2042
##vers	2043
problem	2044
fully	2045
##ose	2046
israeli	2047
mer	2048
##irl	2049
target	2050
##72	2051
stead	2052
stay	2053
16	2054
design	2055
##imat	2056
china	2057
prop	2058
join	2059
tuesday	2060
account	2061
mor	2062
nov	2063
street	2064
wash	2065
##ention	2066
student	2067
deep	2068
effect	2069
60	2070
##cent	2071
inte	2072
depend	2073
enter	2074
fed	2075
##icket	2076
##rest	2077
100	2078
##gest	2079
##</	2080
prog	2081
woman	2082
partner	2083
##olve	2084
##irm	2085
project	2086
flo	2087
further	2088
suggest	2089
##ca	2090
##nes	2091
charge	2092
gold	2093
requ	2094
##32	2095
late	2096
ington	2097
once	2098
program	2099
##ash	2100
##90	2101
ping	2102
cover	2103
ese	2104
ett	2105
ident	2106
town	2107
candid	2108
##oke	2109
##iti	2110
##ior	2111
warn	2112
ther	2113
sus	2114
cult	2115
wood	2116
ature	2117
poll	2118
journ	2119
lim	2120
thur	2121
fun	2122
tro	2123
boy	2124
san	2125
##empt	2126
mess	2127
ier	2128
##play	2129
shot	2130
building	2131
wednes	2132
wednesda	2133
##99	2134
employ	2135
energ	2136
getty	2137
os	2138
display	2139
product	2140
ice	2141
green	2142
couple	2143
girl	2144
vo	2145
bad	2146
tit	2147
priv	2148
##unt	2149
effort	2150
ach	2151
race	2152
##ov	2153
seven	2154
reason	2155
round	2156
saw	2157
jam	2158
exc	2159
stop	2160
##bal	2161
kid	2162
ib	2163
dav	2164
prime	2165
accus	2166
occ	2167
condition	2168
thursday	2169
wards	2170
creas	2171
summer	2172
dam	2173
minister	2174
40	2175
road	2176
victor	2177
##resent	2178
fer	2179
mass	2180
buy	2181
deliver	2182
##icle	2183
possible	2184
##cept	2185
bord	2186
dpr	2187
ser	2188
sea	2189
sho	2190
iv	2191
pu	2192
yet	2193
gl	2194
wind	2195
career	2196
access	2197
leave	2198
staff	2199
##ala	2200
conv	2201
complete	2202
legal	2203
ified	2204
march	2205
##arn	2206
represent	2207
pick	2208
bed	2209
fact	2210
require	2211
quar	2212
hor	2213
##16	2214
music	2215
king	2216
ven	2217
##cil	2218
impact	2219
vir	2220
billion	2221
var	2222
vol	2223
##ificant	2224
ignificant	2225
course	2226
fal	2227
um	2228
word	2229
interview	2230
lier	2231
##ensive	2232
main	2233
arrest	2234
tic	2235
"},{"	2236
ising	2237
fav	2238
drop	2239
feature	2240
gener	2241
vision	2242
mich	2243
particular	2244
federal	2245
hear	2246
present	2247
##fic	2248
##minist	2249
tre	2250
##ilt	2251
eye	2252
proper	2253
attempt	2254
administ	2255
satur	2256
##ah	2257
history	2258
##19	2259
##83	2260
##ison	2261
personal	2262
mot	2263
percent	2264
confirm	2265
ble	2266
##17	2267
ates	2268
rese	2269
ish	2270
suit	2271
ized	2272
protest	2273
fre	2274
explain	2275
ben	2276
##land	2277
##ughter	2278
activ	2279
coach	2280
##cum	2281
##rov	2282
roy	2283
held	2284
saturday	2285
improv	2286
##ball	2287
hy	2288
rule	2289
scot	2290
football	2291
photo	2292
##ze	2293
information	2294
##bb	2295
coll	2296
decid	2297
labour	2298
involve	2299
father	2300
##85	2301
grand	2302
render	2303
global	2304
quarter	2305
fast	2306
apr	2307
austral	2308
gun	2309
wait	2310
judge	2311
dot	2312
quick	2313
australia	2314
##39	2315
rich	2316
vice	2317
cust	2318
anti	2319
broad	2320
exec	2321
sn	2322
dan	2323
fla	2324
##ator	2325
tru	2326
guard	2327
finan	2328
ator	2329
##ateg	2330
ari	2331
bene	2332
##oy	2333
octo	2334
felt	2335
hon	2336
mult	2337
nce	2338
##12	2339
##org	2340
source	2341
les	2342
typ	2343
tor	2344
24	2345
limit	2346
##cast	2347
learn	2348
custom	2349
profe	2350
ties	2351
##stand	2352
sept	2353
understand	2354
tv	2355
beat	2356
indust	2357
brand	2358
forward	2359
financial	2360
decade	2361
##ugg	2362
pain	2363
thank	2364
##tal	2365
card	2366
stage	2367
emer	2368
han	2369
british	2370
sale	2371
afric	2372
trial	2373
avail	2374
certain	2375
aug	2376
actual	2377
fig	2378
worth	2379
##dle	2380
crease	2381
opport	2382
##66	2383
##icy	2384
operation	2385
dog	2386
mak	2387
policy	2388
sty	2389
simpl	2390
##ys	2391
manage	2392
box	2393
##ased	2394
title	2395
push	2396
argu	2397
matter	2398
council	2399
economic	2400
mission	2401
total	2402
lines	2403
border	2404
kh	2405
mile	2406
river	2407
inciden	2408
wife	2409
2020	2410
produc	2411
morn	2412
morning	2413
cast	2414
weight	2415
ring	2416
2021	2417
janu	2418
wel	2419
congress	2420
research	2421
dia	2422
writ	2423
0_0_	2424
bal	2425
##88	2426
##gn	2427
dre	2428
prose	2429
rad	2430
director	2431
running	2432
wear	2433
stat	2434
ise	2435
##ama	2436
##ense	2437
erious	2438
##ency	2439
equ	2440
ize	2441
emerge	2442
##,""	2443
_ty	2444
itu	2445
finish	2446
_type	2447
ists	2448
georg	2449
centre	2450
track	2451
explo	2452
bea	2453
crime	2454
demand	2455
german	2456
##raph	2457
35	2458
va	2459
##ilar	2460
igation	2461
figure	2462
</	2463
emb	2464
initi	2465
,'	2466
spec	2467
##44	2468
bud	2469
prob	2470
##27	2471
expert	2472
##ary	2473
civ	2474
eth	2475
dead	2476
mind	2477
check	2478
cup	2479
swe	2480
daughter	2481
america	2482
attend	2483
store	2484
##rem	2485
ts	2486
##ml	2487
publish	2488
##24	2489
ht	2490
##ror	2491
value	2492
commit	2493
rele	2494
true	2495
released	2496
ample	2497
scott	2498
detail	2499
##ager	2500
##rict	2501
joe	2502
indian	2503
respond	2504
bow	2505
der	2506
##ea	2507
union	2508
civil	2509
ti	2510
rock	2511
living	2512
safe	2513
ak	2514
conserv	2515
##ension	2516
ina	2517
link	2518
ka	2519
##f5	2520
##oma	2521
capt	2522
trugg	2523
iran	2524
nom	2525
##ode	2526
drive	2527
dig	2528
lease	2529
crim	2530
prison	2531
owner	2532
false	2533
##element	2534
##pri	2535
reduc	2536
22	2537
search	2538
peri	2539
fair	2540
assist	2541
##86	2542
island	2543
privat	2544
##self	2545
base	2546
hama	2547
similar	2548
rath	2549
spot	2550
address	2551
blockelement	2552
21	2553
ees	2554
shop	2555
sel	2556
prim	2557
anger	2558
claimed	2559
pressur	2560
iffic	2561
ifficult	2562
nam	2563
ible	2564
##ma	2565
scene	2566
himself	2567
##ruct	2568
##oint	2569
comb	2570
wall	2571
##co	2572
##mi	2573
##joy	2574
ford	2575
##uel	2576
vill	2577
enjoy	2578
oly	2579
table	2580
vious	2581
plat	2582
afety	2583
trib	2584
defend	2585
olymp	2586
neg	2587
unity	2588
aud	2589
ps	2590
miss	2591
mediate	2592
ituation	2593
ingly	2594
soon	2595
##ength	2596
ja	2597
heav	2598
approach	2599
##14	2600
leading	2601
abs	2602
##pped	2603
pack	2604
benefit	2605
sports	2606
vers	2607
html	2608
##oud	2609
ang	2610
educ	2611
review	2612
respons	2613
response	2614
jack	2615
spoke	2616
clos	2617
adm	2618
amaz	2619
scor	2620
period	2621
mate	2622
hur	2623
##18	2624
express	2625
##wer	2626
panies	2627
##000	2628
gi	2629
capital	2630
##ves	2631
gla	2632
option	2633
via	2634
##bs	2635
suffer	2636
sold	2637
huge	2638
victim	2639
>,""	2640
spect	2641
aid	2642
ken	2643
ure	2644
##ication	2645
firm	2646
earn	2647
pent	2648
##26	2649
spokes	2650
##33	2651
drug	2652
pract	2653
van	2654
##uct	2655
##49	2656
##verage	2657
trust	2658
central	2659
calif	2660
style	2661
aff	2662
august	2663
criminal	2664
selves	2665
##row	2666
##cut	2667
images	2668
industry	2669
whole	2670
##rupt	2671
hop	2672
range	2673
##ative	2674
##lex	2675
royal	2676
mad	2677
prem	2678
deter	2679
shoot	2680
##asure	2681
docum	2682
##duct	2683
document	2684
##vent	2685
door	2686
##itted	2687
##e5	2688
ner	2689
middle	2690
compar	2691
fear	2692
":"<	2693
orig	2694
winn	2695
nothing	2696
addition	2697
palest	2698
##idence	2699
beaut	2700
quite	2701
palestinian	2702
?"	2703
serve	2704
##ane	2705
plann	2706
hus	2707
tur	2708
##ude	2709
prince	2710
heat	2711
charact	2712
character	2713
ange	2714
sil	2715
flight	2716
popular	2717
pie	2718
stock	2719
prepar	2720
resident	2721
utive	2722
jury	2723
##agram	2724
instagram	2725
chair	2726
ep	2727
marri	2728
common	2729
##tain	2730
##rive	2731
##ivid	2732
##95	2733
cris	2734
dest	2735
fort	2736
olympic	2737
fra	2738
sound	2739
chest	2740
accept	2741
om	2742
enc	2743
desc	2744
##lect	2745
cir	2746
env	2747
murder	2748
struct	2749
ave	2750
##ograph	2751
##gin	2752
##ha	2753
##ipl	2754
manager	2755
##ornia	2756
ran	2757
assa	2758
2019	2759
california	2760
hall	2761
##f0	2762
ants	2763
lock	2764
rates	2765
bbc	2766
spa	2767
propos	2768
giv	2769
development	2770
farm	2771
ler	2772
wal	2773
##b0	2774
tele	2775
##uch	2776
##ench	2777
evidence	2778
platform	2779
wrong	2780
##uss	2781
##idge	2782
individ	2783
##onment	2784
##ironment	2785
crow	2786
environment	2787
individual	2788
france	2789
caus	2790
workers	2791
extra	2792
usual	2793
olo	2794
previ	2795
urge	2796
commi	2797
department	2798
##imate	2799
##by	2800
##rage	2801
scre	2802
senior	2803
david	2804
angel	2805
23	2806
ny	2807
nar	2808
##dge	2809
veh	2810
commission	2811
##band	2812
##erence	2813
##cel	2814
affect	2815
husband	2816
oil	2817
dai	2818
responsib	2819
clean	2820
foreign	2821
aim	2822
rise	2823
prevent	2824
sense	2825
'.	2826
##cl	2827
##rap	2828
blue	2829
journal	2830
ye	2831
vari	2832
gue	2833
pair	2834
##ony	2835
extrem	2836
pool	2837
pra	2838
tal	2839
ada	2840
william	2841
photograph	2842
nine	2843
##oid	2844
chem	2845
easy	2846
500	2847
##otion	2848
aging	2849
strateg	2850
touch	2851
venue	2852
ify	2853
prior	2854
growth	2855
26	2856
sle	2857
assoc	2858
##f7	2859
terri	2860
uring	2861
vehicle	2862
average	2863
hreat	2864
gave	2865
cancer	2866
##stic	2867
kar	2868
chan	2869
shar	2870
debate	2871
budget	2872
ned	2873
rated	2874
##ness	2875
counter	2876
song	2877
instit	2878
nomin	2879
##ex	2880
tom	2881
stra	2882
piece	2883
ious	2884
mos	2885
pari	2886
born	2887
cat	2888
amount	2889
sin	2890
phil	2891
actor	2892
##ern	2893
fest	2894
jur	2895
tun	2896
doctor	2897
consum	2898
wee	2899
rob	2900
##mer	2901
score	2902
screen	2903
##gg	2904
heard	2905
remov	2906
rom	2907
rout	2908
discuss	2909
dependent	2910
fac	2911
twi	2912
charg	2913
ult	2914
##87	2915
paper	2916
sent	2917
##ech	2918
mil	2919
ali	2920
sav	2921
parl	2922
tion	2923
exist	2924
peace	2925
phys	2926
defense	2927
paid	2928
lit	2929
sal	2930
##era	2931
measure	2932
birth	2933
ee	2934
norm	2935
":[	2936
path	2937
##bit	2938
entire	2939
french	2940
appeal	2941
education	2942
ath	2943
perfect	2944
feb	2945
patient	2946
sam	2947
##iament	2948
parliament	2949
rain	2950
hotel	2951
dress	2952
eu	2953
fence	2954
ns	2955
premier	2956
##read	2957
speech	2958
hill	2959
ium	2960
nc	2961
holiday	2962
sexual	2963
bri	2964
fran	2965
lack	2966
##asion	2967
tem	2968
roll	2969
27	2970
##oric	2971
kids	2972
damage	2973
neigh	2974
neighb	2975
##a0	2976
band	2977
crowd	2978
ticket	2979
conduct	2980
shock	2981
regul	2982
petition	2983
##22	2984
stone	2985
ess	2986
ians	2987
mart	2988
wild	2989
thous	2990
leav	2991
pend	2992
thousand	2993
gone	2994
works	2995
choice	2996
spr	2997
##ost	2998
avoid	2999
##ban	3000
stor	3001
sand	3002
##kend	3003
weekend	3004
skin	3005
pleas	3006
.</	3007
##ga	3008
##orce	3009
repe	3010
ans	3011
movie	3012
ct	3013
cas	3014
brother	3015
##ribed	3016
described	3017
ol	3018
institut	3019
febru	3020
rul	3021
##af	3022
eith	3023
##11	3024
##cd	3025
hood	3026
##34	3027
logy	3028
double	3029
structure	3030
pending	3031
ron	3032
techno	3033
medical	3034
##62	3035
type	3036
##a5	3037
station	3038
smith	3039
ease	3040
jon	3041
ted	3042
##ament	3043
scar	3044
tradition	3045
migrant	3046
driv	3047
ni	3048
favour	3049
nig	3050
popul	3051
gas	3052
kick	3053
##eria	3054
study	3055
ukrainian	3056
mount	3057
medic	3058
families	3059
fill	3060
lay	3061
blood	3062
mal	3063
arrive	3064
storm	3065
carri	3066
chester	3067
ord	3068
##xic	3069
div	3070
flation	3071
answer	3072
##mas	3073
chel	3074
##onder	3075
climat	3076
teen	3077
drink	3078
christmas	3079
memor	3080
##68	3081
##ka	3082
burn	3083
vil	3084
complain	3085
progress	3086
mel	3087
acy	3088
flor	3089
discover	3090
culture	3091
##aly	3092
sky	3093
intro	3094
pull	3095
80	3096
beach	3097
bor	3098
brita	3099
ships	3100
giving	3101
para	3102
africa	3103
##a9	3104
##ential	3105
trip	3106
hair	3107
mac	3108
cop	3109
##fort	3110
hat	3111
##isl	3112
teach	3113
comfort	3114
##ally	3115
promise	3116
ko	3117
anim	3118
loved	3119
sleep	3120
##itor	3121
weap	3122
draw	3123
weapon	3124
row	3125
excit	3126
oh	3127
##umb	3128
poor	3129
contract	3130
##emic	3131
attorn	3132
attorney	3133
natur	3134
##70	3135
##75	3136
##ham	3137
ram	3138
##65	3139
coast	3140
plant	3141
##fer	3142
rating	3143
slow	3144
##omb	3145
199	3146
battle	3147
gain	3148
##bert	3149
natural	3150
rival	3151
##48	3152
estab	3153
crisis	3154
##cle	3155
legisl	3156
tribute	3157
bott	3158
##irt	3159
trade	3160
engage	3161
##64	3162
paul	3163
standard	3164
bon	3165
##ght	3166
agency	3167
multipl	3168
dream	3169
ren	3170
mag	3171
site	3172
cry	3173
pin	3174
##ael	3175
compet	3176
regular	3177
conflic	3178
collect	3179
olog	3180
establish	3181
spread	3182
soft	3183
voice	3184
truggle	3185
ky	3186
tu	3187
wonder	3188
##ess	3189
factor	3190
named	3191
##ris	3192
lation	3193
##na	3194
letter	3195
tim	3196
prosecut	3197
##ndred	3198
content	3199
hundred	3200
weather	3201
ney	3202
sell	3203
arch	3204
##dict	3205
stream	3206
standing	3207
28	3208
mp	3209
##nect	3210
rough	3211
##iel	3212
connect	3213
aware	3214
determin	3215
profession	3216
ordin	3217
regard	3218
practic	3219
yard	3220
cook	3221
carry	3222
associate	3223
date	3224
nav	3225
##f9	3226
respect	3227
##ste	3228
solution	3229
repeat	3230
ya	3231
mas	3232
##lace	3233
michael	3234
pitch	3235
bey	3236
wester	3237
contact	3238
replace	3239
western	3240
baby	3241
##ffic	3242
##pm	3243
##bt	3244
issu	3245
corn	3246
sched	3247
reflect	3248
29	3249
estimat	3250
bowl	3251
##uth	3252
warm	3253
hap	3254
posit	3255
truck	3256
ances	3257
award	3258
facilit	3259
bridge	3260
##ove	3261
recover	3262
kam	3263
vet	3264
##c0	3265
##c5	3266
##ara	3267
mental	3268
suspect	3269
gard	3270
fix	3271
gin	3272
production	3273
cow	3274
lang	3275
##78	3276
artist	3277
craft	3278
##ung	3279
effective	3280
migration	3281
digital	3282
##olut	3283
emotion	3284
alter	3285
terror	3286
original	3287
beh	3288
necess	3289
retire	3290
sat	3291
appearance	3292
jap	3293
##\"	3294
##ily	3295
##sen	3296
sector	3297
lan	3298
ught	3299
ves	3300
##69	3301
##do	3302
ality	3303
maint	3304
2025	3305
camera	3306
specific	3307
maintain	3308
##ceed	3309
profit	3310
settle	3311
die	3312
absolut	3313
##yer	3314
throw	3315
ily	3316
##b5	3317
##luence	3318
built	3319
secure	3320
surpri	3321
influence	3322
surprise	3323
mob	3324
particip	3325
japan	3326
.,	3327
620	3328
=\"	3329
hunt	3330
##aur	3331
poke	3332
scottish	3333
fox	3334
winner	3335
445	3336
gro	3337
convers	3338
rose	3339
schedul	3340
sentence	3341
normal	3342
insp	3343
reme	3344
inspir	3345
mum	3346
pir	3347
fell	3348
605	3349
payment	3350
##izen	3351
sort	3352
citizen	3353
ming	3354
ncy	3355
attention	3356
":[{"	3357
prett	3358
historic	3359
tin	3360
wit	3361
##d0	3362
##ize	3363
nigeria	3364
\"	3365
fish	3366
ana	3367
physical	3368
kore	3369
generation	3370
korea	3371
ov	3372
sight	3373
##itive	3374
encou	3375
300	3376
cash	3377
professional	3378
alex	3379
stad	3380
whe	3381
oc	3382
justice	3383
deni	3384
ara	3385
era	3386
shire	3387
fle	3388
defeat	3389
opt	3390
email	3391
electric	3392
##quest	3393
au	3394
above	3395
pand	3396
##stain	3397
ita	3398
fat	3399
tik	3400
request	3401
nel	3402
--	3403
rank	3404
separ	3405
separat	3406
##ney	3407
trength	3408
mix	3409
##ood	3410
bag	3411
conference	3412
##cu	3413
liver	3414
##app	3415
abuse	3416
ification	3417
partie	3418
apple	3419
village	3420
defin	3421
corp	3422
##yl	3423
fuel	3424
lad	3425
##mit	3426
dance	3427
##7b	3428
pi	3429
begin	3430
ray	3431
##irst	3432
##me	3433
2016	3434
intell	3435
essential	3436
ub	3437
webs	3438
active	3439
constit	3440
statu	3441
website	3442
mic	3443
ency	3444
":{"	3445
apart	3446
tay	3447
##73	3448
contain	3449
robert	3450
lied	3451
lawyer	3452
fine	3453
abort	3454
convict	3455
##omm	3456
harm	3457
makers	3458
athle	3459
introduc	3460
advance	3461
restaur	3462
tough	3463
sustain	3464
rap	3465
##ogn	3466
recogn	3467
surve	3468
related	3469
nat	3470
inn	3471
90	3472
fly	3473
##79	3474
illeg	3475
illegal	3476
andre	3477
fortun	3478
yo	3479
##ya	3480
ala	3481
corre	3482
afford	3483
charged	3484
##ake	3485
##br	3486
##ging	3487
##vert	3488
shift	3489
adult	3490
flu	3491
bum	3492
sir	3493
garden	3494
##light	3495
conne	3496
##ef	3497
ibility	3498
threat	3499
scri	3500
##ida	3501
location	3502
restaurant	3503
dark	3504
tory	3505
god	3506
placed	3507
putin	3508
penn	3509
!"	3510
##ced	3511
batter	3512
priorit	3513
oci	3514
alone	3515
demon	3516
bling	3517
wish	3518
##ify	3519
assault	3520
color	3521
mari	3522
kept	3523
2018	3524
dad	3525
highlight	3526
##pub	3527
sup	3528
sym	3529
inj	3530
imm	3531
closed	3532
##publish	3533
impress	3534
famous	3535
bay	3536
sey	3537
><	3538
##first	3539
mach	3540
predict	3541
indic	3542
surv	3543
blockfirst	3544
##published	3545
blockfirstpublished	3546
appoint	3547
len	3548
##e9	3549
grant	3550
remark	3551
delay	3552
obvi	3553
fighting	3554
mill	3555
rid	3556
stu	3557
quad	3558
fresh	3559
##fc	3560
##42	3561
exact	3562
annual	3563
martin	3564
##bd	3565
enger	3566
jew	3567
gh	3568
nh	3569
##43	3570
##tok	3571
##go	3572
cab	3573
floor	3574
bomb	3575
reform	3576
boost	3577
lined	3578
tiktok	3579
threaten	3580
tree	3581
ah	3582
pod	3583
deg	3584
mexic	3585
ash	3586
##work	3587
domin	3588
ip	3589
dev	3590
network	3591
florida	3592
gate	3593
##come	3594
##ling	3595
lake	3596
festival	3597
iving	3598
arr	3599
center	3600
elected	3601
welcome	3602
injure	3603
gent	3604
mail	3605
70	3606
wag	3607
district	3608
vic	3609
analy	3610
speed	3611
recall	3612
31	3613
cies	3614
version	3615
temper	3616
nt	3617
stress	3618
brown	3619
spend	3620
ki	3621
##force	3622
smart	3623
scored	3624
rang	3625
zone	3626
bull	3627
surviv	3628
vent	3629
dar	3630
doll	3631
tayl	3632
gm	3633
tip	3634
##urch	3635
nic	3636
##82	3637
contest	3638
rick	3639
boss	3640
ric	3641
##usion	3642
gy	3643
facing	3644
ators	3645
missile	3646
crash	3647
squ	3648
epis	3649
witness	3650
pandemic	3651
##ieve	3652
spring	3653
wan	3654
ancing	3655
label	3656
ociety	3657
ast	3658
cold	3659
gender	3660
episode	3661
ok	3662
cool	3663
agent	3664
georgi	3665
guilt	3666
journey	3667
behav	3668
ending	3669
rev	3670
ongo	3671
kin	3672
##ful	3673
queen	3674
##ape	3675
lift	3676
elling	3677
pad	3678
church	3679
drone	3680
debt	3681
audience	3682
jer	3683
lie	3684
##enty	3685
doubt	3686
shut	3687
beauti	3688
##50	3689
fem	3690
##4b	3691
trad	3692
##ization	3693
organization	3694
lies	3695
wing	3696
##c9	3697
prove	3698
jen	3699
attract	3700
nick	3701
##date	3702
update	3703
jail	3704
wale	3705
pak	3706
cream	3707
swift	3708
debut	3709
bid	3710
##able	3711
bear	3712
lev	3713
rent	3714
century	3715
winter	3716
##imin	3717
gri	3718
inner	3719
recomm	3720
kamala	3721
recommend	3722
ning	3723
##eb	3724
##nel	3725
wave	3726
##3d	3727
##olog	3728
advise	3729
##fb	3730
holding	3731
psy	3732
engine	3733
pun	3734
##_5	3735
##erate	3736
loan	3737
imag	3738
english	3739
modern	3740
juries	3741
angerous	3742
negot	3743
rh	3744
insist	3745
amazon	3746
straight	3747
traditional	3748
langu	3749
##ona	3750
flood	3751
dub	3752
##cue	3753
affa	3754
##ashion	3755
affair	3756
fuse	3757
fashion	3758
##nic	3759
manu	3760
rative	3761
bol	3762
lou	3763
sing	3764
scale	3765
fif	3766
eventual	3767
writer	3768
ites	3769
degree	3770
dish	3771
chat	3772
##olf	3773
luck	3774
balance	3775
ker	3776
bell	3777
jump	3778
pac	3779
solve	3780
intellig	3781
cus	3782
cient	3783
##1a	3784
chi	3785
carol	3786
construct	3787
universi	3788
journalist	3789
ku	3790
lic	3791
female	3792
32	3793
ones	3794
##quir	3795
putt	3796
brain	3797
favor	3798
writing	3799
combin	3800
demonst	3801
##f2	3802
prosecutor	3803
sister	3804
difference	3805
occur	3806
##cri	3807
##ural	3808
wil	3809
stick	3810
izing	3811
khan	3812
ncies	3813
##lare	3814
stood	3815
restrict	3816
mir	3817
##],"	3818
mun	3819
disp	3820
expand	3821
jones	3822
declare	3823
enforce	3824
scape	3825
contrib	3826
earth	3827
plane	3828
profess	3829
spective	3830
micro	3831
ww	3832
istic	3833
married	3834
##a2	3835
##fd	3836
##e2	3837
tourn	3838
trail	3839
tournament	3840
topped	3841
tag	3842
consist	3843
language	3844
frame	3845
trou	3846
committed	3847
2017	3848
intens	3849
reb	3850
boat	3851
##uci	3852
occasion	3853
bul	3854
nice	3855
doz	3856
cloth	3857
wi	3858
##nal	3859
reject	3860
rail	3861
berg	3862
subject	3863
encourage	3864
36	3865
tan	3866
haven	3867
applic	3868
extend	3869
choos	3870
\">	3871
##472	3872
aries	3873
write	3874
colour	3875
constitution	3876
##ker	3877
truth	3878
college	3879
##round	3880
arsen	3881
surround	3882
penal	3883
cheme	3884
arsenal	3885
ci	3886
chic	3887
troop	3888
proud	3889
##istan	3890
command	3891
ballot	3892
pension	3893
##zz	3894
pros	3895
skill	3896
connection	3897
pakistan	3898
raise	3899
flow	3900
obs	3901
horr	3902
nut	3903
##lim	3904
article	3905
dome	3906
index	3907
##wa	3908
hern	3909
reserv	3910
cultural	3911
catch	3912
mine	3913
brief	3914
rac	3915
cel	3916
tas	3917
ense	3918
laugh	3919
dry	3920
mont	3921
gather	3922
survey	3923
gor	3924
rum	3925
##ass	3926
##46	3927
tool	3928
stated	3929
traffic	3930
infra	3931
multi	3932
##inc	3933
allies	3934
guide	3935
retail	3936
window	3937
tack	3938
aged	3939
print	3940
48	3941
##action	3942
adam	3943
rescue	3944
strict	3945
mayor	3946
mike	3947
paint	3948
rod	3949
flag	3950
eek	3951
##oul	3952
chang	3953
ferred	3954
daniel	3955
gam	3956
rity	3957
##hib	3958
wealth	3959
trend	3960
talent	3961
##67	3962
##pper	3963
cere	3964
mater	3965
ow	3966
##c2	3967
material	3968
fee	3969
bright	3970
##hibit	3971
gall	3972
kel	3973
og	3974
##isc	3975
dollar	3976
lord	3977
##of	3978
confide	3979
captain	3980
soldier	3981
55	3982
##1b	3983
hav	3984
admitted	3985
lla	3986
##e8	3987
prof	3988
qui	3989
url	3990
49	3991
lash	3992
##ucle	3993
motor	3994
33	3995
##ria	3996
ack	3997
##c4	3998
user	3999
supply	4000
surf	4001
listen	4002
99	4003
##cise	4004
##racy	4005
logical	4006
ocracy	4007
nucle	4008
spl	4009
divers	4010
##quent	4011
fortunate	4012
ique	4013
cru	4014
ware	4015
achieve	4016
ically	4017
colleague	4018
fellow	4019
intelligence	4020
ard	4021
ginning	4022
rub	4023
vin	4024
ester	4025
nuclear	4026
mort	4027
crew	4028
labor	4029
##ons	4030
lyn	4031
correct	4032
fare	4033
mist	4034
tle	4035
wise	4036
##fact	4037
##ali	4038
minor	4039
nas	4040
##lad	4041
ultimate	4042
semi	4043
stuff	4044
##31	4045
alli	4046
resource	4047
gram	4048
flat	4049
starmer	4050
broke	4051
breaking	4052
broadcast	4053
eq	4054
ged	4055
##lam	4056
definite	4057
##arian	4058
lee	4059
esh	4060
wedd	4061
00	4062
##oph	4063
african	4064
glass	4065
lam	4066
ization	4067
##anyah	4068
netanyah	4069
bond	4070
odd	4071
ility	4072
rush	4073
##ero	4074
ress	4075
ens	4076
chain	4077
mand	4078
joy	4079
committ	4080
ception	4081
transp	4082
switch	4083
kenn	4084
committee	4085
bound	4086
ox	4087
##hi	4088
##roy	4089
musk	4090
hung	4091
sant	4092
##sea	4093
destroy	4094
chelsea	4095
arab	4096
ston	4097
##urb	4098
typical	4099
tee	4100
bru	4101
necessary	4102
psych	4103
ado	4104
maybe	4105
cities	4106
intend	4107
equal	4108
kate	4109
##now	4110
pose	4111
rah	4112
expos	4113
radio	4114
equip	4115
acknow	4116
gift	4117
##oo	4118
commer	4119
prompt	4120
##cul	4121
forest	4122
blow	4123
programme	4124
hid	4125
##bn	4126
assess	4127
ried	4128
##**	4129
##onent	4130
##chase	4131
feet	4132
##itten	4133
register	4134
gradu	4135
blame	4136
graph	4137
purchase	4138
bird	4139
46	4140
tight	4141
cancel	4142
written	4143
modi	4144
ville	4145
corner	4146
domestic	4147
eat	4148
lived	4149
planned	4150
route	4151
manufact	4152
manufactur	4153
code	4154
sequ	4155
transport	4156
mary	4157
complex	4158
conservative	4159
##cket	4160
goog	4161
teacher	4162
ay	4163
toda	4164
##isation	4165
liber	4166
note	4167
contra	4168
dismi	4169
##ago	4170
organisation	4171
veter	4172
dismiss	4173
##ube	4174
chicago	4175
cerem	4176
dict	4177
##usive	4178
credible	4179
neighbor	4180
37	4181
io	4182
##ron	4183
sco	4184
minim	4185
implement	4186
richard	4187
llah	4188
google	4189
##8a	4190
##zer	4191
##pping	4192
clar	4193
keeping	4194
udd	4195
frank	4196
entertain	4197
34	4198
kim	4199
ade	4200
integ	4201
altern	4202
crack	4203
burgh	4204
42	4205
##etic	4206
##edon	4207
clin	4208
lux	4209
bath	4210
medal	4211
giant	4212
mexico	4213
observ	4214
>\	4215
##van	4216
disapp	4217
clark	4218
refu	4219
disappoint	4220
ery	4221
##iment	4222
##unk	4223
##emb	4224
object	4225
male	4226
pil	4227
tter	4228
##cis	4229
##ni	4230
shape	4231
francis	4232
weak	4233
cruci	4234
broken	4235
insur	4236
##6b	4237
##orate	4238
plenty	4239
consult	4240
honest	4241
louis	4242
ii	4243
raj	4244
sweet	4245
luc	4246
##74	4247
isation	4248
veteran	4249
39	4250
sitt	4251
##d9	4252
offensive	4253
dipl	4254
arti	4255
guest	4256
sitting	4257
diploma	4258
mouth	4259
assemb	4260
2015	4261
hurt	4262
trouble	4263
',	4264
##ob	4265
##d5	4266
##e0	4267
##inion	4268
governor	4269
opinion	4270
opponent	4271
athlete	4272
eg	4273
muse	4274
museum	4275
coal	4276
hole	4277
cycle	4278
encing	4279
load	4280
asset	4281
##noon	4282
bour	4283
##c3	4284
ital	4285
##imb	4286
nes	4287
hero	4288
root	4289
afternoon	4290
kei	4291
##aps	4292
transform	4293
itarian	4294
##adow	4295
##opt	4296
upon	4297
marg	4298
capture	4299
maker	4300
chris	4301
horse	4302
##last	4303
mann	4304
www	4305
pound	4306
ino	4307
##ating	4308
##raw	4309
##gend	4310
##ada	4311
remind	4312
##acit	4313
pala	4314
vacc	4315
udden	4316
ji	4317
legend	4318
task	4319
jet	4320
pm	4321
itude	4322
adopt	4323
lative	4324
##6a	4325
gov	4326
joke	4327
cheap	4328
scribe	4329
nbc	4330
##dated	4331
##creat	4332
##so	4333
thoma	4334
##olk	4335
blocklast	4336
blockcreat	4337
advoc	4338
##updated	4339
ction	4340
blocklastupdated	4341
blockcreatedon	4342
cart	4343
ez	4344
hang	4345
pensive	4346
should	4347
meth	4348
draft	4349
neighbour	4350
jim	4351
za	4352
ition	4353
anth	4354
tend	4355
cell	4356
detect	4357
swim	4358
pic	4359
ral	4360
##cb	4361
##let	4362
disrupt	4363
soci	4364
rator	4365
kat	4366
vid	4367
##fl	4368
bert	4369
classic	4370
activity	4371
##_2	4372
##antage	4373
##ilities	4374
advantage	4375
square	4376
59	4377
75	4378
nur	4379
finance	4380
imagine	4381
sara	4382
atl	4383
scr	4384
38	4385
##_35	4386
cher	4387
uni	4388
breath	4389
approve	4390
marriage	4391
cath	4392
math	4393
tam	4394
tha	4395
christian	4396
mistake	4397
fant	4398
tance	4399
matt	4400
drag	4401
sequence	4402
ira	4403
##atic	4404
transfer	4405
capacit	4406
strip	4407
split	4408
vul	4409
##77	4410
##pose	4411
tear	4412
appre	4413
earl	4414
promote	4415
purpose	4416
collaps	4417
podcast	4418
vaccin	4419
core	4420
##ffe	4421
ager	4422
length	4423
##]}	4424
pirit	4425
negoti	4426
lor	4427
nd	4428
cease	4429
feed	4430
monitor	4431
twe	4432
clip	4433
ivity	4434
gon	4435
kil	4436
medi	4437
fraud	4438
bottom	4439
gang	4440
rene	4441
##84	4442
##abo	4443
liter	4444
prospect	4445
bio	4446
reli	4447
collabo	4448
castle	4449
mim	4450
tir	4451
##ledge	4452
willing	4453
aggress	4454
knock	4455
direction	4456
appropri	4457
constant	4458
snow	4459
singh	4460
acknowledge	4461
140	4462
##59	4463
leban	4464
braz	4465
locate	4466
lebanon	4467
din	4468
jay	4469
suppl	4470
rations	4471
##e3	4472
2014	4473
stret	4474
beauty	4475
tension	4476
wer	4477
amb	4478
collection	4479
ibly	4480
compete	4481
##8b	4482
accident	4483
transition	4484
hir	4485
nu	4486
##ky	4487
##za	4488
lean	4489
plus	4490
emph	4491
function	4492
nish	4493
##hol	4494
##ell	4495
chip	4496
peg	4497
quote	4498
categ	4499
py	4500
ami	4501
italian	4502
stretch	4503
nath	4504
##au	4505
fake	4506
invite	4507
regional	4508
dun	4509
nik	4510
studio	4511
hate	4512
apolog	4513
surger	4514
profile	4515
surgery	4516
neck	4517
trick	4518
drama	4519
confident	4520
bang	4521
ette	4522
47	4523
rt	4524
##63	4525
bei	4526
shadow	4527
sab	4528
grew	4529
steph	4530
bh	4531
mut	4532
islam	4533
moon	4534
attrib	4535
bench	4536
therap	4537
wake	4538
pregn	4539
flix	4540
##nov	4541
glas	4542
fused	4543
atlan	4544
65	4545
cu	4546
youth	4547
esca	4548
bos	4549
cricket	4550
changing	4551
##2a	4552
infect	4553
innov	4554
surface	4555
ride	4556
carl	4557
suppose	4558
forecast	4559
communication	4560
sharp	4561
renew	4562
##reg	4563
waste	4564
##ipp	4565
warr	4566
##itchen	4567
guardian	4568
ceremony	4569
bin	4570
bot	4571
zel	4572
##iour	4573
##ercise	4574
exercise	4575
meal	4576
behaviour	4577
appropriate	4578
400	4579
kitchen	4580
trap	4581
subs	4582
%.	4583
wine	4584
##dc	4585
sher	4586
mah	4587
##e4	4588
itv	4589
faith	4590
joint	4591
handle	4592
##81	4593
frust	4594
tail	4595
relig	4596
truggling	4597
bonus	4598
ubst	4599
analyst	4600
stan	4601
##ism	4602
chu	4603
##illi	4604
exam	4605
elector	4606
mates	4607
channel	4608
tackle	4609
golf	4610
hree	4611
##3a	4612
##ising	4613
shirt	4614
ambit	4615
resign	4616
120	4617
jul	4618
theat	4619
##igan	4620
tab	4621
presence	4622
irish	4623
isast	4624
ung	4625
kee	4626
brazil	4627
cn	4628
ging	4629
vac	4630
erty	4631
alco	4632
notice	4633
panel	4634
alcohol	4635
nfl	4636
wrap	4637
##arily	4638
stance	4639
fold	4640
reading	4641
solid	4642
regulation	4643
stances	4644
novel	4645
josh	4646
violent	4647
clinic	4648
44	4649
lief	4650
ug	4651
##iar	4652
##ino	4653
anna	4654
curren	4655
suspend	4656
cientist	4657
attribute	4658
sens	4659
tank	4660
##e6	4661
2000	4662
princ	4663
indicate	4664
emphas	4665
princip	4666
pel	4667
##uit	4668
reaction	4669
beth	4670
meg	4671
worry	4672
bodies	4673
honor	4674
nda	4675
yan	4676
web	4677
bron	4678
buck	4679
achiev	4680
insurance	4681
rafa	4682
excl	4683
luxu	4684
vulner	4685
dor	4686
gow	4687
umm	4688
wat	4689
##anch	4690
##icated	4691
lap	4692
proceed	4693
empor	4694
manda	4695
gap	4696
onic	4697
trig	4698
adj	4699
##guard	4700
wound	4701
##draw	4702
withdraw	4703
lew	4704
section	4705
fab	4706
boot	4707
assum	4708
charl	4709
ignor	4710
villa	4711
emporary	4712
mcc	4713
##3_	4714
lov	4715
peak	4716
boe	4717
guar	4718
></	4719
ck	4720
hom	4721
theor	4722
crown	4723
refer	4724
bottle	4725
excel	4726
2012	4727
elli	4728
guarant	4729
##23	4730
##ola	4731
dram	4732
admit	4733
dal	4734
abilities	4735
tact	4736
deploy	4737
150	4738
adapt	4739
mobile	4740
categor	4741
pott	4742
##air	4743
ani	4744
also	4745
brook	4746
quiet	4747
refuge	4748
guarantee	4749
kit	4750
lion	4751
}]}	4752
##orse	4753
##utch	4754
clusion	4755
clash	4756
"},"	4757
silver	4758
lau	4759
cogn	4760
ros	4761
ural	4762
concl	4763
covi	4764
maxim	4765
conclude	4766
##d4	4767
##zona	4768
##val	4769
arizona	4770
method	4771
trigger	4772
outs	4773
prize	4774
desti	4775
##ew	4776
##b4	4777
##gment	4778
##utor	4779
ical	4780
studi	4781
intention	4782
easily	4783
wheel	4784
por	4785
tum	4786
##syl	4787
##wh	4788
carb	4789
client	4790
recru	4791
divid	4792
pennsyl	4793
##vania	4794
recruit	4795
pennsylvania	4796
##oon	4797
##ena	4798
##inct	4799
enh	4800
advert	4801
grab	4802
shots	4803
praise	4804
spin	4805
simon	4806
cious	4807
cbs	4808
lis	4809
nan	4810
temp	4811
terr	4812
bask	4813
valu	4814
dod	4815
##f6	4816
enhance	4817
vast	4818
wicket	4819
hell	4820
frequent	4821
flex	4822
##f4	4823
##13	4824
##thern	4825
northern	4826
pledge	4827
commercial	4828
##ula	4829
wick	4830
fruit	4831
ski	4832
muslim	4833
signal	4834
jean	4835
snap	4836
routine	4837
egg	4838
ms	4839
ures	4840
chick	4841
desir	4842
brad	4843
600	4844
oce	4845
tens	4846
##57	4847
lib	4848
deput	4849
invasion	4850
palm	4851
technic	4852
generate	4853
michigan	4854
rapid	4855
.)	4856
##ssin	4857
alys	4858
syd	4859
amend	4860
install	4861
circum	4862
alysis	4863
##rate	4864
##ota	4865
helter	4866
fc	4867
strange	4868
explos	4869
negat	4870
##room	4871
elig	4872
grace	4873
jeff	4874
jr	4875
##d6	4876
diet	4877
reci	4878
swing	4879
##bai	4880
recognise	4881
folk	4882
##acy	4883
coin	4884
jose	4885
greg	4886
shake	4887
hyd	4888
##iff	4889
##ypt	4890
##pet	4891
verse	4892
crypt	4893
cond	4894
syn	4895
distance	4896
identify	4897
sanction	4898
assassin	4899
kenned	4900
egypt	4901
cade	4902
##29	4903
bourne	4904
eb	4905
jas	4906
ison	4907
##set	4908
##olution	4909
notes	4910
bak	4911
disney	4912
metre	4913
oppose	4914
competitive	4915
ocean	4916
pit	4917
##ki	4918
##76	4919
shore	4920
##udi	4921
closure	4922
xi	4923
##tic	4924
coffe	4925
brilli	4926
occup	4927
scoring	4928
mountain	4929
ology	4930
coffee	4931
brilliant	4932
dh	4933
prefer	4934
grown	4935
metro	4936
figh	4937
##ray	4938
emma	4939
fighter	4940
pp	4941
rot	4942
endorse	4943
igate	4944
43	4945
nba	4946
yn	4947
atory	4948
##ghan	4949
science	4950
racing	4951
accom	4952
kur	4953
edin	4954
##rian	4955
loy	4956
afghan	4957
spok	4958
holders	4959
basket	4960
sydney	4961
spoken	4962
##c8	4963
tok	4964
tries	4965
##ified	4966
planet	4967
lating	4968
salt	4969
##cussion	4970
dramatic	4971
vital	4972
##e1	4973
ingham	4974
##race	4975
chart	4976
las	4977
ledge	4978
41	4979
##f3	4980
##million	4981
cock	4982
ica	4983
belong	4984
magic	4985
tuck	4986
##ront	4987
reut	4988
react	4989
alert	4990
tel	4991
reuters	4992
%,	4993
gal	4994
jar	4995
sick	4996
upset	4997
aga	4998
pace	4999
kev	5000
vega	5001
confront	5002
virus	5003
virgin	5004
cine	5005
wire	5006
##d8	5007
hay	5008
align	5009
thrill	5010
colon	5011
familiar	5012
desper	5013
##guardian	5014
cri	5015
##arm	5016
ches	5017
mega	5018
tai	5019
quot	5020
antic	5021
geo	5022
barr	5023
avi	5024
dyn	5025
theguardian	5026
##icide	5027
residen	5028
250	5029
ideal	5030
##ronic	5031
pilot	5032
desperate	5033
residency	5034
gala	5035
tz	5036
##ium	5037
##ador	5038
gop	5039
##elm	5040
pers	5041
climb	5042
regime	5043
steel	5044
convention	5045
origin	5046
keeper	5047
seed	5048
shell	5049
pt	5050
forget	5051
ancy	5052
traum	5053
corrupt	5054
riot	5055
drew	5056
package	5057
62	5058
##gage	5059
yout	5060
aband	5061
plot	5062
passion	5063
possess	5064
viral	5065
ifying	5066
mortgage	5067
abandon	5068
fas	5069
leak	5070
stein	5071
honour	5072
punish	5073
##whelm	5074
gil	5075
tol	5076
##anda	5077
addi	5078
rug	5079
illa	5080
carbon	5081
youtube	5082
zero	5083
##ny	5084
formal	5085
##duction	5086
nathan	5087
adjust	5088
lewis	5089
potted	5090
08	5091
ax	5092
chance	5093
saudi	5094
coop	5095
moham	5096
syria	5097
davi	5098
rocket	5099
cott	5100
fro	5101
##000_	5102
##esh	5103
lands	5104
iron	5105
0_1	5106
54	5107
hide	5108
##nis	5109
rog	5110
appl	5111
optim	5112
ich	5113
##96	5114
perman	5115
comput	5116
fami	5117
permanent	5118
66	5119
pale	5120
##01	5121
caption	5122
anne	5123
eastern	5124
volv	5125
specu	5126
engineer	5127
ot	5128
##ան	5129
raid	5130
quit	5131
ու	5132
##tan	5133
exhibit	5134
pray	5135
2010	5136
virt	5137
combat	5138
walz	5139
shoulder	5140
}]},{"	5141
kan	5142
##28	5143
##orrow	5144
tow	5145
exit	5146
plu	5147
acting	5148
istan	5149
diag	5150
contributor	5151
stephen	5152
haw	5153
map	5154
slam	5155
summar	5156
riety	5157
ultra	5158
milk	5159
ze	5160
##ander	5161
inquir	5162
ennis	5163
##sel	5164
awa	5165
patri	5166
3500	5167
hub	5168
belief	5169
batt	5170
dates	5171
usa	5172
proced	5173
##ptom	5174
##emn	5175
elimin	5176
anni	5177
obtain	5178
organise	5179
symptom	5180
condemn	5181
procedure	5182
lane	5183
yu	5184
ander	5185
##ado	5186
acad	5187
indus	5188
icit	5189
flower	5190
calm	5191
equit	5192
##cedent	5193
ummit	5194
crypto	5195
nail	5196
sar	5197
tig	5198
##e7	5199
cept	5200
jess	5201
58	5202
tat	5203
##1c	5204
##iss	5205
itor	5206
pric	5207
2008	5208
ek	5209
##rial	5210
magn	5211
lip	5212
rape	5213
anton	5214
qualify	5215
lets	5216
ficial	5217
lent	5218
zo	5219
thu	5220
2011	5221
delight	5222
immun	5223
rell	5224
cloud	5225
capit	5226
numer	5227
contrast	5228
jord	5229
ua	5230
bett	5231
keen	5232
concert	5233
motion	5234
ohio	5235
exclusive	5236
jordan	5237
52	5238
edicated	5239
habit	5240
conce	5241
abu	5242
approval	5243
diagno	5244
pour	5245
pier	5246
##9b	5247
##ioned	5248
mentioned	5249
taste	5250
chef	5251
counsel	5252
convince	5253
franch	5254
cution	5255
mit	5256
##ulous	5257
##antic	5258
moor	5259
overwhelm	5260
impl	5261
impose	5262
cheer	5263
arian	5264
yellow	5265
##onym	5266
roman	5267
regulator	5268
vow	5269
##gent	5270
stro	5271
##inger	5272
##amic	5273
entry	5274
string	5275
reference	5276
iness	5277
candal	5278
rebel	5279
eliminat	5280
09	5281
dj	5282
##ting	5283
onent	5284
promo	5285
valle	5286
cutting	5287
ture	5288
##llor	5289
hag	5290
##secut	5291
contr	5292
obama	5293
inspect	5294
tactic	5295
chancellor	5296
73	5297
ain	5298
rin	5299
voc	5300
##gra	5301
export	5302
submit	5303
ologist	5304
gym	5305
finger	5306
gay	5307
tine	5308
tensive	5309
shr	5310
coh	5311
reput	5312
grave	5313
surpr	5314
detain	5315
defensive	5316
borrow	5317
therapy	5318
surprising	5319
##4a	5320
dian	5321
##iza	5322
instruct	5323
plead	5324
kov	5325
native	5326
uine	5327
choc	5328
##itect	5329
plastic	5330
asyl	5331
tony	5332
##acu	5333
riff	5334
hopper	5335
architect	5336
zelens	5337
isaster	5338
asylum	5339
##kh	5340
##zi	5341
##isan	5342
brut	5343
pho	5344
blast	5345
motiv	5346
robin	5347
mobil	5348
700	5349
tie	5350
rela	5351
religious	5352
***	5353
shi	5354
eva	5355
eco	5356
credib	5357
meta	5358
gotten	5359
franchise	5360
credibly	5361
kir	5362
##yn	5363
##resh	5364
##umn	5365
cos	5366
span	5367
branch	5368
elev	5369
interv	5370
internal	5371
stadium	5372
arrange	5373
aggressive	5374
hale	5375
vlad	5376
compl	5377
##licate	5378
2013	5379
igator	5380
shoe	5381
industrial	5382
omorrow	5383
aved	5384
##91	5385
edit	5386
outfit	5387
ication	5388
casual	5389
(£	5390
toy	5391
##ita	5392
mash	5393
empt	5394
mond	5395
bedroom	5396
alliance	5397
72	5398
horn	5399
arena	5400
speaker	5401
moral	5402
tunning	5403
fatal	5404
cul	5405
iest	5406
##f8	5407
esp	5408
evacu	5409
ional	5410
1990	5411
sugar	5412
chemical	5413
tweet	5414
capitol	5415
jac	5416
slo	5417
##pan	5418
chap	5419
soc	5420
urban	5421
breach	5422
slip	5423
guess	5424
hattan	5425
dodge	5426
zelensky	5427
bou	5428
rig	5429
##6c	5430
##led	5431
atm	5432
##isor	5433
##201	5434
##ricane	5435
advisor	5436
hurricane	5437
loyal	5438
relax	5439
bies	5440
gut	5441
nie	5442
pill	5443
uck	5444
##lig	5445
##rain	5446
##certain	5447
magaz	5448
contribution	5449
bure	5450
ott	5451
##vit	5452
##veil	5453
cong	5454
meat	5455
unveil	5456
visa	5457
michel	5458
recognize	5459
53	5460
mitch	5461
rier	5462
haul	5463
shel	5464
tepped	5465
creation	5466
termin	5467
##teer	5468
militant	5469
corporate	5470
minimum	5471
bust	5472
dies	5473
soph	5474
##va	5475
##unteer	5476
plain	5477
controvers	5478
volunteer	5479
mask	5480
controversial	5481
pix	5482
hack	5483
forc	5484
esc	5485
continent	5486
"}],"	5487
charging	5488
cruise	5489
ola	5490
##ciate	5491
##err	5492
hail	5493
sever	5494
amba	5495
bike	5496
piracy	5497
appreciate	5498
reputation	5499
ea	5500
alarm	5501
##ili	5502
trict	5503
plate	5504
agri	5505
trictly	5506
ile	5507
mala	5508
##gic	5509
cana	5510
kha	5511
madri	5512
tional	5513
graduate	5514
64	5515
loud	5516
beck	5517
narrow	5518
brutal	5519
61	5520
aire	5521
xy	5522
##ssador	5523
pocket	5524
asia	5525
flav	5526
pink	5527
soul	5528
##cious	5529
stag	5530
sters	5531
##imir	5532
##olat	5533
teal	5534
phase	5535
proved	5536
graphic	5537
chocolat	5538
ambassador	5539
dated	5540
zea	5541
alt	5542
outdo	5543
barb	5544
ella	5545
tiny	5546
diagnose	5547
outdoor	5548
nag	5549
##bol	5550
edward	5551
##lder	5552
shout	5553
sau	5554
notic	5555
uncertain	5556
tap	5557
assure	5558
regret	5559
troph	5560
oli	5561
divorce	5562
vladimir	5563
800	5564
890	5565
bone	5566
##47	5567
##55	5568
##2b	5569
spell	5570
accur	5571
##osis	5572
matic	5573
define	5574
embrace	5575
nurse	5576
kilo	5577
jaz	5578
tt	5579
##_3	5580
deleg	5581
cole	5582
emil	5583
evast	5584
rand	5585
patter	5586
drawn	5587
slide	5588
evastating	5589
##_4	5590
anonym	5591
lok	5592
##astic	5593
grass	5594
##phi	5595
chee	5596
navig	5597
].	5598
lg	5599
##_32	5600
toll	5601
buff	5602
##2099	5603
suburb	5604
solar	5605
##_3500	5606
fantastic	5607
file	5608
mol	5609
punch	5610
itzer	5611
dez	5612
liqu	5613
una	5614
tes	5615
dominate	5616
dispu	5617
dynamic	5618
51	5619
rol	5620
##ooth	5621
ena	5622
pov	5623
icon	5624
##ansa	5625
luke	5626
symbol	5627
assembl	5628
cia	5629
ft	5630
lunch	5631
##6d	5632
##b1	5633
##sue	5634
foster	5635
twin	5636
smooth	5637
pursue	5638
cooper	5639
##61	5640
##wart	5641
##ja	5642
thick	5643
cham	5644
butter	5645
ross	5646
twist	5647
1240	5648
1210	5649
inher	5650
anda	5651
abb	5652
##ortion	5653
brush	5654
relat	5655
fundament	5656
cyber	5657
collective	5658
athletic	5659
santa	5660
fundamental	5661
dp	5662
rw	5663
ridge	5664
##ps	5665
reh	5666
lem	5667
caution	5668
##ody	5669
beaten	5670
ethio	5671
($	5672
="	5673
pas	5674
ini	5675
##see	5676
abc	5677
bail	5678
knee	5679
matth	5680
craz	5681
pollut	5682
omeb	5683
layer	5684
constitutional	5685
hawk	5686
atmos	5687
omebody	5688
5472	5689
ff	5690
lance	5691
mere	5692
rus	5693
chill	5694
guid	5695
reader	5696
anthony	5697
pregnant	5698
warrant	5699
##c1	5700
##38	5701
##icious	5702
sud	5703
boast	5704
halt	5705
beij	5706
tant	5707
roof	5708
indict	5709
addict	5710
regist	5711
conscious	5712
hamp	5713
meters	5714
effic	5715
tesla	5716
ml	5717
##rew	5718
arth	5719
iff	5720
bloom	5721
retain	5722
lett	5723
logue	5724
mirror	5725
84	5726
lime	5727
##erve	5728
##ternal	5729
saint	5730
speci	5731
remote	5732
senator	5733
glad	5734
virtual	5735
cord	5736
##b2	5737
tea	5738
mony	5739
grate	5740
compens	5741
1980	5742
shaw	5743
68	5744
bury	5745
cute	5746
eag	5747
gging	5748
lid	5749
##b8	5750
##vere	5751
.""	5752
resum	5753
commod	5754
posing	5755
musical	5756
killer	5757
lining	5758
script	5759
xiety	5760
matthew	5761
hint	5762
ng	5763
},"	5764
thor	5765
error	5766
##rol	5767
kansa	5768
rit	5769
iscussion	5770
sack	5771
spir	5772
brave	5773
iscussions	5774
fisc	5775
kent	5776
pump	5777
vit	5778
##92	5779
proof	5780
partisan	5781
sheet	5782
bread	5783
breast	5784
skip	5785
aston	5786
subscri	5787
fiscal	5788
weigh	5789
lav	5790
excess	5791
scal	5792
eliza	5793
mium	5794
expans	5795
placing	5796
experiment	5797
170	5798
diagn	5799
ensitive	5800
diagnosis	5801
56	5802
95	5803
crib	5804
pile	5805
seal	5806
hook	5807
barg	5808
provision	5809
chamber	5810
cub	5811
pant	5812
##enia	5813
mau	5814
permit	5815
tragic	5816
inde	5817
helen	5818
armenia	5819
doug	5820
behavior	5821
ograph	5822
cheese	5823
ori	5824
reek	5825
hai	5826
ening	5827
##amin	5828
abd	5829
mech	5830
interact	5831
gene	5832
lessly	5833
smoke	5834
runner	5835
##osit	5836
##osite	5837
corr	5838
opposite	5839
fern	5840
embar	5841
alexander	5842
t20	5843
##inet	5844
flash	5845
##ladesh	5846
bangladesh	5847
dim	5848
lence	5849
nei	5850
suicide	5851
##phere	5852
venture	5853
magazine	5854
01	5855
78	5856
dust	5857
dutch	5858
ik	5859
##antial	5860
##ipate	5861
##ishi	5862
##emy	5863
knife	5864
benj	5865
admir	5866
levant	5867
computer	5868
rwanda	5869
aide	5870
##7c	5871
##lin	5872
rein	5873
consecut	5874
shin	5875
laur	5876
impe	5877
acqu	5878
boom	5879
##ifi	5880
blind	5881
metal	5882
cabinet	5883
pacifi	5884
valuable	5885
consecutive	5886
dol	5887
elder	5888
##bi	5889
##hl	5890
shan	5891
laid	5892
##pel	5893
sole	5894
nesota	5895
dale	5896
##load	5897
triking	5898
memo	5899
asp	5900
topic	5901
recipe	5902
57	5903
lung	5904
mou	5905
tall	5906
isa	5907
scent	5908
repair	5909
deposit	5910
slot	5911
styl	5912
ubstantial	5913
07	5914
fred	5915
gill	5916
ske	5917
tent	5918
##rimin	5919
toxic	5920
lace	5921
lind	5922
spons	5923
rav	5924
veget	5925
barn	5926
resto	5927
##252	5928
morgan	5929
float	5930
sponsor	5931
ace	5932
bil	5933
gear	5934
jere	5935
rut	5936
ramp	5937
rishi	5938
upgra	5939
1960	5940
ets	5941
promotion	5942
discipl	5943
eferr	5944
succeed	5945
solved	5946
principle	5947
academic	5948
bureau	5949
upgrade	5950
eferring	5951
kay	5952
ket	5953
##7f	5954
##he	5955
##ana	5956
rever	5957
concept	5958
izes	5959
util	5960
buyers	5961
glam	5962
gul	5963
ue	5964
##xt	5965
##owa	5966
sail	5967
resort	5968
kings	5969
flee	5970
liberal	5971
71	5972
iowa	5973
lone	5974
##line	5975
##եր	5976
##reh	5977
##pear	5978
disap	5979
1900	5980
##ocide	5981
testi	5982
shah	5983
tourism	5984
psycho	5985
dalla	5986
mechan	5987
disappear	5988
380	5989
##den	5990
noise	5991
marsh	5992
carr	5993
compreh	5994
genocide	5995
bush	5996
berry	5997
##409	5998
cycl	5999
radical	6000
emphasis	6001
("	6002
bing	6003
ech	6004
vp	6005
edition	6006
scen	6007
brun	6008
endra	6009
depress	6010
romantic	6011
sit	6012
##1d	6013
ank	6014
outrage	6015
roh	6016
bern	6017
##ounc	6018
volum	6019
circul	6020
eagle	6021
lum	6022
pup	6023
tale	6024
tier	6025
bee	6026
##utin	6027
##sess	6028
sham	6029
argent	6030
scrap	6031
obsess	6032
480	6033
beng	6034
ei	6035
eve	6036
fitt	6037
sid	6038
tang	6039
##pre	6040
haiti	6041
whis	6042
chant	6043
lah	6044
mack	6045
pause	6046
harass	6047
grade	6048
urging	6049
obst	6050
nominate	6051
astro	6052
scrutin	6053
cognition	6054
krem	6055
pia	6056
##dca	6057
##rass	6058
##olic	6059
allen	6060
acquir	6061
complicate	6062
assert	6063
mode	6064
corona	6065
2009	6066
pixel	6067
atmosphere	6068
!!	6069
##ու	6070
thom	6071
##illip	6072
cake	6073
contex	6074
disord	6075
##iction	6076
indig	6077
phillip	6078
steven	6079
copy	6080
explosion	6081
anticipate	6082
context	6083
disorder	6084
gp	6085
gand	6086
hr	6087
vince	6088
##df7	6089
##atar	6090
ingred	6091
unpre	6092
1970	6093
blank	6094
muscle	6095
stair	6096
latter	6097
tics	6098
##86d	6099
ahm	6100
##cedented	6101
gandhi	6102
ingredient	6103
unprecedented	6104
##gar	6105
##ար	6106
tower	6107
heal	6108
conven	6109
sci	6110
idence	6111
##ifest	6112
##179	6113
hyp	6114
ologies	6115
sauce	6116
embarrass	6117
dart	6118
##rom	6119
##d2	6120
##8c	6121
##gi	6122
thin	6123
lakh	6124
manifest	6125
offend	6126
evan	6127
communic	6128
intim	6129
efficient	6130
bengal	6131
660	6132
vy	6133
wisc	6134
##rance	6135
thumb	6136
boo	6137
marin	6138
oblig	6139
democratic	6140
gins	6141
##onsin	6142
await	6143
patriot	6144
wisconsin	6145
67	6146
agh	6147
dc	6148
kr	6149
pear	6150
qatar	6151
tive	6152
toile	6153
##ins	6154
eron	6155
dee	6156
neath	6157
peer	6158
fault	6159
grid	6160
berlin	6161
advent	6162
burg	6163
morris	6164
":[],"	6165
toilet	6166
>,	6167
hart	6168
hrew	6169
merg	6170
nerv	6171
##rition	6172
##old	6173
##849	6174
leon	6175
convert	6176
worn	6177
agon	6178
triple	6179
belt	6180
proportion	6181
##bby	6182
rumour	6183
merging	6184
##bf	6185
##otic	6186
##otte	6187
nest	6188
suffic	6189
cable	6190
dock	6191
mood	6192
bry	6193
exploit	6194
turk	6195
silence	6196
theatre	6197
charlotte	6198
lauren	6199
sufficient	6200
")	6201
780	6202
hone	6203
mall	6204
pul	6205
tort	6206
reduction	6207
ened	6208
##imp	6209
resist	6210
crore	6211
smok	6212
deport	6213
duo	6214
##392	6215
##668	6216
necessarily	6217
mumbai	6218
bullet	6219
ensu	6220
bargain	6221
740	6222
gig	6223
vel	6224
##8ce	6225
libr	6226
dose	6227
soar	6228
##astro	6229
visible	6230
1300	6231
##umbia	6232
slamm	6233
stroke	6234
expansion	6235
05	6236
ead	6237
kal	6238
sate	6239
utt	6240
wet	6241
zing	6242
##stit	6243
##llite	6244
stall	6245
hire	6246
such	6247
prohibit	6248
diff	6249
fier	6250
grad	6251
portray	6252
distrib	6253
sweep	6254
catholic	6255
liquid	6256
satellite	6257
dirt	6258
pd	6259
sad	6260
ually	6261
wich	6262
##fy	6263
hey	6264
##adel	6265
baker	6266
sovere	6267
columbia	6268
2006	6269
blend	6270
jake	6271
theatr	6272
eadline	6273
sovereign	6274
860	6275
rash	6276
sist	6277
##aa	6278
##xit	6279
eric	6280
concent	6281
racial	6282
ici	6283
assy	6284
##phy	6285
bash	6286
ignit	6287
funny	6288
troll	6289
kiss	6290
intervention	6291
980	6292
bald	6293
eager	6294
yield	6295
##arat	6296
hip	6297
mock	6298
donor	6299
distinct	6300
philipp	6301
inherit	6302
##4d	6303
##3b	6304
##_0_	6305
thy	6306
trav	6307
attach	6308
nether	6309
gross	6310
exami	6311
persist	6312
netherland	6313
bounc	6314
oak	6315
pson	6316
tick	6317
##nap	6318
topping	6319
##itter	6320
##stal	6321
##cend	6322
enth	6323
alam	6324
shine	6325
external	6326
courage	6327
brow	6328
cheat	6329
calcul	6330
philadel	6331
nutrition	6332
examine	6333
comprehens	6334
?'	6335
dash	6336
pitt	6337
tone	6338
##_36	6339
alban	6340
chen	6341
button	6342
2026	6343
clusive	6344
lateral	6345
treas	6346
##_5472	6347
##01a9	6348
accurate	6349
##_3283	6350
##_5472_3283	6351
lated	6352
upper	6353
wol	6354
zu	6355
inch	6356
##ird	6357
arc	6358
tape	6359
acre	6360
evolution	6361
##inton	6362
charm	6363
blink	6364
experi	6365
russell	6366
invent	6367
stern	6368
kidnap	6369
bless	6370
affirm	6371
philadelphi	6372
jab	6373
oon	6374
pure	6375
rice	6376
##km	6377
##pret	6378
stem	6379
neil	6380
ark	6381
contend	6382
##emp	6383
demo	6384
1140	6385
2004	6386
murphy	6387
reasonable	6388
pipe	6389
liberate	6390
dragon	6391
cribing	6392
sistance	6393
lice	6394
rip	6395
sri	6396
wen	6397
weird	6398
raz	6399
phen	6400
##ugu	6401
1000	6402
circl	6403
license	6404
wipe	6405
posed	6406
74	6407
torn	6408
##che	6409
raw	6410
clinton	6411
##quate	6412
ruin	6413
smell	6414
depth	6415
musician	6416
practical	6417
innoc	6418
adequate	6419
dit	6420
piv	6421
##_6	6422
##raid	6423
afraid	6424
compos	6425
buzz	6426
visual	6427
brexit	6428
clock	6429
judgment	6430
glor	6431
tune	6432
gentle	6433
jenni	6434
racist	6435
scope	6436
applied	6437
cens	6438
##54	6439
haz	6440
confe	6441
shed	6442
loom	6443
herita	6444
grey	6445
##ratul	6446
woke	6447
juic	6448
christoph	6449
burst	6450
funeral	6451
ferr	6452
nique	6453
congratul	6454
nervous	6455
rence	6456
rama	6457
ual	6458
##upt	6459
##way	6460
theft	6461
##inge	6462
##etoric	6463
hike	6464
##eree	6465
vert	6466
##stery	6467
qualified	6468
brew	6469
2005	6470
associ	6471
mexican	6472
rhetoric	6473
06	6474
ystery	6475
iture	6476
##celo	6477
eras	6478
pav	6479
faction	6480
decla	6481
barcelo	6482
distress	6483
froze	6484
iciency	6485
hong	6486
oo	6487
vine	6488
##fill	6489
##53	6490
##rum	6491
##mo	6492
helic	6493
erupt	6494
deem	6495
next	6496
loose	6497
poet	6498
bold	6499
foss	6500
grat	6501
comprom	6502
assign	6503
moderate	6504
legit	6505
referee	6506
iev	6507
santi	6508
trauma	6509
pivot	6510
compromis	6511
az	6512
rant	6513
wre	6514
ան	6515
inject	6516
heath	6517
enorm	6518
lac	6519
##opter	6520
erson	6521
##agree	6522
supplement	6523
jane	6524
burden	6525
glen	6526
ctor	6527
currency	6528
fabric	6529
helicopter	6530
bump	6531
mies	6532
nit	6533
vard	6534
zoo	6535
init	6536
tott	6537
##ario	6538
chand	6539
neuro	6540
partial	6541
disagree	6542
decent	6543
vik	6544
meter	6545
##spond	6546
2007	6547
empower	6548
easing	6549
equent	6550
ova	6551
correspond	6552
ubstance	6553
charli	6554
81	6555
ale	6556
gb	6557
ncing	6558
yl	6559
zen	6560
##mat	6561
abad	6562
##umph	6563
encoura	6564
thai	6565
fossil	6566
%)	6567
iya	6568
vene	6569
##ein	6570
##wl	6571
##pa	6572
revel	6573
forth	6574
##using	6575
bach	6576
spoon	6577
##ipul	6578
soap	6579
knight	6580
phar	6581
drill	6582
viet	6583
payer	6584
##viet	6585
creator	6586
disturb	6587
illust	6588
productive	6589
romance	6590
immers	6591
jenn	6592
lemon	6593
bub	6594
pig	6595
till	6596
wy	6597
wim	6598
zz	6599
##ora	6600
##omen	6601
coat	6602
pride	6603
dip	6604
diam	6605
stell	6606
panic	6607
bitter	6608
radi	6609
given	6610
auction	6611
emphasize	6612
escal	6613
76	6614
bun	6615
f1	6616
jd	6617
oz	6618
oka	6619
tile	6620
tical	6621
neut	6622
prol	6623
carpet	6624
soviet	6625
intercept	6626
desk	6627
instant	6628
greet	6629
intr	6630
inevit	6631
drove	6632
ache	6633
fortune	6634
cant	6635
gav	6636
kath	6637
oreg	6638
rio	6639
toma	6640
ona	6641
seek	6642
rag	6643
electronic	6644
tenant	6645
felon	6646
jewel	6647
echo	6648
scenario	6649
phenomen	6650
oregon	6651
aar	6652
ore	6653
pian	6654
tus	6655
##gian	6656
reign	6657
##isive	6658
laughter	6659
perpet	6660
boil	6661
bren	6662
gray	6663
grim	6664
crush	6665
minster	6666
interior	6667
interpret	6668
extension	6669
drum	6670
tunnel	6671
negotiate	6672
dick	6673
ius	6674
lig	6675
nap	6676
nab	6677
##px	6678
fried	6679
maid	6680
lia	6681
exha	6682
exceed	6683
cruel	6684
##eneur	6685
fede	6686
diab	6687
sweat	6688
seller	6689
fleet	6690
birds	6691
occupied	6692
totten	6693
69	6694
fusing	6695
nod	6696
och	6697
pine	6698
vada	6699
##crimin	6700
##3f	6701
##pass	6702
iscrimin	6703
pepper	6704
hammer	6705
angle	6706
expression	6707
medicine	6708
flavour	6709
confess	6710
encouraging	6711
iscrimination	6712
fusion	6713
mick	6714
ou	6715
ruth	6716
sla	6717
atic	6718
##ighten	6719
poster	6720
harb	6721
##izon	6722
horizon	6723
treasury	6724
diamond	6725
aj	6726
bb	6727
fiction	6728
nich	6729
tint	6730
án	6731
##bo	6732
##ancy	6733
rez	6734
##repr	6735
##iculous	6736
erik	6737
quant	6738
entrepr	6739
bund	6740
protein	6741
empire	6742
circu	6743
sentiment	6744
pregnancy	6745
joseph	6746
nichol	6747
entrepreneur	6748
ece	6749
nin	6750
pc	6751
vig	6752
wrest	6753
yem	6754
##a8	6755
##b7	6756
##ximate	6757
##jan	6758
iser	6759
##olar	6760
cann	6761
gau	6762
vibr	6763
simps	6764
nazi	6765
approximate	6766
liner	6767
hyper	6768
silience	6769
catastro	6770
tumble	6771
accompan	6772
yemen	6773
catastroph	6774
hugh	6775
##fere	6776
##ole	6777
##ye	6778
##gb	6779
##uting	6780
sem	6781
imper	6782
pole	6783
roe	6784
diss	6785
##ilege	6786
interfere	6787
skirt	6788
instrum	6789
valid	6790
drain	6791
privilege	6792
tributing	6793
jacket	6794
crisp	6795
accompl	6796
jacob	6797
lgbt	6798
ography	6799
neutral	6800
instrument	6801
79	6802
hug	6803
lick	6804
mud	6805
patch	6806
piz	6807
wolf	6808
zy	6809
##wal	6810
ane	6811
susp	6812
orbit	6813
coup	6814
bride	6815
uries	6816
kenya	6817
destruct	6818
grocer	6819
lady	6820
ghost	6821
mutual	6822
fasc	6823
1990s	6824
aaron	6825
a4	6826
dump	6827
nak	6828
##ski	6829
##ery	6830
##itz	6831
##itan	6832
##rel	6833
##roll	6834
chal	6835
shield	6836
unc	6837
advers	6838
amp	6839
oversee	6840
formula	6841
presum	6842
ili	6843
transaction	6844
infl	6845
satis	6846
lgbtq	6847
foul	6848
kane	6849
sor	6850
ula	6851
##lar	6852
##icion	6853
chase	6854
leb	6855
shy	6856
aber	6857
##ume	6858
teas	6859
##ives	6860
##istic	6861
desert	6862
##bell	6863
intent	6864
duck	6865
uls	6866
austria	6867
navigate	6868
1980s	6869
exhaust	6870
89	6871
gur	6872
gib	6873
ix	6874
##1f	6875
todd	6876
##itle	6877
cafe	6878
##usia	6879
20th	6880
2030	6881
holl	6882
moist	6883
entitle	6884
lessness	6885
symp	6886
gabr	6887
##308	6888
utter	6889
junio	6890
sensor	6891
registr	6892
enthusia	6893
pharma	6894
sympath	6895
gabriel	6896
enthusiast	6897
cale	6898
mam	6899
porn	6900
sink	6901
tain	6902
zi	6903
##di	6904
##con	6905
##zue	6906
##itar	6907
##ima	6908
lago	6909
orch	6910
cope	6911
ifies	6912
gran	6913
cli	6914
click	6915
##cession	6916
bloc	6917
mull	6918
steam	6919
worthy	6920
yeah	6921
robust	6922
ctv	6923
lahoma	6924
##zuela	6925
82	6926
83	6927
rb	6928
##b9	6929
##entic	6930
ero	6931
libe	6932
##asm	6933
poly	6934
schu	6935
pati	6936
authentic	6937
licence	6938
vocal	6939
accompanied	6940
ald	6941
dent	6942
##cf	6943
##col	6944
##b3	6945
##sin	6946
thro	6947
##enn	6948
whit	6949
shade	6950
abi	6951
##ript	6952
lobby	6953
mare	6954
crop	6955
breed	6956
syrian	6957
swap	6958
treasure	6959
hanna	6960
welsh	6961
crystal	6962
rolled	6963
],	6964
azer	6965
lon	6966
oral	6967
twenty	6968
scholar	6969
vote	6970
..."	6971
insid	6972
ution	6973
absor	6974
surveil	6975
revolution	6976
motivate	6977
1970s	6978
innocent	6979
63	6980
kash	6981
und	6982
##e40	6983
leice	6984
##ulate	6985
##shire	6986
harsh	6987
ecl	6988
30pm	6989
2001	6990
2002	6991
audio	6992
1997	6993
rodri	6994
kelce	6995
ahmed	6996
intimid	6997
escalate	6998
leicester	6999
bly	7000
rib	7001
##eb0	7002
##98	7003
theater	7004
inh	7005
##alu	7006
##ctu	7007
deck	7008
##imer	7009
conc	7010
cousin	7011
trill	7012
spice	7013
evolve	7014
polish	7015
##nold	7016
classified	7017
hindu	7018
voy	7019
descript	7020
ronald	7021
riding	7022
ugal	7023
distribution	7024
77	7025
biz	7026
hil	7027
lank	7028
ներ	7029
##700	7030
forg	7031
ises	7032
sacri	7033
ampl	7034
phra	7035
asi	7036
##acular	7037
furth	7038
duk	7039
##ivalent	7040
khar	7041
equivalent	7042
walt	7043
regulate	7044
shutter	7045
rebound	7046
fic	7047
igh	7048
pg	7049
##fol	7050
##dic	7051
##eera	7052
##8f	7053
##here	7054
##hetic	7055
##vid	7056
chronic	7057
nell	7058
rack	7059
entrance	7060
guitar	7061
##licit	7062
endure	7063
explicit	7064
tern	7065
dawn	7066
stepping	7067
glow	7068
execution	7069
inaugu	7070
##187	7071
tali	7072
spray	7073
melt	7074
professor	7075
##baijan	7076
honey	7077
azerbaijan	7078
##ko	7079
##anc	7080
arity	7081
teh	7082
bact	7083
##ipse	7084
polar	7085
flour	7086
queens	7087
titan	7088
nicol	7089
nicola	7090
munition	7091
jazeera	7092
discipline	7093
eclipse	7094
bish	7095
ced	7096
od	7097
yank	7098
##ssex	7099
sussex	7100
acle	7101
proven	7102
naut	7103
craig	7104
2003	7105
##fici	7106
benefici	7107
ethnic	7108
tiff	7109
lamb	7110
bronze	7111
rehab	7112
whisk	7113
adventure	7114
fierce	7115
venezuela	7116
bishop	7117
900	7118
augh	7119
##52	7120
##e22	7121
##7a	7122
##900	7123
##bre	7124
##etch	7125
liv	7126
##ulpt	7127
plum	7128
sculpt	7129
griev	7130
##ivan	7131
awful	7132
lawful	7133
##bean	7134
holm	7135
pleasur	7136
iii	7137
suspicion	7138
aberd	7139
02	7140
hd	7141
hush	7142
oven	7143
ss	7144
##arre	7145
ando	7146
hes	7147
heel	7148
dear	7149
ched	7150
poison	7151
##pton	7152
brick	7153
rapper	7154
cara	7155
preserve	7156
1999	7157
helm	7158
##ifle	7159
fulfill	7160
stewart	7161
napp	7162
eta	7163
distract	7164
statistic	7165
captiv	7166
##267	7167
alien	7168
memoir	7169
bf	7170
hud	7171
lun	7172
##rit	7173
##e30	7174
thus	7175
reck	7176
bean	7177
chop	7178
noth	7179
clair	7180
sheer	7181
triumph	7182
gab	7183
refresh	7184
streak	7185
etitor	7186
substit	7187
##80e	7188
insula	7189
trop	7190
structur	7191
kohl	7192
gorge	7193
elevate	7194
abbott	7195
thorough	7196
accomplish	7197
bizarre	7198
!'	7199
240	7200
88	7201
87	7202
ela	7203
gel	7204
hp	7205
##oni	7206
##ception	7207
anch	7208
##sequent	7209
comed	7210
exception	7211
arrow	7212
spo	7213
acted	7214
flame	7215
mug	7216
deten	7217
opera	7218
##f56	7219
##333	7220
physic	7221
ubsequent	7222
glasses	7223
explosive	7224
ption	7225
traumat	7226
cycling	7227
phrase	7228
bacteria	7229
exceptional	7230
ubsequently	7231
):	7232
.-	7233
bc	7234
bite	7235
dna	7236
mul	7237
vas	7238
##aa5	7239
##eff	7240
##bury	7241
##ina	7242
##ete	7243
##ira	7244
fry	7245
esco	7246
quin	7247
incen	7248
##inkle	7249
guin	7250
consent	7251
awk	7252
hampton	7253
reliev	7254
swiss	7255
illino	7256
tenure	7257
soccer	7258
aspir	7259
comedian	7260
illinois	7261
gw	7262
gem	7263
sd	7264
##ón	7265
maha	7266
tender	7267
##asur	7268
ador	7269
tak	7270
hock	7271
rook	7272
scient	7273
logist	7274
##redit	7275
##109	7276
tors	7277
titled	7278
educate	7279
grip	7280
commerce	7281
uniform	7282
ndar	7283
passionate	7284
awkward	7285
scientific	7286
tide	7287
vor	7288
wig	7289
yea	7290
##han	7291
##llivan	7292
hei	7293
iso	7294
erie	7295
fri	7296
sullivan	7297
ory	7298
lodge	7299
allah	7300
mes	7301
measur	7302
pron	7303
nose	7304
emo	7305
myst	7306
##estra	7307
autumn	7308
column	7309
campbell	7310
depict	7311
intimate	7312
##806	7313
yorkshire	7314
bankrupt	7315
volunt	7316
##7b6	7317
devast	7318
orchestra	7319
130	7320
91	7321
dual	7322
lump	7323
tub	7324
##4e	7325
tooth	7326
whip	7327
shiv	7328
##rific	7329
butt	7330
bab	7331
quake	7332
carib	7333
ouri	7334
vibe	7335
dealer	7336
horrific	7337
nsw	7338
ordinator	7339
liest	7340
luca	7341
caribbean	7342
92	7343
cb	7344
cum	7345
ucl	7346
##389	7347
topp	7348
##aret	7349
stain	7350
lyric	7351
lever	7352
leather	7353
coul	7354
mentor	7355
vey	7356
mature	7357
##176	7358
borough	7359
ordinate	7360
tempo	7361
gregor	7362
devastate	7363
dil	7364
dame	7365
##rd	7366
##mble	7367
##stapp	7368
##ctacular	7369
lend	7370
##olish	7371
pectacular	7372
incumb	7373
verstapp	7374
decor	7375
relent	7376
cheek	7377
penny	7378
fantas	7379
frustrate	7380
mcca	7381
incumbent	7382
verstappen	7383
86	7384
;-	7385
fert	7386
jin	7387
mm	7388
##f44	7389
##d85	7390
hab	7391
stab	7392
hem	7393
enemy	7394
leap	7395
marc	7396
myth	7397
grill	7398
twitter	7399
##ought	7400
endous	7401
betray	7402
oph	7403
drought	7404
retali	7405
annou	7406
##608	7407
ello	7408
lui	7409
taxi	7410
##192	7411
subsi	7412
fertil	7413
stabil	7414
98	7415
aint	7416
bha	7417
kra	7418
##f1	7419
##639	7420
thresh	7421
##rete	7422
phy	7423
ida	7424
blog	7425
helpful	7426
bras	7427
proto	7428
prise	7429
issa	7430
valent	7431
serb	7432
connell	7433
conventional	7434
brows	7435
wreck	7436
absorb	7437
forgive	7438
threshold	7439
dow	7440
fum	7441
gle	7442
kl	7443
ras	7444
##c78	7445
##credit	7446
##ua	7447
##_1	7448
onia	7449
shark	7450
pes	7451
compound	7452
compass	7453
elicious	7454
phob	7455
urv	7456
etz	7457
merce	7458
massa	7459
benn	7460
hya	7461
kara	7462
juror	7463
flew	7464
persu	7465
legitimate	7466
seeker	7467
moistur	7468
concrete	7469
180	7470
96	7471
mba	7472
wow	7473
##8e5	7474
editor	7475
##rog	7476
alo	7477
cave	7478
manipul	7479
interrupt	7480
drunk	7481
bara	7482
bias	7483
serge	7484
##1782	7485
immense	7486
weaken	7487
torture	7488
reckon	7489
urvival	7490
);	7491
fract	7492
rance	7493
##7_	7494
semit	7495
##rior	7496
brig	7497
ican	7498
warrior	7499
##ampment	7500
filter	7501
midst	7502
juan	7503
flaw	7504
encampment	7505
##111	7506
rhy	7507
hydro	7508
kovic	7509
communicate	7510
semitism	7511
03	7512
nack	7513
ud	7514
##a1	7515
##fice	7516
##9a0	7517
##orious	7518
reop	7519
mai	7520
libert	7521
org	7522
notorious	7523
perceive	7524
confuse	7525
cleve	7526
##ec6	7527
ular	7528
trem	7529
execute	7530
consumption	7531
1996	7532
relativ	7533
sacrifice	7534
anchor	7535
pronounce	7536
reopen	7537
gag	7538
ria	7539
tube	7540
##eor	7541
##2c3	7542
##zy	7543
##hood	7544
##_25	7545
##jri	7546
tout	7547
haunt	7548
whist	7549
##ingu	7550
lihood	7551
precise	7552
coca	7553
hog	7554
spur	7555
evalu	7556
paraly	7557
kejri	7558
icc	7559
ters	7560
surge	7561
curt	7562
blaze	7563
portfol	7564
holder	7565
glimp	7566
##1735	7567
jaw	7568
absent	7569
gium	7570
advertise	7571
concede	7572
impeach	7573
gulf	7574
whistle	7575
kejriwal	7576
portfolio	7577
glimpse	7578
"[	7579
6000	7580
93	7581
ae5	7582
bunch	7583
cree	7584
jad	7585
kum	7586
qa	7587
rc	7588
##988	7589
thou	7590
##ouse	7591
##icit	7592
dedic	7593
alv	7594
lope	7595
pok	7596
roast	7597
trait	7598
politan	7599
cliff	7600
endum	7601
extract	7602
modest	7603
##4088	7604
##71dca	7605
tenness	7606
##12_	7607
nomy	7608
##c91a	7609
ayo	7610
margaret	7611
aggression	7612
homer	7613
buster	7614
##inguish	7615
tennesse	7616
04	7617
>"	7618
cer	7619
jag	7620
##4_	7621
##6000_	7622
##_30	7623
##_18	7624
##_26	7625
##_33	7626
##_2099	7627
beef	7628
ith	7629
##olate	7630
bah	7631
idor	7632
##4032	7633
0_2	7634
0_15	7635
0_19	7636
0_83	7637
0_176	7638
restrain	7639
##fa73	7640
0_0_4	7641
0_0_5	7642
0_0_35	7643
##88e2	7644
premise	7645
##95c91a	7646
##6240	7647
renov	7648
intelli	7649
##4230	7650
##fbfa73	7651
##_55	7652
##e81735	7653
raja	7654
##c335	7655
##_21	7656
##3_8	7657
##57fbfa73	7658
##000_2	7659
0_189	7660
##20995	7661
##_3500_2099	7662
subscription	7663
##01a9806	7664
##eb0d	7665
rookie	7666
ae5e81735	7667
##71dca57fbfa73	7668
0_83_5472_3283	7669
##95c91a71dca57fbfa73	7670
##01a980695c91a71dca57fbfa73	7671
ae5e8173501a980695c91a71dca57fbfa73	7672
ae5e8173501a980695c91a71dca57fbfa7320995	7673
bart	7674
cad	7675
iola	7676
rifle	7677
witch	7678
yad	7679
##ae	7680
##6_	7681
rex	7682
stir	7683
isi	7684
isolate	7685
whil	7686
enact	7687
##igu	7688
brent	7689
rais	7690
eleg	7691
##acht	7692
bug	7693
conso	7694
irre	7695
petrol	7696
bharat	7697
principal	7698
whilst	7699
aa	7700
gest	7701
pip	7702
rie	7703
uv	7704
##rous	7705
##eer	7706
##c6	7707
##c7	7708
##vet	7709
forge	7710
mae	7711
##ulance	7712
##opp	7713
prede	7714
##uster	7715
ama	7716
impr	7717
##cessor	7718
##apore	7719
retro	7720
urg	7721
meteor	7722
droid	7723
christi	7724
0_0_15	7725
nigel	7726
90s	7727
singapore	7728
ambulance	7729
watt	7730
diabete	7731
predecessor	7732
cater	7733
gat	7734
nia	7735
nud	7736
exempt	7737
."</	7738
emir	7739
contemp	7740
tribe	7741
colomb	7742
##tend	7743
bother	7744
latino	7745
nova	7746
toro	7747
ituency	7748
##gged	7749
corpo	7750
ridiculous	7751
censor	7752
uncover	7753
colombia	7754
bik	7755
lud	7756
ock	7757
rwa	7758
հա	7759
##xi	7760
##ati	7761
haa	7762
upload	7763
polis	7764
crunch	7765
insult	7766
biolog	7767
4032	7768
0_0_8	7769
##celerate	7770
strand	7771
ultima	7772
minimal	7773
rides	7774
chuck	7775
6240	7776
pizza	7777
fen	7778
kon	7779
lloy	7780
rider	7781
##tra	7782
thrive	7783
inson	7784
hass	7785
wha	7786
worsen	7787
pea	7788
femin	7789
emi	7790
raven	7791
contamin	7792
guy	7793
##esthetic	7794
expi	7795
flip	7796
steer	7797
passage	7798
costa	7799
illy	7800
collin	7801
ranch	7802
hatter	7803
tani	7804
espn	7805
lloyd	7806
:</	7807
nca	7808
tup	7809
##51	7810
##bble	7811
stoke	7812
lawn	7813
cav	7814
ante	7815
propag	7816
cotton	7817
ankle	7818
substitute	7819
klopp	7820
ake	7821
font	7822
hm	7823
pow	7824
##alle	7825
acid	7826
accelerate	7827
mono	7828
myr	7829
trace	7830
potter	7831
judicial	7832
##ergus	7833
ivan	7834
dann	7835
embark	7836
straw	7837
introduction	7838
nuts	7839
agher	7840
1b	7841
ds	7842
fad	7843
fergus	7844
gage	7845
lug	7846
mb	7847
nvid	7848
ole	7849
sb	7850
tamp	7851
##5e	7852
##itable	7853
edd	7854
##less	7855
##uted	7856
wept	7857
caut	7858
adel	7859
pep	7860
spence	7861
spare	7862
##ffle	7863
##luc	7864
paralle	7865
highway	7866
surpass	7867
curb	7868
signific	7869
excuse	7870
jais	7871
prosper	7872
ppy	7873
phenomeno	7874
parallel	7875
significa	7876
cd	7877
dak	7878
gum	7879
gio	7880
nash	7881
nuel	7882
##sw	7883
oni	7884
alc	7885
##rait	7886
condo	7887
sake	7888
usi	7889
fool	7890
##fford	7891
mona	7892
clue	7893
ethic	7894
imagi	7895
religi	7896
djo	7897
nvidia	7898
bis	7899
iq	7900
loun	7901
zon	7902
ար	7903
##mar	7904
##թյ	7905
##oration	7906
ata	7907
wei	7908
##add	7909
1995	7910
retreat	7911
broker	7912
portrait	7913
defam	7914
##ificate	7915
certificate	7916
puzz	7917
umb	7918
corporation	7919
bolster	7920
ությ	7921
kirk	7922
ucker	7923
shelve	7924
gesture	7925
ncaa	7926
**	7927
aesthetic	7928
ior	7929
ick	7930
rone	7931
slu	7932
yang	7933
ía	7934
##com	7935
##7d	7936
##my	7937
##gust	7938
toss	7939
##ieg	7940
lender	7941
sew	7942
segment	7943
bagg	7944
paw	7945
whats	7946
cram	7947
crumb	7948
eleph	7949
expla	7950
norr	7951
brace	7952
ller	7953
requir	7954
silva	7955
terrify	7956
philo	7957
array	7958
scratch	7959
valuation	7960
yadav	7961
slug	7962
elephant	7963
5g	7964
hin	7965
hra	7966
rarily	7967
sno	7968
tm	7969
tong	7970
ակ	7971
##8f0	7972
tole	7973
reluc	7974
beg	7975
neo	7976
sep	7977
cass	7978
prelim	7979
pretend	7980
hoo	7981
spill	7982
disgust	7983
drome	7984
crook	7985
quel	7986
swin	7987
humili	7988
authorize	7989
cyc	7990
ulent	7991
osa	7992
tempt	7993
1998	7994
impression	7995
milli	7996
nto	7997
mahara	7998
colonial	7999
ում	8000
mitig	8001
1960s	8002
blanket	8003
initiate	8004
persuad	8005
97	8006
ditch	8007
gpt	8008
lt	8009
lith	8010
mourn	8011
nada	8012
pies	8013
si	8014
tb	8015
witt	8016
wool	8017
##mir	8018
##ել	8019
##isition	8020
leaf	8021
bobb	8022
marco	8023
190	8024
19th	8025
annoy	8026
illo	8027
infant	8028
washing	8029
motive	8030
torial	8031
kai	8032
borne	8033
devote	8034
thunder	8035
hawks	8036
acquisition	8037
cautious	8038
whatsapp	8039
(@	8040
jol	8041
kap	8042
ora	8043
##eve	8044
##gle	8045
thread	8046
erman	8047
lag	8048
robb	8049
fever	8050
formation	8051
elle	8052
utah	8053
##250	8054
merit	8055
susan	8056
jama	8057
neglect	8058
sleeve	8059
shrink	8060
ucky	8061
!!!	8062
aqu	8063
cular	8064
fy	8065
kitt	8066
mg	8067
##2f	8068
##ule	8069
##picious	8070
##oner	8071
##enix	8072
##thm	8073
shtra	8074
##unge	8075
doom	8076
taker	8077
plunge	8078
prising	8079
uspicious	8080
rox	8081
##ubb	8082
tyl	8083
belle	8084
1994	8085
sati	8086
griff	8087
49ers	8088
isastrous	8089
phoenix	8090
aldi	8091
imprison	8092
puzzl	8093
blu	8094
bian	8095
gol	8096
md	8097
rust	8098
zer	8099
##fight	8100
##uke	8101
##mph	8102
##որ	8103
##enz	8104
##anion	8105
eria	8106
##urd	8107
sect	8108
sul	8109
orange	8110
dos	8111
nos	8112
ema	8113
monu	8114
monarch	8115
companion	8116
sett	8117
grain	8118
bane	8119
##bec	8120
firefight	8121
damn	8122
beau	8123
1992	8124
bombard	8125
optimist	8126
urgency	8127
tupid	8128
aero	8129
bie	8130
cco	8131
kc	8132
mph	8133
##d3	8134
##borate	8135
##uk	8136
##enance	8137
stunt	8138
##iest	8139
cox	8140
priest	8141
acce	8142
clever	8143
freeze	8144
operative	8145
dys	8146
1993	8147
rico	8148
subscribe	8149
bubble	8150
rhythm	8151
owe	8152
pard	8153
wang	8154
ón	8155
##ones	8156
##atter	8157
reven	8158
##icip	8159
##vey	8160
lander	8161
bage	8162
baile	8163
evident	8164
incur	8165
ceased	8166
pha	8167
tyre	8168
1989	8169
##anger	8170
blair	8171
mcg	8172
flock	8173
audi	8174
absurd	8175
municip	8176
cruz	8177
oxy	8178
sophie	8179
convenience	8180
kashmir	8181
fracture	8182
revenge	8183
municipal	8184
.,""	8185
awe	8186
bt	8187
eason	8188
kle	8189
lur	8190
ufc	8191
uitable	8192
zam	8193
##fan	8194
##pora	8195
##vak	8196
##enge	8197
stack	8198
forum	8199
##iliate	8200
orth	8201
coco	8202
##ptic	8203
marine	8204
mik	8205
gee	8206
steep	8207
ava	8208
budd	8209
affiliate	8210
pathy	8211
pleasant	8212
behave	8213
arthy	8214
arthur	8215
liga	8216
vigil	8217
easonal	8218
..	8219
cork	8220
sama	8221
ui	8222
##eem	8223
##cies	8224
##8d	8225
##list	8226
##ato	8227
##aya	8228
##urg	8229
wauke	8230
wes	8231
sai	8232
loop	8233
20s	8234
coff	8235
tage	8236
ush	8237
deme	8238
bark	8239
intel	8240
171	8241
peters	8242
hybr	8243
samuel	8244
tatt	8245
random	8246
spirit	8247
dolph	8248
waukee	8249
hybrid	8250
hort	8251
kris	8252
nun	8253
pion	8254
##ration	8255
thame	8256
dement	8257
neu	8258
lipped	8259
proc	8260
trim	8261
tabb	8262
pest	8263
usive	8264
##ultane	8265
##agan	8266
descend	8267
berk	8268
simultane	8269
etic	8270
linger	8271
##ikh	8272
generative	8273
gunn	8274
##anean	8275
philip	8276
salv	8277
carriage	8278
owen	8279
refund	8280
appreci	8281
terranean	8282
hydr	8283
stellar	8284
usiasm	8285
accele	8286
dementia	8287
tabbing	8288
280	8289
cs	8290
rud	8291
riv	8292
##acer	8293
##kg	8294
##can	8295
##c95	8296
##ouch	8297
abduct	8298
exacer	8299
mea	8300
baba	8301
dio	8302
commence	8303
decisive	8304
##lica	8305
endanger	8306
mund	8307
uration	8308
izer	8309
barrel	8310
##ac0	8311
jee	8312
merch	8313
olympia	8314
nerve	8315
robber	8316
1991	8317
aux	8318
dictator	8319
inflict	8320
lounge	8321
tattoo	8322
spiritual	8323
pioneer	8324
exacerb	8325
b2	8326
gir	8327
sne	8328
ute	8329
vest	8330
##a4	8331
##21	8332
##uum	8333
ision	8334
delet	8335
convey	8336
##laim	8337
pox	8338
usc	8339
accent	8340
indones	8341
endo	8342
flick	8343
metric	8344
payne	8345
....	8346
blake	8347
swan	8348
balloon	8349
invad	8350
drift	8351
challenge	8352
inflam	8353
##255	8354
definition	8355
harmon	8356
disputed	8357
functional	8358
vacation	8359
vacuum	8360
catastrophic	8361
mamm	8362
indonesia	8363
inflamm	8364
""	8365
bam	8366
cig	8367
ika	8368
nint	8369
sala	8370
tally	8371
wyn	8372
yar	8373
##po	8374
thorn	8375
##itation	8376
##iterate	8377
reiterate	8378
alum	8379
lei	8380
condu	8381
nep	8382
tray	8383
herb	8384
rov	8385
robe	8386
rak	8387
gren	8388
##andr	8389
else	8390
plag	8391
vio	8392
10th	8393
invitation	8394
##605	8395
universal	8396
glove	8397
snake	8398
350	8399
scorer	8400
deterio	8401
ogue	8402
lynn	8403
convenient	8404
calculate	8405
aintenance	8406
pardon	8407
5c	8408
hul	8409
lus	8410
##for	8411
##336	8412
##ndit	8413
##alem	8414
##omi	8415
bend	8416
##cture	8417
dex	8418
wad	8419
shu	8420
seam	8421
maz	8422
##uli	8423
gos	8424
##lash	8425
usalem	8426
splash	8427
feud	8428
scatter	8429
britt	8430
cric	8431
wayne	8432
prescri	8433
keith	8434
##wegian	8435
##gering	8436
pundit	8437
##uggle	8438
##275	8439
memorial	8440
taggering	8441
obstruct	8442
prescription	8443
/@	8444
aur	8445
bent	8446
vamp	8447
##him	8448
##vise	8449
##erc	8450
reel	8451
rebec	8452
##ici	8453
hedge	8454
heighten	8455
enroll	8456
alg	8457
##ateur	8458
##usal	8459
mani	8460
replica	8461
suppress	8462
terra	8463
grapp	8464
third	8465
judi	8466
ferry	8467
encia	8468
juris	8469
timber	8470
tina	8471
vitamin	8472
dissent	8473
cigar	8474
hs	8475
nth	8476
rop	8477
եր	8478
##tion	8479
##atric	8480
beam	8481
beast	8482
##ami	8483
lec	8484
lecture	8485
cape	8486
##ardash	8487
amo	8488
peel	8489
evol	8490
trafford	8491
##emo	8492
commemo	8493
secur	8494
desp	8495
solicit	8496
completion	8497
##905	8498
##164	8499
aria	8500
hurdle	8501
epa	8502
nutri	8503
rubb	8504
uttar	8505
##ardashian	8506
cision	8507
fol	8508
kardashian	8509
luci	8510
oll	8511
##ull	8512
##ito	8513
bela	8514
stalk	8515
##ce5	8516
##ithm	8517
wander	8518
##rahim	8519
chile	8520
##olid	8521
hash	8522
racket	8523
acco	8524
finn	8525
idah	8526
clave	8527
claud	8528
teria	8529
callout	8530
consolid	8531
irrit	8532
patt	8533
militia	8534
ario	8535
lieu	8536
owski	8537
tailor	8538
piled	8539
tropical	8540
surgeon	8541
elegant	8542
1st	8543
160	8544
ient	8545
iye	8546
roth	8547
ull	8548
##fb5	8549
##4000	8550
##eu	8551
##tor	8552
##ped	8553
##oria	8554
reun	8555
pred	8556
##aint	8557
amor	8558
pap	8559
diary	8560
2028	8561
clif	8562
drown	8563
izers	8564
deserve	8565
chev	8566
nai	8567
fancy	8568
humble	8569
logo	8570
slim	8571
##322	8572
ivo	8573
volo	8574
beyond	8575
domini	8576
slovak	8577
ritual	8578
mechanic	8579
prolong	8580
ների	8581
powder	8582
dakota	8583
reunite	8584
cliffe	8585
deserved	8586
eater	8587
mild	8588
ré	8589
tire	8590
ura	8591
##fbb	8592
##03	8593
##ակ	8594
##att	8595
##stock	8596
lyon	8597
alloc	8598
##opard	8599
precedent	8600
plug	8601
monte	8602
apprent	8603
download	8604
barba	8605
sketch	8606
insta	8607
costume	8608
jude	8609
summon	8610
globe	8611
burger	8612
akh	8613
digest	8614
norman	8615
##650	8616
grove	8617
natali	8618
grind	8619
ckless	8620
fasci	8621
nagar	8622
paralymp	8623
apprentice	8624
94	8625
dug	8626
fd	8627
sou	8628
ugu	8629
vick	8630
##ía	8631
##inating	8632
##rect	8633
onc	8634
##cester	8635
sac	8636
sah	8637
trent	8638
trous	8639
amit	8640
rope	8641
divert	8642
rage	8643
clam	8644
strang	8645
harvest	8646
confine	8647
queue	8648
101	8649
leth	8650
12th	8651
patrol	8652
eties	8653
110	8654
172	8655
##305	8656
##898	8657
activate	8658
##f09	8659
guez	8660
alexandr	8661
fluid	8662
revive	8663
tween	8664
occupation	8665
slogan	8666
throat	8667
##ennial	8668
shutterstock	8669
biological	8670
demean	8671
intellect	8672
conductor	8673
trousers	8674
bm	8675
dimin	8676
jit	8677
uc	8678
##ii	8679
##ser	8680
##saf	8681
##án	8682
##jab	8683
reagan	8684
chad	8685
saka	8686
lob	8687
cauc	8688
##odate	8689
tah	8690
bog	8691
dispar	8692
mineral	8693
accomm	8694
iah	8695
##osi	8696
norwegian	8697
##209	8698
provoc	8699
##acle	8700
pedro	8701
18th	8702
jungle	8703
##833	8704
audit	8705
lynch	8706
therapist	8707
orient	8708
abdul	8709
fascinating	8710
elaborate	8711
spoil	8712
evaluate	8713
diminish	8714
caucus	8715
accommodate	8716
cze	8717
gn	8718
uro	8719
viv	8720
zak	8721
##8f7	8722
##arce	8723
##ania	8724
sto	8725
forens	8726
isle	8727
alph	8728
chlo	8729
comic	8730
yousaf	8731
tast	8732
##fe0	8733
##fe9	8734
##isticated	8735
ifa	8736
roone	8737
mara	8738
marry	8739
incarce	8740
scho	8741
uru	8742
surre	8743
stefan	8744
transit	8745
##603	8746
lincol	8747
13th	8748
tenn	8749
deepen	8750
##665	8751
##f51	8752
ordination	8753
constitute	8754
bolt	8755
exclude	8756
astonish	8757
voluntary	8758
ophisticated	8759
evolving	8760
forensic	8761
lincoln	8762
999	8763
dine	8764
gc	8765
gust	8766
horm	8767
tress	8768
եւ	8769
##47b	8770
##ries	8771
##210	8772
##37	8773
##xious	8774
##pone	8775
##ño	8776
##ley	8777
itch	8778
chy	8779
chor	8780
abh	8781
ardo	8782
cai	8783
ima	8784
peck	8785
roar	8786
grin	8787
trash	8788
cran	8789
cess	8790
verbal	8791
kean	8792
shef	8793
hara	8794
colo	8795
blond	8796
geon	8797
postpone	8798
curious	8799
somali	8800
subtle	8801
candle	8802
limb	8803
cardinal	8804
##142	8805
##756	8806
##750	8807
timo	8808
punjab	8809
rumor	8810
clinch	8811
##anche	8812
conceal	8813
cosm	8814
lavish	8815
obstacle	8816
hazard	8817
wrestle	8818
rehabilit	8819
valenti	8820
5m	8821
bate	8822
eur	8823
ila	8824
kro	8825
lly	8826
pient	8827
yacht	8828
##field	8829
##f89	8830
##cdd	8831
##und	8832
##gy	8833
##vail	8834
##jec	8835
stap	8836
##imu	8837
leverage	8838
laver	8839
meh	8840
##opa	8841
prevail	8842
immin	8843
mole	8844
mold	8845
##40f	8846
mush	8847
##acre	8848
avage	8849
tara	8850
tarv	8851
distinguish	8852
##155	8853
##326	8854
massacre	8855
##170	8856
21st	8857
fraser	8858
mali	8859
prioritise	8860
bulk	8861
\">\	8862
tighten	8863
sheriff	8864
tresses	8865
staple	8866
imminent	8867
crist	8868
dw	8869
ew	8870
gown	8871
gna	8872
his	8873
jh	8874
kas	8875
krist	8876
kolk	8877
nb	8878
nis	8879
nug	8880
nary	8881
wives	8882
##a6	8883
##fied	8884
##58	8885
##vas	8886
sten	8887
ert	8888
alle	8889
weed	8890
webb	8891
leo	8892
shep	8893
magu	8894
##esity	8895
monet	8896
soak	8897
johan	8898
bucket	8899
shein	8900
sheep	8901
sheikh	8902
goodby	8903
fitz	8904
##202	8905
obesity	8906
##daf	8907
instinct	8908
caps	8909
##601	8910
##ba3	8911
info	8912
burk	8913
##321	8914
##99c	8915
##850	8916
##884	8917
tracked	8918
ethical	8919
anima	8920
veto	8921
optic	8922
##794	8923
padd	8924
integration	8925
intervene	8926
skeptic	8927
satisfied	8928
goodbye	8929
8a	8930
aunt	8931
dial	8932
elo	8933
gad	8934
gie	8935
hri	8936
kier	8937
mitt	8938
##a7	8939
##f10	8940
##4ff	8941
##d15	8942
##c85	8943
##871	8944
##3b0	8945
##bu	8946
toast	8947
##incing	8948
hawa	8949
stubb	8950
stimu	8951
##igue	8952
logan	8953
cano	8954
pave	8955
rau	8956
quo	8957
cargo	8958
mina	8959
##formfield	8960
callum	8961
curl	8962
issipp	8963
historia	8964
ripping	8965
##1516	8966
convincing	8967
##395	8968
##44a	8969
aki	8970
##865	8971
sharif	8972
ovich	8973
marginal	8974
cognitive	8975
towel	8976
itories	8977
rella	8978
leonard	8979
hesit	8980
aspiration	8981
sneak	8982
calloutformfield	8983
hispan	8984
issippi	8985
>.	8986
cdc	8987
jal	8988
ocial	8989
soup	8990
zan	8991
այ	8992
##41	8993
##189	8994
##d40	8995
##cbc	8996
##iance	8997
rey	8998
stal	8999
stump	9000
stiff	9001
ato	9002
wager	9003
##rad	9004
chunk	9005
saf	9006
sas	9007
##umul	9008
cane	9009
scout	9010
conti	9011
accumul	9012
cement	9013
croat	9014
barri	9015
coroner	9016
huss	9017
radar	9018
jai	9019
vanish	9020
##e50	9021
##f087	9022
groom	9023
ipsw	9024
analyse	9025
libera	9026
faithful	9027
julian	9028
appliance	9029
spiral	9030
paralympic	9031
czech	9032
surrender	9033
ocialist	9034
ipswich	9035
295	9036
aer	9037
gt	9038
kab	9039
lp	9040
lamp	9041
olu	9042
rk	9043
rious	9044
vand	9045
##aed	9046
##600	9047
##rim	9048
##db5	9049
##2cc	9050
##7c5	9051
##3cc	9052
##այ	9053
##ji	9054
##orithm	9055
##ann	9056
anxious	9057
deduct	9058
##ede	9059
waver	9060
##ille	9061
shang	9062
suf	9063
arbit	9064
perf	9065
moil	9066
baum	9067
prit	9068
roo	9069
facial	9070
raf	9071
##berg	9072
gru	9073
commend	9074
mint	9075
cluster	9076
parole	9077
icot	9078
1950	9079
meme	9080
##da9	9081
##40b	9082
communist	9083
pedest	9084
duel	9085
##19b	9086
##661	9087
bribe	9088
##diction	9089
ceremoni	9090
launder	9091
rina	9092
escort	9093
intrigu	9094
plague	9095
algorithm	9096
jurisdiction	9097
hormone	9098
fid	9099
kul	9100
rous	9101
uri	9102
vie	9103
wrist	9104
##ae9	9105
##f14	9106
##db	9107
##eg	9108
##c89	9109
##c22	9110
##749	9111
##345	9112
##omp	9113
##llo	9114
stere	9115
heir	9116
weav	9117
##ightfor	9118
emmy	9119
scam	9120
rake	9121
carn	9122
trajec	9123
traightfor	9124
indul	9125
decorate	9126
apo	9127
flam	9128
retr	9129
finalist	9130
##be0	9131
11th	9132
450	9133
potato	9134
##90d	9135
tsun	9136
##e5d	9137
facul	9138
mpag	9139
##c0d	9140
dunn	9141
academy	9142
rigg	9143
stereo	9144
traightforward	9145
potatoes	9146
3000	9147
batch	9148
cata	9149
dough	9150
nord	9151
oid	9152
rl	9153
rim	9154
tart	9155
vs	9156
yog	9157
##ault	9158
##fcd	9159
##d35	9160
##e14	9161
ink	9162
ande	9163
stur	9164
seg	9165
caf	9166
mela	9167
affe	9168
spire	9169
ionist	9170
ente	9171
commute	9172
clan	9173
regain	9174
genetic	9175
blunt	9176
##207	9177
##izz	9178
##ac2	9179
crawl	9180
calor	9181
##351	9182
##353	9183
##ee5	9184
##103	9185
dama	9186
frey	9187
##122	9188
digit	9189
prima	9190
##341	9191
##d04	9192
iracle	9193
pelosi	9194
abund	9195
olli	9196
mpagne	9197
1m	9198
eira	9199
hilar	9200
kaz	9201
má	9202
pist	9203
zar	9204
##aea	9205
##f65	9206
##434	9207
##rh	9208
##e20	9209
##e24	9210
##385	9211
##_10	9212
recession	9213
atro	9214
heft	9215
ano	9216
enberg	9217
laud	9218
orb	9219
spik	9220
marath	9221
trac	9222
daunt	9223
menopa	9224
##ab0	9225
##358	9226
##101	9227
##907	9228
etti	9229
serial	9230
falcon	9231
##bb6	9232
##393	9233
##62b	9234
##f96	9235
##73a	9236
ghan	9237
##1a3	9238
dispo	9239
ambi	9240
frost	9241
utton	9242
tornado	9243
stirr	9244
tongue	9245
predator	9246
alpha	9247
hawaii	9248
hilarious	9249
marathon	9250
0a	9251
cort	9252
fent	9253
lal	9254
lush	9255
punt	9256
xia	9257
##8a0	9258
##771	9259
##785	9260
##sl	9261
##pack	9262
##les	9263
##leash	9264
itt	9265
atk	9266
##urance	9267
waist	9268
shear	9269
seiz	9270
abba	9271
abrupt	9272
arnold	9273
unleash	9274
##inea	9275
pai	9276
spider	9277
sphere	9278
repress	9279
backpack	9280
guinea	9281
vend	9282
ido	9283
assurance	9284
tripped	9285
blanc	9286
rational	9287
##nell	9288
submar	9289
humor	9290
slop	9291
##253	9292
##368	9293
##724	9294
mora	9295
fals	9296
##175	9297
reset	9298
##bb9	9299
##14d	9300
##182	9301
essa	9302
##c58	9303
darr	9304
mahon	9305
conceiv	9306
ական	9307
maguire	9308
aerial	9309
seizure	9310
submarine	9311
4000	9312
cem	9313
dé	9314
pug	9315
rou	9316
vr	9317
##4cc	9318
##1dc	9319
##5a5	9320
##eab	9321
##e12	9322
##cott	9323
##8ef	9324
##744	9325
##ius	9326
##ged	9327
##ston	9328
edm	9329
heg	9330
##eth	9331
defect	9332
alon	9333
chard	9334
shit	9335
amateur	9336
bau	9337
evict	9338
evoke	9339
brink	9340
##ffd	9341
quiz	9342
carve	9343
complim	9344
##nderson	9345
##cc0	9346
patron	9347
chau	9348
drastic	9349
jana	9350
constrain	9351
garner	9352
boycott	9353
freak	9354
##667	9355
khali	9356
audition	9357
hopped	9358
##af2	9359
necessit	9360
pike	9361
##fd5	9362
flatter	9363
santo	9364
libra	9365
inho	9366
settling	9367
indulge	9368
cemet	9369
compliment	9370
':	9371
814	9372
ail	9373
fond	9374
jok	9375
kor	9376
nn	9377
nl	9378
rian	9379
##ae5	9380
##f27	9381
##4ad	9382
##6de	9383
##1e9	9384
##rin	9385
##ran	9386
##e00	9387
##e67	9388
itis	9389
heim	9390
heimer	9391
henderson	9392
whop	9393
animate	9394
##ila	9395
concession	9396
aba	9397
abdu	9398
arn	9399
ort	9400
proxi	9401
cait	9402
bac	9403
##iste	9404
nox	9405
noon	9406
foe	9407
donnell	9408
eli	9409
knot	9410
fibre	9411
1987	9412
1968	9413
flare	9414
##iful	9415
igan	9416
gravit	9417
##abit	9418
foresee	9419
realm	9420
default	9421
woe	9422
##ee4	9423
hearted	9424
##719	9425
##998	9426
##831	9427
##264	9428
##646	9429
##efd	9430
nico	9431
stephan	9432
hydrate	9433
bundle	9434
inhabit	9435
ortho	9436
pedestrian	9437
750	9438
911	9439
cure	9440
dives	9441
ngo	9442
oun	9443
ode	9444
wield	9445
zara	9446
##aeb	9447
##483	9448
##56	9449
##eec	9450
##e86	9451
##295	9452
##9c2	9453
##onate	9454
enquir	9455
##adc	9456
sue	9457
##ulum	9458
goat	9459
caster	9460
ament	9461
taka	9462
##004	9463
spic	9464
spouse	9465
nock	9466
emmer	9467
scram	9468
##udd	9469
resonate	9470
elf	9471
minn	9472
kell	9473
appa	9474
appet	9475
widow	9476
1986	9477
terrace	9478
##well	9479
croc	9480
visor	9481
##anyl	9482
junction	9483
##25a	9484
garh	9485
merge	9486
derail	9487
glaston	9488
ome	9489
chemo	9490
##222	9491
essay	9492
##cd4	9493
##4860	9494
##64a	9495
fatigue	9496
##4610	9497
##592	9498
##e620	9499
synth	9500
ologists	9501
rehear	9502
glamor	9503
shamed	9504
pulse	9505
piano	9506
imperial	9507
creep	9508
reynold	9509
fentanyl	9510
atkins	9511
scramble	9512
glastonbury	9513
aver	9514
aro	9515
ego	9516
hun	9517
von	9518
wu	9519
ին	9520
##ece	9521
##ión	9522
##b45	9523
##met	9524
##erance	9525
##alog	9526
##lla	9527
##utical	9528
propel	9529
baz	9530
agn	9531
spraw	9532
ragg	9533
##ftop	9534
ceutical	9535
inder	9536
##ship	9537
veer	9538
1988	9539
flirt	9540
moder	9541
daw	9542
priya	9543
##408	9544
125	9545
##ac8	9546
somer	9547
humour	9548
1720	9549
##36a	9550
##908	9551
ibrahim	9552
##854	9553
dread	9554
##24c	9555
##f5a	9556
##b09	9557
##ggi	9558
malik	9559
##78a	9560
fisher	9561
revise	9562
rhod	9563
acknowl	9564
##3a3	9565
tolerate	9566
tolerance	9567
cosy	9568
rigor	9569
pillow	9570
reinforce	9571
##ուն	9572
inventor	9573
chandra	9574
circuit	9575
semitic	9576
holland	9577
flourish	9578
hassan	9579
lethal	9580
mushroom	9581
rooftop	9582
retriev	9583
sprawl	9584
314	9585
760	9586
820	9587
bala	9588
gies	9589
kia	9590
kos	9591
oca	9592
riz	9593
rude	9594
tc	9595
##a18	9596
##f19	9597
##f88	9598
##680	9599
##619	9600
##5d5	9601
##kin	9602
##eze	9603
##ef5	9604
##c80	9605
##c66	9606
##8fa	9607
##799	9608
##926	9609
##nast	9610
##billion	9611
##spe	9612
##vin	9613
releg	9614
##icate	9615
ania	9616
##irk	9617
nee	9618
seb	9619
laun	9620
mast	9621
##ational	9622
dox	9623
rai	9624
carp	9625
sofa	9626
donn	9627
clause	9628
1982	9629
genius	9630
smuggle	9631
queeze	9632
belgian	9633
##da3	9634
refine	9635
denounce	9636
cyp	9637
ideo	9638
16th	9639
uma	9640
##ea4	9641
anga	9642
?""	9643
husk	9644
##b0b	9645
litter	9646
temple	9647
##a973	9648
copp	9649
pinning	9650
##b55	9651
tino	9652
##fcb	9653
dispatch	9654
obsc	9655
sensit	9656
homicide	9657
gymnast	9658
=""	9659
fascist	9660
toddle	9661
physician	9662
phobia	9663
iyeh	9664
ocaust	9665
aja	9666
dle	9667
lol	9668
mant	9669
mould	9670
sip	9671
vale	9672
zh	9673
##a66	9674
##6dd	9675
##cere	9676
##227	9677
##800	9678
##7cc	9679
##9e0	9680
##iard	9681
##ti	9682
stig	9683
##ces	9684
alf	9685
neill	9686
abra	9687
loch	9688
cau	9689
mangi	9690
moo	9691
mog	9692
noc	9693
gui	9694
##othe	9695
impair	9696
1979	9697
1984	9698
flipp	9699
blade	9700
##ogram	9701
##herd	9702
solving	9703
17th	9704
pett	9705
lund	9706
14th	9707
moro	9708
ibilities	9709
collar	9710
##128	9711
torr	9712
rador	9713
##b04	9714
chemist	9715
##87e	9716
##68d	9717
##b5f7	9718
##bd4	9719
ghana	9720
heroes	9721
sensational	9722
cinemat	9723
zoe	9724
spaniard	9725
naga	9726
stella	9727
guru	9728
editorial	9729
raiser	9730
ntha	9731
rubbish	9732
mantle	9733
888	9734
960	9735
hig	9736
mama	9737
ppe	9738
sween	9739
vat	9740
vague	9741
zach	9742
##435	9743
##4d4	9744
##6a2	9745
##1e	9746
##160	9747
##130	9748
##144	9749
##7d9	9750
##7e4	9751
##93	9752
##bdd	9753
##sa	9754
##lou	9755
##ju	9756
##ities	9757
delicate	9758
##cher	9759
alz	9760
frighten	9761
##unn	9762
##unal	9763
adi	9764
ados	9765
tapped	9766
hoff	9767
spark	9768
feather	9769
steward	9770
##ab3	9771
lotte	9772
swath	9773
##utional	9774
oppress	9775
ratio	9776
judici	9777
##8968	9778
100m	9779
ivities	9780
puff	9781
##193	9782
resemble	9783
antiqu	9784
snip	9785
vape	9786
tribunal	9787
giuli	9788
institutional	9789
sincere	9790
litig	9791
dresses	9792
##cd8	9793
##753	9794
##78b	9795
##692	9796
##693	9797
##7b2	9798
##43c	9799
devon	9800
nta	9801
##fd7	9802
##d5c	9803
anthem	9804
cherish	9805
appreh	9806
##84a	9807
uganda	9808
disciplina	9809
##8c65	9810
shepherd	9811
sweeney	9812
bind	9813
cm	9814
eh	9815
eug	9816
fm	9817
hatch	9818
ight	9819
jug	9820
nix	9821
vian	9822
##1f9	9823
##527	9824
##8e0	9825
##sk	9826
thon	9827
bever	9828
stow	9829
##ssert	9830
dessert	9831
fringe	9832
loft	9833
prec	9834
coo	9835
coinc	9836
worship	9837
adrian	9838
feld	9839
dix	9840
incor	9841
incons	9842
demolish	9843
blur	9844
berries	9845
refusal	9846
steroid	9847
##dev	9848
30am	9849
logic	9850
juana	9851
junior	9852
illennial	9853
##ee20	9854
occu	9855
0_0_3	9856
##ea7	9857
##1415	9858
##4920	9859
fragment	9860
##a08	9861
##cd19	9862
divisive	9863
##a97	9864
##48a	9865
##4800	9866
##3d3	9867
lamm	9868
##d9a2	9869
##6c7	9870
cyclist	9871
harbor	9872
satisfy	9873
nutrient	9874
lavery	9875
nugget	9876
affection	9877
ounce	9878
sebast	9879
eugen	9880
coincide	9881
inconsiste	9882
360	9883
539	9884
cic	9885
dling	9886
gush	9887
kad	9888
nil	9889
oma	9890
rf	9891
rm	9892
td	9893
zzi	9894
որ	9895
##a35	9896
##464	9897
##4a2	9898
##1f0	9899
##rig	9900
##nia	9901
##bow	9902
##b64	9903
beard	9904
iti	9905
hew	9906
##urt	9907
##irator	9908
alger	9909
##isi	9910
##ad27	9911
shap	9912
sag	9913
sains	9914
lapped	9915
abolish	9916
hiv	9917
lian	9918
geta	9919
minus	9920
guj	9921
##ught	9922
anta	9923
flies	9924
gaard	9925
baron	9926
##cci	9927
##ab15	9928
artic	9929
nah	9930
naiss	9931
##ac55	9932
15th	9933
builder	9934
1725	9935
1896	9936
cyr	9937
##7168	9938
##3624	9939
##85fa	9940
dani	9941
##1200	9942
##27e2	9943
##2423	9944
tique	9945
villain	9946
roller	9947
##afc	9948
##cd95	9949
##34be	9950
##68ac	9951
copper	9952
##f942	9953
##6948	9954
wheat	9955
flux	9956
##bd3f	9957
degrad	9958
riculum	9959
intelligent	9960
##46f3	9961
392	9962
tamil	9963
##e4ee	9964
fabulous	9965
##f4ec	9966
##d6e5	9967
shakespe	9968
cooperate	9969
##4aed	9970
socio	9971
##2bcc	9972
##6136	9973
hypo	9974
booz	9975
pearl	9976
##b384	9977
perfume	9978
##4cc3	9979
incorpora	9980
algeria	9981
sainsbury	9982
naissance	9983
shakespeare	9984
bib	9985
eis	9986
ega	9987
fay	9988
iam	9989
kol	9990
mck	9991
nal	9992
sik	9993
tib	9994
wsl	9995
##1c2	9996
##df	9997
##cm	9998
##c24	9999
##b6	10000
##."	10001
enko	10002
lea	10003
leigh	10004
exile	10005
expend	10006
suff	10007
loot	10008
tran	10009
cob	10010
poo	10011
doh	10012
peru	10013
aggra	10014
##idemi	10015
2027	10016
quip	10017
clutch	10018
esta	10019
muk	10020
annu	10021
legg	10022
irreg	10023
##1027	10024
superior	10025
##8934	10026
##15ed	10027
##36ba	10028
##3289	10029
volcan	10030
##8377	10031
##2772	10032
##2445	10033
##2419	10034
neglig	10035
epidemi	10036
competent	10037
##c0f	10038
panda	10039
ladies	10040
wilk	10041
nasr	10042
scoot	10043
2000s	10044
elliott	10045
virtu	10046
##7cf9	10047
bernard	10048
##_0_189	10049
vinegar	10050
giovan	10051
mgm	10052
tsunami	10053
aggrav	10054
irregular	10055
085	10056
883	10057
8000	10058
968	10059
a71	10060
bree	10061
d35	10062
eau	10063
f1a	10064
fb7	10065
nna	10066
pont	10067
rg	10068
ulu	10069
ured	10070
yama	10071
##4f2	10072
##d6b	10073
##eav	10074
##2e9	10075
##gom	10076
##_y	10077
##ին	10078
inous	10079
sted	10080
atom	10081
##urse	10082
sum	10083
succ	10084
##ppl	10085
poche	10086
canvas	10087
fah	10088
##ff7	10089
sober	10090
joann	10091
elbow	10092
cei	10093
buk	10094
endeav	10095
ryn	10096
curve	10097
##oglou	10098
panama	10099
chapel	10100
##ee31	10101
##7127	10102
##7162	10103
##25b0	10104
##8900	10105
rippl	10106
##3600	10107
morph	10108
etta	10109
cultiv	10110
##1645	10111
volt	10112
##8535	10113
radu	10114
initiative	10115
##4480	10116
##4460	10117
##2767	10118
##3372	10119
hopkin	10120
hallow	10121
2600	10122
##f730	10123
80s	10124
##75dd	10125
##hamm	10126
##d016	10127
defining	10128
##fc32	10129
##4271	10130
ipation	10131
##3dca	10132
##f287	10133
##c2de	10134
461b	10135
##7485	10136
cartel	10137
ummy	10138
##f6e5	10139
737	10140
wolver	10141
##8f3d	10142
bennet	10143
##rogate	10144
alzhe	10145
giovanni	10146
2eb	10147
62a	10148
8da	10149
8fa	10150
9a0	10151
dir	10152
eum	10153
e50	10154
nour	10155
pash	10156
tet	10157
zimb	10158
##8e	10159
##8201	10160
##378a	10161
##uent	10162
##lift	10163
heap	10164
##ed36	10165
wav	10166
chime	10167
weis	10168
##ges	10169
lagged	10170
cough	10171
notch	10172
cage	10173
uplift	10174
persecut	10175
##feb4	10176
agit	10177
##00d4	10178
scan	10179
soo	10180
spear	10181
ukh	10182
knit	10183
antly	10184
ecoglou	10185
muhamm	10186
dazz	10187
deli	10188
##2032	10189
##2087	10190
##20c5	10191
##da4b	10192
##abel	10193
##abwe	10194
irv	10195
blazer	10196
halv	10197
deflect	10198
1536	10199
##dea2	10200
oppen	10201
##60b5	10202
##ec59	10203
##bc91	10204
complement	10205
insu	10206
dupe	10207
illon	10208
##45ea	10209
##453b	10210
gloss	10211
##1086	10212
##7171	10213
1480	10214
##25fb	10215
##8982	10216
##36a5	10217
##72e3	10218
##ca43	10219
##90f6	10220
##9949	10221
##arna	10222
##16ef	10223
##1623	10224
##19da	10225
##838a	10226
##39e6	10227
cardio	10228
buds	10229
##86ac	10230
##14cb	10231
##1832	10232
silk	10233
omar	10234
##2295	10235
##11fa	10236
##62ce	10237
##62c5	10238
malic	10239
##68bc	10240
##6571	10241
##7871	10242
##7818	10243
##78c4	10244
##d062	10245
##7970	10246
##effe	10247
##bd30	10248
70s	10249
##4b6b	10250
##c9de	10251
##c9bd	10252
##cript	10253
##fdf0	10254
montgom	10255
##8a00	10256
heroin	10257
anthro	10258
scrub	10259
##5933	10260
##dc80	10261
##3aa0	10262
cnn	10263
##577b	10264
##d6cd	10265
##7620	10266
##c8de	10267
##e130	10268
ptive	10269
64ed	10270
##4773	10271
jazz	10272
##b2c22	10273
acquit	10274
isaac	10275
siding	10276
arkan	10277
initial	10278
catastrophe	10279
mitigate	10280
b218	10281
despair	10282
##fbb3	10283
##21031	10284
cosmetic	10285
pistol	10286
##f65c	10287
##e20b	10288
gujarat	10289
zimbabwe	10290
muhammad	10291
montgomery	10292
0ced	10293
0267	10294
0122	10295
5th	10296
5e40	10297
872	10298
8e5d	10299
;}	10300
ae9	10301
a63	10302
bp	10303
bfd7	10304
c6c	10305
c408	10306
dce	10307
dice	10308
dd85	10309
eet	10310
eab	10311
f99	10312
f600	10313
ij	10314
karna	10315
lough	10316
oath	10317
omin	10318
vod	10319
ys	10320
zal	10321
##a275	10322
##5608	10323
##5cc0	10324
##ef56	10325
##cada	10326
##2_35	10327
##21a3	10328
##7668	10329
##94	10330
##3fd5	10331
##sal	10332
##li	10333
##_43	10334
##_472	10335
##_605	10336
##_4610	10337
##_4920	10338
##_6136	10339
##_2419	10340
##_2767	10341
##_8201	10342
##_7171	10343
##_7871	10344
ed9e0	10345
bez	10346
##ed409	10347
##ad639	10348
##ad7b2	10349
##olition	10350
expel	10351
prod	10352
##laud	10353
afe	10354
dogan	10355
##elor	10356
##fef4	10357
##fe2032	10358
rosen	10359
##00_2	10360
##00_30	10361
##00cdd	10362
##00926	10363
##00d6cd	10364
evange	10365
rae	10366
##ffbc	10367
##ff2a	10368
medit	10369
attain	10370
induc	10371
applaud	10372
flop	10373
grasp	10374
ista	10375
105	10376
da01a9	10377
deprive	10378
##207b6	10379
##cc43	10380
##ccf2	10381
##da62	10382
##da1b	10383
##da109	10384
##abd40	10385
##ab43c	10386
##40_18	10387
##be44	10388
##be6a	10389
naomi	10390
0_45	10391
0_10	10392
0_25	10393
0_66	10394
0_44	10395
0_27	10396
0_87	10397
0_69	10398
0_409	10399
0_111	10400
0_322	10401
0_385	10402
0_393	10403
0_182	10404
0_435	10405
##ac49	10406
##ac693	10407
##de20	10408
##8012	10409
##6048	10410
##60fbb3	10411
##60_8201	10412
##baae9	10413
logging	10414
##30_1	10415
##30988	10416
##30_3500_2099	10417
##ecd016	10418
##bc9a0	10419
eff164	10420
##dd48	10421
##dd3d3	10422
##dd7cf9	10423
illusion	10424
##eefd	10425
##453a3	10426
##45e130	10427
##1015	10428
##10bb6	10429
##faee31	10430
murdo	10431
##717f	10432
##7152	10433
##71_33	10434
1415	10435
##254b	10436
##258ce	10437
##89dc80	10438
lator	10439
burrow	10440
##1568	10441
##1550	10442
##15df7	10443
##7217	10444
##72_3500_2099	10445
##72771	10446
##329b	10447
##32_3	10448
##9091	10449
##90750	10450
##99bb9	10451
##16_3500	10452
##16cf	10453
##16e30	10454
##16_18	10455
##168a0	10456
##1634be	10457
##16be6a	10458
volley	10459
##195e	10460
##19592	10461
##8333	10462
##83a18	10463
##83ad27	10464
##17df7	10465
##17e86	10466
##bbac49	10467
##85e22	10468
##39b2	10469
##39af2	10470
##394ad	10471
##39ed409	10472
##128ce	10473
##12ab3	10474
##66af	10475
##6679	10476
0_0_6000_	10477
0_0_4032	10478
0_0_6240	10479
0_0_295	10480
0_0_4860	10481
0_0_619	10482
0_0_3624	10483
0_0_3289	10484
0_0_8012	10485
##881b	10486
##4470	10487
##2768d	10488
##2473a	10489
##24da109	10490
##ea227	10491
##ea8c65	10492
##ea1550	10493
##f58f7	10494
##f578b	10495
crimin	10496
2280	10497
##864d	10498
##864e	10499
##86add	10500
##14cd	10501
##148535	10502
##184b	10503
##26_21	10504
##26f287	10505
##338ce	10506
##49be	10507
##49cb	10508
##49148535	10509
##e52a	10510
##e57cc	10511
##e517df7	10512
##f0142	10513
##b0c89	10514
##b06571	10515
##f743	10516
##a0d8	10517
##a0df7	10518
##a098	10519
##a0bd3f	10520
##2218	10521
##af389	10522
##afac0	10523
##11192	10524
##11effe	10525
##cd326	10526
##cd9c2	10527
##34799	10528
##a5c0	10529
##a58e5	10530
##a54ff	10531
##a5004	10532
##6812_	10533
8025fb	10534
##a900926	10535
##65e8	10536
##653cc	10537
##48d35	10538
##64fe9	10539
##64b45	10540
archae	10541
##f9f19	10542
##c06a	10543
##c0f8	10544
##c0f5a	10545
##c099bb9	10546
##c5c335	10547
##c5e4ee	10548
##698900	10549
##d051	10550
##d0c66	10551
##7b434	10552
##7bdd48	10553
##7986add	10554
##ef800	10555
##e9fb5	10556
##fc201	10557
##fc6de	10558
##42a5	10559
##bd39af2	10560
##4b756	10561
##3d6a	10562
##3dce5	10563
##fb92	10564
##_5308	10565
##_5900	10566
##_5341	10567
##1a2445	10568
##f2f44	10569
##f216ef	10570
dispens	10571
##e2bf	10572
##e2f14	10573
##472_36	10574
##46_2	10575
##67_2	10576
##c2e6	10577
##c219b	10578
##1b854	10579
##e8d8	10580
##e8cd9c2	10581
##c4aa5	10582
##c400cdd	10583
##c4338ce	10584
00661	10585
oxide	10586
contradict	10587
##8aab0	10588
##8a4cc3	10589
##6b3dca	10590
##e096	10591
##6a48a	10592
##cb1c2	10593
##_2192	10594
##_2101	10595
59e9fb5	10596
##_3540	10597
##_3592	10598
##e3e14	10599
##8b267	10600
##63da4b	10601
##2a717f	10602
##8116be6a	10603
##3_6000_	10604
##3_4480	10605
##3_7217	10606
##3_6812_	10607
##23c78	10608
##d4d9a2	10609
##b4f087	10610
##13e1	10611
##5788e2	10612
##d67986add	10613
##29f65c	10614
##c8b06571	10615
##e1bc9a0	10616
##f3f578b	10617
##d8fcb	10618
##000_4800	10619
0_100_30	10620
0_130_3500_2099	10621
0_116_3500	10622
iche	10623
##96f7	10624
##28fcd	10625
##28ee5	10626
##e7e8cd9c2	10627
ceptive	10628
##1c2423	10629
##1c65e8	10630
##9b833	10631
##9b26f287	10632
73865	10633
##4a62b	10634
##91fc32	10635
toyo	10636
flavor	10637
##_3187	10638
##_3368	10639
##_3744	10640
##_4305	10641
##_4601	10642
##_4908	10643
##_4160	10644
##_3240	10645
##_3500_21	10646
##6df88	10647
##b1f58f7	10648
##c17168	10649
84c80	10650
##b8e30	10651
##b8e2bf	10652
##252_25	10653
##7f409	10654
##dca62c5	10655
##86d179	10656
##86d8968	10657
##179_4908	10658
##d2207b6	10659
##849a5004	10660
##bf2295	10661
##392_3592	10662
##aa66af	10663
##_0_5608	10664
##_3682	10665
##_3667_2	10666
##541623	10667
bachelor	10668
##a8b09	10669
a4d051	10670
##1f698900	10671
##e40c8b06571	10672
##700aea	10673
##187c0f5a	10674
##e22f	10675
##900ad7b2	10676
plummet	10677
bfb0b	10678
bf1a2445	10679
##80e11192	10680
##f56ec59	10681
##333603	10682
##aa5f743	10683
##eff7c5	10684
##eff5933	10685
##7b614cb	10686
##f44ab15	10687
##639a66	10688
##_1252	10689
##17821c2423	10690
##178291fc32	10691
##7_4032	10692
##7_2218	10693
##11119592	10694
##a125a	10695
##9a04d4	10696
##ec6c4aa5	10697
##2c36048	10698
##2c37bdd48	10699
##_2501	10700
kumar	10701
##40881e9	10702
##12_1568	10703
##4_6240	10704
##4_2087	10705
##_3040_18	10706
##_2688	10707
##_2612_1568	10708
##_3330_1	10709
0_260_8201	10710
0_272_3500_2099	10711
0_152_35	10712
0_15_3500_21	10713
0_193_7217	10714
0_194_6240	10715
0_176_5308	10716
0_176_3667_2	10717
0_0_4000_2	10718
0_0_4252_25	10719
0_0_5472_36	10720
0_0_5392_3592	10721
0_0_3500_2	10722
0_0_3526_21	10723
##4230c	10724
##4230c06a	10725
##_5571_33	10726
##_5532_3	10727
##c33539	10728
##3_8000_4800	10729
##3_8179_4908	10730
##000_2250	10731
0_189_4610	10732
0_189_3040_18	10733
##eb0d78c4	10734
##eb0d64fe9	10735
##6_7668	10736
1b4b6b	10737
##c95d8fcb	10738
5c34	10739
##33636a	10740
##90549cb	10741
##03f730	10742
##650ed36	10743
fd8a4cc3	10744
oncé	10745
##f09329b	10746
##20964b45	10747
##fe0eec	10748
##66580e11192	10749
##47b9b26f287	10750
##f893dce5	10751
##155453b	10752
allevi	10753
##202f216ef	10754
##daf69	10755
capsule	10756
##99cdaf69	10757
##850ea7	10758
##79460b5	10759
8a7620	10760
gadget	10761
##d1523c78	10762
##871e67	10763
##3b0a2	10764
##1516c9de	10765
##44a16e30	10766
##e5010bb6	10767
##db5c099bb9	10768
##2ccc0f8	10769
##40b27e2	10770
##3454a2	10771
##be02772	10772
##2079091	10773
##351be02772	10774
##353ee4	10775
##1037162	10776
##e242c37bdd48	10777
##358155453b	10778
##907f2f44	10779
##f9631	10780
0aa098	10781
##7853fd5	10782
##253c400cdd	10783
##724ec6	10784
##14d45e130	10785
##c58ee20	10786
##1dc253c400cdd	10787
##5a5d	10788
##eabea	10789
##e1240881e9	10790
##8ef3aa0	10791
814eff7c5	10792
##ae53a	10793
##f27864e	10794
##e00900ad7b2	10795
bacac55	10796
##719f5	10797
##831c5e4ee	10798
##26416cf	10799
##646907f2f44	10800
##efd90549cb	10801
##aeb85fa	10802
##483831c5e4ee	10803
##adc6948	10804
##22283ad27	10805
##e620d6e5	10806
##ac824c	10807
82028fcd	10808
##6807818	10809
##5d52c36048	10810
##ef5cd326	10811
##8fa9a04d4	10812
##a973b1f58f7	10813
##b55e2f14	10814
##b5f7a125a	10815
##bd4b55e2f14	10816
888_605	10817
##6a28e0	10818
##144f3f578b	10819
##7d931	10820
##bdd453a3	10821
##cd8a5c0	10822
##753724ec6	10823
##84a12ab3	10824
##527bf2295	10825
0_0_3000_2250	10826
##a08c2de	10827
##cd1939e6	10828
##6c7646907f2f44	10829
5391832	10830
##a35e7e8cd9c2	10831
##1f0a54ff	10832
##b646679	10833
##12003372	10834
##68ac700aea	10835
##f942f27864e	10836
##46f3c33539	10837
392_0_5608	10838
##f4ec1037162	10839
##4aed7970	10840
##2bcc6a28e0	10841
##b38475dd	10842
##c242768d	10843
##1027c219b	10844
##8934afc	10845
##15ed2ccc0f8	10846
##36ba1015	10847
##8377cc43	10848
0852473a	10849
a71faee31	10850
d354b756	10851
f1a68bc	10852
fb740b27e2	10853
##4f2a08c2de	10854
##d6b351be02772	10855
##2e94230c06a	10856
##71278934afc	10857
##25b0f44ab15	10858
##446062ce	10859
##4271dd3d3	10860
461b24da109	10861
##74856c7646907f2f44	10862
##8f3df	10863
alzheimer	10864
2ebf56ec59	10865
62a8116be6a	10866
8da19da	10867
8fa9949	10868
9a090750	10869
e5011effe	10870
##378a14cd	10871
##feb47853fd5	10872
##00d41086	10873
##dea2a0bd3f	10874
##45eaeff5933	10875
##8982d2207b6	10876
##36a5ab43c	10877
##ca43849	10878
##90f6b0c89	10879
##838a144f3f578b	10880
##86aca0df7	10881
##11fa5788e2	10882
##d062feb47853fd5	10883
##bd30eb0d78c4	10884
##c9bd1c65e8	10885
##fdf0333603	10886
##8a00fef4	10887
##577b71278934afc	10888
##c8de4aed7970	10889
##4773b8e30	10890
##b2c2289dc80	10891
b2182079091	10892
##e20b11119592	10893
0ced5cc0	10894
0267cb1c2	10895
0122e3e14	10896
5e40e52a	10897
8e5d34799	10898
ae9c8de4aed7970	10899
bfd74271dd3d3	10900
c6c8aab0	10901
c408e40c8b06571	10902
dce36ba1015	10903
dd85527bf2295	10904
eab1f698900	10905
f99202f216ef	10906
f6009b833	10907
ominance	10908
##a27563da4b	10909
##ef56e517df7	10910
##cadaa9	10911
##21a399cdaf69	10912
##_4330	10913
##_4723	10914
##_6136_3682	10915
##_7171_4305	10916
##_7871_4723	10917
ed9e0b38475dd	10918
##ad639c242768d	10919
##fe20328377cc43	10920
##00d6cd7b614cb	10921
##ff2a483831c5e4ee	10922
da01a947b9b26f287	10923
##ccf2eb0d64fe9	10924
##da62eabea	10925
##da1b6807818	10926
##abd406df88	10927
0_453_6812_	10928
0_103_6000_	10929
0_256_7668	10930
0_663_8000_4800	10931
0_447_4032	10932
0_273_8179_4908	10933
0_874_2087	10934
0_69_5571_33	10935
0_409_6136_3682	10936
0_111_3330_1	10937
0_322_7171_4305	10938
0_385_5532_3	10939
0_393_5900	10940
0_182_5472_3283	10941
0_435_7871_4723	10942
##ac693178291fc32	10943
##60fbb3ec6c4aa5	10944
##baae929f65c	10945
##3098813e1	10946
##ecd016577b71278934afc	10947
eff16400d6cd7b614cb	10948
##dd7cf9e57cc	10949
murdoch	10950
##715211fa5788e2	10951
##254b2a717f	10952
##258ce4f2a08c2de	10953
##15df7e1240881e9	10954
##727713454a2	10955
##16_1810	10956
##168a096f7	10957
##1634bea0d8	10958
##195e254b2a717f	10959
##8333d1523c78	10960
##83a18cadaa9	10961
##17e86a27563da4b	10962
##bbac49bd30eb0d78c4	10963
##85e221f0a54ff	10964
##394adcd4	10965
##39ed40917e86a27563da4b	10966
##128ceef56e517df7	10967
0_0_6000_4000	10968
0_0_4032_2688	10969
0_0_6240_4160	10970
0_0_2957_2218	10971
0_0_4860_3240	10972
0_0_6193_4480	10973
0_0_3624_2501	10974
0_0_3289_2192	10975
0_0_8012_5341	10976
##881b2e94230c06a	10977
##447044a16e30	10978
##ea227da62eabea	10979
##ea8c65bdd453a3	10980
##864d28ee5	10981
##184b8fa9a04d4	10982
##49148535bd4b55e2f14	10983
##f0142bbac49bd30eb0d78c4	10984
##af389b2c2289dc80	10985
##afac083a18cadaa9	10986
##a58e58982d2207b6	10987
8025fb6b3dca	10988
##a90092679460b5	10989
##653ccfe0eec	10990
##48d35ae53a	10991
archaeo	10992
##f9f19898	10993
##c5c3357d931	10994
##d0c66864d28ee5	10995
##7b43486aca0df7	10996
##ef80085e221f0a54ff	10997
##fc20115df7e1240881e9	10998
##fc6de74856c7646907f2f44	10999
##bd39af2e22f	11000
##3d6aaa66af	11001
##46_2128	11002
##c2e6a58e58982d2207b6	11003
##1b854efd90549cb	11004
##e8d8e00900ad7b2	11005
00661fc6de74856c7646907f2f44	11006
##e096e20b11119592	11007
59e9fb51dc253c400cdd	11008
##8b267ac824c	11009
##d4d9a2fdf0333603	11010
##b4f08760fbb3ec6c4aa5	11011
##d67986addbd39af2e22f	11012
##e1bc9a0f10	11013
0_100_3016_1810	11014
0_116_3500_2101	11015
73865d062feb47853fd5	11016
##4a62b66580e11192	11017
##c171684773b8e30	11018
84c80dd7cf9e57cc	11019
##b8e2bf353ee4	11020
##7f409ea227da62eabea	11021
##dca62c584a12ab3	11022
##86d179f	11023
##86d8968ef80085e221f0a54ff	11024
##849a500436a5ab43c	11025
##a8b098a00fef4	11026
a4d051e620d6e5	11027
##187c0f5ae1bc9a0f10	11028
bfb0b20964b45	11029
bf1a2445128ceef56e517df7	11030
##aa5f74339ed40917e86a27563da4b	11031
##639a66d6b351be02772	11032
##17821c2423727713454a2	11033
0_260_8201_4920	11034
0_152_3546_2128	11035
0_15_3500_2100	11036
0_193_7217_4330	11037
0_194_6240_3744	11038
0_176_5308_3187	11039
0_176_3667_2201	11040
0_0_4000_2668	11041
0_0_4252_2553	11042
0_0_5472_3648	11043
0_0_3500_2333	11044
0_0_3526_2116	11045
0_189_4610_2767	11046
0_189_3040_1825	11047
1b4b6b86d8968ef80085e221f0a54ff	11048
##c95d8fcbccf2eb0d64fe9	11049
##33636a87e	11050
##03f73012003372	11051
##650ed36a973b1f58f7	11052
fd8a4cc3358155453b	11053
##f09329b168a096f7	11054
##f893dce5b5f7a125a	11055
##850ea7f09329b168a096f7	11056
8a7620e242c37bdd48	11057
##871e67dea2a0bd3f	11058
##1516c9de03f73012003372	11059
##e5010bb6fe20328377cc43	11060
0aa098447044a16e30	11061
##14d45e13033636a87e	11062
##c58ee20849a500436a5ab43c	11063
##8ef3aa0e3	11064
814eff7c5f0142bbac49bd30eb0d78c4	11065
bacac55653ccfe0eec	11066
##26416cf838a144f3f578b	11067
##aeb85fa378a14cd	11068
##22283ad27d4d9a2fdf0333603	11069
82028fcd650ed36a973b1f58f7	11070
##5d52c36048ea1550	11071
##ef5cd32615ed2ccc0f8	11072
888_605_2612_1568	11073
##cd8a5c03b0a2	11074
##cd1939e6ca43849	11075
5391832b8e2bf353ee4	11076
##a35e7e8cd9c290f6b0c89	11077
##68ac700aea5a5d	11078
##f942f27864e719f5	11079
392_0_5608_3368	11080
##f4ec1037162db5c099bb9	11081
##2bcc6a28e021a399cdaf69	11082
##1027c219b258ce4f2a08c2de	11083
0852473ae096e20b11119592	11084
a71faee31ac693178291fc32	11085
d354b75626416cf838a144f3f578b	11086
f1a68bc871e67dea2a0bd3f	11087
fb740b27e225b0f44ab15	11088
##446062ce692	11089
461b24da109d0c66864d28ee5	11090
2ebf56ec59184b8fa9a04d4	11091
62a8116be6a1516c9de03f73012003372	11092
8da19daef5cd32615ed2ccc0f8	11093
8fa9949aeb85fa378a14cd	11094
9a090750c171684773b8e30	11095
e5011effe45eaeff5933	11096
##00d41086ecd016577b71278934afc	11097
##c9bd1c65e8fc20115df7e1240881e9	11098
b218207909100d41086ecd016577b71278934afc	11099
0ced5cc0c9bd1c65e8fc20115df7e1240881e9	11100
0267cb1c2c58ee20849a500436a5ab43c	11101
0122e3e14a35e7e8cd9c290f6b0c89	11102
5e40e52a22283ad27d4d9a2fdf0333603	11103
8e5d34799f893dce5b5f7a125a	11104
ae9c8de4aed79707b43486aca0df7	11105
bfd74271dd3d3e5010bb6fe20328377cc43	11106
c6c8aab0aa5f74339ed40917e86a27563da4b	11107
c408e40c8b06571c95d8fcbccf2eb0d64fe9	11108
dce36ba1015a90092679460b5	11109
dd85527bf2295dca62c584a12ab3	11110
eab1f6989001027c219b258ce4f2a08c2de	11111
f99202f216ef3d6aaa66af	11112
f6009b833e8d8e00900ad7b2	11113
ed9e0b38475ddb4f08760fbb3ec6c4aa5	11114
##ff2a483831c5e4ee541623	11115
da01a947b9b26f28749148535bd4b55e2f14	11116
##da1b6807818464	11117
##abd406df8846f3c33539	11118
0_453_6812_4088	11119
0_103_6000_3600	11120
0_256_7668_4601	11121
0_447_4032_2419	11122
0_874_2087_1252	11123
0_69_5571_3343	11124
0_111_3330_1998	11125
0_385_5532_3321	11126
0_393_5900_3540	11127
##3098813e1394adcd4	11128
eff16400d6cd7b614cb17821c2423727713454a2	11129
##715211fa5788e2ac2	11130
##195e254b2a717fda3	11131
##af389b2c2289dc8048d35ae53a	11132
8025fb6b3dca1b854efd90549cb	11133
00661fc6de74856c7646907f2f44cd8a5c03b0a2	11134
59e9fb51dc253c400cddc2e6a58e58982d2207b6	11135
##8b267ac824c4230c	11136
73865d062feb47853fd5abd406df8846f3c33539	11137
##4a62b66580e11192c5c3357d931	11138
84c80dd7cf9e57cc639a66d6b351be02772	11139
##a8b098a00fef4753724ec6	11140
a4d051e620d6e5af389b2c2289dc8048d35ae53a	11141
bfb0b20964b454a62b66580e11192c5c3357d931	11142
bf1a2445128ceef56e517df75d52c36048ea1550	11143
1b4b6b86d8968ef80085e221f0a54ff8ef3aa0e3	11144
fd8a4cc3358155453b850ea7f09329b168a096f7	11145
8a7620e242c37bdd482bcc6a28e021a399cdaf69	11146
0aa098447044a16e30ff2a483831c5e4ee541623	11147
814eff7c5f0142bbac49bd30eb0d78c4f9f19898	11148
bacac55653ccfe0eeca8b098a00fef4753724ec6	11149
82028fcd650ed36a973b1f58f7ea8c65bdd453a3	11150
5391832b8e2bf353ee4f4ec1037162db5c099bb9	11151
0852473ae096e20b111195928b267ac824c4230c	11152
a71faee31ac693178291fc32afac083a18cadaa9	11153
d354b75626416cf838a144f3f578b446062ce692	11154
f1a68bc871e67dea2a0bd3f3098813e1394adcd4	11155
fb740b27e225b0f44ab157f409ea227da62eabea	11156
461b24da109d0c66864d28ee5cd1939e6ca43849	11157
2ebf56ec59184b8fa9a04d4195e254b2a717fda3	11158
62a8116be6a1516c9de03f73012003372c4338ce	11159
8da19daef5cd32615ed2ccc0f8da1b6807818464	11160
8fa9949aeb85fa378a14cd187c0f5ae1bc9a0f10	11161
9a090750c171684773b8e30715211fa5788e2ac2	11162
e5011effe45eaeff5933d67986addbd39af2e22f	11163
0ced5cc0c9bd1c65e8fc20115df7e1240881e9d0	11164
0267cb1c2c58ee20849a500436a5ab43c86d179f	11165
0122e3e14a35e7e8cd9c290f6b0c891634bea0d8	11166
5e40e52a22283ad27d4d9a2fdf0333603adc6948	11167
8e5d34799f893dce5b5f7a125a68ac700aea5a5d	11168
ae9c8de4aed79707b43486aca0df7baae929f65c	11169
bfd74271dd3d3e5010bb6fe20328377cc438f3df	11170
c6c8aab0aa5f74339ed40917e86a27563da4b884	11171
c408e40c8b06571c95d8fcbccf2eb0d64fe9bc91	11172
dce36ba1015a90092679460b5881b2e94230c06a	11173
dd85527bf2295dca62c584a12ab38333d1523c78	11174
eab1f6989001027c219b258ce4f2a08c2de6a48a	11175
f99202f216ef3d6aaa66af14d45e13033636a87e	11176
f6009b833e8d8e00900ad7b2f942f27864e719f5	11177
ed9e0b38475ddb4f08760fbb3ec6c4aa5b646679	11178
da01a947b9b26f28749148535bd4b55e2f14fb92	11179
8025fb6b3dca1b854efd90549cbad639c242768d	11180
84c80dd7cf9e57cc639a66d6b351be02772f9631	11181
2f	11182
988e2	11183
cial	11184
fet	11185
fist	11186
g7	11187
hut	11188
hutch	11189
iel	11190
jorg	11191
kot	11192
ld	11193
oda	11194
##oot	11195
##e109	11196
##tar	11197
##yon	11198
##_849	11199
##real	11200
forgo	11201
heck	11202
isabel	11203
##ce90d	11204
##sect	11205
##verge	11206
lept	11207
conges	11208
shir	11209
lik	11210
arvin	11211
adu	11212
adorn	11213
hover	11214
bapt	11215
agg	11216
compact	11217
polo	11218
indie	11219
induct	11220
1975	11221
1976	11222
geno	11223
seneg	11224
provoke	11225
##be988	11226
1560	11227
1599	11228
etf	11229
craw	11230
hua	11231
pastor	11232
##30aed	11233
"}]}	11234
judice	11235
cynic	11236
1320	11237
migrate	11238
##36_10	11239
##90d5c	11240
##99_6	11241
void	11242
volk	11243
tica	11244
moto	11245
##444b	11246
##f52b	11247
##f5d85	11248
##9522	11249
fraction	11250
omo	11251
2612	11252
##1138	11253
jona	11254
8012	11255
##a9c78	11256
##a9f52b	11257
arche	11258
##f939b2	11259
siri	11260
##82f939b2	11261
##c9389	11262
##fb170	11263
##c4e9	11264
##d940f	11265
3800	11266
##e3a9c78	11267
47_0_189	11268
##e41f9	11269
##81cbc	11270
currencies	11271
}]}],"	11272
##b4fb170	11273
##e7ba3	11274
##b1c0f	11275
##1dff7	11276
whisper	11277
cakes	11278
##392a9f52b	11279
##_0_1415	11280
a4e3a9c78	11281
gibb	11282
ceding	11283
##6_1138	11284
0_0_1536_10	11285
0_0_1599_6	11286
olek	11287
##2f90d5c	11288
nepal	11289
##f51e41f9	11290
hriv	11291
##c85f5d85	11292
stubborn	11293
##c0d9522	11294
314_0_1415	11295
##ea4c0d9522	11296
##7e4c	11297
##20c5de20	11298
##72e3c9389	11299
64edd940f	11300
##21031ce90d	11301
##ffbc1	11302
##be441dff7	11303
##42a5ea4c0d9522	11304
5c3421031ce90d	11305
988e230aed	11306
senegal	11307
##be9882f90d5c	11308
"}]},"	11309
##82f939b2ab	11310
47_0_1896_1138	11311
##81cbc20c5de20	11312
##b4fb17042a5ea4c0d9522	11313
##e7ba3b4fb17042a5ea4c0d9522	11314
##392a9f52b7e4c	11315
a4e3a9c78e7ba3b4fb17042a5ea4c0d9522	11316
0_0_1536_1024	11317
0_0_1599_640	11318
##f51e41f9392a9f52b7e4c	11319
##c85f5d8582f939b2ab	11320
314_0_1415_849	11321
##72e3c9389ffbc1	11322
64edd940f81cbc20c5de20	11323
##be441dff7f51e41f9392a9f52b7e4c	11324
5c3421031ce90dbe9882f90d5c	11325
988e230aedbe441dff7f51e41f9392a9f52b7e4c	11326
a4e3a9c78e7ba3b4fb17042a5ea4c0d9522b1c0f	11327
64edd940f81cbc20c5de20c85f5d8582f939b2ab	11328
5c3421031ce90dbe9882f90d5c72e3c9389ffbc1	11329
3d	11330
3667	11331
4252	11332
5392	11333
5308	11334
5608	11335
6193	11336
7668	11337
8201	11338
8179	11339
bore	11340
cc	11341
cush	11342
dm	11343
dumb	11344
dwell	11345
fod	11346
gian	11347
hust	11348
hump	11349
lust	11350
rp	11351
##ox	11352
##97	11353
inity	11354
enlist	11355
##amy	11356
alist	11357
neat	11358
laine	11359
arl	11360
orie	11361
orate	11362
goss	11363
allot	11364
2087	11365
pact	11366
ifier	11367
foil	11368
rao	11369
ravi	11370
##ishna	11371
dono	11372
clad	11373
strat	11374
needle	11375
opio	11376
remin	11377
ecu	11378
ecolog	11379
colum	11380
##406dd	11381
brock	11382
3040	11383
3016	11384
##60ffd	11385
draper	11386
jeopard	11387
"}}	11388
mclar	11389
##8936	11390
##72_6	11391
osis	11392
##198e5	11393
##83_6	11394
0_0_700	11395
3526	11396
3546	11397
##f5444b	11398
turb	11399
frag	11400
##b0d04	11401
ee6b	11402
sprinkle	11403
populate	11404
##6486d	11405
tuition	11406
##f9a97	11407
constituent	11408
punctu	11409
##_574	11410
bella	11411
3289	11412
3624	11413
ensemble	11414
4860	11415
5571	11416
5532	11417
3330	11418
intendent	11419
4610	11420
5900	11421
##59130	11422
##8b60ffd	11423
nuance	11424
*****	11425
7217	11426
pillar	11427
6136	11428
##6df9a97	11429
##c1406dd	11430
6812	11431
7871	11432
7171	11433
slap	11434
##80e198e5	11435
phobic	11436
0_0_872_6	11437
0_0_883_6	11438
aqua	11439
##25564a	11440
##395eefd	11441
2957	11442
##da9395eefd	11443
##7496df9a97	11444
##17559130	11445
##ece17559130	11446
##b0425564a	11447
##cd95b0425564a	11448
968c4e9	11449
##16456486d	11450
##f6e516456486d	11451
a63e109	11452
##49be8b60ffd	11453
opioid	11454
mclaren	11455
##89367496df9a97	11456
0_0_700_574	11457
##f5444b89367496df9a97	11458
##b0d0480e198e5	11459
ee6bda9395eefd	11460
##c1406ddcd95b0425564a	11461
0_0_872_626	11462
0_0_883_636	11463
##ece175591308b	11464
968c4e9f5444b89367496df9a97	11465
a63e109c1406ddcd95b0425564a	11466
##49be8b60ffd66	11467
##b0d0480e198e5ece175591308b	11468
ee6bda9395eefdb0d0480e198e5ece175591308b	11469
968c4e9f5444b89367496df9a97f6e516456486d	11470
a63e109c1406ddcd95b0425564a49be8b60ffd66	11471
eck	11472
ien	11473
kart	11474
kun	11475
oga	11476
rist	11477
uss	11478
vag	11479
zza	11480
##a3	11481
##mal	11482
##yr	11483
##grim	11484
##են	11485
##ari	11486
height	11487
deau	11488
##isure	11489
leisure	11490
shet	11491
saver	11492
abe	11493
hib	11494
suz	11495
##odi	11496
prep	11497
coerc	11498
amon	11499
canyon	11500
ación	11501
##esar	11502
rabb	11503
sof	11504
clay	11505
idol	11506
rupt	11507
1983	11508
1985	11509
urreal	11510
vienn	11511
##rup	11512
curator	11513
##...	11514
swirl	11515
gret	11516
nett	11517
invas	11518
humid	11519
ratt	11520
##365	11521
ival	11522
venu	11523
wallow	11524
sina	11525
lena	11526
mortal	11527
bruise	11528
scoop	11529
pilgrim	11530
cognis	11531
shelf	11532
censu	11533
ulsion	11534
abdulla	11535
elfish	11536
cushion	11537
2nd	11538
cod	11539
cue	11540
faint	11541
gg	11542
hl	11543
kav	11544
kemp	11545
ost	11546
roma	11547
uber	11548
vouch	11549
zard	11550
}"	11551
##d1	11552
##bid	11553
##sch	11554
##inn	11555
##alous	11556
##idant	11557
##lly	11558
##ura	11559
##etal	11560
##roid	11561
alp	11562
chore	11563
leen	11564
abbe	11565
hinder	11566
maver	11567
arra	11568
mei	11569
adhere	11570
mano	11571
usd	11572
fog	11573
quirk	11574
estruct	11575
idi	11576
1967	11577
consul	11578
config	11579
barrage	11580
swamy	11581
electro	11582
cali	11583
calv	11584
succes	11585
sanit	11586
convene	11587
snatch	11588
sourced	11589
sali	11590
salon	11591
nava	11592
fluent	11593
analyze	11594
graphical	11595
dimension	11596
luna	11597
salvado	11598
vandal	11599
más	11600
xiao	11601
choreograph	11602
estructive	11603
2m	11604
4d	11605
aya	11606
dv	11607
ló	11608
lene	11609
ois	11610
oul	11611
pus	11612
pork	11613
rn	11614
sie	11615
scept	11616
yas	11617
##rich	11618
##mah	11619
##state	11620
fork	11621
atha	11622
ench	11623
wein	11624
leek	11625
concil	11626
sain	11627
saba	11628
lapping	11629
mend	11630
herr	11631
brat	11632
brid	11633
incidence	11634
cler	11635
indo	11636
fianc	11637
pheric	11638
api	11639
vegan	11640
rugged	11641
1973	11642
grape	11643
airbn	11644
blitz	11645
lego	11646
##ificent	11647
115	11648
distort	11649
illi	11650
massage	11651
glut	11652
collide	11653
responsive	11654
screw	11655
pinch	11656
gyn	11657
otto	11658
compensate	11659
reinstate	11660
cristian	11661
menopause	11662
amento	11663
agnificent	11664
reminisc	11665
maverick	11666
enchant	11667
concili	11668
fiancé	11669
airbnb	11670
"?	11671
8pm	11672
dut	11673
gus	11674
kla	11675
kish	11676
oir	11677
rd	11678
rift	11679
riti	11680
uous	11681
##d7	11682
##cal	11683
##3c	11684
##bl	11685
##uous	11686
##mn	11687
##war	11688
##yro	11689
##ետ	11690
##rection	11691
stam	11692
##cede	11693
##edd	11694
##amine	11695
##immer	11696
chilli	11697
shri	11698
sepa	11699
saus	11700
abst	11701
abhi	11702
arte	11703
goers	11704
herd	11705
dob	11706
##omez	11707
peril	11708
hob	11709
hoop	11710
##istrate	11711
feast	11712
marque	11713
margo	11714
qua	11715
elvi	11716
veil	11717
fuss	11718
1977	11719
1981	11720
iac	11721
##erald	11722
brake	11723
refurb	11724
etch	11725
cala	11726
1730	11727
insane	11728
60s	11729
sanctu	11730
osity	11731
pickle	11732
torch	11733
existential	11734
magistrate	11735
rubber	11736
insurrection	11737
sitcom	11738
theatrical	11739
proclaim	11740
demeanor	11741
scammer	11742
rehearsal	11743
articulate	11744
sceptic	11745
bridg	11746
sausage	11747
6th	11748
ae	11749
cbi	11750
dd	11751
dud	11752
dunk	11753
furn	11754
ffer	11755
jav	11756
lut	11757
lade	11758
ond	11759
pond	11760
uz	11761
ucci	11762
vive	11763
vall	11764
wp	11765
ál	11766
են	11767
ել	11768
մա	11769
##qi	11770
##gical	11771
##hz	11772
##hor	11773
##jay	11774
##ín	11775
##step	11776
rect	11777
reimb	11778
##otage	11779
##ssom	11780
chok	11781
neal	11782
liu	11783
orph	11784
couch	11785
mente	11786
covent	11787
mania	11788
##oker	11789
##pta	11790
rab	11791
raving	11792
quet	11793
quint	11794
traitor	11795
atti	11796
##quer	11797
hari	11798
flank	11799
tribal	11800
blossom	11801
##ocado	11802
surgical	11803
128	11804
1200	11805
##venia	11806
avocado	11807
30s	11808
175	11809
jelly	11810
particle	11811
bats	11812
holyro	11813
convo	11814
aka	11815
hurl	11816
maddi	11817
circle	11818
karl	11819
pathetic	11820
repeal	11821
##stein	11822
ovic	11823
revival	11824
tweak	11825
sabotage	11826
cuis	11827
potting	11828
jacque	11829
slovenia	11830
scalp	11831
burglar	11832
calculation	11833
perpetu	11834
dentist	11835
undo	11836
helmet	11837
snooker	11838
1950s	11839
apollo	11840
shapir	11841
getaway	11842
reimburse	11843
coventry	11844
holyrood	11845
!)	11846
6pm	11847
aq	11848
cot	11849
fetch	11850
gly	11851
gomez	11852
hue	11853
lm	11854
tala	11855
vu	11856
vom	11857
##fw	11858
##iotic	11859
##iatric	11860
##to	11861
##uania	11862
##yo	11863
##_s	11864
sti	11865
##utter	11866
enrich	11867
ern	11868
sap	11869
##pez	11870
truc	11871
moy	11872
paed	11873
scroll	11874
raffic	11875
grit	11876
twel	11877
polite	11878
cep	11879
##agoni	11880
idas	11881
autonom	11882
##quito	11883
fulness	11884
gaff	11885
credential	11886
protagoni	11887
skull	11888
detach	11889
naught	11890
greed	11891
eti	11892
invok	11893
paste	11894
jealous	11895
insert	11896
ripe	11897
glance	11898
hygi	11899
vault	11900
ps5	11901
hurst	11902
doorstep	11903
prag	11904
mosquito	11905
catalog	11906
repel	11907
flora	11908
ocietal	11909
##guarding	11910
implant	11911
boule	11912
terminate	11913
accuracy	11914
inherent	11915
situ	11916
hrie	11917
phenomenal	11918
lithuania	11919
ullah	11920
eisen	11921
ceipt	11922
;}.	11923
ysia	11924
afeguarding	11925
vomit	11926
autonomous	11927
hygien	11928
225	11929
bale	11930
cinc	11931
glu	11932
hod	11933
jah	11934
lill	11935
mish	11936
nate	11937
ote	11938
pon	11939
sod	11940
sier	11941
tia	11942
vip	11943
yak	11944
##6e	11945
##100	11946
##cular	11947
##wy	11948
##ym	11949
##hu	11950
##ominal	11951
##idal	11952
##vedev	11953
envelop	11954
dell	11955
deaf	11956
ching	11957
churn	11958
levi	11959
frantic	11960
lai	11961
abo	11962
covet	11963
percussion	11964
##feit	11965
pawn	11966
spi	11967
feas	11968
bran	11969
medvedev	11970
gupta	11971
##itioner	11972
vez	11973
buch	11974
##quil	11975
opol	11976
brett	11977
gael	11978
blanche	11979
redd	11980
passive	11981
119	11982
petro	11983
25th	11984
bada	11985
bleach	11986
embodi	11987
practitioner	11988
beautiful	11989
---	11990
dadd	11991
ricc	11992
squat	11993
gamble	11994
occupy	11995
computing	11996
culmi	11997
abdominal	11998
ahmad	11999
##gari	12000
krishna	12001
vascular	12002
ություն	12003
jolie	12004
ecuador	12005
fragrance	12006
##innati	12007
vivek	12008
cuisine	12009
cincinnati	12010
sierra	12011
3rd	12012
eke	12013
eze	12014
erect	12015
fis	12016
gou	12017
kw	12018
kes	12019
lish	12020
mt	12021
mong	12022
nz	12023
nir	12024
pall	12025
ump	12026
##ax	12027
##rne	12028
##ks	12029
##2d	12030
##bia	12031
##yle	12032
##ña	12033
inha	12034
token	12035
##ette	12036
##iro	12037
wah	12038
lex	12039
byrne	12040
proba	12041
loo	12042
allu	12043
amuse	12044
foam	12045
compat	12046
intersect	12047
indra	12048
thrust	12049
flur	12050
mrc	12051
cola	12052
memphi	12053
experie	12054
russia	12055
gott	12056
transmit	12057
cheque	12058
simu	12059
##acist	12060
refrain	12061
economist	12062
choo	12063
logged	12064
slur	12065
discrimin	12066
##350	12067
pencil	12068
limp	12069
collage	12070
auditor	12071
nium	12072
coaster	12073
magis	12074
bulgari	12075
kilogram	12076
thorp	12077
hypothe	12078
alvar	12079
evangel	12080
lópez	12081
conciliation	12082
refurbish	12083
discriminate	12084
4a	12085
cv	12086
cly	12087
dt	12088
gic	12089
iat	12090
jub	12091
jak	12092
kesh	12093
lv	12094
nka	12095
oste	12096
tard	12097
uar	12098
yash	12099
##auc	12100
##zale	12101
##ատ	12102
##onna	12103
##itiv	12104
edge	12105
##rey	12106
itz	12107
itation	12108
##isma	12109
##rash	12110
##gel	12111
maggi	12112
lister	12113
bypass	12114
##usib	12115
trate	12116
pau	12117
roos	12118
boob	12119
##eme	12120
fied	12121
icio	12122
strom	12123
sonic	12124
shea	12125
recur	12126
1971	12127
1964	12128
1969	12129
plausib	12130
surya	12131
croft	12132
109	12133
curio	12134
chew	12135
skate	12136
cyn	12137
50s	12138
camb	12139
isha	12140
heavy	12141
madonna	12142
televise	12143
physio	12144
eux	12145
boro	12146
copies	12147
revolve	12148
fanta	12149
gonzale	12150
chuk	12151
magnetic	12152
bureauc	12153
="{"	12154
##head	12155
glamour	12156
viktor	12157
bunker	12158
abraham	12159
gossip	12160
iatrist	12161
gonzalez	12162
bureaucrat	12163
220	12164
230	12165
3m	12166
auss	12167
cci	12168
dorm	12169
fount	12170
kg	12171
kis	12172
nw	12173
nay	12174
ngent	12175
pou	12176
ponder	12177
w_	12178
ym	12179
առ	12180
##aw	12181
##aire	12182
##9c	12183
##lict	12184
##hr	12185
##ini	12186
ediev	12187
atu	12188
delic	12189
alber	12190
##isite	12191
neh	12192
neph	12193
send	12194
mee	12195
tau	12196
taco	12197
moz	12198
agua	12199
pax	12200
ifi	12201
emit	12202
bring	12203
parr	12204
fiance	12205
decree	12206
##shift	12207
1940	12208
1974	12209
charisma	12210
colt	12211
syl	12212
dah	12213
delv	12214
capri	12215
##ramid	12216
advi	12217
intric	12218
30th	12219
arma	12220
illum	12221
mural	12222
thermal	12223
oso	12224
venge	12225
,'"	12226
buda	12227
##f08	12228
nym	12229
tomb	12230
storie	12231
vett	12232
kimber	12233
cartoon	12234
pyramid	12235
dho	12236
kurt	12237
ographer	12238
bundes	12239
imperson	12240
voluntarily	12241
akeshift	12242
ության	12243
stefani	12244
>.</	12245
vsky	12246
cemetery	12247
obscur	12248
aussie	12249
fountain	12250
edieval	12251
nephew	12252
4b	12253
650	12254
bok	12255
eternal	12256
hound	12257
kom	12258
mé	12259
nort	12260
ngu	12261
o2	12262
pf	12263
poul	12264
rik	12265
rode	12266
upend	12267
wald	12268
##4f	12269
##osh	12270
##7e	12271
##had	12272
thrash	12273
##oucester	12274
stav	12275
##amel	12276
shank	12277
suk	12278
caesar	12279
esque	12280
meadow	12281
oney	12282
bao	12283
agne	12284
prat	12285
acies	12286
parti	12287
diar	12288
noi	12289
carm	12290
resent	12291
##emark	12292
##akh	12293
1972	12294
1948	12295
brewer	12296
108	12297
artisan	12298
patent	12299
rattle	12300
##ecd	12301
duff	12302
cym	12303
infer	12304
merc	12305
gloucester	12306
equi	12307
derm	12308
derby	12309
nomic	12310
psis	12311
epi	12312
casa	12313
##cuit	12314
trademark	12315
punk	12316
\"><	12317
owl	12318
lashes	12319
cull	12320
lapse	12321
rosa	12322
inspector	12323
tti	12324
nitro	12325
physics	12326
biscuit	12327
rivi	12328
tibet	12329
breeze	12330
nourish	12331
rabbit	12332
hodg	12333
clyde	12334
a0	12335
dive	12336
eject	12337
ike	12338
kip	12339
nand	12340
nated	12341
nder	12342
oled	12343
pb	12344
sed	12345
sib	12346
tid	12347
vist	12348
zip	12349
##5b	12350
##ür	12351
##s3	12352
##yad	12353
##րա	12354
thal	12355
##iner	12356
##incial	12357
haus	12358
heed	12359
whirl	12360
ensh	12361
albu	12362
chha	12363
nev	12364
neider	12365
lax	12366
mead	12367
meyer	12368
tron	12369
uper	12370
perm	12371
acro	12372
##pers	12373
scour	12374
quer	12375
quash	12376
crust	12377
indi	12378
##shi	12379
esteem	12380
secular	12381
terre	12382
fling	12383
wrinkle	12384
charger	12385
##aphor	12386
metaphor	12387
millionaire	12388
provincial	12389
wedg	12390
gaze	12391
mori	12392
hora	12393
bali	12394
franco	12395
definitiv	12396
abortion	12397
machin	12398
single	12399
iraqi	12400
graceful	12401
cinema	12402
congreg	12403
iles	12404
velvet	12405
slave	12406
stabilise	12407
bahra	12408
chorus	12409
tranquil	12410
hustle	12411
invasive	12412
divest	12413
enshrin	12414
),"	12415
8th	12416
dong	12417
evel	12418
giver	12419
jian	12420
lant	12421
pis	12422
pomp	12423
ría	12424
wis	12425
yun	12426
ydd	12427
ման	12428
##4c	12429
##960	12430
##iator	12431
##pic	12432
##eration	12433
##ature	12434
beverage	12435
hak	12436
iteration	12437
forbid	12438
ati	12439
thatcher	12440
##ctri	12441
conse	12442
concussion	12443
##kel	12444
arj	12445
loos	12446
##opol	12447
cocon	12448
worm	12449
doo	12450
doctri	12451
##loid	12452
emin	12453
scu	12454
##ffl	12455
monopol	12456
disgu	12457
dispers	12458
criti	12459
elite	12460
fizz	12461
anya	12462
icating	12463
antes	12464
claw	12465
recon	12466
1978	12467
retention	12468
ille	12469
daq	12470
steak	12471
cameo	12472
provide	12473
broil	12474
118	12475
breaker	12476
45pm	12477
palo	12478
thirty	12479
insure	12480
##iki	12481
junk	12482
luka	12483
billi	12484
supervise	12485
troy	12486
hann	12487
khel	12488
static	12489
digg	12490
circus	12491
robotic	12492
martyr	12493
cted	12494
timer	12495
devo	12496
belly	12497
tabloid	12498
geoff	12499
oti	12500
cosmo	12501
culi	12502
gladiator	12503
legitim	12504
harbour	12505
gwyn	12506
raisi	12507
tbsp	12508
kristi	12509
corte	12510
apprehend	12511
aggreg	12512
illumin	12513
coconut	12514
disguise	12515
critiqu	12516
";	12517
5et	12518
5pm	12519
bard	12520
bare	12521
bhi	12522
cf	12523
cid	12524
hank	12525
ilo	12526
mv	12527
rome	12528
sg	12529
v1	12530
xx	12531
ես	12532
##9d	12533
##si	12534
##pape	12535
thug	12536
infe	12537
##nda	12538
##ining	12539
stol	12540
shak	12541
shred	12542
##ckey	12543
hij	12544
hier	12545
##ulf	12546
mear	12547
amen	12548
hobby	12549
moi	12550
moh	12551
bair	12552
cron	12553
jockey	12554
intern	12555
finery	12556
enda	12557
miz	12558
1966	12559
urin	12560
bigg	12561
newspape	12562
10m	12563
hamper	12564
barcl	12565
berger	12566
politico	12567
respirator	12568
ref_s	12569
corby	12570
germa	12571
potent	12572
funk	12573
tread	12574
olin	12575
macro	12576
imagining	12577
catcher	12578
adoles	12579
ndall	12580
sensual	12581
rini	12582
liquor	12583
slav	12584
klein	12585
mogul	12586
spearhead	12587
orphan	12588
umpir	12589
barclay	12590
ref_src	12591
corbyn	12592
adolesc	12593
370	12594
4th	12595
astic	12596
cker	12597
cunn	12598
dang	12599
dha	12600
eave	12601
h5	12602
oud	12603
rine	12604
tl	12605
wiki	12606
վա	12607
##din	12608
##7000	12609
##ta	12610
##vili	12611
##jo	12612
thieve	12613
thwart	12614
##lester	12615
##llen	12616
bes	12617
haver	12618
itous	12619
wain	12620
##ravel	12621
shek	12622
frenz	12623
maga	12624
exo	12625
suck	12626
orn	12627
caval	12628
mesh	12629
unravel	12630
##odia	12631
tram	12632
amir	12633
hoon	12634
bai	12635
agu	12636
newcom	12637
##ipro	12638
preserv	12639
guild	12640
##agog	12641
antib	12642
asso	12643
surrogate	12644
brea	12645
iano	12646
obl	12647
hitch	12648
inex	12649
debunk	12650
soli	12651
huff	12652
111	12653
cholester	12654
tilt	12655
insider	12656
penet	12657
mcdo	12658
riyad	12659
ibiza	12660
iva	12661
glitter	12662
##ugged	12663
akis	12664
angling	12665
turf	12666
turtle	12667
strategic	12668
savour	12669
koh	12670
schedule	12671
satir	12672
rapist	12673
gorod	12674
tamper	12675
rtney	12676
mccul	12677
magazin	12678
"),	12679
sympathetic	12680
ody	12681
ssi	12682
tropic	12683
cyclo	12684
procure	12685
barrister	12686
abundant	12687
kazakh	12688
dazzling	12689
vodka	12690
furnish	12691
5etfw	12692
eaves	12693
newcomer	12694
preserva	12695
antibiotic	12696
cholesterol	12697
7th	12698
],"	12699
fade	12700
gart	12701
hq	12702
iad	12703
jor	12704
kirst	12705
lure	12706
lili	12707
sf	12708
sang	12709
uh	12710
wb	12711
wiz	12712
ից	12713
կա	12714
մի	12715
տե	12716
##ao	12717
##iant	12718
##net	12719
##gia	12720
tou	12721
heit	12722
anecd	12723
##ros	12724
sax	12725
lak	12726
exag	12727
mep	12728
melo	12729
tek	12730
##una	12731
worcester	12732
plen	12733
paol	12734
peas	12735
ushi	12736
acu	12737
emic	12738
monik	12739
repa	12740
elia	12741
incre	12742
##shay	12743
bet365	12744
extortion	12745
harro	12746
schul	12747
ascend	12748
bli	12749
103	12750
meticulous	12751
politician	12752
simmer	12753
nau	12754
defiant	12755
cracy	12756
armour	12757
petr	12758
juve	12759
insky	12760
shorten	12761
walker	12762
exclaim	12763
glar	12764
akshay	12765
hurr	12766
angelo	12767
narrate	12768
fleck	12769
homo	12770
t20i	12771
skew	12772
skele	12773
ketamine	12774
spook	12775
succumb	12776
baptist	12777
twelve	12778
vista	12779
hijack	12780
exagge	12781
/.	12782
3bn	12783
borg	12784
cz	12785
dum	12786
eiro	12787
hick	12788
iatric	12789
kush	12790
ls	12791
lle	12792
nol	12793
noun	12794
odo	12795
sour	12796
tash	12797
xl	12798
yam	12799
zig	12800
ով	12801
##5a	12802
##ringe	12803
##med	12804
##lude	12805
##wr	12806
##yt	12807
##ering	12808
##str	12809
anc	12810
enne	12811
enstein	12812
chet	12813
chol	12814
conquer	12815
##olo	12816
exem	12817
exert	12818
argo	12819
##las	12820
lop	12821
escu	12822
imit	12823
coy	12824
afa	12825
##earth	12826
amal	12827
tac	12828
fend	12829
evade	12830
compress	12831
soh	12832
cries	12833
cramp	12834
uka	12835
##agen	12836
idad	12837
##qui	12838
shee	12839
1930	12840
confisc	12841
blower	12842
107	12843
10pm	12844
barbe	12845
handcu	12846
##osaur	12847
filip	12848
##venil	12849
henko	12850
fanci	12851
closet	12852
gersh	12853
calib	12854
purr	12855
palp	12856
juvenil	12857
illian	12858
easies	12859
##quez	12860
camero	12861
boyle	12862
ivor	12863
bleak	12864
freight	12865
beni	12866
24th	12867
yev	12868
cataly	12869
mili	12870
scarce	12871
flesh	12872
nhagen	12873
devil	12874
magnet	12875
culp	12876
prolific	12877
aspirin	12878
lurk	12879
shuffl	12880
fidel	12881
stigma	12882
abstract	12883
mtv	12884
ifiers	12885
romeo	12886
hierar	12887
barbecue	12888
handcuff	12889
cameroon	12890
260	12891
4c	12892
8m	12893
a2	12894
bung	12895
cerv	12896
dl	12897
dag	12898
eering	12899
iy	12900
jc	12901
mop	12902
rans	12903
tut	12904
tama	12905
zay	12906
zvere	12907
ամ	12908
##ement	12909
##3e	12910
##ture	12911
##sion	12912
##len	12913
inver	12914
##erife	12915
##orient	12916
tot	12917
##arious	12918
reus	12919
##enth	12920
stitch	12921
chim	12922
weg	12923
laure	12924
lizz	12925
cain	12926
unearth	12927
teenth	12928
trot	12929
trench	12930
plym	12931
hoard	12932
baffle	12933
dias	12934
brom	12935
marx	12936
marvel	12937
cringe	12938
howl	12939
clown	12940
inda	12941
phony	12942
pharm	12943
##ryo	12944
endow	12945
##quential	12946
assail	12947
rup	12948
extinguish	12949
clap	12950
engulf	12951
annex	12952
blister	12953
10am	12954
##plate	12955
##plant	12956
berth	12957
delusion	12958
transcend	12959
transplant	12960
facet	12961
woo	12962
##retion	12963
choke	12964
drizz	12965
discretion	12966
##tenham	12967
staunch	12968
##ciss	12969
tenerife	12970
excav	12971
gli	12972
trek	12973
torrent	12974
welt	12975
vander	12976
embryo	12977
auda	12978
glaci	12979
narciss	12980
talgia	12981
##sticide	12982
template	12983
270	12984
cheltenham	12985
pretty	12986
alexi	12987
flem	12988
reboot	12989
jihad	12990
nurture	12991
scrum	12992
axis	12993
frog	12994
stagn	12995
abdel	12996
tangle	12997
oaks	12998
pizz	12999
soren	13000
teaser	13001
dental	13002
sdale	13003
sburg	13004
cocoa	13005
coffin	13006
17134	13007
sahara	13008
17200	13009
anthropo	13010
pragmat	13011
fisch	13012
dermot	13013
consequential	13014
loosen	13015
increment	13016
zverev	13017
plymouth	13018
135	13019
5bn	13020
apt	13021
b0	13022
bj	13023
balk	13024
clu	13025
cudd	13026
gast	13027
gha	13028
iu	13029
mow	13030
nach	13031
nical	13032
naya	13033
ood	13034
rife	13035
rnal	13036
tad	13037
upp	13038
vc	13039
yv	13040
zier	13041
zah	13042
ée	13043
##ai	13044
##rome	13045
##rence	13046
##dg	13047
##ler	13048
##lon	13049
##hem	13050
theo	13051
##oro	13052
##atri	13053
##owl	13054
erl	13055
erad	13056
##urrect	13057
##ctic	13058
dean	13059
##igent	13060
wax	13061
coma	13062
lazy	13063
hiker	13064
arse	13065
arty	13066
caffe	13067
##oda	13068
precede	13069
doc	13070
doyle	13071
canon	13072
uphe	13073
prud	13074
fax	13075
dile	13076
grunt	13077
resurrect	13078
guerr	13079
fiber	13080
buc	13081
wara	13082
##quency	13083
asse	13084
extinct	13085
1963	13086
1947	13087
eca	13088
##aval	13089
bloat	13090
demi	13091
graff	13092
modu	13093
106	13094
appell	13095
metab	13096
brac	13097
transcript	13098
refrig	13099
teller	13100
##prit	13101
##450	13102
256	13103
50th	13104
frequency	13105
negro	13106
kari	13107
fluff	13108
ashi	13109
occurrence	13110
eaten	13111
ambigu	13112
mutation	13113
rogation	13114
pierc	13115
culprit	13116
##ում	13117
marina	13118
intrus	13119
topple	13120
diligent	13121
ceramic	13122
mammal	13123
johannes	13124
volcano	13125
javi	13126
upheaval	13127
metabol	13128
año	13129
c0	13130
c_	13131
cay	13132
cip	13133
dott	13134
eim	13135
gish	13136
h_5	13137
lb	13138
mh	13139
nk	13140
pse	13141
tch	13142
ux	13143
vivid	13144
wink	13145
իր	13146
##fi	13147
##ez	13148
##2c	13149
##ien	13150
##n1	13151
##nish	13152
##may	13153
##mala	13154
thwa	13155
##eno	13156
bec	13157
hect	13158
enlar	13159
eros	13160
erode	13161
dew	13162
##irn	13163
##irrel	13164
##road	13165
wasp	13166
chrome	13167
conju	13168
lair	13169
lach	13170
##atemala	13171
lique	13172
exh	13173
arrog	13174
gob	13175
caa	13176
##ores	13177
preach	13178
adia	13179
pog	13180
poign	13181
##los	13182
pei	13183
peat	13184
peep	13185
pesticide	13186
roost	13187
##0000	13188
diverge	13189
cruc	13190
hima	13191
guatemala	13192
ruffle	13193
tyne	13194
tyran	13195
195	13196
1920	13197
1962	13198
demolition	13199
retrib	13200
sme	13201
izzy	13202
vijay	13203
oba	13204
armor	13205
plex	13206
185	13207
candy	13208
40s	13209
ivka	13210
pupp	13211
falter	13212
earnest	13213
rana	13214
cleanse	13215
tomy	13216
litz	13217
samar	13218
casino	13219
gasp	13220
malcol	13221
ovsk	13222
fledg	13223
squirrel	13224
rebuk	13225
railroad	13226
dinosaur	13227
botan	13228
lisa	13229
synonym	13230
]."	13231
cuban	13232
dolphin	13233
violet	13234
idiot	13235
w_960	13236
jiang	13237
exempl	13238
eiman	13239
h_540	13240
thwaite	13241
hectare	13242
enlarge	13243
malcolm	13244
+,	13245
1bn	13246
9pm	13247
a9	13248
ape	13249
gerald	13250
lore	13251
oke	13252
rro	13253
rman	13254
vap	13255
vita	13256
աց	13257
վել	13258
##eon	13259
##but	13260
##lom	13261
##zia	13262
##vr	13263
##պր	13264
##alid	13265
##alish	13266
redu	13267
##icap	13268
haka	13269
stamp	13270
stipul	13271
hea	13272
devi	13273
##ad5	13274
lecl	13275
combe	13276
fritz	13277
aron	13278
##law	13279
ims	13280
cobble	13281
maneu	13282
hove	13283
agar	13284
pex	13285
peach	13286
roj	13287
brim	13288
2029	13289
centric	13290
parisi	13291
claus	13292
flint	13293
syrup	13294
handicap	13295
curry	13296
toni	13297
##ogen	13298
##minate	13299
defer	13300
1500	13301
intest	13302
invalid	13303
hui	13304
chao	13305
strive	13306
novo	13307
kidd	13308
ume	13309
umba	13310
colli	13311
balm	13312
baltic	13313
##446	13314
turbo	13315
destin	13316
ventil	13317
shuttle	13318
istically	13319
gallo	13320
mortem	13321
mandi	13322
minimize	13323
cracker	13324
egreg	13325
katz	13326
ambu	13327
axe	13328
oto	13329
vocation	13330
culminate	13331
oriol	13332
mouse	13333
stylist	13334
pigeon	13335
prolife	13336
inflate	13337
hortlist	13338
viva	13339
rimmed	13340
##_you	13341
##agogue	13342
sourcing	13343
diaspora	13344
redunda	13345
leclerc	13346
maneuver	13347
egregious	13348
1px	13349
4s3	13350
5million	13351
:#	13352
?,""	13353
a3	13354
dg	13355
eid	13356
eous	13357
hh	13358
kah	13359
oire	13360
pam	13361
pong	13362
ule	13363
wolve	13364
yi	13365
zia	13366
ատ	13367
հետ	13368
##aj	13369
##1v	13370
##i1v	13371
##xidant	13372
##mail	13373
##power	13374
##zie	13375
##hum	13376
##ստ	13377
##մա	13378
##onia	13379
##ori	13380
##arf	13381
andra	13382
stove	13383
##irob	13384
##imm	13385
##isk	13386
chak	13387
saj	13388
orca	13389
tramp	13390
##ghurt	13391
yearn	13392
amar	13393
amber	13394
perse	13395
bake	13396
ific	13397
roach	13398
fau	13399
##peror	13400
emperor	13401
raft	13402
caramel	13403
dismay	13404
tractor	13405
clamp	13406
guan	13407
antio	13408
fuck	13409
duran	13410
##ifer	13411
dru	13412
gaug	13413
senn	13414
brav	13415
menac	13416
brod	13417
redeem	13418
nairob	13419
##acon	13420
grealish	13421
popp	13422
112	13423
calla	13424
duct	13425
infilt	13426
miguel	13427
144	13428
142	13429
thermo	13430
oslo	13431
401	13432
ferdin	13433
balo	13434
heaven	13435
practise	13436
nyc	13437
timulate	13438
lani	13439
ovo	13440
natal	13441
yoghurt	13442
ghe	13443
ntus	13444
revital	13445
mortar	13446
mandel	13447
minimise	13448
doro	13449
patriarch	13450
zoom	13451
shrimp	13452
rigid	13453
terminal	13454
kettle	13455
odor	13456
blunder	13457
vampire	13458
nburg	13459
abundance	13460
precarious	13461
scanner	13462
clerk	13463
diarrh	13464
anecdote	13465
moniker	13466
eradicate	13467
##_you_	13468
4s3i1v	13469
antioxidant	13470
nairobi	13471
ferdinand	13472
"-	13473
2pm	13474
9am	13475
??	13476
b5	13477
bia	13478
cma	13479
cube	13480
cinct	13481
dn	13482
gior	13483
hn	13484
lich	13485
mn	13486
mia	13487
oyo	13488
pied	13489
pne	13490
pfl	13491
pudd	13492
sis	13493
tg	13494
wn	13495
zee	13496
##5d	13497
##rick	13498
##cion	13499
##boo	13500
##spect	13501
##ոն	13502
##ano	13503
##alment	13504
##alanche	13505
##reate	13506
##icu	13507
##ics	13508
##omon	13509
beer	13510
beal	13511
only	13512
itism	13513
eno	13514
##ursion	13515
deut	13516
##edral	13517
chou	13518
chow	13519
##gey	13520
nex	13521
##terior	13522
except	13523
##ortal	13524
prostit	13525
butch	13526
trunk	13527
2050	13528
afro	13529
posh	13530
amic	13531
moll	13532
mohan	13533
bait	13534
bob	13535
bogey	13536
quay	13537
compare	13538
repatri	13539
##fta	13540
mince	13541
recreate	13542
grazia	13543
urine	13544
clem	13545
bann	13546
blush	13547
tonic	13548
instalment	13549
avalanche	13550
sunny	13551
denni	13552
solomon	13553
blackmail	13554
lina	13555
ellar	13556
inski	13557
dull	13558
850	13559
garr	13560
garret	13561
felix	13562
excursion	13563
rada	13564
embold	13565
tsa	13566
tunis	13567
salut	13568
marti	13569
##ombie	13570
piss	13571
fluctu	13572
immortal	13573
survivor	13574
oku	13575
tanz	13576
owitz	13577
vinyl	13578
enski	13579
ayr	13580
cathedral	13581
mimic	13582
jaya	13583
bosnia	13584
tumult	13585
sync	13586
dynast	13587
yuan	13588
niece	13589
conglom	13590
expansive	13591
acquaint	13592
vigor	13593
ulsory	13594
odile	13595
caveat	13596
absentee	13597
retrospect	13598
##euvr	13599
}">	13600
manoeuvr	13601
mishap	13602
h5n1	13603
giorgi	13604
pneum	13605
pudding	13606
embolden	13607
conglomerate	13608
215	13609
a5	13610
alder	13611
bide	13612
cken	13613
ngan	13614
oj	13615
surn	13616
tutor	13617
vue	13618
wf	13619
zin	13620
	13621
én	13622
ստ	13623
##fia	13624
##fans	13625
##6f	13626
##cin	13627
##9a	13628
##nou	13629
##mon	13630
##lb	13631
##wm	13632
##gs	13633
##աց	13634
inhibit	13635
reich	13636
heor	13637
##sse	13638
##etical	13639
##igor	13640
friction	13641
sao	13642
maze	13643
liar	13644
argy	13645
loa	13646
tess	13647
adity	13648
poi	13649
##iable	13650
.")	13651
tavern	13652
hoy	13653
prank	13654
ift	13655
ifiable	13656
roam	13657
sob	13658
replen	13659
incent	13660
entren	13661
accru	13662
buoy	13663
ruck	13664
exped	13665
1961	13666
##avit	13667
muj	13668
igo	13669
iggs	13670
urugu	13671
asa	13672
surer	13673
banter	13674
blad	13675
102	13676
barric	13677
farr	13678
obi	13679
bally	13680
##ibia	13681
##mma	13682
116	13683
113	13684
11am	13685
furt	13686
200m	13687
petit	13688
uli	13689
mcn	13690
octa	13691
165	13692
##ovy	13693
seren	13694
puck	13695
caste	13696
namibia	13697
angled	13698
epic	13699
##f70	13700
mila	13701
##iels	13702
navi	13703
garda	13704
siren	13705
analytic	13706
squi	13707
jerk	13708
pune	13709
ndi	13710
hiro	13711
nikola	13712
cuff	13713
nano	13714
").	13715
boiler	13716
##diq	13717
kras	13718
curtail	13719
sultan	13720
buddh	13721
bamboo	13722
securit	13723
reconci	13724
sgt	13725
besieg	13726
wegovy	13727
dilemma	13728
c_fill	13729
onlyfans	13730
ngannou	13731
surname	13732
aditya	13733
replenish	13734
uruguay	13735
barricad	13736
4bn	13737
7pm	13738
8am	13739
:-	13740
?!	13741
?,"	13742
aub	13743
ault	13744
aza	13745
cuc	13746
damp	13747
ender	13748
ffe	13749
fowl	13750
gastro	13751
kou	13752
kher	13753
nj	13754
nim	13755
nus	13756
niels	13757
pom	13758
rar	13759
sz	13760
sán	13761
vase	13762
xin	13763
yne	13764
zag	13765
zac	13766
##fund	13767
##1000	13768
##oa	13769
##ogh	13770
##9f	13771
##9e	13772
##tf	13773
##hou	13774
##hma	13775
##idad	13776
##idavit	13777
##iones	13778
bek	13779
ito	13780
heid	13781
anz	13782
anoma	13783
##cht	13784
wai	13785
alba	13786
shon	13787
##lav	13788
herz	13789
adas	13790
dove	13791
##ely	13792
##inee	13793
manning	13794
hoe	13795
hov	13796
hollow	13797
bav	13798
prun	13799
papa	13800
pec	13801
pez	13802
pecul	13803
aciones	13804
fect	13805
incite	13806
cleric	13807
deco	13808
addy	13809
vender	13810
tyco	13811
opa	13812
##steric	13813
remorse	13814
plaster	13815
curv	13816
basin	13817
##ogyn	13818
124	13819
127	13820
naz	13821
naj	13822
misogyn	13823
subpo	13824
dravid	13825
burial	13826
##362	13827
162	13828
glue	13829
glitch	13830
##165	13831
hysteric	13832
atories	13833
cardi	13834
khtar	13835
embroid	13836
missive	13837
scorch	13838
kenzie	13839
affili	13840
affidavit	13841
silhou	13842
pande	13843
riddle	13844
asthma	13845
rhe	13846
trooper	13847
lori	13848
brazen	13849
ambush	13850
nuous	13851
therapies	13852
sharpen	13853
****	13854
krug	13855
##chez	13856
aleks	13857
amput	13858
undu	13859
toppers	13860
fumble	13861
հայ	13862
samaj	13863
ային	13864
stalwart	13865
endeavor	13866
endeavour	13867
uperpower	13868
deutsch	13869
pneumonia	13870
sánchez	13871
peculiar	13872
tycoon	13873
misogynist	13874
subpoena	13875
silhouette	13876
(-	13877
.<	13878
212	13879
2px	13880
4f	13881
440	13882
>&	13883
?)	13884
aan	13885
aughter	13886
bom	13887
c5	13888
humph	13889
ipe	13890
kale	13891
lf	13892
loth	13893
nip	13894
nade	13895
nian	13896
ount	13897
pw	13898
qh	13899
tere	13900
uth	13901
zep	13902
zha	13903
նա	13904
##riment	13905
##cier	13906
##tr	13907
##x9	13908
##yen	13909
##_a	13910
##ես	13911
##erator	13912
##orca	13913
##init	13914
##inch	13915
##icidal	13916
##omy	13917
hau	13918
angu	13919
##seille	13920
errat	13921
##eter	13922
chord	13923
weep	13924
leopard	13925
shad	13926
semin	13927
abram	13928
maine	13929
liken	13930
exud	13931
exotic	13932
##ulu	13933
gofund	13934
##lave	13935
cac	13936
20m	13937
##asia	13938
outwe	13939
cose	13940
##ains	13941
amin	13942
ammo	13943
roch	13944
aca	13945
fein	13946
evo	13947
raph	13948
##ff0	13949
marseille	13950
grue	13951
elicit	13952
atten	13953
entang	13954
##ivier	13955
clich	13956
accu	13957
cecil	13958
fiji	13959
pher	13960
keogh	13961
mio	13962
1944	13963
flush	13964
wrench	13965
muir	13966
muff	13967
familia	13968
asco	13969
blum	13970
dahl	13971
relish	13972
deplet	13973
locating	13974
126	13975
122	13976
129	13977
155	13978
crap	13979
oppo	13980
cutter	13981
##onton	13982
efa	13983
efinit	13984
pedal	13985
infringe	13986
mcal	13987
mcint	13988
134	13989
camil	13990
sana	13991
ferment	13992
factual	13993
bled	13994
tori	13995
vau	13996
dermat	13997
athi	13998
275	13999
olivier	14000
cop29	14001
nickel	14002
astri	14003
paddle	14004
rho	14005
chipp	14006
enslave	14007
sequin	14008
synagogue	14009
dhan	14010
kanth	14011
alto	14012
tta	14013
rossi	14014
admiral	14015
siddiq	14016
mallorca	14017
zzo	14018
cannon	14019
gwen	14020
flicker	14021
elope	14022
edmonton	14023
nnial	14024
suzan	14025
dutt	14026
ernest	14027
cambodia	14028
seduc	14029
ornament	14030
cavalier	14031
skeleton	14032
nacho	14033
refrigerator	14034
256gb	14035
botanic	14036
##wmwl	14037
heoretical	14038
humphrey	14039
ountains	14040
qhwmwl	14041
anguish	14042
erratic	14043
gofundme	14044
outweigh	14045
entangle	14046
efinitely	14047
(€	14048
145	14049
2bn	14050
340	14051
3pm	14052
6m	14053
9th	14054
cumb	14055
fret	14056
gs	14057
gali	14058
hw	14059
hath	14060
hunk	14061
ied	14062
jb	14063
kian	14064
mound	14065
nou	14066
sig	14067
s24	14068
sorrow	14069
tte	14070
ugh	14071
vm	14072
zombie	14073
պա	14074
սի	14075
##fun	14076
##134	14077
##xual	14078
##mark	14079
##yll	14080
##point	14081
##zb	14082
##zh	14083
##ավ	14084
##մեն	14085
##ör	14086
thri	14087
thump	14088
thera	14089
inqui	14090
##oulos	14091
edu	14092
haf	14093
dea	14094
##ed0	14095
##ige	14096
##rocket	14097
chl	14098
shen	14099
##ums	14100
##lage	14101
##lago	14102
##opia	14103
##odox	14104
outper	14105
outlaw	14106
co2	14107
tav	14108
hoj	14109
baha	14110
bafta	14111
diwa	14112
emulate	14113
rapp	14114
marcel	14115
crest	14116
crouch	14117
clums	14118
##aken	14119
endu	14120
idos	14121
##quish	14122
exponent	14123
opoulos	14124
bloke	14125
##phem	14126
hamef	14127
121	14128
nawa	14129
swiate	14130
##aculous	14131
refut	14132
158	14133
etriment	14134
wollen	14135
vali	14136
cracies	14137
electr	14138
calam	14139
"}"	14140
futur	14141
gloom	14142
149	14143
##osexual	14144
100th	14145
message	14146
ivist	14147
khu	14148
omics	14149
ranj	14150
counterfeit	14151
athlon	14152
skyrocket	14153
koch	14154
bonni	14155
pinpoint	14156
ordinarily	14157
siraj	14158
leni	14159
ridicu	14160
darc	14161
astra	14162
debutant	14163
miraculous	14164
ciara	14165
insurgent	14166
advocate	14167
lorenz	14168
emphatic	14169
bethan	14170
dorf	14171
adjud	14172
homosexual	14173
hydra	14174
condens	14175
otti	14176
reinvent	14177
kayak	14178
utilise	14179
ulsive	14180
dilute	14181
sergeant	14182
biology	14183
akes	14184
արմեն	14185
zambia	14186
strangle	14187
ecological	14188
"}}],"	14189
rupture	14190
nehru	14191
infest	14192
ված	14193
1930s	14194
catalyst	14195
ransom	14196
oodles	14197
ipelago	14198
outperform	14199
hameful	14200
swiatek	14201
etrimental	14202
արմենպր	14203
330	14204
335	14205
4m	14206
7m	14207
a1	14208
ept	14209
gail	14210
hater	14211
hinge	14212
kant	14213
klo	14214
kang	14215
kala	14216
lé	14217
lse	14218
lton	14219
mj	14220
nard	14221
ool	14222
ores	14223
oedd	14224
rill	14225
serg	14226
tink	14227
tín	14228
uicidal	14229
vain	14230
vint	14231
yna	14232
zack	14233
èle	14234
##och	14235
##300	14236
##iet	14237
##iqu	14238
##norm	14239
##bh	14240
##present	14241
##jj	14242
##մբ	14243
##alin	14244
rei	14245
rept	14246
reju	14247
##represent	14248
beet	14249
itos	14250
atlet	14251
##cedo	14252
##chw	14253
##imag	14254
conform	14255
abnorm	14256
mafia	14257
macedo	14258
##pee	14259
##umber	14260
unimag	14261
##pple	14262
herald	14263
cove	14264
afri	14265
adren	14266
##elance	14267
amble	14268
amban	14269
taj	14270
hof	14271
hadi	14272
##istib	14273
fey	14274
nostal	14275
##esis	14276
monster	14277
grud	14278
contour	14279
atta	14280
keb	14281
kep	14282
##rypt	14283
veg	14284
buen	14285
rupee	14286
tyron	14287
##apult	14288
gai	14289
fili	14290
irres	14291
swamp	14292
misrepresent	14293
15pm	14294
majes	14295
drape	14296
177	14297
179	14298
##ribble	14299
pedia	14300
##ika	14301
##gui	14302
shahi	14303
139	14304
citation	14305
freelance	14306
hyn	14307
torment	14308
kaur	14309
frack	14310
encrypt	14311
catapult	14312
tung	14313
essen	14314
olive	14315
malfun	14316
koe	14317
pirate	14318
ubiqu	14319
ridden	14320
ipating	14321
temperature	14322
nti	14323
nts	14324
bhat	14325
400m	14326
juliet	14327
axel	14328
otta	14329
wether	14330
անց	14331
%),	14332
bunn	14333
shiva	14334
nudg	14335
snoop	14336
##8f08	14337
!!!!	14338
orthodox	14339
bambi	14340
wynn	14341
segreg	14342
ijk	14343
"}},{"	14344
monger	14345
1940s	14346
tidy	14347
shakti	14348
incentiv	14349
bavar	14350
sergi	14351
rejuven	14352
beetle	14353
atleti	14354
abnormal	14355
unimagin	14356
adrenalin	14357
ambani	14358
nostalgic	14359
irresistib	14360
malfunction	14361
1pm	14362
460	14363
720	14364
aus	14365
dour	14366
ebb	14367
git	14368
gour	14369
g20	14370
iwa	14371
ks	14372
n1	14373
nue	14374
nies	14375
nne	14376
nacht	14377
rite	14378
rical	14379
rix	14380
rna	14381
sut	14382
sio	14383
sieg	14384
wie	14385
xt	14386
	14387
ão	14388
##e99	14389
##8000	14390
##nite	14391
##wi	14392
##plic	14393
##hat	14394
##je	14395
##jama	14396
thes	14397
##stine	14398
##stander	14399
edgar	14400
bess	14401
bead	14402
itus	14403
itiner	14404
whitt	14405
##ayan	14406
##amet	14407
##isal	14408
chalk	14409
chute	14410
chio	14411
##iller	14412
shay	14413
shing	14414
shack	14415
##olute	14416
mapp	14417
exual	14418
arita	14419
bystander	14420
gogg	14421
##usad	14422
."'	14423
plough	14424
##ourg	14425
scru	14426
disorient	14427
trainee	14428
resolute	14429
crusad	14430
joao	14431
##lical	14432
apolo	14433
##agu	14434
##agon	14435
underwhelm	14436
endear	14437
este	14438
anto	14439
fuji	14440
muizz	14441
##getic	14442
genital	14443
awaken	14444
smi	14445
banish	14446
barrow	14447
fara	14448
iang	14449
##ucin	14450
lark	14451
maturity	14452
152	14453
intra	14454
##raltar	14455
debilit	14456
lingual	14457
lli	14458
approving	14459
thirst	14460
uti	14461
##dd9	14462
##455	14463
138	14464
##895	14465
camel	14466
##150	14467
40th	14468
glide	14469
flak	14470
equate	14471
fairyt	14472
hallucin	14473
23rd	14474
prawn	14475
mosque	14476
samoa	14477
melan	14478
lanark	14479
##cule	14480
!""	14481
ipa	14482
bulb	14483
picnic	14484
mathem	14485
bhatt	14486
porch	14487
dhary	14488
galore	14489
diagnostic	14490
ucking	14491
buffet	14492
cubic	14493
frederic	14494
velo	14495
zuki	14496
azar	14497
gibraltar	14498
mesmer	14499
fertilise	14500
hassle	14501
mbourg	14502
salvage	14503
molecule	14504
ondo	14505
inexplic	14506
graffiti	14507
dampen	14508
apologetic	14509
muizzu	14510
fairytale	14511
+.	14512
210	14513
310	14514
365	14515
550	14516
bunk	14517
cp	14518
cpr	14519
df	14520
ether	14521
fide	14522
gadd	14523
hb	14524
hic	14525
kop	14526
kib	14527
kik	14528
lub	14529
lille	14530
mie	14531
odle	14532
plo	14533
poth	14534
rial	14535
tiv	14536
tif	14537
xeno	14538
yatt	14539
zend	14540
##oea	14541
##cotic	14542
##cía	14543
##200	14544
##773	14545
##bet	14546
##sor	14547
##mac	14548
##pid	14549
##vo	14550
##ée	14551
tho	14552
##inate	14553
##inity	14554
##arag	14555
##sthetic	14556
##icable	14557
hain	14558
##utic	14559
hee	14560
hein	14561
whim	14562
##sso	14563
enza	14564
erotic	14565
##eta	14566
##ambi	14567
##roach	14568
chit	14569
##thia	14570
##ilia	14571
sei	14572
##keem	14573
abstain	14574
exqu	14575
exterior	14576
aru	14577
arg	14578
arctic	14579
goose	14580
prosthetic	14581
205	14582
2040	14583
preet	14584
poile	14585
taw	14586
plumb	14587
bast	14588
spen	14589
spont	14590
spca	14591
focal	14592
broth	14593
brisk	14594
rabi	14595
##ipit	14596
crom	14597
guad	14598
vern	14599
phile	14600
sona	14601
##quet	14602
1965	14603
remacy	14604
coli	14605
ryk	14606
banquet	14607
blouse	14608
dac	14609
cursor	14610
brawl	14611
leton	14612
obey	14613
##abe	14614
numb	14615
##spass	14616
grease	14617
avat	14618
denomi	14619
mata	14620
157	14621
solo	14622
caledon	14623
1724	14624
.'"	14625
battal	14626
taro	14627
allego	14628
##ergy	14629
50m	14630
147	14631
certify	14632
felic	14633
16x9	14634
venor	14635
trespass	14636
saleh	14637
##886	14638
##243	14639
tipp	14640
##f55	14641
fortnite	14642
frail	14643
encroach	14644
##f04	14645
narcotic	14646
vehement	14647
##erna	14648
mascul	14649
wagon	14650
31st	14651
nicarag	14652
languish	14653
bolo	14654
ayhem	14655
adjourn	14656
immuno	14657
espicable	14658
marshal	14659
chalamet	14660
nautical	14661
babu	14662
96th	14663
edmund	14664
precipit	14665
volcanic	14666
##_your	14667
******	14668
aqsa	14669
catalogue	14670
mozambi	14671
sylv	14672
calibr	14673
pharmacist	14674
tanzania	14675
##_a_	14676
thesis	14677
pothole	14678
zendaya	14679
exquisite	14680
poiled	14681
spontane	14682
caledonia	14683
battalion	14684
masculinity	14685
nicaragua	14686
1t	14687
235	14688
375	14689
4k	14690
4pm	14691
6bn	14692
777	14693
?."	14694
b1	14695
bn	14696
c3	14697
cca	14698
cada	14699
d0	14700
dul	14701
dap	14702
e2	14703
ete	14704
gimm	14705
hief	14706
hna	14707
hugged	14708
iit	14709
iain	14710
jm	14711
jio	14712
kp	14713
moth	14714
nid	14715
nous	14716
nier	14717
sven	14718
uf	14719
ès	14720
ալ	14721
##aic	14722
##due	14723
##dite	14724
##eur	14725
##e87	14726
##ique	14727
##iative	14728
##nant	14729
##su	14730
##աջ	14731
thie	14732
##onge	14733
##ndhat	14734
##ars	14735
##itom	14736
##alow	14737
reap	14738
##reet	14739
hakeem	14740
stomp	14741
atis	14742
##otes	14743
whack	14744
whizz	14745
anu	14746
##uri	14747
alb	14748
##isage	14749
chil	14750
##ad0	14751
leh	14752
conco	14753
shamp	14754
laz	14755
mao	14756
maul	14757
exoner	14758
aric	14759
arca	14760
aruna	14761
##ulk	14762
##umi	14763
##artment	14764
loe	14765
loath	14766
cairn	14767
mello	14768
tec	14769
hertf	14770
imd	14771
plump	14772
hoax	14773
mok	14774
pry	14775
peek	14776
roz	14777
roche	14778
spar	14779
sponge	14780
nook	14781
sca	14782
scop	14783
##udg	14784
compartment	14785
jog	14786
##emi	14787
clon	14788
indy	14789
phe	14790
apc	14791
##resso	14792
ico	14793
1945	14794
earmark	14795
remnant	14796
plac	14797
regress	14798
##ocal	14799
schwart	14800
asio	14801
vind	14802
womb	14803
gendhat	14804
brag	14805
pristine	14806
irrig	14807
broom	14808
156	14809
subdue	14810
crab	14811
crave	14812
steril	14813
114	14814
discreet	14815
distiller	14816
132	14817
citi	14818
##fa0	14819
murk	14820
garcía	14821
##363	14822
saturated	14823
flaunt	14824
augment	14825
scorp	14826
glaz	14827
epitom	14828
envisage	14829
extradite	14830
savor	14831
ctomy	14832
tuary	14833
ntino	14834
ranger	14835
gyd	14836
squander	14837
bolic	14838
splen	14839
##factory	14840
flatten	14841
bhu	14842
bhav	14843
65c9	14844
tabu	14845
hello	14846
2010s	14847
kova	14848
mobilize	14849
espresso	14850
atmo	14851
efficac	14852
impec	14853
mackin	14854
!!"	14855
thyroid	14856
hazel	14857
wreak	14858
sembl	14859
naka	14860
soro	14861
cumul	14862
creek	14863
##swold	14864
ropy	14865
kristo	14866
hussai	14867
yogurt	14868
inkling	14869
zhou	14870
cotswold	14871
palliative	14872
jubi	14873
wizard	14874
##wright	14875
bungalow	14876
pseud	14877
puppet	14878
expedite	14879
lothian	14880
raphael	14881
gimmick	14882
atisfactory	14883
concoct	14884
shampoo	14885
hertford	14886
schwartz	14887
semblance	14888
!,"	14889
*,	14890
420	14891
495	14892
5ft	14893
8gb	14894
a6	14895
boul	14896
c4	14897
cis	14898
ccol	14899
fp	14900
falk	14901
gong	14902
gub	14903
hne	14904
hvi	14905
ija	14906
jem	14907
lite	14908
mā	14909
nen	14910
nama	14911
oth	14912
odu	14913
ril	14914
sr	14915
sza	14916
udu	14917
went	14918
wight	14919
wala	14920
zest	14921
ét	14922
իս	14923
ող	14924
##4f7	14925
##6000	14926
##ronom	14927
##3000	14928
##sm	14929
##lbs	14930
##press	14931
##hm	14932
##vial	14933
##շխ	14934
toff	14935
##itian	14936
##rec	14937
##ombe	14938
##idd	14939
beacon	14940
beige	14941
itan	14942
itative	14943
atlas	14944
envi	14945
##raine	14946
chron	14947
shre	14948
shrew	14949
shimmer	14950
##oler	14951
sele	14952
abular	14953
abolition	14954
abilia	14955
hive	14956
arbo	14957
##uls	14958
##ulg	14959
##uscript	14960
unct	14961
teja	14962
tegui	14963
coher	14964
poco	14965
amos	14966
manuscript	14967
pertain	14968
moot	14969
bagh	14970
##00s	14971
spiel	14972
boon	14973
fos	14974
brin	14975
grotes	14976
crater	14977
##ema	14978
##ilee	14979
playwright	14980
##usea	14981
centi	14982
elman	14983
include	14984
##ivia	14985
##ivocal	14986
phal	14987
kea	14988
keef	14989
bui	14990
warp	14991
miya	14992
1958	14993
harp	14994
mukh	14995
iger	14996
retract	14997
graeme	14998
quell	14999
bana	15000
104	15001
##ruci	15002
braid	15003
##2024	15004
##da0	15005
brood	15006
123	15007
blas	15008
nausea	15009
refill	15010
subst	15011
intoler	15012
crad	15013
##de5	15014
solit	15015
173	15016
##bc0	15017
pediatric	15018
)."	15019
duke	15020
##357	15021
136	15022
##fa5	15023
141	15024
##890	15025
164	15026
168	15027
funnel	15028
excruci	15029
veni	15030
##17c	15031
##bb0	15032
flake	15033
##123	15034
##887	15035
equivocal	15036
##remacist	15037
22nd	15038
combust	15039
platt	15040
platter	15041
missible	15042
##b06	15043
500m	15044
##879	15045
olm	15046
olph	15047
teenage	15048
##709	15049
participant	15050
supremacist	15051
ridd	15052
ipso	15053
astronom	15054
bolivia	15055
rebut	15056
truthful	15057
rahm	15058
sweeten	15059
jet2	15060
atlantic	15061
mccon	15062
yuv	15063
implore	15064
espa	15065
lauri	15066
%).	15067
ninja	15068
hesi	15069
substitution	15070
rasp	15071
rubbing	15072
eurasia	15073
safi	15074
carnival	15075
dvd	15076
jubilee	15077
cynthia	15078
առաջ	15079
nguyen	15080
mercen	15081
iyah	15082
##butz	15083
seminar	15084
kibbutz	15085
ccoli	15086
abulary	15087
grotesque	15088
excruciat	15089
.;	15090
245	15091
320	15092
4e	15093
512	15094
6am	15095
787	15096
8d	15097
950	15098
>:	15099
bick	15100
ccc	15101
cio	15102
cso	15103
cado	15104
db	15105
dere	15106
e5	15107
ehl	15108
jig	15109
kru	15110
luster	15111
osh	15112
pum	15113
pout	15114
pounce	15115
pml	15116
sop	15117
tür	15118
zand	15119
	15120
ña	15121
ún	15122
ադ	15123
##cf0	15124
##7ff	15125
##xin	15126
##uff	15127
##wild	15128
##gitive	15129
##het	15130
##hes	15131
##__	15132
##orrh	15133
toxin	15134
##eni	15135
##inter	15136
##aro	15137
fora	15138
anat	15139
chut	15140
weld	15141
##gee	15142
##illa	15143
converge	15144
shub	15145
saif	15146
abdo	15147
maca	15148
##peutic	15149
aroma	15150
cava	15151
esper	15152
20pm	15153
pret	15154
cog	15155
afta	15156
poach	15157
docu	15158
perip	15159
baf	15160
bahn	15161
agi	15162
fave	15163
##idepress	15164
emblem	15165
bray	15166
bram	15167
brill	15168
ragh	15169
geth	15170
elm	15171
elude	15172
incident	15173
miner	15174
clutter	15175
parc	15176
parse	15177
verb	15178
phan	15179
impo	15180
impede	15181
didi	15182
idyll	15183
autocrat	15184
antidepress	15185
fuzz	15186
fugitive	15187
ruf	15188
recu	15189
recipro	15190
1954	15191
remix	15192
regu	15193
grav	15194
graft	15195
starr	15196
gaon	15197
000mah	15198
believe	15199
deprec	15200
brash	15201
##jective	15202
sko	15203
##405	15204
12pm	15205
lott	15206
instig	15207
redo	15208
##venir	15209
159	15210
woven	15211
##604	15212
rata	15213
ratus	15214
45th	15215
1715	15216
1711	15217
1713	15218
pura	15219
histo	15220
##ba0	15221
tarnish	15222
cyf	15223
cyli	15224
junct	15225
ulate	15226
shafi	15227
migraine	15228
60th	15229
energize	15230
serra	15231
shovel	15232
venom	15233
motif	15234
ariat	15235
##1212	15236
dogg	15237
##888	15238
nomad	15239
audre	15240
angular	15241
criminalize	15242
##rowave	15243
piec	15244
omena	15245
ombre	15246
'."	15247
yeo	15248
romp	15249
salam	15250
sandi	15251
##cdc	15252
malign	15253
divine	15254
raman	15255
##doze	15256
fleur	15257
laden	15258
microwave	15259
demons	15260
bulldoze	15261
007	15262
tearful	15263
loren	15264
mutil	15265
dora	15266
fabian	15267
nann	15268
planetary	15269
galvan	15270
yuk	15271
pixa	15272
rehensive	15273
eagull	15274
embargo	15275
dimens	15276
comprehend	15277
mackenz	15278
nestle	15279
distributor	15280
wyr	15281
zzle	15282
cedar	15283
libertarian	15284
irrevers	15285
jolt	15286
##ործ	15287
souvenir	15288
mittent	15289
lauder	15290
apprehension	15291
atomic	15292
vagant	15293
ggers	15294
eminent	15295
oblite	15296
satiric	15297
vapor	15298
stampede	15299
therapeutic	15300
bnp	15301
guberna	15302
derelict	15303
türk	15304
periph	15305
antidepressant	15306
reciproc	15307
cylinder	15308
mackenzie	15309
.,"	15310
345	15311
3million	15312
4g	15313
499	15314
6ft	15315
a7	15316
aven	15317
b6	15318
bd	15319
b9	15320
cá	15321
dain	15322
dup	15323
euth	15324
f5	15325
fate	15326
goth	15327
gigan	15328
hg	15329
ión	15330
jha	15331
juggle	15332
kand	15333
kram	15334
lom	15335
lard	15336
llo	15337
lurch	15338
malk	15339
nge	15340
nty	15341
nace	15342
ogg	15343
oza	15344
orian	15345
pore	15346
uda	15347
wir	15348
yer	15349
yno	15350
zir	15351
zie	15352
zov	15353
zalu	15354
ազ	15355
##1f5	15356
##rieve	15357
##kat	15358
##e75	15359
##740	15360
##772	15361
##uitive	15362
##mel	15363
##wu	15364
##pirator	15365
##zhn	15366
##ndition	15367
toul	15368
##inum	15369
##oustic	15370
##alach	15371
rendition	15372
bewild	15373
forfeit	15374
het	15375
##oti	15376
isco	15377
##ce0	15378
##ce8	15379
anant	15380
##sec	15381
waz	15382
como	15383
shil	15384
shib	15385
sear	15386
session	15387
hizb	15388
##rise	15389
mael	15390
excer	15391
butcher	15392
cache	15393
esch	15394
trin	15395
tral	15396
hersh	15397
preempt	15398
coex	15399
adores	15400
perennial	15401
baj	15402
agility	15403
pag	15404
pape	15405
pee	15406
pegg	15407
acoustic	15408
foy	15409
qué	15410
grub	15411
carving	15412
compost	15413
resi	15414
reprieve	15415
reprise	15416
uku	15417
##acher	15418
##ivious	15419
clot	15420
gull	15421
veggi	15422
impover	15423
idle	15424
idian	15425
sono	15426
ruff	15427
explet	15428
1939	15429
harris	15430
eccent	15431
conspirator	15432
setter	15433
##ocat	15434
confidant	15435
plank	15436
bigot	15437
farn	15438
##cern	15439
metall	15440
metry	15441
##da5	15442
12gb	15443
musa	15444
swo	15445
swami	15446
grea	15447
fanatic	15448
matur	15449
matte	15450
somnia	15451
intuitive	15452
##805	15453
llama	15454
174	15455
uto	15456
##dd2	15457
infle	15458
sugg	15459
mcgee	15460
##899	15461
##159	15462
requisite	15463
##904	15464
funni	15465
badg	15466
titis	15467
horo	15468
##16a	15469
frei	15470
snub	15471
sniff	15472
247	15473
dogged	15474
kho	15475
castro	15476
##270	15477
vani	15478
##950	15479
omni	15480
strategy	15481
robot	15482
##870	15483
milo	15484
salem	15485
olig	15486
80th	15487
tull	15488
28th	15489
satya	15490
ovski	15491
auld	15492
piet	15493
millen	15494
ghi	15495
ghosh	15496
gyp	15497
mira	15498
ción	15499
ogun	15500
##ophren	15501
mimi	15502
pyjama	15503
buckle	15504
pora	15505
dodd	15506
ppo	15507
pluck	15508
shrunk	15509
sophia	15510
arthrit	15511
1706	15512
t20is	15513
razor	15514
gabba	15515
physicist	15516
;--	15517
orgasm	15518
paralyse	15519
hinch	15520
mammoth	15521
vivien	15522
capsize	15523
nnp	15524
obscen	15525
biblical	15526
suffocat	15527
opolis	15528
mongol	15529
cfp	15530
տեղ	15531
laksh	15532
persever	15533
grudge	15534
pseudo	15535
chrono	15536
duplic	15537
euthan	15538
fateful	15539
zaluzhn	15540
toulouse	15541
bewilder	15542
excerpt	15543
coexist	15544
impoverish	15545
expletive	15546
eccentric	15547
arthritis	15548
zaluzhny	15549
(+	15550
3s	15551
4x	15552
430	15553
7am	15554
7bn	15555
8c	15556
9c	15557
9m	15558
bs	15559
cet	15560
dham	15561
f0	15562
fsa	15563
gado	15564
ić	15565
ibe	15566
jf	15567
jang	15568
kt	15569
kink	15570
kild	15571
kwa	15572
latch	15573
lila	15574
nr	15575
nubb	15576
oye	15577
pv	15578
pid	15579
rth	15580
rour	15581
tian	15582
uci	15583
wam	15584
xu	15585
zhe	15586
ère	15587
él	15588
նի	15589
##644	15590
##e33	15591
##370	15592
##nn	15593
##bek	15594
##uck	15595
##mur	15596
##mie	15597
##har	15598
##hia	15599
##եկ	15600
##ող	15601
##ât	15602
##onal	15603
##atical	15604
##anol	15605
##itud	15606
##itude	15607
##recy	15608
##ico	15609
hagg	15610
itha	15611
##utan	15612
hemp	15613
##oteme	15614
isse	15615
whin	15616
whale	15617
engel	15618
erog	15619
eroteme	15620
lymph	15621
##ed5	15622
##raper	15623
chast	15624
fron	15625
fren	15626
hipp	15627
loh	15628
cao	15629
allerg	15630
##usc	15631
2035	15632
cobb	15633
worse	15634
adolf	15635
##antiate	15636
taf	15637
tao	15638
moan	15639
mogg	15640
##fe3	15641
bae	15642
agni	15643
pebble	15644
facil	15645
spy	15646
booth	15647
ematic	15648
scraper	15649
##ffa	15650
crem	15651
##eminate	15652
inci	15653
incense	15654
knack	15655
clipp	15656
guz	15657
parm	15658
interrogate	15659
vera	15660
##estic	15661
apoc	15662
wari	15663
idge	15664
lookali	15665
1959	15666
plas	15667
eccle	15668
ecrecy	15669
tripp	15670
##occan	15671
awan	15672
igieg	15673
asu	15674
iza	15675
stepp	15676
##plor	15677
basil	15678
transgress	15679
nass	15680
naise	15681
naire	15682
henri	15683
##acen	15684
fann	15685
hala	15686
patrick	15687
sommer	15688
15m	15689
invigor	15690
armament	15691
117	15692
11pm	15693
calcu	15694
176	15695
##ba8	15696
jeep	15697
slay	15698
utch	15699
182	15700
distil	15701
holt	15702
##eev	15703
dros	15704
131	15705
133	15706
##atable	15707
mura	15708
##251	15709
latitude	15710
gara	15711
garoo	15712
rih	15713
167	15714
moroccan	15715
##ca0	15716
sanity	15717
stopper	15718
serene	15719
hors	15720
##169	15721
##198	15722
financier	15723
multitud	15724
##castic	15725
vai	15726
tsb	15727
221	15728
##86b	15729
##26d	15730
deterred	15731
omestic	15732
##f05	15733
sleuth	15734
karol	15735
facade	15736
27th	15737
sprout	15738
niño	15739
koba	15740
bonnet	15741
##c09	15742
oval	15743
auffe	15744
##bdc	15745
##bd9	15746
kiwi	15747
astound	15748
rhino	15749
rumble	15750
rubin	15751
mortif	15752
mathew	15753
nuity	15754
nikit	15755
nikov	15756
bho	15757
attribu	15758
cule	15759
bronz	15760
dietitian	15761
ebrahim	15762
rogue	15763
otro	15764
saracen	15765
sarcastic	15766
reputable	15767
ngency	15768
pulp	15769
kalin	15770
jabali	15771
azu	15772
անի	15773
napole	15774
disseminate	15775
inflatable	15776
taint	15777
lambast	15778
alvo	15779
համա	15780
susann	15781
##որդ	15782
ushka	15783
rudd	15784
kasp	15785
menopausal	15786
cortis	15787
stigmat	15788
172527	15789
anthropic	15790
vagina	15791
uzbek	15792
álva	15793
paedo	15794
exhila	15795
intestine	15796
diarrhoea	15797
nadee	15798
zhao	15799
iedad	15800
shackle	15801
mathematical	15802
shreya	15803
substantiate	15804
recupe	15805
rourke	15806
hippo	15807
allergen	15808
ematics	15809
lookalike	15810
auffele	15811
napoleon	15812
"'	15813
.]	15814
2a	15815
2k	15816
325	15817
4am	15818
5am	15819
630	15820
8bn	15821
b3	15822
bould	15823
bong	15824
bdc	15825
c2	15826
cg	15827
duc	15828
epp	15829
f9	15830
fb	15831
fg	15832
fath	15833
fres	15834
gge	15835
gidd	15836
hf	15837
ict	15838
jk	15839
jy	15840
km	15841
kre	15842
ksh	15843
ln	15844
oshi	15845
pbs	15846
rith	15847
ratch	15848
té	15849
ube	15850
vish	15851
wart	15852
zil	15853
},	15854
	15855
ավ	15856
աշխ	15857
ըն	15858
մար	15859
##rie	15860
##ois	15861
##dan	15862
##e80	15863
##cia	15864
##c64	15865
##2e	15866
##tu	15867
##xon	15868
##áil	15869
##ég	15870
##գր	15871
##գի	15872
invert	15873
##erer	15874
##erte	15875
##ndicate	15876
toba	15877
##inquish	15878
##itu	15879
##alm	15880
inge	15881
andri	15882
rett	15883
##idize	15884
bev	15885
begg	15886
stel	15887
stifle	15888
wharf	15889
##sev	15890
##iry	15891
alha	15892
##isance	15893
chir	15894
chun	15895
wem	15896
lexi	15897
saha	15898
##riol	15899
exfol	15900
exxon	15901
lox	15902
##odic	15903
teo	15904
tequ	15905
tealth	15906
##unist	15907
pretor	15908
coch	15909
baja	15910
roil	15911
##outi	15912
spasm	15913
##ptial	15914
acp	15915
partum	15916
rach	15917
cari	15918
discern	15919
crank	15920
##emption	15921
##ordie	15922
entice	15923
##iva	15924
finch	15925
esto	15926
idris	15927
antine	15928
antagon	15929
1949	15930
1953	15931
1941	15932
1956	15933
tera	15934
terrest	15935
remo	15936
tripper	15937
consign	15938
conspic	15939
demur	15940
colleg	15941
ryna	15942
starc	15943
syndicate	15944
annivers	15945
gaul	15946
seng	15947
geordie	15948
bari	15949
relinquish	15950
uchi	15951
appease	15952
menz	15953
skil	15954
##abb	15955
irk	15956
detract	15957
instru	15958
redemption	15959
swerv	15960
henn	15961
##aca	15962
sunni	15963
151	15964
corro	15965
inton	15966
hull	15967
ignon	15968
1716	15969
171516	15970
##baj	15971
##309	15972
tarmac	15973
189	15974
cyst	15975
251	15976
137	15977
##106	15978
murmur	15979
##715	15980
148	15981
##aze	15982
rieta	15983
##364	15984
federer	15985
##327	15986
##906	15987
etto	15988
bena	15989
##bbie	15990
##39d	15991
arium	15992
opportunist	15993
beaver	15994
civic	15995
kait	15996
platinum	15997
vana	15998
madu	15999
omit	16000
rano	16001
locker	16002
narayan	16003
milano	16004
physique	16005
pathogen	16006
##af3	16007
##346	16008
nih	16009
nij	16010
malo	16011
malm	16012
malin	16013
divulg	16014
kobe	16015
kobbie	16016
##655	16017
bona	16018
##f94	16019
ocidal	16020
ricard	16021
gambia	16022
ogen	16023
raheem	16024
tirade	16025
aggressor	16026
ambros	16027
nuisance	16028
nuptial	16029
subsidize	16030
120hz	16031
tably	16032
fabio	16033
nana	16034
relli	16035
shrub	16036
otte	16037
ngton	16038
vitriol	16039
##արգ	16040
mallika	16041
azam	16042
aziz	16043
escalator	16044
imperfect	16045
ulsi	16046
aldo	16047
throb	16048
bhai	16049
kraft	16050
cyclic	16051
giri	16052
vivian	16053
gustav	16054
mehr	16055
այս	16056
rouge	16057
dazzle	16058
redditor	16059
carmel	16060
inferior	16061
oblivious	16062
penetrate	16063
coyote	16064
1920s	16065
???	16066
dnipro	16067
argyll	16068
cucumber	16069
tinker	16070
boult	16071
coherent	16072
wazir	16073
swoop	16074
apocaly	16075
nassau	16076
boulder	16077
fathom	16078
fresco	16079
ratchet	16080
exfoli	16081
tequila	16082
terrestrial	16083
conspicuous	16084
collegiate	16085
'[	16086
';	16087
-$	16088
-£	16089
1d	16090
1million	16091
390	16092
399	16093
316	16094
435	16095
5000	16096
6b	16097
670	16098
9d	16099
arist	16100
b8	16101
bere	16102
bble	16103
cw	16104
eiff	16105
fct	16106
hk	16107
h2	16108
ió	16109
iki	16110
kok	16111
kali	16112
mse	16113
munch	16114
nsh	16115
nado	16116
osp	16117
pk	16118
pj	16119
tj	16120
tug	16121
tner	16122
viev	16123
winkle	16124
zou	16125
zquez	16126
աս	16127
հար	16128
##f45	16129
##f15	16130
##f16	16131
##f95	16132
##f43	16133
##f1b	16134
##f63	16135
##633	16136
##1ce	16137
##1a0	16138
##kk	16139
##ead	16140
##e65	16141
##eless	16142
##cro	16143
##cind	16144
##c1a	16145
##nabe	16146
##bha	16147
##yc	16148
##zee	16149
##hy	16150
##és	16151
##éric	16152
##եւ	16153
##աղ	16154
##ór	16155
##ndars	16156
toil	16157
tosh	16158
##enb	16159
##oui	16160
##stick	16161
##entive	16162
haar	16163
stice	16164
stunn	16165
hepa	16166
isk	16167
##cese	16168
analog	16169
anura	16170
##etric	16171
dece	16172
dehum	16173
##igree	16174
##chro	16175
##imated	16176
waf	16177
waiv	16178
albi	16179
chry	16180
##adig	16181
lehr	16182
shra	16183
shwar	16184
neur	16185
##tern	16186
maa	16187
goya	16188
mey	16189
207	16190
203	16191
##une	16192
outland	16193
amu	16194
taunt	16195
canny	16196
offici	16197
hoss	16198
##fepri	16199
pru	16200
pem	16201
peps	16202
dif	16203
eman	16204
emerald	16205
sciss	16206
rapt	16207
monk	16208
quill	16209
quart	16210
trabaj	16211
##enced	16212
rescind	16213
soothe	16214
attentive	16215
guo	16216
strath	16217
thru	16218
mika	16219
mifepri	16220
1957	16221
1938	16222
ecimated	16223
trivial	16224
graci	16225
aso	16226
ascul	16227
croiss	16228
ilenced	16229
bliss	16230
hameless	16231
mett	16232
##204	16233
obc	16234
obitu	16235
menstr	16236
simulate	16237
provi	16238
##be4	16239
##acd	16240
realtor	16241
mati	16242
matsu	16243
##606	16244
1780	16245
##ba9	16246
pedigree	16247
inscri	16248
duvet	16249
25m	16250
mca	16251
mcen	16252
ganesh	16253
idea	16254
rius	16255
##158	16256
##157	16257
felip	16258
163	16259
100g	16260
##324	16261
pollin	16262
achi	16263
glio	16264
glimmer	16265
##19a	16266
hyst	16267
##bb5	16268
##857	16269
##391	16270
##124	16271
##129	16272
drey	16273
355	16274
ethanol	16275
##f50	16276
gifford	16277
silv	16278
circa	16279
##f07	16280
##f74	16281
##874	16282
mille	16283
patho	16284
franz	16285
franç	16286
274	16287
ansar	16288
##afone	16289
divin	16290
chelm	16291
vila	16292
introvert	16293
##755	16294
bonn	16295
kami	16296
kamb	16297
##b57	16298
piqu	16299
adulte	16300
##fc9	16301
ghar	16302
ashvili	16303
gyf	16304
wani	16305
wannabe	16306
acker	16307
00pm	16308
adept	16309
##c3c	16310
75th	16311
mathur	16312
47th	16313
##813	16314
synchro	16315
##adox	16316
tati	16317
lipstick	16318
800m	16319
solemn	16320
obstetric	16321
##արի	16322
hypno	16323
##insic	16324
mallow	16325
0625	16326
intrud	16327
intrinsic	16328
bbl	16329
imperil	16330
accomplice	16331
calendars	16332
concur	16333
voyage	16334
huddle	16335
habib	16336
ivanov	16337
diocese	16338
mammogram	16339
papua	16340
schoen	16341
sparkle	16342
tether	16343
vodafone	16344
fetus	16345
paediatric	16346
osteo	16347
samaritan	16348
kilda	16349
plasma	16350
cortisol	16351
jyoti	16352
apocalyptic	16353
aristocrat	16354
eiffel	16355
osprey	16356
outlandish	16357
pepsi	16358
scissor	16359
asculine	16360
croissant	16361
menstrual	16362
(.	16363
.:	16364
0b	16365
2p	16366
290	16367
288	16368
3a	16369
3x	16370
333	16371
425	16372
599	16373
667	16374
663	16375
7d	16376
899	16377
8million	16378
b7	16379
c8	16380
d1	16381
d8	16382
ej	16383
goul	16384
iver	16385
iro	16386
iri	16387
ife	16388
jia	16389
mnd	16390
moul	16391
nuse	16392
oit	16393
oro	16394
ooo	16395
oja	16396
pim	16397
pue	16398
peng	16399
rj	16400
rmo	16401
titch	16402
uval	16403
vh	16404
vre	16405
wt	16406
wski	16407
yth	16408
yaz	16409
yarn	16410
yolk	16411
գործ	16412
փո	16413
##a73	16414
##f00	16415
##fab	16416
##f35	16417
##f85	16418
##f4b	16419
##flage	16420
##136	16421
##1b0	16422
##rard	16423
##oe	16424
##cbe	16425
##c71	16426
##8fe	16427
##tin	16428
##bor	16429
##bial	16430
##bath	16431
##sky	16432
##mount	16433
##ws	16434
##pc	16435
##gers	16436
##vd	16437
##vard	16438
##եղ	16439
##ոլ	16440
##ñez	16441
##inav	16442
##alaya	16443
##rea	16444
##icure	16445
##icitor	16446
##lef	16447
onis	16448
heu	16449
hep	16450
hend	16451
whart	16452
erc	16453
##etr	16454
##etitive	16455
dela	16456
delu	16457
##edi	16458
##irch	16459
##rooy	16460
wadd	16461
##rav	16462
wey	16463
##the	16464
##geon	16465
##ilion	16466
##ilisi	16467
shul	16468
##oly	16469
frown	16470
##ckland	16471
abet	16472
mab	16473
exas	16474
aram	16475
orno	16476
bye	16477
hashi	16478
##lai	16479
mej	16480
meso	16481
206	16482
##asis	16483
predic	16484
coke	16485
poc	16486
dope	16487
plow	16488
plugged	16489
perple	16490
pervas	16491
prc	16492
peña	16493
uso	16494
roi	16495
rohing	16496
emia	16497
embell	16498
scand	16499
grum	16500
grumb	16501
##uda	16502
trawl	16503
cray	16504
crutch	16505
repetitive	16506
cente	16507
himalaya	16508
paradig	16509
paradox	16510
deci	16511
phi	16512
apa	16513
appalach	16514
idio	16515
thrott	16516
sheh	16517
mire	16518
1952	16519
opu	16520
opher	16521
heli	16522
##ifier	16523
genic	16524
schwar	16525
retino	16526
gracious	16527
surmount	16528
dau	16529
##ruple	16530
methi	16531
brae	16532
brahm	16533
protég	16534
mena	16535
##aba	16536
arta	16537
121212	16538
instil	16539
numero	16540
swar	16541
153	16542
invinc	16543
wobble	16544
##ushal	16545
gerrard	16546
##def	16547
solicitor	16548
pann	16549
calc	16550
ratna	16551
jann	16552
17255	16553
puram	16554
drip	16555
loggers	16556
dyw	16557
classify	16558
##892	16559
doma	16560
##152	16561
merri	16562
##729	16563
161	16564
60m	16565
etty	16566
fungi	16567
sanct	16568
sangh	16569
excise	16570
umar	16571
##ahu	16572
##39000	16573
vax	16574
##ea0	16575
tiwa	16576
jae	16577
##49d	16578
encaps	16579
mosaic	16580
##a50	16581
malt	16582
ramon	16583
timid	16584
282	16585
##c5b	16586
##senk	16587
tini	16588
auckland	16589
quadruple	16590
##goat	16591
ntis	16592
shutt	16593
##fb6	16594
microbial	16595
36px	16596
cereb	16597
vina	16598
mistress	16599
grammar	16600
##d59	16601
##e09	16602
vacci	16603
dina	16604
dini	16605
null	16606
rti	16607
##e47	16608
lova	16609
poriz	16610
dhar	16611
telrooy	16612
0800	16613
otov	16614
shrug	16615
shroud	16616
molina	16617
kaya	16618
fleece	16619
vpn	16620
vpx	16621
pavilion	16622
diabetic	16623
ouflage	16624
orchid	16625
elas	16626
rasi	16627
tbilisi	16628
!!!"	16629
bluff	16630
sult	16631
nosis	16632
nthal	16633
capegoat	16634
despise	16635
abhor	16636
eloquent	16637
edmond	16638
rehearse	16639
humidifier	16640
glyc	16641
ությունը	16642
prudent	16643
thrift	16644
chlori	16645
##chwitz	16646
incentivise	16647
auschwitz	16648
scorpio	16649
astronomer	16650
pummel	16651
dehuman	16652
0625rem	16653
mouli	16654
nuseira	16655
titched	16656
uvalde	16657
##inavia	16658
wharton	16659
deluge	16660
exaspe	16661
predicament	16662
perplex	16663
pervasive	16664
rohingya	16665
embellish	16666
scandinavia	16667
paradigm	16668
appalachia	16669
throttle	16670
schwarz	16671
protégé	16672
%-	16673
'?	16674
')	16675
299	16676
219	16677
285	16678
3am	16679
326	16680
474	16681
560	16682
799	16683
8b	16684
990	16685
aay	16686
bé	16687
bain	16688
cion	16689
cise	16690
d4	16691
dmy	16692
e0	16693
e3	16694
f3	16695
fon	16696
fyn	16697
hü	16698
ild	16699
jour	16700
kiel	16701
lous	16702
m3	16703
nough	16704
ndu	16705
nib	16706
nimb	16707
pcc	16708
pimp	16709
qian	16710
rí	16711
rive	16712
rall	16713
rane	16714
tud	16715
tda	16716
teng	16717
tán	16718
uille	16719
vt	16720
vay	16721
vati	16722
wd	16723
zulu	16724
եմ	16725
նել	16726
օր	16727
##fbe	16728
##f18	16729
##f26	16730
##fries	16731
##6a0	16732
##1ed	16733
##1e0	16734
##500	16735
##rgy	16736
##don	16737
##dha	16738
##eo	16739
##e71	16740
##e85	16741
##e34	16742
##c30	16743
##c86	16744
##c67	16745
##970	16746
##uf	16747
##qf	16748
##gus	16749
##"}	16750
##աստ	16751
##վան	16752
##ğan	16753
##inite	16754
##inarian	16755
##arb	16756
##iter	16757
##alo	16758
##alot	16759
recede	16760
##icature	16761
bender	16762
onian	16763
atan	16764
islav	16765
##ce3	16766
##ssel	16767
enzy	16768
erdo	16769
deplor	16770
##chip	16771
##imi	16772
##root	16773
##rops	16774
algar	16775
##isman	16776
##isphere	16777
##rade	16778
chon	16779
##thik	16780
leve	16781
leash	16782
shrops	16783
nese	16784
saul	16785
lager	16786
maple	16787
lien	16788
aren	16789
##ations	16790
##arten	16791
##artan	16792
loew	16793
caul	16794
mex	16795
mez	16796
##opus	16797
prepa	16798
afi	16799
whoop	16800
##iau	16801
manicure	16802
tapp	16803
uproot	16804
moha	16805
babe	16806
roc	16807
fae	16808
spd	16809
spru	16810
spartan	16811
##ptuous	16812
##ubstit	16813
nob	16814
embe	16815
scrup	16816
monies	16817
caricature	16818
sobre	16819
##iles	16820
dona	16821
elph	16822
incap	16823
knuck	16824
##ivable	16825
clima	16826
accr	16827
cec	16828
##inta	16829
fib	16830
fior	16831
very	16832
decay	16833
addled	16834
vec	16835
stru	16836
193	16837
1936	16838
demia	16839
iga	16840
graze	16841
aslef	16842
izz	16843
izophren	16844
viscer	16845
dais	16846
##indle	16847
append	16848
deprav	16849
##20a	16850
##20d	16851
##cc9	16852
prix	16853
skipp	16854
##ab4	16855
##abd	16856
posi	16857
##bea	16858
detox	16859
nacion	16860
##vency	16861
##ac6	16862
avon	16863
refuel	16864
misinter	16865
hardt	16866
humber	16867
solvency	16868
pana	16869
jeet	16870
bata	16871
##dd0	16872
##ikaze	16873
187	16874
whiff	16875
##ee6	16876
infinite	16877
champa	16878
##104	16879
octopus	16880
##72d	16881
limo	16882
oswal	16883
achary	16884
serh	16885
puja	16886
treacher	16887
##ahar	16888
hymn	16889
khe	16890
khy	16891
castel	16892
balan	16893
tsi	16894
tieth	16895
211	16896
213	16897
giuff	16898
##493	16899
affin	16900
silo	16901
talisman	16902
264	16903
karthik	16904
esses	16905
##a55	16906
divide	16907
melon	16908
hatt	16909
koz	16910
bonne	16911
pino	16912
kyrgy	16913
##f9b	16914
kamikaze	16915
##c59	16916
groove	16917
stadion	16918
aragus	16919
restaurateur	16920
##79f	16921
##797	16922
##fc4	16923
##423	16924
padma	16925
##4b2	16926
microchip	16927
tasy	16928
montage	16929
ogne	16930
555	16931
ardi	16932
vinny	16933
##313	16934
transpire	16935
veterinarian	16936
mutter	16937
rafah	16938
.),	16939
##tico	16940
6626	16941
zealot	16942
cosme	16943
ucked	16944
pasc	16945
sudha	16946
ographies	16947
shani	16948
siddha	16949
giggle	16950
enthral	16951
wreath	16952
pigment	16953
dickens	16954
aje	16955
granit	16956
forgivable	16957
odour	16958
gelsenk	16959
mmy	16960
hemisphere	16961
jawahar	16962
niacin	16963
hini	16964
horti	16965
plagiar	16966
dwindle	16967
amente	16968
synthesis	16969
sumptuous	16970
ccp	16971
ecologist	16972
fferty	16973
glynn	16974
yaku	16975
spike	16976
reddit	16977
kwan	16978
chukwu	16979
scuffle	16980
dumfries	16981
bomba	16982
cliché	16983
mcintosh	16984
reptile	16985
guadal	16986
1tb	16987
scopic	16988
corroborate	16989
##irchen	16990
enzyme	16991
erdoğan	16992
##ubstituted	16993
embezz	16994
scrupulous	16995
incapacit	16996
knuckle	16997
climax	16998
izophrenia	16999
visceral	17000
misinterpret	17001
acharya	17002
treacherous	17003
giuffre	17004
kyrgyz	17005
gelsenkirchen	17006
)?	17007
,...	17008
080	17009
1f	17010
2x	17011
2am	17012
266	17013
227	17014
224	17015
410	17016
5k	17017
5d	17018
530	17019
640	17020
9a	17021
?,	17022
ao	17023
brist	17024
bunt	17025
biel	17026
cj	17027
cula	17028
dz	17029
dare	17030
eld	17031
hc	17032
iott	17033
jot	17034
kac	17035
kka	17036
lma	17037
lomb	17038
oey	17039
pud	17040
pton	17041
pcb	17042
sind	17043
svit	17044
tations	17045
uy	17046
udi	17047
vda	17048
vog	17049
wern	17050
yuli	17051
zn	17052
}],"	17053
իկ	17054
յի	17055
յան	17056
րա	17057
ցի	17058
##aec	17059
##a15	17060
##fca	17061
##f39	17062
##f6a	17063
##foot	17064
##445	17065
##426	17066
##625	17067
##1d0	17068
##1f6	17069
##5c	17070
##dging	17071
##dbd	17072
##efe	17073
##e10	17074
##eb5	17075
##cff	17076
##c60	17077
##c62	17078
##8f5	17079
##766	17080
##tro	17081
##tration	17082
##b3d	17083
##lt	17084
##ydd	17085
##gen	17086
##_n	17087
##_m	17088
##_and	17089
##ér	17090
theod	17091
##onk	17092
##onial	17093
##onise	17094
##orgh	17095
tov	17096
tose	17097
##enna	17098
##sta	17099
edt	17100
recht	17101
bemo	17102
ont	17103
##ayat	17104
ermin	17105
##etri	17106
##ircle	17107
##chiev	17108
wack	17109
waffle	17110
alma	17111
chro	17112
chrom	17113
chât	17114
##adh	17115
comun	17116
shma	17117
##oligan	17118
seep	17119
saa	17120
##keep	17121
##riarch	17122
maur	17123
mage	17124
sush	17125
arán	17126
coutu	17127
loaf	17128
lodging	17129
cavern	17130
209	17131
2032	17132
imi	17133
plural	17134
hooligan	17135
baxt	17136
bacon	17137
agara	17138
aggy	17139
faze	17140
faulk	17141
spit	17142
boog	17143
bogg	17144
no1	17145
nog	17146
rabble	17147
monast	17148
myo	17149
quist	17150
quilt	17151
carat	17152
##udad	17153
socket	17154
crump	17155
##ignment	17156
elk	17157
attest	17158
knob	17159
clone	17160
clergy	17161
[...]
