<unk>	0
<s>	0
</s>	0
▁s	-3.31716
▁the	-3.6491
▁,	-3.68771
▁.	-3.7359
▁a	-3.81964
▁to	-4.22722
▁in	-4.23978
▁and	-4.39486
▁of	-4.43733
▁"	-4.56561
▁ing	-4.57055
e	-4.58342
▁'	-4.59298
i	-4.64215
▁c	-4.66659
▁ed	-4.78477
t	-4.90362
▁-	-4.92771
a	-4.99071
▁p	-5.04012
▁n	-5.09978
▁er	-5.11686
n	-5.13212
▁on	-5.13934
s	-5.16634
r	-5.168
▁re	-5.17752
▁for	-5.1864
y	-5.19759
▁e	-5.22663
▁that	-5.2882
▁be	-5.2965
▁b	-5.33451
▁is	-5.35593
▁S	-5.35913
▁t	-5.3771
▁0	-5.38876
▁A	-5.4072
▁The	-5.43143
▁2	-5.51071
▁with	-5.52663
▁I	-5.54725
▁d	-5.55187
▁it	-5.61167
▁was	-5.63022
▁as	-5.73714
▁tion	-5.75076
▁ly	-5.7845
▁he	-5.79167
l	-5.86454
▁at	-5.87251
o	-5.88261
▁C	-5.88841
en	-5.90732
▁co	-5.92739
▁1	-5.93015
u	-5.95371
▁B	-5.99219
d	-6.00507
▁said	-6.03587
▁de	-6.04372
▁y	-6.0629
▁M	-6.06767
▁have	-6.07787
▁his	-6.09451
▁you	-6.09524
▁has	-6.10065
c	-6.10362
▁from	-6.13711
▁are	-6.15023
▁P	-6.17108
▁:	-6.17388
▁by	-6.17858
▁L	-6.18591
▁R	-6.20769
▁we	-6.22634
▁pro	-6.22859
▁an	-6.26624
▁T	-6.2721
▁al	-6.28493
ould	-6.28983
▁not	-6.32275
▁l	-6.32788
ly	-6.33724
▁or	-6.36734
▁F	-6.37601
▁out	-6.39898
▁wh	-6.41466
▁H	-6.41611
▁this	-6.42368
ed	-6.43278
▁w	-6.44106
▁who	-6.45589
▁E	-6.50488
▁con	-6.50508
▁her	-6.50991
▁D	-6.53223
▁up	-6.53464
▁su	-6.55041
▁will	-6.55367
▁their	-6.58636
▁es	-6.5907
▁but	-6.61345
▁ex	-6.61562
▁had	-6.62602
▁G	-6.65312
▁(	-6.66135
▁ent	-6.6704
▁m	-6.67145
▁ma	-6.6822
▁9	-6.68611
▁4	-6.68644
.	-6.68884
fter	-6.69353
▁W	-6.69695
▁)	-6.70353
▁all	-6.71303
▁she	-6.71913
▁N	-6.72704
▁ment	-6.73042
▁te	-6.73892
▁5	-6.74614
▁fa	-6.74652
▁ion	-6.75048
▁ers	-6.754
p	-6.76209
▁3	-6.77073
▁r	-6.77816
▁one	-6.7813
▁more	-6.78766
re	-6.79202
ich	-6.79763
▁can	-6.80619
▁en	-6.81855
▁about	-6.8212
▁mi	-6.82749
m	-6.83145
▁over	-6.84601
▁It	-6.85586
ome	-6.86808
▁do	-6.88936
▁also	-6.89024
▁O	-6.90317
▁me	-6.92297
▁In	-6.92682
▁dent	-6.92685
▁like	-6.94096
th	-6.94138
▁wer	-6.94282
▁J	-6.94624
▁so	-6.96669
▁eople	-6.97021
,	-6.97951
ter	-6.98367
▁time	-6.98398
▁year	-6.98564
▁le	-6.99087
▁work	-7.01546
b	-7.01607
▁K	-7.01681
▁un	-7.01876
▁per	-7.0244
▁rec	-7.03606
▁gh	-7.05981
er	-7.10051
▁6	-7.10464
▁8	-7.11404
▁rep	-7.12583
▁its	-7.12625
▁than	-7.13418
▁He	-7.14058
▁just	-7.14545
▁my	-7.1618
▁7	-7.16435
▁thing	-7.17129
▁U	-7.17888
▁st	-7.17912
▁no	-7.19127
▁Bu	-7.19183
▁th	-7.19263
▁there	-7.20557
▁ever	-7.2101
▁into	-7.21295
▁ation	-7.21327
▁our	-7.21768
▁v	-7.21846
▁back	-7.22584
▁nal	-7.22656
▁o	-7.23255
▁him	-7.23931
▁other	-7.24423
v	-7.24859
▁first	-7.25518
▁h	-7.26542
▁able	-7.26667
▁ted	-7.2704
▁str	-7.27609
▁two	-7.2766
▁man	-7.29045
▁sh	-7.29546
atio	-7.29548
se	-7.30205
▁wha	-7.31031
▁how	-7.31972
▁est	-7.32664
▁them	-7.33059
▁get	-7.33168
▁if	-7.33508
▁new	-7.34247
I	-7.35041
▁ver	-7.35727
▁i	-7.38255
▁again	-7.38373
▁di	-7.39301
▁last	-7.40059
▁years	-7.40664
▁?	-7.40756
▁ty	-7.41193
▁day	-7.43023
▁Trump	-7.43222
▁	-7.43901
▁V	-7.4403
▁now	-7.44332
▁cha	-7.45246
▁state	-7.45497
▁wi	-7.45599
▁any	-7.45724
▁off	-7.46256
fic	-7.4631
▁tive	-7.46623
▁tra	-7.46948
▁go	-7.47357
▁unde	-7.48799
▁real	-7.49199
▁comp	-7.49553
▁where	-7.50109
▁ous	-7.51202
▁ial	-7.51817
▁end	-7.52775
▁whe	-7.52823
▁did	-7.53717
k	-7.54036
▁make	-7.54087
ame	-7.54221
▁dis	-7.54809
▁ve	-7.54828
▁efore	-7.54868
▁ring	-7.54964
▁Thi	-7.55004
▁round	-7.55153
▁ster	-7.55445
▁res	-7.55598
▁come	-7.55815
▁/	-7.56377
▁ho	-7.57399
▁want	-7.58123
▁way	-7.58748
▁being	-7.60165
g	-7.60564
▁us	-7.60876
▁while	-7.61035
▁ity	-7.61976
▁side	-7.62213
▁cause	-7.63934
▁And	-7.64402
▁high	-7.65482
▁ort	-7.65511
▁down	-7.65705
▁long	-7.66167
▁vi	-7.6626
ag	-7.66527
▁son	-7.66623
▁right	-7.66728
▁lead	-7.66811
▁ne	-7.67037
▁turn	-7.67144
▁De	-7.67512
▁li	-7.67991
▁think	-7.68681
▁tor	-7.69044
▁mer	-7.69078
▁ry	-7.69426
▁We	-7.69815
▁even	-7.70166
▁serv	-7.70694
▁age	-7.70994
▁going	-7.71383
▁elec	-7.72272
in	-7.72663
▁Sh	-7.72809
▁line	-7.72867
▁well	-7.73054
▁llion	-7.73191
▁du	-7.73255
▁ding	-7.73613
▁old	-7.76089
ing	-7.76497
▁nment	-7.76565
▁look	-7.76784
▁pa	-7.77288
▁most	-7.77548
▁take	-7.77576
▁mad	-7.78011
▁month	-7.78147
▁Mr	-7.78466
▁sent	-7.78565
▁ll	-7.78827
▁told	-7.79623
▁start	-7.80143
ever	-7.80219
▁gove	-7.80422
▁home	-7.80487
▁ra	-7.80529
▁thro	-7.80621
▁know	-7.80747
▁three	-7.81373
▁pport	-7.81382
▁expe	-7.81604
▁week	-7.81837
▁ck	-7.82711
▁fi	-7.82889
▁Re	-7.82939
ou	-7.83312
▁la	-7.83425
▁need	-7.83756
▁don	-7.83761
▁ness	-7.84098
mil	-7.8457
▁mo	-7.85015
▁ship	-7.85158
▁dec	-7.85817
▁help	-7.86239
▁part	-7.86495
▁j	-7.86712
▁show	-7.86852
▁comm	-7.87101
▁ence	-7.87565
▁sday	-7.87619
▁poli	-7.8801
▁app	-7.88095
▁point	-7.88453
▁life	-7.89296
clu	-7.89569
▁pla	-7.89785
▁read	-7.90382
▁see	-7.90821
▁less	-7.91025
▁many	-7.91606
▁You	-7.9187
▁ate	-7.92903
▁nd	-7.92952
▁says	-7.93279
▁those	-7.93442
▁chi	-7.93563
▁ght	-7.94463
ual	-7.95071
▁pres	-7.95122
▁Co	-7.95155
▁$	-7.95756
▁£	-7.95983
▁ns	-7.96007
ra	-7.9631
'	-7.96381
▁ance	-7.96574
easo	-7.96709
▁ca	-7.96873
▁srael	-7.97173
▁set	-7.976
▁ies	-7.97644
▁play	-7.97999
▁much	-7.9946
▁pre	-7.99648
▁ia	-7.99992
▁sing	-7.99993
▁ign	-8.00196
▁good	-8.00816
▁ti	-8.01229
▁ress	-8.01283
▁ice	-8.0136
▁Wi	-8.0191
till	-8.02097
▁form	-8.02115
▁team	-8.02116
el	-8.02295
▁sinc	-8.02352
▁arti	-8.02414
▁tions	-8.02504
▁ga	-8.02805
▁world	-8.0281
▁sta	-8.02825
▁na	-8.03105
▁diff	-8.03433
▁ic	-8.03664
noth	-8.03887
▁found	-8.0397
▁For	-8.04017
cord	-8.04036
meri	-8.04366
▁ement	-8.04408
▁hu	-8.04646
▁ublic	-8.04763
▁untry	-8.04879
▁f	-8.05119
hou	-8.05735
▁New	-8.06419
▁own	-8.06507
▁head	-8.06657
ma	-8.06966
▁law	-8.07277
▁crea	-8.07541
▁olice	-8.07986
h	-8.08042
▁four	-8.08053
▁give	-8.08426
▁ary	-8.08444
▁ive	-8.08818
▁ful	-8.08971
▁Ma	-8.0916
▁stu	-8.09511
▁hi	-8.09793
▁led	-8.10018
▁such	-8.10809
▁econd	-8.10878
▁foll	-8.10974
▁No	-8.11017
▁des	-8.11985
▁land	-8.12034
▁feel	-8.12283
▁ge	-8.12301
▁imp	-8.12626
▁twee	-8.13132
le	-8.13538
▁That	-8.13629
▁camp	-8.13974
▁erson	-8.14064
ting	-8.14083
▁night	-8.15229
▁k	-8.15235
an	-8.15589
▁say	-8.16145
▁ro	-8.16278
al	-8.16453
▁open	-8.16608
▁Mi	-8.16648
▁ob	-8.16794
▁does	-8.16896
▁game	-8.17007
▁Biden	-8.17101
▁order	-8.17785
▁added	-8.17861
▁lot	-8.18069
▁alth	-8.18612
▁air	-8.18634
▁sion	-8.18778
▁fe	-8.19062
▁ussia	-8.19356
▁ember	-8.19419
▁sign	-8.19472
▁lo	-8.19497
▁then	-8.19508
▁let	-8.19576
▁ab	-8.19879
▁po	-8.19903
▁left	-8.20132
▁loca	-8.20138
▁view	-8.21035
▁nce	-8.21455
▁rela	-8.21696
▁war	-8.22039
▁group	-8.22806
ctio	-8.23427
▁ttack	-8.24226
▁India	-8.2464
▁face	-8.24653
▁ri	-8.25118
▁both	-8.25417
▁!	-8.25534
▁ting	-8.2558
▁got	-8.25749
▁best	-8.2593
▁Pres	-8.25951
▁bro	-8.25968
▁nt	-8.26128
▁may	-8.26287
▁top	-8.26661
▁bi	-8.26689
▁place	-8.26694
▁fo	-8.27145
▁ties	-8.27196
▁;	-8.27782
▁each	-8.27798
▁ated	-8.27932
▁here	-8.27964
at	-8.28042
▁issue	-8.28057
▁next	-8.28125
▁g	-8.28201
▁tinue	-8.28437
▁tain	-8.28955
▁stra	-8.28982
▁ities	-8.29205
rans	-8.2944
▁use	-8.29636
▁bu	-8.29722
emb	-8.29825
▁acc	-8.29951
▁quest	-8.30333
ch	-8.3073
▁mean	-8.31129
▁US	-8.3118
irec	-8.31197
▁clear	-8.31242
▁ppea	-8.32085
▁force	-8.32185
▁tell	-8.32306
▁fic	-8.32325
▁redit	-8.32613
▁tri	-8.32666
▁chool	-8.32994
▁ant	-8.33151
lude	-8.33152
▁Con	-8.33179
▁oppo	-8.33252
▁near	-8.33381
▁sed	-8.34161
▁alled	-8.34169
▁inc	-8.34276
ves	-8.34457
▁event	-8.3481
▁ldren	-8.34961
▁el	-8.35097
ial	-8.35773
▁Y	-8.35773
▁offer	-8.35848
▁ld	-8.35862
▁hand	-8.35984
▁frie	-8.36355
▁u	-8.36373
▁case	-8.36464
▁ward	-8.3667
spo	-8.36814
▁x	-8.37375
▁rent	-8.37685
▁media	-8.37689
▁light	-8.37743
▁grea	-8.37863
▁As	-8.38074
▁win	-8.38186
▁ord	-8.38221
ustr	-8.38234
▁keep	-8.38698
▁cap	-8.38861
▁power	-8.3889
▁kill	-8.39146
▁ha	-8.39183
▁happ	-8.39259
▁bo	-8.39358
▁sp	-8.39626
▁Ukra	-8.39814
▁late	-8.39971
▁away	-8.40047
▁ta	-8.40279
▁try	-8.40479
▁test	-8.40564
▁days	-8.40692
▁ian	-8.40786
▁ocial	-8.41115
▁prev	-8.41609
▁fu	-8.41671
ve	-8.41676
▁tment	-8.41686
▁mpany	-8.41819
umb	-8.42474
▁gen	-8.42576
▁court	-8.42656
We	-8.4276
▁oper	-8.42832
▁lway	-8.43051
▁house	-8.43079
A	-8.4364
▁UK	-8.43681
▁put	-8.44055
▁times	-8.44066
▁final	-8.4423
▁free	-8.44235
tal	-8.4431
▁If	-8.44317
▁self	-8.44429
▁ience	-8.44625
▁pu	-8.44673
▁women	-8.44768
ross	-8.4479
ffec	-8.45309
▁rm	-8.45461
▁Whe	-8.45581
▁five	-8.457
▁too	-8.45858
▁party	-8.45957
▁da	-8.46203
ic	-8.4648
llow	-8.46491
▁Cha	-8.4661
jor	-8.47215
▁ccess	-8.47824
▁far	-8.47845
▁post	-8.47913
▁body	-8.48163
▁To	-8.48246
▁ggest	-8.48288
▁build	-8.48499
▁ously	-8.48506
▁love	-8.48898
▁busi	-8.49149
▁Su	-8.49308
▁star	-8.49334
▁won	-8.4944
▁regi	-8.49549
▁call	-8.49551
z	-8.49592
▁ago	-8.49898
▁vers	-8.50013
▁spect	-8.50025
▁used	-8.5006
▁z	-8.50225
▁seen	-8.50405
▁took	-8.5046
▁care	-8.50619
▁ean	-8.50929
▁rele	-8.50975
▁fire	-8.51183
▁eco	-8.51334
▁gene	-8.51367
▁cent	-8.5144
▁Z	-8.51515
▁mini	-8.51648
hang	-8.51669
▁sub	-8.51761
▁mark	-8.5185
▁water	-8.5203
▁later	-8.52039
▁tical	-8.52233
▁ong	-8.52395
▁young	-8.52427
▁vide	-8.52524
▁velo	-8.52764
▁foot	-8.5279
▁earch	-8.52809
▁id	-8.53189
▁dep	-8.53224
▁enter	-8.53349
▁tter	-8.5338
▁mak	-8.53799
E	-8.54005
▁car	-8.54062
▁gram	-8.54227
▁sive	-8.54253
▁tory	-8.54864
▁qu	-8.54929
▁So	-8.5504
▁[	-8.55071
▁talk	-8.55075
▁eng	-8.55138
▁One	-8.55184
▁hard	-8.55216
D	-8.55357
▁mili	-8.55405
▁ard	-8.5559
▁went	-8.55675
▁term	-8.55772
▁etter	-8.55916
ev	-8.56284
▁grow	-8.56351
▁run	-8.56538
▁might	-8.56707
▁six	-8.56787
▁bit	-8.56972
▁]	-8.5727
▁claim	-8.57595
▁ional	-8.576
▁nited	-8.58112
▁On	-8.58277
▁arri	-8.58297
▁add	-8.58449
harg	-8.58955
▁ost	-8.59307
▁break	-8.59421
▁Mo	-8.59452
▁film	-8.59515
▁ball	-8.59589
▁sur	-8.59608
▁ystem	-8.59657
▁ie	-8.59736
▁wing	-8.59812
▁few	-8.59918
▁hit	-8.59937
▁litt	-8.60073
▁tiga	-8.60337
▁um	-8.60432
▁base	-8.60696
▁ntial	-8.60707
▁aying	-8.60829
▁wo	-8.60851
▁South	-8.60948
▁fra	-8.60982
▁large	-8.61014
▁tal	-8.61123
▁mus	-8.61234
▁Demo	-8.61342
▁hav	-8.6135
▁low	-8.61384
urr	-8.61393
▁big	-8.61489
▁deal	-8.61502
▁men	-8.61513
▁gran	-8.61662
▁gra	-8.61663
▁ot	-8.61829
▁meet	-8.61855
▁ern	-8.62043
▁fin	-8.62259
▁Wha	-8.62279
▁half	-8.62398
▁cal	-8.62479
▁sc	-8.62662
▁gn	-8.62696
▁gree	-8.62814
▁ill	-8.62966
▁hold	-8.63293
▁level	-8.63334
▁pass	-8.63532
▁mment	-8.63648
▁ssion	-8.63774
▁net	-8.63809
tu	-8.64101
▁rket	-8.64135
▁live	-8.64339
▁ning	-8.64467
on	-8.65025
▁mom	-8.65219
▁gress	-8.65314
tic	-8.65355
▁uthor	-8.65565
▁Man	-8.6558
▁fight	-8.65625
▁along	-8.65942
▁ries	-8.65949
▁adv	-8.65997
▁date	-8.66021
ha	-8.66057
▁ossi	-8.66168
▁am	-8.66218
▁ham	-8.66668
▁West	-8.66709
▁ley	-8.66786
▁money	-8.66837
▁urity	-8.67036
▁room	-8.67181
▁yers	-8.67234
▁emp	-8.67573
ro	-8.67628
nnou	-8.67802
▁unti	-8.67803
ked	-8.6781
▁duce	-8.67895
▁ist	-8.68139
▁posi	-8.68207
▁York	-8.68317
▁quir	-8.68334
▁city	-8.68339
▁ear	-8.68379
▁vel	-8.6839
▁video	-8.68438
▁gu	-8.68542
▁Pa	-8.68564
▁od	-8.68644
▁plan	-8.6867
▁hange	-8.68678
▁early	-8.68784
▁reve	-8.68844
▁Jo	-8.69024
▁ec	-8.69192
▁move	-8.69487
ce	-8.69508
▁death	-8.69812
▁sider	-8.69832
▁Ra	-8.70029
▁known	-8.70118
▁close	-8.70355
▁field	-8.70671
▁stop	-8.70793
▁ject	-8.7112
▁John	-8.71148
▁Ro	-8.71172
▁dence	-8.7151
▁news	-8.71518
▁ble	-8.7157
rote	-8.71582
▁ng	-8.71763
▁cess	-8.71767
▁watch	-8.71789
▁count	-8.71876
▁find	-8.71977
▁cover	-8.7205
▁X	-8.72092
▁ell	-8.72154
▁pot	-8.72255
▁nomi	-8.72398
▁10	-8.72443
itu	-8.72447
▁lu	-8.72758
▁port	-8.72798
ctiv	-8.72844
▁defe	-8.73167
olu	-8.73393
▁tak	-8.73621
▁treat	-8.73639
ten	-8.73675
▁volv	-8.73678
▁liv	-8.73724
▁ud	-8.74359
▁thir	-8.74469
▁ture	-8.74488
▁impo	-8.74574
▁stic	-8.74744
▁ecom	-8.7476
▁visit	-8.74839
▁arris	-8.74841
ept	-8.74867
lleg	-8.75127
▁past	-8.7543
▁tech	-8.75601
▁lican	-8.75755
▁tch	-8.75819
▁Tu	-8.75866
▁name	-8.75941
▁full	-8.76108
▁Min	-8.76123
▁News	-8.7613
▁cket	-8.76237
pub	-8.76391
▁ts	-8.76401
▁ral	-8.76455
▁ritic	-8.7723
▁grou	-8.77454
▁short	-8.77573
▁sec	-8.77801
▁shed	-8.77803
jur	-8.77845
▁Pro	-8.77993
▁front	-8.78084
▁secu	-8.78171
▁eries	-8.78189
▁cri	-8.78395
▁ight	-8.78798
ar	-8.7888
▁flo	-8.78977
▁role	-8.79003
▁art	-8.79113
▁%	-8.7923
▁amon	-8.79316
▁disc	-8.79475
▁spit	-8.79545
▁small	-8.79577
▁pay	-8.79771
▁evi	-8.79883
▁tand	-8.80029
▁ul	-8.80529
ring	-8.80578
▁ff	-8.80622
▁unity	-8.80657
▁food	-8.80742
▁tten	-8.8078
▁orted	-8.80917
▁ut	-8.8098
▁House	-8.8123
▁tant	-8.8135
▁trib	-8.81415
es	-8.81431
▁terr	-8.81586
▁nter	-8.8209
▁book	-8.82118
▁ask	-8.82126
▁ak	-8.82152
▁sm	-8.82187
▁anti	-8.8224
▁ming	-8.8248
x	-8.8254
▁sure	-8.82877
ald	-8.83006
▁rease	-8.83249
▁layed	-8.8338
▁ru	-8.8338
▁gula	-8.83407
ngla	-8.83473
▁viol	-8.83714
▁hope	-8.83879
▁due	-8.83955
▁nced	-8.84224
▁City	-8.84249
▁race	-8.84258
▁fli	-8.84339
▁Gaza	-8.84562
▁nor	-8.84824
▁bor	-8.8493
▁ally	-8.85098
per	-8.8523
▁Howe	-8.85298
▁gett	-8.85305
la	-8.85403
▁doing	-8.85413
▁mov	-8.85455
▁equ	-8.85539
▁Of	-8.85569
▁ter	-8.85628
M	-8.85679
ign	-8.85878
tand	-8.86047
▁taken	-8.86183
▁Euro	-8.86214
▁risk	-8.86474
am	-8.86503
▁list	-8.8651
▁rt	-8.86954
▁least	-8.87021
▁often	-8.87249
▁ey	-8.87293
▁futu	-8.87427
▁feat	-8.87641
leng	-8.87644
tep	-8.87722
▁mpion	-8.87834
vi	-8.87845
▁today	-8.87898
▁Bo	-8.87955
▁tax	-8.88049
rg	-8.88228
▁Ka	-8.88228
▁eleb	-8.8826
▁unday	-8.88267
▁ondon	-8.88346
▁ten	-8.88784
▁fur	-8.88863
▁peci	-8.88901
▁sult	-8.88936
▁red	-8.88942
▁Ca	-8.89021
▁et	-8.89278
▁lega	-8.8934
▁riday	-8.89355
hile	-8.89435
▁ir	-8.89443
▁Chri	-8.89504
▁club	-8.89514
▁onday	-8.89547
▁why	-8.8963
▁min	-8.89633
▁fla	-8.89781
▁writ	-8.89878
▁done	-8.89919
▁walk	-8.89939
L	-8.90064
▁rs	-8.90103
▁sha	-8.90111
truc	-8.90142
▁ded	-8.90374
▁ntrol	-8.90639
▁driv	-8.90809
▁Hi	-8.91084
▁moth	-8.91505
▁huma	-8.91742
▁graph	-8.92074
▁occ	-8.92099
▁wards	-8.92274
▁ple	-8.92693
▁lay	-8.92733
▁ac	-8.92773
▁North	-8.92875
▁thre	-8.92955
▁ials	-8.93141
▁ook	-8.93151
▁fans	-8.93199
▁games	-8.93215
▁rema	-8.93488
▁Ch	-8.93493
▁Thu	-8.93697
▁rtner	-8.93789
▁Jan	-8.93853
▁child	-8.93864
▁il	-8.93952
▁woman	-8.93997
▁share	-8.94045
▁ions	-8.94171
▁nning	-8.94202
▁Mu	-8.94217
▁typ	-8.94268
▁China	-8.94471
f	-8.94471
rent	-8.9467
sta	-8.9472
▁class	-8.94728
▁ened	-8.94983
▁ound	-8.9511
▁speak	-8.9523
▁ass	-8.95309
▁gi	-8.95611
▁rence	-8.95639
ath	-8.95644
tai	-8.95799
▁ause	-8.95818
▁ngle	-8.95862
▁kind	-8.95906
w	-8.96217
▁ehind	-8.96287
▁heart	-8.96408
▁ju	-8.96554
▁tempt	-8.96572
arge	-8.96599
▁Uni	-8.96772
▁raise	-8.96809
im	-8.96878
▁ism	-8.96935
▁demo	-8.97063
▁vote	-8.973
▁All	-8.97421
▁Brit	-8.97432
▁fel	-8.97476
sh	-8.97484
▁Be	-8.97701
▁match	-8.97743
B	-8.97818
▁bri	-8.97878
▁ices	-8.98025
▁ouple	-8.98083
▁ling	-8.98105
na	-8.98171
▁phone	-8.98222
▁cult	-8.98244
▁Al	-8.98581
▁ummer	-8.9864
&	-8.9892
It	-8.98996
ep	-8.99039
▁nder	-8.99136
▁nner	-8.99171
▁Getty	-8.99273
edne	-8.9932
▁han	-8.99453
▁leg	-8.99569
▁ount	-8.99925
▁stay	-8.99998
▁shot	-9.00083
ox	-9.00115
par	-9.00344
▁rance	-9.00369
▁cli	-9.00389
▁ngton	-9.00477
ine	-9.00486
▁wait	-9.0049
▁ier	-9.00598
▁qual	-9.01118
▁clo	-9.01194
▁World	-9.01264
▁lmos	-9.01313
▁tract	-9.01334
▁weeks	-9.01412
▁At	-9.01634
▁hours	-9.0169
▁space	-9.01699
ffor	-9.02158
tio	-9.02197
▁State	-9.02212
▁ency	-9.02356
▁ch	-9.02376
▁fes	-9.02428
▁serve	-9.02462
▁com	-9.02707
▁music	-9.02745
▁story	-9.02835
▁job	-9.02876
▁areer	-9.02897
▁yet	-9.02999
▁runn	-9.03002
▁fund	-9.03053
▁rrest	-9.03164
▁using	-9.03326
▁earl	-9.03366
▁rodu	-9.03579
▁saw	-9.03628
▁board	-9.03666
▁May	-9.03687
▁Ni	-9.03798
▁>	-9.03811
▁disa	-9.0393
▁stead	-9.04028
▁ourse	-9.04118
▁Ha	-9.04156
▁ft	-9.04171
ua	-9.0421
tual	-9.04305
▁ara	-9.0432
▁key	-9.04401
▁met	-9.04471
▁ake	-9.0451
▁idea	-9.04835
▁cost	-9.04948
▁iden	-9.05227
▁data	-9.05246
▁hosp	-9.05599
▁tic	-9.05688
▁ned	-9.05694
▁layer	-9.05773
▁reach	-9.05895
▁eye	-9.06038
▁dmin	-9.06095
C	-9.06121
▁dding	-9.06138
▁mid	-9.06172
▁der	-9.06453
▁Ms	-9.06507
▁trike	-9.06526
atur	-9.06661
▁sses	-9.06719
▁rsity	-9.06808
▁aring	-9.06815
▁cond	-9.06901
▁Di	-9.06922
▁lear	-9.07099
▁pect	-9.07107
firm	-9.0728
▁prov	-9.07304
poke	-9.07376
▁mess	-9.07537
▁rse	-9.07645
▁How	-9.07719
▁stage	-9.07747
wi	-9.07986
▁liev	-9.08006
▁inci	-9.08198
▁olicy	-9.08224
▁coll	-9.08279
▁medic	-9.08473
▁trict	-9.0848
▁meon	-9.0856
▁<	-9.08567
▁photo	-9.08569
▁nutes	-9.08595
ke	-9.0862
▁jour	-9.08666
▁ping	-9.08694
▁addi	-9.08759
▁dy	-9.0885
▁tire	-9.09075
▁lly	-9.0908
▁June	-9.09115
▁draw	-9.09116
▁*	-9.09188
▁lac	-9.09195
▁held	-9.09228
▁area	-9.09392
▁impl	-9.09465
▁Black	-9.09472
▁shop	-9.09505
▁tour	-9.0953
▁mon	-9.09617
▁rison	-9.09661
▁spot	-9.09661
▁ach	-9.09933
▁suit	-9.10223
▁ught	-9.10352
▁olog	-9.1038
▁price	-9.10481
▁fully	-9.10531
▁warn	-9.10545
▁tted	-9.10617
▁cut	-9.10671
▁fact	-9.10682
▁Geo	-9.10713
▁drop	-9.10819
▁nding	-9.1082
▁seven	-9.1086
▁20	-9.10975
▁non	-9.11034
▁rest	-9.11275
▁ike	-9.11377
▁miss	-9.11391
▁TV	-9.1144
▁mult	-9.11469
▁staff	-9.11476
▁priv	-9.11524
▁uni	-9.11637
▁ski	-9.11646
▁atch	-9.11747
▁Comm	-9.11948
▁girl	-9.1195
▁ahead	-9.12268
▁quick	-9.12432
▁inv	-9.12508
▁hare	-9.12516
▁rtun	-9.12644
▁Do	-9.1268
▁Go	-9.12701
▁temp	-9.1282
▁Scot	-9.12821
pend	-9.12879
▁trip	-9.12927
▁tec	-9.12962
nerg	-9.12969
▁oters	-9.12998
▁Octo	-9.13055
▁died	-9.13254
▁nu	-9.13294
▁An	-9.13319
▁swi	-9.13329
▁July	-9.13405
or	-9.13422
▁lost	-9.13498
▁Du	-9.1351
▁pain	-9.13691
▁frica	-9.13805
▁act	-9.13828
▁eague	-9.13969
▁expl	-9.14036
▁usto	-9.14145
▁fina	-9.14215
▁ease	-9.14265
▁wide	-9.14353
▁road	-9.14576
▁ds	-9.1459
▁ical	-9.1461
▁oil	-9.14688
▁AI	-9.14698
▁ensu	-9.14792
ta	-9.14937
ho	-9.15011
▁arli	-9.15036
mpac	-9.15258
▁cu	-9.15361
▁eight	-9.15518
R	-9.1566
▁model	-9.15773
▁ourt	-9.15837
▁fall	-9.15954
▁uncil	-9.16282
merg	-9.16339
▁que	-9.16395
soci	-9.16405
▁mp	-9.16462
▁March	-9.16558
▁ail	-9.16609
▁sea	-9.1681
S	-9.16877
erma	-9.17017
▁cer	-9.17278
▁figu	-9.17371
▁quit	-9.17617
▁ommo	-9.17628
liv	-9.17661
▁ack	-9.17674
▁dead	-9.17833
nefi	-9.1787
G	-9.17942
▁mount	-9.17965
▁urg	-9.17974
▁ility	-9.18034
▁wife	-9.18049
▁oach	-9.18049
▁nch	-9.18122
av	-9.18123
▁rain	-9.18178
▁door	-9.18254
▁mand	-9.18361
▁argu	-9.18416
▁mb	-9.18762
▁Whit	-9.18852
vail	-9.18969
▁trad	-9.19051
▁rning	-9.19088
▁worth	-9.19336
▁oint	-9.19462
▁trial	-9.19497
▁April	-9.19503
▁Ju	-9.19654
▁host	-9.19743
▁Vi	-9.19858
▁ump	-9.20019
▁Chi	-9.20022
▁glob	-9.20024
▁par	-9.20035
▁stice	-9.20143
▁sonal	-9.20171
men	-9.20402
tiv	-9.2046
▁ross	-9.20501
▁mate	-9.20582
▁Hu	-9.20657
▁ource	-9.20681
▁omb	-9.20724
▁emb	-9.20733
epar	-9.20746
▁ess	-9.20751
▁kno	-9.20907
ular	-9.2093
▁goal	-9.21026
▁fied	-9.21141
▁arm	-9.21252
▁Gov	-9.2126
▁ales	-9.21328
▁prem	-9.21351
▁admi	-9.21508
▁began	-9.21509
▁town	-9.21519
▁div	-9.21543
▁odi	-9.21718
▁jo	-9.21856
▁treet	-9.21857
▁abour	-9.21966
▁hug	-9.22142
▁bad	-9.22241
▁spir	-9.22324
ales	-9.22355
▁King	-9.22601
fu	-9.22726
▁spi	-9.22825
▁hip	-9.22843
▁ped	-9.22943
▁scus	-9.22989
▁ttend	-9.23046
▁ens	-9.23095
▁tors	-9.23189
▁arter	-9.23269
▁push	-9.23311
nect	-9.23328
▁pur	-9.23429
▁entre	-9.23444
P	-9.23445
▁wood	-9.23463
▁shows	-9.23531
▁ports	-9.23596
▁natu	-9.23663
▁van	-9.23695
▁entr	-9.23886
▁safe	-9.24105
▁hing	-9.2414
▁mina	-9.24335
▁organ	-9.24371
▁chief	-9.24461
▁ner	-9.24583
▁eal	-9.24664
ru	-9.24667
▁ome	-9.2467
▁exec	-9.24848
▁vest	-9.24852
▁yment	-9.24898
▁audi	-9.24909
▁Dr	-9.25088
▁Q	-9.25219
▁...	-9.2522
▁pict	-9.25403
▁leav	-9.25458
is	-9.25463
▁lives	-9.25465
▁pp	-9.25549
▁nian	-9.25654
▁begin	-9.26099
▁cade	-9.26144
▁mpet	-9.26199
augh	-9.26259
▁bar	-9.26282
▁pand	-9.26293
mple	-9.26302
▁ash	-9.26396
▁track	-9.26415
▁elf	-9.26441
▁Wash	-9.26449
▁wor	-9.26532
▁Mc	-9.26535
▁owner	-9.26758
▁cru	-9.26823
▁ones	-9.26833
de	-9.26868
▁eived	-9.27076
▁vari	-9.27139
▁logi	-9.272
▁ision	-9.27218
lain	-9.27232
▁sto	-9.27299
▁ffer	-9.27377
id	-9.27449
▁park	-9.27454
lack	-9.27475
▁Now	-9.27594
outh	-9.27597
▁rate	-9.27673
▁nic	-9.27892
▁lica	-9.27927
▁ew	-9.27931
▁roach	-9.27962
▁scene	-9.28177
▁anno	-9.28307
▁ribe	-9.28353
ri	-9.28494
▁seri	-9.28603
▁lace	-9.28624
pita	-9.28743
▁link	-9.28786
F	-9.28964
liev	-9.29028
▁ccus	-9.29096
▁plans	-9.29097
▁ars	-9.29165
▁tte	-9.29196
▁impr	-9.29251
▁ition	-9.2933
▁30	-9.29368
O	-9.29405
▁heat	-9.2941
ver	-9.2945
au	-9.29545
▁mic	-9.29583
▁rise	-9.29657
▁Ever	-9.29699
▁dents	-9.29707
▁Image	-9.2973
lymp	-9.29797
▁ffic	-9.29839
▁lic	-9.29859
spec	-9.29994
genc	-9.30181
▁dica	-9.30542
▁Ga	-9.30595
▁fer	-9.30605
▁afety	-9.30622
▁needs	-9.3068
▁Hama	-9.30698
▁gun	-9.30966
▁lock	-9.31021
▁check	-9.313
▁cast	-9.31377
▁nse	-9.31452
▁soon	-9.31605
▁em	-9.31779
▁lain	-9.31802
▁oth	-9.31844
▁ctor	-9.3193
▁store	-9.32197
▁tent	-9.32285
▁brand	-9.32408
▁ounty	-9.32448
▁Si	-9.3252
▁enjo	-9.32524
▁Sha	-9.32573
▁ors	-9.32828
▁eriod	-9.32863
▁rupt	-9.32864
▁ract	-9.32931
▁mains	-9.32967
▁fede	-9.33005
▁oin	-9.3301
▁ily	-9.33062
▁giv	-9.33069
▁La	-9.33075
▁tro	-9.33098
▁press	-9.33153
▁else	-9.33422
▁leave	-9.33471
▁tates	-9.33557
▁tely	-9.33677
▁nda	-9.33706
▁ctim	-9.33764
▁12	-9.33776
▁Ho	-9.33975
▁Net	-9.34155
▁15	-9.34167
▁ough	-9.34188
T	-9.34275
▁ick	-9.34281
▁rac	-9.34481
▁neg	-9.34519
▁alia	-9.34571
▁Pic	-9.34757
alif	-9.34757
▁stat	-9.34812
▁white	-9.34859
▁ssing	-9.34955
▁anies	-9.34969
▁sell	-9.34996
gree	-9.35357
▁thr	-9.35412
▁fast	-9.35438
▁exp	-9.3551
▁gui	-9.35525
▁ls	-9.35673
▁pular	-9.35712
▁nyone	-9.35767
▁ugust	-9.35868
▁Star	-9.35912
▁eith	-9.35928
▁nent	-9.36094
▁bas	-9.36225
ir	-9.3625
▁tu	-9.36278
▁sk	-9.36349
▁situ	-9.3635
▁docu	-9.3643
▁cor	-9.36574
▁iled	-9.36595
▁ap	-9.36628
▁imme	-9.367
▁crime	-9.3679
▁site	-9.36881
▁rrow	-9.36988
▁ez	-9.36996
▁hed	-9.37053
▁cing	-9.37188
▁Inter	-9.37269
hoot	-9.37396
▁amp	-9.37461
▁civi	-9.3752
▁ised	-9.37607
U	-9.37664
▁minal	-9.37673
▁eat	-9.37701
▁mur	-9.37801
ugh	-9.37848
▁Her	-9.37854
▁fine	-9.37976
▁Isl	-9.3805
▁nomy	-9.38103
▁dev	-9.38168
▁pack	-9.38219
▁lin	-9.38388
us	-9.38396
▁north	-9.38399
▁meas	-9.38409
nd	-9.38511
▁lk	-9.38524
▁East	-9.38539
▁buy	-9.387
▁nsib	-9.38753
▁dates	-9.38786
▁oast	-9.38799
▁block	-9.38864
▁ish	-9.38878
▁tail	-9.38944
▁drug	-9.39065
▁ban	-9.39118
▁Mar	-9.39197
▁tress	-9.39267
▁ncern	-9.39285
▁rath	-9.39343
▁rank	-9.3935
▁ompa	-9.3935
▁Ba	-9.39392
▁ev	-9.39398
▁gold	-9.3961
▁tru	-9.39613
▁tform	-9.39797
▁Las	-9.39798
▁maker	-9.3986
▁mila	-9.3987
▁firm	-9.39883
▁ado	-9.40043
qua	-9.40072
▁rinc	-9.40266
▁Da	-9.40345
ful	-9.40388
▁diat	-9.40396
fla	-9.40404
▁opti	-9.40524
▁ornia	-9.40547
cept	-9.40709
▁ny	-9.40854
▁Feb	-9.40882
▁ssa	-9.40883
igh	-9.41148
▁Eve	-9.41177
▁lue	-9.41333
▁scor	-9.41368
▁Fa	-9.41399
▁ubli	-9.41399
▁loss	-9.41413
▁tini	-9.41423
eek	-9.41461
▁value	-9.41665
▁ddl	-9.41687
▁laims	-9.41701
▁ways	-9.41702
▁rown	-9.42154
st	-9.42176
▁BBC	-9.42193
▁hood	-9.42197
▁fil	-9.42388
▁pi	-9.42389
▁ould	-9.4249
▁abil	-9.42515
▁ath	-9.42527
2	-9.42615
▁iz	-9.42628
▁eas	-9.42673
▁fence	-9.42828
▁Sta	-9.42918
hara	-9.42942
fer	-9.4295
▁ety	-9.43041
▁olle	-9.43079
▁ray	-9.43153
▁harm	-9.4323
to	-9.43371
▁rself	-9.43459
▁ire	-9.43616
▁lett	-9.43619
ry	-9.43823
H	-9.43925
▁eer	-9.44032
▁qui	-9.44039
▁range	-9.44067
▁sband	-9.44143
▁lliam	-9.44155
no	-9.44158
▁Day	-9.4421
ov	-9.44226
▁ative	-9.44246
▁thi	-9.44278
▁ow	-9.44374
su	-9.44427
▁educ	-9.44601
▁bank	-9.44616
div	-9.44654
▁succ	-9.44733
▁hance	-9.44753
nior	-9.44813
ncou	-9.44901
▁blem	-9.44995
1	-9.45068
▁wrong	-9.45118
▁fear	-9.45402
▁male	-9.4546
:	-9.45618
▁ating	-9.45757
▁fect	-9.45847
▁pply	-9.4588
▁lower	-9.45891
▁tary	-9.46073
▁sli	-9.46181
hic	-9.46227
▁dom	-9.46258
▁rou	-9.46321
▁score	-9.46337
▁spec	-9.46405
▁teg	-9.46523
▁main	-9.46667
▁gave	-9.46674
mov	-9.46691
▁ics	-9.46692
▁isa	-9.46735
▁bed	-9.46743
tant	-9.4675
▁ctory	-9.46765
▁fill	-9.46878
he	-9.47046
▁poll	-9.47067
▁pick	-9.47069
▁cter	-9.47299
▁bab	-9.47354
▁Paris	-9.47485
▁orig	-9.47508
▁tient	-9.4752
▁path	-9.47552
▁bate	-9.47569
▁venue	-9.47599
sum	-9.47682
▁David	-9.4774
▁amb	-9.4789
▁ull	-9.47906
ge	-9.48
▁fair	-9.48046
▁Cup	-9.4817
▁owl	-9.48197
▁exis	-9.48258
niz	-9.48353
▁ran	-9.48429
▁ur	-9.48433
▁More	-9.48589
▁cott	-9.48596
▁ke	-9.48676
▁sults	-9.48739
▁Park	-9.48748
▁title	-9.48748
▁Ex	-9.48798
▁roll	-9.48866
▁ki	-9.48882
▁tance	-9.49009
▁via	-9.49013
▁mum	-9.4905
▁dam	-9.49054
▁sav	-9.49114
▁ood	-9.49123
▁sold	-9.49136
▁creen	-9.49195
▁ening	-9.49268
il	-9.49314
▁Phi	-9.4933
▁sense	-9.49363
▁ancer	-9.49366
▁ag	-9.49442
▁llow	-9.4946
▁areas	-9.49472
▁happy	-9.49477
▁heard	-9.49479
▁sist	-9.4958
▁Sea	-9.49761
▁Can	-9.49784
▁doub	-9.49797
▁image	-9.49813
▁ogn	-9.49835
▁War	-9.50148
▁har	-9.50179
▁hop	-9.50265
▁Not	-9.50336
▁ock	-9.5036
▁actor	-9.50522
▁extra	-9.50526
amag	-9.50676
▁memo	-9.50693
▁nduct	-9.50733
▁rench	-9.50743
▁earn	-9.50802
▁liday	-9.50849
▁zz	-9.50917
▁paper	-9.51057
▁ory	-9.51068
▁dcast	-9.51085
▁fense	-9.51087
▁ula	-9.51192
▁envi	-9.51202
ging	-9.51242
flu	-9.51275
▁ou	-9.51288
▁udget	-9.51299
▁hou	-9.51313
▁uck	-9.51357
▁paid	-9.5139
ecre	-9.51506
▁dium	-9.51616
▁ridge	-9.51684
▁yer	-9.51704
▁legi	-9.51759
▁duct	-9.51791
▁flict	-9.518
▁ester	-9.5198
ultu	-9.51988
▁hap	-9.51997
▁pool	-9.52101
▁essi	-9.52177
V	-9.52197
▁Ou	-9.52251
▁tern	-9.52292
▁ok	-9.52426
▁uring	-9.5249
▁My	-9.52594
▁peech	-9.52635
▁kids	-9.52702
▁judge	-9.52741
▁ana	-9.52977
▁conf	-9.53149
▁bra	-9.53271
▁bill	-9.53279
▁fac	-9.53294
low	-9.53314
▁ide	-9.53395
▁unch	-9.53438
▁Photo	-9.53481
▁llege	-9.53512
▁ney	-9.53524
▁oss	-9.53615
▁Lo	-9.53672
▁dio	-9.53723
▁Dis	-9.53839
▁rima	-9.53978
▁Na	-9.54102
▁dul	-9.54216
▁aw	-9.54311
▁sis	-9.54324
00	-9.54387
▁ppeal	-9.54436
▁cases	-9.54466
▁ad	-9.54476
▁costs	-9.54653
▁clea	-9.54806
▁hoice	-9.54823
▁First	-9.54943
▁tness	-9.54944
▁nes	-9.54955
▁erous	-9.54972
▁rita	-9.54973
▁plo	-9.54999
▁Ti	-9.55085
▁tes	-9.55156
▁cerns	-9.55195
▁ontr	-9.55201
▁mm	-9.5522
▁ola	-9.55231
▁Ki	-9.5525
▁prop	-9.55302
▁prise	-9.55363
▁trus	-9.55441
▁okes	-9.55533
▁easy	-9.55571
▁oke	-9.5562
▁Me	-9.55623
▁anger	-9.55637
▁lays	-9.55652
▁gone	-9.55663
▁rul	-9.55742
▁James	-9.55819
redi	-9.56078
▁eli	-9.56115
▁rett	-9.56137
▁boy	-9.56182
▁ific	-9.56224
▁ele	-9.56525
▁ult	-9.56569
tro	-9.56589
▁om	-9.56663
▁rices	-9.56671
▁aid	-9.56792
eigh	-9.56833
▁east	-9.56846
▁deb	-9.56883
▁urope	-9.5693
ppro	-9.56937
▁rag	-9.56962
▁eil	-9.56969
▁nnel	-9.57022
▁rats	-9.57036
▁onfe	-9.57167
▁assi	-9.57175
▁study	-9.57187
▁sands	-9.57197
▁Dan	-9.57283
▁ual	-9.57284
▁rvi	-9.57303
▁birth	-9.57309
▁ama	-9.57391
▁Qu	-9.5741
▁ye	-9.57415
▁uggl	-9.57466
▁mis	-9.57482
aunc	-9.57562
▁gar	-9.57619
▁immi	-9.57649
▁tmas	-9.57696
▁ffor	-9.57811
▁_	-9.58066
▁focus	-9.5807
▁tre	-9.5814
▁tric	-9.58144
▁chair	-9.58312
▁avoid	-9.58446
▁sex	-9.58525
▁lan	-9.58538
▁shock	-9.58573
cit	-9.58703
▁Gu	-9.58752
6	-9.5921
▁epi	-9.59251
▁lling	-9.59359
▁trem	-9.59449
▁rant	-9.59461
▁esca	-9.59501
ided	-9.5966
▁Jack	-9.59686
▁ark	-9.59782
▁table	-9.59789
▁oll	-9.6002
▁hear	-9.6004
▁rite	-9.6004
▁les	-9.60053
▁flec	-9.60068
▁page	-9.60084
▁movie	-9.60136
▁hysi	-9.60157
▁shi	-9.6018
nce	-9.60196
▁Iran	-9.60246
▁shire	-9.60378
▁circ	-9.60378
▁ole	-9.60392
▁mfort	-9.60634
▁gain	-9.60694
▁ip	-9.60804
▁Inst	-9.60828
▁rney	-9.60925
j	-9.60984
▁pair	-9.60993
▁erc	-9.6103
▁rai	-9.61161
tain	-9.61168
▁msel	-9.61279
▁Prime	-9.61286
▁deli	-9.61375
▁11	-9.61377
▁sort	-9.61395
▁aim	-9.61411
▁crowd	-9.61417
▁peace	-9.61418
ka	-9.61458
▁touch	-9.61567
▁xi	-9.61741
▁stock	-9.61818
▁iv	-9.61872
▁mine	-9.61918
swer	-9.62047
▁size	-9.62137
▁ee	-9.62145
▁loved	-9.62148
▁Party	-9.62168
▁sport	-9.62208
▁risis	-9.62215
▁rush	-9.62256
▁prom	-9.62307
▁lip	-9.62309
▁lent	-9.6238
▁ride	-9.6255
▁torm	-9.62551
peci	-9.6264
▁fam	-9.62691
K	-9.62707
ect	-9.62729
▁gent	-9.62749
▁qua	-9.62755
lima	-9.62764
▁rk	-9.62793
▁olly	-9.62811
each	-9.63107
new	-9.6314
▁ead	-9.63335
▁14	-9.63336
▁cert	-9.63336
▁dog	-9.63379
▁ndard	-9.63604
attl	-9.6367
▁drink	-9.63672
▁ferr	-9.63687
▁lish	-9.63719
▁50	-9.63806
▁ool	-9.64061
▁Paul	-9.64078
▁esse	-9.64153
▁ise	-9.64299
▁wa	-9.64329
▁nel	-9.6446
▁pull	-9.64483
▁kick	-9.64486
▁Wil	-9.64606
▁lash	-9.64701
▁rian	-9.64858
é	-9.64959
▁ndred	-9.6503
▁mas	-9.65073
▁pe	-9.65084
▁pread	-9.65123
▁dia	-9.65186
▁mmun	-9.65296
▁erry	-9.65388
▁rati	-9.6539
▁Smith	-9.65431
mb	-9.65435
▁Wal	-9.65453
ipa	-9.65485
▁istan	-9.65537
▁geria	-9.6557
▁ngel	-9.65758
▁rit	-9.6585
▁favo	-9.65858
▁send	-9.65866
▁named	-9.65967
▁ose	-9.65988
▁ford	-9.66049
hav	-9.66103
▁guard	-9.6612
▁tream	-9.66134
lar	-9.66271
erv	-9.66328
▁erg	-9.66333
▁nta	-9.66373
▁eth	-9.66376
▁rri	-9.6639
▁tori	-9.66495
rend	-9.66509
eapo	-9.6662
▁ining	-9.66795
7	-9.66803
▁hair	-9.66855
3	-9.66945
mplo	-9.67007
▁throw	-9.67029
dul	-9.67036
▁true	-9.67037
▁alm	-9.67066
let	-9.67072
rior	-9.67214
▁ttle	-9.67233
pent	-9.67273
▁terms	-9.67285
ware	-9.67544
▁plant	-9.6756
▁voice	-9.6778
▁nica	-9.67838
▁tics	-9.67877
▁Ab	-9.67879
▁ized	-9.6798
▁ura	-9.67998
▁cho	-9.68053
▁abi	-9.68081
▁focu	-9.68196
▁Green	-9.68229
rom	-9.68288
▁gro	-9.68352
▁ator	-9.68406
▁St	-9.68451
▁Times	-9.6849
If	-9.68557
▁oon	-9.68587
▁aint	-9.68657
▁ntent	-9.68668
▁epar	-9.68701
▁ades	-9.68717
um	-9.6894
▁posed	-9.68962
▁ol	-9.68973
▁perty	-9.69104
▁18	-9.69189
▁sti	-9.6921
ledg	-9.69276
▁emi	-9.69293
▁scar	-9.69376
▁eb	-9.69513
▁ada	-9.69529
▁homes	-9.69681
He	-9.6972
▁ntac	-9.69773
▁ngl	-9.69816
▁vo	-9.6984
▁25	-9.69853
▁ega	-9.69876
W	-9.69948
▁Char	-9.69963
▁teria	-9.69968
▁gital	-9.70087
▁award	-9.70093
▁Or	-9.701
▁pper	-9.70123
▁teen	-9.70166
tori	-9.70217
tion	-9.70221
▁ior	-9.70222
tanc	-9.70338
▁fri	-9.70348
▁skin	-9.70364
com	-9.7047
▁sleep	-9.70473
▁rules	-9.70482
ture	-9.70574
▁ade	-9.70648
▁poor	-9.70682
▁wall	-9.70804
▁rote	-9.70805
N	-9.70966
▁ston	-9.70981
▁rew	-9.71053
▁gla	-9.71059
▁arra	-9.71223
▁dro	-9.71388
▁aren	-9.71389
▁gan	-9.714
our	-9.71411
vanc	-9.71411
▁sions	-9.71483
▁ile	-9.71503
▁Cla	-9.71637
▁pen	-9.71729
▁aily	-9.71773
▁ector	-9.71783
▁llar	-9.71818
▁amera	-9.71865
▁ita	-9.72067
▁fy	-9.7207
▁hose	-9.72116
ettl	-9.72133
▁bag	-9.7223
ga	-9.72294
▁hour	-9.72298
▁rates	-9.72385
▁sia	-9.72476
▁styl	-9.72536
▁norm	-9.72577
▁looks	-9.72705
▁ace	-9.72791
lex	-9.72794
▁lines	-9.72901
4	-9.72968
▁yal	-9.73075
▁pitch	-9.73097
▁nned	-9.73118
▁ducts	-9.73205
▁drive	-9.73214
▁built	-9.73237
▁sla	-9.73245
▁raz	-9.73258
▁gard	-9.73259
▁teams	-9.73278
▁dden	-9.73425
▁row	-9.7345
peak	-9.73455
▁ecret	-9.73536
▁dal	-9.73541
▁Chief	-9.73544
▁Flor	-9.73577
▁ffa	-9.73596
rela	-9.73606
▁ili	-9.73679
▁umb	-9.73685
▁ille	-9.73731
▁issed	-9.73768
eagu	-9.73882
▁oti	-9.73898
▁ortu	-9.7395
▁cans	-9.73953
▁nti	-9.73974
▁gue	-9.73995
▁drama	-9.74009
▁ain	-9.74032
▁ealth	-9.74139
▁views	-9.74216
out	-9.74261
▁gg	-9.74271
▁Tra	-9.74321
▁Mean	-9.74326
▁16	-9.74408
▁ssful	-9.74454
▁text	-9.74553
▁broad	-9.74572
9	-9.74655
ang	-9.74733
▁sw	-9.74766
▁nge	-9.74842
▁Japan	-9.74874
▁nings	-9.7496
▁Col	-9.74965
▁mu	-9.75079
▁hot	-9.751
)	-9.75117
▁ctors	-9.75149
▁ami	-9.75157
▁ommi	-9.75175
▁Korea	-9.75326
▁opul	-9.75339
▁Fi	-9.75345
▁AP	-9.75369
▁embl	-9.75381
▁fle	-9.75408
▁cept	-9.75432
▁Los	-9.75472
▁yard	-9.75522
▁seat	-9.75686
▁ream	-9.75722
▁nvic	-9.75783
▁Andr	-9.75904
▁hotel	-9.75967
emi	-9.7605
▁hands	-9.76109
▁stake	-9.76151
▁nec	-9.76154
▁Sch	-9.76311
▁spr	-9.76324
hift	-9.7641
▁mart	-9.76469
▁runs	-9.76601
▁dra	-9.76615
▁limi	-9.76674
▁ich	-9.76747
▁anal	-9.76748
▁Ko	-9.76781
▁uri	-9.76802
▁alone	-9.76807
▁nger	-9.76835
▁craft	-9.76846
▁exac	-9.7711
▁bil	-9.77197
▁pan	-9.77316
▁fals	-9.77389
▁opt	-9.77417
▁above	-9.77458
▁ore	-9.77667
▁rat	-9.77705
▁ang	-9.77718
▁blood	-9.77766
▁lcome	-9.77778
ight	-9.77824
▁spen	-9.77855
▁auto	-9.77857
▁pet	-9.77876
ast	-9.7795
▁seem	-9.7805
▁ords	-9.78085
▁cro	-9.78118
▁rden	-9.78121
▁urn	-9.78193
▁scr	-9.78213
▁rge	-9.78225
▁llage	-9.7824
▁tz	-9.78273
▁fan	-9.7855
▁lose	-9.78604
▁ave	-9.78719
▁tests	-9.78779
▁llen	-9.78784
▁bsite	-9.78853
stab	-9.78977
▁lf	-9.79134
▁rist	-9.79219
▁plea	-9.79247
▁loyee	-9.79322
man	-9.79325
▁blems	-9.7934
▁ka	-9.79457
▁dream	-9.7948
▁Texas	-9.79518
▁words	-9.79555
▁card	-9.79605
▁sens	-9.79635
▁reli	-9.79927
▁wear	-9.79952
▁menta	-9.79976
▁train	-9.80141
▁anc	-9.80213
▁Gra	-9.80221
▁idd	-9.80324
▁lt	-9.80332
ust	-9.80413
ious	-9.80521
▁obert	-9.80588
sive	-9.80649
▁Fox	-9.80662
▁ah	-9.80712
▁lam	-9.80793
▁reat	-9.80849
▁ounts	-9.81063
▁und	-9.81196
▁Wa	-9.81212
▁phi	-9.81221
▁Two	-9.81224
▁cy	-9.81325
▁ode	-9.81438
▁mbl	-9.8159
▁ane	-9.81621
lu	-9.81765
▁cons	-9.81815
▁rgin	-9.81854
▁rtist	-9.81871
▁ified	-9.81883
▁west	-9.81977
▁24	-9.82037
▁bort	-9.82071
▁fell	-9.82213
▁nap	-9.82508
▁bb	-9.82545
▁tails	-9.82578
equ	-9.82588
▁seems	-9.82622
▁prime	-9.82633
pond	-9.82662
▁@	-9.82672
ա	-9.82694
▁lus	-9.82763
▁tele	-9.82786
▁omen	-9.82828
▁sound	-9.82837
▁urant	-9.8284
▁nest	-9.82857
▁sett	-9.82874
▁oc	-9.82981
▁fit	-9.83011
▁eyond	-9.83028
▁lleg	-9.83029
8	-9.83032
▁rich	-9.83071
▁mit	-9.83116
▁Putin	-9.83161
▁nion	-9.83179
▁rid	-9.83238
▁uts	-9.83284
▁ja	-9.83286
▁arc	-9.83336
▁EU	-9.83368
▁save	-9.83444
▁erti	-9.83487
▁word	-9.83525
▁mmy	-9.83559
▁fuel	-9.8363
▁ique	-9.8365
ylo	-9.83669
▁pple	-9.83767
▁aj	-9.83773
▁ari	-9.83779
▁goals	-9.83895
▁Mark	-9.83898
▁gre	-9.83948
▁oost	-9.84
▁tto	-9.84006
▁wild	-9.84012
▁sight	-9.84098
▁sault	-9.84143
▁mala	-9.84152
▁ove	-9.84191
▁losed	-9.84342
▁rap	-9.84405
▁lit	-9.84435
▁wri	-9.84475
ate	-9.84543
▁ising	-9.84621
▁rope	-9.84695
▁enger	-9.84792
▁ots	-9.84815
▁rsen	-9.84855
▁tone	-9.84944
▁13	-9.84974
▁rch	-9.84994
▁ower	-9.85159
▁hen	-9.85213
▁grad	-9.85347
cing	-9.85351
itiz	-9.85412
▁perts	-9.8554
▁orce	-9.8558
ief	-9.85758
▁rre	-9.85861
▁rash	-9.8592
▁wed	-9.8593
▁oot	-9.85943
▁baby	-9.8595
▁agg	-9.8596
▁lif	-9.86075
▁tera	-9.86103
▁parts	-9.86123
do	-9.86144
▁Harry	-9.8626
▁40	-9.86264
▁isn	-9.86318
▁os	-9.86384
▁cash	-9.86399
▁imm	-9.86439
pre	-9.86488
▁ngu	-9.8652
▁kTok	-9.86643
Y	-9.86691
▁dest	-9.86706
▁ze	-9.86743
▁rock	-9.8685
▁calls	-9.86858
▁val	-9.86859
▁lli	-9.86884
▁oy	-9.86895
▁oca	-9.86908
▁pil	-9.86917
▁users	-9.86928
ptio	-9.87046
▁rvey	-9.87153
▁rpor	-9.87161
▁syl	-9.87228
sist	-9.87248
▁noted	-9.87301
▁uk	-9.87426
▁anon	-9.87488
▁ird	-9.87494
ent	-9.87568
▁ments	-9.87856
▁ans	-9.87936
▁ope	-9.88004
▁unit	-9.88141
▁dress	-9.88174
▁warm	-9.88289
▁piece	-9.88355
▁ata	-9.88444
▁eive	-9.88589
▁aning	-9.88666
▁gas	-9.88686
▁ayo	-9.88834
▁Here	-9.88856
▁lad	-9.88929
▁oyal	-9.88941
▁fun	-9.88976
▁jobs	-9.88995
eing	-9.89032
▁Guard	-9.89035
▁Sa	-9.89086
▁lar	-9.89254
mid	-9.89296
▁enne	-9.893
▁ried	-9.89377
▁ert	-9.89387
▁tives	-9.89389
▁hel	-9.8945
▁Un	-9.89633
▁band	-9.89818
▁vis	-9.89883
▁ony	-9.89949
▁olor	-9.90018
▁urch	-9.90115
▁dad	-9.90178
▁op	-9.90194
▁ntest	-9.90252
▁union	-9.90294
▁100	-9.90461
▁ets	-9.90565
▁ug	-9.90589
▁amin	-9.90931
lanc	-9.90947
▁mited	-9.90981
▁laugh	-9.91191
▁rity	-9.91216
▁nia	-9.91231
▁vou	-9.91267
▁Gene	-9.91406
▁enate	-9.91435
▁pec	-9.91572
▁zon	-9.91603
▁pace	-9.91662
▁clu	-9.91898
ow	-9.91977
▁assed	-9.91984
▁Sun	-9.92035
▁tick	-9.92176
▁trou	-9.92343
▁nstr	-9.92371
▁ler	-9.92418
▁yan	-9.92488
▁shio	-9.92565
▁tend	-9.92612
rem	-9.92749
▁genc	-9.92945
▁Rep	-9.92969
hi	-9.93026
▁artin	-9.93097
▁mony	-9.93122
▁mise	-9.93142
▁Ed	-9.9315
▁Mat	-9.93181
▁yn	-9.932
▁lth	-9.93268
▁sit	-9.93307
▁atto	-9.93353
▁rry	-9.93354
▁pose	-9.93465
▁rack	-9.93524
▁fly	-9.93533
▁gri	-9.93627
▁McC	-9.93656
▁outh	-9.93676
▁fying	-9.93686
ja	-9.93986
▁isla	-9.93998
▁ndow	-9.94221
▁oat	-9.94223
▁sod	-9.9429
▁Liv	-9.94334
▁arb	-9.94437
▁rd	-9.94631
▁urna	-9.94641
▁oes	-9.94664
▁atri	-9.94693
▁cies	-9.94763
▁ills	-9.94833
▁eats	-9.94834
▁cyc	-9.9486
▁roo	-9.94892
▁omme	-9.94916
▁sky	-9.94971
▁yd	-9.95027
▁wn	-9.95203
▁thu	-9.95282
▁aba	-9.95287
▁Don	-9.95526
▁tches	-9.95526
▁esses	-9.95531
▁--	-9.95532
▁sets	-9.95538
▁ees	-9.95573
▁ists	-9.95685
▁pri	-9.95716
iti	-9.95815
▁eta	-9.95823
▁rofit	-9.95829
▁alist	-9.95845
co	-9.95859
▁sale	-9.95887
▁ure	-9.95964
▁whi	-9.96019
▁llah	-9.96084
▁song	-9.96467
▁obi	-9.96489
▁rried	-9.96515
▁iance	-9.96525
▁valu	-9.96584
ig	-9.96615
▁arol	-9.96616
▁Bank	-9.96854
ack	-9.96895
▁kin	-9.96904
▁dark	-9.96971
▁kh	-9.97048
▁iou	-9.97212
▁asio	-9.97293
▁rcha	-9.97373
▁enc	-9.97389
▁Po	-9.97605
▁uke	-9.97717
▁abuse	-9.97728
▁mach	-9.97807
▁ium	-9.97819
▁ov	-9.97884
ck	-9.97948
▁tars	-9.97974
▁rmy	-9.97984
▁osp	-9.98024
▁urr	-9.98051
▁nov	-9.98118
▁lied	-9.98161
resh	-9.98168
▁riz	-9.982
▁utter	-9.98217
▁urb	-9.98231
▁ively	-9.98317
▁By	-9.98341
▁pic	-9.98385
▁cou	-9.98392
eat	-9.98524
▁tac	-9.98533
▁orn	-9.98688
duc	-9.98724
▁ensi	-9.98745
▁hall	-9.98781
▁guil	-9.98832
▁abs	-9.9885
▁ghan	-9.99043
▁jec	-9.99068
▁va	-9.99095
▁nna	-9.99134
ject	-9.99168
▁rner	-9.99282
ther	-9.993
▁ction	-9.99353
▁17	-9.99403
▁onto	-9.99494
▁vit	-9.99496
▁era	-9.99532
▁exc	-9.99544
▁egr	-9.99552
▁noo	-9.99779
▁faci	-9.99814
▁arl	-9.9983
▁usk	-9.99909
▁otion	-9.99914
▁email	-9.99984
▁enn	-10.0007
▁ys	-10.002
▁aci	-10.003
▁ncy	-10.003
▁maz	-10.0033
▁dern	-10.0038
▁ub	-10.0046
▁dri	-10.0047
▁item	-10.0048
▁marr	-10.006
mo	-10.006
vent	-10.0065
▁lec	-10.0067
▁hole	-10.0068
▁rival	-10.0082
▁bum	-10.0106
▁ico	-10.011
▁rule	-10.0111
▁uma	-10.0114
▁mor	-10.0117
▁ides	-10.0118
ky	-10.0119
▁laces	-10.012
ah	-10.0123
▁etch	-10.0125
▁vol	-10.0126
▁rab	-10.0133
▁cell	-10.0136
▁nny	-10.014
▁mma	-10.0149
▁prec	-10.015
▁stab	-10.015
wa	-10.0152
▁flu	-10.0159
▁irs	-10.0159
▁sal	-10.0161
▁esta	-10.0166
▁rp	-10.0169
▁nance	-10.0179
▁alit	-10.018
▁inger	-10.019
▁BJP	-10.0193
▁mile	-10.0195
▁pm	-10.02
▁lb	-10.0205
▁eld	-10.021
▁ero	-10.0221
▁dance	-10.0225
▁bio	-10.0225
▁lour	-10.0236
▁heme	-10.0238
▁ery	-10.0261
▁ala	-10.0269
▁nty	-10.0271
▁nds	-10.0275
▁cry	-10.0292
▁tly	-10.0295
▁hic	-10.0297
▁ora	-10.0303
▁choo	-10.0304
▁rl	-10.0326
▁miles	-10.033
▁Tom	-10.0333
▁im	-10.0341
▁ench	-10.0356
▁odd	-10.0357
▁bel	-10.0359
om	-10.037
▁ister	-10.0374
0%	-10.0384
▁dee	-10.0389
▁heir	-10.0392
▁gs	-10.04
▁lim	-10.0402
"	-10.0406
▁cue	-10.0437
▁isco	-10.0442
▁ust	-10.0448
▁ese	-10.045
▁gle	-10.0455
▁ife	-10.0457
▁eep	-10.0478
▁duc	-10.0481
▁eau	-10.0483
▁cau	-10.0483
▁mpt	-10.0486
▁fail	-10.0498
▁otes	-10.0505
▁advi	-10.0506
▁arth	-10.0526
▁etro	-10.0527
▁Sec	-10.053
▁lex	-10.0532
▁rad	-10.055
▁ork	-10.055
▁ombi	-10.0558
▁ko	-10.0559
▁olo	-10.0564
▁gger	-10.0566
▁hy	-10.057
olv	-10.0573
▁ani	-10.0576
▁pse	-10.0577
▁Kat	-10.0597
▁elen	-10.0603
▁nts	-10.0604
▁ntage	-10.0616
▁ages	-10.0618
▁tip	-10.0624
▁UN	-10.0628
▁ib	-10.0631
▁wave	-10.0634
▁wan	-10.0637
fi	-10.0648
▁stle	-10.0651
▁tur	-10.066
▁hell	-10.069
▁eva	-10.0697
▁gna	-10.0709
▁plane	-10.0715
▁+	-10.0719
▁grat	-10.072
▁tud	-10.0724
▁eg	-10.0729
▁gua	-10.0732
X	-10.0733
▁ubt	-10.0734
▁mote	-10.074
▁twi	-10.0741
▁elt	-10.0749
▁gic	-10.0755
▁elle	-10.0757
▁ift	-10.0761
tinu	-10.0784
▁aske	-10.0787
▁ya	-10.0788
▁lig	-10.0791
▁lco	-10.08
▁=	-10.0801
▁Ira	-10.0802
▁amme	-10.0803
▁vet	-10.0808
▁CEO	-10.0822
▁olls	-10.083
▁nice	-10.0846
rew	-10.0866
▁racy	-10.0876
▁hang	-10.0879
▁gno	-10.088
▁dg	-10.0887
▁blo	-10.0892
hing	-10.0905
▁dow	-10.0909
▁bott	-10.0909
▁till	-10.0923
▁roup	-10.0929
▁eek	-10.0934
▁lm	-10.0934
tric	-10.0969
▁hat	-10.0974
▁uch	-10.0975
▁dor	-10.0995
▁mbi	-10.1
▁Gla	-10.1004
▁soci	-10.1011
▁emot	-10.1014
▁ckets	-10.1015
▁rally	-10.1017
▁nis	-10.1038
▁wr	-10.1044
▁lla	-10.1059
▁ible	-10.1059
ica	-10.1072
▁hol	-10.1072
ught	-10.1082
▁yri	-10.1094
▁mat	-10.1098
▁ged	-10.1101
pee	-10.1104
▁fix	-10.1112
▁neu	-10.1125
eces	-10.1136
▁mou	-10.1139
▁omp	-10.114
▁av	-10.1141
▁yo	-10.1161
▁die	-10.1185
▁stin	-10.1187
▁ahu	-10.1201
arry	-10.1202
▁burn	-10.122
▁lab	-10.1226
▁}	-10.1228
▁leas	-10.123
▁Art	-10.1232
▁xed	-10.1234
▁nied	-10.125
▁vent	-10.1263
My	-10.1286
▁info	-10.1289
▁ories	-10.1296
▁ntain	-10.1296
▁cow	-10.1297
▁axi	-10.1303
elec	-10.1314
▁uggle	-10.1318
▁ecure	-10.1319
▁ker	-10.133
▁nton	-10.1338
▁rror	-10.1338
▁lv	-10.1341
▁dge	-10.1341
▁eing	-10.1352
▁ater	-10.1358
▁tus	-10.136
▁wag	-10.1363
▁Hou	-10.1365
za	-10.1366
▁user	-10.1372
▁eir	-10.1384
▁endo	-10.1402
▁fre	-10.1403
▁sum	-10.141
▁sun	-10.1416
?	-10.1421
▁kid	-10.1425
▁ano	-10.1429
▁eff	-10.1437
▁ybe	-10.1445
▁uel	-10.1447
▁azi	-10.145
▁ela	-10.1459
▁gate	-10.1481
▁lter	-10.1484
▁ses	-10.1486
▁aga	-10.1489
▁ena	-10.1503
▁hro	-10.1505
▁opin	-10.1506
▁eter	-10.1508
▁Ob	-10.1516
dib	-10.1517
▁ueen	-10.1517
▁Af	-10.1528
▁apo	-10.153
▁nk	-10.1531
▁ury	-10.154
▁eck	-10.1545
▁tist	-10.1554
▁lton	-10.1557
▁eason	-10.1565
▁ardi	-10.1568
▁ssist	-10.157
▁Sir	-10.1574
▁Le	-10.1574
▁ppos	-10.1616
▁pop	-10.1637
▁Ku	-10.1644
▁ulat	-10.1647
▁dies	-10.1655
▁feet	-10.1691
\	-10.1697
▁geo	-10.171
emed	-10.1712
▁dust	-10.1712
▁sary	-10.1714
▁ames	-10.1721
▁stly	-10.1723
▁ein	-10.1723
▁urces	-10.1743
▁ici	-10.1745
▁oo	-10.1746
▁rand	-10.1747
▁lov	-10.1748
▁ssi	-10.1753
▁oys	-10.1759
▁Mos	-10.1761
▁oto	-10.1763
▁style	-10.1765
ft	-10.1768
▁olid	-10.1783
▁asta	-10.1788
▁tab	-10.1797
rogr	-10.1798
▁tim	-10.1805
▁Gen	-10.1817
▁ants	-10.1824
by	-10.183
▁mir	-10.1837
▁ken	-10.1845
▁emo	-10.1851
▁phy	-10.1852
uti	-10.1859
▁logy	-10.186
▁ute	-10.1866
▁cle	-10.1868
▁­	-10.1882
▁Val	-10.1892
▁indi	-10.1895
▁fec	-10.1901
▁wind	-10.1908
▁weet	-10.1922
ym	-10.1927
▁nz	-10.1943
▁troo	-10.1958
▁Mac	-10.1974
urg	-10.1984
▁oph	-10.1988
▁oral	-10.1988
▁tual	-10.1992
▁ba	-10.1993
▁Act	-10.1995
HS	-10.2009
▁Scott	-10.2026
▁ledg	-10.2034
▁ordi	-10.2036
▁ef	-10.2038
▁ego	-10.2038
▁tep	-10.2048
▁accu	-10.2054
▁ceed	-10.2064
▁hill	-10.207
▁elect	-10.2081
eiv	-10.2083
▁avi	-10.2091
▁ali	-10.2104
▁Gre	-10.2124
▁hain	-10.2127
▁flow	-10.2129
▁visi	-10.2134
▁ssel	-10.2156
▁Cap	-10.2164
used	-10.2166
▁ui	-10.217
▁carr	-10.2175
▁Li	-10.2183
▁che	-10.2196
▁lum	-10.2208
▁erci	-10.221
▁quo	-10.2217
▁El	-10.2222
▁Pre	-10.2222
▁sten	-10.2235
▁oday	-10.2239
▁del	-10.2239
▁Pu	-10.2257
▁dat	-10.2261
▁Sc	-10.2269
▁pid	-10.2269
▁rave	-10.227
▁ron	-10.2271
▁rra	-10.2277
▁vac	-10.2281
▁mend	-10.2293
▁é	-10.2296
▁asons	-10.2299
ian	-10.2307
▁lean	-10.2321
▁osh	-10.2322
Q	-10.2328
▁rect	-10.2329
▁q	-10.2332
▁cla	-10.2334
▁overs	-10.2349
▁imag	-10.2362
▁rose	-10.2369
▁rus	-10.2374
▁ware	-10.2375
▁cra	-10.2376
▁apped	-10.2383
ctur	-10.2387
▁tar	-10.2388
tor	-10.2404
▁rill	-10.2408
▁gage	-10.2415
▁19	-10.2425
▁sad	-10.2436
▁nute	-10.2441
▁ndy	-10.2445
▁cula	-10.2467
▁ink	-10.2469
▁stone	-10.247
der	-10.248
▁offe	-10.2486
▁tian	-10.2489
▁ular	-10.249
▁urk	-10.2493
▁nded	-10.2499
▁21	-10.2501
prov	-10.2505
▁lev	-10.2511
▁ustin	-10.2513
▁laws	-10.2536
▁zone	-10.2551
▁Ken	-10.2557
▁PM	-10.2565
{	-10.2581
▁mob	-10.2581
▁vs	-10.2588
▁rish	-10.2605
▁eran	-10.265
▁tta	-10.2651
▁ith	-10.2655
▁io	-10.2659
▁rone	-10.27
1,	-10.27
▁Port	-10.2707
▁Ali	-10.2713
▁mar	-10.2719
▁ori	-10.272
▁din	-10.2729
▁meth	-10.2731
▁ssed	-10.2744
▁ndon	-10.2753
▁tens	-10.276
▁llo	-10.277
▁ells	-10.2772
▁ste	-10.2782
▁Why	-10.2783
▁bid	-10.2784
▁nth	-10.28
▁ella	-10.2801
▁verse	-10.2808
▁uses	-10.2816
▁aro	-10.2823
▁yle	-10.2824
▁entu	-10.2832
▁#	-10.2833
▁ounds	-10.2844
▁bon	-10.2872
▁sts	-10.2875
▁Bill	-10.2885
▁eam	-10.2885
▁iga	-10.2897
In	-10.2906
▁ech	-10.2919
▁ited	-10.2921
▁irec	-10.2921
ó	-10.2931
▁ond	-10.2932
▁oul	-10.2942
▁ven	-10.2943
▁gns	-10.2952
▁lau	-10.2971
▁bert	-10.2982
▁hara	-10.2985
wer	-10.299
▁rize	-10.3001
ն	-10.3004
▁ym	-10.3007
ի	-10.3008
▁nak	-10.3008
▁cam	-10.301
▁een	-10.3013
▁desp	-10.3017
OP	-10.3027
▁iers	-10.3043
one	-10.3043
▁ddit	-10.3046
▁nci	-10.3052
tra	-10.3075
▁arms	-10.3079
▁tery	-10.3088
▁file	-10.3089
▁lls	-10.31
▁udge	-10.3102
▁hau	-10.3106
cien	-10.3116
▁tla	-10.3125
▁leng	-10.3131
▁ates	-10.3139
▁Poli	-10.3144
ba	-10.3146
▁sman	-10.3151
▁Othe	-10.3157
▁eder	-10.3164
llie	-10.3167
▁una	-10.317
▁broa	-10.3179
eak	-10.3181
▁log	-10.3185
▁rug	-10.3193
▁cript	-10.3199
▁tti	-10.3203
▁ests	-10.3204
▁ize	-10.3215
we	-10.3227
▁vor	-10.323
▁liz	-10.3231
▁rape	-10.3231
▁22	-10.3232
8,	-10.3234
▁enda	-10.3235
▁sand	-10.3237
20	-10.3238
▁Cal	-10.3245
▁zen	-10.325
▁stea	-10.3251
▁Cu	-10.3252
▁denc	-10.326
▁ung	-10.3269
▁guy	-10.327
▁bus	-10.327
▁wins	-10.3281
▁unc	-10.3294
▁mmit	-10.3307
▁og	-10.3318
▁ckle	-10.3318
▁ooks	-10.3321
▁rchi	-10.3328
▁eu	-10.334
▁mmer	-10.3351
▁ig	-10.3358
▁Ber	-10.3361
▁larg	-10.3364
▁uff	-10.3367
▁shar	-10.3394
▁lso	-10.3398
▁lav	-10.3425
▁rn	-10.3432
▁Ben	-10.3433
ze	-10.3435
▁€	-10.3441
▁60	-10.3464
rinc	-10.3466
▁ox	-10.3468
▁ateg	-10.3476
▁chan	-10.3483
J	-10.3486
▁eets	-10.3487
7,	-10.3493
▁yed	-10.3496
ak	-10.3497
▁nus	-10.3501
▁iver	-10.3504
▁vice	-10.3506
▁dian	-10.3509
▁Yet	-10.351
▁ense	-10.3547
▁Fra	-10.3556
▁fru	-10.3561
▁lies	-10.3566
▁rade	-10.3567
▁asis	-10.3568
▁nie	-10.3579
▁mph	-10.3583
▁anni	-10.3591
▁farm	-10.3595
▁MP	-10.3599
▁ush	-10.3616
▁ms	-10.3617
ment	-10.3627
▁hef	-10.3634
▁ald	-10.3636
gue	-10.3637
▁gli	-10.364
▁essed	-10.3658
▁ris	-10.366
▁hab	-10.3673
▁ij	-10.3674
▁alla	-10.3679
▁ello	-10.3681
▁heer	-10.3683
▁stro	-10.3687
va	-10.3689
▁Vic	-10.369
▁sey	-10.3695
▁los	-10.3698
▁shes	-10.37
iz	-10.3702
▁Pi	-10.371
ORE	-10.371
▁dry	-10.3715
▁Up	-10.3717
▁rev	-10.372
▁dd	-10.3727
trik	-10.3734
▁tiva	-10.374
▁ett	-10.3758
▁vert	-10.3764
▁uli	-10.3772
▁hone	-10.3778
▁rum	-10.379
▁ube	-10.3799
▁loan	-10.381
▁toria	-10.3815
▁iller	-10.3818
▁ange	-10.3821
▁eh	-10.3825
▁mble	-10.3828
▁icked	-10.3837
▁igge	-10.3847
▁chu	-10.3854
2,	-10.3872
▁voc	-10.3876
▁ovid	-10.3876
▁hor	-10.3885
▁lend	-10.3887
▁oad	-10.389
▁xu	-10.3895
▁acy	-10.39
▁tho	-10.3935
▁llie	-10.3947
▁pin	-10.3951
▁Bar	-10.3962
▁ep	-10.3962
▁rib	-10.3962
▁ruit	-10.3973
▁bru	-10.3984
▁flat	-10.3988
▁load	-10.3989
▁iP	-10.3991
▁uis	-10.3994
▁ira	-10.4012
▁num	-10.4017
▁rans	-10.4022
▁ky	-10.4025
▁iding	-10.4028
▁ends	-10.4039
▁oid	-10.4055
▁oom	-10.4063
▁lta	-10.4068
ish	-10.4091
▁nnes	-10.4096
▁kn	-10.4096
▁mist	-10.4096
▁oud	-10.4097
▁ely	-10.4097
▁enti	-10.4102
▁ku	-10.4114
▁och	-10.4119
▁sted	-10.4121
▁ingh	-10.413
nima	-10.4138
▁istic	-10.4147
▁swa	-10.4166
▁hai	-10.4184
▁rout	-10.4187
▁ging	-10.4197
▁sca	-10.4202
▁ild	-10.4205
▁sso	-10.4206
ug	-10.421
▁pping	-10.421
▁hut	-10.4213
plie	-10.4215
▁hree	-10.4236
▁lanc	-10.4245
▁cip	-10.4251
▁chel	-10.4253
▁ewi	-10.4275
▁ears	-10.4285
▁NFL	-10.4292
▁affi	-10.4314
▁lief	-10.4325
▁aches	-10.433
▁ndra	-10.4341
▁tle	-10.4341
▁wers	-10.4343
▁ngr	-10.435
▁minu	-10.436
▁rame	-10.437
NN	-10.4378
▁rav	-10.4382
hem	-10.4383
▁cker	-10.4384
▁kes	-10.4385
lian	-10.4388
▁hris	-10.439
▁ymp	-10.4396
▁ime	-10.4401
▁lp	-10.4403
▁aster	-10.4404
▁ric	-10.4406
ew	-10.441
▁cur	-10.4412
▁PA	-10.4425
▁imon	-10.4433
▁Kan	-10.4451
▁ermi	-10.4456
▁ences	-10.4463
▁cline	-10.4476
▁illa	-10.4494
▁romo	-10.4501
▁truc	-10.4503
6,	-10.4503
▁unt	-10.4512
ER	-10.4516
hu	-10.4521
▁trong	-10.4533
▁usse	-10.454
▁ipe	-10.4541
▁danc	-10.4544
▁23	-10.4545
▁mode	-10.4568
▁acci	-10.4572
▁assa	-10.4575
▁edia	-10.4579
▁ava	-10.4583
▁rti	-10.459
▁egg	-10.4591
▁eut	-10.4597
▁rice	-10.4598
▁wash	-10.4602
▁joy	-10.4603
▁aur	-10.461
▁nish	-10.4618
▁draft	-10.4624
▁Marc	-10.4626
▁anta	-10.4629
▁hate	-10.4633
▁unds	-10.4641
▁ete	-10.4643
▁cus	-10.4646
▁ik	-10.4653
▁Tim	-10.4659
▁seiz	-10.4659
▁ected	-10.4717
▁twe	-10.4718
▁Ru	-10.4724
▁nc	-10.4732
▁vil	-10.4741
▁ror	-10.4744
ity	-10.4746
▁wake	-10.475
▁Get	-10.475
▁gon	-10.4761
▁fro	-10.4763
▁uta	-10.478
▁rej	-10.4802
▁iar	-10.4815
▁28	-10.4815
▁cia	-10.4818
ap	-10.4829
▁scov	-10.4838
▁ilit	-10.4839
▁Gi	-10.4842
So	-10.4843
▁omin	-10.4849
▁rough	-10.485
▁arr	-10.4851
▁zer	-10.4852
▁king	-10.4867
▁asion	-10.4879
▁scen	-10.4882
▁ites	-10.4886
▁eath	-10.4888
▁eces	-10.4893
▁rob	-10.4895
▁nde	-10.4899
▁ek	-10.4903
▁Ri	-10.4904
▁ա	-10.4914
▁rious	-10.4926
▁Bra	-10.4931
▁Is	-10.4937
▁river	-10.495
▁26	-10.4955
▁requ	-10.4969
▁eeds	-10.4971
▁gap	-10.4979
▁sci	-10.4982
▁ches	-10.4988
▁grab	-10.4993
▁acked	-10.5008
▁rma	-10.5013
▁rim	-10.5015
▁ntic	-10.5019
▁eap	-10.5059
▁nimal	-10.5062
▁imi	-10.5067
▁cio	-10.5069
▁gest	-10.507
9,	-10.5078
-0	-10.5082
▁oman	-10.5108
▁core	-10.5113
af	-10.5122
▁forms	-10.5123
▁med	-10.5127
▁essa	-10.5136
▁ivi	-10.5155
▁lap	-10.5155
▁jur	-10.5156
▁ota	-10.5158
▁len	-10.5164
▁sco	-10.5165
▁enni	-10.5166
▁vast	-10.5171
▁1.	-10.5172
▁mba	-10.5172
▁ax	-10.5172
BA	-10.52
▁anks	-10.5203
▁bol	-10.5222
▁Str	-10.5227
▁ourne	-10.5243
▁orda	-10.5254
▁nct	-10.5267
▁Game	-10.5285
▁tank	-10.5291
▁cate	-10.5321
▁zens	-10.5327
▁pie	-10.5328
▁Fran	-10.5335
▁nga	-10.5335
anc	-10.5336
▁imb	-10.5357
▁rick	-10.5364
▁alls	-10.537
▁agu	-10.5371
▁oms	-10.5373
▁lub	-10.5381
ph	-10.5382
á	-10.5386
▁esh	-10.539
me	-10.5392
ana	-10.5401
▁assin	-10.5405
▁elly	-10.5406
▁asur	-10.5425
▁iser	-10.5426
▁anned	-10.5445
▁yl	-10.5448
▁dic	-10.5475
▁27	-10.548
▁ols	-10.5489
▁enga	-10.549
▁ads	-10.5493
▁augh	-10.5493
▁surge	-10.5498
▁ces	-10.5507
▁rsh	-10.5512
▁lled	-10.5513
▁aria	-10.5519
sure	-10.5546
▁hire	-10.5552
▁ypt	-10.5576
▁mort	-10.5577
▁lying	-10.5587
▁esi	-10.5605
▁alk	-10.5617
▁squ	-10.5632
▁bout	-10.5637
As	-10.564
▁lari	-10.5642
3,	-10.565
gh	-10.5657
▁nha	-10.5658
▁tag	-10.5663
▁hew	-10.5671
king	-10.5683
▁29	-10.5707
▁Live	-10.5714
▁nou	-10.5747
▁fruit	-10.5758
▁pers	-10.5765
▁Van	-10.5767
▁Who	-10.5772
▁Sp	-10.5781
▁rom	-10.5784
ng	-10.5803
▁dict	-10.5806
▁elig	-10.5811
▁eti	-10.5816
▁leak	-10.5829
▁opi	-10.5846
▁arv	-10.5851
crib	-10.5859
▁defi	-10.5862
▁nfor	-10.5889
▁Jam	-10.589
ATO	-10.5901
▁rop	-10.5938
▁sume	-10.5948
▁amm	-10.5999
▁ivity	-10.6002
▁ն	-10.6009
▁lame	-10.6017
▁ody	-10.6027
ving	-10.6031
▁ipa	-10.6035
▁judg	-10.604
▁mani	-10.6042
▁pha	-10.6047
▁lity	-10.6076
▁ved	-10.6091
▁cul	-10.6108
▁waste	-10.611
▁ams	-10.6132
▁Angel	-10.6142
▁AFP	-10.615
▁olic	-10.6154
▁raw	-10.6186
olo	-10.6188
▁wine	-10.6189
fa	-10.6189
▁Tru	-10.6199
▁tha	-10.6235
▁ked	-10.6271
▁enced	-10.6275
▁arry	-10.6293
▁olli	-10.6297
▁pment	-10.6302
▁rtu	-10.6314
▁nb	-10.6314
▁ix	-10.6321
▁riv	-10.6323
▁eed	-10.6324
▁react	-10.6329
▁wal	-10.6334
▁ayne	-10.6334
▁oney	-10.634
▁ays	-10.6345
▁rga	-10.6356
▁lik	-10.6356
▁ativ	-10.636
▁aff	-10.6364
5	-10.6382
▁pto	-10.6385
▁rior	-10.6388
▁scape	-10.6395
try	-10.6403
▁rage	-10.6416
pris	-10.6423
▁nchi	-10.6424
▁elief	-10.6437
▁rst	-10.6442
▁nj	-10.6443
▁bell	-10.6447
▁pho	-10.6448
▁ewis	-10.6454
▁AR	-10.6456
▁dly	-10.6472
▁enny	-10.6478
bo	-10.6487
▁Oct	-10.649
▁rb	-10.6509
▁oma	-10.6522
▁smo	-10.6538
▁gr	-10.6539
▁rust	-10.6542
pea	-10.6543
▁tea	-10.6549
▁atur	-10.6561
▁gni	-10.6564
▁lva	-10.6569
ff	-10.6569
▁stor	-10.657
▁ria	-10.658
▁mul	-10.6582
▁Sena	-10.6584
▁oci	-10.6587
▁adi	-10.6588
▁tum	-10.6603
▁Vo	-10.6606
▁sib	-10.6608
▁ame	-10.6628
▁oli	-10.6639
▁oh	-10.6642
▁bai	-10.665
▁mber	-10.6655
▁kil	-10.6657
▁iro	-10.6657
▁las	-10.6664
▁ept	-10.6667
ko	-10.6675
▁supp	-10.6693
▁anic	-10.6698
▁ats	-10.6704
▁alt	-10.6708
▁lem	-10.6724
▁acr	-10.6753
▁inco	-10.6754
▁35	-10.6755
▁cien	-10.6769
▁hydr	-10.677
▁rink	-10.6774
▁usa	-10.6777
▁cting	-10.6781
▁ason	-10.6781
▁CBS	-10.6797
NP	-10.6798
▁hm	-10.6799
ր	-10.6801
▁illy	-10.6804
▁eel	-10.6808
▁reci	-10.6811
▁eav	-10.6811
ld	-10.6812
▁rgen	-10.6812
▁mari	-10.6813
ong	-10.6817
▁iles	-10.682
▁dan	-10.6825
-1	-10.6842
▁ila	-10.6863
her	-10.6869
▁aya	-10.6877
▁heri	-10.6909
▁ario	-10.6913
q	-10.6926
▁lia	-10.6936
▁Tha	-10.695
▁ager	-10.6954
▁Tre	-10.6959
▁reh	-10.6961
▁tree	-10.6965
▁tine	-10.6972
▁uter	-10.6976
▁80	-10.6982
▁ption	-10.6984
▁trol	-10.6993
▁ois	-10.7012
▁uc	-10.7025
▁lib	-10.7036
▁Bri	-10.7039
▁ied	-10.7041
▁ils	-10.7058
▁lers	-10.7061
▁ongs	-10.7079
▁hore	-10.7085
▁yes	-10.7092
cov	-10.7095
▁hoc	-10.7101
▁bur	-10.7104
▁scal	-10.7123
▁siv	-10.7128
▁arch	-10.7133
▁wns	-10.7143
▁hio	-10.715
▁Met	-10.7155
▁2.	-10.7165
▁rson	-10.7166
▁arah	-10.7174
▁rme	-10.7176
▁nting	-10.718
▁wond	-10.7189
▁70	-10.7192
▁mag	-10.7193
▁nut	-10.7193
▁sas	-10.7193
▁scu	-10.72
▁medi	-10.7201
▁tall	-10.7208
▁conv	-10.7209
▁anag	-10.7211
▁rter	-10.7217
▁lor	-10.722
▁31	-10.7221
▁oug	-10.7222
▁moo	-10.7222
▁rimi	-10.7231
.5	-10.7231
ON	-10.7234
▁Rs	-10.7238
▁ott	-10.724
▁ompl	-10.7245
▁trac	-10.7253
ven	-10.7256
▁eaten	-10.7266
▁rena	-10.7289
▁veni	-10.729
▁USA	-10.7304
▁enu	-10.7312
▁omi	-10.7327
▁Ja	-10.733
▁lake	-10.7336
▁tock	-10.7369
▁ards	-10.7373
▁ounc	-10.7373
▁arre	-10.7397
▁erna	-10.7397
▁rine	-10.74
▁Ram	-10.7412
▁tabl	-10.7422
▁oking	-10.7457
ybe	-10.7459
▁itiv	-10.7474
▁onne	-10.7478
▁dua	-10.7483
▁Ky	-10.7486
▁ji	-10.7493
▁ndi	-10.75
▁iness	-10.7511
▁ica	-10.7513
ց	-10.7516
▁McG	-10.752
▁obb	-10.7523
▁hra	-10.7524
▁cab	-10.7524
qu	-10.7537
gg	-10.7539
▁ette	-10.7548
▁eon	-10.7548
▁nson	-10.7548
if	-10.7548
▁merg	-10.7548
▁90	-10.7549
▁hal	-10.7558
▁dar	-10.7558
▁nly	-10.7588
▁Vlad	-10.7598
▁ocate	-10.7601
▁redi	-10.7607
▁Jr	-10.7614
▁ntee	-10.7618
▁erri	-10.7619
▁ngs	-10.7628
▁ovi	-10.7629
▁cit	-10.7638
▁rip	-10.7641
▁els	-10.7647
▁lie	-10.7652
▁aire	-10.7654
▁afe	-10.7675
▁rang	-10.768
▁tled	-10.7685
▁uce	-10.7694
▁nves	-10.7712
▁reg	-10.7714
▁rint	-10.7719
▁Kh	-10.7721
▁MPs	-10.7725
▁seas	-10.775
í	-10.7763
▁eport	-10.7764
▁deni	-10.7765
▁Fo	-10.7772
▁duty	-10.7773
▁Jac	-10.7789
▁ngers	-10.7795
▁lon	-10.7805
▁Lee	-10.7807
▁mal	-10.7811
otco	-10.7814
▁II	-10.7817
▁hid	-10.782
▁mail	-10.7821
▁yb	-10.7827
NC	-10.7828
▁stan	-10.7828
▁org	-10.783
▁orri	-10.7839
▁gym	-10.7854
▁GB	-10.7856
▁urs	-10.7862
▁hout	-10.7865
▁Bla	-10.7868
houl	-10.7875
EN	-10.7896
▁45	-10.7899
▁ngla	-10.7935
▁roof	-10.7939
▁Kim	-10.7945
▁ua	-10.7952
5%	-10.7975
▁pub	-10.7984
▁ller	-10.7988
▁ank	-10.7996
▁isit	-10.8012
▁rby	-10.802
▁yc	-10.8051
▁eak	-10.8051
▁Cor	-10.8051
tz	-10.8058
▁onger	-10.8064
▁RT	-10.8072
▁EV	-10.8073
dem	-10.8082
elv	-10.8084
▁Tro	-10.8092
▁note	-10.8101
▁COVID	-10.8105
▁gency	-10.811
▁rty	-10.8123
▁gang	-10.8136
▁amily	-10.8139
▁inner	-10.8142
▁ents	-10.8145
▁dex	-10.8145
▁orm	-10.8175
▁navi	-10.8178
▁ids	-10.8182
▁tap	-10.8199
▁tein	-10.8232
▁mps	-10.8235
▁aca	-10.8246
▁reb	-10.8257
MA	-10.8267
usto	-10.8296
▁keen	-10.8302
▁dyn	-10.831
▁km	-10.8319
▁vant	-10.8341
▁arts	-10.8364
▁lind	-10.8368
▁Nor	-10.837
▁oard	-10.8373
▁bbi	-10.8377
▁ale	-10.8381
▁idi	-10.8386
▁noc	-10.8387
▁pel	-10.8393
▁fest	-10.8398
▁OK	-10.8403
▁http	-10.8414
▁owa	-10.8415
go	-10.8426
▁zed	-10.8426
▁rmo	-10.8433
▁llia	-10.844
▁abu	-10.844
▁html	-10.8458
▁rdo	-10.8471
▁haw	-10.8478
▁thers	-10.8489
▁feed	-10.8489
AT	-10.8492
▁unter	-10.8497
NBC	-10.8501
▁oyed	-10.8505
▁ilm	-10.8506
▁ves	-10.8506
▁amer	-10.8508
▁error	-10.8509
▁za	-10.8509
▁spa	-10.8514
▁lands	-10.8516
▁ient	-10.8533
▁indu	-10.8535
▁esla	-10.8536
PS	-10.8546
▁rren	-10.8548
▁awn	-10.8552
▁abha	-10.8575
▁trees	-10.8578
▁fees	-10.8584
▁ropo	-10.8586
▁eve	-10.8589
▁iet	-10.859
▁tiny	-10.8607
▁ffs	-10.8627
▁rin	-10.8635
▁ndo	-10.8637
▁tun	-10.8641
▁tan	-10.865
▁ugh	-10.8654
tary	-10.866
ET	-10.8667
▁eader	-10.8671
▁yth	-10.868
▁osed	-10.868
▁ras	-10.8701
▁mys	-10.8712
▁otte	-10.8742
▁coun	-10.8744
▁cat	-10.8754
▁loa	-10.8754
▁anna	-10.8755
▁iam	-10.8762
▁Indi	-10.877
▁rabl	-10.8771
▁taste	-10.8778
▁diet	-10.8779
▁llis	-10.8781
▁ram	-10.8781
▁aker	-10.8796
▁chol	-10.8797
▁lass	-10.8812
▁den	-10.8833
▁ution	-10.8834
DA	-10.8839
▁Ya	-10.8844
▁siz	-10.885
▁ript	-10.8864
▁eag	-10.8867
▁knee	-10.8874
ան	-10.8878
▁elem	-10.888
▁ltim	-10.8885
▁34	-10.889
▁Tri	-10.8917
▁afah	-10.892
▁uit	-10.8929
▁anne	-10.8951
▁tured	-10.8981
▁rh	-10.8992
▁ocie	-10.9004
▁tears	-10.9004
▁vic	-10.9006
▁ote	-10.9014
▁inti	-10.9025
▁stil	-10.9041
▁eler	-10.9042
ED	-10.9044
▁nne	-10.9044
▁labo	-10.9057
▁ato	-10.9061
▁3.	-10.907
▁enci	-10.9082
▁rrie	-10.9094
▁erty	-10.9111
▁wned	-10.9111
▁nders	-10.9114
form	-10.9114
▁ouch	-10.9119
▁romi	-10.915
▁ipp	-10.9151
▁tball	-10.9156
ari	-10.9176
▁soft	-10.9181
act	-10.9182
▁desh	-10.9188
▁nam	-10.9195
▁lence	-10.9196
▁pit	-10.9197
▁mill	-10.921
▁usic	-10.9217
▁loba	-10.9225
▁hak	-10.9254
▁flee	-10.9255
▁wai	-10.9283
▁Tok	-10.9291
▁bul	-10.9292
AN	-10.9313
▁alo	-10.9323
ric	-10.9324
▁wic	-10.9334
▁vir	-10.9341
▁nick	-10.9349
ji	-10.935
▁icul	-10.9354
▁uto	-10.9365
▁ova	-10.9368
▁meat	-10.9391
▁spon	-10.9403
▁nver	-10.9427
▁aper	-10.9427
ս	-10.9436
EC	-10.9439
▁dit	-10.9447
▁irm	-10.9449
▁enj	-10.9451
▁elev	-10.9459
▁gal	-10.947
▁Pol	-10.9497
▁posit	-10.9515
▁ecl	-10.9542
▁tie	-10.9547
▁teri	-10.9556
▁econ	-10.9567
▁rts	-10.957
▁Pet	-10.959
▁uthe	-10.9615
▁FA	-10.9616
▁grave	-10.9624
▁inema	-10.9626
▁fee	-10.9628
▁cific	-10.963
ounc	-10.9632
▁cca	-10.9632
▁Whi	-10.9642
▁ommu	-10.965
▁osa	-10.9671
▁LA	-10.968
▁hah	-10.9701
▁az	-10.9707
▁oro	-10.9713
▁ux	-10.9721
▁Max	-10.9728
▁nior	-10.9732
▁ours	-10.9738
▁reak	-10.9741
Z	-10.9746
▁agn	-10.975
LA	-10.9756
▁God	-10.9762
▁gains	-10.9771
▁epti	-10.9785
ու	-10.9798
▁uil	-10.9798
▁GP	-10.9799
▁loo	-10.9804
AS	-10.9806
SS	-10.9828
▁meal	-10.9832
▁sena	-10.9846
▁Oh	-10.9848
տ	-10.9849
ssu	-10.9868
-	-10.9877
ok	-10.9878
▁lop	-10.9879
▁ej	-10.9886
ming	-10.9893
▁hort	-10.99
▁Ham	-10.9901
Id	-10.9908
▁magi	-10.9921
▁heese	-10.9923
▁4.	-10.9927
▁epp	-10.9931
▁yp	-10.9945
ley	-10.9951
▁Cro	-10.9953
▁irl	-10.9957
▁pend	-10.9962
▁ttl	-10.9966
▁gel	-10.9976
▁glo	-10.998
▁nist	-10.9987
▁udd	-10.9988
▁erem	-10.9989
▁eba	-10.9992
▁pou	-10.9994
▁rary	-10.9997
▁homa	-11
▁Text	-11.0011
▁ield	-11.0015
▁FBI	-11.002
▁aul	-11.0029
▁ITV	-11.003
▁enry	-11.0034
ney	-11.0054
▁mpan	-11.0063
▁opp	-11.0071
▁abor	-11.0087
OS	-11.0107
▁nline	-11.0119
▁wk	-11.012
▁tty	-11.0125
▁slo	-11.0129
▁omet	-11.0131
▁BST	-11.0139
▁Cam	-11.0139
CC	-11.0141
▁fatal	-11.0165
▁nab	-11.0173
▁dol	-11.0198
▁cre	-11.02
▁utin	-11.0211
▁tau	-11.0211
▁ady	-11.0222
▁Hol	-11.0222
cro	-11.0226
▁mmed	-11.024
dent	-11.0254
▁til	-11.0281
▁poo	-11.0287
▁pta	-11.0289
▁mple	-11.029
▁ittle	-11.0292
fo	-11.0309
▁ubb	-11.0313
▁aura	-11.0315
▁kle	-11.0317
ek	-11.0322
▁atm	-11.0323
▁tack	-11.0347
▁ored	-11.0354
▁vict	-11.0358
▁IN	-11.0361
▁bing	-11.0362
▁nca	-11.0366
▁urd	-11.0367
▁deny	-11.0374
▁ailed	-11.0385
▁neral	-11.0424
▁overt	-11.0427
▁atie	-11.0441
50	-11.0441
▁twist	-11.0443
TS	-11.0475
of	-11.0493
▁hl	-11.05
▁Wo	-11.0501
▁otel	-11.0514
▁vid	-11.0517
▁tin	-11.0517
▁erge	-11.0536
▁uro	-11.0537
▁ethi	-11.0544
▁ups	-11.0545
▁36	-11.0546
ñ	-11.055
▁eur	-11.0556
▁ayer	-11.0556
▁eigh	-11.0559
ess	-11.056
lin	-11.0564
▁iol	-11.0565
▁tart	-11.0567
▁bal	-11.0573
▁Xi	-11.0584
▁hum	-11.0589
▁iron	-11.06
▁twin	-11.0602
▁Ye	-11.061
▁eves	-11.0613
▁ampa	-11.0624
able	-11.0641
▁ilia	-11.0651
ES	-11.066
▁grac	-11.0665
▁rem	-11.0669
▁olv	-11.0673
▁tale	-11.0674
▁ppen	-11.0676
▁grid	-11.0684
NS	-11.0718
▁վ	-11.072
▁harg	-11.0729
▁ider	-11.0735
▁owe	-11.0743
▁rega	-11.0745
To	-11.0755
▁sper	-11.076
▁als	-11.0767
▁wire	-11.0777
▁dist	-11.0782
▁lone	-11.0787
▁Jon	-11.0796
ttac	-11.0804
▁float	-11.0804
▁quar	-11.0814
▁rke	-11.0815
▁AN	-11.0821
!	-11.0826
▁andhi	-11.0832
▁lane	-11.0842
▁Dep	-11.0842
▁Bay	-11.0849
▁կ	-11.0851
pm	-11.0859
▁osi	-11.0874
▁gia	-11.088
▁halt	-11.0882
IS	-11.0887
▁sity	-11.0888
▁nergy	-11.0889
CA	-11.0889
▁dish	-11.0889
▁iev	-11.0891
▁aut	-11.0901
RA	-11.0914
▁zi	-11.0939
▁aiti	-11.0952
AC	-11.0952
▁orne	-11.096
▁rik	-11.0964
▁eph	-11.0964
▁inst	-11.0981
▁IT	-11.0984
RE	-11.0988
AM	-11.0997
ank	-11.1004
▁GBT	-11.1008
▁ndar	-11.1015
▁llin	-11.1026
▁ilet	-11.1044
▁mes	-11.1055
▁uic	-11.1068
▁mper	-11.1071
30	-11.1085
▁hir	-11.1111
No	-11.1111
▁Harr	-11.1127
▁abb	-11.1133
AP	-11.1136
▁utt	-11.1137
▁rlo	-11.1151
▁oly	-11.1154
▁omer	-11.1159
▁unk	-11.116
▁wav	-11.1165
▁ndl	-11.1177
▁rexi	-11.1185
▁bat	-11.1185
▁uti	-11.1189
▁lst	-11.1204
▁blin	-11.1207
▁vot	-11.1213
▁sati	-11.1226
▁merc	-11.123
▁utu	-11.125
▁tise	-11.1251
▁lti	-11.1255
▁vege	-11.1267
▁rive	-11.1272
▁anka	-11.1283
ST	-11.1285
ե	-11.1285
▁ania	-11.129
▁mpli	-11.1301
▁tape	-11.1303
▁hero	-11.1334
▁CB	-11.1345
▁www	-11.1358
▁á	-11.136
ary	-11.1363
▁ger	-11.1366
▁cide	-11.1374
FC	-11.1376
▁eem	-11.1379
▁7,	-11.1382
▁elv	-11.1385
ո	-11.1385
▁mance	-11.1386
▁inde	-11.1389
▁aug	-11.1405
▁radi	-11.1409
▁rated	-11.1413
յ	-11.1417
▁aka	-11.1427
▁ndle	-11.1433
▁ienc	-11.1442
▁kit	-11.1452
▁fie	-11.1452
▁mpo	-11.1463
▁ners	-11.1464
▁iu	-11.1465
▁oice	-11.1481
▁udi	-11.1483
▁arro	-11.1488
▁raft	-11.149
▁kl	-11.1492
▁welf	-11.1495
▁oal	-11.1514
▁5.	-11.1525
▁arne	-11.1535
▁aze	-11.1538
▁7.	-11.155
▁gor	-11.1561
▁ivo	-11.1571
▁erce	-11.1593
▁lwa	-11.1603
side	-11.1617
up	-11.1619
▁NBC	-11.162
▁elli	-11.1623
▁illi	-11.1647
TA	-11.1648
less	-11.1664
▁ods	-11.1664
▁tina	-11.1668
▁dig	-11.1668
▁hame	-11.1686
▁avy	-11.1697
▁gear	-11.17
▁rman	-11.1707
▁gam	-11.1715
▁appl	-11.1736
az	-11.1742
▁33	-11.1755
▁irc	-11.1771
▁ngo	-11.1776
▁tweet	-11.178
▁aste	-11.1781
▁tres	-11.1783
▁awa	-11.1792
▁rhe	-11.1803
▁urv	-11.1827
▁oks	-11.1832
եր	-11.1838
sses	-11.1847
har	-11.1852
▁loose	-11.186
▁allo	-11.1862
▁rah	-11.1897
▁Oc	-11.1913
▁lme	-11.1934
▁ddi	-11.1934
RC	-11.1941
7%	-11.195
▁gay	-11.1952
zi	-11.1954
▁ABC	-11.1956
▁mall	-11.1968
▁def	-11.1968
▁hest	-11.1985
hya	-11.199
▁aine	-11.2002
GA	-11.2004
▁ssil	-11.2006
SC	-11.2032
▁gut	-11.2034
▁6,	-11.2099
▁sters	-11.2107
▁uca	-11.2115
OR	-11.2118
▁osses	-11.2124
land	-11.2131
PA	-11.2133
▁aye	-11.2137
▁hub	-11.2144
▁48	-11.2149
▁ffi	-11.2149
▁fits	-11.2151
▁olve	-11.2156
▁ubs	-11.2165
▁othe	-11.2168
▁endu	-11.2169
▁omo	-11.2174
▁tub	-11.2174
▁fl	-11.219
▁roc	-11.2201
runk	-11.2204
▁pula	-11.221
ward	-11.2213
▁plac	-11.2226
▁unda	-11.2228
▁ights	-11.2229
▁eit	-11.2233
play	-11.2235
-2	-11.2235
▁ousin	-11.2241
SA	-11.2251
▁echn	-11.2281
▁weat	-11.2285
▁rni	-11.2285
▁cks	-11.2298
▁dub	-11.2301
▁hyp	-11.2304
▁nac	-11.2305
▁32	-11.2309
▁woke	-11.2319
▁ibe	-11.2323
▁1,	-11.2331
▁lio	-11.2337
▁enz	-11.2337
▁roa	-11.2392
iya	-11.2393
▁tures	-11.2397
▁Pho	-11.2421
▁urse	-11.2439
▁lse	-11.2443
▁Blo	-11.245
▁ET	-11.2455
▁uz	-11.2471
DC	-11.2474
▁duo	-11.2478
▁thor	-11.2479
▁hoo	-11.2483
▁pear	-11.2484
▁ece	-11.2495
▁Ian	-11.2498
At	-11.2499
É	-11.2502
BC	-11.2509
EA	-11.2511
▁egal	-11.2524
▁ON	-11.2565
▁300	-11.2566
▁lur	-11.2566
▁$1	-11.2568
▁aders	-11.2575
ել	-11.2581
▁eans	-11.2582
▁Za	-11.2588
▁urag	-11.2593
▁elg	-11.2623
▁rog	-11.2623
▁hom	-11.2638
▁sers	-11.2641
▁NASA	-11.2642
▁aco	-11.2646
▁lect	-11.2665
▁MT	-11.2684
▁gust	-11.2684
lam	-11.2701
▁hri	-11.2702
▁emed	-11.2705
▁IPL	-11.2706
▁nsion	-11.2707
RI	-11.2722
▁iber	-11.2723
▁IS	-11.2728
▁oor	-11.2746
dic	-11.2748
AF	-11.2749
▁egio	-11.2775
▁App	-11.278
▁lou	-11.2783
10	-11.2808
▁ket	-11.2809
▁osta	-11.282
▁mmon	-11.2823
▁lion	-11.2837
ada	-11.284
ղ	-11.2844
▁MS	-11.285
▁GM	-11.2859
▁arge	-11.2869
▁orp	-11.2873
▁ppy	-11.2878
▁sus	-11.2893
▁laim	-11.2902
▁rod	-11.2904
▁ige	-11.2909
▁uan	-11.2911
▁Tyson	-11.2914
▁stru	-11.2918
▁kel	-11.2927
▁Ph	-11.293
▁lime	-11.2937
▁ahul	-11.2938
▁nco	-11.2939
▁cci	-11.2944
▁elic	-11.2949
▁eers	-11.295
▁JD	-11.2963
▁oop	-11.2967
teel	-11.2974
aj	-11.2976
▁tali	-11.2977
▁map	-11.2977
.3	-11.2983
▁lah	-11.2986
▁ruc	-11.2999
▁Six	-11.3001
▁sab	-11.3013
▁hush	-11.3019
▁stem	-11.3033
▁egi	-11.3052
▁oge	-11.3053
▁ews	-11.3061
▁ntal	-11.3064
▁ebe	-11.307
▁DC	-11.3071
▁owd	-11.3074
IA	-11.3093
▁ops	-11.3094
▁ncre	-11.3097
OA	-11.3106
▁rno	-11.3141
rove	-11.315
▁itia	-11.3174
▁elo	-11.3176
▁tir	-11.3188
▁cta	-11.3193
SE	-11.3196
▁bloc	-11.3198
ubli	-11.3208
▁inds	-11.3223
▁sham	-11.3229
RS	-11.3264
ated	-11.3277
▁elc	-11.329
▁pric	-11.3292
▁itiz	-11.3297
▁tear	-11.33
▁Was	-11.33
▁prin	-11.3305
▁ordon	-11.3307
▁shor	-11.3312
▁pes	-11.3324
è	-11.3344
▁astr	-11.3346
▁xec	-11.3349
▁emen	-11.3351
▁տ	-11.3353
▁65	-11.3353
▁Land	-11.3354
▁75	-11.3354
▁hype	-11.3355
▁Off	-11.3364
▁pati	-11.3385
▁GDP	-11.3428
▁sibl	-11.3446
▁nom	-11.3447
▁gig	-11.3454
▁Spe	-11.3455
▁anim	-11.3473
▁oga	-11.3478
▁urth	-11.3481
/	-11.3486
▁ska	-11.3498
▁roy	-11.35
▁Mon	-11.3509
▁hings	-11.3515
▁seg	-11.3518
▁ID	-11.3518
60	-11.3529
▁vin	-11.3531
▁raig	-11.3532
▁hari	-11.3536
▁uth	-11.3552
▁rigi	-11.3559
▁tier	-11.3567
▁nche	-11.3618
▁egan	-11.3628
mic	-11.3637
▁iab	-11.3639
▁CCTV	-11.3642
▁lobby	-11.3642
heet	-11.3645
▁ues	-11.3648
▁HS	-11.3659
▁oco	-11.3675
▁lude	-11.3681
▁ryan	-11.3693
▁rto	-11.3694
▁teel	-11.3695
;	-11.3712
▁ու	-11.3712
▁gru	-11.3715
▁â	-11.3718
▁ppl	-11.373
▁ի	-11.3734
▁casi	-11.3737
OT	-11.3762
IP	-11.3777
ía	-11.3784
▁UP	-11.3789
▁oet	-11.3793
▁NA	-11.3795
▁hunt	-11.3806
▁melt	-11.3815
▁dash	-11.3819
▁urf	-11.3833
▁lg	-11.3842
▁rbi	-11.3842
▁bac	-11.3854
▁glad	-11.3856
TI	-11.3862
▁Out	-11.3908
▁afa	-11.3909
nah	-11.391
▁llu	-11.3922
▁Har	-11.3942
▁6.	-11.3944
▁ibil	-11.3952
▁bling	-11.396
▁irr	-11.3968
▁tries	-11.3992
▁ghter	-11.4006
cK	-11.4007
▁triu	-11.4008
▁usion	-11.4027
▁ը	-11.4028
▁attle	-11.4033
▁rda	-11.4035
lip	-11.4049
▁Part	-11.4059
▁eeded	-11.4075
▁vail	-11.4084
▁itar	-11.4104
ú	-11.4105
▁Law	-11.4117
LE	-11.4157
▁von	-11.4161
▁grim	-11.4168
MS	-11.4181
▁hanc	-11.419
▁PS	-11.4194
▁fate	-11.4202
sage	-11.4218
OC	-11.4226
▁rif	-11.423
▁scho	-11.4246
▁Roy	-11.4249
▁alf	-11.4253
▁Zo	-11.4266
▁NEW	-11.4269
▁37	-11.4275
▁ape	-11.4279
▁lign	-11.4296
▁mont	-11.4308
▁itz	-11.4308
▁ubi	-11.4311
40	-11.4324
▁haz	-11.4325
▁erie	-11.4325
▁ebb	-11.4325
ngu	-11.4327
▁ggi	-11.4333
▁urp	-11.4378
▁ugg	-11.4402
▁ppo	-11.4412
gni	-11.4416
▁riend	-11.4429
▁rlie	-11.4432
▁hin	-11.444
▁vary	-11.4442
▁muni	-11.4447
▁rui	-11.4481
▁yon	-11.4501
▁Tor	-11.4504
▁THE	-11.4512
▁hild	-11.4518
▁teeth	-11.452
▁igu	-11.4538
▁rio	-11.4549
ard	-11.4556
▁villa	-11.4556
▁rdl	-11.4562
▁Zu	-11.4571
▁acu	-11.4578
▁anch	-11.4616
▁thin	-11.4637
▁glor	-11.4638
▁rbo	-11.4641
▁nvir	-11.4646
▁Yo	-11.4647
▁44	-11.465
well	-11.4656
▁Jay	-11.4658
▁bran	-11.466
3%	-11.4674
▁hli	-11.4692
▁rgo	-11.47
▁IDF	-11.4704
▁150	-11.4716
NT	-11.4723
▁ompe	-11.4729
▁uin	-11.4736
▁38	-11.4736
▁oods	-11.4751
մա	-11.4751
▁է	-11.4759
▁gical	-11.4771
▁stig	-11.4783
▁enna	-11.4784
▁inju	-11.4789
CP	-11.4792
▁uting	-11.481
▁luc	-11.4816
▁rov	-11.4831
▁blu	-11.4833
9%	-11.4833
▁kie	-11.4854
▁ING	-11.4883
▁kar	-11.4892
▁sect	-11.491
kin	-11.4922
▁orth	-11.4924
▁lemon	-11.4933
▁hint	-11.4938
ար	-11.4942
IV	-11.4948
▁ima	-11.4958
▁nose	-11.4969
▁54	-11.4991
▁oj	-11.5
▁ador	-11.5005
▁NSW	-11.5015
MC	-11.5018
▁eto	-11.5051
▁arni	-11.5067
▁onte	-11.5069
▁$5	-11.5075
▁ittl	-11.5075
▁250	-11.508
▁nera	-11.5087
▁ultu	-11.5093
▁jet	-11.5094
▁cure	-11.5115
▁bin	-11.5121
▁grey	-11.5128
▁DJ	-11.5149
▁rkin	-11.5162
▁uci	-11.5167
▁42	-11.5167
▁nni	-11.5172
▁Fri	-11.5177
▁գ	-11.5192
▁tex	-11.5203
▁oris	-11.5203
▁lster	-11.5206
▁glu	-11.5208
▁coup	-11.5208
▁orat	-11.5213
▁eet	-11.5224
▁wise	-11.5225
▁tam	-11.523
8%	-11.5237
▁hine	-11.5238
▁ecur	-11.5272
•	-11.5278
25	-11.528
▁inda	-11.5284
▁argo	-11.529
▁opa	-11.5291
▁igi	-11.5293
▁leap	-11.5312
▁olan	-11.5314
▁Acc	-11.5314
NG	-11.5316
▁Kri	-11.5322
▁grin	-11.5328
լ	-11.5352
▁gion	-11.5356
▁55	-11.536
2%	-11.5368
-3	-11.5369
▁mpact	-11.537
▁դ	-11.5371
▁etty	-11.5372
▁iff	-11.5372
▁arna	-11.5384
▁ó	-11.5387
▁glow	-11.5389
	-11.6112
ռ	-11.7454
0	-11.7751
զ	-11.7791
ü	-11.8017
Ե	-11.838
+	-11.8619
]	-11.9394
շ	-11.9535
դ	-11.9666
մ	-11.9775
վ	-11.9888
ջ	-12.0094
կ	-12.1389
ö	-12.1642
չ	-12.2165
Մ	-12.2344
ծ	-12.252
Ր	-12.2526
©	-12.2526
à	-12.2526
ç	-12.2899
Ն	-12.2899
գ	-12.3895
ä	-12.39
՝	-12.433
ձ	-12.433
ք	-12.4547
⁄	-12.4553
―	-12.5012
Հ	-12.5013
Á	-12.5251
ø	-12.5494
ā	-12.5494
ô	-12.5744
Ի	-12.5744
փ	-12.5744
Ս	-12.7098
ã	-12.7695
ï	-12.8007
հ	-12.8324
ë	-12.833
	-12.8663
å	-12.8663
️	-12.8663
ć	-12.9008
բ	-12.9062
օ	-12.9365
ւ	-13.012
‐	-13.012
ը	-13.0515
ê	-13.052
Պ	-13.052
*	-13.0931
Ö	-13.0937
ժ	-13.0937
Կ	-13.1372
Վ	-13.1826
Ա	-13.2297
	-13.2303
ğ	-13.2803
ճ	-13.2803
`	-13.3884
	-13.3884
♦	-13.3884
պ	-13.4467
Ó	-13.4473
Բ	-13.4473
â	-13.5092
_	-13.5092
î	-13.5098
č	-13.5098
Գ	-13.5098
ō	-13.5764
Ø	-13.7248
ł	-13.7248
ֆ	-13.7248
%	-13.7434
Լ	-13.8081
թ	-13.8984
Տ	-13.899
·	-13.999
Â	-13.999
ı	-13.999
ă	-13.999
š	-13.999
®	-14.1101
●	-14.1101
$	-14.2346
¢	-14.2351
ò	-14.2351
Յ	-14.378
😂	-14.378
[	-14.5441
ș	-14.5447
Թ	-14.5447
😭	-14.5447
🥹	-14.5447
°	-14.7441
	-14.7447
×	-14.7447
ù	-14.7447
ş	-14.7447
ŷ	-14.7447
‍	-14.7447
−	-14.7447
À	-14.9947
Ã	-14.9947
ì	-14.9947
û	-14.9947
ý	-14.9947
ū	-14.9947
ŵ	-14.9947
ž	-14.9947
♬	-14.9947
£	-15.3274
¦	-15.328
±	-15.328
Ü	-15.328
ė	-15.328
ț	-15.328
Ժ	-15.328
Օ	-15.328
⚽	-15.328
😍	-15.328
։	-15.8274
ň	-15.828
^	-15.828
	-15.828
	-15.828
§	-15.828
È	-15.828
ß	-15.828
ģ	-15.828
ń	-15.828
ņ	-15.828
́	-15.828
̈	-15.828
С	-15.828
՛	-15.828
՞	-15.828
ạ	-15.828
ầ	-15.828
ắ	-15.828
ờ	-15.828
‭	-15.828
›	-15.828
⁦	-15.828
⁩	-15.828
₱	-15.828
℞	-15.828
☆	-15.828
♂	-15.828
❌	-15.828
・	-15.828
︎	-15.828
𝄒	-15.828
🏻	-15.828
🏼	-15.828
👈	-15.828
👉	-15.828
💨	-15.828
📸	-15.828
😮	-15.828
🤦	-15.828
Î	-15.828
ē	-15.828
😅	-16.8235
💕	-16.8236
♪	-16.8237
Չ	-16.8238
Ճ	-16.8239
Đ	-16.824
æ	-16.8241
🙏	-16.8242
🙄	-16.8243
✔	-16.8244
▶	-16.8245
Ք	-16.8246
Ä	-16.8247
🔥	-16.8248
🐎	-16.8249
⁣	-16.825
Ւ	-16.8251
Ջ	-16.8252
Շ	-16.8253
Ç	-16.8254
⁠	-16.8255
Փ	-16.8256
Ռ	-16.8257
Զ	-16.8258
Š	-16.8259
🤣	-16.826
Ֆ	-16.8261
Ը	-16.8262
Դ	-16.8263
đ	-16.8264
¡	-16.8265
Ո	-16.8266
Å	-16.8267
¿	-16.8268
❤	-16.8269
🥇	-16.827
	-16.8271
★	-16.8272
₹	-16.8273
′	-16.8274
է	-16.8275
#	-16.8275
<	-16.8275
=	-16.8275
@	-16.8275
€	-16.8275
■	-16.8275
խ	-16.8276
­	-16.8277
}	-16.8278
>	-16.8279
Ò	-16.828
þ	-16.828
~	-16.828
	-16.828
	-16.828
Í	-16.828
Ô	-16.828
ÿ	-16.828
ą	-16.828
Ć	-16.828
Ē	-16.828
ę	-16.828
ī	-16.828
İ	-16.828
ř	-16.828
ś	-16.828
Ş	-16.828
ţ	-16.828
ż	-16.828
ə	-16.828
ʔ	-16.828
ʻ	-16.828
̀	-16.828
̃	-16.828
̄	-16.828
μ	-16.828
О	-16.828
У	-16.828
и	-16.828
н	-16.828
ї	-16.828
Է	-16.828
Խ	-16.828
Ծ	-16.828
Ձ	-16.828
Ղ	-16.828
฿	-16.828
Ṡ	-16.828
ṣ	-16.828
ả	-16.828
ẹ	-16.828
ế	-16.828
ệ	-16.828
ị	-16.828
ọ	-16.828
ố	-16.828
ộ	-16.828
ợ	-16.828
ừ	-16.828
ự	-16.828
ỹ	-16.828
‬	-16.828
⁤	-16.828
₦	-16.828
↔	-16.828
⊕	-16.828
⏳	-16.828
►	-16.828
◀	-16.828
☀	-16.828
♀	-16.828
♥	-16.828
✅	-16.828
✨	-16.828
⭐	-16.828
🇱	-16.828
🇳	-16.828
🇸	-16.828
🇺	-16.828
🌪	-16.828
🌴	-16.828
🌹	-16.828
🍓	-16.828
🍹	-16.828
🎁	-16.828
🎢	-16.828
🎪	-16.828
🏆	-16.828
🏽	-16.828
🏾	-16.828
👀	-16.828
👍	-16.828
👏	-16.828
💙	-16.828
💥	-16.828
📋	-16.828
📍	-16.828
📷	-16.828
😆	-16.828
😊	-16.828
😢	-16.828
😱	-16.828
😳	-16.828
🙌	-16.828
🛒	-16.828
🤎	-16.828
🤔	-16.828
🤫	-16.828
🤯	-16.828
🤵	-16.828
🤷	-16.828
🥅	-16.828
🥥	-16.828
🥪	-16.828
🥺	-16.828
ư	-16.828
ḥ	-16.828
(	-16.828
а	-16.828
к	-16.828
р	-16.828
