<unk>	0
<s>	0
</s>	0
▁s	-2.81662
▁the	-3.52145
,	-3.60114
.	-3.6368
▁a	-3.807
▁to	-4.07903
▁in	-4.18462
▁ed	-4.24429
▁ing	-4.27041
▁and	-4.30054
▁of	-4.34937
s	-4.41026
'	-4.50768
t	-4.95974
▁y	-4.95975
▁be	-5.01588
▁e	-5.06611
-	-5.07027
▁on	-5.08865
▁d	-5.15009
▁that	-5.15112
▁"	-5.15819
▁ly	-5.16582
▁for	-5.19145
▁is	-5.21079
▁re	-5.22084
▁it	-5.30756
▁with	-5.39832
▁wa	-5.43291
▁he	-5.45418
▁The	-5.46315
▁I	-5.52022
▁er	-5.54022
▁en	-5.60167
▁al	-5.64679
▁	-5.73308
▁o	-5.73567
▁an	-5.78942
d	-5.82675
▁at	-5.85826
e	-5.87189
a	-5.87782
▁said	-5.8971
▁hi	-5.89814
n	-5.9148
▁have	-5.95693
▁has	-5.98203
▁from	-6.00214
▁by	-6.00483
▁A	-6.00828
:	-6.09306
▁es	-6.094
▁n	-6.14767
▁-	-6.1631
m	-6.16995
▁not	-6.17637
y	-6.18536
o	-6.22905
▁out	-6.24113
▁thi	-6.25703
,"	-6.27051
▁her	-6.27072
▁you	-6.29975
▁ment	-6.31895
"	-6.31999
▁or	-6.32395
▁S	-6.33702
re	-6.34501
u	-6.3458
."	-6.35735
▁who	-6.37634
r	-6.38648
▁t	-6.39569
p	-6.41262
▁will	-6.41909
▁one	-6.4416
▁their	-6.45045
g	-6.45141
▁we	-6.46096
▁but	-6.46464
▁had	-6.49351
▁ers	-6.50376
▁(	-6.52276
i	-6.5343
▁year	-6.53555
▁can	-6.56164
c	-6.57497
▁up	-6.59395
b	-6.61083
▁un	-6.62057
▁do	-6.62322
▁more	-6.64273
▁de	-6.65704
l	-6.66289
▁were	-6.66769
k	-6.67951
al	-6.68471
▁about	-6.68701
▁time	-6.69824
▁over	-6.72392
▁after	-6.7271
▁which	-6.72855
▁other	-6.74575
er	-6.76204
or	-6.77448
▁all	-6.77632
▁man	-6.77633
I	-6.78446
)	-6.80066
▁In	-6.80596
▁like	-6.81479
▁wh	-6.82963
▁He	-6.84545
h	-6.84658
▁It	-6.85268
▁F	-6.85435
▁would	-6.85763
in	-6.86035
▁C	-6.87577
▁ation	-6.88579
le	-6.8982
▁'	-6.89978
▁people	-6.90898
▁my	-6.93083
▁ever	-6.97387
ve	-6.97897
▁able	-6.98355
ll	-6.99156
▁us	-6.99517
▁say	-7.00679
f	-7.01786
▁O	-7.02377
▁some	-7.02789
on	-7.04546
th	-7.04593
▁just	-7.04621
A	-7.06052
▁off	-7.07385
ur	-7.07566
▁me	-7.07588
▁ion	-7.08315
▁i	-7.08514
▁E	-7.09366
ri	-7.09429
S	-7.09601
▁there	-7.09755
▁day	-7.10012
▁play	-7.10059
▁what	-7.10487
▁r	-7.1053
▁than	-7.10779
▁back	-7.11271
▁come	-7.11639
▁ity	-7.11926
▁first	-7.12384
▁work	-7.13699
▁land	-7.13789
▁them	-7.14243
▁two	-7.14999
▁new	-7.15094
▁no	-7.16516
st	-7.18141
▁our	-7.18895
▁P	-7.19811
▁But	-7.20066
▁could	-7.20241
▁c	-7.218
an	-7.21867
▁G	-7.21948
▁if	-7.22743
▁any	-7.22862
▁Re	-7.23706
▁your	-7.2503
▁again	-7.25142
▁T	-7.26212
▁him	-7.26282
▁U	-7.26395
at	-7.26973
▁state	-7.27646
▁ally	-7.27726
▁B	-7.28097
▁el	-7.28156
▁p	-7.29037
▁ary	-7.30534
▁last	-7.30616
▁Trump	-7.31613
ar	-7.31898
▁le	-7.32087
clu	-7.32118
▁D	-7.33575
▁side	-7.33593
▁most	-7.33691
▁get	-7.33699
▁cause	-7.34282
?	-7.34729
▁thing	-7.35087
▁show	-7.35637
z	-7.36082
▁how	-7.36669
▁where	-7.36918
C	-7.37105
ce	-7.37483
▁age	-7.37822
▁g	-7.39026
it	-7.39309
ic	-7.39949
▁now	-7.40201
▁M	-7.40442
▁make	-7.41375
v	-7.41949
▁ver	-7.42719
▁K	-7.4341
▁ra	-7.43653
▁W	-7.4454
ra	-7.44676
▁want	-7.44677
▁way	-7.44743
▁And	-7.45948
▁go	-7.45962
la	-7.46066
▁while	-7.47342
▁before	-7.48267
il	-7.49924
▁report	-7.50129
▁need	-7.50281
▁even	-7.50922
▁look	-7.52152
▁down	-7.52764
▁end	-7.53768
▁home	-7.53913
▁We	-7.54094
▁pre	-7.54301
▁N	-7.54369
▁take	-7.55116
▁think	-7.55583
ck	-7.57022
▁ic	-7.57355
▁f	-7.57513
ch	-7.5794
▁son	-7.58147
▁well	-7.58507
▁l	-7.58565
▁week	-7.58777
▁Thi	-7.59064
▁under	-7.59357
▁see	-7.59566
▁don	-7.60476
el	-7.60616
▁ive	-7.6068
▁con	-7.60941
▁ent	-7.61242
▁know	-7.61472
li	-7.61979
▁cent	-7.62213
▁She	-7.62272
▁Mr	-7.62567
▁call	-7.6368
3	-7.6375
▁add	-7.63827
▁long	-7.63879
▁per	-7.63892
▁form	-7.64115
/	-7.64471
▁line	-7.65226
en	-7.65475
▁through	-7.6575
▁head	-7.65814
▁told	-7.6587
▁dis	-7.66041
The	-7.66573
w	-7.66611
de	-7.66614
O	-7.66765
▁start	-7.66795
▁right	-7.67375
▁st	-7.67456
▁game	-7.68135
ro	-7.68143
▁la	-7.68268
▁hose	-7.68391
▁high	-7.68572
▁De	-7.68756
▁month	-7.68836
▁three	-7.68864
vi	-7.68968
▁R	-7.69177
5	-7.69354
▁going	-7.69766
▁made	-7.69953
▁dur	-7.71381
▁support	-7.72033
▁ce	-7.72319
▁govern	-7.72647
▁ance	-7.73181
▁part	-7.73297
id	-7.73454
▁am	-7.73621
D	-7.74185
▁ate	-7.75218
▁co	-7.75477
▁help	-7.75614
▁ship	-7.76244
▁ful	-7.76277
ter	-7.76633
▁team	-7.76691
P	-7.76721
▁br	-7.76896
T	-7.77151
▁ex	-7.7773
▁w	-7.783
▁est	-7.78359
▁ies	-7.78775
▁life	-7.79664
▁m	-7.79907
▁around	-7.79927
▁then	-7.8075
▁less	-7.8225
6	-7.82491
7	-7.82602
x	-7.82792
▁k	-7.8287
▁ext	-7.83179
▁h	-7.83268
ul	-7.83638
very	-7.83675
E	-7.84864
lo	-7.85056
▁ry	-7.85172
ion	-7.85422
sh	-7.8574
▁ia	-7.85774
▁much	-7.86075
av	-7.86176
4	-7.87059
▁change	-7.87107
▁u	-7.87203
▁found	-7.87571
▁vot	-7.87651
▁still	-7.88006
▁since	-7.88151
ne	-7.88336
▁hould	-7.8838
▁good	-7.89428
et	-7.8967
▁New	-7.89786
2	-7.89916
▁did	-7.89917
1	-7.90245
▁19	-7.90424
▁ear	-7.90529
L	-7.90842
▁point	-7.91471
▁world	-7.92035
▁An	-7.92134
▁give	-7.92141
old	-7.93085
te	-7.94286
▁national	-7.94474
▁invest	-7.94646
▁set	-7.95052
▁uch	-7.95246
N	-7.95573
▁place	-7.95816
▁di	-7.95964
R	-7.96014
0	-7.96079
▁country	-7.96164
▁four	-7.96245
ad	-7.9651
▁election	-7.96636
▁ian	-7.96772
▁L	-7.96837
▁ities	-7.9723
▁b	-7.97455
We	-7.97466
▁im	-7.97671
▁follow	-7.97846
▁los	-7.97897
M	-7.9791
▁5	-7.98372
▁case	-7.98392
▁cross	-7.99022
▁public	-7.99305
▁th	-7.99391
▁between	-7.99459
▁feel	-7.99576
B	-7.99638
▁came	-7.9997
▁own	-8.00754
ate	-8.00774
▁member	-8.00972
▁ations	-8.01051
ing	-8.0149
▁contin	-8.01914
▁try	-8.02305
▁ways	-8.02852
▁family	-8.02867
▁self	-8.03433
ent	-8.0348
▁president	-8.03685
co	-8.03834
▁Biden	-8.04297
▁big	-8.04393
▁ty	-8.04718
▁second	-8.04811
▁politic	-8.05005
▁post	-8.05023
ed	-8.0524
ha	-8.05746
ol	-8.05794
▁ta	-8.0679
▁Co	-8.06982
▁Russ	-8.07064
▁So	-8.07668
▁season	-8.07915
year	-8.08178
▁law	-8.08407
▁open	-8.08786
▁ember	-8.09198
▁night	-8.09201
▁na	-8.09274
un	-8.09332
▁group	-8.09339
;	-8.09372
▁Man	-8.09426
▁million	-8.10171
▁left	-8.10396
▁4	-8.10763
▁may	-8.11275
▁Be	-8.11318
▁got	-8.1133
▁ch	-8.11916
▁ar	-8.12028
▁use	-8.12061
▁both	-8.12146
▁live	-8.12535
▁ration	-8.12586
▁10	-8.12849
▁attack	-8.12898
▁ask	-8.13968
se	-8.14051
▁win	-8.14278
us	-8.14327
▁air	-8.14456
▁hand	-8.14834
▁ence	-8.149
▁expect	-8.15484
▁put	-8.15652
▁US	-8.15811
▁best	-8.1589
▁share	-8.1592
▁ad	-8.16314
▁com	-8.16407
G	-8.16607
▁test	-8.16868
▁That	-8.16956
na	-8.17286
▁For	-8.17296
It	-8.17419
▁lot	-8.17489
▁health	-8.18076
▁ame	-8.18268
▁How	-8.18357
▁There	-8.18505
▁office	-8.18616
▁To	-8.18942
▁President	-8.1895
▁ma	-8.19033
▁ating	-8.19156
▁mean	-8.19608
ma	-8.19692
▁car	-8.19772
▁turn	-8.1981
▁H	-8.19856
▁official	-8.19997
▁near	-8.20206
▁6	-8.2025
▁il	-8.20586
▁top	-8.20766
▁pass	-8.20777
9	-8.20912
▁ative	-8.21171
▁Al	-8.21219
to	-8.21369
▁friend	-8.21758
▁ous	-8.21763
▁ments	-8.2188
▁person	-8.21895
▁star	-8.21931
▁final	-8.22092
▁leader	-8.22403
▁ready	-8.22737
▁ant	-8.22749
▁never	-8.22749
▁ie	-8.22846
F	-8.22981
▁Sun	-8.23065
▁men	-8.23081
▁find	-8.23109
▁On	-8.23173
▁face	-8.23214
▁z	-8.23269
▁You	-8.2356
me	-8.23665
▁V	-8.23874
▁accord	-8.25229
▁een	-8.25291
▁mis	-8.25345
▁low	-8.26595
▁count	-8.26648
▁7	-8.26746
▁coming	-8.26856
▁led	-8.27038
▁1	-8.27404
▁days	-8.27441
▁great	-8.27647
▁children	-8.27968
ie	-8.28203
▁away	-8.28284
▁Ro	-8.28359
▁too	-8.28443
ut	-8.29523
▁house	-8.29695
▁ness	-8.29855
▁return	-8.2989
▁media	-8.3004
▁campaign	-8.3021
um	-8.30217
▁police	-8.30271
▁UK	-8.30623
▁court	-8.307
▁later	-8.30813
▁power	-8.30943
▁ions	-8.30968
▁though	-8.31101
ti	-8.31145
▁number	-8.3123
ir	-8.31236
▁20	-8.31432
▁provi	-8.3153
▁li	-8.3159
▁ton	-8.31662
▁women	-8.31847
▁special	-8.3194
ia	-8.31987
▁If	-8.32056
▁pro	-8.32162
▁American	-8.32295
▁Har	-8.32508
▁war	-8.3253
▁hen	-8.3277
▁Ra	-8.33097
and	-8.33143
am	-8.3325
▁Isra	-8.33291
▁remain	-8.33301
8	-8.33303
▁company	-8.33426
▁here	-8.33549
pe	-8.33555
j	-8.33576
liev	-8.33615
ke	-8.34205
▁run	-8.34218
▁plan	-8.34376
▁State	-8.34479
▁kill	-8.34601
▁issue	-8.35067
W	-8.35138
▁few	-8.35139
▁five	-8.35352
▁fan	-8.35565
▁won	-8.35901
▁clear	-8.36019
▁care	-8.36076
▁happen	-8.36083
▁party	-8.36137
ff	-8.36247
▁ling	-8.36511
▁Lo	-8.36598
▁didn	-8.3662
▁bo	-8.36763
▁large	-8.369
▁2024	-8.37141
ci	-8.37166
▁Le	-8.374
▁school	-8.37455
▁area	-8.37537
▁ro	-8.37758
▁took	-8.37766
▁ri	-8.3787
▁force	-8.37965
ig	-8.38224
▁X	-8.38628
▁Hi	-8.38778
▁deal	-8.38818
▁love	-8.39044
▁young	-8.39335
▁business	-8.39472
00	-8.39785
▁Mon	-8.39995
▁move	-8.40065
▁2	-8.40653
▁real	-8.407
▁Ma	-8.4082
▁cost	-8.40936
ta	-8.41081
▁hard	-8.41082
▁No	-8.41151
▁something	-8.41178
▁ster	-8.4119
▁Con	-8.41256
▁far	-8.41334
▁inter	-8.41412
▁water	-8.41434
▁record	-8.4145
▁Unit	-8.4152
▁service	-8.41723
]	-8.42408
!	-8.42451
H	-8.4255
▁free	-8.42638
,000	-8.43106
▁book	-8.43108
▁til	-8.43269
▁might	-8.43308
▁sure	-8.43645
▁body	-8.43793
▁result	-8.43888
▁allow	-8.43972
▁rs	-8.44084
▁La	-8.44186
▁event	-8.44194
he	-8.44231
up	-8.44398
di	-8.4451
▁pay	-8.44848
▁light	-8.44852
▁ong	-8.44893
▁six	-8.45025
▁major	-8.45103
▁talk	-8.45718
▁Mo	-8.45881
▁fire	-8.45907
▁film	-8.45917
ure	-8.46286
▁social	-8.46313
▁sign	-8.47178
tic	-8.47485
▁commun	-8.4826
▁creat	-8.48341
▁ley	-8.48446
▁meet	-8.48517
▁position	-8.48907
the	-8.48979
▁One	-8.49132
ver	-8.49392
▁little	-8.49484
va	-8.49579
▁past	-8.49673
▁decision	-8.49729
▁different	-8.49827
▁better	-8.50035
mo	-8.50166
▁market	-8.50251
▁question	-8.50422
▁let	-8.50491
▁claim	-8.50556
▁east	-8.50575
▁ecurity	-8.5077
▁local	-8.5087
▁Ca	-8.51015
▁ball	-8.51028
▁making	-8.51094
▁J	-8.51314
▁system	-8.5137
▁Democrat	-8.5147
▁experience	-8.5152
▁South	-8.51521
▁each	-8.5153
ge	-8.51679
▁May	-8.51987
▁having	-8.52024
▁press	-8.52689
▁[	-8.52818
▁Ga	-8.52899
▁city	-8.52989
ist	-8.53003
▁along	-8.53033
▁comment	-8.53204
▁hit	-8.5323
▁announce	-8.5372
),	-8.5387
▁bar	-8.53901
om	-8.54019
mp	-8.54083
▁job	-8.54095
▁Mar	-8.54107
▁Whi	-8.54211
▁St	-8.54438
be	-8.54515
▁view	-8.54745
▁moment	-8.54799
▁perform	-8.55062
▁cut	-8.55173
▁ge	-8.55317
▁ism	-8.55349
▁ca	-8.55594
▁Ju	-8.55932
▁money	-8.55939
ive	-8.55973
▁price	-8.5692
▁vi	-8.57123
▁death	-8.57151
ca	-8.57173
▁12	-8.57213
▁port	-8.57324
▁train	-8.57373
▁pot	-8.57384
ni	-8.57449
▁ought	-8.57631
▁ated	-8.5777
▁nation	-8.57771
▁half	-8.58036
▁keep	-8.58125
im	-8.58179
▁current	-8.58271
▁appear	-8.58386
▁ough	-8.5843
▁video	-8.58432
▁wrote	-8.58486
▁8	-8.5852
▁reveal	-8.58543
▁eries	-8.58546
▁hour	-8.58718
ick	-8.58824
▁India	-8.58974
▁field	-8.59151
pl	-8.59299
U	-8.59376
▁alleg	-8.59414
▁old	-8.59505
nk	-8.59545
▁close	-8.59904
%	-8.59994
▁Europe	-8.60561
▁bas	-8.60696
▁John	-8.60718
▁watch	-8.60791
▁York	-8.60939
serv	-8.6123
▁Credit	-8.61309
▁room	-8.61351
▁visit	-8.61437
▁publican	-8.61574
▁interest	-8.61603
▁Mini	-8.61807
ant	-8.61886
▁name	-8.62135
▁parent	-8.62623
▁ised	-8.62784
▁news	-8.62818
▁Eng	-8.63072
▁3	-8.63142
mi	-8.63315
▁app	-8.6338
halleng	-8.63396
▁ability	-8.63453
▁level	-8.63478
▁wor	-8.63591
▁militar	-8.63736
▁known	-8.63774
▁match	-8.63999
▁tell	-8.64029
do	-8.6403
▁At	-8.64113
▁mid	-8.64234
▁Ukraine	-8.64248
is	-8.64319
▁thought	-8.64828
▁bit	-8.64849
▁Pa	-8.64979
▁seem	-8.64981
▁ground	-8.65079
▁ago	-8.65113
▁Na	-8.65185
▁ped	-8.65332
▁full	-8.6539
▁ably	-8.65461
▁rate	-8.65508
▁ham	-8.65536
ak	-8.65718
▁thir	-8.65841
▁mo	-8.65851
▁host	-8.65966
▁spite	-8.65978
▁Ho	-8.66093
▁red	-8.66377
▁short	-8.66382
▁goal	-8.66392
ow	-8.66621
▁ting	-8.66636
ub	-8.66722
▁fall	-8.66878
▁mar	-8.66951
▁treat	-8.67025
▁ist	-8.67165
▁ba	-8.67317
▁concern	-8.67376
▁hold	-8.67604
▁together	-8.67611
▁small	-8.67916
▁House	-8.67921
nd	-8.68196
▁Li	-8.68197
▁author	-8.68203
▁ber	-8.68215
▁food	-8.6856
▁taking	-8.68738
▁critic	-8.68924
▁must	-8.68967
▁ries	-8.68983
▁order	-8.6906
▁term	-8.69221
▁due	-8.69235
).	-8.69357
▁ial	-8.69905
▁tax	-8.70075
▁reach	-8.70258
▁After	-8.70451
▁hope	-8.70544
▁late	-8.70604
▁v	-8.70612
▁often	-8.70648
▁Mc	-8.70754
▁15	-8.70777
▁gu	-8.70824
▁consider	-8.70848
▁City	-8.71154
▁role	-8.71174
▁News	-8.71208
K	-8.71246
▁Ha	-8.71528
ru	-8.71596
▁minute	-8.71761
▁taken	-8.71953
▁action	-8.72105
▁why	-8.72327
▁receive	-8.72383
▁key	-8.72466
po	-8.72507
▁success	-8.72569
▁va	-8.72894
▁Bo	-8.7296
▁lead	-8.73124
▁fund	-8.73159
▁break	-8.73407
▁wide	-8.73774
▁process	-8.74762
par	-8.74894
▁today	-8.74916
ho	-8.74947
▁et	-8.74997
ry	-8.75015
▁With	-8.75207
▁ential	-8.75271
▁important	-8.75467
▁future	-8.75653
▁ously	-8.75861
ec	-8.75925
▁Friday	-8.75973
▁gett	-8.76006
▁club	-8.7605
▁strong	-8.76053
ish	-8.76112
...	-8.7624
▁relation	-8.7668
▁London	-8.7681
▁tri	-8.77015
▁Dr	-8.77154
▁walk	-8.77398
▁agree	-8.77524
▁non	-8.77544
▁leg	-8.77565
▁9	-8.77595
ous	-8.78005
ng	-8.78076
▁human	-8.78116
▁West	-8.78142
▁mother	-8.78177
▁All	-8.78306
▁fully	-8.78435
▁hind	-8.78667
▁accu	-8.78726
ard	-8.78856
▁ve	-8.78912
▁risk	-8.78965
▁stead	-8.79038
▁launch	-8.79165
▁Di	-8.7948
▁30	-8.79485
ag	-8.79587
▁Tuesday	-8.7963
▁student	-8.79696
▁11	-8.79807
▁ban	-8.7993
▁protect	-8.80034
hi	-8.80513
▁ne	-8.80519
▁Poli	-8.80551
▁ite	-8.80592
▁Se	-8.80605
age	-8.80624
▁problem	-8.80632
▁woman	-8.80834
ay	-8.8117
▁suggest	-8.81171
▁Jo	-8.81228
▁further	-8.81306
gu	-8.81359
▁kind	-8.8145
▁done	-8.81476
▁Oct	-8.81611
▁ize	-8.81755
▁18	-8.81831
▁fail	-8.81938
▁gan	-8.81984
▁What	-8.82027
▁ti	-8.8222
▁ten	-8.82265
▁Pro	-8.82298
▁arm	-8.823
▁child	-8.82592
▁Can	-8.82608
▁ature	-8.82702
ap	-8.82712
▁lo	-8.82766
▁North	-8.8278
▁account	-8.82874
▁ping	-8.82896
▁front	-8.82943
▁focus	-8.83356
▁China	-8.8358
ud	-8.83893
Harri	-8.83912
▁Car	-8.83958
▁charge	-8.83978
rt	-8.84055
▁fact	-8.8412
▁travel	-8.84193
▁Po	-8.84245
▁Vi	-8.84396
▁Donald	-8.84467
▁tic	-8.84584
▁Z	-8.84745
▁cover	-8.84792
▁Nov	-8.84844
▁once	-8.84868
▁ington	-8.84884
▁que	-8.84886
▁Jun	-8.8494
▁warn	-8.84973
▁list	-8.85031
▁ier	-8.8506
esda	-8.85069
▁Do	-8.8516
▁phone	-8.8517
▁po	-8.8535
▁stay	-8.85354
▁join	-8.85557
▁National	-8.85916
▁ine	-8.8592
▁Ne	-8.85957
az	-8.85959
tch	-8.861
▁target	-8.86157
▁story	-8.86193
per	-8.86259
▁mark	-8.86282
▁Ka	-8.86285
▁strike	-8.86299
▁met	-8.86352
▁Israeli	-8.86441
▁den	-8.86451
▁couple	-8.86584
▁dy	-8.86811
▁Ba	-8.86817
▁building	-8.86819
impl	-8.86844
▁ob	-8.86887
▁Wed	-8.86894
da	-8.86922
▁design	-8.86942
ine	-8.87121
▁Thursday	-8.87156
▁celeb	-8.87371
▁heart	-8.8751
▁comp	-8.87646
▁effort	-8.87875
▁ese	-8.87934
▁creas	-8.88101
▁wards	-8.88478
▁shot	-8.88504
▁candid	-8.88529
▁space	-8.8853
▁World	-8.88746
V	-8.88849
▁possible	-8.88892
▁partner	-8.88917
▁ors	-8.89524
▁career	-8.8953
▁ified	-8.89625
▁condition	-8.89771
ep	-8.89853
":"	-8.90176
▁Y	-8.90328
▁dec	-8.90578
▁control	-8.90687
▁eight	-8.91128
▁data	-8.91131
▁ignificant	-8.9118
▁ure	-8.91186
▁employ	-8.91226
▁minister	-8.91407
ga	-8.91442
▁yet	-8.91495
▁$1	-8.91708
▁ward	-8.91765
ft	-8.91815
▁ha	-8.91904
▁course	-8.91929
▁board	-8.92106
minist	-8.9217
▁ho	-8.92199
▁arrest	-8.92231
▁product	-8.92352
▁pa	-8.92421
▁deliver	-8.92608
▁race	-8.92666
▁deep	-8.92691
▁lier	-8.92716
▁history	-8.9314
▁op	-8.93263
ight	-8.93265
▁particular	-8.93292
▁leave	-8.93457
▁proper	-8.93656
▁ized	-8.93862
▁ising	-8.93907
▁saw	-8.9415
▁poll	-8.9421
▁viol	-8.94225
▁Some	-8.94314
▁access	-8.94365
no	-8.94546
▁mess	-8.94616
▁interview	-8.94674
▁complete	-8.94829
▁mov	-8.9491
▁percent	-8.95087
▁act	-8.95125
▁ab	-8.95214
▁feature	-8.95222
▁legal	-8.9529
▁ir	-8.95383
▁involve	-8.95451
der	-8.95482
wa	-8.95654
▁confirm	-8.95684
▁hospital	-8.95684
nivers	-8.95803
▁stand	-8.95962
▁project	-8.96003
▁impact	-8.96079
20	-8.96352
▁information	-8.96389
▁attempt	-8.9639
▁Te	-8.96556
▁billion	-8.96609
▁cha	-8.96836
▁require	-8.96863
io	-8.96889
▁Saturday	-8.96941
op	-8.96972
▁du	-8.97102
ac	-8.97264
cu	-8.97468
▁grow	-8.97496
▁explain	-8.97497
▁Ja	-8.97542
▁present	-8.97654
▁suit	-8.97708
com	-8.97793
ա	-8.97807
▁vice	-8.97831
▁ates	-8.97899
▁vision	-8.97976
▁pick	-8.98027
▁ide	-8.98127
▁step	-8.98182
▁direct	-8.9823
▁Her	-8.98231
▁Jam	-8.98264
▁staff	-8.98539
▁held	-8.98952
▁Court	-8.99021
▁stop	-8.99159
▁inciden	-8.99181
▁seven	-8.99264
▁drop	-8.99266
rem	-8.99318
▁Australia	-8.99424
▁summer	-8.99521
▁improv	-8.99586
▁town	-8.99591
▁ties	-8.99604
▁park	-8.99612
▁cap	-8.99617
au	-8.99744
▁hear	-8.99831
▁speak	-8.99878
ip	-8.9989
▁understand	-8.99911
▁quick	-8.99934
▁protest	-8.99993
▁Black	-8.99993
▁felt	-9.00157
▁che	-9.00164
▁rest	-9.00182
▁Ad	-9.00216
pi	-9.00364
▁Just	-9.00409
si	-9.0041
▁reason	-9.00483
▁16	-9.00838
▁personal	-9.00841
▁Scot	-9.00852
▁AI	-9.01032
▁certain	-9.01058
act	-9.01136
▁nce	-9.01344
▁word	-9.01407
▁actual	-9.0148
▁eye	-9.01584
▁bi	-9.01591
▁League	-9.01637
▁opport	-9.0172
▁um	-9.01882
▁trans	-9.01972
▁14	-9.01995
▁forward	-9.02053
our	-9.02104
▁decade	-9.02219
▁girl	-9.02469
▁rule	-9.02483
▁13	-9.0252
▁father	-9.02553
▁te	-9.02611
▁Ex	-9.02661
▁trial	-9.02716
▁British	-9.02733
▁crease	-9.02796
He	-9.02835
▁energ	-9.03146
▁coach	-9.03175
oo	-9.03299
▁manage	-9.03454
Thi	-9.03457
▁stage	-9.03508
▁general	-9.03588
▁anti	-9.0364
▁policy	-9.03646
▁learn	-9.03817
▁ice	-9.03964
▁mission	-9.04071
▁Mi	-9.04281
▁research	-9.04495
▁initi	-9.04512
▁...	-9.04531
▁mon	-9.04539
▁TV	-9.04663
rgu	-9.0516
Apr	-9.05187
▁2020	-9.05207
▁avail	-9.05268
▁Janu	-9.05284
▁ja	-9.05348
em	-9.05447
▁Sept	-9.05527
▁San	-9.05651
▁fast	-9.05695
▁2021	-9.05875
▁wait	-9.06085
,""	-9.06096
▁Th	-9.06198
▁March	-9.06216
▁econom	-9.06329
▁erious	-9.06391
ian	-9.06479
▁king	-9.06489
▁ise	-9.06691
▁boy	-9.06713
ound	-9.06872
▁main	-9.06987
▁operation	-9.07
▁50	-9.07043
ex	-9.07073
▁igation	-9.07087
▁matter	-9.0728
▁hu	-9.07475
▁multi	-9.07614
▁finish	-9.0806
lu	-9.08218
0,000	-9.08241
▁German	-9.08409
▁mass	-9.08446
▁lines	-9.08447
▁director	-9.08447
▁represent	-9.0846
▁seat	-9.08585
▁ac	-9.08588
▁ish	-9.08704
▁ists	-9.08722
J	-9.08794
▁bill	-9.09032
▁War	-9.09082
▁limit	-9.09122
▁worth	-9.09264
▁ident	-9.09327
▁daughter	-9.09389
▁bu	-9.09454
▁produc	-9.09753
▁custom	-9.09756
▁round	-9.09806
▁quarter	-9.09958
▁region	-9.09986
▁prob	-9.10224
▁25	-9.1024
▁Labour	-9.10289
▁wife	-9.10295
ba	-9.10386
ee	-9.10398
▁Su	-9.10671
▁ample	-9.10747
▁wood	-9.10924
▁happ	-9.1107
▁push	-9.11197
▁total	-9.11245
▁Me	-9.11332
▁released	-9.11471
▁My	-9.1174
go	-9.11828
▁attend	-9.1184
▁£1	-9.11998
▁running	-9.12021
▁Indian	-9.12111
▁financial	-9.12205
bu	-9.12214
▁dog	-9.12332
▁fore	-9.12543
▁wear	-9.12545
▁Wash	-9.12566
▁demand	-9.1259
decid	-9.12595
▁Ar	-9.12731
▁border	-9.12852
▁figure	-9.12945
end	-9.13124
▁ring	-9.13233
▁sale	-9.13297
▁football	-9.13503
▁Per	-9.13581
▁buy	-9.13621
▁serv	-9.13716
ign	-9.1379
▁har	-9.13855
▁ill	-9.14005
▁bad	-9.14105
▁chief	-9.14159
▁gun	-9.14185
▁claimed	-9.14314
▁ifficult	-9.14347
▁lease	-9.14347
▁America	-9.14455
▁Am	-9.14593
▁ible	-9.14682
▁himself	-9.14818
▁ett	-9.14833
▁tra	-9.14884
▁fil	-9.14893
▁develop	-9.14939
Y	-9.15093
▁ees	-9.15098
▁bus	-9.15098
▁address	-9.15103
▁Wa	-9.15117
we	-9.1513
▁global	-9.15292
▁living	-9.15387
▁owner	-9.15565
▁respond	-9.15724
▁Cha	-9.15745
▁vious	-9.15988
▁Dec	-9.15993
▁source	-9.1606
▁les	-9.16228
50	-9.16312
▁200	-9.16535
▁afety	-9.16728
rn	-9.16779
ise	-9.1683
ka	-9.16842
▁17	-9.16891
▁El	-9.17157
▁whe	-9.17391
▁unity	-9.17513
▁Ab	-9.17607
▁Gu	-9.17612
▁table	-9.17646
▁track	-9.17653
▁mediate	-9.17696
▁emerge	-9.17696
▁scene	-9.1771
▁Joe	-9.17715
▁ituation	-9.17794
▁soon	-9.17814
▁Du	-9.17861
▁detail	-9.17989
▁Iran	-9.18128
▁road	-9.18167
▁search	-9.18186
▁reduc	-9.18378
pa	-9.18407
▁benefit	-9.18464
▁brand	-9.18775
▁ga	-9.18804
▁ingly	-9.18886
▁approach	-9.1897
ten	-9.18983
ki	-9.19154
fe	-9.1927
▁super	-9.19297
▁cat	-9.19516
▁enjoy	-9.19563
▁federal	-9.19662
▁foot	-9.19722
▁economic	-9.19732
▁response	-9.1996
▁Ri	-9.19961
mer	-9.20032
▁fight	-9.20276
▁safe	-9.20277
▁panies	-9.20359
ang	-9.2055
qu	-9.20623
▁period	-9.2066
▁bank	-9.20781
▁Sen	-9.20803
▁card	-9.20845
ccord	-9.20848
▁suffer	-9.20864
▁value	-9.20961
▁selves	-9.21062
▁spoke	-9.21097
▁ther	-9.21187
▁gra	-9.21254
fi	-9.21726
▁music	-9.21733
▁White	-9.2174
▁expert	-9.21769
▁via	-9.21774
▁cl	-9.21986
▁pur	-9.22012
▁pen	-9.22047
ast	-9.22053
?"	-9.22146
▁Che	-9.22152
▁box	-9.22167
▁leading	-9.22229
30	-9.2226
▁option	-9.22379
▁Congress	-9.22382
▁compar	-9.22417
▁ul	-9.22452
▁Spa	-9.22547
▁sub	-9.22562
▁shop	-9.22607
▁industry	-9.22685
▁dom	-9.22707
ew	-9.22803
You	-9.22937
ber	-9.22944
▁Brit	-9.2298
min	-9.22987
▁dead	-9.23053
▁Hol	-9.23059
▁Ru	-9.2316
▁mu	-9.23241
▁mind	-9.23425
▁addition	-9.2361
▁huge	-9.23737
▁sea	-9.23954
▁store	-9.23958
▁victor	-9.24024
▁Now	-9.24121
▁August	-9.24127
▁prison	-9.24165
▁Time	-9.24168
▁spot	-9.24199
▁Hama	-9.24269
▁char	-9.24452
▁Inter	-9.24624
▁jury	-9.24662
▁ran	-9.24681
▁similar	-9.24729
▁victim	-9.24752
ach	-9.24821
▁popular	-9.25013
▁art	-9.2511
▁check	-9.25237
▁serve	-9.25348
▁nothing	-9.25382
▁quite	-9.25507
▁morning	-9.25591
▁assist	-9.25592
Picture	-9.25697
▁Olympic	-9.25802
▁resident	-9.25802
▁utive	-9.25803
▁24	-9.2583
▁model	-9.25838
▁character	-9.25908
▁enter	-9.25961
▁defend	-9.26021
▁Air	-9.26021
▁document	-9.26119
_	-9.26226
▁100	-9.26323
▁shoot	-9.26331
▁ru	-9.264
▁title	-9.26416
▁East	-9.26421
▁picture	-9.26437
▁Instagram	-9.2665
▁whole	-9.26661
▁rath	-9.26668
▁Day	-9.26671
▁crime	-9.2677
▁responsi	-9.26863
▁mile	-9.26997
▁firm	-9.27184
▁Ste	-9.27227
▁aid	-9.27462
▁Gar	-9.27545
▁ger	-9.27598
▁Ke	-9.27688
▁manager	-9.27719
▁California	-9.2772
▁affect	-9.2772
▁secret	-9.2772
▁gold	-9.27747
▁2022	-9.2775
▁drug	-9.27829
▁Ben	-9.27871
▁program	-9.27908
▁ner	-9.27924
▁cur	-9.27974
▁gen	-9.2801
▁Or	-9.28019
▁Not	-9.28094
▁2023	-9.28277
▁cho	-9.28355
▁&	-9.28437
ill	-9.28474
ab	-9.28693
▁ble	-9.28735
▁Char	-9.28746
▁40	-9.28795
▁tour	-9.29006
▁Images	-9.2902
air	-9.29124
▁platform	-9.29128
▁civil	-9.29129
▁2019	-9.29139
▁white	-9.29186
▁Wo	-9.29231
▁accept	-9.29347
▁propo	-9.29515
▁fit	-9.29583
▁evidence	-9.29675
▁champion	-9.29785
▁development	-9.29795
ly	-9.29865
▁pe	-9.29883
▁ler	-9.30006
▁earn	-9.301
▁Department	-9.30115
▁BBC	-9.30336
▁trip	-9.3063
▁review	-9.30668
▁oper	-9.30797
mov	-9.30817
▁usual	-9.30892
▁urge	-9.31018
▁build	-9.31079
▁activ	-9.3117
▁drive	-9.31249
▁fac	-9.31341
gi	-9.31387
>	-9.31407
▁France	-9.31447
▁ants	-9.31559
▁door	-9.3159
vo	-9.316
▁individual	-9.3167
▁Park	-9.31793
ze	-9.31803
▁Bu	-9.31991
▁judge	-9.32011
▁pent	-9.32026
spir	-9.32241
▁caus	-9.32243
ilit	-9.32247
▁base	-9.3231
▁rates	-9.3236
▁Count	-9.32555
▁criminal	-9.32569
▁publish	-9.32569
▁photo	-9.3257
▁ign	-9.32671
▁wrong	-9.32796
▁workers	-9.32808
▁fear	-9.32842
▁uring	-9.32937
▁Pari	-9.3307
▁gave	-9.33247
▁practic	-9.33249
▁range	-9.33343
▁Govern	-9.33363
▁score	-9.33457
▁Sam	-9.33601
▁Cup	-9.33619
▁sense	-9.33631
ok	-9.33667
▁venue	-9.33705
▁hreat	-9.33706
▁fair	-9.33775
trateg	-9.33823
▁vari	-9.33973
▁ter	-9.3403
▁Go	-9.34052
▁Hu	-9.3408
▁Bri	-9.3418
▁ious	-9.34328
▁camp	-9.34372
▁pair	-9.34389
▁aging	-9.34407
▁oil	-9.3449
▁William	-9.34508
▁amount	-9.34854
▁murder	-9.3497
▁conduct	-9.34993
▁Getty	-9.35064
con	-9.35083
▁Tra	-9.351
aw	-9.3512
time	-9.35147
▁capital	-9.35201
▁Ed	-9.35285
lam	-9.3535
▁actor	-9.35374
▁heat	-9.35396
▁average	-9.35434
ment	-9.35453
▁image	-9.3561
▁David	-9.35761
▁depart	-9.35784
▁class	-9.358
bi	-9.35883
▁Red	-9.35963
▁husband	-9.3625
▁Angel	-9.36251
▁read	-9.36483
▁rise	-9.3657
▁express	-9.36638
▁21	-9.36726
▁dependent	-9.3686
▁cor	-9.36876
▁centre	-9.36905
termin	-9.36995
99	-9.37064
▁debate	-9.37074
▁heard	-9.37097
▁extra	-9.372
There	-9.37241
▁Un	-9.37314
bas	-9.37417
nch	-9.37424
▁foreign	-9.37563
▁Ni	-9.37613
▁exec	-9.37628
timat	-9.37785
▁pool	-9.37959
▁mer	-9.38009
▁Bar	-9.38195
▁Sch	-9.38305
▁flight	-9.38382
▁growth	-9.38394
▁entire	-9.38505
▁em	-9.38538
▁par	-9.38659
▁touch	-9.38721
▁patient	-9.38743
▁ium	-9.38753
▁vehicle	-9.38862
▁Prince	-9.38862
▁cy	-9.39205
▁conver	-9.39228
▁More	-9.39432
▁ju	-9.3951
▁lock	-9.39557
▁block	-9.39569
▁French	-9.39586
round	-9.39858
▁link	-9.39888
▁rated	-9.39968
ult	-9.40089
▁piece	-9.40193
ran	-9.40199
▁beat	-9.40257
▁easy	-9.40288
ake	-9.40409
▁exist	-9.40418
▁petition	-9.40437
▁Palestinian	-9.40477
▁kids	-9.40508
▁aim	-9.40559
▁Even	-9.40568
ash	-9.40629
▁prevent	-9.40682
▁clean	-9.40683
▁j	-9.40781
▁bed	-9.40874
▁counter	-9.40925
▁os	-9.40963
▁discuss	-9.4105
▁black	-9.41067
▁Pat	-9.41069
ever	-9.41103
▁gone	-9.41133
▁lin	-9.41149
▁measure	-9.41215
bo	-9.41291
▁damage	-9.41427
▁Sta	-9.41462
▁weekend	-9.41488
▁sexual	-9.41543
▁hood	-9.41544
▁By	-9.4191
▁id	-9.41939
▁Gra	-9.41952
▁logy	-9.42299
▁thank	-9.4232
▁river	-9.42347
▁Febru	-9.42412
▁cancer	-9.42541
▁eith	-9.42551
▁paper	-9.42561
▁fence	-9.42661
▁Pi	-9.42676
▁paid	-9.42735
▁thousand	-9.42786
▁street	-9.42912
▁structure	-9.42955
▁senior	-9.43162
▁gri	-9.43204
▁described	-9.43288
▁pending	-9.43288
▁station	-9.43301
▁net	-9.43385
▁Office	-9.43413
▁priv	-9.43573
wi	-9.43623
▁da	-9.4368
▁speech	-9.43792
▁study	-9.43792
▁birth	-9.43918
▁lack	-9.43966
▁grand	-9.44194
▁terri	-9.44237
▁medical	-9.44356
ev	-9.44435
▁trust	-9.44477
▁environment	-9.44553
":	-9.4458
▁Del	-9.44599
▁families	-9.44808
▁poli	-9.44888
▁Mu	-9.44923
▁sen	-9.45014
▁Pet	-9.4519
▁weight	-9.45249
▁arrive	-9.4532
▁avoid	-9.45449
▁ease	-9.45593
▁rul	-9.45613
▁effect	-9.45815
▁clima	-9.45969
▁roll	-9.46111
row	-9.46184
isl	-9.46197
▁ka	-9.46199
▁acy	-9.46213
▁Lu	-9.46214
▁flation	-9.46243
▁Sha	-9.46323
▁Mac	-9.46351
bb	-9.46354
▁explo	-9.46514
▁movie	-9.46524
ren	-9.46745
tain	-9.4685
▁Christmas	-9.46871
▁Dur	-9.46901
▁driv	-9.46983
▁dress	-9.47009
▁exci	-9.47069
▁prim	-9.47244
▁teen	-9.47367
▁nine	-9.47438
▁22	-9.47453
▁Mad	-9.47473
▁ians	-9.47671
▁migrant	-9.4805
▁leav	-9.48106
▁Of	-9.48182
▁crowd	-9.48182
▁ted	-9.48189
▁giving	-9.48314
▁screen	-9.48314
▁promise	-9.4832
▁Prime	-9.4834
▁Cor	-9.48382
▁bag	-9.48387
▁complain	-9.48447
ner	-9.48557
▁Party	-9.4858
ear	-9.48649
▁Africa	-9.48841
▁$2	-9.48854
▁ts	-9.48877
▁Jack	-9.48931
▁favour	-9.48978
▁style	-9.48987
▁Gi	-9.49003
▁answer	-9.49111
▁farm	-9.49195
▁tribute	-9.49244
▁choice	-9.49244
▁shock	-9.49384
▁quality	-9.49413
▁path	-9.49456
▁perfect	-9.49674
▁ris	-9.49728
▁0	-9.49801
▁Chin	-9.5001
▁anim	-9.50047
▁song	-9.50051
▁holiday	-9.50182
▁appeal	-9.50183
▁rating	-9.50185
▁peace	-9.50452
▁chair	-9.50532
▁sex	-9.50609
▁Sin	-9.5076
▁rival	-9.50994
▁cast	-9.51042
▁han	-9.51061
▁Ukrainian	-9.5113
▁comfort	-9.5113
▁credit	-9.5113
onflic	-9.5121
▁popul	-9.51226
ր	-9.51259
▁truggle	-9.51266
▁drink	-9.51267
▁sound	-9.51306
▁chester	-9.51551
ah	-9.517
▁Game	-9.51746
▁regular	-9.51812
▁draw	-9.5182
▁ci	-9.51937
▁agency	-9.51949
one	-9.51966
▁lation	-9.52088
▁pull	-9.52088
▁ford	-9.5225
pro	-9.5243
▁Last	-9.5252
▁contract	-9.52532
▁tech	-9.52574
of	-9.52658
In	-9.52731
▁Paul	-9.52732
▁skin	-9.52768
▁ney	-9.52866
▁voice	-9.52913
▁winn	-9.52985
▁commit	-9.53052
▁double	-9.53052
▁ur	-9.53076
press	-9.53214
▁techno	-9.53366
▁works	-9.53482
rd	-9.5354
▁named	-9.53649
▁stor	-9.53656
If	-9.53706
▁nomin	-9.53727
▁crisis	-9.53747
▁ships	-9.53944
▁plane	-9.54015
▁ticket	-9.54027
▁Tom	-9.54206
▁solution	-9.54307
▁progress	-9.54313
▁carri	-9.54485
▁Tor	-9.545
▁weapon	-9.54588
▁engage	-9.5473
tern	-9.54825
▁gain	-9.54883
▁carry	-9.54933
▁spread	-9.55011
▁min	-9.55144
▁fill	-9.55204
chedul	-9.55295
▁Nor	-9.55341
▁pain	-9.55502
▁culture	-9.55578
▁Pri	-9.55597
▁rain	-9.55608
▁doctor	-9.5572
▁stock	-9.55876
▁ang	-9.55956
▁loved	-9.55969
▁aware	-9.56016
▁discover	-9.56021
▁sport	-9.56078
▁band	-9.56087
ի	-9.56148
▁award	-9.5644
▁ves	-9.56448
hu	-9.56476
▁hair	-9.56535
▁£2	-9.56578
▁Tex	-9.56658
▁Mean	-9.56696
han	-9.56705
▁wall	-9.56797
▁blood	-9.56866
ray	-9.56941
é	-9.56971
rate	-9.56996
▁die	-9.57052
▁hap	-9.57098
tro	-9.57257
▁recover	-9.57335
▁ned	-9.57356
▁type	-9.57438
solut	-9.57445
tual	-9.57488
▁Qu	-9.57586
▁Green	-9.57631
▁hot	-9.57662
▁Smith	-9.57734
▁appearance	-9.57879
cent	-9.57903
▁original	-9.57907
▁Michael	-9.58024
▁contact	-9.58025
▁repeat	-9.58026
▁gas	-9.58133
▁Dan	-9.5816
▁pret	-9.58269
▁ught	-9.58316
▁content	-9.58318
▁ni	-9.58361
▁production	-9.58392
▁poor	-9.58411
▁replace	-9.58411
▁sleep	-9.58621
▁Star	-9.58626
▁common	-9.58635
▁fo	-9.58635
▁Cam	-9.58696
▁green	-9.58756
▁ality	-9.58762
▁23	-9.59033
ey	-9.5917
▁truck	-9.59233
ya	-9.59273
▁plant	-9.59285
▁scar	-9.59306
▁battle	-9.59382
▁posit	-9.59454
▁migration	-9.59491
articip	-9.59566
▁Ham	-9.59614
▁slow	-9.59693
▁respect	-9.59777
▁standing	-9.5985
▁suspect	-9.59941
▁site	-9.59984
vel	-9.60018
nder	-9.60066
▁sell	-9.60088
▁establish	-9.60145
▁Street	-9.60233
▁mental	-9.60307
▁Champion	-9.60382
▁clos	-9.60401
▁fun	-9.60477
▁broad	-9.60681
▁kick	-9.60684
▁ily	-9.60734
▁wi	-9.60773
▁memor	-9.60851
▁wonder	-9.60878
▁gar	-9.60908
▁x	-9.60915
▁reme	-9.60933
▁surprise	-9.60981
▁secure	-9.60984
▁flu	-9.60995
▁wind	-9.61064
▁brother	-9.61281
▁maintain	-9.61295
▁poke	-9.61333
▁soft	-9.61352
▁coll	-9.61377
▁Jan	-9.61538
▁ming	-9.61672
▁attention	-9.61734
▁ncy	-9.61743
▁Scottish	-9.61744
▁letter	-9.61868
▁pitch	-9.62057
▁pin	-9.62128
ster	-9.62199
▁Nigeria	-9.6234
▁sentence	-9.6234
▁exp	-9.62361
▁High	-9.62493
▁effective	-9.62515
▁Korea	-9.62645
▁pan	-9.62649
▁payment	-9.62673
▁lies	-9.62683
▁settle	-9.62684
▁dem	-9.62741
pm	-9.62745
▁sort	-9.6279
▁2025	-9.62815
▁emotion	-9.6295
▁natural	-9.6295
!"	-9.62959
▁professional	-9.63104
▁Chief	-9.63104
parat	-9.63199
▁league	-9.63257
▁winner	-9.63268
▁ances	-9.63295
▁issu	-9.63305
▁hotel	-9.63311
▁ator	-9.63369
▁standard	-9.63441
▁reflect	-9.63507
ron	-9.63556
▁hundred	-9.63564
▁Japan	-9.63565
▁craft	-9.63577
ble	-9.63669
▁budget	-9.63719
▁Pre	-9.63764
▁fell	-9.6386
▁stream	-9.63873
▁trength	-9.64027
▁warm	-9.6406
▁factor	-9.64129
▁request	-9.64183
▁true	-9.64238
▁artist	-9.64262
▁Sup	-9.64313
▁education	-9.64337
▁north	-9.64406
▁27	-9.64473
▁ification	-9.64493
▁influence	-9.64493
▁sector	-9.64493
▁Sal	-9.64566
▁Par	-9.64637
▁built	-9.64649
▁regard	-9.64651
▁born	-9.64658
▁rough	-9.64766
▁throw	-9.64845
▁justice	-9.64963
▁def	-9.65
▁Port	-9.65026
▁above	-9.65119
▁Don	-9.65529
▁begin	-9.65606
▁shire	-9.65611
▁conference	-9.65743
▁website	-9.65743
▁defeat	-9.65744
abo	-9.65769
▁cre	-9.65823
▁ig	-9.6592
▁consum	-9.65944
▁pleas	-9.65967
▁retire	-9.66221
▁van	-9.66301
▁trade	-9.66332
But	-9.66346
▁lan	-9.66459
▁Mos	-9.66523
▁ency	-9.6655
▁camera	-9.66686
▁central	-9.66694
▁People	-9.66925
▁electric	-9.6701
▁60	-9.67052
▁physical	-9.6717
▁Service	-9.6733
▁2016	-9.67343
▁bum	-9.67431
▁1.	-9.67434
▁dream	-9.67494
▁sports	-9.67572
▁vo	-9.67589
▁Far	-9.6762
form	-9.67638
▁lied	-9.67785
▁convict	-9.6781
</	-9.67937
▁Secret	-9.67971
▁weather	-9.67971
▁der	-9.6803
▁Bill	-9.68165
▁28	-9.68194
▁contain	-9.68355
▁MP	-9.68388
▁Ki	-9.68436
▁lawyer	-9.68456
▁abuse	-9.68469
▁Sp	-9.6875
▁afford	-9.68779
Speak	-9.68831
▁exac	-9.68939
rain	-9.68987
▁Bank	-9.69049
umb	-9.69055
man	-9.69109
▁Win	-9.69123
▁tele	-9.69158
-1	-9.69201
▁Min	-9.69203
▁fix	-9.69304
▁location	-9.6943
▁prime	-9.69456
▁Ko	-9.69497
mon	-9.6957
▁ibility	-9.69593
▁Over	-9.6973
▁Gre	-9.69776
▁univers	-9.69838
▁Mer	-9.69913
▁specific	-9.69921
▁tough	-9.69921
▁Robert	-9.69921
▁charged	-9.69963
▁Act	-9.69995
▁stone	-9.70083
day	-9.7009
appoint	-9.70225
▁introduc	-9.70249
▁Premier	-9.70249
▁bling	-9.7025
▁First	-9.70304
No	-9.70319
▁active	-9.70379
tle	-9.70382
▁26	-9.70411
▁comb	-9.70469
▁Fi	-9.7065
▁EU	-9.70667
ield	-9.70673
▁Col	-9.707
▁fine	-9.70821
▁makers	-9.71014
▁council	-9.71242
▁profit	-9.71243
▁2024.	-9.71368
hy	-9.71418
▁normal	-9.71575
▁2018	-9.71588
10	-9.71694
▁highlight	-9.71909
▁kept	-9.71911
▁south	-9.71916
▁deni	-9.72008
▁hou	-9.72018
▁para	-9.72054
▁illegal	-9.72077
▁shift	-9.72079
▁twi	-9.72114
▁ny	-9.72133
▁Sea	-9.72137
▁generation	-9.72448
quir	-9.72485
▁auto	-9.72592
▁enger	-9.72596
▁Mark	-9.72657
▁depend	-9.72718
▁hop	-9.72738
▁En	-9.72751
▁Bur	-9.72829
▁alone	-9.7288
▁Council	-9.73088
▁essential	-9.73257
▁Putin	-9.73258
▁threa	-9.73454
tatu	-9.73456
▁2.	-9.73477
▁Ag	-9.7348
▁citizen	-9.73597
▁famous	-9.73606
▁closed	-9.73704
▁assault	-9.73767
▁circu	-9.73768
▁Fox	-9.73769
run	-9.73778
▁guard	-9.73811
off	-9.73867
▁From	-9.73941
▁burn	-9.7396
▁rep	-9.74039
▁Florida	-9.74109
▁TikTok	-9.74109
▁baby	-9.7411
▁historic	-9.7428
▁fuel	-9.74281
▁mix	-9.74319
▁Two	-9.7433
▁hy	-9.74357
▁Da	-9.74369
▁mate	-9.74542
▁priorit	-9.74652
▁rich	-9.74656
▁connect	-9.74757
▁annual	-9.74796
mm	-9.74842
▁version	-9.74973
▁tion	-9.74987
for	-9.75061
▁sustain	-9.75143
▁Georg	-9.75168
▁iving	-9.75172
▁impress	-9.75184
▁district	-9.75314
▁terror	-9.75354
▁demon	-9.75384
▁Fin	-9.75393
▁cra	-9.75513
urviv	-9.75661
▁quad	-9.75661
▁cies	-9.75669
▁spend	-9.75698
▁Shar	-9.75853
▁Ali	-9.75927
▁scored	-9.75938
▁Ky	-9.76002
▁wild	-9.76011
▁adult	-9.76062
▁tory	-9.76078
Tayl	-9.76256
▁storm	-9.76275
▁cash	-9.76322
▁appli	-9.76467
▁yard	-9.76493
That	-9.7656
▁restaurant	-9.76709
▁pack	-9.76816
▁Art	-9.76817
▁pat	-9.76828
▁cus	-9.76842
▁Euro	-9.76864
ե	-9.76883
▁remark	-9.76886
▁network	-9.76887
▁apart	-9.77105
▁Thom	-9.77142
▁JP	-9.7721
▁Sir	-9.77238
▁Bel	-9.77354
▁Net	-9.77374
▁rock	-9.77409
▁laugh	-9.77442
▁Chan	-9.77504
▁2022,	-9.77526
+	-9.77591
▁boss	-9.77829
▁Open	-9.77871
▁fighting	-9.78005
▁2024,	-9.78119
á	-9.78123
▁welcome	-9.78123
▁Health	-9.78126
▁Ku	-9.78187
out	-9.78261
▁Queen	-9.78302
▁Martin	-9.78305
▁cow	-9.78349
▁mi	-9.78353
▁UN	-9.78381
▁ko	-9.78429
▁fi	-9.78431
▁dai	-9.78437
▁floor	-9.78481
▁predict	-9.78504
consist	-9.7855
▁Ken	-9.78619
▁ociety	-9.78659
▁witness	-9.78659
▁ancing	-9.78662
▁ify	-9.78752
▁stress	-9.79018
▁Royal	-9.79019
▁poss	-9.79061
▁Super	-9.79184
▁wish	-9.79184
▁union	-9.7923
▁nel	-9.7923
Getty	-9.79231
▁island	-9.79382
beauti	-9.79498
▁harm	-9.79558
▁lined	-9.79598
▁ee	-9.7964
▁audience	-9.79739
▁ators	-9.79801
▁advance	-9.7992
▁organization	-9.7992
▁boost	-9.79921
ն	-9.79956
▁guilt	-9.80103
▁defense	-9.80284
▁missile	-9.80284
▁Bal	-9.80292
▁placed	-9.80334
▁Will	-9.80408
if	-9.80445
▁delay	-9.8048
▁gender	-9.80695
▁temper	-9.80729
▁mach	-9.80799
▁Georgi	-9.80803
▁elected	-9.80854
▁sight	-9.80896
que	-9.80935
▁Mel	-9.81003
▁batter	-9.81071
uff	-9.81194
▁cop	-9.81233
▁elling	-9.81234
▁contest	-9.81382
60	-9.81443
▁Pen	-9.81515
struct	-9.81516
▁Kar	-9.8155
▁journey	-9.81566
▁text	-9.81569
▁row	-9.81572
▁Met	-9.81594
▁Ten	-9.81626
▁qui	-9.81639
term	-9.81683
▁Apple	-9.81695
▁Q	-9.81722
▁iv	-9.8184
▁Wi	-9.81856
▁2023,	-9.81925
▁Ti	-9.81937
▁middle	-9.81939
▁ple	-9.81967
▁crash	-9.81978
▁fly	-9.82025
▁mini	-9.82058
▁abort	-9.82123
▁Ber	-9.82201
▁ongo	-9.82329
▁unit	-9.82341
▁recall	-9.82452
uk	-9.82459
▁inj	-9.82486
tens	-9.82489
▁debut	-9.82494
▁village	-9.82498
▁facing	-9.82547
▁log	-9.82598
▁juries	-9.82678
▁dance	-9.82683
▁Hill	-9.82743
▁attract	-9.82896
▁attorney	-9.83051
▁recommend	-9.83051
▁Here	-9.83086
▁ning	-9.83276
▁Han	-9.83309
▁angerous	-9.83442
▁Jer	-9.83699
▁coast	-9.83708
▁fa	-9.83732
▁emb	-9.83776
▁advise	-9.83803
▁episode	-9.83991
▁fresh	-9.83992
▁solve	-9.84026
▁ell	-9.84145
▁rative	-9.84182
▁Tri	-9.84221
▁inner	-9.84385
▁NH	-9.844
▁Ry	-9.84413
▁display	-9.8456
▁bid	-9.84627
▁plann	-9.84785
▁sey	-9.84922
▁straight	-9.8494
▁update	-9.84943
▁ado	-9.85112
▁Ram	-9.85121
▁lift	-9.85197
▁bomb	-9.85324
▁anger	-9.85485
▁English	-9.85514
▁doubt	-9.85517
▁rank	-9.85575
▁insist	-9.85587
▁29	-9.8566
▁prosecutor	-9.85706
▁Mal	-9.85746
▁Cent	-9.85794
▁center	-9.85839
▁writer	-9.85865
▁fish	-9.85904
low	-9.85944
▁traditional	-9.85951
▁lay	-9.85998
▁ada	-9.86014
▁Form	-9.86073
▁import	-9.86266
▁difference	-9.86284
▁Amazon	-9.86284
▁occur	-9.86284
▁ki	-9.8629
▁journalist	-9.86291
▁Carol	-9.86373
ump	-9.86384
▁Mil	-9.86392
▁ph	-9.86432
And	-9.86436
▁Ya	-9.86466
▁Union	-9.86543
▁broke	-9.86606
▁ncies	-9.86671
pri	-9.86834
▁stood	-9.86866
OR	-9.86872
▁holding	-9.86975
▁raise	-9.87002
▁pandemic	-9.8706
▁spective	-9.87078
cru	-9.8708
▁construct	-9.87112
▁page	-9.87148
▁Wale	-9.87152
▁Island	-9.87255
▁tree	-9.87271
▁writing	-9.8745
▁favor	-9.8745
▁scape	-9.87456
▁tro	-9.87536
sum	-9.87638
▁parliament	-9.87646
▁balance	-9.87849
▁Post	-9.87886
▁vol	-9.87975
▁married	-9.88038
▁gent	-9.88058
▁debt	-9.88062
▁Sw	-9.88099
nov	-9.88204
▁ites	-9.88209
▁é	-9.88288
▁lit	-9.88406
▁tournament	-9.88432
▁izing	-9.88454
right	-9.88458
▁Pra	-9.88569
▁Bay	-9.88609
▁beach	-9.88727
▁Kamala	-9.88828
▁topped	-9.88829
▁aries	-9.88831
▁agent	-9.88887
▁cit	-9.88957
▁rent	-9.88972
▁ending	-9.88987
▁CE	-9.89008
&	-9.89097
▁cool	-9.89099
▁Bi	-9.89172
▁flood	-9.89225
▁enforce	-9.89425
▁email	-9.89427
▁pop	-9.8943
▁cook	-9.89502
▁restrict	-9.89624
▁drone	-9.8963
▁ke	-9.89677
▁cheme	-9.89691
▁tip	-9.89732
▁declare	-9.89824
▁loan	-9.89843
▁encourage	-9.90024
▁college	-9.90024
own	-9.902
▁Sho	-9.90462
AP	-9.90462
▁dark	-9.90466
▁connection	-9.90472
▁subject	-9.90634
▁semi	-9.90666
wing	-9.90838
▁Jen	-9.90863
▁write	-9.90865
▁dish	-9.91128
▁mine	-9.91141
gar	-9.91244
▁jump	-9.91277
▁istic	-9.91333
▁nice	-9.91335
▁Chi	-9.91348
▁Wil	-9.91402
▁negoti	-9.91438
▁occasion	-9.91438
▁cream	-9.91471
▁Mas	-9.91622
▁Swe	-9.9177
▁cloth	-9.91847
What	-9.9193
rivat	-9.92052
▁Jones	-9.92054
▁Shi	-9.92083
▁Nation	-9.92131
▁Gold	-9.92186
▁organ	-9.92195
▁General	-9.92256
▁Gen	-9.92317
▁Wal	-9.92393
▁Za	-9.92491
▁smart	-9.92706
▁Arm	-9.92794
▁committed	-9.92873
efinite	-9.92874
▁2017	-9.92895
▁expand	-9.92906
▁Khan	-9.92923
▁Mur	-9.93221
▁cri	-9.93269
▁80	-9.9328
▁female	-9.93287
▁window	-9.93311
har	-9.93363
▁rity	-9.93503
▁Law	-9.93766
▁Pakistan	-9.9391
▁Commission	-9.9391
▁allies	-9.93918
▁Home	-9.94008
▁31	-9.94109
▁spect	-9.94135
▁tru	-9.94154
▁CO	-9.94164
range	-9.94178
▁ov	-9.94214
▁strict	-9.94361
▁reject	-9.9445
quip	-9.94505
25	-9.94608
▁Vo	-9.94662
▁Bor	-9.94682
▁eek	-9.94733
▁extend	-9.9484
40	-9.94889
▁Vic	-9.94938
▁era	-9.94958
▁cul	-9.95041
▁jail	-9.95095
▁material	-9.95172
use	-9.95186
í	-9.95381
▁admitted	-9.95381
▁wave	-9.95424
▁Com	-9.95458
My	-9.95458
▁Fore	-9.95461
▁Bro	-9.95517
▁boat	-9.95519
▁Pan	-9.95586
maz	-9.95591
▁cultural	-9.95593
▁£3	-9.95593
▁gather	-9.95593
▁ferred	-9.95593
ical	-9.95673
▁Tur	-9.95768
▁Mill	-9.95785
▁ocracy	-9.95805
▁blue	-9.95805
15	-9.95843
hoos	-9.95888
So	-9.96073
▁fr	-9.96153
▁traffic	-9.96231
▁ballot	-9.9624
▁fra	-9.96266
▁Ty	-9.96276
▁berg	-9.96422
▁logical	-9.9645
▁$3	-9.96456
▁stated	-9.96534
▁ique	-9.96544
▁Bre	-9.9655
▁Daniel	-9.96659
▁skill	-9.96686
get	-9.96785
▁Hou	-9.96834
▁brief	-9.96874
▁ically	-9.9688
▁Mike	-9.96934
pen	-9.96972
▁nor	-9.96977
▁Kei	-9.96987
▁Mari	-9.96993
▁Bas	-9.97013
▁kin	-9.97066
▁colleague	-9.97089
▁fer	-9.97091
ite	-9.97097
▁speed	-9.97099
back	-9.97537
▁west	-9.97545
▁sister	-9.97573
▁3.	-9.97589
▁tend	-9.97599
▁fee	-9.97609
▁dad	-9.97626
▁lash	-9.97661
▁Hall	-9.97673
▁ron	-9.97706
▁achieve	-9.97711
▁stick	-9.97714
▁Test	-9.97756
▁ginning	-9.97953
▁trend	-9.97956
▁brain	-9.98003
▁proud	-9.98031
▁Group	-9.98171
▁Dar	-9.98351
▁putt	-9.98396
▁bowl	-9.98673
▁gate	-9.98708
▁Twi	-9.98766
▁hat	-9.98773
▁Most	-9.98874
▁jo	-9.99012
▁ultimate	-9.99045
▁glo	-9.99132
▁supply	-9.99199
ո	-9.99265
▁print	-9.99265
dge	-9.99423
▁School	-9.99485
▁winter	-9.99539
Re	-9.99564
▁trail	-9.99616
▁garden	-9.99706
▁modern	-9.99713
▁2023.	-9.99923
▁article	-9.99928
ER	-10.0005
She	-10.0023
▁90	-10.003
▁cold	-10.003
▁intelligence	-10.0037
▁ization	-10.0037
▁ception	-10.0039
Ma	-10.0048
uch	-10.0051
▁listen	-10.0052
▁ji	-10.006
▁infra	-10.0061
▁Cal	-10.0072
▁io	-10.0072
▁user	-10.0074
▁Lan	-10.0077
▁ility	-10.0082
▁Play	-10.0082
▁God	-10.0096
▁Je	-10.0098
▁confide	-10.0104
▁language	-10.0126
▁resource	-10.0126
▁pension	-10.0127
▁wealth	-10.0127
▁grant	-10.0127
▁ged	-10.0142
▁tur	-10.0144
▁paint	-10.0148
▁committee	-10.0149
▁troop	-10.0151
▁refer	-10.0152
▁stuff	-10.016
ja	-10.0177
Elect	-10.018
▁Jew	-10.0187
▁ress	-10.0193
▁tle	-10.0194
▁cease	-10.0194
▁soci	-10.0211
▁Kel	-10.0215
▁cities	-10.0217
▁Musk	-10.0217
▁val	-10.0234
▁Photograph	-10.0239
▁talent	-10.024
▁Den	-10.0246
▁hall	-10.0248
▁prose	-10.0257
▁catch	-10.0258
▁ston	-10.026
▁typical	-10.0262
▁flag	-10.0262
-4	-10.0265
qui	-10.0269
12	-10.0275
▁survey	-10.0285
▁ester	-10.0286
cruci	-10.0289
▁guide	-10.0298
▁Tim	-10.0305
▁bridge	-10.0308
▁luck	-10.0313
empt	-10.0314
▁ried	-10.0325
▁necessary	-10.0331
▁degree	-10.0338
▁nar	-10.0356
▁intend	-10.0357
▁Alex	-10.0361
▁inform	-10.0366
▁institut	-10.0376
▁divers	-10.0377
▁shut	-10.0387
▁Pu	-10.0391
▁mat	-10.0396
▁tee	-10.0396
▁horr	-10.04
▁maybe	-10.0413
▁wag	-10.0416
▁collect	-10.0417
▁trad	-10.0421
▁Chelsea	-10.0423
▁purchase	-10.0423
▁equal	-10.0423
▁Arab	-10.0426
▁feet	-10.0429
anufactur	-10.0446
▁route	-10.0446
▁African	-10.0446
▁med	-10.0448
▁2022.	-10.0449
▁70	-10.045
▁programme	-10.0452
▁Both	-10.0456
▁Ze	-10.0461
▁retail	-10.0469
▁corner	-10.0471
▁aged	-10.0483
▁Kate	-10.0484
▁Bru	-10.0487
▁transport	-10.0492
▁prompt	-10.0492
▁fare	-10.0497
▁ride	-10.0501
▁ense	-10.0517
▁Modi	-10.0526
17	-10.053
▁Liver	-10.0537
▁soldier	-10.0539
▁colour	-10.0539
▁llah	-10.0539
▁expos	-10.0539
▁$5	-10.0541
▁Adam	-10.0547
▁Arsenal	-10.0562
▁flat	-10.0582
▁haven	-10.0584
▁hern	-10.0587
▁teacher	-10.0593
▁Starmer	-10.0611
▁Why	-10.0618
▁dry	-10.0619
▁Cel	-10.0631
▁Netanyah	-10.0633
▁burgh	-10.0639
▁Mary	-10.064
▁fur	-10.0642
▁AP	-10.0656
▁organisation	-10.0657
▁register	-10.0657
▁Ly	-10.0657
▁ard	-10.0661
-2	-10.0664
▁len	-10.0679
▁credible	-10.068
▁domestic	-10.068
▁complex	-10.0681
▁prove	-10.0687
▁dismiss	-10.0704
▁nuclear	-10.0704
▁fashion	-10.0704
▁associate	-10.0705
▁Ver	-10.0706
▁planned	-10.0708
ny	-10.0711
tiv	-10.073
▁blow	-10.0732
▁Ass	-10.0742
▁rick	-10.0746
▁Chicago	-10.0752
▁Cle	-10.0758
▁flow	-10.077
▁minor	-10.0771
▁pose	-10.078
▁prom	-10.0807
▁Big	-10.0809
▁Scott	-10.0811
▁commission	-10.0824
▁plenty	-10.0824
▁code	-10.0825
▁odd	-10.083
uck	-10.0835
▁Lat	-10.0836
▁chi	-10.0837
▁Francis	-10.0848
▁fortunate	-10.0848
▁giant	-10.0848
▁dollar	-10.0848
▁blame	-10.085
▁compete	-10.0856
wedd	-10.0857
▁isation	-10.0872
▁zone	-10.0877
▁keeping	-10.0887
▁written	-10.0896
▁guest	-10.0896
▁Clark	-10.0901
▁lap	-10.0903
▁Van	-10.0907
▁digital	-10.092
▁Grand	-10.0924
▁Tre	-10.0932
▁destroy	-10.0945
▁mum	-10.0947
▁Richard	-10.0969
▁implement	-10.0969
▁royal	-10.0969
▁crew	-10.0976
▁medal	-10.0983
▁nda	-10.0992
▁object	-10.0995
▁fellow	-10.0996
▁Tu	-10.1
▁35	-10.1011
q	-10.1012
ó	-10.1018
▁sitting	-10.1018
▁Sara	-10.1022
▁ville	-10.1025
▁chain	-10.1027
▁rose	-10.1037
▁honest	-10.1043
▁gift	-10.1043
▁cycle	-10.1067
▁cancel	-10.1068
▁disappoint	-10.1074
▁ST	-10.1078
hel	-10.1085
▁Google	-10.1092
▁conservative	-10.1092
▁Face	-10.1093
▁2015	-10.1095
▁neighbor	-10.1117
▁udden	-10.1117
▁correct	-10.1117
▁assess	-10.1118
▁transform	-10.1119
▁MA	-10.1126
gen	-10.1138
5%	-10.1142
To	-10.1159
▁Glas	-10.1168
▁Press	-10.1169
▁psych	-10.1191
▁scribe	-10.1191
▁Syria	-10.1191
▁remind	-10.1192
▁encing	-10.1192
▁Kat	-10.1196
▁broken	-10.1201
duct	-10.1206
wo	-10.1209
19	-10.1212
▁Louis	-10.1216
▁governor	-10.1217
▁itude	-10.1218
▁bound	-10.1226
▁related	-10.1235
▁esh	-10.1239
▁Western	-10.1242
▁coal	-10.1253
▁pal	-10.1256
▁tool	-10.1258
▁pensive	-10.1267
▁lative	-10.1267
▁Hav	-10.1268
11	-10.1269
▁truth	-10.1277
▁afternoon	-10.1292
▁Love	-10.1296
▁capture	-10.1317
▁Brown	-10.1317
▁crack	-10.1325
▁Men	-10.1325
▁Lake	-10.1337
▁Victor	-10.1342
▁Sky	-10.1343
▁rator	-10.1344
▁Ita	-10.1347
▁reform	-10.1352
lot	-10.1353
▁Cro	-10.1362
▁broadcast	-10.1368
▁tter	-10.1373
▁PA	-10.1382
▁Chris	-10.1383
▁Fan	-10.1389
▁opponent	-10.1393
▁lived	-10.1411
24	-10.1415
▁activity	-10.1419
▁joke	-10.1421
▁cas	-10.1422
▁Ye	-10.1439
▁photograph	-10.1444
▁Up	-10.1455
▁wise	-10.1461
▁marriage	-10.147
disrupt	-10.147
▁ction	-10.147
Thank	-10.1485
▁rescue	-10.1496
▁Middle	-10.1496
▁Out	-10.1504
ccin	-10.1509
▁fin	-10.1509
tract	-10.1517
▁itarian	-10.1521
▁adopt	-10.1522
▁tance	-10.1522
▁Seat	-10.1529
▁Christ	-10.1531
▁Kim	-10.1532
▁weak	-10.1545
▁athlete	-10.1547
▁£5	-10.1547
տ	-10.1547
▁Bet	-10.1548
▁ordin	-10.155
75	-10.1552
▁contr	-10.157
▁Mexico	-10.1573
▁elect	-10.1576
▁rush	-10.1583
▁century	-10.1583
▁PM	-10.1588
▁upon	-10.1597
▁captain	-10.1602
▁Miss	-10.1604
▁fif	-10.162
▁apolog	-10.1625
▁pirit	-10.1625
strong	-10.1645
▁trouble	-10.1651
▁ivity	-10.1651
▁Christian	-10.1652
▁eat	-10.1654
ollaps	-10.1667
▁finance	-10.1677
▁opinion	-10.1677
▁Earl	-10.1678
▁Under	-10.1693
▁mistake	-10.1704
▁mouth	-10.1704
▁Direct	-10.1705
▁cheap	-10.1709
▁Who	-10.1728
▁gow	-10.1733
▁Sports	-10.1737
▁Matt	-10.1738
▁hole	-10.1739
▁eas	-10.1743
▁render	-10.1748
▁Ash	-10.175
կ	-10.1756
▁transfer	-10.1756
▁Blue	-10.1756
▁Hunt	-10.1757
ollow	-10.1757
▁split	-10.1758
bn	-10.1768
▁q	-10.1771
▁sequence	-10.1783
▁Swift	-10.1783
▁Singh	-10.1783
▁asset	-10.1783
▁Commit	-10.1788
▁hurt	-10.1788
▁River	-10.1788
mar	-10.1805
▁consult	-10.1809
▁frame	-10.1813
▁advantage	-10.1836
▁ition	-10.1843
▁temp	-10.1855
▁profess	-10.1863
▁NBC	-10.1863
advoc	-10.1866
▁collection	-10.1894
▁arti	-10.1921
oph	-10.1923
▁Great	-10.1928
▁load	-10.193
▁acknowledge	-10.1943
▁diploma	-10.1943
▁festival	-10.1943
▁shape	-10.1944
eleg	-10.1947
ark	-10.1963
▁Mag	-10.1965
For	-10.1967
▁tension	-10.197
▁2014	-10.1972
▁­	-10.1975
▁Like	-10.1981
▁maker	-10.1981
▁ager	-10.1981
▁drama	-10.1995
▁ibly	-10.1997
▁ral	-10.2015
▁dam	-10.202
tric	-10.2021
▁Institut	-10.2024
▁locate	-10.2024
▁Dia	-10.2024
▁Sur	-10.2036
▁del	-10.204
▁Well	-10.2049
▁tight	-10.2051
▁Lebanon	-10.2051
▁breath	-10.2051
▁neighbour	-10.2051
▁offensive	-10.2051
▁purpose	-10.2051
▁capaci	-10.2052
▁cell	-10.2054
▁neg	-10.2054
▁male	-10.2071
ominate	-10.2078
▁prospect	-10.2081
▁spring	-10.2106
profile	-10.2107
duc	-10.2123
▁pol	-10.2131
▁Italian	-10.2133
▁task	-10.2135
▁Dun	-10.214
egor	-10.2148
▁vent	-10.2158
▁promote	-10.2163
▁Dis	-10.2171
za	-10.2177
▁vul	-10.2179
▁flix	-10.2188
▁approve	-10.219
▁#	-10.2191
▁@	-10.2211
▁surgery	-10.2216
▁infect	-10.2216
▁fused	-10.223
▁tear	-10.2235
▁ette	-10.2237
▁invite	-10.2244
▁breaking	-10.2258
type	-10.2267
▁motor	-10.2272
▁rail	-10.2279
▁regional	-10.2282
▁za	-10.2283
▁Atla	-10.2292
▁cricket	-10.2299
▁function	-10.2299
mend	-10.2301
▁prop	-10.2304
▁willing	-10.231
▁esca	-10.2321
▁surface	-10.2327
▁fraud	-10.2329
▁chat	-10.2341
spect	-10.2349
▁knock	-10.2355
▁transition	-10.2355
▁veteran	-10.2355
▁lux	-10.2355
▁Va	-10.2376
-19	-10.2379
million	-10.2379
▁tin	-10.2383
▁communication	-10.2383
▁suppose	-10.2383
▁Val	-10.2386
▁45	-10.2388
▁Mail	-10.2389
▁Stud	-10.2392
▁direction	-10.2397
▁Luc	-10.2404
▁hang	-10.2405
▁Tru	-10.2408
volv	-10.2413
▁scale	-10.2417
▁Meg	-10.2427
▁Colle	-10.2429
▁ceremony	-10.244
▁Ric	-10.244
▁Sab	-10.2442
▁master	-10.2445
▁36	-10.2462
▁grew	-10.2468
▁lie	-10.2468
qua	-10.2477
long	-10.2484
▁wing	-10.2487
▁truggling	-10.2496
▁stretch	-10.2496
▁Bir	-10.2522
▁Good	-10.2525
▁confident	-10.2525
page	-10.254
▁/	-10.2541
23	-10.2552
▁hree	-10.2554
▁sweet	-10.2554
=	-10.2582
▁affair	-10.2582
▁Max	-10.2584
▁clip	-10.2586
▁Gov	-10.2589
▁Cho	-10.2591
▁£4	-10.2611
▁Social	-10.2611
▁switch	-10.2611
▁feed	-10.2622
▁Jim	-10.2622
Be	-10.2622
▁elector	-10.2624
▁behaviour	-10.264
▁podcast	-10.264
▁presence	-10.264
▁monitor	-10.264
▁swim	-10.2644
▁Dai	-10.2646
war	-10.2646
▁pla	-10.265
▁erty	-10.2656
▁34	-10.2665
▁accident	-10.2669
▁stances	-10.2669
▁ambit	-10.267
▁resign	-10.2671
▁PS	-10.2674
▁suppl	-10.2678
▁Tro	-10.2679
45	-10.2698
▁cientist	-10.2699
▁medic	-10.27
▁Bra	-10.2702
▁reading	-10.2706
$	-10.2714
▁Ran	-10.2715
▁handle	-10.2724
▁frust	-10.2727
▁ging	-10.2728
▁App	-10.274
▁bath	-10.2741
lim	-10.2742
▁bench	-10.2747
16	-10.275
▁Brazil	-10.2756
▁church	-10.2756
▁tackle	-10.2756
▁Team	-10.2765
▁meal	-10.2772
▁BI	-10.2779
not	-10.278
▁Road	-10.2782
▁exercise	-10.2785
▁Central	-10.2785
▁analyst	-10.2785
▁tir	-10.2785
▁bird	-10.2788
▁sky	-10.28
▁Let	-10.2802
▁Carl	-10.2811
▁notice	-10.2816
nvest	-10.2817
▁indicate	-10.2818
▁lief	-10.2824
▁bert	-10.2833
▁Lee	-10.2841
▁insurance	-10.2844
▁length	-10.2844
▁Irish	-10.2844
▁entertain	-10.2846
mic	-10.2851
▁imp	-10.2852
▁chu	-10.2853
▁Year	-10.2855
▁bio	-10.2873
▁channel	-10.2903
▁youth	-10.2905
▁panel	-10.2913
▁FA	-10.2916
▁33	-10.2926
▁joint	-10.2931
▁appropriate	-10.2932
▁regulation	-10.2932
▁Wood	-10.2933
AN	-10.2941
▁Live	-10.2953
80	-10.2955
▁pet	-10.2962
▁Trans	-10.2963
▁constant	-10.2964
▁Judge	-10.2965
▁worry	-10.2971
cur	-10.2977
▁novel	-10.2978
▁bodies	-10.2992
▁command	-10.2992
▁reaction	-10.2992
▁Islam	-10.2993
▁bull	-10.2998
▁Bos	-10.3013
▁neck	-10.3016
▁emporary	-10.3022
▁NFL	-10.3022
▁imagine	-10.3024
▁motiv	-10.3033
▁feat	-10.305
▁convinc	-10.3052
▁horse	-10.3052
▁ITV	-10.3052
▁Ge	-10.306
95	-10.3065
▁Best	-10.3068
▁Leg	-10.3074
▁suspend	-10.3082
▁Free	-10.3084
partie	-10.309
▁Josh	-10.31
▁indic	-10.3106
▁bottle	-10.3112
▁legend	-10.3118
▁fam	-10.3125
▁Ever	-10.3126
▁bottom	-10.3143
▁tea	-10.3167
▁abilities	-10.3173
▁root	-10.3174
▁gang	-10.3176
▁NC	-10.3183
call	-10.3193
▁joy	-10.3202
final	-10.3202
▁wound	-10.3218
▁hate	-10.3218
eput	-10.3223
▁trap	-10.3227
▁Force	-10.3227
▁ural	-10.3233
▁clusion	-10.3234
▁forecast	-10.3234
▁McC	-10.3235
▁Ala	-10.3236
▁solid	-10.3237
▁kar	-10.3255
▁gam	-10.3257
troph	-10.3259
▁fold	-10.326
under	-10.3263
▁label	-10.3265
▁iz	-10.3266
,500	-10.3274
▁cry	-10.3281
sembl	-10.3284
▁emphasi	-10.3296
▁Real	-10.3326
▁clash	-10.3329
▁studi	-10.3338
▁classic	-10.3343
▁Read	-10.3343
▁fake	-10.3344
false	-10.3356
▁easily	-10.3357
▁proceed	-10.3357
▁prize	-10.3357
▁Sand	-10.3376
▁conclude	-10.3389
▁waste	-10.3398
▁Boe	-10.3399
▁32	-10.3419
▁deploy	-10.342
▁withdraw	-10.342
▁praise	-10.342
▁2012	-10.3423
▁coin	-10.3436
▁draft	-10.3451
▁false	-10.3453
▁chip	-10.3453
▁cious	-10.3455
▁bond	-10.3464
▁violent	-10.3464
▁Nick	-10.3464
▁nish	-10.3471
▁Op	-10.3472
▁pound	-10.3476
▁trick	-10.3476
▁mil	-10.348
▁Arizona	-10.3482
▁mal	-10.3492
18	-10.3505
▁tail	-10.3506
▁bonus	-10.3514
▁Comp	-10.3516
desti	-10.3519
▁Tour	-10.352
▁LA	-10.3523
▁Moha	-10.353
▁Pennsylvania	-10.3545
▁trigger	-10.3545
▁Element	-10.3545
▁Lau	-10.357
▁Lib	-10.3577
▁beauty	-10.3577
▁Hon	-10.3581
▁commercial	-10.3609
▁Work	-10.3609
▁adapt	-10.3609
axim	-10.3616
98	-10.3633
▁routine	-10.364
▁section	-10.364
▁dict	-10.3644
▁sharp	-10.365
▁detect	-10.3653
▁ical	-10.3671
▁pledge	-10.3673
▁mates	-10.3677
▁assum	-10.3677
augh	-10.3678
▁Right	-10.3692
▁frequent	-10.3704
▁divid	-10.3705
▁renew	-10.3705
▁integ	-10.3707
▁achiev	-10.3708
▁Lord	-10.3711
▁Ban	-10.3731
▁intention	-10.3737
▁faith	-10.3737
▁Villa	-10.3748
▁vast	-10.3754
▁bright	-10.376
▁guarantee	-10.3769
▁alysis	-10.3769
▁method	-10.3769
▁northern	-10.3769
▁Frank	-10.3801
law	-10.3811
▁Parliament	-10.3834
▁alcohol	-10.3834
▁Federal	-10.3834
▁admit	-10.3834
▁gram	-10.3841
Kenned	-10.3845
▁Yo	-10.3846
esir	-10.3858
▁cade	-10.3865
▁Michigan	-10.3866
star	-10.3866
▁gap	-10.3886
power	-10.39
▁Brad	-10.39
▁dispu	-10.3901
▁<	-10.3903
▁bal	-10.3906
top	-10.3913
▁ray	-10.3915
▁Kha	-10.3916
▁Jay	-10.3918
▁manda	-10.3922
▁RT	-10.3929
▁plus	-10.3932
▁Er	-10.3933
▁$4	-10.3933
ternal	-10.3939
like	-10.394
▁Jr	-10.3946
▁Stan	-10.395
▁technic	-10.3965
▁client	-10.3966
▁strange	-10.3979
5,000	-10.3987
▁Whe	-10.3989
▁verse	-10.3995
▁invasion	-10.3998
▁snow	-10.4008
▁mobile	-10.4013
▁wake	-10.4022
pecu	-10.4051
▁notes	-10.4056
▁ology	-10.4064
▁oppose	-10.4064
▁Simon	-10.4064
▁vin	-10.4065
14	-10.4066
▁signal	-10.4087
▁Bell	-10.409
▁ledge	-10.4094
▁identify	-10.4097
model	-10.4098
▁quiet	-10.4104
▁Barr	-10.4133
▁Pad	-10.4154
▁acqui	-10.4157
▁kitchen	-10.4164
▁helter	-10.4165
▁Also	-10.4167
▁closure	-10.4169
▁Rob	-10.417
tect	-10.4183
mph	-10.4193
▁racing	-10.4198
▁prefer	-10.4198
▁Nav	-10.4202
▁37	-10.4207
մ	-10.423
fghan	-10.4232
▁NAT	-10.4232
28	-10.4234
▁igate	-10.4239
▁bin	-10.4244
▁recognise	-10.4266
▁advert	-10.4266
X	-10.4267
▁Jeff	-10.4269
rect	-10.4272
▁grab	-10.4277
▁Rose	-10.4292
▁Mun	-10.4296
point	-10.4297
▁sanction	-10.43
▁changing	-10.43
▁recruit	-10.43
▁lating	-10.43
▁ingham	-10.4304
▁fighter	-10.4306
▁bol	-10.4311
▁FC	-10.432
▁Egypt	-10.4334
▁Disney	-10.4334
▁coffee	-10.4334
▁CBS	-10.4334
▁MS	-10.4336
▁Call	-10.4338
▁flee	-10.4338
ject	-10.4342
▁Comm	-10.4346
▁atory	-10.4348
▁Tai	-10.4349
present	-10.435
Mo	-10.4354
▁brilliant	-10.4368
▁mountain	-10.4368
▁install	-10.4368
▁color	-10.4368
▁tries	-10.437
▁pub	-10.4375
▁ze	-10.4375
▁kid	-10.4393
▁science	-10.4402
▁Vega	-10.4402
▁Club	-10.4403
▁Photo	-10.4413
▁vil	-10.4418
▁tuck	-10.4428
▁assassin	-10.4437
▁virus	-10.4437
▁holders	-10.4438
▁Gall	-10.4442
▁Mont	-10.4443
▁Wall	-10.4458
▁enhance	-10.4472
▁Guard	-10.4476
▁Watch	-10.4477
▁Rock	-10.4482
▁Long	-10.4485
list	-10.4494
▁jun	-10.4506
▁fruit	-10.4506
▁NBA	-10.4506
▁endorse	-10.4506
▁Guardian	-10.4507
free	-10.451
▁Show	-10.4514
▁Medic	-10.4516
▁belong	-10.4518
▁spoken	-10.453
▁Bon	-10.4531
▁Tod	-10.4532
▁excel	-10.4541
▁Cli	-10.4544
▁Raj	-10.4558
▁Back	-10.4566
վ	-10.4576
▁confront	-10.4576
▁familiar	-10.4576
▁Muslim	-10.4576
▁qual	-10.4576
▁honor	-10.4576
▁ancy	-10.4579
▁upset	-10.4579
▁const	-10.4589
35	-10.4599
▁Hospital	-10.4611
▁residency	-10.4611
▁clinic	-10.4611
▁dramatic	-10.4614
ize	-10.4617
ddi	-10.4623
▁elig	-10.4634
▁embar	-10.4643
▁Plu	-10.4647
gri	-10.465
▁ifying	-10.4653
01	-10.4657
▁Hy	-10.4667
13	-10.4677
▁Sydney	-10.4682
▁competitive	-10.4682
▁Phone	-10.4682
▁wine	-10.4683
minute	-10.4684
▁egg	-10.4687
▁Der	-10.4689
▁Four	-10.4692
ս	-10.4717
▁refuge	-10.4717
▁Emma	-10.4717
▁potted	-10.4717
▁Ven	-10.4739
▁lean	-10.4749
▁ordinat	-10.4752
▁mount	-10.4753
22	-10.4759
▁forget	-10.4778
velop	-10.4779
▁pic	-10.4785
▁desperate	-10.4788
▁Rafa	-10.4789
***	-10.4799
▁YouTube	-10.4824
▁distance	-10.4824
▁Little	-10.4824
▁boot	-10.4826
▁peak	-10.483
▁grown	-10.4838
▁illa	-10.4846
▁regime	-10.4858
▁Still	-10.4867
▁mode	-10.4871
▁micro	-10.4896
▁Earth	-10.4897
▁labor	-10.4897
▁forest	-10.4898
▁wicket	-10.4899
▁scoring	-10.4933
▁Child	-10.4933
▁thrill	-10.4933
▁viral	-10.4933
▁generate	-10.4936
element	-10.4936
▁Look	-10.494
▁Davi	-10.495
▁tz	-10.4954
aunt	-10.4957
▁Shan	-10.4961
▁element	-10.4966
21	-10.4968
▁Associate	-10.4969
▁graphic	-10.4969
▁possess	-10.4969
▁Cap	-10.4977
▁pace	-10.5
▁teach	-10.5004
▁Saudi	-10.5005
▁climb	-10.5005
▁folk	-10.5006
▁SE	-10.5006
▁keeper	-10.5012
▁spin	-10.5014
ient	-10.5026
▁Space	-10.5028
▁Jul	-10.5031
▁castle	-10.5034
▁core	-10.5041
▁GOP	-10.5042
▁vital	-10.5043
ET	-10.5055
08	-10.5058
▁CN	-10.5065
▁abandon	-10.5079
▁package	-10.5082
▁Lin	-10.5082
▁Lead	-10.5109
▁Get	-10.5111
▁Phil	-10.5115
▁glass	-10.5115
▁Digital	-10.5116
▁riety	-10.5116
▁wrap	-10.5116
▁Pea	-10.513
▁tab	-10.5133
▁istan	-10.5138
▁Centre	-10.515
hand	-10.5158
▁formal	-10.5159
▁dates	-10.5162
▁Dam	-10.5162
▁chel	-10.5166
▁stat	-10.5167
▁500	-10.5168
▁Mah	-10.5175
▁48	-10.5186
▁Brook	-10.5192
▁obtain	-10.5194
cifi	-10.5195
▁2010	-10.5195
▁Share	-10.5227
▁symptom	-10.5227
▁numer	-10.5228
▁western	-10.5228
▁bla	-10.525
▁tank	-10.525
▁prior	-10.5259
€	-10.5263
▁Stephen	-10.5265
▁mortgage	-10.5265
▁punish	-10.5265
▁engineer	-10.5272
▁plot	-10.5276
66	-10.5282
▁exit	-10.5288
▁arch	-10.5297
▁cept	-10.5301
▁ummit	-10.5302
▁Fami	-10.5303
▁cam	-10.532
▁pia	-10.5325
▁studio	-10.5326
▁Tam	-10.5336
▁roof	-10.5347
▁Sher	-10.5347
▁acting	-10.5356
▁flower	-10.5359
▁clar	-10.5365
▁belief	-10.5378
▁Lewis	-10.5378
▁Plan	-10.538
▁Tar	-10.5386
▁Bad	-10.5393
▁metre	-10.54
▁mit	-10.5416
▁Public	-10.5416
▁procedure	-10.5416
▁shoulder	-10.5416
▁hunt	-10.5417
▁38	-10.5448
▁permanent	-10.5454
▁basket	-10.5454
▁contrast	-10.5456
▁ennis	-10.5458
▁cock	-10.5462
▁hydr	-10.5464
▁Beach	-10.5465
▁alert	-10.5467
▁mayor	-10.547
▁chick	-10.5484
▁Line	-10.5489
▁edicated	-10.5492
▁ficial	-10.5492
▁Anton	-10.5493
▁eastern	-10.5494
▁End	-10.5501
▁qualify	-10.5531
equit	-10.5531
▁exhibit	-10.5534
▁Ask	-10.5545
▁diet	-10.5548
rove	-10.5552
▁ideal	-10.5553
▁batt	-10.5554
▁Ker	-10.5555
90	-10.5557
▁lent	-10.5561
▁Defense	-10.557
▁shadow	-10.557
▁riot	-10.5571
▁delight	-10.5572
▁cution	-10.5599
▁immun	-10.5608
▁trauma	-10.5609
▁icit	-10.5617
▁Down	-10.5621
▁ker	-10.5629
▁tie	-10.563
mpose	-10.5634
state	-10.5636
▁condemn	-10.5647
▁Palm	-10.5648
▁candal	-10.5649
▁2011	-10.5651
@	-10.5653
27	-10.5671
▁Virgin	-10.5686
▁reference	-10.5686
▁mentioned	-10.5686
▁Philip	-10.5688
Q	-10.5693
▁iness	-10.5697
▁2008	-10.5699
▁rape	-10.5704
▁Ray	-10.5709
▁adjust	-10.5725
▁corrupt	-10.5725
▁ologist	-10.5725
▁motion	-10.5726
▁organise	-10.5727
▁leak	-10.5732
▁pit	-10.5736
licate	-10.5737
29	-10.5745
3%	-10.5747
85	-10.575
▁49	-10.5761
▁anni	-10.5765
▁Valle	-10.5779
▁combat	-10.5782
▁rug	-10.5785
▁Media	-10.5786
▁Obama	-10.5804
▁pilot	-10.5804
70	-10.5804
▁tensive	-10.5805
▁golf	-10.5805
68	-10.5805
onym	-10.5835
▁tactic	-10.5844
▁radio	-10.5844
dict	-10.5867
▁zz	-10.5871
▁asylum	-10.5884
▁regulator	-10.5884
▁plastic	-10.5884
▁carbon	-10.5884
▁rapid	-10.5884
▁Roman	-10.5898
▁cheer	-10.5901
▁Water	-10.5903
▁Mid	-10.5911
▁burg	-10.5914
▁Author	-10.5924
▁exclusive	-10.5924
▁surprising	-10.5924
▁isaster	-10.5925
▁Bren	-10.5926
▁Common	-10.5935
▁Walz	-10.5936
▁Bol	-10.5941
▁uine	-10.5946
elect	-10.5963
▁Jordan	-10.5964
▁credibly	-10.5964
norm	-10.5964
izz	-10.5965
▁hopper	-10.5967
▁math	-10.5976
▁vow	-10.5987
▁ture	-10.6001
▁therapy	-10.6004
▁honour	-10.6004
▁calm	-10.6005
▁riff	-10.6026
▁gener	-10.6039
▁42	-10.6041
▁bak	-10.6043
▁tine	-10.6045
html	-10.6045
▁eliminat	-10.6045
▁igator	-10.6045
▁Nik	-10.6051
▁Boy	-10.6057
▁gotten	-10.6058
49	-10.608
▁Rom	-10.6084
▁compl	-10.6084
▁teal	-10.6085
▁franchise	-10.6085
▁stadium	-10.6085
▁VID	-10.6086
▁drag	-10.6088
▁Life	-10.6093
▁Robin	-10.6099
▁aved	-10.6112
▁entry	-10.612
▁Vin	-10.6123
ց	-10.6126
▁native	-10.6127
bedroom	-10.6127
▁Bridge	-10.6128
ssert	-10.6128
tamin	-10.6129
▁Jess	-10.6129
▁jet	-10.614
▁pray	-10.6146
2%	-10.6147
▁tunning	-10.6167
▁ication	-10.6167
▁detain	-10.6168
▁GM	-10.6189
▁approval	-10.6208
▁alliance	-10.6208
▁Bowl	-10.6209
▁Ohio	-10.6209
▁export	-10.6209
▁pric	-10.623
ddle	-10.623
▁Hag	-10.625
▁habit	-10.625
▁fest	-10.625
▁shell	-10.6256
▁Elli	-10.6277
▁Jon	-10.6291
▁concert	-10.6291
▁submit	-10.6291
▁outfit	-10.6292
▁syn	-10.6306
▁mond	-10.6324
▁Capitol	-10.6333
▁Zelensky	-10.6333
▁overwhelm	-10.6333
▁religious	-10.6333
▁bies	-10.6335
▁Fire	-10.6338
հ	-10.6375
▁optim	-10.6375
http	-10.6376
▁2013	-10.6378
▁shirt	-10.639
"},{"	-10.6391
▁cup	-10.6401
▁ella	-10.6412
▁Micro	-10.6417
▁loyal	-10.6417
▁$6	-10.6418
▁Tony	-10.6423
vacu	-10.6428
▁Walk	-10.6443
▁guess	-10.6459
▁mom	-10.6475
▁nei	-10.648
rita	-10.6485
><	-10.6505
Z	-10.6511
▁promo	-10.6511
▁Pop	-10.6516
▁Yu	-10.6517
▁recognize	-10.6544
▁tepped	-10.6544
▁pour	-10.6546
▁lov	-10.6551
▁Young	-10.6562
▁Para	-10.6565
▁rum	-10.6571
▁Color	-10.6574
▁creation	-10.6578
▁militant	-10.6587
▁omorrow	-10.6587
▁trictly	-10.6587
▁breach	-10.6587
://	-10.6587
▁string	-10.6587
▁moral	-10.6587
▁drew	-10.6589
▁bow	-10.6603
▁speaker	-10.6605
▁rier	-10.6617
▁RE	-10.6619
▁appreciate	-10.663
▁defensive	-10.663
▁piracy	-10.663
▁finger	-10.663
▁Week	-10.663
▁taste	-10.6631
▁Old	-10.6631
rough	-10.6636
▁shore	-10.6637
05	-10.6638
▁kilo	-10.6639
▁Kir	-10.6644
▁snap	-10.6652
▁Where	-10.6653
▁wheel	-10.6653
▁tional	-10.6661
▁charging	-10.6673
▁hattan	-10.6673
▁cutting	-10.6673
▁relax	-10.6673
▁hung	-10.6681
cover	-10.6696
▁contribution	-10.6716
▁Report	-10.672
▁Mitch	-10.6724
▁blast	-10.6726
▁tall	-10.6732
▁xy	-10.6733
▁USA	-10.6736
▁cine	-10.6777
host	-10.6787
▁Bull	-10.6796
ansa	-10.6796
sess	-10.6802
88	-10.6803
BlockElement	-10.6803
▁reputation	-10.6803
▁bourne	-10.6803
>,""	-10.6808
▁Land	-10.6827
▁2000	-10.6832
▁Final	-10.6836
▁corporate	-10.6847
▁casual	-10.6847
▁graduate	-10.685
37	-10.6874
▁aggressive	-10.6891
▁diagnose	-10.6891
▁fatal	-10.6891
ար	-10.6893
▁Asia	-10.6895
naly	-10.6904
▁NAS	-10.6935
▁1990	-10.694
▁keen	-10.6946
▁proved	-10.6947
▁Rah	-10.6967
▁ն	-10.6971
▁matic	-10.6974
▁controversial	-10.698
▁embrace	-10.698
▁outdoor	-10.698
rgan	-10.698
▁narrow	-10.6981
▁Nar	-10.6988
related	-10.6992
▁Turn	-10.6994
▁Hay	-10.7013
▁Vol	-10.7014
▁chill	-10.7017
▁crypto	-10.7024
▁silver	-10.7027
unveil	-10.7029
mbi	-10.7036
▁bul	-10.7048
▁tiny	-10.7062
▁assure	-10.7069
▁shake	-10.7074
▁grat	-10.7074
▁Book	-10.7076
▁39	-10.7079
▁loud	-10.7079
▁LE	-10.7085
lance	-10.7088
▁Wild	-10.709
▁Arch	-10.7097
ounc	-10.7102
▁define	-10.7119
ñ	-10.7159
▁Attorney	-10.7159
▁evastating	-10.7159
▁industrial	-10.7159
▁itzer	-10.7161
▁patter	-10.7171
▁Board	-10.7171
6%	-10.7171
▁milk	-10.7178
▁Hale	-10.719
7%	-10.7191
▁tradition	-10.7192
▁Edward	-10.7205
▁Vladimir	-10.7205
▁minimum	-10.7205
▁borrow	-10.7205
▁Six	-10.7205
▁impe	-10.7209
▁rang	-10.7215
▁chemical	-10.7251
▁brutal	-10.7251
luc	-10.7251
▁wick	-10.7253
▁dated	-10.7254
life	-10.7287
hibit	-10.7292
▁pursue	-10.7296
▁Michel	-10.7296
▁premier	-10.7297
▁Jean	-10.7312
▁mash	-10.7317
1%	-10.7318
▁slip	-10.7323
▁Lion	-10.7334
▁Reuters	-10.7343
▁divorce	-10.7343
▁omebody	-10.7343
▁volunteer	-10.7343
▁museum	-10.7343
▁Major	-10.7343
▁suburb	-10.7343
▁Cooper	-10.7343
▁shoe	-10.7355
▁Ball	-10.736
▁phy	-10.7365
eij	-10.7366
▁medi	-10.7385
▁architect	-10.7389
▁counsel	-10.7389
▁uncertain	-10.7389
▁branch	-10.7389
▁arian	-10.7414
▁symbol	-10.7435
▁Ethio	-10.7435
▁caption	-10.7436
rass	-10.7441
Credit	-10.7449
team	-10.7456
▁buck	-10.7469
▁drawn	-10.7481
▁phase	-10.7482
ու	-10.7482
▁warrant	-10.7482
▁collective	-10.7486
▁Gala	-10.7488
▁slide	-10.7489
▁EV	-10.7489
▁Terr	-10.7512
▁pov	-10.7522
month	-10.7523
▁Festival	-10.7529
▁pregnant	-10.7529
▁alarm	-10.7531
▁continent	-10.7532
▁rocket	-10.7539
78	-10.7547
▁DP	-10.7564
▁grave	-10.7573
▁Church	-10.7576
▁caution	-10.7576
rosecut	-10.7576
▁logue	-10.7576
":"<	-10.7576
▁square	-10.7578
▁shout	-10.7579
▁zero	-10.7583
▁Coast	-10.7591
87	-10.7594
▁beaten	-10.76
▁constitutional	-10.7631
▁Corp	-10.7634
title	-10.7634
▁boast	-10.7635
▁stein	-10.7635
block	-10.7639
▁speci	-10.766
\	-10.7664
hour	-10.7669
▁xiety	-10.7671
▁Senator	-10.7671
▁Emil	-10.7672
▁spell	-10.7678
▁cott	-10.7682
▁Santa	-10.7685
libr	-10.7694
▁Take	-10.77
48	-10.7701
tali	-10.7715
▁obli	-10.7717
▁pill	-10.7718
▁regret	-10.7719
▁lunch	-10.7719
▁remote	-10.7719
▁posing	-10.7719
▁Tesla	-10.7719
▁plate	-10.7726
[	-10.7734
▁Stra	-10.7751
▁300	-10.7755
▁gging	-10.7767
▁Local	-10.7767
69	-10.7769
82	-10.7778
▁lining	-10.778
▁bread	-10.7816
▁compens	-10.7816
▁knee	-10.7817
erial	-10.7818
ighten	-10.7818
▁bury	-10.7825
▁haul	-10.7841
▁iscussions	-10.7864
chocolat	-10.7864
▁musical	-10.7876
class	-10.788
▁moon	-10.789
▁layer	-10.7894
▁Anthony	-10.7913
▁diagnosis	-10.7913
▁Stock	-10.7913
▁Storm	-10.7913
▁ABC	-10.7913
▁Project	-10.7915
▁mium	-10.792
▁guid	-10.792
▁skip	-10.7922
ssemb	-10.7927
▁Barb	-10.7931
▁ensitive	-10.7962
▁placing	-10.7962
▁cloud	-10.7962
▁breast	-10.7962
▁Dodge	-10.7965
▁addict	-10.7967
commod	-10.7988
born	-10.7992
▁Power	-10.8011
▁Food	-10.8011
▁brush	-10.8011
▁reek	-10.8021
▁interact	-10.8025
▁lessly	-10.803
▁mail	-10.8038
▁grace	-10.8042
▁Var	-10.8053
79	-10.8054
▁opposite	-10.8061
▁yellow	-10.8061
▁reader	-10.8062
▁pile	-10.807
2024	-10.808
turn	-10.8082
▁scal	-10.8091
▁pocket	-10.811
▁nurse	-10.8111
▁Luke	-10.812
▁lence	-10.8124
▁grass	-10.8124
high	-10.8128
▁weigh	-10.814
▁hail	-10.8148
Whi	-10.8149
▁Pale	-10.8151
▁magazine	-10.816
▁Helen	-10.8162
▁1980	-10.8167
dmir	-10.817
▁ven	-10.821
▁Football	-10.8211
▁£6	-10.8211
▁Eliza	-10.8211
▁smooth	-10.8211
▁levant	-10.8211
▁Doug	-10.8211
▁sugar	-10.8213
▁bone	-10.8218
▁plain	-10.8229
Some	-10.8242
▁terr	-10.8254
eport	-10.8255
▁nesota	-10.8261
▁provision	-10.8262
▁chef	-10.8266
▁Comb	-10.8295
▁Roh	-10.8296
▁behavior	-10.8312
▁fundamental	-10.8312
▁fantastic	-10.8313
▁rebel	-10.8314
▁error	-10.8317
▁Town	-10.833
▁plea	-10.8347
▁Matthew	-10.8363
▁ubstantial	-10.8363
▁valuable	-10.8363
▁partisan	-10.8363
▁triking	-10.8363
▁Celeb	-10.8363
*	-10.8377
09	-10.8378
▁Metro	-10.838
▁Armenia	-10.8414
▁Bangladesh	-10.8414
▁computer	-10.8414
▁experiment	-10.8415
▁magn	-10.8421
▁Bron	-10.8452
▁Special	-10.8466
▁cabinet	-10.8466
▁fiscal	-10.8466
▁recipe	-10.8466
▁Music	-10.8466
▁permit	-10.8466
▁strip	-10.8466
▁$7	-10.8467
Human	-10.847
pict	-10.8471
▁Stone	-10.8474
friend	-10.8485
▁hint	-10.8494
▁consecutive	-10.8517
▁Museum	-10.8518
▁mask	-10.852
▁repair	-10.8521
▁Dutch	-10.8525
▁£10	-10.8531
▁pump	-10.8536
▁Medi	-10.854
▁elev	-10.8548
▁Low	-10.8553
▁Night	-10.8554
▁succeed	-10.857
▁Global	-10.857
▁eferring	-10.857
▁knife	-10.857
▁tragic	-10.857
▁Morgan	-10.8572
▁sheet	-10.8572
4%	-10.8585
▁Master	-10.8589
▁resort	-10.8622
▁buyers	-10.8623
▁Mount	-10.8623
▁ridge	-10.8628
▁bike	-10.8637
▁1,000	-10.8651
▁upgrade	-10.8675
▁Alexander	-10.8675
▁Dalla	-10.8675
▁Kings	-10.8676
▁Shah	-10.8678
▁Aust	-10.8679
▁Hung	-10.8682
Text	-10.8715
▁excess	-10.8727
▁Spring	-10.8728
▁Energ	-10.8728
▁magic	-10.8728
▁lung	-10.8728
person	-10.8749
▁400	-10.878
▁Rwanda	-10.8781
▁disappear	-10.8781
▁principle	-10.8781
▁Second	-10.8781
▁punch	-10.8781
▁mechan	-10.8781
▁scrap	-10.8781
▁solar	-10.8787
▁Iowa	-10.8836
▁runner	-10.8844
▁Trust	-10.885
half	-10.8856
▁soul	-10.8859
▁Sport	-10.8874
▁Constitution	-10.8888
▁concept	-10.8888
▁romantic	-10.8888
▁virtual	-10.8888
▁promotion	-10.8888
▁Heart	-10.8891
▁Cook	-10.8903
▁bing	-10.8932
դ	-10.8942
▁dynamic	-10.8942
▁liberal	-10.8942
▁tourism	-10.8942
▁journal	-10.8994
▁atmosphere	-10.8996
▁cognition	-10.8996
▁deposit	-10.8996
▁script	-10.8996
▁Haiti	-10.8996
▁Fund	-10.8997
▁illus	-10.9024
▁advisor	-10.9051
▁disorder	-10.9051
▁tweet	-10.9051
▁Argent	-10.9051
▁Rishi	-10.9051
crutin	-10.9051
▁latter	-10.9052
84	-10.9078
▁lake	-10.9081
▁Row	-10.9103
▁urging	-10.9106
▁idence	-10.9106
▁venture	-10.911
▁vince	-10.9117
▁sole	-10.9141
▁Buck	-10.9148
▁gradu	-10.9158
▁Morning	-10.9161
▁ingredient	-10.9161
▁cheese	-10.9161
▁span	-10.9171
▁cient	-10.9184
foot	-10.9184
winn	-10.9188
▁twist	-10.9189
▁Journal	-10.9217
▁explosion	-10.9217
▁Brand	-10.922
▁2009	-10.9235
▁Display	-10.9273
▁muscle	-10.9273
▁ologies	-10.9273
▁Morris	-10.9273
▁Labor	-10.9273
▁neath	-10.9273
▁harass	-10.9274
▁proof	-10.9283
election	-10.9301
▁merging	-10.9329
▁Saint	-10.9329
▁hrew	-10.9329
▁ultra	-10.9329
▁Hotel	-10.9329
▁congress	-10.9334
work	-10.9352
style	-10.9353
How	-10.9374
▁engine	-10.9374
▁comprehen	-10.9385
▁£7	-10.9385
▁£8	-10.9385
▁Video	-10.9385
▁Steven	-10.9385
▁Strip	-10.9385
▁1970	-10.9391
▁tower	-10.9392
▁Price	-10.9411
▁Education	-10.9442
▁Phillip	-10.9442
▁radical	-10.9442
▁Berlin	-10.9442
▁flash	-10.9442
▁flex	-10.9442
▁context	-10.9442
▁rumour	-10.9444
▁pause	-10.9446
▁compos	-10.9447
▁hook	-10.9449
▁cable	-10.945
▁theatre	-10.9463
rawl	-10.9466
▁hack	-10.9482
▁ethic	-10.9496
▁silence	-10.9499
▁Gandhi	-10.9499
▁crore	-10.95
▁outrage	-10.95
▁edition	-10.9501
evit	-10.9555
▁Wisconsin	-10.9557
▁necessarily	-10.9557
circl	-10.9557
▁toilet	-10.9559
www	-10.9561
▁Mumbai	-10.9614
▁eadline	-10.9614
▁visible	-10.9614
▁ually	-10.9615
▁float	-10.9615
▁crown	-10.9615
▁nathan	-10.9615
▁stroke	-10.9615
9%	-10.967
▁academic	-10.9673
▁expansion	-10.9673
▁Budget	-10.9673
▁Bengal	-10.9673
▁mood	-10.9673
▁wich	-10.9693
▁diff	-10.9721
▁suicide	-10.9731
▁sweep	-10.9732
▁Lauren	-10.9733
gistr	-10.9781
gress	-10.9787
▁democratic	-10.979
▁efficient	-10.979
▁manifest	-10.979
▁proportion	-10.979
▁reduction	-10.979
▁funny	-10.9792
▁incen	-10.9817
8%	-10.9818
▁Jake	-10.9818
▁styl	-10.9847
hiladelphi	-10.9849
▁intervention	-10.9849
▁eager	-10.9851
▁util	-10.9851
▁toxic	-10.9852
▁sauce	-10.9852
▁pson	-10.9853
gratu	-10.9865
▁fuse	-10.9895
▁Columbia	-10.9909
▁clusive	-10.9909
▁courage	-10.9909
▁loose	-10.9909
▁Domin	-10.9918
▁Pass	-10.9924
▁Netherland	-10.9969
▁Affair	-10.9969
▁Radio	-10.9969
▁Film	-10.9969
այ	-10.9969
▁Fern	-10.9971
riev	-10.9973
▁index	-10.9973
you	-10.9986
▁2006	-10.9993
▁sistance	-11.0029
▁unprecedented	-11.0029
▁2026	-11.0029
▁Russell	-11.0029
interpret	-11.003
▁fault	-11.0032
promis	-11.0046
▁Charlotte	-11.0089
▁cribing	-11.0089
▁blind	-11.0089
▁racial	-11.0089
▁Girl	-11.009
▁kiss	-11.0095
▁villa	-11.0098
▁Chair	-11.0105
▁experi	-11.015
▁Business	-11.015
▁Convention	-11.015
▁Murphy	-11.015
▁distinct	-11.015
▁Alban	-11.0151
▁pipe	-11.0151
▁assy	-11.0154
▁cyber	-11.0156
▁musician	-11.0157
▁blend	-11.016
▁Eric	-11.0163
▁Market	-11.0165
▁Sai	-11.017
▁mobil	-11.0183
}	-11.0212
▁Catholic	-11.0212
▁ambassador	-11.0212
▁license	-11.0212
▁liberate	-11.0212
▁Square	-11.0212
▁external	-11.022
▁bless	-11.022
nguish	-11.0223
▁applied	-11.0223
respond	-11.0241
▁Clinton	-11.0273
▁evolution	-11.0273
գ	-11.0273
▁inherit	-11.0273
▁urban	-11.0273
▁Crime	-11.0274
▁contend	-11.0274
▁ocean	-11.0274
isturb	-11.0276
▁foster	-11.0277
▁Cross	-11.0277
▁accurate	-11.028
▁resist	-11.0282
With	-11.0303
▁afraid	-11.0336
▁funeral	-11.0336
▁burst	-11.0336
▁nique	-11.0338
▁scope	-11.0338
▁examine	-11.0339
▁brown	-11.0349
▁ystery	-11.0399
▁audit	-11.0399
Barcelo	-11.0402
▁gins	-11.0403
▁origin	-11.0449
game	-11.0452
▁adequate	-11.0461
▁iciency	-11.0461
▁sovereign	-11.0461
▁sufficient	-11.0461
▁cruise	-11.0461
▁liquid	-11.0461
▁Garden	-11.0461
▁persist	-11.0462
▁summ	-11.0493
▁anticipate	-11.0524
▁rhetoric	-11.0524
▁ubstance	-11.0588
▁wipe	-11.0599
Ferr	-11.06
▁2004	-11.0613
Trump	-11.0619
fund	-11.062
▁Fred	-11.0622
▁genocide	-11.0652
▁disagree	-11.0652
▁ան	-11.0652
▁cliff	-11.0652
▁Thai	-11.0653
▁ctor	-11.0656
▁Aug	-11.0656
▁associ	-11.0713
▁qualified	-11.0717
▁romance	-11.0717
▁kidnap	-11.0717
▁ncing	-11.0717
▁erupt	-11.072
▁Pitt	-11.0721
▁easing	-11.0725
▁burden	-11.0781
▁helicopter	-11.0781
▁topping	-11.0782
▁equent	-11.0782
▁Glen	-11.0783
▁steel	-11.0789
▁smell	-11.0791
ը	-11.0847
▁Mexican	-11.0847
▁Official	-11.0847
▁currency	-11.0847
▁satellite	-11.0847
▁reasonable	-11.0847
▁partial	-11.0847
▁mies	-11.0849
known	-11.088
scale	-11.0882
▁Qatar	-11.0913
▁fortune	-11.0913
▁swift	-11.0913
▁instant	-11.0914
▁$8	-11.0915
▁echo	-11.0918
▁Country	-11.0922
▁electronic	-11.0979
▁felon	-11.0979
▁pride	-11.0979
▁minster	-11.0982
▁Command	-11.0984
timid	-11.0987
▁bullet	-11.0988
▁fossil	-11.1045
▁intercept	-11.1045
▁scenario	-11.1045
▁Mother	-11.1046
▁interior	-11.1046
Just	-11.108
É	-11.1113
▁Oregon	-11.1113
▁distress	-11.1113
▁encouraging	-11.1113
▁fabric	-11.1113
▁iscrimination	-11.1113
▁phenomen	-11.1113
▁extension	-11.1113
▁nervous	-11.1113
▁blaze	-11.1117
large	-11.1148
▁exami	-11.1177
â	-11.118
▁Doctor	-11.118
▁Economic	-11.118
=\"	-11.118
▁fusing	-11.118
ել	-11.1181
▁perpet	-11.1181
making	-11.1216
Isra	-11.1221
▁visual	-11.1248
▁Totten	-11.1248
▁racist	-11.1248
▁Next	-11.1249
Star	-11.1288
▁Clar	-11.1305
▁pregnancy	-11.1317
▁sentiment	-11.1317
▁silience	-11.1317
▁£9	-11.1317
▁fusion	-11.1317
▁clock	-11.1317
▁button	-11.1324
exceed	-11.1335
week	-11.1353
▁attac	-11.1359
pple	-11.138
▁Civil	-11.1386
▁confess	-11.1386
▁bargain	-11.1386
▁Soviet	-11.1386
▁medicine	-11.1389
season	-11.1422
ղ	-11.1455
▁judgment	-11.1455
▁pivot	-11.1455
▁Brexit	-11.1455
▁jacket	-11.1455
▁ography	-11.1455
▁greet	-11.1455
▁soap	-11.1468
բ	-11.1525
▁mirror	-11.1525
▁tributing	-11.1525
▁supplement	-11.1525
▁Class	-11.1525
▁uries	-11.1525
▁Grant	-11.1527
▁oversee	-11.1527
People	-11.1563
▁Joseph	-11.1595
▁Nichol	-11.1595
▁tumble	-11.1596
▁await	-11.1597
▁Heath	-11.1598
▁Kenya	-11.1598
▁Short	-11.1601
պ	-11.1666
▁lessness	-11.1666
▁interfere	-11.1666
▁Austria	-11.1666
▁Erik	-11.1667
▁sensor	-11.1667
▁brave	-11.1668
▁lady	-11.1669
▁quan	-11.1675
▁sympath	-11.1738
▁Treasury	-11.1738
▁enthusiast	-11.1738
▁transaction	-11.1738
▁Simps	-11.1738
▁lahoma	-11.1738
▁weird	-11.1739
▁bloc	-11.1797
▁jewel	-11.181
▁privilege	-11.181
▁Jacob	-11.181
▁neuro	-11.181
▁formula	-11.181
▁skirt	-11.1811
▁Aaron	-11.1811
▁ifies	-11.1811
▁drill	-11.1814
After	-11.185
venge	-11.1856
▁instrument	-11.1882
è	-11.1882
▁buzz	-11.1882
▁depth	-11.1884
esse	-11.1892
**	-11.1913
▁Shr	-11.1927
▁Gabriel	-11.1955
▁Support	-11.1955
▁exhaust	-11.1955
▁Hugh	-11.1955
▁breed	-11.1956
▁ution	-11.1956
▁moderate	-11.1957
▁mutual	-11.196
▁Fede	-11.1974
000,"	-11.1974
ü	-11.2029
▁auction	-11.2029
▁flavour	-11.2029
▁licence	-11.2029
▁Brother	-11.2029
▁Summer	-11.2029
▁Yemen	-11.2029
▁protein	-11.2029
▁Ocean	-11.2029
▁Talk	-11.203
▁$9	-11.2033
Yeah	-11.2048
▁accompanied	-11.2103
▁approximate	-11.2103
▁fiction	-11.2103
▁revolution	-11.2103
▁tunnel	-11.2103
▁robust	-11.2103
▁Hindu	-11.2103
▁Know	-11.2103
▁carpet	-11.2103
▁ugal	-11.2103
ahara	-11.2176
▁authentic	-11.2177
▁classified	-11.2177
▁entrepreneur	-11.2177
▁nutrition	-11.2177
▁Expert	-11.2178
▁evolve	-11.2178
▁rebound	-11.2178
▁sweat	-11.2181
Image	-11.2203
▁distribution	-11.2253
▁lobby	-11.2253
▁crop	-11.2253
ք	-11.2328
▁Ahmed	-11.2328
▁vocal	-11.2328
▁cousin	-11.2329
▁audio	-11.2329
▁arity	-11.2329
▁Flor	-11.233
▁LGBTQ	-11.2405
ú	-11.2716
յ	-11.3284
{	-11.354
•	-11.3889
լ	-11.3978
ö	-11.4251
ծ	-11.4627
	-11.4723
Ա	-11.5218
խ	-11.532
շ	-11.5955
ռ	-11.6065
զ	-11.6402
թ	-11.699
ջ	-11.8705
։	-11.8997
­	-12.0395
°	-12.0428
չ	-12.0776
©	-12.1136
à	-12.1136
Ե	-12.1136
ç	-12.151
■	-12.151
ä	-12.2511
′	-12.2511
՝	-12.2941
ձ	-12.2941
⁄	-12.3163
Հ	-12.3623
―	-12.3623
Á	-12.3861
Մ	-12.3861
ø	-12.4105
ā	-12.4105
փ	-12.4355
ô	-12.4355
Ի	-12.4355
Ն	-12.4612
<	-12.4613
ւ	-12.5422
ã	-12.6003
ï	-12.6618
ë	-12.6941
️	-12.7274
å	-12.7274
#	-12.7586
ć	-12.7619
Ր	-12.8346
‐	-12.8731
ê	-12.9131
Ö	-12.9548
ժ	-12.9548
Կ	-12.9982
Ս	-13.0913
ճ	-13.1413
`	-13.2495
♦	-13.2495
Բ	-13.3083
č	-13.3708
î	-13.3708
Գ	-13.3708
ō	-13.4375
Ø	-13.5859
ł	-13.5859
ֆ	-13.5859
Լ	-13.6692
Պ	-13.7601
Տ	-13.7601
¿	-13.8601
·	-13.8601
Â	-13.8601
ă	-13.8601
ı	-13.8601
š	-13.8601
Å	-13.9712
®	-13.9712
●	-13.9712
¢	-14.0962
ò	-14.0962
Յ	-14.2391
😂	-14.2391
ș	-14.4057
¡	-14.4057
	-14.6057
×	-14.6057
ù	-14.6057
ŷ	-14.6057
Ռ	-14.6057
⁠	-14.6057
−	-14.6057
‍	-14.6057
⁣	-14.8557
Ã	-14.8557
À	-14.8557
ì	-14.8557
ý	-14.8557
ŵ	-14.8557
ž	-14.8557
♬	-14.8557
🔥	-14.8557
û	-14.8557
ū	-14.8557
😍	-15.1891
±	-15.1891
Ü	-15.1891
ė	-15.1891
Օ	-15.1891
⚽	-15.1891
🙏	-15.1891
Ժ	-15.1891
ņ	-15.6891
🏻	-15.6891
С	-15.6891
😅	-15.6891
	-15.6891
§	-15.6891
È	-15.6891
Î	-15.6891
æ	-15.6891
ē	-15.6891
ģ	-15.6891
ń	-15.6891
Չ	-15.6891
՛	-15.6891
՞	-15.6891
ạ	-15.6891
ầ	-15.6891
ắ	-15.6891
ờ	-15.6891
‭	-15.6891
›	-15.6891
⁩	-15.6891
❌	-15.6891
︎	-15.6891
𝄒	-15.6891
🏼	-15.6891
👈	-15.6891
📸	-15.6891
🤦	-15.6891
^	-15.6891
ň	-15.6891
℞	-15.6891
☆	-15.6891
😮	-16.6839
💨	-16.684
💕	-16.6841
👉	-16.6842
・	-16.6843
♪	-16.6844
♂	-16.6845
₱	-16.6846
⁦	-16.6847
Ճ	-16.6848
Đ	-16.6849
ß	-16.685
	-16.6851
🙄	-16.6852
✔	-16.6853
▶	-16.6854
Ք	-16.6855
ț	-16.6856
Ä	-16.6857
¦	-16.6858
🐎	-16.6859
Ւ	-16.686
Ջ	-16.6861
Շ	-16.6862
Ç	-16.6863
Փ	-16.6864
Զ	-16.6865
Š	-16.6866
ş	-16.6867
🥹	-16.6868
🤣	-16.6869
😭	-16.687
Ֆ	-16.6871
Թ	-16.6872
Ը	-16.6873
Դ	-16.6874
đ	-16.6875
Ո	-16.6876
❤	-16.6877
Ó	-16.6878
🥇	-16.6879
	-16.688
ğ	-16.6881
	-16.6882
Վ	-16.6883
	-16.6884
★	-16.6885
օ	-16.6886
	-16.6887
₹	-16.6888
է	-16.6889
£	-16.689
а	-16.689
к	-16.6891
р	-16.6891
ї	-16.6891
🌴	-16.6891
🏽	-16.6891
🤷	-16.6891
þ	-16.6891
Ṡ	-16.6891
ố	-16.6891
🤎	-16.6891
🥥	-16.6891
👏	-16.6891
~	-16.6891
	-16.6891
	-16.6891
Í	-16.6891
Ò	-16.6891
ÿ	-16.6891
ą	-16.6891
Ć	-16.6891
Ē	-16.6891
ę	-16.6891
ī	-16.6891
İ	-16.6891
ř	-16.6891
ś	-16.6891
Ş	-16.6891
ţ	-16.6891
ż	-16.6891
ư	-16.6891
ə	-16.6891
ʔ	-16.6891
ʻ	-16.6891
̄	-16.6891
̈	-16.6891
μ	-16.6891
О	-16.6891
У	-16.6891
и	-16.6891
н	-16.6891
Է	-16.6891
Խ	-16.6891
Ծ	-16.6891
Ղ	-16.6891
฿	-16.6891
ḥ	-16.6891
ṣ	-16.6891
ả	-16.6891
ẹ	-16.6891
ế	-16.6891
ệ	-16.6891
ị	-16.6891
ọ	-16.6891
ộ	-16.6891
ợ	-16.6891
ừ	-16.6891
ỹ	-16.6891
‬	-16.6891
⁤	-16.6891
₦	-16.6891
↔	-16.6891
⊕	-16.6891
⏳	-16.6891
►	-16.6891
◀	-16.6891
☀	-16.6891
♀	-16.6891
♥	-16.6891
✅	-16.6891
✨	-16.6891
⭐	-16.6891
🇱	-16.6891
🇳	-16.6891
🇸	-16.6891
🇺	-16.6891
🌪	-16.6891
🌹	-16.6891
🍓	-16.6891
🍹	-16.6891
🎁	-16.6891
🎪	-16.6891
🏆	-16.6891
🏾	-16.6891
👀	-16.6891
👍	-16.6891
💙	-16.6891
📋	-16.6891
📍	-16.6891
📷	-16.6891
😆	-16.6891
😊	-16.6891
😢	-16.6891
😱	-16.6891
😳	-16.6891
🙌	-16.6891
🛒	-16.6891
🤔	-16.6891
🤫	-16.6891
🤯	-16.6891
🤵	-16.6891
🥅	-16.6891
🥪	-16.6891
🥺	-16.6891
ự	-16.6891
Ô	-16.6891
(	-16.6891
Ձ	-16.6891
🎢	-16.6891
💥	-16.6891
