[UNK]	0
[CLS]	1
[SEP]	2
[PAD]	3
[MASK]	4
!	5
"	6
#	7
$	8
%	9
&	10
'	11
(	12
)	13
*	14
+	15
,	16
-	17
.	18
/	19
0	20
1	21
2	22
3	23
4	24
5	25
6	26
7	27
8	28
9	29
:	30
;	31
<	32
=	33
>	34
?	35
@	36
[	37
\	38
]	39
^	40
_	41
`	42
a	43
b	44
c	45
d	46
e	47
f	48
g	49
h	50
i	51
j	52
k	53
l	54
m	55
n	56
o	57
p	58
q	59
r	60
s	61
t	62
u	63
v	64
w	65
x	66
y	67
z	68
{	69
}	70
~	71
	72
	73
	74
	75
	76
	77
	78
	79
	80
	81
¡	82
¢	83
£	84
¦	85
§	86
©	87
­	88
®	89
°	90
±	91
·	92
¿	93
×	94
ß	95
à	96
á	97
â	98
ã	99
ä	100
å	101
æ	102
ç	103
è	104
é	105
ê	106
ë	107
ì	108
í	109
î	110
ï	111
ñ	112
ò	113
ó	114
ô	115
ö	116
ø	117
ù	118
ú	119
û	120
ü	121
ý	122
þ	123
ÿ	124
ā	125
ă	126
ą	127
ć	128
č	129
đ	130
ē	131
ė	132
ę	133
ğ	134
ģ	135
ī	136
ı	137
ł	138
ń	139
ņ	140
ň	141
ō	142
ř	143
ś	144
ş	145
š	146
ţ	147
ū	148
ŵ	149
ŷ	150
ż	151
ž	152
ư	153
ș	154
ț	155
ə	156
ʔ	157
ʻ	158
̄	159
̇	160
̈	161
μ	162
а	163
и	164
к	165
н	166
о	167
р	168
с	169
у	170
ї	171
՛	172
՝	173
՞	174
ա	175
բ	176
գ	177
դ	178
ե	179
զ	180
է	181
ը	182
թ	183
ժ	184
ի	185
լ	186
խ	187
ծ	188
կ	189
հ	190
ձ	191
ղ	192
ճ	193
մ	194
յ	195
ն	196
շ	197
ո	198
չ	199
պ	200
ջ	201
ռ	202
ս	203
վ	204
տ	205
ր	206
ց	207
ւ	208
փ	209
ք	210
օ	211
ֆ	212
։	213
฿	214
ḥ	215
ṡ	216
ṣ	217
ạ	218
ả	219
ầ	220
ắ	221
ẹ	222
ế	223
ệ	224
ị	225
ọ	226
ố	227
ộ	228
ờ	229
ợ	230
ừ	231
ự	232
ỹ	233
‌	234
‍	235
‐	236
―	237
•	238
‬	239
‭	240
′	241
›	242
⁄	243
⁠	244
⁣	245
⁤	246
⁦	247
⁩	248
₦	249
€	250
₱	251
₹	252
℞	253
↔	254
−	255
⊕	256
⏳	257
■	258
▶	259
►	260
◀	261
●	262
☀	263
★	264
☆	265
♀	266
♂	267
♥	268
♦	269
♪	270
♬	271
⚽	272
✅	273
✔	274
✨	275
❌	276
❤	277
➡	278
⭐	279
・	280
︎	281
️	282
�	283
𝄒	284
🇦	285
🇱	286
🇳	287
🇸	288
🇺	289
🌪	290
🌴	291
🌹	292
🍓	293
🍹	294
🍺	295
🎁	296
🎢	297
🎪	298
🏆	299
🏻	300
🏼	301
🏽	302
🏾	303
🐎	304
👀	305
👈	306
👉	307
👍	308
👏	309
💕	310
💙	311
💥	312
💨	313
💬	314
📋	315
📍	316
📷	317
📸	318
🔥	319
😂	320
😅	321
😆	322
😊	323
😍	324
😢	325
😭	326
😮	327
😱	328
😳	329
🙄	330
🙌	331
🙏	332
🚨	333
🛒	334
🤎	335
🤔	336
🤣	337
🤦	338
🤫	339
🤯	340
🤵	341
🤷	342
🥅	343
🥇	344
🥥	345
🥪	346
🥹	347
🥺	348
🫣	349
##a	350
##s	351
##y	352
##r	353
##e	354
##5	355
##0	356
##f	357
##?	358
##2	359
##c	360
##3	361
##6	362
##1	363
##b	364
##9	365
##d	366
##7	367
##i	368
##l	369
##8	370
##h	371
##u	372
##t	373
##w	374
##4	375
##n	376
##m	377
##o	378
##g	379
##k	380
##q	381
##x	382
##ը	383
##z	384
##v	385
##p	386
##ր	387
##մ	388
##ե	389
##ն	390
##պ	391
##բ	392
##-	393
##"	394
##.	395
##&	396
##j	397
##_	398
##′	399
##ի	400
##ա	401
##վ	402
##é	403
##ո	404
##ô	405
##զ	406
##)	407
##,	408
##'	409
##;	410
##ղ	411
##£	412
##ñ	413
##լ	414
##ø	415
##ü	416
##յ	417
##ւ	418
##ս	419
##!	420
##ö	421
##★	422
##չ	423
##%	424
##ó	425
##@	426
##ú	427
##⁠	428
##ā	429
##ắ	430
##թ	431
##á	432
##ց	433
##ջ	434
##ä	435
##â	436
##խ	437
##գ	438
##ռ	439
##è	440
##ք	441
##դ	442
##շ	443
##տ	444
##í	445
##(	446
##>	447
##ò	448
##å	449
##©	450
##կ	451
##}	452
##ż	453
##	454
##*	455
##🏼	456
##ë	457
##]	458
##️	459
##ֆ	460
##ự	461
##<	462
##/	463
###	464
##:	465
##ç	466
##փ	467
##à	468
##û	469
##📸	470
##[	471
##č	472
##😮	473
##­	474
##\	475
##ọ	476
##ծ	477
##🥹	478
##ã	479
##ą	480
##➡	481
##ê	482
##ձ	483
##î	484
##ï	485
##€	486
##‌	487
##{	488
##հ	489
##ạ	490
##ị	491
##	492
##ժ	493
##ճ	494
##ş	495
##օ	496
##$	497
##❤	498
##ư	499
##ờ	500
##ÿ	501
##🥺	502
##ł	503
##`	504
##ì	505
##։	506
##ș	507
##ć	508
##🍺	509
##ă	510
##š	511
##ḥ	512
##ʔ	513
##ù	514
##■	515
##ō	516
##է	517
##ế	518
##ừ	519
##🥥	520
##🤎	521
##℞	522
##😅	523
##☆	524
##ŵ	525
##🏻	526
##ņ	527
##ģ	528
##ę	529
##ả	530
##+	531
##ė	532
##•	533
##ə	534
##с	535
##о	536
##=	537
##ı	538
##⁣	539
##ợ	540
##ŷ	541
##ý	542
##ū	543
##æ	544
##ğ	545
##🏾	546
##¡	547
##💬	548
##ț	549
##ř	550
##¦	551
##ž	552
##😍	553
##̇	554
##🥇	555
##ỹ	556
##🇸	557
##🇺	558
##🇦	559
##ộ	560
##😂	561
##🤣	562
##ī	563
##🌹	564
##ň	565
##ē	566
##🤦	567
##🏽	568
##😭	569
##ß	570
##ś	571
##	572
##μ	573
##	574
##ʻ	575
##🫣	576
##😊	577
##ầ	578
##🙏	579
##🔥	580
##ṣ	581
##ệ	582
##🚨	583
##к	584
##р	585
##а	586
##ї	587
##н	588
##и	589
##^	590
##🇱	591
##ţ	592
##	593
##ố	594
##	595
##¿	596
th	597
the	598
in	599
##er	600
##on	601
##nd	602
##or	603
##at	604
to	605
##en	606
##in	607
##ar	608
##an	609
##ou	610
##it	611
##st	612
of	613
##al	614
ed	615
ing	616
and	617
re	618
##re	619
##ic	620
##om	621
##le	622
##id	623
##ll	624
##ion	625
be	626
##ent	627
##ve	628
on	629
ha	630
it	631
st	632
for	633
##ut	634
at	635
he	636
##ot	637
is	638
wh	639
##ce	640
##ay	641
##ing	642
##ow	643
##ss	644
an	645
en	646
that	647
##se	648
er	649
##ur	650
##et	651
##ct	652
ly	653
de	654
##ld	655
##ed	656
##ig	657
##ir	658
##am	659
##ith	660
##ver	661
##ch	662
##im	663
with	664
##ro	665
wa	666
al	667
##is	668
##ra	669
ch	670
we	671
##th	672
##ge	673
##ad	674
##il	675
##ie	676
le	677
com	678
##ill	679
con	680
sh	681
ne	682
##ol	683
fr	684
##ter	685
se	686
##ck	687
sa	688
##ke	689
la	690
you	691
ab	692
##ate	693
hi	694
##ri	695
ma	696
##pe	697
##igh	698
li	699
ex	700
su	701
,"	702
said	703
ar	704
##ation	705
##ort	706
or	707
have	708
by	709
##ul	710
has	711
go	712
pro	713
from	714
##um	715
thi	716
cou	717
##ere	718
##art	719
##la	720
not	721
but	722
lo	723
ca	724
all	725
##ore	726
es	727
me	728
##us	729
##op	730
un	731
##ight	732
##od	733
te	734
##pp	735
tr	736
##ue	737
ment	738
20	739
##un	740
##as	741
her	742
out	743
pre	744
##ust	745
im	746
co	747
af	748
##ive	749
wor	750
##all	751
ad	752
##ear	753
po	754
##ain	755
##gh	756
do	757
one	758
who	759
##el	760
will	761
##ant	762
year	763
##ine	764
##ia	765
##ard	766
."	767
am	768
##ome	769
##ime	770
man	771
##lo	772
ta	773
pl	774
":	775
##ies	776
can	777
up	778
##ice	779
per	780
off	781
ho	782
their	783
mo	784
##fe	785
##ity	786
ba	787
ag	788
ers	789
pr	790
new	791
pa	792
##ich	793
had	794
##ure	795
pe	796
##ould	797
##ist	798
if	799
##ial	800
##ound	801
##our	802
us	803
ro	804
##00	805
fa	806
time	807
after	808
more	809
##ide	810
##out	811
sp	812
ever	813
##ok	814
##ther	815
ation	816
##pt	817
ac	818
over	819
fe	820
##ong	821
were	822
there	823
about	824
day	825
##ame	826
part	827
di	828
which	829
##ub	830
##per	831
bo	832
no	833
fo	834
em	835
sc	836
ev	837
##es	838
br	839
other	840
like	841
ra	842
##ff	843
mon	844
202	845
##ber	846
mar	847
my	848
##ip	849
qu	850
##age	851
##ish	852
##ree	853
ion	854
gr	855
cont	856
##ment	857
##ople	858
people	859
just	860
":"	861
car	862
would	863
tw	864
##ud	865
dis	866
##nt	867
med	868
what	869
some	870
##ough	871
cre	872
tra	873
fir	874
comp	875
pol	876
##ence	877
work	878
res	879
get	880
##nder	881
so	882
cr	883
jo	884
ele	885
##ction	886
##ath	887
than	888
rep	889
##em	890
##ile	891
way	892
spe	893
##ord	894
state	895
say	896
##ick	897
##and	898
how	899
able	900
##own	901
##ign	902
first	903
back	904
don	905
##ict	906
form	907
uk	908
##ly	909
play	910
##ite	911
##use	912
cent	913
##ach	914
el	915
##ble	916
them	917
two	918
our	919
att	920
inc	921
ent	922
##ump	923
comm	924
pres	925
come	926
##ond	927
##ult	928
kn	929
##ink	930
ity	931
him	932
##ft	933
land	934
##lu	935
##iv	936
##ous	937
##ident	938
min	939
##orm	940
cl	941
gu	942
acc	943
par	944
inter	945
ce	946
##ast	947
##ild	948
##ance	949
ind	950
##int	951
fi	952
any	953
ver	954
,""	955
##est	956
dec	957
ph	958
##ition	959
last	960
add	961
##lic	962
could	963
your	964
nation	965
ke	966
ap	967
##ag	968
##sh	969
##ress	970
now	971
##ep	972
again	973
count	974
##oth	975
##ry	976
most	977
ary	978
##urn	979
##cial	980
##du	981
##ak	982
ve	983
fin	984
pub	985
ally	986
trump	987
ic	988
bu	989
##reat	990
under	991
##ade	992
imp	993
end	994
show	995
##tt	996
##ual	997
##wn	998
side	999
##ek	1000
where	1001
est	1002
line	1003
##ugh	1004
age	1005
war	1006
cause	1007
##vel	1008
bet	1009
app	1010
did	1011
thing	1012
##erv	1013
sec	1014
##ian	1015
media	1016
act	1017
##one	1018
president	1019
##amp	1020
inclu	1021
make	1022
supp	1023
high	1024
every	1025
id	1026
##ise	1027
wid	1028
##form	1029
aut	1030
str	1031
##ect	1032
width	1033
ant	1034
fu	1035
son	1036
look	1037
##qu	1038
ass	1039
want	1040
##vern	1041
##ater	1042
ru	1043
report	1044
##day	1045
may	1046
govern	1047
thr	1048
down	1049
ext	1050
cla	1051
##cess	1052
home	1053
##are	1054
she	1055
rec	1056
fam	1057
lead	1058
mi	1059
even	1060
while	1061
ty	1062
need	1063
exp	1064
19	1065
bef	1066
before	1067
well	1068
##ange	1069
##ase	1070
ear	1071
har	1072
ter	1073
op	1074
game	1075
call	1076
public	1077
##{"	1078
week	1079
take	1080
##ster	1081
##itt	1082
rem	1083
fl	1084
pla	1085
win	1086
hou	1087
dur	1088
long	1089
think	1090
hel	1091
reg	1092
ec	1093
right	1094
##av	1095
tri	1096
cons	1097
##itic	1098
world	1099
##orn	1100
cour	1101
##atch	1102
##ince	1103
blo	1104
ive	1105
wr	1106
dem	1107
##we	1108
set	1109
##if	1110
##pect	1111
ance	1112
know	1113
ship	1114
national	1115
head	1116
char	1117
mr	1118
see	1119
col	1120
mu	1121
##illion	1122
start	1123
##get	1124
then	1125
##ap	1126
##oc	1127
##ason	1128
dr	1129
gen	1130
##iden	1131
month	1132
##act	1133
##ens	1134
##ire	1135
made	1136
through	1137
told	1138
##ans	1139
support	1140
sch	1141
aw	1142
team	1143
three	1144
##son	1145
mem	1146
201	1147
own	1148
##ale	1149
read	1150
##ail	1151
hose	1152
going	1153
ig	1154
ret	1155
##te	1156
life	1157
##llow	1158
old	1159
##iver	1160
##ack	1161
##ug	1162
help	1163
ry	1164
gra	1165
less	1166
##iew	1167
ur	1168
qual	1169
ate	1170
##lf	1171
famil	1172
ful	1173
as	1174
conf	1175
law	1176
eng	1177
mark	1178
plan	1179
child	1180
##alk	1181
sur	1182
ous	1183
##cy	1184
house	1185
found	1186
place	1187
though	1188
##ey	1189
sm	1190
good	1191
isra	1192
iz	1193
person	1194
cro	1195
around	1196
vis	1197
##,{"	1198
ist	1199
run	1200
bre	1201
2024	1202
que	1203
star	1204
sy	1205
still	1206
serv	1207
##king	1208
ann	1209
put	1210
ga	1211
vi	1212
##ical	1213
point	1214
much	1215
##vest	1216
wom	1217
cle	1218
vot	1219
sen	1220
ies	1221
il	1222
##ctor	1223
care	1224
##ving	1225
##ph	1226
##alth	1227
ban	1228
invest	1229
##ory	1230
change	1231
ia	1232
four	1233
mod	1234
000	1235
##eric	1236
des	1237
air	1238
court	1239
##ute	1240
big	1241
clo	1242
follow	1243
hould	1244
bl	1245
ge	1246
news	1247
10	1248
da	1249
ough	1250
bel	1251
since	1252
ham	1253
##fect	1254
camp	1255
open	1256
fit	1257
ste	1258
jp	1259
block	1260
americ	1261
##ind	1262
##ttp	1263
http	1264
:/	1265
country	1266
://	1267
city	1268
second	1269
##ital	1270
election	1271
give	1272
case	1273
contin	1274
bus	1275
##oup	1276
accord	1277
bar	1278
far	1279
office	1280
##cer	1281
##ffer	1282
quality	1283
post	1284
live	1285
cred	1286
hand	1287
happ	1288
cross	1289
auto	1290
exper	1291
rel	1292
group	1293
los	1294
love	1295
##os	1296
max	1297
uch	1298
ian	1299
nor	1300
##pl	1301
appe	1302
member	1303
mean	1304
russ	1305
##ers	1306
##ru	1307
ber	1308
##ween	1309
##ular	1310
feel	1311
ations	1312
both	1313
##ner	1314
ities	1315
met	1316
##ssion	1317
full	1318
##ilit	1319
##eral	1320
dep	1321
cur	1322
health	1323
master	1324
try	1325
continu	1326
fil	1327
bas	1328
between	1329
##ang	1330
bra	1331
del	1332
politic	1333
##20	1334
east	1335
got	1336
test	1337
night	1338
trans	1339
##cc	1340
best	1341
prot	1342
pri	1343
let	1344
came	1345
loc	1346
produ	1347
stud	1348
leg	1349
season	1350
iss	1351
##io	1352
biden	1353
ways	1354
self	1355
##ower	1356
##icial	1357
family	1358
top	1359
##ene	1360
final	1361
ob	1362
##ix	1363
party	1364
##da	1365
##ount	1366
##hing	1367
##ated	1368
left	1369
dire	1370
che	1371
##rc	1372
ton	1373
ask	1374
share	1375
##..	1376
resp	1377
million	1378
face	1379
##ject	1380
led	1381
ame	1382
men	1383
here	1384
sk	1385
src	1386
use	1387
claim	1388
##ab	1389
jpg	1390
pay	1391
ember	1392
sim	1393
ir	1394
turn	1395
event	1396
##ience	1397
##ty	1398
##outh	1399
attack	1400
mid	1401
pos	1402
##40	1403
art	1404
prov	1405
##be	1406
##og	1407
##ote	1408
##iend	1409
great	1410
##lish	1411
friend	1412
bro	1413
##eng	1414
expect	1415
##iz	1416
det	1417
##iev	1418
12	1419
##ren	1420
...	1421
lot	1422
bla	1423
ration	1424
##ool	1425
##ief	1426
##any	1427
inst	1428
##ace	1429
##sday	1430
##der	1431
mus	1432
cap	1433
official	1434
too	1435
ments	1436
never	1437
ence	1438
red	1439
na	1440
near	1441
service	1442
low	1443
num	1444
sw	1445
##ven	1446
0_	1447
hen	1448
stand	1449
##ious	1450
##leg	1451
school	1452
##ple	1453
##ott	1454
##ield	1455
strong	1456
free	1457
##ied	1458
image	1459
fore	1460
ward	1461
##uc	1462
##ac	1463
unit	1464
sign	1465
power	1466
##sp	1467
find	1468
ball	1469
ong	1470
gre	1471
av	1472
ref	1473
stre	1474
##ric	1475
ating	1476
port	1477
sun	1478
##ract	1479
credit	1480
element	1481
lar	1482
leader	1483
##uro	1484
force	1485
bod	1486
real	1487
ative	1488
fan	1489
rate	1490
are	1491
##ork	1492
##ather	1493
hold	1494
ready	1495
##ram	1496
##end	1497
ukra	1498
commun	1499
den	1500
hal	1501
##ne	1502
net	1503
special	1504
mis	1505
south	1506
days	1507
##min	1508
ie	1509
pass	1510
pat	1511
een	1512
fire	1513
mat	1514
def	1515
som	1516
15	1517
##ient	1518
differ	1519
##ution	1520
##aign	1521
campaign	1522
appear	1523
coming	1524
kill	1525
youn	1526
lab	1527
american	1528
euro	1529
ions	1530
et	1531
##oun	1532
return	1533
##ib	1534
sub	1535
##rat	1536
prom	1537
adv	1538
pop	1539
water	1540
children	1541
away	1542
foot	1543
ness	1544
ris	1545
cor	1546
press	1547
young	1548
##iness	1549
close	1550
business	1551
number	1552
maj	1553
##ert	1554
int	1555
inv	1556
clear	1557
##other	1558
build	1559
##onom	1560
},{"	1561
wo	1562
##ral	1563
##ush	1564
social	1565
hard	1566
cost	1567
large	1568
police	1569
rest	1570
##,"	1571
later	1572
keep	1573
##gan	1574
women	1575
##ific	1576
colle	1577
remain	1578
##iday	1579
provid	1580
##ague	1581
##iate	1582
econom	1583
five	1584
val	1585
##arch	1586
few	1587
book	1588
cra	1589
elect	1590
##ility	1591
company	1592
deal	1593
hit	1594
vict	1595
won	1596
six	1597
##vi	1598
ster	1599
##ister	1600
##ier	1601
major	1602
record	1603
##ittle	1604
rs	1605
##her	1606
field	1607
ger	1608
oper	1609
##de	1610
issue	1611
##view	1612
little	1613
chin	1614
sure	1615
##gress	1616
didn	1617
happen	1618
##unch	1619
30	1620
move	1621
ine	1622
hum	1623
deb	1624
##ision	1625
coun	1626
area	1627
ling	1628
sol	1629
light	1630
talk	1631
took	1632
mini	1633
pan	1634
tex	1635
##cing	1636
##80	1637
ll	1638
hu	1639
##ocrat	1640
opp	1641
film	1642
arm	1643
##60	1644
##mm	1645
quest	1646
cha	1647
11	1648
market	1649
ign	1650
##ock	1651
grow	1652
fur	1653
dra	1654
poss	1655
brit	1656
##up	1657
##velop	1658
democrat	1659
body	1660
mom	1661
200	1662
##ger	1663
##ething	1664
local	1665
something	1666
believ	1667
appro	1668
why	1669
milit	1670
break	1671
##ken	1672
result	1673
##dition	1674
develop	1675
##ounce	1676
allow	1677
##ption	1678
might	1679
##no	1680
term	1681
meet	1682
cal	1683
watch	1684
rat	1685
phot	1686
half	1687
mov	1688
jan	1689
model	1690
45	1691
import	1692
),	1693
making	1694
creat	1695
hour	1696
north	1697
vide	1698
speak	1699
park	1700
black	1701
##ret	1702
price	1703
17	1704
video	1705
auth	1706
##rib	1707
cut	1708
west	1709
cho	1710
##stem	1711
ley	1712
system	1713
pur	1714
better	1715
dri	1716
pet	1717
##ont	1718
emp	1719
past	1720
money	1721
hist	1722
##ba	1723
##ety	1724
##lain	1725
log	1726
key	1727
pal	1728
position	1729
##itch	1730
pot	1731
til	1732
##atur	1733
list	1734
fund	1735
tech	1736
##ank	1737
##30	1738
thir	1739
white	1740
je	1741
partic	1742
##ible	1743
concer	1744
view	1745
##ark	1746
decision	1747
respon	1748
##urity	1749
comment	1750
job	1751
different	1752
ism	1753
"}	1754
wed	1755
question	1756
##ec	1757
sl	1758
perform	1759
disc	1760
ecurity	1761
##rent	1762
ju	1763
harri	1764
dy	1765
each	1766
##ury	1767
death	1768
##ider	1769
.'	1770
##ten	1771
announce	1772
having	1773
##hn	1774
author	1775
experience	1776
name	1777
train	1778
along	1779
ef	1780
minute	1781
poli	1782
2023	1783
2022	1784
stri	1785
##ning	1786
ey	1787
##bc	1788
##fit	1789
lin	1790
bat	1791
york	1792
##icture	1793
##pend	1794
tar	1795
picture	1796
match	1797
ped	1798
organ	1799
comple	1800
host	1801
sport	1802
##ald	1803
moment	1804
level	1805
ell	1806
const	1807
food	1808
known	1809
ins	1810
jud	1811
ut	1812
eff	1813
##rist	1814
visit	1815
ple	1816
##dd	1817
room	1818
john	1819
).	1820
##inal	1821
reve	1822
alleg	1823
reveal	1824
ated	1825
##ik	1826
18	1827
league	1828
du	1829
cy	1830
gaz	1831
ought	1832
india	1833
whi	1834
short	1835
jun	1836
##ivers	1837
parent	1838
current	1839
ukraine	1840
non	1841
dist	1842
##gu	1843
##loy	1844
fall	1845
club	1846
eight	1847
europe	1848
wrote	1849
tell	1850
suc	1851
univers	1852
ill	1853
ul	1854
##red	1855
##35	1856
interest	1857
##pr	1858
eries	1859
lu	1860
hope	1861
ground	1862
cand	1863
militar	1864
small	1865
hol	1866
inform	1867
page	1868
ised	1869
order	1870
publican	1871
sha	1872
tax	1873
##res	1874
goal	1875
walk	1876
chief	1877
critic	1878
##ee	1879
##erg	1880
general	1881
bank	1882
treat	1883
toget	1884
together	1885
contro	1886
human	1887
sex	1888
thought	1889
concern	1890
summ	1891
class	1892
##ift	1893
depart	1894
##45	1895
pen	1896
chall	1897
ability	1898
inf	1899
must	1900
##inian	1901
sug	1902
bill	1903
seem	1904
25	1905
bit	1906
mc	1907
role	1908
##ceive	1909
##ton	1910
eas	1911
ting	1912
##iam	1913
dro	1914
due	1915
step	1916
spite	1917
consider	1918
ably	1919
13	1920
sta	1921
##que	1922
phone	1923
##ward	1924
taking	1925
dou	1926
reach	1927
fight	1928
wide	1929
fut	1930
ial	1931
##ata	1932
##ource	1933
##duc	1934
defe	1935
##par	1936
hot	1937
##ife	1938
glo	1939
hind	1940
85	1941
champ	1942
action	1943
ries	1944
##tle	1945
##ci	1946
bi	1947
cit	1948
mother	1949
challeng	1950
##10	1951
##fa	1952
protect	1953
mur	1954
space	1955
direct	1956
##mp	1957
often	1958
future	1959
50	1960
##lement	1961
taken	1962
heart	1963
##ival	1964
viol	1965
mig	1966
cele	1967
ai	1968
##man	1969
##71	1970
14	1971
receive	1972
##25	1973
##az	1974
##cus	1975
risk	1976
oct	1977
feat	1978
ite	1979
ago	1980
super	1981
##0_	1982
gett	1983
success	1984
today	1985
celeb	1986
ten	1987
region	1988
christ	1989
process	1990
##over	1991
launch	1992
hosp	1993
secret	1994
text	1995
##89	1996
agree	1997
champion	1998
aust	1999
important	2000
seat	2001
tour	2002
hospital	2003
ors	2004
travel	2005
tue	2006
lond	2007
##ourn	2008
gan	2009
lat	2010
london	2011
israel	2012
friday	2013
story	2014
focus	2015
ential	2016
dom	2017
data	2018
whet	2019
front	2020
cam	2021
board	2022
gar	2023
bur	2024
ide	2025
ri	2026
##blem	2027
ously	2028
relation	2029
migr	2030
bir	2031
cert	2032
##15	2033
fel	2034
fail	2035
done	2036
##ave	2037
##36	2038
strike	2039
control	2040
donald	2041
kind	2042
##vers	2043
problem	2044
fully	2045
##ose	2046
israeli	2047
mer	2048
##irl	2049
target	2050
##72	2051
stead	2052
stay	2053
16	2054
design	2055
##imat	2056
china	2057
prop	2058
join	2059
tuesday	2060
account	2061
mor	2062
nov	2063
street	2064
wash	2065
##ention	2066
student	2067
deep	2068
effect	2069
60	2070
##cent	2071
inte	2072
depend	2073
enter	2074
fed	2075
##icket	2076
##rest	2077
100	2078
##gest	2079
##</	2080
prog	2081
woman	2082
partner	2083
##olve	2084
##irm	2085
project	2086
flo	2087
further	2088
suggest	2089
##ca	2090
##nes	2091
charge	2092
gold	2093
requ	2094
##32	2095
late	2096
ington	2097
once	2098
program	2099
##ash	2100
##90	2101
ping	2102
cover	2103
ese	2104
ett	2105
ident	2106
town	2107
candid	2108
##oke	2109
##iti	2110
##ior	2111
warn	2112
ther	2113
sus	2114
cult	2115
wood	2116
ature	2117
poll	2118
journ	2119
lim	2120
thur	2121
fun	2122
tro	2123
boy	2124
san	2125
##empt	2126
mess	2127
ier	2128
##play	2129
shot	2130
building	2131
wednes	2132
wednesda	2133
##99	2134
employ	2135
energ	2136
getty	2137
os	2138
display	2139
product	2140
ice	2141
green	2142
couple	2143
girl	2144
vo	2145
bad	2146
tit	2147
priv	2148
##unt	2149
effort	2150
ach	2151
race	2152
##ov	2153
seven	2154
reason	2155
round	2156
saw	2157
jam	2158
exc	2159
stop	2160
##bal	2161
kid	2162
ib	2163
dav	2164
prime	2165
accus	2166
occ	2167
condition	2168
thursday	2169
wards	2170
creas	2171
summer	2172
dam	2173
minister	2174
40	2175
road	2176
victor	2177
##resent	2178
fer	2179
mass	2180
buy	2181
deliver	2182
##icle	2183
possible	2184
##cept	2185
bord	2186
dpr	2187
ser	2188
sea	2189
sho	2190
iv	2191
pu	2192
yet	2193
gl	2194
wind	2195
career	2196
access	2197
leave	2198
staff	2199
##ala	2200
conv	2201
complete	2202
legal	2203
ified	2204
march	2205
##arn	2206
represent	2207
pick	2208
bed	2209
fact	2210
require	2211
quar	2212
hor	2213
##16	2214
music	2215
king	2216
ven	2217
##cil	2218
impact	2219
vir	2220
billion	2221
var	2222
vol	2223
##ificant	2224
ignificant	2225
course	2226
fal	2227
um	2228
word	2229
interview	2230
lier	2231
##ensive	2232
main	2233
arrest	2234
tic	2235
"},{"	2236
ising	2237
fav	2238
drop	2239
feature	2240
gener	2241
vision	2242
mich	2243
particular	2244
federal	2245
hear	2246
present	2247
##fic	2248
##minist	2249
tre	2250
##ilt	2251
eye	2252
proper	2253
attempt	2254
administ	2255
satur	2256
##ah	2257
history	2258
##19	2259
##83	2260
##ison	2261
personal	2262
mot	2263
percent	2264
confirm	2265
ble	2266
##17	2267
ates	2268
rese	2269
ish	2270
suit	2271
ized	2272
protest	2273
fre	2274
explain	2275
ben	2276
##land	2277
##ughter	2278
activ	2279
coach	2280
##cum	2281
##rov	2282
roy	2283
held	2284
saturday	2285
improv	2286
##ball	2287
hy	2288
rule	2289
scot	2290
football	2291
photo	2292
##ze	2293
information	2294
##bb	2295
coll	2296
decid	2297
labour	2298
involve	2299
father	2300
##85	2301
grand	2302
render	2303
global	2304
quarter	2305
fast	2306
apr	2307
austral	2308
gun	2309
wait	2310
judge	2311
dot	2312
quick	2313
australia	2314
##39	2315
rich	2316
vice	2317
cust	2318
anti	2319
broad	2320
exec	2321
sn	2322
dan	2323
fla	2324
##ator	2325
tru	2326
guard	2327
finan	2328
ator	2329
##ateg	2330
ari	2331
bene	2332
##oy	2333
octo	2334
felt	2335
hon	2336
mult	2337
nce	2338
##12	2339
##org	2340
source	2341
les	2342
typ	2343
tor	2344
24	2345
limit	2346
##cast	2347
learn	2348
custom	2349
profe	2350
ties	2351
##stand	2352
sept	2353
understand	2354
tv	2355
beat	2356
indust	2357
brand	2358
forward	2359
financial	2360
decade	2361
##ugg	2362
pain	2363
thank	2364
##tal	2365
card	2366
stage	2367
emer	2368
han	2369
british	2370
sale	2371
afric	2372
trial	2373
avail	2374
certain	2375
aug	2376
actual	2377
fig	2378
worth	2379
##dle	2380
crease	2381
opport	2382
##66	2383
##icy	2384
operation	2385
dog	2386
mak	2387
policy	2388
sty	2389
simpl	2390
##ys	2391
manage	2392
box	2393
##ased	2394
title	2395
push	2396
argu	2397
matter	2398
council	2399
economic	2400
mission	2401
total	2402
lines	2403
border	2404
kh	2405
mile	2406
river	2407
inciden	2408
wife	2409
2020	2410
produc	2411
morn	2412
morning	2413
cast	2414
weight	2415
ring	2416
2021	2417
janu	2418
wel	2419
congress	2420
research	2421
dia	2422
writ	2423
0_0_	2424
bal	2425
##88	2426
##gn	2427
dre	2428
prose	2429
rad	2430
director	2431
running	2432
wear	2433
stat	2434
ise	2435
##ama	2436
##ense	2437
erious	2438
##ency	2439
equ	2440
ize	2441
emerge	2442
##,""	2443
_ty	2444
itu	2445
finish	2446
_type	2447
ists	2448
georg	2449
centre	2450
track	2451
explo	2452
bea	2453
crime	2454
demand	2455
german	2456
##raph	2457
35	2458
va	2459
##ilar	2460
igation	2461
figure	2462
</	2463
emb	2464
initi	2465
,'	2466
spec	2467
##44	2468
bud	2469
prob	2470
##27	2471
expert	2472
##ary	2473
civ	2474
eth	2475
dead	2476
mind	2477
check	2478
cup	2479
swe	2480
daughter	2481
america	2482
attend	2483
store	2484
##rem	2485
ts	2486
##ml	2487
publish	2488
##24	2489
ht	2490
##ror	2491
value	2492
commit	2493
rele	2494
true	2495
released	2496
ample	2497
scott	2498
detail	2499
##ager	2500
##rict	2501
joe	2502
indian	2503
respond	2504
bow	2505
der	2506
##ea	2507
union	2508
civil	2509
ti	2510
rock	2511
living	2512
safe	2513
ak	2514
conserv	2515
##ension	2516
ina	2517
link	2518
ka	2519
##f5	2520
##oma	2521
capt	2522
trugg	2523
iran	2524
nom	2525
##ode	2526
drive	2527
dig	2528
lease	2529
crim	2530
prison	2531
owner	2532
false	2533
##element	2534
##pri	2535
reduc	2536
22	2537
search	2538
peri	2539
fair	2540
assist	2541
##86	2542
island	2543
privat	2544
##self	2545
base	2546
hama	2547
similar	2548
rath	2549
spot	2550
address	2551
blockelement	2552
21	2553
ees	2554
shop	2555
sel	2556
prim	2557
anger	2558
claimed	2559
pressur	2560
iffic	2561
ifficult	2562
nam	2563
ible	2564
##ma	2565
scene	2566
himself	2567
##ruct	2568
##oint	2569
comb	2570
wall	2571
##co	2572
##mi	2573
##joy	2574
ford	2575
##uel	2576
vill	2577
enjoy	2578
oly	2579
table	2580
vious	2581
plat	2582
afety	2583
trib	2584
defend	2585
olymp	2586
neg	2587
unity	2588
aud	2589
ps	2590
miss	2591
mediate	2592
ituation	2593
ingly	2594
soon	2595
##ength	2596
ja	2597
heav	2598
approach	2599
##14	2600
leading	2601
abs	2602
##pped	2603
pack	2604
benefit	2605
sports	2606
vers	2607
html	2608
##oud	2609
ang	2610
educ	2611
review	2612
respons	2613
response	2614
jack	2615
spoke	2616
clos	2617
adm	2618
amaz	2619
scor	2620
period	2621
mate	2622
hur	2623
##18	2624
express	2625
##wer	2626
panies	2627
##000	2628
gi	2629
capital	2630
##ves	2631
gla	2632
option	2633
via	2634
##bs	2635
suffer	2636
sold	2637
huge	2638
victim	2639
>,""	2640
spect	2641
aid	2642
ken	2643
ure	2644
##ication	2645
firm	2646
earn	2647
pent	2648
##26	2649
spokes	2650
##33	2651
drug	2652
pract	2653
van	2654
##uct	2655
##49	2656
##verage	2657
trust	2658
central	2659
calif	2660
style	2661
aff	2662
august	2663
criminal	2664
selves	2665
##row	2666
##cut	2667
images	2668
industry	2669
whole	2670
##rupt	2671
hop	2672
range	2673
##ative	2674
##lex	2675
royal	2676
mad	2677
prem	2678
deter	2679
shoot	2680
##asure	2681
docum	2682
##duct	2683
document	2684
##vent	2685
door	2686
##itted	2687
##e5	2688
ner	2689
middle	2690
compar	2691
fear	2692
":"<	2693
orig	2694
winn	2695
nothing	2696
addition	2697
palest	2698
##idence	2699
beaut	2700
quite	2701
palestinian	2702
?"	2703
serve	2704
##ane	2705
plann	2706
hus	2707
tur	2708
##ude	2709
prince	2710
heat	2711
charact	2712
character	2713
ange	2714
sil	2715
flight	2716
popular	2717
pie	2718
stock	2719
prepar	2720
resident	2721
utive	2722
jury	2723
##agram	2724
instagram	2725
chair	2726
ep	2727
marri	2728
common	2729
##tain	2730
##rive	2731
##ivid	2732
##95	2733
cris	2734
dest	2735
fort	2736
olympic	2737
fra	2738
sound	2739
chest	2740
accept	2741
om	2742
enc	2743
desc	2744
##lect	2745
cir	2746
env	2747
murder	2748
struct	2749
ave	2750
##ograph	2751
##ha	2752
##gin	2753
##ipl	2754
manager	2755
##ornia	2756
ran	2757
assa	2758
2019	2759
california	2760
hall	2761
##f0	2762
ants	2763
lock	2764
rates	2765
bbc	2766
spa	2767
propos	2768
giv	2769
development	2770
farm	2771
ler	2772
wal	2773
##b0	2774
tele	2775
##uch	2776
##ench	2777
evidence	2778
platform	2779
wrong	2780
##uss	2781
##idge	2782
individ	2783
##onment	2784
##ironment	2785
crow	2786
environment	2787
individual	2788
france	2789
caus	2790
workers	2791
extra	2792
usual	2793
olo	2794
previ	2795
urge	2796
commi	2797
department	2798
##imate	2799
##by	2800
##rage	2801
scre	2802
senior	2803
david	2804
angel	2805
23	2806
ny	2807
nar	2808
##dge	2809
veh	2810
commission	2811
##band	2812
##erence	2813
##cel	2814
affect	2815
husband	2816
oil	2817
dai	2818
responsib	2819
clean	2820
foreign	2821
aim	2822
rise	2823
prevent	2824
sense	2825
'.	2826
##cl	2827
##rap	2828
blue	2829
journal	2830
ye	2831
vari	2832
gue	2833
pair	2834
##ony	2835
extrem	2836
pool	2837
pra	2838
tal	2839
ada	2840
william	2841
photograph	2842
nine	2843
##oid	2844
chem	2845
easy	2846
500	2847
##otion	2848
aging	2849
strateg	2850
touch	2851
venue	2852
ify	2853
prior	2854
growth	2855
26	2856
sle	2857
assoc	2858
##f7	2859
terri	2860
uring	2861
vehicle	2862
average	2863
hreat	2864
gave	2865
cancer	2866
##stic	2867
kar	2868
chan	2869
shar	2870
debate	2871
budget	2872
ned	2873
rated	2874
##ness	2875
counter	2876
song	2877
instit	2878
nomin	2879
##ex	2880
tom	2881
stra	2882
piece	2883
ious	2884
mos	2885
pari	2886
born	2887
cat	2888
amount	2889
sin	2890
phil	2891
actor	2892
##ern	2893
fest	2894
jur	2895
tun	2896
doctor	2897
consum	2898
wee	2899
rob	2900
##mer	2901
score	2902
screen	2903
##gg	2904
heard	2905
remov	2906
rom	2907
rout	2908
discuss	2909
dependent	2910
fac	2911
twi	2912
charg	2913
ult	2914
##87	2915
paper	2916
sent	2917
##ech	2918
mil	2919
ali	2920
sav	2921
parl	2922
tion	2923
exist	2924
peace	2925
phys	2926
defense	2927
paid	2928
lit	2929
sal	2930
##era	2931
measure	2932
birth	2933
ee	2934
norm	2935
":[	2936
path	2937
##bit	2938
entire	2939
french	2940
appeal	2941
education	2942
ath	2943
perfect	2944
feb	2945
patient	2946
sam	2947
##iament	2948
parliament	2949
rain	2950
hotel	2951
dress	2952
eu	2953
fence	2954
ns	2955
premier	2956
##read	2957
speech	2958
hill	2959
ium	2960
nc	2961
holiday	2962
sexual	2963
bri	2964
fran	2965
lack	2966
##asion	2967
tem	2968
roll	2969
27	2970
##oric	2971
kids	2972
damage	2973
neigh	2974
neighb	2975
##a0	2976
band	2977
crowd	2978
ticket	2979
conduct	2980
shock	2981
regul	2982
petition	2983
##22	2984
stone	2985
ess	2986
ians	2987
mart	2988
wild	2989
thous	2990
leav	2991
pend	2992
thousand	2993
gone	2994
works	2995
choice	2996
spr	2997
##ost	2998
avoid	2999
##ban	3000
stor	3001
sand	3002
##kend	3003
weekend	3004
skin	3005
pleas	3006
.</	3007
##ga	3008
##orce	3009
repe	3010
ans	3011
movie	3012
ct	3013
cas	3014
brother	3015
##ribed	3016
described	3017
ol	3018
institut	3019
febru	3020
rul	3021
##af	3022
eith	3023
##cd	3024
##11	3025
hood	3026
##34	3027
logy	3028
double	3029
structure	3030
pending	3031
ron	3032
techno	3033
medical	3034
##62	3035
type	3036
##a5	3037
station	3038
smith	3039
ease	3040
jon	3041
ted	3042
##ament	3043
scar	3044
tradition	3045
migrant	3046
driv	3047
ni	3048
favour	3049
nig	3050
popul	3051
gas	3052
kick	3053
##eria	3054
study	3055
ukrainian	3056
mount	3057
medic	3058
families	3059
fill	3060
lay	3061
blood	3062
mal	3063
arrive	3064
storm	3065
carri	3066
chester	3067
ord	3068
##xic	3069
div	3070
flation	3071
answer	3072
##mas	3073
chel	3074
##onder	3075
climat	3076
teen	3077
drink	3078
christmas	3079
memor	3080
##68	3081
##ka	3082
burn	3083
vil	3084
complain	3085
progress	3086
mel	3087
acy	3088
flor	3089
discover	3090
culture	3091
##aly	3092
sky	3093
intro	3094
pull	3095
80	3096
beach	3097
bor	3098
brita	3099
ships	3100
giving	3101
para	3102
africa	3103
##a9	3104
##ential	3105
trip	3106
hair	3107
mac	3108
cop	3109
##fort	3110
hat	3111
##isl	3112
teach	3113
comfort	3114
##ally	3115
promise	3116
ko	3117
anim	3118
loved	3119
sleep	3120
##itor	3121
weap	3122
draw	3123
weapon	3124
row	3125
excit	3126
oh	3127
##umb	3128
poor	3129
contract	3130
##emic	3131
attorn	3132
attorney	3133
natur	3134
##75	3135
##70	3136
##ham	3137
ram	3138
##65	3139
coast	3140
plant	3141
##fer	3142
rating	3143
slow	3144
##omb	3145
199	3146
battle	3147
gain	3148
##bert	3149
natural	3150
rival	3151
##64	3152
estab	3153
crisis	3154
##cle	3155
legisl	3156
tribute	3157
bott	3158
##irt	3159
trade	3160
engage	3161
##48	3162
paul	3163
standard	3164
bon	3165
##ght	3166
agency	3167
multipl	3168
dream	3169
ren	3170
mag	3171
site	3172
cry	3173
pin	3174
##ael	3175
compet	3176
regular	3177
conflic	3178
collect	3179
olog	3180
establish	3181
spread	3182
soft	3183
voice	3184
truggle	3185
ky	3186
tu	3187
wonder	3188
##ess	3189
factor	3190
named	3191
##ris	3192
lation	3193
##na	3194
letter	3195
tim	3196
prosecut	3197
##ndred	3198
content	3199
hundred	3200
weather	3201
ney	3202
sell	3203
arch	3204
##dict	3205
stream	3206
standing	3207
28	3208
mp	3209
##nect	3210
rough	3211
##iel	3212
connect	3213
aware	3214
determin	3215
profession	3216
ordin	3217
regard	3218
practic	3219
yard	3220
cook	3221
carry	3222
associate	3223
date	3224
nav	3225
##f9	3226
respect	3227
##ste	3228
solution	3229
repeat	3230
ya	3231
mas	3232
##lace	3233
michael	3234
pitch	3235
bey	3236
wester	3237
contact	3238
replace	3239
western	3240
baby	3241
##ffic	3242
##pm	3243
##bt	3244
issu	3245
corn	3246
sched	3247
reflect	3248
29	3249
estimat	3250
bowl	3251
##uth	3252
warm	3253
hap	3254
posit	3255
truck	3256
ances	3257
award	3258
facilit	3259
bridge	3260
##ove	3261
recover	3262
kam	3263
vet	3264
##c0	3265
##c5	3266
##ara	3267
mental	3268
suspect	3269
gard	3270
fix	3271
gin	3272
production	3273
cow	3274
lang	3275
##78	3276
artist	3277
craft	3278
##ung	3279
effective	3280
migration	3281
digital	3282
##olut	3283
emotion	3284
alter	3285
terror	3286
original	3287
beh	3288
necess	3289
retire	3290
sat	3291
appearance	3292
jap	3293
##\"	3294
##ily	3295
##sen	3296
sector	3297
lan	3298
ught	3299
ves	3300
##69	3301
##do	3302
ality	3303
maint	3304
2025	3305
camera	3306
specific	3307
maintain	3308
##ceed	3309
profit	3310
settle	3311
die	3312
absolut	3313
##yer	3314
throw	3315
ily	3316
##b5	3317
##luence	3318
built	3319
secure	3320
surpri	3321
influence	3322
surprise	3323
mob	3324
particip	3325
japan	3326
.,	3327
620	3328
=\"	3329
hunt	3330
##aur	3331
poke	3332
scottish	3333
fox	3334
winner	3335
445	3336
gro	3337
convers	3338
rose	3339
schedul	3340
sentence	3341
normal	3342
insp	3343
reme	3344
inspir	3345
mum	3346
pir	3347
fell	3348
605	3349
payment	3350
##izen	3351
sort	3352
citizen	3353
ming	3354
ncy	3355
attention	3356
":[{"	3357
prett	3358
historic	3359
tin	3360
wit	3361
##d0	3362
##ize	3363
nigeria	3364
\"	3365
fish	3366
ana	3367
physical	3368
kore	3369
generation	3370
korea	3371
ov	3372
sight	3373
##itive	3374
encou	3375
300	3376
cash	3377
professional	3378
alex	3379
stad	3380
whe	3381
oc	3382
justice	3383
deni	3384
ara	3385
era	3386
shire	3387
fle	3388
defeat	3389
opt	3390
email	3391
electric	3392
##quest	3393
au	3394
above	3395
pand	3396
##stain	3397
ita	3398
fat	3399
tik	3400
request	3401
nel	3402
--	3403
rank	3404
separ	3405
separat	3406
##ney	3407
trength	3408
mix	3409
##ood	3410
bag	3411
conference	3412
##cu	3413
liver	3414
##app	3415
abuse	3416
ification	3417
partie	3418
apple	3419
village	3420
defin	3421
corp	3422
##yl	3423
fuel	3424
lad	3425
##mit	3426
dance	3427
##7b	3428
pi	3429
begin	3430
ray	3431
##irst	3432
##me	3433
2016	3434
intell	3435
essential	3436
ub	3437
webs	3438
active	3439
constit	3440
statu	3441
website	3442
mic	3443
ency	3444
":{"	3445
apart	3446
tay	3447
##73	3448
contain	3449
robert	3450
lied	3451
lawyer	3452
fine	3453
abort	3454
convict	3455
##omm	3456
harm	3457
makers	3458
athle	3459
introduc	3460
advance	3461
restaur	3462
tough	3463
sustain	3464
rap	3465
##ogn	3466
recogn	3467
surve	3468
related	3469
nat	3470
inn	3471
90	3472
fly	3473
##79	3474
illeg	3475
illegal	3476
andre	3477
fortun	3478
yo	3479
##ya	3480
ala	3481
corre	3482
afford	3483
charged	3484
##ake	3485
##br	3486
##ging	3487
##vert	3488
shift	3489
adult	3490
flu	3491
bum	3492
sir	3493
garden	3494
##light	3495
conne	3496
##ef	3497
ibility	3498
threat	3499
scri	3500
##ida	3501
location	3502
restaurant	3503
dark	3504
tory	3505
god	3506
placed	3507
putin	3508
penn	3509
!"	3510
##ced	3511
batter	3512
priorit	3513
oci	3514
alone	3515
demon	3516
bling	3517
wish	3518
##ify	3519
assault	3520
color	3521
mari	3522
kept	3523
2018	3524
dad	3525
highlight	3526
##pub	3527
sup	3528
sym	3529
inj	3530
imm	3531
closed	3532
##publish	3533
impress	3534
famous	3535
bay	3536
sey	3537
><	3538
##first	3539
mach	3540
predict	3541
indic	3542
surv	3543
blockfirst	3544
##published	3545
blockfirstpublished	3546
appoint	3547
len	3548
##e9	3549
grant	3550
remark	3551
delay	3552
obvi	3553
fighting	3554
mill	3555
rid	3556
stu	3557
quad	3558
fresh	3559
##fc	3560
##42	3561
exact	3562
annual	3563
martin	3564
##bd	3565
enger	3566
jew	3567
gh	3568
nh	3569
##tok	3570
##43	3571
##go	3572
cab	3573
floor	3574
bomb	3575
reform	3576
boost	3577
lined	3578
tiktok	3579
threaten	3580
tree	3581
ah	3582
pod	3583
deg	3584
mexic	3585
ash	3586
##work	3587
domin	3588
ip	3589
dev	3590
network	3591
florida	3592
gate	3593
##come	3594
##ling	3595
lake	3596
festival	3597
iving	3598
arr	3599
center	3600
elected	3601
welcome	3602
injure	3603
gent	3604
mail	3605
70	3606
wag	3607
district	3608
vic	3609
analy	3610
speed	3611
recall	3612
31	3613
cies	3614
version	3615
temper	3616
nt	3617
stress	3618
brown	3619
spend	3620
ki	3621
##force	3622
smart	3623
scored	3624
rang	3625
zone	3626
bull	3627
surviv	3628
vent	3629
dar	3630
doll	3631
tayl	3632
gm	3633
tip	3634
##urch	3635
nic	3636
##82	3637
contest	3638
rick	3639
boss	3640
ric	3641
##usion	3642
gy	3643
facing	3644
ators	3645
missile	3646
crash	3647
squ	3648
epis	3649
witness	3650
pandemic	3651
##ieve	3652
spring	3653
wan	3654
ancing	3655
label	3656
ociety	3657
ast	3658
cold	3659
gender	3660
episode	3661
ok	3662
cool	3663
agent	3664
georgi	3665
guilt	3666
journey	3667
behav	3668
ending	3669
rev	3670
ongo	3671
kin	3672
##ful	3673
queen	3674
##ape	3675
lift	3676
elling	3677
pad	3678
church	3679
drone	3680
debt	3681
audience	3682
jer	3683
lie	3684
##enty	3685
doubt	3686
shut	3687
beauti	3688
##50	3689
fem	3690
##4b	3691
trad	3692
##ization	3693
organization	3694
lies	3695
wing	3696
##c9	3697
prove	3698
jen	3699
attract	3700
nick	3701
##date	3702
update	3703
jail	3704
wale	3705
pak	3706
cream	3707
swift	3708
debut	3709
bid	3710
##able	3711
bear	3712
lev	3713
rent	3714
century	3715
winter	3716
##imin	3717
gri	3718
inner	3719
recomm	3720
kamala	3721
recommend	3722
ning	3723
##eb	3724
##nel	3725
wave	3726
##3d	3727
##olog	3728
advise	3729
##fb	3730
holding	3731
psy	3732
engine	3733
pun	3734
##_5	3735
##erate	3736
loan	3737
imag	3738
english	3739
modern	3740
juries	3741
angerous	3742
negot	3743
rh	3744
insist	3745
amazon	3746
straight	3747
traditional	3748
langu	3749
##ona	3750
flood	3751
dub	3752
##cue	3753
affa	3754
##ashion	3755
affair	3756
fuse	3757
fashion	3758
##nic	3759
manu	3760
rative	3761
bol	3762
lou	3763
sing	3764
scale	3765
fif	3766
eventual	3767
writer	3768
ites	3769
degree	3770
dish	3771
chat	3772
##olf	3773
luck	3774
balance	3775
ker	3776
bell	3777
jump	3778
pac	3779
solve	3780
intellig	3781
cus	3782
cient	3783
##1a	3784
chi	3785
carol	3786
construct	3787
universi	3788
journalist	3789
ku	3790
lic	3791
female	3792
32	3793
ones	3794
##quir	3795
putt	3796
brain	3797
favor	3798
writing	3799
combin	3800
demonst	3801
##f2	3802
prosecutor	3803
sister	3804
difference	3805
occur	3806
##cri	3807
##ural	3808
wil	3809
stick	3810
izing	3811
khan	3812
ncies	3813
##lare	3814
stood	3815
restrict	3816
mir	3817
##],"	3818
mun	3819
disp	3820
expand	3821
jones	3822
declare	3823
enforce	3824
scape	3825
contrib	3826
earth	3827
plane	3828
profess	3829
spective	3830
micro	3831
ww	3832
istic	3833
married	3834
##a2	3835
##e2	3836
##fd	3837
tourn	3838
trail	3839
tournament	3840
topped	3841
tag	3842
consist	3843
language	3844
frame	3845
trou	3846
committed	3847
2017	3848
intens	3849
reb	3850
boat	3851
##uci	3852
occasion	3853
bul	3854
nice	3855
doz	3856
cloth	3857
wi	3858
##nal	3859
reject	3860
rail	3861
berg	3862
subject	3863
encourage	3864
tan	3865
haven	3866
applic	3867
extend	3868
choos	3869
\">	3870
##472	3871
aries	3872
write	3873
colour	3874
constitution	3875
36	3876
##ker	3877
truth	3878
college	3879
##round	3880
arsen	3881
surround	3882
penal	3883
cheme	3884
arsenal	3885
ci	3886
chic	3887
troop	3888
proud	3889
##istan	3890
command	3891
ballot	3892
pension	3893
##zz	3894
pros	3895
skill	3896
connection	3897
pakistan	3898
raise	3899
flow	3900
obs	3901
horr	3902
nut	3903
##lim	3904
article	3905
dome	3906
index	3907
##wa	3908
hern	3909
reserv	3910
cultural	3911
catch	3912
mine	3913
brief	3914
rac	3915
cel	3916
tas	3917
ense	3918
laugh	3919
dry	3920
mont	3921
gather	3922
survey	3923
gor	3924
rum	3925
##ass	3926
##46	3927
tool	3928
stated	3929
traffic	3930
infra	3931
multi	3932
##inc	3933
allies	3934
guide	3935
retail	3936
window	3937
tack	3938
aged	3939
print	3940
48	3941
##action	3942
adam	3943
rescue	3944
strict	3945
mayor	3946
mike	3947
paint	3948
rod	3949
flag	3950
eek	3951
##oul	3952
chang	3953
ferred	3954
daniel	3955
gam	3956
rity	3957
##hib	3958
wealth	3959
trend	3960
talent	3961
##67	3962
##pper	3963
cere	3964
mater	3965
ow	3966
##c2	3967
material	3968
fee	3969
bright	3970
##hibit	3971
gall	3972
kel	3973
og	3974
##isc	3975
dollar	3976
lord	3977
##of	3978
confide	3979
captain	3980
soldier	3981
55	3982
##1b	3983
hav	3984
admitted	3985
lla	3986
##e8	3987
prof	3988
qui	3989
url	3990
49	3991
lash	3992
##ucle	3993
motor	3994
33	3995
##ria	3996
ack	3997
##c4	3998
user	3999
supply	4000
surf	4001
listen	4002
99	4003
##cise	4004
##racy	4005
logical	4006
ocracy	4007
nucle	4008
spl	4009
divers	4010
##quent	4011
fortunate	4012
ique	4013
cru	4014
ware	4015
achieve	4016
ically	4017
colleague	4018
fellow	4019
intelligence	4020
ard	4021
ginning	4022
rub	4023
vin	4024
ester	4025
nuclear	4026
mort	4027
crew	4028
labor	4029
##ons	4030
lyn	4031
correct	4032
fare	4033
mist	4034
tle	4035
wise	4036
##fact	4037
##ali	4038
minor	4039
nas	4040
##lad	4041
ultimate	4042
semi	4043
stuff	4044
##31	4045
alli	4046
resource	4047
gram	4048
flat	4049
starmer	4050
broke	4051
breaking	4052
broadcast	4053
eq	4054
ged	4055
##lam	4056
definite	4057
##arian	4058
lee	4059
esh	4060
wedd	4061
00	4062
##oph	4063
african	4064
glass	4065
lam	4066
ization	4067
##anyah	4068
netanyah	4069
bond	4070
odd	4071
ility	4072
rush	4073
##ero	4074
ress	4075
ens	4076
chain	4077
mand	4078
joy	4079
committ	4080
ception	4081
transp	4082
switch	4083
kenn	4084
committee	4085
bound	4086
ox	4087
##hi	4088
##roy	4089
musk	4090
hung	4091
sant	4092
##sea	4093
destroy	4094
chelsea	4095
arab	4096
ston	4097
##urb	4098
typical	4099
tee	4100
bru	4101
necessary	4102
psych	4103
ado	4104
maybe	4105
cities	4106
intend	4107
equal	4108
kate	4109
##now	4110
pose	4111
rah	4112
expos	4113
radio	4114
equip	4115
acknow	4116
gift	4117
##oo	4118
commer	4119
prompt	4120
##cul	4121
forest	4122
blow	4123
programme	4124
hid	4125
##bn	4126
assess	4127
ried	4128
##**	4129
##onent	4130
##chase	4131
feet	4132
##itten	4133
register	4134
gradu	4135
blame	4136
graph	4137
purchase	4138
bird	4139
46	4140
tight	4141
cancel	4142
written	4143
modi	4144
ville	4145
corner	4146
domestic	4147
eat	4148
lived	4149
planned	4150
route	4151
manufact	4152
manufactur	4153
code	4154
sequ	4155
transport	4156
mary	4157
complex	4158
conservative	4159
##cket	4160
goog	4161
teacher	4162
ay	4163
toda	4164
##isation	4165
liber	4166
note	4167
contra	4168
dismi	4169
##ago	4170
organisation	4171
veter	4172
dismiss	4173
##ube	4174
chicago	4175
cerem	4176
dict	4177
##usive	4178
credible	4179
neighbor	4180
37	4181
io	4182
##ron	4183
sco	4184
minim	4185
implement	4186
richard	4187
llah	4188
google	4189
##8a	4190
##zer	4191
##pping	4192
clar	4193
keeping	4194
udd	4195
frank	4196
entertain	4197
34	4198
kim	4199
ade	4200
integ	4201
altern	4202
crack	4203
burgh	4204
42	4205
##etic	4206
##edon	4207
clin	4208
lux	4209
bath	4210
medal	4211
giant	4212
mexico	4213
observ	4214
>\	4215
##van	4216
disapp	4217
clark	4218
refu	4219
disappoint	4220
ery	4221
##iment	4222
##unk	4223
##emb	4224
object	4225
male	4226
pil	4227
tter	4228
##cis	4229
##ni	4230
shape	4231
francis	4232
weak	4233
cruci	4234
broken	4235
insur	4236
##6b	4237
##orate	4238
plenty	4239
consult	4240
honest	4241
louis	4242
ii	4243
raj	4244
sweet	4245
luc	4246
##74	4247
isation	4248
veteran	4249
39	4250
sitt	4251
##d9	4252
offensive	4253
dipl	4254
arti	4255
guest	4256
sitting	4257
diploma	4258
mouth	4259
assemb	4260
2015	4261
hurt	4262
trouble	4263
',	4264
##e0	4265
##d5	4266
##ob	4267
##inion	4268
governor	4269
opinion	4270
opponent	4271
athlete	4272
eg	4273
muse	4274
museum	4275
coal	4276
hole	4277
cycle	4278
encing	4279
load	4280
asset	4281
##noon	4282
bour	4283
##c3	4284
ital	4285
##imb	4286
nes	4287
hero	4288
root	4289
afternoon	4290
kei	4291
##aps	4292
transform	4293
itarian	4294
##adow	4295
##opt	4296
upon	4297
marg	4298
capture	4299
maker	4300
chris	4301
horse	4302
##last	4303
mann	4304
www	4305
pound	4306
ino	4307
##ating	4308
##raw	4309
##gend	4310
##ada	4311
remind	4312
##acit	4313
pala	4314
vacc	4315
udden	4316
ji	4317
legend	4318
task	4319
jet	4320
pm	4321
itude	4322
adopt	4323
lative	4324
##6a	4325
gov	4326
joke	4327
cheap	4328
scribe	4329
nbc	4330
##so	4331
##creat	4332
##dated	4333
thoma	4334
##olk	4335
blocklast	4336
blockcreat	4337
advoc	4338
##updated	4339
ction	4340
blocklastupdated	4341
blockcreatedon	4342
cart	4343
ez	4344
hang	4345
pensive	4346
should	4347
meth	4348
draft	4349
neighbour	4350
jim	4351
za	4352
ition	4353
anth	4354
tend	4355
cell	4356
detect	4357
swim	4358
pic	4359
ral	4360
##cb	4361
##let	4362
disrupt	4363
soci	4364
rator	4365
kat	4366
vid	4367
##fl	4368
bert	4369
classic	4370
activity	4371
##_2	4372
##antage	4373
##ilities	4374
advantage	4375
square	4376
59	4377
75	4378
nur	4379
finance	4380
imagine	4381
sara	4382
atl	4383
scr	4384
38	4385
##_35	4386
cher	4387
uni	4388
breath	4389
approve	4390
marriage	4391
cath	4392
math	4393
tam	4394
tha	4395
christian	4396
mistake	4397
fant	4398
tance	4399
matt	4400
drag	4401
sequence	4402
ira	4403
##atic	4404
transfer	4405
capacit	4406
strip	4407
split	4408
vul	4409
##77	4410
##pose	4411
tear	4412
appre	4413
earl	4414
promote	4415
purpose	4416
collaps	4417
podcast	4418
vaccin	4419
core	4420
##ffe	4421
ager	4422
length	4423
##]}	4424
pirit	4425
negoti	4426
lor	4427
nd	4428
cease	4429
feed	4430
monitor	4431
twe	4432
clip	4433
ivity	4434
gon	4435
kil	4436
medi	4437
fraud	4438
bottom	4439
gang	4440
rene	4441
##84	4442
##abo	4443
liter	4444
prospect	4445
bio	4446
reli	4447
collabo	4448
castle	4449
mim	4450
tir	4451
##ledge	4452
willing	4453
aggress	4454
knock	4455
direction	4456
appropri	4457
constant	4458
snow	4459
singh	4460
acknowledge	4461
140	4462
##59	4463
leban	4464
braz	4465
locate	4466
lebanon	4467
din	4468
jay	4469
suppl	4470
rations	4471
##e3	4472
2014	4473
stret	4474
beauty	4475
tension	4476
wer	4477
amb	4478
collection	4479
ibly	4480
compete	4481
##8b	4482
accident	4483
transition	4484
hir	4485
nu	4486
##ky	4487
##za	4488
lean	4489
plus	4490
emph	4491
function	4492
nish	4493
##hol	4494
##ell	4495
chip	4496
peg	4497
quote	4498
categ	4499
py	4500
ami	4501
italian	4502
stretch	4503
nath	4504
##au	4505
fake	4506
invite	4507
regional	4508
dun	4509
nik	4510
studio	4511
hate	4512
apolog	4513
surger	4514
profile	4515
surgery	4516
neck	4517
trick	4518
drama	4519
confident	4520
bang	4521
ette	4522
47	4523
rt	4524
##63	4525
bei	4526
shadow	4527
sab	4528
grew	4529
steph	4530
bh	4531
mut	4532
islam	4533
moon	4534
attrib	4535
bench	4536
therap	4537
wake	4538
pregn	4539
flix	4540
##nov	4541
glas	4542
fused	4543
atlan	4544
65	4545
cu	4546
youth	4547
esca	4548
bos	4549
cricket	4550
changing	4551
##2a	4552
infect	4553
innov	4554
surface	4555
ride	4556
carl	4557
suppose	4558
forecast	4559
communication	4560
sharp	4561
renew	4562
##reg	4563
waste	4564
##ipp	4565
warr	4566
##itchen	4567
guardian	4568
ceremony	4569
bin	4570
bot	4571
zel	4572
##iour	4573
##ercise	4574
exercise	4575
meal	4576
behaviour	4577
appropriate	4578
400	4579
kitchen	4580
trap	4581
subs	4582
%.	4583
wine	4584
##dc	4585
sher	4586
mah	4587
##e4	4588
itv	4589
faith	4590
joint	4591
handle	4592
##81	4593
frust	4594
tail	4595
relig	4596
truggling	4597
bonus	4598
ubst	4599
analyst	4600
stan	4601
##ism	4602
chu	4603
##illi	4604
exam	4605
elector	4606
mates	4607
channel	4608
tackle	4609
golf	4610
hree	4611
##3a	4612
##ising	4613
shirt	4614
ambit	4615
resign	4616
120	4617
jul	4618
theat	4619
##igan	4620
tab	4621
presence	4622
irish	4623
isast	4624
ung	4625
kee	4626
brazil	4627
cn	4628
ging	4629
vac	4630
erty	4631
alco	4632
notice	4633
panel	4634
alcohol	4635
nfl	4636
wrap	4637
##arily	4638
stance	4639
fold	4640
reading	4641
solid	4642
regulation	4643
stances	4644
novel	4645
josh	4646
violent	4647
clinic	4648
44	4649
lief	4650
ug	4651
##iar	4652
##ino	4653
anna	4654
curren	4655
suspend	4656
cientist	4657
attribute	4658
sens	4659
tank	4660
##e6	4661
2000	4662
princ	4663
indicate	4664
emphas	4665
princip	4666
pel	4667
##uit	4668
reaction	4669
beth	4670
meg	4671
worry	4672
bodies	4673
honor	4674
nda	4675
yan	4676
web	4677
bron	4678
buck	4679
achiev	4680
insurance	4681
rafa	4682
excl	4683
luxu	4684
vulner	4685
dor	4686
gow	4687
umm	4688
wat	4689
##anch	4690
##icated	4691
lap	4692
proceed	4693
empor	4694
manda	4695
gap	4696
onic	4697
trig	4698
adj	4699
##guard	4700
wound	4701
##draw	4702
withdraw	4703
lew	4704
section	4705
fab	4706
boot	4707
assum	4708
charl	4709
ignor	4710
villa	4711
emporary	4712
mcc	4713
##3_	4714
lov	4715
peak	4716
boe	4717
guar	4718
></	4719
ck	4720
hom	4721
theor	4722
crown	4723
refer	4724
bottle	4725
excel	4726
2012	4727
elli	4728
guarant	4729
##23	4730
##ola	4731
dram	4732
admit	4733
dal	4734
abilities	4735
tact	4736
deploy	4737
150	4738
adapt	4739
mobile	4740
categor	4741
pott	4742
##air	4743
ani	4744
also	4745
brook	4746
quiet	4747
refuge	4748
guarantee	4749
kit	4750
lion	4751
}]}	4752
##orse	4753
##utch	4754
clusion	4755
clash	4756
"},"	4757
silver	4758
lau	4759
cogn	4760
ros	4761
ural	4762
concl	4763
covi	4764
maxim	4765
conclude	4766
##d4	4767
##zona	4768
##val	4769
arizona	4770
method	4771
trigger	4772
outs	4773
prize	4774
desti	4775
##ew	4776
##b4	4777
##gment	4778
##utor	4779
ical	4780
studi	4781
intention	4782
easily	4783
wheel	4784
por	4785
tum	4786
##syl	4787
##wh	4788
carb	4789
client	4790
recru	4791
divid	4792
pennsyl	4793
##vania	4794
recruit	4795
pennsylvania	4796
##oon	4797
##ena	4798
##inct	4799
enh	4800
advert	4801
grab	4802
shots	4803
praise	4804
spin	4805
simon	4806
cious	4807
cbs	4808
lis	4809
nan	4810
temp	4811
terr	4812
bask	4813
valu	4814
dod	4815
##f6	4816
enhance	4817
vast	4818
wicket	4819
hell	4820
frequent	4821
flex	4822
##f4	4823
##13	4824
##thern	4825
northern	4826
pledge	4827
commercial	4828
##ula	4829
wick	4830
fruit	4831
ski	4832
muslim	4833
signal	4834
jean	4835
snap	4836
routine	4837
egg	4838
ms	4839
ures	4840
chick	4841
desir	4842
brad	4843
600	4844
oce	4845
tens	4846
##57	4847
lib	4848
deput	4849
invasion	4850
palm	4851
technic	4852
generate	4853
michigan	4854
rapid	4855
.)	4856
##ssin	4857
alys	4858
syd	4859
amend	4860
install	4861
circum	4862
alysis	4863
##rate	4864
##ota	4865
helter	4866
fc	4867
strange	4868
explos	4869
negat	4870
##room	4871
elig	4872
grace	4873
jeff	4874
jr	4875
##d6	4876
diet	4877
reci	4878
swing	4879
##bai	4880
recognise	4881
folk	4882
##acy	4883
coin	4884
jose	4885
greg	4886
shake	4887
hyd	4888
##ypt	4889
##iff	4890
##pet	4891
verse	4892
crypt	4893
cond	4894
syn	4895
distance	4896
identify	4897
sanction	4898
assassin	4899
kenned	4900
egypt	4901
cade	4902
##29	4903
bourne	4904
eb	4905
jas	4906
ison	4907
##set	4908
##olution	4909
notes	4910
bak	4911
disney	4912
metre	4913
oppose	4914
competitive	4915
ocean	4916
pit	4917
##ki	4918
shore	4919
##udi	4920
closure	4921
xi	4922
##76	4923
##tic	4924
coffe	4925
brilli	4926
occup	4927
scoring	4928
mountain	4929
ology	4930
coffee	4931
brilliant	4932
dh	4933
prefer	4934
grown	4935
metro	4936
figh	4937
##ray	4938
emma	4939
fighter	4940
pp	4941
rot	4942
endorse	4943
igate	4944
43	4945
nba	4946
yn	4947
atory	4948
##ghan	4949
science	4950
racing	4951
accom	4952
kur	4953
edin	4954
##rian	4955
loy	4956
afghan	4957
spok	4958
holders	4959
basket	4960
sydney	4961
spoken	4962
##c8	4963
tok	4964
tries	4965
##ified	4966
planet	4967
lating	4968
salt	4969
##cussion	4970
dramatic	4971
vital	4972
##e1	4973
ingham	4974
##race	4975
chart	4976
las	4977
ledge	4978
41	4979
##f3	4980
##million	4981
cock	4982
ica	4983
belong	4984
magic	4985
tuck	4986
##ront	4987
reut	4988
react	4989
alert	4990
tel	4991
reuters	4992
%,	4993
gal	4994
jar	4995
sick	4996
upset	4997
aga	4998
pace	4999
