<unk>	0
<s>	0
</s>	0
▁t	-0
▁a	-1
he	-2
in	-3
re	-4
▁the	-5
on	-6
▁s	-7
er	-8
▁w	-9
en	-10
at	-11
▁c	-12
▁o	-13
it	-14
an	-15
ed	-16
ing	-17
▁f	-18
is	-19
or	-20
▁b	-21
es	-22
▁p	-23
▁to	-24
ar	-25
nd	-26
ou	-27
al	-28
▁in	-29
▁h	-30
▁m	-31
as	-32
▁of	-33
▁d	-34
▁and	-35
ic	-36
le	-37
▁th	-38
om	-39
ion	-40
il	-41
id	-42
ent	-43
▁T	-44
▁l	-45
▁re	-46
st	-47
ve	-48
▁n	-49
▁be	-50
ot	-51
▁g	-52
▁e	-53
▁I	-54
ly	-55
▁S	-56
▁on	-57
ay	-58
ut	-59
ac	-60
▁A	-61
ro	-62
▁for	-63
ad	-64
▁he	-65
am	-66
im	-67
et	-68
ur	-69
ow	-70
ig	-71
ol	-72
▁that	-73
el	-74
▁"	-75
▁M	-76
ver	-77
▁is	-78
▁st	-79
▁C	-80
ir	-81
▁B	-82
us	-83
ec	-84
ith	-85
▁it	-86
▁y	-87
ter	-88
▁wh	-89
▁with	-90
▁The	-91
▁was	-92
▁as	-93
ation	-94
▁H	-95
ill	-96
ce	-97
▁al	-98
▁P	-99
un	-100
▁an	-101
▁we	-102
ers	-103
▁at	-104
ld	-105
ra	-106
▁W	-107
os	-108
ul	-109
ke	-110
ri	-111
▁ha	-112
▁sa	-113
▁D	-114
and	-115
ch	-116
▁R	-117
est	-118
▁con	-119
her	-120
em	-121
pp	-122
ag	-123
ct	-124
if	-125
th	-126
ore	-127
▁2	-128
um	-129
rom	-130
ate	-131
▁N	-132
res	-133
▁r	-134
igh	-135
▁you	-136
ts	-137
ear	-138
▁F	-139
▁L	-140
▁said	-141
▁com	-142
▁G	-143
op	-144
▁his	-145
▁are	-146
▁v	-147
▁have	-148
ain	-149
▁has	-150
ew	-151
▁from	-152
▁sh	-153
od	-154
▁ex	-155
ess	-156
red	-157
▁ch	-158
▁by	-159
▁1	-160
oc	-161
ment	-162
ab	-163
art	-164
▁J	-165
ort	-166
▁E	-167
ity	-168
ould	-169
ive	-170
▁pro	-171
ust	-172
▁le	-173
up	-174
▁not	-175
▁se	-176
▁de	-177
end	-178
▁-	-179
all	-180
,"	-181
se	-182
ast	-183
ies	-184
ack	-185
our	-186
▁O	-187
▁j	-188
▁pl	-189
ak	-190
ist	-191
▁U	-192
▁su	-193
▁20	-194
ant	-195
▁go	-196
out	-197
qu	-198
ight	-199
▁ab	-200
gh	-201
▁this	-202
▁sp	-203
▁or	-204
ard	-205
ost	-206
ial	-207
iv	-208
."	-209
rou	-210
ud	-211
ome	-212
nt	-213
▁her	-214
▁K	-215
▁whe	-216
ia	-217
▁who	-218
▁will	-219
▁they	-220
ect	-221
▁wor	-222
ok	-223
ge	-224
▁their	-225
▁but	-226
▁k	-227
ell	-228
ong	-229
ice	-230
ich	-231
▁out	-232
▁had	-233
ep	-234
ide	-235
▁af	-236
ry	-237
▁(	-238
ine	-239
▁can	-240
▁ad	-241
▁year	-242
▁been	-243
▁she	-244
ap	-245
▁do	-246
ally	-247
▁int	-248
ans	-249
▁up	-250
▁off	-251
ous	-252
one	-253
ure	-254
▁ne	-255
▁all	-256
▁cl	-257
▁ag	-258
00	-259
ime	-260
ions	-261
▁ac	-262
▁me	-263
▁were	-264
▁un	-265
so	-266
▁In	-267
ie	-268
und	-269
ip	-270
▁more	-271
ff	-272
▁about	-273
▁Th	-274
▁after	-275
▁inc	-276
mer	-277
ame	-278
ub	-279
ther	-280
ike	-281
▁res	-282
▁which	-283
ays	-284
ue	-285
are	-286
ber	-287
ated	-288
ake	-289
▁exp	-290
▁also	-291
▁one	-292
ord	-293
▁pe	-294
ian	-295
▁us	-296
▁over	-297
▁so	-298
very	-299
▁It	-300
▁en	-301
age	-302
▁St	-303
ary	-304
ign	-305
ond	-306
▁He	-307
▁im	-308
▁comp	-309
ople	-310
▁Ch	-311
▁202	-312
ace	-313
ident	-314
ile	-315
▁cont	-316
▁would	-317
▁'	-318
ind	-319
▁lo	-320
ress	-321
▁its	-322
ose	-323
▁rep	-324
▁people	-325
▁part	-326
act	-327
ven	-328
ire	-329
▁pr	-330
ick	-331
ount	-332
▁man	-333
▁like	-334
▁when	-335
ance	-336
▁per	-337
wo	-338
▁tr	-339
ict	-340
▁rec	-341
own	-342
▁just	-343
av	-344
irst	-345
old	-346
▁dis	-347
ence	-348
ass	-349
▁V	-350
ite	-351
▁pol	-352
▁than	-353
ations	-354
▁my	-355
▁work	-356
ish	-357
ark	-358
▁app	-359
▁there	-360
▁new	-361
ump	-362
▁time	-363
▁sc	-364
▁bec	-365
lo	-366
able	-367
day	-368
ree	-369
lect	-370
▁ar	-371
▁them	-372
▁qu	-373
▁Y	-374
pt	-375
▁acc	-376
▁into	-377
ning	-378
orm	-379
uc	-380
ink	-381
▁kn	-382
ail	-383
ib	-384
ll	-385
▁Tr	-386
hed	-387
▁him	-388
aus	-389
▁get	-390
▁first	-391
ach	-392
▁other	-393
ound	-394
ens	-395
ough	-396
ek	-397
ild	-398
▁some	-399
▁ro	-400
amp	-401
og	-402
▁two	-403
ult	-404
ren	-405
▁what	-406
ical	-407
ase	-408
▁att	-409
▁play	-410
reat	-411
ors	-412
iz	-413
▁But	-414
oin	-415
lic	-416
▁could	-417
rit	-418
ade	-419
▁imp	-420
▁pre	-421
ne	-422
▁back	-423
▁te	-424
▁our	-425
ang	-426
anc	-427
▁your	-428
wn	-429
▁again	-430
▁3	-431
▁any	-432
▁years	-433
▁add	-434
ition	-435
ru	-436
▁dec	-437
ious	-438
ings	-439
▁act	-440
lud	-441
oll	-442
▁if	-443
▁co	-444
aw	-445
ory	-446
round	-447
▁no	-448
▁last	-449
▁Trump	-450
land	-451
▁und	-452
erv	-453
ause	-454
ting	-455
▁fe	-456
fe	-457
▁am	-458
ates	-459
▁sec	-460
fore	-461
uring	-462
other	-463
ock	-464
▁inv	-465
urn	-466
ents	-467
▁bo	-468
resident	-469
we	-470
ng	-471
vel	-472
▁now	-473
▁how	-474
▁includ	-475
ov	-476
rough	-477
enc	-478
..	-479
▁did	-480
iss	-481
ty	-482
ater	-483
▁And	-484
▁bet	-485
▁show	-486
als	-487
form	-488
▁comm	-489
▁under	-490
ft	-491
vers	-492
hing	-493
▁supp	-494
oun	-495
vern	-496
ons	-497
aking	-498
ris	-499
ss	-500
▁before	-501
▁week	-502
▁br	-503
▁rem	-504
ied	-505
▁Is	-506
▁fin	-507
▁count	-508
▁mon	-509
The	-510
▁being	-511
ove	-512
▁op	-513
▁need	-514
ife	-515
ublic	-516
ational	-517
▁Wh	-518
ily	-519
▁where	-520
▁New	-521
▁every	-522
ating	-523
▁4	-524
arg	-525
▁only	-526
▁des	-527
ince	-528
ted	-529
ath	-530
▁We	-531
ful	-532
▁lead	-533
▁think	-534
▁look	-535
man	-536
ah	-537
uch	-538
ob	-539
▁tra	-540
▁because	-541
uss	-542
▁She	-543
▁most	-544
row	-545
▁want	-546
▁fam	-547
▁5	-548
les	-549
▁say	-550
▁inter	-551
▁against	-552
▁even	-553
▁make	-554
▁Mr	-555
ities	-556
▁cons	-557
▁know	-558
▁then	-559
ood	-560
az	-561
oss	-562
▁em	-563
ited	-564
▁call	-565
▁end	-566
li	-567
▁while	-568
ise	-569
▁reg	-570
vernment	-571
▁elect	-572
elf	-573
▁Un	-574
ues	-575
ward	-576
▁bl	-577
▁min	-578
▁This	-579
▁told	-580
te	-581
▁19	-582
▁ind	-583
erson	-584
▁ev	-585
▁through	-586
lp	-587
▁ear	-588
▁month	-589
▁three	-590
rent	-591
pe	-592
xt	-593
▁ra	-594
▁201	-595
led	-596
▁med	-597
▁don	-598
▁down	-599
hen	-600
▁win	-601
ved	-602
ared	-603
ank	-604
ason	-605
ram	-606
▁made	-607
iew	-608
▁long	-609
▁ret	-610
hip	-611
alk	-612
▁during	-613
▁going	-614
air	-615
▁Le	-616
▁well	-617
▁war	-618
▁ke	-619
▁help	-620
illion	-621
gg	-622
▁ass	-623
cc	-624
du	-625
▁bu	-626
▁team	-627
▁cr	-628
▁sur	-629
▁see	-630
▁many	-631
ters	-632
▁fl	-633
ert	-634
▁set	-635
oth	-636
▁way	-637
any	-638
ix	-639
▁offic	-640
ote	-641
tle	-642
ool	-643
▁says	-644
▁report	-645
ving	-646
ased	-647
000	-648
rib	-649
▁rel	-650
▁those	-651
▁start	-652
▁very	-653
▁$	-654
▁own	-655
▁cent	-656
▁around	-657
ement	-658
▁home	-659
▁government	-660
au	-661
ner	-662
way	-663
ork	-664
▁should	-665
rael	-666
ouse	-667
▁car	-668
▁day	-669
▁Sh	-670
▁Ind	-671
alth	-672
ash	-673
▁£	-674
ph	-675
▁As	-676
atch	-677
▁child	-678
▁resp	-679
▁much	-680
oot	-681
ollow	-682
▁Al	-683
rest	-684
▁take	-685
▁Israel	-686
,000	-687
▁high	-688
▁wom	-689
▁sign	-690
ower	-691
ative	-692
ross	-693
med	-694
▁since	-695
▁still	-696
imes	-697
▁including	-698
▁conf	-699
▁these	-700
▁def	-701
ather	-702
▁ph	-703
ange	-704
ric	-705
▁They	-706
▁good	-707
meric	-708
ures	-709
▁cour	-710
ular	-711
ever	-712
▁support	-713
▁may	-714
ets	-715
ording	-716
hes	-717
▁dif	-718
ected	-719
ments	-720
ron	-721
orts	-722
son	-723
▁sm	-724
gan	-725
oy	-726
▁law	-727
▁found	-728
ual	-729
▁ins	-730
▁An	-731
▁Re	-732
▁run	-733
▁str	-734
ced	-735
▁world	-736
hn	-737
ener	-738
▁6	-739
ific	-740
roup	-741
ling	-742
ween	-743
ible	-744
ames	-745
ives	-746
its	-747
▁Fr	-748
▁invest	-749
aj	-750
▁Americ	-751
▁2024	-752
ember	-753
ged	-754
▁poin	-755
▁country	-756
▁four	-757
▁really	-758
▁contin	-759
ics	-760
omet	-761
▁gu	-762
con	-763
ned	-764
▁such	-765
ital	-766
▁state	-767
▁follow	-768
ton	-769
▁life	-770
iden	-771
ik	-772
rem	-773
ble	-774
▁ter	-775
▁former	-776
▁feel	-777
▁right	-778
ility	-779
▁between	-780
ax	-781
▁happ	-782
▁Sc	-783
▁Har	-784
ady	-785
aim	-786
▁camp	-787
ants	-788
▁ent	-789
▁serv	-790
▁Sp	-791
▁Jo	-792
▁bel	-793
rat	-794
▁Mar	-795
ale	-796
ister	-797
▁Af	-798
▁ser	-799
▁Russ	-800
▁cap	-801
ised	-802
▁family	-803
ices	-804
▁though	-805
ered	-806
duct	-807
ave	-808
ands	-809
per	-810
▁7	-811
▁president	-812
▁added	-813
▁tri	-814
ages	-815
▁big	-816
irect	-817
▁wr	-818
▁Biden	-819
▁does	-820
We	-821
▁second	-822
ull	-823
▁Ar	-824
ms	-825
get	-826
iel	-827
▁leg	-828
cer	-829
▁got	-830
▁For	-831
▁person	-832
▁eff	-833
com	-834
▁col	-835
▁inf	-836
outh	-837
min	-838
ision	-839
▁polit	-840
year	-841
ys	-842
▁public	-843
▁care	-844
▁post	-845
▁head	-846
▁cle	-847
▁US	-848
ness	-849
▁ann	-850
riend	-851
▁group	-852
▁game	-853
▁left	-854
ef	-855
▁put	-856
ering	-857
▁bus	-858
▁fil	-859
▁come	-860
▁prov	-861
ina	-862
▁iss	-863
▁gr	-864
▁dep	-865
▁another	-866
ody	-867
ten	-868
▁prot	-869
▁claim	-870
ves	-871
▁How	-872
▁10	-873
▁attack	-874
▁ask	-875
▁sy	-876
▁best	-877
▁trans	-878
ier	-879
▁stud	-880
▁loc	-881
line	-882
▁next	-883
ute	-884
ists	-885
▁mil	-886
It	-887
esp	-888
▁soc	-889
▁star	-890
▁both	-891
▁sl	-892
▁exper	-893
chool	-894
▁plan	-895
▁There	-896
▁recent	-897
▁That	-898
ug	-899
ially	-900
ually	-901
▁det	-902
▁far	-903
▁Rep	-904
▁ext	-905
iness	-906
pl	-907
▁On	-908
▁open	-909
▁opp	-910
▁del	-911
▁You	-912
▁somet	-913
tern	-914
orn	-915
▁disc	-916
...	-917
uro	-918
pped	-919
▁lot	-920
▁President	-921
ines	-922
▁che	-923
▁mark	-924
▁same	-925
▁health	-926
▁sub	-927
uth	-928
▁season	-929
▁too	-930
self	-931
▁cur	-932
io	-933
▁num	-934
ret	-935
sh	-936
emoc	-937
▁real	-938
▁spe	-939
▁prev	-940
▁pass	-941
urs	-942
▁near	-943
▁ref	-944
▁lit	-945
▁direct	-946
ury	-947
ral	-948
uck	-949
▁find	-950
omm	-951
▁top	-952
▁inst	-953
ution	-954
▁never	-955
ways	-956
▁At	-957
▁stat	-958
ivers	-959
akes	-960
▁adv	-961
bers	-962
▁Pr	-963
▁place	-964
ency	-965
kra	-966
aign	-967
ration	-968
redit	-969
▁8	-970
ird	-971
▁mem	-972
▁pri	-973
olog	-974
":	-975
augh	-976
▁great	-977
▁try	-978
▁spec	-979
▁diffe	-980
ense	-981
thing	-982
▁according	-983
ience	-984
▁days	-985
ights	-986
▁Ukra	-987
▁vot	-988
▁million	-989
▁here	-990
side	-991
▁fac	-992
▁Z	-993
▁commun	-994
▁official	-995
▁pres	-996
ield	-997
cess	-998
ins	-999
▁campaign	-1000
view	-1001
▁pay	-1002
▁If	-1003
ele	-1004
▁bre	-1005
▁Bl	-1006
▁media	-1007
eng	-1008
▁UK	-1009
ief	-1010
iving	-1011
oney	-1012
▁children	-1013
▁police	-1014
ple	-1015
ex	-1016
ism	-1017
▁women	-1018
ck	-1019
ured	-1020
▁use	-1021
▁rest	-1022
ired	-1023
▁remain	-1024
▁ob	-1025
ces	-1026
▁incre	-1027
▁prom	-1028
ention	-1029
▁across	-1030
ott	-1031
▁rele	-1032
▁election	-1033
conom	-1034
▁vis	-1035
▁five	-1036
ald	-1037
▁air	-1038
ajor	-1039
▁Euro	-1040
▁kill	-1041
▁dri	-1042
br	-1043
▁party	-1044
▁few	-1045
▁company	-1046
ney	-1047
▁didn	-1048
▁Brit	-1049
ued	-1050
▁case	-1051
▁won	-1052
▁gener	-1053
▁So	-1054
▁miss	-1055
▁Eng	-1056
▁la	-1057
▁Min	-1058
▁used	-1059
gy	-1060
▁Be	-1061
be	-1062
▁keep	-1063
▁away	-1064
▁seen	-1065
▁school	-1066
▁took	-1067
▁cre	-1068
ished	-1069
▁sim	-1070
▁char	-1071
▁beh	-1072
osed	-1073
▁mov	-1074
▁young	-1075
▁months	-1076
velop	-1077
▁always	-1078
),	-1079
▁business	-1080
▁called	-1081
▁Am	-1082
iday	-1083
▁later	-1084
▁expl	-1085
der	-1086
ately	-1087
orth	-1088
▁el	-1089
alf	-1090
emocrat	-1091
▁things	-1092
▁something	-1093
▁cost	-1094
▁par	-1095
▁De	-1096
▁friend	-1097
▁came	-1098
▁hand	-1099
the	-1100
▁sit	-1101
▁night	-1102
▁ris	-1103
▁9	-1104
▁hop	-1105
aring	-1106
▁mom	-1107
▁inte	-1108
▁turn	-1109
iet	-1110
▁deb	-1111
▁reported	-1112
▁might	-1113
atur	-1114
▁belie	-1115
ecut	-1116
▁hard	-1117
▁return	-1118
▁sk	-1119
▁av	-1120
Th	-1121
▁six	-1122
▁court	-1123
▁econom	-1124
stem	-1125
ional	-1126
ically	-1127
▁talk	-1128
duc	-1129
▁rece	-1130
▁United	-1131
▁pos	-1132
ague	-1133
▁aff	-1134
▁Cl	-1135
▁power	-1136
▁social	-1137
ann	-1138
▁build	-1139
▁Car	-1140
▁prog	-1141
▁without	-1142
ched	-1143
ours	-1144
ject	-1145
▁quest	-1146
▁grow	-1147
▁major	-1148
used	-1149
▁announ	-1150
iver	-1151
ham	-1152
less	-1153
▁milit	-1154
▁Ph	-1155
▁art	-1156
▁allow	-1157
▁Se	-1158
▁met	-1159
▁love	-1160
▁record	-1161
▁Ad	-1162
▁went	-1163
to	-1164
.'	-1165
ruct	-1166
▁sw	-1167
urity	-1168
▁One	-1169
▁foot	-1170
rist	-1171
▁Mc	-1172
▁requ	-1173
▁little	-1174
▁past	-1175
ball	-1176
▁partic	-1177
▁dem	-1178
ending	-1179
▁better	-1180
▁different	-1181
▁unt	-1182
iously	-1183
leg	-1184
▁pop	-1185
▁Republic	-1186
co	-1187
▁Democrat	-1188
ley	-1189
▁each	-1190
▁dist	-1191
ster	-1192
ready	-1193
▁appro	-1194
▁hist	-1195
▁import	-1196
▁move	-1197
cent	-1198
ians	-1199
ries	-1200
osp	-1201
▁May	-1202
▁[	-1203
▁along	-1204
▁fore	-1205
▁bro	-1206
▁having	-1207
▁12	-1208
▁meet	-1209
).	-1210
ained	-1211
by	-1212
▁stand	-1213
▁happen	-1214
aken	-1215
inal	-1216
▁job	-1217
reen	-1218
▁mod	-1219
▁2022	-1220
▁York	-1221
ran	-1222
app	-1223
▁When	-1224
▁vict	-1225
▁making	-1226
▁develop	-1227
▁Don	-1228
▁reve	-1229
▁2023	-1230
cept	-1231
nes	-1232
▁However	-1233
ided	-1234
▁poss	-1235
▁money	-1236
iven	-1237
▁press	-1238
ient	-1239
▁product	-1240
▁already	-1241
aff	-1242
loy	-1243
▁manag	-1244
▁political	-1245
▁hum	-1246
ony	-1247
▁less	-1248
ober	-1249
▁city	-1250
▁system	-1251
▁comple	-1252
▁death	-1253
iol	-1254
▁oper	-1255
▁mus	-1256
uthor	-1257
▁event	-1258
▁deal	-1259
▁ve	-1260
▁Co	-1261
▁200	-1262
▁final	-1263
▁change	-1264
enn	-1265
▁est	-1266
▁prof	-1267
▁vide	-1268
▁clear	-1269
lin	-1270
▁sing	-1271
▁wrote	-1272
▁number	-1273
▁working	-1274
ats	-1275
▁hit	-1276
▁Harris	-1277
▁polic	-1278
▁India	-1279
▁perform	-1280
▁mat	-1281
▁until	-1282
Credit	-1283
acy	-1284
▁cor	-1285
▁water	-1286
▁inj	-1287
els	-1288
ived	-1289
▁news	-1290
▁early	-1291
▁main	-1292
ertain	-1293
▁Europe	-1294
head	-1295
cl	-1296
▁old	-1297
▁fact	-1298
elt	-1299
▁John	-1300
▁Pro	-1301
▁South	-1302
▁current	-1303
▁X	-1304
▁men	-1305
une	-1306
▁Pol	-1307
▁Con	-1308
▁Jan	-1309
ably	-1310
ots	-1311
▁crit	-1312
▁intern	-1313
▁interest	-1314
▁ball	-1315
ying	-1316
ream	-1317
▁let	-1318
▁view	-1319
ee	-1320
port	-1321
ger	-1322
▁local	-1323
▁concer	-1324
▁Inst	-1325
▁times	-1326
▁Q	-1327
ech	-1328
▁Par	-1329
▁sent	-1330
▁Ukraine	-1331
▁infl	-1332
▁News	-1333
ament	-1334
▁full	-1335
▁fund	-1336
▁level	-1337
▁become	-1338
▁contro	-1339
▁sum	-1340
▁stri	-1341
▁investig	-1342
▁cond	-1343
▁seem	-1344
▁able	-1345
ior	-1346
▁ed	-1347
ects	-1348
▁15	-1349
▁pot	-1350
▁host	-1351
ances	-1352
iting	-1353
rence	-1354
aza	-1355
▁cou	-1356
ential	-1357
▁eas	-1358
ai	-1359
bs	-1360
▁point	-1361
▁Br	-1362
▁following	-1363
pr	-1364
▁American	-1365
earch	-1366
▁small	-1367
ized	-1368
▁join	-1369
▁Go	-1370
▁tell	-1371
▁military	-1372
▁side	-1373
▁third	-1374
▁asked	-1375
ars	-1376
ata	-1377
▁cut	-1378
BC	-1379
▁must	-1380
▁Pal	-1381
▁appear	-1382
arge	-1383
▁test	-1384
bo	-1385
wards	-1386
lier	-1387
ming	-1388
ract	-1389
▁close	-1390
▁Me	-1391
▁House	-1392
▁fur	-1393
▁chall	-1394
▁bat	-1395
ases	-1396
▁comes	-1397
idd	-1398
▁mar	-1399
iversity	-1400
":"	-1401
▁saying	-1402
▁statement	-1403
▁organ	-1404
▁members	-1405
irl	-1406
▁tax	-1407
▁why	-1408
▁half	-1409
▁After	-1410
▁dra	-1411
ended	-1412
ortun	-1413
▁chang	-1414
▁City	-1415
▁England	-1416
▁Russia	-1417
ront	-1418
▁Sund	-1419
mit	-1420
utes	-1421
▁No	-1422
mp	-1423
ards	-1424
gether	-1425
▁together	-1426
▁food	-1427
uture	-1428
ature	-1429
▁ever	-1430
ccess	-1431
▁face	-1432
artment	-1433
▁least	-1434
aled	-1435
▁often	-1436
eral	-1437
here	-1438
▁All	-1439
▁hold	-1440
▁give	-1441
ene	-1442
most	-1443
uly	-1444
▁Mond	-1445
▁viol	-1446
▁Gaza	-1447
▁among	-1448
▁known	-1449
20	-1450
▁list	-1451
▁short	-1452
ush	-1453
▁today	-1454
▁sever	-1455
▁getting	-1456
iam	-1457
▁house	-1458
▁commit	-1459
ondon	-1460
▁taken	-1461
idence	-1462
▁process	-1463
▁decision	-1464
▁invol	-1465
ection	-1466
▁free	-1467
orld	-1468
▁Comm	-1469
▁Aust	-1470
af	-1471
▁important	-1472
▁thing	-1473
▁Christ	-1474
▁form	-1475
▁Sw	-1476
1,	-1477
▁due	-1478
▁whether	-1479
1.	-1480
ider	-1481
▁success	-1482
stand	-1483
▁appe	-1484
▁charg	-1485
▁ago	-1486
ified	-1487
▁With	-1488
itions	-1489
▁Monday	-1490
▁compet	-1491
▁national	-1492
▁book	-1493
rict	-1494
▁opt	-1495
▁Friday	-1496
ison	-1497
uper	-1498
▁Sunday	-1499
let	-1500
▁author	-1501
▁taking	-1502
▁line	-1503
▁London	-1504
ried	-1505
▁emp	-1506
▁players	-1507
▁live	-1508
▁future	-1509
▁To	-1510
go	-1511
▁doing	-1512
ane	-1513
▁thought	-1514
▁series	-1515
▁several	-1516
rop	-1517
▁bit	-1518
▁games	-1519
▁given	-1520
▁inform	-1521
▁Ham	-1522
rew	-1523
hel	-1524
▁risk	-1525
▁fans	-1526
ead	-1527
▁po	-1528
▁Tues	-1529
▁started	-1530
▁mean	-1531
▁video	-1532
▁prop	-1533
▁likely	-1534
▁club	-1535
▁Tuesday	-1536
-1	-1537
▁pat	-1538
etty	-1539
ggest	-1540
▁18	-1541
ium	-1542
▁laun	-1543
ades	-1544
▁West	-1545
crib	-1546
▁cand	-1547
▁moment	-1548
▁coun	-1549
▁30	-1550
▁proble	-1551
▁ide	-1552
ising	-1553
▁enough	-1554
▁train	-1555
▁film	-1556
▁suggest	-1557
▁further	-1558
for	-1559
▁Oct	-1560
,""	-1561
▁While	-1562
ales	-1563
▁leaders	-1564
echn	-1565
▁ben	-1566
▁strong	-1567
pping	-1568
▁fail	-1569
▁Wed	-1570
▁Ms	-1571
▁sex	-1572
▁done	-1573
ept	-1574
aren	-1575
ift	-1576
▁Col	-1577
▁rul	-1578
arm	-1579
▁val	-1580
▁foc	-1581
ored	-1582
▁security	-1583
ories	-1584
▁sol	-1585
▁pros	-1586
▁walk	-1587
50	-1588
▁expected	-1589
ring	-1590
▁once	-1591
▁const	-1592
aut	-1593
▁officials	-1594
▁ri	-1595
▁hig	-1596
▁relations	-1597
▁His	-1598
▁kind	-1599
▁market	-1600
usp	-1601
▁dr	-1602
▁China	-1603
▁ant	-1604
▁Lab	-1605
▁Will	-1606
▁Wednes	-1607
▁behind	-1608
ides	-1609
▁large	-1610
▁gl	-1611
▁weeks	-1612
▁area	-1613
▁What	-1614
▁writ	-1615
▁targ	-1616
▁Ab	-1617
ination	-1618
▁Wednesday	-1619
▁fight	-1620
ator	-1621
▁read	-1622
empt	-1623
me	-1624
imate	-1625
▁doesn	-1626
▁Thurs	-1627
▁cele	-1628
▁fall	-1629
▁bring	-1630
▁looking	-1631
uge	-1632
ission	-1633
▁threat	-1634
▁Thursday	-1635
ones	-1636
▁cho	-1637
ective	-1638
▁break	-1639
back	-1640
▁National	-1641
▁Man	-1642
▁role	-1643
▁candid	-1644
▁hours	-1645
▁sure	-1646
▁design	-1647
wh	-1648
▁World	-1649
▁exc	-1650
▁played	-1651
▁Ke	-1652
▁coming	-1653
▁continue	-1654
ern	-1655
▁announced	-1656
▁yet	-1657
▁program	-1658
▁shared	-1659
alif	-1660
▁mother	-1661
▁equ	-1662
ize	-1663
fic	-1664
▁Ge	-1665
yl	-1666
▁trying	-1667
▁signific	-1668
ospital	-1669
▁Russian	-1670
▁watch	-1671
▁comment	-1672
▁community	-1673
lor	-1674
▁within	-1675
▁office	-1676
ashing	-1677
▁State	-1678
▁others	-1679
itive	-1680
lob	-1681
▁eng	-1682
▁cust	-1683
▁treat	-1684
▁Bar	-1685
▁woman	-1686
ogra	-1687
▁Minister	-1688
▁susp	-1689
tain	-1690
▁using	-1691
▁arrest	-1692
ids	-1693
inian	-1694
▁Pl	-1695
▁fire	-1696
order	-1697
ults	-1698
oke	-1699
reme	-1700
▁body	-1701
ality	-1702
▁experience	-1703
reet	-1704
▁Ger	-1705
▁indust	-1706
▁particular	-1707
ourt	-1708
▁story	-1709
▁history	-1710
▁conv	-1711
▁tre	-1712
icture	-1713
▁result	-1714
reed	-1715
▁land	-1716
▁Sec	-1717
▁fun	-1718
▁Im	-1719
▁ens	-1720
aly	-1721
aps	-1722
▁human	-1723
▁special	-1724
▁mess	-1725
ederal	-1726
▁occ	-1727
▁interview	-1728
ences	-1729
▁points	-1730
▁percent	-1731
▁techn	-1732
▁Donald	-1733
▁priv	-1734
▁hope	-1735
ns	-1736
▁killed	-1737
▁impro	-1738
▁hom	-1739
ensive	-1740
minist	-1741
▁beg	-1742
hern	-1743
aced	-1744
▁access	-1745
aturday	-1746
aving	-1747
▁confir	-1748
eb	-1749
rown	-1750
▁stay	-1751
▁saw	-1752
▁Israeli	-1753
▁wa	-1754
▁class	-1755
▁almost	-1756
▁data	-1757
▁Gu	-1758
work	-1759
▁vote	-1760
▁question	-1761
ressed	-1762
ask	-1763
▁Or	-1764
uary	-1765
aster	-1766
resent	-1767
ability	-1768
▁11	-1769
ches	-1770
▁bill	-1771
▁phot	-1772
▁deep	-1773
0.	-1774
▁lat	-1775
▁June	-1776
oon	-1777
▁activ	-1778
▁Saturday	-1779
▁career	-1780
▁name	-1781
▁fav	-1782
▁significant	-1783
▁ste	-1784
▁lim	-1785
▁jour	-1786
▁Austral	-1787
▁earlier	-1788
▁16	-1789
que	-1790
lood	-1791
▁wanted	-1792
▁friends	-1793
▁minutes	-1794
ners	-1795
▁pick	-1796
▁ident	-1797
▁13	-1798
▁Ass	-1799
my	-1800
time	-1801
▁14	-1802
▁quick	-1803
▁staff	-1804
▁jud	-1805
▁Black	-1806
▁ahead	-1807
▁spok	-1808
aid	-1809
rain	-1810
▁describ	-1811
▁Just	-1812
▁hot	-1813
▁front	-1814
▁led	-1815
▁everything	-1816
ox	-1817
oci	-1818
▁lost	-1819
▁imm	-1820
▁Mus	-1821
▁late	-1822
gr	-1823
▁July	-1824
▁someone	-1825
▁summer	-1826
▁issues	-1827
▁certain	-1828
era	-1829
off	-1830
▁financ	-1831
▁mor	-1832
▁heart	-1833
▁Ed	-1834
▁ty	-1835
▁October	-1836
▁emer	-1837
▁revealed	-1838
▁dou	-1839
▁couple	-1840
▁outside	-1841
▁opportun	-1842
ror	-1843
ilar	-1844
▁match	-1845
▁Dec	-1846
▁British	-1847
sel	-1848
uff	-1849
▁El	-1850
▁Court	-1851
▁League	-1852
verage	-1853
▁room	-1854
▁North	-1855
▁Ex	-1856
mber	-1857
▁Sen	-1858
ology	-1859
▁repl	-1860
▁ener	-1861
▁policy	-1862
cil	-1863
sc	-1864
asing	-1865
▁alle	-1866
▁felt	-1867
▁Afric	-1868
▁means	-1869
ds	-1870
▁countries	-1871
aces	-1872
ither	-1873
▁lear	-1874
▁incident	-1875
ky	-1876
ops	-1877
▁trad	-1878
▁ground	-1879
▁Gr	-1880
▁step	-1881
▁Dep	-1882
itch	-1883
ovember	-1884
▁enc	-1885
▁son	-1886
▁relationship	-1887
▁init	-1888
▁leader	-1889
▁age	-1890
▁low	-1891
▁March	-1892
▁pub	-1893
▁online	-1894
▁ur	-1895
▁forward	-1896
▁employ	-1897
▁arg	-1898
▁girl	-1899
pril	-1900
▁Sept	-1901
▁held	-1902
▁believe	-1903
▁Dav	-1904
ler	-1905
▁sn	-1906
att	-1907
This	-1908
lection	-1909
▁January	-1910
▁November	-1911
▁Net	-1912
▁international	-1913
,'	-1914
▁Her	-1915
▁visit	-1916
▁dead	-1917
▁benef	-1918
▁music	-1919
umb	-1920
▁course	-1921
▁Ro	-1922
▁pain	-1923
▁key	-1924
▁died	-1925
▁Pe	-1926
▁ey	-1927
▁avail	-1928
aughter	-1929
rugg	-1930
He	-1931
of	-1932
▁April	-1933
▁present	-1934
▁Republican	-1935
▁mult	-1936
▁everyone	-1937
int	-1938
par	-1939
lish	-1940
▁began	-1941
▁shows	-1942
▁impact	-1943
▁billion	-1944
▁...	-1945
▁Cent	-1946
▁Cong	-1947
▁legal	-1948
▁voters	-1949
▁199	-1950
▁Geor	-1951
lished	-1952
▁Scot	-1953
▁suff	-1954
ung	-1955
uation	-1956
▁Acc	-1957
▁dev	-1958
iron	-1959
▁arri	-1960
▁Off	-1961
▁50	-1962
▁feat	-1963
yn	-1964
▁Aug	-1965
▁playing	-1966
▁tot	-1967
cast	-1968
ana	-1969
▁wasn	-1970
▁makes	-1971
▁minister	-1972
▁desp	-1973
rup	-1974
▁became	-1975
▁price	-1976
ampions	-1977
▁nearly	-1978
lobal	-1979
▁University	-1980
emp	-1981
▁action	-1982
▁Labour	-1983
▁control	-1984
▁service	-1985
▁energy	-1986
ha	-1987
▁fig	-1988
▁My	-1989
ference	-1990
▁understand	-1991
▁Ne	-1992
▁administ	-1993
amed	-1994
▁expect	-1995
▁esp	-1996
ecially	-1997
▁German	-1998
▁custom	-1999
▁$1	-2000
▁possible	-2001
ety	-2002
rug	-2003
ender	-2004
iding	-2005
▁caus	-2006
arents	-2007
osing	-2008
joy	-2009
▁released	-2010
aker	-2011
▁information	-2012
9,	-2013
▁Bo	-2014
icket	-2015
▁wife	-2016
▁share	-2017
▁account	-2018
▁running	-2019
▁ap	-2020
▁bar	-2021
itional	-2022
pris	-2023
▁issue	-2024
▁recently	-2025
ivil	-2026
iod	-2027
▁dam	-2028
▁order	-2029
arter	-2030
▁Can	-2031
▁target	-2032
ps	-2033
▁loss	-2034
▁offer	-2035
30	-2036
▁Scott	-2037
▁hospital	-2038
▁football	-2039
▁alleged	-2040
▁Part	-2041
▁Some	-2042
ims	-2043
▁famil	-2044
inc	-2045
▁Com	-2046
▁pur	-2047
ument	-2048
▁race	-2049
▁plans	-2050
ograph	-2051
ulation	-2052
not	-2053
ficult	-2054
ashington	-2055
ests	-2056
▁sour	-2057
▁strugg	-2058
▁17	-2059
▁goal	-2060
▁building	-2061
▁fir	-2062
fully	-2063
▁himself	-2064
▁Washington	-2065
▁seven	-2066
uk	-2067
▁var	-2068
▁wind	-2069
▁needs	-2070
ached	-2071
▁aw	-2072
lymp	-2073
▁Sun	-2074
▁red	-2075
▁Police	-2076
▁AI	-2077
enal	-2078
▁services	-2079
elling	-2080
esc	-2081
▁chief	-2082
▁Scotland	-2083
▁anything	-2084
aur	-2085
ains	-2086
▁£1	-2087
▁poll	-2088
▁nation	-2089
▁Sm	-2090
na	-2091
▁father	-2092
▁living	-2093
▁celebr	-2094
ban	-2095
▁TV	-2096
ivid	-2097
▁cult	-2098
yle	-2099
▁proper	-2100
ging	-2101
▁abs	-2102
▁Olymp	-2103
▁available	-2104
▁states	-2105
medi	-2106
▁compan	-2107
▁spot	-2108
▁director	-2109
▁America	-2110
oring	-2111
▁seek	-2112
▁difficult	-2113
over	-2114
▁mass	-2115
▁lives	-2116
▁Dr	-2117
▁Ang	-2118
▁Iran	-2119
▁respond	-2120
▁25	-2121
▁Em	-2122
▁Joe	-2123
▁Mich	-2124
▁detail	-2125
▁actually	-2126
▁stop	-2127
iety	-2128
ators	-2129
lement	-2130
▁eight	-2131
ode	-2132
▁space	-2133
▁profess	-2134
▁ple	-2135
ently	-2136
▁creat	-2137
▁latest	-2138
▁attempt	-2139
uel	-2140
▁tour	-2141
▁travel	-2142
▁especially	-2143
▁ban	-2144
▁bank	-2145
▁fell	-2146
▁discuss	-2147
str	-2148
▁leave	-2149
agram	-2150
▁enjoy	-2151
room	-2152
▁States	-2153
▁students	-2154
irc	-2155
▁bad	-2156
▁saf	-2157
▁coll	-2158
ks	-2159
anger	-2160
▁round	-2161
▁financial	-2162
val	-2163
▁non	-2164
▁Count	-2165
▁focus	-2166
▁potential	-2167
▁sen	-2168
▁soon	-2169
▁period	-2170
▁player	-2171
▁European	-2172
band	-2173
▁Palest	-2174
ecutive	-2175
?"	-2176
▁light	-2177
read	-2178
▁despite	-2179
use	-2180
ought	-2181
▁conn	-2182
▁meeting	-2183
▁Indian	-2184
▁claimed	-2185
ape	-2186
▁den	-2187
epend	-2188
rought	-2189
ural	-2190
atic	-2191
duced	-2192
▁coach	-2193
▁respons	-2194
▁road	-2195
▁100	-2196
selves	-2197
▁federal	-2198
▁Congress	-2199
▁mid	-2200
▁position	-2201
ips	-2202
▁September	-2203
▁tit	-2204
han	-2205
▁parents	-2206
▁industry	-2207
▁Calif	-2208
▁received	-2209
▁Now	-2210
ogn	-2211
hold	-2212
ery	-2213
▁Not	-2214
▁rate	-2215
▁net	-2216
▁huge	-2217
▁White	-2218
▁complete	-2219
▁Sy	-2220
▁plat	-2221
▁August	-2222
▁24	-2223
▁include	-2224
hers	-2225
omin	-2226
▁prob	-2227
body	-2228
▁dest	-2229
▁similar	-2230
▁mis	-2231
though	-2232
onse	-2233
gency	-2234
ises	-2235
▁provide	-2236
nal	-2237
▁meas	-2238
9.	-2239
▁env	-2240
atives	-2241
▁needed	-2242
▁nothing	-2243
▁single	-2244
▁Red	-2245
▁morning	-2246
▁continued	-2247
de	-2248
▁pract	-2249
▁quite	-2250
▁ce	-2251
▁resident	-2252
▁hon	-2253
▁self	-2254
field	-2255
▁Hamas	-2256
▁According	-2257
▁immedi	-2258
▁companies	-2259
ibility	-2260
lock	-2261
iddle	-2262
light	-2263
▁King	-2264
▁trial	-2265
iec	-2266
ule	-2267
▁presidential	-2268
pro	-2269
▁compl	-2270
▁Instagram	-2271
▁doc	-2272
▁stage	-2273
▁charac	-2274
icle	-2275
ala	-2276
ined	-2277
▁border	-2278
▁daughter	-2279
▁sold	-2280
▁track	-2281
ival	-2282
0,	-2283
tion	-2284
oint	-2285
ction	-2286
gest	-2287
▁deter	-2288
▁Californ	-2289
▁neg	-2290
ael	-2291
▁showed	-2292
▁represent	-2293
▁&	-2294
▁mind	-2295
▁Feb	-2296
▁personal	-2297
play	-2298
▁squ	-2299
▁Char	-2300
▁mur	-2301
▁mot	-2302
▁gold	-2303
▁reason	-2304
▁rights	-2305
▁leading	-2306
▁challeng	-2307
▁cross	-2308
▁super	-2309
▁global	-2310
▁investigation	-2311
▁shot	-2312
urning	-2313
▁Images	-2314
You	-2315
▁App	-2316
▁region	-2317
▁Pa	-2318
▁drug	-2319
▁shoot	-2320
hi	-2321
▁cris	-2322
duce	-2323
▁civil	-2324
▁response	-2325
▁Gl	-2326
ients	-2327
▁claims	-2328
▁accused	-2329
▁platform	-2330
▁previously	-2331
5.	-2332
ilt	-2333
▁Department	-2334
aper	-2335
Wh	-2336
▁War	-2337
▁aut	-2338
▁based	-2339
▁review	-2340
▁California	-2341
▁BBC	-2342
▁hol	-2343
▁whole	-2344
▁fr	-2345
▁buy	-2346
▁ment	-2347
igr	-2348
rench	-2349
ara	-2350
▁rather	-2351
▁isn	-2352
▁quarter	-2353
lex	-2354
▁bas	-2355
▁larg	-2356
▁prison	-2357
akers	-2358
▁examp	-2359
▁evidence	-2360
▁nec	-2361
▁individ	-2362
▁popular	-2363
▁colle	-2364
retary	-2365
▁These	-2366
▁economy	-2367
▁happened	-2368
▁increase	-2369
che	-2370
▁di	-2371
▁tw	-2372
▁check	-2373
▁performance	-2374
den	-2375
▁Park	-2376
while	-2377
▁aud	-2378
▁remains	-2379
▁confirmed	-2380
▁crim	-2381
fer	-2382
ges	-2383
iber	-2384
▁laws	-2385
▁longer	-2386
8,	-2387
▁reach	-2388
▁worked	-2389
▁general	-2390
▁Democratic	-2391
ada	-2392
▁wrong	-2393
▁chance	-2394
ese	-2395
ares	-2396
'.	-2397
kn	-2398
▁reports	-2399
usband	-2400
bed	-2401
aged	-2402
▁worth	-2403
▁safe	-2404
▁safety	-2405
▁address	-2406
▁higher	-2407
▁Cup	-2408
2,	-2409
▁Mo	-2410
iger	-2411
▁hor	-2412
▁hous	-2413
▁town	-2414
avy	-2415
mas	-2416
▁gave	-2417
▁surpris	-2418
▁involved	-2419
▁anyone	-2420
ironment	-2421
ford	-2422
▁sle	-2423
▁inside	-2424
▁Day	-2425
▁matter	-2426
▁economic	-2427
2.	-2428
▁Paris	-2429
▁areas	-2430
ze	-2431
▁Getty	-2432
▁William	-2433
▁Star	-2434
▁administration	-2435
▁critic	-2436
fect	-2437
iple	-2438
irth	-2439
ends	-2440
▁release	-2441
▁December	-2442
▁problem	-2443
▁Med	-2444
▁begin	-2445
▁whose	-2446
▁France	-2447
▁brought	-2448
▁beaut	-2449
ribut	-2450
▁white	-2451
▁workers	-2452
▁40	-2453
▁demand	-2454
chie	-2455
▁div	-2456
There	-2457
orters	-2458
▁private	-2459
▁situation	-2460
▁protect	-2461
like	-2462
▁More	-2463
▁broad	-2464
▁spent	-2465
▁results	-2466
▁gra	-2467
▁prior	-2468
▁capital	-2469
ateg	-2470
▁Pat	-2471
▁foreign	-2472
▁veh	-2473
▁currently	-2474
▁orig	-2475
agn	-2476
▁victory	-2477
▁particularly	-2478
▁Sam	-2479
ault	-2480
down	-2481
emic	-2482
▁Mon	-2483
▁entire	-2484
▁idea	-2485
▁David	-2486
▁total	-2487
▁dog	-2488
ify	-2489
▁cases	-2490
ighb	-2491
iant	-2492
ilities	-2493
▁port	-2494
▁husband	-2495
oura	-2496
▁growth	-2497
mon	-2498
▁instead	-2499
ray	-2500
▁lab	-2501
▁French	-2502
▁biggest	-2503
▁pressure	-2504
▁By	-2505
▁costs	-2506
▁heard	-2507
set	-2508
▁influ	-2509
liament	-2510
▁board	-2511
5,	-2512
ico	-2513
reg	-2514
ocked	-2515
unt	-2516
▁Hol	-2517
▁Ste	-2518
istan	-2519
osition	-2520
▁experi	-2521
sp	-2522
ills	-2523
▁Dan	-2524
anche	-2525
enced	-2526
▁black	-2527
▁events	-2528
utin	-2529
▁East	-2530
itness	-2531
lear	-2532
▁stra	-2533
▁term	-2534
ruary	-2535
▁z	-2536
▁tried	-2537
hood	-2538
▁kids	-2539
▁assist	-2540
ya	-2541
▁gun	-2542
▁research	-2543
▁comb	-2544
▁phone	-2545
▁via	-2546
alled	-2547
▁field	-2548
▁Mor	-2549
ows	-2550
oming	-2551
▁prep	-2552
▁February	-2553
▁Angel	-2554
▁turned	-2555
▁thous	-2556
▁pack	-2557
▁member	-2558
uit	-2559
▁happy	-2560
▁example	-2561
ino	-2562
▁manager	-2563
wood	-2564
▁Ear	-2565
▁described	-2566
ees	-2567
7,	-2568
come	-2569
ores	-2570
▁Democrats	-2571
6,	-2572
ny	-2573
▁hands	-2574
oid	-2575
▁either	-2576
**	-2577
▁recogn	-2578
▁project	-2579
▁violence	-2580
▁else	-2581
▁San	-2582
▁box	-2583
▁educ	-2584
▁appeared	-2585
sw	-2586
▁prim	-2587
▁James	-2588
▁speak	-2589
▁included	-2590
RE	-2591
isl	-2592
udget	-2593
▁probably	-2594
▁Australia	-2595
tee	-2596
ization	-2597
▁families	-2598
▁towards	-2599
▁extra	-2600
▁County	-2601
itution	-2602
▁average	-2603
ened	-2604
▁however	-2605
▁previous	-2606
▁knew	-2607
▁fear	-2608
fort	-2609
▁esc	-2610
▁concerns	-2611
lev	-2612
ook	-2613
▁easy	-2614
▁ep	-2615
▁grand	-2616
▁pred	-2617
isc	-2618
▁phys	-2619
▁development	-2620
iff	-2621
▁Te	-2622
▁Res	-2623
▁Cons	-2624
▁takes	-2625
▁Per	-2626
ressive	-2627
▁neighb	-2628
▁opportunity	-2629
pper	-2630
▁wants	-2631
▁tro	-2632
▁ensure	-2633
idge	-2634
▁Air	-2635
arent	-2636
▁themselves	-2637
ey	-2638
▁dro	-2639
▁insp	-2640
▁pair	-2641
▁lower	-2642
▁Pet	-2643
▁hear	-2644
▁achie	-2645
-2	-2646
icted	-2647
▁rout	-2648
▁conditions	-2649
iles	-2650
▁Sch	-2651
▁clean	-2652
▁Je	-2653
cement	-2654
▁Britain	-2655
▁Christmas	-2656
▁sense	-2657
▁looked	-2658
▁prices	-2659
▁attacks	-2660
3.	-2661
▁gone	-2662
▁efforts	-2663
▁medical	-2664
▁elections	-2665
▁sound	-2666
▁arrested	-2667
▁brand	-2668
Picture	-2669
▁cancer	-2670
ening	-2671
▁accept	-2672
▁forces	-2673
▁allowed	-2674
ude	-2675
▁improve	-2676
ama	-2677
nings	-2678
▁authorities	-2679
▁bab	-2680
▁Mark	-2681
▁circ	-2682
▁pret	-2683
▁198	-2684
▁Jack	-2685
mitted	-2686
▁changes	-2687
alt	-2688
▁vir	-2689
▁Party	-2690
▁groups	-2691
▁Do	-2692
▁senior	-2693
ida	-2694
▁Africa	-2695
▁La	-2696
▁weekend	-2697
▁questions	-2698
▁lack	-2699
▁song	-2700
▁approach	-2701
hest	-2702
▁ill	-2703
▁anti	-2704
▁Prime	-2705
▁Another	-2706
▁quickly	-2707
based	-2708
▁sect	-2709
▁launched	-2710
▁Del	-2711
▁environment	-2712
▁create	-2713
▁crow	-2714
▁link	-2715
▁climate	-2716
▁force	-2717
▁leaving	-2718
▁vo	-2719
▁moved	-2720
▁amount	-2721
▁challen	-2722
▁Ben	-2723
▁repe	-2724
▁birth	-2725
▁cause	-2726
▁drink	-2727
▁charges	-2728
▁Sim	-2729
▁strik	-2730
▁prevent	-2731
▁majority	-2732
▁park	-2733
▁regular	-2734
rast	-2735
▁Cor	-2736
▁ord	-2737
undred	-2738
▁agency	-2739
▁training	-2740
▁nine	-2741
▁terms	-2742
▁candidate	-2743
do	-2744
▁Last	-2745
▁Phot	-2746
▁doct	-2747
▁helped	-2748
If	-2749
key	-2750
ully	-2751
ding	-2752
▁vers	-2753
▁clos	-2754
ply	-2755
▁cam	-2756
rying	-2757
▁Niger	-2758
▁danger	-2759
▁posted	-2760
▁decided	-2761
▁growing	-2762
▁Americans	-2763
mark	-2764
▁draw	-2765
▁peace	-2766
▁crisis	-2767
cy	-2768
raft	-2769
▁Mad	-2770
ht	-2771
ugh	-2772
▁unc	-2773
▁intro	-2774
▁gen	-2775
▁unf	-2776
la	-2777
ma	-2778
▁piec	-2779
igration	-2780
</	-2781
TV	-2782
▁flo	-2783
acing	-2784
▁adding	-2785
▁vol	-2786
▁conc	-2787
▁scene	-2788
▁strike	-2789
raz	-2790
▁consider	-2791
▁criminal	-2792
▁Act	-2793
▁conduct	-2794
▁perfect	-2795
▁serious	-2796
▁increasing	-2797
▁decl	-2798
▁speech	-2799
▁decades	-2800
bur	-2801
▁sil	-2802
aging	-2803
asons	-2804
▁Paul	-2805
▁weap	-2806
ension	-2807
▁cannot	-2808
They	-2809
▁Roy	-2810
▁debate	-2811
inese	-2812
▁paid	-2813
▁Times	-2814
▁exist	-2815
▁study	-2816
going	-2817
▁lif	-2818
▁looks	-2819
uty	-2820
▁aid	-2821
estern	-2822
▁alleg	-2823
▁En	-2824
ructure	-2825
▁myself	-2826
▁multiple	-2827
▁amb	-2828
▁cal	-2829
8.	-2830
aily	-2831
itiz	-2832
▁Spe	-2833
▁Bro	-2834
istic	-2835
rend	-2836
▁Met	-2837
illed	-2838
▁wide	-2839
▁teams	-2840
▁ways	-2841
▁ready	-2842
▁oil	-2843
▁sho	-2844
▁doub	-2845
ique	-2846
▁ess	-2847
▁typ	-2848
▁thousands	-2849
7.	-2850
pm	-2851
▁Mart	-2852
▁rock	-2853
▁1.	-2854
uries	-2855
▁winning	-2856
3,	-2857
▁rates	-2858
▁rules	-2859
▁ten	-2860
▁trust	-2861
▁treatment	-2862
unch	-2863
ope	-2864
▁vill	-2865
▁collect	-2866
friend	-2867
▁disapp	-2868
amb	-2869
▁bed	-2870
▁cover	-2871
▁character	-2872
▁Smith	-2873
▁estab	-2874
▁Chinese	-2875
emb	-2876
▁firm	-2877
▁pers	-2878
In	-2879
▁boy	-2880
▁Mean	-2881
apan	-2882
olute	-2883
▁date	-2884
igital	-2885
▁centre	-2886
▁journal	-2887
ceed	-2888
uing	-2889
▁itself	-2890
6.	-2891
AP	-2892
▁Tex	-2893
▁hur	-2894
▁Prem	-2895
reland	-2896
.,	-2897
▁21	-2898
iers	-2899
▁Fin	-2900
▁sun	-2901
anchester	-2902
▁followed	-2903
!"	-2904
▁pan	-2905
▁norm	-2906
▁wond	-2907
▁goes	-2908
haps	-2909
▁Los	-2910
▁cast	-2911
espite	-2912
▁independ	-2913
▁Of	-2914
▁property	-2915
▁alongside	-2916
▁inflation	-2917
▁hy	-2918
▁Serv	-2919
▁Michael	-2920
eth	-2921
▁tem	-2922
▁works	-2923
▁partner	-2924
airs	-2925
right	-2926
▁Coun	-2927
▁beat	-2928
▁ended	-2929
▁giving	-2930
▁officers	-2931
4,	-2932
▁fan	-2933
▁brother	-2934
▁er	-2935
▁bal	-2936
▁emot	-2937
▁executive	-2938
sy	-2939
alse	-2940
outhern	-2941
▁fourth	-2942
▁Scottish	-2943
ampionship	-2944
▁partners	-2945
▁immediately	-2946
▁sport	-2947
▁sto	-2948
▁Even	-2949
▁range	-2950
▁reb	-2951
▁Kore	-2952
▁2024.	-2953
▁Street	-2954
▁legisl	-2955
▁message	-2956
4.	-2957
ona	-2958
rap	-2959
ires	-2960
istry	-2961
▁fair	-2962
▁site	-2963
▁couldn	-2964
▁failed	-2965
▁customers	-2966
▁Phil	-2967
▁dram	-2968
▁kick	-2969
overed	-2970
▁attention	-2971
▁cy	-2972
iled	-2973
reng	-2974
▁sat	-2975
▁vac	-2976
▁deliver	-2977
ushed	-2978
▁particip	-2979
lict	-2980
▁runs	-2981
▁Manchester	-2982
aught	-2983
▁homes	-2984
▁Chief	-2985
▁title	-2986
ams	-2987
asion	-2988
▁favour	-2989
▁hundred	-2990
▁opening	-2991
▁products	-2992
▁prosecut	-2993
oper	-2994
▁wel	-2995
▁levels	-2996
ani	-2997
▁Japan	-2998
▁forced	-2999
esperson	-3000
▁encoura	-3001
▁offers	-3002
▁Meanwhile	-3003
▁2.	-3004
▁fast	-3005
▁surv	-3006
▁Germany	-3007
▁contact	-3008
▁spending	-3009
▁production	-3010
▁separ	-3011
▁raised	-3012
▁explained	-3013
▁investment	-3014
▁i	-3015
aves	-3016
▁histor	-3017
▁talking	-3018
▁Op	-3019
▁gets	-3020
entially	-3021
▁anim	-3022
isions	-3023
▁goals	-3024
▁touch	-3025
▁officer	-3026
▁Ukrainian	-3027
▁published	-3028
AT	-3029
ibly	-3030
▁bag	-3031
▁rise	-3032
▁Ireland	-3033
vey	-3034
book	-3035
▁sens	-3036
▁above	-3037
▁emb	-3038
arian	-3039
▁sexual	-3040
▁webs	-3041
gu	-3042
het	-3043
▁Mur	-3044
▁true	-3045
▁launch	-3046
ervative	-3047
▁Republicans	-3048
▁Flor	-3049
▁Then	-3050
▁spokesperson	-3051
▁agre	-3052
▁answ	-3053
isation	-3054
▁Intern	-3055
itor	-3056
▁rev	-3057
▁swe	-3058
ellig	-3059
illeg	-3060
ession	-3061
▁convers	-3062
▁reached	-3063
But	-3064
▁(1	-3065
▁aim	-3066
ken	-3067
▁natur	-3068
▁consum	-3069
▁includes	-3070
▁Sing	-3071
▁sched	-3072
▁challenge	-3073
▁ren	-3074
▁cat	-3075
▁effort	-3076
▁problems	-3077
▁1,	-3078
▁rad	-3079
▁har	-3080
▁ult	-3081
▁Alex	-3082
▁starting	-3083
▁Government	-3084
▁slow	-3085
▁Despite	-3086
-0	-3087
ishing	-3088
▁Other	-3089
▁Texas	-3090
▁common	-3091
▁govern	-3092
▁streng	-3093
▁complain	-3094
erc	-3095
▁2024,	-3096
▁noted	-3097
▁defe	-3098
▁comments	-3099
jects	-3100
ij	-3101
▁bur	-3102
lying	-3103
▁lawy	-3104
▁mill	-3105
▁block	-3106
▁dream	-3107
▁feeling	-3108
▁Kam	-3109
▁Ken	-3110
▁lik	-3111
orney	-3112
▁words	-3113
▁People	-3114
▁technology	-3115
▁ver	-3116
aches	-3117
sequ	-3118
▁blood	-3119
▁model	-3120
▁seems	-3121
▁parties	-3122
vere	-3123
yond	-3124
ander	-3125
upreme	-3126
▁built	-3127
▁sleep	-3128
▁central	-3129
▁challenges	-3130
vent	-3131
oking	-3132
AS	-3133
▁named	-3134
▁Rober	-3135
▁spoke	-3136
▁specific	-3137
resh	-3138
▁skin	-3139
▁actor	-3140
▁Johnson	-3141
miss	-3142
ounts	-3143
▁illeg	-3144
▁value	-3145
▁Tik	-3146
▁search	-3147
Tok	-3148
ari	-3149
▁197	-3150
▁Tay	-3151
▁card	-3152
▁meant	-3153
▁stock	-3154
▁Che	-3155
▁High	-3156
▁First	-3157
▁calls	-3158
ago	-3159
▁2020	-3160
▁Bank	-3161
▁roll	-3162
ression	-3163
▁injury	-3164
▁conflict	-3165
▁politics	-3166
▁residents	-3167
aded	-3168
anda	-3169
ston	-3170
▁save	-3171
▁sell	-3172
rief	-3173
▁nar	-3174
▁pretty	-3175
▁warned	-3176
▁weather	-3177
▁positive	-3178
▁quality	-3179
van	-3180
ester	-3181
▁kept	-3182
▁changed	-3183
rab	-3184
adium	-3185
▁joined	-3186
omb	-3187
▁Associ	-3188
yal	-3189
▁Mac	-3190
▁trip	-3191
▁Putin	-3192
▁Office	-3193
▁extreme	-3194
▁conference	-3195
▁capt	-3196
ements	-3197
orthern	-3198
▁sal	-3199
▁hair	-3200
▁During	-3201
▁Mod	-3202
▁heat	-3203
▁source	-3204
▁Angeles	-3205
▁reflect	-3206
▁MP	-3207
▁nom	-3208
action	-3209
ortion	-3210
▁2022,	-3211
▁avoid	-3212
▁wat	-3213
▁crime	-3214
▁exact	-3215
▁straight	-3216
lam	-3217
▁EU	-3218
▁fem	-3219
▁users	-3220
▁compared	-3221
▁returned	-3222
▁effective	-3223
60	-3224
asc	-3225
▁Many	-3226
▁green	-3227
▁mental	-3228
vil	-3229
▁Rob	-3230
▁amid	-3231
▁necess	-3232
▁Cap	-3233
▁bow	-3234
▁prime	-3235
▁TikTok	-3236
▁budget	-3237
▁funding	-3238
ground	-3239
▁Florida	-3240
ems	-3241
term	-3242
▁jobs	-3243
ole	-3244
▁Jos	-3245
▁Que	-3246
▁Two	-3247
▁holiday	-3248
▁restaur	-3249
▁Tw	-3250
lands	-3251
▁drive	-3252
igrants	-3253
▁contract	-3254
por	-3255
angu	-3256
omen	-3257
▁obv	-3258
▁22	-3259
▁Fox	-3260
▁Tra	-3261
night	-3262
coming	-3263
▁Harry	-3264
▁murder	-3265
bre	-3266
enty	-3267
▁Tom	-3268
▁From	-3269
idered	-3270
▁Green	-3271
▁leadership	-3272
St	-3273
oul	-3274
▁seeing	-3275
▁simply	-3276
▁alone	-3277
imately	-3278
99	-3279
▁rain	-3280
iction	-3281
▁crowd	-3282
▁opened	-3283
▁communities	-3284
raw	-3285
▁baby	-3286
▁regul	-3287
▁associ	-3288
ously	-3289
▁movie	-3290
▁document	-3291
▁citiz	-3292
▁indic	-3293
▁caused	-3294
▁issued	-3295
▁details	-3296
▁features	-3297
oph	-3298
rim	-3299
▁Bel	-3300
eneral	-3301
▁website	-3302
ado	-3303
ager	-3304
▁Over	-3305
▁score	-3306
▁signed	-3307
▁Council	-3308
omp	-3309
That	-3310
▁fra	-3311
▁rare	-3312
▁Every	-3313
▁north	-3314
▁network	-3315
▁electric	-3316
▁remember	-3317
ruction	-3318
▁calling	-3319
▁various	-3320
▁opposition	-3321
iful	-3322
▁wild	-3323
▁behav	-3324
▁judge	-3325
elligence	-3326
▁throughout	-3327
itc	-3328
iance	-3329
▁wed	-3330
astic	-3331
ingly	-3332
▁sust	-3333
▁Senate	-3334
▁league	-3335
azon	-3336
oman	-3337
▁fest	-3338
▁2023,	-3339
▁Georg	-3340
▁feels	-3341
▁passed	-3342
andemic	-3343
▁remark	-3344
ript	-3345
▁charge	-3346
▁schools	-3347
oti	-3348
▁Sa	-3349
▁Bec	-3350
▁parts	-3351
▁incred	-3352
▁evening	-3353
▁Sir	-3354
▁cash	-3355
▁charged	-3356
▁content	-3357
▁largest	-3358
▁increased	-3359
ett	-3360
▁fit	-3361
▁base	-3362
▁boss	-3363
▁wait	-3364
▁defin	-3365
▁terror	-3366
uf	-3367
▁numbers	-3368
▁Ant	-3369
▁Soc	-3370
▁mater	-3371
rel	-3372
▁gas	-3373
alent	-3374
▁Here	-3375
▁demon	-3376
olution	-3377
▁sports	-3378
oms	-3379
▁60	-3380
erve	-3381
▁Cam	-3382
Getty	-3383
▁Since	-3384
▁highest	-3385
▁sometimes	-3386
clus	-3387
▁path	-3388
▁thinking	-3389
▁--	-3390
▁Ag	-3391
▁aware	-3392
▁created	-3393
urch	-3394
▁boost	-3395
▁housing	-3396
▁Mos	-3397
▁trade	-3398
▁afford	-3399
▁agreed	-3400
▁prem	-3401
▁sales	-3402
roy	-3403
▁UN	-3404
anced	-3405
inary	-3406
▁shock	-3407
▁choice	-3408
▁regard	-3409
▁condition	-3410
vell	-3411
▁Rich	-3412
▁heavy	-3413
▁considered	-3414
▁Port	-3415
▁remov	-3416
▁Supreme	-3417
▁injured	-3418
▁upd	-3419
▁disp	-3420
▁recomm	-3421
▁ongoing	-3422
HS	-3423
rey	-3424
yan	-3425
ancy	-3426
ites	-3427
uals	-3428
▁McC	-3429
▁Ser	-3430
uments	-3431
▁International	-3432
EO	-3433
ST	-3434
▁Mex	-3435
▁Taylor	-3436
▁inn	-3437
▁comfort	-3438
▁victims	-3439
ugg	-3440
▁door	-3441
▁middle	-3442
zz	-3443
▁chair	-3444
▁south	-3445
▁George	-3446
▁attend	-3447
▁effect	-3448
ux	-3449
▁offered	-3450
▁policies	-3451
men	-3452
▁debut	-3453
▁Premier	-3454
aries	-3455
atory	-3456
shire	-3457
▁assault	-3458
-4	-3459
▁Def	-3460
▁hearing	-3461
▁candidates	-3462
vin	-3463
▁epis	-3464
▁sector	-3465
▁massive	-3466
▁missing	-3467
▁repeated	-3468
aling	-3469
itter	-3470
▁fighting	-3471
▁Apple	-3472
▁Guard	-3473
▁meaning	-3474
▁contribut	-3475
JP	-3476
▁award	-3477
itz	-3478
ickets	-3479
▁Super	-3480
▁estim	-3481
24	-3482
▁Mic	-3483
▁Nor	-3484
▁patients	-3485
▁businesses	-3486
ghan	-3487
roud	-3488
▁enfor	-3489
▁Health	-3490
▁temper	-3491
▁finally	-3492
▁require	-3493
▁que	-3494
▁education	-3495
oo	-3496
▁Gar	-3497
▁trou	-3498
▁provided	-3499
▁reportedly	-3500
▁Ha	-3501
▁Dis	-3502
icles	-3503
▁reality	-3504
▁Palestinian	-3505
lements	-3506
ification	-3507
oud	-3508
▁fre	-3509
▁hotel	-3510
▁beyond	-3511
▁damage	-3512
▁primary	-3513
▁witness	-3514
▁absolute	-3515
And	-3516
▁facing	-3517
▁English	-3518
▁Jud	-3519
▁refer	-3520
▁table	-3521
▁promot	-3522
▁scored	-3523
▁screen	-3524
▁council	-3525
500	-3526
▁spl	-3527
isted	-3528
▁passeng	-3529
▁critical	-3530
alls	-3531
▁battle	-3532
ashion	-3533
▁loved	-3534
▁seats	-3535
tr	-3536
asts	-3537
▁spend	-3538
eing	-3539
elled	-3540
▁drop	-3541
▁ones	-3542
▁Amazon	-3543
▁flight	-3544
ext	-3545
ounds	-3546
makers	-3547
▁Holly	-3548
▁spread	-3549
▁wouldn	-3550
▁ability	-3551
▁figures	-3552
▁progress	-3553
▁produc	-3554
▁request	-3555
sea	-3556
pool	-3557
▁Mel	-3558
▁lay	-3559
arily	-3560
▁storm	-3561
▁attract	-3562
▁options	-3563
▁injuries	-3564
▁0	-3565
▁Wales	-3566
▁faced	-3567
▁natural	-3568
▁additional	-3569
fl	-3570
win	-3571
▁Ber	-3572
▁Our	-3573
▁obs	-3574
▁Union	-3575
▁champ	-3576
▁dress	-3577
▁benefits	-3578
▁competition	-3579
▁3.	-3580
▁Su	-3581
racy	-3582
▁Pak	-3583
▁seat	-3584
▁showing	-3585
▁continues	-3586
▁Mil	-3587
▁sym	-3588
▁tourn	-3589
▁credit	-3590
▁shooting	-3591
▁emergency	-3592
AR	-3593
ki	-3594
fire	-3595
▁2021	-3596
▁teen	-3597
▁station	-3598
▁maintain	-3599
roll	-3600
▁mob	-3601
▁pul	-3602
▁poor	-3603
▁pandemic	-3604
AN	-3605
ilty	-3606
▁Mal	-3607
azing	-3608
▁Spain	-3609
▁views	-3610
▁moving	-3611
ER	-3612
ci	-3613
▁serve	-3614
▁culture	-3615
▁mix	-3616
▁Fore	-3617
▁Kamala	-3618
▁although	-3619
ears	-3620
lined	-3621
▁rule	-3622
▁flood	-3623
▁double	-3624
▁owners	-3625
▁weight	-3626
▁certainly	-3627
▁Justice	-3628
▁hundreds	-3629
▁parliament	-3630
▁23	-3631
▁Qu	-3632
▁din	-3633
▁stre	-3634
▁email	-3635
▁miles	-3636
rian	-3637
▁Chel	-3638
jected	-3639
▁applic	-3640
orrow	-3641
▁penal	-3642
▁arrived	-3643
▁surround	-3644
ev	-3645
hib	-3646
ashed	-3647
▁Open	-3648
▁dark	-3649
▁eyes	-3650
▁places	-3651
cing	-3652
▁cool	-3653
▁dise	-3654
▁required	-3655
▁ath	-3656
▁protest	-3657
▁Leban	-3658
▁freed	-3659
▁figure	-3660
▁student	-3661
▁becoming	-3662
▁millions	-3663
rect	-3664
▁fully	-3665
▁expert	-3666
▁respect	-3667
▁telling	-3668
▁population	-3669
▁professional	-3670
apt	-3671
irt	-3672
▁purch	-3673
▁contest	-3674
▁experts	-3675
▁justice	-3676
▁watching	-3677
bing	-3678
ading	-3679
iring	-3680
▁guilty	-3681
▁$2	-3682
abor	-3683
annel	-3684
▁Post	-3685
▁herself	-3686
▁married	-3687
bum	-3688
▁Gold	-3689
▁band	-3690
▁Royal	-3691
▁subst	-3692
▁reduce	-3693
▁Olympic	-3694
eed	-3695
hol	-3696
▁initi	-3697
▁suggested	-3698
▁Jones	-3699
▁served	-3700
omes	-3701
estic	-3702
▁jump	-3703
▁decade	-3704
▁planning	-3705
oked	-3706
izing	-3707
▁store	-3708
▁Wal	-3709
arden	-3710
itute	-3711
▁sche	-3712
▁fresh	-3713
▁seemed	-3714
▁territ	-3715
My	-3716
itely	-3717
▁defense	-3718
▁journey	-3719
▁limited	-3720
▁eventually	-3721
FL	-3722
▁doz	-3723
ively	-3724
▁Carol	-3725
▁negoti	-3726
cel	-3727
▁pod	-3728
▁push	-3729
ancing	-3730
ahu	-3731
orter	-3732
senal	-3733
berg	-3734
▁bott	-3735
▁Franc	-3736
▁winner	-3737
▁driving	-3738
▁restrict	-3739
wide	-3740
▁BJP	-3741
▁Mat	-3742
▁dom	-3743
▁farm	-3744
utions	-3745
▁spark	-3746
▁Service	-3747
▁Pakistan	-3748
olf	-3749
When	-3750
▁version	-3751
▁completely	-3752
acts	-3753
well	-3754
▁eye	-3755
▁hour	-3756
▁rank	-3757
▁believed	-3758
▁physical	-3759
▁Commission	-3760
know	-3761
tery	-3762
vest	-3763
illing	-3764
▁tough	-3765
ication	-3766
▁defend	-3767
▁Bay	-3768
▁pun	-3769
▁jail	-3770
▁pict	-3771
▁soft	-3772
▁2023.	-3773
▁coast	-3774
▁propos	-3775
▁fine	-3776
▁squad	-3777
▁Lou	-3778
▁langu	-3779
▁counter	-3780
▁determin	-3781
▁flag	-3782
▁voice	-3783
▁annual	-3784
▁receive	-3785
▁measures	-3786
▁original	-3787
iling	-3788
▁Rec	-3789
▁expand	-3790
▁beautiful	-3791
▁4.	-3792
▁Tur	-3793
▁imag	-3794
▁rally	-3795
▁traff	-3796
▁picture	-3797
▁admitted	-3798
ու	-3799
ria	-3800
▁27	-3801
▁closed	-3802
▁Ir	-3803
▁sort	-3804
▁reven	-3805
▁usually	-3806
eg	-3807
▁£2	-3808
What	-3809
iced	-3810
illa	-3811
▁Wil	-3812
▁mist	-3813
▁haven	-3814
▁wonder	-3815
▁designed	-3816
▁allegations	-3817
gent	-3818
pect	-3819
▁Law	-3820
▁fix	-3821
▁Mike	-3822
▁asking	-3823
▁General	-3824
▁writing	-3825
▁material	-3826
▁Most	-3827
▁spir	-3828
uclear	-3829
▁driver	-3830
▁supporters	-3831
uct	-3832
cle	-3833
▁CEO	-3834
▁fat	-3835
▁scen	-3836
▁seeking	-3837
▁waiting	-3838
▁warning	-3839
▁Williams	-3840
ym	-3841
▁rap	-3842
▁abuse	-3843
▁album	-3844
▁older	-3845
▁agreement	-3846
▁committed	-3847
▁Kh	-3848
▁Tim	-3849
▁Val	-3850
antic	-3851
owers	-3852
▁brief	-3853
▁actions	-3854
▁southern	-3855
▁operations	-3856
▁tack	-3857
▁proud	-3858
▁speed	-3859
▁letter	-3860
{"	-3861
▁Sal	-3862
urance	-3863
▁Group	-3864
▁trend	-3865
▁Prince	-3866
▁Olympics	-3867
▁district	-3868
imum	-3869
vert	-3870
▁agg	-3871
▁votes	-3872
▁politic	-3873
ked	-3874
ume	-3875
▁Ob	-3876
iser	-3877
▁Mer	-3878
▁Khan	-3879
▁debt	-3880
▁stated	-3881
emocracy	-3882
▁defence	-3883
▁perhaps	-3884
▁dad	-3885
▁mag	-3886
▁2022.	-3887
▁mention	-3888
▁stories	-3889
▁weapons	-3890
▁secretary	-3891
rastructure	-3892
▁28	-3893
house	-3894
▁doll	-3895
▁filed	-3896
▁School	-3897
▁appeal	-3898
▁denied	-3899
▁wearing	-3900
chers	-3901
▁exch	-3902
▁display	-3903
▁citizens	-3904
▁rac	-3905
where	-3906
▁photo	-3907
▁plant	-3908
▁practice	-3909
▁decisions	-3910
uled	-3911
encies	-3912
▁modern	-3913
▁Georgia	-3914
▁achieve	-3915
▁overall	-3916
▁abortion	-3917
▁highlight	-3918
She	-3919
onn	-3920
amin	-3921
attle	-3922
▁occur	-3923
▁stars	-3924
▁feature	-3925
har	-3926
ipp	-3927
oral	-3928
▁God	-3929
▁deg	-3930
▁analy	-3931
▁smart	-3932
uses	-3933
▁nice	-3934
▁sale	-3935
▁throw	-3936
ological	-3937
▁Nigeria	-3938
▁illegal	-3939
▁killing	-3940
▁putting	-3941
iqu	-3942
lom	-3943
aining	-3944
▁dropped	-3945
itt	-3946
▁mount	-3947
▁benefit	-3948
▁finished	-3949
▁dangerous	-3950
▁intelligence	-3951
ան	-3952
▁Art	-3953
▁Jew	-3954
▁cry	-3955
▁prec	-3956
▁camera	-3957
▁resour	-3958
▁records	-3959
▁individuals	-3960
rupt	-3961
ufact	-3962
▁consist	-3963
no	-3964
cow	-3965
empor	-3966
▁Hall	-3967
▁born	-3968
▁clot	-3969
▁female	-3970
▁option	-3971
▁Musk	-3972
strong	-3973
knowled	-3974
▁stream	-3975
▁allegedly	-3976
emi	-3977
▁CB	-3978
▁Penn	-3979
▁diagn	-3980
▁gives	-3981
▁talks	-3982
▁caught	-3983
▁finish	-3984
▁appears	-3985
ota	-3986
run	-3987
▁Chic	-3988
▁stuff	-3989
▁ded	-3990
▁harm	-3991
zb	-3992
rid	-3993
abin	-3994
riage	-3995
▁user	-3996
▁word	-3997
ewhere	-3998
▁pitch	-3999
▁dismiss	-4000
▁moments	-4001
▁department	-4002
As	-4003
▁Kel	-4004
▁pet	-4005
ivity	-4006
▁cold	-4007
▁style	-4008
nder	-4009
▁lose	-4010
▁shut	-4011
▁whom	-4012
▁helping	-4013
▁successful	-4014
ero	-4015
block	-4016
iment	-4017
▁cars	-4018
▁paper	-4019
▁Daniel	-4020
▁winter	-4021
▁acknowled	-4022
▁tournament	-4023
gn	-4024
iar	-4025
ola	-4026
▁ic	-4027
▁Both	-4028
▁feet	-4029
ointed	-4030
▁image	-4031
▁stick	-4032
▁losing	-4033
▁nature	-4034
▁Chelsea	-4035
lim	-4036
▁CN	-4037
▁rob	-4038
▁Vict	-4039
▁maybe	-4040
▁society	-4041
rif	-4042
▁80	-4043
rick	-4044
▁ran	-4045
▁thr	-4046
ollah	-4047
▁retail	-4048
▁simple	-4049
anyahu	-4050
▁floor	-4051
▁girls	-4052
▁employees	-4053
▁Photograph	-4054
dy	-4055
▁Ma	-4056
igan	-4057
▁Far	-4058
▁fle	-4059
▁Games	-4060
▁Martin	-4061
▁normal	-4062
▁college	-4063
▁dip	-4064
▁Hill	-4065
▁Mary	-4066
▁Liver	-4067
▁learn	-4068
▁island	-4069
▁addition	-4070
▁Secretary	-4071
▁responsible	-4072
▁traditional	-4073
▁infrastructure	-4074
rs	-4075
ato	-4076
izz	-4077
▁Modi	-4078
▁aren	-4079
▁cerem	-4080
▁famous	-4081
▁Arsenal	-4082
▁concern	-4083
▁holding	-4084
▁movement	-4085
On	-4086
care	-4087
more	-4088
▁Kate	-4089
▁worse	-4090
▁secure	-4091
▁champion	-4092
▁directly	-4093
gar	-4094
oday	-4095
ogle	-4096
burgh	-4097
isters	-4098
▁daily	-4099
▁lands	-4100
▁income	-4101
▁street	-4102
▁beginning	-4103
40	-4104
fit	-4105
▁NHS	-4106
▁Yet	-4107
ushing	-4108
▁transfer	-4109
phy	-4110
▁Ram	-4111
ables	-4112
▁below	-4113
▁Moscow	-4114
▁Starmer	-4115
▁amazing	-4116
▁Speaking	-4117
▁transport	-4118
▁26	-4119
▁bi	-4120
▁Add	-4121
▁pra	-4122
▁Thom	-4123
▁favor	-4124
▁Former	-4125
▁complex	-4126
▁Netanyahu	-4127
▁confidence	-4128
▁.	-4129
▁Why	-4130
▁2019	-4131
▁fuel	-4132
▁travell	-4133
▁suffered	-4134
▁individual	-4135
▁manufact	-4136
▁offering	-4137
▁speaking	-4138
bn	-4139
uke	-4140
▁Fl	-4141
▁MO	-4142
▁Ari	-4143
▁Mag	-4144
overy	-4145
tered	-4146
▁singer	-4147
▁stopped	-4148
▁audience	-4149
▁potentially	-4150
ali	-4151
rip	-4152
▁Cr	-4153
▁purs	-4154
atever	-4155
▁piece	-4156
▁vehicle	-4157
▁immigration	-4158
rial	-4159
▁Big	-4160
▁kid	-4161
▁ton	-4162
▁Arab	-4163
▁resc	-4164
▁Chicago	-4165
▁protests	-4166
▁expressed	-4167
IN	-4168
antly	-4169
igned	-4170
▁nuclear	-4171
▁attorney	-4172
So	-4173
dd	-4174
anta	-4175
▁knows	-4176
▁shown	-4177
▁altern	-4178
▁victim	-4179
▁Security	-4180
iders	-4181
▁Play	-4182
▁teac	-4183
▁Italy	-4184
▁Queen	-4185
mission	-4186
▁supply	-4187
▁strateg	-4188
▁younger	-4189
▁vehicles	-4190
▁Liverpool	-4191
▁independent	-4192
OP	-4193
eum	-4194
▁90	-4195
▁unp	-4196
eless	-4197
▁Step	-4198
▁size	-4199
▁broke	-4200
▁telev	-4201
▁focused	-4202
▁powerful	-4203
▁appearance	-4204
',	-4205
ga	-4206
bit	-4207
ador	-4208
long	-4209
▁Their	-4210
▁exactly	-4211
▁wedding	-4212
ka	-4213
▁Jon	-4214
▁Sar	-4215
▁sea	-4216
ategy	-4217
▁shel	-4218
▁shop	-4219
ID	-4220
▁ship	-4221
▁answer	-4222
▁depart	-4223
▁carried	-4224
▁reasons	-4225
▁opportunities	-4226
▁Bur	-4227
▁Bill	-4228
▁brain	-4229
▁missed	-4230
▁surger	-4231
▁fashion	-4232
ker	-4233
kin	-4234
part	-4235
ruit	-4236
▁blue	-4237
▁text	-4238
▁tool	-4239
▁Grand	-4240
▁names	-4241
▁plenty	-4242
▁planned	-4243
ucky	-4244
▁bod	-4245
▁mum	-4246
▁sad	-4247
▁cruc	-4248
▁Delhi	-4249
▁defeat	-4250
▁clearly	-4251
▁village	-4252
▁believes	-4253
▁surprise	-4254
▁yourself	-4255
▁controvers	-4256
▁Bet	-4257
▁Center	-4258
▁Francis	-4259
▁Pri	-4260
▁faces	-4261
▁owner	-4262
zbollah	-4263
udi	-4264
▁ir	-4265
▁san	-4266
▁items	-4267
▁Island	-4268
▁cities	-4269
▁secret	-4270
▁responded	-4271
mar	-4272
▁vs	-4273
acity	-4274
angers	-4275
▁Google	-4276
▁troops	-4277
▁matches	-4278
▁implement	-4279
▁Reg	-4280
▁tens	-4281
▁African	-4282
▁affected	-4283
▁commitment	-4284
va	-4285
bon	-4286
ica	-4287
star	-4288
▁veter	-4289
▁remind	-4290
▁sitting	-4291
▁systems	-4292
▁unlike	-4293
▁managed	-4294
▁essential	-4295
▁psy	-4296
▁onto	-4297
ulated	-4298
▁fellow	-4299
▁domestic	-4300
▁identified	-4301
▁management	-4302
ube	-4303
▁arch	-4304
atures	-4305
ribute	-4306
▁talent	-4307
▁Western	-4308
agues	-4309
▁suit	-4310
▁comed	-4311
▁Andrew	-4312
▁ruling	-4313
▁digital	-4314
▁Australian	-4315
ads	-4316
uild	-4317
▁struck	-4318
▁concerned	-4319
▁transform	-4320
alys	-4321
inians	-4322
▁plays	-4323
▁reform	-4324
▁ticket	-4325
▁episode	-4326
▁footage	-4327
ils	-4328
ini	-4329
week	-4330
▁Att	-4331
▁Vir	-4332
▁crew	-4333
▁upon	-4334
incess	-4335
▁lived	-4336
pet	-4337
icial	-4338
inger	-4339
▁surf	-4340
▁oppon	-4341
▁shares	-4342
▁Charles	-4343
▁standing	-4344
emy	-4345
gers	-4346
just	-4347
▁Bre	-4348
▁cas	-4349
▁Face	-4350
▁tech	-4351
▁projects	-4352
▁Hezbollah	-4353
25	-4354
▁Kim	-4355
iller	-4356
▁Dist	-4357
anging	-4358
▁Those	-4359
▁Thomas	-4360
▁retire	-4361
▁unique	-4362
BA	-4363
noon	-4364
▁uns	-4365
▁carry	-4366
▁twice	-4367
▁worst	-4368
itarian	-4369
vention	-4370
▁assess	-4371
▁bought	-4372
▁minute	-4373
▁voting	-4374
▁strikes	-4375
▁emotional	-4376
▁Den	-4377
▁adop	-4378
▁wins	-4379
▁stress	-4380
▁connect	-4381
▁strategy	-4382
80	-4383
ibr	-4384
ula	-4385
▁fa	-4386
hand	-4387
page	-4388
▁Out	-4389
▁row	-4390
ipped	-4391
lines	-4392
▁truth	-4393
▁engine	-4394
▁placed	-4395
▁regist	-4396
▁happens	-4397
▁Ac	-4398
▁II	-4399
▁emph	-4400
▁center	-4401
▁rising	-4402
▁afternoon	-4403
▁Love	-4404
▁withd	-4405
▁photos	-4406
▁scient	-4407
▁Instead	-4408
▁sustain	-4409
nel	-4410
▁mach	-4411
▁Mexico	-4412
▁democracy	-4413
lix	-4414
ville	-4415
▁opin	-4416
▁drugs	-4417
agement	-4418
▁except	-4419
▁article	-4420
▁walking	-4421
▁Carolina	-4422
▁committee	-4423
▁providing	-4424
▁legislation	-4425
▁increasingly	-4426
No	-4427
▁PM	-4428
▁stun	-4429
▁Canada	-4430
▁sister	-4431
▁slight	-4432
▁toward	-4433
Ph	-4434
type	-4435
▁aged	-4436
▁refe	-4437
▁warm	-4438
▁Press	-4439
▁lines	-4440
▁prompt	-4441
▁activities	-4442
▁definitely	-4443
▁supporting	-4444
eds	-4445
▁5.	-4446
▁Max	-4447
▁gar	-4448
▁signs	-4449
▁linked	-4450
▁survey	-4451
▁freedom	-4452
hod	-4453
pir	-4454
oses	-4455
▁sav	-4456
▁flat	-4457
▁2021,	-4458
▁advice	-4459
▁century	-4460
▁disease	-4461
▁Mah	-4462
▁Sky	-4463
▁rom	-4464
using	-4465
▁Ryan	-4466
▁Singh	-4467
▁crack	-4468
▁pregn	-4469
atively	-4470
ecution	-4471
▁Sports	-4472
▁athlet	-4473
▁Although	-4474
▁difference	-4475
ON	-4476
andon	-4477
inals	-4478
▁send	-4479
▁appre	-4480
▁sides	-4481
▁Commit	-4482
▁corner	-4483
▁declared	-4484
▁language	-4485
▁influence	-4486
▁Test	-4487
▁domin	-4488
▁exerc	-4489
▁Direct	-4490
▁highly	-4491
▁captain	-4492
▁establish	-4493
▁suffering	-4494
▁Rs	-4495
erry	-4496
▁grad	-4497
▁hasn	-4498
▁lock	-4499
▁Brown	-4500
▁rough	-4501
▁consult	-4502
▁operation	-4503
▁absolutely	-4504
▁commission	-4505
rol	-4506
ifth	-4507
▁ign	-4508
▁Swift	-4509
▁images	-4510
▁settle	-4511
▁starts	-4512
▁ang	-4513
▁note	-4514
▁Korea	-4515
▁subject	-4516
▁ca	-4517
▁Gre	-4518
▁Great	-4519
▁Peter	-4520
▁polls	-4521
▁allies	-4522
▁activity	-4523
▁expensive	-4524
oe	-4525
mod	-4526
▁tim	-4527
▁Under	-4528
▁honest	-4529
▁finding	-4530
▁keeping	-4531
▁­	-4532
▁29	-4533
▁Ital	-4534
▁rent	-4535
▁Social	-4536
▁diplom	-4537
▁status	-4538
ca	-4539
war	-4540
▁coal	-4541
▁cuts	-4542
▁advoc	-4543
▁union	-4544
▁mostly	-4545
▁select	-4546
▁lawsuit	-4547
▁proposed	-4548
dden	-4549
wise	-4550
▁Bow	-4551
erved	-4552
rated	-4553
▁mort	-4554
▁Hollywood	-4555
▁resources	-4556
▁discovered	-4557
BI	-4558
eal	-4559
ici	-4560
▁70	-4561
▁Ty	-4562
▁196	-4563
ength	-4564
▁type	-4565
▁Chris	-4566
▁beach	-4567
▁breat	-4568
▁steps	-4569
itation	-4570
▁Lebanon	-4571
▁enforcement	-4572
AC	-4573
▁Jam	-4574
▁bon	-4575
onald	-4576
▁Vice	-4577
▁behavi	-4578
▁devast	-4579
▁resear	-4580
▁territory	-4581
▁/	-4582
▁Keir	-4583
▁Like	-4584
▁vice	-4585
icient	-4586
▁thank	-4587
▁sources	-4588
▁demonstr	-4589
▁household	-4590
ste	-4591
▁Atl	-4592
▁bra	-4593
oured	-4594
esterday	-4595
▁streets	-4596
▁experienced	-4597
▁0.	-4598
arant	-4599
▁cong	-4600
▁Before	-4601
▁Victor	-4602
▁severe	-4603
▁crucial	-4604
▁marriage	-4605
▁Championship	-4606
10	-4607
▁#	-4608
▁@	-4609
wan	-4610
flix	-4611
▁Cov	-4612
▁Fed	-4613
rative	-4614
▁enter	-4615
▁funds	-4616
▁introduced	-4617
▁protection	-4618
"}	-4619
ena	-4620
▁bid	-4621
▁Swed	-4622
▁accounts	-4623
▁repeatedly	-4624
▁Sl	-4625
aming	-4626
itude	-4627
▁Wall	-4628
▁doubt	-4629
▁grant	-4630
▁minor	-4631
▁Robert	-4632
▁scheme	-4633
▁mission	-4634
▁restaurant	-4635
17	-4636
▁AP	-4637
▁guy	-4638
luded	-4639
▁deals	-4640
ruption	-4641
▁Seattle	-4642
▁surgery	-4643
▁written	-4644
▁convicted	-4645
▁conversation	-4646
rie	-4647
aked	-4648
▁delay	-4649
▁sudden	-4650
▁thanks	-4651
▁balance	-4652
-3	-4653
▁Sab	-4654
▁psych	-4655
▁emphas	-4656
▁bringing	-4657
▁migrants	-4658
▁separate	-4659
▁favourite	-4660
▁investors	-4661
▁connection	-4662
GB	-4663
▁Ol	-4664
life	-4665
▁deaths	-4666
▁cricket	-4667
▁necessary	-4668
cont	-4669
ells	-4670
ware	-4671
▁Dub	-4672
▁Kar	-4673
▁ven	-4674
▁appl	-4675
▁cred	-4676
▁pled	-4677
▁task	-4678
▁tight	-4679
▁Richard	-4680
▁viewers	-4681
▁collabor	-4682
▁upcoming	-4683
▁university	-4684
vis	-4685
▁Er	-4686
▁Sur	-4687
▁cha	-4688
usion	-4689
▁Braz	-4690
▁clin	-4691
▁split	-4692
▁gender	-4693
▁organization	-4694
inn	-4695
▁Ell	-4696
▁Let	-4697
adesh	-4698
▁2025	-4699
▁vacc	-4700
itchen	-4701
▁raise	-4702
▁youth	-4703
▁spokes	-4704
▁ceremony	-4705
▁regional	-4706
onic	-4707
▁eat	-4708
▁vul	-4709
▁acqu	-4710
▁Vance	-4711
▁wealth	-4712
▁largely	-4713
▁underst	-4714
▁Committee	-4715
ita	-4716
cher	-4717
▁cop	-4718
eline	-4719
▁exam	-4720
encing	-4721
▁Women	-4722
▁related	-4723
▁happening	-4724
▁initially	-4725
gen	-4726
▁Who	-4727
▁agree	-4728
▁doctors	-4729
▁governor	-4730
▁passengers	-4731
▁television	-4732
gin	-4733
▁CO	-4734
icip	-4735
▁Ver	-4736
▁enh	-4737
uters	-4738
▁grew	-4739
million	-4740
▁affect	-4741
▁paying	-4742
▁obviously	-4743
▁Cur	-4744
▁Good	-4745
▁Sunak	-4746
▁bigger	-4747
▁Netflix	-4748
▁consequ	-4749
▁elected	-4750
▁creating	-4751
▁confident	-4752
▁generation	-4753
▁Int	-4754
▁scr	-4755
cohol	-4756
▁2016	-4757
▁scheduled	-4758
bor	-4759
exp	-4760
▁sett	-4761
▁claiming	-4762
tt	-4763
dom	-4764
▁Ky	-4765
quir	-4766
▁Jim	-4767
▁Kat	-4768
▁arm	-4769
▁Glas	-4770
▁cove	-4771
▁purp	-4772
▁wall	-4773
▁Italian	-4774
▁excited	-4775
▁accident	-4776
merc	-4777
outs	-4778
▁MORE	-4779
icated	-4780
▁hopes	-4781
▁choose	-4782
▁Ten	-4783
▁books	-4784
▁frust	-4785
5%	-4786
oly	-4787
▁Rod	-4788
▁Cont	-4789
▁catch	-4790
▁Middle	-4791
▁apparent	-4792
▁presence	-4793
▁recorded	-4794
▁era	-4795
▁lux	-4796
board	-4797
▁limit	-4798
▁nomine	-4799
▁healthy	-4800
▁penalty	-4801
▁treated	-4802
Is	-4803
rep	-4804
▁Ra	-4805
mine	-4806
▁guys	-4807
▁cease	-4808
▁crimes	-4809
▁videos	-4810
sex	-4811
igious	-4812
▁Irish	-4813
▁frequ	-4814
▁Brazil	-4815
▁lawyer	-4816
FP	-4817
▁€	-4818
▁Sand	-4819
▁coff	-4820
▁royal	-4821
▁Central	-4822
▁suggests	-4823
point	-4824
esters	-4825
iation	-4826
▁Trans	-4827
▁stret	-4828
▁analyst	-4829
▁measure	-4830
▁Facebook	-4831
▁capacity	-4832
▁strength	-4833
▁insurance	-4834
bled	-4835
▁Det	-4836
▁eth	-4837
▁som	-4838
▁van	-4839
craft	-4840
ennis	-4841
▁Home	-4842
antage	-4843
▁liter	-4844
▁Stadium	-4845
▁destroy	-4846
▁Ministry	-4847
▁returning	-4848
▁struggling	-4849
▁partnership	-4850
▁Oh	-4851
▁Up	-4852
oted	-4853
owed	-4854
rage	-4855
▁Camp	-4856
▁Wood	-4857
▁loan	-4858
▁learned	-4859
ml	-4860
met	-4861
▁Louis	-4862
▁apart	-4863
▁broken	-4864
▁nearby	-4865
▁markets	-4866
▁identity	-4867
▁Christian	-4868
▁offensive	-4869
CC	-4870
▁NFL	-4871
▁tom	-4872
▁tur	-4873
▁Colle	-4874
▁Islam	-4875
▁fraud	-4876
▁decide	-4877
emporary	-4878
▁Because	-4879
15	-4880
iny	-4881
▁bul	-4882
▁lic	-4883
known	-4884
▁urged	-4885
▁voted	-4886
▁pushed	-4887
▁vulner	-4888
▁airport	-4889
▁location	-4890
IS	-4891
▁Fer	-4892
▁ITV	-4893
▁Tre	-4894
owing	-4895
ppers	-4896
▁wear	-4897
00,000	-4898
▁celeb	-4899
mercial	-4900
▁estate	-4901
▁Earlier	-4902
▁greater	-4903
▁whatever	-4904
▁£3	-4905
bert	-4906
olit	-4907
place	-4908
▁tells	-4909
▁easier	-4910
▁stands	-4911
▁Twitter	-4912
▁targets	-4913
▁targeted	-4914
gow	-4915
▁Ash	-4916
▁Hel	-4917
▁emerged	-4918
dot	-4919
▁Miss	-4920
▁helps	-4921
▁remaining	-4922
LA	-4923
keep	-4924
▁novel	-4925
▁plane	-4926
▁doctor	-4927
▁larger	-4928
▁watched	-4929
▁cultural	-4930
▁messages	-4931
▁reporters	-4932
▁conservative	-4933
▁responsibility	-4934
akh	-4935
oma	-4936
▁Cro	-4937
false	-4938
▁Best	-4939
▁male	-4940
▁wish	-4941
▁Charl	-4942
▁unable	-4943
▁soldiers	-4944
▁documents	-4945
▁programme	-4946
▁ultimately	-4947
unk	-4948
ocol	-4949
▁ice	-4950
▁chem	-4951
▁categ	-4952
▁glass	-4953
▁Princess	-4954
▁incredible	-4955
ulf	-4956
uted	-4957
▁mer	-4958
▁Ariz	-4959
▁jury	-4960
▁Today	-4961
▁initial	-4962
▁suspect	-4963
▁extremely	-4964
ba	-4965
▁Gal	-4966
ylvan	-4967
▁Road	-4968
▁chat	-4969
▁rich	-4970
▁Judge	-4971
▁fifth	-4972
▁birthday	-4973
▁festival	-4974
▁standard	-4975
▁Eth	-4976
anish	-4977
model	-4978
tained	-4979
▁films	-4980
▁spect	-4981
▁proceed	-4982
▁estimated	-4983
▁6.	-4984
▁Luc	-4985
▁liber	-4986
▁risks	-4987
▁Follow	-4988
▁bodies	-4989
▁easily	-4990
▁serving	-4991
ja	-4992
hab	-4993
▁ut	-4994
ocal	-4995
▁swim	-4996
▁crash	-4997
▁false	-4998
▁giant	-4999
▁solid	-5000
▁length	-5001
▁picked	-5002
▁spring	-5003
▁remained	-5004
▁standards	-5005
▁prosecutors	-5006
▁Cle	-5007
▁Lee	-5008
▁cru	-5009
▁Nick	-5010
▁Nations	-5011
rendering	-5012
▁historic	-5013
▁supported	-5014
SP	-5015
hy	-5016
▁Sea	-5017
embly	-5018
ulate	-5019
▁bomb	-5020
▁trig	-5021
sylvan	-5022
▁laugh	-5023
▁ballot	-5024
▁actress	-5025
▁pointed	-5026
ez	-5027
och	-5028
▁2,	-5029
resp	-5030
▁Josh	-5031
▁bond	-5032
inated	-5033
▁dance	-5034
▁drama	-5035
illiant	-5036
▁garden	-5037
▁pulled	-5038
standing	-5039
▁threats	-5040
▁prepared	-5041
▁Team	-5042
▁shar	-5043
ounded	-5044
▁escal	-5045
▁yards	-5046
▁analys	-5047
▁Pennsylvan	-5048
▁collection	-5049
▁Association	-5050
ww	-5051
erb	-5052
▁Cal	-5053
▁2020,	-5054
▁Three	-5055
▁tickets	-5056
▁District	-5057
▁carrying	-5058
▁behaviour	-5059
▁colleagues	-5060
IC	-5061
Our	-5062
mes	-5063
olk	-5064
bour	-5065
iter	-5066
rees	-5067
▁fort	-5068
▁pool	-5069
ivered	-5070
▁shift	-5071
▁Invest	-5072
▁active	-5073
▁deeply	-5074
▁sharing	-5075
▁payments	-5076
▁promised	-5077
▁transition	-5078
aze	-5079
hens	-5080
utch	-5081
▁blo	-5082
▁Real	-5083
▁hero	-5084
▁innov	-5085
▁bottom	-5086
▁window	-5087
▁setting	-5088
▁willing	-5089
▁$3	-5090
ifying	-5091
▁beauty	-5092
▁guarant	-5093
▁turning	-5094
▁existing	-5095
▁entertain	-5096
▁Dar	-5097
riate	-5098
▁Lord	-5099
▁Mail	-5100
▁guard	-5101
▁renew	-5102
▁hoping	-5103
▁sought	-5104
▁Arizona	-5105
▁allowing	-5106
▁Pennsylvania	-5107
5-	-5108
bl	-5109
,{"	-5110
▁7.	-5111
▁Des	-5112
anged	-5113
hered	-5114
▁diss	-5115
▁College	-5116
▁Glasgow	-5117
▁reading	-5118
▁conducted	-5119
▁announcement	-5120
wing	-5121
▁Fam	-5122
▁arms	-5123
ctions	-5124
▁method	-5125
▁notice	-5126
▁appoint	-5127
▁appreci	-5128
▁northern	-5129
▁yesterday	-5130
aint	-5131
osis	-5132
erous	-5133
▁clim	-5134
abinet	-5135
▁Frank	-5136
▁likes	-5137
▁trail	-5138
▁Spanish	-5139
\"	-5140
▁<	-5141
▁Rad	-5142
ellow	-5143
▁gang	-5144
▁wood	-5145
▁apply	-5146
▁fired	-5147
▁react	-5148
duction	-5149
▁artist	-5150
▁closer	-5151
▁desper	-5152
▁removed	-5153
▁Institute	-5154
▁Parliament	-5155
▁Jr	-5156
ucks	-5157
▁Once	-5158
▁fant	-5159
▁stab	-5160
icious	-5161
▁joint	-5162
▁profit	-5163
▁Federal	-5164
▁alcohol	-5165
▁refused	-5166
▁revenue	-5167
▁welcome	-5168
▁criticism	-5169
▁delivered	-5170
NP	-5171
riff	-5172
▁Ann	-5173
▁joy	-5174
▁Comp	-5175
▁armed	-5176
▁legend	-5177
▁ordered	-5178
▁publicly	-5179
da	-5180
iti	-5181
orry	-5182
▁pen	-5183
▁army	-5184
▁rail	-5185
▁rival	-5186
▁relief	-5187
▁dollars	-5188
▁replied	-5189
▁smaller	-5190
▁Michigan	-5191
aks	-5192
nedy	-5193
▁dry	-5194
▁page	-5195
▁circum	-5196
▁traffic	-5197
▁attended	-5198
▁missiles	-5199
▁construction	-5200
icks	-5201
▁Tes	-5202
ivery	-5203
▁ruled	-5204
itionally	-5205
▁exchange	-5206
▁learning	-5207
▁occasion	-5208
▁determined	-5209
45	-5210
▁31	-5211
aine	-5212
▁Raf	-5213
▁cro	-5214
▁Work	-5215
▁adds	-5216
▁dogs	-5217
▁tast	-5218
▁River	-5219
▁deploy	-5220
▁explos	-5221
▁remove	-5222
▁flights	-5223
▁typically	-5224
ias	-5225
ented	-5226
▁bird	-5227
ighter	-5228
▁Const	-5229
▁sweet	-5230
▁truly	-5231
▁leaves	-5232
▁manage	-5233
▁podcast	-5234
▁supposed	-5235
▁receiving	-5236
▁commercial	-5237
▁understanding	-5238
anks	-5239
gypt	-5240
▁Raj	-5241
▁der	-5242
▁Clark	-5243
▁motor	-5244
▁Jewish	-5245
▁charity	-5246
AI	-5247
osen	-5248
▁Gov	-5249
elect	-5250
idden	-5251
pageE	-5252
rible	-5253
▁Tour	-5254
▁heav	-5255
dotcom	-5256
▁Jackson	-5257
▁express	-5258
▁falling	-5259
pageElements	-5260
dotcomrendering	-5261
%.	-5262
ATO	-5263
oor	-5264
▁Dou	-5265
▁Its	-5266
▁Lew	-5267
▁max	-5268
otten	-5269
▁Also	-5270
▁Covid	-5271
▁princ	-5272
▁chances	-5273
▁kitchen	-5274
oh	-5275
tra	-5276
▁bot	-5277
athan	-5278
▁marg	-5279
▁snow	-5280
▁write	-5281
▁Kennedy	-5282
▁correct	-5283
▁championship	-5284
cho	-5285
ipe	-5286
inem	-5287
olic	-5288
olly	-5289
onna	-5290
▁Veg	-5291
▁Zel	-5292
▁die	-5293
▁Found	-5294
▁bills	-5295
▁adults	-5296
▁argued	-5297
▁writer	-5298
▁session	-5299
umn	-5300
▁Ca	-5301
▁Kn	-5302
born	-5303
bury	-5304
iest	-5305
▁Jeff	-5306
▁hits	-5307
icking	-5308
ossible	-5309
▁covered	-5310
▁proposal	-5311
Ch	-5312
ua	-5313
lad	-5314
fall	-5315
▁Are	-5316
▁Gen	-5317
▁Lat	-5318
▁Syd	-5319
▁Stud	-5320
ducing	-5321
▁quiet	-5322
▁cooper	-5323
▁qualif	-5324
▁vision	-5325
▁causing	-5326
▁selling	-5327
turn	-5328
▁Sil	-5329
▁pil	-5330
rones	-5331
▁canc	-5332
▁Egypt	-5333
▁equip	-5334
▁route	-5335
▁Disney	-5336
▁complic	-5337
▁invasion	-5338
▁visitors	-5339
law	-5340
lig	-5341
gate	-5342
gram	-5343
uman	-5344
▁mic	-5345
acked	-5346
▁Gall	-5347
▁rose	-5348
▁tend	-5349
inburgh	-5350
▁proced	-5351
▁walked	-5352
▁attacked	-5353
▁produced	-5354
▁struggle	-5355
▁brilliant	-5356
GA	-5357
▁code	-5358
▁coup	-5359
▁pull	-5360
▁eating	-5361
▁failure	-5362
▁aircraft	-5363
▁provides	-5364
▁alternative	-5365
▁experiences	-5366
▁Palestinians	-5367
Sh	-5368
▁Leg	-5369
▁Club	-5370
▁bath	-5371
▁assass	-5372
▁belong	-5373
▁exclus	-5374
▁pieces	-5375
ribution	-5376
▁seconds	-5377
▁operating	-5378
▁struggled	-5379
wa	-5380
For	-5381
free	-5382
▁CBS	-5383
▁Jul	-5384
▁Men	-5385
▁hate	-5386
▁vast	-5387
idency	-5388
inally	-5389
▁advantage	-5390
CA	-5391
aire	-5392
ogue	-5393
▁Nov	-5394
▁wid	-5395
▁Game	-5396
▁embr	-5397
▁hurt	-5398
▁2019,	-5399
▁faith	-5400
▁spirit	-5401
▁advance	-5402
car	-5403
hatt	-5404
▁gather	-5405
itutional	-5406
▁internet	-5407
▁Edinburgh	-5408
▁established	-5409
-19	-5410
ups	-5411
▁Av	-5412
west	-5413
▁Hun	-5414
▁Whe	-5415
▁boys	-5416
▁neck	-5417
aching	-5418
▁bench	-5419
▁recovery	-5420
▁slightly	-5421
▁attempted	-5422
▁reporting	-5423
isa	-5424
▁Jay	-5425
essed	-5426
▁feed	-5427
alling	-5428
rences	-5429
▁notes	-5430
▁brings	-5431
▁animals	-5432
▁opinion	-5433
ervatives	-5434
▁delivery	-5435
ortunately	-5436
▁completed	-5437
▁direction	-5438
▁facilities	-5439
whel	-5440
▁contr	-5441
▁stood	-5442
▁taxes	-5443
▁coffee	-5444
▁circumst	-5445
!!	-5446
▁Celt	-5447
▁Only	-5448
▁draft	-5449
▁assets	-5450
▁scenes	-5451
▁drivers	-5452
▁organiz	-5453
▁shortly	-5454
abilities	-5455
▁agencies	-5456
▁sentence	-5457
▁importance	-5458
▁protesters	-5459
▁Conservative	-5460
▁environmental	-5461
ano	-5462
ios	-5463
kins	-5464
otic	-5465
▁church	-5466
▁overse	-5467
▁celebrate	-5468
adow	-5469
arch	-5470
▁nav	-5471
asket	-5472
▁Well	-5473
▁chain	-5474
▁resol	-5475
▁sites	-5476
▁skills	-5477
▁entered	-5478
▁reveals	-5479
▁immediate	-5480
▁Back	-5481
▁Moham	-5482
▁Steve	-5483
▁autom	-5484
▁scale	-5485
idering	-5486
▁decline	-5487
▁routine	-5488
▁rejected	-5489
11	-5490
onym	-5491
▁anx	-5492
ledge	-5493
▁burn	-5494
iverse	-5495
▁coord	-5496
▁overs	-5497
▁Sydney	-5498
▁parent	-5499
▁Foreign	-5500
▁seasons	-5501
▁everybody	-5502
ար	-5503
inct	-5504
▁adm	-5505
▁Tele	-5506
▁YouT	-5507
▁ring	-5508
▁unit	-5509
▁basis	-5510
▁colour	-5511
▁contain	-5512
▁lawyers	-5513
▁payment	-5514
▁violent	-5515
▁worried	-5516
▁Independ	-5517
▁pictures	-5518
▁temperatures	-5519
70	-5520
add	-5521
iley	-5522
road	-5523
▁Any	-5524
itals	-5525
state	-5526
▁Year	-5527
▁shif	-5528
▁surge	-5529
▁apolog	-5530
▁object	-5531
▁refuge	-5532
▁widely	-5533
▁passing	-5534
▁reduced	-5535
▁assistance	-5536
▁politicians	-5537
Id	-5538
gic	-5539
oto	-5540
gage	-5541
▁Sum	-5542
icken	-5543
itors	-5544
▁Look	-5545
▁Earth	-5546
▁bound	-5547
▁weren	-5548
▁dating	-5549
▁confirm	-5550
▁nominee	-5551
▁roughly	-5552
formation	-5553
▁occurred	-5554
▁complaint	-5555
▁professor	-5556
DA	-5557
asy	-5558
ella	-5559
ship	-5560
▁rum	-5561
cript	-5562
inent	-5563
unity	-5564
▁NATO	-5565
▁Prof	-5566
▁clubs	-5567
▁panel	-5568
▁memory	-5569
▁effects	-5570
▁solution	-5571
▁developed	-5572
▁comfortable	-5573
▁surrounding	-5574
▁humanitarian	-5575
arr	-5576
illy	-5577
▁Van	-5578
▁dig	-5579
guard	-5580
▁Four	-5581
▁forg	-5582
▁gain	-5583
season	-5584
▁Inter	-5585
▁Still	-5586
▁upset	-5587
▁allows	-5588
▁earned	-5589
ications	-5590
▁involve	-5591
▁visited	-5592
▁Northern	-5593
▁recalled	-5594
▁recommend	-5595
▁Us	-5596
aley	-5597
▁Wel	-5598
▁pal	-5599
ining	-5600
▁Carl	-5601
▁occup	-5602
▁Boeing	-5603
▁pension	-5604
▁ensuring	-5605
▁involving	-5606
ta	-5607
▁GOP	-5608
andal	-5609
▁Child	-5610
▁leads	-5611
related	-5612
▁Afghan	-5613
▁buying	-5614
▁corpor	-5615
▁approved	-5616
▁unlikely	-5617
▁lawmakers	-5618
▁spokesman	-5619
▁interesting	-5620
ader	-5621
ranch	-5622
▁Vegas	-5623
▁luxury	-5624
▁models	-5625
▁produce	-5626
▁Francisco	-5627
▁possibility	-5628
12	-5629
ails	-5630
cean	-5631
rier	-5632
▁Bob	-5633
▁egg	-5634
▁tow	-5635
5,000	-5636
enses	-5637
▁2018	-5638
▁Jord	-5639
▁Tory	-5640
▁guid	-5641
▁Digital	-5642
▁abandon	-5643
▁spotted	-5644
▁equipment	-5645
▁impressive	-5646
.)	-5647
EA	-5648
uce	-5649
enda	-5650
uate	-5651
▁fly	-5652
under	-5653
▁2021.	-5654
▁Saudi	-5655
▁Syria	-5656
▁prefer	-5657
▁closely	-5658
▁changing	-5659
▁withdraw	-5660
▁buildings	-5661
▁convention	-5662
▁researchers	-5663
▁circumstances	-5664
equ	-5665
rag	-5666
▁Get	-5667
▁Hot	-5668
empts	-5669
ersey	-5670
▁entirely	-5671
▁interested	-5672
ET	-5673
▁du	-5674
iffs	-5675
rapy	-5676
ylum	-5677
▁tar	-5678
▁edge	-5679
▁sand	-5680
minute	-5681
▁viral	-5682
▁becomes	-5683
▁athletes	-5684
FC	-5685
OR	-5686
yo	-5687
hit	-5688
rig	-5689
aron	-5690
fast	-5691
▁Win	-5692
▁nut	-5693
Block	-5694
gment	-5695
▁acad	-5696
▁semi	-5697
▁ties	-5698
asters	-5699
▁stake	-5700
▁Centre	-5701
▁bright	-5702
▁mobile	-5703
▁insisted	-5704
▁neighbor	-5705
▁associated	-5706
▁background	-5707
PA	-5708
ae	-5709
ati	-5710
▁CNN	-5711
▁Las	-5712
ellor	-5713
ptoms	-5714
▁elig	-5715
▁displ	-5716
▁vital	-5717
▁Korean	-5718
▁endors	-5719
▁integr	-5720
▁stores	-5721
▁artists	-5722
▁featured	-5723
▁registered	-5724
rik	-5725
▁Hy	-5726
html	-5727
rell	-5728
vals	-5729
▁qual	-5730
▁perman	-5731
▁located	-5732
▁inspired	-5733
▁governments	-5734
eah	-5735
ien	-5736
▁34	-5737
ooth	-5738
▁ing	-5739
inson	-5740
mates	-5741
▁Foot	-5742
▁Long	-5743
▁sick	-5744
▁tact	-5745
▁roles	-5746
▁shots	-5747
▁values	-5748
▁clothes	-5749
▁significantly	-5750
90	-5751
za	-5752
ius	-5753
▁GM	-5754
▁Ul	-5755
▁Card	-5756
▁zone	-5757
▁Kevin	-5758
▁aimed	-5759
pective	-5760
▁intense	-5761
▁declined	-5762
▁generally	-5763
▁seriously	-5764
ED	-5765
▁33	-5766
lets	-5767
▁500	-5768
▁Hor	-5769
▁ble	-5770
▁Matt	-5771
▁Beach	-5772
▁exhib	-5773
▁dinner	-5774
▁nations	-5775
▁customer	-5776
▁vulnerable	-5777
▁Az	-5778
atre	-5779
weet	-5780
▁wake	-5781
▁Watch	-5782
▁agent	-5783
▁acting	-5784
▁patient	-5785
▁familiar	-5786
▁greatest	-5787
▁priority	-5788
▁shopping	-5789
▁coalition	-5790
▁interests	-5791
▁platforms	-5792
ilit	-5793
▁arr	-5794
ansas	-5795
▁Bang	-5796
▁boat	-5797
▁lots	-5798
▁uses	-5799
▁crypt	-5800
▁Zelens	-5801
▁dozens	-5802
▁tonight	-5803
▁facility	-5804
▁developing	-5805
EN	-5806
eter	-5807
itol	-5808
▁McD	-5809
▁Pre	-5810
maker	-5811
osure	-5812
weight	-5813
▁marks	-5814
▁deputy	-5815
▁Champions	-5816
▁regularly	-5817
%,	-5818
vy	-5819
aka	-5820
ties	-5821
▁Gra	-5822
▁Ter	-5823
▁Rock	-5824
▁Your	-5825
▁vess	-5826
▁condem	-5827
▁resist	-5828
itutions	-5829
▁enjoyed	-5830
▁univers	-5831
▁Guardian	-5832
▁Hospital	-5833
▁reaction	-5834
▁Following	-5835
▁consumers	-5836
▁affordable	-5837
▁journalists	-5838
2-	-5839
եր	-5840
isf	-5841
oks	-5842
sey	-5843
▁Sn	-5844
▁Osc	-5845
phone	-5846
▁Live	-5847
ansion	-5848
▁newsp	-5849
sewhere	-5850
▁execut	-5851
▁filled	-5852
▁Defense	-5853
▁Director	-5854
▁civilians	-5855
▁suspended	-5856
▁consequences	-5857
amm	-5858
ean	-5859
iana	-5860
pass	-5861
writ	-5862
▁Ali	-5863
▁Gab	-5864
▁hun	-5865
"},{"	-5866
▁enth	-5867
mentId	-5868
▁Space	-5869
▁traum	-5870
▁Public	-5871
▁drones	-5872
▁speaks	-5873
▁tennis	-5874
▁sending	-5875
elementId	-5876
▁characters	-5877
▁considering	-5878
US	-5879
▁ge	-5880
eler	-5881
▁Mun	-5882
ograp	-5883
▁prove	-5884
iversary	-5885
▁classic	-5886
PS	-5887
itu	-5888
upp	-5889
anch	-5890
real	-5891
▁Exp	-5892
▁Squ	-5893
owned	-5894
▁bowl	-5895
▁mand	-5896
▁subs	-5897
▁nomin	-5898
▁Virgin	-5899
▁inquir	-5900
▁weapon	-5901
▁analysis	-5902
▁attempts	-5903
▁exercise	-5904
▁documentary	-5905
8-	-5906
▁clip	-5907
▁ends	-5908
▁plus	-5909
▁sets	-5910
▁Liber	-5911
▁swing	-5912
▁switch	-5913
▁tackle	-5914
election	-5915
▁engaged	-5916
▁purpose	-5917
▁trading	-5918
▁Foundation	-5919
▁impossible	-5920
bie	-5921
anna	-5922
arma	-5923
▁Dun	-5924
▁Hen	-5925
stein	-5926
▁Mont	-5927
▁Daily	-5928
issions	-5929
▁asylum	-5930
▁landsc	-5931
▁update	-5932
▁Stephen	-5933
▁explain	-5934
▁contrast	-5935
▁effectively	-5936
MA	-5937
iev	-5938
▁Boy	-5939
Every	-5940
▁Conn	-5941
▁Walz	-5942
▁labor	-5943
▁guests	-5944
▁battery	-5945
▁returns	-5946
▁coverage	-5947
▁neighbour	-5948
▁sentenced	-5949
▁36	-5950
verse	-5951
▁acts	-5952
▁cert	-5953
▁none	-5954
▁adjust	-5955
▁predict	-5956
▁hostages	-5957
▁programs	-5958
▁retirement	-5959
VID	-5960
uter	-5961
▁Hur	-5962
▁Pay	-5963
▁Rub	-5964
▁nor	-5965
▁Spec	-5966
▁Lewis	-5967
▁alive	-5968
▁drone	-5969
▁rapid	-5970
▁Jordan	-5971
▁Wilson	-5972
▁losses	-5973
▁Iranian	-5974
▁missile	-5975
▁directed	-5976
▁Associated	-5977
▁challenging	-5978
▁competitive	-5979
7-	-5980
DP	-5981
imp	-5982
lan	-5983
ont	-5984
▁RT	-5985
▁od	-5986
ugby	-5987
achel	-5988
▁Hear	-5989
▁bare	-5990
▁elim	-5991
▁spin	-5992
▁unus	-5993
▁ideas	-5994
▁reput	-5995
▁thinks	-5996
▁Channel	-5997
▁YouTube	-5998
▁illness	-5999
▁numerous	-6000
▁concluded	-6001
▁dedicated	-6002
wal	-6003
▁45	-6004
>,""	-6005
▁Sol	-6006
▁hat	-6007
First	-6008
▁sees	-6009
BlockE	-6010
▁2020.	-6011
▁accus	-6012
▁animal	-6013
▁iconic	-6014
▁delight	-6015
▁founder	-6016
▁stadium	-6017
▁trouble	-6018
▁exciting	-6019
▁continuing	-6020
BlockElement	-6021
▁restrictions	-6022
aug	-6023
▁Ak	-6024
acks	-6025
izes	-6026
uine	-6027
▁Str	-6028
▁Tor	-6029
icide	-6030
loved	-6031
▁Jess	-6032
▁murd	-6033
▁Among	-6034
▁adapt	-6035
▁fewer	-6036
▁signing	-6037
▁Japanese	-6038
▁midfield	-6039
▁knowledge	-6040
▁contributed	-6041
bro	-6042
rah	-6043
uan	-6044
then	-6045
▁Pac	-6046
▁Sud	-6047
▁pit	-6048
▁adult	-6049
▁holds	-6050
▁posts	-6051
ighters	-6052
▁agents	-6053
▁talked	-6054
▁playoff	-6055
▁negative	-6056
▁authority	-6057
▁positions	-6058
▁organisation	-6059
▁Ba	-6060
▁Sus	-6061
▁diet	-6062
▁virt	-6063
▁weak	-6064
▁grown	-6065
▁advert	-6066
▁outlet	-6067
▁heavily	-6068
▁remarks	-6069
All	-6070
▁(£	-6071
mond	-6072
▁Mid	-6073
▁Ohio	-6074
▁busy	-6075
▁lucky	-6076
▁medal	-6077
▁excell	-6078
▁invited	-6079
▁pushing	-6080
▁surface	-6081
▁requires	-6082
▁journalist	-6083
▁expectations	-6084
//	-6085
ES	-6086
▁Di	-6087
inds	-6088
umar	-6089
▁clar	-6090
▁earn	-6091
▁fake	-6092
▁Author	-6093
▁innings	-6094
▁shouldn	-6095
▁drinking	-6096
▁referred	-6097
▁encourage	-6098
▁relatively	-6099
200	-6100
udd	-6101
▁Mem	-6102
erves	-6103
orial	-6104
▁pace	-6105
tering	-6106
▁cream	-6107
▁turns	-6108
▁banned	-6109
▁comedy	-6110
▁scoring	-6111
▁Zelensky	-6112
▁informed	-6113
▁overwhel	-6114
▁stunning	-6115
RA	-6116
mo	-6117
://	-6118
aped	-6119
iami	-6120
odes	-6121
unte	-6122
▁MPs	-6123
▁kil	-6124
▁rid	-6125
erties	-6126
▁worry	-6127
▁basket	-6128
▁editor	-6129
▁houses	-6130
▁replace	-6131
▁section	-6132
▁veteran	-6133
Oh	-6134
put	-6135
▁Cy	-6136
isan	-6137
▁Bad	-6138
▁rub	-6139
▁Adam	-6140
▁batt	-6141
▁east	-6142
▁hosp	-6143
▁bonus	-6144
▁songs	-6145
▁Govern	-6146
ancellor	-6147
▁reaching	-6148
▁mentioned	-6149
▁sustainable	-6150
▁IP	-6151
▁Ut	-6152
ords	-6153
rant	-6154
▁Dod	-6155
▁McG	-6156
▁Mir	-6157
▁gap	-6158
iable	-6159
ommod	-6160
▁Pros	-6161
▁Vlad	-6162
▁rape	-6163
▁wave	-6164
▁west	-6165
▁Media	-6166
▁Obama	-6167
▁Valley	-6168
▁franch	-6169
▁listed	-6170
▁welcom	-6171
▁Capitol	-6172
▁conspir	-6173
▁symptoms	-6174
▁presented	-6175
EC	-6176
iop	-6177
away	-6178
ishes	-6179
▁Show	-6180
▁Tony	-6181
▁Walk	-6182
▁bars	-6183
▁fish	-6184
▁fram	-6185
▁slam	-6186
▁Micro	-6187
▁advis	-6188
▁knock	-6189
▁types	-6190
▁Palace	-6191
▁actors	-6192
▁flying	-6193
▁forget	-6194
▁myster	-6195
breaking	-6196
▁compete	-6197
▁testing	-6198
▁regarding	-6199
esh	-6200
▁FA	-6201
ynam	-6202
▁Aff	-6203
▁Bal	-6204
▁Tai	-6205
▁Wat	-6206
▁iPh	-6207
class	-6208
ittle	-6209
osite	-6210
uster	-6211
▁Fest	-6212
▁cook	-6213
▁Young	-6214
▁cards	-6215
▁heads	-6216
▁prize	-6217
▁approp	-6218
▁belief	-6219
▁judges	-6220
expected	-6221
▁imagine	-6222
▁threatened	-6223
gl	-6224
iy	-6225
▁Ly	-6226
door	-6227
ideo	-6228
imal	-6229
inate	-6230
itage	-6231
pects	-6232
▁coin	-6233
▁core	-6234
▁plot	-6235
▁stor	-6236
▁wine	-6237
▁fears	-6238
▁trick	-6239
▁wider	-6240
▁spoken	-6241
▁dismissed	-6242
▁institutions	-6243
bec	-6244
can	-6245
ette	-6246
lies	-6247
▁Old	-6248
worth	-6249
▁Brad	-6250
▁fill	-6251
▁hall	-6252
erland	-6253
hattan	-6254
▁Miami	-6255
▁Where	-6256
▁entry	-6257
▁Agency	-6258
▁organis	-6259
▁sparked	-6260
▁accommod	-6261
▁thoughts	-6262
▁apartment	-6263
lyn	-6264
pay	-6265
▁eld	-6266
asure	-6267
rific	-6268
▁Lake	-6269
▁Week	-6270
▁incl	-6271
owered	-6272
▁basic	-6273
▁micro	-6274
▁moves	-6275
▁relax	-6276
▁waste	-6277
▁heading	-6278
▁matters	-6279
▁extended	-6280
▁structure	-6281
23	-6282
IA	-6283
▁Ah	-6284
▁10-	-6285
▁Ray	-6286
▁Vol	-6287
iscal	-6288
▁Army	-6289
▁Jenn	-6290
▁grab	-6291
▁equal	-6292
▁Econom	-6293
▁campus	-6294
▁reveal	-6295
▁Victoria	-6296
▁promises	-6297
▁Manhattan	-6298
▁intention	-6299
▁religious	-6300
▁relationships	-6301
Tr	-6302
mosp	-6303
▁Fil	-6304
▁Hag	-6305
▁Nic	-6306
▁Sin	-6307
▁Anth	-6308
▁Kyiv	-6309
uction	-6310
▁Water	-6311
▁cheap	-6312
▁motiv	-6313
▁legacy	-6314
▁pounds	-6315
▁demands	-6316
▁tensions	-6317
▁defensive	-6318
▁Fe	-6319
":"<	-6320
bell	-6321
ishi	-6322
▁Bor	-6323
▁sid	-6324
▁2000	-6325
▁golf	-6326
bourne	-6327
ipping	-6328
▁firms	-6329
▁goods	-6330
▁sharp	-6331
▁Celtic	-6332
▁backed	-6333
▁regime	-6334
▁resign	-6335
▁recover	-6336
▁retired	-6337
▁controll	-6338
▁Independent	-6339
▁Ok	-6340
▁Bab	-6341
▁Bus	-6342
ulous	-6343
▁Fire	-6344
▁evac	-6345
arters	-6346
▁radio	-6347
▁tools	-6348
▁factors	-6349
▁outcome	-6350
▁strategic	-6351
▁respective	-6352
▁anniversary	-6353
▁quarterback	-6354
icy	-6355
urb	-6356
cons	-6357
imir	-6358
okes	-6359
▁BST	-6360
cious	-6361
icing	-6362
▁Down	-6363
▁Supp	-6364
▁Color	-6365
▁aside	-6366
▁shape	-6367
▁Madrid	-6368
▁begins	-6369
▁distance	-6370
▁purchase	-6371
▁replaced	-6372
▁followers	-6373
▁incidents	-6374
ili	-6375
mate	-6376
▁spr	-6377
▁yes	-6378
apped	-6379
ching	-6380
stone	-6381
▁Zeal	-6382
▁unve	-6383
viously	-6384
▁enthus	-6385
▁listen	-6386
▁Rangers	-6387
▁machine	-6388
▁passion	-6389
▁combined	-6390
▁properties	-6391
bel	-6392
hat	-6393
▁35	-6394
neys	-6395
usted	-6396
▁Blue	-6397
▁lies	-6398
▁trib	-6399
▁Polit	-6400
ificial	-6401
▁agenda	-6402
▁narrow	-6403
▁genuine	-6404
▁knowing	-6405
▁obvious	-6406
▁subsequ	-6407
▁photograph	-6408
athy	-6409
razy	-6410
▁Hay	-6411
▁Lok	-6412
▁flu	-6413
▁mir	-6414
These	-6415
oston	-6416
▁2017	-6417
▁Asia	-6418
▁Wild	-6419
▁pray	-6420
apping	-6421
earing	-6422
▁COVID	-6423
▁Elect	-6424
▁Sarah	-6425
▁planet	-6426
▁proved	-6427
▁rescue	-6428
ervation	-6429
▁cutting	-6430
▁farmers	-6431
▁follows	-6432
▁princip	-6433
▁staying	-6434
▁teacher	-6435
▁breaking	-6436
▁schedule	-6437
▁stronger	-6438
▁suddenly	-6439
▁aggressive	-6440
▁incredibly	-6441
▁presidency	-6442
▁application	-6443
box	-6444
▁mo	-6445
soft	-6446
▁Jac	-6447
iants	-6448
▁aims	-6449
▁blow	-6450
▁symb	-6451
▁tied	-6452
▁Photo	-6453
▁divor	-6454
▁showc	-6455
▁Sweden	-6456
▁stepped	-6457
▁forecast	-6458
▁improved	-6459
▁instruct	-6460
▁ministry	-6461
IT	-6462
▁8.	-6463
▁Read	-6464
ateful	-6465
called	-6466
▁trees	-6467
▁venue	-6468
▁driven	-6469
▁closing	-6470
▁identify	-6471
▁possibly	-6472
▁ministers	-6473
▁Ev	-6474
dict	-6475
▁NAS	-6476
essor	-6477
reens	-6478
▁brut	-6479
▁fees	-6480
▁keen	-6481
acking	-6482
igrant	-6483
ternal	-6484
▁dozen	-6485
▁Miller	-6486
▁chosen	-6487
▁worker	-6488
▁Zealand	-6489
▁degrees	-6490
▁producer	-6491
▁assistant	-6492
▁wonderful	-6493
▁initiative	-6494
Al	-6495
ón	-6496
▁tun	-6497
▁Mass	-6498
▁gift	-6499
▁ride	-6500
istics	-6501
ricult	-6502
▁Roman	-6503
▁navig	-6504
▁Cooper	-6505
▁Taiwan	-6506
▁ending	-6507
▁racing	-6508
atically	-6509
▁science	-6510
▁accepted	-6511
▁nomination	-6512
ira	-6513
apse	-6514
▁gym	-6515
itect	-6516
▁Bowl	-6517
▁Clin	-6518
▁Mount	-6519
▁Sabha	-6520
▁banks	-6521
▁loyal	-6522
▁river	-6523
▁stuck	-6524
inating	-6525
▁borrow	-6526
▁Roberts	-6527
▁finance	-6528
▁minimum	-6529
▁savings	-6530
▁charging	-6531
▁featuring	-6532
▁selection	-6533
vi	-6534
azz	-6535
die	-6536
ora	-6537
▁6,	-6538
▁Inc	-6539
▁NBA	-6540
▁Rah	-6541
▁Son	-6542
allas	-6543
▁Board	-6544
▁Boston	-6545
▁Meghan	-6546
▁county	-6547
▁transp	-6548
▁Reuters	-6549
▁anticip	-6550
▁raising	-6551
▁Research	-6552
▁Vladimir	-6553
▁creative	-6554
▁($	-6555
eman	-6556
host	-6557
rate	-6558
▁USA	-6559
month	-6560
50,000	-6561
estyle	-6562
▁guess	-6563
▁tests	-6564
ologist	-6565
▁Family	-6566
▁bridge	-6567
▁escape	-6568
▁marked	-6569
▁channel	-6570
▁volunte	-6571
▁intended	-6572
▁meetings	-6573
▁locations	-6574
▁therefore	-6575
▁conspiracy	-6576
▁statements	-6577
▁negotiations	-6578
NC	-6579
OS	-6580
how	-6581
▁PA	-6582
▁£4	-6583
ican	-6584
▁Jen	-6585
▁Way	-6586
▁sky	-6587
final	-6588
rooms	-6589
▁Marc	-6590
making	-6591
▁sixth	-6592
▁degree	-6593
▁headed	-6594
▁iPhone	-6595
▁museum	-6596
ulations	-6597
▁critics	-6598
▁advanced	-6599
▁consumer	-6600
▁targeting	-6601
▁uncertain	-6602
▁prosecution	-6603
▁acknowledged	-6604
urt	-6605
▁Ira	-6606
ashes	-6607
▁puts	-6608
enture	-6609
ounced	-6610
acement	-6611
▁anonym	-6612
▁atmosp	-6613
▁encoun	-6614
▁orders	-6615
▁silver	-6616
▁studies	-6617
▁explains	-6618
▁surprised	-6619
16	-6620
Dis	-6621
abel	-6622
▁rat	-6623
▁rein	-6624
▁cinem	-6625
▁horse	-6626
▁sorry	-6627
▁Columb	-6628
▁Though	-6629
▁depend	-6630
▁harder	-6631
▁please	-6632
▁studio	-6633
▁plastic	-6634
▁eligible	-6635
▁mortgage	-6636
▁broadcast	-6637
▁discussed	-6638
▁healthcare	-6639
75	-6640
.""	-6641
.</	-6642
▁7,	-6643
▁Lo	-6644
agon	-6645
▁Ros	-6646
▁SNP	-6647
▁mut	-6648
rison	-6649
▁Prot	-6650
▁upgr	-6651
irming	-6652
▁device	-6653
▁factor	-6654
▁plants	-6655
▁Newsweek	-6656
▁chairman	-6657
▁pregnant	-6658
▁commented	-6659
▁emissions	-6660
▁industrial	-6661
▁EV	-6662
prof	-6663
thew	-6664
▁Tok	-6665
break	-6666
ijing	-6667
ocide	-6668
▁tree	-6669
▁About	-6670
▁Asked	-6671
▁Cohen	-6672
▁Rafah	-6673
▁sight	-6674
▁carbon	-6675
▁combat	-6676
▁devices	-6677
▁failing	-6678
▁storage	-6679
▁constitu	-6680
▁favorite	-6681
▁tourists	-6682
▁welcomed	-6683
▁appearances	-6684
▁electricity	-6685
19	-6686
IV	-6687
adi	-6688
eves	-6689
lash	-6690
ogan	-6691
ronic	-6692
▁Acad	-6693
▁chaos	-6694
▁doors	-6695
▁mixed	-6696
▁tears	-6697
▁Murray	-6698
▁casual	-6699
▁citing	-6700
▁master	-6701
▁hitting	-6702
▁earnings	-6703
▁substant	-6704
▁newspaper	-6705
▁personnel	-6706
▁questioned	-6707
▁highlighted	-6708
boy	-6709
rive	-6710
umed	-6711
wich	-6712
▁Bra	-6713
▁Haw	-6714
uated	-6715
verty	-6716
▁Ross	-6717
▁odds	-6718
▁deleg	-6719
▁discl	-6720
holders	-6721
▁abroad	-6722
▁forest	-6723
▁polling	-6724
▁chemical	-6725
▁destroyed	-6726
▁sanctions	-6727
▁celebrated	-6728
oir	-6729
▁Mu	-6730
acle	-6731
onom	-6732
▁194	-6733
ilton	-6734
orders	-6735
▁Simon	-6736
▁Storm	-6737
▁chose	-6738
▁drawn	-6739
▁activists	-6740
▁appointed	-6741
▁understood	-6742
36	-6743
▁ec	-6744
ario	-6745
atal	-6746
reek	-6747
▁Nik	-6748
▁Pad	-6749
▁anc	-6750
▁lob	-6751
▁Belg	-6752
▁tiny	-6753
▁zero	-6754
▁2019.	-6755
▁Coast	-6756
▁Phill	-6757
▁blame	-6758
▁cycle	-6759
▁dates	-6760
▁saved	-6761
assador	-6762
eration	-6763
resents	-6764
▁Church	-6765
▁Ethiop	-6766
▁Beijing	-6767
▁dealing	-6768
▁mistake	-6769
▁approval	-6770
▁internal	-6771
▁electoral	-6772
▁hospitals	-6773
▁opponents	-6774
▁temperature	-6775
14	-6776
awn	-6777
Text	-6778
hire	-6779
▁Six	-6780
abeth	-6781
isher	-6782
▁duty	-6783
iences	-6784
market	-6785
▁Kelly	-6786
▁accomp	-6787
▁unders	-6788
▁custody	-6789
▁inquiry	-6790
▁poverty	-6791
▁promise	-6792
▁announce	-6793
▁ceasefire	-6794
▁temporary	-6795
1-	-6796
ye	-6797
ais	-6798
▁5,	-6799
▁Bu	-6800
▁Os	-6801
▁Call	-6802
▁Kent	-6803
▁Marg	-6804
▁Tesla	-6805
ocolate	-6806
▁height	-6807
▁regions	-6808
▁Colorado	-6809
▁childhood	-6810
▁practices	-6811
▁officially	-6812
▁reputation	-6813
▁restaurants	-6814
18	-6815
At	-6816
vant	-6817
▁Top	-6818
▁jur	-6819
chell	-6820
▁empt	-6821
▁mine	-6822
enders	-6823
▁earth	-6824
▁finds	-6825
▁ideal	-6826
▁courts	-6827
▁remote	-6828
▁pattern	-6829
▁scandal	-6830
▁Anderson	-6831
▁Election	-6832
▁Festival	-6833
▁argument	-6834
▁prospect	-6835
▁determine	-6836
▁permanent	-6837
NA	-6838
ko	-6839
▁3,	-6840
foot	-6841
gged	-6842
olds	-6843
oric	-6844
with	-6845
azine	-6846
ighth	-6847
▁2015	-6848
lessly	-6849
▁Major	-6850
▁guide	-6851
▁mouth	-6852
uations	-6853
▁Hunter	-6854
▁Kansas	-6855
▁causes	-6856
▁scream	-6857
▁sounds	-6858
▁Anthony	-6859
▁alliance	-6860
▁instance	-6861
▁celebrity	-6862
▁profession	-6863
▁Afghanistan	-6864
▁devastating	-6865
▁neighborhood	-6866
but	-6867
iat	-6868
ixt	-6869
hetic	-6870
icate	-6871
▁Coll	-6872
▁peak	-6873
lights	-6874
rictly	-6875
▁Armen	-6876
athered	-6877
▁Turkey	-6878
▁intens	-6879
▁Develop	-6880
▁damaged	-6881
▁captured	-6882
▁stations	-6883
▁diagnosis	-6884
▁performed	-6885
▁technical	-6886
▁girlfriend	-6887
▁performances	-6888
▁controversial	-6889
22	-6890
ակ	-6891
igg	-6892
oni	-6893
ros	-6894
idays	-6895
▁Food	-6896
▁Rose	-6897
▁liqu	-6898
ournal	-6899
▁roads	-6900
▁uncom	-6901
▁Chiefs	-6902
▁Tories	-6903
▁compar	-6904
▁fallen	-6905
▁handed	-6906
▁Airport	-6907
▁explore	-6908
▁musical	-6909
▁secured	-6910
▁reducing	-6911
▁otherwise	-6912
▁percentage	-6913
▁strengthen	-6914
▁travelling	-6915
TS	-6916
To	-6917
amy	-6918
▁32	-6919
▁9.	-6920
emit	-6921
▁Abd	-6922
▁Yes	-6923
▁lie	-6924
▁Andy	-6925
▁Turn	-6926
▁quit	-6927
itable	-6928
▁Offic	-6929
▁Jersey	-6930
▁equity	-6931
▁handle	-6932
▁choices	-6933
▁eastern	-6934
▁granted	-6935
▁anywhere	-6936
▁detailed	-6937
TextBlockElement	-6938
="	-6939
An	-6940
▁49	-6941
▁Lu	-6942
▁Sk	-6943
irty	-6944
▁Rel	-6945
usive	-6946
uties	-6947
▁Eliz	-6948
▁Canad	-6949
▁Organ	-6950
▁admit	-6951
▁mayor	-6952
▁rooms	-6953
▁desire	-6954
▁theory	-6955
▁caption	-6956
▁Governor	-6957
▁entering	-6958
▁opposite	-6959
▁resulted	-6960
▁literally	-6961
▁overnight	-6962
▁suspected	-6963
▁engagement	-6964
▁regulations	-6965
Af	-6966
lay	-6967
icit	-6968
▁Hou	-6969
▁Pen	-6970
▁fab	-6971
echan	-6972
water	-6973
▁Luke	-6974
▁cell	-6975
▁dish	-6976
▁exit	-6977
▁wore	-6978
▁color	-6979
▁keeps	-6980
▁races	-6981
▁affairs	-6982
▁command	-6983
▁compens	-6984
▁joining	-6985
▁praised	-6986
▁feelings	-6987
▁tomorrow	-6988
▁franchise	-6989
▁ourselves	-6990
▁preparing	-6991
▁perspective	-6992
▁conversations	-6993
ho	-6994
▁GP	-6995
anth	-6996
oles	-6997
▁300	-6998
▁ABC	-6999
▁Mrs	-7000
▁bom	-7001
▁gro	-7002
emble	-7003
orted	-7004
▁Cost	-7005
▁Jean	-7006
person	-7007
▁theme	-7008
▁Patrick	-7009
▁Attorney	-7010
▁Southern	-7011
▁visiting	-7012
▁fundament	-7013
▁complaints	-7014
▁discussions	-7015
▁Conservatives	-7016
uls	-7017
was	-7018
▁Kap	-7019
oting	-7020
▁Gand	-7021
"},{"_	-7022
castle	-7023
▁Camer	-7024
▁clash	-7025
▁faster	-7026
▁Football	-7027
▁findings	-7028
▁narrative	-7029
54	-7030
adel	-7031
anny	-7032
▁Pan	-7033
▁cul	-7034
▁tie	-7035
▁wra	-7036
ether	-7037
▁Cast	-7038
▁Cele	-7039
▁Gary	-7040
▁Life	-7041
▁Town	-7042
nesota	-7043
▁Jamie	-7044
▁optim	-7045
▁shout	-7046
▁fought	-7047
▁gained	-7048
▁motion	-7049
▁unless	-7050
▁Matthew	-7051
▁Project	-7052
▁anxiety	-7053
▁package	-7054
▁dramatic	-7055
▁somebody	-7056
▁stability	-7057
inch	-7058
otte	-7059
▁Mit	-7060
▁Saf	-7061
▁glo	-7062
▁suc	-7063
being	-7064
▁Hard	-7065
▁fasc	-7066
▁Bangl	-7067
▁Maybe	-7068
▁Oscar	-7069
▁hosts	-7070
▁surve	-7071
▁nobody	-7072
▁stayed	-7073
▁yellow	-7074
▁unusual	-7075
▁pictured	-7076
▁estimates	-7077
▁landscape	-7078
▁prominent	-7079
▁resolution	-7080
▁cooperation	-7081
LL	-7082
***	-7083
htt	-7084
zen	-7085
ache	-7086
▁Pel	-7087
▁hal	-7088
▁Stan	-7089
▁lift	-7090
▁milk	-7091
▁pock	-7092
▁reun	-7093
▁Sever	-7094
▁Switz	-7095
▁square	-7096
▁shocked	-7097
▁succeed	-7098
▁unclear	-7099
▁homeless	-7100
▁boyfriend	-7101
▁desperate	-7102
▁diplomatic	-7103
▁immigrants	-7104
▁settlement	-7105
ras	-7106
▁Bh	-7107
▁UC	-7108
▁Ret	-7109
unior	-7110
▁Museum	-7111
▁hosted	-7112
▁movies	-7113
▁variety	-7114
▁Microsoft	-7115
▁connected	-7116
▁contacted	-7117
▁constantly	-7118
IP	-7119
▁ID	-7120
▁fu	-7121
heim	-7122
oice	-7123
▁hyd	-7124
eding	-7125
https	-7126
▁Each	-7127
▁tips	-7128
▁toll	-7129
elines	-7130
▁Again	-7131
▁Haley	-7132
▁innoc	-7133
espread	-7134
essions	-7135
▁Having	-7136
▁Macron	-7137
▁brands	-7138
▁conven	-7139
▁forever	-7140
▁maximum	-7141
▁privacy	-7142
▁Strictly	-7143
▁campaigns	-7144
▁artificial	-7145
▁discussion	-7146
▁consecutive	-7147
35	-7148
mad	-7149
owa	-7150
▁Ay	-7151
assy	-7152
▁fro	-7153
▁dial	-7154
▁jack	-7155
▁samp	-7156
Americ	-7157
astern	-7158
▁1,000	-7159
▁Dutch	-7160
▁argue	-7161
▁gonna	-7162
▁label	-7163
endment	-7164
▁summit	-7165
▁tested	-7166
▁Minnesota	-7167
▁increases	-7168
information	-7169
▁prosecutor	-7170
▁represents	-7171
▁Switzerland	-7172
▁represented	-7173
▁specifically	-7174
ih	-7175
asp	-7176
sec	-7177
▁$4	-7178
▁NE	-7179
▁Rw	-7180
2024	-7181
ando	-7182
hour	-7183
▁Abb	-7184
▁fee	-7185
onduct	-7186
▁Share	-7187
▁Somet	-7188
▁paint	-7189
▁resil	-7190
▁delays	-7191
▁fiscal	-7192
▁satisf	-7193
▁testim	-7194
▁Special	-7195
▁backing	-7196
▁architect	-7197
▁communication	-7198
SW	-7199
oj	-7200
ito	-7201
log	-7202
▁("	-7203
▁MS	-7204
▁Dam	-7205
▁Opp	-7206
▁Rem	-7207
▁Sub	-7208
uable	-7209
▁Take	-7210
▁flav	-7211
rators	-7212
▁2018,	-7213
▁dynam	-7214
▁occas	-7215
▁owned	-7216
▁Sharma	-7217
▁batter	-7218
▁excess	-7219
▁lights	-7220
▁Academy	-7221
▁founded	-7222
▁Alexander	-7223
▁streaming	-7224
▁corruption	-7225
▁performing	-7226
▁unexpected	-7227
▁4,	-7228
aser	-7229
half	-7230
▁Nad	-7231
▁ast	-7232
▁Iraq	-7233
▁Time	-7234
▁bear	-7235
▁magn	-7236
▁reli	-7237
▁Tokyo	-7238
▁solar	-7239
▁Nation	-7240
▁Second	-7241
▁behalf	-7242
▁limits	-7243
▁mechan	-7244
▁noting	-7245
▁serves	-7246
▁transl	-7247
inations	-7248
▁Perhaps	-7249
▁champions	-7250
▁interviews	-7251
▁originally	-7252
▁assassination	-7253
▁investigating	-7254
RC	-7255
bi	-7256
rene	-7257
▁Wol	-7258
▁gif	-7259
aping	-7260
gered	-7261
▁2014	-7262
▁Cath	-7263
▁roof	-7264
rehens	-7265
ricane	-7266
▁Henry	-7267
▁camer	-7268
uilding	-7269
▁Dallas	-7270
▁Rachel	-7271
▁Through	-7272
▁advised	-7273
▁chicken	-7274
▁collaps	-7275
▁neither	-7276
▁suggesting	-7277
55	-7278
OC	-7279
▁Id	-7280
▁PS	-7281
▁ju	-7282
enny	-7283
look	-7284
▁Tro	-7285
▁Ven	-7286
▁cos	-7287
asted	-7288
encer	-7289
icked	-7290
reced	-7291
▁Benj	-7292
▁Emma	-7293
▁Hind	-7294
▁2025.	-7295
▁Force	-7296
▁Laure	-7297
▁Power	-7298
Display	-7299
▁discrim	-7300
▁promote	-7301
▁Prosecut	-7302
▁enjoying	-7303
▁grateful	-7304
recedented	-7305
▁Represent	-7306
].	-7307
rav	-7308
▁Cru	-7309
▁cup	-7310
erate	-7311
▁Iowa	-7312
▁chef	-7313
▁meal	-7314
▁Asian	-7315
▁incor	-7316
▁lunch	-7317
ressing	-7318
▁extrem	-7319
▁powers	-7320
▁punish	-7321
▁Senator	-7322
▁arrival	-7323
▁broader	-7324
▁opponent	-7325
▁teachers	-7326
▁Elizabeth	-7327
▁appearing	-7328
▁protected	-7329
▁widespread	-7330
այ	-7331
▁u	-7332
iro	-7333
▁Ga	-7334
iano	-7335
▁10.	-7336
▁FBI	-7337
▁tip	-7338
▁wage	-7339
▁Brian	-7340
▁crazy	-7341
▁depos	-7342
respond	-7343
▁Awards	-7344
▁engage	-7345
▁Several	-7346
▁answers	-7347
▁awarded	-7348
▁fitness	-7349
▁species	-7350
▁totally	-7351
▁western	-7352
▁Virginia	-7353
▁category	-7354
▁gathered	-7355
▁properly	-7356
▁excellent	-7357
▁organizations	-7358
FA	-7359
IM	-7360
abs	-7361
▁CC	-7362
▁TH	-7363
emen	-7364
▁Kir	-7365
nergy	-7366
oster	-7367
▁Cole	-7368
▁Fund	-7369
▁bags	-7370
▁calm	-7371
▁fled	-7372
▁hadn	-7373
▁lean	-7374
▁outs	-7375
▁pump	-7376
▁soul	-7377
arrass	-7378
caster	-7379
▁accur	-7380
▁balls	-7381
▁veget	-7382
▁Argent	-7383
▁monthly	-7384
▁Assembly	-7385
▁achieved	-7386
▁brothers	-7387
▁collapse	-7388
▁mountain	-7389
▁attacking	-7390
▁chocolate	-7391
▁manufacturing	-7392
:30	-7393
ila	-7394
jan	-7395
ura	-7396
atar	-7397
▁Bas	-7398
0,000	-7399
▁Educ	-7400
▁hole	-7401
▁legs	-7402
stream	-7403
▁Anton	-7404
▁Trust	-7405
▁newly	-7406
▁thick	-7407
▁Bridge	-7408
▁actual	-7409
▁horror	-7410
▁struct	-7411
▁capable	-7412
▁conclus	-7413
▁scrutin	-7414
▁trained	-7415
▁crossing	-7416
▁atmosphere	-7417
▁frequently	-7418
AM	-7419
pa	-7420
How	-7421
umph	-7422
wick	-7423
yard	-7424
▁400	-7425
▁Bry	-7426
▁Dev	-7427
▁End	-7428
▁sup	-7429
abled	-7430
style	-7431
▁Ever	-7432
▁Mumb	-7433
▁Broad	-7434
▁Labor	-7435
▁Rishi	-7436
▁Santa	-7437
umption	-7438
▁Arabia	-7439
▁bottle	-7440
▁golden	-7441
▁ingred	-7442
▁intent	-7443
▁rarely	-7444
ordinary	-7445
▁cabinet	-7446
▁opposed	-7447
▁prepare	-7448
▁verdict	-7449
▁teenager	-7450
▁Melbourne	-7451
▁improving	-7452
▁materials	-7453
▁seemingly	-7454
▁celebration	-7455
▁հ	-7456
axy	-7457
▁IS	-7458
▁sac	-7459
onsin	-7460
▁elev	-7461
▁Medic	-7462
▁angry	-7463
▁rural	-7464
▁usual	-7465
ception	-7466
ologies	-7467
oration	-7468
▁Justin	-7469
▁Series	-7470
▁kicked	-7471
▁sevent	-7472
▁Whether	-7473
▁enhance	-7474
▁exposed	-7475
▁pleaded	-7476
▁Mitchell	-7477
▁Newcastle	-7478
▁Palestine	-7479
▁Bangladesh	-7480
▁apparently	-7481
><	-7482
km	-7483
One	-7484
col	-7485
ews	-7486
game	-7487
rich	-7488
▁Ill	-7489
▁ski	-7490
▁Meta	-7491
▁Sean	-7492
▁Shar	-7493
▁bail	-7494
▁tank	-7495
▁Human	-7496
iration	-7497
▁discip	-7498
▁harass	-7499
▁landed	-7500
▁rivals	-7501
▁termin	-7502
isconsin	-7503
▁beloved	-7504
▁somewhere	-7505
▁Additionally	-7506
▁entertainment	-7507
nam	-7508
odd	-7509
aura	-7510
otal	-7511
▁$1.	-7512
▁fel	-7513
apers	-7514
▁Beng	-7515
▁isol	-7516
▁reck	-7517
▁Davis	-7518
▁Jerem	-7519
▁Credit	-7520
▁Global	-7521
▁counts	-7522
▁Atlanta	-7523
▁Islamic	-7524
▁blocked	-7525
▁cooking	-7526
▁congress	-7527
▁democrat	-7528
▁function	-7529
▁elsewhere	-7530
▁lifestyle	-7531
▁basketball	-7532
▁permission	-7533
▁scientists	-7534
▁appointment	-7535
▁investments	-7536
▁manufacture	-7537
-6	-7538
eph	-7539
eta	-7540
ifer	-7541
ownt	-7542
▁Som	-7543
▁los	-7544
etime	-7545
▁1990	-7546
▁Bern	-7547
▁Greg	-7548
▁Shah	-7549
▁mask	-7550
▁mate	-7551
▁ramp	-7552
▁sequ	-7553
▁wing	-7554
▁Local	-7555
▁Villa	-7556
▁intim	-7557
▁monit	-7558
▁virus	-7559
▁Steven	-7560
▁latter	-7561
▁smooth	-7562
▁Benjamin	-7563
▁division	-7564
▁striking	-7565
▁terrible	-7566
▁competing	-7567
▁continent	-7568
▁terrorist	-7569
awa	-7570
▁37	-7571
aved	-7572
iece	-7573
rett	-7574
▁Lim	-7575
▁coc	-7576
agers	-7577
▁Ball	-7578
▁Kumar	-7579
▁Night	-7580
▁Sudan	-7581
▁dying	-7582
▁lying	-7583
▁voter	-7584
▁Secret	-7585
▁spaces	-7586
▁Journal	-7587
▁kilomet	-7588
▁designer	-7589
▁detained	-7590
▁swimming	-7591
▁abandoned	-7592
▁everywhere	-7593
▁accusations	-7594
▁appropriate	-7595
28	-7596
>\	-7597
zy	-7598
aret	-7599
▁mal	-7600
▁sli	-7601
ancer	-7602
licit	-7603
▁Hamp	-7604
gender	-7605
keeper	-7606
orough	-7607
▁Katie	-7608
▁fruit	-7609
▁wheel	-7610
ointing	-7611
▁Berlin	-7612
▁Reform	-7613
▁deadly	-7614
▁prepar	-7615
▁traged	-7616
▁adopted	-7617
▁friendly	-7618
▁supports	-7619
▁diagnosed	-7620
▁sensitive	-7621
▁touchdown	-7622
▁generations	-7623
xic	-7624
▁Es	-7625
agan	-7626
uous	-7627
▁Fre	-7628
▁Tal	-7629
olved	-7630
owell	-7631
rance	-7632
sters	-7633
▁Hung	-7634
▁chap	-7635
▁grass	-7636
▁multi	-7637
▁sugar	-7638
▁toile	-7639
▁Muslim	-7640
▁formed	-7641
▁behavior	-7642
▁disaster	-7643
▁Wisconsin	-7644
▁fantastic	-7645
▁delivering	-7646
▁employment	-7647
▁representing	-7648
GBT	-7649
urd	-7650
ilst	-7651
ints	-7652
othe	-7653
▁GMT	-7654
▁Rev	-7655
▁avo	-7656
aware	-7657
▁Five	-7658
▁Liam	-7659
▁meat	-7660
▁phen	-7661
active	-7662
inking	-7663
profit	-7664
▁Moore	-7665
▁antis	-7666
▁bread	-7667
▁empty	-7668
▁oblig	-7669
▁Reeves	-7670
▁arrive	-7671
▁lovely	-7672
▁rushed	-7673
▁airline	-7674
▁beating	-7675
▁cameras	-7676
▁tourism	-7677
▁handling	-7678
▁presenter	-7679
▁testimony	-7680
▁essentially	-7681
▁collaboration	-7682
37	-7683
49	-7684
rad	-7685
▁MA	-7686
burg	-7687
umes	-7688
▁Div	-7689
▁Has	-7690
amber	-7691
eping	-7692
▁Brook	-7693
▁Jason	-7694
▁Strip	-7695
▁cited	-7696
▁explo	-7697
▁hoped	-7698
▁manif	-7699
▁rugby	-7700
▁shops	-7701
▁threw	-7702
▁winds	-7703
▁Gandhi	-7704
▁Nether	-7705
▁barely	-7706
▁waters	-7707
▁settled	-7708
▁tribute	-7709
▁deadline	-7710
27	-7711
Pe	-7712
bal	-7713
ela	-7714
ova	-7715
▁IN	-7716
anka	-7717
etic	-7718
lete	-7719
raid	-7720
child	-7721
scale	-7722
▁Fans	-7723
▁fame	-7724
▁tall	-7725
employ	-7726
▁medic	-7727
ogether	-7728
▁Budget	-7729
▁Mumbai	-7730
▁buyers	-7731
▁drinks	-7732
▁phones	-7733
▁tracks	-7734
friendly	-7735
▁Morning	-7736
▁concent	-7737
▁Administ	-7738
▁analysts	-7739
▁awareness	-7740
▁ownership	-7741
▁encouraged	-7742
▁friendship	-7743
],"	-7744
agg	-7745
▁48	-7746
▁Cra	-7747
▁Nav	-7748
▁dim	-7749
dated	-7750
ports	-7751
▁Plus	-7752
▁Redd	-7753
▁flex	-7754
▁laid	-7755
▁loud	-7756
▁mere	-7757
adelph	-7758
▁Adams	-7759
▁knife	-7760
▁Little	-7761
▁Portug	-7762
▁filing	-7763
▁strain	-7764
▁Houston	-7765
▁acceler	-7766
▁managing	-7767
▁software	-7768
▁stressed	-7769
▁Education	-7770
▁hopefully	-7771
▁recovered	-7772
▁households	-7773
▁speculation	-7774
rog	-7775
▁Gh	-7776
▁18,	-7777
▁AFP	-7778
▁Did	-7779
▁Fur	-7780
▁map	-7781
eries	-7782
▁Fort	-7783
▁ally	-7784
▁flow	-7785
▁obst	-7786
elfare	-7787
▁Allen	-7788
▁recip	-7789
ography	-7790
▁Others	-7791
▁blamed	-7792
▁prohib	-7793
▁saving	-7794
▁scores	-7795
▁deliber	-7796
▁noticed	-7797
▁silence	-7798
▁Canadian	-7799
▁overturn	-7800
▁addressed	-7801
▁passenger	-7802
▁referring	-7803
▁approached	-7804
▁recognition	-7805
▁recommended	-7806
▁OK	-7807
▁ow	-7808
▁yn	-7809
appy	-7810
rets	-7811
▁Ron	-7812
▁1980	-7813
▁Bull	-7814
▁Jake	-7815
▁copy	-7816
▁honor	-7817
▁landing	-7818
▁recruit	-7819
▁undersc	-7820
▁windows	-7821
3-	-7822
rum	-7823
una	-7824
▁$6	-7825
high	-7826
rous	-7827
uits	-7828
▁30-	-7829
▁Ren	-7830
▁Vin	-7831
▁hub	-7832
opher	-7833
▁Care	-7834
▁Fred	-7835
▁Plan	-7836
▁ease	-7837
remlin	-7838
▁colon	-7839
▁foods	-7840
▁funny	-7841
▁index	-7842
▁shell	-7843
▁spots	-7844
▁stone	-7845
▁taste	-7846
▁Carter	-7847
▁Energy	-7848
▁awards	-7849
▁lowest	-7850
▁packed	-7851
▁seized	-7852
▁thrown	-7853
cription	-7854
▁Dodgers	-7855
▁Pradesh	-7856
▁discover	-7857
▁employee	-7858
▁reporter	-7859
▁Southgate	-7860
▁corporate	-7861
▁extensive	-7862
▁solutions	-7863
▁consistent	-7864
ika	-7865
rows	-7866
▁10,	-7867
▁gay	-7868
▁Emer	-7869
▁drew	-7870
▁sole	-7871
▁touc	-7872
▁Mayor	-7873
▁elite	-7874
▁Jeremy	-7875
▁indeed	-7876
▁context	-7877
▁operate	-7878
▁parking	-7879
▁priorit	-7880
▁winners	-7881
▁Columbia	-7882
▁coaching	-7883
▁formerly	-7884
▁embarrass	-7885
▁meanwhile	-7886
▁migration	-7887
▁photograp	-7888
▁Netherlands	-7889
▁universities	-7890
▁unprecedented	-7891
oa	-7892
mers	-7893
step	-7894
▁12.	-7895
▁Eve	-7896
▁Row	-7897
▁ham	-7898
▁mel	-7899
▁ped	-7900
▁Girl	-7901
▁apps	-7902
▁hell	-7903
▁kiss	-7904
▁luck	-7905
▁anger	-7906
▁fatal	-7907
▁walls	-7908
iveness	-7909
through	-7910
▁breaks	-7911
▁locals	-7912
▁trophy	-7913
▁writes	-7914
▁Philipp	-7915
▁activist	-7916
▁romantic	-7917
▁survived	-7918
▁attending	-7919
▁Philadelph	-7920
▁attempting	-7921
DC	-7922
TA	-7923
Un	-7924
որ	-7925
ami	-7926
def	-7927
ece	-7928
ref	-7929
▁$5	-7930
▁39	-7931
beat	-7932
ello	-7933
ocks	-7934
olen	-7935
ommy	-7936
▁Deb	-7937
▁Die	-7938
▁Gun	-7939
ailed	-7940
uming	-7941
woman	-7942
▁Eric	-7943
▁Lady	-7944
former	-7945
mother	-7946
reated	-7947
▁2016,	-7948
▁Emily	-7949
▁crore	-7950
actions	-7951
ensions	-7952
▁Golden	-7953
▁Walker	-7954
▁hidden	-7955
▁titles	-7956
▁Russell	-7957
▁clients	-7958
▁shelter	-7959
▁clothing	-7960
▁defender	-7961
▁magazine	-7962
▁antisemit	-7963
▁remarkable	-7964
▁controversy	-7965
dis	-7966
mat	-7967
xit	-7968
ixel	-7969
lied	-7970
rena	-7971
▁12-	-7972
▁Rog	-7973
▁calc	-7974
▁soil	-7975
▁tele	-7976
▁phase	-7977
ributed	-7978
▁Dublin	-7979
▁Morgan	-7980
▁Murphy	-7981
▁slowly	-7982
▁symbol	-7983
▁Affairs	-7984
▁hosting	-7985
▁realise	-7986
▁reviews	-7987
▁unknown	-7988
▁wanting	-7989
▁Business	-7990
▁Investig	-7991
▁experiment	-7992
▁innovation	-7993
▁consistently	-7994
29	-7995
6-	-7996
Ar	-7997
aga	-7998
▁38	-7999
▁Gi	-8000
anes	-8001
esto	-8002
igen	-8003
than	-8004
found	-8005
rency	-8006
▁Fair	-8007
▁gall	-8008
ibrary	-8009
phones	-8010
▁alert	-8011
▁gains	-8012
ections	-8013
▁Rights	-8014
▁Rwanda	-8015
▁breast	-8016
▁dreams	-8017
▁outfit	-8018
▁reject	-8019
▁profile	-8020
▁suicide	-8021
▁Atlantic	-8022
▁flooding	-8023
▁expansion	-8024
▁Development	-8025
▁disappointed	-8026
▁organisations	-8027
fa	-8028
Pal	-8029
aun	-8030
aya	-8031
With	-8032
apes	-8033
orge	-8034
▁duo	-8035
acter	-8036
ierce	-8037
▁Fern	-8038
▁cart	-8039
▁hide	-8040
▁Chair	-8041
▁brown	-8042
▁crown	-8043
▁guest	-8044
▁inher	-8045
▁loves	-8046
profile	-8047
▁Michel	-8048
▁reward	-8049
▁concert	-8050
▁outdoor	-8051
▁stating	-8052
▁Robinson	-8053
▁valuable	-8054
▁Convention	-8055
▁necessarily	-8056
?'	-8057
low	-8058
mun	-8059
pot	-8060
load	-8061
▁Bru	-8062
▁Ins	-8063
▁log	-8064
annah	-8065
front	-8066
▁Lind	-8067
▁Whit	-8068
▁stro	-8069
bridge	-8070
▁Hotel	-8071
▁Houth	-8072
▁metal	-8073
winning	-8074
▁Austin	-8075
▁formal	-8076
▁Medical	-8077
▁applied	-8078
▁counsel	-8079
▁Children	-8080
▁civilian	-8081
▁guidance	-8082
▁memories	-8083
▁obtained	-8084
▁strongly	-8085
▁supplies	-8086
▁initiatives	-8087
▁parliamentary	-8088
--	-8089
▁pa	-8090
aska	-8091
bles	-8092
ione	-8093
ovic	-8094
▁Cop	-8095
▁Ian	-8096
▁sch	-8097
▁tor	-8098
,000.	-8099
bling	-8100
entle	-8101
ework	-8102
world	-8103
▁Elon	-8104
▁LGBT	-8105
▁Mill	-8106
▁fulf	-8107
▁gard	-8108
▁pure	-8109
orious	-8110
▁2017,	-8111
▁Later	-8112
▁Which	-8113
▁eager	-8114
▁forms	-8115
▁liked	-8116
rifying	-8117
▁Commun	-8118
▁Forest	-8119
▁Galaxy	-8120
▁cancel	-8121
▁locked	-8122
▁sovere	-8123
ublished	-8124
▁Clinton	-8125
▁coaches	-8126
▁stretch	-8127
▁holidays	-8128
▁selected	-8129
▁shocking	-8130
▁predicted	-8131
▁proposals	-8132
▁appreciate	-8133
▁successfully	-8134
13	-8135
▁ho	-8136
abad	-8137
▁bes	-8138
asury	-8139
umble	-8140
ureau	-8141
▁Balt	-8142
▁cock	-8143
▁menu	-8144
▁nurs	-8145
▁rhet	-8146
▁sits	-8147
father	-8148
itious	-8149
rition	-8150
▁Cross	-8151
▁boats	-8152
▁chips	-8153
▁craft	-8154
▁elder	-8155
▁smoke	-8156
▁units	-8157
▁Barcel	-8158
▁humans	-8159
▁surviv	-8160
▁tragedy	-8161
▁creation	-8162
▁warnings	-8163
▁departure	-8164
▁reference	-8165
▁capabilities	-8166
▁overwhelming	-8167
▁participants	-8168
▁extraordinary	-8169
án	-8170
nic	-8171
pan	-8172
irts	-8173
pton	-8174
▁11.	-8175
▁25,	-8176
▁Bol	-8177
▁Slo	-8178
▁tea	-8179
Trump	-8180
venue	-8181
▁Vill	-8182
▁caps	-8183
▁Music	-8184
▁shirt	-8185
▁walks	-8186
▁Square	-8187
▁honour	-8188
▁insist	-8189
▁native	-8190
▁shadow	-8191
▁stages	-8192
rehensive	-8193
▁describe	-8194
▁external	-8195
▁unveiled	-8196
▁promoting	-8197
▁resulting	-8198
▁collective	-8199
▁criticized	-8200
▁maintained	-8201
▁maintaining	-8202
4-	-8203
lif	-8204
uts	-8205
vid	-8206
▁8,	-8207
▁id	-8208
▁Bon	-8209
▁Lam	-8210
antis	-8211
force	-8212
iture	-8213
licop	-8214
ordon	-8215
▁2012	-8216
▁joke	-8217
▁king	-8218
▁thin	-8219
▁Exper	-8220
▁disag	-8221
▁fract	-8222
▁legit	-8223
iciency	-8224
▁Speaker	-8225
▁adviser	-8226
▁dispute	-8227
▁disrupt	-8228
▁divorce	-8229
▁install	-8230
▁tariffs	-8231
▁welfare	-8232
▁Jonathan	-8233
▁relevant	-8234
▁Charlotte	-8235
▁defending	-8236
▁nationwide	-8237
▁politician	-8238
▁Philadelphia	-8239
▁experiencing	-8240
eck	-8241
ses	-8242
▁3-	-8243
rics	-8244
zing	-8245
▁Abu	-8246
▁Aut	-8247
▁Bat	-8248
▁Mot	-8249
▁sem	-8250
eland	-8251
▁barg	-8252
▁erup	-8253
▁foss	-8254
▁Enter	-8255
▁Rohit	-8256
▁Sport	-8257
lobally	-8258
▁strict	-8259
▁Kremlin	-8260
▁anymore	-8261
▁filming	-8262
▁premium	-8263
▁therapy	-8264
▁genocide	-8265
▁prisoners	-8266
▁addressing	-8267
▁Constitution	-8268
▁independence	-8269
EL	-8270
▁x	-8271
=\"	-8272
you	-8273
▁ru	-8274
emed	-8275
▁Adv	-8276
▁Jer	-8277
▁Koh	-8278
▁Tam	-8279
▁tag	-8280
erted	-8281
level	-8282
utter	-8283
▁Fury	-8284
▁Sams	-8285
▁hang	-8286
▁salt	-8287
▁badly	-8288
▁afraid	-8289
▁satell	-8290
▁scared	-8291
▁stocks	-8292
▁crossed	-8293
▁helicop	-8294
▁letters	-8295
▁radical	-8296
▁cleaning	-8297
▁momentum	-8298
▁realised	-8299
▁shoppers	-8300
▁basically	-8301
▁efficient	-8302
▁expecting	-8303
▁indicated	-8304
▁recording	-8305
▁correspond	-8306
▁celebrating	-8307
▁respectively	-8308
66	-8309
Im	-8310
sm	-8311
een	-8312
▁Ep	-8313
lers	-8314
name	-8315
▁150	-8316
▁Ale	-8317
▁NBC	-8318
▁dub	-8319
▁por	-8320
▁unn	-8321
regon	-8322
▁Gill	-8323
▁Viet	-8324
▁iron	-8325
▁moon	-8326
▁nerv	-8327
▁owns	-8328
▁rall	-8329
▁whis	-8330
ompson	-8331
▁cloud	-8332
▁fixed	-8333
▁reass	-8334
▁Poland	-8335
▁breath	-8336
▁nights	-8337
aughters	-8338
quarters	-8339
▁absence	-8340
▁betting	-8341
▁Ethiopia	-8342
▁agricult	-8343
▁prompted	-8344
▁Barcelona	-8345
▁marketing	-8346
▁historical	-8347
▁possession	-8348
▁situations	-8349
▁combination	-8350
▁destination	-8351
CB	-8352
dog	-8353
ardo	-8354
▁17,	-8355
▁20,	-8356
▁Ban	-8357
▁Cas	-8358
▁Lyn	-8359
▁Was	-8360
oviet	-8361
▁1970	-8362
▁Navy	-8363
▁lakh	-8364
▁Combs	-8365
▁Crown	-8366
▁Radio	-8367
▁Video	-8368
▁conce	-8369
▁noise	-8370
▁tweet	-8371
minster	-8372
▁conver	-8373
▁extent	-8374
▁indict	-8375
▁portray	-8376
▁wickets	-8377
▁fighters	-8378
▁exclusive	-8379
▁foundation	-8380
▁requirements	-8381
98	-8382
bul	-8383
lah	-8384
▁Ox	-8385
Just	-8386
Some	-8387
made	-8388
usal	-8389
▁Nas	-8390
▁Tit	-8391
▁Alan	-8392
▁Doct	-8393
▁Head	-8394
▁Land	-8395
▁furn	-8396
▁tail	-8397
lining	-8398
▁loans	-8399
▁meals	-8400
▁shoes	-8401
itement	-8402
▁Spring	-8403
▁convin	-8404
▁deeper	-8405
▁pursue	-8406
▁heritage	-8407
▁describes	-8408
▁contribute	-8409
▁participate	-8410
08	-8411
ait	-8412
ima	-8413
mir	-8414
uzz	-8415
▁ML	-8416
enez	-8417
ille	-8418
ules	-8419
▁16,	-8420
▁27,	-8421
▁McK	-8422
▁Pot	-8423
▁Tri	-8424
▁bol	-8425
▁gri	-8426
▁odd	-8427
▁Bell	-8428
▁Ford	-8429
▁Oper	-8430
▁Pass	-8431
▁bull	-8432
▁mood	-8433
▁Award	-8434
▁Right	-8435
▁begun	-8436
▁chest	-8437
▁enorm	-8438
▁pilot	-8439
▁Mother	-8440
▁affair	-8441
▁cheese	-8442
▁duties	-8443
▁resort	-8444
▁vessel	-8445
▁deserve	-8446
▁drawing	-8447
▁grounds	-8448
▁confront	-8449
▁demanding	-8450
▁involvement	-8451
ía	-8452
ին	-8453
ikes	-8454
math	-8455
wear	-8456
▁195	-8457
▁30,	-8458
▁pup	-8459
▁rot	-8460
anges	-8461
annon	-8462
lease	-8463
▁Sher	-8464
▁tort	-8465
Israel	-8466
▁spons	-8467
▁swift	-8468
▁babies	-8469
▁eighth	-8470
▁passes	-8471
▁salary	-8472
▁urgent	-8473
ottenham	-8474
▁cheaper	-8475
▁concept	-8476
▁funeral	-8477
▁seventh	-8478
▁emerging	-8479
▁focusing	-8480
▁shoulder	-8481
▁colleague	-8482
▁criticised	-8483
▁complicated	-8484
▁progressive	-8485
ել	-8486
hor	-8487
sen	-8488
▁6-	-8489
▁DC	-8490
▁LA	-8491
▁£5	-8492
king	-8493
phic	-8494
▁arts	-8495
▁inev	-8496
▁pill	-8497
erving	-8498
iamond	-8499
▁Domin	-8500
▁shall	-8501
▁smile	-8502
▁subur	-8503
verning	-8504
▁Lauren	-8505
▁Oregon	-8506
▁fundra	-8507
▁killer	-8508
▁perpet	-8509
▁ranked	-8510
▁arguing	-8511
▁ballots	-8512
▁demonst	-8513
▁warrant	-8514
irmingham	-8515
▁backlash	-8516
▁computer	-8517
▁impacted	-8518
▁conviction	-8519
▁exhibition	-8520
▁protecting	-8521
▁encouraging	-8522
▁residential	-8523
OA	-8524
org	-8525
▁Na	-8526
ania	-8527
hent	-8528
itar	-8529
umer	-8530
▁Ath	-8531
▁Var	-8532
▁mad	-8533
▁pip	-8534
▁Burn	-8535
▁Jane	-8536
▁Kiev	-8537
▁Rome	-8538
▁Such	-8539
▁dism	-8540
▁knee	-8541
▁airst	-8542
▁blank	-8543
▁habit	-8544
▁sauce	-8545
▁weigh	-8546
reprene	-8547
▁butter	-8548
▁taught	-8549
▁voices	-8550
▁Country	-8551
▁equally	-8552
▁updates	-8553
▁vaccine	-8554
▁deployed	-8555
▁normally	-8556
▁peaceful	-8557
▁petition	-8558
▁convinced	-8559
▁perfectly	-8560
▁Birmingham	-8561
▁personally	-8562
▁Christopher	-8563
▁replacement	-8564
OU	-8565
acc	-8566
bot	-8567
▁ET	-8568
▁Ur	-8569
Well	-8570
andy	-8571
cles	-8572
ivan	-8573
loom	-8574
▁20-	-8575
▁Gil	-8576
▁Nev	-8577
backs	-8578
ector	-8579
▁pink	-8580
▁tent	-8581
backed	-8582
▁Tommy	-8583
▁facts	-8584
▁ships	-8585
portion	-8586
▁tragic	-8587
▁viewed	-8588
ximately	-8589
▁Cameron	-8590
▁Samsung	-8591
▁forcing	-8592
▁impacts	-8593
▁profits	-8594
▁striker	-8595
▁Everyone	-8596
▁Hamilton	-8597
▁Tottenham	-8598
▁finishing	-8599
▁pregnancy	-8600
▁highlights	-8601
▁transgender	-8602
▁compensation	-8603
▁Administration	-8604
xy	-8605
▁Ib	-8606
gener	-8607
gging	-8608
ption	-8609
▁Dave	-8610
▁Next	-8611
▁ages	-8612
▁Never	-8613
▁Stand	-8614
▁fault	-8615
unction	-8616
▁Common	-8617
▁stolen	-8618
▁suffer	-8619
▁classes	-8620
▁pleased	-8621
▁pledged	-8622
▁singing	-8623
▁speaker	-8624
▁Maryland	-8625
▁Official	-8626
▁aftermath	-8627
▁sustained	-8628
▁ambassador	-8629
▁democratic	-8630
▁investigate	-8631
▁representatives	-8632
bu	-8633
agh	-8634
iot	-8635
ums	-8636
":17	-8637
loyd	-8638
▁Est	-8639
▁piv	-8640
uting	-8641
▁Circ	-8642
▁NASA	-8643
▁bump	-8644
▁phil	-8645
▁rely	-8646
▁snap	-8647
People	-8648
ateral	-8649
▁Along	-8650
▁Civil	-8651
▁Field	-8652
▁opens	-8653
▁recon	-8654
▁vowed	-8655
▁Bright	-8656
▁brutal	-8657
▁exceed	-8658
▁jailed	-8659
▁liquid	-8660
▁capture	-8661
▁facilit	-8662
▁wounded	-8663
▁Services	-8664
▁Thompson	-8665
▁Hampshire	-8666
▁carefully	-8667
▁pollution	-8668
▁worldwide	-8669
▁physically	-8670
▁specialist	-8671
▁surrounded	-8672
Be	-8673
OT	-8674
jo	-8675
rez	-8676
uri	-8677
▁JD	-8678
▁11,	-8679
▁15,	-8680
▁Hon	-8681
▁Pit	-8682
▁ske	-8683
arted	-8684
cling	-8685
orous	-8686
▁Hist	-8687
▁Sant	-8688
▁Stew	-8689
▁Turk	-8690
▁symp	-8691
luding	-8692
▁Class	-8693
▁blind	-8694
igenous	-8695
▁Soviet	-8696
▁interp	-8697
▁Pacific	-8698
▁beaches	-8699
▁outrage	-8700
▁scrutiny	-8701
▁construct	-8702
▁reflected	-8703
▁triggered	-8704
▁membership	-8705
▁applications	-8706
2%	-8707
vo	-8708
:00	-8709
gal	-8710
ikh	-8711
osh	-8712
..."	-8713
arre	-8714
ndra	-8715
roit	-8716
▁250	-8717
▁Emp	-8718
▁Imp	-8719
iform	-8720
▁Nich	-8721
orneys	-8722
▁Lions	-8723
▁Oklah	-8724
▁Tyson	-8725
▁seeks	-8726
ulating	-8727
▁Graham	-8728
▁Joseph	-8729
▁anyway	-8730
▁beaten	-8731
▁manner	-8732
▁emotion	-8733
▁liberal	-8734
▁romance	-8735
▁baseball	-8736
▁constant	-8737
▁Transport	-8738
▁delighted	-8739
▁displaced	-8740
▁recognise	-8741
▁requested	-8742
▁struggles	-8743
▁excitement	-8744
▁personality	-8745
wy	-8746
jud	-8747
oli	-8748
thy	-8749
▁et	-8750
▁je	-8751
agen	-8752
dale	-8753
▁12,	-8754
▁Tem	-8755
atoes	-8756
third	-8757
▁Aber	-8758
▁asks	-8759
onnell	-8760
rating	-8761
▁2018.	-8762
▁downt	-8763
▁tired	-8764
▁urban	-8765
▁lineup	-8766
▁stance	-8767
▁Defence	-8768
▁caution	-8769
▁handful	-8770
▁reforms	-8771
▁screens	-8772
▁survive	-8773
▁theatre	-8774
▁dropping	-8775
▁rhetoric	-8776
▁breakfast	-8777
▁impressed	-8778
▁investing	-8779
▁revealing	-8780
▁constitutional	-8781
gra	-8782
rors	-8783
▁Wim	-8784
early	-8785
▁Buck	-8786
▁Cook	-8787
▁Free	-8788
▁aver	-8789
▁eggs	-8790
▁bombs	-8791
▁pride	-8792
▁waves	-8793
▁weird	-8794
▁Brexit	-8795
▁bosses	-8796
▁client	-8797
▁oldest	-8798
▁rounds	-8799
▁enthusi	-8800
▁flowers	-8801
▁resolve	-8802
▁strange	-8803
ibilities	-8804
▁bathroom	-8805
▁register	-8806
▁governing	-8807
▁threatening	-8808
3%	-8809
100	-8810
▁75	-8811
▁Dj	-8812
▁fed	-8813
aimed	-8814
eting	-8815
inity	-8816
itled	-8817
▁Lisa	-8818
▁dies	-8819
▁glam	-8820
▁soap	-8821
ocated	-8822
▁Jacob	-8823
▁Rahul	-8824
▁Stock	-8825
▁decor	-8826
▁frame	-8827
▁joked	-8828
▁memor	-8829
▁truck	-8830
▁Deputy	-8831
▁Reddit	-8832
▁calend	-8833
▁mainly	-8834
▁racist	-8835
▁rating	-8836
▁stable	-8837
▁trauma	-8838
▁urging	-8839
atherine	-8840
▁Daniels	-8841
▁Detroit	-8842
▁diverse	-8843
▁imposed	-8844
▁methods	-8845
▁painful	-8846
Published	-8847
▁Nigerian	-8848
▁Oklahoma	-8849
▁Treasury	-8850
▁accompan	-8851
▁globally	-8852
▁longtime	-8853
▁overseas	-8854
▁pointing	-8855
▁reflects	-8856
▁refugees	-8857
▁sporting	-8858
▁Sometimes	-8859
▁contracts	-8860
▁daughters	-8861
▁gathering	-8862
▁militants	-8863
▁resistance	-8864
rd	-8865
ped	-8866
▁(3	-8867
▁46	-8868
elly	-8869
iffe	-8870
list	-8871
roid	-8872
▁gut	-8873
After	-8874
arity	-8875
heast	-8876
umber	-8877
▁Hong	-8878
▁Kane	-8879
▁Leon	-8880
▁Poll	-8881
▁bloc	-8882
▁guns	-8883
▁plea	-8884
▁stir	-8885
intend	-8886
istent	-8887
rities	-8888
▁Aaron	-8889
▁Techn	-8890
▁align	-8891
▁decre	-8892
▁depth	-8893
▁instr	-8894
ictions	-8895
▁Bengal	-8896
▁Thanks	-8897
▁Mexican	-8898
▁element	-8899
▁visible	-8900
▁Catholic	-8901
▁elements	-8902
▁expanded	-8903
▁underway	-8904
blockFirst	-8905
▁headlines	-8906
▁procedure	-8907
▁tradition	-8908
▁witnesses	-8909
▁technologies	-8910
▁representative	-8911
TI	-8912
ING	-8913
oen	-8914
▁Pu	-8915
alle	-8916
riel	-8917
▁Amy	-8918
▁Dem	-8919
▁Low	-8920
▁Naz	-8921
▁rig	-8922
▁una	-8923
inted	-8924
utral	-8925
▁Kyle	-8926
▁Roll	-8927
▁bold	-8928
▁seed	-8929
ocking	-8930
rupted	-8931
script	-8932
▁Crime	-8933
▁Maria	-8934
▁Marsh	-8935
▁drove	-8936
▁error	-8937
▁lobby	-8938
▁steel	-8939
▁valid	-8940
▁yield	-8941
ambling	-8942
attered	-8943
ivalent	-8944
▁Safety	-8945
▁checks	-8946
▁covers	-8947
▁finger	-8948
▁gotten	-8949
▁margin	-8950
▁string	-8951
▁ancient	-8952
▁comprom	-8953
▁notable	-8954
▁promising	-8955
▁reduction	-8956
▁assessment	-8957
▁popularity	-8958
▁Westminster	-8959
▁discrimination	-8960
▁investigations	-8961
NS	-8962
],	-8963
irm	-8964
ում	-8965
▁IT	-8966
ompl	-8967
rete	-8968
▁Bul	-8969
▁Set	-8970
▁gig	-8971
▁nin	-8972
range	-8973
▁2010	-8974
▁Anne	-8975
▁Cher	-8976
▁Line	-8977
▁bets	-8978
▁exha	-8979
▁lady	-8980
▁vibr	-8981
▁Alban	-8982
▁Laura	-8983
▁Thank	-8984
▁Voice	-8985
▁Yemen	-8986
▁coron	-8987
▁hired	-8988
▁upper	-8989
▁Farage	-8990
▁conced	-8991
▁fairly	-8992
▁fossil	-8993
▁medium	-8994
▁partly	-8995
▁regret	-8996
▁taxpay	-8997
▁trials	-8998
▁visits	-8999
▁weekly	-9000
fortable	-9001
▁Brother	-9002
▁burning	-9003
▁careful	-9004
▁delayed	-9005
▁embrace	-9006
▁factory	-9007
▁festive	-9008
▁slammed	-9009
▁Israelis	-9010
▁Jennifer	-9011
▁contains	-9012
▁demanded	-9013
▁disorder	-9014
▁teaching	-9015
▁collapsed	-9016
▁encounter	-9017
▁launching	-9018
▁ingredients	-9019
800	-9020
Not	-9021
nty	-9022
abet	-9023
▁19,	-9024
▁Ald	-9025
▁DeS	-9026
▁Dur	-9027
▁Nob	-9028
▁jew	-9029
▁lad	-9030
▁pin	-9031
abama	-9032
rical	-9033
riers	-9034
▁chip	-9035
▁echo	-9036
asting	-9037
rolled	-9038
▁Welsh	-9039
▁plate	-9040
▁solve	-9041
illance	-9042
▁Nevada	-9043
▁Wright	-9044
▁crypto	-9045
▁deport	-9046
▁gentle	-9047
▁jumped	-9048
▁recall	-9049
▁robust	-9050
▁routes	-9051
▁confron	-9052
▁hopeful	-9053
▁lessons	-9054
▁mystery	-9055
▁nervous	-9056
▁privile	-9057
▁episodes	-9058
▁managers	-9059
▁arguments	-9060
▁monitoring	-9061
▁treatments	-9062
▁proceedings	-9063
26	-9064
alo	-9065
kes	-9066
www	-9067
▁$7	-9068
chan	-9069
stal	-9070
▁21,	-9071
▁Gav	-9072
▁£1.	-9073
inder	-9074
isive	-9075
▁CNBC	-9076
▁Farm	-9077
▁Kong	-9078
▁drag	-9079
▁dump	-9080
ancial	-9081
rowing	-9082
▁Jimmy	-9083
▁rises	-9084
▁Indust	-9085
▁extend	-9086
▁filmed	-9087
▁unfair	-9088
olitical	-9089
▁comeback	-9090
▁ambitious	-9091
▁audiences	-9092
▁entreprene	-9093
▁executives	-9094
▁regardless	-9095
▁destruction	-9096
-20	-9097
▁Dh	-9098
▁Ho	-9099
▁28,	-9100
▁Arm	-9101
▁Vik	-9102
▁Vis	-9103
▁alt	-9104
▁unw	-9105
eling	-9106
erbai	-9107
works	-9108
▁Arch	-9109
▁Corn	-9110
▁Film	-9111
▁Jose	-9112
▁Kash	-9113
▁Rash	-9114
▁bron	-9115
▁buzz	-9116
▁cous	-9117
▁nick	-9118
▁solo	-9119
arency	-9120
bledon	-9121
▁Short	-9122
▁ocean	-9123
▁posed	-9124
▁reads	-9125
▁shame	-9126
▁branch	-9127
▁trains	-9128
▁Alabama	-9129
▁dressed	-9130
▁accusing	-9131
▁assembly	-9132
▁distinct	-9133
▁everyday	-9134
▁involves	-9135
▁suspects	-9136
▁throwing	-9137
▁infection	-9138
21	-9139
ao	-9140
Why	-9141
afe	-9142
eff	-9143
erm	-9144
pes	-9145
wen	-9146
▁AT	-9147
▁ly	-9148
Last	-9149
enna	-9150
olis	-9151
▁22,	-9152
▁26,	-9153
▁Tel	-9154
▁dur	-9155
▁vib	-9156
000,"	-9157
comes	-9158
lings	-9159
▁Book	-9160
▁CCTV	-9161
▁Gram	-9162
▁hung	-9163
▁mini	-9164
▁scar	-9165
▁tone	-9166
▁toug	-9167
acular	-9168
▁Ahmed	-9169
▁Andre	-9170
▁Qatar	-9171
▁Stone	-9172
▁Venez	-9173
▁inaug	-9174
▁prote	-9175
▁reign	-9176
▁trips	-9177
irlines	-9178
▁decent	-9179
▁Kingdom	-9180
▁cleared	-9181
▁divided	-9182
▁earning	-9183
▁interim	-9184
▁dialogue	-9185
▁integrity	-9186
▁broadcaster	-9187
▁fundamental	-9188
▁trafficking	-9189
▁contributions	-9190
1%	-9191
7%	-9192
▁+	-9193
bow	-9194
ded	-9195
▁44	-9196
▁13,	-9197
▁Cry	-9198
▁Lib	-9199
▁jet	-9200
▁syn	-9201
casts	-9202
cover	-9203
ewhat	-9204
rator	-9205
▁2008	-9206
▁Neil	-9207
▁grid	-9208
▁pron	-9209
▁rear	-9210
Palest	-9211
▁Arena	-9212
▁Kelce	-9213
▁LGBTQ	-9214
▁burst	-9215
▁falls	-9216
▁probe	-9217
▁wages	-9218
▁Butler	-9219
▁Ronald	-9220
▁accompl	-9221
▁borders	-9222
▁closure	-9223
▁doubled	-9224
▁rapidly	-9225
vironment	-9226
▁discount	-9227
▁engaging	-9228
▁requests	-9229
▁Wimbledon	-9230
▁cancelled	-9231
▁collected	-9232
▁prompting	-9233
▁accessible	-9234
▁resilience	-9235
▁accountable	-9236
▁inspiration	-9237
▁uncertainty	-9238
▁comprehensive	-9239
gap	-9240
ներ	-9241
▁Ja	-9242
acon	-9243
mann	-9244
oren	-9245
▁24,	-9246
▁Cub	-9247
▁cra	-9248
▁shr	-9249
▁sib	-9250
anted	-9251
ricts	-9252
▁Barb	-9253
▁Clar	-9254
▁Nare	-9255
▁Nico	-9256
▁dict	-9257
▁pose	-9258
▁Given	-9259
▁Price	-9260
▁Traff	-9261
▁cells	-9262
▁moist	-9263
▁rehab	-9264
▁Norway	-9265
▁boxing	-9266
▁incent	-9267
▁junior	-9268
▁metres	-9269
▁preced	-9270
▁shower	-9271
▁suspic	-9272
▁timing	-9273
▁aspects	-9274
▁intimid	-9275
▁monitor	-9276
▁Airlines	-9277
▁DeSantis	-9278
▁academic	-9279
▁exposure	-9280
▁sexually	-9281
▁youngest	-9282
▁criminals	-9283
▁organised	-9284
▁witnessed	-9285
fortunately	-9286
▁afterwards	-9287
▁midfielder	-9288
▁regulation	-9289
▁institution	-9290
▁establishment	-9291
▁professionals	-9292
85	-9293
mm	-9294
aud	-9295
▁fo	-9296
bean	-9297
drop	-9298
izza	-9299
omed	-9300
rome	-9301
ulpt	-9302
▁Dog	-9303
▁Oli	-9304
appen	-9305
ockey	-9306
▁Bron	-9307
▁Make	-9308
▁Much	-9309
▁boun	-9310
▁cens	-9311
▁urge	-9312
▁visa	-9313
accept	-9314
alking	-9315
finals	-9316
▁Diego	-9317
▁Ocean	-9318
▁forth	-9319
▁tries	-9320
▁surely	-9321
▁Without	-9322
▁bedroom	-9323
▁centres	-9324
▁couples	-9325
▁publish	-9326
▁readers	-9327
▁Mohammed	-9328
▁Venezuel	-9329
▁billions	-9330
▁invested	-9331
▁unemploy	-9332
▁Argentina	-9333
▁Authority	-9334
▁depending	-9335
▁illegally	-9336
▁pressures	-9337
▁searching	-9338
▁Conference	-9339
▁priorities	-9340
▁revolution	-9341
▁frustration	-9342
▁improvement	-9343
▁accommodation	-9344
▁approximately	-9345
):	-9346
App	-9347
fts	-9348
pts	-9349
umm	-9350
▁Po	-9351
reck	-9352
▁Ast	-9353
▁Dol	-9354
▁Eag	-9355
▁Rom	-9356
While	-9357
mouth	-9358
stage	-9359
▁Hope	-9360
▁deny	-9361
▁torn	-9362
ixture	-9363
izarre	-9364
▁Barry	-9365
▁Craig	-9366
▁Dubai	-9367
▁birds	-9368
▁magic	-9369
▁toxic	-9370
ributes	-9371
▁Celebr	-9372
▁Forces	-9373
▁Gordon	-9374
▁finals	-9375
▁firing	-9376
▁format	-9377
▁memoir	-9378
American	-9379
▁Notting	-9380
▁batting	-9381
▁hostage	-9382
▁qualify	-9383
▁controls	-9384
▁covering	-9385
▁damaging	-9386
▁minority	-9387
▁starring	-9388
▁Professor	-9389
▁generated	-9390
▁guarantee	-9391
▁providers	-9392
▁Management	-9393
▁controlled	-9394
▁connections	-9395
▁substantial	-9396
▁investigated	-9397
▁disappointing	-9398
95	-9399
CO	-9400
esy	-9401
pin	-9402
rec	-9403
held	-9404
left	-9405
link	-9406
ourn	-9407
▁Sri	-9408
▁mos	-9409
check	-9410
▁Chap	-9411
▁Hold	-9412
▁Pres	-9413
▁eval	-9414
irates	-9415
rified	-9416
▁inner	-9417
▁quant	-9418
▁stops	-9419
looking	-9420
▁enable	-9421
▁fortun	-9422
▁implic	-9423
▁Azerbai	-9424
▁assists	-9425
▁authent	-9426
▁heating	-9427
▁periods	-9428
▁picking	-9429
▁tourist	-9430
▁updated	-9431
▁Lebanese	-9432
▁Telegram	-9433
▁province	-9434
▁equivalent	-9435
▁reasonable	-9436
▁surprising	-9437
!'	-9438
Re	-9439
bb	-9440
imb	-9441
see	-9442
uru	-9443
▁NY	-9444
▁Od	-9445
anne	-9446
esty	-9447
iner	-9448
leep	-9449
▁(20	-9450
▁Dra	-9451
▁Mas	-9452
▁Sho	-9453
▁ecl	-9454
elson	-9455
stock	-9456
▁Hart	-9457
▁Resp	-9458
▁dust	-9459
▁porn	-9460
▁sons	-9461
orship	-9462
▁Staff	-9463
▁boxes	-9464
▁recru	-9465
ocation	-9466
▁Leices	-9467
▁Queens	-9468
▁bitter	-9469
▁crowds	-9470
▁deemed	-9471
▁hearts	-9472
▁subsid	-9473
▁toilet	-9474
ropriate	-9475
▁auction	-9476
▁islands	-9477
▁defended	-9478
▁explicit	-9479
▁finances	-9480
▁immunity	-9481
▁sleeping	-9482
▁spreading	-9483
▁conclusion	-9484
▁billionaire	-9485
▁communications	-9486
IR	-9487
ige	-9488
ori	-9489
oup	-9490
pur	-9491
too	-9492
izon	-9493
mind	-9494
pson	-9495
ught	-9496
▁IPL	-9497
▁Liz	-9498
chair	-9499
ellar	-9500
imore	-9501
kward	-9502
merce	-9503
▁2013	-9504
▁Hunt	-9505
▁Moon	-9506
▁Norm	-9507
▁Pete	-9508
▁lapt	-9509
▁sued	-9510
▁Blink	-9511
▁absor	-9512
▁greet	-9513
▁links	-9514
▁minds	-9515
▁overd	-9516
▁proof	-9517
▁Sussex	-9518
▁catast	-9519
▁undert	-9520
▁Edwards	-9521
▁Further	-9522
▁Turkish	-9523
▁courage	-9524
▁offices	-9525
▁posting	-9526
▁choosing	-9527
▁observed	-9528
▁phenomen	-9529
▁centuries	-9530
▁guaranteed	-9531
▁procedures	-9532
▁investigators	-9533
Do	-9534
GM	-9535
HO	-9536
Let	-9537
cot	-9538
cut	-9539
mph	-9540
now	-9541
zed	-9542
▁9,	-9543
▁Du	-9544
▁Li	-9545
amas	-9546
fare	-9547
iban	-9548
icky	-9549
inos	-9550
▁50-	-9551
▁GDP	-9552
▁hel	-9553
▁sty	-9554
anded	-9555
eared	-9556
ecess	-9557
eller	-9558
inois	-9559
oning	-9560
▁Bald	-9561
▁Pand	-9562
▁Sche	-9563
rently	-9564
uccess	-9565
▁Greek	-9566
▁Kenya	-9567
▁cheer	-9568
▁diver	-9569
ullivan	-9570
▁Abbott	-9571
▁dining	-9572
▁makeup	-9573
▁Cabinet	-9574
▁Stewart	-9575
▁amounts	-9576
▁arrests	-9577
▁restore	-9578
▁Narendra	-9579
▁lockdown	-9580
▁somewhat	-9581
▁residence	-9582
▁signature	-9583
▁submitted	-9584
▁workplace	-9585
▁classified	-9586
▁accompanied	-9587
▁publication	-9588
▁participation	-9589
96	-9590
AF	-9591
GP	-9592
aro	-9593
don	-9594
spe	-9595
▁42	-9596
Star	-9597
anke	-9598
arry	-9599
▁Gib	-9600
▁Hom	-9601
▁Teh	-9602
▁aer	-9603
bound	-9604
emies	-9605
▁Anna	-9606
▁Beat	-9607
▁Case	-9608
▁Dean	-9609
▁Rail	-9610
▁beer	-9611
▁bike	-9612
▁buck	-9613
ibbean	-9614
▁2,000	-9615
▁Perry	-9616
▁chart	-9617
▁ridic	-9618
▁theft	-9619
century	-9620
▁Aberde	-9621
▁Morris	-9622
▁Travis	-9623
▁fabric	-9624
▁grocer	-9625
▁illust	-9626
▁trucks	-9627
▁bottles	-9628
▁deficit	-9629
▁rolling	-9630
▁McDonald	-9631
▁Michelle	-9632
▁endorsed	-9633
▁enormous	-9634
▁judgment	-9635
▁networks	-9636
▁sessions	-9637
▁diversity	-9638
▁nominated	-9639
▁differences	-9640
WA	-9641
mi	-9642
cia	-9643
rov	-9644
▁FC	-9645
oned	-9646
rike	-9647
▁Cat	-9648
▁DNA	-9649
▁Dor	-9650
▁Nag	-9651
▁Ped	-9652
▁lav	-9653
▁vit	-9654
berry	-9655
ental	-9656
wered	-9657
▁desk	-9658
▁gest	-9659
▁tear	-9660
▁vary	-9661
heimer	-9662
itched	-9663
rained	-9664
▁Grant	-9665
▁Kings	-9666
▁Saint	-9667
▁Swiss	-9668
▁panic	-9669
▁ultra	-9670
selling	-9671
▁Easter	-9672
▁Leader	-9673
▁Summer	-9674
▁burden	-9675
▁fights	-9676
▁opener	-9677
▁rolled	-9678
ilateral	-9679
▁uniform	-9680
▁wrapped	-9681
▁mistakes	-9682
▁murdered	-9683
▁reminder	-9684
▁Baltimore	-9685
▁occasions	-9686
▁supportive	-9687
▁surveillance	-9688
48	-9689
yer	-9690
▁Ry	-9691
▁£6	-9692
▁13.	-9693
▁14,	-9694
▁McL	-9695
▁NEW	-9696
▁Run	-9697
▁tap	-9698
which	-9699
Online	-9700
inator	-9701
▁cruel	-9702
▁flour	-9703
▁lists	-9704
▁ranks	-9705
▁spell	-9706
stappen	-9707
▁Bureau	-9708
▁arrang	-9709
▁cruise	-9710
▁hotels	-9711
▁orange	-9712
▁racism	-9713
▁expects	-9714
president	-9715
▁Phillips	-9716
▁advocate	-9717
▁calendar	-9718
▁distract	-9719
▁Executive	-9720
▁condemned	-9721
▁extension	-9722
▁attendance	-9723
▁complained	-9724
▁depression	-9725
▁recognised	-9726
▁Commissioner	-9727
▁distribution	-9728
▁intervention	-9729
Up	-9730
etz	-9731
▁Fa	-9732
▁ax	-9733
inge	-9734
lopp	-9735
post	-9736
shot	-9737
vard	-9738
▁Box	-9739
▁kit	-9740
▁tum	-9741
ifies	-9742
▁misc	-9743
▁riot	-9744
▁scan	-9745
azeera	-9746
▁Chand	-9747
▁loose	-9748
▁relie	-9749
▁Amanda	-9750
▁Oliver	-9751
▁detect	-9752
▁loving	-9753
▁medals	-9754
▁unfold	-9755
▁useful	-9756
▁Gabriel	-9757
▁appeals	-9758
▁dancing	-9759
▁fishing	-9760
▁knocked	-9761
▁neutral	-9762
▁offense	-9763
▁senator	-9764
▁Campbell	-9765
▁Illinois	-9766
▁Lawrence	-9767
▁bankrupt	-9768
▁expenses	-9769
▁interior	-9770
▁thorough	-9771
▁Caribbean	-9772
▁Yorkshire	-9773
▁provision	-9774
▁describing	-9775
▁explaining	-9776
▁indictment	-9777
.-	-9778
▁է	-9779
rac	-9780
▁65	-9781
▁Bi	-9782
ante	-9783
burn	-9784
ouri	-9785
▁15-	-9786
▁Dal	-9787
▁Inf	-9788
▁Sav	-9789
▁bub	-9790
▁phr	-9791
party	-9792
▁1960	-9793
▁Find	-9794
▁Pant	-9795
abetes	-9796
owners	-9797
usting	-9798
▁laund	-9799
▁schol	-9800
▁teeth	-9801
▁thres	-9802
▁uncon	-9803
▁Border	-9804
▁inject	-9805
▁soccer	-9806
▁volume	-9807
▁wicket	-9808
▁Sheriff	-9809
▁citizen	-9810
▁creates	-9811
▁pulling	-9812
▁emotions	-9813
▁innocent	-9814
▁stepping	-9815
acceptable	-9816
▁attorneys	-9817
▁contained	-9818
▁expanding	-9819
▁primarily	-9820
▁processes	-9821
▁Everything	-9822
▁expression	-9823
▁celebrities	-9824
▁grandmother	-9825
76	-9826
ME	-9827
cr	-9828
gus	-9829
▁AN	-9830
▁SP	-9831
aven	-9832
▁31,	-9833
▁Der	-9834
▁bin	-9835
▁hip	-9836
▁ric	-9837
piece	-9838
▁Brid	-9839
▁Duke	-9840
▁Stat	-9841
▁hook	-9842
▁sear	-9843
▁Mahar	-9844
▁Molly	-9845
▁Money	-9846
▁Story	-9847
▁moral	-9848
▁Howard	-9849
▁divers	-9850
▁hardly	-9851
▁incumb	-9852
▁mutual	-9853
▁proven	-9854
▁steady	-9855
▁Finland	-9856
▁Simpson	-9857
▁Taliban	-9858
▁anybody	-9859
▁checked	-9860
▁fighter	-9861
▁somehow	-9862
▁stabbed	-9863
▁painting	-9864
▁resigned	-9865
▁securing	-9866
▁veterans	-9867
▁producers	-9868
▁threshold	-9869
▁traveling	-9870
▁Verstappen	-9871
▁industries	-9872
▁neighbours	-9873
▁association	-9874
▁headquarters	-9875
Bl	-9876
IL	-9877
ls	-9878
Now	-9879
live	-9880
▁Ext	-9881
▁Erik	-9882
▁Pict	-9883
▁Wade	-9884
▁flew	-9885
▁thus	-9886
estone	-9887
ristol	-9888
riving	-9889
▁revel	-9890
▁shake	-9891
▁toler	-9892
▁wrest	-9893
▁fierce	-9894
▁frozen	-9895
▁premie	-9896
▁recipe	-9897
▁repeat	-9898
▁retali	-9899
▁revers	-9900
▁rocket	-9901
▁Eastern	-9902
▁Express	-9903
▁Society	-9904
▁awkward	-9905
▁coastal	-9906
▁dynamic	-9907
▁letting	-9908
▁migrant	-9909
▁teenage	-9910
▁typical	-9911
▁Portugal	-9912
▁defeated	-9913
▁Financial	-9914
▁movements	-9915
▁retailers	-9916
▁sentences	-9917
▁chancellor	-9918
▁medication	-9919
▁Prosecutors	-9920
▁educational	-9921
▁politically	-9922
4%	-9923
SE	-9924
CAA	-9925
bar	-9926
ere	-9927
gun	-9928
▁GB	-9929
▁Hu	-9930
▁ok	-9931
argo	-9932
face	-9933
iola	-9934
lims	-9935
okie	-9936
urse	-9937
▁Fab	-9938
▁Kay	-9939
▁THE	-9940
▁bud	-9941
liest	-9942
orses	-9943
ystem	-9944
▁Beck	-9945
▁Bush	-9946
▁Gare	-9947
▁Mand	-9948
▁file	-9949
▁glad	-9950
▁yeah	-9951
ingham	-9952
▁Aston	-9953
▁Billy	-9954
▁Euros	-9955
▁chann	-9956
▁pleas	-9957
▁theat	-9958
▁towns	-9959
▁autumn	-9960
▁compon	-9961
▁crying	-9962
▁ignore	-9963
▁trends	-9964
▁lengthy	-9965
▁rescued	-9966
▁reverse	-9967
▁starred	-9968
▁tension	-9969
▁triumph	-9970
▁venture	-9971
▁wealthy	-9972
▁laughing	-9973
▁outcomes	-9974
▁playoffs	-9975
▁presents	-9976
▁profound	-9977
▁retailer	-9978
▁dominated	-9979
▁manifesto	-9980
▁spotlight	-9981
▁MailOnline	-9982
▁Nottingham	-9983
MC	-9984
oz	-9985
ugs	-9986
arer	-9987
comp	-9988
ipse	-9989
olas	-9990
tail	-9991
will	-9992
▁Equ	-9993
▁Nat	-9994
▁Rat	-9995
▁mun	-9996
▁2011	-9997
▁Have	-9998
▁Soph	-9999
▁reop	-10000
▁soph	-10001
▁span	-10002
ceived	-10003
second	-10004
vision	-10005
▁2025,	-10006
▁audio	-10007
▁flash	-10008
▁holes	-10009
▁Munich	-10010
▁Things	-10011
▁carpet	-10012
▁dubbed	-10013
▁ethnic	-10014
▁funded	-10015
▁repair	-10016
▁sculpt	-10017
▁submit	-10018
▁Denmark	-10019
▁Everton	-10020
▁Program	-10021
▁Swedish	-10022
▁consent	-10023
▁crashed	-10024
▁hanging	-10025
▁immense	-10026
▁leather	-10027
▁longest	-10028
▁removal	-10029
▁explosion	-10030
▁introduce	-10031
▁listening	-10032
▁naturally	-10033
▁nonprofit	-10034
▁purchased	-10035
▁Chancellor	-10036
▁governance	-10037
▁meaningful	-10038
▁scientific	-10039
▁withdrawal	-10040
▁resignation	-10041
▁highlighting	-10042
▁uncomfortable	-10043
77	-10044
jri	-10045
oda	-10046
▁Lt	-10047
asty	-10048
ayed	-10049
good	-10050
▁120	-10051
▁bip	-10052
▁hyp	-10053
▁vig	-10054
▁web	-10055
/2024	-10056
andom	-10057
▁Rice	-10058
▁Serb	-10059
▁stem	-10060
▁wire	-10061
amount	-10062
▁2016.	-10063
▁cyber	-10064
▁flags	-10065
▁pages	-10066
▁persu	-10067
▁resur	-10068
▁Bayern	-10069
▁safely	-10070
▁tenure	-10071
▁Company	-10072
▁Jazeera	-10073
▁Science	-10074
▁congrat	-10075
▁offence	-10076
▁arriving	-10077
▁trillion	-10078
▁discovery	-10079
▁existence	-10080
▁framework	-10081
▁attractive	-10082
▁harassment	-10083
▁outstanding	-10084
▁subsequently	-10085
▁transparency	-10086
hu	-10087
wat	-10088
▁"[	-10089
▁PC	-10090
icts	-10091
rock	-10092
▁Had	-10093
▁NSW	-10094
▁Nig	-10095
▁Ref	-10096
▁Sat	-10097
aders	-10098
▁Bond	-10099
▁euro	-10100
▁impe	-10101
▁wash	-10102
jriwal	-10103
umbled	-10104
▁Patel	-10105
achment	-10106
ecurity	-10107
▁Garden	-10108
▁Greece	-10109
▁Oxford	-10110
▁breach	-10111
▁bronze	-10112
▁inning	-10113
▁rapper	-10114
▁signal	-10115
ographic	-10116
▁Climate	-10117
▁athlete	-10118
▁careers	-10119
▁edition	-10120
▁notably	-10121
▁portion	-10122
▁concrete	-10123
▁entrance	-10124
▁lifetime	-10125
▁Community	-10126
▁associate	-10127
▁commander	-10128
▁employers	-10129
▁survivors	-10130
▁disappoint	-10131
▁Environment	-10132
▁anticipated	-10133
▁consideration	-10134
05	-10135
EP	-10136
AFP	-10137
▁AL	-10138
▁DJ	-10139
▁NC	-10140
orse	-10141
that	-10142
▁McI	-10143
▁awa	-10144
erest	-10145
▁Drag	-10146
▁Gray	-10147
▁Mang	-10148
▁Prom	-10149
▁alar	-10150
ussels	-10151
veland	-10152
▁awful	-10153
▁cable	-10154
▁disgr	-10155
▁fence	-10156
▁opted	-10157
▁parks	-10158
▁punch	-10159
▁topic	-10160
▁twist	-10161
▁warns	-10162
▁Carlos	-10163
▁Clarke	-10164
▁absent	-10165
▁booked	-10166
▁export	-10167
▁poison	-10168
▁superv	-10169
▁Theatre	-10170
▁closest	-10171
▁marking	-10172
▁tactics	-10173
▁Brighton	-10174
▁Division	-10175
▁diseases	-10176
▁generate	-10177
▁horrific	-10178
▁offences	-10179
▁villages	-10180
▁districts	-10181
▁exploring	-10182
▁subscript	-10183
▁disruption	-10184
▁differently	-10185
▁occasionally	-10186
38	-10187
6%	-10188
MS	-10189
OL	-10190
PR	-10191
▁•	-10192
nan	-10193
onz	-10194
▁41	-10195
▁iP	-10196
▁ma	-10197
Date	-10198
Line	-10199
avan	-10200
larg	-10201
stop	-10202
▁10%	-10203
▁Fan	-10204
▁Key	-10205
▁cow	-10206
▁wet	-10207
apore	-10208
omach	-10209
▁Crim	-10210
▁Oliv	-10211
▁Sara	-10212
▁dual	-10213
▁flaw	-10214
▁pour	-10215
▁Kohli	-10216
▁Metro	-10217
▁ambul	-10218
▁grave	-10219
▁spray	-10220
olutely	-10221
▁Athlet	-10222
▁Joshua	-10223
▁Syrian	-10224
▁Tehran	-10225
▁emails	-10226
▁jacket	-10227
▁openly	-10228
▁racial	-10229
▁script	-10230
▁whilst	-10231
▁Finance	-10232
▁Vietnam	-10233
▁deposit	-10234
▁lasting	-10235
▁legally	-10236
▁mothers	-10237
▁Kejriwal	-10238
▁entitled	-10239
▁frequent	-10240
▁indicate	-10241
▁overcome	-10242
ifications	-10243
▁Amendment	-10244
▁affecting	-10245
▁execution	-10246
▁producing	-10247
▁shoulders	-10248
▁Indigenous	-10249
▁adaptation	-10250
▁announcing	-10251
▁subsequent	-10252
▁terrorists	-10253
▁violations	-10254
▁implemented	-10255
▁legislative	-10256
▁supermarket	-10257
▁congressional	-10258
▁recommendations	-10259
HP	-10260
":[	-10261
big	-10262
imm	-10263
oft	-10264
zes	-10265
agne	-10266
itig	-10267
only	-10268
▁1.5	-10269
▁23,	-10270
▁Jes	-10271
aning	-10272
nders	-10273
orate	-10274
▁Cust	-10275
▁Deep	-10276
▁Holl	-10277
▁Mack	-10278
▁Main	-10279
▁dign	-10280
▁rice	-10281
▁tape	-10282
▁ward	-10283
acious	-10284
aments	-10285
nessee	-10286
▁Brent	-10287
▁Woman	-10288
▁manip	-10289
▁repro	-10290
▁Friend	-10291
▁Greens	-10292
▁encamp	-10293
▁nightm	-10294
▁Blinken	-10295
▁Muslims	-10296
▁Reserve	-10297
▁bizarre	-10298
▁briefly	-10299
▁outlets	-10300
▁trapped	-10301
▁writers	-10302
▁Aberdeen	-10303
▁incorpor	-10304
▁investor	-10305
▁moderate	-10306
▁Brazilian	-10307
▁courtroom	-10308
▁disappear	-10309
▁inclusion	-10310
▁suspicion	-10311
▁travelled	-10312
▁helicopter	-10313
▁recognized	-10314
▁operational	-10315
▁spectacular	-10316
▁developments	-10317
kar	-10318
pat	-10319
▁(4	-10320
haul	-10321
hell	-10322
offs	-10323
rait	-10324
▁Pop	-10325
▁tex	-10326
iners	-10327
isons	-10328
▁Chat	-10329
▁Gard	-10330
▁Rams	-10331
▁UCLA	-10332
▁cher	-10333
▁fold	-10334
▁item	-10335
manuel	-10336
screen	-10337
▁Baker	-10338
▁Leeds	-10339
▁dealt	-10340
▁fires	-10341
▁landl	-10342
▁pharm	-10343
▁relig	-10344
▁skill	-10345
▁steal	-10346
▁Action	-10347
▁Gareth	-10348
▁Hannah	-10349
▁Turner	-10350
▁bacter	-10351
▁dollar	-10352
▁guitar	-10353
▁lifted	-10354
▁obtain	-10355
▁pocket	-10356
▁weaken	-10357
▁Islands	-10358
▁elderly	-10359
▁precise	-10360
▁shifted	-10361
▁stomach	-10362
▁actively	-10363
▁Cleveland	-10364
▁addiction	-10365
▁penalties	-10366
▁practical	-10367
▁relatives	-10368
▁efficiency	-10369
▁improvements	-10370
▁unemployment	-10371
")	-10372
78	-10373
▁մ	-10374
▁Oz	-10375
▁Xi	-10376
arts	-10377
bits	-10378
card	-10379
mile	-10380
uset	-10381
▁Cow	-10382
▁Ted	-10383
ecute	-10384
licts	-10385
▁Holy	-10386
▁hush	-10387
▁oven	-10388
▁publ	-10389
▁styl	-10390
▁worn	-10391
around	-10392
olitan	-10393
reedom	-10394
▁Bloom	-10395
▁Seven	-10396
▁brave	-10397
▁gifts	-10398
▁vocal	-10399
leading	-10400
ounding	-10401
▁Unlike	-10402
▁muscle	-10403
▁quoted	-10404
▁streak	-10405
▁temple	-10406
ortunate	-10407
▁Bristol	-10408
▁Capital	-10409
▁Indiana	-10410
▁library	-10411
▁rebuild	-10412
▁rumours	-10413
▁sectors	-10414
▁trailer	-10415
▁vibrant	-10416
▁intimate	-10417
▁ordinary	-10418
▁provider	-10419
▁reminded	-10420
▁survival	-10421
▁talented	-10422
▁ultimate	-10423
▁achieving	-10424
▁chemicals	-10425
▁detention	-10426
▁intercept	-10427
▁sentiment	-10428
▁violation	-10429
▁questioning	-10430
▁antisemitism	-10431
EM	-10432
cé	-10433
sl	-10434
zo	-10435
has	-10436
hem	-10437
kov	-10438
uded	-10439
▁203	-10440
▁Alp	-10441
▁ESP	-10442
▁Esp	-10443
▁Rio	-10444
▁Yad	-10445
▁ads	-10446
ignty	-10447
istle	-10448
otton	-10449
▁Arts	-10450
▁Bhar	-10451
▁Hous	-10452
▁Wind	-10453
▁crop	-10454
▁fate	-10455
▁grat	-10456
▁warn	-10457
ington	-10458
▁Brits	-10459
▁Coron	-10460
▁Dougl	-10461
▁Heart	-10462
▁Hills	-10463
▁coinc	-10464
▁layer	-10465
▁stead	-10466
billion	-10467
ropical	-10468
▁OpenAI	-10469
▁Powell	-10470
▁Report	-10471
▁admits	-10472
▁aiming	-10473
▁column	-10474
▁donors	-10475
▁riding	-10476
▁wishes	-10477
iability	-10478
▁Android	-10479
▁Armenia	-10480
▁arrives	-10481
▁ignored	-10482
▁licence	-10483
▁schemes	-10484
▁vessels	-10485
▁Margaret	-10486
▁diabetes	-10487
▁formally	-10488
▁referend	-10489
▁scenario	-10490
▁thousand	-10491
▁Leicester	-10492
appropriate	-10493
▁emphasized	-10494
▁mainstream	-10495
▁punishment	-10496
9%	-10497
ji	-10498
po	-10499
gor	-10500
rin	-10501
▁IC	-10502
▁Om	-10503
acre	-10504
arks	-10505
asha	-10506
illo	-10507
true	-10508
udes	-10509
▁$2.	-10510
▁16.	-10511
▁18.	-10512
▁Oak	-10513
▁dil	-10514
etary	-10515
rates	-10516
▁Brun	-10517
▁Form	-10518
▁Lanc	-10519
▁Litt	-10520
▁Rest	-10521
▁epic	-10522
▁grey	-10523
▁icon	-10524
▁raid	-10525
▁Riley	-10526
▁Yanke	-10527
▁adequ	-10528
▁boots	-10529
aryDate	-10530
▁Corpor	-10531
▁Policy	-10532
▁debris	-10533
▁feared	-10534
▁pledge	-10535
▁storms	-10536
▁Antonio	-10537
▁Belgium	-10538
▁Charlie	-10539
▁Hungary	-10540
▁chapter	-10541
▁embassy	-10542
▁Economic	-10543
▁ambition	-10544
▁channels	-10545
▁deserves	-10546
▁medicine	-10547
▁reliable	-10548
▁Celebrity	-10549
▁Singapore	-10550
▁Tennessee	-10551
▁installed	-10552
▁legendary	-10553
▁organized	-10554
▁preferred	-10555
▁satellite	-10556
aryDateLine	-10557
▁devastated	-10558
▁qualifying	-10559
▁consumption	-10560
▁recruitment	-10561
▁celebrations	-10562
01	-10563
ti	-10564
ատ	-10565
թյ	-10566
isi	-10567
gets	-10568
idal	-10569
mans	-10570
▁24-	-10571
▁29,	-10572
▁REA	-10573
Image	-10574
▁Prim	-10575
▁Sain	-10576
▁cann	-10577
▁2015,	-10578
▁Blues	-10579
▁Could	-10580
▁Haiti	-10581
▁Start	-10582
▁acted	-10583
▁cabin	-10584
▁imper	-10585
▁smugg	-10586
▁teach	-10587
osystem	-10588
ousands	-10589
▁Colomb	-10590
▁Should	-10591
▁Warner	-10592
▁Warren	-10593
▁betray	-10594
▁bullet	-10595
▁buried	-10596
▁invent	-10597
▁valued	-10598
▁Commons	-10599
▁Network	-10600
▁Officer	-10601
▁colours	-10602
▁filling	-10603
▁renewed	-10604
▁clinical	-10605
▁downtown	-10606
▁employed	-10607
▁navigate	-10608
▁Guardiola	-10609
▁secondary	-10610
▁supporter	-10611
▁categories	-10612
▁challenged	-10613
▁frustrated	-10614
▁goalkeeper	-10615
▁principles	-10616
▁demonstrate	-10617
▁commissioner	-10618
▁constitution	-10619
9-	-10620
Don	-10621
Yes	-10622
cap	-10623
fol	-10624
hot	-10625
omi	-10626
oub	-10627
top	-10628
usk	-10629
▁47	-10630
iors	-10631
▁Joy	-10632
inter	-10633
power	-10634
▁100%	-10635
▁Amid	-10636
▁Dead	-10637
▁Does	-10638
▁ESPN	-10639
▁Jews	-10640
▁Juan	-10641
▁Shan	-10642
▁fare	-10643
▁halt	-10644
▁leak	-10645
▁perf	-10646
eneath	-10647
icians	-10648
▁Evans	-10649
▁Klopp	-10650
▁bunch	-10651
▁cheek	-10652
▁enemy	-10653
▁integ	-10654
▁ninth	-10655
▁unity	-10656
rection	-10657
▁Market	-10658
▁astron	-10659
▁boasts	-10660
▁cinema	-10661
▁consol	-10662
▁dishes	-10663
▁inches	-10664
▁propag	-10665
▁Harvard	-10666
▁Looking	-10667
▁banking	-10668
▁referee	-10669
▁annually	-10670
▁attitude	-10671
▁equipped	-10672
▁humanity	-10673
▁machines	-10674
▁matching	-10675
▁occupied	-10676
▁Catherine	-10677
▁Officials	-10678
▁conflicts	-10679
▁qualified	-10680
▁reception	-10681
▁teammates	-10682
▁terrorism	-10683
▁citizenship	-10684
▁unfortunately	-10685
33	-10686
Har	-10687
osa	-10688
vet	-10689
▁Ku	-10690
":"1	-10691
acht	-10692
eded	-10693
▁17-	-10694
▁Hug	-10695
▁Maj	-10696
▁Pun	-10697
▁sin	-10698
acted	-10699
cture	-10700
iques	-10701
ollar	-10702
▁Bris	-10703
▁Pear	-10704
▁boom	-10705
▁eleg	-10706
▁scam	-10707
▁trem	-10708
▁woke	-10709
cribed	-10710
usetts	-10711
▁Essex	-10712
▁Tower	-10713
▁Whats	-10714
▁alter	-10715
▁grief	-10716
▁stays	-10717
▁Avenue	-10718
▁Within	-10719
▁priced	-10720
▁stroke	-10721
▁Experts	-10722
▁Nothing	-10723
▁compris	-10724
▁debates	-10725
▁depends	-10726
▁pursuit	-10727
▁realize	-10728
achusetts	-10729
▁comedian	-10730
▁rainfall	-10731
▁theories	-10732
▁anonymous	-10733
▁ecosystem	-10734
▁prospects	-10735
▁successor	-10736
▁boundaries	-10737
▁comparison	-10738
▁favourites	-10739
▁phenomenon	-10740
▁smartphone	-10741
▁volunteers	-10742
Jo	-10743
Ne	-10744
300	-10745
></	-10746
eld	-10747
hew	-10748
oty	-10749
▁ST	-10750
cill	-10751
erse	-10752
ials	-10753
mail	-10754
mart	-10755
orer	-10756
otes	-10757
ping	-10758
rank	-10759
word	-10760
ությ	-10761
▁14-	-10762
▁Bah	-10763
▁Rex	-10764
▁Sad	-10765
▁ank	-10766
▁gre	-10767
▁las	-10768
▁£1,	-10769
athon	-10770
ishop	-10771
ourse	-10772
▁Djok	-10773
▁Hend	-10774
▁Mall	-10775
▁Mess	-10776
▁Prix	-10777
▁Shiv	-10778
▁cake	-10779
▁stim	-10780
ingers	-10781
▁2014,	-10782
▁2017.	-10783
▁Diana	-10784
▁Dream	-10785
▁Pitts	-10786
▁gangs	-10787
▁picks	-10788
▁risen	-10789
ductive	-10790
forward	-10791
ighting	-10792
ignific	-10793
▁Nathan	-10794
▁button	-10795
▁exempt	-10796
▁jurors	-10797
▁modest	-10798
▁traded	-10799
▁unions	-10800
guardian	-10801
▁Command	-10802
▁Indians	-10803
▁Masters	-10804
▁chaotic	-10805
▁defined	-10806
▁harmful	-10807
▁pivotal	-10808
▁recalls	-10809
▁trigger	-10810
▁Brussels	-10811
▁Djokovic	-10812
▁generous	-10813
▁justices	-10814
▁promoted	-10815
▁relative	-10816
▁thrilled	-10817
▁incumbent	-10818
▁similarly	-10819
▁Azerbaijan	-10820
▁advertising	-10821
▁sovereignty	-10822
▁understands	-10823
▁Intelligence	-10824
▁breakthrough	-10825
SS	-10826
bes	-10827
des	-10828
▁55	-10829
▁Aj	-10830
▁Ta	-10831
cott	-10832
from	-10833
ingu	-10834
ntil	-10835
onia	-10836
ouch	-10837
▁15.	-10838
▁Dak	-10839
▁Fle	-10840
▁Han	-10841
▁III	-10842
▁Rut	-10843
▁ele	-10844
▁gam	-10845
▁£20	-10846
atile	-10847
obile	-10848
oping	-10849
▁Buff	-10850
▁Come	-10851
▁Lucy	-10852
▁Palm	-10853
▁bans	-10854
▁caut	-10855
▁fert	-10856
▁hire	-10857
▁nose	-10858
▁pets	-10859
▁util	-10860
iciary	-10861
▁Lanka	-10862
▁fuels	-10863
▁nurse	-10864
▁stamp	-10865
aration	-10866
▁Inside	-10867
▁gaming	-10868
▁merely	-10869
▁silent	-10870
▁Littler	-10871
▁Similar	-10872
▁drought	-10873
▁eclipse	-10874
▁protein	-10875
▁surpass	-10876
▁attached	-10877
▁landmark	-10878
▁outbreak	-10879
▁patterns	-10880
▁relation	-10881
▁Obviously	-10882
▁authentic	-10883
▁furniture	-10884
▁approaches	-10885
▁sufficient	-10886
▁contributing	-10887
▁implementation	-10888
▁transportation	-10889
VP	-10890
▁ա	-10891
cor	-10892
jar	-10893
▁$8	-10894
▁Kr	-10895
alia	-10896
iate	-10897
uche	-10898
uten	-10899
yler	-10900
▁22-	-10901
▁ICC	-10902
▁Jur	-10903
▁McM	-10904
▁Ric	-10905
▁Utd	-10906
▁lip	-10907
▁rhy	-10908
▁spo	-10909
ician	-10910
vidia	-10911
▁Dame	-10912
▁Mars	-10913
▁NCAA	-10914
▁Pent	-10915
▁blog	-10916
▁cogn	-10917
▁scra	-10918
▁toss	-10919
writer	-10920
▁Actor	-10921
▁Champ	-10922
▁Yadav	-10923
▁alarm	-10924
▁gorge	-10925
▁neuro	-10926
▁orche	-10927
▁roots	-10928
▁tower	-10929
▁Fergus	-10930
▁Indeed	-10931
▁Marine	-10932
▁Palmer	-10933
▁fields	-10934
▁hiding	-10935
▁labour	-10936
▁lasted	-10937
▁planes	-10938
▁reiter	-10939
▁titled	-10940
▁Austria	-10941
▁assured	-10942
▁objects	-10943
▁shooter	-10944
▁singles	-10945
▁smoking	-10946
▁Brooklyn	-10947
▁accurate	-10948
▁acquired	-10949
▁backdrop	-10950
▁estimate	-10951
▁pressing	-10952
▁whenever	-10953
▁conscious	-10954
▁screaming	-10955
▁substance	-10956
▁guidelines	-10957
▁protections	-10958
▁Massachusetts	-10959
);	-10960
AL	-10961
HL	-10962
di	-10963
ags	-10964
dem	-10965
kee	-10966
▁(5	-10967
▁Ap	-10968
▁Ru	-10969
▁SU	-10970
▁WW	-10971
▁cu	-10972
▁£7	-10973
▁£8	-10974
etch	-10975
issa	-10976
onto	-10977
▁Isa	-10978
▁Kal	-10979
▁See	-10980
▁Tin	-10981
▁fru	-10982
▁tab	-10983
actor	-10984
pired	-10985
ushes	-10986
▁Spot	-10987
▁bout	-10988
▁kidn	-10989
▁shed	-10990
olving	-10991
wealth	-10992
▁Helen	-10993
▁Krist	-10994
▁McCar	-10995
▁Place	-10996
▁Stars	-10997
▁renov	-10998
iership	-10999
rations	-11000
▁Denver	-11001
▁explan	-11002
▁mining	-11003
▁Douglas	-11004
▁insists	-11005
▁pricing	-11006
▁warming	-11007
▁assisted	-11008
▁examples	-11009
▁midnight	-11010
▁wildlife	-11011
▁Political	-11012
▁breathing	-11013
▁defendant	-11014
▁exception	-11015
▁promotion	-11016
▁aggression	-11017
▁agreements	-11018
▁regulatory	-11019
▁suspension	-11020
▁vegetables	-11021
▁disappeared	-11022
▁Organization	-11023
▁contribution	-11024
▁significance	-11025
ju	-11026
sk	-11027
Ind	-11028
NBC	-11029
bet	-11030
iac	-11031
isp	-11032
new	-11033
omy	-11034
uki	-11035
▁Si	-11036
Even	-11037
asis	-11038
best	-11039
ctic	-11040
plus	-11041
umpt	-11042
wall	-11043
▁16-	-11044
▁Inn	-11045
▁RTÉ	-11046
▁Tan	-11047
▁Toy	-11048
about	-11049
charg	-11050
oenix	-11051
plete	-11052
▁Dund	-11053
▁Moss	-11054
▁Writ	-11055
▁dece	-11056
▁foul	-11057
▁lane	-11058
▁lung	-11059
▁paus	-11060
▁poet	-11061
▁tale	-11062
▁2024:	-11063
▁backs	-11064
▁brush	-11065
▁drops	-11066
▁firef	-11067
▁insur	-11068
▁pause	-11069
▁riots	-11070
artisan	-11071
ementia	-11072
founder	-11073
powered	-11074
▁Johnny	-11075
▁Merced	-11076
▁Nvidia	-11077
▁reluct	-11078
▁Control	-11079
▁Dancing	-11080
▁affects	-11081
▁carries	-11082
▁chamber	-11083
▁empower	-11084
▁extract	-11085
▁farming	-11086
▁airlines	-11087
▁shortage	-11088
▁attracted	-11089
▁forgotten	-11090
Palestinian	-11091
▁misconduct	-11092
▁businessman	-11093
▁historically	-11094
39	-11095
8%	-11096
Le	-11097
SL	-11098
auc	-11099
deg	-11100
▁AR	-11101
aman	-11102
hall	-11103
oded	-11104
olks	-11105
▁20%	-11106
▁Amb	-11107
▁Rap	-11108
▁shy	-11109
▁£10	-11110
nered	-11111
ucker	-11112
▁anch	-11113
▁irre	-11114
▁mail	-11115
▁mile	-11116
▁mode	-11117
▁puzz	-11118
▁recy	-11119
ashtra	-11120
handed	-11121
income	-11122
▁Assad	-11123
▁clock	-11124
▁jokes	-11125
▁juice	-11126
▁overt	-11127
▁peers	-11128
▁tempt	-11129
amation	-11130
western	-11131
▁10,000	-11132
▁Castle	-11133
▁Giants	-11134
▁argues	-11135
▁chains	-11136
▁praise	-11137
▁relent	-11138
▁rookie	-11139
▁tables	-11140
▁volunt	-11141
children	-11142
▁Support	-11143
▁clarity	-11144
▁endless	-11145
▁fantasy	-11146
▁insight	-11147
▁studied	-11148
▁theater	-11149
▁touched	-11150
▁honestly	-11151
▁mentally	-11152
▁opinions	-11153
▁worrying	-11154
▁Emergency	-11155
▁confusion	-11156
▁mountains	-11157
▁replacing	-11158
▁responses	-11159
▁Pittsburgh	-11160
▁sentencing	-11161
▁approaching	-11162
SU	-11163
gi	-11164
kg	-11165
\">	-11166
agu	-11167
lee	-11168
oca	-11169
two	-11170
uez	-11171
▁BR	-11172
▁ND	-11173
▁Rh	-11174
bane	-11175
brid	-11176
cend	-11177
eria	-11178
grad	-11179
rien	-11180
upid	-11181
ylan	-11182
▁1-0	-11183
▁Gem	-11184
▁Gro	-11185
▁Pas	-11186
▁Stu	-11187
▁ans	-11188
▁god	-11189
megap	-11190
▁Barn	-11191
▁Beir	-11192
▁Cand	-11193
▁Cult	-11194
▁Gulf	-11195
▁Mull	-11196
▁View	-11197
▁Wars	-11198
▁gate	-11199
▁gear	-11200
vation	-11201
▁Baden	-11202
▁Nigel	-11203
▁crisp	-11204
▁harsh	-11205
▁march	-11206
▁mitig	-11207
▁seeds	-11208
astrous	-11209
▁Knight	-11210
▁emerge	-11211
▁felony	-11212
▁laptop	-11213
▁philos	-11214
▁retain	-11215
▁Finally	-11216
▁autonom	-11217
▁starter	-11218
▁virtual	-11219
▁Alliance	-11220
▁Kentucky	-11221
▁imprison	-11222
▁siblings	-11223
▁undermin	-11224
▁vaccines	-11225
▁delicious	-11226
▁motivated	-11227
▁electronic	-11228
▁kilometers	-11229
▁processing	-11230
▁referendum	-11231
▁solidarity	-11232
▁engineering	-11233
▁hospitality	-11234
▁interviewed	-11235
▁constituency	-11236
▁unacceptable	-11237
SC	-11238
tw	-11239
եւ	-11240
600	-11241
99,	-11242
anu	-11243
far	-11244
loe	-11245
tha	-11246
vak	-11247
who	-11248
▁(2	-11249
▁Il	-11250
▁UP	-11251
Russ	-11252
airy	-11253
awks	-11254
bery	-11255
erts	-11256
fits	-11257
spec	-11258
▁2-1	-11259
▁Ker	-11260
▁Lag	-11261
▁Ult	-11262
▁raw	-11263
acher	-11264
doing	-11265
ested	-11266
rikes	-11267
▁2030	-11268
▁Golf	-11269
▁Gonz	-11270
▁Keep	-11271
▁Orig	-11272
▁Pack	-11273
▁bell	-11274
▁cats	-11275
▁jets	-11276
▁tang	-11277
▁trio	-11278
▁vine	-11279
▁wars	-11280
embers	-11281
▁5,000	-11282
▁Being	-11283
▁Grace	-11284
▁Patri	-11285
▁Silva	-11286
▁camps	-11287
▁pizza	-11288
▁plain	-11289
▁spare	-11290
▁Edward	-11291
▁Kapoor	-11292
▁Nelson	-11293
▁Newsom	-11294
▁Rodrig	-11295
▁Willis	-11296
▁cousin	-11297
▁hiring	-11298
▁shield	-11299
▁Jessica	-11300
▁Martine	-11301
▁Phoenix	-11302
▁centers	-11303
▁courses	-11304
▁credits	-11305
▁enemies	-11306
▁helpful	-11307
▁powered	-11308
▁soldier	-11309
▁upgrade	-11310
▁WhatsApp	-11311
▁convince	-11312
▁incoming	-11313
▁lawsuits	-11314
▁passport	-11315
▁stopping	-11316
▁tackling	-11317
▁requiring	-11318
▁developers	-11319
▁structures	-11320
▁influential	-11321
▁preparation	-11322
▁unfortunate	-11323
▁appointments	-11324
-9	-11325
aco	-11326
lon	-11327
mal	-11328
uds	-11329
▁54	-11330
▁Dy	-11331
****	-11332
From	-11333
ados	-11334
requ	-11335
thal	-11336
▁Bes	-11337
▁Fal	-11338
▁lun	-11339
▁nod	-11340
▁sne	-11341
▁unh	-11342
Photo	-11343
allah	-11344
annes	-11345
never	-11346
there	-11347
▁Conf	-11348
▁Crow	-11349
▁Made	-11350
▁Utah	-11351
▁flee	-11352
▁hack	-11353
▁slot	-11354
uchess	-11355
▁Eight	-11356
▁Nancy	-11357
▁Woods	-11358
▁blend	-11359
▁femin	-11360
▁honey	-11361
▁scram	-11362
▁stark	-11363
▁Around	-11364
▁Garcia	-11365
▁Review	-11366
▁Senior	-11367
▁circle	-11368
▁comply	-11369
▁landsl	-11370
▁raises	-11371
▁triple	-11372
missions	-11373
▁Sanders	-11374
▁Weather	-11375
▁barrier	-11376
▁bombard	-11377
▁condemn	-11378
▁exports	-11379
▁minimal	-11380
▁portfol	-11381
▁stunned	-11382
megapixel	-11383
▁certific	-11384
▁shouting	-11385
▁tracking	-11386
▁countless	-11387
▁donations	-11388
▁principal	-11389
▁projected	-11390
▁testified	-11391
▁Ukrainians	-11392
▁concerning	-11393
▁conducting	-11394
▁consultant	-11395
▁escalation	-11396
▁expressing	-11397
▁innovative	-11398
▁instrument	-11399
▁acknowledge	-11400
▁departments	-11401
▁introduction	-11402
▁determination	-11403
CH	-11404
wr	-11405
bus	-11406
eor	-11407
inf	-11408
she	-11409
syk	-11410
▁Ni	-11411
empl	-11412
qual	-11413
thur	-11414
uity	-11415
▁18-	-11416
▁rif	-11417
amous	-11418
angel	-11419
inney	-11420
ullah	-11421
▁Left	-11422
▁Sony	-11423
▁beef	-11424
▁till	-11425
change	-11426
embley	-11427
iments	-11428
▁Boris	-11429
▁Eddie	-11430
▁acres	-11431
▁adopt	-11432
▁fever	-11433
▁kinds	-11434
▁meets	-11435
▁teens	-11436
▁Angela	-11437
▁Nearly	-11438
▁blocks	-11439
▁mirror	-11440
▁roster	-11441
▁shifts	-11442
▁Rodgers	-11443
▁Station	-11444
▁Studies	-11445
▁apology	-11446
▁painted	-11447
▁relaxed	-11448
▁Harrison	-11449
▁gambling	-11450
▁militant	-11451
▁Louisiana	-11452
▁delegates	-11453
▁nightmare	-11454
▁scientist	-11455
▁screening	-11456
▁casualties	-11457
▁programmes	-11458
▁supplement	-11459
▁Maharashtra	-11460
▁transferred	-11461
▁architecture	-11462
▁destinations	-11463
▁registration	-11464
▁participating	-11465
64	-11466
IF	-11467
Me	-11468
Mar	-11469
asi	-11470
erg	-11471
gie	-11472
ido	-11473
obs	-11474
wau	-11475
▁43	-11476
▁Ju	-11477
▁es	-11478
conn	-11479
erto	-11480
iche	-11481
isha	-11482
opez	-11483
rust	-11484
vity	-11485
▁$20	-11486
▁Hud	-11487
▁Ran	-11488
▁fer	-11489
▁rib	-11490
▁tat	-11491
Thank	-11492
itary	-11493
overs	-11494
shore	-11495
▁Bash	-11496
▁Fall	-11497
▁Pope	-11498
▁auth	-11499
▁lone	-11500
▁root	-11501
▁slic	-11502
▁slip	-11503
▁vent	-11504
LastUp	-11505
blockC	-11506
degree	-11507
iances	-11508
uating	-11509
waukee	-11510
▁Spurs	-11511
▁annoy	-11512
▁asset	-11513
▁bless	-11514
▁demol	-11515
▁mobil	-11516
▁poses	-11517
▁retro	-11518
▁sheet	-11519
▁sorts	-11520
▁Arteta	-11521
▁Greene	-11522
▁Lakers	-11523
▁Nicole	-11524
▁Parker	-11525
▁Person	-11526
▁System	-11527
▁denies	-11528
▁firmly	-11529
▁lyrics	-11530
▁pupils	-11531
▁resume	-11532
▁waited	-11533
reatedOn	-11534
▁Kashmir	-11535
▁Wallace	-11536
▁Wembley	-11537
▁beneath	-11538
▁mandate	-11539
▁monarch	-11540
▁pressed	-11541
ropolitan	-11542
▁Emmanuel	-11543
▁Ferguson	-11544
▁Mercedes	-11545
▁answered	-11546
▁elevated	-11547
▁removing	-11548
▁reviewed	-11549
▁Hurricane	-11550
▁Milwaukee	-11551
▁contested	-11552
▁genuinely	-11553
▁interpret	-11554
▁recognize	-11555
LastUpdated	-11556
▁designated	-11557
▁disability	-11558
▁recovering	-11559
▁examination	-11560
▁battleground	-11561
▁contemporary	-11562
blockCreatedOn	-11563
▁transformation	-11564
PublishedDisplay	-11565
blockLastUpdated	-11566
65	-11567
uv	-11568
aba	-11569
cat	-11570
ete	-11571
utt	-11572
weg	-11573
▁ED	-11574
▁UA	-11575
Look	-11576
airo	-11577
inde	-11578
▁Cav	-11579
▁Les	-11580
▁Lot	-11581
▁Mul	-11582
▁Pur	-11583
▁boo	-11584
acerb	-11585
elong	-11586
grade	-11587
onies	-11588
▁2006	-11589
▁2009	-11590
▁Usyk	-11591
▁Ward	-11592
▁emoj	-11593
▁plun	-11594
ampton	-11595
itting	-11596
ultane	-11597
▁2015.	-11598
▁Final	-11599
▁bully	-11600
▁fines	-11601
▁steep	-11602
▁utter	-11603
flation	-11604
▁Beirut	-11605
▁Orange	-11606
▁Silver	-11607
▁SpaceX	-11608
▁aspect	-11609
▁corrid	-11610
▁distur	-11611
▁paired	-11612
▁papers	-11613
ferences	-11614
▁Against	-11615
▁Belling	-11616
▁Connect	-11617
▁Freedom	-11618
▁donated	-11619
▁outlook	-11620
▁pending	-11621
▁Badenoch	-11622
▁Russians	-11623
▁applying	-11624
▁currency	-11625
▁employer	-11626
▁engineer	-11627
▁famously	-11628
▁interven	-11629
▁isolated	-11630
▁purposes	-11631
▁showcase	-11632
▁Thousands	-11633
▁advocates	-11634
▁messaging	-11635
▁neighbors	-11636
▁perceived	-11637
▁bankruptcy	-11638
▁legitimate	-11639
▁terrifying	-11640
▁Authorities	-11641
▁exclusively	-11642
▁interference	-11643
▁inappropriate	-11644
▁psychological	-11645
▁demonstrations	-11646
BS	-11647
MI	-11648
aph	-11649
dec	-11650
hya	-11651
ión	-11652
pop	-11653
rot	-11654
▁AC	-11655
▁Ax	-11656
anim	-11657
fers	-11658
home	-11659
iasm	-11660
lude	-11661
odge	-11662
poin	-11663
risk	-11664
▁Aud	-11665
▁Lad	-11666
▁Tat	-11667
▁bun	-11668
▁twe	-11669
Today	-11670
count	-11671
organ	-11672
quest	-11673
rings	-11674
think	-11675
▁Chen	-11676
▁Crit	-11677
▁Mult	-11678
▁Yous	-11679
▁aest	-11680
▁impl	-11681
ardash	-11682
atural	-11683
illery	-11684
ranean	-11685
▁1,200	-11686
▁Chall	-11687
▁Death	-11688
▁Gavin	-11689
▁Heath	-11690
▁Hindu	-11691
▁Lloyd	-11692
▁Small	-11693
▁Truth	-11694
▁blast	-11695
▁fined	-11696
▁gross	-11697
▁print	-11698
▁smell	-11699
▁sweep	-11700
▁tasks	-11701
▁Assist	-11702
▁Nicola	-11703
▁Season	-11704
▁assume	-11705
▁burned	-11706
▁random	-11707
▁rivers	-11708
▁tempor	-11709
▁visual	-11710
▁cocaine	-11711
▁imports	-11712
▁loyalty	-11713
▁nowhere	-11714
▁passage	-11715
▁rallies	-11716
▁retreat	-11717
▁skipper	-11718
▁Resident	-11719
▁appealed	-11720
▁bacteria	-11721
▁deciding	-11722
▁dressing	-11723
▁headline	-11724
▁operates	-11725
▁pleasure	-11726
▁economist	-11727
▁hurricane	-11728
▁sensation	-11729
▁virtually	-11730
theguardian	-11731
▁Protection	-11732
▁bipartisan	-11733
▁discussing	-11734
▁exceptional	-11735
▁Unfortunately	-11736
▁correspondent	-11737
▁traditionally	-11738
-5	-11739
Ex	-11740
OK	-11741
▁կ	-11742
-10	-11743
Can	-11744
arn	-11745
edy	-11746
enz	-11747
iah	-11748
acey	-11749
beit	-11750
days	-11751
fund	-11752
have	-11753
uire	-11754
▁25-	-11755
▁Dad	-11756
▁Tob	-11757
▁USC	-11758
▁hik	-11759
▁mac	-11760
▁sew	-11761
▁vet	-11762
rogen	-11763
shirt	-11764
track	-11765
▁Benn	-11766
▁Cruz	-11767
▁Rain	-11768
▁Shaw	-11769
▁belt	-11770
▁boot	-11771
▁buff	-11772
▁href	-11773
▁mart	-11774
▁rush	-11775
ailand	-11776
charge	-11777
giving	-11778
▁3,000	-11779
▁Beaut	-11780
▁Brend	-11781
▁Chase	-11782
▁Check	-11783
▁Event	-11784
▁Gaetz	-11785
▁Griff	-11786
▁Jesus	-11787
▁Latin	-11788
▁Match	-11789
▁Nikki	-11790
▁Scots	-11791
▁Steel	-11792
▁Trade	-11793
▁draws	-11794
▁farms	-11795
▁lemon	-11796
▁lined	-11797
▁prest	-11798
▁tense	-11799
▁uncle	-11800
ctional	-11801
embered	-11802
▁Almost	-11803
▁Wolves	-11804
▁acquis	-11805
▁affili	-11806
▁assert	-11807
▁clever	-11808
▁immune	-11809
otherapy	-11810
▁Toronto	-11811
▁assumed	-11812
▁exacerb	-11813
▁placing	-11814
▁refugee	-11815
▁Emirates	-11816
▁Thailand	-11817
▁confused	-11818
▁musician	-11819
▁precious	-11820
▁displayed	-11821
▁operators	-11822
▁releasing	-11823
▁wondering	-11824
▁disastrous	-11825
▁presidents	-11826
▁responding	-11827
▁achievement	-11828
▁transformed	-11829
▁competitions	-11830
▁implications	-11831
▁subscription	-11832
▁Representative	-11833
▁Representatives	-11834
-8	-11835
42	-11836
eh	-11837
են	-11838
dam	-11839
ubu	-11840
▁DA	-11841
▁KC	-11842
arms	-11843
ibre	-11844
igue	-11845
ista	-11846
▁Ark	-11847
▁LIV	-11848
▁Rav	-11849
▁oxy	-11850
▁tub	-11851
aston	-11852
eches	-11853
gence	-11854
liers	-11855
ouses	-11856
▁Cass	-11857
▁Jama	-11858
▁List	-11859
▁Maur	-11860
▁Mets	-11861
▁None	-11862
▁Prop	-11863
▁encl	-11864
▁evil	-11865
▁lake	-11866
▁unch	-11867
listed	-11868
▁Devil	-11869
▁Karen	-11870
▁Milan	-11871
▁Perth	-11872
▁aspir	-11873
▁chill	-11874
▁frank	-11875
▁safer	-11876
▁straw	-11877
theless	-11878
▁Alaska	-11879
▁Anyone	-11880
▁Legisl	-11881
▁casino	-11882
▁colleg	-11883
▁floods	-11884
▁habits	-11885
▁horses	-11886
▁lesson	-11887
▁pepper	-11888
▁rebels	-11889
▁venues	-11890
▁wounds	-11891
munition	-11892
▁Indones	-11893
▁Merchan	-11894
▁Univers	-11895
▁Yankees	-11896
▁battles	-11897
▁counted	-11898
▁evident	-11899
▁fastest	-11900
▁prosper	-11901
▁samples	-11902
▁thanked	-11903
amination	-11904
▁Brisbane	-11905
▁Missouri	-11906
▁dementia	-11907
▁judicial	-11908
▁realized	-11909
▁religion	-11910
▁subscrib	-11911
▁adventure	-11912
▁bilateral	-11913
▁eliminate	-11914
▁explosive	-11915
▁prevented	-11916
▁safeguard	-11917
▁undermine	-11918
▁Federation	-11919
▁defendants	-11920
▁preventing	-11921
▁endorsement	-11922
▁underground	-11923
▁demonstrated	-11924
▁neighbourhood	-11925
68	-11926
GO	-11927
Any	-11928
eep	-11929
irk	-11930
lla	-11931
▁DO	-11932
▁PR	-11933
orey	-11934
pack	-11935
went	-11936
▁11-	-11937
▁600	-11938
▁IDF	-11939
▁Imm	-11940
▁Kil	-11941
▁Nar	-11942
▁Pep	-11943
▁Roe	-11944
▁UFC	-11945
▁lap	-11946
▁sed	-11947
eness	-11948
label	-11949
▁Chad	-11950
▁Trib	-11951
▁hill	-11952
anting	-11953
inging	-11954
thirds	-11955
▁Blair	-11956
▁Early	-11957
▁Payne	-11958
▁Sound	-11959
▁Would	-11960
▁inequ	-11961
▁merch	-11962
▁minim	-11963
▁rhyth	-11964
▁strip	-11965
perform	-11966
tenance	-11967
▁Barack	-11968
▁Grammy	-11969
▁predec	-11970
aggering	-11971
ecessary	-11972
▁casting	-11973
▁grocery	-11974
▁hardest	-11975
▁shelves	-11976
▁signals	-11977
▁torture	-11978
▁Chairman	-11979
▁McCarthy	-11980
▁Officers	-11981
▁climbing	-11982
▁counting	-11983
▁deterior	-11984
▁launches	-11985
▁operator	-11986
▁psychiat	-11987
▁restored	-11988
▁teammate	-11989
▁treating	-11990
▁ambulance	-11991
▁developer	-11992
▁teenagers	-11993
▁ammunition	-11994
▁containing	-11995
▁campaigning	-11996
▁fundraising	-11997
▁temporarily	-11998
/@	-11999
lu	-12000
-12	-12001
oga	-12002
▁SA	-12003
▁Vi	-12004
▁nu	-12005
▁pm	-12006
elta	-12007
ilia	-12008
mont	-12009
oden	-12010
stra	-12011
text	-12012
ulty	-12013
ursk	-12014
vate	-12015
zone	-12016
▁800	-12017
▁Bey	-12018
▁Fel	-12019
▁Mik	-12020
▁Oil	-12021
Brien	-12022
print	-12023
uably	-12024
▁Baby	-12025
▁Bear	-12026
▁Expl	-12027
▁Ferr	-12028
▁Full	-12029
▁Nash	-12030
▁Soon	-12031
▁Tech	-12032
▁hurd	-12033
▁myth	-12034
▁pitc	-12035
▁pund	-12036
▁recl	-12037
▁ware	-12038
gement	-12039
rophic	-12040
▁Lopez	-12041
▁Schol	-12042
▁chase	-12043
▁dimin	-12044
▁postp	-12045
▁queen	-12046
▁sends	-12047
▁sheer	-12048
▁sweat	-12049
raining	-12050
▁Houthi	-12051
▁Master	-12052
▁Sophie	-12053
▁accord	-12054
▁crunch	-12055
▁festiv	-12056
▁refund	-12057
▁rental	-12058
▁Carroll	-12059
▁Spencer	-12060
▁bowling	-12061
▁erupted	-12062
▁flooded	-12063
▁glasses	-12064
▁insider	-12065
▁lottery	-12066
▁railway	-12067
▁Egyptian	-12068
▁counties	-12069
▁protocol	-12070
▁refusing	-12071
▁renowned	-12072
▁universe	-12073
▁violated	-12074
government	-12075
ignificant	-12076
▁ambitions	-12077
▁apologise	-12078
▁assaulted	-12079
▁economies	-12080
▁financing	-12081
▁oversight	-12082
▁renewable	-12083
▁sophistic	-12084
▁Bellingham	-12085
▁confronted	-12086
▁dedication	-12087
▁enthusiasm	-12088
▁evacuation	-12089
▁homeowners	-12090
▁perception	-12091
▁propaganda	-12092
▁desperately	-12093
▁predecessor	-12094
▁Commonwealth	-12095
Am	-12096
SA	-12097
May	-12098
ppy	-12099
▁53	-12100
▁CH	-12101
▁Da	-12102
date	-12103
deep	-12104
fish	-12105
teen	-12106
▁$10	-12107
▁40%	-12108
▁Mom	-12109
▁Oht	-12110
▁wip	-12111
after	-12112
agher	-12113
alyst	-12114
andro	-12115
ensed	-12116
graph	-12117
match	-12118
otion	-12119
▁Hass	-12120
▁Joel	-12121
▁MAGA	-12122
▁Thor	-12123
▁corn	-12124
▁hunt	-12125
▁para	-12126
▁seas	-12127
▁tune	-12128
anches	-12129
incare	-12130
usalem	-12131
▁Kursk	-12132
▁Peace	-12133
▁Serge	-12134
▁Winds	-12135
▁aired	-12136
▁bonds	-12137
▁dirty	-12138
▁glory	-12139
▁patri	-12140
▁refin	-12141
▁scope	-12142
▁stint	-12143
ortions	-12144
▁Albert	-12145
▁Alison	-12146
▁Dundee	-12147
▁Ohtani	-12148
▁drives	-12149
▁elabor	-12150
▁overlo	-12151
▁phrase	-12152
▁sacrif	-12153
▁cancell	-12154
▁chronic	-12155
▁fortune	-12156
▁rockets	-12157
▁Martinez	-12158
▁advocacy	-12159
▁arranged	-12160
▁blocking	-12161
▁gorgeous	-12162
▁horrible	-12163
▁overhaul	-12164
▁preserve	-12165
▁resolved	-12166
▁seasonal	-12167
iterranean	-12168
▁Venezuela	-12169
▁accepting	-12170
▁directors	-12171
▁expertise	-12172
▁gradually	-12173
▁intensity	-12174
▁respected	-12175
▁superstar	-12176
▁Opposition	-12177
▁Technology	-12178
▁acceptable	-12179
▁deliveries	-12180
▁footballer	-12181
▁impression	-12182
▁pronounced	-12183
▁ridiculous	-12184
▁communicate	-12185
▁convictions	-12186
▁photographs	-12187
▁dramatically	-12188
▁instructions	-12189
▁productivity	-12190
▁stakeholders	-12191
▁transactions	-12192
▁disappointment	-12193
II	-12194
bye	-12195
sur	-12196
ուն	-12197
▁AD	-12198
▁CD	-12199
▁Fu	-12200
▁SW	-12201
ahan	-12202
aste	-12203
girl	-12204
iddy	-12205
irus	-12206
isms	-12207
ocur	-12208
ques	-12209
sers	-12210
▁14.	-12211
▁Bou	-12212
▁Nap	-12213
▁Viv	-12214
▁pig	-12215
amine	-12216
ateur	-12217
ratic	-12218
shine	-12219
white	-12220
▁Dick	-12221
▁Lane	-12222
▁READ	-12223
▁Shel	-12224
▁£100	-12225
ailing	-12226
endous	-12227
▁Alamy	-12228
▁Keith	-12229
▁Light	-12230
▁ankle	-12231
▁bases	-12232
▁kicks	-12233
▁orbit	-12234
▁snaps	-12235
▁swept	-12236
ignment	-12237
quality	-12238
working	-12239
▁Bailey	-12240
▁Marcus	-12241
▁Sharon	-12242
▁abused	-12243
▁commem	-12244
▁exists	-12245
▁hunger	-12246
▁parade	-12247
▁reserv	-12248
▁wooden	-12249
▁Collins	-12250
▁avoided	-12251
▁damages	-12252
▁declare	-12253
▁focuses	-12254
▁furious	-12255
▁handled	-12256
▁neglect	-12257
▁ranging	-12258
▁ratings	-12259
▁revenge	-12260
▁trusted	-12261
▁Campaign	-12262
▁Delaware	-12263
▁Partners	-12264
▁enhanced	-12265
▁memorial	-12266
▁premises	-12267
▁sanction	-12268
▁Currently	-12269
▁Entertain	-12270
▁Zelenskyy	-12271
▁anonymity	-12272
▁breakdown	-12273
▁crackdown	-12274
▁welcoming	-12275
▁Buckingham	-12276
▁infections	-12277
▁journalism	-12278
▁reflecting	-12279
▁strategies	-12280
▁coordinator	-12281
▁financially	-12282
▁considerable	-12283
▁automatically	-12284
▁misinformation	-12285
/2	-12286
58	-12287
97	-12288
RWA	-12289
gas	-12290
mus	-12291
ois	-12292
rek	-12293
vor	-12294
▁DE	-12295
▁gy	-12296
Call	-12297
abis	-12298
anni	-12299
icot	-12300
stan	-12301
▁Dow	-12302
▁Ips	-12303
▁Lav	-12304
▁Lut	-12305
▁RBI	-12306
▁cab	-12307
▁haz	-12308
aland	-12309
caraz	-12310
enter	-12311
itian	-12312
omers	-12313
phins	-12314
rahim	-12315
reach	-12316
▁Area	-12317
▁Bird	-12318
▁Lang	-12319
▁Seah	-12320
▁Sign	-12321
▁ampl	-12322
▁cycl	-12323
▁lugg	-12324
▁masc	-12325
▁pard	-12326
▁rehe	-12327
▁synd	-12328
▁vacu	-12329
assion	-12330
broken	-12331
cliffe	-12332
▁2012,	-12333
▁Tesco	-12334
▁Until	-12335
▁arena	-12336
▁drain	-12337
▁folks	-12338
▁ghost	-12339
▁popul	-12340
▁reson	-12341
▁simpl	-12342
borough	-12343
▁Travel	-12344
▁Watson	-12345
▁barrel	-12346
▁foster	-12347
▁loaded	-12348
▁meters	-12349
▁output	-12350
▁oxygen	-12351
▁poster	-12352
▁replic	-12353
▁unbeat	-12354
ologists	-12355
▁Montana	-12356
▁Neither	-12357
▁costing	-12358
▁grabbed	-12359
▁prolong	-12360
▁referen	-12361
▁spirits	-12362
▁Pentagon	-12363
▁Trafford	-12364
▁failures	-12365
▁premiere	-12366
▁batteries	-12367
▁regulator	-12368
▁shortages	-12369
▁taxpayers	-12370
▁proportion	-12371
▁commitments	-12372
▁importantly	-12373
▁transparent	-12374
▁Presidential	-12375
▁entrepreneur	-12376
47	-12377
LE	-12378
VE	-12379
és	-12380
GPT	-12381
His	-12382
ieg	-12383
osi	-12384
pox	-12385
▁2-	-12386
▁HM	-12387
▁IV	-12388
▁Mb	-12389
West	-12390
bage	-12391
hard	-12392
mund	-12393
olve	-12394
wind	-12395
▁Age	-12396
▁Ful	-12397
▁Hit	-12398
▁Hop	-12399
▁Sel	-12400
▁bik	-12401
▁pow	-12402
opard	-12403
ophob	-12404
owski	-12405
▁Born	-12406
▁Hand	-12407
▁Idah	-12408
▁Insp	-12409
▁Link	-12410
▁Luck	-12411
▁Luis	-12412
▁Sure	-12413
▁disg	-12414
▁mild	-12415
▁taxi	-12416
▁2014.	-12417
▁aides	-12418
▁dated	-12419
markets	-12420
▁Olivia	-12421
▁Rather	-12422
▁Samuel	-12423
▁Switch	-12424
▁absurd	-12425
▁advers	-12426
▁dancer	-12427
▁guards	-12428
▁therap	-12429
▁unrest	-12430
▁Alcaraz	-12431
▁Baldwin	-12432
▁Greater	-12433
▁Kardash	-12434
▁Liberal	-12435
▁Village	-12436
▁applies	-12437
▁branded	-12438
▁endured	-12439
▁enforce	-12440
▁quietly	-12441
▁seekers	-12442
▁Mountain	-12443
▁Seahawks	-12444
▁barriers	-12445
▁consolid	-12446
▁disabled	-12447
▁floating	-12448
▁policing	-12449
▁studying	-12450
▁admission	-12451
▁exchanges	-12452
▁Coronation	-12453
▁committing	-12454
▁escalating	-12455
▁optimistic	-12456
▁suspicious	-12457
▁countryside	-12458
▁Mediterranean	-12459
▁manufacturers	-12460
/1	-12461
67	-12462
Mr	-12463
400	-12464
bat	-12465
cha	-12466
oln	-12467
rer	-12468
roc	-12469
ulu	-12470
▁AM	-12471
Conn	-12472
ethe	-12473
▁20.	-12474
▁50%	-12475
▁Cho	-12476
▁Kit	-12477
▁Tar	-12478
▁Tax	-12479
▁Utt	-12480
▁bru	-12481
▁dat	-12482
▁luc	-12483
▁rit	-12484
ensus	-12485
esity	-12486
impse	-12487
itime	-12488
ivest	-12489
▁Ivan	-12490
▁Jill	-12491
▁Mach	-12492
▁Nazi	-12493
▁Tamp	-12494
▁acid	-12495
▁okay	-12496
▁twin	-12497
Enders	-12498
direct	-12499
ellect	-12500
health	-12501
wegian	-12502
▁2012.	-12503
▁Blake	-12504
▁Break	-12505
▁Danny	-12506
▁Lucas	-12507
▁array	-12508
▁click	-12509
▁crews	-12510
▁grace	-12511
▁grapp	-12512
▁joins	-12513
▁shore	-12514
intendo	-12515
itivity	-12516
thening	-12517
▁Slovak	-12518
▁Tinubu	-12519
▁clinic	-12520
▁embark	-12521
▁empire	-12522
▁hailed	-12523
▁oppose	-12524
▁permit	-12525
▁unlock	-12526
▁Cricket	-12527
▁formula	-12528
▁glimpse	-12529
▁holders	-12530
▁jumping	-12531
▁pockets	-12532
▁shorter	-12533
▁Pictures	-12534
▁arguably	-12535
▁colonial	-12536
▁distress	-12537
▁insights	-12538
▁scholars	-12539
▁speeches	-12540
▁trousers	-12541
utterstock	-12542
▁ballistic	-12543
▁cryptocur	-12544
▁declining	-12545
▁happiness	-12546
▁inclusive	-12547
▁simultane	-12548
▁spiritual	-12549
▁strongest	-12550
▁celebrates	-12551
▁passionate	-12552
▁staggering	-12553
▁description	-12554
▁consultation	-12555
PM	-12556
ամ	-12557
ERS	-12558
NBA	-12559
aki	-12560
hyd	-12561
▁AS	-12562
▁Jh	-12563
▁Wy	-12564
even	-12565
supp	-12566
this	-12567
ucus	-12568
ական	-12569
▁40-	-12570
alymp	-12571
ogram	-12572
prise	-12573
rants	-12574
sized	-12575
▁Amor	-12576
▁Aviv	-12577
▁Band	-12578
▁Brew	-12579
▁Song	-12580
▁abol	-12581
▁ador	-12582
apolis	-12583
believ	-12584
emouth	-12585
ifully	-12586
intage	-12587
threat	-12588
vering	-12589
▁Ahead	-12590
▁Bruce	-12591
▁MSNBC	-12592
▁Mason	-12593
▁Round	-12594
▁Tyler	-12595
▁Wayne	-12596
▁charm	-12597
▁maker	-12598
▁polar	-12599
▁unlaw	-12600
▁Beyond	-12601
▁Harvey	-12602
▁Serbia	-12603
▁Stuart	-12604
▁albeit	-12605
▁examin	-12606
▁garlic	-12607
▁hockey	-12608
▁prelim	-12609
▁winger	-12610
▁Crystal	-12611
▁Garland	-12612
▁dignity	-12613
▁hostile	-12614
▁inherit	-12615
▁luggage	-12616
▁paralle	-12617
▁persons	-12618
▁smiling	-12619
▁worries	-12620
▁Colombia	-12621
▁Mariners	-12622
▁advisory	-12623
▁battling	-12624
▁checking	-12625
▁councill	-12626
▁dominant	-12627
▁regarded	-12628
▁sweeping	-12629
▁traveled	-12630
▁vacation	-12631
▁discounts	-12632
▁privilege	-12633
▁restricted	-12634
▁travellers	-12635
▁Philippines	-12636
▁explanation	-12637
▁maintenance	-12638
▁respondents	-12639
▁participated	-12640
▁surprisingly	-12641
44	-12642
Ah	-12643
UT	-12644
mu	-12645
sa	-12646
ás	-12647
50,	-12648
fty	-12649
sun	-12650
zer	-12651
▁(@	-12652
▁py	-12653
":"0	-12654
folk	-12655
four	-12656
show	-12657
▁3-0	-12658
▁Bum	-12659
▁Guy	-12660
▁Hab	-12661
▁Kyl	-12662
▁fut	-12663
▁hob	-12664
▁spy	-12665
angle	-12666
ierre	-12667
proof	-12668
three	-12669
▁2026	-12670
▁Beth	-12671
▁Cold	-12672
▁Cork	-12673
▁Less	-12674
▁Linc	-12675
▁Prov	-12676
▁Xbox	-12677
▁butt	-12678
▁cope	-12679
▁cops	-12680
▁pupp	-12681
▁thro	-12682
kinson	-12683
minded	-12684
▁2011,	-12685
▁Congo	-12686
▁Smart	-12687
▁genre	-12688
▁irrit	-12689
▁pione	-12690
lington	-12691
running	-12692
▁advent	-12693
▁culmin	-12694
▁garage	-12695
▁giants	-12696
▁invite	-12697
▁penned	-12698
▁sensor	-12699
▁stupid	-12700
▁tender	-12701
▁thrive	-12702
▁tricky	-12703
▁versus	-12704
▁warmer	-12705
earchers	-12706
▁Alexand	-12707
▁Cardiff	-12708
▁Housing	-12709
▁Stanley	-12710
▁banning	-12711
▁bonuses	-12712
▁creator	-12713
▁diamond	-12714
▁fiction	-12715
▁license	-12716
▁swiftly	-12717
President	-12718
▁Paralymp	-12719
▁airports	-12720
▁briefing	-12721
▁rebounds	-12722
▁settings	-12723
▁skincare	-12724
▁suitable	-12725
▁takeover	-12726
▁tropical	-12727
▁Gallagher	-12728
▁Jerusalem	-12729
▁Telegraph	-12730
▁gratitude	-12731
▁instantly	-12732
▁nutrition	-12733
▁separated	-12734
▁workforce	-12735
▁attributed	-12736
▁delegation	-12737
▁invitation	-12738
▁overturned	-12739
▁publishing	-12740
▁competitors	-12741
▁Championships	-12742
▁heartbreaking	-12743
NT	-12744
RI	-12745
gs	-12746
700	-12747
enh	-12748
iaz	-12749
jab	-12750
occ	-12751
ols	-12752
tit	-12753
▁51	-12754
▁Ug	-12755
five	-12756
geon	-12757
imed	-12758
isle	-12759
itis	-12760
▁Eur	-12761
▁Ltd	-12762
▁lon	-12763
arcer	-12764
▁Jude	-12765
▁Lion	-12766
▁Stef	-12767
▁Very	-12768
▁auto	-12769
▁bite	-12770
▁ears	-12771
▁frag	-12772
▁lens	-12773
▁nort	-12774
▁rack	-12775
▁sink	-12776
▁wors	-12777
▁yard	-12778
ancies	-12779
redict	-12780
▁2008,	-12781
▁Delta	-12782
▁Khark	-12783
▁Rebec	-12784
▁Uttar	-12785
▁alien	-12786
▁juris	-12787
▁olive	-12788
▁patch	-12789
▁robot	-12790
▁sells	-12791
▁villa	-12792
initely	-12793
▁Arthur	-12794
▁Future	-12795
▁Sinner	-12796
▁baking	-12797
▁convey	-12798
▁dispar	-12799
▁floors	-12800
▁hugely	-12801
▁impose	-12802
▁podium	-12803
▁posing	-12804
▁tunnel	-12805
essional	-12806
▁Brandon	-12807
▁Someone	-12808
▁doubles	-12809
▁expense	-12810
▁inaugur	-12811
▁inflamm	-12812
▁listing	-12813
▁outfits	-12814
▁sisters	-12815
▁turnout	-12816
▁urgency	-12817
▁Building	-12818
▁Nintendo	-12819
▁Students	-12820
▁balanced	-12821
▁campuses	-12822
▁founding	-12823
▁lighting	-12824
▁shipping	-12825
▁speakers	-12826
▁Elsewhere	-12827
▁borrowing	-12828
▁converted	-12829
▁philosoph	-12830
▁purchases	-12831
▁EastEnders	-12832
▁connecting	-12833
▁electorate	-12834
▁inevitable	-12835
▁influenced	-12836
▁provisions	-12837
▁fascinating	-12838
▁preliminary	-12839
▁partnerships	-12840
88	-12841
93	-12842
Or	-12843
Sp	-12844
uz	-12845
900	-12846
hou	-12847
▁2:	-12848
▁WA	-12849
....	-12850
case	-12851
mill	-12852
nold	-12853
oken	-12854
prim	-12855
quer	-12856
shop	-12857
team	-12858
uber	-12859
▁AAP	-12860
▁MLB	-12861
▁MSP	-12862
▁Say	-12863
▁Tig	-12864
▁Vot	-12865
,000,	-12866
endez	-12867
oline	-12868
table	-12869
utton	-12870
▁2007	-12871
▁Mile	-12872
▁Qual	-12873
▁Resc	-12874
▁Talk	-12875
▁Wals	-12876
▁folk	-12877
▁fost	-12878
▁grip	-12879
▁horm	-12880
▁sail	-12881
itches	-12882
itutes	-12883
ottage	-12884
▁Charg	-12885
▁Gener	-12886
▁Pedro	-12887
▁Think	-12888
▁drunk	-12889
▁fleet	-12890
▁globe	-12891
▁hyper	-12892
▁scary	-12893
▁Dakota	-12894
▁Europa	-12895
▁Latino	-12896
▁Native	-12897
▁Reagan	-12898
▁Scient	-12899
▁Taking	-12900
▁Valent	-12901
▁Yousaf	-12902
▁chairs	-12903
▁heated	-12904
▁sooner	-12905
▁topped	-12906
▁Bradley	-12907
▁Doctors	-12908
▁Lincoln	-12909
▁Reports	-12910
▁Schumer	-12911
▁Shortly	-12912
▁cooling	-12913
▁curtain	-12914
▁earthqu	-12915
▁hunting	-12916
▁lifting	-12917
▁organic	-12918
▁sheriff	-12919
▁trainer	-12920
▁whistle	-12921
▁Heritage	-12922
▁Together	-12923
▁alleging	-12924
▁assigned	-12925
▁branches	-12926
▁deserved	-12927
▁graduate	-12928
▁pursuing	-12929
▁versions	-12930
▁appealing	-12931
▁testament	-12932
▁threatens	-12933
▁wellbeing	-12934
▁influencer	-12935
▁underlying	-12936
▁identifying	-12937
▁impeachment	-12938
▁spokeswoman	-12939
▁agricultural	-12940
▁conventional	-12941
▁deliberately	-12942
▁sustainability	-12943
DS	-12944
Fi	-12945
SF	-12946
myr	-12947
olt	-12948
▁5-	-12949
▁52	-12950
▁66	-12951
▁FT	-12952
▁Tu	-12953
▁Ye	-12954
aple	-12955
aton	-12956
auff	-12957
iani	-12958
ippi	-12959
ixon	-12960
lett	-12961
lroy	-12962
olan	-12963
pher	-12964
take	-12965
wife	-12966
yers	-12967
▁13-	-12968
▁2-0	-12969
▁Lip	-12970
▁PGA	-12971
▁Sex	-12972
▁Ton	-12973
Hamas	-12974
ource	-12975
urred	-12976
▁Amit	-12977
▁Base	-12978
▁Hern	-12979
▁Scar	-12980
▁dash	-12981
▁intr	-12982
▁medi	-12983
▁veto	-12984
gorith	-12985
icipal	-12986
iggins	-12987
placed	-12988
ureauc	-12989
▁Bobby	-12990
▁Point	-12991
▁fails	-12992
▁ferry	-12993
▁reset	-12994
▁steam	-12995
rawling	-12996
▁Father	-12997
▁Rivers	-12998
▁Thames	-12999
▁caring	-13000
▁lovers	-13001
▁staged	-13002
▁voiced	-13003
formerly	-13004
ountered	-13005
▁Beckham	-13006
▁Duchess	-13007
▁Ferrari	-13008
▁Jeffrey	-13009
▁Workers	-13010
▁bargain	-13011
▁fingers	-13012
▁gardens	-13013
▁mansion	-13014
▁reacted	-13015
▁recipes	-13016
▁reunion	-13017
▁showers	-13018
▁suburbs	-13019
▁tweeted	-13020
▁viewing	-13021
▁Broadway	-13022
▁credited	-13023
▁incarcer	-13024
▁instinct	-13025
▁outlined	-13026
▁receives	-13027
▁watchdog	-13028
▁weakness	-13029
▁astronaut	-13030
▁excessive	-13031
▁nationals	-13032
▁processed	-13033
▁remembers	-13034
▁technique	-13035
▁Throughout	-13036
▁apologised	-13037
▁attraction	-13038
▁capability	-13039
▁difficulty	-13040
▁encampment	-13041
▁mysterious	-13042
▁statistics	-13043
▁tremendous	-13044
▁Researchers	-13045
▁grandfather	-13046
▁subscribers	-13047
▁availability	-13048
▁neighbouring	-13049
▁shareholders	-13050
▁accountability	-13051
DI	-13052
LC	-13053
OW	-13054
ni	-13055
edd	-13056
ema	-13057
had	-13058
nut	-13059
oco	-13060
sit	-13061
▁Cz	-13062
▁IM	-13063
conf	-13064
essa	-13065
iary	-13066
icut	-13067
oped	-13068
rise	-13069
town	-13070
▁26-	-13071
▁Non	-13072
▁Pra	-13073
▁Sha	-13074
▁dup	-13075
▁lou	-13076
"}],"	-13077
court	-13078
neath	-13079
▁$200	-13080
▁2004	-13081
▁2005	-13082
▁Gene	-13083
▁Must	-13084
▁Ruby	-13085
▁Yoon	-13086
▁bust	-13087
▁feud	-13088
▁hike	-13089
astics	-13090
ensity	-13091
ieties	-13092
inding	-13093
itudes	-13094
terror	-13095
▁2010,	-13096
▁Abdul	-13097
▁Prior	-13098
▁Ultra	-13099
▁clips	-13100
▁naked	-13101
▁repay	-13102
▁rocks	-13103
▁skept	-13104
▁tanks	-13105
▁vigil	-13106
▁wreck	-13107
issippi	-13108
largest	-13109
▁Design	-13110
▁Rooney	-13111
▁condol	-13112
▁flames	-13113
▁sealed	-13114
▁ChatGPT	-13115
▁Epstein	-13116
▁Fernand	-13117
▁History	-13118
▁Windsor	-13119
▁flavour	-13120
▁slipped	-13121
ufficient	-13122
▁Criminal	-13123
▁avoiding	-13124
▁enduring	-13125
▁operated	-13126
▁pipeline	-13127
▁tactical	-13128
▁touching	-13129
▁Cambridge	-13130
▁Norwegian	-13131
▁cognitive	-13132
▁privately	-13133
▁violating	-13134
▁Revolution	-13135
▁compromise	-13136
▁definition	-13137
▁indicating	-13138
▁wrongdoing	-13139
▁declaration	-13140
▁encountered	-13141
▁flexibility	-13142
▁heavyweight	-13143
▁Metropolitan	-13144
▁presentation	-13145
▁championships	-13146
▁administrative	-13147
Ad	-13148
Of	-13149
PD	-13150
Pl	-13151
CAR	-13152
Pro	-13153
aux	-13154
dep	-13155
idi	-13156
wyn	-13157
▁Py	-13158
Yeah	-13159
arez	-13160
aths	-13161
azer	-13162
eled	-13163
hill	-13164
iler	-13165
ipur	-13166
oser	-13167
▁Bud	-13168
▁Ele	-13169
▁Riv	-13170
▁VAR	-13171
▁Wag	-13172
▁gal	-13173
▁wal	-13174
borne	-13175
encia	-13176
first	-13177
itted	-13178
oding	-13179
onder	-13180
onnie	-13181
orton	-13182
▁Chop	-13183
▁Coal	-13184
▁Fitz	-13185
▁Kolk	-13186
▁Saka	-13187
▁fool	-13188
▁geop	-13189
▁laug	-13190
▁pier	-13191
▁slim	-13192
▁spac	-13193
▁summ	-13194
minent	-13195
odymyr	-13196
ported	-13197
roying	-13198
▁Colin	-13199
▁Crist	-13200
▁Forum	-13201
▁Natal	-13202
▁accum	-13203
▁brace	-13204
▁eleph	-13205
▁obser	-13206
▁troll	-13207
Station	-13208
quarter	-13209
rolling	-13210
written	-13211
▁Eagles	-13212
▁Hudson	-13213
▁Norris	-13214
▁Puerto	-13215
▁Punjab	-13216
▁agrees	-13217
▁balcon	-13218
▁barred	-13219
▁hammer	-13220
▁makers	-13221
▁refuse	-13222
▁rhythm	-13223
▁salmon	-13224
▁shaped	-13225
▁treats	-13226
▁uphold	-13227
▁Houthis	-13228
▁Mahomes	-13229
▁Manager	-13230
▁McIlroy	-13231
▁Rebecca	-13232
▁aligned	-13233
▁carrier	-13234
▁climbed	-13235
▁highway	-13236
▁ranking	-13237
▁touring	-13238
▁disagree	-13239
▁monument	-13240
▁optimism	-13241
▁prisoner	-13242
▁revenues	-13243
▁severely	-13244
▁Paramount	-13245
▁addresses	-13246
▁benchmark	-13247
▁considers	-13248
▁exercises	-13249
▁memorable	-13250
▁musicians	-13251
▁negotiate	-13252
▁notorious	-13253
▁portfolio	-13254
▁principle	-13255
▁victories	-13256
▁convenient	-13257
▁discipline	-13258
▁reelection	-13259
▁remembered	-13260
▁substitute	-13261
▁suggestion	-13262
▁Connecticut	-13263
▁Mississippi	-13264
▁agriculture	-13265
▁populations	-13266
▁suggestions	-13267
▁underscores	-13268
▁manufacturer	-13269
▁Entertainment	-13270
▁disinformation	-13271
aa	-13272
mel	-13273
nie	-13274
▁1-	-13275
▁58	-13276
▁Kl	-13277
Ukra	-13278
anya	-13279
llie	-13280
unal	-13281
ների	-13282
▁17.	-13283
▁193	-13284
▁60%	-13285
▁Glo	-13286
▁Obs	-13287
▁Seb	-13288
▁VOA	-13289
▁Wes	-13290
▁Wor	-13291
▁jam	-13292
▁jaw	-13293
▁wis	-13294
acies	-13295
aires	-13296
ankar	-13297
duces	-13298
video	-13299
▁$100	-13300
▁$500	-13301
▁Aldi	-13302
▁Disc	-13303
▁Slam	-13304
▁beds	-13305
▁bits	-13306
▁blew	-13307
▁bone	-13308
▁cave	-13309
▁dire	-13310
▁haul	-13311
▁haun	-13312
▁lawn	-13313
▁load	-13314
▁mamm	-13315
abling	-13316
asthan	-13317
econom	-13318
stairs	-13319
▁Bears	-13320
▁Beyon	-13321
▁Brand	-13322
▁Front	-13323
▁Girls	-13324
▁Idaho	-13325
▁Linda	-13326
▁Marie	-13327
▁Raven	-13328
▁Roger	-13329
▁Rugby	-13330
▁UNRWA	-13331
▁aston	-13332
▁hilar	-13333
▁ports	-13334
▁sizes	-13335
▁solic	-13336
▁squee	-13337
casters	-13338
▁Living	-13339
▁Philip	-13340
▁Rogers	-13341
▁Trophy	-13342
▁bloody	-13343
▁cotton	-13344
▁digest	-13345
▁flower	-13346
▁grants	-13347
▁immers	-13348
▁livest	-13349
▁outing	-13350
▁shorts	-13351
▁tipped	-13352
▁100,000	-13353
▁Camilla	-13354
▁Friends	-13355
▁Kharkiv	-13356
▁Mohamed	-13357
▁Norfolk	-13358
▁blanket	-13359
▁cycling	-13360
▁escaped	-13361
▁instant	-13362
▁laughed	-13363
▁mindset	-13364
▁needing	-13365
▁sounded	-13366
▁washing	-13367
forcement	-13368
▁algorith	-13369
▁displays	-13370
▁killings	-13371
▁patience	-13372
▁receiver	-13373
▁releases	-13374
▁resource	-13375
▁shifting	-13376
▁treasure	-13377
▁Volodymyr	-13378
▁abortions	-13379
▁collision	-13380
▁evacuated	-13381
▁incorrect	-13382
▁milestone	-13383
▁reactions	-13384
▁suppliers	-13385
▁airstrikes	-13386
▁compelling	-13387
▁economists	-13388
▁facilitate	-13389
▁pensioners	-13390
▁reiterated	-13391
▁successive	-13392
▁distributed	-13393
▁tournaments	-13394
▁difficulties	-13395
▁conservatives	-13396
46	-13397
Go	-13398
աց	-13399
▁,	-13400
his	-13401
net	-13402
vie	-13403
▁(7	-13404
▁77	-13405
arus	-13406
boys	-13407
chen	-13408
oker	-13409
race	-13410
sole	-13411
sson	-13412
▁$30	-13413
▁19.	-13414
▁Bed	-13415
▁Bos	-13416
▁Mov	-13417
▁Muk	-13418
▁dys	-13419
acles	-13420
arest	-13421
avour	-13422
icism	-13423
liner	-13424
quote	-13425
ridge	-13426
ummer	-13427
▁Curt	-13428
▁Dian	-13429
▁Doug	-13430
▁Glen	-13431
▁Jade	-13432
▁Lily	-13433
▁Mald	-13434
▁Snap	-13435
▁Wolf	-13436
▁abst	-13437
▁gown	-13438
▁iPad	-13439
▁leaf	-13440
▁lets	-13441
▁rend	-13442
▁seam	-13443
▁tons	-13444
▁unle	-13445
border	-13446
holder	-13447
insula	-13448
loaded	-13449
school	-13450
▁Armed	-13451
▁Bourn	-13452
▁Casey	-13453
▁Czech	-13454
▁Draft	-13455
▁Dylan	-13456
▁Moroc	-13457
▁Nadal	-13458
▁Tampa	-13459
▁Truss	-13460
▁alike	-13461
▁amass	-13462
▁cater	-13463
▁cents	-13464
▁crude	-13465
▁forum	-13466
▁heels	-13467
▁loses	-13468
▁raped	-13469
▁stole	-13470
▁suits	-13471
▁tours	-13472
atching	-13473
ocument	-13474
▁Ashley	-13475
▁Sharif	-13476
▁Venice	-13477
▁insult	-13478
▁intrig	-13479
▁solely	-13480
▁stabil	-13481
▁sticks	-13482
▁subtle	-13483
▁Ipswich	-13484
▁Kolkata	-13485
▁authors	-13486
▁beliefs	-13487
▁compare	-13488
▁gallery	-13489
▁margins	-13490
▁murders	-13491
▁traject	-13492
▁Armenian	-13493
▁canceled	-13494
▁cocktail	-13495
▁criteria	-13496
▁prostate	-13497
▁stabbing	-13498
▁suburban	-13499
▁switched	-13500
▁unbeliev	-13501
▁wherever	-13502
▁Bloomberg	-13503
▁Victorian	-13504
▁confessed	-13505
▁altogether	-13506
▁creativity	-13507
▁heightened	-13508
▁performers	-13509
▁touchdowns	-13510
▁Information	-13511
▁PlayStation	-13512
▁expectation	-13513
▁nominations	-13514
▁prestigious	-13515
▁demonstration	-13516
▁sophisticated	-13517
▁representation	-13518
43	-13519
BO	-13520
UP	-13521
աս	-13522
Bec	-13523
ifa	-13524
lie	-13525
olo	-13526
oom	-13527
vas	-13528
▁""	-13529
▁72	-13530
▁73	-13531
anyl	-13532
join	-13533
mith	-13534
moil	-13535
odox	-13536
rior	-13537
▁23.	-13538
▁27-	-13539
▁Alf	-13540
▁Jin	-13541
▁Jun	-13542
▁Paw	-13543
▁Sep	-13544
▁Too	-13545
▁WHO	-13546
▁cig	-13547
▁etc	-13548
▁pad	-13549
▁roy	-13550
agger	-13551
brand	-13552
esome	-13553
great	-13554
▁Carr	-13555
▁Days	-13556
▁Gamb	-13557
▁NDTV	-13558
▁Noah	-13559
▁Ruth	-13560
▁Spir	-13561
▁logo	-13562
▁mast	-13563
▁sake	-13564
ecraft	-13565
ecting	-13566
ffield	-13567
ivated	-13568
member	-13569
▁Costa	-13570
▁Magic	-13571
▁Mbapp	-13572
▁Shein	-13573
▁Using	-13574
▁bands	-13575
▁bones	-13576
▁euros	-13577
▁fancy	-13578
▁parad	-13579
▁sadly	-13580
▁wound	-13581
ailable	-13582
▁Antony	-13583
▁Bumrah	-13584
▁Candid	-13585
▁Claire	-13586
▁Engine	-13587
▁Harper	-13588
▁Surrey	-13589
▁desert	-13590
▁gunman	-13591
▁marine	-13592
▁parole	-13593
▁stakes	-13594
ductions	-13595
▁Limited	-13596
▁Swinney	-13597
▁Walmart	-13598
▁amongst	-13599
▁booking	-13600
▁bureauc	-13601
▁convinc	-13602
▁designs	-13603
▁elegant	-13604
▁goodbye	-13605
▁greatly	-13606
▁handset	-13607
▁obesity	-13608
▁segment	-13609
▁sharply	-13610
▁Memorial	-13611
▁aviation	-13612
▁boosting	-13613
▁boundary	-13614
▁conceded	-13615
▁decrease	-13616
▁delivers	-13617
▁equality	-13618
▁imagined	-13619
▁quarters	-13620
▁relating	-13621
▁sticking	-13622
▁terminal	-13623
▁dependent	-13624
▁precedent	-13625
▁routinely	-13626
▁universal	-13627
▁deployment	-13628
▁documented	-13629
▁eliminated	-13630
▁recommends	-13631
▁techniques	-13632
▁accommodate	-13633
▁frustrating	-13634
▁unnecessary	-13635
▁achievements	-13636
▁photographer	-13637
50.	-13638
Day	-13639
abh	-13640
adh	-13641
cam	-13642
eli	-13643
ogg	-13644
▁(6	-13645
▁56	-13646
▁57	-13647
▁DI	-13648
▁IR	-13649
▁Wi	-13650
Time	-13651
Will	-13652
aver	-13653
cell	-13654
coin	-13655
hend	-13656
imag	-13657
iott	-13658
oard	-13659
othy	-13660
prom	-13661
rine	-13662
ulum	-13663
what	-13664
▁190	-13665
▁Alt	-13666
▁Emb	-13667
▁Ice	-13668
▁Maz	-13669
▁SEC	-13670
▁Tun	-13671
▁hed	-13672
entry	-13673
media	-13674
▁Boys	-13675
▁Cars	-13676
▁Reyn	-13677
▁Salt	-13678
▁Todd	-13679
▁adap	-13680
▁cler	-13681
▁dent	-13682
▁grim	-13683
▁plag	-13684
▁seaf	-13685
▁tong	-13686
Donald	-13687
encers	-13688
master	-13689
ounted	-13690
▁Britt	-13691
▁Drive	-13692
▁Ethan	-13693
▁Motor	-13694
▁Penny	-13695
▁Pride	-13696
▁Quest	-13697
▁Treat	-13698
▁cargo	-13699
▁grade	-13700
▁highs	-13701
bedroom	-13702
onsense	-13703
▁Doctor	-13704
▁boring	-13705
▁dispos	-13706
▁finale	-13707
▁fitted	-13708
▁origin	-13709
▁plaint	-13710
▁runner	-13711
▁superb	-13712
ributors	-13713
▁Downing	-13714
▁Holiday	-13715
▁blessed	-13716
▁ceiling	-13717
▁coupled	-13718
▁curious	-13719
▁gaining	-13720
▁runners	-13721
▁rushing	-13722
▁distingu	-13723
▁executed	-13724
▁freezing	-13725
▁listened	-13726
▁partisan	-13727
▁potatoes	-13728
▁remarked	-13729
▁threaten	-13730
▁thriller	-13731
▁admitting	-13732
▁advancing	-13733
▁charities	-13734
▁intellect	-13735
▁lucrative	-13736
▁volunteer	-13737
▁completion	-13738
▁undergoing	-13739
▁acquisition	-13740
▁certificate	-13741
▁requirement	-13742
▁implementing	-13743
57	-13744
87	-13745
!!!	-13746
-16	-13747
aky	-13748
hal	-13749
iju	-13750
iya	-13751
jun	-13752
lou	-13753
rus	-13754
tor	-13755
▁85	-13756
▁wo	-13757
agar	-13758
ansl	-13759
aria	-13760
dist	-13761
east	-13762
ersh	-13763
eway	-13764
hips	-13765
iang	-13766
iper	-13767
rawn	-13768
seat	-13769
umps	-13770
wart	-13771
▁19-	-13772
▁21.	-13773
▁80%	-13774
▁Aid	-13775
▁Hum	-13776
▁Pic	-13777
▁SUV	-13778
▁Tuc	-13779
▁Use	-13780
▁WWE	-13781
▁mud	-13782
▁£2.	-13783
heart	-13784
storm	-13785
▁Belf	-13786
▁Bros	-13787
▁Kath	-13788
▁Khal	-13789
▁Nord	-13790
▁Pick	-13791
▁Reid	-13792
▁Ring	-13793
▁Ster	-13794
▁WNBA	-13795
▁aide	-13796
▁brid	-13797
▁bund	-13798
▁gymn	-13799
▁lied	-13800
▁ther	-13801
▁wrap	-13802
forest	-13803
oubted	-13804
string	-13805
▁Based	-13806
▁Brady	-13807
▁Hayes	-13808
▁Lagos	-13809
▁Quinn	-13810
▁abund	-13811
▁rated	-13812
▁rebel	-13813
▁stiff	-13814
▁zones	-13815
regular	-13816
▁Boxing	-13817
▁Davies	-13818
▁Hearts	-13819
▁Hispan	-13820
▁Patrol	-13821
▁Pelosi	-13822
▁Please	-13823
▁Robbie	-13824
▁Winter	-13825
▁abrupt	-13826
▁ancest	-13827
▁beside	-13828
▁farmer	-13829
▁fright	-13830
▁inevit	-13831
▁lavish	-13832
▁leaked	-13833
▁learnt	-13834
▁mentor	-13835
▁reader	-13836
▁sacked	-13837
▁suburb	-13838
▁surged	-13839
etheless	-13840
▁Barbara	-13841
▁Between	-13842
▁Getting	-13843
▁Overall	-13844
▁Picture	-13845
▁dissent	-13846
▁rematch	-13847
▁soaring	-13848
▁turmoil	-13849
▁vintage	-13850
ationally	-13851
ilitation	-13852
▁Portland	-13853
▁Remember	-13854
▁Sullivan	-13855
▁boarding	-13856
▁cautious	-13857
▁colleges	-13858
▁reserves	-13859
▁spectrum	-13860
▁subjects	-13861
▁troubled	-13862
▁Nigerians	-13863
▁Rajasthan	-13864
▁Sheffield	-13865
▁airstrike	-13866
▁allowance	-13867
▁classroom	-13868
▁disclosed	-13869
▁inherited	-13870
▁partially	-13871
▁realistic	-13872
▁underwent	-13873
▁Richardson	-13874
▁applicants	-13875
▁researcher	-13876
▁trajectory	-13877
▁underneath	-13878
▁Bournemouth	-13879
▁homelessness	-13880
▁concentration	-13881
▁straightforward	-13882
':	-13883
Cl	-13884
OM	-13885
Pr	-13886
UN	-13887
UR	-13888
dig	-13889
flu	-13890
iga	-13891
sky	-13892
▁4-	-13893
▁CP	-13894
▁CS	-13895
▁HD	-13896
▁Ko	-13897
▁Mi	-13898
▁km	-13899
▁na	-13900
base	-13901
club	-13902
elle	-13903
elli	-13904
help	-13905
irer	-13906
kick	-13907
onde	-13908
▁23-	-13909
▁28-	-13910
▁34,	-13911
▁Cob	-13912
▁Hem	-13913
▁Lor	-13914
▁MVP	-13915
▁Mum	-13916
▁Suz	-13917
▁Web	-13918
▁lod	-13919
asses	-13920
erton	-13921
fires	-13922
isure	-13923
leans	-13924
matic	-13925
uates	-13926
ungle	-13927
▁2003	-13928
▁Deal	-13929
▁Joey	-13930
▁Stur	-13931
▁cafe	-13932
▁seiz	-13933
aryana	-13934
elsius	-13935
people	-13936
turned	-13937
▁1,500	-13938
▁Corps	-13939
▁Ellie	-13940
▁Hawai	-13941
▁Kerry	-13942
▁Maine	-13943
▁Miche	-13944
▁Robin	-13945
▁Susan	-13946
▁Trent	-13947
▁acute	-13948
▁beans	-13949
▁promo	-13950
▁queer	-13951
▁salad	-13952
▁scrap	-13953
▁skirt	-13954
▁stere	-13955
▁tally	-13956
Because	-13957
claimed	-13958
entanyl	-13959
ometown	-13960
▁Crooks	-13961
▁Polish	-13962
▁Potter	-13963
▁blockb	-13964
▁guided	-13965
▁laying	-13966
▁petrol	-13967
▁styles	-13968
▁throws	-13969
outheast	-13970
▁Madison	-13971
▁Maguire	-13972
▁Section	-13973
▁advises	-13974
▁attends	-13975
▁faculty	-13976
▁feeding	-13977
▁healing	-13978
▁leaning	-13979
▁locally	-13980
▁motorcy	-13981
▁texture	-13982
▁touches	-13983
▁undergo	-13984
▁Clarkson	-13985
▁Menendez	-13986
▁adequate	-13987
▁advertis	-13988
▁credible	-13989
▁portrait	-13990
▁sections	-13991
▁unbeaten	-13992
▁Electoral	-13993
▁Indonesia	-13994
▁Relations	-13995
▁amendment	-13996
▁childcare	-13997
▁extremist	-13998
▁forecasts	-13999
▁formation	-14000
▁functions	-14001
▁healthier	-14002
▁initiated	-14003
▁languages	-14004
▁offenders	-14005
▁compassion	-14006
▁disturbing	-14007
▁functional	-14008
▁indication	-14009
▁regulators	-14010
▁condolences	-14011
▁consistency	-14012
▁exploration	-14013
▁overwhelmed	-14014
▁preparations	-14015
▁Congressional	-14016
Tw	-14017
cm	-14018
ei	-14019
aby	-14020
gov	-14021
▁2%	-14022
▁MI	-14023
▁SE	-14024
▁VP	-14025
acco	-14026
atri	-14027
▁21-	-14028
▁36,	-14029
▁38,	-14030
▁Bun	-14031
▁Cox	-14032
▁Gay	-14033
▁Jar	-14034
▁Lan	-14035
▁Ole	-14036
▁Ott	-14037
▁Sid	-14038
▁cyn	-14039
▁tal	-14040
amped	-14041
aults	-14042
grand	-14043
inkle	-14044
umped	-14045
▁Anti	-14046
▁Chan	-14047
▁Dawn	-14048
▁Fast	-14049
▁Host	-14050
▁Rick	-14051
▁Sach	-14052
▁Save	-14053
▁Yeah	-14054
▁pubs	-14055
Harris	-14056
inting	-14057
ishers	-14058
ources	-14059
urious	-14060
▁Alice	-14061
▁Citiz	-14062
▁Conor	-14063
▁Creat	-14064
▁Oasis	-14065
▁Urban	-14066
▁Walsh	-14067
▁dairy	-14068
▁handy	-14069
▁indul	-14070
▁outdo	-14071
▁shade	-14072
ructive	-14073
umbling	-14074
▁Callum	-14075
▁Fraser	-14076
▁Grande	-14077
▁NASCAR	-14078
▁Slater	-14079
▁Summit	-14080
▁aerial	-14081
▁albums	-14082
▁asleep	-14083
▁boards	-14084
▁costly	-14085
▁ethics	-14086
▁fridge	-14087
▁joking	-14088
▁misses	-14089
▁pedest	-14090
▁runway	-14091
▁submar	-14092
▁twenty	-14093
▁unanim	-14094
▁worthy	-14095
building	-14096
oubtedly	-14097
▁Diamond	-14098
▁Haryana	-14099
▁Orleans	-14100
▁anxious	-14101
▁fleeing	-14102
▁harvest	-14103
▁pitched	-14104
▁pitches	-14105
▁smashed	-14106
▁transit	-14107
▁visitor	-14108
▁Medicare	-14109
▁Slovakia	-14110
▁articles	-14111
▁cheating	-14112
▁imminent	-14113
▁mounting	-14114
▁whopping	-14115
▁Communist	-14116
▁aesthetic	-14117
▁automatic	-14118
▁captioned	-14119
▁crossings	-14120
▁declaring	-14121
▁inspiring	-14122
▁mandatory	-14123
▁components	-14124
▁occasional	-14125
Shutterstock	-14126
▁contestants	-14127
▁forthcoming	-14128
▁integration	-14129
▁legislature	-14130
▁catastrophic	-14131
▁supermarkets	-14132
fi	-14133
chi	-14134
jee	-14135
ser	-14136
sub	-14137
wed	-14138
yen	-14139
▁76	-14140
▁£9	-14141
John	-14142
bish	-14143
inte	-14144
loor	-14145
nity	-14146
robe	-14147
them	-14148
▁Dim	-14149
▁Dri	-14150
▁Ent	-14151
▁Gat	-14152
▁PTI	-14153
▁Rud	-14154
▁pac	-14155
adequ	-14156
adows	-14157
ormal	-14158
uffed	-14159
▁Bart	-14160
▁Bund	-14161
▁Cris	-14162
▁Ella	-14163
▁Hugh	-14164
▁Kirk	-14165
▁Mick	-14166
▁Pers	-14167
▁Snow	-14168
▁Stay	-14169
▁helm	-14170
▁hint	-14171
▁hood	-14172
▁navy	-14173
▁pave	-14174
▁poly	-14175
▁prox	-14176
▁tick	-14177
▁Chloe	-14178
▁Clear	-14179
▁Julia	-14180
▁Starb	-14181
▁Veter	-14182
▁Virat	-14183
▁climb	-14184
▁divid	-14185
▁input	-14186
▁maxim	-14187
▁overc	-14188
▁rooft	-14189
▁sheep	-14190
▁slice	-14191
▁wears	-14192
▁Better	-14193
▁Cancer	-14194
▁Forbes	-14195
▁Shadow	-14196
▁cement	-14197
▁facial	-14198
▁forens	-14199
▁fruits	-14200
▁hungry	-14201
▁resemb	-14202
▁serial	-14203
▁topics	-14204
▁touted	-14205
▁treaty	-14206
▁vacuum	-14207
▁viable	-14208
Everyone	-14209
changing	-14210
ographer	-14211
▁Belfast	-14212
▁Captain	-14213
▁Circuit	-14214
▁Critics	-14215
▁Formula	-14216
▁Hillary	-14217
▁Notably	-14218
▁Schools	-14219
▁academy	-14220
▁approve	-14221
▁blasted	-14222
▁concess	-14223
▁ensures	-14224
▁proving	-14225
▁surrend	-14226
▁tougher	-14227
▁watches	-14228
astonbury	-14229
▁Albanese	-14230
▁Marshall	-14231
▁awaiting	-14232
▁cannabis	-14233
▁closures	-14234
▁councils	-14235
▁hometown	-14236
▁infected	-14237
▁nominees	-14238
▁obsessed	-14239
▁sparking	-14240
▁stealing	-14241
▁Bengaluru	-14242
▁Henderson	-14243
▁certified	-14244
▁dismissal	-14245
▁insisting	-14246
▁landslide	-14247
▁publisher	-14248
significant	-14249
▁Eventually	-14250
▁integrated	-14251
▁kilometres	-14252
▁presenting	-14253
▁Southampton	-14254
▁battlefield	-14255
▁deportation	-14256
▁medications	-14257
▁alternatives	-14258
▁strengthening	-14259
nn	-14260
pg	-14261
ava	-14262
eda	-14263
iox	-14264
len	-14265
ukh	-14266
▁1:	-14267
▁Ka	-14268
Your	-14269
deal	-14270
ibet	-14271
ifty	-14272
izer	-14273
omer	-14274
sett	-14275
tees	-14276
when	-14277
xton	-14278
▁$1,	-14279
▁$3.	-14280
▁FDA	-14281
▁Got	-14282
▁Hal	-14283
▁Kaz	-14284
▁Kob	-14285
▁McN	-14286
▁Poc	-14287
arget	-14288
books	-14289
herty	-14290
otted	-14291
ucked	-14292
▁1997	-14293
▁Data	-14294
▁Finn	-14295
▁Owen	-14296
▁Side	-14297
▁fals	-14298
▁glow	-14299
▁nuts	-14300
▁perm	-14301
▁pole	-14302
▁stub	-14303
▁vibe	-14304
resses	-14305
utical	-14306
▁Bryan	-14307
▁Catal	-14308
▁Croat	-14309
▁Jerry	-14310
▁Marco	-14311
▁Muham	-14312
▁Ollie	-14313
▁Titan	-14314
▁appet	-14315
▁blaze	-14316
▁buyer	-14317
▁cried	-14318
▁liver	-14319
▁nasty	-14320
▁recre	-14321
▁rides	-14322
▁stunt	-14323
▁tends	-14324
elected	-14325
respect	-14326
urities	-14327
▁Ashwin	-14328
▁Chopra	-14329
▁Damasc	-14330
▁Fulham	-14331
▁Player	-14332
▁colors	-14333
▁crises	-14334
▁define	-14335
▁divide	-14336
▁excuse	-14337
▁hybrid	-14338
▁prizes	-14339
▁sample	-14340
▁soared	-14341
▁thread	-14342
▁timely	-14343
▁wisdom	-14344
inspired	-14345
▁Brendan	-14346
▁clashes	-14347
▁dragged	-14348
▁fixture	-14349
▁moistur	-14350
▁secrets	-14351
▁surgeon	-14352
▁testify	-14353
▁tornado	-14354
▁whereas	-14355
▁whoever	-14356
astically	-14357
▁Georgian	-14358
▁Nicholas	-14359
▁Recently	-14360
▁cheapest	-14361
▁deceased	-14362
▁embraced	-14363
▁feedback	-14364
▁fentanyl	-14365
▁ideology	-14366
▁narrowly	-14367
▁senators	-14368
▁shelters	-14369
▁websites	-14370
▁weekends	-14371
▁withdrew	-14372
▁Similarly	-14373
▁artillery	-14374
▁believing	-14375
▁container	-14376
▁disrupted	-14377
▁escalated	-14378
▁indicates	-14379
▁unsuccess	-14380
▁Investment	-14381
▁accomplish	-14382
▁biological	-14383
▁compliance	-14384
▁destroying	-14385
▁explosions	-14386
▁greenhouse	-14387
▁negotiated	-14388
▁protective	-14389
▁purchasing	-14390
▁arrangement	-14391
▁commentator	-14392
▁controlling	-14393
▁settlements	-14394
▁entertaining	-14395
▁demonstrators	-14396
▁constituencies	-14397
AD	-14398
▁Ա	-14399
=""	-14400
?""	-14401
EFA	-14402
Man	-14403
Rep	-14404
pre	-14405
uma	-14406
yes	-14407
▁62	-14408
Many	-14409
atra	-14410
bies	-14411
ente	-14412
ihad	-14413
oots	-14414
oths	-14415
they	-14416
walk	-14417
▁Ess	-14418
▁Mam	-14419
▁NHL	-14420
▁ket	-14421
▁maj	-14422
Those	-14423
antha	-14424
erala	-14425
faced	-14426
illon	-14427
irmed	-14428
leted	-14429
riors	-14430
ugged	-14431
▁2002	-14432
▁Drug	-14433
▁Kier	-14434
▁Kill	-14435
▁Nebr	-14436
▁Nine	-14437
▁Thai	-14438
▁Unit	-14439
▁accl	-14440
▁dive	-14441
▁matt	-14442
▁mush	-14443
▁suck	-14444
▁todd	-14445
▁trap	-14446
cation	-14447
ellery	-14448
ocaust	-14449
ovanni	-14450
▁Logan	-14451
▁Lynch	-14452
▁Ruben	-14453
▁Youth	-14454
▁exped	-14455
▁lover	-14456
▁moder	-14457
▁reply	-14458
▁rifle	-14459
▁rings	-14460
▁scare	-14461
▁20,000	-14462
▁Amorim	-14463
▁Employ	-14464
▁Flight	-14465
▁Helene	-14466
▁Herald	-14467
▁Hughes	-14468
▁Louise	-14469
▁Peters	-14470
▁ageing	-14471
▁header	-14472
▁relied	-14473
▁alleges	-14474
▁bearing	-14475
▁bolster	-14476
▁cleaner	-14477
▁console	-14478
▁evolved	-14479
▁lecture	-14480
▁prisons	-14481
▁regrets	-14482
▁shaking	-14483
▁supreme	-14484
▁Damascus	-14485
▁corridor	-14486
▁creators	-14487
▁enabling	-14488
▁measured	-14489
▁mobility	-14490
▁outdoors	-14491
▁outright	-14492
▁Brentford	-14493
▁Coalition	-14494
▁engineers	-14495
▁recession	-14496
▁accounting	-14497
▁beneficial	-14498
▁completing	-14499
▁defamation	-14500
▁encounters	-14501
▁generative	-14502
▁incentives	-14503
▁relentless	-14504
▁emotionally	-14505
▁territories	-14506
▁conservation	-14507
▁establishing	-14508
▁geopolitical	-14509
▁confrontation	-14510
41	-14511
Br	-14512
By	-14513
EE	-14514
El	-14515
RO	-14516
cu	-14517
ii	-14518
isk	-14519
upt	-14520
▁Ce	-14521
9.99	-14522
anti	-14523
cies	-14524
inda	-14525
onda	-14526
onst	-14527
rone	-14528
rose	-14529
seen	-14530
urry	-14531
▁2.5	-14532
▁50,	-14533
▁Bin	-14534
▁Eli	-14535
▁Gaz	-14536
▁Hub	-14537
▁Lie	-14538
▁Lis	-14539
▁Pul	-14540
▁Sah	-14541
▁fet	-14542
▁hai	-14543
▁toy	-14544
▁ups	-14545
▁£3.	-14546
hoods	-14547
human	-14548
lando	-14549
ocate	-14550
ostal	-14551
ounge	-14552
rient	-14553
title	-14554
▁Body	-14555
▁Cait	-14556
▁Fame	-14557
▁Fish	-14558
▁Madd	-14559
▁Pret	-14560
▁cute	-14561
▁damp	-14562
▁fits	-14563
▁gaps	-14564
▁leap	-14565
▁mour	-14566
▁plum	-14567
▁sums	-14568
▁swap	-14569
▁toys	-14570
▁trim	-14571
Connor	-14572
hidden	-14573
piring	-14574
▁4,000	-14575
▁Burns	-14576
▁Clare	-14577
▁Derek	-14578
▁Murdo	-14579
▁Years	-14580
▁buses	-14581
▁dread	-14582
▁exams	-14583
▁griev	-14584
▁homem	-14585
▁releg	-14586
anguage	-14587
utenant	-14588
▁Arctic	-14589
▁Contin	-14590
▁Julian	-14591
▁Kerala	-14592
▁Malays	-14593
▁Martha	-14594
▁Milton	-14595
▁Nature	-14596
▁abduct	-14597
▁bounce	-14598
▁doubts	-14599
▁gently	-14600
▁humour	-14601
▁slowed	-14602
▁tonnes	-14603
▁viewer	-14604
▁Celsius	-14605
▁Ibrahim	-14606
▁Liberty	-14607
▁Members	-14608
▁Ronaldo	-14609
▁bombing	-14610
▁broadly	-14611
▁chasing	-14612
▁combine	-14613
▁dealers	-14614
▁frankly	-14615
▁happily	-14616
▁impress	-14617
▁intends	-14618
▁muscles	-14619
▁persist	-14620
▁reconst	-14621
▁snapped	-14622
▁Agricult	-14623
▁Athletic	-14624
▁Commerce	-14625
▁Mohammad	-14626
▁Rashford	-14627
▁alarming	-14628
▁examined	-14629
▁labelled	-14630
▁missions	-14631
▁republic	-14632
▁stranger	-14633
▁timeline	-14634
proportion	-14635
▁Pakistani	-14636
▁Residents	-14637
▁Starbucks	-14638
▁consensus	-14639
▁embracing	-14640
▁filmmaker	-14641
▁frontline	-14642
▁isolation	-14643
▁packaging	-14644
▁subjected	-14645
▁surviving	-14646
▁uncovered	-14647
▁Queensland	-14648
▁commentary	-14649
▁Glastonbury	-14650
▁bombardment	-14651
▁inheritance	-14652
▁interaction	-14653
▁smartphones	-14654
▁reproductive	-14655
▁complications	-14656
▁grandchildren	-14657
▁Transportation	-14658
▁identification	-14659
59	-14660
69	-14661
FF	-14662
Ms	-14663
kh	-14664
Ass	-14665
ORK	-14666
dri	-14667
elo	-14668
nat	-14669
▁da	-14670
aksh	-14671
auer	-14672
ayan	-14673
azed	-14674
hett	-14675
icon	-14676
iona	-14677
opsy	-14678
paid	-14679
prot	-14680
▁(19	-14681
▁Eff	-14682
▁Inv	-14683
▁Jas	-14684
▁Kid	-14685
▁Kur	-14686
▁Nit	-14687
▁PAC	-14688
▁Pod	-14689
▁ber	-14690
▁pic	-14691
":[{"	-14692
Field	-14693
inces	-14694
olves	-14695
onest	-14696
onial	-14697
parts	-14698
▁1950	-14699
▁Bath	-14700
▁Chal	-14701
▁Code	-14702
▁Conc	-14703
▁Dark	-14704
▁Fant	-14705
▁Giul	-14706
▁Horn	-14707
▁Know	-14708
▁Move	-14709
▁Nato	-14710
▁Pink	-14711
▁Rand	-14712
▁Trip	-14713
▁curb	-14714
▁flip	-14715
▁pays	-14716
▁peer	-14717
▁pond	-14718
▁rang	-14719
napped	-14720
thodox	-14721
weeney	-14722
▁Foden	-14723
▁Malik	-14724
▁amend	-14725
▁arbit	-14726
▁blunt	-14727
▁embro	-14728
▁envoy	-14729
▁files	-14730
▁grows	-14731
▁jeans	-14732
▁opera	-14733
▁prost	-14734
▁spike	-14735
▁tooth	-14736
▁waist	-14737
hearted	-14738
ourable	-14739
reement	-14740
rington	-14741
undreds	-14742
▁Devils	-14743
▁Online	-14744
▁Scholz	-14745
▁Sheikh	-14746
▁Simone	-14747
▁Spirit	-14748
▁bubble	-14749
▁echoed	-14750
▁infant	-14751
▁layers	-14752
▁median	-14753
▁naming	-14754
▁pilots	-14755
▁powder	-14756
▁ripped	-14757
▁rubble	-14758
▁sequel	-14759
▁warmth	-14760
▁Belarus	-14761
▁Buffalo	-14762
▁Gilbert	-14763
▁Haitian	-14764
▁Leaders	-14765
▁Records	-14766
▁Welcome	-14767
▁balcony	-14768
▁balloon	-14769
▁clinics	-14770
▁dismant	-14771
▁disqual	-14772
▁justify	-14773
▁kicking	-14774
▁looming	-14775
▁matched	-14776
▁matchup	-14777
▁mixture	-14778
▁rallied	-14779
▁rehears	-14780
▁reserve	-14781
▁slashed	-14782
aceutical	-14783
▁Franklin	-14784
▁Midlands	-14785
▁Patriots	-14786
▁Reynolds	-14787
▁advisers	-14788
▁bullying	-14789
▁darkness	-14790
▁decisive	-14791
▁flexible	-14792
▁kindness	-14793
▁princess	-14794
▁reserved	-14795
▁companion	-14796
▁economics	-14797
▁evolution	-14798
▁fireworks	-14799
▁satisfied	-14800
▁sidelines	-14801
▁belongings	-14802
▁collecting	-14803
▁directions	-14804
▁wheelchair	-14805
▁Corporation	-14806
▁willingness	-14807
▁Thanksgiving	-14808
▁confirmation	-14809
/0	-14810
31	-14811
BE	-14812
FO	-14813
HD	-14814
Ob	-14815
WS	-14816
ea	-14817
ée	-14818
Pac	-14819
aji	-14820
cos	-14821
did	-14822
din	-14823
fig	-14824
hop	-14825
hra	-14826
hum	-14827
igo	-14828
iri	-14829
mid	-14830
ski	-14831
via	-14832
▁SC	-14833
Most	-14834
adan	-14835
alen	-14836
emet	-14837
eyed	-14838
gone	-14839
hide	-14840
▁30.	-14841
▁Alz	-14842
▁Cos	-14843
▁Cou	-14844
▁Eug	-14845
▁Few	-14846
▁IND	-14847
▁Iss	-14848
▁Kle	-14849
▁Ras	-14850
▁Sac	-14851
▁cub	-14852
▁fry	-14853
▁les	-14854
▁seg	-14855
erals	-14856
ighed	-14857
ocket	-14858
space	-14859
speed	-14860
udios	-14861
▁Cape	-14862
▁Eras	-14863
▁Evan	-14864
▁Kend	-14865
▁Mann	-14866
▁UEFA	-14867
▁Wang	-14868
▁dear	-14869
▁dess	-14870
▁holy	-14871
▁ling	-14872
▁lips	-14873
▁owed	-14874
engers	-14875
ijuana	-14876
itated	-14877
spoken	-14878
▁2013,	-14879
▁Ellis	-14880
▁Fried	-14881
▁Ghana	-14882
▁Gregg	-14883
▁Initi	-14884
▁Larry	-14885
▁Order	-14886
▁Spani	-14887
▁breed	-14888
▁downs	-14889
▁lease	-14890
▁seize	-14891
▁texts	-14892
▁trash	-14893
charged	-14894
gically	-14895
limited	-14896
respons	-14897
sharing	-14898
▁Brooks	-14899
▁Hassan	-14900
▁Hitler	-14901
▁Holmes	-14902
▁Racing	-14903
▁Rescue	-14904
▁Sebast	-14905
▁aboard	-14906
▁accent	-14907
▁cooler	-14908
▁curric	-14909
▁detain	-14910
▁humble	-14911
▁incons	-14912
▁jersey	-14913
▁lacked	-14914
▁poorly	-14915
▁refres	-14916
▁sheets	-14917
▁tasked	-14918
▁themes	-14919
▁unpaid	-14920
▁wished	-14921
▁Clement	-14922
▁Oakland	-14923
▁Pelicot	-14924
▁conting	-14925
▁dangers	-14926
▁enclave	-14927
▁newborn	-14928
▁pledges	-14929
▁possess	-14930
▁richest	-14931
▁stalled	-14932
▁tackles	-14933
▁Electric	-14934
▁Sterling	-14935
▁adoption	-14936
▁artistic	-14937
▁bleeding	-14938
▁detected	-14939
▁lifelong	-14940
▁maritime	-14941
▁persuade	-14942
▁wondered	-14943
controlled	-14944
▁enhancing	-14945
▁immigrant	-14946
▁liability	-14947
▁northwest	-14948
▁portrayed	-14949
▁reviewing	-14950
▁scattered	-14951
▁shootings	-14952
▁traumatic	-14953
threatening	-14954
▁Ambassador	-14955
▁Kardashian	-14956
▁campaigned	-14957
▁convincing	-14958
▁critically	-14959
▁emphasised	-14960
▁persistent	-14961
▁postseason	-14962
▁prosecuted	-14963
▁Immigration	-14964
▁Legislature	-14965
▁Premiership	-14966
▁demographic	-14967
▁influencers	-14968
▁counterparts	-14969
▁interactions	-14970
▁unbelievable	-14971
▁Investigation	-14972
▁cryptocurrency	-14973
▁simultaneously	-14974
82	-14975
HA	-14976
Her	-14977
ayo	-14978
gom	-14979
▁63	-14980
▁FI	-14981
▁Fo	-14982
▁Ts	-14983
▁XI	-14984
Form	-14985
Lago	-14986
affe	-14987
aleb	-14988
bank	-14989
baum	-14990
enth	-14991
felt	-14992
hist	-14993
keys	-14994
kind	-14995
ogyn	-14996
oria	-14997
ritz	-14998
rove	-14999
uffy	-15000
ulus	-15001
umin	-15002
vine	-15003
▁$50	-15004
▁35,	-15005
▁Joh	-15006
▁Nep	-15007
▁Pap	-15008
▁Put	-15009
▁RHP	-15010
▁YOU	-15011
▁fli	-15012
▁nep	-15013
▁£30	-15014
acker	-15015
peare	-15016
stars	-15017
[...]
