<unk>	0
<s>	0
</s>	0
▁the	-3.31194
,	-3.33113
.	-3.3658
s	-3.58151
▁to	-3.878
▁a	-4.01697
▁and	-4.01811
▁of	-4.06381
▁in	-4.21391
'	-4.22355
▁that	-4.86475
-	-4.86774
▁"	-4.87349
▁for	-4.91993
▁is	-5.00105
▁on	-5.00285
▁with	-5.19275
▁was	-5.20838
▁it	-5.30068
▁The	-5.3197
ing	-5.35643
▁I	-5.39075
t	-5.51862
▁as	-5.53499
▁at	-5.59423
▁said	-5.61088
▁be	-5.61355
▁he	-5.63304
▁have	-5.67284
▁has	-5.69694
▁from	-5.71599
▁his	-5.7228
ed	-5.75074
▁are	-5.76453
▁by	-5.78015
:	-5.83275
▁-	-5.89182
▁an	-5.95114
d	-5.9732
,"	-5.99853
▁this	-6.00205
▁not	-6.0061
▁you	-6.01493
"	-6.07074
."	-6.08851
▁who	-6.11759
▁her	-6.12699
▁will	-6.13003
▁they	-6.13771
▁their	-6.16215
▁	-6.1788
▁but	-6.19075
▁had	-6.21313
▁we	-6.24935
▁been	-6.25628
▁or	-6.31631
▁she	-6.32753
n	-6.33705
▁were	-6.3597
▁(	-6.37653
▁can	-6.3818
▁more	-6.39623
▁about	-6.40721
m	-6.43341
▁one	-6.43509
▁which	-6.44234
▁after	-6.4666
▁also	-6.46806
▁out	-6.47293
▁A	-6.47314
▁up	-6.47652
ly	-6.51969
)	-6.52723
re	-6.55124
▁It	-6.55455
▁would	-6.57144
▁all	-6.57236
▁'	-6.60056
▁people	-6.62482
▁when	-6.65412
▁He	-6.68524
▁over	-6.69198
▁so	-6.69199
I	-6.70105
y	-6.70634
▁time	-6.71615
▁In	-6.72448
er	-6.72727
e	-6.74401
▁like	-6.77249
▁just	-6.77651
▁its	-6.79331
a	-6.80026
▁into	-6.80323
▁there	-6.82216
▁than	-6.82983
▁first	-6.83841
▁my	-6.85335
▁two	-6.86399
▁what	-6.88138
▁year	-6.88616
▁But	-6.93427
▁them	-6.96684
▁him	-6.97153
▁our	-6.97894
▁do	-6.98112
▁years	-7.00447
▁new	-7.00653
▁could	-7.00741
▁if	-7.00774
▁your	-7.02173
▁last	-7.02293
▁other	-7.02716
▁Trump	-7.03004
ve	-7.04281
▁some	-7.05661
?	-7.06022
▁me	-7.0771
S	-7.08619
▁no	-7.11436
▁back	-7.1166
▁now	-7.12324
▁get	-7.14116
▁before	-7.19647
al	-7.22659
▁being	-7.22942
▁how	-7.24145
r	-7.24601
▁only	-7.27295
▁where	-7.27876
▁because	-7.30063
▁make	-7.32685
▁We	-7.33056
▁against	-7.33573
▁Mr	-7.33759
▁And	-7.34733
▁while	-7.35528
es	-7.35937
▁This	-7.37248
▁told	-7.37611
▁most	-7.38408
▁She	-7.39098
p	-7.39229
in	-7.40135
▁off	-7.40173
▁three	-7.40247
▁think	-7.42546
▁any	-7.4263
▁made	-7.4329
▁during	-7.44028
▁going	-7.44494
o	-7.44698
▁then	-7.44746
▁even	-7.45509
▁down	-7.45596
▁way	-7.46773
▁well	-7.47676
▁many	-7.48767
▁work	-7.50779
ll	-7.50817
/	-7.50891
▁those	-7.51192
▁home	-7.51372
▁very	-7.51404
▁know	-7.51938
▁around	-7.52383
▁don	-7.52637
▁says	-7.5265
▁day	-7.529
▁through	-7.5306
c	-7.5396
th	-7.54651
▁go	-7.56293
▁government	-7.57305
▁much	-7.57466
▁see	-7.58705
▁take	-7.58967
▁S	-7.58969
▁U	-7.59093
The	-7.60039
▁still	-7.60085
▁including	-7.60204
▁since	-7.60243
▁want	-7.60401
▁should	-7.60543
i	-7.60936
▁did	-7.61224
▁They	-7.6244
▁these	-7.63044
▁need	-7.65312
▁life	-7.66688
▁good	-7.67213
▁state	-7.67379
▁really	-7.6821
▁right	-7.68241
g	-7.68277
▁New	-7.68427
▁team	-7.68978
▁world	-7.69112
▁such	-7.69252
▁us	-7.69305
▁under	-7.70156
▁country	-7.70161
▁say	-7.70682
▁long	-7.70888
▁between	-7.71089
▁week	-7.71658
▁part	-7.73422
▁family	-7.74342
We	-7.75235
▁added	-7.75351
▁Biden	-7.75681
▁former	-7.75962
▁does	-7.76075
b	-7.76557
▁game	-7.77461
▁got	-7.78372
year	-7.78857
▁support	-7.80584
▁own	-7.81541
ers	-7.81897
▁left	-7.82887
▁per	-7.83353
▁come	-7.83633
▁may	-7.83682
;	-7.8382
▁another	-7.84382
▁show	-7.85253
▁both	-7.85483
on	-7.85658
▁end	-7.85862
▁next	-7.86028
▁found	-7.86105
▁second	-7.86837
▁help	-7.87251
It	-7.87298
▁best	-7.87616
C	-7.88111
▁set	-7.88509
▁four	-7.89051
▁That	-7.89649
to	-7.89767
▁President	-7.9029
old	-7.90759
▁There	-7.90779
▁same	-7.91122
▁high	-7.92202
▁season	-7.92295
A	-7.92312
man	-7.92366
▁place	-7.92537
▁un	-7.92745
▁too	-7.9328
▁US	-7.93723
▁re	-7.95096
▁As	-7.96304
▁never	-7.96417
▁public	-7.96635
▁So	-7.96824
an	-7.98159
▁million	-7.99071
▁media	-7.99345
▁according	-7.99599
en	-8.00389
▁lot	-8.00696
▁police	-8.01631
▁here	-8.02376
▁If	-8.0241
▁children	-8.0294
▁UK	-8.02973
▁de	-8.031
▁women	-8.03353
▁put	-8.0337
▁election	-8.03452
l	-8.03864
▁days	-8.04201
▁Israel	-8.04669
▁case	-8.04769
▁top	-8.04968
▁10	-8.0526
▁use	-8.05418
▁O	-8.05656
se	-8.057
▁across	-8.0607
▁every	-8.06345
▁five	-8.06514
▁man	-8.06987
f	-8.06993
▁company	-8.07525
k	-8.07553
▁party	-8.07579
▁won	-8.0761
▁look	-8.07734
▁For	-8.07801
▁didn	-8.07852
▁group	-8.08001
▁win	-8.08577
▁used	-8.09263
▁play	-8.0976
▁You	-8.09811
▁president	-8.09835
▁seen	-8.10178
▁took	-8.10223
▁away	-8.10422
▁always	-8.10988
▁called	-8.11701
▁later	-8.11773
▁E	-8.11875
▁campaign	-8.12783
▁something	-8.1288
▁came	-8.12966
▁months	-8.13459
▁2024	-8.1353
▁month	-8.13808
▁again	-8.13931
or	-8.14096
▁On	-8.14793
▁things	-8.14799
▁reported	-8.15335
▁might	-8.15452
▁health	-8.16876
▁far	-8.17661
▁social	-8.18102
▁United	-8.18161
▁without	-8.18506
▁few	-8.18557
▁keep	-8.1891
▁night	-8.19345
▁C	-8.19559
▁court	-8.20253
▁went	-8.20515
▁feel	-8.20926
▁little	-8.21261
le	-8.21281
▁big	-8.21519
▁better	-8.21662
▁war	-8.22447
▁One	-8.22894
▁each	-8.22902
▁[	-8.24169
]	-8.24221
▁final	-8.24751
▁B	-8.24824
▁having	-8.24981
▁When	-8.2529
▁love	-8.25297
▁start	-8.25436
▁change	-8.25594
▁find	-8.26237
▁making	-8.26244
!	-8.26314
▁D	-8.26736
▁However	-8.26958
▁past	-8.27063
▁six	-8.27107
▁number	-8.27108
▁money	-8.27322
▁already	-8.27525
B	-8.27526
▁political	-8.27544
G	-8.28006
▁different	-8.28279
▁city	-8.28401
▁great	-8.29216
▁To	-8.29503
▁wrote	-8.303
▁water	-8.30498
Credit	-8.30631
▁India	-8.30662
▁F	-8.30718
▁co	-8.30828
▁until	-8.31114
▁working	-8.31135
▁head	-8.31653
R	-8.31684
▁local	-8.31745
▁early	-8.3178
▁York	-8.32319
),	-8.32331
▁T	-8.32718
▁side	-8.33493
▁become	-8.33572
the	-8.33793
▁point	-8.34397
▁person	-8.34518
am	-8.3501
▁law	-8.35012
ic	-8.35091
▁No	-8.35364
▁school	-8.35417
▁Ukraine	-8.35691
▁star	-8.35704
▁Harris	-8.35884
▁full	-8.35911
▁recent	-8.36462
▁American	-8.36495
▁20	-8.36507
u	-8.36523
it	-8.36618
▁hard	-8.36721
▁report	-8.36738
T	-8.3727
▁able	-8.37311
▁car	-8.37596
▁At	-8.38275
▁post	-8.3836
▁following	-8.38803
▁2	-8.3885
▁power	-8.38955
▁face	-8.3898
▁statement	-8.39411
el	-8.39512
▁military	-8.3953
▁House	-8.39585
▁third	-8.39829
▁asked	-8.40194
▁must	-8.40198
▁1	-8.40369
up	-8.40753
▁run	-8.41202
D	-8.4123
h	-8.41252
▁M	-8.41547
▁give	-8.4157
▁After	-8.4182
▁why	-8.42359
▁Russia	-8.42484
▁attack	-8.42488
▁England	-8.42659
▁City	-8.42681
▁saying	-8.42765
▁Gaza	-8.434
▁hit	-8.43415
▁together	-8.43516
E	-8.43534
▁decision	-8.43696
▁ever	-8.43903
▁business	-8.44101
▁less	-8.4417
▁least	-8.44384
▁due	-8.444
▁P	-8.44588
▁thing	-8.44706
▁often	-8.44901
▁cent	-8.44949
▁young	-8.45131
▁among	-8.4564
▁men	-8.45851
▁half	-8.45885
▁getting	-8.46004
▁known	-8.46111
▁taken	-8.46628
ion	-8.46771
▁today	-8.46801
▁death	-8.46807
▁comes	-8.46822
able	-8.46894
co	-8.47011
▁future	-8.47033
▁Sunday	-8.47037
▁Friday	-8.47289
▁line	-8.47363
▁video	-8.47403
▁national	-8.47512
▁ago	-8.47523
▁Monday	-8.47804
▁whether	-8.47996
la	-8.48014
▁taking	-8.48332
).	-8.48501
▁London	-8.48583
ar	-8.48763
▁live	-8.49465
▁series	-8.49893
▁several	-8.49952
▁given	-8.50077
▁clear	-8.50081
F	-8.50266
▁South	-8.50608
2	-8.50648
▁times	-8.50759
▁players	-8.50879
▁Tuesday	-8.5101
▁close	-8.51052
▁thought	-8.51242
▁pay	-8.51329
▁started	-8.51368
▁5	-8.51405
▁12	-8.51542
▁move	-8.51753
▁doing	-8.51787
il	-8.51802
▁food	-8.51822
▁fans	-8.51965
ment	-8.52076
▁likely	-8.52184
▁though	-8.52222
▁enough	-8.52283
▁important	-8.52409
▁further	-8.52625
▁p	-8.52761
▁members	-8.52791
▁G	-8.52863
P	-8.52949
▁While	-8.52981
li	-8.53108
▁deal	-8.53175
▁system	-8.53239
▁office	-8.53985
N	-8.54136
▁May	-8.54137
▁open	-8.54156
▁done	-8.5428
▁With	-8.5458
▁real	-8.54581
▁security	-8.54606
▁China	-8.54885
▁free	-8.54902
ity	-8.54962
ter	-8.5513
▁expected	-8.55435
▁film	-8.5546
time	-8.55615
▁am	-8.55854
▁call	-8.55877
▁games	-8.55919
ation	-8.56054
▁once	-8.56056
▁Russian	-8.56196
K	-8.56312
▁X	-8.5653
▁area	-8.56542
5	-8.56562
...	-8.5685
▁W	-8.56923
▁K	-8.56955
▁What	-8.57106
▁role	-8.57158
▁Ms	-8.57182
▁behind	-8.57182
▁Wednesday	-8.57253
▁National	-8.57335
▁N	-8.57451
ne	-8.57531
▁19	-8.57754
▁continue	-8.57834
▁officials	-8.57861
▁State	-8.58022
ur	-8.58437
▁Thursday	-8.58537
na	-8.58542
▁care	-8.58622
▁4	-8.58868
less	-8.58882
W	-8.58962
▁job	-8.59023
ri	-8.59065
▁small	-8.5907
▁bit	-8.59268
▁looking	-8.59695
▁major	-8.5982
▁Minister	-8.60126
▁His	-8.6015
▁World	-8.60348
▁kind	-8.6056
▁coming	-8.60803
▁event	-8.60929
▁career	-8.60954
▁hours	-8.61038
▁played	-8.61099
▁lead	-8.61195
▁moment	-8.61221
▁experience	-8.61278
▁announced	-8.61294
▁yet	-8.61303
▁West	-8.61322
ton	-8.61515
▁shared	-8.6156
ul	-8.61664
▁An	-8.61751
▁return	-8.62186
ra	-8.62228
com	-8.62558
▁trying	-8.62679
▁community	-8.62709
▁news	-8.62715
no	-8.62733
ma	-8.63099
▁L	-8.63213
▁woman	-8.63549
▁mother	-8.6377
de	-8.63886
▁3	-8.63915
▁weeks	-8.63978
M	-8.64581
▁News	-8.64621
▁11	-8.64665
▁history	-8.64784
▁within	-8.64856
▁using	-8.64981
▁couple	-8.65075
▁15	-8.6515
▁Israeli	-8.65216
▁house	-8.65364
1	-8.65446
▁vote	-8.65612
st	-8.65683
us	-8.65694
▁body	-8.65931
":"	-8.66017
z	-8.66429
▁name	-8.66592
▁Donald	-8.66605
▁along	-8.66778
▁data	-8.66833
▁killed	-8.66917
▁near	-8.66988
▁market	-8.67252
▁late	-8.67688
▁saw	-8.67774
▁All	-8.67804
▁record	-8.68214
▁plan	-8.68308
▁cost	-8.68318
▁Saturday	-8.68326
▁almost	-8.68468
▁June	-8.68658
▁club	-8.68941
▁air	-8.68955
3	-8.69328
▁course	-8.69524
▁sure	-8.69983
ry	-8.70126
▁points	-8.70288
▁earlier	-8.70399
un	-8.70711
▁tell	-8.71012
▁process	-8.71345
▁summer	-8.71379
id	-8.71385
▁minutes	-8.71536
▁wanted	-8.71598
▁ahead	-8.72014
▁believe	-8.72083
ce	-8.72187
▁everything	-8.72195
▁lost	-8.72406
▁led	-8.72463
is	-8.7248
▁old	-8.72611
▁July	-8.72626
▁someone	-8.72662
▁Court	-8.72745
▁League	-8.73103
▁October	-8.73104
ive	-8.73205
▁revealed	-8.73329
▁outside	-8.73367
ist	-8.73497
▁Re	-8.73601
▁forward	-8.73659
te	-8.73737
▁leader	-8.73747
▁British	-8.74023
▁Dr	-8.7405
▁18	-8.74135
lo	-8.74474
▁Al	-8.74728
▁try	-8.74759
▁age	-8.74833
▁result	-8.74856
,""	-8.74907
as	-8.74943
▁staff	-8.74988
▁race	-8.75144
▁felt	-8.7528
▁story	-8.75281
▁issues	-8.75341
▁countries	-8.75451
▁son	-8.75585
▁hand	-8.75585
▁...	-8.75642
▁March	-8.7568
4	-8.75803
▁7	-8.75815
▁R	-8.75891
x	-8.76017
▁Republican	-8.76053
▁front	-8.76061
▁risk	-8.76118
▁order	-8.76301
▁service	-8.76485
▁international	-8.76588
w	-8.76792
out	-8.76864
ir	-8.76897
▁online	-8.76962
This	-8.77042
▁held	-8.77043
▁price	-8.77204
▁means	-8.77235
▁January	-8.77338
▁November	-8.77425
son	-8.77429
▁others	-8.77577
and	-8.77653
▁fire	-8.78006
ie	-8.78007
▁Black	-8.78041
▁minister	-8.78105
▁legal	-8.78168
8	-8.78197
▁level	-8.78292
▁died	-8.78538
▁H	-8.78752
▁key	-8.78771
▁April	-8.78822
9	-8.78845
ro	-8.78951
▁pre	-8.79005
▁everyone	-8.79017
▁policy	-8.79081
ness	-8.79132
▁action	-8.79298
▁began	-8.79464
ta	-8.79492
est	-8.79638
▁director	-8.79847
▁child	-8.7989
7	-8.80042
▁voters	-8.80155
▁issue	-8.80463
▁North	-8.80471
▁La	-8.805
▁tax	-8.805
ling	-8.8059
▁special	-8.80766
▁short	-8.80786
▁cut	-8.8129
▁became	-8.81324
▁University	-8.81488
▁fact	-8.81521
▁playing	-8.81549
▁nearly	-8.81568
▁Labour	-8.81674
▁energy	-8.81947
ck	-8.82065
▁6	-8.82254
▁let	-8.82417
He	-8.82445
▁possible	-8.83132
▁30	-8.83283
▁information	-8.8341
▁seven	-8.83441
ia	-8.83459
▁building	-8.83593
▁single	-8.8371
O	-8.83791
▁released	-8.83829
▁percent	-8.8386
▁wife	-8.83881
▁running	-8.83888
do	-8.83928
ch	-8.84079
▁access	-8.84135
▁recently	-8.84284
▁official	-8.84315
▁space	-8.84409
▁bring	-8.85199
H	-8.85287
▁large	-8.85301
▁stop	-8.85861
▁America	-8.85884
V	-8.85946
▁St	-8.86041
▁shows	-8.86097
▁Washington	-8.86293
▁himself	-8.863
▁Police	-8.86673
▁Scotland	-8.87058
▁chief	-8.87065
▁John	-8.87092
▁anything	-8.87245
▁father	-8.87262
▁De	-8.87382
▁offer	-8.87458
▁leave	-8.87485
▁J	-8.87588
▁friends	-8.87613
▁living	-8.87638
▁interview	-8.87963
▁room	-8.88046
▁TV	-8.88079
▁available	-8.88301
▁Man	-8.8845
▁My	-8.88696
▁plans	-8.88946
▁European	-8.89008
▁hope	-8.89099
▁14	-8.89342
▁actually	-8.89395
▁eight	-8.89553
▁player	-8.8962
▁services	-8.89952
▁match	-8.89974
▁pro	-8.89997
▁latest	-8.90091
▁interest	-8.90403
▁especially	-8.90452
▁meeting	-8.90473
▁position	-8.90506
▁13	-8.9076
6	-8.91028
▁federal	-8.91042
▁control	-8.91089
▁response	-8.91241
▁Some	-8.91252
▁strong	-8.91336
▁8	-8.91357
▁financial	-8.91494
▁potential	-8.91692
▁Co	-8.91846
▁share	-8.91878
▁rate	-8.91937
me	-8.91989
▁heart	-8.92029
▁book	-8.92117
ley	-8.92434
▁students	-8.92438
▁billion	-8.92496
▁AI	-8.92532
▁include	-8.92574
▁goal	-8.92605
▁despite	-8.92646
ty	-8.92905
▁ball	-8.9293
▁music	-8.93065
▁current	-8.93111
▁lives	-8.93123
▁provide	-8.9313
▁claimed	-8.93168
ge	-8.934
ian	-8.9355
▁comment	-8.93648
▁trial	-8.93725
▁significant	-8.93832
▁impact	-8.93889
▁September	-8.93967
▁industry	-8.9417
▁incident	-8.94209
ted	-8.94326
▁border	-8.94349
▁received	-8.94516
▁human	-8.94543
▁economic	-8.94897
▁States	-8.9493
ba	-8.94937
▁parents	-8.95007
▁Joe	-8.95098
▁stage	-8.95161
▁August	-8.95512
▁stay	-8.95553
▁relationship	-8.95587
▁White	-8.95645
▁allow	-8.95646
▁daughter	-8.95714
be	-8.95776
▁football	-8.95972
▁focus	-8.96016
▁needs	-8.96165
▁low	-8.96382
▁hospital	-8.96546
ary	-8.966
▁16	-8.96734
ad	-8.96868
▁nothing	-8.96876
▁morning	-8.97077
▁Now	-8.97194
▁quite	-8.97212
▁continued	-8.97466
▁According	-8.97502
▁Hamas	-8.97523
▁companies	-8.97605
▁makes	-8.97749
▁Her	-8.9775
▁turn	-8.97772
▁presidential	-8.97947
led	-8.9801
▁Day	-8.98026
▁Instagram	-8.98035
▁needed	-8.98059
▁investigation	-8.98091
ish	-8.9813
▁states	-8.98165
▁shot	-8.98201
▁question	-8.98662
▁release	-8.9888
▁region	-8.9891
U	-8.98981
ant	-8.99121
▁California	-8.99208
▁Indian	-8.99231
mo	-8.99476
▁matter	-8.99621
▁&	-8.99754
▁whole	-8.99843
▁ground	-8.99898
▁general	-8.99939
You	-9.00233
▁soon	-9.00234
▁increase	-9.00257
▁50	-9.00279
da	-9.0033
?"	-9.00414
▁showed	-9.00526
_	-9.00622
▁performance	-9.00633
▁global	-9.00689
L	-9.00756
▁evidence	-9.00946
▁Images	-9.00947
▁Congress	-9.01057
▁chance	-9.01296
▁leading	-9.01337
age	-9.01494
▁Department	-9.01495
▁2023	-9.01533
▁accused	-9.01579
ting	-9.0167
▁previously	-9.01732
▁white	-9.01737
ate	-9.01826
▁BBC	-9.02169
▁rather	-9.02382
▁based	-9.02385
▁fight	-9.02508
▁example	-9.02827
ine	-9.02909
▁2022	-9.02958
▁total	-9.02995
▁period	-9.03026
▁France	-9.03057
▁economy	-9.03162
▁huge	-9.03262
▁happened	-9.03416
▁claims	-9.03608
▁administration	-9.03724
▁term	-9.03733
▁met	-9.03763
▁confirmed	-9.03839
▁Democratic	-9.03958
>	-9.04152
▁pressure	-9.04172
ol	-9.04242
um	-9.04343
▁difficult	-9.04386
▁longer	-9.044
▁Paris	-9.0448
▁situation	-9.04525
▁gave	-9.04529
▁These	-9.04643
▁San	-9.04661
▁safety	-9.04754
at	-9.04913
▁Cup	-9.04941
▁Le	-9.05122
0	-9.05172
ies	-9.0522
▁higher	-9.05224
▁involved	-9.05464
▁worked	-9.05535
▁anyone	-9.056
▁How	-9.05688
▁inside	-9.06117
▁remains	-9.0633
▁Getty	-9.06371
▁sent	-9.0647
▁coach	-9.06636
▁idea	-9.0664
▁ensure	-9.06652
▁round	-9.06716
▁personal	-9.0679
▁leaders	-9.06978
▁average	-9.07231
▁December	-9.07285
▁pair	-9.07288
▁form	-9.07292
▁brought	-9.07513
line	-9.07628
▁husband	-9.0764
▁en	-9.07912
▁private	-9.07958
ti	-9.08042
▁phone	-9.08101
rs	-9.08245
There	-9.08415
di	-9.0848
ent	-9.085
▁spent	-9.08575
▁workers	-9.08678
▁list	-9.08961
▁hold	-9.08998
▁currently	-9.09219
▁victory	-9.09284
▁particularly	-9.0937
▁anti	-9.09644
▁meet	-9.09673
▁research	-9.09722
▁problem	-9.09775
▁stand	-9.09841
▁reports	-9.09929
▁remain	-9.10067
▁break	-9.10295
▁mean	-9.10396
sh	-9.10397
one	-9.10427
▁similar	-9.10572
▁non	-9.10596
▁growth	-9.10765
▁French	-9.10967
▁biggest	-9.10974
▁step	-9.10994
▁travel	-9.10996
▁instead	-9.11011
▁visit	-9.11072
ous	-9.11183
▁areas	-9.11261
▁loss	-9.11282
▁board	-9.11295
▁rights	-9.11388
▁member	-9.11544
▁heard	-9.11667
▁Pro	-9.11782
▁manager	-9.11823
▁bill	-9.11891
im	-9.1222
▁ex	-9.12233
▁results	-9.12485
▁via	-9.12641
▁success	-9.12727
▁weekend	-9.12829
▁isn	-9.12913
▁self	-9.13005
▁lower	-9.13081
▁tried	-9.13096
▁King	-9.1328
lu	-9.13302
▁account	-9.1353
▁Do	-9.13538
▁David	-9.13663
▁capital	-9.13903
▁9	-9.13909
▁February	-9.13918
▁bad	-9.13976
▁kids	-9.14013
▁Ra	-9.1409
▁light	-9.14124
▁red	-9.14208
ni	-9.14211
▁sense	-9.14292
▁cancer	-9.14332
▁happy	-9.14423
▁turned	-9.14436
▁talk	-9.14474
▁senior	-9.14542
▁friend	-9.14552
▁watch	-9.14724
▁foreign	-9.14755
▁100	-9.1483
▁described	-9.14846
▁development	-9.14885
▁rest	-9.14997
▁Europe	-9.15267
▁either	-9.15298
▁costs	-9.15382
land	-9.15402
▁violence	-9.15427
▁la	-9.15461
▁else	-9.15567
▁James	-9.15695
▁black	-9.15817
▁appeared	-9.15855
▁Australia	-9.15889
ten	-9.15966
▁probably	-9.16066
▁worth	-9.1611
▁included	-9.16125
▁road	-9.16148
▁Democrats	-9.16169
▁families	-9.16188
go	-9.163
▁County	-9.16454
▁previous	-9.16553
ut	-9.16703
▁however	-9.1675
▁knew	-9.16829
▁medical	-9.17244
ally	-9.17288
▁events	-9.17317
▁brand	-9.1735
▁town	-9.17354
▁nation	-9.174
ful	-9.17475
ism	-9.17572
▁towards	-9.17721
▁wrong	-9.17727
▁reason	-9.17822
▁opportunity	-9.17861
Picture	-9.18038
▁themselves	-9.18251
▁Christmas	-9.18255
▁build	-9.18312
▁cases	-9.18406
▁V	-9.18416
▁concerns	-9.1866
▁debate	-9.18818
▁create	-9.18963
▁scene	-9.19069
▁criminal	-9.19085
▁nine	-9.19172
J	-9.19176
▁Park	-9.19297
▁Britain	-9.19299
▁cause	-9.19358
▁land	-9.19409
▁Iran	-9.19434
▁gone	-9.19488
▁popular	-9.19544
off	-9.19704
▁main	-9.19708
▁Prime	-9.19827
▁amount	-9.20028
▁arrested	-9.20152
▁easy	-9.20237
▁17	-9.2026
▁understand	-9.20354
▁looked	-9.20401
▁authorities	-9.20494
▁force	-9.20598
▁allowed	-9.2063
▁Los	-9.20707
▁aid	-9.20724
of	-9.20816
▁candidate	-9.20825
wa	-9.20882
▁Party	-9.20927
▁Africa	-9.20967
▁conditions	-9.20971
per	-9.2107
▁climate	-9.21166
▁murder	-9.2125
based	-9.21253
▁Another	-9.21564
▁East	-9.21587
▁quarter	-9.21588
▁Be	-9.21635
▁quickly	-9.21647
day	-9.21749
▁sign	-9.21888
▁launched	-9.21925
▁efforts	-9.2196
ka	-9.2219
▁leaving	-9.22374
ee	-9.22391
▁project	-9.22435
▁Ukrainian	-9.22516
▁con	-9.22759
▁fall	-9.22787
▁gold	-9.22897
▁prison	-9.22901
▁forces	-9.23028
▁More	-9.23038
▁partner	-9.2309
▁majority	-9.23098
▁moved	-9.23162
▁training	-9.23366
▁agency	-9.23466
▁40	-9.23484
by	-9.23504
▁prices	-9.23698
▁Last	-9.23842
ru	-9.23995
If	-9.24196
▁centre	-9.24325
▁field	-9.24378
▁buy	-9.24384
ci	-9.24423
▁decided	-9.24575
▁range	-9.24601
▁crisis	-9.24713
▁growing	-9.24786
▁questions	-9.24786
0,000	-9.24942
▁oil	-9.25046
▁helped	-9.25125
▁posted	-9.25182
ak	-9.25194
▁happen	-9.25225
▁winning	-9.25337
▁Paul	-9.25468
▁attacks	-9.2552
▁By	-9.25529
ner	-9.25588
▁Mar	-9.25606
▁serious	-9.25838
▁speech	-9.26042
20	-9.26155
▁adding	-9.26288
▁25	-9.26339
▁study	-9.26342
▁charges	-9.26402
▁cannot	-9.2648
▁pick	-9.26483
▁treatment	-9.26511
,000	-9.26629
▁paid	-9.26705
▁dead	-9.26709
et	-9.26816
▁multiple	-9.2683
They	-9.26968
▁terms	-9.27011
▁date	-9.27026
▁fan	-9.27131
▁read	-9.2715
▁myself	-9.27397
▁Times	-9.27789
▁extra	-9.2781
▁d	-9.2786
ha	-9.27941
▁changes	-9.28093
▁Even	-9.28195
▁ready	-9.28234
▁decades	-9.28248
▁message	-9.28249
▁strike	-9.28295
▁press	-9.28458
▁save	-9.2852
▁claim	-9.28648
hi	-9.28769
▁elections	-9.28968
▁thousands	-9.2897
pm	-9.29328
▁groups	-9.29706
▁Smith	-9.29857
▁Chinese	-9.29993
▁Red	-9.30149
▁executive	-9.30205
▁mind	-9.30211
▁Michael	-9.30441
▁opening	-9.30554
▁itself	-9.30781
":	-9.30794
▁site	-9.30815
▁rules	-9.31058
▁model	-9.31106
▁safe	-9.3113
▁Americans	-9.31254
▁prevent	-9.31278
▁followed	-9.31447
▁lack	-9.31622
▁production	-9.31633
▁property	-9.31766
▁alongside	-9.31776
▁title	-9.31796
▁Not	-9.31818
▁goes	-9.31845
ca	-9.3186
▁platform	-9.31863
way	-9.31872
▁Street	-9.31912
▁takes	-9.31985
▁wants	-9.32055
▁certain	-9.32208
In	-9.32234
▁giving	-9.32372
vo	-9.32394
▁El	-9.325
▁Dur	-9.32648
▁rise	-9.32675
▁f	-9.3275
▁investment	-9.32955
▁rates	-9.33029
▁Of	-9.33107
▁Scottish	-9.33122
00	-9.333
▁immediately	-9.33328
▁fourth	-9.33337
▁fun	-9.334
▁Go	-9.33439
▁hair	-9.33458
▁officer	-9.33556
▁attention	-9.33568
▁Me	-9.33705
ating	-9.33742
▁ended	-9.33743
▁address	-9.33932
▁failed	-9.33935
▁24	-9.33937
▁e	-9.3431
j	-9.34392
we	-9.34424
▁Manchester	-9.3449
back	-9.34506
▁approach	-9.34548
▁reach	-9.34572
▁sex	-9.34714
▁challenge	-9.34769
▁customers	-9.35011
▁officers	-9.35141
▁source	-9.35169
▁Ben	-9.35382
ex	-9.35402
▁remember	-9.35405
▁Meanwhile	-9.35408
▁2020	-9.35503
▁eye	-9.35542
▁inflation	-9.35552
▁forced	-9.35564
▁true	-9.35603
han	-9.35619
▁program	-9.35637
▁Germany	-9.35653
▁War	-9.3567
▁couldn	-9.35706
▁budget	-9.35725
▁explained	-9.35845
▁raised	-9.35865
▁view	-9.35975
▁spending	-9.35983
▁bar	-9.36062
▁hear	-9.36094
▁prime	-9.36184
▁published	-9.36213
op	-9.36298
▁Bar	-9.36335
▁Ireland	-9.36351
▁conflict	-9.36436
▁talking	-9.36457
▁above	-9.36497
▁looks	-9.36521
▁drive	-9.36551
v	-9.36688
!"	-9.36838
▁products	-9.36865
▁21	-9.36946
▁spokesperson	-9.36966
▁Sun	-9.36976
▁website	-9.37124
▁character	-9.37126
▁protect	-9.37252
But	-9.37629
▁hands	-9.37751
▁conference	-9.37913
▁walk	-9.37915
▁reached	-9.37924
▁ask	-9.38089
▁host	-9.38214
▁Bo	-9.38237
▁value	-9.38456
▁alleged	-9.38465
▁feeling	-9.38583
▁People	-9.38598
▁Government	-9.38713
ff	-9.38854
▁expect	-9.3886
▁Despite	-9.39041
mi	-9.39163
▁Texas	-9.3919
▁Mo	-9.39202
den	-9.39233
▁actor	-9.39468
▁central	-9.39519
▁judge	-9.39524
▁league	-9.39532
▁Ca	-9.39533
ga	-9.39648
▁spot	-9.39658
les	-9.39717
▁firm	-9.39882
pe	-9.39943
▁technology	-9.40002
▁effort	-9.40006
▁levels	-9.40053
▁test	-9.40109
▁starting	-9.40217
▁offers	-9.40279
▁skin	-9.40301
▁spoke	-9.40306
▁ban	-9.40309
▁blood	-9.40373
é	-9.40421
▁parties	-9.4055
▁built	-9.40668
▁fell	-9.40882
▁weather	-9.41145
term	-9.41156
▁avoid	-9.41496
▁runs	-9.41517
▁damage	-9.41541
▁review	-9.41595
▁Johnson	-9.41658
▁named	-9.41868
▁trust	-9.41991
▁trip	-9.42039
▁crime	-9.42045
▁table	-9.42077
▁words	-9.42101
▁problems	-9.42108
▁teams	-9.42248
ard	-9.42269
▁track	-9.42281
▁Republicans	-9.42298
▁sexual	-9.42307
▁includes	-9.42318
▁First	-9.42327
▁seat	-9.42348
ho	-9.4235
▁injury	-9.42468
▁deep	-9.42492
▁seems	-9.42602
▁trade	-9.42603
▁politics	-9.42613
▁Office	-9.42707
▁Na	-9.42791
▁wait	-9.42861
▁Con	-9.42908
▁Sa	-9.42937
▁competition	-9.42955
os	-9.43046
ised	-9.43062
▁pretty	-9.43129
▁sea	-9.43175
▁warned	-9.43196
▁quality	-9.43326
▁residents	-9.43377
▁kept	-9.43457
ke	-9.43551
▁pass	-9.43756
▁challenges	-9.43765
▁follow	-9.43767
▁Putin	-9.43806
▁joined	-9.43923
▁comments	-9.43929
dy	-9.43942
▁gas	-9.44247
▁movie	-9.44269
▁changed	-9.44283
he	-9.44308
▁Council	-9.44468
▁Angeles	-9.44484
Y	-9.44573
▁design	-9.44639
ya	-9.44735
▁charge	-9.44781
ki	-9.44823
▁mental	-9.44993
▁compared	-9.45054
▁EU	-9.45154
▁green	-9.45165
▁Fox	-9.45175
▁goals	-9.45176
▁attempt	-9.45208
▁2024.	-9.45282
▁Two	-9.4534
▁heat	-9.45363
▁demand	-9.45394
▁Many	-9.45418
▁TikTok	-9.45492
▁Florida	-9.45661
▁returned	-9.45708
▁funding	-9.45779
▁base	-9.45935
▁double	-9.45961
▁clean	-9.46004
▁bank	-9.46008
po	-9.46017
▁y	-9.4616
▁baby	-9.46179
▁$1	-9.46219
▁Ba	-9.4626
▁hearing	-9.46359
▁act	-9.46386
▁Harry	-9.46535
▁Bank	-9.46568
ated	-9.46608
ver	-9.46692
▁leadership	-9.46704
▁alone	-9.46706
▁From	-9.46728
▁simply	-9.46867
▁voice	-9.46925
▁art	-9.46963
ring	-9.46981
▁hot	-9.47024
▁dis	-9.47026
▁positive	-9.47076
▁beat	-9.4715
▁ways	-9.47197
▁communities	-9.47215
▁users	-9.47461
ier	-9.47525
▁various	-9.47563
▁common	-9.4759
▁spend	-9.47636
con	-9.47911
▁condition	-9.47995
▁opened	-9.48019
That	-9.48059
▁caused	-9.48076
▁opposition	-9.48089
▁cover	-9.48123
▁Then	-9.48199
▁shooting	-9.48236
▁issued	-9.48237
▁perfect	-9.48296
▁population	-9.48442
ler	-9.48449
▁signed	-9.485
▁credit	-9.48546
lin	-9.48622
▁throughout	-9.48728
▁details	-9.48742
ance	-9.48866
▁ten	-9.48878
▁£1	-9.489
▁Senate	-9.48981
▁calls	-9.48985
▁Lo	-9.49037
▁consider	-9.49101
▁George	-9.49152
red	-9.49197
▁threat	-9.49222
▁tour	-9.49234
▁choice	-9.49266
ham	-9.49281
ise	-9.49323
▁noted	-9.49375
▁present	-9.49392
▁cash	-9.49522
▁evening	-9.4956
▁holiday	-9.4963
▁calling	-9.49636
▁passed	-9.49661
▁culture	-9.49693
▁join	-9.49751
bi	-9.4976
▁g	-9.49832
▁features	-9.49988
▁seeing	-9.49997
tic	-9.50016
▁2022,	-9.5009
▁largest	-9.50122
▁works	-9.50216
▁Royal	-9.50248
ah	-9.50297
▁charged	-9.50307
▁content	-9.50371
▁increased	-9.50457
Getty	-9.50731
▁version	-9.50768
▁sometimes	-9.50945
▁Since	-9.50963
ac	-9.50994
▁highest	-9.51025
▁speak	-9.51195
bo	-9.51202
min	-9.51271
▁housing	-9.51482
▁receive	-9.51619
▁created	-9.51653
▁defense	-9.51676
▁amid	-9.51718
der	-9.5173
▁target	-9.51782
▁sector	-9.51857
▁agreed	-9.51861
▁cast	-9.51998
▁International	-9.52029
▁meant	-9.5205
▁drug	-9.52064
ster	-9.52066
ever	-9.52131
▁dog	-9.52158
▁app	-9.52171
▁Premier	-9.52207
▁check	-9.52229
▁girl	-9.52235
▁improve	-9.52242
▁2024,	-9.52327
▁Here	-9.52361
▁Supreme	-9.52394
▁injured	-9.52429
▁jobs	-9.52441
▁considered	-9.52537
▁Taylor	-9.52585
▁2021	-9.52637
▁ongoing	-9.52667
▁crowd	-9.52845
▁Apple	-9.52953
▁Ro	-9.52973
▁homes	-9.53138
▁Ar	-9.53148
50	-9.53148
va	-9.53198
▁middle	-9.53324
▁sales	-9.53454
▁sports	-9.53454
▁journey	-9.535
▁score	-9.53515
▁Palestinian	-9.53581
▁policies	-9.53686
▁pain	-9.53808
▁sport	-9.53823
▁class	-9.53899
▁hotel	-9.5396
AP	-9.53977
ja	-9.53994
▁reduce	-9.54177
▁band	-9.54183
▁peace	-9.54245
▁offered	-9.54309
▁Mark	-9.54332
▁Tom	-9.54526
▁progress	-9.54603
▁massive	-9.54641
▁2023,	-9.54656
▁fast	-9.54884
▁style	-9.54896
▁launch	-9.54906
▁missing	-9.5491
▁thinking	-9.54975
▁Sir	-9.5498
▁floor	-9.55018
▁entire	-9.55022
▁22	-9.55023
▁Ka	-9.55083
▁v	-9.55112
ec	-9.55141
▁flight	-9.55303
▁victims	-9.55315
▁2016	-9.55361
ng	-9.55377
ft	-9.55383
nd	-9.55409
tra	-9.55419
▁Ko	-9.55597
▁grow	-9.55624
▁fighting	-9.55627
▁contract	-9.55643
▁businesses	-9.55762
▁education	-9.55869
▁Or	-9.56028
▁camp	-9.56133
ized	-9.56258
▁finally	-9.56297
▁straight	-9.5632
▁Vi	-9.56329
▁reality	-9.56374
▁weight	-9.56389
uk	-9.56428
▁benefit	-9.56451
▁Li	-9.56473
▁abuse	-9.5649
▁abortion	-9.56531
▁Union	-9.56539
▁provided	-9.56606
▁enjoy	-9.56657
▁beyond	-9.56702
▁primary	-9.56728
▁fear	-9.56777
▁station	-9.56873
▁council	-9.5689
▁English	-9.569
▁facing	-9.56908
▁serve	-9.56933
▁patients	-9.56957
X	-9.57063
▁suggest	-9.57077
▁Justice	-9.5709
▁critical	-9.57156
▁mid	-9.57287
▁rule	-9.57312
▁Over	-9.57313
▁scored	-9.57348
▁killing	-9.57403
▁cross	-9.57419
▁Amazon	-9.5767
ger	-9.57812
que	-9.57997
ey	-9.58016
▁additional	-9.58158
tion	-9.58173
▁Our	-9.58227
side	-9.58316
▁candidates	-9.58343
▁Act	-9.58392
▁north	-9.58441
▁60	-9.58513
▁schools	-9.58615
▁ability	-9.58619
▁effect	-9.58621
▁injuries	-9.58636
▁loved	-9.58648
▁Ho	-9.58658
▁natural	-9.58699
▁Just	-9.5877
ward	-9.58822
▁pandemic	-9.58849
▁Wales	-9.58854
pa	-9.58891
&	-9.59014
▁south	-9.59022
▁decade	-9.59041
▁sold	-9.59077
▁Ja	-9.59157
▁figure	-9.592
▁card	-9.59249
▁maintain	-9.59297
▁High	-9.59404
▁debt	-9.59419
▁emergency	-9.59422
▁student	-9.59425
for	-9.59436
▁Car	-9.59477
▁lose	-9.595
30	-9.59519
▁photo	-9.59521
▁al	-9.5956
▁moving	-9.59617
▁feels	-9.59682
▁faced	-9.5969
field	-9.59764
▁tournament	-9.59812
▁justice	-9.59924
▁subject	-9.6001
▁Spain	-9.60023
ial	-9.60069
▁fine	-9.60125
▁Kamala	-9.60217
▁sell	-9.60218
▁numbers	-9.60223
tro	-9.6028
▁influence	-9.60324
▁o	-9.60407
▁although	-9.60407
▁complete	-9.60419
▁Olympic	-9.60444
▁defeat	-9.60486
▁Prince	-9.60541
And	-9.60551
▁boost	-9.60738
mer	-9.60791
▁certainly	-9.60801
▁seats	-9.60906
▁figures	-9.61005
▁showing	-9.61128
▁poll	-9.61216
▁options	-9.61238
▁store	-9.61279
▁professional	-9.61321
▁Can	-9.61351
▁college	-9.61404
▁arrived	-9.61495
▁miles	-9.61563
▁civil	-9.61592
▁hundreds	-9.61639
▁respect	-9.61721
▁worse	-9.61801
▁benefits	-9.6187
▁required	-9.62052
ging	-9.6209
▁fair	-9.62101
▁becoming	-9.62297
▁brother	-9.62308
▁Service	-9.62518
▁fit	-9.6255
▁winner	-9.62572
▁size	-9.62581
▁Health	-9.62625
ning	-9.62652
▁guilty	-9.62833
▁contact	-9.62917
▁Jo	-9.62932
▁fully	-9.62945
▁$2	-9.62982
▁married	-9.63022
▁defence	-9.63034
▁herself	-9.63057
za	-9.63092
▁telling	-9.63186
vi	-9.63239
▁hour	-9.63245
▁sleep	-9.63367
▁watching	-9.6338
What	-9.63431
▁fuel	-9.63438
em	-9.63443
▁Jones	-9.63473
che	-9.63502
▁views	-9.63548
▁Po	-9.63614
▁General	-9.63661
▁suggested	-9.63768
▁author	-9.63828
When	-9.63843
▁planning	-9.6386
▁served	-9.63932
▁income	-9.6397
▁Khan	-9.63974
▁search	-9.64014
My	-9.64081
▁wide	-9.64143
▁environment	-9.64173
▁practice	-9.64196
So	-9.64204
▁fresh	-9.64229
▁commitment	-9.64259
▁dangerous	-9.64275
▁tough	-9.64298
▁gets	-9.6437
▁door	-9.64397
▁eventually	-9.64473
▁add	-9.64488
▁seemed	-9.6456
▁picture	-9.64572
▁female	-9.64672
▁train	-9.64717
▁limited	-9.64723
▁German	-9.64771
▁debut	-9.64778
▁experts	-9.64985
▁Ru	-9.65026
▁original	-9.65162
ite	-9.65264
▁sort	-9.65289
▁driving	-9.653
▁option	-9.65328
▁BJP	-9.65512
▁Du	-9.65735
▁physical	-9.65779
▁completely	-9.65879
▁Queen	-9.6593
▁song	-9.65944
▁driver	-9.65998
▁Z	-9.66246
▁Martin	-9.66261
▁annual	-9.66402
all	-9.66461
▁draw	-9.66479
▁warning	-9.66479
▁believed	-9.66567
▁Jan	-9.66575
▁agreement	-9.66584
▁squad	-9.66584
▁regular	-9.66614
▁particular	-9.66826
▁deliver	-9.669
hu	-9.66904
▁super	-9.66919
▁send	-9.66968
▁letter	-9.6704
▁continues	-9.67053
▁parts	-9.67076
▁offering	-9.67179
▁district	-9.67217
▁box	-9.67247
▁beautiful	-9.67256
gi	-9.6729
▁camera	-9.67297
▁Williams	-9.67412
▁writing	-9.67421
▁admitted	-9.67615
▁rally	-9.67616
▁word	-9.67681
▁rain	-9.67683
▁illegal	-9.67688
▁appeal	-9.67724
ber	-9.6781
cu	-9.67824
▁23	-9.67868
▁learn	-9.67916
▁eyes	-9.67977
▁park	-9.68026
▁usually	-9.68096
▁Ne	-9.68162
▁ran	-9.68219
▁Mike	-9.68267
kin	-9.684
▁Green	-9.68441
▁simple	-9.68469
ze	-9.68484
▁gun	-9.68522
▁allegations	-9.68598
▁closed	-9.68646
▁designed	-9.68653
▁answer	-9.68672
▁feature	-9.68709
▁Chief	-9.68763
▁Most	-9.68799
▁seem	-9.68841
▁finish	-9.6891
▁Hu	-9.68945
▁dream	-9.68999
▁measures	-9.69016
▁Sam	-9.69066
▁CEO	-9.69116
▁individual	-9.69191
▁path	-9.69193
▁foot	-9.69194
▁push	-9.69255
▁sale	-9.69264
▁album	-9.69333
▁sister	-9.69339
▁committed	-9.69358
▁asking	-9.69526
▁seeking	-9.6953
▁southern	-9.69551
▁heavy	-9.69566
ud	-9.69573
▁supporters	-9.69593
▁older	-9.69648
▁user	-9.69754
▁waiting	-9.69763
▁arrest	-9.69773
ble	-9.69803
▁singer	-9.69864
ach	-9.69869
▁Test	-9.69874
▁network	-9.69888
ence	-9.69903
▁independent	-9.69923
▁Group	-9.69992
▁Don	-9.69998
▁Air	-9.70032
▁born	-9.70155
▁coast	-9.70197
▁Open	-9.70217
▁brain	-9.70298
ub	-9.70313
so	-9.70385
▁Bill	-9.7042
▁perhaps	-9.70425
She	-9.70462
▁dad	-9.70477
Those	-9.70655
▁secretary	-9.70657
type	-9.70693
▁addition	-9.70746
▁stories	-9.70779
▁denied	-9.70865
▁School	-9.70867
▁filed	-9.70969
▁surprise	-9.71053
ap	-9.71069
▁Sea	-9.71073
right	-9.71073
our	-9.71085
▁Georgia	-9.71135
▁wearing	-9.71292
▁doubt	-9.71318
▁2019	-9.71345
au	-9.71394
▁overall	-9.71441
▁holding	-9.71521
▁modern	-9.71537
▁article	-9.71544
▁Super	-9.71556
No	-9.71601
▁product	-9.71642
▁stock	-9.71715
▁Ha	-9.7179
▁Nigeria	-9.71802
▁operations	-9.71875
▁department	-9.7192
ran	-9.7196
▁weapons	-9.72053
▁winter	-9.7209
▁protest	-9.72111
▁God	-9.72133
▁poor	-9.7216
▁assault	-9.72302
▁image	-9.72353
end	-9.72375
▁stated	-9.72377
▁dropped	-9.72425
▁supply	-9.72428
▁Australian	-9.72508
▁Har	-9.72627
▁intelligence	-9.72652
▁language	-9.72663
▁Ma	-9.72775
▁beginning	-9.72877
cing	-9.72944
▁finished	-9.72975
▁2023.	-9.72987
▁Olympics	-9.73052
▁garden	-9.73321
▁Peter	-9.73327
tu	-9.73385
▁concern	-9.73408
▁Speak	-9.7341
▁Musk	-9.73564
men	-9.73569
▁treat	-9.73617
ford	-9.73675
▁Su	-9.73691
▁allegedly	-9.73756
▁caught	-9.73775
▁Photograph	-9.73779
▁stuff	-9.74004
▁appear	-9.74113
▁movement	-9.74298
▁display	-9.74372
▁champion	-9.74457
▁Center	-9.74482
▁village	-9.7449
▁Di	-9.74524
▁Ta	-9.7465
▁street	-9.74707
▁suit	-9.74759
ana	-9.74781
▁normal	-9.74821
▁dark	-9.74919
▁cold	-9.74958
▁secure	-9.74962
▁piece	-9.7499
▁successful	-9.75017
▁spark	-9.75069
qui	-9.75095
▁nature	-9.75147
▁sound	-9.75156
+	-9.75167
▁drop	-9.75195
▁island	-9.75206
▁Modi	-9.7535
▁blue	-9.75392
▁Mc	-9.7541
▁wedding	-9.7545
▁Both	-9.75454
▁boy	-9.75455
▁Kate	-9.75486
▁maybe	-9.75519
▁Post	-9.75539
▁infrastructure	-9.75608
▁Chelsea	-9.75612
▁amazing	-9.75617
ko	-9.75621
▁African	-9.75731
▁individuals	-9.75758
▁losing	-9.75761
▁feet	-9.75797
▁society	-9.75851
▁center	-9.75857
▁audience	-9.76122
king	-9.76156
▁freedom	-9.7631
▁vehicle	-9.7636
▁quick	-9.76504
▁chair	-9.76543
▁appears	-9.76545
▁actions	-9.76588
▁traditional	-9.76658
▁bid	-9.76752
▁responsible	-9.76769
▁Secretary	-9.76775
star	-9.76784
▁attorney	-9.76843
▁famous	-9.76865
▁nice	-9.76916
▁Arsenal	-9.7701
▁victim	-9.77074
▁Love	-9.77086
▁millions	-9.77154
nt	-9.77172
▁agree	-9.772
▁directly	-9.77376
▁2022.	-9.7738
▁employees	-9.77404
ney	-9.77439
like	-9.77463
▁daily	-9.77474
▁Starmer	-9.77479
▁places	-9.77483
▁Why	-9.77552
▁appearance	-9.7757
▁Scott	-9.77651
▁wish	-9.77673
▁NHS	-9.77714
▁ruling	-9.77715
▁confidence	-9.77723
ab	-9.77754
▁mission	-9.778
▁Yet	-9.77943
▁Moscow	-9.77946
io	-9.78012
▁Other	-9.78067
▁Un	-9.78168
pro	-9.78173
▁committee	-9.78183
▁Netanyahu	-9.78186
▁Former	-9.7822
▁below	-9.78266
▁helping	-9.78266
▁votes	-9.78295
▁haven	-9.78403
▁begin	-9.78417
▁domestic	-9.78421
▁standing	-9.78445
▁Games	-9.78464
▁Se	-9.78507
▁expert	-9.78524
▁suffered	-9.78564
▁powerful	-9.78614
▁Ga	-9.78711
▁talks	-9.78752
▁mo	-9.78761
▁UN	-9.78874
▁associate	-9.78902
▁Chicago	-9.78903
▁stopped	-9.78909
▁t	-9.78991
▁storm	-9.79068
▁boss	-9.79105
▁immigration	-9.79147
▁net	-9.79209
▁potentially	-9.7925
▁speaking	-9.79295
▁fashion	-9.79311
▁expressed	-9.79597
▁Charles	-9.7962
▁nuclear	-9.79626
▁Home	-9.79647
▁Island	-9.79798
point	-9.79828
▁girls	-9.79855
▁Security	-9.79857
▁secret	-9.7995
▁28	-9.80043
▁Liverpool	-9.80105
▁Italy	-9.80108
▁mum	-9.80118
▁Pakistan	-9.80266
▁owner	-9.804
▁whom	-9.80413
▁meaning	-9.80423
▁sun	-9.80458
▁speed	-9.80495
▁pull	-9.80521
▁younger	-9.80559
▁digital	-9.80584
▁Pa	-9.80584
▁st	-9.80586
▁airport	-9.80599
ip	-9.80636
▁exactly	-9.80647
long	-9.80684
ious	-9.80743
▁putt	-9.80858
▁battle	-9.8086
over	-9.80962
▁records	-9.80962
▁opportunities	-9.81071
▁royal	-9.81071
▁carried	-9.81072
▁prompt	-9.81079
▁shown	-9.81098
▁focused	-9.81141
bb	-9.81143
▁fellow	-9.81323
▁proud	-9.81427
▁respond	-9.81462
▁Gu	-9.81487
▁plenty	-9.81561
▁Delhi	-9.81566
▁missed	-9.81571
ig	-9.81583
▁decisions	-9.81585
▁planned	-9.81589
▁tech	-9.81627
▁bed	-9.81633
▁plant	-9.81733
▁wear	-9.81785
▁decide	-9.818
▁yourself	-9.81824
▁Their	-9.81921
▁episode	-9.82034
▁ticket	-9.82036
▁screen	-9.8207
ա	-9.82303
▁Google	-9.82307
▁Japan	-9.82309
▁governor	-9.82311
▁protests	-9.82356
▁clearly	-9.82357
▁shop	-9.82524
▁cities	-9.82559
▁broke	-9.82607
ron	-9.82747
▁troops	-9.82795
▁sitting	-9.8281
▁responded	-9.82868
▁stars	-9.829
</	-9.82921
▁matches	-9.82963
▁vehicles	-9.8299
▁sit	-9.82992
▁Robert	-9.83035
▁affected	-9.83254
▁conservative	-9.83308
▁items	-9.83313
▁corner	-9.83327
▁En	-9.83333
▁email	-9.83336
ot	-9.83349
▁essential	-9.83403
▁27	-9.83411
▁minute	-9.83442
▁mis	-9.83476
▁giant	-9.83543
▁moments	-9.83544
▁se	-9.83572
▁paper	-9.83575
house	-9.83614
war	-9.83664
▁managed	-9.83773
▁identified	-9.838
▁Western	-9.83807
▁management	-9.83811
▁direct	-9.83937
page	-9.83978
ker	-9.83999
▁Chris	-9.84018
▁balance	-9.84309
▁Andrew	-9.84311
▁pop	-9.84355
▁2017	-9.84366
▁Sen	-9.84378
▁Will	-9.84409
▁rare	-9.84489
▁type	-9.84528
▁William	-9.84544
▁afternoon	-9.8455
▁Brown	-9.84551
▁gives	-9.84555
▁struck	-9.84559
▁Press	-9.84641
ph	-9.84681
fe	-9.84688
▁c	-9.84709
ի	-9.84797
▁footage	-9.84817
▁concerned	-9.84909
▁disease	-9.85117
▁text	-9.85276
▁unique	-9.85323
▁Hall	-9.8533
strong	-9.85355
ize	-9.85364
▁Ri	-9.8539
gen	-9.85405
▁Sky	-9.85412
▁Hill	-9.85476
▁Jack	-9.85568
▁Hezbollah	-9.85572
▁--	-9.85602
▁b	-9.85675
▁carry	-9.85679
ries	-9.85767
▁Thomas	-9.85822
▁crucial	-9.85828
▁spread	-9.85863
▁emotional	-9.85952
▁harm	-9.85955
▁lived	-9.86066
▁twice	-9.86078
▁bought	-9.8608
▁voting	-9.86082
▁worst	-9.86087
▁era	-9.86099
▁difference	-9.86168
▁upon	-9.86188
iv	-9.86199
▁marriage	-9.86335
▁strategy	-9.86335
▁truth	-9.86335
▁reasons	-9.86363
▁touch	-9.86383
mon	-9.86502
▁vs	-9.86538
▁cars	-9.86644
▁pitch	-9.86798
▁row	-9.86839
▁Carolina	-9.86852
▁specific	-9.86856
▁rising	-9.86859
▁26	-9.87046
▁legislation	-9.87111
▁Da	-9.87128
▁Mexico	-9.8713
▁Instead	-9.8714
fa	-9.87324
▁Singh	-9.87326
▁operation	-9.87341
▁captain	-9.87381
▁democracy	-9.87385
▁Big	-9.8747
▁request	-9.87474
▁rock	-9.87532
▁providing	-9.87631
▁mass	-9.87657
▁toward	-9.87726
▁increasingly	-9.87756
▁Christian	-9.87895
▁Canada	-9.87897
ay	-9.87985
head	-9.88067
▁activities	-9.88154
▁definitely	-9.88179
▁Who	-9.88238
17	-9.88287
▁survey	-9.8836
low	-9.88395
▁walking	-9.88408
▁placed	-9.88411
▁advice	-9.88416
▁revenue	-9.88416
▁PM	-9.88458
▁dance	-9.88482
▁Korea	-9.88502
▁onto	-9.88582
▁lawsuit	-9.88583
▁linked	-9.88648
▁shock	-9.88682
▁union	-9.88724
▁century	-9.88747
%	-9.88911
▁attend	-9.88932
▁transfer	-9.88938
▁Although	-9.8897
▁el	-9.89065
▁aged	-9.89066
▁conversation	-9.89112
▁scheme	-9.89117
▁suffering	-9.89182
▁aware	-9.89185
▁Swift	-9.89215
run	-9.89254
million	-9.89267
▁declared	-9.89293
▁grand	-9.89408
▁separate	-9.89602
gar	-9.89634
▁code	-9.89646
▁regard	-9.89668
▁multi	-9.89721
▁gender	-9.89742
▁absolutely	-9.89826
▁£2	-9.90075
▁status	-9.90186
▁organization	-9.90207
bn	-9.90213
▁believes	-9.90338
▁90	-9.9035
▁200	-9.90425
▁finding	-9.9043
ow	-9.9051
▁protection	-9.90523
▁highly	-9.90535
▁choose	-9.90541
▁expensive	-9.90541
▁activity	-9.90543
▁laws	-9.90552
▁Great	-9.90564
ji	-9.90569
▁names	-9.90576
▁i	-9.90621
▁rich	-9.90701
om	-9.90788
▁80	-9.90788
▁hurt	-9.9081
▁projects	-9.9085
▁allies	-9.90891
▁leg	-9.9091
▁male	-9.91004
▁restaurant	-9.91039
▁strikes	-9.91083
▁birth	-9.91083
▁2014	-9.91096
▁­	-9.91112
▁Vice	-9.91261
▁festival	-9.9135
▁guy	-9.91368
▁proposed	-9.91382
▁Fa	-9.91418
well	-9.91495
▁happens	-9.9153
▁drugs	-9.91567
▁Hollywood	-9.91622
▁vice	-9.91636
▁raise	-9.91645
▁discovered	-9.91757
gu	-9.91809
▁35	-9.91838
▁complex	-9.91873
▁connection	-9.91883
▁Lebanon	-9.91892
▁favourite	-9.91894
▁enforcement	-9.91897
▁Ali	-9.91932
▁supporting	-9.91968
▁territory	-9.92165
▁resources	-9.92194
▁beach	-9.92258
ship	-9.92418
▁Ni	-9.92431
▁dress	-9.92446
▁bag	-9.92519
▁Keir	-9.92521
▁shares	-9.92524
▁aren	-9.92638
▁Italian	-9.92712
port	-9.92906
▁cool	-9.92984
▁Before	-9.93004
▁celebrate	-9.93008
ai	-9.93017
ov	-9.93112
▁mostly	-9.93209
▁#	-9.93279
▁@	-9.93315
ator	-9.93316
▁images	-9.93355
not	-9.93414
▁introduced	-9.93427
▁wind	-9.93472
▁limit	-9.93519
▁alternative	-9.93538
▁television	-9.93542
▁flat	-9.93576
▁repeatedly	-9.93608
gan	-9.93614
▁experienced	-9.93659
▁2021,	-9.93713
▁eat	-9.93713
▁systems	-9.9381
▁Committee	-9.93816
▁collection	-9.93835
▁31	-9.93846
▁sub	-9.93847
▁signs	-9.93863
har	-9.9397
▁2025	-9.94069
▁Seattle	-9.94095
▁estate	-9.94102
▁surgery	-9.94104
▁convicted	-9.94119
▁MP	-9.9413
▁written	-9.94137
▁regional	-9.94208
▁polls	-9.94211
-19	-9.94362
▁faces	-9.94414
fi	-9.94458
▁70	-9.94541
▁generation	-9.94581
▁fund	-9.94585
▁note	-9.94693
▁29	-9.94787
▁/	-9.94792
if	-9.94839
▁necessary	-9.94939
▁drama	-9.94942
▁electric	-9.95042
▁university	-9.95212
▁Alex	-9.95242
▁transition	-9.95243
▁upcoming	-9.95263
▁enter	-9.95388
▁announcement	-9.95507
▁investors	-9.95523
▁Under	-9.9554
▁migrants	-9.95577
▁Bay	-9.95635
▁ship	-9.95671
▁45	-9.95733
10	-9.95776
▁ceremony	-9.95776
▁counter	-9.95833
▁Star	-9.95858
▁doctor	-9.95916
▁photos	-9.96006
▁funds	-9.96024
▁streets	-9.96053
▁River	-9.96068
▁bringing	-9.96068
▁Vance	-9.96093
ned	-9.96124
wing	-9.96145
▁Sha	-9.96295
du	-9.9635
▁Women	-9.96365
▁cultural	-9.96373
▁initially	-9.9648
▁largely	-9.96506
▁related	-9.96532
▁parliament	-9.96616
▁Live	-9.96695
▁Pe	-9.96701
▁thanks	-9.96712
▁happening	-9.96734
▁lawyer	-9.96755
▁grew	-9.96917
▁trend	-9.96947
▁kill	-9.96947
▁accept	-9.96963
▁direction	-9.96989
▁obviously	-9.97015
▁mark	-9.97125
▁award	-9.9717
▁creating	-9.97203
▁Netflix	-9.97208
▁Sunak	-9.97218
▁bigger	-9.97242
▁elected	-9.9734
▁bus	-9.97353
▁measure	-9.97368
▁arm	-9.97398
▁sources	-9.97398
▁seek	-9.97408
tin	-9.97408
▁manage	-9.97491
▁spring	-9.9751
▁programme	-9.97595
25	-9.9761
▁scheduled	-9.97676
▁steps	-9.97746
▁podcast	-9.97777
▁offensive	-9.97787
ny	-9.97802
To	-9.9786
Z	-9.97862
▁Lee	-9.97954
▁passengers	-9.97997
▁excited	-9.98065
▁clip	-9.98066
▁Commission	-9.9809
▁edge	-9.98111
▁Like	-9.98125
▁wall	-9.98128
▁rose	-9.98166
▁citizens	-9.98167
▁Well	-9.982
▁loan	-9.98245
▁split	-9.98343
row	-9.98345
▁behaviour	-9.98355
▁MORE	-9.98356
▁ca	-9.98472
24	-9.98505
ick	-9.98597
ug	-9.98616
▁presence	-9.98647
▁birthday	-9.98657
▁claiming	-9.9872
▁Grand	-9.98722
ina	-9.98722
▁location	-9.98839
▁warm	-9.98913
▁Rs	-9.98924
▁tackle	-9.98938
▁paying	-9.98956
▁page	-9.98976
ev	-9.9905
tal	-9.99185
▁cap	-9.99211
▁exercise	-9.9923
▁nominee	-9.9923
▁penalty	-9.9923
▁Team	-9.99284
▁scale	-9.99351
▁kick	-9.99399
▁doctors	-9.99434
▁ring	-9.99499
▁Richard	-9.99518
▁Road	-9.99543
▁Ke	-9.99573
ell	-9.99627
▁treated	-9.99642
▁4.	-9.99706
▁plane	-9.99712
▁Ex	-9.99729
ino	-9.99768
▁Irish	-9.99818
▁accounts	-9.9982
▁Year	-9.99831
▁cuts	-9.99917
▁healthy	-9.99986
▁que	-10.0002
▁stress	-10.0008
40	-10.0008
▁Central	-10.0011
▁recorded	-10.0011
▁lines	-10.0023
▁strength	-10.0038
▁3.	-10.004
▁insurance	-10.0041
▁Facebook	-10.0042
▁capacity	-10.0043
▁dry	-10.0044
▁Tim	-10.0046
▁effective	-10.006
▁Ministry	-10.007
▁Stadium	-10.007
▁struggling	-10.007
▁tend	-10.0074
model	-10.008
▁Sports	-10.008
15	-10.0083
▁Dan	-10.01
▁Judge	-10.0101
▁traffic	-10.0101
▁suspect	-10.0123
▁identity	-10.013
▁nearby	-10.0134
ib	-10.014
▁sides	-10.0141
ping	-10.0143
▁learned	-10.0145
▁broken	-10.0154
▁NFL	-10.0161
▁Ryan	-10.0162
▁Because	-10.0164
▁plays	-10.0172
▁count	-10.0173
pi	-10.0176
▁Social	-10.0184
▁produce	-10.0187
▁standard	-10.0188
▁talent	-10.0189
▁block	-10.0189
▁viewers	-10.0191
▁£3	-10.0192
▁welcome	-10.0195
▁zone	-10.0196
▁reading	-10.0199
▁drink	-10.02
▁Pat	-10.02
▁urged	-10.0204
▁AP	-10.0217
▁jail	-10.0219
▁Earlier	-10.022
▁panel	-10.0222
rendering	-10.0222
▁Fi	-10.0232
▁slow	-10.0235
▁pushed	-10.0236
▁whatever	-10.0237
▁ITV	-10.0239
ped	-10.0244
▁easier	-10.0251
▁Twitter	-10.0253
▁guys	-10.0255
▁returning	-10.026
▁Y	-10.0269
▁Best	-10.027
▁tight	-10.0278
▁criticism	-10.0283
▁reaction	-10.0285
yn	-10.0286
▁greater	-10.0287
▁voted	-10.029
▁emerged	-10.0291
▁Rep	-10.0293
▁targeted	-10.0303
▁Ab	-10.0308
▁sweet	-10.0311
▁bottom	-10.0312
▁ballot	-10.0312
▁hate	-10.0319
jo	-10.0319
▁shift	-10.0328
▁contest	-10.0339
▁responsibility	-10.0342
pping	-10.0344
▁serving	-10.0345
▁artist	-10.0346
▁remove	-10.0347
▁Cor	-10.0349
▁Q	-10.035
use	-10.0351
false	-10.0352
▁increasing	-10.0358
▁notice	-10.036
van	-10.0363
▁larger	-10.0364
▁catch	-10.0369
ain	-10.0371
▁ultimately	-10.0377
▁unable	-10.039
▁College	-10.0403
▁wins	-10.0408
ions	-10.0408
ani	-10.0411
▁Princess	-10.0415
▁Ham	-10.0416
▁incredible	-10.0419
▁watched	-10.0419
▁initial	-10.0419
For	-10.0421
▁remaining	-10.0431
▁develop	-10.0434
▁jury	-10.0434
▁na	-10.0437
▁suggests	-10.0442
▁Today	-10.0445
▁Sp	-10.0447
▁extremely	-10.0449
▁crimes	-10.0451
▁soldiers	-10.0455
▁confirm	-10.0462
▁fifth	-10.0464
▁window	-10.0469
▁Good	-10.0469
▁crash	-10.0472
ities	-10.0478
▁Institute	-10.0495
▁advantage	-10.0495
▁prize	-10.0496
▁Democrat	-10.0498
▁crew	-10.0503
▁estimated	-10.0505
▁reporters	-10.0508
▁setting	-10.0515
▁Matt	-10.0515
▁Ed	-10.0517
▁starts	-10.0519
▁easily	-10.0526
▁bodies	-10.0527
▁Follow	-10.0527
▁sat	-10.0531
▁Lu	-10.0538
▁Law	-10.0541
▁documents	-10.0543
ear	-10.0555
▁2012	-10.056
wood	-10.0568
▁discuss	-10.057
my	-10.058
▁historic	-10.0583
-1	-10.0583
▁$3	-10.0588
▁Association	-10.0589
ice	-10.0592
▁deals	-10.0593
▁decline	-10.0595
ր	-10.0602
ang	-10.0605
▁owners	-10.0609
isation	-10.0611
cy	-10.062
▁Arizona	-10.062
▁District	-10.062
▁actress	-10.062
▁rent	-10.0621
▁picked	-10.0628
sen	-10.0631
▁remained	-10.064
▁active	-10.0646
▁Gen	-10.0651
▁33	-10.0656
ik	-10.066
Our	-10.0668
▁prepared	-10.067
ash	-10.0677
▁Che	-10.0678
▁throw	-10.0682
▁Pennsylvania	-10.0683
▁Three	-10.0685
▁hopes	-10.0685
can	-10.0688
▁pulled	-10.0693
▁Nations	-10.0709
▁smart	-10.0715
▁targets	-10.0716
hy	-10.072
▁require	-10.0734
pur	-10.0735
▁prosecutors	-10.0735
As	-10.0738
▁yards	-10.0743
▁miss	-10.0746
▁Cha	-10.0749
▁sharing	-10.0751
▁pool	-10.0752
▁di	-10.0755
Q	-10.0757
▁promised	-10.0764
▁deaths	-10.0768
▁Pi	-10.0769
▁books	-10.0773
▁carrying	-10.0774
▁deeply	-10.0775
▁commercial	-10.0778
▁trail	-10.0788
▁Kim	-10.0792
▁route	-10.0792
▁pointed	-10.0798
▁<	-10.0808
▁beauty	-10.081
▁fix	-10.0815
her	-10.0821
▁severe	-10.0829
▁exchange	-10.0833
lic	-10.0837
▁existing	-10.0839
▁pledge	-10.0842
▁sought	-10.0843
▁hoping	-10.0843
▁standards	-10.0847
▁vision	-10.0847
▁colleagues	-10.0849
▁Lord	-10.0857
▁port	-10.0858
let	-10.086
▁Wa	-10.0864
▁Game	-10.0865
ide	-10.0867
▁Gov	-10.0871
▁Glasgow	-10.0875
▁supported	-10.0894
▁aim	-10.0899
▁die	-10.0901
▁surrounding	-10.0903
▁conducted	-10.0906
▁yesterday	-10.0907
▁northern	-10.0907
▁section	-10.0907
▁Spanish	-10.0939
▁messages	-10.094
▁construction	-10.094
▁violent	-10.0942
▁apply	-10.0951
▁turning	-10.0953
▁stands	-10.0957
▁conduct	-10.0959
▁Parliament	-10.0972
▁Federal	-10.0972
▁closer	-10.0974
▁Jay	-10.0975
ists	-10.0976
▁learning	-10.0978
free	-10.0985
▁32	-10.0987
▁Bra	-10.0987
▁36	-10.0999
▁removed	-10.0999
▁payments	-10.0999
▁Jr	-10.1001
▁Middle	-10.1003
▁Michigan	-10.1004
ek	-10.1005
▁alcohol	-10.1005
▁trouble	-10.1011
▁refused	-10.1015
cal	-10.1016
▁Real	-10.1016
▁knows	-10.1019
▁Once	-10.1021
▁Mac	-10.1024
▁Ti	-10.1048
▁write	-10.1049
▁youth	-10.105
▁delivered	-10.1053
▁Ten	-10.1055
▁fired	-10.1067
▁replied	-10.107
▁relief	-10.1071
80	-10.1072
▁tickets	-10.1074
▁armed	-10.1076
ball	-10.1077
▁army	-10.1084
▁1,	-10.1088
▁session	-10.1092
▁Am	-10.1098
▁writer	-10.1101
▁semi	-10.1102
Elements	-10.1103
▁partners	-10.1104
ization	-10.1109
▁Lake	-10.1121
▁smaller	-10.1124
▁proposal	-10.1125
▁ice	-10.1131
▁invasion	-10.1136
▁achieve	-10.1141
▁attended	-10.1142
▁ma	-10.1144
▁Ki	-10.1148
▁threats	-10.115
▁ordered	-10.1159
▁determined	-10.1161
▁publicly	-10.1162
ative	-10.1166
▁dollars	-10.1171
▁typically	-10.1174
▁encourage	-10.1174
▁ruled	-10.118
▁environmental	-10.1183
ction	-10.12
▁struggle	-10.1202
▁receiving	-10.1202
▁truly	-10.1202
▁supposed	-10.1207
▁gap	-10.1207
lan	-10.1214
▁arms	-10.122
▁markets	-10.123
▁Kennedy	-10.1235
▁charity	-10.1235
dotcom	-10.1236
▁Jewish	-10.1236
▁prove	-10.1247
▁novel	-10.1252
▁understanding	-10.1255
don	-10.1257
▁failure	-10.1263
▁material	-10.1263
light	-10.1267
▁parent	-10.1268
▁Jackson	-10.1271
▁mix	-10.1271
▁videos	-10.1282
uch	-10.129
▁unit	-10.129
▁danger	-10.1301
▁professor	-10.1302
▁kitchen	-10.1302
▁Covid	-10.1303
▁Also	-10.1308
ath	-10.1316
▁Bi	-10.132
▁roll	-10.1334
▁missiles	-10.1336
od	-10.1345
sta	-10.136
60	-10.1363
▁Per	-10.137
▁aircraft	-10.137
▁Van	-10.1374
▁cricket	-10.1376
element	-10.1384
▁falling	-10.1385
▁argued	-10.1387
▁classic	-10.139
▁extreme	-10.139
▁gr	-10.1394
▁Tu	-10.1398
▁joint	-10.1431
ising	-10.1432
tan	-10.1433
▁2020,	-10.1436
▁causing	-10.1438
▁fill	-10.144
mar	-10.1442
▁forecast	-10.1449
▁thank	-10.1449
ight	-10.1459
▁covered	-10.1468
▁opinion	-10.1471
▁Championship	-10.1471
▁Disney	-10.1472
▁apartment	-10.1474
▁coffee	-10.1506
▁nomination	-10.1507
▁chain	-10.151
ett	-10.1515
▁sentence	-10.1517
▁selling	-10.1525
lor	-10.1527
▁wild	-10.1528
oo	-10.1529
gra	-10.1532
▁swing	-10.1535
▁produced	-10.1536
▁visitors	-10.1537
▁Sch	-10.1539
▁opt	-10.1539
▁Club	-10.154
life	-10.1541
▁Conservative	-10.1542
▁Te	-10.1568
▁Ku	-10.1571
▁risks	-10.1571
▁2018	-10.1573
av	-10.1574
▁express	-10.1574
▁walked	-10.1575
▁confident	-10.1575
▁operating	-10.1575
ible	-10.1578
nce	-10.1581
▁CBS	-10.1585
▁Out	-10.1599
ara	-10.1601
▁eating	-10.1601
▁struggled	-10.1601
▁vast	-10.1611
▁ho	-10.1612
▁depend	-10.1614
▁adds	-10.1623
zi	-10.1623
▁wave	-10.1625
▁adults	-10.1634
▁founder	-10.1636
▁dinner	-10.1644
chi	-10.1645
▁Guardian	-10.1645
ag	-10.1652
fer	-10.1652
▁wine	-10.1654
▁flights	-10.1663
▁Max	-10.1669
▁Edinburgh	-10.1679
▁internet	-10.1679
▁dogs	-10.1683
ked	-10.1684
▁attacked	-10.1685
▁established	-10.1698
▁mu	-10.1703
▁Long	-10.1717
▁slightly	-10.1719
▁recovery	-10.172
▁Back	-10.172
▁Photo	-10.172
▁advance	-10.1723
▁Tour	-10.1727
▁payment	-10.1732
▁facilities	-10.1749
▁fish	-10.1749
▁ride	-10.1757
▁ensur	-10.1764
minute	-10.1764
board	-10.1765
▁delivery	-10.1769
take	-10.1776
▁lay	-10.1776
▁attempted	-10.1779
▁stood	-10.1784
▁films	-10.1785
▁gain	-10.179
▁Up	-10.1793
▁completed	-10.1794
▁guard	-10.18
▁complaint	-10.1803
▁soft	-10.1805
▁van	-10.181
▁taxes	-10.181
▁agencies	-10.182
▁importance	-10.182
wi	-10.1822
▁protesters	-10.1827
cha	-10.1828
▁solution	-10.1829
ical	-10.1839
▁shut	-10.1842
▁church	-10.185
▁Sydney	-10.1855
▁flow	-10.186
▁Mary	-10.1865
▁adult	-10.1866
▁shortly	-10.1878
▁immediate	-10.1878
▁Mu	-10.189
▁Celtic	-10.1891
▁Ram	-10.1891
▁Dar	-10.1896
▁Show	-10.19
tri	-10.1911
▁assets	-10.1913
▁Steve	-10.1914
nes	-10.1916
▁skills	-10.1917
▁Hospital	-10.1926
▁joy	-10.1929
▁entered	-10.1931
▁2.	-10.1936
▁par	-10.1938
ile	-10.1942
▁Daniel	-10.1944
dis	-10.1944
▁rejected	-10.1945
▁Foreign	-10.1962
▁humanitarian	-10.1962
▁regime	-10.1963
▁everybody	-10.1964
▁blow	-10.197
ung	-10.1973
▁animals	-10.1996
▁pieces	-10.1996
▁YouTube	-10.1998
▁worried	-10.1998
▁basis	-10.1998
▁Still	-10.1999
▁distance	-10.2
▁reporting	-10.2004
▁Port	-10.2005
▁surface	-10.2009
▁wonder	-10.2015
▁Men	-10.2026
▁assistance	-10.2035
▁wake	-10.2035
▁Za	-10.2047
▁Euro	-10.2058
▁widely	-10.206
▁Palestinians	-10.2063
▁flag	-10.2069
▁snow	-10.2071
▁occurred	-10.2071
▁dating	-10.2074
ong	-10.2078
▁roughly	-10.208
▁replace	-10.2081
▁reduced	-10.2084
▁honest	-10.2092
cent	-10.2095
▁Korean	-10.2095
▁5.	-10.2096
ors	-10.2097
▁Chi	-10.2101
ock	-10.2104
▁negative	-10.2107
▁NATO	-10.2107
▁memory	-10.2107
▁Associate	-10.2108
▁boys	-10.2108
22	-10.211
▁comfortable	-10.211
▁peak	-10.2112
down	-10.2117
izing	-10.2119
▁reveals	-10.2127
Re	-10.2128
▁compete	-10.2131
▁passing	-10.2136
▁perform	-10.214
▁Northern	-10.2144
▁Saudi	-10.2144
▁developed	-10.2145
▁fruit	-10.2145
▁bills	-10.2155
▁task	-10.2163
▁recalled	-10.2166
▁boat	-10.217
ita	-10.2173
▁chances	-10.2174
▁earned	-10.2174
▁shape	-10.2175
▁involving	-10.218
▁coalition	-10.218
▁Boeing	-10.218
▁vital	-10.2181
▁transport	-10.2183
▁politicians	-10.2195
▁leaves	-10.2198
▁defend	-10.2205
▁Wi	-10.2206
▁interesting	-10.2208
▁2019,	-10.2211
▁temperatures	-10.2212
pped	-10.2215
▁spokesman	-10.2217
▁GOP	-10.2218
▁unlikely	-10.2224
aw	-10.2225
▁approved	-10.2225
▁su	-10.2226
▁visited	-10.2239
more	-10.2253
▁Digital	-10.2254
▁luxury	-10.2254
▁possibility	-10.2254
▁apart	-10.2254
▁Francisco	-10.2255
ably	-10.2259
▁Syria	-10.2273
▁lawmakers	-10.2274
rn	-10.2276
▁Vegas	-10.2278
bu	-10.2279
▁Earth	-10.2291
▁equipment	-10.2291
▁impressive	-10.2291
▁Oct	-10.2291
▁Centre	-10.2293
▁spotted	-10.2294
▁package	-10.2295
▁mobile	-10.2295
▁drivers	-10.2296
▁34	-10.23
▁Tory	-10.2309
▁£5	-10.2318
▁viral	-10.2328
▁Watch	-10.2331
▁fly	-10.2331
▁2010	-10.2331
▁changing	-10.2333
▁circumstances	-10.2341
12	-10.2341
▁buying	-10.2343
ada	-10.2346
▁lawyers	-10.2351
▁customer	-10.2359
▁studio	-10.2365
▁Min	-10.2366
▁Gi	-10.2367
▁Iranian	-10.2369
▁500	-10.2371
law	-10.2378
▁bridge	-10.2379
23	-10.2381
▁reform	-10.2394
▁patient	-10.2394
▁entirely	-10.2395
▁Nick	-10.2395
▁agent	-10.2395
▁prior	-10.24
▁fraud	-10.2403
▁Stephen	-10.2403
▁exit	-10.241
ville	-10.241
▁closely	-10.2411
▁researchers	-10.2413
▁Ya	-10.2424
▁partnership	-10.2431
az	-10.2437
▁37	-10.2439
▁shelter	-10.244
▁0	-10.2441
▁Read	-10.2442
▁background	-10.2444
▁insisted	-10.2447
▁signing	-10.2458
wan	-10.2462
▁rival	-10.2467
▁1.	-10.2468
ability	-10.2472
▁CNN	-10.2478
▁colour	-10.2481
▁interested	-10.2486
▁pictures	-10.2487
form	-10.2494
▁registered	-10.2496
▁Rob	-10.2497
▁48	-10.2508
▁structure	-10.2509
▁provides	-10.2513
▁mortgage	-10.2516
html	-10.2516
▁Lewis	-10.2516
▁located	-10.2521
▁featured	-10.2523
▁athletes	-10.2523
▁inspired	-10.2529
▁ill	-10.2533
▁earn	-10.2536
▁inter	-10.2538
iya	-10.2539
▁Cal	-10.2539
set	-10.255
▁basic	-10.2553
▁prospect	-10.2554
▁clothes	-10.2555
▁notes	-10.2556
▁plus	-10.256
▁journalist	-10.2568
sha	-10.257
▁Your	-10.2575
▁pace	-10.2579
▁scenes	-10.2584
▁sites	-10.2585
▁relations	-10.2587
▁intense	-10.2593
▁contrast	-10.2593
▁Beach	-10.2594
▁Kevin	-10.2594
▁Sc	-10.2604
▁significantly	-10.2609
14	-10.2616
▁declined	-10.2623
▁Let	-10.2623
ery	-10.2627
▁vulnerable	-10.263
▁Si	-10.2632
▁seriously	-10.2632
▁effects	-10.2632
▁cream	-10.2635
▁Pan	-10.2638
pp	-10.2644
▁generally	-10.2644
▁promote	-10.2649
▁Pr	-10.2651
▁pan	-10.2653
▁explain	-10.2662
▁cit	-10.2664
▁organisation	-10.2664
-4	-10.2664
▁instance	-10.2669
▁shopping	-10.267
ins	-10.267
▁familiar	-10.267
▁priority	-10.2671
á	-10.2673
▁fake	-10.2675
▁sp	-10.2675
▁greatest	-10.268
▁ties	-10.269
ez	-10.2695
▁accident	-10.2699
▁profit	-10.2707
▁purpose	-10.2707
▁facility	-10.2708
▁Defense	-10.2708
▁settlement	-10.2709
▁update	-10.2723
car	-10.2728
▁trans	-10.2728
work	-10.2736
▁ideal	-10.2745
▁deputy	-10.2746
▁assistant	-10.2747
▁radio	-10.2747
▁Every	-10.2761
bar	-10.2764
▁Wall	-10.2767
▁developing	-10.2767
▁Bas	-10.2772
▁ch	-10.2772
▁regularly	-10.2773
▁rape	-10.2775
ure	-10.2775
▁acting	-10.2775
▁drone	-10.2783
▁affordable	-10.2787
▁mention	-10.2797
▁schedule	-10.2799
▁Champions	-10.28
class	-10.2804
▁tonight	-10.2807
45	-10.2817
▁pension	-10.282
▁newspaper	-10.2824
▁Foundation	-10.2825
▁artists	-10.2825
▁witness	-10.2825
▁2008	-10.2829
▁brings	-10.2829
vin	-10.283
▁suspended	-10.2834
ea	-10.2835
"},{"	-10.2846
▁enjoyed	-10.285
▁Public	-10.2863
▁tennis	-10.2864
▁missile	-10.2864
▁retirement	-10.2864
▁Bridge	-10.2865
▁filled	-10.2866
si	-10.2866
▁pub	-10.2868
▁label	-10.2873
▁Gar	-10.2876
▁consequences	-10.288
▁contain	-10.2884
▁brilliant	-10.2889
▁Mer	-10.2889
▁experiences	-10.2899
▁$5	-10.2899
Id	-10.2901
▁Oscar	-10.2903
▁cycle	-10.2906
▁draft	-10.291
▁sending	-10.2912
rate	-10.2925
▁Adam	-10.2927
ris	-10.294
▁Election	-10.2942
▁analysis	-10.2942
▁Obama	-10.2942
▁reference	-10.2943
▁documentary	-10.2943
▁animal	-10.2945
▁medal	-10.2948
▁dozens	-10.2951
▁helps	-10.2954
▁models	-10.2959
▁handle	-10.2965
▁considering	-10.2968
▁Ch	-10.2975
▁38	-10.2981
▁trading	-10.2982
▁impossible	-10.2983
▁Hi	-10.2989
range	-10.299
▁PA	-10.2999
▁engaged	-10.3002
▁civilians	-10.3002
▁bear	-10.3004
▁49	-10.3005
▁stores	-10.3008
ER	-10.3013
▁hits	-10.302
▁asylum	-10.3022
▁Channel	-10.3023
▁golf	-10.3024
▁2021.	-10.3026
▁consumers	-10.3026
yan	-10.303
▁Only	-10.3033
▁Mon	-10.3035
▁effectively	-10.3042
▁Sal	-10.3059
▁scandal	-10.3062
▁minor	-10.3064
▁coverage	-10.3065
▁Walz	-10.3065
▁Water	-10.3065
act	-10.3069
▁journalists	-10.307
▁battery	-10.307
kar	-10.3073
▁false	-10.3074
13	-10.3085
▁outlet	-10.3089
▁sentenced	-10.3092
▁diet	-10.3097
mm	-10.31
▁mine	-10.3102
▁Jordan	-10.3102
▁prosecution	-10.3102
▁Wilson	-10.3103
▁$4	-10.3126
35	-10.3132
▁favour	-10.314
▁challenging	-10.3142
▁competitive	-10.3143
bl	-10.3152
▁allows	-10.3152
mor	-10.3158
▁losses	-10.3165
▁marks	-10.3165
▁alive	-10.3174
▁stick	-10.3177
▁£4	-10.318
90	-10.3181
▁numerous	-10.3183
▁perspective	-10.3184
▁dedicated	-10.3184
▁drones	-10.3185
▁concluded	-10.3191
▁directed	-10.3194
ther	-10.3199
▁Qu	-10.32
▁imagine	-10.32
▁crossing	-10.3201
▁gift	-10.3202
▁color	-10.3203
▁blame	-10.3207
▁exciting	-10.3223
▁stadium	-10.3223
▁restrictions	-10.3224
▁iconic	-10.3225
>,""	-10.3229
▁values	-10.323
▁lift	-10.3231
▁continuing	-10.3231
▁affect	-10.3234
▁veteran	-10.3234
▁rescue	-10.3237
▁guests	-10.3245
▁Ver	-10.3248
▁hostages	-10.3248
▁forget	-10.3249
▁Blue	-10.3256
len	-10.326
▁Japanese	-10.3265
▁Among	-10.3265
▁knowledge	-10.3265
ending	-10.3268
▁Far	-10.3277
▁contributed	-10.3283
▁agenda	-10.3306
▁science	-10.3308
▁authority	-10.3309
▁Bowl	-10.3315
▁Bre	-10.3318
▁upset	-10.3323
▁failing	-10.3328
▁planet	-10.333
▁routine	-10.3332
▁sharp	-10.3332
▁Han	-10.3332
▁afford	-10.3344
very	-10.3344
ugh	-10.3345
▁heavily	-10.3346
▁Las	-10.3352
▁cat	-10.336
uff	-10.3361
▁guide	-10.3362
▁fewer	-10.3366
▁Wood	-10.3368
▁purchase	-10.3377
▁landscape	-10.3388
▁Ohio	-10.3388
▁internal	-10.3388
▁grown	-10.339
▁selection	-10.3391
uc	-10.3393
▁lucky	-10.3396
▁invited	-10.34
▁platforms	-10.3401
era	-10.3402
▁finance	-10.3404
▁explore	-10.3404
▁calm	-10.3404
▁busy	-10.3406
▁Rose	-10.3408
▁talked	-10.3409
▁wonderful	-10.341
rd	-10.341
▁remarks	-10.3417
▁Mi	-10.342
▁waste	-10.3428
▁alliance	-10.3429
▁creative	-10.3429
▁referred	-10.343
▁favorite	-10.343
▁engagement	-10.3431
▁42	-10.3432
▁relatively	-10.3436
af	-10.3437
▁clubs	-10.3437
lay	-10.3455
70	-10.3455
▁link	-10.3463
▁worry	-10.3465
▁h	-10.3466
fully	-10.3467
▁glass	-10.3468
▁Capitol	-10.3471
▁narrative	-10.3471
▁stunning	-10.3471
▁Share	-10.3471
▁banned	-10.3472
▁expectations	-10.3473
▁scoring	-10.3475
▁bench	-10.3475
▁speaks	-10.3475
▁nations	-10.3478
▁pushing	-10.3478
19	-10.3478
▁comedy	-10.3481
▁mayor	-10.3482
▁bond	-10.349
▁informed	-10.349
▁reveal	-10.3494
▁drinking	-10.3495
-3	-10.3495
▁Bal	-10.3499
▁buildings	-10.35
▁mom	-10.3501
▁Art	-10.3502
▁Va	-10.3506
▁nor	-10.3508
▁plastic	-10.3513
://	-10.3513
▁2013	-10.3515
ok	-10.3517
▁east	-10.3526
val	-10.3543
▁bonus	-10.3548
▁Four	-10.3556
▁sustainable	-10.3556
▁Valley	-10.3556
▁core	-10.3557
vis	-10.3559
▁Tony	-10.356
room	-10.3562
▁innings	-10.3565
▁honor	-10.3565
▁characters	-10.3571
▁shots	-10.358
▁wealth	-10.3585
▁river	-10.3586
▁mentioned	-10.3591
▁Simon	-10.3591
▁religious	-10.3597
▁guess	-10.3597
▁attempts	-10.3598
RA	-10.3608
▁agents	-10.3611
tz	-10.3615
play	-10.3621
▁bright	-10.3625
▁Hag	-10.3629
▁symptoms	-10.3629
shi	-10.3636
▁comfort	-10.3637
▁none	-10.3639
▁Palace	-10.3639
ded	-10.3641
▁Independent	-10.3641
▁farm	-10.3657
ren	-10.3664
▁hat	-10.3668
▁presented	-10.3672
fire	-10.3677
▁leads	-10.3677
▁franchise	-10.3682
▁iPhone	-10.3682
▁sick	-10.3685
▁reaching	-10.3685
▁Young	-10.369
▁flying	-10.3694
▁threatened	-10.3702
5,000	-10.3704
tes	-10.3706
▁outcome	-10.3707
▁tip	-10.3714
▁listed	-10.3716
▁Dis	-10.3717
▁testing	-10.372
▁plot	-10.3724
All	-10.3727
▁west	-10.3729
▁knowing	-10.373
▁sad	-10.3733
▁foundation	-10.3739
▁wider	-10.374
▁dismissed	-10.3743
▁yes	-10.3747
▁ra	-10.3747
▁channel	-10.3751
▁factor	-10.3751
air	-10.3754
▁requires	-10.3755
final	-10.3756
Oh	-10.376
▁acts	-10.3762
▁combat	-10.3767
▁defensive	-10.3768
▁concert	-10.3768
▁Agency	-10.3768
▁Miami	-10.3768
▁entry	-10.3768
▁Where	-10.3773
▁spoken	-10.3773
lly	-10.3774
▁prepare	-10.3785
cc	-10.3787
▁Fed	-10.3791
▁machine	-10.3793
▁interests	-10.3794
▁weapon	-10.3795
▁Clark	-10.3797
qua	-10.3801
rick	-10.3802
ef	-10.3804
.1	-10.3807
▁Met	-10.3809
hour	-10.3812
▁songs	-10.3813
Tex	-10.3821
ix	-10.3824
▁Old	-10.3826
▁Yo	-10.3833
▁extended	-10.3836
▁Victoria	-10.3837
▁programs	-10.3839
hand	-10.3847
Ma	-10.3849
▁campus	-10.3851
▁Brazil	-10.3853
▁Manhattan	-10.3854
▁Director	-10.3854
▁Army	-10.3865
▁institutions	-10.388
▁application	-10.3884
▁chat	-10.3885
▁teacher	-10.3893
▁Ask	-10.3894
▁mate	-10.3898
▁Kyiv	-10.3898
▁legacy	-10.3898
▁delay	-10.39
▁expand	-10.3906
▁faith	-10.3913
▁Par	-10.3914
▁Bu	-10.3914
08	-10.3922
related	-10.393
▁2000	-10.3934
▁MPs	-10.3936
▁plea	-10.3939
▁arrival	-10.3941
▁reputation	-10.3941
":"<	-10.3941
11	-10.3942
▁broadcast	-10.3944
▁taste	-10.395
▁retired	-10.3954
▁horse	-10.3973
▁venue	-10.3974
▁championship	-10.3975
tar	-10.3977
mic	-10.3978
▁6.	-10.3982
▁dealing	-10.3982
style	-10.3983
▁pilot	-10.3985
▁strategic	-10.3985
▁solid	-10.3985
▁tea	-10.3986
▁anniversary	-10.3986
▁quarterback	-10.3988
▁pounds	-10.3993
ations	-10.3996
bra	-10.4003
▁escape	-10.4003
rated	-10.4014
ving	-10.4019
▁initiative	-10.4019
▁dozen	-10.4023
ute	-10.4025
▁Madrid	-10.4029
▁producer	-10.403
▁BST	-10.4031
▁motion	-10.4036
▁followers	-10.404
▁tensions	-10.4041
▁Bro	-10.4048
▁determine	-10.4056
▁replaced	-10.4061
▁cr	-10.4064
▁correct	-10.4067
▁Zealand	-10.4073
▁approval	-10.4073
▁division	-10.4073
▁Rangers	-10.4074
▁properties	-10.4074
▁labor	-10.4075
▁1990	-10.4075
▁flu	-10.408
▁combined	-10.4084
▁k	-10.4085
ari	-10.4091
▁obvious	-10.4103
▁spirit	-10.411
▁promises	-10.4111
je	-10.4111
▁types	-10.4113
▁sight	-10.4117
▁legend	-10.4117
▁narrow	-10.4118
▁closing	-10.4118
▁Asia	-10.412
pre	-10.412
▁outdoor	-10.4124
br	-10.4125
dd	-10.4134
▁roles	-10.4136
imed	-10.4138
▁listen	-10.4144
▁2020.	-10.4144
making	-10.4145
ado	-10.4153
▁Media	-10.4162
▁COVID	-10.4162
▁presidency	-10.4162
cl	-10.4163
▁keen	-10.4164
▁Phil	-10.4164
bit	-10.4164
▁Sarah	-10.4165
▁Life	-10.4169
▁suddenly	-10.4171
▁cutting	-10.4172
▁Sh	-10.4172
▁incredibly	-10.4179
▁announce	-10.418
▁ideas	-10.4186
▁heading	-10.4188
▁proved	-10.4197
▁2015	-10.4197
These	-10.42
▁Lok	-10.4202
▁Republic	-10.4203
▁identify	-10.4205
▁ministry	-10.4207
▁silver	-10.4207
▁Sweden	-10.4209
▁stepped	-10.4209
▁wing	-10.421
▁Though	-10.4211
fo	-10.4213
▁tools	-10.4215
▁stronger	-10.4216
▁Miller	-10.4217
▁Land	-10.4219
▁surge	-10.4221
▁Take	-10.4221
called	-10.4222
▁desire	-10.4227
▁lo	-10.4232
▁worker	-10.4242
▁please	-10.4247
▁Hav	-10.4249
▁consumer	-10.425
▁controversial	-10.4252
▁disaster	-10.4252
▁possibly	-10.4252
▁resolution	-10.4252
▁farmers	-10.4254
▁tied	-10.4254
▁degree	-10.4257
▁tree	-10.4257
▁factors	-10.4273
▁improved	-10.4276
▁commission	-10.4279
▁Fire	-10.4291
q	-10.4291
▁holds	-10.4293
▁Attorney	-10.4297
▁cards	-10.4299
▁stream	-10.4302
▁neck	-10.4303
lia	-10.4308
▁driven	-10.4308
▁chosen	-10.4315
▁10-	-10.4319
▁Dec	-10.4328
iz	-10.4329
ն	-10.4337
▁II	-10.4337
▁signal	-10.4338
▁Governor	-10.4343
▁Vladimir	-10.4343
▁Sabha	-10.4343
▁Taiwan	-10.4343
▁racing	-10.4344
▁Board	-10.4345
▁burn	-10.4346
nu	-10.4349
▁breaking	-10.435
▁lies	-10.4352
elect	-10.4355
▁pen	-10.4358
▁bars	-10.4359
▁designer	-10.4361
▁pe	-10.4367
▁staying	-10.4367
iti	-10.4376
▁tra	-10.4376
▁length	-10.4381
▁Research	-10.4384
▁device	-10.4388
▁Meghan	-10.4389
▁charging	-10.4389
▁featuring	-10.4389
▁stuck	-10.4389
▁minimum	-10.4389
▁Kar	-10.4389
▁turns	-10.4392
▁accepted	-10.4394
▁fame	-10.4394
▁actors	-10.4395
▁Get	-10.4399
▁si	-10.4399
ail	-10.44
▁switch	-10.4401
▁becomes	-10.4408
▁tie	-10.4411
▁aside	-10.4412
▁bomb	-10.4424
month	-10.4424
▁Louis	-10.4425
▁Josh	-10.443
▁favor	-10.4432
▁horror	-10.4434
▁NBA	-10.4434
▁Boston	-10.4435
▁raising	-10.4439
▁adviser	-10.444
▁Reuters	-10.444
▁chairman	-10.4442
▁Six	-10.4442
▁pack	-10.4445
▁county	-10.4453
▁stone	-10.4456
but	-10.4458
▁Pen	-10.4466
uri	-10.4468
▁conspiracy	-10.4481
▁therefore	-10.4481
hether	-10.4481
▁ending	-10.4482
▁Family	-10.4482
▁Tri	-10.4484
nny	-10.4492
att	-10.4493
▁intended	-10.4494
▁jump	-10.4497
,500	-10.45
ple	-10.4505
▁Th	-10.4506
▁positions	-10.4509
▁map	-10.451
▁starr	-10.4511
▁negotiations	-10.4513
▁judges	-10.4522
▁du	-10.4524
▁museum	-10.4527
▁appropriate	-10.453
▁marked	-10.4532
▁trees	-10.4533
▁encounter	-10.4542
▁acknowledged	-10.4545
▁begins	-10.4551
▁USA	-10.4554
▁Bull	-10.4555
▁fees	-10.4555
lon	-10.4557
▁Cooper	-10.4559
▁Rock	-10.456
▁advanced	-10.4561
▁fears	-10.4572
▁studies	-10.4573
▁sixth	-10.4574
▁ro	-10.4576
▁industrial	-10.4576
▁degrees	-10.4578
An	-10.4578
▁vi	-10.4586
MA	-10.4593
18	-10.4596
ette	-10.4601
▁Bur	-10.4608
▁mistake	-10.4609
▁savings	-10.4609
▁aims	-10.4611
▁Pu	-10.4613
▁Gold	-10.4615
▁Ash	-10.4617
berg	-10.4617
▁Pre	-10.4617
▁Top	-10.4619
▁demands	-10.462
▁eligible	-10.462
▁phase	-10.462
▁healthcare	-10.4622
▁temperature	-10.4627
▁sorry	-10.4627
▁surprised	-10.4627
▁bottle	-10.4629
▁alert	-10.4638
▁returns	-10.4643
par	-10.4644
▁seconds	-10.4646
▁targeting	-10.4647
▁promise	-10.4649
▁FA	-10.4649
ill	-10.4651
▁imp	-10.4651
▁critics	-10.4655
pan	-10.4657
▁electoral	-10.4667
▁pregnant	-10.4667
▁emissions	-10.4667
▁discussed	-10.4668
▁filing	-10.4668
▁SNP	-10.4669
▁Newsweek	-10.4669
ified	-10.467
▁carbon	-10.4672
ue	-10.4675
▁clash	-10.4676
▁Jean	-10.4687
▁hu	-10.4688
tBlockElement	-10.4692
▁le	-10.4697
▁quiet	-10.4699
▁firms	-10.471
gue	-10.4711
▁Festival	-10.4714
▁Rafah	-10.4714
▁storage	-10.4714
▁Coast	-10.4714
▁Cohen	-10.4715
▁Airport	-10.4715
▁About	-10.4717
▁harder	-10.4717
▁electricity	-10.4717
▁craft	-10.4723
▁Hunter	-10.4728
ology	-10.4728
▁Ross	-10.4739
▁equal	-10.4748
▁39	-10.4754
▁welcomed	-10.4754
▁Arabia	-10.4758
▁convention	-10.4759
▁smoke	-10.4762
▁Murray	-10.4762
▁chaos	-10.4762
▁personnel	-10.4763
ola	-10.4766
▁Santa	-10.4768
▁square	-10.4771
US	-10.4771
▁argument	-10.4772
▁hitting	-10.4772
▁shirt	-10.4775
▁kid	-10.4779
▁highlighted	-10.4781
des	-10.4783
foot	-10.4789
ane	-10.4797
RE	-10.4797
▁headed	-10.4798
win	-10.4799
▁trick	-10.4804
▁mixed	-10.4807
een	-10.4808
▁abroad	-10.4809
▁Senator	-10.481
▁brief	-10.4811
▁bin	-10.4812
▁Jim	-10.4813
▁commented	-10.4814
▁backed	-10.4823
▁destroyed	-10.483
▁dispute	-10.4832
▁smile	-10.4832
▁chose	-10.4842
owned	-10.4843
▁hall	-10.4848
▁sanctions	-10.4852
▁celebrated	-10.4853
town	-10.4854
▁prominent	-10.4857
▁understood	-10.4857
▁Tesla	-10.4857
pper	-10.4861
▁bat	-10.4872
▁appointed	-10.4873
zo	-10.488
▁tourists	-10.4888
eg	-10.4889
▁detail	-10.489
▁drawn	-10.4897
game	-10.4897
▁questioned	-10.4903
▁Beijing	-10.4905
▁lunch	-10.4905
▁ceasefire	-10.4905
▁editor	-10.4906
▁Local	-10.4906
▁zero	-10.4908
ye	-10.4909
▁explains	-10.4911
▁tiny	-10.4912
▁follows	-10.4917
▁75	-10.4919
▁polling	-10.4922
▁locations	-10.4925
▁earnings	-10.494
▁im	-10.4944
https	-10.4946
▁custody	-10.4953
▁poverty	-10.4953
▁knee	-10.4953
▁inquiry	-10.4954
▁temporary	-10.4954
▁spell	-10.4954
▁warrant	-10.4956
▁7.	-10.4956
▁duty	-10.4958
▁Kelly	-10.496
▁defender	-10.4961
▁mouth	-10.4963
▁matters	-10.4964
▁l	-10.4964
▁tears	-10.497
su	-10.4973
fin	-10.4975
▁seasons	-10.4979
dar	-10.4984
▁Nu	-10.4988
▁saved	-10.499
▁pet	-10.4994
ira	-10.4996
ctor	-10.5001
▁Colorado	-10.5002
▁chicken	-10.5002
▁devices	-10.5002
▁childhood	-10.5003
yo	-10.5005
▁Daily	-10.5006
▁percentage	-10.5008
lar	-10.5012
▁willing	-10.5015
▁odds	-10.5016
▁prosecutor	-10.502
hal	-10.5026
▁Tre	-10.5028
▁Villa	-10.503
▁permanent	-10.5037
gy	-10.5037
▁bowl	-10.5038
ky	-10.5039
▁sa	-10.5042
PA	-10.5042
▁fl	-10.5047
▁Cro	-10.5051
▁Project	-10.5051
▁artificial	-10.5051
▁tribute	-10.5051
▁Anderson	-10.5054
key	-10.5056
▁relationships	-10.5062
ella	-10.507
everal	-10.5072
▁auto	-10.5077
▁para	-10.5079
▁officially	-10.5079
.</	-10.508
▁activists	-10.5083
▁musical	-10.5085
ala	-10.5088
bin	-10.5094
▁Time	-10.5095
▁Afghanistan	-10.51
▁celebrity	-10.51
▁verdict	-10.51
▁milk	-10.51
▁Kansas	-10.51
▁neighborhood	-10.51
▁Anthony	-10.5101
▁Brian	-10.5101
▁devastating	-10.5101
05	-10.5104
▁Yu	-10.5108
▁profile	-10.5117
▁laugh	-10.5118
▁Ol	-10.5124
load	-10.513
▁technical	-10.5134
▁represent	-10.5138
▁banks	-10.5142
▁illness	-10.5144
▁Turkey	-10.5149
▁diagnosis	-10.515
ium	-10.5151
▁girlfriend	-10.5152
▁opponents	-10.516
▁cup	-10.5161
▁houses	-10.5168
ama	-10.5171
▁captured	-10.5172
election	-10.5173
▁anger	-10.5174
▁document	-10.5186
▁Shah	-10.519
state	-10.519
▁performed	-10.5192
▁opposite	-10.5199
▁reducing	-10.5199
▁yellow	-10.5199
▁Food	-10.5199
▁elite	-10.52
▁raid	-10.5201
▁virus	-10.5202
▁otherwise	-10.5203
▁Tories	-10.5204
▁travelling	-10.5205
▁Luke	-10.5206
▁spin	-10.5209
▁plants	-10.5209
▁invest	-10.521
▁fallen	-10.5211
kh	-10.5219
▁resident	-10.5222
▁household	-10.5224
▁damaged	-10.5226
lit	-10.5234
▁Egypt	-10.5247
▁Jersey	-10.5248
▁equity	-10.5249
▁cloud	-10.5249
▁assassination	-10.5249
▁Power	-10.5251
▁anywhere	-10.5251
29	-10.5253
▁eastern	-10.5253
get	-10.5261
▁wage	-10.5261
▁forest	-10.527
▁collapse	-10.5273
▁granted	-10.5275
▁secured	-10.5276
▁incidents	-10.5278
▁appearances	-10.528
▁Maybe	-10.5281
▁detailed	-10.5281
Be	-10.5284
▁mountain	-10.5286
▁diplomatic	-10.5286
▁tests	-10.5288
▁presenter	-10.5288
▁magazine	-10.5298
▁literally	-10.5299
▁Jamie	-10.53
▁1980	-10.5301
49	-10.5304
▁fee	-10.5304
app	-10.5305
▁overnight	-10.5309
▁react	-10.5322
▁GP	-10.533
die	-10.5331
ան	-10.5331
block	-10.5333
▁Force	-10.5347
ku	-10.5347
▁ourselves	-10.5349
▁Canadian	-10.5349
▁preparing	-10.5349
▁tomorrow	-10.5349
▁bathroom	-10.5349
▁wore	-10.5349
▁sugar	-10.5349
▁suspected	-10.5352
▁Week	-10.5355
▁Was	-10.5356
▁Gri	-10.5356
▁praised	-10.537
▁wood	-10.5378
yer	-10.5382
▁entering	-10.5383
▁retail	-10.5385
▁doors	-10.5387
stone	-10.5391
▁posts	-10.5392
▁fe	-10.5395
▁handed	-10.5395
▁chocolate	-10.5399
▁breast	-10.5399
▁Southern	-10.5399
▁summit	-10.54
▁Patrick	-10.54
▁Yes	-10.5401
CA	-10.5402
▁tips	-10.5405
scale	-10.5407
▁ABC	-10.5411
▁EV	-10.5415
▁implement	-10.5416
ali	-10.5423
▁engage	-10.5427
9%	-10.5428
▁discussion	-10.5432
▁meat	-10.544
▁dramatic	-10.545
▁Football	-10.5451
tting	-10.5453
▁error	-10.5454
top	-10.5454
▁argue	-10.5455
Co	-10.5458
ju	-10.546
▁salt	-10.5464
▁sky	-10.5467
▁fat	-10.5471
▁occasion	-10.5473
gr	-10.5474
▁Mail	-10.5474
▁stake	-10.5483
▁joining	-10.5483
▁faster	-10.5483
▁layer	-10.5483
▁(1	-10.5483
▁regulations	-10.5484
▁Nov	-10.5485
▁sounds	-10.5492
▁gang	-10.5494
▁300	-10.5494
bel	-10.5496
▁anxiety	-10.5501
▁behavior	-10.5501
▁fought	-10.5501
▁stability	-10.5502
▁Matthew	-10.5502
▁nobody	-10.5505
▁somebody	-10.5506
▁restaurants	-10.5509
▁Are	-10.5519
mate	-10.5522
Do	-10.5522
▁Gary	-10.5531
▁communication	-10.5535
▁unusual	-10.5538
▁Cat	-10.5543
▁gained	-10.5547
▁Andy	-10.555
▁metal	-10.555
▁fiscal	-10.5552
▁Bangladesh	-10.5553
▁cooperation	-10.5553
▁prefer	-10.5553
▁affairs	-10.5564
▁crack	-10.5581
ó	-10.5587
▁desperate	-10.5589
▁visiting	-10.5598
▁Special	-10.5604
▁cabinet	-10.5605
▁unclear	-10.5606
▁boyfriend	-10.5607
▁deadline	-10.5608
▁exam	-10.5608
▁44	-10.5609
▁plate	-10.561
▁strain	-10.5611
▁Mad	-10.5615
▁Com	-10.5616
De	-10.5618
▁pictured	-10.5621
▁theory	-10.5625
16	-10.5627
ture	-10.5628
▁Meta	-10.5638
▁Cu	-10.5638
▁moral	-10.5643
▁uses	-10.5644
▁Part	-10.5651
▁intention	-10.5652
▁Microsoft	-10.5655
▁Minnesota	-10.5655
▁Museum	-10.5655
▁variety	-10.5655
▁collaboration	-10.5656
▁2019.	-10.5658
▁Night	-10.5658
Display	-10.5662
▁Sharma	-10.5664
▁shocked	-10.5666
▁constantly	-10.5666
rie	-10.5668
▁practices	-10.567
▁bi	-10.5672
▁Fe	-10.5672
▁honour	-10.5676
▁discussions	-10.5678
At	-10.5681
▁connected	-10.5683
▁Call	-10.5686
▁rely	-10.5687
▁deposit	-10.5689
▁immigrants	-10.5693
▁lots	-10.5695
▁thoughts	-10.5697
▁estimates	-10.5699
tch	-10.5702
▁heads	-10.5706
cap	-10.5707
▁Strictly	-10.5708
▁consecutive	-10.5708
▁maximum	-10.5708
▁privacy	-10.5708
▁Global	-10.5708
▁Macron	-10.5708
▁stayed	-10.571
▁Haley	-10.5711
▁meal	-10.5713
▁loud	-10.5714
▁Each	-10.5714
▁Kumar	-10.5722
▁Frank	-10.5724
▁moves	-10.573
born	-10.5732
▁suffer	-10.5733
▁theme	-10.5735
▁contacted	-10.5737
ew	-10.5738
▁Win	-10.5742
▁bo	-10.5742
▁Asian	-10.5748
cker	-10.5758
▁hosted	-10.576
▁Switzerland	-10.576
▁silence	-10.576
▁repair	-10.576
▁Secret	-10.5761
ou	-10.5761
▁specifically	-10.5762
▁gonna	-10.5763
▁Emma	-10.5766
half	-10.5773
▁1,000	-10.5774
▁Free	-10.5778
▁2,	-10.5788
week	-10.5791
▁represented	-10.5794
ini	-10.5798
▁complaints	-10.5801
▁opponent	-10.5801
▁Stra	-10.5801
cra	-10.5805
▁breach	-10.5806
▁Conservatives	-10.5811
▁computer	-10.5813
▁Rachel	-10.5813
▁Alexander	-10.5813
▁grateful	-10.5813
▁assessment	-10.5815
▁corruption	-10.5816
▁hole	-10.5824
▁lock	-10.5826
ram	-10.5826
ura	-10.5827
▁41	-10.583
ata	-10.5832
hood	-10.5832
AN	-10.5836
21	-10.5839
▁Ball	-10.5843
▁Chiefs	-10.5849
▁meetings	-10.585
ters	-10.586
▁brutal	-10.5864
▁Academy	-10.5865
▁knife	-10.5865
▁thick	-10.5866
▁tested	-10.5867
▁shadow	-10.5871
▁lifestyle	-10.5871
▁surround	-10.5871
▁print	-10.5873
▁command	-10.5873
▁dates	-10.5877
▁reflect	-10.5879
▁stations	-10.5881
▁conversations	-10.5885
drew	-10.5887
▁shake	-10.5892
▁Jon	-10.5898
tle	-10.59
▁Justin	-10.5901
▁counsel	-10.5917
▁proceed	-10.5917
▁Rwanda	-10.5919
▁Second	-10.5919
▁Tokyo	-10.5919
▁resort	-10.5919
▁investigating	-10.5919
▁forever	-10.592
▁Perhaps	-10.592
▁fantastic	-10.5921
▁streaming	-10.5921
▁ministers	-10.5927
▁$6	-10.5928
▁solar	-10.5932
▁Je	-10.5932
▁performing	-10.5937
▁kit	-10.5939
▁roof	-10.5949
▁Bob	-10.5951
▁behalf	-10.5956
▁originally	-10.5957
ade	-10.5962
▁del	-10.5971
▁min	-10.5972
▁excellent	-10.5972
▁neither	-10.5972
▁innovation	-10.5972
▁Dallas	-10.5972
▁Henry	-10.5972
▁Iowa	-10.5973
▁Davis	-10.5973
ON	-10.5973
▁rail	-10.5974
▁possession	-10.5974
▁Virginia	-10.5977
▁solve	-10.5978
▁advised	-10.598
▁exist	-10.5985
▁400	-10.5995
▁findings	-10.5999
▁ha	-10.6004
▁65	-10.6005
▁qu	-10.6009
▁celebration	-10.602
▁teenager	-10.6025
▁Elizabeth	-10.6026
▁chef	-10.6026
▁promotion	-10.6027
▁Trust	-10.6028
▁55	-10.6032
esh	-10.6044
▁choices	-10.6048
▁47	-10.6049
▁urge	-10.6054
▁guarantee	-10.6054
▁represents	-10.6057
▁soul	-10.6059
GB	-10.6065
▁aggressive	-10.6067
▁soil	-10.6072
▁striking	-10.608
▁widespread	-10.608
▁broader	-10.6089
ign	-10.6099
hor	-10.6103
▁roads	-10.6105
▁extend	-10.6109
▁frame	-10.6113
▁quit	-10.6124
▁sh	-10.6125
▁Ju	-10.6129
ral	-10.613
▁Mor	-10.6131
▁Gra	-10.6133
▁category	-10.6134
▁species	-10.6134
▁atmosphere	-10.6134
▁empty	-10.6134
▁romantic	-10.6134
▁FBI	-10.6134
▁crazy	-10.6135
▁fitness	-10.6138
ith	-10.6138
▁bail	-10.6139
▁grave	-10.614
▁airline	-10.614
▁mini	-10.6142
▁western	-10.6145
pl	-10.6146
▁attract	-10.6147
▁properly	-10.6149
gh	-10.6149
▁2011	-10.6149
▁delays	-10.6151
ore	-10.6154
▁gathered	-10.6155
▁enjoying	-10.616
lee	-10.6162
▁ski	-10.6162
▁orders	-10.6164
▁feed	-10.6166
▁realise	-10.617
▁continent	-10.6173
▁causes	-10.6173
cut	-10.6175
▁Char	-10.6175
▁tradition	-10.6181
▁fled	-10.6182
▁appointment	-10.6189
▁Assembly	-10.6189
▁manufacturing	-10.6189
▁pump	-10.6189
▁disorder	-10.6189
▁Rishi	-10.619
▁protected	-10.619
▁appearing	-10.6193
La	-10.6195
▁awarded	-10.6197
cer	-10.621
▁totally	-10.621
▁golden	-10.6212
▁Fund	-10.6213
▁leak	-10.6213
:30	-10.6221
▁actual	-10.6229
▁achieved	-10.6231
▁function	-10.6232
▁hospitals	-10.6233
▁Arab	-10.6241
▁Cook	-10.6241
▁recording	-10.6241
▁proper	-10.6242
▁permission	-10.6246
▁Labor	-10.6246
▁terrorist	-10.6249
zy	-10.6251
▁Stone	-10.6251
▁capable	-10.6251
▁frequently	-10.6254
▁feelings	-10.6266
teen	-10.627
▁Hol	-10.627
▁noise	-10.627
▁stretch	-10.627
▁McC	-10.6272
▁capture	-10.6274
\	-10.6276
75	-10.6276
ties	-10.6293
▁Pra	-10.6294
yard	-10.6295
▁hike	-10.6299
▁em	-10.6299
▁concept	-10.6299
▁Melbourne	-10.6299
▁strict	-10.6299
▁seemingly	-10.6299
▁rural	-10.6299
▁entertainment	-10.63
▁Arm	-10.6301
▁Book	-10.6302
▁Morning	-10.6302
▁Muslim	-10.6305
▁deny	-10.6306
▁improving	-10.6311
▁Sept	-10.6315
▁opposed	-10.6315
bed	-10.6315
▁regions	-10.6319
▁es	-10.6322
▁specialist	-10.6328
▁contribute	-10.6329
og	-10.633
▁rarely	-10.6332
▁trained	-10.6333
ric	-10.6333
tte	-10.6342
net	-10.6343
▁usual	-10.6344
▁voter	-10.6353
▁Newcastle	-10.6355
▁Mitchell	-10.6355
▁angry	-10.6355
▁Mul	-10.6355
▁pleaded	-10.6355
▁Series	-10.6356
▁lie	-10.6358
▁Palestine	-10.6358
▁endorse	-10.6359
▁2009	-10.636
-20	-10.636
with	-10.6362
▁monthly	-10.6366
▁founded	-10.6367
▁Awards	-10.6368
▁apparently	-10.6368
▁exposed	-10.6371
▁killer	-10.6373
▁predict	-10.6374
ily	-10.6382
▁Ron	-10.6389
▁yn	-10.639
Le	-10.6391
▁assist	-10.6393
▁menu	-10.6395
▁Sean	-10.6397
▁file	-10.64
▁owned	-10.6406
▁ba	-10.6407
gate	-10.6407
One	-10.641
press	-10.641
▁departure	-10.6411
▁signature	-10.6411
▁Space	-10.6411
▁Journal	-10.6412
▁2018,	-10.6412
▁Reform	-10.6413
▁Additionally	-10.6414
▁kicked	-10.6415
▁somewhere	-10.6415
▁progressive	-10.6416
▁beloved	-10.6425
▁teachers	-10.6431
▁Ken	-10.6433
▁landing	-10.6443
known	-10.6446
▁arrive	-10.6448
was	-10.645
▁exact	-10.6454
part	-10.6459
▁limits	-10.6462
▁performances	-10.6463
▁Atlanta	-10.6467
▁twist	-10.6467
▁latter	-10.6467
▁basketball	-10.6467
▁bread	-10.6467
▁Guard	-10.6467
▁elsewhere	-10.6467
▁Saint	-10.6467
▁Islamic	-10.6468
▁Hotel	-10.6468
▁Strip	-10.6468
mph	-10.647
▁beating	-10.647
▁Moore	-10.6471
▁visa	-10.6472
▁hosts	-10.6477
ition	-10.648
▁shoot	-10.6498
▁2025.	-10.65
55	-10.6501
▁Var	-10.6502
▁w	-10.6507
ular	-10.6512
▁cooking	-10.6514
▁Credit	-10.6514
cher	-10.6521
▁Benjamin	-10.6523
▁competing	-10.6523
▁speculation	-10.6523
▁£7	-10.6523
www	-10.6523
▁Video	-10.6524
▁mask	-10.6525
round	-10.6525
▁terrible	-10.6525
▁exhibition	-10.6525
▁1970	-10.6526
28	-10.6526
▁blocked	-10.6526
pen	-10.6527
▁sets	-10.6528
7%	-10.6528
high	-10.6531
▁Inter	-10.6532
▁movies	-10.6533
▁landed	-10.6546
rin	-10.655
▁enhance	-10.6552
▁Steven	-10.6553
▁Down	-10.6554
▁Wild	-10.6556
▁strip	-10.6561
▁enable	-10.6565
▁engine	-10.6566
▁gu	-10.6571
><	-10.6573
▁champions	-10.6579
▁rec	-10.6579
▁Education	-10.658
▁volume	-10.658
▁swimming	-10.658
▁dying	-10.6581
▁Berlin	-10.6581
ese	-10.6581
▁Katie	-10.6582
▁everywhere	-10.6582
▁Ban	-10.6587
▁detained	-10.6588
▁method	-10.659
OR	-10.6595
▁cook	-10.6597
▁abandoned	-10.6597
▁collect	-10.6602
▁lying	-10.6603
▁Col	-10.6606
▁Allen	-10.6607
most	-10.6609
▁pal	-10.6612
▁ends	-10.6615
▁scientists	-10.6615
▁appreciate	-10.6615
cat	-10.6619
▁attacking	-10.662
friendly	-10.6622
▁painting	-10.663
▁cheese	-10.6635
▁Church	-10.6637
▁Gandhi	-10.6637
▁crore	-10.6638
▁Price	-10.6639
▁radical	-10.6639
▁dynamic	-10.664
▁sensitive	-10.664
▁employment	-10.664
▁accusations	-10.6648
▁diagnosed	-10.6649
▁46	-10.6649
▁adopted	-10.6656
km	-10.6657
▁Bel	-10.6661
▁ni	-10.6666
í	-10.6667
▁Mayor	-10.667
world	-10.6674
▁sing	-10.6674
▁pot	-10.6675
▁cho	-10.6677
▁settle	-10.6679
vic	-10.6681
table	-10.6692
▁Head	-10.6693
▁occur	-10.6693
maker	-10.6694
▁trauma	-10.6694
▁Wisconsin	-10.6695
▁master	-10.6695
▁creation	-10.6696
▁deadly	-10.6697
person	-10.6699
▁GMT	-10.6699
ria	-10.67
▁toilet	-10.6701
ory	-10.6702
▁Walker	-10.6702
▁bedroom	-10.6704
▁Human	-10.6704
▁passenger	-10.6708
▁organizations	-10.6709
▁serves	-10.671
▁Mel	-10.671
▁saving	-10.6717
▁Ge	-10.6718
▁transform	-10.6718
▁friendly	-10.6726
▁Little	-10.6726
ena	-10.6729
▁custom	-10.6737
ED	-10.6737
▁cha	-10.674
▁sw	-10.6746
▁representing	-10.675
dor	-10.6752
99	-10.6752
oma	-10.6752
▁Reeves	-10.6752
▁testimony	-10.6752
▁Mumbai	-10.6752
▁valuable	-10.6752
▁bags	-10.6753
▁theatre	-10.6755
▁Town	-10.6755
▁tourism	-10.6758
▁Liam	-10.676
▁Mil	-10.6762
▁materials	-10.6762
▁handling	-10.6763
▁hide	-10.6763
▁30-	-10.6775
▁rushed	-10.6775
▁Look	-10.6776
▁essentially	-10.6787
night	-10.679
sur	-10.6792
▁establish	-10.6793
▁strengthen	-10.6796
▁newly	-10.6803
art	-10.6803
oon	-10.6808
▁academic	-10.6811
▁expansion	-10.6811
▁liberal	-10.6811
▁threw	-10.6811
▁Budget	-10.6811
▁rugby	-10.6811
▁Did	-10.6813
▁Jason	-10.6815
cast	-10.6817
▁barely	-10.6817
▁rooms	-10.6819
▁legs	-10.682
▁Any	-10.6821
▁delivering	-10.6824
▁repeated	-10.6824
▁rivals	-10.6825
put	-10.6825
▁ru	-10.6826
▁analyst	-10.6828
▁employee	-10.6829
▁batter	-10.6831
▁Mal	-10.6833
▁settled	-10.6837
ich	-10.6839
▁Play	-10.6843
▁ease	-10.6843
▁statements	-10.6845
▁answers	-10.6846
▁operate	-10.6862
▁cited	-10.6865
▁terror	-10.6866
▁combination	-10.6869
▁suicide	-10.6869
▁formed	-10.6869
▁See	-10.687
▁ownership	-10.687
▁friendship	-10.6871
▁Lauren	-10.6872
▁awareness	-10.6873
▁43	-10.6874
▁brands	-10.6876
▁Jake	-10.6878
▁recognise	-10.6879
.""	-10.688
▁Ber	-10.6897
▁monitor	-10.6907
▁54	-10.6913
▁encouraged	-10.6914
▁Fla	-10.6916
▁Eric	-10.6919
▁lovely	-10.6919
▁sand	-10.6924
▁Houston	-10.6928
▁native	-10.6928
▁Plus	-10.6928
▁software	-10.6928
▁reduction	-10.6929
▁corporate	-10.693
Pa	-10.693
iff	-10.693
▁managing	-10.693
▁laid	-10.6936
made	-10.6936
▁hopefully	-10.6942
▁po	-10.6944
▁reporter	-10.6948
▁activist	-10.6949
worth	-10.6954
ken	-10.6955
▁recovered	-10.6956
▁brothers	-10.6959
▁chart	-10.6962
▁8.	-10.6962
▁hoped	-10.6964
▁connect	-10.6972
▁shocking	-10.6975
▁paint	-10.6978
▁nurse	-10.6985
▁intervention	-10.6987
▁recognition	-10.6987
▁referring	-10.6988
▁counts	-10.6989
▁height	-10.6989
▁migration	-10.699
▁stressed	-10.6992
▁buyers	-10.6994
▁AFP	-10.7001
istic	-10.7007
ati	-10.7007
▁Roman	-10.701
▁formal	-10.7013
▁recommended	-10.7014
.99	-10.7026
▁LA	-10.7026
away	-10.7027
rk	-10.7028
▁blamed	-10.7033
▁bike	-10.7036
▁(19	-10.7037
LA	-10.7037
▁noticed	-10.7038
▁context	-10.7039
IT	-10.704
▁recall	-10.7041
burg	-10.7044
▁Tra	-10.7045
dding	-10.7046
▁Fo	-10.7046
▁Columbia	-10.7047
▁sauce	-10.7047
▁gym	-10.7047
▁tower	-10.7048
▁replacement	-10.705
nic	-10.705
RC	-10.7051
▁Carter	-10.7053
ES	-10.7055
under	-10.7055
▁drawing	-10.706
▁breath	-10.7068
▁gay	-10.7068
▁belief	-10.7071
տ	-10.7079
▁outfit	-10.7084
▁OK	-10.7084
▁Hunt	-10.7091
▁consistent	-10.7092
▁races	-10.7096
▁Fans	-10.7102
try	-10.7102
***	-10.7104
Some	-10.7105
▁Energy	-10.7107
▁Jeremy	-10.7107
▁Pradesh	-10.7107
▁extensive	-10.7107
▁petition	-10.7107
▁index	-10.7108
▁funny	-10.7108
▁Southgate	-10.7109
rim	-10.7109
▁approached	-10.7111
▁2006	-10.7111
▁addressed	-10.7111
▁lowest	-10.7116
Mo	-10.7118
▁seized	-10.7122
ski	-10.7125
▁neighbour	-10.7132
▁End	-10.7134
ware	-10.7137
▁thrown	-10.714
▁gathering	-10.7141
▁Golden	-10.7142
▁Make	-10.7145
▁Dodgers	-10.7147
Ro	-10.7147
▁analysts	-10.7149
▁tool	-10.7149
book	-10.7149
you	-10.7151
▁ne	-10.7152
▁cheap	-10.7153
▁packed	-10.7154
▁lights	-10.7155
inch	-10.7157
▁Sara	-10.716
iest	-10.7161
gle	-10.7163
▁(20	-10.7166
▁Netherlands	-10.7167
▁universities	-10.7167
▁increases	-10.7167
▁Film	-10.7167
▁meanwhile	-10.7167
▁2026	-10.7169
▁unprecedented	-10.7169
▁flash	-10.717
▁indeed	-10.7171
▁Fair	-10.7174
▁duo	-10.7175
▁hub	-10.7188
▁loose	-10.7188
▁Adams	-10.7192
▁winds	-10.7195
▁guest	-10.7196
▁bull	-10.7197
▁Work	-10.7207
42	-10.7208
▁Ste	-10.7208
ica	-10.721
ien	-10.7212
▁cu	-10.7213
▁m	-10.7215
▁generations	-10.7216
▁luck	-10.7217
▁Russell	-10.7227
▁blind	-10.7227
▁trophy	-10.7227
▁kiss	-10.7227
▁Development	-10.7228
▁Charlotte	-10.7228
▁Morgan	-10.7229
▁string	-10.7229
▁da	-10.7242
▁panic	-10.7245
▁survived	-10.7251
▁Bet	-10.7252
▁boast	-10.7256
▁households	-10.7259
▁civilian	-10.7261
▁grant	-10.7262
95	-10.7263
stra	-10.7264
SS	-10.7268
SA	-10.7278
eh	-10.7281
▁broadcaster	-10.7284
▁thin	-10.7285
▁cease	-10.7288
▁Murphy	-10.7288
▁Convention	-10.7288
▁conclusion	-10.7288
▁controversy	-10.7288
▁absence	-10.7288
▁blend	-10.7288
▁Emily	-10.7289
are	-10.7289
▁Which	-10.7289
▁billionaire	-10.7289
▁remarkable	-10.7291
▁iron	-10.7291
▁disruption	-10.7294
▁Lady	-10.7294
▁hidden	-10.7296
▁Shi	-10.7297
▁parking	-10.7301
▁joke	-10.7303
▁clothing	-10.7304
▁hang	-10.7307
▁march	-10.7312
und	-10.7323
-6	-10.7323
▁Miss	-10.7324
▁Bad	-10.7333
▁9.	-10.7334
▁apparent	-10.7335
▁attending	-10.7337
▁butter	-10.7337
cho	-10.734
ika	-10.7342
▁Dublin	-10.735
▁Affairs	-10.735
▁ambassador	-10.735
▁Business	-10.735
▁external	-10.735
▁Robinson	-10.7351
▁Catholic	-10.7351
▁una	-10.7352
▁unknown	-10.7354
▁hell	-10.7358
▁moon	-10.7361
▁consistently	-10.7365
▁governments	-10.7366
▁150	-10.7373
xi	-10.7375
Fi	-10.7376
▁slowly	-10.738
▁participate	-10.7386
profile	-10.7391
winning	-10.7391
▁attempting	-10.7397
▁collective	-10.7398
ake	-10.7408
▁Square	-10.7411
▁scam	-10.7412
▁brush	-10.7412
▁Atlantic	-10.7414
▁disappointed	-10.7415
▁coaching	-10.7416
▁drinks	-10.7418
level	-10.7419
ST	-10.742
▁backing	-10.7421
▁describe	-10.7421
▁dish	-10.7424
hold	-10.7427
▁mere	-10.7431
hop	-10.7433
▁pursue	-10.7448
▁Jane	-10.7454
ify	-10.7454
With	-10.7455
▁flooding	-10.7457
▁smooth	-10.7459
▁formerly	-10.7464
▁Del	-10.7464
new	-10.7464
Me	-10.747
▁Dutch	-10.7471
▁Clinton	-10.7474
▁necessarily	-10.7474
▁funeral	-10.7474
▁Medical	-10.7474
▁brown	-10.7475
▁stating	-10.7476
▁shops	-10.7477
ically	-10.7484
▁weak	-10.7484
▁democratic	-10.7498
▁Val	-10.7499
fu	-10.75
▁reject	-10.7501
season	-10.7505
she	-10.7507
card	-10.7509
▁fr	-10.7511
▁gate	-10.7511
▁politician	-10.7513
▁12-	-10.7516
NA	-10.7518
▁53	-10.7521
▁Five	-10.7528
▁cameras	-10.7528
▁embrace	-10.7528
▁Alan	-10.7529
▁clients	-10.7533
▁hosting	-10.7534
▁guidance	-10.7536
▁supplies	-10.7536
▁cruise	-10.7536
▁applied	-10.7536
▁memories	-10.7536
▁format	-10.7537
▁foster	-10.7537
▁Anna	-10.7537
▁Austin	-10.7537
▁Children	-10.7538
▁parliamentary	-10.7539
▁der	-10.7539
▁investments	-10.7542
▁cra	-10.7542
▁tear	-10.7543
ima	-10.7544
lock	-10.7545
list	-10.7549
▁interviews	-10.7549
▁symbol	-10.7554
▁obtained	-10.7558
ification	-10.7562
▁shell	-10.7565
▁Sur	-10.7566
▁("	-10.7568
▁Mill	-10.7574
▁52	-10.7574
=	-10.7576
▁Speaker	-10.7576
ona	-10.7577
▁solutions	-10.7583
▁wa	-10.7583
▁remote	-10.7584
▁Sri	-10.7584
▁Wil	-10.7584
▁Sport	-10.759
▁windows	-10.7591
▁Galaxy	-10.7599
▁ocean	-10.7599
▁province	-10.7599
▁eager	-10.7599
▁Garden	-10.76
▁involvement	-10.76
sky	-10.76
mile	-10.7608
▁pure	-10.7614
▁Elon	-10.7619
▁Leader	-10.762
mark	-10.762
▁Later	-10.7621
▁Forest	-10.7622
▁select	-10.7626
▁strongly	-10.7629
▁selected	-10.7631
amp	-10.7634
▁predicted	-10.7635
▁coaches	-10.7635
▁divorce	-10.7637
▁Em	-10.7637
▁locked	-10.7637
▁successfully	-10.7641
▁exclusive	-10.7649
▁ti	-10.7651
▁Rights	-10.7652
ets	-10.766
rum	-10.7661
▁capabilities	-10.7662
▁extraordinary	-10.7662
▁rhetoric	-10.7662
▁tragedy	-10.7662
▁Reddit	-10.7662
▁Market	-10.7673
▁Kha	-10.7676
▁discover	-10.7681
▁ob	-10.7686
09	-10.7688
▁flood	-10.769
▁constitutional	-10.7693
▁Others	-10.7698
▁Sar	-10.7698
Trump	-10.7705
▁destination	-10.7706
▁Music	-10.7707
▁$7	-10.7707
▁balls	-10.7708
▁participants	-10.771
▁experiment	-10.7719
▁awards	-10.7719
▁Roberts	-10.7722
▁Ray	-10.7725
▁promoting	-10.7727
▁Philadelphia	-10.7727
▁Radio	-10.7729
non	-10.773
▁wheel	-10.773
▁2004	-10.7732
27	-10.7732
EN	-10.7736
▁deem	-10.7737
sch	-10.7738
▁unveiled	-10.774
▁rear	-10.774
▁criticized	-10.774
dia	-10.774
▁6,	-10.7742
ux	-10.7743
▁writes	-10.775
▁hero	-10.776
▁dreams	-10.7761
3%	-10.7765
▁Fre	-10.7769
▁bra	-10.7769
▁striker	-10.777
rri	-10.7771
▁accus	-10.7771
▁Zelensky	-10.7778
BC	-10.7779
▁Sub	-10.7782
▁odd	-10.7783
▁Jonathan	-10.779
▁experiencing	-10.779
▁welfare	-10.779
▁relevant	-10.779
▁Rohit	-10.7791
▁nationwide	-10.7791
▁stance	-10.7792
▁genocide	-10.7793
▁remind	-10.7794
▁hip	-10.7794
▁offense	-10.7794
▁Fury	-10.7797
bat	-10.7808
▁tens	-10.7808
▁Aug	-10.7819
▁walls	-10.7821
wr	-10.7823
ox	-10.7824
▁Cap	-10.7829
▁maintained	-10.783
▁Constitution	-10.7831
even	-10.7836
▁lu	-10.7841
▁Ye	-10.7842
▁Kremlin	-10.7855
▁premium	-10.7855
▁independence	-10.7855
some	-10.7859
▁therapy	-10.7862
▁organisations	-10.7863
▁shower	-10.7864
ks	-10.7864
▁anymore	-10.7865
▁defending	-10.7873
rich	-10.7876
-2	-10.7877
▁deserve	-10.7878
▁mar	-10.7879
▁tariffs	-10.7882
▁dive	-10.7888
hill	-10.7891
▁investigate	-10.7894
▁acknowledge	-10.7894
▁mandate	-10.7901
▁vessel	-10.7904
▁affair	-10.7905
▁gains	-10.7905
ND	-10.7907
▁Ci	-10.7911
▁Sho	-10.7914
▁Science	-10.7919
▁ultra	-10.7919
▁celebrating	-10.7919
▁fossil	-10.7919
▁helicopter	-10.7919
▁satellite	-10.7919
▁afraid	-10.7919
▁smell	-10.7919
=\"	-10.792
▁basically	-10.7921
▁Fu	-10.7925
▁chip	-10.7926
▁respectively	-10.7927
▁Cross	-10.7928
▁momentum	-10.793
▁painful	-10.7931
▁initiatives	-10.7934
▁Crown	-10.7935
▁indicated	-10.7938
▁£6	-10.794
▁repeat	-10.7953
▁Award	-10.7954
▁Ce	-10.7957
▁realised	-10.7958
▁scared	-10.796
▁finds	-10.7967
▁Ethiopia	-10.7967
▁7,	-10.7969
▁colleague	-10.7972
Lo	-10.7982
▁cinema	-10.7984
▁Barcelona	-10.7985
▁Mexican	-10.7985
▁frustration	-10.7985
▁extent	-10.7985
▁historical	-10.7985
▁gear	-10.7986
▁venture	-10.7987
▁NBC	-10.7987
▁Poland	-10.799
▁shoppers	-10.7995
▁cable	-10.7995
▁badly	-10.7997
▁cell	-10.7999
▁Cla	-10.7999
ush	-10.8
▁attitude	-10.8001
▁steal	-10.8003
▁Jose	-10.8005
▁Dave	-10.8008
▁prisoners	-10.801
▁speaker	-10.8015
▁winners	-10.8017
▁shoes	-10.8017
58	-10.8024
▁crossed	-10.8027
▁betting	-10.803
▁cleaning	-10.8033
nie	-10.8034
▁fundamental	-10.8036
▁Anne	-10.8037
▁conviction	-10.8039
▁hundred	-10.8042
▁export	-10.8042
eb	-10.8044
▁sole	-10.8046
lla	-10.805
▁fixed	-10.805
▁Qatar	-10.8051
▁Combs	-10.8051
▁lakh	-10.8052
▁Maria	-10.8056
▁addressing	-10.8057
▁shoulder	-10.8058
▁copy	-10.8059
place	-10.8068
▁Navy	-10.8076
▁boom	-10.8083
pin	-10.8083
▁resulting	-10.8088
▁scores	-10.809
▁survive	-10.8091
▁£8	-10.8091
ila	-10.8091
▁grab	-10.8094
Just	-10.8098
▁vaccine	-10.8107
▁Hy	-10.8108
ano	-10.8109
▁expecting	-10.8113
▁heritage	-10.8117
▁breakfast	-10.8117
▁pride	-10.8118
bble	-10.812
far	-10.812
nan	-10.8121
▁ally	-10.8124
mu	-10.8125
▁proposals	-10.8137
▁Brit	-10.8138
▁alarm	-10.8149
▁boats	-10.815
jan	-10.8161
CC	-10.8161
▁deeper	-10.8165
front	-10.8166
ison	-10.817
lie	-10.8172
▁except	-10.8175
pot	-10.8175
▁spots	-10.8178
▁requirements	-10.8181
▁romance	-10.8183
▁interior	-10.8183
▁micro	-10.8183
▁duties	-10.8184
▁mood	-10.8185
▁apps	-10.8186
▁chest	-10.8186
▁units	-10.8196
▁Palm	-10.8201
rant	-10.8201
▁midfielder	-10.8203
▁hunt	-10.8212
OS	-10.8212
▁begun	-10.8215
▁register	-10.8222
▁puts	-10.8227
Israel	-10.823
wal	-10.8232
▁probe	-10.8232
▁Mag	-10.8233
▁wickets	-10.8238
▁urgent	-10.8241
▁Iraq	-10.8241
dale	-10.8243
▁strange	-10.8243
▁punch	-10.8244
▁regret	-10.8248
▁Storm	-10.825
▁Oregon	-10.8251
▁emerging	-10.8251
▁inspiration	-10.8251
▁nervous	-10.8251
▁Cameron	-10.8251
▁babies	-10.8251
▁complicated	-10.8251
▁drove	-10.8251
▁backlash	-10.8251
▁distress	-10.8251
▁salary	-10.8252
▁bullet	-10.8254
▁pink	-10.8257
▁2005	-10.8259
▁criticised	-10.8263
▁cheaper	-10.8264
▁eighth	-10.8266
▁tank	-10.8271
▁passes	-10.8277
dent	-10.8286
▁Wal	-10.8286
01	-10.8286
▁tape	-10.8287
▁caption	-10.8288
65	-10.8289
▁seventh	-10.8289
▁fighters	-10.8297
▁filming	-10.8301
▁dig	-10.8305
Star	-10.831
east	-10.831
IN	-10.8314
▁publication	-10.8316
▁Economic	-10.8318
▁arguing	-10.8318
▁association	-10.8318
▁encouraging	-10.8318
▁extension	-10.8318
▁residential	-10.8319
▁threaten	-10.832
wy	-10.8322
▁2007	-10.8324
▁phones	-10.8327
▁RT	-10.8328
▁Ren	-10.8328
▁manner	-10.8334
sis	-10.8335
54	-10.8336
ida	-10.8338
Bo	-10.8339
▁ranked	-10.8343
▁hill	-10.8353
▁retain	-10.8354
view	-10.8363
▁shame	-10.8363
bound	-10.8366
▁demanding	-10.837
▁relie	-10.837
▁absolute	-10.8375
▁peaceful	-10.8375
▁load	-10.8385
▁tragic	-10.8385
ը	-10.8386
▁Birmingham	-10.8386
▁Christopher	-10.8386
▁compensation	-10.8386
▁deficit	-10.8386
▁indictment	-10.8386
▁scenario	-10.8386
▁electronic	-10.8386
▁steel	-10.8386
▁taught	-10.8387
▁Voice	-10.8387
▁Country	-10.8387
▁marketing	-10.8387
▁Kiev	-10.8387
▁establishment	-10.8389
▁sits	-10.8389
read	-10.839
▁Ian	-10.8393
▁stable	-10.8395
▁Pol	-10.8396
▁Such	-10.8397
▁20-	-10.8403
▁convinced	-10.8403
▁deployed	-10.8405
▁equally	-10.8407
▁Ag	-10.841
▁describes	-10.8416
DA	-10.8416
▁cheer	-10.8417
▁reviews	-10.8419
▁succeed	-10.8423
▁sees	-10.8429
▁normally	-10.8431
▁blast	-10.8431
▁perfectly	-10.8444
brow	-10.8444
▁commander	-10.8444
000,"	-10.8445
-8	-10.8453
▁Administration	-10.8455
▁Hamilton	-10.8455
▁Tottenham	-10.8455
▁fabric	-10.8455
▁pregnancy	-10.8455
▁substance	-10.8455
▁£9	-10.8455
▁Samsung	-10.8455
▁Next	-10.8455
▁transgender	-10.8455
▁burden	-10.8455
▁Sudan	-10.8455
▁Tommy	-10.8456
▁Border	-10.8457
▁racist	-10.8457
▁undermine	-10.8462
ello	-10.8464
▁Everyone	-10.8466
▁passion	-10.8469
▁Mid	-10.8469
▁titles	-10.8475
▁tent	-10.8481
▁lineup	-10.8481
▁wanting	-10.8481
▁Ze	-10.8482
▁anyway	-10.8482
▁meals	-10.8483
▁Liz	-10.8485
dra	-10.8485
▁personally	-10.8486
▁Er	-10.8492
▁Grant	-10.8493
▁Cole	-10.8503
▁recover	-10.8503
ington	-10.8506
hra	-10.8511
▁Bon	-10.8512
EA	-10.8517
▁warnings	-10.8523
▁protecting	-10.8523
▁Soviet	-10.8524
▁crypto	-10.8524
▁NASA	-10.8524
▁aftermath	-10.8524
▁Graham	-10.8525
▁clock	-10.8525
▁Civil	-10.8526
▁Maryland	-10.8526
▁ri	-10.8529
▁workplace	-10.8529
▁impacted	-10.8531
▁stolen	-10.8533
▁Cho	-10.8533
▁showcase	-10.8534
▁portion	-10.8536
hit	-10.854
▁Kane	-10.8541
▁sustained	-10.8541
tors	-10.8547
26	-10.8548
▁classes	-10.8548
▁commit	-10.8552
ough	-10.8553
▁51	-10.8557
Well	-10.856
▁pleased	-10.8564
▁resolve	-10.8572
People	-10.8572
backed	-10.8577
▁250	-10.858
▁upgrade	-10.8581
▁singing	-10.8582
▁Boy	-10.8584
▁pa	-10.859
▁Francis	-10.8591
mann	-10.8593
▁Hampshire	-10.8593
▁pollution	-10.8593
▁urban	-10.8593
▁sentiment	-10.8593
▁Field	-10.8593
▁Thompson	-10.8594
▁Jeff	-10.8595
▁viewed	-10.8595
▁Brexit	-10.8596
▁client	-10.8597
▁worldwide	-10.8597
AI	-10.8602
▁finishing	-10.8606
▁carefully	-10.861
▁vowed	-10.8614
▁wounded	-10.8615
38	-10.8615
▁holidays	-10.8616
cro	-10.862
▁rebuild	-10.8622
▁Major	-10.8622
▁keeps	-10.863
▁Gre	-10.863
▁assess	-10.8631
▁soap	-10.8633
▁broad	-10.8634
▁tall	-10.8635
▁teaching	-10.8636
ston	-10.8636
▁demonstrate	-10.8637
▁bump	-10.864
▁Ger	-10.8642
▁physically	-10.8642
▁advocate	-10.8644
▁Angel	-10.8647
American	-10.8648
▁Add	-10.865
▁constant	-10.8651
▁pad	-10.8656
tus	-10.8657
lying	-10.8662
▁accommodation	-10.8663
▁circle	-10.8663
▁dialogue	-10.8663
▁enormous	-10.8663
▁mirror	-10.8663
▁scrutiny	-10.8663
▁supplement	-10.8663
▁Ford	-10.8664
▁dropping	-10.8664
▁membership	-10.8666
▁jailed	-10.8667
▁ta	-10.8668
▁truck	-10.8669
▁margin	-10.867
▁Plan	-10.8671
▁Pacific	-10.8671
▁beaches	-10.8681
03	-10.8689
dom	-10.8691
▁triggered	-10.8692
fit	-10.8692
▁Tro	-10.8695
▁lane	-10.8697
▁breaks	-10.8698
▁rating	-10.8701
▁58	-10.8705
▁reflected	-10.8705
▁highlights	-10.8706
▁recommend	-10.8706
▁mess	-10.8707
▁jet	-10.8711
org	-10.8712
cep	-10.8712
▁Had	-10.8716
48	-10.8716
illa	-10.8718
▁unexpected	-10.872
▁Nigerian	-10.8725
▁JD	-10.8727
▁fatal	-10.8729
▁va	-10.8731
▁Oklahoma	-10.8733
▁excitement	-10.8733
▁visual	-10.8733
▁displaced	-10.8734
▁Joseph	-10.8734
▁Short	-10.8734
▁medicine	-10.8734
▁Tyson	-10.8735
▁baseball	-10.8735
▁motor	-10.8735
▁oversee	-10.8736
ray	-10.8737
37	-10.874
▁withdrawal	-10.874
▁procedure	-10.8741
▁representative	-10.8742
▁personality	-10.8745
▁grid	-10.8745
▁beaten	-10.8748
▁delighted	-10.8751
▁comeback	-10.8752
▁secur	-10.8754
▁stocks	-10.8756
cus	-10.8757
▁PS	-10.8762
36	-10.8764
▁loans	-10.8766
▁adapt	-10.8769
AT	-10.8777
▁Cra	-10.8778
rou	-10.8779
▁element	-10.8788
vy	-10.8789
▁resist	-10.8791
▁rang	-10.8792
gin	-10.8793
ifi	-10.8795
▁Moon	-10.8796
▁representatives	-10.8797
▁letters	-10.8799
4%	-10.8802
mond	-10.8803
▁rid	-10.8804
▁timing	-10.8804
▁grass	-10.8805
▁icon	-10.8805
▁Defence	-10.8805
▁comprehensive	-10.8806
▁fence	-10.8808
▁r	-10.8808
▁handful	-10.8813
than	-10.8813
▁tired	-10.8814
▁tap	-10.8814
▁DC	-10.8816
▁expression	-10.8816
▁impressed	-10.8817
rian	-10.8818
▁requested	-10.882
▁nu	-10.8826
▁Erik	-10.8827
▁ear	-10.8827
▁Lions	-10.8828
pic	-10.8829
▁Ac	-10.8831
▁Amy	-10.8832
ros	-10.8834
verse	-10.8843
▁drag	-10.8843
▁Bell	-10.8845
post	-10.885
▁Ak	-10.8871
tory	-10.8871
mus	-10.8872
▁investing	-10.8872
▁Treasury	-10.8876
▁twin	-10.8877
▁introduce	-10.8879
▁racial	-10.8881
▁stroke	-10.8881
▁updates	-10.8882
▁revealing	-10.8885
1%	-10.8888
▁Kyle	-10.8888
▁oldest	-10.8889
▁walks	-10.889
▁consideration	-10.8892
▁weird	-10.8894
ied	-10.8895
▁bosses	-10.8896
▁Right	-10.8897
▁governing	-10.8911
▁Roy	-10.8914
:00	-10.8915
▁powers	-10.8918
▁Shar	-10.8918
ink	-10.8922
▁Fall	-10.8927
late	-10.893
▁threatening	-10.8935
▁branch	-10.8941
▁Deputy	-10.8948
▁Detroit	-10.8948
▁Rahul	-10.8948
▁sensor	-10.8948
▁urging	-10.8948
▁Jacob	-10.8948
▁overseas	-10.8948
▁residence	-10.8948
▁Aaron	-10.8948
▁gentle	-10.8948
▁diverse	-10.8948
▁ballots	-10.8948
▁resistance	-10.8949
▁judgment	-10.8949
▁Lisa	-10.895
▁Light	-10.8951
47	-10.8953
▁Sometimes	-10.8953
ե	-10.8954
▁profits	-10.8955
-5	-10.8961
▁spaces	-10.8962
▁discount	-10.8967
▁imposed	-10.8968
▁por	-10.897
▁joked	-10.8978
▁Roll	-10.898
After	-10.8999
▁button	-10.9003
▁bloc	-10.9004
del	-10.9019
FirstPublished	-10.902
▁Simpson	-10.902
▁calendar	-10.902
▁jacket	-10.902
▁technologies	-10.902
▁visible	-10.9023
▁depth	-10.9024
ccompanied	-10.9025
▁decent	-10.9028
▁Hong	-10.9028
▁mainly	-10.9029
▁pit	-10.9029
▁witnesses	-10.9033
▁flowers	-10.9034
▁underway	-10.9042
▁liked	-10.9044
▁globally	-10.9046
▁scar	-10.9048
▁Nation	-10.9052
▁reminder	-10.9053
▁goods	-10.9057
arm	-10.9059
▁solo	-10.9064
bal	-10.9071
▁expanded	-10.9073
CE	-10.9073
ու	-10.9078
▁destroy	-10.9091
▁Westminster	-10.9093
▁festive	-10.9093
▁promising	-10.9093
▁Gabriel	-10.9093
▁valid	-10.9093
▁discrimination	-10.9093
▁Safety	-10.9094
▁slot	-10.9094
▁yield	-10.9096
▁Say	-10.9101
▁2030	-10.9102
▁bold	-10.9104
▁popularity	-10.9104
▁chase	-10.9106
▁tracks	-10.9111
▁infection	-10.9111
▁ancient	-10.9113
tta	-10.9116
▁applications	-10.9116
ire	-10.9125
▁Son	-10.9131
▁sporting	-10.9132
▁refugees	-10.9133
▁comp	-10.9136
▁militants	-10.9143
▁ships	-10.9147
real	-10.9157
▁Cam	-10.9157
LE	-10.916
▁57	-10.9162
▁careful	-10.9163
▁licence	-10.9167
▁Jennifer	-10.9167
▁Nevada	-10.9167
▁mutual	-10.9167
▁Ocean	-10.9167
▁medium	-10.9167
▁comparison	-10.9167
▁exposure	-10.9167
▁auction	-10.9167
▁fortune	-10.9167
▁Brother	-10.9167
▁Yemen	-10.9167
▁flavour	-10.9168
▁Summer	-10.9169
▁Farage	-10.9169
▁Laura	-10.917
▁Arena	-10.9171
▁1960	-10.9171
▁lady	-10.9171
▁Mun	-10.9173
▁moderate	-10.9175
▁cake	-10.9175
▁Poll	-10.9175
▁slammed	-10.9176
imp	-10.9178
ում	-10.9181
▁Helen	-10.9183
▁tick	-10.9183
care	-10.9189
▁factory	-10.919
▁hired	-10.9192
ought	-10.9193
▁courts	-10.9194
▁Jam	-10.9195
▁cor	-10.9199
▁collapsed	-10.9204
▁Mus	-10.9206
▁eggs	-10.9209
▁hint	-10.921
▁delayed	-10.9221
▁fairly	-10.9221
▁Greg	-10.9222
▁sudden	-10.9226
▁hopeful	-10.9234
▁king	-10.9235
▁permit	-10.924
▁ambitious	-10.9241
▁robust	-10.9241
▁Welsh	-10.9241
▁mystery	-10.9241
▁click	-10.9241
▁Jimmy	-10.9242
▁carpet	-10.9243
▁proceedings	-10.9243
▁burning	-10.9244
▁desk	-10.9246
▁hack	-10.9247
▁Wright	-10.9247
▁27,	-10.9249
▁upper	-10.925
ei	-10.9251
box	-10.9252
cia	-10.9253
▁ingredients	-10.926
▁los	-10.926
▁closure	-10.9263
via	-10.9268
▁egg	-10.9273
▁earning	-10.928
59	-10.9281
▁headlines	-10.9282
▁Butler	-10.9283
▁Dean	-10.9284
On	-10.9287
▁jumped	-10.9292
02	-10.9292
aj	-10.9293
PS	-10.9299
ole	-10.9299
▁monitoring	-10.9301
▁methods	-10.9302
▁demanded	-10.9304
▁elements	-10.9305
▁Commissioner	-10.9309
34	-10.9311
▁Pal	-10.9312
▁CNBC	-10.9315
▁destruction	-10.9315
▁junior	-10.9315
▁tunnel	-10.9316
▁notable	-10.9316
▁sweat	-10.9316
▁Kelce	-10.9316
▁Neil	-10.9317
have	-10.9317
▁privilege	-10.9317
▁Know	-10.9317
▁intent	-10.9317
▁passport	-10.9318
▁regardless	-10.9321
eva	-10.9321
▁theft	-10.9321
▁Seven	-10.9323
▁Kong	-10.9324
▁pose	-10.9326
▁reflects	-10.9328
▁72	-10.933
▁Raj	-10.9333
▁struggles	-10.9334
▁Ty	-10.9338
▁admit	-10.9338
▁reforms	-10.934
▁3,	-10.934
▁regulation	-10.9341
▁forms	-10.9342
▁snap	-10.9343
▁Vo	-10.9344
lea	-10.9346
nal	-10.9346
will	-10.9347
▁x	-10.9351
Al	-10.9351
TV	-10.9351
▁dismiss	-10.9352
▁launching	-10.9354
ET	-10.9362
▁Kal	-10.9369
▁Phillips	-10.9369
▁Key	-10.9371
▁campaigns	-10.9374
▁genuine	-10.9378
▁Final	-10.9382
▁navigate	-10.9384
39	-10.9384
AC	-10.9385
AS	-10.9388
▁Alabama	-10.9391
▁assembly	-10.9391
▁firing	-10.9391
▁Kingdom	-10.9392
▁referee	-10.9392
▁edition	-10.9393
lle	-10.9401
ique	-10.9403
▁everyday	-10.9408
▁posed	-10.9417
▁dust	-10.9425
▁improvement	-10.9426
ony	-10.9427
▁lessons	-10.9427
▁ju	-10.943
ori	-10.9432
▁Tan	-10.9432
bie	-10.9434
deep	-10.9439
▁seeks	-10.944
▁emerge	-10.9441
▁lean	-10.9443
▁Hard	-10.9443
▁arts	-10.9443
32	-10.9444
SE	-10.9449
07	-10.9449
Why	-10.945
mber	-10.9458
▁Rio	-10.9462
▁CCTV	-10.9466
▁integrity	-10.9466
▁cousin	-10.9466
▁vocal	-10.9467
▁Greek	-10.9467
▁waves	-10.9467
▁orange	-10.9468
▁trafficking	-10.9468
98	-10.9468
▁interim	-10.9469
▁tourist	-10.9473
▁dressed	-10.9479
▁bet	-10.9483
Ha	-10.9484
▁object	-10.9486
▁Gill	-10.9487
name	-10.9488
▁divided	-10.949
bert	-10.949
▁Xi	-10.9494
▁humans	-10.9497
water	-10.9498
▁highlight	-10.9502
▁hostage	-10.9503
▁throwing	-10.9504
▁seed	-10.9505
shed	-10.951
▁Sta	-10.9511
▁Bri	-10.9512
▁playoff	-10.9514
▁Daniels	-10.9516
▁generate	-10.9517
▁covering	-10.9519
▁lit	-10.9522
▁thinks	-10.9522
▁voices	-10.9522
41	-10.9523
shirt	-10.9523
▁partly	-10.9526
▁weekly	-10.9533
▁Ran	-10.9539
▁Hay	-10.954
▁Trans	-10.9541
▁Tar	-10.9542
▁Conference	-10.9543
▁Professor	-10.9543
▁Wimbledon	-10.9543
▁engaging	-10.9543
▁equivalent	-10.9543
▁resilience	-10.9543
▁innocent	-10.9543
▁Express	-10.9543
▁uncertainty	-10.9544
▁cancelled	-10.9544
▁execution	-10.9544
▁LGBTQ	-10.9545
▁burst	-10.9545
▁boil	-10.9546
▁accessible	-10.9546
▁audio	-10.9547
▁2018.	-10.9548
▁Given	-10.9552
▁attraction	-10.9555
▁outbreak	-10.9555
▁accountable	-10.9556
▁rapidly	-10.9556
▁stages	-10.9564
▁Come	-10.9565
▁bitter	-10.9568
▁pointing	-10.9569
▁Services	-10.958
▁Syrian	-10.958
▁magic	-10.9582
▁Dog	-10.9584
▁collected	-10.9585
▁Dun	-10.9586
ո	-10.9591
▁ignore	-10.9594
▁prop	-10.9594
▁Kenya	-10.9603
▁te	-10.9608
▁fault	-10.9608
▁+	-10.9612
▁institution	-10.9613
nda	-10.9616
▁trigger	-10.9618
▁Set	-10.9619
▁Capital	-10.962
▁DeSantis	-10.962
▁entrance	-10.962
▁coin	-10.962
▁Airlines	-10.962
▁nonprofit	-10.962
▁Nicola	-10.962
▁Norway	-10.9621
▁afterwards	-10.9621
sign	-10.9622
▁metres	-10.9623
▁earth	-10.9626
illo	-10.9627
▁organised	-10.9633
▁25,	-10.9637
▁opener	-10.9639
▁involves	-10.9639
▁youngest	-10.9639
100	-10.9645
▁theater	-10.9647
Ho	-10.9653
ifying	-10.9655
▁trainer	-10.9656
▁fate	-10.9656
▁rocket	-10.9657
▁Mas	-10.9661
▁filmed	-10.9661
▁doubled	-10.9665
avi	-10.9668
▁Camp	-10.9671
▁Mat	-10.9672
ero	-10.9673
gun	-10.9676
▁headline	-10.9677
bor	-10.9678
▁arguments	-10.968
▁restore	-10.968
▁contributions	-10.9681
▁bets	-10.9681
▁2002	-10.9683
▁witnessed	-10.9683
▁mode	-10.9683
▁2001	-10.9684
▁sexually	-10.9689
66	-10.9695
MC	-10.9696
▁contains	-10.9696
▁5,	-10.9697
▁Argentina	-10.9697
▁Executive	-10.9697
▁Mohammed	-10.9697
▁breed	-10.9697
▁Authority	-10.9698
▁Craig	-10.9698
▁priorities	-10.9698
▁Diego	-10.9698
▁1997	-10.9699
▁anonymous	-10.9701
grade	-10.9701
▁script	-10.9705
▁tries	-10.9706
ս	-10.9706
▁toxic	-10.9707
▁hi	-10.971
Un	-10.971
▁Anti	-10.9711
▁Much	-10.9715
▁reasonable	-10.9716
ban	-10.9718
▁approximately	-10.9721
33	-10.9722
erie	-10.9725
nel	-10.9725
▁qualify	-10.9728
▁teach	-10.9728
▁tune	-10.973
ora	-10.973
▁ranking	-10.9735
hr	-10.9743
85	-10.9745
▁invested	-10.9747
▁illegally	-10.9751
While	-10.9754
▁substantial	-10.9764
▁origin	-10.9767
▁situations	-10.9769
▁foods	-10.9771
▁unlike	-10.9773
▁inform	-10.9773
▁Dubai	-10.9775
▁hurricane	-10.9775
▁suspicion	-10.9775
▁Management	-10.9775
▁damaging	-10.9775
rat	-10.9776
▁Gordon	-10.9776
▁memoir	-10.9776
▁batting	-10.9778
▁minority	-10.9779
gal	-10.9779
▁crop	-10.9782
▁hire	-10.9783
▁disappointing	-10.9783
▁shade	-10.9787
].	-10.9791
▁boxing	-10.9793
▁controlled	-10.9795
▁Barry	-10.9797
elli	-10.9802
atory	-10.9805
▁investigated	-10.9806
▁Ji	-10.9808
▁generated	-10.9808
TA	-10.9808
▁App	-10.9808
left	-10.981
▁aspects	-10.982
any	-10.9821
tric	-10.9823
asi	-10.9823
▁£10	-10.9823
wn	-10.9824
AL	-10.9825
finals	-10.9826
▁Find	-10.9827
▁62	-10.9835
▁$9	-10.9837
44	-10.9838
▁cleared	-10.9838
▁surprising	-10.9839
▁surely	-10.9841
▁withdraw	-10.9845
▁grounds	-10.9849
▁liquid	-10.9852
▁knock	-10.9852
▁Lebanese	-10.9854
▁chapter	-10.9854
▁Telegram	-10.9854
▁Azerbaijan	-10.9855
▁attendance	-10.9856
▁Jen	-10.9856
▁Knight	-10.9857
▁adaptation	-10.9858
▁pray	-10.9858
ref	-10.9859
▁refer	-10.9859
▁outrage	-10.9863
loss	-10.9865
zar	-10.9873
▁searching	-10.9877
▁(3	-10.9882
▁formula	-10.9882
sure	-10.9887
▁belong	-10.9895
▁routes	-10.9901
▁Way	-10.9903
wide	-10.991
▁updated	-10.9916
▁tan	-10.9918
▁reverse	-10.9924
▁bath	-10.9926
▁immunity	-10.9933
▁triumph	-10.9933
▁temple	-10.9933
▁Narendra	-10.9933
▁chamber	-10.9934
EC	-10.9935
▁Tower	-10.9935
▁neutral	-10.9936
▁starter	-10.9944
▁Pete	-10.9944
")	-10.9948
▁cells	-10.9949
▁Place	-10.9952
true	-10.9952
CO	-10.9954
▁Bor	-10.9956
see	-10.9957
▁Marine	-10.9958
▁boxes	-10.9958
bon	-10.996
▁birds	-10.9965
▁Pass	-10.997
matic	-10.9971
tel	-10.9972
▁18,	-10.9975
▁wages	-10.9976
▁adjust	-10.998
▁fa	-10.9981
wo	-10.9983
▁Rome	-10.9986
ridge	-10.9989
▁guns	-10.999
nder	-10.9999
▁defended	-11.0002
▁tri	-11.0003
spec	-11.0005
gor	-11.0009
▁Abbott	-11.0013
▁Stewart	-11.0013
▁participation	-11.0013
▁Sussex	-11.0013
▁choosing	-11.0013
▁protein	-11.0013
▁laptop	-11.0014
▁Turkish	-11.0014
▁centuries	-11.0015
▁Nazi	-11.0022
▁providers	-11.0027
▁observed	-11.0028
▁teen	-11.0028
▁proof	-11.0035
▁contracts	-11.0037
▁picking	-11.004
▁IPL	-11.004
▁fold	-11.0044
▁nail	-11.0049
▁guaranteed	-11.0051
turn	-11.0062
stand	-11.0068
▁gut	-11.0068
▁graduate	-11.0073
piece	-11.0074
▁homeless	-11.0074
▁Ve	-11.0076
▁spreading	-11.0082
▁recognize	-11.0083
Let	-11.0093
▁slip	-11.0093
▁Cabinet	-11.0094
▁eclipse	-11.0094
▁streak	-11.0094
▁trillion	-11.0094
▁ethnic	-11.0094
▁intimate	-11.0094
▁distribution	-11.0094
▁glad	-11.0094
▁Bureau	-11.0094
▁consent	-11.0094
▁Off	-11.0094
▁lockdown	-11.0095
▁mi	-11.0095
▁classified	-11.0095
▁Spring	-11.0095
▁submitted	-11.0095
▁GDP	-11.0095
▁dining	-11.0096
iness	-11.0098
▁somewhat	-11.0101
▁episodes	-11.0103
▁makeup	-11.0104
▁10%	-11.0104
▁cry	-11.0106
▁suspects	-11.0108
▁investigators	-11.0113
▁2,000	-11.0117
▁readers	-11.0119
▁sleeping	-11.0119
pha	-11.012
▁sued	-11.0128
▁Farm	-11.0131
▁exception	-11.0134
▁deter	-11.0137
hin	-11.0139
▁Have	-11.0142
▁senator	-11.0144
▁halt	-11.0144
▁dec	-11.0144
leg	-11.0145
▁meaningful	-11.0147
had	-11.0148
quarter	-11.0154
century	-11.0154
▁mega	-11.0155
▁frequent	-11.0161
sey	-11.0161
ua	-11.0166
▁Financial	-11.0175
▁bronze	-11.0175
▁comedian	-11.0175
▁McDonald	-11.0176
▁Travel	-11.0176
▁Travis	-11.0176
▁pepper	-11.0176
▁rapper	-11.0177
▁Michelle	-11.0177
▁diversity	-11.0177
▁spotlight	-11.0177
▁addiction	-11.0178
▁DNA	-11.0179
▁Duke	-11.0179
▁Perry	-11.018
▁scan	-11.018
▁15-	-11.0183
▁asks	-11.019
▁chips	-11.0191
▁Mai	-11.0191
▁nominated	-11.0194
04	-11.0197
IA	-11.0202
ula	-11.0205
▁Report	-11.0206
▁tag	-11.0207
▁Forces	-11.0214
▁def	-11.0215
▁disrupt	-11.0218
▁56	-11.0219
▁crown	-11.0225
ency	-11.0226
▁Bush	-11.023
▁lifetime	-11.0231
▁Edwards	-11.0231
▁shooter	-11.0231
▁commissioner	-11.0233
oh	-11.0233
▁Brad	-11.0233
▁citizen	-11.0233
oli	-11.0235
▁insider	-11.0236
▁Abu	-11.0238
▁audiences	-11.0239
▁dancer	-11.0242
▁checks	-11.0242
how	-11.0246
▁61	-11.0248
Mi	-11.0251
▁assists	-11.0254
party	-11.0257
▁autumn	-11.0257
▁Aberdeen	-11.0257
▁Baltimore	-11.0257
▁explosive	-11.0257
▁fierce	-11.0257
▁removal	-11.0257
▁uniform	-11.0257
▁Swiss	-11.0257
▁surveillance	-11.0257
▁admission	-11.0258
▁wrapped	-11.0258
▁resignation	-11.026
▁gather	-11.0261
▁heating	-11.0262
▁woke	-11.0263
▁vary	-11.0265
▁2003	-11.0265
suming	-11.0266
▁tenure	-11.0267
▁Feb	-11.027
▁tale	-11.0277
▁rush	-11.028
▁Again	-11.0281
8%	-11.0283
▁(2	-11.0285
▁$10	-11.0287
▁rolling	-11.029
▁Mur	-11.0297
▁brave	-11.0298
▁supportive	-11.0298
▁covers	-11.0302
▁Kris	-11.0302
▁59	-11.0306
▁Easter	-11.0312
aries	-11.0313
▁chi	-11.0315
▁tro	-11.0319
which	-11.0319
watch	-11.0323
▁50-	-11.0329
▁procedures	-11.0331
▁Gun	-11.0331
▁overwhelming	-11.0333
▁praise	-11.0333
▁rolled	-11.0335
▁exploit	-11.0338
▁Nor	-11.034
▁Caribbean	-11.034
▁depression	-11.034
▁Campbell	-11.034
▁Oliver	-11.034
▁clinical	-11.034
▁Amanda	-11.034
▁arrangement	-11.034
▁blog	-11.0341
▁spray	-11.0341
▁manifesto	-11.0343
▁racism	-11.0343
NE	-11.0343
▁teeth	-11.0343
▁Has	-11.0344
▁complained	-11.036
▁bound	-11.0365
▁condemned	-11.0367
thro	-11.0369
▁communications	-11.037
▁employ	-11.0372
▁requests	-11.0374
46	-11.0376
▁Kan	-11.0384
▁useful	-11.0385
▁recognised	-11.0386
tha	-11.0386
wear	-11.0388
▁3-	-11.0392
▁17,	-11.0395
▁dubb	-11.0395
▁refuse	-11.0398
▁recipe	-11.0398
▁pause	-11.0398
▁medication	-11.0399
▁fighter	-11.0402
▁migrant	-11.0405
erson	-11.0412
▁Mak	-11.0419
▁Den	-11.0421
▁Illinois	-11.0423
▁Lawrence	-11.0423
▁dancing	-11.0423
▁casino	-11.0423
▁posting	-11.0423
▁Yorkshire	-11.0423
▁describing	-11.0424
▁skill	-11.0424
▁goalkeeper	-11.0424
57	-11.0425
▁punishment	-11.0425
▁foul	-11.0425
▁1999	-11.0426
▁awful	-11.0426
▁Mother	-11.0426
▁loving	-11.0429
▁Keep	-11.043
ord	-11.0435
How	-11.0445
▁lake	-11.0448
▁($	-11.045
▁murdered	-11.0453
▁knocked	-11.0457
6%	-11.046
unk	-11.046
action	-11.0465
▁Inc	-11.0466
▁impacts	-11.0468
▁finances	-11.0475
▁sla	-11.0482
▁trains	-11.0482
▁muscle	-11.0484
▁pour	-11.0486
▁tension	-11.0488
▁realize	-11.0488
▁Trade	-11.049
▁rapid	-11.0494
ili	-11.0497
▁trucks	-11.05
▁retailer	-11.0504
til	-11.0505
▁celebrities	-11.0507
▁detention	-11.0507
▁primarily	-11.0507
▁reception	-11.0507
▁է	-11.0507
▁Sheriff	-11.0507
▁chancellor	-11.0507
▁soccer	-11.0507
▁grandmother	-11.0508
▁labour	-11.0508
▁safeguard	-11.0508
▁PC	-11.0508
▁adventure	-11.051
▁vibe	-11.051
▁stepping	-11.0511
▁Stock	-11.0511
▁Hindu	-11.0512
▁THE	-11.0513
▁Des	-11.0515
▁Everything	-11.0516
▁letting	-11.0521
▁CO	-11.0523
▁Wade	-11.0524
▁explaining	-11.0526
▁Boo	-11.0527
▁ranks	-11.0529
▁fishing	-11.0537
lot	-11.0538
▁Kam	-11.0538
ova	-11.0542
hl	-11.0543
▁involve	-11.0544
▁Hart	-11.0548
▁root	-11.0549
iva	-11.055
▁endless	-11.0554
▁links	-11.0557
▁retire	-11.0558
▁bio	-11.0559
▁reward	-11.056
ddle	-11.056
▁explosion	-11.0571
billion	-11.0571
▁GB	-11.0572
good	-11.0574
▁$8	-11.0574
▁contained	-11.0576
▁processes	-11.0576
▁85	-11.0577
▁fail	-11.0581
▁teenage	-11.0586
▁container	-11.0591
▁Taliban	-11.0592
▁Verstappen	-11.0592
▁generous	-11.0592
▁incumbent	-11.0592
▁industries	-11.0592
▁leather	-11.0592
▁threshold	-11.0592
▁steady	-11.0592
▁headquarters	-11.0592
▁stabbed	-11.0592
▁compound	-11.0592
▁66	-11.0592
▁steam	-11.0593
▁Eve	-11.0593
▁juice	-11.0593
▁Finland	-11.0593
▁Money	-11.0597
bank	-11.0597
▁anybody	-11.0598
▁Comp	-11.0598
▁connections	-11.0599
▁belt	-11.0599
▁Metro	-11.0599
▁expanding	-11.0599
▁Howard	-11.0601
▁somehow	-11.0601
▁Molly	-11.0602
ups	-11.0602
▁Story	-11.0604
sized	-11.0605
▁expenses	-11.0609
▁wi	-11.0614
▁FC	-11.0618
▁Holly	-11.0619
▁resigned	-11.0621
home	-11.0623
bet	-11.0627
media	-11.0629
▁26,	-11.0633
▁inner	-11.0633
PO	-11.0634
zing	-11.0637
06	-11.0638
▁120	-11.064
▁announc	-11.0645
▁28,	-11.0647
▁marking	-11.0648
▁proven	-11.0649
emi	-11.0651
▁4,	-11.0652
who	-11.0655
▁trailer	-11.0656
▁volunteer	-11.0659
▁Andre	-11.0663
▁bottles	-11.0664
graph	-11.0666
▁Kings	-11.0666
▁typical	-11.0667
▁preserve	-11.067
▁laughing	-11.0674
▁Portugal	-11.0678
▁Society	-11.0678
▁awkward	-11.0678
▁frozen	-11.0678
▁thus	-11.0678
▁consultant	-11.0678
▁amendment	-11.0679
▁flew	-11.0679
▁offence	-11.0683
67	-11.0685
▁outstanding	-11.0689
rid	-11.0691
▁Start	-11.0693
▁emotions	-11.0694
hire	-11.0696
▁Eastern	-11.0696
▁Vin	-11.0699
ank	-11.0701
ace	-11.0707
▁topic	-11.0707
▁bird	-11.0708
▁Fan	-11.0709
▁educational	-11.071
▁occasions	-11.0711
▁rounds	-11.0711
▁poster	-11.0711
bury	-11.0721
rio	-11.0722
43	-11.0727
▁Baker	-11.073
▁Turn	-11.073
▁professionals	-11.0732
atic	-11.0738
▁checked	-11.074
▁locals	-11.0742
Thank	-11.0743
▁Aston	-11.0744
▁hanging	-11.0744
match	-11.0745
▁pattern	-11.0748
▁finger	-11.0749
▁facts	-11.0749
has	-11.0749
▁16,	-11.075
▁1.5	-11.0751
▁athlete	-11.0752
▁pocket	-11.0752
igan	-11.0752
▁mistakes	-11.0753
▁efficient	-11.0754
wick	-11.0757
▁Dem	-11.0761
poli	-11.0761
Not	-11.0762
▁submit	-11.0762
▁MailOnline	-11.0764
▁drought	-11.0764
▁horrific	-11.0764
▁yeah	-11.0764
▁Lanka	-11.0764
▁torture	-11.0764
▁Mountain	-11.0764
ttle	-11.0766
\">	-11.0767
▁Reserve	-11.0769
▁Care	-11.0773
▁rises	-11.0773
▁spare	-11.078
ement	-11.0781
breaking	-11.0784
▁dominated	-11.0784
▁treatments	-11.0785
▁attractive	-11.0785
▁lengthy	-11.0787
▁Gray	-11.0787
▁wealthy	-11.0789
pop	-11.0792
ologist	-11.0792
▁mad	-11.0793
▁Sand	-11.0797
▁orbit	-11.08
▁64	-11.0801
ía	-11.0802
burn	-11.0803
-9	-11.0805
▁Prosecutors	-11.0806
▁trips	-11.0809
bil	-11.081
▁executives	-11.0811
▁crying	-11.0815
▁defeated	-11.0816
▁Sim	-11.0816
▁rescued	-11.0818
tech	-11.0818
▁Billy	-11.0822
mission	-11.083
Pro	-11.083
ME	-11.0831
flow	-11.0842
ound	-11.0846
▁immense	-11.0851
▁Chancellor	-11.0851
▁Swedish	-11.0851
▁concrete	-11.0851
▁silent	-11.0851
▁reckon	-11.0851
▁scientific	-11.0851
▁Denmark	-11.0851
▁Munich	-11.0851
▁Theatre	-11.0851
▁governance	-11.0851
▁renewable	-11.0852
▁Everton	-11.0852
▁uncomfortable	-11.0852
▁Pay	-11.0853
▁Things	-11.0858
▁triple	-11.0859
▁Sound	-11.0863
64	-11.0867
NC	-11.0877
▁sessions	-11.088
▁flee	-11.0883
▁McG	-11.0887
▁Carr	-11.0888
char	-11.0888
▁longest	-11.0896
▁indicate	-11.0901
▁purchased	-11.0904
▁highlighting	-11.0905
check	-11.0905
▁rep	-11.0905
vie	-11.0908
▁oppose	-11.0913
▁tone	-11.0913
▁naturally	-11.0917
▁ramp	-11.092
▁politically	-11.0921
RO	-11.0921
band	-11.0926
▁supermarket	-11.0927
▁traveling	-11.0929
▁Jazeera	-11.0938
▁glimpse	-11.0938
▁arriving	-11.0938
▁Bayern	-11.0938
▁transparency	-11.0939
▁Company	-11.0939
▁carrier	-11.0939
▁overcome	-11.0939
▁framework	-11.0939
▁harsh	-11.0939
▁existence	-11.0939
▁Network	-11.094
▁harassment	-11.094
▁crashed	-11.0941
▁islands	-11.0943
▁alien	-11.0943
▁listening	-11.0944
▁Rice	-11.0948
▁reads	-11.0949
▁shore	-11.0952
▁dual	-11.0953
▁subsequently	-11.0953
▁pile	-11.0954
▁discovery	-11.0955
being	-11.0956
▁Az	-11.0957
▁coup	-11.0957
▁Hur	-11.0958
▁funded	-11.0965
▁retailers	-11.0969
▁visits	-11.0972
Date	-11.098
▁lap	-11.0985
nov	-11.0986
▁neighbours	-11.0989
ort	-11.0989
▁IT	-11.099
kg	-11.0997
▁declare	-11.1001
▁invite	-11.1003
market	-11.1008
▁overturn	-11.1009
▁medals	-11.1016
▁screening	-11.1019
▁investor	-11.1024
bell	-11.1026
▁safely	-11.1027
•	-11.1027
▁Community	-11.1027
▁Greece	-11.1027
▁communicate	-11.1027
▁phrase	-11.1027
▁NSW	-11.1027
▁Climate	-11.1027
▁Finance	-11.1028
▁Albert	-11.103
▁daughters	-11.1032
▁courtroom	-11.1033
▁Patel	-11.1034
▁plain	-11.1035
*	-11.1035
Now	-11.1035
▁climb	-11.1037
▁mentor	-11.1038
▁anticipated	-11.1041
▁gangs	-11.1044
that	-11.1046
▁pla	-11.1049
▁ages	-11.1051
▁Player	-11.1051
▁managers	-11.1051
itt	-11.1054
pu	-11.1055
▁Euros	-11.1058
▁24-	-11.1059
▁"[	-11.106
▁filling	-11.1061
ddy	-11.1062
used	-11.1062
▁wash	-11.1072
nia	-11.1073
▁playoffs	-11.1081
▁Sk	-11.1083
▁differences	-11.1085
▁notably	-11.1086
count	-11.109
▁resume	-11.1091
AFP	-11.1096
dan	-11.1097
▁Dor	-11.1112
▁Glen	-11.1115
▁Kejriwal	-11.1116
▁athletic	-11.1116
▁exploring	-11.1116
▁pursuit	-11.1116
▁rookie	-11.1116
▁notorious	-11.1116
▁Child	-11.1116
▁subscription	-11.1116
▁Division	-11.1117
▁Joshua	-11.1117
▁Brighton	-11.1117
itch	-11.1118
▁Amendment	-11.1118
▁Brazilian	-11.1119
▁dollar	-11.1121
▁occasionally	-11.1127
▁youngster	-11.113
▁DJ	-11.1134
▁survivors	-11.1135
▁producers	-11.114
▁Clarke	-11.1141
▁spike	-11.1142
mun	-11.1145
ote	-11.1147
▁closest	-11.1155
▁investigations	-11.1156
▁rap	-11.1157
▁wipe	-11.1157
body	-11.1163
▁arrests	-11.1164
hn	-11.1164
▁footballer	-11.1166
lies	-11.1171
31	-11.1174
▁operational	-11.1175
▁Qui	-11.1176
suit	-11.1176
▁Heart	-11.118
▁veterans	-11.1182
coming	-11.1184
▁subsequent	-11.1192
▁Carlos	-11.1192
▁whil	-11.1196
Line	-11.1197
there	-11.1197
just	-11.1199
▁falls	-11.1202
▁neighbor	-11.1202
▁violation	-11.1202
▁Vietnam	-11.1206
▁Grammy	-11.1206
▁Indigenous	-11.1206
▁Kohli	-11.1206
▁Tehran	-11.1206
▁entitled	-11.1206
▁inclusion	-11.1206
▁legislative	-11.1206
▁bunch	-11.1209
▁Through	-11.1209
NS	-11.1209
▁producing	-11.121
▁hush	-11.1212
ius	-11.1213
Don	-11.1214
▁lung	-11.1215
▁rice	-11.1224
▁clo	-11.1232
hen	-11.1235
▁Juan	-11.1236
.5%	-11.1237
▁fo	-11.1238
power	-11.1244
▁tactics	-11.1247
MI	-11.1251
▁networks	-11.1254
ched	-11.1255
member	-11.1257
▁Tor	-11.1259
▁Action	-11.1259
▁lab	-11.1261
ept	-11.1261
▁employers	-11.1262
▁sal	-11.1262
▁Sel	-11.1263
▁implemented	-11.1263
▁exceptional	-11.1264
isa	-11.1264
▁provider	-11.1265
▁nose	-11.1265
▁license	-11.1272
▁crowds	-11.128
▁mal	-11.1283
▁21,	-11.1285
rry	-11.1287
88	-11.1289
▁cop	-11.1293
▁thousand	-11.1296
▁wrap	-11.1296
▁Ahmed	-11.1297
▁Blinken	-11.1297
▁bizarre	-11.1297
▁spectacular	-11.1297
▁Margaret	-11.1297
▁absorb	-11.1297
▁ambulance	-11.1297
▁perception	-11.1297
▁suspension	-11.1297
▁treasure	-11.1297
▁proportion	-11.1297
▁nightmare	-11.1297
▁fixture	-11.1298
▁trapped	-11.1298
▁grey	-11.1299
pla	-11.13
▁Woman	-11.13
▁commentator	-11.1301
▁WA	-11.1304
▁travelled	-11.1307
▁Dev	-11.1308
▁affecting	-11.1312
▁Turner	-11.1312
cie	-11.1314
կ	-11.1318
▁holes	-11.1322
ching	-11.1322
▁recommendations	-11.1324
▁successor	-11.1325
▁briefly	-11.1325
▁Ter	-11.1326
▁recognized	-11.1333
mates	-11.1334
5%	-11.1335
▁outcomes	-11.1336
▁item	-11.1338
rog	-11.1343
▁$	-11.1348
▁trials	-11.1349
▁22,	-11.1353
ngressional	-11.1356
▁obtain	-11.1357
▁Rh	-11.1359
-0	-11.1359
▁criminals	-11.136
▁centres	-11.1363
▁legally	-11.1364
▁Vol	-11.1365
▁differently	-11.1368
child	-11.1369
▁loves	-11.1371
fil	-11.1372
▁practical	-11.1374
fish	-11.1383
▁cy	-11.1384
hir	-11.1385
▁sentences	-11.1388
ö	-11.1389
▁Cleveland	-11.1389
▁Hannah	-11.1389
▁efficiency	-11.1389
▁encampment	-11.1389
▁penalties	-11.1389
▁predecessor	-11.1389
▁stomach	-11.1389
▁worn	-11.1389
▁Gareth	-11.1389
▁UCLA	-11.1389
▁Control	-11.1389
▁unemployment	-11.1389
▁ambition	-11.139
▁leap	-11.139
ground	-11.1391
▁warns	-11.1393
▁100%	-11.1394
▁modest	-11.1395
▁elderly	-11.1398
▁till	-11.1398
▁Leeds	-11.1398
▁openly	-11.1402
▁empower	-11.1402
▁booked	-11.1403
Yes	-11.1408
▁offences	-11.1409
oke	-11.1411
▁diplomat	-11.1416
▁Shan	-11.1416
▁mail	-11.1416
cor	-11.142
▁sy	-11.1421
▁ver	-11.1422
▁actively	-11.1432
anna	-11.1436
▁cla	-11.1455
▁Pla	-11.1455
mel	-11.1458
First	-11.1461
▁lifted	-11.1461
New	-11.1464
▁waters	-11.1465
▁loyal	-11.1469
▁inning	-11.147
▁ultimate	-11.1471
▁trends	-11.1471
▁81	-11.1477
▁delicious	-11.1482
▁library	-11.1482
▁Bristol	-11.1482
▁achieving	-11.1482
▁bacteria	-11.1482
▁cocktail	-11.1482
▁ordinary	-11.1482
▁rumours	-11.1482
▁survival	-11.1482
▁vibrant	-11.1482
▁oven	-11.1482
▁Merchan	-11.1482
▁Antonio	-11.1482
bri	-11.1483
▁railway	-11.1483
▁Unlike	-11.1484
vid	-11.1484
▁boot	-11.1484
▁endorsement	-11.1485
▁shifted	-11.1485
▁examination	-11.1486
▁violations	-11.1486
host	-11.149
break	-11.149
▁antisemitism	-11.1491
▁Rev	-11.1496
▁quoted	-11.1501
▁30,	-11.1503
NG	-11.1504
▁Barr	-11.1506
▁comply	-11.1507
▁Sy	-11.1512
▁Hor	-11.1513
▁coal	-11.1513
tag	-11.1513
▁8,	-11.1515
▁Officer	-11.1524
▁Gor	-11.1526
▁premiere	-11.1528
▁reminded	-11.153
▁relax	-11.1541
▁warn	-11.1541
ami	-11.1545
▁resign	-11.1545
▁attorneys	-11.1545
▁elect	-11.1548
▁slice	-11.1549
▁photograph	-11.1551
ulation	-11.1552
▁engineer	-11.1552
▁appeals	-11.1554
▁Armenia	-11.1557
quality	-11.1564
▁Cur	-11.1565
founder	-11.1569
▁Hurricane	-11.1575
▁Leicester	-11.1575
▁diabetes	-11.1575
▁principal	-11.1575
▁thrive	-11.1575
▁Android	-11.1575
▁pizza	-11.1575
▁Douglas	-11.1575
▁mainstream	-11.1576
▁OpenAI	-11.1576
▁Bengal	-11.1576
▁Powell	-11.1577
▁reliable	-11.1578
▁reign	-11.1579
▁talented	-11.158
▁passage	-11.1582
▁Kent	-11.1585
test	-11.1586
▁fleet	-11.1586
▁Eli	-11.1591
▁fi	-11.1595
▁emphasized	-11.1595
▁wishes	-11.1601
▁tin	-11.1605
▁ignored	-11.1606
▁formally	-11.1607
ago	-11.1608
▁Indiana	-11.1611
▁Charlie	-11.1617
Image	-11.1619
▁Actor	-11.1624
▁flags	-11.1628
ld	-11.1631
▁hotels	-11.1637
▁bowler	-11.1637
▁riding	-11.1638
only	-11.1644
▁assume	-11.1645
/1	-11.165
▁Bond	-11.1653
▁relatives	-11.1658
án	-11.1658
77	-11.1662
dio	-11.1663
▁wire	-11.1663
adi	-11.1664
▁disagree	-11.1667
▁terrorists	-11.1669
▁Belgium	-11.1669
▁Hungary	-11.1669
▁Singapore	-11.1669
գ	-11.1669
▁Celebrity	-11.1669
▁Policy	-11.1669
▁Tennessee	-11.1669
▁devastated	-11.1669
▁embassy	-11.1669
▁consumption	-11.1669
▁debris	-11.1669
▁Lang	-11.167
▁registration	-11.167
hil	-11.167
▁preferred	-11.1671
▁classroom	-11.1671
▁recruitment	-11.1671
▁legendary	-11.1672
▁Riley	-11.1674
▁Sai	-11.1677
▁organized	-11.1677
▁smartphone	-11.1678
▁Sign	-11.1678
▁chemical	-11.1678
▁touchdown	-11.168
lf	-11.1681
olo	-11.169
▁installed	-11.1692
zen	-11.1693
300	-11.1694
▁spy	-11.1699
rise	-11.1699
▁parade	-11.1701
▁Evans	-11.1702
miss	-11.1705
yl	-11.1705
▁Spe	-11.1707
▁Unit	-11.1708
tier	-11.1712
▁Sol	-11.1713
▁aiming	-11.1718
▁Cri	-11.1719
too	-11.1722
-7	-11.1723
▁qualifying	-11.1727
▁improvements	-11.173
▁confront	-11.173
▁Fra	-11.1734
▁24,	-11.1735
▁Wor	-11.1736
▁Bryan	-11.174
▁gig	-11.1741
▁shoulders	-11.1744
▁donors	-11.1747
▁Crime	-11.1749
▁chemicals	-11.1755
▁77	-11.1759
▁Muslims	-11.1761
▁relative	-11.1761
▁pressures	-11.1762
▁Haiti	-11.1763
▁movements	-11.1764
ք	-11.1765
▁Colombia	-11.1765
▁ESPN	-11.1765
▁Guardiola	-11.1765
▁Klopp	-11.1765
▁categories	-11.1765
▁referendum	-11.1765
▁Could	-11.1765
▁stint	-11.1765
▁buried	-11.1765
▁Point	-11.1765
▁rainfall	-11.1765
▁description	-11.1766
▁Warren	-11.1767
▁glow	-11.1767
▁frustrated	-11.1768
▁Should	-11.1768
▁Warner	-11.1771
▁Eight	-11.1774
▁20%	-11.1774
ando	-11.1775
▁downtown	-11.1776
▁relation	-11.1779
▁renewed	-11.1779
▁op	-11.1781
▁1-0	-11.1782
▁Hand	-11.1786
▁rental	-11.1786
▁dash	-11.1789
89	-11.1792
▁pages	-11.1792
kov	-11.1794
▁Line	-11.1795
▁arch	-11.1795
▁borders	-11.1801
▁Thank	-11.1803
▁employed	-11.1809
▁secondary	-11.1811
▁br	-11.1812
▁accuse	-11.1813
▁scream	-11.1814
▁minds	-11.1815
nell	-11.1817
▁68	-11.1817
▁17-	-11.1819
▁Dam	-11.1821
▁supporter	-11.1825
▁feared	-11.1827
▁Rod	-11.1828
guardian	-11.1841
▁opens	-11.1843
aging	-11.1848
97	-11.1849
bol	-11.1854
▁vet	-11.1855
▁casual	-11.1859
▁revolution	-11.1859
68	-11.186
▁drain	-11.186
▁expects	-11.1861
▁Avenue	-11.1861
▁Catherine	-11.1861
▁Harvard	-11.1861
▁Organization	-11.1861
▁Thousand	-11.1861
▁extremist	-11.1861
	-11.1861
▁Political	-11.1861
▁enemy	-11.1861
▁ninth	-11.1861
▁chronic	-11.1861
▁Jews	-11.1861
▁pleasure	-11.1861
▁citizenship	-11.1861
▁insult	-11.1862
▁grace	-11.1862
▁1996	-11.1863
▁cafe	-11.1863
▁cabin	-11.1864
▁Nothing	-11.1865
▁equipped	-11.1865
▁qualified	-11.1868
▁terrorism	-11.1868
▁occupied	-11.1869
▁dishes	-11.1871
▁queen	-11.1872
="	-11.1873
▁Dead	-11.1873
▁unfortunately	-11.1874
ón	-11.1874
▁adopt	-11.1875
chan	-11.1877
▁clinic	-11.1878
▁humanity	-11.1879
din	-11.188
log	-11.188
▁inches	-11.188
Con	-11.188
▁Hai	-11.1883
▁highway	-11.1884
title	-11.1895
▁questioning	-11.1899
▁mob	-11.1903
▁Tur	-11.1903
▁govern	-11.1909
▁Sale	-11.1909
▁vo	-11.191
▁amounts	-11.1911
▁lip	-11.1911
**	-11.1912
▁Does	-11.1912
▁Gro	-11.1916
▁2025,	-11.1917
▁valued	-11.1918
▁bro	-11.1918
kes	-11.1922
▁condemn	-11.1924
▁challenged	-11.1924
▁Commons	-11.1925
▁admits	-11.1925
▁annually	-11.1929
▁weigh	-11.193
76	-11.1933
ING	-11.1934
▁grade	-11.1938
▁Looking	-11.194
Every	-11.1941
▁outlets	-11.1943
▁acted	-11.1943
▁rough	-11.1944
TC	-11.1945
▁unity	-11.1946
▁Dame	-11.1947
face	-11.1949
▁beside	-11.1949
▁dealt	-11.1951
▁III	-11.1951
▁estimate	-11.1951
▁Support	-11.1953
▁ga	-11.1955
▁cow	-11.1956
▁grief	-11.1958
▁phenomenon	-11.1958
▁ecosystem	-11.1958
▁Essex	-11.1958
▁Mount	-11.1958
▁boundaries	-11.1958
▁excuse	-11.1958
▁Nigel	-11.1959
▁lemon	-11.1959
▁Nathan	-11.196
▁objective	-11.196
▁theories	-11.196
▁superstar	-11.1961
▁legitimate	-11.1961
▁boots	-11.1961
▁consultation	-11.1961
▁Diana	-11.1962
▁Gil	-11.1963
ré	-11.1967
-10	-11.1967
hard	-11.197
▁Motor	-11.1972
hel	-11.1973
▁Brits	-11.1975
▁76	-11.1976
▁periods	-11.1979
▁2-1	-11.198
▁vessels	-11.198
▁compare	-11.198
▁wicket	-11.1985
ense	-11.1987
▁Reg	-11.199
▁principles	-11.1991
▁Officials	-11.1992
▁inappropriate	-11.2007
aged	-11.2009
PR	-11.2017
▁align	-11.2023
IM	-11.2023
▁Experts	-11.2026
tti	-11.2028
what	-11.2028
from	-11.203
mail	-11.203
Even	-11.2033
Palestinian	-11.2035
▁PR	-11.2039
▁Milan	-11.204
▁arrives	-11.2045
▁Within	-11.2045
▁billions	-11.2046
2%	-11.205
iel	-11.2051
▁Math	-11.2052
▁Brussels	-11.2056
▁Djokovic	-11.2056
▁Intelligence	-11.2056
▁Lloyd	-11.2056
▁Serbia	-11.2056
▁chaotic	-11.2056
▁gesture	-11.2056
▁Liberal	-11.2056
▁Dream	-11.2056
▁advertising	-11.2056
▁evacuation	-11.2056
▁breakthrough	-11.2057
▁sovereignty	-11.2057
▁preference	-11.2057
▁€1	-11.2057
▁Lucy	-11.2057
▁Prix	-11.2058
▁pivotal	-11.2059
▁transformation	-11.206
▁harmful	-11.206
▁lens	-11.2062
▁thrilled	-11.2068
▁Latino	-11.2068
▁Tech	-11.2069
></	-11.207
nik	-11.2072
▁Age	-11.2076
▁contribution	-11.2077
▁defined	-11.2079
▁deserves	-11.2079
▁defendant	-11.208
▁Rex	-11.2085
▁Beck	-11.2086
▁rein	-11.2087
եր	-11.2087
ID	-11.2089
SC	-11.209
▁writers	-11.2092
▁Rich	-11.2099
▁jurors	-11.2099
▁cur	-11.21
bul	-11.2101
▁teammates	-11.2105
▁Fin	-11.211
▁Ivan	-11.2114
berry	-11.2116
▁Sw	-11.2117
▁hearts	-11.212
▁sha	-11.2122
lmost	-11.2122
▁promoted	-11.2122
cle	-11.2125
▁unfold	-11.2125
▁Brand	-11.2127
▁mile	-11.2129
▁gifts	-11.213
▁diseases	-11.2131
▁banking	-11.2132
▁beer	-11.2133
▁16-	-11.2134
vit	-11.2136
▁Picture	-11.2143
aki	-11.2143
wise	-11.2147
▁Athletic	-11.2155
▁aggression	-11.2155
▁contributing	-11.2155
▁furniture	-11.2155
▁mechanism	-11.2155
▁religion	-11.2155
▁authentic	-11.2155
▁psychological	-11.2155
▁NCAA	-11.2155
▁minimal	-11.2155
▁sprint	-11.2155
▁ankle	-11.2155
▁gaming	-11.2156
▁terminal	-11.2156
▁landmark	-11.2156
▁sufficient	-11.2159
▁implementation	-11.2159
▁dock	-11.2159
▁Bha	-11.216
▁transportation	-11.216
BS	-11.2162
▁celebrations	-11.2165
▁Bla	-11.2166
▁Obviously	-11.2167
▁attached	-11.2167
nation	-11.2169
path	-11.217
▁risen	-11.2173
53	-11.2175
▁similarly	-11.2177
▁controls	-11.2177
▁bu	-11.218
▁63	-11.2182
▁14-	-11.2183
▁Palmer	-11.2185
▁presents	-11.2186
78	-11.2186
inning	-11.2186
▁shortage	-11.2192
▁31,	-11.2194
▁Inside	-11.2194
▁taxi	-11.2196
▁Net	-11.2198
▁approaches	-11.2198
▁Littler	-11.2201
▁Israelis	-11.2202
▁bargain	-11.2207
▁traded	-11.2209
gram	-11.2212
hav	-11.2212
arch	-11.222
ante	-11.2223
EP	-11.2228
AA	-11.2229
96	-11.223
▁Rand	-11.2236
▁Pope	-11.2237
▁Austria	-11.2237
cel	-11.2238
▁emails	-11.2239
▁pin	-11.2239
▁sacrifice	-11.224
▁tweet	-11.224
▁accurate	-11.224
▁stem	-11.2241
▁villages	-11.2251
▁Massachusetts	-11.2255
▁bolster	-11.2255
▁smoking	-11.2255
▁Yadav	-11.2255
▁Brooklyn	-11.2255
▁guidelines	-11.2255
▁hiding	-11.2255
▁Philip	-11.2255
▁Indeed	-11.2255
▁priced	-11.2256
▁neuro	-11.2256
▁blanket	-11.2256
▁roster	-11.2257
▁haul	-11.2259
▁Utd	-11.2259
▁Grace	-11.2259
▁acid	-11.2259
▁40%	-11.226
▁backdrop	-11.226
▁linger	-11.2262
▁assured	-11.2269
▁Bun	-11.2271
gger	-11.2273
▁acquired	-11.2275
▁spa	-11.2276
▁volunteers	-11.2276
elle	-11.2283
▁UP	-11.2287
▁Cast	-11.2289
stage	-11.229
▁publisher	-11.2291
fan	-11.2292
▁insight	-11.2293
▁channels	-11.2295
▁coat	-11.2302
▁parks	-11.2303
▁screaming	-11.2304
▁Kra	-11.2305
▁Masters	-11.2308
▁photographer	-11.2313
▁critic	-11.2315
▁ICC	-11.232
aya	-11.2324
▁caution	-11.2324
kan	-11.2325
zone	-11.2328
▁convince	-11.233
▁25-	-11.2332
Photo	-11.2335
▁matching	-11.2336
aid	-11.2338
Po	-11.2339
▁districts	-11.2341
tress	-11.2343
▁courage	-11.2355
▁significance	-11.2356
▁substitute	-11.2356
▁overhaul	-11.2356
▁pricing	-11.2356
▁NEW	-11.2356
▁Card	-11.2356
▁Silva	-11.2356
▁Bharat	-11.2356
▁cyber	-11.2356
▁Denver	-11.2357
▁pretend	-11.2357
▁wildlife	-11.2357
▁midnight	-11.2357
▁retreat	-11.2358
▁impression	-11.2358
▁18-	-11.236
▁prayer	-11.2361
keeper	-11.2365
▁regulatory	-11.2366
▁translate	-11.2368
▁trace	-11.237
▁74	-11.238
▁disappeared	-11.2381
!'	-11.2384
▁Sanders	-11.2385
iro	-11.2386
▁soldier	-11.239
arian	-11.2393
▁10,000	-11.2395
▁Pet	-11.2398
ological	-11.2399
mont	-11.2405
▁drill	-11.2411
handed	-11.2412
▁assisted	-11.2414
▁stops	-11.2422
▁DA	-11.2425
▁22-	-11.2425
▁creates	-11.2426
▁titled	-11.2427
iver	-11.2431
ome	-11.2432
▁angle	-11.2435
guard	-11.2436
▁breathing	-11.2436
▁Band	-11.2437
▁lists	-11.244
powered	-11.2442
▁ruin	-11.2444
pet	-11.2445
▁slight	-11.2445
▁web	-11.2445
▁unfair	-11.2446
▁mining	-11.2448
▁fur	-11.2448
▁vegetables	-11.245
serv	-11.2451
▁span	-11.2452
▁Nvidia	-11.2458
▁Oxford	-11.2458
▁explanation	-11.2458
▁snack	-11.2458
▁Alliance	-11.2458
▁RTÉ	-11.2458
▁misconduct	-11.2458
▁forgotten	-11.2458
▁consist	-11.2458
▁introduction	-11.2458
▁wound	-11.2459
▁Dancing	-11.246
▁Design	-11.246
▁Castle	-11.2461
▁Buck	-11.2461
▁Nicole	-11.2462
▁Johnny	-11.2463
▁shall	-11.2465
▁Season	-11.2466
▁Est	-11.2466
▁carries	-11.2467
two	-11.2468
nna	-11.2472
▁NI	-11.2475
step	-11.2476
▁patterns	-11.2477
▁colours	-11.2484
▁Too	-11.2484
▁historically	-11.2484
after	-11.2484
▁ads	-11.2486
▁pressing	-11.2487
▁fights	-11.249
▁Roe	-11.249
▁preparation	-11.2491
mos	-11.2491
▁militant	-11.2491
69	-11.2493
▁Edward	-11.2493
▁Islands	-11.2494
▁machines	-11.2496
▁bite	-11.2498
200	-11.2498
▁2015,	-11.2501
▁nights	-11.2504
▁Bee	-11.2505
IP	-11.2506
▁Moss	-11.2508
▁78	-11.2511
▁businessman	-11.2518
▁recalls	-11.2521
big	-11.2523
▁warming	-11.2524
▁Further	-11.2526
▁cre	-11.2528
▁attracted	-11.2528
▁insists	-11.2529
▁Greens	-11.2534
▁Marco	-11.2537
▁designate	-11.2538
▁Coll	-11.2539
screen	-11.254
generation	-11.254
income	-11.254
▁Ph	-11.2541
▁Mass	-11.2544
▁Newsom	-11.2545
▁Lar	-11.256
▁Nottingham	-11.2561
▁Pittsburgh	-11.2561
▁clarity	-11.2561
▁escalation	-11.2561
▁fantasy	-11.2561
▁replacing	-11.2561
▁segment	-11.2561
▁sentencing	-11.2561
▁studied	-11.2561
▁Senior	-11.2561
▁scratch	-11.2561
▁Emergency	-11.2561
▁confusion	-11.2562
▁furious	-11.2562
▁Giants	-11.2562
▁zoo	-11.2563
▁Auto	-11.2563
▁ridiculous	-11.2563
▁import	-11.2564
ister	-11.2566
▁flip	-11.2566
▁determination	-11.2566
74	-11.2567
▁facilitate	-11.2567
▁Assad	-11.2571
▁genre	-11.2571
▁towns	-11.2572
▁farming	-11.2574
look	-11.2576
zer	-11.2578
▁recruit	-11.2583
track	-11.2584
▁ST	-11.2585
▁shy	-11.2585
▁extract	-11.2586
▁roots	-11.2587
met	-11.2589
▁bow	-11.2589
-12	-11.2594
▁riot	-11.2594
▁schemes	-11.2597
vor	-11.2597
▁barrier	-11.2597
▁pole	-11.2599
▁Girl	-11.2603
▁honestly	-11.2603
▁journal	-11.2605
western	-11.2608
▁helpful	-11.2608
▁objects	-11.262
▁Hills	-11.2621
och	-11.2622
▁5,000	-11.2628
beat	-11.2628
▁abandon	-11.2633
▁entrepreneur	-11.2636
▁sack	-11.2636
OL	-11.2643
▁rot	-11.2645
▁mock	-11.2645
▁alter	-11.2647
▁mentally	-11.2651
ancy	-11.2652
▁virtual	-11.2653
posing	-11.2654
▁briefing	-11.2664
ú	-11.2665
▁WhatsApp	-11.2665
▁Kentucky	-11.2665
▁administrator	-11.2665
▁constituency	-11.2665
▁portrait	-11.2665
▁solidarity	-11.2665
▁kilometers	-11.2665
▁admire	-11.2665
▁correspondent	-11.2666
▁disappointment	-11.2666
▁grip	-11.2666
▁Golf	-11.2666
▁tender	-11.2667
▁passionate	-11.2667
▁Gulf	-11.2667
▁Slam	-11.2668
▁unacceptable	-11.2669
▁excessive	-11.2669
eep	-11.2672
▁felony	-11.2672
▁fever	-11.2672
▁trio	-11.2674
▁motivated	-11.2675
▁2016.	-11.2676
named	-11.2678
▁worrying	-11.2679
▁prospects	-11.268
▁raw	-11.2684
▁hospitality	-11.2685
▁vow	-11.2686
▁Finally	-11.2687
▁filmmaker	-11.269
▁Station	-11.2692
▁touched	-11.2693
eur	-11.2705
▁scientist	-11.2705
▁Ly	-11.2708
uous	-11.2708
▁Rat	-11.2708
▁Latin	-11.2717
▁engineering	-11.2718
▁requir	-11.2721
eo	-11.2725
▁charm	-11.2726
Can	-11.2733
▁riots	-11.2734
▁MI	-11.2736
▁convert	-11.2739
HS	-11.2741
▁pets	-11.2741
▁sheet	-11.2742
team	-11.2743
▁midfield	-11.2743
▁combine	-11.2746
ook	-11.2749
claim	-11.2749
▁fed	-11.2749
մ	-11.2749
▁Dick	-11.275
▁depends	-11.2752
direct	-11.2753
▁unfortunate	-11.2758
▁depict	-11.2762
▁Chan	-11.2763
▁siblings	-11.2765
▁հ	-11.2766
▁slide	-11.2769
▁cult	-11.277
megapixel	-11.277
▁Phoenix	-11.277
▁enemies	-11.277
▁tackling	-11.277
▁Kapoor	-11.277
▁shield	-11.277
▁Nelson	-11.277
▁Silver	-11.277
▁drunk	-11.277
▁influential	-11.277
▁Jessica	-11.2771
▁hammer	-11.2771
▁Garcia	-11.2771
▁hiring	-11.2772
▁stain	-11.2772
▁devote	-11.2772
▁71	-11.2773
▁Hope	-11.2775
▁stopping	-11.2776
▁SA	-11.2777
▁arena	-11.2778
▁Willis	-11.2778
▁peers	-11.278
anda	-11.2791
82	-11.2792
▁uncle	-11.2794
è	-11.2795
active	-11.28
ido	-11.2802
roll	-11.2802
ño	-11.2803
▁Join	-11.2806
▁Jet	-11.2807
▁sponsor	-11.2813
▁selfie	-11.2813
dh	-11.2814
▁ID	-11.2816
▁storms	-11.2816
GA	-11.282
▁Fred	-11.2822
▁chill	-11.2832
show	-11.2833
▁Fort	-11.2843
▁Doug	-11.2852
rill	-11.2853
president	-11.2855
From	-11.2856
school	-11.2856
mouth	-11.2856
wife	-11.2859
flat	-11.2866
▁listing	-11.2874
▁Louisiana	-11.2877
▁ceiling	-11.2877
▁portfolio	-11.2877
▁variant	-11.2877
▁innovative	-11.2877
▁Weather	-11.2877
▁skirt	-11.2877
▁stunned	-11.2877
▁Utah	-11.2877
▁milestone	-11.2877
▁testified	-11.2879
▁Nancy	-11.2879
▁deportation	-11.2879
▁flock	-11.2879
▁Review	-11.2879
▁confrontation	-11.2881
▁Hot	-11.2882
▁Clear	-11.2882
51	-11.2882
▁spill	-11.2882
▁approaching	-11.2885
▁couples	-11.2886
▁Made	-11.2889
▁Left	-11.289
▁curb	-11.289
▁spar	-11.2895
▁sons	-11.2899
▁Parker	-11.2902
▁Around	-11.2907
▁Marc	-11.2908
▁texture	-11.2908
▁shouting	-11.2911
sex	-11.2912
▁Mali	-11.2914
▁Area	-11.292
▁aspect	-11.2925
ional	-11.2929
▁stark	-11.2936
▁musician	-11.2937
▁employer	-11.2939
stead	-11.2939
seat	-11.2942
▁rage	-11.2943
where	-11.2944
▁Oh	-11.2949
▁Along	-11.2949
▁£20	-11.2953
▁asset	-11.2956
▁incoming	-11.2957
▁define	-11.296
▁Chase	-11.2963
degree	-11.2963
DC	-11.2964
▁receiver	-11.2968
woman	-11.2969
▁sectors	-11.2979
taking	-11.298
▁excess	-11.2983
▁Woods	-11.2984
ega	-11.2984
▁certificate	-11.2984
▁landslide	-11.2984
▁Maharashtra	-11.2984
▁Studies	-11.2984
▁bipartisan	-11.2984
▁cautious	-11.2984
▁gambling	-11.2984
▁participating	-11.2984
▁Rodgers	-11.2984
▁Small	-11.2984
▁desert	-11.2984
▁apology	-11.2985
▁casualties	-11.2985
▁architecture	-11.2985
IL	-11.2985
▁evil	-11.2985
▁placing	-11.2985
▁acres	-11.2985
▁Wolf	-11.2986
▁Eddie	-11.2987
▁transferred	-11.2988
▁1995	-11.2988
87	-11.2988
agh	-11.2989
▁bias	-11.2989
▁Nearly	-11.299
▁airlines	-11.299
▁Boris	-11.299
▁ET	-11.299
heat	-11.2991
▁favourites	-11.2991
▁Orange	-11.2993
▁Blair	-11.2993
bridge	-11.2999
▁Angela	-11.3002
onic	-11.3003
▁67	-11.3005
mmer	-11.3006
▁presentation	-11.3009
▁Zi	-11.3011
▁interviewed	-11.3016
aving	-11.3018
▁Amid	-11.3019
▁relaxed	-11.3021
▁deck	-11.303
▁conducting	-11.3034
▁economist	-11.3034
▁jokes	-11.3038
▁constitution	-11.3041
rav	-11.3041
▁Bru	-11.3046
Ba	-11.3047
▁developers	-11.3048
wer	-11.305
▁buzz	-11.305
▁painted	-11.305
▁KC	-11.3051
▁donations	-11.3052
▁Sin	-11.3052
▁sum	-11.3052
▁Harrison	-11.3058
▁Kay	-11.3058
▁Pad	-11.3061
▁Lou	-11.3065
▁delegates	-11.3066
▁impose	-11.3068
government	-11.3072
▁Hal	-11.3077
▁Nine	-11.3078
▁beef	-11.3078
▁eliminate	-11.3078
label	-11.3079
hole	-11.3084
▁seeds	-11.3089
▁invent	-11.309
▁scrap	-11.3092
blockLastUpdated	-11.3093
▁Emmanuel	-11.3093
▁Ferguson	-11.3093
▁Kashmir	-11.3093
▁Mercedes	-11.3093
▁Milwaukee	-11.3093
▁Wembley	-11.3093
▁collision	-11.3093
▁contemporary	-11.3093
▁relentless	-11.3093
▁removing	-11.3093
▁System	-11.3093
▁beneath	-11.3093
▁roast	-11.3093
▁denies	-11.3093
▁Arteta	-11.3093
▁Freedom	-11.3093
▁Wallace	-11.3094
blockCreatedOn	-11.3094
▁battleground	-11.3094
▁Spurs	-11.3094
▁1994	-11.3094
▁1992	-11.3095
▁coordinator	-11.3095
▁disability	-11.3095
▁Egyptian	-11.3096
▁Lakers	-11.3098
▁Match	-11.31
▁grill	-11.31
gel	-11.3101
▁elevated	-11.3102
▁concerning	-11.3102
52	-11.3106
dicating	-11.3108
▁vaccines	-11.3109
▁outlook	-11.3109
ache	-11.3112
site	-11.3114
▁genuinely	-11.3114
▁Ward	-11.3115
56	-11.3117
▁Sony	-11.3119
▁mountains	-11.312
);	-11.3124
▁projected	-11.313
▁Greene	-11.313
ela	-11.3134
▁argues	-11.3136
hol	-11.3139
empt	-11.314
▁Being	-11.3141
▁2024:	-11.3143
▁Representative	-11.3147
▁unions	-11.3149
▁achievement	-11.3153
▁refugee	-11.3154
▁lobby	-11.3156
▁contender	-11.3158
@	-11.3159
▁Whit	-11.3159
tie	-11.3161
▁recovering	-11.3168
ander	-11.3171
stein	-11.3172
▁affects	-11.3173
▁dressing	-11.3173
Car	-11.3175
▁pupils	-11.3176
FC	-11.3176
▁apologise	-11.3179
▁29,	-11.318
shot	-11.3181
▁Aid	-11.3182
Look	-11.3184
enti	-11.3185
▁tracking	-11.3185
wind	-11.3188
▁cancel	-11.3188
▁examine	-11.3189
▁crisp	-11.3191
▁firmly	-11.3193
▁Kill	-11.3195
▁Gal	-11.3199
▁guitar	-11.3201
kill	-11.3202
▁Badenoch	-11.3203
▁Beirut	-11.3203
▁Usyk	-11.3203
▁currency	-11.3203
▁emoji	-11.3203
▁terrifying	-11.3203
▁clever	-11.3203
▁crunch	-11.3203
▁isolated	-11.3203
▁embark	-11.3203
▁Alaska	-11.3203
▁Authorities	-11.3203
▁bankruptcy	-11.3203
▁interference	-11.3203
▁messaging	-11.3203
▁lyrics	-11.3204
▁wildfire	-11.3204
▁Protection	-11.3204
▁epic	-11.3204
▁SpaceX	-11.3204
▁1998	-11.3206
▁Death	-11.3207
▁contested	-11.3208
▁nickname	-11.3209
▁pending	-11.3209
▁perceived	-11.3209
▁Cruz	-11.321
▁Cost	-11.3211
▁skipper	-11.3213
▁Mari	-11.3214
ց	-11.3214
fall	-11.3219
igh	-11.3224
holder	-11.3227
▁exclusively	-11.3229
▁rider	-11.3229
▁Never	-11.3229
▁indoor	-11.3231
gni	-11.3233
▁restrict	-11.3238
▁jets	-11.3242
▁norm	-11.3248
▁donated	-11.3252
zz	-11.3254
▁Village	-11.3254
▁answered	-11.3255
TT	-11.326
gas	-11.3263
▁accord	-11.3267
core	-11.3267
now	-11.3272
▁famously	-11.3273
▁robot	-11.3274
▁battl	-11.3274
held	-11.3274
],"	-11.3276
ին	-11.3281
city	-11.3285
▁processing	-11.329
▁Pop	-11.329
white	-11.3293
▁Kat	-11.3297
Today	-11.3297
▁waited	-11.3303
▁reviewed	-11.3305
live	-11.3312
VE	-11.3312
▁mysterious	-11.3314
▁cocaine	-11.3314
▁companion	-11.3314
▁corridor	-11.3314
▁rallies	-11.3314
▁Bailey	-11.3314
▁deciding	-11.3314
▁dementia	-11.3314
▁rifle	-11.3314
▁bilateral	-11.3314
▁1,200	-11.3315
AM	-11.3315
stellar	-11.3315
▁indication	-11.3315
▁olive	-11.3315
▁random	-11.3315
▁Gavin	-11.3316
▁salad	-11.3316
▁loyalty	-11.3316
▁appointments	-11.3316
▁pill	-11.3318
▁Owen	-11.3318
▁Truth	-11.3319
▁Dragon	-11.332
▁gross	-11.3322
▁Guy	-11.3322
▁Unfortunately	-11.3323
▁nowhere	-11.3323
▁planes	-11.3328
▁Christ	-11.333
▁virtually	-11.333
▁lesson	-11.333
▁exports	-11.3334
▁Baby	-11.3335
▁stunt	-11.3335
▁pressed	-11.3337
Time	-11.3338
▁protections	-11.334
osa	-11.334
▁Blues	-11.3342
▁3,000	-11.3343
▁800	-11.3348
▁tense	-11.3349
▁Pep	-11.336
▁Jill	-11.3361
beit	-11.3361
▁teens	-11.3364
Jo	-11.3364
His	-11.3366
▁applying	-11.3367
▁73	-11.337
bus	-11.3371
acre	-11.3372
▁Deb	-11.3374
position	-11.3374
▁operator	-11.3375
▁powered	-11.3377
standing	-11.3378
▁teammate	-11.3386
▁Mann	-11.3386
▁traditionally	-11.3387
oy	-11.3388
▁SE	-11.3389
▁burned	-11.3393
▁23,	-11.3394
▁Scots	-11.3398
ել	-11.3402
pass	-11.3403
▁Nar	-11.3404
ured	-11.3404
93	-11.3411
▁owe	-11.3411
tail	-11.3415
▁developer	-11.3419
▁instrument	-11.3419
eu	-11.342
▁Cop	-11.3426
▁Emirates	-11.3426
▁Wolves	-11.3426
▁acquisition	-11.3426
▁disastrous	-11.3426
▁immune	-11.3426
▁scope	-11.3426
▁vacation	-11.3426
պ	-11.3426
▁Federation	-11.3426
▁Toronto	-11.3426
▁chains	-11.3426
▁clue	-11.3426
▁convey	-11.3426
▁whale	-11.3426
▁creature	-11.3427
▁Jesus	-11.3427
▁implications	-11.3427
▁bubble	-11.3427
▁Gaetz	-11.3427
▁anchor	-11.3427
▁Thailand	-11.3427
▁Nikki	-11.3427
▁precious	-11.3428
▁Pick	-11.3428
▁opinions	-11.3429
▁Tel	-11.3429
date	-11.3429
▁revelation	-11.3429
▁demonstrations	-11.343
▁Payne	-11.343
▁3-0	-11.343
SP	-11.3431
▁Check	-11.3432
▁confused	-11.3433
Barack	-11.3434
▁600	-11.344
▁Susan	-11.3443
Li	-11.3443
▁provision	-11.345
▁Full	-11.3454
▁setback	-11.3454
Mr	-11.3456
▁assumed	-11.3457
▁destinations	-11.3462
▁rat	-11.3463
▁developments	-11.3465
▁attacker	-11.3467
PP	-11.3471
Of	-11.3471
79	-11.3472
▁fined	-11.3475
▁enforce	-11.3475
▁appealed	-11.3481
▁discussing	-11.3484
▁transformed	-11.3489
stop	-11.3489
▁Houthi	-11.3491
▁tactical	-11.3492
▁sweep	-11.3493
▁Bear	-11.3493
bro	-11.3495
▁Run	-11.3499
▁releas	-11.3504
▁booking	-11.3505
▁punish	-11.3506
▁poses	-11.3509
anti	-11.3509
CT	-11.3515
▁Dol	-11.3518
▁justices	-11.3519
▁2017.	-11.3519
▁villa	-11.3527
▁Afghan	-11.354
▁Brisbane	-11.354
▁Indonesia	-11.354
▁Missouri	-11.354
▁Spencer	-11.354
▁disgrace	-11.354
▁empire	-11.354
▁evident	-11.354
▁gorgeous	-11.354
▁qualification	-11.354
▁universe	-11.354
▁prestig	-11.354
▁puzzle	-11.354
▁demographic	-11.354
▁invitation	-11.354
▁neighbourhood	-11.3541
▁pipeline	-11.3541
rush	-11.3542
▁Shaw	-11.3542
▁1993	-11.3542
▁1989	-11.3542
▁judicial	-11.3544
▁Pur	-11.3544
▁divide	-11.3544
▁neighbors	-11.3545
▁renown	-11.3545
▁underground	-11.3546
▁Tru	-11.3546
▁Ven	-11.3546
▁broker	-11.3547
▁Anyone	-11.3548
▁USC	-11.3548
▁fastest	-11.355
▁Karen	-11.3551
▁Dow	-11.3552
▁50%	-11.3553
▁Perth	-11.3558
▁Building	-11.3559
▁Armenian	-11.3562
udge	-11.3563
worker	-11.3564
▁caps	-11.3565
▁Mala	-11.3567
▁structures	-11.3567
▁Ann	-11.3571
word	-11.3573
lb	-11.3573
▁wondering	-11.3575
▁Die	-11.3576
▁hug	-11.3577
gli	-11.3577
▁Mir	-11.3578
▁fuels	-11.3578
▁hyper	-11.358
▁IDF	-11.3581
▁demonstrated	-11.3582
Com	-11.3582
▁displayed	-11.3585
▁aesthetic	-11.3585
▁realized	-11.3587
▁safer	-11.3595
▁None	-11.3597
▁Yankees	-11.3597
fare	-11.3598
imi	-11.3601
erg	-11.3609
▁Arts	-11.3613
▁workout	-11.3614
▁imports	-11.3616
▁Jar	-11.362
▁Sat	-11.362
▁deploy	-11.3621
▁winger	-11.3622
AD	-11.3623
ico	-11.3626
▁Ring	-11.3626
eck	-11.3628
▁compromise	-11.3629
▁las	-11.3632
roy	-11.3641
▁cope	-11.3643
▁responding	-11.3647
▁slam	-11.3648
▁advocates	-11.3651
▁horizon	-11.3655
▁McCarthy	-11.3655
▁ammunition	-11.3655
▁dedication	-11.3655
▁delegation	-11.3655
▁grocery	-11.3655
▁rhythm	-11.3655
▁temporarily	-11.3655
▁Samuel	-11.3655
▁shelves	-11.3655
▁mourn	-11.3655
▁barrel	-11.3655
▁fundraising	-11.3655
▁steep	-11.3656
▁balloon	-11.3658
▁Chairman	-11.3658
▁Would	-11.3659
▁Ellis	-11.366
▁UFC	-11.366
▁counted	-11.3661
▁heavyweight	-11.3661
▁Early	-11.3662
▁Eu	-11.3663
▁allowance	-11.3663
Ex	-11.3664
▁troll	-11.3666
▁Flor	-11.3666
DP	-11.3667
open	-11.3669
▁pu	-11.3671
kick	-11.3673
▁ED	-11.3675
▁takeover	-11.3679
▁thanked	-11.3683
▁horses	-11.3686
▁hardest	-11.3686
61	-11.3687
temp	-11.3694
sted	-11.3695
aire	-11.3695
▁launches	-11.3696
▁Victor	-11.3699
▁conflicts	-11.3701
▁Lane	-11.3704
▁operators	-11.3708
ակ	-11.3708
▁strap	-11.3711
▁restored	-11.3712
▁Representatives	-11.3714
▁climbing	-11.3717
ppy	-11.3719
leading	-11.3721
▁Chad	-11.3727
wen	-11.3731
▁cats	-11.3733
▁sensation	-11.3735
▁£100	-11.3736
▁appoint	-11.3738
▁Beth	-11.3744
kha	-11.3751
▁Oil	-11.3752
▁drops	-11.3755
▁agreements	-11.3762
▁£25	-11.3766
▁samples	-11.3768
▁seasonal	-11.3768
▁Sophie	-11.3771
▁propaganda	-11.3771
▁Commonwealth	-11.3771
▁Lopez	-11.3771
▁definition	-11.3771
▁economies	-11.3771
▁electorate	-11.3771
▁enthusiasm	-11.3771
▁financing	-11.3771
▁persuade	-11.3771
▁protocol	-11.3771
▁pundit	-11.3771
▁spiritual	-11.3771
Brien	-11.3771
▁console	-11.3771
▁habits	-11.3771
▁lottery	-11.3771
▁MAGA	-11.3771
▁sandwich	-11.3771
▁nerve	-11.3771
▁Bellingham	-11.3771
▁trap	-11.3772
▁Future	-11.3772
▁Carroll	-11.3772
four	-11.3772
▁refusing	-11.3772
▁oversight	-11.3772
▁feud	-11.3773
▁Crow	-11.3773
▁flick	-11.3773
▁Rick	-11.3774
▁Glas	-11.3774
▁Prof	-11.3776
▁counties	-11.3776
▁dealer	-11.3777
/@	-11.3777
▁erupted	-11.3781
▁Cher	-11.3783
▁prevented	-11.3788
▁glasses	-11.379
▁violated	-11.3794
▁nod	-11.3796
call	-11.3796
▁Luis	-11.38
human	-11.3802
▁Sid	-11.3804
▁Wo	-11.3804
ele	-11.3805
▁desperately	-11.3805
▁rebels	-11.3808
▁(4	-11.381
▁confronted	-11.381
▁Sharon	-11.3811
▁£12	-11.3813
▁Ala	-11.3824
▁formation	-11.3828
thirds	-11.3828
▁flooded	-11.383
▁regulator	-11.3836
▁counting	-11.3837
ender	-11.3839
▁principle	-11.3849
▁wounds	-11.3852
▁operates	-11.3853
▁smash	-11.3857
83	-11.3858
▁decrease	-11.3863
▁Soon	-11.3866
â	-11.3868
▁defendants	-11.3869
▁Cuba	-11.387
▁Venezuela	-11.3871
makers	-11.3876
▁advisor	-11.3877
րա	-11.3879
▁jam	-11.3883
▁opera	-11.3883
▁bowling	-11.3888
▁MA	-11.3888
ղ	-11.3889
▁universal	-11.3889
▁Ohtani	-11.3889
▁Opposition	-11.3889
▁Technology	-11.3889
▁advocacy	-11.3889
▁declaration	-11.3889
▁glory	-11.3889
▁motivation	-11.3889
▁neglect	-11.3889
▁revenge	-11.3889
▁Dundee	-11.3889
▁hurdle	-11.3889
▁stakeholders	-11.3889
▁Kursk	-11.3889
▁cancellation	-11.3889
▁rack	-11.3889
▁Montana	-11.3889
▁productivity	-11.3889
▁Collins	-11.389
▁Peace	-11.389
▁Staff	-11.389
▁1991	-11.389
▁scent	-11.3891
▁Martinez	-11.3891
▁Kai	-11.3891
▁dramatically	-11.3891
▁horrible	-11.3892
▁intensity	-11.3892
▁Round	-11.3893
▁expertise	-11.3893
▁gradually	-11.3893
▁tar	-11.3894
▁pronounced	-11.3894
▁inclusive	-11.3895
▁deliveries	-11.3896
▁grim	-11.3896
▁arranged	-11.3897
▁dirty	-11.3897
▁acceptable	-11.3898
▁Alison	-11.3899
▁hunger	-11.39
▁shine	-11.3906
▁refund	-11.3907
lier	-11.3909
looking	-11.391
▁hail	-11.3912
▁Manager	-11.3913
▁Main	-11.3913
▁screens	-11.3914
▁god	-11.3915
pac	-11.3915
this	-11.3917
այ	-11.3917
wash	-11.3919
gui	-11.392
▁forum	-11.3922
▁Deep	-11.3932
▁bans	-11.3933
▁bust	-11.3934
itz	-11.3935
▁lawsuits	-11.3935
▁organic	-11.3938
▁assaulted	-11.3939
▁resolved	-11.3941
▁homer	-11.3942
▁Mau	-11.3944
MP	-11.3953
▁casting	-11.396
mil	-11.3967
▁£15	-11.397
hon	-11.397
2024	-11.397
wl	-11.3971
other	-11.3978
▁Deal	-11.3978
▁seal	-11.3981
▁instructions	-11.3982
▁Ruth	-11.3984
9.99	-11.3984
court	-11.3989
▁$20	-11.399
pinned	-11.399
OK	-11.3991
▁2015.	-11.3994
▁cord	-11.3996
▁shifts	-11.4005
▁cruel	-11.4007
▁inaugura	-11.4007
▁Campaign	-11.4008
▁Delaware	-11.4008
▁READ	-11.4008
▁anonymity	-11.4008
▁strategies	-11.4008
▁memorial	-11.4008
▁stabbing	-11.4008
▁welcoming	-11.4008
▁suspicious	-11.4008
▁Buckingham	-11.4008
▁Cambridge	-11.4008
▁misinformation	-11.4008
▁swept	-11.4008
▁array	-11.4008
▁Hawk	-11.4008
▁automatically	-11.4009
▁crackdown	-11.4009
▁Keith	-11.4009
▁journalism	-11.4009
working	-11.4011
▁blocks	-11.4011
▁breakdown	-11.4012
▁Marcus	-11.4012
▁2-0	-11.4013
▁purposes	-11.4014
▁Currently	-11.4014
▁infant	-11.4015
▁Officers	-11.4016
▁wooden	-11.4016
ivity	-11.4016
▁Walter	-11.4017
▁raises	-11.4018
▁Alamy	-11.4019
▁patch	-11.4019
▁pig	-11.402
ista	-11.4023
HA	-11.4024
case	-11.403
▁Zelenskyy	-11.4031
▁comic	-11.4031
▁rebel	-11.4032
▁Leon	-11.4033
lton	-11.4036
stud	-11.4037
ffer	-11.4039
▁Lau	-11.404
Man	-11.4041
▁floods	-11.4046
▁liter	-11.405
▁Kin	-11.4055
▁Fac	-11.4058
▁Shu	-11.406
▁enhanced	-11.4062
▁transactions	-11.4063
harm	-11.4067
ude	-11.4069
▁farms	-11.4069
▁programmes	-11.4069
▁CD	-11.4075
▁blocking	-11.4077
▁MS	-11.4077
▁dear	-11.4077
▁respected	-11.4078
▁Ana	-11.408
▁Ob	-11.4082
▁accepting	-11.4087
eye	-11.4091
▁prohibit	-11.4091
size	-11.4094
▁Row	-11.4095
▁crush	-11.4098
▁premises	-11.4099
dha	-11.4103
▁handled	-11.4103
stream	-11.4105
▁socio	-11.4107
text	-11.4108
▁Kh	-11.4113
acy	-11.4114
▁reflecting	-11.4115
tell	-11.4116
rock	-11.4117
door	-11.4117
▁pitcher	-11.4119
▁exhibit	-11.4124
7,000	-11.4124
▁grabb	-11.4125
▁picks	-11.4126
▁Mars	-11.4127
▁ambitions	-11.4127
▁Baldwin	-11.4128
▁Neither	-11.4128
▁Pentagon	-11.4128
▁Trafford	-11.4128
▁optimistic	-11.4128
▁oxygen	-11.4128
▁vacuum	-11.4128
▁warehouse	-11.4128
▁Watson	-11.4128
▁garage	-11.4129
▁transparent	-11.4129
▁Tesco	-11.4129
▁sculpture	-11.4129
▁ferry	-11.4129
▁11-	-11.4129
▁dissent	-11.4129
▁impeachment	-11.4129
▁Until	-11.4129
▁prescription	-11.4129
▁ghost	-11.4129
▁brick	-11.413
▁batteries	-11.4131
turned	-11.4132
▁Switch	-11.4132
▁Think	-11.4133
▁Blake	-11.4135
Har	-11.4136
▁Fight	-11.4137
▁RBI	-11.4139
Go	-11.4141
borough	-11.4144
▁Robin	-11.4158
▁output	-11.4162
▁Stan	-11.4165
▁promo	-11.4168
▁abused	-11.417
63	-11.4172
▁69	-11.4172
▁fines	-11.4178
▁outage	-11.4179
mming	-11.4184
Sha	-11.4184
▁centers	-11.4185
▁loaded	-11.4185
CP	-11.4186
▁financially	-11.4187
▁tasks	-11.4188
dine	-11.4196
▁Class	-11.4196
▁Kel	-11.4199
▁meters	-11.4202
uni	-11.4202
▁debates	-11.421
cade	-11.421
▁Lib	-11.4214
fra	-11.4218
▁melt	-11.4222
▁inspire	-11.4225
▁pm	-11.4226
mbo	-11.4226
▁discipline	-11.4227
▁Bird	-11.4228
video	-11.423
father	-11.4232
▁Low	-11.4233
due	-11.4233
proof	-11.4235
▁suite	-11.4238
▁Bou	-11.424
▁trusted	-11.4241
▁avoided	-11.4242
ctic	-11.4243
▁photographs	-11.4243
▁Julie	-11.4245
▁absent	-11.4249
▁Alcaraz	-11.425
▁Coronation	-11.425
▁Kardashian	-11.425
▁Mediterranean	-11.425
▁Olivia	-11.425
▁absurd	-11.425
▁escalating	-11.425
▁garlic	-11.425
▁globe	-11.425
▁legislature	-11.425
▁policing	-11.425
▁servant	-11.425
▁sneak	-11.425
▁tremendous	-11.425
▁vitamin	-11.425
▁Seahawks	-11.425
▁reunion	-11.425
EL	-11.425
▁disabled	-11.425
▁priest	-11.425
▁Natural	-11.425
▁Dominic	-11.425
▁mild	-11.4251
▁applies	-11.4251
▁pardon	-11.4252
▁committing	-11.4253
▁mansion	-11.4253
▁ballistic	-11.4253
▁Rather	-11.4254
▁persist	-11.4254
wall	-11.4255
▁workforce	-11.4256
▁installation	-11.4256
▁conventional	-11.4256
▁representation	-11.4259
▁ja	-11.4259
▁teenagers	-11.4265
▁seekers	-11.427
▁endured	-11.4271
▁floating	-11.4271
▁Anton	-11.4272
▁handset	-11.4272
walk	-11.4273
HO	-11.4275
eat	-11.4277
cio	-11.4277
▁countryside	-11.428
▁departments	-11.4281
▁venues	-11.4282
SU	-11.4282
▁rank	-11.4284
versus	-11.4289
▁quietly	-11.4289
ü	-11.4292
▁organ	-11.4294
▁understands	-11.4295
▁matchup	-11.4297
▁sweeping	-11.4302
ava	-11.431
▁taxpayers	-11.4311
▁Div	-11.4314
84	-11.4319
shaw	-11.432
▁rockets	-11.432
CL	-11.4324
▁alleg	-11.4327
▁sail	-11.4332
▁dump	-11.4342
▁upward	-11.4346
▁creator	-11.4346
▁folks	-11.4349
pal	-11.435
▁quote	-11.4352
significant	-11.4353
▁$200	-11.4354
▁Din	-11.4358
uma	-11.4359
▁distinct	-11.4367
▁addict	-11.437
▁BA	-11.437
▁column	-11.4371
▁stamp	-11.4373
▁signals	-11.4373
▁Abdul	-11.4374
Shutterstock	-11.4374
▁Cricket	-11.4374
▁Crystal	-11.4374
▁Dakota	-11.4374
▁Tinubu	-11.4374
▁affiliate	-11.4374
▁arguably	-11.4374
▁decisive	-11.4374
▁happiness	-11.4374
▁humble	-11.4374
▁iPad	-11.4374
▁militia	-11.4374
▁sketch	-11.4374
▁sleeve	-11.4374
▁slogan	-11.4374
▁smiling	-11.4374
▁staggering	-11.4374
▁declining	-11.4374
▁okay	-11.4374
▁trousers	-11.4374
▁Harvey	-11.4374
▁Smart	-11.4374
▁plum	-11.4375
▁Investigation	-11.4376
▁21-	-11.4376
▁queue	-11.4376
▁Arthur	-11.4377
▁Danny	-11.4377
▁Wayne	-11.4378
▁Mets	-11.4378
▁Lyon	-11.4379
▁colonial	-11.4379
▁unlock	-11.4381
▁Native	-11.4383
▁aired	-11.4383
▁NA	-11.4389
pit	-11.439
,600	-11.439
▁strongest	-11.4393
▁convictions	-11.4396
▁importantly	-11.4397
▁Mah	-11.4398
EM	-11.4399
▁hailed	-11.4408
▁Romania	-11.4415
▁tu	-11.4417
▁holders	-11.442
▁Jun	-11.4423
ride	-11.4423
▁Carol	-11.4424
▁fields	-11.4429
▁Hat	-11.4432
▁speeches	-11.4433
▁Command	-11.444
kel	-11.4451
gna	-11.4456
▁warmer	-11.4457
▁snaps	-11.4457
▁Dia	-11.4459
UR	-11.446
▁leaning	-11.4464
▁sustain	-11.4465
west	-11.4466
▁emotion	-11.4467
▁infections	-11.4468
▁hook	-11.4469
▁dies	-11.4469
▁shortages	-11.4469
▁expense	-11.4474
▁Fran	-11.4477
▁spi	-11.4477
▁Born	-11.4478
▁blaze	-11.4483
about	-11.4485
▁ratings	-11.4489
▁papers	-11.4491
▁interact	-11.4493
▁pound	-11.4493
▁affirm	-11.4494
▁interpret	-11.4495
▁disc	-11.4496
▁Joel	-11.4498
▁bang	-11.4498
▁possess	-11.4498
▁architect	-11.4498
RT	-11.4499
▁Beyond	-11.4499
▁Criminal	-11.4499
▁MSNBC	-11.4499
▁accommodate	-11.4499
▁concentration	-11.4499
▁hockey	-11.4499
▁luggage	-11.4499
▁maintenance	-11.4499
▁parallel	-11.4499
▁ritual	-11.4499
▁worries	-11.4499
▁Shadow	-11.4499
▁dignity	-11.4499
▁dominant	-11.4499
▁splash	-11.4499
▁unlawful	-11.4499
▁grappl	-11.4499
▁respondents	-11.4499
▁Stuart	-11.4499
▁Ferrari	-11.4499
▁polar	-11.4499
▁irre	-11.4499
▁Tyler	-11.45
▁Aviv	-11.4501
▁Bruce	-11.4501
▁Mariners	-11.4501
▁councillor	-11.4501
▁jumping	-11.4502
▁hostile	-11.4502
running	-11.4502
▁dated	-11.4502
▁Garland	-11.4502
▁marine	-11.4503
▁inspection	-11.4505
dated	-11.4508
▁Flight	-11.4508
▁bout	-11.4509
▁manufacturers	-11.451
▁advisory	-11.4512
▁graphic	-11.4512
▁download	-11.4514
▁turnout	-11.4517
ggy	-11.4518
▁Lucas	-11.4518
▁mor	-11.452
var	-11.4521
risk	-11.4521
▁surprisingly	-11.4522
▁Mason	-11.4525
him	-11.4531
▁Saka	-11.4533
▁restricted	-11.4535
▁2%	-11.4536
▁shorter	-11.454
▁£50	-11.4542
▁borrowing	-11.4546
▁Wick	-11.4547
▁Thi	-11.4549
▁participated	-11.4551
▁credits	-11.4553
▁Wind	-11.4556
amo	-11.4557
դ	-11.4562
▁statue	-11.4562
five	-11.4563
▁aides	-11.4564
▁yard	-11.4569
▁Jude	-11.4572
Bar	-11.4572
▁Ahead	-11.4573
▁borrow	-11.4574
ech	-11.4578
▁Song	-11.4578
▁barriers	-11.4581
best	-11.4583
▁reel	-11.4584
▁Bir	-11.4589
paid	-11.4591
ndi	-11.4597
▁travellers	-11.4598
President	-11.4605
▁Zu	-11.4605
three	-11.4605
value	-11.4609
▁profound	-11.4612
▁fiction	-11.4619
▁Transport	-11.4624
▁Gallagher	-11.4625
▁Jerusalem	-11.4625
▁Norwegian	-11.4625
▁diamond	-11.4625
▁elegant	-11.4625
▁gratitude	-11.4625
▁hybrid	-11.4625
▁preliminar	-11.4625
▁shrink	-11.4625
▁stupid	-11.4625
▁tropical	-11.4625
▁pioneer	-11.4625
▁suppress	-11.4625
▁harvest	-11.4625
▁Telegraph	-11.4625
▁Prior	-11.4626
▁Cardiff	-11.4626
▁basket	-11.4626
▁Front	-11.4626
▁lease	-11.4626
▁Operation	-11.4626
▁precedent	-11.4626
▁Housing	-11.4626
▁Stanley	-11.4627
▁skincare	-11.4627
▁penned	-11.4627
eau	-11.4629
▁viewing	-11.4629
▁Delta	-11.4629
▁Xbox	-11.4629
▁Haitian	-11.463
▁Philippines	-11.463
▁Congo	-11.4633
":"1	-11.4635
▁sorts	-11.4635
▁surgeon	-11.4636
▁suitable	-11.4637
▁swiftly	-11.4639
▁instantly	-11.4639
▁Rover	-11.464
▁40-	-11.4644
aba	-11.4645
▁exists	-11.4645
▁(@	-11.4645
▁bonuses	-11.4646
FL	-11.4647
▁influencer	-11.4648
▁attributed	-11.465
▁regarded	-11.4651
▁Mum	-11.4651
▁heartbreaking	-11.4651
▁surf	-11.4655
▁Fame	-11.4655
dress	-11.4657
▁porn	-11.4658
▁tricky	-11.4658
▁publishing	-11.4661
selling	-11.4663
▁cleaner	-11.4666
rap	-11.4668
▁studying	-11.467
▁draws	-11.467
▁deepen	-11.4672
▁Cork	-11.4675
▁dip	-11.4678
▁Rams	-11.4679
bbed	-11.468
▁Brew	-11.4681
▁overturned	-11.4685
rain	-11.4688
▁ա	-11.4689
self	-11.469
▁Ever	-11.469
▁maker	-11.4691
▁bug	-11.4694
▁Buy	-11.4694
92	-11.4694
▁bonds	-11.4697
▁Side	-11.4698
fill	-11.47
gio	-11.4702
▁behave	-11.4707
▁Talk	-11.4711
▁emphasis	-11.4714
-16	-11.4716
ito	-11.4716
▁insights	-11.472
▁disappear	-11.4721
▁Pictures	-11.4723
▁echo	-11.4724
▁Dal	-11.4731
▁sink	-11.4733
ego	-11.4734
▁technique	-11.4735
▁Amit	-11.4737
▁showcas	-11.474
▁separated	-11.4748
▁Direct	-11.475
▁tattoo	-11.4754
▁EastEnders	-11.4754
▁Elsewhere	-11.4754
▁Metropolitan	-11.4754
▁Nintendo	-11.4754
▁fascinating	-11.4754
▁inevitable	-11.4754
▁urgency	-11.4754
▁Ultra	-11.4754
▁plug	-11.4754
▁Windsor	-11.4754
▁Pedro	-11.4754
▁podium	-11.4754
▁Standard	-11.4754
▁patrol	-11.4755
▁baking	-11.4755
▁Ltd	-11.4755
▁tribe	-11.4756
▁shipping	-11.4756
▁Europa	-11.4756
▁Spa	-11.4756
▁summon	-11.4757
▁Taking	-11.4757
▁Morrison	-11.4757
▁Brandon	-11.4759
▁2028	-11.4759
▁Chair	-11.4759
▁Sinner	-11.476
▁turnover	-11.476
▁complain	-11.4762
▁Tam	-11.4762
▁bone	-11.4768
▁Someone	-11.4768
force	-11.477
▁competitors	-11.4773
▁campuses	-11.4773
▁pockets	-11.4778
▁tail	-11.4779
▁NC	-11.4783
ility	-11.4784
MD	-11.4785
▁intend	-11.479
▁converted	-11.4793
▁100,000	-11.4793
rist	-11.4806
▁Very	-11.4807
ingham	-11.4809
▁lash	-11.4809
▁cops	-11.481
▁ser	-11.481
▁Update	-11.481
horn	-11.4813
bility	-11.4814
▁rebounds	-11.4817
▁Kit	-11.4823
▁bombs	-11.4825
▁checking	-11.4828
▁consult	-11.483
62	-11.4833
▁faction	-11.4833
!!	-11.4833
▁traveled	-11.4834
ui	-11.4834
▁delight	-11.4838
▁Marie	-11.484
▁tee	-11.4843
▁Pac	-11.4851
▁Lock	-11.4857
▁connecting	-11.4857
▁violate	-11.4858
▁weaken	-11.4859
4,000	-11.4859
yne	-11.4872
▁resource	-11.4872
▁inject	-11.4876
▁CB	-11.4877
▁ce	-11.488
▁Morris	-11.4881
responsibilities	-11.4883
▁Heritage	-11.4883
▁Holiday	-11.4883
▁Punjab	-11.4883
▁administrative	-11.4883
▁completion	-11.4883
▁curtain	-11.4883
▁earthquake	-11.4883
▁jersey	-11.4883
▁obstacle	-11.4883
▁pursuing	-11.4883
▁MLB	-11.4884
▁Reagan	-11.4884
▁testament	-11.4884
▁spokeswoman	-11.4884
▁sheriff	-11.4884
▁Rescue	-11.4884
▁assigned	-11.4884
▁Yousaf	-11.4884
▁sustainability	-11.4884
▁Schumer	-11.4884
▁mineral	-11.4884
▁persistent	-11.4885
▁swim	-11.4885
▁balanced	-11.4885
▁fridge	-11.4885
▁slim	-11.4885
▁Bradley	-11.4886
▁deployment	-11.4886
▁artwork	-11.4886
▁bombing	-11.4886
▁Together	-11.4887
▁audit	-11.4887
▁duck	-11.4888
▁60%	-11.4888
▁MSP	-11.4888
▁Highway	-11.4889
▁Carl	-11.4892
▁wellbeing	-11.4892
▁deliberately	-11.4894
ault	-11.4895
cious	-11.4895
aq	-11.4895
▁Less	-11.4895
▁branches	-11.4896
▁Mis	-11.49
▁uncertain	-11.4901
▁objection	-11.4904
▁scary	-11.4905
▁pier	-11.4905
▁spirits	-11.4906
▁Costa	-11.4907
▁26-	-11.4908
placed	-11.4909
▁appealing	-11.4911
▁nest	-11.4913
▁jar	-11.4913
▁logo	-11.4917
▁reply	-11.4917
cca	-11.4918
▁agricultural	-11.4918
FF	-11.492
▁bounce	-11.492
▁Students	-11.4922
▁hugely	-11.4925
▁campaigning	-11.4926
▁Cru	-11.4927
ña	-11.4929
▁introduc	-11.493
▁Creat	-11.4934
▁deserved	-11.4937
▁Magic	-11.4938
dig	-11.4944
▁fulfill	-11.4945
sale	-11.4948
bad	-11.4949
▁jo	-11.4951
angle	-11.4964
▁Mack	-11.4968
▁hunting	-11.4976
last	-11.498
▁Ted	-11.498
▁discounts	-11.4981
▁Use	-11.4982
lew	-11.4982
▁suspend	-11.4983
▁negotiate	-11.4989
▁dominate	-11.499
▁approve	-11.499
▁AAP	-11.4993
written	-11.4994
formerly	-11.4994
Hamas	-11.4994
pay	-11.5001
▁manufacturer	-11.5006
▁Len	-11.5009
!!!	-11.501
etween	-11.5013
▁Duchess	-11.5015
▁elaborate	-11.5015
▁instinct	-11.5015
▁prevail	-11.5015
▁subscribers	-11.5015
▁Rooney	-11.5015
▁concentrate	-11.5015
▁filter	-11.5015
▁Jeffrey	-11.5015
▁Thames	-11.5015
▁wrongdoing	-11.5015
▁availability	-11.5015
▁bulk	-11.5015
▁grandfather	-11.5016
▁Stefan	-11.5016
▁Broadway	-11.5016
▁watchdog	-11.5016
▁Beckham	-11.5016
▁capability	-11.5017
▁Father	-11.5017
▁Throughout	-11.5017
▁PGA	-11.5018
▁ditch	-11.5018
▁suggestion	-11.5018
▁Bobby	-11.5018
▁weakness	-11.5018
▁accountability	-11.5019
▁perpetrator	-11.5019
▁Celeb	-11.5019
▁fluid	-11.502
MO	-11.5021
worthy	-11.5022
▁Winter	-11.5022
▁identifying	-11.5022
▁veto	-11.5024
▁Workers	-11.5025
▁thriller	-11.5027
▁Researchers	-11.5028
▁marry	-11.5029
▁sooner	-11.5029
▁cave	-11.5031
▁Meet	-11.5032
▁outlined	-11.5032
▁runway	-11.5035
▁lifting	-11.5037
▁27-	-11.5038
▁Colin	-11.504
▁Fat	-11.5044
▁Swa	-11.5044
▁Nav	-11.5045
bby	-11.5045
▁apologised	-11.5046
fact	-11.5053
inate	-11.5056
▁tweeted	-11.5058
uf	-11.5062
▁install	-11.5064
▁Linda	-11.5067
ott	-11.5068
▁Victorian	-11.5071
▁provisions	-11.5073
▁realistic	-11.5075
▁flower	-11.5075
▁fare	-11.5078
▁freeze	-11.5082
▁rope	-11.5086
▁23-	-11.5086
ema	-11.5089
▁statistics	-11.509
▁Bry	-11.5093
TI	-11.5095
▁reacted	-11.5099
ml	-11.51
building	-11.5104
▁Roger	-11.5106
▁gene	-11.511
▁cooling	-11.5111
▁Store	-11.5118
▁detect	-11.5118
▁Scho	-11.512
▁prisoner	-11.512
oni	-11.5121
FA	-11.5122
▁conclude	-11.5123
first	-11.5128
largest	-11.5129
▁je	-11.5132
border	-11.5133
Day	-11.5139
rmal	-11.514
▁kicks	-11.514
weight	-11.5142
▁Drive	-11.5144
▁Lead	-11.5144
▁Epstein	-11.5148
▁fortunate	-11.5148
▁ChatGPT	-11.5148
▁cognitive	-11.5148
▁flexibility	-11.5148
▁lavish	-11.5148
▁violating	-11.5148
▁whistle	-11.5148
▁conceal	-11.5148
▁staple	-11.5148
▁wreck	-11.5148
▁Entertainment	-11.5148
▁Hudson	-11.5148
▁Appeal	-11.5148
▁Potter	-11.5148
▁Doctors	-11.5149
▁intervene	-11.5149
▁enduring	-11.5149
"}],"	-11.5149
▁lounge	-11.5149
▁denounc	-11.5149
▁slipped	-11.5149
▁Norris	-11.5149
▁Investment	-11.5149
▁partisan	-11.515
▁naked	-11.515
▁pipe	-11.515
▁workshop	-11.515
▁merit	-11.5151
earn	-11.5151
▁History	-11.5152
▁sake	-11.5152
▁shareholders	-11.5153
▁mindset	-11.5154
▁Ruby	-11.5155
▁stir	-11.5155
▁difficulty	-11.5159
▁dependent	-11.516
▁Yoon	-11.5161
▁sin	-11.5163
▁frontline	-11.5167
▁Vir	-11.5168
▁Train	-11.517
▁Evan	-11.517
▁Aldi	-11.5171
aming	-11.5173
▁failures	-11.5173
▁stag	-11.5174
յ	-11.518
▁Puer	-11.5182
▁testify	-11.5189
▁Vic	-11.5193
▁etc	-11.5194
▁sealed	-11.5195
▁operated	-11.5208
▁99	-11.5211
▁bare	-11.5234
▁13-	-11.524
▁encountered	-11.5241
▁medic	-11.5246
▁guards	-11.5247
▁lighting	-11.5253
Yeah	-11.5263
develop	-11.5263
▁ears	-11.5263
▁Program	-11.5263
rent	-11.5264
▁touching	-11.5267
▁thorough	-11.5269
▁Lin	-11.5272
▁Ap	-11.5272
▁suburbs	-11.5276
▁demonstration	-11.528
▁$30	-11.528
▁$100	-11.528
▁Rain	-11.5282
▁respective	-11.5282
▁Uni	-11.5282
Volodymyr	-11.5284
▁Connecticut	-11.5284
▁McIlroy	-11.5284
▁Mississippi	-11.5284
▁Rebecca	-11.5284
▁agriculture	-11.5284
▁convenient	-11.5284
▁cottage	-11.5284
▁elephant	-11.5284
▁memorable	-11.5284
▁optimism	-11.5284
▁vaccination	-11.5284
▁victories	-11.5284
▁chatbot	-11.5284
▁clinch	-11.5284
▁Mahomes	-11.5284
▁Idaho	-11.5284
▁Paramount	-11.5284
▁goodbye	-11.5284
▁Gan	-11.5284
▁spiral	-11.5284
▁disinformation	-11.5284
▁chunk	-11.5284
▁massacre	-11.5284
▁benchmark	-11.5284
▁salmon	-11.5284
▁Fraser	-11.5285
▁kidney	-11.5285
▁subtle	-11.5285
▁fool	-11.5286
▁Stoke	-11.5287
▁80%	-11.5287
▁lovers	-11.5289
▁pathway	-11.5289
▁barred	-11.529
PL	-11.5292
▁Sav	-11.5292
▁reelection	-11.5293
▁95	-11.5294
▁expectation	-11.5297
▁conscious	-11.5298
▁tighten	-11.5299
▁Mick	-11.53
inder	-11.5311
▁boo	-11.5312
▁flames	-11.5314
▁jab	-11.5315
▁uphold	-11.5317
▁privately	-11.5318
▁battles	-11.5319
▁Sharif	-11.532
▁Forum	-11.5321
▁towel	-11.5321
El	-11.5329
▁Reports	-11.533
gainst	-11.5332
▁climbed	-11.5332
▁Maz	-11.5333
ական	-11.5333
corn	-11.5336
▁doom	-11.5337
▁aligned	-11.5337
▁Lab	-11.5338
▁rh	-11.5341
▁addresses	-11.5343
▁unrest	-11.5345
▁severely	-11.5347
▁lender	-11.5348
▁premier	-11.5351
Bu	-11.5352
▁exchanges	-11.5359
fr	-11.536
▁Mont	-11.5364
▁outfits	-11.5366
▁Pin	-11.5366
OP	-11.5369
▁refresh	-11.5374
CB	-11.5376
▁staged	-11.5378
LO	-11.5383
▁2011,	-11.539
▁Eye	-11.5391
▁VAR	-11.5394
▁reader	-11.5395
aught	-11.54
▁relate	-11.5402
▁underscores	-11.5404
▁Thanks	-11.5404
▁stole	-11.5404
mid	-11.5404
▁heated	-11.5405
▁instant	-11.5406
▁cheek	-11.5408
chair	-11.5414
lop	-11.5415
▁transit	-11.5415
brand	-11.5416
▁habit	-11.5416
▁homeowners	-11.5417
▁shaped	-11.5419
IST	-11.542
▁Consumer	-11.5421
▁Kharkiv	-11.5421
▁Norfolk	-11.5421
▁Rugby	-11.5421
▁Trophy	-11.5421
▁UNRWA	-11.5421
▁algorithm	-11.5421
▁hormone	-11.5421
▁imminent	-11.5421
▁jurisdiction	-11.5421
▁patience	-11.5421
▁recipient	-11.5421
▁VOA	-11.5421
▁Mohamed	-11.5421
▁analyse	-11.5421
▁cotton	-11.5421
▁Camilla	-11.5421
▁Brook	-11.5421
▁blew	-11.5421
▁parole	-11.5422
▁stride	-11.5422
▁Doctor	-11.5423
▁costume	-11.5424
▁Room	-11.5424
▁cycling	-11.5424
▁km	-11.5425
▁Logan	-11.5425
▁fancy	-11.5426
▁neo	-11.5429
73	-11.5432
▁reiterated	-11.5432
▁distributed	-11.5433
▁lag	-11.5435
▁difficulties	-11.5436
▁pensioners	-11.5436
▁Kir	-11.5436
▁Stein	-11.5437
▁evacuated	-11.5438
▁Ade	-11.5441
▁83	-11.5444
▁fingers	-11.5445
fair	-11.5445
▁compelling	-11.5447
▁fails	-11.5454
▁quest	-11.5454
▁peer	-11.5456
udi	-11.5461
▁incorrect	-11.5462
▁recipes	-11.5462
86	-11.5466
▁Rai	-11.5468
▁jaw	-11.5468
▁Chile	-11.5469
▁prostate	-11.547
▁notification	-11.5475
▁Ker	-11.5475
▁Bus	-11.548
▁dire	-11.5485
stitution	-11.5487
found	-11.5489
▁Mora	-11.5495
-21	-11.5501
▁escaped	-11.5501
▁washing	-11.5501
▁Todd	-11.5505
▁laughed	-11.551
▁Race	-11.5516
▁Eagles	-11.5517
▁scare	-11.552
▁bloody	-11.5525
owski	-11.5525
aria	-11.5529
▁Mario	-11.5531
▁geopolitic	-11.5532
▁2:	-11.5535
▁crews	-11.5535
isi	-11.5536
▁Fast	-11.5536
▁Chat	-11.5536
▁dam	-11.5536
craft	-11.5538
great	-11.5539
▁Close	-11.5539
▁avoiding	-11.5542
▁processed	-11.5544
▁swift	-11.5545
MB	-11.5548
▁math	-11.555
hai	-11.5551
phan	-11.5555
▁marginal	-11.5559
▁Ipswich	-11.5559
▁Kolkata	-11.5559
▁PlayStation	-11.5559
▁Slovakia	-11.5559
▁altogether	-11.5559
▁creativity	-11.5559
▁criteria	-11.5559
▁powder	-11.5559
▁spectator	-11.5559
▁Czech	-11.5559
▁Dylan	-11.5559
▁Information	-11.5559
▁heightened	-11.5559
▁anxious	-11.5559
▁Nadal	-11.556
▁gallery	-11.556
▁shark	-11.556
▁crude	-11.556
▁Venice	-11.556
▁Tampa	-11.556
▁curious	-11.556
▁swimmer	-11.556
▁Emmy	-11.556
▁Friends	-11.556
▁leaf	-11.556
▁stiff	-11.5561
▁sophisticated	-11.5561
▁bucket	-11.5562
▁cement	-11.5563
▁suburban	-11.5563
▁amass	-11.5563
▁Ashley	-11.5563
▁sample	-11.5563
▁swell	-11.5564
loo	-11.5565
▁Bloomberg	-11.5566
▁timeline	-11.5566
national	-11.5566
▁brace	-11.5566
▁remembered	-11.5567
▁injection	-11.5568
▁Truss	-11.5569
▁gown	-11.557
start	-11.5571
▁Casey	-11.5572
▁confessed	-11.5573
▁requirement	-11.5573
▁1950	-11.5574
▁suggestions	-11.5575
▁NO	-11.5577
▁28-	-11.5578
▁storyline	-11.5578
changing	-11.5582
uz	-11.5583
▁heels	-11.5583
▁Late	-11.5585
vil	-11.5586
order	-11.5587
UN	-11.5589
▁runner	-11.5596
▁rivers	-11.5597
▁canceled	-11.56
▁suppliers	-11.5604
shore	-11.5605
chy	-11.5607
▁Dee	-11.5609
▁Rogers	-11.5609
▁sounded	-11.5613
▁wherever	-11.5616
▁Houthis	-11.5619
▁shifting	-11.5637
▁82	-11.5639
81	-11.564
aro	-11.5643
▁purchases	-11.5648
▁switched	-11.5657
▁Jess	-11.5658
▁Bil	-11.5666
▁Lily	-11.5671
▁Count	-11.5671
▁reopen	-11.5673
▁touring	-11.5673
▁damn	-11.5675
minded	-11.5678
people	-11.5679
waiting	-11.568
bedroom	-11.568
boy	-11.5683
▁hung	-11.5688
▁Fur	-11.5691
▁airstrikes	-11.5692
▁Tax	-11.5696
▁lime	-11.57
▁municipal	-11.57
▁Bumrah	-11.57
▁Communist	-11.57
▁Limited	-11.57
▁Memorial	-11.57
▁NDTV	-11.57
▁Paralympic	-11.57
▁Surrey	-11.57
▁Swinney	-11.57
▁Walmart	-11.57
▁blunt	-11.57
▁bombardment	-11.57
▁convincing	-11.57
▁disturbing	-11.57
▁facial	-11.57
▁frustrating	-11.57
▁obesity	-11.57
▁reluctant	-11.57
▁escort	-11.57
▁relating	-11.57
▁surrender	-11.57
▁overdose	-11.57
▁aviation	-11.5701
▁wrist	-11.5701
▁Claire	-11.5701
▁stack	-11.5701
▁verbal	-11.5701
▁unnecessary	-11.5701
▁disappearance	-11.5701
▁plague	-11.5701
▁Got	-11.5702
▁WHO	-11.5702
▁boundary	-11.5702
▁Championships	-11.5703
▁raped	-11.5703
▁Polish	-11.5703
▁suburb	-11.5704
▁makers	-11.5705
▁catastrophic	-11.5705
▁Broad	-11.5706
▁2.5	-11.5707
▁equality	-11.5707
political	-11.5708
▁Highland	-11.5708
▁airstrike	-11.5709
▁Remember	-11.5709
trial	-11.571
elected	-11.5711
▁tanks	-11.5712
▁dismissal	-11.5714
▁Antony	-11.5714
▁swap	-11.5715
▁conceded	-11.5716
▁Fish	-11.5719
▁Noah	-11.5719
▁Levi	-11.572
▁gunman	-11.5724
▁cargo	-11.5726
▁bur	-11.5733
▁superb	-11.5735
▁Stay	-11.5737
▁Ski	-11.5737
▁partnerships	-11.5742
▁Stars	-11.5749
▁sadly	-11.575
jack	-11.575
▁sharply	-11.5751
▁routinely	-11.5751
▁eliminated	-11.5753
▁wh	-11.5754
hat	-11.5757
LY	-11.5759
▁contend	-11.5759
▁Need	-11.5759
▁SEC	-11.576
wit	-11.5763
▁Bears	-11.5766
▁farmer	-11.5769
▁showers	-11.5772
▁eco	-11.5773
Fa	-11.5776
91	-11.5777
▁economists	-11.5777
▁Audi	-11.5781
▁Commander	-11.5784
▁Hearts	-11.5787
▁imagined	-11.579
▁documented	-11.5792
▁Girls	-11.5793
▁88	-11.5797
▁Step	-11.5799
▁Scar	-11.5802
▁mill	-11.5803
▁assert	-11.5805
logy	-11.5807
▁performers	-11.581
hara	-11.5812
▁Opera	-11.5815
ների	-11.5818
▁settings	-11.5818
▁(6	-11.5819
vir	-11.5819
storm	-11.5822
Harris	-11.5823
▁feeding	-11.5825
plus	-11.5832
▁ratio	-11.5833
abi	-11.5834
▁petrol	-11.584
▁startup	-11.5842
▁twenty	-11.5843
▁Detective	-11.5843
▁advancing	-11.5843
▁appliance	-11.5843
▁charities	-11.5843
▁cluster	-11.5843
▁exploration	-11.5843
▁hilarious	-11.5843
▁integration	-11.5843
▁lucrative	-11.5843
▁tumble	-11.5843
▁vintage	-11.5843
▁Source	-11.5843
▁tornado	-11.5843
▁Pelosi	-11.5843
▁expire	-11.5843
▁Urban	-11.5843
▁Patrol	-11.5843
▁biological	-11.5844
▁Quinn	-11.5844
▁stalk	-11.5844
▁Cruise	-11.5844
▁Section	-11.5846
▁boring	-11.5846
▁admitting	-11.5846
▁freezing	-11.5847
▁Pride	-11.5847
▁potatoes	-11.5847
▁rematch	-11.5849
▁Order	-11.5849
▁Ethan	-11.5849
▁researcher	-11.5851
▁Kil	-11.5852
▁fitted	-11.5853
▁geo	-11.5854
▁blessed	-11.5856
▁Penny	-11.5857
▁lawn	-11.5865
▁mat	-11.5865
▁sticking	-11.5866
rah	-11.5869
▁euros	-11.5869
▁Reid	-11.5871
▁remarked	-11.5872
ucci	-11.5873
mad	-11.5873
▁executed	-11.5873
▁Face	-11.5878
▁Oak	-11.5881
▁Mam	-11.5884
▁Data	-11.5886
▁thankful	-11.5889
▁Ferr	-11.5892
▁undergoing	-11.5894
▁1%	-11.5896
▁Factor	-11.5898
▁speakers	-11.5904
94	-11.5909
▁Maha	-11.5916
,800	-11.592
▁Master	-11.5921
▁queer	-11.5921
▁musicians	-11.5925
▁rushing	-11.5926
▁Webb	-11.5939
loved	-11.594
▁listened	-11.5947
rro	-11.595
▁tier	-11.596
▁observe	-11.5961
▁Downing	-11.5965
rage	-11.5966
hide	-11.5967
▁Mou	-11.5967
▁Whi	-11.597
▁96	-11.5971
zan	-11.5974
▁touchdowns	-11.5974
▁Virgin	-11.5975
astic	-11.5977
Ju	-11.5977
event	-11.5979
▁wise	-11.5985
▁Barbara	-11.5988
▁Elector	-11.5988
▁WNBA	-11.5988
▁commute	-11.5988
▁evaluate	-11.5988
▁sequel	-11.5988
▁spectrum	-11.5988
▁trajectory	-11.5988
▁turmoil	-11.5988
▁unbeaten	-11.5988
▁underneath	-11.5988
▁Bournemouth	-11.5988
▁Rajasthan	-11.5988
▁SUV	-11.5988
▁Sheffield	-11.5988
▁WWE	-11.5988
▁monster	-11.5988
▁snake	-11.5988
▁underwent	-11.5988
▁Davies	-11.5988
▁Slater	-11.5988
▁wheelchair	-11.5988
▁straightforward	-11.5988
▁institute	-11.5989
▁Lagos	-11.5989
▁Robbie	-11.5989
▁soaring	-11.599
▁regain	-11.599
▁adjustment	-11.5992
▁limb	-11.5992
▁Congressional	-11.5992
▁Portland	-11.5992
▁Overall	-11.5993
▁poet	-11.5993
▁reservation	-11.5994
countless	-11.5995
▁Save	-11.5995
▁Trent	-11.5995
▁homelessness	-11.5996
▁Richardson	-11.5996
odd	-11.5997
▁30%	-11.5997
▁(7	-11.6
▁partially	-11.6
▁inherited	-11.6
▁Hayes	-11.6001
▁curve	-11.6001
▁slump	-11.6002
▁Please	-11.6005
▁Sullivan	-11.6005
▁techniques	-11.6009
▁bones	-11.601
▁disclosed	-11.601
vel	-11.6011
▁Brady	-11.6014
plan	-11.6014
▁Para	-11.6014
▁Astro	-11.6019
▁bearing	-11.6019
▁Boxing	-11.6023
▁Clare	-11.6024
▁hai	-11.6025
▁championships	-11.6025
▁sacked	-11.6033
▁GM	-11.6037
▁gaining	-11.6038
▁visitor	-11.6041
▁Der	-11.6042
una	-11.6043
▁curl	-11.6044
▁Stand	-11.6045
▁tub	-11.6046
saving	-11.6046
▁Heat	-11.6052
.8%	-11.6053
▁Sau	-11.6057
ennial	-11.6057
▁lied	-11.6057
▁Tea	-11.6058
▁Mini	-11.6061
▁achievements	-11.6063
▁RO	-11.6065
▁grants	-11.6065
▁demon	-11.6066
▁Nat	-11.6071
▁surged	-11.6071
▁leaked	-11.6073
▁$50	-11.6079
▁finale	-11.6087
▁ka	-11.6088
tay	-11.6088
▁chic	-11.6097
▁greatly	-11.6098
going	-11.6099
▁Kari	-11.6101
friend	-11.6102
▁troubled	-11.6103
▁haunt	-11.6103
▁unveil	-11.6103
organ	-11.6104
lation	-11.6106
▁Georgian	-11.6106
present	-11.6112
▁Zo	-11.6113
▁tab	-11.6113
Label	-11.6114
Because	-11.6114
▁applicants	-11.6115
▁Fer	-11.6119
funded	-11.6119
▁adequate	-11.612
▁explicit	-11.612
ydd	-11.6121
▁margins	-11.6122
▁Gall	-11.6125
▁Alice	-11.6125
iber	-11.6127
▁Ronald	-11.6129
▁runners	-11.6132
▁caring	-11.6132
▁descend	-11.6135
▁(£1	-11.6135
▁Maguire	-11.6135
▁Menendez	-11.6135
▁blockbuster	-11.6135
։	-11.6135
▁MVP	-11.6135
▁cliff	-11.6135
▁compassion	-11.6135
▁condolences	-11.6135
▁faculty	-11.6135
▁garner	-11.6135
▁stereo	-11.6135
▁strategist	-11.6135
▁Crooks	-11.6135
▁Visit	-11.6135
▁seizure	-11.6135
▁consistency	-11.6135
▁Madison	-11.6136
▁Albania	-11.6136
▁wander	-11.6136
▁wager	-11.6136
▁recession	-11.6136
▁Dawn	-11.6136
▁acute	-11.6136
▁serial	-11.6136
▁defect	-11.6137
▁Ruben	-11.6137
▁Ellie	-11.6137
▁honey	-11.6137
▁undergo	-11.6138
▁childcare	-11.6138
▁Callum	-11.6138
▁headache	-11.6139
▁Clement	-11.6139
▁Rap	-11.614
▁Walsh	-11.614
▁banana	-11.6141
▁Clarkson	-11.6141
▁overwhelmed	-11.6142
▁Harper	-11.6142
▁1,500	-11.6143
▁tube	-11.6144
umbling	-11.6144
▁Corp	-11.6144
▁credible	-11.6146
▁reflection	-11.6146
around	-11.6147
endra	-11.6147
▁15%	-11.6147
▁trash	-11.6147
▁Kerry	-11.6148
founded	-11.6149
▁healing	-11.6149
▁rob	-11.6152
▁initiated	-11.6154
▁log	-11.6157
▁Maine	-11.6159
▁101	-11.6159
▁healthier	-11.616
▁Mae	-11.6161
▁Marsh	-11.6164
▁revive	-11.6164
▁distract	-11.6166
▁arise	-11.6167
ature	-11.6168
▁tally	-11.6169
▁poly	-11.6172
▁beans	-11.6173
▁touches	-11.6174
uro	-11.6176
▁HD	-11.6176
▁Try	-11.6181
▁Nord	-11.6185
▁(5	-11.6201
▁Ok	-11.6202
Getting	-11.6204
▁$15	-11.6204
Lago	-11.6209
▁shout	-11.6209
▁criticiz	-11.6209
▁gen	-11.6212
▁Monte	-11.6214
proving	-11.6218
▁beliefs	-11.6224
▁guided	-11.6227
edge	-11.6228
grand	-11.6232
Su	-11.6234
hou	-11.6236
▁reserves	-11.6247
▁profession	-11.6249
▁accomplish	-11.6253
▁79	-11.6265
▁learnt	-11.6268
▁recommends	-11.627
▁Arch	-11.6271
meter	-11.6271
▁aerial	-11.6276
▁automatic	-11.6284
▁Citizen	-11.6284
▁Henderson	-11.6284
▁Mohammad	-11.6284
▁NASCAR	-11.6284
▁Orleans	-11.6284
▁constitute	-11.6284
▁declaring	-11.6284
▁submarine	-11.6284
▁Haryana	-11.6284
▁dairy	-11.6284
▁Falcon	-11.6284
▁mandatory	-11.6284
▁thunder	-11.6284
▁forthcoming	-11.6284
▁denial	-11.6284
▁asleep	-11.6284
▁Spirit	-11.6284
▁mosque	-11.6284
▁Medicare	-11.6285
▁Oasis	-11.6285
▁Diamond	-11.6285
▁Summit	-11.6285
▁accent	-11.6285
▁bundle	-11.6285
▁Ice	-11.6285
▁joking	-11.6285
▁Marshall	-11.6285
▁humor	-11.6285
▁Leo	-11.6286
▁genetic	-11.6286
▁Cancer	-11.6286
▁grain	-11.6287
▁1968	-11.6287
safe	-11.6287
▁Grande	-11.6288
▁occupation	-11.6289
▁greenhouse	-11.6289
▁exemption	-11.6289
▁waist	-11.629
▁elder	-11.629
▁occasional	-11.6291
▁spice	-11.6292
▁offenders	-11.6294
▁mud	-11.6298
ente	-11.6301
▁ji	-11.6304
▁Julia	-11.6305
▁Thai	-11.6307
▁rib	-11.6307
▁inspect	-11.6311
▁Conor	-11.6311
▁retro	-11.6311
▁mounting	-11.6312
▁Cox	-11.6315
▁Joey	-11.6317
▁misses	-11.6318
▁Case	-11.6321
▁Bow	-11.6322
▁Yeah	-11.6323
▁pitches	-11.6323
▁smashed	-11.6325
▁cheating	-11.6326
print	-11.6331
▁Kirk	-11.6331
▁Pakistani	-11.6337
▁justify	-11.6343
ille	-11.6344
bur	-11.6345
enne	-11.6345
pose	-11.6346
▁Rec	-11.6347
▁pint	-11.6347
▁Boys	-11.635
park	-11.6352
▁contractor	-11.6355
▁captioned	-11.6356
▁Gay	-11.6358
link	-11.6361
▁VP	-11.6362
▁Bud	-11.6365
▁fleeing	-11.6366
Connell	-11.6367
0%	-11.6374
▁Mol	-11.6374
NP	-11.6375
▁Vote	-11.6376
▁Code	-11.638
▁advises	-11.6381
▁inspiring	-11.6385
zu	-11.639
▁aide	-11.6399
▁Burn	-11.64
fro	-11.6404
titude	-11.6405
▁RB	-11.6408
bow	-11.6409
▁stall	-11.6413
▁breathe	-11.6414
▁processor	-11.6414
▁Ky	-11.6415
perfect	-11.6415
John	-11.6416
Everyone	-11.6417
▁Corps	-11.6419
▁Chu	-11.6422
▁whisk	-11.6424
▁Gas	-11.6424
think	-11.6425
speed	-11.6426
▁ethics	-11.643
may	-11.6433
▁differ	-11.6434
▁Ella	-11.6434
▁buck	-11.6435
▁Albanese	-11.6436
▁Ambassador	-11.6436
▁Bengaluru	-11.6436
▁Captain	-11.6436
▁Circuit	-11.6436
▁Electric	-11.6436
▁Eventually	-11.6436
▁Hawaii	-11.6436
▁Hispanic	-11.6436
▁Southampton	-11.6436
▁cannabis	-11.6436
▁certified	-11.6436
▁concession	-11.6436
▁drift	-11.6436
▁enclave	-11.6436
▁infected	-11.6436
▁Chloe	-11.6436
▁Formula	-11.6436
▁academy	-11.6436
▁unleash	-11.6436
▁Critics	-11.6436
▁Legend	-11.6436
▁stump	-11.6436
▁essay	-11.6436
▁Belfast	-11.6436
▁kilometres	-11.6436
▁Gilbert	-11.6436
▁inheritance	-11.6436
enhancing	-11.6436
▁liver	-11.6436
▁Hugh	-11.6437
▁forensic	-11.6437
▁navy	-11.6437
▁radar	-11.6437
▁mixture	-11.6437
▁Forbes	-11.6437
▁hungry	-11.6438
▁sheep	-11.6438
teroid	-11.6438
▁coincide	-11.6438
▁PTI	-11.6438
▁aisle	-11.6439
▁Virat	-11.6439
▁Julian	-11.6439
love	-11.6439
▁Break	-11.644
▁feat	-11.644
▁battlefield	-11.644
▁obsessed	-11.6441
▁adoption	-11.6441
▁buyer	-11.6441
chu	-11.6442
▁audition	-11.6442
▁Snow	-11.6443
▁candle	-11.6444
▁banner	-11.6446
▁touted	-11.6446
▁VI	-11.6446
▁1-1	-11.6446
▁grind	-11.6447
▁viable	-11.645
▁integrated	-11.645
▁hometown	-11.6453
▁worthy	-11.6454
▁Better	-11.6455
▁expose	-11.6457
▁folk	-11.6466
Or	-11.6467
▁Tha	-11.6468
▁Beat	-11.647
▁Joy	-11.647
▁Michel	-11.647
▁pitched	-11.6472
▁interaction	-11.6473
AF	-11.6477
▁insisting	-11.6477
▁Cape	-11.648
▁entertaining	-11.6481
▁infamous	-11.6481
▁mac	-11.6484
▁rated	-11.6486
▁20,000	-11.6486
Mon	-11.6487
▁regulators	-11.6489
▁skipp	-11.6493
▁components	-11.6494
▁stakes	-11.6495
▁contestants	-11.6498
▁hood	-11.6501
▁handy	-11.6502
uli	-11.6503
▁rooftop	-11.6504
▁blasted	-11.6507
▁watches	-11.6517
▁treaty	-11.6518
▁Def	-11.6519
72	-11.652
rose	-11.6521
▁tougher	-11.6526
quest	-11.6527
bia	-11.6528
aga	-11.6529
hear	-11.6535
▁sticks	-11.6538
fur	-11.654
▁locally	-11.654
▁preparations	-11.654
▁stealing	-11.6547
▁Swan	-11.6548
▁Ur	-11.6552
Hu	-11.6553
▁leverage	-11.6556
road	-11.6556
ieve	-11.6561
▁strengthening	-11.6561
ador	-11.6565
through	-11.6568
▁costly	-11.6568
inspired	-11.657
when	-11.6572
▁Pack	-11.6572
▁boarding	-11.6573
▁seize	-11.6576
▁List	-11.6577
Base	-11.6578
Te	-11.6578
▁Nigerians	-11.6578
▁Medi	-11.6579
▁harass	-11.6588
▁psycho	-11.659
▁Brendan	-11.659
▁Chopra	-11.659
▁Fulham	-11.659
▁Ibrahim	-11.659
▁Private	-11.659
▁artillery	-11.659
▁believing	-11.659
▁compliance	-11.659
▁constituencies	-11.659
▁deceased	-11.659
▁fentanyl	-11.659
▁ideology	-11.659
▁intellectual	-11.659
▁plaintiff	-11.659
▁purchasing	-11.659
▁technological	-11.659
▁unsuccessful	-11.659
թ	-11.659
▁wisdom	-11.659
▁thread	-11.659
▁dragged	-11.659
▁terrace	-11.659
▁amateur	-11.659
▁crises	-11.659
▁demonstrators	-11.659
▁crystal	-11.659
▁default	-11.659
▁nasty	-11.659
▁Sheikh	-11.659
▁palace	-11.659
▁Jerry	-11.659
▁Ollie	-11.659
▁cried	-11.659
▁resonate	-11.6591
▁Ashwin	-11.6591
▁soared	-11.6591
▁Niger	-11.6591
▁Titan	-11.6591
▁tongue	-11.6591
▁Nicholas	-11.6591
▁knot	-11.6591
▁feedback	-11.6592
▁1987	-11.6592
▁drum	-11.6593
stock	-11.6593
▁cheapest	-11.6594
▁nuts	-11.6594
▁Welcome	-11.6594
▁reclaim	-11.6595
▁FDA	-11.6595
▁Eras	-11.6596
▁decor	-11.6597
▁Similarly	-11.6598
▁Drug	-11.6599
▁peel	-11.6599
.6%	-11.66
▁Recently	-11.66
lessness	-11.6601
▁Return	-11.6602
lio	-11.6604
▁protective	-11.6606
▁Job	-11.661
▁escalated	-11.6611
▁clashes	-11.6612
▁controlling	-11.6613
▁negotiated	-11.662
▁memo	-11.6621
▁Dunn	-11.6628
▁spat	-11.6629
▁5%	-11.6635
▁4,000	-11.6636
icul	-11.6637
base	-11.664
▁Andrea	-11.664
▁stranger	-11.6641
OM	-11.6642
▁Messi	-11.6647
▁disrupted	-11.665
▁exceed	-11.6666
▁Stop	-11.6667
▁tons	-11.6668
▁prioritise	-11.667
Your	-11.6675
▁Gh	-11.6676
assi	-11.6676
▁lover	-11.668
▁Dha	-11.6683
▁embraced	-11.6685
որ	-11.6688
vision	-11.669
▁destroying	-11.6691
▁whip	-11.6692
UT	-11.6695
▁poison	-11.6699
▁soup	-11.6699
▁squa	-11.67
auto	-11.6701
▁pie	-11.6706
tified	-11.6708
▁Om	-11.671
figure	-11.6719
▁organise	-11.6721
built	-11.6725
բ	-11.6725
mie	-11.6727
6,000	-11.673
▁Region	-11.6732
rra	-11.6733
▁nationalist	-11.6734
India	-11.6735
▁render	-11.6741
▁whereas	-11.6742
issa	-11.6743
▁corrupt	-11.6744
▁viewer	-11.6745
▁thumb	-11.6746
▁Coalition	-11.6746
▁Damascus	-11.6746
▁Nebraska	-11.6746
▁beneficial	-11.6746
▁completing	-11.6746
▁congratulate	-11.6746
▁conservation	-11.6746
▁defamation	-11.6746
▁enabling	-11.6746
▁fatigue	-11.6746
▁identification	-11.6746
▁observation	-11.6746
▁sequence	-11.6746
▁supreme	-11.6746
▁territories	-11.6746
▁Amorim	-11.6746
▁historian	-11.6746
▁piano	-11.6746
▁Herald	-11.6746
▁Brentford	-11.6746
▁boycott	-11.6746
▁clause	-11.6747
Many	-11.6747
▁mobility	-11.6747
▁shaking	-11.6747
▁NHL	-11.6747
▁flourish	-11.6747
▁Lynch	-11.6747
▁Islam	-11.6748
▁hedge	-11.6748
▁header	-11.675
▁incorporate	-11.6751
cm	-11.6752
▁Hughes	-11.6753
▁Dad	-11.6753
▁backpack	-11.6754
▁withdrew	-11.6754
▁generative	-11.6755
lev	-11.6757
▁takeaway	-11.6759
▁reserve	-11.676
▁evolved	-11.6764
▁Salt	-11.6766
▁supermarkets	-11.6767
▁Temple	-11.6767
Her	-11.677
▁Lowe	-11.6771
▁Que	-11.6773
▁toast	-11.6773
▁cute	-11.6774
▁whoever	-11.6781
▁Helene	-11.6782
=""	-11.6784
Any	-11.6787
▁Louise	-11.6788
gro	-11.6793
▁san	-11.6801
▁suck	-11.6807
▁Nato	-11.6808
▁Penn	-11.6812
cost	-11.6813
dragon	-11.6819
fty	-11.6822
▁boxer	-11.6824
▁embrac	-11.6827
▁Rosa	-11.6833
▁Zara	-11.6833
phone	-11.6835
Ben	-11.6837
▁emotionally	-11.6839
▁Shore	-11.684
mine	-11.6842
▁input	-11.6842
▁Host	-11.6844
.2%	-11.6845
▁presenting	-11.6849
▁cal	-11.6854
▁92	-11.6856
▁Gene	-11.6858
▁outright	-11.6858
▁Bath	-11.6859
NY	-11.6861
▁XI	-11.6867
▁Tree	-11.6868
▁diagnos	-11.6871
▁cricketer	-11.6875
▁establishing	-11.6875
▁IN	-11.6876
uda	-11.6876
▁regulate	-11.6879
bart	-11.688
source	-11.6881
▁metro	-11.6882
Connor	-11.6884
primary	-11.6884
second	-11.6884
hidden	-11.6884
▁measured	-11.6886
▁functions	-11.6888
ée	-11.689
never	-11.6897
▁Ny	-11.69
still	-11.6901
▁retaliat	-11.6903
▁unanimous	-11.6905
▁Celsius	-11.6905
▁Commerce	-11.6905
▁Glastonbury	-11.6905
▁Liberty	-11.6905
▁Lincoln	-11.6905
▁Starbucks	-11.6905
▁consensus	-11.6905
▁grandchildren	-11.6905
▁happily	-11.6905
▁humour	-11.6905
▁precaution	-11.6905
▁Jamaica	-11.6905
▁Malaysia	-11.6905
▁dispatch	-11.6905
▁enterprise	-11.6905
▁surviving	-11.6905
▁Croatia	-11.6905
▁Uttar	-11.6905
▁gently	-11.6905
▁pleasant	-11.6905
▁reckless	-11.6905
▁mattress	-11.6905
▁Queensland	-11.6905
▁Rashford	-11.6905
▁isolation	-11.6905
▁Kerala	-11.6905
▁packaging	-11.6905
▁Derek	-11.6905
▁patron	-11.6905
▁flour	-11.6905
▁Railway	-11.6906
▁submission	-11.6906
▁snapped	-11.6906
▁Hassan	-11.6906
▁dividend	-11.6906
▁Corporation	-11.6906
▁bride	-11.6906
▁Arctic	-11.6906
flight	-11.6906
▁tonnes	-11.6907
▁republic	-11.6907
▁Martha	-11.6907
▁1986	-11.6907
▁Transportation	-11.6907
▁Bol	-11.6907
▁Sue	-11.6908
▁spinner	-11.6908
▁chasing	-11.6908
▁Scot	-11.6909
▁rotation	-11.6909
▁NDA	-11.6909
▁Nature	-11.691
▁Milton	-11.691
▁labelled	-11.691
▁postseason	-11.6911
▁Ronaldo	-11.6911
▁frankly	-11.6911
▁Holland	-11.6914
▁mature	-11.6914
▁confirmation	-11.6916
▁Wang	-11.6918
cell	-11.6921
▁incentives	-11.6924
banning	-11.6925
▁commentary	-11.6925
▁blessing	-11.6927
▁NY	-11.6928
▁uncovered	-11.693
eta	-11.693
mother	-11.6932
▁collector	-11.6932
tree	-11.6932
ben	-11.6934
▁Youth	-11.6937
▁Change	-11.6938
▁broadly	-11.6939
▁pave	-11.6941
▁examined	-11.6942
▁buses	-11.6943
TO	-11.6944
metre	-11.6944
brook	-11.6949
▁immigrant	-11.6951
▁offset	-11.6952
▁Burns	-11.6952
wel	-11.6952
▁medications	-11.6954
▁remark	-11.6955
fri	-11.6955
▁topics	-11.6957
▁complications	-11.6957
▁entertain	-11.6958
▁CH	-11.6964
▁castle	-11.6964
motion	-11.6966
gies	-11.697
NT	-11.697
MS	-11.6974
▁Shiv	-11.6975
By	-11.6979
▁sofa	-11.698
▁alleges	-11.6984
fat	-11.6984
AY	-11.6987
▁locker	-11.6989
▁apple	-11.7006
▁Fen	-11.7007
▁northwest	-11.7013
▁closures	-11.7017
▁steer	-11.7018
▁MO	-11.7021
▁Clo	-11.7022
aka	-11.7023
hoo	-11.7023
▁statu	-11.7023
▁cure	-11.7026
▁Residents	-11.7026
▁edit	-11.7027
trans	-11.7033
▁upside	-11.7035
▁£40	-11.7038
author	-11.7044
profit	-11.7045
▁Iron	-11.7046
green	-11.7046
bear	-11.7048
▁TD	-11.7048
▁oh	-11.7051
▁fri	-11.7051
ume	-11.7055
sharing	-11.7057
▁illustrat	-11.7058
▁reset	-11.7059
▁focuse	-11.7063
▁Belarus	-11.7066
▁Buffalo	-11.7066
▁Legislature	-11.7066
▁Reynolds	-11.7066
▁Scholz	-11.7066
▁balcony	-11.7066
▁bloom	-11.7066
▁pedestrian	-11.7066
▁rallied	-11.7066
▁satisfied	-11.7066
▁syndrome	-11.7066
▁tribunal	-11.7066
":[{"	-11.7066
▁Hitler	-11.7066
▁envoy	-11.7066
▁Thanksgiving	-11.7066
▁Midlands	-11.7066
▁jeans	-11.7066
▁Timoth	-11.7066
▁bullying	-11.7066
▁fireworks	-11.7066
▁flexible	-11.7066
▁dismantl	-11.7066
▁naming	-11.7066
▁creep	-11.7067
▁toddler	-11.7067
▁rubble	-11.7067
▁Oakland	-11.7067
▁ripped	-11.7067
▁meme	-11.7067
hearted	-11.7068
▁Foden	-11.7068
▁Franklin	-11.7068
▁editorial	-11.7068
▁1982	-11.7069
▁interpretation	-11.7071
▁princess	-11.7071
▁911	-11.7072
▁Malik	-11.7072
▁Origin	-11.7073
▁habitat	-11.7073
▁verify	-11.7074
▁slowed	-11.7075
▁Worth	-11.7076
▁cosy	-11.7076
▁booth	-11.7076
▁darkness	-11.7077
▁tide	-11.7078
▁Map	-11.7079
code	-11.708
▁pat	-11.7081
/2024	-11.7083
ilicon	-11.7086
▁Coach	-11.7087
dog	-11.7088
▁indicates	-11.7089
▁Horse	-11.7089
▁Fisher	-11.709
▁Pil	-11.7091
▁Shop	-11.7093
?""	-11.7094
lick	-11.7095
▁reserved	-11.7096
▁warmth	-11.7096
Ka	-11.7096
,400	-11.7096
▁slashed	-11.7098
▁kindness	-11.71
▁tolerate	-11.7102
▁creators	-11.7103
▁lion	-11.7104
▁Online	-11.7106
▁explosions	-11.7106
▁echoed	-11.7106
▁Page	-11.7107
▁looming	-11.7109
▁Simone	-11.7114
▁artistic	-11.7116
store	-11.7118
▁Nan	-11.7127
▁poise	-11.7127
▁View	-11.7128
▁AL	-11.7128
▁Tay	-11.7129
▁senators	-11.7129
▁compar	-11.713
▁presid	-11.7131
▁Pant	-11.7133
3,000	-11.7133
tina	-11.7135
▁mindful	-11.7141
▁Pink	-11.7146
lade	-11.7148
keeping	-11.7149
▁cooler	-11.715
cry	-11.715
▁Johnston	-11.715
▁Walk	-11.7153
▁oc	-11.7153
▁Pic	-11.7154
lake	-11.7155
Neill	-11.7159
slug	-11.7161
▁amend	-11.7162
71	-11.7167
▁Isle	-11.717
▁vest	-11.7172
▁notion	-11.7174
▁freed	-11.7175
▁Patriots	-11.7175
fold	-11.7178
▁Devils	-11.7184
▁Gau	-11.7191
▁tre	-11.7191
▁portray	-11.7192
0)	-11.7192
they	-11.7196
▁Zoe	-11.7197
▁collecting	-11.7202
▁slash	-11.7203
▁ward	-11.7207
connect	-11.7209
threatening	-11.7209
limited	-11.7209
▁PAC	-11.7209
controlled	-11.721
▁precise	-11.7215
▁Lor	-11.7216
▁86	-11.7218
▁Rail	-11.7225
Most	-11.7227
▁Tate	-11.7228
▁scholar	-11.7229
▁Pelicot	-11.723
▁delicate	-11.723
undoubtedly	-11.723
▁Communication	-11.723
▁Medicine	-11.723
▁Spaniard	-11.723
▁UEFA	-11.723
▁bleeding	-11.723
▁certification	-11.723
▁cryptocurrency	-11.723
▁dessert	-11.723
▁indicator	-11.723
▁marathon	-11.723
▁rubbish	-11.723
▁spectacle	-11.723
▁maritime	-11.723
▁liability	-11.723
▁yacht	-11.723
▁Immigration	-11.723
▁Sterling	-11.723
▁Uganda	-11.723
▁Holmes	-11.723
▁Brooks	-11.723
boo	-11.723
▁crawl	-11.723
▁Blood	-11.723
▁Modern	-11.7231
▁Ghana	-11.7231
▁continuous	-11.7231
▁Prison	-11.7231
▁unbelievable	-11.7232
▁traumatic	-11.7232
▁groom	-11.7233
▁1988	-11.7233
▁engineers	-11.7233
,700	-11.7234
▁Premiership	-11.7234
▁simultaneously	-11.7234
▁interception	-11.7235
▁unpaid	-11.7235
▁lethal	-11.7235
▁Larry	-11.7235
▁flare	-11.7236
▁MLA	-11.7236
▁Devon	-11.7237
▁Homeland	-11.7237
▁Racing	-11.7238
▁richest	-11.724
▁scattered	-11.724
▁Gregg	-11.724
story	-11.7246
▁gran	-11.7246
▁intends	-11.7253
▁Dark	-11.7255
▁prosecuted	-11.7255
▁sidelines	-11.7256
▁Million	-11.7258
▁Fried	-11.7259
Wow	-11.7259
▁newborn	-11.7259
▁portrayed	-11.7262
▁lifelong	-11.7262
▁stalled	-11.7265
▁Gab	-11.7265
▁owed	-11.7268
▁wav	-11.7268
▁detected	-11.7269
▁True	-11.727
▁$12	-11.7273
▁AG	-11.7274
uzz	-11.7278
▁emphasised	-11.7286
▁Common	-11.7291
▁Fine	-11.7302
▁Records	-11.7302
charge	-11.7303
eyed	-11.7304
▁holy	-11.7308
▁belongings	-11.7313
▁vent	-11.7316
▁08	-11.732
▁Kara	-11.7321
լ	-11.7322
▁Classic	-11.7324
▁sums	-11.7325
▁DE	-11.7328
▁Few	-11.7329
▁AR	-11.733
▁kicking	-11.733
Are	-11.7331
▁injur	-11.7334
▁Markle	-11.7336
▁Gran	-11.7336
▁poorly	-11.734
▁performer	-11.734
SF	-11.7341
▁Dance	-11.7343
▁Working	-11.7348
▁Maya	-11.7351
▁Cut	-11.7353
▁Alba	-11.7354
heart	-11.7357
▁critically	-11.736
▁accounting	-11.7362
stick	-11.7363
▁comb	-11.7369
▁disclose	-11.7372
floor	-11.7376
▁wondered	-11.7377
However	-11.7377
▁(10	-11.7377
▁bun	-11.7378
girl	-11.7379
▁smartphones	-11.7381
pat	-11.7389
▁bay	-11.7393
▁Challenge	-11.7395
▁Belgian	-11.7397
▁Military	-11.7397
▁appetite	-11.7397
▁disclosure	-11.7397
▁homicide	-11.7397
▁indicted	-11.7397
▁intelligent	-11.7397
▁mushroom	-11.7397
▁renovation	-11.7397
▁squeeze	-11.7397
▁structural	-11.7397
խ	-11.7397
▁RHP	-11.7397
▁cherish	-11.7397
▁valley	-11.7397
▁abolish	-11.7397
▁perfume	-11.7397
commerce	-11.7397
▁retriev	-11.7397
▁separation	-11.7397
▁Trevor	-11.7397
▁brew	-11.7397
▁appreciation	-11.7397
▁vague	-11.7397
▁Prize	-11.7399
▁Rayner	-11.7399
▁1979	-11.7399
▁knockout	-11.74
▁Outside	-11.74
▁700	-11.74
▁warfare	-11.7401
▁acceptance	-11.7401
▁anthem	-11.7401
▁Singer	-11.7402
▁regrets	-11.7402
▁borrowers	-11.7402
▁Moreover	-11.7403
▁Battle	-11.7404
▁Universal	-11.7405
▁Middleton	-11.7406
▁90%	-11.7406
fighting	-11.7408
▁utterly	-11.7408
▁Ultimately	-11.7409
▁Biles	-11.7409
},"	-11.741
▁advise	-11.7412
▁exacerbate	-11.7414
▁standout	-11.7419
filled	-11.742
▁Pie	-11.7422
▁attendees	-11.7426
▁thrilling	-11.7427
enter	-11.7429
▁catches	-11.7433
pool	-11.7434
▁muscles	-11.7443
▁sensational	-11.7449
▁Oz	-11.7451
▁Porter	-11.7454
▁CM	-11.7456
▁halted	-11.7463
▁tele	-11.7463
▁rub	-11.7468
▁median	-11.7474
են	-11.7475
▁Self	-11.7477
plex	-11.7479
▁Hil	-11.7479
PD	-11.7482
nnie	-11.7482
▁donor	-11.7485
▁prioritize	-11.7485
though	-11.749
▁advertise	-11.7492
sided	-11.7495
▁counterparts	-11.7499
fest	-11.7508
▁($1	-11.7512
cover	-11.7513
▁beautifully	-11.7514
▁spann	-11.7521
▁cheat	-11.7523
▁interactions	-11.7533
iq	-11.7534
▁clinics	-11.7535
▁UC	-11.7537
▁Naga	-11.7538
▁prosecute	-11.754
▁Kur	-11.7543
drop	-11.7543
borne	-11.7545
­	-11.7545
general	-11.7546
league	-11.7546
▁evolution	-11.7547
chief	-11.7547
Like	-11.7548
bee	-11.7551
▁guilt	-11.7554
▁attribute	-11.7554
-15	-11.7555
▁dirt	-11.7555
mari	-11.7556
շ	-11.7565
▁Industrial	-11.7566
▁Scientists	-11.7566
▁circuit	-11.7566
▁convenience	-11.7566
▁fragment	-11.7566
▁judiciary	-11.7566
▁qualities	-11.7566
▁refusal	-11.7566
▁resilient	-11.7566
▁stylish	-11.7566
°	-11.7566
▁Fashion	-11.7566
▁Orlando	-11.7566
▁Rodriguez	-11.7566
▁clutch	-11.7566
▁likelihood	-11.7566
▁Bragg	-11.7566
▁Ravens	-11.7566
▁Sainsbury	-11.7566
▁duration	-11.7566
▁nursing	-11.7566
▁throat	-11.7566
▁UAE	-11.7566
▁worship	-11.7566
▁motive	-11.7566
▁Adrian	-11.7566
▁Jenkins	-11.7566
▁temper	-11.7566
▁forefront	-11.7566
▁allocated	-11.7566
▁Gallery	-11.7567
▁conversion	-11.7567
▁Third	-11.7567
▁comprise	-11.7567
▁unaware	-11.7567
▁transmission	-11.7567
▁pillow	-11.7567
▁assumption	-11.7567
▁rational	-11.7567
▁Lineker	-11.7567
▁Duncan	-11.7567
▁Monica	-11.7567
▁motorists	-11.7567
▁burger	-11.7567
▁Murder	-11.7568
▁Barbie	-11.7568
▁swear	-11.7569
api	-11.7569
▁paramedic	-11.7569
▁Legal	-11.7569
▁dense	-11.7569
▁confidential	-11.757
▁statute	-11.757
▁permitted	-11.7572
eyEvent	-11.7572
artisan	-11.7572
linked	-11.7572
▁Realme	-11.7573
▁Bruno	-11.7574
tack	-11.7575
▁$1,000	-11.7575
▁Jackie	-11.7576
money	-11.7578
▁YOU	-11.7581
▁flatter	-11.7581
▁united	-11.7583
▁Megan	-11.7583
▁Horner	-11.7583
▁explicitly	-11.7583
▁Engineer	-11.7584
enberg	-11.7585
▁vape	-11.7586
▁կ	-11.7586
pack	-11.7586
▁180	-11.7586
▁contention	-11.7586
▁Members	-11.7586
▁skies	-11.7587
▁Alleg	-11.7587
▁lacked	-11.7589
▁Annie	-11.7589
▁Pitt	-11.7593
played	-11.7593
▁BR	-11.7606
▁matched	-11.7606
▁influencers	-11.7606
▁Sum	-11.7607
▁Zach	-11.7607
PM	-11.761
▁Reading	-11.7611
▁publish	-11.7612
own	-11.7613
▁resumed	-11.7615
WA	-11.7616
▁Lyn	-11.7617
▁birdie	-11.7628
raj	-11.7631
▁poured	-11.7632
▁Omar	-11.7634
▁counterpart	-11.7635
▁divorced	-11.7635
▁3%	-11.7636
cord	-11.7636
▁ethical	-11.7638
▁allegation	-11.7638
▁hinted	-11.764
▁reproducti	-11.764
▁Poly	-11.7649
▁magical	-11.765
▁informal	-11.7652
▁lips	-11.7657
▁Ry	-11.7658
ICE	-11.7662
▁alarming	-11.7663
▁84	-11.767
listed	-11.7676
▁faithful	-11.7678
▁firefighters	-11.7686
▁competed	-11.7687
lian	-11.7687
▁organizers	-11.7697
iah	-11.7699
▁overtime	-11.7702
▁restrain	-11.7707
pound	-11.7709
mount	-11.7712
▁reviewing	-11.7714
Black	-11.7719
▁Found	-11.7724
▁lesser	-11.7725
▁ke	-11.7725
▁Studios	-11.7726
master	-11.7726
cock	-11.7729
▁Holy	-11.7729
▁sheets	-11.7729
▁colon	-11.7735
▁dictator	-11.7738
▁Assistant	-11.7738
▁Empire	-11.7738
▁Enforcement	-11.7738
▁Holocaust	-11.7738
▁YORK	-11.7738
▁cigarette	-11.7738
▁disabilities	-11.7738
▁inevitably	-11.7738
▁jewellery	-11.7738
▁jungle	-11.7738
▁philosophy	-11.7738
▁unwavering	-11.7738
▁vinegar	-11.7738
▁clarify	-11.7739
▁Animal	-11.7739
▁contempt	-11.7739
▁Bishop	-11.7739
ignoring	-11.7739
▁Warrior	-11.7739
▁distant	-11.7739
▁Address	-11.7739
▁Gunners	-11.7739
▁empathy	-11.7739
▁Nashville	-11.7739
▁blur	-11.7739
▁vicious	-11.7739
▁Bernard	-11.7739
▁Vincent	-11.774
▁Globe	-11.774
▁Kirby	-11.774
▁Iceland	-11.774
▁spacecraft	-11.774
▁proactive	-11.7741
▁RAM	-11.7741
▁Body	-11.7742
▁Tamil	-11.7742
▁preview	-11.7742
▁canvas	-11.7743
▁sunny	-11.7743
▁Root	-11.7744
▁cartel	-11.7744
▁Mission	-11.7745
▁Environmental	-11.7745
▁SC	-11.7747
bone	-11.7748
▁Nobody	-11.7755
▁offseason	-11.7756
lift	-11.7759
▁basement	-11.7759
▁toys	-11.776
▁coral	-11.7762
capped	-11.7763
▁*	-11.7764
▁productive	-11.7768
served	-11.7769
▁£30	-11.7769
ppe	-11.7772
▁surveyed	-11.7776
▁Bio	-11.778
Hav	-11.7782
▁Eat	-11.7787
▁Lind	-11.7793
lina	-11.7794
2,000	-11.7795
▁shap	-11.7795
volt	-11.7796
▁nationally	-11.7803
▁Roth	-11.7807
▁Sex	-11.7807
boat	-11.7808
▁reaches	-11.7814
▁charming	-11.7817
▁retained	-11.7821
▁flown	-11.7826
talk	-11.783
▁unite	-11.783
▁blown	-11.7833
▁29-	-11.7834
▁detectives	-11.7835
▁insecurity	-11.7835
Who	-11.784
▁Sena	-11.784
▁secretly	-11.7846
▁mall	-11.7847
▁independently	-11.7857
▁Roma	-11.7858
▁commissioned	-11.7862
▁87	-11.7862
tax	-11.7869
LM	-11.7871
▁pasta	-11.7875
▁gifted	-11.7876
▁fade	-11.7878
▁$150	-11.7885
▁fracture	-11.7888
conscious	-11.7889
trust	-11.7893
course	-11.7893
Obviously	-11.7893
Reuters	-11.7893
General	-11.7893
required	-11.7894
serious	-11.7896
▁Fear	-11.7897
shift	-11.7898
▁monarch	-11.7902
omo	-11.7902
▁Mind	-11.7903
▁Baba	-11.7906
▁oust	-11.7908
AG	-11.7912
▁Brun	-11.7912
▁Rest	-11.7912
▁sovereign	-11.7913
▁Serge	-11.7913
չ	-11.7914
▁Caitlin	-11.7914
▁Initiative	-11.7914
▁Professional	-11.7914
▁Rafael	-11.7914
▁Scheffler	-11.7914
▁Veteran	-11.7914
▁divisive	-11.7914
▁glamorous	-11.7914
▁imagination	-11.7914
▁laundry	-11.7914
▁manslaughter	-11.7914
▁retiring	-11.7914
▁wrestling	-11.7914
▁Assange	-11.7914
▁Junior	-11.7914
▁Mangione	-11.7914
▁Postecoglou	-11.7914
▁Shakespeare	-11.7914
▁despair	-11.7914
▁unchanged	-11.7914
▁unpopular	-11.7914
▁utiliz	-11.7914
▁Haaland	-11.7914
▁prolonged	-11.7914
▁Historic	-11.7914
▁bitcoin	-11.7914
▁coroner	-11.7914
▁Curtis	-11.7914
▁monetary	-11.7914
▁therapist	-11.7914
▁Algeria	-11.7914
▁Milei	-11.7915
▁rehabilitation	-11.7915
▁Chamber	-11.7915
▁spoon	-11.7915
▁adverse	-11.7915
▁Abuja	-11.7916
▁flagship	-11.7916
▁Voters	-11.7916
▁1984	-11.7917
▁Panama	-11.7917
▁Neville	-11.7917
▁Kenny	-11.7917
▁Bab	-11.7918
▁Cannes	-11.7918
▁2027	-11.7921
allow	-11.7921
▁gem	-11.7921
▁Danish	-11.7923
▁CDC	-11.7924
▁diner	-11.7924
▁fitting	-11.7927
▁villain	-11.7928
▁Across	-11.7929
▁Slot	-11.793
amine	-11.7934
▁heroes	-11.7934
▁Jail	-11.7937
▁prevention	-11.7939
▁Mikel	-11.7942
▁exhausted	-11.7945
▁ousted	-11.7946
▁Dani	-11.7948
▁edited	-11.7949
▁Cold	-11.7953
▁asserted	-11.7953
▁91	-11.7954
▁midst	-11.7958
anga	-11.7961
▁prohibited	-11.7961
fused	-11.7965
izz	-11.7967
▁TH	-11.797
▁Mall	-11.7972
wich	-11.7976
chen	-11.7977
ENT	-11.7978
▁Asda	-11.7979
▁09	-11.798
▁Cli	-11.7986
▁pursued	-11.7987
hander	-11.7991
▁assessed	-11.7995
▁detective	-11.7996
▁sang	-11.7997
willingness	-11.7997
▁Lam	-11.8001
▁insist	-11.8001
▁MC	-11.8005
▁quicker	-11.8005
Fri	-11.8006
▁firearms	-11.8007
▁separately	-11.8013
▁stretched	-11.8017
▁Ravi	-11.8018
▁Intel	-11.8019
digit	-11.8024
▁collaborate	-11.8027
▁SP	-11.8027
-18	-11.8027
▁wellness	-11.8031
▁darts	-11.8033
▁Cer	-11.8034
▁thoughtful	-11.8041
SD	-11.8041
▁Wool	-11.8046
▁Sure	-11.8053
▁gloves	-11.8053
▁strangers	-11.8056
▁Belle	-11.8057
▁loom	-11.8061
▁commonly	-11.8065
UK	-11.8069
▁Pash	-11.807
▁extending	-11.807
dollar	-11.8072
Where	-11.8072
support	-11.8072
grown	-11.8072
themed	-11.8073
▁jumper	-11.8083
▁Environment	-11.8085
firm	-11.8088
▁Nichol	-11.8091
▁helm	-11.8091
witch	-11.8092
▁Ticket	-11.8092
▁Mirror	-11.8092
▁Twenty	-11.8092
ջ	-11.8093
▁Access	-11.8093
▁Donetsk	-11.8093
▁Gujarat	-11.8093
▁Heathrow	-11.8093
▁Lottery	-11.8093
▁Montgomery	-11.8093
▁Morocco	-11.8093
▁Muhammad	-11.8093
▁Pixel	-11.8093
▁Zimbabwe	-11.8093
▁antisemitic	-11.8093
▁applaud	-11.8093
▁bombshell	-11.8093
▁complement	-11.8093
▁earliest	-11.8093
▁intimidate	-11.8093
▁magnitude	-11.8093
▁populist	-11.8093
▁wardrobe	-11.8093
▁widow	-11.8093
▁NGO	-11.8093
▁contradict	-11.8093
▁entities	-11.8093
▁captive	-11.8093
▁Guinea	-11.8093
▁ODI	-11.8093
▁candidacy	-11.8093
▁Athens	-11.8093
▁genius	-11.8093
▁Investigators	-11.8093
▁opposing	-11.8093
▁Melissa	-11.8093
▁Maduro	-11.8093
▁kidnapped	-11.8093
▁scholarship	-11.8093
▁candid	-11.8093
▁Internet	-11.8093
▁decorated	-11.8093
▁gunshot	-11.8094
▁Triple	-11.8094
▁coordination	-11.8094
▁Help	-11.8094
▁organisers	-11.8094
▁Foster	-11.8095
▁verge	-11.8096
▁€2	-11.8096
▁oath	-11.8096
▁Leigh	-11.8096
▁embarrassing	-11.8097
▁737	-11.8099
▁corporations	-11.81
▁voluntary	-11.8101
neck	-11.8102
▁fringe	-11.8102
lene	-11.8103
▁copper	-11.8104
▁Beau	-11.8105
▁եւ	-11.8106
▁Mix	-11.8109
abh	-11.8109
▁exile	-11.8112
▁intercepted	-11.8112
▁EPA	-11.8113
journ	-11.8114
▁consumed	-11.8114
FT	-11.8117
▁dug	-11.8117
▁excluded	-11.8121
▁stemm	-11.8123
▁rewards	-11.8125
▁Stormy	-11.8126
▁Cash	-11.8126
▁prone	-11.8128
cott	-11.8131
▁Kerr	-11.8134
▁6,000	-11.8137
▁Shane	-11.814
▁obligations	-11.8141
▁technically	-11.8147
▁permanently	-11.8147
▁ruined	-11.8149
▁landlords	-11.8151
▁photographed	-11.8154
▁Chen	-11.8154
▁sellers	-11.8158
third	-11.8159
heim	-11.816
wyn	-11.816
▁Tigers	-11.8161
▁conspir	-11.8161
▁Canal	-11.8167
},{"	-11.8171
▁cooperate	-11.8173
▁enthusiasts	-11.8173
▁2.3	-11.8178
▁dial	-11.8181
▁Rico	-11.8183
▁firearm	-11.8183
▁Bag	-11.8186
▁lawmaker	-11.8188
▁debuted	-11.8189
▁Grow	-11.8196
ask	-11.8198
▁elde	-11.8211
▁resemble	-11.8221
▁inmates	-11.8222
▁symbolic	-11.8222
▁internationally	-11.8223
▁Blo	-11.8224
logging	-11.8226
nath	-11.8233
▁impress	-11.8237
▁exhaust	-11.824
▁surpass	-11.8242
▁pitching	-11.8245
▁suppose	-11.8249
▁transported	-11.825
▁hyp	-11.8253
Sullivan	-11.8253
Pacific	-11.8253
mobile	-11.8254
effective	-11.8254
▁escalate	-11.8255
clear	-11.8255
secondary	-11.8255
group	-11.8257
▁Tata	-11.8259
▁grounded	-11.826
living	-11.8261
▁SM	-11.8261
▁inquest	-11.8269
▁Janet	-11.8269
▁Lancashire	-11.8274
▁premature	-11.8274
©	-11.8274
à	-11.8274
▁Cornwall	-11.8274
▁INDIA	-11.8274
▁McGregor	-11.8274
▁bikini	-11.8274
▁cosmetic	-11.8274
▁curriculum	-11.8274
▁embarrassed	-11.8274
▁excellence	-11.8274
▁inflammation	-11.8274
▁mitigate	-11.8274
▁valuation	-11.8274
▁Stacey	-11.8274
Ե	-11.8274
▁Alzheimer	-11.8274
▁assignment	-11.8274
▁superior	-11.8274
▁HIV	-11.8274
▁animated	-11.8274
▁grasp	-11.8274
▁Consider	-11.8274
▁psychologist	-11.8274
▁motorcycle	-11.8274
▁outreach	-11.8274
▁deflect	-11.8275
▁kidnapping	-11.8275
▁Exchange	-11.8275
▁deepfake	-11.8275
Especially	-11.8275
▁Stanford	-11.8275
▁stroll	-11.8275
▁silly	-11.8276
▁Nepal	-11.8276
▁issuing	-11.8276
▁Springfield	-11.8276
▁observers	-11.8276
▁Carlson	-11.8277
▁sour	-11.8277
▁jazz	-11.8277
▁Snap	-11.8278
▁unsafe	-11.8279
▁70%	-11.8279
▁prescribed	-11.828
▁switching	-11.8281
/2024/	-11.8281
▁distraction	-11.8282
▁sprawling	-11.8283
▁Kemi	-11.8284
▁grandson	-11.8286
▁cough	-11.8287
▁Freeman	-11.8287
:45	-11.8288
▁orchestrat	-11.8291
▁uplift	-11.8291
▁wallet	-11.8292
▁plunged	-11.8292
▁authorized	-11.8293
▁stranded	-11.8293
▁semifinal	-11.8294
fix	-11.8295
▁assaulting	-11.8296
▁Regional	-11.8297
▁overlooked	-11.8297
▁AFL	-11.8298
▁pants	-11.8298
▁halfway	-11.8301
▁bass	-11.8302
▁partial	-11.8302
▁Month	-11.8302
▁horn	-11.831
Dur	-11.8311
▁bake	-11.8311
▁accomplished	-11.8314
Love	-11.8314
▁Rey	-11.8316
▁dresses	-11.8319
▁esta	-11.832
▁Ace	-11.8322
▁insufficient	-11.8323
▁Ethiopian	-11.8324
ranging	-11.8332
▁searches	-11.8334
▁98	-11.8337
▁Lower	-11.8338
▁slap	-11.8341
▁rip	-11.8342
%)	-11.8347
▁slower	-11.8347
SL	-11.8347
▁adjusted	-11.8348
▁Half	-11.8348
TH	-11.8349
▁Due	-11.8352
▁3-1	-11.8353
riz	-11.8357
▁Featur	-11.8361
▁popp	-11.8363
▁reversed	-11.8364
▁Sox	-11.8365
▁predictions	-11.8367
▁taxpayer	-11.8368
▁89	-11.837
▁institutional	-11.837
▁southwest	-11.8371
▁Prosecutor	-11.8373
▁Dig	-11.8373
▁prediction	-11.8375
▁spoil	-11.8377
▁rebound	-11.8378
▁explored	-11.8388
▁gag	-11.8397
race	-11.8414
won	-11.8414
▁rave	-11.8418
▁drafted	-11.8424
treat	-11.843
change	-11.8434
▁directing	-11.8439
pictured	-11.8439
Since	-11.8439
could	-11.8439
▁refuge	-11.8441
▁systemic	-11.8443
▁gel	-11.8443
▁deliberate	-11.8444
▁felon	-11.8448
▁Noel	-11.845
record	-11.8454
cross	-11.8459
▁hydro	-11.8459
▁Alejandro	-11.846
▁Culture	-11.846
▁Hopkins	-11.846
▁Hungarian	-11.846
▁Hyderabad	-11.846
▁Industry	-11.846
▁Murdoch	-11.846
▁Natalie	-11.846
▁Nevertheless	-11.846
▁OnePlus	-11.846
▁Pochettino	-11.846
▁Raducanu	-11.846
▁Senegal	-11.846
▁Vatican	-11.846
▁catastrophe	-11.846
▁disregard	-11.846
▁ensemble	-11.846
▁incursion	-11.846
▁physician	-11.846
▁possibilities	-11.846
▁prosperity	-11.846
▁purported	-11.846
▁robbery	-11.846
▁satisfaction	-11.846
▁steadily	-11.846
▁stubborn	-11.846
▁sunshine	-11.846
▁terrific	-11.846
▁terrified	-11.846
▁volatile	-11.846
▁Arvind	-11.846
▁arbitra	-11.846
▁chanting	-11.846
▁Relations	-11.846
▁spouse	-11.846
▁ladies	-11.846
▁Besides	-11.846
▁tissue	-11.846
▁courtesy	-11.846
▁inequality	-11.846
▁Eurovision	-11.846
▁Meloni	-11.846
▁Jammu	-11.846
▁elbow	-11.846
▁Higgins	-11.846
▁footprint	-11.846
▁lining	-11.8461
▁Derby	-11.8461
▁apologize	-11.8461
▁Tucker	-11.8461
▁Chuck	-11.8461
▁Christine	-11.8462
▁manual	-11.8462
▁poetry	-11.8462
▁Cannon	-11.8462
▁retaliation	-11.8462
cnn	-11.8462
▁archive	-11.8463
fuel	-11.8465
▁Kylie	-11.8465
▁1975	-11.8466
▁chatting	-11.8466
▁socks	-11.8467
▁minus	-11.8467
▁Hardik	-11.847
▁Brock	-11.847
▁inspector	-11.847
▁34-	-11.847
▁ERA	-11.8473
lux	-11.8473
▁complexity	-11.8473
▁accidentally	-11.8473
zzi	-11.8475
dell	-11.8476
▁homemade	-11.8477
▁belonging	-11.8478
▁Whatever	-11.8479
▁protesting	-11.848
▁mentality	-11.8481
▁ensu	-11.8482
▁instructed	-11.8483
does	-11.8483
▁Connor	-11.8484
▁AFC	-11.8486
contributors	-11.8487
▁batch	-11.8487
365	-11.8488
▁departed	-11.8489
▁Cel	-11.8492
▁Gates	-11.8493
▁bagg	-11.8498
▁educated	-11.8499
▁rocked	-11.8501
▁allied	-11.8501
▁portal	-11.8503
▁30,000	-11.8503
▁Driver	-11.8505
9,000	-11.8507
▁Past	-11.8509
▁Bihar	-11.8515
▁Apart	-11.8516
▁advocat	-11.8516
rice	-11.8517
▁pod	-11.8517
▁Eagle	-11.8517
hall	-11.8523
ación	-11.8525
▁complaining	-11.8529
▁donation	-11.853
▁sailing	-11.8532
▁ko	-11.8534
▁advert	-11.8538
▁Rao	-11.8543
▁Stu	-11.8549
▁Jesse	-11.8552
hak	-11.8553
grove	-11.8554
▁transaction	-11.8561
▁sober	-11.857
▁astronauts	-11.8575
naval	-11.8575
▁cracked	-11.8576
pie	-11.8578
▁Cardinals	-11.858
▁Ble	-11.8581
ivo	-11.8582
▁determin	-11.8583
▁cheering	-11.8589
▁challenger	-11.859
▁lone	-11.8591
▁cloth	-11.8606
▁Pul	-11.8609
▁max	-11.8611
▁Shin	-11.8617
▁contributor	-11.862
▁stretching	-11.8622
▁enact	-11.8622
trip	-11.8622
expected	-11.8624
writing	-11.8627
would	-11.8627
▁Fri	-11.8632
absolutely	-11.8633
▁Katy	-11.8634
driven	-11.8638
▁undo	-11.8643
▁tactic	-11.8643
super	-11.8645
RIS	-11.8646
▁Tip	-11.8648
iStock	-11.8648
▁Analyst	-11.8648
▁Giuliani	-11.8648
▁Mbappe	-11.8648
▁McLaren	-11.8648
▁Myanmar	-11.8648
▁astonishing	-11.8648
▁ideological	-11.8648
▁infectious	-11.8648
▁moisture	-11.8648
▁stigma	-11.8648
▁trophies	-11.8648
▁Fernandes	-11.8648
▁Inflation	-11.8648
▁Insurance	-11.8648
▁Samantha	-11.8648
▁coronavirus	-11.8648
▁innocence	-11.8648
▁intensive	-11.8648
▁litigation	-11.8648
▁maiden	-11.8648
▁obsession	-11.8648
▁tumour	-11.8648
▁Indianapolis	-11.8648
▁grandparents	-11.8648
▁scout	-11.8648
▁contemplat	-11.8648
▁fibre	-11.8648
twitter	-11.8648
▁warrior	-11.8648
▁essence	-11.8648
▁mould	-11.8648
▁idol	-11.8648
▁Editor	-11.8648
▁Launch	-11.8648
mAh	-11.8648
▁Wonder	-11.8648
▁plummet	-11.8648
▁shipments	-11.8649
▁tenants	-11.8649
▁Clinic	-11.8649
CalloutFormField	-11.8649
":{"	-11.8649
▁precision	-11.8649
▁Hasina	-11.8649
▁inviting	-11.865
▁stripped	-11.865
▁nuance	-11.865
▁thigh	-11.865
▁tapped	-11.865
▁Herbert	-11.8651
▁Salah	-11.8652
▁1976	-11.8652
▁neat	-11.8652
etti	-11.8652
▁Sad	-11.8653
500	-11.8654
▁Reese	-11.8654
▁supplied	-11.8656
▁longstanding	-11.8656
width	-11.8656
▁roar	-11.8657
▁Duty	-11.8661
▁reunited	-11.8661
▁DO	-11.8661
▁misleading	-11.8661
▁toughest	-11.8663
▁intentionally	-11.8665
▁tailored	-11.8666
▁Personal	-11.8667
TP	-11.8668
▁showdown	-11.8669
ttered	-11.8669
hee	-11.8671
▁mounted	-11.8672
▁25%	-11.8672
▁Cool	-11.8672
▁Dana	-11.8672
▁Moment	-11.8673
▁greeted	-11.8674
▁Elliott	-11.8675
duction	-11.8676
▁meantime	-11.8679
▁Gru	-11.8681
jah	-11.8684
ggling	-11.8688
anger	-11.8689
1,000	-11.8694
▁dumped	-11.8697
▁Berg	-11.87
▁Cara	-11.8702
▁poisoning	-11.8706
[...]
