<unk>	0
<s>	0
</s>	0
▁t	-0
▁a	-1
▁s	-2
▁i	-3
▁e	-4
he	-5
▁o	-6
▁the	-7
▁c	-8
re	-9
▁w	-10
▁in	-11
▁l	-12
▁,	-13
▁.	-14
▁n	-15
▁f	-16
▁p	-17
▁d	-18
▁m	-19
▁b	-20
er	-21
nd	-22
ha	-23
▁to	-24
in	-25
▁r	-26
on	-27
en	-28
or	-29
▁of	-30
▁and	-31
▁re	-32
▁g	-33
ou	-34
▁u	-35
ar	-36
hi	-37
▁ing	-38
▁"	-39
st	-40
▁'	-41
it	-42
an	-43
ed	-44
al	-45
▁T	-46
▁ha	-47
▁er	-48
▁ed	-49
▁y	-50
▁st	-51
es	-52
ll	-53
▁on	-54
ing	-55
ro	-56
▁-	-57
ve	-58
▁I	-59
▁ti	-60
▁S	-61
at	-62
le	-63
as	-64
▁he	-65
▁A	-66
ho	-67
hat	-68
▁for	-69
▁be	-70
ic	-71
id	-72
▁is	-73
ent	-74
▁it	-75
ay	-76
▁at	-77
▁M	-78
▁en	-79
▁C	-80
▁that	-81
▁an	-82
▁co	-83
me	-84
▁v	-85
ce	-86
ut	-87
ot	-88
▁B	-89
▁0	-90
se	-91
ch	-92
▁2	-93
ra	-94
ld	-95
his	-96
▁The	-97
ith	-98
▁de	-99
▁as	-100
▁we	-101
ri	-102
▁al	-103
▁with	-104
et	-105
ir	-106
▁P	-107
▁H	-108
▁or	-109
▁was	-110
▁tion	-111
▁1	-112
▁th	-113
ter	-114
▁li	-115
ur	-116
▁sa	-117
▁W	-118
mp	-119
▁te	-120
ver	-121
▁le	-122
ow	-123
ke	-124
ly	-125
▁ly	-126
▁se	-127
▁D	-128
▁ne	-129
▁R	-130
gh	-131
la	-132
▁ma	-133
▁ar	-134
li	-135
▁su	-136
▁ho	-137
ct	-138
▁N	-139
▁mo	-140
▁are	-141
▁di	-142
ck	-143
▁ab	-144
▁la	-145
▁L	-146
▁F	-147
si	-148
▁G	-149
ge	-150
il	-151
▁you	-152
th	-153
▁h	-154
▁said	-155
ad	-156
▁so	-157
rom	-158
▁ex	-159
ill	-160
▁have	-161
▁his	-162
▁ri	-163
▁has	-164
▁pro	-165
▁k	-166
▁E	-167
▁lo	-168
▁from	-169
▁j	-170
▁by	-171
▁un	-172
▁:	-173
▁J	-174
▁all	-175
am	-176
▁hi	-177
▁go	-178
▁me	-179
▁sp	-180
▁O	-181
ght	-182
▁ca	-183
▁ta	-184
ue	-185
▁es	-186
ear	-187
▁si	-188
▁not	-189
ould	-190
▁po	-191
▁U	-192
▁do	-193
ti	-194
us	-195
▁out	-196
ate	-197
▁whi	-198
▁con	-199
▁mi	-200
ul	-201
▁this	-202
io	-203
▁fi	-204
▁whe	-205
▁ra	-206
▁who	-207
▁ro	-208
lo	-209
▁ent	-210
▁K	-211
ess	-212
▁year	-213
▁wor	-214
el	-215
▁ion	-216
ust	-217
▁up	-218
▁her	-219
▁ers	-220
un	-221
▁they	-222
▁ad	-223
▁will	-224
▁3	-225
▁she	-226
▁fa	-227
▁4	-228
▁af	-229
▁their	-230
art	-231
▁ag	-232
ma	-233
ci	-234
▁but	-235
co	-236
▁us	-237
▁had	-238
so	-239
▁off	-240
ss	-241
ment	-242
▁ment	-243
▁nd	-244
▁5	-245
mb	-246
ry	-247
▁q	-248
▁(	-249
▁9	-250
ru	-251
▁pre	-252
▁been	-253
fe	-254
to	-255
▁pa	-256
out	-257
▁)	-258
ion	-259
lu	-260
▁op	-261
▁one	-262
▁pp	-263
▁ot	-264
ort	-265
▁fe	-266
▁gh	-267
▁can	-268
op	-269
de	-270
▁In	-271
ant	-272
▁no	-273
ia	-274
▁were	-275
▁cha	-276
▁It	-277
▁more	-278
▁fo	-279
▁over	-280
▁tw	-281
ok	-282
▁tt	-283
▁our	-284
▁man	-285
▁about	-286
▁ve	-287
od	-288
ep	-289
▁after	-290
▁ba	-291
▁nt	-292
▁dent	-293
our	-294
▁which	-295
▁vi	-296
▁per	-297
ard	-298
mm	-299
ity	-300
▁also	-301
ide	-302
▁ev	-303
one	-304
ong	-305
▁like	-306
ays	-307
▁eop	-308
ne	-309
pp	-310
▁eople	-311
▁tra	-312
▁rep	-313
▁time	-314
▁ur	-315
▁would	-316
▁est	-317
iv	-318
rou	-319
ound	-320
▁6	-321
▁sh	-322
▁qu	-323
▁work	-324
▁ef	-325
▁get	-326
▁some	-327
▁sho	-328
lic	-329
han	-330
▁ll	-331
▁du	-332
▁ver	-333
▁et	-334
▁sta	-335
gn	-336
▁rec	-337
▁Y	-338
▁He	-339
ine	-340
▁when	-341
▁7	-342
▁8	-343
her	-344
▁V	-345
ree	-346
ew	-347
▁its	-348
▁if	-349
▁sc	-350
all	-351
▁new	-352
▁wi	-353
ec	-354
▁bu	-355
▁dis	-356
▁und	-357
▁my	-358
use	-359
▁than	-360
▁fir	-361
▁ter	-362
▁just	-363
▁ng	-364
ore	-365
▁there	-366
ag	-367
▁mp	-368
▁thing	-369
▁imp	-370
ain	-371
▁ty	-372
▁am	-373
om	-374
▁ser	-375
▁ous	-376
oth	-377
▁ever	-378
▁ation	-379
▁tri	-380
▁into	-381
own	-382
▁ear	-383
▁nal	-384
▁ele	-385
▁back	-386
▁pla	-387
ol	-388
▁ck	-389
▁pl	-390
▁what	-391
▁him	-392
▁other	-393
▁ac	-394
▁str	-395
▁first	-396
▁ted	-397
▁kn	-398
▁ni	-399
▁able	-400
ans	-401
▁tor	-402
▁two	-403
▁ic	-404
▁tr	-405
▁ort	-406
atio	-407
po	-408
ek	-409
▁gra	-410
nt	-411
▁ow	-412
▁But	-413
mo	-414
▁eco	-415
▁ial	-416
ini	-417
▁them	-418
▁how	-419
▁end	-420
ink	-421
ach	-422
▁lli	-423
▁ga	-424
▁bo	-425
▁ord	-426
▁shi	-427
▁cc	-428
▁ou	-429
▁part	-430
▁We	-431
ast	-432
um	-433
▁tre	-434
▁ss	-435
vi	-436
▁again	-437
▁inc	-438
▁na	-439
▁el	-440
▁years	-441
▁last	-442
▁Tru	-443
▁?	-444
ng	-445
ath	-446
▁gre	-447
ase	-448
di	-449
▁pe	-450
▁exp	-451
▁res	-452
int	-453
▁nn	-454
▁could	-455
▁inter	-456
▁Trump	-457
▁day	-458
▁any	-459
▁fu	-460
▁your	-461
▁son	-462
▁chi	-463
▁state	-464
im	-465
▁spe	-466
▁now	-467
▁ster	-468
▁mon	-469
▁tive	-470
▁z	-471
▁ub	-472
▁real	-473
day	-474
▁comp	-475
▁where	-476
▁under	-477
ies	-478
ft	-479
▁ay	-480
pe	-481
▁And	-482
▁did	-483
ence	-484
▁ring	-485
▁efore	-486
ite	-487
is	-488
▁round	-489
▁week	-490
▁act	-491
te	-492
▁/	-493
ak	-494
▁unt	-495
▁bi	-496
urn	-497
▁This	-498
▁ity	-499
▁want	-500
ice	-501
▁ke	-502
▁set	-503
▁add	-504
tu	-505
▁way	-506
▁being	-507
▁nc	-508
lf	-509
▁gu	-510
▁app	-511
▁while	-512
mer	-513
▁mer	-514
ga	-515
▁side	-516
▁offic	-517
▁need	-518
▁id	-519
▁ff	-520
▁De	-521
▁look	-522
▁cause	-523
▁show	-524
▁high	-525
▁ry	-526
va	-527
▁down	-528
▁New	-529
▁only	-530
▁every	-531
▁right	-532
▁lead	-533
▁see	-534
ark	-535
▁turn	-536
▁Co	-537
▁long	-538
ta	-539
ive	-540
▁ld	-541
▁aw	-542
gi	-543
▁think	-544
▁ns	-545
ty	-546
ev	-547
▁even	-548
▁olic	-549
▁going	-550
▁hel	-551
▁fam	-552
ers	-553
▁elec	-554
▁well	-555
▁llion	-556
▁ding	-557
▁make	-558
▁emb	-559
mes	-560
▁cre	-561
▁then	-562
cu	-563
▁rt	-564
▁Mr	-565
ince	-566
▁clu	-567
▁gen	-568
▁old	-569
▁ill	-570
▁nment	-571
▁war	-572
▁red	-573
▁grou	-574
▁She	-575
▁most	-576
ves	-577
▁sent	-578
▁month	-579
▁gover	-580
▁natio	-581
rd	-582
▁throu	-583
na	-584
▁told	-585
▁il	-586
▁ate	-587
▁ist	-588
row	-589
▁tal	-590
▁start	-591
▁age	-592
uch	-593
▁ob	-594
▁home	-595
▁line	-596
▁made	-597
▁three	-598
ater	-599
▁know	-600
▁pport	-601
▁x	-602
mi	-603
▁hu	-604
ord	-605
ica	-606
▁med	-607
cal	-608
▁don	-609
▁own	-610
▁lay	-611
ca	-612
▁tu	-613
▁ship	-614
▁come	-615
▁Ch	-616
▁team	-617
▁ran	-618
▁help	-619
▁They	-620
▁tin	-621
▁famil	-622
▁ness	-623
▁comm	-624
▁stu	-625
▁$	-626
▁sday	-627
▁ence	-628
▁point	-629
▁han	-630
▁tho	-631
▁very	-632
▁mak	-633
▁life	-634
ouse	-635
▁tak	-636
▁poli	-637
pt	-638
▁sm	-639
▁read	-640
▁many	-641
▁run	-642
ef	-643
▁ci	-644
ass	-645
▁cho	-646
ff	-647
▁less	-648
▁ward	-649
▁£	-650
ris	-651
▁os	-652
▁You	-653
▁let	-654
▁sk	-655
▁des	-656
▁ght	-657
▁says	-658
▁thou	-659
▁ell	-660
▁those	-661
▁ru	-662
ua	-663
▁inclu	-664
em	-665
▁rs	-666
▁sra	-667
▁take	-668
▁bro	-669
▁sing	-670
era	-671
▁da	-672
aso	-673
▁que	-674
▁ct	-675
▁cle	-676
▁ey	-677
▁law	-678
▁ance	-679
tl	-680
▁pri	-681
▁led	-682
▁wom	-683
▁tions	-684
▁srael	-685
▁play	-686
▁ress	-687
een	-688
▁fin	-689
▁Pre	-690
▁hould	-691
▁cul	-692
ob	-693
▁ond	-694
▁sion	-695
▁No	-696
▁much	-697
▁ann	-698
▁nu	-699
ack	-700
▁ies	-701
▁serv	-702
▁mil	-703
▁ign	-704
▁iss	-705
▁good	-706
▁Jo	-707
▁ice	-708
▁Ma	-709
▁dd	-710
red	-711
▁view	-712
▁ia	-713
▁still	-714
▁ive	-715
xt	-716
▁these	-717
▁oll	-718
men	-719
▁wa	-720
▁world	-721
▁So	-722
▁since	-723
▁There	-724
▁sha	-725
▁For	-726
▁found	-727
▁ement	-728
meri	-729
▁Ameri	-730
▁ssi	-731
▁ublic	-732
▁untry	-733
▁ris	-734
▁land	-735
▁presi	-736
ren	-737
▁pu	-738
ten	-739
▁ccord	-740
▁head	-741
▁ary	-742
▁vide	-743
ick	-744
▁olice	-745
▁St	-746
▁four	-747
▁rit	-748
arge	-749
▁wo	-750
▁enc	-751
ower	-752
▁ful	-753
ts	-754
▁tween	-755
▁rat	-756
llo	-757
▁happ	-758
▁such	-759
▁econd	-760
▁follo	-761
▁feel	-762
▁sed	-763
ms	-764
▁ep	-765
▁fri	-766
▁That	-767
▁oun	-768
▁nor	-769
▁hand	-770
▁camp	-771
▁erson	-772
av	-773
any	-774
atch	-775
iden	-776
ual	-777
▁night	-778
▁memb	-779
sta	-780
ina	-781
▁Ind	-782
▁ul	-783
▁say	-784
per	-785
▁open	-786
▁arti	-787
▁cl	-788
▁ei	-789
▁does	-790
▁clo	-791
ote	-792
▁Biden	-793
ba	-794
▁lot	-795
ger	-796
▁game	-797
▁sign	-798
▁Mi	-799
▁order	-800
▁ussi	-801
▁added	-802
▁test	-803
▁alth	-804
▁ble	-805
▁US	-806
▁nti	-807
outh	-808
▁ussia	-809
▁ember	-810
▁air	-811
▁rm	-812
▁ge	-813
▁ud	-814
▁left	-815
rec	-816
▁Cha	-817
▁ai	-818
▁top	-819
ount	-820
▁car	-821
▁cro	-822
▁au	-823
▁ass	-824
▁here	-825
▁ce	-826
▁fr	-827
▁full	-828
▁gn	-829
▁group	-830
▁wr	-831
▁cri	-832
▁fil	-833
▁may	-834
▁oci	-835
▁rid	-836
anc	-837
▁got	-838
▁ttack	-839
▁seaso	-840
▁India	-841
▁ting	-842
▁nom	-843
▁both	-844
▁!	-845
▁dep	-846
▁win	-847
▁port	-848
▁ated	-849
▁best	-850
▁od	-851
▁ask	-852
▁dra	-853
▁anoth	-854
▁How	-855
▁ant	-856
▁place	-857
▁mb	-858
atu	-859
▁ties	-860
▁Whi	-861
sib	-862
▁rk	-863
▁ently	-864
▁;	-865
ustr	-866
▁each	-867
▁trans	-868
▁issue	-869
▁next	-870
▁tinue	-871
▁frien	-872
▁use	-873
▁tain	-874
▁ities	-875
▁ol	-876
▁Presi	-877
▁ug	-878
▁ir	-879
hy	-880
▁dat	-881
▁too	-882
▁quest	-883
▁thi	-884
▁clear	-885
▁direc	-886
▁far	-887
▁call	-888
▁cer	-889
▁mm	-890
▁force	-891
rai	-892
lea	-893
ance	-894
▁ak	-895
▁Con	-896
ven	-897
▁tell	-898
▁ppear	-899
▁redit	-900
▁chool	-901
▁clude	-902
▁same	-903
▁oppo	-904
▁event	-905
▁near	-906
▁alled	-907
▁dri	-908
▁sur	-909
wi	-910
ited	-911
▁lit	-912
▁ning	-913
▁nce	-914
▁ldren	-915
▁temp	-916
▁lw	-917
▁offer	-918
for	-919
▁As	-920
▁never	-921
▁Z	-922
▁deci	-923
▁ready	-924
▁emp	-925
moc	-926
▁form	-927
▁exper	-928
▁Ga	-929
▁art	-930
▁pi	-931
▁case	-932
ffe	-933
▁ren	-934
▁sec	-935
▁Pa	-936
▁omm	-937
▁rent	-938
▁media	-939
qu	-940
▁light	-941
▁lic	-942
▁ong	-943
iti	-944
ali	-945
▁keep	-946
▁great	-947
▁power	-948
▁kill	-949
▁days	-950
▁Uk	-951
▁inves	-952
sh	-953
▁ctor	-954
▁Ukrai	-955
▁respo	-956
▁away	-957
▁ine	-958
▁try	-959
▁diffe	-960
▁10	-961
ani	-962
▁ard	-963
▁gener	-964
▁acc	-965
ner	-966
▁face	-967
▁ocial	-968
ild	-969
▁ju	-970
▁Re	-971
▁ess	-972
▁Mo	-973
gan	-974
▁cour	-975
▁tment	-976
▁times	-977
▁mpany	-978
▁sul	-979
▁Mar	-980
▁vo	-981
We	-982
▁court	-983
▁house	-984
▁che	-985
▁put	-986
▁numb	-987
▁campa	-988
▁UK	-989
ict	-990
▁If	-991
▁free	-992
▁final	-993
fec	-994
hen	-995
▁leg	-996
▁self	-997
▁ience	-998
▁cla	-999
▁cross	-1000
▁women	-1001
gin	-1002
▁eli	-1003
▁party	-1004
vel	-1005
ub	-1006
▁ut	-1007
▁When	-1008
▁five	-1009
▁An	-1010
▁bod	-1011
ze	-1012
ect	-1013
▁plan	-1014
▁ern	-1015
▁oc	-1016
▁stra	-1017
▁Su	-1018
▁giv	-1019
▁gge	-1020
jor	-1021
▁char	-1022
▁ki	-1023
▁rela	-1024
▁ens	-1025
▁ccess	-1026
▁post	-1027
▁tting	-1028
▁ously	-1029
▁ste	-1030
▁body	-1031
ale	-1032
▁ggest	-1033
▁build	-1034
rol	-1035
▁gr	-1036
▁didn	-1037
▁seen	-1038
▁Rep	-1039
▁love	-1040
▁won	-1041
ugh	-1042
▁used	-1043
▁care	-1044
ac	-1045
▁ny	-1046
ames	-1047
▁chang	-1048
▁spect	-1049
lop	-1050
▁late	-1051
▁ago	-1052
▁lways	-1053
ap	-1054
▁Go	-1055
▁vis	-1056
▁took	-1057
▁manag	-1058
▁sen	-1059
ee	-1060
▁cent	-1061
▁stor	-1062
▁ie	-1063
▁fire	-1064
▁mini	-1065
▁tter	-1066
▁sub	-1067
▁later	-1068
▁cap	-1069
ush	-1070
▁water	-1071
▁tical	-1072
▁enter	-1073
▁young	-1074
▁Sc	-1075
▁ok	-1076
▁tory	-1077
▁foot	-1078
▁earch	-1079
▁cket	-1080
▁opera	-1081
▁eas	-1082
▁ust	-1083
▁cur	-1084
▁fic	-1085
▁llen	-1086
▁velop	-1087
ace	-1088
▁bre	-1089
▁ean	-1090
▁rse	-1091
▁ral	-1092
▁bas	-1093
▁sive	-1094
gu	-1095
▁One	-1096
▁gram	-1097
▁Af	-1098
▁charg	-1099
▁ap	-1100
▁blo	-1101
ash	-1102
▁amp	-1103
▁Ju	-1104
▁talk	-1105
▁[	-1106
▁hard	-1107
uc	-1108
▁went	-1109
▁etter	-1110
▁bit	-1111
▁star	-1112
▁ten	-1113
▁To	-1114
▁grow	-1115
ari	-1116
▁might	-1117
▁On	-1118
▁six	-1119
▁Wi	-1120
▁came	-1121
▁av	-1122
lack	-1123
▁men	-1124
▁cost	-1125
▁major	-1126
▁]	-1127
▁ional	-1128
▁claim	-1129
▁yst	-1130
▁curr	-1131
▁ide	-1132
▁give	-1133
▁nited	-1134
ita	-1135
▁net	-1136
▁relea	-1137
▁arri	-1138
▁met	-1139
▁ts	-1140
▁inf	-1141
za	-1142
hoto	-1143
▁hit	-1144
▁uth	-1145
▁wing	-1146
▁break	-1147
▁film	-1148
▁ball	-1149
▁ost	-1150
▁ystem	-1151
▁few	-1152
ous	-1153
▁sid	-1154
▁eg	-1155
ary	-1156
▁fie	-1157
▁ntial	-1158
▁South	-1159
▁large	-1160
▁mark	-1161
▁aying	-1162
▁mov	-1163
▁deal	-1164
▁ec	-1165
▁big	-1166
▁rai	-1167
▁cli	-1168
▁dro	-1169
oney	-1170
▁annou	-1171
▁low	-1172
▁hour	-1173
▁littl	-1174
▁meet	-1175
▁Un	-1176
▁Mc	-1177
▁milit	-1178
▁lac	-1179
▁allow	-1180
▁What	-1181
▁half	-1182
▁fra	-1183
▁Democ	-1184
eg	-1185
▁X	-1186
▁hav	-1187
▁sy	-1188
▁hold	-1189
▁level	-1190
▁val	-1191
▁mment	-1192
▁tic	-1193
▁pass	-1194
▁ecome	-1195
▁ssion	-1196
▁ley	-1197
ank	-1198
▁sever	-1199
▁rket	-1200
▁local	-1201
▁ind	-1202
▁actio	-1203
hn	-1204
▁gress	-1205
ara	-1206
▁uthor	-1207
▁fight	-1208
▁along	-1209
▁ture	-1210
▁Howev	-1211
▁spo	-1212
▁forma	-1213
bu	-1214
uni	-1215
▁oy	-1216
▁vol	-1217
▁West	-1218
▁ew	-1219
▁nut	-1220
▁money	-1221
▁Ra	-1222
▁yers	-1223
ton	-1224
▁urity	-1225
ork	-1226
ictu	-1227
▁room	-1228
▁ossib	-1229
▁job	-1230
▁tiga	-1231
▁city	-1232
▁video	-1233
itu	-1234
▁sider	-1235
▁early	-1236
▁York	-1237
▁ee	-1238
▁hange	-1239
▁momen	-1240
▁adv	-1241
▁known	-1242
ph	-1243
▁im	-1244
▁posi	-1245
▁Natio	-1246
mage	-1247
▁news	-1248
▁lle	-1249
▁live	-1250
▁death	-1251
▁lin	-1252
vea	-1253
▁lu	-1254
▁main	-1255
▁stitu	-1256
▁close	-1257
▁ight	-1258
▁deli	-1259
▁Q	-1260
▁field	-1261
ular	-1262
▁stop	-1263
▁date	-1264
▁ori	-1265
▁ject	-1266
▁ries	-1267
▁John	-1268
▁impor	-1269
▁dence	-1270
▁wro	-1271
▁hy	-1272
▁cess	-1273
▁vel	-1274
▁wrote	-1275
ont	-1276
▁find	-1277
▁ound	-1278
▁ook	-1279
▁stic	-1280
▁count	-1281
▁watch	-1282
▁cover	-1283
▁sto	-1284
▁revea	-1285
▁der	-1286
▁ham	-1287
▁flo	-1288
▁pr	-1289
▁inj	-1290
ble	-1291
▁Chi	-1292
▁activ	-1293
▁until	-1294
▁um	-1295
▁fini	-1296
▁bra	-1297
▁treat	-1298
▁fac	-1299
▁name	-1300
▁arris	-1301
▁wal	-1302
▁busi	-1303
▁third	-1304
▁nta	-1305
▁visit	-1306
▁News	-1307
▁crea	-1308
▁past	-1309
▁shed	-1310
▁reg	-1311
▁lican	-1312
▁omp	-1313
▁tech	-1314
▁Mini	-1315
be	-1316
ept	-1317
▁quir	-1318
fi	-1319
▁rre	-1320
▁cu	-1321
▁volv	-1322
▁Repub	-1323
▁em	-1324
▁After	-1325
▁dec	-1326
ist	-1327
▁hed	-1328
▁lleng	-1329
▁ritic	-1330
pi	-1331
▁At	-1332
▁eal	-1333
▁short	-1334
▁dy	-1335
▁Pro	-1336
▁Nor	-1337
▁groun	-1338
▁cy	-1339
▁pay	-1340
▁front	-1341
▁goal	-1342
▁nter	-1343
▁eries	-1344
▁ally	-1345
▁rn	-1346
▁Get	-1347
gy	-1348
▁Eu	-1349
▁role	-1350
▁ric	-1351
▁injur	-1352
▁%	-1353
▁cial	-1354
▁hum	-1355
▁arent	-1356
▁small	-1357
▁spite	-1358
▁tand	-1359
▁ch	-1360
▁eat	-1361
▁stru	-1362
▁olo	-1363
▁sure	-1364
▁vers	-1365
▁orted	-1366
▁unity	-1367
▁desi	-1368
▁ref	-1369
▁food	-1370
▁ian	-1371
▁min	-1372
▁resi	-1373
▁om	-1374
tion	-1375
▁geth	-1376
▁House	-1377
▁rd	-1378
▁due	-1379
▁tant	-1380
▁tribu	-1381
cia	-1382
▁previ	-1383
▁ded	-1384
▁ming	-1385
▁br	-1386
▁book	-1387
▁gett	-1388
▁expec	-1389
▁asked	-1390
enc	-1391
tio	-1392
igh	-1393
▁lla	-1394
▁sit	-1395
▁Eng	-1396
▁liv	-1397
▁mus	-1398
▁iz	-1399
▁layed	-1400
▁rease	-1401
▁why	-1402
▁eng	-1403
▁vio	-1404
▁hope	-1405
▁Scot	-1406
ald	-1407
▁Ro	-1408
mmi	-1409
▁race	-1410
▁Engla	-1411
▁dam	-1412
▁nced	-1413
▁comes	-1414
▁bor	-1415
▁taken	-1416
▁City	-1417
▁must	-1418
▁step	-1419
▁based	-1420
▁stand	-1421
▁Gaza	-1422
▁viol	-1423
▁ara	-1424
▁rou	-1425
▁omb	-1426
▁dre	-1427
▁doing	-1428
▁20	-1429
▁abi	-1430
▁Me	-1431
▁often	-1432
▁fli	-1433
▁Euro	-1434
▁ton	-1435
BC	-1436
▁sl	-1437
▁risk	-1438
▁anc	-1439
▁onald	-1440
▁list	-1441
▁least	-1442
▁duce	-1443
▁ph	-1444
utu	-1445
▁cal	-1446
▁ctu	-1447
▁done	-1448
▁While	-1449
▁With	-1450
ade	-1451
▁Th	-1452
▁orn	-1453
▁anti	-1454
▁futu	-1455
rea	-1456
▁among	-1457
▁mpion	-1458
▁fur	-1459
▁today	-1460
▁tax	-1461
▁eleb	-1462
▁unday	-1463
ful	-1464
▁ondon	-1465
▁int	-1466
▁ner	-1467
▁tail	-1468
▁human	-1469
▁given	-1470
▁fer	-1471
▁ions	-1472
▁riday	-1473
▁club	-1474
▁sult	-1475
▁Chris	-1476
▁onday	-1477
▁struc	-1478
▁umm	-1479
by	-1480
▁walk	-1481
▁wheth	-1482
▁fla	-1483
▁tch	-1484
▁rod	-1485
▁ple	-1486
▁ntrol	-1487
▁har	-1488
▁sco	-1489
▁perc	-1490
▁ials	-1491
ea	-1492
▁moth	-1493
▁elebr	-1494
▁wards	-1495
▁pecia	-1496
▁Tue	-1497
▁Al	-1498
▁driv	-1499
▁oup	-1500
▁games	-1501
▁rema	-1502
▁graph	-1503
oy	-1504
▁Is	-1505
▁duct	-1506
▁threa	-1507
▁ehi	-1508
▁North	-1509
pa	-1510
▁fans	-1511
▁ism	-1512
▁featu	-1513
▁Oct	-1514
▁fle	-1515
▁remai	-1516
▁His	-1517
▁Jan	-1518
▁sso	-1519
▁ened	-1520
▁speak	-1521
▁evi	-1522
▁share	-1523
ndi	-1524
▁rtner	-1525
▁ack	-1526
▁rul	-1527
▁enou	-1528
▁child	-1529
▁ven	-1530
▁woman	-1531
au	-1532
▁dustr	-1533
▁furth	-1534
▁nning	-1535
▁nf	-1536
▁effec	-1537
▁China	-1538
▁ect	-1539
▁mul	-1540
▁class	-1541
▁lmo	-1542
▁regio	-1543
lv	-1544
It	-1545
▁ngle	-1546
▁rence	-1547
▁eag	-1548
▁andi	-1549
▁Ms	-1550
▁kind	-1551
▁ds	-1552
▁Nov	-1553
▁tempt	-1554
▁heart	-1555
▁mod	-1556
▁ehind	-1557
▁ices	-1558
▁ned	-1559
▁raise	-1560
▁once	-1561
▁depen	-1562
▁signi	-1563
▁Br	-1564
▁All	-1565
▁Thur	-1566
▁move	-1567
▁spi	-1568
une	-1569
▁Bo	-1570
▁ling	-1571
▁disp	-1572
▁Ca	-1573
▁gi	-1574
▁area	-1575
▁match	-1576
▁ava	-1577
▁pote	-1578
▁ouple	-1579
▁lie	-1580
▁Wor	-1581
▁phone	-1582
▁Wed	-1583
ided	-1584
▁tro	-1585
▁stay	-1586
▁ummer	-1587
▁mind	-1588
▁serve	-1589
▁roduc	-1590
▁targe	-1591
▁glo	-1592
▁nner	-1593
▁rac	-1594
▁Getty	-1595
▁Wedne	-1596
sio	-1597
▁def	-1598
tai	-1599
▁nder	-1600
▁weeks	-1601
▁dm	-1602
▁doesn	-1603
▁ier	-1604
▁shot	-1605
▁term	-1606
▁Austr	-1607
▁rance	-1608
▁ngton	-1609
▁ount	-1610
▁tect	-1611
▁ick	-1612
▁fess	-1613
▁tract	-1614
▁World	-1615
▁fel	-1616
▁scen	-1617
▁areer	-1618
▁mis	-1619
▁hours	-1620
▁effor	-1621
▁lmost	-1622
▁space	-1623
▁iv	-1624
▁Ka	-1625
▁ency	-1626
▁runn	-1627
▁ctual	-1628
▁May	-1629
▁State	-1630
▁commi	-1631
▁yet	-1632
▁ast	-1633
▁music	-1634
▁story	-1635
▁lete	-1636
end	-1637
▁Man	-1638
▁Some	-1639
▁hared	-1640
qua	-1641
▁Di	-1642
▁hot	-1643
▁fund	-1644
▁rrest	-1645
▁using	-1646
▁wait	-1647
▁bring	-1648
▁ail	-1649
▁nge	-1650
▁ourse	-1651
▁Be	-1652
▁unc	-1653
▁board	-1654
▁mid	-1655
▁>	-1656
▁com	-1657
▁saw	-1658
▁aring	-1659
▁condi	-1660
▁stead	-1661
▁key	-1662
▁lly	-1663
▁idea	-1664
▁cular	-1665
▁Sat	-1666
▁Lo	-1667
▁hos	-1668
▁quali	-1669
▁inv	-1670
▁data	-1671
▁secu	-1672
▁eign	-1673
▁deliv	-1674
dy	-1675
▁layer	-1676
▁rp	-1677
▁reach	-1678
▁ahe	-1679
▁ugg	-1680
sed	-1681
▁bri	-1682
▁dding	-1683
▁meone	-1684
▁pect	-1685
▁finan	-1686
▁ping	-1687
▁hospi	-1688
ult	-1689
▁techn	-1690
▁trike	-1691
▁alleg	-1692
▁plain	-1693
▁repre	-1694
▁rsity	-1695
▁lear	-1696
▁dmini	-1697
▁nne	-1698
irm	-1699
uss	-1700
▁Satur	-1701
▁nfirm	-1702
▁Ge	-1703
▁ener	-1704
▁mess	-1705
▁Ha	-1706
▁Ni	-1707
▁deep	-1708
▁ause	-1709
▁stage	-1710
led	-1711
▁trict	-1712
▁rri	-1713
▁coll	-1714
▁olicy	-1715
▁ident	-1716
▁earli	-1717
▁inci	-1718
▁medic	-1719
▁nutes	-1720
▁<	-1721
▁tire	-1722
▁photo	-1723
▁jour	-1724
▁serva	-1725
▁impac	-1726
▁exc	-1727
▁tat	-1728
▁held	-1729
▁vote	-1730
▁La	-1731
▁ft	-1732
▁June	-1733
▁draw	-1734
▁*	-1735
▁spoke	-1736
▁kid	-1737
▁warn	-1738
▁Black	-1739
▁fully	-1740
▁journ	-1741
▁shop	-1742
▁cut	-1743
▁swi	-1744
▁spot	-1745
▁rison	-1746
▁desc	-1747
▁fact	-1748
▁suit	-1749
▁sty	-1750
▁ught	-1751
▁impro	-1752
▁legal	-1753
▁tted	-1754
▁price	-1755
▁Cu	-1756
▁nding	-1757
eti	-1758
▁AI	-1759
▁seven	-1760
ana	-1761
▁gir	-1762
▁eye	-1763
▁ourt	-1764
▁atch	-1765
▁TV	-1766
▁fy	-1767
▁ah	-1768
▁30	-1769
▁staff	-1770
▁tru	-1771
▁emer	-1772
▁Ap	-1773
▁girl	-1774
▁word	-1775
▁died	-1776
▁ahead	-1777
▁hing	-1778
▁oter	-1779
▁quick	-1780
▁ped	-1781
▁spend	-1782
▁isa	-1783
▁grant	-1784
▁Ger	-1785
▁ski	-1786
ps	-1787
▁felt	-1788
▁Do	-1789
▁tow	-1790
▁trip	-1791
▁oters	-1792
▁Ham	-1793
▁July	-1794
▁lost	-1795
▁rtuni	-1796
▁pain	-1797
▁nes	-1798
▁Octob	-1799
▁defen	-1800
▁oo	-1801
▁lea	-1802
▁ome	-1803
▁frica	-1804
▁ise	-1805
▁eague	-1806
▁energ	-1807
▁ustom	-1808
tim	-1809
▁enj	-1810
▁Briti	-1811
▁ari	-1812
▁wide	-1813
▁12	-1814
ecu	-1815
▁ical	-1816
▁road	-1817
▁oil	-1818
▁arli	-1819
▁cultu	-1820
▁eight	-1821
▁disc	-1822
▁ensu	-1823
▁model	-1824
▁uni	-1825
▁Gu	-1826
▁equ	-1827
▁Was	-1828
▁fall	-1829
▁nic	-1830
ns	-1831
▁esta	-1832
▁uncil	-1833
▁Sept	-1834
▁emerg	-1835
▁ssoci	-1836
cti	-1837
▁March	-1838
▁sw	-1839
▁learn	-1840
ril	-1841
▁lov	-1842
▁mand	-1843
▁15	-1844
▁Germa	-1845
▁means	-1846
▁ake	-1847
▁ike	-1848
▁nv	-1849
▁entra	-1850
▁dead	-1851
▁lieve	-1852
▁ility	-1853
▁mount	-1854
▁Vi	-1855
▁oach	-1856
▁wife	-1857
▁door	-1858
▁Pal	-1859
▁enn	-1860
▁sand	-1861
▁stice	-1862
▁fath	-1863
▁Janua	-1864
▁priva	-1865
▁oint	-1866
▁mar	-1867
▁avail	-1868
▁ones	-1869
▁rning	-1870
▁tot	-1871
▁worth	-1872
ie	-1873
▁multi	-1874
▁trial	-1875
▁April	-1876
org	-1877
▁Joe	-1878
▁host	-1879
▁ump	-1880
▁ont	-1881
efi	-1882
▁enefi	-1883
ims	-1884
▁mate	-1885
▁sonal	-1886
▁eca	-1887
▁tors	-1888
▁Georg	-1889
▁Gre	-1890
▁eiv	-1891
▁fied	-1892
▁rain	-1893
▁ross	-1894
▁ource	-1895
▁ales	-1896
▁sea	-1897
▁Dr	-1898
▁fed	-1899
▁entre	-1900
▁diff	-1901
▁daugh	-1902
▁total	-1903
▁shows	-1904
▁figu	-1905
▁town	-1906
▁began	-1907
▁treet	-1908
▁abour	-1909
▁esp	-1910
▁ext	-1911
▁odi	-1912
▁bad	-1913
▁lco	-1914
▁King	-1915
▁edu	-1916
▁ease	-1917
▁Pales	-1918
▁jud	-1919
▁wasn	-1920
▁arriv	-1921
▁hip	-1922
▁ports	-1923
▁ttend	-1924
▁&	-1925
get	-1926
▁Europ	-1927
▁Fe	-1928
▁nse	-1929
▁arter	-1930
▁ecame	-1931
▁ls	-1932
▁push	-1933
▁nnect	-1934
▁These	-1935
▁mina	-1936
▁wood	-1937
▁non	-1938
▁rim	-1939
▁bed	-1940
▁Unive	-1941
▁dr	-1942
▁pur	-1943
▁ache	-1944
▁dents	-1945
▁eni	-1946
▁cor	-1947
▁safe	-1948
▁lives	-1949
▁natu	-1950
▁organ	-1951
ure	-1952
▁tori	-1953
▁chief	-1954
▁..	-1955
▁messa	-1956
▁vest	-1957
▁yment	-1958
▁audi	-1959
▁cru	-1960
▁nian	-1961
▁...	-1962
▁ye	-1963
lat	-1964
▁super	-1965
▁nec	-1966
▁explo	-1967
▁Dep	-1968
▁bar	-1969
▁ret	-1970
▁pand	-1971
▁footb	-1972
▁ially	-1973
▁begin	-1974
▁jo	-1975
▁Off	-1976
▁eliev	-1977
▁makes	-1978
▁Hu	-1979
▁execu	-1980
▁mic	-1981
▁leav	-1982
▁track	-1983
▁aut	-1984
▁elf	-1985
▁owner	-1986
▁ratic	-1987
▁lk	-1988
▁hou	-1989
▁eived	-1990
▁lim	-1991
▁Sha	-1992
▁ali	-1993
▁kno	-1994
▁ample	-1995
▁ision	-1996
▁vari	-1997
▁park	-1998
▁Scotl	-1999
▁milar	-2000
▁Dec	-2001
▁Now	-2002
▁cade	-2003
▁mean	-2004
▁dru	-2005
▁lica	-2006
▁south	-2007
▁mpeti	-2008
▁ressu	-2009
▁scene	-2010
▁addre	-2011
▁roach	-2012
▁Ever	-2013
▁cult	-2014
▁plans	-2015
▁globa	-2016
▁needs	-2017
▁qui	-2018
▁heat	-2019
▁Washi	-2020
▁cas	-2021
▁writ	-2022
▁ised	-2023
▁scuss	-2024
▁situa	-2025
▁ash	-2026
▁rate	-2027
▁rise	-2028
▁ffer	-2029
▁diffi	-2030
▁nomic	-2031
▁Da	-2032
▁ors	-2033
▁ition	-2034
▁ccuse	-2035
▁ons	-2036
ert	-2037
▁Si	-2038
▁neg	-2039
▁Image	-2040
▁verag	-2041
▁versa	-2042
ety	-2043
▁ncer	-2044
▁apita	-2045
lymp	-2046
▁Olymp	-2047
▁gun	-2048
▁edly	-2049
▁espec	-2050
ai	-2051
▁ffic	-2052
▁Gen	-2053
▁nch	-2054
▁afety	-2055
▁link	-2056
▁tent	-2057
▁atter	-2058
▁cast	-2059
▁press	-2060
▁ily	-2061
▁lock	-2062
▁feder	-2063
▁tely	-2064
▁seri	-2065
▁check	-2066
act	-2067
▁50	-2068
▁soon	-2069
▁ingly	-2070
▁iti	-2071
▁erio	-2072
▁ounty	-2073
▁lid	-2074
▁rest	-2075
▁agenc	-2076
▁store	-2077
▁White	-2078
▁era	-2079
▁tten	-2080
▁Her	-2081
▁cra	-2082
▁Hamas	-2083
▁brand	-2084
▁leave	-2085
▁mains	-2086
▁cing	-2087
▁enjoy	-2088
▁van	-2089
▁racti	-2090
▁disa	-2091
▁rupt	-2092
▁eriod	-2093
▁else	-2094
▁sle	-2095
let	-2096
▁Du	-2097
▁pictu	-2098
▁tates	-2099
▁box	-2100
▁huge	-2101
▁rc	-2102
▁ctim	-2103
▁Net	-2104
▁kne	-2105
▁ars	-2106
▁fore	-2107
▁Ho	-2108
alif	-2109
▁Tim	-2110
▁inten	-2111
▁pular	-2112
▁ssing	-2113
▁white	-2114
▁sell	-2115
▁Calif	-2116
▁anies	-2117
▁neede	-2118
▁Insta	-2119
▁fast	-2120
▁eb	-2121
▁dit	-2122
▁rib	-2123
▁Star	-2124
▁creat	-2125
▁optio	-2126
▁nent	-2127
▁agree	-2128
▁dev	-2129
▁lain	-2130
▁fine	-2131
▁nyone	-2132
▁ugust	-2133
▁diate	-2134
▁speci	-2135
▁ez	-2136
▁eith	-2137
▁imme	-2138
▁maker	-2139
▁Ba	-2140
▁nam	-2141
▁heav	-2142
▁iled	-2143
▁Inter	-2144
vie	-2145
▁rti	-2146
▁site	-2147
▁ood	-2148
▁My	-2149
▁oth	-2150
▁cter	-2151
▁ating	-2152
ney	-2153
▁civ	-2154
▁Offic	-2155
▁lth	-2156
▁crime	-2157
form	-2158
▁buy	-2159
▁ert	-2160
▁rrow	-2161
▁quite	-2162
▁minal	-2163
▁rr	-2164
▁cou	-2165
▁Ti	-2166
▁dates	-2167
▁fre	-2168
▁sli	-2169
▁gain	-2170
▁pack	-2171
▁cot	-2172
▁11	-2173
▁ere	-2174
▁nomy	-2175
▁whole	-2176
▁meas	-2177
▁reaso	-2178
gni	-2179
▁ways	-2180
▁chara	-2181
▁north	-2182
▁repar	-2183
▁ead	-2184
▁East	-2185
▁ban	-2186
▁nsib	-2187
▁oast	-2188
▁shoot	-2189
▁block	-2190
▁ani	-2191
▁ory	-2192
▁drug	-2193
▁ath	-2194
▁damag	-2195
▁tress	-2196
▁lue	-2197
▁rank	-2198
▁ncern	-2199
▁nsi	-2200
▁gold	-2201
▁Pictu	-2202
▁ommon	-2203
▁mat	-2204
▁tform	-2205
▁cce	-2206
▁mur	-2207
▁firm	-2208
▁rath	-2209
▁Te	-2210
▁Air	-2211
▁fen	-2212
▁arm	-2213
▁encou	-2214
▁lthou	-2215
▁oss	-2216
▁gani	-2217
▁ccept	-2218
▁ony	-2219
▁ray	-2220
▁oin	-2221
▁type	-2222
▁ganiz	-2223
▁ornia	-2224
▁affec	-2225
▁Swi	-2226
▁Feb	-2227
▁ov	-2228
▁cipa	-2229
▁ould	-2230
▁oppos	-2231
▁stant	-2232
▁value	-2233
▁loss	-2234
▁ado	-2235
▁uro	-2236
▁measu	-2237
▁eer	-2238
▁seek	-2239
▁ubli	-2240
▁howed	-2241
▁laims	-2242
▁ull	-2243
▁rown	-2244
▁ety	-2245
▁civil	-2246
▁BBC	-2247
▁den	-2248
▁hood	-2249
▁sba	-2250
▁ger	-2251
▁idual	-2252
▁bat	-2253
▁Depar	-2254
▁anal	-2255
▁fence	-2256
▁tinia	-2257
▁usual	-2258
▁ig	-2259
ang	-2260
▁harm	-2261
▁dou	-2262
▁abili	-2263
ka	-2264
▁len	-2265
▁rself	-2266
▁Day	-2267
▁Sta	-2268
▁ire	-2269
▁range	-2270
▁env	-2271
▁ative	-2272
▁gri	-2273
▁ins	-2274
▁Har	-2275
▁suc	-2276
▁lliam	-2277
▁sband	-2278
▁isn	-2279
▁ics	-2280
▁bank	-2281
ati	-2282
▁tes	-2283
▁beau	-2284
▁remo	-2285
▁confi	-2286
▁enior	-2287
▁hance	-2288
▁male	-2289
▁lar	-2290
▁ssa	-2291
▁tit	-2292
▁indiv	-2293
▁wrong	-2294
▁score	-2295
▁ib	-2296
▁erc	-2297
▁sav	-2298
▁Isla	-2299
▁blem	-2300
▁fear	-2301
▁Fo	-2302
▁mal	-2303
▁pply	-2304
▁bus	-2305
▁tary	-2306
▁lower	-2307
▁amb	-2308
ori	-2309
▁dom	-2310
▁equi	-2311
▁Par	-2312
▁terri	-2313
▁Fa	-2314
▁scor	-2315
▁ctory	-2316
▁Gover	-2317
▁ery	-2318
▁ford	-2319
▁gular	-2320
▁teg	-2321
▁Part	-2322
▁fill	-2323
▁gave	-2324
▁ancer	-2325
▁pit	-2326
▁murd	-2327
▁dic	-2328
▁bate	-2329
▁pick	-2330
▁poll	-2331
▁pie	-2332
▁Not	-2333
▁ita	-2334
▁path	-2335
▁refu	-2336
▁Paris	-2337
▁tient	-2338
▁venue	-2339
hil	-2340
avid	-2341
▁beat	-2342
▁lett	-2343
▁prev	-2344
▁David	-2345
▁sults	-2346
▁Po	-2347
▁fair	-2348
▁happy	-2349
▁dc	-2350
▁nda	-2351
▁ppe	-2352
▁admi	-2353
▁ollec	-2354
▁25	-2355
▁Cup	-2356
▁ompar	-2357
▁exist	-2358
▁sis	-2359
▁More	-2360
▁ribed	-2361
▁Ex	-2362
▁Sec	-2363
▁areas	-2364
▁sense	-2365
▁engag	-2366
▁ening	-2367
▁sla	-2368
▁Park	-2369
▁sist	-2370
▁title	-2371
▁mum	-2372
▁ndu	-2373
▁roll	-2374
che	-2375
▁18	-2376
▁bab	-2377
▁tance	-2378
▁dv	-2379
▁llow	-2380
▁sold	-2381
▁creen	-2382
▁laced	-2383
▁yer	-2384
▁heard	-2385
▁infla	-2386
▁remov	-2387
▁Sea	-2388
▁Even	-2389
▁image	-2390
▁whose	-2391
▁ester	-2392
▁War	-2393
▁ney	-2394
▁origi	-2395
hic	-2396
▁regi	-2397
▁doub	-2398
▁black	-2399
ran	-2400
▁tn	-2401
▁vehic	-2402
▁Phil	-2403
▁ogni	-2404
▁rv	-2405
▁ore	-2406
▁legi	-2407
▁extra	-2408
▁spent	-2409
▁Commi	-2410
▁actor	-2411
▁earn	-2412
▁nduct	-2413
▁rench	-2414
▁13	-2415
▁pee	-2416
▁liday	-2417
▁paper	-2418
▁udget	-2419
▁bb	-2420
▁zz	-2421
▁dcast	-2422
▁fense	-2423
▁pen	-2424
▁sex	-2425
▁uck	-2426
▁paid	-2427
▁via	-2428
▁logi	-2429
▁prov	-2430
▁bably	-2431
▁nomin	-2432
▁Sm	-2433
▁les	-2434
▁Last	-2435
▁dium	-2436
▁thank	-2437
▁flic	-2438
▁ridge	-2439
▁owl	-2440
▁flict	-2441
▁pool	-2442
▁Na	-2443
▁bir	-2444
▁fect	-2445
▁ane	-2446
▁grand	-2447
▁cons	-2448
▁kids	-2449
▁judge	-2450
▁nally	-2451
▁uring	-2452
▁ock	-2453
▁clean	-2454
▁Dis	-2455
▁thr	-2456
▁ula	-2457
▁cases	-2458
▁peech	-2459
▁base	-2460
▁bill	-2461
▁educa	-2462
▁llege	-2463
▁offen	-2464
▁hys	-2465
▁arlia	-2466
▁wn	-2467
▁awa	-2468
▁div	-2469
▁join	-2470
▁tm	-2471
▁unch	-2472
cus	-2473
▁aid	-2474
▁dio	-2475
▁Photo	-2476
▁ppeal	-2477
▁Our	-2478
▁ata	-2479
▁costs	-2480
▁ology	-2481
▁40	-2482
sis	-2483
▁gar	-2484
▁avo	-2485
▁deb	-2486
▁eed	-2487
▁appro	-2488
▁chiev	-2489
▁exual	-2490
inc	-2491
▁Fi	-2492
▁Fir	-2493
▁boy	-2494
▁Every	-2495
▁az	-2496
▁lays	-2497
▁ably	-2498
▁gula	-2499
▁squa	-2500
▁hen	-2501
▁rot	-2502
▁hoice	-2503
▁tried	-2504
▁easy	-2505
▁okes	-2506
▁para	-2507
▁First	-2508
▁erous	-2509
▁tness	-2510
▁plo	-2511
▁cerns	-2512
▁tatio	-2513
▁telli	-2514
▁gone	-2515
▁ttee	-2516
▁Febru	-2517
▁anger	-2518
▁prise	-2519
▁prom	-2520
▁arg	-2521
▁alia	-2522
▁east	-2523
▁14	-2524
▁colla	-2525
▁insta	-2526
▁16	-2527
▁James	-2528
▁influ	-2529
▁sti	-2530
▁refer	-2531
▁ark	-2532
▁occ	-2533
▁demo	-2534
▁fit	-2535
▁envir	-2536
▁onsum	-2537
▁rices	-2538
▁rats	-2539
▁ax	-2540
▁onmen	-2541
▁trust	-2542
unc	-2543
▁ual	-2544
▁loc	-2545
▁assi	-2546
▁gree	-2547
▁immi	-2548
▁nnel	-2549
▁sands	-2550
▁urope	-2551
▁ili	-2552
▁Ital	-2553
▁study	-2554
▁git	-2555
▁birth	-2556
▁locat	-2557
▁nst	-2558
▁onfe	-2559
▁focus	-2560
▁ining	-2561
▁nine	-2562
▁tmas	-2563
▁Ki	-2564
▁ona	-2565
▁tric	-2566
▁clima	-2567
▁_	-2568
▁ought	-2569
wer	-2570
▁chair	-2571
▁ental	-2572
▁rag	-2573
▁addi	-2574
▁uggl	-2575
▁avoid	-2576
▁shock	-2577
▁gla	-2578
▁nct	-2579
▁analy	-2580
▁nswer	-2581
▁rant	-2582
▁howev	-2583
▁crow	-2584
▁knew	-2585
▁lling	-2586
▁Ama	-2587
▁ther	-2588
▁table	-2589
▁mse	-2590
▁mine	-2591
▁neigh	-2592
▁Qu	-2593
▁Jack	-2594
▁esca	-2595
▁tche	-2596
▁takes	-2597
▁wants	-2598
▁mf	-2599
▁lan	-2600
▁lack	-2601
▁Iran	-2602
▁epi	-2603
▁page	-2604
▁termi	-2605
▁dia	-2606
▁movie	-2607
▁cir	-2608
▁gent	-2609
▁hear	-2610
▁volu	-2611
▁shire	-2612
▁stori	-2613
▁Bi	-2614
▁hysic	-2615
▁mselv	-2616
▁mfort	-2617
▁ami	-2618
▁umb	-2619
▁pair	-2620
▁rney	-2621
▁fford	-2622
▁Pri	-2623
▁ritai	-2624
est	-2625
▁bs	-2626
▁sort	-2627
▁Prime	-2628
▁loved	-2629
▁crowd	-2630
▁peace	-2631
▁qua	-2632
▁rite	-2633
▁excit	-2634
▁rimar	-2635
▁touch	-2636
▁ride	-2637
▁torm	-2638
▁lent	-2639
▁size	-2640
▁Anoth	-2641
▁stock	-2642
▁creas	-2643
▁olly	-2644
▁Party	-2645
▁launc	-2646
▁risis	-2647
▁sport	-2648
▁ditio	-2649
▁Spe	-2650
▁Or	-2651
▁rush	-2652
▁yn	-2653
▁abo	-2654
▁cided	-2655
▁fav	-2656
▁chael	-2657
ilt	-2658
▁esse	-2659
▁ferr	-2660
▁pt	-2661
▁dog	-2662
ars	-2663
▁ndard	-2664
▁Bu	-2665
▁drink	-2666
▁cans	-2667
▁tour	-2668
▁solu	-2669
▁ina	-2670
▁Paul	-2671
▁moved	-2672
▁erry	-2673
▁osted	-2674
▁kick	-2675
▁lish	-2676
▁pull	-2677
▁Wal	-2678
▁nel	-2679
▁ater	-2680
▁lash	-2681
▁teen	-2682
▁itial	-2683
▁ese	-2684
▁easi	-2685
▁ain	-2686
▁wea	-2687
▁ndred	-2688
▁pread	-2689
▁battl	-2690
▁estab	-2691
▁named	-2692
▁bur	-2693
▁send	-2694
▁Smith	-2695
▁istan	-2696
▁geria	-2697
▁plant	-2698
▁settl	-2699
▁stain	-2700
▁terms	-2701
▁true	-2702
▁sse	-2703
▁prior	-2704
▁homes	-2705
▁guard	-2706
▁tream	-2707
▁gned	-2708
▁menta	-2709
▁eth	-2710
▁ator	-2711
▁aware	-2712
▁ssess	-2713
▁ala	-2714
▁annot	-2715
▁emplo	-2716
▁weapo	-2717
▁eil	-2718
▁hair	-2719
▁occu	-2720
▁tics	-2721
▁ttle	-2722
▁throw	-2723
▁Del	-2724
▁hop	-2725
▁slow	-2726
cl	-2727
▁ura	-2728
▁Ser	-2729
▁AP	-2730
▁Mu	-2731
▁sci	-2732
▁ized	-2733
▁aint	-2734
▁carry	-2735
▁green	-2736
▁voice	-2737
▁gro	-2738
▁Char	-2739
▁relat	-2740
▁ades	-2741
▁ontr	-2742
▁Green	-2743
▁depar	-2744
▁teach	-2745
▁treme	-2746
▁ish	-2747
▁ans	-2748
▁mmuni	-2749
He	-2750
If	-2751
▁bag	-2752
▁pper	-2753
▁spir	-2754
▁Times	-2755
▁terna	-2756
▁skin	-2757
▁ntact	-2758
▁ntent	-2759
▁focu	-2760
▁lines	-2761
▁looks	-2762
▁posed	-2763
▁hedul	-2764
▁sions	-2765
▁stanc	-2766
▁rian	-2767
▁perty	-2768
▁yd	-2769
▁ature	-2770
ledg	-2771
▁promi	-2772
▁wledg	-2773
▁alm	-2774
▁rew	-2775
▁nese	-2776
▁award	-2777
▁teria	-2778
▁igned	-2779
▁miss	-2780
▁gital	-2781
▁rules	-2782
▁nk	-2783
▁ool	-2784
▁aily	-2785
▁epara	-2786
▁teams	-2787
▁San	-2788
▁poor	-2789
▁sleep	-2790
▁ttent	-2791
hav	-2792
▁clar	-2793
▁estim	-2794
▁Li	-2795
▁ston	-2796
▁senta	-2797
▁Cla	-2798
▁oke	-2799
▁drive	-2800
ula	-2801
▁goes	-2802
▁Manch	-2803
▁intro	-2804
▁erg	-2805
▁ians	-2806
▁gg	-2807
▁redi	-2808
▁seat	-2809
▁rg	-2810
▁oon	-2811
▁zen	-2812
▁arra	-2813
▁dvanc	-2814
▁rates	-2815
▁Fl	-2816
▁ior	-2817
▁yal	-2818
▁hose	-2819
▁stat	-2820
▁amera	-2821
▁signa	-2822
▁views	-2823
▁Then	-2824
▁leag	-2825
▁ector	-2826
▁wall	-2827
▁ouldn	-2828
▁aj	-2829
▁mit	-2830
▁inly	-2831
▁intai	-2832
▁Prem	-2833
▁born	-2834
▁By	-2835
▁NA	-2836
▁ama	-2837
▁ana	-2838
▁broth	-2839
▁eeing	-2840
▁wed	-2841
▁ason	-2842
▁ducts	-2843
▁17	-2844
▁Of	-2845
▁Ale	-2846
▁Tex	-2847
▁ega	-2848
ret	-2849
▁fan	-2850
▁ile	-2851
▁Serv	-2852
▁nned	-2853
▁rotec	-2854
▁vided	-2855
▁raz	-2856
▁pitch	-2857
▁lip	-2858
▁dden	-2859
▁llar	-2860
▁Charl	-2861
▁built	-2862
▁nings	-2863
▁Ar	-2864
▁Ire	-2865
▁ole	-2866
▁styl	-2867
▁Chief	-2868
▁ecret	-2869
▁ounda	-2870
▁ip	-2871
▁ada	-2872
▁tab	-2873
▁Irela	-2874
▁issed	-2875
▁Tra	-2876
▁row	-2877
▁exten	-2878
▁hands	-2879
▁bel	-2880
▁scar	-2881
▁drama	-2882
▁ealth	-2883
▁nging	-2884
com	-2885
▁rad	-2886
▁cotti	-2887
▁leagu	-2888
▁Mean	-2889
▁ream	-2890
▁ctors	-2891
▁High	-2892
▁cale	-2893
▁drop	-2894
▁gard	-2895
▁text	-2896
▁broad	-2897
▁ssful	-2898
▁Red	-2899
▁Los	-2900
▁fal	-2901
▁ffa	-2902
▁spr	-2903
▁From	-2904
▁runs	-2905
▁ended	-2906
apan	-2907
▁Japan	-2908
▁lab	-2909
▁Kore	-2910
▁fresh	-2911
▁24	-2912
▁bso	-2913
▁ifi	-2914
▁Cana	-2915
▁succe	-2916
▁embl	-2917
▁haps	-2918
▁Korea	-2919
▁bsolu	-2920
▁yard	-2921
▁ments	-2922
que	-2923
▁gui	-2924
▁defe	-2925
▁riv	-2926
▁ords	-2927
▁norma	-2928
▁roper	-2929
▁edi	-2930
▁mart	-2931
▁hotel	-2932
▁nvict	-2933
▁ace	-2934
▁cky	-2935
▁docu	-2936
▁stake	-2937
▁Put	-2938
▁ade	-2939
▁Ab	-2940
▁ero	-2941
▁Alex	-2942
▁amid	-2943
▁Tho	-2944
▁loy	-2945
▁sia	-2946
▁Over	-2947
▁tests	-2948
▁nger	-2949
▁alone	-2950
▁behav	-2951
▁fru	-2952
▁craft	-2953
▁retty	-2954
▁ength	-2955
▁limit	-2956
▁ghout	-2957
att	-2958
▁above	-2959
▁trade	-2960
▁tz	-2961
▁Many	-2962
▁rviv	-2963
▁okesp	-2964
▁shift	-2965
▁opt	-2966
▁blood	-2967
▁lcome	-2968
▁ommit	-2969
▁ich	-2970
▁auto	-2971
▁lose	-2972
▁seem	-2973
▁gets	-2974
▁spec	-2975
▁llage	-2976
▁arb	-2977
wo	-2978
▁card	-2979
▁ached	-2980
▁blems	-2981
▁ler	-2982
▁defea	-2983
▁bsite	-2984
▁opula	-2985
▁words	-2986
▁lf	-2987
▁wear	-2988
▁loyee	-2989
ich	-2990
▁mu	-2991
▁emi	-2992
▁gue	-2993
▁scr	-2994
▁Just	-2995
▁Texas	-2996
▁dream	-2997
▁imply	-2998
▁ys	-2999
▁Gra	-3000
▁aus	-3001
▁reli	-3002
▁train	-3003
▁Ko	-3004
▁ounts	-3005
▁Andr	-3006
▁rden	-3007
▁sens	-3008
▁fue	-3009
▁bort	-3010
▁illeg	-3011
▁Fox	-3012
▁rist	-3013
▁nnual	-3014
▁sight	-3015
RE	-3016
▁weath	-3017
▁nest	-3018
▁obert	-3019
▁thlet	-3020
vis	-3021
▁rich	-3022
▁ising	-3023
▁tough	-3024
▁Two	-3025
▁gan	-3026
▁phi	-3027
▁sal	-3028
▁ora	-3029
▁fell	-3030
▁west	-3031
▁centu	-3032
▁versi	-3033
▁Col	-3034
▁plea	-3035
▁noted	-3036
▁tails	-3037
▁dult	-3038
▁ific	-3039
▁democ	-3040
▁ified	-3041
▁rtist	-3042
▁reat	-3043
▁parts	-3044
▁seems	-3045
▁mbl	-3046
▁ope	-3047
▁dest	-3048
▁stry	-3049
▁tele	-3050
▁aight	-3051
▁oined	-3052
▁save	-3053
▁Flori	-3054
▁sca	-3055
▁prime	-3056
▁@	-3057
▁cked	-3058
▁sequ	-3059
▁Speak	-3060
▁EU	-3061
▁eyo	-3062
▁mmy	-3063
▁ots	-3064
▁rof	-3065
▁rsen	-3066
▁goals	-3067
▁sound	-3068
▁urant	-3069
▁ang	-3070
▁ddle	-3071
▁tone	-3072
▁eyond	-3073
▁spond	-3074
▁tives	-3075
▁MP	-3076
▁nion	-3077
▁Putin	-3078
▁preme	-3079
▁ose	-3080
▁uts	-3081
▁fuel	-3082
▁pple	-3083
▁tera	-3084
▁Gener	-3085
▁arrie	-3086
▁inger	-3087
▁nap	-3088
▁erti	-3089
▁ique	-3090
▁lus	-3091
▁Mark	-3092
▁ave	-3093
▁ola	-3094
▁urg	-3095
▁oost	-3096
▁wild	-3097
▁losed	-3098
▁kept	-3099
▁mala	-3100
▁Since	-3101
▁sault	-3102
▁ecu	-3103
▁tiful	-3104
▁rve	-3105
▁enger	-3106
▁Ed	-3107
▁calls	-3108
▁fl	-3109
▁famou	-3110
▁gic	-3111
▁baby	-3112
▁ngele	-3113
▁uk	-3114
itiz	-3115
▁Sch	-3116
▁Here	-3117
▁citiz	-3118
mor	-3119
▁Sa	-3120
▁ove	-3121
▁perts	-3122
▁rare	-3123
▁tly	-3124
▁sses	-3125
▁Harry	-3126
▁ht	-3127
▁eem	-3128
▁aylo	-3129
▁cept	-3130
▁cious	-3131
▁dropp	-3132
▁propo	-3133
▁syl	-3134
▁anon	-3135
▁cash	-3136
▁semi	-3137
▁exact	-3138
▁expen	-3139
▁provi	-3140
ah	-3141
▁exic	-3142
▁nica	-3143
▁obvi	-3144
▁alanc	-3145
▁users	-3146
Tok	-3147
▁ank	-3148
▁kTok	-3149
▁oot	-3150
▁bili	-3151
▁floo	-3152
▁rock	-3153
▁lift	-3154
▁sett	-3155
▁unit	-3156
▁aning	-3157
▁UN	-3158
▁fun	-3159
▁ird	-3160
▁rvey	-3161
▁Sen	-3162
▁argu	-3163
▁essio	-3164
▁log	-3165
▁tto	-3166
▁rash	-3167
▁pm	-3168
▁jobs	-3169
▁uper	-3170
▁false	-3171
▁argue	-3172
▁memor	-3173
▁rom	-3174
▁warm	-3175
▁greed	-3176
▁dress	-3177
▁ema	-3178
▁aused	-3179
▁piece	-3180
▁conc	-3181
▁ried	-3182
▁ode	-3183
▁eive	-3184
▁rgin	-3185
▁shion	-3186
▁ssive	-3187
uri	-3188
▁dad	-3189
▁lace	-3190
▁oyal	-3191
▁commu	-3192
▁pande	-3193
▁resta	-3194
▁gas	-3195
▁Guard	-3196
▁artin	-3197
▁ets	-3198
▁ayo	-3199
▁band	-3200
▁arc	-3201
▁rch	-3202
▁sod	-3203
▁nou	-3204
▁Dani	-3205
▁omen	-3206
▁Sun	-3207
▁rince	-3208
no	-3209
▁ik	-3210
▁100	-3211
▁Sam	-3212
▁mise	-3213
▁urch	-3214
▁21	-3215
▁imm	-3216
▁ntest	-3217
▁union	-3218
▁ngu	-3219
▁sky	-3220
▁rity	-3221
▁flect	-3222
▁ife	-3223
▁olor	-3224
▁disco	-3225
▁laugh	-3226
▁mited	-3227
▁nsist	-3228
▁xi	-3229
▁dal	-3230
▁ppo	-3231
▁wri	-3232
▁stiv	-3233
▁gence	-3234
▁aren	-3235
▁amin	-3236
▁ower	-3237
▁enate	-3238
ces	-3239
▁een	-3240
▁sets	-3241
▁assed	-3242
▁pace	-3243
▁mony	-3244
▁trou	-3245
▁duc	-3246
▁ngli	-3247
▁tend	-3248
▁tick	-3249
▁predi	-3250
▁ees	-3251
▁fly	-3252
▁missi	-3253
▁isla	-3254
▁outh	-3255
▁zon	-3256
▁nia	-3257
▁ree	-3258
▁uct	-3259
▁ills	-3260
▁ually	-3261
▁mor	-3262
▁rry	-3263
▁ordin	-3264
▁ists	-3265
▁pose	-3266
▁rack	-3267
▁meant	-3268
▁plann	-3269
▁Don	-3270
▁McC	-3271
▁eri	-3272
▁idd	-3273
▁fying	-3274
gr	-3275
ott	-3276
▁agg	-3277
▁pop	-3278
▁atri	-3279
▁eats	-3280
▁urge	-3281
▁ister	-3282
▁ommen	-3283
▁sun	-3284
▁equa	-3285
▁etic	-3286
▁urna	-3287
▁ombin	-3288
▁oti	-3289
▁rap	-3290
▁isco	-3291
▁ndow	-3292
▁song	-3293
▁faced	-3294
▁Wa	-3295
▁bt	-3296
▁aim	-3297
▁typ	-3298
▁ze	-3299
▁oes	-3300
▁oft	-3301
▁pec	-3302
▁sale	-3303
▁esses	-3304
▁CE	-3305
▁cies	-3306
▁facil	-3307
▁handl	-3308
▁lam	-3309
▁oat	-3310
▁--	-3311
▁Liv	-3312
▁pse	-3313
▁atto	-3314
▁touri	-3315
ni	-3316
▁22	-3317
▁Bro	-3318
▁rmy	-3319
▁nstra	-3320
▁tches	-3321
▁wer	-3322
▁rely	-3323
▁19	-3324
▁advis	-3325
▁alist	-3326
▁rofit	-3327
ya	-3328
▁ure	-3329
▁llah	-3330
▁rried	-3331
▁lied	-3332
▁prem	-3333
▁iance	-3334
▁ya	-3335
▁arol	-3336
▁rcha	-3337
▁eptio	-3338
▁llega	-3339
▁Bank	-3340
▁dark	-3341
▁fica	-3342
▁eta	-3343
▁ively	-3344
▁Sh	-3345
▁dang	-3346
▁valu	-3347
▁bj	-3348
▁dor	-3349
▁ift	-3350
▁lec	-3351
▁tars	-3352
▁Mich	-3353
▁asio	-3354
▁abuse	-3355
▁ium	-3356
▁busin	-3357
▁utter	-3358
▁nds	-3359
▁yan	-3360
▁bora	-3361
▁mach	-3362
▁vita	-3363
▁aught	-3364
▁ction	-3365
▁Stu	-3366
▁guil	-3367
▁onto	-3368
▁shing	-3369
▁ghan	-3370
▁io	-3371
▁ps	-3372
▁yo	-3373
▁torie	-3374
▁nna	-3375
▁dern	-3376
▁pped	-3377
▁dg	-3378
▁nty	-3379
▁ander	-3380
JP	-3381
▁hall	-3382
▁rner	-3383
▁artic	-3384
▁bject	-3385
▁enne	-3386
▁hole	-3387
▁stric	-3388
▁ale	-3389
▁die	-3390
▁riz	-3391
▁ico	-3392
▁jec	-3393
▁ncy	-3394
▁urb	-3395
▁enal	-3396
▁otion	-3397
▁bum	-3398
▁ith	-3399
▁rule	-3400
▁email	-3401
▁laces	-3402
▁lding	-3403
▁ortun	-3404
▁ages	-3405
▁ides	-3406
▁rpor	-3407
▁addit	-3408
▁bio	-3409
▁eld	-3410
▁vet	-3411
▁sten	-3412
▁cry	-3413
▁ima	-3414
▁itt	-3415
▁Matt	-3416
▁Pi	-3417
▁cau	-3418
▁stab	-3419
▁rival	-3420
▁gs	-3421
▁nny	-3422
▁item	-3423
▁maz	-3424
▁moni	-3425
▁cue	-3426
▁usk	-3427
▁cell	-3428
▁urr	-3429
▁etch	-3430
▁dance	-3431
lie	-3432
▁nov	-3433
▁cycl	-3434
▁mile	-3435
▁nance	-3436
▁sente	-3437
▁BJP	-3438
▁flu	-3439
▁phy	-3440
man	-3441
▁lour	-3442
▁ffici	-3443
▁lb	-3444
▁hic	-3445
▁nts	-3446
▁eter	-3447
▁heme	-3448
▁ano	-3449
▁esi	-3450
▁certa	-3451
▁rb	-3452
▁rab	-3453
▁miles	-3454
▁ach	-3455
▁eep	-3456
▁choo	-3457
▁ntion	-3458
▁write	-3459
▁eu	-3460
▁Tom	-3461
▁ink	-3462
▁heir	-3463
▁nvent	-3464
▁plane	-3465
▁pic	-3466
▁elen	-3467
▁becom	-3468
▁destr	-3469
▁60	-3470
▁impl	-3471
▁ech	-3472
▁imple	-3473
▁ork	-3474
▁ncing	-3475
▁secre	-3476
▁terro	-3477
▁irs	-3478
lec	-3479
▁aci	-3480
▁elt	-3481
▁etro	-3482
▁mpt	-3483
▁ille	-3484
▁eau	-3485
▁fail	-3486
▁otes	-3487
▁aba	-3488
▁lex	-3489
▁Ira	-3490
▁dee	-3491
▁rief	-3492
▁older	-3493
TV	-3494
▁gger	-3495
▁nctio	-3496
▁eet	-3497
▁odd	-3498
▁stle	-3499
inu	-3500
▁uke	-3501
▁uri	-3502
▁wave	-3503
▁colle	-3504
▁nice	-3505
▁deter	-3506
▁ntage	-3507
▁ա	-3508
▁va	-3509
▁mir	-3510
▁burg	-3511
▁eemed	-3512
▁favou	-3513
▁gle	-3514
▁ubt	-3515
▁broke	-3516
▁neces	-3517
▁ewer	-3518
▁rect	-3519
▁yl	-3520
▁gna	-3521
▁gno	-3522
▁hat	-3523
▁pet	-3524
▁+	-3525
▁Gar	-3526
▁twi	-3527
▁urn	-3528
▁olls	-3529
▁spen	-3530
▁ntinu	-3531
▁redib	-3532
▁tedly	-3533
▁amme	-3534
▁dica	-3535
▁racy	-3536
▁stri	-3537
▁Le	-3538
▁ja	-3539
▁roo	-3540
▁eing	-3541
▁ulti	-3542
▁oting	-3543
▁=	-3544
▁Ot	-3545
▁ckets	-3546
▁overs	-3547
▁CEO	-3548
▁Mur	-3549
▁ged	-3550
▁iling	-3551
▁mbi	-3552
▁till	-3553
▁dow	-3554
▁eek	-3555
▁basi	-3556
▁tip	-3557
▁ague	-3558
▁roup	-3559
▁vent	-3560
▁neu	-3561
▁bott	-3562
▁hang	-3563
▁hase	-3564
▁CB	-3565
▁Gla	-3566
▁emot	-3567
▁ench	-3568
▁rally	-3569
▁23	-3570
▁ses	-3571
▁user	-3572
▁Other	-3573
▁eva	-3574
▁hell	-3575
▁solv	-3576
▁ely	-3577
▁27	-3578
▁spee	-3579
▁teve	-3580
▁thu	-3581
▁ible	-3582
▁lter	-3583
▁trend	-3584
▁pil	-3585
▁bera	-3586
ST	-3587
▁cow	-3588
▁fix	-3589
▁rger	-3590
▁vour	-3591
▁alian	-3592
▁ssist	-3593
My	-3594
▁asta	-3595
▁insu	-3596
▁mote	-3597
▁vered	-3598
FL	-3599
▁28	-3600
▁Hou	-3601
▁xed	-3602
▁uggle	-3603
▁26	-3604
▁Art	-3605
▁burn	-3606
▁ntain	-3607
▁Per	-3608
▁wag	-3609
▁wan	-3610
▁entr	-3611
▁nied	-3612
ու	-3613
▁}	-3614
▁NH	-3615
▁hri	-3616
▁elect	-3617
▁MO	-3618
▁uty	-3619
▁stly	-3620
▁engin	-3621
▁Sir	-3622
▁ats	-3623
▁CO	-3624
▁ahu	-3625
▁axi	-3626
▁bet	-3627
▁sts	-3628
▁ecure	-3629
▁ories	-3630
▁Ben	-3631
▁ited	-3632
▁manu	-3633
▁selec	-3634
▁ber	-3635
▁rror	-3636
▁noo	-3637
▁yri	-3638
▁vs	-3639
▁kin	-3640
▁ybe	-3641
▁nton	-3642
▁Ob	-3643
▁Goo	-3644
▁ury	-3645
▁sum	-3646
▁Will	-3647
▁ants	-3648
▁grad	-3649
▁Mos	-3650
▁eck	-3651
▁uel	-3652
▁gate	-3653
▁mas	-3654
▁tep	-3655
▁soci	-3656
▁tus	-3657
▁alla	-3658
▁ueen	-3659
▁ately	-3660
▁tual	-3661
▁spira	-3662
▁apo	-3663
▁gua	-3664
▁ken	-3665
▁dies	-3666
▁sary	-3667
▁tist	-3668
▁eason	-3669
▁Gi	-3670
▁Ri	-3671
▁eir	-3672
▁lton	-3673
▁stin	-3674
▁pecta	-3675
▁1.	-3676
▁CN	-3677
▁Kate	-3678
▁ware	-3679
▁style	-3680
▁rl	-3681
▁una	-3682
▁feet	-3683
▁ames	-3684
▁endo	-3685
▁sual	-3686
▁wish	-3687
▁allie	-3688
▁ancel	-3689
▁retai	-3690
▁\	-3691
▁kh	-3692
▁ein	-3693
▁oys	-3694
▁shes	-3695
▁trad	-3696
▁geo	-3697
▁rand	-3698
▁pot	-3699
▁wind	-3700
▁urces	-3701
▁note	-3702
▁olid	-3703
▁lease	-3704
▁egr	-3705
▁tude	-3706
▁progr	-3707
▁mou	-3708
▁logy	-3709
▁oral	-3710
▁Scott	-3711
cy	-3712
▁fec	-3713
▁ute	-3714
In	-3715
▁Secre	-3716
▁­	-3717
▁eff	-3718
▁ndy	-3719
▁arth	-3720
▁ined	-3721
▁weet	-3722
▁accu	-3723
▁ardi	-3724
▁Ku	-3725
▁PA	-3726
▁hol	-3727
▁tla	-3728
▁Act	-3729
▁ald	-3730
▁del	-3731
▁ego	-3732
▁uch	-3733
▁ceed	-3734
▁erci	-3735
▁sb	-3736
▁nat	-3737
▁eran	-3738
▁info	-3739
▁laws	-3740
▁lined	-3741
▁testi	-3742
▁aro	-3743
▁pid	-3744
▁quo	-3745
▁ceiv	-3746
▁circ	-3747
▁hill	-3748
▁ologi	-3749
▁Cap	-3750
▁disap	-3751
▁verse	-3752
▁oph	-3753
▁ests	-3754
▁flow	-3755
rov	-3756
▁IN	-3757
▁Val	-3758
▁nz	-3759
▁azi	-3760
▁nis	-3761
▁aged	-3762
▁hank	-3763
▁mend	-3764
▁hain	-3765
▁heri	-3766
▁tur	-3767
▁orce	-3768
▁ssel	-3769
▁apped	-3770
▁gy	-3771
▁lv	-3772
▁elle	-3773
▁oday	-3774
▁lean	-3775
▁asons	-3776
▁é	-3777
▁GB	-3778
▁sad	-3779
▁lega	-3780
▁stone	-3781
▁Mac	-3782
▁rus	-3783
▁nded	-3784
▁rmed	-3785
▁rose	-3786
▁PM	-3787
▁Ali	-3788
▁vac	-3789
▁yed	-3790
▁enda	-3791
▁marri	-3792
▁Pu	-3793
▁Res	-3794
▁ular	-3795
▁uses	-3796
▁bid	-3797
▁ipl	-3798
▁ult	-3799
▁gage	-3800
▁rill	-3801
▁tian	-3802
▁zone	-3803
▁tiona	-3804
▁II	-3805
▁rra	-3806
▁nute	-3807
▁abs	-3808
▁plu	-3809
▁imag	-3810
▁opin	-3811
▁worst	-3812
▁lls	-3813
▁mob	-3814
▁sib	-3815
▁enha	-3816
▁troo	-3817
▁ectio	-3818
▁scien	-3819
▁29	-3820
▁urk	-3821
▁ells	-3822
▁vert	-3823
▁reath	-3824
▁ustin	-3825
▁Ber	-3826
▁ker	-3827
▁ledg	-3828
▁pres	-3829
▁visio	-3830
da	-3831
▁{	-3832
▁ela	-3833
▁lum	-3834
▁rone	-3835
▁sman	-3836
▁Comm	-3837
▁uctur	-3838
▁2.	-3839
▁mix	-3840
▁nth	-3841
▁ssed	-3842
▁wers	-3843
▁ounds	-3844
▁doc	-3845
▁eam	-3846
▁gns	-3847
▁sym	-3848
▁tha	-3849
▁hara	-3850
▁rish	-3851
▁duced	-3852
▁iddle	-3853
▁lev	-3854
▁bour	-3855
▁broa	-3856
▁Port	-3857
▁ko	-3858
▁lm	-3859
▁Nic	-3860
▁osh	-3861
▁uff	-3862
▁ndon	-3863
▁Why	-3864
▁El	-3865
▁fat	-3866
▁file	-3867
▁tery	-3868
-0	-3869
os	-3870
▁#	-3871
▁dut	-3872
▁Mus	-3873
▁rize	-3874
▁anima	-3875
▁ensio	-3876
▁bl	-3877
▁Bill	-3878
▁otor	-3879
▁wins	-3880
▁arms	-3881
▁bert	-3882
▁meth	-3883
▁pani	-3884
▁lau	-3885
▁iers	-3886
▁iver	-3887
▁reduc	-3888
ky	-3889
▁py	-3890
▁lob	-3891
▁ates	-3892
▁AN	-3893
▁Pla	-3894
▁guy	-3895
▁initi	-3896
▁Cal	-3897
▁mma	-3898
▁matic	-3899
▁ui	-3900
▁ense	-3901
▁ingh	-3902
▁sey	-3903
▁alls	-3904
▁ddit	-3905
▁shar	-3906
▁AF	-3907
▁ify	-3908
▁erse	-3909
▁leng	-3910
▁ooks	-3911
▁Rs	-3912
▁gl	-3913
▁ends	-3914
▁itch	-3915
we	-3916
▁80	-3917
▁alt	-3918
▁hor	-3919
▁rug	-3920
▁eder	-3921
▁ms	-3922
▁iga	-3923
▁rchi	-3924
▁rinc	-3925
▁udge	-3926
▁wast	-3927
▁cript	-3928
BA	-3929
▁reso	-3930
▁nj	-3931
▁ize	-3932
▁empt	-3933
▁chan	-3934
▁ckle	-3935
▁ka	-3936
▁dian	-3937
▁mmit	-3938
▁Hi	-3939
▁Pr	-3940
▁hut	-3941
▁iou	-3942
▁pin	-3943
▁vor	-3944
▁anda	-3945
▁denc	-3946
▁mmer	-3947
▁Car	-3948
▁avi	-3949
▁nak	-3950
▁aster	-3951
▁nus	-3952
ER	-3953
▁ox	-3954
▁Fra	-3955
▁nim	-3956
▁ateg	-3957
▁€	-3958
▁ino	-3959
▁nly	-3960
▁edge	-3961
▁larg	-3962
▁vice	-3963
▁bly	-3964
▁eets	-3965
▁dicat	-3966
▁igger	-3967
ki	-3968
▁anni	-3969
▁asis	-3970
▁farm	-3971
▁stea	-3972
▁Princ	-3973
▁dge	-3974
▁err	-3975
▁tom	-3976
▁tti	-3977
▁Poli	-3978
▁lies	-3979
▁rade	-3980
▁sted	-3981
▁essed	-3982
▁pprov	-3983
▁repea	-3984
▁ij	-3985
▁Vic	-3986
▁dry	-3987
▁hai	-3988
▁mass	-3989
▁ն	-3990
▁Big	-3991
▁Yet	-3992
▁acy	-3993
▁heer	-3994
▁bn	-3995
▁arl	-3996
▁rev	-3997
▁alit	-3998
▁indi	-3999
▁ppose	-4000
▁Up	-4001
▁hab	-4002
▁ella	-4003
▁flat	-4004
▁iller	-4005
▁toria	-4006
▁oe	-4007
▁mani	-4008
▁mble	-4009
▁reci	-4010
▁stro	-4011
▁secur	-4012
▁strat	-4013
▁ky	-4014
▁ena	-4015
▁core	-4016
▁xu	-4017
▁chem	-4018
▁loan	-4019
▁tiva	-4020
▁ences	-4021
▁strik	-4022
SA	-4023
go	-4024
▁grew	-4025
▁llie	-4026
▁ntly	-4027
▁icked	-4028
▁eh	-4029
▁oul	-4030
▁ube	-4031
▁acci	-4032
▁Tre	-4033
▁tta	-4034
▁guid	-4035
▁lend	-4036
▁rans	-4037
▁70	-4038
▁ix	-4039
▁Bar	-4040
▁ello	-4041
▁ovid	-4042
▁istic	-4043
▁bru	-4044
▁oad	-4045
▁desp	-4046
▁entu	-4047
▁iser	-4048
▁offe	-4049
▁terr	-4050
▁tb	-4051
▁NHS	-4052
▁dly	-4053
▁las	-4054
▁twe	-4055
▁uis	-4056
▁mist	-4057
▁oney	-4058
▁gon	-4059
▁ruit	-4060
▁31	-4061
▁iP	-4062
▁Gov	-4063
▁uli	-4064
▁vot	-4065
▁load	-4066
▁rout	-4067
▁circu	-4068
▁kes	-4069
▁MORE	-4070
▁ribe	-4071
▁iding	-4072
▁oid	-4073
▁rail	-4074
▁rape	-4075
unt	-4076
▁dot	-4077
▁llian	-4078
▁rante	-4079
OP	-4080
▁Ta	-4081
▁ild	-4082
▁ange	-4083
TO	-4084
▁chu	-4085
▁ett	-4086
BI	-4087
lt	-4088
▁Ru	-4089
▁mph	-4090
▁rum	-4091
▁ears	-4092
▁ging	-4093
ury	-4094
▁oud	-4095
▁ror	-4096
▁san	-4097
▁pping	-4098
▁pplie	-4099
▁Mad	-4100
▁chel	-4101
▁oted	-4102
LA	-4103
fic	-4104
▁cker	-4105
▁hree	-4106
▁nnes	-4107
▁peat	-4108
ono	-4109
▁NFL	-4110
▁affi	-4111
▁lief	-4112
▁ndra	-4113
▁MA	-4114
▁aches	-4115
▁lp	-4116
▁Jer	-4117
▁oom	-4118
▁vic	-4119
▁anta	-4120
▁jury	-4121
▁wash	-4122
▁convi	-4123
▁ollow	-4124
▁nb	-4125
▁iar	-4126
▁ymp	-4127
▁dism	-4128
▁joy	-4129
▁ron	-4130
▁Au	-4131
▁eut	-4132
▁minu	-4133
▁forms	-4134
▁ewi	-4135
▁hef	-4136
▁lso	-4137
▁ram	-4138
▁illa	-4139
▁tima	-4140
▁aling	-4141
▁cline	-4142
▁og	-4143
▁hau	-4144
▁sei	-4145
▁anna	-4146
▁imon	-4147
▁rame	-4148
▁sg	-4149
▁rice	-4150
▁unds	-4151
▁trong	-4152
▁90	-4153
▁lem	-4154
▁nci	-4155
▁ngr	-4156
▁rej	-4157
▁Marc	-4158
▁ntic	-4159
▁reco	-4160
▁preci	-4161
▁Bra	-4162
▁danc	-4163
▁ender	-4164
▁IC	-4165
▁ea	-4166
▁uma	-4167
▁eath	-4168
▁hone	-4169
▁ites	-4170
▁scov	-4171
▁usse	-4172
▁voca	-4173
▁draft	-4174
▁ek	-4175
▁RE	-4176
▁evin	-4177
▁lder	-4178
sa	-4179
▁ym	-4180
▁ddl	-4181
▁obi	-4182
▁rei	-4183
▁ected	-4184
▁hrist	-4185
▁iting	-4186
So	-4187
▁ito	-4188
▁lon	-4189
▁nish	-4190
▁yr	-4191
▁lat	-4192
▁orda	-4193
▁asion	-4194
▁zer	-4195
▁assa	-4196
▁irec	-4197
▁king	-4198
▁wake	-4199
▁docum	-4200
▁lance	-4201
▁porta	-4202
ID	-4203
▁Ken	-4204
▁aga	-4205
▁bon	-4206
▁llo	-4207
▁loca	-4208
▁rough	-4209
▁35	-4210
▁gli	-4211
▁IP	-4212
▁ipe	-4213
▁eeds	-4214
▁elly	-4215
▁requ	-4216
▁rious	-4217
▁river	-4218
▁arr	-4219
▁capt	-4220
▁acked	-4221
gel	-4222
▁inn	-4223
▁nie	-4224
▁grab	-4225
▁gap	-4226
▁wei	-4227
▁yle	-4228
▁eces	-4229
▁tact	-4230
▁tast	-4231
▁aur	-4232
▁din	-4233
▁eap	-4234
▁Game	-4235
▁ush	-4236
▁uta	-4237
▁nimal	-4238
▁ents	-4239
▁ings	-4240
▁vast	-4241
▁lying	-4242
As	-4243
▁ete	-4244
▁oca	-4245
▁par	-4246
▁usi	-4247
▁ved	-4248
▁scri	-4249
▁romot	-4250
▁anks	-4251
▁oman	-4252
▁wine	-4253
▁ourne	-4254
▁ime	-4255
▁och	-4256
▁oms	-4257
▁pan	-4258
▁rav	-4259
▁assin	-4260
▁Can	-4261
▁ads	-4262
▁ato	-4263
▁nha	-4264
▁lled	-4265
▁pers	-4266
▁tank	-4267
▁zens	-4268
▁AR	-4269
▁cio	-4270
▁lap	-4271
▁aske	-4272
▁Jr	-4273
▁esh	-4274
▁imb	-4275
▁lst	-4276
▁cate	-4277
▁ghts	-4278
▁hate	-4279
▁ament	-4280
▁compl	-4281
▁num	-4282
▁hire	-4283
▁rick	-4284
ja	-4285
▁Ky	-4286
▁rob	-4287
▁erra	-4288
▁nces	-4289
▁tora	-4290
▁erman	-4291
▁Wil	-4292
▁ite	-4293
▁mot	-4294
▁lame	-4295
▁anned	-4296
▁Fr	-4297
▁lub	-4298
▁hare	-4299
CA	-4300
▁aha	-4301
▁liz	-4302
▁proc	-4303
▁surge	-4304
ան	-4305
▁lt	-4306
▁sin	-4307
▁ypt	-4308
▁Live	-4309
▁bout	-4310
▁edia	-4311
▁erate	-4312
▁Ja	-4313
▁bol	-4314
▁hew	-4315
▁gest	-4316
▁ospi	-4317
ley	-4318
▁Kan	-4319
▁ung	-4320
▁ativ	-4321
▁ghly	-4322
▁cr	-4323
▁Its	-4324
▁ces	-4325
▁auti	-4326
▁ligi	-4327
▁sting	-4328
20	-4329
▁cat	-4330
▁egg	-4331
▁ody	-4332
▁cting	-4333
▁los	-4334
▁mba	-4335
▁lari	-4336
▁sked	-4337
▁Who	-4338
▁exi	-4339
▁ota	-4340
▁rst	-4341
▁dict	-4342
▁ams	-4343
▁lta	-4344
▁ols	-4345
▁smo	-4346
▁peak	-4347
▁sume	-4348
▁fruit	-4349
▁Bel	-4350
▁ame	-4351
▁tle	-4352
▁leak	-4353
▁peri	-4354
▁rred	-4355
SP	-4356
▁ID	-4357
▁Jam	-4358
▁Franc	-4359
▁opi	-4360
▁ager	-4361
▁eligi	-4362
▁enced	-4363
▁recov	-4364
▁Rob	-4365
▁antly	-4366
▁Str	-4367
▁swa	-4368
▁lity	-4369
▁otic	-4370
▁ked	-4371
▁nde	-4372
▁ulat	-4373
▁edica	-4374
▁scrib	-4375
▁tea	-4376
▁NATO	-4377
▁ermi	-4378
▁mort	-4379
▁ndem	-4380
▁ivity	-4381
▁waste	-4382
▁$1	-4383
▁Sky	-4384
▁nchi	-4385
▁paren	-4386
key	-4387
▁Van	-4388
▁gni	-4389
▁lad	-4390
▁nfor	-4391
▁Ac	-4392
▁pha	-4393
▁reb	-4394
▁rage	-4395
▁AFP	-4396
▁Fou	-4397
▁ays	-4398
▁pto	-4399
▁judg	-4400
▁Angel	-4401
▁ipa	-4402
▁unco	-4403
▁raw	-4404
▁arry	-4405
▁pment	-4406
▁ira	-4407
▁inco	-4408
▁fro	-4409
▁sna	-4410
▁aire	-4411
▁enni	-4412
▁illy	-4413
▁consu	-4414
▁react	-4415
▁3.	-4416
▁GOP	-4417
▁vil	-4418
▁oked	-4419
▁hyd	-4420
▁ied	-4421
▁reh	-4422
▁bell	-4423
▁enny	-4424
▁ewis	-4425
▁mong	-4426
▁nting	-4427
unk	-4428
▁rust	-4429
▁scape	-4430
▁45	-4431
▁alk	-4432
▁dua	-4433
▁ups	-4434
▁erna	-4435
▁elief	-4436
▁200	-4437
▁amm	-4438
▁mad	-4439
▁tum	-4440
▁anic	-4441
▁overt	-4442
▁rpris	-4443
▁FA	-4444
▁ici	-4445
▁utu	-4446
▁oper	-4447
▁truck	-4448
DA	-4449
▁36	-4450
▁CNN	-4451
▁rma	-4452
▁sus	-4453
▁omin	-4454
▁thes	-4455
▁adm	-4456
▁bai	-4457
▁lav	-4458
▁lik	-4459
▁rey	-4460
▁ongs	-4461
oul	-4462
▁hm	-4463
▁als	-4464
▁ede	-4465
▁iro	-4466
▁sas	-4467
▁Sena	-4468
▁acco	-4469
▁SN	-4470
▁Sp	-4471
▁hore	-4472
▁entir	-4473
RA	-4474
▁ept	-4475
▁sue	-4476
▁tec	-4477
▁yes	-4478
▁lice	-4479
▁mari	-4480
▁mber	-4481
▁obil	-4482
▁rter	-4483
▁supp	-4484
▁Ji	-4485
▁pub	-4486
▁sel	-4487
▁iles	-4488
▁lots	-4489
▁uter	-4490
▁GP	-4491
▁ils	-4492
▁mys	-4493
▁anag	-4494
▁cert	-4495
▁memo	-4496
▁rink	-4497
▁tree	-4498
▁CBS	-4499
▁enu	-4500
▁ves	-4501
▁trac	-4502
▁ption	-4503
▁rimin	-4504
-1	-4505
▁Vo	-4506
▁Met	-4507
▁hio	-4508
▁kil	-4509
▁essi	-4510
▁aimed	-4511
▁erful	-4512
▁ilita	-4513
▁dn	-4514
▁McD	-4515
▁Tha	-4516
▁cam	-4517
▁ards	-4518
▁ario	-4519
▁cine	-4520
▁seiz	-4521
▁tine	-4522
▁Pe	-4523
▁ku	-4524
▁lers	-4525
▁rgen	-4526
▁trol	-4527
▁wond	-4528
▁wheel	-4529
▁կ	-4530
▁Bri	-4531
▁Cor	-4532
▁lyn	-4533
▁econo	-4534
my	-4535
▁arv	-4536
▁squ	-4537
▁wns	-4538
▁orry	-4539
GA	-4540
▁lib	-4541
MA	-4542
▁cs	-4543
▁Vla	-4544
▁ica	-4545
▁scu	-4546
▁tock	-4547
▁RT	-4548
▁Tu	-4549
▁pho	-4550
▁tari	-4551
▁alent	-4552
AP	-4553
SC	-4554
▁cia	-4555
▁iet	-4556
▁arah	-4557
▁medi	-4558
▁rson	-4559
▁eaten	-4560
wa	-4561
▁NE	-4562
▁Las	-4563
▁Ram	-4564
▁siv	-4565
▁arre	-4566
▁scal	-4567
▁ering	-4568
▁4.	-4569
▁USA	-4570
▁eel	-4571
▁rea	-4572
▁acts	-4573
▁rine	-4574
▁ե	-4575
▁hoc	-4576
▁ria	-4577
▁veni	-4578
▁detai	-4579
oo	-4580
▁sat	-4581
▁lake	-4582
▁resc	-4583
▁tens	-4584
▁credi	-4585
▁Uni	-4586
▁att	-4587
▁lia	-4588
▁aking	-4589
▁alter	-4590
▁cab	-4591
▁lva	-4592
▁ough	-4593
▁iness	-4594
▁ae	-4595
▁none	-4596
▁rave	-4597
▁sian	-4598
▁oking	-4599
▁mre	-4600
▁pel	-4601
▁tabl	-4602
▁shoul	-4603
▁yb	-4604
▁Lee	-4605
▁McG	-4606
▁hra	-4607
▁oug	-4608
▁dive	-4609
▁icit	-4610
▁nson	-4611
▁onne	-4612
▁sher	-4613
▁llect	-4614
▁uce	-4615
▁dyna	-4616
▁ette	-4617
▁favo	-4618
▁zing	-4619
▁antic	-4620
▁viv	-4621
▁asur	-4622
▁deni	-4623
▁nves	-4624
▁ocate	-4625
▁ompli	-4626
▁MPs	-4627
▁ids	-4628
▁mom	-4629
▁thea	-4630
▁tled	-4631
▁ngers	-4632
▁rable	-4633
VID	-4634
▁Bla	-4635
▁Mid	-4636
▁adi	-4637
▁mes	-4638
▁airs	-4639
▁ntee	-4640
▁ours	-4641
▁prop	-4642
▁lands	-4643
▁logic	-4644
▁ila	-4645
▁ngs	-4646
▁oni	-4647
▁rty	-4648
▁aper	-4649
▁duca	-4650
▁ocal	-4651
▁rint	-4652
▁aller	-4653
▁aving	-4654
▁IS	-4655
▁Jac	-4656
▁alo	-4657
▁imi	-4658
▁une	-4659
▁duty	-4660
▁erri	-4661
▁hout	-4662
▁orri	-4663
▁rena	-4664
▁dotco	-4665
▁eport	-4666
▁mrend	-4667
▁pageE	-4668
IS	-4669
usto	-4670
▁yth	-4671
▁aybe	-4672
▁ller	-4673
▁mail	-4674
▁34	-4675
▁Kim	-4676
▁acr	-4677
▁rsh	-4678
▁atic	-4679
▁atta	-4680
▁isit	-4681
▁mitt	-4682
▁ngla	-4683
▁rang	-4684
▁succ	-4685
▁admit	-4686
▁rring	-4687
▁afe	-4688
▁orm	-4689
▁wel	-4690
▁noun	-4691
▁risti	-4692
▁eon	-4693
▁gym	-4694
▁rby	-4695
▁arts	-4696
▁roof	-4697
▁tein	-4698
▁Vladi	-4699
ese	-4700
▁dex	-4701
▁mme	-4702
▁nga	-4703
▁tag	-4704
▁vir	-4705
▁drew	-4706
▁arked	-4707
▁gency	-4708
▁onger	-4709
ko	-4710
▁EV	-4711
▁eti	-4712
▁noc	-4713
▁oro	-4714
▁dual	-4715
▁muse	-4716
▁ommo	-4717
▁Cri	-4718
▁deo	-4719
▁seas	-4720
▁amily	-4721
▁rming	-4722
▁thers	-4723
▁unter	-4724
DP	-4725
▁Dan	-4726
▁ase	-4727
▁osp	-4728
▁spa	-4729
▁amon	-4730
▁tied	-4731
▁COVID	-4732
▁custo	-4733
▁inner	-4734
▁ji	-4735
▁abu	-4736
▁oli	-4737
▁acro	-4738
▁merg	-4739
▁navi	-4740
▁aca	-4741
▁ffs	-4742
▁pou	-4743
▁zed	-4744
▁keen	-4745
▁motio	-4746
▁satio	-4747
ey	-4748
▁Far	-4749
▁NBA	-4750
▁Tro	-4751
▁eak	-4752
▁feed	-4753
▁gang	-4754
▁lind	-4755
▁vant	-4756
▁stern	-4757
▁weigh	-4758
ON	-4759
ml	-4760
ons	-4761
▁33	-4762
▁Se	-4763
▁awn	-4764
▁fee	-4765
▁siz	-4766
▁tte	-4767
▁fest	-4768
▁hrou	-4769
▁estiv	-4770
▁hough	-4771
▁IT	-4772
▁OK	-4773
▁bbi	-4774
▁htt	-4775
▁epre	-4776
▁oard	-4777
▁stal	-4778
▁conti	-4779
▁grate	-4780
▁iam	-4781
▁idi	-4782
▁Mari	-4783
▁aims	-4784
▁aker	-4785
▁amer	-4786
▁augh	-4787
▁esla	-4788
▁expo	-4789
▁uman	-4790
▁aya	-4791
▁html	-4792
▁oyed	-4793
▁erial	-4794
▁moder	-4795
sit	-4796
▁Ty	-4797
▁mps	-4798
▁rop	-4799
▁tun	-4800
▁arch	-4801
▁dist	-4802
▁fees	-4803
▁ient	-4804
▁error	-4805
▁trees	-4806
AS	-4807
ora	-4808
▁GM	-4809
▁Fed	-4810
▁Men	-4811
▁abha	-4812
▁ajor	-4813
▁inti	-4814
▁osed	-4815
▁ropo	-4816
▁reast	-4817
ala	-4818
▁Ass	-4819
▁atm	-4820
▁unf	-4821
▁usa	-4822
▁diet	-4823
▁llis	-4824
▁cup	-4825
▁nclu	-4826
▁eader	-4827
▁labor	-4828
do	-4829
▁ET	-4830
▁SE	-4831
▁UC	-4832
▁coun	-4833
▁eler	-4834
▁hero	-4835
▁expan	-4836
▁https	-4837
▁ndent	-4838
▁SNP	-4839
▁bes	-4840
▁oma	-4841
▁thy	-4842
▁anno	-4843
▁ored	-4844
▁nders	-4845
▁taste	-4846
▁tured	-4847
▁loo	-4848
▁tie	-4849
▁uit	-4850
▁ayne	-4851
▁tiny	-4852
▁Indi	-4853
▁erty	-4854
▁lass	-4855
▁ript	-4856
▁rrie	-4857
▁chest	-4858
▁posit	-4859
▁ution	-4860
▁32	-4861
▁haw	-4862
▁selv	-4863
fa	-4864
▁atu	-4865
▁spl	-4866
▁ugh	-4867
▁urs	-4868
▁afah	-4869
▁enci	-4870
▁ltim	-4871
▁CC	-4872
▁eav	-4873
▁hro	-4874
▁emor	-4875
▁ishi	-4876
▁tears	-4877
Id	-4878
▁km	-4879
▁Jos	-4880
▁Tri	-4881
▁ilm	-4882
▁chol	-4883
▁heth	-4884
▁ntId	-4885
▁rtur	-4886
▁eleme	-4887
FC	-4888
▁5.	-4889
▁els	-4890
▁hei	-4891
▁mag	-4892
▁rex	-4893
▁rme	-4894
▁Brit	-4895
▁colo	-4896
▁quit	-4897
▁wned	-4898
▁works	-4899
▁bow	-4900
▁ipp	-4901
▁wic	-4902
▁defi	-4903
▁nver	-4904
▁sper	-4905
▁wore	-4906
ED	-4907
RC	-4908
▁հ	-4909
▁LA	-4910
▁dol	-4911
▁tan	-4912
▁anne	-4913
▁bing	-4914
▁knee	-4915
▁ootb	-4916
▁ouch	-4917
▁soft	-4918
▁teri	-4919
▁usic	-4920
▁lence	-4921
▁statu	-4922
▁tball	-4923
▁ende	-4924
▁meat	-4925
▁mill	-4926
▁48	-4927
▁wk	-4928
▁500	-4929
▁Tok	-4930
▁rts	-4931
▁dical	-4932
▁ras	-4933
▁rmo	-4934
▁flec	-4935
▁nche	-4936
▁itive	-4937
▁37	-4938
▁ej	-4939
▁loa	-4940
▁nick	-4941
▁ether	-4942
▁rf	-4943
▁dan	-4944
▁sena	-4945
▁lockE	-4946
IA	-4947
▁tac	-4948
▁aria	-4949
▁atis	-4950
▁elev	-4951
▁reed	-4952
▁ventu	-4953
ete	-4954
▁Us	-4955
▁irm	-4956
▁root	-4957
▁eo	-4958
▁Pol	-4959
▁ndo	-4960
▁ois	-4961
▁owa	-4962
▁pat	-4963
▁tig	-4964
▁olat	-4965
▁romi	-4966
▁vill	-4967
▁gains	-4968
▁lobal	-4969
▁theme	-4970
IC	-4971
▁God	-4972
▁tim	-4973
▁rior	-4974
▁cific	-4975
▁grave	-4976
▁inema	-4977
▁nounc	-4978
▁olida	-4979
hu	-4980
▁Cro	-4981
▁Lok	-4982
▁tap	-4983
▁eart	-4984
▁indu	-4985
▁meal	-4986
▁reak	-4987
▁ociet	-4988
▁unded	-4989
եր	-4990
▁Oh	-4991
▁lc	-4992
▁Max	-4993
▁emo	-4994
▁enga	-4995
▁icul	-4996
▁lise	-4997
▁nior	-4998
▁omet	-4999
▁ifica	-5000
AT	-5001
▁ux	-5002
▁pta	-5003
▁eves	-5004
▁exam	-5005
▁hort	-5006
▁nist	-5007
▁ovie	-5008
▁evera	-5009
▁marke	-5010
▁Xi	-5011
▁hl	-5012
▁Cam	-5013
▁xic	-5014
▁desh	-5015
▁erem	-5016
▁osing	-5017
▁tched	-5018
▁Old	-5019
▁cit	-5020
▁eme	-5021
▁aine	-5022
▁cott	-5023
▁erre	-5024
▁tall	-5025
▁ather	-5026
▁PS	-5027
▁ais	-5028
▁epp	-5029
▁homa	-5030
▁heese	-5031
▁Ten	-5032
▁ady	-5033
▁bal	-5034
▁osa	-5035
▁rem	-5036
▁rip	-5037
▁enry	-5038
▁rary	-5039
▁7.	-5040
▁MS	-5041
▁mn	-5042
▁ua	-5043
line	-5044
▁FBI	-5045
▁ITV	-5046
▁eba	-5047
▁gor	-5048
▁ttl	-5049
▁tty	-5050
▁Text	-5051
▁ield	-5052
▁prec	-5053
▁fatal	-5054
▁grace	-5055
▁neith	-5056
▁sters	-5057
ata	-5058
▁Va	-5059
▁Jon	-5060
▁hide	-5061
▁sity	-5062
▁asure	-5063
▁spons	-5064
OR	-5065
▁Hy	-5066
▁BST	-5067
▁oly	-5068
▁ova	-5069
▁wen	-5070
▁ouse	-5071
▁tale	-5072
▁nline	-5073
AR	-5074
▁Ut	-5075
▁uc	-5076
▁aff	-5077
▁irl	-5078
▁kle	-5079
▁rdo	-5080
▁abor	-5081
▁aura	-5082
▁mmed	-5083
▁tack	-5084
▁arden	-5085
▁ounce	-5086
pm	-5087
▁gel	-5088
▁nca	-5089
▁uti	-5090
▁dona	-5091
▁ious	-5092
▁stil	-5093
▁utin	-5094
▁ality	-5095
▁conom	-5096
▁ittle	-5097
zi	-5098
orm	-5099
▁ու	-5100
▁bul	-5101
▁tau	-5102
▁aiti	-5103
▁deny	-5104
▁ethi	-5105
▁hame	-5106
▁rele	-5107
▁ailed	-5108
▁eform	-5109
EN	-5110
▁ON	-5111
▁ao	-5112
▁Are	-5113
▁Kha	-5114
▁ati	-5115
▁erb	-5116
▁ien	-5117
▁eigh	-5118
▁rren	-5119
▁sess	-5120
▁wire	-5121
▁metal	-5122
▁tweet	-5123
▁cca	-5124
▁ott	-5125
▁poo	-5126
▁erce	-5127
▁ider	-5128
▁olli	-5129
▁itter	-5130
▁nativ	-5131
▁neral	-5132
▁strai	-5133
▁38	-5134
▁Wo	-5135
▁opp	-5136
▁slo	-5137
▁assu	-5138
▁atie	-5139
▁barr	-5140
▁otel	-5141
▁tart	-5142
▁andhi	-5143
▁twist	-5144
▁Oc	-5145
▁RA	-5146
▁TH	-5147
▁oi	-5148
▁Bay	-5149
▁nab	-5150
▁rin	-5151
▁iron	-5152
▁otte	-5153
▁ppen	-5154
▁eting	-5155
▁42	-5156
▁Jim	-5157
▁Pen	-5158
▁rke	-5159
▁allo	-5160
▁ired	-5161
▁rime	-5162
▁suppl	-5163
To	-5164
▁1,	-5165
▁ws	-5166
▁aco	-5167
▁utl	-5168
▁grid	-5169
▁merc	-5170
▁asses	-5171
gg	-5172
▁zi	-5173
▁ece	-5174
▁ndl	-5175
▁tar	-5176
▁eeks	-5177
▁ilia	-5178
▁ourna	-5179
▁վ	-5180
▁cks	-5181
▁gay	-5182
▁olv	-5183
▁ilet	-5184
▁voter	-5185
▁մ	-5186
▁75	-5187
▁upt	-5188
▁ampa	-5189
▁halt	-5190
▁laid	-5191
▁omer	-5192
▁veri	-5193
▁winn	-5194
▁attac	-5195
▁float	-5196
▁bie	-5197
▁eds	-5198
▁lti	-5199
▁elli	-5200
▁erge	-5201
▁llin	-5202
▁peti	-5203
yn	-5204
▁7,	-5205
▁yi	-5206
▁ote	-5207
▁sch	-5208
▁hich	-5209
▁ndar	-5210
▁eless	-5211
▁nergy	-5212
▁ravel	-5213
▁ait	-5214
▁gend	-5215
▁grat	-5216
▁eside	-5217
▁essar	-5218
▁rtion	-5219
No	-5220
▁ww	-5221
▁GBT	-5222
▁ods	-5223
▁ubb	-5224
▁uto	-5225
▁ania	-5226
▁cula	-5227
▁edit	-5228
▁enti	-5229
▁mily	-5230
▁magin	-5231
OS	-5232
lfa	-5233
▁CD	-5234
▁aug	-5235
▁ayer	-5236
▁mper	-5237
▁ners	-5238
▁tise	-5239
▁Harri	-5240
▁acted	-5241
SW	-5242
▁oh	-5243
▁gut	-5244
▁hap	-5245
▁rga	-5246
▁rlo	-5247
▁unk	-5248
▁wav	-5249
▁blin	-5250
▁lane	-5251
▁lway	-5252
▁ortu	-5253
▁rive	-5254
▁roth	-5255
▁carri	-5256
▁eding	-5257
FA	-5258
LL	-5259
TS	-5260
VE	-5261
ía	-5262
ար	-5263
▁ի	-5264
▁Lu	-5265
▁uic	-5266
▁dono	-5267
▁pret	-5268
▁radi	-5269
▁sati	-5270
▁cally	-5271
▁rated	-5272
CC	-5273
▁á	-5274
har	-5275
▁Aug	-5276
▁Thi	-5277
▁lse	-5278
▁rge	-5279
▁rla	-5280
▁twin	-5281
▁mance	-5282
OC	-5283
▁udi	-5284
▁bled	-5285
▁inde	-5286
▁ndle	-5287
▁stan	-5288
▁nable	-5289
▁oward	-5290
At	-5291
fu	-5292
vo	-5293
▁£1	-5294
▁Rea	-5295
▁agu	-5296
▁gam	-5297
▁hah	-5298
▁owe	-5299
▁www	-5300
▁ycl	-5301
▁Pete	-5302
▁endu	-5303
▁lone	-5304
TA	-5305
▁Fu	-5306
▁Ya	-5307
▁Ye	-5308
▁rik	-5309
▁vou	-5310
▁arro	-5311
▁enta	-5312
▁mpli	-5313
▁nted	-5314
▁tape	-5315
▁feren	-5316
▁onent	-5317
▁tally	-5318
son	-5319
▁ffi	-5320
▁oal	-5321
▁orp	-5322
▁oice	-5323
▁uild	-5324
որ	-5325
▁6,	-5326
▁DN	-5327
▁Mrs	-5328
▁lio	-5329
▁ndi	-5330
▁til	-5331
▁urd	-5332
▁fled	-5333
▁ienc	-5334
▁ison	-5335
▁TextB	-5336
▁doubl	-5337
▁թ	-5338
▁$5	-5339
▁NBC	-5340
▁edd	-5341
▁isi	-5342
▁rhe	-5343
▁tir	-5344
▁lien	-5345
▁omic	-5346
▁pera	-5347
▁tina	-5348
▁torn	-5349
▁tres	-5350
▁ights	-5351
▁rexit	-5352
▁stati	-5353
▁toric	-5354
▁ulate	-5355
ov	-5356
tra	-5357
▁6.	-5358
▁Ian	-5359
▁Med	-5360
▁duo	-5361
▁oks	-5362
▁udd	-5363
▁gear	-5364
▁othe	-5365
▁hydra	-5366
▁kl	-5367
▁rh	-5368
▁wl	-5369
▁Top	-5370
▁bvi	-5371
▁eph	-5372
▁eur	-5373
▁ivi	-5374
▁eans	-5375
▁hest	-5376
▁plac	-5377
▁justi	-5378
▁tures	-5379
eth	-5380
▁yp	-5381
▁iev	-5382
▁rie	-5383
▁swe	-5384
▁osta	-5385
▁sect	-5386
▁grade	-5387
▁sheet	-5388
▁SP	-5389
▁Mer	-5390
▁ibi	-5391
▁lur	-5392
▁vid	-5393
▁orne	-5394
▁loose	-5395
▁parti	-5396
▁welfa	-5397
▁DC	-5398
▁ks	-5399
▁ABC	-5400
▁Wat	-5401
▁aze	-5402
▁hub	-5403
▁map	-5404
▁fits	-5405
▁ivil	-5406
▁raft	-5407
▁indic	-5408
AD	-5409
▁39	-5410
▁65	-5411
▁18,	-5412
▁ubs	-5413
▁ands	-5414
▁enge	-5415
▁illi	-5416
▁ntal	-5417
▁pter	-5418
▁unic	-5419
▁estor	-5420
▁senti	-5421
▁uctio	-5422
▁kit	-5423
▁dish	-5424
▁owns	-5425
▁ssil	-5426
▁aging	-5427
▁inanc	-5428
▁ousin	-5429
▁tigat	-5430
AC	-5431
▁lg	-5432
▁dub	-5433
▁gal	-5434
▁lig	-5435
▁lme	-5436
▁lor	-5437
▁iven	-5438
▁olve	-5439
▁unda	-5440
▁mpani	-5441
▁mplet	-5442
▁osses	-5443
▁quart	-5444
▁quire	-5445
▁CP	-5446
▁aa	-5447
▁Bur	-5448
▁avy	-5449
▁esc	-5450
▁ivo	-5451
▁osi	-5452
▁iner	-5453
▁nown	-5454
▁rris	-5455
▁vern	-5456
-2	-5457
zo	-5458
una	-5459
▁UP	-5460
▁iu	-5461
▁za	-5462
▁Bob	-5463
▁Pho	-5464
▁Pra	-5465
▁urse	-5466
▁lists	-5467
▁ority	-5468
▁splay	-5469
▁McK	-5470
▁Mon	-5471
▁dem	-5472
▁eve	-5473
▁hon	-5474
▁nai	-5475
▁rni	-5476
▁roc	-5477
▁dina	-5478
▁duti	-5479
▁iter	-5480
▁mall	-5481
▁nical	-5482
▁oring	-5483
▁ssure	-5484
1,	-5485
ET	-5486
pl	-5487
vy	-5488
▁յ	-5489
▁HS	-5490
▁Ven	-5491
▁cta	-5492
▁erm	-5493
▁ket	-5494
▁roy	-5495
▁cuse	-5496
▁echn	-5497
▁gian	-5498
▁cient	-5499
▁Blo	-5500
▁aka	-5501
▁ppy	-5502
▁sua	-5503
▁uca	-5504
▁akes	-5505
▁weat	-5506
▁woke	-5507
▁drove	-5508
▁rging	-5509
▁tl	-5510
▁25,	-5511
▁300	-5512
▁lwa	-5513
▁omo	-5514
▁mood	-5515
▁ommu	-5516
▁sers	-5517
▁tern	-5518
▁ortio	-5519
▁cin	-5520
▁dig	-5521
▁ldi	-5522
▁dust	-5523
▁eens	-5524
▁eers	-5525
▁egal	-5526
▁emed	-5527
▁lime	-5528
▁aders	-5529
▁nforc	-5530
▁tensi	-5531
▁2,	-5532
▁Ul	-5533
▁ews	-5534
▁obb	-5535
▁NASA	-5536
▁elic	-5537
▁ideo	-5538
▁inst	-5539
▁lady	-5540
▁rivi	-5541
▁uthe	-5542
▁rying	-5543
▁ships	-5544
▁steel	-5545
AN	-5546
of	-5547
▁JD	-5548
▁10,	-5549
▁30,	-5550
▁IPL	-5551
▁asi	-5552
▁gne	-5553
▁rel	-5554
▁ensi	-5555
▁slip	-5556
▁annah	-5557
▁nsion	-5558
IP	-5559
▁46	-5560
▁27,	-5561
▁Ant	-5562
▁App	-5563
▁hak	-5564
▁irc	-5565
▁arne	-5566
▁emen	-5567
▁outs	-5568
▁sona	-5569
▁etary	-5570
▁5,	-5571
▁MT	-5572
▁NY	-5573
▁rah	-5574
▁Whit	-5575
▁ahul	-5576
▁mmon	-5577
▁ngel	-5578
▁rman	-5579
▁vise	-5580
▁ratio	-5581
▁elc	-5582
▁oop	-5583
▁uan	-5584
▁GBTQ	-5585
▁Medi	-5586
▁hari	-5587
▁laim	-5588
▁sued	-5589
▁tral	-5590
▁Tyson	-5591
▁ented	-5592
ada	-5593
▁47	-5594
▁55	-5595
▁AT	-5596
▁Kn	-5597
▁uz	-5598
▁17,	-5599
▁Six	-5600
▁bin	-5601
▁ddi	-5602
▁hug	-5603
▁tore	-5604
▁ooked	-5605
▁hr	-5606
▁asp	-5607
▁onn	-5608
▁ops	-5609
▁fuse	-5610
▁gust	-5611
▁inds	-5612
▁mili	-5613
▁owne	-5614
▁ghter	-5615
▁hings	-5616
▁dar	-5617
▁eit	-5618
▁lah	-5619
▁oct	-5620
▁bloc	-5621
▁ntra	-5622
▁pend	-5623
▁rede	-5624
▁rett	-5625
▁sham	-5626
▁ustra	-5627
ama	-5628
aya	-5629
▁Kh	-5630
▁ML	-5631
▁cci	-5632
▁hal	-5633
▁kel	-5634
▁ngo	-5635
▁oet	-5636
▁omi	-5637
▁rno	-5638
▁andy	-5639
▁athe	-5640
▁elsh	-5641
▁erly	-5642
▁ouri	-5643
▁pric	-5644
▁toni	-5645
▁compa	-5646
OU	-5647
hya	-5648
▁15,	-5649
▁20,	-5650
▁Out	-5651
▁aye	-5652
▁lop	-5653
▁sly	-5654
▁aste	-5655
▁egan	-5656
▁surv	-5657
▁tier	-5658
▁acing	-5659
▁ahara	-5660
▁eased	-5661
▁ordon	-5662
▁urage	-5663
▁տ	-5664
▁$3	-5665
▁En	-5666
▁vy	-5667
▁16,	-5668
▁nco	-5669
▁owd	-5670
▁Land	-5671
▁abso	-5672
▁itar	-5673
▁livi	-5674
▁oing	-5675
▁pati	-5676
▁ibera	-5677
▁sn	-5678
▁GDP	-5679
▁Roy	-5680
▁ebe	-5681
▁sab	-5682
▁stl	-5683
▁CNBC	-5684
▁inary	-5685
▁44	-5686
▁8.	-5687
▁hun	-5688
▁ndr	-5689
▁oto	-5690
▁expl	-5691
▁raig	-5692
▁sibl	-5693
▁stem	-5694
▁tali	-5695
▁urth	-5696
▁xecu	-5697
▁tific	-5698
ES	-5699
dd	-5700
▁IM	-5701
▁Ph	-5702
▁ape	-5703
▁iab	-5704
▁nto	-5705
▁rui	-5706
▁erth	-5707
▁mont	-5708
▁onic	-5709
▁prin	-5710
▁nster	-5711
OA	-5712
TI	-5713
▁53	-5714
▁WN	-5715
▁ced	-5716
▁dul	-5717
▁llu	-5718
▁ngl	-5719
▁CCTV	-5720
▁tear	-5721
▁lobby	-5722
▁â	-5723
ler	-5724
▁43	-5725
▁54	-5726
▁WH	-5727
▁ffe	-5728
▁irr	-5729
▁itz	-5730
▁lou	-5731
▁nas	-5732
▁oco	-5733
▁org	-5734
▁tol	-5735
▁ders	-5736
▁eice	-5737
▁thor	-5738
▁triu	-5739
▁vege	-5740
▁nesse	-5741
▁profi	-5742
▁iy	-5743
▁Any	-5744
▁Cry	-5745
▁Tor	-5746
▁aby	-5747
▁ibe	-5748
▁oor	-5749
▁ppl	-5750
▁urf	-5751
▁von	-5752
▁atin	-5753
▁lign	-5754
▁tenu	-5755
tar	-5756
▁26,	-5757
▁Pub	-5758
▁alf	-5759
▁isp	-5760
▁mun	-5761
▁seg	-5762
▁wha	-5763
▁Form	-5764
▁dash	-5765
▁erie	-5766
▁hopp	-5767
▁horr	-5768
▁melt	-5769
▁ully	-5770
du	-5771
▁28,	-5772
▁agn	-5773
▁bac	-5774
▁ckl	-5775
▁emy	-5776
▁inl	-5777
▁lee	-5778
▁tew	-5779
▁vin	-5780
▁heim	-5781
▁hunt	-5782
▁lect	-5783
▁liev	-5784
▁rega	-5785
▁sons	-5786
▁surr	-5787
▁teel	-5788
▁thin	-5789
▁bling	-5790
▁orces	-5791
▁tries	-5792
ji	-5793
▁ը	-5794
▁FI	-5795
▁400	-5796
▁cep	-5797
▁cus	-5798
▁eda	-5799
▁ggi	-5800
▁unn	-5801
▁yon	-5802
▁hanc	-5803
▁ators	-5804
▁attle	-5805
▁ealed	-5806
▁eeded	-5807
▁greet	-5808
▁ibili	-5809
▁liver	-5810
▁quent	-5811
▁usion	-5812
ել	-5813
▁$2	-5814
▁LS	-5815
▁Za	-5816
▁Law	-5817
▁roa	-5818
▁shu	-5819
▁Thea	-5820
▁ared	-5821
▁casi	-5822
▁cide	-5823
▁fate	-5824
▁oses	-5825
▁seed	-5826
▁chanc	-5827
▁meter	-5828
▁tural	-5829
▁AC	-5830
▁MI	-5831
▁NC	-5832
▁enz	-5833
▁ias	-5834
▁por	-5835
▁web	-5836
▁anka	-5837
▁ebra	-5838
▁orse	-5839
▁pare	-5840
▁pire	-5841
▁scho	-5842
▁sour	-5843
▁worn	-5844
▁22,	-5845
▁NEW	-5846
▁elv	-5847
▁utt	-5848
▁bran	-5849
▁dded	-5850
▁ecli	-5851
▁nera	-5852
▁trai	-5853
▁atura	-5854
▁hyper	-5855
▁ssage	-5856
▁պ	-5857
▁21,	-5858
▁hur	-5859
▁pes	-5860
▁sim	-5861
▁bone	-5862
▁egio	-5863
▁hush	-5864
▁mode	-5865
▁oods	-5866
▁pict	-5867
▁subs	-5868
▁illed	-5869
SS	-5870
▁9.	-5871
▁ER	-5872
▁12,	-5873
▁24,	-5874
▁Did	-5875
▁McL	-5876
▁kie	-5877
▁oga	-5878
▁tam	-5879
▁amil	-5880
▁aven	-5881
▁ista	-5882
▁nose	-5883
▁orat	-5884
▁vary	-5885
▁entor	-5886
▁ontra	-5887
▁riend	-5888
9,	-5889
▁11,	-5890
▁Jay	-5891
▁McI	-5892
▁anu	-5893
▁nqu	-5894
▁rdl	-5895
▁epti	-5896
▁glad	-5897
▁hild	-5898
▁orth	-5899
▁entit	-5900
▁ersta	-5901
▁leath	-5902
▁teeth	-5903
▁villa	-5904
MS	-5905
▁PC	-5906
▁NCA	-5907
▁egi	-5908
▁hli	-5909
▁lty	-5910
▁ono	-5911
▁rue	-5912
▁nged	-5913
▁rlie	-5914
▁eping	-5915
▁victo	-5916
bo	-5917
▁CH	-5918
▁Zu	-5919
▁ue	-5920
▁150	-5921
▁Eve	-5922
▁blu	-5923
▁igu	-5924
▁rda	-5925
▁ador	-5926
▁ando	-5927
▁cure	-5928
▁enna	-5929
▁ippi	-5930
▁ncre	-5931
▁pula	-5932
▁ween	-5933
▁ellow	-5934
▁ollin	-5935
▁tradi	-5936
▁uting	-5937
EC	-5938
▁է	-5939
▁3,	-5940
▁ED	-5941
▁LI	-5942
▁13,	-5943
▁19,	-5944
▁Des	-5945
▁IDF	-5946
▁gig	-5947
▁urp	-5948
▁ntil	-5949
▁oldi	-5950
▁oris	-5951
▁thus	-5952
▁aming	-5953
▁elled	-5954
▁gical	-5955
▁8,	-5956
▁ING	-5957
▁Ron	-5958
▁alc	-5959
▁cco	-5960
▁nac	-5961
▁nar	-5962
▁rgo	-5963
▁uin	-5964
▁flew	-5965
▁grey	-5966
▁hint	-5967
▁lion	-5968
▁lated	-5969
▁lates	-5970
viro	-5971
▁Bre	-5972
▁Sri	-5973
▁cid	-5974
▁elg	-5975
▁hem	-5976
▁arie	-5977
▁arly	-5978
▁lemon	-5979
▁nviro	-5980
▁4,	-5981
▁je	-5982
▁250	-5983
▁Geo	-5984
▁NSW	-5985
▁alb	-5986
▁opa	-5987
▁ruc	-5988
▁harg	-5989
▁ongo	-5990
▁opti	-5991
▁orta	-5992
EA	-5993
PA	-5994
▁52	-5995
▁DJ	-5996
▁Amy	-5997
▁Cou	-5998
▁abb	-5999
▁cti	-6000
▁eto	-6001
▁jet	-6002
▁mel	-6003
▁tex	-6004
▁tos	-6005
▁ased	-6006
▁ases	-6007
▁iant	-6008
▁ittl	-6009
▁urns	-6010
▁lster	-6011
▁rigin	-6012
ME	-6013
▁գ	-6014
war	-6015
▁AL	-6016
▁Fri	-6017
▁elo	-6018
▁luc	-6019
▁edic	-6020
▁etty	-6021
▁itia	-6022
▁ives	-6023
▁onte	-6024
▁oven	-6025
▁owed	-6026
▁stig	-6027
▁truc	-6028
▁unti	-6029
▁vail	-6030
▁iving	-6031
▁•	-6032
▁73	-6033
▁Kri	-6034
▁nan	-6035
▁pal	-6036
▁argo	-6037
▁arni	-6038
▁asse	-6039
▁atel	-6040
▁gion	-6041
▁grim	-6042
▁mere	-6043
▁rkin	-6044
▁fleet	-6045
▁tters	-6046
-3	-6047
▁ó	-6048
▁դ	-6049
hal	-6050
▁kg	-6051
▁apt	-6052
▁itc	-6053
▁rio	-6054
▁rut	-6055
▁ude	-6056
▁ctic	-6057
▁esth	-6058
▁gher	-6059
▁glow	-6060
▁iger	-6061
▁iola	-6062
▁itan	-6063
▁centr	-6064
▁conta	-6065
▁gestu	-6066
▁mpact	-6067
▁ument	-6068
▁AD	-6069
▁Hot	-6070
▁aki	-6071
▁pra	-6072
▁ynd	-6073
▁UCLA	-6074
▁emie	-6075
▁uted	-6076
▁Publi	-6077
▁extre	-6078
▁reign	-6079
IN	-6080
ish	-6081
▁CS	-6082
▁FC	-6083
▁HE	-6084
▁ND	-6085
▁31,	-6086
▁Hag	-6087
▁Let	-6088
▁ben	-6089
▁hin	-6090
▁igi	-6091
▁isc	-6092
▁urv	-6093
▁arna	-6094
▁heck	-6095
▁marr	-6096
▁wise	-6097
▁essor	-6098
▁oming	-6099
▁popul	-6100
▁uture	-6101
Oh	-6102
ute	-6103
▁41	-6104
▁Dun	-6105
▁ESP	-6106
▁Lat	-6107
▁THE	-6108
▁cel	-6109
▁nsu	-6110
▁sma	-6111
▁inal	-6112
▁inda	-6113
▁lege	-6114
▁mpos	-6115
▁nant	-6116
▁olan	-6117
▁oner	-6118
▁tune	-6119
▁dated	-6120
▁iming	-6121
▁ingap	-6122
▁ropos	-6123
▁10%	-6124
▁ICC	-6125
▁hir	-6126
▁hoo	-6127
▁pea	-6128
▁ներ	-6129
▁divi	-6130
▁etti	-6131
▁gene	-6132
▁revi	-6133
▁shor	-6134
▁Andre	-6135
▁ligen	-6136
▁rings	-6137
WA	-6138
yk	-6139
gie	-6140
▁57	-6141
▁AS	-6142
▁CA	-6143
▁MV	-6144
▁14,	-6145
▁esy	-6146
▁gho	-6147
▁lto	-6148
▁mpa	-6149
▁sne	-6150
▁ESPN	-6151
▁arya	-6152
▁dale	-6153
▁dise	-6154
▁hink	-6155
▁ises	-6156
▁onat	-6157
▁uite	-6158
▁ying	-6159
▁lemen	-6160
▁oping	-6161
▁steer	-6162
GP	-6163
OT	-6164
RI	-6165
▁Bet	-6166
▁Llo	-6167
▁ene	-6168
▁haz	-6169
▁pst	-6170
▁rna	-6171
▁ths	-6172
▁ches	-6173
▁ergu	-6174
▁mman	-6175
▁grief	-6176
ami	-6177
▁WW	-6178
▁թյ	-6179
▁Acc	-6180
▁esu	-6181
▁ghe	-6182
▁gio	-6183
▁lew	-6184
▁phe	-6185
▁pix	-6186
▁ucy	-6187
▁adav	-6188
▁andl	-6189
▁enin	-6190
▁eted	-6191
▁iest	-6192
▁llel	-6193
▁oose	-6194
▁rran	-6195
▁usan	-6196
▁ading	-6197
▁drunk	-6198
▁ecuri	-6199
▁neath	-6200
▁ntrac	-6201
▁stint	-6202
MC	-6203
ին	-6204
▁72	-6205
▁Cl	-6206
▁Ste	-6207
▁Win	-6208
▁etc	-6209
▁pol	-6210
▁toc	-6211
▁avin	-6212
▁empl	-6213
▁haul	-6214
▁heel	-6215
▁lant	-6216
▁lymp	-6217
▁naly	-6218
▁riot	-6219
▁onten	-6220
▁shtra	-6221
On	-6222
▁Tr	-6223
▁23,	-6224
▁III	-6225
▁Pat	-6226
▁erk	-6227
▁imo	-6228
▁mie	-6229
▁oan	-6230
▁Kent	-6231
▁addy	-6232
▁astr	-6233
▁ften	-6234
▁hawk	-6235
▁leap	-6236
▁ntry	-6237
▁spar	-6238
▁ithin	-6239
▁jects	-6240
ye	-6241
▁9,	-6242
▁Ci	-6243
▁WA	-6244
▁29,	-6245
▁Hol	-6246
▁sie	-6247
▁NCAA	-6248
▁heek	-6249
▁rial	-6250
▁unne	-6251
▁harge	-6252
▁menti	-6253
▁ompet	-6254
▁urned	-6255
▁85	-6256
▁yc	-6257
phin	-6258
▁Cru	-6259
▁Gil	-6260
▁Gua	-6261
▁acu	-6262
▁arn	-6263
▁arp	-6264
▁cen	-6265
▁ebb	-6266
▁lks	-6267
▁mmi	-6268
▁nya	-6269
▁pti	-6270
▁shy	-6271
▁tui	-6272
▁umi	-6273
▁Pres	-6274
▁appy	-6275
▁forg	-6276
▁ndit	-6277
▁snack	-6278
ud	-6279
tah	-6280
▁IR	-6281
▁oa	-6282
▁DNA	-6283
▁McM	-6284
▁adl	-6285
▁bou	-6286
▁cil	-6287
▁eft	-6288
▁rek	-6289
▁sda	-6290
▁ayed	-6291
▁coup	-6292
▁issi	-6293
▁lank	-6294
▁lati	-6295
▁nkey	-6296
▁nshi	-6297
▁reda	-6298
▁roba	-6299
▁akers	-6300
▁ememb	-6301
▁olici	-6302
▁ompan	-6303
adi	-6304
nde	-6305
▁0.	-6306
▁ST	-6307
▁RTÉ	-6308
▁cip	-6309
▁lek	-6310
▁mai	-6311
▁oxy	-6312
▁dhya	-6313
▁nals	-6314
▁obby	-6315
▁rien	-6316
▁touc	-6317
▁genre	-6318
▁honey	-6319
▁laska	-6320
▁stark	-6321
▁ո	-6322
▁58	-6323
▁Liz	-6324
▁aul	-6325
▁bia	-6326
▁edo	-6327
▁nni	-6328
▁tiv	-6329
▁gers	-6330
▁rama	-6331
▁cogni	-6332
▁grati	-6333
▁incom	-6334
▁otter	-6335
▁roast	-6336
▁ssent	-6337
ino	-6338
ram	-6339
▁SA	-6340
▁SU	-6341
▁dl	-6342
▁wy	-6343
▁20%	-6344
▁eid	-6345
▁tua	-6346
▁ums	-6347
▁Utah	-6348
▁cles	-6349
▁mult	-6350
▁tica	-6351
▁hydro	-6352
▁riest	-6353
րա	-6354
▁Yo	-6355
▁£5	-6356
▁Ele	-6357
▁atr	-6358
▁coa	-6359
▁ini	-6360
▁Davi	-6361
▁anim	-6362
▁itat	-6363
▁ladi	-6364
▁mara	-6365
▁mono	-6366
▁nsit	-6367
▁trio	-6368
▁ardon	-6369
jan	-6370
ona	-6371
ony	-6372
▁Cy	-6373
▁UA	-6374
▁yu	-6375
▁McA	-6376
▁USC	-6377
▁dmi	-6378
▁pul	-6379
▁ska	-6380
▁tas	-6381
▁ume	-6382
▁vey	-6383
▁erba	-6384
▁flee	-6385
▁olin	-6386
▁rece	-6387
▁riti	-6388
▁tany	-6389
▁tton	-6390
▁ylan	-6391
▁pixel	-6392
HP	-6393
SL	-6394
fo	-6395
▁56	-6396
▁IV	-6397
▁ln	-6398
▁Abu	-6399
▁ahi	-6400
▁anj	-6401
▁beg	-6402
▁sau	-6403
▁Cruz	-6404
▁cuss	-6405
▁igar	-6406
▁ikki	-6407
▁laze	-6408
▁rith	-6409
▁ryan	-6410
▁thro	-6411
▁cture	-6412
▁grain	-6413
if	-6414
▁PR	-6415
▁bee	-6416
▁eor	-6417
▁iel	-6418
▁rog	-6419
▁ues	-6420
▁brid	-6421
▁rvin	-6422
▁tage	-6423
▁arian	-6424
▁eview	-6425
▁mmitt	-6426
▁nerve	-6427
▁ntary	-6428
▁rland	-6429
▁Ա	-6430
▁(1	-6431
▁np	-6432
▁xp	-6433
▁Bea	-6434
▁Flo	-6435
▁Utd	-6436
▁adu	-6437
▁eis	-6438
▁iri	-6439
▁ril	-6440
▁roi	-6441
▁rto	-6442
▁Usyk	-6443
▁almo	-6444
▁asha	-6445
▁dart	-6446
▁hine	-6447
▁lyri	-6448
▁mery	-6449
▁orts	-6450
▁rgan	-6451
▁riva	-6452
▁slam	-6453
▁ukee	-6454
▁lphin	-6455
▁nated	-6456
▁stunt	-6457
▁whale	-6458
▁62	-6459
▁RN	-6460
▁£3	-6461
geth	-6462
▁Ann	-6463
▁Rex	-6464
▁fry	-6465
▁nag	-6466
▁nte	-6467
▁saf	-6468
▁tel	-6469
▁MAGA	-6470
▁egis	-6471
▁iona	-6472
▁opez	-6473
▁sage	-6474
▁yler	-6475
▁ntana	-6476
▁ogeth	-6477
▁sible	-6478
PS	-6479
án	-6480
▁HI	-6481
▁1-0	-6482
▁UFC	-6483
▁asa	-6484
▁laz	-6485
▁nea	-6486
▁uru	-6487
▁wai	-6488
▁wre	-6489
▁appl	-6490
▁ched	-6491
▁clin	-6492
▁conv	-6493
▁cord	-6494
▁exac	-6495
▁ixel	-6496
▁mond	-6497
▁olds	-6498
▁pear	-6499
▁sban	-6500
▁taff	-6501
▁ured	-6502
▁uris	-6503
▁edera	-6504
hed	-6505
▁66	-6506
▁FT	-6507
▁KC	-6508
▁Ima	-6509
▁ems	-6510
▁mmo	-6511
▁rig	-6512
▁rms	-6513
▁amal	-6514
▁eace	-6515
▁eded	-6516
▁glor	-6517
▁grip	-6518
▁loom	-6519
▁norm	-6520
▁ritt	-6521
▁egisl	-6522
▁insti	-6523
▁umber	-6524
xy	-6525
▁NG	-6526
▁NI	-6527
▁£2	-6528
▁Kra	-6529
▁Tes	-6530
▁hoe	-6531
▁lgo	-6532
▁Holl	-6533
▁adal	-6534
▁priv	-6535
▁shan	-6536
▁onder	-6537
▁pposi	-6538
▁wrest	-6539
LE	-6540
▁ք	-6541
win	-6542
▁51	-6543
▁77	-6544
▁91	-6545
▁EC	-6546
▁oj	-6547
▁rj	-6548
▁հա	-6549
▁10.	-6550
▁2-1	-6551
▁afa	-6552
▁alu	-6553
▁inu	-6554
▁kha	-6555
▁mbo	-6556
▁orc	-6557
▁alah	-6558
▁eria	-6559
▁erto	-6560
▁essa	-6561
▁irat	-6562
▁nkin	-6563
▁trap	-6564
▁undr	-6565
▁void	-6566
▁icket	-6567
▁nters	-6568
▁welco	-6569
▁BC	-6570
▁DO	-6571
▁Zi	-6572
▁Hea	-6573
▁McN	-6574
▁RBI	-6575
▁WHO	-6576
▁erd	-6577
▁gem	-6578
▁vas	-6579
▁affe	-6580
▁aken	-6581
▁araz	-6582
▁elan	-6583
▁epen	-6584
▁lore	-6585
▁rita	-6586
▁andal	-6587
▁defin	-6588
▁ghost	-6589
▁htani	-6590
▁orman	-6591
▁rithm	-6592
▁tings	-6593
Is	-6594
▁ñ	-6595
▁AM	-6596
▁HM	-6597
▁40%	-6598
▁bli	-6599
▁hre	-6600
▁lde	-6601
▁lei	-6602
▁lud	-6603
▁nod	-6604
▁tub	-6605
▁ckey	-6606
▁dura	-6607
▁uate	-6608
▁ursk	-6609
▁cepti	-6610
▁nches	-6611
▁sneak	-6612
▁sures	-6613
NT	-6614
ny	-6615
▁	-6616
NBC	-6617
▁49	-6618
▁Rio	-6619
▁Use	-6620
▁asc	-6621
▁mbr	-6622
▁pon	-6623
▁ubi	-6624
▁anga	-6625
▁enic	-6626
▁loop	-6627
▁drift	-6628
▁polic	-6629
▁shian	-6630
BS	-6631
▁բ	-6632
▁63	-6633
▁OR	-6634
▁sd	-6635
▁IND	-6636
▁Spa	-6637
▁Ted	-6638
▁oxi	-6639
▁rif	-6640
▁wet	-6641
▁READ	-6642
▁arat	-6643
▁edro	-6644
▁ersa	-6645
▁erta	-6646
▁hane	-6647
▁mers	-6648
▁nity	-6649
▁okay	-6650
▁resh	-6651
▁ront	-6652
▁Tesco	-6653
▁appli	-6654
▁glove	-6655
▁rtain	-6656
ox	-6657
▁ր	-6658
RWA	-6659
▁67	-6660
▁ME	-6661
▁uy	-6662
▁AAP	-6663
▁Kat	-6664
▁ewa	-6665
▁oya	-6666
▁ske	-6667
▁antl	-6668
▁ewel	-6669
▁hike	-6670
▁lare	-6671
▁leaf	-6672
▁lens	-6673
▁pone	-6674
▁ppre	-6675
▁tatt	-6676
▁unge	-6677
▁UNRWA	-6678
▁esign	-6679
▁metre	-6680
▁promo	-6681
▁robab	-6682
▁ultur	-6683
▁BS	-6684
▁DA	-6685
▁Lt	-6686
▁RO	-6687
▁եւ	-6688
▁Vet	-6689
▁mos	-6690
▁rsu	-6691
▁Gett	-6692
▁cien	-6693
▁estr	-6694
▁hade	-6695
▁hana	-6696
▁igni	-6697
▁lavi	-6698
▁lunt	-6699
▁mplo	-6700
▁ntar	-6701
▁orwe	-6702
▁pile	-6703
▁pion	-6704
▁whip	-6705
▁MSNBC	-6706
▁ingle	-6707
▁physi	-6708
▁valid	-6709
II	-6710
▁ս	-6711
aga	-6712
kar	-6713
▁BM	-6714
▁VP	-6715
▁Gro	-6716
▁IST	-6717
▁Isl	-6718
▁MLB	-6719
▁lut	-6720
▁sni	-6721
▁uci	-6722
▁erit	-6723
▁esti	-6724
▁glam	-6725
▁hail	-6726
▁hile	-6727
▁iden	-6728
▁lips	-6729
▁nate	-6730
▁tong	-6731
▁umer	-6732
▁yach	-6733
▁Uttar	-6734
US	-6735
bb	-6736
hem	-6737
▁74	-6738
▁BA	-6739
▁HD	-6740
▁Ur	-6741
▁3-0	-6742
▁Hud	-6743
▁MSP	-6744
▁glu	-6745
▁rce	-6746
▁rez	-6747
▁ulu	-6748
▁lina	-6749
▁lize	-6750
▁logo	-6751
▁lood	-6752
▁ollo	-6753
▁pent	-6754
▁tanc	-6755
▁avour	-6756
▁globe	-6757
▁stron	-6758
▁yndro	-6759
ում	-6760
▁$6	-6761
▁2%	-6762
▁95	-6763
▁99	-6764
▁CF	-6765
▁Cz	-6766
▁Ve	-6767
▁Zo	-6768
▁Ban	-6769
▁End	-6770
▁See	-6771
▁aps	-6772
▁gha	-6773
▁hea	-6774
▁hyp	-6775
▁lag	-6776
▁niz	-6777
▁oda	-6778
▁daho	-6779
▁dair	-6780
▁eddy	-6781
▁erin	-6782
▁ersh	-6783
▁flip	-6784
▁hein	-6785
▁iddy	-6786
▁inch	-6787
▁ksha	-6788
▁lush	-6789
▁ngin	-6790
▁terl	-6791
▁xper	-6792
▁ersey	-6793
▁luded	-6794
▁rator	-6795
LC	-6796
▁RS	-6797
▁ml	-6798
▁50%	-6799
▁Cel	-6800
▁Fle	-6801
▁gru	-6802
▁rbi	-6803
▁rfo	-6804
▁eyon	-6805
▁nnou	-6806
▁rito	-6807
▁tlin	-6808
▁drain	-6809
▁riori	-6810
GPT	-6811
ndo	-6812
oni	-6813
▁64	-6814
▁78	-6815
▁PGA	-6816
▁amo	-6817
▁eyn	-6818
▁ppi	-6819
▁uby	-6820
▁ule	-6821
▁կան	-6822
▁eels	-6823
▁ided	-6824
▁ines	-6825
▁ixon	-6826
▁seam	-6827
▁tGPT	-6828
▁tron	-6829
▁octor	-6830
▁omali	-6831
RO	-6832
ée	-6833
ado	-6834
▁gt	-6835
▁13.	-6836
▁2-0	-6837
▁NDA	-6838
▁Too	-6839
▁VOA	-6840
▁bic	-6841
▁epe	-6842
▁mut	-6843
▁ros	-6844
▁uld	-6845
▁arte	-6846
▁chin	-6847
▁ctiv	-6848
▁eads	-6849
▁enko	-6850
▁ickl	-6851
▁erage	-6852
▁necti	-6853
▁stole	-6854
▁tered	-6855
myr	-6856
▁LE	-6857
▁SI	-6858
▁hn	-6859
▁Add	-6860
▁ida	-6861
▁rte	-6862
▁sks	-6863
▁wak	-6864
▁xis	-6865
▁Know	-6866
▁bles	-6867
▁dire	-6868
▁educ	-6869
▁hool	-6870
▁inju	-6871
▁rder	-6872
▁repa	-6873
▁ribu	-6874
▁tons	-6875
▁uffe	-6876
▁uran	-6877
▁dymyr	-6878
▁nvers	-6879
▁snake	-6880
▁Jul	-6881
▁Mat	-6882
▁PAC	-6883
▁cie	-6884
▁dau	-6885
▁erv	-6886
▁icy	-6887
▁uda	-6888
▁NDTV	-6889
▁amat	-6890
▁angu	-6891
▁ault	-6892
▁avid	-6893
▁eril	-6894
▁erma	-6895
▁lleg	-6896
▁nfla	-6897
▁rovi	-6898
▁sdom	-6899
▁teph	-6900
▁turi	-6901
▁arget	-6902
▁ienna	-6903
▁irect	-6904
▁lkata	-6905
▁ontin	-6906
▁yacht	-6907
DI	-6908
jo	-6909
zz	-6910
▁12.	-6911
▁60%	-6912
▁Ips	-6913
▁MVP	-6914
▁PTI	-6915
▁SEC	-6916
▁aso	-6917
▁elp	-6918
▁leb	-6919
▁mac	-6920
▁tia	-6921
▁Scho	-6922
▁Shar	-6923
▁Unit	-6924
▁eard	-6925
▁espo	-6926
▁irth	-6927
▁issu	-6928
▁itiz	-6929
▁ndan	-6930
▁shna	-6931
▁astha	-6932
▁crude	-6933
▁rport	-6934
▁trodu	-6935
▁wrist	-6936
▁IF	-6937
▁OS	-6938
▁ար	-6939
▁Set	-6940
▁Thr	-6941
▁WWE	-6942
▁dhe	-6943
▁ebo	-6944
▁gly	-6945
▁het	-6946
▁ngi	-6947
▁nsp	-6948
▁olu	-6949
▁ppa	-6950
▁tee	-6951
▁wid	-6952
▁dela	-6953
▁ghes	-6954
▁ikes	-6955
▁imit	-6956
▁inem	-6957
▁isin	-6958
▁losi	-6959
▁mith	-6960
▁ompo	-6961
▁rood	-6962
▁rude	-6963
▁ների	-6964
▁astor	-6965
▁hools	-6966
▁mmigr	-6967
▁munic	-6968
BO	-6969
zu	-6970
esh	-6971
▁1%	-6972
▁gw	-6973
▁15.	-6974
▁FDA	-6975
▁Kap	-6976
▁Key	-6977
▁SUV	-6978
▁boo	-6979
▁dde	-6980
▁dox	-6981
▁ege	-6982
▁eru	-6983
▁ict	-6984
▁sic	-6985
▁spy	-6986
▁Imag	-6987
▁WNBA	-6988
▁efen	-6989
▁eill	-6990
▁eman	-6991
▁neth	-6992
▁orte	-6993
▁rima	-6994
▁tort	-6995
▁tongu	-6996
DC	-6997
DS	-6998
rez	-6999
▁Ib	-7000
▁OL	-7001
▁ael	-7002
▁agi	-7003
▁bhi	-7004
▁god	-7005
▁goo	-7006
▁hey	-7007
▁psy	-7008
▁toe	-7009
▁Kath	-7010
▁anch	-7011
▁arge	-7012
▁heal	-7013
▁heph	-7014
▁holy	-7015
▁homi	-7016
▁ilit	-7017
▁leep	-7018
▁ocat	-7019
▁rres	-7020
▁sius	-7021
▁tide	-7022
▁ules	-7023
▁vell	-7024
▁vict	-7025
▁whop	-7026
▁yank	-7027
▁ynch	-7028
▁Truss	-7029
▁grind	-7030
▁gymna	-7031
▁onven	-7032
▁seizu	-7033
▁waist	-7034
fty	-7035
▁(2	-7036
▁MC	-7037
▁SS	-7038
▁UE	-7039
▁zy	-7040
▁1.5	-7041
▁11.	-7042
▁80%	-7043
▁Che	-7044
▁Cre	-7045
▁ICE	-7046
▁Lot	-7047
▁gia	-7048
▁gov	-7049
▁hij	-7050
▁kay	-7051
▁nua	-7052
▁rer	-7053
▁toy	-7054
▁NASC	-7055
▁alsh	-7056
▁dget	-7057
▁drum	-7058
▁eant	-7059
▁hird	-7060
▁llan	-7061
▁mush	-7062
▁onor	-7063
▁orie	-7064
▁ssue	-7065
▁toss	-7066
▁tube	-7067
▁entur	-7068
▁itize	-7069
▁mmend	-7070
▁76	-7071
▁DI	-7072
▁IA	-7073
▁Mb	-7074
▁XI	-7075
▁dj	-7076
▁Dur	-7077
▁ERA	-7078
▁Ray	-7079
▁gag	-7080
▁lve	-7081
▁udy	-7082
▁yeh	-7083
▁aver	-7084
▁dear	-7085
▁eral	-7086
▁homo	-7087
▁itor	-7088
▁navy	-7089
▁ober	-7090
▁oles	-7091
▁trem	-7092
▁Count	-7093
▁orter	-7094
▁sleev	-7095
▁viden	-7096
PD	-7097
PR	-7098
▁։	-7099
itt	-7100
▁AG	-7101
▁HR	-7102
▁Yu	-7103
▁zo	-7104
▁120	-7105
▁EVs	-7106
▁Nat	-7107
▁Oil	-7108
▁Roe	-7109
▁apa	-7110
▁dai	-7111
▁edg	-7112
▁fig	-7113
▁hid	-7114
▁iew	-7115
▁igg	-7116
▁rne	-7117
▁rtu	-7118
▁tay	-7119
▁adde	-7120
▁enis	-7121
▁erum	-7122
▁fati	-7123
▁kini	-7124
▁omed	-7125
▁orti	-7126
▁oura	-7127
▁reep	-7128
▁rowd	-7129
▁sche	-7130
▁scus	-7131
▁uppl	-7132
▁Niger	-7133
▁essay	-7134
▁falsi	-7135
▁heren	-7136
▁metri	-7137
▁nthem	-7138
▁reven	-7139
▁stonb	-7140
▁trait	-7141
▁uther	-7142
bi	-7143
▁61	-7144
▁BB	-7145
▁CDC	-7146
▁cos	-7147
▁gie	-7148
▁rbo	-7149
▁sno	-7150
▁uki	-7151
▁wes	-7152
▁hung	-7153
▁idge	-7154
▁matt	-7155
▁mois	-7156
▁ncou	-7157
▁ounc	-7158
▁uing	-7159
▁ural	-7160
▁Trevo	-7161
▁anded	-7162
▁artha	-7163
▁eturn	-7164
▁iscov	-7165
▁retir	-7166
▁seize	-7167
Do	-7168
HS	-7169
tt	-7170
ատ	-7171
chi	-7172
lar	-7173
▁5%	-7174
▁68	-7175
▁ANC	-7176
▁NHL	-7177
▁UAE	-7178
▁Ver	-7179
▁abe	-7180
▁gaz	-7181
▁itl	-7182
▁rup	-7183
▁rva	-7184
▁zoo	-7185
▁Cher	-7186
▁arty	-7187
▁fort	-7188
▁ggle	-7189
▁lobe	-7190
▁nage	-7191
▁asser	-7192
▁enzie	-7193
▁ished	-7194
▁tease	-7195
▁urder	-7196
-4	-7197
OW	-7198
Of	-7199
yo	-7200
ás	-7201
▁71	-7202
▁uf	-7203
▁36,	-7204
▁Tel	-7205
▁Uga	-7206
▁Way	-7207
▁epa	-7208
▁hay	-7209
▁hus	-7210
▁moo	-7211
▁nso	-7212
▁obs	-7213
▁alin	-7214
▁ante	-7215
▁cted	-7216
▁damp	-7217
▁earl	-7218
▁ianc	-7219
▁lade	-7220
▁mela	-7221
▁ploy	-7222
▁stag	-7223
▁dread	-7224
▁nther	-7225
▁wenty	-7226
PC	-7227
մա	-7228
ORK	-7229
▁$4	-7230
▁59	-7231
▁CM	-7232
▁OB	-7233
▁wb	-7234
▁600	-7235
▁YOU	-7236
▁aum	-7237
▁ayl	-7238
▁ige	-7239
▁ilo	-7240
▁urt	-7241
▁UEFA	-7242
▁aceu	-7243
▁duck	-7244
▁erfu	-7245
▁feld	-7246
▁knot	-7247
▁ncia	-7248
▁nual	-7249
▁olla	-7250
▁runo	-7251
▁ollar	-7252
▁spike	-7253
An	-7254
asp	-7255
ric	-7256
ուն	-7257
▁AU	-7258
▁NR	-7259
▁iS	-7260
▁oz	-7261
▁16.	-7262
▁18.	-7263
▁GMT	-7264
▁Had	-7265
▁Has	-7266
▁Pea	-7267
▁eci	-7268
▁eso	-7269
▁iff	-7270
▁mpl	-7271
▁nos	-7272
▁oar	-7273
▁ogy	-7274
▁uss	-7275
▁alli	-7276
▁ardy	-7277
▁ashv	-7278
▁dime	-7279
▁dore	-7280
▁dvis	-7281
▁meme	-7282
▁nita	-7283
▁onda	-7284
▁rkan	-7285
▁sane	-7286
▁unde	-7287
▁urve	-7288
▁ynth	-7289
▁likel	-7290
▁oetry	-7291
▁oning	-7292
▁orced	-7293
▁resse	-7294
▁rrent	-7295
▁sexua	-7296
▁toast	-7297
CH	-7298
ակ	-7299
had	-7300
yer	-7301
▁EN	-7302
▁որ	-7303
▁34,	-7304
▁AND	-7305
▁Bad	-7306
▁Cat	-7307
▁Got	-7308
▁RAM	-7309
▁RHP	-7310
▁TON	-7311
▁VAR	-7312
▁WAS	-7313
▁aks	-7314
▁cop	-7315
▁lvi	-7316
▁oel	-7317
▁rth	-7318
▁ains	-7319
▁crat	-7320
▁emic	-7321
▁endi	-7322
▁gush	-7323
▁icky	-7324
▁ikel	-7325
▁inek	-7326
▁lini	-7327
▁mpic	-7328
▁pira	-7329
▁pted	-7330
▁rtis	-7331
▁shit	-7332
▁tles	-7333
▁INDIA	-7334
▁ayner	-7335
▁drobe	-7336
▁ictor	-7337
▁isten	-7338
▁longe	-7339
▁negar	-7340
▁ntend	-7341
▁peare	-7342
By	-7343
TY	-7344
eta	-7345
▁3%	-7346
▁DE	-7347
▁Dy	-7348
▁ES	-7349
▁FE	-7350
▁TD	-7351
▁cm	-7352
▁£4	-7353
▁20.	-7354
▁Alt	-7355
▁Bal	-7356
▁Ill	-7357
▁NGO	-7358
▁Sto	-7359
▁dug	-7360
▁mbe	-7361
▁neo	-7362
▁nit	-7363
▁rsi	-7364
▁slu	-7365
▁som	-7366
▁vit	-7367
▁ddre	-7368
▁deer	-7369
▁emon	-7370
▁ente	-7371
▁esar	-7372
▁evel	-7373
▁evol	-7374
▁feat	-7375
▁garh	-7376
▁hypo	-7377
▁inni	-7378
▁lope	-7379
▁nail	-7380
▁nama	-7381
▁oine	-7382
▁oren	-7383
▁sinc	-7384
▁vian	-7385
▁distr	-7386
▁flies	-7387
kh	-7388
▁í	-7389
isu	-7390
sey	-7391
▁81	-7392
▁83	-7393
▁BR	-7394
▁TU	-7395
▁Wy	-7396
▁mud	-7397
▁sth	-7398
▁Flor	-7399
▁YORK	-7400
▁ahon	-7401
▁anit	-7402
▁eatu	-7403
▁esel	-7404
▁fade	-7405
▁helm	-7406
▁igna	-7407
▁ladd	-7408
▁lanc	-7409
▁mera	-7410
▁oria	-7411
▁pill	-7412
▁rope	-7413
▁upre	-7414
▁antha	-7415
▁debat	-7416
▁fecti	-7417
▁ither	-7418
▁leksa	-7419
▁longs	-7420
▁secut	-7421
▁stard	-7422
▁urviv	-7423
WS	-7424
ron	-7425
▁cé	-7426
▁nh	-7427
▁DOJ	-7428
▁dip	-7429
▁efu	-7430
▁hee	-7431
▁nho	-7432
▁oze	-7433
▁yne	-7434
▁chae	-7435
▁dupe	-7436
▁ecog	-7437
▁fool	-7438
▁istu	-7439
▁nati	-7440
▁oise	-7441
▁saac	-7442
▁vape	-7443
▁ndica	-7444
▁nspir	-7445
▁stapl	-7446
▁thens	-7447
▁ummar	-7448
-6	-7449
ik	-7450
asa	-7451
cey	-7452
ota	-7453
▁Ke	-7454
▁PP	-7455
▁cz	-7456
▁AFL	-7457
▁ARE	-7458
▁Dam	-7459
▁Guj	-7460
▁Ice	-7461
▁ODI	-7462
▁Tan	-7463
▁bud	-7464
▁mmu	-7465
▁poi	-7466
▁ում	-7467
▁chal	-7468
▁dazz	-7469
▁dose	-7470
▁eave	-7471
▁enka	-7472
▁erez	-7473
▁etsk	-7474
▁gade	-7475
▁gita	-7476
▁lida	-7477
▁lint	-7478
▁lori	-7479
▁nise	-7480
▁nite	-7481
▁ntag	-7482
▁oath	-7483
▁oble	-7484
▁ocks	-7485
▁onth	-7486
▁orma	-7487
▁redo	-7488
▁ruck	-7489
▁tati	-7490
▁istol	-7491
▁itted	-7492
▁perfo	-7493
▁proba	-7494
▁slide	-7495
▁stian	-7496
▁tella	-7497
GB	-7498
IL	-7499
են	-7500
amy	-7501
▁(3	-7502
▁82	-7503
▁DU	-7504
▁uj	-7505
mond	-7506
▁AFC	-7507
▁ETF	-7508
▁HIV	-7509
▁IOC	-7510
▁IVF	-7511
▁eke	-7512
▁gat	-7513
▁ohn	-7514
▁oic	-7515
▁rpe	-7516
▁tif	-7517
▁wol	-7518
▁Coll	-7519
▁anie	-7520
▁appe	-7521
▁ecla	-7522
▁ncie	-7523
▁outi	-7524
▁resu	-7525
▁rjun	-7526
▁taka	-7527
▁ardik	-7528
▁asina	-7529
▁awyer	-7530
▁criti	-7531
▁estio	-7532
▁grasp	-7533
▁opped	-7534
▁oriti	-7535
▁ouble	-7536
▁pendi	-7537
▁regar	-7538
▁rsion	-7539
▁tacey	-7540
▁ydera	-7541
Ah	-7542
RG	-7543
xi	-7544
▁°	-7545
▁$10	-7546
▁30%	-7547
▁30.	-7548
▁35,	-7549
▁37,	-7550
▁50,	-7551
▁Gun	-7552
▁Lea	-7553
▁Mum	-7554
▁alw	-7555
▁asy	-7556
▁ció	-7557
▁dva	-7558
▁dys	-7559
▁ipt	-7560
▁iza	-7561
▁ocr	-7562
▁pad	-7563
▁arus	-7564
▁aves	-7565
▁cite	-7566
▁comb	-7567
▁lier	-7568
▁llon	-7569
▁lude	-7570
▁ntel	-7571
▁pact	-7572
▁rmal	-7573
▁tyle	-7574
▁xplo	-7575
▁ecord	-7576
▁fried	-7577
▁horeo	-7578
▁leach	-7579
▁leisu	-7580
▁lejan	-7581
▁londe	-7582
▁nched	-7583
▁oment	-7584
▁twins	-7585
FF	-7586
▁■	-7587
ERS	-7588
aro	-7589
▁AK	-7590
▁EM	-7591
▁RC	-7592
▁RF	-7593
▁TM	-7594
▁mg	-7595
▁15%	-7596
▁33,	-7597
▁38,	-7598
▁Lab	-7599
▁Pep	-7600
▁Pic	-7601
▁Thu	-7602
▁WNS	-7603
▁mAh	-7604
▁vap	-7605
▁zak	-7606
▁arse	-7607
▁avor	-7608
▁cree	-7609
▁eena	-7610
▁fici	-7611
▁fond	-7612
▁hode	-7613
▁ifie	-7614
▁indy	-7615
▁itis	-7616
▁itua	-7617
▁mmel	-7618
▁mous	-7619
▁neat	-7620
▁qual	-7621
▁reet	-7622
▁ssip	-7623
▁uhan	-7624
▁unni	-7625
▁anyon	-7626
▁istry	-7627
▁raper	-7628
▁shwin	-7629
▁sourc	-7630
▁traya	-7631
▁uprem	-7632
▁ymond	-7633
AL	-7634
AM	-7635
ane	-7636
jee	-7637
oby	-7638
ung	-7639
▁4%	-7640
ster	-7641
▁2.5	-7642
▁70%	-7643
▁800	-7644
▁atc	-7645
▁cea	-7646
▁eno	-7647
▁nno	-7648
▁pok	-7649
▁rdi	-7650
▁rya	-7651
▁tis	-7652
▁£10	-7653
▁LIVE	-7654
▁aree	-7655
▁arma	-7656
▁gues	-7657
▁isse	-7658
▁loot	-7659
▁lves	-7660
▁ordi	-7661
▁rtic	-7662
▁tyre	-7663
▁vels	-7664
▁arvel	-7665
▁champ	-7666
▁feath	-7667
▁lette	-7668
▁ogram	-7669
▁onduc	-7670
▁rents	-7671
▁sitiv	-7672
▁swamy	-7673
▁tsuna	-7674
HD	-7675
▁$9	-7676
▁6%	-7677
▁86	-7678
▁IB	-7679
▁RB	-7680
▁dé	-7681
▁40,	-7682
▁911	-7683
▁Bed	-7684
▁ION	-7685
▁TNT	-7686
▁Try	-7687
▁aru	-7688
▁bil	-7689
▁iOS	-7690
▁lym	-7691
▁ntr	-7692
▁rns	-7693
▁aces	-7694
▁alon	-7695
▁arey	-7696
▁dare	-7697
▁eque	-7698
▁hunk	-7699
▁inge	-7700
▁iole	-7701
▁ioni	-7702
▁naco	-7703
▁nude	-7704
▁onia	-7705
▁ooki	-7706
▁otal	-7707
▁ters	-7708
▁tray	-7709
▁wedi	-7710
▁andid	-7711
▁hated	-7712
▁itors	-7713
▁litar	-7714
▁nsive	-7715
▁rdina	-7716
▁rticl	-7717
▁stort	-7718
-5	-7719
PM	-7720
ño	-7721
▁ծ	-7722
gna	-7723
nda	-7724
▁(4	-7725
▁98	-7726
▁EE	-7727
▁FO	-7728
▁Je	-7729
▁42,	-7730
▁90%	-7731
▁Age	-7732
▁DNC	-7733
▁Fre	-7734
▁Kno	-7735
▁Ola	-7736
▁Sex	-7737
▁kis	-7738
▁rvi	-7739
▁sby	-7740
▁sou	-7741
▁athl	-7742
▁cono	-7743
▁erab	-7744
▁genc	-7745
▁hash	-7746
▁lows	-7747
▁nesh	-7748
▁odel	-7749
▁ripe	-7750
▁roxy	-7751
▁tcom	-7752
▁mster	-7753
▁ncial	-7754
▁ourag	-7755
▁renna	-7756
▁rglar	-7757
▁tione	-7758
HA	-7759
Ps	-7760
ետ	-7761
▁©	-7762
▁É	-7763
▁ö	-7764
▁ü	-7765
SCO	-7766
usk	-7767
▁$7	-7768
▁1/	-7769
▁LO	-7770
▁tM	-7771
▁td	-7772
▁zu	-7773
▁32,	-7774
▁Dow	-7775
▁McB	-7776
▁azz	-7777
▁etr	-7778
▁gul	-7779
▁ibu	-7780
▁oba	-7781
▁pus	-7782
▁udg	-7783
▁Zone	-7784
▁arla	-7785
▁bend	-7786
▁bolt	-7787
▁egre	-7788
▁endy	-7789
▁esty	-7790
▁itiv	-7791
▁levy	-7792
▁orro	-7793
▁rake	-7794
▁reen	-7795
▁uded	-7796
▁vili	-7797
▁agner	-7798
▁armer	-7799
▁erjee	-7800
▁ermin	-7801
▁hefty	-7802
▁heric	-7803
▁lmond	-7804
▁ommun	-7805
ku	-7806
ես	-7807
▁շ	-7808
oda	-7809
tor	-7810
▁Am	-7811
▁CV	-7812
▁DM	-7813
▁Jh	-7814
▁£7	-7815
▁ía	-7816
▁25%	-7817
▁700	-7818
▁Ear	-7819
▁FAA	-7820
▁IMF	-7821
▁LED	-7822
▁Sue	-7823
▁bey	-7824
▁ccu	-7825
▁cov	-7826
▁dha	-7827
▁idu	-7828
▁jam	-7829
▁lai	-7830
▁nei	-7831
▁tba	-7832
▁uge	-7833
▁wee	-7834
▁ande	-7835
▁awar	-7836
▁eine	-7837
▁feit	-7838
▁fork	-7839
▁gray	-7840
▁grin	-7841
▁hali	-7842
▁hart	-7843
▁hygi	-7844
▁lein	-7845
▁noma	-7846
▁omez	-7847
▁sert	-7848
▁andya	-7849
▁ardin	-7850
▁dhere	-7851
▁frain	-7852
▁inted	-7853
▁lings	-7854
▁mploy	-7855
▁ngana	-7856
▁rtial	-7857
▁spill	-7858
▁urora	-7859
▁թյուն	-7860
yi	-7861
ano	-7862
cha	-7863
▁88	-7864
▁92	-7865
▁93	-7866
▁DW	-7867
▁Ir	-7868
▁MB	-7869
▁SM	-7870
▁UG	-7871
lica	-7872
▁1-1	-7873
▁19.	-7874
▁21.	-7875
▁CBI	-7876
▁Due	-7877
▁HBO	-7878
▁Mea	-7879
▁Por	-7880
▁Sho	-7881
▁Sim	-7882
▁VIP	-7883
▁dve	-7884
▁eac	-7885
▁kar	-7886
▁lga	-7887
▁nex	-7888
▁nro	-7889
▁nzo	-7890
▁rci	-7891
▁wat	-7892
▁ynn	-7893
▁FIFA	-7894
▁Trud	-7895
▁agar	-7896
▁aher	-7897
▁aisy	-7898
▁athy	-7899
▁ceme	-7900
▁eane	-7901
▁efer	-7902
▁emma	-7903
▁erná	-7904
▁esto	-7905
▁hock	-7906
▁iffe	-7907
▁lite	-7908
▁nato	-7909
▁ncin	-7910
▁oste	-7911
▁ptur	-7912
▁rass	-7913
▁yder	-7914
▁alway	-7915
▁andra	-7916
▁ankar	-7917
▁dried	-7918
▁figur	-7919
▁grove	-7920
▁nsume	-7921
▁restr	-7922
▁rment	-7923
▁shelf	-7924
▁spine	-7925
▁stopp	-7926
▁uster	-7927
ND	-7928
uk	-7929
կա	-7930
▁ց	-7931
ICS	-7932
adh	-7933
pez	-7934
ste	-7935
▁FS	-7936
▁jp	-7937
▁kr	-7938
▁17.	-7939
▁3-1	-7940
▁DIY	-7941
▁EPA	-7942
▁RNC	-7943
▁Tax	-7944
▁USS	-7945
▁api	-7946
▁hom	-7947
▁hwa	-7948
▁iqu	-7949
▁lis	-7950
▁meo	-7951
▁pox	-7952
▁rtm	-7953
▁tem	-7954
▁woo	-7955
▁ype	-7956
▁ISIS	-7957
▁Time	-7958
▁Tina	-7959
▁abwe	-7960
▁ctri	-7961
▁curi	-7962
▁dani	-7963
▁elve	-7964
▁fani	-7965
▁fron	-7966
▁gart	-7967
▁guar	-7968
▁ippe	-7969
▁lynn	-7970
▁mint	-7971
▁mora	-7972
▁nmen	-7973
▁orge	-7974
▁rane	-7975
▁reca	-7976
▁rton	-7977
▁soli	-7978
▁yrne	-7979
▁ópez	-7980
▁Tracy	-7981
▁anjay	-7982
▁esley	-7983
▁ettle	-7984
▁grabs	-7985
▁iktor	-7986
▁prima	-7987
▁vendo	-7988
▁volve	-7989
EL	-7990
ab	-7991
wy	-7992
asi	-7993
nik	-7994
▁69	-7995
▁7%	-7996
▁AA	-7997
▁GO	-7998
▁Il	-7999
▁RM	-8000
▁Xa	-8001
▁29.	-8002
▁Boy	-8003
▁Cox	-8004
▁Kit	-8005
▁Lib	-8006
▁Wes	-8007
▁evy	-8008
▁hia	-8009
▁hob	-8010
▁ilk	-8011
▁lys	-8012
▁pas	-8013
▁rli	-8014
▁thw	-8015
▁tiz	-8016
▁tob	-8017
▁bent	-8018
▁cher	-8019
▁deta	-8020
▁eavy	-8021
▁envi	-8022
▁eren	-8023
▁fere	-8024
▁herd	-8025
▁icks	-8026
▁kash	-8027
▁lici	-8028
▁neph	-8029
▁nies	-8030
▁njur	-8031
▁noon	-8032
▁orgi	-8033
▁orre	-8034
▁ourn	-8035
▁slew	-8036
▁ulga	-8037
▁yoga	-8038
▁թյան	-8039
▁alman	-8040
▁mente	-8041
▁ourth	-8042
▁rever	-8043
▁secon	-8044
ei	-8045
ago	-8046
ero	-8047
oro	-8048
▁84	-8049
▁GT	-8050
▁NL	-8051
▁PF	-8052
▁PG	-8053
▁PH	-8054
▁WS	-8055
▁4-0	-8056
▁GPS	-8057
▁Kay	-8058
▁USB	-8059
▁VAT	-8060
▁aud	-8061
▁awk	-8062
▁bby	-8063
▁bla	-8064
▁dwi	-8065
▁ofi	-8066
▁ryo	-8067
▁Texa	-8068
▁abel	-8069
▁acer	-8070
▁acks	-8071
▁amir	-8072
▁anto	-8073
▁atio	-8074
▁etby	-8075
▁eyer	-8076
▁heet	-8077
▁nana	-8078
▁obel	-8079
▁offi	-8080
▁omat	-8081
▁otti	-8082
▁peci	-8083
▁rene	-8084
▁shaw	-8085
▁skip	-8086
▁tyra	-8087
▁vity	-8088
▁amara	-8089
▁heney	-8090
▁inwar	-8091
▁laine	-8092
▁niper	-8093
▁sleek	-8094
▁tchin	-8095
ña	-8096
▁―	-8097
ell	-8098
ida	-8099
tok	-8100
▁AB	-8101
▁Gr	-8102
▁OT	-8103
▁SH	-8104
▁sf	-8105
▁sz	-8106
▁£8	-8107
▁48,	-8108
▁737	-8109
▁Bee	-8110
▁Guy	-8111
▁ddy	-8112
▁dli	-8113
▁ggl	-8114
▁iki	-8115
▁oge	-8116
▁ogi	-8117
▁rro	-8118
▁Coun	-8119
▁arga	-8120
▁atur	-8121
▁eddi	-8122
▁elin	-8123
▁este	-8124
▁igra	-8125
▁ithu	-8126
▁kull	-8127
▁lena	-8128
▁lerk	-8129
▁lico	-8130
▁loat	-8131
▁meli	-8132
▁meri	-8133
▁nath	-8134
▁ples	-8135
▁rica	-8136
▁tead	-8137
▁tria	-8138
▁uton	-8139
▁vine	-8140
▁aggie	-8141
▁arbor	-8142
▁demic	-8143
▁ellar	-8144
▁eller	-8145
▁gotta	-8146
▁ients	-8147
▁iring	-8148
▁mitry	-8149
▁reeze	-8150
▁ssain	-8151
NA	-8152
ín	-8153
▁Á	-8154
▁՝	-8155
▁զ	-8156
ena	-8157
ito	-8158
lan	-8159
▁IG	-8160
▁OU	-8161
▁SC	-8162
▁XL	-8163
▁pd	-8164
▁$50	-8165
▁60,	-8166
▁Fan	-8167
▁Few	-8168
▁Ltd	-8169
▁McE	-8170
▁NOT	-8171
▁PhD	-8172
▁iso	-8173
▁más	-8174
▁nen	-8175
▁sfu	-8176
▁ssy	-8177
▁uds	-8178
▁amar	-8179
▁arbo	-8180
▁ashi	-8181
▁atya	-8182
▁avel	-8183
▁civi	-8184
▁eiss	-8185
▁elea	-8186
▁ergy	-8187
▁holm	-8188
▁hoot	-8189
▁knit	-8190
▁midt	-8191
▁muta	-8192
▁ocus	-8193
▁ostu	-8194
▁ramm	-8195
▁rtan	-8196
▁surg	-8197
▁tiya	-8198
▁wick	-8199
▁woes	-8200
▁wrin	-8201
▁yron	-8202
▁Krake	-8203
▁anana	-8204
▁cloth	-8205
▁denti	-8206
▁enner	-8207
▁llain	-8208
▁nking	-8209
▁ticul	-8210
▁yanka	-8211
TC	-8212
TE	-8213
sy	-8214
ռա	-8215
▁Հ	-8216
hea	-8217
mar	-8218
oto	-8219
psy	-8220
▁(5	-8221
▁87	-8222
▁AJ	-8223
▁GA	-8224
▁UW	-8225
▁WE	-8226
▁այ	-8227
▁եր	-8228
▁ին	-8229
▁$30	-8230
▁14.	-8231
▁ALL	-8232
▁Com	-8233
▁HEL	-8234
▁RSF	-8235
▁Son	-8236
▁alv	-8237
▁esa	-8238
▁fea	-8239
▁lun	-8240
▁nad	-8241
▁omy	-8242
▁ows	-8243
▁raf	-8244
▁rgu	-8245
▁rha	-8246
▁var	-8247
▁vat	-8248
▁Toby	-8249
▁WASH	-8250
▁abar	-8251
▁asco	-8252
▁bore	-8253
▁clad	-8254
▁dumb	-8255
▁engu	-8256
▁iall	-8257
▁igns	-8258
▁ince	-8259
▁mpox	-8260
▁nagh	-8261
▁nald	-8262
▁olde	-8263
▁raci	-8264
▁rbyn	-8265
▁rcel	-8266
▁rkas	-8267
▁rogr	-8268
▁rous	-8269
▁summ	-8270
▁vere	-8271
▁eflec	-8272
▁feast	-8273
▁ickey	-8274
▁itish	-8275
▁leged	-8276
▁munit	-8277
▁perso	-8278
▁tread	-8279
▁uffer	-8280
▁wheat	-8281
NG	-8282
ez	-8283
mu	-8284
nu	-8285
▁₹	-8286
ayo	-8287
olt	-8288
rey	-8289
uti	-8290
▁DP	-8291
▁HP	-8292
▁MD	-8293
▁NO	-8294
▁Rh	-8295
▁SD	-8296
▁bh	-8297
▁24.	-8298
▁CIA	-8299
▁McF	-8300
▁Sox	-8301
▁Zoe	-8302
▁aly	-8303
▁ffo	-8304
▁gin	-8305
▁hec	-8306
▁ika	-8307
▁lts	-8308
▁nju	-8309
▁nyl	-8310
▁obe	-8311
▁ssu	-8312
▁Disp	-8313
▁Send	-8314
▁aded	-8315
▁akin	-8316
▁alen	-8317
▁aran	-8318
▁arme	-8319
▁asin	-8320
▁atte	-8321
▁dere	-8322
▁djac	-8323
▁evea	-8324
▁fist	-8325
▁kers	-8326
▁litt	-8327
▁lson	-8328
▁melo	-8329
▁mmar	-8330
▁mple	-8331
▁nada	-8332
▁orch	-8333
▁oric	-8334
▁rned	-8335
▁sank	-8336
▁sery	-8337
▁skar	-8338
▁ssen	-8339
▁stak	-8340
▁thos	-8341
▁anter	-8342
▁epend	-8343
▁illon	-8344
▁milli	-8345
▁mprov	-8346
▁otent	-8347
▁tland	-8348
▁ukesh	-8349
Mr	-8350
bh	-8351
ած	-8352
CCI	-8353
gno	-8354
oun	-8355
▁$8	-8356
▁96	-8357
▁Ag	-8358
▁BY	-8359
▁CG	-8360
▁EL	-8361
▁Ev	-8362
▁KK	-8363
▁NS	-8364
▁TB	-8365
▁TS	-8366
▁WI	-8367
▁fs	-8368
well	-8369
▁$20	-8370
▁28.	-8371
▁BMW	-8372
▁Bha	-8373
▁Fah	-8374
▁Hyd	-8375
▁Inn	-8376
▁PSG	-8377
▁Ric	-8378
▁Zoo	-8379
▁col	-8380
▁cyc	-8381
▁egu	-8382
▁elu	-8383
▁fou	-8384
▁ieb	-8385
▁jpg	-8386
▁kra	-8387
▁kur	-8388
▁sol	-8389
▁soy	-8390
▁wyn	-8391
▁Katy	-8392
▁eliv	-8393
▁ffen	-8394
▁haun	-8395
▁heit	-8396
▁icki	-8397
▁kate	-8398
▁lagg	-8399
▁lata	-8400
▁louc	-8401
▁ncho	-8402
▁njoy	-8403
▁omeo	-8404
▁ondi	-8405
▁oran	-8406
▁pris	-8407
▁roke	-8408
▁sini	-8409
▁ssia	-8410
▁stel	-8411
▁unta	-8412
▁wart	-8413
▁worm	-8414
▁xtra	-8415
▁BRICS	-8416
▁cienc	-8417
▁ediat	-8418
▁emper	-8419
▁facto	-8420
▁khtar	-8421
▁requi	-8422
▁steak	-8423
Ms	-8424
▁Ե	-8425
ato	-8426
ghu	-8427
hol	-8428
neu	-8429
rus	-8430
▁CI	-8431
▁IL	-8432
▁LP	-8433
▁OC	-8434
▁SO	-8435
▁TO	-8436
▁UF	-8437
▁VI	-8438
▁eB	-8439
▁ան	-8440
▁130	-8441
▁BET	-8442
▁Dem	-8443
▁FIR	-8444
▁LIV	-8445
▁Ras	-8446
▁cad	-8447
▁dle	-8448
▁fog	-8449
▁ius	-8450
▁mea	-8451
▁ngk	-8452
▁pac	-8453
▁tma	-8454
▁vai	-8455
▁wit	-8456
▁ADHD	-8457
▁HMRC	-8458
▁NYPD	-8459
▁arle	-8460
▁chai	-8461
▁heed	-8462
▁heli	-8463
▁ivek	-8464
▁limp	-8465
▁magi	-8466
▁meni	-8467
▁nked	-8468
▁nock	-8469
▁nolo	-8470
▁olby	-8471
▁perm	-8472
▁pher	-8473
▁prim	-8474
▁rbor	-8475
▁rove	-8476
▁snub	-8477
▁spel	-8478
▁sser	-8479
▁trim	-8480
▁uest	-8481
▁urit	-8482
▁usta	-8483
▁wool	-8484
▁zakh	-8485
▁achin	-8486
▁eanor	-8487
▁ernic	-8488
▁gyang	-8489
▁inder	-8490
▁iyadh	-8491
▁nough	-8492
▁nstru	-8493
▁olenc	-8494
▁proof	-8495
▁ragma	-8496
▁spice	-8497
▁tasha	-8498
▁à	-8499
▁ջ	-8500
pen	-8501
▁HO	-8502
▁Hz	-8503
▁sq	-8504
▁té	-8505
▁xe	-8506
▁£6	-8507
▁2.3	-8508
▁23.	-8509
▁31.	-8510
▁Arm	-8511
▁Buy	-8512
▁COP	-8513
▁Chr	-8514
▁Dog	-8515
▁Hur	-8516
▁IRA	-8517
▁NCP	-8518
▁NFC	-8519
▁Nga	-8520
▁Pay	-8521
▁Pil	-8522
▁REN	-8523
▁WSL	-8524
▁afi	-8525
▁anD	-8526
▁aza	-8527
▁bug	-8528
▁erw	-8529
▁lte	-8530
▁mae	-8531
▁odu	-8532
▁rgy	-8533
▁abba	-8534
▁ampl	-8535
▁attr	-8536
▁dera	-8537
▁dine	-8538
▁edar	-8539
▁erva	-8540
▁fuss	-8541
▁gutt	-8542
▁hier	-8543
▁keta	-8544
▁lenn	-8545
▁lkin	-8546
▁nflu	-8547
▁oces	-8548
▁othi	-8549
▁pora	-8550
▁rban	-8551
▁roar	-8552
▁surp	-8553
▁tate	-8554
▁thel	-8555
▁tomb	-8556
▁ydia	-8557
▁ailor	-8558
▁anata	-8559
▁endor	-8560
▁ergen	-8561
▁ervic	-8562
▁etiti	-8563
▁hanne	-8564
▁ibute	-8565
▁lyric	-8566
▁nahan	-8567
▁ollen	-8568
▁owers	-8569
▁tigma	-8570
▁tooth	-8571
▁veget	-8572
).	-8573
AI	-8574
HT	-8575
NC	-8576
lin	-8577
▁#1	-8578
▁89	-8579
▁PB	-8580
▁TC	-8581
▁kk	-8582
▁xx	-8583
▁մի	-8584
▁43,	-8585
▁Aid	-8586
▁Joy	-8587
▁MLA	-8588
▁MTV	-8589
▁VER	-8590
▁hil	-8591
▁ibb	-8592
▁ips	-8593
▁izz	-8594
▁jar	-8595
▁nef	-8596
▁nki	-8597
▁raj	-8598
▁rov	-8599
▁sil	-8600
▁sow	-8601
▁tox	-8602
▁wow	-8603
▁BCCI	-8604
▁ESCO	-8605
▁acha	-8606
▁aris	-8607
▁boob	-8608
▁cers	-8609
▁claw	-8610
▁dama	-8611
▁dega	-8612
▁elet	-8613
▁enty	-8614
▁erve	-8615
▁evie	-8616
▁fury	-8617
▁honi	-8618
▁kara	-8619
▁lans	-8620
▁mero	-8621
▁rift	-8622
▁runa	-8623
▁smal	-8624
▁trek	-8625
▁trom	-8626
▁ugge	-8627
▁ultu	-8628
▁despi	-8629
▁disha	-8630
▁hoard	-8631
▁hobby	-8632
▁ician	-8633
▁infor	-8634
▁oving	-8635
▁pdate	-8636
▁scort	-8637
▁vance	-8638
▁vatar	-8639
EM	-8640
▁փ	-8641
bon	-8642
hel	-8643
leb	-8644
wic	-8645
▁CR	-8646
▁EA	-8647
▁EP	-8648
▁NF	-8649
▁NW	-8650
▁án	-8651
pect	-8652
▁180	-8653
▁DEI	-8654
▁DWP	-8655
▁FOR	-8656
▁FOX	-8657
▁Hit	-8658
▁Int	-8659
▁Kab	-8660
▁Led	-8661
▁Mom	-8662
▁NRL	-8663
▁PRE	-8664
▁Pod	-8665
▁cum	-8666
▁ecl	-8667
▁eho	-8668
▁eks	-8669
▁fau	-8670
▁fox	-8671
▁kan	-8672
▁sio	-8673
▁uka	-8674
▁upp	-8675
▁ync	-8676
▁Kari	-8677
▁Pari	-8678
▁amou	-8679
▁asan	-8680
▁atek	-8681
▁aunc	-8682
▁berg	-8683
▁dida	-8684
▁dres	-8685
▁elgo	-8686
▁etin	-8687
▁hoke	-8688
▁hype	-8689
▁lamp	-8690
▁lana	-8691
▁latt	-8692
▁lazy	-8693
▁leed	-8694
▁lmar	-8695
▁ltan	-8696
▁mpan	-8697
▁nell	-8698
▁nook	-8699
▁nroe	-8700
▁onny	-8701
▁pest	-8702
▁plet	-8703
▁prit	-8704
▁ranc	-8705
▁tudy	-8706
▁umza	-8707
▁Macdo	-8708
▁assie	-8709
▁ching	-8710
▁estro	-8711
▁etire	-8712
▁ewelr	-8713
▁ffect	-8714
▁grunt	-8715
▁heeky	-8716
▁kshay	-8717
▁nefit	-8718
▁ortho	-8719
▁osley	-8720
▁raine	-8721
▁ssanc	-8722
▁xpect	-8723
GE	-8724
oh	-8725
▁ú	-8726
hei	-8727
mru	-8728
oti	-8729
yll	-8730
▁2:	-8731
▁9%	-8732
▁CT	-8733
▁CU	-8734
▁DV	-8735
▁TT	-8736
▁Yi	-8737
▁rz	-8738
▁xa	-8739
▁մա	-8740
▁13%	-8741
▁25.	-8742
▁3-2	-8743
▁45,	-8744
▁49,	-8745
▁59,	-8746
▁61,	-8747
▁900	-8748
▁CPS	-8749
▁CSK	-8750
▁Fin	-8751
▁IRS	-8752
▁Kai	-8753
▁LSU	-8754
▁MAX	-8755
▁MLS	-8756
▁Mys	-8757
▁Pet	-8758
▁USD	-8759
▁VII	-8760
▁aji	-8761
▁aun	-8762
▁cub	-8763
▁eha	-8764
▁isk	-8765
▁oye	-8766
▁tou	-8767
▁yme	-8768
▁ynt	-8769
▁Hyde	-8770
▁Kano	-8771
▁acle	-8772
▁ader	-8773
▁alki	-8774
▁amed	-8775
▁amic	-8776
▁asca	-8777
▁bake	-8778
▁cier	-8779
▁comf	-8780
▁damn	-8781
▁eepi	-8782
▁erch	-8783
▁erde	-8784
▁ered	-8785
▁hama	-8786
▁imen	-8787
▁ingo	-8788
▁lito	-8789
▁loft	-8790
▁mita	-8791
▁onti	-8792
▁pert	-8793
▁prod	-8794
▁rvel	-8795
▁shir	-8796
▁ssan	-8797
▁tona	-8798
▁trat	-8799
▁urne	-8800
▁velt	-8801
▁volt	-8802
▁watt	-8803
▁Cyrus	-8804
▁Kapil	-8805
▁Kapla	-8806
▁anged	-8807
▁celeb	-8808
▁ennon	-8809
▁fluen	-8810
▁incid	-8811
▁leeve	-8812
▁ochul	-8813
▁redic	-8814
▁riter	-8815
▁telly	-8816
▁trand	-8817
▁venti	-8818
Be	-8819
gs	-8820
wu	-8821
խա	-8822
eno	-8823
fer	-8824
gra	-8825
ker	-8826
▁#2	-8827
▁DR	-8828
▁Er	-8829
▁OF	-8830
▁Pl	-8831
▁RR	-8832
▁yw	-8833
▁են	-8834
▁կա	-8835
anye	-8836
▁47,	-8837
▁Cle	-8838
▁Fro	-8839
▁Gus	-8840
▁LSO	-8841
▁Leo	-8842
▁PDP	-8843
▁PTS	-8844
▁Pan	-8845
▁RFK	-8846
▁aja	-8847
▁dhi	-8848
▁nks	-8849
▁oja	-8850
▁oki	-8851
▁ovi	-8852
▁sem	-8853
▁ucc	-8854
▁uha	-8855
▁ARET	-8856
▁Dyna	-8857
▁MARG	-8858
▁RENN	-8859
▁adge	-8860
▁ainz	-8861
▁aise	-8862
▁ancé	-8863
▁bery	-8864
▁brox	-8865
▁caly	-8866
▁dule	-8867
▁eyen	-8868
▁haka	-8869
▁ikol	-8870
▁ltry	-8871
▁oder	-8872
▁reta	-8873
▁rida	-8874
▁runt	-8875
▁scer	-8876
▁shek	-8877
▁ssid	-8878
▁staf	-8879
▁uddy	-8880
▁uide	-8881
▁wara	-8882
▁wolf	-8883
▁ynne	-8884
▁yson	-8885
▁Fleet	-8886
▁Kanye	-8887
▁ashar	-8888
▁ashma	-8889
▁epsis	-8890
▁erode	-8891
▁euver	-8892
▁glori	-8893
▁ionel	-8894
▁lking	-8895
▁olony	-8896
▁onnec	-8897
▁penin	-8898
▁pulat	-8899
▁reali	-8900
▁riana	-8901
▁ryant	-8902
▁ssein	-8903
▁troke	-8904
▁ukayo	-8905
▁waite	-8906
OO	-8907
▁ձ	-8908
ber	-8909
den	-8910
obb	-8911
▁94	-8912
▁97	-8913
▁AY	-8914
▁IQ	-8915
▁OM	-8916
▁Oz	-8917
▁PT	-8918
▁SB	-8919
▁Sl	-8920
▁110	-8921
▁3.5	-8922
▁52,	-8923
▁53,	-8924
▁54,	-8925
▁57,	-8926
▁AfD	-8927
▁CPI	-8928
▁DUP	-8929
▁Dry	-8930
▁Ivy	-8931
▁KKR	-8932
▁Kar	-8933
▁McV	-8934
▁ONS	-8935
▁RCB	-8936
▁Tur	-8937
▁atz	-8938
▁cto	-8939
▁gid	-8940
▁gil	-8941
▁oké	-8942
▁pag	-8943
▁pex	-8944
▁rix	-8945
▁rub	-8946
▁tef	-8947
▁tut	-8948
▁uiz	-8949
▁yen	-8950
▁£20	-8951
▁Heal	-8952
▁Howe	-8953
▁Xavi	-8954
▁abal	-8955
▁alle	-8956
▁angi	-8957
▁asti	-8958
▁atra	-8959
▁atum	-8960
▁bine	-8961
▁ctua	-8962
▁dele	-8963
▁eone	-8964
▁ezos	-8965
▁fide	-8966
▁gala	-8967
▁hoir	-8968
▁hora	-8969
▁iper	-8970
▁lava	-8971
▁lias	-8972
▁llet	-8973
▁lyde	-8974
▁ogey	-8975
▁osse	-8976
▁pier	-8977
▁rlin	-8978
▁rtyr	-8979
▁shid	-8980
▁shra	-8981
▁ssey	-8982
▁stma	-8983
▁tham	-8984
▁toes	-8985
▁ttor	-8986
▁ainoo	-8987
▁anche	-8988
▁arbon	-8989
▁arity	-8990
▁assey	-8991
▁ehicl	-8992
▁hrain	-8993
▁incre	-8994
▁lemma	-8995
▁llpen	-8996
▁naive	-8997
▁omers	-8998
▁sauna	-8999
▁serie	-9000
▁snook	-9001
▁sthea	-9002
▁ynago	-9003
▁yoghu	-9004
24	-9005
IM	-9006
LP	-9007
LU	-9008
LY	-9009
fL	-9010
bal	-9011
▁(7	-9012
▁(8	-9013
▁79	-9014
▁8%	-9015
▁BP	-9016
▁JJ	-9017
▁MM	-9018
▁MU	-9019
▁OP	-9020
▁QB	-9021
▁1.2	-9022
▁350	-9023
▁44,	-9024
▁ACC	-9025
▁BBQ	-9026
▁Box	-9027
▁Gas	-9028
▁ISS	-9029
▁NER	-9030
▁NYC	-9031
▁Sal	-9032
▁Sep	-9033
▁Yat	-9034
▁aho	-9035
▁coo	-9036
▁erz	-9037
▁gum	-9038
▁hue	-9039
▁nfo	-9040
▁nve	-9041
▁pod	-9042
▁ryn	-9043
▁uno	-9044
▁upe	-9045
▁հետ	-9046
▁ETFs	-9047
▁Mach	-9048
▁NEET	-9049
▁Olaf	-9050
▁Stre	-9051
▁bike	-9052
▁bove	-9053
▁dall	-9054
▁deri	-9055
▁dges	-9056
▁echo	-9057
▁entl	-9058
▁eona	-9059
▁erla	-9060
▁eung	-9061
▁flop	-9062
▁fray	-9063
▁gren	-9064
▁hini	-9065
▁hona	-9066
▁hony	-9067
▁ktok	-9068
▁laya	-9069
▁mage	-9070
▁mati	-9071
▁moor	-9072
▁ntes	-9073
▁onta	-9074
▁prep	-9075
▁ritz	-9076
▁spre	-9077
▁stre	-9078
▁tala	-9079
▁tena	-9080
▁vaga	-9081
▁wain	-9082
▁wess	-9083
▁astry	-9084
▁aveat	-9085
▁erish	-9086
▁essag	-9087
▁helif	-9088
▁measl	-9089
▁melia	-9090
▁narco	-9091
▁nterb	-9092
▁orwic	-9093
▁scara	-9094
▁shabh	-9095
▁sliga	-9096
▁sniff	-9097
▁sthma	-9098
▁stove	-9099
▁tasty	-9100
▁xpert	-9101
IR	-9102
je	-9103
ju	-9104
այ	-9105
⁄2	-9106
▁	-9107
FTA	-9108
TSE	-9109
ene	-9110
lon	-9111
rum	-9112
uth	-9113
▁HQ	-9114
▁aq	-9115
▁cn	-9116
▁ստ	-9117
▁101	-9118
▁26.	-9119
▁4.5	-9120
▁41,	-9121
▁5-0	-9122
▁Bas	-9123
▁CHR	-9124
▁Dad	-9125
▁ERS	-9126
▁GPs	-9127
▁Gan	-9128
▁Gee	-9129
▁Mae	-9130
▁Ple	-9131
▁SIM	-9132
▁SPF	-9133
▁WAT	-9134
▁aws	-9135
▁eol	-9136
▁jab	-9137
▁jit	-9138
▁nem	-9139
▁nol	-9140
▁nsa	-9141
▁nza	-9142
▁pun	-9143
▁rar	-9144
▁rde	-9145
▁rmi	-9146
▁sep	-9147
▁wis	-9148
▁xpo	-9149
▁AIDS	-9150
▁FTSE	-9151
▁PTSD	-9152
▁aini	-9153
▁alue	-9154
▁amib	-9155
▁annu	-9156
▁atwi	-9157
▁buse	-9158
▁dles	-9159
▁drai	-9160
▁dren	-9161
▁duly	-9162
▁enos	-9163
▁frie	-9164
▁hale	-9165
▁jogg	-9166
▁kart	-9167
▁nast	-9168
▁nett	-9169
▁nora	-9170
▁oley	-9171
▁ossi	-9172
▁pond	-9173
▁ques	-9174
▁rada	-9175
▁rtai	-9176
▁rtho	-9177
▁tial	-9178
▁ubic	-9179
▁vani	-9180
▁xist	-9181
▁alize	-9182
▁ancho	-9183
▁asing	-9184
▁canno	-9185
▁corre	-9186
▁croft	-9187
▁eismi	-9188
▁encha	-9189
▁erfec	-9190
▁isbon	-9191
▁ondit	-9192
▁owing	-9193
▁pster	-9194
▁ricey	-9195
▁rname	-9196
▁shida	-9197
▁smine	-9198
▁tosse	-9199
DF	-9200
RT	-9201
oe	-9202
sl	-9203
ոն	-9204
▁gm	-9205
▁1.3	-9206
▁39,	-9207
▁51,	-9208
▁58,	-9209
▁CAA	-9210
▁Hub	-9211
▁IPO	-9212
▁MMA	-9213
▁McQ	-9214
▁Pia	-9215
▁Rao	-9216
▁TfL	-9217
▁UFO	-9218
▁Yes	-9219
▁aku	-9220
▁bay	-9221
▁epo	-9222
▁hog	-9223
▁ido	-9224
▁jaw	-9225
▁lma	-9226
▁maj	-9227
▁olt	-9228
▁pig	-9229
▁ply	-9230
▁rly	-9231
▁sai	-9232
▁sev	-9233
▁tai	-9234
▁ugu	-9235
▁uns	-9236
▁wax	-9237
▁yna	-9238
▁yte	-9239
▁£50	-9240
▁éin	-9241
▁Afri	-9242
▁HERE	-9243
▁Hyun	-9244
▁Indo	-9245
▁adra	-9246
▁ahma	-9247
▁anci	-9248
▁arjo	-9249
▁attl	-9250
▁beta	-9251
▁bett	-9252
▁eady	-9253
▁eams	-9254
▁eega	-9255
▁eged	-9256
▁forc	-9257
▁gasp	-9258
▁hati	-9259
▁hees	-9260
▁heid	-9261
▁hiny	-9262
▁lisa	-9263
▁mona	-9264
▁mons	-9265
▁ombi	-9266
▁orni	-9267
▁pneu	-9268
▁rati	-9269
▁remi	-9270
▁rini	-9271
▁rius	-9272
▁rmat	-9273
▁roam	-9274
▁rode	-9275
▁roma	-9276
▁shav	-9277
▁skat	-9278
▁taps	-9279
▁ulso	-9280
▁utti	-9281
▁uven	-9282
▁yuan	-9283
▁ánch	-9284
▁Cymru	-9285
▁HELOC	-9286
▁arche	-9287
▁arley	-9288
▁ctive	-9289
▁estle	-9290
▁heera	-9291
▁lichi	-9292
▁llott	-9293
▁menei	-9294
▁nagar	-9295
▁ngkok	-9296
▁nston	-9297
▁ocrat	-9298
▁plete	-9299
▁spers	-9300
▁ssail	-9301
▁swell	-9302
▁twent	-9303
▁ynony	-9304
AK	-9305
FS	-9306
HL	-9307
km	-9308
ug	-9309
ón	-9310
ից	-9311
մբ	-9312
▁Ն	-9313
die	-9314
lly	-9315
oli	-9316
vre	-9317
▁(6	-9318
▁EB	-9319
▁FM	-9320
▁KL	-9321
▁KO	-9322
▁SR	-9323
▁TI	-9324
▁zh	-9325
▁£9	-9326
itya	-9327
odka	-9328
▁140	-9329
▁170	-9330
▁6-3	-9331
▁ANG	-9332
▁Bhu	-9333
▁Cer	-9334
▁Dua	-9335
▁Gaz	-9336
▁Kia	-9337
▁Les	-9338
▁Lin	-9339
▁Mel	-9340
▁Ren	-9341
▁Say	-9342
▁erp	-9343
▁itu	-9344
▁khi	-9345
▁max	-9346
▁oos	-9347
▁pio	-9348
▁rfu	-9349
▁rso	-9350
▁uad	-9351
▁wad	-9352
▁ման	-9353
▁յին	-9354
▁Gute	-9355
▁LOVE	-9356
▁MSPs	-9357
▁OLED	-9358
▁PFAS	-9359
▁alsa	-9360
▁arda	-9361
▁artn	-9362
▁arun	-9363
▁avan	-9364
▁carr	-9365
▁darl	-9366
▁dull	-9367
▁eals	-9368
▁ercy	-9369
▁erro	-9370
▁eyes	-9371
▁fend	-9372
▁grea	-9373
▁hoop	-9374
▁mite	-9375
▁nagg	-9376
▁ncha	-9377
▁ncil	-9378
▁ndal	-9379
▁nden	-9380
▁noop	-9381
▁ntha	-9382
▁olit	-9383
▁onge	-9384
▁poke	-9385
▁rapp	-9386
▁rong	-9387
▁ronx	-9388
▁rune	-9389
▁ucia	-9390
▁ulin	-9391
▁vich	-9392
▁wadi	-9393
▁xten	-9394
▁yteD	-9395
▁Unite	-9396
▁arlem	-9397
▁astel	-9398
▁ditya	-9399
▁ehold	-9400
▁eling	-9401
▁elsey	-9402
▁ennia	-9403
▁hohei	-9404
▁lions	-9405
▁nacho	-9406
▁ndall	-9407
▁ntyre	-9408
▁publi	-9409
▁rmagh	-9410
▁shore	-9411
▁spina	-9412
▁tated	-9413
▁trive	-9414
▁trunk	-9415
▁vodka	-9416
El	-9417
LD	-9418
աց	-9419
aka	-9420
gen	-9421
ilb	-9422
lda	-9423
▁Aa	-9424
▁FP	-9425
▁HU	-9426
▁RG	-9427
▁SW	-9428
▁UV	-9429
▁rw	-9430
▁ré	-9431
▁yg	-9432
▁22.	-9433
▁27.	-9434
▁401	-9435
▁75%	-9436
▁ANI	-9437
▁Ask	-9438
▁Eva	-9439
▁GoF	-9440
▁JPM	-9441
▁LSG	-9442
▁Low	-9443
▁McS	-9444
▁NPR	-9445
▁RAF	-9446
▁Sin	-9447
▁elm	-9448
▁fod	-9449
▁fus	-9450
▁gus	-9451
▁hoa	-9452
▁hyn	-9453
▁ikh	-9454
▁iko	-9455
▁iol	-9456
▁jay	-9457
▁kic	-9458
▁lmi	-9459
▁ocu	-9460
▁peg	-9461
▁rae	-9462
▁sar	-9463
▁tad	-9464
▁vez	-9465
▁xio	-9466
▁yah	-9467
▁yra	-9468
▁վել	-9469
▁ETTY	-9470
▁Knox	-9471
▁TERS	-9472
▁Tusk	-9473
▁agen	-9474
▁aggy	-9475
▁aliz	-9476
▁aram	-9477
▁easu	-9478
▁ecky	-9479
▁egin	-9480
▁ehru	-9481
▁elda	-9482
▁furt	-9483
▁goat	-9484
▁gran	-9485
▁hami	-9486
▁hind	-9487
▁ival	-9488
▁kyro	-9489
▁lama	-9490
▁mran	-9491
▁nery	-9492
▁oets	-9493
▁oute	-9494
▁oyah	-9495
▁renc	-9496
▁rigi	-9497
▁unil	-9498
▁urie	-9499
▁urin	-9500
▁zoom	-9501
▁admin	-9502
▁andha	-9503
▁argre	-9504
▁arton	-9505
▁astic	-9506
▁aunch	-9507
▁demon	-9508
▁enera	-9509
▁enten	-9510
▁estos	-9511
▁kayak	-9512
▁lumni	-9513
▁malfu	-9514
▁malnu	-9515
▁nform	-9516
▁ngola	-9517
▁poulo	-9518
▁reate	-9519
▁rsten	-9520
▁stion	-9521
▁tihad	-9522
▁urgum	-9523
GC	-9524
LS	-9525
La	-9526
TH	-9527
ՐԵ	-9528
եղ	-9529
▁Մ	-9530
▁‐	-9531
oum	-9532
▁AV	-9533
▁BO	-9534
▁JB	-9535
▁JC	-9536
▁LG	-9537
▁Sr	-9538
▁TR	-9539
▁VR	-9540
▁WF	-9541
▁Ze	-9542
▁kW	-9543
▁mr	-9544
▁0-0	-9545
▁1.4	-9546
▁125	-9547
▁46,	-9548
▁70,	-9549
▁999	-9550
▁Bon	-9551
▁CMA	-9552
▁Eye	-9553
▁GMB	-9554
▁Hab	-9555
▁Jen	-9556
▁UPI	-9557
▁Uma	-9558
▁bha	-9559
▁dwa	-9560
▁ewe	-9561
▁hru	-9562
▁odo	-9563
▁olf	-9564
▁sak	-9565
▁uir	-9566
▁veh	-9567
▁voc	-9568
▁wth	-9569
▁yll	-9570
▁	-9571
e	-9572
t	-9573
a	-9574
o	-9575
i	-9576
n	-9577
s	-9578
r	-9579
h	-9580
l	-9581
d	-9582
c	-9583
u	-9584
m	-9585
g	-9586
f	-9587
p	-9588
y	-9589
w	-9590
b	-9591
,	-9592
.	-9593
v	-9594
k	-9595
'	-9596
"	-9597
T	-9598
I	-9599
S	-9600
-	-9601
A	-9602
C	-9603
0	-9604
M	-9605
B	-9606
2	-9607
P	-9608
x	-9609
H	-9610
1	-9611
W	-9612
D	-9613
R	-9614
N	-9615
j	-9616
L	-9617
F	-9618
G	-9619
E	-9620
O	-9621
z	-9622
J	-9623
:	-9624
U	-9625
K	-9626
q	-9627
5	-9628
3	-9629
4	-9630
9	-9631
)	-9632
(	-9633
V	-9634
6	-9635
8	-9636
7	-9637
Y	-9638
?	-9639
/	-9640
$	-9641
£	-9642
%	-9643
!	-9644
;	-9645
Z	-9646
X	-9647
Q	-9648
]	-9649
[	-9650
ա	-9651
&	-9652
>	-9653
*	-9654
<	-9655
é	-9656
ն	-9657
ր	-9658
ո	-9659
ե	-9660
_	-9661
ի	-9662
@	-9663
ւ	-9664
+	-9665
á	-9666
ó	-9667
մ	-9668
=	-9669
í	-9670
}	-9671
կ	-9672
\	-9673
­	-9674
{	-9675
#	-9676
տ	-9677
յ	-9678
€	-9679
վ	-9680
ս	-9681
լ	-9682
ց	-9683
հ	-9684
ñ	-9685
դ	-9686
թ	-9687
գ	-9688
ը	-9689
É	-9690
â	-9691
ղ	-9692
բ	-9693
պ	-9694
è	-9695
ü	-9696
ք	-9697
ú	-9698
է	-9699
Ա	-9700
•	-9701
ö	-9702
ծ	-9703
	-9704
խ	-9705
շ	-9706
ռ	-9707
զ	-9708
Ե	-9709
ջ	-9710
։	-9711
°	-9712
չ	-9713
Մ	-9714
©	-9715
à	-9716
Ր	-9717
ç	-9718
Ն	-9719
■	-9720
ä	-9721
′	-9722
՝	-9723
ձ	-9724
⁄	-9725
Հ	-9726
―	-9727
Á	-9728
ø	-9729
ā	-9730
ô	-9731
Ի	-9732
փ	-9733
₹	-9734
Ս	-9735
ã	-9736
ï	-9737
ë	-9738
	-9739
å	-9740
️	-9741
ć	-9742
օ	-9743
★	-9744
‐	-9745
	-9746
ê	-9747
Պ	-9748
Ö	-9749
ժ	-9750
Կ	-9751
Վ	-9752
	-9753
ğ	-9754
ճ	-9755
`	-9756
	-9757
♦	-9758
🥇	-9759
Ó	-9760
Բ	-9761
❤	-9762
î	-9763
č	-9764
Գ	-9765
ō	-9766
Ø	-9767
ł	-9768
ֆ	-9769
Լ	-9770
Տ	-9771
·	-9772
¿	-9773
Â	-9774
ă	-9775
ı	-9776
š	-9777
®	-9778
Å	-9779
Ո	-9780
●	-9781
¢	-9782
ò	-9783
Յ	-9784
😂	-9785
¡	-9786
đ	-9787
ș	-9788
Դ	-9789
Ը	-9790
Թ	-9791
Ֆ	-9792
😭	-9793
🤣	-9794
🥹	-9795
	-9796
×	-9797
ù	-9798
ş	-9799
Š	-9800
ŷ	-9801
Զ	-9802
Ռ	-9803
Փ	-9804
‍	-9805
⁠	-9806
−	-9807
À	-9808
Ã	-9809
Ç	-9810
ì	-9811
û	-9812
ý	-9813
ū	-9814
ŵ	-9815
ž	-9816
Շ	-9817
Ջ	-9818
Ւ	-9819
⁣	-9820
♬	-9821
🐎	-9822
🔥	-9823
¦	-9824
±	-9825
Ä	-9826
Ü	-9827
ė	-9828
ț	-9829
Ժ	-9830
Ք	-9831
Օ	-9832
▶	-9833
⚽	-9834
✔	-9835
😍	-9836
🙄	-9837
🙏	-9838
^	-9839
	-9840
	-9841
§	-9842
È	-9843
Î	-9844
ß	-9845
æ	-9846
Đ	-9847
ē	-9848
ģ	-9849
ń	-9850
ņ	-9851
ň	-9852
́	-9853
̈	-9854
С	-9855
Ճ	-9856
Չ	-9857
՛	-9858
՞	-9859
ạ	-9860
ầ	-9861
ắ	-9862
ờ	-9863
‭	-9864
›	-9865
⁦	-9866
⁩	-9867
₱	-9868
℞	-9869
☆	-9870
♂	-9871
♪	-9872
❌	-9873
・	-9874
︎	-9875
𝄒	-9876
🏻	-9877
🏼	-9878
👈	-9879
👉	-9880
💕	-9881
💨	-9882
📸	-9883
😅	-9884
😮	-9885
🤦	-9886
~	-9887
	-9888
	-9889
Í	-9890
Ò	-9891
Ô	-9892
þ	-9893
ÿ	-9894
ą	-9895
Ć	-9896
Ē	-9897
ę	-9898
ī	-9899
İ	-9900
ř	-9901
ś	-9902
Ş	-9903
ţ	-9904
ż	-9905
ư	-9906
ə	-9907
ʔ	-9908
ʻ	-9909
̀	-9910
̃	-9911
̄	-9912
μ	-9913
О	-9914
У	-9915
а	-9916
и	-9917
к	-9918
н	-9919
р	-9920
ї	-9921
Է	-9922
Խ	-9923
Ծ	-9924
Ձ	-9925
Ղ	-9926
฿	-9927
ḥ	-9928
Ṡ	-9929
ṣ	-9930
ả	-9931
ẹ	-9932
ế	-9933
ệ	-9934
ị	-9935
ọ	-9936
ố	-9937
ộ	-9938
ợ	-9939
ừ	-9940
ự	-9941
ỹ	-9942
‬	-9943
⁤	-9944
₦	-9945
↔	-9946
⊕	-9947
⏳	-9948
►	-9949
◀	-9950
☀	-9951
♀	-9952
♥	-9953
✅	-9954
✨	-9955
⭐	-9956
🇱	-9957
🇳	-9958
🇸	-9959
🇺	-9960
🌪	-9961
🌴	-9962
🌹	-9963
🍓	-9964
🍹	-9965
🎁	-9966
🎢	-9967
🎪	-9968
🏆	-9969
🏽	-9970
🏾	-9971
👀	-9972
👍	-9973
👏	-9974
💙	-9975
💥	-9976
📋	-9977
📍	-9978
📷	-9979
😆	-9980
😊	-9981
😢	-9982
😱	-9983
😳	-9984
🙌	-9985
🛒	-9986
🤎	-9987
🤔	-9988
🤫	-9989
🤯	-9990
🤵	-9991
🤷	-9992
🥅	-9993
🥥	-9994
🥪	-9995
🥺	-9996
