<unk>	0
<s>	0
</s>	0
s	-3.06203
▁the	-3.49013
,	-3.49886
.	-3.53067
▁to	-4.04248
▁a	-4.11445
▁and	-4.21025
▁of	-4.25408
▁in	-4.32982
'	-4.41055
ing	-4.76467
ed	-4.78708
t	-4.92707
d	-4.96102
-	-4.96896
▁that	-5.05576
▁"	-5.06357
▁for	-5.08004
▁on	-5.17878
▁is	-5.18618
▁	-5.24399
▁with	-5.38095
▁was	-5.38702
n	-5.40015
▁it	-5.469
▁The	-5.47615
▁I	-5.49462
y	-5.51914
er	-5.61489
ly	-5.67052
▁be	-5.69058
e	-5.69976
▁he	-5.774
▁as	-5.78451
▁at	-5.78857
▁said	-5.80192
r	-5.83778
▁have	-5.8477
re	-5.84935
▁has	-5.89116
▁from	-5.907
▁his	-5.91483
m	-5.93505
▁are	-5.94743
▁by	-5.96902
:	-5.99756
a	-6.01806
▁-	-6.07387
▁A	-6.08797
p	-6.09542
▁an	-6.10175
al	-6.10267
▁not	-6.10953
,"	-6.17341
▁you	-6.18475
▁this	-6.19306
"	-6.20926
."	-6.26488
o	-6.27834
▁who	-6.27911
c	-6.28575
▁will	-6.30578
in	-6.30696
▁her	-6.30906
g	-6.32742
▁we	-6.34524
▁their	-6.36117
▁but	-6.36222
▁they	-6.37587
es	-6.39147
l	-6.39627
▁had	-6.40519
▁(	-6.42751
▁been	-6.44901
b	-6.47532
▁she	-6.47651
▁or	-6.48728
ve	-6.50724
I	-6.53637
▁can	-6.54916
▁were	-6.55319
▁up	-6.56359
▁out	-6.58013
▁more	-6.58814
▁S	-6.58907
▁about	-6.59822
le	-6.60669
A	-6.61079
▁which	-6.63334
▁after	-6.6342
▁so	-6.6369
▁one	-6.63863
▁re	-6.63961
S	-6.65264
on	-6.65898
▁also	-6.65907
i	-6.66218
or	-6.66246
ur	-6.67466
th	-6.69842
)	-6.69872
ll	-6.70278
▁all	-6.70845
an	-6.71478
ri	-6.71991
▁He	-6.74732
▁over	-6.74794
▁It	-6.75862
▁In	-6.76014
▁would	-6.76245
▁people	-6.81582
▁'	-6.82586
en	-6.82604
il	-6.84276
▁when	-6.84521
ation	-6.85541
▁time	-6.88147
ers	-6.89212
C	-6.89452
▁de	-6.90294
ra	-6.92174
li	-6.93337
▁me	-6.93833
▁like	-6.93905
k	-6.94783
▁just	-6.95501
f	-6.95705
u	-6.96232
ar	-6.96737
▁into	-6.99185
▁C	-6.99544
it	-6.99774
▁my	-7.01145
w	-7.01791
▁than	-7.01901
▁first	-7.0294
ic	-7.03855
▁two	-7.05501
▁year	-7.05866
▁there	-7.06486
▁what	-7.06699
▁do	-7.06801
la	-7.0709
ce	-7.07206
h	-7.07492
▁no	-7.07693
▁its	-7.07761
ter	-7.09263
▁But	-7.10637
ne	-7.11971
▁new	-7.13043
ck	-7.13831
▁F	-7.13921
se	-7.14589
ment	-7.14648
▁some	-7.15693
▁him	-7.16326
▁other	-7.16819
▁our	-7.17147
ion	-7.18965
ch	-7.1946
▁could	-7.19575
de	-7.19578
▁them	-7.19662
▁if	-7.19955
▁back	-7.20053
▁un	-7.20586
ro	-7.20695
▁E	-7.20844
el	-7.20905
ul	-7.21319
▁last	-7.21415
▁your	-7.21692
▁years	-7.21824
▁Trump	-7.22113
▁p	-7.2217
P	-7.23854
▁get	-7.24641
?	-7.25158
lo	-7.28342
et	-7.28466
2	-7.29168
T	-7.29398
D	-7.29781
na	-7.29797
▁now	-7.31161
ma	-7.31852
te	-7.33313
E	-7.33729
at	-7.34019
ive	-7.34523
▁U	-7.34938
3	-7.35265
B	-7.35487
▁st	-7.35612
ir	-7.37781
▁before	-7.38748
▁G	-7.38763
7	-7.39596
▁We	-7.39612
▁B	-7.4031
st	-7.40337
▁And	-7.41069
me	-7.41288
▁co	-7.41515
ent	-7.4211
▁how	-7.43286
▁where	-7.43702
▁work	-7.43785
4	-7.44005
ol	-7.44178
ta	-7.44382
▁being	-7.44505
▁make	-7.45434
▁off	-7.45767
man	-7.45983
id	-7.46046
▁home	-7.46394
to	-7.46455
est	-7.47061
▁P	-7.47324
/	-7.47401
▁She	-7.47416
▁think	-7.47742
▁only	-7.48383
O	-7.4857
▁because	-7.4916
▁most	-7.50055
▁any	-7.50426
9	-7.50638
5	-7.51496
able	-7.51566
sh	-7.51626
ist	-7.52187
L	-7.52272
▁con	-7.52429
M	-7.52462
ant	-7.52596
▁against	-7.52674
▁Mr	-7.53107
▁way	-7.53472
ity	-7.54179
▁O	-7.5444
▁while	-7.54627
1	-7.55619
▁This	-7.56397
▁told	-7.56723
un	-7.57112
▁Re	-7.57483
▁take	-7.58162
▁know	-7.58222
▁down	-7.58456
▁want	-7.59153
▁under	-7.59243
▁three	-7.59345
▁W	-7.5965
6	-7.60115
am	-7.60255
ha	-7.61013
▁don	-7.61399
age	-7.61565
co	-7.6216
ke	-7.62387
▁made	-7.62429
ate	-7.62657
▁during	-7.63142
▁N	-7.63395
z	-7.63478
▁even	-7.63537
▁going	-7.63995
▁well	-7.64028
▁19	-7.6466
0	-7.64761
▁Ro	-7.65572
▁M	-7.65608
im	-7.65824
▁D	-7.66502
um	-7.66803
▁part	-7.6687
▁Ma	-7.67021
▁team	-7.67154
▁go	-7.68026
▁many	-7.68115
is	-7.68704
▁day	-7.69334
us	-7.69796
▁see	-7.69803
ti	-7.69969
▁those	-7.70293
▁very	-7.70493
▁around	-7.71574
ine	-7.7173
▁state	-7.719
R	-7.72048
▁through	-7.72147
▁government	-7.72268
The	-7.7264
8	-7.72769
ia	-7.72937
▁should	-7.72951
ge	-7.73008
F	-7.73279
▁says	-7.7345
▁T	-7.73505
▁support	-7.73641
▁per	-7.74237
ton	-7.74562
ry	-7.74881
▁c	-7.7502
▁Ba	-7.75138
ad	-7.75478
up	-7.75547
▁pro	-7.75638
▁life	-7.75715
no	-7.75715
ci	-7.76034
G	-7.76507
▁much	-7.76581
▁end	-7.77417
▁K	-7.7774
▁L	-7.78532
▁since	-7.78702
▁still	-7.79215
▁including	-7.79339
ver	-7.79406
ling	-7.79606
▁R	-7.79762
ian	-7.8003
▁good	-7.80415
as	-7.80424
▁did	-7.80609
▁La	-7.80875
▁need	-7.80925
N	-7.81115
▁f	-7.81404
▁then	-7.81499
x	-7.81531
▁help	-7.81792
▁So	-7.8199
▁4	-7.82057
vi	-7.83081
▁found	-7.83454
▁b	-7.83666
be	-7.83963
▁long	-7.8398
▁world	-7.84095
▁5	-7.84231
%	-7.84362
▁come	-7.84386
▁To	-7.84456
▁They	-7.84482
▁dis	-7.84495
▁New	-7.84586
▁De	-7.84669
son	-7.84829
▁week	-7.84835
▁us	-7.84919
▁right	-7.85478
▁place	-7.85586
▁2024	-7.86524
▁these	-7.86676
ie	-7.86823
▁country	-7.86879
▁ex	-7.87171
ated	-7.87207
▁say	-7.87523
▁really	-7.87532
ca	-7.87654
▁mo	-7.87783
We	-7.87805
▁g	-7.88042
ted	-7.88256
▁such	-7.884
wa	-7.88417
▁show	-7.89115
mi	-7.89576
old	-7.89631
ance	-7.89871
and	-7.89969
▁between	-7.90189
▁former	-7.90395
▁Ha	-7.91134
di	-7.91147
ting	-7.91778
ies	-7.92229
ng	-7.9261
hi	-7.92942
▁family	-7.93442
ster	-7.93986
▁t	-7.94037
▁may	-7.94091
▁own	-7.94198
▁added	-7.94631
▁game	-7.94674
ni	-7.94701
▁Biden	-7.94783
▁high	-7.94793
▁Mo	-7.94891
▁second	-7.95376
▁does	-7.95475
nt	-7.9587
▁set	-7.96117
pe	-7.96214
tion	-7.96317
nd	-7.96553
ard	-7.96563
▁Ra	-7.96583
▁Le	-7.96985
▁man	-7.97163
▁election	-7.97491
ary	-7.97677
year	-7.97758
▁got	-7.97805
▁For	-7.98217
▁public	-7.98448
▁As	-7.99164
tic	-7.99731
;	-7.99853
▁win	-8.00235
▁US	-8.00597
ty	-8.00727
▁look	-8.00882
▁left	-8.00888
▁An	-8.00914
▁group	-8.01146
go	-8.01161
▁season	-8.01181
▁million	-8.01413
▁e	-8.0158
00	-8.01895
lu	-8.0204
▁car	-8.02111
▁You	-8.02727
▁both	-8.03105
▁St	-8.03117
▁10	-8.03136
▁another	-8.03477
ful	-8.03941
ho	-8.03991
▁attack	-8.04334
ee	-8.05102
▁next	-8.05129
▁pre	-8.05284
ring	-8.05351
▁ma	-8.05424
▁best	-8.05688
▁di	-8.06037
H	-8.06568
per	-8.0683
▁6	-8.06973
▁That	-8.07443
▁Al	-8.07611
▁four	-8.08135
It	-8.08165
▁2	-8.08177
▁1	-8.08185
com	-8.08283
ba	-8.08485
▁play	-8.08677
▁head	-8.08919
▁Co	-8.09173
▁President	-8.09401
▁Li	-8.09646
▁lot	-8.09669
ally	-8.09783
W	-8.09872
ous	-8.10229
▁same	-8.10246
▁There	-8.10327
ner	-8.11717
▁Ca	-8.12019
▁use	-8.12216
▁H	-8.12504
▁Bo	-8.12659
ating	-8.12692
min	-8.12844
ence	-8.13183
red	-8.132
ish	-8.13211
▁every	-8.13243
▁change	-8.13528
mo	-8.13945
ness	-8.14314
▁never	-8.14382
ow	-8.14493
▁put	-8.14816
pa	-8.14857
ther	-8.14949
▁war	-8.14973
do	-8.15012
▁Pa	-8.15306
less	-8.15476
▁media	-8.1584
▁7	-8.16534
▁Be	-8.17128
way	-8.17171
po	-8.17229
▁feel	-8.17297
▁3	-8.1767
▁Ar	-8.1768
▁great	-8.18169
▁On	-8.18197
▁health	-8.18364
▁la	-8.18419
▁star	-8.18468
▁according	-8.18683
▁too	-8.18744
▁Na	-8.18797
▁20	-8.18917
▁J	-8.19494
▁en	-8.19974
▁ra	-8.2029
▁run	-8.20318
!	-8.20323
ru	-8.20664
▁campaign	-8.20692
▁police	-8.20733
the	-8.20794
▁start	-8.21031
ud	-8.21146
ut	-8.21209
▁po	-8.21433
op	-8.21628
▁ha	-8.21865
▁UK	-8.21895
▁case	-8.21951
▁children	-8.22049
▁women	-8.22452
ag	-8.22547
U	-8.22559
▁If	-8.22609
▁court	-8.22662
▁number	-8.22744
▁month	-8.22779
▁American	-8.2292
out	-8.23204
der	-8.23412
▁Israel	-8.23634
ot	-8.23762
one	-8.24518
v	-8.24561
va	-8.24567
▁here	-8.24759
▁love	-8.24972
▁across	-8.25131
▁ga	-8.25282
om	-8.25417
ations	-8.25439
▁post	-8.2557
,000	-8.25793
▁five	-8.25797
land	-8.25904
ny	-8.25986
▁company	-8.26627
▁few	-8.26695
ka	-8.26723
gra	-8.26747
▁days	-8.26766
▁won	-8.26775
▁night	-8.26889
▁party	-8.27222
▁didn	-8.27381
▁side	-8.27827
K	-8.27952
▁law	-8.28035
▁Me	-8.28696
▁point	-8.28793
▁keep	-8.28803
▁school	-8.28891
▁president	-8.28938
▁v	-8.29005
ga	-8.29156
▁Mar	-8.29166
▁took	-8.29205
]	-8.29421
ise	-8.29729
▁used	-8.29734
▁No	-8.29756
▁seen	-8.29878
▁report	-8.29969
V	-8.30065
▁always	-8.30087
▁away	-8.30834
▁far	-8.30988
▁later	-8.31075
▁called	-8.31391
▁deal	-8.31526
gu	-8.31627
▁vote	-8.31974
▁something	-8.3198
▁came	-8.32014
▁close	-8.3202
▁record	-8.32159
ff	-8.32855
▁again	-8.32941
▁top	-8.33292
we	-8.33693
con	-8.33832
▁Sa	-8.34047
king	-8.34402
▁might	-8.34555
line	-8.34686
▁months	-8.3498
▁hard	-8.35033
▁reported	-8.35053
▁gr	-8.35116
ial	-8.35179
▁social	-8.35256
fe	-8.35297
▁things	-8.35394
▁comp	-8.35403
▁live	-8.35425
▁six	-8.3556
▁su	-8.35636
fa	-8.35753
▁Do	-8.36083
▁Ja	-8.36125
ley	-8.36215
▁United	-8.36436
▁film	-8.36912
▁find	-8.37279
he	-8.3733
bo	-8.3751
ction	-8.37647
▁bu	-8.37672
ten	-8.37738
▁line	-8.37808
▁without	-8.37829
▁hit	-8.3801
bu	-8.38132
port	-8.38171
ig	-8.38283
▁face	-8.38442
▁final	-8.38454
▁cr	-8.38635
▁give	-8.38998
em	-8.39242
da	-8.39268
▁One	-8.39774
▁went	-8.39917
▁d	-8.40225
▁decision	-8.40309
▁little	-8.4036
ning	-8.40497
Credit	-8.40559
▁call	-8.40699
ward	-8.40704
▁big	-8.40705
act	-8.40713
▁better	-8.40764
▁political	-8.40804
▁past	-8.40873
▁different	-8.40953
▁water	-8.41103
▁become	-8.41156
▁hi	-8.41167
led	-8.41228
▁local	-8.41361
ious	-8.41513
ger	-8.41663
lic	-8.41878
▁each	-8.42033
dy	-8.42117
rs	-8.42174
▁hand	-8.42428
ja	-8.42453
▁experience	-8.42961
▁[	-8.43321
cu	-8.43405
▁May	-8.43496
▁Ka	-8.43573
▁comment	-8.43674
ab	-8.43674
▁power	-8.43694
▁8	-8.43841
▁having	-8.44104
time	-8.44373
▁When	-8.44481
▁job	-8.44958
▁York	-8.45011
▁2022	-8.4532
▁Car	-8.45335
▁making	-8.45357
▁moment	-8.4546
bi	-8.45603
▁2023	-8.45794
▁pay	-8.45825
▁However	-8.46058
pi	-8.46188
),	-8.46274
▁money	-8.4644
▁India	-8.46594
▁already	-8.46626
▁return	-8.46721
▁12	-8.47022
vo	-8.47057
mon	-8.47326
▁system	-8.47472
ill	-8.47663
▁city	-8.47677
▁death	-8.4771
▁continue	-8.47765
bb	-8.47952
▁less	-8.48079
▁se	-8.48334
▁At	-8.48369
che	-8.48517
tu	-8.48807
▁South	-8.48859
▁video	-8.48968
▁statement	-8.48976
ture	-8.49126
tch	-8.49151
▁Jo	-8.49221
ak	-8.49375
▁wrote	-8.49399
▁ch	-8.498
▁Harris	-8.49838
▁Dr	-8.49855
▁Con	-8.49995
▁young	-8.50148
ac	-8.50153
▁until	-8.50217
▁men	-8.50635
▁Ta	-8.50637
▁real	-8.50817
▁early	-8.50967
▁fl	-8.50998
▁open	-8.51062
tra	-8.51155
▁hope	-8.51255
▁Da	-8.51449
▁working	-8.51659
▁X	-8.51915
ex	-8.52015
our	-8.52068
io	-8.52412
▁person	-8.52575
▁interest	-8.53072
▁Republican	-8.53554
▁ti	-8.53587
▁Se	-8.53905
ions	-8.54152
▁market	-8.542
▁Vi	-8.54238
▁level	-8.54266
tro	-8.54467
▁w	-8.54568
▁full	-8.54739
▁Ukraine	-8.54786
▁short	-8.55018
▁app	-8.55265
▁thought	-8.5529
▁recent	-8.55491
▁Ho	-8.55625
av	-8.5587
ight	-8.55966
▁ta	-8.55972
▁free	-8.56326
ism	-8.56332
▁care	-8.56354
ip	-8.56565
▁host	-8.56625
▁V	-8.5698
▁ba	-8.5701
lin	-8.5714
ach	-8.57146
▁business	-8.57204
▁Su	-8.5729
▁form	-8.57352
ey	-8.57473
▁cut	-8.57509
ell	-8.57637
ham	-8.57641
mm	-8.57858
▁clear	-8.57984
▁lo	-8.58125
▁200	-8.58201
▁following	-8.58261
▁sign	-8.5829
▁sp	-8.58329
▁small	-8.58389
▁able	-8.5842
▁military	-8.58625
▁Di	-8.58627
▁move	-8.5866
▁House	-8.58697
▁turn	-8.58777
▁third	-8.58922
ries	-8.58974
▁Po	-8.59095
▁must	-8.59377
▁national	-8.59405
▁half	-8.59469
▁Ga	-8.5951
▁bring	-8.59711
▁asked	-8.59746
▁name	-8.59826
▁bit	-8.60163
cing	-8.60212
▁Lo	-8.60284
▁Pro	-8.60446
▁15	-8.60695
▁order	-8.60819
▁After	-8.60906
ft	-8.61106
side	-8.61215
▁Russia	-8.61312
ice	-8.61423
▁fire	-8.6151
▁cent	-8.61624
▁why	-8.6164
▁role	-8.61657
▁du	-8.61735
▁England	-8.61757
ev	-8.61827
▁thing	-8.61853
ible	-8.61932
▁City	-8.6203
du	-8.62066
).	-8.62082
▁offer	-8.62174
▁hu	-8.62205
▁Gaza	-8.62507
ay	-8.62511
▁together	-8.62619
▁food	-8.62687
▁saying	-8.62695
▁ever	-8.63244
▁Wa	-8.63247
ship	-8.63396
ving	-8.63436
▁least	-8.63489
▁Mi	-8.63566
▁lead	-8.63573
▁include	-8.63609
▁30	-8.63644
▁believe	-8.63921
▁pass	-8.64066
▁due	-8.64279
▁among	-8.64742
▁often	-8.65146
▁getting	-8.65225
▁process	-8.65561
▁ago	-8.6565
▁With	-8.65711
ap	-8.65738
▁remain	-8.65788
▁vi	-8.66017
▁future	-8.66134
▁Sunday	-8.66141
▁known	-8.66148
▁important	-8.66206
▁today	-8.66379
▁Friday	-8.6639
ite	-8.66605
▁taken	-8.66616
▁Monday	-8.66912
ler	-8.67047
▁whether	-8.67098
ec	-8.67299
▁His	-8.67362
▁taking	-8.67449
▁Hu	-8.67577
▁London	-8.6768
▁age	-8.67682
▁Fa	-8.67813
▁book	-8.6782
ever	-8.68008
ki	-8.68092
▁house	-8.68093
▁action	-8.68301
▁test	-8.68696
▁El	-8.69003
▁series	-8.69011
▁several	-8.69053
▁ca	-8.69154
▁9	-8.69409
▁o	-8.69516
...	-8.69554
▁given	-8.69589
j	-8.6959
cl	-8.69603
▁11	-8.69658
▁pa	-8.69661
▁risk	-8.69719
que	-8.69842
▁am	-8.69899
▁sh	-8.69903
▁Tuesday	-8.70111
▁strong	-8.70266
J	-8.70302
by	-8.70327
cent	-8.70354
▁All	-8.7037
▁tax	-8.70495
▁club	-8.70511
han	-8.70658
▁provide	-8.7076
▁though	-8.70994
ide	-8.71125
▁comes	-8.71262
▁enough	-8.71397
ain	-8.71425
▁players	-8.71482
▁started	-8.71493
▁share	-8.71528
▁further	-8.7172
▁talk	-8.71887
▁While	-8.72104
▁San	-8.72297
▁visit	-8.7233
▁18	-8.72414
▁likely	-8.72483
▁land	-8.72547
▁What	-8.72574
▁fans	-8.72578
tri	-8.72727
▁Z	-8.72783
▁office	-8.72907
▁Ne	-8.72977
▁doing	-8.73127
▁members	-8.73405
▁Mc	-8.73524
ities	-8.73528
▁security	-8.73757
▁China	-8.7401
▁happen	-8.74046
har	-8.74055
▁account	-8.74115
▁walk	-8.74325
▁Ch	-8.74364
▁done	-8.74456
ren	-8.74659
▁travel	-8.74672
ah	-8.74896
▁expected	-8.74961
▁view	-8.74992
all	-8.75095
▁cost	-8.75169
▁kind	-8.75233
▁State	-8.75292
ath	-8.75293
ized	-8.75582
▁Russian	-8.756
▁area	-8.75843
les	-8.76081
":"	-8.76264
▁behind	-8.76284
gan	-8.76336
wi	-8.76338
▁Wednesday	-8.76355
▁Gu	-8.76375
▁National	-8.76426
iv	-8.76539
▁target	-8.76709
▁challenge	-8.77065
▁event	-8.7707
qui	-8.77088
▁Israeli	-8.7716
▁couple	-8.77208
ron	-8.77338
▁read	-8.77433
▁Thursday	-8.77637
▁once	-8.77651
ign	-8.77694
▁plan	-8.77767
▁met	-8.77844
▁fall	-8.78077
ral	-8.7815
▁Pe	-8.78669
▁major	-8.78883
▁News	-8.78922
▁Sha	-8.79089
den	-8.79149
▁stay	-8.79166
▁Minister	-8.79227
▁officials	-8.79231
▁Bu	-8.79235
▁games	-8.79394
▁World	-8.79446
▁air	-8.79528
▁result	-8.79633
ph	-8.79668
▁looking	-8.79845
▁coming	-8.79905
▁sure	-8.79986
▁yet	-8.80465
▁career	-8.80507
▁announced	-8.80535
▁music	-8.80573
▁mother	-8.8077
▁West	-8.80823
▁hours	-8.80864
▁ball	-8.80908
▁break	-8.80969
▁race	-8.81172
▁shared	-8.81263
▁played	-8.81375
▁old	-8.8143
lan	-8.81449
▁idea	-8.81581
mate	-8.81745
▁Lu	-8.81787
▁community	-8.8181
br	-8.8182
au	-8.81895
▁times	-8.81964
▁data	-8.81992
▁control	-8.82037
▁Pr	-8.82044
▁minister	-8.82045
▁Man	-8.82093
▁trying	-8.82122
▁$1	-8.82191
▁special	-8.8226
▁Sp	-8.82315
end	-8.82349
▁woman	-8.82637
▁reason	-8.82713
fi	-8.82733
▁body	-8.82816
▁heart	-8.82901
▁ho	-8.82975
▁building	-8.82982
▁qu	-8.82989
hy	-8.83036
▁question	-8.8315
od	-8.83231
▁deliver	-8.83242
▁sw	-8.83377
▁leave	-8.83394
▁fact	-8.83421
▁Some	-8.83458
▁official	-8.83618
▁Tra	-8.83802
▁story	-8.83861
▁history	-8.83951
▁allow	-8.84504
▁em	-8.84542
▁chance	-8.84593
▁using	-8.85174
▁fa	-8.85282
▁interview	-8.85314
▁stop	-8.85315
▁step	-8.85387
▁Ri	-8.85582
▁percent	-8.85595
cc	-8.85613
amp	-8.85639
▁Donald	-8.85699
for	-8.8572
▁price	-8.85812
▁arm	-8.85863
▁near	-8.85958
▁£1	-8.86166
▁hospital	-8.86244
20	-8.86257
▁killed	-8.8628
▁act	-8.86328
▁Th	-8.86419
▁impact	-8.86419
▁access	-8.86557
▁project	-8.86557
▁along	-8.86559
▁mis	-8.86687
und	-8.86735
▁space	-8.86747
ition	-8.86812
day	-8.86833
▁front	-8.8688
rry	-8.86882
▁fight	-8.86946
▁saw	-8.8695
▁attempt	-8.87031
▁late	-8.87034
▁watch	-8.87049
▁le	-8.87058
▁Ms	-8.87069
▁list	-8.87183
ified	-8.87186
▁Saturday	-8.87423
▁almost	-8.87424
ical	-8.87525
▁candidate	-8.87581
▁within	-8.87794
▁June	-8.87814
▁strike	-8.87822
▁match	-8.87841
ա	-8.87888
▁present	-8.88224
ek	-8.88611
▁course	-8.88617
▁deep	-8.88658
▁legal	-8.88667
▁weeks	-8.88732
ability	-8.88857
▁outside	-8.88971
rn	-8.89036
Y	-8.89184
▁let	-8.8926
▁significant	-8.89293
▁50	-8.89435
▁earlier	-8.89501
▁Court	-8.89748
▁seven	-8.89754
▁tell	-8.89765
▁news	-8.89914
▁bar	-8.89926
▁pick	-8.89983
▁light	-8.90052
▁el	-8.90103
▁position	-8.90337
▁staff	-8.90393
▁summer	-8.90488
▁Black	-8.905
▁16	-8.90695
os	-8.9075
ov	-8.90783
▁Te	-8.90871
▁international	-8.91047
▁son	-8.91142
▁fi	-8.91173
▁buy	-8.91188
▁child	-8.91189
▁leader	-8.91196
▁minutes	-8.91295
▁everything	-8.91295
▁Mu	-8.91327
▁ahead	-8.91359
ze	-8.91362
He	-8.91376
▁sport	-8.91501
▁14	-8.91537
▁lost	-8.91587
▁North	-8.91616
▁13	-8.9169
ub	-8.91761
▁someone	-8.91859
ric	-8.91915
ging	-8.91948
▁Fi	-8.91956
▁stand	-8.91989
▁John	-8.91993
▁July	-8.92025
▁human	-8.92032
▁room	-8.92172
▁October	-8.92201
▁League	-8.92201
gen	-8.9224
▁ro	-8.92483
é	-8.92534
▁ran	-8.92539
ator	-8.92576
▁employ	-8.92617
▁meeting	-8.92717
▁revealed	-8.92824
▁wanted	-8.92847
hu	-8.92887
▁understand	-8.92945
▁pe	-8.93008
▁key	-8.9306
▁British	-8.93127
▁forward	-8.93507
,""	-8.93532
▁personal	-8.93538
▁try	-8.93575
▁service	-8.93602
▁Du	-8.93643
▁led	-8.93751
▁Har	-8.93845
▁policy	-8.94043
▁points	-8.94096
▁general	-8.94134
▁coach	-8.94219
▁ri	-8.94343
▁felt	-8.94384
▁countries	-8.94568
▁incident	-8.94637
▁learn	-8.94638
▁shot	-8.94757
▁nation	-8.94784
▁March	-8.9492
back	-8.95042
▁Cha	-8.95097
▁friend	-8.95117
▁eight	-8.95118
▁Ex	-8.95133
▁ground	-8.95232
▁...	-8.95258
ative	-8.95306
▁stage	-8.95318
▁Her	-8.95329
▁relationship	-8.95404
▁fe	-8.95566
▁2020	-8.95693
This	-8.95837
ile	-8.95907
ble	-8.9608
▁held	-8.9612
ick	-8.9633
▁2021	-8.96351
▁issues	-8.96375
▁January	-8.96437
▁November	-8.96524
▁sha	-8.9658
▁hold	-8.96617
▁online	-8.96624
ping	-8.96768
▁main	-8.96871
▁cap	-8.97006
ney	-8.97059
▁issue	-8.97146
▁dead	-8.97313
▁poll	-8.97323
▁Ru	-8.974
ink	-8.97458
lar	-8.97533
▁eye	-8.9762
her	-8.97862
▁April	-8.9792
ya	-8.97972
▁means	-8.98065
▁everyone	-8.98158
0,000	-8.98332
▁Ki	-8.98334
ran	-8.98496
▁matter	-8.98538
▁i	-8.98645
▁Ni	-8.98666
ize	-8.98681
gar	-8.98787
ue	-8.98841
▁voters	-8.98879
▁began	-8.98879
▁director	-8.98975
▁bill	-8.99375
▁ten	-8.99525
cy	-8.99668
▁died	-8.9994
▁y	-9.00064
▁region	-9.00092
ked	-9.0022
▁cha	-9.00272
▁cover	-9.00313
▁became	-9.0041
▁University	-9.0059
▁Or	-9.00699
cor	-9.00701
▁25	-9.00718
▁Labour	-9.00771
▁nearly	-9.00901
▁energy	-9.01042
▁War	-9.01045
▁join	-9.01213
rate	-9.01228
▁low	-9.01309
▁My	-9.01506
▁seat	-9.01708
▁push	-9.01834
▁playing	-9.01835
▁billion	-9.01899
my	-9.01962
▁imp	-9.0197
▁performance	-9.0198
▁possible	-9.02227
▁increase	-9.02271
▁trial	-9.02366
gi	-9.02445
▁information	-9.02504
▁financial	-9.02687
▁single	-9.02783
▁wife	-9.0298
▁Ju	-9.02989
▁running	-9.03023
ier	-9.03107
▁demand	-9.03153
▁Ke	-9.03155
▁border	-9.03241
▁released	-9.03284
▁attend	-9.03551
lock	-9.03581
▁daughter	-9.03705
▁recently	-9.03707
▁rest	-9.03895
▁large	-9.03916
light	-9.04027
▁football	-9.04082
▁loss	-9.04089
▁claim	-9.04155
▁Joe	-9.04287
▁l	-9.04548
▁America	-9.04705
▁figure	-9.04828
▁im	-9.04916
▁term	-9.04987
▁Go	-9.0506
▁sa	-9.05138
pped	-9.05143
mer	-9.05192
▁appear	-9.05204
▁total	-9.05211
use	-9.05233
50	-9.05299
▁Washington	-9.05395
▁himself	-9.05395
▁rate	-9.05451
row	-9.05566
▁global	-9.05774
▁Police	-9.05783
▁ru	-9.05894
▁investigation	-9.05964
ez	-9.05977
▁anti	-9.05984
▁consider	-9.06085
▁Scotland	-9.06155
▁chief	-9.06155
▁address	-9.06155
▁17	-9.06183
za	-9.06252
▁count	-9.06287
▁anything	-9.06351
van	-9.06354
form	-9.06368
▁father	-9.0638
▁living	-9.0673
▁follow	-9.06779
tal	-9.06963
pro	-9.06991
serv	-9.07055
▁develop	-9.0713
▁TV	-9.07208
oo	-9.07298
▁mi	-9.07384
ker	-9.07385
ug	-9.07402
▁available	-9.07402
▁player	-9.07453
▁partner	-9.07532
▁bo	-9.07587
ised	-9.07602
▁King	-9.07859
▁difficult	-9.07983
▁protect	-9.0801
▁Indian	-9.08054
zz	-9.08149
▁European	-9.08173
▁va	-9.08187
▁focus	-9.08326
▁actually	-9.08532
▁scene	-9.08568
▁Bar	-9.08656
vis	-9.08765
▁AI	-9.08811
▁benefit	-9.08861
▁speak	-9.08891
▁latest	-9.09272
▁Cor	-9.0932
▁others	-9.09422
▁especially	-9.0955
▁approach	-9.0955
sta	-9.09589
mor	-9.09623
off	-9.09658
▁friends	-9.09739
ef	-9.09795
ctor	-9.09924
ably	-9.10009
▁enjoy	-9.10044
▁situation	-9.10044
▁ne	-9.1007
30	-9.10089
▁federal	-9.10144
low	-9.10154
▁Gra	-9.10229
ook	-9.10235
▁improve	-9.10243
long	-9.10284
▁inter	-9.10302
▁response	-9.10342
fu	-9.10369
qua	-9.10427
▁ski	-9.10435
▁message	-9.10542
▁potential	-9.10594
▁round	-9.10785
▁suggest	-9.10908
▁plans	-9.10998
▁goal	-9.11105
▁period	-9.11242
▁source	-9.11243
▁phone	-9.11287
▁services	-9.11365
▁safe	-9.11446
mber	-9.11597
▁bad	-9.11726
tting	-9.11735
▁despite	-9.11744
▁pressure	-9.11863
ea	-9.11891
▁White	-9.11946
air	-9.11997
▁current	-9.12005
▁expert	-9.12251
art	-9.12254
▁member	-9.12377
ure	-9.12404
▁students	-9.12568
▁soon	-9.12581
▁40	-9.12638
▁shows	-9.12658
▁expect	-9.12708
▁road	-9.12713
?"	-9.12768
You	-9.12804
▁East	-9.12923
▁sale	-9.12929
▁claimed	-9.12936
▁September	-9.13064
▁option	-9.13138
kin	-9.13197
▁industry	-9.13269
▁value	-9.13274
ford	-9.13381
▁inside	-9.13629
▁serious	-9.1368
▁wide	-9.13689
▁non	-9.13834
ber	-9.1386
▁received	-9.13933
▁economic	-9.13988
▁ban	-9.1402
night	-9.14023
▁huge	-9.14167
▁lives	-9.14328
▁mark	-9.1444
win	-9.14452
▁August	-9.14609
▁parents	-9.14732
▁success	-9.14789
▁girl	-9.14815
_	-9.14819
▁similar	-9.14921
▁prison	-9.14921
ր	-9.15025
▁sent	-9.15128
▁date	-9.15235
▁na	-9.1525
▁k	-9.15325
▁Now	-9.15333
▁victim	-9.15338
▁fund	-9.15438
▁sub	-9.15648
▁Je	-9.15824
of	-9.15905
▁nothing	-9.15991
▁morning	-9.16179
Picture	-9.16183
▁24	-9.16191
▁reach	-9.1622
▁fr	-9.16253
▁Olympic	-9.16284
ify	-9.163
▁quite	-9.16308
▁cause	-9.16352
field	-9.16397
▁operation	-9.16495
▁self	-9.16511
▁brand	-9.16556
▁According	-9.16601
▁Hamas	-9.16633
▁100	-9.16697
▁companies	-9.16707
▁defend	-9.16847
▁class	-9.16863
▁picture	-9.16919
▁States	-9.16961
ple	-9.17052
val	-9.17077
▁presidential	-9.17084
▁Ti	-9.17103
▁Instagram	-9.17132
▁protest	-9.17229
▁character	-9.17238
▁Ko	-9.17449
▁release	-9.17508
▁drug	-9.17772
▁Day	-9.17863
▁whole	-9.17902
▁track	-9.17911
▁continued	-9.17933
▁site	-9.18115
▁manager	-9.18135
▁crime	-9.18204
▁spot	-9.18218
▁California	-9.18309
▁draw	-9.18313
▁cross	-9.1842
▁model	-9.18502
lor	-9.1857
▁program	-9.18612
▁spoke	-9.18642
▁private	-9.18741
ear	-9.18745
ped	-9.18789
▁br	-9.18943
▁Bra	-9.18984
▁&	-9.1903
part	-9.19125
▁Com	-9.19139
▁firm	-9.19201
▁mind	-9.19222
▁needed	-9.19232
▁cur	-9.19456
▁How	-9.19483
>	-9.1959
▁2019	-9.19623
▁train	-9.19728
▁bank	-9.19741
▁title	-9.19853
▁Gar	-9.19877
▁Congress	-9.19897
▁gold	-9.19898
▁civil	-9.19938
▁evidence	-9.20047
▁Images	-9.20048
▁design	-9.20099
▁platform	-9.20157
pic	-9.20328
yn	-9.20595
▁Department	-9.20597
right	-9.20735
▁mean	-9.20741
▁white	-9.20832
▁earn	-9.20905
▁research	-9.20919
▁press	-9.2097
▁previously	-9.21006
▁accused	-9.21058
▁review	-9.21197
▁leading	-9.21226
▁BBC	-9.21261
▁Col	-9.21314
▁art	-9.21367
▁Un	-9.21415
▁problem	-9.21493
▁rather	-9.21564
▁check	-9.21596
▁showed	-9.21707
ana	-9.21745
je	-9.21794
▁drive	-9.21892
▁example	-9.21934
▁save	-9.2204
▁popular	-9.22044
▁enter	-9.22077
▁individual	-9.22152
▁France	-9.22153
99	-9.22159
▁economy	-9.22264
▁based	-9.22265
rk	-9.22333
▁Park	-9.22415
▁sell	-9.2247
▁red	-9.22538
▁fan	-9.22628
af	-9.22711
▁administration	-9.22825
▁board	-9.23032
▁judge	-9.23051
▁Democratic	-9.23084
▁confirmed	-9.23191
▁needs	-9.23251
▁wrong	-9.23277
down	-9.23318
▁Paris	-9.23418
▁fear	-9.23448
▁development	-9.23483
▁happened	-9.23616
▁Am	-9.23832
▁safety	-9.23887
▁worth	-9.239
▁rise	-9.23931
▁gave	-9.24001
▁measure	-9.24416
▁cor	-9.24464
▁longer	-9.2453
▁Cup	-9.24542
work	-9.24594
fully	-9.24611
▁makes	-9.24652
▁owner	-9.247
▁criminal	-9.24759
▁anyone	-9.24801
▁involved	-9.24855
▁Wal	-9.24876
len	-9.25086
▁bi	-9.25111
▁rule	-9.25176
▁threat	-9.25223
▁higher	-9.25293
▁William	-9.25336
▁murder	-9.25451
▁create	-9.25456
▁add	-9.25639
▁Getty	-9.25672
▁super	-9.25763
▁ensure	-9.25838
▁photo	-9.2591
ju	-9.25915
▁average	-9.25919
▁Sch	-9.26026
▁claims	-9.26047
ugh	-9.26131
▁lu	-9.26146
▁town	-9.26236
▁capital	-9.26264
▁These	-9.26276
▁December	-9.26381
▁21	-9.26384
spec	-9.26389
▁pair	-9.26577
▁Fe	-9.26591
▁brought	-9.26615
▁husband	-9.26732
▁amount	-9.26761
▁Si	-9.26903
▁states	-9.26996
ank	-9.27125
ising	-9.27189
cal	-9.27198
ko	-9.27251
▁image	-9.27383
▁treat	-9.27387
pl	-9.27493
pp	-9.27517
▁workers	-9.27594
▁debate	-9.27679
▁spent	-9.27793
▁Mon	-9.27829
▁dog	-9.27833
There	-9.27924
▁Pi	-9.27999
▁Gi	-9.28021
▁David	-9.2803
▁foreign	-9.28032
cle	-9.28123
▁worked	-9.28287
▁victory	-9.28386
wn	-9.28422
war	-9.28446
▁cho	-9.2846
▁mid	-9.28473
ett	-9.28476
▁currently	-9.28555
ew	-9.28574
▁particularly	-9.28581
ina	-9.28625
tan	-9.28714
▁More	-9.28714
▁def	-9.28719
▁meet	-9.28961
▁entire	-9.28983
▁leaders	-9.29039
▁represent	-9.2909
ang	-9.29133
▁fun	-9.29159
▁tra	-9.29195
gue	-9.29341
▁vehicle	-9.29343
uc	-9.29438
bl	-9.29531
▁extra	-9.29564
tin	-9.29699
▁centre	-9.29716
room	-9.29772
point	-9.29903
men	-9.29914
▁growth	-9.29941
▁instead	-9.29946
▁French	-9.30067
▁biggest	-9.30068
▁actor	-9.30105
▁trip	-9.3017
▁0	-9.30358
mark	-9.30449
▁investment	-9.30492
▁treatment	-9.30513
where	-9.30748
log	-9.30785
▁via	-9.30907
▁remains	-9.30974
▁Che	-9.31009
iti	-9.31089
▁flight	-9.3114
▁prevent	-9.31164
car	-9.31252
iz	-9.31318
▁fast	-9.31348
▁Palestinian	-9.31351
▁black	-9.31655
▁clean	-9.31657
mar	-9.31719
if	-9.31739
▁reduce	-9.31783
well	-9.31839
▁weekend	-9.31976
▁damage	-9.32025
▁heard	-9.32038
▁By	-9.32315
jo	-9.32503
▁Em	-9.32516
iff	-9.32549
▁lower	-9.32557
▁gun	-9.32638
press	-9.32708
▁Of	-9.32723
":	-9.32788
ou	-9.32814
▁tried	-9.32826
▁February	-9.33018
cra	-9.33147
▁perform	-9.33163
▁rep	-9.33177
▁store	-9.33237
▁card	-9.3326
pper	-9.33266
▁field	-9.33386
▁sense	-9.33409
▁cancer	-9.33412
▁trans	-9.33429
▁happy	-9.33528
▁senior	-9.33644
▁accept	-9.33644
▁executive	-9.33666
▁feeling	-9.33763
▁touch	-9.33817
▁block	-9.33865
▁sea	-9.33922
▁Can	-9.34125
▁si	-9.34128
par	-9.34137
▁Office	-9.34147
ե	-9.34147
body	-9.3417
▁described	-9.34178
▁Europe	-9.34306
▁speech	-9.344
▁either	-9.344
▁trade	-9.34482
▁violence	-9.34526
▁street	-9.34528
▁complete	-9.3457
▁Mil	-9.34639
▁areas	-9.347
▁Australia	-9.34716
▁James	-9.34789
▁else	-9.34792
▁box	-9.34871
▁exist	-9.34894
▁study	-9.34908
▁aim	-9.3491
▁turned	-9.34914
pping	-9.34942
▁kids	-9.35054
▁thank	-9.35065
▁probably	-9.35162
▁base	-9.35245
▁families	-9.35289
▁previous	-9.35455
▁results	-9.35474
▁County	-9.35545
▁towards	-9.3563
▁appeared	-9.35906
▁however	-9.35921
▁knew	-9.35936
▁En	-9.36043
▁reports	-9.36063
▁Democrats	-9.36099
ute	-9.3613
▁fit	-9.36141
In	-9.36281
▁included	-9.36316
▁easy	-9.36316
▁medical	-9.36321
▁require	-9.36402
ake	-9.3643
▁effect	-9.36509
▁grow	-9.36521
▁22	-9.36743
▁Ol	-9.36846
▁opportunity	-9.36962
▁vo	-9.37199
▁build	-9.37201
▁sexual	-9.37224
▁movie	-9.37225
▁boy	-9.3725
▁Christmas	-9.37352
▁themselves	-9.37352
bor	-9.37947
▁avoid	-9.38008
▁Per	-9.38078
▁Even	-9.3815
▁beat	-9.38174
▁fo	-9.3822
▁nine	-9.38283
▁Ben	-9.38328
ough	-9.38342
▁Not	-9.38408
▁Britain	-9.38409
lea	-9.38443
▁costs	-9.38614
▁launch	-9.38756
▁critic	-9.3879
X	-9.38803
▁Prime	-9.3893
▁Iran	-9.38935
▁gone	-9.39095
▁rights	-9.39196
▁sound	-9.39323
▁$2	-9.39338
▁promise	-9.39341
▁door	-9.39429
▁sal	-9.39516
▁concerns	-9.39538
▁Mark	-9.39556
▁authorities	-9.39606
▁direct	-9.39608
▁arrested	-9.39696
▁Africa	-9.39772
▁choice	-9.3988
▁feature	-9.39917
rie	-9.40014
mu	-9.40076
▁serve	-9.40094
▁perfect	-9.40128
based	-9.40168
▁Party	-9.4017
▁events	-9.4021
ties	-9.40257
▁climate	-9.40261
AP	-9.40379
wood	-9.40383
▁score	-9.40516
▁quarter	-9.40651
▁Another	-9.40665
▁lack	-9.40672
▁driver	-9.40708
▁allowed	-9.40782
▁shock	-9.40816
▁Tu	-9.40844
▁quickly	-9.40891
▁holiday	-9.40934
▁appeal	-9.40936
▁aid	-9.41324
▁ask	-9.41339
▁mental	-9.41471
▁leaving	-9.41476
▁Ukrainian	-9.41611
▁conditions	-9.41618
▁launched	-9.41653
▁pu	-9.41811
▁looked	-9.41852
▁drink	-9.41884
▁Dur	-9.41983
▁mar	-9.42148
▁Game	-9.42196
▁Bro	-9.42254
▁majority	-9.42257
▁regular	-9.42294
▁force	-9.42311
▁wi	-9.42552
▁agency	-9.4257
▁peace	-9.42705
▁pull	-9.42713
bel	-9.42724
▁farm	-9.42756
▁conflict	-9.42842
ox	-9.42855
▁range	-9.42881
▁park	-9.4289
▁efforts	-9.42925
▁answer	-9.42982
▁Last	-9.43187
▁ju	-9.43199
▁training	-9.43232
▁struggle	-9.43256
▁Air	-9.43293
over	-9.43331
▁moved	-9.43351
▁pain	-9.43363
hire	-9.43466
get	-9.43529
▁crisis	-9.43811
▁contract	-9.43812
▁search	-9.43826
▁send	-9.43919
▁cases	-9.43921
▁decided	-9.43925
▁remember	-9.4395
ush	-9.43978
If	-9.44304
▁fine	-9.44324
▁forces	-9.44327
▁oil	-9.4434
mmer	-9.44416
▁growing	-9.44448
▁wh	-9.44469
▁winning	-9.44479
dent	-9.44674
▁piece	-9.44765
▁progress	-9.44788
▁Paul	-9.44798
▁Sun	-9.44832
▁double	-9.4493
▁ticket	-9.4507
▁conduct	-9.4507
▁crowd	-9.4507
▁certain	-9.45288
like	-9.4538
▁weapon	-9.45493
▁cannot	-9.455
▁voice	-9.45525
▁adding	-9.45696
▁Red	-9.4576
gate	-9.45869
▁paid	-9.45902
▁multiple	-9.45924
▁carry	-9.45997
▁Times	-9.46069
▁fair	-9.46087
▁song	-9.46113
▁charges	-9.46114
So	-9.46166
▁posted	-9.4629
▁myself	-9.46487
late	-9.46574
lf	-9.46612
istic	-9.46665
▁prices	-9.46721
▁tu	-9.46783
▁guy	-9.46804
▁Just	-9.4684
▁Bre	-9.46905
ի	-9.46916
▁sex	-9.46974
▁gain	-9.47049
▁Ge	-9.47057
▁£2	-9.47059
▁station	-9.472
▁helped	-9.47214
ix	-9.47284
They	-9.4734
▁ob	-9.47348
▁respect	-9.4735
▁slow	-9.47383
ock	-9.47393
▁cast	-9.47447
▁doctor	-9.47474
▁wait	-9.47508
▁recover	-9.4785
▁Tom	-9.47882
ith	-9.47916
▁Green	-9.47928
▁heat	-9.47974
▁rock	-9.47979
▁ready	-9.48
term	-9.48009
▁23	-9.48014
▁skin	-9.48063
▁blood	-9.4836
▁trust	-9.4836
▁thousands	-9.4839
▁mu	-9.48466
▁Cro	-9.48482
▁leg	-9.48511
▁Bi	-9.48605
pen	-9.48634
▁decades	-9.4883
▁Los	-9.48928
▁Smith	-9.48945
▁questions	-9.48976
▁da	-9.49071
▁Chinese	-9.4909
▁contact	-9.49091
▁sun	-9.49155
▁pla	-9.49342
▁isn	-9.49406
▁Michael	-9.49531
▁credit	-9.49533
▁terms	-9.49748
▁practice	-9.49825
▁itself	-9.49827
▁hair	-9.49889
kh	-9.49908
▁Star	-9.50234
▁Qu	-9.5074
▁production	-9.50799
▁screen	-9.50822
▁property	-9.50864
▁inflation	-9.50864
▁alongside	-9.50901
bar	-9.50924
▁opening	-9.50939
▁Street	-9.51014
!"	-9.51027
ik	-9.51042
▁replace	-9.51116
▁officer	-9.51145
▁establish	-9.51163
▁sla	-9.51309
run	-9.51312
▁para	-9.51418
▁surprise	-9.51462
▁giving	-9.51463
▁followed	-9.51556
▁Nor	-9.5156
bra	-9.51576
▁hot	-9.5167
▁goes	-9.51717
▁award	-9.51753
▁maintain	-9.51763
▁Ber	-9.51819
dom	-9.51869
▁brother	-9.51914
▁drop	-9.51936
-0	-9.51939
▁original	-9.51956
▁Cla	-9.52009
vin	-9.52014
▁ship	-9.52059
▁Scottish	-9.52235
▁hands	-9.52274
pm	-9.52393
▁immediately	-9.52514
▁fill	-9.52649
▁attention	-9.5267
▁content	-9.52682
▁effort	-9.5273
▁fourth	-9.52742
▁reveal	-9.52754
Ma	-9.52821
▁suspect	-9.52822
▁pitch	-9.52871
cus	-9.52908
▁Nigeria	-9.52975
▁customers	-9.53053
▁High	-9.53059
▁kick	-9.5315
▁Korea	-9.53174
▁finish	-9.5321
▁2025	-9.53301
ification	-9.53432
▁green	-9.53436
▁27	-9.53472
▁failed	-9.53532
▁Manchester	-9.53585
▁Chief	-9.53594
▁battle	-9.53597
table	-9.53786
▁plant	-9.53826
-1	-9.53892
▁reflect	-9.53892
▁rules	-9.53896
▁Dan	-9.54055
No	-9.54065
ji	-9.54071
▁sentence	-9.5409
▁Shar	-9.54108
▁Sam	-9.54336
▁document	-9.54474
▁Meanwhile	-9.54509
▁receive	-9.54598
stitution	-9.54602
▁chair	-9.54646
▁request	-9.54664
▁true	-9.54667
tors	-9.54728
▁professional	-9.54819
▁budget	-9.54819
▁achieve	-9.54819
▁winner	-9.5483
▁standard	-9.54884
▁Germany	-9.54959
▁dress	-9.54977
▁north	-9.54978
▁education	-9.54991
</	-9.55044
▁hotel	-9.55055
▁collect	-9.55157
▁influence	-9.55285
▁published	-9.55287
▁prime	-9.55288
▁sector	-9.55319
▁forced	-9.55329
▁raised	-9.55354
az	-9.55437
▁spending	-9.55442
▁Ireland	-9.55446
▁rates	-9.55525
▁explained	-9.55585
▁above	-9.55606
▁suit	-9.55677
ison	-9.5575
▁artist	-9.55805
▁Sea	-9.55851
▁tri	-9.55958
▁begin	-9.5606
▁spokesperson	-9.56068
▁Ya	-9.56182
▁port	-9.56201
▁factor	-9.56221
▁website	-9.56225
▁author	-9.56313
chi	-9.5633
▁officers	-9.56331
▁ended	-9.56365
▁remove	-9.56387
But	-9.56583
▁effective	-9.56619
▁prove	-9.56628
▁Don	-9.56636
▁table	-9.56792
▁eat	-9.56911
cho	-9.56928
▁talking	-9.56952
▁Chris	-9.56994
▁conference	-9.57015
▁charge	-9.57206
▁rain	-9.57263
▁respond	-9.57294
▁alleged	-9.57305
▁hear	-9.57317
▁Ste	-9.57318
▁common	-9.57334
▁camera	-9.57354
▁Vo	-9.57361
10	-9.57378
hor	-9.57426
▁invest	-9.57468
ani	-9.57524
▁sit	-9.57535
▁Sta	-9.5758
▁Y	-9.57591
▁couldn	-9.57644
▁Act	-9.57649
▁natural	-9.57651
▁produce	-9.57666
house	-9.57697
▁shop	-9.57728
▁People	-9.57772
▁Government	-9.57811
▁2016	-9.57827
▁28	-9.57833
▁reached	-9.57959
▁Sho	-9.57968
▁60	-9.58002
▁appearance	-9.58034
▁Despite	-9.58131
▁Service	-9.58131
▁discuss	-9.58161
▁cu	-9.58218
▁plane	-9.58227
range	-9.5826
▁Texas	-9.58292
▁stock	-9.58368
▁products	-9.58507
▁Other	-9.58524
▁physical	-9.58614
▁league	-9.58614
▁central	-9.58656
▁type	-9.58683
maker	-9.58711
lly	-9.58727
▁contain	-9.58777
▁warning	-9.58885
▁positive	-9.58937
▁dream	-9.58937
▁defeat	-9.58946
▁lawyer	-9.58956
▁technology	-9.59098
▁Bill	-9.59378
▁electric	-9.59423
▁throw	-9.59589
▁champion	-9.5973
▁built	-9.59751
▁parties	-9.59852
▁Fu	-9.59907
▁sleep	-9.59911
▁letter	-9.60093
▁26	-9.60194
▁weather	-9.60242
wo	-9.60363
▁fell	-9.60443
▁Robert	-9.60443
▁Over	-9.60539
▁product	-9.60542
▁1.	-9.6056
▁specific	-9.60567
▁Premier	-9.60731
▁Johnson	-9.60821
▁que	-9.60824
sure	-9.60898
▁abuse	-9.60976
▁sold	-9.61061
▁bag	-9.6113
uch	-9.613
▁First	-9.61393
▁starting	-9.61394
tle	-9.61415
ն	-9.61544
▁politics	-9.61557
▁injury	-9.61558
xi	-9.61616
▁Bank	-9.61654
ino	-9.61681
▁council	-9.61724
▁Speak	-9.61725
star	-9.61771
aging	-9.61882
80	-9.61994
head	-9.62009
▁Ed	-9.62029
▁competition	-9.62057
▁2018	-9.62072
▁named	-9.62144
▁roll	-9.62146
▁pretty	-9.62225
▁warned	-9.62242
▁highlight	-9.62287
uk	-9.62368
▁south	-9.62392
ically	-9.62478
▁die	-9.62499
▁Hol	-9.62518
▁quality	-9.62547
▁illegal	-9.62558
▁kept	-9.62569
▁Jan	-9.62652
▁words	-9.62764
▁goals	-9.62862
▁grand	-9.62871
▁Putin	-9.62906
▁Ye	-9.63006
▁straight	-9.63063
▁justice	-9.63161
▁seems	-9.63294
▁miles	-9.6333
▁tough	-9.63369
▁shift	-9.63401
▁limit	-9.63412
▁payment	-9.63488
▁Win	-9.63508
▁Council	-9.63569
▁explain	-9.63583
▁Angeles	-9.6365
▁nu	-9.63767
fin	-9.63899
▁regard	-9.63912
▁compared	-9.64082
▁auto	-9.64097
▁prior	-9.64197
▁assault	-9.64249
▁MP	-9.64252
▁joined	-9.64269
▁poor	-9.64271
▁successful	-9.64295
▁residents	-9.64295
▁Fox	-9.64375
▁problems	-9.64381
▁EU	-9.64384
▁Wi	-9.64424
▁Two	-9.64468
vy	-9.64504
▁amid	-9.6451
ball	-9.64527
▁TikTok	-9.64591
▁Far	-9.64661
▁Florida	-9.64762
▁argue	-9.64781
read	-9.64884
▁normal	-9.64934
▁foot	-9.64935
dra	-9.65008
▁Va	-9.65041
▁condition	-9.65098
▁cash	-9.65125
▁Will	-9.65213
▁unit	-9.6525
▁decline	-9.65279
▁baby	-9.65331
▁Many	-9.65381
verse	-9.65593
▁changed	-9.65639
▁annual	-9.65796
▁Harry	-9.65796
▁From	-9.65802
▁alone	-9.65825
▁leadership	-9.65833
▁hearing	-9.65908
ency	-9.65948
▁simply	-9.65969
▁fuel	-9.65971
▁Pat	-9.65999
▁funding	-9.66004
iver	-9.6601
logical	-9.66044
shed	-9.66093
mission	-9.66134
▁secure	-9.66292
▁communities	-9.66316
▁mix	-9.66393
▁spend	-9.66425
▁fix	-9.66449
▁arrest	-9.66529
ER	-9.66622
▁critical	-9.66649
▁celebrate	-9.66665
▁essential	-9.66665
▁various	-9.66665
▁returned	-9.66808
▁citizen	-9.6684
That	-9.66848
ib	-9.66885
▁path	-9.66961
▁wall	-9.66968
▁historic	-9.67018
element	-9.67128
▁bra	-9.67178
▁opposition	-9.6719
▁district	-9.67191
▁adult	-9.67192
▁rare	-9.67255
▁Pu	-9.6732
▁Euro	-9.67341
▁warm	-9.67348
▁opt	-9.67372
▁network	-9.67373
▁Ken	-9.67493
▁population	-9.67547
▁Every	-9.67599
▁shooting	-9.67707
▁restaurant	-9.67719
▁conversation	-9.67719
▁wild	-9.67724
vision	-9.67854
▁throughout	-9.67908
▁caused	-9.67992
▁boo	-9.68038
+	-9.68072
▁Senate	-9.68117
▁issued	-9.68236
▁George	-9.6825
▁Open	-9.68314
uff	-9.68388
ular	-9.68423
▁generation	-9.68428
bit	-9.6845
▁seek	-9.68475
á	-9.68605
▁users	-9.68676
▁Bur	-9.6877
▁culture	-9.68783
▁Martin	-9.68844
▁opened	-9.68986
▁agreement	-9.69022
▁Pre	-9.69121
▁stress	-9.69162
▁sort	-9.6923
roll	-9.6924
▁largest	-9.69317
▁Royal	-9.69329
hold	-9.69428
▁Sal	-9.69448
Getty	-9.69518
ept	-9.69631
▁signed	-9.69682
▁boss	-9.69792
▁version	-9.6986
▁charged	-9.69922
▁Super	-9.69971
die	-9.69975
▁Since	-9.70044
▁sometimes	-9.70053
▁audience	-9.70221
▁band	-9.70258
mic	-9.70313
▁highest	-9.70381
▁flow	-9.70401
▁advance	-9.70402
▁missile	-9.70404
60	-9.7046
▁increased	-9.70497
▁finding	-9.70548
▁concern	-9.70552
▁housing	-9.70585
▁location	-9.70585
▁calling	-9.70587
▁Cam	-9.70613
▁Tim	-9.70642
▁defense	-9.70774
▁details	-9.70778
▁passed	-9.70815
▁delay	-9.70954
▁International	-9.7113
▁organization	-9.71133
▁boost	-9.71189
▁agreed	-9.71306
▁heavy	-9.71317
bil	-9.71458
▁created	-9.71492
▁Supreme	-9.71496
▁injured	-9.71497
ending	-9.71535
AN	-9.71631
▁Taylor	-9.7168
▁evening	-9.71706
▁ongoing	-9.71707
▁Mal	-9.71726
▁welcome	-9.71864
▁batter	-9.71866
▁pop	-9.71974
▁movement	-9.72109
▁wind	-9.72121
▁Apple	-9.72135
elect	-9.72174
▁seeing	-9.72229
ound	-9.72338
▁Tru	-9.72392
▁meant	-9.72421
▁middle	-9.72425
▁island	-9.72476
▁journey	-9.72602
▁Queen	-9.72603
▁policies	-9.72787
▁features	-9.72894
▁sy	-9.72904
▁lose	-9.72918
▁considered	-9.72925
▁village	-9.72974
▁debut	-9.72979
bound	-9.73027
▁Hill	-9.73035
▁contest	-9.73351
▁crash	-9.73352
▁kill	-9.73386
▁Port	-9.73403
▁gu	-9.73414
▁attorney	-9.73533
▁recommend	-9.73533
rated	-9.73675
▁attract	-9.73777
▁massive	-9.73782
▁missing	-9.7382
zi	-9.73935
▁meaning	-9.74062
▁worse	-9.74097
▁floor	-9.74098
▁Cu	-9.74214
▁department	-9.74284
▁animal	-9.74288
▁advise	-9.74315
▁style	-9.74361
▁beautiful	-9.74473
▁episode	-9.74473
▁rec	-9.74504
▁wish	-9.74604
▁determine	-9.74663
nie	-9.74703
rum	-9.74788
▁pack	-9.74846
▁Health	-9.74857
▁29	-9.75104
▁lay	-9.75107
▁Hi	-9.75142
▁camp	-9.75219
▁businesses	-9.75258
▁display	-9.75259
▁offered	-9.75306
▁paper	-9.75329
▁lock	-9.75357
▁Here	-9.75357
▁reality	-9.75611
▁abortion	-9.75613
▁fresh	-9.75615
igh	-9.75634
▁update	-9.75669
▁Union	-9.75768
▁Sir	-9.75795
▁primary	-9.75804
▁beyond	-9.75804
▁witness	-9.75804
▁fighting	-9.75954
▁Mike	-9.7598
▁English	-9.75995
▁Tri	-9.76027
▁facing	-9.76043
▁weight	-9.76087
place	-9.76122
▁decade	-9.76151
▁threaten	-9.76183
▁Georgia	-9.76187
▁prosecutor	-9.76187
▁Justice	-9.76211
▁finally	-9.76215
▁harm	-9.76242
arch	-9.76251
▁passenger	-9.7638
▁student	-9.76547
▁recall	-9.76636
▁Amazon	-9.76765
▁famous	-9.76766
▁tech	-9.7677
oke	-9.76875
q	-9.76892
▁text	-9.76998
break	-9.77021
▁killing	-9.77069
▁patients	-9.77089
▁independent	-9.77153
▁scored	-9.7718
▁provided	-9.77211
▁bomb	-9.7723
▁spread	-9.77368
▁traditional	-9.77376
▁additional	-9.77407
rick	-9.7749
▁injuries	-9.77737
▁storm	-9.77741
&	-9.77801
▁Island	-9.77825
▁journalist	-9.77837
▁pandemic	-9.77931
▁Shi	-9.77968
▁counter	-9.78058
▁parliament	-9.78127
▁Our	-9.78127
▁separate	-9.78128
And	-9.78194
bert	-9.78204
hand	-9.78235
▁Wales	-9.7831
hood	-9.78313
lia	-9.784
▁Met	-9.78422
▁affect	-9.78473
▁refer	-9.78491
▁emergency	-9.7852
▁debt	-9.78539
▁Chi	-9.78559
▁moving	-9.78837
▁tournament	-9.78914
▁subject	-9.79111
▁Spain	-9.7916
even	-9.7923
nda	-9.79286
▁ear	-9.79295
▁Kamala	-9.7931
▁beach	-9.79319
▁center	-9.79367
▁Prince	-9.79487
▁although	-9.79508
▁drone	-9.7951
▁accus	-9.79697
▁agent	-9.79698
▁flood	-9.79707
▁Ram	-9.79724
▁coast	-9.7973
▁ability	-9.79823
▁dance	-9.79887
▁difference	-9.79906
▁loved	-9.79962
▁email	-9.80107
▁certainly	-9.80196
▁mass	-9.80262
▁encourage	-9.80305
law	-9.80441
ó	-9.80506
▁college	-9.80506
▁surround	-9.80506
▁hour	-9.80588
▁Mac	-9.806
▁notice	-9.80608
poli	-9.80644
▁dark	-9.80725
▁faced	-9.80757
▁cool	-9.80802
▁arrived	-9.80897
15	-9.80905
▁predict	-9.80917
load	-9.80954
▁Za	-9.81001
մ	-9.8111
▁cla	-9.81221
▁disease	-9.81312
▁becoming	-9.81328
▁hundreds	-9.81353
under	-9.81431
▁sat	-9.8144
▁size	-9.81561
▁mention	-9.81657
▁broke	-9.81694
wide	-9.81705
▁exam	-9.81787
▁McC	-9.81815
tory	-9.8188
▁guilty	-9.8192
▁occasion	-9.8192
▁required	-9.81989
cker	-9.82052
▁connect	-9.8206
list	-9.82113
▁herself	-9.82124
▁married	-9.82125
▁defence	-9.82175
25	-9.82214
What	-9.82217
▁Pol	-9.82283
40	-9.82467
▁lie	-9.82468
▁Jones	-9.82557
When	-9.82652
▁General	-9.8274
▁Char	-9.8275
▁Gold	-9.82814
hel	-9.82948
▁jump	-9.82949
▁rival	-9.8297
ken	-9.82979
▁environment	-9.83007
▁planning	-9.83017
▁quick	-9.83048
▁income	-9.83129
▁temperature	-9.83148
▁telling	-9.83261
▁showing	-9.83286
▁Khan	-9.83301
▁connection	-9.8334
▁expand	-9.83355
▁loan	-9.83367
▁dangerous	-9.83374
▁2017	-9.83382
▁commitment	-9.83392
▁Fo	-9.83399
▁fee	-9.8348
print	-9.8354
▁eventually	-9.83561
▁German	-9.83584
▁female	-9.83768
ender	-9.83795
▁window	-9.83804
▁served	-9.83811
▁31	-9.83821
▁fully	-9.83865
▁pan	-9.83894
▁watching	-9.83924
▁cook	-9.84114
▁Conservative	-9.84184
▁seemed	-9.84188
▁suggested	-9.84252
▁Pakistan	-9.84392
▁driving	-9.84392
▁dozen	-9.84394
▁Commission	-9.84404
ott	-9.84496
▁limited	-9.84586
▁BJP	-9.84601
▁reject	-9.84606
▁spark	-9.84618
▁80	-9.84643
more	-9.84698
▁word	-9.84952
▁Sen	-9.85082
▁Home	-9.85363
▁completely	-9.85381
▁detail	-9.85427
▁scheme	-9.8544
▁jail	-9.85443
ology	-9.85565
▁squad	-9.85651
▁balance	-9.85652
▁nice	-9.85664
▁particular	-9.85728
▁par	-9.85816
▁cat	-9.85859
í	-9.85862
▁consumer	-9.85863
script	-9.85864
illa	-9.85909
▁pen	-9.85924
▁UN	-9.85935
▁secret	-9.86039
▁Bor	-9.86044
▁£3	-9.86074
▁material	-9.86074
▁transfer	-9.86075
▁extend	-9.86081
▁complaint	-9.86085
▁scar	-9.86109
board	-9.86134
My	-9.8644
▁writing	-9.865
▁seem	-9.86517
▁blue	-9.86715
▁admitted	-9.86747
rist	-9.86751
12	-9.86754
▁rally	-9.86771
▁traffic	-9.86926
▁$3	-9.8694
▁ballot	-9.87004
▁Ty	-9.87132
▁usually	-9.87274
▁allegations	-9.87355
▁profit	-9.87358
▁believed	-9.87361
turn	-9.87415
▁colleague	-9.8757
▁lawsuit	-9.8757
▁simple	-9.8757
aries	-9.87787
▁write	-9.87791
To	-9.87795
top	-9.87839
17	-9.87927
▁Hall	-9.8809
▁offering	-9.88151
▁CEO	-9.88219
▁cit	-9.88254
▁Peter	-9.88273
▁Kar	-9.88273
type	-9.88309
▁protection	-9.88377
▁album	-9.88435
▁favourite	-9.88446
▁union	-9.88447
▁committed	-9.88458
▁sister	-9.88508
▁equal	-9.88546
▁brief	-9.88653
▁southern	-9.88655
▁Most	-9.88768
▁supporters	-9.88804
▁organ	-9.8882
▁bid	-9.88879
▁speed	-9.88884
▁depend	-9.88884
▁singer	-9.88894
▁born	-9.88915
▁designed	-9.89001
arian	-9.89005
nny	-9.89011
▁Group	-9.89089
▁trend	-9.89092
▁proud	-9.89098
ense	-9.89469
▁seeking	-9.89485
▁waiting	-9.89509
▁older	-9.89522
▁perhaps	-9.89527
izing	-9.89527
▁brain	-9.89608
▁addition	-9.89705
*	-9.89746
▁stories	-9.89747
ella	-9.89756
▁secretary	-9.89783
She	-9.89834
▁kid	-9.89859
▁raise	-9.89859
Those	-9.89891
▁broad	-9.89963
▁proposal	-9.89967
▁School	-9.89967
▁denied	-9.89973
RE	-9.89987
▁wearing	-9.89998
▁filed	-9.9004
▁user	-9.90079
▁overall	-9.90145
▁closed	-9.90205
▁era	-9.90408
▁relative	-9.90409
▁doubt	-9.90411
▁dad	-9.90543
▁emotional	-9.90589
▁trail	-9.90622
▁article	-9.90631
▁modern	-9.90632
stone	-9.90748
▁90	-9.90798
▁asking	-9.90803
▁Test	-9.90864
▁Jack	-9.90975
▁engage	-9.90997
▁rent	-9.91071
▁bowl	-9.91085
▁plea	-9.91142
berg	-9.91269
▁spa	-9.91329
▁supply	-9.91523
▁dropped	-9.91541
style	-9.91621
mouth	-9.91622
▁winter	-9.91648
Q	-9.91673
▁intelligence	-9.91746
▁language	-9.91747
now	-9.91754
▁flag	-9.91765
temp	-9.91779
▁listen	-9.91848
▁lit	-9.91883
ette	-9.9192
▁holding	-9.91942
▁Daniel	-9.91973
▁beginning	-9.92009
▁bull	-9.92059
▁burn	-9.92073
▁Australian	-9.92085
graph	-9.92097
strong	-9.92134
▁Bel	-9.9225
▁laugh	-9.92259
▁spi	-9.92399
▁garden	-9.92423
▁tend	-9.92486
▁solution	-9.92649
▁Musk	-9.92666
▁Steve	-9.92688
tric	-9.92714
▁Gen	-9.92809
▁Pen	-9.92825
▁God	-9.92837
▁Photograph	-9.92878
ան	-9.92894
▁caught	-9.92916
▁stream	-9.92919
▁finished	-9.9298
▁engine	-9.93103
▁talent	-9.93106
▁route	-9.93133
▁allegedly	-9.93142
ado	-9.93147
▁stuff	-9.93189
75	-9.93191
ո	-9.93329
▁survey	-9.9333
cep	-9.93341
▁Ali	-9.93349
▁page	-9.93365
▁dismiss	-9.93559
▁Center	-9.93566
life	-9.9358
▁tree	-9.93611
▁Tre	-9.9375
▁east	-9.93771
▁degree	-9.93788
wan	-9.93857
▁fail	-9.93933
new	-9.94022
▁Alex	-9.94157
ivity	-9.94195
zo	-9.94279
▁nature	-9.94295
▁custom	-9.94358
▁shut	-9.94366
▁cold	-9.9438
▁wedding	-9.94479
▁catch	-9.94497
▁express	-9.94638
▁infrastructure	-9.94708
▁Chelsea	-9.94708
▁politician	-9.94708
▁amazing	-9.94708
▁exchange	-9.94726
▁rich	-9.94757
▁grant	-9.94774
▁maybe	-9.9481
aught	-9.94861
▁losing	-9.94867
▁stick	-9.94896
▁Modi	-9.94933
▁society	-9.9494
▁retail	-9.95173
▁wave	-9.95198
▁70	-9.95212
▁programme	-9.95218
▁Post	-9.95224
▁corner	-9.95242
▁Both	-9.95295
▁Kate	-9.9531
▁African	-9.95324
▁lift	-9.95407
▁freedom	-9.95435
▁transport	-9.9568
▁feet	-9.95709
page	-9.95798
▁agree	-9.95804
▁Den	-9.95856
▁purchase	-9.95871
▁responsible	-9.95871
▁Secretary	-9.95887
▁$5	-9.95893
▁Min	-9.95955
▁Arsenal	-9.96105
▁active	-9.96302
▁multi	-9.96333
▁wonder	-9.96493
▁Scott	-9.96545
▁continu	-9.96567
▁contribute	-9.96575
▁device	-9.96576
▁daily	-9.96576
▁Starmer	-9.96597
▁Why	-9.96738
▁confidence	-9.96811
▁NHS	-9.96811
acy	-9.9686
▁ruling	-9.96918
▁directly	-9.96952
▁Moscow	-9.97047
▁boat	-9.97079
▁Love	-9.97118
▁Comp	-9.97233
▁Netanyahu	-9.97284
▁committee	-9.97285
▁complex	-9.97285
▁fish	-9.97341
▁Former	-9.97385
eva	-9.97407
▁Ten	-9.97431
▁domestic	-9.97522
▁mission	-9.9754
ville	-9.97562
▁below	-9.9786
▁powerful	-9.97893
▁suffered	-9.97905
▁surge	-9.97955
▁Chicago	-9.97999
▁associate	-9.97999
▁session	-9.98001
▁Adam	-9.98032
▁stopped	-9.98038
▁flat	-9.9805
▁minor	-9.98134
Re	-9.98172
▁immigration	-9.98238
▁fashion	-9.98238
round	-9.98289
▁Yet	-9.98338
▁paint	-9.98403
▁min	-9.98428
▁semi	-9.9852
▁nuclear	-9.98718
▁Play	-9.98724
▁Phil	-9.98738
▁Charles	-9.98746
▁potentially	-9.98831
▁Mary	-9.98842
matic	-9.98949
▁Security	-9.98959
▁blame	-9.98961
▁organisation	-9.98964
grade	-9.9898
final	-9.98996
▁Big	-9.99
▁Reg	-9.99181
▁Liverpool	-9.992
▁register	-9.99201
mond	-9.99223
▁Italy	-9.99268
▁mum	-9.9931
▁expressed	-9.99349
▁standing	-9.99459
La	-9.99597
▁digital	-9.99686
▁exactly	-9.99686
▁Dar	-9.99715
▁Clark	-9.99731
▁airport	-9.99768
11	-9.9985
▁speaking	-9.99857
▁destroy	-9.99929
▁colour	-9.9993
▁guest	-10.0001
▁Grand	-10.0007
▁basic	-10.001
▁opportunities	-10.0017
▁Richard	-10.0017
▁prompt	-10.0017
▁royal	-10.0018
▁carried	-10.0018
▁guide	-10.0021
▁involve	-10.0021
▁medal	-10.0022
app	-10.0027
look	-10.0028
▁implement	-10.0042
19	-10.0044
▁fellow	-10.0046
▁decide	-10.0047
▁san	-10.0047
▁missed	-10.0055
west	-10.0066
▁plenty	-10.0066
▁object	-10.0066
▁Delhi	-10.0066
▁Mag	-10.0067
▁planned	-10.0068
east	-10.0074
▁minute	-10.0079
▁younger	-10.0084
▁35	-10.009
▁yourself	-10.0091
▁net	-10.0118
▁Inter	-10.0119
▁teacher	-10.0133
▁Google	-10.014
▁Japan	-10.014
▁gift	-10.014
▁2015	-10.0144
care	-10.0148
▁governor	-10.0151
▁focused	-10.0154
▁writer	-10.0164
▁transform	-10.0167
put	-10.0168
▁items	-10.0175
▁tight	-10.0182
▁cities	-10.0185
▁Ver	-10.0188
▁troops	-10.019
▁prefer	-10.019
▁sitting	-10.0199
▁cancel	-10.0207
fire	-10.0214
ON	-10.0216
24	-10.0233
▁clearly	-10.0236
▁conservative	-10.0239
▁commission	-10.024
▁Syria	-10.024
isation	-10.024
▁remind	-10.0242
▁matches	-10.0247
▁shown	-10.0262
▁giant	-10.0265
▁Louis	-10.0265
▁reform	-10.0274
▁assist	-10.0278
▁birth	-10.0288
▁identified	-10.029
▁Western	-10.029
▁responded	-10.0296
▁management	-10.0296
IN	-10.0312
▁affected	-10.0321
▁managed	-10.0326
▁tip	-10.0337
▁Andrew	-10.0342
▁wage	-10.0346
Z	-10.0363
▁struck	-10.0365
▁afternoon	-10.0365
▁Brown	-10.0367
▁joke	-10.0391
▁crew	-10.0396
▁footage	-10.0398
hen	-10.0399
▁Press	-10.0415
atory	-10.042
▁guard	-10.0421
▁opponent	-10.0441
▁broadcast	-10.0442
▁Sky	-10.0442
▁apply	-10.0443
▁unique	-10.0447
▁Hezbollah	-10.0467
▁setting	-10.0481
▁concerned	-10.0482
▁Thomas	-10.0492
▁crucial	-10.0492
unk	-10.0493
▁photograph	-10.0493
ttle	-10.0495
▁Q	-10.0496
▁Out	-10.0503
▁Pan	-10.0514
▁twice	-10.0518
▁worst	-10.0518
▁bought	-10.0518
▁Middle	-10.0519
▁assess	-10.0523
▁voting	-10.0527
▁confirm	-10.0541
▁strategy	-10.0544
▁marriage	-10.0544
▁truth	-10.0544
▁ill	-10.0545
▁van	-10.0546
▁discussion	-10.0565
▁spirit	-10.057
▁adopt	-10.0571
▁rescue	-10.0571
▁saving	-10.0575
itz	-10.0593
▁Singh	-10.0595
▁Carolina	-10.0595
▁£5	-10.0595
տ	-10.0595
▁sad	-10.0601
▁rising	-10.0608
mph	-10.0613
▁Instead	-10.0621
▁Mexico	-10.0621
▁legislation	-10.0621
ridge	-10.0622
▁severe	-10.0624
▁blow	-10.0632
▁democracy	-10.0647
▁captain	-10.0647
▁Who	-10.0665
ifi	-10.0673
▁providing	-10.0673
ulation	-10.0675
▁capture	-10.068
▁weak	-10.0681
▁Ku	-10.0687
▁Canada	-10.0699
▁Christian	-10.0699
▁Ryan	-10.07
▁increasingly	-10.0703
▁activities	-10.0726
▁definitely	-10.0726
▁opinion	-10.0726
▁Under	-10.0733
town	-10.074
▁row	-10.0748
▁revenue	-10.0752
▁advice	-10.0752
▁initiative	-10.0752
▁mistake	-10.0753
▁Bla	-10.0762
▁PM	-10.0771
▁athlete	-10.0778
▁disrupt	-10.0778
▁century	-10.0778
▁cheap	-10.0778
burg	-10.0787
▁flu	-10.0791
5%	-10.0794
▁Ham	-10.0796
▁Although	-10.0804
▁crack	-10.0805
million	-10.0805
▁split	-10.0806
half	-10.081
▁chain	-10.0813
▁Lake	-10.0819
▁Swift	-10.0831
▁linked	-10.0831
▁suffering	-10.0848
▁declared	-10.0852
▁River	-10.0856
▁consult	-10.0858
▁Van	-10.0862
▁Matt	-10.0864
▁retire	-10.0882
▁status	-10.0884
▁Max	-10.0888
▁gender	-10.0889
▁absolutely	-10.0898
thro	-10.0902
bility	-10.0907
▁trouble	-10.0911
power	-10.0914
▁activist	-10.0937
ու	-10.0938
▁Social	-10.0938
▁failure	-10.0939
▁expensive	-10.0964
▁choose	-10.0964
▁Great	-10.0965
▁activity	-10.0966
▁Vice	-10.097
itch	-10.0973
▁honest	-10.0991
▁Blue	-10.0992
▁hurt	-10.0993
▁2014	-10.1021
▁­	-10.1026
▁code	-10.103
▁acknowledge	-10.1045
▁festival	-10.1045
▁proposed	-10.1045
▁Like	-10.1058
€	-10.1072
▁resources	-10.1072
▁Hollywood	-10.1072
▁allies	-10.1079
▁Cra	-10.108
▁Lebanon	-10.1099
▁neighbour	-10.1099
▁breath	-10.11
▁enforcement	-10.1102
▁hate	-10.1105
95	-10.1109
▁vice	-10.1119
▁territory	-10.1127
▁application	-10.1127
▁male	-10.1127
▁prospect	-10.1127
▁discovered	-10.114
▁household	-10.1157
▁Well	-10.1158
profile	-10.1161
▁Keir	-10.1173
state	-10.1173
▁Italian	-10.1182
▁Brit	-10.1189
▁Val	-10.1194
▁tear	-10.1197
found	-10.1201
▁compete	-10.1204
▁Championship	-10.1209
▁Before	-10.1209
▁promote	-10.121
take	-10.1223
Ha	-10.1234
23	-10.1235
▁#	-10.1241
▁alternative	-10.1264
▁repeatedly	-10.1264
▁television	-10.1264
▁odd	-10.1268
ordinat	-10.1269
▁@	-10.1273
▁Committee	-10.1292
▁machine	-10.1292
▁finance	-10.1292
▁Real	-10.1296
▁link	-10.1297
▁introduced	-10.1309
▁resident	-10.1312
▁collection	-10.1315
▁convicted	-10.1319
▁written	-10.1319
▁Seattle	-10.132
▁estate	-10.1324
▁surgery	-10.1325
▁Hor	-10.1329
hop	-10.133
▁rush	-10.1336
16	-10.1346
▁cricket	-10.1347
▁sudden	-10.1347
=	-10.1348
▁36	-10.1353
▁govern	-10.1357
born	-10.1374
▁migrants	-10.1375
▁investors	-10.1376
▁ride	-10.1384
▁regional	-10.1391
▁drama	-10.1395
▁necessary	-10.1403
▁veteran	-10.1403
▁Tro	-10.1408
▁45	-10.1412
▁please	-10.1417
▁collaborat	-10.1431
▁university	-10.1431
▁knock	-10.1431
▁upcoming	-10.1432
▁transition	-10.1435
▁task	-10.144
▁announcement	-10.146
▁Law	-10.1462
▁motor	-10.1478
▁ceremony	-10.1488
appropriate	-10.1516
▁wealth	-10.1517
-19	-10.1518
▁outlet	-10.152
ancy	-10.1528
play	-10.1535
45	-10.1543
▁Vance	-10.1544
▁cultural	-10.1545
▁structure	-10.1545
▁Women	-10.1545
▁putt	-10.1573
▁initially	-10.1577
▁related	-10.1586
▁34	-10.1592
▁Bru	-10.1594
▁grew	-10.1608
▁App	-10.161
▁manage	-10.1616
▁largely	-10.1622
▁obviously	-10.1624
▁Netflix	-10.163
▁confident	-10.163
▁affair	-10.163
▁creating	-10.163
▁elected	-10.1631
▁direction	-10.1634
▁Sunak	-10.1635
▁Good	-10.1636
ization	-10.1638
▁bigger	-10.1643
▁£4	-10.1659
▁spring	-10.1675
▁select	-10.168
▁offensive	-10.1688
▁podcast	-10.1688
▁resign	-10.169
▁stake	-10.1707
▁scheduled	-10.171
ium	-10.1711
▁accident	-10.1717
▁monitor	-10.1717
▁excited	-10.1717
▁frame	-10.172
▁clip	-10.1721
▁tension	-10.1722
▁edge	-10.1724
▁Kim	-10.1726
▁Free	-10.173
bble	-10.1732
▁settle	-10.1733
▁33	-10.1744
▁MORE	-10.1746
▁behaviour	-10.1746
▁switch	-10.1748
$	-10.176
rendering	-10.1775
▁presence	-10.1776
▁birthday	-10.1776
▁outcome	-10.1777
▁shoot	-10.1777
▁purpose	-10.1804
▁Brazil	-10.1804
▁apparent	-10.1804
▁tackle	-10.1804
▁announc	-10.1809
known	-10.181
▁Dun	-10.1831
▁exercise	-10.1833
▁penalty	-10.1833
▁nominee	-10.1833
▁shape	-10.1834
▁scale	-10.1834
▁Team	-10.1852
▁rose	-10.1852
shirt	-10.1858
▁dig	-10.1866
▁tourist	-10.1869
how	-10.187
▁Live	-10.1886
▁argument	-10.1892
▁entertain	-10.1892
▁Irish	-10.1894
▁Nu	-10.1903
▁Year	-10.191
▁Central	-10.1921
▁Road	-10.1926
▁viewers	-10.1928
▁strength	-10.194
▁Facebook	-10.1951
▁capacity	-10.1951
▁analyst	-10.1951
▁insurance	-10.1951
model	-10.1959
▁Ministry	-10.1981
▁struggling	-10.1981
▁Stadium	-10.1981
▁stretch	-10.1981
▁dry	-10.1983
▁partnership	-10.1986
▁producer	-10.2008
▁collapse	-10.201
▁worry	-10.201
▁constant	-10.201
▁Judge	-10.2011
▁Wood	-10.2011
tress	-10.2019
titude	-10.204
▁identity	-10.204
▁length	-10.204
▁command	-10.204
▁nearby	-10.2047
standing	-10.2051
▁Part	-10.2052
▁Because	-10.207
▁NFL	-10.207
▁fraud	-10.207
▁Jen	-10.2074
▁novel	-10.2075
▁channel	-10.21
▁Kha	-10.21
▁zone	-10.21
▁broken	-10.2106
▁deserve	-10.2109
98	-10.2116
most	-10.2128
▁Earlier	-10.213
▁ITV	-10.2131
▁panel	-10.2143
▁urged	-10.2155
▁32	-10.2158
▁Twitter	-10.2161
▁easier	-10.2161
▁operate	-10.2161
▁bottle	-10.2162
▁legend	-10.2164
▁mini	-10.2165
cover	-10.2166
▁whatever	-10.2171
For	-10.2172
▁consistent	-10.2191
▁regulation	-10.2191
▁reaction	-10.2191
▁indicate	-10.2192
▁criticism	-10.2195
ku	-10.2203
▁Democrat	-10.2203
▁cell	-10.2217
▁bottom	-10.2221
▁sweet	-10.2222
▁pension	-10.2222
fall	-10.2226
▁emerged	-10.2229
false	-10.2231
▁increasing	-10.2248
18	-10.2249
▁responsibility	-10.2252
▁church	-10.2252
▁serving	-10.2253
▁soft	-10.2276
▁soldiers	-10.2282
▁forecast	-10.2283
▁wound	-10.2286
▁ultimately	-10.2294
▁initial	-10.2311
▁College	-10.2313
▁glass	-10.2313
,500	-10.2324
▁reporters	-10.2334
▁rail	-10.2335
cap	-10.2345
▁larger	-10.2346
▁Princess	-10.2347
▁repeat	-10.235
▁Best	-10.235
▁jury	-10.2354
▁Today	-10.2359
ground	-10.2369
▁sustain	-10.2369
▁spin	-10.2371
▁surface	-10.2375
▁fifth	-10.2375
▁extremely	-10.2375
▁solid	-10.2378
▁unable	-10.2395
▁Institute	-10.2406
▁advantage	-10.2406
▁proceed	-10.2406
▁prize	-10.2406
▁Read	-10.241
14	-10.241
view	-10.2412
▁realise	-10.2417
▁snap	-10.2419
▁easily	-10.2437
▁Follow	-10.2437
▁bodies	-10.2437
▁gene	-10.2437
▁tea	-10.2438
▁correct	-10.2439
▁clash	-10.2464
some	-10.2466
▁withdraw	-10.2468
▁classic	-10.2469
▁estimated	-10.2469
▁2012	-10.2472
mount	-10.2476
▁mine	-10.2486
▁Yo	-10.2489
▁Association	-10.2499
▁yards	-10.25
▁praise	-10.2501
empt	-10.251
▁Nick	-10.2518
▁false	-10.2522
▁rape	-10.2523
▁Force	-10.2527
OR	-10.253
▁Arizona	-10.253
▁District	-10.253
▁actress	-10.2531
season	-10.2542
▁handle	-10.2558
▁label	-10.2569
▁bond	-10.2575
▁37	-10.258
▁chip	-10.2591
▁Pennsylvania	-10.2593
▁imagine	-10.2593
▁trigger	-10.2593
▁bonus	-10.2594
▁Three	-10.2594
▁introduc	-10.2605
▁prepared	-10.2613
▁dish	-10.2624
▁smart	-10.2625
▁communication	-10.2625
▁survive	-10.2625
▁adapt	-10.2657
▁horse	-10.2657
▁Gov	-10.266
28	-10.2663
▁sharing	-10.267
▁commercial	-10.2689
▁routine	-10.2689
▁sharp	-10.2691
▁bench	-10.2693
▁function	-10.2695
5,000	-10.2702
▁pool	-10.2704
Thank	-10.2715
book	-10.2716
▁beauty	-10.2721
▁pledge	-10.2753
▁sought	-10.2753
▁Lord	-10.2757
▁hoping	-10.276
▁Tour	-10.2772
▁Right	-10.2777
▁deploy	-10.2785
▁Glasgow	-10.2785
▁Asia	-10.2806
▁describe	-10.2812
▁Villa	-10.2816
▁guarantee	-10.2817
▁yesterday	-10.2817
▁venue	-10.2817
▁Frank	-10.2817
▁method	-10.2817
▁northern	-10.2817
▁section	-10.2831
▁pose	-10.2837
▁<	-10.284
pose	-10.2847
▁diplomat	-10.2849
▁Spanish	-10.2849
▁violent	-10.2849
▁vision	-10.285
▁construction	-10.2853
owned	-10.2858
▁Bell	-10.286
▁river	-10.2867
▁campus	-10.2871
free	-10.2873
▁Parliament	-10.2882
▁draft	-10.2882
▁Federal	-10.2882
▁gang	-10.2887
▁admit	-10.2911
ppy	-10.2911
▁alcohol	-10.2914
▁Michigan	-10.2914
▁refused	-10.2914
▁Victoria	-10.2915
▁bio	-10.2922
ddle	-10.2939
▁consequence	-10.2947
▁joy	-10.2948
▁frequent	-10.298
▁dollars	-10.298
▁replied	-10.298
▁$4	-10.2981
▁parent	-10.2985
▁Once	-10.2986
▁relief	-10.2987
▁client	-10.3013
Elements	-10.3013
▁bright	-10.3031
▁invasion	-10.3046
iber	-10.307
▁Work	-10.3081
▁typically	-10.3092
▁receiving	-10.3112
▁supposed	-10.3112
▁truly	-10.3112
▁bird	-10.3117
▁pace	-10.3121
▁environmental	-10.3135
▁Kennedy	-10.3145
▁Jewish	-10.3145
▁escape	-10.3146
▁charity	-10.3146
dotcom	-10.3146
▁snow	-10.3149
▁identify	-10.3179
▁Jackson	-10.3186
▁resist	-10.3189
▁detect	-10.319
▁Simon	-10.3191
▁danger	-10.321
▁kitchen	-10.3212
▁professor	-10.3212
▁Covid	-10.3213
▁Also	-10.3221
▁Dev	-10.3225
count	-10.3227
▁discover	-10.3235
▁estimate	-10.3244
▁championship	-10.325
▁hole	-10.3252
▁extreme	-10.3279
▁aircraft	-10.328
▁explore	-10.328
}	-10.3281
friend	-10.3294
▁afford	-10.3309
▁Research	-10.3314
▁oppose	-10.3314
▁Jeff	-10.3322
85	-10.3335
▁neck	-10.3344
▁recruit	-10.3348
▁causing	-10.3348
▁quiet	-10.3348
66	-10.3354
▁color	-10.3369
▁convention	-10.3382
▁Egypt	-10.3382
▁Disney	-10.3382
▁apartment	-10.3382
▁visitors	-10.3385
▁Dia	-10.3409
▁brilliant	-10.3416
▁recognise	-10.3416
▁mountain	-10.3416
▁coffee	-10.3416
▁nomination	-10.3416
▁Club	-10.3451
▁intention	-10.3451
▁operating	-10.3485
▁encounter	-10.3485
▁CBS	-10.3485
▁enhance	-10.352
89	-10.3542
▁trick	-10.355
▁vast	-10.3553
▁Guardian	-10.3554
▁dinner	-10.3555
▁install	-10.3556
▁faith	-10.3558
▁endorse	-10.3559
▁terrorist	-10.356
▁Ven	-10.357
▁flee	-10.3587
▁Edinburgh	-10.3589
▁celebration	-10.3589
▁internet	-10.359
▁Bridge	-10.3598
▁Photo	-10.3624
▁Muslim	-10.3624
▁slightly	-10.3624
▁ensur	-10.3624
▁divide	-10.3625
▁Long	-10.3647
minute	-10.365
▁comfort	-10.3654
***	-10.3659
▁facilities	-10.3659
▁upset	-10.3662
▁confront	-10.3663
▁strengthen	-10.3673
worth	-10.3679
▁stood	-10.3695
▁honor	-10.3695
▁clinic	-10.3695
▁complain	-10.3728
▁agencies	-10.373
▁margin	-10.373
▁assets	-10.3732
▁importance	-10.3733
▁representative	-10.3734
▁slip	-10.3759
▁Sydney	-10.3765
ս	-10.3765
▁investigate	-10.3765
▁immediate	-10.3766
▁arrive	-10.3767
▁protesters	-10.377
▁dramatic	-10.3776
▁hyp	-10.379
▁favour	-10.3799
▁Celtic	-10.3801
08	-10.3801
AFP	-10.3827
wick	-10.3835
▁Hospital	-10.3837
▁desperate	-10.3837
▁Four	-10.3839
▁Show	-10.3841
phone	-10.3871
▁humanitarian	-10.3872
▁Foreign	-10.3873
▁hang	-10.3875
▁regime	-10.3877
▁everybody	-10.3881
▁YouTube	-10.3908
▁worried	-10.3908
election	-10.3909
▁distance	-10.3909
▁basis	-10.391
publish	-10.3911
▁Still	-10.3942
▁assistance	-10.395
▁wake	-10.3951
▁airline	-10.3958
▁execut	-10.3974
▁competitive	-10.3981
▁thrill	-10.3981
▁roughly	-10.3981
▁Earth	-10.3981
▁occurred	-10.3984
cast	-10.3992
▁Look	-10.3998
▁teach	-10.4008
▁terror	-10.4012
weight	-10.4016
▁Associate	-10.4017
▁NATO	-10.4017
▁negative	-10.4017
▁memory	-10.4017
▁dating	-10.4018
▁comfortable	-10.4023
▁peak	-10.4027
▁Saudi	-10.4054
▁Northern	-10.4054
▁fruit	-10.4055
▁Little	-10.4058
▁48	-10.4058
▁pub	-10.407
related	-10.4076
claim	-10.4078
▁appointment	-10.409
▁involving	-10.409
▁coalition	-10.409
▁climb	-10.409
▁Boeing	-10.4093
▁vital	-10.41
▁patient	-10.4102
▁approved	-10.4127
▁unlikely	-10.4127
▁GOP	-10.4127
▁lawmakers	-10.4127
▁spokesman	-10.4128
▁Digital	-10.4164
▁Vegas	-10.4164
▁luxury	-10.4164
▁possibility	-10.4164
▁scientist	-10.4164
▁wicket	-10.4164
▁Francisco	-10.4167
▁Director	-10.4169
ique	-10.4189
76	-10.4196
▁equipment	-10.4201
▁impressive	-10.4201
▁editor	-10.4201
▁mobile	-10.4201
▁Space	-10.4201
▁micro	-10.4201
▁egg	-10.4201
▁Centre	-10.4201
▁Oct	-10.4206
▁package	-10.4211
▁spotted	-10.4217
▁strange	-10.4217
iya	-10.4226
▁circumstances	-10.4238
▁obtain	-10.4238
▁changing	-10.4238
▁2010	-10.4245
▁viral	-10.4247
▁Watch	-10.425
▁Tory	-10.4261
▁teenager	-10.4275
▁studio	-10.4276
▁researchers	-10.4278
▁bridge	-10.4281
▁Iranian	-10.4287
▁Brook	-10.4297
build	-10.4299
▁38	-10.4305
▁Stephen	-10.4313
▁desire	-10.4315
▁root	-10.4326
▁Cho	-10.4338
▁shelter	-10.4351
▁insisted	-10.4351
▁apologi	-10.436
▁background	-10.436
▁sight	-10.4366
▁CNN	-10.4388
▁labor	-10.4397
▁wrap	-10.4421
html	-10.4426
▁mortgage	-10.4426
▁inspired	-10.4426
▁located	-10.4426
▁Lewis	-10.4427
▁psycho	-10.4431
▁Nov	-10.4452
▁headline	-10.4457
▁clothes	-10.4464
▁procedure	-10.4464
▁plus	-10.4472
▁contrast	-10.4502
▁truck	-10.4502
▁dispute	-10.4504
▁intense	-10.4505
▁sick	-10.4505
▁Kevin	-10.4506
▁Beach	-10.4521
▁alert	-10.4522
▁urge	-10.453
stein	-10.4539
▁vulnerable	-10.4541
▁permanent	-10.4541
▁cream	-10.4541
▁plot	-10.4547
hear	-10.4559
posing	-10.4579
▁familiar	-10.4579
▁strategic	-10.4579
լ	-10.4579
▁punish	-10.4579
▁instance	-10.4581
▁shopping	-10.4583
▁priority	-10.4591
▁Angel	-10.4608
▁facility	-10.4618
▁Defense	-10.4618
▁technical	-10.4618
▁settlement	-10.4628
▁fake	-10.4638
Tex	-10.464
bury	-10.464
▁deputy	-10.4656
▁assistant	-10.4665
▁schedule	-10.4665
ologist	-10.4668
▁generate	-10.4674
@	-10.4682
class	-10.4686
▁Plan	-10.4693
▁condemn	-10.4695
▁vessel	-10.4695
▁2011	-10.47
▁affordable	-10.4702
high	-10.473
"},{"	-10.4734
▁newspaper	-10.4734
▁Foundation	-10.4734
▁2008	-10.4766
▁Palm	-10.4767
▁Mel	-10.4773
▁Public	-10.4774
▁tennis	-10.4774
▁trauma	-10.4775
▁retirement	-10.4785
▁favor	-10.4811
▁cycle	-10.4813
▁Oscar	-10.4814
▁radio	-10.4815
▁tank	-10.483
▁analysis	-10.4853
▁Obama	-10.4853
▁Election	-10.4853
▁roof	-10.4858
▁reference	-10.4858
▁documentary	-10.4861
▁impossible	-10.4892
▁trading	-10.4894
▁Hav	-10.4915
Every	-10.492
▁Channel	-10.4932
▁asylum	-10.4932
▁Daily	-10.4933
▁tele	-10.4935
▁golf	-10.4946
▁leak	-10.4946
▁Down	-10.4947
▁scandal	-10.4972
▁regulator	-10.4972
▁instruct	-10.4972
▁rapid	-10.4972
▁smile	-10.4972
▁Yu	-10.4983
▁Walz	-10.499
▁coverage	-10.4994
▁Jordan	-10.5012
▁exclusive	-10.5012
▁prosecution	-10.5012
▁adjust	-10.5012
▁Wilson	-10.5012
▁observe	-10.5017
▁cheer	-10.5017
artisan	-10.5021
position	-10.5028
▁alive	-10.503
▁combat	-10.5036
▁challenging	-10.5053
▁disappear	-10.5053
▁dedicated	-10.5093
▁numerous	-10.5093
▁perspective	-10.5093
▁illness	-10.5098
կ	-10.5132
▁restrict	-10.5133
▁stadium	-10.5134
▁destination	-10.5134
▁iconic	-10.5134
▁convince	-10.5134
▁exciting	-10.5134
▁restrictions	-10.5136
▁Media	-10.5138
>,""	-10.5138
▁organise	-10.5151
called	-10.5164
ց	-10.5174
▁knowledge	-10.5174
▁honour	-10.5175
▁Japanese	-10.5175
▁Among	-10.5175
▁Bowl	-10.5178
▁science	-10.5215
▁agenda	-10.522
▁playoff	-10.5228
▁authority	-10.5229
▁heavily	-10.5257
▁vaccine	-10.5257
▁remarks	-10.5259
drew	-10.5282
▁participate	-10.5298
▁landscape	-10.5298
▁lucky	-10.5298
▁Ohio	-10.5298
▁invited	-10.5299
▁internal	-10.5301
▁calm	-10.5302
angle	-10.5303
▁expectations	-10.5311
▁selection	-10.5318
▁export	-10.5331
▁creative	-10.534
▁alliance	-10.534
▁outfit	-10.534
▁favorite	-10.5341
▁wonderful	-10.5345
▁Greg	-10.5345
▁referred	-10.5347
▁engagement	-10.5354
><	-10.5377
▁Capitol	-10.5381
▁Zelensky	-10.5381
▁narrative	-10.5381
▁stunning	-10.5381
▁scoring	-10.5381
▁banned	-10.5383
▁irre	-10.5385
▁informed	-10.5386
▁occur	-10.542
▁advocate	-10.5423
▁unusual	-10.5423
հ	-10.5423
▁2013	-10.5423
https	-10.5423
://	-10.5423
▁plastic	-10.5423
▁$6	-10.5467
▁Valley	-10.5469
▁sustainable	-10.5472
▁religious	-10.5507
▁symptoms	-10.5507
▁ignore	-10.5507
▁sky	-10.5507
▁guess	-10.551
▁manufacture	-10.5549
▁Independent	-10.555
▁Palace	-10.555
▁franchise	-10.5592
▁iPhone	-10.5592
▁belief	-10.5592
▁import	-10.5595
▁habit	-10.5599
▁militant	-10.5635
▁recognize	-10.5635
▁qualify	-10.5635
▁breach	-10.5635
▁jet	-10.5638
firm	-10.5644
▁exception	-10.5645
▁prepare	-10.5652
▁institutions	-10.5652
▁defensive	-10.5678
▁concert	-10.5678
▁conviction	-10.5678
▁Agency	-10.5678
▁Miami	-10.5678
▁Where	-10.5678
▁entry	-10.5679
shore	-10.5713
▁relax	-10.5721
▁riot	-10.5736
▁strip	-10.576
▁Manhattan	-10.5764
▁demonstrate	-10.5764
▁gym	-10.5766
▁contribution	-10.5769
▁impose	-10.5774
▁Army	-10.5778
▁Kyiv	-10.5808
▁legacy	-10.5809
▁pounds	-10.5809
▁relie	-10.5837
▁arrival	-10.5851
▁resolve	-10.5851
▁reputation	-10.5851
":"<	-10.5852
▁finger	-10.5867
▁commit	-10.5883
▁Final	-10.5883
▁anniversary	-10.5895
▁appreciate	-10.5895
▁refugee	-10.5895
▁casual	-10.5895
▁pilot	-10.5895
▁craft	-10.5895
▁quarterback	-10.5899
▁taste	-10.5923
stream	-10.5932
▁Madrid	-10.5939
▁BST	-10.5939
▁Zealand	-10.5983
▁aggressive	-10.5983
▁properties	-10.5983
▁approval	-10.5983
▁1990	-10.5983
▁Rangers	-10.5984
▁combined	-10.5984
▁wheel	-10.5984
▁loyal	-10.5984
▁pray	-10.5985
▁division	-10.5991
▁obvious	-10.5993
▁fatal	-10.6001
quo	-10.601
▁embrace	-10.6028
▁genuine	-10.6028
▁subsequent	-10.6028
▁narrow	-10.6028
▁closing	-10.6028
▁outdoor	-10.6028
▁drag	-10.6067
▁COVID	-10.6073
▁incredibly	-10.6073
▁presidency	-10.6073
▁Sarah	-10.6073
▁keen	-10.6074
▁Republic	-10.6105
▁ministry	-10.6117
▁Sweden	-10.6117
▁silver	-10.6117
▁Though	-10.6122
▁stepped	-10.6125
▁controversial	-10.6162
▁possibly	-10.6162
▁resolution	-10.6162
▁disaster	-10.6163
▁Barr	-10.618
▁Attorney	-10.6208
ñ	-10.6208
▁aspect	-10.6212
▁Governor	-10.6253
▁Vladimir	-10.6253
▁Taiwan	-10.6253
▁Sabha	-10.6253
▁Cooper	-10.6253
▁Edward	-10.626
▁chart	-10.6277
▁featuring	-10.6299
▁minimum	-10.6299
▁Meghan	-10.6299
▁charging	-10.6299
▁borrow	-10.6299
▁violation	-10.6299
▁stuck	-10.6299
▁brutal	-10.6299
▁horror	-10.6345
▁pursue	-10.6345
▁Reuters	-10.6345
▁submit	-10.6345
▁NBA	-10.6345
▁premier	-10.6345
▁Michel	-10.6346
▁Boston	-10.6347
▁steal	-10.6347
▁raising	-10.6356
▁conspiracy	-10.6391
▁divorce	-10.6391
▁volunteer	-10.6391
▁Family	-10.6391
▁Major	-10.6391
▁suburb	-10.6391
▁therefore	-10.6391
▁navigat	-10.6391
▁infection	-10.6391
▁restore	-10.6425
▁uncertain	-10.6437
▁counsel	-10.6437
▁museum	-10.6437
▁branch	-10.6438
▁industrial	-10.6484
▁symbol	-10.6484
▁studies	-10.6484
▁discount	-10.6489
▁ease	-10.6506
\	-10.6522
▁architect	-10.653
▁eligible	-10.653
▁pattern	-10.653
conscious	-10.6531
▁phase	-10.6531
▁cinema	-10.6532
▁healthcare	-10.6536
▁Newsweek	-10.6577
▁electoral	-10.6577
▁pregnant	-10.6577
▁SNP	-10.6577
▁Arabia	-10.6578
▁emissions	-10.6578
▁carbon	-10.6578
▁alarm	-10.6581
▁Festival	-10.6624
▁Rafah	-10.6624
▁Church	-10.6624
▁storage	-10.6625
▁About	-10.6625
▁Hunter	-10.6625
▁blast	-10.6625
▁Coast	-10.6626
▁align	-10.6627
▁Cohen	-10.6631
▁Airport	-10.6632
[	-10.6667
foot	-10.6669
▁Murray	-10.6672
▁chemical	-10.6672
▁square	-10.6672
▁smoke	-10.6672
▁personnel	-10.6672
▁boast	-10.6672
▁chaos	-10.6684
▁abroad	-10.6719
▁sanctions	-10.672
▁Senator	-10.6723
front	-10.6727
▁understood	-10.6767
▁prominent	-10.6767
▁regret	-10.6767
▁remote	-10.6767
▁Tesla	-10.677
▁Storm	-10.677
▁Beijing	-10.6815
▁Ethiopia	-10.6815
▁zero	-10.6816
▁ceasefire	-10.6816
▁lunch	-10.6816
▁Local	-10.6823
▁custody	-10.6864
▁surprising	-10.6864
▁temporary	-10.6864
▁poverty	-10.6864
▁inquiry	-10.6864
▁warrant	-10.6864
▁knee	-10.6864
▁Kelly	-10.6869
▁Colorado	-10.6912
▁chicken	-10.6912
▁childhood	-10.6916
▁artificial	-10.6961
▁tribute	-10.6961
▁Project	-10.6961
▁Brian	-10.6962
▁retain	-10.6962
▁Afghanistan	-10.701
▁Anthony	-10.701
▁celebrity	-10.701
▁devastating	-10.701
▁scream	-10.701
▁verdict	-10.701
▁Kansas	-10.701
▁milk	-10.701
▁neighborhood	-10.7011
▁Turkey	-10.7059
▁diagnosis	-10.7059
2024	-10.706
▁girlfriend	-10.7061
▁secur	-10.7062
▁opposite	-10.7109
▁yellow	-10.7109
▁reducing	-10.7109
▁virus	-10.711
ակ	-10.711
▁Food	-10.7113
tribution	-10.7153
▁equity	-10.7158
▁Jersey	-10.7158
▁cloud	-10.7159
▁Power	-10.7159
mitted	-10.7164
▁magazine	-10.7208
▁literally	-10.7208
▁Jamie	-10.7209
▁nurse	-10.7209
▁emotion	-10.7218
▁neighbor	-10.7258
▁ourselves	-10.7259
▁unfortunate	-10.7259
▁Canadian	-10.7259
▁smooth	-10.7259
▁£6	-10.7259
▁bathroom	-10.7259
▁preparing	-10.7259
▁tomorrow	-10.7259
▁wore	-10.726
▁Kris	-10.7271
▁chocolate	-10.7309
Pacific	-10.7309
▁summit	-10.7309
▁expense	-10.7309
▁inspect	-10.731
▁Southern	-10.7311
▁Patrick	-10.7311
▁breast	-10.7311
▁scam	-10.7315
change	-10.7332
▁Football	-10.736
▁fundamental	-10.736
▁closure	-10.736
▁error	-10.736
▁urgent	-10.7365
▁Matthew	-10.7411
▁anxiety	-10.7411
▁behavior	-10.7411
▁fought	-10.7411
▁Bangladesh	-10.7462
▁cooperation	-10.7462
▁experiment	-10.7462
▁fiscal	-10.7463
▁Armenia	-10.7463
▁assume	-10.7484
▁Special	-10.7514
▁cabinet	-10.7514
▁succeed	-10.7514
▁unclear	-10.7514
▁pocket	-10.7514
▁strain	-10.7515
▁$7	-10.7515
▁boyfriend	-10.7515
▁suffer	-10.7553
▁Microsoft	-10.7566
▁Minnesota	-10.7566
▁variety	-10.7566
▁Museum	-10.7566
▁recipe	-10.7566
Display	-10.7567
▁reserve	-10.7594
▁Music	-10.7606
▁Strictly	-10.7618
▁Global	-10.7618
▁consecutive	-10.7618
▁maximum	-10.7618
▁privacy	-10.7618
▁continent	-10.7618
▁ambition	-10.7618
▁Kumar	-10.7621
▁tragic	-10.7622
▁dominate	-10.7622
▁Macron	-10.7622
▁Secret	-10.7667
▁Switzerland	-10.767
▁silence	-10.767
▁gonna	-10.7671
▁repair	-10.7675
▁Alexander	-10.7723
▁grateful	-10.7723
▁computer	-10.7723
▁Rachel	-10.7723
▁Academy	-10.7776
▁unexpected	-10.7776
▁knife	-10.7776
▁excess	-10.7776
▁thick	-10.7776
▁magic	-10.7782
▁deposit	-10.7784
media	-10.7785
▁Perhaps	-10.7829
▁Rwanda	-10.7829
▁Tokyo	-10.7829
▁fantastic	-10.7829
▁investigating	-10.7829
▁principle	-10.7829
▁Iraq	-10.7829
▁Second	-10.7829
▁resort	-10.7829
▁punch	-10.783
▁Virginia	-10.7882
▁excellent	-10.7882
▁possession	-10.7882
▁innovation	-10.7882
▁Through	-10.7882
▁neither	-10.7882
▁Dallas	-10.7882
▁Henry	-10.7884
▁Iowa	-10.7887
▁tradition	-10.7928
▁Elizabeth	-10.7936
▁virtual	-10.7936
▁promotion	-10.7936
▁widespread	-10.799
դ	-10.799
▁striking	-10.799
▁senator	-10.799
▁emerge	-10.8039
▁atmosphere	-10.8044
▁category	-10.8044
▁emphasiz	-10.8044
▁romantic	-10.8044
▁crazy	-10.8044
▁species	-10.8045
▁FBI	-10.8045
▁empty	-10.8045
▁Leader	-10.8045
այ	-10.8046
▁grave	-10.8052
▁manufacturing	-10.8099
▁Assembly	-10.8099
▁medication	-10.8099
▁disorder	-10.8099
▁Rishi	-10.81
▁pump	-10.8101
▁grass	-10.8104
▁halt	-10.8107
▁actual	-10.812
▁Melbourne	-10.8209
▁ingredient	-10.8209
▁improving	-10.8209
▁cheese	-10.8209
▁concept	-10.821
▁seemingly	-10.821
▁strict	-10.8212
▁usual	-10.8231
▁journal	-10.8236
▁explosion	-10.8265
▁Mitchell	-10.8265
▁Newcastle	-10.8265
▁Palestine	-10.8265
▁exposed	-10.8265
▁pleaded	-10.8266
▁angry	-10.8267
quality	-10.8296
flat	-10.8318
▁Additionally	-10.8321
▁Journal	-10.8321
▁beloved	-10.8321
▁departure	-10.8321
▁signature	-10.8321
▁muscle	-10.8321
▁Sudan	-10.8323
▁basketball	-10.8377
▁supermarket	-10.8377
▁Atlanta	-10.8377
▁Islamic	-10.8377
▁Representative	-10.8377
▁twist	-10.8377
▁Hotel	-10.8378
▁latter	-10.8378
▁Moore	-10.8379
▁Saint	-10.838
▁elsewhere	-10.8381
▁Strip	-10.8382
ngressional	-10.8398
▁comb	-10.8429
▁Benjamin	-10.8433
▁terrible	-10.8433
▁speculation	-10.8433
▁Video	-10.8434
▁ultra	-10.8434
▁competing	-10.8434
www	-10.8438
▁ramp	-10.8447
▁Education	-10.849
▁operator	-10.849
▁swimming	-10.849
▁volume	-10.849
▁tweet	-10.849
▁barrier	-10.8491
▁Katie	-10.8492
▁dynamic	-10.8547
▁sensitive	-10.8547
▁substantial	-10.8547
▁Gandhi	-10.8547
▁Morris	-10.8548
{	-10.8548
▁outrage	-10.8549
▁crore	-10.8549
▁radical	-10.855
world	-10.8553
charge	-10.8554
sufficient	-10.8605
▁Wisconsin	-10.8605
▁context	-10.8605
▁emphasis	-10.8605
▁GMT	-10.8605
▁Phillip	-10.8605
▁creation	-10.8606
▁testimony	-10.8663
▁Mumbai	-10.8663
▁valuable	-10.8663
▁Reeves	-10.8663
▁acquir	-10.8663
▁Bengal	-10.8664
▁convert	-10.8668
▁academic	-10.8721
▁expansion	-10.8721
▁exploit	-10.8721
▁threw	-10.8721
▁liberal	-10.8721
▁rugby	-10.8721
▁Budget	-10.8721
▁barely	-10.8723
▁slid	-10.8735
▁assert	-10.876
▁suicide	-10.8779
▁combination	-10.8779
▁portray	-10.8779
▁resume	-10.8786
▁Lauren	-10.8791
▁crown	-10.8801
▁Prosecutor	-10.8838
▁software	-10.8838
▁reduction	-10.8838
▁Houston	-10.8838
▁sweep	-10.8838
▁native	-10.884
▁scrap	-10.8846
▁intervention	-10.8897
▁investigator	-10.8897
▁recognition	-10.8897
▁migration	-10.8897
word	-10.8912
▁Columbia	-10.8957
▁sauce	-10.8957
▁bounc	-10.896
▁Energy	-10.9017
▁Pradesh	-10.9017
▁extensive	-10.9017
▁Dodgers	-10.9017
▁Jeremy	-10.9017
▁Film	-10.9018
▁Girl	-10.9021
ography	-10.9069
▁Netherlands	-10.9077
▁meanwhile	-10.9077
▁universities	-10.9077
▁unprecedented	-10.9077
▁prohibit	-10.9077
▁2026	-10.9077
▁smartphone	-10.9077
▁loose	-10.908
▁Charlotte	-10.9138
▁Development	-10.9138
▁trophy	-10.9138
▁advisor	-10.9138
▁crypto	-10.9138
▁Russell	-10.9138
▁blind	-10.9138
▁showcase	-10.9139
▁kiss	-10.914
▁Convention	-10.9198
▁Murphy	-10.9198
▁clothing	-10.9198
▁conclusion	-10.9198
▁controversy	-10.9198
▁remarkable	-10.9199
▁cease	-10.9199
▁Which	-10.9199
▁billionaire	-10.9199
▁cyber	-10.9199
▁absence	-10.9199
▁Emily	-10.9199
▁blend	-10.9201
▁origin	-10.9243
▁Business	-10.926
▁Affairs	-10.926
▁Catholic	-10.926
▁Robinson	-10.926
▁ambassador	-10.926
▁demonstration	-10.926
▁economist	-10.926
▁eliminate	-10.926
▁external	-10.926
▁Dublin	-10.926
▁preparation	-10.926
▁violate	-10.9262
▁pipe	-10.9269
▁disappointed	-10.9322
▁Atlantic	-10.9322
գ	-10.9322
▁Square	-10.9322
▁Crime	-10.9322
▁distinct	-10.9323
level	-10.9328
▁contend	-10.9336
▁democratic	-10.9384
▁necessarily	-10.9384
▁Clinton	-10.9384
▁funeral	-10.9384
▁Medical	-10.9385
▁brown	-10.9389
▁supplies	-10.9446
▁guidance	-10.9446
▁Houthi	-10.9446
▁memories	-10.9446
▁Austin	-10.9446
▁cruise	-10.9446
▁folk	-10.9447
▁applied	-10.9447
▁ethic	-10.9455
piece	-10.9458
▁Galaxy	-10.9509
▁province	-10.9509
▁ocean	-10.9509
▁eager	-10.951
Obviously	-10.9572
▁capabilities	-10.9572
▁extraordinary	-10.9572
▁overwhelming	-10.9572
▁rhetoric	-10.9572
▁tragedy	-10.9572
▁sample	-10.9572
▁constitutional	-10.9573
▁Reddit	-10.9574
Trump	-10.9584
▁Philadelphia	-10.9636
▁unveiled	-10.9636
▁promoting	-10.9636
▁Radio	-10.967
agged	-10.9689
▁Jonathan	-10.97
▁experiencing	-10.97
▁genocide	-10.97
▁liquid	-10.97
▁relevant	-10.97
▁survivor	-10.97
▁tariffs	-10.97
▁welfare	-10.97
▁disagree	-10.97
▁Rohit	-10.9702
▁mandate	-10.9717
direct	-10.974
▁hundred	-10.9751
▁Kremlin	-10.9765
▁anticipate	-10.9765
▁independence	-10.9765
▁premium	-10.9765
▁therapy	-10.9765
▁correspond	-10.983
▁efficient	-10.983
▁celebrating	-10.983
▁helicopter	-10.983
▁satellite	-10.983
▁afraid	-10.983
▁license	-10.983
▁Science	-10.983
▁respectively	-10.983
▁fossil	-10.983
=\"	-10.983
▁smell	-10.983
▁shoppers	-10.983
ը	-10.9895
▁Barcelona	-10.9895
▁Mexican	-10.9895
▁frustration	-10.9895
▁venture	-10.9895
▁charm	-10.9896
▁extent	-10.9896
▁Official	-10.9961
▁Qatar	-10.9961
▁smash	-10.9961
▁intercept	-10.9961
▁$8	-10.9964
Just	-10.9975
▁breakfast	-11.0027
▁swift	-11.0027
▁heritage	-11.0027
▁pride	-11.0028
▁Command	-11.0028
▁except	-11.0078
▁Vietnam	-11.0094
▁midfielder	-11.0094
▁romance	-11.0094
▁interior	-11.0094
Israel	-11.0109
É	-11.0161
▁Oregon	-11.0161
▁inspiration	-11.0161
▁nervous	-11.0161
▁practical	-11.0161
▁complicated	-11.0161
▁sponsor	-11.0161
▁emerging	-11.0161
▁caution	-11.0161
▁babies	-11.0161
▁backlash	-11.0161
▁Cameron	-11.0161
▁drove	-11.0161
â	-11.0228
▁Economic	-11.0228
▁association	-11.0228
▁encouraging	-11.0228
▁extension	-11.0228
▁arguing	-11.0228
▁inject	-11.0245
▁absolute	-11.0262
յ	-11.0295
▁Birmingham	-11.0296
▁Christopher	-11.0296
▁Country	-11.0296
▁electronic	-11.0296
▁indictment	-11.0296
▁scenario	-11.0296
▁technique	-11.0296
▁compensation	-11.0296
▁deficit	-11.0296
▁unfold	-11.0297
▁slice	-11.0308
▁Administration	-11.0365
▁Samsung	-11.0365
▁Tottenham	-11.0365
▁facilitat	-11.0365
▁pregnancy	-11.0365
▁Hamilton	-11.0365
▁transgender	-11.0365
▁fabric	-11.0365
▁substance	-11.0365
▁sensation	-11.0365
▁burden	-11.0365
▁racist	-11.0365
▁Next	-11.0366
▁undermine	-11.0393
000,"	-11.0399
▁NASA	-11.0434
▁Soviet	-11.0434
▁bargain	-11.0434
▁Civil	-11.0434
▁stolen	-11.0434
People	-11.0451
▁Francis	-11.0498
▁Hampshire	-11.0503
▁Thompson	-11.0503
ղ	-11.0503
▁urban	-11.0503
▁pollution	-11.0503
▁Brexit	-11.0503
▁sentiment	-11.0503
▁Field	-11.0504
բ	-11.0573
պ	-11.0715
è	-11.093
ü	-11.1077
ք	-11.1377
ú	-11.1764
թ	-11.1764
•	-11.2937
Ա	-11.2937
ö	-11.3299
ծ	-11.3675
	-11.3771
ւ	-11.4368
խ	-11.4368
շ	-11.5003
ռ	-11.5113
զ	-11.545
Ե	-11.6039
ջ	-11.7753
։	-11.8045
­	-11.9424
°	-11.9476
չ	-11.9824
Մ	-12.0003
©	-12.0184
à	-12.0184
Ր	-12.0185
Ն	-12.0558
■	-12.0558
ç	-12.0558
ä	-12.1559
′	-12.1559
՝	-12.1989
ձ	-12.1989
⁄	-12.2212
―	-12.2671
Հ	-12.2671
ø	-12.3153
ā	-12.3153
ô	-12.3403
Ի	-12.3403
<	-12.3645
Ս	-12.4757
ã	-12.5051
ï	-12.5666
ë	-12.5989
️	-12.6322
å	-12.6322
#	-12.6615
ć	-12.6667
օ	-12.7024
‐	-12.7779
ê	-12.8179
Պ	-12.8179
Ö	-12.8596
ժ	-12.8596
Կ	-12.9031
`	-13.1543
♦	-13.1543
Բ	-13.2132
î	-13.2756
č	-13.2757
Գ	-13.2757
ō	-13.3423
ֆ	-13.4907
Ø	-13.4907
ł	-13.4907
Լ	-13.574
Տ	-13.6649
·	-13.7649
¿	-13.7649
Â	-13.7649
š	-13.7649
ı	-13.7649
ă	-13.7649
Å	-13.876
®	-13.876
●	-13.876
ò	-14.001
¢	-14.001
Յ	-14.1439
😂	-14.1439
¡	-14.3105
ș	-14.3105
‍	-14.5105
	-14.5105
×	-14.5105
ù	-14.5105
ŷ	-14.5105
−	-14.5105
⁠	-14.5105
Ռ	-14.5105
ş	-14.5106
ì	-14.7605
Ã	-14.7605
ý	-14.7605
ū	-14.7605
ŵ	-14.7605
ž	-14.7605
⁣	-14.7605
♬	-14.7605
🔥	-14.7605
û	-14.7605
Օ	-15.0939
🙏	-15.0939
Ü	-15.0939
±	-15.0939
ė	-15.0939
⚽	-15.0939
😍	-15.0939
Ժ	-15.0939
🤦	-15.5938
𝄒	-15.5939
	-15.5939
§	-15.5939
Î	-15.5939
ē	-15.5939
ģ	-15.5939
ň	-15.5939
С	-15.5939
՛	-15.5939
՞	-15.5939
ạ	-15.5939
ầ	-15.5939
ắ	-15.5939
ờ	-15.5939
‭	-15.5939
›	-15.5939
⁩	-15.5939
☆	-15.5939
❌	-15.5939
︎	-15.5939
🏻	-15.5939
🏼	-15.5939
👈	-15.5939
📸	-15.5939
😅	-15.5939
℞	-15.5939
^	-15.5939
ņ	-15.5939
😮	-16.588
💨	-16.5881
💕	-16.5882
👉	-16.5883
・	-16.5884
♪	-16.5885
♂	-16.5886
₱	-16.5887
⁦	-16.5888
Չ	-16.5889
Ճ	-16.589
ń	-16.5891
Đ	-16.5892
æ	-16.5893
ß	-16.5894
È	-16.5895
	-16.5896
🙄	-16.5897
✔	-16.5898
▶	-16.5899
Ք	-16.59
ț	-16.5901
Ä	-16.5902
¦	-16.5903
🐎	-16.5904
Ւ	-16.5905
Ջ	-16.5906
Շ	-16.5907
Ç	-16.5908
À	-16.5909
Փ	-16.591
Զ	-16.5911
Š	-16.5912
🥹	-16.5913
🤣	-16.5914
😭	-16.5915
Ֆ	-16.5916
Թ	-16.5917
Ը	-16.5918
Դ	-16.5919
đ	-16.592
Ո	-16.5921
❤	-16.5922
Ó	-16.5923
🥇	-16.5924
	-16.5925
ճ	-16.5926
ğ	-16.5927
	-16.5928
Վ	-16.5929
	-16.593
★	-16.5931
	-16.5932
₹	-16.5933
փ	-16.5934
Á	-16.5935
է	-16.5936
վ	-16.5937
£	-16.5938
📍	-16.5938
Ć	-16.5939
ę	-16.5939
ʔ	-16.5939
🏽	-16.5939
İ	-16.5939
ư	-16.5939
👀	-16.5939
😳	-16.5939
~	-16.5939
	-16.5939
	-16.5939
Í	-16.5939
Ò	-16.5939
Ô	-16.5939
þ	-16.5939
ÿ	-16.5939
ą	-16.5939
Ē	-16.5939
ī	-16.5939
ř	-16.5939
ś	-16.5939
Ş	-16.5939
ţ	-16.5939
ż	-16.5939
ə	-16.5939
ʻ	-16.5939
̄	-16.5939
̈	-16.5939
μ	-16.5939
О	-16.5939
и	-16.5939
н	-16.5939
ї	-16.5939
Է	-16.5939
Ծ	-16.5939
Ղ	-16.5939
฿	-16.5939
ḥ	-16.5939
Ṡ	-16.5939
ṣ	-16.5939
ả	-16.5939
ế	-16.5939
ệ	-16.5939
ị	-16.5939
ọ	-16.5939
ộ	-16.5939
ợ	-16.5939
ừ	-16.5939
ỹ	-16.5939
‬	-16.5939
₦	-16.5939
↔	-16.5939
⊕	-16.5939
⏳	-16.5939
►	-16.5939
◀	-16.5939
☀	-16.5939
♀	-16.5939
♥	-16.5939
✅	-16.5939
✨	-16.5939
⭐	-16.5939
🇱	-16.5939
🇳	-16.5939
🇸	-16.5939
🇺	-16.5939
🌪	-16.5939
🌹	-16.5939
🍓	-16.5939
🍹	-16.5939
🎁	-16.5939
🎢	-16.5939
🎪	-16.5939
🏆	-16.5939
🏾	-16.5939
👍	-16.5939
👏	-16.5939
💙	-16.5939
💥	-16.5939
📋	-16.5939
📷	-16.5939
😆	-16.5939
😊	-16.5939
😢	-16.5939
😱	-16.5939
🙌	-16.5939
🛒	-16.5939
🤎	-16.5939
🤔	-16.5939
🤫	-16.5939
🤯	-16.5939
🤵	-16.5939
🤷	-16.5939
🥅	-16.5939
🥪	-16.5939
🥺	-16.5939
🫣	-16.5939
ẹ	-16.5939
ố	-16.5939
ự	-16.5939
⁤	-16.5939
🌴	-16.5939
🥥	-16.5939
(	-16.5939
У	-16.5939
а	-16.5939
к	-16.5939
р	-16.5939
Խ	-16.5939
Ձ	-16.5939
