<unk>	0
<s>	0
</s>	0
▁s	-0
▁t	-1
▁a	-2
▁i	-3
he	-4
▁e	-5
▁o	-6
re	-7
▁the	-8
▁in	-9
▁w	-10
▁c	-11
er	-12
nd	-13
on	-14
▁f	-15
▁b	-16
▁l	-17
▁p	-18
ha	-19
▁d	-20
▁m	-21
or	-22
in	-23
▁to	-24
en	-25
ou	-26
ar	-27
st	-28
it	-29
▁of	-30
▁ed	-31
▁ing	-32
an	-33
al	-34
▁and	-35
at	-36
▁re	-37
▁n	-38
hi	-39
▁y	-40
om	-41
ll	-42
ic	-43
ve	-44
▁T	-45
▁g	-46
le	-47
ion	-48
▁ha	-49
id	-50
▁be	-51
▁he	-52
▁on	-53
ent	-54
▁I	-55
▁r	-56
▁S	-57
ut	-58
hat	-59
ot	-60
ce	-61
▁A	-62
▁u	-63
ay	-64
▁at	-65
ing	-66
▁is	-67
▁for	-68
▁it	-69
▁st	-70
ow	-71
ss	-72
se	-73
ur	-74
ct	-75
▁er	-76
▁M	-77
▁C	-78
▁that	-79
▁en	-80
▁"	-81
▁ly	-82
▁an	-83
et	-84
ch	-85
ver	-86
ld	-87
▁h	-88
ra	-89
▁B	-90
ith	-91
ir	-92
ed	-93
ri	-94
ro	-95
gh	-96
am	-97
▁with	-98
▁wa	-99
▁The	-100
▁de	-101
▁we	-102
▁hi	-103
▁P	-104
ge	-105
▁H	-106
is	-107
ad	-108
▁al	-109
ke	-110
il	-111
ill	-112
ter	-113
es	-114
▁W	-115
▁v	-116
im	-117
▁D	-118
ol	-119
ck	-120
▁R	-121
▁com	-122
▁le	-123
▁sa	-124
▁th	-125
▁N	-126
▁con	-127
▁wh	-128
ort	-129
▁ab	-130
ate	-131
▁se	-132
pe	-133
▁li	-134
▁2	-135
▁ne	-136
▁F	-137
▁L	-138
rom	-139
▁G	-140
▁you	-141
▁mo	-142
▁said	-143
ation	-144
▁la	-145
▁ex	-146
um	-147
ght	-148
▁have	-149
ul	-150
as	-151
▁has	-152
▁E	-153
us	-154
▁from	-155
▁by	-156
art	-157
un	-158
oo	-159
la	-160
▁J	-161
▁all	-162
▁j	-163
▁or	-164
▁ca	-165
▁1	-166
op	-167
▁es	-168
▁pro	-169
her	-170
▁not	-171
▁ar	-172
ould	-173
▁k	-174
pp	-175
▁O	-176
▁ment	-177
ust	-178
ig	-179
▁-	-180
ain	-181
,"	-182
▁thi	-183
el	-184
ive	-185
ear	-186
our	-187
▁U	-188
▁out	-189
th	-190
▁20	-191
▁her	-192
fe	-193
▁me	-194
qu	-195
ight	-196
nt	-197
▁su	-198
▁whi	-199
all	-200
▁co	-201
▁who	-202
."	-203
▁po	-204
ant	-205
▁K	-206
ome	-207
mp	-208
han	-209
▁go	-210
▁te	-211
▁ad	-212
▁do	-213
▁ma	-214
▁un	-215
▁will	-216
▁wor	-217
ice	-218
ine	-219
▁af	-220
▁their	-221
▁pre	-222
▁but	-223
▁pl	-224
▁one	-225
▁ta	-226
▁ers	-227
ure	-228
ci	-229
▁can	-230
▁had	-231
▁up	-232
ack	-233
▁sh	-234
▁per	-235
▁(	-236
▁lo	-237
ound	-238
ime	-239
ist	-240
ard	-241
ie	-242
▁ag	-243
▁year	-244
ies	-245
▁off	-246
out	-247
ia	-248
lo	-249
▁man	-250
ore	-251
ue	-252
te	-253
ide	-254
▁ation	-255
▁In	-256
ther	-257
00	-258
ong	-259
▁more	-260
▁ho	-261
▁pe	-262
and	-263
ity	-264
▁were	-265
▁fa	-266
▁ac	-267
▁ever	-268
▁about	-269
▁over	-270
▁after	-271
▁time	-272
▁which	-273
▁other	-274
per	-275
▁tr	-276
ub	-277
▁It	-278
▁He	-279
ame	-280
ber	-281
age	-282
▁fe	-283
▁if	-284
ast	-285
ree	-286
pt	-287
▁like	-288
▁ion	-289
ople	-290
▁day	-291
▁part	-292
▁us	-293
ud	-294
▁202	-295
▁qu	-296
▁would	-297
▁sp	-298
one	-299
▁'	-300
ood	-301
ount	-302
▁di	-303
▁am	-304
▁ev	-305
▁people	-306
em	-307
▁V	-308
ff	-309
ag	-310
▁my	-311
nder	-312
ord	-313
est	-314
ction	-315
▁new	-316
own	-317
ook	-318
▁work	-319
▁cha	-320
▁comp	-321
▁res	-322
ish	-323
▁St	-324
▁just	-325
▁able	-326
▁bo	-327
▁ro	-328
rou	-329
ne	-330
▁way	-331
▁fir	-332
▁say	-333
reat	-334
▁tw	-335
▁cont	-336
▁than	-337
▁tra	-338
ict	-339
ign	-340
ly	-341
▁some	-342
ick	-343
use	-344
ep	-345
▁there	-346
ite	-347
ak	-348
orm	-349
▁dis	-350
▁Y	-351
▁rep	-352
ble	-353
▁comm	-354
▁them	-355
ark	-356
▁pa	-357
▁sc	-358
ach	-359
ence	-360
lu	-361
ump	-362
ry	-363
ult	-364
▁ent	-365
▁play	-366
▁spe	-367
ous	-368
▁what	-369
ft	-370
iv	-371
▁inc	-372
▁ity	-373
sid	-374
▁whe	-375
▁back	-376
▁fo	-377
ind	-378
▁him	-379
▁come	-380
ink	-381
▁pol	-382
▁get	-383
▁first	-384
co	-385
ru	-386
▁ra	-387
▁land	-388
▁two	-389
ress	-390
lic	-391
ial	-392
▁no	-393
li	-394
▁our	-395
ition	-396
▁But	-397
▁could	-398
▁em	-399
▁kn	-400
▁Tr	-401
▁any	-402
▁cent	-403
▁ce	-404
ance	-405
▁Re	-406
▁your	-407
urn	-408
ire	-409
▁again	-410
cial	-411
▁3	-412
▁add	-413
▁el	-414
int	-415
▁ally	-416
▁state	-417
▁ver	-418
▁Ne	-419
▁ary	-420
▁pr	-421
▁shi	-422
▁last	-423
ren	-424
▁Trump	-425
▁acc	-426
ek	-427
ade	-428
▁imp	-429
vel	-430
me	-431
lf	-432
▁side	-433
▁most	-434
▁cause	-435
▁thing	-436
du	-437
▁show	-438
▁dec	-439
▁pub	-440
mer	-441
erv	-442
ual	-443
▁chi	-444
▁how	-445
▁end	-446
▁where	-447
▁ic	-448
▁est	-449
day	-450
▁under	-451
▁so	-452
wn	-453
▁age	-454
▁ele	-455
rent	-456
sident	-457
▁mon	-458
od	-459
▁bet	-460
▁inclu	-461
ect	-462
form	-463
rit	-464
▁now	-465
▁did	-466
ment	-467
▁count	-468
..	-469
▁make	-470
av	-471
ab	-472
ase	-473
ath	-474
ian	-475
▁fu	-476
▁med	-477
ater	-478
pport	-479
vern	-480
▁want	-481
son	-482
cess	-483
▁cre	-484
▁fin	-485
▁cl	-486
fore	-487
▁while	-488
▁bu	-489
▁Is	-490
▁before	-491
▁son	-492
▁And	-493
we	-494
▁act	-495
▁tri	-496
▁ch	-497
ap	-498
▁We	-499
▁report	-500
ng	-501
The	-502
▁need	-503
▁app	-504
▁gr	-505
▁form	-506
▁nation	-507
▁look	-508
▁ke	-509
▁down	-510
▁att	-511
de	-512
▁New	-513
▁every	-514
▁4	-515
▁high	-516
▁lead	-517
▁ant	-518
ise	-519
▁exp	-520
▁fam	-521
ince	-522
▁think	-523
ail	-524
▁br	-525
▁pri	-526
▁home	-527
▁public	-528
▁take	-529
▁im	-530
▁Ch	-531
os	-532
uch	-533
▁De	-534
▁min	-535
▁che	-536
▁ext	-537
▁well	-538
atch	-539
▁week	-540
pect	-541
▁ance	-542
▁too	-543
▁don	-544
lace	-545
▁ive	-546
▁ship	-547
▁Thi	-548
▁5	-549
▁inter	-550
▁Le	-551
oun	-552
▁know	-553
▁even	-554
▁She	-555
▁Un	-556
get	-557
▁Mr	-558
illion	-559
ason	-560
▁ap	-561
▁then	-562
uss	-563
▁jo	-564
▁hel	-565
▁call	-566
rough	-567
▁long	-568
pa	-569
▁govern	-570
▁sha	-571
▁ass	-572
▁war	-573
▁reg	-574
iden	-575
▁chan	-576
▁head	-577
▁told	-578
▁through	-579
▁win	-580
▁see	-581
▁start	-582
ans	-583
▁19	-584
▁cla	-585
if	-586
▁right	-587
▁rem	-588
▁game	-589
▁hose	-590
oth	-591
▁month	-592
▁three	-593
▁ec	-594
oc	-595
ffe	-596
llow	-597
▁line	-598
ugh	-599
▁An	-600
▁op	-601
▁going	-602
ale	-603
▁Se	-604
▁made	-605
▁201	-606
▁dur	-607
sh	-608
▁aw	-609
▁ig	-610
▁set	-611
ens	-612
ov	-613
itt	-614
▁ter	-615
▁support	-616
▁ear	-617
iew	-618
ouse	-619
▁ate	-620
▁help	-621
▁car	-622
▁own	-623
orn	-624
▁ty	-625
▁less	-626
▁famil	-627
cy	-628
▁Jo	-629
alk	-630
▁ret	-631
min	-632
▁ous	-633
ix	-634
▁cam	-635
▁fl	-636
ip	-637
▁ful	-638
▁team	-639
▁z	-640
▁Ro	-641
▁thou	-642
▁mem	-643
▁ph	-644
act	-645
▁iz	-646
▁around	-647
000	-648
▁life	-649
▁read	-650
▁$	-651
▁Mar	-652
▁Pre	-653
▁ist	-654
▁place	-655
vest	-656
sk	-657
iss	-658
▁plan	-659
ef	-660
▁child	-661
ram	-662
▁et	-663
ug	-664
▁wom	-665
▁ies	-666
ern	-667
az	-668
▁person	-669
▁£	-670
▁ry	-671
alth	-672
king	-673
ical	-674
ory	-675
ving	-676
red	-677
▁much	-678
▁vis	-679
▁sur	-680
ven	-681
ctor	-682
▁cro	-683
▁Isra	-684
▁change	-685
▁cour	-686
,000	-687
▁vot	-688
▁found	-689
ank	-690
▁rec	-691
▁still	-692
ac	-693
▁har	-694
▁since	-695
▁hould	-696
▁law	-697
▁rat	-698
ract	-699
▁good	-700
▁care	-701
ute	-702
▁may	-703
meric	-704
▁ia	-705
▁run	-706
iver	-707
ash	-708
▁Lo	-709
ner	-710
ious	-711
ital	-712
▁point	-713
ile	-714
old	-715
▁Be	-716
▁world	-717
▁give	-718
▁clo	-719
end	-720
▁6	-721
up	-722
▁national	-723
cond	-724
roup	-725
▁invest	-726
▁gen	-727
▁str	-728
▁contin	-729
ild	-730
▁uch	-731
▁Ind	-732
▁Americ	-733
▁Fr	-734
▁country	-735
▁2024	-736
▁four	-737
ular	-738
▁Har	-739
▁election	-740
▁cle	-741
eg	-742
ert	-743
ween	-744
▁ian	-745
▁ities	-746
▁mark	-747
▁happ	-748
▁los	-749
▁ations	-750
itic	-751
eral	-752
▁conf	-753
▁follow	-754
▁case	-755
orth	-756
▁cross	-757
ilit	-758
▁appe	-759
▁bl	-760
▁ur	-761
▁wr	-762
rest	-763
▁ve	-764
▁between	-765
▁feel	-766
▁exper	-767
▁came	-768
▁put	-769
▁ways	-770
▁Af	-771
We	-772
▁ind	-773
cho	-774
▁member	-775
ower	-776
▁gra	-777
ott	-778
ers	-779
▁Russ	-780
icial	-781
▁serv	-782
▁continu	-783
▁full	-784
▁try	-785
ace	-786
▁des	-787
▁cri	-788
▁family	-789
▁inte	-790
▁gu	-791
▁ann	-792
▁char	-793
▁hand	-794
▁self	-795
▁president	-796
▁7	-797
hing	-798
▁big	-799
▁Biden	-800
▁Ar	-801
ric	-802
ork	-803
▁Th	-804
▁second	-805
▁post	-806
▁iss	-807
▁politic	-808
ject	-809
▁bus	-810
▁live	-811
▁produ	-812
▁bel	-813
▁US	-814
outh	-815
▁season	-816
▁claim	-817
ote	-818
year	-819
▁open	-820
▁night	-821
▁ember	-822
▁group	-823
▁resp	-824
der	-825
▁Cha	-826
▁coll	-827
▁loc	-828
pl	-829
▁million	-830
▁fil	-831
▁left	-832
▁Al	-833
riend	-834
▁sy	-835
any	-836
▁use	-837
▁got	-838
sent	-839
▁cur	-840
▁love	-841
▁far	-842
▁pos	-843
ger	-844
▁leg	-845
▁Man	-846
▁ration	-847
▁attack	-848
▁top	-849
ont	-850
▁prot	-851
▁trans	-852
▁lin	-853
▁stud	-854
▁10	-855
▁ask	-856
▁best	-857
▁ments	-858
▁ence	-859
iz	-860
▁bre	-861
It	-862
vid	-863
▁led	-864
▁You	-865
sp	-866
▁rel	-867
▁expect	-868
▁both	-869
▁There	-870
▁share	-871
▁sm	-872
▁Sc	-873
rat	-874
chool	-875
▁il	-876
vi	-877
▁test	-878
▁That	-879
▁ton	-880
▁lot	-881
ience	-882
ret	-883
▁pay	-884
▁ame	-885
▁health	-886
▁How	-887
▁ong	-888
▁let	-889
ib	-890
▁Co	-891
▁office	-892
...	-893
▁ating	-894
cc	-895
▁President	-896
▁For	-897
▁num	-898
gan	-899
▁fore	-900
▁mean	-901
▁turn	-902
▁det	-903
▁dire	-904
▁official	-905
▁air	-906
▁near	-907
ang	-908
ution	-909
▁ward	-910
uro	-911
▁pass	-912
row	-913
▁men	-914
ather	-915
▁ative	-916
▁event	-917
uth	-918
io	-919
▁friend	-920
▁final	-921
▁So	-922
▁leader	-923
▁star	-924
▁never	-925
▁ready	-926
▁Sun	-927
▁conc	-928
other	-929
▁face	-930
▁On	-931
▁Z	-932
▁sen	-933
▁find	-934
▁days	-935
▁een	-936
▁dem	-937
▁cond	-938
▁accord	-939
▁Com	-940
▁stand	-941
ush	-942
▁ie	-943
▁id	-944
▁cons	-945
arch	-946
kra	-947
▁bod	-948
▁8	-949
paign	-950
▁low	-951
▁coming	-952
▁ions	-953
▁sign	-954
▁appear	-955
ied	-956
▁hen	-957
▁diffe	-958
▁At	-959
▁ste	-960
▁great	-961
▁commun	-962
▁da	-963
▁children	-964
ier	-965
▁met	-966
▁away	-967
▁here	-968
▁emp	-969
▁hold	-970
be	-971
▁Ukra	-972
▁mis	-973
▁belie	-974
arge	-975
ken	-976
▁house	-977
▁Con	-978
▁ball	-979
▁ness	-980
▁return	-981
ral	-982
▁ob	-983
▁media	-984
▁campaign	-985
▁police	-986
onom	-987
iness	-988
▁If	-989
▁UK	-990
▁later	-991
▁court	-992
▁power	-993
":	-994
▁number	-995
ague	-996
rop	-997
▁La	-998
▁though	-999
▁women	-1000
▁special	-1001
iday	-1002
▁close	-1003
rea	-1004
▁American	-1005
▁inv	-1006
ave	-1007
atter	-1008
ility	-1009
▁prom	-1010
▁provid	-1011
jor	-1012
ision	-1013
▁remain	-1014
▁Euro	-1015
▁dep	-1016
▁company	-1017
▁som	-1018
▁art	-1019
▁atte	-1020
eng	-1021
▁sk	-1022
ittle	-1023
▁State	-1024
▁fr	-1025
view	-1026
▁kill	-1027
ister	-1028
▁mar	-1029
▁rest	-1030
▁issue	-1031
ock	-1032
▁few	-1033
▁five	-1034
▁fan	-1035
▁won	-1036
▁party	-1037
▁clear	-1038
lain	-1039
▁happen	-1040
unch	-1041
ield	-1042
▁didn	-1043
▁ling	-1044
▁force	-1045
▁Min	-1046
▁sub	-1047
▁large	-1048
▁took	-1049
ty	-1050
▁mid	-1051
▁build	-1052
reen	-1053
▁school	-1054
▁ill	-1055
▁area	-1056
▁sure	-1057
▁real	-1058
▁east	-1059
▁Eng	-1060
ster	-1061
▁deal	-1062
▁ine	-1063
▁keep	-1064
▁ber	-1065
cing	-1066
▁X	-1067
▁Brit	-1068
▁int	-1069
▁sim	-1070
▁adv	-1071
ocrat	-1072
▁Te	-1073
▁ris	-1074
▁av	-1075
▁young	-1076
▁business	-1077
▁rs	-1078
velop	-1079
ething	-1080
),	-1081
▁move	-1082
▁Dem	-1083
lish	-1084
▁believ	-1085
oney	-1086
▁water	-1087
▁ign	-1088
▁cost	-1089
▁bro	-1090
▁hard	-1091
ten	-1092
▁something	-1093
▁fire	-1094
▁poss	-1095
▁record	-1096
oto	-1097
▁Unit	-1098
▁service	-1099
uc	-1100
▁ge	-1101
▁pop	-1102
ounce	-1103
▁Ma	-1104
▁def	-1105
▁quest	-1106
▁bra	-1107
▁hit	-1108
fect	-1109
▁Chin	-1110
▁mom	-1111
▁Hi	-1112
▁book	-1113
▁9	-1114
▁might	-1115
▁econom	-1116
▁ster	-1117
lack	-1118
▁body	-1119
▁free	-1120
▁allow	-1121
▁result	-1122
▁Mon	-1123
ient	-1124
att	-1125
▁Me	-1126
▁oper	-1127
▁light	-1128
▁six	-1129
▁major	-1130
ideo	-1131
atur	-1132
▁deb	-1133
▁talk	-1134
stem	-1135
▁film	-1136
uck	-1137
ption	-1138
▁To	-1139
▁social	-1140
▁den	-1141
▁grow	-1142
▁prog	-1143
ission	-1144
▁import	-1145
▁Don	-1146
▁na	-1147
ety	-1148
▁foot	-1149
▁milit	-1150
▁cra	-1151
▁port	-1152
▁ley	-1153
▁Car	-1154
▁mov	-1155
rive	-1156
▁bas	-1157
▁meet	-1158
▁creat	-1159
▁One	-1160
ury	-1161
▁position	-1162
ated	-1163
.'	-1164
gn	-1165
▁log	-1166
▁little	-1167
▁Mc	-1168
▁ism	-1169
▁past	-1170
ible	-1171
redit	-1172
▁requ	-1173
▁decision	-1174
▁different	-1175
olve	-1176
▁better	-1177
rap	-1178
▁market	-1179
▁partic	-1180
▁question	-1181
ama	-1182
urity	-1183
▁ecurity	-1184
▁local	-1185
▁making	-1186
▁til	-1187
▁each	-1188
▁hist	-1189
▁ou	-1190
▁bar	-1191
▁system	-1192
hn	-1193
▁Democrat	-1194
▁South	-1195
▁experience	-1196
ple	-1197
▁par	-1198
uthor	-1199
▁May	-1200
ruct	-1201
▁having	-1202
ik	-1203
mpt	-1204
gin	-1205
▁press	-1206
▁Wh	-1207
▁along	-1208
ari	-1209
▁develop	-1210
▁[	-1211
▁hum	-1212
ney	-1213
▁city	-1214
ning	-1215
icture	-1216
▁break	-1217
▁comment	-1218
duc	-1219
▁Ad	-1220
pend	-1221
▁cut	-1222
▁No	-1223
▁announce	-1224
▁12	-1225
▁Q	-1226
).	-1227
▁respon	-1228
ife	-1229
▁job	-1230
▁York	-1231
▁Chri	-1232
▁West	-1233
▁view	-1234
ran	-1235
▁moment	-1236
▁2022	-1237
ivers	-1238
▁vi	-1239
▁vict	-1240
▁perform	-1241
▁2023	-1242
ald	-1243
▁Harri	-1244
▁cou	-1245
fic	-1246
hic	-1247
▁cap	-1248
▁pur	-1249
▁money	-1250
veal	-1251
▁Nation	-1252
▁ated	-1253
▁price	-1254
▁ought	-1255
▁pot	-1256
▁ref	-1257
oy	-1258
▁pan	-1259
▁death	-1260
▁news	-1261
▁fur	-1262
▁half	-1263
loy	-1264
▁Jan	-1265
▁200	-1266
▁current	-1267
▁video	-1268
▁wrote	-1269
▁hour	-1270
▁eries	-1271
▁reveal	-1272
▁train	-1273
▁comple	-1274
▁list	-1275
▁old	-1276
▁Sha	-1277
▁red	-1278
▁ough	-1279
▁field	-1280
▁India	-1281
▁dra	-1282
▁alleg	-1283
ai	-1284
▁sec	-1285
▁hu	-1286
▁watch	-1287
ident	-1288
▁Europe	-1289
ala	-1290
▁John	-1291
▁main	-1292
▁ped	-1293
▁Credit	-1294
▁suc	-1295
▁room	-1296
▁fund	-1297
▁publican	-1298
▁visit	-1299
▁ised	-1300
▁interest	-1301
man	-1302
▁eff	-1303
gether	-1304
ton	-1305
enn	-1306
▁name	-1307
ah	-1308
ritic	-1309
gu	-1310
▁parent	-1311
▁Mini	-1312
▁appro	-1313
▁Whi	-1314
▁known	-1315
par	-1316
▁level	-1317
▁ability	-1318
sider	-1319
▁dist	-1320
▁militar	-1321
▁thought	-1322
▁tell	-1323
▁thir	-1324
▁match	-1325
▁Ukraine	-1326
▁seem	-1327
ceive	-1328
▁tech	-1329
rol	-1330
▁Pro	-1331
▁Am	-1332
▁Mo	-1333
▁ground	-1334
▁ably	-1335
▁ey	-1336
▁cand	-1337
▁val	-1338
ward	-1339
▁host	-1340
ond	-1341
itch	-1342
▁goal	-1343
▁spite	-1344
▁15	-1345
▁Tu	-1346
ific	-1347
cri	-1348
▁mus	-1349
▁ting	-1350
▁organ	-1351
▁short	-1352
▁inform	-1353
▁rate	-1354
▁elect	-1355
▁fall	-1356
▁Pol	-1357
rem	-1358
▁treat	-1359
▁dy	-1360
▁concern	-1361
▁together	-1362
▁ple	-1363
are	-1364
▁House	-1365
▁small	-1366
▁author	-1367
stit	-1368
▁News	-1369
the	-1370
▁sug	-1371
lleng	-1372
▁food	-1373
inian	-1374
▁taking	-1375
▁eas	-1376
reet	-1377
▁must	-1378
▁order	-1379
▁critic	-1380
▁ial	-1381
▁ries	-1382
uture	-1383
▁challeng	-1384
oke	-1385
▁often	-1386
▁Ke	-1387
▁reach	-1388
▁Gaz	-1389
▁tax	-1390
▁ham	-1391
erg	-1392
▁hope	-1393
▁After	-1394
▁tar	-1395
▁bit	-1396
ival	-1397
mit	-1398
▁consider	-1399
▁why	-1400
▁All	-1401
▁role	-1402
▁due	-1403
▁taken	-1404
▁City	-1405
▁coun	-1406
no	-1407
gle	-1408
▁Sp	-1409
lock	-1410
▁ran	-1411
▁minute	-1412
ull	-1413
cover	-1414
leb	-1415
ament	-1416
▁action	-1417
▁cor	-1418
▁Je	-1419
▁sex	-1420
ose	-1421
da	-1422
▁dat	-1423
▁key	-1424
▁receive	-1425
▁mod	-1426
▁success	-1427
▁ell	-1428
▁ite	-1429
ource	-1430
▁gett	-1431
▁viol	-1432
vent	-1433
▁ago	-1434
▁stri	-1435
▁inf	-1436
▁term	-1437
▁wide	-1438
oot	-1439
▁ru	-1440
mpion	-1441
▁defe	-1442
▁today	-1443
20	-1444
▁ors	-1445
ene	-1446
▁process	-1447
▁non	-1448
▁With	-1449
▁feat	-1450
▁ential	-1451
gest	-1452
▁cred	-1453
▁important	-1454
":"	-1455
▁What	-1456
▁Aust	-1457
▁future	-1458
▁fight	-1459
igr	-1460
▁ously	-1461
blem	-1462
▁Friday	-1463
▁strong	-1464
▁club	-1465
▁ut	-1466
▁Christ	-1467
cent	-1468
1,	-1469
iti	-1470
▁whet	-1471
▁Lond	-1472
▁relation	-1473
BC	-1474
irm	-1475
▁London	-1476
arn	-1477
▁dr	-1478
▁cit	-1479
▁pat	-1480
▁cy	-1481
▁sw	-1482
ffect	-1483
1.	-1484
▁ben	-1485
▁Ste	-1486
▁walk	-1487
▁agree	-1488
ream	-1489
▁Mic	-1490
▁human	-1491
ec	-1492
▁fully	-1493
▁mother	-1494
oice	-1495
cus	-1496
aff	-1497
▁ins	-1498
omin	-1499
eli	-1500
vers	-1501
▁risk	-1502
▁stead	-1503
esday	-1504
▁launch	-1505
tt	-1506
▁migr	-1507
orld	-1508
▁ide	-1509
▁um	-1510
icket	-1511
▁Tuesday	-1512
▁student	-1513
▁done	-1514
▁hind	-1515
▁protect	-1516
imat	-1517
-1	-1518
▁Pa	-1519
irl	-1520
▁18	-1521
▁problem	-1522
▁30	-1523
▁Ju	-1524
▁equ	-1525
▁woman	-1526
▁suggest	-1527
▁late	-1528
▁further	-1529
▁Oct	-1530
▁arm	-1531
▁gan	-1532
ok	-1533
▁fail	-1534
▁region	-1535
nes	-1536
▁ese	-1537
▁kind	-1538
▁Lab	-1539
▁once	-1540
▁cert	-1541
▁ther	-1542
▁ature	-1543
▁sol	-1544
▁speak	-1545
▁sus	-1546
▁ping	-1547
lect	-1548
▁writ	-1549
▁account	-1550
▁sl	-1551
rence	-1552
▁North	-1553
▁front	-1554
▁score	-1555
elt	-1556
▁qual	-1557
▁focus	-1558
▁China	-1559
▁ier	-1560
▁Jun	-1561
▁Pri	-1562
▁depend	-1563
urs	-1564
bit	-1565
▁Ap	-1566
oint	-1567
50	-1568
▁ban	-1569
▁warn	-1570
▁travel	-1571
igh	-1572
▁Nov	-1573
▁Donald	-1574
▁effect	-1575
▁Go	-1576
unt	-1577
▁Ge	-1578
▁cover	-1579
▁ington	-1580
▁phone	-1581
▁stay	-1582
resent	-1583
etty	-1584
ednes	-1585
▁Will	-1586
ednesda	-1587
,""	-1588
▁ident	-1589
▁sum	-1590
▁ul	-1591
▁Wednesda	-1592
▁National	-1593
bal	-1594
▁dou	-1595
▁story	-1596
▁target	-1597
▁join	-1598
▁strike	-1599
▁Israeli	-1600
▁Gu	-1601
▁Cal	-1602
lement	-1603
ursday	-1604
▁couple	-1605
▁building	-1606
nal	-1607
▁heart	-1608
▁design	-1609
air	-1610
▁Ab	-1611
▁charge	-1612
▁Thursday	-1613
▁Chi	-1614
fess	-1615
▁wards	-1616
▁celeb	-1617
tain	-1618
▁prop	-1619
xt	-1620
▁accus	-1621
▁effort	-1622
▁net	-1623
sis	-1624
ative	-1625
order	-1626
▁exc	-1627
▁Bo	-1628
▁supp	-1629
cept	-1630
▁deli	-1631
▁creas	-1632
▁shot	-1633
▁space	-1634
▁candid	-1635
▁reason	-1636
▁World	-1637
▁partner	-1638
▁possible	-1639
ball	-1640
org	-1641
▁career	-1642
▁yet	-1643
▁ified	-1644
▁fun	-1645
▁program	-1646
▁condition	-1647
▁Ra	-1648
▁saw	-1649
▁Sh	-1650
iate	-1651
▁hot	-1652
▁Su	-1653
▁Pr	-1654
▁Poli	-1655
▁eight	-1656
▁Ger	-1657
stand	-1658
▁Br	-1659
▁eng	-1660
▁control	-1661
▁data	-1662
ificant	-1663
▁employ	-1664
▁ignificant	-1665
▁colle	-1666
▁minister	-1667
ake	-1668
▁product	-1669
▁amp	-1670
▁course	-1671
▁Dav	-1672
▁board	-1673
▁Can	-1674
▁arrest	-1675
ilt	-1676
▁sport	-1677
▁lier	-1678
▁deep	-1679
▁ising	-1680
ederal	-1681
▁deliver	-1682
▁cult	-1683
land	-1684
▁priv	-1685
▁occ	-1686
▁class	-1687
minist	-1688
▁ir	-1689
▁history	-1690
▁bri	-1691
▁race	-1692
rov	-1693
▁leave	-1694
▁particular	-1695
▁Im	-1696
ator	-1697
▁fact	-1698
▁ized	-1699
▁glo	-1700
▁enter	-1701
▁proper	-1702
ourt	-1703
▁ates	-1704
ughter	-1705
ze	-1706
▁ari	-1707
▁poll	-1708
udge	-1709
▁access	-1710
ensive	-1711
ich	-1712
▁mess	-1713
▁rese	-1714
▁aff	-1715
▁ure	-1716
▁interview	-1717
aturday	-1718
▁tic	-1719
▁hosp	-1720
▁complete	-1721
▁percent	-1722
▁Che	-1723
▁activ	-1724
▁legal	-1725
▁feature	-1726
og	-1727
▁Ph	-1728
▁ri	-1729
▁involve	-1730
▁lim	-1731
dle	-1732
▁confirm	-1733
▁hospital	-1734
▁col	-1735
▁photo	-1736
▁project	-1737
▁Cl	-1738
▁impact	-1739
erve	-1740
▁attempt	-1741
▁information	-1742
to	-1743
▁billion	-1744
cum	-1745
▁kid	-1746
▁Her	-1747
▁require	-1748
▁Saturday	-1749
▁buy	-1750
▁fav	-1751
▁pet	-1752
▁jour	-1753
ma	-1754
ike	-1755
▁explain	-1756
▁stop	-1757
▁present	-1758
ralia	-1759
▁suit	-1760
▁decid	-1761
▁Bar	-1762
▁vice	-1763
cil	-1764
▁11	-1765
▁pick	-1766
▁Ex	-1767
▁vision	-1768
▁step	-1769
arter	-1770
0.	-1771
▁Some	-1772
▁tour	-1773
▁direct	-1774
▁ble	-1775
▁hear	-1776
▁staff	-1777
ateg	-1778
ior	-1779
▁AI	-1780
▁Univers	-1781
▁held	-1782
▁Court	-1783
▁16	-1784
▁ator	-1785
▁drop	-1786
▁seven	-1787
cast	-1788
▁ties	-1789
yal	-1790
▁Australia	-1791
▁park	-1792
▁town	-1793
▁summer	-1794
▁improv	-1795
▁13	-1796
com	-1797
▁quick	-1798
▁understand	-1799
▁Black	-1800
▁protest	-1801
▁14	-1802
ustom	-1803
erge	-1804
▁felt	-1805
▁nce	-1806
▁Just	-1807
ancial	-1808
sy	-1809
▁Comm	-1810
▁personal	-1811
▁trad	-1812
▁word	-1813
ging	-1814
▁certain	-1815
▁Octo	-1816
▁Pal	-1817
▁gener	-1818
▁actual	-1819
▁eye	-1820
▁Scot	-1821
▁League	-1822
▁opport	-1823
▁Po	-1824
▁forward	-1825
▁Sen	-1826
▁rule	-1827
▁decade	-1828
▁ice	-1829
▁indust	-1830
▁girl	-1831
▁crease	-1832
▁trial	-1833
▁father	-1834
ased	-1835
icy	-1836
▁British	-1837
▁coach	-1838
▁energ	-1839
▁dam	-1840
▁suff	-1841
▁stage	-1842
▁inciden	-1843
▁Afric	-1844
▁lines	-1845
▁manage	-1846
itle	-1847
▁ish	-1848
▁general	-1849
▁policy	-1850
▁bed	-1851
▁learn	-1852
▁mission	-1853
▁bir	-1854
▁wait	-1855
▁initi	-1856
▁research	-1857
▁Fe	-1858
▁TV	-1859
▁Net	-1860
ense	-1861
▁commit	-1862
Thi	-1863
▁Jam	-1864
▁ise	-1865
▁avail	-1866
▁Spa	-1867
orning	-1868
amp	-1869
▁Janu	-1870
▁Apr	-1871
▁fast	-1872
▁argu	-1873
▁Sw	-1874
ency	-1875
▁rele	-1876
▁wind	-1877
▁Sept	-1878
▁March	-1879
▁boy	-1880
▁king	-1881
,'	-1882
▁pain	-1883
▁erious	-1884
▁ists	-1885
▁music	-1886
igure	-1887
▁const	-1888
▁operation	-1889
▁benef	-1890
▁igation	-1891
otion	-1892
He	-1893
▁matter	-1894
oma	-1895
dd	-1896
▁fra	-1897
▁mult	-1898
▁administ	-1899
▁itu	-1900
▁Cent	-1901
▁Or	-1902
▁ib	-1903
ony	-1904
▁finish	-1905
lay	-1906
▁seat	-1907
▁Tw	-1908
▁...	-1909
▁ize	-1910
▁director	-1911
▁represent	-1912
▁mass	-1913
▁German	-1914
▁199	-1915
▁Off	-1916
ager	-1917
▁Georg	-1918
▁bank	-1919
▁bill	-1920
▁vill	-1921
tal	-1922
▁50	-1923
▁Aug	-1924
▁limit	-1925
▁worth	-1926
▁daughter	-1927
▁x	-1928
▁round	-1929
▁Fo	-1930
rict	-1931
gel	-1932
▁custom	-1933
▁simpl	-1934
▁prob	-1935
▁quarter	-1936
▁les	-1937
cuss	-1938
▁dri	-1939
▁os	-1940
▁Acc	-1941
▁wife	-1942
▁Labour	-1943
ror	-1944
▁My	-1945
ary	-1946
▁produc	-1947
▁ample	-1948
▁wood	-1949
lve	-1950
▁total	-1951
serv	-1952
▁bur	-1953
▁push	-1954
▁released	-1955
▁wear	-1956
▁she	-1957
▁Indian	-1958
▁$1	-1959
▁attend	-1960
▁Bra	-1961
self	-1962
▁exec	-1963
▁running	-1964
▁trug	-1965
▁Scott	-1966
pri	-1967
▁anti	-1968
▁financial	-1969
▁Part	-1970
9,	-1971
que	-1972
▁Wash	-1973
▁demand	-1974
har	-1975
▁ina	-1976
▁beat	-1977
▁border	-1978
▁ring	-1979
▁sale	-1980
▁conne	-1981
▁figure	-1982
ough	-1983
▁Mus	-1984
ivil	-1985
▁bad	-1986
ilar	-1987
ension	-1988
▁gun	-1989
▁Char	-1990
▁explo	-1991
▁football	-1992
▁ven	-1993
hen	-1994
▁Per	-1995
aut	-1996
cer	-1997
▁fre	-1998
▁hor	-1999
30	-2000
▁chief	-2001
rew	-2002
▁ees	-2003
▁claimed	-2004
cut	-2005
joy	-2006
▁ett	-2007
ficult	-2008
▁broad	-2009
▁lease	-2010
▁ifficult	-2011
▁que	-2012
▁17	-2013
▁ible	-2014
▁ori	-2015
▁America	-2016
▁himself	-2017
rug	-2018
▁anger	-2019
▁cr	-2020
ention	-2021
▁address	-2022
▁Pe	-2023
▁War	-2024
▁peri	-2025
▁owner	-2026
▁global	-2027
▁living	-2028
▁dog	-2029
▁respond	-2030
▁iv	-2031
ude	-2032
grap	-2033
lymp	-2034
▁vious	-2035
▁gi	-2036
▁£1	-2037
▁source	-2038
au	-2039
ional	-2040
enal	-2041
▁Dan	-2042
light	-2043
▁Dec	-2044
▁afety	-2045
now	-2046
▁Olymp	-2047
din	-2048
▁Joe	-2049
▁unity	-2050
▁ingly	-2051
▁table	-2052
▁track	-2053
▁mediate	-2054
▁pressur	-2055
▁ten	-2056
▁soon	-2057
▁scene	-2058
▁emerge	-2059
▁profess	-2060
▁25	-2061
▁Iran	-2062
▁ituation	-2063
ass	-2064
▁detail	-2065
▁road	-2066
▁reduc	-2067
▁search	-2068
pped	-2069
ara	-2070
▁benefit	-2071
▁Dr	-2072
▁conv	-2073
minal	-2074
▁brand	-2075
bin	-2076
▁Cong	-2077
▁inst	-2078
▁vers	-2079
▁approach	-2080
▁vol	-2081
▁super	-2082
▁Col	-2083
▁enjoy	-2084
▁federal	-2085
▁economic	-2086
▁card	-2087
▁Count	-2088
▁response	-2089
wer	-2090
ication	-2091
▁Inst	-2092
▁safe	-2093
▁panies	-2094
for	-2095
▁emb	-2096
▁mak	-2097
▁period	-2098
lves	-2099
▁suffer	-2100
▁value	-2101
?"	-2102
rupt	-2103
verage	-2104
▁spect	-2105
▁selves	-2106
okes	-2107
read	-2108
▁spokes	-2109
yle	-2110
▁Star	-2111
▁Spe	-2112
▁Image	-2113
secut	-2114
▁White	-2115
▁du	-2116
▁conte	-2117
▁expert	-2118
▁Sy	-2119
graph	-2120
▁box	-2121
iam	-2122
▁Sm	-2123
itted	-2124
▁leading	-2125
lor	-2126
▁100	-2127
▁option	-2128
▁Congress	-2129
▁dead	-2130
▁shop	-2131
asure	-2132
▁industry	-2133
▁nam	-2134
fer	-2135
▁Calif	-2136
▁stat	-2137
▁mur	-2138
▁mind	-2139
racter	-2140
▁privat	-2141
▁addition	-2142
▁cast	-2143
▁huge	-2144
▁store	-2145
hie	-2146
▁Now	-2147
▁clos	-2148
▁Hama	-2149
▁Time	-2150
▁victor	-2151
▁similar	-2152
agram	-2153
▁spot	-2154
▁Inter	-2155
▁August	-2156
▁prison	-2157
▁24	-2158
idence	-2159
ivid	-2160
▁opp	-2161
▁jury	-2162
▁Accord	-2163
▁compar	-2164
▁victim	-2165
▁ts	-2166
▁capt	-2167
▁whole	-2168
▁serve	-2169
▁popular	-2170
▁Em	-2171
▁trib	-2172
▁check	-2173
9.	-2174
▁sold	-2175
▁plann	-2176
stic	-2177
▁Air	-2178
▁via	-2179
▁nothing	-2180
▁quite	-2181
▁plat	-2182
▁assist	-2183
▁morning	-2184
fit	-2185
▁model	-2186
vir	-2187
▁pract	-2188
▁utive	-2189
▁Olympic	-2190
▁resident	-2191
ciate	-2192
▁character	-2193
oid	-2194
▁deter	-2195
▁defend	-2196
irst	-2197
▁rath	-2198
cument	-2199
▁document	-2200
▁East	-2201
▁shoot	-2202
▁title	-2203
▁Day	-2204
▁ger	-2205
▁picture	-2206
▁Tra	-2207
lip	-2208
▁Dep	-2209
▁prepar	-2210
▁Instagram	-2211
▁hy	-2212
▁Gar	-2213
ornia	-2214
▁crime	-2215
artment	-2216
▁respons	-2217
very	-2218
▁batt	-2219
▁firm	-2220
▁mile	-2221
0,	-2222
uff	-2223
▁gold	-2224
▁manager	-2225
▁Red	-2226
▁ants	-2227
▁earn	-2228
▁secret	-2229
▁California	-2230
▁drug	-2231
▁Gra	-2232
▁ler	-2233
▁&	-2234
▁San	-2235
▁mat	-2236
bor	-2237
▁dom	-2238
▁aut	-2239
▁fla	-2240
ividual	-2241
▁struct	-2242
dge	-2243
estinian	-2244
band	-2245
idge	-2246
▁fer	-2247
▁Images	-2248
▁civil	-2249
▁white	-2250
▁surpri	-2251
▁platform	-2252
viron	-2253
vironment	-2254
▁accept	-2255
era	-2256
rage	-2257
imate	-2258
▁propos	-2259
You	-2260
▁olo	-2261
▁evidence	-2262
bed	-2263
▁Ass	-2264
▁previ	-2265
▁champion	-2266
▁development	-2267
ga	-2268
▁door	-2269
▁hol	-2270
▁rates	-2271
rench	-2272
▁Department	-2273
usband	-2274
5.	-2275
▁BBC	-2276
▁descri	-2277
▁Ha	-2278
▁Not	-2279
tle	-2280
iece	-2281
▁review	-2282
▁heav	-2283
▁usual	-2284
▁aud	-2285
▁pent	-2286
▁urge	-2287
▁drive	-2288
▁phy	-2289
▁marri	-2290
uct	-2291
ference	-2292
▁France	-2293
▁Park	-2294
▁base	-2295
▁individual	-2296
und	-2297
▁El	-2298
▁ford	-2299
▁judge	-2300
▁responsib	-2301
▁inn	-2302
▁oil	-2303
▁vir	-2304
▁caus	-2305
▁Hol	-2306
▁publish	-2307
▁criminal	-2308
8,	-2309
▁fear	-2310
▁wrong	-2311
▁workers	-2312
▁Phi	-2313
▁uring	-2314
'.	-2315
rib	-2316
▁Do	-2317
▁gave	-2318
▁gue	-2319
▁Ho	-2320
▁Cup	-2321
▁heat	-2322
▁Govern	-2323
▁ave	-2324
▁enc	-2325
ane	-2326
hicle	-2327
▁sense	-2328
2,	-2329
lad	-2330
ness	-2331
▁fair	-2332
▁hreat	-2333
▁venue	-2334
cel	-2335
▁dest	-2336
▁vari	-2337
▁bi	-2338
▁Med	-2339
▁ious	-2340
▁camp	-2341
▁pair	-2342
▁aging	-2343
▁affect	-2344
▁William	-2345
2.	-2346
▁Getty	-2347
▁amount	-2348
▁murder	-2349
▁neg	-2350
▁actor	-2351
▁capital	-2352
anc	-2353
▁range	-2354
▁average	-2355
▁aim	-2356
▁image	-2357
ph	-2358
lex	-2359
▁David	-2360
▁depart	-2361
ech	-2362
▁ify	-2363
▁heard	-2364
▁remov	-2365
▁centre	-2366
▁beaut	-2367
▁wo	-2368
▁rise	-2369
umb	-2370
▁husband	-2371
▁40	-2372
time	-2373
There	-2374
▁Pari	-2375
▁express	-2376
hed	-2377
▁prior	-2378
▁dependent	-2379
play	-2380
▁ner	-2381
▁wee	-2382
udget	-2383
▁debate	-2384
▁origin	-2385
lam	-2386
▁temp	-2387
ca	-2388
▁wel	-2389
▁hop	-2390
▁extra	-2391
▁foreign	-2392
▁ba	-2393
▁Gen	-2394
▁dia	-2395
▁pack	-2396
ring	-2397
▁aid	-2398
▁Angel	-2399
▁touch	-2400
▁pool	-2401
▁Bl	-2402
▁growth	-2403
▁flight	-2404
▁ium	-2405
▁nomin	-2406
▁entire	-2407
ged	-2408
▁tro	-2409
▁patient	-2410
▁Prince	-2411
▁vehicle	-2412
▁More	-2413
liament	-2414
lli	-2415
▁sea	-2416
▁rated	-2417
ban	-2418
▁lock	-2419
▁block	-2420
mier	-2421
▁French	-2422
oric	-2423
▁link	-2424
stitut	-2425
▁kids	-2426
5,	-2427
▁By	-2428
spir	-2429
▁easy	-2430
▁piece	-2431
▁Dis	-2432
▁ada	-2433
▁exist	-2434
▁speci	-2435
▁petition	-2436
▁Palestinian	-2437
bru	-2438
▁counter	-2439
▁clean	-2440
▁prevent	-2441
rowd	-2442
asion	-2443
▁gone	-2444
kend	-2445
▁works	-2446
iving	-2447
▁black	-2448
▁thank	-2449
▁discuss	-2450
lass	-2451
ousand	-2452
▁measure	-2453
▁damage	-2454
▁weekend	-2455
▁hood	-2456
▁sexual	-2457
▁pend	-2458
▁ak	-2459
cle	-2460
▁Cor	-2461
▁sent	-2462
▁cru	-2463
▁logy	-2464
▁ians	-2465
▁river	-2466
▁strateg	-2467
▁Febru	-2468
▁paper	-2469
▁sound	-2470
▁cancer	-2471
▁paid	-2472
▁fence	-2473
▁thousand	-2474
▁street	-2475
▁structure	-2476
mas	-2477
▁Bri	-2478
▁Pat	-2479
▁senior	-2480
▁Lu	-2481
eria	-2482
▁Del	-2483
▁fac	-2484
▁pending	-2485
▁station	-2486
▁described	-2487
▁ti	-2488
▁educ	-2489
▁eith	-2490
▁rout	-2491
▁Office	-2492
ally	-2493
▁Sam	-2494
▁phys	-2495
7,	-2496
utin	-2497
▁lack	-2498
6,	-2499
▁mot	-2500
▁study	-2501
▁speech	-2502
▁Fin	-2503
▁birth	-2504
▁terri	-2505
**	-2506
▁grand	-2507
ess	-2508
▁medical	-2509
▁sle	-2510
▁trust	-2511
xic	-2512
▁environment	-2513
▁Pet	-2514
▁weight	-2515
▁conduct	-2516
▁families	-2517
ham	-2518
▁Met	-2519
▁En	-2520
▁rul	-2521
▁rock	-2522
▁arrive	-2523
▁App	-2524
▁Dur	-2525
▁ease	-2526
▁avoid	-2527
▁extrem	-2528
do	-2529
ipl	-2530
▁rad	-2531
▁acy	-2532
▁repe	-2533
▁roll	-2534
▁mer	-2535
▁achie	-2536
fort	-2537
▁Tor	-2538
▁flation	-2539
ential	-2540
▁neigh	-2541
swer	-2542
▁movie	-2543
ove	-2544
omb	-2545
▁cat	-2546
Picture	-2547
▁Christmas	-2548
▁ted	-2549
▁nine	-2550
▁dress	-2551
▁ships	-2552
bas	-2553
▁driv	-2554
isl	-2555
▁der	-2556
aly	-2557
▁Di	-2558
▁cir	-2559
-2	-2560
itor	-2561
▁Brita	-2562
▁fit	-2563
round	-2564
▁Mark	-2565
▁tre	-2566
orney	-2567
▁leav	-2568
▁migrant	-2569
▁crowd	-2570
owl	-2571
▁bal	-2572
▁Prime	-2573
▁giving	-2574
▁screen	-2575
▁promise	-2576
▁Op	-2577
▁Jon	-2578
▁tun	-2579
▁prim	-2580
▁complain	-2581
3.	-2582
con	-2583
▁Sch	-2584
▁farm	-2585
▁Party	-2586
atural	-2587
▁climat	-2588
emic	-2589
▁Jack	-2590
▁song	-2591
▁intro	-2592
▁style	-2593
ray	-2594
▁web	-2595
▁excit	-2596
▁favour	-2597
uk	-2598
▁Africa	-2599
▁answer	-2600
na	-2601
▁stra	-2602
▁choice	-2603
▁tribute	-2604
bert	-2605
▁198	-2606
▁Sim	-2607
▁shock	-2608
▁quality	-2609
ste	-2610
▁consum	-2611
of	-2612
▁perfect	-2613
apon	-2614
work	-2615
▁Mor	-2616
▁flo	-2617
▁han	-2618
▁west	-2619
▁abs	-2620
▁appeal	-2621
▁rating	-2622
▁holiday	-2623
hael	-2624
▁jur	-2625
▁lit	-2626
▁chair	-2627
▁peace	-2628
▁boo	-2629
▁hur	-2630
▁tradition	-2631
dict	-2632
▁Ben	-2633
reg	-2634
▁Sin	-2635
▁ess	-2636
▁olog	-2637
ablish	-2638
▁rival	-2639
▁credit	-2640
▁comfort	-2641
▁Ukrainian	-2642
▁lay	-2643
▁drink	-2644
▁popul	-2645
▁truggle	-2646
ault	-2647
▁chester	-2648
▁Game	-2649
▁Photo	-2650
▁regular	-2651
▁teen	-2652
▁winn	-2653
▁agency	-2654
▁draw	-2655
▁pull	-2656
▁lation	-2657
▁conflic	-2658
▁ney	-2659
▁pla	-2660
▁Last	-2661
▁wall	-2662
▁Rep	-2663
▁multipl	-2664
▁contract	-2665
If	-2666
▁Paul	-2667
▁skin	-2668
ali	-2669
▁stor	-2670
▁named	-2671
▁voice	-2672
▁Wal	-2673
▁double	-2674
▁practic	-2675
▁Of	-2676
▁ee	-2677
▁Mad	-2678
aur	-2679
▁Flor	-2680
▁crisis	-2681
▁regul	-2682
aby	-2683
▁Par	-2684
▁ticket	-2685
ling	-2686
▁carri	-2687
▁fort	-2688
ociate	-2689
▁progress	-2690
▁solution	-2691
▁rain	-2692
bel	-2693
▁trip	-2694
▁weapon	-2695
▁ա	-2696
▁gain	-2697
▁engage	-2698
▁fill	-2699
▁carry	-2700
▁loved	-2701
▁spread	-2702
▁techno	-2703
ily	-2704
▁slow	-2705
ung	-2706
racy	-2707
▁band	-2708
▁ances	-2709
app	-2710
▁Bro	-2711
▁culture	-2712
▁ned	-2713
▁site	-2714
▁doctor	-2715
▁stock	-2716
▁compet	-2717
▁journal	-2718
▁aware	-2719
▁discover	-2720
8.	-2721
ormal	-2722
▁hair	-2723
▁award	-2724
▁Mean	-2725
igital	-2726
▁hap	-2727
▁Serv	-2728
▁blood	-2729
▁plant	-2730
ho	-2731
▁Ric	-2732
▁mental	-2733
▁type	-2734
▁recover	-2735
7.	-2736
here	-2737
▁bag	-2738
ating	-2739
▁path	-2740
▁facilit	-2741
</	-2742
iet	-2743
▁1.	-2744
▁Cam	-2745
3,	-2746
pm	-2747
▁Que	-2748
▁Green	-2749
▁Smith	-2750
▁estimat	-2751
▁NA	-2752
▁determin	-2753
▁original	-2754
▁appearance	-2755
ask	-2756
▁ren	-2757
▁pres	-2758
▁repeat	-2759
▁Michael	-2760
▁contact	-2761
go	-2762
▁poor	-2763
▁Sa	-2764
▁ught	-2765
▁content	-2766
▁replace	-2767
▁production	-2768
ky	-2769
van	-2770
▁Sec	-2771
▁sleep	-2772
▁common	-2773
▁Mac	-2774
▁Tom	-2775
▁ality	-2776
▁green	-2777
egal	-2778
▁anim	-2779
▁scar	-2780
▁truck	-2781
▁necess	-2782
bb	-2783
▁battle	-2784
olut	-2785
▁posit	-2786
▁respect	-2787
▁migration	-2788
6.	-2789
▁Ed	-2790
.,	-2791
In	-2792
▁21	-2793
ceed	-2794
▁ily	-2795
▁sell	-2796
luence	-2797
▁standing	-2798
!"	-2799
▁vac	-2800
▁suspect	-2801
▁establish	-2802
lim	-2803
▁Tex	-2804
▁Street	-2805
▁Champion	-2806
▁ep	-2807
izen	-2808
site	-2809
▁kick	-2810
yer	-2811
▁reme	-2812
apan	-2813
▁memor	-2814
▁ordin	-2815
▁wonder	-2816
hase	-2817
mend	-2818
hedul	-2819
▁Coun	-2820
▁secure	-2821
▁surprise	-2822
4,	-2823
▁tal	-2824
▁Coll	-2825
igeria	-2826
▁gin	-2827
▁ming	-2828
▁poke	-2829
▁soft	-2830
▁brother	-2831
▁maintain	-2832
orea	-2833
▁ncy	-2834
▁letter	-2835
▁Scottish	-2836
▁attention	-2837
▁bott	-2838
ee	-2839
cies	-2840
▁sort	-2841
▁pitch	-2842
▁schedul	-2843
▁Wo	-2844
▁Even	-2845
ode	-2846
▁adm	-2847
▁2024.	-2848
▁legisl	-2849
▁Nigeria	-2850
▁sentence	-2851
4.	-2852
▁High	-2853
▁decla	-2854
▁effective	-2855
▁Korea	-2856
▁settle	-2857
▁payment	-2858
tend	-2859
▁swe	-2860
▁dram	-2861
▁particip	-2862
▁Mur	-2863
▁emotion	-2864
▁natural	-2865
ka	-2866
ape	-2867
▁Chief	-2868
▁winner	-2869
▁professional	-2870
▁Mos	-2871
▁warm	-2872
▁hotel	-2873
▁league	-2874
cu	-2875
parat	-2876
▁issu	-2877
▁reflect	-2878
▁standard	-2879
▁Arm	-2880
ndred	-2881
▁Japan	-2882
▁craft	-2883
▁hundred	-2884
▁budget	-2885
reng	-2886
▁ult	-2887
▁fell	-2888
▁encou	-2889
▁factor	-2890
▁stream	-2891
ize	-2892
▁rid	-2893
▁ves	-2894
▁true	-2895
rength	-2896
▁collect	-2897
▁trength	-2898
▁2.	-2899
▁sil	-2900
itive	-2901
▁artist	-2902
▁request	-2903
▁ny	-2904
▁north	-2905
▁education	-2906
▁Mid	-2907
▁sector	-2908
▁separat	-2909
▁ification	-2910
▁influence	-2911
alse	-2912
▁gas	-2913
▁built	-2914
▁rough	-2915
▁regard	-2916
▁throw	-2917
▁Kam	-2918
▁justice	-2919
▁above	-2920
▁cho	-2921
yn	-2922
ruit	-2923
▁begin	-2924
▁pleas	-2925
▁shire	-2926
▁convers	-2927
▁defeat	-2928
▁website	-2929
▁conference	-2930
gress	-2931
▁partie	-2932
hel	-2933
▁retire	-2934
▁sports	-2935
▁(1	-2936
▁camera	-2937
But	-2938
ashi	-2939
▁Port	-2940
▁ency	-2941
▁central	-2942
ustain	-2943
▁People	-2944
▁gri	-2945
▁beha	-2946
▁electric	-2947
lan	-2948
▁1,	-2949
▁nar	-2950
▁physical	-2951
▁Alex	-2952
▁Service	-2953
▁lied	-2954
▁dream	-2955
▁sight	-2956
▁ct	-2957
▁ov	-2958
▁cal	-2959
▁convict	-2960
-0	-2961
▁MP	-2962
▁cas	-2963
▁2024,	-2964
▁Secret	-2965
▁weather	-2966
cogn	-2967
vert	-2968
arden	-2969
▁Mart	-2970
▁contain	-2971
ift	-2972
▁ka	-2973
▁Mer	-2974
▁abuse	-2975
▁lawyer	-2976
nda	-2977
▁defin	-2978
▁afford	-2979
▁Bank	-2980
▁tele	-2981
aurant	-2982
ida	-2983
▁oci	-2984
▁prime	-2985
▁fix	-2986
▁fest	-2987
▁charged	-2988
ify	-2989
oul	-2990
▁Over	-2991
▁location	-2992
pro	-2993
▁ibility	-2994
mon	-2995
▁ub	-2996
▁prett	-2997
▁stone	-2998
▁univers	-2999
▁Act	-3000
▁Robert	-3001
▁active	-3002
▁specific	-3003
▁Tay	-3004
▁First	-3005
▁bling	-3006
▁makers	-3007
▁Premier	-3008
▁introduc	-3009
▁EU	-3010
come	-3011
▁Tik	-3012
▁197	-3013
mi	-3014
▁2020	-3015
▁Speak	-3016
▁van	-3017
▁wit	-3018
▁deni	-3019
▁alter	-3020
▁profit	-3021
▁council	-3022
Tok	-3023
▁tory	-3024
ful	-3025
force	-3026
▁miss	-3027
▁normal	-3028
▁recogn	-3029
▁kept	-3030
▁south	-3031
▁highlight	-3032
bt	-3033
▁shift	-3034
▁tough	-3035
▁illegal	-3036
▁scri	-3037
▁Bill	-3038
▁alone	-3039
▁generation	-3040
▁enger	-3041
▁closed	-3042
▁indic	-3043
▁trade	-3044
▁hou	-3045
reaten	-3046
▁Council	-3047
oos	-3048
▁2022,	-3049
▁Putin	-3050
▁exact	-3051
▁essential	-3052
▁cry	-3053
▁Ali	-3054
▁poli	-3055
▁famous	-3056
▁citizen	-3057
stitution	-3058
ex	-3059
▁Fox	-3060
▁tion	-3061
▁guard	-3062
▁assault	-3063
viv	-3064
▁Ky	-3065
▁From	-3066
▁burn	-3067
bour	-3068
▁baby	-3069
▁Andre	-3070
▁TikTok	-3071
▁Florida	-3072
60	-3073
▁Two	-3074
▁mix	-3075
▁fuel	-3076
▁historic	-3077
su	-3078
able	-3079
▁bor	-3080
▁hon	-3081
▁rich	-3082
ago	-3083
▁Nor	-3084
▁Chan	-3085
▁yard	-3086
▁priorit	-3087
▁IT	-3088
▁annual	-3089
▁connect	-3090
▁Mod	-3091
▁obvi	-3092
▁intell	-3093
▁version	-3094
▁22	-3095
llar	-3096
▁mate	-3097
▁demon	-3098
▁iving	-3099
▁impress	-3100
▁sustain	-3101
ba	-3102
vey	-3103
gree	-3104
jure	-3105
▁terror	-3106
▁appoint	-3107
▁district	-3108
▁Guard	-3109
▁statu	-3110
▁scored	-3111
pre	-3112
▁sav	-3113
▁wed	-3114
▁cies	-3115
▁quad	-3116
▁spend	-3117
urch	-3118
▁flu	-3119
▁opt	-3120
▁Sup	-3121
▁ath	-3122
▁cash	-3123
▁wild	-3124
▁storm	-3125
▁mount	-3126
▁injure	-3127
▁Gl	-3128
rish	-3129
▁Far	-3130
▁eth	-3131
ona	-3132
syl	-3133
▁sey	-3134
▁Every	-3135
▁restaurant	-3136
99	-3137
That	-3138
usion	-3139
▁fortun	-3140
▁remark	-3141
▁network	-3142
▁JP	-3143
arth	-3144
▁apart	-3145
▁lined	-3146
▁inspir	-3147
▁fine	-3148
▁Sport	-3149
quir	-3150
▁cus	-3151
▁Li	-3152
▁Open	-3153
▁boss	-3154
▁UN	-3155
isode	-3156
▁2023,	-3157
▁fighting	-3158
ya	-3159
▁Health	-3160
▁welcome	-3161
▁ators	-3162
▁union	-3163
▁Martin	-3164
▁born	-3165
▁floor	-3166
andemic	-3167
▁placed	-3168
▁predict	-3169
iel	-3170
▁adult	-3171
▁ancing	-3172
▁ociety	-3173
▁witness	-3174
▁corre	-3175
▁Here	-3176
▁corn	-3177
▁wish	-3178
▁Royal	-3179
▁Super	-3180
▁stress	-3181
▁Tayl	-3182
enty	-3183
▁Art	-3184
▁cow	-3185
▁island	-3186
▁60	-3187
Getty	-3188
ron	-3189
▁audience	-3190
unk	-3191
▁--	-3192
▁Ob	-3193
▁boost	-3194
ization	-3195
▁advance	-3196
▁organization	-3197
▁ang	-3198
▁gar	-3199
▁sat	-3200
▁guilt	-3201
▁ongo	-3202
▁defense	-3203
▁missile	-3204
term	-3205
▁mach	-3206
▁delay	-3207
▁mob	-3208
▁row	-3209
▁vent	-3210
▁Georgi	-3211
▁gender	-3212
▁temper	-3213
ami	-3214
lear	-3215
▁elected	-3216
▁Sir	-3217
▁unit	-3218
▁batter	-3219
ffic	-3220
▁elling	-3221
▁lies	-3222
▁behavi	-3223
▁contest	-3224
▁text	-3225
▁Apple	-3226
▁surviv	-3227
▁journey	-3228
ced	-3229
urb	-3230
▁Val	-3231
▁fle	-3232
▁fly	-3233
▁ning	-3234
▁crash	-3235
▁middle	-3236
▁abort	-3237
▁inner	-3238
▁beauti	-3239
▁recall	-3240
▁Ant	-3241
▁Hill	-3242
▁Mexic	-3243
olog	-3244
▁debut	-3245
▁facing	-3246
▁village	-3247
▁sn	-3248
▁dance	-3249
▁recom	-3250
▁juries	-3251
▁attract	-3252
nel	-3253
angu	-3254
wa	-3255
azon	-3256
date	-3257
▁Lat	-3258
▁dai	-3259
▁attorney	-3260
▁recommend	-3261
cin	-3262
▁para	-3263
▁oc	-3264
▁angerous	-3265
▁coast	-3266
▁Conserv	-3267
ium	-3268
port	-3269
▁bey	-3270
▁spl	-3271
▁gent	-3272
▁advise	-3273
▁Cap	-3274
▁auto	-3275
▁fuse	-3276
▁fresh	-3277
▁episode	-3278
za	-3279
olf	-3280
▁NH	-3281
▁rative	-3282
▁absolut	-3283
▁ites	-3284
action	-3285
ashion	-3286
▁eventual	-3287
cue	-3288
tic	-3289
▁era	-3290
▁display	-3291
▁bon	-3292
▁cient	-3293
▁center	-3294
▁universi	-3295
nic	-3296
▁Form	-3297
▁update	-3298
▁straight	-3299
24	-3300
▁ns	-3301
▁lift	-3302
▁rank	-3303
▁bomb	-3304
▁ones	-3305
▁prove	-3306
secutor	-3307
▁threaten	-3308
▁bum	-3309
▁Sing	-3310
▁doubt	-3311
▁insist	-3312
▁English	-3313
▁Ry	-3314
▁writer	-3315
▁prosecutor	-3316
500	-3317
off	-3318
ural	-3319
▁traditional	-3320
▁Ver	-3321
▁combin	-3322
▁Ham	-3323
▁Carol	-3324
▁occur	-3325
▁Amazon	-3326
▁difference	-3327
▁journalist	-3328
▁Our	-3329
▁nel	-3330
▁Union	-3331
roud	-3332
▁Wale	-3333
▁page	-3334
▁ncies	-3335
▁conserv	-3336
▁demonst	-3337
▁CE	-3338
▁solve	-3339
▁stood	-3340
▁holding	-3341
And	-3342
▁pandemic	-3343
▁spective	-3344
▁construct	-3345
ux	-3346
▁ya	-3347
▁blo	-3348
▁tree	-3349
▁Island	-3350
-4	-3351
▁beach	-3352
▁favor	-3353
▁scape	-3354
▁writing	-3355
▁Pak	-3356
▁Post	-3357
▁artic	-3358
anguage	-3359
▁parliament	-3360
▁é	-3361
▁3.	-3362
▁Bay	-3363
▁bid	-3364
▁istic	-3365
▁balance	-3366
▁intellig	-3367
▁0	-3368
▁Du	-3369
▁debt	-3370
▁dish	-3371
▁married	-3372
▁2021	-3373
▁rent	-3374
male	-3375
▁wave	-3376
▁izing	-3377
▁tourn	-3378
▁tournament	-3379
oud	-3380
▁Mel	-3381
▁ending	-3382
gg	-3383
▁lic	-3384
▁Matt	-3385
▁cool	-3386
▁agent	-3387
▁aries	-3388
▁Kamala	-3389
▁topped	-3390
▁wan	-3391
▁Shar	-3392
▁plane	-3393
▁bla	-3394
▁flood	-3395
istan	-3396
▁cook	-3397
▁email	-3398
▁applic	-3399
▁enforce	-3400
▁23	-3401
▁Lou	-3402
▁loan	-3403
▁cheme	-3404
▁drone	-3405
▁restrict	-3406
▁pi	-3407
▁typ	-3408
▁harm	-3409
▁athle	-3410
▁choos	-3411
▁penal	-3412
▁declare	-3413
▁Ear	-3414
▁cop	-3415
▁tip	-3416
▁dark	-3417
▁college	-3418
▁surround	-3419
▁encourage	-3420
gra	-3421
▁Ag	-3422
▁analy	-3423
▁connection	-3424
▁consist	-3425
▁subject	-3426
▁CO	-3427
▁haven	-3428
▁Wil	-3429
▁ana	-3430
▁fat	-3431
▁spo	-3432
▁disp	-3433
▁ense	-3434
▁write	-3435
so	-3436
raw	-3437
▁tin	-3438
▁jump	-3439
▁nice	-3440
AP	-3441
▁Ara	-3442
▁cream	-3443
▁negot	-3444
▁occasion	-3445
▁$2	-3446
▁Fore	-3447
▁Gold	-3448
sc	-3449
▁psy	-3450
senal	-3451
▁cloth	-3452
▁medic	-3453
▁Jones	-3454
hio	-3455
What	-3456
fact	-3457
rong	-3458
▁Bet	-3459
▁pod	-3460
▁stated	-3461
▁General	-3462
roy	-3463
▁dad	-3464
▁doz	-3465
▁bull	-3466
▁Khan	-3467
▁smart	-3468
cise	-3469
▁Chel	-3470
▁expand	-3471
▁committed	-3472
▁MO	-3473
▁Qu	-3474
▁Ty	-3475
▁female	-3476
▁window	-3477
▁mini	-3478
▁rity	-3479
▁hern	-3480
▁hat	-3481
▁Home	-3482
▁allies	-3483
▁Pakistan	-3484
▁Commission	-3485
di	-3486
osp	-3487
▁Mag	-3488
▁cli	-3489
▁putt	-3490
▁reject	-3491
My	-3492
▁ja	-3493
▁Ber	-3494
▁rap	-3495
hibit	-3496
spect	-3497
▁strict	-3498
oda	-3499
▁Sea	-3500
▁Tur	-3501
▁eek	-3502
range	-3503
aterial	-3504
▁extend	-3505
▁die	-3506
▁jail	-3507
▁2023.	-3508
pper	-3509
▁Ten	-3510
▁boat	-3511
▁material	-3512
▁admitted	-3513
irit	-3514
ouble	-3515
▁ferred	-3516
▁gather	-3517
▁cultural	-3518
che	-3519
▁om	-3520
▁Bel	-3521
▁blue	-3522
▁ocracy	-3523
hard	-3524
▁kit	-3525
ria	-3526
▁4.	-3527
▁ballot	-3528
▁traffic	-3529
▁27	-3530
quent	-3531
▁ique	-3532
▁tack	-3533
▁logical	-3534
▁skill	-3535
▁Daniel	-3536
▁£2	-3537
▁Mike	-3538
▁brief	-3539
▁ically	-3540
sea	-3541
▁speed	-3542
▁intens	-3543
▁colleague	-3544
ero	-3545
hank	-3546
▁Hall	-3547
▁amaz	-3548
▁imag	-3549
▁user	-3550
▁stick	-3551
▁Most	-3552
▁Test	-3553
▁sister	-3554
▁achieve	-3555
back	-3556
▁Rom	-3557
▁tle	-3558
▁sand	-3559
▁ware	-3560
▁brain	-3561
▁proud	-3562
▁trend	-3563
▁ginning	-3564
▁gate	-3565
▁Group	-3566
▁raise	-3567
▁Cro	-3568
▁Bre	-3569
▁fee	-3570
▁lla	-3571
▁bowl	-3572
▁diagn	-3573
▁ester	-3574
olk	-3575
tee	-3576
udi	-3577
▁kin	-3578
emb	-3579
▁lan	-3580
aster	-3581
▁fish	-3582
▁supply	-3583
▁ultimate	-3584
oe	-3585
▁Law	-3586
▁tool	-3587
▁2022.	-3588
▁print	-3589
▁winter	-3590
▁28	-3591
▁trail	-3592
▁School	-3593
▁ged	-3594
▁cold	-3595
▁mine	-3596
▁garden	-3597
▁modern	-3598
ու	-3599
▁Penn	-3600
▁dism	-3601
▁article	-3602
cul	-3603
▁ju	-3604
▁ress	-3605
face	-3606
▁God	-3607
▁hone	-3608
▁paint	-3609
▁listen	-3610
▁ception	-3611
▁ization	-3612
▁intelligence	-3613
new	-3614
▁nor	-3615
▁aged	-3616
▁infra	-3617
inal	-3618
▁Ram	-3619
▁Tim	-3620
▁esh	-3621
acher	-3622
▁Play	-3623
▁ility	-3624
ea	-3625
She	-3626
▁ston	-3627
▁confide	-3628
▁Hou	-3629
▁mag	-3630
▁grant	-3631
▁wealth	-3632
▁pension	-3633
▁language	-3634
▁resource	-3635
▁gro	-3636
▁dome	-3637
▁stuff	-3638
▁troop	-3639
▁committee	-3640
▁gy	-3641
▁ni	-3642
▁Bur	-3643
▁hall	-3644
▁wedd	-3645
▁engine	-3646
▁definite	-3647
▁CB	-3648
▁Kenn	-3649
▁Musk	-3650
▁soci	-3651
▁cities	-3652
▁prose	-3653
▁talent	-3654
▁Photograph	-3655
▁Ye	-3656
chase	-3657
▁flag	-3658
▁typical	-3659
fa	-3660
ris	-3661
▁Wa	-3662
lude	-3663
▁Sal	-3664
▁pin	-3665
▁guide	-3666
appoint	-3667
▁survey	-3668
▁Id	-3669
▁MA	-3670
▁Den	-3671
onent	-3672
▁luck	-3673
▁ried	-3674
▁bridge	-3675
▁ack	-3676
▁fare	-3677
▁acknow	-3678
▁degree	-3679
▁necessary	-3680
▁pra	-3681
arian	-3682
▁feet	-3683
▁intend	-3684
por	-3685
▁AP	-3686
▁Jew	-3687
▁shut	-3688
▁divers	-3689
▁institut	-3690
{"	-3691
opt	-3692
▁Ita	-3693
▁dry	-3694
▁Kate	-3695
▁Sant	-3696
▁horr	-3697
uclear	-3698
▁maybe	-3699
▁African	-3700
▁NC	-3701
▁ron	-3702
▁Arab	-3703
▁Both	-3704
▁equal	-3705
▁Chelsea	-3706
▁purchase	-3707
▁II	-3708
▁Han	-3709
▁Swe	-3710
ufact	-3711
▁berg	-3712
hicago	-3713
▁Queen	-3714
▁route	-3715
▁programme	-3716
si	-3717
▁80	-3718
▁Ken	-3719
▁wag	-3720
anyah	-3721
▁corner	-3722
▁retail	-3723
lt	-3724
cal	-3725
▁Pra	-3726
▁prompt	-3727
▁transport	-3728
▁fli	-3729
▁Modi	-3730
▁mist	-3731
▁Elect	-3732
▁Liver	-3733
usive	-3734
▁Adam	-3735
▁Mary	-3736
▁Vict	-3737
▁llah	-3738
▁Franc	-3739
▁expos	-3740
▁colour	-3741
▁contra	-3742
▁soldier	-3743
ube	-3744
▁Ca	-3745
▁rev	-3746
▁sci	-3747
▁udd	-3748
▁cerem	-3749
▁Arsenal	-3750
zer	-3751
▁Nic	-3752
▁Tri	-3753
▁Mill	-3754
▁teacher	-3755
▁Why	-3756
▁nut	-3757
▁san	-3758
▁Starmer	-3759
So	-3760
oogle	-3761
▁burgh	-3762
isation	-3763
▁Netanyah	-3764
40	-3765
▁Mil	-3766
▁Vic	-3767
irect	-3768
ufactur	-3769
▁register	-3770
▁organisation	-3771
▁26	-3772
gger	-3773
▁lash	-3774
▁rick	-3775
▁complex	-3776
▁credible	-3777
▁domestic	-3778
▁.	-3779
▁nt	-3780
▁Reg	-3781
▁2019	-3782
▁note	-3783
▁dismiss	-3784
▁fashion	-3785
▁nuclear	-3786
▁planned	-3787
▁associate	-3788
▁len	-3789
▁tight	-3790
▁manufactur	-3791
mo	-3792
orse	-3793
▁Big	-3794
▁pose	-3795
▁semi	-3796
▁laugh	-3797
▁minor	-3798
▁Chicago	-3799
rel	-3800
▁Vir	-3801
▁code	-3802
▁flow	-3803
▁liber	-3804
imb	-3805
val	-3806
▁Kel	-3807
▁altern	-3808
▁Jer	-3809
▁ado	-3810
▁ery	-3811
▁odd	-3812
▁tee	-3813
right	-3814
▁plenty	-3815
▁commission	-3816
br	-3817
▁blame	-3818
▁broke	-3819
▁giant	-3820
▁dollar	-3821
▁Francis	-3822
▁fortunate	-3823
bn	-3824
▁je	-3825
▁mum	-3826
▁rum	-3827
▁zone	-3828
itting	-3829
▁isation	-3830
▁keeping	-3831
▁90	-3832
▁ST	-3833
inion	-3834
▁Clark	-3835
▁guest	-3836
▁written	-3837
',	-3838
▁Ari	-3839
useum	-3840
▁Grand	-3841
▁digital	-3842
zz	-3843
▁Cel	-3844
▁Mari	-3845
urance	-3846
▁destroy	-3847
▁crew	-3848
▁medal	-3849
▁royal	-3850
▁Richard	-3851
▁implement	-3852
pping	-3853
▁chain	-3854
▁gradu	-3855
▁fellow	-3856
▁object	-3857
pose	-3858
▁rose	-3859
▁sequ	-3860
▁ville	-3861
▁sitting	-3862
shi	-3863
reath	-3864
▁gift	-3865
▁cruci	-3866
▁honest	-3867
gend	-3868
▁imm	-3869
▁cycle	-3870
▁cancel	-3871
▁disappoint	-3872
▁Face	-3873
▁catch	-3874
▁Google	-3875
▁governor	-3876
▁conservative	-3877
mod	-3878
noon	-3879
▁ino	-3880
▁arch	-3881
▁coal	-3882
▁equip	-3883
▁udden	-3884
▁assess	-3885
▁correct	-3886
▁neighbor	-3887
▁transform	-3888
cit	-3889
▁tor	-3890
▁IN	-3891
▁Up	-3892
▁ach	-3893
▁twi	-3894
▁Press	-3895
▁broken	-3896
▁tter	-3897
▁lived	-3898
▁encing	-3899
▁remind	-3900
▁scribe	-3901
▁ard	-3902
▁Louis	-3903
▁bound	-3904
▁itude	-3905
▁related	-3906
▁Love	-3907
▁dict	-3908
▁Western	-3909
ina	-3910
▁PA	-3911
otten	-3912
▁truth	-3913
▁lative	-3914
▁reform	-3915
▁pensive	-3916
▁upon	-3917
▁glass	-3918
▁afternoon	-3919
▁amb	-3920
▁Lake	-3921
▁Brown	-3922
▁crack	-3923
▁capture	-3924
▁Mi	-3925
▁Sky	-3926
quare	-3927
▁ition	-3928
▁rator	-3929
▁Victor	-3930
▁Ku	-3931
▁Kar	-3932
▁nes	-3933
▁tend	-3934
▁broadcast	-3935
osh	-3936
iment	-3937
antage	-3938
▁Thoma	-3939
▁opponent	-3940
hod	-3941
file	-3942
▁joke	-3943
▁weak	-3944
▁multi	-3945
ilities	-3946
▁activity	-3947
af	-3948
▁Out	-3949
▁Seat	-3950
▁Step	-3951
▁wise	-3952
▁photograph	-3953
▁ction	-3954
▁marriage	-3955
25	-3956
irt	-3957
▁Ash	-3958
▁ral	-3959
▁shar	-3960
▁Middle	-3961
▁rescue	-3962
hol	-3963
▁PM	-3964
▁VI	-3965
▁adopt	-3966
▁domin	-3967
▁tance	-3968
▁itarian	-3969
abo	-3970
ino	-3971
▁Ko	-3972
▁Kim	-3973
▁Twi	-3974
▁mil	-3975
▁blow	-3976
▁athlete	-3977
aps	-3978
▁rush	-3979
▁integ	-3980
▁minim	-3981
▁Mexico	-3982
▁century	-3983
80	-3984
FL	-3985
gy	-3986
▁fif	-3987
ength	-3988
▁Miss	-3989
▁captain	-3990
No	-3991
rt	-3992
▁Max	-3993
▁rom	-3994
▁pirit	-3995
▁Kat	-3996
▁mor	-3997
▁ivity	-3998
▁render	-3999
▁trouble	-4000
▁Christian	-4001
▁Kei	-4002
block	-4003
ropri	-4004
▁Earl	-4005
▁ager	-4006
strong	-4007
▁Under	-4008
▁Sports	-4009
▁finance	-4010
▁opinion	-4011
▁5.	-4012
▁hole	-4013
▁cheap	-4014
▁mouth	-4015
▁Direct	-4016
▁mistake	-4017
ER	-4018
▁gl	-4019
veil	-4020
▁Res	-4021
▁2021,	-4022
▁disrupt	-4023
ny	-4024
cket	-4025
▁Blue	-4026
▁Hunt	-4027
▁Sara	-4028
▁Stad	-4029
▁split	-4030
▁transfer	-4031
▁Us	-4032
ocal	-4033
▁Hav	-4034
▁hurt	-4035
▁River	-4036
▁Singh	-4037
▁Swift	-4038
▁asset	-4039
▁sequence	-4040
▁Shi	-4041
▁Tre	-4042
▁appre	-4043
▁frame	-4044
▁Commit	-4045
▁consult	-4046
▁maker	-4047
▁advantage	-4048
va	-4049
set	-4050
rant	-4051
▁NBC	-4052
ledge	-4053
▁rations	-4054
uge	-4055
▁Ja	-4056
▁au	-4057
▁dro	-4058
▁tur	-4059
banon	-4060
▁Chris	-4061
▁collection	-4062
▁Gi	-4063
rass	-4064
▁Well	-4065
▁load	-4066
▁Great	-4067
▁Win	-4068
ploma	-4069
▁cell	-4070
▁chat	-4071
▁shape	-4072
▁veter	-4073
▁diploma	-4074
▁festival	-4075
▁acknowledge	-4076
▁­	-4077
▁29	-4078
▁nav	-4079
▁scr	-4080
▁Like	-4081
▁male	-4082
ribution	-4083
▁tension	-4084
▁Mal	-4085
▁eat	-4086
▁ibly	-4087
▁mort	-4088
▁advoc	-4089
▁collaps	-4090
alian	-4091
retch	-4092
▁locate	-4093
▁Institut	-4094
▁70	-4095
▁ga	-4096
chen	-4097
▁196	-4098
▁Cri	-4099
▁capa	-4100
▁breath	-4101
▁Lebanon	-4102
▁purpose	-4103
▁neighbour	-4104
▁offensive	-4105
anda	-4106
gery	-4107
rill	-4108
▁Nat	-4109
▁Who	-4110
▁liter	-4111
▁prospect	-4112
hy	-4113
▁/	-4114
▁Dub	-4115
▁Men	-4116
▁jud	-4117
▁prov	-4118
▁spring	-4119
▁Let	-4120
▁ade	-4121
▁bear	-4122
▁ette	-4123
▁task	-4124
▁Italian	-4125
po	-4126
ons	-4127
▁0.	-4128
▁vul	-4129
▁tear	-4130
▁wash	-4131
▁capacit	-4132
▁promote	-4133
▁willing	-4134
10	-4135
▁#	-4136
▁@	-4137
▁Ron	-4138
erate	-4139
▁flix	-4140
▁rail	-4141
▁approve	-4142
arm	-4143
▁Tha	-4144
▁Van	-4145
▁flat	-4146
▁inde	-4147
▁accom	-4148
▁fused	-4149
▁surgery	-4150
▁ol	-4151
▁Cur	-4152
▁Meg	-4153
▁pun	-4154
▁infect	-4155
▁invite	-4156
▁breaking	-4157
▁regional	-4158
▁Pan	-4159
▁wing	-4160
▁motor	-4161
▁vaccin	-4162
type	-4163
▁clin	-4164
▁pregn	-4165
▁apolog	-4166
▁cricket	-4167
▁appropri	-4168
▁function	-4169
-3	-4170
▁IC	-4171
rate	-4172
▁drama	-4173
▁fraud	-4174
▁compete	-4175
▁surface	-4176
▁Da	-4177
▁Bir	-4178
▁lad	-4179
▁lux	-4180
▁Mail	-4181
▁hang	-4182
▁knock	-4183
▁veteran	-4184
▁transition	-4185
zil	-4186
▁MOR	-4187
▁Sur	-4188
▁Stud	-4189
▁bert	-4190
ercise	-4191
▁scale	-4192
▁therap	-4193
▁collabo	-4194
▁suppose	-4195
▁direction	-4196
▁communication	-4197
▁ez	-4198
▁ji	-4199
million	-4200
ja	-4201
▁FA	-4202
just	-4203
▁Bos	-4204
▁Sab	-4205
▁2025	-4206
▁Colle	-4207
▁youth	-4208
▁master	-4209
▁ceremony	-4210
ola	-4211
▁Glas	-4212
▁grew	-4213
▁meal	-4214
▁ubst	-4215
dow	-4216
▁PS	-4217
page	-4218
gling	-4219
▁hero	-4220
▁stretch	-4221
▁truggling	-4222
pet	-4223
▁Cov	-4224
▁dev	-4225
▁Good	-4226
▁aggress	-4227
▁confident	-4228
17	-4229
med	-4230
▁BI	-4231
inci	-4232
▁Bal	-4233
▁Fan	-4234
▁Gov	-4235
▁hree	-4236
▁cease	-4237
▁sweet	-4238
▁observ	-4239
cl	-4240
ye	-4241
ada	-4242
atic	-4243
sing	-4244
▁Bei	-4245
▁Dun	-4246
▁Rod	-4247
▁ung	-4248
▁feed	-4249
▁bench	-4250
▁affair	-4251
▁wi	-4252
▁Fur	-4253
▁Jim	-4254
▁Lib	-4255
cohol	-4256
▁2016	-4257
▁Social	-4258
▁reserv	-4259
▁switch	-4260
▁elector	-4261
ism	-4262
▁ow	-4263
▁Lee	-4264
▁erty	-4265
▁swim	-4266
▁joint	-4267
▁handle	-4268
▁monitor	-4269
▁podcast	-4270
▁presence	-4271
▁behaviour	-4272
imin	-4273
ances	-4274
▁Bell	-4275
▁ging	-4276
▁ambit	-4277
▁commer	-4278
▁resign	-4279
▁stances	-4280
▁accident	-4281
tra	-4282
▁Ba	-4283
room	-4284
▁mic	-4285
▁rob	-4286
▁bath	-4287
▁suppl	-4288
▁reading	-4289
▁cientist	-4290
▁RE	-4291
▁tru	-4292
icient	-4293
perate	-4294
▁frust	-4295
5%	-4296
BA	-4297
▁Glo	-4298
▁lev	-4299
▁sky	-4300
▁Carl	-4301
▁Road	-4302
▁Team	-4303
▁Atlan	-4304
▁relig	-4305
▁Brazil	-4306
▁church	-4307
▁tackle	-4308
▁bird	-4309
▁negoti	-4310
▁Central	-4311
▁analyst	-4312
▁exercise	-4313
"}	-4314
▁lie	-4315
▁lief	-4316
▁notice	-4317
▁indicate	-4318
▁Bu	-4319
▁Year	-4320
▁Irish	-4321
▁length	-4322
▁entertain	-4323
▁insurance	-4324
▁€	-4325
▁va	-4326
arily	-4327
▁esca	-4328
▁mann	-4329
▁Att	-4330
▁Live	-4331
▁panel	-4332
▁channel	-4333
▁LA	-4334
▁Dra	-4335
▁Cath	-4336
▁Sand	-4337
▁Wood	-4338
▁onic	-4339
▁regulation	-4340
▁appropriate	-4341
▁ck	-4342
▁tan	-4343
▁Judge	-4344
▁Trans	-4345
▁empor	-4346
▁novel	-4347
▁worry	-4348
vention	-4349
▁constant	-4350
OP	-4351
St	-4352
iar	-4353
draw	-4354
▁Dai	-4355
▁jun	-4356
▁pil	-4357
▁Best	-4358
▁neck	-4359
▁Islam	-4360
▁theor	-4361
▁bodies	-4362
▁vulner	-4363
▁command	-4364
▁reaction	-4365
▁NFL	-4366
▁Nav	-4367
▁imagine	-4368
▁emporary	-4369
reak	-4370
▁ITV	-4371
arant	-4372
▁Real	-4373
▁luxu	-4374
▁horse	-4375
▁ami	-4376
▁Free	-4377
▁Josh	-4378
▁gang	-4379
00,000	-4380
▁suspend	-4381
15	-4382
ula	-4383
▁£3	-4384
hance	-4385
▁Vill	-4386
▁pott	-4387
▁bottle	-4388
▁legend	-4389
▁Hel	-4390
▁clip	-4391
ategor	-4392
arantee	-4393
▁bottom	-4394
▁corpor	-4395
▁Rad	-4396
▁gam	-4397
▁joy	-4398
▁pen	-4399
▁root	-4400
▁trap	-4401
▁Force	-4402
▁abilities	-4403
mb	-4404
▁Dar	-4405
▁McC	-4406
▁Toda	-4407
▁fold	-4408
▁tact	-4409
▁ural	-4410
▁wound	-4411
▁Dal	-4412
final	-4413
▁solid	-4414
▁categor	-4415
▁clusion	-4416
▁forecast	-4417
run	-4418
zona	-4419
▁Boe	-4420
▁div	-4421
▁gow	-4422
▁mut	-4423
▁Read	-4424
▁label	-4425
chan	-4426
utch	-4427
▁coin	-4428
▁empha	-4429
▁max	-4430
▁fake	-4431
▁clash	-4432
▁classic	-4433
▁io	-4434
long	-4435
▁nur	-4436
▁cogn	-4437
▁comb	-4438
▁hate	-4439
▁nish	-4440
▁prize	-4441
▁studi	-4442
▁easily	-4443
▁proceed	-4444
▁6.	-4445
inct	-4446
false	-4447
▁desti	-4448
▁waste	-4449
▁Follow	-4450
▁conclude	-4451
amm	-4452
▁Ala	-4453
▁Ter	-4454
▁ray	-4455
▁Mont	-4456
▁Tour	-4457
▁ical	-4458
▁false	-4459
▁shots	-4460
▁deploy	-4461
▁praise	-4462
▁withdraw	-4463
▁bond	-4464
▁tail	-4465
▁cious	-4466
▁draft	-4467
▁mates	-4468
▁pound	-4469
▁trick	-4470
▁violent	-4471
▁Des	-4472
▁wer	-4473
vania	-4474
sylvania	-4475
▁Arizona	-4476
▁2,	-4477
▁las	-4478
▁Cont	-4479
▁bonus	-4480
▁ե	-4481
Our	-4482
▁Ni	-4483
aint	-4484
▁reli	-4485
▁Element	-4486
▁trigger	-4487
▁Pennsylvania	-4488
ml	-4489
bon	-4490
ody	-4491
oph	-4492
call	-4493
▁Dia	-4494
▁fant	-4495
▁trop	-4496
▁2020,	-4497
▁Found	-4498
▁beauty	-4499
ob	-4500
▁Er	-4501
ront	-4502
▁sal	-4503
▁tir	-4504
▁yan	-4505
▁Work	-4506
▁adapt	-4507
▁ignor	-4508
▁Invest	-4509
▁commercial	-4510
gen	-4511
▁ures	-4512
▁innov	-4513
▁sharp	-4514
▁detect	-4515
▁routine	-4516
▁section	-4517
▁$3	-4518
hern	-4519
race	-4520
▁del	-4521
▁wake	-4522
▁Right	-4523
▁assum	-4524
▁pledge	-4525
ota	-4526
▁twe	-4527
higan	-4528
oring	-4529
▁Lord	-4530
▁nort	-4531
▁vast	-4532
▁divid	-4533
▁refer	-4534
▁renew	-4535
▁frequent	-4536
Re	-4537
▁7.	-4538
▁Jay	-4539
▁tens	-4540
▁faith	-4541
▁achiev	-4542
▁bright	-4543
▁intention	-4544
▁Ce	-4545
ysis	-4546
▁bio	-4547
▁lap	-4548
▁gram	-4549
▁alysis	-4550
▁method	-4551
▁northern	-4552
▁guarantee	-4553
5-	-4554
▁gap	-4555
▁arti	-4556
▁valu	-4557
▁Frank	-4558
fi	-4559
▁ն	-4560
▁reci	-4561
▁admit	-4562
▁Federal	-4563
▁alcohol	-4564
▁Parliament	-4565
▁Jr	-4566
▁RT	-4567
▁Brad	-4568
▁deput	-4569
▁manda	-4570
▁Michigan	-4571
▁Pad	-4572
▁hir	-4573
▁	-4574
e	-4575
t	-4576
a	-4577
o	-4578
i	-4579
n	-4580
s	-4581
r	-4582
h	-4583
l	-4584
d	-4585
c	-4586
u	-4587
m	-4588
g	-4589
f	-4590
p	-4591
y	-4592
w	-4593
b	-4594
,	-4595
.	-4596
v	-4597
k	-4598
"	-4599
'	-4600
T	-4601
I	-4602
S	-4603
-	-4604
A	-4605
C	-4606
0	-4607
M	-4608
B	-4609
2	-4610
P	-4611
x	-4612
H	-4613
1	-4614
W	-4615
D	-4616
R	-4617
N	-4618
j	-4619
L	-4620
F	-4621
G	-4622
E	-4623
O	-4624
:	-4625
z	-4626
J	-4627
U	-4628
K	-4629
q	-4630
5	-4631
3	-4632
4	-4633
9	-4634
)	-4635
(	-4636
6	-4637
V	-4638
8	-4639
7	-4640
Y	-4641
?	-4642
/	-4643
$	-4644
£	-4645
%	-4646
!	-4647
;	-4648
Z	-4649
X	-4650
Q	-4651
]	-4652
[	-4653
ա	-4654
>	-4655
&	-4656
<	-4657
*	-4658
é	-4659
ն	-4660
ր	-4661
_	-4662
ո	-4663
ե	-4664
ի	-4665
@	-4666
ւ	-4667
+	-4668
á	-4669
}	-4670
ó	-4671
=	-4672
մ	-4673
\	-4674
í	-4675
{	-4676
կ	-4677
­	-4678
#	-4679
տ	-4680
յ	-4681
€	-4682
վ	-4683
ս	-4684
լ	-4685
ց	-4686
հ	-4687
ñ	-4688
դ	-4689
թ	-4690
գ	-4691
ը	-4692
É	-4693
â	-4694
ղ	-4695
բ	-4696
պ	-4697
è	-4698
ü	-4699
ք	-4700
ú	-4701
է	-4702
Ա	-4703
•	-4704
ö	-4705
ծ	-4706
	-4707
խ	-4708
շ	-4709
ռ	-4710
զ	-4711
Ե	-4712
ջ	-4713
։	-4714
°	-4715
չ	-4716
Մ	-4717
©	-4718
à	-4719
Ր	-4720
ç	-4721
Ն	-4722
■	-4723
ä	-4724
′	-4725
՝	-4726
ձ	-4727
⁄	-4728
Հ	-4729
―	-4730
Á	-4731
ø	-4732
ā	-4733
ô	-4734
Ի	-4735
փ	-4736
₹	-4737
Ս	-4738
ã	-4739
ï	-4740
ë	-4741
	-4742
å	-4743
️	-4744
ć	-4745
օ	-4746
★	-4747
‐	-4748
	-4749
ê	-4750
Պ	-4751
Ö	-4752
ժ	-4753
Կ	-4754
Վ	-4755
	-4756
ğ	-4757
ճ	-4758
`	-4759
	-4760
♦	-4761
🥇	-4762
Ó	-4763
Բ	-4764
❤	-4765
î	-4766
č	-4767
Գ	-4768
ō	-4769
Ø	-4770
ł	-4771
ֆ	-4772
Լ	-4773
Տ	-4774
·	-4775
¿	-4776
Â	-4777
ă	-4778
ı	-4779
š	-4780
®	-4781
Å	-4782
Ո	-4783
●	-4784
¢	-4785
ò	-4786
Յ	-4787
😂	-4788
¡	-4789
đ	-4790
ș	-4791
Դ	-4792
Ը	-4793
Թ	-4794
Ֆ	-4795
😭	-4796
🤣	-4797
🥹	-4798
	-4799
×	-4800
ù	-4801
ş	-4802
Š	-4803
ŷ	-4804
Զ	-4805
Ռ	-4806
Փ	-4807
‍	-4808
⁠	-4809
−	-4810
À	-4811
Ã	-4812
Ç	-4813
ì	-4814
û	-4815
ý	-4816
ū	-4817
ŵ	-4818
ž	-4819
Շ	-4820
Ջ	-4821
Ւ	-4822
⁣	-4823
♬	-4824
🐎	-4825
🔥	-4826
¦	-4827
±	-4828
Ä	-4829
Ü	-4830
ė	-4831
ț	-4832
Ժ	-4833
Ք	-4834
Օ	-4835
▶	-4836
⚽	-4837
✔	-4838
😍	-4839
🙄	-4840
🙏	-4841
^	-4842
	-4843
	-4844
§	-4845
È	-4846
Î	-4847
ß	-4848
æ	-4849
Đ	-4850
ē	-4851
ģ	-4852
ń	-4853
ņ	-4854
ň	-4855
С	-4856
Ճ	-4857
Չ	-4858
՛	-4859
՞	-4860
ạ	-4861
ầ	-4862
ắ	-4863
ờ	-4864
‭	-4865
›	-4866
⁦	-4867
⁩	-4868
₱	-4869
℞	-4870
☆	-4871
♂	-4872
♪	-4873
❌	-4874
・	-4875
︎	-4876
𝄒	-4877
🏻	-4878
🏼	-4879
👈	-4880
👉	-4881
💕	-4882
💨	-4883
📸	-4884
😅	-4885
😮	-4886
🤦	-4887
~	-4888
	-4889
	-4890
Í	-4891
Ò	-4892
Ô	-4893
þ	-4894
ÿ	-4895
ą	-4896
Ć	-4897
Ē	-4898
ę	-4899
ī	-4900
İ	-4901
ř	-4902
ś	-4903
Ş	-4904
ţ	-4905
ż	-4906
ư	-4907
ə	-4908
ʔ	-4909
ʻ	-4910
̄	-4911
̈	-4912
μ	-4913
О	-4914
У	-4915
а	-4916
и	-4917
к	-4918
н	-4919
р	-4920
ї	-4921
Է	-4922
Խ	-4923
Ծ	-4924
Ձ	-4925
Ղ	-4926
฿	-4927
ḥ	-4928
Ṡ	-4929
ṣ	-4930
ả	-4931
ẹ	-4932
ế	-4933
ệ	-4934
ị	-4935
ọ	-4936
ố	-4937
ộ	-4938
ợ	-4939
ừ	-4940
ự	-4941
ỹ	-4942
‬	-4943
⁤	-4944
₦	-4945
↔	-4946
⊕	-4947
⏳	-4948
►	-4949
◀	-4950
☀	-4951
♀	-4952
♥	-4953
✅	-4954
✨	-4955
⭐	-4956
🇱	-4957
🇳	-4958
🇸	-4959
🇺	-4960
🌪	-4961
🌴	-4962
🌹	-4963
🍓	-4964
🍹	-4965
🎁	-4966
🎢	-4967
🎪	-4968
🏆	-4969
🏽	-4970
🏾	-4971
👀	-4972
👍	-4973
👏	-4974
💙	-4975
💥	-4976
📋	-4977
📍	-4978
📷	-4979
😆	-4980
😊	-4981
😢	-4982
😱	-4983
😳	-4984
🙌	-4985
🛒	-4986
🤎	-4987
🤔	-4988
🤫	-4989
🤯	-4990
🤵	-4991
🤷	-4992
🥅	-4993
🥥	-4994
🥪	-4995
🥺	-4996
