<unk>	0
<s>	0
</s>	0
▁t	-0
▁a	-1
▁s	-2
▁i	-3
▁e	-4
he	-5
▁o	-6
▁the	-7
▁c	-8
re	-9
▁w	-10
▁in	-11
▁l	-12
▁,	-13
▁.	-14
▁n	-15
▁f	-16
▁p	-17
▁d	-18
▁m	-19
▁b	-20
er	-21
nd	-22
ha	-23
▁to	-24
in	-25
▁r	-26
on	-27
en	-28
or	-29
▁of	-30
▁and	-31
▁re	-32
▁g	-33
ou	-34
▁u	-35
ar	-36
hi	-37
▁ing	-38
▁"	-39
st	-40
▁'	-41
it	-42
an	-43
ed	-44
al	-45
▁T	-46
▁ha	-47
▁er	-48
▁ed	-49
▁y	-50
▁st	-51
es	-52
ll	-53
▁on	-54
ing	-55
ro	-56
▁-	-57
ve	-58
▁I	-59
▁ti	-60
▁S	-61
at	-62
le	-63
as	-64
▁he	-65
▁A	-66
ho	-67
hat	-68
▁for	-69
▁be	-70
ic	-71
id	-72
▁is	-73
ent	-74
▁it	-75
ay	-76
▁at	-77
▁M	-78
▁en	-79
▁C	-80
▁that	-81
▁an	-82
▁co	-83
me	-84
▁v	-85
ce	-86
ut	-87
ot	-88
▁B	-89
▁0	-90
se	-91
ch	-92
▁2	-93
ra	-94
ld	-95
his	-96
▁The	-97
ith	-98
▁de	-99
▁as	-100
▁we	-101
ri	-102
▁al	-103
▁with	-104
et	-105
ir	-106
▁P	-107
▁H	-108
▁or	-109
▁was	-110
▁tion	-111
▁1	-112
▁th	-113
ter	-114
▁li	-115
ur	-116
▁sa	-117
▁W	-118
mp	-119
▁te	-120
ver	-121
▁le	-122
ow	-123
ke	-124
ly	-125
▁ly	-126
▁se	-127
▁D	-128
▁ne	-129
▁R	-130
gh	-131
la	-132
▁ma	-133
▁ar	-134
li	-135
▁su	-136
▁ho	-137
ct	-138
▁N	-139
▁mo	-140
▁are	-141
▁di	-142
ck	-143
▁ab	-144
▁la	-145
▁L	-146
▁F	-147
si	-148
▁G	-149
ge	-150
il	-151
▁you	-152
th	-153
▁h	-154
▁said	-155
ad	-156
▁so	-157
rom	-158
▁ex	-159
ill	-160
▁have	-161
▁his	-162
▁ri	-163
▁has	-164
▁pro	-165
▁k	-166
▁E	-167
▁lo	-168
▁from	-169
▁j	-170
▁by	-171
▁un	-172
▁:	-173
▁J	-174
▁all	-175
am	-176
▁hi	-177
▁go	-178
▁me	-179
▁sp	-180
▁O	-181
ght	-182
▁ca	-183
▁ta	-184
ue	-185
▁es	-186
ear	-187
▁si	-188
▁not	-189
ould	-190
▁po	-191
▁U	-192
▁do	-193
ti	-194
us	-195
▁out	-196
ate	-197
▁whi	-198
▁con	-199
▁mi	-200
ul	-201
▁this	-202
io	-203
▁fi	-204
▁whe	-205
▁ra	-206
▁who	-207
▁ro	-208
lo	-209
▁ent	-210
▁K	-211
ess	-212
▁year	-213
▁wor	-214
el	-215
▁ion	-216
ust	-217
▁up	-218
▁her	-219
▁ers	-220
un	-221
▁they	-222
▁ad	-223
▁will	-224
▁3	-225
▁she	-226
▁fa	-227
▁4	-228
▁af	-229
▁their	-230
art	-231
▁ag	-232
ma	-233
ci	-234
▁but	-235
co	-236
▁us	-237
▁had	-238
so	-239
▁off	-240
ss	-241
ment	-242
▁ment	-243
▁nd	-244
▁5	-245
mb	-246
ry	-247
▁q	-248
▁(	-249
▁9	-250
ru	-251
▁pre	-252
▁been	-253
fe	-254
to	-255
▁pa	-256
out	-257
▁)	-258
ion	-259
lu	-260
▁op	-261
▁one	-262
▁pp	-263
▁ot	-264
ort	-265
▁fe	-266
▁gh	-267
▁can	-268
op	-269
de	-270
▁In	-271
ant	-272
▁no	-273
ia	-274
▁were	-275
▁cha	-276
▁It	-277
▁more	-278
▁fo	-279
▁over	-280
▁tw	-281
ok	-282
▁tt	-283
▁our	-284
▁man	-285
▁about	-286
▁ve	-287
od	-288
ep	-289
▁after	-290
▁ba	-291
▁nt	-292
▁dent	-293
our	-294
▁which	-295
▁vi	-296
▁per	-297
ard	-298
mm	-299
ity	-300
▁also	-301
ide	-302
▁ev	-303
one	-304
ong	-305
▁like	-306
ays	-307
▁eop	-308
ne	-309
pp	-310
▁eople	-311
▁tra	-312
▁rep	-313
▁time	-314
▁ur	-315
▁would	-316
▁est	-317
iv	-318
rou	-319
ound	-320
▁6	-321
▁sh	-322
▁qu	-323
▁work	-324
▁ef	-325
▁get	-326
▁some	-327
▁sho	-328
lic	-329
han	-330
▁ll	-331
▁du	-332
▁ver	-333
▁et	-334
▁sta	-335
gn	-336
▁rec	-337
▁Y	-338
▁He	-339
ine	-340
▁when	-341
▁7	-342
▁8	-343
her	-344
▁V	-345
ree	-346
ew	-347
▁its	-348
▁if	-349
▁sc	-350
all	-351
▁new	-352
▁wi	-353
ec	-354
▁bu	-355
▁dis	-356
▁und	-357
▁my	-358
use	-359
▁than	-360
▁fir	-361
▁ter	-362
▁just	-363
▁ng	-364
ore	-365
▁there	-366
ag	-367
▁mp	-368
▁thing	-369
▁imp	-370
ain	-371
▁ty	-372
▁am	-373
om	-374
▁ser	-375
▁ous	-376
oth	-377
▁ever	-378
▁ation	-379
▁tri	-380
▁into	-381
own	-382
▁ear	-383
▁nal	-384
▁ele	-385
▁back	-386
▁pla	-387
ol	-388
▁ck	-389
▁pl	-390
▁what	-391
▁him	-392
▁other	-393
▁ac	-394
▁str	-395
▁first	-396
▁ted	-397
▁kn	-398
▁ni	-399
▁able	-400
ans	-401
▁tor	-402
▁two	-403
▁ic	-404
▁tr	-405
▁ort	-406
atio	-407
po	-408
ek	-409
▁gra	-410
nt	-411
▁ow	-412
▁But	-413
mo	-414
▁eco	-415
▁ial	-416
ini	-417
▁them	-418
▁how	-419
▁end	-420
ink	-421
ach	-422
▁lli	-423
▁ga	-424
▁bo	-425
▁ord	-426
▁shi	-427
▁cc	-428
▁ou	-429
▁part	-430
▁We	-431
ast	-432
um	-433
▁tre	-434
▁ss	-435
vi	-436
▁again	-437
▁inc	-438
▁na	-439
▁el	-440
▁years	-441
▁last	-442
▁Tru	-443
▁?	-444
ng	-445
ath	-446
▁gre	-447
ase	-448
di	-449
▁pe	-450
▁exp	-451
▁res	-452
int	-453
▁nn	-454
▁could	-455
▁inter	-456
▁Trump	-457
▁day	-458
▁any	-459
▁fu	-460
▁your	-461
▁son	-462
▁chi	-463
▁state	-464
im	-465
▁spe	-466
▁now	-467
▁ster	-468
▁mon	-469
▁tive	-470
▁z	-471
▁ub	-472
▁real	-473
day	-474
▁comp	-475
▁where	-476
▁under	-477
ies	-478
ft	-479
▁ay	-480
pe	-481
▁And	-482
▁did	-483
ence	-484
▁ring	-485
▁efore	-486
ite	-487
is	-488
▁round	-489
▁week	-490
▁act	-491
te	-492
▁/	-493
ak	-494
▁unt	-495
▁bi	-496
urn	-497
▁This	-498
▁ity	-499
▁want	-500
ice	-501
▁ke	-502
▁set	-503
▁add	-504
tu	-505
▁way	-506
▁being	-507
▁nc	-508
lf	-509
▁gu	-510
▁app	-511
▁while	-512
mer	-513
▁mer	-514
ga	-515
▁side	-516
▁offic	-517
▁need	-518
▁id	-519
▁ff	-520
▁De	-521
▁look	-522
▁cause	-523
▁show	-524
▁high	-525
▁ry	-526
va	-527
▁down	-528
▁New	-529
▁only	-530
▁every	-531
▁right	-532
▁lead	-533
▁see	-534
ark	-535
▁turn	-536
▁Co	-537
▁long	-538
ta	-539
ive	-540
▁ld	-541
▁aw	-542
gi	-543
▁think	-544
▁ns	-545
ty	-546
ev	-547
▁even	-548
▁olic	-549
▁going	-550
▁hel	-551
▁fam	-552
ers	-553
▁elec	-554
▁well	-555
▁llion	-556
▁ding	-557
▁make	-558
▁emb	-559
mes	-560
▁cre	-561
▁then	-562
cu	-563
▁rt	-564
▁Mr	-565
ince	-566
▁clu	-567
▁gen	-568
▁old	-569
▁ill	-570
▁nment	-571
▁war	-572
▁red	-573
▁grou	-574
▁She	-575
▁most	-576
ves	-577
▁sent	-578
▁month	-579
▁gover	-580
▁natio	-581
rd	-582
▁throu	-583
na	-584
▁told	-585
▁il	-586
▁ate	-587
▁ist	-588
row	-589
▁tal	-590
▁start	-591
▁age	-592
uch	-593
▁ob	-594
▁home	-595
▁line	-596
▁made	-597
▁three	-598
ater	-599
▁know	-600
▁pport	-601
▁x	-602
mi	-603
▁hu	-604
ord	-605
ica	-606
▁med	-607
cal	-608
▁don	-609
▁own	-610
▁lay	-611
ca	-612
▁tu	-613
▁ship	-614
▁come	-615
▁Ch	-616
▁team	-617
▁ran	-618
▁help	-619
▁They	-620
▁tin	-621
▁famil	-622
▁ness	-623
▁comm	-624
▁stu	-625
▁$	-626
▁sday	-627
▁ence	-628
▁point	-629
▁han	-630
▁tho	-631
▁very	-632
▁mak	-633
▁life	-634
ouse	-635
▁tak	-636
▁poli	-637
pt	-638
▁sm	-639
▁read	-640
▁many	-641
▁run	-642
ef	-643
▁ci	-644
ass	-645
▁cho	-646
ff	-647
▁less	-648
▁ward	-649
▁£	-650
ris	-651
▁os	-652
▁You	-653
▁let	-654
▁sk	-655
▁des	-656
▁ght	-657
▁says	-658
▁thou	-659
▁ell	-660
▁those	-661
▁ru	-662
ua	-663
▁inclu	-664
em	-665
▁rs	-666
▁sra	-667
▁take	-668
▁bro	-669
▁sing	-670
era	-671
▁da	-672
aso	-673
▁que	-674
▁ct	-675
▁cle	-676
▁ey	-677
▁law	-678
▁ance	-679
tl	-680
▁pri	-681
▁led	-682
▁wom	-683
▁tions	-684
▁srael	-685
▁play	-686
▁ress	-687
een	-688
▁fin	-689
▁Pre	-690
▁hould	-691
▁cul	-692
ob	-693
▁ond	-694
▁sion	-695
▁No	-696
▁much	-697
▁ann	-698
▁nu	-699
ack	-700
▁ies	-701
▁serv	-702
▁mil	-703
▁ign	-704
▁iss	-705
▁good	-706
▁Jo	-707
▁ice	-708
▁Ma	-709
▁dd	-710
red	-711
▁view	-712
▁ia	-713
▁still	-714
▁ive	-715
xt	-716
▁these	-717
▁oll	-718
men	-719
▁wa	-720
▁world	-721
▁So	-722
▁since	-723
▁There	-724
▁sha	-725
▁For	-726
▁found	-727
▁ement	-728
meri	-729
▁Ameri	-730
▁ssi	-731
▁ublic	-732
▁untry	-733
▁ris	-734
▁land	-735
▁presi	-736
ren	-737
▁pu	-738
ten	-739
▁ccord	-740
▁head	-741
▁ary	-742
▁vide	-743
ick	-744
▁olice	-745
▁St	-746
▁four	-747
▁rit	-748
arge	-749
▁wo	-750
▁enc	-751
ower	-752
▁ful	-753
ts	-754
▁tween	-755
▁rat	-756
llo	-757
▁happ	-758
▁such	-759
▁econd	-760
▁follo	-761
▁feel	-762
▁sed	-763
ms	-764
▁ep	-765
▁fri	-766
▁That	-767
▁oun	-768
▁nor	-769
▁hand	-770
▁camp	-771
▁erson	-772
av	-773
any	-774
atch	-775
iden	-776
ual	-777
▁night	-778
▁memb	-779
sta	-780
ina	-781
▁Ind	-782
▁ul	-783
▁say	-784
per	-785
▁open	-786
▁arti	-787
▁cl	-788
▁ei	-789
▁does	-790
▁clo	-791
ote	-792
▁Biden	-793
ba	-794
▁lot	-795
ger	-796
▁game	-797
▁sign	-798
▁Mi	-799
▁order	-800
▁ussi	-801
▁added	-802
▁test	-803
▁alth	-804
▁ble	-805
▁US	-806
▁nti	-807
outh	-808
▁ussia	-809
▁ember	-810
▁air	-811
▁rm	-812
▁ge	-813
▁ud	-814
▁left	-815
rec	-816
▁Cha	-817
▁ai	-818
▁top	-819
ount	-820
▁car	-821
▁cro	-822
▁au	-823
▁ass	-824
▁here	-825
▁ce	-826
▁fr	-827
▁full	-828
▁gn	-829
▁group	-830
▁wr	-831
▁cri	-832
▁fil	-833
▁may	-834
▁oci	-835
▁rid	-836
anc	-837
▁got	-838
▁ttack	-839
▁seaso	-840
▁India	-841
▁ting	-842
▁nom	-843
▁both	-844
▁!	-845
▁dep	-846
▁win	-847
▁port	-848
▁ated	-849
▁best	-850
▁od	-851
▁ask	-852
▁dra	-853
▁anoth	-854
▁How	-855
▁ant	-856
▁place	-857
▁mb	-858
atu	-859
▁ties	-860
▁Whi	-861
sib	-862
▁rk	-863
▁ently	-864
▁;	-865
ustr	-866
▁each	-867
▁trans	-868
▁issue	-869
▁next	-870
▁tinue	-871
▁frien	-872
▁use	-873
▁tain	-874
▁ities	-875
▁ol	-876
▁Presi	-877
▁ug	-878
▁ir	-879
hy	-880
▁dat	-881
▁too	-882
▁quest	-883
▁thi	-884
▁clear	-885
▁direc	-886
▁far	-887
▁call	-888
▁cer	-889
▁mm	-890
▁force	-891
rai	-892
lea	-893
ance	-894
▁ak	-895
▁Con	-896
ven	-897
▁tell	-898
▁ppear	-899
▁redit	-900
▁chool	-901
▁clude	-902
▁same	-903
▁oppo	-904
▁event	-905
▁near	-906
▁alled	-907
▁dri	-908
▁sur	-909
wi	-910
ited	-911
▁lit	-912
▁ning	-913
▁nce	-914
▁ldren	-915
▁temp	-916
▁lw	-917
▁offer	-918
for	-919
▁As	-920
▁never	-921
▁Z	-922
▁deci	-923
▁ready	-924
▁emp	-925
moc	-926
▁form	-927
▁exper	-928
▁Ga	-929
▁art	-930
▁pi	-931
▁case	-932
ffe	-933
▁ren	-934
▁sec	-935
▁Pa	-936
▁omm	-937
▁rent	-938
▁media	-939
qu	-940
▁light	-941
▁lic	-942
▁ong	-943
iti	-944
ali	-945
▁keep	-946
▁great	-947
▁power	-948
▁kill	-949
▁days	-950
▁Uk	-951
▁inves	-952
sh	-953
▁ctor	-954
▁Ukrai	-955
▁respo	-956
▁away	-957
▁ine	-958
▁try	-959
▁diffe	-960
▁10	-961
ani	-962
▁ard	-963
▁gener	-964
▁acc	-965
ner	-966
▁face	-967
▁ocial	-968
ild	-969
▁ju	-970
▁Re	-971
▁ess	-972
▁Mo	-973
gan	-974
▁cour	-975
▁tment	-976
▁times	-977
▁mpany	-978
▁sul	-979
▁Mar	-980
▁vo	-981
We	-982
▁court	-983
▁house	-984
▁che	-985
▁put	-986
▁numb	-987
▁campa	-988
▁UK	-989
ict	-990
▁If	-991
▁free	-992
▁final	-993
fec	-994
hen	-995
▁leg	-996
▁self	-997
▁ience	-998
▁cla	-999
▁cross	-1000
▁women	-1001
gin	-1002
▁eli	-1003
▁party	-1004
vel	-1005
ub	-1006
▁ut	-1007
▁When	-1008
▁five	-1009
▁An	-1010
▁bod	-1011
ze	-1012
ect	-1013
▁plan	-1014
▁ern	-1015
▁oc	-1016
▁stra	-1017
▁Su	-1018
▁giv	-1019
▁gge	-1020
jor	-1021
▁char	-1022
▁ki	-1023
▁rela	-1024
▁ens	-1025
▁ccess	-1026
▁post	-1027
▁tting	-1028
▁ously	-1029
▁ste	-1030
▁body	-1031
ale	-1032
▁ggest	-1033
▁build	-1034
rol	-1035
▁gr	-1036
▁didn	-1037
▁seen	-1038
▁Rep	-1039
▁love	-1040
▁won	-1041
ugh	-1042
▁used	-1043
▁care	-1044
ac	-1045
▁ny	-1046
ames	-1047
▁chang	-1048
▁spect	-1049
lop	-1050
▁late	-1051
▁ago	-1052
▁lways	-1053
ap	-1054
▁Go	-1055
▁vis	-1056
▁took	-1057
▁manag	-1058
▁sen	-1059
ee	-1060
▁cent	-1061
▁stor	-1062
▁ie	-1063
▁fire	-1064
▁mini	-1065
▁tter	-1066
▁sub	-1067
▁later	-1068
▁cap	-1069
ush	-1070
▁water	-1071
▁tical	-1072
▁enter	-1073
▁young	-1074
▁Sc	-1075
▁ok	-1076
▁tory	-1077
▁foot	-1078
▁earch	-1079
▁cket	-1080
▁opera	-1081
▁eas	-1082
▁ust	-1083
▁cur	-1084
▁fic	-1085
▁llen	-1086
▁velop	-1087
ace	-1088
▁bre	-1089
▁ean	-1090
▁rse	-1091
▁ral	-1092
▁bas	-1093
▁sive	-1094
gu	-1095
▁One	-1096
▁gram	-1097
▁Af	-1098
▁charg	-1099
▁ap	-1100
▁blo	-1101
ash	-1102
▁amp	-1103
▁Ju	-1104
▁talk	-1105
▁[	-1106
▁hard	-1107
uc	-1108
▁went	-1109
▁etter	-1110
▁bit	-1111
▁star	-1112
▁ten	-1113
▁To	-1114
▁grow	-1115
ari	-1116
▁might	-1117
▁On	-1118
▁six	-1119
▁Wi	-1120
▁came	-1121
▁av	-1122
lack	-1123
▁men	-1124
▁cost	-1125
▁major	-1126
▁]	-1127
▁ional	-1128
▁claim	-1129
▁yst	-1130
▁curr	-1131
▁ide	-1132
▁give	-1133
▁nited	-1134
ita	-1135
▁net	-1136
▁relea	-1137
▁arri	-1138
▁met	-1139
▁ts	-1140
▁inf	-1141
za	-1142
hoto	-1143
▁hit	-1144
▁uth	-1145
▁wing	-1146
▁break	-1147
▁film	-1148
▁ball	-1149
▁ost	-1150
▁ystem	-1151
▁few	-1152
ous	-1153
▁sid	-1154
▁eg	-1155
ary	-1156
▁fie	-1157
▁ntial	-1158
▁South	-1159
▁large	-1160
▁mark	-1161
▁aying	-1162
▁mov	-1163
▁deal	-1164
▁ec	-1165
▁big	-1166
▁rai	-1167
▁cli	-1168
▁dro	-1169
oney	-1170
▁annou	-1171
▁low	-1172
▁hour	-1173
▁littl	-1174
▁meet	-1175
▁Un	-1176
▁Mc	-1177
▁milit	-1178
▁lac	-1179
▁allow	-1180
▁What	-1181
▁half	-1182
▁fra	-1183
▁Democ	-1184
eg	-1185
▁X	-1186
▁hav	-1187
▁sy	-1188
▁hold	-1189
▁level	-1190
▁val	-1191
▁mment	-1192
▁tic	-1193
▁pass	-1194
▁ecome	-1195
▁ssion	-1196
▁ley	-1197
ank	-1198
▁sever	-1199
▁rket	-1200
▁local	-1201
▁ind	-1202
▁actio	-1203
hn	-1204
▁gress	-1205
ara	-1206
▁uthor	-1207
▁fight	-1208
▁along	-1209
▁ture	-1210
▁Howev	-1211
▁spo	-1212
▁forma	-1213
bu	-1214
uni	-1215
▁oy	-1216
▁vol	-1217
▁West	-1218
▁ew	-1219
▁nut	-1220
▁money	-1221
▁Ra	-1222
▁yers	-1223
ton	-1224
▁urity	-1225
ork	-1226
ictu	-1227
▁room	-1228
▁ossib	-1229
▁job	-1230
▁tiga	-1231
▁city	-1232
▁video	-1233
itu	-1234
▁sider	-1235
▁early	-1236
▁York	-1237
▁ee	-1238
▁hange	-1239
▁momen	-1240
▁adv	-1241
▁known	-1242
ph	-1243
▁im	-1244
▁posi	-1245
▁Natio	-1246
mage	-1247
▁news	-1248
▁lle	-1249
▁live	-1250
▁death	-1251
▁lin	-1252
vea	-1253
▁lu	-1254
▁main	-1255
▁stitu	-1256
▁close	-1257
▁ight	-1258
▁deli	-1259
▁Q	-1260
▁field	-1261
ular	-1262
▁stop	-1263
▁date	-1264
▁ori	-1265
▁ject	-1266
▁ries	-1267
▁John	-1268
▁impor	-1269
▁dence	-1270
▁wro	-1271
▁hy	-1272
▁cess	-1273
▁vel	-1274
▁wrote	-1275
ont	-1276
▁find	-1277
▁ound	-1278
▁ook	-1279
▁stic	-1280
▁count	-1281
▁watch	-1282
▁cover	-1283
▁sto	-1284
▁revea	-1285
▁der	-1286
▁ham	-1287
▁flo	-1288
▁pr	-1289
▁inj	-1290
ble	-1291
▁Chi	-1292
▁activ	-1293
▁until	-1294
▁um	-1295
▁fini	-1296
▁bra	-1297
▁treat	-1298
▁fac	-1299
▁name	-1300
▁arris	-1301
▁wal	-1302
▁busi	-1303
▁third	-1304
▁nta	-1305
▁visit	-1306
▁News	-1307
▁crea	-1308
▁past	-1309
▁shed	-1310
▁reg	-1311
▁lican	-1312
▁omp	-1313
▁tech	-1314
▁Mini	-1315
be	-1316
ept	-1317
▁quir	-1318
fi	-1319
▁rre	-1320
▁cu	-1321
▁volv	-1322
▁Repub	-1323
▁em	-1324
▁After	-1325
▁dec	-1326
ist	-1327
▁hed	-1328
▁lleng	-1329
▁ritic	-1330
pi	-1331
▁At	-1332
▁eal	-1333
▁short	-1334
▁dy	-1335
▁Pro	-1336
▁Nor	-1337
▁groun	-1338
▁cy	-1339
▁pay	-1340
▁front	-1341
▁goal	-1342
▁nter	-1343
▁eries	-1344
▁ally	-1345
▁rn	-1346
▁Get	-1347
gy	-1348
▁Eu	-1349
▁role	-1350
▁ric	-1351
▁injur	-1352
▁%	-1353
▁cial	-1354
▁hum	-1355
▁arent	-1356
▁small	-1357
▁spite	-1358
▁tand	-1359
▁ch	-1360
▁eat	-1361
▁stru	-1362
▁olo	-1363
▁sure	-1364
▁vers	-1365
▁orted	-1366
▁unity	-1367
▁desi	-1368
▁ref	-1369
▁food	-1370
▁ian	-1371
▁min	-1372
▁resi	-1373
▁om	-1374
tion	-1375
▁geth	-1376
▁House	-1377
▁rd	-1378
▁due	-1379
▁tant	-1380
▁tribu	-1381
cia	-1382
▁previ	-1383
▁ded	-1384
▁ming	-1385
▁br	-1386
▁book	-1387
▁gett	-1388
▁expec	-1389
▁asked	-1390
enc	-1391
tio	-1392
igh	-1393
▁lla	-1394
▁sit	-1395
▁Eng	-1396
▁liv	-1397
▁mus	-1398
▁iz	-1399
▁layed	-1400
▁rease	-1401
▁why	-1402
▁eng	-1403
▁vio	-1404
▁hope	-1405
▁Scot	-1406
ald	-1407
▁Ro	-1408
mmi	-1409
▁race	-1410
▁Engla	-1411
▁dam	-1412
▁nced	-1413
▁comes	-1414
▁bor	-1415
▁taken	-1416
▁City	-1417
▁must	-1418
▁step	-1419
▁based	-1420
▁stand	-1421
▁Gaza	-1422
▁viol	-1423
▁ara	-1424
▁rou	-1425
▁omb	-1426
▁dre	-1427
▁doing	-1428
▁20	-1429
▁abi	-1430
▁Me	-1431
▁often	-1432
▁fli	-1433
▁Euro	-1434
▁ton	-1435
BC	-1436
▁sl	-1437
▁risk	-1438
▁anc	-1439
▁onald	-1440
▁list	-1441
▁least	-1442
▁duce	-1443
▁ph	-1444
utu	-1445
▁cal	-1446
▁ctu	-1447
▁done	-1448
▁While	-1449
▁With	-1450
ade	-1451
▁Th	-1452
▁orn	-1453
▁anti	-1454
▁futu	-1455
rea	-1456
▁among	-1457
▁mpion	-1458
▁fur	-1459
▁today	-1460
▁tax	-1461
▁eleb	-1462
▁unday	-1463
ful	-1464
▁ondon	-1465
▁int	-1466
▁ner	-1467
▁tail	-1468
▁human	-1469
▁given	-1470
▁fer	-1471
▁ions	-1472
▁riday	-1473
▁club	-1474
▁sult	-1475
▁Chris	-1476
▁onday	-1477
▁struc	-1478
▁umm	-1479
by	-1480
▁walk	-1481
▁wheth	-1482
▁fla	-1483
▁tch	-1484
▁rod	-1485
▁ple	-1486
▁ntrol	-1487
▁har	-1488
▁sco	-1489
▁perc	-1490
▁ials	-1491
ea	-1492
▁moth	-1493
▁elebr	-1494
▁wards	-1495
▁pecia	-1496
▁Tue	-1497
▁Al	-1498
▁driv	-1499
▁oup	-1500
▁games	-1501
▁rema	-1502
▁graph	-1503
oy	-1504
▁Is	-1505
▁duct	-1506
▁threa	-1507
▁ehi	-1508
▁North	-1509
pa	-1510
▁fans	-1511
▁ism	-1512
▁featu	-1513
▁Oct	-1514
▁fle	-1515
▁remai	-1516
▁His	-1517
▁Jan	-1518
▁sso	-1519
▁ened	-1520
▁speak	-1521
▁evi	-1522
▁share	-1523
ndi	-1524
▁rtner	-1525
▁ack	-1526
▁rul	-1527
▁enou	-1528
▁child	-1529
▁ven	-1530
▁woman	-1531
au	-1532
▁dustr	-1533
▁furth	-1534
▁nning	-1535
▁nf	-1536
▁effec	-1537
▁China	-1538
▁ect	-1539
▁mul	-1540
▁class	-1541
▁lmo	-1542
▁regio	-1543
lv	-1544
It	-1545
▁ngle	-1546
▁rence	-1547
▁eag	-1548
▁andi	-1549
▁Ms	-1550
▁kind	-1551
▁ds	-1552
▁Nov	-1553
▁tempt	-1554
▁heart	-1555
▁mod	-1556
▁ehind	-1557
▁ices	-1558
▁ned	-1559
▁raise	-1560
▁once	-1561
▁depen	-1562
▁signi	-1563
▁Br	-1564
▁All	-1565
▁Thur	-1566
▁move	-1567
▁spi	-1568
une	-1569
▁Bo	-1570
▁ling	-1571
▁disp	-1572
▁Ca	-1573
▁gi	-1574
▁area	-1575
▁match	-1576
▁ava	-1577
▁pote	-1578
▁ouple	-1579
▁lie	-1580
▁Wor	-1581
▁phone	-1582
▁Wed	-1583
ided	-1584
▁tro	-1585
▁stay	-1586
▁ummer	-1587
▁mind	-1588
▁serve	-1589
▁roduc	-1590
▁targe	-1591
▁glo	-1592
▁nner	-1593
▁rac	-1594
▁Getty	-1595
▁Wedne	-1596
sio	-1597
▁def	-1598
tai	-1599
▁nder	-1600
▁weeks	-1601
▁dm	-1602
▁doesn	-1603
▁ier	-1604
▁shot	-1605
▁term	-1606
▁Austr	-1607
▁rance	-1608
▁ngton	-1609
▁ount	-1610
▁tect	-1611
▁ick	-1612
▁fess	-1613
▁tract	-1614
▁World	-1615
▁fel	-1616
▁scen	-1617
▁areer	-1618
▁mis	-1619
▁hours	-1620
▁effor	-1621
▁lmost	-1622
▁space	-1623
▁iv	-1624
▁Ka	-1625
▁ency	-1626
▁runn	-1627
▁ctual	-1628
▁May	-1629
▁State	-1630
▁commi	-1631
▁yet	-1632
▁ast	-1633
▁music	-1634
▁story	-1635
▁lete	-1636
end	-1637
▁Man	-1638
▁Some	-1639
▁hared	-1640
qua	-1641
▁Di	-1642
▁hot	-1643
▁fund	-1644
▁rrest	-1645
▁using	-1646
▁wait	-1647
▁bring	-1648
▁ail	-1649
▁nge	-1650
▁ourse	-1651
▁Be	-1652
▁unc	-1653
▁board	-1654
▁mid	-1655
▁>	-1656
▁com	-1657
▁saw	-1658
▁aring	-1659
▁condi	-1660
▁stead	-1661
▁key	-1662
▁lly	-1663
▁idea	-1664
▁cular	-1665
▁Sat	-1666
▁Lo	-1667
▁hos	-1668
▁quali	-1669
▁inv	-1670
▁data	-1671
▁secu	-1672
▁eign	-1673
▁deliv	-1674
dy	-1675
▁layer	-1676
▁rp	-1677
▁reach	-1678
▁ahe	-1679
▁ugg	-1680
sed	-1681
▁bri	-1682
▁dding	-1683
▁meone	-1684
▁pect	-1685
▁finan	-1686
▁ping	-1687
▁hospi	-1688
ult	-1689
▁techn	-1690
▁trike	-1691
▁alleg	-1692
▁plain	-1693
▁repre	-1694
▁rsity	-1695
▁lear	-1696
▁dmini	-1697
▁nne	-1698
irm	-1699
uss	-1700
▁Satur	-1701
▁nfirm	-1702
▁Ge	-1703
▁ener	-1704
▁mess	-1705
▁Ha	-1706
▁Ni	-1707
▁deep	-1708
▁ause	-1709
▁stage	-1710
led	-1711
▁trict	-1712
▁rri	-1713
▁coll	-1714
▁olicy	-1715
▁ident	-1716
▁earli	-1717
▁inci	-1718
▁medic	-1719
▁nutes	-1720
▁<	-1721
▁tire	-1722
▁photo	-1723
▁jour	-1724
▁serva	-1725
▁impac	-1726
▁exc	-1727
▁tat	-1728
▁held	-1729
▁vote	-1730
▁La	-1731
▁ft	-1732
▁June	-1733
▁draw	-1734
▁*	-1735
▁spoke	-1736
▁kid	-1737
▁warn	-1738
▁Black	-1739
▁fully	-1740
▁journ	-1741
▁shop	-1742
▁cut	-1743
▁swi	-1744
▁spot	-1745
▁rison	-1746
▁desc	-1747
▁fact	-1748
▁suit	-1749
▁sty	-1750
▁ught	-1751
▁impro	-1752
▁legal	-1753
▁tted	-1754
▁price	-1755
▁Cu	-1756
▁nding	-1757
eti	-1758
▁AI	-1759
▁seven	-1760
ana	-1761
▁gir	-1762
▁eye	-1763
▁ourt	-1764
▁atch	-1765
▁TV	-1766
▁fy	-1767
▁ah	-1768
▁30	-1769
▁staff	-1770
▁tru	-1771
▁emer	-1772
▁Ap	-1773
▁girl	-1774
▁word	-1775
▁died	-1776
▁ahead	-1777
▁hing	-1778
▁oter	-1779
▁quick	-1780
▁ped	-1781
▁spend	-1782
▁isa	-1783
▁grant	-1784
▁Ger	-1785
▁ski	-1786
ps	-1787
▁felt	-1788
▁Do	-1789
▁tow	-1790
▁trip	-1791
▁oters	-1792
▁Ham	-1793
▁July	-1794
▁lost	-1795
▁rtuni	-1796
▁pain	-1797
▁nes	-1798
▁Octob	-1799
▁defen	-1800
▁oo	-1801
▁lea	-1802
▁ome	-1803
▁frica	-1804
▁ise	-1805
▁eague	-1806
▁energ	-1807
▁ustom	-1808
tim	-1809
▁enj	-1810
▁Briti	-1811
▁ari	-1812
▁wide	-1813
▁12	-1814
ecu	-1815
▁ical	-1816
▁road	-1817
▁oil	-1818
▁arli	-1819
▁cultu	-1820
▁eight	-1821
▁disc	-1822
▁ensu	-1823
▁model	-1824
▁uni	-1825
▁Gu	-1826
▁equ	-1827
▁Was	-1828
▁fall	-1829
▁nic	-1830
ns	-1831
▁esta	-1832
▁uncil	-1833
▁Sept	-1834
▁emerg	-1835
▁ssoci	-1836
cti	-1837
▁March	-1838
▁sw	-1839
▁learn	-1840
ril	-1841
▁lov	-1842
▁mand	-1843
▁15	-1844
▁Germa	-1845
▁means	-1846
▁ake	-1847
▁ike	-1848
▁nv	-1849
▁entra	-1850
▁dead	-1851
▁lieve	-1852
▁ility	-1853
▁mount	-1854
▁Vi	-1855
▁oach	-1856
▁wife	-1857
▁door	-1858
▁Pal	-1859
▁enn	-1860
▁sand	-1861
▁stice	-1862
▁fath	-1863
▁Janua	-1864
▁priva	-1865
▁oint	-1866
▁mar	-1867
▁avail	-1868
▁ones	-1869
▁rning	-1870
▁tot	-1871
▁worth	-1872
ie	-1873
▁multi	-1874
▁trial	-1875
▁April	-1876
org	-1877
▁Joe	-1878
▁host	-1879
▁ump	-1880
▁ont	-1881
efi	-1882
▁enefi	-1883
ims	-1884
▁mate	-1885
▁sonal	-1886
▁eca	-1887
▁tors	-1888
▁Georg	-1889
▁Gre	-1890
▁eiv	-1891
▁fied	-1892
▁rain	-1893
▁ross	-1894
▁ource	-1895
▁ales	-1896
▁sea	-1897
▁Dr	-1898
▁fed	-1899
▁entre	-1900
▁diff	-1901
▁daugh	-1902
▁total	-1903
▁shows	-1904
▁figu	-1905
▁town	-1906
▁began	-1907
▁treet	-1908
▁abour	-1909
▁esp	-1910
▁ext	-1911
▁odi	-1912
▁bad	-1913
▁lco	-1914
▁King	-1915
▁edu	-1916
▁ease	-1917
▁Pales	-1918
▁jud	-1919
▁wasn	-1920
▁arriv	-1921
▁hip	-1922
▁ports	-1923
▁ttend	-1924
▁&	-1925
get	-1926
▁Europ	-1927
▁Fe	-1928
▁nse	-1929
▁arter	-1930
▁ecame	-1931
▁ls	-1932
▁push	-1933
▁nnect	-1934
▁These	-1935
▁mina	-1936
▁wood	-1937
▁non	-1938
▁rim	-1939
▁bed	-1940
▁Unive	-1941
▁dr	-1942
▁pur	-1943
▁ache	-1944
▁dents	-1945
▁eni	-1946
▁cor	-1947
▁safe	-1948
▁lives	-1949
▁natu	-1950
▁organ	-1951
ure	-1952
▁tori	-1953
▁chief	-1954
▁..	-1955
▁messa	-1956
▁vest	-1957
▁yment	-1958
▁audi	-1959
▁cru	-1960
▁nian	-1961
▁...	-1962
▁ye	-1963
lat	-1964
▁super	-1965
▁nec	-1966
▁explo	-1967
▁Dep	-1968
▁bar	-1969
▁ret	-1970
▁pand	-1971
▁footb	-1972
▁ially	-1973
▁begin	-1974
▁jo	-1975
▁Off	-1976
▁eliev	-1977
▁makes	-1978
▁Hu	-1979
▁execu	-1980
▁mic	-1981
▁leav	-1982
▁track	-1983
▁aut	-1984
▁elf	-1985
▁owner	-1986
▁ratic	-1987
▁lk	-1988
▁hou	-1989
▁eived	-1990
▁lim	-1991
▁Sha	-1992
▁ali	-1993
▁kno	-1994
▁ample	-1995
▁ision	-1996
▁vari	-1997
▁park	-1998
▁Scotl	-1999
▁milar	-2000
▁Dec	-2001
▁Now	-2002
▁cade	-2003
▁mean	-2004
▁dru	-2005
▁lica	-2006
▁south	-2007
▁mpeti	-2008
▁ressu	-2009
▁scene	-2010
▁addre	-2011
▁roach	-2012
▁Ever	-2013
▁cult	-2014
▁plans	-2015
▁globa	-2016
▁needs	-2017
▁qui	-2018
▁heat	-2019
▁Washi	-2020
▁cas	-2021
▁writ	-2022
▁ised	-2023
▁scuss	-2024
▁situa	-2025
▁ash	-2026
▁rate	-2027
▁rise	-2028
▁ffer	-2029
▁diffi	-2030
▁nomic	-2031
▁Da	-2032
▁ors	-2033
▁ition	-2034
▁ccuse	-2035
▁ons	-2036
ert	-2037
▁Si	-2038
▁neg	-2039
▁Image	-2040
▁verag	-2041
▁versa	-2042
ety	-2043
▁ncer	-2044
▁apita	-2045
lymp	-2046
▁Olymp	-2047
▁gun	-2048
▁edly	-2049
▁espec	-2050
ai	-2051
▁ffic	-2052
▁Gen	-2053
▁nch	-2054
▁afety	-2055
▁link	-2056
▁tent	-2057
▁atter	-2058
▁cast	-2059
▁press	-2060
▁ily	-2061
▁lock	-2062
▁feder	-2063
▁tely	-2064
▁seri	-2065
▁check	-2066
act	-2067
▁50	-2068
▁soon	-2069
▁ingly	-2070
▁iti	-2071
▁erio	-2072
▁ounty	-2073
▁lid	-2074
▁rest	-2075
▁agenc	-2076
▁store	-2077
▁White	-2078
▁era	-2079
▁tten	-2080
▁Her	-2081
▁cra	-2082
▁Hamas	-2083
▁brand	-2084
▁leave	-2085
▁mains	-2086
▁cing	-2087
▁enjoy	-2088
▁van	-2089
▁racti	-2090
▁disa	-2091
▁rupt	-2092
▁eriod	-2093
▁else	-2094
▁sle	-2095
let	-2096
▁Du	-2097
▁pictu	-2098
▁tates	-2099
▁box	-2100
▁huge	-2101
▁rc	-2102
▁ctim	-2103
▁Net	-2104
▁kne	-2105
▁ars	-2106
▁fore	-2107
▁Ho	-2108
alif	-2109
▁Tim	-2110
▁inten	-2111
▁pular	-2112
▁ssing	-2113
▁white	-2114
▁sell	-2115
▁Calif	-2116
▁anies	-2117
▁neede	-2118
▁Insta	-2119
▁fast	-2120
▁eb	-2121
▁dit	-2122
▁rib	-2123
▁Star	-2124
▁creat	-2125
▁optio	-2126
▁nent	-2127
▁agree	-2128
▁dev	-2129
▁lain	-2130
▁fine	-2131
▁nyone	-2132
▁ugust	-2133
▁diate	-2134
▁speci	-2135
▁ez	-2136
▁eith	-2137
▁imme	-2138
▁maker	-2139
▁Ba	-2140
▁nam	-2141
▁heav	-2142
▁iled	-2143
▁Inter	-2144
vie	-2145
▁rti	-2146
▁site	-2147
▁ood	-2148
▁My	-2149
▁oth	-2150
▁cter	-2151
▁ating	-2152
ney	-2153
▁civ	-2154
▁Offic	-2155
▁lth	-2156
▁crime	-2157
form	-2158
▁buy	-2159
▁ert	-2160
▁rrow	-2161
▁quite	-2162
▁minal	-2163
▁rr	-2164
▁cou	-2165
▁Ti	-2166
▁dates	-2167
▁fre	-2168
▁sli	-2169
▁gain	-2170
▁pack	-2171
▁cot	-2172
▁11	-2173
▁ere	-2174
▁nomy	-2175
▁whole	-2176
▁meas	-2177
▁reaso	-2178
gni	-2179
▁ways	-2180
▁chara	-2181
▁north	-2182
▁repar	-2183
▁ead	-2184
▁East	-2185
▁ban	-2186
▁nsib	-2187
▁oast	-2188
▁shoot	-2189
▁block	-2190
▁ani	-2191
▁ory	-2192
▁drug	-2193
▁ath	-2194
▁damag	-2195
▁tress	-2196
▁lue	-2197
▁rank	-2198
▁ncern	-2199
▁nsi	-2200
▁gold	-2201
▁Pictu	-2202
▁ommon	-2203
▁mat	-2204
▁tform	-2205
▁cce	-2206
▁mur	-2207
▁firm	-2208
▁rath	-2209
▁Te	-2210
▁Air	-2211
▁fen	-2212
▁arm	-2213
▁encou	-2214
▁lthou	-2215
▁oss	-2216
▁gani	-2217
▁ccept	-2218
▁ony	-2219
▁ray	-2220
▁oin	-2221
▁type	-2222
▁ganiz	-2223
▁ornia	-2224
▁affec	-2225
▁Swi	-2226
▁Feb	-2227
▁ov	-2228
▁cipa	-2229
▁ould	-2230
▁oppos	-2231
▁stant	-2232
▁value	-2233
▁loss	-2234
▁ado	-2235
▁uro	-2236
▁measu	-2237
▁eer	-2238
▁seek	-2239
▁ubli	-2240
▁howed	-2241
▁laims	-2242
▁ull	-2243
▁rown	-2244
▁ety	-2245
▁civil	-2246
▁BBC	-2247
▁den	-2248
▁hood	-2249
▁sba	-2250
▁ger	-2251
▁idual	-2252
▁bat	-2253
▁Depar	-2254
▁anal	-2255
▁fence	-2256
▁tinia	-2257
▁usual	-2258
▁ig	-2259
ang	-2260
▁harm	-2261
▁dou	-2262
▁abili	-2263
ka	-2264
▁len	-2265
▁rself	-2266
▁Day	-2267
▁Sta	-2268
▁ire	-2269
▁range	-2270
▁env	-2271
▁ative	-2272
▁gri	-2273
▁ins	-2274
▁Har	-2275
▁suc	-2276
▁lliam	-2277
▁sband	-2278
▁isn	-2279
▁ics	-2280
▁bank	-2281
ati	-2282
▁tes	-2283
▁beau	-2284
▁remo	-2285
▁confi	-2286
▁enior	-2287
▁hance	-2288
▁male	-2289
▁lar	-2290
▁ssa	-2291
▁tit	-2292
▁indiv	-2293
▁wrong	-2294
▁score	-2295
▁ib	-2296
▁erc	-2297
▁sav	-2298
▁Isla	-2299
▁blem	-2300
▁fear	-2301
▁Fo	-2302
▁mal	-2303
▁pply	-2304
▁bus	-2305
▁tary	-2306
▁lower	-2307
▁amb	-2308
ori	-2309
▁dom	-2310
▁equi	-2311
▁Par	-2312
▁terri	-2313
▁Fa	-2314
▁scor	-2315
▁ctory	-2316
▁Gover	-2317
▁ery	-2318
▁ford	-2319
▁gular	-2320
▁teg	-2321
▁Part	-2322
▁fill	-2323
▁gave	-2324
▁ancer	-2325
▁pit	-2326
▁murd	-2327
▁dic	-2328
▁bate	-2329
▁pick	-2330
▁poll	-2331
▁pie	-2332
▁Not	-2333
▁ita	-2334
▁path	-2335
▁refu	-2336
▁Paris	-2337
▁tient	-2338
▁venue	-2339
hil	-2340
avid	-2341
▁beat	-2342
▁lett	-2343
▁prev	-2344
▁David	-2345
▁sults	-2346
▁Po	-2347
▁fair	-2348
▁happy	-2349
▁dc	-2350
▁nda	-2351
▁ppe	-2352
▁admi	-2353
▁ollec	-2354
▁25	-2355
▁Cup	-2356
▁ompar	-2357
▁exist	-2358
▁sis	-2359
▁More	-2360
▁ribed	-2361
▁Ex	-2362
▁Sec	-2363
▁areas	-2364
▁sense	-2365
▁engag	-2366
▁ening	-2367
▁sla	-2368
▁Park	-2369
▁sist	-2370
▁title	-2371
▁mum	-2372
▁ndu	-2373
▁roll	-2374
che	-2375
▁18	-2376
▁bab	-2377
▁tance	-2378
▁dv	-2379
▁llow	-2380
▁sold	-2381
▁creen	-2382
▁laced	-2383
▁yer	-2384
▁heard	-2385
▁infla	-2386
▁remov	-2387
▁Sea	-2388
▁Even	-2389
▁image	-2390
▁whose	-2391
▁ester	-2392
▁War	-2393
▁ney	-2394
▁origi	-2395
hic	-2396
▁regi	-2397
▁doub	-2398
▁black	-2399
ran	-2400
▁tn	-2401
▁vehic	-2402
▁Phil	-2403
▁ogni	-2404
▁rv	-2405
▁ore	-2406
▁legi	-2407
▁extra	-2408
▁spent	-2409
▁Commi	-2410
▁actor	-2411
▁earn	-2412
▁nduct	-2413
▁rench	-2414
▁13	-2415
▁pee	-2416
▁liday	-2417
▁paper	-2418
▁udget	-2419
▁bb	-2420
▁zz	-2421
▁dcast	-2422
▁fense	-2423
▁pen	-2424
▁sex	-2425
▁uck	-2426
▁paid	-2427
▁via	-2428
▁logi	-2429
▁prov	-2430
▁bably	-2431
▁nomin	-2432
▁Sm	-2433
▁les	-2434
▁Last	-2435
▁dium	-2436
▁thank	-2437
▁flic	-2438
▁ridge	-2439
▁owl	-2440
▁flict	-2441
▁pool	-2442
▁Na	-2443
▁bir	-2444
▁fect	-2445
▁ane	-2446
▁grand	-2447
▁cons	-2448
▁kids	-2449
▁judge	-2450
▁nally	-2451
▁uring	-2452
▁ock	-2453
▁clean	-2454
▁Dis	-2455
▁thr	-2456
▁ula	-2457
▁cases	-2458
▁peech	-2459
▁base	-2460
▁bill	-2461
▁educa	-2462
▁llege	-2463
▁offen	-2464
▁hys	-2465
▁arlia	-2466
▁wn	-2467
▁awa	-2468
▁div	-2469
▁join	-2470
▁tm	-2471
▁unch	-2472
cus	-2473
▁aid	-2474
▁dio	-2475
▁Photo	-2476
▁ppeal	-2477
▁Our	-2478
▁ata	-2479
▁costs	-2480
▁ology	-2481
▁40	-2482
sis	-2483
▁gar	-2484
▁avo	-2485
▁deb	-2486
▁eed	-2487
▁appro	-2488
▁chiev	-2489
▁exual	-2490
inc	-2491
▁Fi	-2492
▁Fir	-2493
▁boy	-2494
▁Every	-2495
▁az	-2496
▁lays	-2497
▁ably	-2498
▁gula	-2499
▁squa	-2500
▁hen	-2501
▁rot	-2502
▁hoice	-2503
▁tried	-2504
▁easy	-2505
▁okes	-2506
▁para	-2507
▁First	-2508
▁erous	-2509
▁tness	-2510
▁plo	-2511
▁cerns	-2512
▁tatio	-2513
▁telli	-2514
▁gone	-2515
▁ttee	-2516
▁Febru	-2517
▁anger	-2518
▁prise	-2519
▁prom	-2520
▁arg	-2521
▁alia	-2522
▁east	-2523
▁14	-2524
▁colla	-2525
▁insta	-2526
▁16	-2527
▁James	-2528
▁influ	-2529
▁sti	-2530
▁refer	-2531
▁ark	-2532
▁occ	-2533
▁demo	-2534
▁fit	-2535
▁envir	-2536
▁onsum	-2537
▁rices	-2538
▁rats	-2539
▁ax	-2540
▁onmen	-2541
▁trust	-2542
unc	-2543
▁ual	-2544
▁loc	-2545
▁assi	-2546
▁gree	-2547
▁immi	-2548
▁nnel	-2549
▁sands	-2550
▁urope	-2551
▁ili	-2552
▁Ital	-2553
▁study	-2554
▁git	-2555
▁birth	-2556
▁locat	-2557
▁nst	-2558
▁onfe	-2559
▁focus	-2560
▁ining	-2561
▁nine	-2562
▁tmas	-2563
▁Ki	-2564
▁ona	-2565
▁tric	-2566
▁clima	-2567
▁_	-2568
▁ought	-2569
wer	-2570
▁chair	-2571
▁ental	-2572
▁rag	-2573
▁addi	-2574
▁uggl	-2575
▁avoid	-2576
▁shock	-2577
▁gla	-2578
▁nct	-2579
▁analy	-2580
▁nswer	-2581
▁rant	-2582
▁howev	-2583
▁crow	-2584
▁knew	-2585
▁lling	-2586
▁Ama	-2587
▁ther	-2588
▁table	-2589
▁mse	-2590
▁mine	-2591
▁neigh	-2592
▁Qu	-2593
▁Jack	-2594
▁esca	-2595
▁tche	-2596
▁takes	-2597
▁wants	-2598
▁mf	-2599
▁lan	-2600
▁lack	-2601
▁Iran	-2602
▁epi	-2603
▁page	-2604
▁termi	-2605
▁dia	-2606
▁movie	-2607
▁cir	-2608
▁gent	-2609
▁hear	-2610
▁volu	-2611
▁shire	-2612
▁stori	-2613
▁Bi	-2614
▁hysic	-2615
▁mselv	-2616
▁mfort	-2617
▁ami	-2618
▁umb	-2619
▁pair	-2620
▁rney	-2621
▁fford	-2622
▁Pri	-2623
▁ritai	-2624
est	-2625
▁bs	-2626
▁sort	-2627
▁Prime	-2628
▁loved	-2629
▁crowd	-2630
▁peace	-2631
▁qua	-2632
▁rite	-2633
▁excit	-2634
▁rimar	-2635
▁touch	-2636
▁ride	-2637
▁torm	-2638
▁lent	-2639
▁size	-2640
▁Anoth	-2641
▁stock	-2642
▁creas	-2643
▁olly	-2644
▁Party	-2645
▁launc	-2646
▁risis	-2647
▁sport	-2648
▁ditio	-2649
▁Spe	-2650
▁Or	-2651
▁rush	-2652
▁yn	-2653
▁abo	-2654
▁cided	-2655
▁fav	-2656
▁chael	-2657
ilt	-2658
▁esse	-2659
▁ferr	-2660
▁pt	-2661
▁dog	-2662
ars	-2663
▁ndard	-2664
▁Bu	-2665
▁drink	-2666
▁cans	-2667
▁tour	-2668
▁solu	-2669
▁ina	-2670
▁Paul	-2671
▁moved	-2672
▁erry	-2673
▁osted	-2674
▁kick	-2675
▁lish	-2676
▁pull	-2677
▁Wal	-2678
▁nel	-2679
▁ater	-2680
▁lash	-2681
▁teen	-2682
▁itial	-2683
▁ese	-2684
▁easi	-2685
▁ain	-2686
▁wea	-2687
▁ndred	-2688
▁pread	-2689
▁battl	-2690
▁estab	-2691
▁named	-2692
▁bur	-2693
▁send	-2694
▁Smith	-2695
▁istan	-2696
▁geria	-2697
▁plant	-2698
▁settl	-2699
▁stain	-2700
▁terms	-2701
▁true	-2702
▁sse	-2703
▁prior	-2704
▁homes	-2705
▁guard	-2706
▁tream	-2707
▁gned	-2708
▁menta	-2709
▁eth	-2710
▁ator	-2711
▁aware	-2712
▁ssess	-2713
▁ala	-2714
▁annot	-2715
▁emplo	-2716
▁weapo	-2717
▁eil	-2718
▁hair	-2719
▁occu	-2720
▁tics	-2721
▁ttle	-2722
▁throw	-2723
▁Del	-2724
▁hop	-2725
▁slow	-2726
cl	-2727
▁ura	-2728
▁Ser	-2729
▁AP	-2730
▁Mu	-2731
▁sci	-2732
▁ized	-2733
▁aint	-2734
▁carry	-2735
▁green	-2736
▁voice	-2737
▁gro	-2738
▁Char	-2739
▁relat	-2740
▁ades	-2741
▁ontr	-2742
▁Green	-2743
▁depar	-2744
▁teach	-2745
▁treme	-2746
▁ish	-2747
▁ans	-2748
▁mmuni	-2749
He	-2750
If	-2751
▁bag	-2752
▁pper	-2753
▁spir	-2754
▁Times	-2755
▁terna	-2756
▁skin	-2757
▁ntact	-2758
▁ntent	-2759
▁focu	-2760
▁lines	-2761
▁looks	-2762
▁posed	-2763
▁hedul	-2764
▁sions	-2765
▁stanc	-2766
▁rian	-2767
▁perty	-2768
▁yd	-2769
▁ature	-2770
ledg	-2771
▁promi	-2772
▁wledg	-2773
▁alm	-2774
▁rew	-2775
▁nese	-2776
▁award	-2777
▁teria	-2778
▁igned	-2779
▁miss	-2780
▁gital	-2781
▁rules	-2782
▁nk	-2783
▁ool	-2784
▁aily	-2785
▁epara	-2786
▁teams	-2787
▁San	-2788
▁poor	-2789
▁sleep	-2790
▁ttent	-2791
hav	-2792
▁clar	-2793
▁estim	-2794
▁Li	-2795
▁ston	-2796
▁senta	-2797
▁Cla	-2798
▁oke	-2799
▁drive	-2800
ula	-2801
▁goes	-2802
▁Manch	-2803
▁intro	-2804
▁erg	-2805
▁ians	-2806
▁gg	-2807
▁redi	-2808
▁seat	-2809
▁rg	-2810
▁oon	-2811
▁zen	-2812
▁arra	-2813
▁dvanc	-2814
▁rates	-2815
▁Fl	-2816
▁ior	-2817
▁yal	-2818
▁hose	-2819
▁stat	-2820
▁amera	-2821
▁signa	-2822
▁views	-2823
▁Then	-2824
▁leag	-2825
▁ector	-2826
▁wall	-2827
▁ouldn	-2828
▁aj	-2829
▁mit	-2830
▁inly	-2831
▁intai	-2832
▁Prem	-2833
▁born	-2834
▁By	-2835
▁NA	-2836
▁ama	-2837
▁ana	-2838
▁broth	-2839
▁eeing	-2840
▁wed	-2841
▁ason	-2842
▁ducts	-2843
▁17	-2844
▁Of	-2845
▁Ale	-2846
▁Tex	-2847
▁ega	-2848
ret	-2849
▁fan	-2850
▁ile	-2851
▁Serv	-2852
▁nned	-2853
▁rotec	-2854
▁vided	-2855
▁raz	-2856
▁pitch	-2857
▁lip	-2858
▁dden	-2859
▁llar	-2860
▁Charl	-2861
▁built	-2862
▁nings	-2863
▁Ar	-2864
▁Ire	-2865
▁ole	-2866
▁styl	-2867
▁Chief	-2868
▁ecret	-2869
▁ounda	-2870
▁ip	-2871
▁ada	-2872
▁tab	-2873
▁Irela	-2874
▁issed	-2875
▁Tra	-2876
▁row	-2877
▁exten	-2878
▁hands	-2879
▁bel	-2880
▁scar	-2881
▁drama	-2882
▁ealth	-2883
▁nging	-2884
com	-2885
▁rad	-2886
▁cotti	-2887
▁leagu	-2888
▁Mean	-2889
▁ream	-2890
▁ctors	-2891
▁High	-2892
▁cale	-2893
▁drop	-2894
▁gard	-2895
▁text	-2896
▁broad	-2897
▁ssful	-2898
▁Red	-2899
▁Los	-2900
▁fal	-2901
▁ffa	-2902
▁spr	-2903
▁From	-2904
▁runs	-2905
▁ended	-2906
apan	-2907
▁Japan	-2908
▁lab	-2909
▁Kore	-2910
▁fresh	-2911
▁24	-2912
▁bso	-2913
▁ifi	-2914
▁Cana	-2915
▁succe	-2916
▁embl	-2917
▁haps	-2918
▁Korea	-2919
▁bsolu	-2920
▁yard	-2921
▁ments	-2922
que	-2923
▁gui	-2924
▁defe	-2925
▁riv	-2926
▁ords	-2927
▁norma	-2928
▁roper	-2929
▁edi	-2930
▁mart	-2931
▁hotel	-2932
▁nvict	-2933
▁ace	-2934
▁cky	-2935
▁docu	-2936
▁stake	-2937
▁Put	-2938
▁ade	-2939
▁Ab	-2940
▁ero	-2941
▁Alex	-2942
▁amid	-2943
▁Tho	-2944
▁loy	-2945
▁sia	-2946
▁Over	-2947
▁tests	-2948
▁nger	-2949
▁alone	-2950
▁behav	-2951
▁fru	-2952
▁craft	-2953
▁retty	-2954
▁ength	-2955
▁limit	-2956
▁ghout	-2957
att	-2958
▁above	-2959
▁trade	-2960
▁tz	-2961
▁Many	-2962
▁rviv	-2963
▁okesp	-2964
▁shift	-2965
▁opt	-2966
▁blood	-2967
▁lcome	-2968
▁ommit	-2969
▁ich	-2970
▁auto	-2971
▁lose	-2972
▁seem	-2973
▁gets	-2974
▁spec	-2975
▁llage	-2976
▁arb	-2977
wo	-2978
▁card	-2979
▁ached	-2980
▁blems	-2981
▁ler	-2982
▁defea	-2983
▁bsite	-2984
▁opula	-2985
▁words	-2986
▁lf	-2987
▁wear	-2988
▁loyee	-2989
ich	-2990
▁mu	-2991
▁emi	-2992
▁gue	-2993
▁scr	-2994
▁Just	-2995
▁Texas	-2996
▁dream	-2997
▁imply	-2998
▁ys	-2999
▁Gra	-3000
▁aus	-3001
▁reli	-3002
▁train	-3003
▁Ko	-3004
▁ounts	-3005
▁Andr	-3006
▁rden	-3007
▁sens	-3008
▁fue	-3009
▁bort	-3010
▁illeg	-3011
▁Fox	-3012
▁rist	-3013
▁nnual	-3014
▁sight	-3015
RE	-3016
▁weath	-3017
▁nest	-3018
▁obert	-3019
▁thlet	-3020
vis	-3021
▁rich	-3022
▁ising	-3023
▁tough	-3024
▁Two	-3025
▁gan	-3026
▁phi	-3027
▁sal	-3028
▁ora	-3029
▁fell	-3030
▁west	-3031
▁centu	-3032
▁versi	-3033
▁Col	-3034
▁plea	-3035
▁noted	-3036
▁tails	-3037
▁dult	-3038
▁ific	-3039
▁democ	-3040
▁ified	-3041
▁rtist	-3042
▁reat	-3043
▁parts	-3044
▁seems	-3045
▁mbl	-3046
▁ope	-3047
▁dest	-3048
▁stry	-3049
▁tele	-3050
▁aight	-3051
▁oined	-3052
▁save	-3053
▁Flori	-3054
▁sca	-3055
▁prime	-3056
▁@	-3057
▁cked	-3058
▁sequ	-3059
▁Speak	-3060
▁EU	-3061
▁eyo	-3062
▁mmy	-3063
▁ots	-3064
▁rof	-3065
▁rsen	-3066
▁goals	-3067
▁sound	-3068
▁urant	-3069
▁ang	-3070
▁ddle	-3071
▁tone	-3072
▁eyond	-3073
▁spond	-3074
▁tives	-3075
▁MP	-3076
▁nion	-3077
▁Putin	-3078
▁preme	-3079
▁ose	-3080
▁uts	-3081
▁fuel	-3082
▁pple	-3083
▁tera	-3084
▁Gener	-3085
▁arrie	-3086
▁inger	-3087
▁nap	-3088
▁erti	-3089
▁ique	-3090
▁lus	-3091
▁Mark	-3092
▁ave	-3093
▁ola	-3094
▁urg	-3095
▁oost	-3096
▁wild	-3097
▁losed	-3098
▁kept	-3099
▁mala	-3100
▁Since	-3101
▁sault	-3102
▁ecu	-3103
▁tiful	-3104
▁rve	-3105
▁enger	-3106
▁Ed	-3107
▁calls	-3108
▁fl	-3109
▁famou	-3110
▁gic	-3111
▁baby	-3112
▁ngele	-3113
▁uk	-3114
itiz	-3115
▁Sch	-3116
▁Here	-3117
▁citiz	-3118
mor	-3119
▁Sa	-3120
▁ove	-3121
▁perts	-3122
▁rare	-3123
▁tly	-3124
▁sses	-3125
▁Harry	-3126
▁ht	-3127
▁eem	-3128
▁aylo	-3129
▁cept	-3130
▁cious	-3131
▁dropp	-3132
▁propo	-3133
▁syl	-3134
▁anon	-3135
▁cash	-3136
▁semi	-3137
▁exact	-3138
▁expen	-3139
▁provi	-3140
ah	-3141
▁exic	-3142
▁nica	-3143
▁obvi	-3144
▁alanc	-3145
▁users	-3146
Tok	-3147
▁ank	-3148
▁kTok	-3149
▁oot	-3150
▁bili	-3151
▁floo	-3152
▁rock	-3153
▁lift	-3154
▁sett	-3155
▁unit	-3156
▁aning	-3157
▁UN	-3158
▁fun	-3159
▁ird	-3160
▁rvey	-3161
▁Sen	-3162
▁argu	-3163
▁essio	-3164
▁log	-3165
▁tto	-3166
▁rash	-3167
▁pm	-3168
▁jobs	-3169
▁uper	-3170
▁false	-3171
▁argue	-3172
▁memor	-3173
▁rom	-3174
▁warm	-3175
▁greed	-3176
▁dress	-3177
▁ema	-3178
▁aused	-3179
▁piece	-3180
▁conc	-3181
▁ried	-3182
▁ode	-3183
▁eive	-3184
▁rgin	-3185
▁shion	-3186
▁ssive	-3187
uri	-3188
▁dad	-3189
▁lace	-3190
▁oyal	-3191
▁commu	-3192
▁pande	-3193
▁resta	-3194
▁gas	-3195
▁Guard	-3196
▁artin	-3197
▁ets	-3198
▁ayo	-3199
▁band	-3200
▁arc	-3201
▁rch	-3202
▁sod	-3203
▁nou	-3204
▁Dani	-3205
▁omen	-3206
▁Sun	-3207
▁rince	-3208
no	-3209
▁ik	-3210
▁100	-3211
▁Sam	-3212
▁mise	-3213
▁urch	-3214
▁21	-3215
▁imm	-3216
▁ntest	-3217
▁union	-3218
▁ngu	-3219
▁sky	-3220
▁rity	-3221
▁flect	-3222
▁ife	-3223
▁olor	-3224
▁disco	-3225
▁laugh	-3226
▁mited	-3227
▁nsist	-3228
▁xi	-3229
▁dal	-3230
▁ppo	-3231
▁wri	-3232
▁stiv	-3233
▁gence	-3234
▁aren	-3235
▁amin	-3236
▁ower	-3237
▁enate	-3238
ces	-3239
▁een	-3240
▁sets	-3241
▁assed	-3242
▁pace	-3243
▁mony	-3244
▁trou	-3245
▁duc	-3246
▁ngli	-3247
▁tend	-3248
▁tick	-3249
▁predi	-3250
▁ees	-3251
▁fly	-3252
▁missi	-3253
▁isla	-3254
▁outh	-3255
▁zon	-3256
▁nia	-3257
▁ree	-3258
▁uct	-3259
▁ills	-3260
▁ually	-3261
▁mor	-3262
▁rry	-3263
▁ordin	-3264
▁ists	-3265
▁pose	-3266
▁rack	-3267
▁meant	-3268
▁plann	-3269
▁Don	-3270
▁McC	-3271
▁eri	-3272
▁idd	-3273
▁fying	-3274
gr	-3275
ott	-3276
▁agg	-3277
▁pop	-3278
▁atri	-3279
▁eats	-3280
▁urge	-3281
▁ister	-3282
▁ommen	-3283
▁sun	-3284
▁equa	-3285
▁etic	-3286
▁urna	-3287
▁ombin	-3288
▁oti	-3289
▁rap	-3290
▁isco	-3291
▁ndow	-3292
▁song	-3293
▁faced	-3294
▁Wa	-3295
▁bt	-3296
▁aim	-3297
▁typ	-3298
▁ze	-3299
▁oes	-3300
▁oft	-3301
▁pec	-3302
▁sale	-3303
▁esses	-3304
▁CE	-3305
▁cies	-3306
▁facil	-3307
▁handl	-3308
▁lam	-3309
▁oat	-3310
▁--	-3311
▁Liv	-3312
▁pse	-3313
▁atto	-3314
▁touri	-3315
ni	-3316
▁22	-3317
▁Bro	-3318
▁rmy	-3319
▁nstra	-3320
▁tches	-3321
▁wer	-3322
▁rely	-3323
▁19	-3324
▁advis	-3325
▁alist	-3326
▁rofit	-3327
ya	-3328
▁ure	-3329
▁llah	-3330
▁rried	-3331
▁lied	-3332
▁prem	-3333
▁iance	-3334
▁ya	-3335
▁arol	-3336
▁rcha	-3337
▁eptio	-3338
▁llega	-3339
▁Bank	-3340
▁dark	-3341
▁fica	-3342
▁eta	-3343
▁ively	-3344
▁Sh	-3345
▁dang	-3346
▁valu	-3347
▁bj	-3348
▁dor	-3349
▁ift	-3350
▁lec	-3351
▁tars	-3352
▁Mich	-3353
▁asio	-3354
▁abuse	-3355
▁ium	-3356
▁busin	-3357
▁utter	-3358
▁nds	-3359
▁yan	-3360
▁bora	-3361
▁mach	-3362
▁vita	-3363
▁aught	-3364
▁ction	-3365
▁Stu	-3366
▁guil	-3367
▁onto	-3368
▁shing	-3369
▁ghan	-3370
▁io	-3371
▁ps	-3372
▁yo	-3373
▁torie	-3374
▁nna	-3375
▁dern	-3376
▁pped	-3377
▁dg	-3378
▁nty	-3379
▁ander	-3380
JP	-3381
▁hall	-3382
▁rner	-3383
▁artic	-3384
▁bject	-3385
▁enne	-3386
▁hole	-3387
▁stric	-3388
▁ale	-3389
▁die	-3390
▁riz	-3391
▁ico	-3392
▁jec	-3393
▁ncy	-3394
▁urb	-3395
▁enal	-3396
▁otion	-3397
▁bum	-3398
▁ith	-3399
▁rule	-3400
▁email	-3401
▁laces	-3402
▁lding	-3403
▁ortun	-3404
▁ages	-3405
▁ides	-3406
▁rpor	-3407
▁addit	-3408
▁bio	-3409
▁eld	-3410
▁vet	-3411
▁sten	-3412
▁cry	-3413
▁ima	-3414
▁itt	-3415
▁Matt	-3416
▁Pi	-3417
▁cau	-3418
▁stab	-3419
▁rival	-3420
▁gs	-3421
▁nny	-3422
▁item	-3423
▁maz	-3424
▁moni	-3425
▁cue	-3426
▁usk	-3427
▁cell	-3428
▁urr	-3429
▁etch	-3430
▁dance	-3431
lie	-3432
▁nov	-3433
▁cycl	-3434
▁mile	-3435
▁nance	-3436
▁sente	-3437
▁BJP	-3438
▁flu	-3439
▁phy	-3440
man	-3441
▁lour	-3442
▁ffici	-3443
▁lb	-3444
▁hic	-3445
▁nts	-3446
▁eter	-3447
▁heme	-3448
▁ano	-3449
▁esi	-3450
▁certa	-3451
▁rb	-3452
▁rab	-3453
▁miles	-3454
▁ach	-3455
▁eep	-3456
▁choo	-3457
▁ntion	-3458
▁write	-3459
▁eu	-3460
▁Tom	-3461
▁ink	-3462
▁heir	-3463
▁nvent	-3464
▁plane	-3465
▁pic	-3466
▁elen	-3467
▁becom	-3468
▁destr	-3469
▁60	-3470
▁impl	-3471
▁ech	-3472
▁imple	-3473
▁ork	-3474
▁ncing	-3475
▁secre	-3476
▁terro	-3477
▁irs	-3478
lec	-3479
▁aci	-3480
▁elt	-3481
▁etro	-3482
▁mpt	-3483
▁ille	-3484
▁eau	-3485
▁fail	-3486
▁otes	-3487
▁aba	-3488
▁lex	-3489
▁Ira	-3490
▁dee	-3491
▁rief	-3492
▁older	-3493
TV	-3494
▁gger	-3495
▁nctio	-3496
▁eet	-3497
▁odd	-3498
▁stle	-3499
inu	-3500
▁uke	-3501
▁uri	-3502
▁wave	-3503
▁colle	-3504
▁nice	-3505
▁deter	-3506
▁ntage	-3507
▁ա	-3508
▁va	-3509
▁mir	-3510
▁burg	-3511
▁eemed	-3512
▁favou	-3513
▁gle	-3514
▁ubt	-3515
▁broke	-3516
▁neces	-3517
▁ewer	-3518
▁rect	-3519
▁yl	-3520
▁gna	-3521
▁gno	-3522
▁hat	-3523
▁pet	-3524
▁+	-3525
▁Gar	-3526
▁twi	-3527
▁urn	-3528
▁olls	-3529
▁spen	-3530
▁ntinu	-3531
▁redib	-3532
▁tedly	-3533
▁amme	-3534
▁dica	-3535
▁racy	-3536
▁stri	-3537
▁Le	-3538
▁ja	-3539
▁roo	-3540
▁eing	-3541
▁ulti	-3542
▁oting	-3543
▁=	-3544
▁Ot	-3545
▁ckets	-3546
▁overs	-3547
▁CEO	-3548
▁Mur	-3549
▁ged	-3550
▁iling	-3551
▁mbi	-3552
▁till	-3553
▁dow	-3554
▁eek	-3555
▁basi	-3556
▁tip	-3557
▁ague	-3558
▁roup	-3559
▁vent	-3560
▁neu	-3561
▁bott	-3562
▁hang	-3563
▁hase	-3564
▁CB	-3565
▁Gla	-3566
▁emot	-3567
▁ench	-3568
▁rally	-3569
▁23	-3570
▁ses	-3571
▁user	-3572
▁Other	-3573
▁eva	-3574
▁hell	-3575
▁solv	-3576
▁ely	-3577
▁27	-3578
▁spee	-3579
▁teve	-3580
▁thu	-3581
▁ible	-3582
▁lter	-3583
▁trend	-3584
▁pil	-3585
▁bera	-3586
ST	-3587
▁cow	-3588
▁fix	-3589
▁rger	-3590
▁vour	-3591
▁alian	-3592
▁ssist	-3593
My	-3594
▁asta	-3595
▁insu	-3596
▁mote	-3597
▁vered	-3598
FL	-3599
▁28	-3600
▁Hou	-3601
▁xed	-3602
▁uggle	-3603
▁26	-3604
▁Art	-3605
▁burn	-3606
▁ntain	-3607
▁Per	-3608
▁wag	-3609
▁wan	-3610
▁entr	-3611
▁nied	-3612
ու	-3613
▁}	-3614
▁NH	-3615
▁hri	-3616
▁elect	-3617
▁MO	-3618
▁uty	-3619
▁stly	-3620
▁engin	-3621
▁Sir	-3622
▁ats	-3623
▁CO	-3624
▁ahu	-3625
▁axi	-3626
▁bet	-3627
▁sts	-3628
▁ecure	-3629
▁ories	-3630
▁Ben	-3631
▁ited	-3632
▁manu	-3633
▁selec	-3634
▁ber	-3635
▁rror	-3636
▁noo	-3637
▁yri	-3638
▁vs	-3639
▁kin	-3640
▁ybe	-3641
▁nton	-3642
▁Ob	-3643
▁Goo	-3644
▁ury	-3645
▁sum	-3646
▁Will	-3647
▁ants	-3648
▁grad	-3649
▁Mos	-3650
▁eck	-3651
▁uel	-3652
▁gate	-3653
▁mas	-3654
▁tep	-3655
▁soci	-3656
▁tus	-3657
▁alla	-3658
▁ueen	-3659
▁ately	-3660
▁tual	-3661
▁spira	-3662
▁apo	-3663
▁gua	-3664
▁ken	-3665
▁dies	-3666
▁sary	-3667
▁tist	-3668
▁eason	-3669
▁Gi	-3670
▁Ri	-3671
▁eir	-3672
▁lton	-3673
▁stin	-3674
▁pecta	-3675
▁1.	-3676
▁CN	-3677
▁Kate	-3678
▁ware	-3679
▁style	-3680
▁rl	-3681
▁una	-3682
▁feet	-3683
▁ames	-3684
▁endo	-3685
▁sual	-3686
▁wish	-3687
▁allie	-3688
▁ancel	-3689
▁retai	-3690
▁\	-3691
▁kh	-3692
▁ein	-3693
▁oys	-3694
▁shes	-3695
▁trad	-3696
▁geo	-3697
▁rand	-3698
▁pot	-3699
▁wind	-3700
▁urces	-3701
▁note	-3702
▁olid	-3703
▁lease	-3704
▁egr	-3705
▁tude	-3706
▁progr	-3707
▁mou	-3708
▁logy	-3709
▁oral	-3710
▁Scott	-3711
cy	-3712
▁fec	-3713
▁ute	-3714
In	-3715
▁Secre	-3716
▁­	-3717
▁eff	-3718
▁ndy	-3719
▁arth	-3720
▁ined	-3721
▁weet	-3722
▁accu	-3723
▁ardi	-3724
▁Ku	-3725
▁PA	-3726
▁hol	-3727
▁tla	-3728
▁Act	-3729
▁ald	-3730
▁del	-3731
▁ego	-3732
▁uch	-3733
▁ceed	-3734
▁erci	-3735
▁sb	-3736
▁nat	-3737
▁eran	-3738
▁info	-3739
▁laws	-3740
▁lined	-3741
▁testi	-3742
▁aro	-3743
▁pid	-3744
▁quo	-3745
▁ceiv	-3746
▁circ	-3747
▁hill	-3748
▁ologi	-3749
▁Cap	-3750
▁disap	-3751
▁verse	-3752
▁oph	-3753
▁ests	-3754
▁flow	-3755
rov	-3756
▁IN	-3757
▁Val	-3758
▁nz	-3759
▁azi	-3760
▁nis	-3761
▁aged	-3762
▁hank	-3763
▁mend	-3764
▁hain	-3765
▁heri	-3766
▁tur	-3767
▁orce	-3768
▁ssel	-3769
▁apped	-3770
▁gy	-3771
▁lv	-3772
▁elle	-3773
▁oday	-3774
▁lean	-3775
▁asons	-3776
▁é	-3777
▁GB	-3778
▁sad	-3779
▁lega	-3780
▁stone	-3781
▁Mac	-3782
▁rus	-3783
▁nded	-3784
▁rmed	-3785
▁rose	-3786
▁PM	-3787
▁Ali	-3788
▁vac	-3789
▁yed	-3790
▁enda	-3791
▁marri	-3792
▁Pu	-3793
▁Res	-3794
▁ular	-3795
▁uses	-3796
▁bid	-3797
▁ipl	-3798
▁ult	-3799
▁gage	-3800
▁rill	-3801
▁tian	-3802
▁zone	-3803
▁tiona	-3804
▁II	-3805
▁rra	-3806
▁nute	-3807
▁abs	-3808
▁plu	-3809
▁imag	-3810
▁opin	-3811
▁worst	-3812
▁lls	-3813
▁mob	-3814
▁sib	-3815
▁enha	-3816
▁troo	-3817
▁ectio	-3818
▁scien	-3819
▁29	-3820
▁urk	-3821
▁ells	-3822
▁vert	-3823
▁reath	-3824
▁ustin	-3825
▁Ber	-3826
▁ker	-3827
▁ledg	-3828
▁pres	-3829
▁visio	-3830
da	-3831
▁{	-3832
▁ela	-3833
▁lum	-3834
▁rone	-3835
▁sman	-3836
▁Comm	-3837
▁uctur	-3838
▁2.	-3839
▁mix	-3840
▁nth	-3841
▁ssed	-3842
▁wers	-3843
▁ounds	-3844
▁doc	-3845
▁eam	-3846
▁gns	-3847
▁sym	-3848
▁tha	-3849
▁hara	-3850
▁rish	-3851
▁duced	-3852
▁iddle	-3853
▁lev	-3854
▁bour	-3855
▁broa	-3856
▁Port	-3857
▁ko	-3858
▁lm	-3859
▁Nic	-3860
▁osh	-3861
▁uff	-3862
▁ndon	-3863
▁Why	-3864
▁El	-3865
▁fat	-3866
▁file	-3867
▁tery	-3868
-0	-3869
os	-3870
▁#	-3871
▁dut	-3872
▁Mus	-3873
▁rize	-3874
▁anima	-3875
▁ensio	-3876
▁bl	-3877
▁Bill	-3878
▁otor	-3879
▁wins	-3880
▁arms	-3881
▁bert	-3882
▁meth	-3883
▁pani	-3884
▁lau	-3885
▁iers	-3886
▁iver	-3887
▁reduc	-3888
ky	-3889
▁py	-3890
▁lob	-3891
▁ates	-3892
▁AN	-3893
▁Pla	-3894
▁guy	-3895
▁initi	-3896
▁Cal	-3897
▁mma	-3898
▁matic	-3899
▁ui	-3900
▁ense	-3901
▁ingh	-3902
▁sey	-3903
▁alls	-3904
▁ddit	-3905
▁shar	-3906
▁AF	-3907
▁ify	-3908
▁erse	-3909
▁leng	-3910
▁ooks	-3911
▁Rs	-3912
▁gl	-3913
▁ends	-3914
▁itch	-3915
we	-3916
▁80	-3917
▁alt	-3918
▁hor	-3919
▁rug	-3920
▁eder	-3921
▁ms	-3922
▁iga	-3923
▁rchi	-3924
▁rinc	-3925
▁udge	-3926
▁wast	-3927
▁cript	-3928
BA	-3929
▁reso	-3930
▁nj	-3931
▁ize	-3932
▁empt	-3933
▁chan	-3934
▁ckle	-3935
▁ka	-3936
▁dian	-3937
▁mmit	-3938
▁Hi	-3939
▁Pr	-3940
▁hut	-3941
▁iou	-3942
▁pin	-3943
▁vor	-3944
▁anda	-3945
▁denc	-3946
▁mmer	-3947
▁Car	-3948
▁avi	-3949
▁nak	-3950
▁aster	-3951
▁nus	-3952
ER	-3953
▁ox	-3954
▁Fra	-3955
▁nim	-3956
▁ateg	-3957
▁€	-3958
▁ino	-3959
▁nly	-3960
▁edge	-3961
▁larg	-3962
▁vice	-3963
▁bly	-3964
▁eets	-3965
▁dicat	-3966
▁igger	-3967
ki	-3968
▁anni	-3969
▁asis	-3970
▁farm	-3971
▁stea	-3972
▁Princ	-3973
▁dge	-3974
▁err	-3975
▁tom	-3976
▁tti	-3977
▁Poli	-3978
▁lies	-3979
▁rade	-3980
▁sted	-3981
▁essed	-3982
▁pprov	-3983
▁repea	-3984
▁ij	-3985
▁Vic	-3986
▁dry	-3987
▁hai	-3988
▁mass	-3989
▁ն	-3990
▁Big	-3991
▁Yet	-3992
▁acy	-3993
▁heer	-3994
▁bn	-3995
▁arl	-3996
▁rev	-3997
▁alit	-3998
▁indi	-3999
▁ppose	-4000
▁Up	-4001
▁hab	-4002
▁ella	-4003
▁flat	-4004
▁iller	-4005
▁toria	-4006
▁oe	-4007
▁mani	-4008
▁mble	-4009
▁reci	-4010
▁stro	-4011
▁secur	-4012
▁strat	-4013
▁ky	-4014
▁ena	-4015
▁core	-4016
▁xu	-4017
▁chem	-4018
▁loan	-4019
▁tiva	-4020
▁ences	-4021
▁strik	-4022
SA	-4023
go	-4024
▁grew	-4025
▁llie	-4026
▁ntly	-4027
▁icked	-4028
▁eh	-4029
▁oul	-4030
▁ube	-4031
▁acci	-4032
▁Tre	-4033
▁tta	-4034
▁guid	-4035
▁lend	-4036
▁rans	-4037
▁70	-4038
▁ix	-4039
▁Bar	-4040
▁ello	-4041
▁ovid	-4042
▁istic	-4043
▁bru	-4044
▁oad	-4045
▁desp	-4046
▁entu	-4047
▁iser	-4048
▁offe	-4049
▁terr	-4050
▁tb	-4051
▁NHS	-4052
▁dly	-4053
▁las	-4054
▁twe	-4055
▁uis	-4056
▁mist	-4057
▁oney	-4058
▁gon	-4059
▁ruit	-4060
▁31	-4061
▁iP	-4062
▁Gov	-4063
▁uli	-4064
▁vot	-4065
▁load	-4066
▁rout	-4067
▁circu	-4068
▁kes	-4069
▁MORE	-4070
▁ribe	-4071
▁iding	-4072
▁oid	-4073
▁rail	-4074
▁rape	-4075
unt	-4076
▁dot	-4077
▁llian	-4078
▁rante	-4079
OP	-4080
▁Ta	-4081
▁ild	-4082
▁ange	-4083
TO	-4084
▁chu	-4085
▁ett	-4086
BI	-4087
lt	-4088
▁Ru	-4089
▁mph	-4090
▁rum	-4091
▁ears	-4092
▁ging	-4093
ury	-4094
▁oud	-4095
▁ror	-4096
▁san	-4097
▁pping	-4098
▁pplie	-4099
▁Mad	-4100
▁chel	-4101
▁oted	-4102
LA	-4103
fic	-4104
▁cker	-4105
▁hree	-4106
▁nnes	-4107
▁peat	-4108
ono	-4109
▁NFL	-4110
▁affi	-4111
▁lief	-4112
▁ndra	-4113
▁MA	-4114
▁aches	-4115
▁lp	-4116
▁Jer	-4117
▁oom	-4118
▁vic	-4119
▁anta	-4120
▁jury	-4121
▁wash	-4122
▁convi	-4123
▁ollow	-4124
▁nb	-4125
▁iar	-4126
▁ymp	-4127
▁dism	-4128
▁joy	-4129
▁ron	-4130
▁Au	-4131
▁eut	-4132
▁minu	-4133
▁forms	-4134
▁ewi	-4135
▁hef	-4136
▁lso	-4137
▁ram	-4138
▁illa	-4139
▁tima	-4140
▁aling	-4141
▁cline	-4142
▁og	-4143
▁hau	-4144
▁sei	-4145
▁anna	-4146
▁imon	-4147
▁rame	-4148
▁sg	-4149
▁rice	-4150
▁unds	-4151
▁trong	-4152
▁90	-4153
▁lem	-4154
▁nci	-4155
▁ngr	-4156
▁rej	-4157
▁Marc	-4158
▁ntic	-4159
▁reco	-4160
▁preci	-4161
▁Bra	-4162
▁danc	-4163
▁ender	-4164
▁IC	-4165
▁ea	-4166
▁uma	-4167
▁eath	-4168
▁hone	-4169
▁ites	-4170
▁scov	-4171
▁usse	-4172
▁voca	-4173
▁draft	-4174
▁ek	-4175
▁RE	-4176
▁evin	-4177
▁lder	-4178
sa	-4179
▁ym	-4180
▁ddl	-4181
▁obi	-4182
▁rei	-4183
▁ected	-4184
▁hrist	-4185
▁iting	-4186
So	-4187
▁ito	-4188
▁lon	-4189
▁nish	-4190
▁yr	-4191
▁lat	-4192
▁orda	-4193
▁asion	-4194
▁zer	-4195
▁assa	-4196
▁irec	-4197
▁king	-4198
▁wake	-4199
▁docum	-4200
▁lance	-4201
▁porta	-4202
ID	-4203
▁Ken	-4204
▁aga	-4205
▁bon	-4206
▁llo	-4207
▁loca	-4208
▁rough	-4209
▁35	-4210
▁gli	-4211
▁IP	-4212
▁ipe	-4213
▁eeds	-4214
▁elly	-4215
▁requ	-4216
▁rious	-4217
▁river	-4218
▁arr	-4219
▁capt	-4220
▁acked	-4221
gel	-4222
▁inn	-4223
▁nie	-4224
▁grab	-4225
▁gap	-4226
▁wei	-4227
▁yle	-4228
▁eces	-4229
▁tact	-4230
▁tast	-4231
▁aur	-4232
▁din	-4233
▁eap	-4234
▁Game	-4235
▁ush	-4236
▁uta	-4237
▁nimal	-4238
▁ents	-4239
▁ings	-4240
▁vast	-4241
▁lying	-4242
As	-4243
▁ete	-4244
▁oca	-4245
▁par	-4246
▁usi	-4247
▁ved	-4248
▁scri	-4249
▁romot	-4250
▁anks	-4251
▁oman	-4252
▁wine	-4253
▁ourne	-4254
▁ime	-4255
▁och	-4256
▁oms	-4257
▁pan	-4258
▁rav	-4259
▁assin	-4260
▁Can	-4261
▁ads	-4262
▁ato	-4263
▁nha	-4264
▁lled	-4265
▁pers	-4266
▁tank	-4267
▁zens	-4268
▁AR	-4269
▁cio	-4270
▁lap	-4271
▁aske	-4272
▁Jr	-4273
▁esh	-4274
▁imb	-4275
▁lst	-4276
▁cate	-4277
▁ghts	-4278
▁hate	-4279
▁ament	-4280
▁compl	-4281
▁num	-4282
▁hire	-4283
▁rick	-4284
ja	-4285
▁Ky	-4286
▁rob	-4287
▁erra	-4288
▁nces	-4289
▁tora	-4290
▁erman	-4291
▁Wil	-4292
▁ite	-4293
▁mot	-4294
▁lame	-4295
▁anned	-4296
▁Fr	-4297
▁lub	-4298
▁hare	-4299
CA	-4300
▁aha	-4301
▁liz	-4302
▁proc	-4303
▁surge	-4304
ան	-4305
▁lt	-4306
▁sin	-4307
▁ypt	-4308
▁Live	-4309
▁bout	-4310
▁edia	-4311
▁erate	-4312
▁Ja	-4313
▁bol	-4314
▁hew	-4315
▁gest	-4316
▁ospi	-4317
ley	-4318
▁Kan	-4319
▁ung	-4320
▁ativ	-4321
▁ghly	-4322
▁cr	-4323
▁Its	-4324
▁ces	-4325
▁auti	-4326
▁ligi	-4327
▁sting	-4328
20	-4329
▁cat	-4330
▁egg	-4331
▁ody	-4332
▁cting	-4333
▁los	-4334
▁mba	-4335
▁lari	-4336
▁sked	-4337
▁Who	-4338
▁exi	-4339
▁ota	-4340
▁rst	-4341
▁dict	-4342
▁ams	-4343
▁lta	-4344
▁ols	-4345
▁smo	-4346
▁peak	-4347
▁sume	-4348
▁fruit	-4349
▁Bel	-4350
▁ame	-4351
▁tle	-4352
▁leak	-4353
▁peri	-4354
▁rred	-4355
SP	-4356
▁ID	-4357
▁Jam	-4358
▁Franc	-4359
▁opi	-4360
▁ager	-4361
▁eligi	-4362
▁enced	-4363
▁recov	-4364
▁Rob	-4365
▁antly	-4366
▁Str	-4367
▁swa	-4368
▁lity	-4369
▁otic	-4370
▁ked	-4371
▁nde	-4372
▁ulat	-4373
▁edica	-4374
▁scrib	-4375
▁tea	-4376
▁NATO	-4377
▁ermi	-4378
▁mort	-4379
▁ndem	-4380
▁ivity	-4381
▁waste	-4382
▁$1	-4383
▁Sky	-4384
▁nchi	-4385
▁paren	-4386
key	-4387
▁Van	-4388
▁gni	-4389
▁lad	-4390
▁nfor	-4391
▁Ac	-4392
▁pha	-4393
▁reb	-4394
▁rage	-4395
▁AFP	-4396
▁Fou	-4397
▁ays	-4398
▁pto	-4399
▁judg	-4400
▁Angel	-4401
▁ipa	-4402
▁unco	-4403
▁raw	-4404
▁arry	-4405
▁pment	-4406
▁ira	-4407
▁inco	-4408
▁fro	-4409
▁sna	-4410
▁aire	-4411
▁enni	-4412
▁illy	-4413
▁consu	-4414
▁react	-4415
▁3.	-4416
▁GOP	-4417
▁vil	-4418
▁oked	-4419
▁hyd	-4420
▁ied	-4421
▁reh	-4422
▁bell	-4423
▁enny	-4424
▁ewis	-4425
▁mong	-4426
▁nting	-4427
unk	-4428
▁rust	-4429
▁scape	-4430
▁45	-4431
▁alk	-4432
▁dua	-4433
▁ups	-4434
▁erna	-4435
▁elief	-4436
▁200	-4437
▁amm	-4438
▁mad	-4439
▁tum	-4440
▁anic	-4441
▁overt	-4442
▁rpris	-4443
▁FA	-4444
▁ici	-4445
▁utu	-4446
▁oper	-4447
▁truck	-4448
DA	-4449
▁36	-4450
▁CNN	-4451
▁rma	-4452
▁sus	-4453
▁omin	-4454
▁thes	-4455
▁adm	-4456
▁bai	-4457
▁lav	-4458
▁lik	-4459
▁rey	-4460
▁ongs	-4461
oul	-4462
▁hm	-4463
▁als	-4464
▁ede	-4465
▁iro	-4466
▁sas	-4467
▁Sena	-4468
▁acco	-4469
▁SN	-4470
▁Sp	-4471
▁hore	-4472
▁entir	-4473
RA	-4474
▁ept	-4475
▁sue	-4476
▁tec	-4477
▁yes	-4478
▁lice	-4479
▁mari	-4480
▁mber	-4481
▁obil	-4482
▁rter	-4483
▁supp	-4484
▁Ji	-4485
▁pub	-4486
▁sel	-4487
▁iles	-4488
▁lots	-4489
▁uter	-4490
▁GP	-4491
▁ils	-4492
▁mys	-4493
▁anag	-4494
▁cert	-4495
▁memo	-4496
▁rink	-4497
▁tree	-4498
▁CBS	-4499
▁enu	-4500
▁ves	-4501
▁trac	-4502
▁ption	-4503
▁rimin	-4504
-1	-4505
▁Vo	-4506
▁Met	-4507
▁hio	-4508
▁kil	-4509
▁essi	-4510
▁aimed	-4511
▁erful	-4512
▁ilita	-4513
▁dn	-4514
▁McD	-4515
▁Tha	-4516
▁cam	-4517
▁ards	-4518
▁ario	-4519
▁cine	-4520
▁seiz	-4521
▁tine	-4522
▁Pe	-4523
▁ku	-4524
▁lers	-4525
▁rgen	-4526
▁trol	-4527
▁wond	-4528
▁wheel	-4529
▁կ	-4530
▁Bri	-4531
▁Cor	-4532
▁lyn	-4533
▁econo	-4534
my	-4535
▁arv	-4536
▁squ	-4537
▁wns	-4538
▁orry	-4539
GA	-4540
▁lib	-4541
MA	-4542
▁cs	-4543
▁Vla	-4544
▁ica	-4545
▁scu	-4546
▁tock	-4547
▁RT	-4548
▁Tu	-4549
▁pho	-4550
▁tari	-4551
▁alent	-4552
AP	-4553
SC	-4554
▁cia	-4555
▁iet	-4556
▁arah	-4557
▁medi	-4558
▁rson	-4559
▁eaten	-4560
wa	-4561
▁NE	-4562
▁Las	-4563
▁Ram	-4564
▁siv	-4565
▁arre	-4566
▁scal	-4567
▁ering	-4568
▁4.	-4569
▁USA	-4570
▁	-4571
e	-4572
t	-4573
a	-4574
o	-4575
i	-4576
n	-4577
s	-4578
r	-4579
h	-4580
l	-4581
d	-4582
c	-4583
u	-4584
m	-4585
g	-4586
f	-4587
p	-4588
y	-4589
w	-4590
b	-4591
,	-4592
.	-4593
v	-4594
k	-4595
'	-4596
"	-4597
T	-4598
I	-4599
S	-4600
-	-4601
A	-4602
C	-4603
0	-4604
M	-4605
B	-4606
2	-4607
P	-4608
x	-4609
H	-4610
1	-4611
W	-4612
D	-4613
R	-4614
N	-4615
j	-4616
L	-4617
F	-4618
G	-4619
E	-4620
O	-4621
z	-4622
J	-4623
:	-4624
U	-4625
K	-4626
q	-4627
5	-4628
3	-4629
4	-4630
9	-4631
)	-4632
(	-4633
V	-4634
6	-4635
8	-4636
7	-4637
Y	-4638
?	-4639
/	-4640
$	-4641
£	-4642
%	-4643
!	-4644
;	-4645
Z	-4646
X	-4647
Q	-4648
]	-4649
[	-4650
ա	-4651
&	-4652
>	-4653
*	-4654
<	-4655
é	-4656
ն	-4657
ր	-4658
ո	-4659
ե	-4660
_	-4661
ի	-4662
@	-4663
ւ	-4664
+	-4665
á	-4666
ó	-4667
մ	-4668
=	-4669
í	-4670
}	-4671
կ	-4672
\	-4673
­	-4674
{	-4675
#	-4676
տ	-4677
յ	-4678
€	-4679
վ	-4680
ս	-4681
լ	-4682
ց	-4683
հ	-4684
ñ	-4685
դ	-4686
թ	-4687
գ	-4688
ը	-4689
É	-4690
â	-4691
ղ	-4692
բ	-4693
պ	-4694
è	-4695
ü	-4696
ք	-4697
ú	-4698
է	-4699
Ա	-4700
•	-4701
ö	-4702
ծ	-4703
	-4704
խ	-4705
շ	-4706
ռ	-4707
զ	-4708
Ե	-4709
ջ	-4710
։	-4711
°	-4712
չ	-4713
Մ	-4714
©	-4715
à	-4716
Ր	-4717
ç	-4718
Ն	-4719
■	-4720
ä	-4721
′	-4722
՝	-4723
ձ	-4724
⁄	-4725
Հ	-4726
―	-4727
Á	-4728
ø	-4729
ā	-4730
ô	-4731
Ի	-4732
փ	-4733
₹	-4734
Ս	-4735
ã	-4736
ï	-4737
ë	-4738
	-4739
å	-4740
️	-4741
ć	-4742
օ	-4743
★	-4744
‐	-4745
	-4746
ê	-4747
Պ	-4748
Ö	-4749
ժ	-4750
Կ	-4751
Վ	-4752
	-4753
ğ	-4754
ճ	-4755
`	-4756
	-4757
♦	-4758
🥇	-4759
Ó	-4760
Բ	-4761
❤	-4762
î	-4763
č	-4764
Գ	-4765
ō	-4766
Ø	-4767
ł	-4768
ֆ	-4769
Լ	-4770
Տ	-4771
·	-4772
¿	-4773
Â	-4774
ă	-4775
ı	-4776
š	-4777
®	-4778
Å	-4779
Ո	-4780
●	-4781
¢	-4782
ò	-4783
Յ	-4784
😂	-4785
¡	-4786
đ	-4787
ș	-4788
Դ	-4789
Ը	-4790
Թ	-4791
Ֆ	-4792
😭	-4793
🤣	-4794
🥹	-4795
	-4796
×	-4797
ù	-4798
ş	-4799
Š	-4800
ŷ	-4801
Զ	-4802
Ռ	-4803
Փ	-4804
‍	-4805
⁠	-4806
−	-4807
À	-4808
Ã	-4809
Ç	-4810
ì	-4811
û	-4812
ý	-4813
ū	-4814
ŵ	-4815
ž	-4816
Շ	-4817
Ջ	-4818
Ւ	-4819
⁣	-4820
♬	-4821
🐎	-4822
🔥	-4823
¦	-4824
±	-4825
Ä	-4826
Ü	-4827
ė	-4828
ț	-4829
Ժ	-4830
Ք	-4831
Օ	-4832
▶	-4833
⚽	-4834
✔	-4835
😍	-4836
🙄	-4837
🙏	-4838
^	-4839
	-4840
	-4841
§	-4842
È	-4843
Î	-4844
ß	-4845
æ	-4846
Đ	-4847
ē	-4848
ģ	-4849
ń	-4850
ņ	-4851
ň	-4852
́	-4853
̈	-4854
С	-4855
Ճ	-4856
Չ	-4857
՛	-4858
՞	-4859
ạ	-4860
ầ	-4861
ắ	-4862
ờ	-4863
‭	-4864
›	-4865
⁦	-4866
⁩	-4867
₱	-4868
℞	-4869
☆	-4870
♂	-4871
♪	-4872
❌	-4873
・	-4874
︎	-4875
𝄒	-4876
🏻	-4877
🏼	-4878
👈	-4879
👉	-4880
💕	-4881
💨	-4882
📸	-4883
😅	-4884
😮	-4885
🤦	-4886
~	-4887
	-4888
	-4889
Í	-4890
Ò	-4891
Ô	-4892
þ	-4893
ÿ	-4894
ą	-4895
Ć	-4896
Ē	-4897
ę	-4898
ī	-4899
İ	-4900
ř	-4901
ś	-4902
Ş	-4903
ţ	-4904
ż	-4905
ư	-4906
ə	-4907
ʔ	-4908
ʻ	-4909
̀	-4910
̃	-4911
̄	-4912
μ	-4913
О	-4914
У	-4915
а	-4916
и	-4917
к	-4918
н	-4919
р	-4920
ї	-4921
Է	-4922
Խ	-4923
Ծ	-4924
Ձ	-4925
Ղ	-4926
฿	-4927
ḥ	-4928
Ṡ	-4929
ṣ	-4930
ả	-4931
ẹ	-4932
ế	-4933
ệ	-4934
ị	-4935
ọ	-4936
ố	-4937
ộ	-4938
ợ	-4939
ừ	-4940
ự	-4941
ỹ	-4942
‬	-4943
⁤	-4944
₦	-4945
↔	-4946
⊕	-4947
⏳	-4948
►	-4949
◀	-4950
☀	-4951
♀	-4952
♥	-4953
✅	-4954
✨	-4955
⭐	-4956
🇱	-4957
🇳	-4958
🇸	-4959
🇺	-4960
🌪	-4961
🌴	-4962
🌹	-4963
🍓	-4964
🍹	-4965
🎁	-4966
🎢	-4967
🎪	-4968
🏆	-4969
🏽	-4970
🏾	-4971
👀	-4972
👍	-4973
👏	-4974
💙	-4975
💥	-4976
📋	-4977
📍	-4978
📷	-4979
😆	-4980
😊	-4981
😢	-4982
😱	-4983
😳	-4984
🙌	-4985
🛒	-4986
🤎	-4987
🤔	-4988
🤫	-4989
🤯	-4990
🤵	-4991
🤷	-4992
🥅	-4993
🥥	-4994
🥪	-4995
🥺	-4996
