{
  "version": "1.0",
  "truncation": null,
  "padding": null,
  "added_tokens": [
    {
      "id": 0,
      "content": "[UNK]",
      "single_word": false,
      "lstrip": false,
      "rstrip": false,
      "normalized": false,
      "special": true
    },
    {
      "id": 1,
      "content": "[CLS]",
      "single_word": false,
      "lstrip": false,
      "rstrip": false,
      "normalized": false,
      "special": true
    },
    {
      "id": 2,
      "content": "[SEP]",
      "single_word": false,
      "lstrip": false,
      "rstrip": false,
      "normalized": false,
      "special": true
    },
    {
      "id": 3,
      "content": "[PAD]",
      "single_word": false,
      "lstrip": false,
      "rstrip": false,
      "normalized": false,
      "special": true
    },
    {
      "id": 4,
      "content": "[MASK]",
      "single_word": false,
      "lstrip": false,
      "rstrip": false,
      "normalized": false,
      "special": true
    }
  ],
  "normalizer": {
    "type": "Sequence",
    "normalizers": [
      {
        "type": "NFKC"
      },
      {
        "type": "Lowercase"
      }
    ]
  },
  "pre_tokenizer": {
    "type": "Whitespace"
  },
  "post_processor": null,
  "decoder": {
    "type": "WordPiece",
    "prefix": "##",
    "cleanup": true
  },
  "model": {
    "type": "WordPiece",
    "unk_token": "[UNK]",
    "continuing_subword_prefix": "##",
    "max_input_chars_per_word": 100,
    "vocab": {
      "[UNK]": 0,
      "[CLS]": 1,
      "[SEP]": 2,
      "[PAD]": 3,
      "[MASK]": 4,
      "!": 5,
      "\"": 6,
      "#": 7,
      "$": 8,
      "%": 9,
      "&": 10,
      "'": 11,
      "(": 12,
      ")": 13,
      "*": 14,
      "+": 15,
      ",": 16,
      "-": 17,
      ".": 18,
      "/": 19,
      "0": 20,
      "1": 21,
      "2": 22,
      "3": 23,
      "4": 24,
      "5": 25,
      "6": 26,
      "7": 27,
      "8": 28,
      "9": 29,
      ":": 30,
      ";": 31,
      "<": 32,
      "=": 33,
      ">": 34,
      "?": 35,
      "@": 36,
      "[": 37,
      "\\": 38,
      "]": 39,
      "^": 40,
      "_": 41,
      "`": 42,
      "a": 43,
      "b": 44,
      "c": 45,
      "d": 46,
      "e": 47,
      "f": 48,
      "g": 49,
      "h": 50,
      "i": 51,
      "j": 52,
      "k": 53,
      "l": 54,
      "m": 55,
      "n": 56,
      "o": 57,
      "p": 58,
      "q": 59,
      "r": 60,
      "s": 61,
      "t": 62,
      "u": 63,
      "v": 64,
      "w": 65,
      "x": 66,
      "y": 67,
      "z": 68,
      "{": 69,
      "}": 70,
      "~": 71,
      "": 72,
      "": 73,
      "": 74,
      "": 75,
      "": 76,
      "": 77,
      "": 78,
      "": 79,
      "": 80,
      "": 81,
      "¡": 82,
      "¢": 83,
      "£": 84,
      "¦": 85,
      "§": 86,
      "©": 87,
      "­": 88,
      "®": 89,
      "°": 90,
      "±": 91,
      "·": 92,
      "¿": 93,
      "×": 94,
      "ß": 95,
      "à": 96,
      "á": 97,
      "â": 98,
      "ã": 99,
      "ä": 100,
      "å": 101,
      "æ": 102,
      "ç": 103,
      "è": 104,
      "é": 105,
      "ê": 106,
      "ë": 107,
      "ì": 108,
      "í": 109,
      "î": 110,
      "ï": 111,
      "ñ": 112,
      "ò": 113,
      "ó": 114,
      "ô": 115,
      "ö": 116,
      "ø": 117,
      "ù": 118,
      "ú": 119,
      "û": 120,
      "ü": 121,
      "ý": 122,
      "þ": 123,
      "ÿ": 124,
      "ā": 125,
      "ă": 126,
      "ą": 127,
      "ć": 128,
      "č": 129,
      "đ": 130,
      "ē": 131,
      "ė": 132,
      "ę": 133,
      "ğ": 134,
      "ģ": 135,
      "ī": 136,
      "ı": 137,
      "ł": 138,
      "ń": 139,
      "ņ": 140,
      "ň": 141,
      "ō": 142,
      "ř": 143,
      "ś": 144,
      "ş": 145,
      "š": 146,
      "ţ": 147,
      "ū": 148,
      "ŵ": 149,
      "ŷ": 150,
      "ż": 151,
      "ž": 152,
      "ư": 153,
      "ș": 154,
      "ț": 155,
      "ə": 156,
      "ʔ": 157,
      "ʻ": 158,
      "̄": 159,
      "̇": 160,
      "̈": 161,
      "μ": 162,
      "а": 163,
      "и": 164,
      "к": 165,
      "н": 166,
      "о": 167,
      "р": 168,
      "с": 169,
      "у": 170,
      "ї": 171,
      "՛": 172,
      "՝": 173,
      "՞": 174,
      "ա": 175,
      "բ": 176,
      "գ": 177,
      "դ": 178,
      "ե": 179,
      "զ": 180,
      "է": 181,
      "ը": 182,
      "թ": 183,
      "ժ": 184,
      "ի": 185,
      "լ": 186,
      "խ": 187,
      "ծ": 188,
      "կ": 189,
      "հ": 190,
      "ձ": 191,
      "ղ": 192,
      "ճ": 193,
      "մ": 194,
      "յ": 195,
      "ն": 196,
      "շ": 197,
      "ո": 198,
      "չ": 199,
      "պ": 200,
      "ջ": 201,
      "ռ": 202,
      "ս": 203,
      "վ": 204,
      "տ": 205,
      "ր": 206,
      "ց": 207,
      "ւ": 208,
      "փ": 209,
      "ք": 210,
      "օ": 211,
      "ֆ": 212,
      "։": 213,
      "฿": 214,
      "ḥ": 215,
      "ṡ": 216,
      "ṣ": 217,
      "ạ": 218,
      "ả": 219,
      "ầ": 220,
      "ắ": 221,
      "ẹ": 222,
      "ế": 223,
      "ệ": 224,
      "ị": 225,
      "ọ": 226,
      "ố": 227,
      "ộ": 228,
      "ờ": 229,
      "ợ": 230,
      "ừ": 231,
      "ự": 232,
      "ỹ": 233,
      "‌": 234,
      "‍": 235,
      "‐": 236,
      "―": 237,
      "•": 238,
      "‬": 239,
      "‭": 240,
      "′": 241,
      "›": 242,
      "⁄": 243,
      "⁠": 244,
      "⁣": 245,
      "⁤": 246,
      "⁦": 247,
      "⁩": 248,
      "₦": 249,
      "€": 250,
      "₱": 251,
      "₹": 252,
      "℞": 253,
      "↔": 254,
      "−": 255,
      "⊕": 256,
      "⏳": 257,
      "■": 258,
      "▶": 259,
      "►": 260,
      "◀": 261,
      "●": 262,
      "☀": 263,
      "★": 264,
      "☆": 265,
      "♀": 266,
      "♂": 267,
      "♥": 268,
      "♦": 269,
      "♪": 270,
      "♬": 271,
      "⚽": 272,
      "✅": 273,
      "✔": 274,
      "✨": 275,
      "❌": 276,
      "❤": 277,
      "➡": 278,
      "⭐": 279,
      "・": 280,
      "︎": 281,
      "️": 282,
      "�": 283,
      "𝄒": 284,
      "🇦": 285,
      "🇱": 286,
      "🇳": 287,
      "🇸": 288,
      "🇺": 289,
      "🌪": 290,
      "🌴": 291,
      "🌹": 292,
      "🍓": 293,
      "🍹": 294,
      "🍺": 295,
      "🎁": 296,
      "🎢": 297,
      "🎪": 298,
      "🏆": 299,
      "🏻": 300,
      "🏼": 301,
      "🏽": 302,
      "🏾": 303,
      "🐎": 304,
      "👀": 305,
      "👈": 306,
      "👉": 307,
      "👍": 308,
      "👏": 309,
      "💕": 310,
      "💙": 311,
      "💥": 312,
      "💨": 313,
      "💬": 314,
      "📋": 315,
      "📍": 316,
      "📷": 317,
      "📸": 318,
      "🔥": 319,
      "😂": 320,
      "😅": 321,
      "😆": 322,
      "😊": 323,
      "😍": 324,
      "😢": 325,
      "😭": 326,
      "😮": 327,
      "😱": 328,
      "😳": 329,
      "🙄": 330,
      "🙌": 331,
      "🙏": 332,
      "🚨": 333,
      "🛒": 334,
      "🤎": 335,
      "🤔": 336,
      "🤣": 337,
      "🤦": 338,
      "🤫": 339,
      "🤯": 340,
      "🤵": 341,
      "🤷": 342,
      "🥅": 343,
      "🥇": 344,
      "🥥": 345,
      "🥪": 346,
      "🥹": 347,
      "🥺": 348,
      "🫣": 349,
      "##m": 350,
      "##w": 351,
      "##e": 352,
      "##l": 353,
      "##y": 354,
      "##r": 355,
      "##7": 356,
      "##5": 357,
      "##4": 358,
      "##a": 359,
      "##6": 360,
      "##8": 361,
      "##f": 362,
      "##0": 363,
      "##3": 364,
      "##2": 365,
      "##o": 366,
      "##n": 367,
      "##i": 368,
      "##d": 369,
      "##b": 370,
      "##h": 371,
      "##x": 372,
      "##t": 373,
      "##u": 374,
      "##v": 375,
      "##c": 376,
      "##1": 377,
      "##9": 378,
      "##g": 379,
      "##s": 380,
      "##p": 381,
      "##k": 382,
      "##z": 383,
      "##ր": 384,
      "##ե": 385,
      "##ւ": 386,
      "##լ": 387,
      "##ք": 388,
      "##ո": 389,
      "##մ": 390,
      "##j": 391,
      "##_": 392,
      "##q": 393,
      "##é": 394,
      "##ա": 395,
      "##դ": 396,
      "##կ": 397,
      "##ն": 398,
      "##տ": 399,
      "##í": 400,
      "##á": 401,
      "##թ": 402,
      "##ը": 403,
      "##ñ": 404,
      "##ó": 405,
      "##.": 406,
      "##\"": 407,
      "##<": 408,
      "##/": 409,
      "##հ": 410,
      "##վ": 411,
      "##յ": 412,
      "##ց": 413,
      "##ս": 414,
      "##ի": 415,
      "##ֆ": 416,
      "##շ": 417,
      "##գ": 418,
      "##խ": 419,
      "##ղ": 420,
      "##å": 421,
      "##պ": 422,
      "##­": 423,
      "##,": 424,
      "##]": 425,
      "##>": 426,
      "##🚨": 427,
      "##:": 428,
      "##ռ": 429,
      "##ջ": 430,
      "##è": 431,
      "##′": 432,
      "##⁣": 433,
      "##'": 434,
      "##ë": 435,
      "##ș": 436,
      "##ã": 437,
      "##ä": 438,
      "##)": 439,
      "##*": 440,
      "##ú": 441,
      "##ö": 442,
      "##ï": 443,
      "##չ": 444,
      "##€": 445,
      "##զ": 446,
      "##-": 447,
      "##բ": 448,
      "##ł": 449,
      "##ծ": 450,
      "##;": 451,
      "##!": 452,
      "##😭": 453,
      "##❤": 454,
      "##ձ": 455,
      "##î": 456,
      "##ō": 457,
      "##â": 458,
      "##ճ": 459,
      "##©": 460,
      "##ü": 461,
      "##&": 462,
      "##ô": 463,
      "##[": 464,
      "##": 465,
      "##ş": 466,
      "##?": 467,
      "##ŷ": 468,
      "##ç": 469,
      "##à": 470,
      "##}": 471,
      "##🏾": 472,
      "##ø": 473,
      "##{": 474,
      "##$": 475,
      "##%": 476,
      "##ժ": 477,
      "##փ": 478,
      "##🤦": 479,
      "##🏽": 480,
      "##ư": 481,
      "##ờ": 482,
      "##ğ": 483,
      "##ć": 484,
      "##@": 485,
      "###": 486,
      "##^": 487,
      "##ā": 488,
      "##ê": 489,
      "##😮": 490,
      "##č": 491,
      "##š": 492,
      "##¦": 493,
      "##þ": 494,
      "##ò": 495,
      "##★": 496,
      "##ḥ": 497,
      "##ʔ": 498,
      "##🍺": 499,
      "##ý": 500,
      "##ộ": 501,
      "##ÿ": 502,
      "##\\": 503,
      "##℞": 504,
      "##": 505,
      "##": 506,
      "##̇": 507,
      "##£": 508,
      "##ř": 509,
      "##🇱": 510,
      "##ự": 511,
      "##к": 512,
      "##р": 513,
      "##а": 514,
      "##ї": 515,
      "##н": 516,
      "##и": 517,
      "##ế": 518,
      "##+": 519,
      "##ņ": 520,
      "##ģ": 521,
      "##ì": 522,
      "##ầ": 523,
      "##🌹": 524,
      "##ę": 525,
      "##ž": 526,
      "##ą": 527,
      "##ắ": 528,
      "##😍": 529,
      "##`": 530,
      "##ừ": 531,
      "##ả": 532,
      "##•": 533,
      "##": 534,
      "##օ": 535,
      "##🙏": 536,
      "##🏼": 537,
      "##ß": 538,
      "##🏻": 539,
      "##ı": 540,
      "##æ": 541,
      "##ṣ": 542,
      "##ă": 543,
      "##🇺": 544,
      "##🇦": 545,
      "##🇸": 546,
      "##🥇": 547,
      "##ī": 548,
      "##(": 549,
      "##ỹ": 550,
      "##ạ": 551,
      "##û": 552,
      "##ʻ": 553,
      "##😅": 554,
      "##ś": 555,
      "##ù": 556,
      "##ē": 557,
      "##🫣": 558,
      "##😊": 559,
      "##🥹": 560,
      "##‌": 561,
      "##ń": 562,
      "##🥥": 563,
      "##🤎": 564,
      "##ị": 565,
      "##ț": 566,
      "##ŵ": 567,
      "##ţ": 568,
      "##■": 569,
      "##։": 570,
      "##📸": 571,
      "##¡": 572,
      "##😂": 573,
      "##ż": 574,
      "##ė": 575,
      "##ū": 576,
      "##💬": 577,
      "##ň": 578,
      "##🥺": 579,
      "##¿": 580,
      "##": 581,
      "##с": 582,
      "##о": 583,
      "##ệ": 584,
      "##μ": 585,
      "##⁠": 586,
      "##": 587,
      "##ẹ": 588,
      "##➡": 589,
      "##️": 590,
      "##ố": 591,
      "##ə": 592,
      "##🤣": 593,
      "##=": 594,
      "##☆": 595,
      "##ọ": 596,
      "##է": 597,
      "##🔥": 598,
      "##ợ": 599,
      "th": 600,
      "##er": 601,
      "the": 602,
      "##in": 603,
      "##en": 604,
      "##on": 605,
      "##ed": 606,
      "##at": 607,
      "##es": 608,
      "##or": 609,
      "##nd": 610,
      "##ing": 611,
      "##ar": 612,
      "to": 613,
      "##an": 614,
      "in": 615,
      "##it": 616,
      "##al": 617,
      "##ou": 618,
      "##is": 619,
      "##as": 620,
      "of": 621,
      "and": 622,
      "##ic": 623,
      "##re": 624,
      "##om": 625,
      "##il": 626,
      "##el": 627,
      "##ion": 628,
      "##ent": 629,
      "##id": 630,
      "##le": 631,
      "be": 632,
      "##ot": 633,
      "##st": 634,
      "on": 635,
      "re": 636,
      "for": 637,
      "##ut": 638,
      "wh": 639,
      "##ay": 640,
      "st": 641,
      "##ac": 642,
      "##ur": 643,
      "##ve": 644,
      "##et": 645,
      "##ad": 646,
      "##ow": 647,
      "##am": 648,
      "##ly": 649,
      "it": 650,
      "is": 651,
      "that": 652,
      "##ol": 653,
      "##ig": 654,
      "pr": 655,
      "##ir": 656,
      "##im": 657,
      "##ter": 658,
      "##ec": 659,
      "##ver": 660,
      "he": 661,
      "##ith": 662,
      "sh": 663,
      "##th": 664,
      "with": 665,
      "as": 666,
      "al": 667,
      "an": 668,
      "was": 669,
      "##se": 670,
      "##ers": 671,
      "##ation": 672,
      "##ce": 673,
      "##ch": 674,
      "at": 675,
      "ch": 676,
      "##ill": 677,
      "ha": 678,
      "fr": 679,
      "##est": 680,
      "##ld": 681,
      "##ere": 682,
      "con": 683,
      "##op": 684,
      "sa": 685,
      "##ag": 686,
      "##em": 687,
      "we": 688,
      "tr": 689,
      "##ul": 690,
      "##ess": 691,
      "ne": 692,
      "you": 693,
      "su": 694,
      "##ak": 695,
      "##ain": 696,
      "com": 697,
      "##os": 698,
      "##igh": 699,
      "##oc": 700,
      "##od": 701,
      "##pp": 702,
      "##ct": 703,
      "##us": 704,
      "his": 705,
      ",\"": 706,
      "##and": 707,
      "said": 708,
      "##um": 709,
      "##ear": 710,
      "##ate": 711,
      "##ts": 712,
      "are": 713,
      "have": 714,
      "de": 715,
      "has": 716,
      "ex": 717,
      "##ity": 718,
      "se": 719,
      "from": 720,
      "##ore": 721,
      "##if": 722,
      "this": 723,
      "by": 724,
      "##ab": 725,
      "le": 726,
      "##iv": 727,
      "but": 728,
      "##un": 729,
      "cou": 730,
      "##ment": 731,
      "not": 732,
      "sp": 733,
      "##ies": 734,
      "##art": 735,
      "go": 736,
      "##ort": 737,
      "pl": 738,
      "##ust": 739,
      "20": 740,
      "##ive": 741,
      "ab": 742,
      "##all": 743,
      "##ast": 744,
      "they": 745,
      "##ack": 746,
      "##ia": 747,
      "or": 748,
      "##ial": 749,
      "##ight": 750,
      "##ant": 751,
      "##ist": 752,
      "af": 753,
      "##gh": 754,
      "un": 755,
      "##end": 756,
      "wor": 757,
      "##ok": 758,
      "she": 759,
      "##ost": 760,
      "##ard": 761,
      "en": 762,
      "ar": 763,
      "will": 764,
      "her": 765,
      "br": 766,
      "##ie": 767,
      "who": 768,
      "##out": 769,
      "year": 770,
      "##ome": 771,
      "##ap": 772,
      ".\"": 773,
      "##ect": 774,
      "##ud": 775,
      "##ik": 776,
      "\":": 777,
      "ad": 778,
      "##ell": 779,
      "im": 780,
      "cl": 781,
      "their": 782,
      "can": 783,
      "##our": 784,
      "out": 785,
      "##ich": 786,
      "ag": 787,
      "##her": 788,
      "all": 789,
      "up": 790,
      "off": 791,
      "me": 792,
      "had": 793,
      "ac": 794,
      "##ong": 795,
      "##ice": 796,
      "##ould": 797,
      "##ip": 798,
      "cr": 799,
      "##ound": 800,
      "gr": 801,
      "do": 802,
      "##ian": 803,
      "new": 804,
      "pro": 805,
      "##tr": 806,
      "been": 807,
      "so": 808,
      "##00": 809,
      "after": 810,
      "##ue": 811,
      "one": 812,
      "##ough": 813,
      "##ally": 814,
      "more": 815,
      "##ous": 816,
      "##ib": 817,
      "##ge": 818,
      "##one": 819,
      "##age": 820,
      "##ime": 821,
      "co": 822,
      "##ions": 823,
      "res": 824,
      "##ine": 825,
      "man": 826,
      "pe": 827,
      "rep": 828,
      "##ure": 829,
      "am": 830,
      "us": 831,
      "inc": 832,
      "were": 833,
      "about": 834,
      "##ub": 835,
      "there": 836,
      "exp": 837,
      "##so": 838,
      "##ated": 839,
      "##ame": 840,
      "##ide": 841,
      "##ish": 842,
      "lo": 843,
      "over": 844,
      "which": 845,
      "when": 846,
      "dr": 847,
      "also": 848,
      "##ays": 849,
      "##ake": 850,
      "qu": 851,
      "comp": 852,
      "##ans": 853,
      "##ary": 854,
      "str": 855,
      "##av": 856,
      "int": 857,
      "202": 858,
      "##ord": 859,
      "##ond": 860,
      "sc": 861,
      "##ff": 862,
      "pol": 863,
      "part": 864,
      "ev": 865,
      "##au": 866,
      "##ence": 867,
      "##pt": 868,
      "##ber": 869,
      "lik": 870,
      "##ign": 871,
      "##ely": 872,
      "peop": 873,
      "no": 874,
      "people": 875,
      "just": 876,
      "##ace": 877,
      "\":\"": 878,
      "would": 879,
      "tw": 880,
      "fir": 881,
      "per": 882,
      "##own": 883,
      "my": 884,
      "its": 885,
      "bl": 886,
      "##ach": 887,
      "##ile": 888,
      "fe": 889,
      "##ind": 890,
      "if": 891,
      "##ther": 892,
      "rec": 893,
      "get": 894,
      "app": 895,
      "dis": 896,
      "##ick": 897,
      "what": 898,
      "car": 899,
      "##act": 900,
      "acc": 901,
      "##ents": 902,
      "time": 903,
      "##ire": 904,
      "ro": 905,
      "##ock": 906,
      "##ance": 907,
      "some": 908,
      "than": 909,
      "mar": 910,
      "bec": 911,
      "##ict": 912,
      "work": 913,
      "##ail": 914,
      "how": 915,
      "te": 916,
      "##qu": 917,
      "ind": 918,
      "##ass": 919,
      "pres": 920,
      "med": 921,
      "first": 922,
      "##ations": 923,
      "kn": 924,
      "form": 925,
      "coun": 926,
      "like": 927,
      "##able": 928,
      "##ens": 929,
      "##day": 930,
      "##ep": 931,
      "uk": 932,
      "##oss": 933,
      "##aw": 934,
      "two": 935,
      "##gr": 936,
      "them": 937,
      "##ite": 938,
      "##ree": 939,
      "pre": 940,
      "##ump": 941,
      "bo": 942,
      "into": 943,
      "##ident": 944,
      "##iz": 945,
      "##ink": 946,
      "dec": 947,
      "##ning": 948,
      "##orm": 949,
      "##ose": 950,
      "sec": 951,
      "ever": 952,
      "play": 953,
      "him": 954,
      "##ty": 955,
      "##oll": 956,
      "ser": 957,
      "gu": 958,
      "our": 959,
      "##ek": 960,
      "comm": 961,
      "##ra": 962,
      "back": 963,
      "##ied": 964,
      "em": 965,
      "##ild": 966,
      "##amp": 967,
      "jo": 968,
      "inter": 969,
      "act": 970,
      "##lect": 971,
      "##ase": 972,
      "imp": 973,
      ",\"\"": 974,
      "##ical": 975,
      "##uc": 976,
      "##reat": 977,
      "could": 978,
      "##ro": 979,
      "min": 980,
      "##ors": 981,
      "ma": 982,
      "add": 983,
      "last": 984,
      "your": 985,
      "any": 986,
      "##ubl": 987,
      "##ade": 988,
      "att": 989,
      "##ting": 990,
      "fl": 991,
      "again": 992,
      "rel": 993,
      "now": 994,
      "und": 995,
      "other": 996,
      "##ition": 997,
      "par": 998,
      "years": 999,
      "##ang": 1000,
      "cont": 1001,
      "##ious": 1002,
      "mo": 1003,
      "trump": 1004,
      "inv": 1005,
      "##old": 1006,
      "##lud": 1007,
      "##enc": 1008,
      "wid": 1009,
      "mon": 1010,
      "##oun": 1011,
      "fin": 1012,
      "##ory": 1013,
      "don": 1014,
      "##ings": 1015,
      "op": 1016,
      "##ult": 1017,
      "##iver": 1018,
      "##ause": 1019,
      "##ates": 1020,
      "des": 1021,
      "##land": 1022,
      "##ps": 1023,
      "under": 1024,
      "##uring": 1025,
      "##urn": 1026,
      "while": 1027,
      "did": 1028,
      "bet": 1029,
      "hel": 1030,
      "show": 1031,
      "##fore": 1032,
      "##ery": 1033,
      "ph": 1034,
      "##ood": 1035,
      "thr": 1036,
      "##ry": 1037,
      "includ": 1038,
      "ke": 1039,
      "supp": 1040,
      "every": 1041,
      "president": 1042,
      "##other": 1043,
      "##anc": 1044,
      "high": 1045,
      "po": 1046,
      "before": 1047,
      "##og": 1048,
      "##iss": 1049,
      "week": 1050,
      "##form": 1051,
      "ve": 1052,
      "##uct": 1053,
      "##ater": 1054,
      "aut": 1055,
      "width": 1056,
      "rem": 1057,
      "media": 1058,
      "cons": 1059,
      "##als": 1060,
      "may": 1061,
      "##hing": 1062,
      "gover": 1063,
      "##ved": 1064,
      "##fer": 1065,
      "being": 1066,
      "##aking": 1067,
      "only": 1068,
      "war": 1069,
      "##itt": 1070,
      "where": 1071,
      "##ft": 1072,
      "need": 1073,
      "govern": 1074,
      "even": 1075,
      "##ath": 1076,
      "19": 1077,
      "most": 1078,
      "elect": 1079,
      "look": 1080,
      "##we": 1081,
      "lead": 1082,
      "##az": 1083,
      "##wn": 1084,
      "then": 1085,
      "##ug": 1086,
      "because": 1087,
      "call": 1088,
      "##ife": 1089,
      "ear": 1090,
      "##ublic": 1091,
      "##{\"": 1092,
      "##ational": 1093,
      "##pl": 1094,
      "wr": 1095,
      "cent": 1096,
      "##ily": 1097,
      "##int": 1098,
      "day": 1099,
      "fam": 1100,
      "ass": 1101,
      "##ating": 1102,
      "reg": 1103,
      "think": 1104,
      "##ise": 1105,
      "cour": 1106,
      "##uch": 1107,
      "##atch": 1108,
      "##are": 1109,
      "##erm": 1110,
      "world": 1111,
      "end": 1112,
      "dem": 1113,
      "##ince": 1114,
      "##uss": 1115,
      "def": 1116,
      "##pr": 1117,
      "##ason": 1118,
      "win": 1119,
      "##ah": 1120,
      "##xt": 1121,
      "##ful": 1122,
      "sch": 1123,
      "##ks": 1124,
      "##arg": 1125,
      "want": 1126,
      "make": 1127,
      "during": 1128,
      "say": 1129,
      "against": 1130,
      "down": 1131,
      "bu": 1132,
      "##ities": 1133,
      "##vel": 1134,
      "mr": 1135,
      "long": 1136,
      "three": 1137,
      "##oth": 1138,
      "know": 1139,
      "##ement": 1140,
      "##ality": 1141,
      "sm": 1142,
      "well": 1143,
      "##ier": 1144,
      "##cc": 1145,
      "many": 1146,
      "these": 1147,
      "countr": 1148,
      "##ward": 1149,
      "month": 1150,
      "##aster": 1151,
      "through": 1152,
      "##ited": 1153,
      "state": 1154,
      "##ving": 1155,
      "col": 1156,
      "##erson": 1157,
      "##elf": 1158,
      "government": 1159,
      "##ues": 1160,
      "##red": 1161,
      "har": 1162,
      "sur": 1163,
      "ht": 1164,
      "##ix": 1165,
      "##ash": 1166,
      "told": 1167,
      "##air": 1168,
      "##ne": 1169,
      "team": 1170,
      "made": 1171,
      "201": 1172,
      "##sp": 1173,
      "offic": 1174,
      "those": 1175,
      "going": 1176,
      "inst": 1177,
      "set": 1178,
      "old": 1179,
      "way": 1180,
      "home": 1181,
      "##iew": 1182,
      "see": 1183,
      "ret": 1184,
      "##les": 1185,
      "very": 1186,
      "star": 1187,
      "##hip": 1188,
      "##illion": 1189,
      "since": 1190,
      "wom": 1191,
      "gen": 1192,
      "report": 1193,
      "law": 1194,
      "own": 1195,
      "contr": 1196,
      "start": 1197,
      "##ote": 1198,
      "says": 1199,
      "around": 1200,
      "child": 1201,
      "good": 1202,
      "isra": 1203,
      "israel": 1204,
      "should": 1205,
      "bel": 1206,
      "##,{\"": 1207,
      "##ister": 1208,
      "##ased": 1209,
      "##ert": 1210,
      "sign": 1211,
      "cap": 1212,
      "##any": 1213,
      "2024": 1214,
      "sl": 1215,
      "##ouse": 1216,
      "found": 1217,
      "gl": 1218,
      "take": 1219,
      "del": 1220,
      "el": 1221,
      "help": 1222,
      "still": 1223,
      "resp": 1224,
      "sy": 1225,
      "run": 1226,
      "##ower": 1227,
      "much": 1228,
      "##led": 1229,
      "##ked": 1230,
      "##way": 1231,
      "##ope": 1232,
      "##br": 1233,
      "##ons": 1234,
      "##alth": 1235,
      "##ner": 1236,
      "conf": 1237,
      "##oy": 1238,
      "former": 1239,
      "support": 1240,
      "invest": 1241,
      "##ected": 1242,
      "##und": 1243,
      "four": 1244,
      "right": 1245,
      "bid": 1246,
      "##ather": 1247,
      "##ible": 1248,
      "000": 1249,
      "##ets": 1250,
      "including": 1251,
      "##ific": 1252,
      "##eric": 1253,
      "##ollow": 1254,
      "##ether": 1255,
      "mod": 1256,
      "big": 1257,
      "life": 1258,
      "id": 1259,
      "##imes": 1260,
      "##ives": 1261,
      "follow": 1262,
      "10": 1263,
      "dif": 1264,
      "mem": 1265,
      "put": 1266,
      "another": 1267,
      "eng": 1268,
      "##iel": 1269,
      "##ording": 1270,
      "fit": 1271,
      "##ool": 1272,
      "camp": 1273,
      "##gan": 1274,
      "americ": 1275,
      "##man": 1276,
      "##ering": 1277,
      "##ular": 1278,
      "##ures": 1279,
      "sw": 1280,
      "air": 1281,
      "##bs": 1282,
      "##tps": 1283,
      ":/": 1284,
      "##ics": 1285,
      "://": 1286,
      "second": 1287,
      "https": 1288,
      "##orts": 1289,
      "country": 1290,
      "##ange": 1291,
      "##oot": 1292,
      "##ned": 1293,
      "##ress": 1294,
      "post": 1295,
      "leg": 1296,
      "such": 1297,
      "##ott": 1298,
      "cle": 1299,
      "city": 1300,
      "contin": 1301,
      "##its": 1302,
      "##hn": 1303,
      "dep": 1304,
      "##ames": 1305,
      "sou": 1306,
      "mil": 1307,
      "spe": 1308,
      "open": 1309,
      "##up": 1310,
      "##ene": 1311,
      "really": 1312,
      "ed": 1313,
      "far": 1314,
      "##ently": 1315,
      "ann": 1316,
      "##ments": 1317,
      "max": 1318,
      "##ling": 1319,
      "according": 1320,
      "soc": 1321,
      "##ought": 1322,
      "police": 1323,
      "##ised": 1324,
      "family": 1325,
      "grou": 1326,
      "jp": 1327,
      "##ters": 1328,
      "quality": 1329,
      "polit": 1330,
      "happ": 1331,
      "##ying": 1332,
      "##ween": 1333,
      "news": 1334,
      "game": 1335,
      "between": 1336,
      "person": 1337,
      "##ages": 1338,
      "bus": 1339,
      "feel": 1340,
      "##ual": 1341,
      "##ven": 1342,
      "russ": 1343,
      "##omet": 1344,
      "##eral": 1345,
      "##con": 1346,
      "house": 1347,
      "##ative": 1348,
      "##ves": 1349,
      "##med": 1350,
      "inf": 1351,
      "##side": 1352,
      "public": 1353,
      "##20": 1354,
      "##ank": 1355,
      "head": 1356,
      "does": 1357,
      "##ton": 1358,
      "##ility": 1359,
      "sr": 1360,
      "hand": 1361,
      "biden": 1362,
      "red": 1363,
      "##ices": 1364,
      "best": 1365,
      "char": 1366,
      "##ric": 1367,
      "both": 1368,
      "eff": 1369,
      "##ble": 1370,
      "health": 1371,
      "trans": 1372,
      "court": 1373,
      "##ced": 1374,
      "##ys": 1375,
      "##ged": 1376,
      "##ady": 1377,
      "##ull": 1378,
      "stud": 1379,
      "nor": 1380,
      "##ants": 1381,
      "##ital": 1382,
      "##aim": 1383,
      "##alk": 1384,
      "##ever": 1385,
      "##ared": 1386,
      "fil": 1387,
      "##ale": 1388,
      "bre": 1389,
      "la": 1390,
      "det": 1391,
      "prod": 1392,
      "season": 1393,
      "master": 1394,
      "##irect": 1395,
      "added": 1396,
      "##ave": 1397,
      "left": 1398,
      "loc": 1399,
      "party": 1400,
      "##..": 1401,
      "prot": 1402,
      "##iving": 1403,
      "care": 1404,
      "##io": 1405,
      "cur": 1406,
      "##ead": 1407,
      "here": 1408,
      "direct": 1409,
      "##ork": 1410,
      "##ee": 1411,
      "##ered": 1412,
      "guim": 1413,
      "mark": 1414,
      "##let": 1415,
      "jpg": 1416,
      "##eng": 1417,
      "conc": 1418,
      "sim": 1419,
      "##ision": 1420,
      "come": 1421,
      "prov": 1422,
      "src": 1423,
      "sk": 1424,
      "##rain": 1425,
      "bar": 1426,
      "iss": 1427,
      "disc": 1428,
      "plan": 1429,
      "auto": 1430,
      "next": 1431,
      "##ief": 1432,
      "##ren": 1433,
      "somet": 1434,
      "sen": 1435,
      "got": 1436,
      "##40": 1437,
      "opp": 1438,
      "##son": 1439,
      "##iend": 1440,
      "attack": 1441,
      "##per": 1442,
      "##ris": 1443,
      "great": 1444,
      "serv": 1445,
      "exper": 1446,
      "##ivers": 1447,
      "national": 1448,
      "claim": 1449,
      "12": 1450,
      "arr": 1451,
      "##ina": 1452,
      "...": 1453,
      "ra": 1454,
      "format": 1455,
      "##line": 1456,
      "##ency": 1457,
      "lot": 1458,
      "adv": 1459,
      "cor": 1460,
      "##ished": 1461,
      "top": 1462,
      "##ists": 1463,
      "prev": 1464,
      "never": 1465,
      "met": 1466,
      "too": 1467,
      "##ody": 1468,
      "official": 1469,
      "near": 1470,
      "spec": 1471,
      "##ocr": 1472,
      "pass": 1473,
      "stat": 1474,
      "prop": 1475,
      "0_": 1476,
      "##iness": 1477,
      "##ph": 1478,
      "##ines": 1479,
      "##ield": 1480,
      "women": 1481,
      "##istr": 1482,
      "school": 1483,
      "##erg": 1484,
      "##ount": 1485,
      "num": 1486,
      "find": 1487,
      "##ually": 1488,
      "miss": 1489,
      "img": 1490,
      "same": 1491,
      "commun": 1492,
      "pay": 1493,
      "minister": 1494,
      "##ior": 1495,
      "election": 1496,
      "however": 1497,
      "place": 1498,
      "strong": 1499,
      "mus": 1500,
      "group": 1501,
      "##pe": 1502,
      "##ng": 1503,
      "democr": 1504,
      "##ember": 1505,
      "##over": 1506,
      "##ness": 1507,
      "##com": 1508,
      "fac": 1509,
      "ukrain": 1510,
      "##be": 1511,
      "gre": 1512,
      "##augh": 1513,
      "##ele": 1514,
      "##used": 1515,
      "##res": 1516,
      "expl": 1517,
      "##akes": 1518,
      "##mer": 1519,
      "vot": 1520,
      "##ways": 1521,
      "##ecut": 1522,
      "##urs": 1523,
      "##att": 1524,
      "art": 1525,
      "##olog": 1526,
      "differ": 1527,
      "children": 1528,
      "##ax": 1529,
      "days": 1530,
      "##bers": 1531,
      "million": 1532,
      "##ury": 1533,
      "eur": 1534,
      "15": 1535,
      "##aign": 1536,
      "five": 1537,
      "cond": 1538,
      "##ained": 1539,
      "sub": 1540,
      "block": 1541,
      "real": 1542,
      "##ially": 1543,
      "##ark": 1544,
      "campaign": 1545,
      "##ats": 1546,
      "##ret": 1547,
      "##ird": 1548,
      "vis": 1549,
      "##ral": 1550,
      "##ern": 1551,
      "##orn": 1552,
      "use": 1553,
      "rest": 1554,
      "kill": 1555,
      "av": 1556,
      "power": 1557,
      "cre": 1558,
      "##thing": 1559,
      "prom": 1560,
      "sing": 1561,
      "young": 1562,
      "##ience": 1563,
      "##ional": 1564,
      "stand": 1565,
      "south": 1566,
      "ref": 1567,
      "social": 1568,
      "business": 1569,
      "adm": 1570,
      "times": 1571,
      "##ism": 1572,
      "appear": 1573,
      "friend": 1574,
      "maj": 1575,
      "},{\"": 1576,
      "turn": 1577,
      "incre": 1578,
      "##ights": 1579,
      "case": 1580,
      "##aff": 1581,
      "intern": 1582,
      "##ross": 1583,
      "called": 1584,
      "foot": 1585,
      "##ety": 1586,
      "##,\"": 1587,
      "lab": 1588,
      "keep": 1589,
      "##gest": 1590,
      "company": 1591,
      "cost": 1592,
      "rele": 1593,
      "night": 1594,
      "##view": 1595,
      "##atur": 1596,
      "##iam": 1597,
      "##oney": 1598,
      "aff": 1599,
      "across": 1600,
      "econ": 1601,
      "prof": 1602,
      "econom": 1603,
      "ob": 1604,
      "##ined": 1605,
      "##err": 1606,
      "hard": 1607,
      "vict": 1608,
      "press": 1609,
      "few": 1610,
      "let": 1611,
      "later": 1612,
      "##unch": 1613,
      "beh": 1614,
      "##atic": 1615,
      "hal": 1616,
      "term": 1617,
      "won": 1618,
      "##ived": 1619,
      "##gress": 1620,
      "ris": 1621,
      "##ued": 1622,
      "didn": 1623,
      "ste": 1624,
      "deb": 1625,
      "six": 1626,
      "litt": 1627,
      "pos": 1628,
      "things": 1629,
      "##ms": 1630,
      "30": 1631,
      "##ains": 1632,
      "##app": 1633,
      "ir": 1634,
      "love": 1635,
      "used": 1636,
      "major": 1637,
      "##cr": 1638,
      "away": 1639,
      "always": 1640,
      "pat": 1641,
      "##80": 1642,
      "pop": 1643,
      "point": 1644,
      "##iting": 1645,
      "mom": 1646,
      "seen": 1647,
      "##der": 1648,
      "sit": 1649,
      "took": 1650,
      "##60": 1651,
      "build": 1652,
      "something": 1653,
      "ll": 1654,
      "11": 1655,
      "hum": 1656,
      "months": 1657,
      "##ont": 1658,
      "without": 1659,
      "mid": 1660,
      "##uck": 1661,
      "##ney": 1662,
      "##earch": 1663,
      "##ald": 1664,
      "##osp": 1665,
      "##ute": 1666,
      "200": 1667,
      "sever": 1668,
      "est": 1669,
      "##iday": 1670,
      "grow": 1671,
      "##wh": 1672,
      "little": 1673,
      "mean": 1674,
      "why": 1675,
      "##ately": 1676,
      "##velop": 1677,
      "sum": 1678,
      "ins": 1679,
      "##ins": 1680,
      "stre": 1681,
      "having": 1682,
      "reported": 1683,
      "record": 1684,
      "each": 1685,
      "##itch": 1686,
      "##ention": 1687,
      "##self": 1688,
      "##iven": 1689,
      "milit": 1690,
      "##ob": 1691,
      "##ush": 1692,
      "united": 1693,
      "came": 1694,
      "manag": 1695,
      "return": 1696,
      "mor": 1697,
      "cal": 1698,
      "brit": 1699,
      "##aring": 1700,
      "belie": 1701,
      "might": 1702,
      "pal": 1703,
      "quest": 1704,
      "rece": 1705,
      "secur": 1706,
      "##ces": 1707,
      "##ri": 1708,
      "test": 1709,
      "##opp": 1710,
      "pa": 1711,
      "final": 1712,
      "vi": 1713,
      "develop": 1714,
      "45": 1715,
      "##enn": 1716,
      "phot": 1717,
      "hist": 1718,
      "),": 1719,
      "oper": 1720,
      "black": 1721,
      "curr": 1722,
      "##ike": 1723,
      "hour": 1724,
      "wed": 1725,
      "17": 1726,
      "making": 1727,
      "requ": 1728,
      "men": 1729,
      "vide": 1730,
      "##stem": 1731,
      "announ": 1732,
      "unt": 1733,
      "water": 1734,
      "along": 1735,
      "val": 1736,
      "saf": 1737,
      "##osed": 1738,
      "##lement": 1739,
      "better": 1740,
      "##ester": 1741,
      "watch": 1742,
      "##bc": 1743,
      "money": 1744,
      "model": 1745,
      "past": 1746,
      "allow": 1747,
      "##af": 1748,
      "##uary": 1749,
      "##ject": 1750,
      "republic": 1751,
      "auth": 1752,
      "##ians": 1753,
      "partic": 1754,
      "proc": 1755,
      "##ov": 1756,
      "went": 1757,
      "move": 1758,
      "meet": 1759,
      "ball": 1760,
      "##ew": 1761,
      "face": 1762,
      "##ple": 1763,
      "exc": 1764,
      "##30": 1765,
      "states": 1766,
      "net": 1767,
      "##ague": 1768,
      "##ands": 1769,
      "##ten": 1770,
      "today": 1771,
      "clear": 1772,
      "political": 1773,
      "main": 1774,
      "import": 1775,
      "ap": 1776,
      "\"}": 1777,
      "less": 1778,
      "##ending": 1779,
      "polic": 1780,
      "es": 1781,
      "product": 1782,
      "fund": 1783,
      "##nes": 1784,
      "##iously": 1785,
      "system": 1786,
      "death": 1787,
      "free": 1788,
      "hit": 1789,
      ".'": 1790,
      "alle": 1791,
      "perform": 1792,
      "tec": 1793,
      "event": 1794,
      "##oke": 1795,
      "sal": 1796,
      "##aken": 1797,
      "deal": 1798,
      "ext": 1799,
      "##atter": 1800,
      "following": 1801,
      "2023": 1802,
      "alre": 1803,
      "2022": 1804,
      "working": 1805,
      "already": 1806,
      "though": 1807,
      "white": 1808,
      "##ution": 1809,
      "games": 1810,
      "pict": 1811,
      "office": 1812,
      "poss": 1813,
      "harris": 1814,
      "until": 1815,
      "local": 1816,
      "happen": 1817,
      "##str": 1818,
      "half": 1819,
      "##aining": 1820,
      "change": 1821,
      "jan": 1822,
      "pot": 1823,
      "##ift": 1824,
      "##ball": 1825,
      "level": 1826,
      "##rem": 1827,
      "fact": 1828,
      "different": 1829,
      "host": 1830,
      "early": 1831,
      "##ipp": 1832,
      "india": 1833,
      "##ided": 1834,
      "number": 1835,
      "##cept": 1836,
      "crit": 1837,
      "##sh": 1838,
      "infl": 1839,
      "##ured": 1840,
      "investig": 1841,
      "ur": 1842,
      "security": 1843,
      "asked": 1844,
      ").": 1845,
      "reve": 1846,
      "ukraine": 1847,
      "full": 1848,
      "jud": 1849,
      "doc": 1850,
      "third": 1851,
      "##ley": 1852,
      "18": 1853,
      "##ection": 1854,
      "john": 1855,
      "view": 1856,
      "interest": 1857,
      "north": 1858,
      "york": 1859,
      "##dd": 1860,
      "inj": 1861,
      "fur": 1862,
      "gaz": 1863,
      "##ham": 1864,
      "cut": 1865,
      "organ": 1866,
      "ham": 1867,
      "europe": 1868,
      "food": 1869,
      "wrote": 1870,
      "##ically": 1871,
      "##ony": 1872,
      "##35": 1873,
      "read": 1874,
      "match": 1875,
      "##ient": 1876,
      "side": 1877,
      "author": 1878,
      "sol": 1879,
      "among": 1880,
      "west": 1881,
      "##ata": 1882,
      "##acy": 1883,
      "fed": 1884,
      "##ired": 1885,
      "small": 1886,
      "appro": 1887,
      "american": 1888,
      "##rist": 1889,
      "##redit": 1890,
      "live": 1891,
      "univers": 1892,
      "club": 1893,
      "sent": 1894,
      "military": 1895,
      "desp": 1896,
      "ant": 1897,
      "chang": 1898,
      "##utes": 1899,
      "##elling": 1900,
      "terr": 1901,
      "##ann": 1902,
      "##by": 1903,
      "yet": 1904,
      "##ably": 1905,
      "recent": 1906,
      "once": 1907,
      "jun": 1908,
      "must": 1909,
      "##ea": 1910,
      "list": 1911,
      "league": 1912,
      "film": 1913,
      "tax": 1914,
      "sun": 1915,
      "known": 1916,
      "hold": 1917,
      "chief": 1918,
      "bill": 1919,
      "whether": 1920,
      "##45": 1921,
      "depart": 1922,
      "sn": 1923,
      "chall": 1924,
      "##less": 1925,
      "line": 1926,
      "sug": 1927,
      "seem": 1928,
      "become": 1929,
      "ca": 1930,
      "##ploy": 1931,
      "25": 1932,
      "hol": 1933,
      "il": 1934,
      "trav": 1935,
      "book": 1936,
      "##gram": 1937,
      "##wards": 1938,
      "video": 1939,
      "gaza": 1940,
      "short": 1941,
      "tog": 1942,
      "##ential": 1943,
      "##ects": 1944,
      "able": 1945,
      "champ": 1946,
      "ms": 1947,
      "international": 1948,
      "members": 1949,
      "based": 1950,
      "##elt": 1951,
      "13": 1952,
      "class": 1953,
      "russia": 1954,
      "several": 1955,
      "series": 1956,
      "fut": 1957,
      "##ising": 1958,
      "##ances": 1959,
      "together": 1960,
      "##ements": 1961,
      "##ized": 1962,
      "##inal": 1963,
      "##ense": 1964,
      "earl": 1965,
      "##erv": 1966,
      "viol": 1967,
      "85": 1968,
      "##ones": 1969,
      "england": 1970,
      "fans": 1971,
      "consid": 1972,
      "##bo": 1973,
      "given": 1974,
      "##10": 1975,
      "##ots": 1976,
      "fire": 1977,
      "ty": 1978,
      "##ified": 1979,
      "statement": 1980,
      "despite": 1981,
      "sund": 1982,
      "saying": 1983,
      "photo": 1984,
      "getting": 1985,
      "often": 1986,
      "##ended": 1987,
      "succ": 1988,
      "comes": 1989,
      "##ize": 1990,
      "50": 1991,
      "taking": 1992,
      "give": 1993,
      "##ases": 1994,
      "##ature": 1995,
      "step": 1996,
      "wal": 1997,
      "ju": 1998,
      "due": 1999,
      "##71": 2000,
      "opt": 2001,
      "##igr": 2002,
      "14": 2003,
      "ah": 2004,
      "##ru": 2005,
      "sex": 2006,
      "mond": 2007,
      "##25": 2008,
      "##co": 2009,
      "inform": 2010,
      "aust": 2011,
      "oct": 2012,
      "compet": 2013,
      "mur": 2014,
      "charg": 2015,
      "ge": 2016,
      "reach": 2017,
      "##ints": 2018,
      "##ison": 2019,
      "process": 2020,
      "cand": 2021,
      "market": 2022,
      "least": 2023,
      "hosp": 2024,
      "##0_": 2025,
      "##els": 2026,
      "further": 2027,
      "future": 2028,
      "cele": 2029,
      "##aph": 2030,
      "gener": 2031,
      "taken": 2032,
      "service": 2033,
      "lond": 2034,
      "christ": 2035,
      "important": 2036,
      "success": 2037,
      "reveal": 2038,
      "##ortun": 2039,
      "##89": 2040,
      "##ively": 2041,
      "page": 2042,
      "##ane": 2043,
      "decision": 2044,
      "hot": 2045,
      "looking": 2046,
      "london": 2047,
      "earlier": 2048,
      "eas": 2049,
      "players": 2050,
      "##ba": 2051,
      "##ences": 2052,
      "che": 2053,
      "##ination": 2054,
      "launch": 2055,
      "monday": 2056,
      "foc": 2057,
      "##idence": 2058,
      "##ator": 2059,
      "leaders": 2060,
      "##ugg": 2061,
      "##cent": 2062,
      "bit": 2063,
      "##esh": 2064,
      "invol": 2065,
      "talk": 2066,
      "doing": 2067,
      "thing": 2068,
      "ago": 2069,
      "led": 2070,
      "fall": 2071,
      "##itions": 2072,
      "key": 2073,
      "sunday": 2074,
      "dou": 2075,
      "rul": 2076,
      "friday": 2077,
      "##15": 2078,
      "##thers": 2079,
      "##36": 2080,
      "human": 2081,
      "cert": 2082,
      "##play": 2083,
      "fail": 2084,
      "officials": 2085,
      "##ards": 2086,
      "celebr": 2087,
      "thought": 2088,
      "proble": 2089,
      "##irl": 2090,
      "land": 2091,
      "likely": 2092,
      "##72": 2093,
      "break": 2094,
      "moment": 2095,
      "ban": 2096,
      "conv": 2097,
      "secret": 2098,
      "special": 2099,
      "16": 2100,
      "fight": 2101,
      "tues": 2102,
      "enough": 2103,
      "equ": 2104,
      "area": 2105,
      "expected": 2106,
      "started": 2107,
      "role": 2108,
      "mc": 2109,
      "tuesday": 2110,
      "relations": 2111,
      "kind": 2112,
      "##ium": 2113,
      "60": 2114,
      "done": 2115,
      "targ": 2116,
      "others": 2117,
      "hom": 2118,
      "suggest": 2119,
      "underst": 2120,
      "design": 2121,
      "##crib": 2122,
      "100": 2123,
      "##my": 2124,
      "##</": 2125,
      "##vers": 2126,
      "indust": 2127,
      "ang": 2128,
      "threat": 2129,
      "dev": 2130,
      "imm": 2131,
      "china": 2132,
      "alm": 2133,
      "##32": 2134,
      "data": 2135,
      "arg": 2136,
      "bas": 2137,
      "research": 2138,
      "cust": 2139,
      "##90": 2140,
      "##lex": 2141,
      "##bl": 2142,
      "program": 2143,
      "text": 2144,
      "story": 2145,
      "wa": 2146,
      "gold": 2147,
      "##credit": 2148,
      "##port": 2149,
      "candid": 2150,
      "tal": 2151,
      "getty": 2152,
      "general": 2153,
      "university": 2154,
      "close": 2155,
      "behind": 2156,
      "##par": 2157,
      "hope": 2158,
      "woman": 2159,
      "community": 2160,
      "within": 2161,
      "lim": 2162,
      "sure": 2163,
      "jour": 2164,
      "bring": 2165,
      "park": 2166,
      "hours": 2167,
      "techn": 2168,
      "##ming": 2169,
      "coming": 2170,
      "##go": 2171,
      "##get": 2172,
      "di": 2173,
      "signific": 2174,
      "wednes": 2175,
      "##ored": 2176,
      "weeks": 2177,
      "##99": 2178,
      "son": 2179,
      "##gin": 2180,
      "cho": 2181,
      "##ival": 2182,
      "den": 2183,
      "mess": 2184,
      "deep": 2185,
      "##mp": 2186,
      "bro": 2187,
      "wednesday": 2188,
      "doesn": 2189,
      "##ories": 2190,
      "continue": 2191,
      "##inc": 2192,
      "complet": 2193,
      "port": 2194,
      "priv": 2195,
      "##lic": 2196,
      "##eck": 2197,
      "energ": 2198,
      "played": 2199,
      "##ublished": 2200,
      "los": 2201,
      "conn": 2202,
      "treat": 2203,
      "body": 2204,
      "using": 2205,
      "russian": 2206,
      "fre": 2207,
      "##imate": 2208,
      "thurs": 2209,
      "tot": 2210,
      "##itted": 2211,
      "##ides": 2212,
      "everything": 2213,
      "job": 2214,
      "comment": 2215,
      "images": 2216,
      "staff": 2217,
      "thursday": 2218,
      "fun": 2219,
      "##ke": 2220,
      "israeli": 2221,
      "40": 2222,
      "girl": 2223,
      "##aps": 2224,
      "lat": 2225,
      "##ench": 2226,
      "march": 2227,
      "history": 2228,
      "almost": 2229,
      "heart": 2230,
      "ent": 2231,
      "##empt": 2232,
      "kid": 2233,
      "mother": 2234,
      "occ": 2235,
      "##ensive": 2236,
      "trying": 2237,
      "announced": 2238,
      "dpr": 2239,
      "susp": 2240,
      "bord": 2241,
      "tit": 2242,
      "##ech": 2243,
      "##use": 2244,
      "name": 2245,
      "enter": 2246,
      "reason": 2247,
      "fore": 2248,
      "financ": 2249,
      "##ove": 2250,
      "capt": 2251,
      "larg": 2252,
      "shared": 2253,
      "arrest": 2254,
      "stay": 2255,
      "##ram": 2256,
      "super": 2257,
      "donald": 2258,
      "ey": 2259,
      "prime": 2260,
      "##ops": 2261,
      "repres": 2262,
      "##16": 2263,
      "cam": 2264,
      "everyone": 2265,
      "bad": 2266,
      "low": 2267,
      "experience": 2268,
      "trad": 2269,
      "access": 2270,
      "road": 2271,
      "department": 2272,
      "bank": 2273,
      "colle": 2274,
      "pick": 2275,
      "var": 2276,
      "esp": 2277,
      "killed": 2278,
      "friends": 2279,
      "particular": 2280,
      "summer": 2281,
      "significant": 2282,
      "director": 2283,
      "\"},{\"": 2284,
      "saw": 2285,
      "ahead": 2286,
      "pros": 2287,
      "leader": 2288,
      "policy": 2289,
      "lar": 2290,
      "##ults": 2291,
      "admin": 2292,
      "share": 2293,
      "interview": 2294,
      "canc": 2295,
      "mich": 2296,
      "glob": 2297,
      "energy": 2298,
      "shar": 2299,
      "##ission": 2300,
      "music": 2301,
      "points": 2302,
      "satur": 2303,
      "bene": 2304,
      "vote": 2305,
      "front": 2306,
      "##ted": 2307,
      "field": 2308,
      "someone": 2309,
      "##uge": 2310,
      "enc": 2311,
      "##graph": 2312,
      "##eal": 2313,
      "space": 2314,
      "room": 2315,
      "dam": 2316,
      "deliver": 2317,
      "##83": 2318,
      "##19": 2319,
      "percent": 2320,
      "apr": 2321,
      "fav": 2322,
      "##aut": 2323,
      "##17": 2324,
      "activ": 2325,
      "##orr": 2326,
      "cover": 2327,
      "minutes": 2328,
      "age": 2329,
      "impro": 2330,
      "##que": 2331,
      "round": 2332,
      "san": 2333,
      "##ried": 2334,
      "confir": 2335,
      "dead": 2336,
      "picture": 2337,
      "tour": 2338,
      "##aly": 2339,
      "employ": 2340,
      "federal": 2341,
      "mass": 2342,
      "pet": 2343,
      "ens": 2344,
      "##aged": 2345,
      "coach": 2346,
      "const": 2347,
      "##ners": 2348,
      "init": 2349,
      "question": 2350,
      "ident": 2351,
      "late": 2352,
      "football": 2353,
      "price": 2354,
      "##okes": 2355,
      "june": 2356,
      "lost": 2357,
      "labour": 2358,
      "##85": 2359,
      "action": 2360,
      "##uce": 2361,
      "##thern": 2362,
      "tell": 2363,
      "saturday": 2364,
      "clos": 2365,
      "mag": 2366,
      "austral": 2367,
      "element": 2368,
      "pur": 2369,
      "##te": 2370,
      "certain": 2371,
      "##ler": 2372,
      "aw": 2373,
      "describ": 2374,
      "career": 2375,
      "##ober": 2376,
      "lear": 2377,
      "wind": 2378,
      "outside": 2379,
      "quick": 2380,
      "##39": 2381,
      "##ateg": 2382,
      "grand": 2383,
      "##amed": 2384,
      "wanted": 2385,
      "mult": 2386,
      "##ring": 2387,
      "concern": 2388,
      "##ability": 2389,
      "prem": 2390,
      "risk": 2391,
      "coll": 2392,
      "nation": 2393,
      "try": 2394,
      "##ai": 2395,
      "##itive": 2396,
      "distr": 2397,
      "sept": 2398,
      "##12": 2399,
      "october": 2400,
      "image": 2401,
      "july": 2402,
      "tem": 2403,
      "walk": 2404,
      "hospital": 2405,
      "agre": 2406,
      "ground": 2407,
      "24": 2408,
      "##fic": 2409,
      "online": 2410,
      "dav": 2411,
      "control": 2412,
      "opportun": 2413,
      "execut": 2414,
      "abs": 2415,
      "visit": 2416,
      "administr": 2417,
      "##ape": 2418,
      "issues": 2419,
      "##rend": 2420,
      "##iff": 2421,
      "instead": 2422,
      "sour": 2423,
      "repl": 2424,
      "##aced": 2425,
      "dot": 2426,
      "held": 2427,
      "aug": 2428,
      "british": 2429,
      "tre": 2430,
      "profess": 2431,
      "##oci": 2432,
      "afric": 2433,
      "speak": 2434,
      "vir": 2435,
      "revealed": 2436,
      "##ger": 2437,
      "##ators": 2438,
      "ple": 2439,
      "custom": 2440,
      "##ips": 2441,
      "forward": 2442,
      "nearly": 2443,
      "##66": 2444,
      "cred": 2445,
      "suff": 2446,
      "couple": 2447,
      "##ented": 2448,
      "##lin": 2449,
      "services": 2450,
      "germ": 2451,
      "##yl": 2452,
      "legal": 2453,
      "##ology": 2454,
      "fig": 2455,
      "impact": 2456,
      "felt": 2457,
      "running": 2458,
      "means": 2459,
      "associ": 2460,
      "countries": 2461,
      "##sel": 2462,
      "counc": 2463,
      "dist": 2464,
      "word": 2465,
      "billion": 2466,
      "seven": 2467,
      "playing": 2468,
      "##mber": 2469,
      "##ilar": 2470,
      "##ef": 2471,
      "bur": 2472,
      "pain": 2473,
      "tur": 2474,
      "foreign": 2475,
      "voters": 2476,
      "fal": 2477,
      "poll": 2478,
      "2020": 2479,
      "effect": 2480,
      "div": 2481,
      "relationship": 2482,
      "nove": 2483,
      "building": 2484,
      "morning": 2485,
      "november": 2486,
      "palest": 2487,
      "cult": 2488,
      "washing": 2489,
      "january": 2490,
      "##uel": 2491,
      "##ental": 2492,
      "course": 2493,
      "quar": 2494,
      "2021": 2495,
      "information": 2496,
      "congress": 2497,
      "believe": 2498,
      "0_0_": 2499,
      "april": 2500,
      "##88": 2501,
      "order": 2502,
      "dom": 2503,
      "##nal": 2504,
      "##ca": 2505,
      "##aces": 2506,
      "avail": 2507,
      "##da": 2508,
      "stop": 2509,
      "##asing": 2510,
      "living": 2511,
      "addition": 2512,
      "border": 2513,
      "civ": 2514,
      "er": 2515,
      "wife": 2516,
      "shows": 2517,
      "green": 2518,
      "bal": 2519,
      "scot": 2520,
      "roy": 2521,
      "republican": 2522,
      "##tra": 2523,
      "result": 2524,
      "race": 2525,
      "geor": 2526,
      "##rendering": 2527,
      "makes": 2528,
      "eight": 2529,
      "dotcom": 2530,
      "##type": 2531,
      "##,\"\"": 2532,
      "east": 2533,
      "target": 2534,
      "_type": 2535,
      "##elements": 2536,
      "prim": 2537,
      "recently": 2538,
      "pageelements": 2539,
      "dotcomrendering": 2540,
      "died": 2541,
      "hon": 2542,
      "##aughter": 2543,
      "loss": 2544,
      "##ars": 2545,
      "understand": 2546,
      "financial": 2547,
      "ask": 2548,
      "35": 2549,
      "##uation": 2550,
      "##ither": 2551,
      "expect": 2552,
      "squ": 2553,
      "mot": 2554,
      "non": 2555,
      "trial": 2556,
      "</": 2557,
      "king": 2558,
      "##han": 2559,
      "began": 2560,
      ",'": 2561,
      "wasn": 2562,
      "que": 2563,
      "##44": 2564,
      "prosecut": 2565,
      "##27": 2566,
      "tom": 2567,
      "##yn": 2568,
      "##ml": 2569,
      "##fl": 2570,
      "##oph": 2571,
      "##yle": 2572,
      "large": 2573,
      "hun": 2574,
      "famil": 2575,
      "street": 2576,
      "##set": 2577,
      "##ama": 2578,
      "##rupt": 2579,
      "global": 2580,
      "address": 2581,
      "champions": 2582,
      "light": 2583,
      "rich": 2584,
      "##oud": 2585,
      "plans": 2586,
      "became": 2587,
      "released": 2588,
      "creat": 2589,
      "##24": 2590,
      "possible": 2591,
      "mill": 2592,
      "ai": 2593,
      "offer": 2594,
      "joe": 2595,
      "town": 2596,
      "seek": 2597,
      "env": 2598,
      "##block": 2599,
      "##ream": 2600,
      "leav": 2601,
      "detail": 2602,
      "##ox": 2603,
      "##dle": 2604,
      "cross": 2605,
      "elementid": 2606,
      "##ender": 2607,
      "##ference": 2608,
      "issue": 2609,
      "washington": 2610,
      "compan": 2611,
      "rights": 2612,
      "true": 2613,
      "alleged": 2614,
      "father": 2615,
      "nothing": 2616,
      "council": 2617,
      "scott": 2618,
      "collect": 2619,
      "soon": 2620,
      "students": 2621,
      "##ises": 2622,
      "espec": 2623,
      "fell": 2624,
      "civil": 2625,
      "##ims": 2626,
      "tv": 2627,
      "##iding": 2628,
      "strugg": 2629,
      "especially": 2630,
      "##ode": 2631,
      "anything": 2632,
      "##idents": 2633,
      "proper": 2634,
      "presidential": 2635,
      "##bb": 2636,
      "##icket": 2637,
      "respond": 2638,
      "america": 2639,
      "bud": 2640,
      "lives": 2641,
      "##joy": 2642,
      "##ests": 2643,
      "player": 2644,
      "democratic": 2645,
      "focus": 2646,
      "iran": 2647,
      "##element": 2648,
      "needs": 2649,
      "##blockelement": 2650,
      "22": 2651,
      "##uction": 2652,
      "##86": 2653,
      "##ades": 2654,
      "island": 2655,
      "##ulation": 2656,
      "mind": 2657,
      "##ban": 2658,
      "latest": 2659,
      "##iod": 2660,
      "scotland": 2661,
      "travel": 2662,
      "benef": 2663,
      "21": 2664,
      "conserv": 2665,
      "actually": 2666,
      "similar": 2667,
      "available": 2668,
      "##erc": 2669,
      "discuss": 2670,
      "dig": 2671,
      "##enal": 2672,
      "gar": 2673,
      "leave": 2674,
      "decl": 2675,
      "mis": 2676,
      "##ma": 2677,
      "board": 2678,
      "diffic": 2679,
      "##for": 2680,
      "ce": 2681,
      "himself": 2682,
      "hamas": 2683,
      "account": 2684,
      "contrib": 2685,
      "else": 2686,
      "enjoy": 2687,
      "dest": 2688,
      "oly": 2689,
      "amaz": 2690,
      "bir": 2691,
      "industry": 2692,
      "vill": 2693,
      "attempt": 2694,
      "meeting": 2695,
      "olymp": 2696,
      "rate": 2697,
      "##ows": 2698,
      "broad": 2699,
      "aud": 2700,
      "false": 2701,
      "##oring": 2702,
      "aver": 2703,
      "##lo": 2704,
      "##fully": 2705,
      "ep": 2706,
      "vo": 2707,
      "##oint": 2708,
      "safety": 2709,
      "self": 2710,
      "##por": 2711,
      "september": 2712,
      "ul": 2713,
      "respons": 2714,
      "quarter": 2715,
      "sil": 2716,
      "##iter": 2717,
      "##iety": 2718,
      "##ha": 2719,
      "prob": 2720,
      "parents": 2721,
      "##e5": 2722,
      "cup": 2723,
      "##medi": 2724,
      "##ength": 2725,
      "approach": 2726,
      "##14": 2727,
      "heav": 2728,
      "##uced": 2729,
      "justice": 2730,
      "crim": 2731,
      "bab": 2732,
      "track": 2733,
      "html": 2734,
      "##attle": 2735,
      "##ex": 2736,
      "##body": 2737,
      "review": 2738,
      "potential": 2739,
      "hop": 2740,
      "##rew": 2741,
      "european": 2742,
      "stage": 2743,
      "spokes": 2744,
      "position": 2745,
      "period": 2746,
      "educ": 2747,
      "plat": 2748,
      "hus": 2749,
      "##18": 2750,
      "##agram": 2751,
      "##iple": 2752,
      "economic": 2753,
      "##field": 2754,
      "current": 2755,
      "administration": 2756,
      "##000": 2757,
      "county": 2758,
      "##ify": 2759,
      "indian": 2760,
      ">,\"\"": 2761,
      "neg": 2762,
      "drug": 2763,
      "instagram": 2764,
      "companies": 2765,
      "##26": 2766,
      "##atives": 2767,
      "meas": 2768,
      "dog": 2769,
      "reports": 2770,
      "hy": 2771,
      "##33": 2772,
      "##uff": 2773,
      "compl": 2774,
      "calif": 2775,
      "august": 2776,
      "rather": 2777,
      "##ron": 2778,
      "pract": 2779,
      "express": 2780,
      "needed": 2781,
      "##49": 2782,
      "box": 2783,
      "sold": 2784,
      "quite": 2785,
      "leading": 2786,
      "single": 2787,
      "rad": 2788,
      "inside": 2789,
      "buy": 2790,
      "##work": 2791,
      "goal": 2792,
      "project": 2793,
      "rock": 2794,
      "immedi": 2795,
      "gun": 2796,
      "claimed": 2797,
      "region": 2798,
      "bow": 2799,
      "prison": 2800,
      "pan": 2801,
      "##epend": 2802,
      "##gn": 2803,
      "ho": 2804,
      "jack": 2805,
      "ten": 2806,
      "vol": 2807,
      "pack": 2808,
      "##ends": 2809,
      "anyone": 2810,
      "received": 2811,
      "difficult": 2812,
      "independ": 2813,
      "##selves": 2814,
      "lib": 2815,
      "challeng": 2816,
      "sle": 2817,
      "beaut": 2818,
      "agency": 2819,
      "fear": 2820,
      "\":\"<": 2821,
      "##opped": 2822,
      "##anger": 2823,
      "##not": 2824,
      "orig": 2825,
      "worth": 2826,
      "include": 2827,
      "personal": 2828,
      "##irc": 2829,
      "protect": 2830,
      "investigation": 2831,
      "##oon": 2832,
      "##band": 2833,
      "##atures": 2834,
      "provide": 2835,
      "represent": 2836,
      "?\"": 2837,
      "link": 2838,
      "draw": 2839,
      "sup": 2840,
      "incident": 2841,
      "##sw": 2842,
      "##ada": 2843,
      "central": 2844,
      "palestin": 2845,
      "##onse": 2846,
      "shot": 2847,
      "##ivid": 2848,
      "capital": 2849,
      "wel": 2850,
      "brand": 2851,
      "workers": 2852,
      "previously": 2853,
      "intr": 2854,
      "##icle": 2855,
      "##aper": 2856,
      "oppos": 2857,
      "daughter": 2858,
      "centre": 2859,
      "continued": 2860,
      "##lish": 2861,
      "##arr": 2862,
      "alth": 2863,
      "charac": 2864,
      "cy": 2865,
      "##ural": 2866,
      "##ky": 2867,
      "shoot": 2868,
      "##95": 2869,
      "response": 2870,
      "economy": 2871,
      "huge": 2872,
      "although": 2873,
      "hur": 2874,
      "force": 2875,
      "##iron": 2876,
      "performance": 2877,
      "##uit": 2878,
      "##ibility": 2879,
      "##de": 2880,
      "cris": 2881,
      "##iec": 2882,
      "##ese": 2883,
      "prior": 2884,
      "sports": 2885,
      "development": 2886,
      "##owd": 2887,
      "californ": 2888,
      "platform": 2889,
      "##read": 2890,
      "private": 2891,
      "currently": 2892,
      "##ees": 2893,
      "docum": 2894,
      "push": 2895,
      "ran": 2896,
      "insp": 2897,
      "claims": 2898,
      "popular": 2899,
      "tim": 2900,
      "isn": 2901,
      "attr": 2902,
      "present": 2903,
      "matter": 2904,
      "##cd": 2905,
      "whole": 2906,
      "showed": 2907,
      "2019": 2908,
      "##fa": 2909,
      "guard": 2910,
      "assist": 2911,
      "medical": 2912,
      "higher": 2913,
      "##ule": 2914,
      "accused": 2915,
      "##reme": 2916,
      "hous": 2917,
      "mad": 2918,
      "thous": 2919,
      "##f5": 2920,
      "middle": 2921,
      "bbc": 2922,
      "forces": 2923,
      "##back": 2924,
      "nom": 2925,
      "##b0": 2926,
      "wrong": 2927,
      "laws": 2928,
      "judge": 2929,
      "##ges": 2930,
      "##ened": 2931,
      "evidence": 2932,
      "individ": 2933,
      "increase": 2934,
      "##ging": 2935,
      "environ": 2936,
      "surpr": 2937,
      "total": 2938,
      "##ients": 2939,
      "secretary": 2940,
      "##oor": 2941,
      "##ster": 2942,
      "veh": 2943,
      "wall": 2944,
      "##ala": 2945,
      "california": 2946,
      "perf": 2947,
      "examp": 2948,
      "lu": 2949,
      "##iant": 2950,
      "winning": 2951,
      "23": 2952,
      "ach": 2953,
      "union": 2954,
      "circ": 2955,
      "##ara": 2956,
      "demand": 2957,
      "dan": 2958,
      "remains": 2959,
      "card": 2960,
      "sound": 2961,
      "chance": 2962,
      "confirmed": 2963,
      "aid": 2964,
      "paris": 2965,
      "'.": 2966,
      "weight": 2967,
      "longer": 2968,
      "trust": 2969,
      "worked": 2970,
      "release": 2971,
      "growth": 2972,
      "fair": 2973,
      "happened": 2974,
      "##umb": 2975,
      "##la": 2976,
      "hear": 2977,
      "ver": 2978,
      "december": 2979,
      "member": 2980,
      "david": 2981,
      "##a0": 2982,
      "##f0": 2983,
      "##ening": 2984,
      "problem": 2985,
      "happy": 2986,
      "strateg": 2987,
      "victory": 2988,
      "william": 2989,
      "title": 2990,
      "li": 2991,
      "##omm": 2992,
      "speaking": 2993,
      "camer": 2994,
      "500": 2995,
      "##na": 2996,
      "emerg": 2997,
      "lower": 2998,
      "results": 2999,
      "##hi": 3000,
      "critic": 3001,
      "26": 3002,
      "pair": 3003,
      "fa": 3004,
      "##ugh": 3005,
      "begin": 3006,
      "areas": 3007,
      "climate": 3008,
      "##while": 3009,
      "##75": 3010,
      "ord": 3011,
      "parl": 3012,
      "france": 3013,
      "kids": 3014,
      "husband": 3015,
      "cast": 3016,
      "##iger": 3017,
      "gave": 3018,
      "##ford": 3019,
      "unf": 3020,
      "involved": 3021,
      "reb": 3022,
      "whose": 3023,
      "journal": 3024,
      "rob": 3025,
      "pressure": 3026,
      "manager": 3027,
      "environment": 3028,
      "boy": 3029,
      "instit": 3030,
      "bed": 3031,
      "##ogn": 3032,
      "comb": 3033,
      "situation": 3034,
      "rev": 3035,
      "spot": 3036,
      "remain": 3037,
      "influ": 3038,
      "swe": 3039,
      "##cast": 3040,
      "biggest": 3041,
      "turned": 3042,
      "royal": 3043,
      "chair": 3044,
      "brought": 3045,
      "##icted": 3046,
      "phone": 3047,
      "textblockelement": 3048,
      "mal": 3049,
      "song": 3050,
      "commission": 3051,
      "particularly": 3052,
      "sam": 3053,
      "##eg": 3054,
      "##lus": 3055,
      "angel": 3056,
      "unc": 3057,
      "amb": 3058,
      "events": 3059,
      "doct": 3060,
      "either": 3061,
      "anti": 3062,
      "consum": 3063,
      "##ilt": 3064,
      "senior": 3065,
      "##leg": 3066,
      "##aging": 3067,
      "##orters": 3068,
      "spent": 3069,
      "##rop": 3070,
      "sport": 3071,
      "##enced": 3072,
      "touch": 3073,
      "##70": 3074,
      "average": 3075,
      "center": 3076,
      "idea": 3077,
      "entire": 3078,
      "##emic": 3079,
      "cases": 3080,
      "\":[": 3081,
      "##mas": 3082,
      "##where": 3083,
      "authorities": 3084,
      "probably": 3085,
      "norm": 3086,
      "easy": 3087,
      "french": 3088,
      "costs": 3089,
      "parliam": 3090,
      "##2f": 3091,
      "heard": 3092,
      "##ael": 3093,
      "##ilities": 3094,
      "violence": 3095,
      "##hold": 3096,
      "##ico": 3097,
      "families": 3098,
      "peace": 3099,
      "experi": 3100,
      "##ana": 3101,
      "phys": 3102,
      "clean": 3103,
      "speech": 3104,
      "stock": 3105,
      "esc": 3106,
      "cancer": 3107,
      "parliament": 3108,
      "pred": 3109,
      "neigh": 3110,
      "##ya": 3111,
      "recogn": 3112,
      "via": 3113,
      "mov": 3114,
      "meanwhile": 3115,
      "prices": 3116,
      "pret": 3117,
      "credit": 3118,
      "neighb": 3119,
      "##oid": 3120,
      "mart": 3121,
      "nine": 3122,
      "febr": 3123,
      "phil": 3124,
      "concerns": 3125,
      "sat": 3126,
      "##87": 3127,
      "##hood": 3128,
      "tried": 3129,
      "previous": 3130,
      "range": 3131,
      "extra": 3132,
      "described": 3133,
      "james": 3134,
      "shock": 3135,
      "scre": 3136,
      "february": 3137,
      "rac": 3138,
      "##a5": 3139,
      "prep": 3140,
      ".</": 3141,
      "wild": 3142,
      "##istan": 3143,
      "elections": 3144,
      "democrats": 3145,
      "published": 3146,
      "budget": 3147,
      "##11": 3148,
      "##34": 3149,
      "##ining": 3150,
      "towards": 3151,
      "check": 3152,
      "##akers": 3153,
      "strik": 3154,
      "executive": 3155,
      "fest": 3156,
      "##ores": 3157,
      "refer": 3158,
      "example": 3159,
      "##ev": 3160,
      "##oming": 3161,
      "ensure": 3162,
      "thousands": 3163,
      "beat": 3164,
      "included": 3165,
      "takes": 3166,
      "##ecess": 3167,
      "oil": 3168,
      "rout": 3169,
      "##wood": 3170,
      "##eth": 3171,
      "##ruct": 3172,
      "##isplay": 3173,
      "defense": 3174,
      "##ett": 3175,
      "photograph": 3176,
      "australia": 3177,
      "committ": 3178,
      "achie": 3179,
      "majority": 3180,
      "opportunity": 3181,
      "perfect": 3182,
      "emb": 3183,
      "attacks": 3184,
      "organiz": 3185,
      "##uted": 3186,
      "unl": 3187,
      "conditions": 3188,
      "criminal": 3189,
      "##ession": 3190,
      "scr": 3191,
      "efforts": 3192,
      "##eline": 3193,
      "arm": 3194,
      "growing": 3195,
      "sect": 3196,
      "birth": 3197,
      "rom": 3198,
      "appeared": 3199,
      "immigr": 3200,
      "danger": 3201,
      "piec": 3202,
      "wants": 3203,
      "##ida": 3204,
      "questions": 3205,
      "##isl": 3206,
      "common": 3207,
      "weekend": 3208,
      "favour": 3209,
      "challen": 3210,
      "blood": 3211,
      "sense": 3212,
      "lack": 3213,
      "ess": 3214,
      "accept": 3215,
      "drink": 3216,
      "knew": 3217,
      "serious": 3218,
      "launched": 3219,
      "primary": 3220,
      "christmas": 3221,
      "cit": 3222,
      "##68": 3223,
      "crisis": 3224,
      "kick": 3225,
      "roll": 3226,
      "##a9": 3227,
      "britain": 3228,
      "ful": 3229,
      "sel": 3230,
      "##idge": 3231,
      "progress": 3232,
      "improve": 3233,
      "cause": 3234,
      "search": 3235,
      "beach": 3236,
      "tex": 3237,
      "looked": 3238,
      "80": 3239,
      "gone": 3240,
      "vers": 3241,
      "##iers": 3242,
      "training": 3243,
      "district": 3244,
      "ben": 3245,
      "migr": 3246,
      "arrested": 3247,
      "multiple": 3248,
      "leaving": 3249,
      "je": 3250,
      "##bert": 3251,
      "##room": 3252,
      "officers": 3253,
      "changes": 3254,
      "crowd": 3255,
      "themselves": 3256,
      "consider": 3257,
      "africa": 3258,
      "##light": 3259,
      "##tern": 3260,
      "regular": 3261,
      "##mb": 3262,
      "##tain": 3263,
      "##aur": 3264,
      "##come": 3265,
      "allowed": 3266,
      "groups": 3267,
      "sea": 3268,
      "adding": 3269,
      "create": 3270,
      "paid": 3271,
      "fan": 3272,
      "##cement": 3273,
      "crime": 3274,
      "##ato": 3275,
      "answ": 3276,
      "##action": 3277,
      "debate": 3278,
      "oh": 3279,
      "##fort": 3280,
      "attor": 3281,
      "obv": 3282,
      "vice": 3283,
      "weap": 3284,
      "27": 3285,
      "fast": 3286,
      "princ": 3287,
      "terms": 3288,
      "##65": 3289,
      "candidate": 3290,
      "##fr": 3291,
      "quickly": 3292,
      "mat": 3293,
      "199": 3294,
      "carry": 3295,
      "flor": 3296,
      "officer": 3297,
      "respect": 3298,
      "increasing": 3299,
      "hall": 3300,
      "##48": 3301,
      "##bur": 3302,
      "legisl": 3303,
      "ath": 3304,
      "pand": 3305,
      "partners": 3306,
      "inflation": 3307,
      "date": 3308,
      "strike": 3309,
      "conduct": 3310,
      "constit": 3311,
      "##oken": 3312,
      "bott": 3313,
      "ready": 3314,
      "estab": 3315,
      "rules": 3316,
      "natur": 3317,
      "committee": 3318,
      "dut": 3319,
      "##me": 3320,
      "##64": 3321,
      "##aker": 3322,
      "exist": 3323,
      "remember": 3324,
      "##22": 3325,
      "doub": 3326,
      "college": 3327,
      "##ament": 3328,
      "wond": 3329,
      "##ortion": 3330,
      "partner": 3331,
      "discover": 3332,
      "mer": 3333,
      "moved": 3334,
      "sometimes": 3335,
      "##off": 3336,
      "study": 3337,
      "helped": 3338,
      "americans": 3339,
      "hands": 3340,
      "histor": 3341,
      "hund": 3342,
      "conference": 3343,
      "looks": 3344,
      "bag": 3345,
      "storm": 3346,
      "##pm": 3347,
      "##chester": 3348,
      "##ae": 3349,
      "cannot": 3350,
      "firm": 3351,
      "charges": 3352,
      "hundred": 3353,
      "investment": 3354,
      "typ": 3355,
      "decades": 3356,
      "smith": 3357,
      "posted": 3358,
      "opening": 3359,
      "paul": 3360,
      "ill": 3361,
      "niger": 3362,
      "anim": 3363,
      "teams": 3364,
      "determ": 3365,
      "28": 3366,
      "##62": 3367,
      "##person": 3368,
      "##ension": 3369,
      "##nings": 3370,
      "##ishing": 3371,
      "decided": 3372,
      "alongside": 3373,
      "fourth": 3374,
      "vac": 3375,
      "##ply": 3376,
      "fill": 3377,
      "site": 3378,
      "##ij": 3379,
      "recover": 3380,
      "eg": 3381,
      "##essed": 3382,
      "##ny": 3383,
      "gard": 3384,
      "##aught": 3385,
      "treatment": 3386,
      "customers": 3387,
      "eth": 3388,
      "##f7": 3389,
      "repe": 3390,
      "blue": 3391,
      "talking": 3392,
      "education": 3393,
      "ol": 3394,
      "rates": 3395,
      "rise": 3396,
      "##vid": 3397,
      "amount": 3398,
      "giving": 3399,
      "safe": 3400,
      "pitch": 3401,
      "scene": 3402,
      "tradition": 3403,
      "kam": 3404,
      "##using": 3405,
      "disapp": 3406,
      "commit": 3407,
      "technology": 3408,
      "save": 3409,
      "amid": 3410,
      "actor": 3411,
      "surv": 3412,
      "##inese": 3413,
      "##inated": 3414,
      "reflect": 3415,
      "29": 3416,
      "dail": 3417,
      "mos": 3418,
      "##ka": 3419,
      "works": 3420,
      "bey": 3421,
      "weather": 3422,
      "hill": 3423,
      "ways": 3424,
      "##uth": 3425,
      "myself": 3426,
      "politics": 3427,
      "value": 3428,
      "##estern": 3429,
      "daily": 3430,
      "ele": 3431,
      "ram": 3432,
      "##den": 3433,
      "chinese": 3434,
      "property": 3435,
      "##ding": 3436,
      "##lear": 3437,
      "michael": 3438,
      "character": 3439,
      "##isc": 3440,
      "emot": 3441,
      "##fir": 3442,
      "##dr": 3443,
      "##istic": 3444,
      "tele": 3445,
      "##78": 3446,
      "introd": 3447,
      "bst": 3448,
      "fox": 3449,
      "##ena": 3450,
      "separ": 3451,
      "source": 3452,
      "##kn": 3453,
      "##ibly": 3454,
      "##ipped": 3455,
      "fem": 3456,
      "ire": 3457,
      "##c0": 3458,
      "##ites": 3459,
      "coast": 3460,
      "ukrainian": 3461,
      "dream": 3462,
      "##uing": 3463,
      "##c5": 3464,
      "##ino": 3465,
      "##iles": 3466,
      "summ": 3467,
      "gas": 3468,
      "sens": 3469,
      "hotel": 3470,
      "eu": 3471,
      "nav": 3472,
      "trade": 3473,
      "contact": 3474,
      "absol": 3475,
      "sleep": 3476,
      "mum": 3477,
      "##uries": 3478,
      "goes": 3479,
      "##ikt": 3480,
      "award": 3481,
      "ps": 3482,
      "##iet": 3483,
      "##down": 3484,
      "##itor": 3485,
      "above": 3486,
      "##apan": 3487,
      "skin": 3488,
      "##opping": 3489,
      "homes": 3490,
      "baby": 3491,
      "##\\\"": 3492,
      "##owing": 3493,
      "specific": 3494,
      "particip": 3495,
      "##going": 3496,
      "cook": 3497,
      "##ceed": 3498,
      "immediately": 3499,
      "##69": 3500,
      "trip": 3501,
      "##istry": 3502,
      "2025": 3503,
      "sched": 3504,
      "followed": 3505,
      "failed": 3506,
      "##uses": 3507,
      "arch": 3508,
      "stra": 3509,
      "starting": 3510,
      "production": 3511,
      "maybe": 3512,
      "ireland": 3513,
      "obs": 3514,
      "itself": 3515,
      "email": 3516,
      "ended": 3517,
      "products": 3518,
      "message": 3519,
      "japan": 3520,
      "##elled": 3521,
      "digital": 3522,
      "##bd": 3523,
      "manchester": 3524,
      "couldn": 3525,
      "sett": 3526,
      "challenge": 3527,
      "mac": 3528,
      "ut": 3529,
      "##b5": 3530,
      "lawy": 3531,
      "southern": 3532,
      ".,": 3533,
      "620": 3534,
      "=\\\"": 3535,
      "spending": 3536,
      "residents": 3537,
      "scottish": 3538,
      "drive": 3539,
      "championship": 3540,
      "445": 3541,
      "forced": 3542,
      "##haps": 3543,
      "convers": 3544,
      "attention": 3545,
      "confl": 3546,
      "murder": 3547,
      "mel": 3548,
      "prevent": 3549,
      "wood": 3550,
      "runs": 3551,
      "terror": 3552,
      "##outh": 3553,
      "605": 3554,
      "##ona": 3555,
      "levels": 3556,
      "appeal": 3557,
      "built": 3558,
      "##book": 3559,
      "alex": 3560,
      "cop": 3561,
      "##anch": 3562,
      "goals": 3563,
      "minute": 3564,
      "independent": 3565,
      "\":[{\"": 3566,
      "cash": 3567,
      "##fc": 3568,
      "kore": 3569,
      "heat": 3570,
      "perhaps": 3571,
      "raised": 3572,
      "\\\"": 3573,
      "feeling": 3574,
      "holiday": 3575,
      "opposition": 3576,
      "##ique": 3577,
      "##itter": 3578,
      "inn": 3579,
      "poor": 3580,
      "illeg": 3581,
      "300": 3582,
      "##ude": 3583,
      "gets": 3584,
      "encour": 3585,
      "aim": 3586,
      "path": 3587,
      "born": 3588,
      "rain": 3589,
      "calls": 3590,
      "spokesperson": 3591,
      "du": 3592,
      "lif": 3593,
      "sand": 3594,
      "offers": 3595,
      "explained": 3596,
      "base": 3597,
      "cas": 3598,
      "hair": 3599,
      "train": 3600,
      "upd": 3601,
      "electric": 3602,
      "germany": 3603,
      "pretty": 3604,
      "##aft": 3605,
      "##bed": 3606,
      "##arian": 3607,
      "##asion": 3608,
      "defence": 3609,
      "throughout": 3610,
      "citiz": 3611,
      "--": 3612,
      "strength": 3613,
      "lang": 3614,
      "largest": 3615,
      "vet": 3616,
      "republicans": 3617,
      "problems": 3618,
      "##iful": 3619,
      "cat": 3620,
      "sir": 3621,
      "##isions": 3622,
      "finally": 3623,
      "##he": 3624,
      "##entially": 3625,
      "words": 3626,
      "palestinian": 3627,
      "texas": 3628,
      "pers": 3629,
      "##d0": 3630,
      "webs": 3631,
      "surve": 3632,
      "premier": 3633,
      "sell": 3634,
      "comments": 3635,
      "schools": 3636,
      "sexual": 3637,
      "eye": 3638,
      "housing": 3639,
      "parties": 3640,
      "simply": 3641,
      "avoid": 3642,
      "conservative": 3643,
      "tough": 3644,
      "style": 3645,
      "defe": 3646,
      "freed": 3647,
      "details": 3648,
      "tikt": 3649,
      "##73": 3650,
      "##iction": 3651,
      "2016": 3652,
      "heavy": 3653,
      "tiktok": 3654,
      "##utions": 3655,
      "##ellig": 3656,
      "reached": 3657,
      "##yan": 3658,
      "##isation": 3659,
      "\":{\"": 3660,
      "includes": 3661,
      "lock": 3662,
      "tay": 3663,
      "##7b": 3664,
      "related": 3665,
      "effort": 3666,
      "leadership": 3667,
      "challenges": 3668,
      "##79": 3669,
      "ken": 3670,
      "named": 3671,
      "seems": 3672,
      "##lor": 3673,
      "regul": 3674,
      "wit": 3675,
      "intellig": 3676,
      "##of": 3677,
      "users": 3678,
      "flight": 3679,
      "cab": 3680,
      "mental": 3681,
      "western": 3682,
      "##jects": 3683,
      "restaur": 3684,
      "emergency": 3685,
      "conflict": 3686,
      "##lying": 3687,
      "jobs": 3688,
      "regard": 3689,
      "90": 3690,
      "##sequ": 3691,
      "noted": 3692,
      "sky": 3693,
      "sales": 3694,
      "johnson": 3695,
      "athlet": 3696,
      "traff": 3697,
      "compared": 3698,
      "injury": 3699,
      "mount": 3700,
      "##eless": 3701,
      "##aming": 3702,
      "seeing": 3703,
      "god": 3704,
      "spl": 3705,
      "thank": 3706,
      "attorney": 3707,
      "qual": 3708,
      "voice": 3709,
      "straight": 3710,
      "horr": 3711,
      "farm": 3712,
      "beyond": 3713,
      "spoke": 3714,
      "mob": 3715,
      "van": 3716,
      "sust": 3717,
      "exact": 3718,
      "##onstr": 3719,
      "choice": 3720,
      "!\"": 3721,
      "bom": 3722,
      "dark": 3723,
      "sad": 3724,
      "##ani": 3725,
      "putin": 3726,
      "meant": 3727,
      "kept": 3728,
      "assa": 3729,
      "behav": 3730,
      "rap": 3731,
      "##ypt": 3732,
      "##cl": 3733,
      "##iled": 3734,
      "chann": 3735,
      "warned": 3736,
      "boss": 3737,
      "incred": 3738,
      "##ounts": 3739,
      "##first": 3740,
      "alb": 3741,
      "dism": 3742,
      "harry": 3743,
      "changed": 3744,
      "store": 3745,
      "2018": 3746,
      "apart": 3747,
      "band": 3748,
      "station": 3749,
      "joined": 3750,
      "contract": 3751,
      "##e9": 3752,
      "movie": 3753,
      "##published": 3754,
      "alone": 3755,
      "fighting": 3756,
      "supreme": 3757,
      "ok": 3758,
      "##ago": 3759,
      "mex": 3760,
      "northern": 3761,
      "angeles": 3762,
      "##hs": 3763,
      "##enty": 3764,
      "experts": 3765,
      "><": 3766,
      "jew": 3767,
      "##ction": 3768,
      "door": 3769,
      "calling": 3770,
      "stars": 3771,
      "various": 3772,
      "##display": 3773,
      "enfor": 3774,
      "funding": 3775,
      "necess": 3776,
      "##eration": 3777,
      "##aded": 3778,
      "blockfirst": 3779,
      "wait": 3780,
      "blockfirstpublished": 3781,
      "stad": 3782,
      "content": 3783,
      "##ground": 3784,
      "##ki": 3785,
      "issued": 3786,
      "positive": 3787,
      "caused": 3788,
      "candidates": 3789,
      "pun": 3790,
      "covid": 3791,
      "evening": 3792,
      "##43": 3793,
      "features": 3794,
      "charge": 3795,
      "communities": 3796,
      "highest": 3797,
      "hor": 3798,
      "nations": 3799,
      "##ari": 3800,
      "reform": 3801,
      "boost": 3802,
      "##ours": 3803,
      "loved": 3804,
      "returned": 3805,
      "alleg": 3806,
      "beautiful": 3807,
      "battle": 3808,
      "##ifying": 3809,
      "impress": 3810,
      "##oo": 3811,
      "apple": 3812,
      "ministry": 3813,
      "signed": 3814,
      "florida": 3815,
      "stadium": 3816,
      "mater": 3817,
      "pul": 3818,
      "##urch": 3819,
      "##ams": 3820,
      "parts": 3821,
      "created": 3822,
      "increased": 3823,
      "required": 3824,
      "complain": 3825,
      "thom": 3826,
      "opened": 3827,
      "meaning": 3828,
      "70": 3829,
      "##agn": 3830,
      "##ander": 3831,
      "seat": 3832,
      "thinking": 3833,
      "senate": 3834,
      "##gu": 3835,
      "brown": 3836,
      "31": 3837,
      "bon": 3838,
      "##ously": 3839,
      "recall": 3840,
      "##ston": 3841,
      "indic": 3842,
      "georg": 3843,
      "##7f": 3844,
      "##airs": 3845,
      "slow": 3846,
      "kh": 3847,
      "##imately": 3848,
      "##ipt": 3849,
      "limited": 3850,
      "natural": 3851,
      "facing": 3852,
      "condition": 3853,
      "culture": 3854,
      "doll": 3855,
      "height": 3856,
      "appoint": 3857,
      "concer": 3858,
      "promot": 3859,
      "afford": 3860,
      "double": 3861,
      "website": 3862,
      "mic": 3863,
      "yes": 3864,
      "speed": 3865,
      "propos": 3866,
      "witness": 3867,
      "fat": 3868,
      "comfort": 3869,
      "passed": 3870,
      "victims": 3871,
      "extrem": 3872,
      "injured": 3873,
      "bul": 3874,
      "dad": 3875,
      "ton": 3876,
      "##sey": 3877,
      "brother": 3878,
      "ult": 3879,
      "sector": 3880,
      "lay": 3881,
      "##wor": 3882,
      "transport": 3883,
      "charged": 3884,
      "mix": 3885,
      "##asc": 3886,
      "##iance": 3887,
      "network": 3888,
      "hundreds": 3889,
      "narr": 3890,
      "##iat": 3891,
      "disp": 3892,
      "numbers": 3893,
      "epis": 3894,
      "attend": 3895,
      "feels": 3896,
      "produc": 3897,
      "faced": 3898,
      "river": 3899,
      "##ung": 3900,
      "pandemic": 3901,
      "taylor": 3902,
      "intelligence": 3903,
      "##ado": 3904,
      "missing": 3905,
      "recomm": 3906,
      "governor": 3907,
      "defin": 3908,
      "passeng": 3909,
      "ongoing": 3910,
      "deg": 3911,
      "display": 3912,
      "ven": 3913,
      "##amb": 3914,
      "fresh": 3915,
      "##anda": 3916,
      "##astic": 3917,
      "dress": 3918,
      "miles": 3919,
      "agreed": 3920,
      "society": 3921,
      "gm": 3922,
      "table": 3923,
      "##ania": 3924,
      "spir": 3925,
      "mcc": 3926,
      "critical": 3927,
      "##oti": 3928,
      "reality": 3929,
      "considered": 3930,
      "temper": 3931,
      "##c4": 3932,
      "moving": 3933,
      "subst": 3934,
      "patients": 3935,
      "estim": 3936,
      "shut": 3937,
      "doz": 3938,
      "medic": 3939,
      "insur": 3940,
      "additional": 3941,
      "hers": 3942,
      "pod": 3943,
      "rh": 3944,
      "cool": 3945,
      "teen": 3946,
      "counter": 3947,
      "##to": 3948,
      "initi": 3949,
      "george": 3950,
      "businesses": 3951,
      "policies": 3952,
      "eventually": 3953,
      "##f9": 3954,
      "##ci": 3955,
      "professional": 3956,
      "hearing": 3957,
      "imag": 3958,
      "kamala": 3959,
      "##ille": 3960,
      "provided": 3961,
      "##50": 3962,
      "tourn": 3963,
      "##anced": 3964,
      "##coming": 3965,
      "competition": 3966,
      "linked": 3967,
      "##inary": 3968,
      "income": 3969,
      "student": 3970,
      "repeated": 3971,
      "jail": 3972,
      "dise": 3973,
      "millions": 3974,
      "##ray": 3975,
      "##jp": 3976,
      "##olution": 3977,
      "army": 3978,
      "reportedly": 3979,
      "management": 3980,
      "cold": 3981,
      "rose": 3982,
      "##ancy": 3983,
      "##uf": 3984,
      "##ola": 3985,
      "##pped": 3986,
      "overall": 3987,
      "bi": 3988,
      "fle": 3989,
      "##sc": 3990,
      "##iced": 3991,
      "offered": 3992,
      "index": 3993,
      "##ification": 3994,
      "swift": 3995,
      "##ems": 3996,
      "batter": 3997,
      "##3d": 3998,
      "##uals": 3999,
      "##c9": 4000,
      "church": 4001,
      "applic": 4002,
      "airport": 4003,
      "learn": 4004,
      "associated": 4005,
      "bay": 4006,
      "pak": 4007,
      "abortion": 4008,
      "beg": 4009,
      "seats": 4010,
      "soft": 4011,
      "century": 4012,
      "smart": 4013,
      "##4b": 4014,
      "tro": 4015,
      "##ustr": 4016,
      "watching": 4017,
      "certainly": 4018,
      "figure": 4019,
      "figures": 4020,
      "amazon": 4021,
      "langu": 4022,
      "freedom": 4023,
      "defend": 4024,
      "winner": 4025,
      "english": 4026,
      "damage": 4027,
      "luck": 4028,
      "##_5": 4029,
      "##aries": 4030,
      "require": 4031,
      "rule": 4032,
      "##hen": 4033,
      "spread": 4034,
      "showing": 4035,
      "demonstr": 4036,
      "##erry": 4037,
      "##icles": 4038,
      "ones": 4039,
      "wouldn": 4040,
      "flood": 4041,
      "fash": 4042,
      "##eed": 4043,
      "##erve": 4044,
      "##rel": 4045,
      "analy": 4046,
      "coop": 4047,
      "modern": 4048,
      "wales": 4049,
      "shooting": 4050,
      "##ze": 4051,
      "count": 4052,
      "massive": 4053,
      "festival": 4054,
      "##unt": 4055,
      "spend": 4056,
      "##ghan": 4057,
      "##ickets": 4058,
      "serve": 4059,
      "communic": 4060,
      "reven": 4061,
      "prince": 4062,
      "##bing": 4063,
      "##atory": 4064,
      "expert": 4065,
      "flag": 4066,
      "annual": 4067,
      "planning": 4068,
      "holly": 4069,
      "options": 4070,
      "type": 4071,
      "##ey": 4072,
      "exch": 4073,
      "thanks": 4074,
      "##itten": 4075,
      "writing": 4076,
      "squad": 4077,
      "benefits": 4078,
      "negoti": 4079,
      "##oved": 4080,
      "trib": 4081,
      "owners": 4082,
      "continues": 4083,
      "injuries": 4084,
      "sale": 4085,
      "driving": 4086,
      "scen": 4087,
      "scored": 4088,
      "protest": 4089,
      "wonder": 4090,
      "32": 4091,
      "kar": 4092,
      "ars": 4093,
      "married": 4094,
      "tech": 4095,
      "rally": 4096,
      "##ries": 4097,
      "##itz": 4098,
      "fort": 4099,
      "shop": 4100,
      "contest": 4101,
      "request": 4102,
      "##ider": 4103,
      "spain": 4104,
      "schem": 4105,
      "penal": 4106,
      "##bi": 4107,
      "##arily": 4108,
      "tra": 4109,
      "places": 4110,
      "ability": 4111,
      "completely": 4112,
      "jump": 4113,
      "##ga": 4114,
      "winter": 4115,
      "queen": 4116,
      "obviously": 4117,
      "jones": 4118,
      "sem": 4119,
      "sister": 4120,
      "telling": 4121,
      "chel": 4122,
      "decade": 4123,
      "complete": 4124,
      "fully": 4125,
      "fashion": 4126,
      "fix": 4127,
      "##utely": 4128,
      "sav": 4129,
      "politic": 4130,
      "girls": 4131,
      "##pool": 4132,
      "##],\"": 4133,
      "usually": 4134,
      "document": 4135,
      "##round": 4136,
      "chic": 4137,
      "entr": 4138,
      "##reg": 4139,
      "resc": 4140,
      "twitter": 4141,
      "views": 4142,
      "connect": 4143,
      "##74": 4144,
      "haven": 4145,
      "crash": 4146,
      "cars": 4147,
      "##encies": 4148,
      "records": 4149,
      "row": 4150,
      "trail": 4151,
      "##osh": 4152,
      "teach": 4153,
      "warning": 4154,
      "population": 4155,
      "fif": 4156,
      "lou": 4157,
      "wide": 4158,
      "##oom": 4159,
      "##sea": 4160,
      "guil": 4161,
      "surround": 4162,
      "2017": 4163,
      "bjp": 4164,
      "penn": 4165,
      "exam": 4166,
      "becoming": 4167,
      "citizens": 4168,
      "liver": 4169,
      "##lines": 4170,
      "##28": 4171,
      "##uk": 4172,
      "franc": 4173,
      "pen": 4174,
      "size": 4175,
      "##jected": 4176,
      "operations": 4177,
      "designed": 4178,
      "physical": 4179,
      "36": 4180,
      "##har": 4181,
      "eyes": 4182,
      "\\\">": 4183,
      "##472": 4184,
      "leban": 4185,
      "served": 4186,
      "##overs": 4187,
      "purch": 4188,
      "agreement": 4189,
      "nature": 4190,
      "stories": 4191,
      "finish": 4192,
      "reduce": 4193,
      "restr": 4194,
      "bat": 4195,
      "##e6": 4196,
      "##aud": 4197,
      "plant": 4198,
      "arrived": 4199,
      "debt": 4200,
      "immigration": 4201,
      "guilty": 4202,
      "cere": 4203,
      "mir": 4204,
      "nuc": 4205,
      "constr": 4206,
      "supporters": 4207,
      "village": 4208,
      "##hib": 4209,
      "##1a": 4210,
      "##iny": 4211,
      "proud": 4212,
      "grant": 4213,
      "expand": 4214,
      "earth": 4215,
      "journey": 4216,
      "cn": 4217,
      "fine": 4218,
      "rang": 4219,
      "carol": 4220,
      "join": 4221,
      "color": 4222,
      "seeking": 4223,
      "screen": 4224,
      "pakistan": 4225,
      "rs": 4226,
      "wing": 4227,
      "letter": 4228,
      "mach": 4229,
      "##olf": 4230,
      "score": 4231,
      "##izz": 4232,
      "##ahu": 4233,
      "harm": 4234,
      "assault": 4235,
      "##makers": 4236,
      "infr": 4237,
      "suggested": 4238,
      "arsenal": 4239,
      "rub": 4240,
      "sar": 4241,
      "##ipl": 4242,
      "olympic": 4243,
      "illegal": 4244,
      "herself": 4245,
      "##vin": 4246,
      "##rect": 4247,
      "##owers": 4248,
      "##oles": 4249,
      "truth": 4250,
      "plus": 4251,
      "mort": 4252,
      "##ych": 4253,
      "##bn": 4254,
      "##asts": 4255,
      "resour": 4256,
      "weapons": 4257,
      "##friend": 4258,
      "48": 4259,
      "##e2": 4260,
      "driver": 4261,
      "##ological": 4262,
      "debut": 4263,
      "##apped": 4264,
      "original": 4265,
      "##estic": 4266,
      "acad": 4267,
      "##roy": 4268,
      "dangerous": 4269,
      "##iest": 4270,
      "##iring": 4271,
      "##ager": 4272,
      "##berg": 4273,
      "putting": 4274,
      "measures": 4275,
      "##ills": 4276,
      "committed": 4277,
      "retail": 4278,
      "nuclear": 4279,
      "catch": 4280,
      "##e8": 4281,
      "##zz": 4282,
      "stick": 4283,
      "absolutely": 4284,
      "##abor": 4285,
      "brief": 4286,
      "seemed": 4287,
      "talks": 4288,
      "gmt": 4289,
      "wil": 4290,
      "##d5": 4291,
      "closed": 4292,
      "camera": 4293,
      "version": 4294,
      "gather": 4295,
      "##cb": 4296,
      "wearing": 4297,
      "female": 4298,
      "era": 4299,
      "nick": 4300,
      "##gers": 4301,
      "shel": 4302,
      "altern": 4303,
      "champion": 4304,
      "waiting": 4305,
      "mike": 4306,
      "pm": 4307,
      "sort": 4308,
      "##31": 4309,
      "spring": 4310,
      "killing": 4311,
      "channel": 4312,
      "##orter": 4313,
      "syr": 4314,
      "singer": 4315,
      "admitted": 4316,
      "receive": 4317,
      "album": 4318,
      "comed": 4319,
      "abuse": 4320,
      "##ounds": 4321,
      "believed": 4322,
      "operation": 4323,
      "territ": 4324,
      "##ancing": 4325,
      "asking": 4326,
      "material": 4327,
      "burn": 4328,
      "khan": 4329,
      "tack": 4330,
      "##arks": 4331,
      "##ols": 4332,
      "older": 4333,
      "##izing": 4334,
      "ide": 4335,
      "normal": 4336,
      "paper": 4337,
      "allegations": 4338,
      "55": 4339,
      "wish": 4340,
      "engine": 4341,
      "article": 4342,
      "practice": 4343,
      "piece": 4344,
      "49": 4345,
      "##astruct": 4346,
      "##apt": 4347,
      "actions": 4348,
      "floor": 4349,
      "consist": 4350,
      "amazing": 4351,
      "bowl": 4352,
      "infrastruct": 4353,
      "die": 4354,
      "movement": 4355,
      "bod": 4356,
      "mist": 4357,
      "nice": 4358,
      "##82": 4359,
      "trou": 4360,
      "##ective": 4361,
      "drop": 4362,
      "99": 4363,
      "##lad": 4364,
      "##etic": 4365,
      "ship": 4366,
      "brain": 4367,
      "register": 4368,
      "standing": 4369,
      "williams": 4370,
      "veter": 4371,
      "##dy": 4372,
      "##acts": 4373,
      "scient": 4374,
      "##ictions": 4375,
      "##itely": 4376,
      "protection": 4377,
      "votes": 4378,
      "tournament": 4379,
      "##46": 4380,
      "##ask": 4381,
      "feature": 4382,
      "highlight": 4383,
      "advis": 4384,
      "achieve": 4385,
      "georgia": 4386,
      "33": 4387,
      "##oked": 4388,
      "easter": 4389,
      "gall": 4390,
      "##cing": 4391,
      "supporting": 4392,
      "denied": 4393,
      "##imum": 4394,
      "clearly": 4395,
      "holding": 4396,
      "losing": 4397,
      "pin": 4398,
      "rail": 4399,
      "suit": 4400,
      "##une": 4401,
      "martin": 4402,
      "ded": 4403,
      "fuel": 4404,
      "mention": 4405,
      "traditional": 4406,
      "infrastructure": 4407,
      "lands": 4408,
      "rough": 4409,
      "##c2": 4410,
      "##irt": 4411,
      "upon": 4412,
      "confidence": 4413,
      "deput": 4414,
      "moments": 4415,
      "german": 4416,
      "ceo": 4417,
      "emer": 4418,
      "benefit": 4419,
      "olympics": 4420,
      "jam": 4421,
      "##hol": 4422,
      "##cow": 4423,
      "coal": 4424,
      "decisions": 4425,
      "focused": 4426,
      "employees": 4427,
      "caught": 4428,
      "##bre": 4429,
      "stated": 4430,
      "transfer": 4431,
      "individuals": 4432,
      "##owled": 4433,
      "famous": 4434,
      "below": 4435,
      "democracy": 4436,
      "telev": 4437,
      "luc": 4438,
      "starmer": 4439,
      "simple": 4440,
      "organization": 4441,
      "ice": 4442,
      "##1b": 4443,
      "finished": 4444,
      "filed": 4445,
      "fields": 4446,
      "00": 4447,
      "din": 4448,
      "tens": 4449,
      "##ero": 4450,
      "stuff": 4451,
      "complex": 4452,
      "diagn": 4453,
      "occur": 4454,
      "shares": 4455,
      "nigeria": 4456,
      "kel": 4457,
      "##well": 4458,
      "##ires": 4459,
      "worse": 4460,
      "lose": 4461,
      "daniel": 4462,
      "jer": 4463,
      "##lam": 4464,
      "##6a": 4465,
      "ash": 4466,
      "span": 4467,
      "cruc": 4468,
      "netany": 4469,
      "allegedly": 4470,
      "vehicle": 4471,
      "ticket": 4472,
      "tow": 4473,
      "ackn": 4474,
      "##raft": 4475,
      "gives": 4476,
      "laugh": 4477,
      "##eing": 4478,
      "##omes": 4479,
      "##ume": 4480,
      "arab": 4481,
      "dropped": 4482,
      "guy": 4483,
      "appears": 4484,
      "labor": 4485,
      "dismiss": 4486,
      "netanyahu": 4487,
      "acknowled": 4488,
      "pac": 4489,
      "tenn": 4490,
      "attract": 4491,
      "bond": 4492,
      "##uled": 4493,
      "wins": 4494,
      "chelsea": 4495,
      "cerem": 4496,
      "manuf": 4497,
      "user": 4498,
      "secure": 4499,
      "##riage": 4500,
      "##zb": 4501,
      "goog": 4502,
      "musk": 4503,
      "option": 4504,
      "captain": 4505,
      "manufact": 4506,
      "las": 4507,
      "supply": 4508,
      "46": 4509,
      "rid": 4510,
      "feet": 4511,
      "status": 4512,
      "crew": 4513,
      "rising": 4514,
      "successful": 4515,
      "fellow": 4516,
      "responsible": 4517,
      "garden": 4518,
      "der": 4519,
      "##last": 4520,
      "uns": 4521,
      "aren": 4522,
      "owner": 4523,
      "systems": 4524,
      "##vert": 4525,
      "##pper": 4526,
      "cricket": 4527,
      "helping": 4528,
      "planned": 4529,
      "association": 4530,
      "beginning": 4531,
      "mail": 4532,
      "except": 4533,
      "scale": 4534,
      "generation": 4535,
      "psych": 4536,
      "##reated": 4537,
      "##isted": 4538,
      "wedding": 4539,
      "prosecutors": 4540,
      "moscow": 4541,
      "language": 4542,
      "##eb": 4543,
      "##**": 4544,
      "##ica": 4545,
      "whom": 4546,
      "prec": 4547,
      "switch": 4548,
      "mission": 4549,
      "footage": 4550,
      "strikes": 4551,
      "muse": 4552,
      "##ու": 4553,
      "##arm": 4554,
      "##ota": 4555,
      "directly": 4556,
      "kate": 4557,
      "lived": 4558,
      "##dated": 4559,
      "shift": 4560,
      "protests": 4561,
      "younger": 4562,
      "doctors": 4563,
      "placed": 4564,
      "modi": 4565,
      "mary": 4566,
      "ww": 4567,
      "##lant": 4568,
      "enforcement": 4569,
      "##ivity": 4570,
      "plenty": 4571,
      "offering": 4572,
      "setting": 4573,
      "powerful": 4574,
      "chicago": 4575,
      "sharing": 4576,
      "asp": 4577,
      "34": 4578,
      "##egr": 4579,
      "##vent": 4580,
      "##ushing": 4581,
      "victim": 4582,
      "favor": 4583,
      "domestic": 4584,
      "nhs": 4585,
      "pad": 4586,
      "aged": 4587,
      "##ollah": 4588,
      "transform": 4589,
      "voting": 4590,
      "essential": 4591,
      "answer": 4592,
      "cities": 4593,
      "##igan": 4594,
      "struct": 4595,
      "surf": 4596,
      "sitting": 4597,
      "potentially": 4598,
      "vehicles": 4599,
      "##burgh": 4600,
      "mp": 4601,
      "##e0": 4602,
      "##gar": 4603,
      "note": 4604,
      "grad": 4605,
      "exactly": 4606,
      "##ingly": 4607,
      "surg": 4608,
      "vs": 4609,
      "stopped": 4610,
      "youth": 4611,
      "perm": 4612,
      "audience": 4613,
      "survey": 4614,
      "cabin": 4615,
      "purs": 4616,
      "andrew": 4617,
      "items": 4618,
      "bright": 4619,
      "clin": 4620,
      "missed": 4621,
      "affected": 4622,
      "mexico": 4623,
      "disease": 4624,
      "jon": 4625,
      "##ան": 4626,
      "knows": 4627,
      "victor": 4628,
      "ruling": 4629,
      "honest": 4630,
      "individual": 4631,
      "liverpool": 4632,
      "google": 4633,
      "names": 4634,
      "##oned": 4635,
      "suppl": 4636,
      "url": 4637,
      "suffered": 4638,
      "episode": 4639,
      "troops": 4640,
      "37": 4641,
      "##mar": 4642,
      "##iling": 4643,
      "italy": 4644,
      "greater": 4645,
      "photos": 4646,
      "opportunities": 4647,
      "surprise": 4648,
      "definitely": 4649,
      "##ez": 4650,
      "##d9": 4651,
      "worst": 4652,
      "controvers": 4653,
      "expressed": 4654,
      "sustain": 4655,
      ">\\": 4656,
      "gal": 4657,
      "carried": 4658,
      "eat": 4659,
      "frank": 4660,
      "finding": 4661,
      "faces": 4662,
      "african": 4663,
      "ber": 4664,
      "cha": 4665,
      "implement": 4666,
      "retire": 4667,
      "polls": 4668,
      "##cle": 4669,
      "whate": 4670,
      "yourself": 4671,
      "##cript": 4672,
      "walking": 4673,
      "concerned": 4674,
      "whatever": 4675,
      "dar": 4676,
      "kim": 4677,
      "rare": 4678,
      "wat": 4679,
      "corner": 4680,
      "##ipping": 4681,
      "australian": 4682,
      "shown": 4683,
      "subs": 4684,
      "##ears": 4685,
      "aftern": 4686,
      "opin": 4687,
      "warm": 4688,
      "commitment": 4689,
      "francis": 4690,
      "send": 4691,
      "##iar": 4692,
      "##val": 4693,
      "twice": 4694,
      "appearance": 4695,
      "reasons": 4696,
      "defeat": 4697,
      "##iplom": 4698,
      "39": 4699,
      "diplom": 4700,
      "##wide": 4701,
      "##dat": 4702,
      "##ta": 4703,
      "##c8": 4704,
      "##omp": 4705,
      "regional": 4706,
      "investors": 4707,
      "keeping": 4708,
      "##house": 4709,
      "stun": 4710,
      "bridge": 4711,
      "##aves": 4712,
      "robert": 4713,
      "highly": 4714,
      "2015": 4715,
      "',": 4716,
      "mand": 4717,
      "##bit": 4718,
      "broke": 4719,
      "oppon": 4720,
      "42": 4721,
      "##ini": 4722,
      "sho": 4723,
      "##encing": 4724,
      "##key": 4725,
      "strategy": 4726,
      "doctor": 4727,
      "stress": 4728,
      "appar": 4729,
      "advoc": 4730,
      "managed": 4731,
      "believes": 4732,
      "matches": 4733,
      "museum": 4734,
      "rod": 4735,
      "##itarian": 4736,
      "##acity": 4737,
      "asse": 4738,
      "armed": 4739,
      "emp": 4740,
      "joy": 4741,
      "remind": 4742,
      "delhi": 4743,
      "lines": 4744,
      "integr": 4745,
      "establish": 4746,
      "ky": 4747,
      "##c3": 4748,
      "##urning": 4749,
      "unp": 4750,
      "identified": 4751,
      "responded": 4752,
      "lux": 4753,
      "emotional": 4754,
      "territory": 4755,
      "deputy": 4756,
      "##dateline": 4757,
      "ign": 4758,
      "##aj": 4759,
      "emph": 4760,
      "sources": 4761,
      "afternoon": 4762,
      "##ador": 4763,
      "struck": 4764,
      "professor": 4765,
      "##ropri": 4766,
      "ly": 4767,
      "##time": 4768,
      "onto": 4769,
      "hezb": 4770,
      "foundation": 4771,
      "aware": 4772,
      "ultimately": 4773,
      "hezbollah": 4774,
      "bought": 4775,
      "##night": 4776,
      "##iation": 4777,
      "##oms": 4778,
      "##oted": 4779,
      "prosp": 4780,
      "crack": 4781,
      "coff": 4782,
      "advice": 4783,
      "increasingly": 4784,
      "tel": 4785,
      "##rid": 4786,
      "##emy": 4787,
      "sudd": 4788,
      "plays": 4789,
      "abd": 4790,
      "adop": 4791,
      "projects": 4792,
      "keir": 4793,
      "patr": 4794,
      "analyst": 4795,
      "##oral": 4796,
      "##antly": 4797,
      "domin": 4798,
      "www": 4799,
      "##pts": 4800,
      "minor": 4801,
      "slight": 4802,
      "providing": 4803,
      "devast": 4804,
      "radio": 4805,
      "sudden": 4806,
      "jim": 4807,
      "##created": 4808,
      "carr": 4809,
      "written": 4810,
      "signs": 4811,
      "##updated": 4812,
      "happens": 4813,
      "charles": 4814,
      "blocklast": 4815,
      "blockcreated": 4816,
      "drugs": 4817,
      "vacc": 4818,
      "blockfirstpublisheddisplay": 4819,
      "resources": 4820,
      "blocklastupdated": 4821,
      "##alys": 4822,
      "ali": 4823,
      "welcome": 4824,
      "thomas": 4825,
      "hid": 4826,
      "##agues": 4827,
      "delay": 4828,
      "cuts": 4829,
      "steps": 4830,
      "initially": 4831,
      "odd": 4832,
      "ryan": 4833,
      "##mark": 4834,
      "##4a": 4835,
      "influence": 4836,
      "##ulated": 4837,
      "spr": 4838,
      "allies": 4839,
      "pregn": 4840,
      "meth": 4841,
      "prompt": 4842,
      "activities": 4843,
      "##bon": 4844,
      "##_2": 4845,
      "legislation": 4846,
      "restaurant": 4847,
      "38": 4848,
      "59": 4849,
      "75": 4850,
      "bird": 4851,
      "icon": 4852,
      "##23": 4853,
      "toward": 4854,
      "exerc": 4855,
      "##ube": 4856,
      "##ruption": 4857,
      "scheme": 4858,
      "television": 4859,
      "rene": 4860,
      "tar": 4861,
      "##2a": 4862,
      "##igg": 4863,
      "elected": 4864,
      "insurance": 4865,
      "breat": 4866,
      "##d6": 4867,
      "##_35": 4868,
      "enh": 4869,
      "viewers": 4870,
      "princess": 4871,
      "sor": 4872,
      "##fire": 4873,
      "##uters": 4874,
      "chris": 4875,
      "braz": 4876,
      "canada": 4877,
      "mostly": 4878,
      "##otted": 4879,
      "peter": 4880,
      "##e3": 4881,
      "appre": 4882,
      "household": 4883,
      "declared": 4884,
      "fant": 4885,
      "##d8": 4886,
      "##inting": 4887,
      "wealth": 4888,
      "corpor": 4889,
      "favourite": 4890,
      "sides": 4891,
      "ye": 4892,
      "chat": 4893,
      "starts": 4894,
      "charl": 4895,
      "markets": 4896,
      "maint": 4897,
      "carolina": 4898,
      "gender": 4899,
      "liter": 4900,
      "mim": 4901,
      "##owed": 4902,
      "adj": 4903,
      "backed": 4904,
      "difference": 4905,
      "subject": 4906,
      "##retch": 4907,
      "books": 4908,
      "##others": 4909,
      "##]}": 4910,
      "##atively": 4911,
      "forec": 4912,
      "resident": 4913,
      "##76": 4914,
      "##fb": 4915,
      "theat": 4916,
      "pra": 4917,
      "##ables": 4918,
      "##ashed": 4919,
      "paying": 4920,
      "profit": 4921,
      "suffering": 4922,
      "partnership": 4923,
      "hasn": 4924,
      "##ells": 4925,
      "glass": 4926,
      "doubt": 4927,
      "bath": 4928,
      "none": 4929,
      "##nel": 4930,
      "##itation": 4931,
      "consequ": 4932,
      "origin": 4933,
      "passengers": 4934,
      "##ils": 4935,
      "##ula": 4936,
      "colour": 4937,
      "swed": 4938,
      "proposed": 4939,
      "streets": 4940,
      "motor": 4941,
      "contribut": 4942,
      "length": 4943,
      "mun": 4944,
      "##dc": 4945,
      "chem": 4946,
      "knock": 4947,
      "singh": 4948,
      "standard": 4949,
      "estate": 4950,
      "activity": 4951,
      "collabor": 4952,
      "##ville": 4953,
      "ital": 4954,
      "##aked": 4955,
      "choose": 4956,
      "discovered": 4957,
      "140": 4958,
      "selling": 4959,
      "##wa": 4960,
      "##ici": 4961,
      "acqu": 4962,
      "raise": 4963,
      "authority": 4964,
      "effective": 4965,
      "cultural": 4966,
      "hollywood": 4967,
      "fifth": 4968,
      "lebanon": 4969,
      "crucial": 4970,
      "vance": 4971,
      "yester": 4972,
      "deals": 4973,
      "expensive": 4974,
      "accounts": 4975,
      "migrants": 4976,
      "korea": 4977,
      "behavi": 4978,
      "surgery": 4979,
      "assemb": 4980,
      "emphas": 4981,
      "dance": 4982,
      "unique": 4983,
      "cru": 4984,
      "marriage": 4985,
      "2014": 4986,
      "videos": 4987,
      "funds": 4988,
      "pictures": 4989,
      "reading": 4990,
      "conversation": 4991,
      "split": 4992,
      "ceremony": 4993,
      "gy": 4994,
      "##59": 4995,
      "pled": 4996,
      "relig": 4997,
      "##phone": 4998,
      "balance": 4999
    }
  }
}