<unk>	0
<s>	0
</s>	0
▁s	-0
▁t	-1
▁a	-2
▁i	-3
he	-4
▁e	-5
▁o	-6
re	-7
▁the	-8
▁in	-9
▁w	-10
▁c	-11
er	-12
nd	-13
on	-14
▁f	-15
▁b	-16
▁l	-17
▁p	-18
ha	-19
▁d	-20
▁m	-21
or	-22
in	-23
▁to	-24
en	-25
ou	-26
ar	-27
st	-28
it	-29
▁of	-30
▁ed	-31
▁ing	-32
an	-33
al	-34
▁and	-35
at	-36
▁re	-37
▁n	-38
hi	-39
▁y	-40
om	-41
ll	-42
ic	-43
ve	-44
▁T	-45
▁g	-46
le	-47
ion	-48
▁ha	-49
id	-50
▁be	-51
▁he	-52
▁on	-53
ent	-54
▁I	-55
▁r	-56
▁S	-57
ut	-58
hat	-59
ot	-60
ce	-61
▁A	-62
▁u	-63
ay	-64
▁at	-65
ing	-66
▁is	-67
▁for	-68
▁it	-69
▁st	-70
ow	-71
ss	-72
se	-73
ur	-74
ct	-75
▁er	-76
▁M	-77
▁C	-78
▁that	-79
▁en	-80
▁"	-81
▁ly	-82
▁an	-83
et	-84
ch	-85
ver	-86
ld	-87
▁h	-88
ra	-89
▁B	-90
ith	-91
ir	-92
ed	-93
ri	-94
ro	-95
gh	-96
am	-97
▁with	-98
▁wa	-99
▁The	-100
▁de	-101
▁we	-102
▁hi	-103
▁P	-104
ge	-105
▁H	-106
is	-107
ad	-108
▁al	-109
ke	-110
il	-111
ill	-112
ter	-113
es	-114
▁W	-115
▁v	-116
im	-117
▁D	-118
ol	-119
ck	-120
▁R	-121
▁com	-122
▁le	-123
▁sa	-124
▁th	-125
▁N	-126
▁con	-127
▁wh	-128
ort	-129
▁ab	-130
ate	-131
▁se	-132
pe	-133
▁li	-134
▁2	-135
▁ne	-136
▁F	-137
▁L	-138
rom	-139
▁G	-140
▁you	-141
▁mo	-142
▁said	-143
ation	-144
▁la	-145
▁ex	-146
um	-147
ght	-148
▁have	-149
ul	-150
as	-151
▁has	-152
▁E	-153
us	-154
▁from	-155
▁by	-156
art	-157
un	-158
oo	-159
la	-160
▁J	-161
▁all	-162
▁j	-163
▁or	-164
▁ca	-165
▁1	-166
op	-167
▁es	-168
▁pro	-169
her	-170
▁not	-171
▁ar	-172
ould	-173
▁k	-174
pp	-175
▁O	-176
▁ment	-177
ust	-178
ig	-179
▁-	-180
ain	-181
,"	-182
▁thi	-183
el	-184
ive	-185
ear	-186
our	-187
▁U	-188
▁out	-189
th	-190
▁20	-191
▁her	-192
fe	-193
▁me	-194
qu	-195
ight	-196
nt	-197
▁su	-198
▁whi	-199
all	-200
▁co	-201
▁who	-202
."	-203
▁po	-204
ant	-205
▁K	-206
ome	-207
mp	-208
han	-209
▁go	-210
▁te	-211
▁ad	-212
▁do	-213
▁ma	-214
▁un	-215
▁will	-216
▁wor	-217
ice	-218
ine	-219
▁af	-220
▁their	-221
▁pre	-222
▁but	-223
▁pl	-224
▁one	-225
▁ta	-226
▁ers	-227
ure	-228
ci	-229
▁can	-230
▁had	-231
▁up	-232
ack	-233
▁sh	-234
▁per	-235
▁(	-236
▁lo	-237
ound	-238
ime	-239
ist	-240
ard	-241
ie	-242
▁ag	-243
▁year	-244
ies	-245
▁off	-246
out	-247
ia	-248
lo	-249
▁man	-250
ore	-251
ue	-252
te	-253
ide	-254
▁ation	-255
▁In	-256
ther	-257
00	-258
ong	-259
▁more	-260
▁ho	-261
▁pe	-262
and	-263
ity	-264
▁were	-265
▁fa	-266
▁ac	-267
▁ever	-268
▁about	-269
▁over	-270
▁after	-271
▁time	-272
▁which	-273
▁other	-274
per	-275
▁tr	-276
ub	-277
▁It	-278
▁He	-279
ame	-280
ber	-281
age	-282
▁fe	-283
▁if	-284
ast	-285
ree	-286
pt	-287
▁like	-288
▁ion	-289
ople	-290
▁day	-291
▁part	-292
▁us	-293
ud	-294
▁202	-295
▁qu	-296
▁would	-297
▁sp	-298
one	-299
▁'	-300
ood	-301
ount	-302
▁di	-303
▁am	-304
▁ev	-305
▁people	-306
em	-307
▁V	-308
ff	-309
ag	-310
▁my	-311
nder	-312
ord	-313
est	-314
ction	-315
▁new	-316
own	-317
ook	-318
▁work	-319
▁cha	-320
▁comp	-321
▁res	-322
ish	-323
▁St	-324
▁just	-325
▁able	-326
▁bo	-327
▁ro	-328
rou	-329
ne	-330
▁way	-331
▁fir	-332
▁say	-333
reat	-334
▁tw	-335
▁cont	-336
▁than	-337
▁tra	-338
ict	-339
ign	-340
ly	-341
▁some	-342
ick	-343
use	-344
ep	-345
▁there	-346
ite	-347
ak	-348
orm	-349
▁dis	-350
▁Y	-351
▁rep	-352
ble	-353
▁comm	-354
▁them	-355
ark	-356
▁pa	-357
▁sc	-358
ach	-359
ence	-360
lu	-361
ump	-362
ry	-363
ult	-364
▁ent	-365
▁play	-366
▁spe	-367
ous	-368
▁what	-369
ft	-370
iv	-371
▁inc	-372
▁ity	-373
sid	-374
▁whe	-375
▁back	-376
▁fo	-377
ind	-378
▁him	-379
▁come	-380
ink	-381
▁pol	-382
▁get	-383
▁first	-384
co	-385
ru	-386
▁ra	-387
▁land	-388
▁two	-389
ress	-390
lic	-391
ial	-392
▁no	-393
li	-394
▁our	-395
ition	-396
▁But	-397
▁could	-398
▁em	-399
▁kn	-400
▁Tr	-401
▁any	-402
▁cent	-403
▁ce	-404
ance	-405
▁Re	-406
▁your	-407
urn	-408
ire	-409
▁again	-410
cial	-411
▁3	-412
▁add	-413
▁el	-414
int	-415
▁ally	-416
▁state	-417
▁ver	-418
▁Ne	-419
▁ary	-420
▁pr	-421
▁shi	-422
▁last	-423
ren	-424
▁Trump	-425
▁acc	-426
ek	-427
ade	-428
▁imp	-429
vel	-430
me	-431
lf	-432
▁side	-433
▁most	-434
▁cause	-435
▁thing	-436
du	-437
▁show	-438
▁dec	-439
▁pub	-440
mer	-441
erv	-442
ual	-443
▁chi	-444
▁how	-445
▁end	-446
▁where	-447
▁ic	-448
▁est	-449
day	-450
▁under	-451
▁so	-452
wn	-453
▁age	-454
▁ele	-455
rent	-456
sident	-457
▁mon	-458
od	-459
▁bet	-460
▁inclu	-461
ect	-462
form	-463
rit	-464
▁now	-465
▁did	-466
ment	-467
▁count	-468
..	-469
▁make	-470
av	-471
ab	-472
ase	-473
ath	-474
ian	-475
▁fu	-476
▁med	-477
ater	-478
pport	-479
vern	-480
▁want	-481
son	-482
cess	-483
▁cre	-484
▁fin	-485
▁cl	-486
fore	-487
▁while	-488
▁bu	-489
▁Is	-490
▁before	-491
▁son	-492
▁And	-493
we	-494
▁act	-495
▁tri	-496
▁ch	-497
ap	-498
▁We	-499
▁report	-500
ng	-501
The	-502
▁need	-503
▁app	-504
▁gr	-505
▁form	-506
▁nation	-507
▁look	-508
▁ke	-509
▁down	-510
▁att	-511
de	-512
▁New	-513
▁every	-514
▁4	-515
▁high	-516
▁lead	-517
▁ant	-518
ise	-519
▁exp	-520
▁fam	-521
ince	-522
▁think	-523
ail	-524
▁br	-525
▁pri	-526
▁home	-527
▁public	-528
▁take	-529
▁im	-530
▁Ch	-531
os	-532
uch	-533
▁De	-534
▁min	-535
▁che	-536
▁ext	-537
▁well	-538
atch	-539
▁week	-540
pect	-541
▁ance	-542
▁too	-543
▁don	-544
lace	-545
▁ive	-546
▁ship	-547
▁Thi	-548
▁5	-549
▁inter	-550
▁Le	-551
oun	-552
▁know	-553
▁even	-554
▁She	-555
▁Un	-556
get	-557
▁Mr	-558
illion	-559
ason	-560
▁ap	-561
▁then	-562
uss	-563
▁jo	-564
▁hel	-565
▁call	-566
rough	-567
▁long	-568
pa	-569
▁govern	-570
▁sha	-571
▁ass	-572
▁war	-573
▁reg	-574
iden	-575
▁chan	-576
▁head	-577
▁told	-578
▁through	-579
▁win	-580
▁see	-581
▁start	-582
ans	-583
▁19	-584
▁cla	-585
if	-586
▁right	-587
▁rem	-588
▁game	-589
▁hose	-590
oth	-591
▁month	-592
▁three	-593
▁ec	-594
oc	-595
ffe	-596
llow	-597
▁line	-598
ugh	-599
▁An	-600
▁op	-601
▁going	-602
ale	-603
▁Se	-604
▁made	-605
▁201	-606
▁dur	-607
sh	-608
▁aw	-609
▁ig	-610
▁set	-611
ens	-612
ov	-613
itt	-614
▁ter	-615
▁support	-616
▁ear	-617
iew	-618
ouse	-619
▁ate	-620
▁help	-621
▁car	-622
▁own	-623
orn	-624
▁ty	-625
▁less	-626
▁famil	-627
cy	-628
▁Jo	-629
alk	-630
▁ret	-631
min	-632
▁ous	-633
ix	-634
▁cam	-635
▁fl	-636
ip	-637
▁ful	-638
▁team	-639
▁z	-640
▁Ro	-641
▁thou	-642
▁mem	-643
▁ph	-644
act	-645
▁iz	-646
▁around	-647
000	-648
▁life	-649
▁read	-650
▁$	-651
▁Mar	-652
▁Pre	-653
▁ist	-654
▁place	-655
vest	-656
sk	-657
iss	-658
▁plan	-659
ef	-660
▁child	-661
ram	-662
▁et	-663
ug	-664
▁wom	-665
▁ies	-666
ern	-667
az	-668
▁person	-669
▁£	-670
▁ry	-671
alth	-672
king	-673
ical	-674
ory	-675
ving	-676
red	-677
▁much	-678
▁vis	-679
▁sur	-680
ven	-681
ctor	-682
▁cro	-683
▁Isra	-684
▁change	-685
▁cour	-686
,000	-687
▁vot	-688
▁found	-689
ank	-690
▁rec	-691
▁still	-692
ac	-693
▁har	-694
▁since	-695
▁hould	-696
▁law	-697
▁rat	-698
ract	-699
▁good	-700
▁care	-701
ute	-702
▁may	-703
meric	-704
▁ia	-705
▁run	-706
iver	-707
ash	-708
▁Lo	-709
ner	-710
ious	-711
ital	-712
▁point	-713
ile	-714
old	-715
▁Be	-716
▁world	-717
▁give	-718
▁clo	-719
end	-720
▁6	-721
up	-722
▁national	-723
cond	-724
roup	-725
▁invest	-726
▁gen	-727
▁str	-728
▁contin	-729
ild	-730
▁uch	-731
▁Ind	-732
▁Americ	-733
▁Fr	-734
▁country	-735
▁2024	-736
▁four	-737
ular	-738
▁Har	-739
▁election	-740
▁cle	-741
eg	-742
ert	-743
ween	-744
▁ian	-745
▁ities	-746
▁mark	-747
▁happ	-748
▁los	-749
▁ations	-750
itic	-751
eral	-752
▁conf	-753
▁follow	-754
▁case	-755
orth	-756
▁cross	-757
ilit	-758
▁appe	-759
▁bl	-760
▁ur	-761
▁wr	-762
rest	-763
▁ve	-764
▁between	-765
▁feel	-766
▁exper	-767
▁came	-768
▁put	-769
▁ways	-770
▁Af	-771
We	-772
▁ind	-773
cho	-774
▁member	-775
ower	-776
▁gra	-777
ott	-778
ers	-779
▁Russ	-780
icial	-781
▁serv	-782
▁continu	-783
▁full	-784
▁try	-785
ace	-786
▁des	-787
▁cri	-788
▁family	-789
▁inte	-790
▁gu	-791
▁ann	-792
▁char	-793
▁hand	-794
▁self	-795
▁president	-796
▁7	-797
hing	-798
▁big	-799
▁Biden	-800
▁Ar	-801
ric	-802
ork	-803
▁Th	-804
▁second	-805
▁post	-806
▁iss	-807
▁politic	-808
ject	-809
▁bus	-810
▁live	-811
▁produ	-812
▁bel	-813
▁US	-814
outh	-815
▁season	-816
▁claim	-817
ote	-818
year	-819
▁open	-820
▁night	-821
▁ember	-822
▁group	-823
▁resp	-824
der	-825
▁Cha	-826
▁coll	-827
▁loc	-828
pl	-829
▁million	-830
▁fil	-831
▁left	-832
▁Al	-833
riend	-834
▁sy	-835
any	-836
▁use	-837
▁got	-838
sent	-839
▁cur	-840
▁love	-841
▁far	-842
▁pos	-843
ger	-844
▁leg	-845
▁Man	-846
▁ration	-847
▁attack	-848
▁top	-849
ont	-850
▁prot	-851
▁trans	-852
▁lin	-853
▁stud	-854
▁10	-855
▁ask	-856
▁best	-857
▁ments	-858
▁ence	-859
iz	-860
▁bre	-861
It	-862
vid	-863
▁led	-864
▁You	-865
sp	-866
▁rel	-867
▁expect	-868
▁both	-869
▁There	-870
▁share	-871
▁sm	-872
▁Sc	-873
rat	-874
chool	-875
▁il	-876
vi	-877
▁test	-878
▁That	-879
▁ton	-880
▁lot	-881
ience	-882
ret	-883
▁pay	-884
▁ame	-885
▁health	-886
▁How	-887
▁ong	-888
▁let	-889
ib	-890
▁Co	-891
▁office	-892
...	-893
▁ating	-894
cc	-895
▁President	-896
▁For	-897
▁num	-898
gan	-899
▁fore	-900
▁mean	-901
▁turn	-902
▁det	-903
▁dire	-904
▁official	-905
▁air	-906
▁near	-907
ang	-908
ution	-909
▁ward	-910
uro	-911
▁pass	-912
row	-913
▁men	-914
ather	-915
▁ative	-916
▁event	-917
uth	-918
io	-919
▁friend	-920
▁final	-921
▁So	-922
▁leader	-923
▁star	-924
▁never	-925
▁ready	-926
▁Sun	-927
▁conc	-928
other	-929
▁face	-930
▁On	-931
▁Z	-932
▁sen	-933
▁find	-934
▁days	-935
▁een	-936
▁dem	-937
▁cond	-938
▁accord	-939
▁Com	-940
▁stand	-941
ush	-942
▁ie	-943
▁id	-944
▁cons	-945
arch	-946
kra	-947
▁bod	-948
▁8	-949
paign	-950
▁low	-951
▁coming	-952
▁ions	-953
▁sign	-954
▁appear	-955
ied	-956
▁hen	-957
▁diffe	-958
▁At	-959
▁ste	-960
▁great	-961
▁commun	-962
▁da	-963
▁children	-964
ier	-965
▁met	-966
▁away	-967
▁here	-968
▁emp	-969
▁hold	-970
be	-971
▁Ukra	-972
▁mis	-973
▁belie	-974
arge	-975
ken	-976
▁house	-977
▁Con	-978
▁ball	-979
▁ness	-980
▁return	-981
ral	-982
▁ob	-983
▁media	-984
▁campaign	-985
▁police	-986
onom	-987
iness	-988
▁If	-989
▁UK	-990
▁later	-991
▁court	-992
▁power	-993
":	-994
▁number	-995
ague	-996
rop	-997
▁La	-998
▁though	-999
▁women	-1000
▁special	-1001
iday	-1002
▁close	-1003
rea	-1004
▁American	-1005
▁inv	-1006
ave	-1007
atter	-1008
ility	-1009
▁prom	-1010
▁provid	-1011
jor	-1012
ision	-1013
▁remain	-1014
▁Euro	-1015
▁dep	-1016
▁company	-1017
▁som	-1018
▁art	-1019
▁atte	-1020
eng	-1021
▁sk	-1022
ittle	-1023
▁State	-1024
▁fr	-1025
view	-1026
▁kill	-1027
ister	-1028
▁mar	-1029
▁rest	-1030
▁issue	-1031
ock	-1032
▁few	-1033
▁five	-1034
▁fan	-1035
▁won	-1036
▁party	-1037
▁clear	-1038
lain	-1039
▁happen	-1040
unch	-1041
ield	-1042
▁didn	-1043
▁ling	-1044
▁force	-1045
▁Min	-1046
▁sub	-1047
▁large	-1048
▁took	-1049
ty	-1050
▁mid	-1051
▁build	-1052
reen	-1053
▁school	-1054
▁ill	-1055
▁area	-1056
▁sure	-1057
▁real	-1058
▁east	-1059
▁Eng	-1060
ster	-1061
▁deal	-1062
▁ine	-1063
▁keep	-1064
▁ber	-1065
cing	-1066
▁X	-1067
▁Brit	-1068
▁int	-1069
▁sim	-1070
▁adv	-1071
ocrat	-1072
▁Te	-1073
▁ris	-1074
▁av	-1075
▁young	-1076
▁business	-1077
▁rs	-1078
velop	-1079
ething	-1080
),	-1081
▁move	-1082
▁Dem	-1083
lish	-1084
▁believ	-1085
oney	-1086
▁water	-1087
▁ign	-1088
▁cost	-1089
▁bro	-1090
▁hard	-1091
ten	-1092
▁something	-1093
▁fire	-1094
▁poss	-1095
▁record	-1096
oto	-1097
▁Unit	-1098
▁service	-1099
uc	-1100
▁ge	-1101
▁pop	-1102
ounce	-1103
▁Ma	-1104
▁def	-1105
▁quest	-1106
▁bra	-1107
▁hit	-1108
fect	-1109
▁Chin	-1110
▁mom	-1111
▁Hi	-1112
▁book	-1113
▁9	-1114
▁might	-1115
▁econom	-1116
▁ster	-1117
lack	-1118
▁body	-1119
▁free	-1120
▁allow	-1121
▁result	-1122
▁Mon	-1123
ient	-1124
att	-1125
▁Me	-1126
▁oper	-1127
▁light	-1128
▁six	-1129
▁major	-1130
ideo	-1131
atur	-1132
▁deb	-1133
▁talk	-1134
stem	-1135
▁film	-1136
uck	-1137
ption	-1138
▁To	-1139
▁social	-1140
▁den	-1141
▁grow	-1142
▁prog	-1143
ission	-1144
▁import	-1145
▁Don	-1146
▁na	-1147
ety	-1148
▁foot	-1149
▁milit	-1150
▁cra	-1151
▁port	-1152
▁ley	-1153
▁Car	-1154
▁mov	-1155
rive	-1156
▁bas	-1157
▁meet	-1158
▁creat	-1159
▁One	-1160
ury	-1161
▁position	-1162
ated	-1163
.'	-1164
gn	-1165
▁log	-1166
▁little	-1167
▁Mc	-1168
▁ism	-1169
▁past	-1170
ible	-1171
redit	-1172
▁requ	-1173
▁decision	-1174
▁different	-1175
olve	-1176
▁better	-1177
rap	-1178
▁market	-1179
▁partic	-1180
▁question	-1181
ama	-1182
urity	-1183
▁ecurity	-1184
▁local	-1185
▁making	-1186
▁til	-1187
▁each	-1188
▁hist	-1189
▁ou	-1190
▁bar	-1191
▁system	-1192
hn	-1193
▁Democrat	-1194
▁South	-1195
▁experience	-1196
ple	-1197
▁par	-1198
uthor	-1199
▁May	-1200
ruct	-1201
▁having	-1202
ik	-1203
mpt	-1204
gin	-1205
▁press	-1206
▁Wh	-1207
▁along	-1208
ari	-1209
▁develop	-1210
▁[	-1211
▁hum	-1212
ney	-1213
▁city	-1214
ning	-1215
icture	-1216
▁break	-1217
▁comment	-1218
duc	-1219
▁Ad	-1220
pend	-1221
▁cut	-1222
▁No	-1223
▁announce	-1224
▁12	-1225
▁Q	-1226
).	-1227
▁respon	-1228
ife	-1229
▁job	-1230
▁York	-1231
▁Chri	-1232
▁West	-1233
▁view	-1234
ran	-1235
▁moment	-1236
▁2022	-1237
ivers	-1238
▁vi	-1239
▁vict	-1240
▁perform	-1241
▁2023	-1242
ald	-1243
▁Harri	-1244
▁cou	-1245
fic	-1246
hic	-1247
▁cap	-1248
▁pur	-1249
▁money	-1250
veal	-1251
▁Nation	-1252
▁ated	-1253
▁price	-1254
▁ought	-1255
▁pot	-1256
▁ref	-1257
oy	-1258
▁pan	-1259
▁death	-1260
▁news	-1261
▁fur	-1262
▁half	-1263
loy	-1264
▁Jan	-1265
▁200	-1266
▁current	-1267
▁video	-1268
▁wrote	-1269
▁hour	-1270
▁eries	-1271
▁reveal	-1272
▁train	-1273
▁comple	-1274
▁list	-1275
▁old	-1276
▁Sha	-1277
▁red	-1278
▁ough	-1279
▁field	-1280
▁India	-1281
▁dra	-1282
▁alleg	-1283
ai	-1284
▁sec	-1285
▁hu	-1286
▁watch	-1287
ident	-1288
▁Europe	-1289
ala	-1290
▁John	-1291
▁main	-1292
▁ped	-1293
▁Credit	-1294
▁suc	-1295
▁room	-1296
▁fund	-1297
▁publican	-1298
▁visit	-1299
▁ised	-1300
▁interest	-1301
man	-1302
▁eff	-1303
gether	-1304
ton	-1305
enn	-1306
▁name	-1307
ah	-1308
ritic	-1309
gu	-1310
▁parent	-1311
▁Mini	-1312
▁appro	-1313
▁Whi	-1314
▁known	-1315
par	-1316
▁level	-1317
▁ability	-1318
sider	-1319
▁dist	-1320
▁militar	-1321
▁thought	-1322
▁tell	-1323
▁thir	-1324
▁match	-1325
▁Ukraine	-1326
▁seem	-1327
ceive	-1328
▁tech	-1329
rol	-1330
▁Pro	-1331
▁Am	-1332
▁Mo	-1333
▁ground	-1334
▁ably	-1335
▁ey	-1336
▁cand	-1337
▁val	-1338
ward	-1339
▁host	-1340
ond	-1341
itch	-1342
▁goal	-1343
▁spite	-1344
▁15	-1345
▁Tu	-1346
ific	-1347
cri	-1348
▁mus	-1349
▁ting	-1350
▁organ	-1351
▁short	-1352
▁inform	-1353
▁rate	-1354
▁elect	-1355
▁fall	-1356
▁Pol	-1357
rem	-1358
▁treat	-1359
▁dy	-1360
▁concern	-1361
▁together	-1362
▁ple	-1363
are	-1364
▁House	-1365
▁small	-1366
▁author	-1367
stit	-1368
▁News	-1369
the	-1370
▁sug	-1371
lleng	-1372
▁food	-1373
inian	-1374
▁taking	-1375
▁eas	-1376
reet	-1377
▁must	-1378
▁order	-1379
▁critic	-1380
▁ial	-1381
▁ries	-1382
uture	-1383
▁challeng	-1384
oke	-1385
▁often	-1386
▁Ke	-1387
▁reach	-1388
▁Gaz	-1389
▁tax	-1390
▁ham	-1391
erg	-1392
▁hope	-1393
▁After	-1394
▁tar	-1395
▁bit	-1396
ival	-1397
mit	-1398
▁consider	-1399
▁why	-1400
▁All	-1401
▁role	-1402
▁due	-1403
▁taken	-1404
▁City	-1405
▁coun	-1406
no	-1407
gle	-1408
▁Sp	-1409
lock	-1410
▁ran	-1411
▁minute	-1412
ull	-1413
cover	-1414
leb	-1415
ament	-1416
▁action	-1417
▁cor	-1418
▁Je	-1419
▁sex	-1420
ose	-1421
da	-1422
▁dat	-1423
▁key	-1424
▁receive	-1425
▁mod	-1426
▁success	-1427
▁ell	-1428
▁ite	-1429
ource	-1430
▁gett	-1431
▁viol	-1432
vent	-1433
▁ago	-1434
▁stri	-1435
▁inf	-1436
▁term	-1437
▁wide	-1438
oot	-1439
▁ru	-1440
mpion	-1441
▁defe	-1442
▁today	-1443
20	-1444
▁ors	-1445
ene	-1446
▁process	-1447
▁non	-1448
▁With	-1449
▁feat	-1450
▁ential	-1451
gest	-1452
▁cred	-1453
▁important	-1454
":"	-1455
▁What	-1456
▁Aust	-1457
▁future	-1458
▁fight	-1459
igr	-1460
▁ously	-1461
blem	-1462
▁Friday	-1463
▁strong	-1464
▁club	-1465
▁ut	-1466
▁Christ	-1467
cent	-1468
1,	-1469
iti	-1470
▁whet	-1471
▁Lond	-1472
▁relation	-1473
BC	-1474
irm	-1475
▁London	-1476
arn	-1477
▁dr	-1478
▁cit	-1479
▁pat	-1480
▁cy	-1481
▁sw	-1482
ffect	-1483
1.	-1484
▁ben	-1485
▁Ste	-1486
▁walk	-1487
▁agree	-1488
ream	-1489
▁Mic	-1490
▁human	-1491
ec	-1492
▁fully	-1493
▁mother	-1494
oice	-1495
cus	-1496
aff	-1497
▁ins	-1498
omin	-1499
eli	-1500
vers	-1501
▁risk	-1502
▁stead	-1503
esday	-1504
▁launch	-1505
tt	-1506
▁migr	-1507
orld	-1508
▁ide	-1509
▁um	-1510
icket	-1511
▁Tuesday	-1512
▁student	-1513
▁done	-1514
▁hind	-1515
▁protect	-1516
imat	-1517
-1	-1518
▁Pa	-1519
irl	-1520
▁18	-1521
▁problem	-1522
▁30	-1523
▁Ju	-1524
▁equ	-1525
▁woman	-1526
▁suggest	-1527
▁late	-1528
▁further	-1529
▁Oct	-1530
▁arm	-1531
▁gan	-1532
ok	-1533
▁fail	-1534
▁region	-1535
nes	-1536
▁ese	-1537
▁kind	-1538
▁Lab	-1539
▁once	-1540
▁cert	-1541
▁ther	-1542
▁ature	-1543
▁sol	-1544
▁speak	-1545
▁sus	-1546
▁ping	-1547
lect	-1548
▁writ	-1549
▁account	-1550
▁sl	-1551
rence	-1552
▁North	-1553
▁front	-1554
▁score	-1555
elt	-1556
▁qual	-1557
▁focus	-1558
▁China	-1559
▁ier	-1560
▁Jun	-1561
▁Pri	-1562
▁depend	-1563
urs	-1564
bit	-1565
▁Ap	-1566
oint	-1567
50	-1568
▁ban	-1569
▁warn	-1570
▁travel	-1571
igh	-1572
▁Nov	-1573
▁Donald	-1574
▁effect	-1575
▁Go	-1576
unt	-1577
▁Ge	-1578
▁cover	-1579
▁ington	-1580
▁phone	-1581
▁stay	-1582
resent	-1583
etty	-1584
ednes	-1585
▁Will	-1586
ednesda	-1587
,""	-1588
▁ident	-1589
▁sum	-1590
▁ul	-1591
▁Wednesda	-1592
▁National	-1593
bal	-1594
▁dou	-1595
▁story	-1596
▁target	-1597
▁join	-1598
▁strike	-1599
▁Israeli	-1600
▁Gu	-1601
▁Cal	-1602
lement	-1603
ursday	-1604
▁couple	-1605
▁building	-1606
nal	-1607
▁heart	-1608
▁design	-1609
air	-1610
▁Ab	-1611
▁charge	-1612
▁Thursday	-1613
▁Chi	-1614
fess	-1615
▁wards	-1616
▁celeb	-1617
tain	-1618
▁prop	-1619
xt	-1620
▁accus	-1621
▁effort	-1622
▁net	-1623
sis	-1624
ative	-1625
order	-1626
▁exc	-1627
▁Bo	-1628
▁supp	-1629
cept	-1630
▁deli	-1631
▁creas	-1632
▁shot	-1633
▁space	-1634
▁candid	-1635
▁reason	-1636
▁World	-1637
▁partner	-1638
▁possible	-1639
ball	-1640
org	-1641
▁career	-1642
▁yet	-1643
▁ified	-1644
▁fun	-1645
▁program	-1646
▁condition	-1647
▁Ra	-1648
▁saw	-1649
▁Sh	-1650
iate	-1651
▁hot	-1652
▁Su	-1653
▁Pr	-1654
▁Poli	-1655
▁eight	-1656
▁Ger	-1657
stand	-1658
▁Br	-1659
▁eng	-1660
▁control	-1661
▁data	-1662
ificant	-1663
▁employ	-1664
▁ignificant	-1665
▁colle	-1666
▁minister	-1667
ake	-1668
▁product	-1669
▁amp	-1670
▁course	-1671
▁Dav	-1672
▁board	-1673
▁Can	-1674
▁arrest	-1675
ilt	-1676
▁sport	-1677
▁lier	-1678
▁deep	-1679
▁ising	-1680
ederal	-1681
▁deliver	-1682
▁cult	-1683
land	-1684
▁priv	-1685
▁occ	-1686
▁class	-1687
minist	-1688
▁ir	-1689
▁history	-1690
▁bri	-1691
▁race	-1692
rov	-1693
▁leave	-1694
▁particular	-1695
▁Im	-1696
ator	-1697
▁fact	-1698
▁ized	-1699
▁glo	-1700
▁enter	-1701
▁proper	-1702
ourt	-1703
▁ates	-1704
ughter	-1705
ze	-1706
▁ari	-1707
▁poll	-1708
udge	-1709
▁access	-1710
ensive	-1711
ich	-1712
▁mess	-1713
▁rese	-1714
▁aff	-1715
▁ure	-1716
▁interview	-1717
aturday	-1718
▁tic	-1719
▁hosp	-1720
▁complete	-1721
▁percent	-1722
▁Che	-1723
▁activ	-1724
▁legal	-1725
▁feature	-1726
og	-1727
▁Ph	-1728
▁ri	-1729
▁involve	-1730
▁lim	-1731
dle	-1732
▁confirm	-1733
▁hospital	-1734
▁col	-1735
▁photo	-1736
▁project	-1737
▁Cl	-1738
▁impact	-1739
erve	-1740
▁attempt	-1741
▁information	-1742
to	-1743
▁billion	-1744
cum	-1745
▁kid	-1746
▁Her	-1747
▁require	-1748
▁Saturday	-1749
▁buy	-1750
▁fav	-1751
▁pet	-1752
▁jour	-1753
ma	-1754
ike	-1755
▁explain	-1756
▁stop	-1757
▁present	-1758
ralia	-1759
▁suit	-1760
▁decid	-1761
▁Bar	-1762
▁vice	-1763
cil	-1764
▁11	-1765
▁pick	-1766
▁Ex	-1767
▁vision	-1768
▁step	-1769
arter	-1770
0.	-1771
▁Some	-1772
▁tour	-1773
▁direct	-1774
▁ble	-1775
▁hear	-1776
▁staff	-1777
ateg	-1778
ior	-1779
▁AI	-1780
▁Univers	-1781
▁held	-1782
▁Court	-1783
▁16	-1784
▁ator	-1785
▁drop	-1786
▁seven	-1787
cast	-1788
▁ties	-1789
yal	-1790
▁Australia	-1791
▁park	-1792
▁town	-1793
▁summer	-1794
▁improv	-1795
▁13	-1796
com	-1797
▁quick	-1798
▁understand	-1799
▁Black	-1800
▁protest	-1801
▁14	-1802
ustom	-1803
erge	-1804
▁felt	-1805
▁nce	-1806
▁Just	-1807
ancial	-1808
sy	-1809
▁Comm	-1810
▁personal	-1811
▁trad	-1812
▁word	-1813
ging	-1814
▁certain	-1815
▁Octo	-1816
▁Pal	-1817
▁gener	-1818
▁actual	-1819
▁eye	-1820
▁Scot	-1821
▁League	-1822
▁opport	-1823
▁Po	-1824
▁forward	-1825
▁Sen	-1826
▁rule	-1827
▁decade	-1828
▁ice	-1829
▁indust	-1830
▁girl	-1831
▁crease	-1832
▁trial	-1833
▁father	-1834
ased	-1835
icy	-1836
▁British	-1837
▁coach	-1838
▁energ	-1839
▁dam	-1840
▁suff	-1841
▁stage	-1842
▁inciden	-1843
▁Afric	-1844
▁lines	-1845
▁manage	-1846
itle	-1847
▁ish	-1848
▁general	-1849
▁policy	-1850
▁bed	-1851
▁learn	-1852
▁mission	-1853
▁bir	-1854
▁wait	-1855
▁initi	-1856
▁research	-1857
▁Fe	-1858
▁TV	-1859
▁Net	-1860
ense	-1861
▁commit	-1862
Thi	-1863
▁Jam	-1864
▁ise	-1865
▁avail	-1866
▁Spa	-1867
orning	-1868
amp	-1869
▁Janu	-1870
▁Apr	-1871
▁fast	-1872
▁argu	-1873
▁Sw	-1874
ency	-1875
▁rele	-1876
▁wind	-1877
▁Sept	-1878
▁March	-1879
▁boy	-1880
▁king	-1881
,'	-1882
▁pain	-1883
▁erious	-1884
▁ists	-1885
▁music	-1886
igure	-1887
▁const	-1888
▁operation	-1889
▁benef	-1890
▁igation	-1891
otion	-1892
He	-1893
▁matter	-1894
oma	-1895
dd	-1896
▁fra	-1897
▁mult	-1898
▁administ	-1899
▁itu	-1900
▁Cent	-1901
▁Or	-1902
▁ib	-1903
ony	-1904
▁finish	-1905
lay	-1906
▁seat	-1907
▁Tw	-1908
▁...	-1909
▁ize	-1910
▁director	-1911
▁represent	-1912
▁mass	-1913
▁German	-1914
▁199	-1915
▁Off	-1916
ager	-1917
▁Georg	-1918
▁bank	-1919
▁bill	-1920
▁vill	-1921
tal	-1922
▁50	-1923
▁Aug	-1924
▁limit	-1925
▁worth	-1926
▁daughter	-1927
▁x	-1928
▁round	-1929
▁Fo	-1930
rict	-1931
gel	-1932
▁custom	-1933
▁simpl	-1934
▁prob	-1935
▁quarter	-1936
▁les	-1937
cuss	-1938
▁dri	-1939
▁os	-1940
▁Acc	-1941
▁wife	-1942
▁Labour	-1943
ror	-1944
▁My	-1945
ary	-1946
▁produc	-1947
▁ample	-1948
▁wood	-1949
lve	-1950
▁total	-1951
serv	-1952
▁bur	-1953
▁push	-1954
▁released	-1955
▁wear	-1956
▁she	-1957
▁Indian	-1958
▁$1	-1959
▁attend	-1960
▁Bra	-1961
self	-1962
▁exec	-1963
▁running	-1964
▁trug	-1965
▁Scott	-1966
pri	-1967
▁anti	-1968
▁financial	-1969
▁Part	-1970
9,	-1971
que	-1972
▁Wash	-1973
▁demand	-1974
har	-1975
▁ina	-1976
▁beat	-1977
▁border	-1978
▁ring	-1979
▁sale	-1980
▁conne	-1981
▁figure	-1982
ough	-1983
▁Mus	-1984
ivil	-1985
▁bad	-1986
ilar	-1987
ension	-1988
▁gun	-1989
▁Char	-1990
▁explo	-1991
▁football	-1992
▁ven	-1993
hen	-1994
▁Per	-1995
aut	-1996
cer	-1997
▁fre	-1998
▁hor	-1999
30	-2000
▁chief	-2001
rew	-2002
▁ees	-2003
▁claimed	-2004
cut	-2005
joy	-2006
▁ett	-2007
ficult	-2008
▁broad	-2009
▁lease	-2010
▁ifficult	-2011
▁que	-2012
▁17	-2013
▁ible	-2014
▁ori	-2015
▁America	-2016
▁himself	-2017
rug	-2018
▁anger	-2019
▁cr	-2020
ention	-2021
▁address	-2022
▁Pe	-2023
▁War	-2024
▁peri	-2025
▁owner	-2026
▁global	-2027
▁living	-2028
▁dog	-2029
▁respond	-2030
▁iv	-2031
ude	-2032
grap	-2033
lymp	-2034
▁vious	-2035
▁gi	-2036
▁£1	-2037
▁source	-2038
au	-2039
ional	-2040
enal	-2041
▁Dan	-2042
light	-2043
▁Dec	-2044
▁afety	-2045
now	-2046
▁Olymp	-2047
din	-2048
▁Joe	-2049
▁unity	-2050
▁ingly	-2051
▁table	-2052
▁track	-2053
▁mediate	-2054
▁pressur	-2055
▁ten	-2056
▁soon	-2057
▁scene	-2058
▁emerge	-2059
▁profess	-2060
▁25	-2061
▁Iran	-2062
▁ituation	-2063
ass	-2064
▁detail	-2065
▁road	-2066
▁reduc	-2067
▁search	-2068
pped	-2069
ara	-2070
▁benefit	-2071
▁Dr	-2072
▁conv	-2073
minal	-2074
▁brand	-2075
bin	-2076
▁Cong	-2077
▁inst	-2078
▁vers	-2079
▁approach	-2080
▁vol	-2081
▁super	-2082
▁Col	-2083
▁enjoy	-2084
▁federal	-2085
▁economic	-2086
▁card	-2087
▁Count	-2088
▁response	-2089
wer	-2090
ication	-2091
▁Inst	-2092
▁safe	-2093
▁panies	-2094
for	-2095
▁emb	-2096
▁mak	-2097
▁period	-2098
lves	-2099
▁suffer	-2100
▁value	-2101
?"	-2102
rupt	-2103
verage	-2104
▁spect	-2105
▁selves	-2106
okes	-2107
read	-2108
▁spokes	-2109
yle	-2110
▁Star	-2111
▁Spe	-2112
▁Image	-2113
secut	-2114
▁White	-2115
▁du	-2116
▁conte	-2117
▁expert	-2118
▁Sy	-2119
graph	-2120
▁box	-2121
iam	-2122
▁Sm	-2123
itted	-2124
▁leading	-2125
lor	-2126
▁100	-2127
▁option	-2128
▁Congress	-2129
▁dead	-2130
▁shop	-2131
asure	-2132
▁industry	-2133
▁nam	-2134
fer	-2135
▁Calif	-2136
▁stat	-2137
▁mur	-2138
▁mind	-2139
racter	-2140
▁privat	-2141
▁addition	-2142
▁cast	-2143
▁huge	-2144
▁store	-2145
hie	-2146
▁Now	-2147
▁clos	-2148
▁Hama	-2149
▁Time	-2150
▁victor	-2151
▁similar	-2152
agram	-2153
▁spot	-2154
▁Inter	-2155
▁August	-2156
▁prison	-2157
▁24	-2158
idence	-2159
ivid	-2160
▁opp	-2161
▁jury	-2162
▁Accord	-2163
▁compar	-2164
▁victim	-2165
▁ts	-2166
▁capt	-2167
▁whole	-2168
▁serve	-2169
▁popular	-2170
▁Em	-2171
▁trib	-2172
▁check	-2173
9.	-2174
▁sold	-2175
▁plann	-2176
stic	-2177
▁Air	-2178
▁via	-2179
▁nothing	-2180
▁quite	-2181
▁plat	-2182
▁assist	-2183
▁morning	-2184
fit	-2185
▁model	-2186
vir	-2187
▁pract	-2188
▁utive	-2189
▁Olympic	-2190
▁resident	-2191
ciate	-2192
▁character	-2193
oid	-2194
▁deter	-2195
▁defend	-2196
irst	-2197
▁rath	-2198
cument	-2199
▁document	-2200
▁East	-2201
▁shoot	-2202
▁title	-2203
▁Day	-2204
▁ger	-2205
▁picture	-2206
▁Tra	-2207
lip	-2208
▁Dep	-2209
▁prepar	-2210
▁Instagram	-2211
▁hy	-2212
▁Gar	-2213
ornia	-2214
▁crime	-2215
artment	-2216
▁respons	-2217
very	-2218
▁batt	-2219
▁firm	-2220
▁mile	-2221
0,	-2222
uff	-2223
▁gold	-2224
▁manager	-2225
▁Red	-2226
▁ants	-2227
▁earn	-2228
▁secret	-2229
▁California	-2230
▁drug	-2231
▁Gra	-2232
▁ler	-2233
▁&	-2234
▁San	-2235
▁mat	-2236
bor	-2237
▁dom	-2238
▁aut	-2239
▁fla	-2240
ividual	-2241
▁struct	-2242
dge	-2243
estinian	-2244
band	-2245
idge	-2246
▁fer	-2247
▁Images	-2248
▁civil	-2249
▁white	-2250
▁surpri	-2251
▁platform	-2252
viron	-2253
vironment	-2254
▁accept	-2255
era	-2256
rage	-2257
imate	-2258
▁propos	-2259
You	-2260
▁olo	-2261
▁evidence	-2262
bed	-2263
▁Ass	-2264
▁previ	-2265
▁champion	-2266
▁development	-2267
ga	-2268
▁door	-2269
▁hol	-2270
▁rates	-2271
rench	-2272
▁Department	-2273
usband	-2274
5.	-2275
▁BBC	-2276
▁descri	-2277
▁Ha	-2278
▁Not	-2279
tle	-2280
iece	-2281
▁review	-2282
▁heav	-2283
▁usual	-2284
▁aud	-2285
▁pent	-2286
▁urge	-2287
▁drive	-2288
▁phy	-2289
▁marri	-2290
uct	-2291
ference	-2292
▁France	-2293
▁Park	-2294
▁base	-2295
▁individual	-2296
und	-2297
▁El	-2298
▁ford	-2299
▁judge	-2300
▁responsib	-2301
▁inn	-2302
▁oil	-2303
▁vir	-2304
▁caus	-2305
▁Hol	-2306
▁publish	-2307
▁criminal	-2308
8,	-2309
▁fear	-2310
▁wrong	-2311
▁workers	-2312
▁Phi	-2313
▁uring	-2314
'.	-2315
rib	-2316
▁Do	-2317
▁gave	-2318
▁gue	-2319
▁Ho	-2320
▁Cup	-2321
▁heat	-2322
▁Govern	-2323
▁ave	-2324
▁enc	-2325
ane	-2326
hicle	-2327
▁sense	-2328
2,	-2329
lad	-2330
ness	-2331
▁fair	-2332
▁hreat	-2333
▁venue	-2334
cel	-2335
▁dest	-2336
▁vari	-2337
▁bi	-2338
▁Med	-2339
▁ious	-2340
▁camp	-2341
▁pair	-2342
▁aging	-2343
▁affect	-2344
▁William	-2345
2.	-2346
▁Getty	-2347
▁amount	-2348
▁murder	-2349
▁neg	-2350
▁actor	-2351
▁capital	-2352
anc	-2353
▁range	-2354
▁average	-2355
▁aim	-2356
▁image	-2357
ph	-2358
lex	-2359
▁David	-2360
▁depart	-2361
ech	-2362
▁ify	-2363
▁heard	-2364
▁remov	-2365
▁centre	-2366
▁beaut	-2367
▁wo	-2368
▁rise	-2369
umb	-2370
▁husband	-2371
▁40	-2372
time	-2373
There	-2374
▁Pari	-2375
▁express	-2376
hed	-2377
▁prior	-2378
▁dependent	-2379
play	-2380
▁ner	-2381
▁wee	-2382
udget	-2383
▁debate	-2384
▁origin	-2385
lam	-2386
▁temp	-2387
ca	-2388
▁wel	-2389
▁hop	-2390
▁extra	-2391
▁foreign	-2392
▁ba	-2393
▁Gen	-2394
▁dia	-2395
▁pack	-2396
ring	-2397
▁aid	-2398
▁Angel	-2399
▁touch	-2400
▁pool	-2401
▁Bl	-2402
▁growth	-2403
▁flight	-2404
▁ium	-2405
▁nomin	-2406
▁entire	-2407
ged	-2408
▁tro	-2409
▁patient	-2410
▁Prince	-2411
▁vehicle	-2412
▁More	-2413
liament	-2414
lli	-2415
▁sea	-2416
▁rated	-2417
ban	-2418
▁lock	-2419
▁block	-2420
mier	-2421
▁French	-2422
oric	-2423
▁link	-2424
stitut	-2425
▁kids	-2426
5,	-2427
▁By	-2428
spir	-2429
▁easy	-2430
▁piece	-2431
▁Dis	-2432
▁ada	-2433
▁exist	-2434
▁speci	-2435
▁petition	-2436
▁Palestinian	-2437
bru	-2438
▁counter	-2439
▁clean	-2440
▁prevent	-2441
rowd	-2442
asion	-2443
▁gone	-2444
kend	-2445
▁works	-2446
iving	-2447
▁black	-2448
▁thank	-2449
▁discuss	-2450
lass	-2451
ousand	-2452
▁measure	-2453
▁damage	-2454
▁weekend	-2455
▁hood	-2456
▁sexual	-2457
▁pend	-2458
▁ak	-2459
cle	-2460
▁Cor	-2461
▁sent	-2462
▁cru	-2463
▁logy	-2464
▁ians	-2465
▁river	-2466
▁strateg	-2467
▁Febru	-2468
▁paper	-2469
▁sound	-2470
▁cancer	-2471
▁paid	-2472
▁fence	-2473
▁thousand	-2474
▁street	-2475
▁structure	-2476
mas	-2477
▁Bri	-2478
▁Pat	-2479
▁senior	-2480
▁Lu	-2481
eria	-2482
▁Del	-2483
▁fac	-2484
▁pending	-2485
▁station	-2486
▁described	-2487
▁ti	-2488
▁educ	-2489
▁eith	-2490
▁rout	-2491
▁Office	-2492
ally	-2493
▁Sam	-2494
▁phys	-2495
7,	-2496
utin	-2497
▁lack	-2498
6,	-2499
▁mot	-2500
▁study	-2501
▁speech	-2502
▁Fin	-2503
▁birth	-2504
▁terri	-2505
**	-2506
▁grand	-2507
ess	-2508
▁medical	-2509
▁sle	-2510
▁trust	-2511
xic	-2512
▁environment	-2513
▁Pet	-2514
▁weight	-2515
▁conduct	-2516
▁families	-2517
ham	-2518
▁Met	-2519
▁En	-2520
▁rul	-2521
▁rock	-2522
▁arrive	-2523
▁App	-2524
▁Dur	-2525
▁ease	-2526
▁avoid	-2527
▁extrem	-2528
do	-2529
ipl	-2530
▁rad	-2531
▁acy	-2532
▁repe	-2533
▁roll	-2534
▁mer	-2535
▁achie	-2536
fort	-2537
▁Tor	-2538
▁flation	-2539
ential	-2540
▁neigh	-2541
swer	-2542
▁movie	-2543
ove	-2544
omb	-2545
▁cat	-2546
Picture	-2547
▁Christmas	-2548
▁ted	-2549
▁nine	-2550
▁dress	-2551
▁ships	-2552
bas	-2553
▁driv	-2554
isl	-2555
▁der	-2556
aly	-2557
▁Di	-2558
▁cir	-2559
-2	-2560
itor	-2561
▁Brita	-2562
▁fit	-2563
round	-2564
▁Mark	-2565
▁tre	-2566
orney	-2567
▁leav	-2568
▁migrant	-2569
▁crowd	-2570
owl	-2571
▁bal	-2572
▁Prime	-2573
▁giving	-2574
▁screen	-2575
▁promise	-2576
▁Op	-2577
▁Jon	-2578
▁tun	-2579
▁prim	-2580
▁complain	-2581
3.	-2582
con	-2583
▁Sch	-2584
▁farm	-2585
▁Party	-2586
atural	-2587
▁climat	-2588
emic	-2589
▁Jack	-2590
▁song	-2591
▁intro	-2592
▁style	-2593
ray	-2594
▁web	-2595
▁excit	-2596
▁favour	-2597
uk	-2598
▁Africa	-2599
▁answer	-2600
na	-2601
▁stra	-2602
▁choice	-2603
▁tribute	-2604
bert	-2605
▁198	-2606
▁Sim	-2607
▁shock	-2608
▁quality	-2609
ste	-2610
▁consum	-2611
of	-2612
▁perfect	-2613
apon	-2614
work	-2615
▁Mor	-2616
▁flo	-2617
▁han	-2618
▁west	-2619
▁abs	-2620
▁appeal	-2621
▁rating	-2622
▁holiday	-2623
hael	-2624
▁jur	-2625
▁lit	-2626
▁chair	-2627
▁peace	-2628
▁boo	-2629
▁hur	-2630
▁tradition	-2631
dict	-2632
▁Ben	-2633
reg	-2634
▁Sin	-2635
▁ess	-2636
▁olog	-2637
ablish	-2638
▁rival	-2639
▁credit	-2640
▁comfort	-2641
▁Ukrainian	-2642
▁lay	-2643
▁drink	-2644
▁popul	-2645
▁truggle	-2646
ault	-2647
▁chester	-2648
▁Game	-2649
▁Photo	-2650
▁regular	-2651
▁teen	-2652
▁winn	-2653
▁agency	-2654
▁draw	-2655
▁pull	-2656
▁lation	-2657
▁conflic	-2658
▁ney	-2659
▁pla	-2660
▁Last	-2661
▁wall	-2662
▁Rep	-2663
▁multipl	-2664
▁contract	-2665
If	-2666
▁Paul	-2667
▁skin	-2668
ali	-2669
▁stor	-2670
▁named	-2671
▁voice	-2672
▁Wal	-2673
▁double	-2674
▁practic	-2675
▁Of	-2676
▁ee	-2677
▁Mad	-2678
aur	-2679
▁Flor	-2680
▁crisis	-2681
▁regul	-2682
aby	-2683
▁Par	-2684
▁ticket	-2685
ling	-2686
▁carri	-2687
▁fort	-2688
ociate	-2689
▁progress	-2690
▁solution	-2691
▁rain	-2692
bel	-2693
▁trip	-2694
▁weapon	-2695
▁ա	-2696
▁gain	-2697
▁engage	-2698
▁fill	-2699
▁carry	-2700
▁loved	-2701
▁spread	-2702
▁techno	-2703
ily	-2704
▁slow	-2705
ung	-2706
racy	-2707
▁band	-2708
▁ances	-2709
app	-2710
▁Bro	-2711
▁culture	-2712
▁ned	-2713
▁site	-2714
▁doctor	-2715
▁stock	-2716
▁compet	-2717
▁journal	-2718
▁aware	-2719
▁discover	-2720
8.	-2721
ormal	-2722
▁hair	-2723
▁award	-2724
▁Mean	-2725
igital	-2726
▁hap	-2727
▁Serv	-2728
▁blood	-2729
▁plant	-2730
ho	-2731
▁Ric	-2732
▁mental	-2733
▁type	-2734
▁recover	-2735
7.	-2736
here	-2737
▁bag	-2738
ating	-2739
▁path	-2740
▁facilit	-2741
</	-2742
iet	-2743
▁1.	-2744
▁Cam	-2745
3,	-2746
pm	-2747
▁Que	-2748
▁Green	-2749
▁Smith	-2750
▁estimat	-2751
▁NA	-2752
▁determin	-2753
▁original	-2754
▁appearance	-2755
ask	-2756
▁ren	-2757
▁pres	-2758
▁repeat	-2759
▁Michael	-2760
▁contact	-2761
go	-2762
▁poor	-2763
▁Sa	-2764
▁ught	-2765
▁content	-2766
▁replace	-2767
▁production	-2768
ky	-2769
van	-2770
▁Sec	-2771
▁sleep	-2772
▁common	-2773
▁Mac	-2774
▁Tom	-2775
▁ality	-2776
▁green	-2777
egal	-2778
▁anim	-2779
▁scar	-2780
▁truck	-2781
▁necess	-2782
bb	-2783
▁battle	-2784
olut	-2785
▁posit	-2786
▁respect	-2787
▁migration	-2788
6.	-2789
▁Ed	-2790
.,	-2791
In	-2792
▁21	-2793
ceed	-2794
▁ily	-2795
▁sell	-2796
luence	-2797
▁standing	-2798
!"	-2799
▁vac	-2800
▁suspect	-2801
▁establish	-2802
lim	-2803
▁Tex	-2804
▁Street	-2805
▁Champion	-2806
▁ep	-2807
izen	-2808
site	-2809
▁kick	-2810
yer	-2811
▁reme	-2812
apan	-2813
▁memor	-2814
▁ordin	-2815
▁wonder	-2816
hase	-2817
mend	-2818
hedul	-2819
▁Coun	-2820
▁secure	-2821
▁surprise	-2822
4,	-2823
▁tal	-2824
▁Coll	-2825
igeria	-2826
▁gin	-2827
▁ming	-2828
▁poke	-2829
▁soft	-2830
▁brother	-2831
▁maintain	-2832
orea	-2833
▁ncy	-2834
▁letter	-2835
▁Scottish	-2836
▁attention	-2837
▁bott	-2838
ee	-2839
cies	-2840
▁sort	-2841
▁pitch	-2842
▁schedul	-2843
▁Wo	-2844
▁Even	-2845
ode	-2846
▁adm	-2847
▁2024.	-2848
▁legisl	-2849
▁Nigeria	-2850
▁sentence	-2851
4.	-2852
▁High	-2853
▁decla	-2854
▁effective	-2855
▁Korea	-2856
▁settle	-2857
▁payment	-2858
tend	-2859
▁swe	-2860
▁dram	-2861
▁particip	-2862
▁Mur	-2863
▁emotion	-2864
▁natural	-2865
ka	-2866
ape	-2867
▁Chief	-2868
▁winner	-2869
▁professional	-2870
▁Mos	-2871
▁warm	-2872
▁hotel	-2873
▁league	-2874
cu	-2875
parat	-2876
▁issu	-2877
▁reflect	-2878
▁standard	-2879
▁Arm	-2880
ndred	-2881
▁Japan	-2882
▁craft	-2883
▁hundred	-2884
▁budget	-2885
reng	-2886
▁ult	-2887
▁fell	-2888
▁encou	-2889
▁factor	-2890
▁stream	-2891
ize	-2892
▁rid	-2893
▁ves	-2894
▁true	-2895
rength	-2896
▁collect	-2897
▁trength	-2898
▁2.	-2899
▁sil	-2900
itive	-2901
▁artist	-2902
▁request	-2903
▁ny	-2904
▁north	-2905
▁education	-2906
▁Mid	-2907
▁sector	-2908
▁separat	-2909
▁ification	-2910
▁influence	-2911
alse	-2912
▁gas	-2913
▁built	-2914
▁rough	-2915
▁regard	-2916
▁throw	-2917
▁Kam	-2918
▁justice	-2919
▁above	-2920
▁cho	-2921
yn	-2922
ruit	-2923
▁begin	-2924
▁pleas	-2925
▁shire	-2926
▁convers	-2927
▁defeat	-2928
▁website	-2929
▁conference	-2930
gress	-2931
▁partie	-2932
hel	-2933
▁retire	-2934
▁sports	-2935
▁(1	-2936
▁camera	-2937
But	-2938
ashi	-2939
▁Port	-2940
▁ency	-2941
▁central	-2942
ustain	-2943
▁People	-2944
▁gri	-2945
▁beha	-2946
▁electric	-2947
lan	-2948
▁1,	-2949
▁nar	-2950
▁physical	-2951
▁Alex	-2952
▁Service	-2953
▁lied	-2954
▁dream	-2955
▁sight	-2956
▁ct	-2957
▁ov	-2958
▁cal	-2959
▁convict	-2960
-0	-2961
▁MP	-2962
▁cas	-2963
▁2024,	-2964
▁Secret	-2965
▁weather	-2966
cogn	-2967
vert	-2968
arden	-2969
▁Mart	-2970
▁contain	-2971
ift	-2972
▁ka	-2973
▁Mer	-2974
▁abuse	-2975
▁lawyer	-2976
nda	-2977
▁defin	-2978
▁afford	-2979
▁Bank	-2980
▁tele	-2981
aurant	-2982
ida	-2983
▁oci	-2984
▁prime	-2985
▁fix	-2986
▁fest	-2987
▁charged	-2988
ify	-2989
oul	-2990
▁Over	-2991
▁location	-2992
pro	-2993
▁ibility	-2994
mon	-2995
▁ub	-2996
▁prett	-2997
▁stone	-2998
▁univers	-2999
▁Act	-3000
▁Robert	-3001
▁active	-3002
▁specific	-3003
▁Tay	-3004
▁First	-3005
▁bling	-3006
▁makers	-3007
▁Premier	-3008
▁introduc	-3009
▁EU	-3010
come	-3011
▁Tik	-3012
▁197	-3013
mi	-3014
▁2020	-3015
▁Speak	-3016
▁van	-3017
▁wit	-3018
▁deni	-3019
▁alter	-3020
▁profit	-3021
▁council	-3022
Tok	-3023
▁tory	-3024
ful	-3025
force	-3026
▁miss	-3027
▁normal	-3028
▁recogn	-3029
▁kept	-3030
▁south	-3031
▁highlight	-3032
bt	-3033
▁shift	-3034
▁tough	-3035
▁illegal	-3036
▁scri	-3037
▁Bill	-3038
▁alone	-3039
▁generation	-3040
▁enger	-3041
▁closed	-3042
▁indic	-3043
▁trade	-3044
▁hou	-3045
reaten	-3046
▁Council	-3047
oos	-3048
▁2022,	-3049
▁Putin	-3050
▁exact	-3051
▁essential	-3052
▁cry	-3053
▁Ali	-3054
▁poli	-3055
▁famous	-3056
▁citizen	-3057
stitution	-3058
ex	-3059
▁Fox	-3060
▁tion	-3061
▁guard	-3062
▁assault	-3063
viv	-3064
▁Ky	-3065
▁From	-3066
▁burn	-3067
bour	-3068
▁baby	-3069
▁Andre	-3070
▁TikTok	-3071
▁Florida	-3072
60	-3073
▁Two	-3074
▁mix	-3075
▁fuel	-3076
▁historic	-3077
su	-3078
able	-3079
▁bor	-3080
▁hon	-3081
▁rich	-3082
ago	-3083
▁Nor	-3084
▁Chan	-3085
▁yard	-3086
▁priorit	-3087
▁IT	-3088
▁annual	-3089
▁connect	-3090
▁Mod	-3091
▁obvi	-3092
▁intell	-3093
▁version	-3094
▁22	-3095
llar	-3096
▁mate	-3097
▁demon	-3098
▁iving	-3099
▁impress	-3100
▁sustain	-3101
ba	-3102
vey	-3103
gree	-3104
jure	-3105
▁terror	-3106
▁appoint	-3107
▁district	-3108
▁Guard	-3109
▁statu	-3110
▁scored	-3111
pre	-3112
▁sav	-3113
▁wed	-3114
▁cies	-3115
▁quad	-3116
▁spend	-3117
urch	-3118
▁flu	-3119
▁opt	-3120
▁Sup	-3121
▁ath	-3122
▁cash	-3123
▁wild	-3124
▁storm	-3125
▁mount	-3126
▁injure	-3127
▁Gl	-3128
rish	-3129
▁Far	-3130
▁eth	-3131
ona	-3132
syl	-3133
▁sey	-3134
▁Every	-3135
▁restaurant	-3136
99	-3137
That	-3138
usion	-3139
▁fortun	-3140
▁remark	-3141
▁network	-3142
▁JP	-3143
arth	-3144
▁apart	-3145
▁lined	-3146
▁inspir	-3147
▁fine	-3148
▁Sport	-3149
quir	-3150
▁cus	-3151
▁Li	-3152
▁Open	-3153
▁boss	-3154
▁UN	-3155
isode	-3156
▁2023,	-3157
▁fighting	-3158
ya	-3159
▁Health	-3160
▁welcome	-3161
▁ators	-3162
▁union	-3163
▁Martin	-3164
▁born	-3165
▁floor	-3166
andemic	-3167
▁placed	-3168
▁predict	-3169
iel	-3170
▁adult	-3171
▁ancing	-3172
▁ociety	-3173
▁witness	-3174
▁corre	-3175
▁Here	-3176
▁corn	-3177
▁wish	-3178
▁Royal	-3179
▁Super	-3180
▁stress	-3181
▁Tayl	-3182
enty	-3183
▁Art	-3184
▁cow	-3185
▁island	-3186
▁60	-3187
Getty	-3188
ron	-3189
▁audience	-3190
unk	-3191
▁--	-3192
▁Ob	-3193
▁boost	-3194
ization	-3195
▁advance	-3196
▁organization	-3197
▁ang	-3198
▁gar	-3199
▁sat	-3200
▁guilt	-3201
▁ongo	-3202
▁defense	-3203
▁missile	-3204
term	-3205
▁mach	-3206
▁delay	-3207
▁mob	-3208
▁row	-3209
▁vent	-3210
▁Georgi	-3211
▁gender	-3212
▁temper	-3213
ami	-3214
lear	-3215
▁elected	-3216
▁Sir	-3217
▁unit	-3218
▁batter	-3219
ffic	-3220
▁elling	-3221
▁lies	-3222
▁behavi	-3223
▁contest	-3224
▁text	-3225
▁Apple	-3226
▁surviv	-3227
▁journey	-3228
ced	-3229
urb	-3230
▁Val	-3231
▁fle	-3232
▁fly	-3233
▁ning	-3234
▁crash	-3235
▁middle	-3236
▁abort	-3237
▁inner	-3238
▁beauti	-3239
▁recall	-3240
▁Ant	-3241
▁Hill	-3242
▁Mexic	-3243
olog	-3244
▁debut	-3245
▁facing	-3246
▁village	-3247
▁sn	-3248
▁dance	-3249
▁recom	-3250
▁juries	-3251
▁attract	-3252
nel	-3253
angu	-3254
wa	-3255
azon	-3256
date	-3257
▁Lat	-3258
▁dai	-3259
▁attorney	-3260
▁recommend	-3261
cin	-3262
▁para	-3263
▁oc	-3264
▁angerous	-3265
▁coast	-3266
▁Conserv	-3267
ium	-3268
port	-3269
▁bey	-3270
▁spl	-3271
▁gent	-3272
▁advise	-3273
▁Cap	-3274
▁auto	-3275
▁fuse	-3276
▁fresh	-3277
▁episode	-3278
za	-3279
olf	-3280
▁NH	-3281
▁rative	-3282
▁absolut	-3283
▁ites	-3284
action	-3285
ashion	-3286
▁eventual	-3287
cue	-3288
tic	-3289
▁era	-3290
▁display	-3291
▁bon	-3292
▁cient	-3293
▁center	-3294
▁universi	-3295
nic	-3296
▁Form	-3297
▁update	-3298
▁straight	-3299
24	-3300
▁ns	-3301
▁lift	-3302
▁rank	-3303
▁bomb	-3304
▁ones	-3305
▁prove	-3306
secutor	-3307
▁threaten	-3308
▁bum	-3309
▁Sing	-3310
▁doubt	-3311
▁insist	-3312
▁English	-3313
▁Ry	-3314
▁writer	-3315
▁prosecutor	-3316
500	-3317
off	-3318
ural	-3319
▁traditional	-3320
▁Ver	-3321
▁combin	-3322
▁Ham	-3323
▁Carol	-3324
▁occur	-3325
▁Amazon	-3326
▁difference	-3327
▁journalist	-3328
▁Our	-3329
▁nel	-3330
▁Union	-3331
roud	-3332
▁Wale	-3333
▁page	-3334
▁ncies	-3335
▁conserv	-3336
▁demonst	-3337
▁CE	-3338
▁solve	-3339
▁stood	-3340
▁holding	-3341
And	-3342
▁pandemic	-3343
▁spective	-3344
▁construct	-3345
ux	-3346
▁ya	-3347
▁blo	-3348
▁tree	-3349
▁Island	-3350
-4	-3351
▁beach	-3352
▁favor	-3353
▁scape	-3354
▁writing	-3355
▁Pak	-3356
▁Post	-3357
▁artic	-3358
anguage	-3359
▁parliament	-3360
▁é	-3361
▁3.	-3362
▁Bay	-3363
▁bid	-3364
▁istic	-3365
▁balance	-3366
▁intellig	-3367
▁0	-3368
▁Du	-3369
▁debt	-3370
▁dish	-3371
▁married	-3372
▁2021	-3373
▁rent	-3374
male	-3375
▁wave	-3376
▁izing	-3377
▁tourn	-3378
▁tournament	-3379
oud	-3380
▁Mel	-3381
▁ending	-3382
gg	-3383
▁lic	-3384
▁Matt	-3385
▁cool	-3386
▁agent	-3387
▁aries	-3388
▁Kamala	-3389
▁topped	-3390
▁wan	-3391
▁Shar	-3392
▁plane	-3393
▁bla	-3394
▁flood	-3395
istan	-3396
▁cook	-3397
▁email	-3398
▁applic	-3399
▁enforce	-3400
▁23	-3401
▁Lou	-3402
▁loan	-3403
▁cheme	-3404
▁drone	-3405
▁restrict	-3406
▁pi	-3407
▁typ	-3408
▁harm	-3409
▁athle	-3410
▁choos	-3411
▁penal	-3412
▁declare	-3413
▁Ear	-3414
▁cop	-3415
▁tip	-3416
▁dark	-3417
▁college	-3418
▁surround	-3419
▁encourage	-3420
gra	-3421
▁Ag	-3422
▁analy	-3423
▁connection	-3424
▁consist	-3425
▁subject	-3426
▁CO	-3427
▁haven	-3428
▁Wil	-3429
▁ana	-3430
▁fat	-3431
▁spo	-3432
▁disp	-3433
▁ense	-3434
▁write	-3435
so	-3436
raw	-3437
▁tin	-3438
▁jump	-3439
▁nice	-3440
AP	-3441
▁Ara	-3442
▁cream	-3443
▁negot	-3444
▁occasion	-3445
▁$2	-3446
▁Fore	-3447
▁Gold	-3448
sc	-3449
▁psy	-3450
senal	-3451
▁cloth	-3452
▁medic	-3453
▁Jones	-3454
hio	-3455
What	-3456
fact	-3457
rong	-3458
▁Bet	-3459
▁pod	-3460
▁stated	-3461
▁General	-3462
roy	-3463
▁dad	-3464
▁doz	-3465
▁bull	-3466
▁Khan	-3467
▁smart	-3468
cise	-3469
▁Chel	-3470
▁expand	-3471
▁committed	-3472
▁MO	-3473
▁Qu	-3474
▁Ty	-3475
▁female	-3476
▁window	-3477
▁mini	-3478
▁rity	-3479
▁hern	-3480
▁hat	-3481
▁Home	-3482
▁allies	-3483
▁Pakistan	-3484
▁Commission	-3485
di	-3486
osp	-3487
▁Mag	-3488
▁cli	-3489
▁putt	-3490
▁reject	-3491
My	-3492
▁ja	-3493
▁Ber	-3494
▁rap	-3495
hibit	-3496
spect	-3497
▁strict	-3498
oda	-3499
▁Sea	-3500
▁Tur	-3501
▁eek	-3502
range	-3503
aterial	-3504
▁extend	-3505
▁die	-3506
▁jail	-3507
▁2023.	-3508
pper	-3509
▁Ten	-3510
▁boat	-3511
▁material	-3512
▁admitted	-3513
irit	-3514
ouble	-3515
▁ferred	-3516
▁gather	-3517
▁cultural	-3518
che	-3519
▁om	-3520
▁Bel	-3521
▁blue	-3522
▁ocracy	-3523
hard	-3524
▁kit	-3525
ria	-3526
▁4.	-3527
▁ballot	-3528
▁traffic	-3529
▁27	-3530
quent	-3531
▁ique	-3532
▁tack	-3533
▁logical	-3534
▁skill	-3535
▁Daniel	-3536
▁£2	-3537
▁Mike	-3538
▁brief	-3539
▁ically	-3540
sea	-3541
▁speed	-3542
▁intens	-3543
▁colleague	-3544
ero	-3545
hank	-3546
▁Hall	-3547
▁amaz	-3548
▁imag	-3549
▁user	-3550
▁stick	-3551
▁Most	-3552
▁Test	-3553
▁sister	-3554
▁achieve	-3555
back	-3556
▁Rom	-3557
▁tle	-3558
▁sand	-3559
▁ware	-3560
▁brain	-3561
▁proud	-3562
▁trend	-3563
▁ginning	-3564
▁gate	-3565
▁Group	-3566
▁raise	-3567
▁Cro	-3568
▁Bre	-3569
▁fee	-3570
▁lla	-3571
▁bowl	-3572
▁diagn	-3573
▁ester	-3574
olk	-3575
tee	-3576
udi	-3577
▁kin	-3578
emb	-3579
▁lan	-3580
aster	-3581
▁fish	-3582
▁supply	-3583
▁ultimate	-3584
oe	-3585
▁Law	-3586
▁tool	-3587
▁2022.	-3588
▁print	-3589
▁winter	-3590
▁28	-3591
▁trail	-3592
▁School	-3593
▁ged	-3594
▁cold	-3595
▁mine	-3596
▁garden	-3597
▁modern	-3598
ու	-3599
▁Penn	-3600
▁dism	-3601
▁article	-3602
cul	-3603
▁ju	-3604
▁ress	-3605
face	-3606
▁God	-3607
▁hone	-3608
▁paint	-3609
▁listen	-3610
▁ception	-3611
▁ization	-3612
▁intelligence	-3613
new	-3614
▁nor	-3615
▁aged	-3616
▁infra	-3617
inal	-3618
▁Ram	-3619
▁Tim	-3620
▁esh	-3621
acher	-3622
▁Play	-3623
▁ility	-3624
ea	-3625
She	-3626
▁ston	-3627
▁confide	-3628
▁Hou	-3629
▁mag	-3630
▁grant	-3631
▁wealth	-3632
▁pension	-3633
▁language	-3634
▁resource	-3635
▁gro	-3636
▁dome	-3637
▁stuff	-3638
▁troop	-3639
▁committee	-3640
▁gy	-3641
▁ni	-3642
▁Bur	-3643
▁hall	-3644
▁wedd	-3645
▁engine	-3646
▁definite	-3647
▁CB	-3648
▁Kenn	-3649
▁Musk	-3650
▁soci	-3651
▁cities	-3652
▁prose	-3653
▁talent	-3654
▁Photograph	-3655
▁Ye	-3656
chase	-3657
▁flag	-3658
▁typical	-3659
fa	-3660
ris	-3661
▁Wa	-3662
lude	-3663
▁Sal	-3664
▁pin	-3665
▁guide	-3666
appoint	-3667
▁survey	-3668
▁Id	-3669
▁MA	-3670
▁Den	-3671
onent	-3672
▁luck	-3673
▁ried	-3674
▁bridge	-3675
▁ack	-3676
▁fare	-3677
▁acknow	-3678
▁degree	-3679
▁necessary	-3680
▁pra	-3681
arian	-3682
▁feet	-3683
▁intend	-3684
por	-3685
▁AP	-3686
▁Jew	-3687
▁shut	-3688
▁divers	-3689
▁institut	-3690
{"	-3691
opt	-3692
▁Ita	-3693
▁dry	-3694
▁Kate	-3695
▁Sant	-3696
▁horr	-3697
uclear	-3698
▁maybe	-3699
▁African	-3700
▁NC	-3701
▁ron	-3702
▁Arab	-3703
▁Both	-3704
▁equal	-3705
▁Chelsea	-3706
▁purchase	-3707
▁II	-3708
▁Han	-3709
▁Swe	-3710
ufact	-3711
▁berg	-3712
hicago	-3713
▁Queen	-3714
▁route	-3715
▁programme	-3716
si	-3717
▁80	-3718
▁Ken	-3719
▁wag	-3720
anyah	-3721
▁corner	-3722
▁retail	-3723
lt	-3724
cal	-3725
▁Pra	-3726
▁prompt	-3727
▁transport	-3728
▁fli	-3729
▁Modi	-3730
▁mist	-3731
▁Elect	-3732
▁Liver	-3733
usive	-3734
▁Adam	-3735
▁Mary	-3736
▁Vict	-3737
▁llah	-3738
▁Franc	-3739
▁expos	-3740
▁colour	-3741
▁contra	-3742
▁soldier	-3743
ube	-3744
▁Ca	-3745
▁rev	-3746
▁sci	-3747
▁udd	-3748
▁cerem	-3749
▁Arsenal	-3750
zer	-3751
▁Nic	-3752
▁Tri	-3753
▁Mill	-3754
▁teacher	-3755
▁Why	-3756
▁nut	-3757
▁san	-3758
▁Starmer	-3759
So	-3760
oogle	-3761
▁burgh	-3762
isation	-3763
▁Netanyah	-3764
40	-3765
▁Mil	-3766
▁Vic	-3767
irect	-3768
ufactur	-3769
▁register	-3770
▁organisation	-3771
▁26	-3772
gger	-3773
▁lash	-3774
▁rick	-3775
▁complex	-3776
▁credible	-3777
▁domestic	-3778
▁.	-3779
▁nt	-3780
▁Reg	-3781
▁2019	-3782
▁note	-3783
▁dismiss	-3784
▁fashion	-3785
▁nuclear	-3786
▁planned	-3787
▁associate	-3788
▁len	-3789
▁tight	-3790
▁manufactur	-3791
mo	-3792
orse	-3793
▁Big	-3794
▁pose	-3795
▁semi	-3796
▁laugh	-3797
▁minor	-3798
▁Chicago	-3799
rel	-3800
▁Vir	-3801
▁code	-3802
▁flow	-3803
▁liber	-3804
imb	-3805
val	-3806
▁Kel	-3807
▁altern	-3808
▁Jer	-3809
▁ado	-3810
▁ery	-3811
▁odd	-3812
▁tee	-3813
right	-3814
▁plenty	-3815
▁commission	-3816
br	-3817
▁blame	-3818
▁broke	-3819
▁giant	-3820
▁dollar	-3821
▁Francis	-3822
▁fortunate	-3823
bn	-3824
▁je	-3825
▁mum	-3826
▁rum	-3827
▁zone	-3828
itting	-3829
▁isation	-3830
▁keeping	-3831
▁90	-3832
▁ST	-3833
inion	-3834
▁Clark	-3835
▁guest	-3836
▁written	-3837
',	-3838
▁Ari	-3839
useum	-3840
▁Grand	-3841
▁digital	-3842
zz	-3843
▁Cel	-3844
▁Mari	-3845
urance	-3846
▁destroy	-3847
▁crew	-3848
▁medal	-3849
▁royal	-3850
▁Richard	-3851
▁implement	-3852
pping	-3853
▁chain	-3854
▁gradu	-3855
▁fellow	-3856
▁object	-3857
pose	-3858
▁rose	-3859
▁sequ	-3860
▁ville	-3861
▁sitting	-3862
shi	-3863
reath	-3864
▁gift	-3865
▁cruci	-3866
▁honest	-3867
gend	-3868
▁imm	-3869
▁cycle	-3870
▁cancel	-3871
▁disappoint	-3872
▁Face	-3873
▁catch	-3874
▁Google	-3875
▁governor	-3876
▁conservative	-3877
mod	-3878
noon	-3879
▁ino	-3880
▁arch	-3881
▁coal	-3882
▁equip	-3883
▁udden	-3884
▁assess	-3885
▁correct	-3886
▁neighbor	-3887
▁transform	-3888
cit	-3889
▁tor	-3890
▁IN	-3891
▁Up	-3892
▁ach	-3893
▁twi	-3894
▁Press	-3895
▁broken	-3896
▁tter	-3897
▁lived	-3898
▁encing	-3899
▁remind	-3900
▁scribe	-3901
▁ard	-3902
▁Louis	-3903
▁bound	-3904
▁itude	-3905
▁related	-3906
▁Love	-3907
▁dict	-3908
▁Western	-3909
ina	-3910
▁PA	-3911
otten	-3912
▁truth	-3913
▁lative	-3914
▁reform	-3915
▁pensive	-3916
▁upon	-3917
▁glass	-3918
▁afternoon	-3919
▁amb	-3920
▁Lake	-3921
▁Brown	-3922
▁crack	-3923
▁capture	-3924
▁Mi	-3925
▁Sky	-3926
quare	-3927
▁ition	-3928
▁rator	-3929
▁Victor	-3930
▁Ku	-3931
▁Kar	-3932
▁nes	-3933
▁tend	-3934
▁broadcast	-3935
osh	-3936
iment	-3937
antage	-3938
▁Thoma	-3939
▁opponent	-3940
hod	-3941
file	-3942
▁joke	-3943
▁weak	-3944
▁multi	-3945
ilities	-3946
▁activity	-3947
af	-3948
▁Out	-3949
▁Seat	-3950
▁Step	-3951
▁wise	-3952
▁photograph	-3953
▁ction	-3954
▁marriage	-3955
25	-3956
irt	-3957
▁Ash	-3958
▁ral	-3959
▁shar	-3960
▁Middle	-3961
▁rescue	-3962
hol	-3963
▁PM	-3964
▁VI	-3965
▁adopt	-3966
▁domin	-3967
▁tance	-3968
▁itarian	-3969
abo	-3970
ino	-3971
▁Ko	-3972
▁Kim	-3973
▁Twi	-3974
▁mil	-3975
▁blow	-3976
▁athlete	-3977
aps	-3978
▁rush	-3979
▁integ	-3980
▁minim	-3981
▁Mexico	-3982
▁century	-3983
80	-3984
FL	-3985
gy	-3986
▁fif	-3987
ength	-3988
▁Miss	-3989
▁captain	-3990
No	-3991
rt	-3992
▁Max	-3993
▁rom	-3994
▁pirit	-3995
▁Kat	-3996
▁mor	-3997
▁ivity	-3998
▁render	-3999
▁trouble	-4000
▁Christian	-4001
▁Kei	-4002
block	-4003
ropri	-4004
▁Earl	-4005
▁ager	-4006
strong	-4007
▁Under	-4008
▁Sports	-4009
▁finance	-4010
▁opinion	-4011
▁5.	-4012
▁hole	-4013
▁cheap	-4014
▁mouth	-4015
▁Direct	-4016
▁mistake	-4017
ER	-4018
▁gl	-4019
veil	-4020
▁Res	-4021
▁2021,	-4022
▁disrupt	-4023
ny	-4024
cket	-4025
▁Blue	-4026
▁Hunt	-4027
▁Sara	-4028
▁Stad	-4029
▁split	-4030
▁transfer	-4031
▁Us	-4032
ocal	-4033
▁Hav	-4034
▁hurt	-4035
▁River	-4036
▁Singh	-4037
▁Swift	-4038
▁asset	-4039
▁sequence	-4040
▁Shi	-4041
▁Tre	-4042
▁appre	-4043
▁frame	-4044
▁Commit	-4045
▁consult	-4046
▁maker	-4047
▁advantage	-4048
va	-4049
set	-4050
rant	-4051
▁NBC	-4052
ledge	-4053
▁rations	-4054
uge	-4055
▁Ja	-4056
▁au	-4057
▁dro	-4058
▁tur	-4059
banon	-4060
▁Chris	-4061
▁collection	-4062
▁Gi	-4063
rass	-4064
▁Well	-4065
▁load	-4066
▁Great	-4067
▁Win	-4068
ploma	-4069
▁cell	-4070
▁chat	-4071
▁shape	-4072
▁veter	-4073
▁diploma	-4074
▁festival	-4075
▁acknowledge	-4076
▁­	-4077
▁29	-4078
▁nav	-4079
▁scr	-4080
▁Like	-4081
▁male	-4082
ribution	-4083
▁tension	-4084
▁Mal	-4085
▁eat	-4086
▁ibly	-4087
▁mort	-4088
▁advoc	-4089
▁collaps	-4090
alian	-4091
retch	-4092
▁locate	-4093
▁Institut	-4094
▁70	-4095
▁ga	-4096
chen	-4097
▁196	-4098
▁Cri	-4099
▁capa	-4100
▁breath	-4101
▁Lebanon	-4102
▁purpose	-4103
▁neighbour	-4104
▁offensive	-4105
anda	-4106
gery	-4107
rill	-4108
▁Nat	-4109
▁Who	-4110
▁liter	-4111
▁prospect	-4112
hy	-4113
▁/	-4114
▁Dub	-4115
▁Men	-4116
▁jud	-4117
▁prov	-4118
▁spring	-4119
▁Let	-4120
▁ade	-4121
▁bear	-4122
▁ette	-4123
▁task	-4124
▁Italian	-4125
po	-4126
ons	-4127
▁0.	-4128
▁vul	-4129
▁tear	-4130
▁wash	-4131
▁capacit	-4132
▁promote	-4133
▁willing	-4134
10	-4135
▁#	-4136
▁@	-4137
▁Ron	-4138
erate	-4139
▁flix	-4140
▁rail	-4141
▁approve	-4142
arm	-4143
▁Tha	-4144
▁Van	-4145
▁flat	-4146
▁inde	-4147
▁accom	-4148
▁fused	-4149
▁surgery	-4150
▁ol	-4151
▁Cur	-4152
▁Meg	-4153
▁pun	-4154
▁infect	-4155
▁invite	-4156
▁breaking	-4157
▁regional	-4158
▁Pan	-4159
▁wing	-4160
▁motor	-4161
▁vaccin	-4162
type	-4163
▁clin	-4164
▁pregn	-4165
▁apolog	-4166
▁cricket	-4167
▁appropri	-4168
▁function	-4169
-3	-4170
▁IC	-4171
rate	-4172
▁drama	-4173
▁fraud	-4174
▁compete	-4175
▁surface	-4176
▁Da	-4177
▁Bir	-4178
▁lad	-4179
▁lux	-4180
▁Mail	-4181
▁hang	-4182
▁knock	-4183
▁veteran	-4184
▁transition	-4185
zil	-4186
▁MOR	-4187
▁Sur	-4188
▁Stud	-4189
▁bert	-4190
ercise	-4191
▁scale	-4192
▁therap	-4193
▁collabo	-4194
▁suppose	-4195
▁direction	-4196
▁communication	-4197
▁ez	-4198
▁ji	-4199
million	-4200
ja	-4201
▁FA	-4202
just	-4203
▁Bos	-4204
▁Sab	-4205
▁2025	-4206
▁Colle	-4207
▁youth	-4208
▁master	-4209
▁ceremony	-4210
ola	-4211
▁Glas	-4212
▁grew	-4213
▁meal	-4214
▁ubst	-4215
dow	-4216
▁PS	-4217
page	-4218
gling	-4219
▁hero	-4220
▁stretch	-4221
▁truggling	-4222
pet	-4223
▁Cov	-4224
▁dev	-4225
▁Good	-4226
▁aggress	-4227
▁confident	-4228
17	-4229
med	-4230
▁BI	-4231
inci	-4232
▁Bal	-4233
▁Fan	-4234
▁Gov	-4235
▁hree	-4236
▁cease	-4237
▁sweet	-4238
▁observ	-4239
cl	-4240
ye	-4241
ada	-4242
atic	-4243
sing	-4244
▁Bei	-4245
▁Dun	-4246
▁Rod	-4247
▁ung	-4248
▁feed	-4249
▁bench	-4250
▁affair	-4251
▁wi	-4252
▁Fur	-4253
▁Jim	-4254
▁Lib	-4255
cohol	-4256
▁2016	-4257
▁Social	-4258
▁reserv	-4259
▁switch	-4260
▁elector	-4261
ism	-4262
▁ow	-4263
▁Lee	-4264
▁erty	-4265
▁swim	-4266
▁joint	-4267
▁handle	-4268
▁monitor	-4269
▁podcast	-4270
▁presence	-4271
▁behaviour	-4272
imin	-4273
ances	-4274
▁Bell	-4275
▁ging	-4276
▁ambit	-4277
▁commer	-4278
▁resign	-4279
▁stances	-4280
▁accident	-4281
tra	-4282
▁Ba	-4283
room	-4284
▁mic	-4285
▁rob	-4286
▁bath	-4287
▁suppl	-4288
▁reading	-4289
▁cientist	-4290
▁RE	-4291
▁tru	-4292
icient	-4293
perate	-4294
▁frust	-4295
5%	-4296
BA	-4297
▁Glo	-4298
▁lev	-4299
▁sky	-4300
▁Carl	-4301
▁Road	-4302
▁Team	-4303
▁Atlan	-4304
▁relig	-4305
▁Brazil	-4306
▁church	-4307
▁tackle	-4308
▁bird	-4309
▁negoti	-4310
▁Central	-4311
▁analyst	-4312
▁exercise	-4313
"}	-4314
▁lie	-4315
▁lief	-4316
▁notice	-4317
▁indicate	-4318
▁Bu	-4319
▁Year	-4320
▁Irish	-4321
▁length	-4322
▁entertain	-4323
▁insurance	-4324
▁€	-4325
▁va	-4326
arily	-4327
▁esca	-4328
▁mann	-4329
▁Att	-4330
▁Live	-4331
▁panel	-4332
▁channel	-4333
▁LA	-4334
▁Dra	-4335
▁Cath	-4336
▁Sand	-4337
▁Wood	-4338
▁onic	-4339
▁regulation	-4340
▁appropriate	-4341
▁ck	-4342
▁tan	-4343
▁Judge	-4344
▁Trans	-4345
▁empor	-4346
▁novel	-4347
▁worry	-4348
vention	-4349
▁constant	-4350
OP	-4351
St	-4352
iar	-4353
draw	-4354
▁Dai	-4355
▁jun	-4356
▁pil	-4357
▁Best	-4358
▁neck	-4359
▁Islam	-4360
▁theor	-4361
▁bodies	-4362
▁vulner	-4363
▁command	-4364
▁reaction	-4365
▁NFL	-4366
▁Nav	-4367
▁imagine	-4368
▁emporary	-4369
reak	-4370
▁ITV	-4371
arant	-4372
▁Real	-4373
▁luxu	-4374
▁horse	-4375
▁ami	-4376
▁Free	-4377
▁Josh	-4378
▁gang	-4379
00,000	-4380
▁suspend	-4381
15	-4382
ula	-4383
▁£3	-4384
hance	-4385
▁Vill	-4386
▁pott	-4387
▁bottle	-4388
▁legend	-4389
▁Hel	-4390
▁clip	-4391
ategor	-4392
arantee	-4393
▁bottom	-4394
▁corpor	-4395
▁Rad	-4396
▁gam	-4397
▁joy	-4398
▁pen	-4399
▁root	-4400
▁trap	-4401
▁Force	-4402
▁abilities	-4403
mb	-4404
▁Dar	-4405
▁McC	-4406
▁Toda	-4407
▁fold	-4408
▁tact	-4409
▁ural	-4410
▁wound	-4411
▁Dal	-4412
final	-4413
▁solid	-4414
▁categor	-4415
▁clusion	-4416
▁forecast	-4417
run	-4418
zona	-4419
▁Boe	-4420
▁div	-4421
▁gow	-4422
▁mut	-4423
▁Read	-4424
▁label	-4425
chan	-4426
utch	-4427
▁coin	-4428
▁empha	-4429
▁max	-4430
▁fake	-4431
▁clash	-4432
▁classic	-4433
▁io	-4434
long	-4435
▁nur	-4436
▁cogn	-4437
▁comb	-4438
▁hate	-4439
▁nish	-4440
▁prize	-4441
▁studi	-4442
▁easily	-4443
▁proceed	-4444
▁6.	-4445
inct	-4446
false	-4447
▁desti	-4448
▁waste	-4449
▁Follow	-4450
▁conclude	-4451
amm	-4452
▁Ala	-4453
▁Ter	-4454
▁ray	-4455
▁Mont	-4456
▁Tour	-4457
▁ical	-4458
▁false	-4459
▁shots	-4460
▁deploy	-4461
▁praise	-4462
▁withdraw	-4463
▁bond	-4464
▁tail	-4465
▁cious	-4466
▁draft	-4467
▁mates	-4468
▁pound	-4469
▁trick	-4470
▁violent	-4471
▁Des	-4472
▁wer	-4473
vania	-4474
sylvania	-4475
▁Arizona	-4476
▁2,	-4477
▁las	-4478
▁Cont	-4479
▁bonus	-4480
▁ե	-4481
Our	-4482
▁Ni	-4483
aint	-4484
▁reli	-4485
▁Element	-4486
▁trigger	-4487
▁Pennsylvania	-4488
ml	-4489
bon	-4490
ody	-4491
oph	-4492
call	-4493
▁Dia	-4494
▁fant	-4495
▁trop	-4496
▁2020,	-4497
▁Found	-4498
▁beauty	-4499
ob	-4500
▁Er	-4501
ront	-4502
▁sal	-4503
▁tir	-4504
▁yan	-4505
▁Work	-4506
▁adapt	-4507
▁ignor	-4508
▁Invest	-4509
▁commercial	-4510
gen	-4511
▁ures	-4512
▁innov	-4513
▁sharp	-4514
▁detect	-4515
▁routine	-4516
▁section	-4517
▁$3	-4518
hern	-4519
race	-4520
▁del	-4521
▁wake	-4522
▁Right	-4523
▁assum	-4524
▁pledge	-4525
ota	-4526
▁twe	-4527
higan	-4528
oring	-4529
▁Lord	-4530
▁nort	-4531
▁vast	-4532
▁divid	-4533
▁refer	-4534
▁renew	-4535
▁frequent	-4536
Re	-4537
▁7.	-4538
▁Jay	-4539
▁tens	-4540
▁faith	-4541
▁achiev	-4542
▁bright	-4543
▁intention	-4544
▁Ce	-4545
ysis	-4546
▁bio	-4547
▁lap	-4548
▁gram	-4549
▁alysis	-4550
▁method	-4551
▁northern	-4552
▁guarantee	-4553
5-	-4554
▁gap	-4555
▁arti	-4556
▁valu	-4557
▁Frank	-4558
fi	-4559
▁ն	-4560
▁reci	-4561
▁admit	-4562
▁Federal	-4563
▁alcohol	-4564
▁Parliament	-4565
▁Jr	-4566
▁RT	-4567
▁Brad	-4568
▁deput	-4569
▁manda	-4570
▁Michigan	-4571
▁Pad	-4572
▁hir	-4573
▁pal	-4574
assin	-4575
▁Ris	-4576
▁Veg	-4577
ander	-4578
gment	-4579
▁plus	-4580
▁verse	-4581
▁constitution	-4582
▁<	-4583
ext	-4584
ange	-4585
cean	-4586
▁Bru	-4587
▁Pub	-4588
▁Whe	-4589
▁tum	-4590
▁sens	-4591
olution	-4592
▁Kenned	-4593
▁circum	-4594
▁client	-4595
▁strange	-4596
▁technic	-4597
uel	-4598
▁Fi	-4599
resh	-4600
▁hid	-4601
ourne	-4602
▁Covi	-4603
▁ison	-4604
▁snow	-4605
▁mobile	-4606
▁signal	-4607
▁invasion	-4608
ww	-4609
mar	-4610
see	-4611
▁31	-4612
▁Cle	-4613
▁Rang	-4614
lliant	-4615
▁desir	-4616
▁notes	-4617
▁ki	-4618
▁Simon	-4619
▁ology	-4620
▁swing	-4621
▁explos	-4622
▁oppose	-4623
45	-4624
▁FC	-4625
▁Zel	-4626
▁quiet	-4627
▁identify	-4628
gypt	-4629
▁Are	-4630
▁Greg	-4631
▁outs	-4632
%.	-4633
▁IS	-4634
▁MS	-4635
▁ci	-4636
icip	-4637
▁Der	-4638
▁Lew	-4639
▁Sil	-4640
▁Syd	-4641
▁Also	-4642
▁Pala	-4643
▁cade	-4644
▁negat	-4645
▁helter	-4646
▁princi	-4647
▁closure	-4648
▁kitchen	-4649
▁IP	-4650
ffee	-4651
ghan	-4652
▁Def	-4653
▁Nick	-4654
ighter	-4655
▁prefer	-4656
▁racing	-4657
\"	-4658
▁NAT	-4659
▁ast	-4660
ified	-4661
▁Jenn	-4662
▁chem	-4663
▁grab	-4664
▁igate	-4665
GB	-4666
▁Hot	-4667
▁Jeff	-4668
▁Jose	-4669
▁advert	-4670
▁fighter	-4671
▁recognise	-4672
,{"	-4673
▁Cy	-4674
ador	-4675
▁hom	-4676
▁chip	-4677
▁atory	-4678
▁ledge	-4679
ospital	-4680
▁ingham	-4681
▁lating	-4682
▁recruit	-4683
▁changing	-4684
▁sanction	-4685
anch	-4686
▁Bas	-4687
▁CBS	-4688
▁Fil	-4689
▁Luc	-4690
icide	-4691
▁Egypt	-4692
▁Disney	-4693
▁coffee	-4694
ev	-4695
dot	-4696
pic	-4697
▁Pen	-4698
under	-4699
▁Edin	-4700
▁Gall	-4701
▁Tele	-4702
▁wine	-4703
oulder	-4704
▁color	-4705
▁tries	-4706
▁Afghan	-4707
▁install	-4708
▁mountain	-4709
▁brilliant	-4710
Is	-4711
helm	-4712
rain	-4713
▁Cla	-4714
model	-4715
▁Club	-4716
▁Vega	-4717
▁Wall	-4718
▁tuck	-4719
▁science	-4720
ht	-4721
leg	-4722
▁ah	-4723
▁yn	-4724
▁Sol	-4725
▁vil	-4726
point	-4727
▁virus	-4728
duction	-4729
▁belong	-4730
▁spoken	-4731
▁holders	-4732
▁assassin	-4733
▁Hy	-4734
ronic	-4735
▁Long	-4736
▁Watch	-4737
▁enhance	-4738
▁q	-4739
rial	-4740
▁Any	-4741
▁Get	-4742
▁Jas	-4743
▁NBA	-4744
▁Show	-4745
▁2019,	-4746
▁Medic	-4747
▁fruit	-4748
▁endorse	-4749
▁Guardian	-4750
▁yo	-4751
free	-4752
▁Exp	-4753
▁Jul	-4754
▁Back	-4755
▁excel	-4756
-19	-4757
sia	-4758
▁SE	-4759
▁tz	-4760
eper	-4761
like	-4762
▁Mun	-4763
▁Wel	-4764
▁kar	-4765
▁mal	-4766
iance	-4767
▁ancy	-4768
▁ches	-4769
▁elig	-4770
▁lean	-4771
▁honor	-4772
▁upset	-4773
▁Muslim	-4774
▁confront	-4775
▁familiar	-4776
▁ai	-4777
phic	-4778
▁Hen	-4779
▁din	-4780
idency	-4781
▁clinic	-4782
▁Hospital	-4783
▁dramatic	-4784
▁residency	-4785
▁Hum	-4786
▁ica	-4787
▁ome	-4788
▁pic	-4789
▁Four	-4790
▁ifying	-4791
!!	-4792
Tube	-4793
whelm	-4794
▁bask	-4795
▁core	-4796
▁illa	-4797
▁Phone	-4798
▁Sydney	-4799
▁forget	-4800
▁competitive	-4801
▁Et	-4802
▁Emma	-4803
▁grown	-4804
▁potted	-4805
▁refuge	-4806
▁á	-4807
▁ox	-4808
▁Ann	-4809
▁Bol	-4810
▁ski	-4811
andon	-4812
Be	-4813
▁uni	-4814
▁Rafa	-4815
minute	-4816
▁desperate	-4817
For	-4818
sel	-4819
▁ko	-4820
▁tab	-4821
▁boot	-4822
▁peak	-4823
▁Little	-4824
▁YouTube	-4825
▁distance	-4826
11	-4827
▁Tai	-4828
▁bot	-4829
▁Call	-4830
▁Still	-4831
▁forest	-4832
ado	-4833
nis	-4834
▁Barr	-4835
▁stad	-4836
▁volv	-4837
▁Earth	-4838
▁Moham	-4839
▁labor	-4840
▁wicket	-4841
▁passion	-4842
70	-4843
▁CN	-4844
▁roo	-4845
▁Look	-4846
▁Child	-4847
▁viral	-4848
▁formal	-4849
▁keeper	-4850
▁thrill	-4851
▁element	-4852
▁scoring	-4853
▁generate	-4854
esh	-4855
pto	-4856
▁lyn	-4857
▁Foot	-4858
▁pace	-4859
▁spin	-4860
manent	-4861
element	-4862
▁graphic	-4863
▁possess	-4864
▁Associate	-4865
▁GP	-4866
rian	-4867
orrow	-4868
uters	-4869
▁folk	-4870
▁hill	-4871
▁sick	-4872
▁Saudi	-4873
▁Space	-4874
▁Thank	-4875
▁climb	-4876
▁lands	-4877
▁teach	-4878
▁castle	-4879
▁ու	-4880
cist	-4881
orce	-4882
rist	-4883
▁GOP	-4884
▁Sher	-4885
▁chel	-4886
▁specu	-4887
▁vital	-4888
hew	-4889
oop	-4890
itan	-4891
▁ala	-4892
▁egg	-4893
▁Lead	-4894
▁Block	-4895
▁istan	-4896
▁abandon	-4897
▁package	-4898
ili	-4899
▁py	-4900
▁Addi	-4901
▁wrap	-4902
▁Share	-4903
▁riety	-4904
▁Centre	-4905
▁Digital	-4906
▁NS	-4907
5,000	-4908
▁2018	-4909
▁Syria	-4910
▁dates	-4911
▁inquir	-4912
.)	-4913
AR	-4914
not	-4915
gage	-4916
▁Kev	-4917
▁hyd	-4918
▁ric	-4919
mptom	-4920
▁Comp	-4921
▁Davi	-4922
▁exit	-4923
▁2021.	-4924
▁Brook	-4925
▁obtain	-4926
kh	-4927
let	-4928
▁nd	-4929
▁Gri	-4930
▁ani	-4931
▁Your	-4932
▁diet	-4933
▁tank	-4934
cedent	-4935
cedure	-4936
▁numer	-4937
▁symptom	-4938
▁western	-4939
led	-4940
ting	-4941
▁plot	-4942
▁punish	-4943
▁regime	-4944
▁Stephen	-4945
▁engineer	-4946
▁mortgage	-4947
ann	-4948
door	-4949
▁cept	-4950
▁maxim	-4951
▁metre	-4952
▁ummit	-4953
▁studio	-4954
12	-4955
my	-4956
cons	-4957
line	-4958
▁Cra	-4959
▁Ven	-4960
▁vib	-4961
▁clar	-4962
▁lets	-4963
▁mayor	-4964
▁acting	-4965
▁flower	-4966
yl	-4967
ան	-4968
emn	-4969
▁mi	-4970
gent	-4971
▁End	-4972
▁cock	-4973
▁lent	-4974
▁seed	-4975
▁Lewis	-4976
▁belief	-4977
▁34	-4978
cert	-4979
fend	-4980
▁Bad	-4981
▁ker	-4982
▁Line	-4983
▁hunt	-4984
▁Public	-4985
▁shoulder	-4986
▁procedure	-4987
▁Ru	-4988
star	-4989
▁Eli	-4990
▁Beach	-4991
▁alert	-4992
▁chick	-4993
▁ennis	-4994
▁basket	-4995
▁contrast	-4996
▁permanent	-4997
tr	-4998
▁33	-4999
▁500	-5000
▁Ray	-5001
▁Fami	-5002
▁edic	-5003
▁icit	-5004
▁itor	-5005
▁Anton	-5006
▁ideal	-5007
▁ficial	-5008
▁eastern	-5009
▁edicated	-5010
90	-5011
lot	-5012
▁Ask	-5013
▁Dou	-5014
▁Shan	-5015
▁anni	-5016
▁bell	-5017
▁equit	-5018
▁exhibit	-5019
▁qualify	-5020
met	-5021
part	-5022
▁Coo	-5023
▁Ker	-5024
▁Pay	-5025
▁fis	-5026
antic	-5027
ioned	-5028
▁riot	-5029
▁react	-5030
▁cution	-5031
▁shadow	-5032
▁Defense	-5033
▁delight	-5034
▁za	-5035
▁Bla	-5036
▁Gor	-5037
▁tim	-5038
inger	-5039
▁Down	-5040
▁immun	-5041
▁traum	-5042
cussion	-5043
▁convince	-5044
%,	-5045
ps	-5046
ita	-5047
▁Ly	-5048
▁Gab	-5049
▁sch	-5050
▁Palm	-5051
▁rape	-5052
iminat	-5053
▁candal	-5054
▁condemn	-5055
acu	-5056
▁leak	-5057
▁iness	-5058
▁micro	-5059
▁Virgin	-5060
▁mentioned	-5061
▁reference	-5062
▁32	-5063
amic	-5064
▁nda	-5065
▁rug	-5066
▁Camp	-5067
▁Phil	-5068
▁adjust	-5069
▁motion	-5070
▁corrupt	-5071
▁ologist	-5072
▁organise	-5073
On	-5074
pan	-5075
▁AF	-5076
hand	-5077
hise	-5078
▁bin	-5079
ordan	-5080
ortion	-5081
▁Media	-5082
▁Valle	-5083
▁combat	-5084
amb	-5085
opp	-5086
▁golf	-5087
▁ture	-5088
▁Obama	-5089
▁pilot	-5090
▁planet	-5091
▁tensive	-5092
▁Mas	-5093
▁Son	-5094
itect	-5095
▁cheer	-5096
▁plead	-5097
▁radio	-5098
▁tactic	-5099
ima	-5100
lin	-5101
▁Lad	-5102
▁pit	-5103
▁rub	-5104
sylum	-5105
▁tine	-5106
▁Roman	-5107
▁Water	-5108
▁rapid	-5109
▁asylum	-5110
▁carbon	-5111
▁plastic	-5112
▁instruct	-5113
▁regulator	-5114
isan	-5115
onym	-5116
▁Boy	-5117
▁Hur	-5118
▁bak	-5119
▁Walz	-5120
▁dian	-5121
▁excl	-5122
▁uine	-5123
▁Author	-5124
▁Common	-5125
▁isaster	-5126
▁exclusive	-5127
▁surprising	-5128
8-	-5129
nap	-5130
▁36	-5131
ibly	-5132
odge	-5133
rena	-5134
▁vow	-5135
Every	-5136
▁ride	-5137
▁Jordan	-5138
▁hopper	-5139
▁credibly	-5140
umn	-5141
way	-5142
▁Nik	-5143
▁Ros	-5144
▁calm	-5145
▁riff	-5146
▁conce	-5147
▁franc	-5148
▁reput	-5149
▁honour	-5150
▁therapy	-5151
html	-5152
▁Plu	-5153
▁gotten	-5154
▁igator	-5155
▁eliminat	-5156
by	-5157
rey	-5158
▁45	-5159
▁GM	-5160
▁Mu	-5161
▁VID	-5162
▁reb	-5163
▁Bang	-5164
▁Life	-5165
▁aved	-5166
▁drag	-5167
▁2020.	-5168
▁Robin	-5169
▁entry	-5170
▁stadium	-5171
▁franchise	-5172
▁ի	-5173
spe	-5174
▁Na	-5175
body	-5176
▁Hag	-5177
▁jet	-5178
elect	-5179
▁Jess	-5180
▁pray	-5181
▁Bridge	-5182
▁comput	-5183
▁detain	-5184
▁native	-5185
7-	-5186
inn	-5187
lax	-5188
duct	-5189
llor	-5190
▁Tech	-5191
▁mond	-5192
licate	-5193
▁ication	-5194
▁tunning	-5195
TV	-5196
itol	-5197
▁Tam	-5198
ensky	-5199
▁Bowl	-5200
▁Ohio	-5201
▁virt	-5202
▁export	-5203
▁alliance	-5204
▁approval	-5205
▁(£	-5206
▁rot	-5207
cious	-5208
▁Elli	-5209
▁Fest	-5210
▁Rose	-5211
▁acad	-5212
▁iest	-5213
▁habit	-5214
▁shell	-5215
▁arrange	-5216
▁internal	-5217
bu	-5218
▁Ur	-5219
isor	-5220
▁Ever	-5221
▁Fire	-5222
▁nick	-5223
ricane	-5224
▁ional	-5225
▁outfit	-5226
▁submit	-5227
▁concert	-5228
wk	-5229
▁í	-5230
200	-5231
▁Coh	-5232
▁Nar	-5233
▁Rob	-5234
▁cup	-5235
▁gon	-5236
▁kil	-5237
▁uck	-5238
▁bies	-5239
▁Capitol	-5240
▁Zelensky	-5241
▁overwhelm	-5242
▁religious	-5243
gic	-5244
lig	-5245
vit	-5246
wel	-5247
▁ID	-5248
▁vin	-5249
grade	-5250
▁Vlad	-5251
▁occup	-5252
▁optim	-5253
▁shirt	-5254
Ne	-5255
▁NE	-5256
"},{"	-5257
▁Stri	-5258
▁Tony	-5259
▁Walk	-5260
▁Micro	-5261
▁loyal	-5262
▁xi	-5263
teer	-5264
▁Bus	-5265
▁Dor	-5266
▁pour	-5267
unteer	-5268
▁guess	-5269
▁promo	-5270
▁impose	-5271
//	-5272
ttp	-5273
▁Yo	-5274
▁Ast	-5275
▁kov	-5276
▁mad	-5277
▁dies	-5278
▁rier	-5279
rovers	-5280
▁motiv	-5281
▁psych	-5282
roversial	-5283
thi	-5284
▁Ta	-5285
▁Vo	-5286
▁bol	-5287
▁bow	-5288
▁ens	-5289
▁rell	-5290
▁Ander	-5291
▁Color	-5292
▁Young	-5293
▁align	-5294
▁chart	-5295
▁tepped	-5296
▁speaker	-5297
▁creation	-5298
▁recognize	-5299
://	-5300
▁DA	-5301
▁PR	-5302
▁Cru	-5303
▁awa	-5304
▁rac	-5305
▁tol	-5306
ictly	-5307
▁Rock	-5308
▁drew	-5309
cellor	-5310
▁appli	-5311
▁moral	-5312
▁breach	-5313
▁string	-5314
▁omorrow	-5315
▁trictly	-5316
▁militant	-5317
ien	-5318
▁Ut	-5319
▁Mem	-5320
▁Old	-5321
▁USA	-5322
▁mir	-5323
▁Week	-5324
▁snap	-5325
▁Where	-5326
▁shore	-5327
▁taste	-5328
▁wheel	-5329
▁finger	-5330
▁piracy	-5331
▁tional	-5332
▁defensive	-5333
▁appreciate	-5334
▁TH	-5335
▁ef	-5336
ttan	-5337
▁Fer	-5338
▁gym	-5339
ulous	-5340
▁hung	-5341
▁pric	-5342
▁Madri	-5343
▁relax	-5344
▁hattan	-5345
▁cutting	-5346
▁charging	-5347
▁ES	-5348
▁Ka	-5349
▁SN	-5350
utal	-5351
▁10-	-5352
▁ile	-5353
▁Land	-5354
▁aire	-5355
▁cine	-5356
▁forc	-5357
▁jack	-5358
▁math	-5359
▁Mitch	-5360
▁blast	-5361
assador	-5362
certain	-5363
▁Report	-5364
▁conven	-5365
▁contribution	-5366
NA	-5367
ker	-5368
nee	-5369
▁xy	-5370
ocol	-5371
First	-5372
night	-5373
▁Bull	-5374
▁quit	-5375
▁teal	-5376
To	-5377
ell	-5378
>,""	-5379
osit	-5380
scri	-5381
▁Way	-5382
▁2000	-5383
ocolat	-5384
▁Final	-5385
▁sters	-5386
Element	-5387
▁bourne	-5388
▁reputation	-5389
23	-5390
lder	-5391
pear	-5392
▁Ban	-5393
▁Hay	-5394
▁ella	-5395
▁evacu	-5396
▁troph	-5397
▁casual	-5398
▁graduate	-5399
▁corporate	-5400
osis	-5401
▁Leg	-5402
▁Zea	-5403
▁dyn	-5404
▁Asia	-5405
▁impl	-5406
▁fatal	-5407
▁proved	-5408
▁diagnose	-5409
▁aggressive	-5410
ede	-5411
▁RA	-5412
imir	-5413
▁NAS	-5414
▁bul	-5415
▁Turn	-5416
▁keen	-5417
▁matic	-5418
▁35	-5419
▁ug	-5420
cont	-5421
▁Kha	-5422
▁tag	-5423
astic	-5424
▁narrow	-5425
▁unveil	-5426
▁embrace	-5427
▁outdoor	-5428
▁controversial	-5429
All	-5430
▁LE	-5431
mbol	-5432
▁Did	-5433
▁Kur	-5434
▁Lok	-5435
▁ici	-5436
▁lov	-5437
▁2017	-5438
▁Cana	-5439
▁Wild	-5440
▁tiny	-5441
▁notic	-5442
▁theat	-5443
related	-5444
▁crypto	-5445
▁silver	-5446
▁Sk	-5447
▁dez	-5448
▁lor	-5449
▁ram	-5450
▁Book	-5451
▁beth	-5452
▁loud	-5453
▁contr	-5454
▁shake	-5455
▁assure	-5456
yo	-5457
low	-5458
▁8.	-5459
▁Pl	-5460
sist	-5461
▁Bor	-5462
▁Hale	-5463
▁compl	-5464
▁define	-5465
▁BlockElement	-5466
col	-5467
▁pad	-5468
▁syn	-5469
▁una	-5470
hetic	-5471
▁Stan	-5472
▁milk	-5473
▁Board	-5474
▁dispu	-5475
▁evast	-5476
▁itzer	-5477
▁navig	-5478
▁patter	-5479
▁Attorney	-5480
▁evastating	-5481
▁industrial	-5482
▁Ah	-5483
embl	-5484
ries	-5485
wart	-5486
▁Has	-5487
▁Six	-5488
▁Lion	-5489
▁Mass	-5490
▁stro	-5491
▁wick	-5492
▁Sever	-5493
▁Villa	-5494
▁Edward	-5495
▁borrow	-5496
▁minimum	-5497
▁Vladimir	-5498
ski	-5499
sue	-5500
▁Vi	-5501
▁eb	-5502
▁Para	-5503
▁Plan	-5504
▁empt	-5505
▁mash	-5506
▁rang	-5507
▁accur	-5508
▁dated	-5509
▁earth	-5510
▁brutal	-5511
▁chemical	-5512
den	-5513
▁6,	-5514
▁Ga	-5515
▁ye	-5516
▁Tok	-5517
▁cia	-5518
amine	-5519
▁Anth	-5520
▁Jean	-5521
▁slip	-5522
▁Michel	-5523
▁pursue	-5524
▁assembl	-5525
▁premier	-5526
sa	-5527
ón	-5528
bet	-5529
▁($	-5530
▁Mir	-5531
▁ain	-5532
▁mun	-5533
▁tie	-5534
▁shoe	-5535
50,000	-5536
▁Major	-5537
▁Cooper	-5538
▁museum	-5539
▁suburb	-5540
▁Reuters	-5541
▁divorce	-5542
▁omebody	-5543
▁volunteer	-5544
Al	-5545
hal	-5546
ici	-5547
▁Dy	-5548
▁£4	-5549
fill	-5550
host	-5551
life	-5552
mber	-5553
▁Lau	-5554
▁atm	-5555
▁eco	-5556
▁mit	-5557
▁Mayor	-5558
▁arian	-5559
▁drawn	-5560
▁branch	-5561
▁counsel	-5562
▁architect	-5563
▁uncertain	-5564
▁DP	-5565
▁EV	-5566
▁Ath	-5567
▁Pel	-5568
▁dig	-5569
▁Gala	-5570
▁Ethio	-5571
▁anonym	-5572
▁symbol	-5573
▁caption	-5574
amin	-5575
esla	-5576
▁Ira	-5577
▁Lis	-5578
▁pov	-5579
▁Ball	-5580
Credit	-5581
▁phase	-5582
▁slide	-5583
▁indict	-5584
▁warrant	-5585
▁continent	-5586
▁collective	-5587
Oh	-5588
.""	-5589
erb	-5590
pel	-5591
▁7,	-5592
▁WA	-5593
▁Sar	-5594
▁Top	-5595
▁iff	-5596
month	-5597
▁Cart	-5598
▁Cole	-5599
▁Fort	-5600
▁alarm	-5601
▁grave	-5602
▁meters	-5603
▁rocket	-5604
▁Festival	-5605
▁pregnant	-5606
75	-5607
▁Bi	-5608
▁ER	-5609
":"<	-5610
hour	-5611
tion	-5612
▁Bha	-5613
rance	-5614
▁meat	-5615
▁zero	-5616
▁Coast	-5617
▁logue	-5618
▁shout	-5619
amental	-5620
▁Church	-5621
▁beaten	-5622
▁pollut	-5623
▁square	-5624
▁caution	-5625
bo	-5626
cha	-5627
ooth	-5628
▁Sud	-5629
▁Sum	-5630
▁dar	-5631
▁por	-5632
uster	-5633
▁Alli	-5634
▁boast	-5635
▁colon	-5636
▁stein	-5637
▁constitutional	-5638
IS	-5639
ata	-5640
ope	-5641
ansa	-5642
hens	-5643
▁Lan	-5644
▁Vis	-5645
▁ena	-5646
▁map	-5647
▁Conf	-5648
▁Emil	-5649
▁Take	-5650
▁cott	-5651
▁mony	-5652
▁pill	-5653
▁tant	-5654
ternal	-5655
▁Santa	-5656
▁resum	-5657
▁spell	-5658
▁xiety	-5659
▁Senator	-5660
▁Ak	-5661
▁Ec	-5662
▁zz	-5663
▁194	-5664
▁Mah	-5665
▁ini	-5666
▁Beij	-5667
▁Ross	-5668
▁toll	-5669
▁Tesla	-5670
▁lunch	-5671
▁plate	-5672
▁posing	-5673
▁regret	-5674
▁remote	-5675
19	-5676
▁fab	-5677
▁gor	-5678
▁2019.	-5679
▁Local	-5680
▁deleg	-5681
▁gging	-5682
▁lining	-5683
16	-5684
PA	-5685
ey	-5686
chi	-5687
ele	-5688
▁Cr	-5689
▁GA	-5690
enia	-5691
▁Nas	-5692
▁Pop	-5693
▁Tru	-5694
▁Hamp	-5695
▁anda	-5696
▁bury	-5697
▁haul	-5698
▁mere	-5699
▁moon	-5700
▁rack	-5701
▁Kansa	-5702
▁bread	-5703
▁grate	-5704
▁liver	-5705
▁compens	-5706
▁musical	-5707
36	-5708
At	-5709
▁5,	-5710
vere	-5711
▁nat	-5712
▁quot	-5713
▁salt	-5714
▁layer	-5715
▁curren	-5716
▁retain	-5717
cussions	-5718
▁Prosecut	-5719
▁iscussions	-5720
22	-5721
▁ABC	-5722
▁Bak	-5723
▁Int	-5724
class	-5725
▁Cast	-5726
▁guid	-5727
▁lett	-5728
▁mium	-5729
▁skip	-5730
▁Stock	-5731
▁Storm	-5732
▁Anthony	-5733
▁Project	-5734
▁diagnosis	-5735
1-	-5736
ese	-5737
mat	-5738
▁3,	-5739
▁Ri	-5740
pass	-5741
▁Vin	-5742
▁ich	-5743
▁rah	-5744
▁2015	-5745
▁mail	-5746
▁raid	-5747
▁Dodge	-5748
▁cloud	-5749
▁addict	-5750
▁breast	-5751
▁commod	-5752
▁placing	-5753
▁profile	-5754
▁chocolat	-5755
▁ensitive	-5756
.</	-5757
▁pu	-5758
▁vo	-5759
▁Hon	-5760
osite	-5761
▁Cost	-5762
▁Food	-5763
▁Hard	-5764
▁Kent	-5765
▁crib	-5766
▁cute	-5767
▁reek	-5768
▁Power	-5769
▁brush	-5770
▁grace	-5771
▁expans	-5772
▁killer	-5773
▁lessly	-5774
▁reader	-5775
▁Develop	-5776
▁subscri	-5777
▁interact	-5778
14	-5779
18	-5780
het	-5781
ras	-5782
▁ik	-5783
▁Rah	-5784
▁Wis	-5785
▁fro	-5786
erial	-5787
▁pile	-5788
▁scal	-5789
ladesh	-5790
▁yellow	-5791
▁opposite	-5792
ON	-5793
ana	-5794
▁9.	-5795
▁Ac	-5796
▁Aga	-5797
▁Jen	-5798
▁Rub	-5799
▁Tro	-5800
▁fas	-5801
▁mas	-5802
▁Luke	-5803
▁craz	-5804
▁hail	-5805
▁knee	-5806
▁roof	-5807
▁ening	-5808
▁grass	-5809
▁lence	-5810
▁nurse	-5811
▁pocket	-5812
▁termin	-5813
▁inspect	-5814
="	-5815
▁49	-5816
high	-5817
nerg	-5818
▁Ang	-5819
azine	-5820
▁Moor	-5821
▁Prot	-5822
▁Wind	-5823
▁bone	-5824
▁halt	-5825
antial	-5826
▁Helen	-5827
▁Organ	-5828
▁moder	-5829
▁magazine	-5830
cifi	-5831
▁Doug	-5832
▁chef	-5833
▁liqu	-5834
appear	-5835
▁Eliza	-5836
▁plain	-5837
▁sugar	-5838
▁weigh	-5839
▁levant	-5840
▁smooth	-5841
▁Football	-5842
▁AL	-5843
▁300	-5844
▁Kir	-5845
▁cul	-5846
▁nan	-5847
▁Comb	-5848
▁Maha	-5849
▁Pale	-5850
▁aide	-5851
▁kilo	-5852
▁disci	-5853
▁nesota	-5854
secutive	-5855
▁dominate	-5856
▁provision	-5857
Af	-5858
gue	-5859
Some	-5860
▁Gre	-5861
▁fel	-5862
▁nei	-5863
▁Town	-5864
▁error	-5865
▁rebel	-5866
▁behavior	-5867
▁fantastic	-5868
▁fundamental	-5869
▁ML	-5870
▁Abb	-5871
▁Cab	-5872
▁Vol	-5873
▁eva	-5874
▁ita	-5875
wanda	-5876
▁Arch	-5877
▁Bron	-5878
ournal	-5879
▁Celeb	-5880
▁Conne	-5881
▁Metro	-5882
▁topic	-5883
▁Matthew	-5884
▁triking	-5885
▁partisan	-5886
▁valuable	-5887
▁ubstantial	-5888
2-	-5889
54	-5890
▁հ	-5891
▁Ok	-5892
▁Card	-5893
▁file	-5894
▁impe	-5895
▁lace	-5896
▁magn	-5897
crimin	-5898
▁Human	-5899
▁Armenia	-5900
▁computer	-5901
▁Bangladesh	-5902
▁experiment	-5903
***	-5904
Con	-5905
phi	-5906
▁UC	-5907
▁pp	-5908
agle	-5909
open	-5910
wing	-5911
▁Die	-5912
▁Low	-5913
▁Rog	-5914
▁Sav	-5915
binet	-5916
▁asso	-5917
▁hint	-5918
▁Music	-5919
▁Stone	-5920
▁resto	-5921
▁strip	-5922
▁Econom	-5923
▁fiscal	-5924
▁permit	-5925
▁recipe	-5926
▁Special	-5927
▁cabinet	-5928
Tr	-5929
itz	-5930
▁Adv	-5931
▁Cli	-5932
onsor	-5933
ureau	-5934
▁elev	-5935
▁mask	-5936
▁pump	-5937
▁Dutch	-5938
▁Night	-5939
▁thick	-5940
▁Museum	-5941
▁repair	-5942
▁solved	-5943
▁consecutive	-5944
mak	-5945
owa	-5946
▁ek	-5947
▁ze	-5948
ings	-5949
▁rag	-5950
▁Hind	-5951
▁Lind	-5952
▁efer	-5953
▁flav	-5954
▁izes	-5955
friend	-5956
▁knife	-5957
▁sheet	-5958
istance	-5959
▁Global	-5960
▁Master	-5961
▁Morgan	-5962
▁tragic	-5963
▁Profess	-5964
▁succeed	-5965
▁eferring	-5966
▁Gro	-5967
▁Mau	-5968
▁Non	-5969
▁Raj	-5970
▁ded	-5971
▁bike	-5972
▁laid	-5973
▁1,000	-5974
▁Mount	-5975
▁ridge	-5976
▁buyers	-5977
▁resort	-5978
rd	-5979
▁$4	-5980
▁Hung	-5981
▁Meta	-5982
▁iron	-5983
▁tent	-5984
Americ	-5985
▁Dalla	-5986
▁Kings	-5987
▁scent	-5988
▁upgrade	-5989
▁Alexander	-5990
35	-5991
ET	-5992
եր	-5993
▁("	-5994
2024	-5995
▁Var	-5996
▁nom	-5997
▁lung	-5998
▁2018,	-5999
▁Energ	-6000
▁endra	-6001
▁magic	-6002
▁testi	-6003
▁Assemb	-6004
▁Spring	-6005
▁excess	-6006
▁discipl	-6007
Ye	-6008
aze	-6009
dis	-6010
▁4,	-6011
born	-6012
pret	-6013
▁Medi	-6014
▁sack	-6015
▁embar	-6016
▁punch	-6017
▁solar	-6018
▁Rwanda	-6019
▁Second	-6020
▁mechan	-6021
▁disappear	-6022
▁principle	-6023
emy	-6024
ounc	-6025
▁2014	-6026
▁Iowa	-6027
▁bing	-6028
▁icon	-6029
▁scen	-6030
▁soul	-6031
▁wire	-6032
▁Trust	-6033
▁runner	-6034
▁democrat	-6035
▁Represent	-6036
Text	-6037
half	-6038
http	-6039
▁cab	-6040
▁Benj	-6041
▁hell	-6042
▁memo	-6043
ribute	-6044
▁2025.	-6045
▁Broad	-6046
▁Exper	-6047
▁Heart	-6048
▁Laure	-6049
▁concept	-6050
▁virtual	-6051
▁romantic	-6052
▁promotion	-6053
▁Constitution	-6054
].	-6055
but	-6056
phy	-6057
▁Ol	-6058
ixel	-6059
sess	-6060
▁Dev	-6061
▁Rav	-6062
▁Roh	-6063
▁geo	-6064
ument	-6065
▁Cook	-6066
▁acqu	-6067
osphere	-6068
▁depress	-6069
▁dynamic	-6070
▁liberal	-6071
▁tourism	-6072
55	-6073
udd	-6074
▁10.	-6075
▁Bon	-6076
▁Row	-6077
▁bat	-6078
▁mos	-6079
▁rig	-6080
▁Bern	-6081
▁Fund	-6082
▁cake	-6083
▁hide	-6084
▁lake	-6085
▁sole	-6086
▁Haiti	-6087
▁noise	-6088
stitute	-6089
▁assert	-6090
▁script	-6091
▁deposit	-6092
▁cognition	-6093
▁atmosphere	-6094
▁մ	-6095
pha	-6096
unn	-6097
oose	-6098
andhi	-6099
icate	-6100
▁Main	-6101
▁bail	-6102
▁copy	-6103
▁tics	-6104
"},{"_	-6105
▁Rishi	-6106
▁tweet	-6107
▁veget	-6108
▁Argent	-6109
▁butter	-6110
▁latter	-6111
cedented	-6112
▁advisor	-6113
▁disorder	-6114
precedented	-6115
An	-6116
:30	-6117
los	-6118
▁Il	-6119
gain	-6120
riot	-6121
▁Imp	-6122
0,000	-6123
▁Buck	-6124
▁vince	-6125
icipate	-6126
redient	-6127
▁circul	-6128
▁idence	-6129
▁urging	-6130
▁scrutin	-6131
▁venture	-6132
Un	-6133
llip	-6134
▁400	-6135
▁Bry	-6136
▁ets	-6137
▁hub	-6138
▁rus	-6139
▁tea	-6140
engal	-6141
▁Beck	-6142
▁Educ	-6143
▁Jere	-6144
▁seal	-6145
▁metal	-6146
▁twist	-6147
▁volum	-6148
▁cheese	-6149
▁Morning	-6150
▁Picture	-6151
▁ingredient	-6152
foot	-6153
▁Sci	-6154
▁ske	-6155
ifest	-6156
▁flee	-6157
▁ramp	-6158
iction	-6159
▁Brand	-6160
▁amend	-6161
▁Journal	-6162
▁explosion	-6163
▁OK	-6164
ilet	-6165
olic	-6166
▁Ill	-6167
▁cyc	-6168
▁phi	-6169
ocide	-6170
▁cart	-6171
▁tive	-6172
consin	-6173
▁Labor	-6174
▁neath	-6175
▁proof	-6176
▁Morris	-6177
▁Reform	-6178
▁harass	-6179
▁muscle	-6180
▁Display	-6181
▁ologies	-6182
▁complicate	-6183
-6	-6184
kn	-6185
Don	-6186
ird	-6187
uce	-6188
▁$1.	-6189
▁Abu	-6190
▁Mol	-6191
▁hrew	-6192
▁merg	-6193
▁Allen	-6194
▁Hotel	-6195
▁Saint	-6196
▁stair	-6197
▁ultra	-6198
election	-6199
▁merging	-6200
▁congress	-6201
><	-6202
AN	-6203
Do	-6204
One	-6205
oon	-6206
▁Ib	-6207
otic	-6208
with	-6209
▁pup	-6210
style	-6211
▁1990	-6212
▁Bord	-6213
▁cong	-6214
▁Price	-6215
▁Strip	-6216
▁Video	-6217
▁tower	-6218
▁Steven	-6219
▁compre	-6220
How	-6221
▁37	-6222
▁Ti	-6223
load	-6224
size	-6225
▁Gil	-6226
▁duo	-6227
▁gay	-6228
▁ket	-6229
▁ore	-6230
umbai	-6231
▁Head	-6232
▁Shah	-6233
▁flex	-6234
▁gall	-6235
▁hack	-6236
▁hook	-6237
▁sail	-6238
▁span	-6239
▁visa	-6240
▁cable	-6241
▁elder	-6242
▁ethic	-6243
▁flash	-6244
▁lance	-6245
▁pause	-6246
▁rever	-6247
▁Berlin	-6248
▁rumour	-6249
▁Phillip	-6250
▁context	-6251
▁radical	-6252
▁theatre	-6253
▁Education	-6254
ար	-6255
can	-6256
▁ND	-6257
▁Oh	-6258
▁Lev	-6259
umbia	-6260
▁Thom	-6261
▁ened	-6262
▁libr	-6263
▁chill	-6264
▁crore	-6265
▁oblig	-6266
▁slamm	-6267
▁Gandhi	-6268
▁bedroom	-6269
▁edition	-6270
▁outrage	-6271
▁silence	-6272
▁emphasis	-6273
fy	-6274
tw	-6275
upt	-6276
▁Hu	-6277
▁IV	-6278
▁Lar	-6279
▁Tar	-6280
▁lam	-6281
lotte	-6282
▁Emer	-6283
▁Evan	-6284
▁Mala	-6285
▁ensu	-6286
▁lane	-6287
▁nail	-6288
adline	-6289
rition	-6290
▁intim	-6291
▁onent	-6292
▁acquir	-6293
▁toilet	-6294
▁exploit	-6295
▁Wisconsin	-6296
▁necessarily	-6297
>\	-6298
bby	-6299
▁RO	-6300
▁ot	-6301
▁Lyn	-6302
▁lip	-6303
atell	-6304
▁Leon	-6305
▁stag	-6306
▁zing	-6307
▁crown	-6308
▁float	-6309
▁ually	-6310
▁Mumbai	-6311
▁advent	-6312
▁nathan	-6313
▁stroke	-6314
atellite	-6315
▁convert	-6316
▁eadline	-6317
▁visible	-6318
28	-6319
▁AC	-6320
▁AR	-6321
lipp	-6322
▁Aff	-6323
▁Mat	-6324
▁Gill	-6325
▁anna	-6326
▁diff	-6327
▁mood	-6328
▁soar	-6329
▁tort	-6330
▁twin	-6331
▁wich	-6332
▁Bengal	-6333
▁Budget	-6334
▁academic	-6335
▁expansion	-6336
xit	-6337
▁Ea	-6338
▁IM	-6339
▁Est	-6340
▁Hor	-6341
▁Sub	-6342
▁vit	-6343
elphi	-6344
▁edit	-6345
▁medi	-6346
▁obst	-6347
▁admir	-6348
▁sweep	-6349
▁Lauren	-6350
▁deport	-6351
▁offend	-6352
▁portray	-6353
▁suicide	-6354
▁Administ	-6355
▁conscious	-6356
49	-6357
▁48	-6358
▁ET	-6359
roll	-6360
sper	-6361
▁Jake	-6362
▁Krem	-6363
▁dose	-6364
▁peer	-6365
▁funny	-6366
▁manifest	-6367
▁efficient	-6368
▁reduction	-6369
▁democratic	-6370
▁proportion	-6371
▁TI	-6372
cend	-6373
cord	-6374
raid	-6375
stal	-6376
▁18,	-6377
▁Bey	-6378
▁Ult	-6379
▁dit	-6380
▁burg	-6381
▁mart	-6382
▁pson	-6383
▁styl	-6384
▁util	-6385
▁eager	-6386
▁relat	-6387
▁sauce	-6388
▁scrap	-6389
▁toxic	-6390
▁troll	-6391
ladelphi	-6392
▁concent	-6393
▁intervention	-6394
37	-6395
hl	-6396
law	-6397
▁DI	-6398
▁SC	-6399
▁Yu	-6400
utor	-6401
▁Som	-6402
▁Wat	-6403
▁1980	-6404
▁Pass	-6405
▁Turk	-6406
▁enth	-6407
▁Domin	-6408
▁bounc	-6409
▁donor	-6410
▁march	-6411
▁shine	-6412
▁smoke	-6413
herland	-6414
▁attach	-6415
▁clusive	-6416
▁courage	-6417
▁Columbia	-6418
27	-6419
▁$6	-6420
▁DC	-6421
mell	-6422
▁30-	-6423
▁Rat	-6424
▁tap	-6425
agree	-6426
inton	-6427
▁Care	-6428
▁Fern	-6429
▁Film	-6430
▁agon	-6431
▁Radio	-6432
▁ignit	-6433
▁index	-6434
▁lated	-6435
vereign	-6436
▁Affair	-6437
▁Netherland	-6438
hu	-6439
▁HO	-6440
list	-6441
ried	-6442
▁10,	-6443
▁Kan	-6444
▁Set	-6445
▁oon	-6446
herit	-6447
▁Carr	-6448
▁Fair	-6449
▁eron	-6450
▁grid	-6451
▁tick	-6452
▁worn	-6453
▁fault	-6454
▁Russell	-6455
▁prohibit	-6456
▁sistance	-6457
▁embarrass	-6458
▁unprecedented	-6459
3-	-6460
sha	-6461
▁AT	-6462
▁FO	-6463
▁NY	-6464
▁PC	-6465
▁VP	-6466
▁Ya	-6467
▁12.	-6468
▁Ren	-6469
▁pia	-6470
found	-6471
▁Burn	-6472
▁Girl	-6473
▁fier	-6474
▁kiss	-6475
▁Chair	-6476
▁blind	-6477
▁psycho	-6478
▁racial	-6479
▁Philipp	-6480
▁cribing	-6481
▁lateral	-6482
▁Charlotte	-6483
▁Philadelphi	-6484
],"	-6485
eve	-6486
▁$5	-6487
▁39	-6488
▁Cir	-6489
▁Pur	-6490
▁Wol	-6491
▁nie	-6492
harma	-6493
▁Eric	-6494
▁Farm	-6495
▁assy	-6496
▁cher	-6497
▁hire	-6498
▁nerv	-6499
▁pipe	-6500
▁rice	-6501
▁2016,	-6502
▁Alban	-6503
▁angle	-6504
▁blend	-6505
▁cyber	-6506
▁Market	-6507
▁Murphy	-6508
▁experi	-6509
▁Business	-6510
▁distinct	-6511
▁musician	-6512
▁Convention	-6513
▁ay	-6514
atar	-6515
head	-6516
▁12-	-6517
▁Amb	-6518
▁Emp	-6519
▁Sri	-6520
▁wal	-6521
▁bett	-6522
▁lice	-6523
▁Enter	-6524
▁bless	-6525
▁mobil	-6526
▁posed	-6527
▁Square	-6528
▁calcul	-6529
▁applied	-6530
▁license	-6531
▁Catholic	-6532
▁external	-6533
▁liberate	-6534
▁ambassador	-6535
ulf	-6536
▁38	-6537
▁AN	-6538
▁Fa	-6539
▁ME	-6540
▁tu	-6541
▁Len	-6542
▁Mot	-6543
▁ola	-6544
spond	-6545
▁Bear	-6546
▁agri	-6547
▁Crime	-6548
▁Cross	-6549
▁ocean	-6550
▁urban	-6551
profile	-6552
▁Forest	-6553
▁foster	-6554
▁resist	-6555
▁Clinton	-6556
▁contend	-6557
▁inherit	-6558
▁accurate	-6559
▁evolution	-6560
6-	-6561
azi	-6562
war	-6563
▁ff	-6564
With	-6565
celo	-6566
less	-6567
▁ank	-6568
▁jan	-6569
▁ual	-6570
▁var	-6571
licit	-6572
quate	-6573
ratul	-6574
stery	-6575
▁Case	-6576
▁Ferr	-6577
▁mont	-6578
▁phen	-6579
▁tale	-6580
▁tone	-6581
▁brown	-6582
▁burst	-6583
▁chant	-6584
▁nique	-6585
▁rence	-6586
▁scope	-6587
▁upper	-6588
▁afraid	-6589
▁examine	-6590
▁funeral	-6591
?'	-6592
km	-6593
Whi	-6594
iev	-6595
▁CD	-6596
▁MI	-6597
▁Pi	-6598
winn	-6599
▁Fla	-6600
▁Pot	-6601
▁Ret	-6602
romis	-6603
▁Barn	-6604
▁Make	-6605
▁gins	-6606
▁glor	-6607
▁mill	-6608
▁stem	-6609
▁circl	-6610
▁iture	-6611
▁ystery	-6612
--	-6613
29	-6614
Pe	-6615
ta	-6616
Har	-6617
oni	-6618
▁PD	-6619
game	-6620
ivot	-6621
▁Blo	-6622
▁iev	-6623
,000.	-6624
▁Anna	-6625
▁fitt	-6626
▁gear	-6627
▁juic	-6628
▁2017,	-6629
▁Event	-6630
▁Santi	-6631
hetoric	-6632
▁Garden	-6633
▁cruise	-6634
▁liquid	-6635
▁faction	-6636
▁iciency	-6637
▁persist	-6638
▁adequate	-6639
▁practical	-6640
▁sovereign	-6641
▁sufficient	-6642
▁կ	-6643
▁DO	-6644
▁mu	-6645
▁Hal	-6646
▁gig	-6647
▁gut	-6648
break	-6649
▁lone	-6650
▁mock	-6651
▁herita	-6652
▁invent	-6653
▁obsess	-6654
▁rhetoric	-6655
▁anticipate	-6656
Man	-6657
olar	-6658
▁25,	-6659
▁Aut	-6660
▁gal	-6661
feree	-6662
▁Fred	-6663
▁anne	-6664
▁deem	-6665
▁thin	-6666
▁wipe	-6667
▁erson	-6668
▁ubstance	-6669
▁Christoph	-6670
jo	-6671
key	-6672
▁8,	-6673
▁ան	-6674
rink	-6675
umph	-6676
▁11.	-6677
▁Tan	-6678
Trump	-6679
licop	-6680
▁2012	-6681
▁Thai	-6682
▁abad	-6683
▁brow	-6684
▁ctor	-6685
▁dale	-6686
▁shed	-6687
▁tape	-6688
▁graph	-6689
▁assign	-6690
▁compos	-6691
licopter	-6692
▁disagree	-6693
▁genocide	-6694
▁comprehens	-6695
որ	-6696
sum	-6697
▁3-	-6698
▁OS	-6699
▁nu	-6700
▁vy	-6701
ipul	-6702
stra	-6703
▁Dol	-6704
▁thy	-6705
using	-6706
▁Pitt	-6707
▁hike	-6708
▁pure	-6709
▁erupt	-6710
▁ncing	-6711
▁associ	-6712
▁easing	-6713
▁kidnap	-6714
▁trauma	-6715
▁Barcelo	-6716
▁romance	-6717
▁sponsor	-6718
▁qualified	-6719
4-	-6720
ni	-6721
izz	-6722
▁Pu	-6723
▁ua	-6724
▁Lin	-6725
▁See	-6726
▁Tow	-6727
▁dub	-6728
guard	-6729
level	-6730
oviet	-6731
▁Glen	-6732
▁glam	-6733
▁pink	-6734
▁ruin	-6735
▁Crown	-6736
▁smell	-6737
▁steel	-6738
▁theft	-6739
▁burden	-6740
▁equent	-6741
▁topping	-6742
▁correspond	-6743
▁helicopter	-6744
AF	-6745
La	-6746
pr	-6747
jan	-6748
whi	-6749
▁ax	-6750
eter	-6751
iven	-6752
▁150	-6753
▁iya	-6754
▁Chat	-6755
▁bold	-6756
▁foss	-6757
▁lakh	-6758
▁mies	-6759
▁charm	-6760
▁decor	-6761
▁payer	-6762
▁tical	-6763
▁decent	-6764
▁Mexican	-6765
▁partial	-6766
▁Official	-6767
▁currency	-6768
▁nominate	-6769
▁compromis	-6770
▁satellite	-6771
▁reasonable	-6772
13	-6773
US	-6774
gi	-6775
rik	-6776
ancy	-6777
fire	-6778
inch	-6779
▁17,	-6780
▁20,	-6781
▁Cre	-6782
▁Det	-6783
known	-6784
regon	-6785
▁1970	-6786
▁Viet	-6787
▁boom	-6788
▁demo	-6789
▁echo	-6790
▁Jenni	-6791
▁Qatar	-6792
▁blank	-6793
▁chest	-6794
▁legit	-6795
▁swift	-6796
▁Country	-6797
▁fortune	-6798
▁instant	-6799
98	-6800
ins	-6801
▁AD	-6802
▁Ox	-6803
▁SP	-6804
empt	-6805
gian	-6806
▁Cas	-6807
▁Inc	-6808
▁marg	-6809
▁smok	-6810
▁tile	-6811
▁felon	-6812
▁pride	-6813
▁bitter	-6814
▁bullet	-6815
▁Command	-6816
▁minster	-6817
▁electronic	-6818
▁productive	-6819
you	-6820
▁FT	-6821
ario	-6822
neur	-6823
▁16,	-6824
▁27,	-6825
▁Avi	-6826
▁dan	-6827
▁lah	-6828
▁mel	-6829
▁ova	-6830
▁Ford	-6831
▁dust	-6832
▁lord	-6833
▁pian	-6834
▁tang	-6835
▁Field	-6836
▁birds	-6837
▁enorm	-6838
▁quote	-6839
▁Bright	-6840
▁Mother	-6841
▁fossil	-6842
▁interior	-6843
▁scenario	-6844
▁emphasize	-6845
▁intercept	-6846
▁negotiate	-6847
▁IA	-6848
▁ll	-6849
Just	-6850
over	-6851
▁195	-6852
▁30,	-6853
▁Cat	-6854
▁Had	-6855
▁Roy	-6856
▁Slo	-6857
isive	-6858
▁Mile	-6859
▁dock	-6860
raging	-6861
▁drove	-6862
▁Oregon	-6863
▁fabric	-6864
▁inject	-6865
▁phenom	-6866
▁nervous	-6867
▁distress	-6868
▁iscrimin	-6869
▁extension	-6870
▁encouraging	-6871
▁iscrimination	-6872
66	-6873
=\"	-6874
▁6-	-6875
▁BR	-6876
▁NO	-6877
▁£5	-6878
izon	-6879
thir	-6880
▁Key	-6881
▁Nag	-6882
large	-6883
scale	-6884
▁Such	-6885
▁bump	-6886
▁mari	-6887
▁vada	-6888
▁exami	-6889
▁stern	-6890
▁Doctor	-6891
▁fusing	-6892
▁perpet	-6893
▁Economic	-6894
▁AS	-6895
Isra	-6896
▁Bow	-6897
▁Pho	-6898
▁hip	-6899
▁ius	-6900
▁nod	-6901
▁raz	-6902
otein	-6903
power	-6904
repre	-6905
▁Neil	-6906
▁Next	-6907
▁lime	-6908
▁vard	-6909
making	-6910
▁Stand	-6911
iculous	-6912
▁Totten	-6913
▁inevit	-6914
▁racist	-6915
▁visual	-6916
repreneur	-6917
▁laughter	-6918
cob	-6919
▁IR	-6920
bell	-6921
give	-6922
▁20-	-6923
▁Ori	-6924
▁Sad	-6925
ulate	-6926
▁Clar	-6927
▁cord	-6928
▁iser	-6929
▁mega	-6930
▁tall	-6931
▁vibr	-6932
ximate	-6933
▁clock	-6934
▁panic	-6935
eration	-6936
▁button	-6937
▁fusion	-6938
▁tenant	-6939
▁disturb	-6940
▁silience	-6941
▁interpret	-6942
▁pregnancy	-6943
▁sentiment	-6944
TQ	-6945
▁վ	-6946
hab	-6947
fere	-6948
▁Ale	-6949
▁Jar	-6950
▁Tat	-6951
▁ara	-6952
▁ece	-6953
ilege	-6954
uting	-6955
▁Bren	-6956
▁Cher	-6957
▁ache	-6958
▁exha	-6959
rument	-6960
▁Civil	-6961
▁Never	-6962
▁Charli	-6963
▁Soviet	-6964
▁bargain	-6965
▁confess	-6966
▁medicine	-6967
De	-6968
Sh	-6969
ti	-6970
wh	-6971
gar	-6972
▁yl	-6973
▁zy	-6974
Well	-6975
aron	-6976
▁Kay	-6977
ichol	-6978
utral	-6979
▁Anne	-6980
▁Kath	-6981
▁Moon	-6982
▁atic	-6983
▁dirt	-6984
▁soap	-6985
astrop	-6986
graphy	-6987
person	-6988
season	-6989
▁greet	-6990
▁pivot	-6991
▁Brexit	-6992
▁Pacifi	-6993
▁exceed	-6994
▁jacket	-6995
▁creator	-6996
▁ography	-6997
▁judgment	-6998
08	-6999
▁EN	-7000
GBTQ	-7001
ever	-7002
▁11,	-7003
▁15,	-7004
▁Jet	-7005
▁Rap	-7006
▁lab	-7007
▁lid	-7008
▁qui	-7009
▁Gray	-7010
▁buck	-7011
▁chap	-7012
▁penn	-7013
▁tune	-7014
▁vert	-7015
▁Class	-7016
▁Grant	-7017
▁forth	-7018
▁revel	-7019
▁uries	-7020
▁mirror	-7021
▁oversee	-7022
▁tributing	-7023
▁expression	-7024
▁supplement	-7025
2%	-7026
:00	-7027
ume	-7028
▁NI	-7029
..."	-7030
ives	-7031
week	-7032
▁250	-7033
▁Leb	-7034
▁Wim	-7035
▁vic	-7036
▁Beat	-7037
▁Gram	-7038
▁Hope	-7039
▁Jane	-7040
▁Rich	-7041
▁grat	-7042
▁lick	-7043
People	-7044
▁Heath	-7045
▁Kenya	-7046
▁Marin	-7047
▁Short	-7048
▁await	-7049
▁Joseph	-7050
▁Nichol	-7051
▁poster	-7052
▁tumble	-7053
American	-7054
▁accompan	-7055
ora	-7056
▁JD	-7057
▁Nu	-7058
▁cu	-7059
iast	-7060
▁12,	-7061
▁Add	-7062
▁rin	-7063
▁tel	-7064
▁ula	-7065
▁Erik	-7066
▁diss	-7067
▁lady	-7068
▁thor	-7069
usiast	-7070
▁2018.	-7071
▁Light	-7072
▁brave	-7073
▁valid	-7074
▁sensor	-7075
▁Austria	-7076
▁Express	-7077
▁lessness	-7078
▁attribute	-7079
▁interfere	-7080
AA	-7081
mm	-7082
Pub	-7083
▁zo	-7084
itar	-7085
riel	-7086
▁CTV	-7087
▁Mak	-7088
▁toy	-7089
asury	-7090
▁Corn	-7091
▁Date	-7092
▁Warr	-7093
▁loom	-7094
▁rant	-7095
▁symp	-7096
▁Simps	-7097
▁chase	-7098
▁weird	-7099
▁yield	-7100
▁lahoma	-7101
▁accompl	-7102
▁empower	-7103
▁Treasury	-7104
▁enthusiast	-7105
▁transaction	-7106
3%	-7107
100	-7108
lla	-7109
ugu	-7110
zue	-7111
▁75	-7112
▁ON	-7113
emen	-7114
imer	-7115
istr	-7116
leas	-7117
▁Bab	-7118
▁Ful	-7119
▁Say	-7120
▁ash	-7121
▁ero	-7122
▁hai	-7123
▁ili	-7124
▁jar	-7125
istic	-7126
utter	-7127
zuela	-7128
▁Horn	-7129
▁Kane	-7130
▁Rash	-7131
▁Roll	-7132
▁bloc	-7133
▁cale	-7134
▁sink	-7135
▁slot	-7136
▁teas	-7137
▁Aaron	-7138
▁Jacob	-7139
▁Marsh	-7140
▁drill	-7141
▁escal	-7142
▁ifies	-7143
▁innoc	-7144
▁jewel	-7145
▁neuro	-7146
▁skirt	-7147
▁stall	-7148
cession	-7149
▁advers	-7150
▁seller	-7151
▁formula	-7152
▁destruct	-7153
▁navigate	-7154
▁privilege	-7155
MA	-7156
sen	-7157
▁(3	-7158
▁46	-7159
▁Ep	-7160
▁Za	-7161
ntic	-7162
▁ane	-7163
▁lag	-7164
▁lia	-7165
▁rez	-7166
After	-7167
▁Hong	-7168
▁buzz	-7169
▁disc	-7170
▁mare	-7171
▁depth	-7172
▁shade	-7173
ributor	-7174
▁presum	-7175
▁entitle	-7176
▁instrument	-7177
cia	-7178
ira	-7179
▁FI	-7180
▁fi	-7181
stle	-7182
▁Dog	-7183
▁Ell	-7184
▁Sus	-7185
▁chu	-7186
▁Barb	-7187
▁Fall	-7188
▁Fede	-7189
▁Hugh	-7190
▁belt	-7191
▁coat	-7192
▁pati	-7193
hentic	-7194
▁Arena	-7195
▁breed	-7196
▁junio	-7197
▁ution	-7198
▁Reserv	-7199
▁mutual	-7200
▁Gabriel	-7201
▁Support	-7202
▁exhaust	-7203
▁surveil	-7204
▁moderate	-7205
],	-7206
asm	-7207
eno	-7208
mir	-7209
▁Ve	-7210
pera	-7211
rect	-7212
▁Gav	-7213
▁Gon	-7214
▁Kal	-7215
▁Tig	-7216
▁2010	-7217
▁Pier	-7218
▁Schu	-7219
▁Talk	-7220
▁Whit	-7221
▁bron	-7222
▁desk	-7223
▁oral	-7224
▁Indus	-7225
▁Ocean	-7226
▁Seven	-7227
▁Yemen	-7228
▁click	-7229
▁grade	-7230
▁insid	-7231
▁Summer	-7232
▁Brother	-7233
▁auction	-7234
▁flavour	-7235
▁licence	-7236
▁protein	-7237
Ch	-7238
800	-7239
ani	-7240
":17	-7241
ison	-7242
look	-7243
rome	-7244
▁19,	-7245
▁Exec	-7246
▁Know	-7247
▁heal	-7248
▁ugal	-7249
▁Hindu	-7250
▁Welsh	-7251
▁spoon	-7252
▁carpet	-7253
▁gentle	-7254
▁robust	-7255
▁tunnel	-7256
▁fiction	-7257
▁revolution	-7258
▁accompanied	-7259
▁approximate	-7260
-20	-7261
hem	-7262
wal	-7263
▁$7	-7264
▁BO	-7265
▁gh	-7266
▁án	-7267
▁21,	-7268
▁Cry	-7269
▁Gau	-7270
▁Run	-7271
▁asi	-7272
▁roy	-7273
▁wet	-7274
▁£1.	-7275
fight	-7276
solut	-7277
state	-7278
▁Libe	-7279
▁Vote	-7280
▁boil	-7281
▁cens	-7282
▁dump	-7283
▁pant	-7284
▁Kelce	-7285
▁berry	-7286
▁loose	-7287
▁sweat	-7288
▁Commun	-7289
▁Expert	-7290
▁evolve	-7291
▁intent	-7292
▁rolled	-7293
▁rebound	-7294
▁registr	-7295
▁authentic	-7296
▁nutrition	-7297
▁classified	-7298
▁entrepreneur	-7299
atr	-7300
bai	-7301
ctu	-7302
▁GB	-7303
▁UP	-7304
Star	-7305
etch	-7306
▁28,	-7307
▁lum	-7308
▁ona	-7309
ousin	-7310
▁Fish	-7311
▁Hart	-7312
▁Kash	-7313
▁crop	-7314
▁ises	-7315
▁nest	-7316
▁rein	-7317
acular	-7318
baijan	-7319
▁liner	-7320
▁lobby	-7321
ivalent	-7322
▁endure	-7323
▁Protect	-7324
▁referee	-7325
▁theater	-7326
zerbaijan	-7327
▁distribution	-7328
21	-7329
Ar	-7330
Me	-7331
wl	-7332
Why	-7333
car	-7334
lis	-7335
ole	-7336
pol	-7337
▁NG	-7338
ourn	-7339
▁22,	-7340
▁26,	-7341
▁Duk	-7342
▁Oak	-7343
▁Vik	-7344
▁fic	-7345
lipse	-7346
▁Come	-7347
▁dash	-7348
▁Ahmed	-7349
▁Rodri	-7350
▁arity	-7351
▁audio	-7352
▁moist	-7353
▁satis	-7354
▁vocal	-7355
icester	-7356
▁cousin	-7357
▁inaugu	-7358
1%	-7359
7%	-7360
▁+	-7361
pse	-7362
▁44	-7363
▁13,	-7364
▁Ice	-7365
▁dim	-7366
▁hal	-7367
ishop	-7368
▁2008	-7369
▁Anti	-7370
▁Rail	-7371
▁Trav	-7372
▁coup	-7373
▁glim	-7374
▁Given	-7375
▁LGBTQ	-7376
▁cruel	-7377
▁drain	-7378
▁meter	-7379
▁rehab	-7380
▁utter	-7381
▁Ronald	-7382
▁Syrian	-7383
▁innocent	-7384
▁munition	-7385
▁Professor	-7386
▁execution	-7387
▁equivalent	-7388
26	-7389
Th	-7390
aka	-7391
▁Av	-7392
bean	-7393
ivan	-7394
last	-7395
made	-7396
▁24,	-7397
▁Cub	-7398
▁Tel	-7399
▁igh	-7400
▁ներ	-7401
▁Corp	-7402
▁Find	-7403
▁acle	-7404
▁augh	-7405
▁radi	-7406
▁Hanna	-7407
▁Nicola	-7408
▁riding	-7409
enezuela	-7410
▁Capital	-7411
▁intimid	-7412
▁entrance	-7413
▁discipline	-7414
berd	-7415
ifle	-7416
▁Cop	-7417
▁Dam	-7418
▁Gal	-7419
▁ING	-7420
▁Sta	-7421
▁eta	-7422
▁fal	-7423
shire	-7424
▁Base	-7425
▁Drag	-7426
▁Much	-7427
▁ched	-7428
▁hawk	-7429
▁napp	-7430
▁oven	-7431
▁torn	-7432
▁woke	-7433
Publis	-7434
▁Craig	-7435
▁crush	-7436
▁froze	-7437
▁griev	-7438
▁Knight	-7439
▁Queens	-7440
▁lawful	-7441
▁chamber	-7442
▁pleasur	-7443
Published	-7444
blockFirst	-7445
▁Venezuela	-7446
):	-7447
alu	-7448
pal	-7449
www	-7450
▁Fu	-7451
Last	-7452
arre	-7453
bury	-7454
llen	-7455
ulpt	-7456
▁Isa	-7457
▁Lim	-7458
▁Sel	-7459
ussex	-7460
▁Khar	-7461
▁Lank	-7462
▁Poll	-7463
▁Shaw	-7464
▁Tali	-7465
▁melt	-7466
izarre	-7467
picion	-7468
▁orbit	-7469
▁pixel	-7470
▁quant	-7471
▁affirm	-7472
▁memoir	-7473
▁explicit	-7474
▁regulate	-7475
▁hurricane	-7476
▁suspicion	-7477
▁É	-7478
ost	-7479
geon	-7480
left	-7481
rase	-7482
▁Ana	-7483
▁III	-7484
▁avi	-7485
▁dip	-7486
▁ros	-7487
▁tig	-7488
▁Hold	-7489
▁Temp	-7490
▁porn	-7491
▁thus	-7492
▁Aberd	-7493
▁cheat	-7494
▁patch	-7495
▁ption	-7496
▁spray	-7497
▁trill	-7498
acteria	-7499
▁etitor	-7500
▁grocer	-7501
▁proven	-7502
▁cycling	-7503
▁motivate	-7504
▁Azerbaijan	-7505
!'	-7506
ko	-7507
lar	-7508
▁PG	-7509
▁RB	-7510
▁ok	-7511
▁oo	-7512
▁(20	-7513
▁Bil	-7514
▁DNA	-7515
▁Deb	-7516
▁Gib	-7517
edian	-7518
inois	-7519
▁Kill	-7520
▁Rama	-7521
▁Rick	-7522
▁infl	-7523
▁mode	-7524
▁ubse	-7525
▁Blink	-7526
▁Eagle	-7527
▁Furth	-7528
▁Nicol	-7529
▁absor	-7530
▁flame	-7531
▁incen	-7532
ception	-7533
quently	-7534
▁Travel	-7535
▁phrase	-7536
▁Stewart	-7537
▁glasses	-7538
▁neutral	-7539
▁triumph	-7540
ceptional	-7541
▁Leicester	-7542
▁ubsequently	-7543
85	-7544
95	-7545
RE	-7546
bi	-7547
iff	-7548
wen	-7549
▁SI	-7550
asur	-7551
etic	-7552
▁Abd	-7553
▁Teh	-7554
▁ott	-7555
▁tam	-7556
olish	-7557
▁2013	-7558
▁Near	-7559
▁ando	-7560
▁corr	-7561
▁drum	-7562
▁glad	-7563
▁naut	-7564
▁ndar	-7565
▁tern	-7566
▁tors	-7567
▁Build	-7568
▁deten	-7569
▁Abbott	-7570
▁Sussex	-7571
▁captiv	-7572
▁insula	-7573
▁streak	-7574
▁stepping	-7575
▁adventure	-7576
▁catastrop	-7577
ED	-7578
Let	-7579
add	-7580
▁9,	-7581
▁ED	-7582
▁RS	-7583
▁od	-7584
pack	-7585
▁50-	-7586
▁ira	-7587
▁oli	-7588
▁vel	-7589
000,"	-7590
▁erie	-7591
▁foul	-7592
▁Chand	-7593
▁Start	-7594
▁Steel	-7595
ational	-7596
chestra	-7597
entific	-7598
ullivan	-7599
▁Bureau	-7600
▁Curren	-7601
▁ethnic	-7602
▁consent	-7603
▁eclipse	-7604
▁elevate	-7605
▁bankrupt	-7606
▁intimate	-7607
▁statistic	-7608
▁42	-7609
▁RI	-7610
▁ip	-7611
ckon	-7612
▁Nel	-7613
▁bly	-7614
▁bub	-7615
▁emo	-7616
▁ory	-7617
▁rod	-7618
mpton	-7619
rific	-7620
▁Alam	-7621
▁Bush	-7622
▁Holl	-7623
▁acre	-7624
▁nell	-7625
▁ouri	-7626
▁poet	-7627
▁soph	-7628
▁tint	-7629
ibbean	-7630
▁2,000	-7631
▁Story	-7632
▁crisp	-7633
▁indus	-7634
▁liest	-7635
▁quake	-7636
▁bronze	-7637
▁illust	-7638
▁pepper	-7639
▁rapper	-7640
▁worthy	-7641
▁Campbell	-7642
▁comedian	-7643
▁distract	-7644
▁structur	-7645
▁Caribbean	-7646
▁Financial	-7647
▁accomplish	-7648
▁passionate	-7649
96	-7650
AD	-7651
Le	-7652
▁HP	-7653
down	-7654
gram	-7655
turn	-7656
▁Bou	-7657
▁Fal	-7658
▁NEW	-7659
▁Str	-7660
▁THE	-7661
▁vey	-7662
▁Fran	-7663
▁Gene	-7664
▁Keep	-7665
▁Kohl	-7666
▁ampl	-7667
▁irre	-7668
▁myst	-7669
astate	-7670
▁Swiss	-7671
▁acted	-7672
▁alien	-7673
▁hyper	-7674
▁sacri	-7675
▁Theatr	-7676
▁autumn	-7677
▁depict	-7678
▁fierce	-7679
▁tenure	-7680
▁uniform	-7681
▁benefici	-7682
▁escalate	-7683
▁Oz	-7684
▁£6	-7685
acre	-7686
ones	-7687
▁13.	-7688
▁14,	-7689
▁Box	-7690
▁NSW	-7691
▁Rio	-7692
▁Sid	-7693
▁Stu	-7694
▁och	-7695
▁rav	-7696
▁wha	-7697
appen	-7698
itter	-7699
▁lump	-7700
▁nose	-7701
▁tain	-7702
▁reign	-7703
stappen	-7704
▁column	-7705
▁diabet	-7706
▁mature	-7707
▁reliev	-7708
▁Connect	-7709
▁borough	-7710
▁fulfill	-7711
▁hampton	-7712
▁explosive	-7713
▁scientific	-7714
App	-7715
Pre	-7716
▁(4	-7717
▁TO	-7718
abil	-7719
ider	-7720
rete	-7721
▁Fab	-7722
▁Jur	-7723
▁Rid	-7724
▁und	-7725
▁vet	-7726
ertil	-7727
which	-7728
▁pect	-7729
▁stan	-7730
▁swap	-7731
▁terr	-7732
azeera	-7733
rought	-7734
▁awful	-7735
▁endous	-7736
▁logist	-7737
▁measur	-7738
▁Illinois	-7739
▁bacteria	-7740
▁thorough	-7741
▁Yorkshire	-7742
▁pectacular	-7743
.-	-7744
yr	-7745
▁է	-7746
Not	-7747
▁65	-7748
▁CH	-7749
▁PI	-7750
ccer	-7751
rich	-7752
▁15-	-7753
▁Eve	-7754
▁Fif	-7755
▁Haw	-7756
▁Kid	-7757
▁Pun	-7758
▁yea	-7759
press	-7760
vival	-7761
▁1960	-7762
▁Bald	-7763
▁Thou	-7764
▁Walt	-7765
▁bras	-7766
▁dual	-7767
▁ello	-7768
▁pron	-7769
▁vibe	-7770
umbent	-7771
▁steam	-7772
reshold	-7773
▁Region	-7774
▁dealer	-7775
▁fantas	-7776
▁labour	-7777
▁soccer	-7778
president	-7779
ventional	-7780
▁preserve	-7781
▁incumbent	-7782
▁chancellor	-7783
hor	-7784
eker	-7785
real	-7786
reck	-7787
▁31,	-7788
▁Lot	-7789
▁UCL	-7790
▁fum	-7791
▁hya	-7792
▁jer	-7793
▁nin	-7794
▁rip	-7795
▁Nazi	-7796
▁aint	-7797
▁elic	-7798
▁flew	-7799
▁grip	-7800
▁hush	-7801
▁onia	-7802
▁vine	-7803
▁Bloom	-7804
▁Eight	-7805
▁Indig	-7806
▁Money	-7807
▁Place	-7808
▁annou	-7809
▁aspir	-7810
▁juror	-7811
▁prise	-7812
▁subsi	-7813
▁Gregor	-7814
▁leather	-7815
▁moistur	-7816
▁compound	-7817
▁elicious	-7818
▁frustrate	-7819
▁threshold	-7820
▁Verstappen	-7821
ES	-7822
azz	-7823
fol	-7824
▁CI	-7825
hood	-7826
rior	-7827
▁Eth	-7828
▁arr	-7829
▁awk	-7830
▁etz	-7831
▁pac	-7832
▁Coul	-7833
▁Serb	-7834
▁arth	-7835
▁dent	-7836
▁rand	-7837
▁Aston	-7838
▁Baker	-7839
▁brows	-7840
▁lemon	-7841
▁tempo	-7842
▁wrest	-7843
century	-7844
▁guitar	-7845
▁poison	-7846
▁retali	-7847
▁stabil	-7848
▁awkward	-7849
▁drought	-7850
▁scholar	-7851
▁urvival	-7852
▁conventional	-7853
4%	-7854
FC	-7855
sm	-7856
inge	-7857
mble	-7858
▁Fam	-7859
▁ken	-7860
▁lav	-7861
Thank	-7862
party	-7863
▁Deep	-7864
▁McCa	-7865
▁phob	-7866
▁spec	-7867
▁Merce	-7868
▁Sound	-7869
▁harsh	-7870
▁kovic	-7871
▁midst	-7872
▁persu	-7873
ampment	-7874
▁pharma	-7875
▁sculpt	-7876
▁volunt	-7877
▁compass	-7878
▁forgive	-7879
▁torture	-7880
▁concrete	-7881
▁horrific	-7882
▁occupied	-7883
6%	-7884
77	-7885
ati	-7886
who	-7887
▁HD	-7888
▁Kl	-7889
▁NT	-7890
fice	-7891
mean	-7892
▁Sop	-7893
▁pel	-7894
▁vig	-7895
▁2011	-7896
▁Benn	-7897
▁Luca	-7898
▁deck	-7899
▁nack	-7900
mitism	-7901
▁2025,	-7902
▁Massa	-7903
▁astro	-7904
▁lyric	-7905
▁rance	-7906
▁Record	-7907
▁mentor	-7908
▁reckon	-7909
▁reopen	-7910
▁triple	-7911
▁Jazeera	-7912
▁Program	-7913
▁immense	-7914
▁relativ	-7915
▁interrupt	-7916
▁Chancellor	-7917
▁Environment	-7918
▁communicate	-7919
jri	-7920
sky	-7921
bble	-7922
▁120	-7923
▁Too	-7924
▁Wag	-7925
▁bou	-7926
▁bru	-7927
▁cem	-7928
▁tha	-7929
gency	-7930
world	-7931
▁Bond	-7932
▁Marc	-7933
▁Yank	-7934
▁euro	-7935
▁thro	-7936
▁tout	-7937
▁ular	-7938
jriwal	-7939
orious	-7940
▁2016.	-7941
▁Amend	-7942
▁Athle	-7943
▁Opera	-7944
▁fract	-7945
▁stain	-7946
▁lihood	-7947
▁weaken	-7948
▁concede	-7949
▁execute	-7950
▁glimpse	-7951
▁perceive	-7952
▁semitism	-7953
▁devastate	-7954
inu	-7955
mad	-7956
mph	-7957
vet	-7958
▁"[	-7959
▁FL	-7960
▁Fl	-7961
▁YO	-7962
elli	-7963
nell	-7964
▁Fre	-7965
▁ace	-7966
▁haz	-7967
/2024	-7968
nesse	-7969
▁Bara	-7970
▁Brun	-7971
▁bias	-7972
▁bite	-7973
▁nomy	-7974
▁Const	-7975
▁bunch	-7976
▁endum	-7977
▁fleet	-7978
▁absent	-7979
▁relent	-7980
▁tender	-7981
▁titled	-7982
▁helpful	-7983
▁impeach	-7984
▁politan	-7985
▁refresh	-7986
▁athletic	-7987
▁consumption	-7988
05	-7989
Up	-7990
ua	-7991
bur	-7992
odd	-7993
rog	-7994
▁DJ	-7995
▁Ir	-7996
▁PO	-7997
▁ue	-7998
that	-7999
▁Cow	-8000
▁Kit	-8001
▁nab	-8002
▁shy	-8003
garet	-8004
ookie	-8005
▁ador	-8006
▁blog	-8007
▁buff	-8008
▁gium	-8009
▁idor	-8010
▁inha	-8011
▁ters	-8012
second	-8013
▁Cleve	-8014
▁Point	-8015
▁dedic	-8016
▁buster	-8017
▁rookie	-8018
▁confuse	-8019
▁precise	-8020
▁Kejriwal	-8021
▁ordinate	-8022
▁congratul	-8023
▁notorious	-8024
▁exceptional	-8025
▁subscription	-8026
▁•	-8027
aya	-8028
lst	-8029
▁41	-8030
▁LO	-8031
▁Va	-8032
ingu	-8033
mise	-8034
▁10%	-8035
▁Cav	-8036
▁Gam	-8037
▁Rev	-8038
▁god	-8039
▁hyp	-8040
▁uls	-8041
olate	-8042
▁Juan	-8043
▁Mack	-8044
▁Mess	-8045
▁Mick	-8046
▁flaw	-8047
▁ican	-8048
▁iola	-8049
▁till	-8050
▁Chang	-8051
▁whisk	-8052
inguish	-8053
▁absorb	-8054
▁betray	-8055
▁whilst	-8056
▁premise	-8057
▁treasure	-8058
▁legitimate	-8059
PN	-8060
eor	-8061
qui	-8062
utt	-8063
▁HI	-8064
rous	-8065
▁1.5	-8066
▁23,	-8067
▁Cou	-8068
▁Lor	-8069
▁Lui	-8070
▁Yad	-8071
▁pul	-8072
▁Hand	-8073
▁List	-8074
▁Pear	-8075
▁Resp	-8076
▁gest	-8077
▁grey	-8078
▁spir	-8079
ulance	-8080
▁Break	-8081
▁droid	-8082
▁enemy	-8083
▁Friend	-8084
▁fertil	-8085
▁holder	-8086
▁modest	-8087
▁Intelli	-8088
▁bizarre	-8089
▁extract	-8090
▁manipul	-8091
▁Margaret	-8092
▁descript	-8093
▁advertise	-8094
▁ambulance	-8095
▁ordinator	-8096
▁pronounce	-8097
38	-8098
bl	-8099
cé	-8100
▁տ	-8101
Bri	-8102
Now	-8103
big	-8104
uke	-8105
▁LI	-8106
▁£7	-8107
▁Jad	-8108
▁McG	-8109
▁Mik	-8110
▁Ped	-8111
▁Tin	-8112
▁raj	-8113
▁rit	-8114
▁voc	-8115
▁voy	-8116
apore	-8117
▁Auto	-8118
▁Mull	-8119
▁Noth	-8120
▁Raja	-8121
▁Writ	-8122
▁leap	-8123
cessor	-8124
▁Memor	-8125
▁prede	-8126
▁Control	-8127
▁ituency	-8128
▁Tennesse	-8129
▁encampment	-8130
▁predecessor	-8131
")	-8132
ox	-8133
eer	-8134
him	-8135
luc	-8136
▁47	-8137
▁VO	-8138
chor	-8139
cuit	-8140
ouch	-8141
▁Hud	-8142
▁bee	-8143
▁lon	-8144
ombia	-8145
▁Chen	-8146
▁Emir	-8147
▁Lope	-8148
▁Sain	-8149
▁Stat	-8150
▁esco	-8151
▁pine	-8152
▁pole	-8153
▁enact	-8154
▁polis	-8155
▁proto	-8156
▁tooth	-8157
billion	-8158
ological	-8159
▁uncover	-8160
Pal	-8161
▁SA	-8162
alle	-8163
oner	-8164
▁203	-8165
▁Emb	-8166
▁Ran	-8167
▁ced	-8168
▁mug	-8169
▁rhy	-8170
▁sla	-8171
stock	-8172
▁Band	-8173
▁Lang	-8174
▁Prop	-8175
▁Rath	-8176
▁Toro	-8177
▁Wolf	-8178
▁eleg	-8179
▁illy	-8180
▁tani	-8181
▁Brent	-8182
▁Corpo	-8183
▁homer	-8184
▁queen	-8185
▁rider	-8186
▁rides	-8187
▁bother	-8188
▁hammer	-8189
▁physic	-8190
▁thrive	-8191
celerate	-8192
esthetic	-8193
▁Christi	-8194
▁diabete	-8195
▁passage	-8196
▁restrain	-8197
▁Hurricane	-8198
▁principal	-8199
9%	-8200
rin	-8201
vat	-8202
izza	-8203
▁$2.	-8204
▁16.	-8205
▁18.	-8206
▁ICC	-8207
▁Joy	-8208
▁alo	-8209
▁ela	-8210
▁ith	-8211
▁jam	-8212
▁nik	-8213
▁nud	-8214
▁pas	-8215
▁Mand	-8216
▁glow	-8217
▁lion	-8218
▁arena	-8219
▁conso	-8220
▁evalu	-8221
▁lever	-8222
▁pizza	-8223
▁trait	-8224
▁villa	-8225
▁worsen	-8226
▁isolate	-8227
▁Singapore	-8228
▁aggression	-8229
01	-8230
48	-8231
Tw	-8232
xi	-8233
eld	-8234
▁CS	-8235
acht	-8236
mega	-8237
qual	-8238
will	-8239
▁24-	-8240
▁29,	-8241
▁Aid	-8242
▁Les	-8243
▁Liv	-8244
▁Sho	-8245
▁Tak	-8246
▁ESPN	-8247
▁Pack	-8248
▁anth	-8249
▁myth	-8250
▁taxi	-8251
ourish	-8252
▁2015,	-8253
▁Dream	-8254
▁Drive	-8255
▁Klopp	-8256
▁agher	-8257
▁inson	-8258
▁Collin	-8259
▁Should	-8260
▁hatter	-8261
▁seeker	-8262
▁contemp	-8263
▁Colombia	-8264
▁introduction	-8265
Hi	-8266
":[	-8267
emo	-8268
▁Zu	-8269
▁ppy	-8270
allel	-8271
ergus	-8272
▁100%	-8273
▁Dead	-8274
▁Math	-8275
▁Spur	-8276
▁cafe	-8277
▁horn	-8278
▁nuts	-8279
▁tamp	-8280
▁wept	-8281
itable	-8282
▁cheek	-8283
▁polar	-8284
▁Assist	-8285
▁Nathan	-8286
▁insult	-8287
▁propag	-8288
▁chronic	-8289
▁highway	-8290
▁contamin	-8291
▁phenomeno	-8292
▁sacrifice	-8293
33	-8294
9-	-8295
zy	-8296
ean	-8297
sic	-8298
▁BC	-8299
▁uk	-8300
loyd	-8301
mile	-8302
rait	-8303
▁17-	-8304
▁Age	-8305
▁Arr	-8306
▁Djo	-8307
▁Edd	-8308
▁Fra	-8309
▁Haa	-8310
▁Hil	-8311
▁Ref	-8312
▁raw	-8313
▁rut	-8314
▁usi	-8315
ifica	-8316
shirt	-8317
▁Dame	-8318
▁Fact	-8319
▁Gate	-8320
▁Ivan	-8321
▁acid	-8322
▁pala	-8323
▁trem	-8324
▁Blanc	-8325
▁Coach	-8326
▁Motor	-8327
▁Nigel	-8328
▁gorge	-8329
▁steer	-8330
▁wreck	-8331
▁Emerge	-8332
▁excuse	-8333
▁exempt	-8334
▁religi	-8335
▁shield	-8336
▁surpass	-8337
▁traumat	-8338
▁judicial	-8339
▁significa	-8340
Pa	-8341
Ph	-8342
թյ	-8343
def	-8344
▁SU	-8345
▁Ul	-8346
▁as	-8347
cher	-8348
most	-8349
true	-8350
▁14-	-8351
▁Gas	-8352
▁Mou	-8353
▁Pas	-8354
▁Rex	-8355
▁mes	-8356
▁oni	-8357
▁£1,	-8358
▁Jais	-8359
▁Mona	-8360
▁Sham	-8361
▁Shin	-8362
▁gage	-8363
▁nuel	-8364
▁toma	-8365
▁whip	-8366
▁ությ	-8367
▁2014,	-8368
▁2017.	-8369
▁Lloyd	-8370
▁Trade	-8371
▁ankle	-8372
▁gross	-8373
▁haunt	-8374
▁ucker	-8375
forward	-8376
ificate	-8377
▁Latino	-8378
▁Person	-8379
▁embark	-8380
▁gesture	-8381
▁corporation	-8382
8%	-8383
▁55	-8384
▁SH	-8385
▁ku	-8386
▁ía	-8387
mers	-8388
▁15.	-8389
▁Arn	-8390
▁ior	-8391
▁myr	-8392
▁£20	-8393
fford	-8394
phant	-8395
rison	-8396
▁Buff	-8397
▁NCAA	-8398
▁Norr	-8399
▁cree	-8400
▁rone	-8401
▁topp	-8402
▁Titan	-8403
▁array	-8404
▁spare	-8405
politic	-8406
quarter	-8407
▁Corona	-8408
▁Fergus	-8409
▁Member	-8410
▁Spence	-8411
▁shelve	-8412
▁Similar	-8413
▁minimal	-8414
▁Athletic	-8415
97	-8416
EL	-8417
այ	-8418
300	-8419
></	-8420
lug	-8421
omi	-8422
▁$8	-8423
▁UA	-8424
▁UV	-8425
▁WW	-8426
▁ակ	-8427
from	-8428
well	-8429
▁22-	-8430
▁iso	-8431
▁rib	-8432
▁ում	-8433
vidia	-8434
▁Adel	-8435
▁Cann	-8436
▁bagg	-8437
▁quel	-8438
▁tide	-8439
▁toss	-8440
▁Clear	-8441
▁Grace	-8442
▁Silva	-8443
▁Yadav	-8444
▁ulent	-8445
▁Castle	-8446
▁System	-8447
▁broker	-8448
▁Partner	-8449
▁blanket	-8450
▁bolster	-8451
▁retreat	-8452
▁orchestra	-8453
▁valuation	-8454
▁impression	-8455
);	-8456
ել	-8457
ery	-8458
gor	-8459
ieg	-8460
▁(5	-8461
▁£8	-8462
good	-8463
gust	-8464
laim	-8465
love	-8466
more	-8467
▁Arc	-8468
▁Hit	-8469
▁Mis	-8470
▁gil	-8471
▁hra	-8472
▁hri	-8473
▁nto	-8474
▁wid	-8475
▁Rain	-8476
▁expi	-8477
▁grad	-8478
▁grim	-8479
▁heel	-8480
▁illo	-8481
▁maid	-8482
▁pies	-8483
▁antic	-8484
▁drome	-8485
▁expla	-8486
▁hawks	-8487
▁renov	-8488
▁tempt	-8489
▁Bharat	-8490
▁Mahara	-8491
▁Origin	-8492
▁crunch	-8493
▁prince	-8494
▁rarily	-8495
▁pretend	-8496
Palestinian	-8497
▁accelerate	-8498
▁substitute	-8499
hit	-8500
irk	-8501
urd	-8502
▁DS	-8503
▁IF	-8504
▁RW	-8505
▁ix	-8506
":"1	-8507
Even	-8508
sApp	-8509
step	-8510
yard	-8511
▁16-	-8512
▁Jag	-8513
▁Kil	-8514
▁ora	-8515
▁tit	-8516
▁tub	-8517
folio	-8518
place	-8519
▁Link	-8520
▁Sale	-8521
▁Scar	-8522
▁Slam	-8523
▁Spot	-8524
▁Swin	-8525
▁View	-8526
▁bang	-8527
▁ller	-8528
▁pred	-8529
▁ucky	-8530
▁2024:	-8531
▁erman	-8532
▁mitig	-8533
▁reluc	-8534
▁Design	-8535
▁Nvidia	-8536
▁immers	-8537
▁motive	-8538
▁torial	-8539
▁Weather	-8540
▁persuad	-8541
▁formation	-8542
Jo	-8543
ipp	-8544
sex	-8545
thm	-8546
zzl	-8547
enix	-8548
greg	-8549
ocus	-8550
umul	-8551
▁20%	-8552
▁Alc	-8553
▁Ald	-8554
▁GPT	-8555
▁Kap	-8556
▁hug	-8557
▁tup	-8558
▁zen	-8559
▁£10	-8560
▁Arti	-8561
▁Rand	-8562
▁ante	-8563
▁elle	-8564
▁annoy	-8565
▁brick	-8566
▁cular	-8567
▁femin	-8568
▁fever	-8569
▁hydro	-8570
▁puzzl	-8571
▁retro	-8572
▁shtra	-8573
▁uspic	-8574
isition	-8575
▁10,000	-8576
▁Custom	-8577
▁Senior	-8578
▁prising	-8579
▁scratch	-8580
▁segment	-8581
▁uspicious	-8582
▁ridiculous	-8583
65	-8584
▁ր	-8585
▁BA	-8586
▁Ei	-8587
▁zi	-8588
agan	-8589
unge	-8590
▁1-0	-8591
▁Jud	-8592
▁Por	-8593
▁Roe	-8594
▁dee	-8595
▁jab	-8596
▁ock	-8597
▁sit	-8598
dated	-8599
glect	-8600
▁Dick	-8601
▁Golf	-8602
▁Gulf	-8603
▁Pent	-8604
▁Robb	-8605
▁bane	-8606
▁eria	-8607
▁sati	-8608
▁Marco	-8609
▁drunk	-8610
▁honey	-8611
▁isast	-8612
▁merit	-8613
▁tupid	-8614
breaking	-8615
▁terrify	-8616
▁whistle	-8617
▁WhatsApp	-8618
▁imprison	-8619
▁parallel	-8620
▁portrait	-8621
▁authorize	-8622
▁firefight	-8623
▁isastrous	-8624
CA	-8625
▁â	-8626
▁è	-8627
600	-8628
99,	-8629
had	-8630
inc	-8631
isi	-8632
osi	-8633
two	-8634
una	-8635
▁Az	-8636
▁EC	-8637
▁HR	-8638
enti	-8639
what	-8640
▁2-1	-8641
▁CAR	-8642
▁Ele	-8643
▁Fel	-8644
▁Mul	-8645
▁Pep	-8646
▁cco	-8647
▁mud	-8648
▁nic	-8649
▁oka	-8650
anion	-8651
venge	-8652
▁2030	-8653
▁Cult	-8654
▁Dann	-8655
▁Hell	-8656
▁Join	-8657
▁Made	-8658
▁sake	-8659
▁sect	-8660
▁tier	-8661
borate	-8662
▁5,000	-8663
▁Season	-8664
▁Silver	-8665
▁devote	-8666
▁lender	-8667
▁requir	-8668
guardian	-8669
▁Phoenix	-8670
▁bombard	-8671
▁educate	-8672
▁urgency	-8673
39	-8674
Im	-8675
Se	-8676
emp	-8677
isc	-8678
▁(2	-8679
▁54	-8680
▁AM	-8681
▁BE	-8682
▁Iv	-8683
▁RC	-8684
****	-8685
Russ	-8686
name	-8687
otal	-8688
▁Clo	-8689
▁Dak	-8690
▁Typ	-8691
▁lis	-8692
▁vid	-8693
Photo	-8694
merce	-8695
▁Baby	-8696
▁Chap	-8697
▁Left	-8698
▁Quin	-8699
▁Utah	-8700
▁curb	-8701
▁issa	-8702
enance	-8703
icipal	-8704
▁bride	-8705
▁cater	-8706
▁condo	-8707
▁flock	-8708
▁rifle	-8709
▁Orange	-8710
▁Review	-8711
▁Studio	-8712
▁humili	-8713
▁plunge	-8714
▁initiate	-8715
▁aesthetic	-8716
▁portfolio	-8717
▁certificate	-8718
\">	-8719
vak	-8720
▁OC	-8721
▁TM	-8722
▁WI	-8723
earn	-8724
have	-8725
pora	-8726
ptic	-8727
thur	-8728
ulti	-8729
vise	-8730
▁18-	-8731
▁Bum	-8732
▁Pic	-8733
▁Pla	-8734
▁Tyl	-8735
▁ata	-8736
▁luc	-8737
▁Bett	-8738
▁Jama	-8739
▁Mall	-8740
▁Ring	-8741
▁Stra	-8742
▁Ward	-8743
▁bage	-8744
▁beef	-8745
▁bust	-8746
▁caut	-8747
▁coca	-8748
▁ophi	-8749
asonal	-8750
degree	-8751
iliate	-8752
▁Baile	-8753
▁Blair	-8754
▁Small	-8755
▁allah	-8756
▁arthy	-8757
▁imagi	-8758
▁pathy	-8759
▁roast	-8760
▁ceased	-8761
▁lander	-8762
▁marine	-8763
▁easonal	-8764
▁uitable	-8765
▁washing	-8766
▁cautious	-8767
64	-8768
aw	-8769
▁ո	-8770
ato	-8771
non	-8772
ped	-8773
tor	-8774
▁43	-8775
▁AG	-8776
▁CL	-8777
▁ón	-8778
aple	-8779
brid	-8780
ukee	-8781
▁$20	-8782
▁Ark	-8783
▁Cit	-8784
▁Gan	-8785
▁Gun	-8786
▁Guy	-8787
▁Pac	-8788
▁cer	-8789
▁dys	-8790
▁kan	-8791
▁rie	-8792
anger	-8793
umber	-8794
▁Batt	-8795
▁Cruz	-8796
▁Manu	-8797
▁Prom	-8798
▁Sign	-8799
▁bean	-8800
▁cave	-8801
▁norm	-8802
▁tage	-8803
▁Match	-8804
▁arrow	-8805
▁blaze	-8806
▁defam	-8807
▁frank	-8808
▁grill	-8809
▁spice	-8810
▁Libert	-8811
▁desert	-8812
▁strand	-8813
▁waukee	-8814
▁Kashmir	-8815
▁monarch	-8816
▁fracture	-8817
▁convenience	-8818
78	-8819
AI	-8820
▁ս	-8821
ito	-8822
▁KC	-8823
▁SS	-8824
Look	-8825
lead	-8826
rank	-8827
than	-8828
▁Alv	-8829
▁Bul	-8830
▁Fle	-8831
▁Inf	-8832
▁Oli	-8833
▁PAC	-8834
▁lug	-8835
▁pho	-8836
▁sew	-8837
▁umb	-8838
ptain	-8839
▁2006	-8840
▁2009	-8841
▁Bash	-8842
▁Happ	-8843
▁Nine	-8844
▁chal	-8845
▁etic	-8846
ultane	-8847
▁2015.	-8848
▁Death	-8849
▁Visit	-8850
▁forum	-8851
▁incur	-8852
▁sheer	-8853
▁spill	-8854
▁usive	-8855
▁Philip	-8856
▁Switch	-8857
▁Ultima	-8858
▁clever	-8859
▁linger	-8860
▁usiasm	-8861
▁Village	-8862
▁descend	-8863
▁optimist	-8864
▁subscribe	-8865
68	-8866
Mr	-8867
bra	-8868
uri	-8869
vas	-8870
▁IB	-8871
Toda	-8872
burg	-8873
cele	-8874
cott	-8875
lica	-8876
▁Maj	-8877
▁Pod	-8878
▁oxy	-8879
▁pig	-8880
▁tus	-8881
acerb	-8882
attoo	-8883
bbing	-8884
onish	-8885
ounge	-8886
▁Owen	-8887
▁Pick	-8888
▁cope	-8889
▁eras	-8890
▁izer	-8891
▁shin	-8892
ioneer	-8893
mentia	-8894
ranean	-8895
▁1,200	-8896
▁Dance	-8897
▁Truth	-8898
▁brace	-8899
▁stack	-8900
▁stunt	-8901
▁Dragon	-8902
▁Peters	-8903
▁Techno	-8904
▁random	-8905
▁prosper	-8906
▁tabbing	-8907
▁commence	-8908
▁dementia	-8909
▁pleasant	-8910
▁affiliate	-8911
▁companion	-8912
▁terranean	-8913
▁generative	-8914
kg	-8915
-10	-8916
cro	-8917
ikh	-8918
uli	-8919
▁Ax	-8920
▁BT	-8921
▁IL	-8922
olid	-8923
▁11-	-8924
▁25-	-8925
▁Jin	-8926
▁Mai	-8927
▁Rac	-8928
▁Rut	-8929
▁Sai	-8930
▁Sat	-8931
▁UFC	-8932
▁awe	-8933
▁bik	-8934
▁bug	-8935
▁owe	-8936
▁pav	-8937
▁pox	-8938
▁Cass	-8939
▁Deal	-8940
▁Gunn	-8941
▁Terr	-8942
▁Trad	-8943
▁clue	-8944
▁endo	-8945
▁hydr	-8946
▁lend	-8947
▁monu	-8948
▁plug	-8949
▁plum	-8950
llenge	-8951
olving	-8952
onesia	-8953
render	-8954
▁3,000	-8955
▁Check	-8956
▁Griff	-8957
▁Limit	-8958
▁Magic	-8959
▁Payne	-8960
▁Pleas	-8961
▁ision	-8962
▁Arthur	-8963
▁anchor	-8964
▁bubble	-8965
▁convey	-8966
▁refund	-8967
▁rhythm	-8968
▁exacerb	-8969
▁carriage	-8970
▁vacation	-8971
▁acquisition	-8972
bec	-8973
▁CA	-8974
▁ky	-8975
andr	-8976
lamm	-8977
uted	-8978
▁Hei	-8979
▁Riv	-8980
▁cos	-8981
▁gel	-8982
▁lee	-8983
▁lud	-8984
▁sou	-8985
▁ush	-8986
▁ute	-8987
▁vor	-8988
ature	-8989
match	-8990
▁Else	-8991
▁Nova	-8992
▁Sama	-8993
▁Supp	-8994
▁ogue	-8995
▁pier	-8996
▁tiff	-8997
▁tole	-8998
▁apple	-8999
▁invit	-9000
▁merch	-9001
▁straw	-9002
▁tally	-9003
▁Legisl	-9004
▁empire	-9005
▁petrol	-9006
▁robber	-9007
▁evident	-9008
▁Indonesia	-9009
▁convenient	-9010
▁invitation	-9011
-5	-9012
Any	-9013
asp	-9014
mis	-9015
▁TA	-9016
▁TR	-9017
alem	-9018
home	-9019
igar	-9020
▁600	-9021
▁Kra	-9022
▁Ott	-9023
▁USC	-9024
▁ali	-9025
▁bie	-9026
▁ida	-9027
▁ika	-9028
▁lus	-9029
▁squ	-9030
Creat	-9031
ardon	-9032
uggle	-9033
undit	-9034
▁Bird	-9035
▁Nash	-9036
▁READ	-9037
▁Ster	-9038
▁mono	-9039
govern	-9040
ighten	-9041
wegian	-9042
▁Would	-9043
▁flick	-9044
▁mourn	-9045
iterate	-9046
▁Samuel	-9047
▁abduct	-9048
▁barrel	-9049
▁freeze	-9050
▁balloon	-9051
▁deterio	-9052
▁horizon	-9053
▁patriot	-9054
▁revenge	-9055
▁sympath	-9056
▁uration	-9057
▁decisive	-9058
▁endanger	-9059
▁memorial	-9060
theguardian	-9061
▁aintenance	-9062
▁functional	-9063
-8	-9064
/@	-9065
fl	-9066
-12	-9067
erc	-9068
▁TC	-9069
From	-9070
edOn	-9071
oren	-9072
riff	-9073
▁800	-9074
▁Bit	-9075
▁Kin	-9076
▁Lei	-9077
▁Lie	-9078
▁Tun	-9079
▁lac	-9080
ateur	-9081
▁Berk	-9082
▁Bobb	-9083
▁Full	-9084
▁Ruth	-9085
▁Stef	-9086
▁dart	-9087
▁feud	-9088
▁hock	-9089
▁tray	-9090
LastUp	-9091
▁Britt	-9092
▁Clair	-9093
▁Serge	-9094
▁Staff	-9095
▁condu	-9096
▁encia	-9097
▁glove	-9098
▁juris	-9099
▁nerve	-9100
▁philo	-9101
▁trace	-9102
ggering	-9103
iritual	-9104
▁Future	-9105
▁Sophie	-9106
▁Ticket	-9107
▁pundit	-9108
▁splash	-9109
▁Patriot	-9110
CreatedOn	-9111
▁colonial	-9112
▁reiterate	-9113
▁spiritual	-9114
▁taggering	-9115
LastUpdated	-9116
▁definition	-9117
blockCreatedOn	-9118
blockLastUpdated	-9119
-9	-9120
42	-9121
Or	-9122
cap	-9123
has	-9124
▁53	-9125
▁SW	-9126
mark	-9127
mind	-9128
peal	-9129
▁$10	-9130
▁40%	-9131
▁Nap	-9132
▁ake	-9133
▁bab	-9134
▁slo	-9135
▁wen	-9136
atric	-9137
inter	-9138
▁Cric	-9139
▁Judi	-9140
▁Lane	-9141
▁Nint	-9142
▁Sala	-9143
▁alum	-9144
▁Keith	-9145
▁Peace	-9146
▁Round	-9147
▁invad	-9148
▁steep	-9149
ardashi	-9150
▁Charge	-9151
▁enroll	-9152
▁filter	-9153
▁hurdle	-9154
▁metric	-9155
▁neglect	-9156
▁vitamin	-9157
▁Campaign	-9158
▁disputed	-9159
▁Challenge	-9160
▁universal	-9161
67	-9162
EA	-9163
ND	-9164
New	-9165
bil	-9166
hia	-9167
llo	-9168
icit	-9169
usal	-9170
▁14.	-9171
▁Bud	-9172
▁Rit	-9173
▁Thu	-9174
▁Wes	-9175
▁aux	-9176
▁fry	-9177
erved	-9178
label	-9179
▁Beth	-9180
▁Hawk	-9181
▁Lock	-9182
▁Nada	-9183
▁Patt	-9184
▁ario	-9185
▁£100	-9186
▁Beaut	-9187
▁Smart	-9188
▁Think	-9189
▁borne	-9190
▁ditch	-9191
▁ferry	-9192
▁owski	-9193
▁piled	-9194
▁teria	-9195
▁Critic	-9196
▁behave	-9197
▁infant	-9198
▁pardon	-9199
▁usalem	-9200
▁Olympia	-9201
▁commemo	-9202
▁solicit	-9203
ardashian	-9204
▁dictator	-9205
▁heighten	-9206
▁tropical	-9207
▁Entertain	-9208
▁calculate	-9209
/2	-9210
Can	-9211
May	-9212
Pro	-9213
uum	-9214
ithm	-9215
▁RWA	-9216
▁Sep	-9217
▁ivo	-9218
▁rov	-9219
▁wad	-9220
cture	-9221
owder	-9222
there	-9223
▁Amor	-9224
▁Cand	-9225
▁Finn	-9226
▁Shel	-9227
▁Shiv	-9228
▁Stor	-9229
▁elli	-9230
▁ient	-9231
▁loop	-9232
▁mund	-9233
▁robe	-9234
▁turb	-9235
▁2012,	-9236
▁Blake	-9237
▁Fight	-9238
▁diary	-9239
▁ghost	-9240
▁izers	-9241
▁lodge	-9242
▁cision	-9243
▁cliffe	-9244
▁prelim	-9245
▁ritual	-9246
▁tailor	-9247
▁vacuum	-9248
cription	-9249
▁dissent	-9250
▁prolong	-9251
▁replica	-9252
▁surgeon	-9253
▁Trafford	-9254
▁consolid	-9255
▁operative	-9256
▁completion	-9257
▁prescription	-9258
jab	-9259
omp	-9260
orp	-9261
uan	-9262
▁2-	-9263
▁EM	-9264
▁Sn	-9265
side	-9266
team	-9267
▁Bed	-9268
▁Fat	-9269
▁Jac	-9270
▁Lip	-9271
▁Maz	-9272
▁Nai	-9273
▁bud	-9274
▁gle	-9275
▁mph	-9276
▁ura	-9277
opard	-9278
orman	-9279
▁Dart	-9280
▁Idah	-9281
▁Song	-9282
▁Swan	-9283
▁acco	-9284
▁pest	-9285
▁reel	-9286
▁rubb	-9287
▁seam	-9288
▁surf	-9289
▁2014.	-9290
▁Costa	-9291
▁Wayne	-9292
▁clave	-9293
▁globe	-9294
▁tribe	-9295
control	-9296
quality	-9297
rentice	-9298
▁Slovak	-9299
▁absurd	-9300
▁censor	-9301
▁corona	-9302
▁priest	-9303
▁sleeve	-9304
▁Natural	-9305
▁appreci	-9306
▁precedent	-9307
▁Kardashian	-9308
/1	-9309
58	-9310
Su	-9311
ía	-9312
400	-9313
asy	-9314
net	-9315
sit	-9316
urt	-9317
▁CC	-9318
▁CR	-9319
▁MG	-9320
ship	-9321
▁20.	-9322
▁50%	-9323
▁Cho	-9324
▁Dow	-9325
▁Kai	-9326
▁bay	-9327
▁emi	-9328
▁ick	-9329
▁nak	-9330
▁ria	-9331
▁ugu	-9332
unite	-9333
▁Lyon	-9334
▁diam	-9335
▁guez	-9336
▁mall	-9337
▁tube	-9338
▁ների	-9339
ousers	-9340
ration	-9341
▁2012.	-9342
▁Regul	-9343
▁eater	-9344
▁eties	-9345
▁grapp	-9346
▁queue	-9347
▁tween	-9348
▁Consum	-9349
▁Dakota	-9350
▁burger	-9351
▁digest	-9352
▁humble	-9353
▁racket	-9354
▁sketch	-9355
▁slogan	-9356
▁Crystal	-9357
▁elegant	-9358
▁lecture	-9359
▁militia	-9360
▁mechanic	-9361
▁trousers	-9362
utterstock	-9363
▁conductor	-9364
▁simultane	-9365
47	-9366
án	-9367
hid	-9368
▁AA	-9369
acle	-9370
arce	-9371
five	-9372
heav	-9373
ttar	-9374
ucus	-9375
wide	-9376
▁40-	-9377
▁Buy	-9378
▁Ext	-9379
▁IVE	-9380
▁Lav	-9381
▁Rug	-9382
▁Zoo	-9383
▁iah	-9384
▁lur	-9385
▁rol	-9386
alymp	-9387
▁Bene	-9388
▁Brew	-9389
▁Chad	-9390
▁Saka	-9391
▁Side	-9392
▁Sure	-9393
▁Wick	-9394
▁clam	-9395
▁rage	-9396
▁rope	-9397
▁slim	-9398
modate	-9399
▁Barba	-9400
▁Circu	-9401
▁Crook	-9402
▁Multi	-9403
▁delet	-9404
▁dimin	-9405
▁drift	-9406
▁taker	-9407
▁Beyond	-9408
▁Domini	-9409
▁Flight	-9410
▁Shadow	-9411
▁accent	-9412
▁caucus	-9413
▁ckless	-9414
▁demean	-9415
▁hybrid	-9416
cinating	-9417
▁Collect	-9418
▁confine	-9419
▁disgust	-9420
▁reunite	-9421
▁scatter	-9422
▁Alexandr	-9423
▁Criminal	-9424
▁diminish	-9425
▁download	-9426
▁obstruct	-9427
▁suppress	-9428
▁accommodate	-9429
Of	-9430
50,	-9431
dem	-9432
▁(@	-9433
▁Ki	-9434
▁SO	-9435
▁VA	-9436
▁oh	-9437
":"0	-9438
coln	-9439
hana	-9440
nsic	-9441
oria	-9442
▁3-0	-9443
▁Flo	-9444
▁Opp	-9445
▁lec	-9446
▁nag	-9447
▁uru	-9448
▁zer	-9449
ousaf	-9450
three	-9451
white	-9452
▁2026	-9453
▁Amit	-9454
▁Born	-9455
▁Cold	-9456
▁Cork	-9457
▁Hass	-9458
▁Jude	-9459
▁Kris	-9460
▁Rest	-9461
▁Trib	-9462
▁lawn	-9463
▁pher	-9464
▁tire	-9465
▁tong	-9466
▁trim	-9467
resses	-9468
undred	-9469
▁2011,	-9470
▁Claud	-9471
▁Front	-9472
▁Uttar	-9473
▁alloc	-9474
▁comic	-9475
▁fluid	-9476
▁imper	-9477
▁irrit	-9478
▁marry	-9479
▁vigil	-9480
▁Inform	-9481
▁Norman	-9482
▁deepen	-9483
▁divert	-9484
▁shrink	-9485
sticated	-9486
▁Product	-9487
▁diamond	-9488
▁harvest	-9489
▁pioneer	-9490
President	-9491
▁Paralymp	-9492
▁Norwegian	-9493
▁therapist	-9494
▁ophisticated	-9495
ji	-9496
hum	-9497
imu	-9498
rif	-9499
▁51	-9500
▁OL	-9501
▁og	-9502
▁եւ	-9503
fied	-9504
four	-9505
leep	-9506
risk	-9507
vene	-9508
▁Cai	-9509
▁Hub	-9510
▁lib	-9511
▁rop	-9512
video	-9513
xious	-9514
▁Scho	-9515
▁Volo	-9516
▁ardo	-9517
▁duck	-9518
▁geon	-9519
▁hara	-9520
▁hort	-9521
▁isle	-9522
▁leaf	-9523
▁mild	-9524
▁2008,	-9525
▁Belle	-9526
▁Monte	-9527
▁Pedro	-9528
▁Rebec	-9529
▁Roone	-9530
▁Thame	-9531
▁Ultra	-9532
▁fancy	-9533
▁fasci	-9534
▁metro	-9535
▁Rescue	-9536
▁dispar	-9537
▁lipped	-9538
▁patrol	-9539
▁summon	-9540
▁tattoo	-9541
▁inflamm	-9542
▁Standard	-9543
▁activate	-9544
▁deserved	-9545
▁rehabilit	-9546
▁fascinating	-9547
76	-9548
Ma	-9549
ño	-9550
ակ	-9551
900	-9552
des	-9553
jec	-9554
rim	-9555
sal	-9556
▁2:	-9557
▁Ay	-9558
▁PP	-9559
▁SM	-9560
▁ps	-9561
....	-9562
Hama	-9563
West	-9564
best	-9565
vail	-9566
▁Kon	-9567
▁Lam	-9568
▁Nep	-9569
▁Nit	-9570
▁Ras	-9571
▁ila	-9572
▁kum	-9573
▁lob	-9574
▁uro	-9575
▁vas	-9576
,000,	-9577
check	-9578
plete	-9579
▁2007	-9580
▁Chop	-9581
▁Kean	-9582
▁Lago	-9583
▁Meet	-9584
▁Qual	-9585
▁Tenn	-9586
▁bund	-9587
▁cess	-9588
▁chin	-9589
▁damn	-9590
▁dine	-9591
▁horm	-9592
▁itch	-9593
▁logo	-9594
▁nath	-9595
▁shaw	-9596
▁tarv	-9597
▁vest	-9598
minent	-9599
▁Abdul	-9600
▁Store	-9601
▁avage	-9602
▁pient	-9603
▁Detect	-9604
▁Engine	-9605
▁Punjab	-9606
▁Reagan	-9607
▁Yousaf	-9608
▁hazard	-9609
▁lavish	-9610
▁Holiday	-9611
▁Lincoln	-9612
▁mineral	-9613
▁sheriff	-9614
▁Cardinal	-9615
▁Together	-9616
▁obstacle	-9617
▁prioritise	-9618
44	-9619
93	-9620
Ah	-9621
SA	-9622
UR	-9623
700	-9624
bye	-9625
dev	-9626
▁5-	-9627
▁52	-9628
▁66	-9629
▁TT	-9630
▁Wy	-9631
▁aj	-9632
▁pt	-9633
ippi	-9634
▁13-	-9635
▁2-0	-9636
▁Got	-9637
▁Hop	-9638
▁Tal	-9639
▁ert	-9640
▁fib	-9641
▁gum	-9642
▁iye	-9643
▁sne	-9644
esity	-9645
raser	-9646
▁Burk	-9647
▁Mali	-9648
▁Prof	-9649
▁Snap	-9650
▁bulk	-9651
▁chor	-9652
▁doom	-9653
▁fool	-9654
▁nary	-9655
▁poly	-9656
▁veto	-9657
▁nutri	-9658
▁Father	-9659
▁Winter	-9660
▁revive	-9661
▁staple	-9662
▁Chamber	-9663
▁conceal	-9664
▁exclude	-9665
▁incarce	-9666
▁prevail	-9667
▁skeptic	-9668
▁tresses	-9669
▁instinct	-9670
▁elaborate	-9671
▁constitute	-9672
▁occupation	-9673
▁distinguish	-9674
88	-9675
gl	-9676
Hav	-9677
opa	-9678
ppl	-9679
▁Dh	-9680
▁HA	-9681
▁LG	-9682
▁UE	-9683
▁Wi	-9684
▁mm	-9685
▁mp	-9686
▁ud	-9687
pone	-9688
urse	-9689
▁26-	-9690
▁Bat	-9691
▁Bee	-9692
▁Div	-9693
▁IND	-9694
▁Mba	-9695
▁Sco	-9696
▁Web	-9697
▁chy	-9698
▁esc	-9699
▁gie	-9700
ginal	-9701
▁$200	-9702
▁2004	-9703
▁2005	-9704
▁Aldi	-9705
▁Bela	-9706
▁Cant	-9707
▁Data	-9708
▁Heav	-9709
▁Kolk	-9710
▁Magu	-9711
▁Room	-9712
▁Timo	-9713
▁Winn	-9714
▁cant	-9715
▁gown	-9716
▁tast	-9717
▁trou	-9718
border	-9719
incing	-9720
▁2010,	-9721
▁Johan	-9722
▁Label	-9723
▁Raven	-9724
▁Train	-9725
▁drown	-9726
▁ovich	-9727
▁rella	-9728
▁shark	-9729
▁towel	-9730
absolut	-9731
running	-9732
▁Appeal	-9733
▁Natali	-9734
▁Potter	-9735
▁Somali	-9736
▁subtle	-9737
▁Connell	-9738
▁Valenti	-9739
▁ethical	-9740
▁issippi	-9741
▁tighten	-9742
▁transit	-9743
▁evaluate	-9744
▁cognitive	-9745
▁intervene	-9746
▁convincing	-9747
▁ordination	-9748
hr	-9749
vo	-9750
▁բ	-9751
ena	-9752
jar	-9753
reo	-9754
▁(7	-9755
▁OR	-9756
▁SD	-9757
Yeah	-9758
stop	-9759
test	-9760
west	-9761
zech	-9762
▁Alt	-9763
▁Hog	-9764
▁Hul	-9765
▁VAR	-9766
▁aga	-9767
▁agh	-9768
▁ato	-9769
▁nit	-9770
▁wig	-9771
▁zoo	-9772
ispan	-9773
▁Chlo	-9774
▁Fitz	-9775
▁Glad	-9776
▁Holm	-9777
▁Roth	-9778
▁Stay	-9779
▁cane	-9780
▁dial	-9781
▁pave	-9782
▁Crist	-9783
▁Shake	-9784
▁Stoke	-9785
▁chunk	-9786
▁ocial	-9787
▁snake	-9788
▁stiff	-9789
▁stimu	-9790
▁wager	-9791
▁Fraser	-9792
▁accele	-9793
▁clinch	-9794
▁scorer	-9795
▁spiral	-9796
▁accumul	-9797
▁curious	-9798
▁goodbye	-9799
▁inflict	-9800
▁ripping	-9801
▁elephant	-9802
▁marginal	-9803
▁massacre	-9804
▁ocialist	-9805
▁postpone	-9806
▁voluntary	-9807
▁integration	-9808
nn	-9809
Day	-9810
ura	-9811
▁1-	-9812
▁58	-9813
▁BM	-9814
▁IO	-9815
▁PT	-9816
▁Ug	-9817
▁ré	-9818
Call	-9819
ddle	-9820
live	-9821
rigu	-9822
wich	-9823
▁17.	-9824
▁193	-9825
▁60%	-9826
▁Dee	-9827
▁Eye	-9828
▁Gat	-9829
▁Muk	-9830
▁Pil	-9831
▁SCO	-9832
▁Sor	-9833
▁cel	-9834
▁gna	-9835
▁gos	-9836
▁jee	-9837
▁neo	-9838
Harri	-9839
cript	-9840
▁$100	-9841
▁$500	-9842
▁Curt	-9843
▁Heat	-9844
▁Luck	-9845
▁Shef	-9846
▁Todd	-9847
▁Tree	-9848
▁gene	-9849
▁icot	-9850
▁intr	-9851
▁jean	-9852
▁mack	-9853
▁perf	-9854
▁rina	-9855
▁weed	-9856
inspir	-9857
▁Chile	-9858
▁Logan	-9859
▁Quest	-9860
▁Stein	-9861
▁algor	-9862
▁bribe	-9863
▁cliff	-9864
▁crumb	-9865
▁grain	-9866
▁hesit	-9867
▁rious	-9868
▁stalk	-9869
▁waver	-9870
▁yacht	-9871
diction	-9872
▁Callum	-9873
▁Sharif	-9874
▁bishop	-9875
▁cement	-9876
▁cotton	-9877
▁escort	-9878
▁facial	-9879
▁parole	-9880
▁powder	-9881
▁provoc	-9882
▁100,000	-9883
▁analyse	-9884
▁commend	-9885
▁costume	-9886
▁hormone	-9887
▁astonish	-9888
▁ceremoni	-9889
▁faithful	-9890
▁imminent	-9891
▁algorithm	-9892
▁aspiration	-9893
▁biological	-9894
▁jurisdiction	-9895
▁,	-9896
Gen	-9897
Ind	-9898
iqu	-9899
pop	-9900
usk	-9901
▁77	-9902
▁BB	-9903
▁Cu	-9904
▁MC	-9905
Ukra	-9906
eric	-9907
kick	-9908
need	-9909
▁$30	-9910
▁19.	-9911
▁Abi	-9912
▁Fen	-9913
▁Ips	-9914
▁MAR	-9915
▁Mum	-9916
▁Paw	-9917
▁Tas	-9918
▁Use	-9919
▁gem	-9920
▁jaw	-9921
▁lun	-9922
atoes	-9923
avour	-9924
domin	-9925
▁Core	-9926
▁Emmy	-9927
▁Need	-9928
▁Padd	-9929
▁Salt	-9930
▁dear	-9931
▁mamm	-9932
▁rake	-9933
school	-9934
▁Analy	-9935
▁Czech	-9936
▁Draft	-9937
▁Krist	-9938
▁Shein	-9939
▁Treat	-9940
▁facul	-9941
▁optic	-9942
▁sneak	-9943
▁wives	-9944
▁Bourne	-9945
▁Candid	-9946
▁bucket	-9947
▁deduct	-9948
▁dragon	-9949
▁trajec	-9950
▁vanish	-9951
▁verbal	-9952
▁Ipswich	-9953
▁Leonard	-9954
▁anxious	-9955
▁cluster	-9956
▁intrigu	-9957
▁itories	-9958
▁obesity	-9959
▁historia	-9960
▁satisfied	-9961
46	-9962
aii	-9963
kin	-9964
▁""	-9965
▁72	-9966
▁73	-9967
▁Jh	-9968
▁Py	-9969
▁RK	-9970
agne	-9971
iser	-9972
pher	-9973
prim	-9974
them	-9975
▁23.	-9976
▁27-	-9977
▁Leo	-9978
▁Ola	-9979
▁RAM	-9980
▁Sag	-9981
▁Tax	-9982
▁Uni	-9983
▁oid	-9984
"}],"	-9985
cific	-9986
inkle	-9987
▁Dunn	-9988
▁Fast	-9989
▁Nord	-9990
▁Race	-9991
▁Shop	-9992
▁Stur	-9993
▁ande	-9994
▁beam	-9995
▁clan	-9996
▁moil	-9997
▁mush	-9998
▁rous	-9999
▁Simpl	-10000
▁abund	-10001
▁blunt	-10002
▁cargo	-10003
▁cigar	-10004
▁monet	-10005
▁spire	-10006
▁wrist	-10007
▁Factor	-10008
▁Polish	-10009
▁iracle	-10010
▁meteor	-10011
▁mpagne	-10012
▁plague	-10013
▁Politic	-10014
▁Communist	-10015
▁appliance	-10016
▁municipal	-10017
▁surrender	-10018
▁Paralympic	-10019
▁catastrophic	-10020
VE	-10021
ին	-10022
50.	-10023
acy	-10024
akh	-10025
irr	-10026
tak	-10027
▁56	-10028
▁57	-10029
▁Au	-10030
▁GT	-10031
▁SB	-10032
▁TD	-10033
▁ng	-10034
hear	-10035
link	-10036
oche	-10037
road	-10038
wife	-10039
▁190	-10040
▁Ayo	-10041
▁Gur	-10042
▁Job	-10043
▁Mov	-10044
▁Ole	-10045
athon	-10046
drive	-10047
great	-10048
leash	-10049
title	-10050
▁Diam	-10051
▁Webb	-10052
▁affe	-10053
▁eira	-10054
▁etti	-10055
▁flip	-10056
▁heft	-10057
▁Anima	-10058
▁Order	-10059
▁Penny	-10060
▁Shang	-10061
▁Susan	-10062
▁Trent	-10063
▁Urban	-10064
▁dough	-10065
▁hilar	-10066
bedroom	-10067
picture	-10068
▁Cruise	-10069
▁Hispan	-10070
▁Pelosi	-10071
▁Regist	-10072
▁Source	-10073
▁ionist	-10074
▁libera	-10075
▁twenty	-10076
▁commute	-10077
▁tornado	-10078
▁traight	-10079
▁decorate	-10080
▁leverage	-10081
▁potatoes	-10082
▁predator	-10083
▁hilarious	-10084
▁intellect	-10085
▁traightforward	-10086
43	-10087
87	-10088
Ob	-10089
!!!	-10090
-16	-10091
Bar	-10092
Com	-10093
dec	-10094
ila	-10095
iro	-10096
▁(6	-10097
▁85	-10098
▁DR	-10099
▁EI	-10100
▁LY	-10101
▁PL	-10102
▁SK	-10103
▁Ze	-10104
berg	-10105
igue	-10106
ille	-10107
requ	-10108
show	-10109
▁19-	-10110
▁80%	-10111
▁CDC	-10112
▁ICE	-10113
▁Ing	-10114
▁Mae	-10115
▁ano	-10116
▁cub	-10117
▁dex	-10118
▁dil	-10119
▁dos	-10120
▁pie	-10121
▁£2.	-10122
count	-10123
first	-10124
izure	-10125
media	-10126
▁Abba	-10127
▁Brig	-10128
▁Pant	-10129
▁Vick	-10130
▁fent	-10131
▁gala	-10132
▁limb	-10133
▁proc	-10134
▁spik	-10135
▁tyre	-10136
▁vend	-10137
▁ական	-10138
marine	-10139
▁Astro	-10140
▁crawl	-10141
▁dispo	-10142
▁insur	-10143
▁spoil	-10144
▁toast	-10145
▁utton	-10146
regular	-10147
▁abrupt	-10148
▁bureau	-10149
▁enberg	-10150
▁regain	-10151
▁sphere	-10152
▁stereo	-10153
▁wander	-10154
▁tripped	-10155
▁Sullivan	-10156
':	-10157
wy	-10158
lav	-10159
mem	-10160
▁4-	-10161
▁LL	-10162
▁RL	-10163
▁iq	-10164
▁հա	-10165
anni	-10166
ción	-10167
ulge	-10168
▁23-	-10169
▁28-	-10170
▁34,	-10171
▁Bin	-10172
▁Bot	-10173
▁Jai	-10174
▁Lid	-10175
▁NDA	-10176
▁Pav	-10177
▁SEC	-10178
▁Sit	-10179
▁Sym	-10180
▁Try	-10181
▁dot	-10182
▁gre	-10183
▁ink	-10184
▁itt	-10185
▁kha	-10186
▁nos	-10187
▁sem	-10188
angle	-10189
▁2003	-10190
▁Crow	-10191
▁Darr	-10192
▁Dawn	-10193
▁Hist	-10194
▁Mora	-10195
▁Olli	-10196
▁abst	-10197
▁brew	-10198
▁ente	-10199
▁gran	-10200
▁inho	-10201
▁pike	-10202
▁slop	-10203
liment	-10204
▁1,500	-10205
▁chard	-10206
▁forge	-10207
▁hedge	-10208
▁smith	-10209
▁thumb	-10210
▁trash	-10211
nderson	-10212
▁Privat	-10213
▁aerial	-10214
▁defect	-10215
▁garner	-10216
▁hopped	-10217
▁menopa	-10218
▁serial	-10219
▁upload	-10220
threaten	-10221
▁Maguire	-10222
▁academy	-10223
▁genetic	-10224
▁repress	-10225
▁seizure	-10226
▁evolving	-10227
▁necessit	-10228
▁constrain	-10229
▁recession	-10230
▁compliment	-10231
57	-10232
Fi	-10233
RC	-10234
Sm	-10235
ju	-10236
ña	-10237
▁ը	-10238
Mar	-10239
bow	-10240
tho	-10241
▁2%	-10242
▁Og	-10243
▁gn	-10244
▁այ	-10245
▁ար	-10246
▁եր	-10247
Form	-10248
aste	-10249
educ	-10250
fund	-10251
iste	-10252
kins	-10253
rawl	-10254
▁21-	-10255
▁21.	-10256
▁36,	-10257
▁38,	-10258
▁Cos	-10259
▁Cox	-10260
▁Edm	-10261
▁Pes	-10262
▁Vio	-10263
▁Wen	-10264
▁hey	-10265
▁tok	-10266
▁tom	-10267
heart	-10268
▁Agri	-10269
▁Dama	-10270
▁Host	-10271
▁Kirk	-10272
▁Less	-10273
▁Mind	-10274
▁Sear	-10275
▁bart	-10276
▁cara	-10277
▁essa	-10278
▁gard	-10279
▁heim	-10280
▁heir	-10281
▁igan	-10282
▁inch	-10283
▁itis	-10284
▁knot	-10285
▁quar	-10286
▁rian	-10287
▁roar	-10288
▁soup	-10289
▁whop	-10290
▁Prima	-10291
▁Realm	-10292
▁Third	-10293
▁calor	-10294
▁evict	-10295
▁evoke	-10296
▁flour	-10297
▁grind	-10298
▁groom	-10299
▁humor	-10300
▁proxi	-10301
▁radar	-10302
▁waist	-10303
estrian	-10304
present	-10305
▁Better	-10306
▁Cancer	-10307
▁Falcon	-10308
▁Julian	-10309
▁Observ	-10310
▁bundle	-10311
▁heimer	-10312
▁tongue	-10313
▁Citizen	-10314
▁Diamond	-10315
▁Protest	-10316
▁animate	-10317
▁drastic	-10318
▁inhabit	-10319
▁thunder	-10320
▁rational	-10321
▁Henderson	-10322
▁assurance	-10323
▁submarine	-10324
stitutional	-10325
Shutterstock	-10326
▁ó	-10327
Sha	-10328
eth	-10329
▁76	-10330
▁GC	-10331
▁HM	-10332
▁MD	-10333
▁£9	-10334
anyl	-10335
cern	-10336
inea	-10337
ulum	-10338
▁Eco	-10339
▁Kaz	-10340
▁Sug	-10341
▁Tag	-10342
▁Wei	-10343
▁ark	-10344
▁bil	-10345
▁dor	-10346
▁ido	-10347
▁nox	-10348
about	-10349
mouth	-10350
tling	-10351
ynold	-10352
▁Bund	-10353
▁Hour	-10354
▁Ibra	-10355
▁Move	-10356
▁Skin	-10357
▁Snow	-10358
▁Stop	-10359
▁Yeah	-10360
▁barb	-10361
▁curl	-10362
▁garh	-10363
▁guin	-10364
▁herb	-10365
▁nock	-10366
▁pear	-10367
herent	-10368
laston	-10369
▁Croat	-10370
▁Libra	-10371
▁ament	-10372
▁appet	-10373
▁dives	-10374
▁essay	-10375
▁sheep	-10376
▁stirr	-10377
▁stump	-10378
▁visor	-10379
▁Hawaii	-10380
▁Legend	-10381
▁Target	-10382
▁candle	-10383
▁caster	-10384
▁enquir	-10385
▁lounge	-10386
▁thread	-10387
▁Captain	-10388
▁Respons	-10389
▁foresee	-10390
▁tracked	-10391
▁unleash	-10392
▁audition	-10393
▁fentanyl	-10394
▁forensic	-10395
▁ologists	-10396
▁settling	-10397
lastonbury	-10398
▁Ambassador	-10399
▁concession	-10400
Ab	-10401
EN	-10402
IC	-10403
cm	-10404
▁պ	-10405
ini	-10406
ius	-10407
pub	-10408
rad	-10409
▁1:	-10410
▁EA	-10411
John	-10412
alog	-10413
ftop	-10414
lift	-10415
plus	-10416
riev	-10417
▁$1,	-10418
▁$3.	-10419
▁Bah	-10420
▁Fac	-10421
▁Fol	-10422
▁Gay	-10423
▁Kab	-10424
▁Orb	-10425
▁foe	-10426
▁hab	-10427
▁mou	-10428
▁rog	-10429
▁sue	-10430
Image	-10431
onate	-10432
▁1997	-10433
▁Alon	-10434
▁Cape	-10435
▁Corr	-10436
▁Eras	-10437
▁Hear	-10438
▁Huss	-10439
▁cure	-10440
▁fals	-10441
▁lamb	-10442
▁matt	-10443
▁peel	-10444
▁ragg	-10445
▁slug	-10446
▁veer	-10447
erance	-10448
▁Alter	-10449
▁Emmer	-10450
▁Lynch	-10451
▁Milit	-10452
▁Santo	-10453
▁Shore	-10454
▁flare	-10455
▁merge	-10456
▁piano	-10457
▁rumor	-10458
require	-10459
▁Parent	-10460
▁Return	-10461
▁Sheikh	-10462
▁fisher	-10463
▁sprawl	-10464
changing	-10465
▁Ibrahim	-10466
▁Million	-10467
▁acknowl	-10468
▁amateur	-10469
▁default	-10470
▁hydrate	-10471
▁retriev	-10472
▁terrace	-10473
▁Discover	-10474
▁junction	-10475
▁resonate	-10476
generation	-10477
Ke	-10478
LL	-10479
ax	-10480
eo	-10481
▁Ա	-10482
=""	-10483
?""	-10484
Did	-10485
evi	-10486
eze	-10487
mal	-10488
sav	-10489
▁62	-10490
▁GI	-10491
▁LP	-10492
comp	-10493
east	-10494
grad	-10495
hend	-10496
nast	-10497
othe	-10498
pair	-10499
▁Ade	-10500
▁BRI	-10501
▁Bio	-10502
▁Hab	-10503
▁Kle	-10504
▁Lem	-10505
▁Nam	-10506
▁Nis	-10507
▁Pip	-10508
▁Rum	-10509
▁Sem	-10510
▁Tab	-10511
▁aro	-10512
▁beg	-10513
▁coo	-10514
▁dha	-10515
▁dox	-10516
▁oca	-10517
▁2002	-10518
▁Body	-10519
▁Donn	-10520
▁Drug	-10521
▁Gran	-10522
▁Iron	-10523
▁Kier	-10524
▁Rule	-10525
▁anga	-10526
▁ania	-10527
▁brun	-10528
▁ceut	-10529
▁gast	-10530
▁ghan	-10531
▁gies	-10532
▁shit	-10533
▁sofa	-10534
▁tino	-10535
▁vamp	-10536
ramble	-10537
▁Horse	-10538
▁Khali	-10539
▁conti	-10540
▁daunt	-10541
▁inder	-10542
▁pulse	-10543
▁releg	-10544
▁20,000	-10545
▁Atkins	-10546
▁Employ	-10547
▁clause	-10548
▁glamor	-10549
▁gravit	-10550
▁harmon	-10551
▁ocaust	-10552
▁phobia	-10553
▁queeze	-10554
▁revise	-10555
▁shamed	-10556
▁spouse	-10557
▁summar	-10558
▁Prevent	-10559
▁Reynold	-10560
▁Stephan	-10561
▁boycott	-10562
▁fatigue	-10563
▁flatter	-10564
▁launder	-10565
▁pinning	-10566
▁rooftop	-10567
▁Commerce	-10568
▁backpack	-10569
▁ceutical	-10570
▁flourish	-10571
▁inventor	-10572
41	-10573
Ex	-10574
SL	-10575
Car	-10576
cor	-10577
hes	-10578
how	-10579
vin	-10580
▁AB	-10581
▁NL	-10582
▁XI	-10583
▁lu	-10584
9.99	-10585
Lago	-10586
Your	-10587
bast	-10588
laud	-10589
▁2.5	-10590
▁50,	-10591
▁Heg	-10592
▁Hem	-10593
▁Hug	-10594
▁Kos	-10595
▁Pai	-10596
▁dle	-10597
▁eve	-10598
▁gla	-10599
▁woe	-10600
▁£3.	-10601
after	-10602
never	-10603
ogram	-10604
▁Aver	-10605
▁Bath	-10606
▁Cait	-10607
▁Chev	-10608
▁Kell	-10609
▁Page	-10610
▁Wang	-10611
▁Zara	-10612
▁ambi	-10613
▁aria	-10614
▁atro	-10615
▁laun	-10616
▁meme	-10617
▁ntha	-10618
▁trac	-10619
member	-10620
▁4,000	-10621
▁Mangi	-10622
▁audit	-10623
▁dread	-10624
▁fibre	-10625
▁rador	-10626
▁rigor	-10627
▁witch	-10628
itorial	-10629
▁Hassan	-10630
▁Temple	-10631
▁humour	-10632
▁patron	-10633
▁refine	-10634
▁rehear	-10635
▁sensit	-10636
▁toddle	-10637
▁Continu	-10638
▁Holland	-10639
▁chemist	-10640
▁cinemat	-10641
▁gymnast	-10642
▁smuggle	-10643
▁Communic	-10644
▁denounce	-10645
▁dispatch	-10646
▁marathon	-10647
▁ibilities	-10648
▁Glastonbury	-10649
By	-10650
Ro	-10651
Mic	-10652
Pol	-10653
dep	-10654
iva	-10655
odi	-10656
qua	-10657
▁Rh	-10658
Will	-10659
cide	-10660
deep	-10661
rust	-10662
take	-10663
text	-10664
unal	-10665
▁Cad	-10666
▁Cau	-10667
▁Jol	-10668
▁Mig	-10669
▁Pul	-10670
▁Rud	-10671
▁Sac	-10672
▁jit	-10673
▁ppe	-10674
antle	-10675
clist	-10676
ities	-10677
pherd	-10678
▁1950	-10679
▁Abdu	-10680
▁Berg	-10681
▁Cara	-10682
▁Cert	-10683
▁Dark	-10684
▁Pink	-10685
▁Torr	-10686
▁Wait	-10687
▁ados	-10688
▁bash	-10689
▁baum	-10690
▁bush	-10691
▁cosy	-10692
▁cram	-10693
▁iyeh	-10694
▁mast	-10695
▁mole	-10696
weeney	-10697
▁Colon	-10698
▁Giuli	-10699
▁Malik	-10700
▁Worth	-10701
▁arbit	-10702
▁bloom	-10703
▁creep	-10704
▁litig	-10705
▁swath	-10706
righten	-10707
▁anthem	-10708
▁derail	-10709
▁judici	-10710
▁lethal	-10711
▁mantle	-10712
▁tapped	-10713
▁Sweeney	-10714
▁ivities	-10715
▁resemble	-10716
▁scramble	-10717
▁tolerate	-10718
▁tribunal	-10719
▁editorial	-10720
▁pedestrian	-10721
31	-10722
59	-10723
69	-10724
Ass	-10725
Chi	-10726
Fil	-10727
did	-10728
fat	-10729
win	-10730
ուն	-10731
▁az	-10732
▁eu	-10733
Most	-10734
fish	-10735
seat	-10736
ugen	-10737
▁30.	-10738
▁Aja	-10739
▁Ama	-10740
▁EPA	-10741
▁Few	-10742
▁Hai	-10743
▁Lig	-10744
▁Ort	-10745
▁Pea	-10746
▁Rab	-10747
▁Zoe	-10748
▁von	-10749
iding	-10750
rical	-10751
ssert	-10752
ugget	-10753
▁Bran	-10754
▁Lime	-10755
▁Luci	-10756
▁Minn	-10757
▁Watt	-10758
▁Wire	-10759
▁bour	-10760
▁corp	-10761
▁culp	-10762
▁feld	-10763
▁ideo	-10764
▁snip	-10765
▁spic	-10766
▁vian	-10767
▁witt	-10768
aniard	-10769
ennial	-10770
extrem	-10771
terror	-10772
▁2013,	-10773
▁Blood	-10774
▁Devon	-10775
▁Fried	-10776
▁Ghana	-10777
▁Initi	-10778
▁Lotte	-10779
▁Mobil	-10780
▁blond	-10781
▁chemo	-10782
▁incor	-10783
▁indig	-10784
▁juana	-10785
▁reset	-10786
▁Detail	-10787
▁Modern	-10788
▁Prison	-10789
▁Sebast	-10790
▁Strike	-10791
▁Uganda	-10792
▁heroes	-10793
▁impair	-10794
▁lavery	-10795
▁propel	-10796
▁Classic	-10797
▁dessert	-10798
▁rubbish	-10799
▁Spaniard	-10800
▁coincide	-10801
▁delicate	-10802
▁nutrient	-10803
▁illennial	-10804
▁Profession	-10805
▁sensational	-10806
ID	-10807
ST	-10808
Ger	-10809
ano	-10810
hop	-10811
olo	-10812
zhe	-10813
▁63	-10814
ache	-10815
away	-10816
rise	-10817
some	-10818
▁$50	-10819
▁35,	-10820
▁Daw	-10821
▁Ess	-10822
▁Gee	-10823
▁Hig	-10824
▁IFA	-10825
▁Ode	-10826
▁abh	-10827
▁ego	-10828
▁fid	-10829
▁iti	-10830
▁lly	-10831
▁vie	-10832
▁zzi	-10833
▁£30	-10834
sbury	-10835
speed	-10836
▁Copp	-10837
▁Cott	-10838
▁Edit	-10839
▁Moro	-10840
▁Poly	-10841
▁Word	-10842
▁anta	-10843
▁gush	-10844
▁liga	-10845
▁pist	-10846
▁soak	-10847
▁thon	-10848
speare	-10849
▁2026.	-10850
▁Clean	-10851
▁Eugen	-10852
▁Somer	-10853
▁Wheel	-10854
▁dling	-10855
▁flies	-10856
▁flipp	-10857
▁fried	-10858
▁gaard	-10859
▁socio	-10860
▁tique	-10861
▁vague	-10862
Callout	-10863
perform	-10864
▁Battle	-10865
▁Stella	-10866
▁lapped	-10867
▁throat	-10868
▁Belgian	-10869
▁Hundred	-10870
▁abolish	-10871
▁berries	-10872
▁cherish	-10873
▁circuit	-10874
▁oppress	-10875
▁perfume	-10876
▁riculum	-10877
▁satisfy	-10878
▁steroid	-10879
▁demolish	-10880
▁finalist	-10881
▁homicide	-10882
▁mushroom	-10883
▁affection	-10884
▁incorpora	-10885
▁intelligent	-10886
/0	-10887
ym	-10888
fam	-10889
gov	-10890
nia	-10891
oti	-10892
▁Ci	-10893
▁Es	-10894
▁Ev	-10895
▁UT	-10896
▁որ	-10897
Like	-10898
grav	-10899
hide	-10900
inic	-10901
lean	-10902
▁1-1	-10903
▁Alf	-10904
▁Cut	-10905
▁ERA	-10906
▁Jok	-10907
▁Kad	-10908
▁Map	-10909
▁Nun	-10910
▁Soc	-10911
▁Tus	-10912
▁ega	-10913
▁noc	-10914
▁pha	-10915
build	-10916
emark	-10917
idemi	-10918
store	-10919
unami	-10920
value	-10921
▁Chau	-10922
▁Help	-10923
▁Path	-10924
▁Peru	-10925
▁Raid	-10926
▁Rhod	-10927
▁Rout	-10928
▁Rush	-10929
▁Self	-10930
▁Zach	-10931
▁blur	-10932
▁booz	-10933
▁butt	-10934
▁enko	-10935
▁helm	-10936
▁vape	-10937
▁2011.	-10938
▁Legal	-10939
▁Mahon	-10940
▁eagle	-10941
▁naiss	-10942
▁ograp	-10943
▁ratio	-10944
▁Adrian	-10945
▁Murder	-10946
▁clutch	-10947
▁pillow	-10948
▁volcan	-10949
▁Fashion	-10950
▁cyclist	-10951
▁dresses	-10952
▁indulge	-10953
▁refusal	-10954
▁villain	-10955
▁worship	-10956
▁fragment	-10957
▁Sainsbury	-10958
▁naissance	-10959
▁reinforce	-10960
▁disciplina	-10961
▁ú	-10962
-21	-10963
Are	-10964
Her	-10965
aks	-10966
bre	-10967
exp	-10968
gom	-10969
ika	-10970
iza	-10971
sec	-10972
tar	-10973
▁67	-10974
▁IG	-10975
▁MU	-10976
▁Qa	-10977
▁RF	-10978
▁má	-10979
grow	-10980
iful	-10981
late	-10982
▁22.	-10983
▁37,	-10984
▁Aur	-10985
▁Cyr	-10986
▁Ent	-10987
▁Fly	-10988
▁Gol	-10989
▁HIV	-10990
▁Iss	-10991
▁Jab	-10992
▁Nut	-10993
▁Pap	-10994
▁Pin	-10995
▁Sik	-10996
▁Sou	-10997
▁Yar	-10998
▁amo	-10999
▁gag	-11000
":[{"	-11001
Black	-11002
agine	-11003
▁1994	-11004
▁Butt	-11005
▁Cash	-11006
▁Duck	-11007
▁Fear	-11008
▁Feel	-11009
▁Fine	-11010
▁Push	-11011
▁Root	-11012
▁Shap	-11013
▁Visa	-11014
▁appa	-11015
▁bree	-11016
▁chen	-11017
▁flux	-11018
▁quip	-11019
▁scot	-11020
▁sten	-11021
▁taka	-11022
▁ummy	-11023
▁ured	-11024
change	-11025
normal	-11026
ovanni	-11027
rogate	-11028
▁2010.	-11029
▁Patri	-11030
▁Tamil	-11031
▁carve	-11032
▁inous	-11033
▁leigh	-11034
general	-11035
onsiste	-11036
▁Bishop	-11037
▁Empire	-11038
▁Mirror	-11039
▁Vision	-11040
▁canvas	-11041
▁cartel	-11042
▁genius	-11043
▁jungle	-11044
▁ladies	-11045
▁roller	-11046
▁Bernard	-11047
▁Warrior	-11048
▁conceiv	-11049
▁ipation	-11050
▁semitic	-11051
▁sincere	-11052
▁vinegar	-11053
▁frighten	-11054
▁competent	-11055
▁inconsiste	-11056
82	-11057
Go	-11058
IP	-11059
Pr	-11060
▁գ	-11061
Per	-11062
Sin	-11063
amy	-11064
res	-11065
vis	-11066
▁CU	-11067
▁FF	-11068
▁HS	-11069
▁dé	-11070
▁fy	-11071
abwe	-11072
arna	-11073
care	-11074
conf	-11075
glou	-11076
oost	-11077
tail	-11078
tech	-11079
uent	-11080
▁(19	-11081
▁24.	-11082
▁40,	-11083
▁700	-11084
▁Bag	-11085
▁Chu	-11086
▁Cyp	-11087
▁Dad	-11088
▁Gir	-11089
▁Gut	-11090
▁Jal	-11091
▁LED	-11092
▁Lit	-11093
▁MGM	-11094
▁NGO	-11095
▁Sex	-11096
▁Vat	-11097
▁dug	-11098
▁eum	-11099
▁gur	-11100
▁ima	-11101
▁nia	-11102
▁osa	-11103
▁rox	-11104
▁ukh	-11105
▁ulu	-11106
entry	-11107
every	-11108
geria	-11109
grand	-11110
inclu	-11111
itial	-11112
jarat	-11113
loved	-11114
metic	-11115
trans	-11116
▁2001	-11117
▁Bach	-11118
▁Cata	-11119
▁Chef	-11120
▁Cine	-11121
▁Cord	-11122
▁Insu	-11123
▁Jail	-11124
▁Naga	-11125
▁Pash	-11126
▁Radu	-11127
▁Rein	-11128
▁Slot	-11129
▁Tara	-11130
▁Weis	-11131
▁Wilk	-11132
▁Wool	-11133
▁bolt	-11134
▁bunk	-11135
▁dazz	-11136
▁ende	-11137
▁obsc	-11138
▁succ	-11139
around	-11140
eteran	-11141
gomery	-11142
hammad	-11143
▁Arkan	-11144
▁Bever	-11145
▁Brave	-11146
▁Poche	-11147
▁Priya	-11148
▁antly	-11149
▁chime	-11150
▁illon	-11151
▁morph	-11152
▁spear	-11153
▁virtu	-11154
General	-11155
Reuters	-11156
imbabwe	-11157
▁Access	-11158
▁Bennet	-11159
▁Junior	-11160
▁Panama	-11161
▁blazer	-11162
▁degrad	-11163
▁fringe	-11164
▁lagged	-11165
▁siding	-11166
▁Strateg	-11167
▁Veteran	-11168
▁builder	-11169
▁coroner	-11170
▁despair	-11171
▁ecoglou	-11172
▁Historic	-11173
▁cosmetic	-11174
▁divisive	-11175
▁mitigate	-11176
▁persecut	-11177
▁cooperate	-11178
▁irregular	-11179
▁Initiative	-11180
▁Shakespeare	-11181
TA	-11182
▁*	-11183
-24	-11184
cci	-11185
ces	-11186
hou	-11187
▁(0	-11188
▁1%	-11189
▁61	-11190
▁64	-11191
▁74	-11192
▁Ny	-11193
▁PB	-11194
▁wy	-11195
comm	-11196
lley	-11197
onia	-11198
rett	-11199
sule	-11200
tier	-11201
},{"	-11202
▁29-	-11203
▁Bez	-11204
▁Dim	-11205
▁Fas	-11206
▁Gui	-11207
▁Inn	-11208
▁Irv	-11209
▁Loc	-11210
▁Mix	-11211
▁abi	-11212
▁dod	-11213
▁eau	-11214
▁hay	-11215
▁kur	-11216
Field	-11217
Where	-11218
adget	-11219
chaeo	-11220
inent	-11221
water	-11222
▁1999	-11223
▁Bate	-11224
▁Beau	-11225
▁Boot	-11226
▁Cond	-11227
▁Dani	-11228
▁Fant	-11229
▁Flow	-11230
▁Grow	-11231
▁Lamm	-11232
▁Nasr	-11233
▁Tell	-11234
▁True	-11235
▁Wine	-11236
▁agit	-11237
▁bind	-11238
▁etta	-11239
▁halv	-11240
▁ista	-11241
▁jazz	-11242
▁mitt	-11243
▁oath	-11244
▁occu	-11245
▁omin	-11246
▁oncé	-11247
▁rust	-11248
▁stig	-11249
profit	-11250
▁Dolph	-11251
▁Pixel	-11252
▁Speed	-11253
▁cough	-11254
▁dogan	-11255
▁exile	-11256
▁expel	-11257
▁kumar	-11258
▁lator	-11259
▁minus	-11260
▁oxide	-11261
▁ptive	-11262
▁scrub	-11263
▁widow	-11264
▁wield	-11265
achelor	-11266
zheimer	-11267
▁Defend	-11268
▁Foster	-11269
▁Guinea	-11270
▁Hopkin	-11271
▁Minute	-11272
▁Rocket	-11273
▁Twenty	-11274
▁acquit	-11275
▁allevi	-11276
▁attain	-11277
▁cardio	-11278
▁copper	-11279
▁crimin	-11280
▁heroin	-11281
▁polish	-11282
▁Advisor	-11283
▁Algeria	-11284
▁Gujarat	-11285
▁applaud	-11286
▁ceptive	-11287
▁dispens	-11288
▁Muhammad	-11289
▁Zimbabwe	-11290
▁ominance	-11291
▁Broadcast	-11292
▁Montgomery	-11293
▁complement	-11294
▁contradict	-11295
▁institutional	-11296
34	-11297
SH	-11298
avi	-11299
ges	-11300
iao	-11301
les	-11302
too	-11303
▁5%	-11304
▁96	-11305
▁GO	-11306
▁Kn	-11307
▁WO	-11308
abel	-11309
doch	-11310
inte	-11311
sect	-11312
▁15%	-11313
▁180	-11314
▁32,	-11315
▁33,	-11316
▁Ace	-11317
▁Ble	-11318
▁Doh	-11319
▁Fah	-11320
▁Fit	-11321
▁Fun	-11322
▁Kas	-11323
▁Kee	-11324
▁Kor	-11325
▁Mom	-11326
▁WSL	-11327
▁iel	-11328
▁mog	-11329
▁oda	-11330
▁oma	-11331
▁quo	-11332
money	-11333
▁1992	-11334
▁Bian	-11335
▁Coff	-11336
▁Kara	-11337
▁Mann	-11338
▁Mead	-11339
▁Name	-11340
▁Past	-11341
▁buds	-11342
▁cage	-11343
▁chic	-11344
▁dawn	-11345
▁dice	-11346
▁hriv	-11347
▁iche	-11348
▁lept	-11349
▁meth	-11350
▁phil	-11351
▁stow	-11352
▁void	-11353
▁yang	-11354
Pacifi	-11355
dollar	-11356
rinkle	-11357
ubborn	-11358
▁Arvin	-11359
▁Berry	-11360
▁Indie	-11361
▁Nepal	-11362
▁batch	-11363
▁brook	-11364
▁cakes	-11365
▁champ	-11366
▁curve	-11367
▁grasp	-11368
▁logic	-11369
▁medit	-11370
▁rippl	-11371
▁sober	-11372
▁Timber	-11373
▁Triple	-11374
▁Wolver	-11375
▁ceding	-11376
▁conges	-11377
▁judice	-11378
▁neglig	-11379
▁pastor	-11380
▁raiser	-11381
▁uplift	-11382
Sullivan	-11383
▁Murdoch	-11384
▁deflect	-11385
▁logging	-11386
▁migrate	-11387
▁provoke	-11388
▁Consider	-11389
▁fraction	-11390
▁superior	-11391
▁Alzheimer	-11392
En	-11393
▁դ	-11394
/20	-11395
Dur	-11396
cnn	-11397
dig	-11398
url	-11399
▁59	-11400
▁BL	-11401
▁FM	-11402
▁MB	-11403
▁Om	-11404
cede	-11405
girl	-11406
grim	-11407
ioid	-11408
stud	-11409
▁29.	-11410
▁30%	-11411
▁42,	-11412
▁60-	-11413
▁911	-11414
▁Cum	-11415
▁FOR	-11416
▁ISI	-11417
▁Rae	-11418
▁Rao	-11419
▁Syn	-11420
▁aki	-11421
▁dio	-11422
▁lik	-11423
▁ord	-11424
▁pok	-11425
▁sip	-11426
Laren	-11427
could	-11428
ropic	-11429
track	-11430
verge	-11431
where	-11432
▁1996	-11433
▁Bark	-11434
▁Grad	-11435
▁Guin	-11436
▁Half	-11437
▁Jana	-11438
▁Jona	-11439
▁Jorg	-11440
▁Lynn	-11441
▁Omar	-11442
▁Ravi	-11443
▁Rico	-11444
▁aunt	-11445
▁bore	-11446
▁fond	-11447
▁holm	-11448
▁lush	-11449
▁neat	-11450
▁orie	-11451
▁palm	-11452
▁puff	-11453
effect	-11454
▁Apart	-11455
▁Baron	-11456
▁Brock	-11457
▁Chuck	-11458
▁Creat	-11459
▁Hutch	-11460
▁Karna	-11461
▁Rosen	-11462
▁alist	-11463
▁allot	-11464
▁angel	-11465
▁elbow	-11466
▁forgo	-11467
▁grove	-11468
▁ifier	-11469
▁laine	-11470
▁mould	-11471
▁orate	-11472
olition	-11473
▁Clinic	-11474
▁Hallow	-11475
▁Regard	-11476
▁Stream	-11477
▁enlist	-11478
▁expend	-11479
▁induct	-11480
▁litter	-11481
stituent	-11482
▁Culture	-11483
▁Elliott	-11484
▁Senegal	-11485
▁crystal	-11486
▁epidemi	-11487
▁stellar	-11488
▁tuition	-11489
▁warrior	-11490
▁Personal	-11491
▁ensemble	-11492
▁stubborn	-11493
▁intendent	-11494
▁physician	-11495
▁tolerance	-11496
▁catastrophe	-11497
▁contributor	-11498
▁յ	-11499
bid	-11500
erk	-11501
fun	-11502
pay	-11503
rup	-11504
zie	-11505
▁Os	-11506
▁ij	-11507
esar	-11508
etal	-11509
hion	-11510
your	-11511
▁31.	-11512
▁33-	-11513
▁Ame	-11514
▁Bis	-11515
▁Buk	-11516
▁Cin	-11517
▁Eis	-11518
▁Fay	-11519
▁Fri	-11520
▁Gag	-11521
▁Kul	-11522
▁Lov	-11523
▁Lux	-11524
▁Moo	-11525
▁Opt	-11526
▁Wan	-11527
▁Zon	-11528
▁fod	-11529
▁ien	-11530
▁jay	-11531
▁oga	-11532
andal	-11533
focus	-11534
isure	-11535
ograp	-11536
unate	-11537
would	-11538
▁1998	-11539
▁Audi	-11540
▁Clay	-11541
▁Dist	-11542
▁Doll	-11543
▁Shet	-11544
▁Siri	-11545
▁Toyo	-11546
▁Volk	-11547
▁amon	-11548
▁cial	-11549
▁cran	-11550
▁deau	-11551
▁dupe	-11552
▁foil	-11553
▁gust	-11554
▁idol	-11555
▁ival	-11556
▁lena	-11557
▁noon	-11558
▁osis	-11559
▁rist	-11560
orient	-11561
▁6,000	-11562
▁Alpha	-11563
▁Marri	-11564
▁Rebel	-11565
▁Secur	-11566
▁ación	-11567
▁adorn	-11568
▁humid	-11569
▁inity	-11570
▁ranch	-11571
▁scout	-11572
▁Editor	-11573
▁Launch	-11574
▁Wonder	-11575
▁aggrav	-11576
▁elfish	-11577
▁mortal	-11578
▁needle	-11579
▁nuance	-11580
▁punctu	-11581
▁sympat	-11582
▁ulsion	-11583
▁urreal	-11584
▁volley	-11585
▁wallow	-11586
▁Account	-11587
▁Advance	-11588
▁McLaren	-11589
▁leisure	-11590
▁pilgrim	-11591
▁plummet	-11592
▁solving	-11593
FormField	-11594
▁Giovanni	-11595
▁illusion	-11596
▁currencies	-11597
CalloutFormField	-11598
32	-11599
92	-11600
EE	-11601
▁}	-11602
99.	-11603
Hey	-11604
Who	-11605
bot	-11606
don	-11607
kel	-11608
pin	-11609
top	-11610
zan	-11611
▁(8	-11612
▁7-	-11613
▁FE	-11614
▁TE	-11615
▁WP	-11616
full	-11617
hant	-11618
roid	-11619
vado	-11620
▁$4.	-11621
▁70%	-11622
▁90%	-11623
▁Bau	-11624
▁Dix	-11625
▁ETF	-11626
▁Hat	-11627
▁Ley	-11628
▁Nee	-11629
▁Til	-11630
▁USD	-11631
▁Vid	-11632
▁Wor	-11633
▁Wyn	-11634
▁Zak	-11635
▁afe	-11636
▁wav	-11637
alous	-11638
ammer	-11639
idant	-11640
ining	-11641
piece	-11642
ucces	-11643
▁Abra	-11644
▁Gian	-11645
▁Magn	-11646
▁Rank	-11647
▁Than	-11648
▁aero	-11649
▁arra	-11650
▁bend	-11651
▁leen	-11652
▁meta	-11653
▁pact	-11654
▁rupt	-11655
▁zard	-11656
author	-11657
ograph	-11658
screen	-11659
▁Birth	-11660
▁Carri	-11661
▁Chart	-11662
▁Crowd	-11663
▁Maver	-11664
▁Ranch	-11665
▁Sweet	-11666
▁Vienn	-11667
▁censu	-11668
▁chore	-11669
▁chuck	-11670
▁coerc	-11671
▁swamy	-11672
▁vouch	-11673
▁$1,000	-11674
▁30,000	-11675
▁Height	-11676
▁Matter	-11677
▁Number	-11678
▁cognis	-11679
▁cultiv	-11680
▁flavor	-11681
▁hinder	-11682
▁phobic	-11683
▁pillar	-11684
▁analyze	-11685
▁compact	-11686
▁electro	-11687
▁shutter	-11688
▁graphical	-11689
▁choreograph	-11690
Am	-11691
El	-11692
Lo	-11693
SE	-11694
Wh	-11695
mn	-11696
▁ք	-11697
mAh	-11698
},"	-11699
▁Aw	-11700
▁PU	-11701
▁gg	-11702
auto	-11703
▁(10	-11704
▁Gul	-11705
▁HER	-11706
▁Lum	-11707
▁Rai	-11708
▁Rak	-11709
▁Raw	-11710
▁Sau	-11711
▁Tah	-11712
▁adi	-11713
▁adu	-11714
▁agn	-11715
▁fad	-11716
▁fet	-11717
▁kel	-11718
▁lat	-11719
▁más	-11720
▁nau	-11721
▁ois	-11722
▁oul	-11723
▁spr	-11724
▁sym	-11725
▁£40	-11726
▁£50	-11727
abort	-11728
erald	-11729
exist	-11730
gical	-11731
iancé	-11732
inisc	-11733
shift	-11734
watch	-11735
▁Annu	-11736
▁Gret	-11737
▁Husk	-11738
▁Indo	-11739
▁Kemp	-11740
▁Lego	-11741
▁Lith	-11742
▁Nava	-11743
▁Uber	-11744
▁Venu	-11745
▁Want	-11746
▁colo	-11747
▁fist	-11748
▁fork	-11749
▁frey	-11750
▁glut	-11751
▁grin	-11752
▁leek	-11753
▁lene	-11754
▁pork	-11755
▁2013.	-11756
▁Bella	-11757
▁Close	-11758
▁Cloud	-11759
▁Honor	-11760
▁Isaac	-11761
▁Joann	-11762
▁Naomi	-11763
▁Teach	-11764
▁brink	-11765
▁flirt	-11766
▁sanit	-11767
▁saver	-11768
▁terra	-11769
ificent	-11770
ructive	-11771
▁Beauty	-11772
▁Isabel	-11773
▁adhere	-11774
▁amento	-11775
▁bruise	-11776
▁consul	-11777
▁fluent	-11778
▁opioid	-11779
▁pheric	-11780
standing	-11781
▁Perform	-11782
▁Salvado	-11783
▁barrage	-11784
▁capsule	-11785
▁collide	-11786
▁convene	-11787
▁curator	-11788
▁cushion	-11789
▁deprive	-11790
▁distort	-11791
▁lapping	-11792
▁Maverick	-11793
▁reminisc	-11794
▁incidence	-11795
▁menopause	-11796
contributor	-11797
▁agnificent	-11798
▁estructive	-11799
▁constituent	-11800
-23	-11801
Eng	-11802
Joe	-11803
bnb	-11804
idg	-11805
jay	-11806
▁1/	-11807
▁68	-11808
▁95	-11809
▁Ai	-11810
▁BY	-11811
▁DU	-11812
▁RU	-11813
":{"	-11814
Love	-11815
ambi	-11816
llah	-11817
mail	-11818
omez	-11819
uous	-11820
wise	-11821
▁192	-11822
▁28.	-11823
▁Aud	-11824
▁ERS	-11825
▁Gem	-11826
▁Geo	-11827
▁HEL	-11828
▁Hoo	-11829
▁Kav	-11830
▁MAN	-11831
▁McK	-11832
▁Pok	-11833
▁Rot	-11834
▁Sof	-11835
▁Wit	-11836
▁Yas	-11837
▁adj	-11838
▁ail	-11839
▁akh	-11840
▁ava	-11841
▁idi	-11842
▁nap	-11843
▁nna	-11844
▁oir	-11845
▁oun	-11846
▁zza	-11847
Pleas	-11848
clear	-11849
esque	-11850
field	-11851
usage	-11852
▁(199	-11853
▁Abhi	-11854
▁Bott	-11855
▁Budd	-11856
▁Carm	-11857
▁Coco	-11858
▁Cris	-11859
▁Gren	-11860
▁Kick	-11861
▁Roma	-11862
▁Ship	-11863
▁Shir	-11864
▁Stag	-11865
▁Xiao	-11866
▁arte	-11867
▁fuss	-11868
▁http	-11869
▁hypo	-11870
▁illi	-11871
▁loot	-11872
▁nett	-11873
▁punt	-11874
▁riti	-11875
▁rude	-11876
▁ruth	-11877
▁slap	-11878
▁uous	-11879
▁volt	-11880
ceptic	-11881
people	-11882
rishna	-11883
▁Dress	-11884
▁Margo	-11885
▁Model	-11886
▁Score	-11887
▁Terri	-11888
▁Trail	-11889
▁baker	-11890
▁cynic	-11891
▁dwell	-11892
▁faint	-11893
▁freak	-11894
▁malic	-11895
▁osity	-11896
▁scoop	-11897
▁screw	-11898
▁torch	-11899
▁vegan	-11900
rection	-11901
support	-11902
▁Draper	-11903
▁Fellow	-11904
▁chilli	-11905
▁refurb	-11906
▁rugged	-11907
▁sitcom	-11908
▁vandal	-11909
▁Horizon	-11910
▁Initial	-11911
▁Kitchen	-11912
▁arsenal	-11913
▁concili	-11914
▁scammer	-11915
▁wrestle	-11916
▁Cristian	-11917
▁demeanor	-11918
▁rehearsal	-11919
▁reinstate	-11920
▁compensate	-11921
OK	-11922
eu	-11923
rl	-11924
sw	-11925
vr	-11926
%20	-11927
-15	-11928
:45	-11929
Get	-11930
God	-11931
lon	-11932
lov	-11933
mot	-11934
tri	-11935
yro	-11936
▁78	-11937
▁DE	-11938
▁KR	-11939
▁RG	-11940
▁bb	-11941
▁ել	-11942
▁են	-11943
ffle	-11944
harm	-11945
held	-11946
quer	-11947
rash	-11948
ssom	-11949
▁25%	-11950
▁25.	-11951
▁32-	-11952
▁34-	-11953
▁35-	-11954
▁Din	-11955
▁Phy	-11956
▁Put	-11957
▁Wer	-11958
▁YOU	-11959
▁alt	-11960
▁blu	-11961
▁cei	-11962
▁cic	-11963
Neill	-11964
again	-11965
angel	-11966
image	-11967
ocado	-11968
ooker	-11969
pound	-11970
stein	-11971
venia	-11972
yrood	-11973
▁(200	-11974
▁Abbe	-11975
▁Bhat	-11976
▁Chal	-11977
▁Kish	-11978
▁Lamb	-11979
▁Luna	-11980
▁Mate	-11981
▁Mend	-11982
▁Sali	-11983
▁Stam	-11984
▁atti	-11985
▁flam	-11986
▁goat	-11987
▁hurl	-11988
▁lade	-11989
▁loft	-11990
▁ovic	-11991
▁quet	-11992
▁silk	-11993
▁sted	-11994
▁ucci	-11995
▁£500	-11996
record	-11997
▁Bridg	-11998
▁Colum	-11999
▁Glass	-12000
▁Neigh	-12001
▁Rapid	-12002
▁Sleep	-12003
▁brake	-12004
▁convo	-12005
▁peril	-12006
▁scalp	-12007
▁swirl	-12008
twitter	-12009
▁15,000	-12010
▁Attack	-12011
▁Circle	-12012
▁Double	-12013
▁Search	-12014
▁Sister	-12015
▁raving	-12016
▁tribal	-12017
▁Abdulla	-12018
▁Comment	-12019
▁dentist	-12020
▁getaway	-12021
▁jeopard	-12022
▁massage	-12023
▁potting	-12024
▁sceptic	-12025
▁sourced	-12026
▁Holyrood	-12027
▁articulate	-12028
▁responsive	-12029
▁calculation	-12030
62	-12031
91	-12032
Ad	-12033
Je	-12034
Wo	-12035
ետ	-12036
Mon	-12037
Sun	-12038
Wow	-12039
bus	-12040
pen	-12041
pez	-12042
pta	-12043
▁71	-12044
▁BU	-12045
▁CM	-12046
▁DM	-12047
▁Ek	-12048
▁TY	-12049
▁UI	-12050
▁tt	-12051
▁ին	-12052
gien	-12053
nati	-12054
nial	-12055
omit	-12056
prot	-12057
talk	-12058
▁110	-12059
▁130	-12060
▁3-1	-12061
▁Dil	-12062
▁Fad	-12063
▁Gla	-12064
▁Haz	-12065
▁Hib	-12066
▁Meh	-12067
▁Tem	-12068
▁Vas	-12069
▁Zam	-12070
▁fig	-12071
▁iac	-12072
▁iad	-12073
▁iam	-12074
▁mac	-12075
▁pea	-12076
▁rim	-12077
▁roe	-12078
▁soo	-12079
▁vag	-12080
agoni	-12081
chair	-12082
court	-12083
house	-12084
iotic	-12085
quito	-12086
rated	-12087
shape	-12088
},{"_	-12089
▁Cala	-12090
▁Chip	-12091
▁Cope	-12092
▁Craw	-12093
▁Crew	-12094
▁Kind	-12095
▁Kitt	-12096
▁Mara	-12097
▁Must	-12098
▁Nish	-12099
▁Olek	-12100
▁Saba	-12101
▁Sina	-12102
▁Spec	-12103
▁Toma	-12104
▁bald	-12105
▁fren	-12106
▁paed	-12107
▁pale	-12108
▁ripe	-12109
▁undo	-12110
▁ysia	-12111
expect	-12112
iatric	-12113
produc	-12114
▁Fresh	-12115
▁Learn	-12116
▁Milli	-12117
▁flora	-12118
▁mente	-12119
▁pinch	-12120
▁reimb	-12121
▁shelf	-12122
▁tweak	-12123
▁ullah	-12124
▁vomit	-12125
America	-12126
Ukraine	-12127
onomous	-12128
perfect	-12129
▁Airbnb	-12130
▁glance	-12131
▁orient	-12132
▁raffic	-12133
▁rubber	-12134
complete	-12135
▁Traitor	-12136
▁archaeo	-12137
▁burglar	-12138
▁feather	-12139
▁fulness	-12140
▁implant	-12141
▁ocietal	-12142
▁tsunami	-12143
▁Coventry	-12144
▁doorstep	-12145
▁populate	-12146
▁dimension	-12147
▁protagoni	-12148
▁reimburse	-12149
▁theatrical	-12150
Wa	-12151
lb	-12152
qi	-12153
րա	-12154
Ver	-12155
eem	-12156
imp	-12157
sch	-12158
sur	-12159
tag	-12160
▁4%	-12161
▁81	-12162
▁EX	-12163
▁Gh	-12164
▁Ji	-12165
▁KA	-12166
▁Sl	-12167
▁rt	-12168
▁tb	-12169
feit	-12170
gari	-12171
heel	-12172
ivek	-12173
jack	-12174
mper	-12175
orgi	-12176
quil	-12177
▁26.	-12178
▁31-	-12179
▁37-	-12180
▁4-0	-12181
▁737	-12182
▁Apo	-12183
▁Arl	-12184
▁Dob	-12185
▁EMA	-12186
▁Nix	-12187
▁Sas	-12188
▁Saw	-12189
▁Sti	-12190
▁Wig	-12191
▁nal	-12192
▁ryn	-12193
▁vez	-12194
▁zar	-12195
▁zon	-12196
Biden	-12197
child	-12198
cular	-12199
earth	-12200
ierra	-12201
isine	-12202
start	-12203
vedev	-12204
▁$150	-12205
▁1989	-12206
▁Bomb	-12207
▁Buch	-12208
▁Carn	-12209
▁Dust	-12210
▁Mani	-12211
▁Mold	-12212
▁Plat	-12213
▁Ricc	-12214
▁Sepa	-12215
▁Tina	-12216
▁baba	-12217
▁chok	-12218
▁dell	-12219
▁hust	-12220
▁laud	-12221
▁nate	-12222
▁opol	-12223
▁shri	-12224
Donald	-12225
cuador	-12226
figure	-12227
grance	-12228
▁2006,	-12229
▁2008.	-12230
▁Explo	-12231
▁Gomez	-12232
▁ceipt	-12233
▁couch	-12234
▁covet	-12235
▁culmi	-12236
▁hurst	-12237
▁invok	-12238
▁mania	-12239
▁paste	-12240
cinnati	-12241
dominal	-12242
ountain	-12243
▁Batter	-12244
▁Colour	-12245
▁Shapir	-12246
▁Terror	-12247
▁antiqu	-12248
▁embodi	-12249
▁enrich	-12250
▁gamble	-12251
▁helmet	-12252
▁occupy	-12253
▁pistol	-12254
▁repeal	-12255
▁sanctu	-12256
guarding	-12257
▁200,000	-12258
▁Blanche	-12259
▁Chester	-12260
▁Krishna	-12261
▁Pension	-12262
▁catalog	-12263
▁cuisine	-12264
▁ություն	-12265
▁Medvedev	-12266
▁Slovenia	-12267
▁particle	-12268
▁vascular	-12269
▁Cincinnati	-12270
▁apprentice	-12271
▁credential	-12272
▁percussion	-12273
▁afeguarding	-12274
▁existential	-12275
"?	-12276
84	-12277
-25	-12278
:01	-12279
Rep	-12280
Twi	-12281
dra	-12282
lly	-12283
occ	-12284
six	-12285
▁8-	-12286
▁Ló	-12287
▁UG	-12288
▁մա	-12289
Mari	-12290
acon	-12291
mphi	-12292
onna	-12293
paid	-12294
wait	-12295
▁900	-12296
▁Alp	-12297
▁Hey	-12298
▁Him	-12299
▁Ish	-12300
▁MRC	-12301
▁Tib	-12302
▁VIP	-12303
▁jug	-12304
▁kes	-12305
▁loo	-12306
▁www	-12307
▁£15	-12308
Never	-12309
asive	-12310
human	-12311
▁Cool	-12312
▁Dono	-12313
▁Geno	-12314
▁Hack	-12315
▁Karl	-12316
▁Leav	-12317
▁Peck	-12318
▁Wein	-12319
▁allu	-12320
▁gott	-12321
▁herd	-12322
▁lieu	-12323
▁nium	-12324
▁pawn	-12325
▁situ	-12326
▁veil	-12327
":[],"	-12328
/2024/	-12329
living	-12330
riarch	-12331
▁Agree	-12332
▁Brett	-12333
▁Gupta	-12334
▁Jolie	-12335
▁Loren	-12336
▁López	-12337
▁Maddi	-12338
▁Maxim	-12339
▁Thorp	-12340
▁Track	-12341
▁Troop	-12342
▁erect	-12343
▁indra	-12344
▁notch	-12345
▁synth	-12346
▁token	-12347
itioner	-12348
▁Impact	-12349
▁Memphi	-12350
▁Strang	-12351
▁Strong	-12352
▁hygien	-12353
▁scroll	-12354
pandemic	-12355
▁Bulgari	-12356
▁Ecuador	-12357
▁envelop	-12358
▁evangel	-12359
▁perpetu	-12360
criminate	-12361
▁Progress	-12362
▁accuracy	-12363
▁defining	-12364
▁pathetic	-12365
▁sprinkle	-12366
▁transmit	-12367
▁Economist	-12368
▁abdominal	-12369
▁intersect	-12370
▁refurbish	-12371
▁terminate	-12372
▁conciliation	-12373
▁discriminate	-12374
61	-12375
63	-12376
oh	-12377
pg	-12378
ín	-12379
Fox	-12380
auc	-12381
bod	-12382
cat	-12383
edd	-12384
eme	-12385
las	-12386
▁Bh	-12387
▁CP	-12388
▁CV	-12389
▁EE	-12390
▁Zo	-12391
Alam	-12392
alez	-12393
ette	-12394
idal	-12395
news	-12396
pare	-12397
rown	-12398
safe	-12399
ssip	-12400
urya	-12401
▁48,	-12402
▁ALL	-12403
▁Abo	-12404
▁Blu	-12405
▁Cob	-12406
▁ENT	-12407
▁Fem	-12408
▁Fro	-12409
▁Hin	-12410
▁Jak	-12411
▁Mam	-12412
▁Neu	-12413
▁Own	-12414
▁Sto	-12415
▁Toy	-12416
▁Zen	-12417
▁aka	-12418
▁cue	-12419
▁eck	-12420
▁ema	-12421
▁eux	-12422
▁hue	-12423
▁iat	-12424
▁itz	-12425
▁nka	-12426
▁uar	-12427
▁£5.	-12428
Smith	-12429
zalez	-12430
▁1995	-12431
▁Cour	-12432
▁Gang	-12433
▁Kart	-12434
▁Levi	-12435
▁Maid	-12436
▁Thur	-12437
▁Yash	-12438
▁bent	-12439
▁feas	-12440
▁icio	-12441
▁knit	-12442
▁lish	-12443
▁moor	-12444
▁oste	-12445
▁rect	-12446
▁slur	-12447
▁tard	-12448
▁weav	-12449
aucrat	-12450
botage	-12451
flight	-12452
placed	-12453
summar	-12454
▁2001,	-12455
▁2009,	-12456
▁Alleg	-12457
▁Alvar	-12458
▁Bride	-12459
▁Chick	-12460
▁Gross	-12461
▁Plant	-12462
▁Style	-12463
▁Vivek	-12464
▁grape	-12465
▁ounce	-12466
fashion	-12467
istrate	-12468
▁50,000	-12469
▁Artist	-12470
▁Desert	-12471
▁Sierra	-12472
▁bunker	-12473
▁bypass	-12474
▁cheque	-12475
▁copies	-12476
▁fiancé	-12477
▁Abraham	-12478
▁Chandra	-12479
▁Experie	-12480
▁coaster	-12481
▁collage	-12482
▁enchant	-12483
▁fascist	-12484
▁hypothe	-12485
▁iatrist	-12486
▁itation	-12487
▁jealous	-12488
▁revival	-12489
▁revolve	-12490
▁steward	-12491
establish	-12492
ureaucrat	-12493
▁mosquito	-12494
▁sabotage	-12495
▁televise	-12496
▁Fortunate	-12497
▁computing	-12498
▁Magistrate	-12499
▁phenomenal	-12500
52	-12501
>,	-12502
▁■	-12503
,'"	-12504
Cal	-12505
Dav	-12506
IST	-12507
err	-12508
rne	-12509
▁88	-12510
▁AU	-12511
▁FU	-12512
▁HT	-12513
▁JA	-12514
▁JO	-12515
▁PH	-12516
▁RM	-12517
▁Wu	-12518
Over	-12519
aire	-12520
amel	-12521
ffin	-12522
hara	-12523
keep	-12524
mort	-12525
pers	-12526
phan	-12527
phew	-12528
▁170	-12529
▁191	-12530
▁2.3	-12531
▁360	-12532
▁60,	-12533
▁Cod	-12534
▁Dig	-12535
▁Dyn	-12536
▁FIR	-12537
▁Fis	-12538
▁Gus	-12539
▁Kia	-12540
▁Liu	-12541
▁Pax	-12542
▁Pug	-12543
▁USS	-12544
▁bha	-12545
▁bun	-12546
▁gic	-12547
▁ifi	-12548
▁poo	-12549
ambia	-12550
ieval	-12551
isite	-12552
ramid	-12553
ravel	-12554
ringe	-12555
risma	-12556
stine	-12557
total	-12558
ussie	-12559
▁2028	-12560
▁Buda	-12561
▁Carp	-12562
▁Duel	-12563
▁Elvi	-12564
▁Gael	-12565
▁Milk	-12566
▁Mode	-12567
▁Roos	-12568
▁Soft	-12569
▁Trip	-12570
▁Wake	-12571
▁Yang	-12572
▁Yard	-12573
▁agua	-12574
▁chew	-12575
▁delv	-12576
▁dick	-12577
▁etch	-12578
▁foam	-12579
▁hash	-12580
▁hrie	-12581
▁kara	-12582
▁lust	-12583
▁mint	-12584
▁quiz	-12585
▁rigg	-12586
▁truc	-12587
▁vett	-12588
▁vsky	-12589
▁Byrne	-12590
▁Capri	-12591
▁Heavy	-12592
▁Paper	-12593
▁Reduc	-12594
▁Spark	-12595
▁Surya	-12596
▁curio	-12597
▁delic	-12598
▁flank	-12599
▁hatch	-12600
▁ngent	-12601
▁recur	-12602
▁skull	-12603
Connell	-12604
▁Apollo	-12605
▁Jacque	-12606
▁Storie	-12607
▁Survey	-12608
▁Viktor	-12609
▁Yellow	-12610
▁collar	-12611
▁compat	-12612
▁decree	-12613
▁insane	-12614
▁insert	-12615
▁logged	-12616
▁polite	-12617
▁ponder	-12618
▁snatch	-12619
▁thrust	-12620
▁ության	-12621
▁300,000	-12622
▁Respond	-12623
▁cartoon	-12624
▁edieval	-12625
▁frantic	-12626
▁glamour	-12627
▁passive	-12628
▁thermal	-12629
attribute	-12630
▁Gonzalez	-12631
▁imperson	-12632
▁inherent	-12633
▁ographer	-12634
▁fragrance	-12635
▁autonomous	-12636
03	-12637
07	-12638
1/	-12639
51	-12640
9)	-12641
??	-12642
Hz	-12643
Sc	-12644
Sp	-12645
aa	-12646
fo	-12647
▁―	-12648
365	-12649
Ben	-12650
TON	-12651
cur	-12652
odg	-12653
olt	-12654
ubb	-12655
wyn	-12656
▁$9	-12657
▁3%	-12658
▁83	-12659
▁BH	-12660
▁LM	-12661
▁OF	-12662
▁WH	-12663
▁eh	-12664
▁ft	-12665
▁առ	-12666
Good	-12667
ande	-12668
itiv	-12669
lyde	-12670
orte	-12671
post	-12672
usib	-12673
▁27.	-12674
▁43,	-12675
▁BET	-12676
▁Cul	-12677
▁Eff	-12678
▁Ide	-12679
▁Lac	-12680
▁Mee	-12681
▁NOT	-12682
▁Osa	-12683
▁Rau	-12684
▁Shu	-12685
▁Suk	-12686
▁ayo	-12687
▁hew	-12688
▁lar	-12689
▁noi	-12690
▁oct	-12691
▁omo	-12692
▁pon	-12693
▁tti	-12694
Afric	-12695
India	-12696
black	-12697
creat	-12698
ology	-12699
plant	-12700
speak	-12701
stage	-12702
uania	-12703
worth	-12704
▁100-	-12705
▁Bart	-12706
▁Casa	-12707
▁Colt	-12708
▁Drew	-12709
▁Easy	-12710
▁Equi	-12711
▁Grim	-12712
▁Hair	-12713
▁Kurt	-12714
▁Lill	-12715
▁OLED	-12716
▁Poor	-12717
▁Rivi	-12718
▁Shri	-12719
▁Stal	-12720
▁Taco	-12721
▁Thir	-12722
▁Trou	-12723
▁advi	-12724
▁agne	-12725
▁boob	-12726
▁brig	-12727
▁deaf	-12728
▁emit	-12729
▁esta	-12730
▁fred	-12731
▁grit	-12732
▁hame	-12733
▁heck	-12734
▁legg	-12735
▁oney	-12736
▁psis	-12737
▁rode	-12738
▁£200	-12739
":[{"_	-12740
ending	-12741
▁2009.	-12742
▁Cyber	-12743
▁Eisen	-12744
▁Fanta	-12745
▁Maggi	-12746
▁Total	-12747
▁acies	-12748
▁hound	-12749
▁matur	-12750
▁quirk	-12751
▁sonic	-12752
▁upend	-12753
spector	-12754
▁12,000	-12755
▁Aussie	-12756
▁Bundes	-12757
▁Burrow	-12758
▁Harbor	-12759
▁INGTON	-12760
▁Pharma	-12761
▁Screen	-12762
▁breeze	-12763
▁intric	-12764
▁lashes	-12765
▁obscur	-12766
▁Concern	-12767
▁Correct	-12768
▁Counsel	-12769
▁Madonna	-12770
▁plausib	-12771
▁refrain	-12772
conscious	-12773
▁charisma	-12774
▁magnetic	-12775
▁Lithuania	-12776
▁trademark	-12777
▁bureaucrat	-12778
▁insurrection	-12779
%2	-12780
-7	-12781
3)	-12782
Sa	-12783
),"	-12784
/11	-12785
bat	-12786
boy	-12787
flo	-12788
len	-12789
yad	-12790
▁99	-12791
▁DV	-12792
▁UL	-12793
avor	-12794
coon	-12795
lesc	-12796
make	-12797
rang	-12798
▁350	-12799
▁90-	-12800
▁Bod	-12801
▁CBI	-12802
▁CCI	-12803
▁Cyc	-12804
▁Kol	-12805
▁OUR	-12806
▁REN	-12807
▁Saf	-12808
▁Syl	-12809
▁Ton	-12810
▁atu	-12811
▁cav	-12812
▁elo	-12813
▁gyn	-12814
▁isi	-12815
▁mea	-12816
▁ump	-12817
China	-12818
achin	-12819
aphor	-12820
ivest	-12821
shrin	-12822
stant	-12823
▁1993	-12824
▁Aero	-12825
▁Arma	-12826
▁Choo	-12827
▁Diet	-12828
▁Drop	-12829
▁Goal	-12830
▁Nand	-12831
▁Pool	-12832
▁Rosa	-12833
▁Teen	-12834
▁budd	-12835
▁dorm	-12836
▁fied	-12837
▁heed	-12838
▁idas	-12839
▁iles	-12840
▁info	-12841
▁lamp	-12842
▁lith	-12843
▁lund	-12844
▁mala	-12845
▁perm	-12846
▁quer	-12847
▁rede	-12848
▁rift	-12849
▁uper	-12850
▁watt	-12851
▁wedg	-12852
anquil	-12853
incial	-12854
wicket	-12855
▁2030.	-12856
▁Ahmad	-12857
▁Alber	-12858
▁Arian	-12859
▁Avail	-12860
▁Beast	-12861
▁Laugh	-12862
▁Leave	-12863
▁Nagar	-12864
▁Pract	-12865
▁Shank	-12866
▁Spice	-12867
▁Strat	-12868
▁eject	-12869
▁fling	-12870
▁frost	-12871
▁hover	-12872
▁infer	-12873
▁nated	-12874
▁nomic	-12875
▁penny	-12876
▁quash	-12877
▁repel	-12878
▁venge	-12879
▁wheat	-12880
centric	-12881
leading	-12882
through	-12883
▁Cinema	-12884
▁Kimber	-12885
▁Machin	-12886
▁chorus	-12887
▁divest	-12888
▁fiance	-12889
▁neider	-12890
▁patent	-12891
▁physio	-12892
▁resent	-12893
▁Century	-12894
▁Reflect	-12895
▁Stefani	-12896
▁blossom	-12897
▁enshrin	-12898
▁whisper	-12899
▁metaphor	-12900
▁definitiv	-12901
74	-12902
Co	-12903
Du	-12904
Gu	-12905
Mo	-12906
NP	-12907
je	-12908
ատ	-12909
▁Á	-12910
-18	-12911
20.	-12912
Mae	-12913
due	-12914
mma	-12915
wor	-12916
▁69	-12917
▁DH	-12918
▁GE	-12919
▁Ts	-12920
ctri	-12921
hiev	-12922
ista	-12923
kill	-12924
loid	-12925
opol	-12926
umin	-12927
weet	-12928
writ	-12929
▁3.5	-12930
▁CON	-12931
▁COP	-12932
▁Dah	-12933
▁Gha	-12934
▁Gru	-12935
▁Lal	-12936
▁Neg	-12937
▁Nil	-12938
▁Peg	-12939
▁RET	-12940
▁Rig	-12941
▁Tip	-12942
▁daq	-12943
▁nym	-12944
▁ote	-12945
▁ría	-12946
▁wow	-12947
▁ydd	-12948
▁£2,	-12949
▁£4.	-12950
▁£60	-12951
conut	-12952
etery	-12953
guise	-12954
iator	-12955
story	-12956
tempt	-12957
▁1991	-12958
▁Albu	-12959
▁Appl	-12960
▁Baba	-12961
▁Chha	-12962
▁Deni	-12963
▁Dest	-12964
▁NEWS	-12965
▁Palo	-12966
▁Reli	-12967
▁Safe	-12968
▁Stir	-12969
▁Swim	-12970
▁WASH	-12971
▁anya	-12972
▁atha	-12973
▁crit	-12974
▁cted	-12975
▁culi	-12976
▁devo	-12977
▁dumb	-12978
▁evel	-12979
▁fizz	-12980
▁gaff	-12981
▁gaze	-12982
▁heap	-12983
▁ille	-12984
▁isha	-12985
▁lant	-12986
▁limp	-12987
▁tbsp	-12988
igrant	-12989
▁Boule	-12990
▁Claim	-12991
▁Geoff	-12992
▁Ghost	-12993
▁Guide	-12994
▁Lodge	-12995
▁Parti	-12996
▁Petro	-12997
▁beard	-12998
▁beast	-12999
▁broil	-13000
▁cameo	-13001
▁feast	-13002
▁giver	-13003
▁lapse	-13004
▁scour	-13005
▁trump	-13006
▁Caesar	-13007
▁Depend	-13008
▁Franco	-13009
▁Succes	-13010
▁aggreg	-13011
▁doctri	-13012
▁valent	-13013
▁Feature	-13014
▁Imagine	-13015
▁Perfect	-13016
▁Publish	-13017
▁avocado	-13018
▁charger	-13019
▁icating	-13020
▁legitim	-13021
▁robotic	-13022
▁secular	-13023
▁wrinkle	-13024
▁Shepherd	-13025
▁akeshift	-13026
▁beverage	-13027
▁cemetery	-13028
▁graceful	-13029
▁surgical	-13030
▁Inspector	-13031
▁apprehend	-13032
▁iteration	-13033
▁voluntarily	-13034
";	-13035
02	-13036
2)	-13037
89	-13038
▁₹	-13039
---	-13040
-13	-13041
Two	-13042
byn	-13043
lit	-13044
mid	-13045
pur	-13046
▁82	-13047
▁Kh	-13048
▁LT	-13049
▁RN	-13050
▁RP	-13051
▁TS	-13052
clay	-13053
cult	-13054
even	-13055
feel	-13056
ouce	-13057
oyle	-13058
pape	-13059
rick	-13060
viol	-13061
▁0-0	-13062
▁10:	-13063
▁Bog	-13064
▁Dho	-13065
▁EET	-13066
▁Egg	-13067
▁Eti	-13068
▁INE	-13069
▁Moi	-13070
▁Mud	-13071
▁Nir	-13072
▁Sib	-13073
▁Sie	-13074
▁VER	-13075
▁Yog	-13076
▁Yun	-13077
▁caf	-13078
▁cid	-13079
▁ilo	-13080
▁kro	-13081
▁loa	-13082
▁lop	-13083
▁pap	-13084
▁pes	-13085
▁pip	-13086
▁qua	-13087
▁tow	-13088
Mexic	-13089
affle	-13090
anyon	-13091
event	-13092
hield	-13093
ratic	-13094
super	-13095
▁Bair	-13096
▁Dadd	-13097
▁Dear	-13098
▁Edge	-13099
▁Give	-13100
▁Mask	-13101
▁Mort	-13102
▁Nest	-13103
▁Nico	-13104
▁Tiff	-13105
▁Troy	-13106
▁Twin	-13107
▁Youn	-13108
▁amen	-13109
▁chop	-13110
▁claw	-13111
▁doll	-13112
▁guru	-13113
▁hart	-13114
▁mear	-13115
▁olin	-13116
▁thug	-13117
oldier	-13118
▁2004.	-13119
▁Bahra	-13120
▁Extra	-13121
▁Focus	-13122
▁Klein	-13123
▁Movie	-13124
▁Panda	-13125
▁Tibet	-13126
▁antes	-13127
▁belly	-13128
▁gloss	-13129
▁insta	-13130
▁mogul	-13131
▁ndall	-13132
▁recon	-13133
▁slave	-13134
▁steak	-13135
▁terre	-13136
▁tread	-13137
▁umpir	-13138
husband	-13139
▁Canyon	-13140
▁Expect	-13141
▁Extrem	-13142
▁Kristi	-13143
▁Recall	-13144
▁Refuge	-13145
▁Reveal	-13146
▁Thirty	-13147
▁circus	-13148
▁finery	-13149
▁forbid	-13150
▁hamper	-13151
▁insure	-13152
▁liquor	-13153
▁nephew	-13154
▁potent	-13155
▁rattle	-13156
▁thrash	-13157
building	-13158
national	-13159
oucester	-13160
▁Explain	-13161
▁artisan	-13162
▁critiqu	-13163
▁dispers	-13164
▁monopol	-13165
▁sausage	-13166
operation	-13167
▁Newspape	-13168
▁disguise	-13169
▁retention	-13170
▁spearhead	-13171
▁stabilise	-13172
▁Restaurant	-13173
▁provincial	-13174
▁millionaire	-13175
!)	-13176
53	-13177
56	-13178
83	-13179
CB	-13180
PO	-13181
են	-13182
"),	-13183
Mus	-13184
Whe	-13185
api	-13186
del	-13187
jpg	-13188
oca	-13189
rid	-13190
rub	-13191
sub	-13192
tax	-13193
▁00	-13194
▁6%	-13195
▁6:	-13196
▁7%	-13197
▁91	-13198
▁92	-13199
▁AJ	-13200
▁Eu	-13201
▁Gy	-13202
▁SL	-13203
▁Zi	-13204
Free	-13205
Here	-13206
agog	-13207
azin	-13208
cuff	-13209
dire	-13210
dule	-13211
enew	-13212
proc	-13213
shay	-13214
song	-13215
vide	-13216
vili	-13217
▁$40	-13218
▁101	-13219
▁Abe	-13220
▁Arj	-13221
▁Asp	-13222
▁CHA	-13223
▁Doc	-13224
▁Ern	-13225
▁Eva	-13226
▁Kot	-13227
▁Lay	-13228
▁Moz	-13229
▁Rip	-13230
▁STE	-13231
▁Won	-13232
▁ald	-13233
▁bah	-13234
▁bea	-13235
▁eur	-13236
▁hem	-13237
▁hun	-13238
▁iva	-13239
▁ody	-13240
▁ման	-13241
bound	-13242
brain	-13243
chief	-13244
comer	-13245
eight	-13246
serva	-13247
▁Bard	-13248
▁Calv	-13249
▁Coin	-13250
▁Dale	-13251
▁Dang	-13252
▁Heal	-13253
▁Hock	-13254
▁Indi	-13255
▁McDo	-13256
▁Nort	-13257
▁Pine	-13258
▁Stol	-13259
▁adam	-13260
▁akis	-13261
▁bian	-13262
▁cano	-13263
▁cker	-13264
▁digg	-13265
▁enda	-13266
▁hoon	-13267
▁iano	-13268
▁ital	-13269
▁loos	-13270
▁mesh	-13271
▁prep	-13272
▁rico	-13273
▁rine	-13274
▁shek	-13275
▁urin	-13276
length	-13277
lester	-13278
rister	-13279
urnish	-13280
▁Billi	-13281
▁Elite	-13282
▁Haver	-13283
▁Innov	-13284
▁Iraqi	-13285
▁Riyad	-13286
▁astic	-13287
▁crypt	-13288
▁derby	-13289
▁frenz	-13290
▁gorod	-13291
▁greed	-13292
▁itous	-13293
▁lough	-13294
▁macro	-13295
▁nagar	-13296
▁rtney	-13297
▁whirl	-13298
ibiotic	-13299
▁60,000	-13300
▁Corbyn	-13301
▁Meteor	-13302
▁Retail	-13303
▁berger	-13304
▁bleach	-13305
▁brewer	-13306
▁debunk	-13307
▁intern	-13308
▁savour	-13309
▁thieve	-13310
▁thwart	-13311
business	-13312
lesterol	-13313
▁$10,000	-13314
▁Insider	-13315
▁adolesc	-13316
▁glitter	-13317
▁harbour	-13318
▁illumin	-13319
▁sensual	-13320
▁Thatcher	-13321
▁abundant	-13322
▁dazzling	-13323
▁invasive	-13324
▁newcomer	-13325
▁Tradition	-13326
▁barrister	-13327
▁supervise	-13328
▁surrogate	-13329
▁Gloucester	-13330
▁cholesterol	-13331
▁sympathetic	-13332
">	-13333
79	-13334
CE	-13335
LA	-13336
ME	-13337
ao	-13338
ez	-13339
zo	-13340
▁Հ	-13341
-14	-13342
/24	-13343
Arn	-13344
Pri	-13345
det	-13346
dri	-13347
gia	-13348
igu	-13349
iki	-13350
may	-13351
ryo	-13352
▁KO	-13353
▁LD	-13354
▁LV	-13355
▁OT	-13356
▁sd	-13357
▁ես	-13358
▁վա	-13359
▁տե	-13360
Brit	-13361
agge	-13362
atri	-13363
aves	-13364
ciss	-13365
cost	-13366
huge	-13367
mate	-13368
omeo	-13369
sequ	-13370
sign	-13371
tank	-13372
tell	-13373
▁$5.	-13374
▁$60	-13375
▁11:	-13376
▁140	-13377
▁48-	-13378
▁Gel	-13379
▁Lai	-13380
▁NAN	-13381
▁Oka	-13382
▁Pit	-13383
▁Rag	-13384
▁Rox	-13385
▁Sah	-13386
▁Suf	-13387
▁Sul	-13388
▁TER	-13389
▁Via	-13390
▁bis	-13391
▁esp	-13392
▁gru	-13393
▁hob	-13394
▁hog	-13395
▁pus	-13396
▁riz	-13397
▁uri	-13398
Right	-13399
Under	-13400
going	-13401
major	-13402
ptist	-13403
think	-13404
▁Bert	-13405
▁Bigg	-13406
▁Done	-13407
▁Fail	-13408
▁Firm	-13409
▁Grey	-13410
▁Gwyn	-13411
▁Hann	-13412
▁Juve	-13413
▁Lieu	-13414
▁Luka	-13415
▁Maga	-13416
▁Mich	-13417
▁Peak	-13418
▁Pont	-13419
▁Sang	-13420
▁Wear	-13421
▁Zero	-13422
▁anec	-13423
▁emic	-13424
▁fade	-13425
▁flop	-13426
▁gart	-13427
▁glar	-13428
▁heit	-13429
▁hora	-13430
▁lure	-13431
▁prit	-13432
▁ratt	-13433
▁rini	-13434
▁skew	-13435
▁turf	-13436
▁ushi	-13437
▁wool	-13438
▁worm	-13439
▁2004,	-13440
▁2005.	-13441
▁2030,	-13442
▁Cliff	-13443
▁Craft	-13444
▁Ibiza	-13445
▁Lance	-13446
▁McCul	-13447
▁Schul	-13448
▁Thorn	-13449
▁amuse	-13450
▁churn	-13451
▁cyclo	-13452
▁eaves	-13453
▁fetch	-13454
▁fleck	-13455
▁insky	-13456
▁milli	-13457
▁shred	-13458
▁skele	-13459
▁Shield	-13460
▁Single	-13461
▁detach	-13462
▁pickle	-13463
▁rapist	-13464
▁walker	-13465
director	-13466
function	-13467
language	-13468
▁Donnell	-13469
▁Present	-13470
▁Provide	-13471
▁angling	-13472
▁biscuit	-13473
▁coconut	-13474
▁exclaim	-13475
▁furnish	-13476
▁tabloid	-13477
▁unravel	-13478
represent	-13479
▁Abortion	-13480
▁ketamine	-13481
09	-13482
1)	-13483
72	-13484
CC	-13485
MP	-13486
-17	-13487
hot	-13488
inf	-13489
zia	-13490
▁79	-13491
▁86	-13492
▁VR	-13493
▁cz	-13494
▁€1	-13495
Play	-13496
Sept	-13497
enni	-13498
enth	-13499
erar	-13500
gelo	-13501
mala	-13502
odka	-13503
quez	-13504
quip	-13505
ture	-13506
uffl	-13507
vict	-13508
▁$12	-13509
▁1.2	-13510
▁1.3	-13511
▁24/	-13512
▁44,	-13513
▁Agu	-13514
▁Bun	-13515
▁Dre	-13516
▁EST	-13517
▁Eat	-13518
▁Jaz	-13519
▁Kis	-13520
▁MTV	-13521
▁Miz	-13522
▁Nur	-13523
▁Pis	-13524
▁Tir	-13525
▁Yam	-13526
▁cad	-13527
▁cep	-13528
▁exo	-13529
▁fox	-13530
▁gli	-13531
▁nha	-13532
▁org	-13533
▁oud	-13534
▁uka	-13535
▁zip	-13536
Press	-13537
becue	-13538
crime	-13539
eroon	-13540
lific	-13541
osaur	-13542
share	-13543
sical	-13544
venil	-13545
▁..."	-13546
▁Argo	-13547
▁Bent	-13548
▁Harb	-13549
▁Ivor	-13550
▁Lili	-13551
▁Marg	-13552
▁Mega	-13553
▁Prat	-13554
▁Sche	-13555
▁Soli	-13556
▁Warm	-13557
▁atom	-13558
▁bach	-13559
▁bada	-13560
▁bark	-13561
▁bats	-13562
▁eiro	-13563
▁enne	-13564
▁escu	-13565
▁gren	-13566
▁idad	-13567
▁ight	-13568
▁lang	-13569
▁lurk	-13570
▁mani	-13571
▁mela	-13572
▁noun	-13573
▁peas	-13574
▁simu	-13575
Mexico	-13576
irator	-13577
market	-13578
▁2,500	-13579
▁Agent	-13580
▁Boyle	-13581
▁Categ	-13582
▁Drink	-13583
▁Harro	-13584
▁Oppen	-13585
▁Proba	-13586
▁Renew	-13587
▁Witch	-13588
▁blink	-13589
▁cracy	-13590
▁cramp	-13591
▁cries	-13592
▁crust	-13593
▁evade	-13594
▁fanci	-13595
▁fidel	-13596
▁flesh	-13597
▁henko	-13598
▁magis	-13599
▁penet	-13600
▁satir	-13601
▁squat	-13602
▁timer	-13603
▁width	-13604
elected	-13605
protect	-13606
▁Akshay	-13607
▁Hammer	-13608
▁Planet	-13609
▁config	-13610
▁exagge	-13611
▁gadget	-13612
▁hierar	-13613
▁iatric	-13614
▁ifiers	-13615
▁illian	-13616
▁nhagen	-13617
▁shuffl	-13618
▁stigma	-13619
▁tamper	-13620
▁Absolut	-13621
▁Barclay	-13622
▁Magazin	-13623
▁Podcast	-13624
▁Quarter	-13625
▁enstein	-13626
▁freight	-13627
▁narrate	-13628
▁nourish	-13629
▁succumb	-13630
▁£10,000	-13631
▁Politico	-13632
▁Schedule	-13633
▁barbecue	-13634
▁handcuff	-13635
▁prolific	-13636
▁Strategic	-13637
▁extortion	-13638
▁imagining	-13639
▁meticulous	-13640
▁respirator	-13641
▁practitioner	-13642
/.	-13643
5)	-13644
86	-13645
Bl	-13646
Po	-13647
RT	-13648
bc	-13649
fc	-13650
ür	-13651
Ali	-13652
Jun	-13653
Red	-13654
arr	-13655
bar	-13656
coa	-13657
hon	-13658
kil	-13659
mur	-13660
ref	-13661
ros	-13662
wan	-13663
wom	-13664
▁5:	-13665
▁87	-13666
▁CT	-13667
▁GR	-13668
▁SF	-13669
▁TU	-13670
▁XL	-13671
▁մի	-13672
540,	-13673
Hope	-13674
Make	-13675
aged	-13676
blow	-13677
dark	-13678
elve	-13679
gmat	-13680
iant	-13681
mass	-13682
olph	-13683
prom	-13684
ropo	-13685
sult	-13686
word	-13687
▁125	-13688
▁189	-13689
▁41,	-13690
▁49,	-13691
▁54,	-13692
▁59,	-13693
▁61,	-13694
▁Baz	-13695
▁Dry	-13696
▁IRA	-13697
▁IST	-13698
▁Kla	-13699
▁Kro	-13700
▁Kum	-13701
▁Kun	-13702
▁MEP	-13703
▁Mes	-13704
▁Moy	-13705
▁NER	-13706
▁Nie	-13707
▁Pha	-13708
▁Psy	-13709
▁Rin	-13710
▁Ser	-13711
▁Soh	-13712
▁Viv	-13713
▁Wiz	-13714
▁cum	-13715
▁eke	-13716
▁fog	-13717
▁hoo	-13718
▁mim	-13719
▁mop	-13720
▁tik	-13721
▁wyn	-13722
▁zal	-13723
▁zel	-13724
,000-	-13725
await	-13726
deter	-13727
digit	-13728
energ	-13729
erife	-13730
ering	-13731
ether	-13732
incip	-13733
lived	-13734
shock	-13735
verev	-13736
▁1000	-13737
▁1968	-13738
▁1979	-13739
▁Aqua	-13740
▁Bali	-13741
▁Bean	-13742
▁Cain	-13743
▁Clip	-13744
▁Flem	-13745
▁Gent	-13746
▁Hick	-13747
▁Hodg	-13748
▁Huff	-13749
▁Khel	-13750
▁Kush	-13751
▁Paol	-13752
▁Plum	-13753
▁Shee	-13754
▁Suit	-13755
▁Vale	-13756
▁beau	-13757
▁clad	-13758
▁flur	-13759
▁imit	-13760
▁inda	-13761
▁mina	-13762
▁oaks	-13763
▁palp	-13764
▁pond	-13765
▁punk	-13766
▁purr	-13767
▁reus	-13768
▁salv	-13769
▁tart	-13770
▁tina	-13771
▁tomb	-13772
import	-13773
leader	-13774
retion	-13775
taking	-13776
tenham	-13777
ussion	-13778
▁2005,	-13779
▁2007.	-13780
▁Filip	-13781
▁Fisch	-13782
▁Gersh	-13783
▁Lemon	-13784
▁Pitch	-13785
▁Raisi	-13786
▁Shock	-13787
▁Soren	-13788
▁Sugar	-13789
▁cocoa	-13790
▁excav	-13791
▁glaci	-13792
▁hobby	-13793
▁nitro	-13794
▁phony	-13795
▁sburg	-13796
▁scoot	-13797
▁scrum	-13798
▁sdale	-13799
▁skate	-13800
▁stagn	-13801
▁thorn	-13802
▁trate	-13803
stellar	-13804
▁Camera	-13805
▁Crypto	-13806
▁Dermot	-13807
▁Ground	-13808
▁Improv	-13809
▁Kazakh	-13810
▁Produc	-13811
▁Zverev	-13812
▁ascend	-13813
▁assail	-13814
▁baffle	-13815
▁closet	-13816
▁coffin	-13817
▁donald	-13818
▁embryo	-13819
▁marvel	-13820
▁reboot	-13821
▁scarce	-13822
▁static	-13823
▁talgia	-13824
▁tangle	-13825
▁teaser	-13826
▁teenth	-13827
generate	-13828
▁Consult	-13829
▁blister	-13830
▁catcher	-13831
▁confisc	-13832
▁conquer	-13833
▁consequ	-13834
▁juvenil	-13835
▁nurture	-13836
▁unearth	-13837
Represent	-13838
▁Cameroon	-13839
▁compress	-13840
▁template	-13841
▁tranquil	-13842
▁transcend	-13843
▁Cheltenham	-13844
▁concussion	-13845
▁consequential	-13846
04	-13847
73	-13848
8)	-13849
HT	-13850
wr	-13851
▁{	-13852
▁շ	-13853
5%.	-13854
Hon	-13855
Off	-13856
Sim	-13857
Ste	-13858
bro	-13859
▁93	-13860
▁BP	-13861
▁Ey	-13862
▁PF	-13863
▁UR	-13864
▁VE	-13865
▁WB	-13866
▁WR	-13867
▁ée	-13868
▁ից	-13869
▁ով	-13870
Cong	-13871
abol	-13872
bear	-13873
ctic	-13874
dist	-13875
drop	-13876
fail	-13877
suff	-13878
wild	-13879
▁$15	-13880
▁128	-13881
▁12:	-13882
▁240	-13883
▁39,	-13884
▁45,	-13885
▁45-	-13886
▁47,	-13887
▁ADA	-13888
▁Ava	-13889
▁Bea	-13890
▁Buc	-13891
▁Dio	-13892
▁Erl	-13893
▁Fry	-13894
▁Koh	-13895
▁Mit	-13896
▁Nab	-13897
▁Nay	-13898
▁Olu	-13899
▁SEA	-13900
▁SIM	-13901
▁TON	-13902
▁TRA	-13903
▁Tau	-13904
▁bao	-13905
▁fax	-13906
▁lem	-13907
▁obl	-13908
▁owl	-13909
▁£12	-13910
1,000	-13911
White	-13912
brand	-13913
built	-13914
igent	-13915
riger	-13916
seven	-13917
small	-13918
train	-13919
▁Amir	-13920
▁Bale	-13921
▁Cafe	-13922
▁Clos	-13923
▁Demi	-13924
▁Dome	-13925
▁Elev	-13926
▁Frit	-13927
▁Kari	-13928
▁Lizz	-13929
▁Male	-13930
▁Mili	-13931
▁Mina	-13932
▁Poet	-13933
▁Pole	-13934
▁Prem	-13935
▁Sens	-13936
▁Tall	-13937
▁Vine	-13938
▁Wiki	-13939
▁Witt	-13940
▁acro	-13941
▁arty	-13942
▁ashi	-13943
▁bung	-13944
▁chuk	-13945
▁coma	-13946
▁hari	-13947
▁kitt	-13948
▁modu	-13949
▁moto	-13950
▁nach	-13951
▁polo	-13952
▁prof	-13953
▁rans	-13954
▁rnal	-13955
▁tilt	-13956
▁tram	-13957
▁trek	-13958
▁wara	-13959
▁yama	-13960
▁zier	-13961
▁£300	-13962
30,000	-13963
Christ	-13964
Prince	-13965
affirm	-13966
direct	-13967
employ	-13968
health	-13969
heaval	-13970
iploma	-13971
minate	-13972
rocket	-13973
urrect	-13974
▁1990,	-13975
▁2002,	-13976
▁2003,	-13977
▁Bring	-13978
▁Guild	-13979
▁Insta	-13980
▁Inver	-13981
▁Kirst	-13982
▁Ortho	-13983
▁Plain	-13984
▁Popul	-13985
▁Shear	-13986
▁Sheer	-13987
▁Stick	-13988
▁annex	-13989
▁bleak	-13990
▁choke	-13991
▁exert	-13992
▁fiber	-13993
▁mural	-13994
▁nical	-13995
▁vault	-13996
lymouth	-13997
▁Arnold	-13998
▁Result	-13999
▁Talent	-14000
▁appell	-14001
▁easies	-14002
▁eering	-14003
▁hijack	-14004
▁hustle	-14005
▁mammal	-14006
▁pencil	-14007
▁topple	-14008
▁trench	-14009
determin	-14010
orcester	-14011
▁Princip	-14012
▁Sustain	-14013
▁breaker	-14014
▁culprit	-14015
▁defiant	-14016
▁precede	-14017
▁procure	-14018
▁torrent	-14019
▁volcano	-14020
▁Johannes	-14021
▁Specific	-14022
▁Tenerife	-14023
▁diligent	-14024
▁fabulous	-14025
▁kilogram	-14026
▁mutation	-14027
▁rogation	-14028
▁upheaval	-14029
▁discretion	-14030
▁occurrence	-14031
▁transplant	-14032
.1	-14033
7)	-14034
AL	-14035
▁à	-14036
▁ց	-14037
-22	-14038
Int	-14039
Met	-14040
Oct	-14041
Wal	-14042
]."	-14043
bad	-14044
bey	-14045
far	-14046
ler	-14047
rig	-14048
som	-14049
sta	-14050
ում	-14051
▁3:	-14052
▁7:	-14053
▁84	-14054
▁FY	-14055
▁MV	-14056
▁PE	-14057
▁TB	-14058
▁Yv	-14059
▁dh	-14060
▁ui	-14061
▁yu	-14062
Matt	-14063
acit	-14064
apor	-14065
blue	-14066
empl	-14067
prod	-14068
▁$2,	-14069
▁13%	-14070
▁3-2	-14071
▁50.	-14072
▁52,	-14073
▁57,	-14074
▁Beg	-14075
▁Dum	-14076
▁Hid	-14077
▁Hir	-14078
▁Lah	-14079
▁Moh	-14080
▁Shr	-14081
▁Wid	-14082
▁Yak	-14083
▁año	-14084
▁bli	-14085
▁gat	-14086
▁hei	-14087
▁wax	-14088
_540,	-14089
ctare	-14090
green	-14091
nomin	-14092
trick	-14093
waite	-14094
▁1930	-14095
▁Belt	-14096
▁Beni	-14097
▁Croc	-14098
▁Cruc	-14099
▁Door	-14100
▁Hima	-14101
▁Hump	-14102
▁Issu	-14103
▁Javi	-14104
▁Loch	-14105
▁Mine	-14106
▁Prit	-14107
▁Quit	-14108
▁Theo	-14109
▁Till	-14110
▁Whar	-14111
▁adia	-14112
▁arse	-14113
▁boro	-14114
▁carb	-14115
▁dean	-14116
▁dile	-14117
▁dott	-14118
▁fend	-14119
▁ffer	-14120
▁hoff	-14121
▁izzy	-14122
▁kirk	-14123
▁lair	-14124
▁litz	-14125
▁plex	-14126
▁rife	-14127
▁suck	-14128
▁tomy	-14129
▁trav	-14130
Arnold	-14131
indust	-14132
olphin	-14133
▁1995,	-14134
▁2000,	-14135
▁2007,	-14136
▁Alexi	-14137
▁Broke	-14138
▁Cream	-14139
▁Doyle	-14140
▁Enjoy	-14141
▁Excel	-14142
▁Forge	-14143
▁Guate	-14144
▁Shark	-14145
▁Vijay	-14146
▁blitz	-14147
▁bloat	-14148
▁conju	-14149
▁devil	-14150
▁drizz	-14151
▁erode	-14152
▁fluff	-14153
▁hiker	-14154
▁hoard	-14155
▁poign	-14156
▁rebuk	-14157
▁strom	-14158
quirrel	-14159
sponsor	-14160
▁Chapel	-14161
▁Stefan	-14162
▁Tropic	-14163
▁armour	-14164
▁cataly	-14165
▁dental	-14166
▁engulf	-14167
▁falter	-14168
▁gossip	-14169
▁intrus	-14170
▁loosen	-14171
▁ruffle	-14172
▁simmer	-14173
▁stitch	-14174
▁teller	-14175
▁2024-25	-14176
▁Baptist	-14177
▁Migrant	-14178
▁Soldier	-14179
▁aspirin	-14180
▁ceramic	-14181
▁cleanse	-14182
▁congreg	-14183
▁dolphin	-14184
▁earnest	-14185
▁hearted	-14186
▁metabol	-14187
▁synonym	-14188
▁Plymouth	-14189
▁delusion	-14190
▁preserva	-14191
▁refriger	-14192
▁Guatemala	-14193
▁Worcester	-14194
▁Apprentice	-14195
▁Politician	-14196
▁antibiotic	-14197
▁extinguish	-14198
▁transcript	-14199
+,	-14200
PM	-14201
wi	-14202
yt	-14203
1.5	-14204
Bas	-14205
Big	-14206
Mal	-14207
cam	-14208
cra	-14209
fil	-14210
hap	-14211
lom	-14212
rec	-14213
▁4:	-14214
▁98	-14215
▁DL	-14216
▁Dj	-14217
▁HQ	-14218
▁IE	-14219
▁IQ	-14220
▁Vu	-14221
▁rd	-14222
▁ym	-14223
▁աց	-14224
ccup	-14225
fest	-14226
hair	-14227
help	-14228
horr	-14229
iang	-14230
icap	-14231
iker	-14232
iman	-14233
lose	-14234
ogen	-14235
root	-14236
ross	-14237
shot	-14238
urit	-14239
wear	-14240
were	-14241
▁204	-14242
▁39-	-14243
▁4.5	-14244
▁53,	-14245
▁Agn	-14246
▁Aya	-14247
▁Cec	-14248
▁Dro	-14249
▁Gig	-14250
▁Inv	-14251
▁MER	-14252
▁WIN	-14253
▁arc	-14254
▁asp	-14255
▁axe	-14256
▁bib	-14257
▁bog	-14258
▁clu	-14259
▁fen	-14260
▁isa	-14261
▁jah	-14262
▁nol	-14263
▁oto	-14264
▁pex	-14265
▁rak	-14266
▁rro	-14267
▁sta	-14268
▁suf	-14269
▁tid	-14270
▁wat	-14271
▁wei	-14272
▁zan	-14273
▁£22	-14274
▁վել	-14275
clerc	-14276
dunda	-14277
euver	-14278
olden	-14279
ordin	-14280
roach	-14281
sport	-14282
tical	-14283
▁Boom	-14284
▁Bour	-14285
▁Cere	-14286
▁Flag	-14287
▁Mela	-14288
▁Neal	-14289
▁Plen	-14290
▁Seek	-14291
▁Send	-14292
▁Stro	-14293
▁beck	-14294
▁brac	-14295
▁eros	-14296
▁haka	-14297
▁hove	-14298
▁junk	-14299
▁lisa	-14300
▁nder	-14301
▁repa	-14302
▁rman	-14303
▁sour	-14304
▁tala	-14305
▁thal	-14306
▁umba	-14307
▁wolf	-14308
agogue	-14309
aspora	-14310
mental	-14311
▁1997,	-14312
▁Adult	-14313
▁Bonus	-14314
▁Claus	-14315
▁Cuban	-14316
▁Fleet	-14317
▁Fritz	-14318
▁Ident	-14319
▁Meyer	-14320
▁Minor	-14321
▁Oriol	-14322
▁Pound	-14323
▁Samar	-14324
▁berth	-14325
▁blade	-14326
▁caffe	-14327
▁colli	-14328
▁combe	-14329
▁defer	-14330
▁digit	-14331
▁eaten	-14332
▁effic	-14333
▁eiman	-14334
▁goers	-14335
▁grunt	-14336
▁lique	-14337
▁salon	-14338
▁shear	-14339
▁vivid	-14340
hearted	-14341
sticide	-14342
▁Choice	-14343
▁Normal	-14344
▁Parisi	-14345
▁Retire	-14346
▁Victim	-14347
▁blower	-14348
▁cobble	-14349
▁cringe	-14350
▁exempl	-14351
▁marina	-14352
▁naught	-14353
▁orphan	-14354
▁pigeon	-14355
▁retrib	-14356
▁spider	-14357
▁stipul	-14358
specific	-14359
▁Counter	-14360
▁Deliver	-14361
▁Leclerc	-14362
▁diverge	-14363
▁inflate	-14364
▁physics	-14365
▁shorten	-14366
▁shuttle	-14367
▁staunch	-14368
something	-14369
▁$100,000	-14370
▁hortlist	-14371
▁maneuver	-14372
▁minimize	-14373
▁proclaim	-14374
▁railroad	-14375
▁sourcing	-14376
▁vocation	-14377
▁Beautiful	-14378
▁istically	-14379
▁resurrect	-14380
Bo	-14381
IT	-14382
Qu	-14383
zi	-14384
ստ	-14385
▁Ե	-14386
▁զ	-14387
▁թ	-14388
Aug	-14389
Col	-14390
ESS	-14391
Lab	-14392
Roy	-14393
Shi	-14394
cen	-14395
cht	-14396
fac	-14397
iox	-14398
itu	-14399
mob	-14400
obi	-14401
pit	-14402
yen	-14403
zen	-14404
▁9-	-14405
▁IX	-14406
▁JC	-14407
▁LU	-14408
▁Ud	-14409
▁WE	-14410
▁eg	-14411
▁lt	-14412
="{"	-14413
Also	-14414
Char	-14415
Mark	-14416
More	-14417
colm	-14418
didn	-14419
dote	-14420
eror	-14421
rade	-14422
ruci	-14423
uter	-14424
▁36-	-14425
▁42-	-14426
▁5-0	-14427
▁58,	-14428
▁AVE	-14429
▁Ada	-14430
▁Ani	-14431
▁Ard	-14432
▁Bam	-14433
▁Cym	-14434
▁Dru	-14435
▁Hua	-14436
▁IMS	-14437
▁Kom	-14438
▁Lol	-14439
▁Nev	-14440
▁Roj	-14441
▁Rou	-14442
▁Saj	-14443
▁Sey	-14444
▁Vit	-14445
▁Zay	-14446
▁afa	-14447
▁gir	-14448
▁gol	-14449
▁lax	-14450
▁pam	-14451
▁pir	-14452
▁rou	-14453
▁ssi	-14454
▁ule	-14455
▁ume	-14456
▁upp	-14457
▁woo	-14458
▁հետ	-14459
David	-14460
alish	-14461
ancel	-14462
anner	-14463
floor	-14464
ghurt	-14465
metre	-14466
occup	-14467
▁Amar	-14468
▁Ambu	-14469
▁Bake	-14470
▁Balo	-14471
▁Duff	-14472
▁Gibb	-14473
▁Katz	-14474
▁Keen	-14475
▁Lach	-14476
▁Liga	-14477
▁Mama	-14478
▁Mori	-14479
▁Nair	-14480
▁Popp	-14481
▁Rust	-14482
▁Senn	-14483
▁Soul	-14484
▁Tier	-14485
▁Tyne	-14486
▁Vita	-14487
▁auda	-14488
▁barn	-14489
▁duct	-14490
▁eous	-14491
▁gish	-14492
▁hurr	-14493
▁ific	-14494
▁lian	-14495
▁lore	-14496
▁melo	-14497
▁ntus	-14498
▁pett	-14499
▁trot	-14500
dinand	-14501
▁1999,	-14502
▁1999.	-14503
▁8,000	-14504
▁Abdel	-14505
▁Arrow	-14506
▁Barri	-14507
▁Clyde	-14508
▁Flint	-14509
▁Gallo	-14510
▁Honey	-14511
▁Mandi	-14512
▁React	-14513
▁Sharp	-14514
▁arche	-14515
▁arrog	-14516
▁atmos	-14517
▁calib	-14518
▁candy	-14519
▁clerk	-14520
▁clown	-14521
▁curry	-14522
▁diarr	-14523
▁dodge	-14524
▁idiot	-14525
▁menac	-14526
▁nburg	-14527
▁pierc	-14528
▁rigid	-14529
▁syrup	-14530
▁wolve	-14531
adicate	-14532
carious	-14533
▁Destin	-14534
▁Mandel	-14535
▁Nugget	-14536
▁Vander	-14537
▁ambigu	-14538
▁strive	-14539
▁thermo	-14540
ioxidant	-14541
▁Nairobi	-14542
▁Problem	-14543
▁blunder	-14544
▁enlarge	-14545
▁moniker	-14546
▁pragmat	-14547
▁prolife	-14548
▁pyramid	-14549
▁scanner	-14550
▁snooker	-14551
▁thwaite	-14552
▁tractor	-14553
▁yoghurt	-14554
effective	-14555
▁Grealish	-14556
▁Terminal	-14557
▁anecdote	-14558
▁diaspora	-14559
▁minimise	-14560
▁timulate	-14561
▁£100,000	-14562
▁abundance	-14563
▁culminate	-14564
▁demolition	-14565
"-	-14566
06	-14567
DC	-14568
Ju	-14569
Mc	-14570
UK	-14571
UN	-14572
dy	-14573
gs	-14574
gt	-14575
ավ	-14576
ոն	-14577
▁ã	-14578
:</	-14579
?,"	-14580
Che	-14581
ION	-14582
Non	-14583
Out	-14584
Sam	-14585
Spa	-14586
cio	-14587
fin	-14588
gey	-14589
ics	-14590
icu	-14591
imi	-14592
oeu	-14593
sar	-14594
sco	-14595
tty	-14596
vot	-14597
▁EP	-14598
▁KE	-14599
▁LS	-14600
▁OP	-14601
▁iy	-14602
▁zu	-14603
▁ատ	-14604
▁կա	-14605
Alex	-14606
Poli	-14607
ckey	-14608
dest	-14609
happ	-14610
ilia	-14611
neum	-14612
omon	-14613
peak	-14614
peat	-14615
ppet	-14616
pric	-14617
runk	-14618
▁256	-14619
▁51,	-14620
▁Doo	-14621
▁Dud	-14622
▁Flu	-14623
▁GET	-14624
▁Gle	-14625
▁Jor	-14626
▁NYC	-14627
▁Nau	-14628
▁Raf	-14629
▁Sax	-14630
▁Seg	-14631
▁bes	-14632
▁eno	-14633
▁glu	-14634
▁oku	-14635
▁orn	-14636
▁pou	-14637
▁zig	-14638
4,000	-14639
anche	-14640
board	-14641
ocket	-14642
oeuvr	-14643
price	-14644
reate	-14645
vivor	-14646
▁1984	-14647
▁1986	-14648
▁1988	-14649
▁Beal	-14650
▁Brod	-14651
▁Brom	-14652
▁Chou	-14653
▁Hero	-14654
▁Lean	-14655
▁Oslo	-14656
▁Toni	-14657
▁brav	-14658
▁croc	-14659
▁cudd	-14660
▁dull	-14661
▁funk	-14662
▁gaug	-14663
▁lina	-14664
▁mick	-14665
▁odor	-14666
▁ovsk	-14667
▁peck	-14668
▁pudd	-14669
▁rada	-14670
▁yuan	-14671
alment	-14672
design	-14673
double	-14674
econom	-14675
hedral	-14676
quency	-14677
rement	-14678
terior	-14679
ursion	-14680
▁Champ	-14681
▁Denni	-14682
▁Felix	-14683
▁Large	-14684
▁Mohan	-14685
▁Rough	-14686
▁Shell	-14687
▁Stall	-14688
▁Tunis	-14689
▁blush	-14690
▁cinct	-14691
▁clair	-14692
▁clamp	-14693
▁ellar	-14694
▁itism	-14695
▁mince	-14696
▁odile	-14697
▁owitz	-14698
▁pneum	-14699
▁saint	-14700
▁salut	-14701
▁stove	-14702
▁tonic	-14703
▁urine	-14704
▁vinyl	-14705
▁yearn	-14706
Donnell	-14707
Michael	-14708
continu	-14709
corrupt	-14710
country	-14711
defense	-14712
publish	-14713
▁Baltic	-14714
▁Bosnia	-14715
▁Butter	-14716
▁Garret	-14717
▁Giorgi	-14718
▁Heaven	-14719
▁Miguel	-14720
▁caveat	-14721
▁dismay	-14722
▁jockey	-14723
▁paraly	-14724
▁shrimp	-14725
▁tumult	-14726
▁ulsory	-14727
interest	-14728
lomerate	-14729
nominate	-14730
▁Predict	-14731
▁Vehicle	-14732
▁auditor	-14733
▁caramel	-14734
▁cracker	-14735
▁prostit	-14736
▁pudding	-14737
▁redunda	-14738
▁repatri	-14739
▁Imperial	-14740
▁absentee	-14741
▁abstract	-14742
▁acquaint	-14743
▁bachelor	-14744
▁commerce	-14745
▁handicap	-14746
▁manoeuvr	-14747
▁practise	-14748
▁recreate	-14749
▁Ferdinand	-14750
▁excursion	-14751
▁expansive	-14752
▁frequency	-14753
▁pesticide	-14754
▁instalment	-14755
▁retrospect	-14756
▁conglomerate	-14757
__	-14758
db	-14759
fb	-14760
ks	-14761
	-14762
աց	-14763
▁խ	-14764
").	-14765
-35	-14766
.")	-14767
2.5	-14768
20,	-14769
Dis	-14770
Gar	-14771
Tom	-14772
bic	-14773
diq	-14774
ely	-14775
eye	-14776
lyF	-14777
nou	-14778
put	-14779
uki	-14780
▁89	-14781
▁</	-14782
▁DG	-14783
▁EL	-14784
▁MH	-14785
▁hr	-14786
▁ál	-14787
▁én	-14788
Fund	-14789
Happ	-14790
Pier	-14791
alli	-14792
asia	-14793
avit	-14794
coll	-14795
cook	-14796
ffer	-14797
goal	-14798
guay	-14799
htar	-14800
ibia	-14801
iels	-14802
imag	-14803
itya	-14804
know	-14805
lave	-14806
stri	-14807
torn	-14808
▁$18	-14809
▁$24	-14810
▁(£1	-14811
▁,""	-14812
▁1.4	-14813
▁115	-14814
▁Amp	-14815
▁Bai	-14816
▁Hut	-14817
▁ISS	-14818
▁LIN	-14819
▁Loy	-14820
▁McN	-14821
▁PFL	-14822
▁Pix	-14823
▁Sob	-14824
▁TSA	-14825
▁Tek	-14826
▁Tia	-14827
▁Uru	-14828
▁aba	-14829
▁ama	-14830
▁aug	-14831
▁bhi	-14832
▁dir	-14833
▁dow	-14834
▁eca	-14835
▁ghe	-14836
▁igo	-14837
▁lut	-14838
▁nun	-14839
▁oso	-14840
▁ovo	-14841
▁pau	-14842
▁pse	-14843
▁yev	-14844
▁zin	-14845
▁£25	-14846
6,000	-14847
7,000	-14848
Germa	-14849
March	-14850
amboo	-14851
asket	-14852
extra	-14853
iable	-14854
mount	-14855
pleas	-14856
ricad	-14857
stick	-14858
terri	-14859
thumb	-14860
ultan	-14861
▁(0-0	-14862
▁1940	-14863
▁1985	-14864
▁1987	-14865
▁Bail	-14866
▁Beer	-14867
▁Chao	-14868
▁Farr	-14869
▁Glam	-14870
▁Hank	-14871
▁Herr	-14872
▁Horr	-14873
▁Jaya	-14874
▁Kras	-14875
▁LOVE	-14876
▁Lamp	-14877
▁Marx	-14878
▁Ngan	-14879
▁Novo	-14880
▁Parr	-14881
▁Semi	-14882
▁Wave	-14883
▁amic	-14884
▁axis	-14885
▁bide	-14886
▁buoy	-14887
▁furt	-14888
▁howl	-14889
▁iggs	-14890
▁inex	-14891
▁lazy	-14892
▁lynn	-14893
▁maze	-14894
▁raft	-14895
▁rama	-14896
▁rash	-14897
▁surn	-14898
colour	-14899
decade	-14900
defend	-14901
favour	-14902
lyFans	-14903
public	-14904
social	-14905
source	-14906
▁2002.	-14907
▁2027.	-14908
▁Contr	-14909
▁Duran	-14910
▁Integ	-14911
▁Marti	-14912
▁Pearl	-14913
▁Reich	-14914
▁Romeo	-14915
▁Solar	-14916
▁Sunny	-14917
▁Surge	-14918
▁Value	-14919
▁ander	-14920
▁egreg	-14921
▁facet	-14922
▁garda	-14923
▁induc	-14924
▁inski	-14925
▁mimic	-14926
▁niece	-14927
▁quint	-14928
▁stoke	-14929
▁surer	-14930
▁turbo	-14931
▁tutor	-14932
▁40,000	-14933
▁Attend	-14934
▁Basket	-14935
▁Casino	-14936
▁Cotton	-14937
▁Demand	-14938
▁Gerald	-14939
▁Grazia	-14940
▁Pretty	-14941
▁bamboo	-14942
▁entren	-14943
▁fluctu	-14944
▁magnet	-14945
▁preach	-14946
▁velvet	-14947
▁ventil	-14948
▁£1,000	-14949
▁Attempt	-14950
▁Diploma	-14951
▁Namibia	-14952
▁Ngannou	-14953
▁Solomon	-14954
▁Thunder	-14955
▁Uruguay	-14956
▁extinct	-14957
▁ifiable	-14958
▁narciss	-14959
▁surname	-14960
▁analytic	-14961
▁embolden	-14962
▁imperial	-14963
▁Architect	-14964
▁egregious	-14965
▁eradicate	-14966
▁precarious	-14967
4)	-14968
71	-14969
EU	-14970
IM	-14971
oa	-14972
ör	-14973
999	-14974
EEK	-14975
Top	-14976
hma	-14977
imm	-14978
ndo	-14979
neg	-14980
ogh	-14981
orr	-14982
rum	-14983
ulu	-14984
umi	-14985
▁9%	-14986
▁CK	-14987
▁VC	-14988
▁Yi	-14989
▁ew	-14990
▁hm	-14991
▁hn	-14992
▁kg	-14993
▁ux	-14994
▁իր	-14995
Pale	-14996
Read	-14997
agon	-14998
bbit	-14999
case	-15000
chez	-15001
chip	-15002
food	-15003
govy	-15004
icle	-15005
inee	-15006
iren	-15007
ogyn	-15008
oper	-15009
orch	-15010
prem	-15011
rape	-15012
▁$6.	-15013
▁160	-15014
▁2.0	-15015
▁AND	-15016
▁Akh	-15017
▁Ave	-15018
▁Civ	-15019
▁Dot	-15020
▁Fig	-15021
▁Hoy	-15022
▁Kah	-15023
▁MEN	-15024
▁Mei	-15025
▁Nan	-15026
▁Pog	-15027
▁Poi	-15028
▁RES	-15029
▁Rib	-15030
▁Sao	-15031
▁Sgt	-15032
▁Spi	-15033
▁Sán	-15034
▁Vac	-15035
▁Vet	-15036
▁baz	-15037
▁bek	-15038
▁gaz	-15039
▁gio	-15040
▁kle	-15041
▁kon	-15042
▁mul	-15043
▁rau	-15044
▁yne	-15045
Great	-15046
catch	-15047
inite	-15048
iones	-15049
limit	-15050
ocate	-15051
poena	-15052
thank	-15053
uddle	-15054
weigh	-15055
▁$300	-15056
▁1971	-15057
▁1982	-15058
▁Alba	-15059
▁Bann	-15060
▁Dunk	-15061
▁Gain	-15062
▁Hang	-15063
▁Herz	-15064
▁Kher	-15065
▁Loan	-15066
▁Mint	-15067
▁Navi	-15068
▁Pune	-15069
▁Rana	-15070
▁Sell	-15071
▁Tang	-15072
▁Text	-15073
▁Thor	-15074
▁adas	-15075
▁addy	-15076
▁ault	-15077
▁duel	-15078
▁heid	-15079
▁homo	-15080
▁mold	-15081
▁pied	-15082
▁poul	-15083
▁ruck	-15084
▁stal	-15085
▁wang	-15086
▁zoom	-15087
▁ային	-15088
Muslim	-15089
attack	-15090
culiar	-15091
family	-15092
idavit	-15093
lenish	-15094
restle	-15095
steric	-15096
▁2006.	-15097
▁7,000	-15098
▁Alder	-15099
▁Aleks	-15100
▁Blind	-15101
▁Buddh	-15102
▁Infra	-15103
▁Pande	-15104
▁Sight	-15105
▁Smoke	-15106
▁Terra	-15107
▁Title	-15108
▁accru	-15109
▁amber	-15110
▁amput	-15111
▁caste	-15112
▁chand	-15113
▁croft	-15114
▁ender	-15115
▁endow	-15116
▁exped	-15117
▁khtar	-15118
▁mouse	-15119
▁nuous	-15120
▁prank	-15121
▁spook	-15122
▁tyran	-15123
▁vigor	-15124
▁vodka	-15125
British	-15126
houette	-15127
ogynist	-15128
▁Kenzie	-15129
▁Nikola	-15130
▁Wegovy	-15131
▁affili	-15132
▁asthma	-15133
▁banter	-15134
▁besieg	-15135
▁boiler	-15136
▁burial	-15137
▁dynast	-15138
▁fumble	-15139
▁gastro	-15140
▁lister	-15141
▁mishap	-15142
▁potter	-15143
▁rabbit	-15144
▁rimmed	-15145
▁timber	-15146
▁tycoon	-15147
▁vender	-15148
commerce	-15149
▁Compare	-15150
▁Malcolm	-15151
▁Monitor	-15152
▁Sánchez	-15153
▁aciones	-15154
▁curtail	-15155
▁dilemma	-15156
▁eternal	-15157
▁inhibit	-15158
▁missive	-15159
▁reconci	-15160
▁remorse	-15161
▁securit	-15162
▁trooper	-15163
▁OnlyFans	-15164
▁barricad	-15165
▁endeavor	-15166
▁fountain	-15167
▁hysteric	-15168
▁peculiar	-15169
▁squirrel	-15170
▁stalwart	-15171
▁subpoena	-15172
▁Nutrition	-15173
▁affidavit	-15174
▁cathedral	-15175
▁increment	-15176
▁patriarch	-15177
▁pneumonia	-15178
▁replenish	-15179
▁therapies	-15180
▁uperpower	-15181
▁silhouette	-15182
▁antioxidant	-15183
6)	-15184
AT	-15185
wo	-15186
⁄2	-15187
▁©	-15188
00,	-15189
Bad	-15190
Gaz	-15191
Jam	-15192
Lat	-15193
See	-15194
asi	-15195
box	-15196
cou	-15197
fia	-15198
fla	-15199
idd	-15200
mel	-15201
mus	-15202
omy	-15203
pot	-15204
▁8%	-15205
▁94	-15206
▁AW	-15207
▁Aj	-15208
▁Ez	-15209
▁HU	-15210
▁TG	-15211
▁VM	-15212
▁gw	-15213
500.	-15214
Bala	-15215
Best	-15216
News	-15217
ains	-15218
aken	-15219
anic	-15220
anti	-15221
bath	-15222
chet	-15223
cier	-15224
coli	-15225
dead	-15226
fair	-15227
fast	-15228
fuel	-15229
ieve	-15230
init	-15231
noth	-15232
orca	-15233
▁1-2	-15234
▁1.8	-15235
▁2.6	-15236
▁2.7	-15237
▁401	-15238
▁6-3	-15239
▁75%	-15240
▁999	-15241
▁ANI	-15242
▁Ayr	-15243
▁Bli	-15244
▁Boo	-15245
▁Caf	-15246
▁Fau	-15247
▁Log	-15248
▁Pez	-15249
▁Pom	-15250
▁Rec	-15251
▁Rup	-15252
▁SON	-15253
▁TED	-15254
▁Tou	-15255
▁UNI	-15256
▁Vau	-15257
▁Voy	-15258
▁asc	-15259
▁fut	-15260
▁gly	-15261
▁ift	-15262
▁kim	-15263
▁lex	-15264
▁lig	-15265
▁mia	-15266
▁mig	-15267
▁mow	-15268
▁nip	-15269
▁peg	-15270
▁tta	-15271
▁uth	-15272
▁zzo	-15273
Jones	-15274
South	-15275
alier	-15276
appro	-15277
cross	-15278
judge	-15279
mates	-15280
miral	-15281
ombie	-15282
onial	-15283
onton	-15284
owner	-15285
proof	-15286
traum	-15287
utsch	-15288
▁$250	-15289
▁1500	-15290
▁1983	-15291
▁Bend	-15292
▁Blum	-15293
▁Brat	-15294
▁Dhan	-15295
▁Dutt	-15296
▁Este	-15297
▁Fein	-15298
▁Flam	-15299
▁Flip	-15300
▁McAl	-15301
▁Nade	-15302
▁Pull	-15303
▁Rent	-15304
▁Shad	-15305
▁Shoe	-15306
▁Tank	-15307
▁Task	-15308
▁Tube	-15309
▁asco	-15310
▁asse	-15311
▁athi	-15312
▁bait	-15313
▁barg	-15314
▁blad	-15315
▁bled	-15316
▁cele	-15317
▁cken	-15318
▁clic	-15319
▁cort	-15320
▁cose	-15321
▁exud	-15322
▁fect	-15323
▁grue	-15324
▁liar	-15325
▁mead	-15326
▁nian	-15327
▁ount	-15328
▁piss	-15329
▁roam	-15330
▁tash	-15331
▁tori	-15332
▁weep	-15333
▁welt	-15334
choice	-15335
consum	-15336
icidal	-15337
little	-15338
office	-15339
seille	-15340
▁2000.	-15341
▁Abram	-15342
▁Allah	-15343
▁Butch	-15344
▁Camil	-15345
▁Cardi	-15346
▁Cheat	-15347
▁Faith	-15348
▁Grove	-15349
▁Humph	-15350
▁Keogh	-15351
▁Seren	-15352
▁astri	-15353
▁cosmo	-15354
▁flush	-15355
▁heore	-15356
▁kanth	-15357
▁liken	-15358
▁maine	-15359
▁nacho	-15360
▁nnial	-15361
▁raven	-15362
▁seduc	-15363
▁tramp	-15364
▁trunk	-15365
50,000.	-15366
Israeli	-15367
initely	-15368
nothing	-15369
▁13,000	-15370
▁Except	-15371
▁Inspir	-15372
▁Letter	-15373
▁Meadow	-15374
▁Speech	-15375
▁angled	-15376
▁dermat	-15377
▁elicit	-15378
▁hollow	-15379
▁infilt	-15380
▁relish	-15381
▁sequin	-15382
▁150,000	-15383
▁Admiral	-15384
▁Deutsch	-15385
▁atories	-15386
▁aughter	-15387
▁enslave	-15388
▁toppers	-15389
▁Cavalier	-15390
▁Edmonton	-15391
▁Humphrey	-15392
▁Mallorca	-15393
▁entangle	-15394
▁infringe	-15395
▁ornament	-15396
▁ountains	-15397
▁outweigh	-15398
▁skeleton	-15399
▁Essential	-15400
▁efinitely	-15401
▁endeavour	-15402
▁synagogue	-15403
▁heoretical	-15404
▁refrigerator	-15405
AM	-15406
Ge	-15407
mg	-15408
▁փ	-15409
-2)	-15410
BER	-15411
Mur	-15412
Pet	-15413
Sem	-15414
dyn	-15415
hru	-15416
ige	-15417
jes	-15418
mov	-15419
pee	-15420
she	-15421
sor	-15422
try	-15423
udo	-15424
ums	-15425
why	-15426
▁97	-15427
▁AY	-15428
▁CF	-15429
▁Mé	-15430
▁Ou	-15431
▁WF	-15432
▁dt	-15433
▁rh	-15434
-19,	-15435
Bill	-15436
Chan	-15437
Nazi	-15438
ayak	-15439
base	-15440
book	-15441
char	-15442
fake	-15443
iraj	-15444
ishi	-15445
jama	-15446
lago	-15447
odox	-15448
osex	-15449
plex	-15450
rypt	-15451
▁($1	-15452
▁4-1	-15453
▁47-	-15454
▁54-	-15455
▁55-	-15456
▁70,	-15457
▁ARC	-15458
▁Bav	-15459
▁Bub	-15460
▁Dri	-15461
▁Haf	-15462
▁Hea	-15463
▁Hoj	-15464
▁ISA	-15465
▁ITY	-15466
▁Khu	-15467
▁LES	-15468
▁Nak	-15469
▁Ost	-15470
▁Pig	-15471
▁RIS	-15472
▁Raz	-15473
▁Tap	-15474
▁Tol	-15475
▁Uma	-15476
▁Vel	-15477
▁Vig	-15478
▁Xin	-15479
▁acu	-15480
▁cox	-15481
▁efa	-15482
▁ipe	-15483
▁lal	-15484
▁mba	-15485
▁ood	-15486
▁raf	-15487
▁tte	-15488
▁uli	-15489
▁yog	-15490
▁£6.	-15491
▁ված	-15492
blood	-15493
bodia	-15494
color	-15495
death	-15496
ensor	-15497
guish	-15498
hatic	-15499
iatek	-15500
ivier	-15501
oulos	-15502
quish	-15503
reach	-15504
rouch	-15505
ussia	-15506
wheel	-15507
▁1967	-15508
▁1975	-15509
▁Accu	-15510
▁Amal	-15511
▁Amin	-15512
▁Baha	-15513
▁Bala	-15514
▁Boat	-15515
▁Cumb	-15516
▁Diwa	-15517
▁Epic	-15518
▁Folk	-15519
▁Gali	-15520
▁Grin	-15521
▁Gwen	-15522
▁Hath	-15523
▁Hook	-15524
▁Hoop	-15525
▁Koch	-15526
▁Lakh	-15527
▁Lawn	-15528
▁Lone	-15529
▁Lori	-15530
▁Oppo	-15531
▁Pizz	-15532
▁Sana	-15533
▁Shen	-15534
▁Shon	-15535
▁Shot	-15536
▁Tere	-15537
▁Wrap	-15538
▁akes	-15539
▁desp	-15540
▁etri	-15541
▁hunk	-15542
▁idos	-15543
▁kian	-15544
▁leni	-15545
▁mara	-15546
▁mars	-15547
▁mull	-15548
▁otti	-15549
▁posh	-15550
▁stav	-15551
20,000	-15552
FundMe	-15553
league	-15554
provid	-15555
▁2001.	-15556
▁Bally	-15557
▁Bonni	-15558
▁Cecil	-15559
▁Ciara	-15560
▁Drone	-15561
▁McInt	-15562
▁Niels	-15563
▁Optim	-15564
▁Samaj	-15565
▁Siraj	-15566
▁Suzan	-15567
▁Twist	-15568
▁Whole	-15569
▁adjud	-15570
▁anoma	-15571
▁basin	-15572
▁calam	-15573
▁chipp	-15574
▁chlor	-15575
▁crest	-15576
▁gloom	-15577
▁ivist	-15578
▁omics	-15579
▁pearl	-15580
▁serge	-15581
develop	-15582
osexual	-15583
▁Appear	-15584
▁Differ	-15585
▁Dravid	-15586
▁Ernest	-15587
▁Lorenz	-15588
▁Marcel	-15589
▁Siddiq	-15590
▁Sultan	-15591
▁Thread	-15592
▁Wealth	-15593
▁Zambia	-15594
▁athlon	-15595
▁cannon	-15596
▁exotic	-15597
▁glitch	-15598
▁incite	-15599
▁martyr	-15600
▁nugget	-15601
▁oodles	-15602
▁outlaw	-15603
▁paddle	-15604
▁ransom	-15605
▁russia	-15606
▁sorrow	-15607
▁ulsive	-15608
▁virgin	-15609
▁wollen	-15610
Saturday	-15611
occupied	-15612
personal	-15613
▁Billion	-15614
▁Conduct	-15615
▁Message	-15616
▁Olivier	-15617
▁Swiatek	-15618
▁anguish	-15619
▁biology	-15620
▁condens	-15621
▁cracies	-15622
▁embroid	-15623
▁emulate	-15624
▁factual	-15625
▁ferment	-15626
▁flicker	-15627
▁hameful	-15628
▁ipelago	-15629
▁opoulos	-15630
▁sharpen	-15631
▁stylist	-15632
▁utilise	-15633
important	-15634
▁Cambodia	-15635
▁Treasure	-15636
▁anthropo	-15637
▁debutant	-15638
▁locating	-15639
▁sergeant	-15640
▁strangle	-15641
▁etrimental	-15642
81	-15643
AS	-15644
Cl	-15645
Em	-15646
NO	-15647
Sw	-15648
Us	-15649
df	-15650
jj	-15651
ՐԵ	-15652
մա	-15653
▁ծ	-15654
▁օ	-15655
!""	-15656
Add	-15657
Cha	-15658
Dec	-15659
Kam	-15660
Nic	-15661
fas	-15662
fra	-15663
gas	-15664
gon	-15665
gui	-15666
hil	-15667
kti	-15668
pso	-15669
rav	-15670
tip	-15671
ulg	-15672
ulk	-15673
une	-15674
vol	-15675
▁(€	-15676
▁01	-15677
▁09	-15678
▁AK	-15679
▁As	-15680
▁EY	-15681
▁RH	-15682
▁Sz	-15683
▁պա	-15684
▁սի	-15685
▁ստ	-15686
."</	-15687
Euro	-15688
Inst	-15689
Jack	-15690
Such	-15691
Wire	-15692
alin	-15693
bani	-15694
bomb	-15695
card	-15696
etle	-15697
hole	-15698
kind	-15699
leti	-15700
lore	-15701
plic	-15702
pple	-15703
trad	-15704
▁0.3	-15705
▁1.1	-15706
▁2-2	-15707
▁3.3	-15708
▁33.	-15709
▁35.	-15710
▁4-2	-15711
▁40.	-15712
▁46,	-15713
▁49.	-15714
▁56,	-15715
▁62,	-15716
▁ACC	-15717
▁ANT	-15718
▁Aza	-15719
▁CHI	-15720
▁COL	-15721
▁COM	-15722
▁DAY	-15723
▁Eze	-15724
▁Fir	-15725
▁Gum	-15726
▁HAN	-15727
▁Hov	-15728
▁Koe	-15729
▁Kou	-15730
▁LOS	-15731
▁Nou	-15732
▁PRI	-15733
▁Rei	-15734
▁Rem	-15735
▁Riz	-15736
▁Tav	-15737
▁Tie	-15738
▁Vil	-15739
▁aan	-15740
▁cip	-15741
▁epi	-15742
▁hil	-15743
▁hyn	-15744
▁ijk	-15745
▁lle	-15746
▁nti	-15747
▁opa	-15748
▁pei	-15749
▁rar	-15750
▁rio	-15751
▁tín	-15752
▁yna	-15753
▁èle	-15754
▁անց	-15755
3,000	-15756
acedo	-15757
apult	-15758
asset	-15759
close	-15760
induc	-15761
juven	-15762
meter	-15763
onger	-15764
posit	-15765
racul	-15766
rieve	-15767
▁Afri	-15768
▁Axel	-15769
▁Bare	-15770
▁Buen	-15771
▁Bunn	-15772
▁Cali	-15773
▁Colo	-15774
▁Darc	-15775
▁Dock	-15776
▁Fiji	-15777
▁Fowl	-15778
▁Garr	-15779
▁Guan	-15780
▁Kale	-15781
▁Kang	-15782
▁Kant	-15783
▁Lend	-15784
▁Pett	-15785
▁Squi	-15786
▁Tart	-15787
▁Weav	-15788
▁Wynn	-15789
▁Zack	-15790
▁atta	-15791
▁cerv	-15792
▁chol	-15793
▁curv	-15794
▁dorf	-15795
▁fede	-15796
▁fili	-15797
▁fuck	-15798
▁itos	-15799
▁kesh	-15800
▁lani	-15801
▁loch	-15802
▁lton	-15803
▁nudg	-15804
▁oedd	-15805
▁oire	-15806
▁orth	-15807
▁rill	-15808
▁tidy	-15809
▁torm	-15810
▁vain	-15811
▁vale	-15812
▁vall	-15813
":"09.	-15814
80,000	-15815
coming	-15816
critic	-15817
elance	-15818
imagin	-15819
intens	-15820
sistib	-15821
though	-15822
▁1996.	-15823
▁1997.	-15824
▁2024?	-15825
▁Avoid	-15826
▁Inqui	-15827
▁Nehru	-15828
▁Olive	-15829
▁PRESS	-15830
▁Ridge	-15831
▁Shiva	-15832
▁Tribe	-15833
▁Tyron	-15834
▁bloke	-15835
▁bogey	-15836
▁drape	-15837
▁elope	-15838
▁hinge	-15839
▁kayak	-15840
▁mound	-15841
▁pedia	-15842
▁siren	-15843
▁thump	-15844
erature	-15845
pressur	-15846
renalin	-15847
service	-15848
special	-15849
stalgic	-15850
▁Atleti	-15851
▁Couple	-15852
▁Female	-15853
▁Macedo	-15854
▁Spider	-15855
▁Weight	-15856
▁ambush	-15857
▁diagno	-15858
▁electr	-15859
▁herald	-15860
▁ridicu	-15861
▁turtle	-15862
distance	-15863
economic	-15864
raculous	-15865
▁encrypt	-15866
▁erratic	-15867
▁ipating	-15868
▁revital	-15869
▁rupture	-15870
▁torment	-15871
▁uicidal	-15872
▁Advocate	-15873
▁Elephant	-15874
▁GoFundMe	-15875
▁Language	-15876
▁Survivor	-15877
▁citation	-15878
▁emphatic	-15879
▁exponent	-15880
▁friction	-15881
▁orthodox	-15882
▁pinpoint	-15883
▁Gladiator	-15884
▁Marseille	-15885
▁blackmail	-15886
▁freelance	-15887
▁insurgent	-15888
▁skyrocket	-15889
▁irresistib	-15890
▁misogynist	-15891
▁outperform	-15892
▁Temperature	-15893
▁counterfeit	-15894
▁malfunction	-15895
▁misrepresent	-15896
%)	-15897
Ca	-15898
Fe	-15899
Qa	-15900
TB	-15901
UT	-15902
	-15903
."'	-15904
1.8	-15905
24.	-15906
Blo	-15907
Jan	-15908
Men	-15909
Sub	-15910
USA	-15911
atu	-15912
fan	-15913
kir	-15914
mag	-15915
och	-15916
oya	-15917
yll	-15918
▁DF	-15919
▁EW	-15920
▁HL	-15921
▁MJ	-15922
▁OO	-15923
▁Oc	-15924
▁Ow	-15925
▁UB	-15926
▁UM	-15927
▁Uz	-15928
▁oz	-15929
▁tl	-15930
▁ão	-15931
▁ամ	-15932
▁նա	-15933
-199	-15934
Back	-15935
Barb	-15936
East	-15937
Octo	-15938
area	-15939
ayan	-15940
caus	-15941
cule	-15942
ergi	-15943
ford	-15944
iner	-15945
isal	-15946
izzu	-15947
much	-15948
must	-15949
quet	-15950
ssle	-15951
tern	-15952
ucin	-15953
usad	-15954
want	-15955
▁"90	-15956
▁1.7	-15957
▁14%	-15958
▁2.8	-15959
▁23%	-15960
▁38-	-15961
▁55,	-15962
▁60.	-15963
▁64,	-15964
▁72,	-15965
▁75,	-15966
▁80-	-15967
▁Anc	-15968
▁Ati	-15969
▁CAA	-15970
▁Coy	-15971
▁DEA	-15972
▁DON	-15973
▁Dom	-15974
▁Edu	-15975
▁Fix	-15976
▁Hak	-15977
▁Ion	-15978
▁Kip	-15979
▁Oba	-15980
▁Poo	-15981
▁SHA	-15982
▁Sig	-15983
▁Ski	-15984
▁Smi	-15985
▁TCH	-15986
▁Tea	-15987
▁cot	-15988
▁ffe	-15989
▁hut	-15990
▁nne	-15991
▁nta	-15992
▁nue	-15993
▁ole	-15994
▁olu	-15995
▁ool	-15996
▁paw	-15997
▁rix	-15998
▁sod	-15999
▁uma	-16000
▁uti	-16001
▁£14	-16002
[...]
