[UNK]	0
[CLS]	1
[SEP]	2
[PAD]	3
[MASK]	4
!	5
"	6
#	7
$	8
%	9
&	10
'	11
(	12
)	13
*	14
+	15
,	16
-	17
.	18
/	19
0	20
1	21
2	22
3	23
4	24
5	25
6	26
7	27
8	28
9	29
:	30
;	31
<	32
=	33
>	34
?	35
@	36
[	37
\	38
]	39
^	40
_	41
`	42
a	43
b	44
c	45
d	46
e	47
f	48
g	49
h	50
i	51
j	52
k	53
l	54
m	55
n	56
o	57
p	58
q	59
r	60
s	61
t	62
u	63
v	64
w	65
x	66
y	67
z	68
{	69
}	70
~	71
	72
	73
	74
	75
	76
	77
	78
	79
	80
	81
¡	82
¢	83
£	84
¦	85
§	86
©	87
­	88
®	89
°	90
±	91
·	92
¿	93
×	94
ß	95
à	96
á	97
â	98
ã	99
ä	100
å	101
æ	102
ç	103
è	104
é	105
ê	106
ë	107
ì	108
í	109
î	110
ï	111
ñ	112
ò	113
ó	114
ô	115
ö	116
ø	117
ù	118
ú	119
û	120
ü	121
ý	122
þ	123
ÿ	124
ā	125
ă	126
ą	127
ć	128
č	129
đ	130
ē	131
ė	132
ę	133
ğ	134
ģ	135
ī	136
ı	137
ł	138
ń	139
ņ	140
ň	141
ō	142
ř	143
ś	144
ş	145
š	146
ţ	147
ū	148
ŵ	149
ŷ	150
ż	151
ž	152
ư	153
ș	154
ț	155
ə	156
ʔ	157
ʻ	158
̀	159
́	160
̃	161
̄	162
̇	163
̈	164
μ	165
а	166
и	167
к	168
н	169
о	170
р	171
с	172
у	173
ї	174
՛	175
՝	176
՞	177
ա	178
բ	179
գ	180
դ	181
ե	182
զ	183
է	184
ը	185
թ	186
ժ	187
ի	188
լ	189
խ	190
ծ	191
կ	192
հ	193
ձ	194
ղ	195
ճ	196
մ	197
յ	198
ն	199
շ	200
ո	201
չ	202
պ	203
ջ	204
ռ	205
ս	206
վ	207
տ	208
ր	209
ց	210
ւ	211
փ	212
ք	213
օ	214
ֆ	215
։	216
฿	217
ḥ	218
ṡ	219
ṣ	220
ạ	221
ả	222
ầ	223
ắ	224
ẹ	225
ế	226
ệ	227
ị	228
ọ	229
ố	230
ộ	231
ờ	232
ợ	233
ừ	234
ự	235
ỹ	236
‌	237
‍	238
‐	239
―	240
•	241
‬	242
‭	243
′	244
›	245
⁄	246
⁠	247
⁣	248
⁤	249
⁦	250
⁩	251
₦	252
€	253
₱	254
₹	255
℞	256
↔	257
−	258
⊕	259
⏳	260
■	261
▶	262
►	263
◀	264
●	265
☀	266
★	267
☆	268
♀	269
♂	270
♥	271
♦	272
♪	273
♬	274
⚽	275
✅	276
✔	277
✨	278
❌	279
❤	280
➡	281
⭐	282
・	283
︎	284
️	285
�	286
𝄒	287
🇦	288
🇱	289
🇳	290
🇸	291
🇺	292
🌪	293
🌴	294
🌹	295
🍓	296
🍹	297
🍺	298
🎁	299
🎢	300
🎪	301
🏆	302
🏻	303
🏼	304
🏽	305
🏾	306
🐎	307
👀	308
👈	309
👉	310
👍	311
👏	312
💕	313
💙	314
💥	315
💨	316
💬	317
📋	318
📍	319
📷	320
📸	321
🔥	322
😂	323
😅	324
😆	325
😊	326
😍	327
😢	328
😭	329
😮	330
😱	331
😳	332
🙄	333
🙌	334
🙏	335
🚨	336
🛒	337
🤎	338
🤔	339
🤣	340
🤦	341
🤫	342
🤯	343
🤵	344
🤷	345
🥅	346
🥇	347
🥥	348
🥪	349
🥹	350
🥺	351
🫣	352
##e	353
##r	354
##m	355
##2	356
##5	357
##i	358
##s	359
##o	360
##n	361
##u	362
##l	363
##t	364
##a	365
##g	366
##b	367
##h	368
##d	369
##v	370
##p	371
##c	372
##z	373
##j	374
##y	375
##f	376
##k	377
##0	378
##ե	379
##ն	380
##w	381
##ü	382
##լ	383
##ո	384
##ւ	385
##è	386
##á	387
##6	388
##q	389
##"	390
##9	391
##7	392
##â	393
##x	394
##ö	395
##ú	396
##í	397
##ա	398
##թ	399
##կ	400
##վ	401
##ծ	402
##յ	403
##ի	404
##շ	405
##1	406
##3	407
##4	408
##,	409
##à	410
##8	411
##ó	412
##ղ	413
##ր	414
##ը	415
##é	416
##š	417
##զ	418
##դ	419
##պ	420
##տ	421
##ç	422
##ց	423
##ս	424
##խ	425
##!	426
##)	427
##չ	428
##մ	429
##ճ	430
##_	431
##։	432
##ə	433
##գ	434
##å	435
##հ	436
##բ	437
##ã	438
##ë	439
##û	440
##ø	441
##ū	442
##ō	443
##ջ	444
##ռ	445
##ı	446
##ñ	447
##î	448
##ձ	449
##ß	450
##ā	451
##;	452
##℞	453
##č	454
##-	455
##ժ	456
##ê	457
##ł	458
##ä	459
##ք	460
##🏼	461
##ô	462
##	463
##ţ	464
##ă	465
##*	466
##ń	467
##ć	468
##?	469
##£	470
##̇	471
##р	472
##а	473
##ї	474
##н	475
##ý	476
##🌹	477
##🇱	478
##ạ	479
##€	480
##]	481
##ņ	482
##ģ	483
##ị	484
##[	485
##ė	486
##ò	487
##&	488
##ș	489
##ï	490
##ờ	491
##փ	492
##😂	493
##/	494
##🥺	495
##★	496
##$	497
##🏻	498
##օ	499
##ş	500
##+	501
##ự	502
##ù	503
##:	504
##ś	505
##ẹ	506
##.	507
##ŵ	508
##′	509
##ğ	510
##ợ	511
##ž	512
##ŷ	513
##ț	514
##է	515
##ֆ	516
##ÿ	517
##ọ	518
##'	519
##ế	520
##<	521
##	522
##ắ	523
##ố	524
##🥇	525
##🇸	526
##ệ	527
##ì	528
##ṣ	529
##ň	530
##📸	531
##ầ	532
##ư	533
##с	534
##о	535
##ī	536
##%	537
##@	538
##ừ	539
##ỹ	540
##©	541
##ę	542
##ē	543
##ʔ	544
##æ	545
##ż	546
th	547
the	548
in	549
##er	550
##nd	551
to	552
##en	553
##in	554
##or	555
##on	556
##at	557
of	558
and	559
##ar	560
re	561
##ou	562
##an	563
##re	564
ing	565
##it	566
##as	567
##ed	568
##al	569
##es	570
ed	571
er	572
st	573
##is	574
on	575
##ll	576
##ic	577
##ing	578
##ro	579
it	580
##le	581
ti	582
for	583
##id	584
wh	585
is	586
##ent	587
##ve	588
##st	589
be	590
co	591
at	592
##ay	593
ha	594
en	595
that	596
he	597
an	598
##ot	599
##me	600
##ut	601
de	602
##ce	603
sh	604
##ld	605
as	606
##ra	607
##ow	608
##ith	609
al	610
or	611
##et	612
with	613
##se	614
##ir	615
##ch	616
was	617
ma	618
we	619
tion	620
ne	621
##ter	622
sa	623
##ri	624
le	625
se	626
##ur	627
ch	628
##mp	629
li	630
##ver	631
te	632
##th	633
##ly	634
ar	635
ly	636
su	637
##gh	638
##la	639
you	640
##ck	641
##li	642
##ct	643
ab	644
so	645
##ke	646
##il	647
##ge	648
wi	649
are	650
pro	651
said	652
##ad	653
lo	654
his	655
ex	656
##si	657
un	658
have	659
has	660
fro	661
go	662
from	663
by	664
me	665
sp	666
all	667
this	668
##ore	669
la	670
##ere	671
ho	672
but	673
##igh	674
di	675
ta	676
##el	677
not	678
po	679
es	680
con	681
do	682
##ear	683
fa	684
ca	685
##ould	686
mo	687
they	688
##io	689
tr	690
##ion	691
ra	692
ro	693
##us	694
##ate	695
out	696
##ia	697
wor	698
us	699
##ue	700
##ul	701
af	702
her	703
pre	704
she	705
##ast	706
##est	707
fi	708
who	709
ent	710
##ma	711
up	712
##ess	713
no	714
year	715
mi	716
ion	717
##lo	718
qu	719
##ust	720
ment	721
ers	722
##im	723
will	724
##op	725
ad	726
nt	727
off	728
##un	729
##art	730
one	731
pa	732
ag	733
their	734
si	735
##co	736
##ight	737
had	738
fe	739
nd	740
##so	741
gh	742
##ment	743
new	744
##mb	745
man	746
been	747
can	748
##ard	749
##ss	750
after	751
##fe	752
more	753
##out	754
##ci	755
op	756
##lu	757
pp	758
##am	759
##ort	760
tt	761
##ich	762
tw	763
over	764
ri	765
our	766
ba	767
rep	768
##ant	769
##de	770
were	771
am	772
if	773
fo	774
ev	775
ty	776
there	777
about	778
dent	779
per	780
##ok	781
sc	782
##our	783
##od	784
##ry	785
when	786
which	787
int	788
##ong	789
get	790
##ide	791
##ity	792
##mm	793
also	794
##one	795
some	796
tra	797
ga	798
ap	799
du	800
like	801
##ti	802
##ie	803
##ays	804
ur	805
eop	806
eople	807
sta	808
time	809
my	810
fir	811
ef	812
ver	813
est	814
would	815
how	816
gu	817
dis	818
ll	819
what	820
##ound	821
##iv	822
work	823
et	824
str	825
##pe	826
bu	827
##gn	828
##lic	829
##ine	830
##all	831
##rou	832
rec	833
its	834
oth	835
just	836
##ree	837
first	838
ever	839
ele	840
mp	841
bo	842
ster	843
ser	844
kn	845
cha	846
und	847
ter	848
than	849
##use	850
ng	851
uk	852
tri	853
imp	854
thing	855
nat	856
pla	857
other	858
ous	859
two	860
##oth	861
gra	862
ear	863
##ill	864
##own	865
ation	866
into	867
nal	868
back	869
##ep	870
part	871
pl	872
na	873
ck	874
tru	875
tor	876
ted	877
last	878
him	879
ort	880
nn	881
##om	882
##ite	883
ic	884
whi	885
state	886
##ans	887
spe	888
able	889
gre	890
ss	891
##mo	892
##ek	893
inter	894
##ist	895
ow	896
##ain	897
eco	898
ial	899
cc	900
##ini	901
day	902
pe	903
end	904
now	905
them	906
el	907
##ence	908
##ag	909
fu	910
tre	911
##po	912
##ink	913
hu	914
ord	915
##ach	916
ac	917
ct	918
ou	919
##ol	920
##ght	921
res	922
jo	923
while	924
lli	925
da	926
inc	927
##ip	928
again	929
years	930
##ase	931
any	932
##di	933
##ath	934
mar	935
ph	936
##int	937
trump	938
could	939
mon	940
##ies	941
your	942
natio	943
son	944
ub	945
offic	946
presi	947
tive	948
##cu	949
rt	950
bi	951
comp	952
##day	953
act	954
real	955
where	956
##are	957
under	958
med	959
##ft	960
vi	961
ay	962
did	963
ve	964
mu	965
id	966
every	967
high	968
ot	969
ns	970
week	971
ring	972
efore	973
round	974
even	975
gen	976
##ak	977
##ne	978
unt	979
add	980
set	981
##ice	982
##urn	983
ity	984
mer	985
serv	986
want	987
way	988
chi	989
ris	990
##ga	991
hou	992
app	993
war	994
##em	995
ry	996
being	997
##mes	998
gover	999
red	1000
##per	1001
comm	1002
then	1003
need	1004
ff	1005
side	1006
##ali	1007
##vi	1008
show	1009
look	1010
nc	1011
cause	1012
##pt	1013
down	1014
lead	1015
ke	1016
only	1017
right	1018
turn	1019
long	1020
ld	1021
aw	1022
##mi	1023
world	1024
think	1025
ut	1026
ob	1027
##ual	1028
##gi	1029
wid	1030
olic	1031
nor	1032
ind	1033
hel	1034
##ers	1035
sm	1036
going	1037
##ance	1038
fam	1039
don	1040
old	1041
elec	1042
llion	1043
emb	1044
ding	1045
tic	1046
cre	1047
well	1048
##ps	1049
ate	1050
mr	1051
##ive	1052
make	1053
##pp	1054
ill	1055
clu	1056
##ince	1057
tho	1058
nment	1059
im	1060
ht	1061
grou	1062
stu	1063
many	1064
these	1065
line	1066
ru	1067
##ves	1068
ju	1069
##ial	1070
most	1071
sent	1072
il	1073
month	1074
##ris	1075
##row	1076
age	1077
throu	1078
told	1079
start	1080
know	1081
ght	1082
pu	1083
##uc	1084
three	1085
poli	1086
home	1087
made	1088
pport	1089
##xt	1090
##ord	1091
##ater	1092
tu	1093
tal	1094
amer	1095
lay	1096
##ict	1097
##ica	1098
bro	1099
own	1100
tin	1101
rs	1102
##ty	1103
##ru	1104
sk	1105
ship	1106
may	1107
eng	1108
come	1109
ness	1110
team	1111
hi	1112
ir	1113
help	1114
##na	1115
famil	1116
sday	1117
##ev	1118
since	1119
har	1120
##ass	1121
read	1122
ence	1123
point	1124
very	1125
ni	1126
mak	1127
let	1128
des	1129
os	1130
life	1131
tak	1132
house	1133
ge	1134
run	1135
nu	1136
less	1137
sra	1138
ward	1139
ist	1140
mini	1141
says	1142
see	1143
vel	1144
air	1145
srael	1146
quali	1147
pri	1148
ell	1149
law	1150
par	1151
han	1152
thou	1153
dd	1154
those	1155
##va	1156
dep	1157
char	1158
inclu	1159
##qu	1160
cle	1161
ey	1162
ant	1163
led	1164
sing	1165
##fi	1166
take	1167
media	1168
cho	1169
##aso	1170
ann	1171
ance	1172
tions	1173
ress	1174
wom	1175
##een	1176
fin	1177
wa	1178
aut	1179
##ote	1180
ice	1181
ond	1182
play	1183
cul	1184
hould	1185
mil	1186
##iew	1187
##ack	1188
sion	1189
news	1190
iss	1191
ign	1192
much	1193
ies	1194
ia	1195
view	1196
good	1197
##ca	1198
ive	1199
ary	1200
gui	1201
land	1202
still	1203
here	1204
sec	1205
wo	1206
blo	1207
bid	1208
##men	1209
oll	1210
anoth	1211
pr	1212
##oun	1213
dif	1214
##tl	1215
found	1216
ement	1217
##hi	1218
ameri	1219
ublic	1220
htt	1221
untry	1222
https	1223
rat	1224
ai	1225
city	1226
ccord	1227
gg	1228
ce	1229
##ba	1230
##lf	1231
head	1232
fit	1233
au	1234
vide	1235
##arge	1236
##ick	1237
demo	1238
four	1239
##ang	1240
game	1241
car	1242
rit	1243
olice	1244
##ect	1245
##ower	1246
cl	1247
fri	1248
auto	1249
ful	1250
art	1251
enc	1252
tween	1253
ul	1254
##llo	1255
econd	1256
such	1257
sw	1258
fr	1259
happ	1260
follo	1261
sed	1262
feel	1263
##era	1264
port	1265
em	1266
camp	1267
oun	1268
##atch	1269
ima	1270
erson	1271
sign	1272
hand	1273
ass	1274
dat	1275
br	1276
cro	1277
memb	1278
biden	1279
star	1280
lot	1281
say	1282
night	1283
top	1284
##sia	1285
rc	1286
cri	1287
rm	1288
##ha	1289
order	1290
sou	1291
##ina	1292
open	1293
times	1294
arti	1295
clo	1296
party	1297
does	1298
ember	1299
ussia	1300
added	1301
##anc	1302
ble	1303
alth	1304
mm	1305
##sta	1306
ud	1307
test	1308
wr	1309
form	1310
jp	1311
south	1312
net	1313
gener	1314
put	1315
cla	1316
##rec	1317
cu	1318
##ount	1319
left	1320
jpg	1321
ham	1322
orm	1323
##um	1324
##te	1325
win	1326
full	1327
mb	1328
got	1329
group	1330
gn	1331
ttack	1332
india	1333
oci	1334
rid	1335
far	1336
ki	1337
##ank	1338
fil	1339
nom	1340
ah	1341
ting	1342
##itu	1343
ol	1344
seaso	1345
ssi	1346
##ren	1347
both	1348
ated	1349
od	1350
ask	1351
use	1352
dra	1353
best	1354
rk	1355
ug	1356
place	1357
##sib	1358
eu	1359
dec	1360
ties	1361
sen	1362
ently	1363
too	1364
trans	1365
##ustr	1366
issue	1367
tinue	1368
each	1369
next	1370
vis	1371
##rai	1372
ong	1373
ities	1374
redit	1375
tain	1376
frien	1377
ep	1378
vo	1379
mov	1380
cer	1381
call	1382
ak	1383
clear	1384
quest	1385
force	1386
direc	1387
loc	1388
##lea	1389
oc	1390
tell	1391
img	1392
ormat	1393
ppear	1394
clude	1395
chool	1396
event	1397
oppo	1398
howev	1399
##pec	1400
dri	1401
##ise	1402
near	1403
same	1404
alled	1405
sur	1406
##lt	1407
mpan	1408
ning	1409
cap	1410
democ	1411
nce	1412
##ited	1413
temp	1414
case	1415
mark	1416
deci	1417
##for	1418
ldren	1419
offer	1420
lit	1421
##ta	1422
10	1423
lw	1424
ready	1425
acc	1426
##erg	1427
never	1428
ukrai	1429
cal	1430
emp	1431
exper	1432
sha	1433
##man	1434
omm	1435
##iti	1436
kill	1437
rent	1438
chie	1439
light	1440
west	1441
try	1442
power	1443
keep	1444
##ead	1445
great	1446
days	1447
inves	1448
respo	1449
ine	1450
image	1451
wal	1452
ctor	1453
lic	1454
away	1455
cour	1456
ard	1457
##ten	1458
diffe	1459
ess	1460
hal	1461
face	1462
##ild	1463
##ner	1464
court	1465
ocial	1466
mpany	1467
tment	1468
##gan	1469
ok	1470
val	1471
campa	1472
free	1473
north	1474
##av	1475
ny	1476
numb	1477
leg	1478
##fec	1479
adv	1480
exp	1481
final	1482
eli	1483
shed	1484
##eld	1485
cross	1486
##ze	1487
##vel	1488
ience	1489
self	1490
sult	1491
women	1492
##ng	1493
big	1494
ern	1495
bla	1496
stra	1497
fra	1498
five	1499
plan	1500
##ac	1501
gr	1502
bod	1503
met	1504
lu	1505
##ani	1506
ens	1507
mod	1508
giv	1509
##jor	1510
men	1511
rela	1512
post	1513
bre	1514
tter	1515
ten	1516
ously	1517
##ms	1518
ccess	1519
tting	1520
ggest	1521
build	1522
##rol	1523
love	1524
body	1525
tch	1526
seen	1527
won	1528
chang	1529
didn	1530
block	1531
used	1532
##ames	1533
late	1534
uth	1535
av	1536
spect	1537
care	1538
##ugh	1539
ago	1540
manag	1541
took	1542
sub	1543
ew	1544
fire	1545
six	1546
lways	1547
live	1548
dr	1549
stor	1550
##ush	1551
sive	1552
enter	1553
cent	1554
opera	1555
pi	1556
later	1557
bas	1558
cult	1559
ust	1560
water	1561
tory	1562
cur	1563
tical	1564
young	1565
ean	1566
eas	1567
fic	1568
liv	1569
foot	1570
llen	1571
earch	1572
##ace	1573
cket	1574
amp	1575
velop	1576
rse	1577
##oto	1578
ral	1579
commi	1580
##ash	1581
gram	1582
eg	1583
wed	1584
grow	1585
ts	1586
talk	1587
charg	1588
went	1589
field	1590
swi	1591
hard	1592
##za	1593
edia	1594
bit	1595
ture	1596
etter	1597
cost	1598
photo	1599
bra	1600
ger	1601
shi	1602
might	1603
##ee	1604
hit	1605
major	1606
yst	1607
came	1608
curr	1609
##gu	1610
relea	1611
claim	1612
ian	1613
ms	1614
##ita	1615
inf	1616
ional	1617
ide	1618
mis	1619
nited	1620
few	1621
speak	1622
black	1623
give	1624
arri	1625
tat	1626
ystem	1627
wing	1628
sid	1629
ost	1630
model	1631
half	1632
large	1633
break	1634
low	1635
milit	1636
ball	1637
##ary	1638
dro	1639
film	1640
aying	1641
##ous	1642
lac	1643
ie	1644
pec	1645
cli	1646
deal	1647
annou	1648
meet	1649
ntial	1650
hour	1651
pict	1652
##oney	1653
hy	1654
ec	1655
ight	1656
allow	1657
rket	1658
why	1659
##bu	1660
sy	1661
littl	1662
hav	1663
hold	1664
mus	1665
white	1666
##ph	1667
lin	1668
level	1669
##ff	1670
mment	1671
ecome	1672
ssion	1673
dc	1674
ount	1675
##ork	1676
sever	1677
pass	1678
rre	1679
sea	1680
ley	1681
sat	1682
local	1683
york	1684
actio	1685
fight	1686
nov	1687
##hn	1688
##gin	1689
gress	1690
uthor	1691
##eg	1692
job	1693
forma	1694
along	1695
nut	1696
oy	1697
##ton	1698
flo	1699
##ap	1700
spo	1701
##uni	1702
money	1703
ee	1704
ossib	1705
urity	1706
vol	1707
yers	1708
room	1709
##ont	1710
pictu	1711
video	1712
count	1713
##ird	1714
hange	1715
sto	1716
sider	1717
tiga	1718
posi	1719
early	1720
momen	1721
park	1722
lock	1723
known	1724
##ub	1725
lle	1726
deli	1727
##ari	1728
name	1729
death	1730
main	1731
type	1732
date	1733
close	1734
stitu	1735
rn	1736
der	1737
stop	1738
##vea	1739
ries	1740
watch	1741
ject	1742
bb	1743
dence	1744
nf	1745
impor	1746
##ular	1747
john	1748
cess	1749
busi	1750
stic	1751
sho	1752
wro	1753
ound	1754
##ger	1755
cover	1756
find	1757
arris	1758
ook	1759
wrote	1760
nta	1761
cy	1762
tribu	1763
inj	1764
revea	1765
until	1766
mal	1767
##ai	1768
##ble	1769
activ	1770
##eth	1771
fl	1772
##atu	1773
fac	1774
role	1775
ei	1776
fini	1777
dy	1778
third	1779
reg	1780
treat	1781
##pi	1782
visit	1783
omp	1784
tech	1785
pay	1786
crea	1787
past	1788
lican	1789
gi	1790
quir	1791
hed	1792
##be	1793
chief	1794
east	1795
groun	1796
eal	1797
insta	1798
repub	1799
ritic	1800
volv	1801
ire	1802
ka	1803
##ven	1804
lie	1805
lleng	1806
ran	1807
nter	1808
front	1809
goal	1810
short	1811
gett	1812
equ	1813
ally	1814
fer	1815
due	1816
ref	1817
mean	1818
eries	1819
eat	1820
yet	1821
cial	1822
min	1823
##to	1824
orted	1825
injur	1826
um	1827
spite	1828
small	1829
##enc	1830
arent	1831
sure	1832
tand	1833
ments	1834
gaza	1835
vers	1836
20	1837
fle	1838
olo	1839
oct	1840
rd	1841
unity	1842
food	1843
tro	1844
desi	1845
resi	1846
expec	1847
page	1848
tant	1849
com	1850
geth	1851
previ	1852
rease	1853
ded	1854
lla	1855
ming	1856
text	1857
iz	1858
ton	1859
layed	1860
asked	1861
ach	1862
book	1863
race	1864
##ade	1865
engla	1866
mc	1867
nced	1868
must	1869
vio	1870
sl	1871
hope	1872
scot	1873
step	1874
ven	1875
omb	1876
##ish	1877
taken	1878
rou	1879
tax	1880
opt	1881
##ald	1882
ara	1883
comes	1884
based	1885
bor	1886
viol	1887
ned	1888
stand	1889
dre	1890
doing	1891
risk	1892
om	1893
depar	1894
onald	1895
euro	1896
abi	1897
often	1898
least	1899
today	1900
fli	1901
list	1902
ip	1903
##utu	1904
key	1905
mid	1906
nch	1907
anc	1908
duce	1909
futu	1910
anti	1911
ions	1912
done	1913
mpion	1914
fur	1915
class	1916
onday	1917
bri	1918
orn	1919
nic	1920
among	1921
human	1922
ondon	1923
eleb	1924
tue	1925
guard	1926
##rea	1927
los	1928
unday	1929
jan	1930
tail	1931
ple	1932
rod	1933
struc	1934
##ful	1935
riday	1936
umm	1937
graph	1938
fla	1939
club	1940
given	1941
wheth	1942
ism	1943
chris	1944
ntrol	1945
##by	1946
walk	1947
ials	1948
mat	1949
perc	1950
pecia	1951
elebr	1952
wards	1953
rema	1954
##gy	1955
moth	1956
driv	1957
games	1958
share	1959
iv	1960
rul	1961
duct	1962
disp	1963
remai	1964
threa	1965
ack	1966
ect	1967
sso	1968
china	1969
rch	1970
##ndi	1971
fans	1972
rtner	1973
woman	1974
featu	1975
dustr	1976
ened	1977
furth	1978
enou	1979
mul	1980
ds	1981
regio	1982
##au	1983
nning	1984
effec	1985
oup	1986
child	1987
ama	1988
data	1989
##ec	1990
##vid	1991
ngle	1992
hot	1993
rence	1994
lmo	1995
ali	1996
ren	1997
ehi	1998
##lv	1999
raise	2000
andi	2001
tempt	2002
eag	2003
ices	2004
bank	2005
kind	2006
heart	2007
move	2008
ehind	2009
depen	2010
once	2011
ick	2012
signi	2013
king	2014
isla	2015
area	2016
##une	2017
dm	2018
match	2019
thur	2020
ast	2021
ling	2022
targe	2023
bar	2024
spi	2025
glo	2026
ava	2027
pote	2028
wedne	2029
uni	2030
##ided	2031
phone	2032
ci	2033
getty	2034
stay	2035
green	2036
serve	2037
def	2038
mind	2039
ouple	2040
ummer	2041
##ua	2042
nder	2043
roduc	2044
mur	2045
ner	2046
rac	2047
weeks	2048
nner	2049
term	2050
ier	2051
ngton	2052
imm	2053
shot	2054
austr	2055
doesn	2056
fel	2057
che	2058
rance	2059
prime	2060
hours	2061
ft	2062
effor	2063
tract	2064
tect	2065
space	2066
areer	2067
fess	2068
scen	2069
hos	2070
lmost	2071
ency	2072
eign	2073
runn	2074
fund	2075
ath	2076
ail	2077
trike	2078
ctual	2079
##ob	2080
evi	2081
unc	2082
wait	2083
story	2084
cor	2085
fed	2086
saw	2087
lete	2088
music	2089
rrest	2090
using	2091
bring	2092
condi	2093
hared	2094
nge	2095
board	2096
inv	2097
ourse	2098
aring	2099
stead	2100
coll	2101
lly	2102
pal	2103
deliv	2104
cular	2105
tte	2106
idea	2107
dding	2108
hospi	2109
30	2110
tou	2111
reach	2112
secu	2113
pect	2114
finan	2115
layer	2116
ugg	2117
van	2118
##uss	2119
olicy	2120
ping	2121
alleg	2122
##ult	2123
cut	2124
techn	2125
meone	2126
plain	2127
rp	2128
rison	2129
mess	2130
repre	2131
dmini	2132
earli	2133
tors	2134
lear	2135
##irm	2136
rsity	2137
satur	2138
serva	2139
nfirm	2140
deep	2141
nutes	2142
ause	2143
##ure	2144
gar	2145
stage	2146
warn	2147
draw	2148
impac	2149
medic	2150
fy	2151
trict	2152
kid	2153
june	2154
inci	2155
ident	2156
rri	2157
held	2158
ori	2159
jour	2160
eye	2161
vote	2162
tire	2163
desc	2164
12	2165
##ns	2166
isa	2167
dot	2168
sty	2169
shop	2170
exc	2171
oil	2172
spoke	2173
lea	2174
price	2175
journ	2176
fully	2177
ye	2178
fact	2179
impro	2180
spot	2181
legal	2182
staff	2183
ught	2184
tv	2185
ene	2186
suit	2187
##eti	2188
seven	2189
gir	2190
nding	2191
tted	2192
nes	2193
word	2194
seem	2195
ourt	2196
oo	2197
atch	2198
##ara	2199
ari	2200
15	2201
tow	2202
spend	2203
ahead	2204
ped	2205
july	2206
girl	2207
died	2208
hing	2209
oter	2210
quick	2211
trip	2212
energ	2213
rtuni	2214
octob	2215
gla	2216
##ecu	2217
pain	2218
ustom	2219
grant	2220
oters	2221
felt	2222
sept	2223
defen	2224
ise	2225
lost	2226
ome	2227
ource	2228
frica	2229
bill	2230
oly	2231
wide	2232
enj	2233
briti	2234
prem	2235
ical	2236
eague	2237
arli	2238
road	2239
ski	2240
ensu	2241
cultu	2242
eight	2243
nv	2244
sal	2245
trong	2246
ber	2247
march	2248
fall	2249
ssoci	2250
ale	2251
disc	2252
##ept	2253
cru	2254
host	2255
mand	2256
uncil	2257
joe	2258
esta	2259
emerg	2260
ike	2261
##ril	2262
bad	2263
ls	2264
stice	2265
##cti	2266
ales	2267
enn	2268
##ims	2269
ake	2270
##dy	2271
lov	2272
learn	2273
means	2274
rning	2275
entra	2276
germa	2277
ib	2278
mount	2279
dead	2280
ric	2281
ering	2282
odi	2283
ility	2284
priva	2285
lieve	2286
pales	2287
que	2288
sand	2289
wife	2290
door	2291
janua	2292
tot	2293
oach	2294
oint	2295
eca	2296
avail	2297
fal	2298
april	2299
fath	2300
multi	2301
trial	2302
##org	2303
hip	2304
ash	2305
worth	2306
bed	2307
mre	2308
ones	2309
##led	2310
ont	2311
ump	2312
thi	2313
enefi	2314
mate	2315
sun	2316
abour	2317
fied	2318
sonal	2319
rim	2320
treet	2321
pagee	2322
dotco	2323
mrend	2324
ross	2325
rain	2326
georg	2327
arter	2328
ease	2329
del	2330
total	2331
eiv	2332
entre	2333
shows	2334
jud	2335
eth	2336
lco	2337
town	2338
figu	2339
nse	2340
ext	2341
nian	2342
began	2343
daugh	2344
push	2345
arriv	2346
europ	2347
ste	2348
vest	2349
##oy	2350
kno	2351
wood	2352
50	2353
ports	2354
wasn	2355
ttend	2356
..	2357
non	2358
mina	2359
##red	2360
ecame	2361
organ	2362
nnect	2363
pur	2364
era	2365
tori	2366
eni	2367
...	2368
safe	2369
messa	2370
pt	2371
unive	2372
lives	2373
dents	2374
san	2375
execu	2376
ratic	2377
nec	2378
natu	2379
yment	2380
gun	2381
ons	2382
ret	2383
pand	2384
audi	2385
box	2386
ubli	2387
explo	2388
lk	2389
mic	2390
super	2391
cup	2392
ially	2393
eb	2394
begin	2395
leav	2396
dru	2397
lim	2398
makes	2399
footb	2400
eliev	2401
plans	2402
ision	2403
ntid	2404
track	2405
eleme	2406
elf	2407
sch	2408
addre	2409
owner	2410
ample	2411
globa	2412
false	2413
cade	2414
ressu	2415
locke	2416
vari	2417
tit	2418
##get	2419
eived	2420
squ	2421
mpeti	2422
scotl	2423
cas	2424
roach	2425
lica	2426
milar	2427
rate	2428
rr	2429
situ	2430
washi	2431
needs	2432
ors	2433
scuss	2434
ition	2435
press	2436
ccuse	2437
scene	2438
situa	2439
rise	2440
ncer	2441
nomic	2442
qui	2443
neg	2444
ised	2445
heat	2446
writ	2447
edly	2448
##ety	2449
ko	2450
ffer	2451
diffi	2452
bj	2453
ban	2454
verag	2455
##sh	2456
apita	2457
true	2458
versa	2459
cast	2460
cra	2461
seri	2462
ffic	2463
hamas	2464
afety	2465
pen	2466
espec	2467
ily	2468
##ml	2469
store	2470
olymp	2471
cip	2472
link	2473
tent	2474
tely	2475
arm	2476
feder	2477
atter	2478
ingly	2479
title	2480
erio	2481
agenc	2482
check	2483
##act	2484
soon	2485
lid	2486
buy	2487
rest	2488
disa	2489
cing	2490
html	2491
ounty	2492
fre	2493
tten	2494
brand	2495
leave	2496
mains	2497
eriod	2498
racti	2499
enjoy	2500
else	2501
rupt	2502
sle	2503
fore	2504
sell	2505
huge	2506
ars	2507
ray	2508
rrow	2509
##let	2510
tates	2511
ert	2512
ctim	2513
11	2514
anies	2515
cali	2516
ugust	2517
tes	2518
fast	2519
##sio	2520
dev	2521
inten	2522
neede	2523
rib	2524
ssing	2525
dama	2526
civ	2527
ood	2528
dit	2529
pular	2530
agree	2531
pm	2532
calif	2533
eith	2534
maker	2535
site	2536
heav	2537
diate	2538
nent	2539
imme	2540
creat	2541
lth	2542
pack	2543
optio	2544
lain	2545
speci	2546
nomy	2547
fine	2548
nyone	2549
ez	2550
cot	2551
ating	2552
ani	2553
docu	2554
dates	2555
iled	2556
crime	2557
gain	2558
minal	2559
cter	2560
repar	2561
##form	2562
dv	2563
tinia	2564
value	2565
meas	2566
quite	2567
sli	2568
##ef	2569
##gni	2570
nsib	2571
reaso	2572
ncern	2573
feb	2574
ead	2575
bel	2576
gold	2577
whole	2578
ways	2579
lue	2580
ory	2581
firm	2582
damag	2583
den	2584
chara	2585
oast	2586
cce	2587
rath	2588
rank	2589
nda	2590
ommon	2591
shoot	2592
tress	2593
lthou	2594
secre	2595
drug	2596
ere	2597
fen	2598
fence	2599
reat	2600
affec	2601
ccept	2602
oss	2603
tform	2604
ig	2605
oin	2606
encou	2607
eer	2608
ull	2609
pos	2610
civil	2611
gani	2612
ony	2613
tm	2614
uro	2615
measu	2616
ganiz	2617
oppos	2618
ornia	2619
25	2620
loss	2621
laims	2622
ado	2623
ould	2624
cipa	2625
howed	2626
len	2627
seek	2628
spl	2629
bat	2630
stant	2631
aid	2632
ety	2633
18	2634
ins	2635
mum	2636
##ney	2637
dou	2638
rown	2639
anal	2640
nam	2641
bbc	2642
sba	2643
tn	2644
hood	2645
isn	2646
rself	2647
idual	2648
abili	2649
harm	2650
tary	2651
usual	2652
bus	2653
gri	2654
env	2655
range	2656
fear	2657
lar	2658
wn	2659
educ	2660
ative	2661
bate	2662
lower	2663
ita	2664
suc	2665
confi	2666
ssa	2667
enior	2668
thr	2669
pply	2670
erc	2671
ics	2672
lliam	2673
dom	2674
hance	2675
sband	2676
ppe	2677
score	2678
remo	2679
sav	2680
terri	2681
blem	2682
beau	2683
nsw	2684
male	2685
amb	2686
pie	2687
path	2688
wrong	2689
ford	2690
equi	2691
teg	2692
indiv	2693
sex	2694
lett	2695
pit	2696
ctory	2697
scor	2698
pub	2699
##hic	2700
ery	2701
david	2702
bur	2703
sla	2704
poll	2705
roll	2706
fill	2707
ompar	2708
gular	2709
venue	2710
##ori	2711
sults	2712
les	2713
pick	2714
murd	2715
hen	2716
fair	2717
gave	2718
refu	2719
ancer	2720
rl	2721
prev	2722
bab	2723
dic	2724
tient	2725
40	2726
udget	2727
beat	2728
paris	2729
happy	2730
ribed	2731
sis	2732
13	2733
infla	2734
yer	2735
tom	2736
exist	2737
admi	2738
##ka	2739
rel	2740
stat	2741
sold	2742
ndu	2743
areas	2744
ollec	2745
laced	2746
splay	2747
sist	2748
div	2749
regi	2750
ening	2751
engag	2752
tance	2753
sky	2754
textb	2755
whose	2756
ester	2757
boy	2758
sense	2759
ney	2760
llow	2761
rv	2762
creen	2763
bs	2764
ogni	2765
heard	2766
remov	2767
origi	2768
ax	2769
phil	2770
doub	2771
vehic	2772
offen	2773
##cus	2774
ock	2775
ata	2776
legi	2777
spent	2778
pee	2779
extra	2780
via	2781
flic	2782
ane	2783
az	2784
fense	2785
nduct	2786
pris	2787
xi	2788
prov	2789
earn	2790
ridge	2791
flict	2792
unch	2793
actor	2794
nomin	2795
rench	2796
paid	2797
liday	2798
lan	2799
dio	2800
dcast	2801
uck	2802
zz	2803
paper	2804
ore	2805
logi	2806
thank	2807
bably	2808
owl	2809
ula	2810
pool	2811
ppeal	2812
dium	2813
arlia	2814
judge	2815
16	2816
cou	2817
uring	2818
educa	2819
plo	2820
cons	2821
kids	2822
14	2823
base	2824
peech	2825
fect	2826
clean	2827
grand	2828
nally	2829
costs	2830
deb	2831
hys	2832
cases	2833
llege	2834
arg	2835
join	2836
bir	2837
okes	2838
avo	2839
gone	2840
gula	2841
ology	2842
rices	2843
eed	2844
focus	2845
chiev	2846
##inc	2847
exual	2848
cerns	2849
lays	2850
ira	2851
appro	2852
ov	2853
hoice	2854
##ah	2855
alia	2856
##ew	2857
ark	2858
rats	2859
telli	2860
tness	2861
james	2862
anger	2863
ably	2864
ttee	2865
easy	2866
erous	2867
yn	2868
tried	2869
squa	2870
tatio	2871
febru	2872
ital	2873
para	2874
prise	2875
gro	2876
hr	2877
ish	2878
tric	2879
refer	2880
onsum	2881
influ	2882
urope	2883
ept	2884
shire	2885
colla	2886
##unc	2887
nnel	2888
envir	2889
ili	2890
iran	2891
onmen	2892
occ	2893
trust	2894
clima	2895
sands	2896
git	2897
ther	2898
ona	2899
onfe	2900
tex	2901
dog	2902
gree	2903
nine	2904
ual	2905
assi	2906
lab	2907
locat	2908
nst	2909
sti	2910
immi	2911
ining	2912
study	2913
birth	2914
chair	2915
analy	2916
ja	2917
tmas	2918
jack	2919
ought	2920
crow	2921
size	2922
nct	2923
lling	2924
stock	2925
mse	2926
uggl	2927
mf	2928
ental	2929
takes	2930
table	2931
nswer	2932
avoid	2933
send	2934
shock	2935
rant	2936
lack	2937
rag	2938
knew	2939
risis	2940
dia	2941
esca	2942
neigh	2943
cir	2944
mine	2945
wants	2946
hear	2947
termi	2948
volu	2949
stori	2950
ritai	2951
epi	2952
ami	2953
movie	2954
gent	2955
crowd	2956
hysic	2957
fford	2958
mselv	2959
mfort	2960
rney	2961
umb	2962
qua	2963
pair	2964
creas	2965
torm	2966
ken	2967
sport	2968
launc	2969
rimar	2970
sort	2971
peace	2972
olly	2973
touch	2974
loved	2975
rite	2976
##ars	2977
excit	2978
ditio	2979
ride	2980
abo	2981
rian	2982
ferr	2983
lent	2984
ina	2985
addi	2986
ps	2987
tics	2988
cided	2989
esse	2990
rush	2991
wea	2992
##ilt	2993
tour	2994
fav	2995
chael	2996
ain	2997
ator	2998
solu	2999
ndard	3000
pull	3001
nel	3002
cans	3003
drink	3004
lash	3005
##cl	3006
moved	3007
kick	3008
lish	3009
paul	3010
battl	3011
ese	3012
erry	3013
osted	3014
weapo	3015
terms	3016
plant	3017
settl	3018
sse	3019
ater	3020
pread	3021
ndred	3022
teen	3023
prior	3024
easi	3025
ema	3026
fan	3027
itial	3028
ntact	3029
estab	3030
named	3031
geria	3032
aj	3033
smith	3034
istan	3035
homes	3036
ntent	3037
stain	3038
annot	3039
occu	3040
ya	3041
hop	3042
menta	3043
tream	3044
ssess	3045
gned	3046
aware	3047
slow	3048
bst	3049
ura	3050
hair	3051
ans	3052
24	3053
eil	3054
emplo	3055
17	3056
throw	3057
bag	3058
erg	3059
ttle	3060
dden	3061
nk	3062
pper	3063
carry	3064
relat	3065
aint	3066
dam	3067
ized	3068
ians	3069
sci	3070
rew	3071
quo	3072
ades	3073
sions	3074
voice	3075
##tai	3076
yd	3077
treme	3078
teach	3079
mmuni	3080
ontr	3081
stanc	3082
lines	3083
hedul	3084
ana	3085
lip	3086
focu	3087
rg	3088
estim	3089
terna	3090
zen	3091
##ula	3092
spir	3093
posed	3094
row	3095
wled	3096
ston	3097
promi	3098
skin	3099
nese	3100
looks	3101
aily	3102
miss	3103
rules	3104
wledg	3105
perty	3106
teams	3107
mit	3108
ature	3109
fox	3110
teria	3111
award	3112
rates	3113
dvanc	3114
ober	3115
ool	3116
##ts	3117
poor	3118
ile	3119
igned	3120
ior	3121
clar	3122
kh	3123
ky	3124
senta	3125
epara	3126
drive	3127
sleep	3128
dar	3129
ku	3130
gital	3131
rote	3132
ttent	3133
ector	3134
oke	3135
seat	3136
ole	3137
pet	3138
goes	3139
intro	3140
intai	3141
oon	3142
rad	3143
manch	3144
nings	3145
dal	3146
signa	3147
va	3148
tab	3149
wall	3150
yal	3151
arra	3152
inly	3153
redi	3154
hose	3155
##hav	3156
ducts	3157
gard	3158
amera	3159
views	3160
vided	3161
leag	3162
##cov	3163
trade	3164
ouldn	3165
ace	3166
llar	3167
ype	3168
ason	3169
ada	3170
nned	3171
bso	3172
born	3173
rich	3174
broth	3175
eeing	3176
charl	3177
rotec	3178
bsolu	3179
ega	3180
raz	3181
irela	3182
pitch	3183
##ya	3184
drop	3185
styl	3186
##com	3187
built	3188
ounda	3189
jap	3190
unit	3191
nging	3192
issed	3193
japan	3194
##ret	3195
exten	3196
ecret	3197
ealth	3198
fresh	3199
cotti	3200
hands	3201
ffa	3202
drama	3203
ich	3204
mart	3205
ream	3206
amid	3207
scar	3208
cale	3209
ctors	3210
rb	3211
ade	3212
ended	3213
broad	3214
leagu	3215
ys	3216
defe	3217
train	3218
runs	3219
spr	3220
ssful	3221
andr	3222
cana	3223
email	3224
tz	3225
edi	3226
ala	3227
ifi	3228
embl	3229
lcome	3230
gan	3231
kore	3232
alm	3233
##que	3234
haps	3235
roper	3236
riv	3237
stake	3238
ords	3239
succe	3240
okesp	3241
korea	3242
yard	3243
ero	3244
nvict	3245
io	3246
ola	3247
sia	3248
loy	3249
kt	3250
cky	3251
norma	3252
hotel	3253
craft	3254
spec	3255
limit	3256
nger	3257
alex	3258
alone	3259
tests	3260
llage	3261
aus	3262
fru	3263
col	3264
ength	3265
behav	3266
retty	3267
lose	3268
shift	3269
above	3270
ghout	3271
opula	3272
ommit	3273
lf	3274
ange	3275
wei	3276
rviv	3277
defea	3278
stry	3279
cry	3280
ler	3281
arb	3282
rof	3283
gets	3284
blood	3285
card	3286
blems	3287
ached	3288
scr	3289
nest	3290
words	3291
uts	3292
bsite	3293
save	3294
imply	3295
nnual	3296
texas	3297
loyee	3298
wear	3299
gue	3300
ora	3301
ounts	3302
yo	3303
reli	3304
ang	3305
dream	3306
phi	3307
illeg	3308
sit	3309
rai	3310
rden	3311
sight	3312
weath	3313
sens	3314
bort	3315
plea	3316
ising	3317
fell	3318
publi	3319
parts	3320
mala	3321
tails	3322
thlet	3323
sequ	3324
nap	3325
rsen	3326
obert	3327
tough	3328
ific	3329
mbl	3330
urg	3331
dest	3332
dani	3333
mad	3334
fuel	3335
tives	3336
tele	3337
versi	3338
ddle	3339
noted	3340
ope	3341
centu	3342
flori	3343
ified	3344
ktok	3345
aight	3346
zone	3347
calls	3348
oined	3349
dult	3350
las	3351
rtist	3352
seems	3353
ave	3354
lt	3355
cked	3356
sca	3357
mmy	3358
arrie	3359
lus	3360
tone	3361
eyo	3362
spond	3363
dad	3364
nion	3365
sault	3366
ots	3367
putin	3368
eyond	3369
gas	3370
ose	3371
sound	3372
pple	3373
urant	3374
goals	3375
oost	3376
preme	3377
ecu	3378
rve	3379
rgin	3380
olor	3381
ique	3382
tera	3383
inger	3384
anon	3385
wild	3386
losed	3387
kept	3388
erti	3389
imag	3390
vet	3391
thu	3392
tto	3393
cash	3394
tiful	3395
sses	3396
enger	3397
medi	3398
gic	3399
tly	3400
famou	3401
harry	3402
log	3403
baby	3404
dropp	3405
fun	3406
bet	3407
perts	3408
ove	3409
rare	3410
propo	3411
ngele	3412
citi	3413
ank	3414
semi	3415
provi	3416
rob	3417
citiz	3418
cept	3419
eem	3420
ode	3421
rock	3422
syl	3423
lat	3424
##mor	3425
agg	3426
jobs	3427
whe	3428
ets	3429
aylo	3430
obvi	3431
rvey	3432
21	3433
nth	3434
oot	3435
alanc	3436
lift	3437
argu	3438
argue	3439
22	3440
nh	3441
nica	3442
exact	3443
expen	3444
cious	3445
sam	3446
bili	3447
aning	3448
exic	3449
users	3450
floo	3451
bt	3452
greed	3453
essio	3454
ayo	3455
ird	3456
aused	3457
rash	3458
arc	3459
sett	3460
artin	3461
ik	3462
conc	3463
rom	3464
uper	3465
eive	3466
union	3467
pop	3468
warm	3469
matt	3470
pande	3471
nia	3472
ze	3473
shion	3474
memor	3475
ith	3476
ried	3477
dress	3478
vic	3479
ssive	3480
oyal	3481
piece	3482
df	3483
resta	3484
commu	3485
indi	3486
lace	3487
tha	3488
band	3489
nsist	3490
omen	3491
rity	3492
sod	3493
mise	3494
rince	3495
amin	3496
100	3497
missi	3498
gence	3499
enate	3500
ntest	3501
disco	3502
sets	3503
flect	3504
aren	3505
urch	3506
ngu	3507
ife	3508
trou	3509
rofit	3510
fly	3511
pace	3512
ppo	3513
ower	3514
assed	3515
mited	3516
oh	3517
mach	3518
laugh	3519
ben	3520
een	3521
ech	3522
##ces	3523
urge	3524
pic	3525
stiv	3526
lam	3527
ees	3528
predi	3529
mony	3530
idd	3531
tick	3532
60	3533
##gr	3534
tend	3535
outh	3536
oti	3537
duc	3538
ills	3539
atri	3540
eats	3541
yan	3542
zon	3543
pose	3544
ages	3545
ngli	3546
ordin	3547
aim	3548
lad	3549
uct	3550
19	3551
ree	3552
geo	3553
ually	3554
rack	3555
mcc	3556
ipl	3557
rry	3558
meant	3559
ists	3560
plann	3561
equa	3562
twi	3563
ommen	3564
faced	3565
cies	3566
emi	3567
rap	3568
facil	3569
ombin	3570
fying	3571
pin	3572
ure	3573
ister	3574
artic	3575
pse	3576
ndow	3577
typ	3578
urna	3579
esses	3580
song	3581
etic	3582
handl	3583
mos	3584
sale	3585
oat	3586
oes	3587
oft	3588
dark	3589
eta	3590
rmy	3591
atto	3592
##ott	3593
alist	3594
gua	3595
touri	3596
dg	3597
wer	3598
tches	3599
nstra	3600
--	3601
mor	3602
rely	3603
advis	3604
iance	3605
mich	3606
lied	3607
llah	3608
asio	3609
ift	3610
sn	3611
lding	3612
irs	3613
llega	3614
rried	3615
eptio	3616
arol	3617
ium	3618
die	3619
nti	3620
ively	3621
dow	3622
nb	3623
goo	3624
valu	3625
dang	3626
fica	3627
gs	3628
lb	3629
dor	3630
lec	3631
nds	3632
nna	3633
tars	3634
item	3635
ction	3636
busin	3637
eld	3638
itt	3639
ico	3640
abuse	3641
onto	3642
nts	3643
pped	3644
utter	3645
bora	3646
vita	3647
shing	3648
riz	3649
guil	3650
aught	3651
rcha	3652
torie	3653
otion	3654
rner	3655
ander	3656
ghan	3657
hole	3658
stric	3659
mt	3660
sten	3661
sente	3662
cell	3663
laces	3664
dern	3665
hat	3666
nty	3667
bject	3668
bio	3669
ww	3670
dance	3671
hall	3672
enne	3673
##lie	3674
bum	3675
addit	3676
rule	3677
cue	3678
jec	3679
ano	3680
urb	3681
ortun	3682
ncy	3683
rpor	3684
enal	3685
urr	3686
ides	3687
flu	3688
stab	3689
nny	3690
elen	3691
rival	3692
cau	3693
dee	3694
rab	3695
etch	3696
eter	3697
nance	3698
ink	3699
maz	3700
moni	3701
23	3702
esi	3703
usk	3704
eva	3705
plane	3706
wri	3707
hol	3708
phy	3709
ffici	3710
mir	3711
mile	3712
miles	3713
cycl	3714
nvent	3715
lour	3716
pres	3717
hic	3718
heme	3719
ncing	3720
bjp	3721
eep	3722
lex	3723
ji	3724
pil	3725
ench	3726
write	3727
ntion	3728
mpt	3729
certa	3730
destr	3731
aci	3732
eek	3733
eau	3734
becom	3735
heir	3736
ram	3737
etro	3738
imple	3739
ille	3740
choo	3741
fix	3742
elt	3743
rh	3744
##inu	3745
ork	3746
aba	3747
fail	3748
impl	3749
lter	3750
uri	3751
##lec	3752
rief	3753
urn	3754
terro	3755
arth	3756
nice	3757
eet	3758
alt	3759
otes	3760
27	3761
ntinu	3762
ubt	3763
older	3764
uke	3765
gger	3766
odd	3767
nctio	3768
vent	3769
rect	3770
stle	3771
tim	3772
tip	3773
isco	3774
gle	3775
wag	3776
##da	3777
deter	3778
wave	3779
colle	3780
neces	3781
eing	3782
gna	3783
mari	3784
ntage	3785
burg	3786
##ea	3787
ewer	3788
28	3789
amme	3790
eff	3791
broke	3792
ceo	3793
favou	3794
spen	3795
eemed	3796
tedly	3797
bott	3798
ely	3799
fat	3800
vs	3801
olls	3802
gno	3803
redib	3804
ged	3805
kate	3806
iling	3807
stri	3808
roo	3809
overs	3810
trend	3811
ulti	3812
roup	3813
26	3814
dica	3815
tus	3816
uc	3817
yl	3818
till	3819
neu	3820
oting	3821
racy	3822
hell	3823
mbi	3824
basi	3825
user	3826
ahu	3827
ckets	3828
usa	3829
ague	3830
og	3831
ses	3832
uch	3833
cow	3834
hase	3835
cn	3836
teve	3837
sena	3838
rally	3839
hang	3840
cb	3841
uty	3842
solv	3843
asta	3844
bera	3845
ible	3846
mas	3847
sir	3848
wan	3849
ited	3850
mps	3851
emot	3852
alian	3853
kin	3854
sb	3855
xed	3856
spee	3857
ssist	3858
vour	3859
una	3860
eir	3861
mote	3862
rger	3863
##ana	3864
vered	3865
insu	3866
yri	3867
nton	3868
nied	3869
uggle	3870
burn	3871
ron	3872
ats	3873
entr	3874
ntain	3875
elect	3876
engin	3877
shar	3878
ories	3879
manu	3880
ecure	3881
sts	3882
stly	3883
noo	3884
selec	3885
style	3886
rror	3887
axi	3888
eck	3889
weet	3890
gate	3891
pot	3892
ury	3893
grad	3894
29	3895
uel	3896
ants	3897
alla	3898
ybe	3899
retai	3900
lease	3901
nis	3902
tur	3903
tep	3904
sum	3905
soci	3906
cam	3907
olid	3908
sary	3909
apo	3910
pecta	3911
allie	3912
note	3913
feet	3914
endo	3915
ately	3916
ueen	3917
gb	3918
nz	3919
tist	3920
ware	3921
trad	3922
ult	3923
lton	3924
tual	3925
stin	3926
spira	3927
llo	3928
wind	3929
dies	3930
fec	3931
eason	3932
dan	3933
##ni	3934
ined	3935
sual	3936
progr	3937
ames	3938
ald	3939
wish	3940
shes	3941
rand	3942
ein	3943
mac	3944
ancel	3945
gy	3946
hei	3947
urces	3948
oys	3949
oday	3950
tla	3951
##rov	3952
rame	3953
scott	3954
tude	3955
ceed	3956
bn	3957
oral	3958
dated	3959
egr	3960
ute	3961
logy	3962
aro	3963
lv	3964
ndy	3965
gl	3966
pat	3967
info	3968
accu	3969
eh	3970
hill	3971
vac	3972
gov	3973
flow	3974
aster	3975
pid	3976
sad	3977
rose	3978
guy	3979
ego	3980
bl	3981
erci	3982
gage	3983
mou	3984
eran	3985
oph	3986
apped	3987
ologi	3988
troo	3989
circ	3990
lev	3991
disap	3992
laws	3993
testi	3994
lined	3995
ssel	3996
hain	3997
mend	3998
verse	3999
ceiv	4000
rus	4001
rea	4002
att	4003
orce	4004
mob	4005
rmed	4006
mix	4007
aged	4008
hank	4009
ardi	4010
ests	4011
stone	4012
enda	4013
mma	4014
pho	4015
80	4016
lean	4017
abs	4018
##iz	4019
heri	4020
elle	4021
asons	4022
lega	4023
ular	4024
yed	4025
nded	4026
hor	4027
plu	4028
tiona	4029
urk	4030
vert	4031
lls	4032
ledg	4033
www	4034
tian	4035
worst	4036
marri	4037
iddle	4038
lm	4039
rist	4040
##os	4041
uses	4042
ells	4043
nute	4044
ker	4045
rone	4046
opin	4047
osh	4048
rra	4049
ates	4050
sib	4051
azi	4052
liz	4053
file	4054
visio	4055
ectio	4056
scien	4057
py	4058
enha	4059
ela	4060
reath	4061
wash	4062
rill	4063
ustin	4064
wins	4065
ounds	4066
sman	4067
uctur	4068
arms	4069
broa	4070
bour	4071
tery	4072
ssed	4073
rish	4074
gns	4075
sym	4076
dry	4077
hut	4078
lum	4079
wers	4080
duced	4081
eam	4082
lau	4083
ndon	4084
hara	4085
nj	4086
tb	4087
iga	4088
asis	4089
lob	4090
dut	4091
iers	4092
uff	4093
otor	4094
reduc	4095
och	4096
ensio	4097
rize	4098
iver	4099
ox	4100
pani	4101
meth	4102
bert	4103
anima	4104
matic	4105
erse	4106
nim	4107
initi	4108
eder	4109
hab	4110
70	4111
kan	4112
nsi	4113
ense	4114
rinc	4115
ingh	4116
sey	4117
alls	4118
ooks	4119
ij	4120
itch	4121
ify	4122
rug	4123
ddit	4124
mmer	4125
ii	4126
rev	4127
leng	4128
vice	4129
pprov	4130
ends	4131
udge	4132
avi	4133
desp	4134
reso	4135
lee	4136
rchi	4137
sted	4138
cript	4139
nus	4140
xu	4141
ino	4142
inn	4143
err	4144
mmit	4145
31	4146
ize	4147
ckle	4148
joy	4149
empt	4150
denc	4151
ix	4152
iou	4153
capt	4154
nak	4155
nly	4156
load	4157
dian	4158
igger	4159
vor	4160
lp	4161
arl	4162
ateg	4163
mass	4164
thea	4165
anda	4166
aug	4167
eets	4168
bly	4169
acy	4170
ui	4171
edge	4172
ences	4173
stea	4174
larg	4175
lso	4176
rade	4177
hai	4178
tta	4179
ello	4180
essed	4181
core	4182
lies	4183
repea	4184
dicat	4185
db	4186
##wa	4187
stro	4188
ena	4189
alit	4190
anni	4191
princ	4192
farm	4193
dge	4194
oe	4195
ovid	4196
flat	4197
toria	4198
cat	4199
mani	4200
uma	4201
heer	4202
lend	4203
mble	4204
ppose	4205
chu	4206
loan	4207
reci	4208
tiva	4209
ush	4210
strat	4211
iller	4212
ella	4213
secur	4214
gon	4215
oul	4216
requ	4217
chel	4218
offe	4219
twe	4220
icked	4221
strik	4222
sg	4223
iser	4224
dex	4225
chem	4226
mph	4227
grew	4228
llie	4229
bon	4230
jer	4231
mist	4232
nas	4233
rans	4234
ntly	4235
oney	4236
guid	4237
ube	4238
anta	4239
bru	4240
oad	4241
uis	4242
rail	4243
acci	4244
lap	4245
dly	4246
ea	4247
eut	4248
entu	4249
pplie	4250
ruit	4251
istic	4252
terr	4253
nhs	4254
kes	4255
illa	4256
circu	4257
anna	4258
ribe	4259
ett	4260
rout	4261
vot	4262
##ki	4263
##ury	4264
##unt	4265
iding	4266
90	4267
ging	4268
ild	4269
oid	4270
tan	4271
ym	4272
rape	4273
nfl	4274
rante	4275
35	4276
oud	4277
llian	4278
cr	4279
pan	4280
eri	4281
ads	4282
ears	4283
iar	4284
jam	4285
mort	4286
nou	4287
ror	4288
oted	4289
cs	4290
jury	4291
pping	4292
peat	4293
imon	4294
lief	4295
hree	4296
##fic	4297
ndra	4298
cker	4299
ollow	4300
hm	4301
lon	4302
oom	4303
uli	4304
##bi	4305
nnes	4306
rej	4307
hef	4308
affi	4309
rum	4310
yr	4311
hau	4312
aling	4313
lem	4314
convi	4315
aches	4316
ek	4317
gap	4318
dism	4319
forms	4320
minu	4321
mot	4322
ymp	4323
cline	4324
nato	4325
obi	4326
rei	4327
iting	4328
tima	4329
tti	4330
eath	4331
rice	4332
usse	4333
ngr	4334
marc	4335
##ono	4336
tag	4337
preci	4338
ntic	4339
unds	4340
ewi	4341
ected	4342
danc	4343
hone	4344
nci	4345
voca	4346
ites	4347
abu	4348
ender	4349
orda	4350
fou	4351
egg	4352
sin	4353
scov	4354
ito	4355
draft	4356
nish	4357
evin	4358
dn	4359
asion	4360
lder	4361
hrist	4362
ved	4363
zer	4364
ato	4365
aga	4366
ddl	4367
sco	4368
##cy	4369
supp	4370
porta	4371
docum	4372
irec	4373
jpe	4374
loca	4375
spa	4376
wake	4377
assa	4378
acked	4379
jpeg	4380
ipe	4381
lance	4382
nie	4383
za	4384
rex	4385
arr	4386
elly	4387
rough	4388
din	4389
aur	4390
eap	4391
tast	4392
ete	4393
gest	4394
##ja	4395
river	4396
rious	4397
uta	4398
lub	4399
eeds	4400
##bc	4401
tact	4402
scri	4403
num	4404
hyd	4405
eces	4406
tank	4407
wil	4408
yle	4409
sue	4410
zens	4411
cio	4412
gli	4413
jr	4414
nha	4415
pol	4416
nimal	4417
oca	4418
oman	4419
ria	4420
vast	4421
ings	4422
lying	4423
ents	4424
compl	4425
anks	4426
pers	4427
ament	4428
imb	4429
rav	4430
grab	4431
wns	4432
##ան	4433
esh	4434
ourne	4435
nca	4436
romot	4437
ime	4438
mba	4439
oms	4440
usi	4441
wine	4442
mys	4443
##go	4444
rick	4445
ite	4446
nde	4447
lled	4448
assin	4449
hate	4450
hare	4451
tora	4452
erman	4453
aske	4454
bout	4455
cate	4456
lst	4457
yes	4458
ypt	4459
tea	4460
dict	4461
##sa	4462
erra	4463
ghts	4464
hire	4465
ces	4466
rti	4467
lame	4468
ays	4469
nces	4470
edu	4471
erate	4472
ativ	4473
ota	4474
anned	4475
kit	4476
##fa	4477
hew	4478
proc	4479
dua	4480
sked	4481
surge	4482
45	4483
sting	4484
leak	4485
ghly	4486
ospi	4487
ung	4488
##unk	4489
ams	4490
auti	4491
cia	4492
tle	4493
inco	4494
ups	4495
ody	4496
judg	4497
ame	4498
rst	4499
lib	4500
ligi	4501
lta	4502
lari	4503
##ley	4504
cting	4505
rsh	4506
ols	4507
exi	4508
peak	4509
recov	4510
sume	4511
franc	4512
rred	4513
fruit	4514
angel	4515
smo	4516
ager	4517
scrib	4518
sas	4519
raw	4520
rie	4521
peri	4522
ermi	4523
afp	4524
ndem	4525
opi	4526
otic	4527
antly	4528
enced	4529
rey	4530
roy	4531
paren	4532
eligi	4533
reb	4534
edica	4535
ulat	4536
36	4537
lity	4538
nfor	4539
uf	4540
waste	4541
swa	4542
ivity	4543
dh	4544
ked	4545
kil	4546
lav	4547
enni	4548
ied	4549
pto	4550
rage	4551
gni	4552
ipa	4553
pment	4554
rink	4555
alk	4556
arry	4557
enny	4558
reh	4559
dyna	4560
nchi	4561
bal	4562
erna	4563
unco	4564
acco	4565
sna	4566
ua	4567
rust	4568
##ey	4569
anic	4570
aire	4571
oked	4572
consu	4573
cine	4574
mong	4575
vil	4576
##ու	4577
react	4578
bell	4579
nga	4580
illy	4581
arv	4582
gop	4583
cnn	4584
entir	4585
adm	4586
nting	4587
mber	4588
grat	4589
ewis	4590
##ute	4591
sus	4592
bai	4593
elief	4594
mcd	4595
rpris	4596
scape	4597
eve	4598
vla	4599
##no	4600
als	4601
overt	4602
tum	4603
cert	4604
thes	4605
ede	4606
god	4607
mom	4608
oper	4609
amm	4610
truck	4611
200	4612
omin	4613
ici	4614
tec	4615
iro	4616
rma	4617
lik	4618
uter	4619
iles	4620
lots	4621
ongs	4622
lers	4623
anag	4624
obil	4625
ae	4626
lice	4627
pra	4628
ws	4629
trac	4630
rter	4631
tine	4632
zo	4633
sel	4634
scal	4635
tree	4636
ves	4637
memo	4638
wat	4639
ils	4640
ilita	4641
econo	4642
mcg	4643
aimed	4644
coun	4645
hio	4646
none	4647
enu	4648
siv	4649
ario	4650
rimin	4651
ption	4652
wheel	4653
trol	4654
erful	4655
alter	4656
seiz	4657
ica	4658
##oul	4659
arch	4660
lyn	4661
ards	4662
rgen	4663
tari	4664
essi	4665
bol	4666
wond	4667
max	4668
tock	4669
orry	4670
arah	4671
kim	4672
rf	4673
viv	4674
arre	4675
scu	4676
mes	4677
alent	4678
afah	4679
acts	4680
cbs	4681
eel	4682
rine	4683
detai	4684
lake	4685
hoc	4686
cab	4687
ids	4688
rson	4689
eaten	4690
34	4691
lia	4692
airs	4693
veni	4694
pel	4695
statu	4696
onent	4697
ase	4698
asur	4699
chan	4700
sher	4701
oug	4702
resc	4703
lva	4704
vid	4705
iness	4706
credi	4707
oking	4708
tens	4709
hore	4710
rby	4711
ough	4712
aking	4713
ila	4714
alo	4715
rave	4716
sian	4717
icit	4718
lands	4719
uce	4720
zing	4721
##ko	4722
shoul	4723
nson	4724
fest	4725
imi	4726
##we	4727
onne	4728
pha	4729
deni	4730
tabl	4731
hra	4732
mail	4733
dive	4734
ocal	4735
llect	4736
ompli	4737
hout	4738
yth	4739
adi	4740
ette	4741
antic	4742
favo	4743
nves	4744
yb	4745
atic	4746
deo	4747
une	4748
ngers	4749
aca	4750
ocate	4751
jac	4752
rint	4753
tled	4754
rable	4755
aper	4756
succ	4757
logic	4758
duty	4759
33	4760
eon	4761
gang	4762
ras	4763
##ese	4764
prop	4765
ntee	4766
ours	4767
duca	4768
ller	4769
keen	4770
eport	4771
erri	4772
oni	4773
aller	4774
ngs	4775
rty	4776
aybe	4777
arts	4778
aving	4779
rena	4780
iet	4781
mn	4782
isit	4783
orri	4784
noc	4785
gency	4786
thers	4787
vladi	4788
oro	4789
rang	4790
atta	4791
##usto	4792
acr	4793
admit	4794
ield	4795
noun	4796
tun	4797
zi	4798
wel	4799
siz	4800
stern	4801
ngla	4802
ffs	4803
augh	4804
drew	4805
rring	4806
mitt	4807
vir	4808
vant	4809
tied	4810
afe	4811
risti	4812
onger	4813
roof	4814
gym	4815
mme	4816
nl	4817
tein	4818
fee	4819
ript	4820
osp	4821
aa	4822
muse	4823
inde	4824
atm	4825
weigh	4826
seas	4827
dual	4828
nai	4829
arked	4830
32	4831
nba	4832
web	4833
##key	4834
feed	4835
ommo	4836
amily	4837
eak	4838
kha	4839
zed	4840
unter	4841
rming	4842
custo	4843
inner	4844
covid	4845
expo	4846
amon	4847
acro	4848
merg	4849
tiny	4850
motio	4851
iam	4852
oli	4853
pou	4854
idi	4855
haw	4856
navi	4857
aker	4858
satio	4859
##ons	4860
rem	4861
lind	4862
awn	4863
brit	4864
uman	4865
stal	4866
rop	4867
inti	4868
hough	4869
epre	4870
error	4871
aims	4872
hrou	4873
estiv	4874
moder	4875
oyed	4876
oard	4877
conti	4878
aya	4879
ott	4880
grate	4881
bbi	4882
eti	4883
km	4884
ugh	4885
yi	4886
tie	4887
mag	4888
esla	4889
ajor	4890
erial	4891
unf	4892
tap	4893
ropo	4894
dist	4895
ient	4896
wy	4897
thy	4898
iti	4899
fees	4900
llis	4901
trees	4902
nclu	4903
osed	4904
sim	4905
tar	4906
reast	4907
tac	4908
ndent	4909
urs	4910
eler	4911
tured	4912
aria	4913
48	4914
bes	4915
gal	4916
##ora	4917
abha	4918
diet	4919
labor	4920
bay	4921
oma	4922
ored	4923
loo	4924
hero	4925
expan	4926
eader	4927
eo	4928
uit	4929
colo	4930
snp	4931
jim	4932
nders	4933
anno	4934
taste	4935
37	4936
##do	4937
erty	4938
chest	4939
mill	4940
els	4941
ayne	4942
hro	4943
lc	4944
lass	4945
ishi	4946
atu	4947
enci	4948
chol	4949
rip	4950
works	4951
ution	4952
rrie	4953
posit	4954
ml	4955
wk	4956
selv	4957
ltim	4958
ais	4959
defi	4960
quit	4961
eves	4962
emor	4963
wned	4964
bow	4965
eav	4966
wic	4967
##ho	4968
heth	4969
tears	4970
soft	4971
teri	4972
jos	4973
ois	4974
sper	4975
rtur	4976
utt	4977
ilm	4978
rme	4979
tok	4980
ouch	4981
rts	4982
tina	4983
bing	4984
nver	4985
wore	4986
itive	4987
loa	4988
dol	4989
ootb	4990
ej	4991
lence	4992
anne	4993
meat	4994
usic	4995
knee	4996
tball	4997
rmo	4998
##dp	4999
theme	5000
fie	5001
ende	5002
500	5003
dical	5004
dj	5005
nist	5006
##pm	5007
##pa	5008
prima	5009
flec	5010
ether	5011
nick	5012
ouse	5013
summ	5014
lok	5015
root	5016
secon	5017
75	5018
gay	5019
ndo	5020
irm	5021
erem	5022
ao	5023
eme	5024
hl	5025
rio	5026
reed	5027
elev	5028
omet	5029
tig	5030
atis	5031
unded	5032
grave	5033
owa	5034
indu	5035
inema	5036
ventu	5037
lobal	5038
emo	5039
ux	5040
uti	5041
vill	5042
##20	5043
olat	5044
gains	5045
cit	5046
gel	5047
hort	5048
kl	5049
pta	5050
reak	5051
meal	5052
romi	5053
rior	5054
ociet	5055
grid	5056
ibute	5057
attr	5058
38	5059
epp	5060
erre	5061
ifica	5062
nior	5063
cific	5064
cott	5065
olida	5066
nounc	5067
eart	5068
gm	5069
gor	5070
nerg	5071
##եր	5072
icul	5073
marke	5074
scho	5075
ittle	5076
lise	5077
enga	5078
ngo	5079
ovie	5080
xic	5081
exam	5082
poo	5083
evera	5084
osa	5085
tall	5086
itv	5087
esp	5088
desh	5089
osing	5090
tched	5091
aine	5092
slo	5093
wl	5094
dem	5095
aura	5096
ather	5097
jon	5098
heese	5099
homa	5100
ttl	5101
nab	5102
utin	5103
irl	5104
rdo	5105
fatal	5106
bul	5107
hide	5108
lse	5109
rary	5110
##ata	5111
enry	5112
spons	5113
conom	5114
ady	5115
grace	5116
eba	5117
fbi	5118
kle	5119
sity	5120
neith	5121
tack	5122
prec	5123
tty	5124
sters	5125
vict	5126
wen	5127
asure	5128
aff	5129
cks	5130
tale	5131
ailed	5132
deny	5133
ious	5134
ova	5135
sess	5136
ու	5137
hame	5138
abor	5139
ounce	5140
nline	5141
42	5142
eigh	5143
stil	5144
ality	5145
mmed	5146
arden	5147
tart	5148
##gg	5149
rele	5150
hap	5151
hub	5152
dona	5153
halt	5154
metal	5155
aiti	5156
cel	5157
ien	5158
ipp	5159
##fu	5160
##orm	5161
erce	5162
itter	5163
wire	5164
tau	5165
eform	5166
cca	5167
ethi	5168
rren	5169
hah	5170
opp	5171
ider	5172
assu	5173
tweet	5174
gut	5175
lou	5176
strai	5177
ati	5178
rime	5179
nativ	5180
olli	5181
neral	5182
suppl	5183
aco	5184
##zi	5185
andhi	5186
atie	5187
twist	5188
eting	5189
justi	5190
otel	5191
utl	5192
iron	5193
ired	5194
barr	5195
bled	5196
isi	5197
allo	5198
ppen	5199
otte	5200
float	5201
radi	5202
eeks	5203
rin	5204
rke	5205
nne	5206
voter	5207
hydra	5208
ece	5209
lio	5210
ndl	5211
veri	5212
merc	5213
asses	5214
ilia	5215
rga	5216
eds	5217
erge	5218
til	5219
map	5220
laid	5221
ourna	5222
winn	5223
ilet	5224
zu	5225
##hu	5226
ania	5227
upt	5228
eless	5229
rtion	5230
olv	5231
ampa	5232
attac	5233
nergy	5234
ait	5235
bie	5236
ravel	5237
peti	5238
erb	5239
llin	5240
elli	5241
ods	5242
essar	5243
hich	5244
lg	5245
lti	5246
mily	5247
ndar	5248
ops	5249
cula	5250
pti	5251
##pl	5252
edit	5253
eside	5254
ote	5255
gend	5256
lway	5257
ners	5258
por	5259
stan	5260
magin	5261
unk	5262
ubb	5263
acted	5264
ayer	5265
uto	5266
harri	5267
##lfa	5268
iev	5269
roth	5270
uic	5271
mper	5272
dono	5273
wav	5274
carri	5275
lane	5276
aze	5277
hs	5278
rla	5279
rge	5280
rlo	5281
tise	5282
eding	5283
rive	5284
ortu	5285
owe	5286
ubs	5287
rated	5288
cally	5289
stati	5290
pete	5291
gbt	5292
blin	5293
39	5294
yu	5295
##ար	5296
edd	5297
pret	5298
enta	5299
bob	5300
sati	5301
udi	5302
##ala	5303
tel	5304
nted	5305
mance	5306
twin	5307
mpli	5308
rhe	5309
65	5310
gam	5311
je	5312
lone	5313
vou	5314
##son	5315
##bo	5316
hea	5317
orp	5318
tape	5319
ndle	5320
rik	5321
duo	5322
nable	5323
oward	5324
eph	5325
cd	5326
gear	5327
iu	5328
ycl	5329
ison	5330
arro	5331
agu	5332
endu	5333
tally	5334
ights	5335
fled	5336
oice	5337
##tra	5338
raft	5339
torn	5340
ffi	5341
feren	5342
doubl	5343
hur	5344
jay	5345
oal	5346
uild	5347
urd	5348
othe	5349
toric	5350
mrs	5351
aka	5352
omic	5353
ienc	5354
tir	5355
asi	5356
lign	5357
pera	5358
tres	5359
ulate	5360
nbc	5361
rexit	5362
eur	5363
osta	5364
##zo	5365
lien	5366
##ada	5367
enti	5368
utu	5369
oks	5370
tures	5371
rbi	5372
bvi	5373
enge	5374
sheet	5375
plac	5376
grade	5377
ssil	5378
udd	5379
loose	5380
eans	5381
gp	5382
hest	5383
ivi	5384
##vo	5385
orne	5386
sect	5387
esc	5388
swe	5389
ivil	5390
lor	5391
lur	5392
inanc	5393
##ale	5394
abc	5395
hum	5396
ivo	5397
ket	5398
welfa	5399
ndi	5400
estor	5401
parti	5402
mpani	5403
ibi	5404
pter	5405
tl	5406
iter	5407
orth	5408
ntal	5409
ousin	5410
indic	5411
fits	5412
bin	5413
iven	5414
mck	5415
ands	5416
unic	5417
dig	5418
roc	5419
quart	5420
illi	5421
senti	5422
owns	5423
olve	5424
uctio	5425
55	5426
eis	5427
hon	5428
jd	5429
osi	5430
ority	5431
aging	5432
vern	5433
dish	5434
mplet	5435
quire	5436
tigat	5437
lme	5438
iner	5439
unda	5440
cta	5441
avy	5442
osses	5443
nown	5444
omo	5445
rris	5446
uz	5447
yp	5448
erm	5449
asp	5450
nte	5451
##una	5452
urse	5453
stru	5454
dina	5455
mall	5456
##wi	5457
erly	5458
lig	5459
rah	5460
drove	5461
rni	5462
lists	5463
rging	5464
echn	5465
dash	5466
##ov	5467
oring	5468
ortio	5469
ssure	5470
ships	5471
irc	5472
hari	5473
woke	5474
nical	5475
duti	5476
nforc	5477
46	5478
cuse	5479
emen	5480
uca	5481
orat	5482
weat	5483
lah	5484
mood	5485
outs	5486
aders	5487
tensi	5488
gian	5489
cient	5490
cin	5491
pear	5492
vy	5493
sua	5494
ppy	5495
tern	5496
akes	5497
lwa	5498
ommu	5499
ews	5500
omer	5501
300	5502
47	5503
dust	5504
inst	5505
lime	5506
sers	5507
emed	5508
fleet	5509
steel	5510
eens	5511
cnbc	5512
eers	5513
von	5514
etary	5515
uthe	5516
egal	5517
ideo	5518
lady	5519
gdp	5520
ldi	5521
hak	5522
rivi	5523
rying	5524
bloc	5525
gne	5526
ensi	5527
mel	5528
hug	5529
sona	5530
obb	5531
slip	5532
nsion	5533
nasa	5534
annah	5535
elic	5536
np	5537
sour	5538
uan	5539
whit	5540
arne	5541
lop	5542
ndr	5543
owne	5544
ratio	5545
mmon	5546
ngel	5547
lated	5548
44	5549
oop	5550
stem	5551
tral	5552
rman	5553
ahul	5554
vise	5555
41	5556
cci	5557
elo	5558
gust	5559
tore	5560
ono	5561
sued	5562
laim	5563
ented	5564
ghter	5565
tyson	5566
inds	5567
gbtq	5568
53	5569
54	5570
ders	5571
fuse	5572
ias	5573
onn	5574
mili	5575
elc	5576
pric	5577
ustra	5578
ooked	5579
cz	5580
vin	5581
andy	5582
rede	5583
sham	5584
ntra	5585
ape	5586
etty	5587
ngl	5588
hyper	5589
hings	5590
cep	5591
kel	5592
nco	5593
oing	5594
sly	5595
erth	5596
pend	5597
elsh	5598
compa	5599
aye	5600
tica	5601
rett	5602
dul	5603
egan	5604
kra	5605
oet	5606
bee	5607
livi	5608
ouri	5609
vege	5610
eased	5611
rno	5612
toni	5613
aste	5614
hri	5615
omi	5616
stl	5617
tier	5618
org	5619
triu	5620
ordon	5621
acing	5622
rui	5623
ahara	5624
surv	5625
athe	5626
urage	5627
lobby	5628
43	5629
tali	5630
itar	5631
abso	5632
owd	5633
ibera	5634
pati	5635
bone	5636
eice	5637
ebe	5638
rot	5639
t20	5640
xecu	5641
inary	5642
tific	5643
bac	5644
urth	5645
eit	5646
sd	5647
anu	5648
anch	5649
sab	5650
seg	5651
##ctv	5652
roa	5653
iab	5654
expl	5655
raig	5656
sibl	5657
ced	5658
eid	5659
iy	5660
mun	5661
oor	5662
tol	5663
onic	5664
chanc	5665
dub	5666
mont	5667
oto	5668
prin	5669
nster	5670
cus	5671
cctv	5672
dun	5673
gil	5674
llu	5675
yon	5676
itz	5677
alf	5678
tear	5679
tam	5680
ppl	5681
tries	5682
irr	5683
hanc	5684
emy	5685
ully	5686
ators	5687
f1	5688
hush	5689
hunt	5690
ibe	5691
oco	5692
pes	5693
thor	5694
rega	5695
erie	5696
isp	5697
lect	5698
profi	5699
hoo	5700
agn	5701
urf	5702
nesse	5703
eeded	5704
bling	5705
horr	5706
49	5707
ffe	5708
mci	5709
atin	5710
heim	5711
orces	5712
aby	5713
gene	5714
tenu	5715
dl	5716
kri	5717
inl	5718
tew	5719
teel	5720
melt	5721
hopp	5722
trai	5723
ckl	5724
tui	5725
kg	5726
pc	5727
thin	5728
##aya	5729
shu	5730
seed	5731
liev	5732
ared	5733
unn	5734
sons	5735
oses	5736
surr	5737
400	5738
cen	5739
fate	5740
jet	5741
##ji	5742
eda	5743
itc	5744
liver	5745
quent	5746
greet	5747
gig	5748
ealed	5749
attle	5750
usion	5751
ibili	5752
cide	5753
ddi	5754
ips	5755
kie	5756
nar	5757
pare	5758
##fo	5759
##ել	5760
hag	5761
enz	5762
orse	5763
worn	5764
elv	5765
meter	5766
casi	5767
tural	5768
cid	5769
uin	5770
anka	5771
idf	5772
dded	5773
subs	5774
pire	5775
mcl	5776
ebra	5777
blu	5778
nera	5779
##vy	5780
tos	5781
hem	5782
sep	5783
teeth	5784
mode	5785
illed	5786
bran	5787
aven	5788
ecli	5789
ssage	5790
atura	5791
hun	5792
nan	5793
rue	5794
ista	5795
egio	5796
oods	5797
51	5798
gt	5799
igu	5800
oga	5801
vary	5802
edo	5803
sth	5804
alc	5805
entor	5806
nose	5807
amil	5808
nged	5809
hild	5810
rdl	5811
ache	5812
ontra	5813
riend	5814
cco	5815
hli	5816
nqu	5817
ue	5818
##ía	5819
ando	5820
ersta	5821
enna	5822
leath	5823
entit	5824
rial	5825
oldi	5826
eping	5827
epti	5828
glad	5829
villa	5830
bc	5831
egi	5832
hint	5833
jul	5834
luc	5835
lty	5836
rlie	5837
uh	5838
oris	5839
tradi	5840
rda	5841
victo	5842
52	5843
73	5844
fc	5845
oi	5846
##yn	5847
ittl	5848
cop	5849
ween	5850
arly	5851
ador	5852
amy	5853
ncre	5854
uting	5855
pula	5856
ellow	5857
ollin	5858
cure	5859
150	5860
ippi	5861
hir	5862
sri	5863
##oo	5864
thus	5865
ntil	5866
opa	5867
aming	5868
urp	5869
esth	5870
elg	5871
elled	5872
arie	5873
250	5874
argo	5875
gical	5876
ks	5877
var	5878
##du	5879
andre	5880
alb	5881
lion	5882
opti	5883
rigin	5884
grey	5885
flew	5886
rgo	5887
lates	5888
cti	5889
ggi	5890
nvi	5891
oj	5892
ար	5893
nto	5894
apt	5895
centr	5896
iving	5897
lemon	5898
nviro	5899
aha	5900
hin	5901
iant	5902
imo	5903
ives	5904
itia	5905
isc	5906
truc	5907
orta	5908
harg	5909
ongo	5910
hydro	5911
lster	5912
cm	5913
iest	5914
edic	5915
ased	5916
ases	5917
unti	5918
urns	5919
ruc	5920
vail	5921
gio	5922
oven	5923
ument	5924
wes	5925
ynd	5926
##war	5927
onte	5928
asse	5929
owed	5930
rkin	5931
aki	5932
stig	5933
57	5934
85	5935
gion	5936
mere	5937
rut	5938
rna	5939
##ler	5940
atel	5941
arni	5942
eto	5943
nsu	5944
epa	5945
nya	5946
tters	5947
grim	5948
iola	5949
72	5950
igi	5951
iger	5952
kay	5953
lph	5954
td	5955
ude	5956
itan	5957
enin	5958
conta	5959
pac	5960
gher	5961
mpact	5962
ctic	5963
emie	5964
glow	5965
reign	5966
gestu	5967
sma	5968
ying	5969
##yr	5970
ths	5971
inal	5972
##adi	5973
icc	5974
uted	5975
essor	5976
oming	5977
extre	5978
popul	5979
ucla	5980
tune	5981
wise	5982
##bb	5983
ingap	5984
heck	5985
cher	5986
arna	5987
urv	5988
pea	5989
marr	5990
uture	5991
inda	5992
iming	5993
ropos	5994
fry	5995
kent	5996
nant	5997
pst	5998
հա	5999
oner	6000
shor	6001
lege	6002
abb	6003
divi	6004
oping	6005
mpos	6006
olan	6007
dale	6008
61	6009
hink	6010
lto	6011
mv	6012
oa	6013
uite	6014
yc	6015
ներ	6016
revi	6017
##isa	6018
onat	6019
maga	6020
lew	6021
lemen	6022
arp	6023
uss	6024
etti	6025
trio	6026
rings	6027
mman	6028
espn	6029
ligen	6030
dna	6031
ln	6032
sne	6033
uci	6034
ergu	6035
ises	6036
mai	6037
esy	6038
mie	6039
gho	6040
dise	6041
arya	6042
steer	6043
gw	6044
##yk	6045
erk	6046
haz	6047
shy	6048
ches	6049
lymp	6050
esu	6051
usan	6052
ntry	6053
naly	6054
tua	6055
pix	6056
rran	6057
grief	6058
ntrac	6059
lant	6060
rj	6061
rth	6062
թյ	6063
##ին	6064
andl	6065
stint	6066
neath	6067
rog	6068
adl	6069
ading	6070
adav	6071
riot	6072
eted	6073
acu	6074
addy	6075
avin	6076
drunk	6077
llel	6078
jects	6079
astr	6080
oose	6081
ecuri	6082
ucy	6083
bou	6084
ften	6085
oan	6086
tas	6087
vas	6088
##որ	6089
onten	6090
haul	6091
heel	6092
shtra	6093
arn	6094
spar	6095
polic	6096
sie	6097
etc	6098
empl	6099
oxy	6100
56	6101
91	6102
aul	6103
bia	6104
saf	6105
leap	6106
unne	6107
harge	6108
ompet	6109
ithin	6110
iii	6111
zoo	6112
hawk	6113
59	6114
58	6115
lank	6116
mca	6117
sda	6118
xp	6119
##ye	6120
ini	6121
rek	6122
forg	6123
heal	6124
heek	6125
menti	6126
appy	6127
lks	6128
urned	6129
ncaa	6130
kat	6131
mmi	6132
lek	6133
roba	6134
ndit	6135
eft	6136
davi	6137
ida	6138
obby	6139
olici	6140
mcm	6141
coup	6142
lati	6143
snack	6144
ememb	6145
cil	6146
honey	6147
nkey	6148
wre	6149
incom	6150
toc	6151
issi	6152
anim	6153
alu	6154
rama	6155
hud	6156
rté	6157
ayed	6158
nsit	6159
reda	6160
stark	6161
akers	6162
ompan	6163
ebb	6164
##nde	6165
touc	6166
tiv	6167
bea	6168
holl	6169
roi	6170
rien	6171
riva	6172
nals	6173
otter	6174
genre	6175
appl	6176
awa	6177
leaf	6178
laska	6179
dhya	6180
bh	6181
eor	6182
gers	6183
gru	6184
umi	6185
ums	6186
vp	6187
cogni	6188
atr	6189
asa	6190
almo	6191
mea	6192
roast	6193
usc	6194
##ami	6195
nni	6196
ssent	6197
ctu	6198
cles	6199
linke	6200
flee	6201
grati	6202
66	6203
dmi	6204
oz	6205
rith	6206
coa	6207
riest	6208
utah	6209
ardon	6210
mult	6211
cruz	6212
99	6213
aap	6214
iri	6215
iel	6216
nr	6217
olu	6218
pul	6219
uy	6220
ume	6221
vat	6222
thro	6223
##ony	6224
rece	6225
itat	6226
asha	6227
doc	6228
tton	6229
mara	6230
mono	6231
ubi	6232
vey	6233
riti	6234
rms	6235
olin	6236
ikki	6237
ladi	6238
cuss	6239
kc	6240
erin	6241
erba	6242
beg	6243
taff	6244
iona	6245
adu	6246
mpa	6247
nac	6248
orts	6249
ryan	6250
rsu	6251
ska	6252
nerve	6253
rvin	6254
ylan	6255
pixel	6256
62	6257
tg	6258
ues	6259
anj	6260
sau	6261
laze	6262
trap	6263
grain	6264
cture	6265
brid	6266
valid	6267
arian	6268
igar	6269
nkin	6270
mmitt	6271
dur	6272
dart	6273
gem	6274
mmo	6275
ril	6276
rgan	6277
nea	6278
tage	6279
mond	6280
ntary	6281
eview	6282
utd	6283
priv	6284
ems	6285
slam	6286
rland	6287
5g	6288
cord	6289
hd	6290
hine	6291
pd	6292
edera	6293
stunt	6294
whale	6295
isl	6296
##tha	6297
lyri	6298
usyk	6299
sible	6300
rig	6301
gaz	6302
nated	6303
mery	6304
tub	6305
clin	6306
icket	6307
ukee	6308
lphin	6309
67	6310
95	6311
eace	6312
ule	6313
wet	6314
wast	6315
sage	6316
loom	6317
conv	6318
ntana	6319
amal	6320
uru	6321
rto	6322
egis	6323
msn	6324
grip	6325
ynth	6326
opez	6327
yler	6328
ogeth	6329
ufc	6330
77	6331
lut	6332
ured	6333
##án	6334
##xy	6335
ched	6336
exac	6337
laz	6338
afa	6339
nod	6340
dura	6341
olds	6342
mbo	6343
tings	6344
nches	6345
umber	6346
sban	6347
ixel	6348
lgo	6349
##rwa	6350
##ud	6351
eded	6352
unrwa	6353
norm	6354
ritt	6355
hyp	6356
glor	6357
insti	6358
egisl	6359
63	6360
fs	6361
hird	6362
##rc	6363
inu	6364
eria	6365
erto	6366
alah	6367
hoe	6368
adal	6369
uris	6370
iden	6371
wai	6372
onder	6373
essa	6374
nters	6375
pposi	6376
tany	6377
wrest	6378
bli	6379
kr	6380
andal	6381
erd	6382
tia	6383
tide	6384
##chi	6385
arget	6386
aps	6387
undr	6388
irat	6389
void	6390
welco	6391
64	6392
78	6393
ict	6394
lore	6395
pon	6396
ront	6397
uate	6398
##jan	6399
##win	6400
asc	6401
affe	6402
elan	6403
elve	6404
mers	6405
htani	6406
rita	6407
orman	6408
epen	6409
aken	6410
mcn	6411
araz	6412
defin	6413
ghost	6414
rithm	6415
ckey	6416
dw	6417
ege	6418
hre	6419
lde	6420
pone	6421
xper	6422
##ny	6423
##ona	6424
##ati	6425
##ram	6426
orc	6427
lei	6428
ros	6429
hane	6430
drift	6431
okay	6432
lud	6433
sures	6434
ursk	6435
cepti	6436
sneak	6437
gie	6438
ih	6439
nity	6440
uga	6441
uef	6442
enic	6443
anga	6444
loop	6445
rif	6446
boo	6447
resh	6448
nshi	6449
mbr	6450
pile	6451
shian	6452
oya	6453
tesco	6454
uefa	6455
71	6456
lare	6457
##ox	6458
edro	6459
erta	6460
ener	6461
arat	6462
unge	6463
fig	6464
ersa	6465
whip	6466
rtain	6467
appli	6468
hile	6469
antl	6470
mbe	6471
ewa	6472
glove	6473
oxi	6474
74	6475
kar	6476
lina	6477
ske	6478
##ei	6479
##tv	6480
ingle	6481
##esh	6482
abel	6483
promo	6484
truss	6485
ntar	6486
ppre	6487
icy	6488
phe	6489
ided	6490
hike	6491
ollo	6492
oda	6493
metre	6494
ewel	6495
tatt	6496
cien	6497
lens	6498
esign	6499
ultur	6500
robab	6501
msnbc	6502
lunt	6503
pion	6504
tf	6505
եւ	6506
##gs	6507
hail	6508
orwe	6509
chin	6510
sul	6511
lavi	6512
hade	6513
estr	6514
mplo	6515
igni	6516
avid	6517
glam	6518
physi	6519
glu	6520
kk	6521
lush	6522
nate	6523
tanc	6524
uld	6525
ulu	6526
xa	6527
yach	6528
##han	6529
erit	6530
cos	6531
hey	6532
hein	6533
lips	6534
spy	6535
tron	6536
agi	6537
esti	6538
llan	6539
hana	6540
uda	6541
avour	6542
dym	6543
umer	6544
ersey	6545
mlb	6546
uttar	6547
yndro	6548
81	6549
pent	6550
rce	6551
eddy	6552
lize	6553
lood	6554
amo	6555
stron	6556
ters	6557
terl	6558
ngin	6559
globe	6560
logo	6561
nasc	6562
rfo	6563
dymyr	6564
bic	6565
bhi	6566
hid	6567
mut	6568
nw	6569
կան	6570
inch	6571
tong	6572
ersh	6573
ppi	6574
dair	6575
daho	6576
iddy	6577
niz	6578
issu	6579
rator	6580
omali	6581
flip	6582
##ում	6583
luded	6584
font	6585
hay	6586
mg	6587
##fs	6588
ines	6589
##ndo	6590
##ena	6591
tif	6592
##ado	6593
riori	6594
apr	6595
nnou	6596
eyon	6597
rito	6598
drain	6599
trodu	6600
erage	6601
requi	6602
tlin	6603
hiv	6604
pga	6605
sr	6606
wb	6607
##րա	6608
seam	6609
tee	6610
abe	6611
raf	6612
ppa	6613
uby	6614
eyn	6615
nfla	6616
inju	6617
octor	6618
eads	6619
bles	6620
ixon	6621
eels	6622
ctiv	6623
tgpt	6624
epe	6625
hn	6626
lis	6627
xis	6628
##of	6629
##kar	6630
##ée	6631
rez	6632
onor	6633
enko	6634
angu	6635
necti	6636
teph	6637
dire	6638
espo	6639
amat	6640
tered	6641
nsp	6642
sks	6643
arte	6644
voa	6645
stole	6646
ickl	6647
uffe	6648
68	6649
cp	6650
gps	6651
mith	6652
wak	6653
toy	6654
erv	6655
##cha	6656
sei	6657
hool	6658
ribu	6659
repa	6660
tyre	6661
uran	6662
dau	6663
vell	6664
diff	6665
rder	6666
tons	6667
ontin	6668
snake	6669
nvers	6670
ienna	6671
ault	6672
cie	6673
eard	6674
rer	6675
zy	6676
##har	6677
##jo	6678
##ino	6679
eril	6680
erma	6681
aso	6682
moo	6683
rovi	6684
ndtv	6685
champ	6686
ngi	6687
elp	6688
turi	6689
irth	6690
lleg	6691
irect	6692
crude	6693
lkata	6694
drum	6695
viden	6696
sdom	6697
yacht	6698
76	6699
ael	6700
eill	6701
kath	6702
ksh	6703
mush	6704
yat	6705
inem	6706
itiz	6707
het	6708
shna	6709
leb	6710
losi	6711
ndan	6712
ghes	6713
evs	6714
wrist	6715
astha	6716
rport	6717
ikes	6718
sourc	6719
eci	6720
gly	6721
hunk	6722
ige	6723
kap	6724
tay	6725
wit	6726
toe	6727
isin	6728
dela	6729
neo	6730
tem	6731
dox	6732
roe	6733
rood	6734
imit	6735
rude	6736
ules	6737
neth	6738
ompo	6739
astor	6740
ebo	6741
wwe	6742
munic	6743
ների	6744
mmigr	6745
hools	6746
69	6747
fda	6748
gia	6749
nip	6750
sic	6751
zak	6752
eru	6753
eral	6754
##ida	6755
leep	6756
arge	6757
suv	6758
lai	6759
holy	6760
rima	6761
apa	6762
urt	6763
efen	6764
navy	6765
tort	6766
orte	6767
tube	6768
nua	6769
eman	6770
asser	6771
yeh	6772
wnba	6773
mvp	6774
tongu	6775
yank	6776
##zz	6777
##rez	6778
onven	6779
fort	6780
heph	6781
alsh	6782
orie	6783
homi	6784
whop	6785
uppl	6786
sius	6787
scus	6788
ilit	6789
waist	6790
ocat	6791
rres	6792
falsi	6793
grind	6794
ynch	6795
psy	6796
seizu	6797
gymna	6798
aver	6799
dde	6800
dget	6801
eant	6802
lve	6803
toss	6804
##oni	6805
itor	6806
mah	6807
entur	6808
ssue	6809
##fty	6810
hij	6811
omed	6812
120	6813
igg	6814
ploy	6815
mmend	6816
itize	6817
1st	6818
enis	6819
dear	6820
orter	6821
homo	6822
pod	6823
iff	6824
trem	6825
rtu	6826
ayl	6827
niger	6828
olla	6829
udy	6830
oles	6831
iew	6832
nche	6833
sleev	6834
ished	6835
kini	6836
lga	6837
ohn	6838
##ատ	6839
reep	6840
reven	6841
edg	6842
erum	6843
shan	6844
orti	6845
mae	6846
chr	6847
lag	6848
eso	6849
heren	6850
nos	6851
adde	6852
trait	6853
ural	6854
bud	6855
oura	6856
idge	6857
obs	6858
essay	6859
metri	6860
uther	6861
rowd	6862
stonb	6863
rbo	6864
yoga	6865
nthem	6866
fati	6867
hung	6868
seize	6869
nso	6870
oel	6871
pad	6872
uing	6873
##ky	6874
anded	6875
itl	6876
iscov	6877
arty	6878
mois	6879
feld	6880
eturn	6881
uki	6882
nage	6883
trevo	6884
dai	6885
mud	6886
ncou	6887
rup	6888
ggle	6889
ounc	6890
wenty	6891
retir	6892
sche	6893
etsk	6894
artha	6895
##ուն	6896
index	6897
cdc	6898
83	6899
hus	6900
ilo	6901
ianc	6902
lini	6903
nit	6904
rva	6905
sf	6906
##lar	6907
##մա	6908
tease	6909
lobe	6910
hash	6911
rope	6912
knot	6913
earl	6914
damp	6915
ummar	6916
ioc	6917
nhl	6918
ladd	6919
uae	6920
urder	6921
enzie	6922
lade	6923
##ás	6924
##att	6925
##asp	6926
alin	6927
som	6928
mela	6929
poi	6930
ente	6931
stag	6932
mpl	6933
bolt	6934
cted	6935
resse	6936
indy	6937
runo	6938
isten	6939
ante	6940
onda	6941
izz	6942
dread	6943
aceu	6944
nther	6945
bm	6946
dha	6947
hart	6948
nual	6949
oar	6950
oath	6951
ogy	6952
##ik	6953
##uk	6954
##pd	6955
##kh	6956
##ես	6957
##asa	6958
erfu	6959
stre	6960
raj	6961
duck	6962
urve	6963
ayner	6964
ncia	6965
ollar	6966
aum	6967
spike	6968
sane	6969
rrent	6970
600	6971
ntend	6972
dore	6973
gus	6974
gush	6975
nita	6976
uj	6977
vit	6978
որ	6979
##ակ	6980
toast	6981
oning	6982
shit	6983
meme	6984
alli	6985
dime	6986
gag	6987
likel	6988
unde	6989
ddre	6990
woo	6991
rkan	6992
ardy	6993
ashv	6994
pted	6995
dvis	6996
sexua	6997
sno	6998
gmt	6999
oetry	7000
orced	7001
82	7002
evel	7003
rsi	7004
yt	7005
##ric	7006
inek	7007
##isu	7008
eno	7009
hee	7010
oren	7011
arus	7012
proba	7013
doj	7014
raine	7015
feat	7016
tyle	7017
mpic	7018
nama	7019
rtis	7020
emon	7021
emic	7022
aks	7023
pira	7024
drobe	7025
icky	7026
ikel	7027
negar	7028
debat	7029
ains	7030
ikt	7031
crat	7032
longe	7033
tles	7034
peare	7035
leksa	7036
ictor	7037
fade	7038
hes	7039
ipt	7040
kw	7041
lvi	7042
oine	7043
pill	7044
pep	7045
slu	7046
sinc	7047
yne	7048
##yer	7049
##xi	7050
inni	7051
anit	7052
deer	7053
oriti	7054
##eta	7055
lope	7056
esar	7057
evol	7058
dug	7059
nail	7060
vian	7061
obe	7062
tsuna	7063
tati	7064
hypo	7065
flies	7066
garh	7067
erez	7068
esel	7069
rhp	7070
distr	7071
eatu	7072
gade	7073
lanc	7074
oze	7075
tis	7076
##dd	7077
thum	7078
stard	7079
antha	7080
oria	7081
soc	7082
upre	7083
fecti	7084
fool	7085
nag	7086
nach	7087
##aga	7088
mera	7089
longs	7090
helm	7091
igna	7092
secut	7093
ahon	7094
flor	7095
ither	7096
urviv	7097
aves	7098
cé	7099
nite	7100
oise	7101
##fc	7102
onth	7103
atc	7104
hama	7105
enka	7106
##sey	7107
saac	7108
chal	7109
loot	7110
esco	7111
afc	7112
ndica	7113
dupe	7114
stapl	7115
efu	7116
chae	7117
nati	7118
ecog	7119
endi	7120
redo	7121
thens	7122
istu	7123
tella	7124
regar	7125
slide	7126
lida	7127
ocks	7128
vape	7129
ios	7130
ում	7131
nspir	7132
eke	7133
gin	7134
gita	7135
lint	7136
lori	7137
nise	7138
rpe	7139
wol	7140
anie	7141
##cey	7142
orma	7143
sol	7144
dip	7145
dose	7146
rae	7147
afl	7148
ntr	7149
ntag	7150
perfo	7151
api	7152
estio	7153
guj	7154
resu	7155
dazz	7156
oba	7157
oble	7158
ruck	7159
istol	7160
mmu	7161
grasp	7162
hygi	7163
dys	7164
stian	7165
nho	7166
itted	7167
eave	7168
xplo	7169
%.	7170
bha	7171
mous	7172
ymo	7173
##են	7174
reen	7175
comb	7176
asina	7177
leach	7178
aru	7179
tacey	7180
outi	7181
ioni	7182
ntel	7183
pact	7184
##amy	7185
appe	7186
pendi	7187
trek	7188
ouble	7189
awyer	7190
taka	7191
cea	7192
ocr	7193
ecla	7194
rns	7195
ivf	7196
ydera	7197
ardik	7198
criti	7199
ncie	7200
wyn	7201
opped	7202
rjun	7203
rsion	7204
86	7205
92	7206
cite	7207
dva	7208
iza	7209
lh	7210
md	7211
oic	7212
oment	7213
##tt	7214
##ku	7215
rend	7216
reet	7217
itis	7218
##ota	7219
asy	7220
alw	7221
orre	7222
nex	7223
lejan	7224
leisu	7225
lier	7226
arma	7227
londe	7228
traya	7229
ifie	7230
fond	7231
llon	7232
fried	7233
rmal	7234
lude	7235
ecord	7236
nched	7237
ció	7238
horeo	7239
twins	7240
cree	7241
dé	7242
jh	7243
mst	7244
oge	7245
ssia	7246
vap	7247
vai	7248
##sl	7249
itua	7250
cox	7251
shwin	7252
neat	7253
arse	7254
lym	7255
unni	7256
hode	7257
##elf	7258
esa	7259
tray	7260
raper	7261
ussi	7262
qual	7263
anyon	7264
genc	7265
rya	7266
istry	7267
emer	7268
ssip	7269
avor	7270
fici	7271
azz	7272
eena	7273
sni	7274
800	7275
mmel	7276
uprem	7277
ymond	7278
93	7279
98	7280
bp	7281
bil	7282
eque	7283
lves	7284
pas	7285
rli	7286
zh	7287
##rd	7288
##cc	7289
##jee	7290
ande	7291
##ane	7292
inge	7293
isse	7294
dei	7295
alon	7296
tione	7297
arvel	7298
aree	7299
arey	7300
##adh	7301
pok	7302
agar	7303
feath	7304
gha	7305
gues	7306
nno	7307
ordi	7308
aces	7309
rtic	7310
otal	7311
lette	7312
vels	7313
onduc	7314
swamy	7315
litar	7316
rents	7317
msp	7318
sitiv	7319
ogram	7320
cf	7321
dare	7322
g7	7323
gul	7324
iq	7325
rdi	7326
rvi	7327
tba	7328
andid	7329
stort	7330
onia	7331
bey	7332
wee	7333
arla	7334
hom	7335
amd	7336
nald	7337
naco	7338
awar	7339
nude	7340
bric	7341
egre	7342
wedi	7343
lows	7344
ooki	7345
rdina	7346
tnt	7347
iole	7348
hated	7349
nsive	7350
dnc	7351
911	7352
itors	7353
rticl	7354
eac	7355
pus	7356
sby	7357
tcom	7358
uv	7359
uge	7360
այ	7361
##ño	7362
magi	7363
cono	7364
roxy	7365
ripe	7366
##gna	7367
tria	7368
ccu	7369
imf	7370
ahe	7371
odel	7372
mcb	7373
renna	7374
athl	7375
nesh	7376
erab	7377
armer	7378
rglar	7379
ncial	7380
ermin	7381
ourag	7382
mster	7383
88	7384
ibu	7385
pf	7386
uw	7387
##bs	7388
##he	7389
##ետ	7390
##ano	7391
erjee	7392
itiv	7393
bend	7394
hefty	7395
shelf	7396
orro	7397
nei	7398
hock	7399
rake	7400
heric	7401
agner	7402
urora	7403
esty	7404
etr	7405
endy	7406
vili	7407
udg	7408
uded	7409
ommun	7410
frain	7411
lmond	7412
levy	7413
89	7414
87	7415
ahi	7416
eine	7417
eps	7418
hia	7419
jun	7420
kai	7421
mint	7422
ogi	7423
vr	7424
vod	7425
ía	7426
##ron	7427
thw	7428
ince	7429
andya	7430
fork	7431
isis	7432
cov	7433
lein	7434
meo	7435
spill	7436
diy	7437
faa	7438
noma	7439
feit	7440
inted	7441
tracy	7442
esto	7443
sert	7444
ngana	7445
idu	7446
ceme	7447
ardin	7448
grin	7449
gray	7450
ippe	7451
lings	7452
omez	7453
restr	7454
ithu	7455
nzo	7456
700	7457
rtial	7458
dhere	7459
թյուն	7460
mploy	7461
2nd	7462
dve	7463
hbo	7464
lite	7465
nro	7466
rment	7467
rci	7468
rne	7469
rass	7470
vip	7471
xx	7472
##pc	7473
andra	7474
iso	7475
orge	7476
spf	7477
spine	7478
fifa	7479
iffe	7480
efer	7481
guar	7482
trud	7483
rte	7484
rtm	7485
ncin	7486
aud	7487
emma	7488
aher	7489
dried	7490
erná	7491
uster	7492
eane	7493
oste	7494
stopp	7495
immer	7496
athy	7497
ptur	7498
ynn	7499
grove	7500
damn	7501
yder	7502
ankar	7503
cbi	7504
ettle	7505
aisy	7506
nsume	7507
figur	7508
alway	7509
84	7510
aq	7511
agh	7512
cv	7513
cad	7514
dwi	7515
fani	7516
gart	7517
hil	7518
hwa	7519
iqu	7520
kis	7521
kari	7522
nmen	7523
sq	7524
ópe	7525
##ab	7526
##կա	7527
##oro	7528
tiz	7529
##uti	7530
lys	7531
abwe	7532
soli	7533
pox	7534
esley	7535
herd	7536
ourth	7537
tyra	7538
##lica	7539
reca	7540
knit	7541
ctri	7542
pher	7543
rton	7544
vendo	7545
ryo	7546
fron	7547
croft	7548
curi	7549
volve	7550
rnc	7551
rane	7552
icks	7553
mora	7554
##nik	7555
yrne	7556
grabs	7557
lynn	7558
anjay	7559
iktor	7560
ópez	7561
79	7562
bent	7563
das	7564
fere	7565
kash	7566
lte	7567
mla	7568
nies	7569
sz	7570
wow	7571
wick	7572
ին	7573
##nu	7574
##ero	7575
tob	7576
rever	7577
##asi	7578
envi	7579
deta	7580
aly	7581
alman	7582
orgi	7583
neph	7584
arga	7585
aret	7586
hob	7587
fah	7588
noon	7589
mente	7590
ourn	7591
evy	7592
ples	7593
peci	7594
##ago	7595
obel	7596
ilk	7597
ulga	7598
uds	7599
lici	7600
bby	7601
slew	7602
mitry	7603
ltd	7604
njur	7605
eavy	7606
eiss	7607
##bbl	7608
թյան	7609
."	7610
96	7611
hz	7612
nm	7613
nana	7614
vity	7615
vine	7616
##tar	7617
inwar	7618
ofi	7619
atio	7620
heet	7621
##che	7622
sai	7623
laine	7624
rael	7625
ramm	7626
usb	7627
offi	7628
amir	7629
amara	7630
pert	7631
etby	7632
acer	7633
rtan	7634
otti	7635
skip	7636
irg	7637
eyer	7638
woes	7639
ggl	7640
odu	7641
shaw	7642
tchin	7643
ewe	7644
omat	7645
acks	7646
rene	7647
sleek	7648
heney	7649
texa	7650
niper	7651
dli	7652
mce	7653
más	7654
rro	7655
rica	7656
sfu	7657
xe	7658
xl	7659
##lin	7660
##ña	7661
atur	7662
alen	7663
tead	7664
lond	7665
loat	7666
meli	7667
hoot	7668
rov	7669
afi	7670
este	7671
ukesh	7672
nath	7673
icj	7674
ssain	7675
elin	7676
phd	7677
dida	7678
meri	7679
aws	7680
awk	7681
uton	7682
##psy	7683
iring	7684
eller	7685
ellar	7686
ddy	7687
gotta	7688
ocus	7689
lico	7690
lson	7691
igra	7692
lena	7693
nking	7694
kull	7695
lerk	7696
arbor	7697
aggie	7698
reeze	7699
ients	7700
demic	7701
737	7702
avel	7703
hp	7704
ius	7705
ika	7706
nen	7707
o2	7708
qb	7709
rgu	7710
rph	7711
s2	7712
uest	7713
եր	7714
##yo	7715
##ín	7716
##ած	7717
toby	7718
##aro	7719
reco	7720
ergy	7721
tiya	7722
atya	7723
enner	7724
anana	7725
asco	7726
leo	7727
aris	7728
adh	7729
fea	7730
amar	7731
denti	7732
dum	7733
elea	7734
nagh	7735
ows	7736
tread	7737
indo	7738
ticul	7739
rsf	7740
engu	7741
anto	7742
cloth	7743
wrin	7744
surg	7745
ostu	7746
kab	7747
llain	7748
midt	7749
civi	7750
arbo	7751
holm	7752
ucc	7753
yron	7754
zoe	7755
krake	7756
muta	7757
yanka	7758
,"	7759
5th	7760
bore	7761
iall	7762
jj	7763
kur	7764
mia	7765
nad	7766
nada	7767
pg	7768
ranc	7769
rous	7770
vere	7771
xtra	7772
##mu	7773
##gb	7774
eddi	7775
itish	7776
haun	7777
alv	7778
orch	7779
aran	7780
abar	7781
melo	7782
raci	7783
rogr	7784
##ung	7785
feast	7786
perso	7787
dumb	7788
eflec	7789
mpox	7790
ssu	7791
ffo	7792
olde	7793
igns	7794
clad	7795
rkas	7796
surp	7797
leged	7798
eliv	7799
20s	7800
omy	7801
ivy	7802
icki	7803
ickey	7804
wheat	7805
uffer	7806
rbyn	7807
louc	7808
munit	7809
rcel	7810
evea	7811
fist	7812
kers	7813
lts	7814
sank	7815
tma	7816
vu	7817
wart	7818
yen	7819
ան	7820
##ii	7821
##cs	7822
##rey	7823
isk	7824
atte	7825
##ayo	7826
anter	7827
asin	7828
oric	7829
tef	7830
arme	7831
sox	7832
meg	7833
roke	7834
aded	7835
fog	7836
stak	7837
mple	7838
mprov	7839
sery	7840
ssen	7841
ssan	7842
otent	7843
nsa	7844
unta	7845
illon	7846
thos	7847
skar	7848
prim	7849
ondi	7850
mmar	7851
claw	7852
akin	7853
litt	7854
nyl	7855
hype	7856
rned	7857
mcf	7858
omeo	7859
lata	7860
tland	7861
nju	7862
90s	7863
milli	7864
djac	7865
iyadh	7866
epend	7867
zakh	7868
cps	7869
elu	7870
fia	7871
lang	7872
ocu	7873
sio	7874
sini	7875
tate	7876
usta	7877
##bh	7878
##fer	7879
stel	7880
coo	7881
heit	7882
dea	7883
oran	7884
abba	7885
soy	7886
uns	7887
unite	7888
goa	7889
lagg	7890
worm	7891
nock	7892
##gno	7893
chai	7894
elm	7895
##fta	7896
veget	7897
ffen	7898
despi	7899
gee	7900
hanne	7901
emper	7902
tena	7903
tche	7904
ampl	7905
ieb	7906
cyc	7907
cienc	7908
facto	7909
steak	7910
130	7911
psg	7912
khtar	7913
rbor	7914
ediat	7915
njoy	7916
kanye	7917
##well	7918
katy	7919
bmw	7920
brics	7921
6th	7922
dle	7923
dera	7924
jb	7925
nast	7926
rgy	7927
sow	7928
sil	7929
vance	7930
##rus	7931
thel	7932
tox	7933
heed	7934
heli	7935
limp	7936
arle	7937
proof	7938
spel	7939
spice	7940
rove	7941
nolo	7942
perm	7943
urit	7944
ngk	7945
trim	7946
sser	7947
##neu	7948
ncp	7949
inder	7950
ivek	7951
wool	7952
olenc	7953
olby	7954
nypd	7955
ernic	7956
meni	7957
pig	7958
eanor	7959
achin	7960
pts	7961
nstru	7962
ragma	7963
nked	7964
rban	7965
snub	7966
gyang	7967
kano	7968
nough	7969
hmrc	7970
wsl	7971
rfu	7972
gutt	7973
ksha	7974
tasha	7975
adhd	7976
%,	7977
3d	7978
3rd	7979
4th	7980
dine	7981
fuss	7982
ipo	7983
jen	7984
jar	7985
kara	7986
lans	7987
pora	7988
rw	7989
té	7990
xpe	7991
##pen	7992
tomb	7993
tooth	7994
edar	7995
erw	7996
erva	7997
isb	7998
anata	7999
nef	8000
lyric	8001
roar	8002
afd	8003
etiti	8004
bug	8005
othi	8006
nahan	8007
owers	8008
endor	8009
incre	8010
smal	8011
tudy	8012
hier	8013
pari	8014
wax	8015
ollen	8016
oces	8017
nfc	8018
nflu	8019
ailor	8020
ashar	8021
lkin	8022
lenn	8023
oving	8024
ergen	8025
ydia	8026
tigma	8027
keta	8028
ervic	8029
xpect	8030
cers	8031
dere	8032
lun	8033
mh	8034
tut	8035
wu	8036
yar	8037
մի	8038
##oli	8039
##nc	8040
##zy	8041
infor	8042
erve	8043
dega	8044
leed	8045
uno	8046
goat	8047
lamp	8048
hoard	8049
fau	8050
prep	8051
enty	8052
upp	8053
rift	8054
evie	8055
scort	8056
disha	8057
elet	8058
ssy	8059
mero	8060
runa	8061
velt	8062
ugge	8063
hyde	8064
volt	8065
trom	8066
comf	8067
acha	8068
fury	8069
ibb	8070
180	8071
ps5	8072
aja	8073
nki	8074
mtv	8075
ultu	8076
ician	8077
honi	8078
bcci	8079
vatar	8080
pdate	8081
dwp	8082
hobby	8083
97	8084
aunc	8085
berg	8086
bhu	8087
dus	8088
lich	8089
nil	8090
oak	8091
pest	8092
xc	8093
yw	8094
án	8095
##sy	8096
##oe	8097
##wic	8098
##ռա	8099
##nda	8100
tona	8101
ingo	8102
onti	8103
##leb	8104
atek	8105
hec	8106
shid	8107
asan	8108
nem	8109
nell	8110
ching	8111
hoke	8112
trat	8113
usd	8114
nook	8115
amou	8116
dup	8117
estro	8118
etin	8119
bove	8120
ssanc	8121
elgo	8122
acle	8123
ayy	8124
rub	8125
osley	8126
prit	8127
grunt	8128
ecl	8129
cyrus	8130
umza	8131
dres	8132
plet	8133
rlin	8134
lana	8135
ync	8136
assie	8137
jab	8138
ltan	8139
latt	8140
venti	8141
macdo	8142
eho	8143
lmar	8144
eks	8145
tasty	8146
etire	8147
ortho	8148
onny	8149
ffect	8150
heeky	8151
nrl	8152
lazy	8153
xpert	8154
ewelr	8155
kshay	8156
nroe	8157
nefit	8158
).	8159
8pm	8160
aun	8161
eha	8162
ered	8163
fm	8164
lr	8165
mita	8166
oja	8167
pb	8168
rvel	8169
xist	8170
yme	8171
մա	8172
##mru	8173
##pr	8174
##ker	8175
theo	8176
##eno	8177
##esi	8178
erch	8179
erde	8180
helo	8181
shir	8182
asca	8183
alki	8184
##ghu	8185
prod	8186
lol	8187
loft	8188
noa	8189
ader	8190
pag	8191
bake	8192
amed	8193
amic	8194
trand	8195
urne	8196
staf	8197
boob	8198
incid	8199
redic	8200
imen	8201
celeb	8202
riter	8203
olony	8204
drai	8205
telly	8206
lito	8207
oki	8208
nyc	8209
hyun	8210
oye	8211
renn	8212
cier	8213
lsu	8214
ennon	8215
110	8216
ssein	8217
aji	8218
yson	8219
anged	8220
ikh	8221
fluen	8222
eepi	8223
tusk	8224
ochul	8225
leeve	8226
900	8227
watt	8228
mls	8229
uhan	8230
kapla	8231
kapil	8232
witt	8233
94	8234
aise	8235
aza	8236
bine	8237
hue	8238
iper	8239
mk	8240
ovi	8241
pw	8242
pia	8243
pdp	8244
sar	8245
uide	8246
են	8247
կա	8248
##had	8249
##den	8250
##ju	8251
tham	8252
reta	8253
##ito	8254
eren	8255
atra	8256
haka	8257
##oti	8258
dele	8259
##ete	8260
maj	8261
mage	8262
sem	8263
tai	8264
rao	8265
shek	8266
ionel	8267
adge	8268
twee	8269
scer	8270
dule	8271
uka	8272
ukayo	8273
nah	8274
ssid	8275
ctua	8276
marg	8277
reali	8278
wara	8279
ryn	8280
ryant	8281
brox	8282
runt	8283
eyen	8284
waite	8285
uddy	8286
rida	8287
oder	8288
euver	8289
caly	8290
nterb	8291
troke	8292
omers	8293
ancé	8294
bery	8295
ashma	8296
lking	8297
penin	8298
ynne	8299
riana	8300
ainz	8301
nks	8302
erode	8303
ltry	8304
ikol	8305
vents	8306
cbd	8307
glori	8308
hora	8309
rfk	8310
onnec	8311
hony	8312
pulat	8313
wolf	8314
epsis	8315
1m	8316
cpi	8317
dir	8318
eone	8319
ehic	8320
fide	8321
gid	8322
kal	8323
kro	8324
lal	8325
png	8326
tang	8327
uiz	8328
wis	8329
wain	8330
ստ	8331
##խա	8332
toes	8333
erla	8334
stma	8335
tial	8336
isha	8337
atz	8338
atum	8339
angi	8340
shra	8341
asu	8342
sauna	8343
sev	8344
lias	8345
arity	8346
lyde	8347
abal	8348
alle	8349
lava	8350
hoir	8351
ttor	8352
howe	8353
gum	8354
llpen	8355
serie	8356
naive	8357
pex	8358
cto	8359
bike	8360
##aka	8361
utti	8362
osse	8363
rcb	8364
oled	8365
oké	8366
pier	8367
llet	8368
bbq	8369
mcv	8370
mcq	8371
asti	8372
ftse	8373
ezos	8374
ynago	8375
ainoo	8376
ssey	8377
arbon	8378
yoghu	8379
350	8380
csk	8381
lemma	8382
ufo	8383
hrain	8384
eona	8385
rtyr	8386
gala	8387
anche	8388
sthea	8389
assey	8390
tfl	8391
kkr	8392
xavi	8393
snook	8394
ogey	8395
ehicl	8396
6pm	8397
dall	8398
dren	8399
eung	8400
gren	8401
hq	8402
hini	8403
kia	8404
lest	8405
mj	8406
mé	8407
nza	8408
rmen	8409
vani	8410
vaga	8411
wess	8412
հետ	8413
նա	8414
##lan	8415
##ber	8416
##wm	8417
##րես	8418
##ene	8419
erz	8420
erfec	8421
erish	8422
onta	8423
itu	8424
alue	8425
orwic	8426
neet	8427
spre	8428
moor	8429
entl	8430
upe	8431
ntes	8432
fend	8433
ifa	8434
scara	8435
duly	8436
etfs	8437
ido	8438
tala	8439
laya	8440
ritz	8441
fray	8442
shabh	8443
essag	8444
egu	8445
flop	8446
stove	8447
deri	8448
nfo	8449
octo	8450
mati	8451
astry	8452
corre	8453
measl	8454
sliga	8455
aids	8456
olaf	8457
aveat	8458
echo	8459
etail	8460
dges	8461
hona	8462
narco	8463
sthma	8464
հայ	8465
sniff	8466
melia	8467
helif	8468
aini	8469
dp	8470
epo	8471
eol	8472
gat	8473
jit	8474
kart	8475
lma	8476
lisa	8477
m2	8478
pun	8479
qh	8480
rz	8481
rar	8482
rde	8483
rmi	8484
rha	8485
tad	8486
xpo	8487
éin	8488
##ez	8489
##je	8490
##km	8491
##ón	8492
forc	8493
atwi	8494
enos	8495
anci	8496
##uth	8497
shida	8498
asing	8499
ashi	8500
pond	8501
afri	8502
upi	8503
ques	8504
canno	8505
estle	8506
buse	8507
trive	8508
owing	8509
peg	8510
jogg	8511
mona	8512
ubic	8513
rtai	8514
nora	8515
smine	8516
irst	8517
ossi	8518
annu	8519
ondit	8520
frie	8521
nett	8522
olt	8523
101	8524
hale	8525
gran	8526
menei	8527
eged	8528
msps	8529
ncho	8530
alize	8531
eady	8532
jaw	8533
amib	8534
oley	8535
rada	8536
encha	8537
ronx	8538
ricey	8539
eismi	8540
ancho	8541
dles	8542
tosse	8543
hiny	8544
rname	8545
pster	8546
rtho	8547
ptsd	8548
isbon	8549
8th	8550
cg	8551
fus	8552
gge	8553
hb	8554
hali	8555
lick	8556
nra	8557
ply	8558
pio	8559
pru	8560
pneu	8561
rly	8562
rong	8563
rini	8564
uven	8565
wra	8566
wad	8567
yg	8568
yna	8569
##lon	8570
##hei	8571
##yi	8572
##wu	8573
##ոն	8574
##ato	8575
remi	8576
erro	8577
beta	8578
atest	8579
attl	8580
hees	8581
heid	8582
heera	8583
##lda	8584
alsa	8585
arley	8586
arjo	8587
##ghi	8588
##gha	8589
mei	8590
spers	8591
hoa	8592
hog	8593
hoop	8594
taps	8595
caa	8596
roma	8597
roam	8598
rode	8599
nol	8600
adra	8601
twent	8602
rius	8603
evo	8604
llott	8605
kni	8606
mons	8607
veg	8608
ncil	8609
awe	8610
skat	8611
hind	8612
rati	8613
ulso	8614
rmat	8615
ahma	8616
ugu	8617
aku	8618
shav	8619
tated	8620
eega	8621
cymru	8622
malnu	8623
ires	8624
ombi	8625
orni	8626
plete	8627
ssail	8628
ynony	8629
nston	8630
gasp	8631
bett	8632
eams	8633
ocha	8634
arche	8635
yuan	8636
swell	8637
ctive	8638
nagar	8639
ocrat	8640
vodka	8641
ngkok	8642
lichi	8643
ánch	8644
heloc	8645
7th	8646
dz	8647
dity	8648
gute	8649
hru	8650
kic	8651
lust	8652
lmi	8653
mct	8654
mite	8655
nsta	8656
rso	8657
uad	8658
uard	8659
vich	8660
wth	8661
wadi	8662
xten	8663
yah	8664
zip	8665
ման	8666
յին	8667
##mar	8668
##ds	8669
##vre	8670
##ից	8671
##մբ	8672
reate	8673
erp	8674
onge	8675
itle	8676
tidy	8677
shd	8678
shore	8679
##iri	8680
sag	8681
lions	8682
arun	8683
gof	8684
spina	8685
lama	8686
hohei	8687
poke	8688
dos	8689
trunk	8690
rapp	8691
noop	8692
agen	8693
nden	8694
ndal	8695
ndall	8696
dull	8697
nagg	8698
grea	8699
eling	8700
rune	8701
eyes	8702
auda	8703
carr	8704
artn	8705
ulin	8706
jpm	8707
olit	8708
arda	8709
avan	8710
egin	8711
hyn	8712
eals	8713
ival	8714
astel	8715
oos	8716
ennia	8717
elsey	8718
ercy	8719
140	8720
argre	8721
170	8722
darl	8723
dorf	8724
ntyre	8725
inks	8726
vsk	8727
ucia	8728
rmagh	8729
tyres	8730
yatra	8731
yted	8732
nacho	8733
vaila	8734
pfas	8735
arlem	8736
ehold	8737
qhwm	8738
ditya	8739
aar	8740
cly	8741
dwa	8742
efe	8743
eod	8744
gk	8745
gore	8746
gmb	8747
hh	8748
iol	8749
iya	8750
nform	8751
olf	8752
pita	8753
ré	8754
renc	8755
titu	8756
uo	8757
xio	8758
yra	8759
yev	8760
վել	8761
##hy	8762
##wy	8763
andha	8764
stion	8765
##lly	8766
tihad	8767
hami	8768
enera	8769
alami	8770
##cho	8771
cham	8772
chip	8773
##lac	8774
unil	8775
byd	8776
hod	8777
doha	8778
rost	8779
oute	8780
enten	8781
quar	8782
aggy	8783
rigi	8784
amu	8785
fod	8786
aph	8787
urin	8788
estos	8789
cking	8790
ssis	8791
treb	8792
rta	8793
vez	8794
obr	8795
mran	8796
hts	8797
arton	8798
erni	8799
mena	8800
easu	8801
oyah	8802
malfu	8803
eally	8804
mcs	8805
aram	8806
furt	8807
aliz	8808
astic	8809
nery	8810
lsg	8811
knox	8812
401	8813
kyro	8814
urgum	8815
iko	8816
elda	8817
urie	8818
ecky	8819
ehru	8820
lumni	8821
rsten	8822
admin	8823
zoom	8824
poulo	8825
loaf	8826
ngola	8827
demon	8828
npr	8829
oets	8830
արմ	8831
kayak	8832
aunch	8833
9am	8834
cise	8835
dk	8836
dhi	8837
gc	8838
gath	8839
khi	8840
lord	8841
mney	8842
oust	8843
pip	8844
tc	8845
tani	8846
uir	8847
vow	8848
wf	8849
yas	8850
yll	8851
##gen	8852
##hl	8853
##car	8854
##եղ	8855
##oum	8856
isti	8857
hemo	8858
shpa	8859
asso	8860
alty	8861
alta	8862
##ett	8863
sak	8864
saka	8865
liu	8866
lima	8867
tees	8868
arno	8869
abby	8870
prose	8871
dolu	8872
noid	8873
pam	8874
fema	8875
mano	8876
bafta	8877
etf	8878
oups	8879
veh	8880
idy	8881
nsk	8882
unts	8883
addie	8884
ryce	8885
ffort	8886
obl	8887
indus	8888
pup	8889
iah	8890
uled	8891
odo	8892
voc	8893
akh	8894
lumb	8895
rrend	8896
eely	8897
stool	8898
eale	8899
kah	8900
rdon	8901
pleas	8902
atho	8903
125	8904
nsibl	8905
jax	8906
240	8907
nkar	8908
nkara	8909
rowth	8910
rbán	8911
ntha	8912
cnic	8913
wanna	8914
macd	8915
80s	8916
inny	8917
cated	8918
tanz	8919
wser	8920
nistr	8921
louse	8922
sther	8923
999	8924
alvag	8925
bok	8926
cest	8927
cma	8928
fet	8929
gou	8930
iw	8931
kow	8932
kul	8933
kala	8934
mra	8935
mri	8936
rater	8937
uilt	8938
vw	8939
yro	8940
yve	8941
zra	8942
պա	8943
քա	8944
##iu	8945
##ug	8946
##der	8947
##vs	8948
##նա	8949
##աց	8950
##իա	8951
inha	8952
inney	8953
tomi	8954
andum	8955
stco	8956
##isy	8957
itha	8958
itta	8959
##utz	8960
asino	8961
alis	8962
orga	8963
##irt	8964
sap	8965
teme	8966
arer	8967
##lai	8968
aber	8969
abre	8970
abie	8971
frost	8972
gosl	8973
##ulu	8974
adb	8975
ndiv	8976
ttis	8977
llc	8978
undo	8979
grape	8980
nand	8981
pew	8982
elch	8983
##emi	8984
cleo	8985
siona	8986
newsw	8987
eplac	8988
frack	8989
tsp	8990
eeb	8991
dered	8992
olog	8993
ecta	8994
cian	8995
ftc	8996
thium	8997
lense	8998
ajo	8999
yana	9000
snip	9001
lpine	9002
crati	9003
lamet	9004
fsb	9005
ascó	9006
tify	9007
izzu	9008
kabul	9009
tutor	9010
.,	9011
00	9012
aam	9013
aip	9014
aqu	9015
bot	9016
bba	9017
blica	9018
cse	9019
emm	9020
fp	9021
gd	9022
jc	9023
jol	9024
lj	9025
lara	9026
mho	9027
nun	9028
qsa	9029
rall	9030
rwar	9031
vie	9032
vain	9033
wse	9034
xeno	9035
yndi	9036
zor	9037
zha	9038
ակ	9039
իր	9040
reu	9041
edict	9042
erst	9043
forty	9044
bees	9045
atla	9046
atus	9047
anes	9048
dean	9049
weed	9050
sapp	9051
seu	9052
##mph	9053
armen	9054
suff	9055
##kee	9056
prob	9057
unct	9058
tama	9059
candi	9060
herb	9061
adia	9062
cant	9063
ppro	9064
rix	9065
evron	9066
inta	9067
dubi	9068
etra	9069
knick	9070
ukone	9071
eles	9072
eline	9073
trea	9074
medy	9075
mull	9076
obey	9077
ilar	9078
mayor	9079
leton	9080
ledge	9081
fries	9082
ounge	9083
cum	9084
ahr	9085
ahya	9086
euvre	9087
10m	9088
nyu	9089
oyo	9090
nfr	9091
inja	9092
omina	9093
ipso	9094
ftx	9095
vana	9096
tvs	9097
oole	9098
aleh	9099
stein	9100
scha	9101
tmz	9102
lese	9103
rls	9104
llows	9105
axe	9106
azar	9107
rady	9108
nesty	9109
yogu	9110
ltar	9111
dgar	9112
glee	9113
ucous	9114
yriad	9115
ronny	9116
gyn	9117
lved	9118
glar	9119
chuk	9120
riam	9121
khail	9122
thyr	9123
rinse	9124
zuki	9125
hsbc	9126
tresp	9127
honed	9128
czar	9129
hreat	9130
skew	9131
s24	9132
ayyip	9133
auc	9134
cris	9135
eue	9136
eact	9137
gpt	9138
hc	9139
ilic	9140
lman	9141
lng	9142
lani	9143
nush	9144
oone	9145
sé	9146
sme	9147
sner	9148
tna	9149
wink	9150
xes	9151
yre	9152
zee	9153
érez	9154
առա	9155
ող	9156
վոր	9157
##lb	9158
##dr	9159
##ão	9160
erne	9161
erner	9162
erena	9163
stoun	9164
onna	9165
##idi	9166
whack	9167
##vet	9168
hael	9169
mace	9170
lecti	9171
suf	9172
##lam	9173
sos	9174
arel	9175
prom	9176
lom	9177
loath	9178
bye	9179
moza	9180
trate	9181
ropp	9182
afoe	9183
nova	9184
mirez	9185
ntz	9186
ghd	9187
opo	9188
opul	9189
bah	9190
##oka	9191
##oda	9192
estl	9193
etai	9194
ngra	9195
eared	9196
owle	9197
nowle	9198
llia	9199
rten	9200
rtín	9201
ayfa	9202
idn	9203
meric	9204
wari	9205
ldon	9206
ims	9207
imd	9208
##rum	9209
irk	9210
desa	9211
iste	9212
hani	9213
waiv	9214
olle	9215
ritis	9216
arten	9217
ridg	9218
drape	9219
rking	9220
eanu	9221
tsu	9222
shov	9223
eaty	9224
ncha	9225
mata	9226
ackin	9227
aliba	9228
eagu	9229
ooley	9230
arim	9231
lsen	9232
akeem	9233
ptu	9234
lkar	9235
ezz	9236
eresa	9237
tmc	9238
leni	9239
amba	9240
azza	9241
yoav	9242
acie	9243
cbn	9244
elleh	9245
horo	9246
rugg	9247
vory	9248
bala	9249
mnest	9250
wkin	9251
kshi	9252
hines	9253
rthy	9254
anju	9255
lutio	9256
gluco	9257
socia	9258
irgc	9259
wartz	9260
prud	9261
hoax	9262
ilico	9263
2m	9264
4k	9265
5pm	9266
a1	9267
eña	9268
fue	9269
hie	9270
iat	9271
kb	9272
kali	9273
mā	9274
nze	9275
nka	9276
rina	9277
rza	9278
rful	9279
rwa	9280
sans	9281
svi	9282
wali	9283
wank	9284
xy	9285
yz	9286
yf	9287
yli	9288
zac	9289
յան	9290
##mc	9291
##ib	9292
inna	9293
##itt	9294
stv	9295
itin	9296
##ido	9297
isro	9298
cod	9299
atp	9300
hamp	9301
enza	9302
enney	9303
anine	9304
anza	9305
det	9306
deg	9307
dell	9308
asn	9309
orin	9310
orde	9311
chat	9312
tek	9313
arco	9314
arwin	9315
logna	9316
unus	9317
meps	9318
spies	9319
hoi	9320
usp	9321
afé	9322
afari	9323
nox	9324
mig	9325
ntis	9326
sip	9327
hadi	9328
ndre	9329
nday	9330
cann	9331
foe	9332
duke	9333
urley	9334
etri	9335
stral	9336
bull	9337
boat	9338
tero	9339
greas	9340
elby	9341
mary	9342
otus	9343
merge	9344
kend	9345
smu	9346
ilin	9347
rsp	9348
niq	9349
ondo	9350
ignor	9351
secr	9352
aime	9353
aira	9354
aui	9355
arto	9356
arta	9357
mmun	9358
clama	9359
rky	9360
okro	9361
grit	9362
lug	9363
avag	9364
drank	9365
usto	9366
egion	9367
tsw	9368
misl	9369
mish	9370
rnton	9371
ompe	9372
vena	9373
ecto	9374
yeast	9375
oints	9376
115	9377
slack	9378
160	9379
arko	9380
ainta	9381
daddy	9382
elena	9383
270	9384
olidi	9385
guyen	9386
lizz	9387
ijk	9388
lapd	9389
yrone	9390
eshki	9391
tlej	9392
rshal	9393
360	9394
wsu	9395
tark	9396
##zig	9397
lgar	9398
cds	9399
otox	9400
albot	9401
ynthi	9402
krono	9403
liss	9404
slug	9405
wynet	9406
fanik	9407
tefan	9408
xcx	9409
xios	9410
gatha	9411
seudo	9412
bmi	9413
fera	9414
gast	9415
g20	9416
hord	9417
hms	9418
iit	9419
iba	9420
kip	9421
kami	9422
lé	9423
lict	9424
lunk	9425
moun	9426
nir	9427
nfe	9428
nva	9429
nara	9430
omes	9431
oac	9432
pj	9433
pzig	9434
qr	9435
sè	9436
smi	9437
tü	9438
vc	9439
xact	9440
yin	9441
yash	9442
գոր	9443
ել	9444
պատ	9445
′′	9446
##oz	9447
##bek	9448
##jar	9449
##yl	9450
##yd	9451
thora	9452
thee	9453
##ark	9454
reap	9455
edkar	9456
onfi	9457
##ico	9458
atvi	9459
hake	9460
hafi	9461
eny	9462
anmo	9463
shton	9464
orona	9465
neos	9466
arh	9467
hist	9468
lax	9469
holi	9470
hovel	9471
faf	9472
trus	9473
romo	9474
##iah	9475
aft	9476
ntom	9477
paw	9478
ndro	9479
mana	9480
amas	9481
fooli	9482
apc	9483
dude	9484
urdy	9485
llic	9486
etz	9487
nator	9488
graft	9489
earc	9490
daí	9491
incl	9492
pham	9493
ayle	9494
mura	9495
otta	9496
ryna	9497
ryson	9498
ffers	9499
ncrea	9500
illia	9501
agea	9502
nize	9503
ondu	9504
woven	9505
auer	9506
artm	9507
rcy	9508
udo	9509
ssier	9510
usea	9511
cern	9512
drier	9513
lita	9514
wale	9515
valve	9516
drc	9517
ieg	9518
ecb	9519
sync	9520
musc	9521
eech	9522
eefe	9523
bbutz	9524
dyke	9525
tonne	9526
venom	9527
orno	9528
rriv	9529
ibf	9530
onsu	9531
ebble	9532
bana	9533
tenti	9534
ynes	9535
iki	9536
190	9537
snia	9538
lbc	9539
ucha	9540
glue	9541
glide	9542
ehta	9543
ehler	9544
rragh	9545
heerl	9546
prah	9547
eaks	9548
tarni	9549
tacms	9550
zuma	9551
oals	9552
eisma	9553
cene	9554
fcc	9555
nws	9556
nwsl	9557
cpr	9558
temu	9559
մաս	9560
idyll	9561
jolt	9562
a4	9563
aat	9564
aigh	9565
bird	9566
cdo	9567
cfo	9568
dong	9569
ebu	9570
gina	9571
hune	9572
iru	9573
kp	9574
lne	9575
mw	9576
nin	9577
pv	9578
psi	9579
sigh	9580
tsi	9581
tink	9582
uja	9583
wt	9584
wment	9585
wner	9586
yee	9587
zam	9588
zhn	9589
ér	9590
իս	9591
ված	9592
րե	9593
##zu	9594
##zan	9595
##jah	9596
##ով	9597
##ող	9598
##գա	9599
thom	9600
andu	9601
##edo	9602
erga	9603
##icu	9604
itte	9605
tile	9606
beam	9607
atha	9608
enie	9609
hello	9610
anz	9611
##uta	9612
sht	9613
shnik	9614
asman	9615
orr	9616
mam	9617
nee	9618
saki	9619
sew	9620
sele	9621
chana	9622
lian	9623
aría	9624
lyz	9625
wig	9626
lox	9627
hish	9628
spate	9629
laga	9630
holt	9631
mop	9632
moot	9633
rol	9634
usal	9635
afta	9636
entin	9637
mila	9638
agra	9639
agari	9640
urre	9641
ursi	9642
urga	9643
efi	9644
eful	9645
cki	9646
nnet	9647
huk	9648
orden	9649
uble	9650
vious	9651
viii	9652
vein	9653
idle	9654
##aki	9655
addo	9656
warp	9657
utte	9658
iler	9659
nila	9660
airy	9661
ulter	9662
assau	9663
cribe	9664
olis	9665
odor	9666
dram	9667
rkney	9668
decl	9669
akar	9670
grue	9671
metry	9672
bred	9673
shima	9674
haven	9675
lley	9676
rnest	9677
ived	9678
rche	9679
renas	9680
iero	9681
##obo	9682
ariah	9683
lkan	9684
dvd	9685
igo	9686
batt	9687
aida	9688
ambi	9689
slav	9690
sland	9691
lesh	9692
hrunk	9693
nelm	9694
rgenc	9695
ileen	9696
morph	9697
230	9698
eltz	9699
elley	9700
lumsy	9701
nji	9702
njo	9703
erif	9704
riah	9705
gnifi	9706
aois	9707
emov	9708
elop	9709
nanci	9710
uhana	9711
epeat	9712
hunky	9713
wolv	9714
ssues	9715
toxin	9716
noaa	9717
hrub	9718
shdie	9719
olff	9720
2pm	9721
4g	9722
5ft	9723
8am	9724
8gb	9725
aina	9726
có	9727
dunk	9728
fx	9729
fare	9730
fca	9731
hé	9732
hred	9733
iva	9734
js	9735
kla	9736
kina	9737
lld	9738
lful	9739
nid	9740
pk	9741
sv	9742
sani	9743
tana	9744
yba	9745
zbek	9746
հար	9747
նց	9748
նել	9749
##pri	9750
##qa	9751
tote	9752
todo	9753
##ory	9754
reas	9755
reme	9756
##asu	9757
erms	9758
eroni	9759
athi	9760
enri	9761
hela	9762
anat	9763
ankee	9764
demi	9765
alma	9766
orst	9767
maci	9768
macl	9769
sao	9770
saic	9771
sama	9772
leuth	9773
limo	9774
ligo	9775
armi	9776
lyan	9777
suk	9778
wiz	9779
loch	9780
spicu	9781
hoea	9782
esg	9783
doe	9784
fab	9785
raun	9786
roj	9787
ushi	9788
shev	9789
##imi	9790
aden	9791
ntu	9792
agan	9793
agala	9794
ndri	9795
mane	9796
ppg	9797
evro	9798
evue	9799
verbe	9800
está	9801
hows	9802
mpo	9803
thany	9804
ecov	9805
acl	9806
acula	9807
dah	9808
phon	9809
ubin	9810
rting	9811
ayan	9812
idhu	9813
otro	9814
nsic	9815
nsure	9816
chiz	9817
obese	9818
ilt	9819
agel	9820
rsley	9821
nik	9822
velo	9823
ellen	9824
womb	9825
wobbl	9826
ggy	9827
clout	9828
clero	9829
ulsa	9830
lott	9831
udes	9832
ahra	9833
ahmo	9834
olm	9835
olfe	9836
visi	9837
ardo	9838
ewey	9839
bask	9840
eger	9841
egro	9842
coste	9843
osti	9844
giga	9845
rdy	9846
mcr	9847
arac	9848
flag	9849
astri	9850
hosh	9851
orig	9852
50s	9853
azan	9854
ergic	9855
nky	9856
ausa	9857
leric	9858
logg	9859
ikil	9860
moro	9861
hatia	9862
rho	9863
ylon	9864
aldi	9865
heila	9866
lvani	9867
haraj	9868
uire	9869
annik	9870
ilda	9871
eggie	9872
eapon	9873
gesta	9874
450	9875
rship	9876
wyatt	9877
eogha	9878
affo	9879
acoma	9880
arrod	9881
համա	9882
awaz	9883
hypno	9884
gieg	9885
lgae	9886
kwh	9887
tishi	9888
aheem	9889
íaz	9890
rgyll	9891
ssidy	9892
zhao	9893
bam	9894
cq	9895
eera	9896
eka	9897
fers	9898
hw	9899
jm	9900
kre	9901
klo	9902
kka	9903
lba	9904
lha	9905
lora	9906
nve	9907
ncti	9908
oha	9909
pso	9910
plica	9911
rss	9912
rca	9913
russ	9914
sfa	9915
xar	9916
yla	9917
zest	9918
áil	9919
ña	9920
ños	9921
պես	9922
##dc	9923
##don	9924
inod	9925
inai	9926
reo	9927
rees	9928
##alt	9929
erica	9930
erzo	9931
stun	9932
itro	9933
iscus	9934
bec	9935
belt	9936
hack	9937
enzo	9938
anth	9939
##met	9940
asper	9941
alam	9942
alvo	9943
wasp	9944
maul	9945
maha	9946
leop	9947
chev	9948
lil	9949
teet	9950
arez	9951
lola	9952
loke	9953
exec	9954
mep	9955
spin	9956
allon	9957
hoai	9958
hoov	9959
tame	9960
esis	9961
doo	9962
dome	9963
moan	9964
usha	9965
noisy	9966
##lov	9967
adri	9968
adine	9969
opete	9970
scout	9971
stave	9972
efl	9973
mpet	9974
knu	9975
knack	9976
ngue	9977
ngie	9978
nata	9979
gravy	9980
ssor	9981
ssar	9982
owry	9983
huw	9984
humm	9985
acin	9986
nsh	9987
nsc	9988
nslet	9989
adda	9990
iren	9991
ircu	9992
deshi	9993
nuis	9994
eym	9995
icef	9996
ratt	9997
aiims	9998
ceit	9999
