<unk>	0
<s>	0
</s>	0
▁the	-3.28135
,	-3.30469
.	-3.34002
s	-3.75709
▁to	-3.84852
▁and	-3.98606
▁a	-3.99996
▁of	-4.03205
▁in	-4.19018
'	-4.19189
▁that	-4.83282
▁"	-4.84147
-	-4.85774
▁for	-4.89028
▁is	-4.96967
▁on	-4.97421
▁with	-5.16103
▁was	-5.17755
▁it	-5.27318
▁The	-5.28945
▁I	-5.38099
▁as	-5.48671
ing	-5.50252
▁at	-5.56098
▁said	-5.57895
▁be	-5.5992
▁he	-5.61142
▁have	-5.6412
t	-5.64923
▁has	-5.66653
▁from	-5.68406
▁his	-5.69162
▁are	-5.73207
▁by	-5.74894
:	-5.81442
▁-	-5.85891
▁an	-5.92623
,"	-5.96721
▁this	-5.97012
▁not	-5.982
▁you	-5.98338
ed	-5.98605
"	-6.04143
."	-6.06328
▁who	-6.08657
▁will	-6.09865
▁her	-6.09886
▁they	-6.10142
▁their	-6.12912
▁but	-6.15954
▁had	-6.18118
▁we	-6.21982
▁been	-6.22414
d	-6.2675
▁or	-6.29206
▁she	-6.30911
▁	-6.31866
▁were	-6.32747
▁can	-6.36086
▁more	-6.36425
▁(	-6.36942
▁about	-6.37528
▁one	-6.40105
▁which	-6.41041
▁also	-6.43613
▁after	-6.438
▁up	-6.45712
▁out	-6.46422
▁It	-6.5207
)	-6.52772
n	-6.52778
▁would	-6.53952
▁all	-6.54688
▁'	-6.56746
▁A	-6.57195
m	-6.59273
▁people	-6.59289
▁when	-6.62219
▁He	-6.67812
▁over	-6.68508
▁so	-6.68936
re	-6.69657
▁time	-6.70033
I	-6.7289
▁In	-6.73055
▁like	-6.74152
▁its	-6.74268
▁just	-6.74862
▁into	-6.77164
▁there	-6.79099
▁than	-6.79922
▁first	-6.80883
ly	-6.81406
▁my	-6.83197
▁two	-6.83206
▁what	-6.84946
▁year	-6.85851
▁But	-6.91178
▁them	-6.92973
▁him	-6.93958
▁our	-6.94695
y	-6.9523
▁years	-6.96764
▁if	-6.9757
▁could	-6.97579
▁new	-6.97929
▁do	-6.98249
▁your	-6.9891
▁Trump	-6.99811
▁other	-7.00098
a	-7.005
▁last	-7.01656
▁some	-7.02465
?	-7.03653
e	-7.03825
▁me	-7.07823
▁now	-7.09125
▁no	-7.1054
▁get	-7.11327
▁back	-7.11681
ve	-7.12265
er	-7.15151
▁before	-7.17008
▁being	-7.19396
▁how	-7.20952
▁only	-7.23739
▁where	-7.24692
S	-7.26503
▁because	-7.2687
▁against	-7.30379
▁make	-7.30404
▁Mr	-7.30695
▁while	-7.32334
▁And	-7.32646
▁This	-7.34032
▁We	-7.3425
▁told	-7.34409
▁most	-7.35249
▁three	-7.37054
▁She	-7.39097
▁off	-7.39134
▁then	-7.39738
▁think	-7.39771
▁any	-7.40086
▁made	-7.40094
▁during	-7.40835
▁going	-7.41237
▁even	-7.42428
▁way	-7.43978
▁well	-7.44446
▁down	-7.45225
▁many	-7.45556
▁those	-7.48
▁very	-7.48208
▁work	-7.49047
▁says	-7.49092
▁around	-7.49192
▁know	-7.49246
▁home	-7.49725
▁through	-7.4987
▁don	-7.5005
▁day	-7.51115
/	-7.5254
▁much	-7.54273
▁government	-7.54487
▁go	-7.55208
▁see	-7.56117
▁take	-7.56225
▁still	-7.56891
▁including	-7.57007
▁since	-7.57346
▁should	-7.57404
▁want	-7.57761
▁did	-7.58052
▁They	-7.58981
The	-7.5911
▁these	-7.59149
▁U	-7.63314
▁need	-7.64712
▁really	-7.64996
▁good	-7.6503
▁state	-7.65188
▁life	-7.65479
▁world	-7.65918
▁such	-7.6606
▁team	-7.66203
▁us	-7.66642
▁country	-7.6697
▁long	-7.67735
▁between	-7.67896
▁say	-7.6799
▁right	-7.6801
▁New	-7.68466
▁week	-7.69636
r	-7.70767
▁part	-7.70826
al	-7.70981
▁family	-7.71149
▁under	-7.71225
ll	-7.7148
▁added	-7.72163
We	-7.72177
▁former	-7.72755
▁Biden	-7.72802
▁does	-7.7283
in	-7.73
▁game	-7.7532
year	-7.75683
p	-7.76065
▁got	-7.77331
es	-7.77392
th	-7.78058
o	-7.79906
▁may	-7.80495
;	-7.80609
▁left	-7.8072
▁another	-7.81187
▁support	-7.81257
▁come	-7.81282
▁own	-7.81418
i	-7.82663
▁next	-7.82836
▁show	-7.83354
It	-7.83863
▁second	-7.84048
▁both	-7.8407
▁best	-7.84178
▁end	-7.84781
▁help	-7.85469
▁found	-7.85592
▁set	-7.85686
▁four	-7.85868
▁That	-7.86449
▁per	-7.86474
▁President	-7.87097
▁same	-7.8793
▁There	-7.88202
▁S	-7.89033
▁high	-7.89091
▁season	-7.89538
▁too	-7.90815
▁place	-7.90998
old	-7.91715
▁US	-7.93183
▁never	-7.93223
c	-7.93464
▁public	-7.93499
▁As	-7.94833
▁million	-7.96294
▁according	-7.97857
▁lot	-7.97877
▁media	-7.98158
▁police	-7.9844
▁here	-7.9892
▁If	-7.9906
▁children	-7.99748
▁UK	-7.99896
▁women	-8.0016
▁days	-8.00253
▁election	-8.00685
▁top	-8.00768
▁put	-8.01233
▁Israel	-8.01488
▁case	-8.02002
▁So	-8.0209
▁across	-8.02874
▁every	-8.03142
▁five	-8.03316
▁use	-8.03669
▁company	-8.04333
▁party	-8.04347
▁didn	-8.0461
▁won	-8.04722
▁look	-8.05102
▁group	-8.05235
▁used	-8.05898
▁president	-8.06642
▁win	-8.06671
▁seen	-8.0693
▁took	-8.0693
▁You	-8.07002
▁away	-8.07072
▁always	-8.07795
▁For	-8.08037
▁play	-8.08241
▁called	-8.08457
▁later	-8.08558
▁man	-8.09424
▁something	-8.09686
▁months	-8.09831
▁2024	-8.10442
▁again	-8.10739
to	-8.1108
▁month	-8.11089
▁things	-8.11282
A	-8.11343
▁campaign	-8.11395
▁came	-8.11532
C	-8.1176
▁reported	-8.12088
▁might	-8.12259
▁On	-8.12564
▁10	-8.13006
▁health	-8.13712
▁United	-8.14964
▁without	-8.1525
▁few	-8.15404
▁far	-8.1543
▁keep	-8.16108
▁social	-8.16594
▁went	-8.17304
man	-8.17333
▁court	-8.17452
▁night	-8.17934
▁little	-8.18068
▁feel	-8.18222
▁better	-8.18467
▁big	-8.18667
b	-8.18831
g	-8.19217
▁One	-8.19648
▁each	-8.19711
on	-8.19816
]	-8.20951
▁[	-8.20974
▁having	-8.21792
▁When	-8.2209
▁love	-8.22621
▁change	-8.22909
▁making	-8.23045
ers	-8.23265
▁find	-8.23511
▁However	-8.23764
▁de	-8.23777
▁money	-8.24128
▁already	-8.24332
▁number	-8.24341
▁political	-8.24388
▁war	-8.24434
▁start	-8.24438
▁un	-8.24586
▁different	-8.25123
▁city	-8.25194
an	-8.25297
▁six	-8.25681
!	-8.26211
▁wrote	-8.27107
▁great	-8.27279
Credit	-8.27465
▁India	-8.27499
▁working	-8.27785
▁until	-8.27921
▁final	-8.28573
▁early	-8.28587
▁local	-8.28986
▁past	-8.29363
▁water	-8.29535
▁O	-8.29624
▁become	-8.308
▁head	-8.31643
▁side	-8.31748
▁point	-8.31774
▁law	-8.3228
▁Ukraine	-8.32497
▁Harris	-8.32701
),	-8.32719
▁full	-8.32744
▁York	-8.32959
▁recent	-8.33302
▁person	-8.33466
▁American	-8.3371
▁able	-8.33774
▁report	-8.34163
▁school	-8.34657
▁To	-8.3536
▁following	-8.35587
▁face	-8.36275
▁military	-8.36335
▁statement	-8.36607
▁third	-8.36636
▁asked	-8.36938
▁power	-8.3715
▁star	-8.37272
se	-8.37968
l	-8.38021
▁hard	-8.38253
en	-8.38259
▁House	-8.38305
▁must	-8.38737
▁At	-8.388
▁give	-8.38834
▁why	-8.39163
▁After	-8.39173
▁Russia	-8.39321
▁saying	-8.39438
▁England	-8.39466
▁City	-8.39476
▁post	-8.39498
▁together	-8.40324
▁attack	-8.40543
the	-8.40622
▁20	-8.40651
▁run	-8.40699
▁ever	-8.40713
▁decision	-8.4093
▁less	-8.40966
▁least	-8.41191
▁Gaza	-8.41319
▁often	-8.41333
k	-8.41369
▁No	-8.41771
▁thing	-8.41949
▁young	-8.41967
▁business	-8.42058
▁cent	-8.4214
▁among	-8.42447
▁due	-8.42484
▁hit	-8.42579
▁half	-8.42694
▁getting	-8.42797
▁comes	-8.42801
▁known	-8.42836
▁taken	-8.43361
▁today	-8.4346
▁future	-8.43841
▁Sunday	-8.43845
▁death	-8.44034
▁Friday	-8.44096
▁ago	-8.4433
▁Monday	-8.44612
▁whether	-8.44804
▁times	-8.4495
▁taking	-8.45138
▁video	-8.45293
▁men	-8.45606
▁series	-8.46698
▁several	-8.46759
▁given	-8.46853
▁car	-8.47085
▁London	-8.47261
▁players	-8.47368
▁re	-8.47562
▁line	-8.47568
▁Tuesday	-8.47818
▁South	-8.47949
▁close	-8.47987
▁started	-8.48076
).	-8.48183
▁doing	-8.48239
▁thought	-8.48439
▁fans	-8.48502
▁likely	-8.48776
▁D	-8.4882
▁move	-8.49022
▁food	-8.49041
▁though	-8.49075
▁enough	-8.49089
▁important	-8.49253
▁national	-8.49271
▁live	-8.49282
▁members	-8.49355
▁further	-8.49431
f	-8.49585
▁pay	-8.49683
▁While	-8.49784
▁E	-8.50025
or	-8.50722
▁done	-8.5097
▁1	-8.50994
▁deal	-8.5107
▁With	-8.51397
▁security	-8.51412
▁C	-8.51731
▁games	-8.51759
▁2	-8.51864
▁expected	-8.52212
▁May	-8.52502
▁B	-8.52523
▁once	-8.52609
▁T	-8.527
▁China	-8.52872
▁system	-8.52876
▁Ms	-8.52956
▁clear	-8.53209
▁open	-8.53291
▁area	-8.53449
▁What	-8.53903
▁behind	-8.53991
▁Wednesday	-8.54061
▁National	-8.54139
▁officials	-8.54333
▁role	-8.54385
up	-8.54396
▁film	-8.54429
▁continue	-8.55137
▁Thursday	-8.55344
▁free	-8.55646
...	-8.55922
▁co	-8.56127
▁job	-8.56211
▁looking	-8.56391
▁X	-8.565
▁small	-8.56568
▁5	-8.56605
▁am	-8.56628
▁State	-8.56734
▁call	-8.56868
▁His	-8.56869
▁care	-8.56879
▁Minister	-8.56934
▁Russian	-8.57239
▁office	-8.57452
▁coming	-8.57605
▁hours	-8.57686
▁played	-8.57789
▁event	-8.58007
▁announced	-8.58078
▁bit	-8.58103
▁yet	-8.58108
▁shared	-8.58319
▁real	-8.58375
▁major	-8.5839
▁World	-8.58403
▁lead	-8.58547
▁experience	-8.58572
2	-8.58864
▁news	-8.59003
▁trying	-8.59429
▁community	-8.59517
▁return	-8.59545
G	-8.59592
▁weeks	-8.59664
▁M	-8.59664
▁moment	-8.60124
▁woman	-8.60352
h	-8.60406
▁News	-8.60828
▁West	-8.60981
▁within	-8.61112
▁history	-8.61586
▁using	-8.61617
▁kind	-8.62113
▁couple	-8.62278
▁Israeli	-8.62408
▁F	-8.62644
▁body	-8.62751
▁vote	-8.62944
▁along	-8.63544
▁data	-8.63639
▁killed	-8.63701
▁near	-8.63833
▁career	-8.63927
D	-8.6406
▁market	-8.64548
▁saw	-8.64579
5	-8.64907
▁Saturday	-8.65133
▁house	-8.65255
▁almost	-8.65266
B	-8.65355
▁Donald	-8.65364
▁record	-8.65578
▁cost	-8.6562
▁12	-8.65812
▁plan	-8.65899
time	-8.66202
▁4	-8.66258
▁June	-8.66415
▁points	-8.66469
am	-8.66723
▁sure	-8.66817
▁mother	-8.6701
▁earlier	-8.67207
▁name	-8.67362
▁club	-8.67654
▁air	-8.67859
▁late	-8.67902
":"	-8.68138
▁summer	-8.68188
▁minutes	-8.682
▁wanted	-8.68203
▁ahead	-8.68664
▁everything	-8.69002
▁3	-8.69018
▁led	-8.69182
▁lost	-8.69209
1	-8.69332
▁old	-8.69385
▁believe	-8.6939
▁July	-8.6943
▁someone	-8.69451
▁League	-8.6991
▁October	-8.69911
▁process	-8.69994
▁revealed	-8.70123
▁outside	-8.70205
▁forward	-8.70311
▁tell	-8.70582
▁British	-8.70829
▁leader	-8.70946
▁try	-8.71615
▁issues	-8.71733
R	-8.71742
▁course	-8.71918
▁others	-8.71983
▁story	-8.7209
▁felt	-8.72091
▁result	-8.72165
▁countries	-8.72258
▁son	-8.72412
,""	-8.72508
▁Court	-8.73189
N	-8.73233
▁Republican	-8.73292
▁risk	-8.73377
▁international	-8.73432
▁online	-8.73582
▁means	-8.73725
F	-8.73736
▁held	-8.73839
This	-8.73876
▁January	-8.74146
▁November	-8.74232
▁March	-8.74238
▁Black	-8.74846
▁All	-8.74906
▁legal	-8.75006
▁service	-8.75144
▁died	-8.75287
▁minister	-8.75332
▁...	-8.75396
▁level	-8.7553
▁An	-8.75566
▁key	-8.75568
▁April	-8.75629
▁everyone	-8.75817
▁policy	-8.75888
▁began	-8.7623
▁action	-8.76249
▁age	-8.76638
▁child	-8.76688
▁hand	-8.76739
K	-8.76865
▁voters	-8.76887
▁price	-8.77121
▁front	-8.77187
le	-8.77423
▁staff	-8.77692
▁issue	-8.77771
less	-8.77956
▁order	-8.78098
▁became	-8.78127
▁playing	-8.7822
▁race	-8.78244
▁University	-8.78296
▁nearly	-8.78332
▁Labour	-8.78481
▁18	-8.78674
able	-8.7872
▁energy	-8.78753
▁G	-8.79332
▁cut	-8.79635
▁30	-8.79651
▁possible	-8.79935
▁tax	-8.80068
▁information	-8.80215
▁seven	-8.80264
▁North	-8.80527
▁released	-8.80566
ar	-8.80577
▁Dr	-8.80647
▁percent	-8.80666
▁wife	-8.80683
▁running	-8.80689
▁building	-8.80763
▁15	-8.80876
▁recently	-8.81031
▁P	-8.81205
ic	-8.81267
▁N	-8.81338
▁official	-8.81599
▁shows	-8.81612
▁space	-8.81629
▁fact	-8.8174
el	-8.81939
▁director	-8.82168
▁large	-8.82177
▁bring	-8.82479
▁short	-8.8252
▁America	-8.82728
▁7	-8.83053
▁stop	-8.83084
▁Washington	-8.83101
▁himself	-8.83107
E	-8.83283
and	-8.83365
co	-8.83475
▁Police	-8.83483
com	-8.83518
▁access	-8.83572
▁Scotland	-8.83865
▁chief	-8.83868
3	-8.83928
▁anything	-8.84054
▁father	-8.84056
▁friends	-8.84057
▁living	-8.84444
▁offer	-8.84496
▁leave	-8.84723
He	-8.84724
▁let	-8.84729
u	-8.8473
4	-8.84806
▁TV	-8.84864
▁fire	-8.84962
▁available	-8.85109
it	-8.85111
▁special	-8.85134
▁plans	-8.8521
▁interview	-8.85265
▁p	-8.85464
▁European	-8.85809
▁John	-8.85871
▁actually	-8.86196
▁services	-8.86224
▁eight	-8.86362
▁hope	-8.86412
▁player	-8.86781
▁latest	-8.86888
▁especially	-8.87259
▁room	-8.87526
▁meeting	-8.87622
▁position	-8.87741
▁interest	-8.87766
▁federal	-8.8785
▁Al	-8.87974
T	-8.88125
P	-8.88173
▁strong	-8.88217
▁control	-8.88315
▁financial	-8.88339
▁potential	-8.88539
▁11	-8.88765
▁match	-8.88818
▁students	-8.89021
▁share	-8.89175
▁lives	-8.89178
▁rate	-8.89208
▁AI	-8.89303
▁despite	-8.89453
▁billion	-8.89703
▁include	-8.89883
▁music	-8.89924
▁claimed	-8.89928
▁current	-8.89953
▁provide	-8.9046
ra	-8.90651
▁significant	-8.90675
st	-8.9075
▁September	-8.90774
▁My	-8.90841
▁trial	-8.90932
▁single	-8.90941
▁industry	-8.90977
▁Some	-8.9106
▁States	-8.91062
▁impact	-8.91185
▁needs	-8.9125
▁received	-8.91274
▁incident	-8.91442
7	-8.91482
▁parents	-8.91546
▁border	-8.91566
▁human	-8.91777
li	-8.91811
▁Joe	-8.91902
▁August	-8.92319
▁makes	-8.9233
▁stage	-8.92431
▁8	-8.92538
▁book	-8.92653
▁relationship	-8.92821
▁football	-8.92888
▁daughter	-8.92934
▁White	-8.92955
▁low	-8.93194
▁focus	-8.93364
▁states	-8.93367
▁heart	-8.93495
▁allow	-8.93587
▁nothing	-8.93681
▁Now	-8.93882
▁morning	-8.93886
▁goal	-8.93913
▁quite	-8.94012
▁continued	-8.94174
▁According	-8.94315
▁Hamas	-8.94325
▁companies	-8.94413
▁K	-8.94475
▁needed	-8.94596
▁economic	-8.94624
no	-8.94641
▁presidential	-8.94752
▁Instagram	-8.94842
▁turn	-8.95135
▁investigation	-8.95311
ion	-8.9532
▁6	-8.9567
M	-8.95821
▁response	-8.95865
▁St	-8.95893
▁region	-8.96186
▁ball	-8.96213
▁&	-8.96542
▁general	-8.96782
▁matter	-8.9686
▁soon	-8.96966
You	-8.97092
▁showed	-8.97118
W	-8.97155
▁shot	-8.97199
▁14	-8.97312
▁R	-8.97321
▁question	-8.97384
▁global	-8.97536
▁increase	-8.97552
?"	-8.97679
▁evidence	-8.97754
▁Images	-8.97835
▁performance	-8.97862
▁Congress	-8.97865
▁leading	-8.98039
▁California	-8.98079
▁Her	-8.98262
▁Department	-8.98304
▁accused	-8.9836
▁previously	-8.98507
▁chance	-8.9853
▁hospital	-8.98851
▁BBC	-8.98973
▁based	-8.99103
▁rather	-8.99189
▁L	-8.99216
out	-8.99236
▁2023	-8.99329
▁comment	-8.99439
▁ground	-8.99541
▁whole	-8.99647
▁fight	-8.99845
▁economy	-8.9997
▁W	-8.99978
▁white	-8.99981
▁claims	-9.0007
▁huge	-9.00099
ity	-9.00105
▁happened	-9.0017
▁period	-9.00248
la	-9.003
▁50	-9.00448
▁19	-9.00478
▁administration	-9.00531
▁confirmed	-9.00611
▁Democratic	-9.00762
▁2022	-9.00775
>	-9.00961
▁France	-9.0097
8	-9.00994
▁These	-9.0105
▁longer	-9.01054
▁difficult	-9.01223
▁gave	-9.01334
▁J	-9.0148
▁safety	-9.01557
▁release	-9.01583
▁situation	-9.01751
▁higher	-9.01906
▁worked	-9.02021
ne	-9.02157
na	-9.02192
▁involved	-9.02263
▁term	-9.02291
▁anyone	-9.02388
▁Cup	-9.02394
_	-9.02462
▁stay	-9.02616
ton	-9.02652
▁remains	-9.02716
il	-9.02721
▁inside	-9.02805
▁leaders	-9.03158
▁Getty	-9.0316
▁sent	-9.03274
un	-9.03276
▁total	-9.03345
9	-9.03546
▁met	-9.03617
▁Paris	-9.03843
▁average	-9.0406
▁December	-9.04091
▁idea	-9.04119
▁Man	-9.04127
▁brought	-9.04321
▁Day	-9.04322
▁husband	-9.04446
ness	-9.04714
▁private	-9.04802
▁pressure	-9.05253
▁Indian	-9.05306
▁workers	-9.05306
▁phone	-9.05323
ation	-9.05374
▁spent	-9.0538
▁personal	-9.05583
▁reports	-9.05837
▁round	-9.05867
▁currently	-9.05982
6	-9.06076
▁victory	-9.06097
▁particularly	-9.06156
is	-9.06193
There	-9.06209
▁rights	-9.06224
▁H	-9.06339
▁ensure	-9.06579
▁research	-9.06585
▁How	-9.06695
▁problem	-9.0702
▁areas	-9.07141
▁list	-9.07342
▁similar	-9.07419
▁remain	-9.07451
est	-9.07521
▁growth	-9.07562
▁mean	-9.07723
▁instead	-9.0775
▁biggest	-9.07781
▁coach	-9.078
us	-9.07901
▁isn	-9.07917
▁loss	-9.08018
z	-9.08086
▁heard	-9.08327
▁visit	-9.08443
▁16	-9.08559
▁non	-9.08572
▁results	-9.08659
▁member	-9.08784
▁example	-9.09016
▁pair	-9.09075
▁pro	-9.09208
▁via	-9.09709
▁tried	-9.09875
x	-9.09963
▁self	-9.09967
ia	-9.09993
▁hold	-9.10296
▁David	-9.10472
de	-9.10478
▁kids	-9.10679
▁French	-9.10696
▁February	-9.10725
▁account	-9.10847
▁sense	-9.11099
▁cancer	-9.11123
▁turned	-9.11161
▁13	-9.11214
▁happy	-9.1123
▁King	-9.11282
▁break	-9.11294
▁senior	-9.11349
▁form	-9.11425
▁red	-9.11441
▁manager	-9.11441
▁light	-9.11488
▁costs	-9.11492
▁bill	-9.11556
▁foreign	-9.11577
▁described	-9.11643
▁anti	-9.11643
ist	-9.11654
▁watch	-9.1167
ri	-9.11769
▁talk	-9.11833
ma	-9.11891
▁travel	-9.12032
▁Europe	-9.12082
▁either	-9.12106
▁bad	-9.12167
▁violence	-9.12235
▁else	-9.12369
▁La	-9.12421
▁step	-9.12486
▁James	-9.12495
▁appeared	-9.12625
▁Australia	-9.12722
▁Democrats	-9.12796
▁included	-9.12851
▁probably	-9.12873
▁worth	-9.1293
▁families	-9.12995
ter	-9.13091
▁County	-9.13256
▁pre	-9.13258
▁events	-9.13349
▁Re	-9.13356
▁previous	-9.13398
▁friend	-9.13528
▁however	-9.13549
▁knew	-9.13636
▁De	-9.13787
▁cases	-9.13885
▁capital	-9.14013
▁medical	-9.1403
▁San	-9.14104
▁lower	-9.14144
▁towards	-9.14291
do	-9.14298
▁board	-9.14318
▁success	-9.14318
▁town	-9.14519
▁nation	-9.14653
▁opportunity	-9.14668
Picture	-9.14875
▁themselves	-9.15058
▁Christmas	-9.15062
▁concerns	-9.15213
▁stand	-9.15462
ry	-9.15575
▁weekend	-9.15663
▁meet	-9.15944
▁black	-9.16104
▁Britain	-9.16107
▁Iran	-9.16119
▁Park	-9.16147
▁gone	-9.16246
▁create	-9.16251
▁popular	-9.16361
▁aid	-9.16384
▁development	-9.16511
▁main	-9.1655
▁cause	-9.16656
▁Prime	-9.16662
▁100	-9.16715
▁arrested	-9.1692
▁looked	-9.17003
▁easy	-9.17038
▁amount	-9.17239
▁conditions	-9.17242
▁authorities	-9.173
▁allowed	-9.17348
V	-9.17456
▁understand	-9.17647
▁nine	-9.1771
▁Party	-9.1772
▁Africa	-9.17802
▁climate	-9.17972
▁candidate	-9.1807
based	-9.18071
▁efforts	-9.18349
O	-9.18371
▁Another	-9.18375
▁quickly	-9.18431
ling	-9.18487
▁road	-9.18493
▁launched	-9.18678
▁criminal	-9.18757
ive	-9.18855
te	-9.19143
▁leaving	-9.19181
▁forces	-9.19225
▁reason	-9.19431
▁wrong	-9.19449
▁gold	-9.19697
▁prices	-9.19721
▁More	-9.19798
▁moved	-9.19837
▁majority	-9.19891
▁fall	-9.20064
H	-9.20101
▁training	-9.20114
▁scene	-9.20141
▁agency	-9.20276
▁partner	-9.20322
▁debate	-9.20424
▁East	-9.20474
▁Last	-9.20608
If	-9.20884
w	-9.20974
▁questions	-9.20991
ta	-9.21008
▁rest	-9.21115
as	-9.21194
▁attacks	-9.21294
▁buy	-9.21301
▁decided	-9.21333
▁build	-9.2135
▁Los	-9.21373
▁range	-9.2141
▁brand	-9.21442
▁centre	-9.21486
▁growing	-9.21516
▁crisis	-9.2152
▁helped	-9.2166
ment	-9.21687
▁posted	-9.21809
▁oil	-9.21821
ur	-9.21826
▁winning	-9.22129
▁By	-9.22179
▁project	-9.22291
▁happen	-9.22603
ie	-9.22718
▁adding	-9.22742
led	-9.22835
▁charges	-9.22846
▁speech	-9.22876
▁study	-9.23216
▁terms	-9.23232
ley	-9.23275
▁cannot	-9.23283
▁paid	-9.23505
▁dead	-9.23535
▁multiple	-9.23633
They	-9.23653
▁changes	-9.23707
▁treatment	-9.23732
▁myself	-9.24203
▁elections	-9.24287
▁date	-9.24308
U	-9.24391
▁force	-9.24432
▁Times	-9.24457
▁read	-9.24477
son	-9.24479
▁decades	-9.24734
▁Even	-9.24988
▁ready	-9.25014
▁sign	-9.25025
▁groups	-9.25079
▁17	-9.25157
▁press	-9.25332
▁message	-9.25491
▁strike	-9.25568
▁thousands	-9.25707
pm	-9.25757
▁40	-9.25863
▁field	-9.25956
▁claim	-9.26024
id	-9.26236
▁takes	-9.26447
▁land	-9.26457
▁wants	-9.26543
▁prison	-9.26583
▁25	-9.26589
ch	-9.26653
▁Smith	-9.26663
ary	-9.26665
▁Chinese	-9.268
▁serious	-9.26836
▁Americans	-9.26954
▁opening	-9.27212
▁Michael	-9.27247
▁mind	-9.27426
▁executive	-9.27433
▁rules	-9.27526
▁itself	-9.27584
▁9	-9.27941
▁site	-9.28025
me	-9.28191
▁followed	-9.28195
of	-9.28371
▁production	-9.28438
▁goes	-9.28519
▁property	-9.28572
▁alongside	-9.28579
▁Street	-9.28719
ro	-9.28944
▁certain	-9.29057
▁title	-9.2908
▁platform	-9.29105
▁rates	-9.29175
▁giving	-9.29177
▁en	-9.293
be	-9.29352
▁save	-9.29601
▁Dur	-9.29641
▁quarter	-9.29776
ul	-9.29842
▁rise	-9.2991
▁Scottish	-9.29929
▁fourth	-9.30098
▁immediately	-9.30123
▁investment	-9.3019
▁ended	-9.30247
L	-9.30373
▁attention	-9.30378
▁fan	-9.30383
▁Ukrainian	-9.3066
▁failed	-9.3073
▁officer	-9.30741
▁24	-9.30896
▁address	-9.30897
▁safe	-9.31123
▁Manchester	-9.31297
▁officers	-9.31494
▁approach	-9.31508
▁reach	-9.31526
▁customers	-9.31629
▁pick	-9.31692
▁looks	-9.31787
▁murder	-9.31914
▁challenge	-9.32133
▁extra	-9.32187
▁couldn	-9.32196
▁Meanwhile	-9.32217
▁forced	-9.32274
▁Red	-9.32372
▁Germany	-9.32441
▁true	-9.32457
▁Co	-9.32586
▁explained	-9.32625
▁raised	-9.32633
▁spending	-9.32732
▁model	-9.32804
▁hear	-9.32859
▁program	-9.32881
▁inflation	-9.32986
▁prime	-9.32994
▁published	-9.33014
▁Ireland	-9.33157
▁talking	-9.33189
20	-9.3321
▁above	-9.33307
▁products	-9.33363
▁hands	-9.33603
▁conflict	-9.33661
▁spokesperson	-9.33774
▁21	-9.33845
▁prevent	-9.3412
▁2020	-9.34143
▁protect	-9.342
▁ex	-9.34313
But	-9.34429
▁Paul	-9.34483
▁character	-9.34592
▁reached	-9.34663
▁conference	-9.34724
▁ask	-9.34967
ty	-9.35021
▁alleged	-9.35303
▁People	-9.35399
!"	-9.35438
ce	-9.35455
ir	-9.35509
▁Government	-9.3552
▁host	-9.35587
▁feeling	-9.35618
▁value	-9.35756
▁Despite	-9.35847
▁Texas	-9.36002
▁levels	-9.36059
▁expect	-9.36233
▁offers	-9.36236
▁central	-9.36328
▁league	-9.36353
▁actor	-9.36445
▁Not	-9.36668
▁teams	-9.36707
▁starting	-9.36786
▁technology	-9.36809
▁spot	-9.36903
▁spoke	-9.37144
▁firm	-9.37151
▁runs	-9.37185
▁Of	-9.37285
▁parties	-9.37337
▁built	-9.37467
▁view	-9.375
▁Pro	-9.37599
▁fell	-9.37661
In	-9.37747
▁sex	-9.37864
▁weather	-9.37951
day	-9.37968
▁Republicans	-9.38268
▁problems	-9.38316
▁includes	-9.38413
▁Johnson	-9.38459
▁avoid	-9.38512
▁named	-9.38513
▁words	-9.3857
0	-9.38709
▁source	-9.38753
":	-9.38977
▁seems	-9.39067
▁sexual	-9.39151
▁injury	-9.3927
▁crime	-9.39285
▁deep	-9.39379
▁politics	-9.39395
▁trade	-9.3943
▁Office	-9.39543
da	-9.39635
▁comments	-9.39723
▁fun	-9.39764
▁hair	-9.39785
at	-9.39877
▁V	-9.39897
▁pretty	-9.39936
lo	-9.39965
▁budget	-9.39967
▁warned	-9.39986
▁residents	-9.40037
▁challenges	-9.40097
▁effort	-9.40107
▁trip	-9.40122
▁quality	-9.40125
ies	-9.40151
▁skin	-9.40192
▁kept	-9.40268
▁Putin	-9.4061
▁joined	-9.40668
▁changed	-9.40878
▁ways	-9.40994
▁goals	-9.41098
▁follow	-9.41155
▁Angeles	-9.41282
▁walk	-9.41351
▁movie	-9.41506
ian	-9.41813
▁compared	-9.41844
▁mental	-9.41849
rs	-9.41885
age	-9.41903
▁EU	-9.41912
▁trust	-9.42051
▁Le	-9.42059
▁Many	-9.42138
▁Two	-9.42142
▁charge	-9.42153
▁returned	-9.4236
▁2024.	-9.42377
▁website	-9.42383
▁Florida	-9.42468
▁remember	-9.42498
▁judge	-9.4253
▁funding	-9.42538
▁attempt	-9.42585
▁demand	-9.42766
▁track	-9.42856
▁blood	-9.43065
▁hearing	-9.43093
ting	-9.43148
▁Then	-9.43149
▁Harry	-9.4334
▁First	-9.43424
▁leadership	-9.43508
▁alone	-9.43519
▁simply	-9.43675
▁act	-9.4371
off	-9.43717
ol	-9.43749
▁users	-9.43757
▁positive	-9.4392
▁works	-9.43923
▁noted	-9.43972
▁communities	-9.44022
▁baby	-9.44031
▁voice	-9.44162
▁From	-9.44226
▁various	-9.44371
term	-9.44452
▁spend	-9.44502
▁calls	-9.44503
▁test	-9.44508
▁review	-9.44553
▁opened	-9.44646
ish	-9.4475
ant	-9.44754
▁caused	-9.44797
That	-9.44892
▁Council	-9.44894
▁opposition	-9.44896
▁Fox	-9.44904
▁issued	-9.44916
▁lack	-9.44926
▁perfect	-9.45141
▁Sun	-9.45151
▁signed	-9.45212
ad	-9.45242
▁drive	-9.45384
▁details	-9.45391
▁cover	-9.45473
▁throughout	-9.45513
▁credit	-9.45772
▁Senate	-9.45783
▁pass	-9.45878
▁evening	-9.4588
▁George	-9.45959
▁Ben	-9.4596
▁TikTok	-9.46028
go	-9.46074
▁calling	-9.46239
▁green	-9.4632
▁seeing	-9.46365
▁passed	-9.46386
▁features	-9.46433
▁wait	-9.46441
▁threat	-9.46475
▁culture	-9.46499
▁choice	-9.46502
▁join	-9.46734
▁present	-9.46846
▁holiday	-9.46865
▁largest	-9.46912
▁2022,	-9.4699
▁charged	-9.47045
▁consider	-9.47058
▁increased	-9.47157
▁content	-9.47188
▁homes	-9.47295
um	-9.47312
▁sea	-9.47438
Getty	-9.47565
▁sometimes	-9.47754
▁Since	-9.47765
▁highest	-9.47812
by	-9.48119
▁jobs	-9.48285
▁housing	-9.48289
▁common	-9.48367
▁created	-9.4837
▁ban	-9.48464
▁defense	-9.48482
▁speak	-9.48558
▁agreed	-9.48579
▁heat	-9.48582
▁hot	-9.48592
▁meant	-9.48724
▁amid	-9.48739
ine	-9.48765
▁International	-9.48836
▁El	-9.48971
▁Premier	-9.49018
▁improve	-9.49081
▁sector	-9.49086
▁dog	-9.49119
▁target	-9.49166
▁Supreme	-9.49202
▁injured	-9.49227
▁considered	-9.49275
▁drug	-9.49304
▁cash	-9.49391
▁Taylor	-9.49391
▁2024,	-9.49471
▁ongoing	-9.49477
▁girl	-9.49497
▁bank	-9.49526
▁Apple	-9.49761
▁Here	-9.49906
▁crowd	-9.50151
di	-9.50251
▁policies	-9.50493
▁Palestinian	-9.50818
▁Mark	-9.50854
▁damage	-9.50979
▁offered	-9.50984
▁middle	-9.50987
▁reduce	-9.51049
▁sport	-9.51147
▁hotel	-9.51188
▁thinking	-9.51254
▁2023,	-9.51562
▁eye	-9.51654
▁missing	-9.51676
▁fast	-9.51729
▁victims	-9.51771
▁entire	-9.51871
▁2016	-9.52082
▁Do	-9.52236
▁fighting	-9.52318
▁beat	-9.52343
▁pain	-9.52369
▁gas	-9.5237
▁sports	-9.52452
▁businesses	-9.525
back	-9.5253
▁flight	-9.52539
▁la	-9.52618
▁Bank	-9.52678
▁education	-9.52707
ge	-9.52877
▁finally	-9.52937
▁weight	-9.53068
▁straight	-9.53131
▁reality	-9.53159
▁sales	-9.53226
J	-9.53239
▁provided	-9.53291
▁Union	-9.53332
▁competition	-9.53493
▁beyond	-9.53513
▁primary	-9.53532
▁patients	-9.5354
▁cast	-9.53654
▁facing	-9.53714
one	-9.53724
▁schools	-9.53819
▁Justice	-9.53895
▁Over	-9.53957
▁critical	-9.53992
▁shooting	-9.54023
▁scored	-9.54072
▁station	-9.54101
▁serve	-9.543
▁art	-9.54378
▁suggest	-9.54398
▁Amazon	-9.54477
▁2021	-9.54491
▁candidates	-9.54519
▁rule	-9.54681
AP	-9.54715
▁feels	-9.54796
▁double	-9.54896
▁additional	-9.54933
▁Our	-9.54957
▁seat	-9.55138
▁loved	-9.55206
▁tour	-9.5521
ck	-9.55255
ti	-9.55322
▁ability	-9.55326
▁Go	-9.55423
▁numbers	-9.55429
▁injuries	-9.55443
▁launch	-9.55498
▁Royal	-9.55499
▁natural	-9.55537
▁Me	-9.5562
▁Wales	-9.55645
▁Just	-9.55651
▁pandemic	-9.55654
we	-9.55662
▁south	-9.55791
▁effect	-9.55866
▁sold	-9.55872
▁class	-9.5588
▁emergency	-9.56229
sh	-9.56251
▁faced	-9.56279
▁decade	-9.56283
▁gets	-9.56401
▁War	-9.56418
▁moving	-9.5643
▁figure	-9.56504
▁student	-9.56678
▁app	-9.56749
ted	-9.56777
▁seats	-9.5681
▁Spain	-9.56826
▁population	-9.56878
▁progress	-9.56984
line	-9.5699
▁Kamala	-9.5703
▁justice	-9.57118
▁influence	-9.57165
▁although	-9.5722
▁22	-9.57273
▁fine	-9.57305
▁complete	-9.57326
▁figures	-9.57366
And	-9.57367
▁Sir	-9.57377
▁English	-9.57389
▁options	-9.57517
▁showing	-9.57543
▁certainly	-9.57558
▁Be	-9.57629
▁check	-9.5763
▁Olympic	-9.57689
▁bar	-9.57701
▁enjoy	-9.57726
▁condition	-9.57981
▁benefits	-9.58021
▁north	-9.58072
▁miles	-9.58278
▁arrived	-9.58279
▁hundreds	-9.58313
ism	-9.58328
▁fear	-9.58381
▁Or	-9.58436
▁ten	-9.58438
▁abuse	-9.58442
▁professional	-9.58556
▁peace	-9.58629
▁required	-9.58803
▁design	-9.58921
▁journey	-9.58924
▁becoming	-9.59095
▁massive	-9.59329
▁Health	-9.59431
Y	-9.59451
▁f	-9.59484
▁brother	-9.5955
▁fully	-9.59613
▁guilty	-9.59637
▁views	-9.59668
▁Service	-9.59754
▁contact	-9.59789
▁winner	-9.59793
▁telling	-9.59806
▁married	-9.5983
▁defence	-9.59839
▁herself	-9.59861
land	-9.59867
▁Tom	-9.59943
▁watching	-9.60082
ba	-9.60127
▁version	-9.60182
▁Jones	-9.60267
▁Act	-9.60347
▁General	-9.60464
▁hour	-9.60472
▁suggested	-9.60505
▁tough	-9.60651
▁served	-9.60654
▁planning	-9.6066
▁fuel	-9.60662
When	-9.60674
ee	-9.60723
My	-9.60731
ka	-9.60786
▁cross	-9.60786
▁search	-9.60974
▁parts	-9.60999
▁Prince	-9.61005
▁receive	-9.61126
&	-9.61273
▁eventually	-9.61277
▁seemed	-9.61303
▁experts	-9.6141
▁environment	-9.61429
▁practice	-9.61436
▁limited	-9.61473
▁female	-9.61479
▁door	-9.61532
▁photo	-9.61569
▁German	-9.616
▁contract	-9.61805
▁picture	-9.61886
▁original	-9.61995
▁card	-9.62074
▁driving	-9.62106
▁store	-9.62176
▁BJP	-9.62319
▁score	-9.62375
ate	-9.62549
▁continues	-9.62584
▁physical	-9.62621
▁completely	-9.62644
▁benefit	-9.62675
▁con	-9.62709
▁Jan	-9.62764
▁grow	-9.62773
▁style	-9.6301
▁Martin	-9.63042
▁driver	-9.63201
▁believed	-9.63208
▁annual	-9.6325
▁regular	-9.63463
▁boost	-9.63466
▁respect	-9.63505
uk	-9.63521
▁High	-9.63603
▁particular	-9.63671
▁warning	-9.6369
▁agreement	-9.63803
▁send	-9.63822
▁add	-9.6406
▁beautiful	-9.64101
way	-9.64137
▁writing	-9.64225
▁box	-9.64251
▁letter	-9.64256
▁admitted	-9.64421
What	-9.64446
▁district	-9.6445
▁camera	-9.64519
▁illegal	-9.64532
▁sleep	-9.64571
os	-9.64801
ni	-9.64872
▁council	-9.64886
So	-9.64891
▁debt	-9.64894
▁usually	-9.64895
▁learn	-9.6491
▁word	-9.64922
▁Mike	-9.65085
▁appeal	-9.65092
▁poll	-9.65125
▁closed	-9.65252
▁designed	-9.65336
▁floor	-9.65346
▁allegations	-9.65384
▁measures	-9.65425
ial	-9.65489
▁Most	-9.65559
▁23	-9.65718
▁base	-9.65751
▁60	-9.65857
▁finish	-9.65871
▁CEO	-9.65931
▁defeat	-9.65957
▁path	-9.65957
▁maintain	-9.65961
▁table	-9.65963
▁seem	-9.65967
▁Chief	-9.66002
▁Khan	-9.66012
▁abortion	-9.66012
▁feature	-9.6602
▁asking	-9.66032
▁committed	-9.66156
▁supporters	-9.66198
▁eyes	-9.66225
▁seeking	-9.66262
▁civil	-9.66348
▁older	-9.66348
▁southern	-9.66358
▁heavy	-9.66372
▁waiting	-9.66446
▁sale	-9.66467
▁song	-9.66604
▁singer	-9.66627
▁push	-9.66666
▁fresh	-9.66666
▁independent	-9.66769
▁Group	-9.66798
▁clean	-9.66862
▁killing	-9.66936
▁v	-9.67021
▁born	-9.67039
▁arrest	-9.67091
pe	-9.67095
▁network	-9.67126
▁perhaps	-9.67236
▁gun	-9.67257
▁debut	-9.67278
Those	-9.67456
▁secretary	-9.67459
▁squad	-9.67469
▁stories	-9.67569
▁addition	-9.6759
▁mid	-9.67616
▁denied	-9.67673
▁filed	-9.67724
▁option	-9.67744
mo	-9.67832
▁band	-9.67877
▁2019	-9.67891
ak	-9.67913
▁surprise	-9.67925
▁wearing	-9.67968
▁Georgia	-9.67972
▁Williams	-9.68058
▁holding	-9.68191
▁sort	-9.6821
▁overall	-9.68216
▁train	-9.68224
▁wide	-9.68232
ca	-9.6826
▁operations	-9.68308
▁modern	-9.68343
▁Super	-9.68355
v	-9.68374
▁weapons	-9.68507
▁Nigeria	-9.68639
▁stated	-9.68672
▁draw	-9.68857
▁winter	-9.68857
▁product	-9.68899
▁stock	-9.68947
▁poor	-9.69037
ner	-9.6908
▁subject	-9.69152
▁department	-9.69153
She	-9.69182
▁al	-9.69188
▁dropped	-9.69232
ous	-9.69239
▁lose	-9.69301
▁dangerous	-9.69359
▁Olympics	-9.69365
▁Sea	-9.69443
▁coast	-9.69452
▁intelligence	-9.69459
▁image	-9.69606
▁beginning	-9.69681
▁finished	-9.69713
▁Don	-9.69759
▁user	-9.6976
▁tournament	-9.69838
▁2023.	-9.69916
▁brain	-9.70007
▁simple	-9.70082
▁Speak	-9.7026
é	-9.70329
▁Musk	-9.70363
▁allegedly	-9.7051
▁caught	-9.70582
▁Photograph	-9.70584
▁fit	-9.70699
00	-9.70763
▁college	-9.70765
▁concern	-9.70789
ever	-9.71185
▁Center	-9.71282
lu	-9.71418
▁income	-9.71471
▁appear	-9.71499
▁movement	-9.715
▁millions	-9.71502
ex	-9.71508
▁places	-9.71528
▁normal	-9.71638
▁dad	-9.71651
▁sell	-9.71692
et	-9.71772
▁secure	-9.71814
▁successful	-9.71853
▁individuals	-9.7195
▁street	-9.7195
▁nature	-9.71953
▁Modi	-9.71962
mi	-9.7199
▁rally	-9.72002
▁island	-9.72014
▁Kate	-9.72046
No	-9.72183
▁blue	-9.72197
▁wedding	-9.72204
▁piece	-9.72218
▁Both	-9.72235
▁actions	-9.7224
▁ran	-9.72263
▁Post	-9.72267
▁maybe	-9.723
▁Mar	-9.72394
▁infrastructure	-9.72415
▁Chelsea	-9.72419
▁amazing	-9.72423
▁drop	-9.72439
▁African	-9.72486
▁sound	-9.72532
▁losing	-9.72553
▁feet	-9.72578
▁society	-9.72659
▁boy	-9.72664
▁individual	-9.7277
▁Air	-9.72811
▁Bo	-9.7285
▁appears	-9.72904
▁center	-9.72953
im	-9.73145
▁audience	-9.73359
▁haven	-9.73452
▁traditional	-9.73487
▁fair	-9.73553
▁responsible	-9.73577
▁Secretary	-9.73581
▁vehicle	-9.73604
▁y	-9.73659
ja	-9.73684
▁famous	-9.73709
▁nice	-9.73752
▁votes	-9.73783
▁Arsenal	-9.73816
▁putt	-9.73867
▁worse	-9.73894
▁employees	-9.74035
▁attorney	-9.74079
▁offering	-9.74121
0,000	-9.74132
▁directly	-9.74148
▁Starmer	-9.74284
▁daily	-9.74288
▁2022.	-9.74298
▁victim	-9.74325
▁Why	-9.74343
▁Love	-9.74383
▁Con	-9.7441
▁ruling	-9.74518
▁NHS	-9.7452
▁confidence	-9.74529
▁helping	-9.74615
▁Yet	-9.74653
▁talks	-9.74751
▁Moscow	-9.74756
+	-9.74796
▁appearance	-9.74808
▁answer	-9.74858
▁Games	-9.74933
▁below	-9.74941
▁committee	-9.7499
▁Netanyahu	-9.74993
▁Former	-9.75021
▁standing	-9.75047
▁Queen	-9.75054
▁Can	-9.7523
▁spark	-9.75256
▁Mo	-9.75256
▁Other	-9.75306
▁suffered	-9.75342
ler	-9.7538
▁powerful	-9.75387
j	-9.75626
▁associate	-9.75709
▁Chicago	-9.75709
▁stopped	-9.75715
▁expert	-9.75777
▁village	-9.7578
▁net	-9.75801
▁park	-9.75901
▁boss	-9.75914
▁immigration	-9.75953
▁potentially	-9.75967
50	-9.75979
▁speaking	-9.76014
ally	-9.76027
▁girls	-9.76088
▁storm	-9.76288
▁whom	-9.76327
▁Home	-9.76346
▁expressed	-9.76356
▁nuclear	-9.76432
▁records	-9.76453
▁supply	-9.76499
▁God	-9.76605
▁Security	-9.76665
▁decisions	-9.76716
▁Open	-9.76742
▁mum	-9.76762
▁Italy	-9.76911
▁Liverpool	-9.76911
▁Island	-9.77023
ten	-9.77066
▁Pakistan	-9.77087
▁meaning	-9.77119
▁Bar	-9.77121
▁younger	-9.77209
▁Sam	-9.77244
ier	-9.77305
X	-9.77316
▁owner	-9.77333
▁digital	-9.77391
▁pull	-9.77394
right	-9.77434
▁exactly	-9.77439
▁quick	-9.77442
▁commitment	-9.77509
▁stars	-9.77542
ful	-9.77568
▁shown	-9.77679
▁focused	-9.77781
ent	-9.77843
▁opportunities	-9.77878
▁carried	-9.77879
▁deliver	-9.77981
▁champion	-9.77997
▁UN	-9.78027
▁fellow	-9.78128
▁Their	-9.78173
▁Green	-9.78173
▁size	-9.78185
▁battle	-9.78218
▁proud	-9.7827
▁missed	-9.78324
▁protests	-9.78327
▁$1	-9.78332
▁stuff	-9.7836
▁Delhi	-9.78372
▁plenty	-9.78372
▁planned	-9.7839
▁tech	-9.78406
▁respond	-9.78418
▁yourself	-9.78633
▁moments	-9.78794
ham	-9.78804
▁Na	-9.78829
▁Peter	-9.78924
den	-9.78925
ga	-9.78963
▁clearly	-9.78999
▁Australian	-9.79047
▁assault	-9.79092
▁Z	-9.79107
▁governor	-9.79113
▁Google	-9.79113
▁Japan	-9.79114
▁episode	-9.79271
▁ticket	-9.79277
▁dark	-9.7928
▁vehicles	-9.79331
▁cities	-9.7936
field	-9.7944
▁Scott	-9.79445
▁album	-9.79517
▁gives	-9.796
▁responded	-9.79609
▁sitting	-9.79612
▁troops	-9.79677
for	-9.79686
▁matches	-9.79711
▁begin	-9.79835
▁sit	-9.79976
▁items	-9.79996
▁affected	-9.80012
▁rain	-9.80221
▁Robert	-9.80286
▁28	-9.80397
ru	-9.80409
▁managed	-9.80492
▁cars	-9.80594
▁domestic	-9.80596
▁identified	-9.80607
▁Western	-9.80612
▁management	-9.80613
▁broke	-9.80665
▁minute	-9.80671
page	-9.80724
▁fashion	-9.80793
▁cold	-9.808
▁paper	-9.80801
ha	-9.80904
▁direct	-9.80942
ah	-9.80967
▁School	-9.81057
▁2017	-9.81078
▁Andrew	-9.81123
▁balance	-9.81179
▁rare	-9.81285
▁afternoon	-9.8136
▁Brown	-9.81364
▁struck	-9.81365
▁camp	-9.81468
ised	-9.81493
▁footage	-9.81618
▁concerned	-9.81641
ise	-9.81706
▁type	-9.81724
▁author	-9.81831
hi	-9.82097
▁article	-9.82106
▁Charles	-9.82108
▁reasons	-9.82121
▁unique	-9.82132
strong	-9.82189
▁vs	-9.82307
▁d	-9.82328
▁disease	-9.82353
▁sister	-9.82354
▁Jack	-9.82377
▁Hezbollah	-9.82379
▁carry	-9.82518
▁lived	-9.82599
▁Thomas	-9.82629
▁upon	-9.82673
type	-9.82722
▁wish	-9.82734
▁emotional	-9.82791
▁freedom	-9.8288
▁twice	-9.82886
▁bought	-9.82887
▁worst	-9.82893
▁voting	-9.82895
▁Hall	-9.82961
▁Bill	-9.82969
▁--	-9.83109
▁marriage	-9.83143
▁strategy	-9.83143
▁William	-9.83175
bo	-9.83204
▁difference	-9.83405
▁shop	-9.83436
▁row	-9.83493
▁screen	-9.83571
▁Carolina	-9.8366
▁toward	-9.83661
▁rising	-9.83661
▁specific	-9.83675
▁Will	-9.83676
▁language	-9.83685
▁legislation	-9.83918
▁Mexico	-9.83935
▁Instead	-9.83943
▁Singh	-9.84007
▁e	-9.8409
per	-9.84172
▁democracy	-9.84191
▁Big	-9.84257
▁Chris	-9.84313
▁pitch	-9.84422
▁27	-9.8443
▁providing	-9.84438
au	-9.84457
▁onto	-9.84461
▁Press	-9.84518
▁increasingly	-9.84532
▁dream	-9.84608
▁operation	-9.84627
▁Canada	-9.84703
▁placed	-9.84733
▁sun	-9.84766
▁Hill	-9.84811
he	-9.8486
▁activities	-9.84961
▁definitely	-9.84971
▁protest	-9.8502
▁walking	-9.85067
▁advice	-9.85226
ci	-9.85305
ver	-9.85314
,000	-9.85327
▁Korea	-9.8534
▁laws	-9.85369
▁linked	-9.85409
▁corner	-9.85501
▁century	-9.85545
wa	-9.85549
▁aged	-9.8559
ke	-9.85593
▁shock	-9.85619
▁aware	-9.85651
▁super	-9.85712
▁believes	-9.85747
▁Although	-9.85773
▁lawsuit	-9.85815
▁suffering	-9.85956
▁declared	-9.8608
▁spread	-9.86137
▁prompt	-9.86174
▁scheme	-9.86353
▁conversation	-9.86354
ac	-9.86456
▁separate	-9.86512
▁regard	-9.86547
▁gender	-9.8656
▁treat	-9.8659
▁absolutely	-9.86615
▁doubt	-9.86629
▁projects	-9.86687
▁26	-9.86752
▁status	-9.86794
long	-9.86993
bn	-9.87002
ating	-9.87007
▁highly	-9.8708
▁strikes	-9.8708
▁Sky	-9.87165
▁aren	-9.87192
▁display	-9.87205
▁Test	-9.87263
▁finding	-9.87347
▁choose	-9.87348
▁expensive	-9.87348
▁activity	-9.87358
▁Great	-9.87365
▁200	-9.87419
▁organization	-9.87449
ya	-9.8745
▁happens	-9.87494
▁allies	-9.87595
▁drugs	-9.87737
con	-9.8774
▁protection	-9.87751
▁PM	-9.8776
que	-9.87854
▁birth	-9.87891
▁­	-9.87916
▁foot	-9.87994
▁Vice	-9.88014
▁bid	-9.88115
▁supporting	-9.88132
▁festival	-9.88157
▁shares	-9.88158
▁touch	-9.88166
▁proposed	-9.88181
▁restaurant	-9.88281
▁truth	-9.88288
▁mission	-9.88314
▁Hollywood	-9.88429
▁vice	-9.88434
▁discovered	-9.88511
▁guy	-9.88582
▁Lebanon	-9.88703
▁systems	-9.88706
▁enforcement	-9.88706
▁beach	-9.88873
▁resources	-9.88908
▁raise	-9.88934
▁union	-9.88968
▁territory	-9.88972
▁era	-9.8899
▁male	-9.89027
all	-9.89111
▁connection	-9.89118
▁favourite	-9.89126
▁faces	-9.89227
▁Keir	-9.89293
▁80	-9.89315
▁dress	-9.89384
▁Italian	-9.8952
▁signs	-9.89538
▁mostly	-9.89541
▁images	-9.89622
▁Car	-9.89655
▁crucial	-9.89688
der	-9.89758
▁captain	-9.89802
▁Before	-9.8981
▁cool	-9.89871
▁celebrate	-9.89883
▁bag	-9.89914
▁names	-9.89954
▁#	-9.90084
ard	-9.90107
▁@	-9.90115
▁introduced	-9.90196
▁experienced	-9.90224
▁polls	-9.90225
▁television	-9.90348
▁repeatedly	-9.90398
▁2021,	-9.90409
▁email	-9.90555
▁Committee	-9.90623
▁collection	-9.90637
▁2025	-9.90689
▁essential	-9.90696
▁mass	-9.90815
▁limit	-9.90831
▁Seattle	-9.90902
▁estate	-9.90905
▁regional	-9.90905
▁surgery	-9.90907
▁convicted	-9.90921
▁written	-9.90939
ey	-9.91161
like	-9.91192
▁decide	-9.91196
▁/	-9.912
▁Who	-9.91254
million	-9.91274
▁MP	-9.91446
▁Swift	-9.91457
▁necessary	-9.91746
▁drama	-9.91746
▁29	-9.9176
▁generation	-9.91842
▁electric	-9.91896
▁university	-9.9202
▁upcoming	-9.92065
op	-9.92078
▁investors	-9.9219
▁migrants	-9.92236
▁photos	-9.92289
▁announcement	-9.92306
▁funds	-9.92309
▁streets	-9.92321
▁Rs	-9.92554
▁ceremony	-9.92584
▁bringing	-9.92678
side	-9.92773
▁Vance	-9.92881
▁thanks	-9.92925
▁plant	-9.93077
▁doctor	-9.93141
▁sources	-9.93159
▁Women	-9.93169
▁steps	-9.93179
▁largely	-9.93199
▁award	-9.93215
▁initially	-9.93253
▁related	-9.93309
po	-9.93347
▁happening	-9.93407
▁eat	-9.93619
▁grew	-9.93722
▁obviously	-9.93798
▁accept	-9.9391
▁lawyer	-9.93995
▁creating	-9.94009
▁Netflix	-9.94015
▁flat	-9.94016
▁Sunak	-9.94018
▁bigger	-9.94036
▁elected	-9.94097
▁note	-9.94199
▁Lee	-9.94232
▁scheduled	-9.94436
▁seek	-9.9454
▁podcast	-9.94584
▁passengers	-9.94584
▁offensive	-9.94593
▁mark	-9.94636
▁lines	-9.94772
▁citizens	-9.94819
▁programme	-9.9482
▁excited	-9.94878
▁Like	-9.94913
▁Commission	-9.94968
▁fund	-9.95015
-19	-9.95141
▁split	-9.95161
▁behaviour	-9.95163
▁MORE	-9.95163
▁cuts	-9.9525
▁wall	-9.95269
10	-9.9537
▁claiming	-9.95395
▁presence	-9.95454
▁birthday	-9.95463
▁Grand	-9.95472
▁paying	-9.95472
▁loan	-9.95475
▁plays	-9.9557
▁accounts	-9.95607
tic	-9.95635
ng	-9.95642
▁warm	-9.95664
▁doctors	-9.95786
▁request	-9.95985
▁penalty	-9.96038
▁location	-9.9607
star	-9.96113
▁sides	-9.96123
▁wind	-9.96147
ff	-9.9615
▁treated	-9.96314
▁Road	-9.96338
▁airport	-9.96369
▁leg	-9.96469
not	-9.96536
▁garden	-9.96549
▁healthy	-9.96631
▁recorded	-9.96672
ance	-9.96723
▁plane	-9.96888
▁bed	-9.96897
▁Central	-9.96925
▁survey	-9.97004
▁Sports	-9.97134
▁el	-9.97147
▁strength	-9.97197
▁parliament	-9.97208
▁insurance	-9.97216
▁Facebook	-9.97222
▁capacity	-9.97231
ger	-9.97239
ft	-9.97357
▁effective	-9.97435
▁rich	-9.97505
▁Ministry	-9.97512
▁Stadium	-9.97512
▁struggling	-9.97512
▁70	-9.97652
▁Judge	-9.97818
▁spring	-9.97824
▁wins	-9.97883
▁conservative	-9.97889
▁transition	-9.98068
▁identity	-9.98112
▁nearby	-9.98138
▁learned	-9.9816
▁rose	-9.98161
em	-9.98166
han	-9.98171
▁pop	-9.98206
▁broken	-9.98302
▁NFL	-9.9841
▁Ryan	-9.98425
▁Because	-9.98445
▁Su	-9.98453
red	-9.98499
▁suspect	-9.98539
▁viewers	-9.98603
▁Social	-9.9866
▁reading	-9.98662
so	-9.98722
▁talent	-9.98759
▁produce	-9.98766
▁urged	-9.98783
▁welcome	-9.98824
▁guys	-9.98868
▁Har	-9.98899
▁measure	-9.98918
▁90	-9.99002
▁Earlier	-9.99013
▁jail	-9.99061
▁pushed	-9.99074
▁standard	-9.99129
▁returning	-9.99144
▁whatever	-9.99157
▁ITV	-9.99169
ho	-9.9924
▁starts	-9.9929
▁easier	-9.99316
▁drink	-9.99316
▁Twitter	-9.99335
▁slow	-9.99367
▁Bay	-9.99411
▁Best	-9.99442
▁greater	-9.99447
▁voted	-9.99449
▁cultural	-9.9952
▁criticism	-9.9963
▁Team	-9.99649
▁emerged	-9.9969
▁targeted	-9.99727
▁Li	-9.99733
As	-9.99757
▁bottom	-9.99927
▁dance	-9.99984
▁giant	-10.0003
ated	-10.0013
▁dis	-10.0015
▁responsibility	-10.0022
▁bus	-10.0024
▁serving	-10.0025
▁remove	-10.0034
false	-10.0035
▁ballot	-10.0036
▁larger	-10.0037
▁increasing	-10.0043
▁crimes	-10.0052
▁suggests	-10.0053
▁ultimately	-10.0057
▁unable	-10.0062
▁shift	-10.0065
▁artist	-10.0068
▁deals	-10.0072
ized	-10.0074
▁complex	-10.0079
▁College	-10.0084
▁watched	-10.0085
For	-10.009
▁Princess	-10.0092
▁incredible	-10.0094
▁remaining	-10.0095
▁harm	-10.0095
▁wear	-10.0099
▁initial	-10.0103
▁Tim	-10.011
▁jury	-10.0115
▁soldiers	-10.0123
▁Today	-10.0124
▁extremely	-10.0126
▁develop	-10.0131
end	-10.0134
▁£1	-10.014
▁fifth	-10.0146
▁reporters	-10.0158
▁i	-10.0162
▁crash	-10.0168
▁Sen	-10.0175
▁Institute	-10.0177
▁estimated	-10.0183
▁knows	-10.0184
▁window	-10.0193
▁documents	-10.0197
ut	-10.0205
▁easily	-10.0207
▁bodies	-10.0208
▁Follow	-10.0208
▁owners	-10.0219
▁royal	-10.0223
▁Democrat	-10.0224
▁crew	-10.0226
▁hopes	-10.0227
▁setting	-10.0234
▁trend	-10.0237
▁deaths	-10.024
lin	-10.0241
model	-10.0251
mer	-10.0266
▁historic	-10.0266
▁Association	-10.027
▁suit	-10.0277
ko	-10.0277
▁speed	-10.0277
▁decline	-10.0282
▁picked	-10.0289
▁miss	-10.029
▁ship	-10.0291
▁District	-10.0301
▁actress	-10.0301
▁Arizona	-10.0301
▁remained	-10.0303
▁Christian	-10.0304
▁Un	-10.0311
ster	-10.0317
▁targets	-10.0321
▁active	-10.0328
▁advantage	-10.0334
▁secret	-10.034
▁prepared	-10.0344
Our	-10.0348
▁Sa	-10.036
▁Pennsylvania	-10.0364
▁pulled	-10.0365
▁Three	-10.0365
▁Under	-10.0367
▁Nations	-10.037
run	-10.0387
▁prosecutors	-10.0387
▁code	-10.0398
rendering	-10.0408
▁yards	-10.0415
▁Kim	-10.0424
▁Irish	-10.0425
▁sharing	-10.0431
▁promised	-10.044
▁pointed	-10.0441
▁carrying	-10.0446
▁deeply	-10.045
▁revenue	-10.045
▁AP	-10.0456
▁multi	-10.0457
▁commercial	-10.0459
▁require	-10.0465
▁transfer	-10.0471
▁Ca	-10.0478
▁standards	-10.0481
▁stands	-10.0481
▁books	-10.0482
▁scale	-10.0483
▁agree	-10.0486
24	-10.0486
▁beauty	-10.0492
▁supported	-10.0503
</	-10.0506
▁colleagues	-10.0508
▁severe	-10.0514
men	-10.0516
▁route	-10.0516
▁existing	-10.0516
▁sought	-10.0523
▁messages	-10.0524
▁hoping	-10.0528
25	-10.0538
ի	-10.0541
▁counter	-10.0545
▁Glasgow	-10.0556
▁exchange	-10.0563
▁Dan	-10.0575
ford	-10.0575
▁conducted	-10.0578
▁surrounding	-10.058
▁yesterday	-10.0588
▁northern	-10.0588
▁kill	-10.0588
gi	-10.0609
ig	-10.0611
▁turning	-10.0614
▁enter	-10.0618
nd	-10.062
▁Spanish	-10.062
▁construction	-10.0621
▁die	-10.0627
▁apply	-10.063
▁Ten	-10.0631
▁Alex	-10.0638
▁payments	-10.0639
▁closer	-10.0642
tro	-10.0649
▁<	-10.0649
▁learning	-10.0649
▁Federal	-10.0652
▁Parliament	-10.0653
▁notice	-10.0656
▁youth	-10.0668
▁Jr	-10.0668
point	-10.067
▁removed	-10.0673
▁partners	-10.0681
ki	-10.0685
▁Michigan	-10.0685
▁refused	-10.069
▁Once	-10.0695
▁Ro	-10.0695
▁tickets	-10.0697
▁fired	-10.0717
▁delivered	-10.0719
▁markets	-10.0731
▁videos	-10.0737
▁armed	-10.0744
▁threats	-10.075
▁replied	-10.0751
▁traffic	-10.0751
▁relief	-10.0751
▁chair	-10.0756
▁army	-10.076
war	-10.0774
dy	-10.0777
▁write	-10.0778
Elements	-10.0783
▁semi	-10.0785
▁smaller	-10.0786
ize	-10.0792
▁ice	-10.0796
▁block	-10.0797
▁attended	-10.0808
▁ordered	-10.0809
▁publicly	-10.0811
▁arms	-10.0811
▁alternative	-10.0815
▁session	-10.0816
▁invasion	-10.0817
▁writer	-10.0822
▁31	-10.0823
▁aim	-10.0825
▁achieve	-10.083
▁count	-10.0835
▁dollars	-10.0836
▁determined	-10.0836
▁ruled	-10.0849
▁proposal	-10.085
▁typically	-10.0854
ji	-10.0855
▁encourage	-10.0863
▁Game	-10.0865
▁receiving	-10.0883
▁truly	-10.0884
▁supposed	-10.0886
ring	-10.0914
▁charity	-10.0916
▁Kennedy	-10.0916
dotcom	-10.0916
pa	-10.0916
▁Jewish	-10.0917
▁understanding	-10.0919
▁struggle	-10.0933
▁2014	-10.0935
▁45	-10.0951
▁attend	-10.0951
▁missiles	-10.0979
▁professor	-10.0983
▁kitchen	-10.0983
▁hate	-10.0983
▁Covid	-10.0984
▁failure	-10.0986
▁Gov	-10.0991
our	-10.0998
▁unit	-10.1024
▁arm	-10.1027
▁sub	-10.1033
▁tend	-10.1041
▁Rep	-10.1042
▁grand	-10.1044
ped	-10.1044
▁Good	-10.1049
▁falling	-10.105
▁sweet	-10.105
▁aircraft	-10.1051
▁page	-10.1057
▁cap	-10.1061
▁argued	-10.1063
element	-10.1067
ana	-10.1068
▁cricket	-10.1071
▁extreme	-10.1075
▁risks	-10.1081
cu	-10.1082
▁classic	-10.1083
▁Middle	-10.1084
free	-10.1085
▁direction	-10.1094
▁prove	-10.1103
▁joint	-10.1107
ab	-10.1113
▁causing	-10.1119
▁2020,	-10.1121
va	-10.1122
▁Well	-10.1122
▁Richard	-10.1125
▁covered	-10.1135
▁Ali	-10.1156
▁Ra	-10.1162
kin	-10.117
▁selling	-10.1184
▁Da	-10.1187
▁coffee	-10.1187
▁Championship	-10.1195
▁opinion	-10.1195
▁rock	-10.1205
▁visitors	-10.1208
▁produced	-10.121
▁Y	-10.1216
▁adds	-10.122
▁chain	-10.1233
▁2018	-10.1235
▁walked	-10.1238
▁films	-10.1238
▁sentence	-10.1248
30	-10.1252
▁discuss	-10.1253
▁adults	-10.1254
▁confident	-10.1256
▁operating	-10.1256
les	-10.1258
▁vision	-10.1258
▁CBS	-10.1263
▁flights	-10.1263
▁Conservative	-10.1267
▁wine	-10.127
▁eating	-10.1271
▁struggled	-10.1275
▁dogs	-10.128
▁ring	-10.1282
▁Out	-10.1289
▁vast	-10.1291
▁catch	-10.1301
▁Lo	-10.1306
▁Ba	-10.1319
▁que	-10.1321
▁dinner	-10.1325
▁Guardian	-10.1326
▁attacked	-10.1327
▁Max	-10.1331
ious	-10.1333
ning	-10.1341
if	-10.1348
▁Edinburgh	-10.136
▁internet	-10.136
▁wave	-10.1363
▁established	-10.1377
▁text	-10.1377
▁slightly	-10.1399
▁Also	-10.1399
▁recovery	-10.14
min	-10.1406
▁panel	-10.141
▁manage	-10.1421
▁facilities	-10.143
▁Star	-10.1434
▁delivery	-10.1444
za	-10.1444
▁attempted	-10.1446
minute	-10.1447
well	-10.1448
▁Up	-10.1449
▁payment	-10.1451
▁completed	-10.1463
▁stood	-10.1466
▁Year	-10.1482
▁taxes	-10.1482
▁$3	-10.1485
▁environmental	-10.1497
▁agencies	-10.15
▁importance	-10.1501
over	-10.1515
▁nominee	-10.1516
▁gain	-10.1525
▁protesters	-10.1525
▁complaint	-10.1526
▁church	-10.1532
▁Sydney	-10.1536
▁Back	-10.1539
▁shortly	-10.1542
▁hurt	-10.1547
▁Live	-10.1551
▁solution	-10.1554
▁Jo	-10.156
▁immediate	-10.1561
▁kick	-10.1562
▁Show	-10.1575
▁assets	-10.1578
▁skills	-10.1581
ze	-10.1583
▁Steve	-10.1596
▁entered	-10.1599
▁Hospital	-10.1607
▁pieces	-10.1609
▁rejected	-10.1619
▁animals	-10.1637
▁Ko	-10.1638
▁Foreign	-10.1643
▁humanitarian	-10.1643
▁stress	-10.1644
▁reporting	-10.1644
▁conduct	-10.1644
▁Jackson	-10.1644
▁everybody	-10.1644
▁regime	-10.1644
▁Palestinians	-10.1659
▁wild	-10.1669
▁violent	-10.167
▁Daniel	-10.1673
▁basis	-10.1679
▁worried	-10.1679
▁Club	-10.168
▁Still	-10.168
▁distance	-10.1681
▁bills	-10.1693
▁surface	-10.1696
▁sat	-10.1706
▁Lake	-10.1709
▁Ho	-10.171
▁clip	-10.1711
▁chances	-10.1713
▁assistance	-10.1715
▁leaves	-10.1716
▁wake	-10.1717
▁boys	-10.1721
▁edge	-10.1721
house	-10.1725
▁River	-10.1727
▁widely	-10.1733
▁Matt	-10.1736
▁occurred	-10.1752
▁reduced	-10.1752
▁dating	-10.1753
▁roughly	-10.1759
▁replace	-10.1768
▁Pat	-10.1768
▁reveals	-10.177
▁Korean	-10.1772
▁memory	-10.1788
▁Associate	-10.1788
▁NATO	-10.1788
▁comfortable	-10.179
▁flag	-10.179
▁passing	-10.1799
▁exercise	-10.1811
▁developed	-10.1817
▁Long	-10.1822
▁Northern	-10.1825
▁Saudi	-10.1825
▁ensur	-10.1827
hu	-10.1829
▁Se	-10.183
cing	-10.1839
▁recalled	-10.1839
▁earned	-10.1848
▁politicians	-10.185
▁o	-10.1858
▁temperatures	-10.1858
▁confirm	-10.1859
▁shape	-10.186
▁involving	-10.1861
▁coalition	-10.1861
▁Boeing	-10.1861
▁Disney	-10.1861
▁vital	-10.1862
▁interesting	-10.1865
▁express	-10.1867
▁transport	-10.1871
vo	-10.1872
▁task	-10.1887
▁boat	-10.1891
▁spokesman	-10.1898
▁GOP	-10.1898
▁drivers	-10.1899
▁visited	-10.19
▁dry	-10.19
▁unlikely	-10.1903
▁approved	-10.1904
▁2019,	-10.1908
bi	-10.1914
▁Ne	-10.1919
wing	-10.1924
▁defend	-10.1932
▁Digital	-10.1934
▁possibility	-10.1934
▁Lord	-10.1935
▁luxury	-10.1935
▁Francisco	-10.1935
▁lawmakers	-10.1945
▁Vegas	-10.1955
▁Syria	-10.1957
▁zone	-10.1968
▁equipment	-10.1972
▁Earth	-10.1972
▁impressive	-10.1972
▁spotted	-10.1973
▁Centre	-10.1973
▁mobile	-10.1974
▁lawyers	-10.1975
▁Ni	-10.1976
▁Tory	-10.1983
▁van	-10.1991
▁fly	-10.1998
▁smart	-10.2001
▁guard	-10.2002
▁buying	-10.2006
▁viral	-10.201
▁changing	-10.2014
▁notes	-10.2014
▁circumstances	-10.202
▁provides	-10.2035
▁Iranian	-10.2049
▁entirely	-10.2068
head	-10.2069
▁material	-10.2069
▁Mary	-10.207
▁closely	-10.207
▁researchers	-10.2078
▁customer	-10.2079
▁prior	-10.2083
▁fraud	-10.2083
▁Nick	-10.2084
▁Ham	-10.2086
▁exit	-10.2087
▁pictures	-10.2088
▁$2	-10.2092
▁lay	-10.2095
▁pool	-10.2109
▁signing	-10.2115
▁patient	-10.2116
▁scenes	-10.2118
▁agent	-10.2119
▁reform	-10.2122
▁insisted	-10.2126
▁Ar	-10.2129
ani	-10.2137
▁interested	-10.2141
▁sites	-10.2151
▁partnership	-10.2154
▁CNN	-10.2159
▁snow	-10.2159
▁mix	-10.2168
▁registered	-10.2171
▁helps	-10.2172
▁athletes	-10.2184
▁prize	-10.2192
▁featured	-10.2192
html	-10.2196
▁Lewis	-10.2197
▁located	-10.22
▁Po	-10.2207
▁inspired	-10.2207
▁Your	-10.2226
▁effects	-10.2228
▁Men	-10.2231
▁En	-10.2232
▁reaction	-10.2232
▁basic	-10.2234
▁Oct	-10.2235
▁clothes	-10.2236
▁plus	-10.224
▁fill	-10.2243
▁500	-10.2247
▁relations	-10.225
tu	-10.2257
▁pace	-10.2262
▁contrast	-10.2273
▁Beach	-10.2274
▁intense	-10.2274
▁Kevin	-10.2275
▁Euro	-10.2275
▁significantly	-10.2276
▁contest	-10.2279
▁35	-10.2293
▁declined	-10.2296
▁journalist	-10.2296
▁seriously	-10.2302
▁shut	-10.2309
▁ties	-10.2309
▁vulnerable	-10.2311
▁generally	-10.2312
▁fish	-10.2316
▁soft	-10.2319
Id	-10.2321
▁tackle	-10.2329
▁brings	-10.2333
▁shopping	-10.235
▁familiar	-10.2351
▁priority	-10.2351
▁joy	-10.2353
▁thank	-10.2353
▁fake	-10.2354
▁£3	-10.2356
▁experiences	-10.2356
▁greatest	-10.2358
ite	-10.2387
80	-10.2387
▁facility	-10.2388
▁Defense	-10.2388
▁organisation	-10.2388
▁trouble	-10.2389
60	-10.2398
▁explain	-10.24
▁Let	-10.2406
▁hits	-10.2408
▁deputy	-10.2427
▁assistant	-10.2428
▁profit	-10.2431
ov	-10.2435
▁developing	-10.244
▁acting	-10.2441
▁swing	-10.2442
io	-10.2446
▁regularly	-10.2447
▁artists	-10.2449
40	-10.2449
▁update	-10.2453
▁rape	-10.2455
▁alcohol	-10.2465
▁affordable	-10.2467
▁adult	-10.2469
▁Champions	-10.2472
▁tonight	-10.2478
tra	-10.2479
▁tight	-10.2484
Z	-10.2485
▁schedule	-10.2487
▁compete	-10.2487
law	-10.2489
▁pledge	-10.249
▁se	-10.2497
▁models	-10.2501
▁Foundation	-10.2505
▁drone	-10.2508
▁suspended	-10.251
▁witness	-10.2515
▁enjoyed	-10.2515
ber	-10.2523
▁Law	-10.2525
isation	-10.2526
"},{"	-10.2529
▁filled	-10.2534
▁Las	-10.254
ot	-10.2541
▁tennis	-10.2544
▁Public	-10.2545
▁retirement	-10.2545
▁consequences	-10.2552
To	-10.256
▁throw	-10.2573
▁brilliant	-10.2573
▁Ka	-10.2576
▁sending	-10.2581
▁depend	-10.2583
▁cycle	-10.2585
▁stores	-10.2588
▁missile	-10.2589
▁dozens	-10.2593
▁Gen	-10.2594
▁draft	-10.2599
▁Stephen	-10.2622
pping	-10.2623
▁analysis	-10.2623
▁documentary	-10.2624
her	-10.2625
▁considering	-10.2634
▁Port	-10.2635
▁founder	-10.2642
▁allows	-10.2649
don	-10.2654
▁civilians	-10.2655
▁b	-10.2655
▁PA	-10.2658
▁Adam	-10.2658
▁trading	-10.2663
▁impossible	-10.2664
▁consumers	-10.2668
▁animal	-10.2673
▁engaged	-10.2678
vi	-10.2678
▁Only	-10.268
▁Jay	-10.2682
▁apart	-10.2685
▁contain	-10.269
▁2021.	-10.2691
▁asylum	-10.2703
▁Channel	-10.2703
▁journalists	-10.2704
▁Lu	-10.2715
▁effectively	-10.2717
▁ill	-10.2741
ec	-10.2743
▁coverage	-10.2744
▁Walz	-10.2745
▁battery	-10.2747
▁Gu	-10.275
my	-10.2751
▁false	-10.2755
▁49	-10.276
▁diet	-10.2763
▁sentenced	-10.2765
▁negative	-10.2772
ap	-10.2774
ay	-10.278
▁Jordan	-10.2783
▁prosecution	-10.2783
▁Wilson	-10.2784
▁2012	-10.279
ron	-10.2794
▁t	-10.2796
▁values	-10.2801
▁outlet	-10.2807
▁Wall	-10.2818
▁drones	-10.282
▁competitive	-10.2823
▁challenging	-10.2824
▁rival	-10.2834
▁section	-10.2836
▁alive	-10.2837
▁losses	-10.2838
▁Ri	-10.2843
▁YouTube	-10.2856
▁numerous	-10.2864
▁Real	-10.2865
▁dedicated	-10.2865
▁directed	-10.2865
▁Mac	-10.2865
qui	-10.2867
▁concluded	-10.2867
▁Every	-10.2875
▁clubs	-10.2882
▁imagine	-10.2886
▁Ex	-10.2886
▁blame	-10.2892
▁guests	-10.2897
▁fix	-10.29
▁stadium	-10.2904
▁exciting	-10.2904
▁iconic	-10.2905
▁radio	-10.2905
▁marks	-10.2905
▁hostages	-10.2905
>,""	-10.291
▁continuing	-10.2911
▁restrictions	-10.2923
ai	-10.2923
▁rescue	-10.2926
▁gift	-10.2934
▁Japanese	-10.2945
▁Among	-10.2945
▁knowledge	-10.2946
▁veteran	-10.2959
▁contributed	-10.2959
▁port	-10.296
15	-10.296
▁Bowl	-10.2963
▁platforms	-10.2963
▁honest	-10.2965
▁affect	-10.2973
▁agenda	-10.2987
▁authority	-10.2988
▁science	-10.2988
▁buildings	-10.2989
▁upset	-10.3
▁planet	-10.3001
▁gap	-10.3004
▁peak	-10.3006
▁failing	-10.3007
▁fewer	-10.3012
▁routine	-10.3016
▁nations	-10.302
▁advance	-10.3022
▁heavily	-10.3027
▁tip	-10.3037
▁danger	-10.3042
ina	-10.3047
wood	-10.3047
▁guide	-10.305
▁speaks	-10.3057
more	-10.3058
▁grown	-10.3058
▁talked	-10.3068
▁landscape	-10.3069
▁Ohio	-10.307
▁selection	-10.307
▁lucky	-10.3074
▁mis	-10.3075
▁invited	-10.3076
▁Tour	-10.3078
▁shots	-10.3078
ship	-10.3079
▁busy	-10.3082
▁nor	-10.3082
▁remarks	-10.3086
▁earn	-10.31
▁purchase	-10.3109
▁alliance	-10.311
▁creative	-10.311
▁favorite	-10.311
▁referred	-10.311
▁Ask	-10.3112
▁$5	-10.3114
▁relatively	-10.3115
▁leads	-10.3117
▁Share	-10.3121
▁Di	-10.3122
▁finance	-10.3128
▁parent	-10.3131
▁Ed	-10.3131
▁1.	-10.3133
▁characters	-10.3133
▁expectations	-10.314
che	-10.3142
▁pushing	-10.3146
▁glass	-10.3149
▁Capitol	-10.3152
▁stunning	-10.3152
▁worry	-10.3153
▁banned	-10.3153
▁scoring	-10.3155
▁Watch	-10.3156
▁bench	-10.3156
▁mom	-10.3157
▁comedy	-10.3158
ow	-10.3163
ward	-10.3166
▁drinking	-10.3167
▁informed	-10.3167
fa	-10.3168
▁attempts	-10.3172
▁Hu	-10.3184
▁purpose	-10.3189
▁core	-10.3191
▁link	-10.3192
▁novel	-10.3193
://	-10.3194
▁plastic	-10.3194
ned	-10.3194
▁east	-10.3201
imed	-10.3201
ib	-10.3204
ick	-10.3205
▁apartment	-10.3214
▁bond	-10.3215
▁innings	-10.3222
sen	-10.3229
▁colour	-10.3231
▁bonus	-10.3231
▁reveal	-10.3232
▁Four	-10.3235
▁Obama	-10.3236
▁sustainable	-10.3236
▁Valley	-10.3237
▁mine	-10.3237
▁structure	-10.3237
▁Tony	-10.324
▁agents	-10.3242
▁honor	-10.3252
▁Ja	-10.3253
▁mentioned	-10.3257
ker	-10.3262
ran	-10.3272
▁Simon	-10.3273
▁guess	-10.3278
▁religious	-10.3279
▁Ha	-10.3286
▁opt	-10.3288
▁prospect	-10.3288
▁none	-10.329
▁interests	-10.329
▁symptoms	-10.3304
nt	-10.3305
▁comfort	-10.3318
▁Palace	-10.332
▁Independent	-10.3321
▁Fed	-10.3328
▁acts	-10.3335
▁presented	-10.3337
▁Met	-10.334
▁reaching	-10.335
▁Blue	-10.3351
ging	-10.3353
▁west	-10.336
▁franchise	-10.3363
▁iPhone	-10.3363
▁flying	-10.3367
▁Young	-10.3368
All	-10.3369
▁listed	-10.3371
▁Du	-10.3376
▁requires	-10.3376
▁testing	-10.3377
▁Photo	-10.3378
▁threatened	-10.3378
▁handle	-10.3386
▁Celtic	-10.3386
▁songs	-10.339
ball	-10.3391
▁programs	-10.34
▁plot	-10.3405
▁sad	-10.3405
▁wider	-10.3414
▁dismissed	-10.3418
gan	-10.342
▁yes	-10.3421
let	-10.3423
▁outcome	-10.3433
▁£2	-10.3439
▁spoken	-10.3446
▁Agency	-10.3448
▁Miami	-10.3448
▁entry	-10.345
final	-10.3465
▁Rose	-10.3467
▁channel	-10.3476
▁factor	-10.3477
▁Clark	-10.3483
▁g	-10.3499
▁extended	-10.3511
▁machine	-10.3518
▁ideal	-10.352
▁Victoria	-10.3521
▁campus	-10.3532
▁Brazil	-10.3534
▁Manhattan	-10.3535
▁Director	-10.3535
▁institutions	-10.3535
90	-10.3537
17	-10.3537
very	-10.3541
▁Army	-10.3542
▁wonder	-10.3545
▁Fa	-10.3547
▁MPs	-10.3548
▁roles	-10.3556
class	-10.356
▁forecast	-10.3577
▁Kyiv	-10.3578
▁legacy	-10.3578
▁Van	-10.3581
▁Art	-10.3582
tion	-10.3592
▁faith	-10.3599
▁expand	-10.3599
av	-10.3602
ip	-10.3608
▁application	-10.3608
▁2000	-10.3612
▁perform	-10.3614
▁teacher	-10.3614
▁dealing	-10.3619
cal	-10.362
▁c	-10.3622
▁reputation	-10.3622
":"<	-10.3622
▁sick	-10.3622
related	-10.3626
▁£5	-10.3629
▁delay	-10.3629
ence	-10.3632
▁retired	-10.3632
light	-10.3641
▁forget	-10.3643
▁medal	-10.3649
▁pounds	-10.3659
▁strategic	-10.3666
▁anniversary	-10.3666
▁quarterback	-10.367
down	-10.3691
▁escape	-10.3691
▁starr	-10.3696
▁venue	-10.3698
▁championship	-10.3698
▁tensions	-10.3699
▁horse	-10.37
▁ride	-10.3701
▁ideas	-10.3701
▁Madrid	-10.371
▁BST	-10.3711
▁motion	-10.3712
▁types	-10.3717
▁followers	-10.3717
mon	-10.3729
▁replaced	-10.3733
▁determine	-10.3741
▁initiative	-10.3743
▁trail	-10.3745
▁dozen	-10.3747
▁cream	-10.3748
▁promises	-10.375
▁producer	-10.3751
▁Zealand	-10.3754
▁approval	-10.3754
▁Rangers	-10.3754
▁properties	-10.3754
▁1990	-10.3755
▁becomes	-10.3756
▁Mc	-10.3763
▁combined	-10.3765
hour	-10.3769
▁di	-10.3775
▁bars	-10.378
▁holds	-10.3782
▁obvious	-10.3787
▁nomination	-10.3788
▁studio	-10.3796
▁Asia	-10.3798
▁legend	-10.3798
▁narrow	-10.3798
▁closing	-10.3799
▁seconds	-10.3804
▁heading	-10.3808
fe	-10.3814
▁2020.	-10.383
▁1,	-10.3831
ong	-10.3833
▁spirit	-10.3834
▁Media	-10.3834
▁river	-10.3835
▁listen	-10.3836
▁Lok	-10.3838
▁Ram	-10.3839
▁presidency	-10.3843
▁COVID	-10.3844
▁keen	-10.3844
▁Sarah	-10.3846
▁Life	-10.3848
▁tools	-10.3849
▁suddenly	-10.385
▁cutting	-10.385
▁incredibly	-10.3851
▁cards	-10.3852
ris	-10.3856
▁explore	-10.3857
▁2015	-10.3858
These	-10.3866
jo	-10.3866
▁proved	-10.3868
ada	-10.387
▁Read	-10.3875
ists	-10.3878
▁stronger	-10.3878
▁Republic	-10.3885
▁worker	-10.3888
▁ministry	-10.3888
▁Sweden	-10.3889
▁stepped	-10.3889
▁turns	-10.3889
▁Though	-10.389
▁Ma	-10.3891
▁bridge	-10.3892
▁Miller	-10.3892
▁identify	-10.3892
era	-10.3898
called	-10.3902
▁factors	-10.3907
▁surge	-10.3909
▁tied	-10.3912
▁desire	-10.3914
▁farmers	-10.3919
▁mortgage	-10.3925
▁please	-10.3928
▁calm	-10.3928
▁Q	-10.3931
▁possibly	-10.3933
▁resolution	-10.3933
▁controversial	-10.3933
▁Hag	-10.3935
▁improved	-10.3938
▁Ke	-10.3938
▁waste	-10.394
▁aside	-10.3943
▁trans	-10.3952
▁actors	-10.3952
23	-10.3956
▁blow	-10.3962
▁wonderful	-10.3968
mar	-10.3969
▁consumer	-10.3975
▁commission	-10.3975
▁driven	-10.3975
▁tree	-10.3978
▁Attorney	-10.3978
ev	-10.3979
▁degree	-10.398
▁neck	-10.3981
▁positions	-10.3989
▁lies	-10.3991
▁chosen	-10.3992
▁$4	-10.3993
lan	-10.3994
ability	-10.3996
▁breaking	-10.3999
▁staying	-10.4003
ek	-10.4007
pur	-10.4013
▁mayor	-10.4017
bb	-10.4019
▁Sabha	-10.4024
▁racing	-10.4024
▁Vladimir	-10.4024
▁Governor	-10.4024
▁Taiwan	-10.4024
▁Board	-10.4025
▁II	-10.4027
▁golf	-10.4029
▁judges	-10.4047
ara	-10.4051
fire	-10.4051
▁Chi	-10.4057
▁ending	-10.4059
▁wealth	-10.4061
▁returns	-10.4062
▁length	-10.4063
▁accepted	-10.4064
▁Josh	-10.4066
▁Research	-10.4067
▁featuring	-10.4069
▁stuck	-10.4069
▁minimum	-10.4069
▁Meghan	-10.4069
▁package	-10.407
▁charging	-10.4071
▁Phil	-10.4071
▁fame	-10.4072
▁2010	-10.4081
▁Old	-10.4089
▁Bridge	-10.4095
▁10-	-10.41
month	-10.4102
▁Tu	-10.4104
▁accident	-10.4107
▁Louis	-10.4109
Tex	-10.4112
▁device	-10.4113
▁48	-10.4115
▁horror	-10.4115
▁combat	-10.4115
▁Boston	-10.4116
▁NBA	-10.4116
▁labor	-10.4116
ա	-10.4118
▁raising	-10.4119
▁chairman	-10.4119
▁Reuters	-10.412
ney	-10.4126
▁county	-10.4128
▁stone	-10.4129
▁begins	-10.413
▁fears	-10.4143
▁Per	-10.4143
▁seasons	-10.4149
▁conspiracy	-10.4161
▁therefore	-10.4161
hether	-10.4162
▁background	-10.4162
▁Family	-10.4163
▁trees	-10.4168
▁intended	-10.4173
▁demands	-10.4183
▁su	-10.4184
▁negotiations	-10.4188
▁fees	-10.4192
▁sharp	-10.4195
▁USA	-10.4199
▁solid	-10.4199
▁marked	-10.4202
▁newspaper	-10.4206
can	-10.4208
▁degrees	-10.4213
▁aims	-10.4215
▁acknowledged	-10.4216
tBlockElement	-10.4217
▁afford	-10.4227
▁advanced	-10.4229
45	-10.4244
▁sixth	-10.4244
fi	-10.4244
ach	-10.4252
low	-10.4254
ising	-10.4254
▁studies	-10.4254
▁savings	-10.4254
ud	-10.426
▁firms	-10.4266
▁Top	-10.4278
▁surprised	-10.4294
▁backed	-10.4299
▁eligible	-10.4301
▁healthcare	-10.4302
▁sorry	-10.4306
gen	-10.4307
▁targeting	-10.4311
▁critics	-10.4313
pi	-10.4327
Oh	-10.4334
▁discussed	-10.4336
▁mistake	-10.4336
▁industrial	-10.4339
▁electoral	-10.4348
▁emissions	-10.4348
▁pregnant	-10.4348
▁SNP	-10.4349
▁Newsweek	-10.4349
▁temperature	-10.4351
▁stick	-10.4351
▁carbon	-10.4352
▁harder	-10.4362
work	-10.4364
▁clash	-10.4365
▁Jean	-10.4367
▁tea	-10.4367
▁favour	-10.4368
▁promise	-10.438
▁map	-10.4383
▁Bi	-10.4386
▁Bre	-10.4388
du	-10.4392
▁willing	-10.4393
▁storage	-10.4395
▁Rafah	-10.4395
▁Festival	-10.4395
▁Cohen	-10.4395
▁Airport	-10.4395
▁roll	-10.4396
▁About	-10.4397
▁electricity	-10.4397
▁craft	-10.4401
▁Hunter	-10.4404
▁Ta	-10.4407
▁Fire	-10.4411
▁headed	-10.4418
▁welcomed	-10.4425
▁Hav	-10.4428
▁equal	-10.4433
▁Dec	-10.4435
19	-10.444
▁chaos	-10.4443
▁personnel	-10.4443
▁square	-10.4448
▁Water	-10.445
▁hitting	-10.4451
▁convention	-10.4451
▁matters	-10.4453
▁commented	-10.4454
gu	-10.4457
▁highlighted	-10.4458
▁mixed	-10.4474
▁follows	-10.4475
pro	-10.4489
▁Che	-10.4489
▁abroad	-10.449
▁Senator	-10.449
car	-10.4494
▁Election	-10.4496
▁argument	-10.4497
▁destroyed	-10.4504
har	-10.4506
▁brief	-10.4509
af	-10.4519
▁celebrated	-10.4523
-1	-10.4523
▁chose	-10.4524
▁sanctions	-10.4526
▁defensive	-10.4527
set	-10.4533
▁locations	-10.4534
▁explains	-10.4537
▁Tesla	-10.4538
▁prominent	-10.4538
▁understood	-10.4538
▁tourists	-10.454
mm	-10.4541
▁knowing	-10.4545
▁houses	-10.4545
▁instance	-10.4545
▁relationships	-10.4545
▁appointed	-10.4551
om	-10.4551
elect	-10.4551
▁questioned	-10.4552
▁Wood	-10.4556
▁tears	-10.4559
▁drawn	-10.4569
▁Gold	-10.4571
▁polling	-10.4581
▁pan	-10.4581
▁editor	-10.4586
▁Beijing	-10.4586
▁ceasefire	-10.4586
▁Local	-10.4586
▁zero	-10.4588
▁Vi	-10.459
▁tiny	-10.459
▁earnings	-10.4592
https	-10.4592
▁internal	-10.4595
▁75	-10.4597
▁cit	-10.4612
▁5.	-10.4615
▁detail	-10.4627
▁lift	-10.463
.</	-10.4631
▁custody	-10.4634
▁inquiry	-10.4634
▁temporary	-10.4634
▁poverty	-10.4634
▁silver	-10.4635
▁Kelly	-10.4636
▁devices	-10.4637
▁duty	-10.4638
▁Six	-10.4638
▁Where	-10.4638
▁Take	-10.4643
▁saved	-10.4647
▁mouth	-10.4651
chi	-10.4657
life	-10.4658
ions	-10.4658
▁odds	-10.4662
▁banks	-10.4663
▁weapon	-10.4663
▁posts	-10.4664
game	-10.4668
▁cat	-10.4678
▁Colorado	-10.4683
▁childhood	-10.4684
▁Daily	-10.4685
▁percentage	-10.4687
▁Am	-10.4688
▁shelter	-10.4697
▁Pa	-10.4712
ny	-10.4721
▁permanent	-10.4722
ang	-10.4724
▁activists	-10.4727
▁artificial	-10.4732
▁tribute	-10.4732
▁Project	-10.4732
▁Anderson	-10.4733
iya	-10.4735
▁officially	-10.474
everal	-10.4742
▁pension	-10.4743
▁engagement	-10.4744
▁musical	-10.4744
▁plants	-10.4744
▁prosecutor	-10.4744
▁farm	-10.4748
▁£4	-10.4753
▁incidents	-10.4754
but	-10.4778
▁verdict	-10.4781
▁Kansas	-10.4781
▁Afghanistan	-10.4781
▁celebrity	-10.4781
▁Anthony	-10.4781
king	-10.4782
▁devastating	-10.4782
Re	-10.4783
▁uses	-10.4784
cha	-10.4785
▁Get	-10.4785
ր	-10.4787
▁tests	-10.4792
▁perspective	-10.4794
▁profile	-10.4795
▁FA	-10.4796
ik	-10.4797
ino	-10.4799
▁opponents	-10.4799
▁Time	-10.481
▁technical	-10.4819
▁illness	-10.4827
▁diagnosis	-10.483
▁Turkey	-10.483
▁anger	-10.483
▁girlfriend	-10.4832
style	-10.4835
12	-10.4839
▁tie	-10.4839
▁Pi	-10.4844
▁narrative	-10.4844
▁captured	-10.4847
election	-10.4849
▁performed	-10.4858
▁Are	-10.486
making	-10.486
▁Ru	-10.4866
▁appearances	-10.4869
▁lots	-10.4869
yn	-10.4873
▁represent	-10.4877
▁opposite	-10.4879
▁reducing	-10.4879
▁elite	-10.488
▁damaged	-10.488
▁yellow	-10.488
▁Food	-10.4881
▁Tories	-10.4881
▁travelling	-10.4883
▁otherwise	-10.4884
▁Luke	-10.4885
▁fallen	-10.4888
use	-10.4891
08	-10.4895
▁invest	-10.4903
Q	-10.491
▁document	-10.4918
▁Egypt	-10.4928
▁Jersey	-10.4929
▁assassination	-10.4929
▁equity	-10.493
▁Power	-10.4931
▁anywhere	-10.4932
▁eastern	-10.4933
▁secured	-10.4936
▁36	-10.4945
▁presenter	-10.4946
▁doors	-10.4947
▁resident	-10.4948
▁household	-10.4948
▁granted	-10.495
▁Maybe	-10.495
▁wage	-10.495
▁33	-10.4953
▁diplomatic	-10.4953
▁detailed	-10.4955
▁switch	-10.4958
▁collapse	-10.496
▁Jim	-10.4963
PA	-10.4968
▁Yes	-10.4979
▁magazine	-10.4979
▁Coast	-10.4979
▁chicken	-10.4979
▁rent	-10.498
▁Jamie	-10.498
▁1980	-10.4981
▁literally	-10.4981
▁overnight	-10.4989
ung	-10.4991
▁Oscar	-10.4997
▁bottle	-10.4999
▁par	-10.5007
▁correct	-10.5009
US	-10.501
▁kid	-10.5011
block	-10.5015
▁suspected	-10.5021
▁ourselves	-10.5029
▁preparing	-10.5029
▁tomorrow	-10.5029
▁handed	-10.503
▁sugar	-10.503
▁Canadian	-10.503
▁wore	-10.5031
ative	-10.5036
▁fee	-10.5036
▁7.	-10.5042
▁entering	-10.5042
▁praised	-10.5046
▁settlement	-10.505
▁thoughts	-10.5057
▁Villa	-10.5058
▁Force	-10.5061
▁retail	-10.507
▁Rob	-10.5072
ization	-10.5072
▁sounds	-10.5077
▁chocolate	-10.508
▁Southern	-10.508
▁summit	-10.508
▁Patrick	-10.508
▁jump	-10.5083
▁ABC	-10.5085
▁moves	-10.5091
▁Sha	-10.5104
▁implement	-10.5104
▁restaurants	-10.5108
▁meat	-10.5108
▁engage	-10.5115
▁Ga	-10.5123
▁dramatic	-10.5131
▁Football	-10.5131
▁milk	-10.5132
▁regulations	-10.5135
ez	-10.5146
▁joining	-10.5147
▁faster	-10.5152
▁minor	-10.5152
▁discussion	-10.5155
q	-10.5155
▁Andy	-10.5161
▁Murray	-10.5181
▁stability	-10.5182
▁anxiety	-10.5182
▁Matthew	-10.5183
▁fought	-10.5183
▁nobody	-10.5184
▁somebody	-10.5184
▁argue	-10.5186
ph	-10.5188
▁rely	-10.519
▁Mail	-10.5193
▁Gary	-10.5196
▁occasion	-10.52
▁stake	-10.5207
▁affairs	-10.521
▁32	-10.5212
▁label	-10.5212
▁Santa	-10.5214
▁gained	-10.5218
▁Nu	-10.522
range	-10.522
▁unusual	-10.5222
hy	-10.523
ville	-10.5232
▁fiscal	-10.5233
▁cooperation	-10.5233
▁2013	-10.5236
▁practices	-10.5242
▁300	-10.5245
▁visiting	-10.5251
▁theory	-10.5254
▁communication	-10.526
▁taste	-10.5268
▁desperate	-10.5274
▁signal	-10.5281
▁pictured	-10.5285
▁cabinet	-10.5285
▁unclear	-10.5286
▁boyfriend	-10.5287
▁deadline	-10.5287
▁inter	-10.529
▁flow	-10.5297
▁meetings	-10.5305
▁Cooper	-10.5308
▁scandal	-10.5309
gar	-10.531
▁discussions	-10.5313
▁heads	-10.5316
▁34	-10.5318
▁quiet	-10.5319
▁2,	-10.533
▁shocked	-10.5335
▁Minnesota	-10.5336
▁Museum	-10.5336
▁variety	-10.5336
▁collaboration	-10.5337
▁Microsoft	-10.5337
▁Night	-10.5337
Display	-10.5339
▁Sharma	-10.5342
▁constantly	-10.5344
▁stayed	-10.5346
▁meal	-10.5349
▁ministers	-10.5355
▁estimates	-10.5356
▁connected	-10.5358
▁immigrants	-10.5359
▁honour	-10.5363
▁pub	-10.5366
▁2019.	-10.5376
▁mate	-10.5383
ó	-10.5384
70	-10.5388
▁privacy	-10.5388
▁Macron	-10.5389
▁consecutive	-10.5389
▁Strictly	-10.5389
▁maximum	-10.5389
▁Global	-10.5389
▁Each	-10.5391
▁Haley	-10.5391
▁Far	-10.5396
▁dates	-10.5399
▁contacted	-10.5401
▁Frank	-10.5401
▁complaints	-10.5417
▁hosted	-10.5418
▁bear	-10.5419
▁Asian	-10.542
▁Chiefs	-10.5424
▁Conservatives	-10.5425
▁suffer	-10.5429
29	-10.543
▁promote	-10.5436
▁Switzerland	-10.5441
▁silence	-10.5441
▁stations	-10.5441
▁Jon	-10.5441
▁specifically	-10.5442
▁gonna	-10.5443
▁Emma	-10.5446
half	-10.5449
▁1,000	-10.545
▁represented	-10.5468
▁2.	-10.5471
▁broadcast	-10.5474
▁Ku	-10.5476
▁Bra	-10.5477
▁conversations	-10.5479
port	-10.5485
▁Rachel	-10.5493
▁Alexander	-10.5494
▁grateful	-10.5494
▁corruption	-10.5496
▁Bob	-10.5514
At	-10.5518
▁tested	-10.552
ors	-10.552
▁arrival	-10.5525
▁Cal	-10.5525
▁opponent	-10.5526
▁41	-10.5527
▁orders	-10.5528
▁Meta	-10.5534
▁fat	-10.5535
▁hole	-10.5542
fer	-10.5546
▁brutal	-10.5546
▁Academy	-10.5546
▁knife	-10.5547
▁shadow	-10.555
▁lifestyle	-10.5551
ash	-10.5556
izing	-10.5558
▁surround	-10.5559
▁Justin	-10.5559
▁forever	-10.5565
rate	-10.5572
▁streaming	-10.5579
▁mountain	-10.5588
▁findings	-10.559
▁Call	-10.5591
▁gang	-10.5594
▁Ross	-10.5596
-4	-10.5597
▁Cha	-10.5597
▁choices	-10.5598
▁performing	-10.5598
▁Tokyo	-10.5599
▁resort	-10.5599
▁investigating	-10.56
▁Second	-10.56
▁Perhaps	-10.5601
▁fantastic	-10.5601
▁sets	-10.5602
▁solar	-10.5608
▁roof	-10.5614
▁reflect	-10.5619
▁originally	-10.5628
▁ends	-10.5628
▁Par	-10.5637
▁behalf	-10.5637
▁hospitals	-10.5643
rd	-10.5648
▁neither	-10.5653
▁innovation	-10.5653
▁Dallas	-10.5653
▁Henry	-10.5653
▁Davis	-10.5653
▁Iowa	-10.5653
▁excellent	-10.5654
▁possession	-10.5654
bar	-10.5655
▁rail	-10.5656
▁advised	-10.5659
▁Virginia	-10.5666
▁causes	-10.5678
▁chat	-10.568
▁tips	-10.5687
▁represents	-10.5689
▁concert	-10.5691
aw	-10.5699
▁Elizabeth	-10.5707
▁44	-10.5708
▁Trust	-10.5708
▁Brian	-10.571
▁soil	-10.5711
▁exist	-10.5719
ug	-10.5724
▁prepare	-10.5725
▁color	-10.5733
zi	-10.5742
▁l	-10.5744
▁celebration	-10.5745
▁teenager	-10.5747
▁appropriate	-10.5751
van	-10.5751
▁aggressive	-10.5752
▁Si	-10.5756
▁striking	-10.5761
▁widespread	-10.5761
▁roads	-10.5766
▁broader	-10.5767
▁Kumar	-10.577
▁delays	-10.5777
▁regions	-10.5783
▁mention	-10.5789
▁crossing	-10.5796
▁feelings	-10.5797
foot	-10.5797
▁extend	-10.5803
ett	-10.5806
▁quit	-10.5806
GB	-10.5811
uri	-10.5814
▁category	-10.5815
▁atmosphere	-10.5815
▁FBI	-10.5815
▁species	-10.5815
▁empty	-10.5815
▁crazy	-10.5816
▁bail	-10.5817
▁enjoying	-10.5817
▁fitness	-10.5818
▁western	-10.582
ile	-10.5825
▁properly	-10.5826
▁feed	-10.5829
▁gathered	-10.5832
▁attract	-10.5843
▁h	-10.5843
▁protected	-10.5848
▁prefer	-10.5851
▁realise	-10.5855
▁appearing	-10.5858
▁airline	-10.5861
▁awarded	-10.5864
▁manufacturing	-10.587
▁Assembly	-10.587
▁totally	-10.5871
▁Rishi	-10.5871
▁recording	-10.5879
▁Cook	-10.5885
owned	-10.5885
▁400	-10.589
▁golden	-10.589
▁achieved	-10.5901
▁47	-10.5907
▁appointment	-10.5913
▁actual	-10.5914
▁proper	-10.5921
▁Secret	-10.5925
▁permission	-10.5926
▁performances	-10.5928
▁capable	-10.593
▁founded	-10.5931
▁frequently	-10.5932
▁sky	-10.5939
▁65	-10.5939
▁Bull	-10.5941
iv	-10.5942
▁noise	-10.5942
ities	-10.5948
▁yn	-10.595
\	-10.5956
▁owned	-10.5961
▁capture	-10.5961
▁smoke	-10.5962
▁Arabia	-10.5966
▁museum	-10.5968
▁division	-10.5968
▁terrorist	-10.5975
▁Melbourne	-10.598
▁rural	-10.598
▁seemingly	-10.598
▁entertainment	-10.598
▁concept	-10.5981
tan	-10.5981
▁Morning	-10.5982
▁deny	-10.5985
▁improving	-10.5986
▁Sept	-10.599
▁trained	-10.5991
▁opposed	-10.5992
▁Fund	-10.5993
berg	-10.5996
▁Za	-10.5997
▁monthly	-10.6001
▁rarely	-10.6004
▁hosts	-10.6006
dis	-10.6007
▁metal	-10.6008
▁Awards	-10.6011
▁contribute	-10.6017
14	-10.6022
▁usual	-10.6026
▁Muslim	-10.6029
▁killer	-10.6029
tin	-10.603
▁angry	-10.6036
▁Newcastle	-10.6036
▁Mitchell	-10.6036
▁Palestine	-10.6038
▁endorse	-10.6039
▁2009	-10.604
▁pleaded	-10.6041
▁apparently	-10.6045
▁designer	-10.6046
▁menu	-10.6048
▁exposed	-10.6049
room	-10.605
▁teachers	-10.6054
▁limits	-10.6054
▁Wi	-10.6055
▁Sean	-10.6056
▁voter	-10.6059
▁pet	-10.6061
▁beating	-10.6065
▁pack	-10.6067
▁Series	-10.6068
▁movies	-10.6071
ye	-10.6074
▁kicked	-10.6075
▁lie	-10.6078
▁55	-10.6079
▁landing	-10.608
One	-10.6085
▁bat	-10.6085
▁departure	-10.6091
▁Reform	-10.6092
▁Additionally	-10.6094
▁progressive	-10.6095
▁somewhere	-10.6095
town	-10.6097
▁beloved	-10.6106
Ma	-10.6106
▁2018,	-10.6109
▁Nov	-10.6115
▁alert	-10.6116
▁champions	-10.6118
▁assist	-10.6121
ble	-10.6125
known	-10.613
▁statements	-10.613
pped	-10.6131
▁exact	-10.6137
▁Bangladesh	-10.6138
▁disaster	-10.6139
▁fruit	-10.614
▁Week	-10.6141
ane	-10.6145
▁Atlanta	-10.6147
▁basketball	-10.6148
▁bread	-10.6148
▁Islamic	-10.6148
▁elsewhere	-10.6148
▁Hotel	-10.6148
▁Strip	-10.6149
▁latter	-10.6149
▁Moore	-10.6153
▁flu	-10.6154
▁Credit	-10.6167
▁salt	-10.6171
▁arrive	-10.6179
▁bright	-10.6181
▁cooking	-10.6184
▁Free	-10.6187
▁landed	-10.6188
▁blocked	-10.6191
▁shoot	-10.6192
▁Bur	-10.6194
▁2025.	-10.6198
▁phase	-10.6198
▁governments	-10.6199
▁virus	-10.6202
www	-10.6204
▁competing	-10.6204
▁speculation	-10.6204
▁Benjamin	-10.6205
▁exhibition	-10.6205
▁1970	-10.6205
▁terrible	-10.6206
round	-10.6209
▁rooms	-10.6224
key	-10.6227
▁attacking	-10.6238
br	-10.6239
▁enhance	-10.6241
><	-10.6253
▁Education	-10.6261
▁swimming	-10.6261
▁dying	-10.6261
▁serves	-10.6261
▁Berlin	-10.6261
▁Katie	-10.6262
▁Video	-10.6262
▁everywhere	-10.6262
nes	-10.6264
km	-10.6266
▁detained	-10.6267
▁del	-10.6272
▁scientists	-10.6272
▁abandoned	-10.6272
scale	-10.6273
▁lying	-10.6275
▁Allen	-10.6277
49	-10.628
az	-10.6287
▁favor	-10.6291
▁organizations	-10.6297
▁brands	-10.6298
▁appreciate	-10.63
▁Dis	-10.6301
friendly	-10.6303
▁collect	-10.6305
▁Special	-10.631
▁method	-10.6316
▁cheese	-10.6317
▁accusations	-10.6317
▁Church	-10.6318
▁crore	-10.6318
▁Gandhi	-10.6319
▁sight	-10.632
▁employment	-10.632
▁sensitive	-10.632
▁diagnosed	-10.6323
▁materials	-10.6329
▁adopted	-10.6333
▁le	-10.6333
▁Mayor	-10.6342
▁bags	-10.6343
gra	-10.6343
▁See	-10.6349
▁Head	-10.6351
▁Yu	-10.6358
▁deadly	-10.6362
▁answers	-10.6363
▁39	-10.6368
▁theme	-10.6369
▁legs	-10.637
▁filing	-10.6373
▁Wisconsin	-10.6376
▁creation	-10.6376
▁GMT	-10.6379
28	-10.6379
▁Walker	-10.6381
▁Human	-10.6381
▁friendly	-10.6385
ping	-10.64
▁Little	-10.6405
▁transform	-10.6407
▁races	-10.641
▁rivals	-10.6418
▁representing	-10.6423
▁behavior	-10.6429
▁lunch	-10.6431
▁passenger	-10.6433
▁testimony	-10.6433
▁Mumbai	-10.6433
▁Reeves	-10.6433
▁valuable	-10.6433
16	-10.6434
▁theatre	-10.6435
▁Liam	-10.6437
▁tourism	-10.6437
▁handling	-10.644
▁saving	-10.6441
▁Dar	-10.6445
▁hide	-10.6446
▁rushed	-10.6448
▁essentially	-10.6456
born	-10.6458
▁Look	-10.6461
ita	-10.6468
▁delivering	-10.6472
▁announce	-10.6475
á	-10.6476
▁soul	-10.648
▁establish	-10.6485
▁Yo	-10.6485
▁strengthen	-10.6488
▁expansion	-10.6491
▁threw	-10.6491
▁Budget	-10.6491
▁rugby	-10.6492
▁liberal	-10.6493
▁Jason	-10.6494
▁barely	-10.6495
▁repeated	-10.6499
▁formed	-10.6503
▁wing	-10.6504
▁Fi	-10.6507
▁settled	-10.6508
▁hat	-10.6508
ala	-10.6509
▁brothers	-10.6514
▁plea	-10.6515
wi	-10.6525
▁cited	-10.6526
week	-10.653
▁ease	-10.6531
si	-10.6534
ably	-10.6537
with	-10.6547
▁counts	-10.6547
▁suicide	-10.655
▁combination	-10.655
▁ownership	-10.6551
▁friendship	-10.6551
▁awareness	-10.6552
▁Jake	-10.6554
▁employee	-10.6554
▁analyst	-10.6555
▁lovely	-10.6557
▁recognise	-10.6564
21	-10.6564
▁Arm	-10.6565
ado	-10.6568
▁sand	-10.6569
▁43	-10.657
pp	-10.6573
▁encouraged	-10.6583
▁46	-10.6586
▁30-	-10.6588
▁operate	-10.6593
▁Pre	-10.6594
made	-10.66
▁Shah	-10.6603
▁Houston	-10.6609
▁Plus	-10.6609
▁software	-10.6609
▁reduction	-10.6609
▁native	-10.661
▁managing	-10.661
▁hoped	-10.661
▁corporate	-10.661
drew	-10.661
▁pilot	-10.6612
▁laid	-10.6612
▁4.	-10.6613
▁increases	-10.6616
.""	-10.6618
▁hopefully	-10.6619
▁lights	-10.663
▁recovered	-10.6631
▁reporter	-10.6632
ery	-10.6637
▁shocking	-10.6641
▁3.	-10.6644
▁stressed	-10.665
▁buyers	-10.6652
▁ca	-10.6658
▁Pe	-10.6662
▁connect	-10.6664
▁Te	-10.6665
▁referring	-10.6668
▁recognition	-10.6668
act	-10.6669
▁migration	-10.667
▁activist	-10.6673
▁AFP	-10.668
▁formal	-10.6683
▁recommended	-10.6689
▁Rock	-10.6693
▁bike	-10.6695
cc	-10.6698
▁blamed	-10.6703
▁noticed	-10.6703
▁Fans	-10.6715
▁drawing	-10.6717
▁Arab	-10.6722
▁context	-10.6723
▁Han	-10.6725
▁Columbia	-10.6728
▁replacement	-10.6729
▁Carter	-10.673
▁Pen	-10.6736
▁gay	-10.674
▁defender	-10.6746
▁OK	-10.6753
▁approached	-10.6766
▁addressed	-10.6766
▁consistent	-10.6777
***	-10.6784
▁analysts	-10.6785
▁romantic	-10.6787
hand	-10.6787
▁Energy	-10.6787
▁Pradesh	-10.6787
▁Jeremy	-10.6788
▁funny	-10.6788
▁Southgate	-10.6789
▁lowest	-10.6794
▁belief	-10.6796
▁Adams	-10.6797
▁seized	-10.6799
▁GP	-10.6802
▁generations	-10.6803
▁outfit	-10.6804
▁Make	-10.6809
▁newly	-10.6809
▁thrown	-10.681
yan	-10.6814
▁gathering	-10.6817
▁packed	-10.6819
▁hub	-10.6819
▁Dodgers	-10.6821
sha	-10.6824
▁Min	-10.6826
▁Golden	-10.6828
ther	-10.6834
▁spin	-10.6834
13	-10.6835
je	-10.6837
form	-10.6838
▁cheap	-10.6838
▁backing	-10.6839
▁Mi	-10.6843
18	-10.6844
▁Netherlands	-10.6847
▁universities	-10.6847
▁Film	-10.6848
▁breast	-10.6848
most	-10.6848
▁meanwhile	-10.6848
▁unprecedented	-10.6849
▁indeed	-10.6849
cy	-10.6849
▁duo	-10.6851
ette	-10.6853
▁neighbour	-10.6857
▁hell	-10.6859
bu	-10.6863
11	-10.687
▁households	-10.6887
▁winds	-10.6892
▁Kar	-10.6902
▁trophy	-10.6908
▁Russell	-10.6908
▁Ken	-10.6908
▁Development	-10.6909
▁Morgan	-10.6909
▁string	-10.6911
▁laugh	-10.6912
▁guest	-10.692
▁outdoor	-10.6925
▁survived	-10.6926
.1	-10.6941
▁broadcaster	-10.6944
world	-10.6951
▁parking	-10.6951
▁interviews	-10.6956
ator	-10.6962
▁tool	-10.6964
▁bowl	-10.6967
▁grant	-10.6969
▁Convention	-10.6969
▁Murphy	-10.6969
▁controversy	-10.6969
▁absence	-10.6969
▁Emily	-10.6969
ella	-10.6969
▁Which	-10.697
▁remarkable	-10.6971
▁Lady	-10.6971
ata	-10.6975
▁hidden	-10.6976
▁clothing	-10.6982
▁attending	-10.6983
▁civilian	-10.6984
ical	-10.6986
▁Tri	-10.6987
An	-10.6988
▁drinks	-10.7008
▁pot	-10.7019
▁apparent	-10.7019
▁mere	-10.7022
ide	-10.7023
▁Land	-10.7024
▁continent	-10.7026
▁shops	-10.7029
tes	-10.703
▁ambassador	-10.703
▁gym	-10.703
▁Affairs	-10.703
▁Dublin	-10.703
▁external	-10.7031
▁Robinson	-10.7031
▁Catholic	-10.7031
▁joke	-10.7031
▁moon	-10.7033
▁unknown	-10.7033
22	-10.7035
hal	-10.7036
▁consistently	-10.7042
5,000	-10.7047
▁investments	-10.7047
▁slowly	-10.7053
▁coaching	-10.7053
▁attempting	-10.7054
▁ma	-10.7054
95	-10.7054
▁balls	-10.7056
winning	-10.7058
▁st	-10.7061
▁formerly	-10.707
▁participate	-10.7073
ura	-10.7074
profile	-10.7074
▁Rwanda	-10.7078
▁collective	-10.7082
▁cameras	-10.7083
▁dish	-10.7086
▁reference	-10.7088
▁fled	-10.7089
▁Square	-10.7092
level	-10.7094
▁Atlantic	-10.7094
ins	-10.7094
▁disappointed	-10.7095
▁Did	-10.7102
▁12-	-10.7115
▁shirt	-10.7119
▁6,	-10.7128
▁flooding	-10.7132
With	-10.7137
▁Dutch	-10.7152
▁describe	-10.7152
▁Clinton	-10.7154
▁necessarily	-10.7154
▁funeral	-10.7154
▁finds	-10.7154
▁pursue	-10.7155
▁stating	-10.7155
▁Medical	-10.7155
▁trauma	-10.7155
▁(1	-10.7163
▁brown	-10.7164
▁clients	-10.7174
▁cup	-10.7175
tri	-10.7179
▁sees	-10.7179
▁End	-10.7181
▁hall	-10.7181
▁windows	-10.7184
▁Five	-10.7184
▁solutions	-10.7187
▁hosting	-10.7189
season	-10.7189
▁stretch	-10.7191
▁Space	-10.7208
▁embrace	-10.7212
99	-10.7214
▁dispute	-10.7215
▁cruise	-10.7217
▁guidance	-10.7217
▁supplies	-10.7217
▁memories	-10.7217
▁foster	-10.7217
▁Austin	-10.7217
▁$6	-10.7218
▁Children	-10.7218
▁parliamentary	-10.7219
▁format	-10.7219
▁obtained	-10.723
▁applied	-10.7233
air	-10.7234
▁Alan	-10.7237
▁adviser	-10.7237
▁cloud	-10.7237
▁politician	-10.7238
▁Ron	-10.724
▁Steven	-10.7242
▁Speaker	-10.7244
▁terror	-10.7245
▁tens	-10.7248
ice	-10.7254
▁("	-10.7255
▁Others	-10.7263
▁remote	-10.7269
stone	-10.7272
▁Galaxy	-10.728
▁ocean	-10.728
▁province	-10.728
▁involvement	-10.728
▁puts	-10.7281
was	-10.7282
▁strongly	-10.7286
▁pure	-10.7287
▁Elon	-10.7291
▁Later	-10.7292
▁Roberts	-10.7294
▁Rights	-10.7294
▁awards	-10.7296
▁Forest	-10.7296
▁predicted	-10.7301
▁coaches	-10.7302
▁locked	-10.7302
▁selected	-10.7305
▁successfully	-10.7311
▁select	-10.7316
▁divorce	-10.7325
▁cook	-10.7327
▁Sal	-10.733
▁exclusive	-10.7333
▁shake	-10.734
▁capabilities	-10.7343
▁tragedy	-10.7343
▁Labor	-10.7344
▁extraordinary	-10.7345
▁writes	-10.7346
▁53	-10.7347
▁Market	-10.7353
wan	-10.7353
-20	-10.7355
ell	-10.736
▁para	-10.736
▁knee	-10.7364
▁constitutional	-10.7368
La	-10.7368
▁strain	-10.7381
=	-10.7382
▁participants	-10.7383
Trump	-10.7388
▁Music	-10.7392
high	-10.7393
▁walls	-10.7406
▁sauce	-10.7406
▁Bad	-10.7407
▁Charlotte	-10.7408
▁Philadelphia	-10.7408
▁promoting	-10.7408
▁Radio	-10.7409
▁Fair	-10.741
▁2004	-10.7412
▁deem	-10.7413
▁unveiled	-10.7414
▁criticized	-10.7417
▁ally	-10.7422
▁Mon	-10.7423
▁flood	-10.7428
▁destination	-10.743
▁striker	-10.7437
,500	-10.746
▁Zelensky	-10.7461
lor	-10.7465
▁Book	-10.747
▁organisations	-10.7471
▁Jonathan	-10.7471
▁welfare	-10.7471
▁relevant	-10.7471
▁experiencing	-10.7471
▁Rohit	-10.7471
▁stance	-10.7471
▁nationwide	-10.7471
▁genocide	-10.7473
▁Fury	-10.7475
▁smile	-10.7476
▁Aug	-10.7477
ending	-10.7478
▁maintained	-10.7481
tz	-10.7486
▁remind	-10.7489
▁150	-10.7493
▁ni	-10.7493
▁hero	-10.7494
SA	-10.75
ini	-10.75
▁Gar	-10.7503
▁shower	-10.7504
▁odd	-10.7505
▁gains	-10.7506
night	-10.7509
▁foundation	-10.7512
▁pen	-10.7514
▁Constitution	-10.7517
▁command	-10.7525
▁Ti	-10.7528
▁Lauren	-10.7535
▁premium	-10.7535
▁independence	-10.7536
▁encounter	-10.7536
▁Kremlin	-10.7536
▁Town	-10.7537
▁scores	-10.7538
▁therapy	-10.754
▁7,	-10.7541
▁defending	-10.7542
bed	-10.7543
▁anymore	-10.7545
▁tariffs	-10.7548
▁initiatives	-10.7551
▁rear	-10.7557
▁winners	-10.7559
▁grave	-10.7563
▁spell	-10.7565
▁breach	-10.7574
ub	-10.7575
mate	-10.7577
▁investigate	-10.7581
▁radical	-10.7591
▁master	-10.7597
▁sole	-10.76
▁painful	-10.76
=\"	-10.76
▁celebrating	-10.76
▁fossil	-10.76
▁afraid	-10.76
▁smell	-10.76
▁basically	-10.7601
▁Crown	-10.7604
▁respectively	-10.7605
▁momentum	-10.7607
▁deserve	-10.761
▁indicated	-10.7614
▁scared	-10.7623
▁realised	-10.7628
▁vessel	-10.7629
▁affair	-10.7629
od	-10.7635
ari	-10.7642
▁Ver	-10.7643
lon	-10.7644
▁38	-10.7646
▁(19	-10.7649
▁Ethiopia	-10.7651
▁Award	-10.7651
▁apps	-10.7651
▁dreams	-10.7655
▁badly	-10.7657
▁cleaning	-10.7657
▁52	-10.7657
▁prisoners	-10.7661
you	-10.7663
▁shoppers	-10.7663
▁historical	-10.7664
▁Barcelona	-10.7666
▁Mexican	-10.7666
▁frustration	-10.7666
▁extent	-10.7666
▁gear	-10.7666
▁venture	-10.7667
▁Poland	-10.7668
▁NBC	-10.7668
▁bomb	-10.767
▁Jose	-10.7675
05	-10.7676
▁crossed	-10.768
eg	-10.768
▁spots	-10.7684
▁shoulder	-10.7686
▁betting	-10.7689
▁steal	-10.769
▁neighborhood	-10.7695
▁colleague	-10.7697
▁crack	-10.7698
person	-10.7699
▁Was	-10.77
▁fixed	-10.7706
▁addressing	-10.771
▁resulting	-10.7719
▁fundamental	-10.7721
▁speaker	-10.7724
Fi	-10.7725
▁proposals	-10.7731
▁Combs	-10.7731
▁lakh	-10.7732
mark	-10.7732
▁copy	-10.7735
▁Navy	-10.7741
▁boats	-10.7752
▁keeps	-10.7753
75	-10.7757
▁computer	-10.7763
▁conviction	-10.7764
▁hundred	-10.7766
▁expecting	-10.7767
▁phones	-10.7768
▁survive	-10.7779
Just	-10.7781
ica	-10.7781
▁units	-10.779
▁Pan	-10.779
▁shoes	-10.7795
▁heritage	-10.7798
▁breakfast	-10.7798
▁pride	-10.7798
shi	-10.7798
▁goods	-10.7802
▁warrant	-10.7809
mile	-10.7809
▁stream	-10.7812
ology	-10.782
▁deeper	-10.7829
▁vaccine	-10.7832
▁requirements	-10.7841
ն	-10.7841
state	-10.7843
▁forest	-10.7847
▁Bal	-10.785
▁strict	-10.7853
▁counsel	-10.7856
▁index	-10.7861
▁except	-10.7864
▁romance	-10.7864
▁duties	-10.7864
▁mood	-10.7864
▁Ian	-10.7874
▁interior	-10.7875
▁midfielder	-10.7879
▁reviews	-10.7879
▁begun	-10.7882
ure	-10.7882
▁wickets	-10.7889
▁lo	-10.7904
▁probe	-10.7906
▁filming	-10.7914
▁solve	-10.7914
▁urgent	-10.7923
▁Iraq	-10.7923
▁luck	-10.7924
▁strange	-10.7926
ible	-10.7929
▁flash	-10.7929
▁Cameron	-10.7931
▁Oregon	-10.7931
▁babies	-10.7931
▁backlash	-10.7931
▁emerging	-10.7931
▁salary	-10.7932
▁nervous	-10.7932
▁drove	-10.7933
▁fighters	-10.7934
▁complicated	-10.7934
▁pink	-10.7936
▁2005	-10.7938
▁cheaper	-10.794
▁criticised	-10.7941
▁eighth	-10.7944
▁passes	-10.7948
▁sits	-10.7951
dd	-10.7953
lock	-10.7953
▁Sara	-10.7953
▁paint	-10.7957
▁titles	-10.7961
▁seventh	-10.7962
▁caption	-10.7974
▁publication	-10.7974
▁37	-10.7977
Star	-10.7986
inch	-10.7988
▁settle	-10.7989
▁Ya	-10.7989
▁thick	-10.7992
▁RT	-10.7997
▁arguing	-10.7999
▁association	-10.7999
▁encouraging	-10.7999
▁extension	-10.7999
▁residential	-10.8
▁tank	-10.8002
▁wanting	-10.8003
▁Hunt	-10.8003
▁2007	-10.8004
▁Eric	-10.8005
▁Ju	-10.8007
▁manner	-10.8008
▁threaten	-10.8009
▁marketing	-10.8012
Do	-10.8016
▁Col	-10.8018
▁ranked	-10.8018
▁demanding	-10.8024
▁Cat	-10.8027
fully	-10.8027
oo	-10.8033
▁Bas	-10.8035
▁mini	-10.8035
▁promotion	-10.8038
▁42	-10.8041
▁retain	-10.8042
▁specialist	-10.8045
▁da	-10.8046
ill	-10.8047
▁describes	-10.8048
▁Bet	-10.8056
▁peaceful	-10.8058
▁absolute	-10.8059
▁Such	-10.806
▁Business	-10.8063
▁thinks	-10.8063
▁warnings	-10.8063
▁LA	-10.8064
▁Birmingham	-10.8067
▁deficit	-10.8067
▁indictment	-10.8067
▁compensation	-10.8067
▁Voice	-10.8067
▁taught	-10.8067
▁Kiev	-10.8067
▁tragic	-10.8068
▁Country	-10.8068
▁establishment	-10.8068
▁steel	-10.8069
▁Christopher	-10.8069
▁stable	-10.807
▁convinced	-10.808
ray	-10.808
▁deployed	-10.8082
▁equally	-10.8083
▁frame	-10.809
sky	-10.8095
▁powers	-10.8096
▁breaks	-10.8096
gate	-10.8096
▁normally	-10.81
55	-10.8103
▁commander	-10.8103
▁meals	-10.8103
▁rang	-10.8106
ric	-10.8108
▁perfectly	-10.811
▁6.	-10.8112
ren	-10.8114
▁blast	-10.8116
▁Cole	-10.8122
sta	-10.8128
oma	-10.8128
▁Grant	-10.813
▁holidays	-10.8131
▁Cross	-10.8133
▁Miss	-10.8134
▁Administration	-10.8135
▁Tottenham	-10.8135
▁ultra	-10.8135
▁Samsung	-10.8135
▁pregnancy	-10.8135
▁transgender	-10.8136
▁Sudan	-10.8136
▁Hamilton	-10.8136
▁Border	-10.8137
▁Next	-10.8137
▁personally	-10.8137
▁racist	-10.8138
▁Tommy	-10.8138
▁wood	-10.814
▁Everyone	-10.8145
▁passion	-10.8148
get	-10.8148
▁Anne	-10.815
▁anyway	-10.8155
27	-10.8158
▁lineup	-10.8158
▁burden	-10.8159
ok	-10.816
▁impacted	-10.8166
▁Any	-10.8168
rie	-10.8168
kar	-10.8175
▁protecting	-10.8176
▁petition	-10.8176
▁disorder	-10.8178
▁Sch	-10.8178
zo	-10.8179
▁blend	-10.8179
▁Kane	-10.8186
art	-10.8187
ea	-10.8193
▁recover	-10.8199
▁Part	-10.8202
▁brush	-10.8203
▁Soviet	-10.8204
▁aftermath	-10.8204
▁NASA	-10.8204
▁Graham	-10.8205
▁Maryland	-10.8206
▁Civil	-10.8206
▁democratic	-10.8206
▁clock	-10.8207
cent	-10.8207
▁workplace	-10.8208
backed	-10.8209
▁portion	-10.8211
▁stolen	-10.8212
Well	-10.8218
▁sustained	-10.8218
val	-10.8219
▁classes	-10.822
▁pleased	-10.8234
▁Ab	-10.8239
nu	-10.824
▁hang	-10.824
▁singing	-10.8241
▁viewed	-10.8242
eh	-10.8245
▁bin	-10.8246
▁Ge	-10.8249
▁commit	-10.8252
People	-10.8256
▁resolve	-10.8257
▁Jane	-10.8259
▁finishing	-10.8266
▁showcase	-10.8266
▁hip	-10.8269
▁Francis	-10.8272
▁Hampshire	-10.8274
▁pollution	-10.8274
▁Thompson	-10.8275
▁Je	-10.8275
▁Jeff	-10.8276
board	-10.8276
▁Brexit	-10.8276
▁urban	-10.8277
▁worldwide	-10.8277
▁vowed	-10.8284
▁carefully	-10.8286
▁wounded	-10.8287
▁mess	-10.829
▁lock	-10.8294
ix	-10.8294
▁soap	-10.8296
▁Had	-10.8298
▁stocks	-10.83
▁courts	-10.8301
▁teaching	-10.8302
▁Win	-10.8307
▁Major	-10.8309
▁physically	-10.831
▁Wa	-10.8314
▁assess	-10.8318
▁walks	-10.832
▁bathroom	-10.8321
▁client	-10.8322
cho	-10.8323
▁broad	-10.8323
▁spaces	-10.8325
▁bet	-10.8327
▁Ch	-10.833
American	-10.8331
▁jailed	-10.8332
▁constant	-10.8335
▁letters	-10.8336
▁Anna	-10.834
▁loans	-10.8341
▁symbol	-10.8342
▁accommodation	-10.8344
▁dialogue	-10.8344
▁mirror	-10.8344
▁scrutiny	-10.8344
▁membership	-10.8346
▁highlights	-10.8346
▁Bell	-10.8346
▁dropping	-10.8347
▁Ford	-10.8349
▁Pacific	-10.8351
▁liked	-10.8352
▁beaches	-10.8356
fo	-10.8364
▁triggered	-10.8367
ira	-10.8367
maker	-10.8374
▁reflected	-10.8377
▁campaigns	-10.838
▁Maria	-10.8381
▁smooth	-10.839
▁Guard	-10.8391
▁chef	-10.8393
▁truck	-10.8394
▁DC	-10.8394
▁cease	-10.8395
▁weak	-10.8396
▁advocate	-10.8398
AI	-10.8403
▁unexpected	-10.8404
-3	-10.8407
▁rating	-10.8408
▁JD	-10.841
▁fatal	-10.8412
▁motor	-10.8413
▁Oklahoma	-10.8414
▁excitement	-10.8414
▁crypto	-10.8414
▁Short	-10.8414
▁Joseph	-10.8415
▁Tyson	-10.8415
▁baseball	-10.8415
▁visual	-10.8416
▁displaced	-10.8417
▁withdrawal	-10.8418
▁grid	-10.8421
yard	-10.8421
▁personality	-10.8422
▁beaten	-10.8423
▁delighted	-10.8428
▁representatives	-10.8433
▁comeback	-10.8434
▁rhetoric	-10.8435
▁recommend	-10.8438
▁Nigerian	-10.844
▁58	-10.8444
▁Cor	-10.8446
▁tradition	-10.8459
▁Mor	-10.8462
▁Ray	-10.8465
▁procedure	-10.8466
▁representative	-10.8466
▁250	-10.847
▁EV	-10.847
▁Stone	-10.8471
ory	-10.8471
▁requested	-10.8475
are	-10.8482
▁updates	-10.8482
▁Amy	-10.8484
▁8.	-10.8484
▁timing	-10.8485
▁Defence	-10.8485
▁chest	-10.8486
▁fence	-10.8486
▁comprehensive	-10.8487
▁grass	-10.8488
▁handful	-10.849
▁tired	-10.8492
▁Lions	-10.8492
▁expression	-10.8494
▁impressed	-10.8495
ku	-10.8497
Lo	-10.8497
▁Sri	-10.8498
jan	-10.8505
part	-10.8515
▁tap	-10.8516
▁2008	-10.8519
▁Mad	-10.852
▁margin	-10.8521
▁ballots	-10.8527
iz	-10.8527
▁twist	-10.8531
-8	-10.8536
▁Price	-10.8538
▁error	-10.854
▁assessment	-10.854
▁investing	-10.8544
▁Ban	-10.8547
▁revealing	-10.8554
▁profits	-10.8555
▁blind	-10.8555
▁Treasury	-10.8557
▁stroke	-10.8559
▁racial	-10.8559
▁introduce	-10.856
▁Reddit	-10.8561
▁oldest	-10.8567
ero	-10.8567
▁consideration	-10.8567
▁Kyle	-10.8569
▁Mel	-10.8569
▁bosses	-10.857
37	-10.8574
▁theft	-10.8575
▁una	-10.8577
▁governing	-10.8578
▁weird	-10.8578
▁tracks	-10.8581
▁butter	-10.8586
▁Inter	-10.8597
row	-10.8599
▁threatening	-10.8608
42	-10.8609
▁loud	-10.8616
▁plate	-10.8616
lic	-10.8619
▁Right	-10.8619
▁recall	-10.8619
▁branch	-10.8624
▁Deputy	-10.8628
▁Detroit	-10.8628
▁Rahul	-10.8628
▁urging	-10.8628
▁residence	-10.8629
▁overseas	-10.8629
▁resistance	-10.8629
▁Roy	-10.8629
▁function	-10.8629
▁Jacob	-10.8629
▁judgment	-10.863
▁Lisa	-10.863
▁Aaron	-10.8632
▁diverse	-10.8633
▁layer	-10.8633
▁Sometimes	-10.8633
pper	-10.8635
▁forms	-10.8639
▁imposed	-10.8644
bra	-10.8648
▁20-	-10.865
▁joked	-10.8651
▁ships	-10.8657
worth	-10.8673
▁9.	-10.8674
After	-10.8683
▁academic	-10.8685
▁flowers	-10.8686
▁bloc	-10.8689
▁mainly	-10.8689
▁extensive	-10.869
▁3,	-10.8691
▁solo	-10.8698
▁Simpson	-10.8701
▁calendar	-10.8701
▁technologies	-10.8701
FirstPublished	-10.8701
▁globally	-10.8701
▁jacket	-10.8701
▁tape	-10.8703
▁visible	-10.8703
▁na	-10.8703
▁depth	-10.8704
▁Hong	-10.8705
▁trick	-10.8705
▁boast	-10.8707
▁witnesses	-10.8709
Co	-10.8709
ters	-10.8715
▁underway	-10.8716
▁Ball	-10.8721
▁applications	-10.8724
▁reminder	-10.8725
▁expanded	-10.8743
▁54	-10.8752
ute	-10.8754
bound	-10.8755
▁egg	-10.8763
▁Nation	-10.8766
Some	-10.877
▁Westminster	-10.8774
▁festive	-10.8774
▁promising	-10.8774
▁discrimination	-10.8775
▁Safety	-10.8776
▁bold	-10.8781
▁popularity	-10.8781
▁refugees	-10.8783
vin	-10.8784
▁sporting	-10.8787
▁militants	-10.8792
▁ancient	-10.8794
▁height	-10.8798
bin	-10.8799
een	-10.8818
▁51	-10.882
▁intention	-10.8832
▁deposit	-10.8832
▁infection	-10.8836
▁mu	-10.8837
▁king	-10.8838
ight	-10.8839
▁careful	-10.8842
▁arts	-10.8846
CA	-10.8846
▁licence	-10.8847
▁medium	-10.8848
▁auction	-10.8848
▁comparison	-10.8848
▁exposure	-10.8848
▁Nevada	-10.8848
▁Yemen	-10.8848
cra	-10.8848
▁Jennifer	-10.8848
▁Summer	-10.8848
▁mutual	-10.8848
▁Farage	-10.8849
▁Laura	-10.8849
▁1960	-10.885
▁Arena	-10.885
▁cake	-10.8851
▁cell	-10.8851
▁lady	-10.8853
▁slammed	-10.8855
▁moderate	-10.8855
▁ear	-10.8855
▁los	-10.886
De	-10.8863
ath	-10.8863
▁headlines	-10.8863
▁humans	-10.8863
▁factory	-10.8866
▁hired	-10.8866
▁fl	-10.887
▁collapsed	-10.8876
▁Storm	-10.8879
▁fairly	-10.8882
▁burning	-10.8887
48	-10.8891
▁delayed	-10.8891
pen	-10.8892
▁upper	-10.8896
▁27,	-10.8902
On	-10.8905
▁march	-10.8906
▁elements	-10.8906
▁accus	-10.8907
▁seed	-10.8908
í	-10.891
▁sudden	-10.8911
▁repair	-10.8911
▁notable	-10.8911
▁Wild	-10.8913
yer	-10.8914
▁hopeful	-10.8915
▁visa	-10.8915
▁struggles	-10.8917
▁£6	-10.8918
▁57	-10.8918
▁ambitious	-10.8922
▁robust	-10.8922
▁Welsh	-10.8922
▁mystery	-10.8922
▁Jimmy	-10.8922
box	-10.8922
▁carpet	-10.8922
▁methods	-10.8924
▁Wright	-10.8925
▁ingredients	-10.8926
len	-10.8933
▁reforms	-10.8934
lar	-10.8934
▁stages	-10.8938
▁Dean	-10.894
ky	-10.8945
▁reflects	-10.8947
cher	-10.8948
gal	-10.895
▁Roman	-10.8951
▁Butler	-10.8953
▁demanded	-10.8956
▁jumped	-10.8959
▁monitoring	-10.8962
:30	-10.8965
ei	-10.8968
▁Commissioner	-10.8972
▁du	-10.8976
▁foods	-10.8982
▁ha	-10.8983
▁earning	-10.8986
▁closure	-10.8988
▁proceedings	-10.8988
▁Neil	-10.8995
▁exam	-10.8995
▁monitor	-10.8996
▁destruction	-10.8996
▁junior	-10.8996
▁Ocean	-10.8996
▁Kelce	-10.8996
▁CNBC	-10.8996
▁Journal	-10.8997
▁intent	-10.8998
▁Seven	-10.9
▁Kong	-10.9
▁regardless	-10.9001
▁launching	-10.9003
▁seeks	-10.9004
ER	-10.9007
tal	-10.9012
▁voices	-10.9015
ag	-10.9026
▁Key	-10.9029
:00	-10.903
▁Mul	-10.9032
Be	-10.9044
▁Del	-10.9048
▁waves	-10.905
▁pose	-10.9051
▁pit	-10.9052
▁enable	-10.9052
nic	-10.9053
ou	-10.9062
▁genuine	-10.9062
▁admit	-10.9063
▁regulation	-10.9066
▁snap	-10.9067
▁inspiration	-10.9067
▁Down	-10.907
▁Alabama	-10.9071
▁assembly	-10.9071
▁firing	-10.9072
▁Kingdom	-10.9072
▁referee	-10.9072
▁(3	-10.9075
▁edition	-10.9076
▁navigate	-10.9077
ju	-10.9079
▁lessons	-10.9079
▁eggs	-10.9082
▁everyday	-10.9086
▁dust	-10.909
▁loose	-10.9091
▁posed	-10.9091
uff	-10.9092
▁decent	-10.9095
▁export	-10.9095
▁Services	-10.9099
su	-10.91
▁Daniels	-10.9105
mph	-10.9108
▁5,	-10.911
ked	-10.911
▁predict	-10.9113
▁partly	-10.9114
▁breath	-10.9116
▁weekly	-10.9117
▁lean	-10.912
▁leak	-10.9121
Pa	-10.9121
▁urge	-10.9122
ations	-10.9126
▁emerge	-10.9128
Why	-10.9131
LA	-10.9139
▁dressed	-10.9141
ade	-10.9143
▁improvement	-10.9147
▁integrity	-10.9147
▁CCTV	-10.9147
▁Greek	-10.9147
▁trafficking	-10.9148
▁orange	-10.9148
▁interim	-10.9148
▁throwing	-10.915
▁burn	-10.9151
▁bedroom	-10.9152
rated	-10.9159
26	-10.9161
▁pointing	-10.9162
▁divided	-10.9165
▁situations	-10.9166
▁covering	-10.9171
cat	-10.9172
ain	-10.9176
IT	-10.9176
▁72	-10.9183
▁Moon	-10.9184
▁Mal	-10.9185
▁Mer	-10.9188
▁tourist	-10.9198
▁grounds	-10.92
▁guarantee	-10.9201
▁£7	-10.9201
▁chip	-10.9201
▁generate	-10.9205
▁Qu	-10.9211
▁Qatar	-10.9217
▁Conference	-10.9223
▁Professor	-10.9223
▁Wimbledon	-10.9223
▁engaging	-10.9223
▁equivalent	-10.9223
▁resilience	-10.9223
▁innocent	-10.9223
▁uncertainty	-10.9224
▁cancelled	-10.9224
▁execution	-10.9225
▁LGBTQ	-10.9225
▁hostage	-10.9225
▁Express	-10.9225
▁panic	-10.9226
ries	-10.923
▁Given	-10.9231
▁accountable	-10.9233
▁outbreak	-10.9233
▁rapidly	-10.9233
▁accessible	-10.9234
▁playoff	-10.9235
▁bitter	-10.9238
▁highlight	-10.9239
▁Hol	-10.9246
3%	-10.9248
▁opener	-10.9249
▁2018.	-10.9249
▁Syrian	-10.9254
▁collected	-10.9257
▁filmed	-10.9265
▁bets	-10.9267
▁magic	-10.9273
ks	-10.9273
-2	-10.9274
▁involves	-10.928
▁ignore	-10.9281
▁+	-10.9283
▁moral	-10.9283
▁Rio	-10.9283
▁Kenya	-10.9286
▁contains	-10.9287
▁arguments	-10.929
▁institution	-10.929
▁£10	-10.929
▁Play	-10.9292
▁fault	-10.9293
▁Capital	-10.93
▁DeSantis	-10.93
▁entrance	-10.93
▁Airlines	-10.93
▁nonprofit	-10.9301
▁Norway	-10.9301
▁metres	-10.9303
▁doubled	-10.9305
ium	-10.9306
▁earth	-10.9308
▁organised	-10.9309
▁trigger	-10.9311
sch	-10.9312
ock	-10.9312
▁Has	-10.9313
▁youngest	-10.9315
▁theater	-10.9315
▁react	-10.9318
▁25,	-10.9322
▁contributions	-10.9327
tte	-10.9328
▁adapt	-10.935
▁witnessed	-10.935
▁sexually	-10.9352
iest	-10.9357
ple	-10.936
▁restore	-10.9364
▁2002	-10.9365
▁eager	-10.9367
▁inform	-10.9367
▁2001	-10.9368
▁afterwards	-10.9371
▁mode	-10.9373
▁conclusion	-10.9377
ը	-10.9378
▁Argentina	-10.9378
▁Executive	-10.9378
▁Mohammed	-10.9378
▁billionaire	-10.9378
▁Craig	-10.9378
▁Authority	-10.9378
▁priorities	-10.9378
▁Diego	-10.9378
▁1997	-10.9379
▁tries	-10.9381
▁rocket	-10.9382
▁script	-10.9384
▁Much	-10.9385
▁reasonable	-10.9389
▁Dave	-10.9392
MA	-10.9393
▁Mid	-10.9395
▁approximately	-10.9402
dar	-10.9405
▁Gi	-10.9413
▁qualify	-10.9416
▁shame	-10.9417
▁invested	-10.9417
▁illegally	-10.9418
ola	-10.9423
▁cleared	-10.9423
gue	-10.9429
▁sing	-10.9437
While	-10.9439
RA	-10.9442
▁thin	-10.9442
▁Liz	-10.9443
bit	-10.9445
▁substantial	-10.9448
▁boxing	-10.945
▁hire	-10.9452
▁unlike	-10.9452
▁suspicion	-10.9456
▁Management	-10.9456
▁Dubai	-10.9456
▁damaging	-10.9456
▁Gordon	-10.9456
▁memoir	-10.9456
▁batting	-10.9457
▁minority	-10.9458
ati	-10.9461
▁disappointing	-10.9463
finals	-10.9466
▁contracts	-10.9467
▁aspects	-10.9468
▁controlled	-10.9473
▁print	-10.9474
▁routes	-10.9474
▁investigated	-10.9479
left	-10.948
▁generated	-10.9481
▁Bu	-10.9483
▁surely	-10.9485
oli	-10.9491
▁guns	-10.9497
rk	-10.9498
▁reject	-10.951
▁Son	-10.9517
ccompanied	-10.9521
par	-10.9522
▁18,	-10.9523
▁surprising	-10.9524
▁2011	-10.9525
▁engine	-10.953
▁withdraw	-10.9531
▁searching	-10.9533
▁liquid	-10.9534
▁Lebanese	-10.9535
▁Telegram	-10.9535
▁chapter	-10.9535
▁Knight	-10.9536
▁adaptation	-10.9537
▁signature	-10.9539
▁McC	-10.954
▁Saint	-10.954
▁attendance	-10.9542
ram	-10.9543
▁cells	-10.9547
▁knock	-10.9547
▁repeat	-10.9547
will	-10.9553
▁tone	-10.956
kh	-10.9565
▁x	-10.9573
")	-10.9575
].	-10.9577
▁updated	-10.9579
▁wages	-10.9587
▁reverse	-10.9602
▁Gill	-10.9604
▁birds	-10.9604
▁Place	-10.9606
▁fe	-10.961
▁Bon	-10.9614
▁immunity	-10.9614
▁Narendra	-10.9614
▁chamber	-10.9614
▁temple	-10.9615
▁refer	-10.9615
▁Tower	-10.9615
cap	-10.9616
▁Pete	-10.962
ano	-10.9622
rat	-10.9622
▁Marine	-10.9625
▁boxes	-10.9631
▁ba	-10.9632
▁£9	-10.9635
▁asks	-10.9639
▁Xi	-10.964
▁episodes	-10.9643
▁Rome	-10.9645
▁strip	-10.9646
▁Ash	-10.9652
uc	-10.9652
000,"	-10.9654
▁Come	-10.9657
▁checks	-10.9663
▁providers	-10.9665
▁picking	-10.9666
▁defended	-10.9669
▁suspects	-10.9672
▁Ki	-10.9682
▁hike	-10.9682
▁gut	-10.9693
▁fabric	-10.9694
▁Abbott	-10.9694
▁Stewart	-10.9694
▁choosing	-10.9694
▁participation	-10.9694
▁protein	-10.9694
▁laptop	-10.9694
▁Turkish	-10.9694
▁centuries	-10.9696
▁observed	-10.9702
▁62	-10.9704
▁Leader	-10.9706
▁proof	-10.971
▁Erik	-10.971
ան	-10.9711
▁guaranteed	-10.9714
ում	-10.9714
▁IPL	-10.9716
▁teen	-10.9733
ref	-10.9734
▁spreading	-10.9738
▁homeless	-10.9743
rich	-10.9744
▁0	-10.9745
lla	-10.9745
org	-10.9749
▁2006	-10.9752
▁Cu	-10.9753
▁cry	-10.9755
34	-10.9764
▁readers	-10.9765
▁recognize	-10.9767
▁sleeping	-10.9768
▁audiences	-10.9769
than	-10.9771
▁makeup	-10.9773
▁toll	-10.9774
▁eclipse	-10.9775
▁streak	-10.9775
▁trillion	-10.9775
▁intimate	-10.9775
▁Cabinet	-10.9775
▁consent	-10.9775
▁distribution	-10.9775
▁Bureau	-10.9775
▁Var	-10.9775
▁lockdown	-10.9775
▁classified	-10.9775
▁sued	-10.9776
▁GDP	-10.9776
▁slip	-10.9776
▁chips	-10.9777
▁investigators	-10.9778
▁10%	-10.9779
▁submitted	-10.978
des	-10.9781
▁somewhat	-10.9781
▁Farm	-10.9783
take	-10.9783
▁covers	-10.9783
▁dining	-10.9784
▁intervention	-10.9784
▁$7	-10.9789
▁2,000	-10.9791
▁register	-10.9791
▁$10	-10.9792
▁Mak	-10.9804
▁Pass	-10.9808
▁Have	-10.9812
▁impacts	-10.9813
▁meaningful	-10.982
▁locals	-10.9822
bel	-10.9822
▁heating	-10.9823
▁Forces	-10.9824
▁Bel	-10.9829
▁halt	-10.9831
century	-10.9838
▁frequent	-10.9845
▁enormous	-10.9846
▁requests	-10.985
▁Financial	-10.9856
▁bronze	-10.9856
▁comedian	-10.9856
▁McDonald	-10.9856
▁Travis	-10.9856
▁pepper	-10.9856
01	-10.9857
▁Michelle	-10.9857
▁addiction	-10.9857
▁rapper	-10.9857
▁Light	-10.9857
▁Duke	-10.9857
▁spotlight	-10.9858
▁DNA	-10.9858
▁diversity	-10.9858
▁Perry	-10.9858
ef	-10.986
ski	-10.986
ore	-10.9862
▁tag	-10.9863
98	-10.9867
▁senator	-10.9868
▁assists	-10.9869
▁offense	-10.987
▁nominated	-10.9871
▁Edwards	-10.9876
▁Sar	-10.9881
▁PC	-10.9888
ika	-10.9891
▁kit	-10.9891
ification	-10.9897
▁shooter	-10.9898
▁commissioner	-10.9899
▁lifetime	-10.9907
▁disrupt	-10.9912
▁Bush	-10.9913
▁k	-10.9915
▁crown	-10.9916
09	-10.9924
▁rolling	-10.9927
party	-10.9932
▁Baltimore	-10.9938
▁autumn	-10.9938
▁explosive	-10.9938
▁removal	-10.9938
▁uniform	-10.9938
▁Swiss	-10.9938
▁surveillance	-10.9938
▁resignation	-10.9939
▁wrapped	-10.9939
ston	-10.9942
▁vary	-10.9942
▁trains	-10.9943
▁discover	-10.9944
▁2003	-10.9944
▁woke	-10.9945
▁Feb	-10.9946
▁tenure	-10.9947
▁tale	-10.9947
she	-10.9951
▁volume	-10.9953
▁gather	-10.9955
▁alarm	-10.9955
▁dynamic	-10.9955
nce	-10.9955
▁citizen	-10.9957
▁PS	-10.9958
▁procedures	-10.996
▁Char	-10.9962
▁supportive	-10.9963
▁brave	-10.9968
▁Easter	-10.997
▁17,	-10.9973
▁dig	-10.9974
-5	-10.9976
▁communications	-10.998
▁secur	-10.9981
▁rolled	-10.9982
Israel	-10.9989
▁posting	-10.9993
▁clinical	-10.9994
▁facts	-10.9994
▁50-	-10.9997
▁regret	-11
which	-11.0003
32	-11.0005
▁inner	-11.0006
▁61	-11.001
▁praise	-11.0016
▁overwhelming	-11.0016
bl	-11.0019
▁Caribbean	-11.0021
▁depression	-11.0021
▁Campbell	-11.0021
▁Amanda	-11.0021
▁manifesto	-11.0022
▁ho	-11.0022
▁racism	-11.0023
▁teeth	-11.0023
pan	-11.0025
▁oversee	-11.0027
▁Oliver	-11.003
▁desk	-11.0032
▁Garden	-11.0037
▁complained	-11.0037
▁condemned	-11.0042
▁15-	-11.0044
▁56	-11.005
istic	-11.005
▁useful	-11.0054
▁dubb	-11.0054
▁recognised	-11.0055
▁experiment	-11.0057
▁rounds	-11.0057
▁finances	-11.0068
▁Va	-11.0073
▁murdered	-11.0073
▁jet	-11.0075
▁element	-11.0082
▁pause	-11.0085
How	-11.0085
▁painting	-11.0091
▁Phillips	-11.0092
▁por	-11.0094
▁16,	-11.0095
true	-11.0096
▁fighter	-11.0096
▁£8	-11.01
▁Ag	-11.0103
▁Lawrence	-11.0104
▁dancing	-11.0104
▁casino	-11.0104
▁Yorkshire	-11.0104
▁describing	-11.0104
▁punishment	-11.0105
▁foul	-11.0105
▁Illinois	-11.0105
▁goalkeeper	-11.0105
▁Mother	-11.0105
▁awful	-11.0105
▁1999	-11.0106
▁audio	-11.0107
ria	-11.0108
▁loving	-11.0109
▁file	-11.0112
▁Keep	-11.0116
▁lake	-11.0118
gr	-11.0121
44	-11.0122
▁medication	-11.0123
▁recipe	-11.0123
▁migrant	-11.0126
▁trucks	-11.0129
Le	-11.0129
▁knocked	-11.0131
▁4,	-11.0131
▁skill	-11.0145
▁connections	-11.0145
▁links	-11.0149
▁destroy	-11.0151
rian	-11.0157
ue	-11.016
gy	-11.0162
fu	-11.0164
▁pour	-11.0167
ties	-11.0168
▁Com	-11.0171
▁Ak	-11.0177
▁Hi	-11.0177
▁realize	-11.0178
▁rapid	-11.0178
▁ranks	-11.0179
▁gr	-11.018
Al	-11.018
▁59	-11.0183
RC	-11.0184
▁Gabriel	-11.0187
▁Sheriff	-11.0188
▁celebrities	-11.0188
▁detention	-11.0188
▁reception	-11.0188
▁soccer	-11.0188
▁safeguard	-11.0188
DA	-11.0188
▁labour	-11.0188
▁chancellor	-11.0189
▁primarily	-11.0189
▁stepping	-11.019
▁adventure	-11.019
▁grandmother	-11.019
▁Hindu	-11.0191
▁explaining	-11.0193
▁fishing	-11.0194
▁Wade	-11.0194
▁Everything	-11.0196
▁letting	-11.0196
▁Start	-11.0198
▁Kha	-11.0205
▁succeed	-11.0206
▁muscle	-11.0209
▁ages	-11.0209
▁treatments	-11.0211
▁tension	-11.0212
▁rises	-11.0214
▁Shar	-11.0214
▁toilet	-11.0216
home	-11.022
▁retailer	-11.0222
Me	-11.0226
▁professionals	-11.0227
▁processes	-11.0233
▁GB	-11.0233
▁Pra	-11.0239
▁bottles	-11.0241
▁contained	-11.0242
▁executives	-11.0246
▁Fre	-11.0248
▁retire	-11.0248
ու	-11.0251
billion	-11.0255
good	-11.0256
▁trips	-11.0258
▁IT	-11.0259
▁expenses	-11.026
▁Sport	-11.0265
▁expanding	-11.0268
▁teenage	-11.0269
▁Andre	-11.0271
lee	-11.0271
▁Taliban	-11.0273
▁generous	-11.0273
▁incumbent	-11.0273
▁industries	-11.0273
▁leather	-11.0273
▁threshold	-11.0273
▁է	-11.0273
▁steady	-11.0273
▁stabbed	-11.0273
▁juice	-11.0273
▁steam	-11.0273
▁Verstappen	-11.0273
▁Finland	-11.0273
▁Again	-11.0273
▁headquarters	-11.0274
▁Care	-11.0275
▁involve	-11.0276
▁belt	-11.0276
▁pe	-11.0277
▁Howard	-11.0277
▁Molly	-11.0277
▁Metro	-11.028
▁somehow	-11.028
▁Story	-11.0281
▁ra	-11.0283
ups	-11.0284
mic	-11.0284
wn	-11.0286
▁Holly	-11.0287
hra	-11.0289
▁Work	-11.0294
▁anybody	-11.0295
▁explosion	-11.0296
under	-11.0296
▁resigned	-11.0296
▁sa	-11.0296
▁relie	-11.0297
▁28,	-11.0297
▁26,	-11.03
▁trailer	-11.0306
pl	-11.0308
▁marking	-11.0308
▁fail	-11.0317
▁occasions	-11.0318
▁proven	-11.032
▁announc	-11.0323
imp	-11.0324
eb	-11.0326
far	-11.0328
▁laughing	-11.033
▁mandate	-11.0334
view	-11.0339
▁emotions	-11.0345
ich	-11.0348
▁typical	-11.035
▁visits	-11.0352
▁mistakes	-11.0353
▁vocal	-11.0354
rick	-11.0356
▁Fla	-11.0356
▁raid	-11.0358
▁Portugal	-11.0358
▁Society	-11.0358
▁awkward	-11.0358
▁66	-11.0358
▁thus	-11.0358
▁consultant	-11.0359
▁flew	-11.0359
vis	-11.0359
▁frozen	-11.0359
who	-11.0361
▁chart	-11.0364
▁daughters	-11.0366
▁outstanding	-11.0368
▁reads	-11.0371
▁Eastern	-11.0374
iness	-11.0376
▁(2	-11.0377
ese	-11.0378
▁loves	-11.0379
▁educational	-11.0379
▁checked	-11.0381
▁occur	-11.0382
▁Science	-11.0382
▁volunteer	-11.0386
tory	-11.0388
▁managers	-11.0393
▁offence	-11.0396
▁Baker	-11.0396
▁Sp	-11.0398
▁Aston	-11.0402
▁3-	-11.0407
▁hanging	-11.0409
▁mad	-11.041
▁dismiss	-11.0414
▁Set	-11.0415
ST	-11.0418
Thank	-11.0426
▁120	-11.0428
▁efficient	-11.0438
pre	-11.0438
▁bird	-11.044
▁Helen	-11.0441
▁MailOnline	-11.0444
▁drought	-11.0444
▁yeah	-11.0444
▁glad	-11.0444
▁Mountain	-11.0445
▁horrific	-11.0446
▁sessions	-11.0446
▁Reserve	-11.0447
\">	-11.0448
▁1.5	-11.0449
▁Lanka	-11.045
breaking	-11.0452
▁Gray	-11.0456
▁defeated	-11.0458
▁Greg	-11.0459
▁dominated	-11.046
▁lengthy	-11.0463
▁wealthy	-11.0463
▁orbit	-11.0466
▁Prosecutors	-11.0466
▁Tre	-11.0468
▁$8	-11.0472
▁pattern	-11.0472
տ	-11.0475
▁athlete	-11.0476
▁pocket	-11.0476
▁CO	-11.048
being	-11.048
▁Billy	-11.0481
▁attractive	-11.0481
▁islands	-11.0485
▁rescued	-11.0485
ily	-11.0487
▁crying	-11.0488
▁investigations	-11.0494
100	-11.0498
▁Th	-11.0507
▁rid	-11.0512
hood	-11.0514
-9	-11.0517
put	-11.0526
▁Swedish	-11.0531
▁concrete	-11.0531
▁silent	-11.0532
▁Munich	-11.0532
▁Denmark	-11.0532
▁Theatre	-11.0532
▁64	-11.0532
▁renewable	-11.0532
▁Chancellor	-11.0532
▁Everton	-11.0532
▁governance	-11.0532
▁uncomfortable	-11.0533
▁Money	-11.0533
▁Things	-11.0536
▁politically	-11.0539
▁Barry	-11.0546
▁traveling	-11.0552
eva	-11.0556
▁Way	-11.0556
▁medals	-11.0557
Mo	-11.0558
▁disruption	-11.0562
▁cable	-11.0564
85	-11.0565
▁longest	-11.0566
▁vi	-11.0571
▁purchased	-11.0571
net	-11.0574
hit	-11.0575
▁highlighting	-11.0578
▁naturally	-11.0581
dale	-11.0581
▁Cro	-11.0582
▁bath	-11.0587
▁ski	-11.0588
▁wash	-11.0591
▁noting	-11.0592
iff	-11.0595
▁oppose	-11.06
▁retailers	-11.0602
ctor	-11.0602
▁crashed	-11.0603
▁imp	-11.0605
▁neighbours	-11.0605
▁falls	-11.0608
ets	-11.0608
cl	-11.0611
▁listening	-11.0612
▁differences	-11.0618
▁arriving	-11.0619
▁glimpse	-11.0619
▁batter	-11.0619
▁transparency	-11.0619
▁Company	-11.0619
▁funded	-11.0619
▁harassment	-11.0619
▁framework	-11.062
▁existence	-11.062
▁Jazeera	-11.062
▁harsh	-11.062
▁Network	-11.062
▁Bayern	-11.0622
▁Rice	-11.0623
▁overcome	-11.0623
▁dual	-11.0625
▁Em	-11.0627
bat	-11.0627
ien	-11.0629
▁discovery	-11.0629
▁topic	-11.063
▁subsequently	-11.063
▁indicate	-11.0632
9%	-11.0635
▁sp	-11.064
Date	-11.0643
▁Den	-11.0646
▁Off	-11.0651
▁supermarket	-11.0652
ali	-11.0655
▁arrests	-11.0664
▁trials	-11.0666
new	-11.0666
38	-11.0669
▁screening	-11.0671
▁Sub	-11.0679
that	-11.0682
▁safely	-11.0683
Now	-11.0684
▁declare	-11.0689
market	-11.0691
▁overturn	-11.0692
ros	-11.0701
▁iron	-11.0701
▁Mag	-11.0707
•	-11.0708
▁Community	-11.0708
▁Greece	-11.0708
▁phrase	-11.0708
▁NSW	-11.0708
▁Finance	-11.0708
▁Climate	-11.0709
▁plain	-11.0709
▁Patel	-11.0712
▁courtroom	-11.0712
▁playoffs	-11.0712
▁filling	-11.0714
▁criminals	-11.0716
*	-11.0718
▁anticipated	-11.0719
▁beer	-11.0726
has	-11.073
▁"[	-11.073
▁producers	-11.0732
▁helicopter	-11.0741
▁Tra	-11.0742
▁m	-11.0743
▁notably	-11.0746
▁investor	-11.0747
sur	-11.0747
▁crowds	-11.0753
▁footballer	-11.0755
▁networks	-11.0758
33	-11.076
▁centres	-11.0762
▁veterans	-11.0767
▁wipe	-11.0772
▁resume	-11.0778
book	-11.0778
AFP	-11.078
ded	-11.0781
NC	-11.0782
ral	-11.0788
▁ch	-11.0788
ular	-11.0794
▁triumph	-11.0796
▁exploring	-11.0797
▁rookie	-11.0797
▁Kejriwal	-11.0797
▁notorious	-11.0797
▁subscription	-11.0797
▁pursuit	-11.0797
▁Joshua	-11.0797
TV	-11.0798
▁Val	-11.0798
▁Brighton	-11.0798
▁survivors	-11.0798
▁Division	-11.0798
▁waters	-11.0798
▁Brazilian	-11.0799
▁Amendment	-11.0799
ction	-11.08
real	-11.0801
▁occasionally	-11.0805
▁DJ	-11.0807
54	-11.0808
rin	-11.0811
▁Clarke	-11.0815
▁Add	-11.0817
▁Raj	-11.0817
OS	-11.082
ew	-11.082
▁closest	-11.0826
▁Fe	-11.0828
▁Field	-11.0832
mann	-11.0833
oh	-11.0834
top	-11.0838
▁operational	-11.084
▁dollar	-11.0845
▁Sc	-11.0845
Not	-11.0848
teen	-11.0852
win	-11.0856
▁Mu	-11.0856
▁Carlos	-11.0861
▁Brad	-11.0862
▁click	-11.0862
▁Heart	-11.0862
65	-11.0868
▁undermine	-11.087
Line	-11.0874
▁exceptional	-11.0875
▁subsequent	-11.0876
▁whil	-11.0879
▁scientific	-11.0882
▁85	-11.0883
▁Vietnam	-11.0887
▁Indigenous	-11.0887
▁inclusion	-11.0887
▁legislative	-11.0887
▁Grammy	-11.0887
▁entitled	-11.0887
▁Tehran	-11.0887
▁Kohli	-11.0888
▁hush	-11.0889
▁Through	-11.0889
▁lit	-11.089
▁producing	-11.089
ED	-11.0892
▁bunch	-11.0892
▁nose	-11.0894
▁rice	-11.0896
▁Hard	-11.0898
▁Nor	-11.0899
AN	-11.09
▁employers	-11.0903
ugh	-11.0906
▁tactics	-11.0907
▁Juan	-11.0908
▁Action	-11.0908
bank	-11.091
▁inning	-11.0911
name	-11.0914
▁Anti	-11.0914
rn	-11.0919
▁outcomes	-11.0924
▁holes	-11.0924
▁neighbor	-11.0927
▁violation	-11.0927
▁implemented	-11.0932
water	-11.0935
Let	-11.0939
▁opens	-11.0944
ida	-11.0946
ngressional	-11.0947
▁bra	-11.0951
▁sentences	-11.0953
▁trends	-11.0954
gle	-11.0956
▁license	-11.0959
▁22,	-11.0963
▁Cam	-11.0966
▁provider	-11.0967
▁21,	-11.0968
▁Boy	-11.097
▁affecting	-11.0978
▁Ahmed	-11.0978
▁Aberdeen	-11.0978
▁Margaret	-11.0978
▁ambulance	-11.0978
▁perception	-11.0978
▁suspension	-11.0978
▁nightmare	-11.0978
▁Blinken	-11.0978
▁bizarre	-11.0979
▁trapped	-11.0981
▁differently	-11.0985
▁travelled	-11.0985
▁recommendations	-11.0986
▁Turner	-11.0987
04	-11.0987
▁formula	-11.0987
-6	-11.099
▁Cap	-11.099
▁Dun	-11.0993
▁item	-11.0995
▁successor	-11.0997
▁briefly	-11.0999
▁fate	-11.0999
▁Report	-11.1001
▁legally	-11.1003
▁recognized	-11.1005
▁bi	-11.1008
aj	-11.1014
▁booked	-11.1016
▁scenario	-11.1019
▁Economic	-11.1019
ically	-11.1019
▁thousand	-11.1021
▁wheel	-11.1025
▁pressures	-11.1029
▁warns	-11.1029
▁openly	-11.1029
ula	-11.1032
nda	-11.1033
▁Cho	-11.1036
▁offences	-11.1042
▁appeals	-11.1049
▁Abu	-11.105
▁Sh	-11.1055
▁attorneys	-11.1057
▁practical	-11.1059
host	-11.1065
▁toxic	-11.1069
▁Cleveland	-11.107
▁efficiency	-11.107
▁predecessor	-11.107
▁stomach	-11.107
▁penalties	-11.107
▁Control	-11.107
▁UCLA	-11.107
▁Gareth	-11.107
▁unemployment	-11.107
▁Hannah	-11.107
▁leap	-11.107
lly	-11.1071
▁8,	-11.1071
▁worn	-11.1072
▁till	-11.1073
▁100%	-11.1073
Yes	-11.1074
▁modest	-11.1074
▁Leeds	-11.1074
▁elderly	-11.1076
wear	-11.1078
▁THE	-11.1082
▁mail	-11.109
▁supports	-11.1093
▁actively	-11.1102
▁borders	-11.1105
▁hotels	-11.1105
▁24-	-11.1107
▁grab	-11.1108
▁cinema	-11.1113
▁satellite	-11.1114
▁medicine	-11.1114
▁ambition	-11.1115
▁lifted	-11.1118
▁rebuild	-11.1121
▁violations	-11.1121
▁2026	-11.1134
tle	-11.1136
First	-11.1144
▁shifted	-11.1146
▁loyal	-11.1152
▁ultimate	-11.1155
▁Pal	-11.1159
▁Bristol	-11.1162
▁achieving	-11.1162
▁delicious	-11.1162
▁library	-11.1162
▁ordinary	-11.1162
▁survival	-11.1162
▁vibrant	-11.1162
▁oven	-11.1162
▁Merchan	-11.1162
▁Antonio	-11.1163
▁es	-11.1163
▁railway	-11.1163
only	-11.1164
▁Unlike	-11.1164
▁endorsement	-11.1164
▁Woman	-11.1164
▁examination	-11.1166
▁Ve	-11.1167
▁antisemitism	-11.1172
▁comply	-11.1172
▁auto	-11.1178
▁quoted	-11.118
AC	-11.1183
▁bound	-11.1183
▁chase	-11.1185
▁demonstrate	-11.1189
▁boot	-11.119
AT	-11.1193
▁rumours	-11.1197
▁flags	-11.1197
▁reminded	-11.12
wide	-11.1206
▁electronic	-11.1209
▁Euros	-11.1209
▁warn	-11.121
▁Kent	-11.1219
41	-11.1219
▁minds	-11.1221
piece	-11.1234
▁Officer	-11.1235
IN	-11.1239
lying	-11.1239
▁talented	-11.124
▁Ren	-11.1242
▁Armenia	-11.1242
▁pages	-11.1244
founder	-11.1246
▁81	-11.1247
lle	-11.1252
▁Android	-11.1256
▁diabetes	-11.1256
▁pizza	-11.1256
▁thrive	-11.1256
▁Indiana	-11.1256
▁Douglas	-11.1256
▁reign	-11.1256
▁principal	-11.1256
▁mainstream	-11.1256
▁Hurricane	-11.1257
▁OpenAI	-11.1257
▁Leicester	-11.1257
▁Powell	-11.1257
▁Bengal	-11.1257
▁reliable	-11.1258
▁passage	-11.126
RO	-11.126
▁movements	-11.1267
36	-11.1268
▁Kal	-11.127
▁30,	-11.127
▁emphasized	-11.1271
▁wishes	-11.1272
▁engineer	-11.1273
▁terrorists	-11.1275
▁formally	-11.1278
▁ignored	-11.1279
some	-11.1283
▁Palm	-11.1283
▁Actor	-11.1283
▁photograph	-11.1284
%	-11.1284
▁amounts	-11.1288
TA	-11.1289
▁expects	-11.129
▁relatives	-11.1295
▁Kings	-11.1296
▁Charlie	-11.1298
47	-11.1302
care	-11.1304
▁riding	-11.1305
▁Jen	-11.1306
▁periods	-11.1306
▁qu	-11.1309
▁shoulders	-11.1312
▁Tro	-11.1313
▁pal	-11.1316
▁attitude	-11.132
ON	-11.132
▁Ger	-11.1321
▁resign	-11.1323
▁sw	-11.1325
▁Inc	-11.1326
▁bo	-11.1327
arm	-11.133
▁assume	-11.1332
▁billions	-11.1334
▁cr	-11.1334
▁nights	-11.1336
▁Evans	-11.1341
▁Sussex	-11.1346
▁disagree	-11.1349
▁Belgium	-11.135
▁Celebrity	-11.135
▁Hungary	-11.135
▁Policy	-11.135
▁Singapore	-11.135
▁embassy	-11.135
▁debris	-11.135
▁recruitment	-11.1351
▁Tennessee	-11.1351
▁preferred	-11.1351
cut	-11.1351
▁registration	-11.1351
▁consumption	-11.1352
▁legendary	-11.1352
▁devastated	-11.1353
▁Riley	-11.1355
▁improvements	-11.1356
▁organized	-11.1356
▁min	-11.1358
▁drag	-11.1358
31	-11.1359
67	-11.1364
▁Israelis	-11.1365
59	-11.1366
▁parade	-11.1367
▁Muslims	-11.1367
deep	-11.1369
▁installed	-11.137
▁Camp	-11.1374
▁aiming	-11.1375
.99	-11.1382
07	-11.1383
▁tower	-11.1388
▁chemicals	-11.1392
▁donors	-11.1398
▁qualifying	-11.14
▁nurse	-11.1401
▁smartphone	-11.1403
▁touchdown	-11.1404
▁chemical	-11.1405
▁confront	-11.1418
tar	-11.1426
▁supporter	-11.1427
▁lab	-11.143
▁Line	-11.1433
▁Ph	-11.1442
▁Haiti	-11.1443
▁Lang	-11.1445
▁ESPN	-11.1445
▁Guardiola	-11.1445
▁Klopp	-11.1445
▁categories	-11.1445
▁referendum	-11.1445
▁stint	-11.1445
▁buried	-11.1445
▁rainfall	-11.1446
▁Warren	-11.1446
▁Could	-11.1446
▁boom	-11.1447
▁neutral	-11.1447
▁Point	-11.1447
▁frustrated	-11.1448
▁Eight	-11.1448
▁description	-11.1448
▁Warner	-11.1448
▁Should	-11.1449
▁20%	-11.1449
▁Crime	-11.1451
▁rental	-11.1454
▁downtown	-11.1455
▁controls	-11.1456
▁renewed	-11.1457
▁24,	-11.1458
▁1-0	-11.1459
action	-11.1459
▁tear	-11.1466
▁ramp	-11.1467
▁Ste	-11.1468
▁feared	-11.147
▁employed	-11.1471
away	-11.1473
▁Brits	-11.1476
▁secondary	-11.1481
▁relative	-11.1491
Bo	-11.1495
▁relation	-11.1502
▁11.	-11.1513
▁questioning	-11.1516
▁outlets	-11.1519
▁Thank	-11.1523
guardian	-11.1523
yl	-11.1528
▁App	-11.1535
tier	-11.154
▁casual	-11.154
▁Catherine	-11.1541
▁Harvard	-11.1541
▁Organization	-11.1541
▁Political	-11.1541
▁Thousand	-11.1541
▁ninth	-11.1541
▁Avenue	-11.1541
▁pleasure	-11.1542
▁hearts	-11.1542
▁citizenship	-11.1542
▁grace	-11.1542
▁1996	-11.1543
▁cabin	-11.1543
▁enemy	-11.1544
▁Nothing	-11.1545
▁equipped	-11.1545
▁rush	-11.1547
▁terrorism	-11.1547
▁qualified	-11.1547
▁queen	-11.1548
▁occupied	-11.1548
▁dishes	-11.1548
▁admits	-11.155
▁unfortunately	-11.1552
▁humanity	-11.1553
▁dealt	-11.1556
▁Us	-11.1558
▁highway	-11.1559
▁valued	-11.1559
▁challenged	-11.1564
▁grade	-11.157
▁adopt	-11.157
▁discount	-11.1578
▁Commons	-11.158
▁boots	-11.1582
▁Jews	-11.1584
▁acted	-11.1586
wal	-11.159
▁unity	-11.1592
▁annually	-11.1592
**	-11.1593
▁Gra	-11.1596
▁vessels	-11.1596
▁icon	-11.1599
▁slot	-11.1599
▁Des	-11.16
▁yield	-11.1602
▁prop	-11.1604
▁Looking	-11.161
▁Sim	-11.161
▁Dame	-11.1611
▁condemn	-11.1612
▁hu	-11.1612
ón	-11.1614
▁Net	-11.1615
ona	-11.1615
46	-11.1621
▁Does	-11.1621
Every	-11.1623
▁rough	-11.1628
▁presents	-11.1631
▁2025,	-11.1632
▁anonymous	-11.1633
▁tune	-11.1633
▁principles	-11.1635
▁ethnic	-11.1637
▁Support	-11.1637
▁grief	-11.1639
▁phenomenon	-11.1639
▁Essex	-11.1639
▁Mount	-11.1639
▁boundaries	-11.1639
▁excuse	-11.1639
▁Nigel	-11.1639
▁lemon	-11.1639
▁grey	-11.1639
▁theories	-11.1639
▁Nathan	-11.164
▁legitimate	-11.164
▁consultation	-11.164
▁Diana	-11.164
▁superstar	-11.1642
▁III	-11.1643
▁writers	-11.1643
▁inches	-11.1645
▁diseases	-11.1646
▁arrives	-11.165
▁coat	-11.165
▁Officials	-11.1651
▁Pu	-11.1653
▁Pr	-11.1657
▁compare	-11.1657
▁2-1	-11.1665
200	-11.1666
▁inappropriate	-11.1666
ET	-11.1668
▁stops	-11.1671
qua	-11.1673
▁emails	-11.1674
▁button	-11.1678
▁Sk	-11.1681
▁Milan	-11.1683
▁estimate	-11.1684
▁Eve	-11.1685
▁deserves	-11.1694
▁parks	-11.1695
▁Experts	-11.1696
▁burst	-11.1696
sey	-11.1696
▁substance	-11.1699
▁15,	-11.1699
▁Within	-11.1701
▁finger	-11.1703
▁gifts	-11.1706
▁lane	-11.1706
▁villages	-11.1706
rou	-11.1708
▁wicket	-11.1709
▁Mat	-11.171
▁align	-11.1711
EC	-11.1714
Even	-11.1716
43	-11.1716
Palestinian	-11.1718
35	-11.1719
match	-11.1719
und	-11.172
EN	-11.1727
39	-11.1729
▁68	-11.1732
▁blog	-11.1736
▁Brussels	-11.1737
▁Djokovic	-11.1737
▁Intelligence	-11.1737
▁Liberal	-11.1737
▁Lloyd	-11.1737
▁chaotic	-11.1737
▁advertising	-11.1737
▁evacuation	-11.1737
▁sovereignty	-11.1737
▁Prix	-11.1737
▁Lucy	-11.1737
▁breakthrough	-11.1737
58	-11.1737
▁harmful	-11.1738
▁pivotal	-11.1738
▁transformation	-11.1739
▁mentor	-11.1741
ox	-11.1743
gh	-11.1745
▁76	-11.1746
▁gu	-11.1746
▁teammates	-11.1746
▁thrilled	-11.1746
▁Latino	-11.1748
hill	-11.1748
></	-11.175
▁17-	-11.175
▁lists	-11.175
▁Rex	-11.1751
read	-11.1755
▁defined	-11.1757
▁banking	-11.176
▁designate	-11.1761
▁celebrations	-11.1766
▁promoted	-11.1773
▁jurors	-11.1773
amp	-11.1777
▁31,	-11.1778
▁11,	-11.1778
lia	-11.1778
▁Ye	-11.1781
▁creates	-11.1788
▁hunt	-11.1789
▁dock	-11.179
97	-11.1795
▁fights	-11.1797
▁circle	-11.18
▁contribution	-11.1802
▁defendant	-11.1803
member	-11.1804
ison	-11.1805
▁16-	-11.1812
▁Pope	-11.1815
▁63	-11.1815
press	-11.1816
wise	-11.1817
▁ads	-11.1819
just	-11.1821
▁districts	-11.1821
from	-11.1821
▁Tar	-11.1824
▁19,	-11.1826
ush	-11.1826
▁similarly	-11.1827
▁mo	-11.183
▁risen	-11.1833
▁spare	-11.1833
▁contributing	-11.1836
▁furniture	-11.1836
▁religion	-11.1836
▁psychological	-11.1836
▁ankle	-11.1836
▁gaming	-11.1836
▁aggression	-11.1836
▁landmark	-11.1837
▁NCAA	-11.1838
▁implementation	-11.1838
▁transportation	-11.1839
▁sufficient	-11.1839
▁Hart	-11.1841
▁mile	-11.1841
▁attached	-11.1845
▁Obviously	-11.1846
esh	-11.1848
▁traded	-11.185
▁priced	-11.1855
▁fold	-11.1862
▁Inside	-11.1863
▁approaches	-11.1864
▁Palmer	-11.1866
Con	-11.1869
▁Barr	-11.1871
ING	-11.1873
▁channels	-11.1874
▁Brit	-11.1875
▁Trade	-11.1875
▁Band	-11.188
▁Hand	-11.1882
zy	-11.1886
▁Littler	-11.1887
▁tall	-11.1892
▁bargain	-11.1895
▁Further	-11.1897
▁coal	-11.1898
ama	-11.1903
▁volunteers	-11.1903
▁14-	-11.191
▁Masters	-11.1911
▁shortage	-11.1912
▁ta	-11.1918
▁privilege	-11.1918
▁Austria	-11.1921
▁$9	-11.1921
▁tweet	-11.1924
▁accurate	-11.1925
▁towns	-11.1925
▁Azerbaijan	-11.1929
IA	-11.1933
▁bolster	-11.1936
▁Yadav	-11.1936
▁smoking	-11.1936
▁guidelines	-11.1936
▁Philip	-11.1936
▁Brooklyn	-11.1936
▁Indeed	-11.1936
▁roster	-11.1936
▁Massachusetts	-11.1936
▁blanket	-11.1937
▁Grace	-11.1937
▁acid	-11.1937
▁Utd	-11.1938
▁40%	-11.1938
▁backdrop	-11.1939
▁sacrifice	-11.194
▁haul	-11.1942
▁matching	-11.1944
▁gangs	-11.1945
▁assured	-11.1946
▁hiding	-11.1949
posing	-11.195
▁acquired	-11.1951
ole	-11.1953
▁Tan	-11.1954
▁flee	-11.1959
oon	-11.1965
▁screaming	-11.1967
▁ICC	-11.1971
▁object	-11.1978
▁photographer	-11.1979
▁Pay	-11.1985
▁colours	-11.1988
▁Turn	-11.1991
▁mega	-11.1991
▁Islands	-11.1994
▁Roe	-11.1997
▁teach	-11.2
▁bite	-11.2007
▁Fan	-11.2009
ux	-11.201
▁resist	-11.2011
▁caution	-11.2011
▁Sand	-11.2011
hard	-11.2015
▁convince	-11.2018
Photo	-11.2022
PS	-11.2023
▁couples	-11.2025
lay	-11.2027
76	-11.2029
Don	-11.2034
▁courage	-11.2036
coming	-11.2036
▁significance	-11.2037
▁pricing	-11.2037
▁Silva	-11.2037
▁cyber	-11.2037
▁Denver	-11.2037
▁wildlife	-11.2037
▁midnight	-11.2038
▁retreat	-11.2038
▁Bharat	-11.2038
▁impression	-11.2038
▁overhaul	-11.204
rio	-11.2042
-0	-11.2044
▁regulatory	-11.2045
89	-11.2048
án	-11.2049
▁disappeared	-11.205
▁Sanders	-11.2054
▁10,000	-11.2057
kg	-11.2057
try	-11.2058
▁recalls	-11.2059
two	-11.2061
handed	-11.2062
▁titled	-11.2069
cia	-11.2071
▁machines	-11.2074
▁74	-11.2074
!'	-11.2075
▁sons	-11.2076
▁mining	-11.2082
▁assisted	-11.2082
▁mask	-11.2084
-7	-11.2085
▁Mass	-11.2087
▁breathing	-11.2092
ld	-11.2097
▁Final	-11.2102
hr	-11.2103
list	-11.2103
rry	-11.2104
▁substitute	-11.2105
▁patterns	-11.2106
▁schemes	-11.2111
▁soldier	-11.2114
▁13,	-11.2114
▁vegetables	-11.2116
cast	-11.212
powered	-11.2121
▁pressing	-11.2122
ES	-11.2122
▁accuse	-11.2124
▁coup	-11.2125
▁fierce	-11.2127
▁slight	-11.2129
▁unfair	-11.2129
wy	-11.213
ching	-11.2139
▁Nvidia	-11.2139
▁explanation	-11.2139
▁RTÉ	-11.2139
▁misconduct	-11.2139
▁Oxford	-11.2139
▁consist	-11.2139
▁Alliance	-11.2139
▁introduction	-11.2139
▁cafe	-11.2139
▁Castle	-11.214
-10	-11.214
▁Dancing	-11.214
▁carries	-11.2142
have	-11.2142
▁Nicole	-11.2143
▁Season	-11.2143
▁Johnny	-11.2145
▁Mun	-11.2147
▁Tech	-11.2148
▁Hor	-11.215
▁Ber	-11.2156
66	-11.2158
▁historically	-11.2158
▁roots	-11.2159
96	-11.216
▁triple	-11.216
mu	-11.2162
Ha	-11.2166
▁objects	-11.217
▁Design	-11.217
▁critic	-11.2172
▁insists	-11.2177
▁prospects	-11.218
▁22-	-11.2181
▁warming	-11.2181
media	-11.2184
▁businessman	-11.2185
post	-11.219
bon	-11.2195
▁attracted	-11.2196
▁Glen	-11.2198
stra	-11.22
▁Gil	-11.2202
64	-11.2202
east	-11.2203
▁2015,	-11.2204
▁upgrade	-11.2206
▁forgotten	-11.2206
▁Newsom	-11.2207
▁Age	-11.2208
ture	-11.221
▁Marco	-11.2212
▁tin	-11.2213
▁cousin	-11.2214
▁exploit	-11.2215
▁preparation	-11.2215
▁passport	-11.2216
▁militant	-11.2216
▁Edward	-11.2217
look	-11.2218
screen	-11.2223
ello	-11.2225
income	-11.2225
▁farming	-11.2226
▁outrage	-11.2228
▁depends	-11.223
og	-11.2239
▁Child	-11.2242
▁Pittsburgh	-11.2242
▁Senior	-11.2242
▁clarity	-11.2242
▁fantasy	-11.2242
▁replacing	-11.2242
▁scratch	-11.2242
▁segment	-11.2242
▁sentencing	-11.2242
▁studied	-11.2242
▁furious	-11.2242
▁confusion	-11.2242
▁Giants	-11.2242
▁Nottingham	-11.2243
▁Emergency	-11.2243
▁escalation	-11.2243
▁ridiculous	-11.2244
▁premiere	-11.2245
▁determination	-11.2246
▁genre	-11.2247
▁Assad	-11.225
▁shy	-11.2251
▁18-	-11.2252
▁pole	-11.2256
▁Hay	-11.2256
nan	-11.2261
▁helpful	-11.2264
▁pets	-11.2265
mber	-11.2269
▁honestly	-11.227
tha	-11.2275
▁endless	-11.2276
▁journal	-11.2279
▁5,000	-11.2281
▁facilitate	-11.2282
▁starter	-11.2282
▁arena	-11.2292
▁scam	-11.2295
▁micro	-11.2295
▁import	-11.2297
▁acknowledge	-11.23
▁fed	-11.2305
▁storms	-11.2309
▁mentally	-11.2309
▁tender	-11.231
show	-11.2312
ena	-11.2315
▁riot	-11.232
pot	-11.232
▁spray	-11.2321
▁ID	-11.2321
▁bump	-11.2322
▁barrier	-11.2322
▁w	-11.2324
▁si	-11.2326
▁briefing	-11.2331
▁virtual	-11.2337
▁touched	-11.2339
▁gentle	-11.2343
▁worrying	-11.2344
▁grip	-11.2346
▁WhatsApp	-11.2346
▁Kentucky	-11.2346
▁constituency	-11.2346
▁solidarity	-11.2346
▁admire	-11.2346
▁kilometers	-11.2346
▁correspondent	-11.2346
▁disappointment	-11.2346
▁Golf	-11.2346
▁passionate	-11.2347
▁portrait	-11.2347
▁Gulf	-11.2347
▁po	-11.2349
▁unacceptable	-11.2349
▁trio	-11.2349
▁felony	-11.2349
▁taxi	-11.235
▁motivated	-11.2353
NA	-11.2355
▁hospitality	-11.2358
▁Finally	-11.2358
68	-11.236
▁Station	-11.2361
="	-11.2361
▁71	-11.2362
▁raw	-11.2365
▁Marc	-11.2369
▁riots	-11.237
▁Latin	-11.237
ign	-11.2376
dom	-11.2378
any	-11.2379
▁9,	-11.2383
▁engineering	-11.2392
how	-11.2392
nie	-11.2395
▁Mill	-11.24
▁Sol	-11.2401
▁bio	-11.2402
▁2016.	-11.2404
▁charm	-11.2411
▁requir	-11.2413
▁sheet	-11.2413
▁sectors	-11.2413
non	-11.2418
▁Woods	-11.2419
▁peers	-11.2421
06	-11.2421
dan	-11.2423
▁headline	-11.2423
▁convert	-11.2426
▁Slam	-11.2426
▁siblings	-11.243
▁scientist	-11.243
▁Nicola	-11.243
▁supplement	-11.2431
▁midfield	-11.2431
▁Too	-11.2437
▁unfortunate	-11.2442
▁combine	-11.2451
megapixel	-11.2451
▁Kapoor	-11.2451
▁Nelson	-11.2451
▁Phoenix	-11.2451
▁tackling	-11.2451
▁influential	-11.2451
▁Dream	-11.2451
▁Jessica	-11.2451
▁Garcia	-11.2451
▁hammer	-11.2452
▁hiring	-11.2452
▁enemies	-11.2453
▁shield	-11.2453
▁stopping	-11.2454
▁Hope	-11.2455
▁Willis	-11.2456
burn	-11.2462
88	-11.2465
▁Join	-11.2466
▁las	-11.2468
▁web	-11.2472
▁uncle	-11.2473
adi	-11.2478
▁root	-11.2478
▁25-	-11.2479
▁77	-11.2482
pop	-11.2488
▁Vin	-11.2492
▁listing	-11.2492
Ro	-11.2498
MC	-11.25
▁Hot	-11.2502
▁favourites	-11.2503
shirt	-11.2519
▁approaching	-11.2522
▁Oh	-11.2532
▁Kay	-11.2533
president	-11.254
From	-11.254
▁Parker	-11.2542
▁immense	-11.2546
▁submit	-11.2547
▁ET	-11.2552
▁proportion	-11.2557
iva	-11.2557
▁Louisiana	-11.2558
▁ceiling	-11.2558
▁innovative	-11.2558
▁portfolio	-11.2558
▁stunned	-11.2558
▁Utah	-11.2558
▁milestone	-11.2558
▁testified	-11.2558
▁Review	-11.2559
▁Nancy	-11.2559
▁deportation	-11.2559
▁Bond	-11.2559
▁NEW	-11.2559
▁skirt	-11.2559
▁confrontation	-11.256
illa	-11.2561
tting	-11.2561
SE	-11.2565
▁Left	-11.2566
AS	-11.2567
ought	-11.2568
nia	-11.2569
▁curb	-11.2569
bert	-11.257
▁Fort	-11.2581
▁texture	-11.2584
▁airlines	-11.2584
▁Around	-11.2584
-12	-11.2585
▁shouting	-11.2587
taking	-11.2588
▁Area	-11.2591
▁offices	-11.2593
▁stark	-11.2598
elli	-11.2603
▁revolution	-11.2612
57	-11.2612
▁ro	-11.2615
▁Along	-11.2617
▁receiver	-11.2617
▁unions	-11.2618
▁incoming	-11.2619
▁interviewed	-11.2622
▁deck	-11.2638
▁PR	-11.264
▁jokes	-11.2641
▁define	-11.2647
degree	-11.2647
▁aspect	-11.2649
▁asset	-11.2653
▁Nazi	-11.2654
bridge	-11.2654
▁employer	-11.2656
▁musician	-11.2657
Car	-11.2661
▁excess	-11.2664
▁Maharashtra	-11.2665
▁Studies	-11.2665
▁certificate	-11.2665
▁landslide	-11.2665
▁participating	-11.2665
▁Rodgers	-11.2665
▁bipartisan	-11.2665
▁gambling	-11.2665
▁desert	-11.2665
▁placing	-11.2665
▁apology	-11.2665
▁architecture	-11.2665
▁casualties	-11.2665
▁Eddie	-11.2666
▁1995	-11.2667
▁Small	-11.2667
▁Boris	-11.2668
▁Nearly	-11.2668
▁evil	-11.267
▁Orange	-11.267
▁Blair	-11.2671
kan	-11.2673
▁Fo	-11.2673
▁Angela	-11.2674
▁transferred	-11.2674
▁Being	-11.2678
▁conducting	-11.268
▁developers	-11.2681
▁presentation	-11.2681
▁relaxed	-11.2684
▁mountains	-11.2684
▁Shi	-11.2686
▁sponsor	-11.2699
▁donations	-11.27
▁seeds	-11.2701
▁Ward	-11.2703
▁adjust	-11.2706
▁Sound	-11.2706
▁painted	-11.2713
cer	-11.2715
▁beef	-11.2715
▁developments	-11.2716
▁vaccines	-11.2718
▁Harrison	-11.2718
93	-11.2719
▁acres	-11.2721
vy	-11.2724
▁argues	-11.2724
▁constitution	-11.2733
▁delegates	-11.2734
▁affects	-11.2737
leg	-11.2739
too	-11.274
▁im	-11.2741
dia	-11.2741
▁Chase	-11.2748
ologist	-11.275
▁(20	-11.275
▁concerning	-11.2752
▁projected	-11.2752
▁impose	-11.2755
government	-11.2756
mor	-11.2756
▁Amid	-11.2757
▁hurricane	-11.2758
▁economist	-11.2759
label	-11.2759
▁Sony	-11.2761
▁eliminate	-11.2763
rum	-11.2766
▁scrap	-11.2773
▁Carr	-11.2773
blockLastUpdated	-11.2774
▁Kashmir	-11.2774
▁Mercedes	-11.2774
▁Milwaukee	-11.2774
▁Wembley	-11.2774
▁collision	-11.2774
▁beneath	-11.2774
▁contemporary	-11.2774
▁Emmanuel	-11.2774
▁Spurs	-11.2774
▁Arteta	-11.2774
▁Ferguson	-11.2774
blockCreatedOn	-11.2774
▁Wallace	-11.2774
LE	-11.2774
▁denies	-11.2774
▁battleground	-11.2774
▁removing	-11.2774
▁1994	-11.2775
▁1992	-11.2775
▁disability	-11.2775
▁coordinator	-11.2775
▁Freedom	-11.2776
▁Egyptian	-11.2776
ova	-11.2776
▁Lakers	-11.2777
dicating	-11.278
▁elevated	-11.278
▁Match	-11.2784
quality	-11.2788
▁Greene	-11.2788
elle	-11.2789
▁genuinely	-11.279
▁outlook	-11.279
lmost	-11.2792
AL	-11.2793
ons	-11.2795
▁Brand	-11.2797
sure	-11.2798
there	-11.28
▁jets	-11.28
▁sweat	-11.2804
▁employ	-11.2804
▁rec	-11.2807
▁Tor	-11.2808
▁punch	-11.2814
▁tracking	-11.2815
band	-11.2817
▁planes	-11.2818
aki	-11.2827
▁dressing	-11.2828
▁lyrics	-11.283
▁Wil	-11.2835
▁2024:	-11.2836
▁recovering	-11.2839
▁protections	-11.2842
@	-11.2843
▁pupils	-11.2843
▁contested	-11.2846
▁firmly	-11.2848
tta	-11.2848
Jo	-11.2851
nna	-11.2854
▁Er	-11.2854
▁29,	-11.2858
);	-11.2865
▁apologise	-11.2866
Look	-11.2866
▁cancel	-11.2871
▁Representative	-11.2872
face	-11.2873
▁crisp	-11.2874
▁achievement	-11.2875
▁processing	-11.2875
▁refugee	-11.2877
▁gate	-11.2878
51	-11.2878
see	-11.2879
▁cur	-11.288
▁guitar	-11.2883
▁Badenoch	-11.2884
▁Beirut	-11.2884
▁Usyk	-11.2884
▁clever	-11.2884
▁currency	-11.2884
▁embark	-11.2884
▁Authorities	-11.2884
▁bankruptcy	-11.2884
▁interference	-11.2884
▁Alaska	-11.2884
▁messaging	-11.2884
▁Protection	-11.2884
▁epic	-11.2885
▁SpaceX	-11.2885
▁1998	-11.2885
▁Death	-11.2885
▁terrifying	-11.2886
▁pending	-11.2886
▁isolated	-11.2887
▁Cruz	-11.2888
▁perceived	-11.2889
▁nickname	-11.2889
▁exports	-11.2889
▁skipper	-11.289
▁answered	-11.2891
ս	-11.2898
ified	-11.2899
▁battl	-11.2901
met	-11.2902
▁wa	-11.2903
▁exclusively	-11.2903
▁Jam	-11.2903
▁Never	-11.2904
▁FC	-11.2906
▁appointments	-11.2909
▁donated	-11.2914
▁lu	-11.2921
ua	-11.2922
ched	-11.2923
▁$	-11.2925
table	-11.2926
▁powered	-11.2926
▁20,	-11.2927
▁waited	-11.293
▁Village	-11.2933
▁reviewed	-11.2935
▁famously	-11.2936
▁fa	-11.2942
▁67	-11.2946
▁€1	-11.2947
▁Gun	-11.2948
had	-11.2951
▁robot	-11.2951
▁Gor	-11.2953
▁Mars	-11.2954
▁accord	-11.2954
rant	-11.2954
ith	-11.2955
▁lap	-11.2955
▁justices	-11.2959
ken	-11.2961
quarter	-11.2965
▁chains	-11.2966
what	-11.2968
▁opinions	-11.2968
pin	-11.297
▁pressed	-11.2972
white	-11.2978
▁sentiment	-11.2979
Today	-11.2979
▁teens	-11.2983
▁Plan	-11.2984
69	-11.2989
RE	-11.299
▁Pop	-11.2991
▁bacteria	-11.2992
vie	-11.2994
▁cocaine	-11.2995
▁companion	-11.2995
▁corridor	-11.2995
▁deciding	-11.2995
▁dementia	-11.2995
▁rallies	-11.2995
▁rifle	-11.2995
▁mysterious	-11.2995
▁bilateral	-11.2995
stellar	-11.2995
▁olive	-11.2995
▁Bailey	-11.2995
▁salad	-11.2995
▁1,200	-11.2995
▁indication	-11.2996
▁loyalty	-11.2996
▁Gavin	-11.2997
▁Owen	-11.2997
▁Truth	-11.2999
▁gross	-11.3002
▁Unfortunately	-11.3002
hole	-11.3002
▁nowhere	-11.3004
zone	-11.3005
▁virtually	-11.3007
▁Baby	-11.3008
▁Made	-11.3009
▁Jill	-11.3011
▁stunt	-11.3013
▁Ci	-11.3014
▁3,000	-11.3015
Time	-11.3015
beit	-11.3017
▁tense	-11.3018
och	-11.3021
▁fuels	-11.3025
▁applying	-11.3025
▁burned	-11.3032
▁23,	-11.3035
▁lesson	-11.3036
▁800	-11.3046
▁traditionally	-11.3048
IM	-11.3049
▁structures	-11.3053
Mr	-11.3059
▁destinations	-11.3066
fit	-11.3072
▁Kai	-11.3073
▁demonstrations	-11.3074
now	-11.3075
▁conflicts	-11.3077
bie	-11.3083
▁communicate	-11.3088
/1	-11.3088
▁Bear	-11.3092
▁73	-11.3093
▁Ring	-11.3095
▁spectacular	-11.3097
▁booking	-11.3099
▁Tel	-11.3099
▁operator	-11.31
wick	-11.3102
ö	-11.3107
▁Emirates	-11.3107
▁Federation	-11.3107
▁Toronto	-11.3107
▁Wolves	-11.3107
▁acquisition	-11.3107
▁immune	-11.3107
▁vacation	-11.3107
▁scope	-11.3107
▁Jesus	-11.3107
▁bubble	-11.3107
▁Gaetz	-11.3107
▁anchor	-11.3107
▁Stock	-11.3108
▁Thailand	-11.3108
▁precious	-11.3108
▁Nikki	-11.3108
▁disastrous	-11.3108
▁teammate	-11.3108
▁Payne	-11.3109
Barack	-11.3109
▁3-0	-11.311
▁releas	-11.311
▁Check	-11.311
▁fined	-11.3112
▁confused	-11.3112
hold	-11.3116
▁Susan	-11.3119
ington	-11.312
▁poses	-11.3122
▁pin	-11.3124
▁appealed	-11.3127
▁600	-11.3127
▁discussing	-11.3128
▁developer	-11.3129
▁assumed	-11.313
oy	-11.3132
▁Travel	-11.3135
SC	-11.3136
▁clinic	-11.3137
▁Tur	-11.3137
▁78	-11.3138
▁Rod	-11.3141
▁implications	-11.3144
hop	-11.3144
▁Arts	-11.3145
▁der	-11.3148
▁villa	-11.315
▁transformed	-11.3157
▁tactical	-11.3158
82	-11.3163
ima	-11.3163
▁enforce	-11.3167
ando	-11.317
▁Pol	-11.3171
▁neighbors	-11.3171
▁cope	-11.3171
yo	-11.3171
sex	-11.3176
▁Bro	-11.3179
▁sweep	-11.318
▁provision	-11.3184
▁bans	-11.3185
Pro	-11.3187
ire	-11.319
▁Bru	-11.3192
▁Shaw	-11.3196
▁cats	-11.3198
▁USC	-11.32
▁Nar	-11.32
▁torture	-11.3202
▁ob	-11.3212
▁agreements	-11.3212
mont	-11.3213
▁drops	-11.3214
▁wondering	-11.3214
▁displayed	-11.3214
▁treasure	-11.3216
▁Houthi	-11.3216
▁Afghan	-11.3221
▁Brisbane	-11.3221
▁Missouri	-11.3221
▁universe	-11.3221
▁puzzle	-11.3221
▁demographic	-11.3221
▁empire	-11.3221
▁pipeline	-11.3221
▁neighbourhood	-11.3221
▁invitation	-11.3221
▁Spencer	-11.3222
▁evident	-11.3222
▁1993	-11.3222
▁1989	-11.3222
▁gorgeous	-11.3223
word	-11.3223
▁renown	-11.3224
▁judicial	-11.3224
▁shall	-11.3224
▁underground	-11.3225
▁Karen	-11.3226
▁Anyone	-11.3227
▁fastest	-11.3228
▁Building	-11.3229
▁Full	-11.3229
▁50%	-11.3231
▁divide	-11.3231
▁ga	-11.3234
▁Armenian	-11.3239
▁2017.	-11.3239
▁demonstrated	-11.3244
):	-11.3245
▁imports	-11.3246
▁twin	-11.3247
▁horses	-11.3252
▁safer	-11.3255
NS	-11.3255
▁advocates	-11.3257
▁realized	-11.3258
▁insider	-11.326
▁None	-11.3261
▁IDF	-11.3261
▁aesthetic	-11.3267
▁Yankees	-11.3269
ware	-11.3269
▁winger	-11.3269
Of	-11.3272
used	-11.3273
▁ED	-11.3274
78	-11.3276
▁workout	-11.3279
gas	-11.3283
▁Fred	-11.3289
▁Greens	-11.3297
▁responding	-11.3297
▁Sel	-11.3299
▁Chad	-11.3302
turn	-11.3303
▁homer	-11.3305
▁counted	-11.3307
▁trap	-11.3308
▁deploy	-11.3309
▁owns	-11.3313
▁thanked	-11.3314
▁compromise	-11.3317
▁sum	-11.3319
▁slam	-11.332
Can	-11.3321
stop	-11.3326
▁seasonal	-11.3327
kick	-11.3332
▁picks	-11.3333
▁fortune	-11.3333
▁authentic	-11.3335
▁McCarthy	-11.3336
▁Samuel	-11.3336
▁ammunition	-11.3336
▁dedication	-11.3336
▁delegation	-11.3336
▁rhythm	-11.3336
▁shelves	-11.3336
▁temporarily	-11.3336
▁steep	-11.3336
▁fundraising	-11.3336
▁grocery	-11.3337
▁balloon	-11.3337
ique	-11.3338
▁Chairman	-11.3338
▁Would	-11.3339
▁UFC	-11.334
▁allowance	-11.3341
▁heavyweight	-11.3342
▁operators	-11.3343
▁Early	-11.3345
lie	-11.3345
▁Lane	-11.3345
▁Representatives	-11.3348
▁Rh	-11.335
▁takeover	-11.3353
▁forum	-11.3355
▁hardest	-11.3358
▁launches	-11.3362
▁deter	-11.3362
▁Sur	-11.3364
▁Blues	-11.3372
din	-11.3376
▁climbing	-11.3376
▁restored	-11.3379
▁kiss	-11.3383
play	-11.3394
▁£100	-11.3396
▁finals	-11.3399
▁prevented	-11.3405
▁samples	-11.3412
▁habits	-11.3416
▁wounds	-11.3416
▁tent	-11.3423
▁lawsuits	-11.3426
▁appoint	-11.3426
▁compound	-11.3427
▁debates	-11.3429
▁Mas	-11.3432
▁preserve	-11.3433
▁spike	-11.3434
▁rebels	-11.3434
▁extract	-11.3438
▁climb	-11.344
▁lip	-11.3442
four	-11.3443
▁operates	-11.3446
▁valid	-11.3447
▁12,	-11.3448
▁sensation	-11.3448
▁Rick	-11.3449
Brien	-11.3452
▁Commonwealth	-11.3452
▁Lopez	-11.3452
▁economies	-11.3452
▁electorate	-11.3452
▁enthusiasm	-11.3452
▁financing	-11.3452
▁propaganda	-11.3452
▁spiritual	-11.3452
▁console	-11.3452
▁definition	-11.3452
▁lottery	-11.3452
▁MAGA	-11.3452
▁Bellingham	-11.3452
▁tunnel	-11.3452
▁oversight	-11.3452
▁Carroll	-11.3452
▁feud	-11.3453
▁refusing	-11.3453
▁Sophie	-11.3453
▁Future	-11.3453
▁blocks	-11.3454
▁counties	-11.3455
77	-11.3458
/@	-11.3458
▁insight	-11.3458
▁erupted	-11.346
▁glasses	-11.3464
▁violated	-11.3469
▁Luis	-11.3472
▁desperately	-11.3477
▁Buck	-11.3478
▁counting	-11.3478
▁13.	-11.3479
▁10,	-11.3479
thirds	-11.348
▁Sharon	-11.3481
Ho	-11.3482
▁confronted	-11.3483
▁formation	-11.3488
▁Prof	-11.3491
▁defendants	-11.3497
▁flooded	-11.3498
▁flavour	-11.3501
▁Card	-11.3505
▁Soon	-11.3507
▁NI	-11.3508
▁raises	-11.3511
▁purposes	-11.3516
▁shifts	-11.3519
step	-11.3522
▁Hills	-11.3527
▁mar	-11.3528
▁Girl	-11.3531
▁bowling	-11.3532
▁vo	-11.3534
sized	-11.3542
▁hint	-11.3547
▁decrease	-11.355
â	-11.3551
▁Venezuela	-11.3555
▁refund	-11.3555
His	-11.356
▁screens	-11.356
▁regulator	-11.3564
▁opera	-11.3566
▁bullet	-11.3567
▁rack	-11.3567
▁universal	-11.357
▁Dundee	-11.357
▁Ohtani	-11.357
▁Opposition	-11.357
▁Technology	-11.357
▁advocacy	-11.357
▁declaration	-11.357
▁glory	-11.357
▁motivation	-11.357
▁stakeholders	-11.357
▁Kursk	-11.357
▁Staff	-11.357
▁Peace	-11.357
▁Collins	-11.357
▁Montana	-11.357
▁productivity	-11.357
▁scent	-11.357
▁1991	-11.3571
▁dramatically	-11.3571
▁Round	-11.3571
▁Martinez	-11.3571
▁grim	-11.3571
▁chronic	-11.3571
▁revenge	-11.3571
▁seal	-11.3572
▁assaulted	-11.3572
▁horrible	-11.3572
▁expertise	-11.3572
▁intensity	-11.3572
▁programmes	-11.3572
hir	-11.3573
▁gradually	-11.3573
▁principle	-11.3574
▁deliveries	-11.3574
▁pronounced	-11.3574
▁Brother	-11.3575
▁Alison	-11.3575
▁inclusive	-11.3575
▁arranged	-11.3575
▁acceptable	-11.3576
vid	-11.3576
cro	-11.3577
▁hunger	-11.3577
▁dive	-11.3577
▁dirty	-11.3578
team	-11.3583
hl	-11.3585
looking	-11.3586
▁casting	-11.3586
▁Manager	-11.359
▁hail	-11.3592
▁14,	-11.3595
▁des	-11.3597
▁bro	-11.3598
ort	-11.3599
▁Deep	-11.36
▁understands	-11.3601
▁fines	-11.3603
▁resolved	-11.3609
▁Deal	-11.3611
▁centers	-11.3616
▁lasting	-11.3617
dio	-11.3622
ake	-11.3624
app	-11.3625
▁farms	-11.3626
▁Cur	-11.3627
dra	-11.3628
roy	-11.3629
CO	-11.3631
▁spa	-11.3635
▁organic	-11.3636
▁Officers	-11.3637
▁tick	-11.3637
▁Fin	-11.3643
▁floods	-11.3645
▁instructions	-11.3648
▁Gri	-11.3648
NG	-11.3652
▁poster	-11.3655
cus	-11.3657
pinned	-11.3664
▁11-	-11.3672
▁elect	-11.3676
stand	-11.3678
▁fields	-11.3679
tel	-11.3687
▁anonymity	-11.3689
▁stabbing	-11.3689
▁strategies	-11.3689
▁memorial	-11.3689
▁welcoming	-11.3689
▁READ	-11.3689
▁Delaware	-11.3689
▁suspicious	-11.3689
▁swept	-11.3689
▁misinformation	-11.3689
▁array	-11.3689
▁Keith	-11.3689
▁automatically	-11.3689
▁cruel	-11.3689
▁crackdown	-11.3689
▁journalism	-11.3689
shot	-11.369
▁Marcus	-11.3691
▁breakdown	-11.3692
bil	-11.3693
▁wooden	-11.3693
▁Currently	-11.3693
▁cheer	-11.3694
▁admission	-11.3694
▁strap	-11.3695
▁2-0	-11.3698
▁Alamy	-11.3698
▁2015.	-11.3699
▁patch	-11.3699
▁Zelenskyy	-11.3707
▁Walter	-11.371
▁respected	-11.3712
▁dancer	-11.3712
▁lasted	-11.3714
▁transactions	-11.3716
▁blocking	-11.3718
▁Angel	-11.3719
▁Dog	-11.3722
▁Ann	-11.3722
▁tasks	-11.3724
▁Say	-11.373
▁enhanced	-11.3731
▁departments	-11.3731
▁Ac	-11.3738
02	-11.3739
▁accepting	-11.374
▁coin	-11.3745
▁vet	-11.3747
74	-11.3749
▁ambitions	-11.3751
▁hack	-11.3755
▁handled	-11.3756
this	-11.3759
ido	-11.3764
▁premises	-11.3765
▁fires	-11.3766
▁Know	-11.3769
▁pm	-11.3773
isa	-11.3774
Un	-11.3776
▁grabb	-11.3776
▁careers	-11.3777
selling	-11.3779
▁prohibit	-11.378
▁reflecting	-11.3781
mond	-11.3782
ear	-11.3784
size	-11.3785
▁(4	-11.3785
▁sprint	-11.3789
turned	-11.3797
▁terminal	-11.3798
▁shine	-11.3799
▁outage	-11.3799
fish	-11.3803
▁abused	-11.3803
track	-11.3809
▁Neither	-11.3809
▁Pentagon	-11.3809
▁Trafford	-11.3809
▁oxygen	-11.3809
▁vacuum	-11.3809
▁warehouse	-11.3809
▁Baldwin	-11.3809
▁garage	-11.3809
▁Tesco	-11.3809
▁transparent	-11.3809
▁ferry	-11.3809
▁dissent	-11.3809
▁prescription	-11.3809
▁impeachment	-11.381
▁Watson	-11.381
▁brick	-11.381
▁optimistic	-11.381
▁fleet	-11.381
▁batteries	-11.381
▁Switch	-11.3812
▁Think	-11.3813
▁fever	-11.3813
▁stays	-11.3813
▁Until	-11.3814
▁Blake	-11.3814
▁cult	-11.3815
▁RBI	-11.3817
▁financially	-11.3822
▁Kat	-11.3826
▁£12	-11.3828
▁output	-11.3831
die	-11.3831
▁loaded	-11.3833
kes	-11.3833
ured	-11.3836
▁Moss	-11.3837
▁venues	-11.3842
▁teenagers	-11.3846
▁Robin	-11.3848
▁cu	-11.3848
▁scar	-11.3849
tch	-11.3857
tag	-11.3863
▁obtain	-11.3864
iti	-11.3866
▁Ze	-11.3866
▁photographs	-11.3867
▁trusted	-11.3867
▁mothers	-11.3868
▁69	-11.3871
▁signals	-11.3871
▁Bird	-11.3872
▁Class	-11.3873
▁avoided	-11.3874
▁Gre	-11.3874
▁Indians	-11.3879
▁dear	-11.3879
emi	-11.3885
▁Cher	-11.3888
▁reckon	-11.389
bble	-11.3893
կ	-11.3897
▁Ty	-11.3907
place	-11.3908
▁conventional	-11.3909
▁inspire	-11.3912
video	-11.3913
wife	-11.3913
▁discipline	-11.3914
▁wire	-11.3914
ify	-11.3915
bury	-11.3919
▁Mont	-11.3921
▁organ	-11.3923
▁slide	-11.3929
▁minimal	-11.393
▁rockets	-11.3931
▁absent	-11.3931
▁linger	-11.3931
▁Alcaraz	-11.3931
▁Kardashian	-11.3931
▁Mediterranean	-11.3931
▁Olivia	-11.3931
▁Seahawks	-11.3931
▁escalating	-11.3931
▁garlic	-11.3931
▁legislature	-11.3931
▁policing	-11.3931
▁tremendous	-11.3931
▁disabled	-11.3931
▁priest	-11.3931
▁Coronation	-11.3931
▁applies	-11.3932
▁reunion	-11.3932
▁globe	-11.3932
▁pardon	-11.3932
▁mansion	-11.3933
▁committing	-11.3933
▁absurd	-11.3933
▁ballistic	-11.3933
▁sh	-11.3934
▁Mets	-11.3934
▁installation	-11.3935
▁workforce	-11.3936
▁Rather	-11.3936
▁representation	-11.3936
▁Bun	-11.3938
▁credits	-11.3939
▁mob	-11.3939
core	-11.3942
ving	-11.3944
versus	-11.3945
▁Ran	-11.3946
▁seekers	-11.3947
▁endured	-11.3947
bal	-11.3947
▁meters	-11.3947
▁aired	-11.3948
▁handset	-11.3948
▁floating	-11.3949
▁countryside	-11.3952
▁Kit	-11.3954
SP	-11.3954
lot	-11.3956
▁Beth	-11.3956
▁quietly	-11.3957
▁papers	-11.396
▁taxpayers	-11.3962
▁dies	-11.3965
loss	-11.3967
ancy	-11.3967
▁Rich	-11.3972
▁sweeping	-11.3975
▁matchup	-11.3977
▁£20	-11.3977
▁alleg	-11.3982
anna	-11.3983
rill	-11.3984
▁CD	-11.3984
▁sorts	-11.3987
▁Hy	-11.3989
acy	-11.3992
▁folks	-11.3994
▁convictions	-11.3994
▁ST	-11.3995
▁12.	-11.4005
▁reward	-11.4008
▁importantly	-11.4009
▁Sy	-11.4011
ony	-11.4012
▁rank	-11.4017
▁$20	-11.4022
▁op	-11.4025
▁Zi	-11.4025
▁spy	-11.4026
▁Kan	-11.4031
school	-11.4035
significant	-11.4036
],"	-11.4036
illo	-11.4037
▁quote	-11.4038
▁pile	-11.4038
▁Rev	-11.4043
▁cre	-11.4045
▁te	-11.4047
▁invite	-11.4049
▁distinct	-11.4052
▁column	-11.4052
▁stamp	-11.4053
break	-11.4054
0%	-11.4054
▁Weather	-11.4054
▁Silver	-11.4054
Shutterstock	-11.4055
▁Cricket	-11.4055
▁Crystal	-11.4055
▁Dakota	-11.4055
▁Tinubu	-11.4055
▁affiliate	-11.4055
▁arguably	-11.4055
▁declining	-11.4055
▁happiness	-11.4055
▁iPad	-11.4055
▁smiling	-11.4055
▁staggering	-11.4055
▁Harvey	-11.4055
▁trousers	-11.4055
▁okay	-11.4055
▁queue	-11.4056
▁Investigation	-11.4056
▁Wayne	-11.4057
▁Arthur	-11.4057
▁Danny	-11.4058
▁Lyon	-11.4058
▁sensor	-11.4059
▁Native	-11.4059
▁unlock	-11.4059
▁bang	-11.4064
▁snaps	-11.4065
▁Ce	-11.4066
▁strongest	-11.4069
▁caps	-11.407
▁creator	-11.4073
▁infections	-11.4074
CC	-11.4077
where	-11.4078
▁persuade	-11.4081
▁hailed	-11.4082
▁MI	-11.4083
▁rep	-11.4086
▁promo	-11.409
▁ratings	-11.4092
west	-11.4092
▁speeches	-11.4093
▁shortages	-11.4095
▁Pet	-11.4099
▁custom	-11.4109
▁dated	-11.411
▁warmer	-11.4111
.5%	-11.4112
▁distress	-11.4115
▁Nine	-11.4122
▁Ros	-11.4127
▁leaning	-11.4133
aid	-11.4135
▁manufacturers	-11.4149
▁Joel	-11.415
▁Colombia	-11.415
▁abandon	-11.4153
▁hook	-11.4155
risk	-11.4155
▁examples	-11.4155
▁jumping	-11.4155
▁sustain	-11.4155
▁Ven	-11.4156
▁shorter	-11.4159
83	-11.416
ava	-11.4161
▁statue	-11.4163
nny	-11.4164
about	-11.4165
▁Serbia	-11.4165
til	-11.4168
▁blaze	-11.4168
cker	-11.4169
running	-11.4172
▁Doug	-11.4173
▁bull	-11.4176
▁Lucas	-11.4177
▁aides	-11.4179
▁Beyond	-11.418
▁accommodate	-11.418
▁concentration	-11.418
▁dignity	-11.418
▁dominant	-11.418
▁hockey	-11.418
▁luggage	-11.418
▁parallel	-11.418
▁splash	-11.418
▁worries	-11.418
▁MSNBC	-11.418
▁maintenance	-11.418
▁respondents	-11.418
▁Shadow	-11.418
▁Stuart	-11.418
▁Ferrari	-11.418
▁Tyler	-11.418
▁Bruce	-11.4181
▁Criminal	-11.4181
▁architect	-11.4181
▁councillor	-11.4181
▁Garland	-11.4181
▁Mariners	-11.4181
▁marine	-11.4181
▁hostile	-11.4182
▁inspection	-11.4183
▁Mil	-11.4183
▁bout	-11.4184
▁download	-11.4185
▁Flight	-11.4185
▁advisory	-11.4186
▁Bri	-11.4189
▁Mason	-11.4192
▁emotion	-11.4194
▁turnout	-11.4194
▁2%	-11.4195
▁wrap	-11.4196
▁holders	-11.4197
▁surprisingly	-11.4197
▁expense	-11.4199
▁restricted	-11.4202
five	-11.4203
▁borrowing	-11.4205
▁barriers	-11.4208
tech	-11.4209
▁rebel	-11.4209
▁bombs	-11.4209
best	-11.4213
▁pound	-11.4214
▁Saka	-11.4214
▁participated	-11.4218
▁exception	-11.4221
▁exists	-11.4221
OR	-11.4226
▁Ahead	-11.4227
ո	-11.4229
▁cleaner	-11.4231
▁Jude	-11.4236
..."	-11.4237
▁Song	-11.4239
▁bonds	-11.4242
▁viewing	-11.4244
▁maker	-11.4249
pal	-11.4251
ili	-11.4259
Ba	-11.426
▁Pictures	-11.426
▁travellers	-11.4263
TC	-11.4265
▁yard	-11.4266
aged	-11.4268
IP	-11.427
▁KC	-11.427
▁bounce	-11.4274
paid	-11.428
active	-11.4284
▁cops	-11.4287
▁interact	-11.4288
President	-11.4288
three	-11.4288
▁Philippines	-11.429
▁Auto	-11.429
▁studying	-11.4293
▁profound	-11.4296
rise	-11.4299
▁regarded	-11.4299
lier	-11.4303
▁insights	-11.4305
▁Transport	-11.4305
▁drunk	-11.4306
▁Gallagher	-11.4306
▁Jerusalem	-11.4306
▁Norwegian	-11.4306
▁diamond	-11.4306
▁elegant	-11.4306
▁gratitude	-11.4306
▁hybrid	-11.4306
▁pioneer	-11.4306
▁preliminar	-11.4306
ք	-11.4306
▁harvest	-11.4306
▁tropical	-11.4306
▁Telegraph	-11.4306
▁fiction	-11.4306
▁Cardiff	-11.4306
▁precedent	-11.4307
▁Housing	-11.4307
▁penned	-11.4307
▁Stanley	-11.4307
▁skincare	-11.4307
▁Delta	-11.4308
▁stupid	-11.4308
▁basket	-11.4308
▁Xbox	-11.4309
▁Haitian	-11.431
▁Congo	-11.431
▁suitable	-11.4312
▁graduate	-11.4314
▁BA	-11.4315
▁swiftly	-11.4316
▁instantly	-11.4316
▁surgeon	-11.4317
▁attributed	-11.4318
▁Perth	-11.4318
▁bonuses	-11.4319
▁tricky	-11.4323
▁showcas	-11.4325
▁Cork	-11.4326
▁(@	-11.4326
gotten	-11.4326
zer	-11.4328
▁Ukrainians	-11.4329
▁heartbreaking	-11.4329
▁porn	-11.4329
gor	-11.4331
▁Dor	-11.4331
pic	-11.4336
▁Side	-11.4336
▁publishing	-11.4336
300	-11.4341
▁deepen	-11.4344
▁Dia	-11.4348
anti	-11.4349
▁draws	-11.4351
▁overturned	-11.4356
▁influencer	-11.4357
wo	-11.436
▁tee	-11.4362
▁cha	-11.4365
Man	-11.4367
OK	-11.4368
rim	-11.437
▁trainer	-11.4373
▁Amit	-11.4378
▁pockets	-11.4393
▁separated	-11.4398
ía	-11.4399
▁Talk	-11.4399
▁shell	-11.44
del	-11.4404
▁Ana	-11.4406
-16	-11.4407
▁Marie	-11.441
▁Lin	-11.4411
sis	-11.4412
▁campaigning	-11.4413
▁Lock	-11.4413
▁va	-11.4414
▁sink	-11.4417
▁god	-11.4419
DP	-11.4423
roll	-11.4423
wall	-11.4425
▁WA	-11.4429
▁competitors	-11.443
▁lens	-11.4432
▁Direct	-11.4432
▁emphasis	-11.4433
ml	-11.4433
▁neo	-11.4433
▁traveled	-11.4434
▁tattoo	-11.4434
▁EastEnders	-11.4434
▁Elsewhere	-11.4434
▁Nintendo	-11.4434
▁fascinating	-11.4434
▁inevitable	-11.4434
▁urgency	-11.4434
▁Pedro	-11.4434
▁Windsor	-11.4434
▁Metropolitan	-11.4434
▁podium	-11.4434
▁Chair	-11.4435
▁baking	-11.4435
▁Taking	-11.4435
▁shipping	-11.4436
▁Ultra	-11.4436
▁Europa	-11.4436
▁Brandon	-11.4438
▁turnover	-11.4439
▁Morrison	-11.4439
▁2028	-11.4439
shed	-11.444
▁Sinner	-11.444
date	-11.4441
uch	-11.4441
▁Ltd	-11.4443
▁tail	-11.4446
▁checking	-11.4446
▁campuses	-11.4447
▁Someone	-11.4448
▁40-	-11.4448
bro	-11.4449
▁Roll	-11.4451
61	-11.4453
▁100,000	-11.4456
▁Bus	-11.4458
▁encampment	-11.4458
▁Spring	-11.4459
▁technique	-11.446
▁spirits	-11.446
▁complain	-11.4461
▁attraction	-11.4463
▁Very	-11.4464
▁converted	-11.4465
ground	-11.4465
▁rebounds	-11.4467
▁Stra	-11.4471
mun	-11.4475
▁bone	-11.4477
▁discounts	-11.4486
even	-11.4488
▁intend	-11.4493
▁singles	-11.4497
▁scream	-11.4498
▁kicks	-11.4498
▁suite	-11.4501
▁Ted	-11.4503
late	-11.4504
gainst	-11.4504
makers	-11.4507
▁bombing	-11.4515
las	-11.4518
▁Jar	-11.4521
▁connecting	-11.4524
▁delight	-11.4524
▁Kris	-11.4525
▁Rain	-11.4532
▁balanced	-11.4532
▁load	-11.4542
▁violate	-11.4545
ifi	-11.4548
▁appealing	-11.4552
▁excessive	-11.4557
pla	-11.4559
▁Morris	-11.456
▁hugely	-11.4562
մ	-11.4562
▁Prior	-11.4564
▁Holiday	-11.4564
responsibilities	-11.4564
▁Heritage	-11.4564
▁MLB	-11.4564
▁Punjab	-11.4564
▁Reagan	-11.4564
▁administrative	-11.4564
▁completion	-11.4564
▁earthquake	-11.4564
▁jersey	-11.4564
▁spokeswoman	-11.4564
▁testament	-11.4564
▁sheriff	-11.4564
▁swim	-11.4564
▁Schumer	-11.4564
▁Yousaf	-11.4564
▁sustainability	-11.4565
▁persistent	-11.4565
▁fridge	-11.4565
▁deployment	-11.4565
▁duck	-11.4566
▁Bradley	-11.4566
▁artwork	-11.4566
▁60%	-11.4566
▁Together	-11.4567
▁MSP	-11.4568
▁Highway	-11.4568
▁pursuing	-11.4569
▁deliberately	-11.4572
▁branches	-11.4572
▁refuse	-11.4573
▁Motor	-11.4573
▁wellbeing	-11.4573
bell	-11.4575
▁scary	-11.4575
▁Students	-11.4575
▁competitions	-11.4577
▁Less	-11.4581
▁assigned	-11.4582
▁reply	-11.4582
▁fi	-11.4585
▁origin	-11.4589
▁agricultural	-11.46
▁Magic	-11.4602
▁deserved	-11.4603
▁uncertain	-11.4606
EA	-11.4612
acre	-11.4614
▁hunting	-11.4619
seat	-11.4619
▁resource	-11.4623
miss	-11.4625
▁introduc	-11.463
▁Comp	-11.4631
▁sin	-11.4637
▁Guy	-11.464
big	-11.4642
▁cave	-11.4643
bet	-11.4646
▁tra	-11.4646
▁21-	-11.4655
▁sooner	-11.466
HS	-11.4663
ition	-11.4665
▁AAP	-11.4665
▁drain	-11.467
▁absorb	-11.467
Image	-11.4672
▁lifting	-11.4676
▁negotiate	-11.4677
▁dominate	-11.4677
▁approve	-11.4677
formerly	-11.4678
Hamas	-11.4678
▁Pla	-11.4678
rri	-11.4678
▁sheer	-11.4679
▁Fu	-11.4679
eur	-11.4681
ega	-11.4682
▁failures	-11.4684
▁identifying	-11.4684
ora	-11.4685
etween	-11.4694
▁Pep	-11.4695
ius	-11.4695
▁Rooney	-11.4696
▁subscribers	-11.4696
▁Duchess	-11.4696
▁Jeffrey	-11.4696
▁bulk	-11.4696
▁wrongdoing	-11.4696
▁availability	-11.4696
▁Beckham	-11.4696
▁Broadway	-11.4696
▁watchdog	-11.4697
▁Father	-11.4697
▁capability	-11.4697
▁tan	-11.4697
▁Throughout	-11.4698
nik	-11.4698
▁PGA	-11.4698
▁fluid	-11.4698
▁Thames	-11.4698
▁grandfather	-11.4698
▁bow	-11.4699
▁Winter	-11.4699
▁accountability	-11.4699
▁filter	-11.4699
▁Workers	-11.47
▁Bobby	-11.47
▁veto	-11.4701
▁marry	-11.4701
▁provisions	-11.4702
▁ditch	-11.4702
▁arch	-11.4704
written	-11.4704
▁Researchers	-11.4704
▁thriller	-11.4704
▁Colin	-11.4708
▁Hal	-11.4709
▁runway	-11.471
6%	-11.4712
▁Abdul	-11.4714
▁broker	-11.4718
PO	-11.4718
▁apologised	-11.4719
è	-11.4721
fin	-11.4722
▁guards	-11.4722
▁logo	-11.4722
▁outlined	-11.4725
▁carrier	-11.4727
▁tweeted	-11.4729
▁manufacturer	-11.473
ele	-11.4733
site	-11.4733
▁Find	-11.4733
▁lung	-11.4734
▁suggestion	-11.4737
▁reacted	-11.4739
▁Costa	-11.4741
▁Victorian	-11.4742
▁Linda	-11.4749
▁responses	-11.475
▁install	-11.4751
▁Run	-11.4754
▁statistics	-11.4758
▁cooling	-11.4761
▁26-	-11.4762
▁battles	-11.4762
▁$200	-11.4768
suit	-11.4768
▁Chan	-11.477
▁flower	-11.477
▁br	-11.4774
▁ears	-11.4775
▁Store	-11.4776
nal	-11.4778
▁ranking	-11.4781
aries	-11.4782
▁meets	-11.4783
ency	-11.4783
▁Doctors	-11.4787
berry	-11.4799
▁prisoner	-11.4801
▁dip	-11.4802
▁difficulty	-11.4809
first	-11.4812
▁shareholders	-11.4812
largest	-11.4812
border	-11.4814
Go	-11.4814
▁13-	-11.4815
▁nod	-11.4816
Day	-11.4817
▁2011,	-11.4823
▁ChatGPT	-11.4829
▁Epstein	-11.4829
▁cognitive	-11.4829
▁flexibility	-11.4829
▁fortunate	-11.4829
▁lavish	-11.4829
▁staple	-11.4829
▁Hudson	-11.4829
▁Entertainment	-11.4829
▁violating	-11.4829
▁enduring	-11.4829
▁Cambridge	-11.4829
▁lounge	-11.4829
▁naked	-11.483
▁Investment	-11.483
▁merit	-11.483
▁Norris	-11.483
▁Potter	-11.483
▁slipped	-11.483
▁stir	-11.483
▁whistle	-11.4831
▁sake	-11.4831
"}],"	-11.4832
▁Roger	-11.4832
▁History	-11.4832
▁mindset	-11.4833
▁Ruby	-11.4833
▁partisan	-11.4834
▁Lead	-11.4834
▁Yoon	-11.4836
▁dependent	-11.4837
▁Drive	-11.4839
▁frontline	-11.484
▁Puer	-11.484
FF	-11.4843
▁Ruth	-11.4844
stream	-11.4844
▁testify	-11.4845
▁Aldi	-11.485
▁Lib	-11.4855
▁MS	-11.4857
▁exchanges	-11.4858
▁lighting	-11.4863
▁sealed	-11.4865
▁Eli	-11.4867
▁shade	-11.4873
▁operated	-11.4874
ddle	-11.4877
▁27-	-11.4878
▁Use	-11.488
▁encountered	-11.4882
!!!	-11.4888
agh	-11.4898
▁touching	-11.49
▁Reports	-11.4903
▁heated	-11.4903
gui	-11.4904
▁suburbs	-11.4915
pers	-11.4916
▁lovers	-11.492
▁tro	-11.4921
count	-11.4921
▁Bryan	-11.4932
03	-11.4938
92	-11.494
bus	-11.4943
▁Program	-11.4943
▁flames	-11.4944
Yeah	-11.4946
▁outfits	-11.4946
▁bases	-11.4949
▁staged	-11.495
▁$100	-11.4955
building	-11.4955
▁Bla	-11.4955
▁23-	-11.4955
▁privately	-11.4956
▁respective	-11.4961
Volodymyr	-11.4964
▁Connecticut	-11.4964
▁McIlroy	-11.4964
▁Mississippi	-11.4964
▁agriculture	-11.4964
▁chatbot	-11.4964
▁clinch	-11.4964
▁convenient	-11.4964
▁cottage	-11.4964
▁memorable	-11.4964
▁optimism	-11.4964
▁vaccination	-11.4964
▁Mahomes	-11.4964
▁Idaho	-11.4964
▁goodbye	-11.4964
▁disinformation	-11.4964
▁victories	-11.4964
▁salmon	-11.4965
▁Fraser	-11.4965
▁ghost	-11.4965
▁massacre	-11.4965
dent	-11.4965
▁benchmark	-11.4965
▁kidney	-11.4965
▁Gal	-11.4965
▁subtle	-11.4965
▁Rebecca	-11.4966
▁Paramount	-11.4966
▁80%	-11.4966
ister	-11.4969
▁reelection	-11.497
ological	-11.497
SS	-11.4972
xi	-11.4975
▁Mah	-11.4976
▁conscious	-11.4977
79	-11.4978
▁barred	-11.498
▁Lab	-11.4982
▁Christ	-11.4983
▁Forum	-11.4988
▁Sharif	-11.4991
▁climbed	-11.4994
▁NC	-11.4994
▁cocktail	-11.5003
▁Buy	-11.5003
▁addresses	-11.5003
case	-11.5004
▁demonstration	-11.5005
▁aligned	-11.5006
cio	-11.5008
mos	-11.5008
▁severely	-11.5011
▁Stars	-11.5012
▁km	-11.5014
▁expectation	-11.5015
▁fingers	-11.5015
▁rap	-11.5017
.8%	-11.5018
▁Thanks	-11.5022
▁crews	-11.5026
AD	-11.5027
▁unrest	-11.503
▁commitments	-11.5037
▁Poll	-11.5037
▁homeowners	-11.5041
▁Kam	-11.5043
▁n	-11.5046
▁buzz	-11.5051
▁Mis	-11.5053
▁Eye	-11.5053
▁refresh	-11.5061
▁fails	-11.5063
▁underscores	-11.5065
▁shaped	-11.5066
▁Stan	-11.5068
▁recipes	-11.5071
▁wound	-11.5077
▁VAR	-11.5079
▁2008,	-11.508
▁reader	-11.5081
ito	-11.5083
var	-11.5084
▁Carl	-11.5084
▁relate	-11.5085
countless	-11.5086
▁stole	-11.5087
▁dec	-11.5089
▁instant	-11.5091
▁random	-11.5091
▁cheek	-11.5096
brand	-11.5096
▁Wal	-11.5097
▁Wolf	-11.5099
▁horizon	-11.5101
▁Consumer	-11.5101
▁Kharkiv	-11.5101
▁Rugby	-11.5101
▁Trophy	-11.5101
▁VOA	-11.5101
▁jurisdiction	-11.5101
▁patience	-11.5101
▁Mohamed	-11.5101
▁Norfolk	-11.5101
▁imminent	-11.5101
▁cotton	-11.5101
▁Buckingham	-11.5101
▁Camilla	-11.5101
▁parole	-11.5102
▁blew	-11.5102
▁Room	-11.5103
▁UNRWA	-11.5103
▁transit	-11.5104
▁fancy	-11.5104
▁cycling	-11.5105
rog	-11.5106
▁95	-11.5106
▁pensioners	-11.5109
▁distributed	-11.511
▁reiterated	-11.5111
▁processed	-11.5112
▁difficulties	-11.5112
suming	-11.5114
▁evacuated	-11.5114
▁quest	-11.5121
▁Logan	-11.5123
▁Chile	-11.5123
▁compelling	-11.5124
▁jaw	-11.5125
▁Brook	-11.5129
▁Race	-11.5135
▁Rand	-11.5138
▁habit	-11.5139
▁dire	-11.514
▁notification	-11.5144
▁scare	-11.5145
ridge	-11.5146
▁Doctor	-11.5149
tress	-11.5156
▁laughed	-11.5159
bol	-11.5159
▁Eagles	-11.5161
▁escaped	-11.5161
▁hi	-11.5164
aging	-11.5165
▁peer	-11.5166
▁remembered	-11.5166
▁pad	-11.5166
▁avoiding	-11.5169
▁Fast	-11.517
▁prostate	-11.5175
▁Levi	-11.5176
FA	-11.5176
▁washing	-11.5176
▁govern	-11.5177
ori	-11.5178
▁bloody	-11.5178
▁purchases	-11.5183
▁Friends	-11.5189
PP	-11.519
▁Bor	-11.5194
▁etc	-11.5196
mouth	-11.5197
▁dam	-11.5198
▁Mali	-11.5199
▁flock	-11.52
▁Championships	-11.5207
▁suggestions	-11.5208
▁geopolitic	-11.5211
▁Sai	-11.5212
▁roast	-11.5214
zan	-11.5215
▁83	-11.5216
86	-11.5218
watch	-11.5218
▁cy	-11.5221
▁2012.	-11.5223
great	-11.5223
ila	-11.5225
▁Len	-11.5228
▁swift	-11.5229
▁prestig	-11.5231
▁Unit	-11.5232
national	-11.5232
▁Rogers	-11.5239
▁Czech	-11.524
▁Information	-11.524
▁Ipswich	-11.524
▁Kolkata	-11.524
▁PlayStation	-11.524
▁creativity	-11.524
▁criteria	-11.524
▁powder	-11.524
▁Dylan	-11.524
▁anxious	-11.524
▁heightened	-11.524
▁Nadal	-11.524
▁altogether	-11.524
▁gallery	-11.524
▁shark	-11.524
▁crude	-11.524
▁Venice	-11.524
▁Tampa	-11.5241
▁curious	-11.5241
▁Emmy	-11.5241
▁cement	-11.5241
▁bucket	-11.5242
▁sophisticated	-11.5242
▁Ashley	-11.5242
▁suburban	-11.5243
▁brace	-11.5243
▁Late	-11.5244
▁injection	-11.5244
▁Tax	-11.5244
▁Slovakia	-11.5245
▁Bloomberg	-11.5246
▁Houthis	-11.5246
▁Truss	-11.5247
▁1950	-11.5247
▁gown	-11.5249
▁McG	-11.525
▁Casey	-11.525
▁confessed	-11.5251
▁storyline	-11.5252
▁sounded	-11.5253
▁heels	-11.5253
▁drives	-11.5256
▁suppliers	-11.5256
El	-11.5256
▁Todd	-11.5258
lf	-11.5261
▁partnerships	-11.5261
Po	-11.5264
▁touring	-11.5265
▁belong	-11.527
▁canceled	-11.5272
Getting	-11.5277
▁99	-11.5277
▁wherever	-11.5278
changing	-11.5283
boy	-11.5283
▁Gro	-11.5284
▁bell	-11.5285
▁ecosystem	-11.5286
▁shifting	-11.5287
▁sample	-11.5288
▁Maha	-11.5291
▁requirement	-11.5293
▁Dick	-11.5294
▁Lily	-11.5296
▁rage	-11.5296
▁damages	-11.5297
▁showers	-11.53
▁makers	-11.5301
▁tanks	-11.5301
▁Mum	-11.5302
▁settings	-11.5304
itt	-11.5305
▁Dee	-11.5305
▁2014.	-11.5305
87	-11.5309
▁Oil	-11.531
eau	-11.531
▁amass	-11.5311
▁switched	-11.5311
▁runner	-11.5311
▁eco	-11.5317
tie	-11.5321
cor	-11.5323
▁(6	-11.5326
▁giants	-11.5327
▁airstrikes	-11.5329
▁lobby	-11.5333
▁damn	-11.5334
▁Need	-11.5334
▁Pin	-11.5335
FC	-11.5335
▁raped	-11.5336
53	-11.5343
▁Dal	-11.5348
minded	-11.5352
▁rocks	-11.5355
▁Jess	-11.5359
graph	-11.5359
▁Fish	-11.5363
people	-11.5363
bedroom	-11.5363
claim	-11.5366
▁airports	-11.5367
▁Face	-11.5368
order	-11.5372
▁hung	-11.5372
gin	-11.5374
▁Mini	-11.5374
▁DA	-11.5375
▁timeline	-11.5377
▁Girls	-11.5378
▁devote	-11.5378
7%	-11.5381
▁Surrey	-11.5381
▁Bumrah	-11.5381
▁Communist	-11.5381
▁Memorial	-11.5381
▁NDTV	-11.5381
▁Walmart	-11.5381
▁blunt	-11.5381
▁bombardment	-11.5381
▁convincing	-11.5381
▁escort	-11.5381
▁facial	-11.5381
▁frustrating	-11.5381
▁relating	-11.5381
▁reluctant	-11.5381
▁overdose	-11.5381
▁obesity	-11.5381
▁Swinney	-11.5381
▁aviation	-11.5381
▁Claire	-11.5381
▁wrist	-11.5381
▁disappearance	-11.5381
▁stack	-11.5381
▁unnecessary	-11.5382
▁boundary	-11.5382
▁Polish	-11.5383
▁flip	-11.5383
▁persist	-11.5384
▁catastrophic	-11.5385
▁equality	-11.5385
▁WHO	-11.5386
▁Limited	-11.5387
LO	-11.5388
▁disturbing	-11.5388
▁Bears	-11.5388
▁Remember	-11.5388
▁pig	-11.5388
▁dismissal	-11.5388
▁hyper	-11.5389
▁6-	-11.5389
▁Antony	-11.539
▁Highland	-11.5391
gun	-11.5391
▁conceded	-11.5393
political	-11.5393
▁superb	-11.5393
▁Noah	-11.5394
▁Stay	-11.5395
▁cargo	-11.5398
▁gunman	-11.5399
position	-11.54
▁economists	-11.54
hide	-11.54
▁hug	-11.5405
▁swap	-11.5405
▁mi	-11.5407
▁Ly	-11.5409
▁rivers	-11.541
▁SEC	-11.5415
▁sharply	-11.5415
mel	-11.5417
▁sadly	-11.5418
▁routinely	-11.5419
oni	-11.542
▁eliminated	-11.5422
▁suburb	-11.543
▁tube	-11.543
▁classroom	-11.5433
▁airstrike	-11.5433
▁Mann	-11.544
ace	-11.5444
ela	-11.5444
▁Dow	-11.5445
▁28-	-11.5445
▁Ever	-11.5446
▁performers	-11.5446
▁imagined	-11.5448
▁documented	-11.5453
▁2.5	-11.5453
lyn	-11.5455
▁Kas	-11.5456
▁restrict	-11.5458
▁sla	-11.5459
▁Hearts	-11.5461
▁Ter	-11.5462
▁r	-11.5463
load	-11.5464
▁farmer	-11.547
63	-11.5471
named	-11.5473
rid	-11.5476
IL	-11.5476
▁Lar	-11.5477
live	-11.5478
▁speakers	-11.5479
▁pretend	-11.5482
▁Pad	-11.5486
ban	-11.5488
ago	-11.5488
▁feeding	-11.5488
NE	-11.5492
▁sticking	-11.5505
Harris	-11.5506
value	-11.5507
plus	-11.551
▁MA	-11.5512
tus	-11.5513
▁contend	-11.5513
▁petrol	-11.5513
▁crunch	-11.5514
eta	-11.5514
lis	-11.5517
after	-11.5523
▁twenty	-11.5524
▁Detective	-11.5524
▁advancing	-11.5524
▁charities	-11.5524
▁cluster	-11.5524
▁integration	-11.5524
▁lucrative	-11.5524
▁vintage	-11.5524
▁Pelosi	-11.5524
▁Urban	-11.5524
▁Smart	-11.5524
▁Quinn	-11.5524
▁Patrol	-11.5524
▁Cruise	-11.5525
▁Section	-11.5525
▁boring	-11.5525
▁exploration	-11.5525
▁Pride	-11.5525
ü	-11.5525
▁freezing	-11.5526
▁admitting	-11.5526
▁potatoes	-11.5527
▁biological	-11.5527
▁rematch	-11.5527
▁Ethan	-11.5528
▁Vo	-11.5528
▁Order	-11.5528
▁researcher	-11.5528
▁fitted	-11.5529
backs	-11.5532
▁Penny	-11.5533
▁chairs	-11.5534
gger	-11.5534
▁blessed	-11.5534
▁Reid	-11.5535
▁1%	-11.5536
▁tier	-11.5538
ttle	-11.5541
via	-11.5541
▁(5	-11.5543
▁Dam	-11.5544
▁camps	-11.5544
▁remarked	-11.5546
▁executed	-11.5547
▁musicians	-11.5548
Sha	-11.5548
▁Save	-11.5549
▁hai	-11.5549
▁Data	-11.555
▁caring	-11.5551
standing	-11.5553
saving	-11.5554
hin	-11.5562
▁championships	-11.5563
▁log	-11.5564
▁2:	-11.5566
ui	-11.5567
ough	-11.5567
holder	-11.5568
▁undergoing	-11.5569
▁queer	-11.557
going	-11.5571
▁Aid	-11.5572
▁Spe	-11.5578
▁amendment	-11.558
▁extremist	-11.558
▁Ice	-11.5581
▁Kill	-11.5582
▁rushing	-11.5585
▁touchdowns	-11.5588
▁wise	-11.559
self	-11.5594
▁Ala	-11.5594
mates	-11.5597
▁Wind	-11.5598
▁relax	-11.5601
▁Downing	-11.5603
▁listened	-11.5606
▁fr	-11.561
2,000	-11.561
asi	-11.5612
edge	-11.5612
▁Picture	-11.5615
▁Born	-11.5621
test	-11.5622
banning	-11.5622
▁beside	-11.5624
▁Wo	-11.5626
loved	-11.563
▁ju	-11.5632
▁Virgin	-11.5633
▁Bir	-11.5639
▁disgrace	-11.564
▁bearing	-11.564
▁techniques	-11.564
▁bones	-11.564
▁grants	-11.5641
▁Webb	-11.5645
aq	-11.5647
▁Vol	-11.5648
▁£15	-11.5651
▁Indonesia	-11.5654
iro	-11.5656
MI	-11.5656
եր	-11.5657
▁cautious	-11.5658
▁finale	-11.5658
▁shed	-11.5659
▁proceed	-11.566
avi	-11.5661
AM	-11.5662
▁Main	-11.5669
▁Barbara	-11.5669
▁Bournemouth	-11.5669
▁Elector	-11.5669
▁Rajasthan	-11.5669
▁WWE	-11.5669
▁monster	-11.5669
▁trajectory	-11.5669
▁turmoil	-11.5669
▁unbeaten	-11.5669
▁SUV	-11.5669
▁Sheffield	-11.5669
▁snake	-11.5669
▁underneath	-11.5669
▁underwent	-11.5669
▁sequel	-11.5669
▁spectrum	-11.5669
▁wheelchair	-11.5669
▁WNBA	-11.5669
▁straightforward	-11.5669
▁institute	-11.5669
▁Lagos	-11.5669
▁Slater	-11.567
▁Robbie	-11.567
▁regain	-11.567
▁Davies	-11.5671
▁Portland	-11.5671
▁Congressional	-11.5671
▁realistic	-11.5672
▁Overall	-11.5673
▁30%	-11.5673
▁greatly	-11.5674
▁reservation	-11.5674
▁Richardson	-11.5675
▁Hayes	-11.5675
▁homelessness	-11.5676
▁Dead	-11.5677
force	-11.5677
▁partially	-11.5678
▁inherited	-11.5678
▁sacked	-11.568
▁sisters	-11.5681
▁Please	-11.5683
▁Sullivan	-11.5683
▁96	-11.5685
▁achievements	-11.5685
▁Brady	-11.5686
LY	-11.5686
▁disclosed	-11.5688
hor	-11.569
▁gaining	-11.5691
▁soaring	-11.5692
hoo	-11.5694
52	-11.5696
olo	-11.5697
▁Lou	-11.5697
▁Boxing	-11.5699
igan	-11.57
▁Gas	-11.5701
Lago	-11.5704
▁margins	-11.5707
▁Ade	-11.5709
▁Scots	-11.5709
▁16.	-11.5713
sign	-11.5716
▁leaked	-11.5717
angle	-11.5719
▁lied	-11.572
ppy	-11.5724
▁Spa	-11.5725
hel	-11.5725
Ka	-11.5726
▁vibe	-11.573
ense	-11.5731
▁surged	-11.5731
▁clips	-11.5731
held	-11.5733
▁Shan	-11.5737
pu	-11.5737
plan	-11.5739
▁Hur	-11.5742
bad	-11.5743
▁troubled	-11.5743
proving	-11.5748
▁uphold	-11.5748
▁$50	-11.575
▁Alice	-11.5752
▁visitor	-11.5755
▁82	-11.5758
▁aide	-11.5759
▁Kra	-11.5762
ND	-11.5765
▁arise	-11.5766
▁wager	-11.5766
▁runners	-11.5766
▁Georgian	-11.5766
▁applicants	-11.5776
▁Evan	-11.5776
▁glow	-11.5778
heat	-11.5787
ians	-11.5791
▁bias	-11.5793
▁spill	-11.5793
mbo	-11.5794
text	-11.5797
▁beliefs	-11.5797
Because	-11.5798
81	-11.5798
▁Clare	-11.5799
▁gardens	-11.5799
▁Trent	-11.5799
▁Boys	-11.5803
▁zoo	-11.5803
▁adequate	-11.5805
▁Az	-11.5806
▁explicit	-11.5806
▁undergo	-11.581
lit	-11.5811
▁Ronald	-11.5812
▁euros	-11.5814
▁Visit	-11.5816
▁garner	-11.5816
։	-11.5816
▁(£1	-11.5816
▁Maguire	-11.5816
▁Menendez	-11.5816
▁blockbuster	-11.5816
▁strategist	-11.5816
▁Crooks	-11.5816
▁seizure	-11.5816
▁faculty	-11.5816
▁consistency	-11.5816
▁Madison	-11.5816
▁recession	-11.5816
▁serial	-11.5817
▁MVP	-11.5817
▁Walsh	-11.5818
▁Ellie	-11.5818
▁Callum	-11.5818
▁childcare	-11.5818
▁honey	-11.5818
▁Harper	-11.5819
▁trash	-11.5819
▁banana	-11.5819
▁Clarkson	-11.5819
▁15%	-11.5819
▁Clement	-11.582
▁Dawn	-11.5821
▁1,500	-11.5821
▁credible	-11.5822
▁overwhelmed	-11.5822
▁88	-11.5822
around	-11.5823
▁reflection	-11.5823
▁Command	-11.5825
▁Kerry	-11.5825
▁Maine	-11.5826
▁initiated	-11.5828
▁courses	-11.5829
cca	-11.5829
cm	-11.583
▁sells	-11.5831
▁tally	-11.5833
▁healthier	-11.5834
▁condolences	-11.5835
▁drill	-11.5837
▁justify	-11.584
▁beans	-11.584
▁Leon	-11.584
▁touches	-11.584
▁101	-11.5842
▁jam	-11.5845
yr	-11.5854
▁comp	-11.5855
▁healing	-11.5857
▁recommends	-11.5858
▁Mur	-11.586
▁slice	-11.5861
91	-11.5865
▁exercises	-11.587
▁permit	-11.5879
▁scan	-11.5879
ami	-11.5881
chan	-11.5883
▁Bol	-11.5884
▁guided	-11.5884
▁Ruben	-11.5885
▁crop	-11.5885
▁publisher	-11.5886
▁reserves	-11.5886
56	-11.589
▁punish	-11.5899
lea	-11.5899
▁shout	-11.59
▁unfold	-11.5901
▁ruin	-11.5904
Or	-11.5904
▁Zo	-11.5905
9.99	-11.5906
cie	-11.5909
gli	-11.591
▁learnt	-11.5913
stage	-11.5914
▁ports	-11.592
UR	-11.5922
eo	-11.5923
funded	-11.5927
▁floors	-11.5928
mad	-11.593
RT	-11.593
▁aerial	-11.5933
84	-11.5936
aire	-11.5938
▁profession	-11.5938
safe	-11.5944
▁Fall	-11.5945
▁span	-11.5946
ord	-11.5949
▁offenders	-11.5949
woman	-11.595
▁sticks	-11.5956
▁Joey	-11.5957
▁Chat	-11.5958
▁Die	-11.596
▁Rams	-11.5962
▁Haryana	-11.5965
▁Henderson	-11.5965
▁Mohammad	-11.5965
▁NASCAR	-11.5965
▁Orleans	-11.5965
▁constitute	-11.5965
▁declaring	-11.5965
▁dairy	-11.5965
▁mosque	-11.5965
▁forthcoming	-11.5965
▁mandatory	-11.5965
▁Oasis	-11.5965
▁Medicare	-11.5965
▁accent	-11.5965
▁Summit	-11.5965
▁bundle	-11.5965
▁denial	-11.5966
▁grain	-11.5966
▁genetic	-11.5966
▁Cancer	-11.5966
▁Spirit	-11.5966
▁Marshall	-11.5966
6,000	-11.5967
▁angle	-11.5967
▁1968	-11.5967
card	-11.5967
▁spice	-11.5967
▁occasional	-11.5967
▁waist	-11.5967
▁automatic	-11.5968
▁greenhouse	-11.5968
▁elder	-11.5969
▁occupation	-11.5969
4,000	-11.597
▁Case	-11.5974
dh	-11.5975
▁chill	-11.5976
▁Conor	-11.5978
▁Grande	-11.5978
▁Cox	-11.5979
▁breathe	-11.598
▁reactions	-11.5981
▁Code	-11.5983
▁cheating	-11.5983
▁Thai	-11.5984
dor	-11.5985
eep	-11.5986
▁smashed	-11.5987
▁misses	-11.5987
ound	-11.5987
lew	-11.5987
ydd	-11.5988
▁mounting	-11.5989
▁Kirk	-11.599
▁pitches	-11.5991
▁gesture	-11.5997
▁Yeah	-11.5998
▁nominations	-11.5999
▁Sign	-11.6
▁Julia	-11.6
▁agrees	-11.6004
▁rated	-11.6006
▁tons	-11.6006
▁Pac	-11.6007
▁Pakistani	-11.6008
▁revenues	-11.6008
ement	-11.601
▁79	-11.6011
▁asleep	-11.6012
▁pint	-11.6013
▁VP	-11.6015
lio	-11.6017
▁captioned	-11.6021
▁advises	-11.6022
▁fleeing	-11.6027
▁memo	-11.6027
▁Job	-11.6027
▁Corps	-11.6028
▁founding	-11.6031
▁focuse	-11.6033
isi	-11.6034
▁fixture	-11.6034
▁arrangement	-11.6035
▁commentator	-11.6037
▁liver	-11.6044
▁skipp	-11.6046
grade	-11.6048
▁pray	-11.6049
▁Player	-11.605
▁stakes	-11.6052
lies	-11.6053
▁Got	-11.6056
▁tri	-11.6057
aya	-11.6058
▁Cape	-11.6063
▁processor	-11.6064
▁container	-11.6064
kov	-11.6065
▁inspiring	-11.6068
▁Sin	-11.6069
▁shore	-11.6071
IST	-11.6078
▁examine	-11.6084
▁ethics	-11.6087
Bu	-11.6087
ական	-11.6088
▁tub	-11.6089
▁Anton	-11.6089
▁worthy	-11.609
▁Trans	-11.6093
▁Ella	-11.6097
lop	-11.6097
▁IN	-11.6099
Everyone	-11.61
▁dash	-11.6101
▁Julian	-11.6102
speed	-11.6104
▁doubles	-11.6108
▁pitched	-11.6112
▁regulators	-11.6112
OL	-11.6114
▁Hugh	-11.6115
▁differ	-11.6116
▁locally	-11.6116
▁comic	-11.6117
▁Albanese	-11.6117
▁Ambassador	-11.6117
▁Captain	-11.6117
▁Circuit	-11.6117
▁Electric	-11.6117
▁Eventually	-11.6117
▁Hispanic	-11.6117
▁Southampton	-11.6117
▁academy	-11.6117
▁cannabis	-11.6117
▁drift	-11.6117
▁enclave	-11.6117
▁Critics	-11.6117
▁stump	-11.6117
▁essay	-11.6117
▁Bengaluru	-11.6117
▁Chloe	-11.6117
▁Formula	-11.6117
enhancing	-11.6117
▁Belfast	-11.6117
▁kilometres	-11.6117
▁Gilbert	-11.6117
▁inheritance	-11.6117
▁slim	-11.6117
▁Legend	-11.6117
▁navy	-11.6117
▁radar	-11.6117
▁forensic	-11.6117
▁mixture	-11.6117
▁Forbes	-11.6117
▁sheep	-11.6117
▁Virat	-11.6118
▁aisle	-11.6118
▁feat	-11.6118
▁infected	-11.6119
▁certified	-11.6119
▁bug	-11.6119
▁battlefield	-11.612
▁adoption	-11.612
▁audition	-11.612
▁touted	-11.612
▁hungry	-11.6121
▁հ	-11.6121
▁buyer	-11.6122
▁viable	-11.6122
▁banner	-11.6122
▁PTI	-11.6123
▁Kil	-11.6125
▁obsessed	-11.6125
DC	-11.6126
▁Rai	-11.6127
▁Better	-11.6127
▁integrated	-11.6127
▁handy	-11.6129
▁hometown	-11.6132
▁expose	-11.6134
▁grind	-11.6137
▁entertaining	-11.6139
▁components	-11.6141
▁boarding	-11.6142
▁20,000	-11.6143
aught	-11.6143
▁contestants	-11.6145
94	-11.6149
▁insisting	-11.6152
▁preparations	-11.6156
▁Gay	-11.616
▁infamous	-11.6163
▁Nigerians	-11.6163
▁versions	-11.6166
▁Campaign	-11.617
▁watches	-11.617
▁treaty	-11.6172
▁blasted	-11.6173
▁Swan	-11.6174
▁costly	-11.6176
▁tougher	-11.6176
▁Salt	-11.6186
▁Athletic	-11.6189
▁folk	-11.6193
▁Tru	-11.6196
▁interaction	-11.6196
vel	-11.6202
▁ru	-11.6203
▁pie	-11.6206
Base	-11.621
▁alike	-11.6211
ել	-11.6214
▁stealing	-11.6215
▁Fat	-11.6215
stein	-11.6224
▁strengthening	-11.6225
▁treats	-11.6226
▁Mack	-11.623
▁rooftop	-11.6231
ache	-11.6231
ante	-11.6232
empt	-11.6232
▁conservatives	-11.6237
▁Pant	-11.624
ied	-11.6246
▁Tam	-11.6247
inspired	-11.6253
when	-11.6253
▁leverage	-11.6259
▁seize	-11.626
▁Nat	-11.6261
▁Dad	-11.6265
▁Fame	-11.6265
▁Niger	-11.627
▁Brendan	-11.627
▁Chopra	-11.627
▁artillery	-11.627
▁believing	-11.627
▁constituencies	-11.627
▁fentanyl	-11.627
▁ideology	-11.627
▁purchasing	-11.627
▁technological	-11.627
▁wisdom	-11.627
▁crises	-11.627
▁terrace	-11.6271
▁amateur	-11.6271
▁nasty	-11.6271
▁cried	-11.6271
▁Fulham	-11.6271
▁palace	-11.6271
▁Nicholas	-11.6271
▁Jerry	-11.6271
▁Ashwin	-11.6271
▁crystal	-11.6271
▁tongue	-11.6271
▁intellectual	-11.6271
▁default	-11.6271
▁drum	-11.6271
▁knot	-11.6271
▁Private	-11.6271
▁1987	-11.6272
▁deceased	-11.6272
▁Ollie	-11.6272
▁compliance	-11.6272
▁feedback	-11.6273
▁reclaim	-11.6273
▁Sheikh	-11.6273
Su	-11.6273
▁cheapest	-11.6273
▁FDA	-11.6274
▁Welcome	-11.6274
▁Similarly	-11.6277
!!	-11.6277
▁Recently	-11.6278
▁ver	-11.628
▁Return	-11.628
▁protective	-11.6281
▁dragged	-11.6281
▁Ibrahim	-11.6282
▁demonstrators	-11.6284
unk	-11.6285
▁clashes	-11.6285
▁soared	-11.6285
▁header	-11.6286
▁5%	-11.6286
▁escalated	-11.6287
▁controlling	-11.6287
▁beds	-11.6288
62	-11.6289
,600	-11.629
▁negotiated	-11.6293
▁(7	-11.6295
stock	-11.6295
ré	-11.6298
▁4,000	-11.63
▁receives	-11.6303
▁functions	-11.6306
ail	-11.6307
▁Andrea	-11.631
▁Ant	-11.631
▁Sue	-11.6312
▁Messi	-11.6314
itch	-11.6318
▁disrupted	-11.6318
Your	-11.632
ico	-11.6321
▁Kin	-11.6322
▁Brew	-11.6325
▁Low	-11.6326
EL	-11.6326
▁gig	-11.6326
▁lover	-11.6333
▁suits	-11.6335
NY	-11.6336
▁19-	-11.6336
▁embraced	-11.6343
verse	-11.6345
▁soup	-11.6345
▁destroying	-11.6346
Com	-11.6347
▁Host	-11.6349
▁bu	-11.6349
▁objective	-11.635
▁Albert	-11.6352
▁filmmaker	-11.6352
▁stranger	-11.636
▁exceed	-11.636
▁cow	-11.6363
▁premier	-11.6366
TI	-11.6367
▁Para	-11.6368
▁whereas	-11.6369
▁supermarkets	-11.637
▁displays	-11.6373
▁nail	-11.6375
front	-11.638
ին	-11.6382
▁coincide	-11.6387
▁cute	-11.6389
▁input	-11.6391
itz	-11.6391
▁£50	-11.6394
▁Coll	-11.6394
▁depict	-11.6395
keeper	-11.6396
▁nationalist	-11.6397
▁hill	-11.64
▁convey	-11.6401
▁Tree	-11.6405
▁lands	-11.6408
EM	-11.6408
▁cop	-11.6408
proof	-11.6409
ndi	-11.6409
▁whip	-11.6411
sted	-11.6411
▁boxer	-11.6414
▁Region	-11.6415
▁mild	-11.6416
▁relentless	-11.6417
▁lease	-11.6423
Many	-11.6423
▁withdrew	-11.6424
hen	-11.6425
▁viewer	-11.6426
fty	-11.6426
▁Drug	-11.6426
▁infant	-11.6426
▁thumb	-11.6427
▁Coalition	-11.6427
▁Damascus	-11.6427
▁Nebraska	-11.6427
▁beneficial	-11.6427
▁completing	-11.6427
▁conservation	-11.6427
▁enabling	-11.6427
▁identification	-11.6427
▁supreme	-11.6427
▁territories	-11.6427
▁historian	-11.6427
▁piano	-11.6427
▁fatigue	-11.6427
▁Amorim	-11.6427
▁mobility	-11.6427
▁clause	-11.6427
▁shaking	-11.6427
▁Brentford	-11.6427
▁boycott	-11.6427
▁defamation	-11.6427
▁corrupt	-11.6427
▁Lynch	-11.6427
▁flourish	-11.6427
▁plug	-11.6428
▁NHL	-11.6428
▁hedge	-11.6428
▁Herald	-11.6428
▁whoever	-11.6428
▁Hughes	-11.6431
▁sequence	-11.6432
▁backpack	-11.6433
door	-11.6433
▁generative	-11.6434
▁takeaway	-11.6435
▁Shore	-11.6437
▁Temple	-11.6438
▁Stein	-11.6438
▁evolved	-11.644
▁recruit	-11.644
OP	-11.645
▁Helene	-11.6454
▁Hat	-11.6455
▁Fran	-11.6456
▁Louise	-11.6458
▁poise	-11.6459
▁Ivan	-11.6461
▁rein	-11.6462
=""	-11.6463
Her	-11.6465
▁liter	-11.6466
▁suck	-11.6468
rist	-11.6469
fr	-11.647
▁presenting	-11.6472
▁cord	-11.6474
▁Nato	-11.6476
▁Stop	-11.6477
att	-11.648
ID	-11.6483
mmer	-11.6487
log	-11.6487
▁Mario	-11.6488
▁cricketer	-11.6489
▁Bath	-11.649
▁reserve	-11.6492
▁emotionally	-11.6495
▁Zara	-11.6498
▁sizes	-11.6501
ude	-11.6504
ների	-11.6507
▁Front	-11.6508
never	-11.6518
▁Burns	-11.6519
▁notion	-11.652
open	-11.6521
▁embrac	-11.6524
▁measured	-11.6527
▁outright	-11.6529
▁ward	-11.6534
▁topics	-11.6537
▁establishing	-11.6538
dha	-11.6544
title	-11.6549
▁medications	-11.655
▁kinds	-11.655
tack	-11.6552
7,000	-11.6552
By	-11.6557
generation	-11.656
▁bust	-11.6563
▁humble	-11.6566
primary	-11.6567
Connor	-11.6567
second	-11.6567
hidden	-11.6568
▁thorough	-11.6574
▁incentives	-11.6577
▁92	-11.6577
▁regulate	-11.6577
▁Youth	-11.6578
bart	-11.6579
MP	-11.6583
▁Ellis	-11.6584
▁inaugura	-11.6584
▁Rescue	-11.6585
▁Celsius	-11.6585
▁Commerce	-11.6585
▁Glastonbury	-11.6585
▁Liberty	-11.6585
▁Lincoln	-11.6585
▁Starbucks	-11.6585
▁cliff	-11.6585
▁consensus	-11.6585
▁dispatch	-11.6585
▁enterprise	-11.6585
▁happily	-11.6585
▁humour	-11.6585
▁precaution	-11.6585
▁Malaysia	-11.6585
▁surviving	-11.6585
▁gently	-11.6585
▁Croatia	-11.6585
▁Uttar	-11.6585
▁flour	-11.6585
▁pleasant	-11.6585
▁isolation	-11.6586
▁Rashford	-11.6586
▁Kerala	-11.6586
▁Derek	-11.6586
▁packaging	-11.6586
▁patron	-11.6586
▁submission	-11.6586
▁Arctic	-11.6586
▁Railway	-11.6586
▁bride	-11.6586
▁Queensland	-11.6586
▁Corporation	-11.6586
▁Hassan	-11.6586
▁snapped	-11.6586
▁tonnes	-11.6586
▁Martha	-11.6586
▁chasing	-11.6587
▁rotation	-11.6587
▁1986	-11.6587
▁Transportation	-11.6587
▁Milton	-11.6587
▁Nature	-11.6587
▁reckless	-11.6588
▁grandchildren	-11.6588
▁labelled	-11.6589
▁1-1	-11.6589
▁frankly	-11.6589
▁Ronaldo	-11.659
▁confirmation	-11.6591
▁spinner	-11.6591
▁postseason	-11.6591
▁Holland	-11.6592
▁NDA	-11.6593
▁mature	-11.6594
cle	-11.6596
▁AL	-11.6597
flight	-11.6599
▁commentary	-11.6599
▁Wang	-11.66
▁closures	-11.6604
▁blessing	-11.6604
▁pump	-11.6605
▁uncovered	-11.6605
▁examined	-11.6606
▁authors	-11.6607
▁Mick	-11.6609
▁buses	-11.6609
▁broadly	-11.6611
▁Change	-11.6615
▁Opera	-11.6615
eat	-11.6616
▁XI	-11.6619
▁bare	-11.6619
73	-11.662
▁cure	-11.6623
▁castle	-11.6624
▁alleges	-11.6624
▁chi	-11.6626
▁zones	-11.6629
BS	-11.6629
▁complications	-11.663
▁breed	-11.6631
▁tournaments	-11.6631
▁sofa	-11.6633
▁locker	-11.6633
▁sha	-11.6638
▁crossings	-11.6639
▁forecasts	-11.6639
▁apple	-11.664
▁Residents	-11.6645
▁remembers	-11.6646
▁boo	-11.6646
▁Penn	-11.6647
▁($1	-11.6653
ander	-11.6655
▁ka	-11.6658
▁pubs	-11.6661
ote	-11.6664
▁em	-11.6664
▁cho	-11.6665
▁offset	-11.6666
sson	-11.6666
▁oh	-11.6671
▁upside	-11.6676
▁Ky	-11.6677
▁TD	-11.668
▁lawn	-11.668
▁immigrant	-11.6681
▁sail	-11.6682
burg	-11.6682
▁killings	-11.6685
▁reset	-11.6689
▁indicates	-11.6689
▁freed	-11.669
▁Beat	-11.6692
▁abortions	-11.6696
working	-11.6697
▁populations	-11.6698
Fa	-11.6699
erg	-11.6702
▁explosions	-11.6703
▁presid	-11.6704
▁steer	-11.6705
▁sections	-11.6706
▁Mae	-11.6709
tell	-11.6715
ional	-11.6715
▁slowed	-11.672
▁senators	-11.6723
fill	-11.6723
▁audit	-11.6724
▁Isle	-11.6724
char	-11.6725
craft	-11.6726
▁creators	-11.6726
▁wav	-11.6727
profit	-11.6728
author	-11.6728
▁ji	-11.673
▁throws	-11.6731
▁remark	-11.6731
MS	-11.6732
▁Shiv	-11.6733
▁rib	-11.6733
▁meme	-11.6734
sharing	-11.6734
▁decisive	-11.6735
▁Aviv	-11.6738
aka	-11.674
▁instinct	-11.6746
▁patrol	-11.6746
ches	-11.6746
▁Scholz	-11.6747
▁Buffalo	-11.6747
▁Legislature	-11.6747
▁Reynolds	-11.6747
▁balcony	-11.6747
▁envoy	-11.6747
▁pedestrian	-11.6747
▁rallied	-11.6747
▁satisfied	-11.6747
▁syndrome	-11.6747
▁tribunal	-11.6747
▁jeans	-11.6747
▁Thanksgiving	-11.6747
":[{"	-11.6747
▁Timoth	-11.6747
▁flexible	-11.6747
▁fireworks	-11.6747
▁Midlands	-11.6747
▁naming	-11.6747
▁rubble	-11.6747
▁Hitler	-11.6747
▁toddler	-11.6747
▁ripped	-11.6747
▁Oakland	-11.6747
▁Foden	-11.6748
▁interpretation	-11.6748
▁Franklin	-11.6748
▁1982	-11.6748
▁verify	-11.6749
▁editorial	-11.6749
MO	-11.675
▁Worth	-11.675
▁princess	-11.675
▁Malik	-11.675
▁tide	-11.675
▁loses	-11.6751
▁911	-11.6751
▁cosy	-11.6752
osa	-11.6753
▁habitat	-11.6753
▁Wars	-11.6754
▁booth	-11.6754
▁darkness	-11.6755
ակ	-11.6756
▁Coach	-11.6757
▁Shop	-11.6759
zen	-11.676
▁cla	-11.6761
▁Page	-11.6763
▁Horse	-11.6765
▁tolerate	-11.6765
▁reproducti	-11.6767
▁reserved	-11.6767
▁toast	-11.6768
▁echoed	-11.6769
▁fruits	-11.6769
▁warmth	-11.677
▁bullying	-11.6771
▁Online	-11.6771
▁slashed	-11.6772
▁kindness	-11.6772
▁Tate	-11.6776
▁SS	-11.6778
▁nest	-11.6779
▁Julie	-11.6781
lessness	-11.6782
▁Simone	-11.6782
▁looming	-11.6784
?""	-11.6784
pass	-11.6784
Are	-11.6786
▁Fisher	-11.6787
sie	-11.679
they	-11.6792
tric	-11.6794
▁$30	-11.6796
▁Fine	-11.6796
▁artistic	-11.68
▁List	-11.68
cel	-11.6804
▁cooler	-11.6804
▁True	-11.6805
▁View	-11.6806
eye	-11.6814
▁Carol	-11.6816
▁18.	-11.6816
▁vest	-11.6824
▁delivers	-11.6826
▁compar	-11.6827
▁engineers	-11.6831
fra	-11.6832
▁Patriots	-11.6839
▁15.	-11.684
▁Devils	-11.6846
▁Zoe	-11.6852
▁selfie	-11.6853
waiting	-11.6853
▁Fight	-11.6854
eu	-11.6855
3,000	-11.6857
▁UC	-11.686
zu	-11.6863
▁collecting	-11.6864
▁Dark	-11.687
▁($	-11.6871
▁intends	-11.6877
▁regrets	-11.6879
▁portray	-11.6882
ott	-11.6883
▁Mus	-11.6883
▁Brooks	-11.6885
▁PAC	-11.6886
▁slash	-11.6888
threatening	-11.6892
▁sal	-11.6893
controlled	-11.6893
▁Corp	-11.6894
▁Ol	-11.6895
▁Step	-11.6896
ffer	-11.6896
story	-11.6897
▁attends	-11.69
▁precise	-11.69
Most	-11.69
▁northwest	-11.6903
▁NA	-11.6906
▁sidelines	-11.6906
▁sketch	-11.6906
▁sandwich	-11.6906
chair	-11.6907
▁sneak	-11.6908
▁scholar	-11.691
▁Pelicot	-11.6911
undoubtedly	-11.6911
▁Spaniard	-11.6911
▁UEFA	-11.6911
▁certification	-11.6911
▁cryptocurrency	-11.6911
▁dessert	-11.6911
▁maritime	-11.6911
▁rubbish	-11.6911
▁liability	-11.6911
▁Immigration	-11.6911
▁Sterling	-11.6911
▁spectacle	-11.6911
▁Holmes	-11.6911
▁yacht	-11.6911
▁crawl	-11.6911
▁Medicine	-11.6911
▁Prison	-11.6911
▁Racing	-11.6913
▁1988	-11.6913
▁marathon	-11.6913
▁unbelievable	-11.6913
▁Blood	-11.6913
▁Devon	-11.6914
▁Larry	-11.6914
▁Premiership	-11.6914
▁Modern	-11.6914
▁simultaneously	-11.6914
▁interception	-11.6914
▁unpaid	-11.6914
▁lethal	-11.6915
▁MLA	-11.6915
▁Homeland	-11.6915
▁Oz	-11.6916
▁sums	-11.6916
▁Gregg	-11.6916
▁Snow	-11.6916
▁traumatic	-11.6917
▁richest	-11.6917
▁scattered	-11.6918
▁Sat	-11.6921
love	-11.6924
▁Maya	-11.6924
▁stalled	-11.6926
▁owed	-11.6928
▁prosecuted	-11.6929
▁bleeding	-11.6931
▁detected	-11.6934
▁Working	-11.6935
▁kicking	-11.6936
▁portrayed	-11.6936
▁newborn	-11.6937
▁holy	-11.694
▁lifelong	-11.694
▁Records	-11.6945
▁Dance	-11.695
▁belongings	-11.6953
court	-11.6954
▁emphasised	-11.6954
▁accounting	-11.6957
▁colors	-11.6962
▁Il	-11.6962
▁Ker	-11.6963
▁ce	-11.6964
enberg	-11.697
▁Few	-11.697
%)	-11.6976
▁Walk	-11.6979
▁Whit	-11.6983
▁ti	-11.6984
▁smartphones	-11.6985
▁entrepreneur	-11.6986
▁directors	-11.6988
▁bands	-11.699
bri	-11.6992
▁poorly	-11.6993
aa	-11.6993
▁Dev	-11.6996
▁Classic	-11.6998
▁(10	-11.7001
▁Markle	-11.7004
zar	-11.7005
▁critically	-11.7007
▁wondered	-11.7007
▁athletic	-11.7009
ingham	-11.7009
▁Tea	-11.701
▁Bio	-11.701
▁encounters	-11.701
hara	-11.7012
▁settlements	-11.7012
▁Common	-11.7014
▁median	-11.7016
UN	-11.7017
arian	-11.7022
▁Math	-11.7024
▁shelters	-11.7032
▁nuts	-11.7035
.6%	-11.7035
▁muscles	-11.7037
71	-11.704
▁performer	-11.7041
.1%	-11.7041
mus	-11.7045
▁exhibit	-11.7048
▁outdoors	-11.7048
▁Wing	-11.7049
▁bay	-11.7051
▁neuro	-11.7052
kha	-11.7053
wer	-11.7055
bbed	-11.7056
▁Dominic	-11.7056
gni	-11.7057
▁86	-11.7058
▁disclose	-11.706
However	-11.706
▁flick	-11.7066
aming	-11.7068
▁Cra	-11.7068
▁spann	-11.7074
▁Challenge	-11.7076
▁Belgian	-11.7077
▁RHP	-11.7077
▁appetite	-11.7077
▁homicide	-11.7077
▁indicted	-11.7077
▁intelligent	-11.7077
▁renovation	-11.7077
▁squeeze	-11.7077
▁structural	-11.7077
▁valley	-11.7077
▁disclosure	-11.7077
▁perfume	-11.7077
▁separation	-11.7077
▁Trevor	-11.7078
▁appreciation	-11.7078
▁vague	-11.7078
▁brew	-11.7078
▁Prize	-11.7078
▁Military	-11.7079
▁Rayner	-11.7079
▁1979	-11.7079
▁warfare	-11.7079
},"	-11.7079
▁Battle	-11.708
▁Singer	-11.708
▁borrowers	-11.708
▁Outside	-11.708
-21	-11.708
▁knockout	-11.708
▁acceptance	-11.708
▁anthem	-11.7081
nel	-11.7082
▁Moreover	-11.7082
▁Biles	-11.7082
▁sensational	-11.7083
▁colonial	-11.7083
▁Middleton	-11.7083
▁Universal	-11.7084
▁90%	-11.7085
▁clinics	-11.7087
▁Ultimately	-11.7087
▁utterly	-11.7088
▁standout	-11.7093
▁exams	-11.7097
AF	-11.7098
▁catches	-11.7099
wen	-11.7101
▁thrilling	-11.7103
▁Porter	-11.7112
raj	-11.7117
▁Russians	-11.7126
▁tours	-11.7126
▁halted	-11.713
▁38,	-11.7131
ben	-11.7135
borne	-11.7136
▁counterparts	-11.7136
▁designs	-11.7147
▁£25	-11.7147
▁donor	-11.7148
▁toys	-11.7148
weight	-11.7151
▁lacked	-11.7151
ե	-11.7151
sided	-11.7153
▁advise	-11.7158
▁beautifully	-11.7165
▁interactions	-11.7165
▁matched	-11.7165
▁Ry	-11.7168
▁stem	-11.7169
▁nominees	-11.7171
rah	-11.7172
1,000	-11.7178
▁attendees	-11.7178
▁empower	-11.7179
▁Rat	-11.7179
▁Cer	-11.7186
▁ageing	-11.719
▁delicate	-11.7196
▁mat	-11.7197
ema	-11.7198
▁$12	-11.72
▁AG	-11.7206
▁180	-11.7209
▁Omar	-11.7209
▁files	-11.721
▁2030	-11.7212
willingness	-11.7212
▁exacerbate	-11.7214
▁prioritize	-11.7215
▁Ur	-11.7221
▁united	-11.7223
▁influencers	-11.7225
▁grill	-11.7227
▁def	-11.7228
▁prosecute	-11.7228
­	-11.7229
general	-11.7229
Like	-11.723
iel	-11.723
▁Reading	-11.7232
▁Romania	-11.7235
▁Victor	-11.7236
▁Members	-11.7237
▁guilt	-11.7237
▁dirt	-11.7238
▁unlawful	-11.7238
linked	-11.7241
▁languages	-11.7241
▁lips	-11.7246
▁Bragg	-11.7247
▁Fashion	-11.7247
▁Industrial	-11.7247
▁Orlando	-11.7247
▁Sainsbury	-11.7247
▁convenience	-11.7247
▁likelihood	-11.7247
▁nursing	-11.7247
▁refusal	-11.7247
▁stylish	-11.7247
°	-11.7247
▁Ravens	-11.7247
▁duration	-11.7247
▁judiciary	-11.7247
▁motive	-11.7247
▁qualities	-11.7247
▁Scientists	-11.7247
▁UAE	-11.7247
▁Adrian	-11.7247
▁Jenkins	-11.7247
▁forefront	-11.7247
▁Gallery	-11.7247
▁assumption	-11.7247
▁pillow	-11.7247
▁conversion	-11.7247
▁transmission	-11.7247
▁Monica	-11.7247
▁Duncan	-11.7247
▁Lineker	-11.7247
▁leaf	-11.7247
▁Murder	-11.7248
▁Rodriguez	-11.7248
▁motorists	-11.7248
▁resilient	-11.7248
▁unaware	-11.7249
▁circuit	-11.7249
▁statute	-11.7249
▁permitted	-11.7249
▁Third	-11.725
▁weigh	-11.725
▁freeze	-11.725
money	-11.725
▁$1,000	-11.7251
▁Realme	-11.7251
▁Bruno	-11.7251
▁alternatives	-11.7252
eyEvent	-11.7252
▁throat	-11.7253
▁Barbie	-11.7253
▁Jackie	-11.7254
▁allocated	-11.7254
▁skies	-11.7255
▁needing	-11.7257
▁Horner	-11.7257
path	-11.7257
▁burger	-11.7258
kill	-11.7258
▁curve	-11.7259
▁contention	-11.7259
▁explicitly	-11.726
▁Megan	-11.7261
▁Legal	-11.7262
▁Annie	-11.7262
▁prizes	-11.7269
hai	-11.7271
▁Thi	-11.7276
▁36,	-11.7278
nation	-11.7278
▁colleges	-11.728
▁resumed	-11.7283
▁hinted	-11.7284
listed	-11.7285
▁SP	-11.7289
▁3%	-11.729
▁Heat	-11.7291
▁birdie	-11.7293
▁lesser	-11.7293
▁layers	-11.7293
nath	-11.7296
▁Cli	-11.7297
▁evolution	-11.7298
▁divorced	-11.7298
▁poured	-11.7299
eyed	-11.7301
▁ethical	-11.7302
▁reviewing	-11.7305
▁comprise	-11.7308
▁subjects	-11.7308
eth	-11.7309
▁Mind	-11.731
▁magical	-11.7311
▁informal	-11.7312
▁Mala	-11.7314
▁Cut	-11.7314
▁Pitt	-11.7316
▁Holy	-11.732
mid	-11.7321
▁Pink	-11.7322
yne	-11.7322
▁sheets	-11.7324
pound	-11.7325
▁competed	-11.7331
▁torn	-11.7334
▁faithful	-11.7343
▁overtime	-11.7346
72	-11.7346
▁firefighters	-11.7348
▁indoor	-11.7349
ender	-11.735
▁Wat	-11.7351
▁wears	-11.7351
,400	-11.7352
▁publish	-11.7355
▁organizers	-11.7356
▁mall	-11.7357
▁barrel	-11.7358
▁aboard	-11.7358
▁counterpart	-11.736
▁allegation	-11.7362
ility	-11.7363
▁nationally	-11.7363
▁Dragon	-11.7368
▁Sav	-11.7369
▁bun	-11.737
▁advisers	-11.737
power	-11.7371
▁youngster	-11.7371
▁ratio	-11.7372
▁Studios	-11.7381
▁shap	-11.7381
▁bowler	-11.7381
▁Vic	-11.7387
▁alarming	-11.7387
▁Pur	-11.7388
friend	-11.7392
ank	-11.7392
poli	-11.7392
▁34,	-11.7393
▁surveyed	-11.7394
.2%	-11.7401
CP	-11.7401
Black	-11.7402
▁Lau	-11.7409
▁pilots	-11.741
000	-11.7413
▁weakness	-11.7418
▁spiral	-11.7418
▁stiff	-11.7418
▁Empire	-11.7419
▁Enforcement	-11.7419
▁Holocaust	-11.7419
▁YORK	-11.7419
▁clarify	-11.7419
▁contempt	-11.7419
▁disabilities	-11.7419
▁jewellery	-11.7419
▁jungle	-11.7419
▁philosophy	-11.7419
▁unwavering	-11.7419
▁vinegar	-11.7419
▁Address	-11.7419
▁distant	-11.7419
▁empathy	-11.7419
▁inevitably	-11.7419
▁Nashville	-11.7419
▁vicious	-11.7419
▁Bishop	-11.7419
ignoring	-11.742
▁Assistant	-11.742
▁Vincent	-11.742
▁Globe	-11.742
▁Monte	-11.742
▁Kirby	-11.742
▁Animal	-11.742
▁Iceland	-11.742
▁proactive	-11.7421
iver	-11.7421
trans	-11.7421
▁spacecraft	-11.7421
▁RAM	-11.7421
▁Tamil	-11.7421
▁Root	-11.7421
▁canvas	-11.7421
▁sunny	-11.7422
▁Mission	-11.7423
▁Gunners	-11.7423
considerable	-11.7423
▁Environmental	-11.7424
▁cartel	-11.7424
▁Body	-11.7424
▁coral	-11.7427
▁basement	-11.7427
ista	-11.7428
▁Blo	-11.7429
▁preview	-11.7431
▁Nobody	-11.7432
▁dictator	-11.7433
lift	-11.7434
▁*	-11.7434
▁offseason	-11.7437
▁29-	-11.7438
▁articles	-11.7438
sea	-11.7438
▁productive	-11.7441
bor	-11.7442
▁pasta	-11.7444
▁unite	-11.7444
▁jar	-11.7444
▁Sena	-11.7451
▁Sex	-11.7453
vor	-11.7456
amo	-11.7457
▁diplomat	-11.7459
▁Sad	-11.7459
erson	-11.7462
logy	-11.7468
▁flown	-11.7469
vision	-11.7469
▁reaches	-11.7469
▁84	-11.747
boat	-11.7472
▁detectives	-11.7472
-18	-11.7473
▁rides	-11.7475
Who	-11.7477
▁Pic	-11.7477
▁IS	-11.7478
▁2026.	-11.7478
imi	-11.7479
▁albums	-11.7479
▁secretly	-11.748
▁blown	-11.7483
▁secrets	-11.7484
▁retained	-11.7484
▁charming	-11.7487
uro	-11.7492
rra	-11.7494
pat	-11.7495
▁UP	-11.7496
▁cor	-11.7497
▁Fear	-11.7503
master	-11.7505
tted	-11.7507
▁independently	-11.7508
aria	-11.7508
▁demon	-11.7516
▁insecurity	-11.7518
▁commissioned	-11.7519
▁resemble	-11.752
New	-11.7522
rock	-11.7523
▁worship	-11.7524
eri	-11.7525
▁Swa	-11.7527
▁gifted	-11.7527
▁smash	-11.7528
▁Lind	-11.7533
▁batters	-11.7533
Te	-11.7534
sic	-11.7534
▁gaps	-11.7534
check	-11.754
wyn	-11.754
▁91	-11.7541
found	-11.7541
▁occurs	-11.7544
▁700	-11.7548
una	-11.7548
0)	-11.7549
▁Cri	-11.755
▁Bag	-11.7552
nell	-11.7552
▁sang	-11.7555
▁Fac	-11.7556
▁detect	-11.7562
▁Cold	-11.7562
▁prevail	-11.7569
start	-11.757
▁87	-11.7571
▁neglect	-11.7571
-15	-11.7572
conscious	-11.7574
▁rewards	-11.7575
aving	-11.7576
ivity	-11.7576
mission	-11.7576
Obviously	-11.7576
Reuters	-11.7577
General	-11.7577
serious	-11.7577
shift	-11.7578
▁murders	-11.7579
▁Dani	-11.7579
required	-11.758
figure	-11.7581
Label	-11.7581
▁Mall	-11.7584
▁Ace	-11.7584
▁monarch	-11.7585
▁Tha	-11.7586
ae	-11.7593
▁sovereign	-11.7594
placed	-11.7594
▁Assange	-11.7595
▁Caitlin	-11.7595
▁Haaland	-11.7595
▁Initiative	-11.7595
▁Junior	-11.7595
▁Mangione	-11.7595
▁Postecoglou	-11.7595
▁Professional	-11.7595
▁Scheffler	-11.7595
▁Veteran	-11.7595
▁despair	-11.7595
▁divisive	-11.7595
▁imagination	-11.7595
▁manslaughter	-11.7595
▁retiring	-11.7595
▁unchanged	-11.7595
▁thread	-11.7595
▁coroner	-11.7595
▁glamorous	-11.7595
▁bitcoin	-11.7595
▁Curtis	-11.7595
▁monetary	-11.7595
▁therapist	-11.7595
▁rehabilitation	-11.7595
▁wrestling	-11.7595
▁spoon	-11.7595
▁Rafael	-11.7595
▁adverse	-11.7595
▁Chamber	-11.7595
▁unpopular	-11.7595
▁Serge	-11.7595
▁Shakespeare	-11.7596
▁laundry	-11.7596
▁Panama	-11.7596
▁Abuja	-11.7596
▁Kenny	-11.7596
▁Neville	-11.7596
▁1984	-11.7596
Ex	-11.7596
▁flagship	-11.7596
▁Milei	-11.7597
▁Cannes	-11.7597
▁gem	-11.7597
,800	-11.7597
▁Break	-11.7597
▁styles	-11.7597
▁Kerr	-11.7597
leading	-11.7599
▁Danish	-11.76
▁2027	-11.7601
▁CDC	-11.7601
▁tents	-11.7603
▁exhausted	-11.7603
Wa	-11.7605
▁prolonged	-11.7606
▁Across	-11.7607
mie	-11.7607
▁heroes	-11.7607
▁fitting	-11.7609
▁prevention	-11.7609
▁ousted	-11.7609
▁RB	-11.761
▁edited	-11.761
▁Mikel	-11.7614
▁Oak	-11.7618
▁asserted	-11.7618
▁intentions	-11.7625
▁midst	-11.7628
▁Schools	-11.7631
▁prohibited	-11.7632
▁Asda	-11.7636
▁Jail	-11.7638
▁errors	-11.7641
fair	-11.7643
▁firearms	-11.7644
▁RO	-11.7651
▁quicker	-11.7652
tax	-11.7653
▁pursued	-11.7653
▁diner	-11.7656
fused	-11.7657
▁assessed	-11.7659
▁stretched	-11.7667
▁thoughtful	-11.7667
▁Ap	-11.7667
▁separately	-11.7668
zing	-11.7673
▁Intel	-11.7674
GA	-11.7677
▁Voters	-11.7679
▁popp	-11.7679
naval	-11.768
arrow	-11.7681
▁AR	-11.7683
▁wellness	-11.7684
▁strangers	-11.7685
▁Scot	-11.7692
▁sy	-11.7694
rap	-11.7694
▁darts	-11.7695
▁Due	-11.7695
walk	-11.7696
▁forming	-11.7697
▁Years	-11.7698
hander	-11.7699
▁Belle	-11.7699
aro	-11.77
▁commonly	-11.7703
▁insist	-11.7705
▁villain	-11.7705
abi	-11.7709
▁gloves	-11.7712
▁jumper	-11.7712
▁qualification	-11.7717
▁mechanism	-11.7718
▁preference	-11.7719
▁detective	-11.772
digit	-11.772
assi	-11.7722
պ	-11.7724
▁£30	-11.773
▁extending	-11.7732
▁Lowe	-11.7733
▁pa	-11.7736
▁loom	-11.7741
▁Shane	-11.7741
Neill	-11.7742
last	-11.7745
▁hikes	-11.7748
▁jo	-11.7749
chy	-11.775
▁corporations	-11.775
themed	-11.7751
▁ri	-11.7751
▁elaborate	-11.7754
through	-11.7754
dollar	-11.7755
Where	-11.7756
▁pat	-11.776
▁$15	-11.7763
PR	-11.7767
ME	-11.7767
▁Environment	-11.7769
▁helm	-11.7772
cious	-11.7772
թ	-11.7772
▁Mirror	-11.7773
▁Donetsk	-11.7773
▁Gujarat	-11.7773
▁Lottery	-11.7773
▁Montgomery	-11.7773
▁Morocco	-11.7773
▁Muhammad	-11.7773
▁Pixel	-11.7773
▁Zimbabwe	-11.7773
▁antisemitic	-11.7773
▁earliest	-11.7773
▁populist	-11.7773
▁wardrobe	-11.7773
▁widow	-11.7773
▁entities	-11.7773
▁captive	-11.7773
▁magnitude	-11.7773
▁Guinea	-11.7773
▁complement	-11.7773
▁candidacy	-11.7773
▁ODI	-11.7773
▁genius	-11.7773
▁bombshell	-11.7773
▁Heathrow	-11.7773
▁Investigators	-11.7773
▁Melissa	-11.7773
▁Maduro	-11.7773
▁opposing	-11.7773
▁kidnapped	-11.7773
▁Athens	-11.7774
▁scholarship	-11.7774
▁Internet	-11.7774
▁Foster	-11.7774
▁coordination	-11.7774
▁verge	-11.7774
▁gunshot	-11.7774
PD	-11.7774
▁Leigh	-11.7775
▁oath	-11.7775
▁Twenty	-11.7775
▁Help	-11.7776
▁decorated	-11.7777
witch	-11.7778
▁Leo	-11.7778
2%	-11.7778
▁copper	-11.7779
▁737	-11.7779
▁Islam	-11.778
▁embarrassing	-11.778
▁voluntary	-11.7781
▁fringe	-11.7781
▁Mix	-11.7781
▁Beau	-11.7782
▁եւ	-11.7784
▁obligations	-11.7785
▁ace	-11.7785
▁Cash	-11.7786
▁Triple	-11.7786
▁stemm	-11.7788
▁sellers	-11.7789
nder	-11.7789
▁intercepted	-11.7789
▁consumed	-11.7789
▁EPA	-11.779
.7%	-11.7793
▁landlords	-11.7794
▁excluded	-11.7794
▁inmates	-11.7796
▁prone	-11.7796
▁chic	-11.7797
▁Stormy	-11.7797
▁repairs	-11.7798
▁Close	-11.78
▁Bin	-11.7801
▁debuted	-11.7801
uli	-11.7801
▁Fur	-11.7802
▁Tigers	-11.7803
▁ruined	-11.7804
▁6,000	-11.7805
▁Bha	-11.7806
ego	-11.7809
▁collaborate	-11.7811
▁Canal	-11.7812
▁technically	-11.7814
4%	-11.7814
▁permanently	-11.7814
▁ա	-11.7816
bility	-11.7818
Hillary	-11.7819
▁grounded	-11.7821
▁EVs	-11.7821
▁Master	-11.7821
▁photographed	-11.7822
▁internationally	-11.7825
etti	-11.7825
▁Rico	-11.7826
▁bathrooms	-11.7833
fy	-11.7833
▁GM	-11.7835
▁Bass	-11.7835
▁quarters	-11.7836
▁fare	-11.7838
▁enthusiasts	-11.7841
Mon	-11.7842
},{"	-11.7842
▁elde	-11.7848
8%	-11.7849
▁organisers	-11.785
▁pals	-11.7852
erman	-11.7857
▁warrants	-11.7865
cep	-11.787
▁SC	-11.787
▁cooperate	-11.7872
▁conspir	-11.7873
endra	-11.7875
▁Zu	-11.7876
▁Ji	-11.7877
▁Tata	-11.7878
ska	-11.7878
▁pitching	-11.7878
▁Mou	-11.7882
▁orchestrat	-11.7882
hall	-11.7886
third	-11.7887
▁dangers	-11.7888
▁owe	-11.7892
▁advisor	-11.7892
▁assaulting	-11.7893
▁inquest	-11.7895
▁transported	-11.7898
rro	-11.7898
ador	-11.7899
▁symbolic	-11.79
▁timely	-11.7901
ña	-11.7905
▁firearm	-11.7907
▁heal	-11.7909
FL	-11.7911
▁lawmaker	-11.7912
▁Queens	-11.7912
▁councils	-11.7919
▁paintings	-11.792
.4%	-11.792
▁switching	-11.7922
▁dealer	-11.7925
api	-11.7925
▁impress	-11.7926
mil	-11.7928
▁directions	-11.7928
▁Qui	-11.7928
▁surpass	-11.793
ppe	-11.7931
▁Ferr	-11.7935
▁suppose	-11.7936
Sullivan	-11.7937
Pacific	-11.7937
effective	-11.7937
secondary	-11.7938
▁£40	-11.7938
▁escalate	-11.7941
living	-11.7942
▁rolls	-11.7942
▁Lower	-11.7943
▁pledges	-11.7946
▁bagg	-11.7947
▁Bou	-11.7949
▁pants	-11.7951
▁lime	-11.7955
clear	-11.7955
▁Lancashire	-11.7955
à	-11.7955
▁Alzheimer	-11.7955
▁Cornwall	-11.7955
▁INDIA	-11.7955
▁McGregor	-11.7955
▁Stacey	-11.7955
▁bikini	-11.7955
▁cosmetic	-11.7955
▁curriculum	-11.7955
▁excellence	-11.7955
▁grasp	-11.7955
▁inflammation	-11.7955
▁mitigate	-11.7955
▁valuation	-11.7955
▁animated	-11.7955
▁assignment	-11.7955
▁Consider	-11.7955
▁psychologist	-11.7955
▁fool	-11.7955
▁motorcycle	-11.7955
▁kidnapping	-11.7955
▁Exchange	-11.7955
Especially	-11.7956
▁Stanford	-11.7956
▁Nepal	-11.7956
▁issuing	-11.7956
▁Springfield	-11.7956
▁HIV	-11.7956
▁Carlson	-11.7956
▁jazz	-11.7957
▁embarrassed	-11.7957
▁stroll	-11.7957
▁wreck	-11.7957
▁70%	-11.7958
▁unsafe	-11.7958
▁distraction	-11.7959
▁prescribed	-11.7959
▁Kemi	-11.7959
▁cough	-11.7959
▁silly	-11.796
▁grandson	-11.7961
▁gag	-11.7962
▁sprawling	-11.7962
▁tackles	-11.7964
▁Freeman	-11.7964
matic	-11.7964
▁outreach	-11.7965
dig	-11.7967
▁accomplished	-11.7967
▁plunged	-11.7969
▁authorized	-11.7969
▁Cuba	-11.7969
▁wallet	-11.7969
▁AFL	-11.797
▁stranded	-11.797
▁Month	-11.797
anga	-11.7971
▁Regional	-11.7971
▁Dem	-11.7972
▁overlooked	-11.7973
▁halfway	-11.7974
harm	-11.798
Love	-11.7983
▁partial	-11.7983
▁dresses	-11.7985
▁searches	-11.7994
▁2011.	-11.7994
▁Bee	-11.7995
▁Ethiopian	-11.7996
▁plates	-11.7998
hire	-11.8001
▁Janet	-11.8001
▁adjusted	-11.8001
▁cra	-11.8001
▁Pick	-11.8003
▁predictions	-11.8003
▁slower	-11.8003
▁reel	-11.8005
▁insufficient	-11.8005
Connell	-11.801
▁Joy	-11.801
▁Sox	-11.8011
onic	-11.8013
▁reversed	-11.8015
▁Half	-11.8018
▁gel	-11.802
lene	-11.8025
aba	-11.8026
▁institutional	-11.8028
▁sue	-11.803
▁Bros	-11.8032
▁Ble	-11.8032
▁explored	-11.8033
▁observers	-11.8037
▁alter	-11.8042
CB	-11.8043
▁hills	-11.8046
rain	-11.8048
fan	-11.8048
▁aging	-11.8053
▁southwest	-11.8054
▁apartments	-11.8055
▁arrangements	-11.8055
▁protesting	-11.8059
▁Bud	-11.806
▁missions	-11.8061
human	-11.8061
▁proceeds	-11.8066
▁3-1	-11.8071
▁directing	-11.8072
▁Oscars	-11.8073
▁drafted	-11.8073
▁texts	-11.8075
▁foundations	-11.8079
▁tables	-11.8083
▁belongs	-11.8084
▁doubts	-11.8086
uz	-11.8089
arch	-11.809
▁rocked	-11.809
▁cancellation	-11.8091
▁nerve	-11.8091
▁Maz	-11.8092
▁taxpayer	-11.8093
▁prediction	-11.8096
▁Prosecutor	-11.8098
▁fo	-11.8098
▁rebound	-11.8098
▁Snap	-11.8099
▁Access	-11.8101
▁systemic	-11.8107
▁volumes	-11.8109
▁rip	-11.811
▁echo	-11.8112
:45	-11.8114
change	-11.8117
source	-11.812
Since	-11.8122
could	-11.8122
▁advocat	-11.8124
▁refuge	-11.8127
pictured	-11.8128
TH	-11.8128
record	-11.8129
▁hilarious	-11.8129
▁Roma	-11.8129
▁verbal	-11.813
rav	-11.8131
▁trainers	-11.8131
ggy	-11.8131
▁Reed	-11.8132
fuel	-11.8134
▁deliberate	-11.8137
▁humor	-11.814
▁Alejandro	-11.814
▁Hopkins	-11.814
▁Hungarian	-11.814
▁Hyderabad	-11.814
▁Industry	-11.814
▁Nevertheless	-11.814
▁OnePlus	-11.814
▁Pochettino	-11.814
▁Raducanu	-11.814
▁Vatican	-11.814
▁disregard	-11.814
▁ensemble	-11.814
▁incursion	-11.814
▁physician	-11.814
▁possibilities	-11.814
▁prosperity	-11.814
▁robbery	-11.814
▁stubborn	-11.814
▁terrific	-11.814
▁terrified	-11.814
▁volatile	-11.814
▁Arvind	-11.814
▁spouse	-11.814
▁sunshine	-11.814
▁Relations	-11.814
▁catastrophe	-11.814
▁satisfaction	-11.814
▁Diamond	-11.814
▁Besides	-11.814
▁courtesy	-11.814
▁Murdoch	-11.814
▁tissue	-11.814
▁Jammu	-11.814
▁inequality	-11.814
▁Meloni	-11.8141
▁Eurovision	-11.8141
▁footprint	-11.8141
▁elbow	-11.8141
▁lining	-11.8141
▁Higgins	-11.8141
/2024/	-11.8141
▁Derby	-11.8141
▁defect	-11.8141
▁Chuck	-11.8141
▁Tucker	-11.8141
▁ladies	-11.8141
cnn	-11.8141
▁retaliation	-11.8141
▁manual	-11.8141
▁poetry	-11.8141
▁Cannon	-11.8142
▁Christine	-11.8142
▁archive	-11.8142
▁steadily	-11.8142
▁Natalie	-11.8142
▁Culture	-11.8143
▁socks	-11.8143
▁Eras	-11.8143
▁Broad	-11.8144
▁chatting	-11.8144
▁1975	-11.8144
▁Kylie	-11.8144
▁89	-11.8144
▁lone	-11.8145
▁ERA	-11.8145
▁inspector	-11.8145
▁purported	-11.8146
▁complexity	-11.8148
▁Hardik	-11.8148
▁belonging	-11.8148
▁accidentally	-11.8149
▁guarantees	-11.815
▁mentality	-11.8154
▁chanting	-11.8156
▁Noel	-11.8157
▁homemade	-11.8158
▁instructed	-11.8159
▁allied	-11.816
▁portal	-11.8161
▁Connor	-11.8162
contributors	-11.8162
▁Whatever	-11.8163
▁departed	-11.8164
stead	-11.8164
▁30,000	-11.8165
tail	-11.8168
▁educated	-11.8171
nov	-11.8172
▁Vote	-11.8176
▁Brock	-11.8177
365	-11.8182
UK	-11.8183
▁sailing	-11.8188
▁Bihar	-11.8189
▁34-	-11.819
elected	-11.819
▁donation	-11.8192
rose	-11.8194
▁Cool	-11.8195
▁Maj	-11.8199
▁challenger	-11.82
▁complaining	-11.82
▁sober	-11.82
▁Says	-11.8202
▁cheering	-11.8205
▁youngsters	-11.8206
▁Katy	-11.8207
▁cracked	-11.8212
▁Jesse	-11.8217
▁System	-11.822
▁lure	-11.8221
call	-11.8223
▁Wy	-11.8227
▁33-	-11.8228
▁astronauts	-11.8237
▁Fen	-11.8238
▁Cardinals	-11.8241
▁minors	-11.8248
▁Eagle	-11.8248
played	-11.8254
▁containers	-11.8255
▁canal	-11.8255
յ	-11.8256
▁smiles	-11.8257
▁disappear	-11.8262
PM	-11.8264
▁stretching	-11.8264
ú	-11.8268
▁sting	-11.8269
500	-11.8272
ño	-11.8274
▁determin	-11.8278
▁shades	-11.8278
kel	-11.8279
Dur	-11.828
▁Poly	-11.8281
▁Om	-11.8282
▁Past	-11.8283
▁rankings	-11.8283
▁references	-11.8285
▁Bett	-11.8285
▁transaction	-11.8286
▁cloth	-11.8287
▁batch	-11.8287
city	-11.8289
body	-11.829
▁Ski	-11.8291
▁attractions	-11.8293
▁dynamics	-11.8297
▁assert	-11.8298
base	-11.8301
▁Cru	-11.8303
▁surf	-11.8304
▁enact	-11.8306
▁contributor	-11.8307
expected	-11.831
would	-11.8311
ENT	-11.8314
▁themes	-11.8314
tank	-11.8315
absolutely	-11.8315
▁Natural	-11.8318
driven	-11.8318
hat	-11.832
▁Tay	-11.832
▁advert	-11.8327
super	-11.8327
▁98	-11.8328
":{"	-11.8329
CalloutFormField	-11.8329
twitter	-11.8329
▁Giuliani	-11.8329
▁astonishing	-11.8329
▁ideological	-11.8329
▁stigma	-11.8329
iStock	-11.8329
▁Analyst	-11.8329
▁Fernandes	-11.8329
▁Indianapolis	-11.8329
▁Insurance	-11.8329
▁Mbappe	-11.8329
▁McLaren	-11.8329
▁Myanmar	-11.8329
▁Samantha	-11.8329
▁coronavirus	-11.8329
▁innocence	-11.8329
▁litigation	-11.8329
▁mould	-11.8329
▁scout	-11.8329
▁trophies	-11.8329
▁tumour	-11.8329
▁fibre	-11.8329
▁grandparents	-11.8329
▁essence	-11.8329
▁warrior	-11.8329
▁idol	-11.8329
▁Editor	-11.8329
▁moisture	-11.8329
▁infectious	-11.8329
mAh	-11.8329
▁maiden	-11.8329
▁Clinic	-11.8329
▁precision	-11.8329
▁inviting	-11.833
▁Hasina	-11.833
▁obsession	-11.833
▁thigh	-11.833
▁tapped	-11.8331
▁Salah	-11.8331
▁Inflation	-11.8331
treat	-11.8331
▁Herbert	-11.8331
▁1976	-11.8331
▁roar	-11.8332
▁attacker	-11.8332
▁Duty	-11.8333
▁intensive	-11.8334
▁longstanding	-11.8335
▁supplied	-11.8335
▁Reese	-11.8337
▁Moment	-11.8338
▁reunited	-11.8339
▁stripped	-11.834
▁intentionally	-11.834
Bar	-11.834
▁toughest	-11.834
▁misleading	-11.834
▁urges	-11.8343
▁tailored	-11.8343
▁Dana	-11.8346
▁showdown	-11.8346
▁25%	-11.8347
▁mounted	-11.8348
▁Sta	-11.8348
▁greeted	-11.835
uma	-11.8351
▁4%	-11.8351
▁Elliott	-11.8352
▁tu	-11.8353
▁dumped	-11.8353
▁poisoning	-11.8355
▁meantime	-11.8356
▁fits	-11.836
▁keeper	-11.8361
eck	-11.8368
▁Mills	-11.8368
▁releases	-11.8372
▁searched	-11.8372
DS	-11.8372
▁alien	-11.8374
▁behave	-11.838
▁ne	-11.838
▁enabled	-11.8382
▁Clean	-11.8383
▁Eu	-11.8386
▁Jun	-11.8386
▁Ship	-11.8387
offs	-11.8388
▁Notabl	-11.8388
▁rings	-11.8389
▁disputed	-11.8389
▁replicate	-11.839
▁Cy	-11.8392
▁tactic	-11.8393
▁Shin	-11.8395
▁appreciated	-11.8398
▁crowded	-11.8399
▁woods	-11.8406
▁93	-11.8407
▁shipments	-11.8409
▁bowled	-11.841
▁rave	-11.841
▁Base	-11.8412
▁nurses	-11.8415
kind	-11.8415
▁cooked	-11.8415
▁lid	-11.8416
▁Self	-11.8418
▁Sale	-11.8421
Am	-11.8422
▁ke	-11.8424
▁honoured	-11.8424
beat	-11.8424
▁await	-11.8427
▁tenants	-11.8432
▁spells	-11.8436
MT	-11.8436
▁permits	-11.8438
▁vow	-11.8442
▁monument	-11.8448
▁Rao	-11.8449
▁Gates	-11.845
zz	-11.8451
▁forests	-11.8454
fighting	-11.8459
▁crush	-11.846
▁tracker	-11.8463
meter	-11.8464
▁charts	-11.8466
direct	-11.8473
▁allege	-11.8476
chen	-11.8476
▁lash	-11.8478
▁nutrition	-11.8479
Li	-11.848
▁Cla	-11.8481
▁newest	-11.8481
▁variant	-11.8481
▁tariff	-11.8482
▁Cara	-11.8485
▁wars	-11.8485
▁Wells	-11.8486
won	-11.8486
▁Mai	-11.8488
▁Record	-11.8489
▁prayer	-11.8491
▁wary	-11.8491
▁intake	-11.8493
▁tab	-11.8493
SL	-11.8503
child	-11.8503
because	-11.8504
including	-11.8505
▁Kir	-11.8507
▁SE	-11.851
▁signatures	-11.8512
▁reinforce	-11.8514
▁Hell	-11.8518
▁Eva	-11.8518
▁planted	-11.8519
▁blank	-11.8519
▁setback	-11.852
▁Advance	-11.8521
▁Arkansas	-11.8521
▁Beyoncé	-11.8521
▁Floyd	-11.8521
▁Hegseth	-11.8521
▁LeBron	-11.8521
▁Nasrallah	-11.8521
▁Portuguese	-11.8521
▁Vancouver	-11.8521
▁dominance	-11.8521
▁illicit	-11.8521
▁imprisoned	-11.8521
▁sympathy	-11.8521
▁territorial	-11.8521
▁Sweet	-11.8521
▁Watkins	-11.8521
▁abusive	-11.8521
▁hamstring	-11.8521
▁Spotify	-11.8521
▁glorious	-11.8521
▁shook	-11.8521
▁salaries	-11.8521
▁sworn	-11.8521
▁connectivity	-11.8522
western	-11.8522
▁Dmitr	-11.8522
▁onboard	-11.8522
▁DOJ	-11.8522
▁Number	-11.8522
▁famine	-11.8522
blockquote	-11.8522
▁suitcase	-11.8522
▁chopped	-11.8522
▁Maldives	-11.8522
▁fond	-11.8522
▁2-	-11.8522
▁soundtrack	-11.8522
▁LIVE	-11.8522
▁Bernie	-11.8522
▁rehab	-11.8522
▁Perez	-11.8522
▁slavery	-11.8522
▁affordability	-11.8523
▁unhappy	-11.8523
▁distinctive	-11.8523
▁database	-11.8523
▁Giovanni	-11.8523
▁bowel	-11.8524
▁Interior	-11.8524
▁gunfire	-11.8524
▁Berry	-11.8525
▁merger	-11.8525
▁cling	-11.8526
▁offshore	-11.8526
▁sadness	-11.8527
▁Heather	-11.8527
▁Ny	-11.8527
▁wings	-11.8527
▁twins	-11.8528
▁Estate	-11.8528
▁shoe	-11.8529
▁rumoured	-11.8529
ICE	-11.853
▁prioritise	-11.8531
▁figured	-11.8532
▁hardship	-11.8532
▁puff	-11.8535
▁metric	-11.8535
▁sanctioned	-11.8537
▁Sadly	-11.8539
▁raced	-11.8539
link	-11.8542
▁HD	-11.8542
▁poet	-11.8547
lation	-11.8551
tti	-11.8551
▁popped	-11.8552
▁donate	-11.8552
▁fur	-11.8554
▁punished	-11.8554
▁Lego	-11.8557
▁withdrawn	-11.8558
▁Gru	-11.8561
spec	-11.8561
▁hydro	-11.8561
▁correctly	-11.8564
▁rooted	-11.8568
▁6%	-11.8568
atory	-11.8568
▁mph	-11.8569
▁60-	-11.857
▁32-	-11.8573
▁legislators	-11.858
▁washed	-11.8582
▁Mau	-11.8584
road	-11.8586
▁awake	-11.8587
▁Candidates	-11.8589
odd	-11.8589
▁ko	-11.859
▁palm	-11.8593
▁mud	-11.8594
▁Marsh	-11.86
▁Sally	-11.86
▁Wyn	-11.8601
PL	-11.8605
fold	-11.8605
roughly	-11.8606
race	-11.861
▁rub	-11.8611
owing	-11.8615
▁Fer	-11.8617
▁websites	-11.8619
▁badge	-11.8621
does	-11.8625
▁neighborhoods	-11.8628
▁Mir	-11.8629
dine	-11.8629
Hey	-11.863
▁Jets	-11.863
pet	-11.863
▁pic	-11.8632
DF	-11.8642
▁bother	-11.8644
▁Want	-11.8645
▁Mayo	-11.8649
▁Tests	-11.865
▁Days	-11.865
SD	-11.8651
▁1:	-11.8661
▁Cost	-11.8661
▁pensions	-11.8662
dog	-11.8664
▁translate	-11.8673
▁Photos	-11.8679
▁ritual	-11.8679
▁vitamin	-11.8679
uka	-11.868
▁consequence	-11.8682
▁Deb	-11.8684
▁contestant	-11.8685
▁clearing	-11.8685
▁hitter	-11.8686
▁instances	-11.8688
▁Kids	-11.8688
▁37-	-11.869
▁Box	-11.869
▁lightly	-11.8693
midst	-11.8694
Everything	-11.8699
abortion	-11.8699
health	-11.8699
green	-11.87
1/	-11.8703
hearted	-11.8704
▁acute	-11.8707
stud	-11.8707
▁whisk	-11.8707
▁Saints	-11.8708
▁grows	-11.8708
▁Brothers	-11.8709
▁endure	-11.871
▁restor	-11.8712
▁obstruct	-11.8716
▁sticker	-11.8716
▁Embassy	-11.8717
▁Haniyeh	-11.8717
▁Organisation	-11.8717
▁Somerset	-11.8717
▁autonomy	-11.8717
▁credibility	-11.8717
▁cushion	-11.8717
▁eligibility	-11.8717
▁harrowing	-11.8717
▁incarcerated	-11.8717
▁intensified	-11.8717
▁opioid	-11.8717
▁purple	-11.8717
▁logistics	-11.8717
▁Harriet	-11.8717
▁meteor	-11.8717
▁hotspot	-11.8717
▁capsule	-11.8717
▁primaries	-11.8717
▁IVF	-11.8717
▁Vanessa	-11.8717
▁cellphone	-11.8717
▁rigorous	-11.8717
▁IOC	-11.8718
▁Farrell	-11.8718
▁Library	-11.8718
▁tyre	-11.8718
▁Isaac	-11.8718
▁Naomi	-11.8718
▁dawn	-11.8718
▁Sebastian	-11.8718
fusion	-11.8718
▁Beatles	-11.8718
▁Chargers	-11.8718
▁Kemp	-11.8718
▁Flower	-11.8718
▁TNT	-11.8718
▁restoration	-11.8719
▁adhere	-11.8719
▁barrage	-11.8719
HA	-11.8719
▁exploitation	-11.872
▁Mitch	-11.872
▁1985	-11.872
▁stressful	-11.872
▁laughter	-11.8721
▁riders	-11.8721
▁revised	-11.8722
▁Christie	-11.8722
▁pact	-11.8722
▁Multiple	-11.8723
▁Gan	-11.8723
▁congratulate	-11.8724
▁Bible	-11.8724
▁Previously	-11.8724
▁Honor	-11.8725
▁Target	-11.8726
ook	-11.8727
▁underwater	-11.8727
▁announces	-11.8728
▁manufactured	-11.8728
▁Sho	-11.8728
serving	-11.8733
▁Robertson	-11.8734
▁packages	-11.8735
▁snacks	-11.8735
▁15,000	-11.8735
▁lad	-11.8736
▁preced	-11.874
▁200,000	-11.874
Joe	-11.874
▁wireless	-11.8741
▁Uber	-11.8742
▁tar	-11.8743
▁compact	-11.8743
▁enacted	-11.8744
▁spur	-11.8744
▁weighed	-11.8747
▁â	-11.8748
▁enlist	-11.8749
▁bash	-11.875
▁fatally	-11.8751
▁shouted	-11.8751
rounder	-11.8754
▁payout	-11.8754
▁Gh	-11.8758
▁charter	-11.8761
▁scams	-11.8763
▁CM	-11.8764
News	-11.8764
▁spat	-11.8765
▁imported	-11.8765
▁incorrect	-11.8766
ume	-11.8768
▁Tell	-11.8769
▁tricks	-11.8774
▁cookie	-11.8774
▁campaigners	-11.8775
▁Note	-11.8776
▁wildly	-11.8778
▁crowned	-11.8779
▁mistaken	-11.878
▁Finn	-11.878
▁Talking	-11.8781
▁crashing	-11.8782
▁diplomats	-11.8785
▁confirms	-11.8785
▁37,	-11.8785
pac	-11.8785
▁enthusiastic	-11.8786
▁AC	-11.8788
▁codes	-11.879
▁Gala	-11.8795
▁cared	-11.8801
may	-11.8804
▁straw	-11.8804
gies	-11.8806
▁proudly	-11.8807
▁tracked	-11.8811
▁vent	-11.8811
▁dose	-11.8816
▁3.5	-11.8819
▁aspirations	-11.882
hon	-11.8822
▁ordering	-11.8828
▁Lynn	-11.8828
▁Rail	-11.8831
▁vibes	-11.8835
▁flavours	-11.8836
▁Yar	-11.8837
hol	-11.8847
▁borrow	-11.8848
▁dump	-11.885
▁suspend	-11.8851
▁reopen	-11.8853
▁depart	-11.8854
filled	-11.8856
▁setup	-11.8858
▁slap	-11.8858
▁packing	-11.8864
▁Dol	-11.8866
enti	-11.8866
▁Wick	-11.8866
uni	-11.8875
▁hurdles	-11.8877
▁backwards	-11.8878
TT	-11.8878
ept	-11.8882
▁2010.	-11.8882
▁pundits	-11.8882
▁slogan	-11.8884
▁administrator	-11.8885
▁revelation	-11.8885
▁detailing	-11.8887
▁Champion	-11.8887
▁pill	-11.8889
▁Tiger	-11.889
thi	-11.8892
▁observe	-11.8893
▁graphic	-11.8893
▁component	-11.8894
present	-11.8898
▁intervene	-11.8898
Donald	-11.8899
▁Update	-11.8899
limited	-11.8899
Please	-11.8899
Smith	-11.8899
▁logic	-11.89
itis	-11.8902
▁oral	-11.8905
▁blowing	-11.8905
▁կ	-11.8908
▁130	-11.8908
▁Factor	-11.8909
▁Roth	-11.891
▁hints	-11.8913
Share	-11.8917
▁falsify	-11.8917
▁interfere	-11.8917
▁scoop	-11.8917
▁Agriculture	-11.8917
▁Article	-11.8917
▁Bitcoin	-11.8917
▁Maresca	-11.8917
▁McMahon	-11.8917
▁Ralph	-11.8917
▁Splash	-11.8917
▁Toyota	-11.8917
▁arsenal	-11.8917
▁carriage	-11.8917
▁expenditure	-11.8917
▁freak	-11.8917
▁identities	-11.8917
▁luxurious	-11.8917
▁negotiating	-11.8917
▁presumptive	-11.8917
▁rehearsal	-11.8917
▁Draper	-11.8917
▁Shanghai	-11.8917
▁Salvador	-11.8917
▁Average	-11.8917
▁diplomacy	-11.8917
▁AfD	-11.8917
▁embarrassment	-11.8917
▁Kitchen	-11.8917
▁Jinping	-11.8917
CT	-11.8917
▁Cowboys	-11.8917
▁verified	-11.8917
▁Fellow	-11.8918
▁McConnell	-11.8918
▁Chu	-11.8918
▁advertisement	-11.8918
▁Fulton	-11.8918
▁reconsider	-11.8918
▁shallow	-11.8918
▁Bennett	-11.8918
▁tuck	-11.8918
▁Alongside	-11.8918
▁cattle	-11.8918
▁iOS	-11.8918
▁nightclub	-11.8918
▁Beauty	-11.8918
▁Creek	-11.8918
▁hottest	-11.8919
▁35-	-11.8919
mount	-11.8919
▁fundraiser	-11.8919
▁Armstrong	-11.8919
▁hats	-11.8919
▁Terry	-11.8919
▁telephone	-11.8919
▁solicitor	-11.892
▁1967	-11.892
▁diesel	-11.892
▁vegan	-11.892
▁Dress	-11.892
▁Ranch	-11.8921
▁Horizon	-11.8921
▁Stream	-11.8921
▁miracle	-11.8921
▁Matter	-11.8921
▁hardware	-11.8921
▁predictable	-11.8921
▁leaks	-11.8922
▁$150	-11.8923
▁rivalry	-11.8923
trip	-11.8923
▁Denise	-11.8925
▁CH	-11.8925
[...]
