<unk>	0
<s>	0
</s>	0
▁t	-0
▁a	-1
he	-2
in	-3
re	-4
▁the	-5
on	-6
▁s	-7
er	-8
▁w	-9
en	-10
at	-11
▁c	-12
▁o	-13
it	-14
an	-15
ed	-16
ing	-17
▁f	-18
is	-19
or	-20
▁b	-21
es	-22
▁p	-23
▁to	-24
ar	-25
nd	-26
ou	-27
al	-28
▁in	-29
▁h	-30
▁m	-31
as	-32
▁of	-33
▁d	-34
▁and	-35
ic	-36
le	-37
▁th	-38
om	-39
ion	-40
il	-41
id	-42
ent	-43
▁T	-44
▁l	-45
▁re	-46
st	-47
ve	-48
▁n	-49
▁be	-50
ot	-51
▁g	-52
▁e	-53
▁I	-54
ly	-55
▁S	-56
▁on	-57
ay	-58
ut	-59
ac	-60
▁A	-61
ro	-62
▁for	-63
ad	-64
▁he	-65
am	-66
im	-67
et	-68
ur	-69
ow	-70
ig	-71
ol	-72
▁that	-73
el	-74
▁"	-75
▁M	-76
ver	-77
▁is	-78
▁st	-79
▁C	-80
ir	-81
▁B	-82
us	-83
ec	-84
ith	-85
▁it	-86
▁y	-87
ter	-88
▁wh	-89
▁with	-90
▁The	-91
▁was	-92
▁as	-93
ation	-94
▁H	-95
ill	-96
ce	-97
▁al	-98
▁P	-99
un	-100
▁an	-101
▁we	-102
ers	-103
▁at	-104
ld	-105
ra	-106
▁W	-107
os	-108
ul	-109
ke	-110
ri	-111
▁ha	-112
▁sa	-113
▁D	-114
and	-115
ch	-116
▁R	-117
est	-118
▁con	-119
her	-120
em	-121
pp	-122
ag	-123
ct	-124
if	-125
th	-126
ore	-127
▁2	-128
um	-129
rom	-130
ate	-131
▁N	-132
res	-133
▁r	-134
igh	-135
▁you	-136
ts	-137
ear	-138
▁F	-139
▁L	-140
▁said	-141
▁com	-142
▁G	-143
op	-144
▁his	-145
▁are	-146
▁v	-147
▁have	-148
ain	-149
▁has	-150
ew	-151
▁from	-152
▁sh	-153
od	-154
▁ex	-155
ess	-156
red	-157
▁ch	-158
▁by	-159
▁1	-160
oc	-161
ment	-162
ab	-163
art	-164
▁J	-165
ort	-166
▁E	-167
ity	-168
ould	-169
ive	-170
▁pro	-171
ust	-172
▁le	-173
up	-174
▁not	-175
▁se	-176
▁de	-177
end	-178
▁-	-179
all	-180
,"	-181
se	-182
ast	-183
ies	-184
ack	-185
our	-186
▁O	-187
▁j	-188
▁pl	-189
ak	-190
ist	-191
▁U	-192
▁su	-193
▁20	-194
ant	-195
▁go	-196
out	-197
qu	-198
ight	-199
▁ab	-200
gh	-201
▁this	-202
▁sp	-203
▁or	-204
ard	-205
ost	-206
ial	-207
iv	-208
."	-209
rou	-210
ud	-211
ome	-212
nt	-213
▁her	-214
▁K	-215
▁whe	-216
ia	-217
▁who	-218
▁will	-219
▁they	-220
ect	-221
▁wor	-222
ok	-223
ge	-224
▁their	-225
▁but	-226
▁k	-227
ell	-228
ong	-229
ice	-230
ich	-231
▁out	-232
▁had	-233
ep	-234
ide	-235
▁af	-236
ry	-237
▁(	-238
ine	-239
▁can	-240
▁ad	-241
▁year	-242
▁been	-243
▁she	-244
ap	-245
▁do	-246
ally	-247
▁int	-248
ans	-249
▁up	-250
▁off	-251
ous	-252
one	-253
ure	-254
▁ne	-255
▁all	-256
▁cl	-257
▁ag	-258
00	-259
ime	-260
ions	-261
▁ac	-262
▁me	-263
▁were	-264
▁un	-265
so	-266
▁In	-267
ie	-268
und	-269
ip	-270
▁more	-271
ff	-272
▁about	-273
▁Th	-274
▁after	-275
▁inc	-276
mer	-277
ame	-278
ub	-279
ther	-280
ike	-281
▁res	-282
▁which	-283
ays	-284
ue	-285
are	-286
ber	-287
ated	-288
ake	-289
▁exp	-290
▁also	-291
▁one	-292
ord	-293
▁pe	-294
ian	-295
▁us	-296
▁over	-297
▁so	-298
very	-299
▁It	-300
▁en	-301
age	-302
▁St	-303
ary	-304
ign	-305
ond	-306
▁He	-307
▁im	-308
▁comp	-309
ople	-310
▁Ch	-311
▁202	-312
ace	-313
ident	-314
ile	-315
▁cont	-316
▁would	-317
▁'	-318
ind	-319
▁lo	-320
ress	-321
▁its	-322
ose	-323
▁rep	-324
▁people	-325
▁part	-326
act	-327
ven	-328
ire	-329
▁pr	-330
ick	-331
ount	-332
▁man	-333
▁like	-334
▁when	-335
ance	-336
▁per	-337
wo	-338
▁tr	-339
ict	-340
▁rec	-341
own	-342
▁just	-343
av	-344
irst	-345
old	-346
▁dis	-347
ence	-348
ass	-349
▁V	-350
ite	-351
▁pol	-352
▁than	-353
ations	-354
▁my	-355
▁work	-356
ish	-357
ark	-358
▁app	-359
▁there	-360
▁new	-361
ump	-362
▁time	-363
▁sc	-364
▁bec	-365
lo	-366
able	-367
day	-368
ree	-369
lect	-370
▁ar	-371
▁them	-372
▁qu	-373
▁Y	-374
pt	-375
▁acc	-376
▁into	-377
ning	-378
orm	-379
uc	-380
ink	-381
▁kn	-382
ail	-383
ib	-384
ll	-385
▁Tr	-386
hed	-387
▁him	-388
aus	-389
▁get	-390
▁first	-391
ach	-392
▁other	-393
ound	-394
ens	-395
ough	-396
ek	-397
ild	-398
▁some	-399
▁ro	-400
amp	-401
og	-402
▁two	-403
ult	-404
ren	-405
▁what	-406
ical	-407
ase	-408
▁att	-409
▁play	-410
reat	-411
ors	-412
iz	-413
▁But	-414
oin	-415
lic	-416
▁could	-417
rit	-418
ade	-419
▁imp	-420
▁pre	-421
ne	-422
▁back	-423
▁te	-424
▁our	-425
ang	-426
anc	-427
▁your	-428
wn	-429
▁again	-430
▁3	-431
▁any	-432
▁years	-433
▁add	-434
ition	-435
ru	-436
▁dec	-437
ious	-438
ings	-439
▁act	-440
lud	-441
oll	-442
▁if	-443
▁co	-444
aw	-445
ory	-446
round	-447
▁no	-448
▁last	-449
▁Trump	-450
land	-451
▁und	-452
erv	-453
ause	-454
ting	-455
▁fe	-456
fe	-457
▁am	-458
ates	-459
▁sec	-460
fore	-461
uring	-462
other	-463
ock	-464
▁inv	-465
urn	-466
ents	-467
▁bo	-468
resident	-469
we	-470
ng	-471
vel	-472
▁now	-473
▁how	-474
▁includ	-475
ov	-476
rough	-477
enc	-478
..	-479
▁did	-480
iss	-481
ty	-482
ater	-483
▁And	-484
▁bet	-485
▁show	-486
als	-487
form	-488
▁comm	-489
▁under	-490
ft	-491
vers	-492
hing	-493
▁supp	-494
oun	-495
vern	-496
ons	-497
aking	-498
ris	-499
ss	-500
▁before	-501
▁week	-502
▁br	-503
▁rem	-504
ied	-505
▁Is	-506
▁fin	-507
▁count	-508
▁mon	-509
The	-510
▁being	-511
ove	-512
▁op	-513
▁need	-514
ife	-515
ublic	-516
ational	-517
▁Wh	-518
ily	-519
▁where	-520
▁New	-521
▁every	-522
ating	-523
▁4	-524
arg	-525
▁only	-526
▁des	-527
ince	-528
ted	-529
ath	-530
▁We	-531
ful	-532
▁lead	-533
▁think	-534
▁look	-535
man	-536
ah	-537
uch	-538
ob	-539
▁tra	-540
▁because	-541
uss	-542
▁She	-543
▁most	-544
row	-545
▁want	-546
▁fam	-547
▁5	-548
les	-549
▁say	-550
▁inter	-551
▁against	-552
▁even	-553
▁make	-554
▁Mr	-555
ities	-556
▁cons	-557
▁know	-558
▁then	-559
ood	-560
az	-561
oss	-562
▁em	-563
ited	-564
▁call	-565
▁end	-566
li	-567
▁while	-568
ise	-569
▁reg	-570
vernment	-571
▁elect	-572
elf	-573
▁Un	-574
ues	-575
ward	-576
▁bl	-577
▁min	-578
▁This	-579
▁told	-580
te	-581
▁19	-582
▁ind	-583
erson	-584
▁ev	-585
▁through	-586
lp	-587
▁ear	-588
▁month	-589
▁three	-590
rent	-591
pe	-592
xt	-593
▁ra	-594
▁201	-595
led	-596
▁med	-597
▁don	-598
▁down	-599
hen	-600
▁win	-601
ved	-602
ared	-603
ank	-604
ason	-605
ram	-606
▁made	-607
iew	-608
▁long	-609
▁ret	-610
hip	-611
alk	-612
▁during	-613
▁going	-614
air	-615
▁Le	-616
▁well	-617
▁war	-618
▁ke	-619
▁help	-620
illion	-621
gg	-622
▁ass	-623
cc	-624
du	-625
▁bu	-626
▁team	-627
▁cr	-628
▁sur	-629
▁see	-630
▁many	-631
ters	-632
▁fl	-633
ert	-634
▁set	-635
oth	-636
▁way	-637
any	-638
ix	-639
▁offic	-640
ote	-641
tle	-642
ool	-643
▁says	-644
▁report	-645
ving	-646
ased	-647
000	-648
rib	-649
▁rel	-650
▁those	-651
▁start	-652
▁very	-653
▁$	-654
▁own	-655
▁cent	-656
▁around	-657
ement	-658
▁home	-659
▁government	-660
au	-661
ner	-662
way	-663
ork	-664
▁should	-665
rael	-666
ouse	-667
▁car	-668
▁day	-669
▁Sh	-670
▁Ind	-671
alth	-672
ash	-673
▁£	-674
ph	-675
▁As	-676
atch	-677
▁child	-678
▁resp	-679
▁much	-680
oot	-681
ollow	-682
▁Al	-683
rest	-684
▁take	-685
▁Israel	-686
,000	-687
▁high	-688
▁wom	-689
▁sign	-690
ower	-691
ative	-692
ross	-693
med	-694
▁since	-695
▁still	-696
imes	-697
▁including	-698
▁conf	-699
▁these	-700
▁def	-701
ather	-702
▁ph	-703
ange	-704
ric	-705
▁They	-706
▁good	-707
meric	-708
ures	-709
▁cour	-710
ular	-711
ever	-712
▁support	-713
▁may	-714
ets	-715
ording	-716
hes	-717
▁dif	-718
ected	-719
ments	-720
ron	-721
orts	-722
son	-723
▁sm	-724
gan	-725
oy	-726
▁law	-727
▁found	-728
ual	-729
▁ins	-730
▁An	-731
▁Re	-732
▁run	-733
▁str	-734
ced	-735
▁world	-736
hn	-737
ener	-738
▁6	-739
ific	-740
roup	-741
ling	-742
ween	-743
ible	-744
ames	-745
ives	-746
its	-747
▁Fr	-748
▁invest	-749
aj	-750
▁Americ	-751
▁2024	-752
ember	-753
ged	-754
▁poin	-755
▁country	-756
▁four	-757
▁really	-758
▁contin	-759
ics	-760
omet	-761
▁gu	-762
con	-763
ned	-764
▁such	-765
ital	-766
▁state	-767
▁follow	-768
ton	-769
▁life	-770
iden	-771
ik	-772
rem	-773
ble	-774
▁ter	-775
▁former	-776
▁feel	-777
▁right	-778
ility	-779
▁between	-780
ax	-781
▁happ	-782
▁Sc	-783
▁Har	-784
ady	-785
aim	-786
▁camp	-787
ants	-788
▁ent	-789
▁serv	-790
▁Sp	-791
▁Jo	-792
▁bel	-793
rat	-794
▁Mar	-795
ale	-796
ister	-797
▁Af	-798
▁ser	-799
▁Russ	-800
▁cap	-801
ised	-802
▁family	-803
ices	-804
▁though	-805
ered	-806
duct	-807
ave	-808
ands	-809
per	-810
▁7	-811
▁president	-812
▁added	-813
▁tri	-814
ages	-815
▁big	-816
irect	-817
▁wr	-818
▁Biden	-819
▁does	-820
We	-821
▁second	-822
ull	-823
▁Ar	-824
ms	-825
get	-826
iel	-827
▁leg	-828
cer	-829
▁got	-830
▁For	-831
▁person	-832
▁eff	-833
com	-834
▁col	-835
▁inf	-836
outh	-837
min	-838
ision	-839
▁polit	-840
year	-841
ys	-842
▁public	-843
▁care	-844
▁post	-845
▁head	-846
▁cle	-847
▁US	-848
ness	-849
▁ann	-850
riend	-851
▁group	-852
▁game	-853
▁left	-854
ef	-855
▁put	-856
ering	-857
▁bus	-858
▁fil	-859
▁come	-860
▁prov	-861
ina	-862
▁iss	-863
▁gr	-864
▁dep	-865
▁another	-866
ody	-867
ten	-868
▁prot	-869
▁claim	-870
ves	-871
▁How	-872
▁10	-873
▁attack	-874
▁ask	-875
▁sy	-876
▁best	-877
▁trans	-878
ier	-879
▁stud	-880
▁loc	-881
line	-882
▁next	-883
ute	-884
ists	-885
▁mil	-886
It	-887
esp	-888
▁soc	-889
▁star	-890
▁both	-891
▁sl	-892
▁exper	-893
chool	-894
▁plan	-895
▁There	-896
▁recent	-897
▁That	-898
ug	-899
ially	-900
ually	-901
▁det	-902
▁far	-903
▁Rep	-904
▁ext	-905
iness	-906
pl	-907
▁On	-908
▁open	-909
▁opp	-910
▁del	-911
▁You	-912
▁somet	-913
tern	-914
orn	-915
▁disc	-916
...	-917
uro	-918
pped	-919
▁lot	-920
▁President	-921
ines	-922
▁che	-923
▁mark	-924
▁same	-925
▁health	-926
▁sub	-927
uth	-928
▁season	-929
▁too	-930
self	-931
▁cur	-932
io	-933
▁num	-934
ret	-935
sh	-936
emoc	-937
▁real	-938
▁spe	-939
▁prev	-940
▁pass	-941
urs	-942
▁near	-943
▁ref	-944
▁lit	-945
▁direct	-946
ury	-947
ral	-948
uck	-949
▁find	-950
omm	-951
▁top	-952
▁inst	-953
ution	-954
▁never	-955
ways	-956
▁At	-957
▁stat	-958
ivers	-959
akes	-960
▁adv	-961
bers	-962
▁Pr	-963
▁place	-964
ency	-965
kra	-966
aign	-967
ration	-968
redit	-969
▁8	-970
ird	-971
▁mem	-972
▁pri	-973
olog	-974
":	-975
augh	-976
▁great	-977
▁try	-978
▁spec	-979
▁diffe	-980
ense	-981
thing	-982
▁according	-983
ience	-984
▁days	-985
ights	-986
▁Ukra	-987
▁vot	-988
▁million	-989
▁here	-990
side	-991
▁fac	-992
▁Z	-993
▁commun	-994
▁official	-995
▁pres	-996
ield	-997
cess	-998
ins	-999
▁campaign	-1000
view	-1001
▁pay	-1002
▁If	-1003
ele	-1004
▁bre	-1005
▁Bl	-1006
▁media	-1007
eng	-1008
▁UK	-1009
ief	-1010
iving	-1011
oney	-1012
▁children	-1013
▁police	-1014
ple	-1015
ex	-1016
ism	-1017
▁women	-1018
ck	-1019
ured	-1020
▁use	-1021
▁rest	-1022
ired	-1023
▁remain	-1024
▁ob	-1025
ces	-1026
▁incre	-1027
▁prom	-1028
ention	-1029
▁across	-1030
ott	-1031
▁rele	-1032
▁election	-1033
conom	-1034
▁vis	-1035
▁five	-1036
ald	-1037
▁air	-1038
ajor	-1039
▁Euro	-1040
▁kill	-1041
▁dri	-1042
br	-1043
▁party	-1044
▁few	-1045
▁company	-1046
ney	-1047
▁didn	-1048
▁Brit	-1049
ued	-1050
▁case	-1051
▁won	-1052
▁gener	-1053
▁So	-1054
▁miss	-1055
▁Eng	-1056
▁la	-1057
▁Min	-1058
▁used	-1059
gy	-1060
▁Be	-1061
be	-1062
▁keep	-1063
▁away	-1064
▁seen	-1065
▁school	-1066
▁took	-1067
▁cre	-1068
ished	-1069
▁sim	-1070
▁char	-1071
▁beh	-1072
osed	-1073
▁mov	-1074
▁young	-1075
▁months	-1076
velop	-1077
▁always	-1078
),	-1079
▁business	-1080
▁called	-1081
▁Am	-1082
iday	-1083
▁later	-1084
▁expl	-1085
der	-1086
ately	-1087
orth	-1088
▁el	-1089
alf	-1090
emocrat	-1091
▁things	-1092
▁something	-1093
▁cost	-1094
▁par	-1095
▁De	-1096
▁friend	-1097
▁came	-1098
▁hand	-1099
the	-1100
▁sit	-1101
▁night	-1102
▁ris	-1103
▁9	-1104
▁hop	-1105
aring	-1106
▁mom	-1107
▁inte	-1108
▁turn	-1109
iet	-1110
▁deb	-1111
▁reported	-1112
▁might	-1113
atur	-1114
▁belie	-1115
ecut	-1116
▁hard	-1117
▁return	-1118
▁sk	-1119
▁av	-1120
Th	-1121
▁six	-1122
▁court	-1123
▁econom	-1124
stem	-1125
ional	-1126
ically	-1127
▁talk	-1128
duc	-1129
▁rece	-1130
▁United	-1131
▁pos	-1132
ague	-1133
▁aff	-1134
▁Cl	-1135
▁power	-1136
▁social	-1137
ann	-1138
▁build	-1139
▁Car	-1140
▁prog	-1141
▁without	-1142
ched	-1143
ours	-1144
ject	-1145
▁quest	-1146
▁grow	-1147
▁major	-1148
used	-1149
▁announ	-1150
iver	-1151
ham	-1152
less	-1153
▁milit	-1154
▁Ph	-1155
▁art	-1156
▁allow	-1157
▁Se	-1158
▁met	-1159
▁love	-1160
▁record	-1161
▁Ad	-1162
▁went	-1163
to	-1164
.'	-1165
ruct	-1166
▁sw	-1167
urity	-1168
▁One	-1169
▁foot	-1170
rist	-1171
▁Mc	-1172
▁requ	-1173
▁little	-1174
▁past	-1175
ball	-1176
▁partic	-1177
▁dem	-1178
ending	-1179
▁better	-1180
▁different	-1181
▁unt	-1182
iously	-1183
leg	-1184
▁pop	-1185
▁Republic	-1186
co	-1187
▁Democrat	-1188
ley	-1189
▁each	-1190
▁dist	-1191
ster	-1192
ready	-1193
▁appro	-1194
▁hist	-1195
▁import	-1196
▁move	-1197
cent	-1198
ians	-1199
ries	-1200
osp	-1201
▁May	-1202
▁[	-1203
▁along	-1204
▁fore	-1205
▁bro	-1206
▁having	-1207
▁12	-1208
▁meet	-1209
).	-1210
ained	-1211
by	-1212
▁stand	-1213
▁happen	-1214
aken	-1215
inal	-1216
▁job	-1217
reen	-1218
▁mod	-1219
▁2022	-1220
▁York	-1221
ran	-1222
app	-1223
▁When	-1224
▁vict	-1225
▁making	-1226
▁develop	-1227
▁Don	-1228
▁reve	-1229
▁2023	-1230
cept	-1231
nes	-1232
▁However	-1233
ided	-1234
▁poss	-1235
▁money	-1236
iven	-1237
▁press	-1238
ient	-1239
▁product	-1240
▁already	-1241
aff	-1242
loy	-1243
▁manag	-1244
▁political	-1245
▁hum	-1246
ony	-1247
▁less	-1248
ober	-1249
▁city	-1250
▁system	-1251
▁comple	-1252
▁death	-1253
iol	-1254
▁oper	-1255
▁mus	-1256
uthor	-1257
▁event	-1258
▁deal	-1259
▁ve	-1260
▁Co	-1261
▁200	-1262
▁final	-1263
▁change	-1264
enn	-1265
▁est	-1266
▁prof	-1267
▁vide	-1268
▁clear	-1269
lin	-1270
▁sing	-1271
▁wrote	-1272
▁number	-1273
▁working	-1274
ats	-1275
▁hit	-1276
▁Harris	-1277
▁polic	-1278
▁India	-1279
▁perform	-1280
▁mat	-1281
▁until	-1282
Credit	-1283
acy	-1284
▁cor	-1285
▁water	-1286
▁inj	-1287
els	-1288
ived	-1289
▁news	-1290
▁early	-1291
▁main	-1292
ertain	-1293
▁Europe	-1294
head	-1295
cl	-1296
▁old	-1297
▁fact	-1298
elt	-1299
▁John	-1300
▁Pro	-1301
▁South	-1302
▁current	-1303
▁X	-1304
▁men	-1305
une	-1306
▁Pol	-1307
▁Con	-1308
▁Jan	-1309
ably	-1310
ots	-1311
▁crit	-1312
▁intern	-1313
▁interest	-1314
▁ball	-1315
ying	-1316
ream	-1317
▁let	-1318
▁view	-1319
ee	-1320
port	-1321
ger	-1322
▁local	-1323
▁concer	-1324
▁Inst	-1325
▁times	-1326
▁Q	-1327
ech	-1328
▁Par	-1329
▁sent	-1330
▁Ukraine	-1331
▁infl	-1332
▁News	-1333
ament	-1334
▁full	-1335
▁fund	-1336
▁level	-1337
▁become	-1338
▁contro	-1339
▁sum	-1340
▁stri	-1341
▁investig	-1342
▁cond	-1343
▁seem	-1344
▁able	-1345
ior	-1346
▁ed	-1347
ects	-1348
▁15	-1349
▁pot	-1350
▁host	-1351
ances	-1352
iting	-1353
rence	-1354
aza	-1355
▁cou	-1356
ential	-1357
▁eas	-1358
ai	-1359
bs	-1360
▁point	-1361
▁Br	-1362
▁following	-1363
pr	-1364
▁American	-1365
earch	-1366
▁small	-1367
ized	-1368
▁join	-1369
▁Go	-1370
▁tell	-1371
▁military	-1372
▁side	-1373
▁third	-1374
▁asked	-1375
ars	-1376
ata	-1377
▁cut	-1378
BC	-1379
▁must	-1380
▁Pal	-1381
▁appear	-1382
arge	-1383
▁test	-1384
bo	-1385
wards	-1386
lier	-1387
ming	-1388
ract	-1389
▁close	-1390
▁Me	-1391
▁House	-1392
▁fur	-1393
▁chall	-1394
▁bat	-1395
ases	-1396
▁comes	-1397
idd	-1398
▁mar	-1399
iversity	-1400
":"	-1401
▁saying	-1402
▁statement	-1403
▁organ	-1404
▁members	-1405
irl	-1406
▁tax	-1407
▁why	-1408
▁half	-1409
▁After	-1410
▁dra	-1411
ended	-1412
ortun	-1413
▁chang	-1414
▁City	-1415
▁England	-1416
▁Russia	-1417
ront	-1418
▁Sund	-1419
mit	-1420
utes	-1421
▁No	-1422
mp	-1423
ards	-1424
gether	-1425
▁together	-1426
▁food	-1427
uture	-1428
ature	-1429
▁ever	-1430
ccess	-1431
▁face	-1432
artment	-1433
▁least	-1434
aled	-1435
▁often	-1436
eral	-1437
here	-1438
▁All	-1439
▁hold	-1440
▁give	-1441
ene	-1442
most	-1443
uly	-1444
▁Mond	-1445
▁viol	-1446
▁Gaza	-1447
▁among	-1448
▁known	-1449
20	-1450
▁list	-1451
▁short	-1452
ush	-1453
▁today	-1454
▁sever	-1455
▁getting	-1456
iam	-1457
▁house	-1458
▁commit	-1459
ondon	-1460
▁taken	-1461
idence	-1462
▁process	-1463
▁decision	-1464
▁invol	-1465
ection	-1466
▁free	-1467
orld	-1468
▁Comm	-1469
▁Aust	-1470
af	-1471
▁important	-1472
▁thing	-1473
▁Christ	-1474
▁form	-1475
▁Sw	-1476
1,	-1477
▁due	-1478
▁whether	-1479
1.	-1480
ider	-1481
▁success	-1482
stand	-1483
▁appe	-1484
▁charg	-1485
▁ago	-1486
ified	-1487
▁With	-1488
itions	-1489
▁Monday	-1490
▁compet	-1491
▁national	-1492
▁book	-1493
rict	-1494
▁opt	-1495
▁Friday	-1496
ison	-1497
uper	-1498
▁Sunday	-1499
let	-1500
▁author	-1501
▁taking	-1502
▁line	-1503
▁London	-1504
ried	-1505
▁emp	-1506
▁players	-1507
▁live	-1508
▁future	-1509
▁To	-1510
go	-1511
▁doing	-1512
ane	-1513
▁thought	-1514
▁series	-1515
▁several	-1516
rop	-1517
▁bit	-1518
▁games	-1519
▁given	-1520
▁inform	-1521
▁Ham	-1522
rew	-1523
hel	-1524
▁risk	-1525
▁fans	-1526
ead	-1527
▁po	-1528
▁Tues	-1529
▁started	-1530
▁mean	-1531
▁video	-1532
▁prop	-1533
▁likely	-1534
▁club	-1535
▁Tuesday	-1536
-1	-1537
▁pat	-1538
etty	-1539
ggest	-1540
▁18	-1541
ium	-1542
▁laun	-1543
ades	-1544
▁West	-1545
crib	-1546
▁cand	-1547
▁moment	-1548
▁coun	-1549
▁30	-1550
▁proble	-1551
▁ide	-1552
ising	-1553
▁enough	-1554
▁train	-1555
▁film	-1556
▁suggest	-1557
▁further	-1558
for	-1559
▁Oct	-1560
,""	-1561
▁While	-1562
ales	-1563
▁leaders	-1564
echn	-1565
▁ben	-1566
▁strong	-1567
pping	-1568
▁fail	-1569
▁Wed	-1570
▁Ms	-1571
▁sex	-1572
▁done	-1573
ept	-1574
aren	-1575
ift	-1576
▁Col	-1577
▁rul	-1578
arm	-1579
▁val	-1580
▁foc	-1581
ored	-1582
▁security	-1583
ories	-1584
▁sol	-1585
▁pros	-1586
▁walk	-1587
50	-1588
▁expected	-1589
ring	-1590
▁once	-1591
▁const	-1592
aut	-1593
▁officials	-1594
▁ri	-1595
▁hig	-1596
▁relations	-1597
▁His	-1598
▁kind	-1599
▁market	-1600
usp	-1601
▁dr	-1602
▁China	-1603
▁ant	-1604
▁Lab	-1605
▁Will	-1606
▁Wednes	-1607
▁behind	-1608
ides	-1609
▁large	-1610
▁gl	-1611
▁weeks	-1612
▁area	-1613
▁What	-1614
▁writ	-1615
▁targ	-1616
▁Ab	-1617
ination	-1618
▁Wednesday	-1619
▁fight	-1620
ator	-1621
▁read	-1622
empt	-1623
me	-1624
imate	-1625
▁doesn	-1626
▁Thurs	-1627
▁cele	-1628
▁fall	-1629
▁bring	-1630
▁looking	-1631
uge	-1632
ission	-1633
▁threat	-1634
▁Thursday	-1635
ones	-1636
▁cho	-1637
ective	-1638
▁break	-1639
back	-1640
▁National	-1641
▁Man	-1642
▁role	-1643
▁candid	-1644
▁hours	-1645
▁sure	-1646
▁design	-1647
wh	-1648
▁World	-1649
▁exc	-1650
▁played	-1651
▁Ke	-1652
▁coming	-1653
▁continue	-1654
ern	-1655
▁announced	-1656
▁yet	-1657
▁program	-1658
▁shared	-1659
alif	-1660
▁mother	-1661
▁equ	-1662
ize	-1663
fic	-1664
▁Ge	-1665
yl	-1666
▁trying	-1667
▁signific	-1668
ospital	-1669
▁Russian	-1670
▁watch	-1671
▁comment	-1672
▁community	-1673
lor	-1674
▁within	-1675
▁office	-1676
ashing	-1677
▁State	-1678
▁others	-1679
itive	-1680
lob	-1681
▁eng	-1682
▁cust	-1683
▁treat	-1684
▁Bar	-1685
▁woman	-1686
ogra	-1687
▁Minister	-1688
▁susp	-1689
tain	-1690
▁using	-1691
▁arrest	-1692
ids	-1693
inian	-1694
▁Pl	-1695
▁fire	-1696
order	-1697
ults	-1698
oke	-1699
reme	-1700
▁body	-1701
ality	-1702
▁experience	-1703
reet	-1704
▁Ger	-1705
▁indust	-1706
▁particular	-1707
ourt	-1708
▁story	-1709
▁history	-1710
▁conv	-1711
▁tre	-1712
icture	-1713
▁result	-1714
reed	-1715
▁land	-1716
▁Sec	-1717
▁fun	-1718
▁Im	-1719
▁ens	-1720
aly	-1721
aps	-1722
▁human	-1723
▁special	-1724
▁mess	-1725
ederal	-1726
▁occ	-1727
▁interview	-1728
ences	-1729
▁points	-1730
▁percent	-1731
▁techn	-1732
▁Donald	-1733
▁priv	-1734
▁hope	-1735
ns	-1736
▁killed	-1737
▁impro	-1738
▁hom	-1739
ensive	-1740
minist	-1741
▁beg	-1742
hern	-1743
aced	-1744
▁access	-1745
aturday	-1746
aving	-1747
▁confir	-1748
eb	-1749
rown	-1750
▁stay	-1751
▁saw	-1752
▁Israeli	-1753
▁wa	-1754
▁class	-1755
▁almost	-1756
▁data	-1757
▁Gu	-1758
work	-1759
▁vote	-1760
▁question	-1761
ressed	-1762
ask	-1763
▁Or	-1764
uary	-1765
aster	-1766
resent	-1767
ability	-1768
▁11	-1769
ches	-1770
▁bill	-1771
▁phot	-1772
▁deep	-1773
0.	-1774
▁lat	-1775
▁June	-1776
oon	-1777
▁activ	-1778
▁Saturday	-1779
▁career	-1780
▁name	-1781
▁fav	-1782
▁significant	-1783
▁ste	-1784
▁lim	-1785
▁jour	-1786
▁Austral	-1787
▁earlier	-1788
▁16	-1789
que	-1790
lood	-1791
▁wanted	-1792
▁friends	-1793
▁minutes	-1794
ners	-1795
▁pick	-1796
▁ident	-1797
▁13	-1798
▁Ass	-1799
my	-1800
time	-1801
▁14	-1802
▁quick	-1803
▁staff	-1804
▁jud	-1805
▁Black	-1806
▁ahead	-1807
▁spok	-1808
aid	-1809
rain	-1810
▁describ	-1811
▁Just	-1812
▁hot	-1813
▁front	-1814
▁led	-1815
▁everything	-1816
ox	-1817
oci	-1818
▁lost	-1819
▁imm	-1820
▁Mus	-1821
▁late	-1822
gr	-1823
▁July	-1824
▁someone	-1825
▁summer	-1826
▁issues	-1827
▁certain	-1828
era	-1829
off	-1830
▁financ	-1831
▁mor	-1832
▁heart	-1833
▁Ed	-1834
▁ty	-1835
▁October	-1836
▁emer	-1837
▁revealed	-1838
▁dou	-1839
▁couple	-1840
▁outside	-1841
▁opportun	-1842
ror	-1843
ilar	-1844
▁match	-1845
▁Dec	-1846
▁British	-1847
sel	-1848
uff	-1849
▁El	-1850
▁Court	-1851
▁League	-1852
verage	-1853
▁room	-1854
▁North	-1855
▁Ex	-1856
mber	-1857
▁Sen	-1858
ology	-1859
▁repl	-1860
▁ener	-1861
▁policy	-1862
cil	-1863
sc	-1864
asing	-1865
▁alle	-1866
▁felt	-1867
▁Afric	-1868
▁means	-1869
ds	-1870
▁countries	-1871
aces	-1872
ither	-1873
▁lear	-1874
▁incident	-1875
ky	-1876
ops	-1877
▁trad	-1878
▁ground	-1879
▁Gr	-1880
▁step	-1881
▁Dep	-1882
itch	-1883
ovember	-1884
▁enc	-1885
▁son	-1886
▁relationship	-1887
▁init	-1888
▁leader	-1889
▁age	-1890
▁low	-1891
▁March	-1892
▁pub	-1893
▁online	-1894
▁ur	-1895
▁forward	-1896
▁employ	-1897
▁arg	-1898
▁girl	-1899
pril	-1900
▁Sept	-1901
▁held	-1902
▁believe	-1903
▁Dav	-1904
ler	-1905
▁sn	-1906
att	-1907
This	-1908
lection	-1909
▁January	-1910
▁November	-1911
▁Net	-1912
▁international	-1913
,'	-1914
▁Her	-1915
▁visit	-1916
▁dead	-1917
▁benef	-1918
▁music	-1919
umb	-1920
▁course	-1921
▁Ro	-1922
▁pain	-1923
▁key	-1924
▁died	-1925
▁Pe	-1926
▁ey	-1927
▁avail	-1928
aughter	-1929
rugg	-1930
He	-1931
of	-1932
▁April	-1933
▁present	-1934
▁Republican	-1935
▁mult	-1936
▁everyone	-1937
int	-1938
par	-1939
lish	-1940
▁began	-1941
▁shows	-1942
▁impact	-1943
▁billion	-1944
▁...	-1945
▁Cent	-1946
▁Cong	-1947
▁legal	-1948
▁voters	-1949
▁199	-1950
▁Geor	-1951
lished	-1952
▁Scot	-1953
▁suff	-1954
ung	-1955
uation	-1956
▁Acc	-1957
▁dev	-1958
iron	-1959
▁arri	-1960
▁Off	-1961
▁50	-1962
▁feat	-1963
yn	-1964
▁Aug	-1965
▁playing	-1966
▁tot	-1967
cast	-1968
ana	-1969
▁wasn	-1970
▁makes	-1971
▁minister	-1972
▁desp	-1973
rup	-1974
▁became	-1975
▁price	-1976
ampions	-1977
▁nearly	-1978
lobal	-1979
▁University	-1980
emp	-1981
▁action	-1982
▁Labour	-1983
▁control	-1984
▁service	-1985
▁energy	-1986
ha	-1987
▁fig	-1988
▁My	-1989
ference	-1990
▁understand	-1991
▁Ne	-1992
▁administ	-1993
amed	-1994
▁expect	-1995
▁esp	-1996
ecially	-1997
▁German	-1998
▁custom	-1999
▁$1	-2000
▁possible	-2001
ety	-2002
rug	-2003
ender	-2004
iding	-2005
▁caus	-2006
arents	-2007
osing	-2008
joy	-2009
▁released	-2010
aker	-2011
▁information	-2012
9,	-2013
▁Bo	-2014
icket	-2015
▁wife	-2016
▁share	-2017
▁account	-2018
▁running	-2019
▁ap	-2020
▁bar	-2021
itional	-2022
pris	-2023
▁issue	-2024
▁recently	-2025
ivil	-2026
iod	-2027
▁dam	-2028
▁order	-2029
arter	-2030
▁Can	-2031
▁target	-2032
ps	-2033
▁loss	-2034
▁offer	-2035
30	-2036
▁Scott	-2037
▁hospital	-2038
▁football	-2039
▁alleged	-2040
▁Part	-2041
▁Some	-2042
ims	-2043
▁famil	-2044
inc	-2045
▁Com	-2046
▁pur	-2047
ument	-2048
▁race	-2049
▁plans	-2050
ograph	-2051
ulation	-2052
not	-2053
ficult	-2054
ashington	-2055
ests	-2056
▁sour	-2057
▁strugg	-2058
▁17	-2059
▁goal	-2060
▁building	-2061
▁fir	-2062
fully	-2063
▁himself	-2064
▁Washington	-2065
▁seven	-2066
uk	-2067
▁var	-2068
▁wind	-2069
▁needs	-2070
ached	-2071
▁aw	-2072
lymp	-2073
▁Sun	-2074
▁red	-2075
▁Police	-2076
▁AI	-2077
enal	-2078
▁services	-2079
elling	-2080
esc	-2081
▁chief	-2082
▁Scotland	-2083
▁anything	-2084
aur	-2085
ains	-2086
▁£1	-2087
▁poll	-2088
▁nation	-2089
▁Sm	-2090
na	-2091
▁father	-2092
▁living	-2093
▁celebr	-2094
ban	-2095
▁TV	-2096
ivid	-2097
▁cult	-2098
yle	-2099
▁proper	-2100
ging	-2101
▁abs	-2102
▁Olymp	-2103
▁available	-2104
▁states	-2105
medi	-2106
▁compan	-2107
▁spot	-2108
▁director	-2109
▁America	-2110
oring	-2111
▁seek	-2112
▁difficult	-2113
over	-2114
▁mass	-2115
▁lives	-2116
▁Dr	-2117
▁Ang	-2118
▁Iran	-2119
▁respond	-2120
▁25	-2121
▁Em	-2122
▁Joe	-2123
▁Mich	-2124
▁detail	-2125
▁actually	-2126
▁stop	-2127
iety	-2128
ators	-2129
lement	-2130
▁eight	-2131
ode	-2132
▁space	-2133
▁profess	-2134
▁ple	-2135
ently	-2136
▁creat	-2137
▁latest	-2138
▁attempt	-2139
uel	-2140
▁tour	-2141
▁travel	-2142
▁especially	-2143
▁ban	-2144
▁bank	-2145
▁fell	-2146
▁discuss	-2147
str	-2148
▁leave	-2149
agram	-2150
▁enjoy	-2151
room	-2152
▁States	-2153
▁students	-2154
irc	-2155
▁bad	-2156
▁saf	-2157
▁coll	-2158
ks	-2159
anger	-2160
▁round	-2161
▁financial	-2162
val	-2163
▁non	-2164
▁Count	-2165
▁focus	-2166
▁potential	-2167
▁sen	-2168
▁soon	-2169
▁period	-2170
▁player	-2171
▁European	-2172
band	-2173
▁Palest	-2174
ecutive	-2175
?"	-2176
▁light	-2177
read	-2178
▁despite	-2179
use	-2180
ought	-2181
▁conn	-2182
▁meeting	-2183
▁Indian	-2184
▁claimed	-2185
ape	-2186
▁den	-2187
epend	-2188
rought	-2189
ural	-2190
atic	-2191
duced	-2192
▁coach	-2193
▁respons	-2194
▁road	-2195
▁100	-2196
selves	-2197
▁federal	-2198
▁Congress	-2199
▁mid	-2200
▁position	-2201
ips	-2202
▁September	-2203
▁tit	-2204
han	-2205
▁parents	-2206
▁industry	-2207
▁Calif	-2208
▁received	-2209
▁Now	-2210
ogn	-2211
hold	-2212
ery	-2213
▁Not	-2214
▁rate	-2215
▁net	-2216
▁huge	-2217
▁White	-2218
▁complete	-2219
▁Sy	-2220
▁plat	-2221
▁August	-2222
▁24	-2223
▁include	-2224
hers	-2225
omin	-2226
▁prob	-2227
body	-2228
▁dest	-2229
▁similar	-2230
▁mis	-2231
though	-2232
onse	-2233
gency	-2234
ises	-2235
▁provide	-2236
nal	-2237
▁meas	-2238
9.	-2239
▁env	-2240
atives	-2241
▁needed	-2242
▁nothing	-2243
▁single	-2244
▁Red	-2245
▁morning	-2246
▁continued	-2247
de	-2248
▁pract	-2249
▁quite	-2250
▁ce	-2251
▁resident	-2252
▁hon	-2253
▁self	-2254
field	-2255
▁Hamas	-2256
▁According	-2257
▁immedi	-2258
▁companies	-2259
ibility	-2260
lock	-2261
iddle	-2262
light	-2263
▁King	-2264
▁trial	-2265
iec	-2266
ule	-2267
▁presidential	-2268
pro	-2269
▁compl	-2270
▁Instagram	-2271
▁doc	-2272
▁stage	-2273
▁charac	-2274
icle	-2275
ala	-2276
ined	-2277
▁border	-2278
▁daughter	-2279
▁sold	-2280
▁track	-2281
ival	-2282
0,	-2283
tion	-2284
oint	-2285
ction	-2286
gest	-2287
▁deter	-2288
▁Californ	-2289
▁neg	-2290
ael	-2291
▁showed	-2292
▁represent	-2293
▁&	-2294
▁mind	-2295
▁Feb	-2296
▁personal	-2297
play	-2298
▁squ	-2299
▁Char	-2300
▁mur	-2301
▁mot	-2302
▁gold	-2303
▁reason	-2304
▁rights	-2305
▁leading	-2306
▁challeng	-2307
▁cross	-2308
▁super	-2309
▁global	-2310
▁investigation	-2311
▁shot	-2312
urning	-2313
▁Images	-2314
You	-2315
▁App	-2316
▁region	-2317
▁Pa	-2318
▁drug	-2319
▁shoot	-2320
hi	-2321
▁cris	-2322
duce	-2323
▁civil	-2324
▁response	-2325
▁Gl	-2326
ients	-2327
▁claims	-2328
▁accused	-2329
▁platform	-2330
▁previously	-2331
5.	-2332
ilt	-2333
▁Department	-2334
aper	-2335
Wh	-2336
▁War	-2337
▁aut	-2338
▁based	-2339
▁review	-2340
▁California	-2341
▁BBC	-2342
▁hol	-2343
▁whole	-2344
▁fr	-2345
▁buy	-2346
▁ment	-2347
igr	-2348
rench	-2349
ara	-2350
▁rather	-2351
▁isn	-2352
▁quarter	-2353
lex	-2354
▁bas	-2355
▁larg	-2356
▁prison	-2357
akers	-2358
▁examp	-2359
▁evidence	-2360
▁nec	-2361
▁individ	-2362
▁popular	-2363
▁colle	-2364
retary	-2365
▁These	-2366
▁economy	-2367
▁happened	-2368
▁increase	-2369
che	-2370
▁di	-2371
▁tw	-2372
▁check	-2373
▁performance	-2374
den	-2375
▁Park	-2376
while	-2377
▁aud	-2378
▁remains	-2379
▁confirmed	-2380
▁crim	-2381
fer	-2382
ges	-2383
iber	-2384
▁laws	-2385
▁longer	-2386
8,	-2387
▁reach	-2388
▁worked	-2389
▁general	-2390
▁Democratic	-2391
ada	-2392
▁wrong	-2393
▁chance	-2394
ese	-2395
ares	-2396
'.	-2397
kn	-2398
▁reports	-2399
usband	-2400
bed	-2401
aged	-2402
▁worth	-2403
▁safe	-2404
▁safety	-2405
▁address	-2406
▁higher	-2407
▁Cup	-2408
2,	-2409
▁Mo	-2410
iger	-2411
▁hor	-2412
▁hous	-2413
▁town	-2414
avy	-2415
mas	-2416
▁gave	-2417
▁surpris	-2418
▁involved	-2419
▁anyone	-2420
ironment	-2421
ford	-2422
▁sle	-2423
▁inside	-2424
▁Day	-2425
▁matter	-2426
▁economic	-2427
2.	-2428
▁Paris	-2429
▁areas	-2430
ze	-2431
▁Getty	-2432
▁William	-2433
▁Star	-2434
▁administration	-2435
▁critic	-2436
fect	-2437
iple	-2438
irth	-2439
ends	-2440
▁release	-2441
▁December	-2442
▁problem	-2443
▁Med	-2444
▁begin	-2445
▁whose	-2446
▁France	-2447
▁brought	-2448
▁beaut	-2449
ribut	-2450
▁white	-2451
▁workers	-2452
▁40	-2453
▁demand	-2454
chie	-2455
▁div	-2456
There	-2457
orters	-2458
▁private	-2459
▁situation	-2460
▁protect	-2461
like	-2462
▁More	-2463
▁broad	-2464
▁spent	-2465
▁results	-2466
▁gra	-2467
▁prior	-2468
▁capital	-2469
ateg	-2470
▁Pat	-2471
▁foreign	-2472
▁veh	-2473
▁currently	-2474
▁orig	-2475
agn	-2476
▁victory	-2477
▁particularly	-2478
▁Sam	-2479
ault	-2480
down	-2481
emic	-2482
▁Mon	-2483
▁entire	-2484
▁idea	-2485
▁David	-2486
▁total	-2487
▁dog	-2488
ify	-2489
▁cases	-2490
ighb	-2491
iant	-2492
ilities	-2493
▁port	-2494
▁husband	-2495
oura	-2496
▁growth	-2497
mon	-2498
▁instead	-2499
ray	-2500
▁lab	-2501
▁French	-2502
▁biggest	-2503
▁pressure	-2504
▁By	-2505
▁costs	-2506
▁heard	-2507
set	-2508
▁influ	-2509
liament	-2510
▁board	-2511
5,	-2512
ico	-2513
reg	-2514
ocked	-2515
unt	-2516
▁Hol	-2517
▁Ste	-2518
istan	-2519
osition	-2520
▁experi	-2521
sp	-2522
ills	-2523
▁Dan	-2524
anche	-2525
enced	-2526
▁black	-2527
▁events	-2528
utin	-2529
▁East	-2530
itness	-2531
lear	-2532
▁stra	-2533
▁term	-2534
ruary	-2535
▁z	-2536
▁tried	-2537
hood	-2538
▁kids	-2539
▁assist	-2540
ya	-2541
▁gun	-2542
▁research	-2543
▁comb	-2544
▁phone	-2545
▁via	-2546
alled	-2547
▁field	-2548
▁Mor	-2549
ows	-2550
oming	-2551
▁prep	-2552
▁February	-2553
▁Angel	-2554
▁turned	-2555
▁thous	-2556
▁pack	-2557
▁member	-2558
uit	-2559
▁happy	-2560
▁example	-2561
ino	-2562
▁manager	-2563
wood	-2564
▁Ear	-2565
▁described	-2566
ees	-2567
7,	-2568
come	-2569
ores	-2570
▁Democrats	-2571
6,	-2572
ny	-2573
▁hands	-2574
oid	-2575
▁either	-2576
**	-2577
▁recogn	-2578
▁project	-2579
▁violence	-2580
▁else	-2581
▁San	-2582
▁box	-2583
▁educ	-2584
▁appeared	-2585
sw	-2586
▁prim	-2587
▁James	-2588
▁speak	-2589
▁included	-2590
RE	-2591
isl	-2592
udget	-2593
▁probably	-2594
▁Australia	-2595
tee	-2596
ization	-2597
▁families	-2598
▁towards	-2599
▁extra	-2600
▁County	-2601
itution	-2602
▁average	-2603
ened	-2604
▁however	-2605
▁previous	-2606
▁knew	-2607
▁fear	-2608
fort	-2609
▁esc	-2610
▁concerns	-2611
lev	-2612
ook	-2613
▁easy	-2614
▁ep	-2615
▁grand	-2616
▁pred	-2617
isc	-2618
▁phys	-2619
▁development	-2620
iff	-2621
▁Te	-2622
▁Res	-2623
▁Cons	-2624
▁takes	-2625
▁Per	-2626
ressive	-2627
▁neighb	-2628
▁opportunity	-2629
pper	-2630
▁wants	-2631
▁tro	-2632
▁ensure	-2633
idge	-2634
▁Air	-2635
arent	-2636
▁themselves	-2637
ey	-2638
▁dro	-2639
▁insp	-2640
▁pair	-2641
▁lower	-2642
▁Pet	-2643
▁hear	-2644
▁achie	-2645
-2	-2646
icted	-2647
▁rout	-2648
▁conditions	-2649
iles	-2650
▁Sch	-2651
▁clean	-2652
▁Je	-2653
cement	-2654
▁Britain	-2655
▁Christmas	-2656
▁sense	-2657
▁looked	-2658
▁prices	-2659
▁attacks	-2660
3.	-2661
▁gone	-2662
▁efforts	-2663
▁medical	-2664
▁elections	-2665
▁sound	-2666
▁arrested	-2667
▁brand	-2668
Picture	-2669
▁cancer	-2670
ening	-2671
▁accept	-2672
▁forces	-2673
▁allowed	-2674
ude	-2675
▁improve	-2676
ama	-2677
nings	-2678
▁authorities	-2679
▁bab	-2680
▁Mark	-2681
▁circ	-2682
▁pret	-2683
▁198	-2684
▁Jack	-2685
mitted	-2686
▁changes	-2687
alt	-2688
▁vir	-2689
▁Party	-2690
▁groups	-2691
▁Do	-2692
▁senior	-2693
ida	-2694
▁Africa	-2695
▁La	-2696
▁weekend	-2697
▁questions	-2698
▁lack	-2699
▁song	-2700
▁approach	-2701
hest	-2702
▁ill	-2703
▁anti	-2704
▁Prime	-2705
▁Another	-2706
▁quickly	-2707
based	-2708
▁sect	-2709
▁launched	-2710
▁Del	-2711
▁environment	-2712
▁create	-2713
▁crow	-2714
▁link	-2715
▁climate	-2716
▁force	-2717
▁leaving	-2718
▁vo	-2719
▁moved	-2720
▁amount	-2721
▁challen	-2722
▁Ben	-2723
▁repe	-2724
▁birth	-2725
▁cause	-2726
▁drink	-2727
▁charges	-2728
▁Sim	-2729
▁strik	-2730
▁prevent	-2731
▁majority	-2732
▁park	-2733
▁regular	-2734
rast	-2735
▁Cor	-2736
▁ord	-2737
undred	-2738
▁agency	-2739
▁training	-2740
▁nine	-2741
▁terms	-2742
▁candidate	-2743
do	-2744
▁Last	-2745
▁Phot	-2746
▁doct	-2747
▁helped	-2748
If	-2749
key	-2750
ully	-2751
ding	-2752
▁vers	-2753
▁clos	-2754
ply	-2755
▁cam	-2756
rying	-2757
▁Niger	-2758
▁danger	-2759
▁posted	-2760
▁decided	-2761
▁growing	-2762
▁Americans	-2763
mark	-2764
▁draw	-2765
▁peace	-2766
▁crisis	-2767
cy	-2768
raft	-2769
▁Mad	-2770
ht	-2771
ugh	-2772
▁unc	-2773
▁intro	-2774
▁gen	-2775
▁unf	-2776
la	-2777
ma	-2778
▁piec	-2779
igration	-2780
</	-2781
TV	-2782
▁flo	-2783
acing	-2784
▁adding	-2785
▁vol	-2786
▁conc	-2787
▁scene	-2788
▁strike	-2789
raz	-2790
▁consider	-2791
▁criminal	-2792
▁Act	-2793
▁conduct	-2794
▁perfect	-2795
▁serious	-2796
▁increasing	-2797
▁decl	-2798
▁speech	-2799
▁decades	-2800
bur	-2801
▁sil	-2802
aging	-2803
asons	-2804
▁Paul	-2805
▁weap	-2806
ension	-2807
▁cannot	-2808
They	-2809
▁Roy	-2810
▁debate	-2811
inese	-2812
▁paid	-2813
▁Times	-2814
▁exist	-2815
▁study	-2816
going	-2817
▁lif	-2818
▁looks	-2819
uty	-2820
▁aid	-2821
estern	-2822
▁alleg	-2823
▁En	-2824
ructure	-2825
▁myself	-2826
▁multiple	-2827
▁amb	-2828
▁cal	-2829
8.	-2830
aily	-2831
itiz	-2832
▁Spe	-2833
▁Bro	-2834
istic	-2835
rend	-2836
▁Met	-2837
illed	-2838
▁wide	-2839
▁teams	-2840
▁ways	-2841
▁ready	-2842
▁oil	-2843
▁sho	-2844
▁doub	-2845
ique	-2846
▁ess	-2847
▁typ	-2848
▁thousands	-2849
7.	-2850
pm	-2851
▁Mart	-2852
▁rock	-2853
▁1.	-2854
uries	-2855
▁winning	-2856
3,	-2857
▁rates	-2858
▁rules	-2859
▁ten	-2860
▁trust	-2861
▁treatment	-2862
unch	-2863
ope	-2864
▁vill	-2865
▁collect	-2866
friend	-2867
▁disapp	-2868
amb	-2869
▁bed	-2870
▁cover	-2871
▁character	-2872
▁Smith	-2873
▁estab	-2874
▁Chinese	-2875
emb	-2876
▁firm	-2877
▁pers	-2878
In	-2879
▁boy	-2880
▁Mean	-2881
apan	-2882
olute	-2883
▁date	-2884
igital	-2885
▁centre	-2886
▁journal	-2887
ceed	-2888
uing	-2889
▁itself	-2890
6.	-2891
AP	-2892
▁Tex	-2893
▁hur	-2894
▁Prem	-2895
reland	-2896
.,	-2897
▁21	-2898
iers	-2899
▁Fin	-2900
▁sun	-2901
anchester	-2902
▁followed	-2903
!"	-2904
▁pan	-2905
▁norm	-2906
▁wond	-2907
▁goes	-2908
haps	-2909
▁Los	-2910
▁cast	-2911
espite	-2912
▁independ	-2913
▁Of	-2914
▁property	-2915
▁alongside	-2916
▁inflation	-2917
▁hy	-2918
▁Serv	-2919
▁Michael	-2920
eth	-2921
▁tem	-2922
▁works	-2923
▁partner	-2924
airs	-2925
right	-2926
▁Coun	-2927
▁beat	-2928
▁ended	-2929
▁giving	-2930
▁officers	-2931
4,	-2932
▁fan	-2933
▁brother	-2934
▁er	-2935
▁bal	-2936
▁emot	-2937
▁executive	-2938
sy	-2939
alse	-2940
outhern	-2941
▁fourth	-2942
▁Scottish	-2943
ampionship	-2944
▁partners	-2945
▁immediately	-2946
▁sport	-2947
▁sto	-2948
▁Even	-2949
▁range	-2950
▁reb	-2951
▁Kore	-2952
▁2024.	-2953
▁Street	-2954
▁legisl	-2955
▁message	-2956
4.	-2957
ona	-2958
rap	-2959
ires	-2960
istry	-2961
▁fair	-2962
▁site	-2963
▁couldn	-2964
▁failed	-2965
▁customers	-2966
▁Phil	-2967
▁dram	-2968
▁kick	-2969
overed	-2970
▁attention	-2971
▁cy	-2972
iled	-2973
reng	-2974
▁sat	-2975
▁vac	-2976
▁deliver	-2977
ushed	-2978
▁particip	-2979
lict	-2980
▁runs	-2981
▁Manchester	-2982
aught	-2983
▁homes	-2984
▁Chief	-2985
▁title	-2986
ams	-2987
asion	-2988
▁favour	-2989
▁hundred	-2990
▁opening	-2991
▁products	-2992
▁prosecut	-2993
oper	-2994
▁wel	-2995
▁levels	-2996
ani	-2997
▁Japan	-2998
▁forced	-2999
esperson	-3000
▁encoura	-3001
▁offers	-3002
▁Meanwhile	-3003
▁2.	-3004
▁fast	-3005
▁surv	-3006
▁Germany	-3007
▁contact	-3008
▁spending	-3009
▁production	-3010
▁separ	-3011
▁raised	-3012
▁explained	-3013
▁investment	-3014
▁i	-3015
aves	-3016
▁histor	-3017
▁talking	-3018
▁Op	-3019
▁gets	-3020
entially	-3021
▁anim	-3022
isions	-3023
▁goals	-3024
▁touch	-3025
▁officer	-3026
▁Ukrainian	-3027
▁published	-3028
AT	-3029
ibly	-3030
▁bag	-3031
▁rise	-3032
▁Ireland	-3033
vey	-3034
book	-3035
▁sens	-3036
▁above	-3037
▁emb	-3038
arian	-3039
▁sexual	-3040
▁webs	-3041
gu	-3042
het	-3043
▁Mur	-3044
▁true	-3045
▁launch	-3046
ervative	-3047
▁Republicans	-3048
▁Flor	-3049
▁Then	-3050
▁spokesperson	-3051
▁agre	-3052
▁answ	-3053
isation	-3054
▁Intern	-3055
itor	-3056
▁rev	-3057
▁swe	-3058
ellig	-3059
illeg	-3060
ession	-3061
▁convers	-3062
▁reached	-3063
But	-3064
▁(1	-3065
▁aim	-3066
ken	-3067
▁natur	-3068
▁consum	-3069
▁includes	-3070
▁Sing	-3071
▁sched	-3072
▁challenge	-3073
▁ren	-3074
▁cat	-3075
▁effort	-3076
▁problems	-3077
▁1,	-3078
▁rad	-3079
▁har	-3080
▁ult	-3081
▁Alex	-3082
▁starting	-3083
▁Government	-3084
▁slow	-3085
▁Despite	-3086
-0	-3087
ishing	-3088
▁Other	-3089
▁Texas	-3090
▁common	-3091
▁govern	-3092
▁streng	-3093
▁complain	-3094
erc	-3095
▁2024,	-3096
▁noted	-3097
▁defe	-3098
▁comments	-3099
jects	-3100
ij	-3101
▁bur	-3102
lying	-3103
▁lawy	-3104
▁mill	-3105
▁block	-3106
▁dream	-3107
▁feeling	-3108
▁Kam	-3109
▁Ken	-3110
▁lik	-3111
orney	-3112
▁words	-3113
▁People	-3114
▁technology	-3115
▁ver	-3116
aches	-3117
sequ	-3118
▁blood	-3119
▁model	-3120
▁seems	-3121
▁parties	-3122
vere	-3123
yond	-3124
ander	-3125
upreme	-3126
▁built	-3127
▁sleep	-3128
▁central	-3129
▁challenges	-3130
vent	-3131
oking	-3132
AS	-3133
▁named	-3134
▁Rober	-3135
▁spoke	-3136
▁specific	-3137
resh	-3138
▁skin	-3139
▁actor	-3140
▁Johnson	-3141
miss	-3142
ounts	-3143
▁illeg	-3144
▁value	-3145
▁Tik	-3146
▁search	-3147
Tok	-3148
ari	-3149
▁197	-3150
▁Tay	-3151
▁card	-3152
▁meant	-3153
▁stock	-3154
▁Che	-3155
▁High	-3156
▁First	-3157
▁calls	-3158
ago	-3159
▁2020	-3160
▁Bank	-3161
▁roll	-3162
ression	-3163
▁injury	-3164
▁conflict	-3165
▁politics	-3166
▁residents	-3167
aded	-3168
anda	-3169
ston	-3170
▁save	-3171
▁sell	-3172
rief	-3173
▁nar	-3174
▁pretty	-3175
▁warned	-3176
▁weather	-3177
▁positive	-3178
▁quality	-3179
van	-3180
ester	-3181
▁kept	-3182
▁changed	-3183
rab	-3184
adium	-3185
▁joined	-3186
omb	-3187
▁Associ	-3188
yal	-3189
▁Mac	-3190
▁trip	-3191
▁Putin	-3192
▁Office	-3193
▁extreme	-3194
▁conference	-3195
▁capt	-3196
ements	-3197
orthern	-3198
▁sal	-3199
▁hair	-3200
▁During	-3201
▁Mod	-3202
▁heat	-3203
▁source	-3204
▁Angeles	-3205
▁reflect	-3206
▁MP	-3207
▁nom	-3208
action	-3209
ortion	-3210
▁2022,	-3211
▁avoid	-3212
▁wat	-3213
▁crime	-3214
▁exact	-3215
▁straight	-3216
lam	-3217
▁EU	-3218
▁fem	-3219
▁users	-3220
▁compared	-3221
▁returned	-3222
▁effective	-3223
60	-3224
asc	-3225
▁Many	-3226
▁green	-3227
▁mental	-3228
vil	-3229
▁Rob	-3230
▁amid	-3231
▁necess	-3232
▁Cap	-3233
▁bow	-3234
▁prime	-3235
▁TikTok	-3236
▁budget	-3237
▁funding	-3238
ground	-3239
▁Florida	-3240
ems	-3241
term	-3242
▁jobs	-3243
ole	-3244
▁Jos	-3245
▁Que	-3246
▁Two	-3247
▁holiday	-3248
▁restaur	-3249
▁Tw	-3250
lands	-3251
▁drive	-3252
igrants	-3253
▁contract	-3254
por	-3255
angu	-3256
omen	-3257
▁obv	-3258
▁22	-3259
▁Fox	-3260
▁Tra	-3261
night	-3262
coming	-3263
▁Harry	-3264
▁murder	-3265
bre	-3266
enty	-3267
▁Tom	-3268
▁From	-3269
idered	-3270
▁Green	-3271
▁leadership	-3272
St	-3273
oul	-3274
▁seeing	-3275
▁simply	-3276
▁alone	-3277
imately	-3278
99	-3279
▁rain	-3280
iction	-3281
▁crowd	-3282
▁opened	-3283
▁communities	-3284
raw	-3285
▁baby	-3286
▁regul	-3287
▁associ	-3288
ously	-3289
▁movie	-3290
▁document	-3291
▁citiz	-3292
▁indic	-3293
▁caused	-3294
▁issued	-3295
▁details	-3296
▁features	-3297
oph	-3298
rim	-3299
▁Bel	-3300
eneral	-3301
▁website	-3302
ado	-3303
ager	-3304
▁Over	-3305
▁score	-3306
▁signed	-3307
▁Council	-3308
omp	-3309
That	-3310
▁fra	-3311
▁rare	-3312
▁Every	-3313
▁north	-3314
▁network	-3315
▁electric	-3316
▁remember	-3317
ruction	-3318
▁calling	-3319
▁various	-3320
▁opposition	-3321
iful	-3322
▁wild	-3323
▁behav	-3324
▁judge	-3325
elligence	-3326
▁throughout	-3327
itc	-3328
iance	-3329
▁wed	-3330
astic	-3331
ingly	-3332
▁sust	-3333
▁Senate	-3334
▁league	-3335
azon	-3336
oman	-3337
▁fest	-3338
▁2023,	-3339
▁Georg	-3340
▁feels	-3341
▁passed	-3342
andemic	-3343
▁remark	-3344
ript	-3345
▁charge	-3346
▁schools	-3347
oti	-3348
▁Sa	-3349
▁Bec	-3350
▁parts	-3351
▁incred	-3352
▁evening	-3353
▁Sir	-3354
▁cash	-3355
▁charged	-3356
▁content	-3357
▁largest	-3358
▁increased	-3359
ett	-3360
▁fit	-3361
▁base	-3362
▁boss	-3363
▁wait	-3364
▁defin	-3365
▁terror	-3366
uf	-3367
▁numbers	-3368
▁Ant	-3369
▁Soc	-3370
▁mater	-3371
rel	-3372
▁gas	-3373
alent	-3374
▁Here	-3375
▁demon	-3376
olution	-3377
▁sports	-3378
oms	-3379
▁60	-3380
erve	-3381
▁Cam	-3382
Getty	-3383
▁Since	-3384
▁highest	-3385
▁sometimes	-3386
clus	-3387
▁path	-3388
▁thinking	-3389
▁--	-3390
▁Ag	-3391
▁aware	-3392
▁created	-3393
urch	-3394
▁boost	-3395
▁housing	-3396
▁Mos	-3397
▁trade	-3398
▁afford	-3399
▁agreed	-3400
▁prem	-3401
▁sales	-3402
roy	-3403
▁UN	-3404
anced	-3405
inary	-3406
▁shock	-3407
▁choice	-3408
▁regard	-3409
▁condition	-3410
vell	-3411
▁Rich	-3412
▁heavy	-3413
▁considered	-3414
▁Port	-3415
▁remov	-3416
▁Supreme	-3417
▁injured	-3418
▁upd	-3419
▁disp	-3420
▁recomm	-3421
▁ongoing	-3422
HS	-3423
rey	-3424
yan	-3425
ancy	-3426
ites	-3427
uals	-3428
▁McC	-3429
▁Ser	-3430
uments	-3431
▁International	-3432
EO	-3433
ST	-3434
▁Mex	-3435
▁Taylor	-3436
▁inn	-3437
▁comfort	-3438
▁victims	-3439
ugg	-3440
▁door	-3441
▁middle	-3442
zz	-3443
▁chair	-3444
▁south	-3445
▁George	-3446
▁attend	-3447
▁effect	-3448
ux	-3449
▁offered	-3450
▁policies	-3451
men	-3452
▁debut	-3453
▁Premier	-3454
aries	-3455
atory	-3456
shire	-3457
▁assault	-3458
-4	-3459
▁Def	-3460
▁hearing	-3461
▁candidates	-3462
vin	-3463
▁epis	-3464
▁sector	-3465
▁massive	-3466
▁missing	-3467
▁repeated	-3468
aling	-3469
itter	-3470
▁fighting	-3471
▁Apple	-3472
▁Guard	-3473
▁meaning	-3474
▁contribut	-3475
JP	-3476
▁award	-3477
itz	-3478
ickets	-3479
▁Super	-3480
▁estim	-3481
24	-3482
▁Mic	-3483
▁Nor	-3484
▁patients	-3485
▁businesses	-3486
ghan	-3487
roud	-3488
▁enfor	-3489
▁Health	-3490
▁temper	-3491
▁finally	-3492
▁require	-3493
▁que	-3494
▁education	-3495
oo	-3496
▁Gar	-3497
▁trou	-3498
▁provided	-3499
▁reportedly	-3500
▁Ha	-3501
▁Dis	-3502
icles	-3503
▁reality	-3504
▁Palestinian	-3505
lements	-3506
ification	-3507
oud	-3508
▁fre	-3509
▁hotel	-3510
▁beyond	-3511
▁damage	-3512
▁primary	-3513
▁witness	-3514
▁absolute	-3515
And	-3516
▁facing	-3517
▁English	-3518
▁Jud	-3519
▁refer	-3520
▁table	-3521
▁promot	-3522
▁scored	-3523
▁screen	-3524
▁council	-3525
500	-3526
▁spl	-3527
isted	-3528
▁passeng	-3529
▁critical	-3530
alls	-3531
▁battle	-3532
ashion	-3533
▁loved	-3534
▁seats	-3535
tr	-3536
asts	-3537
▁spend	-3538
eing	-3539
elled	-3540
▁drop	-3541
▁ones	-3542
▁Amazon	-3543
▁flight	-3544
ext	-3545
ounds	-3546
makers	-3547
▁Holly	-3548
▁spread	-3549
▁wouldn	-3550
▁ability	-3551
▁figures	-3552
▁progress	-3553
▁produc	-3554
▁request	-3555
sea	-3556
pool	-3557
▁Mel	-3558
▁lay	-3559
arily	-3560
▁storm	-3561
▁attract	-3562
▁options	-3563
▁injuries	-3564
▁0	-3565
▁Wales	-3566
▁faced	-3567
▁natural	-3568
▁additional	-3569
fl	-3570
win	-3571
▁Ber	-3572
▁Our	-3573
▁obs	-3574
▁Union	-3575
▁champ	-3576
▁dress	-3577
▁benefits	-3578
▁competition	-3579
▁3.	-3580
▁Su	-3581
racy	-3582
▁Pak	-3583
▁seat	-3584
▁showing	-3585
▁continues	-3586
▁Mil	-3587
▁sym	-3588
▁tourn	-3589
▁credit	-3590
▁shooting	-3591
▁emergency	-3592
AR	-3593
ki	-3594
fire	-3595
▁2021	-3596
▁teen	-3597
▁station	-3598
▁maintain	-3599
roll	-3600
▁mob	-3601
▁pul	-3602
▁poor	-3603
▁pandemic	-3604
AN	-3605
ilty	-3606
▁Mal	-3607
azing	-3608
▁Spain	-3609
▁views	-3610
▁moving	-3611
ER	-3612
ci	-3613
▁serve	-3614
▁culture	-3615
▁mix	-3616
▁Fore	-3617
▁Kamala	-3618
▁although	-3619
ears	-3620
lined	-3621
▁rule	-3622
▁flood	-3623
▁double	-3624
▁owners	-3625
▁weight	-3626
▁certainly	-3627
▁Justice	-3628
▁hundreds	-3629
▁parliament	-3630
▁23	-3631
▁Qu	-3632
▁din	-3633
▁stre	-3634
▁email	-3635
▁miles	-3636
rian	-3637
▁Chel	-3638
jected	-3639
▁applic	-3640
orrow	-3641
▁penal	-3642
▁arrived	-3643
▁surround	-3644
ev	-3645
hib	-3646
ashed	-3647
▁Open	-3648
▁dark	-3649
▁eyes	-3650
▁places	-3651
cing	-3652
▁cool	-3653
▁dise	-3654
▁required	-3655
▁ath	-3656
▁protest	-3657
▁Leban	-3658
▁freed	-3659
▁figure	-3660
▁student	-3661
▁becoming	-3662
▁millions	-3663
rect	-3664
▁fully	-3665
▁expert	-3666
▁respect	-3667
▁telling	-3668
▁population	-3669
▁professional	-3670
apt	-3671
irt	-3672
▁purch	-3673
▁contest	-3674
▁experts	-3675
▁justice	-3676
▁watching	-3677
bing	-3678
ading	-3679
iring	-3680
▁guilty	-3681
▁$2	-3682
abor	-3683
annel	-3684
▁Post	-3685
▁herself	-3686
▁married	-3687
bum	-3688
▁Gold	-3689
▁band	-3690
▁Royal	-3691
▁subst	-3692
▁reduce	-3693
▁Olympic	-3694
eed	-3695
hol	-3696
▁initi	-3697
▁suggested	-3698
▁Jones	-3699
▁served	-3700
omes	-3701
estic	-3702
▁jump	-3703
▁decade	-3704
▁planning	-3705
oked	-3706
izing	-3707
▁store	-3708
▁Wal	-3709
arden	-3710
itute	-3711
▁sche	-3712
▁fresh	-3713
▁seemed	-3714
▁territ	-3715
My	-3716
itely	-3717
▁defense	-3718
▁journey	-3719
▁limited	-3720
▁eventually	-3721
FL	-3722
▁doz	-3723
ively	-3724
▁Carol	-3725
▁negoti	-3726
cel	-3727
▁pod	-3728
▁push	-3729
ancing	-3730
ahu	-3731
orter	-3732
senal	-3733
berg	-3734
▁bott	-3735
▁Franc	-3736
▁winner	-3737
▁driving	-3738
▁restrict	-3739
wide	-3740
▁BJP	-3741
▁Mat	-3742
▁dom	-3743
▁farm	-3744
utions	-3745
▁spark	-3746
▁Service	-3747
▁Pakistan	-3748
olf	-3749
When	-3750
▁version	-3751
▁completely	-3752
acts	-3753
well	-3754
▁eye	-3755
▁hour	-3756
▁rank	-3757
▁believed	-3758
▁physical	-3759
▁Commission	-3760
know	-3761
tery	-3762
vest	-3763
illing	-3764
▁tough	-3765
ication	-3766
▁defend	-3767
▁Bay	-3768
▁pun	-3769
▁jail	-3770
▁pict	-3771
▁soft	-3772
▁2023.	-3773
▁coast	-3774
▁propos	-3775
▁fine	-3776
▁squad	-3777
▁Lou	-3778
▁langu	-3779
▁counter	-3780
▁determin	-3781
▁flag	-3782
▁voice	-3783
▁annual	-3784
▁receive	-3785
▁measures	-3786
▁original	-3787
iling	-3788
▁Rec	-3789
▁expand	-3790
▁beautiful	-3791
▁4.	-3792
▁Tur	-3793
▁imag	-3794
▁rally	-3795
▁traff	-3796
▁picture	-3797
▁admitted	-3798
ու	-3799
ria	-3800
▁27	-3801
▁closed	-3802
▁Ir	-3803
▁sort	-3804
▁reven	-3805
▁usually	-3806
eg	-3807
▁£2	-3808
What	-3809
iced	-3810
illa	-3811
▁Wil	-3812
▁mist	-3813
▁haven	-3814
▁wonder	-3815
▁designed	-3816
▁allegations	-3817
gent	-3818
pect	-3819
▁Law	-3820
▁fix	-3821
▁Mike	-3822
▁asking	-3823
▁General	-3824
▁writing	-3825
▁material	-3826
▁Most	-3827
▁spir	-3828
uclear	-3829
▁driver	-3830
▁supporters	-3831
uct	-3832
cle	-3833
▁CEO	-3834
▁fat	-3835
▁scen	-3836
▁seeking	-3837
▁waiting	-3838
▁warning	-3839
▁Williams	-3840
ym	-3841
▁rap	-3842
▁abuse	-3843
▁album	-3844
▁older	-3845
▁agreement	-3846
▁committed	-3847
▁Kh	-3848
▁Tim	-3849
▁Val	-3850
antic	-3851
owers	-3852
▁brief	-3853
▁actions	-3854
▁southern	-3855
▁operations	-3856
▁tack	-3857
▁proud	-3858
▁speed	-3859
▁letter	-3860
{"	-3861
▁Sal	-3862
urance	-3863
▁Group	-3864
▁trend	-3865
▁Prince	-3866
▁Olympics	-3867
▁district	-3868
imum	-3869
vert	-3870
▁agg	-3871
▁votes	-3872
▁politic	-3873
ked	-3874
ume	-3875
▁Ob	-3876
iser	-3877
▁Mer	-3878
▁Khan	-3879
▁debt	-3880
▁stated	-3881
emocracy	-3882
▁defence	-3883
▁perhaps	-3884
▁dad	-3885
▁mag	-3886
▁2022.	-3887
▁mention	-3888
▁stories	-3889
▁weapons	-3890
▁secretary	-3891
rastructure	-3892
▁28	-3893
house	-3894
▁doll	-3895
▁filed	-3896
▁School	-3897
▁appeal	-3898
▁denied	-3899
▁wearing	-3900
chers	-3901
▁exch	-3902
▁display	-3903
▁citizens	-3904
▁rac	-3905
where	-3906
▁photo	-3907
▁plant	-3908
▁practice	-3909
▁decisions	-3910
uled	-3911
encies	-3912
▁modern	-3913
▁Georgia	-3914
▁achieve	-3915
▁overall	-3916
▁abortion	-3917
▁highlight	-3918
She	-3919
onn	-3920
amin	-3921
attle	-3922
▁occur	-3923
▁stars	-3924
▁feature	-3925
har	-3926
ipp	-3927
oral	-3928
▁God	-3929
▁deg	-3930
▁analy	-3931
▁smart	-3932
uses	-3933
▁nice	-3934
▁sale	-3935
▁throw	-3936
ological	-3937
▁Nigeria	-3938
▁illegal	-3939
▁killing	-3940
▁putting	-3941
iqu	-3942
lom	-3943
aining	-3944
▁dropped	-3945
itt	-3946
▁mount	-3947
▁benefit	-3948
▁finished	-3949
▁dangerous	-3950
▁intelligence	-3951
ան	-3952
▁Art	-3953
▁Jew	-3954
▁cry	-3955
▁prec	-3956
▁camera	-3957
▁resour	-3958
▁records	-3959
▁individuals	-3960
rupt	-3961
ufact	-3962
▁consist	-3963
no	-3964
cow	-3965
empor	-3966
▁Hall	-3967
▁born	-3968
▁clot	-3969
▁female	-3970
▁option	-3971
▁Musk	-3972
strong	-3973
knowled	-3974
▁stream	-3975
▁allegedly	-3976
emi	-3977
▁CB	-3978
▁Penn	-3979
▁diagn	-3980
▁gives	-3981
▁talks	-3982
▁caught	-3983
▁finish	-3984
▁appears	-3985
ota	-3986
run	-3987
▁Chic	-3988
▁stuff	-3989
▁ded	-3990
▁harm	-3991
zb	-3992
rid	-3993
abin	-3994
riage	-3995
▁user	-3996
▁word	-3997
ewhere	-3998
▁pitch	-3999
▁dismiss	-4000
▁moments	-4001
▁department	-4002
As	-4003
▁Kel	-4004
▁pet	-4005
ivity	-4006
▁cold	-4007
▁style	-4008
nder	-4009
▁lose	-4010
▁shut	-4011
▁whom	-4012
▁helping	-4013
▁successful	-4014
ero	-4015
block	-4016
iment	-4017
▁cars	-4018
▁paper	-4019
▁Daniel	-4020
▁winter	-4021
▁acknowled	-4022
▁tournament	-4023
gn	-4024
iar	-4025
ola	-4026
▁ic	-4027
▁Both	-4028
▁feet	-4029
ointed	-4030
▁image	-4031
▁stick	-4032
▁losing	-4033
▁nature	-4034
▁Chelsea	-4035
lim	-4036
▁CN	-4037
▁rob	-4038
▁Vict	-4039
▁maybe	-4040
▁society	-4041
rif	-4042
▁80	-4043
rick	-4044
▁ran	-4045
▁thr	-4046
ollah	-4047
▁retail	-4048
▁simple	-4049
anyahu	-4050
▁floor	-4051
▁girls	-4052
▁employees	-4053
▁Photograph	-4054
dy	-4055
▁Ma	-4056
igan	-4057
▁Far	-4058
▁fle	-4059
▁Games	-4060
▁Martin	-4061
▁normal	-4062
▁college	-4063
▁dip	-4064
▁Hill	-4065
▁Mary	-4066
▁Liver	-4067
▁learn	-4068
▁island	-4069
▁addition	-4070
▁Secretary	-4071
▁responsible	-4072
▁traditional	-4073
▁infrastructure	-4074
rs	-4075
ato	-4076
izz	-4077
▁Modi	-4078
▁aren	-4079
▁cerem	-4080
▁famous	-4081
▁Arsenal	-4082
▁concern	-4083
▁holding	-4084
▁movement	-4085
On	-4086
care	-4087
more	-4088
▁Kate	-4089
▁worse	-4090
▁secure	-4091
▁champion	-4092
▁directly	-4093
gar	-4094
oday	-4095
ogle	-4096
burgh	-4097
isters	-4098
▁daily	-4099
▁lands	-4100
▁income	-4101
▁street	-4102
▁beginning	-4103
40	-4104
fit	-4105
▁NHS	-4106
▁Yet	-4107
ushing	-4108
▁transfer	-4109
phy	-4110
▁Ram	-4111
ables	-4112
▁below	-4113
▁Moscow	-4114
▁Starmer	-4115
▁amazing	-4116
▁Speaking	-4117
▁transport	-4118
▁26	-4119
▁bi	-4120
▁Add	-4121
▁pra	-4122
▁Thom	-4123
▁favor	-4124
▁Former	-4125
▁complex	-4126
▁Netanyahu	-4127
▁confidence	-4128
▁.	-4129
▁Why	-4130
▁2019	-4131
▁fuel	-4132
▁travell	-4133
▁suffered	-4134
▁individual	-4135
▁manufact	-4136
▁offering	-4137
▁speaking	-4138
bn	-4139
uke	-4140
▁Fl	-4141
▁MO	-4142
▁Ari	-4143
▁Mag	-4144
overy	-4145
tered	-4146
▁singer	-4147
▁stopped	-4148
▁audience	-4149
▁potentially	-4150
ali	-4151
rip	-4152
▁Cr	-4153
▁purs	-4154
atever	-4155
▁piece	-4156
▁vehicle	-4157
▁immigration	-4158
rial	-4159
▁Big	-4160
▁kid	-4161
▁ton	-4162
▁Arab	-4163
▁resc	-4164
▁Chicago	-4165
▁protests	-4166
▁expressed	-4167
IN	-4168
antly	-4169
igned	-4170
▁nuclear	-4171
▁attorney	-4172
So	-4173
dd	-4174
anta	-4175
▁knows	-4176
▁shown	-4177
▁altern	-4178
▁victim	-4179
▁Security	-4180
iders	-4181
▁Play	-4182
▁teac	-4183
▁Italy	-4184
▁Queen	-4185
mission	-4186
▁supply	-4187
▁strateg	-4188
▁younger	-4189
▁vehicles	-4190
▁Liverpool	-4191
▁independent	-4192
OP	-4193
eum	-4194
▁90	-4195
▁unp	-4196
eless	-4197
▁Step	-4198
▁size	-4199
▁broke	-4200
▁telev	-4201
▁focused	-4202
▁powerful	-4203
▁appearance	-4204
',	-4205
ga	-4206
bit	-4207
ador	-4208
long	-4209
▁Their	-4210
▁exactly	-4211
▁wedding	-4212
ka	-4213
▁Jon	-4214
▁Sar	-4215
▁sea	-4216
ategy	-4217
▁shel	-4218
▁shop	-4219
ID	-4220
▁ship	-4221
▁answer	-4222
▁depart	-4223
▁carried	-4224
▁reasons	-4225
▁opportunities	-4226
▁Bur	-4227
▁Bill	-4228
▁brain	-4229
▁missed	-4230
▁surger	-4231
▁fashion	-4232
ker	-4233
kin	-4234
part	-4235
ruit	-4236
▁blue	-4237
▁text	-4238
▁tool	-4239
▁Grand	-4240
▁names	-4241
▁plenty	-4242
▁planned	-4243
ucky	-4244
▁bod	-4245
▁mum	-4246
▁sad	-4247
▁cruc	-4248
▁Delhi	-4249
▁defeat	-4250
▁clearly	-4251
▁village	-4252
▁believes	-4253
▁surprise	-4254
▁yourself	-4255
▁controvers	-4256
▁Bet	-4257
▁Center	-4258
▁Francis	-4259
▁Pri	-4260
▁faces	-4261
▁owner	-4262
zbollah	-4263
udi	-4264
▁ir	-4265
▁san	-4266
▁items	-4267
▁Island	-4268
▁cities	-4269
▁secret	-4270
▁responded	-4271
mar	-4272
▁vs	-4273
acity	-4274
angers	-4275
▁Google	-4276
▁troops	-4277
▁matches	-4278
▁implement	-4279
▁Reg	-4280
▁tens	-4281
▁African	-4282
▁affected	-4283
▁commitment	-4284
va	-4285
bon	-4286
ica	-4287
star	-4288
▁veter	-4289
▁remind	-4290
▁sitting	-4291
▁systems	-4292
▁unlike	-4293
▁managed	-4294
▁essential	-4295
▁psy	-4296
▁onto	-4297
ulated	-4298
▁fellow	-4299
▁domestic	-4300
▁identified	-4301
▁management	-4302
ube	-4303
▁arch	-4304
atures	-4305
ribute	-4306
▁talent	-4307
▁Western	-4308
agues	-4309
▁suit	-4310
▁comed	-4311
▁Andrew	-4312
▁ruling	-4313
▁digital	-4314
▁Australian	-4315
ads	-4316
uild	-4317
▁struck	-4318
▁concerned	-4319
▁transform	-4320
alys	-4321
inians	-4322
▁plays	-4323
▁reform	-4324
▁ticket	-4325
▁episode	-4326
▁footage	-4327
ils	-4328
ini	-4329
week	-4330
▁Att	-4331
▁Vir	-4332
▁crew	-4333
▁upon	-4334
incess	-4335
▁lived	-4336
pet	-4337
icial	-4338
inger	-4339
▁surf	-4340
▁oppon	-4341
▁shares	-4342
▁Charles	-4343
▁standing	-4344
emy	-4345
gers	-4346
just	-4347
▁Bre	-4348
▁cas	-4349
▁Face	-4350
▁tech	-4351
▁projects	-4352
▁Hezbollah	-4353
25	-4354
▁Kim	-4355
iller	-4356
▁Dist	-4357
anging	-4358
▁Those	-4359
▁Thomas	-4360
▁retire	-4361
▁unique	-4362
BA	-4363
noon	-4364
▁uns	-4365
▁carry	-4366
▁twice	-4367
▁worst	-4368
itarian	-4369
vention	-4370
▁assess	-4371
▁bought	-4372
▁minute	-4373
▁voting	-4374
▁strikes	-4375
▁emotional	-4376
▁Den	-4377
▁adop	-4378
▁wins	-4379
▁stress	-4380
▁connect	-4381
▁strategy	-4382
80	-4383
ibr	-4384
ula	-4385
▁fa	-4386
hand	-4387
page	-4388
▁Out	-4389
▁row	-4390
ipped	-4391
lines	-4392
▁truth	-4393
▁engine	-4394
▁placed	-4395
▁regist	-4396
▁happens	-4397
▁Ac	-4398
▁II	-4399
▁emph	-4400
▁center	-4401
▁rising	-4402
▁afternoon	-4403
▁Love	-4404
▁withd	-4405
▁photos	-4406
▁scient	-4407
▁Instead	-4408
▁sustain	-4409
nel	-4410
▁mach	-4411
▁Mexico	-4412
▁democracy	-4413
lix	-4414
ville	-4415
▁opin	-4416
▁drugs	-4417
agement	-4418
▁except	-4419
▁article	-4420
▁walking	-4421
▁Carolina	-4422
▁committee	-4423
▁providing	-4424
▁legislation	-4425
▁increasingly	-4426
No	-4427
▁PM	-4428
▁stun	-4429
▁Canada	-4430
▁sister	-4431
▁slight	-4432
▁toward	-4433
Ph	-4434
type	-4435
▁aged	-4436
▁refe	-4437
▁warm	-4438
▁Press	-4439
▁lines	-4440
▁prompt	-4441
▁activities	-4442
▁definitely	-4443
▁supporting	-4444
eds	-4445
▁5.	-4446
▁Max	-4447
▁gar	-4448
▁signs	-4449
▁linked	-4450
▁survey	-4451
▁freedom	-4452
hod	-4453
pir	-4454
oses	-4455
▁sav	-4456
▁flat	-4457
▁2021,	-4458
▁advice	-4459
▁century	-4460
▁disease	-4461
▁Mah	-4462
▁Sky	-4463
▁rom	-4464
using	-4465
▁Ryan	-4466
▁Singh	-4467
▁crack	-4468
▁pregn	-4469
atively	-4470
ecution	-4471
▁Sports	-4472
▁athlet	-4473
▁Although	-4474
▁difference	-4475
ON	-4476
andon	-4477
inals	-4478
▁send	-4479
▁appre	-4480
▁sides	-4481
▁Commit	-4482
▁corner	-4483
▁declared	-4484
▁language	-4485
▁influence	-4486
▁Test	-4487
▁domin	-4488
▁exerc	-4489
▁Direct	-4490
▁highly	-4491
▁captain	-4492
▁establish	-4493
▁suffering	-4494
▁Rs	-4495
erry	-4496
▁grad	-4497
▁hasn	-4498
▁lock	-4499
▁Brown	-4500
▁rough	-4501
▁consult	-4502
▁operation	-4503
▁absolutely	-4504
▁commission	-4505
rol	-4506
ifth	-4507
▁ign	-4508
▁Swift	-4509
▁images	-4510
▁settle	-4511
▁starts	-4512
▁ang	-4513
▁note	-4514
▁Korea	-4515
▁subject	-4516
▁ca	-4517
▁Gre	-4518
▁Great	-4519
▁Peter	-4520
▁polls	-4521
▁allies	-4522
▁activity	-4523
▁expensive	-4524
oe	-4525
mod	-4526
▁tim	-4527
▁Under	-4528
▁honest	-4529
▁finding	-4530
▁keeping	-4531
▁­	-4532
▁29	-4533
▁Ital	-4534
▁rent	-4535
▁Social	-4536
▁diplom	-4537
▁status	-4538
ca	-4539
war	-4540
▁coal	-4541
▁cuts	-4542
▁advoc	-4543
▁union	-4544
▁mostly	-4545
▁select	-4546
▁lawsuit	-4547
▁proposed	-4548
dden	-4549
wise	-4550
▁Bow	-4551
erved	-4552
rated	-4553
▁mort	-4554
▁Hollywood	-4555
▁resources	-4556
▁discovered	-4557
BI	-4558
eal	-4559
ici	-4560
▁70	-4561
▁Ty	-4562
▁196	-4563
ength	-4564
▁type	-4565
▁Chris	-4566
▁beach	-4567
▁breat	-4568
▁steps	-4569
itation	-4570
▁Lebanon	-4571
▁enforcement	-4572
▁	-4573
e	-4574
t	-4575
a	-4576
o	-4577
i	-4578
n	-4579
s	-4580
r	-4581
h	-4582
l	-4583
d	-4584
c	-4585
u	-4586
m	-4587
g	-4588
f	-4589
p	-4590
y	-4591
w	-4592
b	-4593
,	-4594
.	-4595
v	-4596
k	-4597
"	-4598
'	-4599
T	-4600
I	-4601
S	-4602
-	-4603
A	-4604
C	-4605
0	-4606
M	-4607
B	-4608
2	-4609
P	-4610
x	-4611
H	-4612
1	-4613
W	-4614
D	-4615
R	-4616
N	-4617
j	-4618
L	-4619
F	-4620
G	-4621
E	-4622
O	-4623
:	-4624
z	-4625
J	-4626
U	-4627
K	-4628
5	-4629
q	-4630
3	-4631
4	-4632
9	-4633
)	-4634
(	-4635
6	-4636
V	-4637
8	-4638
7	-4639
Y	-4640
?	-4641
/	-4642
$	-4643
£	-4644
%	-4645
!	-4646
;	-4647
Z	-4648
X	-4649
Q	-4650
]	-4651
[	-4652
ա	-4653
>	-4654
<	-4655
&	-4656
*	-4657
é	-4658
ն	-4659
ր	-4660
_	-4661
ո	-4662
ե	-4663
ի	-4664
@	-4665
ւ	-4666
+	-4667
á	-4668
}	-4669
=	-4670
ó	-4671
մ	-4672
{	-4673
\	-4674
í	-4675
կ	-4676
­	-4677
#	-4678
տ	-4679
յ	-4680
€	-4681
վ	-4682
ս	-4683
լ	-4684
ց	-4685
հ	-4686
ñ	-4687
դ	-4688
թ	-4689
գ	-4690
ը	-4691
É	-4692
â	-4693
ղ	-4694
բ	-4695
պ	-4696
è	-4697
ü	-4698
ք	-4699
ú	-4700
է	-4701
Ա	-4702
•	-4703
ö	-4704
ծ	-4705
	-4706
խ	-4707
շ	-4708
ռ	-4709
զ	-4710
Ե	-4711
ջ	-4712
։	-4713
°	-4714
չ	-4715
Մ	-4716
©	-4717
à	-4718
Ր	-4719
ç	-4720
Ն	-4721
■	-4722
ä	-4723
′	-4724
՝	-4725
ձ	-4726
⁄	-4727
Հ	-4728
―	-4729
Á	-4730
ø	-4731
ā	-4732
ô	-4733
Ի	-4734
փ	-4735
₹	-4736
Ս	-4737
ã	-4738
ï	-4739
ë	-4740
	-4741
å	-4742
️	-4743
ć	-4744
օ	-4745
★	-4746
‐	-4747
	-4748
ê	-4749
Պ	-4750
Ö	-4751
ժ	-4752
Կ	-4753
Վ	-4754
	-4755
ğ	-4756
ճ	-4757
`	-4758
	-4759
♦	-4760
🥇	-4761
Ó	-4762
Բ	-4763
❤	-4764
î	-4765
č	-4766
Գ	-4767
ō	-4768
Ø	-4769
ł	-4770
ֆ	-4771
Լ	-4772
Տ	-4773
·	-4774
¿	-4775
Â	-4776
ă	-4777
ı	-4778
š	-4779
®	-4780
Å	-4781
Ո	-4782
●	-4783
¢	-4784
ò	-4785
Յ	-4786
😂	-4787
¡	-4788
đ	-4789
ș	-4790
Դ	-4791
Ը	-4792
Թ	-4793
Ֆ	-4794
😭	-4795
🤣	-4796
🥹	-4797
	-4798
×	-4799
ù	-4800
ş	-4801
Š	-4802
ŷ	-4803
Զ	-4804
Ռ	-4805
Փ	-4806
‍	-4807
⁠	-4808
−	-4809
À	-4810
Ã	-4811
Ç	-4812
ì	-4813
û	-4814
ý	-4815
ū	-4816
ŵ	-4817
ž	-4818
Շ	-4819
Ջ	-4820
Ւ	-4821
⁣	-4822
♬	-4823
🐎	-4824
🔥	-4825
¦	-4826
±	-4827
Ä	-4828
Ü	-4829
ė	-4830
ț	-4831
Ժ	-4832
Ք	-4833
Օ	-4834
▶	-4835
⚽	-4836
✔	-4837
😍	-4838
🙄	-4839
🙏	-4840
^	-4841
	-4842
	-4843
§	-4844
È	-4845
Î	-4846
ß	-4847
æ	-4848
Đ	-4849
ē	-4850
ģ	-4851
ń	-4852
ņ	-4853
ň	-4854
С	-4855
Ճ	-4856
Չ	-4857
՛	-4858
՞	-4859
ạ	-4860
ầ	-4861
ắ	-4862
ờ	-4863
‭	-4864
›	-4865
⁦	-4866
⁩	-4867
₱	-4868
℞	-4869
☆	-4870
♂	-4871
♪	-4872
❌	-4873
・	-4874
︎	-4875
𝄒	-4876
🏻	-4877
🏼	-4878
👈	-4879
👉	-4880
💕	-4881
💨	-4882
📸	-4883
😅	-4884
😮	-4885
🤦	-4886
~	-4887
	-4888
	-4889
Í	-4890
Ò	-4891
Ô	-4892
þ	-4893
ÿ	-4894
ą	-4895
Ć	-4896
Ē	-4897
ę	-4898
ī	-4899
İ	-4900
ř	-4901
ś	-4902
Ş	-4903
ţ	-4904
ż	-4905
ư	-4906
ə	-4907
ʔ	-4908
ʻ	-4909
̄	-4910
̈	-4911
μ	-4912
О	-4913
У	-4914
а	-4915
и	-4916
к	-4917
н	-4918
р	-4919
ї	-4920
Է	-4921
Խ	-4922
Ծ	-4923
Ձ	-4924
Ղ	-4925
฿	-4926
ḥ	-4927
Ṡ	-4928
ṣ	-4929
ả	-4930
ẹ	-4931
ế	-4932
ệ	-4933
ị	-4934
ọ	-4935
ố	-4936
ộ	-4937
ợ	-4938
ừ	-4939
ự	-4940
ỹ	-4941
‬	-4942
⁤	-4943
₦	-4944
↔	-4945
⊕	-4946
⏳	-4947
►	-4948
◀	-4949
☀	-4950
♀	-4951
♥	-4952
✅	-4953
✨	-4954
⭐	-4955
🇱	-4956
🇳	-4957
🇸	-4958
🇺	-4959
🌪	-4960
🌴	-4961
🌹	-4962
🍓	-4963
🍹	-4964
🎁	-4965
🎢	-4966
🎪	-4967
🏆	-4968
🏽	-4969
🏾	-4970
👀	-4971
👍	-4972
👏	-4973
💙	-4974
💥	-4975
📋	-4976
📍	-4977
📷	-4978
😆	-4979
😊	-4980
😢	-4981
😱	-4982
😳	-4983
🙌	-4984
🛒	-4985
🤎	-4986
🤔	-4987
🤫	-4988
🤯	-4989
🤵	-4990
🤷	-4991
🥅	-4992
🥥	-4993
🥪	-4994
🥺	-4995
🫣	-4996
