[UNK]	0
[CLS]	1
[SEP]	2
[PAD]	3
[MASK]	4
!	5
"	6
#	7
$	8
%	9
&	10
'	11
(	12
)	13
*	14
+	15
,	16
-	17
.	18
/	19
0	20
1	21
2	22
3	23
4	24
5	25
6	26
7	27
8	28
9	29
:	30
;	31
<	32
=	33
>	34
?	35
@	36
[	37
\	38
]	39
^	40
_	41
`	42
a	43
b	44
c	45
d	46
e	47
f	48
g	49
h	50
i	51
j	52
k	53
l	54
m	55
n	56
o	57
p	58
q	59
r	60
s	61
t	62
u	63
v	64
w	65
x	66
y	67
z	68
{	69
}	70
~	71
	72
	73
	74
	75
	76
	77
	78
	79
	80
	81
¡	82
¢	83
£	84
¦	85
§	86
©	87
­	88
®	89
°	90
±	91
·	92
¿	93
×	94
ß	95
à	96
á	97
â	98
ã	99
ä	100
å	101
æ	102
ç	103
è	104
é	105
ê	106
ë	107
ì	108
í	109
î	110
ï	111
ñ	112
ò	113
ó	114
ô	115
ö	116
ø	117
ù	118
ú	119
û	120
ü	121
ý	122
þ	123
ÿ	124
ā	125
ă	126
ą	127
ć	128
č	129
đ	130
ē	131
ė	132
ę	133
ğ	134
ģ	135
ī	136
ı	137
ł	138
ń	139
ņ	140
ň	141
ō	142
ř	143
ś	144
ş	145
š	146
ţ	147
ū	148
ŵ	149
ŷ	150
ż	151
ž	152
ư	153
ș	154
ț	155
ə	156
ʔ	157
ʻ	158
̄	159
̇	160
̈	161
μ	162
а	163
и	164
к	165
н	166
о	167
р	168
с	169
у	170
ї	171
՛	172
՝	173
՞	174
ա	175
բ	176
գ	177
դ	178
ե	179
զ	180
է	181
ը	182
թ	183
ժ	184
ի	185
լ	186
խ	187
ծ	188
կ	189
հ	190
ձ	191
ղ	192
ճ	193
մ	194
յ	195
ն	196
շ	197
ո	198
չ	199
պ	200
ջ	201
ռ	202
ս	203
վ	204
տ	205
ր	206
ց	207
ւ	208
փ	209
ք	210
օ	211
ֆ	212
։	213
฿	214
ḥ	215
ṡ	216
ṣ	217
ạ	218
ả	219
ầ	220
ắ	221
ẹ	222
ế	223
ệ	224
ị	225
ọ	226
ố	227
ộ	228
ờ	229
ợ	230
ừ	231
ự	232
ỹ	233
‌	234
‍	235
‐	236
―	237
•	238
‬	239
‭	240
′	241
›	242
⁄	243
⁠	244
⁣	245
⁤	246
⁦	247
⁩	248
₦	249
€	250
₱	251
₹	252
℞	253
↔	254
−	255
⊕	256
⏳	257
■	258
▶	259
►	260
◀	261
●	262
☀	263
★	264
☆	265
♀	266
♂	267
♥	268
♦	269
♪	270
♬	271
⚽	272
✅	273
✔	274
✨	275
❌	276
❤	277
➡	278
⭐	279
・	280
︎	281
️	282
�	283
𝄒	284
🇦	285
🇱	286
🇳	287
🇸	288
🇺	289
🌪	290
🌴	291
🌹	292
🍓	293
🍹	294
🍺	295
🎁	296
🎢	297
🎪	298
🏆	299
🏻	300
🏼	301
🏽	302
🏾	303
🐎	304
👀	305
👈	306
👉	307
👍	308
👏	309
💕	310
💙	311
💥	312
💨	313
💬	314
📋	315
📍	316
📷	317
📸	318
🔥	319
😂	320
😅	321
😆	322
😊	323
😍	324
😢	325
😭	326
😮	327
😱	328
😳	329
🙄	330
🙌	331
🙏	332
🚨	333
🛒	334
🤎	335
🤔	336
🤣	337
🤦	338
🤫	339
🤯	340
🤵	341
🤷	342
🥅	343
🥇	344
🥥	345
🥪	346
🥹	347
🥺	348
🫣	349
##n	350
##g	351
##l	352
##e	353
##7	354
##c	355
##4	356
##f	357
##5	358
##3	359
##d	360
##}	361
##,	362
##{	363
##"	364
##i	365
##v	366
##a	367
##s	368
##u	369
##r	370
##t	371
##h	372
##k	373
##o	374
##8	375
##2	376
##b	377
##1	378
##0	379
##9	380
##6	381
##y	382
##m	383
##z	384
##p	385
##ո	386
##ն	387
##ի	388
##w	389
##գ	390
##տ	391
##x	392
##ա	393
##յ	394
##á	395
##j	396
##ղ	397
##բ	398
##ւ	399
##ր	400
##ị	401
##պ	402
##ք	403
##é	404
##*	405
##զ	406
##ō	407
##ñ	408
##ê	409
##ü	410
##q	411
##í	412
##ց	413
##ե	414
##ը	415
##)	416
##'	417
##ã	418
##â	419
##?	420
##_	421
##ņ	422
##ģ	423
##ừ	424
##😭	425
##.	426
##î	427
##շ	428
##խ	429
##!	430
##ó	431
##ä	432
##ø	433
##ժ	434
##վ	435
##ջ	436
##<	437
##ô	438
##è	439
##կ	440
##š	441
##ț	442
##մ	443
##լ	444
##%	445
##/	446
##թ	447
##ծ	448
##ս	449
##ö	450
##å	451
##$	452
##ռ	453
##ğ	454
##ē	455
##ú	456
##ֆ	457
##]	458
##:	459
##[	460
##ł	461
###	462
##^	463
##æ	464
##🥇	465
##;	466
##\	467
##ş	468
##դ	469
##@	470
##&	471
##ù	472
##փ	473
##-	474
##😅	475
##ć	476
##€	477
##ș	478
##հ	479
##ë	480
##­	481
##★	482
##💬	483
##£	484
##>	485
##🥥	486
##🤎	487
##🇺	488
##🇦	489
##μ	490
##🏼	491
##℞	492
##ç	493
##̇	494
##ờ	495
##ā	496
##ṣ	497
##ạ	498
##❤	499
##à	500
##🔥	501
##ò	502
##′	503
##⁣	504
##😍	505
##🥺	506
##ř	507
##ý	508
##ả	509
##ձ	510
##•	511
##ŷ	512
##չ	513
##ă	514
##¡	515
##🇱	516
##ճ	517
##⁠	518
##ę	519
##■	520
##	521
##ï	522
##`	523
##ì	524
##📸	525
##+	526
##ß	527
##ə	528
##ś	529
##û	530
##🇸	531
##🌹	532
##է	533
##č	534
##ż	535
##к	536
##р	537
##а	538
##ї	539
##н	540
##и	541
##ự	542
##¦	543
##ň	544
##ệ	545
##	546
##ţ	547
##ū	548
##ọ	549
##	550
##ắ	551
##	552
##ầ	553
##(	554
##☆	555
##➡	556
##©	557
##ŵ	558
##с	559
##о	560
##օ	561
##¿	562
##ḥ	563
##ʔ	564
##ı	565
##🍺	566
##🫣	567
##😊	568
##ế	569
##ộ	570
##ỹ	571
##🏾	572
##ố	573
##ÿ	574
##🙏	575
##ī	576
##ư	577
##	578
##ą	579
##ė	580
##ợ	581
##։	582
##😮	583
##😂	584
##🤦	585
##🏽	586
##=	587
##🏻	588
##	589
##ʻ	590
##️	591
##ž	592
##‌	593
##🥹	594
##🚨	595
##🤣	596
th	597
the	598
in	599
##er	600
##on	601
##nd	602
##or	603
##at	604
to	605
##en	606
##in	607
##ar	608
##an	609
##ou	610
##it	611
##st	612
of	613
##al	614
ed	615
ing	616
and	617
re	618
##re	619
##ic	620
##om	621
##le	622
##id	623
##ll	624
##ion	625
be	626
##ent	627
##ve	628
on	629
ha	630
it	631
st	632
for	633
##ut	634
at	635
he	636
##ot	637
is	638
wh	639
##ce	640
##ay	641
##ing	642
##ow	643
##ss	644
an	645
en	646
that	647
##se	648
er	649
##ur	650
##et	651
##ct	652
ly	653
de	654
##ld	655
##ed	656
##ig	657
##ir	658
##am	659
##ith	660
##ver	661
##ch	662
##im	663
with	664
##ro	665
wa	666
al	667
##is	668
##ra	669
ch	670
we	671
##th	672
##ge	673
##ad	674
##il	675
##ie	676
le	677
com	678
##ill	679
con	680
sh	681
ne	682
##ol	683
fr	684
##ter	685
se	686
##ck	687
sa	688
##ke	689
la	690
you	691
ab	692
##ate	693
hi	694
##ri	695
ma	696
##pe	697
##igh	698
li	699
ex	700
su	701
,"	702
said	703
ar	704
##ation	705
##ort	706
or	707
have	708
by	709
##ul	710
has	711
go	712
pro	713
from	714
##um	715
thi	716
cou	717
##ere	718
##art	719
##la	720
not	721
but	722
lo	723
ca	724
all	725
##ore	726
es	727
me	728
##us	729
##op	730
un	731
##ight	732
##od	733
te	734
##pp	735
tr	736
##ue	737
ment	738
20	739
##un	740
##as	741
her	742
out	743
pre	744
##ust	745
im	746
co	747
af	748
##ive	749
wor	750
##all	751
ad	752
##ear	753
po	754
##ain	755
##gh	756
do	757
one	758
who	759
##el	760
will	761
##ant	762
year	763
##ine	764
##ia	765
##ard	766
."	767
am	768
##ome	769
##ime	770
man	771
##lo	772
ta	773
pl	774
":	775
##ies	776
can	777
up	778
##ice	779
per	780
off	781
ho	782
their	783
mo	784
##fe	785
##ity	786
ba	787
ag	788
ers	789
pr	790
new	791
pa	792
##ich	793
had	794
##ure	795
pe	796
##ould	797
##ist	798
if	799
##ial	800
##ound	801
##our	802
us	803
ro	804
##00	805
fa	806
time	807
after	808
more	809
##ide	810
##out	811
sp	812
ever	813
##ok	814
##ther	815
ation	816
##pt	817
ac	818
over	819
fe	820
##ong	821
were	822
there	823
about	824
day	825
##ame	826
part	827
di	828
which	829
##ub	830
##per	831
bo	832
no	833
fo	834
em	835
sc	836
ev	837
##es	838
br	839
other	840
like	841
ra	842
##ff	843
mon	844
202	845
##ber	846
mar	847
my	848
##ip	849
qu	850
##age	851
##ish	852
##ree	853
ion	854
gr	855
cont	856
##ment	857
##ople	858
people	859
just	860
":"	861
car	862
would	863
tw	864
##ud	865
dis	866
##nt	867
med	868
what	869
some	870
##ough	871
cre	872
tra	873
fir	874
comp	875
pol	876
##ence	877
work	878
res	879
get	880
##nder	881
so	882
cr	883
jo	884
ele	885
##ction	886
##ath	887
than	888
rep	889
##em	890
##ile	891
way	892
spe	893
##ord	894
state	895
say	896
##ick	897
##and	898
how	899
able	900
##own	901
##ign	902
first	903
back	904
don	905
##ict	906
form	907
uk	908
##ly	909
play	910
##ite	911
##use	912
cent	913
##ach	914
el	915
##ble	916
them	917
two	918
our	919
att	920
inc	921
ent	922
##ump	923
comm	924
pres	925
come	926
##ond	927
##ult	928
kn	929
##ink	930
ity	931
him	932
##ft	933
land	934
##lu	935
##iv	936
##ous	937
##ident	938
min	939
##orm	940
cl	941
gu	942
acc	943
par	944
inter	945
ce	946
##ast	947
##ild	948
##ance	949
ind	950
##int	951
fi	952
any	953
ver	954
,""	955
##est	956
dec	957
ph	958
##ition	959
last	960
add	961
##lic	962
could	963
your	964
nation	965
ke	966
ap	967
##ag	968
##sh	969
##ress	970
now	971
##ep	972
again	973
count	974
##oth	975
##ry	976
most	977
ary	978
##urn	979
##cial	980
##du	981
##ak	982
ve	983
fin	984
pub	985
ally	986
trump	987
ic	988
bu	989
##reat	990
under	991
##ade	992
imp	993
end	994
show	995
##tt	996
##ual	997
##wn	998
side	999
##ek	1000
where	1001
est	1002
line	1003
##ugh	1004
age	1005
war	1006
cause	1007
##vel	1008
bet	1009
app	1010
did	1011
thing	1012
##erv	1013
sec	1014
##ian	1015
media	1016
act	1017
##one	1018
president	1019
##amp	1020
inclu	1021
make	1022
supp	1023
high	1024
every	1025
id	1026
##ise	1027
wid	1028
##form	1029
aut	1030
str	1031
##ect	1032
width	1033
ant	1034
fu	1035
son	1036
look	1037
##qu	1038
ass	1039
want	1040
##vern	1041
##ater	1042
ru	1043
report	1044
##day	1045
may	1046
govern	1047
thr	1048
down	1049
ext	1050
cla	1051
##cess	1052
home	1053
##are	1054
she	1055
rec	1056
fam	1057
lead	1058
mi	1059
even	1060
while	1061
ty	1062
need	1063
exp	1064
19	1065
bef	1066
before	1067
well	1068
##ange	1069
##ase	1070
ear	1071
har	1072
ter	1073
op	1074
game	1075
call	1076
public	1077
##{"	1078
week	1079
take	1080
##ster	1081
##itt	1082
rem	1083
fl	1084
pla	1085
win	1086
hou	1087
dur	1088
long	1089
think	1090
hel	1091
reg	1092
ec	1093
right	1094
##av	1095
tri	1096
cons	1097
##itic	1098
world	1099
##orn	1100
cour	1101
##atch	1102
##ince	1103
blo	1104
ive	1105
wr	1106
dem	1107
##we	1108
set	1109
##if	1110
##pect	1111
ance	1112
know	1113
ship	1114
national	1115
head	1116
char	1117
mr	1118
see	1119
col	1120
mu	1121
##illion	1122
start	1123
##get	1124
then	1125
##ap	1126
##oc	1127
##ason	1128
dr	1129
gen	1130
##iden	1131
month	1132
##act	1133
##ens	1134
##ire	1135
made	1136
through	1137
told	1138
##ans	1139
support	1140
sch	1141
aw	1142
team	1143
three	1144
##son	1145
mem	1146
201	1147
own	1148
##ale	1149
read	1150
##ail	1151
hose	1152
going	1153
ig	1154
ret	1155
##te	1156
life	1157
##llow	1158
old	1159
##iver	1160
##ack	1161
##ug	1162
help	1163
ry	1164
gra	1165
less	1166
##iew	1167
ur	1168
qual	1169
ate	1170
##lf	1171
famil	1172
ful	1173
as	1174
conf	1175
law	1176
eng	1177
mark	1178
plan	1179
child	1180
##alk	1181
sur	1182
ous	1183
##cy	1184
house	1185
found	1186
place	1187
though	1188
##ey	1189
sm	1190
good	1191
isra	1192
iz	1193
person	1194
cro	1195
around	1196
vis	1197
##,{"	1198
ist	1199
run	1200
bre	1201
2024	1202
que	1203
star	1204
sy	1205
still	1206
serv	1207
##king	1208
ann	1209
put	1210
ga	1211
vi	1212
##ical	1213
point	1214
much	1215
##vest	1216
wom	1217
cle	1218
vot	1219
sen	1220
ies	1221
il	1222
##ctor	1223
care	1224
##ving	1225
##ph	1226
##alth	1227
ban	1228
invest	1229
##ory	1230
change	1231
ia	1232
four	1233
mod	1234
000	1235
##eric	1236
des	1237
air	1238
court	1239
##ute	1240
big	1241
clo	1242
follow	1243
hould	1244
bl	1245
ge	1246
news	1247
10	1248
da	1249
ough	1250
bel	1251
since	1252
ham	1253
##fect	1254
camp	1255
open	1256
fit	1257
ste	1258
jp	1259
block	1260
americ	1261
##ind	1262
##ttp	1263
http	1264
:/	1265
country	1266
://	1267
city	1268
second	1269
##ital	1270
election	1271
give	1272
case	1273
contin	1274
bus	1275
##oup	1276
accord	1277
bar	1278
far	1279
office	1280
##cer	1281
##ffer	1282
quality	1283
post	1284
live	1285
cred	1286
hand	1287
happ	1288
cross	1289
auto	1290
exper	1291
rel	1292
group	1293
los	1294
love	1295
##os	1296
max	1297
uch	1298
ian	1299
nor	1300
##pl	1301
appe	1302
member	1303
mean	1304
russ	1305
##ers	1306
##ru	1307
ber	1308
##ween	1309
##ular	1310
feel	1311
ations	1312
both	1313
##ner	1314
ities	1315
met	1316
##ssion	1317
full	1318
##ilit	1319
##eral	1320
dep	1321
cur	1322
health	1323
master	1324
try	1325
continu	1326
fil	1327
bas	1328
between	1329
##ang	1330
bra	1331
del	1332
politic	1333
##20	1334
east	1335
got	1336
test	1337
night	1338
trans	1339
##cc	1340
best	1341
prot	1342
pri	1343
let	1344
came	1345
loc	1346
produ	1347
stud	1348
leg	1349
season	1350
iss	1351
##io	1352
biden	1353
ways	1354
self	1355
##ower	1356
##icial	1357
family	1358
top	1359
##ene	1360
final	1361
ob	1362
##ix	1363
party	1364
##da	1365
##ount	1366
##hing	1367
##ated	1368
left	1369
dire	1370
che	1371
##rc	1372
ton	1373
ask	1374
share	1375
##..	1376
resp	1377
million	1378
face	1379
##ject	1380
led	1381
ame	1382
men	1383
here	1384
sk	1385
src	1386
use	1387
claim	1388
##ab	1389
jpg	1390
pay	1391
ember	1392
sim	1393
ir	1394
turn	1395
event	1396
##ience	1397
##ty	1398
##outh	1399
attack	1400
mid	1401
pos	1402
##40	1403
art	1404
prov	1405
##be	1406
##og	1407
##ote	1408
##iend	1409
great	1410
##lish	1411
friend	1412
bro	1413
##eng	1414
expect	1415
##iz	1416
det	1417
##iev	1418
12	1419
##ren	1420
...	1421
lot	1422
bla	1423
ration	1424
##ool	1425
##ief	1426
##any	1427
inst	1428
##ace	1429
##der	1430
##sday	1431
mus	1432
cap	1433
official	1434
too	1435
ments	1436
never	1437
ence	1438
red	1439
na	1440
near	1441
service	1442
low	1443
num	1444
sw	1445
##ven	1446
0_	1447
hen	1448
stand	1449
##ious	1450
##leg	1451
school	1452
##ple	1453
##ott	1454
##ield	1455
strong	1456
free	1457
##ied	1458
image	1459
fore	1460
ward	1461
##uc	1462
##ac	1463
unit	1464
sign	1465
power	1466
##sp	1467
find	1468
ball	1469
ong	1470
gre	1471
av	1472
ref	1473
stre	1474
##ric	1475
ating	1476
port	1477
sun	1478
##ract	1479
credit	1480
element	1481
lar	1482
leader	1483
##uro	1484
force	1485
bod	1486
real	1487
ative	1488
fan	1489
rate	1490
are	1491
##ork	1492
##ather	1493
hold	1494
ready	1495
##ram	1496
##end	1497
ukra	1498
commun	1499
den	1500
hal	1501
##ne	1502
net	1503
special	1504
mis	1505
south	1506
days	1507
##min	1508
ie	1509
pass	1510
pat	1511
een	1512
fire	1513
mat	1514
def	1515
som	1516
15	1517
##ient	1518
differ	1519
##ution	1520
##aign	1521
campaign	1522
appear	1523
coming	1524
kill	1525
youn	1526
lab	1527
american	1528
euro	1529
ions	1530
et	1531
##oun	1532
return	1533
##ib	1534
sub	1535
##rat	1536
prom	1537
adv	1538
pop	1539
water	1540
children	1541
away	1542
foot	1543
ness	1544
ris	1545
cor	1546
press	1547
young	1548
##iness	1549
close	1550
business	1551
number	1552
maj	1553
##ert	1554
int	1555
inv	1556
clear	1557
##other	1558
build	1559
##onom	1560
},{"	1561
wo	1562
##ral	1563
##ush	1564
social	1565
hard	1566
cost	1567
large	1568
police	1569
rest	1570
##,"	1571
later	1572
keep	1573
##gan	1574
women	1575
##ific	1576
colle	1577
remain	1578
##iday	1579
provid	1580
##ague	1581
##iate	1582
econom	1583
five	1584
val	1585
##arch	1586
few	1587
book	1588
cra	1589
elect	1590
##ility	1591
company	1592
deal	1593
hit	1594
vict	1595
won	1596
six	1597
##vi	1598
ster	1599
##ister	1600
##ier	1601
major	1602
record	1603
##ittle	1604
rs	1605
##her	1606
field	1607
ger	1608
oper	1609
##de	1610
issue	1611
##view	1612
little	1613
chin	1614
sure	1615
##gress	1616
didn	1617
happen	1618
##unch	1619
30	1620
move	1621
ine	1622
hum	1623
deb	1624
##ision	1625
coun	1626
area	1627
ling	1628
sol	1629
light	1630
talk	1631
took	1632
mini	1633
pan	1634
tex	1635
##cing	1636
##80	1637
ll	1638
hu	1639
##ocrat	1640
opp	1641
film	1642
arm	1643
##60	1644
##mm	1645
quest	1646
cha	1647
11	1648
market	1649
ign	1650
##ock	1651
grow	1652
fur	1653
dra	1654
poss	1655
brit	1656
##up	1657
##velop	1658
democrat	1659
body	1660
mom	1661
200	1662
##ger	1663
##ething	1664
local	1665
something	1666
believ	1667
appro	1668
why	1669
milit	1670
break	1671
##ken	1672
result	1673
##dition	1674
develop	1675
##ounce	1676
allow	1677
##ption	1678
might	1679
##no	1680
term	1681
meet	1682
cal	1683
watch	1684
rat	1685
phot	1686
half	1687
mov	1688
jan	1689
model	1690
45	1691
import	1692
),	1693
making	1694
creat	1695
hour	1696
north	1697
vide	1698
speak	1699
park	1700
black	1701
##ret	1702
price	1703
17	1704
video	1705
auth	1706
##rib	1707
cut	1708
west	1709
cho	1710
##stem	1711
ley	1712
system	1713
pur	1714
better	1715
dri	1716
pet	1717
##ont	1718
emp	1719
past	1720
money	1721
hist	1722
##ba	1723
##ety	1724
##lain	1725
log	1726
key	1727
pal	1728
position	1729
##itch	1730
pot	1731
til	1732
##atur	1733
list	1734
fund	1735
tech	1736
##ank	1737
##30	1738
thir	1739
white	1740
je	1741
partic	1742
##ible	1743
concer	1744
view	1745
##ark	1746
decision	1747
respon	1748
##urity	1749
comment	1750
job	1751
different	1752
ism	1753
"}	1754
wed	1755
question	1756
##ec	1757
sl	1758
perform	1759
disc	1760
ecurity	1761
##rent	1762
ju	1763
harri	1764
dy	1765
each	1766
##ury	1767
death	1768
##ider	1769
.'	1770
##ten	1771
announce	1772
having	1773
##hn	1774
author	1775
experience	1776
name	1777
train	1778
along	1779
ef	1780
minute	1781
poli	1782
2023	1783
2022	1784
stri	1785
##ning	1786
ey	1787
##bc	1788
##fit	1789
lin	1790
bat	1791
york	1792
##icture	1793
##pend	1794
tar	1795
picture	1796
match	1797
ped	1798
organ	1799
comple	1800
host	1801
sport	1802
##ald	1803
moment	1804
level	1805
ell	1806
const	1807
food	1808
known	1809
ins	1810
jud	1811
ut	1812
eff	1813
##rist	1814
visit	1815
ple	1816
##dd	1817
room	1818
john	1819
).	1820
##inal	1821
reve	1822
alleg	1823
reveal	1824
ated	1825
##ik	1826
18	1827
league	1828
du	1829
cy	1830
gaz	1831
ought	1832
india	1833
whi	1834
short	1835
jun	1836
##ivers	1837
parent	1838
current	1839
ukraine	1840
non	1841
dist	1842
##gu	1843
##loy	1844
fall	1845
club	1846
eight	1847
europe	1848
wrote	1849
tell	1850
suc	1851
univers	1852
ill	1853
ul	1854
##red	1855
##35	1856
interest	1857
##pr	1858
eries	1859
lu	1860
hope	1861
ground	1862
cand	1863
militar	1864
small	1865
hol	1866
inform	1867
page	1868
ised	1869
order	1870
publican	1871
sha	1872
tax	1873
##res	1874
goal	1875
walk	1876
chief	1877
critic	1878
##ee	1879
##erg	1880
general	1881
bank	1882
treat	1883
toget	1884
together	1885
contro	1886
human	1887
sex	1888
thought	1889
concern	1890
summ	1891
class	1892
##ift	1893
depart	1894
##45	1895
pen	1896
chall	1897
ability	1898
inf	1899
must	1900
##inian	1901
sug	1902
bill	1903
seem	1904
25	1905
bit	1906
mc	1907
role	1908
##ceive	1909
##ton	1910
eas	1911
ting	1912
##iam	1913
dro	1914
due	1915
step	1916
spite	1917
consider	1918
ably	1919
13	1920
sta	1921
##que	1922
phone	1923
##ward	1924
taking	1925
dou	1926
reach	1927
fight	1928
wide	1929
fut	1930
ial	1931
##ata	1932
##ource	1933
##duc	1934
defe	1935
##par	1936
hot	1937
##ife	1938
glo	1939
hind	1940
85	1941
champ	1942
action	1943
ries	1944
##tle	1945
##ci	1946
bi	1947
cit	1948
mother	1949
challeng	1950
##10	1951
##fa	1952
protect	1953
mur	1954
space	1955
direct	1956
##mp	1957
often	1958
future	1959
50	1960
##lement	1961
taken	1962
heart	1963
##ival	1964
viol	1965
mig	1966
cele	1967
ai	1968
##man	1969
##71	1970
14	1971
receive	1972
##25	1973
##az	1974
##cus	1975
risk	1976
oct	1977
feat	1978
ite	1979
ago	1980
super	1981
##0_	1982
gett	1983
success	1984
today	1985
celeb	1986
ten	1987
region	1988
christ	1989
process	1990
##over	1991
launch	1992
hosp	1993
secret	1994
text	1995
##89	1996
agree	1997
champion	1998
aust	1999
important	2000
seat	2001
tour	2002
hospital	2003
ors	2004
travel	2005
tue	2006
lond	2007
##ourn	2008
gan	2009
lat	2010
london	2011
israel	2012
friday	2013
story	2014
focus	2015
ential	2016
dom	2017
data	2018
whet	2019
front	2020
cam	2021
board	2022
gar	2023
bur	2024
ide	2025
ri	2026
##blem	2027
ously	2028
relation	2029
migr	2030
bir	2031
cert	2032
##15	2033
fel	2034
fail	2035
done	2036
##36	2037
##ave	2038
strike	2039
control	2040
donald	2041
kind	2042
##vers	2043
problem	2044
fully	2045
##ose	2046
israeli	2047
mer	2048
##irl	2049
target	2050
##72	2051
stead	2052
stay	2053
16	2054
design	2055
##imat	2056
china	2057
prop	2058
join	2059
tuesday	2060
account	2061
mor	2062
nov	2063
street	2064
wash	2065
##ention	2066
student	2067
deep	2068
effect	2069
60	2070
##cent	2071
inte	2072
depend	2073
enter	2074
fed	2075
##icket	2076
##rest	2077
100	2078
##gest	2079
##</	2080
prog	2081
woman	2082
partner	2083
##olve	2084
##irm	2085
project	2086
flo	2087
further	2088
suggest	2089
##nes	2090
##ca	2091
charge	2092
gold	2093
requ	2094
##32	2095
late	2096
ington	2097
once	2098
program	2099
##ash	2100
##90	2101
ping	2102
cover	2103
ese	2104
ett	2105
ident	2106
town	2107
candid	2108
##oke	2109
##iti	2110
##ior	2111
warn	2112
ther	2113
sus	2114
cult	2115
wood	2116
ature	2117
poll	2118
journ	2119
lim	2120
thur	2121
fun	2122
tro	2123
boy	2124
san	2125
##empt	2126
mess	2127
ier	2128
##play	2129
shot	2130
building	2131
wednes	2132
wednesda	2133
##99	2134
employ	2135
energ	2136
getty	2137
os	2138
display	2139
product	2140
ice	2141
green	2142
couple	2143
girl	2144
vo	2145
bad	2146
tit	2147
priv	2148
##unt	2149
effort	2150
ach	2151
race	2152
##ov	2153
seven	2154
reason	2155
round	2156
saw	2157
jam	2158
exc	2159
stop	2160
##bal	2161
kid	2162
ib	2163
dav	2164
prime	2165
accus	2166
occ	2167
condition	2168
thursday	2169
wards	2170
creas	2171
summer	2172
dam	2173
minister	2174
40	2175
road	2176
victor	2177
##resent	2178
fer	2179
mass	2180
buy	2181
deliver	2182
##icle	2183
possible	2184
##cept	2185
bord	2186
dpr	2187
ser	2188
sea	2189
sho	2190
iv	2191
pu	2192
yet	2193
gl	2194
wind	2195
career	2196
access	2197
leave	2198
staff	2199
##ala	2200
conv	2201
complete	2202
legal	2203
ified	2204
march	2205
##arn	2206
represent	2207
pick	2208
bed	2209
fact	2210
require	2211
quar	2212
hor	2213
##16	2214
music	2215
king	2216
ven	2217
##cil	2218
impact	2219
vir	2220
billion	2221
var	2222
vol	2223
##ificant	2224
ignificant	2225
course	2226
fal	2227
um	2228
word	2229
interview	2230
lier	2231
##ensive	2232
main	2233
arrest	2234
tic	2235
"},{"	2236
ising	2237
fav	2238
drop	2239
feature	2240
gener	2241
vision	2242
mich	2243
particular	2244
federal	2245
hear	2246
present	2247
##fic	2248
##minist	2249
tre	2250
##ilt	2251
eye	2252
proper	2253
attempt	2254
administ	2255
satur	2256
##ah	2257
history	2258
##83	2259
##19	2260
##ison	2261
personal	2262
mot	2263
percent	2264
confirm	2265
ble	2266
##17	2267
ates	2268
rese	2269
ish	2270
suit	2271
ized	2272
protest	2273
fre	2274
explain	2275
ben	2276
##land	2277
##ughter	2278
activ	2279
coach	2280
##cum	2281
##rov	2282
roy	2283
held	2284
saturday	2285
improv	2286
##ball	2287
hy	2288
rule	2289
scot	2290
football	2291
photo	2292
##ze	2293
information	2294
##bb	2295
coll	2296
decid	2297
labour	2298
involve	2299
father	2300
##85	2301
grand	2302
render	2303
global	2304
quarter	2305
fast	2306
apr	2307
austral	2308
gun	2309
wait	2310
judge	2311
dot	2312
quick	2313
australia	2314
##39	2315
rich	2316
vice	2317
cust	2318
anti	2319
broad	2320
exec	2321
sn	2322
dan	2323
fla	2324
##ator	2325
tru	2326
guard	2327
finan	2328
ator	2329
##ateg	2330
ari	2331
bene	2332
##oy	2333
octo	2334
felt	2335
hon	2336
mult	2337
nce	2338
##12	2339
##org	2340
source	2341
les	2342
typ	2343
tor	2344
24	2345
limit	2346
##cast	2347
learn	2348
custom	2349
profe	2350
ties	2351
##stand	2352
sept	2353
understand	2354
tv	2355
beat	2356
indust	2357
brand	2358
forward	2359
financial	2360
decade	2361
##ugg	2362
pain	2363
thank	2364
##tal	2365
card	2366
stage	2367
emer	2368
han	2369
british	2370
sale	2371
afric	2372
trial	2373
avail	2374
certain	2375
aug	2376
actual	2377
fig	2378
worth	2379
##dle	2380
crease	2381
opport	2382
##66	2383
##icy	2384
operation	2385
dog	2386
mak	2387
policy	2388
sty	2389
simpl	2390
##ys	2391
manage	2392
box	2393
##ased	2394
title	2395
push	2396
argu	2397
matter	2398
council	2399
economic	2400
mission	2401
total	2402
lines	2403
border	2404
kh	2405
mile	2406
river	2407
inciden	2408
wife	2409
2020	2410
produc	2411
morn	2412
morning	2413
cast	2414
weight	2415
ring	2416
2021	2417
janu	2418
wel	2419
congress	2420
research	2421
dia	2422
writ	2423
0_0_	2424
bal	2425
##gn	2426
##88	2427
dre	2428
prose	2429
rad	2430
director	2431
running	2432
wear	2433
stat	2434
ise	2435
##ama	2436
##ense	2437
erious	2438
##ency	2439
equ	2440
ize	2441
emerge	2442
##,""	2443
_ty	2444
itu	2445
finish	2446
_type	2447
ists	2448
georg	2449
centre	2450
track	2451
explo	2452
bea	2453
crime	2454
demand	2455
german	2456
##raph	2457
35	2458
va	2459
##ilar	2460
igation	2461
figure	2462
</	2463
emb	2464
initi	2465
,'	2466
spec	2467
##44	2468
bud	2469
prob	2470
##27	2471
expert	2472
##ary	2473
civ	2474
eth	2475
dead	2476
mind	2477
check	2478
cup	2479
swe	2480
daughter	2481
america	2482
attend	2483
store	2484
##rem	2485
ts	2486
##ml	2487
publish	2488
##24	2489
ht	2490
##ror	2491
value	2492
commit	2493
rele	2494
true	2495
released	2496
ample	2497
scott	2498
detail	2499
##ager	2500
##rict	2501
joe	2502
indian	2503
respond	2504
bow	2505
der	2506
##ea	2507
union	2508
civil	2509
ti	2510
rock	2511
living	2512
safe	2513
ak	2514
conserv	2515
##ension	2516
ina	2517
link	2518
ka	2519
##f5	2520
##oma	2521
capt	2522
trugg	2523
iran	2524
nom	2525
##ode	2526
drive	2527
dig	2528
lease	2529
crim	2530
prison	2531
owner	2532
false	2533
##element	2534
##pri	2535
reduc	2536
22	2537
search	2538
peri	2539
fair	2540
assist	2541
##86	2542
island	2543
privat	2544
##self	2545
base	2546
hama	2547
similar	2548
rath	2549
spot	2550
address	2551
blockelement	2552
21	2553
ees	2554
shop	2555
sel	2556
prim	2557
anger	2558
claimed	2559
pressur	2560
iffic	2561
ifficult	2562
nam	2563
ible	2564
##ma	2565
scene	2566
himself	2567
##ruct	2568
##oint	2569
comb	2570
wall	2571
##co	2572
##mi	2573
##joy	2574
ford	2575
##uel	2576
vill	2577
enjoy	2578
oly	2579
table	2580
vious	2581
plat	2582
afety	2583
trib	2584
defend	2585
olymp	2586
neg	2587
unity	2588
aud	2589
ps	2590
miss	2591
mediate	2592
ituation	2593
ingly	2594
soon	2595
##ength	2596
ja	2597
heav	2598
approach	2599
##14	2600
leading	2601
abs	2602
##pped	2603
pack	2604
benefit	2605
sports	2606
vers	2607
html	2608
##oud	2609
ang	2610
educ	2611
review	2612
respons	2613
response	2614
jack	2615
spoke	2616
clos	2617
adm	2618
amaz	2619
scor	2620
period	2621
mate	2622
hur	2623
##18	2624
express	2625
##wer	2626
panies	2627
##000	2628
gi	2629
capital	2630
##ves	2631
gla	2632
option	2633
via	2634
##bs	2635
suffer	2636
sold	2637
huge	2638
victim	2639
>,""	2640
spect	2641
aid	2642
ken	2643
ure	2644
##ication	2645
firm	2646
earn	2647
pent	2648
##26	2649
spokes	2650
##33	2651
drug	2652
pract	2653
van	2654
##uct	2655
##49	2656
##verage	2657
trust	2658
central	2659
calif	2660
style	2661
aff	2662
august	2663
criminal	2664
selves	2665
##cut	2666
##row	2667
images	2668
industry	2669
whole	2670
##rupt	2671
hop	2672
range	2673
##ative	2674
##lex	2675
royal	2676
mad	2677
prem	2678
deter	2679
shoot	2680
##asure	2681
docum	2682
##duct	2683
document	2684
##vent	2685
door	2686
##itted	2687
##e5	2688
ner	2689
middle	2690
compar	2691
fear	2692
":"<	2693
orig	2694
winn	2695
nothing	2696
addition	2697
palest	2698
##idence	2699
beaut	2700
quite	2701
palestinian	2702
?"	2703
serve	2704
##ane	2705
plann	2706
hus	2707
tur	2708
##ude	2709
prince	2710
heat	2711
charact	2712
character	2713
ange	2714
sil	2715
flight	2716
popular	2717
pie	2718
stock	2719
prepar	2720
resident	2721
utive	2722
jury	2723
##agram	2724
instagram	2725
chair	2726
ep	2727
marri	2728
common	2729
##tain	2730
##rive	2731
##ivid	2732
##95	2733
cris	2734
dest	2735
fort	2736
olympic	2737
fra	2738
sound	2739
chest	2740
accept	2741
om	2742
enc	2743
desc	2744
##lect	2745
cir	2746
env	2747
murder	2748
struct	2749
ave	2750
##ograph	2751
##gin	2752
##ha	2753
##ipl	2754
manager	2755
##ornia	2756
ran	2757
assa	2758
2019	2759
california	2760
hall	2761
##f0	2762
ants	2763
lock	2764
rates	2765
bbc	2766
spa	2767
propos	2768
giv	2769
development	2770
farm	2771
ler	2772
wal	2773
##b0	2774
tele	2775
##uch	2776
##ench	2777
evidence	2778
platform	2779
wrong	2780
##uss	2781
##idge	2782
individ	2783
##onment	2784
##ironment	2785
crow	2786
environment	2787
individual	2788
france	2789
caus	2790
workers	2791
extra	2792
usual	2793
olo	2794
previ	2795
urge	2796
commi	2797
department	2798
##imate	2799
##by	2800
##rage	2801
scre	2802
senior	2803
david	2804
angel	2805
23	2806
ny	2807
nar	2808
##dge	2809
veh	2810
commission	2811
##band	2812
##erence	2813
##cel	2814
affect	2815
husband	2816
oil	2817
dai	2818
responsib	2819
clean	2820
foreign	2821
aim	2822
rise	2823
prevent	2824
sense	2825
'.	2826
##cl	2827
##rap	2828
blue	2829
journal	2830
ye	2831
vari	2832
gue	2833
pair	2834
##ony	2835
extrem	2836
pool	2837
pra	2838
tal	2839
ada	2840
william	2841
photograph	2842
nine	2843
##oid	2844
chem	2845
easy	2846
500	2847
##otion	2848
aging	2849
strateg	2850
touch	2851
venue	2852
ify	2853
prior	2854
growth	2855
26	2856
sle	2857
assoc	2858
##f7	2859
terri	2860
uring	2861
vehicle	2862
average	2863
hreat	2864
gave	2865
cancer	2866
##stic	2867
kar	2868
chan	2869
shar	2870
debate	2871
budget	2872
ned	2873
rated	2874
##ness	2875
counter	2876
song	2877
instit	2878
nomin	2879
##ex	2880
tom	2881
stra	2882
piece	2883
ious	2884
mos	2885
pari	2886
born	2887
cat	2888
amount	2889
sin	2890
phil	2891
actor	2892
##ern	2893
fest	2894
jur	2895
tun	2896
doctor	2897
consum	2898
wee	2899
rob	2900
##mer	2901
score	2902
screen	2903
##gg	2904
heard	2905
remov	2906
rom	2907
rout	2908
discuss	2909
dependent	2910
fac	2911
twi	2912
charg	2913
ult	2914
##87	2915
paper	2916
sent	2917
##ech	2918
mil	2919
ali	2920
sav	2921
parl	2922
tion	2923
exist	2924
peace	2925
phys	2926
defense	2927
paid	2928
lit	2929
sal	2930
##era	2931
measure	2932
birth	2933
ee	2934
norm	2935
":[	2936
path	2937
##bit	2938
entire	2939
french	2940
appeal	2941
education	2942
ath	2943
perfect	2944
feb	2945
patient	2946
sam	2947
##iament	2948
parliament	2949
rain	2950
hotel	2951
dress	2952
eu	2953
fence	2954
ns	2955
premier	2956
##read	2957
speech	2958
hill	2959
ium	2960
nc	2961
holiday	2962
sexual	2963
bri	2964
fran	2965
lack	2966
##asion	2967
tem	2968
roll	2969
27	2970
##oric	2971
kids	2972
damage	2973
neigh	2974
neighb	2975
##a0	2976
band	2977
crowd	2978
ticket	2979
conduct	2980
shock	2981
regul	2982
petition	2983
##22	2984
stone	2985
ess	2986
ians	2987
mart	2988
wild	2989
thous	2990
leav	2991
pend	2992
thousand	2993
gone	2994
works	2995
choice	2996
spr	2997
##ost	2998
avoid	2999
##ban	3000
stor	3001
sand	3002
##kend	3003
weekend	3004
skin	3005
pleas	3006
.</	3007
##ga	3008
##orce	3009
repe	3010
ans	3011
movie	3012
ct	3013
cas	3014
brother	3015
##ribed	3016
described	3017
ol	3018
institut	3019
febru	3020
rul	3021
##af	3022
eith	3023
##cd	3024
##11	3025
hood	3026
##34	3027
logy	3028
double	3029
structure	3030
pending	3031
ron	3032
techno	3033
medical	3034
##62	3035
type	3036
##a5	3037
station	3038
smith	3039
ease	3040
jon	3041
ted	3042
##ament	3043
scar	3044
tradition	3045
migrant	3046
driv	3047
ni	3048
favour	3049
nig	3050
popul	3051
gas	3052
kick	3053
##eria	3054
study	3055
ukrainian	3056
mount	3057
medic	3058
families	3059
fill	3060
lay	3061
blood	3062
mal	3063
arrive	3064
storm	3065
carri	3066
chester	3067
ord	3068
##xic	3069
div	3070
flation	3071
answer	3072
##mas	3073
chel	3074
##onder	3075
climat	3076
teen	3077
drink	3078
christmas	3079
memor	3080
##ka	3081
##68	3082
burn	3083
vil	3084
complain	3085
progress	3086
mel	3087
acy	3088
flor	3089
discover	3090
culture	3091
##aly	3092
sky	3093
intro	3094
pull	3095
80	3096
beach	3097
bor	3098
brita	3099
ships	3100
giving	3101
para	3102
africa	3103
##a9	3104
##ential	3105
trip	3106
hair	3107
mac	3108
cop	3109
##fort	3110
hat	3111
##isl	3112
teach	3113
comfort	3114
##ally	3115
promise	3116
ko	3117
anim	3118
loved	3119
sleep	3120
##itor	3121
weap	3122
draw	3123
weapon	3124
row	3125
excit	3126
oh	3127
##umb	3128
poor	3129
contract	3130
##emic	3131
attorn	3132
attorney	3133
natur	3134
##75	3135
##70	3136
##ham	3137
ram	3138
##65	3139
coast	3140
plant	3141
##fer	3142
rating	3143
slow	3144
##omb	3145
199	3146
battle	3147
gain	3148
##bert	3149
natural	3150
rival	3151
##48	3152
estab	3153
crisis	3154
##cle	3155
legisl	3156
tribute	3157
bott	3158
##irt	3159
trade	3160
engage	3161
##64	3162
paul	3163
standard	3164
bon	3165
##ght	3166
agency	3167
multipl	3168
dream	3169
ren	3170
mag	3171
site	3172
cry	3173
pin	3174
##ael	3175
compet	3176
regular	3177
conflic	3178
collect	3179
olog	3180
establish	3181
spread	3182
soft	3183
voice	3184
truggle	3185
ky	3186
tu	3187
wonder	3188
##ess	3189
factor	3190
named	3191
##ris	3192
lation	3193
##na	3194
letter	3195
tim	3196
prosecut	3197
##ndred	3198
content	3199
hundred	3200
weather	3201
ney	3202
sell	3203
arch	3204
##dict	3205
stream	3206
standing	3207
28	3208
mp	3209
##nect	3210
rough	3211
##iel	3212
connect	3213
aware	3214
determin	3215
profession	3216
ordin	3217
regard	3218
practic	3219
yard	3220
cook	3221
carry	3222
associate	3223
date	3224
nav	3225
##f9	3226
respect	3227
##ste	3228
solution	3229
repeat	3230
ya	3231
mas	3232
##lace	3233
michael	3234
pitch	3235
bey	3236
wester	3237
contact	3238
replace	3239
western	3240
baby	3241
##ffic	3242
##pm	3243
##bt	3244
issu	3245
corn	3246
sched	3247
reflect	3248
29	3249
estimat	3250
bowl	3251
##uth	3252
warm	3253
hap	3254
posit	3255
truck	3256
ances	3257
award	3258
facilit	3259
bridge	3260
##ove	3261
recover	3262
kam	3263
vet	3264
##c0	3265
##c5	3266
##ara	3267
mental	3268
suspect	3269
gard	3270
fix	3271
gin	3272
production	3273
cow	3274
lang	3275
##78	3276
artist	3277
craft	3278
##ung	3279
effective	3280
migration	3281
digital	3282
##olut	3283
emotion	3284
alter	3285
terror	3286
original	3287
beh	3288
necess	3289
retire	3290
sat	3291
appearance	3292
jap	3293
##\"	3294
##ily	3295
##sen	3296
sector	3297
lan	3298
ught	3299
ves	3300
##do	3301
##69	3302
ality	3303
maint	3304
2025	3305
camera	3306
specific	3307
maintain	3308
##ceed	3309
profit	3310
settle	3311
die	3312
absolut	3313
##yer	3314
throw	3315
ily	3316
##b5	3317
##luence	3318
built	3319
secure	3320
surpri	3321
influence	3322
surprise	3323
mob	3324
particip	3325
japan	3326
.,	3327
620	3328
=\"	3329
hunt	3330
##aur	3331
poke	3332
scottish	3333
fox	3334
winner	3335
445	3336
gro	3337
convers	3338
rose	3339
schedul	3340
sentence	3341
normal	3342
insp	3343
reme	3344
inspir	3345
mum	3346
pir	3347
fell	3348
605	3349
payment	3350
##izen	3351
sort	3352
citizen	3353
ming	3354
ncy	3355
attention	3356
":[{"	3357
prett	3358
historic	3359
tin	3360
wit	3361
##d0	3362
##ize	3363
nigeria	3364
\"	3365
fish	3366
ana	3367
physical	3368
kore	3369
generation	3370
korea	3371
ov	3372
sight	3373
##itive	3374
encou	3375
300	3376
cash	3377
professional	3378
alex	3379
stad	3380
whe	3381
oc	3382
justice	3383
deni	3384
ara	3385
era	3386
shire	3387
fle	3388
defeat	3389
opt	3390
email	3391
electric	3392
##quest	3393
au	3394
above	3395
pand	3396
##stain	3397
ita	3398
fat	3399
tik	3400
request	3401
nel	3402
--	3403
rank	3404
separ	3405
separat	3406
##ney	3407
trength	3408
mix	3409
##ood	3410
bag	3411
conference	3412
##cu	3413
liver	3414
##app	3415
abuse	3416
ification	3417
partie	3418
apple	3419
village	3420
defin	3421
corp	3422
##yl	3423
fuel	3424
lad	3425
##mit	3426
dance	3427
##7b	3428
pi	3429
begin	3430
ray	3431
##irst	3432
##me	3433
2016	3434
intell	3435
essential	3436
ub	3437
webs	3438
active	3439
constit	3440
statu	3441
website	3442
mic	3443
ency	3444
":{"	3445
apart	3446
tay	3447
##73	3448
contain	3449
robert	3450
lied	3451
lawyer	3452
fine	3453
abort	3454
convict	3455
##omm	3456
harm	3457
makers	3458
athle	3459
introduc	3460
advance	3461
restaur	3462
tough	3463
sustain	3464
rap	3465
##ogn	3466
recogn	3467
surve	3468
related	3469
nat	3470
inn	3471
90	3472
fly	3473
##79	3474
illeg	3475
illegal	3476
andre	3477
fortun	3478
yo	3479
##ya	3480
ala	3481
corre	3482
afford	3483
charged	3484
##ging	3485
##ake	3486
##br	3487
##vert	3488
shift	3489
adult	3490
flu	3491
bum	3492
sir	3493
garden	3494
##light	3495
conne	3496
##ef	3497
ibility	3498
threat	3499
scri	3500
##ida	3501
location	3502
restaurant	3503
dark	3504
tory	3505
god	3506
placed	3507
putin	3508
penn	3509
!"	3510
##ced	3511
batter	3512
priorit	3513
oci	3514
alone	3515
demon	3516
bling	3517
wish	3518
##ify	3519
assault	3520
color	3521
mari	3522
kept	3523
2018	3524
dad	3525
highlight	3526
##pub	3527
sup	3528
sym	3529
inj	3530
imm	3531
closed	3532
##publish	3533
impress	3534
famous	3535
bay	3536
sey	3537
><	3538
##first	3539
mach	3540
predict	3541
indic	3542
surv	3543
blockfirst	3544
##published	3545
blockfirstpublished	3546
appoint	3547
len	3548
##e9	3549
grant	3550
remark	3551
delay	3552
obvi	3553
fighting	3554
mill	3555
rid	3556
stu	3557
quad	3558
fresh	3559
##42	3560
##fc	3561
exact	3562
annual	3563
martin	3564
##bd	3565
enger	3566
jew	3567
gh	3568
nh	3569
##go	3570
##43	3571
##tok	3572
cab	3573
floor	3574
bomb	3575
reform	3576
boost	3577
lined	3578
tiktok	3579
threaten	3580
tree	3581
ah	3582
pod	3583
deg	3584
mexic	3585
ash	3586
##work	3587
domin	3588
ip	3589
dev	3590
network	3591
florida	3592
gate	3593
##ling	3594
##come	3595
lake	3596
festival	3597
iving	3598
arr	3599
center	3600
elected	3601
welcome	3602
injure	3603
gent	3604
mail	3605
70	3606
wag	3607
district	3608
vic	3609
analy	3610
speed	3611
recall	3612
31	3613
cies	3614
version	3615
temper	3616
nt	3617
stress	3618
brown	3619
spend	3620
ki	3621
##force	3622
smart	3623
scored	3624
rang	3625
zone	3626
bull	3627
surviv	3628
vent	3629
dar	3630
doll	3631
tayl	3632
gm	3633
tip	3634
##urch	3635
nic	3636
##82	3637
contest	3638
rick	3639
boss	3640
ric	3641
##usion	3642
gy	3643
facing	3644
ators	3645
missile	3646
crash	3647
squ	3648
epis	3649
witness	3650
pandemic	3651
##ieve	3652
spring	3653
wan	3654
ancing	3655
label	3656
ociety	3657
ast	3658
cold	3659
gender	3660
episode	3661
ok	3662
cool	3663
agent	3664
georgi	3665
guilt	3666
journey	3667
behav	3668
ending	3669
rev	3670
ongo	3671
kin	3672
##ful	3673
queen	3674
##ape	3675
lift	3676
elling	3677
pad	3678
church	3679
drone	3680
debt	3681
audience	3682
jer	3683
lie	3684
##enty	3685
doubt	3686
shut	3687
beauti	3688
##50	3689
fem	3690
##4b	3691
trad	3692
##ization	3693
organization	3694
lies	3695
wing	3696
##c9	3697
prove	3698
jen	3699
attract	3700
nick	3701
##date	3702
update	3703
jail	3704
wale	3705
pak	3706
cream	3707
swift	3708
debut	3709
bid	3710
##able	3711
bear	3712
lev	3713
rent	3714
century	3715
winter	3716
##imin	3717
gri	3718
inner	3719
recomm	3720
kamala	3721
recommend	3722
ning	3723
##eb	3724
##nel	3725
wave	3726
##3d	3727
##olog	3728
advise	3729
##fb	3730
holding	3731
psy	3732
engine	3733
pun	3734
##_5	3735
##erate	3736
loan	3737
imag	3738
english	3739
modern	3740
juries	3741
angerous	3742
negot	3743
rh	3744
insist	3745
amazon	3746
straight	3747
traditional	3748
langu	3749
##ona	3750
flood	3751
dub	3752
##cue	3753
affa	3754
##ashion	3755
affair	3756
fuse	3757
fashion	3758
##nic	3759
manu	3760
rative	3761
bol	3762
lou	3763
sing	3764
scale	3765
fif	3766
eventual	3767
writer	3768
ites	3769
degree	3770
dish	3771
chat	3772
##olf	3773
luck	3774
balance	3775
ker	3776
bell	3777
jump	3778
pac	3779
solve	3780
intellig	3781
cus	3782
cient	3783
##1a	3784
chi	3785
carol	3786
construct	3787
universi	3788
journalist	3789
ku	3790
lic	3791
female	3792
32	3793
ones	3794
##quir	3795
putt	3796
brain	3797
favor	3798
writing	3799
combin	3800
demonst	3801
##f2	3802
prosecutor	3803
sister	3804
difference	3805
occur	3806
##cri	3807
##ural	3808
wil	3809
stick	3810
izing	3811
khan	3812
ncies	3813
##lare	3814
stood	3815
restrict	3816
mir	3817
##],"	3818
mun	3819
disp	3820
expand	3821
jones	3822
declare	3823
enforce	3824
scape	3825
contrib	3826
earth	3827
plane	3828
profess	3829
spective	3830
micro	3831
ww	3832
istic	3833
married	3834
##e2	3835
##fd	3836
##a2	3837
tourn	3838
trail	3839
tournament	3840
topped	3841
tag	3842
consist	3843
language	3844
frame	3845
trou	3846
committed	3847
2017	3848
intens	3849
reb	3850
boat	3851
##uci	3852
occasion	3853
bul	3854
nice	3855
doz	3856
cloth	3857
wi	3858
##nal	3859
reject	3860
rail	3861
berg	3862
subject	3863
encourage	3864
36	3865
tan	3866
haven	3867
applic	3868
extend	3869
choos	3870
\">	3871
##472	3872
aries	3873
write	3874
colour	3875
constitution	3876
##ker	3877
truth	3878
college	3879
##round	3880
arsen	3881
surround	3882
penal	3883
cheme	3884
arsenal	3885
ci	3886
chic	3887
troop	3888
proud	3889
##istan	3890
command	3891
ballot	3892
pension	3893
##zz	3894
pros	3895
skill	3896
connection	3897
pakistan	3898
raise	3899
flow	3900
obs	3901
horr	3902
nut	3903
##lim	3904
article	3905
dome	3906
index	3907
##wa	3908
hern	3909
reserv	3910
cultural	3911
catch	3912
mine	3913
brief	3914
rac	3915
cel	3916
tas	3917
ense	3918
laugh	3919
dry	3920
mont	3921
gather	3922
survey	3923
gor	3924
rum	3925
##46	3926
##ass	3927
tool	3928
stated	3929
traffic	3930
infra	3931
multi	3932
##inc	3933
allies	3934
guide	3935
retail	3936
window	3937
tack	3938
aged	3939
print	3940
48	3941
##action	3942
adam	3943
rescue	3944
strict	3945
mayor	3946
mike	3947
paint	3948
rod	3949
flag	3950
eek	3951
##oul	3952
chang	3953
ferred	3954
daniel	3955
gam	3956
rity	3957
##hib	3958
wealth	3959
trend	3960
talent	3961
##67	3962
##pper	3963
cere	3964
mater	3965
ow	3966
##c2	3967
material	3968
fee	3969
bright	3970
##hibit	3971
gall	3972
kel	3973
og	3974
##isc	3975
dollar	3976
lord	3977
##of	3978
confide	3979
captain	3980
soldier	3981
55	3982
##1b	3983
hav	3984
admitted	3985
lla	3986
##e8	3987
prof	3988
qui	3989
url	3990
49	3991
lash	3992
##ucle	3993
motor	3994
33	3995
##ria	3996
ack	3997
##c4	3998
user	3999
supply	4000
surf	4001
listen	4002
99	4003
##cise	4004
##racy	4005
logical	4006
ocracy	4007
nucle	4008
spl	4009
divers	4010
##quent	4011
fortunate	4012
ique	4013
cru	4014
ware	4015
achieve	4016
ically	4017
colleague	4018
fellow	4019
intelligence	4020
ard	4021
ginning	4022
rub	4023
vin	4024
ester	4025
nuclear	4026
mort	4027
crew	4028
labor	4029
##ons	4030
lyn	4031
correct	4032
fare	4033
mist	4034
tle	4035
wise	4036
##fact	4037
##ali	4038
minor	4039
nas	4040
##lad	4041
ultimate	4042
semi	4043
stuff	4044
##31	4045
alli	4046
resource	4047
gram	4048
flat	4049
starmer	4050
broke	4051
breaking	4052
broadcast	4053
eq	4054
ged	4055
##lam	4056
definite	4057
##arian	4058
lee	4059
esh	4060
wedd	4061
00	4062
##oph	4063
african	4064
glass	4065
lam	4066
ization	4067
##anyah	4068
netanyah	4069
bond	4070
odd	4071
ility	4072
rush	4073
##ero	4074
ress	4075
ens	4076
chain	4077
mand	4078
joy	4079
committ	4080
ception	4081
transp	4082
switch	4083
kenn	4084
committee	4085
bound	4086
ox	4087
##hi	4088
##roy	4089
musk	4090
hung	4091
sant	4092
##sea	4093
destroy	4094
chelsea	4095
arab	4096
ston	4097
##urb	4098
typical	4099
tee	4100
bru	4101
necessary	4102
psych	4103
ado	4104
maybe	4105
cities	4106
intend	4107
equal	4108
kate	4109
##now	4110
pose	4111
rah	4112
expos	4113
radio	4114
equip	4115
acknow	4116
gift	4117
##oo	4118
commer	4119
prompt	4120
##cul	4121
forest	4122
blow	4123
programme	4124
hid	4125
##bn	4126
assess	4127
ried	4128
##**	4129
##onent	4130
##chase	4131
feet	4132
##itten	4133
register	4134
gradu	4135
blame	4136
graph	4137
purchase	4138
bird	4139
46	4140
tight	4141
cancel	4142
written	4143
modi	4144
ville	4145
corner	4146
domestic	4147
eat	4148
lived	4149
planned	4150
route	4151
manufact	4152
manufactur	4153
code	4154
sequ	4155
transport	4156
mary	4157
complex	4158
conservative	4159
##cket	4160
goog	4161
teacher	4162
ay	4163
toda	4164
##isation	4165
liber	4166
note	4167
contra	4168
dismi	4169
##ago	4170
organisation	4171
veter	4172
dismiss	4173
##ube	4174
chicago	4175
cerem	4176
dict	4177
##usive	4178
credible	4179
neighbor	4180
37	4181
io	4182
##ron	4183
sco	4184
minim	4185
implement	4186
richard	4187
llah	4188
google	4189
##8a	4190
##zer	4191
##pping	4192
clar	4193
keeping	4194
udd	4195
frank	4196
entertain	4197
34	4198
kim	4199
ade	4200
integ	4201
altern	4202
crack	4203
burgh	4204
42	4205
##etic	4206
##edon	4207
clin	4208
lux	4209
bath	4210
medal	4211
giant	4212
mexico	4213
observ	4214
>\	4215
##van	4216
disapp	4217
clark	4218
refu	4219
disappoint	4220
ery	4221
##iment	4222
##unk	4223
##emb	4224
object	4225
male	4226
pil	4227
tter	4228
##ni	4229
##cis	4230
shape	4231
francis	4232
weak	4233
cruci	4234
broken	4235
insur	4236
##6b	4237
##orate	4238
plenty	4239
consult	4240
honest	4241
louis	4242
ii	4243
raj	4244
sweet	4245
luc	4246
##74	4247
isation	4248
veteran	4249
39	4250
sitt	4251
##d9	4252
offensive	4253
dipl	4254
arti	4255
guest	4256
sitting	4257
diploma	4258
mouth	4259
assemb	4260
2015	4261
hurt	4262
trouble	4263
',	4264
##e0	4265
##d5	4266
##ob	4267
##inion	4268
governor	4269
opinion	4270
opponent	4271
athlete	4272
eg	4273
muse	4274
museum	4275
coal	4276
hole	4277
cycle	4278
encing	4279
load	4280
asset	4281
##noon	4282
bour	4283
##c3	4284
ital	4285
##imb	4286
nes	4287
hero	4288
root	4289
afternoon	4290
kei	4291
##aps	4292
transform	4293
itarian	4294
##adow	4295
##opt	4296
upon	4297
marg	4298
capture	4299
maker	4300
chris	4301
horse	4302
##last	4303
mann	4304
www	4305
pound	4306
ino	4307
##ating	4308
##raw	4309
##gend	4310
##ada	4311
remind	4312
##acit	4313
pala	4314
vacc	4315
udden	4316
ji	4317
legend	4318
task	4319
jet	4320
pm	4321
itude	4322
adopt	4323
lative	4324
##6a	4325
gov	4326
joke	4327
cheap	4328
scribe	4329
nbc	4330
##creat	4331
##dated	4332
##so	4333
thoma	4334
##olk	4335
blocklast	4336
blockcreat	4337
advoc	4338
##updated	4339
ction	4340
blocklastupdated	4341
blockcreatedon	4342
cart	4343
ez	4344
hang	4345
pensive	4346
should	4347
meth	4348
draft	4349
neighbour	4350
jim	4351
za	4352
ition	4353
anth	4354
tend	4355
cell	4356
detect	4357
swim	4358
pic	4359
ral	4360
##cb	4361
##let	4362
disrupt	4363
soci	4364
rator	4365
kat	4366
vid	4367
##fl	4368
bert	4369
classic	4370
activity	4371
##_2	4372
##antage	4373
##ilities	4374
advantage	4375
square	4376
59	4377
75	4378
nur	4379
finance	4380
imagine	4381
sara	4382
atl	4383
scr	4384
38	4385
##_35	4386
cher	4387
uni	4388
breath	4389
approve	4390
marriage	4391
cath	4392
math	4393
tam	4394
tha	4395
christian	4396
mistake	4397
fant	4398
tance	4399
matt	4400
drag	4401
sequence	4402
ira	4403
##atic	4404
transfer	4405
capacit	4406
strip	4407
split	4408
vul	4409
##77	4410
##pose	4411
tear	4412
appre	4413
earl	4414
promote	4415
purpose	4416
collaps	4417
podcast	4418
vaccin	4419
core	4420
##ffe	4421
ager	4422
length	4423
##]}	4424
pirit	4425
negoti	4426
lor	4427
nd	4428
cease	4429
feed	4430
monitor	4431
twe	4432
clip	4433
ivity	4434
gon	4435
kil	4436
medi	4437
fraud	4438
bottom	4439
gang	4440
rene	4441
##84	4442
##abo	4443
liter	4444
prospect	4445
bio	4446
reli	4447
collabo	4448
castle	4449
mim	4450
tir	4451
##ledge	4452
willing	4453
aggress	4454
knock	4455
direction	4456
appropri	4457
constant	4458
snow	4459
singh	4460
acknowledge	4461
140	4462
##59	4463
leban	4464
braz	4465
locate	4466
lebanon	4467
din	4468
jay	4469
suppl	4470
rations	4471
##e3	4472
2014	4473
stret	4474
beauty	4475
tension	4476
wer	4477
amb	4478
collection	4479
ibly	4480
compete	4481
##8b	4482
accident	4483
transition	4484
hir	4485
nu	4486
##ky	4487
##za	4488
lean	4489
plus	4490
emph	4491
function	4492
nish	4493
##hol	4494
##ell	4495
chip	4496
peg	4497
quote	4498
categ	4499
py	4500
ami	4501
italian	4502
stretch	4503
nath	4504
##au	4505
fake	4506
invite	4507
regional	4508
dun	4509
nik	4510
studio	4511
hate	4512
apolog	4513
surger	4514
profile	4515
surgery	4516
neck	4517
trick	4518
drama	4519
confident	4520
bang	4521
ette	4522
47	4523
rt	4524
##63	4525
bei	4526
shadow	4527
sab	4528
grew	4529
steph	4530
bh	4531
mut	4532
islam	4533
moon	4534
attrib	4535
bench	4536
therap	4537
wake	4538
pregn	4539
flix	4540
##nov	4541
glas	4542
fused	4543
atlan	4544
65	4545
cu	4546
youth	4547
esca	4548
bos	4549
cricket	4550
changing	4551
##2a	4552
infect	4553
innov	4554
surface	4555
ride	4556
carl	4557
suppose	4558
forecast	4559
communication	4560
sharp	4561
renew	4562
##reg	4563
waste	4564
##ipp	4565
warr	4566
##itchen	4567
guardian	4568
ceremony	4569
bin	4570
bot	4571
zel	4572
##iour	4573
##ercise	4574
exercise	4575
meal	4576
behaviour	4577
appropriate	4578
400	4579
kitchen	4580
trap	4581
subs	4582
%.	4583
wine	4584
##dc	4585
sher	4586
mah	4587
##e4	4588
itv	4589
faith	4590
joint	4591
handle	4592
##81	4593
frust	4594
tail	4595
relig	4596
truggling	4597
bonus	4598
ubst	4599
analyst	4600
stan	4601
##ism	4602
chu	4603
##illi	4604
exam	4605
elector	4606
mates	4607
channel	4608
tackle	4609
golf	4610
hree	4611
##3a	4612
##ising	4613
shirt	4614
ambit	4615
resign	4616
120	4617
jul	4618
theat	4619
##igan	4620
tab	4621
presence	4622
irish	4623
isast	4624
ung	4625
kee	4626
brazil	4627
cn	4628
ging	4629
vac	4630
erty	4631
alco	4632
notice	4633
panel	4634
alcohol	4635
nfl	4636
wrap	4637
##arily	4638
stance	4639
fold	4640
reading	4641
solid	4642
regulation	4643
stances	4644
novel	4645
josh	4646
violent	4647
clinic	4648
44	4649
lief	4650
ug	4651
##iar	4652
##ino	4653
anna	4654
curren	4655
suspend	4656
cientist	4657
attribute	4658
sens	4659
tank	4660
##e6	4661
2000	4662
princ	4663
indicate	4664
emphas	4665
princip	4666
pel	4667
##uit	4668
reaction	4669
beth	4670
meg	4671
worry	4672
bodies	4673
honor	4674
nda	4675
yan	4676
web	4677
bron	4678
buck	4679
achiev	4680
insurance	4681
rafa	4682
excl	4683
luxu	4684
vulner	4685
dor	4686
gow	4687
umm	4688
wat	4689
##anch	4690
##icated	4691
lap	4692
proceed	4693
empor	4694
manda	4695
gap	4696
onic	4697
trig	4698
adj	4699
##guard	4700
wound	4701
##draw	4702
withdraw	4703
lew	4704
section	4705
fab	4706
boot	4707
assum	4708
charl	4709
ignor	4710
villa	4711
emporary	4712
mcc	4713
##3_	4714
lov	4715
peak	4716
boe	4717
guar	4718
></	4719
ck	4720
hom	4721
theor	4722
crown	4723
refer	4724
bottle	4725
excel	4726
2012	4727
elli	4728
guarant	4729
##23	4730
##ola	4731
dram	4732
admit	4733
dal	4734
abilities	4735
tact	4736
deploy	4737
150	4738
adapt	4739
mobile	4740
categor	4741
pott	4742
##air	4743
ani	4744
also	4745
brook	4746
quiet	4747
refuge	4748
guarantee	4749
kit	4750
lion	4751
}]}	4752
##orse	4753
##utch	4754
clusion	4755
clash	4756
"},"	4757
silver	4758
lau	4759
cogn	4760
ros	4761
ural	4762
concl	4763
covi	4764
maxim	4765
conclude	4766
##d4	4767
##val	4768
##zona	4769
arizona	4770
method	4771
trigger	4772
outs	4773
prize	4774
desti	4775
##gment	4776
##ew	4777
##b4	4778
##utor	4779
ical	4780
studi	4781
intention	4782
easily	4783
wheel	4784
por	4785
tum	4786
##syl	4787
##wh	4788
carb	4789
client	4790
recru	4791
divid	4792
pennsyl	4793
##vania	4794
recruit	4795
pennsylvania	4796
##oon	4797
##ena	4798
##inct	4799
enh	4800
advert	4801
grab	4802
shots	4803
praise	4804
spin	4805
simon	4806
cious	4807
cbs	4808
lis	4809
nan	4810
temp	4811
terr	4812
bask	4813
valu	4814
dod	4815
##f6	4816
enhance	4817
vast	4818
wicket	4819
hell	4820
frequent	4821
flex	4822
##f4	4823
##13	4824
##thern	4825
northern	4826
pledge	4827
commercial	4828
##ula	4829
wick	4830
fruit	4831
ski	4832
muslim	4833
signal	4834
jean	4835
snap	4836
routine	4837
egg	4838
ms	4839
ures	4840
chick	4841
desir	4842
brad	4843
600	4844
oce	4845
tens	4846
##57	4847
lib	4848
deput	4849
invasion	4850
palm	4851
technic	4852
generate	4853
michigan	4854
rapid	4855
.)	4856
##ssin	4857
alys	4858
syd	4859
amend	4860
install	4861
circum	4862
alysis	4863
##rate	4864
##ota	4865
helter	4866
fc	4867
strange	4868
explos	4869
negat	4870
##room	4871
elig	4872
grace	4873
jeff	4874
jr	4875
##d6	4876
diet	4877
reci	4878
swing	4879
##bai	4880
recognise	4881
folk	4882
##acy	4883
coin	4884
jose	4885
greg	4886
shake	4887
hyd	4888
##iff	4889
##ypt	4890
##pet	4891
verse	4892
crypt	4893
cond	4894
syn	4895
distance	4896
identify	4897
sanction	4898
assassin	4899
kenned	4900
egypt	4901
cade	4902
##29	4903
bourne	4904
eb	4905
jas	4906
ison	4907
##set	4908
##olution	4909
notes	4910
bak	4911
disney	4912
metre	4913
oppose	4914
competitive	4915
ocean	4916
pit	4917
##76	4918
##ki	4919
shore	4920
##udi	4921
closure	4922
xi	4923
##tic	4924
coffe	4925
brilli	4926
occup	4927
scoring	4928
mountain	4929
ology	4930
coffee	4931
brilliant	4932
dh	4933
prefer	4934
grown	4935
metro	4936
figh	4937
##ray	4938
emma	4939
fighter	4940
pp	4941
rot	4942
endorse	4943
igate	4944
43	4945
nba	4946
yn	4947
atory	4948
##ghan	4949
science	4950
racing	4951
accom	4952
kur	4953
edin	4954
##rian	4955
loy	4956
afghan	4957
spok	4958
holders	4959
basket	4960
sydney	4961
spoken	4962
##c8	4963
tok	4964
tries	4965
##ified	4966
planet	4967
lating	4968
salt	4969
##cussion	4970
dramatic	4971
vital	4972
##e1	4973
ingham	4974
##race	4975
chart	4976
las	4977
ledge	4978
41	4979
##f3	4980
##million	4981
cock	4982
ica	4983
belong	4984
magic	4985
tuck	4986
##ront	4987
reut	4988
react	4989
alert	4990
tel	4991
reuters	4992
%,	4993
gal	4994
jar	4995
sick	4996
upset	4997
aga	4998
pace	4999
kev	5000
vega	5001
confront	5002
virus	5003
virgin	5004
cine	5005
wire	5006
##d8	5007
hay	5008
align	5009
thrill	5010
colon	5011
familiar	5012
desper	5013
##guardian	5014
cri	5015
##arm	5016
ches	5017
mega	5018
tai	5019
quot	5020
antic	5021
geo	5022
barr	5023
avi	5024
dyn	5025
theguardian	5026
##icide	5027
residen	5028
250	5029
ideal	5030
##ronic	5031
pilot	5032
desperate	5033
residency	5034
gala	5035
tz	5036
##ium	5037
##ador	5038
gop	5039
##elm	5040
pers	5041
climb	5042
regime	5043
steel	5044
convention	5045
origin	5046
keeper	5047
seed	5048
shell	5049
pt	5050
forget	5051
ancy	5052
traum	5053
corrupt	5054
riot	5055
drew	5056
package	5057
62	5058
##gage	5059
yout	5060
aband	5061
plot	5062
passion	5063
possess	5064
viral	5065
ifying	5066
mortgage	5067
abandon	5068
fas	5069
leak	5070
stein	5071
honour	5072
punish	5073
##whelm	5074
gil	5075
tol	5076
##anda	5077
addi	5078
rug	5079
illa	5080
carbon	5081
youtube	5082
zero	5083
##ny	5084
formal	5085
##duction	5086
nathan	5087
adjust	5088
lewis	5089
potted	5090
08	5091
ax	5092
chance	5093
saudi	5094
coop	5095
moham	5096
syria	5097
davi	5098
rocket	5099
cott	5100
fro	5101
##000_	5102
##esh	5103
lands	5104
iron	5105
0_1	5106
54	5107
hide	5108
##nis	5109
rog	5110
appl	5111
optim	5112
ich	5113
##96	5114
perman	5115
comput	5116
fami	5117
permanent	5118
66	5119
pale	5120
##01	5121
caption	5122
anne	5123
eastern	5124
volv	5125
specu	5126
engineer	5127
ot	5128
##ան	5129
raid	5130
quit	5131
ու	5132
##tan	5133
exhibit	5134
pray	5135
2010	5136
virt	5137
combat	5138
walz	5139
shoulder	5140
}]},{"	5141
kan	5142
##28	5143
##orrow	5144
tow	5145
exit	5146
plu	5147
acting	5148
istan	5149
diag	5150
contributor	5151
stephen	5152
haw	5153
map	5154
slam	5155
summar	5156
riety	5157
ultra	5158
milk	5159
ze	5160
##ander	5161
inquir	5162
ennis	5163
##sel	5164
awa	5165
patri	5166
3500	5167
hub	5168
belief	5169
batt	5170
dates	5171
usa	5172
proced	5173
##ptom	5174
##emn	5175
elimin	5176
anni	5177
obtain	5178
organise	5179
symptom	5180
condemn	5181
procedure	5182
lane	5183
yu	5184
ander	5185
##ado	5186
acad	5187
indus	5188
icit	5189
flower	5190
calm	5191
equit	5192
##cedent	5193
ummit	5194
crypto	5195
nail	5196
sar	5197
tig	5198
##e7	5199
cept	5200
jess	5201
58	5202
tat	5203
##iss	5204
##1c	5205
itor	5206
pric	5207
2008	5208
ek	5209
##rial	5210
magn	5211
lip	5212
rape	5213
anton	5214
qualify	5215
lets	5216
ficial	5217
lent	5218
zo	5219
thu	5220
2011	5221
delight	5222
immun	5223
rell	5224
cloud	5225
capit	5226
numer	5227
contrast	5228
jord	5229
ua	5230
bett	5231
keen	5232
concert	5233
motion	5234
ohio	5235
exclusive	5236
jordan	5237
52	5238
edicated	5239
habit	5240
conce	5241
abu	5242
approval	5243
diagno	5244
pour	5245
pier	5246
##9b	5247
##ioned	5248
mentioned	5249
taste	5250
chef	5251
counsel	5252
convince	5253
franch	5254
cution	5255
mit	5256
##ulous	5257
##antic	5258
moor	5259
overwhelm	5260
impl	5261
impose	5262
cheer	5263
arian	5264
yellow	5265
##onym	5266
roman	5267
regulator	5268
vow	5269
##gent	5270
stro	5271
##inger	5272
##amic	5273
entry	5274
string	5275
reference	5276
iness	5277
candal	5278
rebel	5279
eliminat	5280
09	5281
dj	5282
##ting	5283
onent	5284
promo	5285
valle	5286
cutting	5287
ture	5288
##llor	5289
hag	5290
##secut	5291
contr	5292
obama	5293
inspect	5294
tactic	5295
chancellor	5296
73	5297
ain	5298
rin	5299
voc	5300
##gra	5301
export	5302
submit	5303
ologist	5304
gym	5305
finger	5306
gay	5307
tine	5308
tensive	5309
shr	5310
coh	5311
reput	5312
grave	5313
surpr	5314
detain	5315
defensive	5316
borrow	5317
therapy	5318
surprising	5319
##4a	5320
dian	5321
##iza	5322
instruct	5323
plead	5324
kov	5325
native	5326
uine	5327
choc	5328
##itect	5329
plastic	5330
asyl	5331
tony	5332
##acu	5333
riff	5334
hopper	5335
architect	5336
zelens	5337
isaster	5338
asylum	5339
##kh	5340
##zi	5341
##isan	5342
brut	5343
pho	5344
blast	5345
motiv	5346
robin	5347
mobil	5348
700	5349
tie	5350
rela	5351
religious	5352
***	5353
shi	5354
eva	5355
eco	5356
credib	5357
meta	5358
gotten	5359
franchise	5360
credibly	5361
kir	5362
##yn	5363
##resh	5364
##umn	5365
cos	5366
span	5367
branch	5368
elev	5369
interv	5370
internal	5371
stadium	5372
arrange	5373
aggressive	5374
hale	5375
vlad	5376
compl	5377
##licate	5378
2013	5379
igator	5380
shoe	5381
industrial	5382
omorrow	5383
aved	5384
##91	5385
edit	5386
outfit	5387
ication	5388
casual	5389
(£	5390
toy	5391
##ita	5392
mash	5393
empt	5394
mond	5395
bedroom	5396
alliance	5397
72	5398
horn	5399
arena	5400
speaker	5401
moral	5402
tunning	5403
fatal	5404
cul	5405
iest	5406
##f8	5407
esp	5408
evacu	5409
ional	5410
1990	5411
sugar	5412
chemical	5413
tweet	5414
capitol	5415
jac	5416
slo	5417
##pan	5418
chap	5419
soc	5420
urban	5421
breach	5422
slip	5423
guess	5424
hattan	5425
dodge	5426
zelensky	5427
bou	5428
rig	5429
##6c	5430
##led	5431
atm	5432
##isor	5433
##201	5434
##ricane	5435
advisor	5436
hurricane	5437
loyal	5438
relax	5439
bies	5440
gut	5441
nie	5442
pill	5443
uck	5444
##lig	5445
##rain	5446
##certain	5447
magaz	5448
contribution	5449
bure	5450
ott	5451
##vit	5452
##veil	5453
cong	5454
meat	5455
unveil	5456
visa	5457
michel	5458
recognize	5459
53	5460
mitch	5461
rier	5462
haul	5463
shel	5464
tepped	5465
creation	5466
termin	5467
##teer	5468
militant	5469
corporate	5470
minimum	5471
bust	5472
dies	5473
soph	5474
##va	5475
##unteer	5476
plain	5477
controvers	5478
volunteer	5479
mask	5480
controversial	5481
pix	5482
hack	5483
forc	5484
esc	5485
continent	5486
"}],"	5487
charging	5488
cruise	5489
ola	5490
##ciate	5491
##err	5492
hail	5493
sever	5494
amba	5495
bike	5496
piracy	5497
appreciate	5498
reputation	5499
ea	5500
alarm	5501
##ili	5502
trict	5503
plate	5504
agri	5505
trictly	5506
ile	5507
mala	5508
##gic	5509
cana	5510
kha	5511
madri	5512
tional	5513
graduate	5514
64	5515
loud	5516
beck	5517
narrow	5518
brutal	5519
61	5520
aire	5521
xy	5522
##ssador	5523
pocket	5524
asia	5525
flav	5526
pink	5527
soul	5528
##cious	5529
stag	5530
sters	5531
##imir	5532
##olat	5533
teal	5534
phase	5535
proved	5536
graphic	5537
chocolat	5538
ambassador	5539
dated	5540
zea	5541
alt	5542
outdo	5543
barb	5544
ella	5545
tiny	5546
diagnose	5547
outdoor	5548
nag	5549
##bol	5550
edward	5551
##lder	5552
shout	5553
sau	5554
notic	5555
uncertain	5556
tap	5557
assure	5558
regret	5559
troph	5560
oli	5561
divorce	5562
vladimir	5563
800	5564
890	5565
bone	5566
##47	5567
##55	5568
##2b	5569
spell	5570
accur	5571
##osis	5572
matic	5573
define	5574
embrace	5575
nurse	5576
kilo	5577
jaz	5578
tt	5579
##_3	5580
deleg	5581
cole	5582
emil	5583
evast	5584
rand	5585
patter	5586
drawn	5587
slide	5588
evastating	5589
##_4	5590
anonym	5591
lok	5592
##astic	5593
grass	5594
##phi	5595
chee	5596
navig	5597
].	5598
lg	5599
##_32	5600
toll	5601
buff	5602
##2099	5603
suburb	5604
solar	5605
##_3500	5606
fantastic	5607
file	5608
mol	5609
punch	5610
itzer	5611
dez	5612
liqu	5613
una	5614
tes	5615
dominate	5616
dispu	5617
dynamic	5618
51	5619
rol	5620
##ooth	5621
ena	5622
pov	5623
icon	5624
##ansa	5625
luke	5626
symbol	5627
assembl	5628
cia	5629
ft	5630
lunch	5631
##sue	5632
##b1	5633
##6d	5634
foster	5635
twin	5636
smooth	5637
pursue	5638
cooper	5639
##61	5640
##wart	5641
##ja	5642
thick	5643
cham	5644
butter	5645
ross	5646
twist	5647
1240	5648
1210	5649
inher	5650
anda	5651
abb	5652
##ortion	5653
brush	5654
relat	5655
fundament	5656
cyber	5657
collective	5658
athletic	5659
santa	5660
fundamental	5661
dp	5662
rw	5663
ridge	5664
##ps	5665
reh	5666
lem	5667
caution	5668
##ody	5669
beaten	5670
ethio	5671
($	5672
="	5673
pas	5674
ini	5675
##see	5676
abc	5677
bail	5678
knee	5679
matth	5680
craz	5681
pollut	5682
omeb	5683
layer	5684
constitutional	5685
hawk	5686
atmos	5687
omebody	5688
5472	5689
ff	5690
lance	5691
mere	5692
rus	5693
chill	5694
guid	5695
reader	5696
anthony	5697
pregnant	5698
warrant	5699
##c1	5700
##38	5701
##icious	5702
sud	5703
boast	5704
halt	5705
beij	5706
tant	5707
roof	5708
indict	5709
addict	5710
regist	5711
conscious	5712
hamp	5713
meters	5714
effic	5715
tesla	5716
ml	5717
##rew	5718
arth	5719
iff	5720
bloom	5721
retain	5722
lett	5723
logue	5724
mirror	5725
84	5726
lime	5727
##erve	5728
##ternal	5729
saint	5730
speci	5731
remote	5732
senator	5733
glad	5734
virtual	5735
cord	5736
##b2	5737
tea	5738
mony	5739
grate	5740
compens	5741
1980	5742
shaw	5743
68	5744
bury	5745
cute	5746
eag	5747
gging	5748
lid	5749
##b8	5750
##vere	5751
.""	5752
resum	5753
commod	5754
posing	5755
musical	5756
killer	5757
lining	5758
script	5759
xiety	5760
matthew	5761
hint	5762
ng	5763
},"	5764
thor	5765
error	5766
##rol	5767
kansa	5768
rit	5769
iscussion	5770
sack	5771
spir	5772
brave	5773
iscussions	5774
fisc	5775
kent	5776
pump	5777
vit	5778
##92	5779
proof	5780
partisan	5781
sheet	5782
bread	5783
breast	5784
skip	5785
aston	5786
subscri	5787
fiscal	5788
weigh	5789
lav	5790
excess	5791
scal	5792
eliza	5793
mium	5794
expans	5795
placing	5796
experiment	5797
170	5798
diagn	5799
ensitive	5800
diagnosis	5801
56	5802
95	5803
crib	5804
pile	5805
seal	5806
hook	5807
barg	5808
provision	5809
chamber	5810
cub	5811
pant	5812
##enia	5813
mau	5814
permit	5815
tragic	5816
inde	5817
helen	5818
armenia	5819
doug	5820
behavior	5821
ograph	5822
cheese	5823
ori	5824
reek	5825
hai	5826
ening	5827
##amin	5828
abd	5829
mech	5830
interact	5831
gene	5832
lessly	5833
smoke	5834
runner	5835
##osit	5836
##osite	5837
corr	5838
opposite	5839
fern	5840
embar	5841
alexander	5842
t20	5843
##inet	5844
flash	5845
##ladesh	5846
bangladesh	5847
dim	5848
lence	5849
nei	5850
suicide	5851
##phere	5852
venture	5853
magazine	5854
01	5855
78	5856
dust	5857
dutch	5858
ik	5859
##antial	5860
##ipate	5861
##ishi	5862
##emy	5863
knife	5864
benj	5865
admir	5866
levant	5867
computer	5868
rwanda	5869
aide	5870
##lin	5871
##7c	5872
rein	5873
consecut	5874
shin	5875
laur	5876
impe	5877
acqu	5878
boom	5879
##ifi	5880
blind	5881
metal	5882
cabinet	5883
pacifi	5884
valuable	5885
consecutive	5886
dol	5887
elder	5888
##hl	5889
##bi	5890
shan	5891
laid	5892
##pel	5893
sole	5894
nesota	5895
dale	5896
##load	5897
triking	5898
memo	5899
asp	5900
topic	5901
recipe	5902
57	5903
lung	5904
mou	5905
tall	5906
isa	5907
scent	5908
repair	5909
deposit	5910
slot	5911
styl	5912
ubstantial	5913
07	5914
fred	5915
gill	5916
ske	5917
tent	5918
##rimin	5919
toxic	5920
lace	5921
lind	5922
spons	5923
rav	5924
veget	5925
barn	5926
resto	5927
##252	5928
morgan	5929
float	5930
sponsor	5931
ace	5932
bil	5933
gear	5934
jere	5935
rut	5936
ramp	5937
rishi	5938
upgra	5939
1960	5940
ets	5941
promotion	5942
discipl	5943
eferr	5944
succeed	5945
solved	5946
principle	5947
academic	5948
bureau	5949
upgrade	5950
eferring	5951
kay	5952
ket	5953
##7f	5954
##he	5955
##ana	5956
rever	5957
concept	5958
izes	5959
util	5960
buyers	5961
glam	5962
gul	5963
ue	5964
##xt	5965
##owa	5966
sail	5967
resort	5968
kings	5969
flee	5970
liberal	5971
71	5972
iowa	5973
lone	5974
##line	5975
##եր	5976
##reh	5977
##pear	5978
disap	5979
1900	5980
##ocide	5981
testi	5982
shah	5983
tourism	5984
psycho	5985
dalla	5986
mechan	5987
disappear	5988
380	5989
##den	5990
noise	5991
marsh	5992
carr	5993
compreh	5994
genocide	5995
bush	5996
berry	5997
##409	5998
cycl	5999
radical	6000
emphasis	6001
("	6002
bing	6003
ech	6004
vp	6005
edition	6006
scen	6007
brun	6008
endra	6009
depress	6010
romantic	6011
sit	6012
##1d	6013
ank	6014
outrage	6015
roh	6016
bern	6017
##ounc	6018
volum	6019
circul	6020
eagle	6021
lum	6022
pup	6023
tale	6024
tier	6025
bee	6026
##utin	6027
##sess	6028
sham	6029
argent	6030
scrap	6031
obsess	6032
480	6033
beng	6034
ei	6035
eve	6036
fitt	6037
sid	6038
tang	6039
##pre	6040
haiti	6041
whis	6042
chant	6043
lah	6044
mack	6045
pause	6046
harass	6047
grade	6048
urging	6049
obst	6050
nominate	6051
astro	6052
scrutin	6053
cognition	6054
krem	6055
pia	6056
##dca	6057
##rass	6058
##olic	6059
allen	6060
acquir	6061
complicate	6062
assert	6063
mode	6064
corona	6065
2009	6066
pixel	6067
atmosphere	6068
!!	6069
##ու	6070
thom	6071
##illip	6072
cake	6073
contex	6074
disord	6075
##iction	6076
indig	6077
phillip	6078
steven	6079
copy	6080
explosion	6081
anticipate	6082
context	6083
disorder	6084
gp	6085
gand	6086
hr	6087
vince	6088
##df7	6089
##atar	6090
ingred	6091
unpre	6092
1970	6093
blank	6094
muscle	6095
stair	6096
latter	6097
tics	6098
##86d	6099
ahm	6100
##cedented	6101
gandhi	6102
ingredient	6103
unprecedented	6104
##gar	6105
##ար	6106
tower	6107
heal	6108
conven	6109
sci	6110
idence	6111
##ifest	6112
##179	6113
hyp	6114
ologies	6115
sauce	6116
embarrass	6117
dart	6118
##gi	6119
##d2	6120
##rom	6121
##8c	6122
thin	6123
lakh	6124
manifest	6125
offend	6126
evan	6127
communic	6128
intim	6129
efficient	6130
bengal	6131
660	6132
vy	6133
wisc	6134
##rance	6135
thumb	6136
boo	6137
marin	6138
oblig	6139
democratic	6140
gins	6141
##onsin	6142
await	6143
patriot	6144
wisconsin	6145
67	6146
agh	6147
dc	6148
kr	6149
pear	6150
qatar	6151
tive	6152
toile	6153
##ins	6154
eron	6155
dee	6156
neath	6157
peer	6158
fault	6159
grid	6160
berlin	6161
advent	6162
burg	6163
morris	6164
":[],"	6165
toilet	6166
>,	6167
hart	6168
hrew	6169
merg	6170
nerv	6171
##rition	6172
##old	6173
##849	6174
leon	6175
convert	6176
worn	6177
agon	6178
triple	6179
belt	6180
proportion	6181
##bby	6182
rumour	6183
merging	6184
##bf	6185
##otic	6186
##otte	6187
nest	6188
suffic	6189
cable	6190
dock	6191
mood	6192
bry	6193
exploit	6194
turk	6195
silence	6196
theatre	6197
charlotte	6198
lauren	6199
sufficient	6200
")	6201
780	6202
hone	6203
mall	6204
pul	6205
tort	6206
reduction	6207
ened	6208
##imp	6209
resist	6210
crore	6211
smok	6212
deport	6213
duo	6214
##392	6215
##668	6216
necessarily	6217
mumbai	6218
bullet	6219
ensu	6220
bargain	6221
740	6222
gig	6223
vel	6224
##8ce	6225
libr	6226
dose	6227
soar	6228
##astro	6229
visible	6230
1300	6231
##umbia	6232
slamm	6233
stroke	6234
expansion	6235
05	6236
ead	6237
kal	6238
sate	6239
utt	6240
wet	6241
zing	6242
##stit	6243
##llite	6244
stall	6245
hire	6246
such	6247
prohibit	6248
diff	6249
fier	6250
grad	6251
portray	6252
distrib	6253
sweep	6254
catholic	6255
liquid	6256
satellite	6257
dirt	6258
pd	6259
sad	6260
ually	6261
wich	6262
##fy	6263
hey	6264
##adel	6265
baker	6266
sovere	6267
columbia	6268
2006	6269
blend	6270
jake	6271
theatr	6272
eadline	6273
sovereign	6274
860	6275
rash	6276
sist	6277
##aa	6278
##xit	6279
eric	6280
concent	6281
racial	6282
ici	6283
assy	6284
##phy	6285
bash	6286
ignit	6287
funny	6288
troll	6289
kiss	6290
intervention	6291
980	6292
bald	6293
eager	6294
yield	6295
##arat	6296
hip	6297
mock	6298
donor	6299
distinct	6300
philipp	6301
inherit	6302
##4d	6303
##3b	6304
##_0_	6305
thy	6306
trav	6307
attach	6308
nether	6309
gross	6310
exami	6311
persist	6312
netherland	6313
bounc	6314
oak	6315
pson	6316
tick	6317
##nap	6318
topping	6319
##itter	6320
##stal	6321
##cend	6322
enth	6323
alam	6324
shine	6325
external	6326
courage	6327
brow	6328
cheat	6329
calcul	6330
philadel	6331
nutrition	6332
examine	6333
comprehens	6334
?'	6335
dash	6336
pitt	6337
tone	6338
##_36	6339
alban	6340
chen	6341
button	6342
2026	6343
clusive	6344
lateral	6345
treas	6346
##_5472	6347
##01a9	6348
accurate	6349
##_3283	6350
##_5472_3283	6351
lated	6352
upper	6353
wol	6354
zu	6355
inch	6356
##ird	6357
arc	6358
tape	6359
acre	6360
evolution	6361
##inton	6362
charm	6363
blink	6364
experi	6365
russell	6366
invent	6367
stern	6368
kidnap	6369
bless	6370
affirm	6371
philadelphi	6372
jab	6373
oon	6374
pure	6375
rice	6376
##km	6377
##pret	6378
stem	6379
neil	6380
ark	6381
contend	6382
##emp	6383
demo	6384
1140	6385
2004	6386
murphy	6387
reasonable	6388
pipe	6389
liberate	6390
dragon	6391
cribing	6392
sistance	6393
lice	6394
rip	6395
sri	6396
wen	6397
weird	6398
raz	6399
phen	6400
##ugu	6401
1000	6402
circl	6403
license	6404
wipe	6405
posed	6406
74	6407
torn	6408
##che	6409
raw	6410
clinton	6411
##quate	6412
ruin	6413
smell	6414
depth	6415
musician	6416
practical	6417
innoc	6418
adequate	6419
dit	6420
piv	6421
##_6	6422
##raid	6423
afraid	6424
compos	6425
buzz	6426
visual	6427
brexit	6428
clock	6429
judgment	6430
glor	6431
tune	6432
gentle	6433
jenni	6434
racist	6435
scope	6436
applied	6437
cens	6438
##54	6439
haz	6440
confe	6441
shed	6442
loom	6443
herita	6444
grey	6445
##ratul	6446
woke	6447
juic	6448
christoph	6449
burst	6450
funeral	6451
ferr	6452
nique	6453
congratul	6454
nervous	6455
rence	6456
rama	6457
ual	6458
##upt	6459
##way	6460
theft	6461
##inge	6462
##etoric	6463
hike	6464
##eree	6465
vert	6466
##stery	6467
qualified	6468
brew	6469
2005	6470
associ	6471
mexican	6472
rhetoric	6473
06	6474
ystery	6475
iture	6476
##celo	6477
eras	6478
pav	6479
faction	6480
decla	6481
barcelo	6482
distress	6483
froze	6484
iciency	6485
hong	6486
oo	6487
vine	6488
##fill	6489
##53	6490
##rum	6491
##mo	6492
helic	6493
erupt	6494
deem	6495
next	6496
loose	6497
poet	6498
bold	6499
foss	6500
grat	6501
comprom	6502
assign	6503
moderate	6504
legit	6505
referee	6506
iev	6507
santi	6508
trauma	6509
pivot	6510
compromis	6511
az	6512
rant	6513
wre	6514
ան	6515
inject	6516
heath	6517
enorm	6518
lac	6519
##opter	6520
erson	6521
##agree	6522
supplement	6523
jane	6524
burden	6525
glen	6526
ctor	6527
currency	6528
fabric	6529
helicopter	6530
bump	6531
mies	6532
nit	6533
vard	6534
zoo	6535
init	6536
tott	6537
##ario	6538
chand	6539
neuro	6540
partial	6541
disagree	6542
decent	6543
vik	6544
meter	6545
##spond	6546
2007	6547
empower	6548
easing	6549
equent	6550
ova	6551
correspond	6552
ubstance	6553
charli	6554
81	6555
ale	6556
gb	6557
ncing	6558
yl	6559
zen	6560
##mat	6561
abad	6562
##umph	6563
encoura	6564
thai	6565
fossil	6566
%)	6567
iya	6568
vene	6569
##ein	6570
##pa	6571
##wl	6572
revel	6573
forth	6574
##using	6575
bach	6576
spoon	6577
##ipul	6578
soap	6579
knight	6580
phar	6581
drill	6582
viet	6583
payer	6584
##viet	6585
creator	6586
disturb	6587
illust	6588
productive	6589
romance	6590
immers	6591
jenn	6592
lemon	6593
bub	6594
pig	6595
till	6596
wy	6597
wim	6598
zz	6599
##ora	6600
##omen	6601
coat	6602
pride	6603
dip	6604
diam	6605
stell	6606
panic	6607
bitter	6608
radi	6609
given	6610
auction	6611
emphasize	6612
escal	6613
76	6614
bun	6615
f1	6616
jd	6617
oz	6618
oka	6619
tile	6620
tical	6621
neut	6622
prol	6623
carpet	6624
soviet	6625
intercept	6626
desk	6627
instant	6628
greet	6629
intr	6630
inevit	6631
drove	6632
ache	6633
fortune	6634
cant	6635
gav	6636
kath	6637
oreg	6638
rio	6639
toma	6640
ona	6641
seek	6642
rag	6643
electronic	6644
tenant	6645
felon	6646
jewel	6647
echo	6648
scenario	6649
phenomen	6650
oregon	6651
aar	6652
ore	6653
pian	6654
tus	6655
##gian	6656
reign	6657
##isive	6658
laughter	6659
perpet	6660
boil	6661
bren	6662
gray	6663
grim	6664
crush	6665
minster	6666
interior	6667
interpret	6668
extension	6669
drum	6670
tunnel	6671
negotiate	6672
dick	6673
ius	6674
lig	6675
nap	6676
nab	6677
##px	6678
fried	6679
maid	6680
lia	6681
exha	6682
exceed	6683
cruel	6684
##eneur	6685
fede	6686
diab	6687
sweat	6688
seller	6689
fleet	6690
birds	6691
occupied	6692
totten	6693
69	6694
fusing	6695
nod	6696
och	6697
pine	6698
vada	6699
##crimin	6700
##3f	6701
##pass	6702
iscrimin	6703
pepper	6704
hammer	6705
angle	6706
expression	6707
medicine	6708
flavour	6709
confess	6710
encouraging	6711
iscrimination	6712
fusion	6713
mick	6714
ou	6715
ruth	6716
sla	6717
atic	6718
##ighten	6719
poster	6720
harb	6721
##izon	6722
horizon	6723
treasury	6724
diamond	6725
aj	6726
bb	6727
fiction	6728
nich	6729
tint	6730
án	6731
##bo	6732
##ancy	6733
rez	6734
##repr	6735
##iculous	6736
erik	6737
quant	6738
entrepr	6739
bund	6740
protein	6741
empire	6742
circu	6743
sentiment	6744
pregnancy	6745
joseph	6746
nichol	6747
entrepreneur	6748
ece	6749
nin	6750
pc	6751
vig	6752
wrest	6753
yem	6754
##a8	6755
##b7	6756
##ximate	6757
##jan	6758
iser	6759
##olar	6760
cann	6761
gau	6762
vibr	6763
simps	6764
nazi	6765
approximate	6766
liner	6767
hyper	6768
silience	6769
catastro	6770
tumble	6771
accompan	6772
yemen	6773
catastroph	6774
hugh	6775
##gb	6776
##fere	6777
##ole	6778
##ye	6779
##uting	6780
sem	6781
imper	6782
pole	6783
roe	6784
diss	6785
##ilege	6786
interfere	6787
skirt	6788
instrum	6789
valid	6790
drain	6791
privilege	6792
tributing	6793
jacket	6794
crisp	6795
accompl	6796
jacob	6797
lgbt	6798
ography	6799
neutral	6800
instrument	6801
79	6802
hug	6803
lick	6804
mud	6805
patch	6806
piz	6807
wolf	6808
zy	6809
##wal	6810
ane	6811
susp	6812
orbit	6813
coup	6814
bride	6815
uries	6816
kenya	6817
destruct	6818
grocer	6819
lady	6820
ghost	6821
mutual	6822
fasc	6823
1990s	6824
aaron	6825
a4	6826
dump	6827
nak	6828
##ski	6829
##ery	6830
##itz	6831
##itan	6832
##rel	6833
##roll	6834
chal	6835
shield	6836
unc	6837
advers	6838
amp	6839
oversee	6840
formula	6841
presum	6842
ili	6843
transaction	6844
infl	6845
satis	6846
lgbtq	6847
foul	6848
kane	6849
sor	6850
ula	6851
##lar	6852
##icion	6853
chase	6854
leb	6855
shy	6856
aber	6857
##ume	6858
teas	6859
##ives	6860
##istic	6861
desert	6862
##bell	6863
intent	6864
duck	6865
uls	6866
austria	6867
navigate	6868
1980s	6869
exhaust	6870
89	6871
gur	6872
gib	6873
ix	6874
##1f	6875
todd	6876
##itle	6877
cafe	6878
##usia	6879
20th	6880
2030	6881
holl	6882
moist	6883
entitle	6884
lessness	6885
symp	6886
gabr	6887
##308	6888
utter	6889
junio	6890
sensor	6891
registr	6892
enthusia	6893
pharma	6894
sympath	6895
gabriel	6896
enthusiast	6897
cale	6898
mam	6899
porn	6900
sink	6901
tain	6902
zi	6903
##con	6904
##di	6905
##zue	6906
##itar	6907
##ima	6908
lago	6909
orch	6910
cope	6911
ifies	6912
gran	6913
cli	6914
click	6915
##cession	6916
bloc	6917
mull	6918
steam	6919
worthy	6920
yeah	6921
robust	6922
ctv	6923
lahoma	6924
##zuela	6925
83	6926
82	6927
rb	6928
##b9	6929
##entic	6930
ero	6931
libe	6932
##asm	6933
poly	6934
schu	6935
pati	6936
authentic	6937
licence	6938
vocal	6939
accompanied	6940
ald	6941
dent	6942
##cf	6943
##col	6944
##sin	6945
##b3	6946
thro	6947
##enn	6948
whit	6949
shade	6950
abi	6951
##ript	6952
lobby	6953
mare	6954
crop	6955
breed	6956
syrian	6957
swap	6958
treasure	6959
hanna	6960
welsh	6961
crystal	6962
rolled	6963
],	6964
azer	6965
lon	6966
oral	6967
twenty	6968
scholar	6969
vote	6970
..."	6971
insid	6972
ution	6973
absor	6974
surveil	6975
revolution	6976
motivate	6977
1970s	6978
innocent	6979
63	6980
kash	6981
und	6982
##e40	6983
leice	6984
##ulate	6985
##shire	6986
harsh	6987
ecl	6988
30pm	6989
2002	6990
2001	6991
audio	6992
1997	6993
rodri	6994
kelce	6995
ahmed	6996
intimid	6997
escalate	6998
leicester	6999
bly	7000
rib	7001
##eb0	7002
##98	7003
theater	7004
inh	7005
##alu	7006
##ctu	7007
deck	7008
##imer	7009
conc	7010
cousin	7011
trill	7012
spice	7013
evolve	7014
polish	7015
##nold	7016
classified	7017
hindu	7018
voy	7019
descript	7020
ronald	7021
riding	7022
ugal	7023
distribution	7024
77	7025
biz	7026
hil	7027
lank	7028
ներ	7029
##700	7030
forg	7031
ises	7032
sacri	7033
ampl	7034
phra	7035
asi	7036
##acular	7037
furth	7038
duk	7039
##ivalent	7040
khar	7041
equivalent	7042
walt	7043
regulate	7044
shutter	7045
rebound	7046
fic	7047
igh	7048
pg	7049
##eera	7050
##fol	7051
##dic	7052
##vid	7053
##here	7054
##hetic	7055
##8f	7056
chronic	7057
nell	7058
rack	7059
entrance	7060
guitar	7061
##licit	7062
endure	7063
explicit	7064
tern	7065
dawn	7066
stepping	7067
glow	7068
execution	7069
inaugu	7070
##187	7071
tali	7072
spray	7073
melt	7074
professor	7075
##baijan	7076
honey	7077
azerbaijan	7078
##ko	7079
##anc	7080
arity	7081
teh	7082
bact	7083
##ipse	7084
polar	7085
flour	7086
queens	7087
titan	7088
nicol	7089
nicola	7090
munition	7091
jazeera	7092
discipline	7093
eclipse	7094
bish	7095
ced	7096
od	7097
yank	7098
##ssex	7099
sussex	7100
acle	7101
proven	7102
naut	7103
craig	7104
2003	7105
##fici	7106
benefici	7107
ethnic	7108
tiff	7109
lamb	7110
bronze	7111
rehab	7112
whisk	7113
adventure	7114
fierce	7115
venezuela	7116
bishop	7117
900	7118
augh	7119
##e22	7120
##7a	7121
##52	7122
##bre	7123
##900	7124
##etch	7125
liv	7126
##ulpt	7127
plum	7128
sculpt	7129
griev	7130
##ivan	7131
awful	7132
lawful	7133
##bean	7134
holm	7135
pleasur	7136
iii	7137
suspicion	7138
aberd	7139
02	7140
hd	7141
hush	7142
oven	7143
ss	7144
##arre	7145
ando	7146
hes	7147
heel	7148
dear	7149
ched	7150
poison	7151
##pton	7152
brick	7153
rapper	7154
cara	7155
preserve	7156
1999	7157
helm	7158
##ifle	7159
fulfill	7160
stewart	7161
napp	7162
eta	7163
distract	7164
statistic	7165
captiv	7166
##267	7167
alien	7168
memoir	7169
bf	7170
hud	7171
lun	7172
##e30	7173
##rit	7174
thus	7175
reck	7176
bean	7177
chop	7178
noth	7179
clair	7180
sheer	7181
triumph	7182
gab	7183
refresh	7184
streak	7185
etitor	7186
substit	7187
##80e	7188
insula	7189
trop	7190
structur	7191
kohl	7192
gorge	7193
elevate	7194
abbott	7195
thorough	7196
accomplish	7197
bizarre	7198
!'	7199
240	7200
87	7201
88	7202
ela	7203
gel	7204
hp	7205
##oni	7206
##ception	7207
anch	7208
##sequent	7209
comed	7210
exception	7211
arrow	7212
spo	7213
acted	7214
flame	7215
mug	7216
deten	7217
opera	7218
##f56	7219
##333	7220
physic	7221
ubsequent	7222
glasses	7223
explosive	7224
ption	7225
traumat	7226
cycling	7227
phrase	7228
bacteria	7229
exceptional	7230
ubsequently	7231
):	7232
.-	7233
bc	7234
bite	7235
dna	7236
mul	7237
vas	7238
##eff	7239
##aa5	7240
##bury	7241
##ina	7242
##ete	7243
##ira	7244
fry	7245
esco	7246
quin	7247
incen	7248
##inkle	7249
guin	7250
consent	7251
awk	7252
hampton	7253
reliev	7254
swiss	7255
illino	7256
tenure	7257
soccer	7258
aspir	7259
comedian	7260
illinois	7261
gw	7262
gem	7263
sd	7264
##ón	7265
maha	7266
tender	7267
##asur	7268
ador	7269
tak	7270
hock	7271
rook	7272
scient	7273
logist	7274
##redit	7275
##109	7276
tors	7277
titled	7278
educate	7279
grip	7280
commerce	7281
uniform	7282
ndar	7283
passionate	7284
awkward	7285
scientific	7286
tide	7287
vor	7288
wig	7289
yea	7290
##han	7291
##llivan	7292
hei	7293
iso	7294
erie	7295
fri	7296
sullivan	7297
ory	7298
lodge	7299
allah	7300
mes	7301
measur	7302
pron	7303
nose	7304
emo	7305
myst	7306
##estra	7307
autumn	7308
column	7309
campbell	7310
depict	7311
intimate	7312
##806	7313
yorkshire	7314
bankrupt	7315
volunt	7316
##7b6	7317
devast	7318
orchestra	7319
130	7320
91	7321
dual	7322
lump	7323
tub	7324
##4e	7325
tooth	7326
whip	7327
shiv	7328
##rific	7329
butt	7330
bab	7331
quake	7332
carib	7333
ouri	7334
vibe	7335
dealer	7336
horrific	7337
nsw	7338
ordinator	7339
liest	7340
luca	7341
caribbean	7342
92	7343
cb	7344
cum	7345
ucl	7346
##389	7347
topp	7348
##aret	7349
stain	7350
lyric	7351
lever	7352
leather	7353
coul	7354
mentor	7355
vey	7356
mature	7357
##176	7358
borough	7359
ordinate	7360
tempo	7361
gregor	7362
devastate	7363
dil	7364
dame	7365
##rd	7366
##mble	7367
##stapp	7368
##ctacular	7369
lend	7370
##olish	7371
pectacular	7372
incumb	7373
verstapp	7374
decor	7375
relent	7376
cheek	7377
penny	7378
fantas	7379
frustrate	7380
mcca	7381
incumbent	7382
verstappen	7383
86	7384
;-	7385
fert	7386
jin	7387
mm	7388
##f44	7389
##d85	7390
hab	7391
stab	7392
hem	7393
enemy	7394
leap	7395
marc	7396
myth	7397
grill	7398
twitter	7399
##ought	7400
endous	7401
betray	7402
oph	7403
drought	7404
retali	7405
annou	7406
##608	7407
ello	7408
lui	7409
taxi	7410
##192	7411
subsi	7412
fertil	7413
stabil	7414
98	7415
aint	7416
bha	7417
kra	7418
##f1	7419
##639	7420
thresh	7421
##rete	7422
phy	7423
ida	7424
blog	7425
helpful	7426
bras	7427
proto	7428
prise	7429
issa	7430
valent	7431
serb	7432
connell	7433
conventional	7434
brows	7435
wreck	7436
absorb	7437
forgive	7438
threshold	7439
dow	7440
fum	7441
gle	7442
kl	7443
ras	7444
##c78	7445
##credit	7446
##ua	7447
##_1	7448
onia	7449
shark	7450
pes	7451
compound	7452
compass	7453
elicious	7454
phob	7455
urv	7456
etz	7457
merce	7458
massa	7459
benn	7460
hya	7461
kara	7462
juror	7463
flew	7464
persu	7465
legitimate	7466
seeker	7467
moistur	7468
concrete	7469
180	7470
96	7471
mba	7472
wow	7473
##8e5	7474
editor	7475
##rog	7476
alo	7477
cave	7478
manipul	7479
interrupt	7480
drunk	7481
bara	7482
bias	7483
serge	7484
##1782	7485
immense	7486
weaken	7487
torture	7488
reckon	7489
urvival	7490
);	7491
fract	7492
rance	7493
##7_	7494
semit	7495
##rior	7496
brig	7497
ican	7498
warrior	7499
##ampment	7500
filter	7501
midst	7502
juan	7503
flaw	7504
encampment	7505
##111	7506
rhy	7507
hydro	7508
kovic	7509
communicate	7510
semitism	7511
03	7512
nack	7513
ud	7514
##fice	7515
##a1	7516
##9a0	7517
##orious	7518
reop	7519
mai	7520
libert	7521
org	7522
notorious	7523
perceive	7524
confuse	7525
cleve	7526
##ec6	7527
ular	7528
trem	7529
execute	7530
consumption	7531
1996	7532
relativ	7533
sacrifice	7534
anchor	7535
pronounce	7536
reopen	7537
gag	7538
ria	7539
tube	7540
##eor	7541
##hood	7542
##2c3	7543
##zy	7544
##jri	7545
##_25	7546
tout	7547
haunt	7548
whist	7549
##ingu	7550
lihood	7551
precise	7552
coca	7553
hog	7554
spur	7555
evalu	7556
paraly	7557
kejri	7558
icc	7559
ters	7560
surge	7561
curt	7562
blaze	7563
portfol	7564
holder	7565
glimp	7566
##1735	7567
jaw	7568
absent	7569
gium	7570
advertise	7571
concede	7572
impeach	7573
gulf	7574
whistle	7575
kejriwal	7576
portfolio	7577
glimpse	7578
"[	7579
6000	7580
93	7581
ae5	7582
bunch	7583
cree	7584
jad	7585
kum	7586
qa	7587
rc	7588
##988	7589
thou	7590
##ouse	7591
##icit	7592
dedic	7593
alv	7594
lope	7595
pok	7596
roast	7597
trait	7598
politan	7599
cliff	7600
endum	7601
extract	7602
modest	7603
##4088	7604
##71dca	7605
tenness	7606
##12_	7607
nomy	7608
##c91a	7609
ayo	7610
margaret	7611
aggression	7612
homer	7613
buster	7614
##inguish	7615
tennesse	7616
04	7617
>"	7618
cer	7619
jag	7620
##4_	7621
##6000_	7622
##_30	7623
##_18	7624
##_26	7625
##_33	7626
##_2099	7627
beef	7628
ith	7629
##olate	7630
bah	7631
idor	7632
##4032	7633
0_2	7634
0_15	7635
0_83	7636
0_19	7637
0_176	7638
restrain	7639
##fa73	7640
0_0_4	7641
0_0_5	7642
0_0_35	7643
##88e2	7644
premise	7645
##95c91a	7646
##6240	7647
renov	7648
intelli	7649
##4230	7650
##fbfa73	7651
##_55	7652
##e81735	7653
raja	7654
##c335	7655
##_21	7656
##3_8	7657
##57fbfa73	7658
##000_2	7659
0_189	7660
##20995	7661
##_3500_2099	7662
subscription	7663
##01a9806	7664
##eb0d	7665
rookie	7666
ae5e81735	7667
##71dca57fbfa73	7668
0_83_5472_3283	7669
##95c91a71dca57fbfa73	7670
##01a980695c91a71dca57fbfa73	7671
ae5e8173501a980695c91a71dca57fbfa73	7672
ae5e8173501a980695c91a71dca57fbfa7320995	7673
bart	7674
cad	7675
iola	7676
rifle	7677
witch	7678
yad	7679
##ae	7680
##6_	7681
rex	7682
stir	7683
isi	7684
isolate	7685
whil	7686
enact	7687
##igu	7688
brent	7689
rais	7690
eleg	7691
##acht	7692
bug	7693
conso	7694
irre	7695
petrol	7696
bharat	7697
principal	7698
whilst	7699
aa	7700
gest	7701
pip	7702
rie	7703
uv	7704
##eer	7705
##c7	7706
##c6	7707
##rous	7708
##vet	7709
forge	7710
mae	7711
##ulance	7712
##opp	7713
prede	7714
##uster	7715
ama	7716
impr	7717
##cessor	7718
##apore	7719
retro	7720
urg	7721
meteor	7722
droid	7723
christi	7724
0_0_15	7725
nigel	7726
90s	7727
singapore	7728
ambulance	7729
watt	7730
diabete	7731
predecessor	7732
cater	7733
gat	7734
nia	7735
nud	7736
exempt	7737
."</	7738
emir	7739
contemp	7740
tribe	7741
colomb	7742
##tend	7743
bother	7744
latino	7745
nova	7746
toro	7747
ituency	7748
##gged	7749
corpo	7750
ridiculous	7751
censor	7752
uncover	7753
colombia	7754
bik	7755
lud	7756
ock	7757
rwa	7758
հա	7759
##xi	7760
##ati	7761
haa	7762
upload	7763
polis	7764
crunch	7765
insult	7766
biolog	7767
4032	7768
0_0_8	7769
##celerate	7770
strand	7771
ultima	7772
minimal	7773
rides	7774
chuck	7775
6240	7776
pizza	7777
fen	7778
kon	7779
lloy	7780
rider	7781
##tra	7782
thrive	7783
inson	7784
hass	7785
wha	7786
worsen	7787
pea	7788
femin	7789
emi	7790
raven	7791
contamin	7792
guy	7793
##esthetic	7794
expi	7795
flip	7796
steer	7797
passage	7798
costa	7799
illy	7800
collin	7801
ranch	7802
hatter	7803
tani	7804
espn	7805
lloyd	7806
:</	7807
nca	7808
tup	7809
##51	7810
##bble	7811
stoke	7812
lawn	7813
cav	7814
ante	7815
propag	7816
cotton	7817
ankle	7818
substitute	7819
klopp	7820
ake	7821
font	7822
hm	7823
pow	7824
##alle	7825
acid	7826
accelerate	7827
mono	7828
myr	7829
trace	7830
potter	7831
judicial	7832
##ergus	7833
ivan	7834
dann	7835
embark	7836
straw	7837
introduction	7838
nuts	7839
agher	7840
1b	7841
ds	7842
fad	7843
fergus	7844
gage	7845
lug	7846
mb	7847
nvid	7848
ole	7849
sb	7850
tamp	7851
##5e	7852
##itable	7853
edd	7854
##less	7855
##uted	7856
wept	7857
caut	7858
adel	7859
pep	7860
spence	7861
spare	7862
##ffle	7863
##luc	7864
paralle	7865
highway	7866
surpass	7867
curb	7868
signific	7869
excuse	7870
jais	7871
prosper	7872
ppy	7873
phenomeno	7874
parallel	7875
significa	7876
cd	7877
dak	7878
gum	7879
gio	7880
nash	7881
nuel	7882
##sw	7883
oni	7884
alc	7885
##rait	7886
condo	7887
sake	7888
usi	7889
fool	7890
##fford	7891
mona	7892
clue	7893
ethic	7894
imagi	7895
religi	7896
djo	7897
nvidia	7898
bis	7899
iq	7900
loun	7901
zon	7902
ար	7903
##mar	7904
##թյ	7905
##oration	7906
ata	7907
wei	7908
##add	7909
1995	7910
retreat	7911
broker	7912
portrait	7913
defam	7914
##ificate	7915
certificate	7916
puzz	7917
umb	7918
corporation	7919
bolster	7920
ությ	7921
kirk	7922
ucker	7923
shelve	7924
gesture	7925
ncaa	7926
**	7927
aesthetic	7928
ior	7929
ick	7930
rone	7931
slu	7932
yang	7933
ía	7934
##gust	7935
##7d	7936
##com	7937
##my	7938
toss	7939
##ieg	7940
lender	7941
sew	7942
segment	7943
bagg	7944
paw	7945
whats	7946
cram	7947
crumb	7948
eleph	7949
expla	7950
norr	7951
brace	7952
ller	7953
requir	7954
silva	7955
terrify	7956
philo	7957
array	7958
scratch	7959
valuation	7960
yadav	7961
slug	7962
elephant	7963
5g	7964
hin	7965
hra	7966
rarily	7967
sno	7968
tm	7969
tong	7970
ակ	7971
##8f0	7972
tole	7973
reluc	7974
beg	7975
neo	7976
sep	7977
cass	7978
prelim	7979
pretend	7980
hoo	7981
spill	7982
disgust	7983
drome	7984
crook	7985
quel	7986
swin	7987
humili	7988
authorize	7989
cyc	7990
ulent	7991
osa	7992
tempt	7993
1998	7994
impression	7995
milli	7996
nto	7997
mahara	7998
colonial	7999
ում	8000
mitig	8001
1960s	8002
blanket	8003
initiate	8004
persuad	8005
97	8006
ditch	8007
gpt	8008
lt	8009
lith	8010
mourn	8011
nada	8012
pies	8013
si	8014
tb	8015
witt	8016
wool	8017
##mir	8018
##ել	8019
##isition	8020
leaf	8021
bobb	8022
marco	8023
190	8024
19th	8025
annoy	8026
illo	8027
infant	8028
washing	8029
motive	8030
torial	8031
kai	8032
borne	8033
devote	8034
thunder	8035
hawks	8036
acquisition	8037
cautious	8038
whatsapp	8039
(@	8040
jol	8041
kap	8042
ora	8043
##gle	8044
##eve	8045
thread	8046
erman	8047
lag	8048
robb	8049
fever	8050
formation	8051
elle	8052
utah	8053
##250	8054
merit	8055
susan	8056
jama	8057
neglect	8058
sleeve	8059
shrink	8060
ucky	8061
!!!	8062
aqu	8063
cular	8064
fy	8065
kitt	8066
mg	8067
##ule	8068
##2f	8069
##picious	8070
##oner	8071
##enix	8072
##thm	8073
shtra	8074
##unge	8075
doom	8076
taker	8077
plunge	8078
prising	8079
uspicious	8080
rox	8081
##ubb	8082
tyl	8083
belle	8084
1994	8085
sati	8086
griff	8087
49ers	8088
isastrous	8089
phoenix	8090
aldi	8091
imprison	8092
puzzl	8093
blu	8094
bian	8095
gol	8096
md	8097
rust	8098
zer	8099
##fight	8100
##uke	8101
##mph	8102
##որ	8103
##enz	8104
##anion	8105
eria	8106
##urd	8107
sect	8108
sul	8109
orange	8110
dos	8111
nos	8112
ema	8113
monu	8114
monarch	8115
companion	8116
sett	8117
grain	8118
bane	8119
##bec	8120
firefight	8121
damn	8122
beau	8123
1992	8124
bombard	8125
optimist	8126
urgency	8127
tupid	8128
aero	8129
bie	8130
cco	8131
kc	8132
mph	8133
##d3	8134
##uk	8135
##borate	8136
##enance	8137
stunt	8138
##iest	8139
cox	8140
priest	8141
acce	8142
clever	8143
freeze	8144
operative	8145
dys	8146
1993	8147
rico	8148
subscribe	8149
bubble	8150
rhythm	8151
owe	8152
pard	8153
wang	8154
ón	8155
##ones	8156
##atter	8157
reven	8158
##icip	8159
##vey	8160
lander	8161
bage	8162
baile	8163
evident	8164
incur	8165
ceased	8166
pha	8167
tyre	8168
1989	8169
##anger	8170
blair	8171
mcg	8172
flock	8173
audi	8174
absurd	8175
municip	8176
cruz	8177
oxy	8178
sophie	8179
convenience	8180
kashmir	8181
fracture	8182
revenge	8183
municipal	8184
.,""	8185
awe	8186
bt	8187
eason	8188
kle	8189
lur	8190
ufc	8191
uitable	8192
zam	8193
##fan	8194
##vak	8195
##pora	8196
##enge	8197
stack	8198
forum	8199
##iliate	8200
orth	8201
coco	8202
##ptic	8203
marine	8204
mik	8205
gee	8206
steep	8207
ava	8208
budd	8209
affiliate	8210
pathy	8211
pleasant	8212
behave	8213
arthy	8214
arthur	8215
liga	8216
vigil	8217
easonal	8218
..	8219
cork	8220
sama	8221
ui	8222
##list	8223
##eem	8224
##cies	8225
##8d	8226
##ato	8227
##aya	8228
##urg	8229
wauke	8230
wes	8231
sai	8232
loop	8233
20s	8234
coff	8235
tage	8236
ush	8237
deme	8238
bark	8239
intel	8240
171	8241
peters	8242
hybr	8243
samuel	8244
tatt	8245
random	8246
spirit	8247
dolph	8248
waukee	8249
hybrid	8250
hort	8251
kris	8252
nun	8253
pion	8254
##ration	8255
thame	8256
dement	8257
neu	8258
lipped	8259
proc	8260
trim	8261
tabb	8262
pest	8263
usive	8264
##ultane	8265
##agan	8266
descend	8267
berk	8268
simultane	8269
etic	8270
linger	8271
##ikh	8272
generative	8273
gunn	8274
##anean	8275
philip	8276
salv	8277
carriage	8278
owen	8279
refund	8280
appreci	8281
terranean	8282
hydr	8283
stellar	8284
usiasm	8285
accele	8286
dementia	8287
tabbing	8288
280	8289
cs	8290
rud	8291
riv	8292
##can	8293
##c95	8294
##acer	8295
##kg	8296
##ouch	8297
abduct	8298
exacer	8299
mea	8300
baba	8301
dio	8302
commence	8303
decisive	8304
##lica	8305
endanger	8306
mund	8307
uration	8308
izer	8309
barrel	8310
##ac0	8311
jee	8312
merch	8313
olympia	8314
nerve	8315
robber	8316
1991	8317
aux	8318
dictator	8319
inflict	8320
lounge	8321
tattoo	8322
spiritual	8323
pioneer	8324
exacerb	8325
b2	8326
gir	8327
sne	8328
ute	8329
vest	8330
##a4	8331
##uum	8332
##21	8333
ision	8334
delet	8335
convey	8336
##laim	8337
pox	8338
usc	8339
accent	8340
indones	8341
endo	8342
flick	8343
metric	8344
payne	8345
....	8346
blake	8347
swan	8348
balloon	8349
invad	8350
drift	8351
challenge	8352
inflam	8353
##255	8354
definition	8355
harmon	8356
disputed	8357
functional	8358
vacation	8359
vacuum	8360
catastrophic	8361
mamm	8362
indonesia	8363
inflamm	8364
""	8365
bam	8366
cig	8367
ika	8368
nint	8369
sala	8370
tally	8371
wyn	8372
yar	8373
##po	8374
thorn	8375
##itation	8376
##iterate	8377
reiterate	8378
alum	8379
lei	8380
condu	8381
nep	8382
tray	8383
herb	8384
rov	8385
robe	8386
rak	8387
gren	8388
##andr	8389
else	8390
plag	8391
vio	8392
10th	8393
invitation	8394
##605	8395
universal	8396
glove	8397
snake	8398
350	8399
scorer	8400
deterio	8401
ogue	8402
lynn	8403
convenient	8404
calculate	8405
aintenance	8406
pardon	8407
5c	8408
hul	8409
lus	8410
##for	8411
##336	8412
##ndit	8413
##alem	8414
##omi	8415
bend	8416
##cture	8417
dex	8418
wad	8419
shu	8420
seam	8421
maz	8422
##uli	8423
gos	8424
##lash	8425
usalem	8426
splash	8427
feud	8428
scatter	8429
britt	8430
cric	8431
wayne	8432
prescri	8433
keith	8434
##wegian	8435
##gering	8436
pundit	8437
##uggle	8438
##275	8439
memorial	8440
taggering	8441
obstruct	8442
prescription	8443
/@	8444
aur	8445
bent	8446
vamp	8447
##vise	8448
##him	8449
##erc	8450
reel	8451
rebec	8452
##ici	8453
hedge	8454
heighten	8455
enroll	8456
alg	8457
##ateur	8458
##usal	8459
mani	8460
replica	8461
suppress	8462
terra	8463
grapp	8464
third	8465
judi	8466
ferry	8467
encia	8468
juris	8469
timber	8470
tina	8471
vitamin	8472
dissent	8473
cigar	8474
hs	8475
nth	8476
rop	8477
եր	8478
##tion	8479
##atric	8480
beam	8481
beast	8482
##ami	8483
lec	8484
lecture	8485
cape	8486
##ardash	8487
amo	8488
peel	8489
evol	8490
trafford	8491
##emo	8492
commemo	8493
secur	8494
desp	8495
solicit	8496
completion	8497
##905	8498
##164	8499
aria	8500
hurdle	8501
epa	8502
nutri	8503
rubb	8504
uttar	8505
##ardashian	8506
cision	8507
fol	8508
kardashian	8509
luci	8510
oll	8511
##ull	8512
##ito	8513
bela	8514
stalk	8515
##ce5	8516
##ithm	8517
wander	8518
##rahim	8519
chile	8520
##olid	8521
hash	8522
racket	8523
acco	8524
finn	8525
idah	8526
clave	8527
claud	8528
teria	8529
callout	8530
consolid	8531
irrit	8532
patt	8533
militia	8534
ario	8535
lieu	8536
owski	8537
tailor	8538
piled	8539
tropical	8540
surgeon	8541
elegant	8542
1st	8543
160	8544
ient	8545
iye	8546
roth	8547
ull	8548
##eu	8549
##4000	8550
##fb5	8551
##tor	8552
##ped	8553
##oria	8554
reun	8555
pred	8556
##aint	8557
amor	8558
pap	8559
diary	8560
2028	8561
clif	8562
drown	8563
izers	8564
deserve	8565
chev	8566
nai	8567
fancy	8568
humble	8569
logo	8570
slim	8571
##322	8572
ivo	8573
volo	8574
beyond	8575
domini	8576
slovak	8577
ritual	8578
mechanic	8579
prolong	8580
ների	8581
powder	8582
dakota	8583
reunite	8584
cliffe	8585
deserved	8586
eater	8587
mild	8588
ré	8589
tire	8590
ura	8591
##fbb	8592
##03	8593
##ակ	8594
##att	8595
##stock	8596
lyon	8597
alloc	8598
##opard	8599
precedent	8600
plug	8601
monte	8602
apprent	8603
download	8604
barba	8605
sketch	8606
insta	8607
costume	8608
jude	8609
summon	8610
globe	8611
burger	8612
akh	8613
digest	8614
norman	8615
##650	8616
grove	8617
natali	8618
grind	8619
ckless	8620
fasci	8621
nagar	8622
paralymp	8623
apprentice	8624
94	8625
dug	8626
fd	8627
sou	8628
ugu	8629
vick	8630
##ía	8631
##inating	8632
##rect	8633
onc	8634
##cester	8635
sac	8636
sah	8637
trent	8638
trous	8639
amit	8640
rope	8641
divert	8642
rage	8643
clam	8644
strang	8645
harvest	8646
confine	8647
queue	8648
101	8649
leth	8650
12th	8651
patrol	8652
eties	8653
110	8654
172	8655
##305	8656
##898	8657
activate	8658
##f09	8659
guez	8660
alexandr	8661
fluid	8662
revive	8663
tween	8664
occupation	8665
slogan	8666
throat	8667
##ennial	8668
shutterstock	8669
biological	8670
demean	8671
intellect	8672
conductor	8673
trousers	8674
bm	8675
dimin	8676
jit	8677
uc	8678
##ii	8679
##ser	8680
##saf	8681
##án	8682
##jab	8683
reagan	8684
chad	8685
saka	8686
lob	8687
cauc	8688
##odate	8689
tah	8690
bog	8691
dispar	8692
mineral	8693
accomm	8694
iah	8695
##osi	8696
norwegian	8697
##209	8698
provoc	8699
##acle	8700
pedro	8701
18th	8702
jungle	8703
##833	8704
audit	8705
lynch	8706
therapist	8707
orient	8708
abdul	8709
fascinating	8710
elaborate	8711
spoil	8712
evaluate	8713
diminish	8714
caucus	8715
accommodate	8716
cze	8717
gn	8718
uro	8719
viv	8720
zak	8721
##8f7	8722
##arce	8723
##ania	8724
sto	8725
forens	8726
isle	8727
alph	8728
chlo	8729
comic	8730
yousaf	8731
tast	8732
##fe0	8733
##fe9	8734
##isticated	8735
ifa	8736
roone	8737
mara	8738
marry	8739
incarce	8740
scho	8741
uru	8742
surre	8743
stefan	8744
transit	8745
##603	8746
lincol	8747
13th	8748
tenn	8749
deepen	8750
##665	8751
##f51	8752
ordination	8753
constitute	8754
bolt	8755
exclude	8756
astonish	8757
voluntary	8758
ophisticated	8759
evolving	8760
forensic	8761
lincoln	8762
999	8763
dine	8764
gc	8765
gust	8766
horm	8767
tress	8768
եւ	8769
##47b	8770
##37	8771
##ries	8772
##210	8773
##pone	8774
##xious	8775
##ño	8776
##ley	8777
itch	8778
chy	8779
chor	8780
abh	8781
ardo	8782
cai	8783
ima	8784
peck	8785
roar	8786
grin	8787
trash	8788
cran	8789
cess	8790
verbal	8791
kean	8792
shef	8793
hara	8794
colo	8795
blond	8796
geon	8797
postpone	8798
curious	8799
somali	8800
subtle	8801
candle	8802
limb	8803
cardinal	8804
##142	8805
##750	8806
##756	8807
timo	8808
punjab	8809
rumor	8810
clinch	8811
##anche	8812
conceal	8813
cosm	8814
lavish	8815
obstacle	8816
hazard	8817
wrestle	8818
rehabilit	8819
valenti	8820
5m	8821
bate	8822
eur	8823
ila	8824
kro	8825
lly	8826
pient	8827
yacht	8828
##gy	8829
##cdd	8830
##field	8831
##f89	8832
##vail	8833
##und	8834
##jec	8835
stap	8836
##imu	8837
leverage	8838
laver	8839
meh	8840
##opa	8841
prevail	8842
immin	8843
mole	8844
mold	8845
##40f	8846
mush	8847
##acre	8848
avage	8849
tarv	8850
tara	8851
distinguish	8852
##155	8853
##326	8854
massacre	8855
##170	8856
21st	8857
fraser	8858
mali	8859
prioritise	8860
bulk	8861
\">\	8862
tighten	8863
sheriff	8864
tresses	8865
staple	8866
imminent	8867
crist	8868
dw	8869
ew	8870
gown	8871
gna	8872
his	8873
jh	8874
kas	8875
krist	8876
kolk	8877
nb	8878
nis	8879
nug	8880
nary	8881
wives	8882
##fied	8883
##58	8884
##vas	8885
##a6	8886
sten	8887
ert	8888
alle	8889
weed	8890
webb	8891
leo	8892
shep	8893
magu	8894
##esity	8895
monet	8896
soak	8897
johan	8898
bucket	8899
shein	8900
sheep	8901
sheikh	8902
goodby	8903
fitz	8904
##202	8905
obesity	8906
##daf	8907
instinct	8908
caps	8909
##601	8910
##ba3	8911
info	8912
burk	8913
##321	8914
##99c	8915
##850	8916
##884	8917
tracked	8918
ethical	8919
anima	8920
veto	8921
optic	8922
##794	8923
padd	8924
integration	8925
intervene	8926
skeptic	8927
satisfied	8928
goodbye	8929
8a	8930
aunt	8931
dial	8932
elo	8933
gad	8934
gie	8935
hri	8936
kier	8937
mitt	8938
##c85	8939
##4ff	8940
##f10	8941
##3b0	8942
##d15	8943
##a7	8944
##871	8945
##bu	8946
toast	8947
##incing	8948
hawa	8949
stubb	8950
stimu	8951
##igue	8952
logan	8953
cano	8954
pave	8955
rau	8956
quo	8957
cargo	8958
mina	8959
##formfield	8960
callum	8961
curl	8962
issipp	8963
historia	8964
ripping	8965
##1516	8966
convincing	8967
##395	8968
##44a	8969
aki	8970
##865	8971
sharif	8972
ovich	8973
marginal	8974
cognitive	8975
towel	8976
itories	8977
rella	8978
leonard	8979
hesit	8980
aspiration	8981
sneak	8982
calloutformfield	8983
hispan	8984
issippi	8985
>.	8986
cdc	8987
jal	8988
ocial	8989
soup	8990
zan	8991
այ	8992
##cbc	8993
##41	8994
##d40	8995
##iance	8996
##189	8997
rey	8998
stal	8999
stump	9000
stiff	9001
ato	9002
wager	9003
##rad	9004
chunk	9005
saf	9006
sas	9007
##umul	9008
cane	9009
scout	9010
conti	9011
accumul	9012
cement	9013
croat	9014
barri	9015
coroner	9016
huss	9017
radar	9018
jai	9019
vanish	9020
##e50	9021
##f087	9022
groom	9023
ipsw	9024
analyse	9025
libera	9026
faithful	9027
julian	9028
appliance	9029
spiral	9030
paralympic	9031
czech	9032
surrender	9033
ocialist	9034
ipswich	9035
295	9036
aer	9037
gt	9038
kab	9039
lp	9040
lamp	9041
olu	9042
rk	9043
rious	9044
vand	9045
##7c5	9046
##3cc	9047
##db5	9048
##aed	9049
##rim	9050
##2cc	9051
##600	9052
##այ	9053
##ji	9054
##orithm	9055
##ann	9056
anxious	9057
deduct	9058
##ede	9059
waver	9060
##ille	9061
shang	9062
suf	9063
arbit	9064
perf	9065
moil	9066
baum	9067
prit	9068
roo	9069
facial	9070
raf	9071
##berg	9072
gru	9073
commend	9074
mint	9075
cluster	9076
parole	9077
icot	9078
1950	9079
meme	9080
##da9	9081
##40b	9082
communist	9083
pedest	9084
duel	9085
##19b	9086
##661	9087
bribe	9088
##diction	9089
ceremoni	9090
launder	9091
rina	9092
escort	9093
intrigu	9094
plague	9095
algorithm	9096
jurisdiction	9097
hormone	9098
fid	9099
kul	9100
rous	9101
uri	9102
vie	9103
wrist	9104
##eg	9105
##749	9106
##c89	9107
##c22	9108
##f14	9109
##345	9110
##db	9111
##ae9	9112
##omp	9113
##llo	9114
stere	9115
heir	9116
weav	9117
##ightfor	9118
emmy	9119
scam	9120
rake	9121
carn	9122
trajec	9123
traightfor	9124
indul	9125
decorate	9126
apo	9127
flam	9128
retr	9129
finalist	9130
##be0	9131
11th	9132
450	9133
potato	9134
##90d	9135
tsun	9136
##e5d	9137
facul	9138
mpag	9139
##c0d	9140
dunn	9141
academy	9142
rigg	9143
stereo	9144
traightforward	9145
potatoes	9146
3000	9147
batch	9148
cata	9149
dough	9150
nord	9151
oid	9152
rl	9153
rim	9154
tart	9155
vs	9156
yog	9157
##e14	9158
##fcd	9159
##d35	9160
##ault	9161
ink	9162
ande	9163
stur	9164
seg	9165
caf	9166
mela	9167
affe	9168
spire	9169
ionist	9170
ente	9171
commute	9172
clan	9173
regain	9174
genetic	9175
blunt	9176
##207	9177
##izz	9178
##ac2	9179
crawl	9180
calor	9181
##353	9182
##351	9183
##ee5	9184
##103	9185
dama	9186
frey	9187
##122	9188
digit	9189
prima	9190
##341	9191
##d04	9192
iracle	9193
pelosi	9194
abund	9195
olli	9196
mpagne	9197
1m	9198
eira	9199
hilar	9200
kaz	9201
má	9202
pist	9203
zar	9204
##e20	9205
##e24	9206
##434	9207
##f65	9208
##385	9209
##aea	9210
##rh	9211
##_10	9212
recession	9213
atro	9214
heft	9215
ano	9216
enberg	9217
laud	9218
orb	9219
spik	9220
marath	9221
trac	9222
daunt	9223
menopa	9224
##ab0	9225
##358	9226
##101	9227
##907	9228
etti	9229
serial	9230
falcon	9231
##bb6	9232
##393	9233
##62b	9234
##f96	9235
##73a	9236
ghan	9237
##1a3	9238
dispo	9239
ambi	9240
frost	9241
utton	9242
tornado	9243
stirr	9244
tongue	9245
predator	9246
alpha	9247
hawaii	9248
hilarious	9249
marathon	9250
0a	9251
cort	9252
fent	9253
lal	9254
lush	9255
punt	9256
xia	9257
##771	9258
##785	9259
##sl	9260
##8a0	9261
##pack	9262
##les	9263
##leash	9264
itt	9265
atk	9266
##urance	9267
waist	9268
shear	9269
seiz	9270
abba	9271
abrupt	9272
arnold	9273
unleash	9274
##inea	9275
pai	9276
spider	9277
sphere	9278
repress	9279
backpack	9280
guinea	9281
vend	9282
ido	9283
assurance	9284
tripped	9285
blanc	9286
rational	9287
##nell	9288
submar	9289
humor	9290
slop	9291
##253	9292
##368	9293
##724	9294
mora	9295
fals	9296
##175	9297
reset	9298
##bb9	9299
##14d	9300
##182	9301
essa	9302
##c58	9303
darr	9304
mahon	9305
conceiv	9306
ական	9307
maguire	9308
aerial	9309
seizure	9310
submarine	9311
4000	9312
cem	9313
dé	9314
pug	9315
rou	9316
vr	9317
##ged	9318
##eab	9319
##e12	9320
##744	9321
##cott	9322
##4cc	9323
##5a5	9324
##ius	9325
##8ef	9326
##1dc	9327
##ston	9328
edm	9329
heg	9330
##eth	9331
defect	9332
alon	9333
chard	9334
shit	9335
amateur	9336
bau	9337
evict	9338
evoke	9339
brink	9340
##ffd	9341
quiz	9342
carve	9343
complim	9344
##nderson	9345
##cc0	9346
patron	9347
chau	9348
drastic	9349
jana	9350
constrain	9351
garner	9352
boycott	9353
freak	9354
##667	9355
khali	9356
audition	9357
hopped	9358
##af2	9359
necessit	9360
pike	9361
##fd5	9362
flatter	9363
santo	9364
libra	9365
inho	9366
settling	9367
indulge	9368
cemet	9369
compliment	9370
':	9371
814	9372
ail	9373
fond	9374
jok	9375
kor	9376
nn	9377
nl	9378
rian	9379
##e00	9380
##e67	9381
##4ad	9382
##f27	9383
##ae5	9384
##rin	9385
##ran	9386
##1e9	9387
##6de	9388
itis	9389
heim	9390
heimer	9391
henderson	9392
whop	9393
animate	9394
##ila	9395
concession	9396
aba	9397
abdu	9398
arn	9399
ort	9400
proxi	9401
cait	9402
bac	9403
##iste	9404
nox	9405
noon	9406
foe	9407
donnell	9408
eli	9409
knot	9410
fibre	9411
1987	9412
1968	9413
flare	9414
##iful	9415
igan	9416
gravit	9417
##abit	9418
foresee	9419
realm	9420
default	9421
woe	9422
##ee4	9423
hearted	9424
##719	9425
##998	9426
##831	9427
##264	9428
##646	9429
##efd	9430
nico	9431
stephan	9432
hydrate	9433
bundle	9434
inhabit	9435
ortho	9436
pedestrian	9437
750	9438
911	9439
cure	9440
dives	9441
ngo	9442
oun	9443
ode	9444
wield	9445
zara	9446
##eec	9447
##e86	9448
##483	9449
##56	9450
##aeb	9451
##295	9452
##9c2	9453
##onate	9454
enquir	9455
##adc	9456
sue	9457
##ulum	9458
goat	9459
caster	9460
ament	9461
taka	9462
##004	9463
spic	9464
spouse	9465
nock	9466
emmer	9467
scram	9468
##udd	9469
resonate	9470
elf	9471
minn	9472
kell	9473
appa	9474
appet	9475
widow	9476
1986	9477
terrace	9478
##well	9479
croc	9480
visor	9481
##anyl	9482
junction	9483
##25a	9484
garh	9485
merge	9486
derail	9487
glaston	9488
ome	9489
chemo	9490
##222	9491
essay	9492
##cd4	9493
##4860	9494
##64a	9495
fatigue	9496
##4610	9497
##592	9498
##e620	9499
synth	9500
ologists	9501
rehear	9502
glamor	9503
shamed	9504
pulse	9505
piano	9506
imperial	9507
creep	9508
reynold	9509
fentanyl	9510
atkins	9511
scramble	9512
glastonbury	9513
aver	9514
aro	9515
ego	9516
hun	9517
von	9518
wu	9519
ին	9520
##ece	9521
##ión	9522
##b45	9523
##met	9524
##erance	9525
##alog	9526
##lla	9527
##utical	9528
propel	9529
baz	9530
agn	9531
spraw	9532
ragg	9533
##ftop	9534
ceutical	9535
inder	9536
##ship	9537
veer	9538
1988	9539
flirt	9540
moder	9541
daw	9542
priya	9543
##408	9544
125	9545
##ac8	9546
somer	9547
humour	9548
1720	9549
##36a	9550
##908	9551
ibrahim	9552
##854	9553
dread	9554
##24c	9555
##f5a	9556
##b09	9557
##ggi	9558
malik	9559
##78a	9560
fisher	9561
revise	9562
rhod	9563
acknowl	9564
##3a3	9565
tolerate	9566
tolerance	9567
cosy	9568
rigor	9569
pillow	9570
reinforce	9571
##ուն	9572
inventor	9573
chandra	9574
circuit	9575
semitic	9576
holland	9577
flourish	9578
hassan	9579
lethal	9580
mushroom	9581
rooftop	9582
retriev	9583
sprawl	9584
314	9585
760	9586
820	9587
bala	9588
gies	9589
kia	9590
kos	9591
oca	9592
riz	9593
rude	9594
tc	9595
##nast	9596
##eze	9597
##ef5	9598
##799	9599
##c80	9600
##c66	9601
##f19	9602
##f88	9603
##5d5	9604
##vin	9605
##a18	9606
##spe	9607
##kin	9608
##8fa	9609
##billion	9610
##926	9611
##680	9612
##619	9613
releg	9614
##icate	9615
ania	9616
##irk	9617
nee	9618
seb	9619
laun	9620
mast	9621
##ational	9622
dox	9623
rai	9624
carp	9625
sofa	9626
donn	9627
clause	9628
1982	9629
genius	9630
smuggle	9631
queeze	9632
belgian	9633
##da3	9634
refine	9635
denounce	9636
cyp	9637
ideo	9638
16th	9639
uma	9640
##ea4	9641
anga	9642
?""	9643
husk	9644
##b0b	9645
litter	9646
temple	9647
##a973	9648
copp	9649
pinning	9650
##b55	9651
tino	9652
##fcb	9653
dispatch	9654
obsc	9655
sensit	9656
homicide	9657
gymnast	9658
=""	9659
fascist	9660
toddle	9661
physician	9662
phobia	9663
iyeh	9664
ocaust	9665
aja	9666
dle	9667
lol	9668
mant	9669
mould	9670
sip	9671
vale	9672
zh	9673
##7cc	9674
##cere	9675
##iard	9676
##a66	9677
##ti	9678
##800	9679
##227	9680
##9e0	9681
##6dd	9682
stig	9683
##ces	9684
alf	9685
neill	9686
abra	9687
loch	9688
cau	9689
mangi	9690
mog	9691
moo	9692
noc	9693
gui	9694
##othe	9695
impair	9696
1979	9697
1984	9698
flipp	9699
blade	9700
##ogram	9701
##herd	9702
solving	9703
17th	9704
pett	9705
lund	9706
14th	9707
moro	9708
ibilities	9709
collar	9710
##128	9711
torr	9712
rador	9713
##b04	9714
chemist	9715
##87e	9716
##68d	9717
##b5f7	9718
##bd4	9719
ghana	9720
heroes	9721
sensational	9722
cinemat	9723
zoe	9724
spaniard	9725
naga	9726
stella	9727
guru	9728
editorial	9729
raiser	9730
ntha	9731
rubbish	9732
mantle	9733
888	9734
960	9735
hig	9736
mama	9737
ppe	9738
sween	9739
vat	9740
vague	9741
zach	9742
##lou	9743
##7d9	9744
##7e4	9745
##435	9746
##4d4	9747
##sa	9748
##bdd	9749
##1e	9750
##160	9751
##130	9752
##144	9753
##93	9754
##6a2	9755
##ju	9756
##ities	9757
delicate	9758
##cher	9759
alz	9760
frighten	9761
##unn	9762
##unal	9763
adi	9764
ados	9765
tapped	9766
hoff	9767
spark	9768
feather	9769
steward	9770
##ab3	9771
lotte	9772
swath	9773
##utional	9774
oppress	9775
ratio	9776
judici	9777
##8968	9778
100m	9779
ivities	9780
puff	9781
##193	9782
resemble	9783
antiqu	9784
snip	9785
vape	9786
tribunal	9787
giuli	9788
institutional	9789
sincere	9790
litig	9791
dresses	9792
##cd8	9793
##753	9794
##78b	9795
##693	9796
##692	9797
##7b2	9798
##43c	9799
devon	9800
nta	9801
##fd7	9802
##d5c	9803
anthem	9804
cherish	9805
appreh	9806
##84a	9807
uganda	9808
disciplina	9809
##8c65	9810
shepherd	9811
sweeney	9812
bind	9813
cm	9814
eh	9815
eug	9816
fm	9817
hatch	9818
ight	9819
jug	9820
nix	9821
vian	9822
##527	9823
##sk	9824
##8e0	9825
##1f9	9826
thon	9827
bever	9828
stow	9829
##ssert	9830
dessert	9831
fringe	9832
loft	9833
prec	9834
coo	9835
coinc	9836
worship	9837
adrian	9838
feld	9839
dix	9840
incor	9841
incons	9842
demolish	9843
blur	9844
berries	9845
refusal	9846
steroid	9847
##dev	9848
30am	9849
logic	9850
juana	9851
junior	9852
illennial	9853
##ee20	9854
occu	9855
0_0_3	9856
##ea7	9857
##1415	9858
##4920	9859
fragment	9860
##a08	9861
##cd19	9862
divisive	9863
##a97	9864
##48a	9865
##4800	9866
##3d3	9867
lamm	9868
##d9a2	9869
##6c7	9870
cyclist	9871
harbor	9872
satisfy	9873
nutrient	9874
lavery	9875
nugget	9876
affection	9877
ounce	9878
sebast	9879
eugen	9880
coincide	9881
inconsiste	9882
360	9883
539	9884
cic	9885
dling	9886
gush	9887
kad	9888
nil	9889
oma	9890
rf	9891
rm	9892
td	9893
zzi	9894
որ	9895
##nia	9896
##464	9897
##4a2	9898
##a35	9899
##rig	9900
##bow	9901
##b64	9902
##1f0	9903
beard	9904
iti	9905
hew	9906
##urt	9907
##irator	9908
alger	9909
##isi	9910
##ad27	9911
shap	9912
sag	9913
sains	9914
lapped	9915
abolish	9916
hiv	9917
lian	9918
geta	9919
minus	9920
guj	9921
##ught	9922
anta	9923
flies	9924
gaard	9925
baron	9926
##cci	9927
##ab15	9928
artic	9929
nah	9930
naiss	9931
##ac55	9932
15th	9933
builder	9934
1725	9935
1896	9936
cyr	9937
##7168	9938
##3624	9939
##85fa	9940
dani	9941
##1200	9942
##27e2	9943
##2423	9944
tique	9945
villain	9946
roller	9947
##afc	9948
##cd95	9949
##34be	9950
##68ac	9951
copper	9952
##f942	9953
##6948	9954
wheat	9955
flux	9956
##bd3f	9957
degrad	9958
riculum	9959
intelligent	9960
##46f3	9961
392	9962
tamil	9963
##e4ee	9964
fabulous	9965
##f4ec	9966
##d6e5	9967
shakespe	9968
cooperate	9969
##4aed	9970
socio	9971
##2bcc	9972
##6136	9973
hypo	9974
booz	9975
pearl	9976
##b384	9977
perfume	9978
##4cc3	9979
incorpora	9980
algeria	9981
sainsbury	9982
naissance	9983
shakespeare	9984
bib	9985
eis	9986
ega	9987
fay	9988
iam	9989
kol	9990
mck	9991
nal	9992
sik	9993
tib	9994
wsl	9995
##cm	9996
##c24	9997
##df	9998
##b6	9999
