<unk>	0
<s>	0
</s>	0
▁s	-0
▁t	-1
▁a	-2
▁i	-3
he	-4
▁e	-5
▁o	-6
re	-7
▁the	-8
▁in	-9
▁w	-10
▁c	-11
er	-12
nd	-13
on	-14
▁f	-15
▁b	-16
▁l	-17
▁p	-18
ha	-19
▁d	-20
▁m	-21
or	-22
in	-23
▁to	-24
en	-25
ou	-26
ar	-27
st	-28
it	-29
▁of	-30
▁ed	-31
▁ing	-32
an	-33
al	-34
▁and	-35
at	-36
▁re	-37
▁n	-38
hi	-39
▁y	-40
om	-41
ll	-42
ic	-43
ve	-44
▁T	-45
▁g	-46
le	-47
ion	-48
▁ha	-49
id	-50
▁be	-51
▁he	-52
▁on	-53
ent	-54
▁I	-55
▁r	-56
▁S	-57
ut	-58
hat	-59
ot	-60
ce	-61
▁A	-62
▁u	-63
ay	-64
▁at	-65
ing	-66
▁is	-67
▁for	-68
▁it	-69
▁st	-70
ow	-71
ss	-72
se	-73
ur	-74
ct	-75
▁er	-76
▁M	-77
▁C	-78
▁that	-79
▁en	-80
▁"	-81
▁ly	-82
▁an	-83
et	-84
ch	-85
ver	-86
ld	-87
▁h	-88
ra	-89
▁B	-90
ith	-91
ir	-92
ed	-93
ri	-94
ro	-95
gh	-96
am	-97
▁with	-98
▁wa	-99
▁The	-100
▁de	-101
▁we	-102
▁hi	-103
▁P	-104
ge	-105
▁H	-106
is	-107
ad	-108
▁al	-109
ke	-110
il	-111
ill	-112
ter	-113
es	-114
▁W	-115
▁v	-116
im	-117
▁D	-118
ol	-119
ck	-120
▁R	-121
▁com	-122
▁le	-123
▁sa	-124
▁th	-125
▁N	-126
▁con	-127
▁wh	-128
ort	-129
▁ab	-130
ate	-131
▁se	-132
pe	-133
▁li	-134
▁2	-135
▁ne	-136
▁F	-137
▁L	-138
rom	-139
▁G	-140
▁you	-141
▁mo	-142
▁said	-143
ation	-144
▁la	-145
▁ex	-146
um	-147
ght	-148
▁have	-149
ul	-150
as	-151
▁has	-152
▁E	-153
us	-154
▁from	-155
▁by	-156
art	-157
un	-158
oo	-159
la	-160
▁J	-161
▁all	-162
▁j	-163
▁or	-164
▁ca	-165
▁1	-166
op	-167
▁es	-168
▁pro	-169
her	-170
▁not	-171
▁ar	-172
ould	-173
▁k	-174
pp	-175
▁O	-176
▁ment	-177
ust	-178
ig	-179
▁-	-180
ain	-181
,"	-182
▁thi	-183
el	-184
ive	-185
ear	-186
our	-187
▁U	-188
▁out	-189
th	-190
▁20	-191
▁her	-192
fe	-193
▁me	-194
qu	-195
ight	-196
nt	-197
▁su	-198
▁whi	-199
all	-200
▁co	-201
▁who	-202
."	-203
▁po	-204
ant	-205
▁K	-206
ome	-207
mp	-208
han	-209
▁go	-210
▁te	-211
▁ad	-212
▁do	-213
▁ma	-214
▁un	-215
▁will	-216
▁wor	-217
ice	-218
ine	-219
▁af	-220
▁their	-221
▁pre	-222
▁but	-223
▁pl	-224
▁one	-225
▁ta	-226
▁ers	-227
ure	-228
ci	-229
▁can	-230
▁had	-231
▁up	-232
ack	-233
▁sh	-234
▁per	-235
▁(	-236
▁lo	-237
ound	-238
ime	-239
ist	-240
ard	-241
ie	-242
▁ag	-243
▁year	-244
ies	-245
▁off	-246
out	-247
ia	-248
lo	-249
▁man	-250
ore	-251
ue	-252
te	-253
ide	-254
▁ation	-255
▁In	-256
ther	-257
00	-258
ong	-259
▁more	-260
▁ho	-261
▁pe	-262
and	-263
ity	-264
▁were	-265
▁fa	-266
▁ac	-267
▁ever	-268
▁about	-269
▁over	-270
▁after	-271
▁time	-272
▁which	-273
▁other	-274
per	-275
▁tr	-276
ub	-277
▁It	-278
▁He	-279
ame	-280
ber	-281
age	-282
▁fe	-283
▁if	-284
ast	-285
ree	-286
pt	-287
▁like	-288
▁ion	-289
ople	-290
▁day	-291
▁part	-292
▁us	-293
ud	-294
▁202	-295
▁qu	-296
▁would	-297
▁sp	-298
one	-299
▁'	-300
ood	-301
ount	-302
▁di	-303
▁am	-304
▁ev	-305
▁people	-306
em	-307
▁V	-308
ff	-309
ag	-310
▁my	-311
nder	-312
ord	-313
est	-314
ction	-315
▁new	-316
own	-317
ook	-318
▁work	-319
▁cha	-320
▁comp	-321
▁res	-322
ish	-323
▁St	-324
▁just	-325
▁able	-326
▁bo	-327
▁ro	-328
rou	-329
ne	-330
▁way	-331
▁fir	-332
▁say	-333
reat	-334
▁tw	-335
▁cont	-336
▁than	-337
▁tra	-338
ict	-339
ign	-340
ly	-341
▁some	-342
ick	-343
use	-344
ep	-345
▁there	-346
ite	-347
ak	-348
orm	-349
▁dis	-350
▁Y	-351
▁rep	-352
ble	-353
▁comm	-354
▁them	-355
ark	-356
▁pa	-357
▁sc	-358
ach	-359
ence	-360
lu	-361
ump	-362
ry	-363
ult	-364
▁ent	-365
▁play	-366
▁spe	-367
ous	-368
▁what	-369
ft	-370
iv	-371
▁inc	-372
▁ity	-373
sid	-374
▁whe	-375
▁back	-376
▁fo	-377
ind	-378
▁him	-379
▁come	-380
ink	-381
▁pol	-382
▁get	-383
▁first	-384
co	-385
ru	-386
▁ra	-387
▁land	-388
▁two	-389
ress	-390
lic	-391
ial	-392
▁no	-393
li	-394
▁our	-395
ition	-396
▁But	-397
▁could	-398
▁em	-399
▁kn	-400
▁Tr	-401
▁any	-402
▁cent	-403
▁ce	-404
ance	-405
▁Re	-406
▁your	-407
urn	-408
ire	-409
▁again	-410
cial	-411
▁3	-412
▁add	-413
▁el	-414
int	-415
▁ally	-416
▁state	-417
▁ver	-418
▁Ne	-419
▁ary	-420
▁pr	-421
▁shi	-422
▁last	-423
ren	-424
▁Trump	-425
▁acc	-426
ek	-427
ade	-428
▁imp	-429
vel	-430
me	-431
lf	-432
▁side	-433
▁most	-434
▁cause	-435
▁thing	-436
du	-437
▁show	-438
▁dec	-439
▁pub	-440
mer	-441
erv	-442
ual	-443
▁chi	-444
▁how	-445
▁end	-446
▁where	-447
▁ic	-448
▁est	-449
day	-450
▁under	-451
▁so	-452
wn	-453
▁age	-454
▁ele	-455
rent	-456
sident	-457
▁mon	-458
od	-459
▁bet	-460
▁inclu	-461
ect	-462
form	-463
rit	-464
▁now	-465
▁did	-466
ment	-467
▁count	-468
..	-469
▁make	-470
av	-471
ab	-472
ase	-473
ath	-474
ian	-475
▁fu	-476
▁med	-477
ater	-478
pport	-479
vern	-480
▁want	-481
son	-482
cess	-483
▁cre	-484
▁fin	-485
▁cl	-486
fore	-487
▁while	-488
▁bu	-489
▁Is	-490
▁before	-491
▁son	-492
▁And	-493
we	-494
▁act	-495
▁tri	-496
▁ch	-497
ap	-498
▁We	-499
▁report	-500
ng	-501
The	-502
▁need	-503
▁app	-504
▁gr	-505
▁form	-506
▁nation	-507
▁look	-508
▁ke	-509
▁down	-510
▁att	-511
de	-512
▁New	-513
▁every	-514
▁4	-515
▁high	-516
▁lead	-517
▁ant	-518
ise	-519
▁exp	-520
▁fam	-521
ince	-522
▁think	-523
ail	-524
▁br	-525
▁pri	-526
▁home	-527
▁public	-528
▁take	-529
▁im	-530
▁Ch	-531
os	-532
uch	-533
▁De	-534
▁min	-535
▁che	-536
▁ext	-537
▁well	-538
atch	-539
▁week	-540
pect	-541
▁ance	-542
▁too	-543
▁don	-544
lace	-545
▁ive	-546
▁ship	-547
▁Thi	-548
▁5	-549
▁inter	-550
▁Le	-551
oun	-552
▁know	-553
▁even	-554
▁She	-555
▁Un	-556
get	-557
▁Mr	-558
illion	-559
ason	-560
▁ap	-561
▁then	-562
uss	-563
▁jo	-564
▁hel	-565
▁call	-566
rough	-567
▁long	-568
pa	-569
▁govern	-570
▁sha	-571
▁ass	-572
▁war	-573
▁reg	-574
iden	-575
▁chan	-576
▁head	-577
▁told	-578
▁through	-579
▁win	-580
▁see	-581
▁start	-582
ans	-583
▁19	-584
▁cla	-585
if	-586
▁right	-587
▁rem	-588
▁game	-589
▁hose	-590
oth	-591
▁month	-592
▁three	-593
▁ec	-594
oc	-595
ffe	-596
llow	-597
▁line	-598
ugh	-599
▁An	-600
▁op	-601
▁going	-602
ale	-603
▁Se	-604
▁made	-605
▁201	-606
▁dur	-607
sh	-608
▁aw	-609
▁ig	-610
▁set	-611
ens	-612
ov	-613
itt	-614
▁ter	-615
▁support	-616
▁ear	-617
iew	-618
ouse	-619
▁ate	-620
▁help	-621
▁car	-622
▁own	-623
orn	-624
▁ty	-625
▁less	-626
▁famil	-627
cy	-628
▁Jo	-629
alk	-630
▁ret	-631
min	-632
▁ous	-633
ix	-634
▁cam	-635
▁fl	-636
ip	-637
▁ful	-638
▁team	-639
▁z	-640
▁Ro	-641
▁thou	-642
▁mem	-643
▁ph	-644
act	-645
▁iz	-646
▁around	-647
000	-648
▁life	-649
▁read	-650
▁$	-651
▁Mar	-652
▁Pre	-653
▁ist	-654
▁place	-655
vest	-656
sk	-657
iss	-658
▁plan	-659
ef	-660
▁child	-661
ram	-662
▁et	-663
ug	-664
▁wom	-665
▁ies	-666
ern	-667
az	-668
▁person	-669
▁£	-670
▁ry	-671
alth	-672
king	-673
ical	-674
ory	-675
ving	-676
red	-677
▁much	-678
▁vis	-679
▁sur	-680
ven	-681
ctor	-682
▁cro	-683
▁Isra	-684
▁change	-685
▁cour	-686
,000	-687
▁vot	-688
▁found	-689
ank	-690
▁rec	-691
▁still	-692
ac	-693
▁har	-694
▁since	-695
▁hould	-696
▁law	-697
▁rat	-698
ract	-699
▁good	-700
▁care	-701
ute	-702
▁may	-703
meric	-704
▁ia	-705
▁run	-706
iver	-707
ash	-708
▁Lo	-709
ner	-710
ious	-711
ital	-712
▁point	-713
ile	-714
old	-715
▁Be	-716
▁world	-717
▁give	-718
▁clo	-719
end	-720
▁6	-721
up	-722
▁national	-723
cond	-724
roup	-725
▁invest	-726
▁gen	-727
▁str	-728
▁contin	-729
ild	-730
▁uch	-731
▁Ind	-732
▁Americ	-733
▁Fr	-734
▁country	-735
▁2024	-736
▁four	-737
ular	-738
▁Har	-739
▁election	-740
▁cle	-741
eg	-742
ert	-743
ween	-744
▁ian	-745
▁ities	-746
▁mark	-747
▁happ	-748
▁los	-749
▁ations	-750
itic	-751
eral	-752
▁conf	-753
▁follow	-754
▁case	-755
orth	-756
▁cross	-757
ilit	-758
▁appe	-759
▁bl	-760
▁ur	-761
▁wr	-762
rest	-763
▁ve	-764
▁between	-765
▁feel	-766
▁exper	-767
▁came	-768
▁put	-769
▁ways	-770
▁Af	-771
We	-772
▁ind	-773
cho	-774
▁member	-775
ower	-776
▁gra	-777
ott	-778
ers	-779
▁Russ	-780
icial	-781
▁serv	-782
▁continu	-783
▁full	-784
▁try	-785
ace	-786
▁des	-787
▁cri	-788
▁family	-789
▁inte	-790
▁gu	-791
▁ann	-792
▁char	-793
▁hand	-794
▁self	-795
▁president	-796
▁7	-797
hing	-798
▁big	-799
▁Biden	-800
▁Ar	-801
ric	-802
ork	-803
▁Th	-804
▁second	-805
▁post	-806
▁iss	-807
▁politic	-808
ject	-809
▁bus	-810
▁live	-811
▁produ	-812
▁bel	-813
▁US	-814
outh	-815
▁season	-816
▁claim	-817
ote	-818
year	-819
▁open	-820
▁night	-821
▁ember	-822
▁group	-823
▁resp	-824
der	-825
▁Cha	-826
▁coll	-827
▁loc	-828
pl	-829
▁million	-830
▁fil	-831
▁left	-832
▁Al	-833
riend	-834
▁sy	-835
any	-836
▁use	-837
▁got	-838
sent	-839
▁cur	-840
▁love	-841
▁far	-842
▁pos	-843
ger	-844
▁leg	-845
▁Man	-846
▁ration	-847
▁attack	-848
▁top	-849
ont	-850
▁prot	-851
▁trans	-852
▁lin	-853
▁stud	-854
▁10	-855
▁ask	-856
▁best	-857
▁ments	-858
▁ence	-859
iz	-860
▁bre	-861
It	-862
vid	-863
▁led	-864
▁You	-865
sp	-866
▁rel	-867
▁expect	-868
▁both	-869
▁There	-870
▁share	-871
▁sm	-872
▁Sc	-873
rat	-874
chool	-875
▁il	-876
vi	-877
▁test	-878
▁That	-879
▁ton	-880
▁lot	-881
ience	-882
ret	-883
▁pay	-884
▁ame	-885
▁health	-886
▁How	-887
▁ong	-888
▁let	-889
ib	-890
▁Co	-891
▁office	-892
...	-893
▁ating	-894
cc	-895
▁President	-896
▁For	-897
▁num	-898
gan	-899
▁fore	-900
▁mean	-901
▁turn	-902
▁det	-903
▁dire	-904
▁official	-905
▁air	-906
▁near	-907
ang	-908
ution	-909
▁ward	-910
uro	-911
▁pass	-912
row	-913
▁men	-914
ather	-915
▁ative	-916
▁event	-917
uth	-918
io	-919
▁friend	-920
▁final	-921
▁So	-922
▁leader	-923
▁star	-924
▁never	-925
▁ready	-926
▁Sun	-927
▁conc	-928
other	-929
▁face	-930
▁On	-931
▁Z	-932
▁sen	-933
▁find	-934
▁days	-935
▁een	-936
▁dem	-937
▁cond	-938
▁accord	-939
▁Com	-940
▁stand	-941
ush	-942
▁ie	-943
▁id	-944
▁cons	-945
arch	-946
kra	-947
▁bod	-948
▁8	-949
paign	-950
▁low	-951
▁coming	-952
▁ions	-953
▁sign	-954
▁appear	-955
ied	-956
▁hen	-957
▁diffe	-958
▁At	-959
▁ste	-960
▁great	-961
▁commun	-962
▁da	-963
▁children	-964
ier	-965
▁met	-966
▁away	-967
▁here	-968
▁emp	-969
▁hold	-970
be	-971
▁Ukra	-972
▁mis	-973
▁belie	-974
arge	-975
ken	-976
▁house	-977
▁Con	-978
▁ball	-979
▁ness	-980
▁return	-981
ral	-982
▁ob	-983
▁media	-984
▁campaign	-985
▁police	-986
onom	-987
iness	-988
▁If	-989
▁UK	-990
▁later	-991
▁court	-992
▁power	-993
":	-994
▁number	-995
ague	-996
rop	-997
▁La	-998
▁though	-999
▁women	-1000
▁special	-1001
iday	-1002
▁close	-1003
rea	-1004
▁American	-1005
▁inv	-1006
ave	-1007
atter	-1008
ility	-1009
▁prom	-1010
▁provid	-1011
jor	-1012
ision	-1013
▁remain	-1014
▁Euro	-1015
▁dep	-1016
▁company	-1017
▁som	-1018
▁art	-1019
▁atte	-1020
eng	-1021
▁sk	-1022
ittle	-1023
▁State	-1024
▁fr	-1025
view	-1026
▁kill	-1027
ister	-1028
▁mar	-1029
▁rest	-1030
▁issue	-1031
ock	-1032
▁few	-1033
▁five	-1034
▁fan	-1035
▁won	-1036
▁party	-1037
▁clear	-1038
lain	-1039
▁happen	-1040
unch	-1041
ield	-1042
▁didn	-1043
▁ling	-1044
▁force	-1045
▁Min	-1046
▁sub	-1047
▁large	-1048
▁took	-1049
ty	-1050
▁mid	-1051
▁build	-1052
reen	-1053
▁school	-1054
▁ill	-1055
▁area	-1056
▁sure	-1057
▁real	-1058
▁east	-1059
▁Eng	-1060
ster	-1061
▁deal	-1062
▁ine	-1063
▁keep	-1064
▁ber	-1065
cing	-1066
▁X	-1067
▁Brit	-1068
▁int	-1069
▁sim	-1070
▁adv	-1071
ocrat	-1072
▁Te	-1073
▁ris	-1074
▁av	-1075
▁young	-1076
▁business	-1077
▁rs	-1078
velop	-1079
ething	-1080
),	-1081
▁move	-1082
▁Dem	-1083
lish	-1084
▁believ	-1085
oney	-1086
▁water	-1087
▁ign	-1088
▁cost	-1089
▁bro	-1090
▁hard	-1091
ten	-1092
▁something	-1093
▁fire	-1094
▁poss	-1095
▁record	-1096
oto	-1097
▁Unit	-1098
▁service	-1099
uc	-1100
▁ge	-1101
▁pop	-1102
ounce	-1103
▁Ma	-1104
▁def	-1105
▁quest	-1106
▁bra	-1107
▁hit	-1108
fect	-1109
▁Chin	-1110
▁mom	-1111
▁Hi	-1112
▁book	-1113
▁9	-1114
▁might	-1115
▁econom	-1116
▁ster	-1117
lack	-1118
▁body	-1119
▁free	-1120
▁allow	-1121
▁result	-1122
▁Mon	-1123
ient	-1124
att	-1125
▁Me	-1126
▁oper	-1127
▁light	-1128
▁six	-1129
▁major	-1130
ideo	-1131
atur	-1132
▁deb	-1133
▁talk	-1134
stem	-1135
▁film	-1136
uck	-1137
ption	-1138
▁To	-1139
▁social	-1140
▁den	-1141
▁grow	-1142
▁prog	-1143
ission	-1144
▁import	-1145
▁Don	-1146
▁na	-1147
ety	-1148
▁foot	-1149
▁milit	-1150
▁cra	-1151
▁port	-1152
▁ley	-1153
▁Car	-1154
▁mov	-1155
rive	-1156
▁bas	-1157
▁meet	-1158
▁creat	-1159
▁One	-1160
ury	-1161
▁position	-1162
ated	-1163
.'	-1164
gn	-1165
▁log	-1166
▁little	-1167
▁Mc	-1168
▁ism	-1169
▁past	-1170
ible	-1171
redit	-1172
▁requ	-1173
▁decision	-1174
▁different	-1175
olve	-1176
▁better	-1177
rap	-1178
▁market	-1179
▁partic	-1180
▁question	-1181
ama	-1182
urity	-1183
▁ecurity	-1184
▁local	-1185
▁making	-1186
▁til	-1187
▁each	-1188
▁hist	-1189
▁ou	-1190
▁bar	-1191
▁system	-1192
hn	-1193
▁Democrat	-1194
▁South	-1195
▁experience	-1196
ple	-1197
▁par	-1198
uthor	-1199
▁May	-1200
ruct	-1201
▁having	-1202
ik	-1203
mpt	-1204
gin	-1205
▁press	-1206
▁Wh	-1207
▁along	-1208
ari	-1209
▁develop	-1210
▁[	-1211
▁hum	-1212
ney	-1213
▁city	-1214
ning	-1215
icture	-1216
▁break	-1217
▁comment	-1218
duc	-1219
▁Ad	-1220
pend	-1221
▁cut	-1222
▁No	-1223
▁announce	-1224
▁12	-1225
▁Q	-1226
).	-1227
▁respon	-1228
ife	-1229
▁job	-1230
▁York	-1231
▁Chri	-1232
▁West	-1233
▁view	-1234
ran	-1235
▁moment	-1236
▁2022	-1237
ivers	-1238
▁vi	-1239
▁vict	-1240
▁perform	-1241
▁2023	-1242
ald	-1243
▁Harri	-1244
▁cou	-1245
fic	-1246
hic	-1247
▁cap	-1248
▁pur	-1249
▁money	-1250
veal	-1251
▁Nation	-1252
▁ated	-1253
▁price	-1254
▁ought	-1255
▁pot	-1256
▁ref	-1257
oy	-1258
▁pan	-1259
▁death	-1260
▁news	-1261
▁fur	-1262
▁half	-1263
loy	-1264
▁Jan	-1265
▁200	-1266
▁current	-1267
▁video	-1268
▁wrote	-1269
▁hour	-1270
▁eries	-1271
▁reveal	-1272
▁train	-1273
▁comple	-1274
▁list	-1275
▁old	-1276
▁Sha	-1277
▁red	-1278
▁ough	-1279
▁field	-1280
▁India	-1281
▁dra	-1282
▁alleg	-1283
ai	-1284
▁sec	-1285
▁hu	-1286
▁watch	-1287
ident	-1288
▁Europe	-1289
ala	-1290
▁John	-1291
▁main	-1292
▁ped	-1293
▁Credit	-1294
▁suc	-1295
▁room	-1296
▁fund	-1297
▁publican	-1298
▁visit	-1299
▁ised	-1300
▁interest	-1301
man	-1302
▁eff	-1303
gether	-1304
ton	-1305
enn	-1306
▁name	-1307
ah	-1308
ritic	-1309
gu	-1310
▁parent	-1311
▁Mini	-1312
▁appro	-1313
▁Whi	-1314
▁known	-1315
par	-1316
▁level	-1317
▁ability	-1318
sider	-1319
▁dist	-1320
▁militar	-1321
▁thought	-1322
▁tell	-1323
▁thir	-1324
▁match	-1325
▁Ukraine	-1326
▁seem	-1327
ceive	-1328
▁tech	-1329
rol	-1330
▁Pro	-1331
▁Am	-1332
▁Mo	-1333
▁ground	-1334
▁ably	-1335
▁ey	-1336
▁cand	-1337
▁val	-1338
ward	-1339
▁host	-1340
ond	-1341
itch	-1342
▁goal	-1343
▁spite	-1344
▁15	-1345
▁Tu	-1346
ific	-1347
cri	-1348
▁mus	-1349
▁ting	-1350
▁organ	-1351
▁short	-1352
▁inform	-1353
▁rate	-1354
▁elect	-1355
▁fall	-1356
▁Pol	-1357
rem	-1358
▁treat	-1359
▁dy	-1360
▁concern	-1361
▁together	-1362
▁ple	-1363
are	-1364
▁House	-1365
▁small	-1366
▁author	-1367
stit	-1368
▁News	-1369
the	-1370
▁sug	-1371
lleng	-1372
▁food	-1373
inian	-1374
▁taking	-1375
▁eas	-1376
reet	-1377
▁must	-1378
▁order	-1379
▁critic	-1380
▁ial	-1381
▁ries	-1382
uture	-1383
▁challeng	-1384
oke	-1385
▁often	-1386
▁Ke	-1387
▁reach	-1388
▁Gaz	-1389
▁tax	-1390
▁ham	-1391
erg	-1392
▁hope	-1393
▁After	-1394
▁tar	-1395
▁bit	-1396
ival	-1397
mit	-1398
▁consider	-1399
▁why	-1400
▁All	-1401
▁role	-1402
▁due	-1403
▁taken	-1404
▁City	-1405
▁coun	-1406
no	-1407
gle	-1408
▁Sp	-1409
lock	-1410
▁ran	-1411
▁minute	-1412
ull	-1413
cover	-1414
leb	-1415
ament	-1416
▁action	-1417
▁cor	-1418
▁Je	-1419
▁sex	-1420
ose	-1421
da	-1422
▁dat	-1423
▁key	-1424
▁receive	-1425
▁mod	-1426
▁success	-1427
▁ell	-1428
▁ite	-1429
ource	-1430
▁gett	-1431
▁viol	-1432
vent	-1433
▁ago	-1434
▁stri	-1435
▁inf	-1436
▁term	-1437
▁wide	-1438
oot	-1439
▁ru	-1440
mpion	-1441
▁defe	-1442
▁today	-1443
20	-1444
▁ors	-1445
ene	-1446
▁process	-1447
▁non	-1448
▁With	-1449
▁feat	-1450
▁ential	-1451
gest	-1452
▁cred	-1453
▁important	-1454
":"	-1455
▁What	-1456
▁Aust	-1457
▁future	-1458
▁fight	-1459
igr	-1460
▁ously	-1461
blem	-1462
▁Friday	-1463
▁strong	-1464
▁club	-1465
▁ut	-1466
▁Christ	-1467
cent	-1468
1,	-1469
iti	-1470
▁whet	-1471
▁Lond	-1472
▁relation	-1473
BC	-1474
irm	-1475
▁London	-1476
arn	-1477
▁dr	-1478
▁cit	-1479
▁pat	-1480
▁cy	-1481
▁sw	-1482
ffect	-1483
1.	-1484
▁ben	-1485
▁Ste	-1486
▁walk	-1487
▁agree	-1488
ream	-1489
▁Mic	-1490
▁human	-1491
ec	-1492
▁fully	-1493
▁mother	-1494
oice	-1495
cus	-1496
aff	-1497
▁ins	-1498
omin	-1499
eli	-1500
vers	-1501
▁risk	-1502
▁stead	-1503
esday	-1504
▁launch	-1505
tt	-1506
▁migr	-1507
orld	-1508
▁ide	-1509
▁um	-1510
icket	-1511
▁Tuesday	-1512
▁student	-1513
▁done	-1514
▁hind	-1515
▁protect	-1516
imat	-1517
-1	-1518
▁Pa	-1519
irl	-1520
▁18	-1521
▁problem	-1522
▁30	-1523
▁Ju	-1524
▁equ	-1525
▁woman	-1526
▁suggest	-1527
▁late	-1528
▁further	-1529
▁Oct	-1530
▁arm	-1531
▁gan	-1532
ok	-1533
▁fail	-1534
▁region	-1535
nes	-1536
▁ese	-1537
▁kind	-1538
▁Lab	-1539
▁once	-1540
▁cert	-1541
▁ther	-1542
▁ature	-1543
▁sol	-1544
▁speak	-1545
▁sus	-1546
▁ping	-1547
lect	-1548
▁writ	-1549
▁account	-1550
▁sl	-1551
rence	-1552
▁North	-1553
▁front	-1554
▁score	-1555
elt	-1556
▁qual	-1557
▁focus	-1558
▁China	-1559
▁ier	-1560
▁Jun	-1561
▁Pri	-1562
▁depend	-1563
urs	-1564
bit	-1565
▁Ap	-1566
oint	-1567
50	-1568
▁ban	-1569
▁warn	-1570
▁travel	-1571
igh	-1572
▁Nov	-1573
▁Donald	-1574
▁effect	-1575
▁Go	-1576
unt	-1577
▁Ge	-1578
▁cover	-1579
▁ington	-1580
▁phone	-1581
▁stay	-1582
resent	-1583
etty	-1584
ednes	-1585
▁Will	-1586
ednesda	-1587
,""	-1588
▁ident	-1589
▁sum	-1590
▁ul	-1591
▁Wednesda	-1592
▁National	-1593
bal	-1594
▁dou	-1595
▁story	-1596
▁target	-1597
▁join	-1598
▁strike	-1599
▁Israeli	-1600
▁Gu	-1601
▁Cal	-1602
lement	-1603
ursday	-1604
▁couple	-1605
▁building	-1606
nal	-1607
▁heart	-1608
▁design	-1609
air	-1610
▁Ab	-1611
▁charge	-1612
▁Thursday	-1613
▁Chi	-1614
fess	-1615
▁wards	-1616
▁celeb	-1617
tain	-1618
▁prop	-1619
xt	-1620
▁accus	-1621
▁effort	-1622
▁net	-1623
sis	-1624
ative	-1625
order	-1626
▁exc	-1627
▁Bo	-1628
▁supp	-1629
cept	-1630
▁deli	-1631
▁creas	-1632
▁shot	-1633
▁space	-1634
▁candid	-1635
▁reason	-1636
▁World	-1637
▁partner	-1638
▁possible	-1639
ball	-1640
org	-1641
▁career	-1642
▁yet	-1643
▁ified	-1644
▁fun	-1645
▁program	-1646
▁condition	-1647
▁Ra	-1648
▁saw	-1649
▁Sh	-1650
iate	-1651
▁hot	-1652
▁Su	-1653
▁Pr	-1654
▁Poli	-1655
▁eight	-1656
▁Ger	-1657
stand	-1658
▁Br	-1659
▁eng	-1660
▁control	-1661
▁data	-1662
ificant	-1663
▁employ	-1664
▁ignificant	-1665
▁colle	-1666
▁minister	-1667
ake	-1668
▁product	-1669
▁amp	-1670
▁course	-1671
▁Dav	-1672
▁board	-1673
▁Can	-1674
▁arrest	-1675
ilt	-1676
▁sport	-1677
▁lier	-1678
▁deep	-1679
▁ising	-1680
ederal	-1681
▁deliver	-1682
▁cult	-1683
land	-1684
▁priv	-1685
▁occ	-1686
▁class	-1687
minist	-1688
▁ir	-1689
▁history	-1690
▁bri	-1691
▁race	-1692
rov	-1693
▁leave	-1694
▁particular	-1695
▁Im	-1696
ator	-1697
▁fact	-1698
▁ized	-1699
▁glo	-1700
▁enter	-1701
▁proper	-1702
ourt	-1703
▁ates	-1704
ughter	-1705
ze	-1706
▁ari	-1707
▁poll	-1708
udge	-1709
▁access	-1710
ensive	-1711
ich	-1712
▁mess	-1713
▁rese	-1714
▁aff	-1715
▁ure	-1716
▁interview	-1717
aturday	-1718
▁tic	-1719
▁hosp	-1720
▁complete	-1721
▁percent	-1722
▁Che	-1723
▁activ	-1724
▁legal	-1725
▁feature	-1726
og	-1727
▁Ph	-1728
▁ri	-1729
▁involve	-1730
▁lim	-1731
dle	-1732
▁confirm	-1733
▁hospital	-1734
▁col	-1735
▁photo	-1736
▁project	-1737
▁Cl	-1738
▁impact	-1739
erve	-1740
▁attempt	-1741
▁information	-1742
to	-1743
▁billion	-1744
cum	-1745
▁kid	-1746
▁Her	-1747
▁require	-1748
▁Saturday	-1749
▁buy	-1750
▁fav	-1751
▁pet	-1752
▁jour	-1753
ma	-1754
ike	-1755
▁explain	-1756
▁stop	-1757
▁present	-1758
ralia	-1759
▁suit	-1760
▁decid	-1761
▁Bar	-1762
▁vice	-1763
cil	-1764
▁11	-1765
▁pick	-1766
▁Ex	-1767
▁vision	-1768
▁step	-1769
arter	-1770
0.	-1771
▁Some	-1772
▁tour	-1773
▁direct	-1774
▁ble	-1775
▁hear	-1776
▁staff	-1777
ateg	-1778
ior	-1779
▁AI	-1780
▁Univers	-1781
▁held	-1782
▁Court	-1783
▁16	-1784
▁ator	-1785
▁drop	-1786
▁seven	-1787
cast	-1788
▁ties	-1789
yal	-1790
▁Australia	-1791
▁park	-1792
▁town	-1793
▁summer	-1794
▁improv	-1795
▁13	-1796
com	-1797
▁quick	-1798
▁understand	-1799
▁Black	-1800
▁protest	-1801
▁14	-1802
ustom	-1803
erge	-1804
▁felt	-1805
▁nce	-1806
▁Just	-1807
ancial	-1808
sy	-1809
▁Comm	-1810
▁personal	-1811
▁trad	-1812
▁word	-1813
ging	-1814
▁certain	-1815
▁Octo	-1816
▁Pal	-1817
▁gener	-1818
▁actual	-1819
▁eye	-1820
▁Scot	-1821
▁League	-1822
▁opport	-1823
▁Po	-1824
▁forward	-1825
▁Sen	-1826
▁rule	-1827
▁decade	-1828
▁ice	-1829
▁indust	-1830
▁girl	-1831
▁crease	-1832
▁trial	-1833
▁father	-1834
ased	-1835
icy	-1836
▁British	-1837
▁coach	-1838
▁energ	-1839
▁dam	-1840
▁suff	-1841
▁stage	-1842
▁inciden	-1843
▁Afric	-1844
▁lines	-1845
▁manage	-1846
itle	-1847
▁ish	-1848
▁general	-1849
▁policy	-1850
▁bed	-1851
▁learn	-1852
▁mission	-1853
▁bir	-1854
▁wait	-1855
▁initi	-1856
▁research	-1857
▁Fe	-1858
▁TV	-1859
▁Net	-1860
ense	-1861
▁commit	-1862
Thi	-1863
▁Jam	-1864
▁ise	-1865
▁avail	-1866
▁Spa	-1867
orning	-1868
amp	-1869
▁Janu	-1870
▁Apr	-1871
▁fast	-1872
▁argu	-1873
▁Sw	-1874
ency	-1875
▁rele	-1876
▁wind	-1877
▁Sept	-1878
▁March	-1879
▁boy	-1880
▁king	-1881
,'	-1882
▁pain	-1883
▁erious	-1884
▁ists	-1885
▁music	-1886
igure	-1887
▁const	-1888
▁operation	-1889
▁benef	-1890
▁igation	-1891
otion	-1892
He	-1893
▁matter	-1894
oma	-1895
dd	-1896
▁fra	-1897
▁mult	-1898
▁administ	-1899
▁itu	-1900
▁Cent	-1901
▁Or	-1902
▁ib	-1903
ony	-1904
▁finish	-1905
lay	-1906
▁seat	-1907
▁Tw	-1908
▁...	-1909
▁ize	-1910
▁director	-1911
▁represent	-1912
▁mass	-1913
▁German	-1914
▁199	-1915
▁Off	-1916
ager	-1917
▁Georg	-1918
▁bank	-1919
▁bill	-1920
▁vill	-1921
tal	-1922
▁50	-1923
▁Aug	-1924
▁limit	-1925
▁worth	-1926
▁daughter	-1927
▁x	-1928
▁round	-1929
▁Fo	-1930
rict	-1931
gel	-1932
▁custom	-1933
▁simpl	-1934
▁prob	-1935
▁quarter	-1936
▁les	-1937
cuss	-1938
▁dri	-1939
▁os	-1940
▁Acc	-1941
▁wife	-1942
▁Labour	-1943
ror	-1944
▁My	-1945
ary	-1946
▁produc	-1947
▁ample	-1948
▁wood	-1949
lve	-1950
▁total	-1951
serv	-1952
▁bur	-1953
▁push	-1954
▁released	-1955
▁wear	-1956
▁she	-1957
▁Indian	-1958
▁$1	-1959
▁attend	-1960
▁Bra	-1961
self	-1962
▁exec	-1963
▁running	-1964
▁trug	-1965
▁Scott	-1966
pri	-1967
▁anti	-1968
▁financial	-1969
▁Part	-1970
9,	-1971
que	-1972
▁Wash	-1973
▁demand	-1974
har	-1975
▁ina	-1976
▁beat	-1977
▁border	-1978
▁ring	-1979
▁sale	-1980
▁conne	-1981
▁figure	-1982
ough	-1983
▁Mus	-1984
ivil	-1985
▁bad	-1986
ilar	-1987
ension	-1988
▁gun	-1989
▁Char	-1990
▁explo	-1991
▁football	-1992
▁ven	-1993
hen	-1994
▁Per	-1995
aut	-1996
cer	-1997
▁fre	-1998
▁hor	-1999
30	-2000
▁chief	-2001
rew	-2002
▁ees	-2003
▁claimed	-2004
cut	-2005
joy	-2006
▁ett	-2007
ficult	-2008
▁broad	-2009
▁lease	-2010
▁ifficult	-2011
▁que	-2012
▁17	-2013
▁ible	-2014
▁ori	-2015
▁America	-2016
▁himself	-2017
rug	-2018
▁anger	-2019
▁cr	-2020
ention	-2021
▁address	-2022
▁Pe	-2023
▁War	-2024
▁peri	-2025
▁owner	-2026
▁global	-2027
▁living	-2028
▁dog	-2029
▁respond	-2030
▁iv	-2031
ude	-2032
grap	-2033
lymp	-2034
▁vious	-2035
▁gi	-2036
▁£1	-2037
▁source	-2038
au	-2039
ional	-2040
enal	-2041
▁Dan	-2042
light	-2043
▁Dec	-2044
▁afety	-2045
now	-2046
▁Olymp	-2047
din	-2048
▁Joe	-2049
▁unity	-2050
▁ingly	-2051
▁table	-2052
▁track	-2053
▁mediate	-2054
▁pressur	-2055
▁ten	-2056
▁soon	-2057
▁scene	-2058
▁emerge	-2059
▁profess	-2060
▁25	-2061
▁Iran	-2062
▁ituation	-2063
ass	-2064
▁detail	-2065
▁road	-2066
▁reduc	-2067
▁search	-2068
pped	-2069
ara	-2070
▁benefit	-2071
▁Dr	-2072
▁conv	-2073
minal	-2074
▁brand	-2075
bin	-2076
▁Cong	-2077
▁inst	-2078
▁vers	-2079
▁approach	-2080
▁vol	-2081
▁super	-2082
▁Col	-2083
▁enjoy	-2084
▁federal	-2085
▁economic	-2086
▁card	-2087
▁Count	-2088
▁response	-2089
wer	-2090
ication	-2091
▁Inst	-2092
▁safe	-2093
▁panies	-2094
for	-2095
▁emb	-2096
▁mak	-2097
▁period	-2098
lves	-2099
▁suffer	-2100
▁value	-2101
?"	-2102
rupt	-2103
verage	-2104
▁spect	-2105
▁selves	-2106
okes	-2107
read	-2108
▁spokes	-2109
yle	-2110
▁Star	-2111
▁Spe	-2112
▁Image	-2113
secut	-2114
▁White	-2115
▁du	-2116
▁conte	-2117
▁expert	-2118
▁Sy	-2119
graph	-2120
▁box	-2121
iam	-2122
▁Sm	-2123
itted	-2124
▁leading	-2125
lor	-2126
▁100	-2127
▁option	-2128
▁Congress	-2129
▁dead	-2130
▁shop	-2131
asure	-2132
▁industry	-2133
▁nam	-2134
fer	-2135
▁Calif	-2136
▁stat	-2137
▁mur	-2138
▁mind	-2139
racter	-2140
▁privat	-2141
▁addition	-2142
▁cast	-2143
▁huge	-2144
▁store	-2145
hie	-2146
▁Now	-2147
▁clos	-2148
▁Hama	-2149
▁Time	-2150
▁victor	-2151
▁similar	-2152
agram	-2153
▁spot	-2154
▁Inter	-2155
▁August	-2156
▁prison	-2157
▁24	-2158
idence	-2159
ivid	-2160
▁opp	-2161
▁jury	-2162
▁Accord	-2163
▁compar	-2164
▁victim	-2165
▁ts	-2166
▁capt	-2167
▁whole	-2168
▁serve	-2169
▁popular	-2170
▁Em	-2171
▁trib	-2172
▁check	-2173
9.	-2174
▁sold	-2175
▁plann	-2176
stic	-2177
▁Air	-2178
▁via	-2179
▁nothing	-2180
▁quite	-2181
▁plat	-2182
▁assist	-2183
▁morning	-2184
fit	-2185
▁model	-2186
vir	-2187
▁pract	-2188
▁utive	-2189
▁Olympic	-2190
▁resident	-2191
ciate	-2192
▁character	-2193
oid	-2194
▁deter	-2195
▁defend	-2196
irst	-2197
▁rath	-2198
cument	-2199
▁document	-2200
▁East	-2201
▁shoot	-2202
▁title	-2203
▁Day	-2204
▁ger	-2205
▁picture	-2206
▁Tra	-2207
lip	-2208
▁Dep	-2209
▁prepar	-2210
▁Instagram	-2211
▁hy	-2212
▁Gar	-2213
ornia	-2214
▁crime	-2215
artment	-2216
▁respons	-2217
very	-2218
▁batt	-2219
▁firm	-2220
▁mile	-2221
0,	-2222
uff	-2223
▁gold	-2224
▁manager	-2225
▁Red	-2226
▁ants	-2227
▁earn	-2228
▁secret	-2229
▁California	-2230
▁drug	-2231
▁Gra	-2232
▁ler	-2233
▁&	-2234
▁San	-2235
▁mat	-2236
bor	-2237
▁dom	-2238
▁aut	-2239
▁fla	-2240
ividual	-2241
▁struct	-2242
dge	-2243
estinian	-2244
band	-2245
idge	-2246
▁fer	-2247
▁Images	-2248
▁civil	-2249
▁white	-2250
▁surpri	-2251
▁platform	-2252
viron	-2253
vironment	-2254
▁accept	-2255
era	-2256
rage	-2257
imate	-2258
▁propos	-2259
You	-2260
▁olo	-2261
▁evidence	-2262
bed	-2263
▁Ass	-2264
▁previ	-2265
▁champion	-2266
▁development	-2267
ga	-2268
▁door	-2269
▁hol	-2270
▁rates	-2271
rench	-2272
▁Department	-2273
usband	-2274
5.	-2275
▁BBC	-2276
▁descri	-2277
▁Ha	-2278
▁Not	-2279
tle	-2280
iece	-2281
▁review	-2282
▁heav	-2283
▁usual	-2284
▁aud	-2285
▁pent	-2286
▁urge	-2287
▁drive	-2288
▁phy	-2289
▁marri	-2290
uct	-2291
ference	-2292
▁France	-2293
▁Park	-2294
▁base	-2295
▁individual	-2296
und	-2297
▁El	-2298
▁ford	-2299
▁judge	-2300
▁responsib	-2301
▁inn	-2302
▁oil	-2303
▁vir	-2304
▁caus	-2305
▁Hol	-2306
▁publish	-2307
▁criminal	-2308
8,	-2309
▁fear	-2310
▁wrong	-2311
▁workers	-2312
▁Phi	-2313
▁uring	-2314
'.	-2315
rib	-2316
▁Do	-2317
▁gave	-2318
▁gue	-2319
▁Ho	-2320
▁Cup	-2321
▁heat	-2322
▁Govern	-2323
▁ave	-2324
▁enc	-2325
ane	-2326
hicle	-2327
▁sense	-2328
2,	-2329
lad	-2330
ness	-2331
▁fair	-2332
▁hreat	-2333
▁venue	-2334
cel	-2335
▁dest	-2336
▁vari	-2337
▁bi	-2338
▁Med	-2339
▁ious	-2340
▁camp	-2341
▁pair	-2342
▁aging	-2343
▁affect	-2344
▁William	-2345
2.	-2346
▁Getty	-2347
▁amount	-2348
▁murder	-2349
▁neg	-2350
▁actor	-2351
▁capital	-2352
anc	-2353
▁range	-2354
▁average	-2355
▁aim	-2356
▁image	-2357
ph	-2358
lex	-2359
▁David	-2360
▁depart	-2361
ech	-2362
▁ify	-2363
▁heard	-2364
▁remov	-2365
▁centre	-2366
▁beaut	-2367
▁wo	-2368
▁rise	-2369
umb	-2370
▁husband	-2371
▁40	-2372
time	-2373
There	-2374
▁Pari	-2375
▁express	-2376
hed	-2377
▁prior	-2378
▁dependent	-2379
play	-2380
▁ner	-2381
▁wee	-2382
udget	-2383
▁debate	-2384
▁origin	-2385
lam	-2386
▁temp	-2387
ca	-2388
▁wel	-2389
▁hop	-2390
▁extra	-2391
▁foreign	-2392
▁ba	-2393
▁Gen	-2394
▁dia	-2395
▁pack	-2396
ring	-2397
▁aid	-2398
▁Angel	-2399
▁touch	-2400
▁pool	-2401
▁Bl	-2402
▁growth	-2403
▁flight	-2404
▁ium	-2405
▁nomin	-2406
▁entire	-2407
ged	-2408
▁tro	-2409
▁patient	-2410
▁Prince	-2411
▁vehicle	-2412
▁More	-2413
liament	-2414
lli	-2415
▁sea	-2416
▁rated	-2417
ban	-2418
▁lock	-2419
▁block	-2420
mier	-2421
▁French	-2422
oric	-2423
▁link	-2424
stitut	-2425
▁kids	-2426
5,	-2427
▁By	-2428
spir	-2429
▁easy	-2430
▁piece	-2431
▁Dis	-2432
▁ada	-2433
▁exist	-2434
▁speci	-2435
▁petition	-2436
▁Palestinian	-2437
bru	-2438
▁counter	-2439
▁clean	-2440
▁prevent	-2441
rowd	-2442
asion	-2443
▁gone	-2444
kend	-2445
▁works	-2446
iving	-2447
▁black	-2448
▁thank	-2449
▁discuss	-2450
lass	-2451
ousand	-2452
▁measure	-2453
▁damage	-2454
▁weekend	-2455
▁hood	-2456
▁sexual	-2457
▁pend	-2458
▁ak	-2459
cle	-2460
▁Cor	-2461
▁sent	-2462
▁cru	-2463
▁logy	-2464
▁ians	-2465
▁river	-2466
▁strateg	-2467
▁Febru	-2468
▁paper	-2469
▁sound	-2470
▁cancer	-2471
▁paid	-2472
▁fence	-2473
▁thousand	-2474
▁street	-2475
▁structure	-2476
mas	-2477
▁Bri	-2478
▁Pat	-2479
▁senior	-2480
▁Lu	-2481
eria	-2482
▁Del	-2483
▁fac	-2484
▁pending	-2485
▁station	-2486
▁described	-2487
▁ti	-2488
▁educ	-2489
▁eith	-2490
▁rout	-2491
▁Office	-2492
ally	-2493
▁Sam	-2494
▁phys	-2495
7,	-2496
utin	-2497
▁lack	-2498
6,	-2499
▁mot	-2500
▁study	-2501
▁speech	-2502
▁Fin	-2503
▁birth	-2504
▁terri	-2505
**	-2506
▁grand	-2507
ess	-2508
▁medical	-2509
▁sle	-2510
▁trust	-2511
xic	-2512
▁environment	-2513
▁Pet	-2514
▁weight	-2515
▁conduct	-2516
▁families	-2517
ham	-2518
▁Met	-2519
▁En	-2520
▁rul	-2521
▁rock	-2522
▁arrive	-2523
▁App	-2524
▁Dur	-2525
▁ease	-2526
▁avoid	-2527
▁extrem	-2528
do	-2529
ipl	-2530
▁rad	-2531
▁acy	-2532
▁repe	-2533
▁roll	-2534
▁mer	-2535
▁achie	-2536
fort	-2537
▁Tor	-2538
▁flation	-2539
ential	-2540
▁neigh	-2541
swer	-2542
▁movie	-2543
ove	-2544
omb	-2545
▁cat	-2546
Picture	-2547
▁Christmas	-2548
▁ted	-2549
▁nine	-2550
▁dress	-2551
▁ships	-2552
bas	-2553
▁driv	-2554
isl	-2555
▁der	-2556
aly	-2557
▁Di	-2558
▁cir	-2559
-2	-2560
itor	-2561
▁Brita	-2562
▁fit	-2563
round	-2564
▁Mark	-2565
▁tre	-2566
orney	-2567
▁leav	-2568
▁migrant	-2569
▁crowd	-2570
owl	-2571
▁bal	-2572
▁Prime	-2573
▁giving	-2574
▁screen	-2575
▁promise	-2576
▁Op	-2577
▁Jon	-2578
▁tun	-2579
▁prim	-2580
▁complain	-2581
3.	-2582
con	-2583
▁Sch	-2584
▁farm	-2585
▁Party	-2586
atural	-2587
▁climat	-2588
emic	-2589
▁Jack	-2590
▁song	-2591
▁intro	-2592
▁style	-2593
ray	-2594
▁web	-2595
▁excit	-2596
▁favour	-2597
uk	-2598
▁Africa	-2599
▁answer	-2600
na	-2601
▁stra	-2602
▁choice	-2603
▁tribute	-2604
bert	-2605
▁198	-2606
▁Sim	-2607
▁shock	-2608
▁quality	-2609
ste	-2610
▁consum	-2611
of	-2612
▁perfect	-2613
apon	-2614
work	-2615
▁Mor	-2616
▁flo	-2617
▁han	-2618
▁west	-2619
▁abs	-2620
▁appeal	-2621
▁rating	-2622
▁holiday	-2623
hael	-2624
▁jur	-2625
▁lit	-2626
▁chair	-2627
▁peace	-2628
▁boo	-2629
▁hur	-2630
▁tradition	-2631
dict	-2632
▁Ben	-2633
reg	-2634
▁Sin	-2635
▁ess	-2636
▁olog	-2637
ablish	-2638
▁rival	-2639
▁credit	-2640
▁comfort	-2641
▁Ukrainian	-2642
▁lay	-2643
▁drink	-2644
▁popul	-2645
▁truggle	-2646
ault	-2647
▁chester	-2648
▁Game	-2649
▁Photo	-2650
▁regular	-2651
▁teen	-2652
▁winn	-2653
▁agency	-2654
▁draw	-2655
▁pull	-2656
▁lation	-2657
▁conflic	-2658
▁ney	-2659
▁pla	-2660
▁Last	-2661
▁wall	-2662
▁Rep	-2663
▁multipl	-2664
▁contract	-2665
If	-2666
▁Paul	-2667
▁skin	-2668
ali	-2669
▁stor	-2670
▁named	-2671
▁voice	-2672
▁Wal	-2673
▁double	-2674
▁practic	-2675
▁Of	-2676
▁ee	-2677
▁Mad	-2678
aur	-2679
▁Flor	-2680
▁crisis	-2681
▁regul	-2682
aby	-2683
▁Par	-2684
▁ticket	-2685
ling	-2686
▁carri	-2687
▁fort	-2688
ociate	-2689
▁progress	-2690
▁solution	-2691
▁rain	-2692
bel	-2693
▁trip	-2694
▁weapon	-2695
▁ա	-2696
▁gain	-2697
▁engage	-2698
▁fill	-2699
▁carry	-2700
▁loved	-2701
▁spread	-2702
▁techno	-2703
ily	-2704
▁slow	-2705
ung	-2706
racy	-2707
▁band	-2708
▁ances	-2709
app	-2710
▁Bro	-2711
▁culture	-2712
▁ned	-2713
▁site	-2714
▁doctor	-2715
▁stock	-2716
▁compet	-2717
▁journal	-2718
▁aware	-2719
▁discover	-2720
8.	-2721
ormal	-2722
▁hair	-2723
▁award	-2724
▁Mean	-2725
igital	-2726
▁hap	-2727
▁Serv	-2728
▁blood	-2729
▁plant	-2730
ho	-2731
▁Ric	-2732
▁mental	-2733
▁type	-2734
▁recover	-2735
7.	-2736
here	-2737
▁bag	-2738
ating	-2739
▁path	-2740
▁facilit	-2741
</	-2742
iet	-2743
▁1.	-2744
▁Cam	-2745
3,	-2746
pm	-2747
▁Que	-2748
▁Green	-2749
▁Smith	-2750
▁estimat	-2751
▁NA	-2752
▁determin	-2753
▁original	-2754
▁appearance	-2755
ask	-2756
▁ren	-2757
▁pres	-2758
▁repeat	-2759
▁Michael	-2760
▁contact	-2761
go	-2762
▁poor	-2763
▁Sa	-2764
▁ught	-2765
▁content	-2766
▁replace	-2767
▁production	-2768
ky	-2769
van	-2770
▁Sec	-2771
▁sleep	-2772
▁common	-2773
▁Mac	-2774
▁Tom	-2775
▁ality	-2776
▁green	-2777
egal	-2778
▁anim	-2779
▁scar	-2780
▁truck	-2781
▁necess	-2782
bb	-2783
▁battle	-2784
olut	-2785
▁posit	-2786
▁respect	-2787
▁migration	-2788
6.	-2789
▁Ed	-2790
.,	-2791
In	-2792
▁21	-2793
ceed	-2794
▁ily	-2795
▁sell	-2796
luence	-2797
▁standing	-2798
!"	-2799
▁vac	-2800
▁suspect	-2801
▁establish	-2802
lim	-2803
▁Tex	-2804
▁Street	-2805
▁Champion	-2806
▁ep	-2807
izen	-2808
site	-2809
▁kick	-2810
yer	-2811
▁reme	-2812
apan	-2813
▁memor	-2814
▁ordin	-2815
▁wonder	-2816
hase	-2817
mend	-2818
hedul	-2819
▁Coun	-2820
▁secure	-2821
▁surprise	-2822
4,	-2823
▁tal	-2824
▁Coll	-2825
igeria	-2826
▁gin	-2827
▁ming	-2828
▁poke	-2829
▁soft	-2830
▁brother	-2831
▁maintain	-2832
orea	-2833
▁ncy	-2834
▁letter	-2835
▁Scottish	-2836
▁attention	-2837
▁bott	-2838
ee	-2839
cies	-2840
▁sort	-2841
▁pitch	-2842
▁schedul	-2843
▁Wo	-2844
▁Even	-2845
ode	-2846
▁adm	-2847
▁2024.	-2848
▁legisl	-2849
▁Nigeria	-2850
▁sentence	-2851
4.	-2852
▁High	-2853
▁decla	-2854
▁effective	-2855
▁Korea	-2856
▁settle	-2857
▁payment	-2858
tend	-2859
▁swe	-2860
▁dram	-2861
▁particip	-2862
▁Mur	-2863
▁emotion	-2864
▁natural	-2865
ka	-2866
ape	-2867
▁Chief	-2868
▁winner	-2869
▁professional	-2870
▁Mos	-2871
▁warm	-2872
▁hotel	-2873
▁league	-2874
cu	-2875
parat	-2876
▁issu	-2877
▁reflect	-2878
▁standard	-2879
▁Arm	-2880
ndred	-2881
▁Japan	-2882
▁craft	-2883
▁hundred	-2884
▁budget	-2885
reng	-2886
▁ult	-2887
▁fell	-2888
▁encou	-2889
▁factor	-2890
▁stream	-2891
ize	-2892
▁rid	-2893
▁ves	-2894
▁true	-2895
rength	-2896
▁collect	-2897
▁trength	-2898
▁2.	-2899
▁sil	-2900
itive	-2901
▁artist	-2902
▁request	-2903
▁ny	-2904
▁north	-2905
▁education	-2906
▁Mid	-2907
▁sector	-2908
▁separat	-2909
▁ification	-2910
▁influence	-2911
alse	-2912
▁gas	-2913
▁built	-2914
▁rough	-2915
▁regard	-2916
▁throw	-2917
▁Kam	-2918
▁justice	-2919
▁above	-2920
▁cho	-2921
yn	-2922
ruit	-2923
▁begin	-2924
▁pleas	-2925
▁shire	-2926
▁convers	-2927
▁defeat	-2928
▁website	-2929
▁conference	-2930
gress	-2931
▁partie	-2932
hel	-2933
▁retire	-2934
▁sports	-2935
▁(1	-2936
▁camera	-2937
But	-2938
ashi	-2939
▁Port	-2940
▁ency	-2941
▁central	-2942
ustain	-2943
▁People	-2944
▁gri	-2945
▁beha	-2946
▁electric	-2947
lan	-2948
▁1,	-2949
▁nar	-2950
▁physical	-2951
▁Alex	-2952
▁Service	-2953
▁lied	-2954
▁dream	-2955
▁sight	-2956
▁ct	-2957
▁ov	-2958
▁cal	-2959
▁convict	-2960
-0	-2961
▁MP	-2962
▁cas	-2963
▁2024,	-2964
▁Secret	-2965
▁weather	-2966
cogn	-2967
vert	-2968
arden	-2969
▁Mart	-2970
▁contain	-2971
ift	-2972
▁ka	-2973
▁Mer	-2974
▁abuse	-2975
▁lawyer	-2976
nda	-2977
▁defin	-2978
▁afford	-2979
▁Bank	-2980
▁tele	-2981
aurant	-2982
ida	-2983
▁oci	-2984
▁prime	-2985
▁fix	-2986
▁fest	-2987
▁charged	-2988
ify	-2989
oul	-2990
▁Over	-2991
▁location	-2992
pro	-2993
▁ibility	-2994
mon	-2995
▁ub	-2996
▁prett	-2997
▁stone	-2998
▁univers	-2999
▁Act	-3000
▁Robert	-3001
▁active	-3002
▁specific	-3003
▁Tay	-3004
▁First	-3005
▁bling	-3006
▁makers	-3007
▁Premier	-3008
▁introduc	-3009
▁EU	-3010
come	-3011
▁Tik	-3012
▁197	-3013
mi	-3014
▁2020	-3015
▁Speak	-3016
▁van	-3017
▁wit	-3018
▁deni	-3019
▁alter	-3020
▁profit	-3021
▁council	-3022
Tok	-3023
▁tory	-3024
ful	-3025
force	-3026
▁miss	-3027
▁normal	-3028
▁recogn	-3029
▁kept	-3030
▁south	-3031
▁highlight	-3032
bt	-3033
▁shift	-3034
▁tough	-3035
▁illegal	-3036
▁scri	-3037
▁Bill	-3038
▁alone	-3039
▁generation	-3040
▁enger	-3041
▁closed	-3042
▁indic	-3043
▁trade	-3044
▁hou	-3045
reaten	-3046
▁Council	-3047
oos	-3048
▁2022,	-3049
▁Putin	-3050
▁exact	-3051
▁essential	-3052
▁cry	-3053
▁Ali	-3054
▁poli	-3055
▁famous	-3056
▁citizen	-3057
stitution	-3058
ex	-3059
▁Fox	-3060
▁tion	-3061
▁guard	-3062
▁assault	-3063
viv	-3064
▁Ky	-3065
▁From	-3066
▁burn	-3067
bour	-3068
▁baby	-3069
▁Andre	-3070
▁TikTok	-3071
▁Florida	-3072
60	-3073
▁Two	-3074
▁mix	-3075
▁fuel	-3076
▁historic	-3077
su	-3078
able	-3079
▁bor	-3080
▁hon	-3081
▁rich	-3082
ago	-3083
▁Nor	-3084
▁Chan	-3085
▁yard	-3086
▁priorit	-3087
▁IT	-3088
▁annual	-3089
▁connect	-3090
▁Mod	-3091
▁obvi	-3092
▁intell	-3093
▁version	-3094
▁22	-3095
llar	-3096
▁mate	-3097
▁demon	-3098
▁iving	-3099
▁impress	-3100
▁sustain	-3101
ba	-3102
vey	-3103
gree	-3104
jure	-3105
▁terror	-3106
▁appoint	-3107
▁district	-3108
▁Guard	-3109
▁statu	-3110
▁scored	-3111
pre	-3112
▁sav	-3113
▁wed	-3114
▁cies	-3115
▁quad	-3116
▁spend	-3117
urch	-3118
▁flu	-3119
▁opt	-3120
▁Sup	-3121
▁ath	-3122
▁cash	-3123
▁wild	-3124
▁storm	-3125
▁mount	-3126
▁injure	-3127
▁Gl	-3128
rish	-3129
▁Far	-3130
▁eth	-3131
ona	-3132
syl	-3133
▁sey	-3134
▁Every	-3135
▁restaurant	-3136
99	-3137
That	-3138
usion	-3139
▁fortun	-3140
▁remark	-3141
▁network	-3142
▁JP	-3143
arth	-3144
▁apart	-3145
▁lined	-3146
▁inspir	-3147
▁fine	-3148
▁Sport	-3149
quir	-3150
▁cus	-3151
▁Li	-3152
▁Open	-3153
▁boss	-3154
▁UN	-3155
isode	-3156
▁2023,	-3157
▁fighting	-3158
ya	-3159
▁Health	-3160
▁welcome	-3161
▁ators	-3162
▁union	-3163
▁Martin	-3164
▁born	-3165
▁floor	-3166
andemic	-3167
▁placed	-3168
▁predict	-3169
iel	-3170
▁adult	-3171
▁ancing	-3172
▁ociety	-3173
▁witness	-3174
▁corre	-3175
▁Here	-3176
▁corn	-3177
▁wish	-3178
▁Royal	-3179
▁Super	-3180
▁stress	-3181
▁Tayl	-3182
enty	-3183
▁Art	-3184
▁cow	-3185
▁island	-3186
▁60	-3187
Getty	-3188
ron	-3189
▁audience	-3190
unk	-3191
▁--	-3192
▁Ob	-3193
▁boost	-3194
ization	-3195
▁advance	-3196
▁organization	-3197
▁ang	-3198
▁gar	-3199
▁sat	-3200
▁guilt	-3201
▁ongo	-3202
▁defense	-3203
▁missile	-3204
term	-3205
▁mach	-3206
▁delay	-3207
▁mob	-3208
▁row	-3209
▁vent	-3210
▁Georgi	-3211
▁gender	-3212
▁temper	-3213
ami	-3214
lear	-3215
▁elected	-3216
▁Sir	-3217
▁unit	-3218
▁batter	-3219
ffic	-3220
▁elling	-3221
▁lies	-3222
▁behavi	-3223
▁contest	-3224
▁text	-3225
▁Apple	-3226
▁surviv	-3227
▁journey	-3228
ced	-3229
urb	-3230
▁Val	-3231
▁fle	-3232
▁fly	-3233
▁ning	-3234
▁crash	-3235
▁middle	-3236
▁abort	-3237
▁inner	-3238
▁beauti	-3239
▁recall	-3240
▁Ant	-3241
▁Hill	-3242
▁Mexic	-3243
olog	-3244
▁debut	-3245
▁facing	-3246
▁village	-3247
▁sn	-3248
▁dance	-3249
▁recom	-3250
▁juries	-3251
▁attract	-3252
nel	-3253
angu	-3254
wa	-3255
azon	-3256
date	-3257
▁Lat	-3258
▁dai	-3259
▁attorney	-3260
▁recommend	-3261
cin	-3262
▁para	-3263
▁oc	-3264
▁angerous	-3265
▁coast	-3266
▁Conserv	-3267
ium	-3268
port	-3269
▁bey	-3270
▁spl	-3271
▁gent	-3272
▁advise	-3273
▁Cap	-3274
▁auto	-3275
▁fuse	-3276
▁fresh	-3277
▁episode	-3278
za	-3279
olf	-3280
▁NH	-3281
▁rative	-3282
▁absolut	-3283
▁ites	-3284
action	-3285
ashion	-3286
▁eventual	-3287
cue	-3288
tic	-3289
▁era	-3290
▁display	-3291
▁bon	-3292
▁cient	-3293
▁center	-3294
▁universi	-3295
nic	-3296
▁Form	-3297
▁update	-3298
▁straight	-3299
24	-3300
▁ns	-3301
▁lift	-3302
▁rank	-3303
▁bomb	-3304
▁ones	-3305
▁prove	-3306
secutor	-3307
▁threaten	-3308
▁bum	-3309
▁Sing	-3310
▁doubt	-3311
▁insist	-3312
▁English	-3313
▁Ry	-3314
▁writer	-3315
▁prosecutor	-3316
500	-3317
off	-3318
ural	-3319
▁traditional	-3320
▁Ver	-3321
▁combin	-3322
▁Ham	-3323
▁Carol	-3324
▁occur	-3325
▁Amazon	-3326
▁difference	-3327
▁journalist	-3328
▁Our	-3329
▁nel	-3330
▁Union	-3331
roud	-3332
▁Wale	-3333
▁page	-3334
▁ncies	-3335
▁conserv	-3336
▁demonst	-3337
▁CE	-3338
▁solve	-3339
▁stood	-3340
▁holding	-3341
And	-3342
▁pandemic	-3343
▁spective	-3344
▁construct	-3345
ux	-3346
▁ya	-3347
▁blo	-3348
▁tree	-3349
▁Island	-3350
-4	-3351
▁beach	-3352
▁favor	-3353
▁scape	-3354
▁writing	-3355
▁Pak	-3356
▁Post	-3357
▁artic	-3358
anguage	-3359
▁parliament	-3360
▁é	-3361
▁3.	-3362
▁Bay	-3363
▁bid	-3364
▁istic	-3365
▁balance	-3366
▁intellig	-3367
▁0	-3368
▁Du	-3369
▁debt	-3370
▁dish	-3371
▁married	-3372
▁2021	-3373
▁rent	-3374
male	-3375
▁wave	-3376
▁izing	-3377
▁tourn	-3378
▁tournament	-3379
oud	-3380
▁Mel	-3381
▁ending	-3382
gg	-3383
▁lic	-3384
▁Matt	-3385
▁cool	-3386
▁agent	-3387
▁aries	-3388
▁Kamala	-3389
▁topped	-3390
▁wan	-3391
▁Shar	-3392
▁plane	-3393
▁bla	-3394
▁flood	-3395
istan	-3396
▁cook	-3397
▁email	-3398
▁applic	-3399
▁enforce	-3400
▁23	-3401
▁Lou	-3402
▁loan	-3403
▁cheme	-3404
▁drone	-3405
▁restrict	-3406
▁pi	-3407
▁typ	-3408
▁harm	-3409
▁athle	-3410
▁choos	-3411
▁penal	-3412
▁declare	-3413
▁Ear	-3414
▁cop	-3415
▁tip	-3416
▁dark	-3417
▁college	-3418
▁surround	-3419
▁encourage	-3420
gra	-3421
▁Ag	-3422
▁analy	-3423
▁connection	-3424
▁consist	-3425
▁subject	-3426
▁CO	-3427
▁haven	-3428
▁Wil	-3429
▁ana	-3430
▁fat	-3431
▁spo	-3432
▁disp	-3433
▁ense	-3434
▁write	-3435
so	-3436
raw	-3437
▁tin	-3438
▁jump	-3439
▁nice	-3440
AP	-3441
▁Ara	-3442
▁cream	-3443
▁negot	-3444
▁occasion	-3445
▁$2	-3446
▁Fore	-3447
▁Gold	-3448
sc	-3449
▁psy	-3450
senal	-3451
▁cloth	-3452
▁medic	-3453
▁Jones	-3454
hio	-3455
What	-3456
fact	-3457
rong	-3458
▁Bet	-3459
▁pod	-3460
▁stated	-3461
▁General	-3462
roy	-3463
▁dad	-3464
▁doz	-3465
▁bull	-3466
▁Khan	-3467
▁smart	-3468
cise	-3469
▁Chel	-3470
▁expand	-3471
▁committed	-3472
▁MO	-3473
▁Qu	-3474
▁Ty	-3475
▁female	-3476
▁window	-3477
▁mini	-3478
▁rity	-3479
▁hern	-3480
▁hat	-3481
▁Home	-3482
▁allies	-3483
▁Pakistan	-3484
▁Commission	-3485
di	-3486
osp	-3487
▁Mag	-3488
▁cli	-3489
▁putt	-3490
▁reject	-3491
My	-3492
▁ja	-3493
▁Ber	-3494
▁rap	-3495
hibit	-3496
spect	-3497
▁strict	-3498
oda	-3499
▁Sea	-3500
▁Tur	-3501
▁eek	-3502
range	-3503
aterial	-3504
▁extend	-3505
▁die	-3506
▁jail	-3507
▁2023.	-3508
pper	-3509
▁Ten	-3510
▁boat	-3511
▁material	-3512
▁admitted	-3513
irit	-3514
ouble	-3515
▁ferred	-3516
▁gather	-3517
▁cultural	-3518
che	-3519
▁om	-3520
▁Bel	-3521
▁blue	-3522
▁ocracy	-3523
hard	-3524
▁kit	-3525
ria	-3526
▁4.	-3527
▁ballot	-3528
▁traffic	-3529
▁27	-3530
quent	-3531
▁ique	-3532
▁tack	-3533
▁logical	-3534
▁skill	-3535
▁Daniel	-3536
▁£2	-3537
▁Mike	-3538
▁brief	-3539
▁ically	-3540
sea	-3541
▁speed	-3542
▁intens	-3543
▁colleague	-3544
ero	-3545
hank	-3546
▁Hall	-3547
▁amaz	-3548
▁imag	-3549
▁user	-3550
▁stick	-3551
▁Most	-3552
▁Test	-3553
▁sister	-3554
▁achieve	-3555
back	-3556
▁Rom	-3557
▁tle	-3558
▁sand	-3559
▁ware	-3560
▁brain	-3561
▁proud	-3562
▁trend	-3563
▁ginning	-3564
▁gate	-3565
▁Group	-3566
▁raise	-3567
▁Cro	-3568
▁Bre	-3569
▁fee	-3570
▁lla	-3571
▁bowl	-3572
▁diagn	-3573
▁ester	-3574
olk	-3575
tee	-3576
udi	-3577
▁kin	-3578
emb	-3579
▁lan	-3580
aster	-3581
▁fish	-3582
▁supply	-3583
▁ultimate	-3584
oe	-3585
▁Law	-3586
▁tool	-3587
▁2022.	-3588
▁print	-3589
▁winter	-3590
▁28	-3591
▁trail	-3592
▁School	-3593
▁ged	-3594
▁cold	-3595
▁mine	-3596
▁garden	-3597
▁modern	-3598
ու	-3599
▁Penn	-3600
▁dism	-3601
▁article	-3602
cul	-3603
▁ju	-3604
▁ress	-3605
face	-3606
▁God	-3607
▁hone	-3608
▁paint	-3609
▁listen	-3610
▁ception	-3611
▁ization	-3612
▁intelligence	-3613
new	-3614
▁nor	-3615
▁aged	-3616
▁infra	-3617
inal	-3618
▁Ram	-3619
▁Tim	-3620
▁esh	-3621
acher	-3622
▁Play	-3623
▁ility	-3624
ea	-3625
She	-3626
▁ston	-3627
▁confide	-3628
▁Hou	-3629
▁mag	-3630
▁grant	-3631
▁wealth	-3632
▁pension	-3633
▁language	-3634
▁resource	-3635
▁gro	-3636
▁dome	-3637
▁stuff	-3638
▁troop	-3639
▁committee	-3640
▁gy	-3641
▁ni	-3642
▁Bur	-3643
▁hall	-3644
▁wedd	-3645
▁engine	-3646
▁definite	-3647
▁CB	-3648
▁Kenn	-3649
▁Musk	-3650
▁soci	-3651
▁cities	-3652
▁prose	-3653
▁talent	-3654
▁Photograph	-3655
▁Ye	-3656
chase	-3657
▁flag	-3658
▁typical	-3659
fa	-3660
ris	-3661
▁Wa	-3662
lude	-3663
▁Sal	-3664
▁pin	-3665
▁guide	-3666
appoint	-3667
▁survey	-3668
▁Id	-3669
▁MA	-3670
▁Den	-3671
onent	-3672
▁luck	-3673
▁ried	-3674
▁bridge	-3675
▁ack	-3676
▁fare	-3677
▁acknow	-3678
▁degree	-3679
▁necessary	-3680
▁pra	-3681
arian	-3682
▁feet	-3683
▁intend	-3684
por	-3685
▁AP	-3686
▁Jew	-3687
▁shut	-3688
▁divers	-3689
▁institut	-3690
{"	-3691
opt	-3692
▁Ita	-3693
▁dry	-3694
▁Kate	-3695
▁Sant	-3696
▁horr	-3697
uclear	-3698
▁maybe	-3699
▁African	-3700
▁NC	-3701
▁ron	-3702
▁Arab	-3703
▁Both	-3704
▁equal	-3705
▁Chelsea	-3706
▁purchase	-3707
▁II	-3708
▁Han	-3709
▁Swe	-3710
ufact	-3711
▁berg	-3712
hicago	-3713
▁Queen	-3714
▁route	-3715
▁programme	-3716
si	-3717
▁80	-3718
▁Ken	-3719
▁wag	-3720
anyah	-3721
▁corner	-3722
▁retail	-3723
lt	-3724
cal	-3725
▁Pra	-3726
▁prompt	-3727
▁transport	-3728
▁fli	-3729
▁Modi	-3730
▁mist	-3731
▁Elect	-3732
▁Liver	-3733
usive	-3734
▁Adam	-3735
▁Mary	-3736
▁Vict	-3737
▁llah	-3738
▁Franc	-3739
▁expos	-3740
▁colour	-3741
▁contra	-3742
▁soldier	-3743
ube	-3744
▁Ca	-3745
▁rev	-3746
▁sci	-3747
▁udd	-3748
▁cerem	-3749
▁Arsenal	-3750
zer	-3751
▁Nic	-3752
▁Tri	-3753
▁Mill	-3754
▁teacher	-3755
▁Why	-3756
▁nut	-3757
▁san	-3758
▁Starmer	-3759
So	-3760
oogle	-3761
▁burgh	-3762
isation	-3763
▁Netanyah	-3764
40	-3765
▁Mil	-3766
▁Vic	-3767
irect	-3768
ufactur	-3769
▁register	-3770
▁organisation	-3771
▁26	-3772
gger	-3773
▁lash	-3774
▁rick	-3775
▁complex	-3776
▁credible	-3777
▁domestic	-3778
▁.	-3779
▁nt	-3780
▁Reg	-3781
▁2019	-3782
▁note	-3783
▁dismiss	-3784
▁fashion	-3785
▁nuclear	-3786
▁planned	-3787
▁associate	-3788
▁len	-3789
▁tight	-3790
▁manufactur	-3791
mo	-3792
orse	-3793
▁Big	-3794
▁pose	-3795
▁semi	-3796
▁laugh	-3797
▁minor	-3798
▁Chicago	-3799
rel	-3800
▁Vir	-3801
▁code	-3802
▁flow	-3803
▁liber	-3804
imb	-3805
val	-3806
▁Kel	-3807
▁altern	-3808
▁Jer	-3809
▁ado	-3810
▁ery	-3811
▁odd	-3812
▁tee	-3813
right	-3814
▁plenty	-3815
▁commission	-3816
br	-3817
▁blame	-3818
▁broke	-3819
▁giant	-3820
▁dollar	-3821
▁Francis	-3822
▁fortunate	-3823
bn	-3824
▁je	-3825
▁mum	-3826
▁rum	-3827
▁zone	-3828
itting	-3829
▁isation	-3830
▁keeping	-3831
▁90	-3832
▁ST	-3833
inion	-3834
▁Clark	-3835
▁guest	-3836
▁written	-3837
',	-3838
▁Ari	-3839
useum	-3840
▁Grand	-3841
▁digital	-3842
zz	-3843
▁Cel	-3844
▁Mari	-3845
urance	-3846
▁destroy	-3847
▁crew	-3848
▁medal	-3849
▁royal	-3850
▁Richard	-3851
▁implement	-3852
pping	-3853
▁chain	-3854
▁gradu	-3855
▁fellow	-3856
▁object	-3857
pose	-3858
▁rose	-3859
▁sequ	-3860
▁ville	-3861
▁sitting	-3862
shi	-3863
reath	-3864
▁gift	-3865
▁cruci	-3866
▁honest	-3867
gend	-3868
▁imm	-3869
▁cycle	-3870
▁cancel	-3871
▁disappoint	-3872
▁Face	-3873
▁catch	-3874
▁Google	-3875
▁governor	-3876
▁conservative	-3877
mod	-3878
noon	-3879
▁ino	-3880
▁arch	-3881
▁coal	-3882
▁equip	-3883
▁udden	-3884
▁assess	-3885
▁correct	-3886
▁neighbor	-3887
▁transform	-3888
cit	-3889
▁tor	-3890
▁IN	-3891
▁Up	-3892
▁ach	-3893
▁twi	-3894
▁Press	-3895
▁broken	-3896
▁tter	-3897
▁lived	-3898
▁encing	-3899
▁remind	-3900
▁scribe	-3901
▁ard	-3902
▁Louis	-3903
▁bound	-3904
▁itude	-3905
▁related	-3906
▁Love	-3907
▁dict	-3908
▁Western	-3909
ina	-3910
▁PA	-3911
otten	-3912
▁truth	-3913
▁lative	-3914
▁reform	-3915
▁pensive	-3916
▁upon	-3917
▁glass	-3918
▁afternoon	-3919
▁amb	-3920
▁Lake	-3921
▁Brown	-3922
▁crack	-3923
▁capture	-3924
▁Mi	-3925
▁Sky	-3926
quare	-3927
▁ition	-3928
▁rator	-3929
▁Victor	-3930
▁Ku	-3931
▁Kar	-3932
▁nes	-3933
▁tend	-3934
▁broadcast	-3935
osh	-3936
iment	-3937
antage	-3938
▁Thoma	-3939
▁opponent	-3940
hod	-3941
file	-3942
▁joke	-3943
▁weak	-3944
▁multi	-3945
ilities	-3946
▁activity	-3947
af	-3948
▁Out	-3949
▁Seat	-3950
▁Step	-3951
▁wise	-3952
▁photograph	-3953
▁ction	-3954
▁marriage	-3955
25	-3956
irt	-3957
▁Ash	-3958
▁ral	-3959
▁shar	-3960
▁Middle	-3961
▁rescue	-3962
hol	-3963
▁PM	-3964
▁VI	-3965
▁adopt	-3966
▁domin	-3967
▁tance	-3968
▁itarian	-3969
abo	-3970
ino	-3971
▁Ko	-3972
▁Kim	-3973
▁Twi	-3974
▁mil	-3975
▁blow	-3976
▁athlete	-3977
aps	-3978
▁rush	-3979
▁integ	-3980
▁minim	-3981
▁Mexico	-3982
▁century	-3983
80	-3984
FL	-3985
gy	-3986
▁fif	-3987
ength	-3988
▁Miss	-3989
▁captain	-3990
No	-3991
rt	-3992
▁Max	-3993
▁rom	-3994
▁pirit	-3995
▁Kat	-3996
▁mor	-3997
▁ivity	-3998
▁render	-3999
▁trouble	-4000
▁Christian	-4001
▁Kei	-4002
block	-4003
ropri	-4004
▁Earl	-4005
▁ager	-4006
strong	-4007
▁Under	-4008
▁Sports	-4009
▁finance	-4010
▁opinion	-4011
▁5.	-4012
▁hole	-4013
▁cheap	-4014
▁mouth	-4015
▁Direct	-4016
▁mistake	-4017
ER	-4018
▁gl	-4019
veil	-4020
▁Res	-4021
▁2021,	-4022
▁disrupt	-4023
ny	-4024
cket	-4025
▁Blue	-4026
▁Hunt	-4027
▁Sara	-4028
▁Stad	-4029
▁split	-4030
▁transfer	-4031
▁Us	-4032
ocal	-4033
▁Hav	-4034
▁hurt	-4035
▁River	-4036
▁Singh	-4037
▁Swift	-4038
▁asset	-4039
▁sequence	-4040
▁Shi	-4041
▁Tre	-4042
▁appre	-4043
▁frame	-4044
▁Commit	-4045
▁consult	-4046
▁maker	-4047
▁advantage	-4048
va	-4049
set	-4050
rant	-4051
▁NBC	-4052
ledge	-4053
▁rations	-4054
uge	-4055
▁Ja	-4056
▁au	-4057
▁dro	-4058
▁tur	-4059
banon	-4060
▁Chris	-4061
▁collection	-4062
▁Gi	-4063
rass	-4064
▁Well	-4065
▁load	-4066
▁Great	-4067
▁Win	-4068
ploma	-4069
▁cell	-4070
▁chat	-4071
▁shape	-4072
▁veter	-4073
▁diploma	-4074
▁festival	-4075
▁acknowledge	-4076
▁­	-4077
▁29	-4078
▁nav	-4079
▁scr	-4080
▁Like	-4081
▁male	-4082
ribution	-4083
▁tension	-4084
▁Mal	-4085
▁eat	-4086
▁ibly	-4087
▁mort	-4088
▁advoc	-4089
▁collaps	-4090
alian	-4091
retch	-4092
▁locate	-4093
▁Institut	-4094
▁70	-4095
▁ga	-4096
chen	-4097
▁196	-4098
▁Cri	-4099
▁capa	-4100
▁breath	-4101
▁Lebanon	-4102
▁purpose	-4103
▁neighbour	-4104
▁offensive	-4105
anda	-4106
gery	-4107
rill	-4108
▁Nat	-4109
▁Who	-4110
▁liter	-4111
▁prospect	-4112
hy	-4113
▁/	-4114
▁Dub	-4115
▁Men	-4116
▁jud	-4117
▁prov	-4118
▁spring	-4119
▁Let	-4120
▁ade	-4121
▁bear	-4122
▁ette	-4123
▁task	-4124
▁Italian	-4125
po	-4126
ons	-4127
▁0.	-4128
▁vul	-4129
▁tear	-4130
▁wash	-4131
▁capacit	-4132
▁promote	-4133
▁willing	-4134
10	-4135
▁#	-4136
▁@	-4137
▁Ron	-4138
erate	-4139
▁flix	-4140
▁rail	-4141
▁approve	-4142
arm	-4143
▁Tha	-4144
▁Van	-4145
▁flat	-4146
▁inde	-4147
▁accom	-4148
▁fused	-4149
▁surgery	-4150
▁ol	-4151
▁Cur	-4152
▁Meg	-4153
▁pun	-4154
▁infect	-4155
▁invite	-4156
▁breaking	-4157
▁regional	-4158
▁Pan	-4159
▁wing	-4160
▁motor	-4161
▁vaccin	-4162
type	-4163
▁clin	-4164
▁pregn	-4165
▁apolog	-4166
▁cricket	-4167
▁appropri	-4168
▁function	-4169
-3	-4170
▁IC	-4171
rate	-4172
▁drama	-4173
▁fraud	-4174
▁compete	-4175
▁surface	-4176
▁Da	-4177
▁Bir	-4178
▁lad	-4179
▁lux	-4180
▁Mail	-4181
▁hang	-4182
▁knock	-4183
▁veteran	-4184
▁transition	-4185
zil	-4186
▁MOR	-4187
▁Sur	-4188
▁Stud	-4189
▁bert	-4190
ercise	-4191
▁scale	-4192
▁therap	-4193
▁collabo	-4194
▁suppose	-4195
▁direction	-4196
▁communication	-4197
▁ez	-4198
▁ji	-4199
million	-4200
ja	-4201
▁FA	-4202
just	-4203
▁Bos	-4204
▁Sab	-4205
▁2025	-4206
▁Colle	-4207
▁youth	-4208
▁master	-4209
▁ceremony	-4210
ola	-4211
▁Glas	-4212
▁grew	-4213
▁meal	-4214
▁ubst	-4215
dow	-4216
▁PS	-4217
page	-4218
gling	-4219
▁hero	-4220
▁stretch	-4221
▁truggling	-4222
pet	-4223
▁Cov	-4224
▁dev	-4225
▁Good	-4226
▁aggress	-4227
▁confident	-4228
17	-4229
med	-4230
▁BI	-4231
inci	-4232
▁Bal	-4233
▁Fan	-4234
▁Gov	-4235
▁hree	-4236
▁cease	-4237
▁sweet	-4238
▁observ	-4239
cl	-4240
ye	-4241
ada	-4242
atic	-4243
sing	-4244
▁Bei	-4245
▁Dun	-4246
▁Rod	-4247
▁ung	-4248
▁feed	-4249
▁bench	-4250
▁affair	-4251
▁wi	-4252
▁Fur	-4253
▁Jim	-4254
▁Lib	-4255
cohol	-4256
▁2016	-4257
▁Social	-4258
▁reserv	-4259
▁switch	-4260
▁elector	-4261
ism	-4262
▁ow	-4263
▁Lee	-4264
▁erty	-4265
▁swim	-4266
▁joint	-4267
▁handle	-4268
▁monitor	-4269
▁podcast	-4270
▁presence	-4271
▁behaviour	-4272
imin	-4273
ances	-4274
▁Bell	-4275
▁ging	-4276
▁ambit	-4277
▁commer	-4278
▁resign	-4279
▁stances	-4280
▁accident	-4281
tra	-4282
▁Ba	-4283
room	-4284
▁mic	-4285
▁rob	-4286
▁bath	-4287
▁suppl	-4288
▁reading	-4289
▁cientist	-4290
▁RE	-4291
▁tru	-4292
icient	-4293
perate	-4294
▁frust	-4295
5%	-4296
BA	-4297
▁Glo	-4298
▁lev	-4299
▁sky	-4300
▁Carl	-4301
▁Road	-4302
▁Team	-4303
▁Atlan	-4304
▁relig	-4305
▁Brazil	-4306
▁church	-4307
▁tackle	-4308
▁bird	-4309
▁negoti	-4310
▁Central	-4311
▁analyst	-4312
▁exercise	-4313
"}	-4314
▁lie	-4315
▁lief	-4316
▁notice	-4317
▁indicate	-4318
▁Bu	-4319
▁Year	-4320
▁Irish	-4321
▁length	-4322
▁entertain	-4323
▁insurance	-4324
▁€	-4325
▁va	-4326
arily	-4327
▁esca	-4328
▁mann	-4329
▁Att	-4330
▁Live	-4331
▁panel	-4332
▁channel	-4333
▁LA	-4334
▁Dra	-4335
▁Cath	-4336
▁Sand	-4337
▁Wood	-4338
▁onic	-4339
▁regulation	-4340
▁appropriate	-4341
▁ck	-4342
▁tan	-4343
▁Judge	-4344
▁Trans	-4345
▁empor	-4346
▁novel	-4347
▁worry	-4348
vention	-4349
▁constant	-4350
OP	-4351
St	-4352
iar	-4353
draw	-4354
▁Dai	-4355
▁jun	-4356
▁pil	-4357
▁Best	-4358
▁neck	-4359
▁Islam	-4360
▁theor	-4361
▁bodies	-4362
▁vulner	-4363
▁command	-4364
▁reaction	-4365
▁NFL	-4366
▁Nav	-4367
▁imagine	-4368
▁emporary	-4369
reak	-4370
▁ITV	-4371
arant	-4372
▁Real	-4373
▁luxu	-4374
▁horse	-4375
▁ami	-4376
▁Free	-4377
▁Josh	-4378
▁gang	-4379
00,000	-4380
▁suspend	-4381
15	-4382
ula	-4383
▁£3	-4384
hance	-4385
▁Vill	-4386
▁pott	-4387
▁bottle	-4388
▁legend	-4389
▁Hel	-4390
▁clip	-4391
ategor	-4392
arantee	-4393
▁bottom	-4394
▁corpor	-4395
▁Rad	-4396
▁gam	-4397
▁joy	-4398
▁pen	-4399
▁root	-4400
▁trap	-4401
▁Force	-4402
▁abilities	-4403
mb	-4404
▁Dar	-4405
▁McC	-4406
▁Toda	-4407
▁fold	-4408
▁tact	-4409
▁ural	-4410
▁wound	-4411
▁Dal	-4412
final	-4413
▁solid	-4414
▁categor	-4415
▁clusion	-4416
▁forecast	-4417
run	-4418
zona	-4419
▁Boe	-4420
▁div	-4421
▁gow	-4422
▁mut	-4423
▁Read	-4424
▁label	-4425
chan	-4426
utch	-4427
▁coin	-4428
▁empha	-4429
▁max	-4430
▁fake	-4431
▁clash	-4432
▁classic	-4433
▁io	-4434
long	-4435
▁nur	-4436
▁cogn	-4437
▁comb	-4438
▁hate	-4439
▁nish	-4440
▁prize	-4441
▁studi	-4442
▁easily	-4443
▁proceed	-4444
▁6.	-4445
inct	-4446
false	-4447
▁desti	-4448
▁waste	-4449
▁Follow	-4450
▁conclude	-4451
amm	-4452
▁Ala	-4453
▁Ter	-4454
▁ray	-4455
▁Mont	-4456
▁Tour	-4457
▁ical	-4458
▁false	-4459
▁shots	-4460
▁deploy	-4461
▁praise	-4462
▁withdraw	-4463
▁bond	-4464
▁tail	-4465
▁cious	-4466
▁draft	-4467
▁mates	-4468
▁pound	-4469
▁trick	-4470
▁violent	-4471
▁Des	-4472
▁wer	-4473
vania	-4474
sylvania	-4475
▁Arizona	-4476
▁2,	-4477
▁las	-4478
▁Cont	-4479
▁bonus	-4480
▁ե	-4481
Our	-4482
▁Ni	-4483
aint	-4484
▁reli	-4485
▁Element	-4486
▁trigger	-4487
▁Pennsylvania	-4488
ml	-4489
bon	-4490
ody	-4491
oph	-4492
call	-4493
▁Dia	-4494
▁fant	-4495
▁trop	-4496
▁2020,	-4497
▁Found	-4498
▁beauty	-4499
ob	-4500
▁Er	-4501
ront	-4502
▁sal	-4503
▁tir	-4504
▁yan	-4505
▁Work	-4506
▁adapt	-4507
▁ignor	-4508
▁Invest	-4509
▁commercial	-4510
gen	-4511
▁ures	-4512
▁innov	-4513
▁sharp	-4514
▁detect	-4515
▁routine	-4516
▁section	-4517
▁$3	-4518
hern	-4519
race	-4520
▁del	-4521
▁wake	-4522
▁Right	-4523
▁assum	-4524
▁pledge	-4525
ota	-4526
▁twe	-4527
higan	-4528
oring	-4529
▁Lord	-4530
▁nort	-4531
▁vast	-4532
▁divid	-4533
▁refer	-4534
▁renew	-4535
▁frequent	-4536
Re	-4537
▁7.	-4538
▁Jay	-4539
▁tens	-4540
▁faith	-4541
▁achiev	-4542
▁bright	-4543
▁intention	-4544
▁Ce	-4545
ysis	-4546
▁bio	-4547
▁lap	-4548
▁gram	-4549
▁alysis	-4550
▁method	-4551
▁northern	-4552
▁guarantee	-4553
5-	-4554
▁gap	-4555
▁arti	-4556
▁valu	-4557
▁Frank	-4558
fi	-4559
▁ն	-4560
▁reci	-4561
▁admit	-4562
▁Federal	-4563
▁alcohol	-4564
▁Parliament	-4565
▁Jr	-4566
▁RT	-4567
▁Brad	-4568
▁deput	-4569
▁manda	-4570
▁Michigan	-4571
▁Pad	-4572
▁hir	-4573
▁pal	-4574
assin	-4575
▁Ris	-4576
▁Veg	-4577
ander	-4578
gment	-4579
▁plus	-4580
▁verse	-4581
▁constitution	-4582
▁<	-4583
ext	-4584
ange	-4585
cean	-4586
▁Bru	-4587
▁Pub	-4588
▁Whe	-4589
▁tum	-4590
▁sens	-4591
olution	-4592
▁Kenned	-4593
▁circum	-4594
▁client	-4595
▁strange	-4596
▁technic	-4597
uel	-4598
▁Fi	-4599
resh	-4600
▁hid	-4601
ourne	-4602
▁Covi	-4603
▁ison	-4604
▁snow	-4605
▁mobile	-4606
▁signal	-4607
▁invasion	-4608
ww	-4609
mar	-4610
see	-4611
▁31	-4612
▁Cle	-4613
▁Rang	-4614
lliant	-4615
▁desir	-4616
▁notes	-4617
▁ki	-4618
▁Simon	-4619
▁ology	-4620
▁swing	-4621
▁explos	-4622
▁oppose	-4623
45	-4624
▁FC	-4625
▁Zel	-4626
▁quiet	-4627
▁identify	-4628
gypt	-4629
▁Are	-4630
▁Greg	-4631
▁outs	-4632
%.	-4633
▁IS	-4634
▁MS	-4635
▁ci	-4636
icip	-4637
▁Der	-4638
▁Lew	-4639
▁Sil	-4640
▁Syd	-4641
▁Also	-4642
▁Pala	-4643
▁cade	-4644
▁negat	-4645
▁helter	-4646
▁princi	-4647
▁closure	-4648
▁kitchen	-4649
▁IP	-4650
ffee	-4651
ghan	-4652
▁Def	-4653
▁Nick	-4654
ighter	-4655
▁prefer	-4656
▁racing	-4657
\"	-4658
▁NAT	-4659
▁ast	-4660
ified	-4661
▁Jenn	-4662
▁chem	-4663
▁grab	-4664
▁igate	-4665
GB	-4666
▁Hot	-4667
▁Jeff	-4668
▁Jose	-4669
▁advert	-4670
▁fighter	-4671
▁recognise	-4672
,{"	-4673
▁Cy	-4674
ador	-4675
▁hom	-4676
▁chip	-4677
▁atory	-4678
▁ledge	-4679
ospital	-4680
▁ingham	-4681
▁lating	-4682
▁recruit	-4683
▁changing	-4684
▁sanction	-4685
anch	-4686
▁Bas	-4687
▁CBS	-4688
▁Fil	-4689
▁Luc	-4690
icide	-4691
▁Egypt	-4692
▁Disney	-4693
▁coffee	-4694
ev	-4695
dot	-4696
pic	-4697
▁Pen	-4698
under	-4699
▁Edin	-4700
▁Gall	-4701
▁Tele	-4702
▁wine	-4703
oulder	-4704
▁color	-4705
▁tries	-4706
▁Afghan	-4707
▁install	-4708
▁mountain	-4709
▁brilliant	-4710
Is	-4711
helm	-4712
rain	-4713
▁Cla	-4714
model	-4715
▁Club	-4716
▁Vega	-4717
▁Wall	-4718
▁tuck	-4719
▁science	-4720
ht	-4721
leg	-4722
▁ah	-4723
▁yn	-4724
▁Sol	-4725
▁vil	-4726
point	-4727
▁virus	-4728
duction	-4729
▁belong	-4730
▁spoken	-4731
▁holders	-4732
▁assassin	-4733
▁Hy	-4734
ronic	-4735
▁Long	-4736
▁Watch	-4737
▁enhance	-4738
▁q	-4739
rial	-4740
▁Any	-4741
▁Get	-4742
▁Jas	-4743
▁NBA	-4744
▁Show	-4745
▁2019,	-4746
▁Medic	-4747
▁fruit	-4748
▁endorse	-4749
▁Guardian	-4750
▁yo	-4751
free	-4752
▁Exp	-4753
▁Jul	-4754
▁Back	-4755
▁excel	-4756
-19	-4757
sia	-4758
▁SE	-4759
▁tz	-4760
eper	-4761
like	-4762
▁Mun	-4763
▁Wel	-4764
▁kar	-4765
▁mal	-4766
iance	-4767
▁ancy	-4768
▁ches	-4769
▁elig	-4770
▁lean	-4771
▁honor	-4772
▁upset	-4773
▁Muslim	-4774
▁confront	-4775
▁familiar	-4776
▁ai	-4777
phic	-4778
▁Hen	-4779
▁din	-4780
idency	-4781
▁clinic	-4782
▁Hospital	-4783
▁dramatic	-4784
▁residency	-4785
▁Hum	-4786
▁ica	-4787
▁ome	-4788
▁pic	-4789
▁Four	-4790
▁ifying	-4791
!!	-4792
Tube	-4793
whelm	-4794
▁bask	-4795
▁core	-4796
▁illa	-4797
▁Phone	-4798
▁Sydney	-4799
▁forget	-4800
▁competitive	-4801
▁Et	-4802
▁Emma	-4803
▁grown	-4804
▁potted	-4805
▁refuge	-4806
▁á	-4807
▁ox	-4808
▁Ann	-4809
▁Bol	-4810
▁ski	-4811
andon	-4812
Be	-4813
▁uni	-4814
▁Rafa	-4815
minute	-4816
▁desperate	-4817
For	-4818
sel	-4819
▁ko	-4820
▁tab	-4821
▁boot	-4822
▁peak	-4823
▁Little	-4824
▁YouTube	-4825
▁distance	-4826
11	-4827
▁Tai	-4828
▁bot	-4829
▁Call	-4830
▁Still	-4831
▁forest	-4832
ado	-4833
nis	-4834
▁Barr	-4835
▁stad	-4836
▁volv	-4837
▁Earth	-4838
▁Moham	-4839
▁labor	-4840
▁wicket	-4841
▁passion	-4842
70	-4843
▁CN	-4844
▁roo	-4845
▁Look	-4846
▁Child	-4847
▁viral	-4848
▁formal	-4849
▁keeper	-4850
▁thrill	-4851
▁element	-4852
▁scoring	-4853
▁generate	-4854
esh	-4855
pto	-4856
▁lyn	-4857
▁Foot	-4858
▁pace	-4859
▁spin	-4860
manent	-4861
element	-4862
▁graphic	-4863
▁possess	-4864
▁Associate	-4865
▁GP	-4866
rian	-4867
orrow	-4868
uters	-4869
▁folk	-4870
▁hill	-4871
▁sick	-4872
▁Saudi	-4873
▁Space	-4874
▁Thank	-4875
▁climb	-4876
▁lands	-4877
▁teach	-4878
▁castle	-4879
▁ու	-4880
cist	-4881
orce	-4882
rist	-4883
▁GOP	-4884
▁Sher	-4885
▁chel	-4886
▁specu	-4887
▁vital	-4888
hew	-4889
oop	-4890
itan	-4891
▁ala	-4892
▁egg	-4893
▁Lead	-4894
▁Block	-4895
▁istan	-4896
▁abandon	-4897
▁package	-4898
ili	-4899
▁py	-4900
▁Addi	-4901
▁wrap	-4902
▁Share	-4903
▁riety	-4904
▁Centre	-4905
▁Digital	-4906
▁NS	-4907
5,000	-4908
▁2018	-4909
▁Syria	-4910
▁dates	-4911
▁inquir	-4912
.)	-4913
AR	-4914
not	-4915
gage	-4916
▁Kev	-4917
▁hyd	-4918
▁ric	-4919
mptom	-4920
▁Comp	-4921
▁Davi	-4922
▁exit	-4923
▁2021.	-4924
▁Brook	-4925
▁obtain	-4926
kh	-4927
let	-4928
▁nd	-4929
▁Gri	-4930
▁ani	-4931
▁Your	-4932
▁diet	-4933
▁tank	-4934
cedent	-4935
cedure	-4936
▁numer	-4937
▁symptom	-4938
▁western	-4939
led	-4940
ting	-4941
▁plot	-4942
▁punish	-4943
▁regime	-4944
▁Stephen	-4945
▁engineer	-4946
▁mortgage	-4947
ann	-4948
door	-4949
▁cept	-4950
▁maxim	-4951
▁metre	-4952
▁ummit	-4953
▁studio	-4954
12	-4955
my	-4956
cons	-4957
line	-4958
▁Cra	-4959
▁Ven	-4960
▁vib	-4961
▁clar	-4962
▁lets	-4963
▁mayor	-4964
▁acting	-4965
▁flower	-4966
yl	-4967
ան	-4968
emn	-4969
▁mi	-4970
gent	-4971
▁End	-4972
▁cock	-4973
▁lent	-4974
▁seed	-4975
▁Lewis	-4976
▁belief	-4977
▁34	-4978
cert	-4979
fend	-4980
▁Bad	-4981
▁ker	-4982
▁Line	-4983
▁hunt	-4984
▁Public	-4985
▁shoulder	-4986
▁procedure	-4987
▁Ru	-4988
star	-4989
▁Eli	-4990
▁Beach	-4991
▁alert	-4992
▁chick	-4993
▁ennis	-4994
▁basket	-4995
▁contrast	-4996
▁permanent	-4997
tr	-4998
▁33	-4999
▁500	-5000
▁Ray	-5001
▁Fami	-5002
▁edic	-5003
▁icit	-5004
▁itor	-5005
▁Anton	-5006
▁ideal	-5007
▁ficial	-5008
▁eastern	-5009
▁edicated	-5010
90	-5011
lot	-5012
▁Ask	-5013
▁Dou	-5014
▁Shan	-5015
▁anni	-5016
▁bell	-5017
▁equit	-5018
▁exhibit	-5019
▁qualify	-5020
met	-5021
part	-5022
▁Coo	-5023
▁Ker	-5024
▁Pay	-5025
▁fis	-5026
antic	-5027
ioned	-5028
▁riot	-5029
▁react	-5030
▁cution	-5031
▁shadow	-5032
▁Defense	-5033
▁delight	-5034
▁za	-5035
▁Bla	-5036
▁Gor	-5037
▁tim	-5038
inger	-5039
▁Down	-5040
▁immun	-5041
▁traum	-5042
cussion	-5043
▁convince	-5044
%,	-5045
ps	-5046
ita	-5047
▁Ly	-5048
▁Gab	-5049
▁sch	-5050
▁Palm	-5051
▁rape	-5052
iminat	-5053
▁candal	-5054
▁condemn	-5055
acu	-5056
▁leak	-5057
▁iness	-5058
▁micro	-5059
▁Virgin	-5060
▁mentioned	-5061
▁reference	-5062
▁32	-5063
amic	-5064
▁nda	-5065
▁rug	-5066
▁Camp	-5067
▁Phil	-5068
▁adjust	-5069
▁motion	-5070
▁corrupt	-5071
▁ologist	-5072
▁organise	-5073
On	-5074
pan	-5075
▁AF	-5076
hand	-5077
hise	-5078
▁bin	-5079
ordan	-5080
ortion	-5081
▁Media	-5082
▁Valle	-5083
▁combat	-5084
amb	-5085
opp	-5086
▁golf	-5087
▁ture	-5088
▁Obama	-5089
▁pilot	-5090
▁planet	-5091
▁tensive	-5092
▁Mas	-5093
▁Son	-5094
itect	-5095
▁cheer	-5096
▁plead	-5097
▁radio	-5098
▁tactic	-5099
ima	-5100
lin	-5101
▁Lad	-5102
▁pit	-5103
▁rub	-5104
sylum	-5105
▁tine	-5106
▁Roman	-5107
▁Water	-5108
▁rapid	-5109
▁asylum	-5110
▁carbon	-5111
▁plastic	-5112
▁instruct	-5113
▁regulator	-5114
isan	-5115
onym	-5116
▁Boy	-5117
▁Hur	-5118
▁bak	-5119
▁Walz	-5120
▁dian	-5121
▁excl	-5122
▁uine	-5123
▁Author	-5124
▁Common	-5125
▁isaster	-5126
▁exclusive	-5127
▁surprising	-5128
8-	-5129
nap	-5130
▁36	-5131
ibly	-5132
odge	-5133
rena	-5134
▁vow	-5135
Every	-5136
▁ride	-5137
▁Jordan	-5138
▁hopper	-5139
▁credibly	-5140
umn	-5141
way	-5142
▁Nik	-5143
▁Ros	-5144
▁calm	-5145
▁riff	-5146
▁conce	-5147
▁franc	-5148
▁reput	-5149
▁honour	-5150
▁therapy	-5151
html	-5152
▁Plu	-5153
▁gotten	-5154
▁igator	-5155
▁eliminat	-5156
by	-5157
rey	-5158
▁45	-5159
▁GM	-5160
▁Mu	-5161
▁VID	-5162
▁reb	-5163
▁Bang	-5164
▁Life	-5165
▁aved	-5166
▁drag	-5167
▁2020.	-5168
▁Robin	-5169
▁entry	-5170
▁stadium	-5171
▁franchise	-5172
▁ի	-5173
spe	-5174
▁Na	-5175
body	-5176
▁Hag	-5177
▁jet	-5178
elect	-5179
▁Jess	-5180
▁pray	-5181
▁Bridge	-5182
▁comput	-5183
▁detain	-5184
▁native	-5185
7-	-5186
inn	-5187
lax	-5188
duct	-5189
llor	-5190
▁Tech	-5191
▁mond	-5192
licate	-5193
▁ication	-5194
▁tunning	-5195
TV	-5196
itol	-5197
▁Tam	-5198
ensky	-5199
▁Bowl	-5200
▁Ohio	-5201
▁virt	-5202
▁export	-5203
▁alliance	-5204
▁approval	-5205
▁(£	-5206
▁rot	-5207
cious	-5208
▁Elli	-5209
▁Fest	-5210
▁Rose	-5211
▁acad	-5212
▁iest	-5213
▁habit	-5214
▁shell	-5215
▁arrange	-5216
▁internal	-5217
bu	-5218
▁Ur	-5219
isor	-5220
▁Ever	-5221
▁Fire	-5222
▁nick	-5223
ricane	-5224
▁ional	-5225
▁outfit	-5226
▁submit	-5227
▁concert	-5228
wk	-5229
▁í	-5230
200	-5231
▁Coh	-5232
▁Nar	-5233
▁Rob	-5234
▁cup	-5235
▁gon	-5236
▁kil	-5237
▁uck	-5238
▁bies	-5239
▁Capitol	-5240
▁Zelensky	-5241
▁overwhelm	-5242
▁religious	-5243
gic	-5244
lig	-5245
vit	-5246
wel	-5247
▁ID	-5248
▁vin	-5249
grade	-5250
▁Vlad	-5251
▁occup	-5252
▁optim	-5253
▁shirt	-5254
Ne	-5255
▁NE	-5256
"},{"	-5257
▁Stri	-5258
▁Tony	-5259
▁Walk	-5260
▁Micro	-5261
▁loyal	-5262
▁xi	-5263
teer	-5264
▁Bus	-5265
▁Dor	-5266
▁pour	-5267
unteer	-5268
▁guess	-5269
▁promo	-5270
▁impose	-5271
//	-5272
ttp	-5273
▁Yo	-5274
▁Ast	-5275
▁kov	-5276
▁mad	-5277
▁dies	-5278
▁rier	-5279
rovers	-5280
▁motiv	-5281
▁psych	-5282
roversial	-5283
thi	-5284
▁Ta	-5285
▁Vo	-5286
▁bol	-5287
▁bow	-5288
▁ens	-5289
▁rell	-5290
▁Ander	-5291
▁Color	-5292
▁Young	-5293
▁align	-5294
▁chart	-5295
▁tepped	-5296
▁speaker	-5297
▁creation	-5298
▁recognize	-5299
://	-5300
▁DA	-5301
▁PR	-5302
▁Cru	-5303
▁awa	-5304
▁rac	-5305
▁tol	-5306
ictly	-5307
▁Rock	-5308
▁drew	-5309
cellor	-5310
▁appli	-5311
▁moral	-5312
▁breach	-5313
▁string	-5314
▁omorrow	-5315
▁trictly	-5316
▁militant	-5317
ien	-5318
▁Ut	-5319
▁Mem	-5320
▁Old	-5321
▁USA	-5322
▁mir	-5323
▁Week	-5324
▁snap	-5325
▁Where	-5326
▁shore	-5327
▁taste	-5328
▁wheel	-5329
▁finger	-5330
▁piracy	-5331
▁tional	-5332
▁defensive	-5333
▁appreciate	-5334
▁TH	-5335
▁ef	-5336
ttan	-5337
▁Fer	-5338
▁gym	-5339
ulous	-5340
▁hung	-5341
▁pric	-5342
▁Madri	-5343
▁relax	-5344
▁hattan	-5345
▁cutting	-5346
▁charging	-5347
▁ES	-5348
▁Ka	-5349
▁SN	-5350
utal	-5351
▁10-	-5352
▁ile	-5353
▁Land	-5354
▁aire	-5355
▁cine	-5356
▁forc	-5357
▁jack	-5358
▁math	-5359
▁Mitch	-5360
▁blast	-5361
assador	-5362
certain	-5363
▁Report	-5364
▁conven	-5365
▁contribution	-5366
NA	-5367
ker	-5368
nee	-5369
▁xy	-5370
ocol	-5371
First	-5372
night	-5373
▁Bull	-5374
▁quit	-5375
▁teal	-5376
To	-5377
ell	-5378
>,""	-5379
osit	-5380
scri	-5381
▁Way	-5382
▁2000	-5383
ocolat	-5384
▁Final	-5385
▁sters	-5386
Element	-5387
▁bourne	-5388
▁reputation	-5389
23	-5390
lder	-5391
pear	-5392
▁Ban	-5393
▁Hay	-5394
▁ella	-5395
▁evacu	-5396
▁troph	-5397
▁casual	-5398
▁graduate	-5399
▁corporate	-5400
osis	-5401
▁Leg	-5402
▁Zea	-5403
▁dyn	-5404
▁Asia	-5405
▁impl	-5406
▁fatal	-5407
▁proved	-5408
▁diagnose	-5409
▁aggressive	-5410
ede	-5411
▁RA	-5412
imir	-5413
▁NAS	-5414
▁bul	-5415
▁Turn	-5416
▁keen	-5417
▁matic	-5418
▁35	-5419
▁ug	-5420
cont	-5421
▁Kha	-5422
▁tag	-5423
astic	-5424
▁narrow	-5425
▁unveil	-5426
▁embrace	-5427
▁outdoor	-5428
▁controversial	-5429
All	-5430
▁LE	-5431
mbol	-5432
▁Did	-5433
▁Kur	-5434
▁Lok	-5435
▁ici	-5436
▁lov	-5437
▁2017	-5438
▁Cana	-5439
▁Wild	-5440
▁tiny	-5441
▁notic	-5442
▁theat	-5443
related	-5444
▁crypto	-5445
▁silver	-5446
▁Sk	-5447
▁dez	-5448
▁lor	-5449
▁ram	-5450
▁Book	-5451
▁beth	-5452
▁loud	-5453
▁contr	-5454
▁shake	-5455
▁assure	-5456
yo	-5457
low	-5458
▁8.	-5459
▁Pl	-5460
sist	-5461
▁Bor	-5462
▁Hale	-5463
▁compl	-5464
▁define	-5465
▁BlockElement	-5466
col	-5467
▁pad	-5468
▁syn	-5469
▁una	-5470
hetic	-5471
▁Stan	-5472
▁milk	-5473
▁Board	-5474
▁dispu	-5475
▁evast	-5476
▁itzer	-5477
▁navig	-5478
▁patter	-5479
▁Attorney	-5480
▁evastating	-5481
▁industrial	-5482
▁Ah	-5483
embl	-5484
ries	-5485
wart	-5486
▁Has	-5487
▁Six	-5488
▁Lion	-5489
▁Mass	-5490
▁stro	-5491
▁wick	-5492
▁Sever	-5493
▁Villa	-5494
▁Edward	-5495
▁borrow	-5496
▁minimum	-5497
▁Vladimir	-5498
ski	-5499
sue	-5500
▁Vi	-5501
▁eb	-5502
▁Para	-5503
▁Plan	-5504
▁empt	-5505
▁mash	-5506
▁rang	-5507
▁accur	-5508
▁dated	-5509
▁earth	-5510
▁brutal	-5511
▁chemical	-5512
den	-5513
▁6,	-5514
▁Ga	-5515
▁ye	-5516
▁Tok	-5517
▁cia	-5518
amine	-5519
▁Anth	-5520
▁Jean	-5521
▁slip	-5522
▁Michel	-5523
▁pursue	-5524
▁assembl	-5525
▁premier	-5526
sa	-5527
ón	-5528
bet	-5529
▁($	-5530
▁Mir	-5531
▁ain	-5532
▁mun	-5533
▁tie	-5534
▁shoe	-5535
50,000	-5536
▁Major	-5537
▁Cooper	-5538
▁museum	-5539
▁suburb	-5540
▁Reuters	-5541
▁divorce	-5542
▁omebody	-5543
▁volunteer	-5544
Al	-5545
hal	-5546
ici	-5547
▁Dy	-5548
▁£4	-5549
fill	-5550
host	-5551
life	-5552
mber	-5553
▁Lau	-5554
▁atm	-5555
▁eco	-5556
▁mit	-5557
▁Mayor	-5558
▁arian	-5559
▁drawn	-5560
▁branch	-5561
▁counsel	-5562
▁architect	-5563
▁uncertain	-5564
▁DP	-5565
▁EV	-5566
▁Ath	-5567
▁Pel	-5568
▁dig	-5569
▁Gala	-5570
▁Ethio	-5571
▁anonym	-5572
▁symbol	-5573
▁caption	-5574
amin	-5575
esla	-5576
▁Ira	-5577
▁Lis	-5578
▁pov	-5579
▁Ball	-5580
Credit	-5581
▁phase	-5582
▁slide	-5583
▁indict	-5584
▁warrant	-5585
▁continent	-5586
▁collective	-5587
Oh	-5588
.""	-5589
erb	-5590
pel	-5591
▁7,	-5592
▁WA	-5593
▁Sar	-5594
▁Top	-5595
▁iff	-5596
month	-5597
▁Cart	-5598
▁Cole	-5599
▁Fort	-5600
▁alarm	-5601
▁grave	-5602
▁meters	-5603
▁rocket	-5604
▁Festival	-5605
▁pregnant	-5606
75	-5607
▁Bi	-5608
▁ER	-5609
":"<	-5610
hour	-5611
tion	-5612
▁Bha	-5613
rance	-5614
▁meat	-5615
▁zero	-5616
▁Coast	-5617
▁logue	-5618
▁shout	-5619
amental	-5620
▁Church	-5621
▁beaten	-5622
▁pollut	-5623
▁square	-5624
▁caution	-5625
bo	-5626
cha	-5627
ooth	-5628
▁Sud	-5629
▁Sum	-5630
▁dar	-5631
▁por	-5632
uster	-5633
▁Alli	-5634
▁boast	-5635
▁colon	-5636
▁stein	-5637
▁constitutional	-5638
IS	-5639
ata	-5640
ope	-5641
ansa	-5642
hens	-5643
▁Lan	-5644
▁Vis	-5645
▁ena	-5646
▁map	-5647
▁Conf	-5648
▁Emil	-5649
▁Take	-5650
▁cott	-5651
▁mony	-5652
▁pill	-5653
▁tant	-5654
ternal	-5655
▁Santa	-5656
▁resum	-5657
▁spell	-5658
▁xiety	-5659
▁Senator	-5660
▁Ak	-5661
▁Ec	-5662
▁zz	-5663
▁194	-5664
▁Mah	-5665
▁ini	-5666
▁Beij	-5667
▁Ross	-5668
▁toll	-5669
▁Tesla	-5670
▁lunch	-5671
▁plate	-5672
▁posing	-5673
▁regret	-5674
▁remote	-5675
19	-5676
▁fab	-5677
▁gor	-5678
▁2019.	-5679
▁Local	-5680
▁deleg	-5681
▁gging	-5682
▁lining	-5683
16	-5684
PA	-5685
ey	-5686
chi	-5687
ele	-5688
▁Cr	-5689
▁GA	-5690
enia	-5691
▁Nas	-5692
▁Pop	-5693
▁Tru	-5694
▁Hamp	-5695
▁anda	-5696
▁bury	-5697
▁haul	-5698
▁mere	-5699
▁moon	-5700
▁rack	-5701
▁Kansa	-5702
▁bread	-5703
▁grate	-5704
▁liver	-5705
▁compens	-5706
▁musical	-5707
36	-5708
At	-5709
▁5,	-5710
vere	-5711
▁nat	-5712
▁quot	-5713
▁salt	-5714
▁layer	-5715
▁curren	-5716
▁retain	-5717
cussions	-5718
▁Prosecut	-5719
▁iscussions	-5720
22	-5721
▁ABC	-5722
▁Bak	-5723
▁Int	-5724
class	-5725
▁Cast	-5726
▁guid	-5727
▁lett	-5728
▁mium	-5729
▁skip	-5730
▁Stock	-5731
▁Storm	-5732
▁Anthony	-5733
▁Project	-5734
▁diagnosis	-5735
1-	-5736
ese	-5737
mat	-5738
▁3,	-5739
▁Ri	-5740
pass	-5741
▁Vin	-5742
▁ich	-5743
▁rah	-5744
▁2015	-5745
▁mail	-5746
▁raid	-5747
▁Dodge	-5748
▁cloud	-5749
▁addict	-5750
▁breast	-5751
▁commod	-5752
▁placing	-5753
▁profile	-5754
▁chocolat	-5755
▁ensitive	-5756
.</	-5757
▁pu	-5758
▁vo	-5759
▁Hon	-5760
osite	-5761
▁Cost	-5762
▁Food	-5763
▁Hard	-5764
▁Kent	-5765
▁crib	-5766
▁cute	-5767
▁reek	-5768
▁Power	-5769
▁brush	-5770
▁grace	-5771
▁expans	-5772
▁killer	-5773
▁lessly	-5774
▁reader	-5775
▁Develop	-5776
▁subscri	-5777
▁interact	-5778
14	-5779
18	-5780
het	-5781
ras	-5782
▁ik	-5783
▁Rah	-5784
▁Wis	-5785
▁fro	-5786
erial	-5787
▁pile	-5788
▁scal	-5789
ladesh	-5790
▁yellow	-5791
▁opposite	-5792
ON	-5793
ana	-5794
▁9.	-5795
▁Ac	-5796
▁Aga	-5797
▁Jen	-5798
▁Rub	-5799
▁Tro	-5800
▁fas	-5801
▁mas	-5802
▁Luke	-5803
▁craz	-5804
▁hail	-5805
▁knee	-5806
▁roof	-5807
▁ening	-5808
▁grass	-5809
▁lence	-5810
▁nurse	-5811
▁pocket	-5812
▁termin	-5813
▁inspect	-5814
="	-5815
▁49	-5816
high	-5817
nerg	-5818
▁Ang	-5819
azine	-5820
▁Moor	-5821
▁Prot	-5822
▁Wind	-5823
▁bone	-5824
▁halt	-5825
antial	-5826
▁Helen	-5827
▁Organ	-5828
▁moder	-5829
▁magazine	-5830
cifi	-5831
▁Doug	-5832
▁chef	-5833
▁liqu	-5834
appear	-5835
▁Eliza	-5836
▁plain	-5837
▁sugar	-5838
▁weigh	-5839
▁levant	-5840
▁smooth	-5841
▁Football	-5842
▁AL	-5843
▁300	-5844
▁Kir	-5845
▁cul	-5846
▁nan	-5847
▁Comb	-5848
▁Maha	-5849
▁Pale	-5850
▁aide	-5851
▁kilo	-5852
▁disci	-5853
▁nesota	-5854
secutive	-5855
▁dominate	-5856
▁provision	-5857
Af	-5858
gue	-5859
Some	-5860
▁Gre	-5861
▁fel	-5862
▁nei	-5863
▁Town	-5864
▁error	-5865
▁rebel	-5866
▁behavior	-5867
▁fantastic	-5868
▁fundamental	-5869
▁ML	-5870
▁Abb	-5871
▁Cab	-5872
▁Vol	-5873
▁eva	-5874
▁ita	-5875
wanda	-5876
▁Arch	-5877
▁Bron	-5878
ournal	-5879
▁Celeb	-5880
▁Conne	-5881
▁Metro	-5882
▁topic	-5883
▁Matthew	-5884
▁triking	-5885
▁partisan	-5886
▁valuable	-5887
▁ubstantial	-5888
2-	-5889
54	-5890
▁հ	-5891
▁Ok	-5892
▁Card	-5893
▁file	-5894
▁impe	-5895
▁lace	-5896
▁magn	-5897
crimin	-5898
▁Human	-5899
▁Armenia	-5900
▁computer	-5901
▁Bangladesh	-5902
▁experiment	-5903
***	-5904
Con	-5905
phi	-5906
▁UC	-5907
▁pp	-5908
agle	-5909
open	-5910
wing	-5911
▁Die	-5912
▁Low	-5913
▁Rog	-5914
▁Sav	-5915
binet	-5916
▁asso	-5917
▁hint	-5918
▁Music	-5919
▁Stone	-5920
▁resto	-5921
▁strip	-5922
▁Econom	-5923
▁fiscal	-5924
▁permit	-5925
▁recipe	-5926
▁Special	-5927
▁cabinet	-5928
Tr	-5929
itz	-5930
▁Adv	-5931
▁Cli	-5932
onsor	-5933
ureau	-5934
▁elev	-5935
▁mask	-5936
▁pump	-5937
▁Dutch	-5938
▁Night	-5939
▁thick	-5940
▁Museum	-5941
▁repair	-5942
▁solved	-5943
▁consecutive	-5944
mak	-5945
owa	-5946
▁ek	-5947
▁ze	-5948
ings	-5949
▁rag	-5950
▁Hind	-5951
▁Lind	-5952
▁efer	-5953
▁flav	-5954
▁izes	-5955
friend	-5956
▁knife	-5957
▁sheet	-5958
istance	-5959
▁Global	-5960
▁Master	-5961
▁Morgan	-5962
▁tragic	-5963
▁Profess	-5964
▁succeed	-5965
▁eferring	-5966
▁Gro	-5967
▁Mau	-5968
▁Non	-5969
▁Raj	-5970
▁ded	-5971
▁bike	-5972
▁laid	-5973
▁1,000	-5974
▁Mount	-5975
▁ridge	-5976
▁buyers	-5977
▁resort	-5978
rd	-5979
▁$4	-5980
▁Hung	-5981
▁Meta	-5982
▁iron	-5983
▁tent	-5984
Americ	-5985
▁Dalla	-5986
▁Kings	-5987
▁scent	-5988
▁upgrade	-5989
▁Alexander	-5990
35	-5991
ET	-5992
եր	-5993
▁("	-5994
2024	-5995
▁Var	-5996
▁nom	-5997
▁lung	-5998
▁2018,	-5999
▁Energ	-6000
▁endra	-6001
▁magic	-6002
▁testi	-6003
▁Assemb	-6004
▁Spring	-6005
▁excess	-6006
▁discipl	-6007
Ye	-6008
aze	-6009
dis	-6010
▁4,	-6011
born	-6012
pret	-6013
▁Medi	-6014
▁sack	-6015
▁embar	-6016
▁punch	-6017
▁solar	-6018
▁Rwanda	-6019
▁Second	-6020
▁mechan	-6021
▁disappear	-6022
▁principle	-6023
emy	-6024
ounc	-6025
▁2014	-6026
▁Iowa	-6027
▁bing	-6028
▁icon	-6029
▁scen	-6030
▁soul	-6031
▁wire	-6032
▁Trust	-6033
▁runner	-6034
▁democrat	-6035
▁Represent	-6036
Text	-6037
half	-6038
http	-6039
▁cab	-6040
▁Benj	-6041
▁hell	-6042
▁memo	-6043
ribute	-6044
▁2025.	-6045
▁Broad	-6046
▁Exper	-6047
▁Heart	-6048
▁Laure	-6049
▁concept	-6050
▁virtual	-6051
▁romantic	-6052
▁promotion	-6053
▁Constitution	-6054
].	-6055
but	-6056
phy	-6057
▁Ol	-6058
ixel	-6059
sess	-6060
▁Dev	-6061
▁Rav	-6062
▁Roh	-6063
▁geo	-6064
ument	-6065
▁Cook	-6066
▁acqu	-6067
osphere	-6068
▁depress	-6069
▁dynamic	-6070
▁liberal	-6071
▁tourism	-6072
55	-6073
udd	-6074
▁10.	-6075
▁Bon	-6076
▁Row	-6077
▁bat	-6078
▁mos	-6079
▁rig	-6080
▁Bern	-6081
▁Fund	-6082
▁cake	-6083
▁hide	-6084
▁lake	-6085
▁sole	-6086
▁Haiti	-6087
▁noise	-6088
stitute	-6089
▁assert	-6090
▁script	-6091
▁deposit	-6092
▁cognition	-6093
▁atmosphere	-6094
▁մ	-6095
pha	-6096
unn	-6097
oose	-6098
andhi	-6099
icate	-6100
▁Main	-6101
▁bail	-6102
▁copy	-6103
▁tics	-6104
"},{"_	-6105
▁Rishi	-6106
▁tweet	-6107
▁veget	-6108
▁Argent	-6109
▁butter	-6110
▁latter	-6111
cedented	-6112
▁advisor	-6113
▁disorder	-6114
precedented	-6115
An	-6116
:30	-6117
los	-6118
▁Il	-6119
gain	-6120
riot	-6121
▁Imp	-6122
0,000	-6123
▁Buck	-6124
▁vince	-6125
icipate	-6126
redient	-6127
▁circul	-6128
▁idence	-6129
▁urging	-6130
▁scrutin	-6131
▁venture	-6132
Un	-6133
llip	-6134
▁400	-6135
▁Bry	-6136
▁ets	-6137
▁hub	-6138
▁rus	-6139
▁tea	-6140
engal	-6141
▁Beck	-6142
▁Educ	-6143
▁Jere	-6144
▁seal	-6145
▁metal	-6146
▁twist	-6147
▁volum	-6148
▁cheese	-6149
▁Morning	-6150
▁Picture	-6151
▁ingredient	-6152
foot	-6153
▁Sci	-6154
▁ske	-6155
ifest	-6156
▁flee	-6157
▁ramp	-6158
iction	-6159
▁Brand	-6160
▁amend	-6161
▁Journal	-6162
▁explosion	-6163
▁OK	-6164
ilet	-6165
olic	-6166
▁Ill	-6167
▁cyc	-6168
▁phi	-6169
ocide	-6170
▁cart	-6171
▁tive	-6172
consin	-6173
▁Labor	-6174
▁neath	-6175
▁proof	-6176
▁Morris	-6177
▁Reform	-6178
▁harass	-6179
▁muscle	-6180
▁Display	-6181
▁ologies	-6182
▁complicate	-6183
-6	-6184
kn	-6185
Don	-6186
ird	-6187
uce	-6188
▁$1.	-6189
▁Abu	-6190
▁Mol	-6191
▁hrew	-6192
▁merg	-6193
▁Allen	-6194
▁Hotel	-6195
▁Saint	-6196
▁stair	-6197
▁ultra	-6198
election	-6199
▁merging	-6200
▁congress	-6201
><	-6202
AN	-6203
Do	-6204
One	-6205
oon	-6206
▁Ib	-6207
otic	-6208
with	-6209
▁pup	-6210
style	-6211
▁1990	-6212
▁Bord	-6213
▁cong	-6214
▁Price	-6215
▁Strip	-6216
▁Video	-6217
▁tower	-6218
▁Steven	-6219
▁compre	-6220
How	-6221
▁37	-6222
▁Ti	-6223
load	-6224
size	-6225
▁Gil	-6226
▁duo	-6227
▁gay	-6228
▁ket	-6229
▁ore	-6230
umbai	-6231
▁Head	-6232
▁Shah	-6233
▁flex	-6234
▁gall	-6235
▁hack	-6236
▁hook	-6237
▁sail	-6238
▁span	-6239
▁visa	-6240
▁cable	-6241
▁elder	-6242
▁ethic	-6243
▁flash	-6244
▁lance	-6245
▁pause	-6246
▁rever	-6247
▁Berlin	-6248
▁rumour	-6249
▁Phillip	-6250
▁context	-6251
▁radical	-6252
▁theatre	-6253
▁Education	-6254
ար	-6255
can	-6256
▁ND	-6257
▁Oh	-6258
▁Lev	-6259
umbia	-6260
▁Thom	-6261
▁ened	-6262
▁libr	-6263
▁chill	-6264
▁crore	-6265
▁oblig	-6266
▁slamm	-6267
▁Gandhi	-6268
▁bedroom	-6269
▁edition	-6270
▁outrage	-6271
▁silence	-6272
▁emphasis	-6273
fy	-6274
tw	-6275
upt	-6276
▁Hu	-6277
▁IV	-6278
▁Lar	-6279
▁Tar	-6280
▁lam	-6281
lotte	-6282
▁Emer	-6283
▁Evan	-6284
▁Mala	-6285
▁ensu	-6286
▁lane	-6287
▁nail	-6288
adline	-6289
rition	-6290
▁intim	-6291
▁onent	-6292
▁acquir	-6293
▁toilet	-6294
▁exploit	-6295
▁Wisconsin	-6296
▁necessarily	-6297
>\	-6298
bby	-6299
▁RO	-6300
▁ot	-6301
▁Lyn	-6302
▁lip	-6303
atell	-6304
▁Leon	-6305
▁stag	-6306
▁zing	-6307
▁crown	-6308
▁float	-6309
▁ually	-6310
▁Mumbai	-6311
▁advent	-6312
▁nathan	-6313
▁stroke	-6314
atellite	-6315
▁convert	-6316
▁eadline	-6317
▁visible	-6318
28	-6319
▁AC	-6320
▁AR	-6321
lipp	-6322
▁Aff	-6323
▁Mat	-6324
▁Gill	-6325
▁anna	-6326
▁diff	-6327
▁mood	-6328
▁soar	-6329
▁tort	-6330
▁twin	-6331
▁wich	-6332
▁Bengal	-6333
▁Budget	-6334
▁academic	-6335
▁expansion	-6336
xit	-6337
▁Ea	-6338
▁IM	-6339
▁Est	-6340
▁Hor	-6341
▁Sub	-6342
▁vit	-6343
elphi	-6344
▁edit	-6345
▁medi	-6346
▁obst	-6347
▁admir	-6348
▁sweep	-6349
▁Lauren	-6350
▁deport	-6351
▁offend	-6352
▁portray	-6353
▁suicide	-6354
▁Administ	-6355
▁conscious	-6356
49	-6357
▁48	-6358
▁ET	-6359
roll	-6360
sper	-6361
▁Jake	-6362
▁Krem	-6363
▁dose	-6364
▁peer	-6365
▁funny	-6366
▁manifest	-6367
▁efficient	-6368
▁reduction	-6369
▁democratic	-6370
▁proportion	-6371
▁TI	-6372
cend	-6373
cord	-6374
raid	-6375
stal	-6376
▁18,	-6377
▁Bey	-6378
▁Ult	-6379
▁dit	-6380
▁burg	-6381
▁mart	-6382
▁pson	-6383
▁styl	-6384
▁util	-6385
▁eager	-6386
▁relat	-6387
▁sauce	-6388
▁scrap	-6389
▁toxic	-6390
▁troll	-6391
ladelphi	-6392
▁concent	-6393
▁intervention	-6394
37	-6395
hl	-6396
law	-6397
▁DI	-6398
▁SC	-6399
▁Yu	-6400
utor	-6401
▁Som	-6402
▁Wat	-6403
▁1980	-6404
▁Pass	-6405
▁Turk	-6406
▁enth	-6407
▁Domin	-6408
▁bounc	-6409
▁donor	-6410
▁march	-6411
▁shine	-6412
▁smoke	-6413
herland	-6414
▁attach	-6415
▁clusive	-6416
▁courage	-6417
▁Columbia	-6418
27	-6419
▁$6	-6420
▁DC	-6421
mell	-6422
▁30-	-6423
▁Rat	-6424
▁tap	-6425
agree	-6426
inton	-6427
▁Care	-6428
▁Fern	-6429
▁Film	-6430
▁agon	-6431
▁Radio	-6432
▁ignit	-6433
▁index	-6434
▁lated	-6435
vereign	-6436
▁Affair	-6437
▁Netherland	-6438
hu	-6439
▁HO	-6440
list	-6441
ried	-6442
▁10,	-6443
▁Kan	-6444
▁Set	-6445
▁oon	-6446
herit	-6447
▁Carr	-6448
▁Fair	-6449
▁eron	-6450
▁grid	-6451
▁tick	-6452
▁worn	-6453
▁fault	-6454
▁Russell	-6455
▁prohibit	-6456
▁sistance	-6457
▁embarrass	-6458
▁unprecedented	-6459
3-	-6460
sha	-6461
▁AT	-6462
▁FO	-6463
▁NY	-6464
▁PC	-6465
▁VP	-6466
▁Ya	-6467
▁12.	-6468
▁Ren	-6469
▁pia	-6470
found	-6471
▁Burn	-6472
▁Girl	-6473
▁fier	-6474
▁kiss	-6475
▁Chair	-6476
▁blind	-6477
▁psycho	-6478
▁racial	-6479
▁Philipp	-6480
▁cribing	-6481
▁lateral	-6482
▁Charlotte	-6483
▁Philadelphi	-6484
],"	-6485
eve	-6486
▁$5	-6487
▁39	-6488
▁Cir	-6489
▁Pur	-6490
▁Wol	-6491
▁nie	-6492
harma	-6493
▁Eric	-6494
▁Farm	-6495
▁assy	-6496
▁cher	-6497
▁hire	-6498
▁nerv	-6499
▁pipe	-6500
▁rice	-6501
▁2016,	-6502
▁Alban	-6503
▁angle	-6504
▁blend	-6505
▁cyber	-6506
▁Market	-6507
▁Murphy	-6508
▁experi	-6509
▁Business	-6510
▁distinct	-6511
▁musician	-6512
▁Convention	-6513
▁ay	-6514
atar	-6515
head	-6516
▁12-	-6517
▁Amb	-6518
▁Emp	-6519
▁Sri	-6520
▁wal	-6521
▁bett	-6522
▁lice	-6523
▁Enter	-6524
▁bless	-6525
▁mobil	-6526
▁posed	-6527
▁Square	-6528
▁calcul	-6529
▁applied	-6530
▁license	-6531
▁Catholic	-6532
▁external	-6533
▁liberate	-6534
▁ambassador	-6535
ulf	-6536
▁38	-6537
▁AN	-6538
▁Fa	-6539
▁ME	-6540
▁tu	-6541
▁Len	-6542
▁Mot	-6543
▁ola	-6544
spond	-6545
▁Bear	-6546
▁agri	-6547
▁Crime	-6548
▁Cross	-6549
▁ocean	-6550
▁urban	-6551
profile	-6552
▁Forest	-6553
▁foster	-6554
▁resist	-6555
▁Clinton	-6556
▁contend	-6557
▁inherit	-6558
▁accurate	-6559
▁evolution	-6560
6-	-6561
azi	-6562
war	-6563
▁ff	-6564
With	-6565
celo	-6566
less	-6567
▁ank	-6568
▁jan	-6569
▁ual	-6570
▁var	-6571
licit	-6572
quate	-6573
ratul	-6574
stery	-6575
▁Case	-6576
▁Ferr	-6577
▁mont	-6578
▁phen	-6579
▁tale	-6580
▁tone	-6581
▁brown	-6582
▁burst	-6583
▁chant	-6584
▁nique	-6585
▁rence	-6586
▁scope	-6587
▁upper	-6588
▁afraid	-6589
▁examine	-6590
▁funeral	-6591
?'	-6592
km	-6593
Whi	-6594
iev	-6595
▁CD	-6596
▁MI	-6597
▁Pi	-6598
winn	-6599
▁Fla	-6600
▁Pot	-6601
▁Ret	-6602
romis	-6603
▁Barn	-6604
▁Make	-6605
▁gins	-6606
▁glor	-6607
▁mill	-6608
▁stem	-6609
▁circl	-6610
▁iture	-6611
▁ystery	-6612
--	-6613
29	-6614
Pe	-6615
ta	-6616
Har	-6617
oni	-6618
▁PD	-6619
game	-6620
ivot	-6621
▁Blo	-6622
▁iev	-6623
,000.	-6624
▁Anna	-6625
▁fitt	-6626
▁gear	-6627
▁juic	-6628
▁2017,	-6629
▁Event	-6630
▁Santi	-6631
hetoric	-6632
▁Garden	-6633
▁cruise	-6634
▁liquid	-6635
▁faction	-6636
▁iciency	-6637
▁persist	-6638
▁adequate	-6639
▁practical	-6640
▁sovereign	-6641
▁sufficient	-6642
▁կ	-6643
▁DO	-6644
▁mu	-6645
▁Hal	-6646
▁gig	-6647
▁gut	-6648
break	-6649
▁lone	-6650
▁mock	-6651
▁herita	-6652
▁invent	-6653
▁obsess	-6654
▁rhetoric	-6655
▁anticipate	-6656
Man	-6657
olar	-6658
▁25,	-6659
▁Aut	-6660
▁gal	-6661
feree	-6662
▁Fred	-6663
▁anne	-6664
▁deem	-6665
▁thin	-6666
▁wipe	-6667
▁erson	-6668
▁ubstance	-6669
▁Christoph	-6670
jo	-6671
key	-6672
▁8,	-6673
▁ան	-6674
rink	-6675
umph	-6676
▁11.	-6677
▁Tan	-6678
Trump	-6679
licop	-6680
▁2012	-6681
▁Thai	-6682
▁abad	-6683
▁brow	-6684
▁ctor	-6685
▁dale	-6686
▁shed	-6687
▁tape	-6688
▁graph	-6689
▁assign	-6690
▁compos	-6691
licopter	-6692
▁disagree	-6693
▁genocide	-6694
▁comprehens	-6695
որ	-6696
sum	-6697
▁3-	-6698
▁OS	-6699
▁nu	-6700
▁vy	-6701
ipul	-6702
stra	-6703
▁Dol	-6704
▁thy	-6705
using	-6706
▁Pitt	-6707
▁hike	-6708
▁pure	-6709
▁erupt	-6710
▁ncing	-6711
▁associ	-6712
▁easing	-6713
▁kidnap	-6714
▁trauma	-6715
▁Barcelo	-6716
▁romance	-6717
▁sponsor	-6718
▁qualified	-6719
4-	-6720
ni	-6721
izz	-6722
▁Pu	-6723
▁ua	-6724
▁Lin	-6725
▁See	-6726
▁Tow	-6727
▁dub	-6728
guard	-6729
level	-6730
oviet	-6731
▁Glen	-6732
▁glam	-6733
▁pink	-6734
▁ruin	-6735
▁Crown	-6736
▁smell	-6737
▁steel	-6738
▁theft	-6739
▁burden	-6740
▁equent	-6741
▁topping	-6742
▁correspond	-6743
▁helicopter	-6744
AF	-6745
La	-6746
pr	-6747
jan	-6748
whi	-6749
▁ax	-6750
eter	-6751
iven	-6752
▁150	-6753
▁iya	-6754
▁Chat	-6755
▁bold	-6756
▁foss	-6757
▁lakh	-6758
▁mies	-6759
▁charm	-6760
▁decor	-6761
▁payer	-6762
▁tical	-6763
▁decent	-6764
▁Mexican	-6765
▁partial	-6766
▁Official	-6767
▁currency	-6768
▁nominate	-6769
▁compromis	-6770
▁satellite	-6771
▁reasonable	-6772
13	-6773
US	-6774
gi	-6775
rik	-6776
ancy	-6777
fire	-6778
inch	-6779
▁17,	-6780
▁20,	-6781
▁Cre	-6782
▁Det	-6783
known	-6784
regon	-6785
▁1970	-6786
▁Viet	-6787
▁boom	-6788
▁demo	-6789
▁echo	-6790
▁Jenni	-6791
▁Qatar	-6792
▁blank	-6793
▁chest	-6794
▁legit	-6795
▁swift	-6796
▁Country	-6797
▁fortune	-6798
▁instant	-6799
98	-6800
ins	-6801
▁AD	-6802
▁Ox	-6803
▁SP	-6804
empt	-6805
gian	-6806
▁Cas	-6807
▁Inc	-6808
▁marg	-6809
▁smok	-6810
▁tile	-6811
▁felon	-6812
▁pride	-6813
▁bitter	-6814
▁bullet	-6815
▁Command	-6816
▁minster	-6817
▁electronic	-6818
▁productive	-6819
you	-6820
▁FT	-6821
ario	-6822
neur	-6823
▁16,	-6824
▁27,	-6825
▁Avi	-6826
▁dan	-6827
▁lah	-6828
▁mel	-6829
▁ova	-6830
▁Ford	-6831
▁dust	-6832
▁lord	-6833
▁pian	-6834
▁tang	-6835
▁Field	-6836
▁birds	-6837
▁enorm	-6838
▁quote	-6839
▁Bright	-6840
▁Mother	-6841
▁fossil	-6842
▁interior	-6843
▁scenario	-6844
▁emphasize	-6845
▁intercept	-6846
▁negotiate	-6847
▁IA	-6848
▁ll	-6849
Just	-6850
over	-6851
▁195	-6852
▁30,	-6853
▁Cat	-6854
▁Had	-6855
▁Roy	-6856
▁Slo	-6857
isive	-6858
▁Mile	-6859
▁dock	-6860
raging	-6861
▁drove	-6862
▁Oregon	-6863
▁fabric	-6864
▁inject	-6865
▁phenom	-6866
▁nervous	-6867
▁distress	-6868
▁iscrimin	-6869
▁extension	-6870
▁encouraging	-6871
▁iscrimination	-6872
66	-6873
=\"	-6874
▁6-	-6875
▁BR	-6876
▁NO	-6877
▁£5	-6878
izon	-6879
thir	-6880
▁Key	-6881
▁Nag	-6882
large	-6883
scale	-6884
▁Such	-6885
▁bump	-6886
▁mari	-6887
▁vada	-6888
▁exami	-6889
▁stern	-6890
▁Doctor	-6891
▁fusing	-6892
▁perpet	-6893
▁Economic	-6894
▁AS	-6895
Isra	-6896
▁Bow	-6897
▁Pho	-6898
▁hip	-6899
▁ius	-6900
▁nod	-6901
▁raz	-6902
otein	-6903
power	-6904
repre	-6905
▁Neil	-6906
▁Next	-6907
▁lime	-6908
▁vard	-6909
making	-6910
▁Stand	-6911
iculous	-6912
▁Totten	-6913
▁inevit	-6914
▁racist	-6915
▁visual	-6916
repreneur	-6917
▁laughter	-6918
cob	-6919
▁IR	-6920
bell	-6921
give	-6922
▁20-	-6923
▁Ori	-6924
▁Sad	-6925
ulate	-6926
▁Clar	-6927
▁cord	-6928
▁iser	-6929
▁mega	-6930
▁tall	-6931
▁vibr	-6932
ximate	-6933
▁clock	-6934
▁panic	-6935
eration	-6936
▁button	-6937
▁fusion	-6938
▁tenant	-6939
▁disturb	-6940
▁silience	-6941
▁interpret	-6942
▁pregnancy	-6943
▁sentiment	-6944
TQ	-6945
▁վ	-6946
hab	-6947
fere	-6948
▁Ale	-6949
▁Jar	-6950
▁Tat	-6951
▁ara	-6952
▁ece	-6953
ilege	-6954
uting	-6955
▁Bren	-6956
▁Cher	-6957
▁ache	-6958
▁exha	-6959
rument	-6960
▁Civil	-6961
▁Never	-6962
▁Charli	-6963
▁Soviet	-6964
▁bargain	-6965
▁confess	-6966
▁medicine	-6967
De	-6968
Sh	-6969
ti	-6970
wh	-6971
gar	-6972
▁yl	-6973
▁zy	-6974
Well	-6975
aron	-6976
▁Kay	-6977
ichol	-6978
utral	-6979
▁Anne	-6980
▁Kath	-6981
▁Moon	-6982
▁atic	-6983
▁dirt	-6984
▁soap	-6985
astrop	-6986
graphy	-6987
person	-6988
season	-6989
▁greet	-6990
▁pivot	-6991
▁Brexit	-6992
▁Pacifi	-6993
▁exceed	-6994
▁jacket	-6995
▁creator	-6996
▁ography	-6997
▁judgment	-6998
08	-6999
▁EN	-7000
GBTQ	-7001
ever	-7002
▁11,	-7003
▁15,	-7004
▁Jet	-7005
▁Rap	-7006
▁lab	-7007
▁lid	-7008
▁qui	-7009
▁Gray	-7010
▁buck	-7011
▁chap	-7012
▁penn	-7013
▁tune	-7014
▁vert	-7015
▁Class	-7016
▁Grant	-7017
▁forth	-7018
▁revel	-7019
▁uries	-7020
▁mirror	-7021
▁oversee	-7022
▁tributing	-7023
▁expression	-7024
▁supplement	-7025
2%	-7026
:00	-7027
ume	-7028
▁NI	-7029
..."	-7030
ives	-7031
week	-7032
▁250	-7033
▁Leb	-7034
▁Wim	-7035
▁vic	-7036
▁Beat	-7037
▁Gram	-7038
▁Hope	-7039
▁Jane	-7040
▁Rich	-7041
▁grat	-7042
▁lick	-7043
People	-7044
▁Heath	-7045
▁Kenya	-7046
▁Marin	-7047
▁Short	-7048
▁await	-7049
▁Joseph	-7050
▁Nichol	-7051
▁poster	-7052
▁tumble	-7053
American	-7054
▁accompan	-7055
ora	-7056
▁JD	-7057
▁Nu	-7058
▁cu	-7059
iast	-7060
▁12,	-7061
▁Add	-7062
▁rin	-7063
▁tel	-7064
▁ula	-7065
▁Erik	-7066
▁diss	-7067
▁lady	-7068
▁thor	-7069
usiast	-7070
▁2018.	-7071
▁Light	-7072
▁brave	-7073
▁valid	-7074
▁sensor	-7075
▁Austria	-7076
▁Express	-7077
▁lessness	-7078
▁attribute	-7079
▁interfere	-7080
AA	-7081
mm	-7082
Pub	-7083
▁zo	-7084
itar	-7085
riel	-7086
▁CTV	-7087
▁Mak	-7088
▁toy	-7089
asury	-7090
▁Corn	-7091
▁Date	-7092
▁Warr	-7093
▁loom	-7094
▁rant	-7095
▁symp	-7096
▁Simps	-7097
▁chase	-7098
▁weird	-7099
▁yield	-7100
▁lahoma	-7101
▁accompl	-7102
▁empower	-7103
▁Treasury	-7104
▁enthusiast	-7105
▁transaction	-7106
3%	-7107
100	-7108
lla	-7109
ugu	-7110
zue	-7111
▁75	-7112
▁ON	-7113
emen	-7114
imer	-7115
istr	-7116
leas	-7117
▁Bab	-7118
▁Ful	-7119
▁Say	-7120
▁ash	-7121
▁ero	-7122
▁hai	-7123
▁ili	-7124
▁jar	-7125
istic	-7126
utter	-7127
zuela	-7128
▁Horn	-7129
▁Kane	-7130
▁Rash	-7131
▁Roll	-7132
▁bloc	-7133
▁cale	-7134
▁sink	-7135
▁slot	-7136
▁teas	-7137
▁Aaron	-7138
▁Jacob	-7139
▁Marsh	-7140
▁drill	-7141
▁escal	-7142
▁ifies	-7143
▁innoc	-7144
▁jewel	-7145
▁neuro	-7146
▁skirt	-7147
▁stall	-7148
cession	-7149
▁advers	-7150
▁seller	-7151
▁formula	-7152
▁destruct	-7153
▁navigate	-7154
▁privilege	-7155
MA	-7156
sen	-7157
▁(3	-7158
▁46	-7159
▁Ep	-7160
▁Za	-7161
ntic	-7162
▁ane	-7163
▁lag	-7164
▁lia	-7165
▁rez	-7166
After	-7167
▁Hong	-7168
▁buzz	-7169
▁disc	-7170
▁mare	-7171
▁depth	-7172
▁shade	-7173
ributor	-7174
▁presum	-7175
▁entitle	-7176
▁instrument	-7177
cia	-7178
ira	-7179
▁FI	-7180
▁fi	-7181
stle	-7182
▁Dog	-7183
▁Ell	-7184
▁Sus	-7185
▁chu	-7186
▁Barb	-7187
▁Fall	-7188
▁Fede	-7189
▁Hugh	-7190
▁belt	-7191
▁coat	-7192
▁pati	-7193
hentic	-7194
▁Arena	-7195
▁breed	-7196
▁junio	-7197
▁ution	-7198
▁Reserv	-7199
▁mutual	-7200
▁Gabriel	-7201
▁Support	-7202
▁exhaust	-7203
▁surveil	-7204
▁moderate	-7205
],	-7206
asm	-7207
eno	-7208
mir	-7209
▁Ve	-7210
pera	-7211
rect	-7212
▁Gav	-7213
▁Gon	-7214
▁Kal	-7215
▁Tig	-7216
▁2010	-7217
▁Pier	-7218
▁Schu	-7219
▁Talk	-7220
▁Whit	-7221
▁bron	-7222
▁desk	-7223
▁oral	-7224
▁Indus	-7225
▁Ocean	-7226
▁Seven	-7227
▁Yemen	-7228
▁click	-7229
▁grade	-7230
▁insid	-7231
▁Summer	-7232
▁Brother	-7233
▁auction	-7234
▁flavour	-7235
▁licence	-7236
▁protein	-7237
Ch	-7238
800	-7239
ani	-7240
":17	-7241
ison	-7242
look	-7243
rome	-7244
▁19,	-7245
▁Exec	-7246
▁Know	-7247
▁heal	-7248
▁ugal	-7249
▁Hindu	-7250
▁Welsh	-7251
▁spoon	-7252
▁carpet	-7253
▁gentle	-7254
▁robust	-7255
▁tunnel	-7256
▁fiction	-7257
▁revolution	-7258
▁accompanied	-7259
▁approximate	-7260
-20	-7261
hem	-7262
wal	-7263
▁$7	-7264
▁BO	-7265
▁gh	-7266
▁án	-7267
▁21,	-7268
▁Cry	-7269
▁Gau	-7270
▁Run	-7271
▁asi	-7272
▁roy	-7273
▁wet	-7274
▁£1.	-7275
fight	-7276
solut	-7277
state	-7278
▁Libe	-7279
▁Vote	-7280
▁boil	-7281
▁cens	-7282
▁dump	-7283
▁pant	-7284
▁Kelce	-7285
▁berry	-7286
▁loose	-7287
▁sweat	-7288
▁Commun	-7289
▁Expert	-7290
▁evolve	-7291
▁intent	-7292
▁rolled	-7293
▁rebound	-7294
▁registr	-7295
▁authentic	-7296
▁nutrition	-7297
▁classified	-7298
▁entrepreneur	-7299
atr	-7300
bai	-7301
ctu	-7302
▁GB	-7303
▁UP	-7304
Star	-7305
etch	-7306
▁28,	-7307
▁lum	-7308
▁ona	-7309
ousin	-7310
▁Fish	-7311
▁Hart	-7312
▁Kash	-7313
▁crop	-7314
▁ises	-7315
▁nest	-7316
▁rein	-7317
acular	-7318
baijan	-7319
▁liner	-7320
▁lobby	-7321
ivalent	-7322
▁endure	-7323
▁Protect	-7324
▁referee	-7325
▁theater	-7326
zerbaijan	-7327
▁distribution	-7328
21	-7329
Ar	-7330
Me	-7331
wl	-7332
Why	-7333
car	-7334
lis	-7335
ole	-7336
pol	-7337
▁NG	-7338
ourn	-7339
▁22,	-7340
▁26,	-7341
▁Duk	-7342
▁Oak	-7343
▁Vik	-7344
▁fic	-7345
lipse	-7346
▁Come	-7347
▁dash	-7348
▁Ahmed	-7349
▁Rodri	-7350
▁arity	-7351
▁audio	-7352
▁moist	-7353
▁satis	-7354
▁vocal	-7355
icester	-7356
▁cousin	-7357
▁inaugu	-7358
1%	-7359
7%	-7360
▁+	-7361
pse	-7362
▁44	-7363
▁13,	-7364
▁Ice	-7365
▁dim	-7366
▁hal	-7367
ishop	-7368
▁2008	-7369
▁Anti	-7370
▁Rail	-7371
▁Trav	-7372
▁coup	-7373
▁glim	-7374
▁Given	-7375
▁LGBTQ	-7376
▁cruel	-7377
▁drain	-7378
▁meter	-7379
▁rehab	-7380
▁utter	-7381
▁Ronald	-7382
▁Syrian	-7383
▁innocent	-7384
▁munition	-7385
▁Professor	-7386
▁execution	-7387
▁equivalent	-7388
26	-7389
Th	-7390
aka	-7391
▁Av	-7392
bean	-7393
ivan	-7394
last	-7395
made	-7396
▁24,	-7397
▁Cub	-7398
▁Tel	-7399
▁igh	-7400
▁ներ	-7401
▁Corp	-7402
▁Find	-7403
▁acle	-7404
▁augh	-7405
▁radi	-7406
▁Hanna	-7407
▁Nicola	-7408
▁riding	-7409
enezuela	-7410
▁Capital	-7411
▁intimid	-7412
▁entrance	-7413
▁discipline	-7414
berd	-7415
ifle	-7416
▁Cop	-7417
▁Dam	-7418
▁Gal	-7419
▁ING	-7420
▁Sta	-7421
▁eta	-7422
▁fal	-7423
shire	-7424
▁Base	-7425
▁Drag	-7426
▁Much	-7427
▁ched	-7428
▁hawk	-7429
▁napp	-7430
▁oven	-7431
▁torn	-7432
▁woke	-7433
Publis	-7434
▁Craig	-7435
▁crush	-7436
▁froze	-7437
▁griev	-7438
▁Knight	-7439
▁Queens	-7440
▁lawful	-7441
▁chamber	-7442
▁pleasur	-7443
Published	-7444
blockFirst	-7445
▁Venezuela	-7446
):	-7447
alu	-7448
pal	-7449
www	-7450
▁Fu	-7451
Last	-7452
arre	-7453
bury	-7454
llen	-7455
ulpt	-7456
▁Isa	-7457
▁Lim	-7458
▁Sel	-7459
ussex	-7460
▁Khar	-7461
▁Lank	-7462
▁Poll	-7463
▁Shaw	-7464
▁Tali	-7465
▁melt	-7466
izarre	-7467
picion	-7468
▁orbit	-7469
▁pixel	-7470
▁quant	-7471
▁affirm	-7472
▁memoir	-7473
▁explicit	-7474
▁regulate	-7475
▁hurricane	-7476
▁suspicion	-7477
▁É	-7478
ost	-7479
geon	-7480
left	-7481
rase	-7482
▁Ana	-7483
▁III	-7484
▁avi	-7485
▁dip	-7486
▁ros	-7487
▁tig	-7488
▁Hold	-7489
▁Temp	-7490
▁porn	-7491
▁thus	-7492
▁Aberd	-7493
▁cheat	-7494
▁patch	-7495
▁ption	-7496
▁spray	-7497
▁trill	-7498
acteria	-7499
▁etitor	-7500
▁grocer	-7501
▁proven	-7502
▁cycling	-7503
▁motivate	-7504
▁Azerbaijan	-7505
!'	-7506
ko	-7507
lar	-7508
▁PG	-7509
▁RB	-7510
▁ok	-7511
▁oo	-7512
▁(20	-7513
▁Bil	-7514
▁DNA	-7515
▁Deb	-7516
▁Gib	-7517
edian	-7518
inois	-7519
▁Kill	-7520
▁Rama	-7521
▁Rick	-7522
▁infl	-7523
▁mode	-7524
▁ubse	-7525
▁Blink	-7526
▁Eagle	-7527
▁Furth	-7528
▁Nicol	-7529
▁absor	-7530
▁flame	-7531
▁incen	-7532
ception	-7533
quently	-7534
▁Travel	-7535
▁phrase	-7536
▁Stewart	-7537
▁glasses	-7538
▁neutral	-7539
▁triumph	-7540
ceptional	-7541
▁Leicester	-7542
▁ubsequently	-7543
85	-7544
95	-7545
RE	-7546
bi	-7547
iff	-7548
wen	-7549
▁SI	-7550
asur	-7551
etic	-7552
▁Abd	-7553
▁Teh	-7554
▁ott	-7555
▁tam	-7556
olish	-7557
▁2013	-7558
▁Near	-7559
▁ando	-7560
▁corr	-7561
▁drum	-7562
▁glad	-7563
▁naut	-7564
▁ndar	-7565
▁tern	-7566
▁tors	-7567
▁Build	-7568
▁deten	-7569
▁Abbott	-7570
▁Sussex	-7571
▁captiv	-7572
▁insula	-7573
▁streak	-7574
▁stepping	-7575
▁adventure	-7576
▁catastrop	-7577
ED	-7578
Let	-7579
add	-7580
▁9,	-7581
▁ED	-7582
▁RS	-7583
▁od	-7584
pack	-7585
▁50-	-7586
▁ira	-7587
▁oli	-7588
▁vel	-7589
000,"	-7590
▁erie	-7591
▁foul	-7592
▁Chand	-7593
▁Start	-7594
▁Steel	-7595
ational	-7596
chestra	-7597
entific	-7598
ullivan	-7599
▁Bureau	-7600
▁Curren	-7601
▁ethnic	-7602
▁consent	-7603
▁eclipse	-7604
▁elevate	-7605
▁bankrupt	-7606
▁intimate	-7607
▁statistic	-7608
▁42	-7609
▁RI	-7610
▁ip	-7611
ckon	-7612
▁Nel	-7613
▁bly	-7614
▁bub	-7615
▁emo	-7616
▁ory	-7617
▁rod	-7618
mpton	-7619
rific	-7620
▁Alam	-7621
▁Bush	-7622
▁Holl	-7623
▁acre	-7624
▁nell	-7625
▁ouri	-7626
▁poet	-7627
▁soph	-7628
▁tint	-7629
ibbean	-7630
▁2,000	-7631
▁Story	-7632
▁crisp	-7633
▁indus	-7634
▁liest	-7635
▁quake	-7636
▁bronze	-7637
▁illust	-7638
▁pepper	-7639
▁rapper	-7640
▁worthy	-7641
▁Campbell	-7642
▁comedian	-7643
▁distract	-7644
▁structur	-7645
▁Caribbean	-7646
▁Financial	-7647
▁accomplish	-7648
▁passionate	-7649
96	-7650
AD	-7651
Le	-7652
▁HP	-7653
down	-7654
gram	-7655
turn	-7656
▁Bou	-7657
▁Fal	-7658
▁NEW	-7659
▁Str	-7660
▁THE	-7661
▁vey	-7662
▁Fran	-7663
▁Gene	-7664
▁Keep	-7665
▁Kohl	-7666
▁ampl	-7667
▁irre	-7668
▁myst	-7669
astate	-7670
▁Swiss	-7671
▁acted	-7672
▁alien	-7673
▁hyper	-7674
▁sacri	-7675
▁Theatr	-7676
▁autumn	-7677
▁depict	-7678
▁fierce	-7679
▁tenure	-7680
▁uniform	-7681
▁benefici	-7682
▁escalate	-7683
▁Oz	-7684
▁£6	-7685
acre	-7686
ones	-7687
▁13.	-7688
▁14,	-7689
▁Box	-7690
▁NSW	-7691
▁Rio	-7692
▁Sid	-7693
▁Stu	-7694
▁och	-7695
▁rav	-7696
▁wha	-7697
appen	-7698
itter	-7699
▁lump	-7700
▁nose	-7701
▁tain	-7702
▁reign	-7703
stappen	-7704
▁column	-7705
▁diabet	-7706
▁mature	-7707
▁reliev	-7708
▁Connect	-7709
▁borough	-7710
▁fulfill	-7711
▁hampton	-7712
▁explosive	-7713
▁scientific	-7714
App	-7715
Pre	-7716
▁(4	-7717
▁TO	-7718
abil	-7719
ider	-7720
rete	-7721
▁Fab	-7722
▁Jur	-7723
▁Rid	-7724
▁und	-7725
▁vet	-7726
ertil	-7727
which	-7728
▁pect	-7729
▁stan	-7730
▁swap	-7731
▁terr	-7732
azeera	-7733
rought	-7734
▁awful	-7735
▁endous	-7736
▁logist	-7737
▁measur	-7738
▁Illinois	-7739
▁bacteria	-7740
▁thorough	-7741
▁Yorkshire	-7742
▁pectacular	-7743
.-	-7744
yr	-7745
▁է	-7746
Not	-7747
▁65	-7748
▁CH	-7749
▁PI	-7750
ccer	-7751
rich	-7752
▁15-	-7753
▁Eve	-7754
▁Fif	-7755
▁Haw	-7756
▁Kid	-7757
▁Pun	-7758
▁yea	-7759
press	-7760
vival	-7761
▁1960	-7762
▁Bald	-7763
▁Thou	-7764
▁Walt	-7765
▁bras	-7766
▁dual	-7767
▁ello	-7768
▁pron	-7769
▁vibe	-7770
umbent	-7771
▁steam	-7772
reshold	-7773
▁Region	-7774
▁dealer	-7775
▁fantas	-7776
▁labour	-7777
▁soccer	-7778
president	-7779
ventional	-7780
▁preserve	-7781
▁incumbent	-7782
▁chancellor	-7783
hor	-7784
eker	-7785
real	-7786
reck	-7787
▁31,	-7788
▁Lot	-7789
▁UCL	-7790
▁fum	-7791
▁hya	-7792
▁jer	-7793
▁nin	-7794
▁rip	-7795
▁Nazi	-7796
▁aint	-7797
▁elic	-7798
▁flew	-7799
▁grip	-7800
▁hush	-7801
▁onia	-7802
▁vine	-7803
▁Bloom	-7804
▁Eight	-7805
▁Indig	-7806
▁Money	-7807
▁Place	-7808
▁annou	-7809
▁aspir	-7810
▁juror	-7811
▁prise	-7812
▁subsi	-7813
▁Gregor	-7814
▁leather	-7815
▁moistur	-7816
▁compound	-7817
▁elicious	-7818
▁frustrate	-7819
▁threshold	-7820
▁Verstappen	-7821
ES	-7822
azz	-7823
fol	-7824
▁CI	-7825
hood	-7826
rior	-7827
▁Eth	-7828
▁arr	-7829
▁awk	-7830
▁etz	-7831
▁pac	-7832
▁Coul	-7833
▁Serb	-7834
▁arth	-7835
▁dent	-7836
▁rand	-7837
▁Aston	-7838
▁Baker	-7839
▁brows	-7840
▁lemon	-7841
▁tempo	-7842
▁wrest	-7843
century	-7844
▁guitar	-7845
▁poison	-7846
▁retali	-7847
▁stabil	-7848
▁awkward	-7849
▁drought	-7850
▁scholar	-7851
▁urvival	-7852
▁conventional	-7853
4%	-7854
FC	-7855
sm	-7856
inge	-7857
mble	-7858
▁Fam	-7859
▁ken	-7860
▁lav	-7861
Thank	-7862
party	-7863
▁Deep	-7864
▁McCa	-7865
▁phob	-7866
▁spec	-7867
▁Merce	-7868
▁Sound	-7869
▁harsh	-7870
▁kovic	-7871
▁midst	-7872
▁persu	-7873
ampment	-7874
▁pharma	-7875
▁sculpt	-7876
▁volunt	-7877
▁compass	-7878
▁forgive	-7879
▁torture	-7880
▁concrete	-7881
▁horrific	-7882
▁occupied	-7883
6%	-7884
77	-7885
ati	-7886
who	-7887
▁HD	-7888
▁Kl	-7889
▁NT	-7890
fice	-7891
mean	-7892
▁Sop	-7893
▁pel	-7894
▁vig	-7895
▁2011	-7896
▁Benn	-7897
▁Luca	-7898
▁deck	-7899
▁nack	-7900
mitism	-7901
▁2025,	-7902
▁Massa	-7903
▁astro	-7904
▁lyric	-7905
▁rance	-7906
▁Record	-7907
▁mentor	-7908
▁reckon	-7909
▁reopen	-7910
▁triple	-7911
▁Jazeera	-7912
▁Program	-7913
▁immense	-7914
▁relativ	-7915
▁interrupt	-7916
▁Chancellor	-7917
▁Environment	-7918
▁communicate	-7919
jri	-7920
sky	-7921
bble	-7922
▁120	-7923
▁Too	-7924
▁Wag	-7925
▁bou	-7926
▁bru	-7927
▁cem	-7928
▁tha	-7929
gency	-7930
world	-7931
▁Bond	-7932
▁Marc	-7933
▁Yank	-7934
▁euro	-7935
▁thro	-7936
▁tout	-7937
▁ular	-7938
jriwal	-7939
orious	-7940
▁2016.	-7941
▁Amend	-7942
▁Athle	-7943
▁Opera	-7944
▁fract	-7945
▁stain	-7946
▁lihood	-7947
▁weaken	-7948
▁concede	-7949
▁execute	-7950
▁glimpse	-7951
▁perceive	-7952
▁semitism	-7953
▁devastate	-7954
inu	-7955
mad	-7956
mph	-7957
vet	-7958
▁"[	-7959
▁FL	-7960
▁Fl	-7961
▁YO	-7962
elli	-7963
nell	-7964
▁Fre	-7965
▁ace	-7966
▁haz	-7967
/2024	-7968
nesse	-7969
▁Bara	-7970
▁Brun	-7971
▁bias	-7972
▁bite	-7973
▁nomy	-7974
▁Const	-7975
▁bunch	-7976
▁endum	-7977
▁fleet	-7978
▁absent	-7979
▁relent	-7980
▁tender	-7981
▁titled	-7982
▁helpful	-7983
▁impeach	-7984
▁politan	-7985
▁refresh	-7986
▁athletic	-7987
▁consumption	-7988
05	-7989
Up	-7990
ua	-7991
bur	-7992
odd	-7993
rog	-7994
▁DJ	-7995
▁Ir	-7996
▁PO	-7997
▁ue	-7998
that	-7999
▁Cow	-8000
▁Kit	-8001
▁nab	-8002
▁shy	-8003
garet	-8004
ookie	-8005
▁ador	-8006
▁blog	-8007
▁buff	-8008
▁gium	-8009
▁idor	-8010
▁inha	-8011
▁ters	-8012
second	-8013
▁Cleve	-8014
▁Point	-8015
▁dedic	-8016
▁buster	-8017
▁rookie	-8018
▁confuse	-8019
▁precise	-8020
▁Kejriwal	-8021
▁ordinate	-8022
▁congratul	-8023
▁notorious	-8024
▁exceptional	-8025
▁subscription	-8026
▁•	-8027
aya	-8028
lst	-8029
▁41	-8030
▁LO	-8031
▁Va	-8032
ingu	-8033
mise	-8034
▁10%	-8035
▁Cav	-8036
▁Gam	-8037
▁Rev	-8038
▁god	-8039
▁hyp	-8040
▁uls	-8041
olate	-8042
▁Juan	-8043
▁Mack	-8044
▁Mess	-8045
▁Mick	-8046
▁flaw	-8047
▁ican	-8048
▁iola	-8049
▁till	-8050
▁Chang	-8051
▁whisk	-8052
inguish	-8053
▁absorb	-8054
▁betray	-8055
▁whilst	-8056
▁premise	-8057
▁treasure	-8058
▁legitimate	-8059
PN	-8060
eor	-8061
qui	-8062
utt	-8063
▁HI	-8064
rous	-8065
▁1.5	-8066
▁23,	-8067
▁Cou	-8068
▁Lor	-8069
▁Lui	-8070
▁Yad	-8071
▁pul	-8072
▁Hand	-8073
▁List	-8074
▁Pear	-8075
▁Resp	-8076
▁gest	-8077
▁grey	-8078
▁spir	-8079
ulance	-8080
▁Break	-8081
▁droid	-8082
▁enemy	-8083
▁Friend	-8084
▁fertil	-8085
▁holder	-8086
▁modest	-8087
▁Intelli	-8088
▁bizarre	-8089
▁extract	-8090
▁manipul	-8091
▁Margaret	-8092
▁descript	-8093
▁advertise	-8094
▁ambulance	-8095
▁ordinator	-8096
▁pronounce	-8097
38	-8098
bl	-8099
cé	-8100
▁տ	-8101
Bri	-8102
Now	-8103
big	-8104
uke	-8105
▁LI	-8106
▁£7	-8107
▁Jad	-8108
▁McG	-8109
▁Mik	-8110
▁Ped	-8111
▁Tin	-8112
▁raj	-8113
▁rit	-8114
▁voc	-8115
▁voy	-8116
apore	-8117
▁Auto	-8118
▁Mull	-8119
▁Noth	-8120
▁Raja	-8121
▁Writ	-8122
▁leap	-8123
cessor	-8124
▁Memor	-8125
▁prede	-8126
▁Control	-8127
▁ituency	-8128
▁Tennesse	-8129
▁encampment	-8130
▁predecessor	-8131
")	-8132
ox	-8133
eer	-8134
him	-8135
luc	-8136
▁47	-8137
▁VO	-8138
chor	-8139
cuit	-8140
ouch	-8141
▁Hud	-8142
▁bee	-8143
▁lon	-8144
ombia	-8145
▁Chen	-8146
▁Emir	-8147
▁Lope	-8148
▁Sain	-8149
▁Stat	-8150
▁esco	-8151
▁pine	-8152
▁pole	-8153
▁enact	-8154
▁polis	-8155
▁proto	-8156
▁tooth	-8157
billion	-8158
ological	-8159
▁uncover	-8160
Pal	-8161
▁SA	-8162
alle	-8163
oner	-8164
▁203	-8165
▁Emb	-8166
▁Ran	-8167
▁ced	-8168
▁mug	-8169
▁rhy	-8170
▁sla	-8171
stock	-8172
▁Band	-8173
▁Lang	-8174
▁Prop	-8175
▁Rath	-8176
▁Toro	-8177
▁Wolf	-8178
▁eleg	-8179
▁illy	-8180
▁tani	-8181
▁Brent	-8182
▁Corpo	-8183
▁homer	-8184
▁queen	-8185
▁rider	-8186
▁rides	-8187
▁bother	-8188
▁hammer	-8189
▁physic	-8190
▁thrive	-8191
celerate	-8192
esthetic	-8193
▁Christi	-8194
▁diabete	-8195
▁passage	-8196
▁restrain	-8197
▁Hurricane	-8198
▁principal	-8199
9%	-8200
rin	-8201
vat	-8202
izza	-8203
▁$2.	-8204
▁16.	-8205
▁18.	-8206
▁ICC	-8207
▁Joy	-8208
▁alo	-8209
▁ela	-8210
▁ith	-8211
▁jam	-8212
▁nik	-8213
▁nud	-8214
▁pas	-8215
▁Mand	-8216
▁glow	-8217
▁lion	-8218
▁arena	-8219
▁conso	-8220
▁evalu	-8221
▁lever	-8222
▁pizza	-8223
▁trait	-8224
▁villa	-8225
▁worsen	-8226
▁isolate	-8227
▁Singapore	-8228
▁aggression	-8229
01	-8230
48	-8231
Tw	-8232
xi	-8233
eld	-8234
▁CS	-8235
acht	-8236
mega	-8237
qual	-8238
will	-8239
▁24-	-8240
▁29,	-8241
▁Aid	-8242
▁Les	-8243
▁Liv	-8244
▁Sho	-8245
▁Tak	-8246
▁ESPN	-8247
▁Pack	-8248
▁anth	-8249
▁myth	-8250
▁taxi	-8251
ourish	-8252
▁2015,	-8253
▁Dream	-8254
▁Drive	-8255
▁Klopp	-8256
▁agher	-8257
▁inson	-8258
▁Collin	-8259
▁Should	-8260
▁hatter	-8261
▁seeker	-8262
▁contemp	-8263
▁Colombia	-8264
▁introduction	-8265
Hi	-8266
":[	-8267
emo	-8268
▁Zu	-8269
▁ppy	-8270
allel	-8271
ergus	-8272
▁100%	-8273
▁Dead	-8274
▁Math	-8275
▁Spur	-8276
▁cafe	-8277
▁horn	-8278
▁nuts	-8279
▁tamp	-8280
▁wept	-8281
itable	-8282
▁cheek	-8283
▁polar	-8284
▁Assist	-8285
▁Nathan	-8286
▁insult	-8287
▁propag	-8288
▁chronic	-8289
▁highway	-8290
▁contamin	-8291
▁phenomeno	-8292
▁sacrifice	-8293
33	-8294
9-	-8295
zy	-8296
ean	-8297
sic	-8298
▁BC	-8299
▁uk	-8300
loyd	-8301
mile	-8302
rait	-8303
▁17-	-8304
▁Age	-8305
▁Arr	-8306
▁Djo	-8307
▁Edd	-8308
▁Fra	-8309
▁Haa	-8310
▁Hil	-8311
▁Ref	-8312
▁raw	-8313
▁rut	-8314
▁usi	-8315
ifica	-8316
shirt	-8317
▁Dame	-8318
▁Fact	-8319
▁Gate	-8320
▁Ivan	-8321
▁acid	-8322
▁pala	-8323
▁trem	-8324
▁Blanc	-8325
▁Coach	-8326
▁Motor	-8327
▁Nigel	-8328
▁gorge	-8329
▁steer	-8330
▁wreck	-8331
▁Emerge	-8332
▁excuse	-8333
▁exempt	-8334
▁religi	-8335
▁shield	-8336
▁surpass	-8337
▁traumat	-8338
▁judicial	-8339
▁significa	-8340
Pa	-8341
Ph	-8342
թյ	-8343
def	-8344
▁SU	-8345
▁Ul	-8346
▁as	-8347
cher	-8348
most	-8349
true	-8350
▁14-	-8351
▁Gas	-8352
▁Mou	-8353
▁Pas	-8354
▁Rex	-8355
▁mes	-8356
▁oni	-8357
▁£1,	-8358
▁Jais	-8359
▁Mona	-8360
▁Sham	-8361
▁Shin	-8362
▁gage	-8363
▁nuel	-8364
▁toma	-8365
▁whip	-8366
▁ությ	-8367
▁2014,	-8368
▁2017.	-8369
▁Lloyd	-8370
▁Trade	-8371
▁ankle	-8372
▁gross	-8373
▁haunt	-8374
▁ucker	-8375
forward	-8376
ificate	-8377
▁Latino	-8378
▁Person	-8379
▁embark	-8380
▁gesture	-8381
▁corporation	-8382
8%	-8383
▁55	-8384
▁SH	-8385
▁ku	-8386
▁ía	-8387
mers	-8388
▁15.	-8389
▁Arn	-8390
▁ior	-8391
▁myr	-8392
▁£20	-8393
fford	-8394
phant	-8395
rison	-8396
▁Buff	-8397
▁NCAA	-8398
▁Norr	-8399
▁cree	-8400
▁rone	-8401
▁topp	-8402
▁Titan	-8403
▁array	-8404
▁spare	-8405
politic	-8406
quarter	-8407
▁Corona	-8408
▁Fergus	-8409
▁Member	-8410
▁Spence	-8411
▁shelve	-8412
▁Similar	-8413
▁minimal	-8414
▁Athletic	-8415
97	-8416
EL	-8417
այ	-8418
300	-8419
></	-8420
lug	-8421
omi	-8422
▁$8	-8423
▁UA	-8424
▁UV	-8425
▁WW	-8426
▁ակ	-8427
from	-8428
well	-8429
▁22-	-8430
▁iso	-8431
▁rib	-8432
▁ում	-8433
vidia	-8434
▁Adel	-8435
▁Cann	-8436
▁bagg	-8437
▁quel	-8438
▁tide	-8439
▁toss	-8440
▁Clear	-8441
▁Grace	-8442
▁Silva	-8443
▁Yadav	-8444
▁ulent	-8445
▁Castle	-8446
▁System	-8447
▁broker	-8448
▁Partner	-8449
▁blanket	-8450
▁bolster	-8451
▁retreat	-8452
▁orchestra	-8453
▁valuation	-8454
▁impression	-8455
);	-8456
ել	-8457
ery	-8458
gor	-8459
ieg	-8460
▁(5	-8461
▁£8	-8462
good	-8463
gust	-8464
laim	-8465
love	-8466
more	-8467
▁Arc	-8468
▁Hit	-8469
▁Mis	-8470
▁gil	-8471
▁hra	-8472
▁hri	-8473
▁nto	-8474
▁wid	-8475
▁Rain	-8476
▁expi	-8477
▁grad	-8478
▁grim	-8479
▁heel	-8480
▁illo	-8481
▁maid	-8482
▁pies	-8483
▁antic	-8484
▁drome	-8485
▁expla	-8486
▁hawks	-8487
▁renov	-8488
▁tempt	-8489
▁Bharat	-8490
▁Mahara	-8491
▁Origin	-8492
▁crunch	-8493
▁prince	-8494
▁rarily	-8495
▁pretend	-8496
Palestinian	-8497
▁accelerate	-8498
▁substitute	-8499
hit	-8500
irk	-8501
urd	-8502
▁DS	-8503
▁IF	-8504
▁RW	-8505
▁ix	-8506
":"1	-8507
Even	-8508
sApp	-8509
step	-8510
yard	-8511
▁16-	-8512
▁Jag	-8513
▁Kil	-8514
▁ora	-8515
▁tit	-8516
▁tub	-8517
folio	-8518
place	-8519
▁Link	-8520
▁Sale	-8521
▁Scar	-8522
▁Slam	-8523
▁Spot	-8524
▁Swin	-8525
▁View	-8526
▁bang	-8527
▁ller	-8528
▁pred	-8529
▁ucky	-8530
▁2024:	-8531
▁erman	-8532
▁mitig	-8533
▁reluc	-8534
▁Design	-8535
▁Nvidia	-8536
▁immers	-8537
▁motive	-8538
▁torial	-8539
▁Weather	-8540
▁persuad	-8541
▁formation	-8542
Jo	-8543
ipp	-8544
sex	-8545
thm	-8546
zzl	-8547
enix	-8548
greg	-8549
ocus	-8550
umul	-8551
▁20%	-8552
▁Alc	-8553
▁Ald	-8554
▁GPT	-8555
▁Kap	-8556
▁hug	-8557
▁tup	-8558
▁zen	-8559
▁£10	-8560
▁Arti	-8561
▁Rand	-8562
▁ante	-8563
▁elle	-8564
▁annoy	-8565
▁brick	-8566
▁cular	-8567
▁femin	-8568
▁fever	-8569
▁hydro	-8570
▁puzzl	-8571
▁retro	-8572
▁shtra	-8573
▁uspic	-8574
isition	-8575
▁10,000	-8576
▁Custom	-8577
▁Senior	-8578
▁prising	-8579
▁scratch	-8580
▁segment	-8581
▁uspicious	-8582
▁ridiculous	-8583
65	-8584
▁ր	-8585
▁BA	-8586
▁Ei	-8587
▁zi	-8588
agan	-8589
unge	-8590
▁1-0	-8591
▁Jud	-8592
▁Por	-8593
▁Roe	-8594
▁dee	-8595
▁jab	-8596
▁ock	-8597
▁sit	-8598
dated	-8599
glect	-8600
▁Dick	-8601
▁Golf	-8602
▁Gulf	-8603
▁Pent	-8604
▁Robb	-8605
▁bane	-8606
▁eria	-8607
▁sati	-8608
▁Marco	-8609
▁drunk	-8610
▁honey	-8611
▁isast	-8612
▁merit	-8613
▁tupid	-8614
breaking	-8615
▁terrify	-8616
▁whistle	-8617
▁WhatsApp	-8618
▁imprison	-8619
▁parallel	-8620
▁portrait	-8621
▁authorize	-8622
▁firefight	-8623
▁isastrous	-8624
CA	-8625
▁â	-8626
▁è	-8627
600	-8628
99,	-8629
had	-8630
inc	-8631
isi	-8632
osi	-8633
two	-8634
una	-8635
▁Az	-8636
▁EC	-8637
▁HR	-8638
enti	-8639
what	-8640
▁2-1	-8641
▁CAR	-8642
▁Ele	-8643
▁Fel	-8644
▁Mul	-8645
▁Pep	-8646
▁cco	-8647
▁mud	-8648
▁nic	-8649
▁oka	-8650
anion	-8651
venge	-8652
▁2030	-8653
▁Cult	-8654
▁Dann	-8655
▁Hell	-8656
▁Join	-8657
▁Made	-8658
▁sake	-8659
▁sect	-8660
▁tier	-8661
borate	-8662
▁5,000	-8663
▁Season	-8664
▁Silver	-8665
▁devote	-8666
▁lender	-8667
▁requir	-8668
guardian	-8669
▁Phoenix	-8670
▁bombard	-8671
▁educate	-8672
▁urgency	-8673
39	-8674
Im	-8675
Se	-8676
emp	-8677
isc	-8678
▁(2	-8679
▁54	-8680
▁AM	-8681
▁BE	-8682
▁Iv	-8683
▁RC	-8684
****	-8685
Russ	-8686
name	-8687
otal	-8688
▁Clo	-8689
▁Dak	-8690
▁Typ	-8691
▁lis	-8692
▁vid	-8693
Photo	-8694
merce	-8695
▁Baby	-8696
▁Chap	-8697
▁Left	-8698
▁Quin	-8699
▁Utah	-8700
▁curb	-8701
▁issa	-8702
enance	-8703
icipal	-8704
▁bride	-8705
▁cater	-8706
▁condo	-8707
▁flock	-8708
▁rifle	-8709
▁Orange	-8710
▁Review	-8711
▁Studio	-8712
▁humili	-8713
▁plunge	-8714
▁initiate	-8715
▁aesthetic	-8716
▁portfolio	-8717
▁certificate	-8718
\">	-8719
vak	-8720
▁OC	-8721
▁TM	-8722
▁WI	-8723
earn	-8724
have	-8725
pora	-8726
ptic	-8727
thur	-8728
ulti	-8729
vise	-8730
▁18-	-8731
▁Bum	-8732
▁Pic	-8733
▁Pla	-8734
▁Tyl	-8735
▁ata	-8736
▁luc	-8737
▁Bett	-8738
▁Jama	-8739
▁Mall	-8740
▁Ring	-8741
▁Stra	-8742
▁Ward	-8743
▁bage	-8744
▁beef	-8745
▁bust	-8746
▁caut	-8747
▁coca	-8748
▁ophi	-8749
asonal	-8750
degree	-8751
iliate	-8752
▁Baile	-8753
▁Blair	-8754
▁Small	-8755
▁allah	-8756
▁arthy	-8757
▁imagi	-8758
▁pathy	-8759
▁roast	-8760
▁ceased	-8761
▁lander	-8762
▁marine	-8763
▁easonal	-8764
▁uitable	-8765
▁washing	-8766
▁cautious	-8767
64	-8768
aw	-8769
▁ո	-8770
ato	-8771
non	-8772
ped	-8773
tor	-8774
▁43	-8775
▁AG	-8776
▁CL	-8777
▁ón	-8778
aple	-8779
brid	-8780
ukee	-8781
▁$20	-8782
▁Ark	-8783
▁Cit	-8784
▁Gan	-8785
▁Gun	-8786
▁Guy	-8787
▁Pac	-8788
▁cer	-8789
▁dys	-8790
▁kan	-8791
▁rie	-8792
anger	-8793
umber	-8794
▁Batt	-8795
▁Cruz	-8796
▁Manu	-8797
▁Prom	-8798
▁Sign	-8799
▁bean	-8800
▁cave	-8801
▁norm	-8802
▁tage	-8803
▁Match	-8804
▁arrow	-8805
▁blaze	-8806
▁defam	-8807
▁frank	-8808
▁grill	-8809
▁spice	-8810
▁Libert	-8811
▁desert	-8812
▁strand	-8813
▁waukee	-8814
▁Kashmir	-8815
▁monarch	-8816
▁fracture	-8817
▁convenience	-8818
78	-8819
AI	-8820
▁ս	-8821
ito	-8822
▁KC	-8823
▁SS	-8824
Look	-8825
lead	-8826
rank	-8827
than	-8828
▁Alv	-8829
▁Bul	-8830
▁Fle	-8831
▁Inf	-8832
▁Oli	-8833
▁PAC	-8834
▁lug	-8835
▁pho	-8836
▁sew	-8837
▁umb	-8838
ptain	-8839
▁2006	-8840
▁2009	-8841
▁Bash	-8842
▁Happ	-8843
▁Nine	-8844
▁chal	-8845
▁etic	-8846
ultane	-8847
▁2015.	-8848
▁Death	-8849
▁Visit	-8850
▁forum	-8851
▁incur	-8852
▁sheer	-8853
▁spill	-8854
▁usive	-8855
▁Philip	-8856
▁Switch	-8857
▁Ultima	-8858
▁clever	-8859
▁linger	-8860
▁usiasm	-8861
▁Village	-8862
▁descend	-8863
▁optimist	-8864
▁subscribe	-8865
68	-8866
Mr	-8867
bra	-8868
uri	-8869
vas	-8870
▁IB	-8871
Toda	-8872
burg	-8873
cele	-8874
cott	-8875
lica	-8876
▁Maj	-8877
▁Pod	-8878
▁oxy	-8879
▁pig	-8880
▁tus	-8881
acerb	-8882
attoo	-8883
bbing	-8884
onish	-8885
ounge	-8886
▁Owen	-8887
▁Pick	-8888
▁cope	-8889
▁eras	-8890
▁izer	-8891
▁shin	-8892
ioneer	-8893
mentia	-8894
ranean	-8895
▁1,200	-8896
▁Dance	-8897
▁Truth	-8898
▁brace	-8899
▁stack	-8900
▁stunt	-8901
▁Dragon	-8902
▁Peters	-8903
▁Techno	-8904
▁random	-8905
▁prosper	-8906
▁tabbing	-8907
▁commence	-8908
▁dementia	-8909
▁pleasant	-8910
▁affiliate	-8911
▁companion	-8912
▁terranean	-8913
▁generative	-8914
kg	-8915
-10	-8916
cro	-8917
ikh	-8918
uli	-8919
▁Ax	-8920
▁BT	-8921
▁IL	-8922
olid	-8923
▁11-	-8924
▁25-	-8925
▁Jin	-8926
▁Mai	-8927
▁Rac	-8928
▁Rut	-8929
▁Sai	-8930
▁Sat	-8931
▁UFC	-8932
▁awe	-8933
▁bik	-8934
▁bug	-8935
▁owe	-8936
▁pav	-8937
▁pox	-8938
▁Cass	-8939
▁Deal	-8940
▁Gunn	-8941
▁Terr	-8942
▁Trad	-8943
▁clue	-8944
▁endo	-8945
▁hydr	-8946
▁lend	-8947
▁monu	-8948
▁plug	-8949
▁plum	-8950
llenge	-8951
olving	-8952
onesia	-8953
render	-8954
▁3,000	-8955
▁Check	-8956
▁Griff	-8957
▁Limit	-8958
▁Magic	-8959
▁Payne	-8960
▁Pleas	-8961
▁ision	-8962
▁Arthur	-8963
▁anchor	-8964
▁bubble	-8965
▁convey	-8966
▁refund	-8967
▁rhythm	-8968
▁exacerb	-8969
▁carriage	-8970
▁vacation	-8971
▁acquisition	-8972
bec	-8973
▁CA	-8974
▁ky	-8975
andr	-8976
lamm	-8977
uted	-8978
▁Hei	-8979
▁Riv	-8980
▁cos	-8981
▁gel	-8982
▁lee	-8983
▁lud	-8984
▁sou	-8985
▁ush	-8986
▁ute	-8987
▁vor	-8988
ature	-8989
match	-8990
▁Else	-8991
▁Nova	-8992
▁Sama	-8993
▁Supp	-8994
▁ogue	-8995
▁pier	-8996
▁tiff	-8997
▁tole	-8998
▁apple	-8999
▁invit	-9000
▁merch	-9001
▁straw	-9002
▁tally	-9003
▁Legisl	-9004
▁empire	-9005
▁petrol	-9006
▁robber	-9007
▁evident	-9008
▁Indonesia	-9009
▁convenient	-9010
▁invitation	-9011
-5	-9012
Any	-9013
asp	-9014
mis	-9015
▁TA	-9016
▁TR	-9017
alem	-9018
home	-9019
igar	-9020
▁600	-9021
▁Kra	-9022
▁Ott	-9023
▁USC	-9024
▁ali	-9025
▁bie	-9026
▁ida	-9027
▁ika	-9028
▁lus	-9029
▁squ	-9030
Creat	-9031
ardon	-9032
uggle	-9033
undit	-9034
▁Bird	-9035
▁Nash	-9036
▁READ	-9037
▁Ster	-9038
▁mono	-9039
govern	-9040
ighten	-9041
wegian	-9042
▁Would	-9043
▁flick	-9044
▁mourn	-9045
iterate	-9046
▁Samuel	-9047
▁abduct	-9048
▁barrel	-9049
▁freeze	-9050
▁balloon	-9051
▁deterio	-9052
▁horizon	-9053
▁patriot	-9054
▁revenge	-9055
▁sympath	-9056
▁uration	-9057
▁decisive	-9058
▁endanger	-9059
▁memorial	-9060
theguardian	-9061
▁aintenance	-9062
▁functional	-9063
-8	-9064
/@	-9065
fl	-9066
-12	-9067
erc	-9068
▁TC	-9069
From	-9070
edOn	-9071
oren	-9072
riff	-9073
▁800	-9074
▁Bit	-9075
▁Kin	-9076
▁Lei	-9077
▁Lie	-9078
▁Tun	-9079
▁lac	-9080
ateur	-9081
▁Berk	-9082
▁Bobb	-9083
▁Full	-9084
▁Ruth	-9085
▁Stef	-9086
▁dart	-9087
▁feud	-9088
▁hock	-9089
▁tray	-9090
LastUp	-9091
▁Britt	-9092
▁Clair	-9093
▁Serge	-9094
▁Staff	-9095
▁condu	-9096
▁encia	-9097
▁glove	-9098
▁juris	-9099
▁nerve	-9100
▁philo	-9101
▁trace	-9102
ggering	-9103
iritual	-9104
▁Future	-9105
▁Sophie	-9106
▁Ticket	-9107
▁pundit	-9108
▁splash	-9109
▁Patriot	-9110
CreatedOn	-9111
▁colonial	-9112
▁reiterate	-9113
▁spiritual	-9114
▁taggering	-9115
LastUpdated	-9116
▁definition	-9117
blockCreatedOn	-9118
blockLastUpdated	-9119
-9	-9120
42	-9121
Or	-9122
cap	-9123
has	-9124
▁53	-9125
▁SW	-9126
mark	-9127
mind	-9128
peal	-9129
▁$10	-9130
▁40%	-9131
▁Nap	-9132
▁ake	-9133
▁bab	-9134
▁slo	-9135
▁wen	-9136
atric	-9137
inter	-9138
▁Cric	-9139
▁Judi	-9140
▁Lane	-9141
▁Nint	-9142
▁Sala	-9143
▁alum	-9144
▁Keith	-9145
▁Peace	-9146
▁Round	-9147
▁invad	-9148
▁steep	-9149
ardashi	-9150
▁Charge	-9151
▁enroll	-9152
▁filter	-9153
▁hurdle	-9154
▁metric	-9155
▁neglect	-9156
▁vitamin	-9157
▁Campaign	-9158
▁disputed	-9159
▁Challenge	-9160
▁universal	-9161
67	-9162
EA	-9163
ND	-9164
New	-9165
bil	-9166
hia	-9167
llo	-9168
icit	-9169
usal	-9170
▁14.	-9171
▁Bud	-9172
▁Rit	-9173
▁Thu	-9174
▁Wes	-9175
▁aux	-9176
▁fry	-9177
erved	-9178
label	-9179
▁Beth	-9180
▁Hawk	-9181
▁Lock	-9182
▁Nada	-9183
▁Patt	-9184
▁ario	-9185
▁£100	-9186
▁Beaut	-9187
▁Smart	-9188
▁Think	-9189
▁borne	-9190
▁ditch	-9191
▁ferry	-9192
▁owski	-9193
▁piled	-9194
▁teria	-9195
▁Critic	-9196
▁behave	-9197
▁infant	-9198
▁pardon	-9199
▁usalem	-9200
▁Olympia	-9201
▁commemo	-9202
▁solicit	-9203
ardashian	-9204
▁dictator	-9205
▁heighten	-9206
▁tropical	-9207
▁Entertain	-9208
▁calculate	-9209
/2	-9210
Can	-9211
May	-9212
Pro	-9213
uum	-9214
ithm	-9215
▁RWA	-9216
▁Sep	-9217
▁ivo	-9218
▁rov	-9219
▁wad	-9220
cture	-9221
owder	-9222
there	-9223
▁Amor	-9224
▁Cand	-9225
▁Finn	-9226
▁Shel	-9227
▁Shiv	-9228
▁Stor	-9229
▁elli	-9230
▁ient	-9231
▁loop	-9232
▁mund	-9233
▁robe	-9234
▁turb	-9235
▁2012,	-9236
▁Blake	-9237
▁Fight	-9238
▁diary	-9239
▁ghost	-9240
▁izers	-9241
▁lodge	-9242
▁cision	-9243
▁cliffe	-9244
▁prelim	-9245
▁ritual	-9246
▁tailor	-9247
▁vacuum	-9248
cription	-9249
▁dissent	-9250
▁prolong	-9251
▁replica	-9252
▁surgeon	-9253
▁Trafford	-9254
▁consolid	-9255
▁operative	-9256
▁completion	-9257
▁prescription	-9258
jab	-9259
omp	-9260
orp	-9261
uan	-9262
▁2-	-9263
▁EM	-9264
▁Sn	-9265
side	-9266
team	-9267
▁Bed	-9268
▁Fat	-9269
▁Jac	-9270
▁Lip	-9271
▁Maz	-9272
▁Nai	-9273
▁bud	-9274
▁gle	-9275
▁mph	-9276
▁ura	-9277
opard	-9278
orman	-9279
▁Dart	-9280
▁Idah	-9281
▁Song	-9282
▁Swan	-9283
▁acco	-9284
▁pest	-9285
▁reel	-9286
▁rubb	-9287
▁seam	-9288
▁surf	-9289
▁2014.	-9290
▁Costa	-9291
▁Wayne	-9292
▁clave	-9293
▁globe	-9294
▁tribe	-9295
control	-9296
quality	-9297
rentice	-9298
▁Slovak	-9299
▁absurd	-9300
▁censor	-9301
▁corona	-9302
▁priest	-9303
▁sleeve	-9304
▁Natural	-9305
▁appreci	-9306
▁precedent	-9307
▁Kardashian	-9308
/1	-9309
58	-9310
Su	-9311
ía	-9312
400	-9313
asy	-9314
net	-9315
sit	-9316
urt	-9317
▁CC	-9318
▁CR	-9319
▁MG	-9320
ship	-9321
▁20.	-9322
▁50%	-9323
▁Cho	-9324
▁Dow	-9325
▁Kai	-9326
▁bay	-9327
▁emi	-9328
▁ick	-9329
▁nak	-9330
▁ria	-9331
▁ugu	-9332
unite	-9333
▁Lyon	-9334
▁diam	-9335
▁guez	-9336
▁mall	-9337
▁tube	-9338
▁ների	-9339
ousers	-9340
ration	-9341
▁2012.	-9342
▁Regul	-9343
▁eater	-9344
▁eties	-9345
▁grapp	-9346
▁queue	-9347
▁tween	-9348
▁Consum	-9349
▁Dakota	-9350
▁burger	-9351
▁digest	-9352
▁humble	-9353
▁racket	-9354
▁sketch	-9355
▁slogan	-9356
▁Crystal	-9357
▁elegant	-9358
▁lecture	-9359
▁militia	-9360
▁mechanic	-9361
▁trousers	-9362
utterstock	-9363
▁conductor	-9364
▁simultane	-9365
47	-9366
án	-9367
hid	-9368
▁AA	-9369
acle	-9370
arce	-9371
five	-9372
heav	-9373
ttar	-9374
ucus	-9375
wide	-9376
▁40-	-9377
▁Buy	-9378
▁Ext	-9379
▁IVE	-9380
▁Lav	-9381
▁Rug	-9382
▁Zoo	-9383
▁iah	-9384
▁lur	-9385
▁rol	-9386
alymp	-9387
▁Bene	-9388
▁Brew	-9389
▁Chad	-9390
▁Saka	-9391
▁Side	-9392
▁Sure	-9393
▁Wick	-9394
▁clam	-9395
▁rage	-9396
▁rope	-9397
▁slim	-9398
modate	-9399
▁Barba	-9400
▁Circu	-9401
▁Crook	-9402
▁Multi	-9403
▁delet	-9404
▁dimin	-9405
▁drift	-9406
▁taker	-9407
▁Beyond	-9408
▁Domini	-9409
▁Flight	-9410
▁Shadow	-9411
▁accent	-9412
▁caucus	-9413
▁ckless	-9414
▁demean	-9415
▁hybrid	-9416
cinating	-9417
▁Collect	-9418
▁confine	-9419
▁disgust	-9420
▁reunite	-9421
▁scatter	-9422
▁Alexandr	-9423
▁Criminal	-9424
▁diminish	-9425
▁download	-9426
▁obstruct	-9427
▁suppress	-9428
▁accommodate	-9429
Of	-9430
50,	-9431
dem	-9432
▁(@	-9433
▁Ki	-9434
▁SO	-9435
▁VA	-9436
▁oh	-9437
":"0	-9438
coln	-9439
hana	-9440
nsic	-9441
oria	-9442
▁3-0	-9443
▁Flo	-9444
▁Opp	-9445
▁lec	-9446
▁nag	-9447
▁uru	-9448
▁zer	-9449
ousaf	-9450
three	-9451
white	-9452
▁2026	-9453
▁Amit	-9454
▁Born	-9455
▁Cold	-9456
▁Cork	-9457
▁Hass	-9458
▁Jude	-9459
▁Kris	-9460
▁Rest	-9461
▁Trib	-9462
▁lawn	-9463
▁pher	-9464
▁tire	-9465
▁tong	-9466
▁trim	-9467
resses	-9468
undred	-9469
▁2011,	-9470
▁Claud	-9471
▁Front	-9472
▁Uttar	-9473
▁alloc	-9474
▁comic	-9475
▁fluid	-9476
▁imper	-9477
▁irrit	-9478
▁marry	-9479
▁vigil	-9480
▁Inform	-9481
▁Norman	-9482
▁deepen	-9483
▁divert	-9484
▁shrink	-9485
sticated	-9486
▁Product	-9487
▁diamond	-9488
▁harvest	-9489
▁pioneer	-9490
President	-9491
▁Paralymp	-9492
▁Norwegian	-9493
▁therapist	-9494
▁ophisticated	-9495
ji	-9496
hum	-9497
imu	-9498
rif	-9499
▁51	-9500
▁OL	-9501
▁og	-9502
▁եւ	-9503
fied	-9504
four	-9505
leep	-9506
risk	-9507
vene	-9508
▁Cai	-9509
▁Hub	-9510
▁lib	-9511
▁rop	-9512
video	-9513
xious	-9514
▁Scho	-9515
▁Volo	-9516
▁ardo	-9517
▁duck	-9518
▁geon	-9519
▁hara	-9520
▁hort	-9521
▁isle	-9522
▁leaf	-9523
▁mild	-9524
▁2008,	-9525
▁Belle	-9526
▁Monte	-9527
▁Pedro	-9528
▁Rebec	-9529
▁Roone	-9530
▁Thame	-9531
▁Ultra	-9532
▁fancy	-9533
▁fasci	-9534
▁metro	-9535
▁Rescue	-9536
▁dispar	-9537
▁lipped	-9538
▁patrol	-9539
▁summon	-9540
▁tattoo	-9541
▁inflamm	-9542
▁Standard	-9543
▁activate	-9544
▁deserved	-9545
▁rehabilit	-9546
▁fascinating	-9547
76	-9548
Ma	-9549
ño	-9550
ակ	-9551
900	-9552
des	-9553
jec	-9554
rim	-9555
sal	-9556
▁2:	-9557
▁Ay	-9558
▁PP	-9559
▁SM	-9560
▁ps	-9561
....	-9562
Hama	-9563
West	-9564
best	-9565
vail	-9566
▁Kon	-9567
▁Lam	-9568
▁Nep	-9569
▁Nit	-9570
▁Ras	-9571
▁ila	-9572
▁kum	-9573
▁	-9574
e	-9575
t	-9576
a	-9577
o	-9578
i	-9579
n	-9580
s	-9581
r	-9582
h	-9583
l	-9584
d	-9585
c	-9586
u	-9587
m	-9588
g	-9589
f	-9590
p	-9591
y	-9592
w	-9593
b	-9594
,	-9595
.	-9596
v	-9597
k	-9598
"	-9599
'	-9600
T	-9601
I	-9602
S	-9603
-	-9604
A	-9605
C	-9606
0	-9607
M	-9608
B	-9609
2	-9610
P	-9611
x	-9612
H	-9613
1	-9614
W	-9615
D	-9616
R	-9617
N	-9618
j	-9619
L	-9620
F	-9621
G	-9622
E	-9623
O	-9624
:	-9625
z	-9626
J	-9627
U	-9628
K	-9629
q	-9630
5	-9631
3	-9632
4	-9633
9	-9634
)	-9635
(	-9636
6	-9637
V	-9638
8	-9639
7	-9640
Y	-9641
?	-9642
/	-9643
$	-9644
£	-9645
%	-9646
!	-9647
;	-9648
Z	-9649
X	-9650
Q	-9651
]	-9652
[	-9653
ա	-9654
>	-9655
&	-9656
<	-9657
*	-9658
é	-9659
ն	-9660
ր	-9661
_	-9662
ո	-9663
ե	-9664
ի	-9665
@	-9666
ւ	-9667
+	-9668
á	-9669
}	-9670
ó	-9671
=	-9672
մ	-9673
\	-9674
í	-9675
{	-9676
կ	-9677
­	-9678
#	-9679
տ	-9680
յ	-9681
€	-9682
վ	-9683
ս	-9684
լ	-9685
ց	-9686
հ	-9687
ñ	-9688
դ	-9689
թ	-9690
գ	-9691
ը	-9692
É	-9693
â	-9694
ղ	-9695
բ	-9696
պ	-9697
è	-9698
ü	-9699
ք	-9700
ú	-9701
է	-9702
Ա	-9703
•	-9704
ö	-9705
ծ	-9706
	-9707
խ	-9708
շ	-9709
ռ	-9710
զ	-9711
Ե	-9712
ջ	-9713
։	-9714
°	-9715
չ	-9716
Մ	-9717
©	-9718
à	-9719
Ր	-9720
ç	-9721
Ն	-9722
■	-9723
ä	-9724
′	-9725
՝	-9726
ձ	-9727
⁄	-9728
Հ	-9729
―	-9730
Á	-9731
ø	-9732
ā	-9733
ô	-9734
Ի	-9735
փ	-9736
₹	-9737
Ս	-9738
ã	-9739
ï	-9740
ë	-9741
	-9742
å	-9743
️	-9744
ć	-9745
օ	-9746
★	-9747
‐	-9748
	-9749
ê	-9750
Պ	-9751
Ö	-9752
ժ	-9753
Կ	-9754
Վ	-9755
	-9756
ğ	-9757
ճ	-9758
`	-9759
	-9760
♦	-9761
🥇	-9762
Ó	-9763
Բ	-9764
❤	-9765
î	-9766
č	-9767
Գ	-9768
ō	-9769
Ø	-9770
ł	-9771
ֆ	-9772
Լ	-9773
Տ	-9774
·	-9775
¿	-9776
Â	-9777
ă	-9778
ı	-9779
š	-9780
®	-9781
Å	-9782
Ո	-9783
●	-9784
¢	-9785
ò	-9786
Յ	-9787
😂	-9788
¡	-9789
đ	-9790
ș	-9791
Դ	-9792
Ը	-9793
Թ	-9794
Ֆ	-9795
😭	-9796
🤣	-9797
🥹	-9798
	-9799
×	-9800
ù	-9801
ş	-9802
Š	-9803
ŷ	-9804
Զ	-9805
Ռ	-9806
Փ	-9807
‍	-9808
⁠	-9809
−	-9810
À	-9811
Ã	-9812
Ç	-9813
ì	-9814
û	-9815
ý	-9816
ū	-9817
ŵ	-9818
ž	-9819
Շ	-9820
Ջ	-9821
Ւ	-9822
⁣	-9823
♬	-9824
🐎	-9825
🔥	-9826
¦	-9827
±	-9828
Ä	-9829
Ü	-9830
ė	-9831
ț	-9832
Ժ	-9833
Ք	-9834
Օ	-9835
▶	-9836
⚽	-9837
✔	-9838
😍	-9839
🙄	-9840
🙏	-9841
^	-9842
	-9843
	-9844
§	-9845
È	-9846
Î	-9847
ß	-9848
æ	-9849
Đ	-9850
ē	-9851
ģ	-9852
ń	-9853
ņ	-9854
ň	-9855
С	-9856
Ճ	-9857
Չ	-9858
՛	-9859
՞	-9860
ạ	-9861
ầ	-9862
ắ	-9863
ờ	-9864
‭	-9865
›	-9866
⁦	-9867
⁩	-9868
₱	-9869
℞	-9870
☆	-9871
♂	-9872
♪	-9873
❌	-9874
・	-9875
︎	-9876
𝄒	-9877
🏻	-9878
🏼	-9879
👈	-9880
👉	-9881
💕	-9882
💨	-9883
📸	-9884
😅	-9885
😮	-9886
🤦	-9887
~	-9888
	-9889
	-9890
Í	-9891
Ò	-9892
Ô	-9893
þ	-9894
ÿ	-9895
ą	-9896
Ć	-9897
Ē	-9898
ę	-9899
ī	-9900
İ	-9901
ř	-9902
ś	-9903
Ş	-9904
ţ	-9905
ż	-9906
ư	-9907
ə	-9908
ʔ	-9909
ʻ	-9910
̄	-9911
̈	-9912
μ	-9913
О	-9914
У	-9915
а	-9916
и	-9917
к	-9918
н	-9919
р	-9920
ї	-9921
Է	-9922
Խ	-9923
Ծ	-9924
Ձ	-9925
Ղ	-9926
฿	-9927
ḥ	-9928
Ṡ	-9929
ṣ	-9930
ả	-9931
ẹ	-9932
ế	-9933
ệ	-9934
ị	-9935
ọ	-9936
ố	-9937
ộ	-9938
ợ	-9939
ừ	-9940
ự	-9941
ỹ	-9942
‬	-9943
⁤	-9944
₦	-9945
↔	-9946
⊕	-9947
⏳	-9948
►	-9949
◀	-9950
☀	-9951
♀	-9952
♥	-9953
✅	-9954
✨	-9955
⭐	-9956
🇱	-9957
🇳	-9958
🇸	-9959
🇺	-9960
🌪	-9961
🌴	-9962
🌹	-9963
🍓	-9964
🍹	-9965
🎁	-9966
🎢	-9967
🎪	-9968
🏆	-9969
🏽	-9970
🏾	-9971
👀	-9972
👍	-9973
👏	-9974
💙	-9975
💥	-9976
📋	-9977
📍	-9978
📷	-9979
😆	-9980
😊	-9981
😢	-9982
😱	-9983
😳	-9984
🙌	-9985
🛒	-9986
🤎	-9987
🤔	-9988
🤫	-9989
🤯	-9990
🤵	-9991
🤷	-9992
🥅	-9993
🥥	-9994
🥪	-9995
🥺	-9996
