<unk>	0
<s>	0
</s>	0
▁ا	-0
▁ب	-1
▁م	-2
▁د	-3
▁ک	-4
ان	-5
را	-6
▁ه	-7
ست	-8
▁و	-9
▁ت	-10
ند	-11
ار	-12
ای	-13
ین	-14
▁در	-15
▁ش	-16
▁ن	-17
▁به	-18
▁می	-19
▁آ	-20
▁س	-21
ید	-22
ود	-23
▁خ	-24
▁که	-25
▁از	-26
▁را	-27
▁است	-28
▁با	-29
▁ی	-30
رد	-31
اد	-32
ال	-33
▁این	-34
▁پ	-35
رو	-36
ام	-37
ری	-38
▁گ	-39
▁ج	-40
▁ف	-41
▁ح	-42
اه	-43
▁های	-44
رای	-45
▁کن	-46
ما	-47
▁آن	-48
▁ع	-49
ور	-50
▁چ	-51
یم	-52
▁ز	-53
▁یک	-54
شت	-55
لی	-56
▁تو	-57
▁هم	-58
▁ق	-59
▁برای	-60
ات	-61
اب	-62
سی	-63
فت	-64
ون	-65
▁شد	-66
▁بر	-67
یر	-68
▁ر	-69
از	-70
▁ها	-71
▁کرد	-72
▁رو	-73
▁خو	-74
ول	-75
▁ان	-76
▁من	-77
▁مو	-78
ها	-79
گر	-80
می	-81
▁خود	-82
اری	-83
انی	-84
لا	-85
تی	-86
اده	-87
▁ط	-88
▁دار	-89
▁نی	-90
▁شما	-91
▁ای	-92
▁بود	-93
گی	-94
▁بی	-95
▁کار	-96
▁توان	-97
▁باش	-98
تر	-99
▁ص	-100
▁ده	-101
وی	-102
های	-103
▁دا	-104
▁یا	-105
مان	-106
زی	-107
▁تا	-108
▁کند	-109
▁شود	-110
▁ما	-111
▁او	-112
خت	-113
▁شده	-114
▁کنند	-115
▁سال	-116
کن	-117
▁ام	-118
اس	-119
وان	-120
▁دو	-121
اید	-122
یت	-123
رک	-124
▁کنید	-125
▁دی	-126
▁(	-127
ایی	-128
▁هست	-129
▁هر	-130
..	-131
▁خواه	-132
▁پی	-133
▁مح	-134
دی	-135
انه	-136
ده	-137
▁آم	-138
نی	-139
▁مت	-140
بی	-141
▁مع	-142
اق	-143
▁اف	-144
شته	-145
▁اند	-146
▁ل	-147
▁تر	-148
▁اما	-149
قی	-150
له	-151
نگ	-152
▁باشد	-153
▁دست	-154
گاه	-155
رت	-156
بت	-157
یا	-158
دا	-159
▁دارد	-160
عی	-161
▁نمی	-162
▁آنها	-163
▁حال	-164
▁دان	-165
▁فر	-166
▁باید	-167
▁غ	-168
▁ال	-169
مای	-170
بر	-171
▁اگر	-172
فته	-173
▁کم	-174
▁سر	-175
▁مش	-176
شان	-177
▁شو	-178
▁«	-179
فاده	-180
▁کش	-181
▁استفاده	-182
اره	-183
که	-184
▁بد	-185
▁1	-186
▁چه	-187
رف	-188
وز	-189
▁چی	-190
جه	-191
▁باز	-192
ارد	-193
امه	-194
▁،	-195
نده	-196
▁اس	-197
▁گر	-198
▁بسی	-199
یل	-200
جود	-201
اف	-202
▁نظ	-203
ادی	-204
▁دیگر	-205
عه	-206
رار	-207
▁مد	-208
▁هستند	-209
جام	-210
▁مورد	-211
اخت	-212
وری	-213
به	-214
▁زی	-215
▁نو	-216
▁تح	-217
عت	-218
▁کرده	-219
▁دهد	-220
▁انجام	-221
▁داد	-222
▁پیش	-223
▁روز	-224
دید	-225
▁رس	-226
▁بین	-227
نین	-228
▁مق	-229
▁2	-230
▁تن	-231
عد	-232
▁مرد	-233
▁گذ	-234
▁نیست	-235
▁عن	-236
زار	-237
وم	-238
کی	-239
▁بخ	-240
▁زند	-241
شی	-242
▁تواند	-243
رگ	-244
▁همه	-245
▁زم	-246
اط	-247
▁وجود	-248
مل	-249
▁مس	-250
▁جه	-251
▁تم	-252
▁بیشت	-253
▁انت	-254
قت	-255
▁اج	-256
ستان	-257
الی	-258
▁نیز	-259
فر	-260
▁ند	-261
▁مه	-262
▁اح	-263
▁عنوان	-264
خص	-265
▁قرار	-266
▁پس	-267
ریک	-268
رات	-269
یده	-270
▁بز	-271
رکت	-272
▁خواهد	-273
▁مم	-274
▁ساز	-275
رس	-276
▁هی	-277
وت	-278
وا	-279
▁روی	-280
▁توس	-281
▁ات	-282
▁داشته	-283
ونه	-284
امل	-285
▁مان	-286
...	-287
▁وی	-288
کر	-289
▁کشور	-290
نامه	-291
▁زندگی	-292
▁داشت	-293
▁دانش	-294
کل	-295
▁واق	-296
▁۱	-297
▁مط	-298
▁راه	-299
▁ممکن	-300
وه	-301
خی	-302
▁همچ	-303
▁سی	-304
قه	-305
▁گفت	-306
شن	-307
چه	-308
▁.	-309
▁شوند	-310
▁جم	-311
▁تص	-312
▁تج	-313
ورد	-314
امی	-315
ینه	-316
▁داده	-317
رز	-318
▁مج	-319
اص	-320
▁بیشتر	-321
رب	-322
▁گو	-323
▁بازی	-324
▁دارند	-325
▁بسیار	-326
▁اط	-327
ایت	-328
▁شرکت	-329
▁کردن	-330
▁نیاز	-331
در	-332
▁نظر	-333
▁هیچ	-334
گان	-335
مو	-336
▁زمان	-337
▁هایی	-338
▁شن	-339
شد	-340
کان	-341
فا	-342
▁طور	-343
▁بزرگ	-344
▁نام	-345
▁"	-346
ترین	-347
00	-348
▁نق	-349
▁افرا	-350
▁کس	-351
عات	-352
▁کنیم	-353
ره	-354
▁اول	-355
ازه	-356
▁یکی	-357
▁آمریک	-358
▁اص	-359
با	-360
▁برنامه	-361
▁جدید	-362
حی	-363
▁شه	-364
▁تنها	-365
ورت	-366
▁تغ	-367
▁بگ	-368
▁دور	-369
▁کل	-370
▁مث	-371
مند	-372
سان	-373
▁حد	-374
▁نه	-375
کت	-376
▁چند	-377
▁ساخت	-378
▁کمک	-379
شه	-380
▁همچنین	-381
er	-382
▁پرو	-383
زای	-384
▁مردم	-385
ارت	-386
▁۲	-387
صد	-388
▁فق	-389
▁زن	-390
▁پای	-391
لب	-392
▁ماه	-393
اند	-394
▁بن	-395
جا	-396
▁نشان	-397
▁نا	-398
▁تغی	-399
لام	-400
▁قب	-401
▁اد	-402
▁چیزی	-403
رائ	-404
ژی	-405
▁سو	-406
▁واقع	-407
سته	-408
فی	-409
ستم	-410
▁بار	-411
▁S	-412
▁توانید	-413
▁آز	-414
▁قد	-415
.»	-416
▁توسط	-417
باره	-418
▁اش	-419
▁اع	-420
جاد	-421
▁ایر	-422
▁دهند	-423
▁جن	-424
▁ایجاد	-425
ابل	-426
اک	-427
▁گی	-428
▁همان	-429
▁تمام	-430
یه	-431
▁آموز	-432
▁صورت	-433
▁بیم	-434
▁فقط	-435
رم	-436
▁بعد	-437
کار	-438
▁آیا	-439
▁بل	-440
▁چیز	-441
▁کنم	-442
in	-443
▁خدا	-444
▁کو	-445
بان	-446
▁جهان	-447
▁طول	-448
▁بیش	-449
▁تب	-450
▁نش	-451
▁دل	-452
▁C	-453
خاب	-454
▁مص	-455
گونه	-456
▁خی	-457
▁ض	-458
▁مانند	-459
▁بسیاری	-460
▁تع	-461
▁فع	-462
▁باشید	-463
▁ك	-464
▁تق	-465
▁تول	-466
اض	-467
هایی	-468
▁ارت	-469
بود	-470
▁انتخاب	-471
▁حتی	-472
مت	-473
راه	-474
▁نس	-475
▁هن	-476
▁اینکه	-477
▁ری	-478
روز	-479
▁افراد	-480
لف	-481
▁آی	-482
▁ترین	-483
رسی	-484
▁سه	-485
▁خط	-486
▁نم	-487
▁آمریکا	-488
▁یاد	-489
▁اطلا	-490
on	-491
▁رفت	-492
تاب	-493
رده	-494
مین	-495
نج	-496
▁A	-497
▁برخی	-498
شم	-499
▁وق	-500
کس	-501
▁مهم	-502
لیل	-503
ژه	-504
▁زمانی	-505
سه	-506
▁خان	-507
مال	-508
▁ث	-509
قیق	-510
تان	-511
▁گرفت	-512
وب	-513
▁غیر	-514
وش	-515
توان	-516
نه	-517
اتی	-518
▁کردند	-519
▁دول	-520
گری	-521
▁برا	-522
an	-523
وق	-524
▁جای	-525
▁ایران	-526
▁باشند	-527
وع	-528
▁کود	-529
ثر	-530
▁-	-531
▁افزای	-532
ادر	-533
بال	-534
واه	-535
ونی	-536
▁افزایش	-537
▁دهید	-538
▁سا	-539
ستی	-540
▁کتاب	-541
ابی	-542
▁نمای	-543
گیری	-544
▁بخش	-545
ساس	-546
▁آب	-547
▁مرا	-548
▁تغییر	-549
▁فیل	-550
ریق	-551
▁تولید	-552
▁چرا	-553
▁درصد	-554
ینی	-555
▁20	-556
▁غذ	-557
دام	-558
▁شخص	-559
▁مشت	-560
▁توانند	-561
▁اطلاعات	-562
▁همین	-563
▁ذ	-564
▁شب	-565
▁فکر	-566
▁M	-567
▁بع	-568
رح	-569
▁توجه	-570
یس	-571
یدا	-572
▁هد	-573
▁علا	-574
▁ارائ	-575
▁سیا	-576
▁فرو	-577
ضی	-578
▁دید	-579
▁ارائه	-580
ایل	-581
▁ایم	-582
زینه	-583
▁حق	-584
▁مشکل	-585
مه	-586
▁میلی	-587
▁تش	-588
▁فعال	-589
▁اخ	-590
▁گرو	-591
▁کسی	-592
▁بوده	-593
▁وقتی	-594
▁چگونه	-595
▁مخت	-596
▁خار	-597
▁عم	-598
وط	-599
رام	-600
ریت	-601
اً	-602
▁3	-603
▁P	-604
▁نخ	-605
جی	-606
▁“	-607
▁بدون	-608
▁خد	-609
▁دوست	-610
▁فرد	-611
عیت	-612
مات	-613
▁بودند	-614
▁اعت	-615
▁زیادی	-616
▁احت	-617
وس	-618
▁شدن	-619
گز	-620
▁عمل	-621
▁گرد	-622
▁خانه	-623
▁درباره	-624
▁هنگ	-625
▁پیدا	-626
▁عل	-627
ar	-628
▁گرفته	-629
▁کاه	-630
▁برد	-631
بط	-632
▁گروه	-633
راحی	-634
▁معم	-635
▁جنگ	-636
▁آل	-637
قل	-638
یشه	-639
▁اه	-640
۰۰	-641
▁سیستم	-642
تما	-643
روع	-644
بار	-645
▁ژ	-646
▁کاهش	-647
رزش	-648
▁خیلی	-649
▁وا	-650
▁حس	-651
▁–	-652
▁مطال	-653
▁بال	-654
▁شهر	-655
زه	-656
وند	-657
راین	-658
▁سازمان	-659
▁خوب	-660
من	-661
رین	-662
▁شروع	-663
▁اقت	-664
فق	-665
لیه	-666
▁دولت	-667
▁ترک	-668
گه	-669
▁کام	-670
وص	-671
▁دنی	-672
▁دریا	-673
▁متح	-674
است	-675
or	-676
الات	-677
یمی	-678
▁اب	-679
▁سایت	-680
▁B	-681
▁اقتص	-682
▁سپ	-683
▁نفر	-684
▁احساس	-685
▁فیلم	-686
▁قابل	-687
▁موض	-688
▁شک	-689
▁پر	-690
▁دلیل	-691
▁دیگری	-692
کرد	-693
▁اولین	-694
▁چنین	-695
ودی	-696
ازی	-697
رکز	-698
اسی	-699
▁کننده	-700
▁انسان	-701
▁قبل	-702
پی	-703
▁بناب	-704
▁بهترین	-705
وار	-706
دار	-707
سر	-708
▁T	-709
▁امروز	-710
▁نز	-711
یف	-712
رید	-713
▁منط	-714
زش	-715
▁مست	-716
▁میان	-717
▁دارید	-718
باط	-719
▁منت	-720
▁کسب	-721
▁صح	-722
▁19	-723
▁روش	-724
بین	-725
▁جل	-726
▁تاری	-727
▁:	-728
▁خواهید	-729
en	-730
▁ندارد	-731
▁آورد	-732
▁حرف	-733
▁همیشه	-734
یدن	-735
عث	-736
▁تلا	-737
▁باعث	-738
▁انگ	-739
▁زبان	-740
ربه	-741
سم	-742
▁بنابراین	-743
▁پرد	-744
▁کوچ	-745
▁افت	-746
▁فرا	-747
▁D	-748
▁ارو	-749
▁موفق	-750
▁خواهند	-751
شتی	-752
▁دن	-753
▁خانو	-754
▁دارای	-755
▁پاس	-756
▁قدرت	-757
▁ولی	-758
▁اق	-759
▁گذشته	-760
▁ارتباط	-761
▁مدت	-762
▁مخ	-763
▁توسعه	-764
▁معمول	-765
ران	-766
ظه	-767
▁سط	-768
▁طراحی	-769
al	-770
at	-771
▁اجتما	-772
مد	-773
▁محص	-774
▁طریق	-775
ویی	-776
طور	-777
▁دنبال	-778
▁...	-779
▁شم	-780
▁اروپ	-781
▁قان	-782
▁جهانی	-783
▁201	-784
▁5	-785
ولی	-786
▁تلاش	-787
▁کاری	-788
▁سری	-789
▁بهتر	-790
es	-791
▁آنچه	-792
اشت	-793
▁تعد	-794
▁هدف	-795
▁4	-796
اور	-797
▁مختلف	-798
▁I	-799
▁وب	-800
▁آینده	-801
اهی	-802
ریان	-803
▁شامل	-804
▁دانشگاه	-805
فاق	-806
▁هنوز	-807
▁محصول	-808
▁خاص	-809
میم	-810
نان	-811
▁پذ	-812
رن	-813
▁اصلی	-814
مایه	-815
▁زیر	-816
ندی	-817
▁اجتماعی	-818
▁خرید	-819
▁بالا	-820
▁قط	-821
▁لی	-822
▁سن	-823
▁بدن	-824
▁نوع	-825
▁اتفاق	-826
▁اشت	-827
هن	-828
▁سای	-829
▁سرمایه	-830
اسب	-831
▁دریافت	-832
▁مسئ	-833
▁مدی	-834
▁ادامه	-835
▁فروش	-836
▁المل	-837
▁گفته	-838
▁حدود	-839
▁تک	-840
▁تجربه	-841
شر	-842
▁تأ	-843
▁تحقیق	-844
ثیر	-845
▁H	-846
▁[	-847
افی	-848
▁حاض	-849
▁دادن	-850
▁مصرف	-851
▁جز	-852
▁G	-853
▁کمی	-854
▁نسبت	-855
فاوت	-856
▁احتمال	-857
▁اندازه	-858
▁ته	-859
▁زنان	-860
▁پاسخ	-861
▁خانواده	-862
این	-863
انس	-864
▁زیرا	-865
▁درمان	-866
اپ	-867
▁صد	-868
▁همراه	-869
دم	-870
ائ	-871
دود	-872
▁بررسی	-873
▁حاضر	-874
دیل	-875
▁رشد	-876
▁کوچک	-877
▁حالی	-878
▁هزینه	-879
▁آموزش	-880
▁مالی	-881
▁نزدی	-882
▁منطقه	-883
ترل	-884
صوص	-885
▁ندار	-886
▁نیرو	-887
▁ساعت	-888
▁میز	-889
▁المللی	-890
▁فعالیت	-891
▁خوبی	-892
▁میلیون	-893
رایط	-894
▁خاط	-895
▁چهار	-896
▁جام	-897
کنون	-898
▁گزار	-899
▁اض	-900
▁هفته	-901
▁شرایط	-902
▁حل	-903
▁کنترل	-904
▁تبدیل	-905
▁اید	-906
▁کلی	-907
▁وقت	-908
▁پزش	-909
▁کامل	-910
▁صف	-911
▁داخ	-912
▁شی	-913
تیجه	-914
▁تحت	-915
▁زمین	-916
یدی	-917
▁مل	-918
▁دوره	-919
▁طبی	-920
اران	-921
اش	-922
▁بده	-923
لاح	-924
▁R	-925
ربی	-926
▁فض	-927
▁آغ	-928
▁وارد	-929
▁بتوان	-930
گرد	-931
بری	-932
▁پنج	-933
▁ظ	-934
▁گست	-935
▁موضوع	-936
▁تصمیم	-937
▁بلکه	-938
▁سطح	-939
▁ارزش	-940
▁نتیجه	-941
ازم	-942
▁بیماری	-943
وست	-944
▁خصوص	-945
نا	-946
▁اک	-947
▁بازار	-948
▁مسی	-949
▁اجازه	-950
▁چون	-951
شار	-952
it	-953
▁گزارش	-954
▁هزار	-955
▁جمه	-956
▁تان	-957
▁صحبت	-958
▁گوید	-959
گران	-960
▁۲۰	-961
▁اخت	-962
▁E	-963
▁مرب	-964
▁کان	-965
▁شاید	-966
▁صن	-967
حه	-968
▁سب	-969
▁تعداد	-970
▁۳	-971
▁متحده	-972
▁مواد	-973
▁شدند	-974
▁ار	-975
▁مدیریت	-976
▁سخ	-977
ندان	-978
▁مثال	-979
▁L	-980
le	-981
▁چشم	-982
▁بیشتری	-983
▁پول	-984
▁شکل	-985
رژی	-986
▁اغ	-987
▁دلار	-988
ندگان	-989
▁گذاری	-990
▁آسی	-991
▁آغاز	-992
▁پایان	-993
▁وز	-994
دن	-995
▁وض	-996
یره	-997
▁آخ	-998
▁واقعی	-999
ic	-1000
کو	-1001
▁سل	-1002
عنی	-1003
▁ایالات	-1004
▁مغ	-1005
▁درست	-1006
▁هستید	-1007
▁بگیر	-1008
▁سف	-1009
▁F	-1010
▁برابر	-1011
رش	-1012
▁سلام	-1013
▁جمله	-1014
▁ابت	-1015
▁۱۹	-1016
بران	-1017
رون	-1018
▁مف	-1019
رض	-1020
ابت	-1021
▁طرف	-1022
▁کردم	-1023
برد	-1024
».	-1025
▁خوش	-1026
▁سازی	-1027
▁اغلب	-1028
▁نگاه	-1029
نت	-1030
مانی	-1031
▁مربوط	-1032
اح	-1033
اله	-1034
▁حمای	-1035
▁گیر	-1036
▁مثل	-1037
st	-1038
▁W	-1039
کاری	-1040
رخ	-1041
▁اینجا	-1042
▁امکان	-1043
▁بح	-1044
▁اساس	-1045
▁مناسب	-1046
▁نبود	-1047
▁مطالعه	-1048
▁نوی	-1049
▁اروپا	-1050
▁چین	-1051
بته	-1052
▁مک	-1053
▁منظ	-1054
▁یعنی	-1055
▁محدود	-1056
▁دنیا	-1057
▁سرا	-1058
▁ره	-1059
▁حض	-1060
▁رسد	-1061
▁پذیر	-1062
مایش	-1063
تری	-1064
▁دیگران	-1065
▁مشخص	-1066
▁گیری	-1067
▁نزدیک	-1068
▁شوید	-1069
▁عب	-1070
▁تاریخ	-1071
▁پروژه	-1072
▁کسانی	-1073
▁زمینه	-1074
▁تیم	-1075
ویر	-1076
▁حمایت	-1077
قات	-1078
▁قیم	-1079
▁جا	-1080
▁شبکه	-1081
▁انرژی	-1082
میت	-1083
▁لازم	-1084
▁6	-1085
اخته	-1086
لس	-1087
▁امن	-1088
▁گیرد	-1089
▁جو	-1090
▁خدمات	-1091
ولو	-1092
▁گونه	-1093
▁نگه	-1094
▁عمو	-1095
▁یافت	-1096
▁هنگامی	-1097
▁خاطر	-1098
▁البته	-1099
▁N	-1100
▁مرت	-1101
▁نف	-1102
▁روسی	-1103
صل	-1104
▁موجود	-1105
▁خواب	-1106
▁رای	-1107
اقل	-1108
▁اکنون	-1109
گو	-1110
▁جان	-1111
▁اقتصادی	-1112
▁گوی	-1113
▁هوا	-1114
▁بدان	-1115
▁رابط	-1116
ویت	-1117
▁کافی	-1118
▁طب	-1119
▁توص	-1120
▁کودکان	-1121
▁داریم	-1122
اشته	-1123
بانی	-1124
).	-1125
▁کاملا	-1126
جر	-1127
شید	-1128
▁فی	-1129
▁تقری	-1130
▁سایر	-1131
▁نمایش	-1132
▁قانون	-1133
▁اعلام	-1134
هم	-1135
ئیس	-1136
▁سپس	-1137
▁خون	-1138
وده	-1139
خانه	-1140
▁حی	-1141
▁سیاسی	-1142
▁نخواه	-1143
▁سریع	-1144
▁انتظ	-1145
▁قیمت	-1146
▁درک	-1147
▁ملی	-1148
روری	-1149
▁ست	-1150
▁شخصی	-1151
▁آزمایش	-1152
▁بان	-1153
▁۵	-1154
▁پیشر	-1155
▁بهبود	-1156
لاف	-1157
▁مرگ	-1158
▁تقریبا	-1159
▁جامعه	-1160
▁دخ	-1161
▁رسید	-1162
▁کمتر	-1163
اهای	-1164
ro	-1165
جوی	-1166
▁كه	-1167
▁داستان	-1168
▁سفر	-1169
▁درخ	-1170
▁رنگ	-1171
▁شان	-1172
▁موارد	-1173
▁دارم	-1174
امبر	-1175
▁تکن	-1176
▁طبیعی	-1177
▁ساخته	-1178
ریم	-1179
▁هرگز	-1180
▁محی	-1181
▁فرز	-1182
▁محیط	-1183
▁نت	-1184
▁بعضی	-1185
▁ساده	-1186
re	-1187
▁شناس	-1188
▁کودک	-1189
▁مذ	-1190
شین	-1191
▁لب	-1192
▁حف	-1193
ونت	-1194
▁محت	-1195
▁انتق	-1196
▁خارج	-1197
▁حقی	-1198
▁پرس	-1199
▁لح	-1200
▁رابطه	-1201
▁روسیه	-1202
▁سخت	-1203
▁عمومی	-1204
▁اقدام	-1205
ئن	-1206
▁نقش	-1207
▁صفحه	-1208
ابد	-1209
▁ویژه	-1210
ذار	-1211
▁تما	-1212
▁ایده	-1213
▁فرص	-1214
▁موفقیت	-1215
▁رق	-1216
▁عو	-1217
▁آنجا	-1218
▁حداقل	-1219
▁دوم	-1220
دان	-1221
he	-1222
▁آماده	-1223
▁حقوق	-1224
▁پدر	-1225
▁کنار	-1226
▁موق	-1227
▁مشکلات	-1228
▁افرادی	-1229
▁هو	-1230
▁بودن	-1231
▁پرداخت	-1232
▁رود	-1233
▁سیاست	-1234
▁نکن	-1235
▁حفظ	-1236
ولوژی	-1237
ارک	-1238
ئی	-1239
▁ببین	-1240
▁سوی	-1241
▁دقیق	-1242
▁200	-1243
▁رفتار	-1244
▁مجمو	-1245
)،	-1246
گیر	-1247
▁سرعت	-1248
▁حک	-1249
."	-1250
▁۴	-1251
▁حرکت	-1252
▁انگلی	-1253
▁تاثیر	-1254
راح	-1255
▁یافته	-1256
▁نب	-1257
▁خداوند	-1258
▁صرف	-1259
الت	-1260
▁دستگاه	-1261
▁طی	-1262
وک	-1263
اخ	-1264
جو	-1265
غان	-1266
▁7	-1267
▁کشورهای	-1268
ac	-1269
▁تغیی	-1270
▁برخ	-1271
هنگ	-1272
ایج	-1273
▁جست	-1274
▁آنان	-1275
▁علاوه	-1276
لق	-1277
▁قادر	-1278
اهده	-1279
▁حرفه	-1280
▁جوان	-1281
▁۲۰۱	-1282
▁دوباره	-1283
صر	-1284
ion	-1285
▁غذایی	-1286
ابع	-1287
خصص	-1288
▁میزان	-1289
▁جلو	-1290
طه	-1291
یب	-1292
▁نک	-1293
▁خطر	-1294
▁رئیس	-1295
مندان	-1296
راک	-1297
آن	-1298
واست	-1299
ابه	-1300
▁متفاوت	-1301
▁خواست	-1302
▁خواهیم	-1303
▁برو	-1304
▁10	-1305
افه	-1306
▁خارجی	-1307
آمد	-1308
▁تخ	-1309
▁راح	-1310
▁سراسر	-1311
▁حم	-1312
▁امید	-1313
▁بپ	-1314
▁مب	-1315
▁علیه	-1316
▁انتظار	-1317
▁تل	-1318
▁فرم	-1319
▁جایی	-1320
قدر	-1321
▁انگی	-1322
راف	-1323
▁برق	-1324
▁عض	-1325
▁آوری	-1326
ضا	-1327
▁آسیب	-1328
▁بیان	-1329
om	-1330
▁هنگام	-1331
طان	-1332
▁پیشنه	-1333
▁آمد	-1334
▁مادر	-1335
▁آزاد	-1336
el	-1337
▁هستیم	-1338
سال	-1339
▁خورد	-1340
▁آمریکایی	-1341
▁دهه	-1342
▁تف	-1343
کیل	-1344
▁باور	-1345
▁دیده	-1346
▁دسترسی	-1347
▁عکس	-1348
▁بخشی	-1349
▁آید	-1350
▁نویس	-1351
▁وضعیت	-1352
▁معت	-1353
▁واقعا	-1354
▁داشتن	-1355
▁طولانی	-1356
▁ور	-1357
▁کوت	-1358
تن	-1359
ظت	-1360
ستگی	-1361
▁خبر	-1362
▁بیمار	-1363
▁8	-1364
▁زیاد	-1365
روی	-1366
▁معمولا	-1367
▁شر	-1368
▁اینتر	-1369
▁تجاری	-1370
▁مشاهده	-1371
▁نتایج	-1372
▁اشتب	-1373
وریه	-1374
دیگر	-1375
افق	-1376
▁گاهی	-1377
بور	-1378
گار	-1379
داف	-1380
▁برگ	-1381
▁نشده	-1382
▁روند	-1383
▁پایین	-1384
▁مکان	-1385
قق	-1386
▁دهیم	-1387
▁منتشر	-1388
ou	-1389
▁فشار	-1390
سانی	-1391
▁ابزار	-1392
▁مشتریان	-1393
جب	-1394
ing	-1395
▁سعی	-1396
▁آمده	-1397
▁دختر	-1398
▁امنیت	-1399
▁آش	-1400
▁شناخته	-1401
▁معن	-1402
واره	-1403
▁حقیقت	-1404
▁جذ	-1405
▁مبت	-1406
▁مدیر	-1407
▁خواهم	-1408
تیک	-1409
▁9	-1410
▁اضافه	-1411
▁حضور	-1412
▁رخ	-1413
▁حمل	-1414
▁مسل	-1415
▁معنی	-1416
عا	-1417
▁مهارت	-1418
▁عملی	-1419
▁هنر	-1420
▁نباید	-1421
▁کیف	-1422
ومت	-1423
▁محصولات	-1424
▁درد	-1425
▁متو	-1426
▁نظامی	-1427
▁O	-1428
▁فرصت	-1429
▁لذ	-1430
▁عالی	-1431
▁فران	-1432
▁گل	-1433
▁ترس	-1434
▁ایشان	-1435
هر	-1436
ضای	-1437
▁سنگ	-1438
▁مرح	-1439
▁مطم	-1440
is	-1441
▁مدل	-1442
▁حساب	-1443
راتژی	-1444
بات	-1445
▁ساله	-1446
et	-1447
▁کنندگان	-1448
▁بودم	-1449
▁اسرائ	-1450
ماد	-1451
▁خلا	-1452
▁U	-1453
▁خش	-1454
اندن	-1455
▁همکاری	-1456
▁توانایی	-1457
▁استراتژی	-1458
ابط	-1459
ين	-1460
▁دقی	-1461
▁بچه	-1462
▁درخواست	-1463
▁بس	-1464
▁دارو	-1465
▁بندی	-1466
▁رسانه	-1467
▁مبار	-1468
الب	-1469
▁حالا	-1470
▁موسی	-1471
▁منابع	-1472
▁چیست	-1473
▁تمرکز	-1474
▁نخست	-1475
▁تلف	-1476
▁بینی	-1477
▁خور	-1478
▁سرو	-1479
▁بعدی	-1480
▁اقتصاد	-1481
▁سمت	-1482
▁توانیم	-1483
تل	-1484
ادل	-1485
▁مرکز	-1486
▁ثبت	-1487
▁روشن	-1488
هایت	-1489
قای	-1490
▁جنسی	-1491
نو	-1492
▁اشاره	-1493
شق	-1494
▁اشتباه	-1495
▁نیستند	-1496
▁جمع	-1497
▁نوشت	-1498
▁طرح	-1499
▁روابط	-1500
▁نوشته	-1501
▁غذا	-1502
امین	-1503
کنان	-1504
▁کلا	-1505
▁هستم	-1506
▁محل	-1507
▁فراه	-1508
▁توصیه	-1509
▁مرحله	-1510
داری	-1511
▁خودش	-1512
▁کدام	-1513
داشت	-1514
▁عملکرد	-1515
▁حمله	-1516
▁خودتان	-1517
▁آور	-1518
ائل	-1519
▁فراهم	-1520
ol	-1521
▁گویند	-1522
▁دقیقه	-1523
▁پیام	-1524
▁آگاه	-1525
▁مقام	-1526
▁متوجه	-1527
▁افز	-1528
▁پیشنهاد	-1529
▁اکثر	-1530
▁علاقه	-1531
▁شغ	-1532
▁داخلی	-1533
▁منجر	-1534
▁منظور	-1535
فه	-1536
پل	-1537
▁پشتی	-1538
▁اعتماد	-1539
واج	-1540
رال	-1541
▁توضی	-1542
▁مسیر	-1543
▁داشتند	-1544
am	-1545
▁تشکیل	-1546
▁پوست	-1547
▁مقدار	-1548
▁بگیرید	-1549
خیص	-1550
▁تغییرات	-1551
▁مجموعه	-1552
▁صنعت	-1553
▁گزینه	-1554
▁افغان	-1555
▁سوم	-1556
▁تحقیقات	-1557
▁جهت	-1558
▁جمهوری	-1559
▁برس	-1560
▁تحص	-1561
ناه	-1562
▁بسته	-1563
▁اتح	-1564
▁مدرس	-1565
▁نگر	-1566
▁اسل	-1567
▁اتاق	-1568
رافی	-1569
ریه	-1570
▁پیشرفت	-1571
▁مراق	-1572
▁استخ	-1573
▁مها	-1574
تح	-1575
ریف	-1576
▁بازاری	-1577
▁وسی	-1578
▁V	-1579
▁مستق	-1580
▁گرفتن	-1581
▁تشخیص	-1582
▁قر	-1583
▁یه	-1584
اصله	-1585
▁نرم	-1586
سک	-1587
▁مشتری	-1588
▁ماشین	-1589
▁قل	-1590
▁باشیم	-1591
▁ندارند	-1592
▁یابد	-1593
▁انگلیسی	-1594
▁تصویر	-1595
ارس	-1596
▁کال	-1597
▁کاربران	-1598
▁آخرین	-1599
il	-1600
▁کا	-1601
▁توضیح	-1602
▁رژ	-1603
▁هوش	-1604
▁گردد	-1605
▁دادند	-1606
▁اسپ	-1607
▁گیرند	-1608
لیغ	-1609
▁باقی	-1610
▁مطمئن	-1611
▁کی	-1612
گل	-1613
▁نهایت	-1614
▁سخن	-1615
▁تمرین	-1616
▁اجرای	-1617
▁دوستان	-1618
▁شاه	-1619
راق	-1620
مون	-1621
▁نور	-1622
لاین	-1623
▁اثر	-1624
▁برخورد	-1625
▁بهره	-1626
قد	-1627
▁تبلیغ	-1628
میز	-1629
واع	-1630
▁نداشت	-1631
▁کوتاه	-1632
ظیم	-1633
▁مدرسه	-1634
وبی	-1635
عیین	-1636
بیه	-1637
▁ظاه	-1638
▁متن	-1639
▁/	-1640
▁۶	-1641
▁نبا	-1642
▁اث	-1643
▁پشت	-1644
▁انقل	-1645
تش	-1646
▁اهداف	-1647
▁گسترده	-1648
▁مر	-1649
▁نفت	-1650
▁نمود	-1651
▁تعیین	-1652
▁جریان	-1653
▁پوش	-1654
▁ازد	-1655
▁مرتبط	-1656
▁آزادی	-1657
▁اجرا	-1658
▁انواع	-1659
▁وزن	-1660
as	-1661
▁آلمان	-1662
یز	-1663
▁بلند	-1664
▁واقعیت	-1665
خه	-1666
▁سوریه	-1667
▁امر	-1668
▁بخواه	-1669
▁تای	-1670
▁مشابه	-1671
قا	-1672
▁دری	-1673
ed	-1674
ظر	-1675
▁مغز	-1676
▁شکست	-1677
▁توانست	-1678
سل	-1679
▁رژیم	-1680
اتر	-1681
▁بش	-1682
▁ارس	-1683
▁بانک	-1684
▁درآمد	-1685
▁تمامی	-1686
▁بیرون	-1687
▁مردان	-1688
▁محقق	-1689
▁استاند	-1690
▁ابتدا	-1691
▁مسئله	-1692
▁چندین	-1693
▁توافق	-1694
▁اطمین	-1695
▁عشق	-1696
▁مناط	-1697
▁کاناد	-1698
▁بحث	-1699
ad	-1700
▁تهدید	-1701
▁یکدیگر	-1702
▁بو	-1703
▁حالت	-1704
▁همچنان	-1705
▁قس	-1706
▁الله	-1707
▁داخل	-1708
▁سلامت	-1709
▁موسیقی	-1710
oo	-1711
▁ویژ	-1712
▁اهمیت	-1713
▁آموزان	-1714
حال	-1715
ادگی	-1716
ندگی	-1717
▁محاف	-1718
▁اطمینان	-1719
گون	-1720
▁اسرائیل	-1721
ch	-1722
▁خوان	-1723
▁پاک	-1724
▁پا	-1725
▁لذت	-1726
▁عرض	-1727
انیا	-1728
▁مال	-1729
▁نص	-1730
▁جلوگیری	-1731
▁میل	-1732
▁کردیم	-1733
▁کیفیت	-1734
▁آنلاین	-1735
▁اولیه	-1736
▁پزشکی	-1737
▁عق	-1738
▁الکت	-1739
▁میکن	-1740
▁بگو	-1741
▁آسان	-1742
▁سرطان	-1743
▁قوی	-1744
▁محلی	-1745
▁اینترنت	-1746
▁برند	-1747
▁نمونه	-1748
▁نکنید	-1749
▁اعضای	-1750
وای	-1751
▁سود	-1752
▁ورزش	-1753
▁خصوصی	-1754
▁ویژگی	-1755
▁کشف	-1756
▁ازدواج	-1757
▁الع	-1758
▁سفید	-1759
▁نسخه	-1760
▁مقاله	-1761
▁ذهن	-1762
▁فرانسه	-1763
▁هسته	-1764
▁استاندارد	-1765
▁پیچ	-1766
کته	-1767
ادت	-1768
▁قسمت	-1769
الد	-1770
▁سلول	-1771
▁تکنولوژی	-1772
▁افغانستان	-1773
▁جدا	-1774
▁اختی	-1775
▁دک	-1776
▁فیزی	-1777
▁بازگ	-1778
▁نامه	-1779
▁دهنده	-1780
▁گوش	-1781
▁نخواهد	-1782
▁میک	-1783
▁راست	-1784
نم	-1785
اوی	-1786
گذ	-1787
▁درو	-1788
▁؟	-1789
▁پاد	-1790
شناس	-1791
▁خوا	-1792
▁معل	-1793
▁شدید	-1794
▁ارسال	-1795
▁کامپی	-1796
▁دوران	-1797
امت	-1798
لیس	-1799
▁زنده	-1800
▁اخیر	-1801
حل	-1802
▁سالم	-1803
▁فوق	-1804
▁جمهور	-1805
لیت	-1806
▁ارز	-1807
یک	-1808
▁سوال	-1809
جات	-1810
▁۱۰	-1811
▁عد	-1812
▁بگذار	-1813
▁ماند	-1814
▁قرن	-1815
▁پشتیبانی	-1816
▁آرام	-1817
مز	-1818
▁صل	-1819
▁تجارت	-1820
▁گسترش	-1821
رفی	-1822
روس	-1823
▁بازاریابی	-1824
▁وس	-1825
.”	-1826
فاع	-1827
▁مای	-1828
▁ترکیه	-1829
▁میلیارد	-1830
▁تفاوت	-1831
▁انتقال	-1832
▁*	-1833
▁فرهنگ	-1834
▁بک	-1835
▁قوان	-1836
▁جدی	-1837
رامپ	-1838
ئم	-1839
▁)	-1840
چار	-1841
▁پژ	-1842
of	-1843
000	-1844
▁انسانی	-1845
حد	-1846
▁مناطق	-1847
▁پرداز	-1848
بح	-1849
اصل	-1850
▁نیم	-1851
▁مسائل	-1852
▁دانشجوی	-1853
▁»	-1854
▁جدیدی	-1855
تا	-1856
▁اوقات	-1857
▁تازه	-1858
▁کارهای	-1859
خته	-1860
تور	-1861
▁رفتن	-1862
▁خودم	-1863
▁ناب	-1864
▁ترامپ	-1865
ئو	-1866
▁نقطه	-1867
▁۲۰۰	-1868
▁امریک	-1869
▁متخصص	-1870
▁کره	-1871
▁شخصیت	-1872
▁ران	-1873
اها	-1874
▁آقای	-1875
▁تماس	-1876
▁کجا	-1877
▁فرزند	-1878
▁مبارزه	-1879
▁هند	-1880
▁دنیای	-1881
▁نیروهای	-1882
▁تحلیل	-1883
▁مهاج	-1884
▁قلب	-1885
▁نشانه	-1886
▁فلس	-1887
▁قصد	-1888
ابق	-1889
▁آتش	-1890
▁هفت	-1891
▁آدم	-1892
▁پژوه	-1893
▁احتمالا	-1894
▁یادگیری	-1895
▁شبیه	-1896
▁قوانین	-1897
▁ساختمان	-1898
▁نیروی	-1899
▁t	-1900
▁طبق	-1901
▁تری	-1902
▁ایست	-1903
▁بگوی	-1904
▁قدیمی	-1905
▁مشترک	-1906
▁مجبور	-1907
▁معرفی	-1908
▁K	-1909
▁گوگل	-1910
▁ریزی	-1911
▁مقابل	-1912
گفت	-1913
▁پل	-1914
ولیت	-1915
▁اله	-1916
▁شدت	-1917
وتر	-1918
▁صلح	-1919
▁رد	-1920
▁موس	-1921
▁حز	-1922
▁تصور	-1923
▁چقدر	-1924
▁موقعیت	-1925
▁مستقیم	-1926
▁امنی	-1927
▁صبح	-1928
گیرد	-1929
▁فضای	-1930
▁درون	-1931
▁عراق	-1932
روت	-1933
▁تض	-1934
▁جستجو	-1935
▁رسیدن	-1936
▁بنی	-1937
▁مقای	-1938
انیه	-1939
▁بازدید	-1940
▁بزرگترین	-1941
▁دچار	-1942
▁دانست	-1943
وتی	-1944
▁مقایسه	-1945
▁تاب	-1946
▁سیاه	-1947
▁عبارت	-1948
اج	-1949
▁نکته	-1950
▁فرامو	-1951
بع	-1952
▁بشر	-1953
ادیه	-1954
▁اعمال	-1955
کنش	-1956
▁فل	-1957
▁ارزی	-1958
ویزی	-1959
▁گرم	-1960
▁وظ	-1961
سازی	-1962
▁متع	-1963
راب	-1964
▁میش	-1965
▁فصل	-1966
▁علمی	-1967
▁چطور	-1968
▁میتوان	-1969
iv	-1970
▁ترکیب	-1971
▁عدم	-1972
▁اختیار	-1973
▁کانادا	-1974
▁موا	-1975
▁تأثیر	-1976
صه	-1977
▁مطالعات	-1978
and	-1979
▁حاصل	-1980
▁افزار	-1981
▁راحتی	-1982
▁۸	-1983
ینگ	-1984
▁J	-1985
سیون	-1986
▁ژاپ	-1987
▁تلفن	-1988
▁فردی	-1989
▁امنیتی	-1990
▁گذار	-1991
کرا	-1992
▁شا	-1993
▁همانطور	-1994
▁رسمی	-1995
▁لباس	-1996
▁مثبت	-1997
▁جایگز	-1998
▁12	-1999
▁نداشته	-2000
▁اتحادیه	-2001
▁بازگشت	-2002
id	-2003
▁مفید	-2004
ay	-2005
آی	-2006
▁عص	-2007
▁گذاشت	-2008
▁رسیده	-2009
▁دوربین	-2010
▁دسترس	-2011
▁تلویزی	-2012
زا	-2013
▁دانم	-2014
▁۷	-2015
▁15	-2016
▁نح	-2017
▁مدا	-2018
انت	-2019
ستانی	-2020
▁توانم	-2021
▁شش	-2022
شا	-2023
▁افس	-2024
▁صاد	-2025
ent	-2026
▁کمپ	-2027
عهد	-2028
آوری	-2029
اشق	-2030
جیت	-2031
▁حیوان	-2032
▁عامل	-2033
▁روزانه	-2034
▁18	-2035
کا	-2036
▁آس	-2037
▁زده	-2038
▁متوس	-2039
▁اطراف	-2040
▁تروری	-2041
لال	-2042
▁محققان	-2043
▁ارزیابی	-2044
▁مشاور	-2045
▁شناسایی	-2046
▁حزب	-2047
▁سرد	-2048
▁درجه	-2049
▁انداز	-2050
▁دانند	-2051
▁روان	-2052
▁شیر	-2053
▁موثر	-2054
▁لو	-2055
▁فراموش	-2056
راز	-2057
▁العاده	-2058
جم	-2059
وزه	-2060
▁زود	-2061
▁بمان	-2062
▁مراقبت	-2063
▁شهرو	-2064
▁امیدوار	-2065
▁عمی	-2066
▁دیجیت	-2067
▁خودشان	-2068
▁عرب	-2069
▁اشتراک	-2070
▁دندان	-2071
▁قانونی	-2072
▁نقل	-2073
▁ذخ	-2074
▁جمعیت	-2075
اشی	-2076
▁خاصی	-2077
▁رفته	-2078
us	-2079
هنگی	-2080
رگی	-2081
نگی	-2082
سیس	-2083
عده	-2084
▁دولتی	-2085
یری	-2086
▁خوردن	-2087
رونی	-2088
▁عضو	-2089
▁پروت	-2090
یلی	-2091
▁اسلامی	-2092
ig	-2093
▁دش	-2094
سیم	-2095
▁کامپیوتر	-2096
▁ضد	-2097
▁حذ	-2098
لاً	-2099
▁آف	-2100
عتی	-2101
▁دع	-2102
وانی	-2103
▁روح	-2104
▁بزرگی	-2105
▁دمو	-2106
▁سبک	-2107
▁تعریف	-2108
▁۹	-2109
▁چال	-2110
▁زیست	-2111
▁موتور	-2112
▁”	-2113
▁ژن	-2114
▁پزشک	-2115
▁مواجه	-2116
▁چرخ	-2117
▁مطرح	-2118
ot	-2119
▁داری	-2120
▁لحظه	-2121
▁پایه	-2122
لود	-2123
▁پرواز	-2124
▁فوت	-2125
▁دانشجویان	-2126
▁هدایت	-2127
▁شمالی	-2128
▁وزیر	-2129
▁نکرده	-2130
خواه	-2131
▁موجب	-2132
▁قرآن	-2133
▁چیزهایی	-2134
▁دستی	-2135
رور	-2136
▁بارد	-2137
▁علی	-2138
▁کلاس	-2139
▁ببر	-2140
▁واکنش	-2141
گردان	-2142
▁فرهنگی	-2143
▁تحصیل	-2144
▁کلمه	-2145
▁افتد	-2146
▁منبع	-2147
ته	-2148
▁امام	-2149
▁ضروری	-2150
....	-2151
ورتی	-2152
▁انگیز	-2153
▁اگرچه	-2154
▁علت	-2155
▁نکرد	-2156
▁برگزار	-2157
کید	-2158
رالی	-2159
سب	-2160
▁مبتلا	-2161
▁حذف	-2162
▁مؤ	-2163
▁سازد	-2164
▁انقلاب	-2165
▁هوشمند	-2166
▁انتخابات	-2167
▁دفاع	-2168
▁ورود	-2169
▁علائم	-2170
▁ویت	-2171
▁جذب	-2172
وران	-2173
▁منح	-2174
▁ثابت	-2175
ag	-2176
روف	-2177
▁دشم	-2178
شناسی	-2179
ریب	-2180
▁دهم	-2181
▁همسر	-2182
▁اساسی	-2183
▁قرا	-2184
▁پلیس	-2185
یش	-2186
▁نگران	-2187
▁امروزه	-2188
▁زد	-2189
▁•	-2190
▁حوزه	-2191
▁دانلود	-2192
▁متوسط	-2193
تون	-2194
▁فار	-2195
▁زیب	-2196
ابقه	-2197
▁ببینید	-2198
ئین	-2199
▁همس	-2200
ادهای	-2201
▁عاشق	-2202
▁تمای	-2203
خش	-2204
▁معنای	-2205
▁آموزشی	-2206
▁صدای	-2207
▁معتقد	-2208
▁بخوان	-2209
▁محافظت	-2210
روزی	-2211
▁ماد	-2212
▁نجات	-2213
▁تست	-2214
▁ترتی	-2215
▁ثروت	-2216
سون	-2217
▁بای	-2218
▁امور	-2219
▁ماده	-2220
▁مخال	-2221
▁پژوهش	-2222
ur	-2223
▁آشن	-2224
▁محب	-2225
▁روید	-2226
▁محتوای	-2227
▁بدانید	-2228
▁of	-2229
▁پسر	-2230
▁بگیرد	-2231
▁ساختار	-2232
▁پیچیده	-2233
▁تنظیم	-2234
▁فنا	-2235
▁مدرن	-2236
▁چالش	-2237
ــ	-2238
ژن	-2239
اضی	-2240
لند	-2241
▁ستاره	-2242
▁اصلاح	-2243
▁دیدگاه	-2244
▁مرک	-2245
▁فرمان	-2246
لاگ	-2247
▁پو	-2248
راحت	-2249
ow	-2250
▁ماهی	-2251
▁حکومت	-2252
▁p	-2253
▁قاب	-2254
▁شیوه	-2255
▁مسلمان	-2256
وف	-2257
▁فاصله	-2258
▁فناوری	-2259
وح	-2260
▁فایل	-2261
▁کلیدی	-2262
▁شغل	-2263
▁آنکه	-2264
ارکت	-2265
▁برج	-2266
▁بریت	-2267
▁ظاهر	-2268
▁قرارد	-2269
▁کاربرد	-2270
غال	-2271
▁دکتر	-2272
▁قبلی	-2273
▁وح	-2274
▁کارت	-2275
▁اپ	-2276
جان	-2277
▁مختل	-2278
▁شع	-2279
▁رقابت	-2280
▁دیدن	-2281
▁معمولاً	-2282
رانی	-2283
▁پست	-2284
▁ارتش	-2285
يد	-2286
▁واحد	-2287
▁اینها	-2288
ایه	-2289
▁کشته	-2290
▁خواندن	-2291
▁شیمی	-2292
▁مسئول	-2293
وقف	-2294
▁سق	-2295
▁قطع	-2296
وریت	-2297
▁رهبری	-2298
▁شگفت	-2299
ec	-2300
▁بالای	-2301
▁جنوبی	-2302
ایع	-2303
▁نخستین	-2304
باز	-2305
▁لیست	-2306
▁قه	-2307
▁متوقف	-2308
▁گاز	-2309
▁آفریق	-2310
وله	-2311
▁خودرو	-2312
▁خشونت	-2313
▁بتواند	-2314
▁ترتیب	-2315
▁درمانی	-2316
رایی	-2317
▁ایت	-2318
▁ملل	-2319
▁جالب	-2320
▁نگرانی	-2321
20	-2322
▁زیبا	-2323
un	-2324
▁لط	-2325
آیند	-2326
▁مقد	-2327
▁جزئی	-2328
▁آد	-2329
▁اختص	-2330
▁St	-2331
▁ذخیره	-2332
▁وسیله	-2333
▁بیماران	-2334
▁مسئولیت	-2335
!!	-2336
سا	-2337
زارت	-2338
▁مقامات	-2339
▁عف	-2340
▁جایگزین	-2341
em	-2342
▁مجاز	-2343
آورد	-2344
▁جشن	-2345
▁نوز	-2346
▁دانشمندان	-2347
▁والد	-2348
▁گفتند	-2349
خصوص	-2350
▁مهند	-2351
▁مهمی	-2352
▁ناشی	-2353
▁دانید	-2354
▁کشورها	-2355
▁لین	-2356
▁مگر	-2357
▁امریکا	-2358
ut	-2359
افت	-2360
▁مرز	-2361
▁شماره	-2362
▁شدم	-2363
▁اعتق	-2364
▁منفی	-2365
▁سرویس	-2366
▁آخر	-2367
▁مانده	-2368
گانه	-2369
▁هشت	-2370
▁عوامل	-2371
▁کد	-2372
▁سرز	-2373
▁استرس	-2374
▁سع	-2375
▁وزارت	-2376
▁اقدامات	-2377
▁بزن	-2378
اویر	-2379
▁اين	-2380
▁ظرف	-2381
▁پارک	-2382
▁عرضه	-2383
نش	-2384
▁استرالی	-2385
اما	-2386
ابان	-2387
▁آورده	-2388
▁برادر	-2389
▁هوایی	-2390
▁خدمت	-2391
میل	-2392
▁نیازهای	-2393
اظ	-2394
ماز	-2395
فع	-2396
▁علم	-2397
▁s	-2398
▁عمیق	-2399
کاران	-2400
▁داند	-2401
▁باشم	-2402
▁افتاد	-2403
▁تکرار	-2404
▁جواب	-2405
ویه	-2406
▁تد	-2407
ربانی	-2408
▁اسلام	-2409
▁تقویت	-2410
▁قدر	-2411
ation	-2412
▁بالاتر	-2413
چی	-2414
ers	-2415
▁نرخ	-2416
▁اندازی	-2417
▁موش	-2418
▁ارشد	-2419
راج	-2420
▁نهایی	-2421
▁تاریخی	-2422
▁معرض	-2423
▁محبوب	-2424
▁فرزندان	-2425
▁199	-2426
▁مقا	-2427
▁کاربر	-2428
▁تصاویر	-2429
▁فرآیند	-2430
ذیر	-2431
▁ایمیل	-2432
▁زدن	-2433
داران	-2434
▁تهیه	-2435
▁فرست	-2436
▁نماید	-2437
▁اخلا	-2438
▁مزای	-2439
im	-2440
▁دروغ	-2441
▁رشته	-2442
▁مساف	-2443
▁موضو	-2444
زم	-2445
وئ	-2446
▁سلاح	-2447
▁دانیم	-2448
▁ایرانی	-2449
▁30	-2450
▁صورتی	-2451
▁پار	-2452
▁عمر	-2453
▁محک	-2454
▁In	-2455
▁فهم	-2456
▁نصب	-2457
▁پوشش	-2458
▁خواسته	-2459
▁مشارکت	-2460
▁شویم	-2461
ap	-2462
▁بند	-2463
▁ذکر	-2464
▁قابلیت	-2465
▁مشغ	-2466
▁برسد	-2467
▁اختصاص	-2468
▁همواره	-2469
▁کاملاً	-2470
▁کارکنان	-2471
▁صاح	-2472
▁نسل	-2473
▁کنی	-2474
▁مرکزی	-2475
▁عملیات	-2476
نز	-2477
▁کف	-2478
راری	-2479
▁دام	-2480
▁غرب	-2481
▁دیجیتال	-2482
▁The	-2483
▁نفس	-2484
▁هشد	-2485
▁بگیرند	-2486
▁مجد	-2487
▁ملا	-2488
▁هتل	-2489
▁پرت	-2490
▁اطلاعاتی	-2491
▁ناپ	-2492
▁دشوار	-2493
بد	-2494
▁تس	-2495
▁عه	-2496
▁لا	-2497
▁خانم	-2498
▁کشتی	-2499
▁خلق	-2500
▁بحران	-2501
▁ي	-2502
ir	-2503
▁قبول	-2504
▁اعتقاد	-2505
▁روزنامه	-2506
▁کشاور	-2507
▁تور	-2508
▁فرض	-2509
▁نوشتن	-2510
▁فیزیکی	-2511
حات	-2512
یمان	-2513
او	-2514
▁کری	-2515
▁وعده	-2516
▁بم	-2517
▁c	-2518
عیف	-2519
▁دسته	-2520
▁حفا	-2521
▁خلاق	-2522
▁زندان	-2523
▁حیوانات	-2524
جمه	-2525
▁چینی	-2526
▁اداره	-2527
ایش	-2528
▁خودمان	-2529
سات	-2530
▁صند	-2531
▁والدین	-2532
▁مستقل	-2533
▁محدودیت	-2534
عم	-2535
▁شمار	-2536
گوی	-2537
▁ژاپن	-2538
▁گران	-2539
▁دموکرا	-2540
▁تلویزیون	-2541
قیه	-2542
▁ممن	-2543
▁تصوی	-2544
▁احساسات	-2545
▁جد	-2546
▁یو	-2547
شنبه	-2548
▁طلا	-2549
▁ناخ	-2550
▁تقسیم	-2551
▁سالگی	-2552
▁آوردن	-2553
▁بله	-2554
▁غربی	-2555
▁مختلفی	-2556
▁واقعاً	-2557
▁اکت	-2558
وید	-2559
▁انج	-2560
▁توی	-2561
▁تمایل	-2562
اصر	-2563
▁مي	-2564
زد	-2565
▁کلمات	-2566
oc	-2567
▁مشغول	-2568
▁میدان	-2569
▁عوض	-2570
▁کیل	-2571
▁رایگان	-2572
▁سگ	-2573
▁سلامتی	-2574
▁قدرتمند	-2575
▁نویسنده	-2576
▁اقامت	-2577
▁مناف	-2578
ورک	-2579
▁گوشی	-2580
▁واب	-2581
▁مند	-2582
▁گردش	-2583
▁اروپایی	-2584
▁علوم	-2585
▁لحاظ	-2586
▁استاد	-2587
▁نتوان	-2588
▁برقرار	-2589
▁دفت	-2590
▁تایید	-2591
▁هشدار	-2592
▁زیبایی	-2593
▁متحد	-2594
▁نظام	-2595
▁گذاشته	-2596
▁غل	-2597
▁درس	-2598
▁میشود	-2599
▁نباشد	-2600
غن	-2601
▁۱۵	-2602
▁روزی	-2603
▁مذه	-2604
▁کوه	-2605
▁مخاط	-2606
▁الان	-2607
تو	-2608
▁11	-2609
▁جراحی	-2610
▁داشتم	-2611
▁(1	-2612
▁قدم	-2613
ثی	-2614
▁کشت	-2615
▁راحت	-2616
▁رهبران	-2617
▁دلایل	-2618
▁­	-2619
▁پناه	-2620
▁چنان	-2621
▁تضمین	-2622
▁پیاده	-2623
▁دادگاه	-2624
ul	-2625
▁فن	-2626
▁نشد	-2627
▁راهی	-2628
▁طبقه	-2629
▁نحوه	-2630
▁فیس	-2631
▁استرالیا	-2632
▁m	-2633
▁خورشید	-2634
جهیز	-2635
زمان	-2636
▁عین	-2637
▁افزود	-2638
ویق	-2639
▁ول	-2640
▁فعلی	-2641
▁خرو	-2642
▁مام	-2643
▁تحریم	-2644
▁خوشحال	-2645
پیم	-2646
▁اون	-2647
▁متر	-2648
▁دقت	-2649
▁چگون	-2650
▁باره	-2651
▁100	-2652
▁بودجه	-2653
▁مار	-2654
▁صنعتی	-2655
▁طوری	-2656
▁احترام	-2657
▁مصاح	-2658
▁نظارت	-2659
▁رت	-2660
▁تجهیز	-2661
▁تولد	-2662
▁قهوه	-2663
▁چگونگی	-2664
راتی	-2665
▁مخصوص	-2666
▁آگاهی	-2667
▁میکند	-2668
▁تبلیغات	-2669
▁خاک	-2670
▁درخت	-2671
؟!	-2672
▁آمیز	-2673
▁ایمان	-2674
یدم	-2675
▁دین	-2676
▁قربانی	-2677
اهد	-2678
▁عربستان	-2679
▁مکانی	-2680
یسی	-2681
▁عادی	-2682
▁مطلب	-2683
▁حفاظت	-2684
گن	-2685
▁عجی	-2686
▁فرود	-2687
▁منافع	-2688
بش	-2689
کلی	-2690
▁آفر	-2691
▁اصل	-2692
▁شمال	-2693
▁فرای	-2694
▁پادش	-2695
▁مصاحبه	-2696
▁شیمیایی	-2697
▁بدهید	-2698
▁بگذارید	-2699
ادث	-2700
▁یون	-2701
um	-2702
▁گم	-2703
▁چاپ	-2704
▁امتح	-2705
▁دفتر	-2706
▁منتقل	-2707
▁رنج	-2708
▁سبز	-2709
▁سین	-2710
▁جلسه	-2711
▁ترجی	-2712
▁الکترونی	-2713
▁بریتانیا	-2714
ter	-2715
؟»	-2716
▁بدست	-2717
▁گفتم	-2718
▁توجهی	-2719
▁25	-2720
os	-2721
زل	-2722
مرکز	-2723
▁میده	-2724
▁رح	-2725
▁فروشگاه	-2726
▁بیمارستان	-2727
▁تعط	-2728
▁گام	-2729
▁شهری	-2730
باری	-2731
▁آشکار	-2732
▁شاهد	-2733
▁گروهی	-2734
▁امتحان	-2735
▁نیازمند	-2736
فانه	-2737
▁خطرن	-2738
بل	-2739
حیه	-2740
▁صحنه	-2741
▁خدای	-2742
▁طبیعت	-2743
▁پیشرفته	-2744
▁مفه	-2745
▁ایمنی	-2746
▁هزاران	-2747
▁بقیه	-2748
▁ترجمه	-2749
▁جایزه	-2750
▁گذارد	-2751
▁13	-2752
▁فلسط	-2753
▁بتوانند	-2754
▁آپ	-2755
▁محس	-2756
▁منحصر	-2757
▁نقاط	-2758
▁عفونت	-2759
od	-2760
▁كن	-2761
▁عقب	-2762
▁جنوب	-2763
▁تامین	-2764
▁تقریباً	-2765
نس	-2766
▁مشه	-2767
▁دعوت	-2768
▁رتبه	-2769
▁وبلاگ	-2770
▁بست	-2771
▁آیند	-2772
▁روغن	-2773
▁نوزاد	-2774
▁اوایل	-2775
▁کارها	-2776
.[	-2777
▁وید	-2778
▁تخصص	-2779
▁کلید	-2780
▁نگهداری	-2781
▁!	-2782
▁مز	-2783
▁اتفاقی	-2784
کره	-2785
▁اسم	-2786
▁متصل	-2787
▁نوعی	-2788
▁حاف	-2789
▁بستگی	-2790
▁تعدادی	-2791
▁ویتامین	-2792
▁گاه	-2793
▁تعهد	-2794
▁نشست	-2795
▁کارگران	-2796
ess	-2797
▁50	-2798
▁جزیره	-2799
▁توصیف	-2800
▁حملات	-2801
▁منتظر	-2802
▁انتشار	-2803
▁گناه	-2804
▁آسمان	-2805
ia	-2806
بیل	-2807
▁رادی	-2808
▁کارآ	-2809
▁شناخت	-2810
▁دریایی	-2811
▁جذاب	-2812
حیح	-2813
ردگی	-2814
▁فضا	-2815
▁قرم	-2816
▁عک	-2817
▁اعد	-2818
بیر	-2819
نتی	-2820
▁آر	-2821
▁بردن	-2822
یفه	-2823
گذار	-2824
▁خام	-2825
▁رهبر	-2826
▁پرسش	-2827
▁یهودی	-2828
▁قرارداد	-2829
الیا	-2830
▁بید	-2831
▁بودیم	-2832
پر	-2833
▁اصول	-2834
▁حتما	-2835
▁ملاقات	-2836
▁تقاض	-2837
▁سوخت	-2838
▁مایل	-2839
تناب	-2840
▁پنه	-2841
گذاری	-2842
▁الهی	-2843
▁بساز	-2844
▁پاید	-2845
▁دستور	-2846
▁مهاجرت	-2847
▁عبور	-2848
▁برنده	-2849
▁نامیده	-2850
چسب	-2851
▁انگل	-2852
▁اجتناب	-2853
▁مزایای	-2854
▁ارد	-2855
▁صدا	-2856
▁ـ	-2857
انو	-2858
لو	-2859
▁16	-2860
▁۱۲	-2861
▁هرچ	-2862
▁بروز	-2863
▁سرزمین	-2864
▁ورز	-2865
▁گیاه	-2866
هی	-2867
▁X	-2868
▁بگذ	-2869
▁بروید	-2870
▁تاکنون	-2871
لات	-2872
▁ژان	-2873
▁جنبه	-2874
▁بهتری	-2875
▁کانال	-2876
▁مدیران	-2877
▁هواپیم	-2878
ولد	-2879
روم	-2880
▁اهل	-2881
▁سختی	-2882
▁تکنیک	-2883
▁ارتباطات	-2884
ایق	-2885
▁جع	-2886
▁باغ	-2887
▁روست	-2888
▁آزمون	-2889
مولی	-2890
▁تغذ	-2891
▁تئ	-2892
▁پدید	-2893
▁گذشت	-2894
▁وظیفه	-2895
▁پیروزی	-2896
▁نیمه	-2897
▁نیوی	-2898
▁یافتن	-2899
▁فرایند	-2900
▁میلادی	-2901
ونا	-2902
گین	-2903
ابله	-2904
▁درستی	-2905
▁فراتر	-2906
▁اصلا	-2907
▁برسان	-2908
▁ثانیه	-2909
▁مخالف	-2910
▁مقاومت	-2911
▁اضط	-2912
▁تشویق	-2913
شنگ	-2914
▁رست	-2915
▁انگیزه	-2916
▁بیای	-2917
▁سعودی	-2918
▁شهروندان	-2919
رایش	-2920
▁آبی	-2921
▁برگز	-2922
▁عادت	-2923
▁ترجیح	-2924
▁تعطیل	-2925
ویل	-2926
▁14	-2927
▁چپ	-2928
گاهی	-2929
▁اظه	-2930
▁سرباز	-2931
▁کردید	-2932
▁بتوانید	-2933
▁۳۰	-2934
امله	-2935
▁امسال	-2936
▁مقابله	-2937
▁بیشترین	-2938
▁شف	-2939
▁بهداشت	-2940
▁رویکرد	-2941
▁برخوردار	-2942
ویس	-2943
▁فد	-2944
▁قبلا	-2945
▁اضافی	-2946
▁نظریه	-2947
▁بب	-2948
▁۱۰۰	-2949
▁حضرت	-2950
▁تغذیه	-2951
▁افتاده	-2952
▁f	-2953
داک	-2954
▁شماست	-2955
▁واض	-2956
تامبر	-2957
▁تجهیزات	-2958
▁دهندگان	-2959
▁آرز	-2960
▁بطور	-2961
▁درگیر	-2962
▁بگویید	-2963
▁متمرکز	-2964
نوعی	-2965
▁رض	-2966
▁ظه	-2967
گاری	-2968
▁پخش	-2969
▁ادعا	-2970
▁اظهار	-2971
th	-2972
▁شغلی	-2973
▁قلبی	-2974
▁چهره	-2975
".	-2976
»،	-2977
▁سؤ	-2978
▁روب	-2979
▁سرگر	-2980
▁انجمن	-2981
▁معروف	-2982
جع	-2983
▁طل	-2984
▁سام	-2985
▁ناد	-2986
▁اسک	-2987
▁فنی	-2988
▁بدهد	-2989
▁همانند	-2990
رتان	-2991
▁عهده	-2992
▁قرمز	-2993
▁برچسب	-2994
▁جزئیات	-2995
رافیک	-2996
▁فرمود	-2997
▁زندانی	-2998
-1	-2999
▁لینک	-3000
▁چربی	-3001
▁هیجان	-3002
▁d	-3003
▁بیت	-3004
▁مقر	-3005
▁خواند	-3006
▁مداوم	-3007
▁نیویورک	-3008
▁Y	-3009
▁دائ	-3010
▁بزرگتر	-3011
ab	-3012
زیع	-3013
ومی	-3014
▁مبل	-3015
▁معمولی	-3016
▁چیزهای	-3017
▁آشنا	-3018
▁حو	-3019
▁جنبش	-3020
▁خطرناک	-3021
▁خریداری	-3022
ce	-3023
ثار	-3024
لاک	-3025
▁سک	-3026
نمایی	-3027
▁تاکید	-3028
▁پیوند	-3029
▁سپتامبر	-3030
▁بکن	-3031
داشتی	-3032
▁ریسک	-3033
▁فرار	-3034
▁تنهایی	-3035
ذی	-3036
▁هایشان	-3037
زیه	-3038
▁رز	-3039
▁اختلاف	-3040
▁امپ	-3041
▁بنا	-3042
▁رها	-3043
▁شای	-3044
▁فوتبال	-3045
ندن	-3046
▁نات	-3047
▁پذیرش	-3048
▁بخوانید	-3049
ژانس	-3050
▁ناگه	-3051
▁استان	-3052
▁افسردگی	-3053
▁سابق	-3054
▁دقیقا	-3055
مع	-3056
▁اصط	-3057
▁کشد	-3058
▁یاب	-3059
▁برده	-3060
▁مالک	-3061
▁بگویم	-3062
▁مالیات	-3063
یدند	-3064
▁سیاره	-3065
ئت	-3066
وال	-3067
▁امتی	-3068
op	-3069
سین	-3070
▁نده	-3071
▁توزیع	-3072
▁فارغ	-3073
▁حافظه	-3074
▁بارداری	-3075
▁انگلستان	-3076
▁اختلال	-3077
▁خیر	-3078
▁کرب	-3079
فرانس	-3080
▁حداک	-3081
▁پنهان	-3082
▁گرفتند	-3083
▁مى	-3084
▁محتوا	-3085
▁جستجوی	-3086
av	-3087
خره	-3088
داد	-3089
▁ملت	-3090
▁نیازی	-3091
▁خیابان	-3092
اورد	-3093
▁متق	-3094
▁بدین	-3095
▁نماز	-3096
▁برداشت	-3097
▁لغ	-3098
رداز	-3099
▁حاوی	-3100
▁b	-3101
▁خاور	-3102
▁میوه	-3103
▁محسوب	-3104
▁برآورد	-3105
▁همزمان	-3106
▁پاکستان	-3107
اکره	-3108
▁بیمه	-3109
▁تی	-3110
▁هماه	-3111
▁اطلاع	-3112
▁ایتالیا	-3113
کده	-3114
▁دیوار	-3115
▁پرورش	-3116
▁مراحل	-3117
پیما	-3118
▁سفار	-3119
▁رمز	-3120
▁ماج	-3121
▁دیدار	-3122
▁موزه	-3123
فاوتی	-3124
▁صحیح	-3125
▁عجیب	-3126
▁نقشه	-3127
▁تجزیه	-3128
▁اعتبار	-3129
▁مذاکره	-3130
راض	-3131
▁اتص	-3132
▁جاده	-3133
▁مرور	-3134
▁هاست	-3135
▁پذیری	-3136
▁بدی	-3137
▁واضح	-3138
▁هرچند	-3139
▁روزهای	-3140
▁پروتئین	-3141
▁17	-3142
▁مجوز	-3143
▁مساله	-3144
▁نمایند	-3145
▁کارهایی	-3146
وذ	-3147
▁تز	-3148
▁سند	-3149
▁سوء	-3150
لت	-3151
▁متعد	-3152
▁کارشناس	-3153
سور	-3154
▁اسب	-3155
▁قتل	-3156
▁پن	-3157
▁حاک	-3158
▁گذر	-3159
▁شورای	-3160
▁ممنوع	-3161
▁استخدام	-3162
▁موضوعات	-3163
حالی	-3164
▁سنت	-3165
▁مسیح	-3166
▁شناسی	-3167
▁چهارم	-3168
▁معامله	-3169
▁بخواهید	-3170
▁بص	-3171
▁دم	-3172
▁اشک	-3173
▁ترا	-3174
▁آثار	-3175
▁مفهوم	-3176
▁کنفرانس	-3177
ri	-3178
▁دس	-3179
...]	-3180
▁مبتنی	-3181
▁198	-3182
▁کلیک	-3183
▁بزرگسال	-3184
▁افتخ	-3185
▁بپرس	-3186
▁لطفا	-3187
▁خلاصه	-3188
▁فضایی	-3189
غم	-3190
▁ابتد	-3191
▁تفکر	-3192
▁آورند	-3193
▁واشنگ	-3194
▁رانندگی	-3195
▁نژ	-3196
جوان	-3197
▁زودی	-3198
▁نمایید	-3199
اگر	-3200
▁صادر	-3201
▁ضعیف	-3202
▁لندن	-3203
جد	-3204
قوه	-3205
▁یخ	-3206
▁اخی	-3207
▁فهر	-3208
ارهای	-3209
جایی	-3210
▁مصر	-3211
▁التح	-3212
▁بدتر	-3213
▁دشمن	-3214
▁شانس	-3215
▁حداکثر	-3216
▁بهداشتی	-3217
▁آهنگ	-3218
▁افکار	-3219
▁تاسیس	-3220
▁مطل	-3221
▁موقع	-3222
▁ببرید	-3223
▁ریشه	-3224
▁ارزان	-3225
▁تهران	-3226
▁فرانس	-3227
▁واشنگتن	-3228
▁انع	-3229
▁شوم	-3230
▁پلا	-3231
▁موسسه	-3232
▁مذاک	-3233
▁تکمیل	-3234
▁سخنرانی	-3235
▁کارشناسی	-3236
▁نادر	-3237
▁تعامل	-3238
▁بازداشت	-3239
▁۱۸	-3240
▁اپل	-3241
▁صادق	-3242
▁نیمی	-3243
▁التحص	-3244
▁کمبود	-3245
▁قض	-3246
▁[...]	-3247
▁نبوده	-3248
▁بالقوه	-3249
▁براساس	-3250
▁ندارید	-3251
▁کمتری	-3252
کش	-3253
▁,	-3254
ورا	-3255
▁تمیز	-3256
▁سقوط	-3257
▁هایش	-3258
ریح	-3259
▁غیرق	-3260
▁اثرات	-3261
▁بیند	-3262
▁امتیاز	-3263
ack	-3264
ity	-3265
▁خانگی	-3266
▁ویروس	-3267
طی	-3268
▁سنتی	-3269
▁حکم	-3270
▁صبر	-3271
▁بخور	-3272
▁ویدی	-3273
ادار	-3274
کتری	-3275
▁كرد	-3276
▁موب	-3277
▁امضا	-3278
▁اخیرا	-3279
▁سالانه	-3280
▁پایدار	-3281
▁کشاورزی	-3282
▁آهن	-3283
کننده	-3284
▁تحمل	-3285
▁گفتن	-3286
▁اخلاقی	-3287
▁اصطلاح	-3288
▁برداری	-3289
وئن	-3290
▁ساختن	-3291
▁برجسته	-3292
▁جایگاه	-3293
▁وابسته	-3294
سیر	-3295
شند	-3296
▁برتر	-3297
og	-3298
gle	-3299
▁سهام	-3300
▁ماست	-3301
▁نفوذ	-3302
▁بازیکن	-3303
▁مشاوره	-3304
▁دارایی	-3305
▁پزشکان	-3306
▁کارخانه	-3307
ew	-3308
▁همچون	-3309
▁نزدیکی	-3310
▁پایگاه	-3311
▁دستیابی	-3312
▁هواپیما	-3313
▁شرک	-3314
▁شور	-3315
میانه	-3316
▁برمی	-3317
▁بیدار	-3318
مس	-3319
آور	-3320
▁ترد	-3321
▁سان	-3322
▁تدری	-3323
رق	-3324
▁40	-3325
مالی	-3326
▁خویش	-3327
▁مذهبی	-3328
عف	-3329
▁مشهور	-3330
▁بازسازی	-3331
▁مول	-3332
▁هرک	-3333
▁ندارم	-3334
.)	-3335
50	-3336
▁برگرد	-3337
▁دف	-3338
▁Goo	-3339
▁مدتی	-3340
▁مذاکرات	-3341
ناک	-3342
اختی	-3343
▁تأی	-3344
▁اکتبر	-3345
▁عدد	-3346
▁رساند	-3347
▁ترکی	-3348
▁خوشب	-3349
▁آلمانی	-3350
▁احتمالاً	-3351
▁سرک	-3352
▁تابستان	-3353
▁خاورمیانه	-3354
▁مارس	-3355
▁معماری	-3356
▁حیات	-3357
▁هویت	-3358
وایی	-3359
▁استقل	-3360
▁نموده	-3361
▁نوشید	-3362
ard	-3363
▁مناس	-3364
▁میکنند	-3365
▁پیامبر	-3366
دهی	-3367
▁چش	-3368
اریس	-3369
▁بلاف	-3370
▁بارها	-3371
ra	-3372
▁طراح	-3373
▁عیسی	-3374
▁مانع	-3375
▁تأیید	-3376
▁بوک	-3377
▁تخم	-3378
▁جاری	-3379
▁کیلوم	-3380
▁نوجوان	-3381
▁بازیکنان	-3382
شای	-3383
▁حجم	-3384
▁رضایت	-3385
▁بلافاصله	-3386
کری	-3387
▁سوز	-3388
▁گوشت	-3389
▁نابود	-3390
▁خشک	-3391
▁دهان	-3392
▁مهندسی	-3393
ماً	-3394
▁گفتگو	-3395
▁پادشاه	-3396
؟؟	-3397
راد	-3398
▁آمو	-3399
▁آمار	-3400
▁دادم	-3401
▁مدارس	-3402
▁بپرداز	-3403
وسی	-3404
▁24	-3405
گانی	-3406
▁کارمندان	-3407
▁i	-3408
▁An	-3409
ماتی	-3410
▁کات	-3411
▁غذاهای	-3412
۰۰۰	-3413
▁مصنوعی	-3414
▁رستوران	-3415
زان	-3416
پار	-3417
▁کارگر	-3418
▁تحصیلی	-3419
▁فرانسوی	-3420
▁معنا	-3421
▁سادگی	-3422
▁اولویت	-3423
اخر	-3424
▁آژانس	-3425
▁فهرست	-3426
▁1.	-3427
▁شاد	-3428
▁عزی	-3429
▁چار	-3430
▁سران	-3431
▁دسامبر	-3432
▁احتی	-3433
▁قطعا	-3434
▁پرونده	-3435
ob	-3436
▁مض	-3437
▁آدرس	-3438
▁صاحب	-3439
▁مراج	-3440
▁استقلال	-3441
▁کتابخانه	-3442
▁عذ	-3443
▁باد	-3444
▁انگشت	-3445
▁سیگار	-3446
▁ژانویه	-3447
▁مراسم	-3448
▁نقاشی	-3449
▁پردازش	-3450
▁سنگین	-3451
پس	-3452
▁۵۰	-3453
▁خال	-3454
▁معی	-3455
▁ایالت	-3456
▁شرقی	-3457
وج	-3458
▁اوب	-3459
▁عمده	-3460
عش	-3461
▁کشید	-3462
▁تحقیقاتی	-3463
ماتیک	-3464
▁کشوری	-3465
▁انگلیس	-3466
▁رویداد	-3467
سلام	-3468
▁قهر	-3469
▁2015	-3470
▁آزار	-3471
▁سطوح	-3472
▁پرست	-3473
▁گویم	-3474
▁شنیده	-3475
▁اجرایی	-3476
زام	-3477
▁مجله	-3478
▁اواخر	-3479
▁صفحات	-3480
▁مسابقه	-3481
▁ایستگاه	-3482
▁داروهای	-3483
▁هور	-3484
▁صدها	-3485
▁قالب	-3486
▁دومین	-3487
▁نداریم	-3488
▁موبایل	-3489
▁طال	-3490
▁گری	-3491
▁عناصر	-3492
▁نوامبر	-3493
▁گذاران	-3494
▁دستو	-3495
▁شنبه	-3496
▁بزنید	-3497
اقع	-3498
▁شریک	-3499
▁روبرو	-3500
▁پنجره	-3501
▁متخصصان	-3502
دهم	-3503
▁آیت	-3504
▁سبب	-3505
▁مجلس	-3506
▁پاریس	-3507
▁مراجعه	-3508
▁همکاران	-3509
گا	-3510
رامی	-3511
▁جاد	-3512
▁مدرک	-3513
▁وحشت	-3514
▁معتبر	-3515
▁اعتراض	-3516
▁خر	-3517
▁پان	-3518
▁ژوئن	-3519
▁الکترونیکی	-3520
▁اور	-3521
▁تسل	-3522
▁چای	-3523
▁بیست	-3524
▁خسته	-3525
▁عصر	-3526
▁مرغ	-3527
▁خالی	-3528
up	-3529
ive	-3530
▁محکوم	-3531
all	-3532
خیر	-3533
▁افتخار	-3534
▁شهرهای	-3535
est	-3536
▁Ch	-3537
▁اکث	-3538
▁شار	-3539
▁عرو	-3540
▁جنگل	-3541
▁دیدم	-3542
▁چک	-3543
▁جوانان	-3544
ئید	-3545
برای	-3546
▁آلب	-3547
▁جرم	-3548
▁تصاد	-3549
▁یکسان	-3550
نجی	-3551
▁یك	-3552
▁استق	-3553
▁شفاف	-3554
▁مجدد	-3555
▁60	-3556
▁راهن	-3557
▁هوای	-3558
▁اتصال	-3559
▁خورده	-3560
▁نگاهی	-3561
الم	-3562
▁نزد	-3563
▁ورزشی	-3564
▁زخ	-3565
▁قا	-3566
▁جلب	-3567
▁خشم	-3568
▁اثبات	-3569
▁بیانیه	-3570
▁هرگونه	-3571
هنی	-3572
▁باشگاه	-3573
▁نادیده	-3574
▁کارگردان	-3575
لیلی	-3576
▁هنری	-3577
▁سابقه	-3578
▁عدالت	-3579
▁دموکراسی	-3580
نای	-3581
گویی	-3582
▁سرور	-3583
▁عصبی	-3584
▁واژه	-3585
▁آرامش	-3586
▁کمپانی	-3587
▁اسپانیا	-3588
ظی	-3589
▁زنج	-3590
▁بگیری	-3591
▁متولد	-3592
▁مشکلی	-3593
▁Google	-3594
▁امیدوارم	-3595
if	-3596
ov	-3597
ine	-3598
▁فری	-3599
▁محمد	-3600
▁مخفی	-3601
▁مربی	-3602
▁انتقاد	-3603
ct	-3604
art	-3605
خورد	-3606
▁مردی	-3607
▁مکمل	-3608
▁هستی	-3609
▁بیاور	-3610
▁تصویب	-3611
▁ظرفیت	-3612
▁ارزشمند	-3613
مق	-3614
مام	-3615
▁the	-3616
▁منظم	-3617
غل	-3618
▁and	-3619
▁کاربردی	-3620
!»	-3621
آم	-3622
▁بور	-3623
▁طیف	-3624
▁وظای	-3625
▁متعلق	-3626
▁وسایل	-3627
کز	-3628
ate	-3629
▁۱۳	-3630
▁متاس	-3631
▁مجازات	-3632
▁خواستار	-3633
عکس	-3634
▁آفریقا	-3635
ex	-3636
▁دون	-3637
▁بافت	-3638
▁دیپل	-3639
▁مقدس	-3640
▁ورودی	-3641
▁نمایشگاه	-3642
▁خرد	-3643
▁اوباما	-3644
اکس	-3645
وقی	-3646
▁197	-3647
▁کمیته	-3648
▁ترافیک	-3649
▁التحصیل	-3650
▁فرودگاه	-3651
▁ارا	-3652
▁مبلغ	-3653
▁محیطی	-3654
▁ارتباطی	-3655
اردی	-3656
واری	-3657
▁تحول	-3658
▁سریال	-3659
▁مجموع	-3660
▁دانشکده	-3661
▁روانی	-3662
▁صنایع	-3663
ub	-3664
ستیک	-3665
▁آشپ	-3666
▁۱۹۹	-3667
▁0	-3668
▁غذای	-3669
▁اسن	-3670
▁تیر	-3671
▁خروج	-3672
▁عظیم	-3673
▁نهاد	-3674
▁باتری	-3675
▁نوشیدنی	-3676
▁بینید	-3677
▁تماشا	-3678
▁دختران	-3679
▁غنی	-3680
▁2017	-3681
▁منزل	-3682
▁موشک	-3683
▁تجربی	-3684
▁بالایی	-3685
▁ترکیبی	-3686
▁نوش	-3687
▁مارک	-3688
▁ارتقا	-3689
▁تحویل	-3690
▁ریاست	-3691
▁صادرات	-3692
▁مهمترین	-3693
ak	-3694
ast	-3695
▁ارم	-3696
▁بگوید	-3697
▁قهرمان	-3698
▁نبرد	-3699
▁نظیر	-3700
انیایی	-3701
زیک	-3702
▁سؤال	-3703
▁خارجه	-3704
▁منطقی	-3705
▁مسلمانان	-3706
▁بران	-3707
▁مثلا	-3708
▁تأمین	-3709
▁مراکز	-3710
دیه	-3711
▁Re	-3712
▁ابر	-3713
▁کودکی	-3714
کنندگان	-3715
شیدی	-3716
▁توق	-3717
▁شرق	-3718
▁نشود	-3719
▁متفاوتی	-3720
▁ناحیه	-3721
ht	-3722
صاب	-3723
▁لز	-3724
▁سهم	-3725
▁اعدام	-3726
▁بالات	-3727
▁دائمی	-3728
▁کشیدن	-3729
▁بازگرد	-3730
لین	-3731
▁دیر	-3732
▁بهشت	-3733
▁پاداش	-3734
▁انقلابی	-3735
▁انف	-3736
▁برود	-3737
10	-3738
▁w	-3739
▁کاغ	-3740
▁رسان	-3741
▁عربی	-3742
▁مسیحی	-3743
طرف	-3744
▁ابتلا	-3745
▁بماند	-3746
طاف	-3747
▁گشت	-3748
▁بایست	-3749
▁تحریک	-3750
▁خوانده	-3751
▁خانوادگی	-3752
▁پیر	-3753
▁جمعی	-3754
▁فردا	-3755
▁حقوقی	-3756
▁ریاضی	-3757
▁نوآوری	-3758
فل	-3759
▁جس	-3760
▁2018	-3761
▁صرفه	-3762
▁صندلی	-3763
ord	-3764
▁طالبان	-3765
▁آیه	-3766
▁حادث	-3767
مر	-3768
▁آلود	-3769
▁عوار	-3770
ell	-3771
▁قضا	-3772
▁قول	-3773
▁پولی	-3774
▁چیزها	-3775
▁شکن	-3776
▁سیم	-3777
▁طلب	-3778
▁وام	-3779
▁روزه	-3780
▁ویند	-3781
▁دیابت	-3782
▁سوالات	-3783
▁بمب	-3784
▁راز	-3785
▁کاخ	-3786
▁خواستم	-3787
انوس	-3788
کتور	-3789
▁واس	-3790
▁نژاد	-3791
▁چرخه	-3792
▁نیستم	-3793
▁انعطاف	-3794
▁شرایطی	-3795
وهای	-3796
▁ظهور	-3797
▁کشیده	-3798
▁کوچکی	-3799
▁گردید	-3800
▁استراحت	-3801
▁ثروتمند	-3802
▁کارشناسان	-3803
زیت	-3804
▁الم	-3805
▁رایج	-3806
▁غیرم	-3807
▁لایه	-3808
چرخ	-3809
▁اي	-3810
▁زنی	-3811
▁لبخ	-3812
میر	-3813
▁جور	-3814
▁تعادل	-3815
▁جانبی	-3816
▁نویسی	-3817
▁وظایف	-3818
▁استراتژیک	-3819
غام	-3820
لیک	-3821
گره	-3822
▁قی	-3823
نوشت	-3824
▁قلم	-3825
com	-3826
▁Pro	-3827
▁حادثه	-3828
▁کمپین	-3829
▁کاربری	-3830
▁احتمالی	-3831
▁جی	-3832
▁وجه	-3833
▁کفش	-3834
ظاه	-3835
▁انگار	-3836
مانه	-3837
▁باکتری	-3838
▁بگیریم	-3839
▁داشتیم	-3840
30	-3841
▁۲۵	-3842
▁اتوم	-3843
▁استث	-3844
▁اخبار	-3845
▁برگزاری	-3846
وپ	-3847
▁اذ	-3848
▁رک	-3849
▁نقض	-3850
▁کوین	-3851
▁ویندوز	-3852
▁میتواند	-3853
ip	-3854
▁Z	-3855
▁in	-3856
▁اقی	-3857
▁تاز	-3858
▁معامل	-3859
▁ابزارهای	-3860
▁هدیه	-3861
▁تعطیلات	-3862
▁گرس	-3863
▁درحالی	-3864
▁سوئ	-3865
▁تجدید	-3866
▁کمونی	-3867
▁تروریستی	-3868
▁۱۱	-3869
▁رییس	-3870
▁معلم	-3871
▁مناسبی	-3872
▁راهنمایی	-3873
▁بزرگسالان	-3874
.5	-3875
يت	-3876
▁آفت	-3877
▁درم	-3878
▁دعا	-3879
▁جامع	-3880
▁خلاف	-3881
OS	-3882
▁تعجب	-3883
▁خطوط	-3884
▁مطابق	-3885
▁مطالب	-3886
▁مهمان	-3887
▁خورشیدی	-3888
ey	-3889
ist	-3890
▁خل	-3891
▁خبری	-3892
▁شوروی	-3893
▁سرانجام	-3894
ارات	-3895
▁راضی	-3896
▁عوارض	-3897
يم	-3898
اکی	-3899
پزش	-3900
لیکی	-3901
▁اکس	-3902
▁حرک	-3903
▁وضع	-3904
▁شاخص	-3905
لز	-3906
ربان	-3907
▁گرچه	-3908
▁بازنش	-3909
▁آمدن	-3910
▁محاس	-3911
▁الهام	-3912
NA	-3913
سف	-3914
▁نقد	-3915
▁2016	-3916
▁سیگن	-3917
▁ناام	-3918
▁وکار	-3919
▁اندکی	-3920
▁کنگره	-3921
▁پذیرفته	-3922
▁بف	-3923
▁بنویس	-3924
▁فدرال	-3925
▁نظرات	-3926
▁بگذارد	-3927
▁حج	-3928
▁آسیا	-3929
▁الکتری	-3930
▁خواهان	-3931
▁کارآفر	-3932
▁نماینده	-3933
▁كند	-3934
▁ناه	-3935
▁ذهنی	-3936
بیت	-3937
▁برگشت	-3938
کسی	-3939
▁وف	-3940
▁مقی	-3941
▁میخ	-3942
▁ناس	-3943
▁کنس	-3944
▁حساس	-3945
▁کالج	-3946
▁فیلتر	-3947
ادن	-3948
مور	-3949
▁منص	-3950
▁تشکر	-3951
▁گربه	-3952
انگ	-3953
▁عکاسی	-3954
▁محاسبه	-3955
▁نیستید	-3956
▁الی	-3957
▁رفع	-3958
▁کاب	-3959
▁سیگنال	-3960
▁معتقدند	-3961
▁رع	-3962
▁داعش	-3963
▁مداخ	-3964
▁تردید	-3965
ّت	-3966
▁مأ	-3967
▁تازگی	-3968
▁شواهد	-3969
▁۱۴	-3970
▁تکامل	-3971
▁امکانات	-3972
نام	-3973
فاعی	-3974
▁اوک	-3975
▁خودک	-3976
▁وقوع	-3977
▁مقررات	-3978
▁جداگانه	-3979
▁جغ	-3980
▁نفع	-3981
▁علام	-3982
▁هرچه	-3983
▁دوستی	-3984
▁فلسفه	-3985
▁لبخند	-3986
▁خودکار	-3987
▁میخواه	-3988
▁آمریکای	-3989
واب	-3990
▁دهی	-3991
▁رقم	-3992
▁اخترا	-3993
▁تئوری	-3994
▁روزها	-3995
▁پیروی	-3996
ill	-3997
ولین	-3998
▁سفارش	-3999
▁اضطراب	-4000
▁اردو	-4001
▁آنقدر	-4002
▁اتحاد	-4003
▁قضاوت	-4004
▁اپلیکی	-4005
زر	-4006
ساز	-4007
▁احس	-4008
▁ضعف	-4009
▁جنگی	-4010
▁پارل	-4011
▁دامنه	-4012
▁شیطان	-4013
فس	-4014
▁بعدا	-4015
▁شادی	-4016
▁متهم	-4017
▁مراقب	-4018
▁نمایندگان	-4019
سای	-4020
ماس	-4021
▁حدی	-4022
▁داوط	-4023
▁مجازی	-4024
▁عط	-4025
▁وار	-4026
▁بدهی	-4027
▁رمان	-4028
▁ماندن	-4029
▁اینترنتی	-4030
بیند	-4031
▁ادع	-4032
▁مور	-4033
▁ثبات	-4034
▁مخدر	-4035
▁مرده	-4036
▁بینیم	-4037
▁کیلومتر	-4038
▁آزمایشگاه	-4039
ort	-4040
تیکی	-4041
▁موقت	-4042
▁فرصتی	-4043
خا	-4044
مره	-4045
▁مری	-4046
▁تظاه	-4047
▁استعد	-4048
▁اکثریت	-4049
▁درگیری	-4050
▁اتومبیل	-4051
▁196	-4052
▁سرخ	-4053
▁هاي	-4054
▁پایت	-4055
▁بنیاد	-4056
▁چشمان	-4057
▁آلودگی	-4058
▁تبلیغاتی	-4059
ang	-4060
افقت	-4061
▁دادیم	-4062
▁بری	-4063
▁باری	-4064
▁رسانی	-4065
▁داوطلب	-4066
کب	-4067
املی	-4068
▁دوز	-4069
▁کاف	-4070
▁بانکی	-4071
▁بالاخره	-4072
ختی	-4073
▁Sp	-4074
▁قسم	-4075
▁دمای	-4076
▁بیاید	-4077
عمل	-4078
گرام	-4079
▁فوری	-4080
▁گمان	-4081
▁موهای	-4082
▁بیایید	-4083
▁سازنده	-4084
▁محدوده	-4085
▁اپلیکیشن	-4086
ect	-4087
▁آه	-4088
▁اوست	-4089
▁موافقت	-4090
▁ماموریت	-4091
▁یادآوری	-4092
وین	-4093
▁گویی	-4094
▁خواهی	-4095
▁پیوست	-4096
▁سرنوشت	-4097
ant	-4098
ائی	-4099
▁فس	-4100
جویی	-4101
نوان	-4102
▁ضمن	-4103
▁تنوع	-4104
▁پدرش	-4105
▁رعایت	-4106
▁میدهد	-4107
▁کنونی	-4108
▁انداخت	-4109
▁له	-4110
سایت	-4111
▁یورو	-4112
▁مقیاس	-4113
▁پیمان	-4114
▁نخواهند	-4115
▁بدهند	-4116
▁بخواهد	-4117
▁رایانه	-4118
▁21	-4119
▁Bl	-4120
▁الکل	-4121
▁ایمن	-4122
▁تأکید	-4123
▁زودتر	-4124
▁باردار	-4125
▁انح	-4126
▁2014	-4127
▁الگو	-4128
▁همگی	-4129
▁متعهد	-4130
▁استخوان	-4131
▁De	-4132
▁Un	-4133
▁درب	-4134
▁فال	-4135
▁جوام	-4136
▁دراز	-4137
▁راجع	-4138
▁ساحل	-4139
▁هنرمند	-4140
”.	-4141
▁+	-4142
▁سئو	-4143
▁زمینی	-4144
▁دانشگاهی	-4145
اوز	-4146
▁خن	-4147
▁عقل	-4148
▁فول	-4149
▁آنتی	-4150
▁سرکوب	-4151
▁یابند	-4152
▁بدانند	-4153
▁اقیانوس	-4154
ost	-4155
نظر	-4156
▁عمد	-4157
رگانی	-4158
▁حلقه	-4159
▁روشی	-4160
▁سینه	-4161
▁جلسات	-4162
▁حیاتی	-4163
▁ناراحت	-4164
▁الکتریکی	-4165
▁بوی	-4166
▁استد	-4167
▁قطعه	-4168
▁مسلح	-4169
▁بهینه	-4170
▁ببینند	-4171
▁دستگیر	-4172
▁تحصیلات	-4173
شب	-4174
▁شرح	-4175
▁لغو	-4176
▁ویر	-4177
▁علامت	-4178
ie	-4179
▁آک	-4180
▁۴۰	-4181
▁تون	-4182
▁ندهید	-4183
▁کارمند	-4184
▁ماهواره	-4185
ue	-4186
▁Sh	-4187
▁مخل	-4188
▁پلت	-4189
▁ضربه	-4190
▁مایک	-4191
▁اندرو	-4192
▁نویسندگان	-4193
نظ	-4194
▁90	-4195
▁شام	-4196
▁سالی	-4197
▁عصبانی	-4198
هام	-4199
▁پد	-4200
▁دای	-4201
▁اتخا	-4202
▁برزی	-4203
▁تحقق	-4204
▁جعبه	-4205
▁جلوی	-4206
▁غیره	-4207
▁معادل	-4208
▁برانگی	-4209
.1	-4210
BA	-4211
▁#	-4212
ind	-4213
▁رم	-4214
التی	-4215
▁حین	-4216
▁زنند	-4217
▁بردار	-4218
▁بپرسید	-4219
▁مواردی	-4220
▁فلسطینی	-4221
▁استانداردهای	-4222
جار	-4223
▁میر	-4224
▁شکلی	-4225
▁اتخاذ	-4226
▁تزریق	-4227
▁تفسیر	-4228
▁روزمره	-4229
▁توانستند	-4230
▁متاسفانه	-4231
▁فا	-4232
▁توپ	-4233
▁گرفتم	-4234
▁مقالات	-4235
our	-4236
خاص	-4237
▁ببرد	-4238
▁دلاری	-4239
▁دیوان	-4240
▁بدترین	-4241
سیک	-4242
ونگ	-4243
اهایی	-4244
▁تصمی	-4245
▁جمعه	-4246
▁شدیم	-4247
▁ندرت	-4248
ارتمان	-4249
▁مستند	-4250
▁کارفر	-4251
▁احساسی	-4252
کرات	-4253
▁خبرنگ	-4254
▁ویدئو	-4255
▁ناپذیر	-4256
▁اوکراین	-4257
▁رودخانه	-4258
دنی	-4259
زرگ	-4260
ومه	-4261
▁غم	-4262
▁زوج	-4263
▁صندوق	-4264
▁برقراری	-4265
▁توانستم	-4266
مرد	-4267
کام	-4268
▁خراب	-4269
▁مدار	-4270
▁آلوده	-4271
▁آوریل	-4272
▁ببینیم	-4273
▁>	-4274
▁n	-4275
▁تخت	-4276
▁نیک	-4277
▁چاق	-4278
▁اسناد	-4279
▁ببیند	-4280
▁شکایت	-4281
کیه	-4282
▁عر	-4283
▁۱۹۷	-4284
▁خودت	-4285
▁ظاهرا	-4286
▁تماشای	-4287
▁تروریسم	-4288
▁پیشگیری	-4289
ont	-4290
زین	-4291
ولیک	-4292
▁خلی	-4293
▁مشا	-4294
▁اسکن	-4295
▁اراده	-4296
▁نشسته	-4297
▁زنجیره	-4298
ابتی	-4299
▁فقر	-4300
▁موج	-4301
▁۱۹۸	-4302
برگ	-4303
غیر	-4304
▁ضبط	-4305
▁عاط	-4306
▁کنون	-4307
▁ابراز	-4308
▁حسابد	-4309
▁فوریه	-4310
▁فیزیک	-4311
▁دستورال	-4312
چوب	-4313
مینی	-4314
▁شرط	-4315
▁مؤثر	-4316
▁چندان	-4317
▁جشنواره	-4318
تم	-4319
▁وال	-4320
▁ادبی	-4321
▁بخشد	-4322
▁لوله	-4323
▁آمدند	-4324
▁بعنوان	-4325
▁جر	-4326
▁طرز	-4327
▁دبیر	-4328
▁سایه	-4329
▁آورید	-4330
▁برایش	-4331
▁بنیان	-4332
▁مالکیت	-4333
▁نوشیدن	-4334
▁وبسایت	-4335
pp	-4336
▁Al	-4337
فرنی	-4338
▁درمورد	-4339
▁سازمانی	-4340
وگ	-4341
اطر	-4342
سیل	-4343
▁۱۶	-4344
▁خنده	-4345
▁سکوت	-4346
▁جوامع	-4347
▁ویزای	-4348
▁خوشبخت	-4349
▁روحانی	-4350
▁هورمون	-4351
▁کمیسیون	-4352
▁حسابداری	-4353
IS	-4354
حق	-4355
▁مرتب	-4356
▁نکند	-4357
▁السلام	-4358
▁خودکشی	-4359
▁پایتخت	-4360
):	-4361
وره	-4362
پرس	-4363
▁بومی	-4364
▁کاغذ	-4365
▁گذارند	-4366
se	-4367
ضاع	-4368
▁ني	-4369
نجان	-4370
▁اتوب	-4371
▁بکار	-4372
▁توده	-4373
▁اجاره	-4374
ud	-4375
▁زرد	-4376
▁پیگیری	-4377
▁استدلال	-4378
one	-4379
▁80	-4380
▁راستی	-4381
▁مخاطبان	-4382
▁موجودات	-4383
eb	-4384
ark	-4385
ولا	-4386
▁لات	-4387
▁هید	-4388
▁شارژ	-4389
▁گریه	-4390
▁برایم	-4391
بو	-4392
غه	-4393
ویم	-4394
▁هار	-4395
▁حسین	-4396
▁پیشین	-4397
▁گذاشتن	-4398
ry	-4399
۲۰	-4400
▁HT	-4401
باشد	-4402
▁ناز	-4403
ابقات	-4404
▁هیئت	-4405
▁گونا	-4406
▁سرگرم	-4407
▁شکنجه	-4408
▁مجددا	-4409
▁دشمنان	-4410
▁راهنمای	-4411
▁مسابقات	-4412
▁دستورالعمل	-4413
ain	-4414
ایم	-4415
فون	-4416
وزی	-4417
▁اسید	-4418
▁بشناس	-4419
▁حالیکه	-4420
▁زمستان	-4421
▁یهودیان	-4422
شود	-4423
▁(2	-4424
چرخه	-4425
▁حقیقی	-4426
▁تصویری	-4427
▁مشابهی	-4428
▁خواستند	-4429
ير	-4430
▁؛	-4431
▁امت	-4432
▁پذی	-4433
▁اتمی	-4434
▁کالی	-4435
▁پرسید	-4436
▁سربازان	-4437
▁Q	-4438
▁بهار	-4439
▁ساکن	-4440
▁فقیر	-4441
▁اینست	-4442
▁معلوم	-4443
▁کالری	-4444
▁آنجایی	-4445
▁شناختی	-4446
ستر	-4447
ight	-4448
▁شبه	-4449
▁2012	-4450
▁شکار	-4451
▁عنصر	-4452
▁تجاوز	-4453
▁دلیلی	-4454
▁نسبتا	-4455
▁اختراع	-4456
▁استخراج	-4457
▁194	-4458
▁بشن	-4459
▁پرورد	-4460
▁ژاپنی	-4461
▁آمادگی	-4462
▁نباشید	-4463
▁فکری	-4464
▁مغزی	-4465
▁قطعات	-4466
▁برخلاف	-4467
▁فلسطین	-4468
▁متقاضی	-4469
+]	-4470
۱۹	-4471
▁[+]	-4472
▁شکر	-4473
▁کپی	-4474
برداری	-4475
▁اوضاع	-4476
▁پدیده	-4477
▁بگوییم	-4478
▁اینگونه	-4479
مپ	-4480
ock	-4481
ver	-4482
▁توقف	-4483
▁عقیده	-4484
▁مردمی	-4485
▁اتوبوس	-4486
▁تقاضای	-4487
▁همدیگر	-4488
دل	-4489
مزد	-4490
▁الگ	-4491
▁بکشد	-4492
▁پروف	-4493
▁بینند	-4494
▁تخصصی	-4495
▁درحال	-4496
▁بازارهای	-4497
-]	-4498
جای	-4499
▁نع	-4500
▁[-]	-4501
▁روم	-4502
▁کاش	-4503
▁تخمین	-4504
▁لبنان	-4505
▁ماجرا	-4506
▁موافق	-4507
لر	-4508
شده	-4509
فرم	-4510
▁نقص	-4511
▁تایل	-4512
▁دکمه	-4513
▁دیگه	-4514
▁رفتم	-4515
▁گیرید	-4516
▁یکپار	-4517
▁احتیاج	-4518
▁میزبان	-4519
▁هماهنگی	-4520
▁زای	-4521
▁سراغ	-4522
▁جنایت	-4523
▁میکرو	-4524
▁آنهایی	-4525
▁جغرافی	-4526
▁دوچرخه	-4527
کند	-4528
اتور	-4529
راکی	-4530
▁قند	-4531
▁پره	-4532
▁قطار	-4533
▁نظری	-4534
▁پذیرفت	-4535
▁22	-4536
▁حب	-4537
▁رغم	-4538
▁نماد	-4539
▁کلیه	-4540
▁مخالفت	-4541
▁تصمیمات	-4542
▁نگ	-4543
▁منف	-4544
▁جویی	-4545
▁سوسی	-4546
▁مدنی	-4547
▁مقصد	-4548
▁بخاطر	-4549
▁بازیگر	-4550
▁بخورید	-4551
ib	-4552
ریزی	-4553
▁جیم	-4554
▁سلط	-4555
▁باشه	-4556
▁اشخاص	-4557
end	-4558
زات	-4559
▁Tr	-4560
▁مکال	-4561
▁کابل	-4562
▁همسایه	-4563
▁غی	-4564
عیتی	-4565
▁كار	-4566
▁کربن	-4567
▁اشغال	-4568
▁امپرات	-4569
▁دریاچه	-4570
▁گیاهان	-4571
بتی	-4572
▁۱۷	-4573
الله	-4574
زاری	-4575
یدان	-4576
▁سوگ	-4577
▁فاج	-4578
▁قرص	-4579
▁بزند	-4580
▁طلاق	-4581
▁مسکو	-4582
▁پنجم	-4583
▁کلاسیک	-4584
▁رقص	-4585
▁فریب	-4586
▁مبنی	-4587
▁نکات	-4588
▁مستقی	-4589
▁خلاقیت	-4590
▁معاملات	-4591
▁تلویزیونی	-4592
▁۱۹۶	-4593
▁آنرا	-4594
▁ویدئ	-4595
▁باران	-4596
▁نداشتند	-4597
▁h	-4598
فکر	-4599
▁IP	-4600
▁Pl	-4601
▁اتهام	-4602
▁تخریب	-4603
▁عاطفی	-4604
▁مادرش	-4605
▁یونان	-4606
▁باستان	-4607
▁خاطرات	-4608
▁ناگهانی	-4609
▁موتورهای	-4610
ّا	-4611
▁|	-4612
رفت	-4613
رول	-4614
گزار	-4615
▁بفر	-4616
▁پرچ	-4617
▁آلبوم	-4618
▁١	-4619
oun	-4620
▁کت	-4621
▁تویی	-4622
▁سبزی	-4623
▁وضوح	-4624
▁دقیقاً	-4625
▁راننده	-4626
ختن	-4627
طبی	-4628
قیب	-4629
▁خب	-4630
ثیرات	-4631
▁اکسی	-4632
▁آسانی	-4633
▁اتمام	-4634
▁رفتند	-4635
▁فاجعه	-4636
▁مشاغل	-4637
▁ناگهان	-4638
▁طرفداران	-4639
▁دموکراتیک	-4640
راث	-4641
راس	-4642
شتر	-4643
▁برطرف	-4644
▁پرنده	-4645
▁موسسات	-4646
▁ناپدید	-4647
▁میانگین	-4648
iz	-4649
▁l	-4650
▁۶۰	-4651
ایلی	-4652
▁شعر	-4653
▁احمق	-4654
▁حامی	-4655
▁گردند	-4656
▁مداخله	-4657
▁مرزهای	-4658
▁اعتباری	-4659
▁تجربیات	-4660
▁اشتباهات	-4661
▁رأ	-4662
▁تسه	-4663
▁کلاه	-4664
▁رف	-4665
▁بفه	-4666
▁شست	-4667
▁صفر	-4668
▁مؤس	-4669
▁نان	-4670
▁انکار	-4671
▁برزیل	-4672
▁تاریک	-4673
▁معناست	-4674
▁برایتان	-4675
▁SE	-4676
رارت	-4677
▁جسم	-4678
▁آشپز	-4679
▁بیفت	-4680
▁سوار	-4681
▁گردن	-4682
▁بتوانیم	-4683
کم	-4684
فیف	-4685
کوپ	-4686
▁تنگ	-4687
▁سرت	-4688
▁یمن	-4689
▁رنگی	-4690
▁یاری	-4691
▁مهاجر	-4692
▁دستمزد	-4693
ear	-4694
▁En	-4695
▁عظ	-4696
▁رده	-4697
▁لمس	-4698
▁محض	-4699
▁عالم	-4700
▁هایم	-4701
▁وسیع	-4702
راسیون	-4703
▁استودی	-4704
▁پارلمان	-4705
-2	-4706
PS	-4707
بوک	-4708
▁Ad	-4709
▁Ar	-4710
▁عز	-4711
راست	-4712
▁عده	-4713
▁داره	-4714
▁همسرش	-4715
▁ویدیو	-4716
▁کلیسا	-4717
▁کوتاهی	-4718
▁مهاجران	-4719
▁گردشگری	-4720
▁رفتارهای	-4721
مکن	-4722
رورت	-4723
ولای	-4724
▁اشیا	-4725
▁آفتاب	-4726
▁تسلیم	-4727
▁گواهی	-4728
▁داروها	-4729
▁سرگرمی	-4730
▁ابتدایی	-4731
▁فرستاده	-4732
▁نوجوانان	-4733
يل	-4734
لاس	-4735
مار	-4736
▁Ex	-4737
▁سم	-4738
وتری	-4739
▁پلی	-4740
راحتی	-4741
▁سالهای	-4742
▁میتوانید	-4743
▁&	-4744
▁جفت	-4745
▁ونز	-4746
▁2019	-4747
▁استی	-4748
▁اهدا	-4749
▁صوتی	-4750
▁فساد	-4751
▁بدانیم	-4752
▁کوچکتر	-4753
▁تروریست	-4754
.2	-4755
▁فش	-4756
▁۲۴	-4757
▁توج	-4758
▁روس	-4759
▁شاخ	-4760
▁لذا	-4761
▁مفاه	-4762
▁آنگاه	-4763
▁اشکال	-4764
▁ببرند	-4765
▁هایتان	-4766
▁الگوریت	-4767
شور	-4768
▁آری	-4769
▁تقاضا	-4770
▁متعددی	-4771
ML	-4772
▁Cl	-4773
خوان	-4774
▁جاس	-4775
▁شجا	-4776
▁2013	-4777
▁خلیج	-4778
▁چراغ	-4779
▁درونی	-4780
▁امریکایی	-4781
ne	-4782
يه	-4783
پا	-4784
▁خند	-4785
▁زخم	-4786
▁اسلحه	-4787
▁متنوع	-4788
▁ونزوئ	-4789
▁اشتغال	-4790
▁استعداد	-4791
انونی	-4792
▁دینی	-4793
▁عرصه	-4794
▁خطرات	-4795
▁ضرورت	-4796
▁فیسبوک	-4797
▁قربانیان	-4798
ge	-4799
لیم	-4800
▁زنگ	-4801
▁سیب	-4802
▁محور	-4803
▁متعدد	-4804
▁نداده	-4805
▁واسطه	-4806
▁اصلاحات	-4807
▁خرج	-4808
▁تسهیل	-4809
▁خواهر	-4810
▁اجباری	-4811
▁تمرینات	-4812
▁نرس	-4813
الیایی	-4814
▁ادغام	-4815
▁الزام	-4816
▁دانستم	-4817
▁برآورده	-4818
اتل	-4819
بول	-4820
▁بت	-4821
▁بنگ	-4822
▁رحم	-4823
▁تنظی	-4824
ادمی	-4825
دهای	-4826
رایه	-4827
ساخت	-4828
▁تنش	-4829
▁باشی	-4830
▁آفرین	-4831
▁خاموش	-4832
▁قبلاً	-4833
▁مادرم	-4834
▁پیروز	-4835
▁افسانه	-4836
▁چارچوب	-4837
pt	-4838
▁a	-4839
زاده	-4840
▁Com	-4841
▁اتو	-4842
▁سالن	-4843
▁گواه	-4844
▁صاحبان	-4845
▁مخصوصا	-4846
▁معلمان	-4847
▁پروتکل	-4848
age	-4849
ian	-4850
▁US	-4851
▁سیل	-4852
▁بشری	-4853
▁کلام	-4854
▁سوگند	-4855
▁برساند	-4856
▁استقبال	-4857
▁غیرقابل	-4858
ادله	-4859
▁پدرم	-4860
▁برسند	-4861
▁تدریس	-4862
▁دفاعی	-4863
▁سالها	-4864
▁شیرین	-4865
▁وسیعی	-4866
▁رسیدگی	-4867
▁کارآمد	-4868
▁فراوانی	-4869
▁یادداشت	-4870
▁بالاترین	-4871
ice	-4872
اقت	-4873
▁70	-4874
▁ابع	-4875
▁ملک	-4876
▁حریم	-4877
▁مزیت	-4878
▁پرچم	-4879
▁اندیشه	-4880
▁مقداری	-4881
are	-4882
▁فه	-4883
▁تسلی	-4884
▁شهرد	-4885
▁ماهه	-4886
▁تومور	-4887
▁حوادث	-4888
▁سخنان	-4889
▁ایستاده	-4890
▁ناراحتی	-4891
▁التحصیلان	-4892
ure	-4893
رفه	-4894
ادیر	-4895
ازده	-4896
▁عزیز	-4897
▁شهرها	-4898
▁نیستیم	-4899
▁ژنتیکی	-4900
▁ضر	-4901
ایده	-4902
▁مون	-4903
▁جانب	-4904
▁فیلی	-4905
▁مطلق	-4906
▁ملاح	-4907
زاینده	-4908
▁روایت	-4909
▁میراث	-4910
▁میکنم	-4911
▁کارکرد	-4912
▁نخواهید	-4913
.0	-4914
ore	-4915
▁1-	-4916
▁2-	-4917
▁مجه	-4918
▁منع	-4919
▁حاکم	-4920
▁نظرس	-4921
▁اخراج	-4922
▁سینما	-4923
▁مبنای	-4924
▁اکسیژن	-4925
▁هماهنگ	-4926
▁تنظیمات	-4927
▁کالیفرنی	-4928
▁اوج	-4929
▁مین	-4930
▁آرزو	-4931
▁آیات	-4932
▁دانه	-4933
▁سازند	-4934
▁مثلاً	-4935
▁هیدرو	-4936
▁ارتفاع	-4937
▁مقادیر	-4938
ff	-4939
روش	-4940
وفان	-4941
▁داغ	-4942
▁مأم	-4943
▁تعلق	-4944
▁اخلاق	-4945
▁دخالت	-4946
▁دستاورد	-4947
▁فزاینده	-4948
▁ایتالیایی	-4949
زن	-4950
ire	-4951
وسته	-4952
▁گرا	-4953
▁پوند	-4954
▁محاسب	-4955
▁بسازید	-4956
12	-4957
ik	-4958
ویز	-4959
▁500	-4960
▁غال	-4961
▁لنز	-4962
▁افسر	-4963
▁شرکتی	-4964
▁شهادت	-4965
▁نامزد	-4966
▁نظرسنجی	-4967
▁غیرقانونی	-4968
act	-4969
ass	-4970
▁دلم	-4971
▁بینم	-4972
▁قایق	-4973
▁قدرد	-4974
▁تأسیس	-4975
▁حساسی	-4976
▁شنیدن	-4977
▁ابتدای	-4978
▁افزوده	-4979
طل	-4980
اعت	-4981
طانی	-4982
▁اعط	-4983
▁جاب	-4984
▁کشی	-4985
رمانی	-4986
▁رسند	-4987
▁فورا	-4988
▁شبانه	-4989
▁طلایی	-4990
▁غالبا	-4991
▁فریاد	-4992
▁سازگار	-4993
▁آپارتمان	-4994
یدگی	-4995
▁طعم	-4996
▁نار	-4997
▁۲۰۱۵	-4998
▁بروند	-4999
▁دریای	-5000
▁عضلات	-5001
▁مرتکب	-5002
▁رفتاری	-5003
▁برداشته	-5004
▁عبارتند	-5005
▁ونزوئلا	-5006
60	-5007
صدی	-5008
کوک	-5009
▁دوی	-5010
▁سنی	-5011
▁متأ	-5012
▁متش	-5013
مانند	-5014
▁عذاب	-5015
▁مولک	-5016
▁نداد	-5017
▁واکس	-5018
روسافت	-5019
▁بعدها	-5020
▁یکپارچه	-5021
▁هنرمندان	-5022
▁v	-5023
ook	-5024
ایر	-5025
▁زا	-5026
▁وسط	-5027
ربزرگ	-5028
▁خالص	-5029
▁منطق	-5030
▁ناشن	-5031
▁مسافر	-5032
▁پرتاب	-5033
▁تظاهرات	-5034
▁توانسته	-5035
▁مشکلاتی	-5036
▁آشپزخانه	-5037
IV	-5038
میلی	-5039
▁کلم	-5040
▁شهرت	-5041
▁صدور	-5042
▁صلاح	-5043
▁بصورت	-5044
▁مسدود	-5045
▁گوناگون	-5046
▁الگوریتم	-5047
برت	-5048
▁آو	-5049
▁کب	-5050
▁عمق	-5051
▁نظم	-5052
اداری	-5053
▁معدن	-5054
▁شهروند	-5055
▁موضوعی	-5056
▁کامپیوتری	-5057
AS	-5058
eg	-5059
ox	-5060
ite	-5061
میمی	-5062
گذشت	-5063
▁تکه	-5064
▁غلط	-5065
▁معج	-5066
▁بابت	-5067
▁سرقت	-5068
▁ابعاد	-5069
▁آکادمی	-5070
▁انفجار	-5071
▁سایبری	-5072
▁شایسته	-5073
▁اتفاقات	-5074
▁بگذارند	-5075
▁کشورهایی	-5076
▁سازماندهی	-5077
مدت	-5078
▁23	-5079
▁دز	-5080
حدود	-5081
▁دگر	-5082
▁ردی	-5083
▁ربات	-5084
▁سوئد	-5085
▁سپاس	-5086
▁كنند	-5087
▁ببینم	-5088
▁مواقع	-5089
▁مرورگر	-5090
▁کلیسای	-5091
man	-5092
▁باب	-5093
▁جنس	-5094
▁2011	-5095
▁قضیه	-5096
▁نگار	-5097
▁توجیه	-5098
▁مدارک	-5099
▁نکنند	-5100
▁بایستی	-5101
▁توییتر	-5102
ld	-5103
▁28	-5104
▁پری	-5105
▁بلوک	-5106
▁میشه	-5107
▁اصلاً	-5108
▁معدنی	-5109
▁خودداری	-5110
▁انتظارات	-5111
ace	-5112
her	-5113
ust	-5114
اسر	-5115
امپ	-5116
▁بیام	-5117
▁عموم	-5118
▁آفریقای	-5119
▁بازیگران	-5120
▁روانشناسی	-5121
▁کالیفرنیا	-5122
ES	-5123
ئه	-5124
قین	-5125
▁کنه	-5126
▁وکیل	-5127
▁سفارت	-5128
▁مفاهیم	-5129
▁g	-5130
شون	-5131
ثیری	-5132
مایی	-5133
▁تدا	-5134
▁تند	-5135
▁الته	-5136
▁روبه	-5137
▁شیشه	-5138
▁محرک	-5139
▁محکم	-5140
▁هلند	-5141
▁آیفون	-5142
▁بدهیم	-5143
▁کتابی	-5144
▁زایمان	-5145
▁عملیاتی	-5146
ber	-5147
پیک	-5148
قاعد	-5149
▁اقل	-5150
▁وری	-5151
▁ایفا	-5152
▁محبت	-5153
▁ارمغان	-5154
▁زندانیان	-5155
▁کانادایی	-5156
pl	-5157
▁جوی	-5158
▁ستون	-5159
▁متمای	-5160
▁دارویی	-5161
▁نتوانست	-5162
▁خوشبختانه	-5163
"،	-5164
qu	-5165
▁'	-5166
▁۸۰	-5167
ــــ	-5168
وارد	-5169
▁باه	-5170
▁جنین	-5171
▁معنوی	-5172
▁آشنایی	-5173
▁پیوسته	-5174
▁پروردگار	-5175
▁اسپانیایی	-5176
تاح	-5177
زده	-5178
▁شوه	-5179
▁گوشه	-5180
▁جدایی	-5181
▁ندیده	-5182
▁تصادفی	-5183
▁فرمانده	-5184
▁نمیتوان	-5185
▁جغرافیایی	-5186
شو	-5187
بیا	-5188
▁فت	-5189
▁جاذ	-5190
▁کور	-5191
▁خونی	-5192
▁قائل	-5193
▁وحشی	-5194
▁حرکات	-5195
▁لاتین	-5196
▁دوشنبه	-5197
▁طراحان	-5198
▁متقاعد	-5199
▁IS	-5200
رهای	-5201
زایر	-5202
▁گرای	-5203
ادلانه	-5204
▁بوجود	-5205
▁دانستن	-5206
▁میباشد	-5207
io	-5208
وود	-5209
کشان	-5210
▁پال	-5211
▁بدهم	-5212
▁جادو	-5213
▁غلبه	-5214
▁مجهز	-5215
▁پرده	-5216
▁گرما	-5217
▁سومین	-5218
▁مکزیک	-5219
▁سرتاسر	-5220
▁نبودند	-5221
▁۲۱	-5222
▁300	-5223
▁الگوی	-5224
▁افتتاح	-5225
▁درختان	-5226
▁فراوان	-5227
▁کارآفرین	-5228
اون	-5229
▁کر	-5230
▁آقا	-5231
▁لای	-5232
▁دائم	-5233
▁جبران	-5234
▁نویسد	-5235
▁بگویند	-5236
▁بنویسید	-5237
▁کمونیست	-5238
▁مایکروسافت	-5239
ولت	-5240
▁بي	-5241
ایان	-5242
ستری	-5243
▁تها	-5244
▁رأی	-5245
▁2008	-5246
▁تروی	-5247
▁سپری	-5248
▁ویزا	-5249
▁سوئیس	-5250
▁معاصر	-5251
▁تایلند	-5252
▁سریعتر	-5253
▁فرماید	-5254
اع	-5255
دو	-5256
ork	-5257
مندی	-5258
▁اعل	-5259
▁کاپ	-5260
▁شکسته	-5261
▁متغیر	-5262
▁مغازه	-5263
▁تعهدات	-5264
▁گرسنگی	-5265
مث	-5266
▁35	-5267
دودی	-5268
وئیه	-5269
▁(19	-5270
▁عسل	-5271
▁وین	-5272
▁امّا	-5273
▁ناتو	-5274
▁ابراه	-5275
▁خروجی	-5276
▁یکبار	-5277
▁ادبیات	-5278
▁مالیاتی	-5279
عان	-5280
عود	-5281
▁آگ	-5282
▁پاپ	-5283
▁پوی	-5284
▁بخصوص	-5285
▁جاذبه	-5286
▁رادیو	-5287
▁ارتقاء	-5288
▁نادرست	-5289
PA	-5290
۵۰	-5291
شما	-5292
▁ائت	-5293
▁رون	-5294
▁صلی	-5295
▁عبد	-5296
الیسم	-5297
▁2010	-5298
▁شوهر	-5299
▁محروم	-5300
▁اعتراف	-5301
▁فرزندتان	-5302
▁هواپیمای	-5303
ّه	-5304
کور	-5305
پذیر	-5306
▁انس	-5307
▁اوت	-5308
▁شنا	-5309
▁چوب	-5310
مایشی	-5311
▁استع	-5312
▁بدنی	-5313
▁بروم	-5314
▁اداری	-5315
▁اسباب	-5316
▁دونالد	-5317
▁سیاستم	-5318
▁فروخته	-5319
▁پردازد	-5320
▁ویدئویی	-5321
آیا	-5322
اطع	-5323
رها	-5324
بورگ	-5325
طوری	-5326
▁مسأ	-5327
▁مضر	-5328
▁تجار	-5329
▁رسول	-5330
▁بیفتد	-5331
▁دیوید	-5332
▁گرایی	-5333
▁مربوطه	-5334
▁بیاورید	-5335
▁اسرائیلی	-5336
▁دیجیتالی	-5337
دین	-5338
▁زلز	-5339
▁شایع	-5340
▁مدعی	-5341
▁خوراکی	-5342
▁صبحانه	-5343
اقد	-5344
▁جزو	-5345
▁گاو	-5346
▁مغذی	-5347
▁تبادل	-5348
▁جولای	-5349
▁زلزله	-5350
▁مسافرت	-5351
▁هل	-5352
▁خطا	-5353
▁ساح	-5354
▁جسمی	-5355
▁حمام	-5356
▁خواص	-5357
▁رفاه	-5358
▁قاره	-5359
▁لیزر	-5360
▁خیانت	-5361
▁فیلیپ	-5362
غی	-5363
▁جوش	-5364
▁قوم	-5365
▁موان	-5366
▁نظرم	-5367
▁تضعیف	-5368
▁تعمیر	-5369
▁حرارت	-5370
▁دربار	-5371
▁ماهیت	-5372
▁ژوئیه	-5373
▁رساندن	-5374
▁خونریزی	-5375
PN	-5376
ax	-5377
سکی	-5378
▁ون	-5379
▁آماز	-5380
▁سرما	-5381
▁شعار	-5382
▁ماسا	-5383
▁رسمیت	-5384
▁مطلوب	-5385
▁واردات	-5386
▁سبزیجات	-5387
3)	-5388
ix	-5389
وقت	-5390
▁Ph	-5391
▁سنج	-5392
▁مکر	-5393
▁گال	-5394
▁مسجد	-5395
▁خستگی	-5396
▁بمانید	-5397
▁مکالمه	-5398
▁دندانپزش	-5399
ّی	-5400
زاب	-5401
مود	-5402
▁27	-5403
▁Pr	-5404
▁آند	-5405
▁دود	-5406
▁ضرب	-5407
ینامه	-5408
▁شاخه	-5409
▁مسکن	-5410
▁بداند	-5411
▁ساکنان	-5412
ضه	-5413
▁آذ	-5414
همان	-5415
▁بلی	-5416
▁خلب	-5417
▁غری	-5418
▁نصف	-5419
ستیکی	-5420
▁آینه	-5421
▁بنده	-5422
▁خرده	-5423
▁شهید	-5424
▁ترویج	-5425
▁آمازون	-5426
▁بمانند	-5427
▁تیراند	-5428
▁گیرنده	-5429
▁کارفرمای	-5430
▁گواهینامه	-5431
11	-5432
وطه	-5433
گرم	-5434
▁26	-5435
▁خس	-5436
ایند	-5437
وریم	-5438
▁سیر	-5439
▁بلاک	-5440
▁ماری	-5441
▁مرات	-5442
▁کامی	-5443
▁خداست	-5444
▁فالون	-5445
سو	-5446
oin	-5447
اقب	-5448
▁شرم	-5449
▁قبر	-5450
▁لیبی	-5451
▁مهار	-5452
▁واجد	-5453
▁پیکر	-5454
▁بکشید	-5455
▁مشتاق	-5456
▁ناهار	-5457
▁گیاهی	-5458
▁حساسیت	-5459
▁میشوند	-5460
AT	-5461
انش	-5462
گهی	-5463
▁آست	-5464
▁تاک	-5465
▁عاد	-5466
▁مید	-5467
▁تمدن	-5468
▁فاقد	-5469
▁محاک	-5470
▁مذهب	-5471
▁زیرساخت	-5472
▁پژوهشگران	-5473
per	-5474
مدی	-5475
▁Am	-5476
اشیه	-5477
بندی	-5478
نایی	-5479
وتین	-5480
▁موضع	-5481
▁نعمت	-5482
▁پورت	-5483
▁مخاطب	-5484
▁مشورت	-5485
▁بنیادی	-5486
▁سامسون	-5487
▁مشخصات	-5488
▁قدردانی	-5489
ارف	-5490
▁Th	-5491
▁۲۲	-5492
▁App	-5493
▁اگه	-5494
▁جبه	-5495
▁امان	-5496
▁بصری	-5497
▁جیمز	-5498
▁روحی	-5499
▁کیست	-5500
▁گذرد	-5501
▁آلرژی	-5502
▁مستقر	-5503
▁معیار	-5504
▁راهکار	-5505
▁رسیدند	-5506
▁اضطراری	-5507
▁نهادهای	-5508
▁45	-5509
▁يک	-5510
▁برف	-5511
▁حدس	-5512
▁روده	-5513
▁زدند	-5514
▁املاک	-5515
▁جنسیت	-5516
▁مالزی	-5517
▁گویید	-5518
▁اختصاصی	-5519
▁اندروید	-5520
▁رویدادهای	-5521
CC	-5522
كن	-5523
!!!	-5524
ial	-5525
▁Sc	-5526
▁نر	-5527
▁خوی	-5528
▁بگیرم	-5529
▁ساعات	-5530
▁لوازم	-5531
▁مخلوط	-5532
▁استارت	-5533
▁اعتصاب	-5534
▁حاکمیت	-5535
▁فرستاد	-5536
▁ابراهیم	-5537
▁مسافران	-5538
خشی	-5539
▁فو	-5540
▁بیا	-5541
▁شلو	-5542
▁2009	-5543
▁جدول	-5544
▁ناسا	-5545
▁کوبا	-5546
▁تاخیر	-5547
▁خورند	-5548
▁واکسن	-5549
▁سامسونگ	-5550
aw	-5551
ازن	-5552
کال	-5553
▁غرق	-5554
▁ازای	-5555
▁باند	-5556
▁تنفس	-5557
▁حامل	-5558
▁محله	-5559
▁مطلع	-5560
▁مطمئ	-5561
▁نفرت	-5562
▁اندام	-5563
▁پرهیز	-5564
▁انتهای	-5565
▁رقابتی	-5566
▁میکنید	-5567
▁خواننده	-5568
▁ناشناخته	-5569
ros	-5570
کسل	-5571
▁آنج	-5572
▁جری	-5573
▁نیت	-5574
▁کبد	-5575
▁تلقی	-5576
▁سنین	-5577
▁کشتن	-5578
▁کیلو	-5579
▁حاشیه	-5580
▁فرمول	-5581
▁فروشی	-5582
▁ممنون	-5583
▁کهکشان	-5584
▁پرندگان	-5585
▁نمایندگی	-5586
40	-5587
انا	-5588
▁دي	-5589
▁سقف	-5590
▁بشود	-5591
▁بیاب	-5592
▁ستار	-5593
▁بزنند	-5594
▁داوری	-5595
▁فولاد	-5596
▁آوردند	-5597
▁بیرونی	-5598
▁دانشجویی	-5599
▁امپراتوری	-5600
▁الا	-5601
▁لحظ	-5602
▁2000	-5603
▁اختل	-5604
▁درسی	-5605
▁فیبر	-5606
▁مزمن	-5607
▁نفتی	-5608
▁کمال	-5609
▁یقین	-5610
▁اعداد	-5611
▁بردند	-5612
▁فهمید	-5613
▁پسران	-5614
▁دانشجو	-5615
▁ویرایش	-5616
DA	-5617
▁۷۰	-5618
▁آسم	-5619
▁ملکه	-5620
▁رکورد	-5621
▁زبانی	-5622
▁کریسم	-5623
▁نوزادان	-5624
پت	-5625
آگاه	-5626
▁آهسته	-5627
▁ادرار	-5628
▁الملل	-5629
▁مدیری	-5630
▁مسأله	-5631
▁میکرد	-5632
▁گیریم	-5633
▁کاندید	-5634
▁اردوگاه	-5635
19	-5636
ly	-5637
▁to	-5638
▁ویل	-5639
▁۱۹۴	-5640
▁بالغ	-5641
▁فارس	-5642
▁نوری	-5643
▁یابی	-5644
▁۲۰۱۸	-5645
▁مشخصی	-5646
▁مهمتر	-5647
▁پستان	-5648
▁خودروی	-5649
▁ویتنام	-5650
▁خلاقانه	-5651
▁تغییراتی	-5652
▁جایگزینی	-5653
▁الکترونیک	-5654
▁As	-5655
▁تام	-5656
▁خنک	-5657
▁غول	-5658
اگرام	-5659
▁تکان	-5660
▁مداف	-5661
▁آرامی	-5662
▁قلمرو	-5663
▁داستانی	-5664
▁دانستند	-5665
▁دموکرات	-5666
ینو	-5667
کارا	-5668
▁HIV	-5669
▁الف	-5670
گزاری	-5671
▁2020	-5672
▁آگهی	-5673
▁۲۰۱۱	-5674
گردانی	-5675
▁آموخت	-5676
▁خلبان	-5677
▁برادران	-5678
▁بازرگانی	-5679
▁=	-5680
طری	-5681
ینا	-5682
روئید	-5683
ارستان	-5684
▁تئاتر	-5685
▁مثبتی	-5686
▁پیشرو	-5687
▁دشواری	-5688
▁محدودی	-5689
▁کریسمس	-5690
.3	-5691
.4	-5692
MS	-5693
▁ببخ	-5694
▁دردن	-5695
▁شکاف	-5696
▁احزاب	-5697
▁بشریت	-5698
▁تلفنی	-5699
▁طوفان	-5700
▁عروسی	-5701
▁میانه	-5702
▁راستای	-5703
▁نداشتم	-5704
كه	-5705
▁HD	-5706
▁رؤ	-5707
▁عج	-5708
کنند	-5709
▁خشن	-5710
▁تبعی	-5711
▁انیمی	-5712
▁برعکس	-5713
▁بودید	-5714
▁پیرام	-5715
▁پژوهشی	-5716
▁کارایی	-5717
▁برایشان	-5718
▁وابستگی	-5719
80	-5720
ment	-5721
▁نما	-5722
▁جبهه	-5723
▁سیست	-5724
▁مایع	-5725
▁کردی	-5726
▁برسید	-5727
▁ملاحظه	-5728
IC	-5729
پو	-5730
ترس	-5731
پرد	-5732
▁تپ	-5733
علیه	-5734
▁آرژ	-5735
▁نوا	-5736
▁تجویز	-5737
▁حقایق	-5738
▁گوییم	-5739
▁ائتلاف	-5740
▁بیاموز	-5741
▁بیاورد	-5742
▁دردناک	-5743
▁متمایز	-5744
▁انتخابی	-5745
▁دوستانه	-5746
▁فروشنده	-5747
AR	-5748
لم	-5749
ile	-5750
▁هج	-5751
▁وج	-5752
تیاد	-5753
▁برن	-5754
▁بلو	-5755
▁تقد	-5756
▁ورد	-5757
سترول	-5758
▁استن	-5759
▁برنج	-5760
▁تکیه	-5761
▁جراح	-5762
▁جوانی	-5763
▁فایده	-5764
ولوژیکی	-5765
▁بینداز	-5766
▁تاریکی	-5767
▁مهربان	-5768
▁اینجاست	-5769
▁پادشاهی	-5770
AN	-5771
ED	-5772
ics	-5773
افل	-5774
▁بره	-5775
▁جزء	-5776
▁عام	-5777
▁یار	-5778
▁2007	-5779
▁پتان	-5780
▁غذاها	-5781
▁موانع	-5782
▁اعتیاد	-5783
▁محافظه	-5784
▁باستانی	-5785
▁خریداران	-5786
:«	-5787
بینی	-5788
▁آرت	-5789
▁بوت	-5790
▁ربط	-5791
ivers	-5792
▁تیره	-5793
▁شانه	-5794
▁شلیک	-5795
▁۲۰۱۳	-5796
▁۲۰۱۴	-5797
▁امروزی	-5798
▁بیکاری	-5799
▁نابودی	-5800
▁اینستاگرام	-5801
ick	-5802
ies	-5803
اهو	-5804
قول	-5805
،000	-5806
▁195	-5807
▁DNA	-5808
▁لطف	-5809
▁نوار	-5810
▁قطعاً	-5811
▁پروسه	-5812
▁گذران	-5813
▁تغییری	-5814
▁مطمئنا	-5815
▁کمترین	-5816
▁اختلالات	-5817
▁خودروهای	-5818
▁پیشنهادی	-5819
.(	-5820
▁$	-5821
▁اظ	-5822
▁برم	-5823
▁ثال	-5824
▁ضرر	-5825
▁رحمت	-5826
▁فرمت	-5827
▁قطعی	-5828
▁نیام	-5829
▁پیرو	-5830
الیستی	-5831
▁آرزوی	-5832
▁فنجان	-5833
▁وادار	-5834
▁دیوانه	-5835
▁ردیابی	-5836
▁برانگیز	-5837
ER	-5838
IT	-5839
ee	-5840
ory	-5841
جنس	-5842
▁سخنگ	-5843
▁لزوم	-5844
▁پاره	-5845
▁تشدید	-5846
▁مایکل	-5847
▁معاون	-5848
▁نیروگاه	-5849
▁دریافتند	-5850
▁]	-5851
ans	-5852
باح	-5853
سمه	-5854
چاق	-5855
▁گیت	-5856
▁هندی	-5857
▁بهانه	-5858
▁تحمیل	-5859
▁مادران	-5860
▁ناامید	-5861
▁چنانچه	-5862
▁انیمیشن	-5863
راگ	-5864
ress	-5865
ماند	-5866
▁آمی	-5867
▁مهر	-5868
▁نمک	-5869
▁آدمی	-5870
▁اظها	-5871
▁رزرو	-5872
▁مستم	-5873
▁نگرش	-5874
▁اسکات	-5875
▁دیروز	-5876
▁زنانی	-5877
▁لهستان	-5878
▁محاکمه	-5879
▁روستایی	-5880
▁پیرامون	-5881
وام	-5882
وشید	-5883
وهید	-5884
▁اسد	-5885
▁قفل	-5886
▁اتری	-5887
▁اذیت	-5888
▁اندک	-5889
▁سوزی	-5890
▁شتاب	-5891
▁تخلیه	-5892
▁معجزه	-5893
▁کریست	-5894
▁گفتار	-5895
▁متحدان	-5896
ایات	-5897
درصد	-5898
▁قطر	-5899
▁مشرو	-5900
▁نقلیه	-5901
استفاده	-5902
▁آرژانت	-5903
▁اینطور	-5904
▁درواقع	-5905
▁طرفدار	-5906
▁آزمایشی	-5907
▁شاهزاده	-5908
▁همسرتان	-5909
▁پتانسیل	-5910
▁کلسترول	-5911
▁پي	-5912
اویه	-5913
▁تقل	-5914
▁سوپ	-5915
▁شاع	-5916
▁لیب	-5917
▁توری	-5918
▁معبد	-5919
▁معده	-5920
▁بفرست	-5921
▁تبعیض	-5922
▁آنهاست	-5923
▁اروپای	-5924
▁همینطور	-5925
▁بازنشستگی	-5926
▁خوانندگان	-5927
▁دیپلماتیک	-5928
EC	-5929
اا	-5930
طر	-5931
▁دوام	-5932
▁دوری	-5933
▁دیکت	-5934
▁باهوش	-5935
▁سفارشی	-5936
▁کارتان	-5937
.8	-5938
ري	-5939
زو	-5940
شش	-5941
ish	-5942
همه	-5943
▁حسن	-5944
▁سید	-5945
▁مسن	-5946
▁همد	-5947
▁بکند	-5948
▁تیمی	-5949
▁قلعه	-5950
▁مترو	-5951
▁کالا	-5952
▁آگوست	-5953
▁عمدتا	-5954
▁مجسمه	-5955
▁ستارگان	-5956
▁شهرستان	-5957
.6	-5958
SS	-5959
ph	-5960
▁—	-5961
ary	-5962
اسط	-5963
رسد	-5964
چال	-5965
یرت	-5966
▁3-	-5967
▁زح	-5968
▁سرم	-5969
▁فرق	-5970
نظامی	-5971
▁شنید	-5972
▁مخرب	-5973
▁۲۰۱۶	-5974
▁حتماً	-5975
▁سواری	-5976
▁قیامت	-5977
▁پنجاه	-5978
▁ابزاری	-5979
▁سلطنتی	-5980
▁بازخورد	-5981
oft	-5982
ram	-5983
جنگ	-5984
orld	-5985
▁قرض	-5986
▁پمپ	-5987
▁اولی	-5988
▁دانی	-5989
▁صرفاً	-5990
▁قاچاق	-5991
▁قضایی	-5992
▁درگذشت	-5993
▁مواجهه	-5994
؟"	-5995
▁خز	-5996
▁گز	-5997
▁۹۰	-5998
شاند	-5999
ونزی	-6000
▁ظهر	-6001
▁دافا	-6002
▁آموخته	-6003
▁بهبودی	-6004
▁ترسناک	-6005
▁دروازه	-6006
az	-6007
بند	-6008
▁پت	-6009
باله	-6010
▁Con	-6011
▁خات	-6012
▁لرز	-6013
▁همۀ	-6014
الیست	-6015
▁2006	-6016
▁عکاس	-6017
▁مربع	-6018
▁کارش	-6019
▁ادعای	-6020
▁اساسا	-6021
▁اواسط	-6022
▁برلین	-6023
▁ساحلی	-6024
▁هیچکس	-6025
وهیدرات	-6026
▁پایانی	-6027
▁پلتفرم	-6028
▁اندونزی	-6029
ome	-6030
خود	-6031
ویض	-6032
مونی	-6033
▁زور	-6034
▁سمی	-6035
▁کنج	-6036
▁ثالث	-6037
▁حاکی	-6038
▁سطحی	-6039
▁غافل	-6040
▁تصادف	-6041
▁زباله	-6042
▁فشرده	-6043
▁مراتب	-6044
▁درآورد	-6045
▁کافئین	-6046
▁غیرممکن	-6047
▁وحشتناک	-6048
▁تیراندازی	-6049
۱۰	-6050
صلی	-6051
▁re	-6052
▁جک	-6053
ابقت	-6054
▁Man	-6055
▁سوا	-6056
▁نرو	-6057
▁خطاب	-6058
▁دستش	-6059
▁دیسک	-6060
▁شباه	-6061
▁قاضی	-6062
▁نفره	-6063
▁کیسه	-6064
▁اسرار	-6065
▁برویم	-6066
▁توانی	-6067
▁روشنی	-6068
▁چراکه	-6069
▁ماهانه	-6070
▁امیدواریم	-6071
ash	-6072
خدا	-6073
وها	-6074
وکس	-6075
▁بغ	-6076
ence	-6077
رگان	-6078
▁for	-6079
▁لیگ	-6080
▁وای	-6081
▁وسو	-6082
باران	-6083
واسته	-6084
▁انحص	-6085
▁اکتش	-6086
▁تورم	-6087
▁شماری	-6088
▁نگرفته	-6089
▁صادقانه	-6090
▁مسئولان	-6091
▁چهارشنبه	-6092
16	-6093
ah	-6094
▁e	-6095
ردی	-6096
چین	-6097
▁شل	-6098
وتیک	-6099
▁اخذ	-6100
▁سکه	-6101
▁۵۰۰	-6102
▁بلیط	-6103
▁ریزش	-6104
▁نمره	-6105
▁ویلی	-6106
▁شورشی	-6107
▁مادری	-6108
▁همکار	-6109
▁کشتار	-6110
▁مطابقت	-6111
▁الزامات	-6112
▁بخواهیم	-6113
▁·	-6114
ith	-6115
ong	-6116
چرا	-6117
▁خج	-6118
لانی	-6119
▁Mic	-6120
▁فرک	-6121
▁کرم	-6122
▁گره	-6123
شتیاق	-6124
▁ماسک	-6125
▁شرکای	-6126
▁گرفتار	-6127
▁توضیحات	-6128
AC	-6129
▁۳۵	-6130
▁Ser	-6131
▁امی	-6132
اطیسی	-6133
انداز	-6134
▁تابع	-6135
▁منتظ	-6136
▁اطاعت	-6137
▁بپذیر	-6138
▁بکنید	-6139
▁عواقب	-6140
▁ویران	-6141
▁فعالان	-6142
▁یکشنبه	-6143
▁اظهارات	-6144
▁روشنایی	-6145
▁مأموریت	-6146
▁کارگردانی	-6147
▁مظ	-6148
▁وص	-6149
ولان	-6150
▁بپی	-6151
▁دوش	-6152
▁لزو	-6153
▁زانو	-6154
▁سرپر	-6155
▁چرخش	-6156
▁کریم	-6157
▁اشیاء	-6158
▁رابرت	-6159
▁راهبرد	-6160
▁تاثیرات	-6161
▁پلاستیکی	-6162
▁توافقنامه	-6163
▁کربوهیدرات	-6164
ID	-6165
سن	-6166
ide	-6167
ode	-6168
بای	-6169
,000	-6170
البی	-6171
چیزی	-6172
▁تاپ	-6173
▁حسی	-6174
▁پند	-6175
▁گنج	-6176
▁اینچ	-6177
▁برید	-6178
▁جورج	-6179
▁اجزای	-6180
▁کنسول	-6181
▁التهاب	-6182
▁دربارۀ	-6183
▁کالاهای	-6184
▁غیرنظامی	-6185
▁٢	-6186
rom	-6187
ئون	-6188
▁په	-6189
▁الح	-6190
▁شکم	-6191
▁۱۹۳	-6192
▁سوره	-6193
▁قدیم	-6194
▁تحسین	-6195
▁ماساژ	-6196
▁گلوله	-6197
▁اشتیاق	-6198
▁درخشان	-6199
▁بخواهند	-6200
▁رادیویی	-6201
▁میزبانی	-6202
▁پلاستیک	-6203
▁آفریقایی	-6204
IN	-6205
TP	-6206
ug	-6207
شیم	-6208
گام	-6209
گرا	-6210
میتی	-6211
▁نوک	-6212
▁ببند	-6213
▁متاب	-6214
▁نامش	-6215
اداران	-6216
▁اصرار	-6217
▁تخفیف	-6218
▁تعویض	-6219
▁سردرد	-6220
▁گردان	-6221
▁افزاری	-6222
▁بازتاب	-6223
▁بینایی	-6224
▁تولیدی	-6225
▁نمودند	-6226
▁قطعنامه	-6227
▁مدیریتی	-6228
▁ِ	-6229
▁32	-6230
▁لس	-6231
یتان	-6232
▁خرا	-6233
▁وان	-6234
▁شوخی	-6235
▁قانع	-6236
▁مارت	-6237
▁معای	-6238
▁اموال	-6239
▁برتری	-6240
▁رهایی	-6241
▁المپیک	-6242
▁صلاحیت	-6243
▁مبادله	-6244
▁عادلانه	-6245
▁عاشقانه	-6246
▁ممنوعیت	-6247
▁هواپیمایی	-6248
EB	-6249
oy	-6250
uc	-6251
خصی	-6252
▁آتی	-6253
▁عهد	-6254
▁بفرو	-6255
▁جلوه	-6256
▁صرفا	-6257
▁نوبت	-6258
▁کمکی	-6259
▁داروی	-6260
▁مسیری	-6261
▁مقاوم	-6262
▁گرایش	-6263
▁جادویی	-6264
▁متعادل	-6265
▁نکردند	-6266
▁اشتباهی	-6267
▁انسانها	-6268
▁انق	-6269
▁باق	-6270
راتور	-6271
▁HTML	-6272
▁جهنم	-6273
▁اکسید	-6274
▁متشکل	-6275
▁سرطانی	-6276
▁متقابل	-6277
▁نسبتاً	-6278
▁آگاهانه	-6279
▁پناهندگان	-6280
SA	-6281
oh	-6282
خل	-6283
مح	-6284
▁سح	-6285
▁VPN	-6286
▁درن	-6287
▁ریز	-6288
▁زیان	-6289
▁طرفی	-6290
▁معتق	-6291
▁نشین	-6292
▁۲۰۱۰	-6293
▁خسارت	-6294
▁شکلات	-6295
▁فارسی	-6296
▁نواحی	-6297
▁کجاست	-6298
▁ایرلند	-6299
▁بازرسی	-6300
▁داشتید	-6301
▁سخنگوی	-6302
▁نباشند	-6303
▁کارگری	-6304
▁تسلیحات	-6305
▁آزمایشات	-6306
▁پاسخگویی	-6307
طو	-6308
▁75	-6309
▁هیت	-6310
▁آواز	-6311
▁ایدئ	-6312
▁زخمی	-6313
▁دستان	-6314
▁عظیمی	-6315
▁آفریده	-6316
▁تحولات	-6317
▁عضلانی	-6318
▁نمودار	-6319
▁همراهی	-6320
▁تاریخچه	-6321
15	-6322
َّ	-6323
ail	-6324
شیر	-6325
راقی	-6326
فورد	-6327
▁هکر	-6328
▁پات	-6329
▁پور	-6330
▁براي	-6331
▁مانی	-6332
▁کشند	-6333
▁خدایی	-6334
▁متناسب	-6335
▁بریتانیایی	-6336
yn	-6337
عل	-6338
ینت	-6339
▁36	-6340
▁تث	-6341
▁الک	-6342
▁حبس	-6343
▁دکت	-6344
جویان	-6345
▁بوسی	-6346
▁تطبی	-6347
▁تربیت	-6348
▁روستا	-6349
▁زیبای	-6350
▁عضویت	-6351
▁فقدان	-6352
▁امارات	-6353
▁بتوانم	-6354
▁دنیایی	-6355
▁هیچگاه	-6356
▁میتوانند	-6357
▁پیامدهای	-6358
▁گردشگران	-6359
▁خبرنگاران	-6360
))	-6361
ظم	-6362
iew	-6363
کات	-6364
▁29	-6365
▁برش	-6366
▁دبی	-6367
▁قطب	-6368
▁چهل	-6369
▁ابدا	-6370
▁خوشم	-6371
▁خیال	-6372
▁ظریف	-6373
▁مرزی	-6374
▁آنجلس	-6375
▁اقلیت	-6376
▁امواج	-6377
▁تصریح	-6378
▁خاطره	-6379
▁سناری	-6380
▁سواحل	-6381
▁عادات	-6382
▁همسرم	-6383
▁بوسیله	-6384
▁جاسوسی	-6385
▁فرکانس	-6386
▁اختلافات	-6387
.7	-6388
ok	-6389
ank	-6390
الح	-6391
باع	-6392
جمی	-6393
سری	-6394
▁Te	-6395
▁یی	-6396
▁ششم	-6397
▁بندر	-6398
▁تحرک	-6399
▁فلور	-6400
▁ماهر	-6401
▁۲۰۱۲	-6402
▁Inter	-6403
▁تایمز	-6404
▁سندرم	-6405
▁قسمتی	-6406
▁نشینی	-6407
▁میکنیم	-6408
▁ویلیام	-6409
▁بازیابی	-6410
▁جدیدترین	-6411
▁دبیرستان	-6412
18	-6413
ime	-6414
منت	-6415
▁Ac	-6416
رمان	-6417
▁توه	-6418
▁درا	-6419
گرفته	-6420
▁شلوغ	-6421
▁قاتل	-6422
▁قبیل	-6423
▁نامن	-6424
▁اندیش	-6425
▁بازدیدکنندگان	-6426
RL	-6427
ows	-6428
ضان	-6429
هیچ	-6430
واک	-6431
ژیک	-6432
▁Be	-6433
باتی	-6434
دامی	-6435
مدان	-6436
▁Mar	-6437
▁جین	-6438
انورد	-6439
سفانه	-6440
▁1000	-6441
▁استف	-6442
▁خلاص	-6443
▁هرکسی	-6444
▁بیایند	-6445
▁شفافیت	-6446
▁استودیو	-6447
▁محاسبات	-6448
▁نخواهیم	-6449
▁استانبول	-6450
▁توانستیم	-6451
IP	-6452
pe	-6453
ool	-6454
فیق	-6455
▁SEO	-6456
بارات	-6457
▁اعضا	-6458
▁غریب	-6459
▁معتر	-6460
▁نحوی	-6461
▁پراک	-6462
▁درصدی	-6463
▁مارکس	-6464
▁پاهای	-6465
▁یخچال	-6466
▁بالینی	-6467
▁وردپرس	-6468
▁دانشمند	-6469
▁هواداران	-6470
طب	-6471
ach	-6472
ood	-6473
لزم	-6474
▁4-	-6475
▁ستم	-6476
▁قوا	-6477
رمانه	-6478
▁سپاه	-6479
▁مریم	-6480
▁جزایر	-6481
▁زاویه	-6482
▁قیمتی	-6483
▁مدیره	-6484
▁فاکتور	-6485
▁پیوستن	-6486
▁Univers	-6487
▁پرداخته	-6488
▁پیچیدگی	-6489
▁متقاضیان	-6490
▁انتخاباتی	-6491
مش	-6492
ous	-6493
▁**	-6494
▁کنگ	-6495
▁خطای	-6496
▁درای	-6497
▁صدمه	-6498
▁مجمع	-6499
▁مکرر	-6500
▁نازی	-6501
▁پسند	-6502
▁۲۰۱۷	-6503
▁اندوه	-6504
▁بسازد	-6505
▁روحیه	-6506
▁محافظ	-6507
▁مرتبه	-6508
▁مردمان	-6509
▁مستلزم	-6510
▁پردازند	-6511
▁پشتیبان	-6512
].	-6513
بن	-6514
org	-6515
▁st	-6516
ایتی	-6517
▁New	-6518
▁ابد	-6519
▁انب	-6520
▁مقط	-6521
اتوری	-6522
▁احاط	-6523
▁ذرات	-6524
▁زیبات	-6525
▁سنسور	-6526
▁فرشته	-6527
▁مستمر	-6528
▁منعکس	-6529
▁مهندس	-6530
▁نشستن	-6531
▁برابری	-6532
▁یادآور	-6533
▁بمباران	-6534
▁هوشمندانه	-6535
.9	-6536
ext	-6537
ردن	-6538
▁31	-6539
▁گن	-6540
روژن	-6541
▁قصه	-6542
▁قوت	-6543
ارتان	-6544
▁برقی	-6545
▁ترور	-6546
▁قومی	-6547
▁احاطه	-6548
▁بنشین	-6549
▁مشکوک	-6550
▁نشوید	-6551
▁خوابیدن	-6552
▁ریاضیات	-6553
▁مشاوران	-6554
▁ناتوانی	-6555
▁متأسفانه	-6556
وظ	-6557
يا	-6558
یکی	-6559
▁يا	-6560
▁۲۳	-6561
گونی	-6562
▁Pre	-6563
▁شوی	-6564
▁دفعه	-6565
▁تدریج	-6566
▁تعبیر	-6567
▁عبادت	-6568
▁وقایع	-6569
▁اجتماع	-6570
▁اندازد	-6571
▁حیوانی	-6572
▁شناسند	-6573
▁خوشبختی	-6574
▁ساختاری	-6575
▁معیارهای	-6576
▁فروشندگان	-6577
1)	-6578
▁r	-6579
ink	-6580
▁Wh	-6581
خواب	-6582
رادی	-6583
▁400	-6584
▁War	-6585
▁ارب	-6586
▁ارث	-6587
▁شری	-6588
▁هدر	-6589
▁هیل	-6590
▁قبال	-6591
▁کلین	-6592
▁امپری	-6593
▁سرزنش	-6594
▁گمراه	-6595
▁انگیزی	-6596
▁اکتشاف	-6597
▁دلایلی	-6598
▁سازگاری	-6599
▁محبوبیت	-6600
▁مسیحیان	-6601
▁وفاداری	-6602
خر	-6603
كت	-6604
پک	-6605
ورن	-6606
کوس	-6607
▁۲۷	-6608
راضی	-6609
▁تلخ	-6610
▁وصل	-6611
▁امری	-6612
▁تونل	-6613
▁علاق	-6614
▁مباح	-6615
▁دیدند	-6616
▁سپرده	-6617
▁تکراری	-6618
▁الگوهای	-6619
▁آرژانتین	-6620
te	-6621
اقض	-6622
زنی	-6623
▁حش	-6624
بریم	-6625
فران	-6626
نشین	-6627
▁انز	-6628
▁نحو	-6629
انسون	-6630
جستان	-6631
▁....	-6632
▁مطبو	-6633
▁پایی	-6634
▁عراقی	-6635
▁نگهبان	-6636
▁کامیون	-6637
▁مخالفان	-6638
▁پردازنده	-6639
TS	-6640
؟”	-6641
ریس	-6642
غیب	-6643
▁سد	-6644
▁لپ	-6645
ical	-6646
ختری	-6647
▁مزر	-6648
▁نیا	-6649
▁هیپ	-6650
▁خودی	-6651
▁بپیوند	-6652
▁وفادار	-6653
▁فرمودند	-6654
▁ویدیویی	-6655
▁بازنشسته	-6656
▁کشاورزان	-6657
▁آت	-6658
▁مرم	-6659
▁موی	-6660
▁پله	-6661
▁گرگ	-6662
▁اعطا	-6663
▁كرده	-6664
▁نکنیم	-6665
▁هیتلر	-6666
▁روشهای	-6667
▁شناسان	-6668
▁شهروندی	-6669
▁مطبوعات	-6670
ond	-6671
ton	-6672
طوب	-6673
وشی	-6674
▁PC	-6675
روسی	-6676
▁MBA	-6677
▁تاج	-6678
▁سرش	-6679
▁پیم	-6680
▁کول	-6681
خوانی	-6682
▁بورژ	-6683
▁دارا	-6684
▁مدام	-6685
▁مقصر	-6686
▁نقره	-6687
▁شباهت	-6688
▁مولکول	-6689
▁انداخته	-6690
▁بالاتری	-6691
▁تهدیدات	-6692
ویچ	-6693
▁ادی	-6694
▁چسب	-6695
رسانی	-6696
▁برون	-6697
▁بقای	-6698
▁سلطه	-6699
▁آوریم	-6700
▁بیستم	-6701
▁راستا	-6702
▁شناسد	-6703
▁اهمیتی	-6704
▁تهاجمی	-6705
▁جنسیتی	-6706
▁چشمگیری	-6707
▁ایدئولوژی	-6708
14	-6709
AP	-6710
und	-6711
قان	-6712
▁iOS	-6713
▁تار	-6714
▁همت	-6715
▁پکن	-6716
▁پیت	-6717
▁امشب	-6718
▁تایپ	-6719
▁تسلط	-6720
▁ساعته	-6721
▁شکستن	-6722
▁مزرعه	-6723
▁مقدمه	-6724
▁ولایت	-6725
▁آسیایی	-6726
▁تاثیری	-6727
▁خدماتی	-6728
▁گزارشی	-6729
▁یونانی	-6730
▁ترکیبات	-6731
▁زمانیکه	-6732
▁موقعیتی	-6733
▁_	-6734
out	-6735
زید	-6736
فیه	-6737
خیلی	-6738
▁دما	-6739
▁همب	-6740
▁1990	-6741
▁ابری	-6742
▁اشعه	-6743
▁تعلی	-6744
▁حواس	-6745
▁نیوز	-6746
▁هوشی	-6747
▁پیری	-6748
▁دوستش	-6749
▁محوطه	-6750
▁همسای	-6751
▁پوستی	-6752
▁گفتیم	-6753
▁دوازده	-6754
▁اقداماتی	-6755
▁ناخواسته	-6756
▁کارفرمایان	-6757
17	-6758
ron	-6759
ult	-6760
▁خم	-6761
لیون	-6762
▁193	-6763
▁ذات	-6764
▁شوک	-6765
▁ناو	-6766
▁کیه	-6767
▁درآم	-6768
▁صعود	-6769
▁آشپزی	-6770
▁بخشید	-6771
▁برسیم	-6772
▁ترانه	-6773
▁جالبی	-6774
▁مرطوب	-6775
▁همجنس	-6776
▁پارچه	-6777
▁اینقدر	-6778
▁بیگانه	-6779
▁سامانه	-6780
▁معتقدم	-6781
▁گرجستان	-6782
حت	-6783
The	-6784
رنگ	-6785
▁Wi	-6786
امیه	-6787
اهدی	-6788
ستون	-6789
شایی	-6790
▁بهم	-6791
▁بوش	-6792
▁دال	-6793
▁نشن	-6794
▁وحد	-6795
▁کرو	-6796
▁یوس	-6797
▁جعلی	-6798
▁زندگ	-6799
▁عجله	-6800
▁نفری	-6801
▁تاکسی	-6802
▁تطبیق	-6803
▁رویای	-6804
▁زیستی	-6805
▁متنفر	-6806
▁ناخوش	-6807
▁نوآور	-6808
▁پاسخی	-6809
▁دلخواه	-6810
▁رسانده	-6811
▁کلمبیا	-6812
▁بردارید	-6813
▁مستقیما	-6814
25	-6815
ON	-6816
▁وه	-6817
رافت	-6818
واهی	-6819
کتان	-6820
▁بیل	-6821
▁ماژ	-6822
▁یهود	-6823
▁ترغیب	-6824
▁متعال	-6825
▁آفرینش	-6826
▁بخشیدن	-6827
▁اعتراضات	-6828
ll	-6829
”،	-6830
ath	-6831
ern	-6832
لیف	-6833
▁He	-6834
فتگی	-6835
پولی	-6836
▁Net	-6837
▁تلس	-6838
▁فای	-6839
▁گور	-6840
▁باهم	-6841
▁بستر	-6842
▁بپذی	-6843
▁سوری	-6844
▁شورش	-6845
▁محتر	-6846
▁هیات	-6847
▁پسرش	-6848
▁۲۰۰۹	-6849
▁اعصاب	-6850
▁الماس	-6851
▁ترسیم	-6852
▁لحظات	-6853
▁ناخود	-6854
▁نخورد	-6855
▁گرسنه	-6856
▁اینکار	-6857
▁شخصیتی	-6858
▁هیچوقت	-6859
▁قهرمانی	-6860
▁پروفسور	-6861
IM	-6862
orm	-6863
یاط	-6864
▁5-	-6865
▁Ed	-6866
▁هک	-6867
ائلی	-6868
▁And	-6869
▁بول	-6870
▁صاف	-6871
▁قار	-6872
▁مغن	-6873
اسیون	-6874
▁Wind	-6875
▁براى	-6876
▁توبه	-6877
▁متری	-6878
▁۲۰۰۰	-6879
▁آرایش	-6880
▁جانبه	-6881
▁فیلمی	-6882
▁ایالتی	-6883
▁میدهند	-6884
▁کارشان	-6885
▁واحدهای	-6886
▁بپردازید	-6887
▁مستقیماً	-6888
▁ورزشکاران	-6889
sh	-6890
▁●	-6891
son	-6892
▁Gr	-6893
ستات	-6894
گرای	-6895
یعنی	-6896
▁150	-6897
▁You	-6898
▁مصد	-6899
▁وگو	-6900
زمینی	-6901
▁تواف	-6902
▁رومی	-6903
▁سفیر	-6904
▁مرجع	-6905
▁کوان	-6906
▁تمدید	-6907
▁حدودی	-6908
▁مذکور	-6909
▁داشتنی	-6910
▁مسائلی	-6911
▁نامناسب	-6912
▁کاتولیک	-6913
▁فرآیندهای	-6914
▁کارآفرینی	-6915
AM	-6916
ِی	-6917
▁k	-6918
دای	-6919
▁My	-6920
▁وک	-6921
پورت	-6922
گوید	-6923
▁اتم	-6924
▁جهش	-6925
▁هرد	-6926
▁آباد	-6927
▁آشام	-6928
▁بینش	-6929
▁خیره	-6930
▁شراب	-6931
▁نگیر	-6932
▁غریبه	-6933
▁پوتین	-6934
▁باورند	-6935
▁خریدار	-6936
▁سودمند	-6937
▁واگذار	-6938
▁دستگیری	-6939
طن	-6940
روح	-6941
وات	-6942
▁اچ	-6943
سانس	-6944
▁One	-6945
▁بدل	-6946
▁علل	-6947
▁پنت	-6948
▁پید	-6949
▁2003	-6950
▁آیین	-6951
▁ایکس	-6952
▁قدری	-6953
▁گرده	-6954
▁آماری	-6955
▁بعداً	-6956
▁اخیراً	-6957
▁نمایان	-6958
▁نگاران	-6959
▁هنرهای	-6960
▁کارگاه	-6961
▁اتوماتیک	-6962
▁پیشنهادات	-6963
90	-6964
نل	-6965
ame	-6966
anc	-6967
ual	-6968
ثری	-6969
حاف	-6970
خیم	-6971
▁كم	-6972
▁مگ	-6973
الیز	-6974
موزی	-6975
▁Res	-6976
▁ثان	-6977
▁جمل	-6978
▁صدر	-6979
▁پهن	-6980
▁پود	-6981
▁چرب	-6982
▁۱۹۵	-6983
▁2005	-6984
▁قرون	-6985
▁مریخ	-6986
▁ارایه	-6987
▁تعقیب	-6988
▁ذخایر	-6989
▁سانتی	-6990
▁معکوس	-6991
▁نگاری	-6992
▁آستانه	-6993
▁شواهدی	-6994
۱۸	-6995
لان	-6996
هاي	-6997
▁((	-6998
▁CD	-6999
olog	-7000
هایش	-7001
▁Col	-7002
▁شکی	-7003
▁میت	-7004
▁رقیب	-7005
▁فلزی	-7006
▁قیام	-7007
▁مفصل	-7008
▁یادم	-7009
▁آسیای	-7010
▁سوالی	-7011
▁نامند	-7012
▁ژنرال	-7013
▁غالباً	-7014
▁بایگانی	-7015
▁بپردازد	-7016
▁شهرداری	-7017
▁فراخوان	-7018
▁کودکانی	-7019
NS	-7020
ثه	-7021
ert	-7022
ign	-7023
طئه	-7024
نون	-7025
چشم	-7026
پاشی	-7027
▁انص	-7028
▁بام	-7029
▁بیه	-7030
▁سور	-7031
▁غزه	-7032
مایید	-7033
▁بطری	-7034
▁بورس	-7035
▁حرفی	-7036
▁عینک	-7037
▁نواز	-7038
▁یوگا	-7039
▁اعزام	-7040
▁بازمی	-7041
▁تجارب	-7042
▁توطئه	-7043
▁برداشتن	-7044
▁خوشحالی	-7045
▁مبارزات	-7046
▁نظامیان	-7047
RM	-7048
اهم	-7049
ایز	-7050
بله	-7051
ذیب	-7052
راخ	-7053
ندم	-7054
▁Le	-7055
عامل	-7056
▁URL	-7057
▁ریچ	-7058
▁عزت	-7059
▁فلز	-7060
▁ناک	-7061
▁عاقل	-7062
▁غالب	-7063
▁فرقی	-7064
▁وحدت	-7065
راجویی	-7066
▁ببریم	-7067
▁سلولی	-7068
▁شدیدی	-7069
▁قاعده	-7070
▁استوار	-7071
▁خدایان	-7072
▁انتقادی	-7073
▁خبرنگار	-7074
▁منصفانه	-7075
▁چهارمین	-7076
▁کلینتون	-7077
▁بپردازند	-7078
▁فدراسیون	-7079
خب	-7080
▁x	-7081
اصد	-7082
کرم	-7083
▁۴۵	-7084
▁رخت	-7085
▁باطل	-7086
▁زاده	-7087
▁مختص	-7088
▁مقطع	-7089
وگرافی	-7090
▁اوراق	-7091
▁دمکرا	-7092
▁موردی	-7093
▁راهنما	-7094
▁پوشیده	-7095
▁گذراند	-7096
▁خوشحالم	-7097
▁نامحدود	-7098
▁ناخودآگاه	-7099
▁سیاستمداران	-7100
برا	-7101
▁(20	-7102
▁ISO	-7103
▁فاز	-7104
▁بادی	-7105
▁بنوی	-7106
▁حیرت	-7107
▁سازه	-7108
▁صریح	-7109
▁مؤمن	-7110
▁مدال	-7111
▁منظر	-7112
رخواهی	-7113
▁نابرا	-7114
▁حاملگی	-7115
▁گرفتیم	-7116
▁آزادانه	-7117
▁شاگردان	-7118
▁سازندگان	-7119
▁ماجراجویی	-7120
SL	-7121
اژ	-7122
وتو	-7123
▁Br	-7124
▁on	-7125
▁زه	-7126
▁قم	-7127
▁لق	-7128
جانی	-7129
▁دره	-7130
▁رضا	-7131
▁فرش	-7132
▁منش	-7133
▁گیج	-7134
گرایی	-7135
▁1980	-7136
▁بفهم	-7137
▁تفری	-7138
▁رویه	-7139
▁سوئی	-7140
▁لوکس	-7141
▁متدا	-7142
▁هدفی	-7143
▁تدوین	-7144
▁شجاعت	-7145
▁نشریه	-7146
▁وسوسه	-7147
▁ارگانی	-7148
▁تلسکوپ	-7149
▁مارتین	-7150
▁بیاورند	-7151
▁فیلیپین	-7152
▁مغناطیسی	-7153
▁هواپیماهای	-7154
ِن	-7155
att	-7156
ens	-7157
اپی	-7158
ناع	-7159
▁خرس	-7160
▁زنم	-7161
▁فاش	-7162
▁قبی	-7163
▁آخرت	-7164
▁آلات	-7165
▁اثرب	-7166
▁نوین	-7167
▁پرین	-7168
▁بخرید	-7169
▁خاتمه	-7170
▁ستایش	-7171
▁پذیرد	-7172
▁اقدامی	-7173
▁روستای	-7174
▁پرسیده	-7175
▁پوشیدن	-7176
▁برگردان	-7177
▁شرکتهای	-7178
▁رانندگان	-7179
▁آزمایشگاهی	-7180
13	-7181
HD	-7182
St	-7183
ple	-7184
حتی	-7185
فره	-7186
پوش	-7187
▁AD	-7188
▁Fr	-7189
▁IC	-7190
▁۲۶	-7191
ions	-7192
اپور	-7193
▁تال	-7194
▁تپه	-7195
▁دفن	-7196
▁کوک	-7197
▁جاود	-7198
▁شاعر	-7199
▁كنید	-7200
▁همیش	-7201
گیرانه	-7202
▁بنزین	-7203
▁حرکتی	-7204
▁سکونت	-7205
▁ماژول	-7206
▁محتوی	-7207
▁پرستار	-7208
▁محرمانه	-7209
▁پروفایل	-7210
▁ساختمانی	-7211
▁عذرخواهی	-7212
▁بازگرداندن	-7213
70	-7214
ET	-7215
ier	-7216
ree	-7217
احت	-7218
ower	-7219
رایم	-7220
عهده	-7221
▁سلس	-7222
▁واژ	-7223
▁پخت	-7224
ربایج	-7225
نگاری	-7226
▁آرشی	-7227
▁آغوش	-7228
▁شیعی	-7229
▁اسرای	-7230
▁خجالت	-7231
▁شمشیر	-7232
▁معقول	-7233
▁انتقام	-7234
▁بیانگر	-7235
▁حامیان	-7236
▁خشمگین	-7237
▁سفرهای	-7238
▁مارکسی	-7239
▁مسیرهای	-7240
▁استثنایی	-7241
▁بازگردان	-7242
▁تابستانی	-7243
▁کیلومتری	-7244
▁قراردادهای	-7245
4)	-7246
Fi	-7247
غد	-7248
کون	-7249
▁(3	-7250
▁لع	-7251
تیشن	-7252
▁USB	-7253
▁آنت	-7254
▁جسد	-7255
▁دفع	-7256
▁صهی	-7257
▁وحش	-7258
▁سرنگ	-7259
▁فورد	-7260
▁معین	-7261
▁یوسف	-7262
▁یونی	-7263
▁برجام	-7264
▁تلاشی	-7265
▁سلسله	-7266
▁گالری	-7267
▁افزونه	-7268
▁شنوایی	-7269
▁بشناسید	-7270
▁متخصصین	-7271
جز	-7272
▁۰	-7273
ild	-7274
ائو	-7275
ادا	-7276
زون	-7277
▁II	-7278
▁رصد	-7279
▁هول	-7280
▁ربود	-7281
▁زحمت	-7282
▁شورا	-7283
▁شیوع	-7284
▁فرشت	-7285
▁نقشی	-7286
▁کاشت	-7287
▁گونگ	-7288
▁بخواب	-7289
▁بکنند	-7290
▁توهین	-7291
▁جریمه	-7292
▁ظاهری	-7293
▁عقاید	-7294
▁موزیک	-7295
▁کنسرت	-7296
▁تفاوتی	-7297
▁معاهده	-7298
▁نرسیده	-7299
▁هایمان	-7300
▁چشمگیر	-7301
▁گرداند	-7302
▁بگذاریم	-7303
أت	-7304
سکو	-7305
▁قف	-7306
وقتی	-7307
گردد	-7308
▁190	-7309
▁192	-7310
▁آرا	-7311
▁تشن	-7312
رامتر	-7313
لاگین	-7314
▁شیعه	-7315
▁قاطع	-7316
▁مناق	-7317
▁استعم	-7318
▁بکشند	-7319
▁متحرک	-7320
▁مقرون	-7321
▁خوانند	-7322
▁هرکدام	-7323
▁آذربایج	-7324
▁احمقانه	-7325
▁انگشتان	-7326
▁برسانند	-7327
▁برسانید	-7328
▁مهندسان	-7329
الص	-7330
جین	-7331
کین	-7332
▁Or	-7333
▁چت	-7334
صورت	-7335
نگری	-7336
▁Car	-7337
▁تحق	-7338
▁ناق	-7339
▁هری	-7340
▁هلی	-7341
رافیکی	-7342
▁استخر	-7343
▁بارسل	-7344
▁بلژیک	-7345
▁تثبیت	-7346
▁تعلیم	-7347
▁ریخته	-7348
▁همگان	-7349
▁افراطی	-7350
▁تهدیدی	-7351
▁مناطقی	-7352
▁گازهای	-7353
▁انسولین	-7354
▁بیانداز	-7355
▁مادربزرگ	-7356
In	-7357
RP	-7358
بخش	-7359
قیم	-7360
وتا	-7361
▁34	-7362
atch	-7363
ount	-7364
هاست	-7365
▁آوی	-7366
▁سرب	-7367
▁مبه	-7368
▁محو	-7369
▁کیک	-7370
وستون	-7371
▁بنظر	-7372
▁غبار	-7373
▁پنیر	-7374
▁پویا	-7375
خوردگی	-7376
▁انبوه	-7377
▁تقلید	-7378
▁قبیله	-7379
▁احتیاط	-7380
▁همیشگی	-7381
▁پارامتر	-7382
▁پنجشنبه	-7383
▁نوآورانه	-7384
▁همکارانش	-7385
▁اقتصاددان	-7386
6)	-7387
۱۱	-7388
yst	-7389
▁جیب	-7390
▁سار	-7391
▁کرا	-7392
▁گیم	-7393
▁انها	-7394
▁فرقه	-7395
▁مادی	-7396
▁مونت	-7397
▁نانو	-7398
▁نوبل	-7399
▁نگفت	-7400
▁هراس	-7401
انیاهو	-7402
▁تناسب	-7403
▁تکذیب	-7404
▁دایره	-7405
▁مقاصد	-7406
▁کاراک	-7407
▁تصمیمی	-7408
▁لیبرال	-7409
▁موجودی	-7410
▁نشانگر	-7411
▁گردیده	-7412
▁آسانسور	-7413
▁دانمارک	-7414
▁رونمایی	-7415
▁رمزگذاری	-7416
-3	-7417
af	-7418
ترز	-7419
ونز	-7420
▁عی	-7421
▁گش	-7422
▁۲۸	-7423
▁Air	-7424
▁آلی	-7425
▁خطی	-7426
▁رویا	-7427
▁هالی	-7428
▁چاقی	-7429
▁۲۰۰۸	-7430
▁World	-7431
▁بدیهی	-7432
▁دختری	-7433
▁دیدیم	-7434
▁نکردم	-7435
▁پیشتر	-7436
▁پیغام	-7437
▁خداحاف	-7438
▁صهیونی	-7439
▁مسیحیت	-7440
▁وضعیتی	-7441
▁چندانی	-7442
▁گروگان	-7443
▁گناهان	-7444
▁فضانورد	-7445
▁محتوایی	-7446
▁رمزنگاری	-7447
▁میخواهید	-7448
▁نتوانسته	-7449
SD	-7450
]]	-7451
جن	-7452
▁y	-7453
enc	-7454
رغم	-7455
▁33	-7456
▁رگ	-7457
اگون	-7458
راکم	-7459
▁بوس	-7460
▁جاه	-7461
▁فاط	-7462
▁لکه	-7463
▁منو	-7464
▁هاى	-7465
▁پرخ	-7466
▁اندی	-7467
▁بازه	-7468
▁بجای	-7469
▁براد	-7470
▁تضاد	-7471
▁جاوا	-7472
▁حرام	-7473
▁خنثی	-7474
▁خیاب	-7475
▁زیرد	-7476
▁شیکا	-7477
▁صلیب	-7478
▁نسبی	-7479
▁کافه	-7480
▁آمدید	-7481
▁امضای	-7482
▁تصفیه	-7483
▁تعلیق	-7484
▁دفاتر	-7485
▁عجیبی	-7486
▁کاملی	-7487
وانسیون	-7488
▁تاکتیک	-7489
▁دستیار	-7490
▁انحصاری	-7491
▁بازیافت	-7492
▁دادستان	-7493
▁دستورات	-7494
▁فروپاشی	-7495
▁داوطلبانه	-7496
BC	-7497
عب	-7498
فال	-7499
▁CO	-7500
آنها	-7501
جمله	-7502
منین	-7503
▁دغد	-7504
ition	-7505
▁2004	-7506
▁بخار	-7507
▁خدمه	-7508
▁رویم	-7509
▁ناخن	-7510
▁هشتم	-7511
▁انبار	-7512
▁بسپار	-7513
▁تعرفه	-7514
▁فرانک	-7515
▁نشوند	-7516
ational	-7517
▁بیوتیک	-7518
▁جذابیت	-7519
▁فراگیر	-7520
▁فضاهای	-7521
▁نوزدهم	-7522
▁بلندمدت	-7523
▁دوستانم	-7524
▁رویاهای	-7525
▁نداشتیم	-7526
▁ساختارهای	-7527
7)	-7528
MI	-7529
oud	-7530
تاً	-7531
روه	-7532
موس	-7533
کیو	-7534
▁Im	-7535
▁On	-7536
▁de	-7537
▁رج	-7538
ارید	-7539
▁بلغ	-7540
▁لبه	-7541
▁محم	-7542
▁وات	-7543
▁پائ	-7544
▁کیت	-7545
مانده	-7546
▁القا	-7547
▁خاند	-7548
▁صمیم	-7549
▁مایه	-7550
▁هندو	-7551
▁چوبی	-7552
▁کاست	-7553
▁گارد	-7554
▁صداقت	-7555
▁فعالی	-7556
▁مؤسسه	-7557
▁نرمال	-7558
▁برعهده	-7559
▁سالگرد	-7560
▁متداول	-7561
▁پراکنده	-7562
TA	-7563
يس	-7564
روب	-7565
فند	-7566
يان	-7567
پات	-7568
▁55	-7569
▁65	-7570
▁IB	-7571
port	-7572
اصره	-7573
الین	-7574
▁تگز	-7575
▁مات	-7576
▁بشکه	-7577
▁تراز	-7578
▁هرکس	-7579
▁کاوش	-7580
▁گویا	-7581
▁۲۰۱۹	-7582
rosoft	-7583
هایشان	-7584
▁تأخیر	-7585
▁نبودم	-7586
▁پوسته	-7587
▁کشورش	-7588
▁اقلیمی	-7589
▁خواندم	-7590
▁خودروس	-7591
▁دگرگون	-7592
▁شیکاگو	-7593
▁مفهومی	-7594
▁گرافیک	-7595
▁انداختن	-7596
▁فرشتگان	-7597
▁خبرگزاری	-7598
▁نتانیاهو	-7599
2)	-7600
شک	-7601
وو	-7602
۱۲	-7603
row	-7604
منی	-7605
چیز	-7606
▁Fl	-7607
▁مُ	-7608
بایی	-7609
▁Red	-7610
▁ترو	-7611
▁زشت	-7612
▁اردن	-7613
▁ساکت	-7614
▁سنگی	-7615
▁قفسه	-7616
▁نازل	-7617
▁وقفه	-7618
▁اذعان	-7619
▁بنابر	-7620
▁ترمیم	-7621
▁فرضیه	-7622
▁مدافع	-7623
▁پیامی	-7624
▁بخورند	-7625
▁ظاهراً	-7626
▁Windows	-7627
▁برگزیده	-7628
▁مدیرعامل	-7629
99	-7630
own	-7631
▁Se	-7632
▁تسک	-7633
▁مکت	-7634
▁هال	-7635
▁Inst	-7636
▁بعید	-7637
▁شجاع	-7638
▁ملحق	-7639
▁۲۰۰۵	-7640
▁بغداد	-7641
▁تفریح	-7642
▁دکترا	-7643
▁ابتکار	-7644
▁ارزهای	-7645
▁جسمانی	-7646
▁دنباله	-7647
▁منظومه	-7648
▁ناخالص	-7649
▁پیروان	-7650
▁اردوغان	-7651
▁متابولی	-7652
▁پروستات	-7653
▁گذاشتند	-7654
▁کنوانسیون	-7655
مم	-7656
ata	-7657
ابر	-7658
ارن	-7659
زند	-7660
▁تگ	-7661
▁کث	-7662
باید	-7663
فعال	-7664
یدنی	-7665
▁120	-7666
▁حرم	-7667
▁رسم	-7668
▁مود	-7669
▁پرف	-7670
▁بکنم	-7671
▁پیتر	-7672
▁تگزاس	-7673
▁دغدغه	-7674
▁روبات	-7675
▁ضربان	-7676
▁قواعد	-7677
▁لزوما	-7678
▁نکردن	-7679
▁بگذران	-7680
▁جانسون	-7681
▁مجدداً	-7682
▁مرگبار	-7683
▁بارسلونا	-7684
▁همسایگان	-7685
▁University	-7686
▁تولیدکنندگان	-7687
ادش	-7688
▁AP	-7689
▁Sk	-7690
▁نج	-7691
▁کُ	-7692
اهیر	-7693
رالم	-7694
یتون	-7695
▁WEB	-7696
▁ادا	-7697
▁بقا	-7698
▁بلد	-7699
▁لامپ	-7700
▁اسپرم	-7701
▁شدگان	-7702
▁محترم	-7703
▁نهفته	-7704
▁پاییز	-7705
▁تکمیلی	-7706
▁ثانویه	-7707
▁نژادپر	-7708
▁پلاگین	-7709
▁یافتند	-7710
▁اتهامات	-7711
▁اعلامیه	-7712
▁کوچکترین	-7713
.»[	-7714
ake	-7715
ann	-7716
old	-7717
ارض	-7718
ارو	-7719
ایا	-7720
دست	-7721
▁حص	-7722
ator	-7723
انید	-7724
▁حلی	-7725
▁زدم	-7726
▁عید	-7727
▁ماک	-7728
▁منز	-7729
▁موف	-7730
▁پنل	-7731
اهدات	-7732
▁Home	-7733
▁افشا	-7734
▁تانک	-7735
▁تفنگ	-7736
▁جواه	-7737
▁فیلس	-7738
▁کروم	-7739
▁امپرا	-7740
▁تبریک	-7741
▁تداوم	-7742
▁تلفات	-7743
▁تورنت	-7744
▁خواهش	-7745
▁مزایا	-7746
▁ببخشید	-7747
▁دوگانه	-7748
▁سؤالات	-7749
▁محاصره	-7750
▁نداشتن	-7751
▁پرسیدم	-7752
▁سنگاپور	-7753
▁زیباترین	-7754
ich	-7755
قام	-7756
▁Dr	-7757
▁MS	-7758
▁اى	-7759
land	-7760
کسون	-7761
▁بلا	-7762
▁شفا	-7763
▁عصب	-7764
▁غار	-7765
▁قله	-7766
▁نیج	-7767
▁هام	-7768
▁کیم	-7769
▁امیر	-7770
▁اینک	-7771
▁بابا	-7772
▁بودی	-7773
▁زغال	-7774
▁سکته	-7775
▁منحص	-7776
▁جرایم	-7777
▁زنانه	-7778
▁شدیدا	-7779
▁صدایی	-7780
▁متحمل	-7781
▁تحلیلی	-7782
▁شناسیم	-7783
▁عبارات	-7784
▁تاسیسات	-7785
▁خصوصیات	-7786
▁سینمایی	-7787
▁همبستگی	-7788
▁پنتاگون	-7789
▁روانشناس	-7790
▁زیرزمینی	-7791
!"	-7792
ys	-7793
يش	-7794
۱۵	-7795
سام	-7796
مثل	-7797
▁48	-7798
ناکی	-7799
کاوی	-7800
▁بپو	-7801
▁نشر	-7802
▁کاس	-7803
اویری	-7804
▁آدام	-7805
▁ارجا	-7806
▁بستن	-7807
▁چاره	-7808
▁کلان	-7809
▁آفرید	-7810
▁اتریش	-7811
▁سوراخ	-7812
▁لایحه	-7813
▁مثابه	-7814
▁مجاهد	-7815
▁پوشان	-7816
▁یابید	-7817
▁علیرغم	-7818
▁مکانیک	-7819
▁خیابانی	-7820
▁پارکینگ	-7821
▁کیلوگرم	-7822
▁تاثیرگذار	-7823
1]	-7824
RI	-7825
TC	-7826
co	-7827
تق	-7828
ase	-7829
ull	-7830
ارا	-7831
فیل	-7832
نمی	-7833
▁نپ	-7834
ance	-7835
طوبت	-7836
▁تقص	-7837
▁سون	-7838
▁معص	-7839
▁ورش	-7840
▁ایدز	-7841
▁بریم	-7842
▁تابل	-7843
▁تدار	-7844
▁حکمت	-7845
▁خارق	-7846
▁قاعد	-7847
▁کمدی	-7848
▁ابداع	-7849
▁دادید	-7850
▁رطوبت	-7851
▁ژنتیک	-7852
▁کلسیم	-7853
▁گرامی	-7854
ication	-7855
▁امتداد	-7856
▁بحرانی	-7857
▁خاندان	-7858
▁شهردار	-7859
▁مردانه	-7860
▁پانزده	-7861
▁علاقمند	-7862
▁پدربزرگ	-7863
▁بانکداری	-7864
▁Microsoft	-7865
!)	-7866
5)	-7867
HP	-7868
لۀ	-7869
يز	-7870
vel	-7871
ذکر	-7872
شوی	-7873
وتن	-7874
پول	-7875
▁95	-7876
▁AM	-7877
▁اِ	-7878
ings	-7879
امیک	-7880
بانه	-7881
هزار	-7882
جانبه	-7883
▁Play	-7884
▁بزنم	-7885
▁بهای	-7886
▁تصدی	-7887
▁كشور	-7888
▁میاد	-7889
▁نقدی	-7890
▁کوشش	-7891
▁دردسر	-7892
▁شناسم	-7893
▁فروخت	-7894
▁نامید	-7895
▁چارلز	-7896
▁افتادن	-7897
▁توافقی	-7898
▁حمایتی	-7899
▁نیجریه	-7900
▁تصاویری	-7901
▁دستاوردهای	-7902
--	-7903
CA	-7904
ارج	-7905
تیو	-7906
خان	-7907
فور	-7908
ودن	-7909
شینی	-7910
ومتی	-7911
کونی	-7912
▁سحر	-7913
▁فاس	-7914
▁لوک	-7915
▁یکم	-7916
▁۳۰۰	-7917
▁1999	-7918
▁اثری	-7919
▁بدنه	-7920
▁درمی	-7921
▁سوژه	-7922
▁گوسف	-7923
▁توازن	-7924
▁زنبور	-7925
▁طرفین	-7926
▁مباحث	-7927
▁محلول	-7928
▁مهاجم	-7929
▁نکاتی	-7930
▁هرگاه	-7931
▁اطلاعی	-7932
▁دانسته	-7933
▁ریچارد	-7934
▁گلخانه	-7935
▁سپاسگزار	-7936
▁فعالیتهای	-7937
▁ناخوشایند	-7938
)؛	-7939
پرو	-7940
▁iP	-7941
▁سي	-7942
اتیک	-7943
ارتی	-7944
اریا	-7945
▁ایز	-7946
▁فلج	-7947
جوانی	-7948
دهنده	-7949
نستان	-7950
چگونه	-7951
▁1970	-7952
▁2001	-7953
▁تجمع	-7954
▁تخمک	-7955
▁جامد	-7956
▁حروف	-7957
▁شکوه	-7958
▁نازک	-7959
▁هفتم	-7960
▁واژن	-7961
▁گرین	-7962
پرداخت	-7963
▁اسمیت	-7964
▁توالت	-7965
▁خزانه	-7966
▁شمارش	-7967
▁شنیدم	-7968
▁لطفاً	-7969
▁مصرفی	-7970
▁نشانی	-7971
▁نیافت	-7972
▁نیوزی	-7973
▁پرسنل	-7974
▁اطرافی	-7975
▁بندگان	-7976
▁پیشبرد	-7977
▁مقدماتی	-7978
▁کاراکتر	-7979
▁ارمنستان	-7980
▁همانگونه	-7981
▁آذربایجان	-7982
▁میلیاردها	-7983
EL	-7984
EM	-7985
۱۳	-7986
▁‘	-7987
▁Me	-7988
▁PS	-7989
▁يك	-7990
ject	-7991
راهن	-7992
سالی	-7993
▁صحت	-7994
▁هاش	-7995
آمریک	-7996
▁اسما	-7997
▁الآن	-7998
▁تونی	-7999
▁ديگر	-8000
▁رکود	-8001
▁واجب	-8002
▁پسرم	-8003
▁حشرات	-8004
▁داوود	-8005
▁علایم	-8006
▁قدرتی	-8007
▁مبارک	-8008
▁هفتاد	-8009
▁استثنا	-8010
▁استعفا	-8011
▁تایوان	-8012
▁نتواند	-8013
▁نمایشی	-8014
▁پرتغال	-8015
▁مهربانی	-8016
▁قهرمانان	-8017
CD	-8018
][	-8019
ps	-8020
َل	-8021
ale	-8022
ons	-8023
pen	-8024
کیک	-8025
▁شك	-8026
▁١٩	-8027
▁پش	-8028
آمیز	-8029
تومی	-8030
ساله	-8031
لیقه	-8032
کدام	-8033
▁ذره	-8034
▁فین	-8035
▁منق	-8036
▁ناف	-8037
▁۱۵۰	-8038
▁احمد	-8039
▁عباس	-8040
▁فراز	-8041
▁سرشار	-8042
▁سوزان	-8043
▁صمیمی	-8044
▁عموما	-8045
▁نیامده	-8046
▁دستکاری	-8047
▁مکانیسم	-8048
▁کارآموزی	-8049
24	-8050
تص	-8051
▁%	-8052
box	-8053
ley	-8054
net	-8055
واد	-8056
▁..	-8057
▁37	-8058
▁HP	-8059
▁Qu	-8060
قدرت	-8061
▁Med	-8062
▁شیخ	-8063
▁محف	-8064
ریایی	-8065
▁اسکی	-8066
▁بردم	-8067
▁تبلت	-8068
▁جوری	-8069
▁عملا	-8070
▁ارزشی	-8071
▁بااین	-8072
▁بدانم	-8073
▁دویدن	-8074
▁شناور	-8075
▁لیستی	-8076
▁مجروح	-8077
▁منتخب	-8078
▁موشکی	-8079
▁آسمانی	-8080
▁افسرده	-8081
▁سیستمی	-8082
▁تأثیرات	-8083
▁خواستیم	-8084
▁درمانگر	-8085
▁دیپلمات	-8086
▁رادیکال	-8087
▁سوالاتی	-8088
▁نوجوانی	-8089
▁پایداری	-8090
▁گذراندن	-8091
▁بیولوژیکی	-8092
▁کارآفرینان	-8093
حس	-8094
غر	-8095
iss	-8096
قدس	-8097
مول	-8098
▁بچ	-8099
▁خص	-8100
▁۲٫	-8101
▁600	-8102
▁For	-8103
▁درج	-8104
▁دلش	-8105
▁سزا	-8106
▁خالق	-8107
▁خشکی	-8108
▁خلقت	-8109
▁ریاض	-8110
▁سارا	-8111
▁موها	-8112
▁تفاهم	-8113
▁خورید	-8114
▁درهای	-8115
▁ساعتی	-8116
▁موفقی	-8117
▁نژادی	-8118
▁واقعه	-8119
▁بیابید	-8120
▁سخنران	-8121
▁شیعیان	-8122
▁دریافتی	-8123
▁مکانیکی	-8124
▁هاروارد	-8125
▁هورمونی	-8126
▁امتیازات	-8127
▁فرماندهی	-8128
:"	-8129
ai	-8130
-20	-8131
ستن	-8132
عید	-8133
▁AS	-8134
...»	-8135
lect	-8136
ذیری	-8137
زدهم	-8138
سیلی	-8139
▁Aut	-8140
▁فتح	-8141
▁قوه	-8142
▁ماز	-8143
▁مرج	-8144
iness	-8145
البته	-8146
▁فعلا	-8147
▁میشد	-8148
▁کارل	-8149
▁۱۹۷۰	-8150
یمانده	-8151
▁خوابی	-8152
▁زودرس	-8153
▁فلزات	-8154
▁مظنون	-8155
▁ارتقای	-8156
▁انحراف	-8157
▁جماهیر	-8158
▁سرپرست	-8159
▁هدفمند	-8160
▁سلولهای	-8161
▁شورشیان	-8162
▁نیوزیلند	-8163
▁کاربردهای	-8164
PC	-8165
ise	-8166
▁39	-8167
▁43	-8168
▁اژ	-8169
able	-8170
آنچه	-8171
شلیم	-8172
▁Sch	-8173
▁حتا	-8174
▁حما	-8175
▁زائ	-8176
▁نوت	-8177
▁ژنو	-8178
ازدهم	-8179
▁برگه	-8180
▁بلوغ	-8181
▁تجسم	-8182
▁قارچ	-8183
▁معاف	-8184
▁نگری	-8185
▁احکام	-8186
▁ترسند	-8187
▁تمایز	-8188
▁جاهای	-8189
▁خوراک	-8190
▁سوابق	-8191
▁فواید	-8192
▁معمار	-8193
▁منظره	-8194
▁گمشده	-8195
▁امتناع	-8196
▁تفریحی	-8197
▁شکارچی	-8198
▁شیرینی	-8199
▁فهمیدم	-8200
▁معاینه	-8201
▁نخواهم	-8202
▁ابزارها	-8203
▁توانمند	-8204
▁جابجایی	-8205
▁مخصوصاً	-8206
▁دیکتاتوری	-8207
ery	-8208
les	-8209
اوت	-8210
بسی	-8211
ریز	-8212
▁IT	-8213
▁ــ	-8214
حاتی	-8215
طباق	-8216
نویس	-8217
چنین	-8218
▁ختم	-8219
▁عطر	-8220
▁لیم	-8221
▁چنگ	-8222
▁کما	-8223
▁ابدی	-8224
▁غرور	-8225
▁گانه	-8226
▁آرمان	-8227
▁ايران	-8228
▁بحرین	-8229
▁تسکین	-8230
▁داران	-8231
▁دیدنی	-8232
▁سودان	-8233
▁نوشتم	-8234
▁جانشین	-8235
▁لینوکس	-8236
▁پاسخگو	-8237
▁عصبانیت	-8238
▁محصولاتی	-8239
▁نامگذاری	-8240
8)	-8241
▁{	-8242
▁أ	-8243
iel	-8244
ium	-8245
uct	-8246
ازل	-8247
دها	-8248
کلت	-8249
▁Ev	-8250
▁رش	-8251
▁طر	-8252
▁لن	-8253
ames	-8254
بدون	-8255
لاوه	-8256
▁دلس	-8257
ystem	-8258
▁Cont	-8259
▁تسری	-8260
▁فاشی	-8261
▁قطره	-8262
▁مزار	-8263
▁منتق	-8264
▁گمرک	-8265
▁Black	-8266
▁تحقیر	-8267
▁تقویم	-8268
▁جلوتر	-8269
▁خصوصا	-8270
▁خمینی	-8271
▁پدران	-8272
▁افزودن	-8273
▁انطباق	-8274
▁بخواند	-8275
▁بفهمید	-8276
▁بنوشید	-8277
▁روزگار	-8278
▁امیرالم	-8279
▁حسابرسی	-8280
▁باقیمانده	-8281
آز	-8282
َن	-8283
▁j	-8284
فتی	-8285
ماه	-8286
▁عث	-8287
زایی	-8288
ویسی	-8289
▁Web	-8290
▁سقط	-8291
▁نيز	-8292
▁پین	-8293
اندوم	-8294
▁زنیم	-8295
▁عضله	-8296
▁قریب	-8297
▁ناقص	-8298
▁نامی	-8299
▁نگوی	-8300
▁پودر	-8301
▁گزین	-8302
▁۱۰۰۰	-8303
▁اسکار	-8304
▁بخورد	-8305
▁توکیو	-8306
▁لیوان	-8307
▁معادن	-8308
▁نگرفت	-8309
▁حکومتی	-8310
▁عمدتاً	-8311
▁ماهیچه	-8312
▁میگیرد	-8313
▁نهایتا	-8314
▁نگیرید	-8315
▁ویروسی	-8316
▁اثربخشی	-8317
▁دوستانش	-8318
▁فرانسیس	-8319
▁فشارهای	-8320
▁هیچگونه	-8321
▁اسکاتلند	-8322
▁اعتقادات	-8323
▁ایرانیان	-8324
22	-8325
ُم	-8326
min	-8327
اجی	-8328
اضع	-8329
رند	-8330
فای	-8331
▁85	-8332
▁فک	-8333
ومیت	-8334
▁Mac	-8335
▁Met	-8336
▁ترش	-8337
▁حاد	-8338
▁دزد	-8339
▁راک	-8340
▁ساق	-8341
▁فدا	-8342
▁ناگ	-8343
▁پرز	-8344
▁آمدم	-8345
▁باخت	-8346
▁بايد	-8347
▁بگرد	-8348
▁تصرف	-8349
▁خفیف	-8350
▁دومی	-8351
▁قدمت	-8352
▁لنین	-8353
▁ملزم	-8354
▁منشا	-8355
▁هردو	-8356
▁چاله	-8357
▁دخترش	-8358
▁دریاب	-8359
▁رفتیم	-8360
▁عمیقی	-8361
▁متاسف	-8362
▁مترجم	-8363
▁مخلوق	-8364
▁موسوم	-8365
usiness	-8366
▁ازجمله	-8367
▁سنگینی	-8368
▁طبقاتی	-8369
▁عزیزان	-8370
▁معنایی	-8371
▁بخوانند	-8372
▁دانستید	-8373
▁استارتاپ	-8374
▁بارگذاری	-8375
▁نابرابری	-8376
▁پناهندگی	-8377
DF	-8378
ts	-8379
بک	-8380
فش	-8381
يی	-8382
‬‬	-8383
تول	-8384
نیم	-8385
▁44	-8386
ound	-8387
uper	-8388
▁Des	-8389
▁ترم	-8390
▁جزی	-8391
▁عیب	-8392
▁ممل	-8393
▁نگذ	-8394
▁پیک	-8395
▁کهن	-8396
▁کین	-8397
▁گان	-8398
ایتان	-8399
رنشان	-8400
فکران	-8401
▁آرای	-8402
▁تناس	-8403
▁جهاد	-8404
▁صبور	-8405
▁لرزه	-8406
▁متکی	-8407
▁نوبه	-8408
▁پلاس	-8409
▁کلیس	-8410
مندانه	-8411
▁بزنیم	-8412
▁توماس	-8413
▁جملات	-8414
▁دیدید	-8415
▁فاطمه	-8416
▁مساوی	-8417
▁منفجر	-8418
▁نویسم	-8419
▁بسازیم	-8420
▁بفهمیم	-8421
▁جنگنده	-8422
▁صداهای	-8423
▁مسکونی	-8424
▁کالاها	-8425
▁اورشلیم	-8426
▁پاسپورت	-8427
▁پاکسازی	-8428
▁مجارستان	-8429
▁سوءاستفاده	-8430
پن	-8431
ade	-8432
زیم	-8433
▁38	-8434
▁At	-8435
▁[[	-8436
ital	-8437
roid	-8438
ستند	-8439
ورات	-8440
▁آنف	-8441
▁عاش	-8442
▁وحی	-8443
رارتی	-8444
▁بنام	-8445
▁دعوا	-8446
▁ربطی	-8447
▁رونق	-8448
▁ریخت	-8449
▁غروب	-8450
▁كردن	-8451
▁مینی	-8452
گذاران	-8453
▁ادراک	-8454
▁اسامی	-8455
▁اینان	-8456
▁تقصیر	-8457
▁مختصر	-8458
▁میرسد	-8459
▁نهاده	-8460
▁نگذار	-8461
▁هفتگی	-8462
▁برادرش	-8463
▁تابعیت	-8464
▁شناسید	-8465
▁فرموده	-8466
▁قاعدگی	-8467
▁میگوید	-8468
▁نیروها	-8469
▁پیدایش	-8470
▁کشاورز	-8471
▁استادان	-8472
▁مولکولی	-8473
▁کاپیتان	-8474
▁پرداختند	-8475
▁زیردریایی	-8476
▁تولیدکننده	-8477
ِر	-8478
ّل	-8479
eng	-8480
اسم	-8481
زدی	-8482
شهر	-8483
▁Sm	-8484
work	-8485
شویی	-8486
▁آله	-8487
▁بشم	-8488
▁عار	-8489
▁منا	-8490
ترانه	-8491
▁تقلب	-8492
▁ذاتی	-8493
▁سونی	-8494
▁شعله	-8495
▁طلای	-8496
▁لیتر	-8497
▁مسلم	-8498
▁ندهد	-8499
▁پخته	-8500
▁پرسد	-8501
▁گلوک	-8502
▁۱۹۸۰	-8503
وسترون	-8504
▁اسکری	-8505
▁ایمپل	-8506
▁براین	-8507
▁زیتون	-8508
▁شگفتی	-8509
▁فارکس	-8510
▁منحرف	-8511
▁نوسان	-8512
▁تورنتو	-8513
▁سزاوار	-8514
▁محصولی	-8515
▁ناشناس	-8516
▁پدیدار	-8517
▁پنجمین	-8518
▁یکسانی	-8519
▁آموزانی	-8520
▁اپراتور	-8521
▁تریلیون	-8522
▁زمستانی	-8523
▁ناامیدی	-8524
▁گرایانه	-8525
▁خاطرنشان	-8526
▁دندانپزشک	-8527
9)	-8528
OR	-8529
uk	-8530
ضم	-8531
كر	-8532
٠٠	-8533
طار	-8534
عین	-8535
▁دپ	-8536
▁۲۹	-8537
ارشی	-8538
رسان	-8539
وریا	-8540
پوست	-8541
▁تیز	-8542
▁خوک	-8543
گرهای	-8544
▁2002	-8545
▁الکس	-8546
▁بارش	-8547
▁جزیی	-8548
▁مبهم	-8549
▁مهلت	-8550
▁ناظر	-8551
▁نیفت	-8552
▁۲۰۰۳	-8553
▁ارجاع	-8554
▁ارقام	-8555
▁استیو	-8556
▁افتند	-8557
▁افراط	-8558
▁انتشا	-8559
▁بزودی	-8560
▁سردرگ	-8561
▁فلسفی	-8562
▁مردها	-8563
▁میتون	-8564
▁نمودن	-8565
▁کاتال	-8566
▁کاغذی	-8567
▁حرارتی	-8568
▁مؤسسات	-8569
▁مناسبت	-8570
▁ناراضی	-8571
▁نظرتان	-8572
▁اسراییل	-8573
▁بازگشته	-8574
▁غذاهایی	-8575
▁هیدروژن	-8576
▁کشورمان	-8577
▁اتفاقاتی	-8578
▁اطرافیان	-8579
IF	-8580
alt	-8581
mer	-8582
ohn	-8583
سیا	-8584
ظره	-8585
فسی	-8586
▁El	-8587
▁رئ	-8588
▁قز	-8589
▁۱٫	-8590
بخشی	-8591
طوره	-8592
لاند	-8593
کوپی	-8594
▁Bit	-8595
▁افق	-8596
▁بدب	-8597
▁فرس	-8598
▁قید	-8599
▁متض	-8600
▁مجت	-8601
▁هرج	-8602
▁آلوم	-8603
▁تعمی	-8604
▁تونس	-8605
▁دزدی	-8606
▁ساند	-8607
▁سفری	-8608
▁سوپر	-8609
▁شمسی	-8610
▁صفات	-8611
▁مسلط	-8612
▁نروژ	-8613
▁اعطای	-8614
▁بخشند	-8615
▁حسادت	-8616
▁کلینی	-8617
▁کناره	-8618
▁گرمای	-8619
▁بسازند	-8620
▁تعاملی	-8621
▁لیسانس	-8622
▁ماندند	-8623
▁منظورم	-8624
▁نماییم	-8625
▁نیازها	-8626
▁پشیمان	-8627
▁دربارهٔ	-8628
▁رختخواب	-8629
▁خداحافظی	-8630
▁داروهایی	-8631
▁ماهیگیری	-8632
-5	-8633
MA	-8634
فری	-8635
نیک	-8636
▁(4	-8637
▁عش	-8638
cess	-8639
مردم	-8640
کلین	-8641
▁Ste	-8642
▁ظلم	-8643
▁عفو	-8644
▁کمر	-8645
ؤمنین	-8646
▁بخشش	-8647
▁توئی	-8648
▁سایز	-8649
▁سنجش	-8650
▁عناو	-8651
▁مجزا	-8652
▁مقدم	-8653
▁وزنه	-8654
▁کثیف	-8655
▁کریس	-8656
▁۱۹۹۰	-8657
برنامه	-8658
▁حکایت	-8659
▁ربوده	-8660
▁میرند	-8661
▁کابوس	-8662
▁آقایان	-8663
▁اساساً	-8664
▁افزاید	-8665
▁افسران	-8666
▁انجامد	-8667
▁ببندید	-8668
▁بیداری	-8669
▁تراکنش	-8670
▁شناختن	-8671
▁مایعات	-8672
▁ناوگان	-8673
▁هرچیزی	-8674
▁گذاشتم	-8675
▁یادتان	-8676
▁ایمپلنت	-8677
▁عبدالله	-8678
▁مجاهدین	-8679
▁مطمئناً	-8680
▁منتقدان	-8681
▁گرافیکی	-8682
▁اصطلاحات	-8683
▁سهامداران	-8684
سپ	-8685
مج	-8686
۳۰	-8687
eed	-8688
▁AC	-8689
▁اَ	-8690
▁حت	-8691
تنها	-8692
گرفت	-8693
▁All	-8694
▁رؤی	-8695
▁عرق	-8696
▁لاک	-8697
▁منم	-8698
▁۱۹۲	-8699
ative	-8700
▁امگا	-8701
▁بسکت	-8702
▁حدیث	-8703
▁دوقل	-8704
▁شستن	-8705
▁شیلی	-8706
▁فانت	-8707
▁مصری	-8708
▁پوشه	-8709
▁درایو	-8710
▁صراحت	-8711
▁فوراً	-8712
▁نداره	-8713
▁بدنتان	-8714
▁بنویسم	-8715
▁خوشمزه	-8716
▁رسیدیم	-8717
▁غیرمنت	-8718
▁مهمانان	-8719
▁افزارهای	-8720
▁استرالیایی	-8721
▁دندانپزشکی	-8722
▁فیلمبرداری	-8723
ma	-8724
ww	-8725
ضل	-8726
يي	-8727
۱۴	-8728
بلی	-8729
خوب	-8730
علی	-8731
قال	-8732
گیل	-8733
▁Gl	-8734
▁۶۵	-8735
شیند	-8736
وئید	-8737
وردی	-8738
▁250	-8739
▁pro	-8740
▁الج	-8741
▁جوه	-8742
▁نصی	-8743
▁گلی	-8744
▁خوشه	-8745
▁سانس	-8746
▁فاسد	-8747
▁مرید	-8748
▁مصمم	-8749
▁مقرر	-8750
▁ویکی	-8751
▁آمیزی	-8752
▁بهشتی	-8753
▁تداخل	-8754
▁تسریع	-8755
▁تقدیر	-8756
▁دائما	-8757
▁درنظر	-8758
▁دشمنی	-8759
▁دهکده	-8760
▁زدایی	-8761
▁مبتدی	-8762
▁عواملی	-8763
▁پایبند	-8764
▁پیشگام	-8765
▁کارگزار	-8766
▁کوانتومی	-8767
▁تستوسترون	-8768
cl	-8769
fl	-8770
جت	-8771
رع	-8772
ina	-8773
ins	-8774
ورو	-8775
▁2)	-8776
▁47	-8777
▁ذی	-8778
▁مچ	-8779
▁۳۶	-8780
▁Ass	-8781
خواهی	-8782
▁(200	-8783
▁Comp	-8784
▁جناح	-8785
▁نکنم	-8786
▁پانل	-8787
▁۲۰۰۱	-8788
▁تصدیق	-8789
▁جوایز	-8790
▁سوئدی	-8791
▁مامور	-8792
▁محتمل	-8793
▁ایستاد	-8794
▁بیابان	-8795
▁خوانیم	-8796
▁رونالد	-8797
▁شایعات	-8798
▁مهمانی	-8799
▁باورهای	-8800
▁بنیادین	-8801
▁گذرنامه	-8802
▁معاملاتی	-8803
آب	-8804
▁↑	-8805
aph	-8806
کنی	-8807
▁Is	-8808
وترا	-8809
▁بشه	-8810
▁تبی	-8811
▁ریه	-8812
▁ماب	-8813
▁مطب	-8814
▁نای	-8815
▁پرا	-8816
▁کاز	-8817
▁اصفه	-8818
▁تخته	-8819
▁درام	-8820
▁قطبی	-8821
▁مستح	-8822
▁یوتی	-8823
▁العمل	-8824
▁دزدید	-8825
▁سئوال	-8826
▁شاگرد	-8827
▁مسواک	-8828
▁معتاد	-8829
▁همایش	-8830
▁کشنده	-8831
▁اسطوره	-8832
▁بخشیده	-8833
▁جنایات	-8834
▁سرنشین	-8835
▁گرمایش	-8836
▁یارانه	-8837
▁اتصالات	-8838
▁استقرار	-8839
▁بازیگری	-8840
▁درازمدت	-8841
▁ماندگار	-8842
▁محتویات	-8843
▁پناهگاه	-8844
▁روزرسانی	-8845
▁غیرمنتظره	-8846
▁بازاریابان	-8847
▁سرماخوردگی	-8848
3]	-8849
EA	-8850
ُر	-8851
ave	-8852
igh	-8853
ung	-8854
حاب	-8855
ظهر	-8856
عون	-8857
فقط	-8858
كان	-8859
نين	-8860
▁64	-8861
خامت	-8862
دانش	-8863
مادی	-8864
گروه	-8865
▁الن	-8866
▁راس	-8867
earch	-8868
ترسید	-8869
▁Word	-8870
▁بمیر	-8871
▁بنگل	-8872
▁حیاط	-8873
▁فتنه	-8874
▁فریم	-8875
▁مزاح	-8876
▁منکر	-8877
▁پاها	-8878
▁گیرم	-8879
▁تعالی	-8880
▁تعویق	-8881
▁ثباتی	-8882
▁دراین	-8883
▁شوهرش	-8884
▁فرستد	-8885
▁مسخره	-8886
▁منتهی	-8887
▁پیکسل	-8888
▁بعلاوه	-8889
▁خانوار	-8890
▁نویسند	-8891
▁نیافته	-8892
▁اختیاری	-8893
▁فلوریدا	-8894
▁بلغارستان	-8895
Cl	-8896
▁→	-8897
ole	-8898
ors	-8899
تین	-8900
ولف	-8901
پای	-8902
وازی	-8903
چشمه	-8904
▁Can	-8905
▁بهش	-8906
▁رول	-8907
▁لغت	-8908
▁1960	-8909
▁اوپک	-8910
▁دعای	-8911
▁ردیف	-8912
▁رسما	-8913
▁عددی	-8914
▁لوگو	-8915
▁محکو	-8916
▁کارم	-8917
▁آرشیو	-8918
▁انتها	-8919
▁تظاهر	-8920
▁تفکیک	-8921
▁تنبیه	-8922
▁توییت	-8923
▁حدودا	-8924
▁سلطنت	-8925
▁عارضه	-8926
▁منصوب	-8927
▁کیفری	-8928
▁بازنده	-8929
▁سناتور	-8930
▁محققین	-8931
▁مربیان	-8932
▁مردگان	-8933
▁نویسان	-8934
▁بازبینی	-8935
▁بسکتبال	-8936
▁جایگاهی	-8937
▁شایستگی	-8938
▁مانیتور	-8939
▁پرستاری	-8940
▁کودکتان	-8941
▁التحصیلی	-8942
ep	-8943
لای	-8944
کنه	-8945
نگام	-8946
چنان	-8947
▁Cre	-8948
▁آکو	-8949
▁بات	-8950
▁جنب	-8951
▁زاد	-8952
▁سوق	-8953
▁شکو	-8954
▁صاب	-8955
▁صدق	-8956
▁مرو	-8957
▁ناآ	-8958
▁گود	-8959
ement	-8960
زندگی	-8961
▁اعظم	-8962
▁ایام	-8963
▁خطری	-8964
▁رایت	-8965
▁وسعت	-8966
▁کیفی	-8967
▁تشریح	-8968
▁تقدیم	-8969
▁تنفسی	-8970
▁خیریه	-8971
▁راستش	-8972
▁سلمان	-8973
▁مبارز	-8974
▁نورون	-8975
▁تلگرام	-8976
▁خوردند	-8977
▁عموماً	-8978
▁بپذیرید	-8979
▁خاکستری	-8980
▁سالیانه	-8981
▁پردازیم	-8982
▁کنجکاوی	-8983
▁استروئید	-8984
▁قراردادی	-8985
▁دوستانتان	-8986
IA	-8987
ئل	-8988
كا	-8989
كی	-8990
لن	-8991
ats	-8992
ica	-8993
سمی	-8994
▁غف	-8995
شتین	-8996
گهای	-8997
▁Act	-8998
▁Min	-8999
▁Sec	-9000
▁جلد	-9001
▁جما	-9002
▁قصر	-9003
▁مزه	-9004
▁مقص	-9005
ology	-9006
بارتی	-9007
زایمر	-9008
مایند	-9009
▁احیا	-9010
▁حجاب	-9011
▁دمشق	-9012
▁غلظت	-9013
▁بستری	-9014
▁بعداز	-9015
▁جنایی	-9016
▁دخترم	-9017
▁مبلمان	-9018
▁مردانی	-9019
▁پایینی	-9020
ــــــــ	-9021
▁آلزایمر	-9022
▁برگرفته	-9023
▁خواهران	-9024
▁محاسباتی	-9025
▁مدیترانه	-9026
▁پیکربندی	-9027
▁تحلیلگران	-9028
DP	-9029
Sc	-9030
au	-9031
vi	-9032
yt	-9033
صب	-9034
نر	-9035
app	-9036
ett	-9037
آید	-9038
راً	-9039
ater	-9040
roup	-9041
کنید	-9042
▁آلت	-9043
▁تنی	-9044
▁حائ	-9045
▁حول	-9046
▁صرب	-9047
▁عرف	-9048
▁معط	-9049
انیوم	-9050
▁آمري	-9051
▁ببخش	-9052
▁برات	-9053
▁تاجر	-9054
▁حومه	-9055
▁روتر	-9056
▁شخصا	-9057
▁مخاب	-9058
▁نیکو	-9059
▁کهنه	-9060
▁بازده	-9061
▁شنوند	-9062
▁فسیلی	-9063
▁پرسند	-9064
▁پرولت	-9065
▁پیانو	-9066
▁گذارم	-9067
▁آشکارا	-9068
▁برترین	-9069
▁رسانند	-9070
▁سرچشمه	-9071
▁ماجرای	-9072
▁نظارتی	-9073
▁پیراهن	-9074
▁یوتیوب	-9075
▁آکادمیک	-9076
▁انجامید	-9077
▁تعاملات	-9078
▁مدیتیشن	-9079
▁معترضان	-9080
▁هیچکدام	-9081
▁انتشارات	-9082
▁بیاموزید	-9083
▁امپراطوری	-9084
پیش	-9085
▁--	-9086
▁99	-9087
▁CP	-9088
▁La	-9089
ward	-9090
روید	-9091
مانت	-9092
کتاب	-9093
▁بسي	-9094
▁سفت	-9095
▁فور	-9096
▁کنت	-9097
aster	-9098
▁Mark	-9099
▁آورم	-9100
▁آیتم	-9101
▁انبا	-9102
▁بارز	-9103
▁توست	-9104
▁علنی	-9105
▁منشأ	-9106
▁مهدی	-9107
▁ورشک	-9108
▁آلبرت	-9109
▁ارواح	-9110
▁اعلان	-9111
▁شوهرم	-9112
▁عبدال	-9113
▁مرزها	-9114
▁مرموز	-9115
▁معرفت	-9116
▁نشدند	-9117
▁یازده	-9118
▁عناوین	-9119
▁فهمیدن	-9120
▁نیاورد	-9121
▁کاندوم	-9122
▁اسکریپت	-9123
▁بازجویی	-9124
▁دریافته	-9125
▁مشاهدات	-9126
▁کارفرما	-9127
▁داوطلبان	-9128
▁دیوارهای	-9129
▁سوسیالیستی	-9130
OL	-9131
OM	-9132
bo	-9133
▁<	-9134
تره	-9135
خور	-9136
سیه	-9137
شتن	-9138
ندر	-9139
▁1)	-9140
▁Gu	-9141
▁ST	-9142
▁هز	-9143
▁۷۵	-9144
؟؟؟؟	-9145
ردهی	-9146
زیکی	-9147
پلود	-9148
▁Gal	-9149
▁Gen	-9150
▁Mon	-9151
▁com	-9152
▁الز	-9153
▁ذیل	-9154
▁طری	-9155
▁فلا	-9156
▁نمى	-9157
▁پاش	-9158
▁گله	-9159
خواست	-9160
کردنی	-9161
▁Cent	-9162
▁Next	-9163
▁تابش	-9164
▁خوار	-9165
▁درود	-9166
▁مسال	-9167
▁میرد	-9168
▁همهٔ	-9169
▁وجوه	-9170
▁چکار	-9171
▁کوکی	-9172
▁۱۹۶۰	-9173
▁انجیل	-9174
▁باریک	-9175
▁بازگو	-9176
▁درگاه	-9177
▁دورتر	-9178
▁زیارت	-9179
▁غمگین	-9180
▁مامان	-9181
▁مسافت	-9182
▁مسایل	-9183
▁مواضع	-9184
▁میمون	-9185
▁کنجکا	-9186
▁بروکسل	-9187
▁بوستون	-9188
▁عبارتی	-9189
▁مجرمان	-9190
▁همسران	-9191
▁گفتگوی	-9192
▁آلومینی	-9193
▁ارگانیک	-9194
▁پذیرفتن	-9195
▁موضوعاتی	-9196
sp	-9197
اء	-9198
تع	-9199
ذر	-9200
ِل	-9201
یع	-9202
۱۷	-9203
▁?	-9204
itt	-9205
oad	-9206
orn	-9207
ube	-9208
▁42	-9209
▁ید	-9210
▁تیل	-9211
▁دکو	-9212
▁کپس	-9213
▁گیل	-9214
ورهای	-9215
▁اوتی	-9216
▁حفره	-9217
▁دخیل	-9218
▁سهمی	-9219
▁سیری	-9220
▁شعبه	-9221
▁غیبت	-9222
▁مجری	-9223
▁ملیت	-9224
▁نیکی	-9225
▁کروز	-9226
بهترین	-9227
▁آبشار	-9228
▁ارباب	-9229
▁امداد	-9230
▁تراشه	-9231
▁ترسید	-9232
▁ترفند	-9233
▁رابین	-9234
▁طبقات	-9235
▁عمیقا	-9236
▁فهمند	-9237
▁موضعی	-9238
▁پرستش	-9239
▁بارانی	-9240
▁تناسلی	-9241
▁داوران	-9242
▁شکستگی	-9243
▁استعمار	-9244
▁اورژانس	-9245
▁راهبردی	-9246
▁درحالیکه	-9247
▁قدرتمندی	-9248
▁ابزارهایی	-9249
▁تصویربرداری	-9250
-4	-9251
2]	-9252
BS	-9253
EN	-9254
خد	-9255
ife	-9256
oot	-9257
وبه	-9258
افتد	-9259
خصیص	-9260
ربند	-9261
رسون	-9262
قیقی	-9263
ینگی	-9264
▁آکس	-9265
▁حجت	-9266
▁زام	-9267
▁فلش	-9268
▁مزد	-9269
▁هضم	-9270
▁وگر	-9271
▁کبک	-9272
▁آوار	-9273
▁اسیر	-9274
▁الیز	-9275
▁جاست	-9276
▁درهم	-9277
▁سانت	-9278
▁طلبی	-9279
▁عظمت	-9280
▁مواظ	-9281
▁پرتو	-9282
▁پستی	-9283
▁آپلود	-9284
▁ایراد	-9285
▁باراک	-9286
▁رقبای	-9287
▁مبادل	-9288
▁مثانه	-9289
▁مجلات	-9290
▁مشخصه	-9291
▁مشمول	-9292
▁معدود	-9293
▁نیستی	-9294
▁پاراگ	-9295
▁کاران	-9296
▁باروری	-9297
▁برگردد	-9298
▁جمعیتی	-9299
▁ساختند	-9300
▁مسالمت	-9301
▁بزرگسالی	-9302
▁پارلمانی	-9303
▁کمونیستی	-9304
▁سیاستمدار	-9305
:2	-9306
ft	-9307
قر	-9308
۱۶	-9309
air	-9310
apt	-9311
ero	-9312
فار	-9313
ماق	-9314
چون	-9315
▁DV	-9316
▁Em	-9317
▁LL	-9318
▁جت	-9319
▁رن	-9320
▁زي	-9321
غالی	-9322
مداد	-9323
▁اسف	-9324
▁بیر	-9325
▁مسو	-9326
▁کشم	-9327
ision	-9328
تواند	-9329
زمانی	-9330
ستقیم	-9331
گستری	-9332
▁آلای	-9333
▁حائز	-9334
▁حزبی	-9335
▁شکرگ	-9336
▁علائ	-9337
▁مخزن	-9338
▁هریک	-9339
▁هولو	-9340
▁هپات	-9341
شناختی	-9342
▁Apple	-9343
▁ادیان	-9344
▁براون	-9345
▁بکنیم	-9346
▁تومان	-9347
▁تکلیف	-9348
▁شانسی	-9349
▁مناظر	-9350
▁میبین	-9351
▁میگیر	-9352
▁هرحال	-9353
▁هلندی	-9354
▁بشنوید	-9355
▁توئیتر	-9356
▁رویایی	-9357
▁سوختگی	-9358
▁فیلسوف	-9359
▁متنوعی	-9360
▁مشترکی	-9361
▁موثرتر	-9362
▁پذیرند	-9363
▁آنفولان	-9364
▁بزرگراه	-9365
▁جستجوگر	-9366
▁دانستیم	-9367
▁عاقلانه	-9368
▁گزارشات	-9369
▁Business	-9370
▁برخوردارند	-9371
CS	-9372
ذب	-9373
چر	-9374
خبر	-9375
لاق	-9376
يده	-9377
یمه	-9378
▁SM	-9379
▁رب	-9380
▁سج	-9381
.000	-9382
ایای	-9383
بگان	-9384
عمول	-9385
هایم	-9386
▁Mus	-9387
▁PHP	-9388
▁سرس	-9389
▁طنز	-9390
▁کشش	-9391
▁گیگ	-9392
ردوست	-9393
▁Tech	-9394
▁استر	-9395
▁بسیج	-9396
▁تخیل	-9397
▁داین	-9398
▁زوال	-9399
▁شهدا	-9400
▁عینی	-9401
▁وسطی	-9402
▁پاکی	-9403
▁چشمه	-9404
▁تخصیص	-9405
▁ذهنیت	-9406
▁سامان	-9407
▁سرعتی	-9408
▁شلوار	-9409
▁معطوف	-9410
▁نگارش	-9411
▁وگرنه	-9412
▁اصفهان	-9413
▁سینمای	-9414
▁کابینه	-9415
▁الیزابت	-9416
▁رفتارها	-9417
▁هالیوود	-9418
▁پرسیدند	-9419
1،	-9420
35	-9421
HA	-9422
int	-9423
باً	-9424
ریل	-9425
فان	-9426
▁46	-9427
▁تط	-9428
ouse	-9429
وانه	-9430
ورها	-9431
▁ابه	-9432
▁بتا	-9433
▁لثه	-9434
▁هوی	-9435
▁وطن	-9436
▁۴۰۰	-9437
▁استح	-9438
▁برکت	-9439
▁بنای	-9440
▁طلوع	-9441
▁مبال	-9442
▁مندی	-9443
▁۲۰۰۷	-9444
▁آیکون	-9445
▁اصحاب	-9446
▁افزون	-9447
▁باورن	-9448
▁تکثیر	-9449
▁قطعیت	-9450
▁مزارع	-9451
▁موقتی	-9452
▁میگوی	-9453
▁نمایی	-9454
▁هاشمی	-9455
▁گستره	-9456
▁تحقیقی	-9457
▁خصوصاً	-9458
▁فانتزی	-9459
▁ناتوان	-9460
▁نخبگان	-9461
▁کلینیک	-9462
▁گذاریم	-9463
▁یادبود	-9464
▁Android	-9465
▁آرزوهای	-9466
▁بازرگان	-9467
▁مسئولین	-9468
▁مسافرتی	-9469
▁کارگیری	-9470
▁گردآوری	-9471
▁بورژوازی	-9472
▁دادگستری	-9473
▁دیکتاتور	-9474
▁پروازهای	-9475
▁بازپرداخت	-9476
▁متابولیسم	-9477
▁کامپیوترهای	-9478
/2	-9479
2،	-9480
Ch	-9481
US	-9482
oT	-9483
way	-9484
باس	-9485
تیم	-9486
یسم	-9487
▁نئ	-9488
▁گه	-9489
▁۳۴	-9490
پایه	-9491
▁(1)	-9492
▁GPS	-9493
▁آرم	-9494
▁بدم	-9495
▁مسا	-9496
▁موع	-9497
▁۱۹۰	-9498
ینسون	-9499
▁1998	-9500
▁Open	-9501
▁آمری	-9502
▁اومد	-9503
▁جابه	-9504
▁دامن	-9505
▁کشیش	-9506
▁گرام	-9507
ماسیون	-9508
▁آموزد	-9509
▁آوردم	-9510
▁امضاء	-9511
▁تعدیل	-9512
▁تهویه	-9513
▁دیپلم	-9514
▁شنوید	-9515
▁عروسک	-9516
▁مجتمع	-9517
▁مراکش	-9518
▁موازی	-9519
▁ناچار	-9520
▁نوکیا	-9521
▁بیهوده	-9522
▁تخمدان	-9523
▁نگهدار	-9524
▁هپاتیت	-9525
▁ادعاهای	-9526
▁انسانیت	-9527
▁شانگهای	-9528
▁عملکردی	-9529
▁معتقدیم	-9530
▁پرداختن	-9531
▁توانمندی	-9532
▁نمیتواند	-9533
▁پاراگراف	-9534
:”	-9535
sc	-9536
َر	-9537
َه	-9538
▁▪	-9539
uro	-9540
ئول	-9541
بیش	-9542
▁(5	-9543
▁ad	-9544
▁بُ	-9545
▁لم	-9546
بازی	-9547
تلان	-9548
سیری	-9549
شاری	-9550
▁Not	-9551
▁حوص	-9552
▁دیت	-9553
▁ذوب	-9554
▁منه	-9555
▁ناظ	-9556
▁چیه	-9557
پزشکی	-9558
گاران	-9559
▁برکن	-9560
▁شنود	-9561
▁صخره	-9562
▁عروق	-9563
▁۲۰۰۶	-9564
▁Manag	-9565
▁اجلاس	-9566
▁اشباع	-9567
▁خدایا	-9568
▁سازید	-9569
▁سلیقه	-9570
▁ضمانت	-9571
▁عاملی	-9572
▁كردند	-9573
▁متحول	-9574
▁همانا	-9575
▁گفتید	-9576
▁یاران	-9577
▁بپذیرد	-9578
▁تأثیری	-9579
▁سودآور	-9580
▁شیطانی	-9581
▁عقلانی	-9582
▁مناقشه	-9583
▁کمربند	-9584
▁انفرادی	-9585
▁بازگردد	-9586
▁توریستی	-9587
▁ماموران	-9588
▁میانمار	-9589
▁بیمارانی	-9590
▁سالمندان	-9591
▁سوسیالیسم	-9592
▁مشهورترین	-9593
▁باورنکردنی	-9594
▁امیرالمؤمنین	-9595
86	-9596
ّم	-9597
ana	-9598
ner	-9599
oll	-9600
رئی	-9601
ونم	-9602
ویش	-9603
کود	-9604
coin	-9605
ایجی	-9606
کردن	-9607
▁Sem	-9608
▁ابن	-9609
▁جرج	-9610
▁حوا	-9611
▁دوپ	-9612
▁سنا	-9613
▁كنم	-9614
▁متد	-9615
▁مسؤ	-9616
▁موت	-9617
▁نمي	-9618
▁Comm	-9619
▁Star	-9620
▁بشوی	-9621
▁خلوت	-9622
▁خونه	-9623
▁راند	-9624
▁رجوع	-9625
▁زنید	-9626
▁شركت	-9627
▁صدام	-9628
▁فستی	-9629
▁متنا	-9630
▁مسمو	-9631
▁پروژ	-9632
▁چاقو	-9633
وتراپی	-9634
▁حالات	-9635
▁دوبار	-9636
▁سعادت	-9637
▁مقوله	-9638
▁ناچیز	-9639
▁وجودی	-9640
▁کشاند	-9641
▁کیهان	-9642
▁اسماعی	-9643
▁بگذارم	-9644
▁تکنیکی	-9645
▁عدالتی	-9646
▁فرزندش	-9647
▁نخورده	-9648
▁بنگلادش	-9649
▁غیرفعال	-9650
▁مبادلات	-9651
▁میدانید	-9652
▁ورزشکار	-9653
▁فیلمنامه	-9654
▁تأثیرگذار	-9655
77	-9656
ove	-9657
ric	-9658
امن	-9659
اهل	-9660
تاژ	-9661
شنه	-9662
وزف	-9663
ینز	-9664
▁th	-9665
ange	-9666
line	-9667
شوند	-9668
▁CSS	-9669
▁Int	-9670
▁وست	-9671
▁پرش	-9672
امروز	-9673
▁بلوم	-9674
▁خودِ	-9675
▁روال	-9676
▁شهرک	-9677
▁صالح	-9678
▁عنکب	-9679
▁عکسی	-9680
▁مبدل	-9681
▁متنی	-9682
▁محرو	-9683
▁منوی	-9684
▁ناشر	-9685
▁اخوان	-9686
▁اطفال	-9687
▁تبیین	-9688
▁حسابی	-9689
▁حفاری	-9690
▁دقیقی	-9691
▁عروقی	-9692
▁عزیزم	-9693
▁مبلغی	-9694
▁منتقد	-9695
▁میلان	-9696
▁آرایشی	-9697
▁انجامش	-9698
▁بفهمند	-9699
▁نتایجی	-9700
▁پولدار	-9701
▁گوسفند	-9702
▁استروژن	-9703
▁درنهایت	-9704
▁مدافعان	-9705
▁معلولیت	-9706
▁معماران	-9707
▁میکروبی	-9708
▁رویدادها	-9709
صت	-9710
صی	-9711
ئیت	-9712
اقی	-9713
کوه	-9714
▁Bu	-9715
▁Ne	-9716
ream	-9717
تمام	-9718
رائی	-9719
▁حاج	-9720
▁دند	-9721
▁زین	-9722
▁مهد	-9723
▁نهم	-9724
ضایتی	-9725
▁1989	-9726
▁1996	-9727
▁اسمش	-9728
▁ذهنم	-9729
▁فصلی	-9730
▁قمار	-9731
▁لاغر	-9732
▁مهره	-9733
▁نيست	-9734
▁چشمی	-9735
▁گازی	-9736
▁گیتس	-9737
▁آسیبی	-9738
▁اکوسی	-9739
▁برایت	-9740
▁بویژه	-9741
▁تناقض	-9742
▁سازیم	-9743
▁سخاوت	-9744
▁غربال	-9745
▁مأمور	-9746
▁مقصود	-9747
▁نداری	-9748
▁چمدان	-9749
▁کانون	-9750
▁کدهای	-9751
▁کپسول	-9752
▁گلوکز	-9753
▁اقتدار	-9754
▁درآمدی	-9755
▁نامرئی	-9756
▁همگانی	-9757
▁پرفروش	-9758
▁پیشروی	-9759
▁گرفتید	-9760
▁برندهای	-9761
▁برگردید	-9762
▁دگرگونی	-9763
▁فستیوال	-9764
▁مسمومیت	-9765
▁گروههای	-9766
▁آشامیدنی	-9767
▁فرماندار	-9768
▁مطالعاتی	-9769
▁تکنولوژیکی	-9770
4،	-9771
OC	-9772
بق	-9773
کد	-9774
ony	-9775
rol	-9776
بره	-9777
لسی	-9778
وئل	-9779
گاس	-9780
▁Sw	-9781
▁اُ	-9782
▁پز	-9783
ارزش	-9784
اقعی	-9785
اوات	-9786
بزرگ	-9787
جوری	-9788
روشی	-9789
وشند	-9790
▁1.5	-9791
▁Gre	-9792
▁Rec	-9793
▁آلن	-9794
▁احی	-9795
▁الس	-9796
▁بوئ	-9797
▁ضای	-9798
▁عاج	-9799
▁کنش	-9800
ساندر	-9801
▁Dead	-9802
▁John	-9803
▁Stud	-9804
▁ایسل	-9805
▁ترسد	-9806
▁تلفظ	-9807
▁توهم	-9808
▁دستم	-9809
▁مریض	-9810
▁ممكن	-9811
▁کرات	-9812
▁کویت	-9813
گرایان	-9814
▁2016،	-9815
▁اتباع	-9816
▁استار	-9817
▁اقلام	-9818
▁تهاجم	-9819
▁حالتی	-9820
▁خوریم	-9821
▁شفاهی	-9822
▁مخارج	-9823
▁هکرها	-9824
▁کابین	-9825
▁کفایت	-9826
▁کلامی	-9827
▁آنتونی	-9828
▁تدریجی	-9829
▁تشخیصی	-9830
▁توریست	-9831
▁جاهایی	-9832
▁سناریو	-9833
▁مادرید	-9834
▁پرسیدن	-9835
▁کلماتی	-9836
▁بزرگتری	-9837
▁بفرستید	-9838
▁تسهیلات	-9839
▁محکومیت	-9840
▁پرداختی	-9841
▁اتوماسیون	-9842
▁غیرمستقیم	-9843
▁فرایندهای	-9844
▁کامپیوترها	-9845
▁امپریالیستی	-9846
3،	-9847
pr	-9848
ve	-9849
ism	-9850
lex	-9851
رمن	-9852
ماع	-9853
نیز	-9854
▁(6	-9855
▁AR	-9856
▁Mo	-9857
▁۳۲	-9858
وزان	-9859
ونده	-9860
▁انی	-9861
▁بیگ	-9862
▁سکس	-9863
▁لقب	-9864
▁واک	-9865
▁1950	-9866
▁اینه	-9867
▁بلاگ	-9868
▁بلیت	-9869
▁تراژ	-9870
▁جولی	-9871
▁حریف	-9872
▁رفیق	-9873
▁طرحی	-9874
▁عمان	-9875
▁فرضی	-9876
▁قزاق	-9877
▁میگر	-9878
▁چندی	-9879
▁یانگ	-9880
▁Super	-9881
▁احمدی	-9882
▁اهالی	-9883
▁تبعیت	-9884
▁جابجا	-9885
▁جماعت	-9886
▁رسیدم	-9887
▁ریختن	-9888
▁سریعا	-9889
▁سیلیک	-9890
▁فرنگی	-9891
▁مراجع	-9892
▁موعظه	-9893
▁نرفته	-9894
▁گنجان	-9895
▁استناد	-9896
▁برگردم	-9897
▁بلندتر	-9898
▁بودایی	-9899
▁دیواره	-9900
▁سیگاری	-9901
▁عکاسان	-9902
▁فنلاند	-9903
▁نمیدان	-9904
▁نکردنی	-9905
▁کنجکاو	-9906
▁بالستیک	-9907
▁بشردوست	-9908
▁فرستادن	-9909
▁کوهستان	-9910
▁ارزشمندی	-9911
▁امپراتور	-9912
آل	-9913
؟؟؟	-9914
داث	-9915
منط	-9916
ناب	-9917
گشت	-9918
▁6-	-9919
▁لش	-9920
انسی	-9921
ساند	-9922
ستین	-9923
وجود	-9924
کنشی	-9925
▁Cam	-9926
▁Dis	-9927
▁Pol	-9928
▁Rob	-9929
▁حسب	-9930
▁عال	-9931
▁لاز	-9932
▁مشی	-9933
▁نود	-9934
▁هان	-9935
▁گلف	-9936
press	-9937
شاوند	-9938
▁Post	-9939
▁جناب	-9940
▁جهات	-9941
▁حفاظ	-9942
▁شرطی	-9943
▁عروس	-9944
▁فهمد	-9945
▁كتاب	-9946
▁همون	-9947
▁پسری	-9948
▁گشته	-9949
خداوند	-9950
پیمایی	-9951
▁آتلان	-9952
▁اسکان	-9953
▁تراکم	-9954
▁توابع	-9955
▁رادار	-9956
▁سرتان	-9957
▁صابون	-9958
▁مساحت	-9959
▁مستعم	-9960
▁ناکام	-9961
▁نمرات	-9962
▁پیتزا	-9963
▁بزرگان	-9964
▁رومانی	-9965
▁سوسیال	-9966
▁عثمانی	-9967
▁ماشینی	-9968
▁پیرمرد	-9969
▁پیشینه	-9970
▁نمایشگر	-9971
▁چندگانه	-9972
▁کردستان	-9973
▁اکوسیستم	-9974
▁هندوستان	-9975
▁دکوراسیون	-9976
▁فرزندانشان	-9977
95	-9978
ّر	-9979
axy	-9980
ble	-9981
تای	-9982
خوش	-9983
چند	-9984
یلت	-9985
▁AT	-9986
▁ID	-9987
▁SD	-9988
▁ch	-9989
▁or	-9990
ware	-9991
جاری	-9992
رایز	-9993
نیاز	-9994
ولار	-9995
کانت	-9996
کران	-9997
▁FDA	-9998
▁LED	-9999
▁توت	-10000
▁ثمر	-10001
▁خرگ	-10002
▁شدی	-10003
▁Amer	-10004
▁Back	-10005
▁بداف	-10006
▁بچرخ	-10007
▁تونم	-10008
▁سواد	-10009
▁قرائ	-10010
▁مجرم	-10011
▁هجوم	-10012
▁واسه	-10013
▁کجای	-10014
▁گردم	-10015
▁گندم	-10016
ولوژیک	-10017
▁آسایش	-10018
▁احداث	-10019
▁خوانم	-10020
▁مفاصل	-10021
▁منفعت	-10022
▁ندیدم	-10023
▁خانمان	-10024
▁راههای	-10025
▁ساکنین	-10026
▁محموله	-10027
▁مطمئنم	-10028
▁کشیدند	-10029
▁برایمان	-10030
▁بیاوریم	-10031
▁خودروها	-10032
▁دمکراسی	-10033
▁مداخلات	-10034
▁خویشاوند	-10035
▁دپارتمان	-10036
▁بنیانگذار	-10037
▁ثروتمندان	-10038
▁نزدیکترین	-10039
▁پارکینسون	-10040
45	-10041
AD	-10042
EE	-10043
PP	-10044
وض	-10045
اتح	-10046
ارش	-10047
ارم	-10048
▁Ge	-10049
▁cl	-10050
راسی	-10051
یدنت	-10052
▁ارک	-10053
▁بخت	-10054
▁سبد	-10055
▁شیک	-10056
▁فعل	-10057
▁منچ	-10058
▁کفر	-10059
▁یائ	-10060
▁۶۰۰	-10061
ارویی	-10062
پولیس	-10063
▁اسپم	-10064
▁اکشن	-10065
▁بیتی	-10066
▁دنده	-10067
▁رسیم	-10068
▁ستاد	-10069
▁سمین	-10070
▁قاشق	-10071
▁نزاع	-10072
هایتان	-10073
▁آپارت	-10074
▁ارگان	-10075
▁تصحیح	-10076
▁مجاور	-10077
▁مفیدی	-10078
▁موثری	-10079
▁ناکار	-10080
▁ولتاژ	-10081
▁System	-10082
▁ادوارد	-10083
▁بخوانم	-10084
▁بیننده	-10085
▁تراژدی	-10086
▁دنیاست	-10087
▁ایستادن	-10088
▁مخاطبین	-10089
▁امتحانات	-10090
▁خودروساز	-10091
▁فیزیکدان	-10092
▁صهیونیستی	-10093
▁عملکردهای	-10094
▁بازگردانده	-10095
32	-10096
ke	-10097
me	-10098
نق	-10099
يک	-10100
ara	-10101
nal	-10102
قبل	-10103
کاب	-10104
▁51	-10105
▁56	-10106
▁Of	-10107
over	-10108
لاحی	-10109
▁180	-10110
▁Eng	-10111
▁Fin	-10112
▁Per	-10113
▁انض	-10114
▁بمی	-10115
▁تله	-10116
▁تمر	-10117
▁رام	-10118
▁ستی	-10119
▁عاق	-10120
▁كود	-10121
▁لوپ	-10122
▁نتی	-10123
▁همک	-10124
▁وود	-10125
خورده	-10126
▁ADHD	-10127
▁اکرم	-10128
▁اینم	-10129
▁توقع	-10130
▁حباب	-10131
▁خوشی	-10132
▁شوکه	-10133
▁غفلت	-10134
▁لخته	-10135
▁مکتب	-10136
▁اخطار	-10137
▁انتزا	-10138
▁بلندی	-10139
▁بیکار	-10140
▁جکسون	-10141
▁عفونی	-10142
▁فقرات	-10143
▁فولیک	-10144
▁نبودن	-10145
▁نگفته	-10146
▁پائین	-10147
▁آشفتگی	-10148
▁آنالیز	-10149
▁آنکارا	-10150
▁استادی	-10151
▁استانی	-10152
▁بوئینگ	-10153
▁زیباست	-10154
▁سراسری	-10155
▁سیارات	-10156
▁منتظره	-10157
▁هیجانی	-10158
▁ویرجین	-10159
▁پروانه	-10160
▁بازارها	-10161
▁بازنگری	-10162
▁بدافزار	-10163
▁تولیدات	-10164
▁رونالدو	-10165
▁سوزاندن	-10166
▁نتوانید	-10167
▁احساساتی	-10168
▁بشردوستانه	-10169
▁ثروتمندترین	-10170
5،	-10171
AL	-10172
FC	-10173
ha	-10174
yl	-10175
دف	-10176
▁←	-10177
alk	-10178
enn	-10179
ump	-10180
پیر	-10181
▁!!	-10182
▁72	-10183
▁Go	-10184
▁Us	-10185
▁زو	-10186
▁هي	-10187
hone	-10188
اااا	-10189
▁API	-10190
▁Str	-10191
▁اپی	-10192
▁تمس	-10193
▁ریک	-10194
▁نشت	-10195
تولید	-10196
▁آشتی	-10197
▁انعک	-10198
▁بجنگ	-10199
▁برپا	-10200
▁جرائ	-10201
▁جوجه	-10202
▁حافظ	-10203
▁حلال	-10204
▁حماس	-10205
▁خوام	-10206
▁خورم	-10207
▁دارن	-10208
▁رزمی	-10209
▁زهرا	-10210
▁سجده	-10211
▁طرفه	-10212
▁عضوی	-10213
▁مناظ	-10214
▁هائی	-10215
▁ویکت	-10216
▁گشود	-10217
▁۲۰۲۰	-10218
▁آموزه	-10219
▁ببخشد	-10220
▁بستنی	-10221
▁تائید	-10222
▁خیالی	-10223
▁سالمی	-10224
▁محتاط	-10225
▁مستعد	-10226
▁مسلما	-10227
▁ندهند	-10228
▁ادارات	-10229
▁اوتیسم	-10230
▁بازدار	-10231
▁بینانه	-10232
▁رویترز	-10233
▁سانسور	-10234
▁شدیدتر	-10235
▁متوالی	-10236
▁میکروب	-10237
▁میکروس	-10238
▁همدردی	-10239
▁الکترون	-10240
▁بازماند	-10241
▁مطالبات	-10242
▁پناهنده	-10243
▁برگرداند	-10244
▁بیندازید	-10245
▁پرستاران	-10246
▁پرسشنامه	-10247
▁اقتصادهای	-10248
96	-10249
BI	-10250
by	-10251
عق	-10252
فف	-10253
گي	-10254
۲۴	-10255
arm	-10256
oss	-10257
ute	-10258
اتو	-10259
توس	-10260
ثال	-10261
حقی	-10262
عار	-10263
كار	-10264
▁41	-10265
▁EC	-10266
▁Hy	-10267
▁IV	-10268
▁ائ	-10269
▁طع	-10270
لندی	-10271
کلای	-10272
▁Sam	-10273
▁آنا	-10274
▁ازش	-10275
▁بين	-10276
▁خیس	-10277
▁رهن	-10278
▁شرا	-10279
▁عطا	-10280
▁فید	-10281
▁چاه	-10282
▁گول	-10283
ience	-10284
▁اصیل	-10285
▁اطلس	-10286
▁بازن	-10287
▁بهمن	-10288
▁خوری	-10289
▁شاغل	-10290
▁مجرد	-10291
▁ناگز	-10292
▁نصیب	-10293
▁هارد	-10294
▁واگن	-10295
▁کوهن	-10296
▁Trans	-10297
▁ازاین	-10298
▁القدس	-10299
▁بمانم	-10300
▁بنگاه	-10301
▁خاصیت	-10302
▁شمرده	-10303
▁صداها	-10304
▁صرافی	-10305
▁مرخصی	-10306
▁معترض	-10307
▁هشتاد	-10308
▁گناهی	-10309
▁بدهکار	-10310
▁بریزید	-10311
▁خوانید	-10312
▁نگویید	-10313
▁پالایش	-10314
▁کروموز	-10315
▁القاعده	-10316
▁اکسیدان	-10317
▁غافلگیر	-10318
▁نتوانند	-10319
▁ورزشگاه	-10320
▁کمونیسم	-10321
▁بازاریاب	-10322
▁تسلیحاتی	-10323
▁قزاقستان	-10324
▁نتوانستند	-10325
▁پناهجویان	-10326
▁اقتصاددانان	-10327
▁قدرتمندترین	-10328
!”	-10329
مط	-10330
aul	-10331
der	-10332
ادو	-10333
اکو	-10334
دهد	-10335
راغ	-10336
▁))	-10337
▁2:	-10338
▁49	-10339
▁Cr	-10340
▁حر	-10341
▁هف	-10342
0000	-10343
oint	-10344
vice	-10345
حساب	-10346
شینگ	-10347
ظهور	-10348
لیتی	-10349
ومین	-10350
▁CRM	-10351
▁Ind	-10352
▁Tim	-10353
▁ایی	-10354
▁بجز	-10355
▁جنج	-10356
▁سلب	-10357
▁منج	-10358
طبیعی	-10359
پرداز	-10360
▁Xbox	-10361
▁اثرگ	-10362
▁انتح	-10363
▁بشار	-10364
▁ترسم	-10365
▁تسلا	-10366
▁دربر	-10367
▁پیغم	-10368
▁کاره	-10369
▁کوسه	-10370
ادهایی	-10371
▁اجبار	-10372
▁بهائی	-10373
▁تبعید	-10374
▁توئیت	-10375
▁خرگوش	-10376
▁داروس	-10377
▁رانده	-10378
▁زنجیر	-10379
▁عملاً	-10380
▁نپذیر	-10381
▁هموار	-10382
▁یگانه	-10383
▁Galaxy	-10384
▁آفتابی	-10385
▁ایسلند	-10386
▁بخوریم	-10387
▁برادرم	-10388
▁بمانیم	-10389
▁دائماً	-10390
▁شکننده	-10391
▁فرزندی	-10392
▁مؤمنان	-10393
▁پردازی	-10394
▁پیشانی	-10395
▁آلاینده	-10396
▁آکسفورد	-10397
▁بردارند	-10398
▁دستگاهی	-10399
▁مکالمات	-10400
▁کشورشان	-10401
▁گذرانده	-10402
▁غربالگری	-10403
▁کوهستانی	-10404
▁فضانوردان	-10405
▁فلسطینیان	-10406
▁نژادپرستی	-10407
▁هواپیماها	-10408
▁غیرنظامیان	-10409
▁کلاهبرداری	-10410
**	-10411
DL	-10412
EF	-10413
bl	-10414
oe	-10415
حک	-10416
ict	-10417
▁CS	-10418
▁VR	-10419
▁We	-10420
▁قص	-10421
▁۳٫	-10422
▁۳۸	-10423
▁۵۵	-10424
▁۸۵	-10425
ated	-10426
avid	-10427
form	-10428
بریج	-10429
▁Art	-10430
▁اعم	-10431
▁ایا	-10432
▁بلع	-10433
▁شاء	-10434
▁کتک	-10435
▁یخی	-10436
▁یكی	-10437
ابایت	-10438
راهام	-10439
▁1997	-10440
▁Data	-10441
▁افقی	-10442
▁تهوع	-10443
▁جانی	-10444
▁جرات	-10445
▁جونز	-10446
▁خوبه	-10447
▁سیتی	-10448
▁عاری	-10449
▁فونت	-10450
▁لئون	-10451
▁مناز	-10452
▁میرس	-10453
▁نارس	-10454
▁نرفت	-10455
▁پاور	-10456
▁پرنس	-10457
▁پنجه	-10458
▁آشفته	-10459
▁اعماق	-10460
▁اقوام	-10461
▁ایوان	-10462
▁برروی	-10463
▁تخیلی	-10464
▁تریلر	-10465
▁سهولت	-10466
▁محفوظ	-10467
▁منحنی	-10468
▁میرود	-10469
▁ناساز	-10470
▁وجدان	-10471
▁آنچنان	-10472
▁انضباط	-10473
▁اهدافی	-10474
▁خطاهای	-10475
▁درخصوص	-10476
▁سایرین	-10477
▁شنونده	-10478
▁علائمی	-10479
▁متاسفم	-10480
▁متعارف	-10481
▁ناگزیر	-10482
▁الجزایر	-10483
▁سردرگمی	-10484
▁مهاجرتی	-10485
▁بلندترین	-10486
▁پادشاهان	-10487
▁بازگرداند	-10488
▁بازماندگان	-10489
▁جمهوریخواه	-10490
33	-10491
85	-10492
GB	-10493
LA	-10494
QL	-10495
غذ	-10496
مک	-10497
پد	-10498
۲۵	-10499
▁@	-10500
ava	-10501
؟».	-10502
اول	-10503
جور	-10504
جیل	-10505
دری	-10506
شدن	-10507
فین	-10508
وزش	-10509
▁SP	-10510
▁۳۷	-10511
rome	-10512
باسی	-10513
خوار	-10514
شانی	-10515
شاید	-10516
فتان	-10517
یمتر	-10518
▁Bre	-10519
▁Day	-10520
▁Mot	-10521
▁تفر	-10522
▁شوق	-10523
▁فون	-10524
▁مدد	-10525
▁هکت	-10526
▁اتمس	-10527
▁اریک	-10528
▁اورا	-10529
▁ببرم	-10530
▁تاجی	-10531
▁تخلف	-10532
▁زناش	-10533
▁سرفه	-10534
▁غوطه	-10535
▁فلان	-10536
▁مؤلف	-10537
▁مواز	-10538
▁موسس	-10539
▁پیشی	-10540
▁کسری	-10541
▁کمان	-10542
▁Power	-10543
▁استبد	-10544
▁تسخیر	-10545
▁تطابق	-10546
▁تعارض	-10547
▁حوصله	-10548
▁مشهود	-10549
▁موقعی	-10550
▁میلاد	-10551
▁نصیحت	-10552
▁همچین	-10553
▁پهنای	-10554
▁کالای	-10555
▁یکسال	-10556
▁تکاملی	-10557
▁حقیقتا	-10558
▁رحمانه	-10559
▁مطالبه	-10560
▁نشنیده	-10561
▁هوشیار	-10562
▁کافیست	-10563
▁گرایان	-10564
▁اعتقادی	-10565
▁التهابی	-10566
▁بنشینید	-10567
▁بپذیریم	-10568
▁جهانیان	-10569
▁خواندند	-10570
▁دوستانی	-10571
▁فراموشی	-10572
▁میخواهم	-10573
▁نهایتاً	-10574
▁رویارویی	-10575
▁محدودیتی	-10576
▁پیامبران	-10577
▁آلومینیوم	-10578
▁آنفولانزا	-10579
▁راهپیمایی	-10580
▁سازمانهای	-10581
▁سختگیرانه	-10582
▁روانشناختی	-10583
EG	-10584
]،	-10585
ux	-10586
َم	-10587
ari	-10588
ask	-10589
con	-10590
fer	-10591
امد	-10592
باب	-10593
فیس	-10594
نال	-10595
وفق	-10596
پال	-10597
پدر	-10598
یمن	-10599
▁No	-10600
▁۳۱	-10601
علوم	-10602
پایی	-10603
▁Out	-10604
▁بنز	-10605
▁ساک	-10606
▁عزم	-10607
▁فیب	-10608
▁متا	-10609
▁مقت	-10610
▁پوس	-10611
Press	-10612
▁آلفا	-10613
▁بودا	-10614
▁تبار	-10615
▁سوزن	-10616
▁غرفه	-10617
▁فقیه	-10618
▁لعنت	-10619
▁لیکن	-10620
▁متون	-10621
▁مردن	-10622
▁معاش	-10623
▁معال	-10624
▁ندان	-10625
پردازی	-10626
▁بفهمد	-10627
▁جوانب	-10628
▁حسینی	-10629
▁دکتری	-10630
▁سوئیچ	-10631
▁فراری	-10632
▁فرعون	-10633
▁منطبق	-10634
▁میانی	-10635
وزیسیون	-10636
▁آبیاری	-10637
▁خبرهای	-10638
▁درآمده	-10639
▁فهمیده	-10640
▁نمانده	-10641
▁واکنشی	-10642
▁چهارده	-10643
▁کارزار	-10644
▁اندازند	-10645
▁بسپارید	-10646
▁خطرناکی	-10647
▁صربستان	-10648
▁مکانیزم	-10649
▁نزدیکتر	-10650
▁نگذارید	-10651
▁گنجانده	-10652
▁اورانیوم	-10653
▁مطبوعاتی	-10654
MP	-10655
RS	-10656
sk	-10657
تب	-10658
نخ	-10659
وچ	-10660
let	-10661
اهش	-10662
حدی	-10663
نید	-10664
۲۰۰	-10665
▁(7	-10666
▁Hu	-10667
▁٢٠	-10668
▁۹۹	-10669
eral	-10670
ider	-10671
گارت	-10672
▁(2)	-10673
▁IBM	-10674
▁Par	-10675
▁بهت	-10676
▁ساس	-10677
▁صفت	-10678
▁صوت	-10679
▁طرد	-10680
▁منس	-10681
▁میگ	-10682
▁نیل	-10683
irect	-10684
انیان	-10685
بسیار	-10686
▁Game	-10687
▁with	-10688
▁جلال	-10689
▁زائد	-10690
▁زوده	-10691
▁سرود	-10692
▁سلیم	-10693
▁شیری	-10694
▁ممان	-10695
▁نتیج	-10696
▁نخور	-10697
▁وهله	-10698
▁پازل	-10699
▁ژورن	-10700
▁کبدی	-10701
▁کینگ	-10702
▁آنطور	-10703
▁اکانت	-10704
▁بادام	-10705
▁بيشتر	-10706
▁ترانس	-10707
▁تقابل	-10708
▁درختی	-10709
▁دفعات	-10710
▁رزومه	-10711
▁شایعه	-10712
▁ملایم	-10713
▁منفرد	-10714
▁مواظب	-10715
▁پرخاش	-10716
عادلانه	-10717
▁آمريکا	-10718
▁بیافتد	-10719
▁جادوگر	-10720
▁جزییات	-10721
▁دوزهای	-10722
▁دیواری	-10723
▁سلیمان	-10724
▁شاهکار	-10725
▁فرآوری	-10726
▁ناظران	-10727
▁هیلاری	-10728
▁چنانکه	-10729
▁استفراغ	-10730
▁برگردیم	-10731
▁بشناسیم	-10732
▁تحلیلگر	-10733
▁خودخواه	-10734
▁درنتیجه	-10735
▁فرمانرو	-10736
▁فعالانه	-10737
▁فعالیتی	-10738
▁پرزیدنت	-10739
▁گذرانند	-10740
▁آمریکاست	-10741
▁اختیارات	-10742
▁امیدواری	-10743
▁درآمدهای	-10744
▁نارضایتی	-10745
▁سیستماتیک	-10746
▁پرولتاریا	-10747
RC	-10748
TE	-10749
تک	-10750
ift	-10751
ott	-10752
uck	-10753
ush	-10754
».[	-10755
آفر	-10756
رود	-10757
سگی	-10758
ورم	-10759
▁57	-10760
▁66	-10761
▁Ag	-10762
▁CV	-10763
▁چر	-10764
raph	-10765
ript	-10766
تایی	-10767
ترلی	-10768
دولت	-10769
ونیا	-10770
گراد	-10771
یدیم	-10772
▁Val	-10773
▁سیت	-10774
▁شطر	-10775
▁قدس	-10776
▁لیز	-10777
▁لیپ	-10778
▁مرس	-10779
▁منب	-10780
▁نیش	-10781
▁ژئو	-10782
ایران	-10783
حقیقت	-10784
▁آداب	-10785
▁اجزا	-10786
▁امین	-10787
▁داور	-10788
▁درها	-10789
▁سومی	-10790
▁ضخیم	-10791
▁فرید	-10792
▁مخفف	-10793
▁مصون	-10794
▁چادر	-10795
▁چاپی	-10796
همچنین	-10797
▁2017،	-10798
▁Group	-10799
▁اصولی	-10800
▁امیدی	-10801
▁ایفای	-10802
▁بازهم	-10803
▁تدارک	-10804
▁جنازه	-10805
▁دریچه	-10806
▁رخداد	-10807
▁زامبی	-10808
▁شستشو	-10809
▁متعجب	-10810
▁کلیشه	-10811
▁آفرینی	-10812
▁بانکوک	-10813
▁بدبختی	-10814
▁بدنبال	-10815
▁بنویسد	-10816
▁بیاورم	-10817
▁دایناس	-10818
▁معافیت	-10819
▁ناموفق	-10820
▁نترسید	-10821
▁ندادند	-10822
▁نوشتار	-10823
▁یائسگی	-10824
▁یازدهم	-10825
▁استالین	-10826
▁اینصورت	-10827
▁جواهرات	-10828
▁سرزمینی	-10829
▁لهستانی	-10830
▁وحشیانه	-10831
▁کریستال	-10832
▁استودیوی	-10833
▁الکساندر	-10834
▁ویکتوریا	-10835
▁گفتگوهای	-10836
ck	-10837
»؛	-10838
آش	-10839
خط	-10840
eth	-10841
ney	-10842
ype	-10843
جبی	-10844
یاد	-10845
▁1:	-10846
▁7-	-10847
▁96	-10848
▁AI	-10849
▁Ab	-10850
▁۴۸	-10851
alth	-10852
gram	-10853
اردو	-10854
ارند	-10855
ترود	-10856
دوست	-10857
غییر	-10858
قرآن	-10859
نگاه	-10860
چاله	-10861
▁700	-10862
▁Bar	-10863
▁بگم	-10864
▁شصت	-10865
▁لام	-10866
▁لحن	-10867
▁مفت	-10868
▁ممت	-10869
▁نوه	-10870
▁۱۳۹	-10871
▁۲۵۰	-10872
obile	-10873
ارکتی	-10874
▁1994	-10875
▁آبجو	-10876
▁باکس	-10877
▁تحری	-10878
▁ترمز	-10879
▁تقوا	-10880
▁توکن	-10881
▁جنون	-10882
▁خلال	-10883
▁سهیم	-10884
▁غارت	-10885
▁غلات	-10886
▁فراغ	-10887
▁فهمم	-10888
▁مختر	-10889
▁نمید	-10890
▁کندی	-10891
▁آرایه	-10892
▁ابهام	-10893
▁احراز	-10894
▁ارمنی	-10895
▁اژدها	-10896
▁تحریف	-10897
▁جرائم	-10898
▁دیزنی	-10899
▁طریقی	-10900
▁فروید	-10901
▁قرائت	-10902
▁معینی	-10903
▁وکلای	-10904
▁کشیدم	-10905
▁Semalt	-10906
▁Server	-10907
▁آکواری	-10908
▁اشکالی	-10909
▁انقراض	-10910
▁باشکوه	-10911
▁برخاست	-10912
▁بردارد	-10913
▁توربین	-10914
▁جاودان	-10915
▁سمینار	-10916
▁مطالبی	-10917
▁ناامنی	-10918
▁نوشابه	-10919
▁نوظهور	-10920
▁نیرویی	-10921
▁کاترین	-10922
▁استقامت	-10923
▁انتحاری	-10924
▁بنویسند	-10925
▁تیروئید	-10926
▁رویکردی	-10927
▁زیرنویس	-10928
▁مسلحانه	-10929
▁مهندسین	-10930
▁نیرومند	-10931
▁پذیرایی	-10932
▁کتابهای	-10933
▁گزارشگر	-10934
▁بگذرانید	-10935
▁سریعترین	-10936
▁پرسپولیس	-10937
▁کنسولگری	-10938
▁گردهمایی	-10939
▁فرماندهان	-10940
ym	-10941
گد	-10942
▁‫	-10943
ger	-10944
ـــ	-10945
فرد	-10946
میک	-10947
پاد	-10948
▁2.	-10949
▁52	-10950
▁8-	-10951
▁ES	-10952
▁ac	-10953
▁tr	-10954
▁غد	-10955
rist	-10956
rypt	-10957
view	-10958
اهره	-10959
جامد	-10960
▁360	-10961
▁HPV	-10962
▁MIT	-10963
▁Off	-10964
▁www	-10965
▁باج	-10966
▁بیف	-10967
▁شیب	-10968
▁فقه	-10969
▁موظ	-10970
▁هيچ	-10971
▁وصف	-10972
▁کوب	-10973
ution	-10974
آگاهی	-10975
بیشتر	-10976
▁post	-10977
▁بولی	-10978
▁بیلی	-10979
▁تران	-10980
▁دیشب	-10981
▁رشدی	-10982
▁سعید	-10983
▁سویا	-10984
▁عشقی	-10985
▁فقرا	-10986
▁قلبم	-10987
▁کلیپ	-10988
▁اسپری	-10989
▁بسيار	-10990
▁دلیلش	-10991
▁رسالت	-10992
▁روزاف	-10993
▁عمودی	-10994
▁محوری	-10995
▁مدینه	-10996
▁ناهنج	-10997
▁هکتار	-10998
▁گفتنی	-10999
▁ارتکاب	-11000
▁بقایای	-11001
▁سرنگون	-11002
▁نامزدی	-11003
▁گذارید	-11004
national	-11005
▁انتزاعی	-11006
▁تعمیرات	-11007
▁خوابگاه	-11008
▁زناشویی	-11009
▁سرنگونی	-11010
▁سیلیکون	-11011
▁میخواهد	-11012
▁پژوهشگر	-11013
▁ایستادگی	-11014
▁بپردازیم	-11015
▁داروخانه	-11016
▁فیلترهای	-11017
▁میخواهند	-11018
▁وحشتناکی	-11019
▁برخورداری	-11020
EP	-11021
PD	-11022
Re	-11023
tr	-11024
عۀ	-11025
ose	-11026
روک	-11027
زیر	-11028
فرا	-11029
يند	-11030
یبت	-11031
▁54	-11032
▁Co	-11033
▁NG	-11034
▁OS	-11035
▁UV	-11036
▁pl	-11037
▁».	-11038
▁سس	-11039
اتان	-11040
روفی	-11041
شرکت	-11042
ونیک	-11043
▁900	-11044
▁Pay	-11045
▁بوم	-11046
▁بیس	-11047
▁خلع	-11048
▁زرا	-11049
▁ظال	-11050
▁عود	-11051
▁فاض	-11052
▁قفس	-11053
▁مصل	-11054
▁پرم	-11055
برابر	-11056
حداقل	-11057
سلمین	-11058
واستم	-11059
▁جوهر	-11060
▁حسگر	-11061
▁ریتم	-11062
▁ریزد	-11063
▁سودی	-11064
▁كنیم	-11065
▁مهیا	-11066
▁موری	-11067
▁وکلا	-11068
▁۲۰۰۴	-11069
رالیسم	-11070
گیرنده	-11071
▁اقلیم	-11072
▁بردگی	-11073
▁بیگان	-11074
▁ترمین	-11075
▁تزئین	-11076
▁جنرال	-11077
▁جوابی	-11078
▁شطرنج	-11079
▁ضخامت	-11080
▁متفکر	-11081
▁نواخت	-11082
▁نیامد	-11083
▁هزاره	-11084
▁پرتره	-11085
▁یابیم	-11086
▁اتمسفر	-11087
▁اشخاصی	-11088
▁برگشته	-11089
▁توضیحی	-11090
▁تکنسین	-11091
▁سرمربی	-11092
▁شستشوی	-11093
▁معادله	-11094
▁ممانعت	-11095
▁نابینا	-11096
▁نکردیم	-11097
▁پرتقال	-11098
▁پرینتر	-11099
▁Network	-11100
▁استحکام	-11101
▁اسیدهای	-11102
▁اعتمادی	-11103
▁ایرلندی	-11104
▁تشکیلات	-11105
▁دیوارها	-11106
▁سودآوری	-11107
▁مشارکتی	-11108
▁پیشگویی	-11109
▁ژنراتور	-11110
▁زودهنگام	-11111
▁گوناگونی	-11112
▁اپوزیسیون	-11113
▁راهکارهای	-11114
▁فرانسیسکو	-11115
AA	-11116
ّد	-11117
ane	-11118
rop	-11119
str	-11120
باد	-11121
جاب	-11122
ختر	-11123
رضا	-11124
ضاح	-11125
▁Sn	-11126
▁ph	-11127
▁sh	-11128
▁sp	-11129
duct	-11130
ield	-11131
ords	-11132
ular	-11133
روند	-11134
ماسی	-11135
وبیا	-11136
ومعه	-11137
پزشک	-11138
▁202	-11139
▁Sol	-11140
▁رزم	-11141
▁شمع	-11142
▁لاس	-11143
▁موز	-11144
▁هاب	-11145
▁ورق	-11146
▁وقف	-11147
urity	-11148
▁آنات	-11149
▁تنبا	-11150
▁جابز	-11151
▁حکیم	-11152
▁داود	-11153
▁دریغ	-11154
▁سنجی	-11155
▁شکوف	-11156
▁غذاخ	-11157
▁غیرد	-11158
▁فوتب	-11159
▁قبرس	-11160
▁لرزش	-11161
▁مشهد	-11162
▁معضل	-11163
▁واری	-11164
▁کارا	-11165
▁کامپ	-11166
▁گفتی	-11167
ویرایش	-11168
▁آواره	-11169
▁انقبا	-11170
▁بازوی	-11171
▁بخرند	-11172
▁تزکیه	-11173
▁تعبیه	-11174
▁خامنه	-11175
▁دوستم	-11176
▁سایتی	-11177
▁سلطان	-11178
▁شونده	-11179
▁طلبان	-11180
▁عصاره	-11181
▁لوئیس	-11182
▁متضاد	-11183
▁مدرکی	-11184
▁مدنظر	-11185
▁مشروط	-11186
▁مصالح	-11187
▁معلول	-11188
▁میگرن	-11189
▁کمیاب	-11190
▁آویزان	-11191
▁ایمیلی	-11192
▁بانوان	-11193
▁تصورات	-11194
▁حفاظتی	-11195
▁دروغین	-11196
▁مکزیکی	-11197
▁میهمان	-11198
▁نارنجی	-11199
▁پیغمبر	-11200
▁احترامی	-11201
▁بخوابید	-11202
▁برگردند	-11203
▁بفرمایید	-11204
▁تهدیدهای	-11205
▁تومورهای	-11206
▁دمکراتیک	-11207
▁فرزندانش	-11208
▁متغیرهای	-11209
▁مهارتهای	-11210
▁وزارتخانه	-11211
39	-11212
BO	-11213
II	-11214
ae	-11215
to	-11216
تز	-11217
ike	-11218
oci	-11219
ubl	-11220
ترن	-11221
خیز	-11222
متی	-11223
▁CN	-11224
▁MP	-11225
▁Tw	-11226
▁تك	-11227
▁دب	-11228
▁کج	-11229
rain	-11230
ئینی	-11231
اونی	-11232
بتان	-11233
تاری	-11234
لاسی	-11235
لینگ	-11236
ممکن	-11237
میزی	-11238
▁آدر	-11239
▁بدو	-11240
▁تیپ	-11241
▁دلت	-11242
▁شیء	-11243
▁شین	-11244
▁فوا	-11245
▁كمك	-11246
▁متی	-11247
▁مگه	-11248
▁ولز	-11249
vious	-11250
▁King	-11251
▁Live	-11252
▁آنتن	-11253
▁ادای	-11254
▁انشا	-11255
▁بخرم	-11256
▁برهم	-11257
▁تاسف	-11258
▁تعصب	-11259
▁تنفر	-11260
▁راکت	-11261
▁ظروف	-11262
▁عیار	-11263
▁غیرع	-11264
▁فرعی	-11265
▁قشنگ	-11266
▁مکعب	-11267
▁هستن	-11268
▁پلان	-11269
▁کرسی	-11270
▁2014،	-11271
▁2015،	-11272
▁اتلاف	-11273
▁امانت	-11274
▁بانوی	-11275
▁دهانه	-11276
▁سالاد	-11277
▁سرسخت	-11278
▁مبانی	-11279
▁مرحوم	-11280
▁مشروع	-11281
▁معانی	-11282
▁ملاحظ	-11283
▁نخوان	-11284
▁کردها	-11285
▁اسکیزو	-11286
▁اینحال	-11287
▁بازدهی	-11288
▁بالاست	-11289
▁برگشتم	-11290
▁بشنوند	-11291
▁تعطیلی	-11292
▁دنبالش	-11293
▁سیاستی	-11294
▁مسئولی	-11295
▁موافقم	-11296
▁میگردد	-11297
▁نمادین	-11298
▁کمبریج	-11299
▁گرفتگی	-11300
▁انتفاعی	-11301
▁حکمرانی	-11302
▁دشوارتر	-11303
▁مناسبات	-11304
▁میگویند	-11305
▁هوشیاری	-11306
▁کلیدهای	-11307
▁Previous	-11308
▁بازگردند	-11309
▁بعدازظهر	-11310
▁سفیدپوست	-11311
▁کروموزوم	-11312
▁پیشگیرانه	-11313
37	-11314
88	-11315
RA	-11316
TV	-11317
\"	-11318
▁إ	-11319
ham	-11320
اجد	-11321
احب	-11322
ویک	-11323
ژنی	-11324
▁TH	-11325
▁Up	-11326
▁bl	-11327
itch	-11328
vent	-11329
ترنت	-11330
روان	-11331
ساعت	-11332
غلات	-11333
لافی	-11334
کاست	-11335
▁189	-11336
▁2.0	-11337
▁آره	-11338
▁خاد	-11339
▁ریش	-11340
▁صحی	-11341
▁مدف	-11342
▁واد	-11343
▁ویا	-11344
▁کنن	-11345
ility	-11346
واستی	-11347
▁HTTP	-11348
▁آهنی	-11349
▁ازآن	-11350
▁تنیس	-11351
▁حصول	-11352
▁دردی	-11353
▁درنگ	-11354
▁دوزخ	-11355
▁قرضه	-11356
▁لادن	-11357
▁مرگش	-11358
▁نورد	-11359
▁پاتر	-11360
▁آنزیم	-11361
▁اتاقی	-11362
▁احیای	-11363
▁امثال	-11364
▁بشوند	-11365
▁بندگی	-11366
▁تاجیک	-11367
▁خریده	-11368
▁سوخته	-11369
▁صومعه	-11370
▁عاقبت	-11371
▁علایق	-11372
▁مثالی	-11373
▁مساجد	-11374
▁مصیبت	-11375
▁مضمون	-11376
▁معایب	-11377
▁میکنه	-11378
▁آموختن	-11379
▁آنارشی	-11380
▁انعکاس	-11381
▁بستگان	-11382
▁بپرسند	-11383
▁تعاونی	-11384
▁ساختگی	-11385
▁لزوماً	-11386
▁نمیکند	-11387
▁کنترلی	-11388
▁اسماعیل	-11389
▁انتظاری	-11390
▁برندگان	-11391
▁دوجانبه	-11392
▁رمانتیک	-11393
▁ساندویچ	-11394
▁سرورهای	-11395
▁قوانینی	-11396
▁مأموران	-11397
▁محرومیت	-11398
▁مخفیانه	-11399
▁میکردند	-11400
▁نامعلوم	-11401
▁ویلیامز	-11402
▁دارندگان	-11403
▁WordPress	-11404
1:	-11405
LS	-11406
SE	-11407
VC	-11408
يب	-11409
۶۰	-11410
▁o	-11411
rit	-11412
ائن	-11413
بیک	-11414
روپ	-11415
سنت	-11416
چگی	-11417
▁Av	-11418
▁Mc	-11419
▁بِ	-11420
eter	-11421
اتید	-11422
الیف	-11423
برید	-11424
بودی	-11425
حلال	-11426
رسدس	-11427
رهیز	-11428
نوتی	-11429
▁160	-11430
▁Cor	-11431
▁Har	-11432
▁IoT	-11433
▁الل	-11434
▁توح	-11435
▁جنی	-11436
▁ضعی	-11437
▁فضل	-11438
▁فكر	-11439
▁كسی	-11440
▁نوح	-11441
▁وجو	-11442
▁کوش	-11443
آورده	-11444
اپذیر	-11445
▁Link	-11446
▁Time	-11447
▁آلیس	-11448
▁ائمه	-11449
▁اینو	-11450
▁جرمی	-11451
▁رقبا	-11452
▁سرای	-11453
▁پارس	-11454
▁پدری	-11455
▁کافر	-11456
▁کشان	-11457
▁۱۹۳۰	-11458
▁Light	-11459
▁Techn	-11460
▁ابرها	-11461
▁استعف	-11462
▁الکلی	-11463
▁اینكه	-11464
▁اینچی	-11465
▁بریده	-11466
▁تعجبی	-11467
▁داشتی	-11468
▁مارکت	-11469
▁مازاد	-11470
▁محکمی	-11471
▁موادی	-11472
▁نابغه	-11473
▁نمادی	-11474
▁پرطرف	-11475
▁گیتار	-11476
▁iPhone	-11477
▁بخواهم	-11478
▁بهادار	-11479
▁دیابتی	-11480
▁رسوایی	-11481
▁ضایعات	-11482
▁مخاطره	-11483
▁مناظره	-11484
▁ویدئوی	-11485
▁پنهانی	-11486
▁ژورنال	-11487
▁کوچولو	-11488
▁اطلاعیه	-11489
▁افتادند	-11490
▁الکتروم	-11491
▁بارگیری	-11492
▁بلومبرگ	-11493
▁فرمایند	-11494
▁آزادسازی	-11495
▁المسلمین	-11496
▁انتقادات	-11497
▁جنگجویان	-11498
▁زندگیتان	-11499
▁امیدوارند	-11500
▁روشنفکران	-11501
▁فیزیولوژیکی	-11502
38	-11503
66	-11504
TI	-11505
gy	-11506
خو	-11507
طح	-11508
عج	-11509
كز	-11510
َا	-11511
۲۱	-11512
App	-11513
Pro	-11514
oom	-11515
oug	-11516
ئیم	-11517
الا	-11518
الو	-11519
دیت	-11520
ریش	-11521
عاع	-11522
موم	-11523
▁77	-11524
▁:)	-11525
▁ar	-11526
▁كل	-11527
ican	-11528
iver	-11529
ابیر	-11530
اوری	-11531
ردام	-11532
▁140	-11533
▁800	-11534
▁Cap	-11535
▁DNS	-11536
▁آرس	-11537
▁بنو	-11538
▁جعل	-11539
▁دلب	-11540
▁شرو	-11541
▁علف	-11542
▁قشر	-11543
▁موم	-11544
▁گلد	-11545
ebook	-11546
روهای	-11547
کربرگ	-11548
▁اپرا	-11549
▁بروی	-11550
▁تشنج	-11551
▁خاکی	-11552
▁خمیر	-11553
▁سازش	-11554
▁عامه	-11555
▁لبنی	-11556
▁لیور	-11557
▁معلق	-11558
▁موظف	-11559
▁نیکل	-11560
▁۲۰۰۲	-11561
سازمان	-11562
▁احسان	-11563
▁جغراف	-11564
▁خشنود	-11565
▁رمضان	-11566
▁زیاده	-11567
▁قاهره	-11568
▁ماهگی	-11569
▁مایلی	-11570
▁مجانی	-11571
▁مرتفع	-11572
▁مرسدس	-11573
▁مورچه	-11574
▁نهادی	-11575
▁نوروز	-11576
▁کرایه	-11577
▁گمرکی	-11578
▁آغازین	-11579
▁الکترو	-11580
▁بفروشد	-11581
▁تمایلی	-11582
▁خوابند	-11583
▁دخترها	-11584
▁ذهنتان	-11585
▁فروشند	-11586
▁کامرون	-11587
▁یادمان	-11588
▁Bitcoin	-11589
▁الکترود	-11590
▁بزرگوار	-11591
▁تمایلات	-11592
▁جاودانه	-11593
▁حقیقتاً	-11594
▁مستغلات	-11595
▁انسانهای	-11596
▁بپیوندید	-11597
▁توانستید	-11598
▁پیوندهای	-11599
▁آزاردهنده	-11600
▁دانشگاهیان	-11601
Sh	-11602
hu	-11603
»[	-11604
وَ	-11605
َد	-11606
ئوس	-11607
جاز	-11608
دیا	-11609
زاد	-11610
ستا	-11611
لاط	-11612
معم	-11613
مید	-11614
نیه	-11615
هرگ	-11616
ينه	-11617
کتر	-11618
کنم	-11619
کیم	-11620
▁).	-11621
▁2،	-11622
▁an	-11623
▁is	-11624
▁۶۴	-11625
ency	-11626
here	-11627
ستید	-11628
شامل	-11629
عملی	-11630
وبات	-11631
وحنا	-11632
گرید	-11633
▁III	-11634
▁ارگ	-11635
▁جون	-11636
▁دیو	-11637
▁ذرت	-11638
▁زرق	-11639
▁شیل	-11640
▁قاط	-11641
▁نیو	-11642
▁پهل	-11643
اسازی	-11644
وادور	-11645
ورتان	-11646
▁5000	-11647
▁Anal	-11648
▁Phot	-11649
▁اونا	-11650
▁بروس	-11651
▁خندد	-11652
▁خوشش	-11653
▁رواج	-11654
▁شریف	-11655
▁فکرش	-11656
▁مدلی	-11657
▁هایت	-11658
▁پلیم	-11659
▁چانه	-11660
▁چرخد	-11661
توانید	-11662
▁آسیاب	-11663
▁ارتجا	-11664
▁باخبر	-11665
▁برآمد	-11666
▁میکنی	-11667
▁نامیم	-11668
▁نمایه	-11669
▁گشوده	-11670
▁ابریشم	-11671
▁بولتون	-11672
▁تمرینی	-11673
▁خواهرش	-11674
▁شرمنده	-11675
▁شرکتها	-11676
▁فروشان	-11677
▁لاستیک	-11678
▁ممنونم	-11679
▁پویایی	-11680
▁کیهانی	-11681
▁آندروید	-11682
▁استثمار	-11683
▁استثنای	-11684
▁اسرائيل	-11685
▁صبحگاهی	-11686
▁صمیمانه	-11687
▁فرستنده	-11688
▁فرمایید	-11689
▁فیلمساز	-11690
▁مروارید	-11691
▁نیوزلند	-11692
▁پاسخگوی	-11693
▁پوشانده	-11694
▁آکواریوم	-11695
▁بازگشایی	-11696
▁توانبخشی	-11697
▁دوستیابی	-11698
▁رویکردهای	-11699
▁ناعادلانه	-11700
▁نمایشنامه	-11701
▁روانشناسان	-11702
47	-11703
Bl	-11704
za	-11705
»(	-11706
ثل	-11707
500	-11708
for	-11709
ris	-11710
بعد	-11711
طرب	-11712
نظم	-11713
وطی	-11714
وژن	-11715
▁63	-11716
▁78	-11717
▁92	-11718
▁GM	-11719
▁ro	-11720
▁آئ	-11721
▁وي	-11722
استه	-11723
لسون	-11724
موند	-11725
▁Acc	-11726
▁Rem	-11727
▁Sur	-11728
▁خرم	-11729
▁رفق	-11730
▁شتر	-11731
▁ماف	-11732
▁پرب	-11733
▁کوی	-11734
▁گلب	-11735
▁۸۰۰	-11736
انسان	-11737
اولین	-11738
▁1992	-11739
▁Call	-11740
▁Fall	-11741
▁ارثی	-11742
▁استغ	-11743
▁اپید	-11744
▁بتون	-11745
▁بخند	-11746
▁بدنش	-11747
▁زدیم	-11748
▁سخنی	-11749
▁سدیم	-11750
▁سوزش	-11751
▁صحرا	-11752
▁فاضل	-11753
▁میلر	-11754
▁نفهم	-11755
▁ورژن	-11756
▁پشیم	-11757
▁کدوم	-11758
▁کسان	-11759
▁کوچه	-11760
▁Enter	-11761
▁اراضی	-11762
▁اصالت	-11763
▁خوردم	-11764
▁عمران	-11765
▁لااقل	-11766
▁لازمه	-11767
▁مانعی	-11768
▁مقبره	-11769
▁نامطل	-11770
▁نشدنی	-11771
▁همدلی	-11772
▁پریود	-11773
▁پوشاک	-11774
▁کاشته	-11775
▁آلرژیک	-11776
▁آوردیم	-11777
▁اتریوم	-11778
▁انقباض	-11779
▁برزیلی	-11780
▁بشویید	-11781
▁خودمخت	-11782
▁دفترچه	-11783
▁متناوب	-11784
▁میخوام	-11785
▁هاوایی	-11786
▁واکسین	-11787
▁کافران	-11788
▁تایلندی	-11789
▁فداکاری	-11790
▁مستقیمی	-11791
▁مهاجرین	-11792
▁میلیونها	-11793
▁ناکارآمد	-11794
▁همجنسگرا	-11795
▁پرطرفدار	-11796
▁امپریالیسم	-11797
!؟	-11798
IG	-11799
٫۵	-11800
۸۰	-11801
▁٣	-11802
▁€	-11803
-12	-11804
NET	-11805
ere	-11806
inc	-11807
آیی	-11808
بون	-11809
ضار	-11810
ملی	-11811
نوع	-11812
▁00	-11813
▁97	-11814
▁CC	-11815
▁Cy	-11816
▁RA	-11817
▁Vo	-11818
▁۳۳	-11819
▁۴۴	-11820
back	-11821
ures	-11822
برند	-11823
جومی	-11824
ساری	-11825
مثلا	-11826
میمه	-11827
نامۀ	-11828
ومتر	-11829
چیان	-11830
کنیم	-11831
کوبی	-11832
▁آرد	-11833
▁ایس	-11834
▁بلک	-11835
▁تشی	-11836
▁دشت	-11837
▁منی	-11838
▁مکه	-11839
▁هشی	-11840
erson	-11841
کراسی	-11842
کوپتر	-11843
▁2030	-11844
▁3000	-11845
▁اکبر	-11846
▁برسم	-11847
▁بسوز	-11848
▁تجرب	-11849
▁دورد	-11850
▁سزار	-11851
▁شهاب	-11852
▁ضریب	-11853
▁لیمو	-11854
▁لیند	-11855
▁مصاد	-11856
▁ملتی	-11857
▁مملو	-11858
▁نزول	-11859
▁ونکو	-11860
▁وگاس	-11861
▁پیشه	-11862
▁کادر	-11863
▁کتبی	-11864
▁۱۹۹۸	-11865
آمریکا	-11866
سرمایه	-11867
▁Cloud	-11868
▁اجداد	-11869
▁افشای	-11870
▁اکثرا	-11871
▁تالار	-11872
▁حامله	-11873
▁خوانی	-11874
▁رنگین	-11875
▁سوختن	-11876
▁شادتر	-11877
▁شریعت	-11878
▁مبالغ	-11879
▁مضطرب	-11880
▁منزوی	-11881
▁نماند	-11882
▁نیاید	-11883
▁پسرها	-11884
▁پوستر	-11885
▁پیامد	-11886
▁کارتر	-11887
▁بومیان	-11888
▁بپرهیز	-11889
▁تردیدی	-11890
▁حدوداً	-11891
▁خویشتن	-11892
▁دایرکت	-11893
▁رازهای	-11894
▁روایات	-11895
▁فهرستی	-11896
▁مستحکم	-11897
▁واژگان	-11898
آمریکایی	-11899
▁آوارگان	-11900
▁انتقالی	-11901
▁بپذیرند	-11902
▁تاکتیکی	-11903
▁ترمینال	-11904
▁دستشویی	-11905
▁شکوفایی	-11906
▁لیورپول	-11907
▁موجودیت	-11908
▁نارسایی	-11909
▁اختراعات	-11910
▁اکتشافات	-11911
▁روزافزون	-11912
▁سیاهچاله	-11913
▁مشتریانی	-11914
▁سوسیالیست	-11915
▁استعدادهای	-11916
▁اسکیزوفرنی	-11917
▁موافقتنامه	-11918
▁International	-11919
IL	-11920
RE	-11921
UN	-11922
۲۳	-11923
-10	-11924
.»(	-11925
100	-11926
als	-11927
bur	-11928
era	-11929
obe	-11930
اتا	-11931
بنی	-11932
زلی	-11933
زود	-11934
عشق	-11935
هال	-11936
گوس	-11937
▁(8	-11938
▁4:	-11939
▁59	-11940
▁98	-11941
▁DC	-11942
▁Pe	-11943
▁Sl	-11944
▁وَ	-11945
▁گا	-11946
nect	-11947
orth	-11948
reet	-11949
،...	-11950
ارکی	-11951
الوگ	-11952
دارد	-11953
زمین	-11954
فیلم	-11955
لیسی	-11956
وانا	-11957
وندا	-11958
▁!!!	-11959
▁Bro	-11960
▁Inc	-11961
▁Leg	-11962
▁Lib	-11963
▁PDF	-11964
▁آرن	-11965
▁الْ	-11966
▁بیچ	-11967
▁تهی	-11968
▁پاف	-11969
▁کاک	-11970
ource	-11971
قانون	-11972
▁1979	-11973
▁Free	-11974
▁Good	-11975
▁آشوب	-11976
▁اتکا	-11977
▁اختر	-11978
▁اسرع	-11979
▁دورۀ	-11980
▁رویت	-11981
▁زیرب	-11982
▁سفره	-11983
▁سپرد	-11984
▁شارل	-11985
▁طناب	-11986
▁فیفا	-11987
▁مارش	-11988
▁ماسه	-11989
▁مراد	-11990
▁مرسی	-11991
▁مقیم	-11992
▁میشی	-11993
▁میله	-11994
▁نشدن	-11995
▁هدفش	-11996
▁پوشی	-11997
▁پولس	-11998
▁کوله	-11999
▁۱۹۵۰	-12000
igital	-12001
نوتیزم	-12002
پوستان	-12003
کارانه	-12004
▁اغراق	-12005
▁انصاف	-12006
▁بدلیل	-12007
▁تبریز	-12008
▁تصاحب	-12009
▁توالی	-12010
▁توفان	-12011
▁جذابی	-12012
▁خانمی	-12013
▁سیدنی	-12014
▁شکوفا	-12015
▁فراغت	-12016
▁مبادا	-12017
▁متاهل	-12018
▁مدفوع	-12019
▁مساعد	-12020
▁نفرین	-12021
▁نوازی	-12022
▁همگام	-12023
▁پرستی	-12024
▁School	-12025
▁آرتروز	-12026
▁اساتید	-12027
▁بگردید	-12028
▁تقریبی	-12029
▁تنباکو	-12030
▁جدیدتر	-12031
▁شدیداً	-12032
▁مادورو	-12033
▁نارگیل	-12034
▁ناپاید	-12035
▁وانمود	-12036
▁استعمال	-12037
▁خوشایند	-12038
▁دوپامین	-12039
▁روزهایی	-12040
▁ملاحظات	-12041
▁منحصربه	-12042
▁اندرویدی	-12043
▁شکرگزاری	-12044
▁مارکسیست	-12045
▁مشتاقانه	-12046
▁هنگامیکه	-12047
▁ویرجینیا	-12048
▁اشتباهاتی	-12049
▁برانگیخته	-12050
▁فرزندانتان	-12051
DC	-12052
OT	-12053
PR	-12054
SM	-12055
aa	-12056
،"	-12057
حم	-12058
رج	-12059
فظ	-12060
كل	-12061
مص	-12062
Com	-12063
els	-12064
its	-12065
ادۀ	-12066
سکا	-12067
صول	-12068
پاس	-12069
یتو	-12070
▁EM	-12071
▁MA	-12072
▁SS	-12073
▁نك	-12074
Tube	-12075
ache	-12076
ster	-12077
ائین	-12078
ابعی	-12079
امتی	-12080
تقری	-12081
توجه	-12082
زیری	-12083
کانی	-12084
▁Che	-12085
▁Mer	-12086
▁Sim	-12087
▁Tom	-12088
▁آنی	-12089
▁اشا	-12090
▁الش	-12091
▁بخو	-12092
▁بسر	-12093
▁بسط	-12094
▁بها	-12095
▁خفه	-12096
▁شبی	-12097
▁طرق	-12098
▁غوا	-12099
▁چيز	-12100
انیات	-12101
جمعیت	-12102
گشایی	-12103
▁1986	-12104
▁Read	-12105
▁اسمی	-12106
▁ایزو	-12107
▁بخرد	-12108
▁ترسی	-12109
▁تنگه	-12110
▁دربی	-12111
▁دیدی	-12112
▁رقمی	-12113
▁شعور	-12114
▁طبقۀ	-12115
▁قوای	-12116
▁منیز	-12117
▁نشری	-12118
▁نگرد	-12119
▁هشتگ	-12120
▁وارث	-12121
▁پالس	-12122
▁پرسی	-12123
▁پلاک	-12124
▁پیاز	-12125
▁پیشت	-12126
▁چلسی	-12127
▁کرون	-12128
......	-12129
▁آدمها	-12130
▁احوال	-12131
▁بامزه	-12132
▁برنمی	-12133
▁بشنود	-12134
▁تمسخر	-12135
▁خرابی	-12136
▁دانشی	-12137
▁دوستت	-12138
▁رسماً	-12139
▁سیزده	-12140
▁ضمیمه	-12141
▁مرسوم	-12142
▁منبعی	-12143
▁چالشی	-12144
▁چکیده	-12145
▁کشتند	-12146
▁بفرستد	-12147
▁تفکرات	-12148
▁داروین	-12149
▁دروغگو	-12150
▁دزدیده	-12151
▁دوردست	-12152
▁عاشورا	-12153
▁عنکبوت	-12154
▁لنزهای	-12155
▁معالجه	-12156
▁میدانی	-12157
▁ونکوور	-12158
▁ویراست	-12159
▁ویلسون	-12160
▁کماکان	-12161
▁گردشگر	-12162
▁استعفای	-12163
▁افتخاری	-12164
▁انباشته	-12165
▁بشناسند	-12166
▁بفروشید	-12167
▁تأسیسات	-12168
▁جغرافیا	-12169
▁خبرنامه	-12170
▁مهاجمان	-12171
▁ناآرامی	-12172
▁بازگشتند	-12173
▁میلیاردر	-12174
▁هیپنوتیزم	-12175
-6	-12176
/4	-12177
HS	-12178
LE	-12179
de	-12180
ei	-12181
na	-12182
اغ	-12183
وغ	-12184
َی	-12185
Bay	-12186
ape	-12187
ene	-12188
iam	-12189
ler	-12190
que	-12191
red	-12192
res	-12193
ئیل	-12194
دیو	-12195
سار	-12196
منظ	-12197
ودو	-12198
يات	-12199
▁76	-12200
▁82	-12201
▁BM	-12202
▁CT	-12203
▁by	-12204
ient	-12205
ning	-12206
اریو	-12207
بسته	-12208
عودی	-12209
موسی	-12210
هائی	-12211
هرگز	-12212
واژه	-12213
کینگ	-12214
▁(3)	-12215
▁186	-12216
▁God	-12217
▁Key	-12218
▁Mag	-12219
▁Mod	-12220
▁SSL	-12221
▁Vis	-12222
▁ایل	-12223
▁بتر	-12224
▁بتن	-12225
▁بیز	-12226
▁جوک	-12227
▁عذر	-12228
▁لان	-12229
▁مجذ	-12230
▁مکس	-12231
▁ناش	-12232
▁پرک	-12233
▁یور	-12234
▁1930	-12235
▁1995	-12236
▁تجلی	-12237
▁ترشح	-12238
▁ترند	-12239
▁جرأت	-12240
▁خلاء	-12241
▁دادی	-12242
▁دهها	-12243
▁رئال	-12244
▁عادل	-12245
▁عواط	-12246
▁فاکس	-12247
▁لطمه	-12248
▁نهنگ	-12249
▁پاول	-12250
▁کاذب	-12251
▁کنیا	-12252
▁کورت	-12253
▁گوان	-12254
▁گویش	-12255
▁یگان	-12256
ations	-12257
لوانیا	-12258
▁2018،	-12259
▁امامت	-12260
▁بخورم	-12261
▁بیایم	-12262
▁دیدگی	-12263
▁سفینه	-12264
▁شخصاً	-12265
▁فشاری	-12266
▁مادام	-12267
▁محتاج	-12268
▁مدیون	-12269
▁ملموس	-12270
▁منسجم	-12271
▁پردیس	-12272
▁پیامک	-12273
▁کتابش	-12274
▁کودتا	-12275
▁گردیم	-12276
▁Design	-12277
▁بپوشان	-12278
▁بپوشید	-12279
▁تدابیر	-12280
▁تضمینی	-12281
▁دادرسی	-12282
▁زادگاه	-12283
▁سروکار	-12284
▁لحظاتی	-12285
▁مالکان	-12286
▁مسلماً	-12287
▁میدهیم	-12288
▁ناسیون	-12289
▁هدایای	-12290
▁اعتراضی	-12291
▁تدارکات	-12292
▁جانوران	-12293
▁دریابید	-12294
▁میگیرند	-12295
▁نوشتاری	-12296
▁واقعیتی	-12297
▁گورستان	-12298
▁بازنویسی	-12299
▁درخواستی	-12300
▁سالخورده	-12301
▁فرزندشان	-12302
▁موثرترین	-12303
▁ناهنجاری	-12304
▁هشدارهای	-12305
▁هلیکوپتر	-12306
▁الکترومغن	-12307
▁تجدیدپذیر	-12308
▁خودروسازی	-12309
▁نمیتوانید	-12310
▁پیشنهادهای	-12311
/0	-12312
4]	-12313
75	-12314
Sp	-12315
ji	-12316
شل	-12317
قط	-12318
كس	-12319
َب	-12320
۴۰	-12321
TPS	-12322
ran	-12323
اهب	-12324
بوج	-12325
حاق	-12326
خون	-12327
روا	-12328
سوی	-12329
سیت	-12330
ودا	-12331
یدر	-12332
یفی	-12333
▁)،	-12334
▁.»	-12335
▁3.	-12336
▁62	-12337
▁68	-12338
▁93	-12339
▁Er	-12340
▁It	-12341
▁UC	-12342
▁بق	-12343
▁دق	-12344
▁چگ	-12345
▁ژل	-12346
▁۹۵	-12347
ates	-12348
azon	-12349
نانی	-12350
وقوع	-12351
ولتی	-12352
گوئه	-12353
▁170	-12354
▁2.5	-12355
▁Fac	-12356
▁Fil	-12357
▁اجس	-12358
▁زره	-12359
▁مدر	-12360
▁پيش	-12361
▁چاک	-12362
▁۱۲۰	-12363
ional	-12364
ستگان	-12365
▁1920	-12366
▁Life	-12367
▁اونس	-12368
▁تروت	-12369
▁حیطه	-12370
▁دهلی	-12371
▁عایق	-12372
▁عمرش	-12373
▁مکات	-12374
▁هوان	-12375
▁هیأت	-12376
▁هیچی	-12377
▁وارن	-12378
▁والی	-12379
▁وقتش	-12380
▁پراگ	-12381
▁اعراب	-12382
▁اعضاء	-12383
▁افریق	-12384
▁الکسا	-12385
▁براند	-12386
▁جاسوس	-12387
▁حضوری	-12388
▁خلیفه	-12389
▁خونین	-12390
▁سرشان	-12391
▁شناسه	-12392
▁فینال	-12393
▁قبولی	-12394
▁لوگوی	-12395
▁ماریا	-12396
▁مجذوب	-12397
▁مدتها	-12398
▁مندان	-12399
▁نابین	-12400
▁نرسید	-12401
▁کورتی	-12402
▁گرانش	-12403
▁گلبول	-12404
▁گلکسی	-12405
▁آمریكا	-12406
▁استیون	-12407
▁اقیانو	-12408
▁بنشیند	-12409
▁تمامیت	-12410
▁خردسال	-12411
▁خودتون	-12412
▁سردبیر	-12413
▁سوئیسی	-12414
▁فرزندم	-12415
▁قادرند	-12416
▁قلمداد	-12417
▁متناقض	-12418
▁منابعی	-12419
▁منیزیم	-12420
▁میکردم	-12421
▁میکروف	-12422
▁هولناک	-12423
▁چشمانش	-12424
▁گفتمان	-12425
▁انفجاری	-12426
▁اینچنین	-12427
▁بازرسان	-12428
▁سرگردان	-12429
▁عزاداری	-12430
▁مزایایی	-12431
▁اقامتگاه	-12432
▁جغرافیای	-12433
▁غیرمعمول	-12434
▁نیازمندی	-12435
▁استانداردها	-12436
▁واکسیناسیون	-12437
Ad	-12438
FA	-12439
br	-12440
اك	-12441
تف	-12442
فن	-12443
يط	-12444
پز	-12445
ada	-12446
che	-12447
lin	-12448
ote	-12449
unt	-12450
شنی	-12451
فعل	-12452
هاش	-12453
وزن	-12454
پتو	-12455
▁69	-12456
▁CB	-12457
▁PR	-12458
▁UN	-12459
▁؟!	-12460
▁جف	-12461
atic	-12462
ense	-12463
ideo	-12464
ادیم	-12465
بوری	-12466
جهان	-12467
دایی	-12468
رویی	-12469
شهری	-12470
عداد	-12471
وشاپ	-12472
پرین	-12473
چوست	-12474
‬‬‬‬	-12475
▁Inf	-12476
▁Tur	-12477
▁ارج	-12478
▁حری	-12479
▁درص	-12480
▁دلق	-12481
▁رئی	-12482
▁پشه	-12483
▁پنگ	-12484
▁کرک	-12485
▁گلو	-12486
بردار	-12487
مثلاً	-12488
پایان	-12489
پذیری	-12490
گرافی	-12491
▁Arch	-12492
▁View	-12493
▁اوّل	-12494
▁ترقی	-12495
▁تشعش	-12496
▁تشنه	-12497
▁تنبل	-12498
▁جرقه	-12499
▁خارش	-12500
▁رسوم	-12501
▁سموم	-12502
▁شدنی	-12503
▁عمدا	-12504
▁لابی	-12505
▁لغات	-12506
▁مشتق	-12507
▁ممنو	-12508
▁مونی	-12509
▁میشل	-12510
▁ناپل	-12511
▁نشدم	-12512
▁وانگ	-12513
▁پابر	-12514
▁پایش	-12515
▁گوجه	-12516
جارهای	-12517
▁اجسام	-12518
▁اسهال	-12519
▁اسکلت	-12520
▁بپرسم	-12521
▁بگویی	-12522
▁تابلو	-12523
▁رنگار	-12524
▁زبانه	-12525
▁ششمین	-12526
▁ضعیفی	-12527
▁قربان	-12528
▁ممتاز	-12529
▁میداد	-12530
▁نظاره	-12531
▁هیولا	-12532
▁چارلی	-12533
▁کامنت	-12534
▁اسلاید	-12535
▁اسکناس	-12536
▁اعمالی	-12537
▁خواهرم	-12538
▁دارنده	-12539
▁روایتی	-12540
▁فاشیسم	-12541
▁متراکم	-12542
▁مریدان	-12543
▁ناسالم	-12544
▁نکردید	-12545
▁کارآیی	-12546
▁Project	-12547
▁تصادفات	-12548
▁خوابیده	-12549
▁دخانیات	-12550
▁دوبرابر	-12551
▁روشنگری	-12552
▁فرآورده	-12553
▁مشروعیت	-12554
▁موفقیتی	-12555
▁نامیدند	-12556
▁همتایان	-12557
▁چهارچوب	-12558
▁بینندگان	-12559
▁بیگانگان	-12560
▁دیپلماسی	-12561
▁هولوکاست	-12562
▁پاسداران	-12563
▁فاکتورهای	-12564
▁بازداشتگاه	-12565
▁بیمارستانی	-12566
▁دانشجویانی	-12567
▁پارامترهای	-12568
/1	-12569
5]	-12570
HO	-12571
be	-12572
ya	-12573
اث	-12574
بخ	-12575
مخ	-12576
َع	-12577
alm	-12578
ray	-12579
بچه	-12580
بیح	-12581
ویا	-12582
▁3:	-12583
▁نن	-12584
▁گي	-12585
▁ین	-12586
▁۳۹	-12587
host	-12588
ited	-12589
اصری	-12590
الان	-12591
اپیم	-12592
جربه	-12593
زونا	-12594
شقاب	-12595
مجمو	-12596
منان	-12597
وبری	-12598
کتاپ	-12599
▁(10	-12600
▁آلا	-12601
▁ادب	-12602
▁اشی	-12603
▁خسا	-12604
▁میس	-12605
▁نگو	-12606
▁٢٠١	-12607
▁یزد	-12608
ستانه	-12609
کسالی	-12610
▁1993	-12611
▁Gold	-12612
▁Java	-12613
▁اسلو	-12614
▁بالی	-12615
▁بکشم	-12616
▁بیاد	-12617
▁جعفر	-12618
▁جوزف	-12619
▁دایی	-12620
▁سرکه	-12621
▁سویی	-12622
▁شویی	-12623
▁مفاد	-12624
▁میبا	-12625
▁نیوم	-12626
▁ژانر	-12627
ابولیک	-12628
میلیون	-12629
▁آبهای	-12630
▁آپدیت	-12631
▁اجابت	-12632
▁احضار	-12633
▁ارزشش	-12634
▁استال	-12635
▁الدین	-12636
▁اماکن	-12637
▁اونجا	-12638
▁ببینی	-12639
▁تسنیم	-12640
▁دهقان	-12641
▁شنویم	-12642
▁صورتش	-12643
▁فروند	-12644
▁فواصل	-12645
▁ملیتی	-12646
▁موسیق	-12647
▁میساز	-12648
▁نمایم	-12649
▁هرروز	-12650
▁ویزیت	-12651
▁Master	-12652
▁آرتریت	-12653
▁انحلال	-12654
▁بیابند	-12655
▁شیردهی	-12656
▁متشکرم	-12657
▁متوسطه	-12658
▁محتواه	-12659
▁ممنوعه	-12660
▁منچستر	-12661
▁نمائید	-12662
▁نوسازی	-12663
▁نویسید	-12664
▁ویرانی	-12665
▁YouTube	-12666
▁استغفار	-12667
▁بپیوندد	-12668
▁ترجیحات	-12669
▁حسابدار	-12670
▁خواستید	-12671
▁سرپرستی	-12672
▁غذاخوری	-12673
▁فرایندی	-12674
▁مستندات	-12675
▁نمیخواه	-12676
▁همخوانی	-12677
▁همکلاسی	-12678
▁کارولین	-12679
▁بازمانده	-12680
▁صورتحساب	-12681
▁فراخوانی	-12682
▁ماساچوست	-12683
▁یکپارچگی	-12684
▁بیماریهای	-12685
▁بازدیدکننده	-12686
48	-12687
7،	-12688
:0	-12689
>>	-12690
؟.	-12691
یج	-12692
amp	-12693
ral	-12694
yle	-12695
دیس	-12696
راط	-12697
قاد	-12698
پور	-12699
کلن	-12700
▁(0	-12701
▁كس	-12702
▁هش	-12703
▁۴٫	-12704
▁۴۷	-12705
زنان	-12706
شتان	-12707
واکی	-12708
▁10-	-12709
▁Ang	-12710
▁Don	-12711
▁Sil	-12712
▁Ver	-12713
▁you	-12714
▁آیم	-12715
▁غده	-12716
▁مفق	-12717
▁ندا	-12718
▁یعق	-12719
attle	-12720
eting	-12721
ایندی	-12722
تغییر	-12723
ماتور	-12724
مردان	-12725
▁1949	-12726
▁Blue	-12727
▁City	-12728
▁Jour	-12729
▁Part	-12730
▁ازبک	-12731
▁بدید	-12732
▁بیاف	-12733
▁تذکر	-12734
▁توکل	-12735
▁جسور	-12736
▁حقیق	-12737
▁دالر	-12738
▁دایر	-12739
▁روکش	-12740
▁عمدی	-12741
▁مستث	-12742
▁موعد	-12743
▁میهن	-12744
▁وصیت	-12745
▁پنبه	-12746
▁پنسی	-12747
▁کمیت	-12748
▁گامی	-12749
▁گرمی	-12750
▁یکصد	-12751
achine	-12752
▁آرتور	-12753
▁اجساد	-12754
▁استیل	-12755
▁اهدای	-12756
▁باورم	-12757
▁تساوی	-12758
▁تقلبی	-12759
▁توليد	-12760
▁جنگلی	-12761
▁خریدن	-12762
▁خندید	-12763
▁خواری	-12764
▁رباتی	-12765
▁روانه	-12766
▁روندی	-12767
▁ریگان	-12768
▁زمانه	-12769
▁صدمات	-12770
▁مانور	-12771
▁مزاحم	-12772
▁مسعود	-12773
▁وارده	-12774
▁پرشور	-12775
▁پولیس	-12776
▁کلاژن	-12777
انگلیسی	-12778
▁Mobile	-12779
▁الگویی	-12780
▁خوردگی	-12781
▁دسکتاپ	-12782
▁دندانی	-12783
▁دکترای	-12784
▁سریلان	-12785
▁فاضلاب	-12786
▁میتونه	-12787
▁نامنظم	-12788
▁نمیشود	-12789
▁پابرجا	-12790
▁کازینو	-12791
▁گنجینه	-12792
▁یونسکو	-12793
▁آریزونا	-12794
▁بفروشند	-12795
▁بلاکچین	-12796
▁درآوردن	-12797
▁رویدادی	-12798
▁فولیکول	-12799
▁مخلوقات	-12800
▁موبایلی	-12801
▁نامطلوب	-12802
▁نوسانات	-12803
▁داروسازی	-12804
▁رمزگشایی	-12805
▁سازمانها	-12806
▁صهیونیست	-12807
▁پذیرفتند	-12808
▁بروزرسانی	-12809
▁تاجیکستان	-12810
36	-12811
CO	-12812
CP	-12813
OI	-12814
Pl	-12815
Tr	-12816
mm	-12817
ss	-12818
رژ	-12819
ُل	-12820
۲۲	-12821
200	-12822
ify	-12823
yth	-12824
آنی	-12825
اکت	-12826
باش	-12827
شدت	-12828
ویو	-12829
پان	-12830
پنج	-12831
▁4)	-12832
▁EB	-12833
▁Kn	-12834
▁up	-12835
▁فط	-12836
▁كش	-12837
▁۴۲	-12838
▁۴۳	-12839
irst	-12840
mail	-12841
obal	-12842
vers	-12843
اریم	-12844
امید	-12845
دادی	-12846
ذاری	-12847
رسمی	-12848
سران	-12849
عهدی	-12850
قلاب	-12851
میان	-12852
▁185	-12853
▁Cle	-12854
▁Max	-12855
▁Sou	-12856
▁Way	-12857
▁XML	-12858
▁اجن	-12859
▁الق	-12860
▁بذر	-12861
▁بسا	-12862
▁خیز	-12863
▁درز	-12864
▁دهۀ	-12865
▁ریس	-12866
▁زیم	-12867
▁سده	-12868
▁صدد	-12869
▁فرن	-12870
▁نهی	-12871
▁هات	-12872
▁چمن	-12873
▁چید	-12874
▁کتب	-12875
▁۷۰۰	-12876
ident	-12877
oogle	-12878
آزادی	-12879
آیندی	-12880
▁1500	-12881
▁1988	-12882
▁دروس	-12883
▁دلقک	-12884
▁دونم	-12885
▁راوی	-12886
▁زایی	-12887
▁زشتی	-12888
▁سرنخ	-12889
▁سمبل	-12890
▁سندی	-12891
▁سورپ	-12892
▁ضمنی	-12893
▁مارچ	-12894
▁مبتل	-12895
▁میسر	-12896
▁نقاش	-12897
▁هلاک	-12898
▁ورای	-12899
▁گالی	-12900
▁گریز	-12901
▁یاهو	-12902
▁۱۹۲۰	-12903
بولانس	-12904
بیوتیک	-12905
▁HTTPS	-12906
▁ابرقه	-12907
▁اجماع	-12908
▁اسکای	-12909
▁اقرار	-12910
▁بخریم	-12911
▁بشقاب	-12912
▁بوسنی	-12913
▁بیندی	-12914
▁تفرقه	-12915
▁جنگند	-12916
▁جنگید	-12917
▁دیرتر	-12918
▁سؤالی	-12919
▁سندرز	-12920
▁شایان	-12921
▁عواطف	-12922
▁فوران	-12923
▁قرمزی	-12924
▁مخترع	-12925
▁مصداق	-12926
▁معتدل	-12927
▁مفصلی	-12928
▁ممکنه	-12929
▁منفعل	-12930
▁نشیمن	-12931
▁هواوی	-12932
▁وسواس	-12933
▁پسوند	-12934
▁گلدان	-12935
▁یکسری	-12936
▁Street	-12937
▁انحصار	-12938
▁باوجود	-12939
▁بوتاکس	-12940
▁بیچاره	-12941
▁دریاها	-12942
▁سالیان	-12943
▁شاهدان	-12944
▁فتوشاپ	-12945
▁فرستند	-12946
▁فضاپیم	-12947
▁مغزتان	-12948
▁ناکامی	-12949
▁نواختن	-12950
▁هشداری	-12951
▁همچنين	-12952
▁پذیرای	-12953
▁پلاسما	-12954
▁کابینت	-12955
▁کامبوج	-12956
▁کتابها	-12957
▁گوینده	-12958
▁یکباره	-12959
▁ارتجاعی	-12960
▁افزارها	-12961
▁افزودنی	-12962
▁انتظارش	-12963
▁تروتسکی	-12964
▁خشکسالی	-12965
▁زیستگاه	-12966
▁شناختند	-12967
▁قاطعانه	-12968
▁لینکدین	-12969
▁نیفتاده	-12970
▁پافشاری	-12971
▁پرهزینه	-12972
▁پشیمانی	-12973
▁نامزدهای	-12974
▁هواشناسی	-12975
▁ویدئوهای	-12976
▁پاکستانی	-12977
▁پروتستان	-12978
▁گیگابایت	-12979
▁دایرکتوری	-12980
An	-12981
CG	-12982
CH	-12983
NG	-12984
UR	-12985
؟)	-12986
صف	-12987
لل	-12988
ots	-12989
ret	-12990
the	-12991
ازد	-12992
جره	-12993
صاد	-12994
علا	-12995
هاى	-12996
کشی	-12997
▁5:	-12998
▁67	-12999
▁79	-13000
▁88	-13001
▁To	-13002
▁he	-13003
▁sc	-13004
▁لج	-13005
▁چو	-13006
...)	-13007
flix	-13008
الیه	-13009
رداد	-13010
زلزل	-13011
فروش	-13012
قانی	-13013
ماری	-13014
ودگی	-13015
▁Ber	-13016
▁Ter	-13017
▁اوم	-13018
▁سول	-13019
▁شات	-13020
▁طفل	-13021
▁عجب	-13022
▁عدل	-13023
▁لوط	-13024
▁مغل	-13025
▁وفق	-13026
▁پلک	-13027
▁پُر	-13028
▁کلر	-13029
▁کوپ	-13030
▁گار	-13031
Cloud	-13032
ittle	-13033
زستان	-13034
زیستی	-13035
شتاین	-13036
شماری	-13037
ولوشن	-13038
ژانسی	-13039
▁1991	-13040
▁Book	-13041
▁Park	-13042
▁ارضی	-13043
▁اسکو	-13044
▁بترس	-13045
▁تیمش	-13046
▁جیمی	-13047
▁زدگی	-13048
▁ضمیر	-13049
▁لانه	-13050
▁لاین	-13051
▁لهجه	-13052
▁مؤسس	-13053
▁مقال	-13054
▁وخیم	-13055
▁یادت	-13056
▁۳۰۰۰	-13057
رفتاری	-13058
▁David	-13059
▁Media	-13060
▁اسکنر	-13061
▁اشاعه	-13062
▁بیروت	-13063
▁تشریف	-13064
▁جوراب	-13065
▁درخشش	-13066
▁سازان	-13067
▁سهمیه	-13068
▁عنایت	-13069
▁لیاقت	-13070
▁ملوان	-13071
▁منافق	-13072
▁منزله	-13073
▁منشاء	-13074
▁هجدهم	-13075
▁واضحی	-13076
▁کلیوی	-13077
▁گزینش	-13078
▁گلوتن	-13079
ization	-13080
▁Chrome	-13081
▁Studio	-13082
▁خسارات	-13083
▁شانزده	-13084
▁نبودیم	-13085
▁نخورید	-13086
▁پیداست	-13087
▁برسانیم	-13088
▁بیندازد	-13089
▁تلاشهای	-13090
▁جداسازی	-13091
▁رساندند	-13092
▁رنگارنگ	-13093
▁زاکربرگ	-13094
▁سالهاست	-13095
▁شادمانی	-13096
▁فرآیندی	-13097
▁مستعمره	-13098
▁معادلات	-13099
▁پانزدهم	-13100
▁Security	-13101
▁استعماری	-13102
▁انداختند	-13103
▁خودآگاهی	-13104
▁روستاهای	-13105
▁میخواهیم	-13106
▁ناپایدار	-13107
▁کاربرانی	-13108
▁کلیدواژه	-13109
▁تماشاگران	-13110
▁فیزیوتراپی	-13111
▁پنسیلوانیا	-13112
.“	-13113
26	-13114
27	-13115
29	-13116
TH	-13117
sy	-13118
حز	-13119
فد	-13120
Con	-13121
ets	-13122
uty	-13123
دون	-13124
ریا	-13125
سند	-13126
شاه	-13127
هری	-13128
کول	-13129
▁AL	-13130
▁BP	-13131
▁GT	-13132
▁IN	-13133
▁LG	-13134
▁NF	-13135
▁فح	-13136
▁قن	-13137
▁گس	-13138
ific	-13139
uter	-13140
حالا	-13141
خرید	-13142
راگم	-13143
كنون	-13144
نینگ	-13145
وبیل	-13146
▁Cra	-13147
▁Vir	-13148
▁آرک	-13149
▁آنگ	-13150
▁ابو	-13151
▁اره	-13152
▁اگز	-13153
▁بغل	-13154
▁تشک	-13155
▁دسر	-13156
▁شكل	-13157
▁شیم	-13158
▁عطف	-13159
▁لور	-13160
▁لگن	-13161
▁موث	-13162
▁موه	-13163
▁هرز	-13164
▁ورم	-13165
agram	-13166
inter	-13167
▁(199	-13168
▁4000	-13169
▁With	-13170
▁Your	-13171
▁iPad	-13172
▁آجیل	-13173
▁باین	-13174
▁بتمن	-13175
▁بنفش	-13176
▁بوسه	-13177
▁بوکس	-13178
▁تهمت	-13179
▁شرور	-13180
▁فرما	-13181
▁قضات	-13182
▁مالت	-13183
▁ماین	-13184
▁متفق	-13185
▁مودم	-13186
▁مورخ	-13187
▁میشن	-13188
▁میگه	-13189
▁هاوک	-13190
▁هرجا	-13191
▁هیول	-13192
▁چنين	-13193
▁کاسه	-13194
▁کنيد	-13195
▁گارا	-13196
▁یتیم	-13197
افراگم	-13198
انتخاب	-13199
ستردام	-13200
▁Smart	-13201
▁اسارت	-13202
▁اسحاق	-13203
▁اصولا	-13204
▁بشوید	-13205
▁بشویم	-13206
▁تعمیم	-13207
▁تماسی	-13208
▁توفیق	-13209
▁جراحت	-13210
▁جوانه	-13211
▁حوالی	-13212
▁درآور	-13213
▁دوقلو	-13214
▁دویست	-13215
▁شرافت	-13216
▁صحرای	-13217
▁صلیبی	-13218
▁محمود	-13219
▁مطبوع	-13220
▁مفقود	-13221
▁منجمد	-13222
▁موسوی	-13223
▁نگیرد	-13224
▁کربلا	-13225
▁کشمکش	-13226
▁کنارش	-13227
▁گوارش	-13228
▁Analyt	-13229
▁Instit	-13230
▁آسانتر	-13231
▁آموزند	-13232
▁آنگونه	-13233
▁استریت	-13234
▁باارزش	-13235
▁بخشهای	-13236
▁برادری	-13237
▁برایان	-13238
▁حاکمان	-13239
▁خطراتی	-13240
▁رویاها	-13241
▁سوزاند	-13242
▁طلبانه	-13243
▁مارشال	-13244
▁ناکافی	-13245
▁نباشیم	-13246
▁نشریات	-13247
▁هرآنچه	-13248
▁گرمایی	-13249
▁گفتاری	-13250
▁آمارهای	-13251
▁استبداد	-13252
▁امتیازی	-13253
▁جزئیاتی	-13254
▁مجبورند	-13255
▁پسندیده	-13256
▁کوکائین	-13257
▁گناهکار	-13258
▁American	-13259
▁آتلانتیک	-13260
▁آمبولانس	-13261
▁بازتولید	-13262
▁بپیوندند	-13263
▁جستجوهای	-13264
▁سنسورهای	-13265
▁سیستمهای	-13266
▁فرستادند	-13267
▁ورشکستگی	-13268
▁نورپردازی	-13269
▁کارگزاران	-13270
"(	-13271
-0	-13272
we	-13273
ye	-13274
عن	-13275
گس	-13276
▁٤	-13277
:00	-13278
aps	-13279
ino	-13280
osh	-13281
ren	-13282
الف	-13283
جیم	-13284
صاف	-13285
غری	-13286
فیع	-13287
لفل	-13288
ندو	-13289
نسی	-13290
واز	-13291
▁RF	-13292
▁TR	-13293
▁TV	-13294
▁be	-13295
adem	-13296
awei	-13297
face	-13298
play	-13299
؟...	-13300
اتیو	-13301
وظبی	-13302
ومات	-13303
ینفع	-13304
▁CPU	-13305
▁Dom	-13306
▁GDP	-13307
▁How	-13308
▁MRI	-13309
▁باط	-13310
▁دیم	-13311
▁رفر	-13312
▁ریو	-13313
▁مگا	-13314
▁ورا	-13315
▁چرت	-13316
.....	-13317
chain	-13318
velop	-13319
انرژی	-13320
خواهد	-13321
گرانه	-13322
▁Dark	-13323
▁Love	-13324
▁آکنه	-13325
▁اینا	-13326
▁تموم	-13327
▁تیتر	-13328
▁جواد	-13329
▁رقیق	-13330
▁ریال	-13331
▁سنتز	-13332
▁شسته	-13333
▁غلطی	-13334
▁فسیل	-13335
▁لشکر	-13336
▁مائو	-13337
▁ماکس	-13338
▁متجا	-13339
▁مجید	-13340
▁مرکل	-13341
▁نهار	-13342
▁نياز	-13343
▁پارا	-13344
▁پرسم	-13345
▁پسرب	-13346
▁کنده	-13347
▁کوری	-13348
▁کینه	-13349
▁یادش	-13350
ادیمیر	-13351
▁آمدیم	-13352
▁آمرزش	-13353
▁ابلیس	-13354
▁اکران	-13355
▁بلوتو	-13356
▁بمیرد	-13357
▁تدبیر	-13358
▁صعودی	-13359
▁قرآنی	-13360
▁قومیت	-13361
▁مابقی	-13362
▁معصوم	-13363
▁مملکت	-13364
▁منشور	-13365
▁میکنن	-13366
▁نشستم	-13367
▁هراسی	-13368
▁پاشنه	-13369
کنولوژی	-13370
▁ابوظبی	-13371
▁اختصار	-13372
▁استیشن	-13373
▁ببخشند	-13374
▁براتون	-13375
▁برندها	-13376
▁برگزید	-13377
▁بولیوی	-13378
▁خراسان	-13379
▁دلپذیر	-13380
▁سربازی	-13381
▁صمیمیت	-13382
▁عمیقاً	-13383
▁فولادی	-13384
▁وزیران	-13385
▁ویدیوی	-13386
▁پنگوئن	-13387
▁پیشتاز	-13388
▁گراهام	-13389
▁Digital	-13390
▁Edition	-13391
▁Manager	-13392
▁Science	-13393
▁آموزنده	-13394
▁بازیکنی	-13395
▁سوزانده	-13396
▁مادرشان	-13397
▁نپذیرفت	-13398
▁وارداتی	-13399
▁وکارهای	-13400
▁کارنامه	-13401
▁آمستردام	-13402
▁اظهارنظر	-13403
▁اورژانسی	-13404
▁بیندازیم	-13405
▁غیرطبیعی	-13406
▁مارکسیسم	-13407
▁مخابراتی	-13408
▁آموزگاران	-13409
▁باکتریایی	-13410
▁سونوگرافی	-13411
▁سپاسگزارم	-13412
%)	-13413
/5	-13414
AB	-13415
Al	-13416
DM	-13417
GA	-13418
Hz	-13419
TO	-13420
ضت	-13421
قف	-13422
▁z	-13423
elf	-13424
ius	-13425
ody	-13426
urr	-13427
سمت	-13428
عاب	-13429
میع	-13430
يون	-13431
▁3)	-13432
▁GP	-13433
▁IM	-13434
▁ex	-13435
▁le	-13436
▁غض	-13437
▁۷۲	-13438
ible	-13439
idge	-13440
lege	-13441
ones	-13442
ours	-13443
آمده	-13444
هایو	-13445
وندی	-13446
وکار	-13447
چهار	-13448
کوین	-13449
▁130	-13450
▁187	-13451
▁Cal	-13452
▁DVD	-13453
▁Ins	-13454
▁Reg	-13455
▁SQL	-13456
▁بيش	-13457
▁جبر	-13458
▁حیث	-13459
▁رقی	-13460
▁روت	-13461
▁زوم	-13462
▁ساب	-13463
▁شتم	-13464
▁شوخ	-13465
▁عتی	-13466
▁فام	-13467
▁فوک	-13468
▁قائ	-13469
▁معذ	-13470
▁هاف	-13471
▁هرو	-13472
▁همو	-13473
▁هود	-13474
▁هوم	-13475
▁پوچ	-13476
▁کسر	-13477
▁کیش	-13478
ضروری	-13479
ودنسی	-13480
ونیوم	-13481
▁Char	-13482
▁News	-13483
▁Plus	-13484
▁Rock	-13485
▁eBay	-13486
▁آیپد	-13487
▁اهرم	-13488
▁اولا	-13489
▁تونه	-13490
▁جائی	-13491
▁حرمت	-13492
▁شاتر	-13493
▁شنوم	-13494
▁طاقت	-13495
▁كردم	-13496
▁كودك	-13497
▁مرکب	-13498
▁مشکی	-13499
▁مومی	-13500
▁نامد	-13501
▁نسلی	-13502
▁وزنی	-13503
▁گردی	-13504
▁۱۹۴۵	-13505
توانند	-13506
شناسان	-13507
هنگامی	-13508
ینگتون	-13509
▁Games	-13510
▁ابتکا	-13511
▁ارسطو	-13512
▁ازدست	-13513
▁افسوس	-13514
▁المثل	-13515
▁انزوا	-13516
▁بازرس	-13517
▁برهنه	-13518
▁بیابد	-13519
▁تجربۀ	-13520
▁تسلیت	-13521
▁جامعۀ	-13522
▁خرداد	-13523
▁خلافت	-13524
▁دزدان	-13525
▁رساله	-13526
▁روتین	-13527
▁سانحه	-13528
▁سوزنی	-13529
▁فضیلت	-13530
▁فعلاً	-13531
▁مارول	-13532
▁مذاهب	-13533
▁مزبور	-13534
▁مستحق	-13535
▁منعقد	-13536
▁موردش	-13537
▁نجومی	-13538
▁نمیده	-13539
▁هرچیز	-13540
▁واحدی	-13541
▁پاراد	-13542
▁پسورد	-13543
▁پورشه	-13544
▁کشورم	-13545
▁گاراژ	-13546
▁یعقوب	-13547
▁Huawei	-13548
▁Office	-13549
▁انتصاب	-13550
▁انگیزش	-13551
▁برنارد	-13552
▁بشناسد	-13553
▁تکالیف	-13554
▁راستین	-13555
▁سالمند	-13556
▁سندروم	-13557
▁شناختم	-13558
▁طبیعتا	-13559
▁مشورتی	-13560
▁مورگان	-13561
▁میانجی	-13562
▁ناگفته	-13563
▁نمیتون	-13564
▁هوادار	-13565
▁پسربچه	-13566
▁پیشینی	-13567
▁کارتون	-13568
▁یونیسف	-13569
▁اثرگذار	-13570
▁اشتراکی	-13571
▁قبرستان	-13572
▁محافظتی	-13573
▁نتوانیم	-13574
▁پرجمعیت	-13575
▁کارآگاه	-13576
▁آنابولیک	-13577
▁دیافراگم	-13578
▁سریلانکا	-13579
▁سورپرایز	-13580
▁میتوانیم	-13581
▁نویسندگی	-13582
▁ولادیمیر	-13583
▁بازرگانان	-13584
▁برگردانده	-13585
▁قراردادها	-13586
-8	-13587
LC	-13588
ki	-13589
ky	-13590
lt	-13591
ms	-13592
oS	-13593
وژ	-13594
!».	-13595
any	-13596
bit	-13597
ارۀ	-13598
اوا	-13599
بست	-13600
توم	-13601
تیش	-13602
درب	-13603
درو	-13604
ظمی	-13605
لاغ	-13606
مگر	-13607
نیت	-13608
يست	-13609
▁("	-13610
▁74	-13611
▁86	-13612
▁IU	-13613
▁JP	-13614
▁Ma	-13615
▁حك	-13616
▁وآ	-13617
ines	-13618
ouch	-13619
ازیس	-13620
ایتد	-13621
بهشت	-13622
خالی	-13623
زیکو	-13624
سیته	-13625
ضاعف	-13626
لیکس	-13627
وارت	-13628
ولیب	-13629
▁139	-13630
▁3.5	-13631
▁365	-13632
▁Bur	-13633
▁Sun	-13634
▁[1]	-13635
▁con	-13636
▁آلپ	-13637
▁الب	-13638
▁خصل	-13639
▁دلی	-13640
▁ریل	-13641
▁عقد	-13642
▁فاح	-13643
▁فره	-13644
▁فیت	-13645
▁مبد	-13646
▁مفر	-13647
سیستم	-13648
▁1975	-13649
▁High	-13650
▁Sony	-13651
▁Work	-13652
▁اسپی	-13653
▁بازو	-13654
▁برام	-13655
▁بشدت	-13656
▁توقی	-13657
▁جدال	-13658
▁حسرت	-13659
▁ذغال	-13660
▁رویش	-13661
▁ساقه	-13662
▁فیلد	-13663
▁قرعه	-13664
▁كاری	-13665
▁محسن	-13666
▁مشرک	-13667
▁منسو	-13668
▁مولد	-13669
▁هدست	-13670
▁واتس	-13671
▁وجوی	-13672
▁پترز	-13673
▁پدیا	-13674
▁۱۹۶۸	-13675
▁۱۹۷۹	-13676
▁۱۹۹۲	-13677
مجموعه	-13678
▁توانا	-13679
▁خصومت	-13680
▁دانیل	-13681
▁درسال	-13682
▁دلسرد	-13683
▁دهانش	-13684
▁ذینفع	-13685
▁شرارت	-13686
▁شراکت	-13687
▁شلوغی	-13688
▁فیلاد	-13689
▁مارکو	-13690
▁متذکر	-13691
▁محصور	-13692
▁مطلبی	-13693
▁مغلوب	-13694
▁منصرف	-13695
▁نزولی	-13696
▁پررنگ	-13697
▁چنگال	-13698
▁کاپیت	-13699
دانشگاه	-13700
▁Amazon	-13701
▁Battle	-13702
▁آسپرین	-13703
▁آمارها	-13704
▁آمیخته	-13705
▁اتفاقا	-13706
▁ادعایی	-13707
▁الوقوع	-13708
▁انسجام	-13709
▁اپیزود	-13710
▁باورها	-13711
▁برکنار	-13712
▁بلوتوث	-13713
▁بندهای	-13714
▁بپرسیم	-13715
▁تجارتی	-13716
▁خاکستر	-13717
▁خندیدن	-13718
▁روابطی	-13719
▁زندگیم	-13720
▁سرازیر	-13721
▁ماندنی	-13722
▁مگاوات	-13723
▁میدهید	-13724
▁Express	-13725
▁Netflix	-13726
▁آرامگاه	-13727
▁آناتومی	-13728
▁استثناء	-13729
▁افزایشی	-13730
▁انیشتین	-13731
▁تماشاگر	-13732
▁غیرعادی	-13733
▁معنادار	-13734
▁موردنظر	-13735
▁میدانیم	-13736
▁ناپذیری	-13737
▁کلیساها	-13738
▁احتمالات	-13739
▁ارتودنسی	-13740
▁استادیوم	-13741
▁اندازهای	-13742
▁دریافتیم	-13743
▁ماندگاری	-13744
▁موجوداتی	-13745
▁دستگاههای	-13746
▁قدرتمندتر	-13747
▁تاثیرگذاری	-13748
▁فرزندانمان	-13749
▁پستانداران	-13750
▁بنیانگذاران	-13751
/3	-13752
DR	-13753
VR	-13754
طۀ	-13755
يع	-13756
۹۹	-13757
acy	-13758
asp	-13759
asy	-13760
dom	-13761
enz	-13762
oon	-13763
جیب	-13764
زول	-13765
مدن	-13766
نند	-13767
هنر	-13768
وفر	-13769
گذر	-13770
▁".	-13771
▁53	-13772
▁MC	-13773
▁Mi	-13774
▁al	-13775
▁op	-13776
▁pr	-13777
▁نط	-13778
▁یِ	-13779
▁۵۲	-13780
ales	-13781
الحه	-13782
انیت	-13783
بارا	-13784
تونی	-13785
رابی	-13786
زنده	-13787
زیرا	-13788
غیان	-13789
فشان	-13790
▁1.0	-13791
▁She	-13792
▁آذر	-13793
▁ابی	-13794
▁تبر	-13795
▁تزی	-13796
▁تفص	-13797
▁تیت	-13798
▁ذوق	-13799
▁شاپ	-13800
▁طبع	-13801
▁طمع	-13802
▁غای	-13803
▁لند	-13804
▁نفی	-13805
▁هوس	-13806
▁وثی	-13807
▁ویز	-13808
▁پیل	-13809
▁چتر	-13810
▁چیپ	-13811
▁کسل	-13812
board	-13813
منطقه	-13814
نهایت	-13815
وریان	-13816
کسپیر	-13817
گرفتن	-13818
یرانی	-13819
▁(198	-13820
▁1200	-13821
▁Card	-13822
▁Evil	-13823
▁File	-13824
▁Tool	-13825
▁بحثی	-13826
▁بسوی	-13827
▁بپرد	-13828
▁تامپ	-13829
▁جارو	-13830
▁ریلی	-13831
▁سکان	-13832
▁فطرت	-13833
▁فلفل	-13834
▁قدمی	-13835
▁لایت	-13836
▁لمسی	-13837
▁لوسی	-13838
▁هموط	-13839
▁پتاس	-13840
▁چروک	-13841
▁کاشی	-13842
▁کوبی	-13843
▁۱۹۹۶	-13844
ograph	-13845
احتمال	-13846
داستان	-13847
▁Adobe	-13848
▁White	-13849
▁اطلاق	-13850
▁الحاق	-13851
▁ايشان	-13852
▁ایندی	-13853
▁باطری	-13854
▁تجلیل	-13855
▁تحکیم	-13856
▁جویان	-13857
▁حماقت	-13858
▁خطایی	-13859
▁درسته	-13860
▁دیکته	-13861
▁رحمان	-13862
▁رفتید	-13863
▁زندگي	-13864
▁شهریه	-13865
▁غریبی	-13866
▁كننده	-13867
▁لیزری	-13868
▁مابین	-13869
▁مسموم	-13870
▁مضاعف	-13871
▁مهمات	-13872
▁نشیند	-13873
▁نکشید	-13874
▁کردار	-13875
فرانسیس	-13876
▁الزامی	-13877
▁بردگان	-13878
▁دورانی	-13879
▁راکتور	-13880
▁رسیدید	-13881
▁مراقبه	-13882
▁منازعه	-13883
▁واشینگ	-13884
▁پورتال	-13885
▁پوستان	-13886
........	-13887
▁Control	-13888
▁احتیاجی	-13889
▁بنشینند	-13890
▁تهدیدها	-13891
▁حواستان	-13892
▁خالکوبی	-13893
▁دوازدهم	-13894
▁سایتهای	-13895
▁سلیمانی	-13896
▁فریبنده	-13897
▁متحدانش	-13898
▁میباشند	-13899
▁میشیگان	-13900
▁نقدینگی	-13901
▁نیتروژن	-13902
▁نیکوتین	-13903
▁کنتراست	-13904
▁گفتگوها	-13905
▁بکارگیری	-13906
▁دانمارکی	-13907
▁فرانکلین	-13908
▁مسئولیتی	-13909
▁هوانوردی	-13910
▁ویرایشگر	-13911
▁دوستداران	-13912
▁ایدئولوژیک	-13913
49	-13914
6،	-13915
:5	-13916
EX	-13917
TM	-13918
Th	-13919
mg	-13920
ml	-13921
آخ	-13922
َت	-13923
ُن	-13924
ِم	-13925
▁ً	-13926
EST	-13927
ied	-13928
por	-13929
الک	-13930
دگی	-13931
رمی	-13932
زاس	-13933
هدف	-13934
وما	-13935
َّه	-13936
▁(9	-13937
▁3،	-13938
▁Az	-13939
▁Ob	-13940
▁wh	-13941
▁خُ	-13942
▁ري	-13943
▁ظل	-13944
▁قذ	-13945
Book	-13946
ason	-13947
berg	-13948
ices	-13949
ther	-13950
رابر	-13951
راته	-13952
رستی	-13953
لفیا	-13954
همین	-13955
گردی	-13956
▁1.2	-13957
▁105	-13958
▁Del	-13959
▁Hon	-13960
▁Lab	-13961
▁May	-13962
▁برز	-13963
▁بيم	-13964
▁تیک	-13965
▁دوک	-13966
▁راج	-13967
▁رید	-13968
▁زان	-13969
▁طاق	-13970
▁قفق	-13971
▁لید	-13972
▁یان	-13973
ature	-13974
تاریخ	-13975
رالله	-13976
وجرسی	-13977
کسیون	-13978
گواری	-13979
یاطین	-13980
▁1968	-13981
▁1969	-13982
▁Paul	-13983
▁آمدی	-13984
▁ابله	-13985
▁اجاق	-13986
▁السّ	-13987
▁بدنم	-13988
▁برفی	-13989
▁برهه	-13990
▁بیعت	-13991
▁بیوه	-13992
▁خراش	-13993
▁قالی	-13994
▁لوتر	-13995
▁محول	-13996
▁مصوب	-13997
▁میرز	-13998
▁نظرت	-13999
▁نهضت	-14000
▁نوپا	-14001
▁هویج	-14002
▁ونیز	-14003
▁گراف	-14004
▁۱۹۹۴	-14005
بسیاری	-14006
▁Block	-14007
▁React	-14008
▁اشتها	-14009
▁انگور	-14010
▁باغچه	-14011
▁تلفیق	-14012
▁توحید	-14013
▁تیلور	-14014
▁خبرها	-14015
▁خریدم	-14016
▁دلالت	-14017
▁راهنم	-14018
▁زننده	-14019
▁سانتا	-14020
▁سردار	-14021
▁سیارک	-14022
▁شماها	-14023
▁صدایش	-14024
▁فردای	-14025
▁قبایل	-14026
▁مادرت	-14027
▁متوسل	-14028
▁منقرض	-14029
▁نابار	-14030
▁نادان	-14031
▁نوشند	-14032
▁نیمکت	-14033
▁وکالت	-14034
▁کولون	-14035
▁گاوها	-14036
▁Center	-14037
▁احتراق	-14038
▁ارسالی	-14039
▁اندازۀ	-14040
▁انزوای	-14041
▁بورسیه	-14042
▁تورهای	-14043
▁جنگیدن	-14044
▁خجالتی	-14045
▁خردمند	-14046
▁دستشان	-14047
▁دمکرات	-14048
▁دیداری	-14049
▁فرضیات	-14050
▁متنفرم	-14051
▁مصالحه	-14052
▁نهادها	-14053
▁نوشتند	-14054
▁هرکاری	-14055
▁پذیرتر	-14056
▁پذیریم	-14057
▁پروازی	-14058
▁کدامیک	-14059
▁کریستی	-14060
▁استعاره	-14061
▁امریکای	-14062
▁باغبانی	-14063
▁درصورتی	-14064
▁دینامیک	-14065
▁رزولوشن	-14066
▁غیررسمی	-14067
▁مبتدیان	-14068
▁متفکران	-14069
▁میدانند	-14070
▁نمادهای	-14071
▁واگذاری	-14072
▁پوسیدگی	-14073
▁کارآمدی	-14074
▁Research	-14075
▁اجتماعات	-14076
▁ازبکستان	-14077
▁استنفورد	-14078
▁بدرفتاری	-14079
▁برندسازی	-14080
▁بپرهیزید	-14081
▁بیاندازد	-14082
▁دندانهای	-14083
▁میخواستم	-14084
▁ویدیوهای	-14085
▁پترزبورگ	-14086
▁پیمانکار	-14087
▁کاندیدای	-14088
▁Analytics	-14089
▁بازیکنانی	-14090
▁رفتارهایی	-14091
▁نگهدارنده	-14092
▁پروبیوتیک	-14093
▁پیمانکاران	-14094
")	-14095
8]	-14096
Te	-14097
__	-14098
yr	-14099
۳۵	-14100
ily	-14101
ird	-14102
irl	-14103
oph	-14104
uss	-14105
vil	-14106
ايش	-14107
بطه	-14108
ساط	-14109
لوک	-14110
مرگ	-14111
نفر	-14112
▁Ap	-14113
▁CM	-14114
▁CR	-14115
▁DS	-14116
▁دژ	-14117
▁ضل	-14118
▁قح	-14119
▁۴۱	-14120
ends	-14121
icro	-14122
ocal	-14123
ایقی	-14124
تماس	-14125
خوری	-14126
روال	-14127
زیست	-14128
شرفت	-14129
فکری	-14130
قابل	-14131
قیمت	-14132
لایی	-14133
لیان	-14134
والی	-14135
پناه	-14136
گراف	-14137
ینیو	-14138
▁Bat	-14139
▁Fre	-14140
▁Hot	-14141
▁Hum	-14142
▁LDL	-14143
▁Log	-14144
▁San	-14145
▁Tag	-14146
▁Vol	-14147
▁ser	-14148
▁آتن	-14149
▁آلف	-14150
▁الت	-14151
▁باگ	-14152
▁بهر	-14153
▁حلب	-14154
▁داگ	-14155
▁دري	-14156
▁دیک	-14157
▁رین	-14158
▁سست	-14159
▁سکو	-14160
▁عیس	-14161
▁فنگ	-14162
▁قور	-14163
▁لئو	-14164
▁لاب	-14165
▁هرم	-14166
ather	-14167
اندون	-14168
تروری	-14169
تیوپی	-14170
سالان	-14171
لاستی	-14172
نتاین	-14173
ورتون	-14174
کسانی	-14175
▁1940	-14176
▁Auto	-14177
▁Fire	-14178
▁Prof	-14179
▁«...	-14180
▁آراء	-14181
▁ابرو	-14182
▁افکن	-14183
▁الهه	-14184
▁اولش	-14185
▁ایند	-14186
▁بذار	-14187
▁بورو	-14188
▁تراش	-14189
▁تنزل	-14190
▁جديد	-14191
▁خبره	-14192
▁شلاق	-14193
▁شهود	-14194
▁غلام	-14195
▁مایا	-14196
▁مبدا	-14197
▁مداد	-14198
▁نبین	-14199
▁نرود	-14200
▁نشاط	-14201
▁والت	-14202
▁واین	-14203
▁پدرت	-14204
▁پرتی	-14205
▁کمیک	-14206
▁۱۹۹۹	-14207
ration	-14208
▁2008،	-14209
▁2013،	-14210
▁Class	-14211
▁Image	-14212
▁Trump	-14213
▁آنانی	-14214
▁ابلاغ	-14215
▁اجزاء	-14216
▁اجناس	-14217
▁بسازم	-14218
▁بهتره	-14219
▁تبعات	-14220
▁تسویه	-14221
▁تشبیه	-14222
▁تشییع	-14223
▁توقیف	-14224
▁جادوی	-14225
▁جواهر	-14226
▁راندن	-14227
▁روسای	-14228
▁زیستن	-14229
▁سرانه	-14230
▁سرهنگ	-14231
▁شفاعت	-14232
▁غیرمت	-14233
▁فامیل	-14234
▁فوتون	-14235
▁كنترل	-14236
▁لعنتی	-14237
▁متعاق	-14238
▁محفظه	-14239
▁مداری	-14240
▁مشخصا	-14241
▁مقتضی	-14242
▁نظافت	-14243
▁نوزده	-14244
▁پهلوی	-14245
▁کرامت	-14246
▁کلاسی	-14247
▁گرامر	-14248
▁گرانب	-14249
▁گزاره	-14250
▁Health	-14251
▁Little	-14252
▁Online	-14253
▁اتیوپی	-14254
▁بخشنده	-14255
▁توصیفی	-14256
▁جراحان	-14257
▁جویانه	-14258
▁خصوصیت	-14259
▁خودران	-14260
▁رسانید	-14261
▁شکسپیر	-14262
▁شیاطین	-14263
▁لبنانی	-14264
▁معجزات	-14265
▁نئولیب	-14266
▁نامشخص	-14267
▁ناوبری	-14268
▁ناگوار	-14269
▁پاناما	-14270
▁پتاسیم	-14271
▁پوپولی	-14272
▁پیمایش	-14273
▁کارانه	-14274
▁کاروان	-14275
▁کاکائو	-14276
▁کودتای	-14277
▁گاردین	-14278
▁گذرگاه	-14279
▁گوارشی	-14280
▁یادگار	-14281
▁College	-14282
▁Service	-14283
▁اندیشید	-14284
▁بنیامین	-14285
▁جادوگری	-14286
▁جاناتان	-14287
▁دربرابر	-14288
▁دولتهای	-14289
▁سفارشات	-14290
▁صادراتی	-14291
▁صورتیکه	-14292
▁مصدومیت	-14293
▁معیارها	-14294
▁مقاومتی	-14295
▁هامبورگ	-14296
▁والدینی	-14297
▁گذاشتیم	-14298
▁Facebook	-14299
▁آپارتاید	-14300
▁بورژوایی	-14301
▁نتوانستم	-14302
▁نمایانگر	-14303
▁نگهبانان	-14304
▁بیاندازید	-14305
▁روانپزشکی	-14306
▁سفارتخانه	-14307
▁فیلادلفیا	-14308
▁سخاوتمندانه	-14309
//	-14310
64	-14311
DS	-14312
FS	-14313
Un	-14314
ba	-14315
da	-14316
أن	-14317
ذا	-14318
لح	-14319
يخ	-14320
يق	-14321
۴۵	-14322
۷۰	-14323
۹۰	-14324
arg	-14325
off	-14326
pro	-14327
حان	-14328
دال	-14329
رزد	-14330
زمه	-14331
شاد	-14332
مئن	-14333
مهم	-14334
هان	-14335
وفی	-14336
کمک	-14337
یته	-14338
▁58	-14339
▁AN	-14340
▁JS	-14341
▁آث	-14342
▁بذ	-14343
▁بط	-14344
▁رآ	-14345
▁رپ	-14346
▁صی	-14347
▁۴۶	-14348
agon	-14349
atur	-14350
tect	-14351
باغه	-14352
خدای	-14353
دختر	-14354
درست	-14355
ریند	-14356
نمای	-14357
ویان	-14358
کرده	-14359
یسون	-14360
▁***	-14361
▁Doc	-14362
▁NGC	-14363
▁Pan	-14364
▁Pix	-14365
▁USD	-14366
▁افک	-14367
▁انش	-14368
▁اوی	-14369
▁بکر	-14370
▁تنه	-14371
▁روا	-14372
▁سات	-14373
▁لار	-14374
▁واز	-14375
▁ياد	-14376
▁کرن	-14377
▁کوم	-14378
اسرائ	-14379
▁Mode	-14380
▁استم	-14381
▁اینف	-14382
▁بسنج	-14383
▁جونگ	-14384
▁دوتا	-14385
▁رؤیا	-14386
▁رجوی	-14387
▁روبل	-14388
▁سئول	-14389
▁شکند	-14390
▁عرشه	-14391
▁لایق	-14392
▁مثلث	-14393
▁محرم	-14394
▁مقار	-14395
▁میگن	-14396
▁نباش	-14397
▁نجوم	-14398
▁هادی	-14399
▁هفده	-14400
▁واکر	-14401
▁ژنوم	-14402
▁کلبه	-14403
▁کیفر	-14404
▁گنبد	-14405
▁یکتا	-14406
▁یکجا	-14407
روشیمی	-14408
▁2012،	-14409
▁Award	-14410
▁Store	-14411
▁آسوده	-14412
▁ارتشی	-14413
▁اشعار	-14414
▁ایجاب	-14415
▁بصیرت	-14416
▁ترسان	-14417
▁جمجمه	-14418
▁جهادی	-14419
▁رایان	-14420
▁رژیمی	-14421
▁سپاری	-14422
▁شامپو	-14423
▁عمارت	-14424
▁فمینی	-14425
▁فهمیم	-14426
▁مترقی	-14427
▁مدرنی	-14428
▁مرجان	-14429
▁نتیجۀ	-14430
▁ندادن	-14431
▁نزنید	-14432
▁نگفتم	-14433
▁هربار	-14434
▁هوازی	-14435
▁وثیقه	-14436
▁پرسشی	-14437
▁پهپاد	-14438
▁پیونگ	-14439
▁چطوری	-14440
▁کاستی	-14441
▁کلارک	-14442
▁کندتر	-14443
▁گاندی	-14444
▁گشتند	-14445
▁Direct	-14446
▁آنجاست	-14447
▁آهستگی	-14448
▁اوهایو	-14449
▁بناهای	-14450
▁ترسیده	-14451
▁حقیقتی	-14452
▁خودمون	-14453
▁زیباتر	-14454
▁سومالی	-14455
▁فرسوده	-14456
▁قدردان	-14457
▁منظوره	-14458
▁میتونم	-14459
▁نظریات	-14460
▁نگذاشت	-14461
▁هشتمین	-14462
▁وقتیکه	-14463
▁پاداشی	-14464
▁پایانه	-14465
▁کریپتو	-14466
▁Machine	-14467
▁ارزشهای	-14468
▁روندهای	-14469
▁فضاپیما	-14470
▁نیوجرسی	-14471
▁واقعیات	-14472
▁ویرانگر	-14473
▁پارتیشن	-14474
▁پرتغالی	-14475
▁پشتوانه	-14476
▁پیشرفتی	-14477
▁گرمسیری	-14478
▁استخوانی	-14479
▁تیرانداز	-14480
▁دریانورد	-14481
▁دستیاران	-14482
▁غیردولتی	-14483
▁متابولیک	-14484
▁واشینگتن	-14485
▁کنندگانی	-14486
▁Instagram	-14487
▁اسرارآمیز	-14488
▁الکترومغناطیسی	-14489
),	-14490
.]	-14491
8،	-14492
Ar	-14493
CE	-14494
DI	-14495
js	-14496
kt	-14497
جل	-14498
رر	-14499
لک	-14500
گى	-14501
▁٨	-14502
-19	-14503
cel	-14504
eek	-14505
ini	-14506
led	-14507
raw	-14508
حزب	-14509
ساب	-14510
سلم	-14511
شوق	-14512
صری	-14513
عال	-14514
فرو	-14515
لوم	-14516
لیب	-14517
میه	-14518
نور	-14519
همی	-14520
چیل	-14521
ژیت	-14522
▁61	-14523
▁IR	-14524
▁Su	-14525
▁TM	-14526
▁at	-14527
▁my	-14528
▁us	-14529
▁یب	-14530
ayer	-14531
ents	-14532
lish	-14533
load	-14534
sung	-14535
wood	-14536
word	-14537
اتین	-14538
اطلا	-14539
اندی	-14540
اپیش	-14541
باکس	-14542
راجی	-14543
سیان	-14544
طرفه	-14545
لاکت	-14546
ونتی	-14547
▁110	-14548
▁Ant	-14549
▁End	-14550
▁res	-14551
▁آجر	-14552
▁آنِ	-14553
▁آيا	-14554
▁باس	-14555
▁حقّ	-14556
▁درع	-14557
▁دلا	-14558
▁رأس	-14559
▁سلم	-14560
▁شرف	-14561
▁عمه	-14562
▁غرا	-14563
▁قیا	-14564
▁لوس	-14565
▁لکن	-14566
▁نئو	-14567
▁نرد	-14568
▁همی	-14569
فاعات	-14570
کرهای	-14571
▁1984	-14572
▁1987	-14573
▁Rich	-14574
▁Will	-14575
▁اراد	-14576
▁بالش	-14577
▁باکی	-14578
▁تاون	-14579
▁تایم	-14580
▁توله	-14581
▁جایز	-14582
▁جایش	-14583
▁خادم	-14584
▁خصلت	-14585
▁رضای	-14586
▁روبی	-14587
▁زیرک	-14588
▁سرشت	-14589
▁سنگر	-14590
▁ضمنا	-14591
▁طلبد	-14592
▁عموی	-14593
▁قحطی	-14594
▁قضای	-14595
▁كنيد	-14596
▁معرف	-14597
▁میگو	-14598
▁کمکم	-14599
انقلاب	-14600
درباره	-14601
▁Night	-14602
▁Space	-14603
▁آخرال	-14604
▁آلیاژ	-14605
▁آپولو	-14606
▁اشراف	-14607
▁افتتا	-14608
▁باهاش	-14609
▁بلشوی	-14610
▁تصوری	-14611
▁جنجال	-14612
▁جویدن	-14613
▁رمزار	-14614
▁زمزمه	-14615
▁زندگى	-14616
▁شکوفه	-14617
▁طغیان	-14618
▁عاشقش	-14619
▁فریزر	-14620
▁قذافی	-14621
▁مؤلفه	-14622
▁محمدی	-14623
▁مروری	-14624
▁معابد	-14625
▁منهتن	-14626
▁میگفت	-14627
▁نظیری	-14628
▁نمیشه	-14629
▁همتای	-14630
▁واریز	-14631
▁والتر	-14632
▁وجودش	-14633
▁پروتز	-14634
▁پسوری	-14635
▁کرانه	-14636
▁آلاسکا	-14637
▁آلبانی	-14638
▁اقتباس	-14639
▁برنامۀ	-14640
▁بریتیش	-14641
▁دبیرکل	-14642
▁زنجبیل	-14643
▁متهمان	-14644
▁مزایده	-14645
▁مستثنی	-14646
▁معنویت	-14647
▁موتوری	-14648
▁میدانم	-14649
▁نیکارا	-14650
▁پروتون	-14651
▁کاسترو	-14652
▁گمراهی	-14653
ications	-14654
▁Journal	-14655
▁اروپاست	-14656
▁اصطلاحی	-14657
▁السّلام	-14658
▁اینشتین	-14659
▁اینطوری	-14660
▁درآورده	-14661
▁دوستشان	-14662
▁سناریوی	-14663
▁فراگیری	-14664
▁قورباغه	-14665
▁مجوزهای	-14666
▁مربیگری	-14667
▁ناپلئون	-14668
▁هوشمندی	-14669
▁پیشاپیش	-14670
▁چهاردهم	-14671
▁آمریکائی	-14672
▁ارتفاعات	-14673
▁اندیشیدن	-14674
▁سخنرانان	-14675
▁سیاستهای	-14676
▁فرآیندها	-14677
▁فرزندانم	-14678
▁میکروفون	-14679
▁دوستانشان	-14680
▁نمیتوانند	-14681
▁Management	-14682
▁الکتریسیته	-14683
▁خودخواهانه	-14684
▁قانونگذاران	-14685
2.	-14686
23	-14687
6]	-14688
my	-14689
xx	-14690
آغ	-14691
ذه	-14692
قب	-14693
َک	-14694
ِک	-14695
چل	-14696
▁;	-14697
-18	-14698
Net	-14699
ano	-14700
ena	-14701
omb	-14702
ora	-14703
rib	-14704
ule	-14705
امو	-14706
تلی	-14707
حیی	-14708
رتز	-14709
ریو	-14710
شات	-14711
شنا	-14712
ونو	-14713
پیچ	-14714
▁87	-14715
▁89	-14716
▁::	-14717
▁Af	-14718
▁Bi	-14719
▁CH	-14720
▁RS	-14721
▁WW	-14722
▁اگ	-14723
▁خت	-14724
▁کپ	-14725
ages	-14726
raft	-14727
reen	-14728
اسبی	-14729
افته	-14730
تیوم	-14731
دهند	-14732
دیده	-14733
زبان	-14734
مادر	-14735
وکسی	-14736
پیچی	-14737
کربن	-14738
کسید	-14739
کشور	-14740
کمتر	-14741
▁1.4	-14742
▁125	-14743
▁AMP	-14744
▁Blu	-14745
▁LLM	-14746
▁Pal	-14747
▁Squ	-14748
▁باک	-14749
▁تلق	-14750
▁جاش	-14751
▁جاي	-14752
▁جهل	-14753
▁خزر	-14754
▁زار	-14755
▁سوغ	-14756
▁سپر	-14757
▁شال	-14758
▁شعب	-14759
▁غدد	-14760
▁قمر	-14761
▁كوچ	-14762
▁لرد	-14763
▁لود	-14764
▁مائ	-14765
▁مکن	-14766
▁هیم	-14767
▁ودر	-14768
▁ولت	-14769
▁پنی	-14770
▁گوا	-14771
ester	-14772
ffect	-14773
ocial	-14774
احساس	-14775
افراد	-14776
رزاده	-14777
سیاست	-14778
ورانی	-14779
وریتی	-14780
▁1945	-14781
▁1978	-14782
▁6000	-14783
▁Euro	-14784
▁Fort	-14785
▁Soft	-14786
▁آیید	-14787
▁اثاث	-14788
▁الرح	-14789
▁انست	-14790
▁بعدش	-14791
▁تأمل	-14792
▁تعال	-14793
▁جاها	-14794
▁جدای	-14795
▁جیوه	-14796
▁حالم	-14797
▁حراج	-14798
▁خاله	-14799
▁خرند	-14800
▁داشب	-14801
▁رحیم	-14802
▁سردی	-14803
▁سولف	-14804
▁شمول	-14805
▁علما	-14806
▁فوکو	-14807
▁كاهش	-14808
▁لاری	-14809
▁ماوس	-14810
▁نظرش	-14811
▁نویز	-14812
▁هجده	-14813
▁پالت	-14814
▁کباب	-14815
▁کبیر	-14816
آفرینی	-14817
گرفتگی	-14818
▁2009،	-14819
▁Elect	-14820
▁House	-14821
▁Watch	-14822
▁ادویه	-14823
▁اسیدی	-14824
▁اشیای	-14825
▁اصابت	-14826
▁اقبال	-14827
▁اونها	-14828
▁ایشون	-14829
▁اینتل	-14830
▁برهان	-14831
▁بیزین	-14832
▁تعهدی	-14833
▁جدیدش	-14834
▁رفاهی	-14835
▁زحمات	-14836
▁سرپوش	-14837
▁سفیدی	-14838
▁سوپرم	-14839
▁سیاهی	-14840
▁شیراز	-14841
▁ضربات	-14842
▁علیها	-14843
▁لباسی	-14844
▁مادرز	-14845
▁معبود	-14846
▁منتها	-14847
▁مولتی	-14848
▁نیاور	-14849
▁ورزید	-14850
▁پرینت	-14851
▁پوشند	-14852
▁پیکار	-14853
▁چنینی	-14854
▁چگالی	-14855
▁کارائ	-14856
▁کاسته	-14857
▁کبودی	-14858
▁Global	-14859
▁Search	-14860
▁اربعین	-14861
▁استایل	-14862
▁اپیدمی	-14863
▁بارهای	-14864
▁بپوشند	-14865
▁تابلوی	-14866
▁ترساند	-14867
▁تویوتا	-14868
▁جوانتر	-14869
▁خصمانه	-14870
▁خوابید	-14871
▁دستمال	-14872
▁دیرینه	-14873
▁سریعاً	-14874
▁سکولار	-14875
▁شنیدند	-14876
▁لینکلن	-14877
▁متعاهد	-14878
▁مختصری	-14879
▁مواقعی	-14880
▁نیمکره	-14881
▁وظایفی	-14882
▁پنداشت	-14883
▁کراتین	-14884
▁کوتوله	-14885
▁Develop	-14886
▁بایستید	-14887
▁برگشتند	-14888
▁دیدگاهی	-14889
▁زبانهای	-14890
▁زندگانی	-14891
▁شانزدهم	-14892
▁مراقبتی	-14893
▁مسؤولیت	-14894
▁مومیایی	-14895
▁مکانهای	-14896
▁نهادینه	-14897
▁همسالان	-14898
▁ولنتاین	-14899
▁کارکردن	-14900
▁اعتبارات	-14901
▁افتتاحیه	-14902
▁بیندازند	-14903
▁سانتیمتر	-14904
▁فارنهایت	-14905
▁مبتلایان	-14906
▁موردنیاز	-14907
▁نافرمانی	-14908
▁گیرندگان	-14909
▁Institute	-14910
▁تکنولوژیک	-14911
▁حسابداران	-14912
▁فوتبالیست	-14913
▁بازدارندگی	-14914
▁راهکارهایی	-14915
▁سانفرانسیس	-14916
▁تظاهرکنندگان	-14917
OW	-14918
UM	-14919
do	-14920
بس	-14921
حض	-14922
يك	-14923
۳۱	-14924
Man	-14925
Pal	-14926
add	-14927
oop	-14928
امر	-14929
بوت	-14930
بیم	-14931
جید	-14932
سرد	-14933
طفی	-14934
عدی	-14935
ُمْ	-14936
کیج	-14937
▁DM	-14938
▁EA	-14939
▁HS	-14940
▁Je	-14941
▁UX	-14942
▁ضو	-14943
▁پط	-14944
▁۵۳	-14945
▁۹۶	-14946
angu	-14947
arch	-14948
oman	-14949
unes	-14950
ائیک	-14951
ادیث	-14952
ارتز	-14953
فیلد	-14954
مشکل	-14955
ونین	-14956
کراس	-14957
▁3.0	-14958
▁Aud	-14959
▁BMW	-14960
▁DSL	-14961
▁Pat	-14962
▁Tre	-14963
▁Win	-14964
▁اوه	-14965
▁خفا	-14966
▁دوس	-14967
▁زرت	-14968
▁صرع	-14969
▁طوف	-14970
▁غیب	-14971
▁مکث	-14972
▁ننگ	-14973
▁ولى	-14974
▁چوپ	-14975
▁کتی	-14976
▁کله	-14977
▁کیا	-14978
ating	-14979
ivate	-14980
تصویر	-14981
لیسمی	-14982
ومتری	-14983
▁1900	-14984
▁Appl	-14985
▁Last	-14986
▁Mess	-14987
▁Mult	-14988
▁Tele	-14989
▁West	-14990
▁WiFi	-14991
▁York	-14992
▁cont	-14993
▁ازین	-14994
▁اشرف	-14995
▁باقر	-14996
▁بختی	-14997
▁تروم	-14998
▁جمال	-14999
▁حشره	-15000
▁حوثی	-15001
▁حوله	-15002
▁خطبه	-15003
▁خوای	-15004
▁دانا	-15005
▁درشت	-15006
▁درکی	-15007
▁سازم	-15008
▁ساقط	-15009
▁شرعی	-15010
▁ضامن	-15011
▁فرام	-15012
▁لنگر	-15013
▁مستر	-15014
▁مغول	-15015
▁ملائ	-15016
▁منشی	-15017
▁موجه	-15018
▁میگذ	-15019
▁نهان	-15020
▁نپال	-15021
▁وایت	-15022
▁پهلو	-15023
▁کارِ	-15024
▁کششی	-15025
▁کشیم	-15026
▁کلوپ	-15027
▁کنگو	-15028
▁یونس	-15029
▁۱۹۹۱	-15030
معمولا	-15031
▁2011،	-15032
▁Grand	-15033
▁Music	-15034
▁Stand	-15035
▁آدامس	-15036
▁آستین	-15037
▁آموزی	-15038
▁استون	-15039
▁العمر	-15040
▁المان	-15041
▁اوصاف	-15042
▁بارور	-15043
▁بخاری	-15044
▁بخوبی	-15045
▁بشارت	-15046
▁بهایی	-15047
▁بپرسد	-15048
▁رضایی	-15049
▁صحبتی	-15050
▁ضوابط	-15051
▁غریزه	-15052
▁فروشد	-15053
▁قفقاز	-15054
▁لوپوس	-15055
▁ماورا	-15056
▁متأثر	-15057
▁مرتبا	-15058
▁معشوق	-15059
▁منازل	-15060
▁مولفه	-15061
▁نروژی	-15062
▁هاروی	-15063
▁هوندا	-15064
▁کردنش	-15065
▁کریمه	-15066
▁گودال	-15067
olution	-15068
گرایانه	-15069
▁Commun	-15070
▁آرسنال	-15071
▁آفلاین	-15072
▁ارکستر	-15073
▁بنگرید	-15074
▁تاندون	-15075
▁حرفهای	-15076
▁دردهای	-15077
▁دستوری	-15078
▁رباتیک	-15079
▁علیرضا	-15080
▁مدارکی	-15081
▁موتورز	-15082
▁میداند	-15083
▁نظرشان	-15084
▁پاتریک	-15085
▁پارسال	-15086
▁پاکیزه	-15087
▁کاوشگر	-15088
▁کدامند	-15089
▁گرانشی	-15090
▁الاسلام	-15091
▁اکوادور	-15092
▁بفرستند	-15093
▁تراکتور	-15094
▁حداکثری	-15095
▁خودرویی	-15096
▁دیوانگی	-15097
▁رستگاری	-15098
▁شهرهایی	-15099
▁مادرتان	-15100
▁معلومات	-15101
▁پیشبینی	-15102
▁پیوستگی	-15103
▁National	-15104
▁ابتکارات	-15105
▁اخلاقیات	-15106
▁ارگانیسم	-15107
▁بیاموزیم	-15108
▁شکارچیان	-15109
▁فیلسوفان	-15110
▁لئوناردو	-15111
▁مسیریابی	-15112
▁ناسازگار	-15113
▁هنجارهای	-15114
▁پروژکتور	-15115
▁کورتیزول	-15116
▁جستجوگرها	-15117
▁سناریوهای	-15118
▁پسوریازیس	-15119
▁کاندیداهای	-15120
▁سانفرانسیسکو	-15121
21	-15122
44	-15123
IR	-15124
OP	-15125
uz	-15126
zy	-15127
آر	-15128
ضع	-15129
هل	-15130
ْت	-15131
۲۹	-15132
▁٪	-15133
WEB	-15134
ars	-15135
dit	-15136
esh	-15137
ety	-15138
han	-15139
ize	-15140
oth	-15141
ven	-15142
؟!»	-15143
اعی	-15144
دور	-15145
فرت	-15146
قیل	-15147
لاش	-15148
مشت	-15149
واق	-15150
کوت	-15151
۱۹۹	-15152
▁1،	-15153
▁94	-15154
▁>>	-15155
▁Do	-15156
▁SA	-15157
▁ht	-15158
▁فج	-15159
▁پچ	-15160
▁۵۱	-15161
▁۶۶	-15162
ally	-15163
leep	-15164
less	-15165
orge	-15166
ross	-15167
ship	-15168
ادلی	-15169
اروس	-15170
اریف	-15171
انیک	-15172
ایید	-15173
بلیو	-15174
ختگی	-15175
رادو	-15176
رویت	-15177
ستیم	-15178
شایر	-15179
فورت	-15180
وتوپ	-15181
ژیکی	-15182
▁(15	-15183
▁Dyn	-15184
▁Hol	-15185
▁Hor	-15186
▁LCD	-15187
▁Mid	-15188
▁PPC	-15189
▁Top	-15190
▁Tri	-15191
▁آسا	-15192
▁بقی	-15193
▁بوگ	-15194
▁حمد	-15195
▁دیگ	-15196
▁ربع	-15197
▁سوت	-15198
▁شرت	-15199
▁صید	-15200
▁لگد	-15201
▁منن	-15202
▁مژه	-15203
▁میث	-15204
▁نبی	-15205
▁نین	-15206
▁کیپ	-15207
▁یاس	-15208
ublic	-15209
جامعه	-15210
علاقه	-15211
پرواز	-15212
گیریم	-15213
▁Core	-15214
▁Down	-15215
▁Ever	-15216
▁view	-15217
▁آئین	-15218
▁آبرو	-15219
▁بازپ	-15220
▁بلكه	-15221
▁بندد	-15222
▁بیضه	-15223
▁ترين	-15224
▁ثانی	-15225
▁جدیت	-15226
▁حتّی	-15227
▁خواد	-15228
▁خیمه	-15229
▁دیزل	-15230
▁راسخ	-15231
▁رضوی	-15232
▁ریپل	-15233
▁سبکی	-15234
▁شاتل	-15235
▁شعاع	-15236
▁شمرد	-15237
▁صدقه	-15238
▁غایب	-15239
▁غیاب	-15240
▁فلاش	-15241
▁لوئی	-15242
▁لیلا	-15243
▁لیون	-15244
▁مبدأ	-15245
▁محضر	-15246
▁موجی	-15247
▁میشم	-15248
▁نخبه	-15249
▁هانت	-15250
▁هیست	-15251
▁ورزد	-15252
▁کارد	-15253
▁کلاً	-15254
▁کوره	-15255
▁کوپر	-15256
▁گذرا	-15257
▁۱۹۸۱	-15258
▁۵۰۰۰	-15259
ارانتی	-15260
باراتی	-15261
ناپذیر	-15262
▁Sport	-15263
▁امكان	-15264
▁انزال	-15265
▁انقدر	-15266
▁بدبخت	-15267
▁بکشیم	-15268
▁بگذرد	-15269
▁تبخیر	-15270
▁ترکمن	-15271
▁تقاطع	-15272
▁تورات	-15273
▁دیزلی	-15274
▁راهرو	-15275
▁رحمتی	-15276
▁روزبه	-15277
▁سیاتل	-15278
▁شریان	-15279
▁عرفان	-15280
▁علمای	-15281
▁علیهم	-15282
▁غرامت	-15283
▁قیافه	-15284
▁مافوق	-15285
▁متورم	-15286
▁محبوس	-15287
▁مصوبه	-15288
▁ملکوت	-15289
▁میزند	-15290
▁همسری	-15291
▁وزرای	-15292
▁وزیری	-15293
▁پارکر	-15294
▁پیگرد	-15295
▁یهودا	-15296
▁احادیث	-15297
▁ادیسون	-15298
▁استفان	-15299
▁اکثراً	-15300
▁برپایه	-15301
▁بشنویم	-15302
▁تجویزی	-15303
▁خوشبین	-15304
▁دستتان	-15305
▁رآکتور	-15306
▁سرگذشت	-15307
▁سواران	-15308
▁شاعران	-15309
▁متمایل	-15310
▁موناکو	-15311
▁نخواست	-15312
▁پشتکار	-15313
▁چیدمان	-15314
▁کرواسی	-15315
▁آموزگار	-15316
▁ابتکاری	-15317
▁باربارا	-15318
▁بارندگی	-15319
▁بروکلین	-15320
▁برکناری	-15321
▁تختخواب	-15322
▁خلبانان	-15323
▁خواندنی	-15324
▁داشبورد	-15325
▁دوستدار	-15326
▁سرشماری	-15327
▁ظالمانه	-15328
▁غیرمجاز	-15329
▁قسمتهای	-15330
▁مبارزان	-15331
▁مجبورید	-15332
▁میلیونر	-15333
▁نمیکنند	-15334
▁پروازها	-15335
▁کاندیدا	-15336
▁کریستین	-15337
▁گفتگویی	-15338
▁یکجانبه	-15339
وتکنولوژی	-15340
▁Internet	-15341
▁بیاموزند	-15342
▁تصمیماتی	-15343
▁دروغگویی	-15344
▁زمانبندی	-15345
▁ماجراهای	-15346
▁کارآمدتر	-15347
▁کشتیرانی	-15348
▁کلیساهای	-15349
▁بیاندازیم	-15350
▁سپاسگزاری	-15351
▁عکسبرداری	-15352
▁ناسازگاری	-15353
▁نوازندگان	-15354
▁پالایشگاه	-15355
▁کاتالونیا	-15356
▁خویشاوندان	-15357
▁فیزیکدانان	-15358
ــــــــــــــــ	-15359
CR	-15360
En	-15361
ij	-15362
tt	-15363
»!	-15364
سخ	-15365
عو	-15366
چن	-15367
۳۴	-15368
۶۵	-15369
▁٥	-15370
-15	-15371
eck	-15372
isk	-15373
ste	-15374
اسو	-15375
اکا	-15376
ديد	-15377
سنگ	-15378
صدا	-15379
طبق	-15380
لیظ	-15381
يشه	-15382
ُون	-15383
کاک	-15384
کوف	-15385
▁5.	-15386
▁83	-15387
▁AF	-15388
▁CA	-15389
▁Fe	-15390
▁NO	-15391
▁ab	-15392
▁ap	-15393
▁غر	-15394
▁ژی	-15395
▁گپ	-15396
▁۵۸	-15397
▁۹۷	-15398
-200	-15399
ELTS	-15400
ader	-15401
ague	-15402
arth	-15403
cher	-15404
edia	-15405
ives	-15406
ness	-15407
ائیل	-15408
اسطه	-15409
اشتن	-15410
اغلب	-15411
الحی	-15412
بالا	-15413
ختند	-15414
خدمت	-15415
رئیس	-15416
لاقی	-15417
ملین	-15418
وریس	-15419
پیشه	-15420
یافت	-15421
▁188	-15422
▁450	-15423
▁Bel	-15424
▁HTC	-15425
▁Ult	-15426
▁آخه	-15427
▁آرو	-15428
▁بجا	-15429
▁رژه	-15430
▁طاه	-15431
▁فیض	-15432
▁لنگ	-15433
▁مگس	-15434
▁نها	-15435
▁واه	-15436
▁چرم	-15437
▁ژنی	-15438
▁کمد	-15439
▁گون	-15440
field	-15441
زانیا	-15442
سرانه	-15443
سیکلت	-15444
منظور	-15445
ورایی	-15446
کنترل	-15447
▁1400	-15448
▁1973	-15449
▁Code	-15450
▁Cons	-15451
▁Expl	-15452
▁Port	-15453
▁Show	-15454
▁comp	-15455
▁آنفل	-15456
▁آویز	-15457
▁اوبر	-15458
▁اکسل	-15459
▁بارت	-15460
▁باغی	-15461
▁بحال	-15462
▁بزار	-15463
▁بيان	-15464
▁تشکل	-15465
▁درخش	-15466
▁دعوی	-15467
▁دنيا	-15468
▁رئيس	-15469
▁رازی	-15470
▁راسل	-15471
▁راهش	-15472
▁زراد	-15473
▁زوای	-15474
▁شیفت	-15475
▁عمرم	-15476
▁كمتر	-15477
▁مجسم	-15478
▁واتی	-15479
▁پترو	-15480
▁پختن	-15481
▁پروا	-15482
▁پکیج	-15483
▁چاوز	-15484
▁کشفی	-15485
▁کوهی	-15486
▁کویر	-15487
▁گیفت	-15488
▁یحیی	-15489
▁۱۵۰۰	-15490
Script	-15491
تقریبا	-15492
▁Dream	-15493
▁Drive	-15494
▁James	-15495
▁Speed	-15496
▁Times	-15497
▁آثاری	-15498
▁آمینه	-15499
▁استثن	-15500
▁اكنون	-15501
▁ایستد	-15502
▁بدبین	-15503
▁بدونم	-15504
▁بسنده	-15505
▁بعدتر	-15506
▁بلایی	-15507
▁بمیرم	-15508
▁تزیین	-15509
▁تفصیل	-15510
▁جاوید	-15511
▁جنگجو	-15512
▁دانان	-15513
▁درعین	-15514
▁دستکش	-15515
▁دوبله	-15516
▁زوجین	-15517
▁سحابی	-15518
▁شارژر	-15519
▁شهامت	-15520
▁صلوات	-15521
▁عاطفه	-15522
▁غریزی	-15523
▁غواصی	-15524
▁كسانی	-15525
▁مارات	-15526
▁متمدن	-15527
▁مشغله	-15528
▁مصلحت	-15529
▁معذرت	-15530
▁موریس	-15531
▁مکتوب	-15532
▁میبرد	-15533
▁ناهمو	-15534
▁هشیار	-15535
▁هلیوم	-15536
▁وقتها	-15537
▁کرمان	-15538
▁گزیده	-15539
▁گلایه	-15540
▁گوشتی	-15541
▁یبوست	-15542
رافتاده	-15543
▁ابرهای	-15544
▁اتحادی	-15545
▁استونی	-15546
▁اطرافش	-15547
▁اعتدال	-15548
▁التماس	-15549
▁انباشت	-15550
▁بایستد	-15551
▁بخواهی	-15552
▁بسزایی	-15553
▁بگوئید	-15554
▁بیهوشی	-15555
▁توجیهی	-15556
▁جنجالی	-15557
▁خواستن	-15558
▁درمیان	-15559
▁رمزارز	-15560
▁ساعاتی	-15561
▁صفحاتی	-15562
▁قاطعیت	-15563
▁لیتیوم	-15564
▁ماتریس	-15565
▁ماوراء	-15566
▁مسلمین	-15567
▁مصونیت	-15568
▁مطلوبی	-15569
▁مهارتی	-15570
▁مونتاژ	-15571
▁ناممکن	-15572
▁هرچقدر	-15573
▁وسطایی	-15574
▁وکارها	-15575
▁کارمان	-15576
▁آشنایان	-15577
▁آهنگساز	-15578
▁استوارت	-15579
▁انگیزشی	-15580
▁بازگشتی	-15581
▁بدنسازی	-15582
▁ترافیکی	-15583
▁جنگیدند	-15584
▁خودآگاه	-15585
▁رؤیاهای	-15586
▁راهکاری	-15587
▁روزگاری	-15588
▁سازوکار	-15589
▁سهامدار	-15590
▁ظرفشویی	-15591
▁فایروال	-15592
▁مونترال	-15593
▁میتوانم	-15594
▁نابرابر	-15595
▁نیاورده	-15596
▁هموطنان	-15597
▁همگرایی	-15598
▁کارائیب	-15599
▁گارانتی	-15600
▁آرشیوهای	-15601
▁آشکارساز	-15602
▁بپوشانید	-15603
▁خودمختار	-15604
▁دادخواست	-15605
▁دامپزشکی	-15606
▁زندگیشان	-15607
▁شدیدترین	-15608
▁شناسنامه	-15609
▁غیرضروری	-15610
▁مداربسته	-15611
▁پیشگامان	-15612
▁آرژانتینی	-15613
▁سوپرمارکت	-15614
▁مارکسیستی	-15615
▁نتوانستیم	-15616
▁کارولینای	-15617
▁خودروسازان	-15618
▁موتورسیکلت	-15619
▁میکروسکوپی	-15620
)-	-15621
./	-15622
1.	-15623
::	-15624
UT	-15625
bn	-15626
لط	-15627
ِه	-15628
۳۲	-15629
۴۴	-15630
.))	-15631
/20	-15632
[1]	-15633
asc	-15634
aus	-15635
ega	-15636
ola	-15637
ugh	-15638
ury	-15639
ترا	-15640
خار	-15641
دمو	-15642
ريق	-15643
سبز	-15644
فصل	-15645
لیث	-15646
وهر	-15647
ُوا	-15648
ِین	-15649
کست	-15650
▁9-	-15651
▁AB	-15652
▁DD	-15653
▁SW	-15654
▁قو	-15655
▁١٨	-15656
▁ژو	-15657
▁یل	-15658
aver	-15659
ello	-15660
sych	-15661
ئیدی	-15662
ابند	-15663
ادات	-15664
اشفه	-15665
المل	-15666
اورت	-15667
ربری	-15668
وهان	-15669
کتوز	-15670
یائو	-15671
▁1.6	-15672
▁Big	-15673
▁CDC	-15674
▁Cat	-15675
▁Eth	-15676
▁FBI	-15677
▁HDL	-15678
▁ISP	-15679
▁LTE	-15680
▁Law	-15681
▁Rad	-15682
▁آیو	-15683
▁برچ	-15684
▁تبع	-15685
▁جیغ	-15686
▁روى	-15687
▁زنش	-15688
▁سمع	-15689
▁شنی	-15690
▁شون	-15691
▁فجر	-15692
▁فود	-15693
▁كام	-15694
▁لوی	-15695
▁مبح	-15696
▁ملب	-15697
▁ميل	-15698
▁نیر	-15699
▁هاد	-15700
▁ویس	-15701
▁چاب	-15702
▁چام	-15703
▁کای	-15704
▁کسى	-15705
ments	-15706
order	-15707
round	-15708
ایجاد	-15709
توانی	-15710
منطقی	-15711
گذشته	-15712
▁Duty	-15713
▁Fant	-15714
▁Just	-15715
▁Shad	-15716
▁آتشی	-15717
▁آخری	-15718
▁آمرز	-15719
▁آنهم	-15720
▁اسقف	-15721
▁باله	-15722
▁بانی	-15723
▁بزنی	-15724
▁بچگی	-15725
▁تأسف	-15726
▁تابه	-15727
▁تایی	-15728
▁توسل	-15729
▁حالش	-15730
▁خدشه	-15731
▁سمتی	-15732
▁سیلی	-15733
▁طالب	-15734
▁عارف	-15735
▁كامل	-15736
▁لویی	-15737
▁متان	-15738
▁مجال	-15739
▁محال	-15740
▁مرفه	-15741
▁مسطح	-15742
▁مشاج	-15743
▁مطیع	-15744
▁نجیب	-15745
▁نعوظ	-15746
▁نمیر	-15747
▁نپرس	-15748
▁هابل	-15749
▁وآله	-15750
▁واقف	-15751
▁وضعی	-15752
▁پاست	-15753
▁پاند	-15754
▁پاکت	-15755
▁پینگ	-15756
▁کدها	-15757
▁کوال	-15758
▁کوشد	-15759
▁کوپن	-15760
▁گورد	-15761
▁یورک	-15762
▁۱۹۸۹	-15763
▁۱۹۹۷	-15764
active	-15765
ington	-15766
ابراین	-15767
فرانسی	-15768
مدیریت	-15769
▁First	-15770
▁Ghost	-15771
▁Hyper	-15772
▁Video	-15773
▁آبادی	-15774
▁انبیا	-15775
▁انقضا	-15776
▁ايجاد	-15777
▁ایسنا	-15778
▁بشنوم	-15779
▁بشکند	-15780
▁بطوری	-15781
▁بندند	-15782
▁تونید	-15783
▁جیسون	-15784
▁خاتمی	-15785
▁خندان	-15786
▁دلتان	-15787
▁دلسوز	-15788
▁دلشان	-15789
▁دوسال	-15790
▁رؤسای	-15791
▁رابطۀ	-15792
▁سهامی	-15793
▁صالحی	-15794
▁قویتر	-15795
▁لزومی	-15796
▁مؤثری	-15797
▁محافل	-15798
▁مصارف	-15799
▁معیوب	-15800
▁منسوخ	-15801
▁نبرده	-15802
▁نزدیك	-15803
▁نشاند	-15804
▁هفدهم	-15805
▁پارتی	-15806
▁پايان	-15807
▁پرخطر	-15808
▁پریدن	-15809
▁پلیسی	-15810
▁کنندۀ	-15811
ettings	-15812
انداران	-15813
همانطور	-15814
▁Academ	-15815
▁Linked	-15816
▁آشکاری	-15817
▁اثربخش	-15818
▁افریقا	-15819
▁باینری	-15820
▁برآمده	-15821
▁بیزانس	-15822
▁بیلیون	-15823
▁تعاریف	-15824
▁تماماً	-15825
▁توخالی	-15826
▁خودشون	-15827
▁دستخوش	-15828
▁رسولان	-15829
▁رومیزی	-15830
▁سانتری	-15831
▁سردرگم	-15832
▁سرمايه	-15833
▁شنیدیم	-15834
▁عناصری	-15835
▁فروشید	-15836
▁فعاليت	-15837
▁قضاییه	-15838
▁لبخندی	-15839
▁مزاحمت	-15840
▁مستقلی	-15841
▁مقدمات	-15842
▁میخوان	-15843
▁میشناس	-15844
▁ناشران	-15845
▁نشستند	-15846
▁نوردهی	-15847
▁کارساز	-15848
▁آتشفشان	-15849
▁استنباط	-15850
▁اینجوری	-15851
▁بازتابی	-15852
▁بازیهای	-15853
▁بخوانیم	-15854
▁بنویسیم	-15855
▁صداهایی	-15856
▁فرصتهای	-15857
▁فلورانس	-15858
▁مقالاتی	-15859
▁نزدیکان	-15860
▁هاوکینگ	-15861
▁پایبندی	-15862
▁گردانند	-15863
▁انتقالات	-15864
▁خوشحالیم	-15865
▁دایناسور	-15866
▁درمانگاه	-15867
▁دستمزدها	-15868
▁زرادخانه	-15869
▁ساختارها	-15870
▁فضاپیمای	-15871
▁لباسشویی	-15872
▁مسئولانه	-15873
▁پتروشیمی	-15874
▁پراکندگی	-15875
▁پیشینیان	-15876
▁آپارتمانی	-15877
▁ابرقهرمان	-15878
▁دبیرستانی	-15879
▁دستاوردها	-15880
▁بازنشستگان	-15881
▁کارگردانان	-15882
DE	-15883
GR	-15884
HT	-15885
PF	-15886
Wh	-15887
ua	-15888
xt	-15889
عظ	-15890
ّس	-15891
▁■	-15892
aaS	-15893
ald	-15894
ali	-15895
dis	-15896
eta	-15897
ios	-15898
ror	-15899
vis	-15900
انۀ	-15901
طرح	-15902
ظار	-15903
عزی	-15904
عمو	-15905
فیت	-15906
نگر	-15907
يدن	-15908
يري	-15909
پاش	-15910
پلی	-15911
کاش	-15912
کمی	-15913
یتا	-15914
۱۹۸	-15915
▁(«	-15916
▁1,	-15917
▁5)	-15918
▁71	-15919
▁84	-15920
▁FX	-15921
▁NT	-15922
▁OL	-15923
▁PM	-15924
▁Rh	-15925
▁it	-15926
▁pH	-15927
▁un	-15928
▁١٠	-15929
▁گچ	-15930
icle	-15931
unct	-15932
آغاز	-15933
آقای	-15934
انده	-15935
انند	-15936
خنده	-15937
دانه	-15938
ریفی	-15939
ریکا	-15940
زونی	-15941
ضایی	-15942
غانی	-15943
ماید	-15944
متان	-15945
مسیر	-15946
وپسی	-15947
ينده	-15948
گارا	-15949
▁1.1	-15950
▁101	-15951
▁350	-15952
▁Bad	-15953
▁CMS	-15954
▁Dan	-15955
▁Def	-15956
▁HDR	-15957
▁Her	-15958
▁Hub	-15959
▁ICO	-15960
▁NAS	-15961
▁Tor	-15962
▁per	-15963
▁آدا	-15964
▁بون	-15965
▁تغي	-15966
▁جوم	-15967
▁حقه	-15968
▁دله	-15969
▁سعد	-15970
▁فست	-15971
▁لخت	-15972
▁لوح	-15973
▁کوز	-15974
▁کیس	-15975
▁گوت	-15976
overy	-15977
under	-15978
آخرین	-15979
اراتی	-15980
انیای	-15981
سترون	-15982
همیشه	-15983
وشیمی	-15984
▁1971	-15985
▁Alex	-15986
▁Jack	-15987
▁Pack	-15988
▁Page	-15989
▁User	-15990
▁آلوئ	-15991
▁آییم	-15992
▁اذان	-15993
▁اوری	-15994
▁باطن	-15995
▁باکو	-15996
▁بفرد	-15997
▁بکنی	-15998
▁بگری	-15999
▁تامل	-16000
▁حضار	-16001
▁خائن	-16002
▁دوبل	-16003
▁رشوه	-16004
▁رولت	-16005
▁زنها	-16006
▁زکات	-16007
▁سلفی	-16008
▁سیرک	-16009
▁طنین	-16010
▁عاجز	-16011
▁عوام	-16012
▁غلیظ	-16013
▁قاسم	-16014
▁قیاس	-16015
▁لایک	-16016
▁مشوق	-16017
▁مضحک	-16018
▁موزی	-16019
▁مولر	-16020
▁ميان	-16021
▁نبوغ	-16022
▁نوید	-16023
▁کاهن	-16024
▁کُرد	-16025
▁گردو	-16026
▁۱۹۶۹	-16027
▁۱۹۹۵	-16028
المللی	-16029
ندگانی	-16030
ومتریک	-16031
▁.....	-16032
▁Final	-16033
▁Heart	-16034
▁آیینه	-16035
▁اولاً	-16036
▁بدشان	-16037
▁بدنام	-16038
▁برکلی	-16039
▁بفهمم	-16040
▁تسبیح	-16041
▁تفکری	-16042
▁تقلیل	-16043
▁تندرو	-16044
▁جانور	-16045
▁جوانا	-16046
▁خطاها	-16047
▁درصدد	-16048
▁دوخته	-16049
▁دیویس	-16050
▁زراعی	-16051
▁سلاحی	-16052
▁ماریو	-16053
▁ماکرو	-16054
▁متاثر	-16055
▁مصدوم	-16056
▁معارف	-16057
▁مونیخ	-16058
▁نادری	-16059
▁نلسون	-16060
▁نگردد	-16061
▁نیوتن	-16062
▁هدفون	-16063
▁وخامت	-16064
▁ورزند	-16065
▁پرنسس	-16066
▁پوشید	-16067
▁چاپگر	-16068
▁گردهم	-16069
▁گلزنی	-16070
▁یافتم	-16071
▁یقینا	-16072
▁Associ	-16073
▁آموختم	-16074
▁آوردید	-16075
▁ابتلای	-16076
▁ارزانی	-16077
▁انبوهی	-16078
▁انعقاد	-16079
▁بخوابد	-16080
▁برگشتن	-16081
▁بیزینس	-16082
▁ترسیدم	-16083
▁جراحات	-16084
▁جنگهای	-16085
▁دولتها	-16086
▁سیریزا	-16087
▁غارهای	-16088
▁فاشیست	-16089
▁ماندلا	-16090
▁متجاوز	-16091
▁متروکه	-16092
▁مجاورت	-16093
▁مصادره	-16094
▁ملبورن	-16095
▁موازنه	-16096
▁میروند	-16097
▁میزانی	-16098
▁ناتمام	-16099
▁نامهای	-16100
▁همانجا	-16101
▁پنالتی	-16102
▁پوشاند	-16103
▁کتابچه	-16104
بنابراین	-16105
▁استاتیک	-16106
▁استمرار	-16107
▁اصلاحیه	-16108
▁باتجربه	-16109
▁برآوردن	-16110
▁برداریم	-16111
▁بیاموزد	-16112
▁توافقات	-16113
▁دادگاهی	-16114
▁درآمدها	-16115
▁دریابند	-16116
▁رصدخانه	-16117
▁رهبرانی	-16118
▁روستاها	-16119
▁زنبورها	-16120
▁شکیبایی	-16121
▁ماهیگیر	-16122
▁مسوولیت	-16123
▁میلیمتر	-16124
▁نخوانده	-16125
▁والدینش	-16126
▁کاتالوگ	-16127
▁کلاسهای	-16128
▁کلکسیون	-16129
▁بیانجامد	-16130
▁ترانزیست	-16131
▁حیواناتی	-16132
[...]
