<unk>	0
<s>	0
</s>	0
.	-3.43468
▁و	-3.64438
▁در	-3.71281
▁به	-3.7668
▁می	-3.83645
ی	-3.95009
▁که	-3.95343
▁از	-3.96598
▁را	-4.09411
،	-4.12156
▁است	-4.27565
▁این	-4.34933
▁های	-4.63441
▁با	-4.81427
▁برای	-4.85328
▁یک	-4.8726
▁،	-4.92543
ه	-4.95788
▁ها	-5.00693
▁آن	-5.14752
▁	-5.16283
▁شما	-5.3996
▁خود	-5.50247
▁کند	-5.59285
▁شود	-5.61698
▁یا	-5.65033
▁ما	-5.6768
▁شده	-5.70098
▁تا	-5.72011
▁ای	-5.75661
▁.	-5.76053
▁ی	-5.79865
▁(	-5.80455
▁کنید	-5.81292
▁بر	-5.81814
▁او	-5.82202
▁من	-5.83374
▁بود	-5.92511
▁کنند	-5.92634
▁سال	-5.92657
▁هم	-5.97244
▁کار	-5.98943
▁هر	-6.00522
▁اما	-6.04845
▁باشد	-6.07398
:	-6.10331
▁دارد	-6.12483
▁نمی	-6.13544
▁کرد	-6.13582
▁آنها	-6.14903
▁باید	-6.17285
▁شد	-6.18671
▁«	-6.22648
ان	-6.23745
▁استفاده	-6.26105
م	-6.26362
؟	-6.26873
▁اگر	-6.29258
▁مورد	-6.38609
▁هستند	-6.39553
▁:	-6.40727
▁"	-6.43259
▁دو	-6.43511
▁دهد	-6.45185
)	-6.45434
▁کرده	-6.4602
▁انجام	-6.46176
▁اند	-6.49648
د	-6.51404
▁دیگر	-6.52974
▁حال	-6.54188
▁تواند	-6.54304
▁وجود	-6.54705
▁همه	-6.54739
▁چه	-6.56126
▁م	-6.56687
▁)	-6.5835
▁نیز	-6.58591
ش	-6.5906
ت	-6.60936
▁تر	-6.6118
▁قرار	-6.61277
▁عنوان	-6.62392
▁خواهد	-6.63784
▁داشته	-6.68903
ین	-6.71453
▁زندگی	-6.71765
▁دست	-6.72682
▁نیست	-6.76266
▁بین	-6.7627
▁ممکن	-6.76902
▁»	-6.77045
▁روز	-6.77293
ات	-6.78071
▁روی	-6.78514
▁شوند	-6.79061
▁پس	-6.79366
▁...	-6.80651
ن	-6.80802
▁طور	-6.82819
▁داده	-6.82884
▁بسیار	-6.83
▁نظر	-6.83786
▁شرکت	-6.83821
▁دارند	-6.84125
▁-	-6.85605
▁کردن	-6.86813
▁زمان	-6.87174
▁بیشتر	-6.88457
▁کنیم	-6.93426
▁هیچ	-6.93538
ا	-6.93817
▁برنامه	-6.95699
▁تنها	-6.96711
▁جدید	-6.96938
▁پیش	-6.97093
▁کمک	-6.98135
▁هایی	-6.98403
▁مردم	-7.00823
▁همچنین	-7.02119
▁نشان	-7.05269
اً	-7.06248
▁چند	-7.06383
▁نه	-7.07074
▁یکی	-7.09556
▁نیاز	-7.09926
▁چیزی	-7.10009
▁بازی	-7.11419
▁کشور	-7.12087
▁توانید	-7.12651
▁راه	-7.13024
▁توسط	-7.13698
ر	-7.14693
▁صورت	-7.15282
▁تمام	-7.15474
▁بی	-7.15514
ب	-7.15843
▁داد	-7.15863
▁ایجاد	-7.16998
▁فقط	-7.1906
▁آیا	-7.19431
▁نام	-7.19882
▁ترین	-7.1997
▁جهان	-7.2056
▁گفت	-7.21392
ند	-7.21476
▁کنم	-7.21485
▁بعد	-7.22255
▁ش	-7.23074
▁بیش	-7.23799
▁مانند	-7.24738
▁دهند	-7.24898
▁افراد	-7.25105
▁حتی	-7.25994
▁باشید	-7.26063
▁آمریکا	-7.26434
▁اینکه	-7.26549
▁بار	-7.2673
▁بزرگ	-7.27673
▁بسیاری	-7.27799
▁برخی	-7.30538
▁ب	-7.31505
های	-7.31651
▁تو	-7.3365
▁ایران	-7.3382
▁کردند	-7.34382
▁زمانی	-7.3462
▁درصد	-7.35191
▁باشند	-7.35831
▁تغییر	-7.35919
▁ت	-7.36463
▁افزایش	-7.37841
ز	-7.37984
▁دهید	-7.38094
!	-7.38804
▁رو	-7.39713
▁فکر	-7.4047
▁داشت	-7.40511
▁ماه	-7.4123
▁سر	-7.41679
؛	-7.42018
▁اطلاعات	-7.43297
▁توانند	-7.43351
▁مهم	-7.43363
▁آب	-7.43367
ل	-7.43465
▁توجه	-7.43486
ها	-7.44625
▁باز	-7.45144
▁ارائه	-7.45311
▁تولید	-7.46017
▁چگونه	-7.4626
▁“	-7.46288
▁سه	-7.4649
▁کسی	-7.46626
ک	-7.46632
▁همین	-7.47205
▁غیر	-7.47402
▁بدون	-7.48236
▁وقتی	-7.48277
▁خانه	-7.48695
▁انتخاب	-7.48769
-	-7.48784
▁همان	-7.49061
s	-7.49295
▁شدن	-7.49387
▁بخش	-7.49573
▁چرا	-7.50022
▁بوده	-7.50965
س	-7.51131
.»	-7.51168
▁پیدا	-7.51198
▁بودند	-7.51348
▁درباره	-7.51391
▁گرفته	-7.51776
▁سیستم	-7.51914
▁–	-7.51929
▁زیادی	-7.52014
▁ن	-7.52022
▁خوب	-7.52745
▁کتاب	-7.52964
▁سازمان	-7.54054
▁”	-7.54527
▁کاهش	-7.54751
▁تان	-7.55216
▁خیل	-7.55222
▁دوست	-7.55252
▁شان	-7.55692
▁دولت	-7.55826
▁شروع	-7.57336
▁مختلف	-7.57705
▁طول	-7.58682
▁چیز	-7.60034
▁سایت	-7.60091
▁نفر	-7.60534
▁قبل	-7.60881
▁دلیل	-7.61272
▁فیلم	-7.61727
▁قابل	-7.61741
▁چنین	-7.62074
▁!	-7.62213
▁اولین	-7.62422
یم	-7.62461
▁روش	-7.63723
▁کننده	-7.64395
▁کامل	-7.65278
▁زبان	-7.65509
▁دارید	-7.65634
▁گروه	-7.65949
▁بهترین	-7.66045
▁خدا	-7.66553
▁ام	-7.66764
▁کسب	-7.66825
▁انسان	-7.66948
▁خواهید	-7.67319
▁توان	-7.68077
▁همیشه	-7.68122
▁واقع	-7.68301
▁ندارد	-7.68588
▁خواهند	-7.6893
▁دیگری	-7.69344
▁بنابراین	-7.69419
▁باعث	-7.6955
▁؟	-7.69662
▁ولی	-7.70166
تر	-7.70358
▁تلاش	-7.71264
▁گذشته	-7.71872
▁طریق	-7.72012
▁توسعه	-7.72126
▁مدت	-7.72339
▁جنگ	-7.72743
▁طراحی	-7.72957
▁اول	-7.73099
▁میان	-7.74684
▁احساس	-7.74973
▁دنبال	-7.75208
▁زنان	-7.7526
▁هدف	-7.75638
▁آنچه	-7.76381
▁شهر	-7.76534
▁ِ	-7.77413
▁بهتر	-7.77507
▁تعداد	-7.77577
▁آینده	-7.77982
▁[	-7.78027
▁نوع	-7.78624
▁هنوز	-7.78631
▁شامل	-7.78644
▁جهانی	-7.79282
▁اجتماعی	-7.799
▁اصلی	-7.80329
▁حدود	-7.80958
ع	-7.81034
▁بدن	-7.8117
▁سرمایه	-7.81242
ید	-7.82064
▁درست	-7.82234
▁ادامه	-7.82514
▁دریافت	-7.82575
▁تجربه	-7.82973
▁پر	-7.83023
▁,	-7.83883
▁اش	-7.84211
▁مصرف	-7.84262
▁گفته	-7.84338
▁یاد	-7.84348
و	-7.84377
▁دادن	-7.84478
▁کاری	-7.84877
▁اندازه	-7.85157
▁حاضر	-7.85321
▁بالا	-7.85376
▁دارای	-7.85471
▁زیرا	-7.85475
▁؛	-7.85477
▁خانواده	-7.85483
▁رشد	-7.85719
▁آموزش	-7.86268
ۀ	-7.86522
▁همراه	-7.86602
▁دانشگاه	-7.86825
▁دانش	-7.86944
▁بررسی	-7.87488
▁S	-7.87614
▁ان	-7.8762
▁فعالیت	-7.87723
▁منطقه	-7.87924
▁هزینه	-7.87957
▁میلیون	-7.87998
▁وقت	-7.88153
▁زیر	-7.8838
▁ا	-7.88564
▁ساعت	-7.89027
▁کنترل	-7.89318
▁سطح	-7.89611
▁عمل	-7.89674
▁درمان	-7.89741
▁هفته	-7.90125
▁المللی	-7.90127
▁کم	-7.90143
▁زمین	-7.90307
▁شرایط	-7.90892
▁پاسخ	-7.91306
▁قدرت	-7.91515
▁تصمیم	-7.91623
▁فرد	-7.91665
▁امروز	-7.91693
▁تبدیل	-7.919
▁پایان	-7.92614
▁خوبی	-7.93143
▁مدیریت	-7.93396
▁تحت	-7.93555
▁موضوع	-7.93809
▁نتیجه	-7.94164
ست	-7.94476
▁دوره	-7.95024
▁گذاری	-7.95152
▁نسبت	-7.95304
▁سازی	-7.96268
▁جای	-7.96457
▁برابر	-7.96459
▁بلکه	-7.96465
▁چون	-7.96536
▁حالی	-7.96719
▁پول	-7.96816
▁صحبت	-7.97101
▁اجازه	-7.9717
▁گوید	-7.97322
▁بیماری	-7.97498
▁مواد	-7.97834
یت	-7.97981
▁مثل	-7.98083
▁کوچک	-7.98182
»	-7.98229
▁شاید	-7.9839
▁C	-7.98453
▁گزارش	-7.98818
▁دلار	-7.99046
▁مثال	-7.99099
▁s	-7.99505
▁کل	-7.99584
▁­	-7.99668
▁حل	-8.00206
الات	-8.0042
▁شدند	-8.00625
▁اید	-8.00891
▁متحده	-8.00911
▁آغاز	-8.01111
ي	-8.02002
ور	-8.02469
▁وارد	-8.02535
تان	-8.03178
▁مناسب	-8.03608
▁هستید	-8.03928
▁جمله	-8.04558
ون	-8.04627
▁اروپا	-8.05351
ق	-8.05352
▁A	-8.05753
▁کردم	-8.05779
▁جا	-8.05862
▁ارزش	-8.05979
▁چین	-8.06
▁نگاه	-8.06135
▁بازار	-8.06176
▁شکل	-8.06413
▁ارتباط	-8.06419
▁دنیا	-8.06538
ار	-8.06589
▁چشم	-8.0663
▁اغلب	-8.06676
▁خدمات	-8.06905
]	-8.06955
▁وب	-8.07101
▁حمایت	-8.07203
▁گرفت	-8.07715
▁واقعی	-8.07809
▁ه	-8.07834
▁بیشتری	-8.07925
▁خاطر	-8.08227
▁B	-8.08624
▁تیم	-8.09151
▁مطالعه	-8.09282
▁موارد	-8.09284
▁یعنی	-8.09505
ال	-8.09623
▁زن	-8.09657
▁کودکان	-8.10064
▁لازم	-8.10104
▁/	-8.10233
▁شوید	-8.10235
▁رسد	-8.10276
▁نزدیک	-8.10316
▁خرید	-8.10466
▁پی	-8.10806
▁کسانی	-8.10814
▁بد	-8.11089
▁پروژه	-8.1123
▁دیگران	-8.11563
▁مشکل	-8.11567
▁گونه	-8.12174
▁انرژی	-8.12204
▁شبکه	-8.12336
▁داستان	-8.12365
▁زمینه	-8.12478
▁گیرد	-8.12637
▁قیمت	-8.12645
▁دور	-8.13562
▁البته	-8.14164
▁کمتر	-8.14184
▁2	-8.14541
▁هنگامی	-8.14763
▁سایر	-8.14936
▁اساس	-8.15102
▁فروش	-8.15152
▁اکنون	-8.15419
▁اینجا	-8.1574
▁تاریخ	-8.15819
▁داریم	-8.15952
▁ال	-8.15968
▁مربوط	-8.16297
▁اعلام	-8.16342
▁متفاوت	-8.16752
▁خواب	-8.17169
▁اقتصادی	-8.17242
▁خاص	-8.17285
▁گیری	-8.17401
▁مشکلات	-8.1763
▁اتفاق	-8.17679
▁هزار	-8.17739
▁سپس	-8.17893
▁قانون	-8.1868
▁مالی	-8.19374
▁رنگ	-8.19591
▁سیاسی	-8.19732
▁کافی	-8.19847
▁ساخت	-8.20137
▁نقش	-8.20241
ره	-8.20359
▁کمی	-8.20751
▁هست	-8.20898
▁خون	-8.2108
▁كه	-8.21097
▁مشخص	-8.2114
▁جامعه	-8.2139
▁سفر	-8.21424
▁کنار	-8.2176
▁کشورهای	-8.22121
▁دارم	-8.2274
▁خارج	-8.23404
گی	-8.23459
▁هرگز	-8.2356
▁آنجا	-8.237
▁ساخته	-8.23884
▁3	-8.23961
انه	-8.24216
▁بعضی	-8.24233
▁طبیعی	-8.24297
▁P	-8.24452
▁ساده	-8.2497
▁5	-8.25023
▁امکان	-8.25349
▁حرکت	-8.25417
▁موفقیت	-8.2572
▁سیاست	-8.25788
▁T	-8.25789
▁درک	-8.25896
▁حق	-8.26198
▁پرداخت	-8.26223
▁ملی	-8.2624
▁رابطه	-8.26505
▁حقوق	-8.26506
▁کودک	-8.26545
▁مرگ	-8.26568
▁صفحه	-8.2689
▁10	-8.26906
▁روسیه	-8.27122
▁عمومی	-8.2728
▁آ	-8.27645
▁ویژه	-8.27706
▁سرعت	-8.27828
▁شب	-8.27873
▁حداقل	-8.27884
y	-8.28008
▁سخت	-8.28019
▁سوی	-8.28226
▁یافته	-8.28565
▁شخصی	-8.28657
▁حد	-8.28798
▁خطر	-8.29011
▁ایده	-8.29066
e	-8.29104
▁آماده	-8.29213
▁جلو	-8.29281
▁حفظ	-8.2938
▁بهبود	-8.29468
▁دوم	-8.29488
▁چهار	-8.30162
▁بودن	-8.30268
▁F	-8.31153
▁ف	-8.31154
▁احتمال	-8.31317
▁تحقیقات	-8.31422
▁خداوند	-8.31654
▁مان	-8.3214
▁موجود	-8.32328
▁رئیس	-8.32668
جر	-8.32963
▁تاثیر	-8.3299
▁دستگاه	-8.33544
▁قادر	-8.33656
▁حرفه	-8.34008
▁طی	-8.34046
▁میزان	-8.34054
▁داشتن	-8.34156
▁آورد	-8.34272
▁وضعیت	-8.34361
▁علاوه	-8.34603
▁G	-8.34647
▁افرادی	-8.34768
▁خواهیم	-8.34799
▁سراسر	-8.34804
▁انتظار	-8.34841
▁مرد	-8.3491
▁دوباره	-8.35236
▁سریع	-8.35327
ف	-8.3541
▁آسیب	-8.35915
▁عکس	-8.35985
▁غذایی	-8.36343
ى	-8.36676
▁علیه	-8.36711
▁آنان	-8.3691
▁رود	-8.36995
▁ایم	-8.37461
گیری	-8.37514
er	-8.37525
▁هنگام	-8.3778
▁زیاد	-8.38185
▁D	-8.38405
▁نتایج	-8.38486
▁آید	-8.38706
▁جایی	-8.38937
▁پایین	-8.39161
▁پوست	-8.39407
▁روند	-8.39444
▁طرف	-8.3999
▁دهه	-8.40028
▁آمریکایی	-8.4026
t	-8.40447
▁حرف	-8.40523
▁سعی	-8.40539
▁گاهی	-8.40681
▁خارجی	-8.40796
▁1	-8.40857
▁بیان	-8.40894
▁حقیقت	-8.41179
▁دیده	-8.41464
▁هستیم	-8.41556
▁R	-8.41658
▁تصویر	-8.41769
▁محصولات	-8.41821
▁واقعا	-8.42226
▁مکان	-8.42244
▁آمده	-8.42277
▁مشتریان	-8.42412
▁صرف	-8.42508
▁حضور	-8.42689
▁4	-8.42712
▁دسترسی	-8.42733
▁طولانی	-8.42861
▁نمایش	-8.43
­	-8.43147
▁مشاهده	-8.43218
▁معمولا	-8.43283
▁کارهای	-8.43332
▁امنیت	-8.43577
▁تجاری	-8.43604
2	-8.43622
▁دهیم	-8.43811
▁باور	-8.43993
▁منتشر	-8.44498
▁گیرند	-8.44603
▁E	-8.44659
▁پنج	-8.44729
▁مدل	-8.44798
▁بخشی	-8.44915
ج	-8.44984
▁نشده	-8.45057
▁آزاد	-8.45116
▁کلی	-8.45207
▁مهارت	-8.45402
▁خواهم	-8.45978
▁شناخته	-8.46072
▁کنندگان	-8.46109
▁نا	-8.46123
▁فرصت	-8.46168
▁فشار	-8.46185
▁محیط	-8.46282
ام	-8.46359
▁آزمایش	-8.46605
▁معنی	-8.46852
▁نباید	-8.46962
▁اضافه	-8.47019
▁نور	-8.47103
▁عالی	-8.4719
شان	-8.47506
▁درخواست	-8.47931
▁کس	-8.48008
▁ایشان	-8.48025
D	-8.48048
▁طرح	-8.48391
▁محصول	-8.48682
▁بندی	-8.48754
▁منابع	-8.48983
▁موفق	-8.49395
▁M	-8.49565
▁غذا	-8.49773
▁گزین	-8.49822
▁بچه	-8.49899
▁مرکز	-8.50318
▁حالا	-8.50329
▁رسانه	-8.5043
▁همکاری	-8.50434
▁سن	-8.50559
▁سمت	-8.50571
▁توانایی	-8.50633
▁رخ	-8.50853
▁اکثر	-8.50917
▁رفتار	-8.51245
▁جمع	-8.5126
▁رسید	-8.51478
▁نخست	-8.51549
▁محل	-8.51737
▁گویند	-8.51905
▁تمرکز	-8.51962
▁چیست	-8.51979
▁یافت	-8.52049
a	-8.52243
▁کدام	-8.52396
▁ثبت	-8.52741
p	-8.52753
▁اعتماد	-8.53101
▁ساله	-8.53149
▁توانیم	-8.53267
▁چیزهای	-8.53362
▁اقتصاد	-8.53538
▁بودم	-8.53605
▁نوشته	-8.53885
▁اشاره	-8.53889
▁فرا	-8.5392
▁روابط	-8.54314
▁مسیر	-8.54377
گ	-8.54777
▁اثر	-8.54877
▁H	-8.55182
▁توصیه	-8.55296
▁مرحله	-8.5542
▁نیستند	-8.55426
▁علاقه	-8.55542
1	-8.55599
▁آمد	-8.55687
▁ماشین	-8.55793
▁حمله	-8.55821
وس	-8.55869
▁هستم	-8.55996
▁عملکرد	-8.56038
▁سوم	-8.56234
▁جهت	-8.56287
▁مقدار	-8.56619
▁سی	-8.56666
▁فراهم	-8.56725
▁پشت	-8.56748
▁صنعت	-8.56872
▁خودتان	-8.57026
▁دقیقه	-8.57026
▁حساب	-8.5703
ِ	-8.57071
▁متوجه	-8.57162
▁وزن	-8.57214
▁صد	-8.57368
▁تغییرات	-8.57383
▁اهمیت	-8.5773
▁نظامی	-8.57812
▁گل	-8.5787
▁داشتند	-8.57899
▁بسته	-8.57946
▁تقریبا	-8.58095
▁خودش	-8.5826
▁مجموعه	-8.58726
▁پیشرفت	-8.58807
▁نبود	-8.58817
▁خط	-8.58894
▁۵	-8.58905
▁تشکیل	-8.59001
▁بگیرید	-8.59068
▁داخلی	-8.59115
▁منظور	-8.59231
▁۲	-8.59282
▁کاربران	-8.59295
▁بعدی	-8.59484
▁اهداف	-8.59518
▁اتاق	-8.5971
▁I	-8.59811
▁یابد	-8.59902
▁گرفتن	-8.59937
▁مردان	-8.59966
▁نخواه	-8.60382
▁دقیق	-8.604
▁آسان	-8.60443
▁برد	-8.60632
▁امر	-8.60656
پ	-8.60667
▁آخرین	-8.60755
▁قسمت	-8.6076
▁کاملا	-8.6101
▁تشخیص	-8.61198
▁گردد	-8.61322
▁عشق	-8.6146
▁آموزان	-8.61473
▁اجرا	-8.61793
▁باشیم	-8.61968
i	-8.62025
▁محدود	-8.62045
▁ندارند	-8.62118
▁انگلیسی	-8.62319
▁فعال	-8.6242
من	-8.62762
▁د	-8.6301
▁کوتاه	-8.63061
▁دادند	-8.63089
▁ده	-8.63206
▁باقی	-8.63208
▁واقعیت	-8.63309
▁بینی	-8.63334
▁کن	-8.63388
d	-8.63431
▁نگه	-8.63551
▁پدر	-8.63646
M	-8.63842
▁حالت	-8.64144
▁جریان	-8.64186
▁مغز	-8.64428
▁مشتری	-8.64463
▁ند	-8.64638
▁مدرسه	-8.64701
▁آلمان	-8.6485
▁رژیم	-8.64861
▁خوش	-8.65049
▁الله	-8.65075
▁جمهوری	-8.65172
گاه	-8.65313
▁جز	-8.65391
▁نفت	-8.65628
ترین	-8.65647
5	-8.65777
به	-8.65833
▁پیشنهاد	-8.65978
▁6	-8.6604
3	-8.66189
▁انواع	-8.66295
▁تعیین	-8.66295
▁بیرون	-8.66319
▁ابتدا	-8.66514
▁گسترده	-8.66572
▁داخل	-8.66585
▁سلول	-8.66632
▁مرتبط	-8.66782
▁سلامت	-8.66846
▁جوان	-8.6691
▁سوریه	-8.66929
▁مطمئن	-8.67127
▁L	-8.67128
▁موسیقی	-8.67263
▁اسرائیل	-8.67362
▁تفاوت	-8.67402
▁مشابه	-8.67402
▁کیفیت	-8.67551
▁رفت	-8.67669
▁مسائل	-8.67681
▁آزادی	-8.67724
ول	-8.68056
▁مسئله	-8.6817
▁نامه	-8.68285
▁نرم	-8.68314
▁خصوص	-8.68371
▁مناطق	-8.68381
C	-8.68431
▁بحث	-8.68677
▁دید	-8.68905
▁شدید	-8.68906
▁اطمینان	-8.68944
▁یکدیگر	-8.69086
▁اینترنت	-8.69295
▁درآمد	-8.693
▁گوش	-8.69403
▁لذت	-8.69511
▁7	-8.69598
▁سرطان	-8.69658
▁دی	-8.69831
r	-8.69916
▁مادر	-8.69954
▁انتقال	-8.7001
▁همچنان	-8.70081
c	-8.70094
▁آنلاین	-8.70225
▁نهایت	-8.70235
▁شکست	-8.70254
▁کشف	-8.703
▁۳	-8.70502
▁دار	-8.70577
▁۱۰	-8.70655
▁توافق	-8.70717
▁کردیم	-8.70766
▁ازدواج	-8.70798
▁پیام	-8.70801
▁جان	-8.70815
▁شخص	-8.70846
▁۱	-8.70923
▁نمونه	-8.71231
▁8	-8.71263
ٔ	-8.7152
▁قوی	-8.7156
▁ابزار	-8.71611
▁ر	-8.71748
▁اولیه	-8.71776
▁آوری	-8.72092
▁نسخه	-8.72102
▁اعضای	-8.72132
▁ارسال	-8.72248
▁مقاله	-8.72248
▁ویژگ	-8.72248
▁افغانستان	-8.72395
ای	-8.72436
▁نکنید	-8.72473
▁فرانسه	-8.7276
له	-8.72803
▁توضیح	-8.72867
▁سوال	-8.72891
▁ساختمان	-8.72931
▁گذاشت	-8.72976
▁دوران	-8.73081
▁پزشکی	-8.73121
▁بانک	-8.73195
▁اختیار	-8.73202
▁روشن	-8.73214
▁بتوان	-8.73266
ما	-8.73339
E	-8.73447
4	-8.73458
A	-8.73747
▁سفید	-8.73801
ح	-8.73888
▁ترک	-8.73939
▁میلیارد	-8.73942
▁تجارت	-8.73946
▁تهدید	-8.74018
▁هسته	-8.74097
▁ح	-8.74188
▁جمهور	-8.7427
▁محلی	-8.74409
▁خبر	-8.74498
▁زنده	-8.74527
اب	-8.74803
▁ي	-8.74907
یل	-8.74984
▁درد	-8.75088
▁تمامی	-8.75132
▁قرن	-8.75173
▁تحقیق	-8.75174
▁فرهنگ	-8.7525
▁اخیر	-8.75336
▁دهنده	-8.75377
▁عضو	-8.75438
▁پا	-8.75451
▁فوق	-8.75529
▁بالای	-8.75595
▁*	-8.75619
▁جدی	-8.75684
▁مرا	-8.75904
▁تصور	-8.76274
▁قلب	-8.76426
▁سالم	-8.76595
▁بازاریابی	-8.76608
▁)،	-8.76733
▁اشتباه	-8.7676
▁دوستان	-8.76799
ص	-8.7685
▁گسترش	-8.76972
ده	-8.77023
».	-8.77134
▁ترکیه	-8.77278
▁پشتیبانی	-8.7729
▁دل	-8.77385
َ	-8.78011
▁تماس	-8.78285
▁بشر	-8.78352
▁رفتن	-8.78361
▁مت	-8.78516
▁قوانین	-8.78656
▁کره	-8.7882
▁بازگشت	-8.79127
▁تازه	-8.79212
▁بلند	-8.79227
▁نو	-8.79254
▁N	-8.79319
▁تکنولوژی	-8.79364
▁تنظیم	-8.79437
▁شخصیت	-8.79587
▁نقطه	-8.79594
▁اوقات	-8.79595
▁نیروهای	-8.79694
▁برند	-8.79736
n	-8.80169
▁تن	-8.80453
▁ترامپ	-8.80542
▁احتمالا	-8.80634
▁جنسی	-8.80994
▁عبارت	-8.81098
▁تمرین	-8.81225
اد	-8.81227
▁ظاهر	-8.81338
▁آتش	-8.81418
▁فصل	-8.81435
▁دختر	-8.81444
چقدر	-8.81483
▁مستقیم	-8.81557
▁مبارزه	-8.81646
▁قصد	-8.8166
▁استراتژی	-8.81662
▁۴	-8.81721
▁مجبور	-8.81899
▁هوا	-8.82039
▁اقدام	-8.8227
▁ست	-8.8232
▁ع	-8.82461
▁خصوصی	-8.82631
"	-8.82673
▁تأثیر	-8.82729
▁مو	-8.82863
in	-8.82865
▁ک	-8.82987
▁صلح	-8.83033
B	-8.83251
▁یادگیری	-8.83421
▁شبیه	-8.83482
”	-8.83531
▁ریزی	-8.83659
▁مقابل	-8.83673
▁نیروی	-8.83707
▁کو	-8.83758
خ	-8.83951
رو	-8.83989
▁دنیای	-8.84125
▁موقعیت	-8.84171
▁آدم	-8.84188
▁قدیمی	-8.84219
▁ذهن	-8.84421
▁معرفی	-8.84486
▁مشترک	-8.84507
▁گوگل	-8.84508
▁اعمال	-8.84513
▁چطور	-8.84754
▁عراق	-8.84826
▁فضای	-8.84913
یر	-8.84976
▁مفید	-8.85252
▁هند	-8.85262
▁پذیر	-8.85283
▁تحلیل	-8.85488
▁حزب	-8.85753
▁عامل	-8.85849
▁کجا	-8.86196
▁نشانه	-8.86273
▁بزرگترین	-8.8692
l	-8.86965
▁شدت	-8.86981
▁لی	-8.86996
▁رسیدن	-8.87193
اف	-8.87236
▁حاصل	-8.87523
▁مقایسه	-8.87523
▁لباس	-8.87526
یا	-8.87714
▁نکته	-8.87864
ایی	-8.87956
▁ات	-8.881
مان	-8.88124
▁س	-8.88242
▁تلفن	-8.88272
▁فراموش	-8.88292
▁20	-8.88354
▁آقای	-8.88392
▁دچار	-8.88463
▁کانادا	-8.88512
8	-8.88674
S	-8.88675
P	-8.88679
▁حس	-8.88805
▁همانطور	-8.88816
▁جمعیت	-8.88834
ك	-8.88891
عدم	-8.8929
▁گرم	-8.89309
▁سنگ	-8.89543
▁ورزش	-8.89749
▁اتحادیه	-8.89765
▁مدیر	-8.89884
▁مثبت	-8.89933
▁مطالعات	-8.89934
▁ضد	-8.901
T	-8.90307
که	-8.90379
▁هنر	-8.9038
▁دوربین	-8.90464
G	-8.9071
▁درون	-8.90794
▁دسترس	-8.9087
▁علمی	-8.90884
▁طبق	-8.90917
o	-8.91017
▁برقرار	-8.91177
▁خودم	-8.91255
al	-8.91281
▁ى	-8.91452
یس	-8.91598
▁مد	-8.91669
▁راحتی	-8.91801
▁نداشته	-8.92044
▁جایگزین	-8.92048
▁رسمی	-8.92082
▁داری	-8.92486
▁مراقبت	-8.92635
▁اطراف	-8.92758
▁انسانی	-8.9283
O	-8.92843
▁اشتراک	-8.92852
گر	-8.92935
▁جستجو	-8.92988
▁زده	-8.93059
▁رسیده	-8.93199
▁دانند	-8.93324
▁توانم	-8.93465
▁سیاه	-8.93489
▁صدای	-8.93538
▁عملیات	-8.93551
▁W	-8.93645
▁نحو	-8.93844
▁محققان	-8.939
▁محتوای	-8.94115
▁قرآن	-8.94138
▁سبک	-8.94207
▁خواست	-8.9425
▁فردی	-8.94278
▁واکنش	-8.94298
▁زیست	-8.94396
u	-8.94475
▁روزانه	-8.94722
▁ارزیابی	-8.94757
an	-8.94797
▁نقل	-8.94832
▁امنیتی	-8.94845
▁جالب	-8.94938
ط	-8.94993
▁لو	-8.95005
▁کلاس	-8.95101
▁پزشک	-8.95118
▁خوردن	-8.95142
▁جدا	-8.95157
▁منبع	-8.95213
▁العاده	-8.95306
▁دانشجویان	-8.95339
▁حکومت	-8.95488
▁شناسایی	-8.95492
▁معنای	-8.9551
▁پسر	-8.95521
▁علائم	-8.95673
▁تعریف	-8.95765
▁وزیر	-8.96048
▁رفته	-8.96421
▁ل	-8.96474
▁12	-8.96503
▁شش	-8.96539
▁دیجیتال	-8.96693
▁تک	-8.96724
نا	-8.97008
▁لیست	-8.97211
▁ترس	-8.97234
چ	-8.97274
▁حمل	-8.97285
▁دیدن	-8.9735
▁خودشان	-8.97473
▁علت	-8.97495
▁درجه	-8.97522
▁مبتلا	-8.9763
▁ماند	-8.97804
▁لحظه	-8.97818
▁۱۹	-8.97903
▁دکتر	-8.97967
▁بالاتر	-8.98027
."	-8.98078
▁پایه	-8.98113
▁افزار	-8.9819
▁دهم	-8.98246
▁انقلاب	-8.98267
▁هدایت	-8.98291
لا	-8.98351
گان	-8.98395
▁9	-8.98415
R	-8.98895
▁اقدامات	-8.989
▁موثر	-8.98965
▁اسلامی	-8.98968
ّ	-8.99104
▁متوسط	-8.99243
▁پلیس	-8.99368
▁اس	-8.99433
▁تحصیل	-8.9953
▁زود	-8.99646
▁مطرح	-8.99722
▁انگیز	-8.9985
▁افتد	-8.99949
▁15	-8.99996
▁حذف	-9.00011
▁ثابت	-9.00204
▁انتخابات	-9.00339
▁برگزار	-9.00358
▁قانونی	-9.00384
▁موجب	-9.00431
▁حوز	-9.00601
▁ورود	-9.00604
▁اصل	-9.0071
▁پست	-9.0077
▁دفاع	-9.00815
▁کلمه	-9.00901
▁اگرچه	-9.00913
▁سازد	-9.01105
▁نکرده	-9.01143
ing	-9.01194
▁آرام	-9.01196
f	-9.01357
▁ضروری	-9.01389
,	-9.0147
▁چالش	-9.01486
▁محافظت	-9.01583
▁نگران	-9.0164
▁جذب	-9.01761
▁امام	-9.0182
▁بیمار	-9.02003
▁هوشمند	-9.0216
▁]	-9.02241
تون	-9.02257
g	-9.02343
▁امور	-9.02407
/	-9.02429
▁شمالی	-9.02447
en	-9.02448
▁خاصی	-9.02456
▁سو	-9.02491
▁پرواز	-9.02585
▁لا	-9.02642
F	-9.02849
7	-9.02881
▁دانلود	-9.02945
▁بن	-9.03137
▁ببینید	-9.03449
▁فرهنگی	-9.03492
▁استاندارد	-9.0368
▁کارت	-9.03728
▁معتقد	-9.03854
▁عمر	-9.03953
▁عوامل	-9.04043
▁•	-9.04049
▁ماده	-9.04068
▁ز	-9.04105
▁۶	-9.04227
▁ترکیب	-9.04232
▁سود	-9.04279
ری	-9.04438
▁تست	-9.04443
▁مدرن	-9.04607
▁ارتش	-9.04668
▁خواندن	-9.04719
▁).	-9.04767
▁نجات	-9.04849
▁رد	-9.05148
▁بیماران	-9.05152
▁تصاویر	-9.05153
▁امروزه	-9.05208
▁ستاره	-9.05255
▁عمیق	-9.05264
نی	-9.05519
▁کی	-9.05542
وم	-9.05549
▁شغل	-9.05577
▁نمود	-9.05672
▁اجرای	-9.05744
▁18	-9.05764
▁دولتی	-9.05768
▁فایل	-9.05801
▁آخر	-9.05919
re	-9.06107
▁دشوار	-9.06207
▁خلق	-9.06285
▁ترتیب	-9.06378
9	-9.06491
▁بگیرد	-9.06504
▁دیدگاه	-9.06609
▁بدانید	-9.06625
▁قطع	-9.06807
▁پیچیده	-9.06998
▁30	-9.07076
or	-9.07153
▁امریکا	-9.07168
I	-9.0722
▁فاصله	-9.07308
▁رقابت	-9.07465
▁موسس	-9.07849
▁علی	-9.08016
▁فناوری	-9.08035
▁مسئولیت	-9.0806
▁اساسی	-9.08089
نگ	-9.08119
▁توانست	-9.08201
▁بحران	-9.08245
▁شیوه	-9.08253
▁گو	-9.08281
▁of	-9.08552
▁بازدید	-9.08625
▁معمول	-9.08733
m	-9.08969
▁دانم	-9.09256
▁خشونت	-9.09721
▁خ	-9.0977
▁جواب	-9.10055
▁کشته	-9.1012
▁کامپیوتر	-9.10349
▁معمولاً	-9.10448
▁بزرگی	-9.10602
▁کلیدی	-9.10638
▁کنی	-9.10773
▁دلایل	-9.10804
▁علم	-9.10999
▁رهبری	-9.11005
▁آل	-9.11131
▁شگفت	-9.11219
توقف	-9.11289
ث	-9.114
ar	-9.11474
▁راست	-9.11486
▁جو	-9.11597
▁فرزند	-9.11698
یک	-9.11706
▁قدر	-9.11716
کس	-9.11909
▁مقامات	-9.12064
▁آموزشی	-9.12196
▁V	-9.12212
▁گر	-9.12436
▁دانشمندان	-9.12674
▁تهی	-9.12771
▁ایمیل	-9.12778
▁مانده	-9.12837
▁استرس	-9.1295
▁دانید	-9.12954
▁مشارکت	-9.12959
▁نگرانی	-9.13023
▁سرویس	-9.13069
▁وسیله	-9.13071
▁زیبا	-9.13188
▁ملل	-9.13194
▁دندان	-9.13205
▁خدمت	-9.13214
▁جنوبی	-9.13265
ذخیره	-9.13289
▁آورده	-9.13418
▁گفتند	-9.13448
ایل	-9.13734
▁آمیز	-9.13763
▁اين	-9.13791
وی	-9.13908
▁K	-9.14067
▁صبح	-9.14145
▁مگر	-9.14237
▁مند	-9.14353
L	-9.14362
▁نفس	-9.14396
▁ناشی	-9.14624
▁وزارت	-9.14842
عرض	-9.14937
▁نسل	-9.14994
▁داند	-9.15053
el	-9.15055
▁اسلام	-9.15056
▁دارو	-9.15124
▁تکرار	-9.15169
▁خواند	-9.1529
▁کشورها	-9.15388
▁منفی	-9.15413
▁خانم	-9.15589
▁اندازی	-9.15641
▁The	-9.15739
▁هفت	-9.15747
▁سخن	-9.15766
N	-9.15796
▁عرضه	-9.16374
▁سلاح	-9.1642
▁شماره	-9.16443
k	-9.16475
▁پ	-9.16505
▁کلمات	-9.16647
اده	-9.16667
▁گاز	-9.16702
▁نماید	-9.1671
▁قبول	-9.16764
▁محدودیت	-9.16824
▁کشتی	-9.17057
▁منتظر	-9.17079
▁قبلی	-9.1709
▁احساسات	-9.17116
▁درمانی	-9.17157
▁زدن	-9.17169
تقویت	-9.17219
▁J	-9.17345
▁نرخ	-9.17449
▁نوشتن	-9.17535
▁نیازهای	-9.17725
▁ساختار	-9.17807
▁هوایی	-9.1785
▁پوشش	-9.17953
▁ار	-9.17965
▁آگاه	-9.17976
▁باشم	-9.17983
نت	-9.1804
▁۲۰	-9.18164
▁شویم	-9.18309
▁p	-9.1835
h	-9.18407
▁شدم	-9.18462
▁قابلیت	-9.18545
it	-9.18628
▁آوردن	-9.18832
نده	-9.18876
▁۸	-9.18882
▁رشته	-9.19184
▁تمایل	-9.1921
▁ارشد	-9.193
▁ج	-9.19339
▁دانیم	-9.19385
▁کارکنان	-9.19417
▁نهایی	-9.19425
ود	-9.19645
▁والدین	-9.19651
▁ذکر	-9.19771
▁هتل	-9.19777
۱	-9.19904
▁گران	-9.19956
▁امید	-9.19968
▁».	-9.20094
▁مواجه	-9.20243
▁همواره	-9.20301
▁حیوانات	-9.20392
▁انداز	-9.20396
▁بدتر	-9.20492
▁بنا	-9.2051
▁خواسته	-9.20561
▁چرخ	-9.20581
▁واحد	-9.20709
▁نظارت	-9.20958
▁عاشق	-9.21043
▁مستقل	-9.21068
▁50	-9.2107
▁نصب	-9.21187
٪	-9.21204
▁بله	-9.21302
▁شک	-9.21409
▁صاحب	-9.21545
▁c	-9.21618
▁ـ	-9.21643
وا	-9.21757
▁سگ	-9.21906
▁برسد	-9.22027
▁O	-9.22037
▁عهد	-9.2216
▁ساز	-9.22272
▁تری	-9.2232
▁پاک	-9.2264
U	-9.22663
▁زندان	-9.22682
et	-9.22863
▁بگیرند	-9.22882
6	-9.23083
▁روزنامه	-9.23098
▁ژاپن	-9.23136
▁تقسیم	-9.23233
▁عوض	-9.23233
▁11	-9.23274
ـ	-9.23277
▁خیر	-9.2358
▁سالگی	-9.23601
▁کاربر	-9.23693
▁اداره	-9.23726
▁احترام	-9.23731
▁فیزیکی	-9.23896
▁تلویزیون	-9.24007
▁a	-9.24156
▁تاریخی	-9.2423
▁ایمان	-9.24406
▁قدم	-9.245
غ	-9.24805
▁حفاظت	-9.24826
▁آسمان	-9.24855
▁گاه	-9.25122
▁مي	-9.25123
▁وعده	-9.25157
▁سبز	-9.25198
▁نویسنده	-9.25276
▁خودمان	-9.25333
▁قدرتمند	-9.25387
▁نظام	-9.25391
▁نامید	-9.25396
▁گام	-9.25679
▁چاپ	-9.25964
▁مشغول	-9.26071
▁رهبران	-9.2611
▁مهمی	-9.26337
▁متن	-9.2655
▁شمار	-9.26569
▁رایگان	-9.26614
▁مرکزی	-9.26672
▁۹	-9.26864
▁غرب	-9.26906
▁دفتر	-9.26957
▁تایید	-9.26978
▁خورشید	-9.27051
▁غربی	-9.27103
▁زیبایی	-9.27171
▁متحد	-9.2719
▁ق	-9.27279
▁الان	-9.2732
▁علوم	-9.27461
▁شاهد	-9.27532
▁لحاظ	-9.27582
▁شیر	-9.27612
▁کد	-9.27745
لی	-9.28316
▁اعتقاد	-9.28361
ُ	-9.28378
▁اروپایی	-9.28471
▁چنان	-9.28503
▁داشتم	-9.28558
▁دین	-9.28566
▁مطلب	-9.28603
▁دقت	-9.28603
▁100	-9.2863
▁هشدار	-9.2879
▁استرالیا	-9.28823
▁صدا	-9.28836
▁فرم	-9.2886
▁فرض	-9.2887
وت	-9.28946
▁راحت	-9.29006
نامه	-9.29081
0	-9.29101
▁نباشد	-9.29275
▁آی	-9.2929
▁تولد	-9.29376
▁چینی	-9.29382
▁تقریب	-9.29556
▁تحریم	-9.29657
▁گوشی	-9.29771
▁موتور	-9.29956
▁تضمین	-9.30024
▁خریدار	-9.30115
▁سلامتی	-9.3012
▁دسته	-9.30192
▁برق	-9.30313
گو	-9.30344
V	-9.30363
on	-9.30428
at	-9.30532
▁جراحی	-9.30554
▁بیمارستان	-9.30683
▁آگاهی	-9.30778
▁دادگاه	-9.30958
▁منحصر	-9.31038
▁تبلیغات	-9.31044
▁طبقه	-9.31201
▁فعلی	-9.31294
▁منافع	-9.31466
▁بریتانیا	-9.31693
▁عربستان	-9.31732
▁برخورد	-9.31789
▁اقامت	-9.31845
▁گفتم	-9.31854
ur	-9.31899
▁مهاجرت	-9.3191
▁قهوه	-9.31995
▁بودجه	-9.32124
▁گری	-9.32234
▁یه	-9.32287
▁پارک	-9.32338
▁b	-9.32493
▁ضرب	-9.32528
▁رنج	-9.32672
▁تکنیک	-9.32795
▁چگونگ	-9.32928
▁بقی	-9.32967
▁اصول	-9.33243
▁چی	-9.33323
با	-9.3346
▁هشت	-9.33675
▁گذارد	-9.3368
▁نابود	-9.33737
le	-9.33889
▁استاد	-9.33916
▁صورتی	-9.33953
H	-9.3403
▁جنب	-9.34085
▁آیند	-9.34094
▁امن	-9.34286
▁عادی	-9.34322
▁مصاحبه	-9.34549
▁شیمیایی	-9.34554
▁پرسش	-9.34601
▁روح	-9.34642
▁عجیب	-9.34686
▁فرآیند	-9.34793
▁اسم	-9.34797
▁شمال	-9.34818
▁بگذارید	-9.34829
▁مایل	-9.35033
▁زد	-9.35055
▁توصیف	-9.35232
▁نیازمند	-9.35333
▁عقب	-9.35517
▁فضا	-9.3553
▁افتاد	-9.35727
▁منتقل	-9.35782
▁جلسه	-9.35782
▁اطلاع	-9.35806
▁عین	-9.3581
▁شنید	-9.35826
▁فن	-9.35908
▁بدهید	-9.36014
▁محبوب	-9.36031
▁صنعتی	-9.36145
▁کارگران	-9.36195
▁روغن	-9.36196
▁طبیعت	-9.36335
▁باره	-9.36554
▁قرارداد	-9.36554
از	-9.36604
▁مزایای	-9.3667
▁جنوب	-9.36783
▁ترجیح	-9.36891
▁مفهوم	-9.3703
▁فروشگاه	-9.37089
▁۷	-9.3712
▁وبلاگ	-9.3717
▁U	-9.37225
▁حملات	-9.37339
▁اصلاح	-9.37494
▁بیت	-9.37535
▁دستور	-9.37536
▁پل	-9.37727
▁صحنه	-9.37733
▁عفونت	-9.37733
▁رتبه	-9.37871
کر	-9.38111
▁کارشناس	-9.38135
▁ترجمه	-9.38153
▁مقام	-9.38216
▁جایزه	-9.38301
▁فر	-9.38317
▁بزرگتر	-9.38402
چه	-9.38435
▁نگهداری	-9.38513
▁۳۰	-9.3856
▁هیجان	-9.38578
▁امضا	-9.3858
▁X	-9.38581
▁نداشت	-9.38591
▁تامین	-9.38609
(	-9.38691
▁16	-9.38924
▁دعوت	-9.39003
▁خطرناک	-9.39007
▁۱۵	-9.3922
▁ایمنی	-9.39224
▁پای	-9.39232
▁هزاران	-9.39234
بی	-9.39262
▁نقاط	-9.3929
▁t	-9.3937
▁دروغ	-9.39442
▁بتوانند	-9.39457
▁ملت	-9.39672
000	-9.39687
نس	-9.3971
▁ویتامین	-9.39718
▁اهل	-9.3972
ذ	-9.39784
▁پیشرفته	-9.39864
▁بستگ	-9.39993
▁شهری	-9.40064
▁آشکار	-9.40071
ض	-9.40082
ين	-9.40095
▁برنده	-9.40147
▁انتشار	-9.40179
▁لینک	-9.40193
▁مقاومت	-9.40322
▁f	-9.40389
▁متصل	-9.40437
▁جزیره	-9.40439
▁کانال	-9.40458
▁ملاقات	-9.40582
ینگ	-9.40622
▁رساند	-9.40659
▁عبور	-9.40726
▁میدان	-9.41002
▁بردن	-9.41028
▁پژوهش	-9.41266
▁خورد	-9.41408
%	-9.41458
▁مدیران	-9.41489
▁ادعا	-9.41508
▁مرز	-9.41582
▁آزمون	-9.416
▁رها	-9.41708
▁ارتباطات	-9.41746
▁فرزندان	-9.41822
▁فوتبال	-9.41892
▁الهی	-9.41941
▁قرمز	-9.42038
▁ویروس	-9.42039
▁جزئیات	-9.42077
▁درس	-9.42195
▁میشود	-9.42236
▁گذشت	-9.42365
▁13	-9.42443
▁معروف	-9.42481
کا	-9.42481
▁دریایی	-9.4255
▁رهبر	-9.42581
▁برداشت	-9.42708
▁دشمن	-9.42727
ئی	-9.42743
▁کارها	-9.42784
يد	-9.42908
▁سرزمین	-9.42923
▁آشنا	-9.42928
▁محتوا	-9.43073
اجتناب	-9.43219
▁مسال	-9.43283
▁فرار	-9.43353
▁25	-9.43414
۲	-9.43434
▁سرد	-9.43506
▁بطور	-9.43517
▁تفکر	-9.43524
▁تجهیزات	-9.4368
K	-9.43685
▁تشویق	-9.43815
▁خاک	-9.43822
▁بدان	-9.43929
▁یافتن	-9.43943
▁پنهان	-9.44115
۴	-9.44245
▁تعامل	-9.44278
▁پایدار	-9.44321
▁انجمن	-9.44414
▁کا	-9.44473
▁بروید	-9.44566
▁نظریه	-9.44597
▁بروز	-9.44692
ء	-9.44747
▁بودیم	-9.44834
▁14	-9.44855
▁آر	-9.44863
▁دهندگان	-9.44987
▁پیروزی	-9.45105
▁عادت	-9.45168
▁تاکنون	-9.45168
▁باغ	-9.45273
▁پخ	-9.45308
▁مخالف	-9.45336
▁شهروندان	-9.45399
▁بند	-9.45451
▁وظیفه	-9.45472
▁ایالت	-9.45549
▁چپ	-9.45704
▁میلادی	-9.45836
▁ثانیه	-9.45836
▁ریسک	-9.4594
▁پدید	-9.46047
▁هاست	-9.46154
▁نیویورک	-9.46234
...	-9.46319
▁شانس	-9.4633
▁جنبش	-9.46389
▁n	-9.46397
▁کلید	-9.46429
۳	-9.46449
us	-9.46463
▁متر	-9.46589
▁ماهی	-9.46667
▁19	-9.46726
▁اعتبار	-9.46774
▁سعودی	-9.46849
▁محسو	-9.46852
▁پاکستان	-9.46854
▁اتفاقی	-9.46894
▁نیمه	-9.46909
▁امتحان	-9.47042
▁انگیزه	-9.47049
یده	-9.47105
▁ناراحت	-9.47156
▁.»	-9.47209
ic	-9.4722
▁حضرت	-9.47311
b	-9.47323
▁اظهار	-9.47352
▁متمرکز	-9.47466
▁جایگاه	-9.47546
▁موقع	-9.47584
▁سوخت	-9.47666
▁مسئول	-9.47711
▁رویکرد	-9.47776
گونه	-9.47795
▁افتاده	-9.47831
▁واضح	-9.47931
▁همسر	-9.48008
▁همانند	-9.48016
▁گ	-9.48025
▁شناسی	-9.48085
▁امسال	-9.48087
▁قبلا	-9.48088
▁اضافی	-9.48243
▁d	-9.48286
▁بتوانید	-9.48348
▁تغذیه	-9.48399
▁بیدار	-9.48447
▁۱۲	-9.48467
00	-9.48495
▁گروهی	-9.48543
▁ممنوع	-9.48556
▁سابق	-9.48639
آ	-9.48682
▁درگیر	-9.48691
▁مداوم	-9.48713
▁بگویید	-9.48724
▁آور	-9.48797
▁مقابله	-9.48806
▁نوعی	-9.48854
▁برچسب	-9.4887
▁روزهای	-9.48913
تو	-9.49016
▁عدد	-9.49027
▁کردید	-9.49156
▁پذیری	-9.4916
▁طلا	-9.492
▁نماز	-9.49207
▁کشد	-9.49242
▁سپتامبر	-9.49342
▁دیدار	-9.49363
▁تاکید	-9.49502
▁خودرو	-9.49624
را	-9.49901
▁چربی	-9.49963
▁توزیع	-9.49975
▁چهره	-9.50027
▁ضعیف	-9.50195
▁بیشترین	-9.50219
▁فنی	-9.50426
▁روزی	-9.50428
▁تنهایی	-9.50443
▁افسردگی	-9.50454
▁ایرانی	-9.50476
▁تخم	-9.50489
▁بدهد	-9.50518
▁صحیح	-9.50533
▁بهداشت	-9.50648
▁مالیات	-9.50709
▁ویزا	-9.50814
▁راهی	-9.50836
▁گفتن	-9.50902
▁e	-9.5091
▁شماست	-9.50948
▁حداکثر	-9.51094
▁پروتئین	-9.51094
▁برخوردار	-9.5111
▁سختی	-9.51231
دار	-9.51326
▁پذیرش	-9.51359
▁خیابان	-9.51428
▁دانست	-9.51544
▁آورند	-9.51583
▁نیم	-9.51724
▁اختصاص	-9.51759
th	-9.51852
▁بخوانید	-9.51906
▁سیاره	-9.51907
▁غذاهای	-9.5192
▁اد	-9.52001
سی	-9.52002
▁بوک	-9.52036
▁مراحل	-9.52065
▁میکند	-9.52082
▁آثار	-9.52225
▁معمولی	-9.52266
▁دقیقا	-9.52294
W	-9.52296
▁مجدد	-9.52348
▁شغلی	-9.52359
▁فرایند	-9.52391
▁زند	-9.52481
▁کنفرانس	-9.5255
▁متخصص	-9.52557
سون	-9.52594
وز	-9.52637
لو	-9.52767
▁سنت	-9.52848
ol	-9.52853
▁انگلستان	-9.52877
▁آموز	-9.52887
▁سنگین	-9.52963
▁40	-9.52978
▁پذیرفت	-9.52986
▁عملی	-9.53063
▁بگویم	-9.53068
کت	-9.53077
▁آهن	-9.53251
▁جذاب	-9.53331
▁بدین	-9.53387
▁اختلال	-9.53423
▁افکار	-9.53543
سر	-9.53576
▁ری	-9.53596
▁حافظه	-9.53631
اری	-9.53723
▁گرفتند	-9.5373
▁قلبی	-9.53733
▁دهان	-9.53735
▁استخدام	-9.53863
▁برده	-9.53867
▁مطابق	-9.5388
▁ایتالیا	-9.53991
زی	-9.54111
il	-9.54119
▁گرد	-9.54208
▁r	-9.54215
▁خوشحال	-9.54235
▁سری	-9.54247
▁همزمان	-9.5436
▁17	-9.54508
▁جستجوی	-9.54584
▁افزود	-9.54634
▁شناخت	-9.54684
▁قتل	-9.54695
▁بیمه	-9.54771
▁موزه	-9.54839
▁شورای	-9.54857
▁پرورش	-9.54859
▁ارزان	-9.54869
▁اصلا	-9.54928
▁بارداری	-9.551
وش	-9.55104
وق	-9.55127
▁سیگار	-9.55202
▁دیوار	-9.55202
▁نشست	-9.55379
▁میوه	-9.55445
▁جاده	-9.5545
▁گردید	-9.55492
▁صادر	-9.55582
▁داروهای	-9.55589
▁in	-9.5569
▁نفوذ	-9.55696
▁تهران	-9.55698
▁مصر	-9.55709
حاوی	-9.55718
▁تجزی	-9.55864
▁هایشان	-9.56081
▁سین	-9.56104
▁روان	-9.56122
ra	-9.56132
▁پرو	-9.56185
▁اصطلاح	-9.56202
▁مذاکره	-9.56202
▁m	-9.56293
▁24	-9.56331
▁نمایند	-9.56345
سازی	-9.56454
▁اون	-9.56528
▁مس	-9.56811
▁یکسان	-9.56894
▁بهتری	-9.56989
اخر	-9.5702
▁هرچند	-9.57051
▁وسیع	-9.57052
▁فرو	-9.57058
▁مراجع	-9.5714
▁فرمود	-9.57335
▁سوء	-9.57406
▁مانع	-9.57414
.”	-9.57447
▁کوه	-9.57462
▁هواپیما	-9.57625
▁نقشه	-9.57771
▁محکوم	-9.57907
▁معامله	-9.57907
کو	-9.57977
▁اپل	-9.58134
▁اندک	-9.58156
▁شوم	-9.58245
▁فهرست	-9.58424
▁صبر	-9.58435
▁۱۸	-9.58497
دا	-9.58508
▁متعدد	-9.58597
▁افتخار	-9.5877
▁خلاصه	-9.58811
▁جی	-9.58895
▁لندن	-9.58963
▁نشد	-9.59082
▁بازداشت	-9.59128
▁نمایید	-9.59142
▁مک	-9.59262
▁مبتنی	-9.59292
▁بخواهید	-9.593
▁موضوعات	-9.59363
▁تکمیل	-9.59466
▁60	-9.59489
▁کلیک	-9.59531
اک	-9.5956
▁جشن	-9.59648
▁عیس	-9.59696
▁[...]	-9.59817
▁رانندگی	-9.59817
▁موشک	-9.59881
▁عدالت	-9.59992
▁تمیز	-9.59993
لقو	-9.60008
▁گذار	-9.60018
▁ریشه	-9.60111
▁۵۰	-9.60111
▁واشنگتن	-9.60168
رت	-9.60198
▁اثرات	-9.60318
کار	-9.60434
▁شر	-9.60487
▁گناه	-9.60496
▁چهارم	-9.60563
ارغ	-9.60564
فر	-9.60573
am	-9.60634
▁ص	-9.6065
▁برادر	-9.6069
▁ببرید	-9.60706
▁براساس	-9.61051
▁سقوط	-9.61051
▁خویش	-9.61053
▁پایگاه	-9.61252
▁ندارید	-9.61252
▁سخنرانی	-9.61272
▁درخت	-9.61332
▁پیوند	-9.61349
▁مذاکرات	-9.61407
▁کمبود	-9.61407
▁نزد	-9.61412
▁تحمل	-9.61535
▁نوشت	-9.61619
▁مارس	-9.61652
▁آبی	-9.61669
▁ساختن	-9.61711
▁بازیکنان	-9.61762
▁مشاور	-9.61777
▁هویت	-9.6179
▁مشهور	-9.61943
▁تابستان	-9.61993
▁گوشت	-9.62107
▁زودی	-9.62302
▁پیامبر	-9.6232
▁پزشکان	-9.62325
▁برداری	-9.62344
▁همچون	-9.62481
▁بهداشتی	-9.62491
▁برتر	-9.62633
▁شواهد	-9.62661
▁خانگی	-9.62672
▁مطالب	-9.62728
▁بهشت	-9.62761
▁چک	-9.62833
این	-9.62951
▁آهنگ	-9.63238
▁فضایی	-9.6328
▁مجوز	-9.63346
▁نیمی	-9.63371
▁کشاورزی	-9.63377
▁رستوران	-9.63385
▁وابسته	-9.63385
▁بازسازی	-9.63449
▁جرم	-9.63547
▁چ	-9.63736
▁کارخانه	-9.63756
▁سالانه	-9.6378
▁معماری	-9.63953
▁دستیابی	-9.63965
w	-9.64006
▁اخلاقی	-9.64033
▁خشک	-9.64214
▁برجسته	-9.64298
▁محمد	-9.64324
▁حیات	-9.64402
▁سوالات	-9.6446
▁موبایل	-9.64481
مون	-9.64625
▁سنتی	-9.64626
▁مشاوره	-9.64653
▁حجم	-9.64737
▁گشت	-9.64766
▁اکتبر	-9.64849
ئ	-9.64976
▁ارز	-9.65011
▁مذهبی	-9.65146
▁کمتری	-9.65247
▁کر	-9.65486
▁نبوده	-9.65593
در	-9.65728
▁i	-9.65825
▁ندارم	-9.65963
▁رضایت	-9.65979
▁کارمندان	-9.66159
▁صفحات	-9.66335
ia	-9.66409
▁گیر	-9.66469
▁جنگل	-9.66473
▁تأیید	-9.66522
▁معنا	-9.66537
▁سلام	-9.6666
▁خاورمیانه	-9.6671
▁عناصر	-9.66898
▁کیلومتر	-9.66898
▁مراسم	-9.6691
▁استقلال	-9.67086
▁كرد	-9.67096
▁مسلمان	-9.67389
اس	-9.67403
▁ض	-9.67494
▁جاری	-9.67542
▁هوش	-9.67595
ad	-9.67611
۵	-9.67624
▁فرستاد	-9.67837
▁فی	-9.67841
▁مدارس	-9.68078
ینه	-9.68186
▁۱۰۰	-9.68297
▁l	-9.683
وب	-9.68368
▁مهندسی	-9.68392
▁نموده	-9.68395
X	-9.68401
ژانس	-9.68412
▁بلافاص	-9.68629
کن	-9.68666
▁the	-9.6875
▁آدرس	-9.68797
▁عصر	-9.68797
▁بارها	-9.68839
▁ماست	-9.68871
بر	-9.68914
ch	-9.68956
▁پردازش	-9.69016
▁قالب	-9.69181
ro	-9.6928
▁حکم	-9.69281
▁مجلس	-9.69393
▁خرد	-9.69404
گرد	-9.6948
بل	-9.69573
z	-9.6976
▁فرانسوی	-9.69761
▁اولویت	-9.69761
ئو	-9.69986
▁کتابخانه	-9.69997
is	-9.70031
▁ing	-9.70148
▁کشید	-9.70328
▁معتبر	-9.70345
▁گذاران	-9.70365
▁تی	-9.70367
▁قطعا	-9.70401
▁روبرو	-9.70545
▁انگلیس	-9.70574
▁شهرهای	-9.7066
▁دسامبر	-9.70733
es	-9.70734
▁چای	-9.70757
▁نهاد	-9.70802
▁مصنوعی	-9.70812
▁تور	-9.70828
▁پرونده	-9.70941
▁گویم	-9.71028
▁جوانان	-9.71091
▁سادگی	-9.71128
▁مرغ	-9.71131
▁سا	-9.71146
▁ژانویه	-9.71321
فت	-9.71402
▁عرض	-9.71432
▁'	-9.71511
▁سطوح	-9.71518
▁دادم	-9.71589
▁مجموع	-9.71604
▁مهمان	-9.71682
▁منزل	-9.71727
▁باشگاه	-9.71728
▁آلمانی	-9.71771
▁بازیکن	-9.71804
▁2015	-9.71913
▁ابزارهای	-9.7194
▁متخصصان	-9.71953
▁and	-9.71972
▁پاریس	-9.72114
▁نقاشی	-9.72136
▁بال	-9.72173
▁کارگر	-9.72313
نه	-9.72416
▁دختران	-9.72448
▁آیت	-9.72455
▁ابر	-9.72503
▁نظیر	-9.72508
▁مقدس	-9.72509
▁شریک	-9.72544
▁گذر	-9.72545
▁+	-9.72566
▁یك	-9.72636
▁شنبه	-9.72719
▁دومین	-9.72725
▁اف	-9.72859
▁مجله	-9.72911
▁Google	-9.73107
▁ترافیک	-9.73107
▁ایستگاه	-9.73114
▁عمده	-9.73134
▁طیف	-9.73251
▁آمار	-9.73338
وف	-9.73523
▁نمایشگاه	-9.73573
▁شرقی	-9.73685
▁ثروت	-9.73705
▁نوامبر	-9.7371
▁بیست	-9.73731
▁مست	-9.73781
▁مسابقه	-9.73787
▁آرامش	-9.73791
▁پنجره	-9.73811
▁نزدیکی	-9.73861
▁دموکراسی	-9.73911
▁سبب	-9.73911
▁وسایل	-9.73914
▁دیابت	-9.73916
▁نداریم	-9.74147
▁همکاران	-9.74183
▁ژوئن	-9.74316
▁خسته	-9.74519
▁پاداش	-9.7452
▁مدرک	-9.74524
▁سریال	-9.74562
▁فردا	-9.74566
بط	-9.74623
نو	-9.74632
▁کارگردان	-9.74636
▁اثبات	-9.74722
▁شیطان	-9.74722
▁بزنید	-9.74732
▁رمز	-9.74767
▁خورده	-9.74892
▁تحصیلی	-9.74926
▁ثبات	-9.74926
▁دعا	-9.75045
▁خالی	-9.75063
▁صادرات	-9.75063
▁کاربرد	-9.75211
▁حتما	-9.75222
▁رز	-9.75287
▁اسپانیا	-9.75297
▁منظم	-9.75349
▁فرمان	-9.75457
▁سهم	-9.75561
ed	-9.75568
▁ظرفیت	-9.75571
▁برگشت	-9.75593
▁فرق	-9.756
▁اتصال	-9.75836
▁دیدم	-9.75895
▁بافت	-9.75998
▁مجازات	-9.76051
▁دیر	-9.76055
▁پرسید	-9.76206
▁کان	-9.76287
▁دارایی	-9.76301
ة	-9.76363
▁الکترونیکی	-9.76432
زا	-9.76465
▁غنی	-9.76581
▁بس	-9.76582
▁نبرد	-9.76598
▁زا	-9.76606
▁آفریقا	-9.76724
▁خروج	-9.76725
▁کور	-9.76746
▁امیدوار	-9.76748
▁امیدوارم	-9.76759
▁سهام	-9.76783
▁سابقه	-9.77087
▁مکمل	-9.77197
▁امتیاز	-9.77289
▁هرگونه	-9.77317
▁تون	-9.7737
▁نوزاد	-9.77419
کی	-9.77431
▁نویسی	-9.77479
▁جلب	-9.77627
اگر	-9.77645
▁اجرایی	-9.77689
وک	-9.77742
▁؟!	-9.77826
▁شاه	-9.77839
مه	-9.77861
▁بیانی	-9.77868
▁متعلق	-9.77905
▁انگار	-9.78055
▁هاي	-9.78159
▁نادیده	-9.78242
▁کمپانی	-9.78243
▁کمیته	-9.78248
▁فرودگاه	-9.78251
اژه	-9.78299
▁تعجب	-9.78323
▁سؤال	-9.78339
▁مخفی	-9.78351
▁فیس	-9.78388
▁ژن	-9.78408
▁ابتلا	-9.78453
▁متولد	-9.78453
▁عظیم	-9.78647
▁معلم	-9.7868
▁عصبی	-9.78761
▁خلاف	-9.78782
▁h	-9.78819
v	-9.78829
۷	-9.78882
▁آزار	-9.78893
جا	-9.78972
▁صنایع	-9.79088
▁مسلمانان	-9.79096
▁ارزشمند	-9.79104
▁تصوی	-9.79118
un	-9.79121
▁قول	-9.79154
▁اوباما	-9.79301
▁تصادف	-9.79304
▁لطفا	-9.79348
▁طلب	-9.7939
▁تعهد	-9.79424
▁وظایف	-9.79514
▁Re	-9.79545
▁موقت	-9.79552
▁هوای	-9.79613
▁Z	-9.79646
▁بو	-9.79681
▁تکامل	-9.79728
▁خواستار	-9.79802
یسم	-9.79806
مت	-9.79873
▁یخ	-9.79899
▁پادشاه	-9.79969
▁رویداد	-9.80134
▁2017	-9.80157
▁مخصوص	-9.80227
▁دا	-9.80254
▁هنری	-9.80354
▁دانشکده	-9.80372
▁مبلغ	-9.80373
▁چندان	-9.80389
▁جانب	-9.80884
▁شرق	-9.80915
دان	-9.81009
سا	-9.81099
یب	-9.81216
▁سیم	-9.81231
▁گی	-9.81284
▁حساس	-9.8131
▁اختلاف	-9.81343
▁استراتژیک	-9.81446
▁ورزشی	-9.81466
▁مراک	-9.81486
▁بینید	-9.8154
▁کاربردی	-9.81547
▁روم	-9.81672
ri	-9.81778
lo	-9.81822
▁اسب	-9.81846
▁هورمون	-9.81891
اپ	-9.81894
▁مدتی	-9.81933
▁نی	-9.81944
▁غذای	-9.82008
▁باتری	-9.82023
▁پیرو	-9.82057
▁w	-9.82103
۶	-9.82107
▁تحویل	-9.82109
دن	-9.82316
ژ	-9.82326
▁ریاست	-9.82334
▁مسیح	-9.8235
▁2018	-9.82548
▁تردید	-9.8255
▁اخبار	-9.82769
▁مهمترین	-9.82802
▁کشیدن	-9.82971
▁تعادل	-9.82989
▁ناحیه	-9.82989
▁اعدام	-9.8299
▁بگوید	-9.8302
▁پیوست	-9.83465
▁روانی	-9.83558
▁وضع	-9.83619
▁نوشیدنی	-9.83641
▁رقم	-9.83655
▁ریز	-9.83692
▁کفش	-9.83756
▁g	-9.83809
▁طالبان	-9.841
▁مردی	-9.84103
▁مه	-9.84174
▁کمپین	-9.84189
as	-9.84198
▁منطقی	-9.84209
▁عربی	-9.84262
▁ورودی	-9.84526
▁تأمین	-9.84549
▁جامع	-9.8456
▁نشود	-9.84596
▁کارشناسان	-9.84635
▁مثلا	-9.84707
ay	-9.84957
▁تحریک	-9.85224
▁قربانی	-9.85279
▁نوآوری	-9.85323
▁موج	-9.85468
▁میکنند	-9.8563
▁بماند	-9.85678
▁خانوادگی	-9.8568
▁لایه	-9.85733
▁خواهر	-9.85904
▁صندلی	-9.85913
▁مدار	-9.85933
▁دائمی	-9.85976
▁خواستم	-9.85977
کل	-9.86322
▁متهم	-9.86379
▁90	-9.86409
▁ظهور	-9.8645
▁بدی	-9.8647
▁رایج	-9.86518
▁برود	-9.86521
▁آیه	-9.86529
▁ترکیبی	-9.86609
▁کاخ	-9.86625
▁تاسیس	-9.86705
▁پیشین	-9.86757
▁خواهان	-9.86804
▁فدرال	-9.86819
▁هستی	-9.86942
▁عوارض	-9.87048
▁چیزها	-9.8714
▁داشتیم	-9.87207
▁خارجه	-9.87212
▁ضمن	-9.87307
▁اتحاد	-9.87496
▁انعط	-9.8751
▁نکات	-9.8751
ژن	-9.87616
▁باکتری	-9.87741
▁الکل	-9.87771
تا	-9.87804
▁فا	-9.87824
▁فقر	-9.87876
▁آسیا	-9.87967
رس	-9.88021
▁مراقب	-9.88071
▁مجاز	-9.8808
▁بل	-9.88151
▁انتقاد	-9.88266
▁تعطیلات	-9.88279
▁ماندن	-9.88284
▁شی	-9.88296
▁کوین	-9.88317
▁کشیده	-9.88365
▁شرط	-9.88456
se	-9.88475
▁بزرگسالان	-9.88511
▁استراحت	-9.88673
▁حادثه	-9.88673
▁نتوانست	-9.88682
▁آمدن	-9.8871
▁انقلابی	-9.88732
▁بمب	-9.88749
▁۱۳	-9.88807
▁ظرف	-9.88872
▁لبخند	-9.88907
▁ویندوز	-9.88907
▁خراب	-9.88918
▁معادل	-9.88933
▁مسکو	-9.88958
▁محیطی	-9.8915
▁مشکلی	-9.89171
▁مقررات	-9.89175
▁ثروتمند	-9.89183
▁شکر	-9.892
▁كار	-9.89278
▁رییس	-9.89398
▁گفتگو	-9.89474
▁غل	-9.89531
▁بایست	-9.89775
▁اقیانوس	-9.89849
▁خطا	-9.89858
نقض	-9.89858
▁سرور	-9.89894
▁خدای	-9.89899
▁امکانات	-9.89964
▁تخت	-9.90128
▁زنی	-9.90167
▁هدیه	-9.90324
▁بگیریم	-9.90343
▁گرچه	-9.9058
▁راضی	-9.90614
▁داعش	-9.908
▁جانبی	-9.90806
▁حسین	-9.90824
▁گمان	-9.90906
▁الهام	-9.91041
▁2016	-9.91043
id	-9.91124
▁وجه	-9.91154
بو	-9.9138
um	-9.91456
▁سرانجام	-9.9152
▁خطوط	-9.91524
اق	-9.91524
▁كند	-9.91625
▁مور	-9.91873
داری	-9.91971
▁مرتب	-9.92013
▁درحالی	-9.92025
▁In	-9.92072
▁ارتباطی	-9.92161
▁میتواند	-9.92226
▁یورو	-9.9225
خانه	-9.92311
▁نیستم	-9.92319
▁جر	-9.92382
گین	-9.92456
▁ید	-9.92464
▁شوروی	-9.92495
▁شاخص	-9.925
▁تشکر	-9.92503
▁تروریستی	-9.92544
▁نظرات	-9.92545
▁راهنمایی	-9.92697
ion	-9.92723
▁اضطراب	-9.9273
▁o	-9.92834
ter	-9.92934
▁ضعف	-9.92974
▁کنگره	-9.92989
▁ناپذیر	-9.93051
▁Y	-9.93217
▁معاملات	-9.93219
▁زنند	-9.93222
▁ماموریت	-9.93228
یست	-9.93257
▁گربه	-9.93259
▁استخوان	-9.93287
▁۴۰	-9.93303
▁کودکی	-9.93327
▁هو	-9.9344
▁سیگنال	-9.93464
▁باد	-9.93531
▁شوهر	-9.93553
۰۰۰	-9.93554
▁کاربری	-9.9361
▁گویی	-9.93706
▁نفع	-9.9371
▁صادق	-9.93928
▁گرا	-9.94137
op	-9.94199
▁قضاوت	-9.94206
▁ژنتیک	-9.94206
▁نماینده	-9.9425
▁محاسب	-9.94337
▁|	-9.94347
▁تئوری	-9.9445
▁کالج	-9.94463
▁۱۴	-9.94573
▁بگذارد	-9.94741
▁باران	-9.94771
▁رفع	-9.94948
▁سینما	-9.94961
▁اخیرا	-9.95015
▁خواهی	-9.95037
▁محور	-9.95156
▁فلسفه	-9.95174
▁0	-9.95234
▁سفارش	-9.95274
▁برگزاری	-9.95347
▁تفسیر	-9.95447
▁مقیاس	-9.95458
▁نمایندگان	-9.95468
▁عکاسی	-9.95494
▁خام	-9.95565
▁سرنوشت	-9.95697
▁رسانی	-9.95727
▁حقوقی	-9.95813
▁میل	-9.95908
▁دم	-9.95961
▁سیر	-9.96188
ّت	-9.96212
▁عل	-9.96218
▁خورشیدی	-9.96249
▁یابند	-9.9634
▁80	-9.96452
▁تازگی	-9.96454
▁فوری	-9.96479
ul	-9.96494
me	-9.96514
يت	-9.9655
ستان	-9.96582
▁غ	-9.96596
▁آزمایشگاه	-9.96633
▁دهی	-9.96649
▁مقالات	-9.96735
▁٬	-9.96761
▁کاش	-9.96908
▁عضل	-9.96956
▁علامت	-9.96963
▁زوج	-9.96973
▁۱۱	-9.96989
▁انداخت	-9.96999
▁بیاید	-9.97018
▁بینند	-9.97065
▁مهر	-9.971
▁هرچه	-9.97151
▁اختراع	-9.97214
▁مخدر	-9.97214
▁جداگانه	-9.97218
▁نیستید	-9.9726
▁اح	-9.97348
▁21	-9.9747
▁وقوع	-9.9747
یوم	-9.97491
▁مش	-9.97525
▁دمای	-9.97557
▁اکثریت	-9.97629
▁میز	-9.97637
▁لب	-9.9764
بت	-9.97666
▁نقد	-9.9777
▁»،	-9.9777
رد	-9.97889
▁دامنه	-9.97901
▁روحی	-9.98008
▁نویس	-9.98118
▁دستگیر	-9.98118
▁اتومبیل	-9.98239
▁پارلمان	-9.98239
▁استانداردها	-9.98401
▁برج	-9.98404
▁پدرش	-9.98426
▁خبری	-9.98438
▁اپلیکیشن	-9.98496
▁تنوع	-9.98508
▁انگشت	-9.98566
▁شادی	-9.98569
▁اشکال	-9.98608
▁مؤثر	-9.98755
▁آنقدر	-9.98874
▁روزها	-9.98894
▁مال	-9.98959
▁بینیم	-9.99
▁معلوم	-9.99014
▁بیایید	-9.99015
▁هایش	-9.99098
▁اعتراض	-9.9916
▁پیر	-9.99454
▁اوکراین	-9.99534
▁لغو	-9.99534
▁موهای	-9.99564
la	-9.99575
▁سازنده	-9.99596
▁احتمالی	-9.99666
▁جلسات	-9.99795
سم	-9.99802
اي	-9.99822
▁بدهی	-9.9986
▁سرخ	-9.99904
▁مرده	-9.99964
▁تخصص	-9.9997
▁۲۵	-10.0004
▁2014	-10.0006
▁رعای	-10.0006
▁خودکار	-10.0014
▁موجودات	-10.0014
▁نکرد	-10.0023
▁روزه	-10.0029
▁تزریق	-10.0032
▁بالاخره	-10.0032
▁آلودگی	-10.0032
▁#	-10.0039
▁دادیم	-10.0043
▁کلام	-10.0057
▁وام	-10.0058
▁کیف	-10.0069
▁22	-10.0071
▁موافقت	-10.0094
▁نویسندگان	-10.0112
▁شرح	-10.0114
مر	-10.0117
وری	-10.0117
▁راستا	-10.0125
▁کوچکتر	-10.0134
▁توپ	-10.0136
▁متعهد	-10.0138
▁متنوع	-10.0138
ta	-10.0142
▁ذهنی	-10.0157
▁ساحل	-10.0159
▁مجازی	-10.0171
۹	-10.018
▁>	-10.019
ry	-10.0198
▁صند	-10.0201
com	-10.0208
▁ایمن	-10.0209
▁آفتاب	-10.0218
▁اسناد	-10.0218
▁شکایت	-10.0218
خاذ	-10.0218
داد	-10.0219
▁سرکوب	-10.0219
▁نیک	-10.0221
▁یهودی	-10.0225
▁مربی	-10.0226
▁اوست	-10.0236
ap	-10.0239
▁نماد	-10.024
▁تأکید	-10.0244
▁جوامع	-10.0244
▁کوچکی	-10.0245
ie	-10.0251
▁باردار	-10.0252
سک	-10.0263
▁احتیاج	-10.0271
▁شاد	-10.0273
▁کشوری	-10.0283
▁غریب	-10.0299
▁نخواهند	-10.0302
▁یادآوری	-10.0307
▁اسید	-10.0311
▁محدوده	-10.0316
▁حلقه	-10.0325
▁بخواهد	-10.033
▁آنتی	-10.0333
▁همگی	-10.0346
▁تماشا	-10.0349
پر	-10.035
▁بدهند	-10.0358
x	-10.0363
▁آمدند	-10.0375
▁ماهواره	-10.038
▁فیلتر	-10.0385
▁سوار	-10.0387
▁قطار	-10.0407
▁جعبه	-10.0434
▁لبنان	-10.0434
اط	-10.0434
▁متاسفانه	-10.0434
▁تروریسم	-10.0434
▁شنا	-10.0435
▁فوت	-10.0436
▁طرز	-10.0437
▁گذارند	-10.0446
راجع	-10.045
▁اتفاقات	-10.0453
▁مرور	-10.0465
▁تبلیغاتی	-10.0478
▁عموم	-10.0481
▁کنونی	-10.0481
▁الکتریکی	-10.0489
سل	-10.0491
▁ببینند	-10.0492
▁سان	-10.0497
▁بدانند	-10.0503
▁شعر	-10.0503
رات	-10.0507
▁مناسبی	-10.0519
▁توانستند	-10.0536
▁تجدید	-10.0544
▁تماشای	-10.0546
▁نوشیدن	-10.056
▁اص	-10.0563
▁قطعه	-10.0567
▁تحقق	-10.0572
▁عنصر	-10.0572
▁عصبانی	-10.0573
▁عالم	-10.06
▁ندهید	-10.06
▁استدلال	-10.06
▁ط	-10.0602
▁سکوت	-10.0603
▁ك	-10.0614
▁الزام	-10.0628
▁هی	-10.0639
▁اشتباهات	-10.0641
▁اراده	-10.0641
ate	-10.0644
▁رمان	-10.0651
▁برزیل	-10.0656
▁تبلیغ	-10.0672
▁ویدئو	-10.0673
اند	-10.0673
بری	-10.0681
▁کمیسیون	-10.0684
▁اینترنتی	-10.0685
▁حیاتی	-10.0696
▁پایتخت	-10.0712
▁وسط	-10.0712
▁بپرسید	-10.0712
▁رودخانه	-10.0714
▁آورید	-10.072
سایت	-10.072
▁Me	-10.0722
▁هنرمند	-10.0737
▁روزمره	-10.074
▁زنجیره	-10.0755
▁توانستم	-10.0763
▁بش	-10.078
▁!»	-10.0788
▁آوریل	-10.0794
▁ندرت	-10.0799
أ	-10.0807
▁فلسطینی	-10.0808
سو	-10.082
▁گرفتم	-10.0823
ir	-10.0824
▁زندانی	-10.083
im	-10.083
▁ببیند	-10.0831
ائی	-10.0833
▁ببرد	-10.0834
▁جلوی	-10.0834
▁یم	-10.0835
جه	-10.0837
▁آماد	-10.0843
te	-10.0845
▁یهودیان	-10.0846
▁قند	-10.0855
▁ببینیم	-10.0855
▁خنده	-10.0856
▁مالک	-10.0861
▁گم	-10.0873
▁کنون	-10.0875
▁سایه	-10.0878
▁راهنمای	-10.0881
▁بانکی	-10.0882
▁فرصتی	-10.0884
▁بیند	-10.0886
▁دشمنان	-10.0891
دو	-10.0895
▁مخاطبان	-10.0896
دهی	-10.0896
فی	-10.0902
▁جمعه	-10.0908
عنوان	-10.091
▁جنایت	-10.091
▁کربن	-10.091
▁70	-10.0913
▁۱۶	-10.0915
▁تصمیمات	-10.0924
▁روس	-10.0932
▁جشنواره	-10.0939
▁السلام	-10.094
ma	-10.0944
▁هلند	-10.0945
▁كنند	-10.0946
▁تقاضا	-10.0949
▁فهم	-10.0958
▁رادیو	-10.0964
▁کمونیست	-10.0968
ظ	-10.0969
▁شدیم	-10.097
▁خشم	-10.0971
▁کاغذ	-10.0978
▁زمستان	-10.0978
▁سرباز	-10.0979
▁آلوده	-10.0981
▁سند	-10.0987
to	-10.0996
▁گذاشتن	-10.0996
▁مکزیک	-10.0997
▁فقیر	-10.0997
▁قطر	-10.0997
▁دستورالعمل	-10.0997
▁لمس	-10.0999
ران	-10.1012
▁مق	-10.1016
▁سربازان	-10.1017
▁گیاه	-10.1017
▁فوریه	-10.1021
▁کارمند	-10.1023
▁پولی	-10.1024
▁شناختی	-10.1038
ابراز	-10.1042
▁بخشد	-10.1051
ent	-10.1052
▁مع	-10.1066
▁وال	-10.1071
ell	-10.1077
▁رایان	-10.1082
▁شارژ	-10.1084
▁نشسته	-10.109
فا	-10.1099
▁1-	-10.1104
▁مبن	-10.1107
▁۶۰	-10.1111
▁روحانی	-10.1115
شن	-10.1116
▁حاکم	-10.1117
▁مارک	-10.1118
▁گیرید	-10.1135
▁کابل	-10.1144
▁گردن	-10.1147
▁صفر	-10.1147
▁سرگرم	-10.1156
▁پیگیر	-10.1171
▁اجاره	-10.1172
▁راستی	-10.1175
▁نژاد	-10.1186
▁مسابق	-10.119
▁هیئت	-10.1202
▁خودکشی	-10.1202
▁2012	-10.1202
st	-10.1207
▁حسابداری	-10.1223
▁خواستند	-10.1225
▁انفجار	-10.1231
▁بومی	-10.1237
li	-10.1241
▁نکند	-10.1242
ce	-10.1244
گری	-10.1245
▁تخمین	-10.1254
▁رفتارهای	-10.1258
▁مقصد	-10.1261
▁جنگی	-10.1262
گذاری	-10.1283
▁سیل	-10.1284
▁محو	-10.1286
▁بوی	-10.1289
▁تجاوز	-10.1291
▁کپی	-10.1292
▁پیمان	-10.1301
▁توقف	-10.1301
▁Mo	-10.1319
▁محکم	-10.132
طرف	-10.1323
▁عرب	-10.1328
▁مادرش	-10.1332
▁500	-10.1332
جو	-10.1334
ack	-10.1335
ut	-10.1344
▁خاطرات	-10.1349
▁%	-10.1349
em	-10.135
▁اتوبوس	-10.135
▁حقیقی	-10.135
▁سراغ	-10.135
▁شکنجه	-10.1351
پا	-10.1351
▁چشمان	-10.1352
▁خب	-10.1363
▁خطرات	-10.1364
▁مهاجران	-10.1366
▁فلسطین	-10.1368
چی	-10.1371
مالکیت	-10.1373
▁جویی	-10.1376
▁۱۷	-10.1377
▁سل	-10.1379
▁عقل	-10.138
▁کف	-10.1393
▁ارتفاع	-10.1411
▁ماجرا	-10.143
▁IP	-10.144
▁بخاطر	-10.1441
▁دیگه	-10.1441
▁کلاسیک	-10.1445
tion	-10.1448
▁نمای	-10.1458
na	-10.1463
▁ارتقا	-10.147
▁اوضاع	-10.1471
▁پروردگار	-10.1471
▁روایت	-10.1471
▁استخراج	-10.1471
▁کالری	-10.1472
ig	-10.1478
▁قهرمان	-10.1484
▁اسکن	-10.1487
▁دائم	-10.1488
▁فریب	-10.1493
اش	-10.1497
▁مشاغل	-10.1501
▁گوناگون	-10.1501
ow	-10.1509
om	-10.1515
▁مر	-10.1517
▁استان	-10.1525
▁v	-10.1529
▁گیاهان	-10.1553
▁زرد	-10.1554
▁دان	-10.1565
▁رغ	-10.1575
▁تقاضای	-10.1583
▁برخلاف	-10.1593
▁همدیگر	-10.1593
▁تنفس	-10.1593
▁مسافرت	-10.1605
▁&	-10.1611
▁تروریست	-10.1617
▁قطعات	-10.1618
▁موضع	-10.1624
▁ایفا	-10.1629
▁یمن	-10.1638
▁نسبتا	-10.1644
▁اگ	-10.1651
▁نباشید	-10.1657
▁غیره	-10.1673
▁اتمی	-10.1679
▁میزبان	-10.168
▁جمعی	-10.1685
▁نقص	-10.1686
▁میدهد	-10.1687
▁تم	-10.1687
▁er	-10.1697
▁فهمید	-10.1711
دم	-10.1713
▁شفاف	-10.1715
▁[+]	-10.1717
▁بگوییم	-10.172
جی	-10.1732
▁شبه	-10.1732
لوله	-10.1736
▁مخالفت	-10.1745
▁مون	-10.1745
▁تخریب	-10.1748
▁دکمه	-10.1748
▁عقیده	-10.1748
▁آرزو	-10.1749
▁سم	-10.1749
▁بکشد	-10.1756
▁سالها	-10.1759
▁بگو	-10.1772
▁دام	-10.1773
and	-10.1778
▁دوچرخه	-10.1779
▁ضرورت	-10.1779
▁آلبوم	-10.1779
▁فساد	-10.1779
▁مستند	-10.1779
▁میلی	-10.1783
▁مدنی	-10.1785
▁درگیری	-10.1787
▁کول	-10.1795
▁رفتم	-10.1801
▁همسرش	-10.1806
▁اشخاص	-10.1811
کش	-10.1814
▁ستون	-10.1815
▁نوجوانان	-10.1823
▁۲۴	-10.1831
▁اصلاحات	-10.1836
▁23	-10.1839
▁یکپارچ	-10.1842
▁همسایه	-10.1842
▁نادر	-10.1842
قابل	-10.1842
▁خاموش	-10.1843
▁اکسی	-10.1846
ge	-10.1847
▁آپ	-10.1847
است	-10.1848
▁سور	-10.1851
▁محقق	-10.1854
▁طلاق	-10.1854
▁بکار	-10.1859
هر	-10.1868
وضوح	-10.1874
▁یادداشت	-10.1875
▁2-	-10.1885
▁هماهنگی	-10.1885
▁شایع	-10.1894
▁ربات	-10.1899
▁غلط	-10.1907
▁خلاقیت	-10.1909
▁تجربیات	-10.191
est	-10.1921
▁شن	-10.1922
▁شکلی	-10.1928
▁k	-10.1934
▁گردند	-10.1935
▁طعم	-10.1937
▁دریاچه	-10.1937
▁Ch	-10.1939
▁یونان	-10.1945
▁Ma	-10.1954
▁سیب	-10.1958
▁استعداد	-10.1969
▁بخورید	-10.197
▁دوز	-10.197
▁توی	-10.1972
▁ناگهان	-10.2001
▁2019	-10.2001
▁باستان	-10.2008
▁کلیسا	-10.2011
▁تخصصی	-10.2011
▁موتورهای	-10.2017
▁عده	-10.2019
▁الی	-10.2027
قرص	-10.2031
▁خو	-10.2033
ll	-10.2037
▁باشه	-10.2047
▁بازارها	-10.2047
دل	-10.2087
▁موش	-10.2089
▁فرمانده	-10.2093
▁شاخ	-10.2097
▁فاجعه	-10.2097
▁بزند	-10.211
▁زمینی	-10.2112
▁عاطفی	-10.212
کاری	-10.2122
▁یاری	-10.2125
▁مسلح	-10.2127
▁تعمیر	-10.2129
▁حوادث	-10.213
▁پنجم	-10.213
▁پن	-10.2131
▁قبیل	-10.2131
▁مرزهای	-10.2138
▁پرنده	-10.2141
يم	-10.2142
▁فای	-10.2143
▁طرفداران	-10.2145
▁تاریک	-10.2148
▁فور	-10.2152
▁بنیاد	-10.2154
▁راننده	-10.2163
▁خل	-10.2168
▁دلم	-10.2174
ot	-10.2184
▁نداشتند	-10.2185
▁ژاپنی	-10.2188
▁رفتند	-10.2193
▁to	-10.2194
▁لذا	-10.2195
▁جام	-10.2198
▁فل	-10.2204
ine	-10.221
▁مداخله	-10.2216
▁اشغال	-10.222
▁گرایی	-10.222
▁گواهی	-10.2227
▁Pro	-10.2231
▁تسلیم	-10.2232
▁کشی	-10.2232
▁غالب	-10.2235
▁انکار	-10.2235
▁سازند	-10.2241
▁دلاری	-10.2246
▁200	-10.2248
▁سخنان	-10.2251
۸	-10.2253
ناپدید	-10.226
▁چارچوب	-10.226
▁تایلند	-10.226
▁رحم	-10.2269
▁نظم	-10.227
▁تنگ	-10.2274
▁شام	-10.2276
all	-10.2287
▁لزوم	-10.2291
▁آشنای	-10.2292
▁2013	-10.2293
▁کلیه	-10.2293
▁ناگهانی	-10.2293
▁سوئیس	-10.2298
▁خودت	-10.2299
ac	-10.2305
▁بلوک	-10.2306
▁بازیگر	-10.2308
وپ	-10.2317
▁محض	-10.2327
▁سئو	-10.2329
▁28	-10.2346
▁دانشگاهی	-10.2352
▁آپارتمان	-10.2359
▁اشتغال	-10.2359
▁برآورده	-10.2361
▁نگار	-10.2385
▁تل	-10.2385
▁عزیز	-10.2392
▁پوش	-10.2392
▁فیسبوک	-10.2392
▁پژوهشگر	-10.2396
▁اج	-10.2397
▁دانستم	-10.2398
▁رده	-10.2399
▁زخم	-10.24
ss	-10.2401
▁مواقع	-10.2404
▁35	-10.241
▁داروها	-10.2418
▁گردشگری	-10.2425
▁معناست	-10.2432
▁الگوی	-10.2436
▁مدارک	-10.244
▁مطلق	-10.2459
▁شنیدن	-10.2463
غام	-10.2468
▁مغزی	-10.2472
▁دموکرات	-10.2498
▁صوتی	-10.2503
دریس	-10.2513
اژ	-10.2513
فزایند	-10.2519
▁مزیت	-10.2526
▁خرج	-10.2529
▁عام	-10.2531
os	-10.2532
▁تمرینات	-10.2541
▁چراغ	-10.2541
▁بهار	-10.2542
دون	-10.2552
▁تب	-10.2556
▁راز	-10.2559
▁جفت	-10.2565
▁یکبار	-10.2567
گا	-10.2567
▁مبنای	-10.2572
ویج	-10.2584
▁میراث	-10.2594
پروتکل	-10.26
▁زنگ	-10.2605
ph	-10.2605
▁امریکایی	-10.2606
یدن	-10.2607
▁بایستی	-10.2608
وع	-10.261
▁آنگاه	-10.2613
▁تلویزیونی	-10.2617
▁قربانیان	-10.2624
ub	-10.2628
▁اسلحه	-10.2628
▁عذاب	-10.2628
▁سوگند	-10.2628
▁الگوریتم	-10.2628
رق	-10.2633
▁تحول	-10.2634
اء	-10.2648
ive	-10.2651
▁تنش	-10.2653
▁دانه	-10.2655
▁معنوی	-10.2662
▁میتوانید	-10.2667
▁بدانیم	-10.2675
▁خواه	-10.2676
▁آیات	-10.2678
▁خلاق	-10.269
▁داره	-10.2694
▁عرصه	-10.2696
▁مفاهیم	-10.2696
▁خلیج	-10.2696
▁کبد	-10.2696
▁ببرند	-10.2699
▁فیبر	-10.2699
one	-10.2703
▁اعتباری	-10.2713
رار	-10.2728
▁برآورد	-10.2729
▁دخالت	-10.2731
▁ونزوئلا	-10.2731
▁پرچم	-10.2731
▁واسطه	-10.2731
ard	-10.2733
Y	-10.2742
ازم	-10.2743
▁سرگرمی	-10.2749
▁جور	-10.2749
▁ویدیو	-10.2774
بان	-10.2774
▁ابتدایی	-10.2777
زن	-10.2785
▁اخلاق	-10.2786
▁مادرم	-10.2788
▁پیروز	-10.2792
▁پیشرو	-10.2807
▁مضر	-10.2819
▁دانستن	-10.2823
▁مخصوصا	-10.2829
▁رقص	-10.2834
▁افتتاح	-10.2835
▁کلیسای	-10.2835
▁آمریکای	-10.2835
▁تظاهرات	-10.2837
▁هنرمندان	-10.284
▁دینی	-10.2842
گار	-10.2842
▁اط	-10.2842
▁باشی	-10.2843
▁انتظارات	-10.2844
▁۸۰	-10.2845
صورت	-10.2846
▁شیرین	-10.285
توانند	-10.285
▁ریاضی	-10.2851
▁اجباری	-10.2851
▁خر	-10.2853
▁سریعتر	-10.2855
▁ملک	-10.2859
لین	-10.2867
▁بستر	-10.2868
▁اخراج	-10.2869
▁مقادیر	-10.2869
▁قایق	-10.287
ly	-10.2872
اعت	-10.2888
دست	-10.2895
۰	-10.2895
▁معلمان	-10.2902
▁افسانه	-10.2904
▁مح	-10.2908
ْ	-10.2913
▁آقا	-10.2923
▁st	-10.2945
قاعد	-10.2955
▁عمق	-10.2975
▁—	-10.2976
▁پلی	-10.2979
▁نامزد	-10.2981
▁اندیشه	-10.2984
▁پرس	-10.2984
▁استقبال	-10.2988
لزم	-10.2988
▁جوش	-10.2988
▁فیزیک	-10.3001
▁لیزر	-10.301
▁فریاد	-10.301
▁اپ	-10.3012
▁اندروید	-10.3012
▁کوبا	-10.3014
▁چشمگیر	-10.3015
▁پرد	-10.3023
▁300	-10.3023
▁قبلاً	-10.3031
▁بازیگران	-10.3031
شا	-10.3038
▁افسر	-10.3045
▁شهادت	-10.3045
▁واردات	-10.305
▁خیال	-10.3056
▁التحصیلان	-10.3058
▁26	-10.3065
▁پدرم	-10.3075
▁رفاه	-10.3081
▁برساند	-10.3081
▁ابعاد	-10.3081
▁پرتاب	-10.3082
▁وکیل	-10.3082
ast	-10.3083
▁توییتر	-10.3085
sh	-10.3087
▁رسیدگی	-10.3097
بار	-10.3102
▁برگ	-10.3104
▁هماهنگ	-10.3107
▁ملاحظ	-10.3117
▁برسند	-10.3117
۰۰	-10.3123
▁ایتالیایی	-10.3125
▁يک	-10.3137
▁جنس	-10.3141
de	-10.3146
▁on	-10.3146
▁فولاد	-10.3154
▁ایستاده	-10.3157
▁تعطیل	-10.3177
▁سازگار	-10.3177
مین	-10.3185
▁کالیفرنیا	-10.3189
▁محبت	-10.3189
▁De	-10.3198
▁’	-10.3205
pe	-10.3212
▁منطق	-10.3217
▁غم	-10.322
▁فراوانی	-10.3221
▁روسی	-10.3226
▁رسند	-10.3232
▁پوند	-10.3232
▁نگرفت	-10.3236
▁دریای	-10.3259
▁نظرسنج	-10.3261
▁داغ	-10.3262
▁نادرست	-10.3265
▁آم	-10.328
▁کارآمد	-10.3282
▁نخواهید	-10.3285
▁رس	-10.3288
▁نداده	-10.3292
▁مرتکب	-10.3297
▁سرقت	-10.3297
▁طلایی	-10.3306
▁?	-10.3311
▁نیرو	-10.3312
▁St	-10.3316
▁غیرقانونی	-10.3334
▁نان	-10.3335
▁مسافر	-10.3337
▁_	-10.3339
▁قضی	-10.334
10	-10.3348
▁45	-10.3359
▁نیت	-10.3359
▁مشورت	-10.337
▁بسازید	-10.337
▁۲۰۱۵	-10.3371
▁2011	-10.3371
▁رنگی	-10.3373
▁شهید	-10.3374
▁سرتا	-10.3378
▁رم	-10.3383
▁اوج	-10.3384
تعلق	-10.339
▁شهرت	-10.3401
▁وکار	-10.3405
▁لهستان	-10.3407
▁خالص	-10.3408
▁نیستیم	-10.3411
lu	-10.342
▁شهرها	-10.344
▁مطلوب	-10.3444
▁دن	-10.3461
▁معدن	-10.3475
▁۲۰۰	-10.3481
▁آشپزخانه	-10.3481
غول	-10.3483
▁درونی	-10.3486
▁ذات	-10.3492
▁بعدها	-10.3505
▁گفتار	-10.351
▁سوئد	-10.3512
▁تأسیس	-10.3518
▁اعطا	-10.3518
▁x	-10.3522
دام	-10.3524
▁جزو	-10.3527
▁شهروند	-10.3533
▁شبانه	-10.354
رم	-10.3553
▁27	-10.3556
▁التهاب	-10.3556
▁شایسته	-10.3556
▁امّا	-10.3556
مسدود	-10.3556
▁شکاف	-10.3557
▁قدردان	-10.3558
ve	-10.3561
▁Be	-10.3561
▁ببینم	-10.3566
▁شعار	-10.357
▁کوتاهی	-10.3585
ti	-10.3586
▁شناس	-10.3586
▁حرکات	-10.3593
▁طب	-10.3596
▁مهاجر	-10.3598
▁گرما	-10.3598
رون	-10.36
▁افزوده	-10.3602
▁طراح	-10.3607
▁محاسبات	-10.361
یف	-10.3611
▁تع	-10.362
▁زندانیان	-10.362
▁To	-10.3631
ارد	-10.3632
انگ	-10.3634
▁مسیحی	-10.3662
▁بروند	-10.3663
▁Co	-10.3665
ab	-10.3675
▁اتم	-10.3687
▁طراحان	-10.3688
▁گردش	-10.3698
▁جراح	-10.3704
▁بگذارند	-10.371
يل	-10.3729
▁توانسته	-10.3734
▁=	-10.3736
▁محروم	-10.3741
▁اهدا	-10.3741
▁وحشتناک	-10.3744
▁سایبری	-10.3745
▁فرماید	-10.3745
▁لاتین	-10.3748
حریم	-10.376
واسط	-10.3762
▁حیوان	-10.377
▁2008	-10.3784
ho	-10.379
▁روانشناسی	-10.3799
▁دوستی	-10.38
▁تعهدات	-10.3803
▁ضرر	-10.3821
▁توجیه	-10.3821
▁برایش	-10.383
▁کرم	-10.3832
▁کانادایی	-10.3837
▁قوم	-10.3841
▁سالن	-10.3844
تیک	-10.3848
▁دفاعی	-10.3849
▁نعمت	-10.3859
▁محرک	-10.3859
▁عسل	-10.3861
▁2000	-10.3873
▁وری	-10.3875
▁رضا	-10.3878
▁نویسد	-10.3881
▁کنه	-10.3882
▁کریم	-10.3895
▁زایمان	-10.3898
▁بیل	-10.3898
▁شیشه	-10.3899
▁نکنند	-10.3906
▁پرست	-10.3907
▁بینم	-10.3909
دگی	-10.391
▁رساندن	-10.3919
▁بده	-10.3922
▁مار	-10.3923
▁بیا	-10.3926
آن	-10.3934
▁آیفون	-10.3937
▁جبران	-10.3937
▁رسول	-10.3938
▁دیوید	-10.3939
▁ادبیات	-10.3941
▁پردازد	-10.3943
▁موافق	-10.3943
فل	-10.3955
▁برف	-10.3964
▁سای	-10.3966
▁۲۱	-10.3967
▁ارمغا	-10.3976
▁نصف	-10.3976
▁جاذب	-10.3976
▁خوشبختانه	-10.3976
▁سازمانی	-10.3981
▁آفریقای	-10.3981
▁اسپانیایی	-10.3983
▁۷۰	-10.3989
▁دستمزد	-10.3995
▁پاپ	-10.3996
▁دموکراتی	-10.4008
▁بدهیم	-10.4009
؟»	-10.4012
▁معاصر	-10.4015
▁قائل	-10.4016
▁کیست	-10.4019
▁درختان	-10.4019
ندگان	-10.402
▁تق	-10.403
▁جدایی	-10.4031
▁اي	-10.4036
▁ناتو	-10.404
▁مکانی	-10.4047
▁جنین	-10.4048
▁ائتلاف	-10.4054
▁تدریج	-10.4054
▁تسلیحات	-10.4054
▁دوشنبه	-10.4054
▁فراوان	-10.4058
▁معدنی	-10.4061
▁!!	-10.407
▁پیکر	-10.4071
▁ندیده	-10.4078
▁باش	-10.4086
▁دارویی	-10.4087
▁میشه	-10.4092
▁مجهز	-10.4093
▁مسجد	-10.4093
▁کهکشان	-10.4094
▁جغرافیایی	-10.4095
▁La	-10.4095
ct	-10.4096
وجود	-10.4102
▁عز	-10.4119
▁شور	-10.412
▁برادران	-10.4122
▁پیشگیر	-10.4126
▁اعتراف	-10.4133
▁طوفان	-10.4133
▁تیر	-10.4133
زاب	-10.414
▁خورند	-10.4141
مو	-10.4142
ber	-10.4146
co	-10.4147
▁بشری	-10.4149
’	-10.4154
برداری	-10.4156
di	-10.4156
▁حمام	-10.4172
▁رأی	-10.4172
▁تس	-10.4173
▁تمدن	-10.4173
▁پو	-10.4173
▁ادرار	-10.4173
▁2010	-10.4174
▁ناتوان	-10.4193
▁لس	-10.4198
پی	-10.4209
▁تبادل	-10.4212
▁میکنم	-10.4213
▁بخصوص	-10.4215
قدر	-10.4221
▁اداری	-10.4222
▁ابتدای	-10.4231
▁نوار	-10.424
▁فرود	-10.425
▁بروم	-10.425
▁گوشه	-10.425
▁تجویز	-10.4252
▁مایکروسافت	-10.4252
▁گرسنگی	-10.4252
▁خیانت	-10.4252
▁تلقی	-10.4253
▁شوک	-10.4254
▁مخاطب	-10.426
▁بدهم	-10.4273
ایش	-10.4276
▁de	-10.4279
▁مقداری	-10.4281
▁سپری	-10.4289
▁ابراهیم	-10.4292
▁بیاورید	-10.4292
▁بنویسید	-10.4292
▁بگویند	-10.4293
no	-10.4294
▁ماهه	-10.4299
▁نبودند	-10.4303
▁دلیلی	-10.4303
▁مسافران	-10.4314
▁An	-10.4319
j	-10.433
▁رویدادهای	-10.433
▁کامپیوتری	-10.4331
▁مغازه	-10.4333
▁مسأل	-10.4333
▁ذ	-10.4333
ستر	-10.4339
▁حرارت	-10.4342
▁چوب	-10.4347
تن	-10.4348
▁کشت	-10.4351
▁دونالد	-10.4373
▁ایرلند	-10.4373
▁!!!	-10.438
▁حسن	-10.438
لت	-10.4394
Q	-10.4397
▁کیس	-10.4405
▁ماهیت	-10.4407
▁شکسته	-10.4407
▁ارتقاء	-10.4415
انا	-10.4422
▁ساکن	-10.4429
▁سامان	-10.443
▁رحمت	-10.4431
▁بلاک	-10.4436
▁اسپ	-10.4436
ist	-10.444
جایی	-10.4449
▁انتهای	-10.445
ائ	-10.446
▁فرمول	-10.446
▁بعدا	-10.4467
▁سد	-10.4468
ير	-10.4471
▁برید	-10.4472
تمام	-10.4473
bo	-10.4481
▁پان	-10.4481
▁افت	-10.4487
▁ره	-10.4492
▁نوزادان	-10.4493
▁خواص	-10.4496
▁مغذ	-10.4496
▁ژوئیه	-10.4496
▁یابی	-10.4498
▁قلمرو	-10.4498
صد	-10.452
▁رفتاری	-10.4525
▁کش	-10.4525
▁گذرد	-10.4526
▁بخشید	-10.4532
▁برانگیز	-10.4537
▁زیرساخت	-10.4537
▁y	-10.4539
▁فروخته	-10.4541
▁$	-10.4541
▁ویدئویی	-10.4542
▁وحشت	-10.4545
▁سقف	-10.4546
▁فرزندتان	-10.4549
▁فعالان	-10.4562
▁کوک	-10.4563
▁بلو	-10.4575
▁re	-10.4578
▁اعتصاب	-10.4578
▁زلزله	-10.4578
▁جولای	-10.4578
▁مدعی	-10.4578
▁اینطور	-10.4579
▁جیمز	-10.4582
▁لیبی	-10.4583
da	-10.4587
▁صبحانه	-10.4588
▁بنده	-10.459
▁تکان	-10.4594
▁نهادهای	-10.4595
▁خونریزی	-10.462
▁بیفتد	-10.462
ite	-10.4622
▁نمک	-10.4626
شه	-10.4635
▁هواپیمای	-10.4635
▁مذهب	-10.4636
▁سنی	-10.464
برد	-10.4645
▁پروس	-10.4646
▁آری	-10.4656
▁سبزیجات	-10.4661
▁جنسیت	-10.4668
گن	-10.4686
ضعیف	-10.4687
▁فاق	-10.4689
▁آوردند	-10.4692
▁Se	-10.4698
▁خستگی	-10.4703
▁دردناک	-10.4704
▁قاره	-10.4704
▁حقایق	-10.4705
▁حاکمیت	-10.4708
▁Br	-10.4709
▁نداد	-10.4711
▁خروجی	-10.4714
▁خوراکی	-10.4714
▁قلم	-10.4717
▁مل	-10.4717
▁مادران	-10.4718
▁ساکنان	-10.4723
▁لین	-10.4727
▁زور	-10.4734
▁جک	-10.4738
▁آمازون	-10.4745
▁گرافیک	-10.4746
▁صف	-10.4751
▁گاو	-10.4753
▁29	-10.4757
▁تاخیر	-10.4761
▁مکالمه	-10.4768
يه	-10.4776
▁ژ	-10.4779
▁ته	-10.4785
▁واکسن	-10.4787
▁موانع	-10.4787
▁کارکرد	-10.4787
▁بداند	-10.4792
▁شورش	-10.4802
▁داوری	-10.4806
▁مشخصات	-10.4813
▁زدند	-10.4822
ag	-10.4823
▁خار	-10.483
▁جدول	-10.4831
▁آرایش	-10.4831
▁مسکن	-10.4831
▁موسی	-10.4832
▁آینه	-10.4839
▁ث	-10.4845
▁سوپر	-10.4851
▁جسمی	-10.4852
▁رویای	-10.4857
▁بلا	-10.4866
▁دانستند	-10.4867
▁کمال	-10.4871
▁ویتنام	-10.4872
▁بمانید	-10.4872
▁ناهار	-10.4872
▁شیمی	-10.4874
▁فالون	-10.4874
▁پسران	-10.4877
▁نشین	-10.4897
▁رسمیت	-10.4897
▁گیریم	-10.4906
ولوژی	-10.4914
▁مجسم	-10.4915
▁خلبان	-10.4916
▁۹۰	-10.4917
▁استارت	-10.4918
نظر	-10.4922
ممکن	-10.4923
▁نگرش	-10.4925
اسیون	-10.4926
ne	-10.4934
▁Con	-10.4938
▁3-	-10.4943
▁جزئی	-10.4952
▁معاون	-10.4958
▁گواهینامه	-10.4959
▁مالیاتی	-10.496
▁پرندگان	-10.4962
لاس	-10.4964
▁بمانند	-10.4964
اجد	-10.4973
▁خداست	-10.4974
▁کال	-10.4977
؟!	-10.4979
▁گویید	-10.4984
▁فارس	-10.4985
▁تئاتر	-10.5001
▁پرهیز	-10.5001
▁اردوگاه	-10.5001
▁ارث	-10.5005
▁ادعای	-10.5008
▁Ro	-10.5009
▁وابستگ	-10.5013
▁آرزوی	-10.5034
▁بندر	-10.5036
▁شع	-10.5037
مپ	-10.5041
▁املاک	-10.5044
▁اعداد	-10.5045
▁2009	-10.5046
▁ملکه	-10.5047
▁بکشید	-10.5048
اج	-10.5057
▁انه	-10.5058
▁طرفدار	-10.5059
▁۲۲	-10.5066
▁75	-10.507
▁رابط	-10.507
وه	-10.5074
▁آلرژی	-10.5077
▁حدی	-10.5082
▁کشتن	-10.5085
▁اضطراری	-10.5088
▁مخلوط	-10.5088
حاشیه	-10.5088
▁تابع	-10.509
▁For	-10.5108
▁لطف	-10.5116
▁اندام	-10.5122
▁منع	-10.5125
▁بصری	-10.5131
▁مستقر	-10.5131
▁مزمن	-10.5131
▁یقین	-10.5132
▁زانو	-10.5133
▁خواننده	-10.5137
طلع	-10.5144
▁افزون	-10.5148
▁تکی	-10.5156
▁آفرین	-10.5162
▁ناسا	-10.5172
▁مالزی	-10.5177
▁2020	-10.5177
▁بردند	-10.5183
▁فکری	-10.5191
▁؟»	-10.5201
▁al	-10.5214
▁سامسونگ	-10.5219
▁ساعات	-10.5219
▁سندر	-10.5227
▁نت	-10.5241
▁شوی	-10.5242
▁اوت	-10.5245
▁خم	-10.5248
▁الکترونیک	-10.5249
▁دانشجو	-10.5254
▁رسیدند	-10.5262
▁مهمتر	-10.5262
▁غرق	-10.5265
ex	-10.5269
AR	-10.527
▁بگیرم	-10.5276
▁مرورگر	-10.5279
ولت	-10.528
▁قر	-10.5281
vi	-10.5286
▁بنیادی	-10.5288
▁نفرت	-10.5293
▁پرستار	-10.5297
▁نیو	-10.5299
▁الف	-10.5303
▁مربوطه	-10.5303
▁خودروهای	-10.5305
der	-10.5305
▁گور	-10.5307
▁ظاهرا	-10.5308
▁آهسته	-10.5308
▁ناشناخته	-10.5308
▁۲۰۱۱	-10.5308
▁باهوش	-10.531
io	-10.5312
ian	-10.5315
▁نمایندگی	-10.5315
▁هایتان	-10.5318
▁بنیان	-10.5322
▁سنین	-10.5324
▁مسئولان	-10.5327
▁پورت	-10.533
او	-10.5332
▁برنج	-10.5333
اح	-10.5336
▁گیاهی	-10.5336
▁الملل	-10.534
▁الگو	-10.5342
age	-10.5349
▁افغان	-10.5352
▁خنک	-10.5353
▁قد	-10.5354
▁خونی	-10.5366
مل	-10.5373
▁194	-10.5376
▁اسرائیلی	-10.5378
+	-10.5385
▁امپراتوری	-10.5385
▁معیار	-10.5391
▁۲۰۱۸	-10.5398
▁بالغ	-10.54
▁بزنند	-10.5401
▁امت	-10.5402
▁چرخش	-10.5405
▁is	-10.541
▁کلاه	-10.5412
▁شکار	-10.5419
▁دانشجویی	-10.5429
▁0.	-10.5437
▁کالا	-10.544
▁مایع	-10.5441
▁مخرب	-10.5443
▁کاندید	-10.5443
▁مراتب	-10.5443
▁بشود	-10.5449
راه	-10.5454
▁نش	-10.5457
▁گذراند	-10.5465
▁شکم	-10.5469
▁Bo	-10.5473
▁گوییم	-10.5478
▁اختصاصی	-10.5482
طه	-10.5487
▁متمایز	-10.5488
▁صح	-10.549
▁گرفتار	-10.5493
▁بستن	-10.5495
ation	-10.5515
▁اختلالات	-10.5519
▁بشریت	-10.5525
▁HIV	-10.5533
▁تحمیل	-10.5533
▁شلوغ	-10.5533
▁ابتکار	-10.5533
▁کریسمس	-10.5533
▁جبهه	-10.5533
▁رکورد	-10.5534
▁کابین	-10.5534
▁مایکل	-10.5535
▁ششم	-10.5538
qu	-10.5558
AT	-10.5566
▁پویا	-10.5571
▁نظرم	-10.5577
▁سفارت	-10.5578
▁۲۰۱۴	-10.5579
▁for	-10.5581
▁خلاقانه	-10.5583
▁هل	-10.5589
ang	-10.5602
▁مهربان	-10.5617
▁تیره	-10.5617
EC	-10.5623
▁آگهی	-10.5625
▁مدافع	-10.5625
▁۳۵	-10.563
▁جست	-10.5638
▁کت	-10.5643
▁مسن	-10.5646
▁پیچ	-10.565
▁اسد	-10.565
▁توضیحات	-10.565
▁محافظه	-10.5668
▁کارایی	-10.567
▁۲۰۱۳	-10.5671
▁۵۰۰	-10.5681
▁لک	-10.5693
بستگی	-10.5698
▁زی	-10.5699
اور	-10.5713
ip	-10.5716
▁مربع	-10.5717
▁بیاورد	-10.5717
▁درخشان	-10.5717
▁2007	-10.5719
▁فرمت	-10.5722
▁مم	-10.5744
تل	-10.5746
▁برعکس	-10.5746
▁بازرگانی	-10.575
▁برایم	-10.5763
▁ترسناک	-10.5764
▁مکرر	-10.5764
▁DNA	-10.5765
▁ابو	-10.5769
▁عروسی	-10.5779
▁باب	-10.578
▁خان	-10.5783
▁خریداران	-10.5787
▁همگان	-10.5798
▁32	-10.5802
حساسیت	-10.5802
▁محله	-10.5805
▁اعتیاد	-10.581
▁انیمیشن	-10.581
▁ستارگان	-10.581
مند	-10.5814
▁جورج	-10.5816
▁فروشنده	-10.5823
▁نداشتم	-10.5826
art	-10.5832
J	-10.5847
▁Le	-10.5851
▁اینستاگرام	-10.5857
▁عواقب	-10.5857
▁عذر	-10.5857
▁نیروگاه	-10.586
▁ربط	-10.5862
حسین	-10.5867
▁مطمئنا	-10.5869
▁قرض	-10.587
▁نمودار	-10.5872
نر	-10.5877
مانند	-10.5877
▁سمی	-10.5889
▁بدل	-10.5889
بینی	-10.5893
▁يا	-10.5895
▁سوزی	-10.59
▁ناامید	-10.5901
▁دگرگون	-10.5905
▁لحظات	-10.5905
▁پیرامون	-10.5905
▁برسید	-10.5905
▁گا	-10.5907
رج	-10.5908
سن	-10.5922
عت	-10.5933
▁گرگ	-10.5943
▁دوستانه	-10.5946
▁وار	-10.5946
▁اجتماع	-10.595
ga	-10.5955
▁نوجوان	-10.5978
▁موضوعی	-10.5988
▁اینجاست	-10.5992
▁لنز	-10.5992
▁دیوانه	-10.5995
▁کنسول	-10.6
▁فنجان	-10.6
▁شلیک	-10.6
▁خوانندگان	-10.6001
▁پاره	-10.6004
وئ	-10.6004
▁Ad	-10.6005
▁شهرستان	-10.6008
▁قو	-10.601
گرا	-10.6014
▁رقابتی	-10.6022
▁وادار	-10.6034
▁قسم	-10.6036
تواند	-10.6038
▁پلتفرم	-10.6047
▁تبعیض	-10.6047
▁شرکای	-10.6047
▁دبیرستان	-10.6048
▁دافا	-10.6048
▁گرایش	-10.6049
▁مترو	-10.6059
▁آموخت	-10.6062
▁آک	-10.6065
▁1000	-10.6071
▁انسانها	-10.6072
پس	-10.6085
ادی	-10.6088
▁٪	-10.6089
▁خودروی	-10.6089
▁پادشاهی	-10.6093
▁تشدید	-10.6095
پتانسیل	-10.6096
▁استودیو	-10.6096
▁کنگ	-10.6096
▁دیروز	-10.6097
▁دستان	-10.6102
▁;	-10.6112
غیب	-10.6116
چین	-10.6121
▁متحدان	-10.6122
▁ماری	-10.6122
▁خطای	-10.613
برای	-10.6131
tic	-10.6133
▁لیگ	-10.6133
وار	-10.6143
▁ثالث	-10.6144
▁جهنم	-10.6144
▁دیکتاتور	-10.6144
▁محاکمه	-10.6144
▁کلسترول	-10.6144
▁شاهزاده	-10.6144
▁کشتار	-10.6148
یپ	-10.6148
▁متنفر	-10.615
اخذ	-10.616
▁زر	-10.6165
▁معین	-10.6165
▁نکردن	-10.6168
▁ردیابی	-10.6174
▁حج	-10.6175
فه	-10.6176
▁اشک	-10.6179
▁تاریکی	-10.6189
▁بیکاری	-10.619
▁معبد	-10.6192
▁غذاها	-10.6195
▁آواز	-10.6195
ff	-10.6197
▁متقابل	-10.6198
▁نگفت	-10.6203
▁پناه	-10.6203
▁ویران	-10.6204
رن	-10.6206
▁کالاهای	-10.6206
عکس	-10.6211
▁عمدتا	-10.6212
▁فروشی	-10.6212
▁حواس	-10.6221
▁مسلم	-10.6221
▁بودید	-10.6224
▁بازنشستگی	-10.6224
ey	-10.6226
▁تند	-10.6228
▁آباد	-10.6241
▁آگوست	-10.6241
▁درواقع	-10.6241
▁شاعر	-10.6241
▁احمد	-10.6241
▁مأموریت	-10.6244
▁باستانی	-10.6244
قفل	-10.6246
▁معجزه	-10.6258
▁بورس	-10.626
▁چا	-10.6276
▁4-	-10.6284
▁دروازه	-10.629
▁همینطور	-10.629
▁جین	-10.6293
▁دیسک	-10.6293
▁میکرو	-10.6297
▁متشک	-10.6297
خته	-10.6298
▁پوشید	-10.6308
▁ویدیوی	-10.6318
▁Car	-10.6332
▁مهار	-10.6334
▁هیچکس	-10.6335
▁شتاب	-10.6339
▁روستا	-10.634
▁2006	-10.6341
▁قضایی	-10.6342
PS	-10.6347
▁تورم	-10.635
▁همسرتان	-10.635
▁هنگ	-10.6353
▁ئی	-10.6353
▁هواپیماها	-10.6361
▁زیان	-10.6363
▁شون	-10.6363
انت	-10.6365
ud	-10.6365
▁ظهر	-10.6368
▁اور	-10.6377
IN	-10.6378
▁روستایی	-10.6382
▁دود	-10.6382
▁سرش	-10.6389
▁تخلیه	-10.6389
▁صعود	-10.6389
▁دیپلماتیک	-10.639
▁اذیت	-10.6391
▁بست	-10.6392
▁تومور	-10.64
▁مجددا	-10.6401
-1	-10.6405
IS	-10.6416
▁400	-10.6416
▁اظهارات	-10.6425
خو	-10.6427
▁تسهیل	-10.6427
▁نشینی	-10.643
▁قفس	-10.6439
▁قلعه	-10.6439
▁پنجاه	-10.6439
▁مفصل	-10.6441
▁نقلیه	-10.6446
رف	-10.6449
▁Q	-10.6451
▁نگهبان	-10.6453
▁بشک	-10.6454
▁ابد	-10.6458
▁دربار	-10.6461
▁کام	-10.6464
▁توانمند	-10.6485
▁كم	-10.6488
▁آرژانتین	-10.6489
▁۲۰۱۶	-10.6489
▁لر	-10.6491
▁Al	-10.6494
▁معده	-10.6496
▁شا	-10.6496
▁پژوهشی	-10.6498
▁قیامت	-10.6499
تال	-10.6502
▁پارا	-10.6511
▁آموخته	-10.6512
▁بک	-10.6525
▁حر	-10.6531
▁بازخورد	-10.6539
▁تلخ	-10.6541
▁No	-10.6543
▁طبقات	-10.6554
▁استثنای	-10.6555
▁روب	-10.6558
▁Wi	-10.656
".	-10.6566
▁نیافت	-10.6566
▁باند	-10.6573
▁کری	-10.6578
▁نمره	-10.658
▁برلین	-10.6584
▁ch	-10.6587
▁ترسید	-10.6588
▁کربوهید	-10.6589
▁شکلات	-10.659
ock	-10.6597
▁پاس	-10.6599
▁بکند	-10.6607
▁تاپ	-10.6612
_	-10.6633
▁ملا	-10.6634
▁آیین	-10.6647
MBA	-10.6651
▁کمپ	-10.6665
▁حاک	-10.6683
▁جاهای	-10.6684
▁کافئین	-10.6691
▁قاتل	-10.6691
▁پمپ	-10.6692
غم	-10.6693
IC	-10.6698
▁وقف	-10.67
▁ویرایش	-10.6702
▁کاشت	-10.6706
▁تاثیرات	-10.6707
ER	-10.671
▁وحشی	-10.6721
وند	-10.6726
▁دوش	-10.673
▁بیرونی	-10.6735
▁امارات	-10.6737
▁سلطنتی	-10.6739
▁تخفیف	-10.6742
▁اندونزی	-10.6742
▁قاضی	-10.6742
▁سپاه	-10.6743
▁پناهندگان	-10.6743
▁برویم	-10.6743
▁مستمر	-10.6744
▁HD	-10.6745
▁اموال	-10.6746
▁لپ	-10.6753
▁امیدواریم	-10.6756
اتور	-10.6777
▁پور	-10.6779
▁تیراندازی	-10.6782
▁قل	-10.6785
▁چهارشنبه	-10.6794
▁رقیب	-10.6794
▁مهاجم	-10.6794
▁تاکتیک	-10.6794
▁تربیت	-10.6794
▁خاتم	-10.6794
ha	-10.6796
▁صادقانه	-10.68
▁سواری	-10.6801
▁معیارهای	-10.6802
▁فشرده	-10.6807
▁راهنما	-10.6809
▁اجزای	-10.6811
▁خوان	-10.6819
رود	-10.6821
▁چراکه	-10.6828
خواهی	-10.6832
▁یاران	-10.6838
▁31	-10.6842
▁زباله	-10.6846
▁مثبتی	-10.6846
▁واگذار	-10.6851
▁رهایی	-10.6862
مواج	-10.6873
per	-10.6892
▁برمی	-10.6893
▁man	-10.6895
▁مواجهه	-10.6896
▁بلیط	-10.6898
▁میشوند	-10.6899
▁عادلانه	-10.6899
▁خسارت	-10.6902
حال	-10.6903
▁نوری	-10.6905
▁سکه	-10.6907
مع	-10.6908
OS	-10.6911
▁آدمی	-10.6911
▁اساسا	-10.6911
▁متقاضیان	-10.6912
▁الا	-10.6913
au	-10.6913
▁گره	-10.6914
▁پلاستیک	-10.6915
▁تلفنی	-10.6919
▁خوار	-10.6921
▁ماهانه	-10.6922
▁سفارشی	-10.6934
حتماً	-10.6944
▁رسم	-10.6945
▁كس	-10.6946
▁گان	-10.6949
▁اقلیت	-10.695
▁یکشنبه	-10.695
▁پیامدهای	-10.695
▁·	-10.6951
▁VPN	-10.6956
ee	-10.6957
▁سرما	-10.6957
iv	-10.6958
▁نوبت	-10.696
▁ساحلی	-10.6962
▁ماسک	-10.6966
▁رابرت	-10.6966
▁فراخوان	-10.697
▁mo	-10.6991
مثل	-10.7001
▁متناسب	-10.7003
▁وقایع	-10.7003
▁(20	-10.7005
▁بخواهیم	-10.7006
▁Ex	-10.7007
▁اک	-10.7007
اتیک	-10.7007
▁توافقنامه	-10.701
▁زاده	-10.701
▁روشنایی	-10.7013
▁درسی	-10.7013
▁آنهاست	-10.7014
▁راهبرد	-10.7015
▁دایر	-10.7033
كر	-10.7043
▁نشستن	-10.7046
▁استوار	-10.705
▁احمق	-10.7053
▁اشتیاق	-10.7056
▁شباهت	-10.7056
▁فرکانس	-10.7056
▁سرپرست	-10.7056
مال	-10.7056
▁تعویض	-10.7056
▁آزمایشات	-10.7057
▁اشیاء	-10.7057
▁ناظر	-10.7057
▁صلاحیت	-10.7057
▁هراس	-10.7059
▁خوابیدن	-10.7062
▁قطعی	-10.7073
▁تحولات	-10.7074
▁قان	-10.7089
▁ترور	-10.7092
▁نمودند	-10.7102
▁شناسان	-10.7106
▁Sa	-10.7106
▁المپیک	-10.7109
▁غیرنظامی	-10.7109
▁متعادل	-10.7109
▁سخنگوی	-10.7109
▁بکنید	-10.7111
▁سردرد	-10.7111
▁گلوله	-10.7112
▁دستیار	-10.7114
▁کلا	-10.712
▁نازی	-10.7125
▁اختلافات	-10.7137
▁تغییراتی	-10.7139
▁مردمی	-10.7139
جمع	-10.7157
▁اب	-10.7157
▁کارفرما	-10.7162
▁HTML	-10.7162
▁کنجکاو	-10.7162
▁So	-10.7167
▁نقر	-10.7169
٠	-10.7172
▁دانشجوی	-10.7179
▁مارکس	-10.7192
▁همسرم	-10.7205
mi	-10.7207
▁پیوستن	-10.7208
▁درگذشت	-10.7216
▁عادات	-10.7216
▁جزایر	-10.7216
▁هندی	-10.7219
▁رادیویی	-10.7223
▁افق	-10.7228
▁عاشقانه	-10.7229
▁نکن	-10.7235
▁وصل	-10.7237
ick	-10.7239
▁جوانی	-10.7255
گل	-10.7256
▁شوخی	-10.7262
▁سون	-10.7267
▁مشکوک	-10.727
▁ماساژ	-10.727
▁بخار	-10.727
▁بازتاب	-10.727
▁نما	-10.7272
▁آتی	-10.7273
▁بخواهند	-10.7275
▁تعبیر	-10.7278
▁داشتید	-10.7281
ایز	-10.7286
▁مشتاق	-10.7296
▁یادم	-10.7297
ca	-10.7304
▁اتهام	-10.7313
12	-10.7314
▁ظریف	-10.7325
▁مؤمن	-10.7325
▁کات	-10.7326
کتور	-10.7328
▁جادویی	-10.7328
▁ایست	-10.7328
▁گردشگران	-10.733
▁پوشیدن	-10.7334
ّه	-10.7334
▁تاریخچه	-10.7336
▁اکسید	-10.7342
▁فورا	-10.7345
▁فورد	-10.735
▁قاطع	-10.7352
▁جسم	-10.7353
▁شه	-10.7353
go	-10.7357
▁قدیم	-10.7358
▁خدایی	-10.7358
▁پلاستیکی	-10.7362
▁36	-10.7372
▁کشند	-10.7373
▁or	-10.7379
▁خجالت	-10.7379
▁لیبرال	-10.7379
▁حبس	-10.7379
▁بازدیدکنندگان	-10.738
▁آفریقایی	-10.7385
▁التحصیل	-10.7386
اوی	-10.74
▁بینایی	-10.74
▁داروی	-10.7407
▁صرفا	-10.7412
▁مبادله	-10.7415
▁افشا	-10.7418
▁5-	-10.7419
▁رب	-10.7428
▁پیشنهادی	-10.7431
▁فرشته	-10.7435
▁صلیب	-10.7435
▁وجو	-10.7435
▁بوسیل	-10.744
ki	-10.7441
▁میزبانی	-10.7446
▁فلز	-10.7465
▁نکردند	-10.7466
پل	-10.747
▁رگ	-10.7471
▁کاف	-10.7472
▁بکش	-10.7477
▁مهندس	-10.7487
▁فقدان	-10.7489
▁متعال	-10.7489
▁۲۰۱۰	-10.749
▁عضلانی	-10.749
▁سودمند	-10.7491
▁دفعه	-10.7493
▁سواح	-10.7493
▁پاسخگویی	-10.7493
port	-10.7497
▁پال	-10.7497
▁مردمان	-10.7498
▁بریتانیایی	-10.7505
▁فارسی	-10.7516
▁قطب	-10.7519
▁مریم	-10.7525
▁پاهای	-10.7533
▁گویا	-10.7534
▁پسند	-10.754
▁یخچال	-10.7545
▁زشت	-10.7545
▁بازرسی	-10.7545
▁ولایت	-10.7546
MS	-10.7547
نق	-10.7549
▁نباشند	-10.7551
▁هواداران	-10.7551
▁خبرنگاران	-10.7564
ear	-10.7565
▁موسو	-10.7566
▁کجاست	-10.7568
واحی	-10.7579
▁نس	-10.7583
▁خور	-10.7587
▁پردازند	-10.7591
زار	-10.7592
▁هواپیمایی	-10.7593
▁تایپ	-10.7593
▁کلمبیا	-10.7601
▁استعفا	-10.7601
▁۲۰۱۲	-10.7601
▁ذرات	-10.7602
▁بنابر	-10.7604
سین	-10.7611
▁تف	-10.7613
▁جاسوسی	-10.7617
علیه	-10.7624
▁تونل	-10.7624
▁کارگردانی	-10.7626
بندی	-10.7635
خر	-10.7638
▁زیبای	-10.7641
▁کارش	-10.7643
ies	-10.7643
▁فو	-10.7644
رک	-10.7656
صریح	-10.7656
▁تطبیق	-10.7657
▁تایمز	-10.7658
▁برتری	-10.7661
▁آفریده	-10.7662
▁اندیش	-10.7663
▁الگوهای	-10.7666
نج	-10.7669
▁ریاضیات	-10.7676
سانس	-10.7676
اقت	-10.7678
دوین	-10.7678
▁65	-10.7682
▁تراش	-10.7685
ئید	-10.7703
▁پخت	-10.7712
▁وردپرس	-10.7714
▁SEO	-10.7714
▁آنجلس	-10.7714
▁دانمارک	-10.7714
▁چار	-10.7716
▁عبادت	-10.7718
end	-10.7718
▁شفافیت	-10.772
CA	-10.7721
▁پارچ	-10.7726
▁...»	-10.7742
▁توانستیم	-10.7742
▁بوش	-10.7744
▁Cl	-10.7747
▁بي	-10.7747
▁۲۳	-10.7748
▁دبی	-10.7748
▁بازاریاب	-10.775
▁دانشمند	-10.7756
▁خلاص	-10.7757
▁کتابی	-10.7759
▁تحرک	-10.7761
▁برش	-10.7764
▁ماهر	-10.7765
▁کین	-10.7765
▁چهل	-10.7771
▁بیایند	-10.7771
▁فروشندگان	-10.7774
▁."	-10.7785
,000	-10.7787
راق	-10.7793
▁خبرنگار	-10.7808
▁ممنون	-10.7809
▁همکار	-10.7811
لف	-10.7822
▁جوی	-10.7822
▁شماری	-10.7825
▁نامناسب	-10.7828
▁زاویه	-10.7828
▁استانبول	-10.7828
▁صاف	-10.7832
▁ترکیبات	-10.7835
▁شناسند	-10.7839
▁اندازد	-10.7842
▁ستم	-10.7856
▁کوش	-10.7859
▁بتوانم	-10.786
▁کاست	-10.7861
▁پشتیبان	-10.7866
▁مرتبه	-10.788
▁چسب	-10.7885
▁قصه	-10.7885
▁۲۰۱۷	-10.7885
پیچیدگی	-10.7887
فروش	-10.7888
ide	-10.7888
▁معاهد	-10.7888
▁War	-10.7892
▁برون	-10.7893
افت	-10.79
▁))	-10.7912
▁بوت	-10.7913
▁34	-10.7919
ue	-10.7921
▁پیشنهادات	-10.7923
▁ed	-10.7924
▁یادآور	-10.7924
▁عقا	-10.7928
ice	-10.7929
▁زخمی	-10.793
▁Sp	-10.7933
▁بور	-10.7934
▁آکادمی	-10.7937
▁قاچاق	-10.7943
▁متأسفانه	-10.7943
▁بمباران	-10.7943
▁مرجع	-10.7945
▁صدر	-10.7947
رید	-10.7954
▁کشاورزان	-10.7954
▁فرآیندها	-10.7955
ord	-10.7961
▁قوت	-10.7964
▁دکترا	-10.7968
▁33	-10.7969
▁بز	-10.7975
▁خوشبختی	-10.7978
▁CO	-10.7978
▁مؤسس	-10.7989
▁حسی	-10.7997
▁احیا	-10.7998
داران	-10.7998
▁معقول	-10.8001
▁پانزده	-10.8001
قصر	-10.8003
▁بالینی	-10.8004
▁۴۵	-10.801
کسی	-10.8012
▁باخت	-10.8025
up	-10.8032
▁You	-10.8041
رسانی	-10.8042
SD	-10.8045
ity	-10.8046
▁سرزنش	-10.8059
▁معترض	-10.8059
▁۲۷	-10.8065
▁روید	-10.8067
▁هرکسی	-10.8068
▁آغ	-10.8071
▁محبوبیت	-10.8075
ak	-10.808
▁نر	-10.8081
▁اندوه	-10.8082
▁بت	-10.8083
▁مسیحیان	-10.8091
▁Mi	-10.8092
▁گلو	-10.81
▁کامیون	-10.8118
▁بسازد	-10.8118
▁لیو	-10.8122
▁عظیمی	-10.8123
▁صدمه	-10.8125
▁مبارزات	-10.8126
▁وفاداری	-10.8127
▁39	-10.8134
▁بالاتری	-10.8136
▁لاک	-10.8144
قبال	-10.8146
▁کارگری	-10.8153
▁چر	-10.8175
▁مقطع	-10.8177
'	-10.8178
▁احاط	-10.8179
▁تبع	-10.818
▁تسلط	-10.8182
▁افزودن	-10.8184
▁فیلیپین	-10.8185
▁نیا	-10.8186
▁PC	-10.8192
▁متری	-10.8194
▁190	-10.8209
▁ژو	-10.8211
▁مب	-10.8212
▁سپرده	-10.8214
▁متغیر	-10.8219
▁مولکول	-10.8223
▁بخشیدن	-10.8227
ft	-10.8229
▁وگو	-10.823
▁نانو	-10.8232
تمدید	-10.8233
▁هیتلر	-10.8237
▁شنوند	-10.8239
▁نشوید	-10.8239
▁تعق	-10.8242
▁Mar	-10.8247
▁هدر	-10.8248
▁پاسخگو	-10.825
▁پردازنده	-10.8253
▁آفرینش	-10.8256
▁فیل	-10.8258
عهد	-10.826
▁هشتم	-10.8264
▁۲۰۰۰	-10.8268
▁150	-10.8268
▁فاز	-10.8274
▁Ph	-10.8282
▁قراردادها	-10.8292
▁امشب	-10.8297
▁توریست	-10.8299
انید	-10.8299
گذر	-10.8299
نگی	-10.8316
11	-10.832
▁فرمودند	-10.8323
▁روشنی	-10.8331
▁دیدند	-10.8334
oc	-10.8343
▁پیری	-10.8344
▁گمراه	-10.8358
>	-10.8359
▁One	-10.836
org	-10.8361
▁193	-10.8363
▁مناظر	-10.8363
lan	-10.8367
▁Qu	-10.8368
▁شناسد	-10.8381
▁گرداند	-10.8392
▁مادری	-10.8394
▁تاکسی	-10.8395
▁قاعد	-10.84
▁تهاجمی	-10.84
▁گردان	-10.8416
▁بازنشسته	-10.8418
▁الماس	-10.8418
▁کریس	-10.8425
▁تحلیلگر	-10.8428
▁افزاری	-10.8435
▁لق	-10.8439
▁اکتشاف	-10.844
▁پرتو	-10.8444
▁اکو	-10.8448
يس	-10.8448
▁بازه	-10.8455
▁گال	-10.8465
▁وفادار	-10.847
▁فرش	-10.8477
▁تضاد	-10.8479
▁دستاوردها	-10.8486
▁پله	-10.8488
▁دما	-10.849
۵۰	-10.8493
زیابی	-10.851
▁نگر	-10.8513
▁دارا	-10.8517
▁Do	-10.853
act	-10.8531
بانی	-10.8533
▁باری	-10.8534
▁جادو	-10.8536
▁●	-10.8541
▁سلطه	-10.8541
▁شکستن	-10.8543
▁مطبوعات	-10.8543
▁بیگانه	-10.8546
▁مدیره	-10.8546
▁ترانه	-10.8547
▁نم	-10.8548
▁ورزشکاران	-10.8549
مود	-10.8551
▁دادستان	-10.8559
▁ation	-10.856
خور	-10.8566
▁لن	-10.8568
▁نفره	-10.857
▁رن	-10.8576
out	-10.858
ساز	-10.8584
son	-10.8598
▁1990	-10.8602
▁بنزین	-10.8602
▁کارفرمایان	-10.8602
▁جهش	-10.8602
▁iOS	-10.8603
▁سوری	-10.8603
▁حیوانی	-10.8604
▁نکنیم	-10.8608
▁دوستش	-10.8609
▁بنظر	-10.8612
▁منظر	-10.8614
▁48	-10.8616
▁فراگیر	-10.8618
▁بینش	-10.8621
tr	-10.8622
▁روزگار	-10.8622
▁سازگاری	-10.8623
▁Un	-10.8629
▁عمد	-10.8644
ary	-10.8644
▁حامی	-10.8645
▁پسرش	-10.865
▁سف	-10.8656
▁le	-10.866
▁آوریم	-10.866
▁co	-10.8661
▁تخیل	-10.8662
▁گرجستان	-10.8664
▁تعلیم	-10.8664
مرطوب	-10.8664
▁هیچوقت	-10.8664
[	-10.8664
▁نسبی	-10.8665
▁تجارب	-10.8666
▁پکن	-10.8667
عجله	-10.8683
▁عزت	-10.8685
.6	-10.8686
▁اچ	-10.869
▁بقای	-10.8691
یچه	-10.8691
▁استخر	-10.8696
▁an	-10.8697
▁Po	-10.87
▁نوین	-10.8701
mo	-10.8706
▁پرت	-10.8717
▁انداختن	-10.8718
الت	-10.8721
▁آسیایی	-10.8721
▁مقدمه	-10.8725
▁اعصاب	-10.8726
▁بلژیک	-10.8726
▁اشعه	-10.8727
▁تاثیرگذار	-10.8736
▁موی	-10.8739
▁راهکار	-10.8744
▁هیات	-10.8755
▁اسبا	-10.8757
▁دزد	-10.8757
▁ترسیم	-10.8762
20	-10.8763
زد	-10.8764
▁جنسیتی	-10.8766
۲۶	-10.8771
▁پستان	-10.8775
▁امیر	-10.878
▁My	-10.8781
▁معتقدم	-10.8782
▁تفریح	-10.8786
یلر	-10.8786
▁تلسکوپ	-10.8789
▁مباحث	-10.8789
▁مزرعه	-10.8789
▁پروفسور	-10.8789
▁پرتغال	-10.8789
▁مارتین	-10.8789
▁اسرار	-10.8792
ـــ	-10.8793
▁اشتباهی	-10.8795
ance	-10.8799
▁شهروندی	-10.8799
▁۱۹۸	-10.88
▁گیج	-10.88
▁کمر	-10.8805
▁گفتیم	-10.8805
▁١	-10.8806
▁خاطره	-10.8809
▁اعتراضات	-10.8817
▁بیستم	-10.882
TA	-10.8829
▁نمایان	-10.8831
▁اشیا	-10.8836
▁زبانی	-10.8838
▁سید	-10.8846
▁ناخ	-10.8846
▁پلت	-10.8852
▁زحمت	-10.8853
▁ناخواسته	-10.8853
▁کاتولیک	-10.8853
▁جهاد	-10.8853
▁آشپزی	-10.8853
▁خوانند	-10.8853
ib	-10.8854
▁سفیر	-10.8854
▁2003	-10.8856
▁95	-10.8861
tor	-10.8863
▁سیاستمداران	-10.8863
▁داران	-10.8863
ous	-10.8864
▁مستقیما	-10.8865
TC	-10.8868
روف	-10.8875
▁اِ	-10.8883
▁ناو	-10.8891
▁Ar	-10.8893
nd	-10.8904
پوش	-10.891
ong	-10.891
▁رویاهای	-10.891
▁تقلب	-10.8916
▁برسیم	-10.8917
▁واحدها	-10.8919
▁55	-10.8932
كن	-10.8938
▁دوری	-10.8947
▁جن	-10.8949
▁نگاران	-10.8954
▁الع	-10.8959
30	-10.8961
▁بازده	-10.8965
▁بنی	-10.8967
▁قیام	-10.8967
▁فار	-10.8967
▁سرطانی	-10.8976
▁مغناطیس	-10.898
▁محترم	-10.898
▁یوگا	-10.898
▁سپاسگزار	-10.898
▁اتوماتیک	-10.8981
▁وحدت	-10.8981
▁براى	-10.8981
▁باطل	-10.8981
واک	-10.8984
▁شراب	-10.8986
▁خدایان	-10.8988
آیا	-10.8993
▁دیو	-10.9006
▁ایستاد	-10.9016
▁روبات	-10.9018
شو	-10.9021
▁قومی	-10.9031
▁آفرید	-10.9039
▁شیو	-10.9043
▁اعزام	-10.9045
▁گرسنه	-10.9045
▁پوتین	-10.9045
▁مبارک	-10.9045
▁یونانی	-10.9048
▁2005	-10.9048
▁اروپای	-10.9051
▁کامپیوترها	-10.9055
▁جعلی	-10.9055
▁بهبودی	-10.9057
▁لای	-10.9059
ob	-10.9061
▁ویل	-10.9064
▁دنیایی	-10.9065
▁تام	-10.9066
▁سار	-10.9066
▁۰	-10.9075
▁عید	-10.908
▁سؤالات	-10.908
▁آف	-10.9081
▁خوشحالی	-10.9086
▁بوس	-10.9096
▁کرا	-10.9099
نشریه	-10.9099
ace	-10.91
▁ديگر	-10.911
▁ژنرال	-10.911
▁ذخای	-10.911
▁کوهستان	-10.9112
▁دلخواه	-10.9116
▁صمیمی	-10.9118
▁جیب	-10.9118
▁((	-10.9118
شود	-10.9124
ru	-10.9128
▁فروخت	-10.9132
▁عینک	-10.9137
▁دانی	-10.9138
▁کارآفرینی	-10.914
ائو	-10.9145
لامپ	-10.9162
بخش	-10.9165
▁ء	-10.9165
▁انتخاباتی	-10.9172
ix	-10.9175
▁بپردازید	-10.9175
▁معکوس	-10.9175
▁جسد	-10.9175
▁رانندگان	-10.9175
▁۲۰۰۹	-10.9176
▁مریخ	-10.9176
▁هک	-10.9178
▁میتوان	-10.9178
▁بلد	-10.9181
▁درایو	-10.9188
رز	-10.921
▁شفا	-10.9221
▁برقی	-10.9233
▁شمشیر	-10.9241
▁مذکور	-10.9241
▁پشیمان	-10.9241
ake	-10.9244
▁نامحدود	-10.9244
▁مستقیماً	-10.9246
▁پیغام	-10.9247
ook	-10.9247
امت	-10.9248
مندان	-10.9248
▁انبار	-10.9248
▁بدنی	-10.9249
▁گنج	-10.9249
▁سوسیالیست	-10.9249
▁پیتر	-10.9252
▁ارای	-10.9252
▁لوکس	-10.9253
▁چرب	-10.9255
AP	-10.9257
▁کیت	-10.9265
▁میکروب	-10.9275
▁چهارمین	-10.9292
ریم	-10.93
▁کرو	-10.9305
▁عبارات	-10.9307
▁نخورد	-10.9307
▁طرفی	-10.9308
▁ISO	-10.9308
▁USB	-10.9308
▁منصفانه	-10.9308
▁صریح	-10.9309
▁دیوارها	-10.9313
▁امروزی	-10.9314
▁لوگو	-10.9314
▁He	-10.9315
یابی	-10.9315
▁فرانک	-10.9315
PA	-10.9316
▁فدراسیون	-10.9318
▁شاگردان	-10.932
▁تیمی	-10.9323
اسی	-10.933
▁ارت	-10.9347
▁85	-10.9347
▁نباش	-10.9348
▁نامند	-10.9351
▁ــ	-10.9352
▁سرم	-10.9358
▁دفع	-10.9363
▁زنم	-10.9363
جنگ	-10.9371
توطئه	-10.9374
▁سودآور	-10.9374
▁علاقمند	-10.9374
▁کنسرت	-10.9374
▁غزه	-10.9374
▁یوسف	-10.9374
▁هرچیز	-10.9374
خل	-10.9381
▁تکراری	-10.9382
خودآگاه	-10.9383
▁اخیراً	-10.9383
han	-10.9389
▁شرم	-10.9401
▁تار	-10.9409
▁بگیر	-10.941
▁تاب	-10.9411
▁ma	-10.9416
▁برداشتن	-10.9424
▁نقدی	-10.9429
خت	-10.9434
▁ساختارها	-10.9435
▁--	-10.944
▁URL	-10.9441
▁بپردازد	-10.9441
▁بیاورند	-10.9441
▁بایگانی	-10.9441
بند	-10.9442
▁غبار	-10.9442
▁آستانه	-10.9443
▁آلات	-10.9445
▁گونگ	-10.945
▁خوشحالم	-10.9451
كه	-10.946
▁قهرمانی	-10.9463
▁شهرداری	-10.948
50	-10.9485
▁شجاع	-10.9495
ave	-10.9498
▁کمدی	-10.9503
▁ایکس	-10.9505
▁ناخوشایند	-10.9509
▁بطری	-10.9509
▁(1)	-10.9509
▁دوازده	-10.9511
▁نظامیان	-10.9517
شمول	-10.9519
▁192	-10.9524
▁):	-10.9527
▁اع	-10.9532
▁گرفتیم	-10.9534
man	-10.9535
po	-10.9538
ON	-10.9542
RP	-10.9556
▁ژنو	-10.9558
▁مقاوم	-10.9563
▁Pa	-10.9568
▁پیروان	-10.9569
▁بپردازند	-10.9577
▁ستایش	-10.9579
▁مص	-10.9582
▁حسابرس	-10.9582
▁بازگرداندن	-10.9584
▁گناهان	-10.9584
▁رسان	-10.9593
▁مختصر	-10.9593
▁بعداً	-10.9595
min	-10.9597
روی	-10.9598
▁آخرت	-10.9599
▁برجام	-10.9605
▁فلزی	-10.9609
▁سیا	-10.962
▁داوطلب	-10.9623
ai	-10.9628
▁انگشتان	-10.9628
فایل	-10.9629
▁ببین	-10.9629
▁ایزو	-10.9633
▁ادی	-10.9634
▁بهانه	-10.9636
▁هردو	-10.9638
▁بزرگسال	-10.9639
▁مأمور	-10.9641
ایق	-10.9642
▁World	-10.9645
▁تعلیق	-10.9645
▁تقلید	-10.9645
▁انتقام	-10.9645
▁عطر	-10.9645
▁کلینتون	-10.9645
▁حیرت	-10.9645
▁مترجم	-10.9645
▁محرمانه	-10.9646
▁سلسل	-10.9646
▁j	-10.9647
▁ببریم	-10.9649
▁سازندگان	-10.9649
عامل	-10.965
▁تجمع	-10.9653
▁اینچ	-10.9655
▁فاش	-10.9662
▁بیوتیک	-10.9663
▁حامیان	-10.9667
گزار	-10.9676
▁ولت	-10.9681
▁بول	-10.9686
کننده	-10.9688
ng	-10.9698
▁38	-10.9698
▁پذیرد	-10.9698
▁هفتم	-10.9701
▁دستورات	-10.9701
▁نخ	-10.9706
▁القا	-10.9713
▁اتریش	-10.9714
▁سحر	-10.9714
▁ماجراجویی	-10.9714
▁تپه	-10.9714
▁سکونت	-10.9715
وئید	-10.9716
▁روستای	-10.9717
▁كنید	-10.9717
▁وحش	-10.9719
▁مجل	-10.9719
روژن	-10.9719
▁خشن	-10.9722
▁تونی	-10.9726
▁فراز	-10.9732
▁Li	-10.9737
▁گارد	-10.9743
▁چت	-10.9752
ریک	-10.9753
SS	-10.976
va	-10.9764
▁داو	-10.9768
▁نگاری	-10.9769
▁سازه	-10.9777
▁ظلم	-10.9783
▁ابداع	-10.9783
▁قارچ	-10.9783
▁نابرابر	-10.9784
▁بادی	-10.9784
▁گرامی	-10.9785
▁خاکستر	-10.9785
▁کاس	-10.9785
▁حاملگی	-10.9786
▁اردن	-10.9787
▁۱۹۳	-10.979
▁ساعته	-10.9797
ES	-10.9805
▁آسیای	-10.9809
▁یابید	-10.981
▁آزادانه	-10.9818
▁فضاهای	-10.9818
▁مونت	-10.9831
▁حکمت	-10.9833
▁نوآوران	-10.9842
▁ساختاری	-10.9842
▁آرشیو	-10.9853
▁بغداد	-10.9853
▁فروپاش	-10.9853
▁تناسب	-10.9853
▁وسوسه	-10.9853
▁1980	-10.9854
▁پاییز	-10.9854
▁کیهان	-10.9854
▁خشمگین	-10.9855
▁Home	-10.9855
▁ماندگار	-10.9856
▁رصد	-10.9856
▁پنیر	-10.9857
▁Jo	-10.986
cy	-10.9862
▁دردسر	-10.9862
▁عراقی	-10.9865
oo	-10.9865
تحرک	-10.9866
▁شجاعت	-10.9867
▁اتهامات	-10.9868
if	-10.987
si	-10.9883
فق	-10.9883
ضم	-10.9885
▁برگرداند	-10.9888
▁دبیر	-10.9892
▁خف	-10.9893
▁شست	-10.9896
▁گرمای	-10.9898
ish	-10.99
ial	-10.9908
▁گستر	-10.991
AC	-10.9913
▁بازگرداند	-10.9914
▁تاج	-10.9916
▁Ho	-10.9919
▁بخرید	-10.9924
▁ماژول	-10.9924
▁شیعه	-10.9924
▁نروژ	-10.9924
▁جاودان	-10.9924
▁اثربخش	-10.9926
▁توهین	-10.9927
زید	-10.9927
▁شعب	-10.9928
▁جادوگر	-10.9932
▁مادی	-10.9935
BC	-10.9937
▁میانه	-10.9965
40	-10.9966
▁آماری	-10.9966
▁سنج	-10.9971
▁مختل	-10.9989
▁صداهای	-10.9993
▁دف	-10.9993
▁۲۸	-10.9993
▁WEB	-10.9995
▁متداول	-10.9995
▁استعمار	-10.9995
▁آسانسور	-10.9995
زو	-10.9995
▁نار	-10.9998
▁2004	-10.9998
عرفه	-11.001
▁مهندسان	-11.002
مرد	-11.0025
یلیون	-11.0031
▁لیتر	-11.0034
▁th	-11.0037
توانید	-11.0043
ron	-11.0043
برت	-11.005
▁دستگیری	-11.0052
▁en	-11.0053
▁دیپلم	-11.0055
CS	-11.0055
▁رؤیا	-11.0065
▁تجسم	-11.0066
▁فیلسوف	-11.0066
▁مقاصد	-11.0066
▁شنوایی	-11.0066
▁هرکدام	-11.0066
▁مقدم	-11.0068
▁ملیت	-11.0068
کند	-11.0079
ty	-11.0081
▁شدگان	-11.0084
▁قهرمانان	-11.0084
ical	-11.0089
▁تگ	-11.0091
▁چال	-11.0093
▁جیم	-11.0098
▁خال	-11.0106
▁هرکس	-11.0108
▁مقر	-11.0108
▁گیم	-11.0108
▁یون	-11.0114
▁متخصصین	-11.0121
▁گزار	-11.0121
▁En	-11.0127
▁خز	-11.0127
▁نواز	-11.0129
▁2)	-11.0129
▁بردارید	-11.0129
RI	-11.0136
▁آذربایجان	-11.0138
▁بشناسید	-11.0138
▁خداحافظ	-11.0138
▁پنجشنبه	-11.0138
▁عباس	-11.0138
▁صبور	-11.0138
▁منفجر	-11.0138
▁جریمه	-11.0138
▁گالری	-11.014
▁۲٫	-11.014
dy	-11.0142
▁بدیهی	-11.0143
▁تکذ	-11.0145
▁99	-11.0147
▁يك	-11.0152
▁انتقادی	-11.0156
▁برپا	-11.0164
ps	-11.0165
▁دفا	-11.0169
حق	-11.0169
NS	-11.0173
▁CD	-11.0189
▁کیک	-11.019
og	-11.02
▁z	-11.0205
تثبیت	-11.0211
▁ببخشید	-11.0211
▁بلندمدت	-11.0211
▁فرشتگان	-11.0211
▁مادربزرگ	-11.0211
▁**	-11.0211
▁ترمیم	-11.0211
ادار	-11.0212
▁IT	-11.0214
▁احمقانه	-11.0214
▁بگذاریم	-11.0215
▁افراطی	-11.0217
▁اقتصاددان	-11.0217
▁فال	-11.0223
=	-11.0225
▁انس	-11.0227
▁جذابیت	-11.0227
اید	-11.0241
▁درمانگر	-11.0241
IM	-11.0252
۲۰	-11.0255
سه	-11.0257
▁ریخته	-11.0263
EM	-11.0265
▁سارا	-11.0271
▁120	-11.0279
▁خواهش	-11.0283
٩	-11.0283
▁انسولین	-11.0284
▁برسانند	-11.0284
▁برسانید	-11.0284
▁هیدروژن	-11.0284
▁بجای	-11.0284
▁۲۰۰۸	-11.0284
ts	-11.0286
▁جانشین	-11.0287
▁‘	-11.0287
ton	-11.029
▁نوزدهم	-11.0291
CC	-11.0293
▁بکشند	-11.0293
اقل	-11.0294
▁ضخ	-11.0299
▁امری	-11.0299
▁(19	-11.03
▁pro	-11.0302
▁آرمان	-11.0302
▁جاوا	-11.0304
▁موقعیتی	-11.0307
ment	-11.0314
▁Ste	-11.0327
گراف	-11.0328
▁رویا	-11.0328
▁اى	-11.0339
▁600	-11.0344
۱۰	-11.0346
گير	-11.0347
▁تجربی	-11.0354
▁حامل	-11.0355
▁احتیاط	-11.0357
▁خنث	-11.0357
▁قواعد	-11.0357
▁همیشگی	-11.0357
▁Man	-11.0357
▁ارزها	-11.0359
▁حرام	-11.036
▁نوبل	-11.0367
▁دوستانم	-11.0382
▁گن	-11.0384
▁هیل	-11.0386
▁PS	-11.0386
▁نرمال	-11.0389
▁اَ	-11.0394
▁مسیحیت	-11.0396
▁مرس	-11.0399
▁قم	-11.0405
▁بقا	-11.0406
▁متقاضی	-11.0412
ant	-11.0428
▁37	-11.0429
▁1)	-11.043
▁منظوم	-11.0431
▁نازل	-11.0431
▁انبوه	-11.0431
▁شستشو	-11.0431
▁گشود	-11.0432
▁اورژانس	-11.0432
▁هوشیار	-11.0433
▁تداو	-11.0433
▁بنیانگذار	-11.0434
شویی	-11.0439
▁بکنند	-11.0441
▁اسپرم	-11.0444
▁me	-11.0446
▁پایبند	-11.0447
▁شناسم	-11.047
نویسی	-11.0475
▁آزمایشگاهی	-11.0476
▁ادا	-11.0488
▁محافظ	-11.0497
وال	-11.0498
▁انگیزی	-11.0501
▁نشانگر	-11.0503
▁ندا	-11.0505
▁Windows	-11.0506
▁رمزنگاری	-11.0506
▁مجاهد	-11.0506
▁اسکاتلند	-11.0506
▁گروگان	-11.0507
▁معاین	-11.0508
▁وکلا	-11.0512
فور	-11.0518
rn	-11.0522
استفاده	-11.0523
sa	-11.0524
ژی	-11.0528
▁]]	-11.053
▁ناب	-11.0534
▁خدم	-11.0535
▁منته	-11.0537
▁دندانپزشک	-11.0538
▁پارس	-11.0539
▁نرسیده	-11.054
▁اکس	-11.0542
ابت	-11.0556
▁دیدیم	-11.0562
▁دستش	-11.0563
▁داوطلبانه	-11.0566
▁قوا	-11.057
▁گازها	-11.0571
ِن	-11.0576
▁شیکاگو	-11.0581
▁کنوانسیون	-11.0581
▁کوانتوم	-11.0581
نتانیاهو	-11.0581
تصفیه	-11.0581
▁تعالی	-11.0581
▁زغال	-11.0581
واضع	-11.0582
▁۲۰۱۹	-11.0582
▁حدیث	-11.0583
▁رونمایی	-11.0585
لحق	-11.0587
سخ	-11.0592
▁202	-11.0599
▁زدم	-11.0613
▁خصوصیات	-11.0614
▁٢	-11.0618
▁صدق	-11.0619
▁کوچ	-11.0622
80	-11.0622
▁سفرهای	-11.0622
▁پرش	-11.0625
الله	-11.0631
▁نکردم	-11.0636
uc	-11.0639
▁كا	-11.0647
▁AC	-11.0647
ابق	-11.0652
▁۳۰۰	-11.0656
▁Play	-11.0657
▁اردوغان	-11.0657
▁رادیکال	-11.0657
▁سنگاپور	-11.0657
▁سوراخ	-11.0657
▁کیلوگرم	-11.0657
▁دعوا	-11.0657
▁تمایز	-11.0657
▁کنت	-11.0658
▁بخشند	-11.0658
▁خالق	-11.066
▁نشوند	-11.0661
able	-11.0662
٫	-11.0664
بول	-11.0666
▁MS	-11.0668
▁انحصاری	-11.0669
▁مشت	-11.0671
▁Red	-11.0672
برگزاری	-11.0672
▁مؤسسه	-11.0673
َّ	-11.0676
▁زیستی	-11.0681
▁شناسیم	-11.0684
▁نشر	-11.0688
▁تاسیسات	-11.0695
▁تانک	-11.0698
الیز	-11.0702
▁خواندم	-11.071
▁آمدید	-11.071
▁رول	-11.0724
▁چاقی	-11.0728
بورگ	-11.0731
▁دغدغ	-11.0733
▁جواهر	-11.0733
▁میخواهید	-11.0734
▁خاندان	-11.0734
ah	-11.0735
▁تفنگ	-11.0735
▁ارگان	-11.074
▁کُ	-11.0741
▁فرضیه	-11.0741
▁تلف	-11.0742
▁سکت	-11.0744
▁یافتند	-11.075
▁کوشش	-11.0752
mm	-11.0758
▁سام	-11.076
lin	-11.076
▁نداشتیم	-11.0762
▁هلی	-11.0764
▁فلا	-11.0768
▁شخصیتی	-11.0769
زند	-11.0775
خا	-11.0776
لند	-11.0783
▁تابستانی	-11.0789
▁موثرتر	-11.0804
▁غار	-11.0809
٨	-11.081
▁اسراییل	-11.081
▁سرنگون	-11.081
▁جرایم	-11.081
▁University	-11.081
▁نازک	-11.081
▁پراکنده	-11.0811
▁عطا	-11.0812
▁مرگبار	-11.0816
▁فلسف	-11.0817
▁شمرد	-11.0819
ory	-11.0824
▁حول	-11.0828
▁فون	-11.083
BS	-11.0834
▁Sc	-11.0846
IP	-11.0847
▁اومد	-11.0856
ــ	-11.0861
▁علیر	-11.0871
▁امان	-11.0887
▁أ	-11.0887
▁تفاهم	-11.0887
▁ناخالص	-11.0887
▁جملات	-11.0887
▁مثاب	-11.0888
▁توازن	-11.0888
tal	-11.0888
▁جسمانی	-11.0888
▁۲۰۰۵	-11.0889
▁دلش	-11.0891
▁خورید	-11.0894
بعید	-11.0894
▁جانسون	-11.0895
خص	-11.0896
▁64	-11.0897
▁بازیافت	-11.0899
▁تایوان	-11.0902
▁لطفاً	-11.0903
MA	-11.0906
▁خیز	-11.0906
▁سناریو	-11.0909
▁کارآفرین	-11.0909
▁کیم	-11.0912
جل	-11.0919
▁برگزیده	-11.092
▁موها	-11.0925
▁Lo	-11.0928
▁عصب	-11.0928
▁امتیازات	-11.093
▁تیز	-11.0933
▁پروت	-11.0933
box	-11.0942
▁Mon	-11.0949
ven	-11.0952
▁سوزن	-11.0957
شون	-11.0958
خوانی	-11.0959
▁پرسیدم	-11.0959
▁New	-11.0962
▁خودروساز	-11.0963
▁انحراف	-11.0966
▁بارسلونا	-11.0966
▁تگزاس	-11.0966
▁پدربزرگ	-11.0966
▁پلاگین	-11.0966
▁اذعان	-11.0966
▁پروستات	-11.0966
▁محاصر	-11.0966
▁کشاند	-11.0967
▁ربود	-11.0967
▁لایح	-11.0968
▁همسایگان	-11.0969
▁بخورند	-11.097
▁مکانیسم	-11.0975
▁زیباترین	-11.0978
▁پنل	-11.098
چرا	-11.0981
▁لزوما	-11.0982
▁اقلیمی	-11.0985
▁کارآفرینان	-11.0985
▁حاد	-11.0986
فعال	-11.0989
▁جد	-11.0991
▁Di	-11.0998
Fi	-11.1001
▁روانشناس	-11.101
▁44	-11.1011
nt	-11.1012
لون	-11.1015
▁لوک	-11.1019
▁گرایانه	-11.102
▁دویدن	-11.1021
▁تأخ	-11.1027
▁کلان	-11.1035
▁دال	-11.1038
▁مکانیک	-11.1038
▁1999	-11.1044
▁صهیونیست	-11.1044
▁نژادپرست	-11.1044
▁پرسنل	-11.1044
▁نهفته	-11.1045
▁تولیدکنندگان	-11.1045
▁فتح	-11.1046
▁ناکام	-11.1046
ba	-11.1052
▁بکنم	-11.1055
▁مری	-11.1058
امد	-11.106
▁طل	-11.1065
▁اسمیت	-11.1066
▁رحمان	-11.1069
▁43	-11.107
يي	-11.1072
▁کارگزار	-11.1073
ris	-11.1084
▁گذاشتند	-11.1085
DA	-11.1087
قام	-11.1088
▁اعضا	-11.109
▁مزایا	-11.1091
ire	-11.1091
▁As	-11.1091
▁افتادن	-11.1093
▁چوبی	-11.1105
تونم	-11.1108
ونگ	-11.1118
▁قضا	-11.112
▁نبودم	-11.1121
ew	-11.1122
گرفته	-11.1123
▁Microsoft	-11.1124
▁منتخب	-11.1124
▁پنتاگون	-11.1124
▁کلسیم	-11.1124
▁داوود	-11.1125
▁هیولا	-11.1125
▁پودر	-11.1125
▁۱۹۵	-11.1128
▁بدو	-11.1136
▁طر	-11.1138
▁دوگانه	-11.1138
▁آدام	-11.1143
▁بندگان	-11.1144
▁اتوم	-11.1147
▁کشش	-11.1151
▁دوستانش	-11.1151
ster	-11.1154
he	-11.1156
ke	-11.1159
▁جامد	-11.1162
▁نداشتن	-11.1171
MI	-11.1174
▁شهردار	-11.1192
▁ادراک	-11.1204
▁امپراطور	-11.1204
▁ثانویه	-11.1204
▁ارباب	-11.1204
▁کاراکتر	-11.1204
▁مجارستان	-11.1204
▁واجب	-11.1204
▁؟؟؟	-11.1205
▁پسرم	-11.1206
▁صحرا	-11.1206
▁پارکینگ	-11.1209
▁قبر	-11.1211
▁عیب	-11.1212
gra	-11.1217
▁سینمایی	-11.1217
ug	-11.1225
تحمل	-11.1227
▁ایرانیان	-11.1239
SE	-11.1245
▁فتو	-11.1246
ختم	-11.1251
ner	-11.1254
▁ّ	-11.1259
▁نیوز	-11.1265
▁موز	-11.1284
▁هیدرو	-11.1284
▁رطوب	-11.1284
▁مجزا	-11.1284
▁١٩	-11.1285
▁واژن	-11.1286
▁چارلز	-11.1287
▁علایم	-11.1288
▁مجری	-11.1289
اکت	-11.1292
▁هدفمند	-11.1292
▁پین	-11.1309
▁مزد	-11.1311
▁نوک	-11.1315
▁ابدی	-11.1316
نشین	-11.1324
▁۱۰۰۰	-11.1329
▁ایدز	-11.1347
▁ارجاع	-11.1366
▁حشرات	-11.1366
▁مجت	-11.1366
▁2001	-11.137
▁بانکداری	-11.1371
▁موزیک	-11.1372
▁حفر	-11.1374
▁بخت	-11.1374
▁قدمت	-11.1375
کنند	-11.1381
▁گرمایش	-11.1385
لن	-11.1387
The	-11.1391
▁com	-11.1403
▁زیرزمینی	-11.1411
▁شناختن	-11.1421
▁غالبا	-11.143
▁ایدئولوژی	-11.1436
▁گوسفند	-11.1448
▁بحرین	-11.1448
▁1970	-11.1448
▁ايران	-11.1449
ran	-11.1449
ple	-11.145
▁غرور	-11.145
▁نوشتار	-11.1452
▁Web	-11.1458
▁گفتگوی	-11.1462
▁Ba	-11.1465
▁47	-11.1466
یعنی	-11.1473
بریک	-11.1479
▁ادو	-11.1479
▁پوشاند	-11.1479
۹۶	-11.1486
▁بتا	-11.1488
▁قله	-11.1488
do	-11.1488
جان	-11.1497
▁Or	-11.1504
▁هائی	-11.1523
▁متد	-11.1529
▁App	-11.153
▁تقصیر	-11.153
▁تقویم	-11.153
▁سلیمان	-11.153
▁مبهم	-11.1531
▁استثنا	-11.1531
▁تابلو	-11.1532
▁شکوه	-11.1533
▁حاج	-11.1533
▁بیابان	-11.1535
▁ذره	-11.1536
▁عموما	-11.1538
▁کاپ	-11.154
▁نخب	-11.1541
▁دیوان	-11.1546
▁بزنم	-11.1549
▁سفت	-11.1554
▁گوا	-11.1559
سکو	-11.156
LA	-11.1561
▁شنیدم	-11.1561
▁پذیرفتن	-11.1564
▁علن	-11.1575
▁گذراندن	-11.1575
▁نیامده	-11.1576
یشن	-11.1577
وگرافی	-11.1589
راست	-11.1589
▁۶۵	-11.1593
▁دادید	-11.1599
نشان	-11.1606
٧	-11.1614
▁ارمنستان	-11.1614
▁نیجریه	-11.1614
▁سوژه	-11.1614
▁سودان	-11.1614
▁شکوفا	-11.1614
▁رکو	-11.1615
▁مبارز	-11.1616
▁کشورش	-11.1619
▁توالت	-11.1622
ull	-11.1624
▁دیپلمات	-11.1626
▁Mac	-11.1635
▁مقرر	-11.1646
▁Go	-11.1649
▁مکانیکی	-11.1652
▁¬	-11.1657
ox	-11.1658
▁عزیزان	-11.1664
▁u	-11.1666
ight	-11.1666
▁هرگاه	-11.1668
لي	-11.1671
▁جنگید	-11.1671
ust	-11.1676
▁غافل	-11.1677
▁وحی	-11.1681
▁پدران	-11.1682
▁گیل	-11.1688
▁فاکتور	-11.1692
▁بخواب	-11.1693
▁معدود	-11.1698
▁۱۹۷۰	-11.1698
▁تسکین	-11.1698
▁مقدماتی	-11.1698
▁احکام	-11.1698
▁تبلت	-11.1698
▁ایراد	-11.1699
▁ناشر	-11.1699
▁خزانه	-11.1701
▁شناسید	-11.1703
▁فلج	-11.1703
▁شیخ	-11.1704
گشایی	-11.1706
▁چاقو	-11.1711
▁چنگ	-11.1712
۱۹	-11.1716
ier	-11.1717
16	-11.1724
سلط	-11.1727
▁۱۵۰	-11.1739
▁طرفین	-11.1741
▁آرا	-11.1741
▁خواستیم	-11.1747
tra	-11.1747
▁كل	-11.1747
▁تاجر	-11.1748
▁se	-11.1748
▁ریچارد	-11.1749
▁نتوان	-11.1755
!»	-11.176
▁خوراک	-11.1761
▁ترسند	-11.1764
az	-11.1778
▁نیوزیلند	-11.1782
▁صراحت	-11.1782
▁خفیف	-11.1783
▁شورشیان	-11.1783
▁مشروع	-11.1786
▁اطرافیان	-11.1786
▁سرشار	-11.1788
▁۲۹	-11.1788
▁تابعیت	-11.179
▁صل	-11.1793
▁شهدا	-11.1803
توانیم	-11.1813
▁رویم	-11.1824
فن	-11.1826
AM	-11.1826
▁زم	-11.1838
▁آس	-11.1839
ci	-11.1841
▁بگذار	-11.1845
▁استیو	-11.1847
▁سخنران	-11.185
▁مجرمان	-11.1852
ناس	-11.1855
iz	-11.1856
▁مسیرها	-11.1856
▁ویلیام	-11.1862
▁tion	-11.1862
▁مض	-11.1865
ds	-11.1868
▁شیعیان	-11.1868
▁صالح	-11.1868
▁حماس	-11.1868
▁فرستند	-11.1868
▁شکارچی	-11.1869
▁۱٫	-11.187
▁محتمل	-11.1871
▁انگل	-11.1873
▁اسکار	-11.1874
▁Ca	-11.1876
شور	-11.1876
SI	-11.1879
▁هفتاد	-11.1879
▁نتواند	-11.1892
▁لخت	-11.1899
▁بزن	-11.19
▁برگه	-11.1902
دس	-11.1902
IF	-11.1903
اسپورت	-11.1923
خیر	-11.1933
▁نویسم	-11.1938
اض	-11.195
▁بیولوژیکی	-11.1954
▁لینوکس	-11.1954
▁مجروح	-11.1954
▁مظنون	-11.1954
▁گمشده	-11.1954
▁کاپیتان	-11.1954
ash	-11.1954
▁شل	-11.1958
لَ	-11.1959
▁سونی	-11.1961
TP	-11.1963
▁کسر	-11.1973
▁بردار	-11.1978
▁کارآموزی	-11.1984
▁لور	-11.1988
▁پد	-11.2012
▁كن	-11.2012
▁us	-11.2014
▁تأثیرگذار	-11.2017
▁فرماندار	-11.202
کرون	-11.2027
▁اعتقادات	-11.2031
▁سوئی	-11.2037
ov	-11.2038
▁سقط	-11.2041
▁اپراتور	-11.2041
▁هاروارد	-11.2041
▁کابوس	-11.2041
▁توماس	-11.2041
▁سپاس	-11.2041
▁جماه	-11.2041
▁تکمیلی	-11.2042
▁نابینا	-11.2042
▁ناشناس	-11.2043
▁افسرده	-11.2045
▁وطن	-11.2045
▁نوشتم	-11.2046
خصوص	-11.205
▁Air	-11.2051
▁جلد	-11.2053
▁منظره	-11.2053
چن	-11.2055
▁گانه	-11.2058
▁{	-11.2059
▁له	-11.206
▁Ka	-11.2064
▁تونس	-11.2067
▁نشدن	-11.2068
tro	-11.2074
ثه	-11.2085
my	-11.2085
طف	-11.2089
▁بارور	-11.2089
▁عکاس	-11.2093
▁ابزارها	-11.2095
NA	-11.2096
وسترو	-11.21
بورد	-11.2101
OR	-11.2116
▁یهود	-11.2127
▁برانگیخت	-11.2129
▁کثیف	-11.2129
▁معادن	-11.2129
▁لاغر	-11.2129
▁بیابید	-11.2129
▁تورنتو	-11.2129
▁Time	-11.2129
کثیر	-11.2131
▁تصرف	-11.2131
▁معاف	-11.2133
▁250	-11.2133
▁کانون	-11.2143
▁استروئید	-11.2143
▁لنین	-11.2146
▁Pri	-11.2154
▁پي	-11.2179
جام	-11.2179
gu	-11.219
▁فریم	-11.219
low	-11.2192
▁دخترش	-11.2195
▁عمدت	-11.2202
▁گریز	-11.2205
▁عملا	-11.2215
▁800	-11.2217
▁Black	-11.2217
▁امتناع	-11.2217
▁نوسان	-11.2218
▁قریب	-11.2219
▁بلوغ	-11.2219
▁اعظم	-11.222
▁جابجایی	-11.222
▁زودرس	-11.2222
▁فعلا	-11.2224
▁MA	-11.2224
▁بشار	-11.2228
▁مهربانی	-11.2235
▁ساق	-11.2237
حتا	-11.2239
▁سئوال	-11.2239
▁بدانم	-11.2242
▁خوک	-11.2243
yn	-11.2243
▁ماجرای	-11.2251
con	-11.2255
▁مصری	-11.2258
▁مچ	-11.2267
▁سنا	-11.2273
▁51	-11.2277
▁ببر	-11.2284
▁la	-11.2286
▁چن	-11.229
▁خیابانی	-11.23
▁اورشلیم	-11.2307
▁باقیمانده	-11.2307
▁تحقیر	-11.2307
▁جنایات	-11.2307
▁فواید	-11.2307
▁جناح	-11.2307
باق	-11.2307
▁خمینی	-11.2307
▁مهلت	-11.2308
▁انجیل	-11.2309
▁حجاب	-11.2309
▁Star	-11.231
▁نوجوانی	-11.231
▁توهم	-11.2313
▁استادان	-11.2314
▁بخواند	-11.2318
▁زنیم	-11.232
▁امداد	-11.2323
▁49	-11.2326
▁خرس	-11.2329
▁نامش	-11.2339
▁آلت	-11.234
وظ	-11.2344
▁انط	-11.2345
تراپی	-11.2353
▁نژادی	-11.2354
جانب	-11.2355
▁شیرینی	-11.2356
▁پیدایش	-11.236
▁فهمیدم	-11.2361
IA	-11.2363
▁تأ	-11.2368
ST	-11.2372
vo	-11.2372
ble	-11.2375
▁هکرها	-11.2375
▁نیکو	-11.2379
اوا	-11.238
▁دستاورد	-11.2386
▁نخواهم	-11.2389
▁جلوتر	-11.2393
▁محا	-11.2394
▁عبدال	-11.2396
▁توکیو	-11.2397
▁فنلاند	-11.2397
▁کالاها	-11.2397
▁بسیج	-11.2397
▁مهدی	-11.2398
▁پناهگاه	-11.24
▁ناقص	-11.24
▁پذیرای	-11.2402
فاسد	-11.2405
▁رک	-11.2409
نيز	-11.2411
▁افتند	-11.2413
▁جوری	-11.2417
▁سوزاند	-11.2418
▁نامگذاری	-11.242
▁منتقدان	-11.2426
جمله	-11.243
▁منظورم	-11.2432
▁دانستید	-11.2433
▁پیک	-11.2434
▁دعای	-11.2435
▁We	-11.2438
▁ادعاهای	-11.2439
▁مردانه	-11.244
ers	-11.2454
▁معمار	-11.2464
▁٫	-11.2466
▁بردم	-11.2479
▁بفهمید	-11.2488
▁بنوشید	-11.2488
▁فاطمه	-11.2488
▁لعنت	-11.2488
▁پیراهن	-11.2488
▁لرزه	-11.2488
▁مناقش	-11.2488
▁گمرک	-11.2488
ure	-11.2492
▁2002	-11.2494
▁[[	-11.2494
▁لان	-11.2504
▁بریم	-11.2505
▁برادرش	-11.2511
▁خصوصا	-11.2516
معمول	-11.2521
شاء	-11.2535
▁قا	-11.2537
▁نمر	-11.2548
▁بخواه	-11.2551
we	-11.2552
▁رفتیم	-11.2557
▁مول	-11.2559
▁متابولی	-11.2561
▁افراط	-11.2571
BA	-11.2571
▁پاها	-11.2572
▁کودتا	-11.2579
▁نگیرید	-11.2579
يق	-11.258
▁پیکسل	-11.258
▁سانتی	-11.258
▁ثمر	-11.2581
▁زیتون	-11.2582
▁محتویات	-11.2583
▁تفریحی	-11.2584
▁آمدم	-11.2586
▁نیروها	-11.2587
▁بلندتر	-11.2587
▁بخورد	-11.2589
اشق	-11.2589
▁میرند	-11.259
▁آسم	-11.2595
▁صفات	-11.2604
▁دزدی	-11.261
▁اسپا	-11.2617
حرف	-11.2617
▁پرسد	-11.2617
▁جغرافیا	-11.2619
▁it	-11.2642
كت	-11.2653
▁عفو	-11.2669
▁تقدی	-11.267
▁تداخل	-11.2672
▁تراکنش	-11.2672
▁تصدیق	-11.2672
▁سزاوار	-11.2672
▁پناهندگی	-11.2672
▁حسادت	-11.2672
▁مجاور	-11.2672
▁عصا	-11.2672
▁میگیرد	-11.2672
▁غروب	-11.2672
▁غمگین	-11.2673
▁عبدالله	-11.2674
▁افزاید	-11.2674
▁گیرم	-11.2674
▁تقوا	-11.2675
▁بخوانند	-11.2678
▁مساوی	-11.268
▁زدایی	-11.2682
▁تقدیر	-11.2683
▁اسکی	-11.2683
▁نیل	-11.2689
▁اسیر	-11.269
▁نهایتا	-11.27
▁Su	-11.2701
دریایی	-11.2708
uper	-11.2708
▁جنگنده	-11.2709
so	-11.271
▁مرح	-11.2718
جویی	-11.2718
▁خشکی	-11.2719
▁گار	-11.272
▁داوطلبان	-11.2721
یزه	-11.2724
▁گذاشتم	-11.2725
▁نورون	-11.2729
▁دیدید	-11.2729
▁بنیادین	-11.2742
▁تومان	-11.2745
▁انتشارات	-11.2746
▁42	-11.2747
▁All	-11.2749
▁بفهمیم	-11.2765
▁مرموز	-11.2765
▁بسازیم	-11.2765
▁رختخواب	-11.2766
▁۱۹۸۰	-11.2766
▁۲۰۰۳	-11.2767
▁بزنیم	-11.2771
▁متکی	-11.2774
▁خوانیم	-11.2775
▁گول	-11.2778
▁همجنسگرا	-11.2784
لیس	-11.2787
▁تشن	-11.2789
▁باورهای	-11.279
▁El	-11.2791
▁حجت	-11.2792
▁آقایان	-11.2793
▁......	-11.2795
row	-11.2796
Z	-11.2802
▁Ac	-11.2806
▁نگو	-11.2806
▁گزارشگر	-11.2814
العمل	-11.2832
ence	-11.2834
▁مختص	-11.2837
▁Ha	-11.2848
unt	-11.2856
▁امپریالیست	-11.286
▁مصالح	-11.286
▁معصوم	-11.286
▁هالیوود	-11.286
▁حکایت	-11.286
▁بزودی	-11.286
▁اسامی	-11.286
▁سهامداران	-11.2861
▁تفکی	-11.2863
▁قاعدگی	-11.2864
▁)؛	-11.2864
▁پرز	-11.2867
▁پیشگام	-11.2868
▁تعمی	-11.2872
▁پز	-11.2877
رسوم	-11.288
ek	-11.288
▁گرین	-11.2882
▁مصم	-11.2886
گاس	-11.289
▁لوس	-11.289
▁فت	-11.2891
▁قید	-11.2893
▁عزیزم	-11.2899
▁كردن	-11.29
▁ماندند	-11.2901
▁پنجمین	-11.2902
▁.”	-11.2906
فرد	-11.2908
▁مردها	-11.2912
▁۴۰۰	-11.2919
▁اندیشید	-11.2919
▁دس	-11.2923
▁کتب	-11.2926
▁پرداختند	-11.2928
▁(3	-11.2932
گانه	-11.2934
▁صو	-11.2938
▁هرج	-11.2943
▁ربا	-11.2946
▁نمودن	-11.2948
▁جانور	-11.295
▁اسکات	-11.2955
▁تلگرام	-11.2955
▁ایمپل	-11.2959
▁ES	-11.2963
نشأ	-11.2964
▁<	-11.2965
▁نماییم	-11.2971
منتظره	-11.2975
▁مولکولی	-11.2977
▁شیلی	-11.2981
▁افزارها	-11.2983
▁عوا	-11.2995
▁سنسور	-11.2997
چر	-11.2999
▁تح	-11.301
▁ساک	-11.3011
ka	-11.3016
فان	-11.3019
ستون	-11.3028
▁ماهیگیری	-11.3029
▁مامور	-11.303
eb	-11.3032
▁Ra	-11.3039
▁فیلیپ	-11.3043
▁Gu	-11.3045
▁li	-11.305
▁تشریح	-11.3051
▁سردرگم	-11.3051
▁ببندید	-11.3051
▁توقع	-11.3051
اسطوره	-11.3051
▁اسکریپ	-11.3051
تذکر	-11.3052
▁بترس	-11.3052
▁مریض	-11.3052
▁دهکد	-11.3053
▁ناراضی	-11.3054
▁سناتور	-11.3055
▁Mark	-11.3055
▁مزه	-11.3056
▁مسایل	-11.3057
▁دروغگو	-11.3057
▁توئیتر	-11.3062
▁ly	-11.307
▁دخترم	-11.3073
▁پخته	-11.3077
▁شو	-11.3082
ress	-11.3087
سریع	-11.3093
▁پذیرند	-11.3095
▁فهمیدن	-11.3106
▁امین	-11.3112
▁پرداز	-11.3121
▁Na	-11.3126
▁Gra	-11.3132
▁Net	-11.3134
▁نع	-11.3135
فاصل	-11.3136
▁رسیدیم	-11.3137
شناس	-11.314
▁پهنا	-11.3142
▁کشورمان	-11.3145
٥	-11.3148
▁بدبخت	-11.3148
▁عارض	-11.3148
▁عناوین	-11.3148
▁۱۹۹۰	-11.3148
▁دوقلو	-11.3148
▁عظمت	-11.3148
▁شمسی	-11.3148
▁بسازند	-11.3148
▁ندهد	-11.315
▁ردیف	-11.3152
TS	-11.3154
▁پت	-11.3163
برا	-11.3168
▁نهاده	-11.3169
▁نمایشگر	-11.3172
▁چو	-11.3175
نویس	-11.3181
آل	-11.3183
▁خندید	-11.3187
▁41	-11.3188
▁بازگو	-11.3192
▁ریه	-11.3194
▁ژان	-11.3194
▁حائ	-11.3195
▁شوهرش	-11.3212
ome	-11.3222
▁پاد	-11.3228
▁کشاورز	-11.3231
تلفات	-11.3238
▁گفتگوها	-11.3244
▁اژدها	-11.3246
▁خوشمزه	-11.3246
▁فلوریدا	-11.3246
▁ناچیز	-11.3246
▁بنویسم	-11.3246
▁[1]	-11.3246
▁پیتزا	-11.3246
▁نيست	-11.3246
▁اوپک	-11.3246
▁وسعت	-11.3246
▁پیانو	-11.3247
▁تکلیف	-11.3247
▁فلو	-11.3248
▁۲۰۰۱	-11.3249
▁AS	-11.3251
▁پار	-11.3253
▁ویکتور	-11.3255
▁رسانند	-11.3257
▁راهکارهای	-11.3257
▁رقبای	-11.3264
▁پرسند	-11.3266
▁سنجی	-11.3267
ess	-11.3271
▁مایعات	-11.3271
▁مشاهد	-11.3275
▁te	-11.3278
▁چهارده	-11.3281
|	-11.3287
نیا	-11.329
ns	-11.3292
▁بازنده	-11.3299
▁۷۵	-11.3299
▁اتصالات	-11.3301
▁Sha	-11.3307
▁ذی	-11.3311
▁مربیان	-11.3319
TR	-11.3324
▁مرید	-11.3328
▁بیو	-11.3338
▁طلبان	-11.3341
▁46	-11.3344
▁چاق	-11.3345
▁بسکتبال	-11.3345
▁لغت	-11.3345
▁حیاط	-11.3345
▁آشامیدن	-11.3345
▁شلوار	-11.3346
▁معتاد	-11.3346
▁زو	-11.3347
▁نداره	-11.335
▁استالین	-11.335
▁سلطنت	-11.3352
▁سرنشین	-11.3353
▁ناامیدی	-11.3353
اگ	-11.3356
▁امگا	-11.3359
کور	-11.3367
red	-11.3367
▁استرالیایی	-11.3374
▁سکس	-11.3377
ّم	-11.3383
▁بخشش	-11.3386
ترا	-11.3388
ساکت	-11.3391
زاد	-11.3391
▁سرود	-11.3402
▁pa	-11.3405
▁Pre	-11.3407
▁فول	-11.341
▁کشیش	-11.3411
▁ST	-11.3414
▁ment	-11.3427
▁شاگرد	-11.3427
▁شورا	-11.3431
▁گه	-11.3435
عرق	-11.3444
▁قصر	-11.3445
▁بعلاوه	-11.3445
▁درازمدت	-11.3445
▁مبتدی	-11.3445
▁فرستد	-11.3445
▁نزول	-11.3445
▁آویز	-11.3445
عطوف	-11.3445
▁میکنیم	-11.3446
▁(2)	-11.3446
▁پناهجوی	-11.3446
▁Apple	-11.3446
▁موازی	-11.3447
فضل	-11.3447
▁پوشه	-11.3454
داشت	-11.3454
برگ	-11.3454
▁بدنتان	-11.3458
▁دائما	-11.3458
▁ریخت	-11.3463
▁مردگان	-11.3471
▁نکنم	-11.3481
▁شایعات	-11.3481
py	-11.3482
&	-11.3488
ual	-11.3489
ظهر	-11.349
▁موس	-11.3494
▁Intern	-11.3497
▁ریو	-11.3497
▁سول	-11.3499
▁سرای	-11.35
▁700	-11.3506
▁96	-11.3508
▁Str	-11.3508
ریل	-11.3515
▁at	-11.3519
▁حرارتی	-11.3522
mon	-11.3522
▁آله	-11.3533
RS	-11.3535
▁هفتگ	-11.3541
over	-11.3542
▁اصفهان	-11.3546
▁شایستگی	-11.3546
▁ضایع	-11.3546
▁کلینیک	-11.3546
▁بلغارستان	-11.3546
▁غیبت	-11.3546
▁فتنه	-11.3547
▁آلبرت	-11.3548
کوب	-11.355
be	-11.3554
▁طبع	-11.3557
▁یانگ	-11.3558
▁اخ	-11.3559
زون	-11.3561
HA	-11.3562
oot	-11.3563
▁ابن	-11.3568
▁اذ	-11.357
▁پردازیم	-11.357
▁تابش	-11.357
▁ad	-11.3576
▁کشنده	-11.3578
BI	-11.3579
▁گرایان	-11.3579
رول	-11.3588
پرداخت	-11.359
رضا	-11.3599
▁Col	-11.3603
bu	-11.3603
▁دندانپزشکی	-11.3604
ler	-11.3605
ارک	-11.3607
ولا	-11.3613
▁کاغذی	-11.3614
▁زمستانی	-11.3614
▁يد	-11.3617
ung	-11.3624
▁es	-11.3625
خدا	-11.3637
صوب	-11.3642
▁مسخره	-11.3648
▁سرماخوردگی	-11.3648
▁مبلمان	-11.3649
▁تجلی	-11.3649
▁تعوی	-11.3651
▁عروسک	-11.3655
▁ID	-11.3659
ark	-11.3659
▁انتها	-11.3662
▁گرو	-11.3662
CH	-11.3665
ou	-11.3669
▁آورم	-11.367
▁بنگ	-11.3683
▁روتر	-11.3684
▁SA	-11.3692
▁قطبی	-11.3696
ظت	-11.3696
ost	-11.3703
▁شدیدتر	-11.3712
خان	-11.3714
▁ers	-11.3732
▁كش	-11.3733
nes	-11.3737
▁خدایا	-11.3742
▁رسما	-11.3751
é	-11.3751
▁ارواح	-11.3751
▁برخاست	-11.3751
▁مانیتور	-11.3751
▁پهلو	-11.3751
▁ترفند	-11.3752
▁آبشار	-11.3752
▁خانوار	-11.3752
▁1960	-11.3752
▁Open	-11.3752
▁یونی	-11.3762
▁ذیل	-11.3762
▁نشت	-11.3765
▁شمع	-11.3766
▁بنام	-11.3774
UN	-11.3777
▁66	-11.3779
▁ion	-11.3795
▁اوران	-11.3797
ric	-11.3801
hu	-11.3802
AA	-11.3803
ّر	-11.3804
▁ریختن	-11.3809
▁شکن	-11.3812
▁اطل	-11.3818
یکون	-11.3818
اسه	-11.3823
لیف	-11.3824
ren	-11.3827
▁خانمان	-11.3832
▁72	-11.3843
▁فلان	-11.3843
▁57	-11.3847
▁معلول	-11.3852
باع	-11.3852
▁یوتیوب	-11.3855
▁تنبیه	-11.3856
▁1.5	-11.3857
▁میرسد	-11.3857
▁ارگانیک	-11.3857
▁جلال	-11.3859
▁شریف	-11.3859
▁غد	-11.3859
▁کیفری	-11.3861
▁SP	-11.3863
سیل	-11.3864
▁ذو	-11.3865
▁آکادمیک	-11.3866
▁دانا	-11.3866
▁مامان	-11.3867
▁سالیانه	-11.3868
▁بلاگ	-11.387
▁مرج	-11.387
▁حوم	-11.3873
▁پندار	-11.3874
گیل	-11.3875
▁همسران	-11.3884
▁قب	-11.3887
▁900	-11.389
ero	-11.3901
▁فک	-11.3901
پرداز	-11.3903
▁جناب	-11.3903
▁کدها	-11.3911
چشمه	-11.3911
▁سوز	-11.3913
▁پش	-11.3914
▁گراف	-11.3914
▁دزدید	-11.3925
▁بشه	-11.393
▁هارد	-11.3935
▁کالای	-11.3937
▁برندهای	-11.3941
ئل	-11.3942
▁AI	-11.3944
▁خواهران	-11.3947
ney	-11.3948
▁پردازی	-11.3951
▁ذهنیت	-11.3956
PC	-11.3959
▁Business	-11.3961
▁Next	-11.3961
▁بپذیرید	-11.3961
▁تناقض	-11.3961
▁زیارت	-11.3961
▁اعلان	-11.3961
▁طنز	-11.3961
▁نیاورد	-11.3961
▁نشنید	-11.3961
▁دمشق	-11.3961
مخزن	-11.3962
CP	-11.3965
▁دامن	-11.3967
حل	-11.3969
▁گذارم	-11.3969
▁خیریه	-11.3973
▁خوردند	-11.3973
هیچ	-11.3973
▁بازیگری	-11.3975
▁جت	-11.3977
▁حسگر	-11.3977
سیت	-11.3984
▁فیلد	-11.3987
▁لوپ	-11.3988
▁۱۹۰	-11.3995
ara	-11.4016
wi	-11.4017
▁آو	-11.4018
▁مرزها	-11.4024
▁نوب	-11.4027
دانید	-11.4036
▁7-	-11.4046
باد	-11.4048
▁تولیدکنند	-11.4065
ائل	-11.4066
▁آلزایمر	-11.4067
▁مدیترانه	-11.4067
▁مدیتیشن	-11.4067
▁ناچار	-11.4067
▁کفایت	-11.4067
▁جماعت	-11.4067
▁جنایی	-11.407
▁ورزید	-11.4072
▁توییت	-11.4072
▁منکر	-11.4073
za	-11.4074
▁AM	-11.4075
▁77	-11.4085
▁سوئدی	-11.4086
▁فقه	-11.4088
▁گزارشات	-11.4094
▁افکن	-11.4096
کام	-11.4105
▁اکسیدان	-11.4108
▁فلش	-11.4111
▁جویان	-11.4114
▁Per	-11.4117
ator	-11.4118
▁جل	-11.4119
▁عاقلان	-11.4123
▁بارز	-11.4126
▁ریل	-11.4126
▁آشکارا	-11.4139
▁سکو	-11.4147
▁دورتر	-11.4149
▁کمان	-11.4154
▁صمیم	-11.4161
▁عمیقا	-11.4165
ev	-11.4171
▁بنگلادش	-11.4175
▁بیاموزید	-11.4175
▁مزاحم	-11.4175
▁هدایا	-11.4175
▁هیچکدام	-11.4175
▁کاندوم	-11.4175
▁انزوا	-11.4175
▁کبک	-11.4175
▁ناامن	-11.4175
▁۱۹۶۰	-11.4175
▁گنجاند	-11.4177
▁باریک	-11.4177
▁فرستادن	-11.4178
انتزی	-11.4179
▁میلان	-11.4179
▁معرفت	-11.418
ari	-11.4188
▁جستجوگر	-11.4191
▁On	-11.4196
▁con	-11.4197
▁ریش	-11.4198
▁غافلگیر	-11.4201
▁فهمند	-11.4202
▁حدودا	-11.4203
▁مداخل	-11.4213
▁مدرس	-11.4219
▁محف	-11.4223
▁التحصیلی	-11.423
وژ	-11.4232
▁۶۰۰	-11.4237
▁Can	-11.4241
▁Ed	-11.4251
▁کیلو	-11.4255
▁غر	-11.4257
▁فسیلی	-11.427
▁توست	-11.4272
▁ادبی	-11.4279
حد	-11.4279
\	-11.4283
▁اقلام	-11.4283
▁انباشت	-11.4283
تناسلی	-11.4284
الیزابت	-11.4284
▁میگوید	-11.4284
▁تبیین	-11.4284
پیمایی	-11.4284
▁بوستون	-11.4286
▁مارکسیست	-11.429
▁۳۴	-11.4296
▁189	-11.4296
۱۱	-11.4298
▁مصوب	-11.43
▁تبعید	-11.43
▁قاب	-11.4305
str	-11.4305
▁رفتارها	-11.4309
ابع	-11.4309
▁شخصا	-11.4317
eed	-11.432
▁پرستاری	-11.4322
▁ذهنم	-11.4325
▁باراک	-11.4328
▁کامپ	-11.433
▁po	-11.433
▁تص	-11.4333
سموم	-11.4337
▁نشدند	-11.4348
توس	-11.4352
▁آلن	-11.4355
توان	-11.4365
▁آست	-11.4365
▁کفر	-11.4367
نگری	-11.438
▁PHP	-11.4393
▁آلومینیوم	-11.4393
▁دخیل	-11.4393
▁پرولتاریا	-11.4393
▁بروکسل	-11.4393
▁تعدیل	-11.4393
▁مزارع	-11.4393
▁بسيار	-11.4393
▁حباب	-11.4393
▁هجوم	-11.4393
▁کمربند	-11.4394
▁فطر	-11.4394
▁براون	-11.4394
آپلود	-11.4394
▁مسافت	-11.4395
ale	-11.4395
▁شنود	-11.4397
▁۹۹	-11.4397
▁تماشاگر	-11.4399
▁مقول	-11.44
▁تبار	-11.4413
▁At	-11.4418
▁کینگ	-11.4421
▁سواد	-11.4424
▁بورژواز	-11.4427
▁دانستیم	-11.4429
▁مقرو	-11.4441
▁ایام	-11.446
▁شرك	-11.449
اکان	-11.4492
▁استودیوی	-11.4504
▁1996	-11.4504
▁سعادت	-11.4504
▁مواظب	-11.4504
▁کپسول	-11.4504
▁قشنگ	-11.4504
▁سبد	-11.4505
▁تهوی	-11.4508
▁زوال	-11.451
▁Mode	-11.451
اکر	-11.4517
▁کروز	-11.4519
▁داوران	-11.4521
▁تهاجم	-11.4536
▁امپراتور	-11.4536
▁بازرگان	-11.4536
▁پيش	-11.4537
▁فشارها	-11.4538
▁Vis	-11.454
▁نیازها	-11.4542
▁مبادل	-11.4553
¬	-11.4559
RT	-11.4559
▁فارک	-11.4559
ik	-11.457
▁ریک	-11.4578
▁مراکش	-11.4581
▁لند	-11.4584
▁زنید	-11.4586
▁اندرو	-11.4588
SP	-11.459
EA	-11.4591
▁تومورها	-11.4593
▁US	-11.4594
▁Dis	-11.4594
▁Ne	-11.4603
▁ابرها	-11.4604
▁آوار	-11.4606
ood	-11.4614
ویل	-11.4616
سلمان	-11.4617
تخصیص	-11.4617
▁Android	-11.4617
▁آنفولانزا	-11.4617
▁اصحاب	-11.4617
▁تزئین	-11.4617
▁سفیدپوست	-11.4617
▁فضاپیما	-11.4617
▁مساحت	-11.4617
▁ضمانت	-11.4617
▁شنوید	-11.4617
▁مثانه	-11.4617
▁هپات	-11.4617
▁مقصو	-11.4617
▁۲۰۰۷	-11.4618
▁خودخواه	-11.4619
▁Dr	-11.462
▁همتای	-11.462
▁بکنیم	-11.4621
▁جوهر	-11.4625
▁آنتونی	-11.4635
▁سلولها	-11.4636
▁گرانش	-11.4636
نگر	-11.4636
ریتم	-11.464
▁معماران	-11.4641
▁آرزوهای	-11.4642
▁تسهیلات	-11.4643
▁سپرد	-11.4648
▁الح	-11.4651
▁متغیرها	-11.4652
▁فرید	-11.4658
mart	-11.4658
▁ایستادن	-11.4662
▁سوسیالیس	-11.4663
تلاف	-11.4665
▁ساختند	-11.4676
ative	-11.4679
▁پاتر	-11.4685
▁قطعیت	-11.4686
▁یزد	-11.4689
▁عمو	-11.4691
▁آشو	-11.4691
ویژه	-11.4694
▁Pi	-11.4695
▁بیکار	-11.4703
▁6-	-11.471
▁Act	-11.4713
br	-11.4716
▁انسانیت	-11.4726
▁فرایندها	-11.473
▁1998	-11.473
▁بشنوید	-11.473
▁معضل	-11.473
▁صخره	-11.473
▁مجرد	-11.4731
▁1950	-11.4732
▁نوکیا	-11.4733
▁Free	-11.4734
سرع	-11.4734
▁عقلانی	-11.4738
▁۳۶	-11.474
▁الکترون	-11.474
▁180	-11.4741
▁اسل	-11.4743
▁بدم	-11.4746
▁دند	-11.475
▁ریاض	-11.4755
▁كنم	-11.4755
▁اسمش	-11.4766
▁اکر	-11.4768
▁الن	-11.4769
▁360	-11.4769
DI	-11.477
▁سلیق	-11.4771
▁کویت	-11.4781
ens	-11.4781
واژه	-11.4783
▁برخوردارند	-11.4783
وربین	-11.4785
نکردن	-11.4787
صحیح	-11.4787
▁برگردان	-11.4797
▁آدا	-11.4797
▁by	-11.4804
FDA	-11.4809
ویچ	-11.4809
▁پروازهای	-11.4809
AL	-11.4816
▁SM	-11.4816
MO	-11.4817
▁سوزان	-11.4819
▁Bar	-11.4829
dia	-11.4834
▁4)	-11.4837
und	-11.484
▁RE	-11.4841
▁۳۲	-11.4844
ٌ	-11.4845
▁رفیق	-11.4845
▁نجوم	-11.4845
▁مکتب	-11.4846
▁وگرنه	-11.4846
▁وجدان	-11.4846
▁هاشمی	-11.4846
سعود	-11.4846
▁ity	-11.4849
▁کاوش	-11.485
▁استناد	-11.485
▁II	-11.4854
lock	-11.4857
▁گرفتید	-11.486
▁جولی	-11.4864
▁مجرم	-11.487
▁Cap	-11.4878
▁اُ	-11.488
زوی	-11.4881
بوت	-11.4883
زاده	-11.4884
وقتی	-11.4885
▁علا	-11.4887
▁٣	-11.489
▁Du	-11.4892
▁پرسیدند	-11.4901
▁كردند	-11.4909
ax	-11.4916
▁یازده	-11.4922
▁حسابدار	-11.4935
▁مسئولین	-11.4938
▁بزرگسالی	-11.4939
▁do	-11.494
▁بِ	-11.494
▁OS	-11.4947
▁اعم	-11.4949
▁آموزد	-11.495
LE	-11.4957
گستری	-11.4958
يب	-11.4961
▁مخاطر	-11.4962
▁John	-11.4962
▁بالستیک	-11.4962
▁جعفر	-11.4962
▁گردآوری	-11.4962
▁رجوع	-11.4962
▁چمدان	-11.4962
▁الکساندر	-11.4962
▁سانسور	-11.4962
▁گوارش	-11.4962
▁شانگهای	-11.4962
▁شانزده	-11.4962
▁جنگجوی	-11.4962
ware	-11.4963
ational	-11.4964
▁آموزگار	-11.4964
▁طاق	-11.4964
▁Post	-11.4965
▁نداری	-11.4971
▁لحن	-11.4971
▁هولو	-11.4972
ناک	-11.4972
▁متا	-11.4976
▁ژل	-11.4977
▁پیل	-11.4978
▁ماموران	-11.4985
زاع	-11.4987
ترقی	-11.4993
▁عروق	-11.5003
▁Am	-11.5004
▁حافظ	-11.5009
سارت	-11.501
▁sp	-11.5017
قاطع	-11.5022
▁فهمد	-11.5022
▁نگرد	-11.5024
▁ْ	-11.5039
▁آوردم	-11.5057
▁سیاستمدار	-11.506
▁IS	-11.5064
ؤ	-11.5064
▁صلاح	-11.5076
▁Comp	-11.5079
▁1994	-11.5079
▁اسماعیل	-11.5079
▁بیهوده	-11.5079
▁عنکبوت	-11.5079
▁مبالغ	-11.5079
▁مشروط	-11.5079
▁سیزده	-11.5079
▁آذر	-11.5079
▁Auto	-11.5079
▁میانمار	-11.508
▁حریف	-11.5081
▁۲۰۰۶	-11.5081
▁کنش	-11.5086
▁سیتی	-11.5086
▁Har	-11.5089
▁پترو	-11.509
▁@	-11.5098
lex	-11.5098
▁Vo	-11.5099
▁عمان	-11.51
mb	-11.5105
▁بگذارم	-11.5105
▁59	-11.511
▁اسکو	-11.5117
یزم	-11.5133
▁سوسیال	-11.5134
TE	-11.5134
٢	-11.514
تحول	-11.5143
▁بخوان	-11.5145
ium	-11.5146
امین	-11.515
▁رویدادها	-11.5158
▁نویسند	-11.5158
شهود	-11.5166
ral	-11.5171
▁Of	-11.5175
▁ثروتمندان	-11.518
SC	-11.5181
▁تجهیز	-11.5187
▁خبرهای	-11.5189
▁لیمو	-11.5192
CI	-11.5195
▁1989	-11.5198
▁الجزایر	-11.5198
▁امیرالمؤمنین	-11.5198
▁انفرادی	-11.5198
▁بپذیرد	-11.5198
▁تعاون	-11.5198
▁بازگردد	-11.5198
▁یادبود	-11.5198
▁ادوارد	-11.5199
▁تلفظ	-11.5199
کوپتر	-11.5199
▁Dead	-11.52
▁معلولیت	-11.5202
▁CSS	-11.5204
▁تنبل	-11.5208
▁نوت	-11.5208
▁فیزیولوژیک	-11.5209
▁خوریم	-11.521
فاکس	-11.5214
فستیو	-11.5214
▁فدا	-11.5216
:«	-11.5219
فلزات	-11.522
ern	-11.5226
▁پرداختن	-11.5231
IT	-11.5231
▁خوشبخت	-11.5244
▁52	-11.5247
word	-11.525
البته	-11.5261
▁!"	-11.5272
▁گفتید	-11.5279
▁سوپ	-11.5291
▁خرم	-11.5294
▁بفرست	-11.53
▁وارن	-11.5303
▁دوبار	-11.5303
نمایی	-11.5303
▁جاست	-11.5313
▁Power	-11.5319
▁آمریكا	-11.5319
▁اطفال	-11.5319
▁بفهمند	-11.5319
▁غیرمستقیم	-11.5319
▁مخارج	-11.5319
▁اقتدار	-11.5319
▁نصیب	-11.5319
▁منفعت	-11.5319
▁سلطان	-11.5319
▁اکشن	-11.532
گلوکز	-11.5321
▁پیمانکار	-11.5322
▁اخوان	-11.5322
▁شیفت	-11.5323
▁آلفا	-11.5323
▁قمار	-11.5324
▁قرو	-11.5326
▁مُ	-11.5333
▁ملایم	-11.5333
▁نوروز	-11.5335
▁گردم	-11.5341
▁ستاد	-11.5342
▁تشک	-11.5342
▁عکاسان	-11.5346
air	-11.5352
▁خطاهای	-11.5355
▁نواخت	-11.5359
▁per	-11.536
DC	-11.5361
▁ex	-11.5362
▁کشم	-11.5375
▁بوئ	-11.5376
▁پروژ	-11.5379
سیستم	-11.5383
جوری	-11.54
▁الکس	-11.5408
اعلامیه	-11.5415
▁97	-11.5419
▁مَ	-11.5422
▁نزدیکتر	-11.5428
▁تهدیدها	-11.5437
▁اخطار	-11.5441
▁حفاری	-11.5441
▁روانپزشک	-11.5441
▁ناگزیر	-11.5441
▁بیاوریم	-11.5441
▁شریعت	-11.5441
▁برگردید	-11.5441
▁ایسلند	-11.5441
▁برگردد	-11.5441
▁دمکراس	-11.5441
▁کریستال	-11.5441
▁پیرمرد	-11.5442
▁استعدادها	-11.5442
▁جهات	-11.5442
▁API	-11.5443
▁فیزیکدان	-11.5443
▁اپرا	-11.5444
▁be	-11.5448
▁Live	-11.5448
▁بدهکار	-11.5449
▁اشتها	-11.5449
▁پُ	-11.5451
▁Day	-11.5453
▁فرزندش	-11.5454
▁رسیم	-11.5459
▁مباد	-11.5459
▁79	-11.5461
▁بين	-11.5468
PP	-11.5469
▁غربال	-11.547
▁آمارها	-11.5484
atch	-11.549
▁پرسیدن	-11.5493
▁فقرا	-11.5494
باز	-11.5499
▁آرم	-11.5505
▁پلاک	-11.5506
▁خردمند	-11.5508
گام	-11.5511
▁کیو	-11.5511
▁ترسد	-11.5513
rom	-11.5533
▁منوی	-11.5545
بدل	-11.5549
▁کردستان	-11.5549
net	-11.5555
▁چان	-11.556
▁دکوراسیون	-11.5564
▁صابون	-11.5564
▁مستعمر	-11.5564
▁نصیحت	-11.5564
▁مسمومیت	-11.5564
▁کوچولو	-11.5564
▁زامبی	-11.5564
www	-11.5564
▁چيز	-11.5564
▁نامرئی	-11.5564
▁آنچنان	-11.5564
▁سیلیکون	-11.5565
▁اتباع	-11.5566
ونیک	-11.5568
▁گیتس	-11.5569
▁نوا	-11.557
gg	-11.5571
▁63	-11.5573
▁تکنولوژیکی	-11.5575
▁Back	-11.5577
هالی	-11.5579
▁ندیدم	-11.5581
خوب	-11.5586
ana	-11.559
gen	-11.5593
▁خاصیت	-11.5595
ank	-11.5596
NC	-11.5596
▁جوج	-11.56
▁خورم	-11.5607
گرایی	-11.5607
▁خوانم	-11.561
▁اسپم	-11.5622
▁شوق	-11.5624
١	-11.5631
▁هور	-11.5634
che	-11.5636
▁کرای	-11.5637
▁San	-11.5638
▁56	-11.5641
▁مطالبات	-11.5643
▁عروقی	-11.5644
▁آمین	-11.5658
▁Sam	-11.5664
▁۳۸	-11.5665
▁مادرید	-11.5671
قدرت	-11.5674
LC	-11.5675
▁اسپری	-11.5677
▁عج	-11.5678
uk	-11.5682
▁جابجا	-11.5685
اتیو	-11.5686
أت	-11.5687
▁Data	-11.5689
▁System	-11.5689
▁تعصب	-11.5689
▁موعظه	-11.5689
▁LED	-11.5689
▁كتاب	-11.5689
▁محمول	-11.5689
▁هیپو	-11.5689
▁استقامت	-11.569
▁اقوا	-11.569
▁معما	-11.5691
▁(6	-11.5691
▁غفل	-11.5691
▁شفاهی	-11.5692
▁میدهند	-11.5692
oint	-11.5693
▁بفرستید	-11.5694
▁عاج	-11.5694
کاب	-11.5694
▁کشیدند	-11.5695
▁متعارف	-11.5696
▁۸۵	-11.5702
▁VR	-11.5704
▁ژانر	-11.5706
▁اکرم	-11.5711
▁اسلو	-11.5721
▁حکیم	-11.5727
▁ساکنین	-11.5728
▁صفت	-11.5734
حتی	-11.5736
▁مخف	-11.575
▁69	-11.576
افزار	-11.5761
▁غای	-11.5777
▁بپرس	-11.5781
▁تیک	-11.5783
ux	-11.579
▁شیک	-11.5795
▁خودآگاه	-11.5799
▁نیش	-11.5803
▁ton	-11.5804
▁مادام	-11.5812
▁شهرک	-11.5813
‍	-11.5816
▁خرگوش	-11.5816
▁دپارتمان	-11.5816
▁تخلف	-11.5816
▁مصدوم	-11.5816
▁هندوستان	-11.5816
▁کمونیسم	-11.5816
▁پائین	-11.5816
▁برگردم	-11.5816
▁آمرز	-11.5816
▁سیارات	-11.5817
▁بسپار	-11.5817
▁قرائ	-11.5818
▁مکانیزم	-11.5818
▁رومانی	-11.5821
▁دوزخ	-11.5822
▁زهرا	-11.5822
▁نیکل	-11.5831
▁خیس	-11.5833
تراکم	-11.5834
▁بچ	-11.5835
▁NG	-11.5838
سیون	-11.5838
۱۸	-11.5844
▁MP	-11.5846
▁54	-11.5848
حنی	-11.5848
▁جف	-11.5854
▁فیلمنامه	-11.5865
▁دارن	-11.5865
صت	-11.5867
▁IR	-11.5867
▁نود	-11.5869
اوگان	-11.5872
▁زنجیر	-11.5873
▁نیامد	-11.5875
▁Ki	-11.5876
▁انتقادات	-11.5878
شستن	-11.5883
}	-11.5886
۴۴	-11.5889
▁فعل	-11.5893
bs	-11.5905
▁شرمند	-11.5906
▁كشور	-11.5907
▁مطمئنم	-11.5909
▁ستیز	-11.5915
▁خودروها	-11.5928
▁مسلما	-11.5932
▁پارامتر	-11.5937
▁Ko	-11.5939
▁هول	-11.5939
▁Game	-11.594
▁Trans	-11.5944
▁آشفته	-11.5944
▁احداث	-11.5944
▁خویشاوند	-11.5944
▁برکنار	-11.5944
▁رونالدو	-11.5945
▁خشنود	-11.5946
▁۳٫	-11.5947
▁Previ	-11.5947
نهایت	-11.5952
▁متاسفم	-11.5953
▁نمي	-11.5955
▁مؤ	-11.5957
▁سس	-11.5958
▁فرزندانشان	-11.5963
▁(3)	-11.5966
▁فرآور	-11.5967
▁قدس	-11.5971
▁he	-11.5978
▁Win	-11.5983
▁مخاطبین	-11.5984
▁Ver	-11.5992
▁گلف	-11.5994
▁اسپر	-11.6003
▁مکالم	-11.6003
▁اجبار	-11.6013
رنگ	-11.6013
هنگام	-11.6016
by	-11.6017
▁عثمانی	-11.6019
▁عموی	-11.6028
▁منتقد	-11.6031
▁لم	-11.6035
▁امتحانات	-11.604
▁سرف	-11.6056
ko	-11.6061
▁همدل	-11.6066
▁عمران	-11.6069
FC	-11.6069
عظم	-11.6072
٦	-11.6074
▁1997	-11.6074
▁آشفتگی	-11.6074
▁تراژدی	-11.6074
▁سجده	-11.6074
▁پارکینسون	-11.6074
▁سمینار	-11.6074
▁جزییات	-11.6074
▁لاستیک	-11.6074
IoT	-11.6074
▁الدین	-11.6074
▁آسایش	-11.6075
▁گندم	-11.6075
▁نیرومند	-11.6075
▁CRM	-11.6075
▁5000	-11.6076
▁فوکو	-11.608
▁خوام	-11.6083
OL	-11.6084
▁فضانوردان	-11.6088
▁خواندند	-11.6089
▁بزرگوار	-11.6092
▁اتکا	-11.6095
las	-11.6097
دردی	-11.6097
▁اخت	-11.6102
▁اریک	-11.6104
ever	-11.6115
▁بازوی	-11.6118
▁چاه	-11.6133
▁نوشید	-11.6138
دوستانه	-11.6147
ker	-11.6152
▁88	-11.6152
▁نبودن	-11.6155
FA	-11.6156
▁۵۵	-11.6158
▁Im	-11.6181
وانه	-11.6181
▁معت	-11.6181
▁فیلترها	-11.6188
مثال	-11.6189
▁چید	-11.6196
▁دیش	-11.6202
▁زایی	-11.6202
▁ADHD	-11.6205
▁آمريکا	-11.6205
▁جرائم	-11.6205
▁محتاط	-11.6205
▁آشتی	-11.6205
▁انتزاع	-11.6205
▁بچرخ	-11.6205
▁حوصله	-11.6205
▁بجز	-11.6206
▁ترشح	-11.6206
▁جمهوریخواه	-11.6207
▁زنبور	-11.6207
▁پلاسما	-11.6207
▁فولیک	-11.6207
▁چادر	-11.6207
▁۲۰۲۰	-11.6207
▁جکسون	-11.6208
▁فرعون	-11.6208
▁گیتار	-11.6209
▁←	-11.621
▁تسلا	-11.621
▁مشتق	-11.6211
▁جونز	-11.6212
▁شادمان	-11.6213
▁139	-11.6216
▁ولز	-11.6217
▁خوانید	-11.6217
۱۲	-11.6219
▁۳۱	-11.6224
▁مبل	-11.6226
▁بخوانم	-11.6227
سنجش	-11.6227
▁حلال	-11.6232
LS	-11.6241
جیل	-11.6242
▁ً	-11.6253
▁جون	-11.6255
شهر	-11.626
لیکن	-11.6261
▁انگیزش	-11.6263
▁کارزار	-11.6267
res	-11.6271
▁نرفته	-11.6271
▁Cam	-11.6274
اوتیسم	-11.6275
19	-11.6278
ستعد	-11.628
طبق	-11.6281
فعل	-11.6282
▁اندازند	-11.6288
▁سپ	-11.6294
▁آدمها	-11.6299
▁بلع	-11.6302
ji	-11.6312
▁هلاک	-11.6312
▁سریعا	-11.6325
خون	-11.6327
▁دنیاست	-11.6328
▁پادشاهان	-11.6328
MIT	-11.633
▁مورخ	-11.6334
▁Galaxy	-11.6339
▁Group	-11.6339
▁القدس	-11.6339
▁انعکاس	-11.6339
▁بیندازید	-11.6339
▁تعارض	-11.6339
▁ناکارآمد	-11.6339
▁اسکلت	-11.6339
▁بيشتر	-11.6339
▁ابهام	-11.6339
تأسف	-11.6339
▁پرسپولیس	-11.6339
▁رویترز	-11.6339
▁آنکارا	-11.6339
▁Blue	-11.6339
▁پالایش	-11.6339
▁عفونی	-11.6341
▁رزمی	-11.6341
▁صداها	-11.6342
▁پارتی	-11.6352
▁عاری	-11.6352
▁مدتها	-11.6355
▁فیلمساز	-11.6356
har	-11.6356
ene	-11.6357
▁روستاها	-11.6362
▁پروانه	-11.6365
▁آبجو	-11.6366
▁اوّل	-11.6367
▁And	-11.637
▁رازهای	-11.6375
BO	-11.6376
ادارات	-11.6377
▁گز	-11.6378
ارویی	-11.638
▁زیباست	-11.6381
▁کتک	-11.6387
▁CC	-11.6399
یاهو	-11.6402
▁Art	-11.6409
▁زرا	-11.6409
▁نئو	-11.6411
▁لات	-11.6415
▁قانونگذار	-11.6423
▁هکر	-11.6431
صرافی	-11.644
▁کلیساها	-11.6445
▁کمیاب	-11.6455
ten	-11.6461
طابق	-11.6462
گشت	-11.6466
ئوس	-11.6468
▁جنجال	-11.6474
▁شاغل	-11.6474
▁کروموزوم	-11.6474
▁ببخشد	-11.6474
▁سرسخت	-11.6474
NET	-11.6474
▁Lin	-11.6474
▁ندهند	-11.6476
▁واگن	-11.6477
▁land	-11.6477
▁کوسه	-11.6477
▁‫	-11.6478
▁ایوان	-11.648
▁میگرن	-11.6481
▁متوالی	-11.6484
▁برادرم	-11.6484
▁بانوی	-11.6486
▁پیامبران	-11.6487
▁هموار	-11.6499
عقوب	-11.6502
▁دلال	-11.6504
TH	-11.6505
▁آموختن	-11.6506
نبرگ	-11.6507
▁زل	-11.6507
ward	-11.6509
▁لنزها	-11.6511
یدنت	-11.6516
▁کروم	-11.6522
▁سي	-11.6526
▁پیوندهای	-11.6527
▁Cra	-11.6529
▁سرورها	-11.6537
▁ترسم	-11.6551
آنچه	-11.6556
▁عن	-11.6562
▁PR	-11.6573
▁داور	-11.6578
hen	-11.6582
▁Min	-11.6586
▁ورزشکار	-11.6602
▁بکن	-11.6604
NO	-11.6605
▁160	-11.6606
▁معاش	-11.661
▁Server	-11.6611
▁آلاینده	-11.6611
▁آکسفورد	-11.6611
▁انضباط	-11.6611
▁قزاقستان	-11.6611
▁مسؤول	-11.6611
▁پیغمبر	-11.6611
▁مرخصی	-11.6611
▁هکتار	-11.6611
▁بذر	-11.6611
▁بیاورم	-11.6611
▁پازل	-11.6611
▁نگویید	-11.6611
▁بمانم	-11.6611
▁مؤلف	-11.6611
▁غوط	-11.6611
▁تیروئید	-11.6611
▁بریزید	-11.6612
▁آنزیم	-11.6614
▁بازگردان	-11.6617
▁پهن	-11.6622
ole	-11.6622
خواد	-11.6625
ail	-11.6625
علق	-11.6626
ثر	-11.6627
▁کاترین	-11.6627
شته	-11.6631
▁طو	-11.6638
▁نوح	-11.6639
▁آسا	-11.6648
▁پیشانی	-11.6654
تاج	-11.6654
▁پاي	-11.6656
▁نشو	-11.6659
▁یازدهم	-11.6659
▁پوز	-11.6659
▁یگانه	-11.666
▁86	-11.6661
▁up	-11.6669
▁پاور	-11.6676
▁اتو	-11.6677
60	-11.668
▁جرات	-11.6684
▁BA	-11.6694
wa	-11.6706
▁بورژوا	-11.6708
▁میلاد	-11.6712
پناهنده	-11.6713
▁son	-11.6719
▁نقا	-11.6724
▁1.1	-11.673
فاق	-11.6733
وَ	-11.6738
▁نامزدها	-11.6744
▁بازماندگان	-11.675
▁بپذیریم	-11.675
▁كودك	-11.675
▁ناسازگار	-11.675
▁[2]	-11.675
▁هفده	-11.675
▁خوشایند	-11.675
▁بمانیم	-11.675
▁نارضای	-11.6751
▁رئال	-11.6752
▁بخوریم	-11.6755
ike	-11.6756
▁رسالت	-11.676
▁غریز	-11.6763
▁ولاد	-11.6763
▁شکننده	-11.6766
▁98	-11.6777
۹۳	-11.6778
▁EA	-11.6782
q	-11.6787
ize	-11.6791
▁حرم	-11.6795
▁3000	-11.6795
▁کلاهبرداری	-11.6805
وتو	-11.6805
hip	-11.6818
*	-11.6831
▁پوک	-11.6833
▁والا	-11.6843
▁دشوارتر	-11.6843
▁ندید	-11.6879
▁اختصار	-11.6891
▁روانشناختی	-11.6891
▁متناقض	-11.6891
▁معایب	-11.6891
▁لشکر	-11.6891
▁برآمد	-11.6891
▁نیفتاد	-11.6891
▁گذرانند	-11.6891
▁دیزل	-11.6891
▁دشت	-11.6891
▁عرش	-11.6891
▁شارل	-11.6891
تقارن	-11.6891
eck	-11.6892
▁جناز	-11.6893
▁عیار	-11.6893
▁ژئو	-11.6893
▁نگذارید	-11.6894
ree	-11.6895
▁لاس	-11.6896
▁پلک	-11.6897
▁إ	-11.6906
▁فداکار	-11.691
▁۴۸	-11.6918
▁فرع	-11.6929
کینز	-11.6931
▁78	-11.6934
▁غرف	-11.6938
لکس	-11.6943
mail	-11.6944
▁آتلانت	-11.6952
▁68	-11.6958
▁نرفت	-11.6964
▁سنسورها	-11.6971
▁فهمم	-11.6984
▁حتم	-11.6987
▁کشورشان	-11.6988
رژن	-11.699
▁اجسا	-11.699
PD	-11.6998
▁بخور	-11.6999
▁خد	-11.7017
▁تسلی	-11.7028
▁درآمدها	-11.703
▁1992	-11.7033
▁Life	-11.7033
▁Network	-11.7033
▁Semal	-11.7033
▁اتمسفر	-11.7033
▁بنشینید	-11.7033
▁دمکراتیک	-11.7033
▁سختگیرانه	-11.7033
▁عاشورا	-11.7033
▁متضاد	-11.7033
▁منچستر	-11.7033
▁نترسید	-11.7033
▁ژورنال	-11.7033
▁IBM	-11.7033
▁with	-11.7033
▁جنرال	-11.7033
▁فقیه	-11.7033
▁منازع	-11.7034
▁استبداد	-11.7034
▁III	-11.7035
▁post	-11.7035
▁مخابرات	-11.7037
avid	-11.7038
اکانت	-11.7038
▁کادر	-11.704
▁مصون	-11.704
▁۹۵	-11.7041
▁۸۰۰	-11.7046
▁سیستماتیک	-11.7048
reat	-11.706
▁ببرم	-11.7064
خوردگی	-11.7069
▁نبی	-11.707
▁CV	-11.7072
amp	-11.7081
خلال	-11.7098
▁یابیم	-11.7103
دگان	-11.7105
▁Inter	-11.7107
▁خش	-11.711
▁ریس	-11.7119
▁کران	-11.7121
▁عروس	-11.7122
ise	-11.7131
▁بتن	-11.7135
▁اجزا	-11.7141
هیلاری	-11.7143
▁Op	-11.7145
▁آز	-11.7146
▁کافیست	-11.7151
▁صوت	-11.716
▁2.5	-11.7168
▁گشای	-11.7175
شطرنج	-11.7178
▁بفهمد	-11.7178
▁صربستان	-11.7178
▁پرتقال	-11.7178
▁زائد	-11.7178
▁ملموس	-11.7178
▁مصیبت	-11.7178
▁ناموفق	-11.7178
▁قشر	-11.7179
▁پژو	-11.7179
▁فمینیس	-11.7179
▁بازدارند	-11.7179
▁HPV	-11.7179
▁رمانتیک	-11.718
▁Light	-11.7181
▁خاور	-11.7182
▁لیاقت	-11.7182
▁شاهکار	-11.7183
▁بسپارید	-11.7183
▁خمیر	-11.7184
اقص	-11.7185
▁UV	-11.7188
رزومه	-11.7189
▁احرا	-11.7193
▁سازش	-11.72
توپ	-11.7201
▁دفعات	-11.7203
وط	-11.7208
▁Sch	-11.7211
ool	-11.7216
▁روشنفکران	-11.7216
▁140	-11.7238
▁}	-11.7245
▁سلب	-11.725
DE	-11.7257
▁حوا	-11.7257
فراغ	-11.7267
ظهور	-11.7268
۷۹	-11.7272
▁حک	-11.7273
▁بسا	-11.7284
اهی	-11.7286
▁نوشا	-11.7303
بهترین	-11.7307
▁توئیت	-11.7309
▁تحریف	-11.7325
▁انقراض	-11.7325
▁دینامیک	-11.7325
▁متعاقب	-11.7325
▁نامعلوم	-11.7325
▁بشناسیم	-11.7325
▁بنویسد	-11.7325
▁برگردیم	-11.7326
▁دهقان	-11.7326
▁تبریز	-11.7326
▁بگم	-11.7326
▁الحاق	-11.7326
▁بانوان	-11.7327
▁تالار	-11.7327
▁پیشنهادهای	-11.7327
▁خویشتن	-11.7328
ریق	-11.7329
دنبال	-11.733
ound	-11.733
▁اعرا	-11.7331
▁تدارکات	-11.7335
▁بانکوک	-11.7337
ئر	-11.7343
▁کاتالو	-11.7344
▁آوا	-11.7346
▁TV	-11.7355
▁طرد	-11.7356
▁متابولیک	-11.7356
▁اثرگذار	-11.7357
▁گون	-11.7359
▁مومن	-11.7359
NF	-11.7361
▁Comm	-11.7368
▁منفرد	-11.7372
▁شدیدا	-11.7381
▁۲۵۰	-11.7398
▁عاقل	-11.74
▁نتیج	-11.7404
▁هشدارهای	-11.7406
▁گدا	-11.7406
69	-11.7414
ویو	-11.7415
تعجب	-11.7417
EG	-11.7425
جذ	-11.743
▁معان	-11.7431
▁جاسوس	-11.7432
▁خلو	-11.7434
▁زار	-11.7438
▁عق	-11.7444
▁غلات	-11.745
▁روشنگر	-11.7459
▁She	-11.7461
سلام	-11.7461
۷۶	-11.7469
bit	-11.7473
▁1993	-11.7475
▁دایناسور	-11.7475
▁یائسگی	-11.7475
▁انصاف	-11.7475
▁بنویسند	-11.7475
▁حصول	-11.7475
▁آکواریو	-11.7475
▁فاضل	-11.7475
▁میکروسکوپ	-11.7475
▁[3]	-11.7475
▁متناوب	-11.7475
گردهمایی	-11.7475
▁بیافتد	-11.7475
▁تزکی	-11.7475
▁واژگان	-11.7475
▁دیزنی	-11.7475
▁تاسف	-11.7475
▁2.0	-11.7476
▁>>	-11.7476
▁ترمز	-11.7477
▁آرایه	-11.7477
▁شادتر	-11.7478
یزیم	-11.7479
▁اردو	-11.748
SH	-11.7482
▁جنون	-11.7482
▁پرتره	-11.7483
▁کافر	-11.7484
▁۴۷	-11.7485
▁کدوم	-11.7489
▁لط	-11.7489
▁عود	-11.7494
▁DC	-11.7494
▁جوانب	-11.7495
▁ندادند	-11.7501
DR	-11.7504
▁فروید	-11.7513
PT	-11.7519
ray	-11.7521
▁سوختن	-11.7521
▁شیرده	-11.7532
▁نمانده	-11.7533
▁دیل	-11.7536
حدود	-11.7548
ific	-11.7556
▁فرماندهان	-11.7567
٣	-11.7568
طبیعی	-11.7568
▁CE	-11.7593
▁مهندسین	-11.7596
▁Ni	-11.7599
▁گیت	-11.7599
▁Val	-11.76
آر	-11.7602
▁گزید	-11.7609
▁تك	-11.762
▁منشا	-11.7625
Bitcoin	-11.7626
▁1991	-11.7626
▁Cloud	-11.7626
▁View	-11.7626
▁انتحاری	-11.7626
▁بگذرانید	-11.7626
▁تدابیر	-11.7626
▁ناهنجار	-11.7626
▁ژنراتور	-11.7626
▁زناشویی	-11.7626
▁مخترع	-11.7626
▁نارنجی	-11.7626
▁سیاهچال	-11.7626
▁استحکام	-11.7626
▁باشکوه	-11.7626
▁لرزش	-11.7626
▁بخند	-11.7626
▁سعد	-11.7626
▁***	-11.7626
SQL	-11.7626
▁ظروف	-11.7626
▁میخواهم	-11.7627
▁عمودی	-11.7627
▁ارمنی	-11.7627
▁مشهد	-11.7627
▁وصف	-11.7627
▁1.2	-11.7628
▁اجداد	-11.7628
▁میگردد	-11.7629
▁Cor	-11.7629
▁کرسی	-11.7633
su	-11.7638
▁۶۴	-11.7638
▁مسلحانه	-11.7639
▁نادان	-11.7642
کستر	-11.7644
▁جم	-11.7646
▁غارت	-11.7653
▁۳۷	-11.7667
یقه	-11.7669
▁دریاها	-11.7677
تریوم	-11.7677
70	-11.768
▁مازاد	-11.768
▁عنا	-11.7686
▁67	-11.7695
▁فراغ	-11.7711
▁ریزد	-11.773
▁مارکت	-11.7733
▁اقلیم	-11.7742
صلی	-11.7754
ny	-11.7756
ئون	-11.7757
old	-11.7758
▁دروغین	-11.776
▁کشیدم	-11.7778
▁الکتری	-11.778
اسرائيل	-11.778
▁Service	-11.778
▁ابریشم	-11.778
▁اپوزیسیون	-11.778
▁بفرمایید	-11.778
▁رسوایی	-11.778
▁مضطر	-11.778
▁بپردازیم	-11.778
▁رمضان	-11.778
▁موظف	-11.778
▁معشوق	-11.778
▁هيچ	-11.778
▁پیشگویی	-11.778
▁پریود	-11.7781
▁مروار	-11.7782
▁مگه	-11.7783
▁کلیدها	-11.7785
▁اکبر	-11.7787
▁قبرس	-11.7788
▁كنیم	-11.779
▁الکترود	-11.7793
▁مدینه	-11.7793
▁Call	-11.7797
▁تکنسی	-11.78
▁انتفاع	-11.7807
▁LG	-11.781
ja	-11.7812
US	-11.7814
بلاغ	-11.7825
▁جوک	-11.7828
▁اعما	-11.7832
۱۳	-11.7845
▁الس	-11.7848
▁رخداد	-11.7851
لوژی	-11.7864
▁معنادار	-11.7865
▁زاد	-11.7865
▁بیض	-11.7866
▁نرسید	-11.7866
▁شهود	-11.7869
?	-11.7878
▁نگهدار	-11.788
▁شیل	-11.7886
خوش	-11.7892
▁پالس	-11.7893
غیر	-11.7914
▁آلیس	-11.7918
▁نیمک	-11.7921
/1	-11.7921
▁1995	-11.7936
▁استثمار	-11.7936
▁المسلمین	-11.7936
▁انقباض	-11.7936
▁ساندویچ	-11.7936
▁بخرند	-11.7936
▁لوئیس	-11.7936
▁فرمایند	-11.7936
▁مکعب	-11.7936
▁حکمرانی	-11.7936
▁جابز	-11.7937
▁خادم	-11.7937
▁فرانسیسکو	-11.7937
کمبریج	-11.7937
▁Master	-11.7937
▁حراج	-11.7937
▁نگریست	-11.7938
▁سمبل	-11.794
▁Good	-11.794
▁پرینتر	-11.7942
▁مذا	-11.7942
▁محرومیت	-11.7952
▁DS	-11.7959
MP	-11.7961
آیی	-11.7967
ّل	-11.7967
▁نکردیم	-11.7968
▁بندگی	-11.797
▁پاول	-11.7972
▁ویدئوهای	-11.7975
▁دریغ	-11.7996
▁جواد	-11.7997
▁53	-11.7999
▁آلود	-11.8037
افزون	-11.8039
▁مانور	-11.8046
سوختگی	-11.8055
▁آسیاب	-11.8058
کتوم	-11.8066
▁AD	-11.8074
▁قن	-11.8074
▁تعبی	-11.8075
▁Des	-11.8083
ask	-11.8088
OT	-11.8089
وسکوپ	-11.8089
cript	-11.8095
▁1986	-11.8095
▁Science	-11.8095
▁WordPress	-11.8095
▁تنباکو	-11.8095
▁سرمربی	-11.8095
▁مرتفع	-11.8095
▁مستحکم	-11.8095
▁ائمه	-11.8095
▁بخرم	-11.8095
▁روایات	-11.8095
▁برگردند	-11.8095
▁Photo	-11.8095
▁وسواس	-11.8095
▁محمود	-11.8096
▁فاشیست	-11.8096
اقبت	-11.8098
▁بولیو	-11.81
▁DNS	-11.81
▁Book	-11.8103
▁بخوابید	-11.8103
▁پارامترهای	-11.8104
▁ترانس	-11.8107
▁ري	-11.8109
▁علف	-11.8114
▁Inc	-11.8122
ارچوب	-11.8128
▁٤	-11.8131
BT	-11.8142
▁Mc	-11.8143
وعد	-11.8168
▁کِ	-11.817
▁موافقم	-11.8174
LL	-11.8176
▁پلاس	-11.8185
عده	-11.8195
“	-11.8198
۱۵	-11.8203
rin	-11.8206
▁عرف	-11.822
۴۰	-11.8224
▁ترمینا	-11.8225
▁ME	-11.8229
لِ	-11.8237
▁Pan	-11.8247
فشاری	-11.825
▁HTTP	-11.8255
▁پراکن	-11.8256
▁Tech	-11.8256
▁iPhone	-11.8256
▁امپریالیسم	-11.8256
▁بشنوند	-11.8256
▁دامپزشک	-11.8256
▁ناآرام	-11.8256
▁نگذاشت	-11.8256
▁ویرجینیا	-11.8256
▁\"	-11.8256
▁نابغه	-11.8256
▁بازگردند	-11.8256
▁احسان	-11.8256
▁فینال	-11.8256
▁نیوزلند	-11.8257
▁مجانی	-11.8257
نگتون	-11.8257
▁آمیخت	-11.8259
▁عدل	-11.8264
▁آوارگ	-11.8264
form	-11.8265
▁نوپا	-11.8267
▁پیشگیرانه	-11.8268
▁منجم	-11.8268
uck	-11.827
زینو	-11.8272
▁‬	-11.8274
▁76	-11.8279
▁گریخت	-11.8283
▁مجید	-11.8286
▁cl	-11.83
itch	-11.8301
▁Tri	-11.8308
▁62	-11.8308
kin	-11.8316
▁رسانید	-11.8316
▁Tru	-11.8325
▁پیامک	-11.8325
▁قمر	-11.8332
وکار	-11.8339
علی	-11.834
▁نخواست	-11.834
cent	-11.8346
ham	-11.8348
▁مستر	-11.8349
▁بوم	-11.835
▁CR	-11.8355
عاب	-11.8373
▁افتادند	-11.8374
تاهل	-11.8377
▁عقد	-11.8382
▁رقبا	-11.8391
▁بلک	-11.8392
▁چارل	-11.8392
▁انحصار	-11.8393
GA	-11.8393
▁Ab	-11.8397
▁93	-11.8399
سپار	-11.84
الوگ	-11.84
▁فرزندانم	-11.8406
خوان	-11.8408
▁تظاهر	-11.8409
دروید	-11.8417
▁عادل	-11.8418
▁Studio	-11.842
▁PDF	-11.842
▁دلسوز	-11.842
▁فرمایید	-11.842
▁قاهره	-11.842
▁خندد	-11.842
▁فرسود	-11.8421
▁پوسید	-11.8421
▁کامرون	-11.8421
▁احوال	-11.8422
▁۱۹۳۰	-11.8422
▁مساجد	-11.8423
▁۴٫	-11.8423
▁Key	-11.8424
▁باطن	-11.8426
بنفش	-11.8428
▁لادن	-11.843
▁بپرسند	-11.843
▁سارق	-11.8431
▁هیو	-11.8432
▁ویلیامز	-11.8432
▁توفان	-11.8432
▁فاکتورهای	-11.8434
▁۱۳۹	-11.8435
▁ضری	-11.8437
▁تبر	-11.8437
cho	-11.8442
تکوین	-11.8446
sca	-11.8449
▁پوچ	-11.8451
▁Tur	-11.8455
۴۳	-11.8458
▁سالخورد	-11.8458
▁منحصرب	-11.8461
سطو	-11.8462
قیف	-11.8469
▁گردیم	-11.8474
▁ممنونم	-11.8475
▁آرترو	-11.8476
▁170	-11.8477
▁Up	-11.8484
PO	-11.8491
خیلی	-11.8494
سوزاندن	-11.8498
▁61	-11.8503
ita	-11.8504
▁وزرا	-11.8506
▁اقا	-11.8509
۴۶	-11.851
rid	-11.8518
غلات	-11.8529
EL	-11.8533
حلال	-11.8534
کلاسی	-11.8536
دورو	-11.8537
▁ارض	-11.8539
▁جعل	-11.8562
▁استیون	-11.8563
HS	-11.8572
▁سياس	-11.8576
▁بلومبرگ	-11.8587
▁پرخاشگر	-11.8587
▁پرطرفدار	-11.8587
▁آتشفشان	-11.8587
▁ممتاز	-11.8587
▁مرکب	-11.8587
▁سرنخ	-11.8587
▁میخوام	-11.8587
▁ناصر	-11.8587
▁۱۹۹۸	-11.8588
▁فریز	-11.8588
▁كامل	-11.8589
▁Par	-11.8589
▁عطف	-11.859
▁۲۰۰۲	-11.8591
یوحن	-11.8591
▁برنز	-11.8591
▁سزار	-11.8591
▁یتیم	-11.8593
▁بشمار	-11.8594
▁Love	-11.8608
زبور	-11.8615
وحشیانه	-11.8622
gin	-11.8632
▁توکل	-11.8636
host	-11.8636
DS	-11.8639
▁دایم	-11.864
▁چشمانش	-11.8652
OP	-11.8663
نوئل	-11.8664
▁Shi	-11.867
▁فج	-11.8681
▁لاو	-11.8686
▁متفکر	-11.8688
فورم	-11.87
ً	-11.8706
فکر	-11.8718
شیما	-11.8725
Sh	-11.8742
▁ژاک	-11.8748
▁92	-11.8752
▁آزاردهنده	-11.8756
▁اسکیزوفرن	-11.8756
▁بپیوندید	-11.8756
▁نامطلوب	-11.8756
▁Chrome	-11.8756
▁معبود	-11.8756
▁SSL	-11.8756
▁بفروشد	-11.8756
Mobile	-11.8756
ccess	-11.8757
▁علما	-11.8758
واصل	-11.8758
▁سخاوتمند	-11.8758
▁بشوند	-11.8758
▁File	-11.8759
▁اغرا	-11.876
▁Read	-11.8762
▁يافت	-11.8763
▁مارکو	-11.8765
▁لبنی	-11.8766
avi	-11.8767
▁نارسا	-11.8768
▁Fall	-11.8769
▁لغا	-11.8771
▁نیاید	-11.8771
▁میکنه	-11.8771
▁۳۳	-11.8775
▁کافران	-11.878
vers	-11.8805
sch	-11.881
▁نقاش	-11.8819
▁زدیم	-11.8823
▁تجرب	-11.8838
بخیر	-11.8838
▁آجر	-11.8847
arch	-11.8857
▁موند	-11.8866
فیفا	-11.8869
;	-11.8871
۱۷	-11.8884
خبر	-11.8884
هرتز	-11.8892
۶۹	-11.89
▁قربان	-11.8912
▁مخلوق	-11.8917
گشا	-11.892
▁برگزید	-11.892
▁قور	-11.8924
غال	-11.8926
آشپز	-11.8928
▁ارتجاع	-11.8929
▁منسجم	-11.8929
▁ناعادلانه	-11.8929
▁خودمختار	-11.8929
▁مقبره	-11.8929
▁توحید	-11.8929
▁اساتید	-11.8929
▁School	-11.8929
▁سرگردان	-11.8929
▁لغز	-11.8929
▁گیگابایت	-11.8929
▁توانبخشی	-11.8929
▁صبحگاهی	-11.8929
▁Java	-11.893
▁متشکرم	-11.893
▁اصالت	-11.893
▁شایان	-11.8931
اراضی	-11.8931
▁نصر	-11.8931
▁ذرت	-11.8932
آرتریت	-11.8932
▁2030	-11.8933
▁وارث	-11.8934
▁گناهکار	-11.8936
▁مساعد	-11.8938
▁کج	-11.8941
▁مونو	-11.8949
▁اراد	-11.8951
▁4000	-11.8953
▁خردسال	-11.8961
▁مرجان	-11.8963
▁ضمی	-11.8964
آزمای	-11.8966
کاست	-11.8968
▁74	-11.8969
▁شرع	-11.8969
▁۵۰۰۰	-11.8972
کوور	-11.8975
▁تیتر	-11.8979
here	-11.8997
▁کشتند	-11.902
کراس	-11.9023
شتاین	-11.9038
▁۳۰۰۰	-11.9038
▁تونست	-11.905
ms	-11.9057
▁Inf	-11.9057
۳۰	-11.9069
یوان	-11.909
▁مولا	-11.9099
igital	-11.9104
▁1979	-11.9104
▁Work	-11.9104
▁بپذیرند	-11.9104
▁مدفوع	-11.9104
▁مظلوم	-11.9104
▁High	-11.9104
▁توفیق	-11.9104
▁مصداق	-11.9104
▁پهپاد	-11.9104
▁طناب	-11.9104
▁بشویید	-11.9104
▁آرتور	-11.9104
▁سردبیر	-11.9104
ile	-11.9104
▁بسوزان	-11.9104
▁نکشید	-11.9104
▁ترانزی	-11.9105
▁دلپذیر	-11.9105
▁پلیمر	-11.9107
جماع	-11.9113
▁مخلوقات	-11.9116
بولتون	-11.9117
▁الْ	-11.9119
▁حرمت	-11.9124
▁اسکر	-11.9124
▁سوزش	-11.9128
▁ویرانگر	-11.9128
▁تشی	-11.913
▁نمایشنامه	-11.9135
ino	-11.9138
▁82	-11.9158
▁مستندات	-11.9169
▁گردانند	-11.9174
▁کاهن	-11.9177
▁وکارها	-11.9186
▁سلف	-11.9196
VI	-11.9197
ated	-11.9199
▁دوستدار	-11.9202
۶۰	-11.9207
▁God	-11.9215
▁ثانی	-11.9218
▁گوئی	-11.9236
▁همجنس	-11.9246
▁ماریا	-11.9254
▁۱۲۰	-11.9257
▁فضانورد	-11.9263
بدون	-11.9267
▁ظالمان	-11.9269
▁زنبورها	-11.9281
▁احضار	-11.9283
▁تدبیر	-11.9283
▁دوپامین	-11.9283
▁لیورپول	-11.9283
▁ناپایدار	-11.9283
▁Sky	-11.9283
▁جوزف	-11.9283
▁کربلا	-11.9283
▁ناگوار	-11.9283
▁هولناک	-11.9283
▁اهرم	-11.9283
▁استعمال	-11.9283
تمسخر	-11.9283
▁رفقا	-11.9283
▁مدیون	-11.9284
▁آرسن	-11.9286
▁سیدنی	-11.9287
▁Hua	-11.9288
▁چکیده	-11.9291
▁EB	-11.9293
▁تیغ	-11.9293
▁عرفان	-11.9305
▁بیایم	-11.9308
▁Sim	-11.931
▁89	-11.9312
▁دستشویی	-11.9312
▁گویش	-11.9313
▁مولد	-11.9314
▁HP	-11.9323
▁مولف	-11.9337
بلیت	-11.934
omb	-11.9358
eter	-11.9361
۴۱	-11.9361
▁گراها	-11.9373
▁سست	-11.9377
ott	-11.9379
▁خندیدن	-11.9391
▁مسوول	-11.9391
کالیف	-11.9393
▁you	-11.9394
GR	-11.9398
مثلا	-11.9419
▁الکترو	-11.9432
▁84	-11.9437
▁نظار	-11.9451
▁عباد	-11.9454
▁1988	-11.9465
▁Project	-11.9465
▁آریزونا	-11.9465
▁تصاحب	-11.9465
▁سکولار	-11.9465
▁نفهمید	-11.9465
▁هیپنوتیزم	-11.9465
▁خراسان	-11.9465
▁کاذب	-11.9465
▁بگردید	-11.9465
▁بغل	-11.9465
▁Design	-11.9465
▁کبیر	-11.9465
▁اعتنا	-11.9465
▁اسلاید	-11.9465
▁Glob	-11.9465
▁صدمات	-11.9465
▁هیأت	-11.9465
▁زادگاه	-11.9467
▁ویلسون	-11.9467
▁Gold	-11.9468
▁پاشید	-11.947
▁Max	-11.947
▁Out	-11.9472
▁West	-11.9474
▁الکسا	-11.9479
▁یادگار	-11.9486
▁نگذار	-11.9487
▁بخورم	-11.9489
▁ویدیوهای	-11.9502
▁فرزندانتان	-11.9506
▁قومیت	-11.9521
▁مثلث	-11.9523
عابد	-11.9527
▁هوس	-11.9528
▁اسکان	-11.953
tz	-11.9534
▁پستاندار	-11.9535
پولو	-11.9562
▁نرد	-11.958
▁سِ	-11.9586
▁ماکرو	-11.9595
American	-11.9598
▁تدارک	-11.9638
نترل	-11.9645
▁1500	-11.9649
▁Univers	-11.965
▁Control	-11.965
▁غواص	-11.965
▁معالجه	-11.965
▁چلسی	-11.965
▁کامبوج	-11.965
▁بشناسند	-11.965
▁بفروشید	-11.965
▁مشروب	-11.965
▁بشنود	-11.965
▁بخرد	-11.965
▁اشراف	-11.965
▁تلفیق	-11.965
▁شكل	-11.965
▁Don	-11.965
▁State	-11.9652
▁وصیت	-11.9652
كنون	-11.9653
بیگانگان	-11.9653
arm	-11.9654
▁1930	-11.9655
▁خلیف	-11.9658
▁City	-11.9661
▁عجب	-11.9662
▁زهر	-11.9666
▁ترساند	-11.9668
▁حیط	-11.9668
▁بفرستد	-11.9673
▁رُ	-11.9675
▁گاوها	-11.9677
▁دالر	-11.9682
بسط	-11.9683
▁میهمان	-11.9684
▁گردو	-11.9685
۷۷	-11.9691
ute	-11.9724
▁۴۲	-11.9751
▁دانیل	-11.9755
▁كو	-11.9763
سالم	-11.9772
۱۶	-11.9785
زرسان	-11.979
ناپذیر	-11.9809
یونسکو	-11.9816
ساوی	-11.982
▁دوازدهم	-11.9832
▁آشام	-11.9838
▁قائ	-11.9838
▁الکترومغناطیس	-11.9839
▁بپوشید	-11.9839
▁دخانیات	-11.9839
▁دلقک	-11.9839
▁افریقا	-11.9839
▁شنویم	-11.9839
▁بامزه	-11.9839
▁مفاد	-11.9839
▁تجدیدپذیر	-11.9839
▁نشریات	-11.9839
▁Media	-11.9839
طالع	-11.9839
▁دادرسی	-11.984
▁گنجینه	-11.9841
▁خراش	-11.9841
▁3.5	-11.9841
▁لیپو	-11.9841
▁آسود	-11.9842
▁1920	-11.9843
▁قهر	-11.9844
▁لگن	-11.9845
▁پیمود	-11.9849
▁تباه	-11.9854
▁خرسند	-11.9854
▁شفق	-11.9858
▁آتن	-11.9862
کائین	-11.9863
▁ایدئولوژیک	-11.9865
PL	-11.9874
▁رویاها	-11.9892
▁بدبین	-11.9896
تفرقه	-11.9898
evel	-11.99
▁پراگ	-11.9903
▁فرزندشان	-11.9907
ient	-11.9909
فاشیسم	-11.9917
▁کارآمدتر	-11.9917
مهیا	-11.9926
▁چتر	-11.9928
▁کلاژ	-11.9933
▁دستمزدها	-11.9935
▁Sun	-11.9949
۱۴	-11.995
▁سانتا	-11.9951
▁USD	-11.9952
▁۷۰۰	-11.9956
▁Chi	-11.9956
دگي	-11.9968
light	-11.9971
▁UC	-11.9972
حساب	-11.9973
▁نماند	-11.9989
▁فرآورد	-11.9997
ade	-12.0001
▁محرم	-12.003
▁Office	-12.0031
▁Security	-12.0031
▁YouTube	-12.0031
▁استغفار	-12.0031
▁تاجیکستان	-12.0031
▁مگاوات	-12.0031
▁نافرمان	-12.0031
▁شامپو	-12.0031
▁بنشیند	-12.0031
▁فامیل	-12.0031
▁تسنیم	-12.0031
مشغله	-12.0031
▁واکسیناسیون	-12.0031
اسحاق	-12.0031
▁کشمکش	-12.0031
▁Drive	-12.0032
▁آسپر	-12.0032
▁محسن	-12.0032
▁اعضاء	-12.0033
▁طفل	-12.0033
▁پریشان	-12.0034
▁کامنت	-12.0035
▁ویرایشگر	-12.0036
▁تموم	-12.0039
▁خصو	-12.0039
▁پاکیز	-12.0042
▁شیراز	-12.0044
کتاپ	-12.0046
▁187	-12.0048
▁غلام	-12.005
▁چمن	-12.0051
ارنگ	-12.0051
▁King	-12.0053
▁اقامتگاه	-12.0057
▁ديد	-12.0059
▁دهلی	-12.0061
کتوب	-12.0061
▁ریال	-12.0068
جرقه	-12.0069
خود	-12.007
EPA	-12.0075
تیپ	-12.0091
▁داگ	-12.011
▁نمادها	-12.0127
▁جنت	-12.0134
برابر	-12.0168
آمیز	-12.0169
برهنه	-12.0174
van	-12.0179
عادی	-12.0187
▁زوم	-12.0193
lix	-12.0195
▁آشکارساز	-12.0202
LI	-12.0208
▁گردشگر	-12.022
▁ذل	-12.0223
▁منصف	-12.0226
زلزل	-12.0227
▁1975	-12.0227
▁White	-12.0227
▁XML	-12.0227
▁فضیلت	-12.0227
▁ماساچوست	-12.0227
▁پابرجا	-12.0227
▁هشیار	-12.0227
▁آیپد	-12.0227
▁انصار	-12.0227
▁پیشتاز	-12.0227
▁اشاع	-12.0227
شاءالله	-12.0227
▁نمائید	-12.0228
▁پاسداران	-12.0228
LDL	-12.0228
▁شراکت	-12.0229
▁معذ	-12.0233
▁سپاری	-12.0233
▁بتمن	-12.0233
▁اونجا	-12.0234
▁ضمیر	-12.0236
▁اسنو	-12.0243
▁متراکم	-12.0249
▁جیو	-12.0251
▁بپرسم	-12.0257
▁پاشن	-12.0259
▁نکردید	-12.026
▁لوح	-12.0262
▁رئ	-12.027
▁Park	-12.0287
hot	-12.0291
ture	-12.0302
▁متفکران	-12.0308
خواه	-12.0333
▁130	-12.0333
خام	-12.0336
▁Lab	-12.0342
نظم	-12.0355
۲۵	-12.0361
نواخت	-12.0369
حداقل	-12.0369
▁تورها	-12.0373
توالی	-12.0378
تنفر	-12.0383
قرار	-12.0403
▁350	-12.0406
▁خسار	-12.0414
▁افزا	-12.0414
▁بگویی	-12.0417
▁فرانسیس	-12.0426
▁مطب	-12.0427
▁تشعشع	-12.0427
▁1984	-12.0427
▁Battle	-12.0427
▁بپیوندد	-12.0427
▁مصلح	-12.0427
▁نپذیرفت	-12.0427
▁پنسیلوانیا	-12.0427
▁بازمانده	-12.0427
▁بیچار	-12.0427
▁جسور	-12.0427
▁کبود	-12.0427
▁میگویند	-12.0427
▁توليد	-12.0427
▁میلیمتر	-12.0427
▁غذاخوری	-12.0427
خشکسالی	-12.0427
▁نشیمن	-12.0427
▁برنارد	-12.0427
▁Journ	-12.0427
▁ویزیت	-12.0427
▁Space	-12.0428
▁بیابند	-12.0428
▁عمار	-12.0429
▁1.4	-12.0429
▁Code	-12.0429
▁وخیم	-12.043
▁گرامر	-12.0431
▁جاهل	-12.0431
▁مرمر	-12.0431
▁رسال	-12.0432
▁1949	-12.0432
▁وینس	-12.0432
▁جوراب	-12.0436
▁بعض	-12.0437
▁۳۹	-12.044
▁اقبال	-12.044
▁ماورا	-12.0441
▁ریگان	-12.0443
▁گلدان	-12.0445
tain	-12.0453
▁لوط	-12.0458
read	-12.0466
wei	-12.0476
۲۴	-12.0482
▁لینگ	-12.0482
sha	-12.0493
ICO	-12.0515
۹۸	-12.0523
سَ	-12.0559
شامل	-12.0575
▁برگزی	-12.0578
▁لارن	-12.0581
کادو	-12.0588
lli	-12.0612
▁سونا	-12.0613
توانم	-12.0623
▁Amazon	-12.0631
▁Health	-12.0631
▁iPad	-12.0631
▁بصیرت	-12.0631
▁بوتاکس	-12.0631
▁تحریر	-12.0631
▁سریلانکا	-12.0631
▁مفقود	-12.0631
▁۱۹۹۲	-12.0631
▁دبستان	-12.0631
▁درخشش	-12.0631
▁بفروشند	-12.0631
▁گنبد	-12.0631
vision	-12.0631
▁ملوان	-12.0631
اااا	-12.0632
▁خندان	-12.0632
▁ایجاب	-12.0632
▁پسورد	-12.0632
▁ناسیونالیس	-12.0632
▁پائول	-12.0633
▁بیندیش	-12.0633
دایرکتوری	-12.0634
پلاستی	-12.0635
▁سیارک	-12.0636
▁قبرستان	-12.0637
▁پررنگ	-12.0638
▁Way	-12.0643
▁هجدهم	-12.0645
▁آيا	-12.0654
▁سندرز	-12.0662
▁87	-12.0666
▁۷۲	-12.0675
PI	-12.0677
▁چرت	-12.0684
▁بازدیدکنند	-12.0707
▁ارضا	-12.0713
RNA	-12.0714
فسکی	-12.0718
▁دژ	-12.0732
zo	-12.0738
met	-12.0741
اسکناس	-12.0755
▁کوشید	-12.0761
▁معجز	-12.0769
#	-12.0781
تولید	-12.0782
▁ورشکست	-12.0802
▁Part	-12.0806
ازیر	-12.0815
▁لئو	-12.0822
▁مطبوع	-12.0828
تنها	-12.0829
ابولیک	-12.0838
ittle	-12.0839
×	-12.0839
▁Edition	-12.0839
▁Street	-12.0839
▁ابرقهرمان	-12.0839
▁تروتسکی	-12.0839
▁رقیق	-12.0839
▁مضاعف	-12.0839
▁بخریم	-12.0839
▁مشكل	-12.0839
▁سانتیمتر	-12.0839
▁مارشال	-12.0839
▁پیمایش	-12.0839
▁دلسرد	-12.0839
▁هواشناسی	-12.0839
▁کارآگاه	-12.0839
▁حصار	-12.0839
▁کریستین	-12.0839
▁آئین	-12.0839
▁اسرارآمیز	-12.084
▁مغل	-12.084
▁نوشند	-12.084
▁بیروت	-12.084
▁مستثن	-12.084
▁حیث	-12.084
اکتیو	-12.084
▁Port	-12.0841
▁حوالی	-12.0841
▁HTTPS	-12.0841
▁زمين	-12.0841
▁قضائی	-12.0842
▁شرافت	-12.0842
other	-12.0842
▁۶٫	-12.0843
▁شتم	-12.0843
nel	-12.0844
▁Dark	-12.0844
▁بوسنی	-12.0844
load	-12.0846
▁365	-12.0846
▁دونم	-12.0846
▁استریت	-12.085
أَ	-12.0852
▁News	-12.0855
▁شاتر	-12.086
AV	-12.086
▁line	-12.0873
▁بیشمار	-12.0874
▁دسر	-12.0882
▁سپر	-12.0901
ابلیس	-12.0935
▁میکروف	-12.0938
مشتاقانه	-12.0953
نیاز	-12.0953
▁یونس	-12.0969
ارانتی	-12.097
▁هنجارها	-12.0978
oom	-12.0987
باح	-12.0991
▁سناریوها	-12.0992
ذوق	-12.1004
توث	-12.1019
▁احترا	-12.1047
▁Real	-12.1052
ü	-12.1052
▁Manager	-12.1052
▁آمبولانس	-12.1052
▁اقتباس	-12.1052
▁تشریف	-12.1052
▁زاکربرگ	-12.1052
▁زیربنای	-12.1052
▁سورپرایز	-12.1052
▁مغایر	-12.1052
▁مفتخر	-12.1052
▁ناپلئون	-12.1052
▁بیندازد	-12.1052
▁نخورید	-12.1052
▁CPU	-12.1052
▁نخاع	-12.1052
▁چگال	-12.1052
▁رحیم	-12.1052
▁برسانیم	-12.1052
▁House	-12.1052
▁بیهوش	-12.1053
▁منصور	-12.1053
▁گلوتن	-12.1053
▁1.8	-12.1054
▁روتین	-12.1054
▁With	-12.1055
▁مرکل	-12.1056
▁متفق	-12.1057
▁مشکی	-12.1058
▁شنوم	-12.1061
▁جمال	-12.1061
logy	-12.1062
▁Page	-12.1068
▁خرداد	-12.1072
LT	-12.1073
اپیش	-12.1075
▁کنيد	-12.1078
▁off	-12.108
▁سونوگراف	-12.1082
▁رابین	-12.1085
▁١٠	-12.1095
AID	-12.1122
ava	-12.113
▁How	-12.113
ISP	-12.1159
▁آهنگساز	-12.1173
پارت	-12.1193
▁450	-12.1199
راگم	-12.1205
بیوتیک	-12.1211
▁روشنفکر	-12.1215
گذار	-12.1222
٠٠	-12.1227
شعار	-12.1234
سوخ	-12.125
▁1.0	-12.1267
تصاب	-12.1269
▁کریپتو	-12.1269
▁1987	-12.1269
▁Analytic	-12.1269
▁College	-12.1269
▁Machine	-12.1269
▁بپیوندند	-12.1269
▁متجاوز	-12.1269
▁ناکافی	-12.1269
▁٢٠١	-12.1269
▁۱۹۴۵	-12.1269
▁DVD	-12.1269
▁Direct	-12.1269
▁ذینفع	-12.1269
ccount	-12.1269
اپیزود	-12.1269
▁Center	-12.1269
▁نگیرد	-12.1269
▁ویراستار	-12.1269
▁بشوید	-12.127
▁[5]	-12.127
▁بذار	-12.127
▁بشویم	-12.127
▁نياز	-12.127
▁Image	-12.127
▁مُرد	-12.127
▁سومالی	-12.1272
▁ابوظ	-12.1272
▁هنگفت	-12.1272
▁آلبانی	-12.1274
▁1945	-12.1278
▁Fire	-12.1279
▁بازوها	-12.1279
▁مورگان	-12.1281
▁۶۶	-12.1282
۲۲	-12.1282
▁بردبار	-12.1282
▁فعلاً	-12.1285
▁Core	-12.1294
اثر	-12.1299
▁فسیل	-12.1302
▁لئون	-12.1306
AMP	-12.1306
ular	-12.1335
۲۳	-12.1352
▁باهاش	-12.1358
▁End	-12.1359
گفته	-12.1387
▁هوادار	-12.1389
▁1200	-12.1407
▁نوازندگ	-12.1407
▁dis	-12.1411
۵۲	-12.1411
شماری	-12.1412
NP	-12.1418
دانیم	-12.1431
▁مرورگرها	-12.1432
زیستی	-12.1436
▁Bio	-12.1439
عقد	-12.1442
جمعیت	-12.1449
لکان	-12.1456
دوکس	-12.1458
▁110	-12.1472
▁بدنساز	-12.1482
۵۸	-12.1484
▁عبد	-12.1489
▁Express	-12.1492
▁Rich	-12.1492
▁Technolog	-12.1492
▁آمستردام	-12.1492
▁الوقوع	-12.1492
▁بمیرد	-12.1492
▁بیندازیم	-12.1492
▁پنگوئن	-12.1492
▁کاکائو	-12.1492
▁یونیسف	-12.1492
▁۱۹۹۴	-12.1492
▁Store	-12.1492
▁افسوس	-12.1492
▁لفظ	-12.1492
▁مضحک	-12.1492
▁کورتیزو	-12.1492
▁ببخشند	-12.1492
▁پرهزین	-12.1492
▁متوسل	-12.1492
▁فاحش	-12.1492
▁پنداشت	-12.1493
▁گاراژ	-12.1493
▁خصم	-12.1493
▁۱۹۶۸	-12.1493
▁نشاط	-12.1494
▁Paul	-12.1494
▁کاوشگر	-12.1494
▁پدیا	-12.1496
ونایت	-12.1499
تکبر	-12.15
▁کاروان	-12.15
▁Games	-12.1502
پوینت	-12.1504
سانحه	-12.1508
قرعه	-12.1516
امبورگ	-12.1521
▁دیتا	-12.1527
▁شوخ	-12.1528
ورشکستگی	-12.1531
ocal	-12.1534
حص	-12.1536
Search	-12.1556
▁كشورها	-12.1565
▁اهم	-12.1575
پورت	-12.1606
▁اسکور	-12.1611
▁Not	-12.1614
right	-12.1637
▁خانواد	-12.1646
صرف	-12.1648
نیامین	-12.1651
شدت	-12.1664
فونت	-12.1665
حکیم	-12.1676
بقی	-12.1684
▁میکنن	-12.1707
▁1973	-12.1719
▁1978	-12.1719
▁eBay	-12.1719
▁انیشتین	-12.1719
▁هوانورد	-12.1719
▁حوض	-12.1719
▁بشناسد	-12.1719
▁گسست	-12.1719
نتاریو	-12.1719
▁آناتومی	-12.1719
▁رزولو	-12.1719
▁انگور	-12.1719
▁عتیق	-12.1719
▁بیابد	-12.1719
ough	-12.1719
▁لطیف	-12.172
▁فرانکلین	-12.172
▁قاسم	-12.172
obert	-12.172
▁شلاق	-12.172
▁محصو	-12.1721
▁پورشه	-12.1721
▁مستحق	-12.1721
▁مشرک	-12.1721
▁Watch	-12.1721
▁انقضا	-12.1723
▁نویسندگی	-12.1724
▁شریان	-12.1724
▁پلوتو	-12.1725
▁۸۸	-12.1726
▁قالی	-12.1727
▁کلارک	-12.1728
▁UX	-12.1729
▁Tag	-12.1734
▁تندرو	-12.1735
▁بکارگیری	-12.1736
▁غارها	-12.1737
ouch	-12.1743
▁Mich	-12.175
▁May	-12.1758
مانع	-12.1759
▁مجوزها	-12.1769
▁مسیریاب	-12.1774
▁اشغالگر	-12.1776
▁سپید	-12.182
ثناء	-12.1876
ift	-12.1885
وصل	-12.1906
lash	-12.1925
TU	-12.194
▁Class	-12.1952
pplication	-12.1952
®	-12.1952
▁1968	-12.1952
▁Evil	-12.1952
▁Type	-12.1952
▁آنارشیست	-12.1952
▁ارتودنسی	-12.1952
▁انعقاد	-12.1952
▁سیاهپوست	-12.1952
▁حماقت	-12.1952
▁پسربچه	-12.1952
▁نیکوتین	-12.1952
Adobe	-12.1952
▁تیلور	-12.1952
▁لوبیا	-12.1952
▁آلیاژ	-12.1952
▁مددکار	-12.1952
▁انزال	-12.1952
▁Sony	-12.1952
▁دنيا	-12.1952
1983	-12.1952
▁جاناتان	-12.1952
▁محفظ	-12.1952
▁مکاتب	-12.1953
▁چروک	-12.1954
▁جديد	-12.1954
▁Just	-12.1954
▁اجاق	-12.1955
▁گرانبها	-12.1957
▁فرمایش	-12.1957
▁۵٫	-12.1957
▁Bank	-12.1957
▁باقر	-12.1961
کوپن	-12.1961
▁بپرسیم	-12.1961
▁زير	-12.1962
▁۴۹	-12.1965
ule	-12.1967
خواستم	-12.2009
▁غیا	-12.2033
رسمی	-12.2039
طمع	-12.2043
▁خوشبین	-12.2045
۶۸	-12.2048
▁Note	-12.2051
▁Log	-12.2088
کیج	-12.2102
نمای	-12.2116
▁پوشا	-12.2123
ویرایش	-12.2132
قرض	-12.2132
همچنین	-12.2132
بایست	-12.2142
زدگی	-12.2148
باغ	-12.2149
▁مارچ	-12.2151
▁Unit	-12.2155
عاهد	-12.2175
ason	-12.2176
پولیس	-12.2184
less	-12.2186
bject	-12.219
ە	-12.219
▁1971	-12.219
▁Research	-12.219
▁ازبکستان	-12.219
▁تغيير	-12.219
▁زحمات	-12.219
▁فیلادلفیا	-12.219
▁معیشت	-12.219
▁view	-12.219
▁خالکوبی	-12.219
▁رأس	-12.219
▁بنشینند	-12.219
▁مفسر	-12.219
▁گودال	-12.219
▁میشیگان	-12.219
▁کریستوف	-12.219
▁Tele	-12.219
▁User	-12.219
▁وکالت	-12.219
▁سرهنگ	-12.2191
اتیوپی	-12.2191
▁اوهایو	-12.2191
▁(5)	-12.2191
▁React	-12.2192
EV	-12.2192
▁پتاس	-12.2193
▁هامبورگ	-12.2194
▁کرامت	-12.2194
▁مجرا	-12.2195
▁کوبید	-12.2196
▁وثیق	-12.2196
▁مبدا	-12.2197
▁کوپر	-12.2203
▁Will	-12.2233
▁شوراها	-12.2245
شنج	-12.227
میایی	-12.2274
wood	-12.2346
bil	-12.2355
رفتاری	-12.237
ado	-12.2374
آمریکا	-12.2376
▁Thr	-12.2387
زانس	-12.2432
عاره	-12.2433
▁نئولیبرال	-12.2434
field	-12.2434
⁯	-12.2434
▁Facebook	-12.2434
▁Online	-12.2434
▁Trump	-12.2434
▁Video	-12.2434
▁استنفورد	-12.2434
▁انستیتو	-12.2434
▁بیاندازد	-12.2434
▁تفصیل	-12.2434
▁شکسپیر	-12.2434
▁قفقاز	-12.2434
▁مقتضی	-12.2434
▁نیوجرسی	-12.2434
▁پترزبورگ	-12.2434
▁۱۹۹۹	-12.2434
▁اسفند	-12.2434
▁هموطن	-12.2434
▁کباب	-12.2434
▁تنزل	-12.2434
▁مطهر	-12.2434
▁نامشخص	-12.2434
▁بپرهیزید	-12.2435
▁گزاف	-12.2436
▁Night	-12.2438
▁فروتن	-12.2439
▁پاندا	-12.2439
▁شکیبا	-12.2439
▁ابله	-12.2442
▁فیض	-12.2445
▁Thin	-12.2452
مسیری	-12.2459
▁تجار	-12.2465
▁تیرانداز	-12.2489
▁Vol	-12.2495
رواج	-12.2503
غض	-12.2505
▁شهو	-12.253
Station	-12.2546
▁۷۸	-12.2557
▁مارکسیس	-12.2584
▁رخدادها	-12.2589
▁بچگ	-12.2604
قرآن	-12.2626
شبیه	-12.2628
نشیا	-12.2668
تعارف	-12.267
▁پرینت	-12.2679
▁بگنجان	-12.2684
°	-12.2684
▁Instagram	-12.2684
▁Music	-12.2684
▁آلاسکا	-12.2684
▁آپارتاید	-12.2684
▁بیاندازید	-12.2684
▁رؤسا	-12.2684
▁رضوی	-12.2684
▁قحط	-12.2684
▁لجستیک	-12.2684
▁نظافت	-12.2684
▁۱۹۹۱	-12.2684
▁1982	-12.2684
▁ization	-12.2684
▁آهستگ	-12.2684
▁خائن	-12.2684
▁هیبرید	-12.2684
▁معارف	-12.2684
جمجمه	-12.2684
▁ضلع	-12.2684
▁[4]	-12.2684
▁نابارور	-12.2684
▁php	-12.2684
▁تزیین	-12.2684
▁متأث	-12.2684
▁بيمار	-12.2684
▁حمید	-12.2684
▁دلتنگ	-12.2684
وارتز	-12.2684
▁تأمل	-12.2684
▁منهتن	-12.2685
▁دریابید	-12.2685
▁DSL	-12.2685
▁گاندی	-12.2686
▁كنيد	-12.2686
▁سفارتخانه	-12.2686
▁۷٫	-12.2686
▁5.5	-12.2687
▁دماغ	-12.2688
▁بسازم	-12.2688
▁آراء	-12.2692
jo	-12.2693
برگیرند	-12.2697
▁كوچ	-12.2701
اکولا	-12.2715
▁معرف	-12.2735
▁میرزا	-12.2744
افتاده	-12.2753
THE	-12.2754
غرامت	-12.2756
▁افشاگر	-12.2766
ربارا	-12.2811
ویوتا	-12.2838
پذیر	-12.284
تقابل	-12.284
▁قلو	-12.286
▁برنام	-12.2872
٤	-12.2882
غير	-12.2885
▁3.0	-12.2894
spi	-12.2912
▁0.0	-12.2928
ublic	-12.294
▁1981	-12.294
▁1985	-12.294
▁Down	-12.294
▁Institute	-12.294
▁York	-12.294
▁السّلام	-12.294
▁سانفرانسیس	-12.294
▁مقاربت	-12.294
▁ناشنوا	-12.294
▁واشینگتن	-12.294
▁دریانورد	-12.294
▁نزنید	-12.294
▁کارولینا	-12.294
خاصم	-12.294
▁فوبیا	-12.294
اعتدال	-12.294
▁نجیب	-12.294
▁زنجب	-12.294
style	-12.294
▁(15	-12.294
▁رجوی	-12.294
▁مگس	-12.294
sign	-12.2941
▁مهیج	-12.2941
▁زائر	-12.2941
▁سازوکار	-12.2942
▁قبض	-12.2942
▁NAS	-12.2943
▁بسنج	-12.2943
▁پاتریک	-12.2943
▁۱۹۸۱	-12.2944
▁کنکور	-12.2945
▁آفلا	-12.2947
گجت	-12.2948
▁۱۸۰	-12.2962
AND	-12.2966
تساب	-12.3048
پوشانی	-12.306
▁جوید	-12.3071
raw	-12.3105
سالان	-12.3136
٬	-12.3145
انگلیسی	-12.3145
بحث	-12.3146
لنتا	-12.317
▁متاسف	-12.3181
سقف	-12.32
▁First	-12.3203
▁Management	-12.3203
▁اربعین	-12.3203
▁اپیدمی	-12.3203
▁زمزمه	-12.3203
▁طاهر	-12.3203
▁اللّه	-12.3203
▁زندگى	-12.3203
▁مزایده	-12.3203
▁آخوند	-12.3203
▁رمزارز	-12.3203
▁نگاشت	-12.3203
▁حتّ	-12.3203
▁اینشتین	-12.3203
▁ملائک	-12.3203
▁تراکتور	-12.3203
▁نپال	-12.3203
▁Multi	-12.3203
▁نخواند	-12.3203
▁Speed	-12.3204
1974	-12.3204
▁قیاف	-12.3204
▁نوترون	-12.3204
▁شهامت	-12.3204
▁حمد	-12.3205
▁1.7	-12.3205
بیزینس	-12.3205
▁4.5	-12.3206
▁1.3	-12.3206
LLM	-12.3207
جمیع	-12.3213
▁ظالم	-12.3223
پینگ	-12.3246
awa	-12.3255
بحر	-12.3267
۶۵	-12.3267
uff	-12.3281
ndex	-12.3284
Grand	-12.3293
▁پرینس	-12.3296
ساوت	-12.3324
▁توسع	-12.3403
️	-12.3473
{	-12.3979
ٍ	-12.4037
♪	-12.4037
ö	-12.4331
«	-12.4835
ھ	-12.4947
′	-12.4947
›	-12.5269
@	-12.6617
ó	-12.6675
á	-12.7059
~	-12.7459
♫	-12.7459
â	-12.7459
😉	-12.8311
‪	-12.8765
£	-12.9242
ä	-12.9242
ç	-12.9742
‬	-13.0209
إ	-13.021
<	-13.021
^	-13.0268
‹	-13.0268
♦	-13.0268
🔹	-13.0268
ı	-13.0823
😀	-13.0823
$	-13.1354
–	-13.1354
§	-13.1412
−	-13.1412
✅	-13.1412
ٰ	-13.1412
`	-13.2037
à	-13.2037
♥	-13.2037
ş	-13.2703
⇐	-13.2703
ˈ	-13.2703
è	-13.3418
▫	-13.3418
🔸	-13.4187
α	-13.502
ñ	-13.502
É	-13.5929
√	-13.5929
•	-13.6871
ā	-13.6929
	-13.6929
	-13.6929
р	-13.804
ã	-13.804
́	-13.804
‘	-13.9232
±	-13.929
í	-13.929
и	-13.929
⁄	-13.929
★	-13.929
å	-13.929
—	-14.0661
ú	-14.0719
﴾	-14.0719
ٿ	-14.0719
Ç	-14.0719
←	-14.2327
‫	-14.2327
а	-14.2385
о	-14.2386
н	-14.2386
μ	-14.2386
ٴ	-14.2386
̊	-14.2386
е	-14.2386
⁭	-14.2386
☺	-14.2386
✓	-14.2386
ა	-14.4386
ğ	-14.4386
İ	-14.4386
ۆ	-14.4386
	-14.4386
Ø	-14.4386
Δ	-14.4386
Ω	-14.4386
ε	-14.4386
⁪	-14.4386
◊	-14.4386
♬	-14.4386
✤	-14.4386
✭	-14.4386
⦁	-14.4386
	-14.4386
	-14.4386
🔴	-14.4386
̈	-14.4386
ø	-14.4386
♯	-14.4386
д	-14.6886
ν	-14.6886
	-14.6886
Ö	-14.6886
ë	-14.6886
β	-14.6886
○	-14.6886
	-14.6886
😂	-14.6886
😐	-14.6886
🌸	-14.6886
▬	-14.6886
к	-15.0219
	-15.0219
	-15.0219
¤	-15.0219
Â	-15.0219
ï	-15.0219
ń	-15.0219
Ş	-15.0219
š	-15.0219
ɪ	-15.0219
̨	-15.0219
Т	-15.0219
ڪ	-15.0219
⁣	-15.0219
⁧	-15.0219
⁮	-15.0219
⃣	-15.0219
≠	-15.0219
≡	-15.0219
≤	-15.0219
➕	-15.0219
	-15.0219
	-15.0219
👏	-15.0219
👻	-15.0219
🔥	-15.0219
🔺	-15.0219
ò	-15.0219
κ	-15.0219
с	-15.0219
ვ	-15.0219
ლ	-15.0219
ო	-15.0219
·	-15.5162
●	-15.5162
Б	-15.5219
თ	-15.5219
რ	-15.5219
ს	-15.5219
ɛ	-15.5219
ο	-15.5219
‭	-15.5219
軍	-15.5219
ð	-15.5219
ː	-15.5219
	-15.5219
¡	-15.5219
¢	-15.5219
Ã	-15.5219
Ä	-15.5219
Ü	-15.5219
ß	-15.5219
ý	-15.5219
γ	-15.5219
ρ	-15.5219
ς	-15.5219
τ	-15.5219
г	-15.5219
й	-15.5219
л	-15.5219
י	-15.5219
ڵ	-15.5219
ہ	-15.5219
ۂ	-15.5219
ი	-15.5219
‚	-15.5219
≥	-15.5219
▲	-15.5219
▶	-15.5219
◀	-15.5219
◦	-15.5219
☼	-15.5219
❇	-15.5219
メ	-15.5219
事	-15.5219
件	-15.5219
朝	-15.5219
灣	-15.5219
	-15.5219
	-15.5219
	-15.5219
	-15.5219
	-15.5219
	-15.5219
	-15.5219
	-15.5219
🇪	-15.5219
🔷	-15.5219
😅	-15.5219
😏	-15.5219
😢	-15.5219
😥	-15.5219
😳	-15.5219
😵	-15.5219
🙁	-15.5219
ô	-15.5219
÷	-15.5219
ē	-15.5219
î	-15.5219
🍃	-15.5219
λ	-15.5219
б	-15.5219
😛	-16.5175
📣	-16.5176
本	-16.5177
日	-16.5178
台	-16.5179
ܜ	-16.518
ܔ	-16.5181
К	-16.5182
̇	-16.5183
ʊ	-16.5184
ƒ	-16.5185
ê	-16.5186
	-16.5187
😊	-16.5188
θ	-16.5189
	-16.519
🔻	-16.5191
✕	-16.5192
▐	-16.5193
⁩	-16.5194
М	-16.5195
👈	-16.5196
⚡	-16.5197
„	-16.5198
🌷	-16.5199
﴿	-16.52
✔	-16.5201
۔	-16.5202
̋	-16.5203
œ	-16.5204
👌	-16.5205
❤	-16.5206
😍	-16.5207
🙂	-16.5208
	-16.5209
©	-16.521
	-16.5211
□	-16.5212
➖	-16.5213
◄	-16.5214
■	-16.5215
€	-16.5216
▪	-16.5217
→	-16.5218
ф	-16.5219
ე	-16.5219
ქ	-16.5219
Α	-16.5219
Φ	-16.5219
ω	-16.5219
З	-16.5219
И	-16.5219
ἐ	-16.5219
Ἴ	-16.5219
ῖ	-16.5219
將	-16.5219
撫	-16.5219
	-16.5219
	-16.5219
	-16.5219
	-16.5219
	-16.5219
¥	-16.5219
Á	-16.5219
Å	-16.5219
Ô	-16.5219
æ	-16.5219
ì	-16.5219
þ	-16.5219
ć	-16.5219
ī	-16.5219
ł	-16.5219
ŋ	-16.5219
ū	-16.5219
ű	-16.5219
Ž	-16.5219
ə	-16.5219
ɜ	-16.5219
ɨ	-16.5219
ʁ	-16.5219
ʺ	-16.5219
ˏ	-16.5219
̏	-16.5219
̵	-16.5219
Ε	-16.5219
Μ	-16.5219
ζ	-16.5219
φ	-16.5219
Г	-16.5219
О	-16.5219
П	-16.5219
м	-16.5219
т	-16.5219
у	-16.5219
х	-16.5219
ы	-16.5219
ь	-16.5219
я	-16.5219
ё	-16.5219
ћ	-16.5219
ה	-16.5219
ח	-16.5219
כ	-16.5219
מ	-16.5219
פ	-16.5219
ש	-16.5219
ګ	-16.5219
ں	-16.5219
ۃ	-16.5219
ێ	-16.5219
ے	-16.5219
ก	-16.5219
ง	-16.5219
แ	-16.5219
მ	-16.5219
ნ	-16.5219
უ	-16.5219
Ḥ	-16.5219
ṇ	-16.5219
ṯ	-16.5219
ủ	-16.5219
―	-16.5219
†	-16.5219
※	-16.5219
⁠	-16.5219
₩	-16.5219
₹	-16.5219
↓	-16.5219
⇆	-16.5219
⇔	-16.5219
∀	-16.5219
∆	-16.5219
∈	-16.5219
∗	-16.5219
∘	-16.5219
∴	-16.5219
≈	-16.5219
⊞	-16.5219
⋆	-16.5219
⌘	-16.5219
⏳	-16.5219
⏺	-16.5219
►	-16.5219
◇	-16.5219
◽	-16.5219
◾	-16.5219
☆	-16.5219
☚	-16.5219
♊	-16.5219
♒	-16.5219
♡	-16.5219
⚽	-16.5219
✋	-16.5219
✍	-16.5219
✳	-16.5219
✵	-16.5219
❌	-16.5219
❗	-16.5219
➌	-16.5219
➐	-16.5219
⟨	-16.5219
⟩	-16.5219
⬅	-16.5219
《	-16.5219
「	-16.5219
か	-16.5219
き	-16.5219
ど	-16.5219
ま	-16.5219
モ	-16.5219
ヤ	-16.5219
一	-16.5219
东	-16.5219
人	-16.5219
前	-16.5219
十	-16.5219
命	-16.5219
坛	-16.5219
外	-16.5219
天	-16.5219
子	-16.5219
孫	-16.5219
斐	-16.5219
旗	-16.5219
月	-16.5219
樹	-16.5219
湾	-16.5219
爱	-16.5219
生	-16.5219
甲	-16.5219
碌	-16.5219
神	-16.5219
臺	-16.5219
英	-16.5219
蔼	-16.5219
语	-16.5219
谷	-16.5219
锦	-16.5219
门	-16.5219
革	-16.5219
도	-16.5219
라	-16.5219
아	-16.5219
장	-16.5219
티	-16.5219
	-16.5219
	-16.5219
	-16.5219
	-16.5219
	-16.5219
	-16.5219
	-16.5219
	-16.5219
	-16.5219
	-16.5219
	-16.5219
	-16.5219
	-16.5219
	-16.5219
	-16.5219
	-16.5219
🇩	-16.5219
🇬	-16.5219
🇷	-16.5219
🇺	-16.5219
🌀	-16.5219
🌐	-16.5219
🌬	-16.5219
🌲	-16.5219
🌺	-16.5219
🍁	-16.5219
🍳	-16.5219
🎁	-16.5219
🎄	-16.5219
🎥	-16.5219
🎬	-16.5219
🐶	-16.5219
👑	-16.5219
💎	-16.5219
💕	-16.5219
💜	-16.5219
💟	-16.5219
💫	-16.5219
💳	-16.5219
📈	-16.5219
📌	-16.5219
📍	-16.5219
📑	-16.5219
📝	-16.5219
📱	-16.5219
📽	-16.5219
🔎	-16.5219
🔔	-16.5219
🔵	-16.5219
🔶	-16.5219
🗽	-16.5219
😁	-16.5219
😌	-16.5219
😎	-16.5219
😒	-16.5219
😔	-16.5219
😕	-16.5219
😗	-16.5219
😙	-16.5219
😭	-16.5219
😶	-16.5219
🙏	-16.5219
🚀	-16.5219
🚫	-16.5219
🤔	-16.5219
🤗	-16.5219
🥇	-16.5219
ǎ	-16.5219
ٓ	-16.5219
څ	-16.5219
》	-16.5219
ɔ	-16.5219
ʀ	-16.5219
̃	-16.5219
ˌ	-16.5219
С	-16.5219
გ	-16.5219
ἥ	-16.5219
↑	-16.5219
