{
  "version": "1.0",
  "truncation": null,
  "padding": null,
  "added_tokens": [
    {
      "id": 0,
      "content": "[UNK]",
      "single_word": false,
      "lstrip": false,
      "rstrip": false,
      "normalized": false,
      "special": true
    },
    {
      "id": 1,
      "content": "[CLS]",
      "single_word": false,
      "lstrip": false,
      "rstrip": false,
      "normalized": false,
      "special": true
    },
    {
      "id": 2,
      "content": "[SEP]",
      "single_word": false,
      "lstrip": false,
      "rstrip": false,
      "normalized": false,
      "special": true
    },
    {
      "id": 3,
      "content": "[PAD]",
      "single_word": false,
      "lstrip": false,
      "rstrip": false,
      "normalized": false,
      "special": true
    },
    {
      "id": 4,
      "content": "[MASK]",
      "single_word": false,
      "lstrip": false,
      "rstrip": false,
      "normalized": false,
      "special": true
    }
  ],
  "normalizer": {
    "type": "Sequence",
    "normalizers": [
      {
        "type": "NFKC"
      },
      {
        "type": "Lowercase"
      }
    ]
  },
  "pre_tokenizer": {
    "type": "Whitespace"
  },
  "post_processor": null,
  "decoder": {
    "type": "WordPiece",
    "prefix": "##",
    "cleanup": true
  },
  "model": {
    "type": "WordPiece",
    "unk_token": "[UNK]",
    "continuing_subword_prefix": "##",
    "max_input_chars_per_word": 100,
    "vocab": {
      "[UNK]": 0,
      "[CLS]": 1,
      "[SEP]": 2,
      "[PAD]": 3,
      "[MASK]": 4,
      "!": 5,
      "\"": 6,
      "#": 7,
      "$": 8,
      "%": 9,
      "&": 10,
      "'": 11,
      "(": 12,
      ")": 13,
      "*": 14,
      "+": 15,
      ",": 16,
      "-": 17,
      ".": 18,
      "/": 19,
      "0": 20,
      "1": 21,
      "2": 22,
      "3": 23,
      "4": 24,
      "5": 25,
      "6": 26,
      "7": 27,
      "8": 28,
      "9": 29,
      ":": 30,
      ";": 31,
      "<": 32,
      "=": 33,
      ">": 34,
      "?": 35,
      "@": 36,
      "[": 37,
      "\\": 38,
      "]": 39,
      "^": 40,
      "_": 41,
      "`": 42,
      "a": 43,
      "b": 44,
      "c": 45,
      "d": 46,
      "e": 47,
      "f": 48,
      "g": 49,
      "h": 50,
      "i": 51,
      "j": 52,
      "k": 53,
      "l": 54,
      "m": 55,
      "n": 56,
      "o": 57,
      "p": 58,
      "q": 59,
      "r": 60,
      "s": 61,
      "t": 62,
      "u": 63,
      "v": 64,
      "w": 65,
      "x": 66,
      "y": 67,
      "z": 68,
      "{": 69,
      "|": 70,
      "}": 71,
      "~": 72,
      "": 73,
      "": 74,
      "": 75,
      "": 76,
      "": 77,
      "": 78,
      "": 79,
      "": 80,
      "": 81,
      "": 82,
      "": 83,
      "": 84,
      "": 85,
      "": 86,
      "": 87,
      "¡": 88,
      "¢": 89,
      "£": 90,
      "¤": 91,
      "¥": 92,
      "§": 93,
      "©": 94,
      "«": 95,
      "¬": 96,
      "­": 97,
      "®": 98,
      "°": 99,
      "±": 100,
      "·": 101,
      "»": 102,
      "×": 103,
      "ß": 104,
      "à": 105,
      "á": 106,
      "â": 107,
      "ã": 108,
      "ä": 109,
      "å": 110,
      "æ": 111,
      "ç": 112,
      "è": 113,
      "é": 114,
      "ê": 115,
      "ë": 116,
      "ì": 117,
      "í": 118,
      "î": 119,
      "ï": 120,
      "ð": 121,
      "ñ": 122,
      "ò": 123,
      "ó": 124,
      "ô": 125,
      "ö": 126,
      "÷": 127,
      "ø": 128,
      "ú": 129,
      "ü": 130,
      "ý": 131,
      "þ": 132,
      "ā": 133,
      "ć": 134,
      "ē": 135,
      "ğ": 136,
      "ī": 137,
      "ı": 138,
      "ł": 139,
      "ń": 140,
      "ŋ": 141,
      "œ": 142,
      "ş": 143,
      "š": 144,
      "ū": 145,
      "ű": 146,
      "ž": 147,
      "ƒ": 148,
      "ǎ": 149,
      "ɔ": 150,
      "ə": 151,
      "ɛ": 152,
      "ɜ": 153,
      "ɨ": 154,
      "ɪ": 155,
      "ʀ": 156,
      "ʁ": 157,
      "ʊ": 158,
      "ʺ": 159,
      "ˈ": 160,
      "ˌ": 161,
      "ˏ": 162,
      "ː": 163,
      "́": 164,
      "̃": 165,
      "̇": 166,
      "̈": 167,
      "̊": 168,
      "̋": 169,
      "̏": 170,
      "̨": 171,
      "̵": 172,
      "α": 173,
      "β": 174,
      "γ": 175,
      "δ": 176,
      "ε": 177,
      "ζ": 178,
      "θ": 179,
      "κ": 180,
      "λ": 181,
      "μ": 182,
      "ν": 183,
      "ο": 184,
      "ρ": 185,
      "ς": 186,
      "τ": 187,
      "φ": 188,
      "ω": 189,
      "а": 190,
      "б": 191,
      "г": 192,
      "д": 193,
      "е": 194,
      "з": 195,
      "и": 196,
      "й": 197,
      "к": 198,
      "л": 199,
      "м": 200,
      "н": 201,
      "о": 202,
      "п": 203,
      "р": 204,
      "с": 205,
      "т": 206,
      "у": 207,
      "ф": 208,
      "х": 209,
      "ы": 210,
      "ь": 211,
      "я": 212,
      "ё": 213,
      "ћ": 214,
      "ה": 215,
      "ח": 216,
      "י": 217,
      "כ": 218,
      "מ": 219,
      "פ": 220,
      "ש": 221,
      "،": 222,
      "؛": 223,
      "؟": 224,
      "ء": 225,
      "آ": 226,
      "أ": 227,
      "ؤ": 228,
      "إ": 229,
      "ئ": 230,
      "ا": 231,
      "ب": 232,
      "ة": 233,
      "ت": 234,
      "ث": 235,
      "ج": 236,
      "ح": 237,
      "خ": 238,
      "د": 239,
      "ذ": 240,
      "ر": 241,
      "ز": 242,
      "س": 243,
      "ش": 244,
      "ص": 245,
      "ض": 246,
      "ط": 247,
      "ظ": 248,
      "ع": 249,
      "غ": 250,
      "ـ": 251,
      "ف": 252,
      "ق": 253,
      "ك": 254,
      "ل": 255,
      "م": 256,
      "ن": 257,
      "ه": 258,
      "و": 259,
      "ى": 260,
      "ي": 261,
      "ً": 262,
      "ٌ": 263,
      "ٍ": 264,
      "َ": 265,
      "ُ": 266,
      "ِ": 267,
      "ّ": 268,
      "ْ": 269,
      "ٓ": 270,
      "ٔ": 271,
      "٠": 272,
      "١": 273,
      "٢": 274,
      "٣": 275,
      "٤": 276,
      "٥": 277,
      "٦": 278,
      "٧": 279,
      "٨": 280,
      "٩": 281,
      "٪": 282,
      "٫": 283,
      "٬": 284,
      "ٰ": 285,
      "ٴ": 286,
      "پ": 287,
      "ٿ": 288,
      "څ": 289,
      "چ": 290,
      "ژ": 291,
      "ک": 292,
      "ڪ": 293,
      "ګ": 294,
      "گ": 295,
      "ڵ": 296,
      "ں": 297,
      "ھ": 298,
      "ۀ": 299,
      "ہ": 300,
      "ۂ": 301,
      "ۃ": 302,
      "ۆ": 303,
      "ی": 304,
      "ێ": 305,
      "ے": 306,
      "۔": 307,
      "ە": 308,
      "۰": 309,
      "۱": 310,
      "۲": 311,
      "۳": 312,
      "۴": 313,
      "۵": 314,
      "۶": 315,
      "۷": 316,
      "۸": 317,
      "۹": 318,
      "ܔ": 319,
      "ܜ": 320,
      "ก": 321,
      "ง": 322,
      "แ": 323,
      "ა": 324,
      "გ": 325,
      "ე": 326,
      "ვ": 327,
      "თ": 328,
      "ი": 329,
      "ლ": 330,
      "მ": 331,
      "ნ": 332,
      "ო": 333,
      "რ": 334,
      "ს": 335,
      "უ": 336,
      "ქ": 337,
      "ḥ": 338,
      "ṇ": 339,
      "ṯ": 340,
      "ủ": 341,
      "ἐ": 342,
      "ἥ": 343,
      "ἴ": 344,
      "ῖ": 345,
      "​": 346,
      "‌": 347,
      "‍": 348,
      "‎": 349,
      "‏": 350,
      "–": 351,
      "—": 352,
      "―": 353,
      "‘": 354,
      "’": 355,
      "‚": 356,
      "“": 357,
      "”": 358,
      "„": 359,
      "†": 360,
      "•": 361,
      "‪": 362,
      "‫": 363,
      "‬": 364,
      "‭": 365,
      "′": 366,
      "‹": 367,
      "›": 368,
      "※": 369,
      "⁄": 370,
      "⁠": 371,
      "⁣": 372,
      "⁧": 373,
      "⁩": 374,
      "⁪": 375,
      "⁭": 376,
      "⁮": 377,
      "⁯": 378,
      "₩": 379,
      "€": 380,
      "₹": 381,
      "⃣": 382,
      "←": 383,
      "↑": 384,
      "→": 385,
      "↓": 386,
      "⇆": 387,
      "⇐": 388,
      "⇔": 389,
      "∀": 390,
      "∆": 391,
      "∈": 392,
      "−": 393,
      "∗": 394,
      "∘": 395,
      "√": 396,
      "∴": 397,
      "≈": 398,
      "≠": 399,
      "≡": 400,
      "≤": 401,
      "≥": 402,
      "⊞": 403,
      "⋆": 404,
      "⌘": 405,
      "⏳": 406,
      "⏺": 407,
      "▐": 408,
      "■": 409,
      "□": 410,
      "▪": 411,
      "▫": 412,
      "▬": 413,
      "▲": 414,
      "▶": 415,
      "►": 416,
      "◀": 417,
      "◄": 418,
      "◇": 419,
      "◊": 420,
      "○": 421,
      "●": 422,
      "◦": 423,
      "◽": 424,
      "◾": 425,
      "★": 426,
      "☆": 427,
      "☚": 428,
      "☺": 429,
      "☼": 430,
      "♊": 431,
      "♒": 432,
      "♡": 433,
      "♥": 434,
      "♦": 435,
      "♪": 436,
      "♫": 437,
      "♬": 438,
      "♯": 439,
      "⚡": 440,
      "⚽": 441,
      "✅": 442,
      "✋": 443,
      "✍": 444,
      "✓": 445,
      "✔": 446,
      "✕": 447,
      "✤": 448,
      "✭": 449,
      "✳": 450,
      "✵": 451,
      "❇": 452,
      "❌": 453,
      "❗": 454,
      "❤": 455,
      "➌": 456,
      "➐": 457,
      "➕": 458,
      "➖": 459,
      "⟨": 460,
      "⟩": 461,
      "⦁": 462,
      "⬅": 463,
      "《": 464,
      "》": 465,
      "「": 466,
      "か": 467,
      "き": 468,
      "ど": 469,
      "ま": 470,
      "メ": 471,
      "モ": 472,
      "ヤ": 473,
      "一": 474,
      "东": 475,
      "事": 476,
      "人": 477,
      "件": 478,
      "前": 479,
      "十": 480,
      "台": 481,
      "命": 482,
      "坛": 483,
      "外": 484,
      "天": 485,
      "子": 486,
      "孫": 487,
      "將": 488,
      "撫": 489,
      "斐": 490,
      "旗": 491,
      "日": 492,
      "月": 493,
      "朝": 494,
      "本": 495,
      "樹": 496,
      "湾": 497,
      "灣": 498,
      "爱": 499,
      "生": 500,
      "甲": 501,
      "碌": 502,
      "神": 503,
      "臺": 504,
      "英": 505,
      "蔼": 506,
      "语": 507,
      "谷": 508,
      "軍": 509,
      "锦": 510,
      "门": 511,
      "革": 512,
      "도": 513,
      "라": 514,
      "아": 515,
      "장": 516,
      "티": 517,
      "": 518,
      "": 519,
      "": 520,
      "": 521,
      "": 522,
      "": 523,
      "": 524,
      "": 525,
      "": 526,
      "": 527,
      "": 528,
      "": 529,
      "": 530,
      "": 531,
      "": 532,
      "": 533,
      "": 534,
      "": 535,
      "": 536,
      "": 537,
      "": 538,
      "": 539,
      "": 540,
      "": 541,
      "": 542,
      "": 543,
      "": 544,
      "": 545,
      "": 546,
      "": 547,
      "": 548,
      "﴾": 549,
      "﴿": 550,
      "️": 551,
      "﻿": 552,
      "�": 553,
      "🇩": 554,
      "🇪": 555,
      "🇬": 556,
      "🇷": 557,
      "🇺": 558,
      "🌀": 559,
      "🌐": 560,
      "🌬": 561,
      "🌲": 562,
      "🌷": 563,
      "🌸": 564,
      "🌺": 565,
      "🍁": 566,
      "🍃": 567,
      "🍳": 568,
      "🎁": 569,
      "🎄": 570,
      "🎥": 571,
      "🎬": 572,
      "🐶": 573,
      "👈": 574,
      "👌": 575,
      "👏": 576,
      "👑": 577,
      "👻": 578,
      "💎": 579,
      "💕": 580,
      "💜": 581,
      "💟": 582,
      "💫": 583,
      "💳": 584,
      "📈": 585,
      "📌": 586,
      "📍": 587,
      "📑": 588,
      "📝": 589,
      "📣": 590,
      "📱": 591,
      "📽": 592,
      "🔎": 593,
      "🔔": 594,
      "🔥": 595,
      "🔴": 596,
      "🔵": 597,
      "🔶": 598,
      "🔷": 599,
      "🔸": 600,
      "🔹": 601,
      "🔺": 602,
      "🔻": 603,
      "🗽": 604,
      "😀": 605,
      "😁": 606,
      "😂": 607,
      "😅": 608,
      "😉": 609,
      "😊": 610,
      "😌": 611,
      "😍": 612,
      "😎": 613,
      "😏": 614,
      "😐": 615,
      "😒": 616,
      "😔": 617,
      "😕": 618,
      "😗": 619,
      "😙": 620,
      "😛": 621,
      "😢": 622,
      "😥": 623,
      "😭": 624,
      "😳": 625,
      "😵": 626,
      "😶": 627,
      "🙁": 628,
      "🙂": 629,
      "🙏": 630,
      "🚀": 631,
      "🚫": 632,
      "🤔": 633,
      "🤗": 634,
      "🥇": 635,
      "##و": 636,
      "##ل": 637,
      "##ا": 638,
      "##ی": 639,
      "##2": 640,
      "##س": 641,
      "##ع": 642,
      "##ت": 643,
      "##ر": 644,
      "##م": 645,
      "##ش": 646,
      "##ه": 647,
      "##‌": 648,
      "##ز": 649,
      "##u": 650,
      "##k": 651,
      "##i": 652,
      "##y": 653,
      "##o": 654,
      "##ح": 655,
      "##ن": 656,
      "##گ": 657,
      "##ذ": 658,
      "##پ": 659,
      "##ک": 660,
      "##e": 661,
      "##c": 662,
      "##h": 663,
      "##a": 664,
      "##t": 665,
      "##r": 666,
      "##n": 667,
      "##l": 668,
      "##ج": 669,
      "##د": 670,
      "##b": 671,
      "##s": 672,
      "##ـ": 673,
      "##(": 674,
      "##خ": 675,
      "##ف": 676,
      "##m": 677,
      "##x": 678,
      "##ِ": 679,
      "##َ": 680,
      "##ق": 681,
      "##ٍ": 682,
      "##ّ": 683,
      "##ب": 684,
      "##d": 685,
      "##ص": 686,
      "##چ": 687,
      "##v": 688,
      "##3": 689,
      "##غ": 690,
      "##j": 691,
      "##ث": 692,
      "##6": 693,
      "##7": 694,
      "##q": 695,
      "##p": 696,
      "##ي": 697,
      "##ظ": 698,
      "##ى": 699,
      "##ْ": 700,
      "##ء": 701,
      "##ئ": 702,
      "##۰": 703,
      "##!": 704,
      "##.": 705,
      "##5": 706,
      "##ژ": 707,
      "##ۀ": 708,
      "##۴": 709,
      "##ط": 710,
      "##»": 711,
      "##؛": 712,
      "##آ": 713,
      "##ê": 714,
      "##ض": 715,
      "##ُ": 716,
      "##f": 717,
      "##4": 718,
      "##0": 719,
      "##ك": 720,
      "##w": 721,
      "##ñ": 722,
      "##؟": 723,
      "##g": 724,
      "##é": 725,
      "##٨": 726,
      "##/": 727,
      "##ٔ": 728,
      "##۸": 729,
      "##۵": 730,
      "##8": 731,
      "##ؤ": 732,
      "##9": 733,
      "##‏": 734,
      "##۶": 735,
      "##۳": 736,
      "##)": 737,
      "##ç": 738,
      "##£": 739,
      "##ة": 740,
      "##۷": 741,
      "##1": 742,
      "##=": 743,
      "##_": 744,
      "##٩": 745,
      "##١": 746,
      "##🌷": 747,
      "##۱": 748,
      "##ü": 749,
      "##“": 750,
      "##\"": 751,
      "##ً": 752,
      "##[": 753,
      "##ە": 754,
      "##أ": 755,
      "##:": 756,
      "##«": 757,
      "##>": 758,
      "##٠": 759,
      "##z": 760,
      "##‎": 761,
      "##�": 762,
      "##‘": 763,
      "##ٌ": 764,
      "##á": 765,
      "##۲": 766,
      "##\\": 767,
      "##٦": 768,
      "##‍": 769,
      "##٤": 770,
      "##ä": 771,
      "##”": 772,
      "##۹": 773,
      "##،": 774,
      "##'": 775,
      "##×": 776,
      "##٧": 777,
      "##’": 778,
      "##*": 779,
      "##,": 780,
      "##}": 781,
      "##]": 782,
      "##<": 783,
      "###": 784,
      "##-": 785,
      "##ː": 786,
      "##ˈ": 787,
      "##ɪ": 788,
      "##ŋ": 789,
      "##ʊ": 790,
      "##и": 791,
      "##б": 792,
      "##́": 793,
      "##р": 794,
      "##с": 795,
      "##к": 796,
      "##й": 797,
      "##̋": 798,
      "##ö": 799,
      "##′": 800,
      "##٢": 801,
      "##α": 802,
      "##⁣": 803,
      "##←": 804,
      "##👌": 805,
      "##ٰ": 806,
      "##¬": 807,
      "##إ": 808,
      "##­": 809,
      "##;": 810,
      "##ھ": 811,
      "##{": 812,
      "##٣": 813,
      "##٥": 814,
      "##ó": 815,
      "##♯": 816,
      "##♫": 817,
      "##♪": 818,
      "##⚡": 819,
      "##☼": 820,
      "##٪": 821,
      "##灣": 822,
      "##ۆ": 823,
      "##ა": 824,
      "##ქ": 825,
      "##რ": 826,
      "##თ": 827,
      "##ვ": 828,
      "##ე": 829,
      "##ლ": 830,
      "##ო": 831,
      "##í": 832,
      "##у": 833,
      "##г": 834,
      "##$": 835,
      "##å": 836,
      "##‬": 837,
      "##​": 838,
      "##ۂ": 839,
      "##?": 840,
      "##ā": 841,
      "##♬": 842,
      "##—": 843,
      "##ø": 844,
      "##🌸": 845,
      "##+": 846,
      "##@": 847,
      "##•": 848,
      "##": 849,
      "##‫": 850,
      "##ڵ": 851,
      "##ń": 852,
      "##è": 853,
      "##ô": 854,
      "##`": 855,
      "##٬": 856,
      "##â": 857,
      "##ú": 858,
      "##е": 859,
      "##т": 860,
      "##о": 861,
      "##命": 862,
      "##ں": 863,
      "##⃣": 864,
      "##ګ": 865,
      "##ṯ": 866,
      "##&": 867,
      "##●": 868,
      "##﻿": 869,
      "##": 870,
      "##😥": 871,
      "##̇": 872,
      "##ۃ": 873,
      "##ş": 874,
      "##ı": 875,
      "##👻": 876,
      "##ğ": 877,
      "##–": 878,
      "##本": 879,
      "##语": 880,
      "##§": 881,
      "##₩": 882,
      "##ε": 883,
      "##ã": 884,
      "##": 885,
      "##ω": 886,
      "##★": 887,
      "##ë": 888,
      "##|": 889,
      "##ٴ": 890,
      "##ก": 891,
      "##ง": 892,
      "##‪": 893,
      "##ß": 894,
      "##ێ": 895,
      "##а": 896,
      "##д": 897,
      "##н": 898,
      "##%": 899,
      "##ə": 900,
      "##ɛ": 901,
      "##": 902,
      "##γ": 903,
      "##✅": 904,
      "##ё": 905,
      "##٫": 906,
      "##▐": 907,
      "##▬": 908,
      "##♥": 909,
      "##😵": 910,
      "##👏": 911,
      "##~": 912,
      "##š": 913,
      "##😂": 914,
      "##🍃": 915,
      "##坛": 916,
      "##东": 917,
      "##门": 918,
      "##à": 919,
      "##°": 920,
      "##י": 921,
      "##פ": 922,
      "##ה": 923,
      "##̊": 924,
      "##β": 925,
      "##谷": 926,
      "##英": 927,
      "##樹": 928,
      "##아": 929,
      "##라": 930,
      "##μ": 931,
      "##◄": 932,
      "##λ": 933,
      "##κ": 934,
      "##τ": 935,
      "##ρ": 936,
      "##ο": 937,
      "##ν": 938,
      "##🇬": 939,
      "##🇷": 940,
      "##ܔ": 941,
      "##": 942,
      "##›": 943,
      "##朝": 944,
      "##旗": 945,
      "##ے": 946,
      "##ē": 947,
      "##🔥": 948,
      "##ہ": 949,
      "##月": 950,
      "##事": 951,
      "##件": 952,
      "##湾": 953,
      "##^": 954,
      "##": 955,
      "##̈": 956,
      "##🤗": 957,
      "##😀": 958,
      "##🤔": 959,
      "##😗": 960,
      "##ï": 961,
      "##": 962,
      "##ٿ": 963,
      "##😏": 964,
      "##人": 965,
      "##☺": 966,
      "##😙": 967,
      "##😔": 968,
      "##😅": 969,
      "##ṇ": 970,
      "##ī": 971,
      "##😍": 972,
      "##ῖ": 973,
      "##ς": 974,
      "##‹": 975,
      "##ł": 976,
      "##‭": 977,
      "##😉": 978,
      "##ٓ": 979,
      "##ڪ": 980,
      "##️": 981,
      "##ð": 982,
      "##≈": 983,
      "##": 984,
      "##м": 985,
      "##ò": 986,
      "##х": 987,
      "##ζ": 988,
      "##➖": 989,
      "##·": 990,
      "##ћ": 991,
      "##": 992,
      "##ʀ": 993,
      "##ɔ": 994,
      "##̃": 995,
      "##î": 996,
      "##ū": 997,
      "##ű": 998,
      "##🎄": 999,
      "##장": 1000,
      "##¤": 1001,
      "##ს": 1002,
      "##მ": 1003,
      "##უ": 1004,
      "##ი": 1005,
      "##⌘": 1006,
      "##軍": 1007,
      "##將": 1008,
      "##😁": 1009,
      "##": 1010,
      "##": 1011,
      "##ˏ": 1012,
      "##л": 1013,
      "##ь": 1014,
      "##ы": 1015,
      "##ש": 1016,
      "##ח": 1017,
      "##✤": 1018,
      "##ć": 1019,
      "##子": 1020,
      "##ˌ": 1021,
      "##æ": 1022,
      "##გ": 1023,
      "##ნ": 1024,
      "##🇺": 1025,
      "##🇩": 1026,
      "##🇪": 1027,
      "##я": 1028,
      "##ý": 1029,
      "##ì": 1030,
      "##ủ": 1031,
      "##ان": 1032,
      "##ای": 1033,
      "##ار": 1034,
      "##ست": 1035,
      "##ند": 1036,
      "در": 1037,
      "##ین": 1038,
      "به": 1039,
      "می": 1040,
      "##ید": 1041,
      "##ود": 1042,
      "از": 1043,
      "که": 1044,
      "را": 1045,
      "است": 1046,
      "با": 1047,
      "##اد": 1048,
      "بر": 1049,
      "##رد": 1050,
      "##ال": 1051,
      "##ام": 1052,
      "این": 1053,
      "##ور": 1054,
      "##اه": 1055,
      "##یر": 1056,
      "##ات": 1057,
      "##یم": 1058,
      "آن": 1059,
      "یک": 1060,
      "##شت": 1061,
      "می‌": 1062,
      "##ما": 1063,
      "هم": 1064,
      "##ها": 1065,
      "##وان": 1066,
      "##های": 1067,
      "کن": 1068,
      "برای": 1069,
      "##لی": 1070,
      "##اب": 1071,
      "##ری": 1072,
      "##ون": 1073,
      "##ده": 1074,
      "##فت": 1075,
      "##سی": 1076,
      "##ول": 1077,
      "های": 1078,
      "##از": 1079,
      "##وی": 1080,
      "من": 1081,
      "کرد": 1082,
      "ان": 1083,
      "##گر": 1084,
      "##ه‌": 1085,
      "مو": 1086,
      "##اری": 1087,
      "##تر": 1088,
      "خود": 1089,
      "دار": 1090,
      "##می": 1091,
      "##رو": 1092,
      "##مان": 1093,
      "##را": 1094,
      "##لا": 1095,
      "خو": 1096,
      "##تی": 1097,
      "شما": 1098,
      "##کن": 1099,
      "بود": 1100,
      "نی": 1101,
      "##اده": 1102,
      "رو": 1103,
      "کار": 1104,
      "باش": 1105,
      "یا": 1106,
      "بی": 1107,
      "##یت": 1108,
      "تا": 1109,
      "##گی": 1110,
      "##زی": 1111,
      "##انی": 1112,
      "ما": 1113,
      "او": 1114,
      "تو": 1115,
      "دا": 1116,
      "##خت": 1117,
      "ها": 1118,
      "ای": 1119,
      "شده": 1120,
      "ده": 1121,
      "شد": 1122,
      "سال": 1123,
      "##اس": 1124,
      "##اید": 1125,
      "##ایی": 1126,
      "دو": 1127,
      "##رک": 1128,
      "ام": 1129,
      "##‌های": 1130,
      "هر": 1131,
      "دی": 1132,
      "هست": 1133,
      "##دا": 1134,
      "##یا": 1135,
      "کند": 1136,
      "مح": 1137,
      "کنید": 1138,
      "شود": 1139,
      "توان": 1140,
      "آم": 1141,
      "فر": 1142,
      "مت": 1143,
      "پی": 1144,
      "مع": 1145,
      "کنند": 1146,
      "##بی": 1147,
      "##فر": 1148,
      "خواه": 1149,
      "داشت": 1150,
      "##قی": 1151,
      "##انه": 1152,
      "اما": 1153,
      "##نگ": 1154,
      "##گاه": 1155,
      "##‌ها": 1156,
      "دست": 1157,
      "##یل": 1158,
      "##بت": 1159,
      "سر": 1160,
      "##نی": 1161,
      "باشد": 1162,
      "نمی": 1163,
      "دارد": 1164,
      "##عی": 1165,
      "##له": 1166,
      "آنها": 1167,
      "##شان": 1168,
      "##اق": 1169,
      "حال": 1170,
      "باید": 1171,
      "##رت": 1172,
      "مد": 1173,
      "تر": 1174,
      "##توان": 1175,
      "اگر": 1176,
      "##وز": 1177,
      "##مای": 1178,
      "##ارد": 1179,
      "قر": 1180,
      "##ادی": 1181,
      "بد": 1182,
      "مش": 1183,
      "کم": 1184,
      "استف": 1185,
      "استفاده": 1186,
      "##که": 1187,
      "ال": 1188,
      "کش": 1189,
      "باز": 1190,
      "##رف": 1191,
      "گر": 1192,
      "چه": 1193,
      "##بر": 1194,
      "چی": 1195,
      "دان": 1196,
      "اس": 1197,
      "بسی": 1198,
      "##وری": 1199,
      "##فته": 1200,
      "##جه": 1201,
      "##جود": 1202,
      "##اف": 1203,
      "##اند": 1204,
      "دیگر": 1205,
      "##اره": 1206,
      "##خو": 1207,
      "نظ": 1208,
      "اند": 1209,
      "##عد": 1210,
      "##وند": 1211,
      "هستند": 1212,
      "زمان": 1213,
      "##جام": 1214,
      "مس": 1215,
      "مورد": 1216,
      "##اخت": 1217,
      "داد": 1218,
      "##نده": 1219,
      "##وم": 1220,
      "##..": 1221,
      "تح": 1222,
      "##دید": 1223,
      "##امه": 1224,
      "##عه": 1225,
      "##کر": 1226,
      "پیش": 1227,
      "انجام": 1228,
      "نو": 1229,
      "روز": 1230,
      "مق": 1231,
      "مرد": 1232,
      "##نین": 1233,
      "تن": 1234,
      "اف": 1235,
      "##عت": 1236,
      "نیست": 1237,
      "##زار": 1238,
      "##رس": 1239,
      "##با": 1240,
      "##مل": 1241,
      "##شی": 1242,
      "زند": 1243,
      "##کی": 1244,
      "##قت": 1245,
      "جه": 1246,
      "تم": 1247,
      "وجود": 1248,
      "##الی": 1249,
      "##دی": 1250,
      "انت": 1251,
      "بیشت": 1252,
      "##رب": 1253,
      "##رگ": 1254,
      "اج": 1255,
      "عن": 1256,
      "##ستان": 1257,
      "بین": 1258,
      "نیز": 1259,
      "##مین": 1260,
      "##گیر": 1261,
      "می‌ش": 1262,
      "مه": 1263,
      "##خص": 1264,
      "رس": 1265,
      "اح": 1266,
      "همه": 1267,
      "پس": 1268,
      "کرده": 1269,
      "قرار": 1270,
      "بز": 1271,
      "##ریک": 1272,
      "##رکت": 1273,
      "هی": 1274,
      "مم": 1275,
      "##ترین": 1276,
      "روی": 1277,
      "توس": 1278,
      "##وت": 1279,
      "عنوان": 1280,
      "ات": 1281,
      "گذ": 1282,
      "##امل": 1283,
      "زی": 1284,
      "خواهد": 1285,
      "...": 1286,
      "##شن": 1287,
      "داشته": 1288,
      "کشور": 1289,
      "زندگی": 1290,
      "بخ": 1291,
      "دانش": 1292,
      "واق": 1293,
      "دهد": 1294,
      "##ونه": 1295,
      "##کل": 1296,
      "مط": 1297,
      "##امی": 1298,
      "##شد": 1299,
      "ممکن": 1300,
      "همچ": 1301,
      "می‌توان": 1302,
      "##فا": 1303,
      "##شته": 1304,
      "##وه": 1305,
      "می‌ک": 1306,
      "ساز": 1307,
      "سی": 1308,
      "گفت": 1309,
      "تص": 1310,
      "##یده": 1311,
      "تج": 1312,
      "##رای": 1313,
      "مج": 1314,
      "بیشتر": 1315,
      "##انند": 1316,
      "##رز": 1317,
      "وی": 1318,
      "##است": 1319,
      "راه": 1320,
      "بسیار": 1321,
      "##خی": 1322,
      "می‌کن": 1323,
      "##ایت": 1324,
      "بازی": 1325,
      "اط": 1326,
      "نظر": 1327,
      "دارند": 1328,
      "##اتی": 1329,
      "جم": 1330,
      "##دم": 1331,
      "شرکت": 1332,
      "هیچ": 1333,
      "نیاز": 1334,
      "##چه": 1335,
      "##گان": 1336,
      "برن": 1337,
      "##وش": 1338,
      "##ه‌ای": 1339,
      "##اص": 1340,
      "کردن": 1341,
      "##قه": 1342,
      "ند": 1343,
      "نق": 1344,
      "نام": 1345,
      "بزرگ": 1346,
      "##کان": 1347,
      "##وا": 1348,
      "اول": 1349,
      "##ه‌های": 1350,
      "##ورت": 1351,
      "آمریک": 1352,
      "یکی": 1353,
      "اص": 1354,
      "##اط": 1355,
      "افر": 1356,
      "کس": 1357,
      "##مند": 1358,
      "مث": 1359,
      "بعد": 1360,
      "جدید": 1361,
      "دور": 1362,
      "##حی": 1363,
      "کل": 1364,
      "نمی‌": 1365,
      "تغ": 1366,
      "شه": 1367,
      "##خواه": 1368,
      "تنها": 1369,
      "داده": 1370,
      "##ه‌ی": 1371,
      "##er": 1372,
      "نه": 1373,
      "##ارت": 1374,
      "تواند": 1375,
      "چند": 1376,
      "کمک": 1377,
      "20": 1378,
      "ساخت": 1379,
      "##وید": 1380,
      "همچنین": 1381,
      "نشان": 1382,
      "##زای": 1383,
      "##لب": 1384,
      "مردم": 1385,
      "فق": 1386,
      "اع": 1387,
      "##مو": 1388,
      "##ازه": 1389,
      "شن": 1390,
      "پای": 1391,
      "بن": 1392,
      "##صد": 1393,
      "ماه": 1394,
      "##سان": 1395,
      "##در": 1396,
      "##اک": 1397,
      "##ییر": 1398,
      "تغییر": 1399,
      "##جا": 1400,
      "قب": 1401,
      "##لام": 1402,
      "##به": 1403,
      "##ادر": 1404,
      "زن": 1405,
      "می‌شود": 1406,
      "##تان": 1407,
      "چیزی": 1408,
      "طور": 1409,
      "واقع": 1410,
      "##عات": 1411,
      "##ژی": 1412,
      "##دود": 1413,
      "اد": 1414,
      "##ره": 1415,
      "شوند": 1416,
      "##رائ": 1417,
      "##قل": 1418,
      "آز": 1419,
      "ایر": 1420,
      "برنامه": 1421,
      "بار": 1422,
      "سو": 1423,
      "می‌کند": 1424,
      "##لف": 1425,
      "زیر": 1426,
      ".»": 1427,
      "کنیم": 1428,
      "توسط": 1429,
      "پرو": 1430,
      "##کار": 1431,
      "##ورد": 1432,
      "##شه": 1433,
      "##جاد": 1434,
      "جن": 1435,
      "##یه": 1436,
      "##ابل": 1437,
      "ایجاد": 1438,
      "تمام": 1439,
      "آیا": 1440,
      "##زین": 1441,
      "##ونی": 1442,
      "دن": 1443,
      "فقط": 1444,
      "بیم": 1445,
      "##بان": 1446,
      "##گونه": 1447,
      "خدا": 1448,
      "##ستم": 1449,
      "بل": 1450,
      "##باره": 1451,
      "آموز": 1452,
      "بیش": 1453,
      "جهان": 1454,
      "صورت": 1455,
      "مانند": 1456,
      "مص": 1457,
      "تب": 1458,
      "طول": 1459,
      "نا": 1460,
      "خان": 1461,
      "دل": 1462,
      "##گذ": 1463,
      "##خاب": 1464,
      "##یلی": 1465,
      "چیز": 1466,
      "##اض": 1467,
      "##بود": 1468,
      "بسیاری": 1469,
      "تول": 1470,
      "حتی": 1471,
      "فع": 1472,
      "ارت": 1473,
      "##هایی": 1474,
      "نس": 1475,
      "هن": 1476,
      "انتخاب": 1477,
      "همان": 1478,
      "باشید": 1479,
      "قد": 1480,
      "##in": 1481,
      "تع": 1482,
      "افراد": 1483,
      "##ثر": 1484,
      "اینکه": 1485,
      "زمین": 1486,
      "##کس": 1487,
      "##تاب": 1488,
      "تق": 1489,
      "##رسی": 1490,
      "خط": 1491,
      "کو": 1492,
      "اخ": 1493,
      "یاد": 1494,
      "اطلا": 1495,
      "آمریکا": 1496,
      "##کت": 1497,
      "##on": 1498,
      "وق": 1499,
      "##وس": 1500,
      "##شم": 1501,
      "برخی": 1502,
      "نم": 1503,
      "##مال": 1504,
      "گرفت": 1505,
      "سه": 1506,
      "##کرد": 1507,
      "غیر": 1508,
      "رفت": 1509,
      "زمانی": 1510,
      "##قیق": 1511,
      "مهم": 1512,
      "##لیل": 1513,
      "آی": 1514,
      "##فی": 1515,
      "##گری": 1516,
      "نش": 1517,
      "دول": 1518,
      "##نج": 1519,
      "##بین": 1520,
      "##وع": 1521,
      "##بار": 1522,
      "##گیری": 1523,
      "ایران": 1524,
      "##وب": 1525,
      "##00": 1526,
      "کود": 1527,
      "##سم": 1528,
      "##وق": 1529,
      "##سته": 1530,
      "به‌": 1531,
      "افزای": 1532,
      "اش": 1533,
      "پر": 1534,
      "جای": 1535,
      "کتاب": 1536,
      "افزایش": 1537,
      "چرا": 1538,
      "می‌ده": 1539,
      "##اً": 1540,
      "##بال": 1541,
      "##ضی": 1542,
      "##ابی": 1543,
      "فیل": 1544,
      "باشند": 1545,
      "مرا": 1546,
      "نمای": 1547,
      "##اش": 1548,
      "تولید": 1549,
      "##یس": 1550,
      "دوست": 1551,
      "##ریق": 1552,
      "##an": 1553,
      "آب": 1554,
      "شب": 1555,
      "درصد": 1556,
      "مر": 1557,
      "بخش": 1558,
      "فکر": 1559,
      "دهند": 1560,
      "غذ": 1561,
      "مشت": 1562,
      "مدیر": 1563,
      "شخص": 1564,
      "همین": 1565,
      "##دام": 1566,
      "سا": 1567,
      "هد": 1568,
      "دید": 1569,
      "##زه": 1570,
      "حق": 1571,
      "ارائ": 1572,
      "##طور": 1573,
      "دهید": 1574,
      "##ژه": 1575,
      "وقتی": 1576,
      "##ایل": 1577,
      "سیا": 1578,
      "علا": 1579,
      "##ازی": 1580,
      "چگونه": 1581,
      "##نه": 1582,
      "مشکل": 1583,
      "تش": 1584,
      "##یشه": 1585,
      "فعال": 1586,
      "عم": 1587,
      "##یدا": 1588,
      "گرو": 1589,
      "##سه": 1590,
      "میلی": 1591,
      "کسی": 1592,
      "توجه": 1593,
      "بدون": 1594,
      "حس": 1595,
      "عل": 1596,
      "خار": 1597,
      "مخت": 1598,
      "ارائه": 1599,
      "##دار": 1600,
      "##وط": 1601,
      "سازمان": 1602,
      "هایی": 1603,
      "فرو": 1604,
      "می‌کنند": 1605,
      "##ar": 1606,
      "توانید": 1607,
      "##جی": 1608,
      "##رات": 1609,
      "کنم": 1610,
      "کردند": 1611,
      "زیادی": 1612,
      "هنگ": 1613,
      "##عیت": 1614,
      "فرد": 1615,
      "بودند": 1616,
      "عمل": 1617,
      "##رم": 1618,
      "آن‌ها": 1619,
      "##داشت": 1620,
      "کاه": 1621,
      "معم": 1622,
      "احس": 1623,
      "سیستم": 1624,
      "پیدا": 1625,
      "جنگ": 1626,
      "##راحی": 1627,
      "##بط": 1628,
      "شدن": 1629,
      "اه": 1630,
      "خیلی": 1631,
      "##ستی": 1632,
      "کاهش": 1633,
      "##رزش": 1634,
      "##تما": 1635,
      "شهر": 1636,
      "##روع": 1637,
      "خوب": 1638,
      "آل": 1639,
      "مطال": 1640,
      "نفر": 1641,
      "بال": 1642,
      "دولت": 1643,
      "خر": 1644,
      "##ذیر": 1645,
      "اقت": 1646,
      "مختلف": 1647,
      "19": 1648,
      "شروع": 1649,
      "ترک": 1650,
      "بوده": 1651,
      "۲۰": 1652,
      "##وار": 1653,
      "امرو": 1654,
      "کام": 1655,
      "##اح": 1656,
      "##یمی": 1657,
      "دریا": 1658,
      "##رین": 1659,
      "##فق": 1660,
      "##وص": 1661,
      "اقتص": 1662,
      "فیلم": 1663,
      "اطلاعات": 1664,
      "##الات": 1665,
      "گرفته": 1666,
      "##دن": 1667,
      "احساس": 1668,
      "سپ": 1669,
      "##گه": 1670,
      "انسان": 1671,
      "##اسی": 1672,
      "قابل": 1673,
      "درباره": 1674,
      "##ویی": 1675,
      "موض": 1676,
      "درمان": 1677,
      "##لیه": 1678,
      "اولین": 1679,
      "##or": 1680,
      "دیگری": 1681,
      "بهترین": 1682,
      "متح": 1683,
      "گروه": 1684,
      "گرد": 1685,
      "قبل": 1686,
      "##رکز": 1687,
      "ایم": 1688,
      "خانه": 1689,
      "بناب": 1690,
      "دلیل": 1691,
      "##ینی": 1692,
      "##زینه": 1693,
      "شک": 1694,
      "نز": 1695,
      "میان": 1696,
      "منط": 1697,
      "##سر": 1698,
      "مست": 1699,
      "منت": 1700,
      "تاری": 1701,
      "کسب": 1702,
      "صح": 1703,
      "##باط": 1704,
      "##زش": 1705,
      "چنین": 1706,
      "سایت": 1707,
      "##en": 1708,
      "جل": 1709,
      "##ه‌ها": 1710,
      "دارید": 1711,
      "##یف": 1712,
      "##عث": 1713,
      "همیشه": 1714,
      "روش": 1715,
      "##ثیر": 1716,
      "حرف": 1717,
      "می‌تواند": 1718,
      "گو": 1719,
      "انگ": 1720,
      "ندارد": 1721,
      "##یدن": 1722,
      "##at": 1723,
      "تلا": 1724,
      "##راین": 1725,
      "بنابراین": 1726,
      "##مه": 1727,
      "باعث": 1728,
      "##دان": 1729,
      "کوچ": 1730,
      "##میم": 1731,
      "##es": 1732,
      "زبان": 1733,
      "201": 1734,
      "موفق": 1735,
      "##اپ": 1736,
      "قدرت": 1737,
      "اعت": 1738,
      "ارو": 1739,
      "##اهی": 1740,
      "ولی": 1741,
      "خانو": 1742,
      "پرد": 1743,
      "احت": 1744,
      "پاس": 1745,
      "معمول": 1746,
      "اق": 1747,
      "ارتباط": 1748,
      "مخ": 1749,
      "##گرد": 1750,
      "سط": 1751,
      "طراحی": 1752,
      "##al": 1753,
      "خدم": 1754,
      "##گو": 1755,
      "اجتما": 1756,
      "تعد": 1757,
      "گذشته": 1758,
      "محص": 1759,
      "قان": 1760,
      "##ه‌اند": 1761,
      "##مد": 1762,
      "##ودی": 1763,
      "##اور": 1764,
      "طریق": 1765,
      "اروپ": 1766,
      "##یب": 1767,
      "تلاش": 1768,
      "آنچه": 1769,
      "مدت": 1770,
      "جهانی": 1771,
      "بهتر": 1772,
      "اشت": 1773,
      "حدود": 1774,
      "سری": 1775,
      "دنبال": 1776,
      "هدف": 1777,
      "اب": 1778,
      "##گز": 1779,
      "گیر": 1780,
      "شامل": 1781,
      "##ولی": 1782,
      "وب": 1783,
      "##نان": 1784,
      "دانشگاه": 1785,
      "##افی": 1786,
      "هنوز": 1787,
      "آورد": 1788,
      "شم": 1789,
      "محصول": 1790,
      "کاری": 1791,
      "##ریان": 1792,
      "خاص": 1793,
      "اصلی": 1794,
      "توسعه": 1795,
      "بدن": 1796,
      "اجتماعی": 1797,
      "##ربه": 1798,
      "##ویس": 1799,
      "سرمای": 1800,
      "قط": 1801,
      "بالا": 1802,
      "##ندی": 1803,
      "سن": 1804,
      "نوع": 1805,
      "دریافت": 1806,
      "سای": 1807,
      "##راه": 1808,
      "مسئ": 1809,
      "خرید": 1810,
      "##اسب": 1811,
      "ترین": 1812,
      "ار": 1813,
      "افت": 1814,
      "آینده": 1815,
      "##شر": 1816,
      "##هن": 1817,
      "ادامه": 1818,
      "تحقیق": 1819,
      "کمی": 1820,
      "فروش": 1821,
      "##ائ": 1822,
      "تصمیم": 1823,
      "بع": 1824,
      "ته": 1825,
      "تأ": 1826,
      "مصرف": 1827,
      "زنان": 1828,
      "##‌تر": 1829,
      "احتمال": 1830,
      "نسبت": 1831,
      "زیرا": 1832,
      "خواهند": 1833,
      "##مت": 1834,
      "خواهید": 1835,
      "پاسخ": 1836,
      "##برد": 1837,
      "##فاوت": 1838,
      "حاض": 1839,
      "جز": 1840,
      "##رح": 1841,
      "##انس": 1842,
      "نیر": 1843,
      "حاضر": 1844,
      "##ندگان": 1845,
      "دارای": 1846,
      "دادن": 1847,
      "بررسی": 1848,
      "کنتر": 1849,
      "رشد": 1850,
      "آموزش": 1851,
      "کوچک": 1852,
      "##ابر": 1853,
      "نزدی": 1854,
      "مالی": 1855,
      "می‌دهد": 1856,
      "بگیر": 1857,
      "حالی": 1858,
      "##مللی": 1859,
      "میز": 1860,
      "ساعت": 1861,
      "ندار": 1862,
      "جام": 1863,
      "فعالیت": 1864,
      "##ران": 1865,
      "کننده": 1866,
      "چهار": 1867,
      "شرای": 1868,
      "گزار": 1869,
      "##کنون": 1870,
      "میلیون": 1871,
      "شرایط": 1872,
      "تبد": 1873,
      "لی": 1874,
      "اض": 1875,
      "کنترل": 1876,
      "کلی": 1877,
      "تبدیل": 1878,
      "تجربه": 1879,
      "توانند": 1880,
      "صف": 1881,
      "موضوع": 1882,
      "همراه": 1883,
      "##اران": 1884,
      "پشت": 1885,
      "خوبی": 1886,
      "##it": 1887,
      "مل": 1888,
      "کامل": 1889,
      "داخ": 1890,
      "امروز": 1891,
      "تحت": 1892,
      "##ویر": 1893,
      "##یدی": 1894,
      "طبی": 1895,
      "گی": 1896,
      "پزش": 1897,
      "خص": 1898,
      "نتی": 1899,
      "گفته": 1900,
      "فض": 1901,
      "##پی": 1902,
      "پنج": 1903,
      "بده": 1904,
      "بتوان": 1905,
      "##اطر": 1906,
      "##شار": 1907,
      "##لاح": 1908,
      "آغ": 1909,
      "##رده": 1910,
      "##گوی": 1911,
      "وارد": 1912,
      "##تری": 1913,
      "##‌هایی": 1914,
      "۱۹": 1915,
      "##من": 1916,
      "گست": 1917,
      "##این": 1918,
      "سطح": 1919,
      "ارزش": 1920,
      "بلکه": 1921,
      "##ظه": 1922,
      "##ازم": 1923,
      "چون": 1924,
      "بیماری": 1925,
      "##کو": 1926,
      "بازار": 1927,
      "##ic": 1928,
      "##گران": 1929,
      "گزارش": 1930,
      "منطقه": 1931,
      "شاید": 1932,
      "ری": 1933,
      "صحبت": 1934,
      "حل": 1935,
      "صد": 1936,
      "وقت": 1937,
      "##۰۰": 1938,
      "هزار": 1939,
      "مرب": 1940,
      "اجازه": 1941,
      "صن": 1942,
      "هفته": 1943,
      "سب": 1944,
      "تعداد": 1945,
      "خصوص": 1946,
      "مدیریت": 1947,
      "##نا": 1948,
      "##le": 1949,
      "مواد": 1950,
      "چشم": 1951,
      "حدا": 1952,
      "سخ": 1953,
      "اندازه": 1954,
      "اغ": 1955,
      "پول": 1956,
      "آسی": 1957,
      "سلام": 1958,
      "##فاق": 1959,
      "##ندان": 1960,
      "یع": 1961,
      "بیشتری": 1962,
      "دلار": 1963,
      "آغاز": 1964,
      "محدود": 1965,
      "##رژی": 1966,
      "مثال": 1967,
      "وض": 1968,
      "شکل": 1969,
      "شی": 1970,
      "پایان": 1971,
      "درست": 1972,
      "واقعی": 1973,
      "آخ": 1974,
      "ایالات": 1975,
      "##خواست": 1976,
      "مغ": 1977,
      "پذیر": 1978,
      "وا": 1979,
      "اک": 1980,
      "سل": 1981,
      "هستید": 1982,
      "##بران": 1983,
      "خانواده": 1984,
      "متحده": 1985,
      "خوان": 1986,
      "سف": 1987,
      "ابت": 1988,
      "مثل": 1989,
      "برابر": 1990,
      "خطر": 1991,
      "صفح": 1992,
      "دوره": 1993,
      "خوش": 1994,
      "یعنی": 1995,
      "اتفاق": 1996,
      "نتیجه": 1997,
      "##کاری": 1998,
      "نگاه": 1999,
      "اغلب": 2000,
      "وز": 2001,
      "کان": 2002,
      "خواست": 2003,
      "##فه": 2004,
      "##ابت": 2005,
      "##وست": 2006,
      "مربوط": 2007,
      "حمای": 2008,
      "##داری": 2009,
      "یافت": 2010,
      "اید": 2011,
      "دنیا": 2012,
      "ره": 2013,
      "طرف": 2014,
      "##st": 2015,
      "جمله": 2016,
      "بح": 2017,
      "هزینه": 2018,
      "امکان": 2019,
      "شدند": 2020,
      "##نت": 2021,
      "موارد": 2022,
      "نبود": 2023,
      "مناسب": 2024,
      "اساس": 2025,
      "اروپا": 2026,
      "مک": 2027,
      "البت": 2028,
      "تاریخ": 2029,
      "نزدیک": 2030,
      "عب": 2031,
      "البته": 2032,
      "حض": 2033,
      "چین": 2034,
      "کسانی": 2035,
      "پیر": 2036,
      "مشخص": 2037,
      "دیگران": 2038,
      "##خواهد": 2039,
      "منظ": 2040,
      "تیم": 2041,
      "##مایش": 2042,
      "حمایت": 2043,
      "##بری": 2044,
      "لازم": 2045,
      "انرژی": 2046,
      "##ولو": 2047,
      "اخت": 2048,
      "خدمات": 2049,
      "آر": 2050,
      "امن": 2051,
      "هنگامی": 2052,
      "قیم": 2053,
      "##قات": 2054,
      "##ربی": 2055,
      "##میت": 2056,
      "».": 2057,
      "خاطر": 2058,
      "رای": 2059,
      "عمو": 2060,
      "##شید": 2061,
      "روسی": 2062,
      "موجود": 2063,
      "مرت": 2064,
      "##لس": 2065,
      "مطالعه": 2066,
      "اقتصادی": 2067,
      "##اله": 2068,
      "جمه": 2069,
      "##رخ": 2070,
      "رابط": 2071,
      "سرا": 2072,
      "اینجا": 2073,
      "##ویت": 2074,
      "جان": 2075,
      "هوا": 2076,
      "##گذار": 2077,
      "تقری": 2078,
      "##رض": 2079,
      "کودکان": 2080,
      "##جر": 2081,
      "شناخت": 2082,
      "قانون": 2083,
      "طب": 2084,
      "توص": 2085,
      "کاملا": 2086,
      "پیشر": 2087,
      "نگه": 2088,
      "تاثیر": 2089,
      "##وک": 2090,
      "کافی": 2091,
      "سرمایه": 2092,
      "##صل": 2093,
      "سایر": 2094,
      "سپس": 2095,
      "##وهای": 2096,
      "خون": 2097,
      "اعلام": 2098,
      "داریم": 2099,
      "##اهای": 2100,
      "##ئیس": 2101,
      "سیاسی": 2102,
      "سریع": 2103,
      "خواب": 2104,
      "درک": 2105,
      "می‌شوند": 2106,
      "انتظ": 2107,
      "تقریبا": 2108,
      "ست": 2109,
      "دخ": 2110,
      "اکنون": 2111,
      "کودک": 2112,
      "آزمایش": 2113,
      "حی": 2114,
      "ملی": 2115,
      "مرگ": 2116,
      "سفر": 2117,
      "##جوی": 2118,
      "کمتر": 2119,
      "قیمت": 2120,
      "نمایش": 2121,
      "##یره": 2122,
      "بهبود": 2123,
      "شخصی": 2124,
      "داستان": 2125,
      "تک": 2126,
      "شوید": 2127,
      "هرگز": 2128,
      "نقش": 2129,
      "می‌کرد": 2130,
      "##خورد": 2131,
      "بان": 2132,
      "##ro": 2133,
      "پرداخت": 2134,
      "زمینه": 2135,
      "##شین": 2136,
      "کردم": 2137,
      ").": 2138,
      "طبیعی": 2139,
      "تکن": 2140,
      "##کتر": 2141,
      "فرز": 2142,
      "لب": 2143,
      "بعضی": 2144,
      "رنگ": 2145,
      "المللی": 2146,
      "##امبر": 2147,
      "جوان": 2148,
      "مذ": 2149,
      "انتظار": 2150,
      "جو": 2151,
      "نت": 2152,
      "حقی": 2153,
      "مادر": 2154,
      "كه": 2155,
      "##کند": 2156,
      "دارم": 2157,
      "حف": 2158,
      "انتق": 2159,
      "محی": 2160,
      "پار": 2161,
      "خارج": 2162,
      "محیط": 2163,
      "##‌ترین": 2164,
      "10": 2165,
      "محت": 2166,
      "##‌اند": 2167,
      "##اتر": 2168,
      "حداقل": 2169,
      "پدر": 2170,
      "رسید": 2171,
      "نخ": 2172,
      "پروژه": 2173,
      "سخت": 2174,
      "روسیه": 2175,
      "##اخ": 2176,
      "اقدام": 2177,
      "##ونت": 2178,
      "لح": 2179,
      "عمومی": 2180,
      "ببین": 2181,
      "##ac": 2182,
      "موفقیت": 2183,
      "##ئن": 2184,
      "دقیق": 2185,
      "کنار": 2186,
      "فرص": 2187,
      "تما": 2188,
      "مان": 2189,
      "حقوق": 2190,
      "##قدر": 2191,
      "خلا": 2192,
      "##he": 2193,
      "سیاست": 2194,
      "رق": 2195,
      "افرادی": 2196,
      "دوم": 2197,
      "شر": 2198,
      "##وده": 2199,
      "مشکلات": 2200,
      "موق": 2201,
      "حفظ": 2202,
      "##ولوژی": 2203,
      "ساخته": 2204,
      "خداوند": 2205,
      "انگلی": 2206,
      "نکن": 2207,
      "##آمد": 2208,
      "آنجا": 2209,
      "##الت": 2210,
      "عو": 2211,
      "حک": 2212,
      "بودن": 2213,
      "##re": 2214,
      "شبکه": 2215,
      "رفتار": 2216,
      "مجمو": 2217,
      ".\"": 2218,
      "جامعه": 2219,
      "اثر": 2220,
      "نف": 2221,
      "۲۰۱": 2222,
      "##مانی": 2223,
      "##ئی": 2224,
      "حد": 2225,
      "نکرد": 2226,
      "جا": 2227,
      "حساب": 2228,
      "هو": 2229,
      "حرکت": 2230,
      "علیه": 2231,
      "##گوید": 2232,
      "دستگاه": 2233,
      "بدان": 2234,
      "صرف": 2235,
      "کشورهای": 2236,
      "##ion": 2237,
      "##مندان": 2238,
      "##رش": 2239,
      "جست": 2240,
      "قادر": 2241,
      "صفحه": 2242,
      "آنان": 2243,
      "طی": 2244,
      "##غان": 2245,
      "##هم": 2246,
      "##صر": 2247,
      "نب": 2248,
      "رئیس": 2249,
      "##ایج": 2250,
      "سوی": 2251,
      "جلو": 2252,
      "پرس": 2253,
      "##el": 2254,
      "##مز": 2255,
      "200": 2256,
      "##لح": 2257,
      "سرعت": 2258,
      "##اهده": 2259,
      "آماده": 2260,
      "فی": 2261,
      ")،": 2262,
      "مب": 2263,
      "##لق": 2264,
      "##om": 2265,
      "برس": 2266,
      "میزان": 2267,
      "##ابع": 2268,
      "##گیرد": 2269,
      "##خصص": 2270,
      "غذایی": 2271,
      "##‌ال": 2272,
      "دوباره": 2273,
      "ساده": 2274,
      "نمی‌توان": 2275,
      "##هنگ": 2276,
      "رابطه": 2277,
      "##is": 2278,
      "متفاوت": 2279,
      "##سازی": 2280,
      "##شود": 2281,
      "امید": 2282,
      "تخ": 2283,
      "##خانه": 2284,
      "خارجی": 2285,
      "سراسر": 2286,
      "##باشد": 2287,
      "##ضا": 2288,
      "بپ": 2289,
      "گذاری": 2290,
      "علاوه": 2291,
      "عض": 2292,
      "سازی": 2293,
      "آمریکایی": 2294,
      "##سال": 2295,
      "برق": 2296,
      "مار": 2297,
      "خور": 2298,
      "باور": 2299,
      "آسیب": 2300,
      "عکس": 2301,
      "مف": 2302,
      "حمل": 2303,
      "پیشنه": 2304,
      "آزاد": 2305,
      "اخیر": 2306,
      "تف": 2307,
      "هنگام": 2308,
      "ور": 2309,
      "تصویر": 2310,
      "##طان": 2311,
      "وضعیت": 2312,
      "##تن": 2313,
      "##افه": 2314,
      "ویژه": 2315,
      "جایی": 2316,
      "تل": 2317,
      "هستیم": 2318,
      "معمولا": 2319,
      "گذا": 2320,
      "دسترسی": 2321,
      "راح": 2322,
      "اینتر": 2323,
      "واقعا": 2324,
      "##کیل": 2325,
      "بیان": 2326,
      "معت": 2327,
      "##et": 2328,
      "زیاد": 2329,
      "کوت": 2330,
      "بیمار": 2331,
      "گاهی": 2332,
      "مستق": 2333,
      "خبر": 2334,
      "می‌توانید": 2335,
      "نوشت": 2336,
      "طولانی": 2337,
      "##یز": 2338,
      "بخشی": 2339,
      "##ظت": 2340,
      "##ستگی": 2341,
      "##بور": 2342,
      "دختر": 2343,
      "اشتب": 2344,
      "نتایج": 2345,
      "##ابه": 2346,
      "مشاهده": 2347,
      "تجاری": 2348,
      "##دیگر": 2349,
      "پایین": 2350,
      "حقیقت": 2351,
      "داشتن": 2352,
      "##ing": 2353,
      "##اهم": 2354,
      "بیر": 2355,
      "##ou": 2356,
      "##وجه": 2357,
      "##وریه": 2358,
      "حم": 2359,
      "##افق": 2360,
      "برگ": 2361,
      "##داف": 2362,
      "سعی": 2363,
      "می‌خواه": 2364,
      "##جو": 2365,
      "فشار": 2366,
      "مشتریان": 2367,
      "ابزار": 2368,
      "هنر": 2369,
      "منتشر": 2370,
      "##قق": 2371,
      "مکان": 2372,
      "امنیت": 2373,
      "نور": 2374,
      "مسیر": 2375,
      "##گار": 2376,
      "##ابد": 2377,
      "##جب": 2378,
      "شو": 2379,
      "آش": 2380,
      "جذ": 2381,
      "گونه": 2382,
      "عملی": 2383,
      "نشده": 2384,
      "مبت": 2385,
      "حضور": 2386,
      "فرم": 2387,
      "گل": 2388,
      "نباید": 2389,
      "آمده": 2390,
      "معن": 2391,
      "مهارت": 2392,
      "رخ": 2393,
      "قسم": 2394,
      "اقتصاد": 2395,
      "##ظیم": 2396,
      "درخواست": 2397,
      "محصولات": 2398,
      "فران": 2399,
      "کیف": 2400,
      "فرصت": 2401,
      "عالی": 2402,
      "لذ": 2403,
      "##ومت": 2404,
      "مطم": 2405,
      "معنی": 2406,
      "##عا": 2407,
      "خورد": 2408,
      "##نو": 2409,
      "ایشان": 2410,
      "تلف": 2411,
      "##لم": 2412,
      "بی‌": 2413,
      "مرح": 2414,
      "اضافه": 2415,
      "استرات": 2416,
      "مدل": 2417,
      "شناس": 2418,
      "شور": 2419,
      "##as": 2420,
      "##am": 2421,
      "حالا": 2422,
      "##ضای": 2423,
      "خش": 2424,
      "درد": 2425,
      "همکاری": 2426,
      "نظامی": 2427,
      "شناخته": 2428,
      "##ابط": 2429,
      "استراتژی": 2430,
      "اسرائ": 2431,
      "سنگ": 2432,
      "مبار": 2433,
      "##سانی": 2434,
      "موسی": 2435,
      "یافته": 2436,
      "توانایی": 2437,
      "مرکز": 2438,
      "بودم": 2439,
      "##ين": 2440,
      "##طه": 2441,
      "##امپ": 2442,
      "منابع": 2443,
      "نخست": 2444,
      "##ol": 2445,
      "##آن": 2446,
      "##لمان": 2447,
      "آمد": 2448,
      "محل": 2449,
      "##الب": 2450,
      "##ادل": 2451,
      "پیشنهاد": 2452,
      "تمرکز": 2453,
      "چیست": 2454,
      "گیرد": 2455,
      "آور": 2456,
      "ثبت": 2457,
      "##بات": 2458,
      "فرا": 2459,
      "##ماد": 2460,
      "روشن": 2461,
      "طرح": 2462,
      "##امین": 2463,
      "سمت": 2464,
      "غذا": 2465,
      "جمع": 2466,
      "کلا": 2467,
      "کشت": 2468,
      "روابط": 2469,
      "##ظر": 2470,
      "جنسی": 2471,
      "##هایت": 2472,
      "##تل": 2473,
      "اشتباه": 2474,
      "##شق": 2475,
      "##قای": 2476,
      "ترس": 2477,
      "نیستند": 2478,
      "بس": 2479,
      "##نامه": 2480,
      "ضر": 2481,
      "می‌توانند": 2482,
      "##کنان": 2483,
      "هستم": 2484,
      "بعدی": 2485,
      "پیام": 2486,
      "پیشرفت": 2487,
      "خودش": 2488,
      "دقی": 2489,
      "گوش": 2490,
      "##ریم": 2491,
      "عملکرد": 2492,
      "آگاه": 2493,
      "##ed": 2494,
      "مقام": 2495,
      "دیده": 2496,
      "خودتان": 2497,
      "روان": 2498,
      "فراهم": 2499,
      "نویس": 2500,
      "شغ": 2501,
      "##گفت": 2502,
      "##بانی": 2503,
      "اکثر": 2504,
      "##واره": 2505,
      "دهه": 2506,
      "اشاره": 2507,
      "حرفه": 2508,
      "##ائل": 2509,
      "اتح": 2510,
      "داخلی": 2511,
      "ایده": 2512,
      "متوجه": 2513,
      "##‌‌": 2514,
      "منجر": 2515,
      "انگی": 2516,
      "توضی": 2517,
      "##هر": 2518,
      "##واج": 2519,
      "تان": 2520,
      "مقدار": 2521,
      "اعتماد": 2522,
      "کدام": 2523,
      "##کنند": 2524,
      "تغییرات": 2525,
      "مدرس": 2526,
      "افغان": 2527,
      "ساله": 2528,
      "تشکیل": 2529,
      "تحقیقات": 2530,
      "صنعت": 2531,
      "نگر": 2532,
      "##il": 2533,
      "انگلیسی": 2534,
      "بگیرید": 2535,
      "##خیص": 2536,
      "گیری": 2537,
      "##گذاری": 2538,
      "یه": 2539,
      "مها": 2540,
      "دنی": 2541,
      "تحص": 2542,
      "داشتند": 2543,
      "جهت": 2544,
      "روند": 2545,
      "مراق": 2546,
      "بازاری": 2547,
      "تمرین": 2548,
      "نداشت": 2549,
      "استخ": 2550,
      "منظور": 2551,
      "##ناه": 2552,
      "آخرین": 2553,
      "##رار": 2554,
      "ماشین": 2555,
      "اسپ": 2556,
      "پوست": 2557,
      "مشتری": 2558,
      "ویژ": 2559,
      "سوم": 2560,
      "##ریف": 2561,
      "تشخیص": 2562,
      "کال": 2563,
      "رژ": 2564,
      "ماند": 2565,
      "دقیقه": 2566,
      "##‌آ": 2567,
      "برد": 2568,
      "خواهیم": 2569,
      "کاربران": 2570,
      "توضیح": 2571,
      "رسد": 2572,
      "ندارند": 2573,
      "دوستان": 2574,
      "باشیم": 2575,
      "هوش": 2576,
      "گرفتن": 2577,
      "the": 2578,
      "##حال": 2579,
      "##ینه": 2580,
      "##شناس": 2581,
      "مطمئن": 2582,
      "دهیم": 2583,
      "اپ": 2584,
      "پوش": 2585,
      "سخن": 2586,
      "شاه": 2587,
      "##حل": 2588,
      "مستقیم": 2589,
      "in": 2590,
      "می‌د": 2591,
      "مرحله": 2592,
      "حمله": 2593,
      "اتاق": 2594,
      "باقی": 2595,
      "انقل": 2596,
      "##لیغ": 2597,
      "آزادی": 2598,
      "توصیه": 2599,
      "تبلیغ": 2600,
      "افز": 2601,
      "وسی": 2602,
      "هفت": 2603,
      "##لاین": 2604,
      "برخورد": 2605,
      "می‌آ": 2606,
      "متن": 2607,
      "ظاه": 2608,
      "ازد": 2609,
      "##یتال": 2610,
      "کوتاه": 2611,
      "##گون": 2612,
      "وزن": 2613,
      "عشق": 2614,
      "##عیین": 2615,
      "نفت": 2616,
      "اهداف": 2617,
      "آلمان": 2618,
      "تعیین": 2619,
      "انوا": 2620,
      "جریان": 2621,
      "##راک": 2622,
      "واقعیت": 2623,
      "##گل": 2624,
      "##راف": 2625,
      "نمود": 2626,
      "شکست": 2627,
      "گوی": 2628,
      "تس": 2629,
      "امر": 2630,
      "نهایت": 2631,
      "##میز": 2632,
      "انواع": 2633,
      "##مون": 2634,
      "مرتبط": 2635,
      "رژیم": 2636,
      "سوریه": 2637,
      "۱۰": 2638,
      "گوید": 2639,
      "مردان": 2640,
      "پاک": 2641,
      "##افت": 2642,
      "بلند": 2643,
      "مغز": 2644,
      "##oo": 2645,
      "رود": 2646,
      "بسته": 2647,
      "بانک": 2648,
      "ارس": 2649,
      "دری": 2650,
      "استاند": 2651,
      "عق": 2652,
      "کاناد": 2653,
      "تمامی": 2654,
      "مناط": 2655,
      "تای": 2656,
      "می‌کنید": 2657,
      "تهدید": 2658,
      "توافق": 2659,
      "بیرون": 2660,
      "##ad": 2661,
      "مشابه": 2662,
      "چندین": 2663,
      "این‌": 2664,
      "محقق": 2665,
      "حالت": 2666,
      "ابتدا": 2667,
      "اطلاع": 2668,
      "می‌رس": 2669,
      "بحث": 2670,
      "اطمین": 2671,
      "سلامت": 2672,
      "موسیقی": 2673,
      "##راح": 2674,
      "##قا": 2675,
      "جمهوری": 2676,
      "درآمد": 2677,
      "یکدیگر": 2678,
      "نسخ": 2679,
      "مدرسه": 2680,
      "داخل": 2681,
      "همچنان": 2682,
      "##iv": 2683,
      "میل": 2684,
      "اجرا": 2685,
      "##امت": 2686,
      "محاف": 2687,
      "آت": 2688,
      "نرم": 2689,
      "##ادگی": 2690,
      "اطمینان": 2691,
      "##تح": 2692,
      "نوشته": 2693,
      "مال": 2694,
      "لذت": 2695,
      "استاندارد": 2696,
      "اسرائیل": 2697,
      "عرض": 2698,
      "##الد": 2699,
      "جلوگیری": 2700,
      "اینترنت": 2701,
      "اهمیت": 2702,
      "آنلاین": 2703,
      "می‌گوید": 2704,
      "ازدواج": 2705,
      "آسان": 2706,
      "##ch": 2707,
      "##اموش": 2708,
      "سرطان": 2709,
      "##بیه": 2710,
      "کیفیت": 2711,
      "قوی": 2712,
      "محلی": 2713,
      "قسمت": 2714,
      "سفید": 2715,
      "سود": 2716,
      "پزشکی": 2717,
      "##وتی": 2718,
      "شدید": 2719,
      "##ادت": 2720,
      "ورزش": 2721,
      "نکنید": 2722,
      "ویژگی": 2723,
      "اعضای": 2724,
      "ذهن": 2725,
      "##ایش": 2726,
      "ویر": 2727,
      "خصوصی": 2728,
      "نص": 2729,
      "کشف": 2730,
      "فرانسه": 2731,
      "سلول": 2732,
      "بازگ": 2733,
      "##قد": 2734,
      "درو": 2735,
      "##پیم": 2736,
      "پاد": 2737,
      "افغانستان": 2738,
      "تکنولوژی": 2739,
      "##تور": 2740,
      "راست": 2741,
      "جدا": 2742,
      "طبق": 2743,
      "فیزی": 2744,
      "عرا": 2745,
      "خی": 2746,
      "پیچ": 2747,
      "گزینه": 2748,
      "می‌کنم": 2749,
      "##اصل": 2750,
      "##داشته": 2751,
      "تأثیر": 2752,
      "اختی": 2753,
      "نخواهد": 2754,
      "کامپی": 2755,
      "ارسال": 2756,
      "بگذار": 2757,
      "فوق": 2758,
      "اولیه": 2759,
      "دوران": 2760,
      "12": 2761,
      "##جات": 2762,
      "علاقه": 2763,
      "st": 2764,
      "##لیس": 2765,
      "##وتر": 2766,
      "##انیا": 2767,
      "سالم": 2768,
      "میلیارد": 2769,
      "سوال": 2770,
      "بازاریابی": 2771,
      "##اها": 2772,
      "آرام": 2773,
      "##یبانی": 2774,
      "##وبی": 2775,
      ".”": 2776,
      "عد": 2777,
      "قرن": 2778,
      "##وای": 2779,
      "گسترش": 2780,
      "##رفی": 2781,
      "تجارت": 2782,
      "پشتیبانی": 2783,
      "قوان": 2784,
      "مای": 2785,
      "وس": 2786,
      "فرهنگ": 2787,
      "دادند": 2788,
      "کی": 2789,
      "##ابق": 2790,
      "##نم": 2791,
      "انتقال": 2792,
      "##رافی": 2793,
      "مجموعه": 2794,
      "نیم": 2795,
      "ارز": 2796,
      "##id": 2797,
      "برنام": 2798,
      "##فاع": 2799,
      "مناطق": 2800,
      "بو": 2801,
      "مسئله": 2802,
      "##اکر": 2803,
      "پل": 2804,
      "##لیت": 2805,
      "جدی": 2806,
      "آموزان": 2807,
      "ترکیه": 2808,
      "بندی": 2809,
      "تفاوت": 2810,
      "##ئم": 2811,
      "مسائل": 2812,
      "دانشجوی": 2813,
      "پژ": 2814,
      "##لاف": 2815,
      "##چار": 2816,
      "حیوان": 2817,
      "ترامپ": 2818,
      "امریک": 2819,
      "تصور": 2820,
      "جدیدی": 2821,
      "آقای": 2822,
      "تنظیم": 2823,
      "متخصص": 2824,
      "15": 2825,
      "می‌کنیم": 2826,
      "کلم": 2827,
      "می‌دهند": 2828,
      "خودم": 2829,
      "شخصیت": 2830,
      "اسل": 2831,
      "اوقات": 2832,
      "کارهای": 2833,
      "کنندگان": 2834,
      "فار": 2835,
      "رفتن": 2836,
      "18": 2837,
      "آدم": 2838,
      "هند": 2839,
      "##اوی": 2840,
      "فرزند": 2841,
      "##جم": 2842,
      "خواهم": 2843,
      "زنده": 2844,
      "فلس": 2845,
      "##بح": 2846,
      "مقاله": 2847,
      "نیروهای": 2848,
      "قلب": 2849,
      "تماس": 2850,
      "احتمالا": 2851,
      "قوانین": 2852,
      "مجبور": 2853,
      "گسترده": 2854,
      "##ریه": 2855,
      "آتش": 2856,
      "##ولیت": 2857,
      "شیر": 2858,
      "تحلیل": 2859,
      "دنیای": 2860,
      "یادگیری": 2861,
      "حز": 2862,
      "ساختمان": 2863,
      "یابد": 2864,
      "##جمه": 2865,
      "موس": 2866,
      "##کته": 2867,
      "کردیم": 2868,
      "پژوه": 2869,
      "صلح": 2870,
      "##اج": 2871,
      "قدیمی": 2872,
      "چقدر": 2873,
      "بهداشت": 2874,
      "معرفی": 2875,
      "بگوی": 2876,
      "گوگل": 2877,
      "مشترک": 2878,
      "اله": 2879,
      "قصد": 2880,
      "مقابل": 2881,
      "##ازد": 2882,
      "اختیار": 2883,
      "هواپیم": 2884,
      "##دای": 2885,
      "آس": 2886,
      "بنی": 2887,
      "an": 2888,
      "##خصوص": 2889,
      "مبارزه": 2890,
      "بش": 2891,
      "موقعیت": 2892,
      "برند": 2893,
      "بازگشت": 2894,
      "انسانی": 2895,
      "##یند": 2896,
      "صبح": 2897,
      "دارو": 2898,
      "بزرگترین": 2899,
      "تض": 2900,
      "تاب": 2901,
      "مدار": 2902,
      "فضای": 2903,
      "شان": 2904,
      "امنی": 2905,
      "اتحادی": 2906,
      "بازدید": 2907,
      "عراق": 2908,
      "اعمال": 2909,
      "##ئو": 2910,
      "##نتی": 2911,
      "رسیدن": 2912,
      "درون": 2913,
      "سیاه": 2914,
      "ببر": 2915,
      "##رن": 2916,
      "بچه": 2917,
      "دستور": 2918,
      "مقای": 2919,
      "##ot": 2920,
      "چطور": 2921,
      "##خش": 2922,
      "##شناسی": 2923,
      "##os": 2924,
      "دچار": 2925,
      "##وزی": 2926,
      "ایست": 2927,
      "کا": 2928,
      "رسانه": 2929,
      "نیروی": 2930,
      "of": 2931,
      "##ینگ": 2932,
      "نسخه": 2933,
      "##شده": 2934,
      "##ناک": 2935,
      "عدم": 2936,
      "##کنش": 2937,
      "همانطور": 2938,
      "ارزی": 2939,
      "آید": 2940,
      "وظ": 2941,
      "میتوان": 2942,
      "متع": 2943,
      "مذاکر": 2944,
      "##گزین": 2945,
      "کانادا": 2946,
      "شبیه": 2947,
      "##ویزی": 2948,
      "علمی": 2949,
      "فصل": 2950,
      "##لود": 2951,
      "بشر": 2952,
      "بهره": 2953,
      "ترکیب": 2954,
      "فل": 2955,
      "##پذیر": 2956,
      "۲۰۰": 2957,
      "دوربین": 2958,
      "عبارت": 2959,
      "##ec": 2960,
      "##ay": 2961,
      "##خته": 2962,
      "ژاپ": 2963,
      "بزر": 2964,
      "دکتر": 2965,
      "بینی": 2966,
      "گذاشت": 2967,
      "تلفن": 2968,
      "مقایسه": 2969,
      "حاصل": 2970,
      "جستجو": 2971,
      "لباس": 2972,
      "شده‌اند": 2973,
      "##‌تان": 2974,
      "مثبت": 2975,
      "نمونه": 2976,
      "ناب": 2977,
      "جایگزین": 2978,
      "فردی": 2979,
      "امنیتی": 2980,
      "##ig": 2981,
      "کمپ": 2982,
      "مسی": 2983,
      "گرم": 2984,
      "رسمی": 2985,
      "مهاج": 2986,
      "##یک": 2987,
      "موا": 2988,
      "نقطه": 2989,
      "حزب": 2990,
      "عص": 2991,
      "تروری": 2992,
      "مفید": 2993,
      "شش": 2994,
      "نار": 2995,
      "قل": 2996,
      "##ایند": 2997,
      "تلویزی": 2998,
      "##انت": 2999,
      "دسترس": 3000,
      "وح": 3001,
      "##زا": 3002,
      "##ent": 3003,
      "##بع": 3004,
      "##ستانی": 3005,
      "می‌دان": 3006,
      "##روت": 3007,
      "الله": 3008,
      "عاش": 3009,
      "نح": 3010,
      "کره": 3011,
      "تازه": 3012,
      "مشاور": 3013,
      "شدت": 3014,
      "##ورتی": 3015,
      "متوس": 3016,
      "##اشی": 3017,
      "##عهد": 3018,
      "گردد": 3019,
      "ارزیابی": 3020,
      "اطراف": 3021,
      "سرد": 3022,
      "##آوری": 3023,
      "امیدوار": 3024,
      "فراموش": 3025,
      "مدا": 3026,
      "محققان": 3027,
      "شهرو": 3028,
      "بک": 3029,
      "شا": 3030,
      "عرب": 3031,
      "##us": 3032,
      "قرآن": 3033,
      "##خواهید": 3034,
      "شناسایی": 3035,
      "##لال": 3036,
      "موثر": 3037,
      "صادر": 3038,
      "تکر": 3039,
      "مراقبت": 3040,
      "عمی": 3041,
      "##تون": 3042,
      "دیج": 3043,
      "دندان": 3044,
      "##سیم": 3045,
      "راحتی": 3046,
      "ابر": 3047,
      "##سیس": 3048,
      "خودشان": 3049,
      "بمان": 3050,
      "ذخ": 3051,
      "جمعیت": 3052,
      "زود": 3053,
      "دمو": 3054,
      "##نوان": 3055,
      "##رال": 3056,
      "موتور": 3057,
      "قانونی": 3058,
      "عامل": 3059,
      "##کننده": 3060,
      "روح": 3061,
      "مطالعات": 3062,
      "##اتیک": 3063,
      "##هنگی": 3064,
      "کامپیوتر": 3065,
      "ضد": 3066,
      "خاصی": 3067,
      "##‌و": 3068,
      "کجا": 3069,
      "##عده": 3070,
      "دولتی": 3071,
      "اشتراک": 3072,
      "دش": 3073,
      "عضو": 3074,
      "اسلامی": 3075,
      "پزشک": 3076,
      "دع": 3077,
      "سبک": 3078,
      "خوردن": 3079,
      "##نگی": 3080,
      "نقل": 3081,
      "انداز": 3082,
      "حذ": 3083,
      "روزانه": 3084,
      "##ریب": 3085,
      "مز": 3086,
      "چال": 3087,
      "خودرو": 3088,
      "تعریف": 3089,
      "افس": 3090,
      "نداشته": 3091,
      "هدایت": 3092,
      "ریا": 3093,
      "فوت": 3094,
      "آوری": 3095,
      "لو": 3096,
      "بزرگی": 3097,
      "##عتی": 3098,
      "اگرچه": 3099,
      "کرده‌اند": 3100,
      "پرواز": 3101,
      "##لاً": 3102,
      "زیب": 3103,
      "انقلاب": 3104,
      "نکته": 3105,
      "مطرح": 3106,
      "##ag": 3107,
      "دانشجویان": 3108,
      "اتحادیه": 3109,
      "##لند": 3110,
      "کلاس": 3111,
      "آف": 3112,
      "آن‌": 3113,
      "منبع": 3114,
      "پروت": 3115,
      "چیزهایی": 3116,
      "دشم": 3117,
      "موجب": 3118,
      "امام": 3119,
      "مؤ": 3120,
      "واکنش": 3121,
      "##سیون": 3122,
      "دهنده": 3123,
      "علت": 3124,
      "حوز": 3125,
      "ضروری": 3126,
      "دستی": 3127,
      "مواجه": 3128,
      "##em": 3129,
      "درجه": 3130,
      "تحصیل": 3131,
      "##کید": 3132,
      "فرهنگی": 3133,
      "انتخابات": 3134,
      "همسر": 3135,
      "بارد": 3136,
      "متر": 3137,
      "##وران": 3138,
      "##انیه": 3139,
      "##اویر": 3140,
      "ورود": 3141,
      "حذف": 3142,
      "علائم": 3143,
      "برگزار": 3144,
      "ویت": 3145,
      "رسیده": 3146,
      "مبتلا": 3147,
      "##شا": 3148,
      "جذب": 3149,
      "واح": 3150,
      "منح": 3151,
      "ثابت": 3152,
      "##طر": 3153,
      "امروزه": 3154,
      "##گردان": 3155,
      "دفاع": 3156,
      "پلیس": 3157,
      "الکتر": 3158,
      "##ow": 3159,
      "ببینید": 3160,
      "گیرند": 3161,
      "دانلود": 3162,
      "اساسی": 3163,
      "##ur": 3164,
      "الع": 3165,
      "متوسط": 3166,
      "چرخ": 3167,
      "##تا": 3168,
      "##صه": 3169,
      "##ه‌ام": 3170,
      "پسر": 3171,
      "بخوان": 3172,
      "##هور": 3173,
      "همس": 3174,
      "قطع": 3175,
      "عاشق": 3176,
      "تمای": 3177,
      "پست": 3178,
      "زیست": 3179,
      "تصاویر": 3180,
      "##ap": 3181,
      "اجرای": 3182,
      "بین‌ال": 3183,
      "100": 3184,
      "جمهور": 3185,
      "هوشمند": 3186,
      "ثروت": 3187,
      "##وف": 3188,
      "##ئین": 3189,
      "نامه": 3190,
      "مخال": 3191,
      "نجات": 3192,
      "تست": 3193,
      "امور": 3194,
      "ساختار": 3195,
      "آموزشی": 3196,
      "نگران": 3197,
      "##‌ب": 3198,
      "شمالی": 3199,
      "محافظت": 3200,
      "معتقد": 3201,
      "اصلاح": 3202,
      "توانست": 3203,
      "آشن": 3204,
      "محتوای": 3205,
      "محب": 3206,
      "دیدگاه": 3207,
      "فنا": 3208,
      "بدانید": 3209,
      "پژوهش": 3210,
      "حکومت": 3211,
      "فرآ": 3212,
      "سرمایه‌": 3213,
      "فرمان": 3214,
      "##...": 3215,
      "می‌شد": 3216,
      "چالش": 3217,
      "بگیرد": 3218,
      "مدرن": 3219,
      "وزیر": 3220,
      "توانیم": 3221,
      "رفته": 3222,
      "مسلمان": 3223,
      "##سب": 3224,
      "##‌شان": 3225,
      "بلا": 3226,
      "پا": 3227,
      "ماهی": 3228,
      "فایل": 3229,
      "قاب": 3230,
      "برج": 3231,
      "##وریت": 3232,
      "معمولاً": 3233,
      "فناوری": 3234,
      "کاربرد": 3235,
      "بریت": 3236,
      "##وح": 3237,
      "##نش": 3238,
      "##ایع": 3239,
      "30": 3240,
      "معنای": 3241,
      "شغل": 3242,
      "##im": 3243,
      "##ut": 3244,
      "قرارد": 3245,
      "ارتش": 3246,
      "زده": 3247,
      "سق": 3248,
      "##ژن": 3249,
      "صدای": 3250,
      "ترتی": 3251,
      "ظاهر": 3252,
      "واحد": 3253,
      "مرک": 3254,
      "رقابت": 3255,
      "11": 3256,
      "##جان": 3257,
      "کلیدی": 3258,
      "بگو": 3259,
      "##وئ": 3260,
      "##سون": 3261,
      "##کتری": 3262,
      "199": 3263,
      "##روف": 3264,
      "می‌رسد": 3265,
      "خواندن": 3266,
      "علی": 3267,
      "اینها": 3268,
      "قبلی": 3269,
      "##وانی": 3270,
      "مشار": 3271,
      "رهبری": 3272,
      "لط": 3273,
      "شگفت": 3274,
      "##غال": 3275,
      "مسئول": 3276,
      "مگر": 3277,
      "کارت": 3278,
      "شیمی": 3279,
      "##يد": 3280,
      "دیدن": 3281,
      "نخستین": 3282,
      "آنکه": 3283,
      "متوق": 3284,
      "بالای": 3285,
      "گاز": 3286,
      "شع": 3287,
      "مسا": 3288,
      "خشونت": 3289,
      "نگرانی": 3290,
      "متوقف": 3291,
      "آفریق": 3292,
      "لیست": 3293,
      "##کاران": 3294,
      "زیبا": 3295,
      "بتواند": 3296,
      "##نام": 3297,
      "##دایی": 3298,
      "کلمه": 3299,
      "جزئی": 3300,
      "جالب": 3301,
      "##‌ای": 3302,
      "مسئولیت": 3303,
      "گویند": 3304,
      "##زارت": 3305,
      "مهند": 3306,
      "عف": 3307,
      "مقامات": 3308,
      "جشن": 3309,
      "##ابقه": 3310,
      "ملل": 3311,
      "اختص": 3312,
      "نوز": 3313,
      "والد": 3314,
      "##زمین": 3315,
      "روید": 3316,
      "بیماران": 3317,
      "هشت": 3318,
      "##رانی": 3319,
      "مجاز": 3320,
      "امریکا": 3321,
      "لین": 3322,
      "آد": 3323,
      "دانشمندان": 3324,
      "تور": 3325,
      "کد": 3326,
      "برادر": 3327,
      "کشورها": 3328,
      "##اصله": 3329,
      "ناشی": 3330,
      "لحظه": 3331,
      "استرس": 3332,
      "اعتق": 3333,
      "بله": 3334,
      "جنوبی": 3335,
      "منفی": 3336,
      "سرویس": 3337,
      "مهمی": 3338,
      "پرداز": 3339,
      "بین‌المللی": 3340,
      "مرز": 3341,
      "وزارت": 3342,
      "##کنندگان": 3343,
      "##فع": 3344,
      "دانست": 3345,
      "اقدامات": 3346,
      "عوامل": 3347,
      "آخر": 3348,
      "پارک": 3349,
      "کشته": 3350,
      "##oc": 3351,
      "جنب": 3352,
      "اث": 3353,
      "اين": 3354,
      "ظرف": 3355,
      "می‌گوی": 3356,
      "علم": 3357,
      "ترتیب": 3358,
      "انگیز": 3359,
      "مزای": 3360,
      "##ers": 3361,
      "ماده": 3362,
      "پایه": 3363,
      "بزن": 3364,
      "می‌ر": 3365,
      "خدمت": 3366,
      "##کا": 3367,
      "##ابان": 3368,
      "نیازهای": 3369,
      "تکرار": 3370,
      "قدم": 3371,
      "درمانی": 3372,
      "اسلام": 3373,
      "##داران": 3374,
      "##ation": 3375,
      "عمیق": 3376,
      "##شنبه": 3377,
      "افتاد": 3378,
      "جواب": 3379,
      "##آورد": 3380,
      "هوایی": 3381,
      "##گانه": 3382,
      "##ماز": 3383,
      "##اظ": 3384,
      "دروغ": 3385,
      "باشم": 3386,
      "##un": 3387,
      "تقویت": 3388,
      "فاصله": 3389,
      "13": 3390,
      "مقا": 3391,
      "##ادهای": 3392,
      "##میل": 3393,
      "بالاتر": 3394,
      "نرخ": 3395,
      "اخلا": 3396,
      "فرآیند": 3397,
      "موش": 3398,
      "تاریخی": 3399,
      "فرزندان": 3400,
      "سع": 3401,
      "۱۵": 3402,
      "محبوب": 3403,
      "بند": 3404,
      "نهایی": 3405,
      "کاربر": 3406,
      "احتر": 3407,
      "بم": 3408,
      "افزار": 3409,
      "ایمیل": 3410,
      "ارشد": 3411,
      "##ir": 3412,
      "معرض": 3413,
      "بای": 3414,
      "ایرانی": 3415,
      "عملیات": 3416,
      "اظه": 3417,
      "مشارکت": 3418,
      "عرضه": 3419,
      "##شند": 3420,
      "میکن": 3421,
      "هشد": 3422,
      "##لاگ": 3423,
      "نشانه": 3424,
      "##ویه": 3425,
      "شمار": 3426,
      "عمر": 3427,
      "سلاح": 3428,
      "غرب": 3429,
      "ملا": 3430,
      "##سا": 3431,
      "همواره": 3432,
      "تد": 3433,
      "نکرده": 3434,
      "قابلیت": 3435,
      "محک": 3436,
      "اظهار": 3437,
      "ذکر": 3438,
      "شدم": 3439,
      "پوشش": 3440,
      "نصب": 3441,
      "کاملاً": 3442,
      "##ــ": 3443,
      "کارکنان": 3444,
      "اختصاص": 3445,
      "صاح": 3446,
      "صورتی": 3447,
      "انج": 3448,
      "مشغ": 3449,
      "نسل": 3450,
      "شماره": 3451,
      "##ریت": 3452,
      "بحران": 3453,
      "برسد": 3454,
      "زدن": 3455,
      "پرت": 3456,
      "خانم": 3457,
      "اطلاعاتی": 3458,
      "دیجیتال": 3459,
      "##راج": 3460,
      "##زد": 3461,
      "رسان": 3462,
      "مجد": 3463,
      "کشتی": 3464,
      "خلق": 3465,
      "ریزی": 3466,
      "هتل": 3467,
      "بگیرند": 3468,
      "دشوار": 3469,
      "نوشتن": 3470,
      "پیچیده": 3471,
      "ذخیره": 3472,
      "حوزه": 3473,
      "اعتقاد": 3474,
      "کف": 3475,
      "رد": 3476,
      "کشاور": 3477,
      "؟!": 3478,
      "مانده": 3479,
      "تقسیم": 3480,
      "حفا": 3481,
      "عه": 3482,
      "##چی": 3483,
      "مرکزی": 3484,
      "وعده": 3485,
      "##زم": 3486,
      "فیزیکی": 3487,
      "مسافر": 3488,
      "##ه‌اید": 3489,
      "##داد": 3490,
      "حیوانات": 3491,
      "25": 3492,
      "صند": 3493,
      "##لات": 3494,
      "قبول": 3495,
      "والدین": 3496,
      "ممن": 3497,
      "روب": 3498,
      "خلاق": 3499,
      "زندان": 3500,
      "##ه‌هایی": 3501,
      "طلا": 3502,
      "چینی": 3503,
      "##عیف": 3504,
      "محدودیت": 3505,
      "ژاپن": 3506,
      "آشکار": 3507,
      "خودمان": 3508,
      "مستقل": 3509,
      "صدا": 3510,
      "گون": 3511,
      "نفس": 3512,
      "واقعاً": 3513,
      "احساسات": 3514,
      "##سات": 3515,
      "انتشار": 3516,
      "تلویزیون": 3517,
      "غربی": 3518,
      "##اصر": 3519,
      "نمایند": 3520,
      "اکت": 3521,
      "ماد": 3522,
      "##ورش": 3523,
      "اعتر": 3524,
      "به‌ع": 3525,
      "بست": 3526,
      "سگ": 3527,
      "کلمات": 3528,
      "چاپ": 3529,
      "سرب": 3530,
      "مختلفی": 3531,
      "استاد": 3532,
      "آوردن": 3533,
      "رایگان": 3534,
      "16": 3535,
      "سلامتی": 3536,
      "هشدار": 3537,
      "##کرو": 3538,
      "خرو": 3539,
      "زیبایی": 3540,
      "مشغول": 3541,
      "درس": 3542,
      "مناف": 3543,
      "مي": 3544,
      "کیل": 3545,
      "قدرتمند": 3546,
      "دفت": 3547,
      "مام": 3548,
      "##ورک": 3549,
      "واب": 3550,
      "##ایه": 3551,
      "گوشی": 3552,
      "؟»": 3553,
      "نتوان": 3554,
      "سالگی": 3555,
      "گردش": 3556,
      "اقامت": 3557,
      "عوض": 3558,
      "علوم": 3559,
      "اروپایی": 3560,
      "الان": 3561,
      "تهیه": 3562,
      "##پر": 3563,
      "نظام": 3564,
      "مذه": 3565,
      "برقرار": 3566,
      "تایید": 3567,
      "##اندن": 3568,
      "اداره": 3569,
      "گفتند": 3570,
      "فن": 3571,
      "نباشد": 3572,
      "##ul": 3573,
      "میشود": 3574,
      "##یمان": 3575,
      "##وله": 3576,
      "متحد": 3577,
      "روزی": 3578,
      "بچ": 3579,
      "سین": 3580,
      "قه": 3581,
      "##‌اش": 3582,
      "دهم": 3583,
      "فیس": 3584,
      "پناه": 3585,
      "##گن": 3586,
      "استرال": 3587,
      "هسته": 3588,
      "ول": 3589,
      "کری": 3590,
      "مقر": 3591,
      "##غن": 3592,
      "رهبران": 3593,
      "لحاظ": 3594,
      "50": 3595,
      "جراحی": 3596,
      "مخاط": 3597,
      "خورشید": 3598,
      "تضمین": 3599,
      "فرض": 3600,
      "##قیه": 3601,
      "استرالیا": 3602,
      "##ia": 3603,
      "می‌باشد": 3604,
      "دادگاه": 3605,
      "راحت": 3606,
      "افزود": 3607,
      "راهی": 3608,
      "ستاره": 3609,
      "مخصوص": 3610,
      "##od": 3611,
      "داشتم": 3612,
      "##um": 3613,
      "##دهد": 3614,
      "دلایل": 3615,
      "اون": 3616,
      "رانند": 3617,
      "com": 3618,
      "خیر": 3619,
      "وسیله": 3620,
      "زد": 3621,
      "عین": 3622,
      "میدان": 3623,
      "تحریم": 3624,
      "خوشحال": 3625,
      "تجه": 3626,
      "خوی": 3627,
      "دام": 3628,
      "چگون": 3629,
      "نماید": 3630,
      "تری": 3631,
      "داری": 3632,
      "فهم": 3633,
      "آورده": 3634,
      "##ومی": 3635,
      "##زمان": 3636,
      "درخت": 3637,
      "موضو": 3638,
      "مصاح": 3639,
      "تجهیز": 3640,
      "##ادث": 3641,
      "##ویق": 3642,
      "فعلی": 3643,
      "احترام": 3644,
      "نشد": 3645,
      "تولد": 3646,
      "##نز": 3647,
      "صنعتی": 3648,
      "آپ": 3649,
      "دین": 3650,
      "کارآ": 3651,
      "نظارت": 3652,
      "پادش": 3653,
      "العاده": 3654,
      "به‌طور": 3655,
      "آگاهی": 3656,
      "##یسی": 3657,
      "##اهد": 3658,
      "شیوه": 3659,
      "تبلیغات": 3660,
      "14": 3661,
      "رشته": 3662,
      "خاک": 3663,
      "۱۲": 3664,
      "ایمان": 3665,
      "عربستان": 3666,
      "چگونگی": 3667,
      "خدای": 3668,
      "##کات": 3669,
      "فرست": 3670,
      "یون": 3671,
      "گران": 3672,
      "سازد": 3673,
      "##سل": 3674,
      "مکانی": 3675,
      "حفاظت": 3676,
      "عادی": 3677,
      "می‌کردند": 3678,
      "میکند": 3679,
      "تمایل": 3680,
      "شمال": 3681,
      "##بیل": 3682,
      "قربانی": 3683,
      "مجموع": 3684,
      "دقت": 3685,
      "فرود": 3686,
      "متم": 3687,
      "عجی": 3688,
      "گذار": 3689,
      "منافع": 3690,
      "اصل": 3691,
      "بگذارید": 3692,
      "مطلب": 3693,
      "##بینی": 3694,
      "سبز": 3695,
      "رت": 3696,
      "##ذی": 3697,
      "دفتر": 3698,
      "##ter": 3699,
      "re": 3700,
      "گام": 3701,
      "امتح": 3702,
      "##بیر": 3703,
      "شیمیایی": 3704,
      "پو": 3705,
      "بدهید": 3706,
      "بریتانیا": 3707,
      "##گردد": 3708,
      "گذاشته": 3709,
      "می‌گیرد": 3710,
      "ترجی": 3711,
      "نیازمند": 3712,
      "منتقل": 3713,
      "ریس": 3714,
      "##زل": 3715,
      "##کلی": 3716,
      "گم": 3717,
      "رنج": 3718,
      "نویسنده": 3719,
      "می‌گیر": 3720,
      "نشست": 3721,
      "الکترونی": 3722,
      "مفه": 3723,
      "دربار": 3724,
      "شهری": 3725,
      "فروشگاه": 3726,
      "تقریباً": 3727,
      "##الم": 3728,
      "بدست": 3729,
      "طبیعت": 3730,
      "کوه": 3731,
      "##باری": 3732,
      "بیمارستان": 3733,
      "امتحان": 3734,
      "##گذارد": 3735,
      "تعط": 3736,
      "گروهی": 3737,
      "نحوه": 3738,
      "##خواهند": 3739,
      "شاهد": 3740,
      "پیش‌": 3741,
      "##رایی": 3742,
      "چنان": 3743,
      "منتظر": 3744,
      "فلسط": 3745,
      "نوعی": 3746,
      "گذشت": 3747,
      "جنوب": 3748,
      "هزاران": 3749,
      "عفونت": 3750,
      "وید": 3751,
      "##ریزی": 3752,
      "ایمنی": 3753,
      "عقب": 3754,
      "##عم": 3755,
      "کارگران": 3756,
      "اسم": 3757,
      "دعوت": 3758,
      "##ess": 3759,
      "وبلاگ": 3760,
      "ch": 3761,
      "روغن": 3762,
      "شده‌": 3763,
      "##ه‌ایم": 3764,
      "نقاط": 3765,
      "کلید": 3766,
      "بتوانند": 3767,
      "نوزاد": 3768,
      "تامین": 3769,
      "۳۰": 3770,
      "##فانه": 3771,
      "محس": 3772,
      "منحصر": 3773,
      "....": 3774,
      "##فاقی": 3775,
      "بستگی": 3776,
      "دانم": 3777,
      "اتفاقی": 3778,
      "ترجیح": 3779,
      "اوایل": 3780,
      "تعدادی": 3781,
      "##گزاری": 3782,
      "نگهداری": 3783,
      "##‌س": 3784,
      "رادی": 3785,
      "آسمان": 3786,
      "به‌عنوان": 3787,
      ".[": 3788,
      "تخصص": 3789,
      "حاف": 3790,
      "##ip": 3791,
      "##and": 3792,
      "ویتامین": 3793,
      "حملات": 3794,
      "متصل": 3795,
      "یهودی": 3796,
      "هرچ": 3797,
      "اصول": 3798,
      "رهبر": 3799,
      "17": 3800,
      "تعهد": 3801,
      "حتما": 3802,
      "##سک": 3803,
      "##انگی": 3804,
      "توصیف": 3805,
      "طوری": 3806,
      "##بخ": 3807,
      "قرارداد": 3808,
      "عک": 3809,
      "جذاب": 3810,
      "خواسته": 3811,
      "دریایی": 3812,
      "دسته": 3813,
      "کارها": 3814,
      "##حیح": 3815,
      "قهوه": 3816,
      "اعد": 3817,
      "##اده‌": 3818,
      "##اضی": 3819,
      "##ویم": 3820,
      "##ردگی": 3821,
      "بید": 3822,
      "دیر": 3823,
      "رح": 3824,
      "##روم": 3825,
      "ارد": 3826,
      "انگل": 3827,
      "ملاقات": 3828,
      "نبا": 3829,
      "تقاض": 3830,
      "##گین": 3831,
      "مهاجرت": 3832,
      "مایل": 3833,
      "##th": 3834,
      "##راسی": 3835,
      "آفر": 3836,
      "##op": 3837,
      "ژان": 3838,
      "##اما": 3839,
      "ترجمه": 3840,
      "گفتم": 3841,
      "پنه": 3842,
      "سرزمین": 3843,
      "می‌گویند": 3844,
      "بقیه": 3845,
      "پاید": 3846,
      "بردن": 3847,
      "##تناب": 3848,
      "الهی": 3849,
      "##ab": 3850,
      "عبور": 3851,
      "وظیف": 3852,
      "جع": 3853,
      "سک": 3854,
      "سوخت": 3855,
      "افتد": 3856,
      "اجتناب": 3857,
      "اهل": 3858,
      "مزایای": 3859,
      "تئ": 3860,
      "برچ": 3861,
      "بودیم": 3862,
      "گیاه": 3863,
      "##وسی": 3864,
      "کنی": 3865,
      "جایزه": 3866,
      "نیوی": 3867,
      "باغ": 3868,
      "پیروزی": 3869,
      "##ce": 3870,
      "##ایق": 3871,
      "بروید": 3872,
      "تاکنون": 3873,
      "مدیران": 3874,
      "کانال": 3875,
      "شویم": 3876,
      "میلادی": 3877,
      "بروز": 3878,
      "بودجه": 3879,
      "ارتباطات": 3880,
      "چپ": 3881,
      "آزمون": 3882,
      "قهر": 3883,
      "فراتر": 3884,
      "جلسه": 3885,
      "تکنیک": 3886,
      "بهتری": 3887,
      "رست": 3888,
      "تشویق": 3889,
      "and": 3890,
      "مقاومت": 3891,
      "انجمن": 3892,
      "باره": 3893,
      "۱۰۰": 3894,
      "اصلا": 3895,
      "پدید": 3896,
      "فرایند": 3897,
      "نامیده": 3898,
      "ناراح": 3899,
      "مخالف": 3900,
      "۱۸": 3901,
      "روست": 3902,
      "##مولی": 3903,
      "عادت": 3904,
      "گناه": 3905,
      "پیشرفته": 3906,
      "آبی": 3907,
      "قبلا": 3908,
      "شهروندان": 3909,
      "رض": 3910,
      "##ولد": 3911,
      "فضا": 3912,
      "شف": 3913,
      "##یدم": 3914,
      "تجهیزات": 3915,
      "\".": 3916,
      "توانم": 3917,
      "تعطیل": 3918,
      "سابق": 3919,
      "همانند": 3920,
      "فرار": 3921,
      "رویکرد": 3922,
      "سعودی": 3923,
      "سرباز": 3924,
      "آرز": 3925,
      "واض": 3926,
      "##ته": 3927,
      "##ویل": 3928,
      "برنده": 3929,
      "امسال": 3930,
      "بیشترین": 3931,
      "جایگاه": 3932,
      "سام": 3933,
      "یافتن": 3934,
      "اور": 3935,
      "ژن": 3936,
      "اضطر": 3937,
      "بتوانید": 3938,
      "طبقه": 3939,
      "بطور": 3940,
      "پخش": 3941,
      "اضافی": 3942,
      "برخوردار": 3943,
      "متمرکز": 3944,
      "سرگر": 3945,
      "نوج": 3946,
      "جامع": 3947,
      "بگویید": 3948,
      "برداشت": 3949,
      "##ابله": 3950,
      "##می‌": 3951,
      "سختی": 3952,
      "حضرت": 3953,
      "نیویورک": 3954,
      "درگیر": 3955,
      "شماست": 3956,
      "مقابله": 3957,
      "198": 3958,
      "»،": 3959,
      "سؤ": 3960,
      "##تامبر": 3961,
      "##av": 3962,
      "ادعا": 3963,
      "توجهی": 3964,
      "جنبش": 3965,
      "هیچ‌": 3966,
      "قدر": 3967,
      "معروف": 3968,
      "تفکر": 3969,
      "جزئیات": 3970,
      "ناد": 3971,
      "ورز": 3972,
      "##لط": 3973,
      "##دهی": 3974,
      "اندازی": 3975,
      "زندانی": 3976,
      "چیزهای": 3977,
      "شغلی": 3978,
      "قلبی": 3979,
      "چربی": 3980,
      "قرمز": 3981,
      "بزرگتر": 3982,
      "برچسب": 3983,
      "حو": 3984,
      "##if": 3985,
      "معل": 3986,
      "خطرناک": 3987,
      "واش": 3988,
      "##جع": 3989,
      "درستی": 3990,
      "معمولی": 3991,
      "می‌خ": 3992,
      "جزیره": 3993,
      "بدهد": 3994,
      "فرمود": 3995,
      "نات": 3996,
      "هیجان": 3997,
      "مداوم": 3998,
      "ریسک": 3999,
      "کر": 4000,
      "##ct": 4001,
      "امپ": 4002,
      "اختلاف": 4003,
      "sp": 4004,
      "فنی": 4005,
      "توزی": 4006,
      "دائ": 4007,
      "سپتامبر": 4008,
      "لینک": 4009,
      "رها": 4010,
      "##اکی": 4011,
      "خریداری": 4012,
      "حداک": 4013,
      "آشنا": 4014,
      "##صورت": 4015,
      "تاکید": 4016,
      "بخور": 4017,
      "ملت": 4018,
      "افسردگی": 4019,
      "فوتبال": 4020,
      "جاد": 4021,
      "بنا": 4022,
      "پلا": 4023,
      "##ثار": 4024,
      "##حیه": 4025,
      "آیند": 4026,
      "تخم": 4027,
      "##نوعی": 4028,
      "##ئت": 4029,
      "دیوار": 4030,
      "عهده": 4031,
      "جس": 4032,
      "بیت": 4033,
      "دقیقا": 4034,
      "استان": 4035,
      "ناگه": 4036,
      "مالیات": 4037,
      "مالک": 4038,
      "بخوانید": 4039,
      "می‌رود": 4040,
      "##یدند": 4041,
      "پذیرش": 4042,
      "ad": 4043,
      "امتی": 4044,
      "اعتبار": 4045,
      "انگلستان": 4046,
      "##ژانس": 4047,
      "##ندن": 4048,
      "نیرو": 4049,
      "توزیع": 4050,
      "ثانیه": 4051,
      "کنفر": 4052,
      "پرسش": 4053,
      "پن": 4054,
      "بگویم": 4055,
      "مصاحبه": 4056,
      "روزنامه": 4057,
      "اختلال": 4058,
      "##ازید": 4059,
      "کرب": 4060,
      "برده": 4061,
      "خیابان": 4062,
      "فارغ": 4063,
      "پنهان": 4064,
      "پیاده": 4065,
      "##شناسان": 4066,
      "40": 4067,
      "##وذ": 4068,
      "بدین": 4069,
      "اصط": 4070,
      "بارداری": 4071,
      "زم": 4072,
      "##لیم": 4073,
      "محتوا": 4074,
      "جستجوی": 4075,
      "ایتال": 4076,
      "##گویی": 4077,
      "متق": 4078,
      "نیازی": 4079,
      "مى": 4080,
      "پیوند": 4081,
      "هرچند": 4082,
      "pro": 4083,
      "كن": 4084,
      "نماز": 4085,
      "##اورد": 4086,
      "##ذیه": 4087,
      "ایتالیا": 4088,
      "شای": 4089,
      "صاد": 4090,
      "می‌ز": 4091,
      "پاکستان": 4092,
      "حاوی": 4093,
      "خاور": 4094,
      "رز": 4095,
      "سند": 4096,
      "همزمان": 4097,
      "##ازند": 4098,
      "روزهای": 4099,
      "لطفا": 4100,
      "goo": 4101,
      "لغ": 4102,
      "##گاری": 4103,
      "هماه": 4104,
      "##ستر": 4105,
      "برآورد": 4106,
      "می‌خواهد": 4107,
      "صحیح": 4108,
      "هزین": 4109,
      "##جایی": 4110,
      "هم‌": 4111,
      "محسوب": 4112,
      "رمز": 4113,
      "##کری": 4114,
      "عجیب": 4115,
      "واضح": 4116,
      "تز": 4117,
      "##کده": 4118,
      "تجزی": 4119,
      "صحنه": 4120,
      "افتاده": 4121,
      "رتبه": 4122,
      "دم": 4123,
      "##ریح": 4124,
      "تنهایی": 4125,
      "سفار": 4126,
      "مراحل": 4127,
      "##رافیک": 4128,
      "##حالی": 4129,
      "اتص": 4130,
      "پروتئین": 4131,
      "de": 4132,
      "##بد": 4133,
      "می‌پ": 4134,
      "اسب": 4135,
      "طل": 4136,
      "##او": 4137,
      "پرورش": 4138,
      "مرور": 4139,
      "دیدار": 4140,
      "##فس": 4141,
      "شورای": 4142,
      "##آور": 4143,
      "تغذیه": 4144,
      "##فاوتی": 4145,
      "مجوز": 4146,
      "کردید": 4147,
      "24": 4148,
      "##سین": 4149,
      "سوء": 4150,
      "اشک": 4151,
      "مسیح": 4152,
      "##امله": 4153,
      "مقد": 4154,
      "حداکثر": 4155,
      "tr": 4156,
      "قتل": 4157,
      "نیمه": 4158,
      "دشمن": 4159,
      "##وال": 4160,
      "##خره": 4161,
      "کارهایی": 4162,
      "اتوم": 4163,
      "##راحت": 4164,
      "کنفرانس": 4165,
      "حاک": 4166,
      "##اساس": 4167,
      "تیر": 4168,
      "##لو": 4169,
      "متعد": 4170,
      "بازداشت": 4171,
      "ممنوع": 4172,
      "مفهوم": 4173,
      "آثار": 4174,
      "##کراسی": 4175,
      "وظیفه": 4176,
      "فهر": 4177,
      "##ie": 4178,
      "##og": 4179,
      "فرانس": 4180,
      "استخدام": 4181,
      "دس": 4182,
      "ماج": 4183,
      "واشنگ": 4184,
      "بخواهید": 4185,
      "##‌که": 4186,
      "تاسیس": 4187,
      "مبتنی": 4188,
      "چار": 4189,
      "می‌بین": 4190,
      "بزرگسال": 4191,
      "سنت": 4192,
      "نمی‌تواند": 4193,
      "تجزیه": 4194,
      "لندن": 4195,
      "دانند": 4196,
      "مصر": 4197,
      "افتخ": 4198,
      "فضایی": 4199,
      "##...]": 4200,
      "ضعیف": 4201,
      "کلیک": 4202,
      "بپرس": 4203,
      "رانندگی": 4204,
      "یخ": 4205,
      "آمار": 4206,
      "انع": 4207,
      "کارشناسی": 4208,
      "سرمایه‌گذاری": 4209,
      "صادق": 4210,
      "واشنگتن": 4211,
      "افکار": 4212,
      "تهران": 4213,
      "[...]": 4214,
      "بدتر": 4215,
      "می‌آید": 4216,
      "##مع": 4217,
      "##غم": 4218,
      "نمی‌شود": 4219,
      "##000": 4220,
      "##ack": 4221,
      "ارزان": 4222,
      "##یتالی": 4223,
      "گذر": 4224,
      "سخنرانی": 4225,
      "بهداشتی": 4226,
      "سقوط": 4227,
      "عرو": 4228,
      "##یش": 4229,
      "براساس": 4230,
      "مطل": 4231,
      "تعامل": 4232,
      "ببرید": 4233,
      "un": 4234,
      "نیمی": 4235,
      "##کش": 4236,
      "بالق": 4237,
      "اپل": 4238,
      "نادر": 4239,
      "کمبود": 4240,
      "پایگاه": 4241,
      "غیرق": 4242,
      "نمایید": 4243,
      "می‌خواهید": 4244,
      "مذاکره": 4245,
      "##وج": 4246,
      "تکمیل": 4247,
      "##دهم": 4248,
      "##اختی": 4249,
      "آهنگ": 4250,
      "اثرات": 4251,
      "امتیاز": 4252,
      "قض": 4253,
      "مند": 4254,
      "##یید": 4255,
      "##ویسی": 4256,
      "##ity": 4257,
      "بپرد": 4258,
      "حافظه": 4259,
      "تمیز": 4260,
      "بهشت": 4261,
      "گوشت": 4262,
      "ندارید": 4263,
      "al": 4264,
      "موقع": 4265,
      "حکم": 4266,
      ".)": 4267,
      "##وئن": 4268,
      "##‌ی": 4269,
      "کمتری": 4270,
      "همچون": 4271,
      "می‌داد": 4272,
      "صبر": 4273,
      "##زان": 4274,
      "##میر": 4275,
      "##جد": 4276,
      "ترکی": 4277,
      "منطق": 4278,
      "##ورو": 4279,
      "سهام": 4280,
      "سنتی": 4281,
      "چهارم": 4282,
      "پایدار": 4283,
      "هرک": 4284,
      "ar": 4285,
      "تاز": 4286,
      "ویدی": 4287,
      "##‌ن": 4288,
      "امضا": 4289,
      "بازسازی": 4290,
      "مساله": 4291,
      "شرکت‌های": 4292,
      "گرفتند": 4293,
      "نفوذ": 4294,
      "ویروس": 4295,
      "اخلاقی": 4296,
      "کشاورزی": 4297,
      "##ob": 4298,
      "##gle": 4299,
      "##ادار": 4300,
      "##اع": 4301,
      "##صله": 4302,
      "موب": 4303,
      "دارایی": 4304,
      "تحمل": 4305,
      "خانگی": 4306,
      "دموکر": 4307,
      "ماست": 4308,
      "دانید": 4309,
      "بازیکن": 4310,
      "بیمه": 4311,
      "موسسه": 4312,
      "شانس": 4313,
      "بیاور": 4314,
      "معماری": 4315,
      "مول": 4316,
      "نژ": 4317,
      "برتر": 4318,
      "گفتن": 4319,
      "ساختن": 4320,
      "ne": 4321,
      "شرک": 4322,
      "دستیابی": 4323,
      "مذهبی": 4324,
      "##وایی": 4325,
      "نزدیکی": 4326,
      "کارگر": 4327,
      "##ard": 4328,
      "خلاصه": 4329,
      "بیدار": 4330,
      "##مر": 4331,
      "پزشکان": 4332,
      "مذاکرات": 4333,
      "خویش": 4334,
      "اصطلاح": 4335,
      "۱۳": 4336,
      "##ابند": 4337,
      "عدد": 4338,
      "كرد": 4339,
      "##‌شده": 4340,
      "پیامبر": 4341,
      "مشهور": 4342,
      "صاحب": 4343,
      "اکتبر": 4344,
      "احتمالاً": 4345,
      "تابستان": 4346,
      "آلمانی": 4347,
      "ندارم": 4348,
      "بالقوه": 4349,
      "se": 4350,
      "##بل": 4351,
      "وابسته": 4352,
      "خاورمی": 4353,
      "سرک": 4354,
      "استقل": 4355,
      "##شوند": 4356,
      "##پار": 4357,
      "هویت": 4358,
      "۵۰": 4359,
      "نظریه": 4360,
      "ترا": 4361,
      "##شای": 4362,
      "##فاصله": 4363,
      "انگیزه": 4364,
      "پادشاه": 4365,
      "ap": 4366,
      "طراح": 4367,
      "عیسی": 4368,
      "سالانه": 4369,
      "آزمایشگاه": 4370,
      "حیات": 4371,
      "مبل": 4372,
      "کات": 4373,
      "هسته‌ای": 4374,
      "رضایت": 4375,
      "هور": 4376,
      "مدتی": 4377,
      "اتم": 4378,
      "میوه": 4379,
      "میکنند": 4380,
      "بارها": 4381,
      "تأیید": 4382,
      "مهندسی": 4383,
      "زودی": 4384,
      "##20": 4385,
      "معامله": 4386,
      "خشک": 4387,
      "نابود": 4388,
      "##عف": 4389,
      "##اریس": 4390,
      "مانع": 4391,
      "رویداد": 4392,
      "نوجوان": 4393,
      "عزی": 4394,
      "چش": 4395,
      "مناس": 4396,
      "##بیند": 4397,
      "انگشت": 4398,
      "مارس": 4399,
      "کیلوم": 4400,
      "جاری": 4401,
      "حجم": 4402,
      "##کسی": 4403,
      "سال‌های": 4404,
      "خاورمیانه": 4405,
      "پان": 4406,
      "##مالی": 4407,
      "دهان": 4408,
      "مدارس": 4409,
      "60": 4410,
      "بازیکنان": 4411,
      "بلافاصله": 4412,
      "آژانس": 4413,
      "خال": 4414,
      "##رق": 4415,
      "##نس": 4416,
      "تدری": 4417,
      "فهرست": 4418,
      "000": 4419,
      "آمیز": 4420,
      "##ه‌اش": 4421,
      "سران": 4422,
      "گفتگو": 4423,
      "2015": 4424,
      "غذاهای": 4425,
      "##est": 4426,
      "فرانسوی": 4427,
      "sh": 4428,
      "##فل": 4429,
      "چهره": 4430,
      "انداخت": 4431,
      "جد": 4432,
      "##‌کننده": 4433,
      "کارمندان": 4434,
      "هواپیما": 4435,
      "افتخار": 4436,
      "on": 4437,
      "ترد": 4438,
      "سور": 4439,
      "##گانی": 4440,
      "اولویت": 4441,
      "رستوران": 4442,
      "بور": 4443,
      "##رتان": 4444,
      "نوشید": 4445,
      "قطعا": 4446,
      "##اخر": 4447,
      "سیگار": 4448,
      "##خان": 4449,
      "##خیر": 4450,
      "مصنوعی": 4451,
      "مراسم": 4452,
      "تحصیلی": 4453,
      "عذ": 4454,
      "موزه": 4455,
      "google": 4456,
      "استقلال": 4457,
      "خرد": 4458,
      "مض": 4459,
      "مشاوره": 4460,
      "دسامبر": 4461,
      "جنبه": 4462,
      "وحشت": 4463,
      "bl": 4464,
      "باشگاه": 4465,
      "معنا": 4466,
      "احتی": 4467,
      "197": 4468,
      "##نمایی": 4469,
      "آدرس": 4470,
      "دف": 4471,
      "شاد": 4472,
      "##اهیم": 4473,
      "ایالت": 4474,
      "نقاشی": 4475,
      "پردازش": 4476,
      "!»": 4477,
      "طال": 4478,
      "باد": 4479,
      "معی": 4480,
      "گاه": 4481,
      "##طی": 4482,
      "مثلا": 4483,
      "##اکس": 4484,
      "انگلیس": 4485,
      "ip": 4486,
      "##ستند": 4487,
      "دومین": 4488,
      "آیت": 4489,
      "سنگین": 4490,
      "ph": 4491,
      "##ist": 4492,
      "##eb": 4493,
      "##صیل": 4494,
      "بیست": 4495,
      "اجرایی": 4496,
      "می‌توانیم": 4497,
      "صدها": 4498,
      "ایستگاه": 4499,
      "شوه": 4500,
      "##ra": 4501,
      "برا": 4502,
      "اوب": 4503,
      "اواخر": 4504,
      "کشوری": 4505,
      "عناصر": 4506,
      "##خواهیم": 4507,
      "ژانویه": 4508,
      "عصر": 4509,
      "سیاره": 4510,
      "عمده": 4511,
      "سطوح": 4512,
      "تحقیقاتی": 4513,
      "آزار": 4514,
      "##دهند": 4515,
      "داروهای": 4516,
      "التح": 4517,
      "راهن": 4518,
      "صفحات": 4519,
      "نمایشگاه": 4520,
      "آهن": 4521,
      "شار": 4522,
      "نقشه": 4523,
      "نبوده": 4524,
      "معتبر": 4525,
      "قالب": 4526,
      "پاریس": 4527,
      "۱۱": 4528,
      "##عش": 4529,
      "نوامبر": 4530,
      "شریک": 4531,
      "مجلس": 4532,
      "مراج": 4533,
      "برنامه‌": 4534,
      "توی": 4535,
      "ژوئن": 4536,
      "##روی": 4537,
      "برخ": 4538,
      "مدرک": 4539,
      "نداریم": 4540,
      "۱۹۹": 4541,
      "متخصصان": 4542,
      "دموکراسی": 4543,
      "تون": 4544,
      "##اقع": 4545,
      "نمی‌دان": 4546,
      "شرقی": 4547,
      "برجسته": 4548,
      "اعتراض": 4549,
      "موبایل": 4550,
      "آلب": 4551,
      "##زام": 4552,
      "##ub": 4553,
      "دهندگان": 4554,
      "بزنید": 4555,
      "خالی": 4556,
      "چای": 4557,
      "اکث": 4558,
      "روبرو": 4559,
      "نبرد": 4560,
      "##اغ": 4561,
      "می‌‌": 4562,
      "همه‌ی": 4563,
      "همکاران": 4564,
      "دیپ": 4565,
      "خاط": 4566,
      "سوز": 4567,
      "ناپ": 4568,
      "سبب": 4569,
      "حر": 4570,
      "##نظر": 4571,
      "نموده": 4572,
      "جوانان": 4573,
      "محمد": 4574,
      "محکوم": 4575,
      "موضوعات": 4576,
      "الکترونیکی": 4577,
      "جور": 4578,
      "جرم": 4579,
      "دک": 4580,
      "سان": 4581,
      "##ارهای": 4582,
      "شهرهای": 4583,
      "نگاهی": 4584,
      "##ive": 4585,
      "چک": 4586,
      "متاس": 4587,
      "متولد": 4588,
      "نمی‌کند": 4589,
      "##ate": 4590,
      "شفاف": 4591,
      "##‌جمه": 4592,
      "کارگردان": 4593,
      "زنج": 4594,
      "هنری": 4595,
      "امیدوارم": 4596,
      "خشم": 4597,
      "##جاست": 4598,
      "استق": 4599,
      "جنگل": 4600,
      "اثبات": 4601,
      "می‌س": 4602,
      "سرور": 4603,
      "مردی": 4604,
      "تصاد": 4605,
      "##ine": 4606,
      "عدالت": 4607,
      "مجدد": 4608,
      "اتصال": 4609,
      "!!": 4610,
      "بکن": 4611,
      "سادگی": 4612,
      "بیای": 4613,
      "می‌شن": 4614,
      "##‌مان": 4615,
      "هرگونه": 4616,
      "نزد": 4617,
      "انتقاد": 4618,
      "قا": 4619,
      "یك": 4620,
      "##برداری": 4621,
      "اسپانیا": 4622,
      "ورزشی": 4623,
      "مراجعه": 4624,
      "زخ": 4625,
      "##کز": 4626,
      "یکسان": 4627,
      "آرامش": 4628,
      "جلب": 4629,
      "##سیر": 4630,
      "می‌خواست": 4631,
      "داند": 4632,
      "هوای": 4633,
      "می‌گیرند": 4634,
      "تی": 4635,
      "##نای": 4636,
      "کمپانی": 4637,
      "فرودگاه": 4638,
      "جاده": 4639,
      "##هنی": 4640,
      "##ویب": 4641,
      "ظرفیت": 4642,
      "con": 4643,
      "##ak": 4644,
      "هستی": 4645,
      "معامل": 4646,
      "مشکلی": 4647,
      "کشید": 4648,
      "##art": 4649,
      "##لیلی": 4650,
      "##نوشت": 4651,
      "عصبی": 4652,
      "طیف": 4653,
      "برگرد": 4654,
      "ناخ": 4655,
      "مخفی": 4656,
      "این‌که": 4657,
      "خروج": 4658,
      "us": 4659,
      "مربی": 4660,
      "ارزشمند": 4661,
      "مکمل": 4662,
      "is": 4663,
      "##انو": 4664,
      "##ایف": 4665,
      "##فرم": 4666,
      "تصویب": 4667,
      "کاربردی": 4668,
      "##فرو": 4669,
      "##نجی": 4670,
      "منظم": 4671,
      "مجازات": 4672,
      "##ov": 4673,
      "##طرف": 4674,
      "وسایل": 4675,
      "متعلق": 4676,
      "نادیده": 4677,
      "##واری": 4678,
      "آمو": 4679,
      "دختران": 4680,
      "ران": 4681,
      "##‌پذیر": 4682,
      "##گا": 4683,
      "بافت": 4684,
      "دانشکده": 4685,
      "2017": 4686,
      "ورودی": 4687,
      "اوباما": 4688,
      "##ast": 4689,
      "مسابقه": 4690,
      "پرست": 4691,
      "##all": 4692,
      "خواستار": 4693,
      "آفریقا": 4694,
      "ترافیک": 4695,
      "نهاد": 4696,
      "##up": 4697,
      "خسته": 4698,
      "اسن": 4699,
      "2018": 4700,
      "آشپ": 4701,
      "مبلغ": 4702,
      "cl": 4703,
      "ریشه": 4704,
      "##کشی": 4705,
      "تحول": 4706,
      "ارتباطی": 4707,
      "سریال": 4708,
      "صنایع": 4709,
      "قهرمان": 4710,
      "##وقی": 4711,
      "دانیم": 4712,
      "غذای": 4713,
      "روانی": 4714,
      "21": 4715,
      "##تیک": 4716,
      "مجله": 4717,
      "عظیم": 4718,
      "##بندی": 4719,
      "باتری": 4720,
      "##روز": 4721,
      "نوشیدنی": 4722,
      "۲۵": 4723,
      "موشک": 4724,
      "مقدس": 4725,
      "ترکیبی": 4726,
      "##وپ": 4727,
      "مهمترین": 4728,
      "for": 4729,
      "شوم": 4730,
      "۱۴": 4731,
      "##ایان": 4732,
      "ریاست": 4733,
      "en": 4734,
      "غنی": 4735,
      "مراکز": 4736,
      "بالایی": 4737,
      "تماشا": 4738,
      "مسلمانان": 4739,
      "کارخانه": 4740,
      "دادم": 4741,
      "تجربی": 4742,
      "ارتقا": 4743,
      "پاداش": 4744,
      "سؤال": 4745,
      "بگوید": 4746,
      "نظری": 4747,
      "تحویل": 4748,
      "اختر": 4749,
      "صادرات": 4750,
      "شبک": 4751,
      "فردا": 4752,
      "منطقی": 4753,
      "شرق": 4754,
      "ارم": 4755,
      "لز": 4756,
      "##انیایی": 4757,
      "توق": 4758,
      "غیرم": 4759,
      "بالات": 4760,
      "تأمین": 4761,
      "فری": 4762,
      "منع": 4763,
      "نوش": 4764,
      "پروژ": 4765,
      "سهم": 4766,
      "فعالیت‌های": 4767,
      "طالبان": 4768,
      "بدی": 4769,
      "کودکی": 4770,
      "انقلابی": 4771,
      "عربی": 4772,
      "نشود": 4773,
      "##افتد": 4774,
      "کاغ": 4775,
      "pl": 4776,
      "بفه": 4777,
      "متفاوتی": 4778,
      "مرغ": 4779,
      "مور": 4780,
      "##قیان": 4781,
      "مسیحی": 4782,
      "##صاب": 4783,
      "منزل": 4784,
      "راز": 4785,
      "برود": 4786,
      "نوآوری": 4787,
      "##ell": 4788,
      "اعدام": 4789,
      "حادث": 4790,
      "نر": 4791,
      "##زیک": 4792,
      "تحریک": 4793,
      "دائمی": 4794,
      "as": 4795,
      "کشیدن": 4796,
      "صندلی": 4797,
      "فدر": 4798,
      "ابتلا": 4799,
      "می‌خواهند": 4800,
      "بماند": 4801,
      "بمب": 4802,
      "پیش‌بینی": 4803,
      "قضا": 4804,
      "##جویی": 4805,
      "##طاف": 4806,
      "بنویس": 4807,
      "حقوقی": 4808,
      "برگشت": 4809,
      "##igh": 4810,
      "دون": 4811,
      "##50": 4812,
      "نظیر": 4813,
      "خانوادگی": 4814,
      "ریاضی": 4815,
      "am": 4816,
      "##لین": 4817,
      "##ارات": 4818,
      "علاق": 4819,
      "خوانده": 4820,
      "محیطی": 4821,
      "th": 4822,
      "ستار": 4823,
      "ظهور": 4824,
      "عوار": 4825,
      "##ماند": 4826,
      "ویند": 4827,
      "نمی‌کن": 4828,
      "هدی": 4829,
      "پولی": 4830,
      "کارشناسان": 4831,
      "رساند": 4832,
      "دیدم": 4833,
      "ex": 4834,
      "کاخ": 4835,
      "##لت": 4836,
      "دیابت": 4837,
      "اخبار": 4838,
      "کمپین": 4839,
      "وام": 4840,
      "##وگر": 4841,
      "##دهید": 4842,
      "سوالات": 4843,
      "چیزها": 4844,
      "خارجه": 4845,
      "2016": 4846,
      "لبخ": 4847,
      "انعطاف": 4848,
      "نیستم": 4849,
      "شرایطی": 4850,
      "سیم": 4851,
      "##شیدی": 4852,
      "##‌گیری": 4853,
      "کتابخانه": 4854,
      "ثروتمند": 4855,
      "استراحت": 4856,
      "کنگر": 4857,
      "رایج": 4858,
      "استراتژیک": 4859,
      "قی": 4860,
      "کوچکی": 4861,
      "وظایف": 4862,
      "##سول": 4863,
      "آلود": 4864,
      "مطالب": 4865,
      "##بند": 4866,
      "معلم": 4867,
      "کمونی": 4868,
      "تعادل": 4869,
      "انگار": 4870,
      "پنجره": 4871,
      "کفش": 4872,
      "اقیان": 4873,
      "##‌گر": 4874,
      "##ts": 4875,
      "##ri": 4876,
      "##غام": 4877,
      "باکتری": 4878,
      "گذارد": 4879,
      "احتمالی": 4880,
      "جانبی": 4881,
      "رک": 4882,
      "##‌ام": 4883,
      "استث": 4884,
      "برگزاری": 4885,
      "قلم": 4886,
      "کاربری": 4887,
      "ویندوز": 4888,
      "اذ": 4889,
      "دعا": 4890,
      "شکر": 4891,
      "قول": 4892,
      "درحالی": 4893,
      "می‌ن": 4894,
      "گرس": 4895,
      "گرچه": 4896,
      "مقدم": 4897,
      "جمعی": 4898,
      "نقض": 4899,
      "بگیریم": 4900,
      "رییس": 4901,
      "##ه‌است": 4902,
      "پرونده": 4903,
      "فیلتر": 4904,
      "ابزارهای": 4905,
      "تعطیلات": 4906,
      "##يم": 4907,
      "داشتیم": 4908,
      "احم": 4909,
      "سوئ": 4910,
      "##ائی": 4911,
      "میتواند": 4912,
      "##يت": 4913,
      "مهمان": 4914,
      "راهنمایی": 4915,
      "خطوط": 4916,
      "آورند": 4917,
      "##اگون": 4918,
      "##ey": 4919,
      "مطابق": 4920,
      "##ord": 4921,
      "کمیته": 4922,
      "سرانجام": 4923,
      "آفت": 4924,
      "حج": 4925,
      "رون": 4926,
      "##موز": 4927,
      "روزه": 4928,
      "تعجب": 4929,
      "مناسبی": 4930,
      "آیه": 4931,
      "الی": 4932,
      "##یتی": 4933,
      "تجدید": 4934,
      "تروریستی": 4935,
      "بزرگسالان": 4936,
      "التحصیل": 4937,
      "بیند": 4938,
      "بازنش": 4939,
      "این‌ها": 4940,
      "وضع": 4941,
      "خورشیدی": 4942,
      "شوروی": 4943,
      "شاخص": 4944,
      "##انگیز": 4945,
      "جی": 4946,
      "حرک": 4947,
      "راضی": 4948,
      "نقد": 4949,
      "کارآفر": 4950,
      "##جای": 4951,
      "داعش": 4952,
      "خلاف": 4953,
      "الهام": 4954,
      "عوارض": 4955,
      "شکن": 4956,
      "##ظاه": 4957,
      "میکرو": 4958,
      "##لیکی": 4959,
      "نظرات": 4960,
      "ناام": 4961,
      "دیپلم": 4962,
      "فدرال": 4963,
      "to": 4964,
      "##مور": 4965,
      "##نظ": 4966,
      "اندکی": 4967,
      "سیگن": 4968,
      "شناسی": 4969,
      "196": 4970,
      "واس": 4971,
      "##ثی": 4972,
      "آمدن": 4973,
      "الم": 4974,
      "تشکر": 4975,
      "آسیا": 4976,
      "نژاد": 4977,
      "ندید": 4978,
      "یو": 4979,
      "گردید": 4980,
      "خانواد": 4981,
      "شیطان": 4982,
      "بگذارد": 4983,
      "##لیک": 4984,
      "شواهد": 4985,
      "تئوری": 4986,
      "ht": 4987,
      "ذهنی": 4988,
      "ناس": 4989,
      "ژنتی": 4990,
      "##ادن": 4991,
      "منص": 4992,
      "الکتری": 4993,
      "##خواهم": 4994,
      "اتحاد": 4995,
      "ضرب": 4996,
      "##زده": 4997,
      "##ّت": 4998,
      "##ps": 4999
    }
  }
}