{
  "version": "1.0",
  "truncation": null,
  "padding": null,
  "added_tokens": [
    {
      "id": 0,
      "content": "[UNK]",
      "single_word": false,
      "lstrip": false,
      "rstrip": false,
      "normalized": false,
      "special": true
    },
    {
      "id": 1,
      "content": "[CLS]",
      "single_word": false,
      "lstrip": false,
      "rstrip": false,
      "normalized": false,
      "special": true
    },
    {
      "id": 2,
      "content": "[SEP]",
      "single_word": false,
      "lstrip": false,
      "rstrip": false,
      "normalized": false,
      "special": true
    },
    {
      "id": 3,
      "content": "[PAD]",
      "single_word": false,
      "lstrip": false,
      "rstrip": false,
      "normalized": false,
      "special": true
    },
    {
      "id": 4,
      "content": "[MASK]",
      "single_word": false,
      "lstrip": false,
      "rstrip": false,
      "normalized": false,
      "special": true
    }
  ],
  "normalizer": {
    "type": "Sequence",
    "normalizers": [
      {
        "type": "NFKC"
      },
      {
        "type": "Lowercase"
      }
    ]
  },
  "pre_tokenizer": {
    "type": "Whitespace"
  },
  "post_processor": null,
  "decoder": {
    "type": "WordPiece",
    "prefix": "##",
    "cleanup": true
  },
  "model": {
    "type": "WordPiece",
    "unk_token": "[UNK]",
    "continuing_subword_prefix": "##",
    "max_input_chars_per_word": 100,
    "vocab": {
      "[UNK]": 0,
      "[CLS]": 1,
      "[SEP]": 2,
      "[PAD]": 3,
      "[MASK]": 4,
      "!": 5,
      "\"": 6,
      "#": 7,
      "$": 8,
      "%": 9,
      "&": 10,
      "'": 11,
      "(": 12,
      ")": 13,
      "*": 14,
      "+": 15,
      ",": 16,
      "-": 17,
      ".": 18,
      "/": 19,
      "0": 20,
      "1": 21,
      "2": 22,
      "3": 23,
      "4": 24,
      "5": 25,
      "6": 26,
      "7": 27,
      "8": 28,
      "9": 29,
      ":": 30,
      ";": 31,
      "<": 32,
      "=": 33,
      ">": 34,
      "?": 35,
      "@": 36,
      "[": 37,
      "\\": 38,
      "]": 39,
      "^": 40,
      "_": 41,
      "`": 42,
      "a": 43,
      "b": 44,
      "c": 45,
      "d": 46,
      "e": 47,
      "f": 48,
      "g": 49,
      "h": 50,
      "i": 51,
      "j": 52,
      "k": 53,
      "l": 54,
      "m": 55,
      "n": 56,
      "o": 57,
      "p": 58,
      "q": 59,
      "r": 60,
      "s": 61,
      "t": 62,
      "u": 63,
      "v": 64,
      "w": 65,
      "x": 66,
      "y": 67,
      "z": 68,
      "{": 69,
      "|": 70,
      "}": 71,
      "~": 72,
      "": 73,
      "": 74,
      "": 75,
      "": 76,
      "": 77,
      "": 78,
      "": 79,
      "": 80,
      "": 81,
      "": 82,
      "": 83,
      "": 84,
      "": 85,
      "": 86,
      "": 87,
      "¡": 88,
      "¢": 89,
      "£": 90,
      "¤": 91,
      "¥": 92,
      "§": 93,
      "©": 94,
      "«": 95,
      "¬": 96,
      "­": 97,
      "®": 98,
      "°": 99,
      "±": 100,
      "·": 101,
      "»": 102,
      "×": 103,
      "ß": 104,
      "à": 105,
      "á": 106,
      "â": 107,
      "ã": 108,
      "ä": 109,
      "å": 110,
      "æ": 111,
      "ç": 112,
      "è": 113,
      "é": 114,
      "ê": 115,
      "ë": 116,
      "ì": 117,
      "í": 118,
      "î": 119,
      "ï": 120,
      "ð": 121,
      "ñ": 122,
      "ò": 123,
      "ó": 124,
      "ô": 125,
      "ö": 126,
      "÷": 127,
      "ø": 128,
      "ú": 129,
      "ü": 130,
      "ý": 131,
      "þ": 132,
      "ā": 133,
      "ć": 134,
      "ē": 135,
      "ğ": 136,
      "ī": 137,
      "ı": 138,
      "ł": 139,
      "ń": 140,
      "ŋ": 141,
      "œ": 142,
      "ş": 143,
      "š": 144,
      "ū": 145,
      "ű": 146,
      "ž": 147,
      "ƒ": 148,
      "ǎ": 149,
      "ɔ": 150,
      "ə": 151,
      "ɛ": 152,
      "ɜ": 153,
      "ɨ": 154,
      "ɪ": 155,
      "ʀ": 156,
      "ʁ": 157,
      "ʊ": 158,
      "ʺ": 159,
      "ˈ": 160,
      "ˌ": 161,
      "ˏ": 162,
      "ː": 163,
      "́": 164,
      "̃": 165,
      "̇": 166,
      "̈": 167,
      "̊": 168,
      "̋": 169,
      "̏": 170,
      "̨": 171,
      "̵": 172,
      "α": 173,
      "β": 174,
      "γ": 175,
      "δ": 176,
      "ε": 177,
      "ζ": 178,
      "θ": 179,
      "κ": 180,
      "λ": 181,
      "μ": 182,
      "ν": 183,
      "ο": 184,
      "ρ": 185,
      "ς": 186,
      "τ": 187,
      "φ": 188,
      "ω": 189,
      "а": 190,
      "б": 191,
      "г": 192,
      "д": 193,
      "е": 194,
      "з": 195,
      "и": 196,
      "й": 197,
      "к": 198,
      "л": 199,
      "м": 200,
      "н": 201,
      "о": 202,
      "п": 203,
      "р": 204,
      "с": 205,
      "т": 206,
      "у": 207,
      "ф": 208,
      "х": 209,
      "ы": 210,
      "ь": 211,
      "я": 212,
      "ё": 213,
      "ћ": 214,
      "ה": 215,
      "ח": 216,
      "י": 217,
      "כ": 218,
      "מ": 219,
      "פ": 220,
      "ש": 221,
      "،": 222,
      "؛": 223,
      "؟": 224,
      "ء": 225,
      "آ": 226,
      "أ": 227,
      "ؤ": 228,
      "إ": 229,
      "ئ": 230,
      "ا": 231,
      "ب": 232,
      "ة": 233,
      "ت": 234,
      "ث": 235,
      "ج": 236,
      "ح": 237,
      "خ": 238,
      "د": 239,
      "ذ": 240,
      "ر": 241,
      "ز": 242,
      "س": 243,
      "ش": 244,
      "ص": 245,
      "ض": 246,
      "ط": 247,
      "ظ": 248,
      "ع": 249,
      "غ": 250,
      "ـ": 251,
      "ف": 252,
      "ق": 253,
      "ك": 254,
      "ل": 255,
      "م": 256,
      "ن": 257,
      "ه": 258,
      "و": 259,
      "ى": 260,
      "ي": 261,
      "ً": 262,
      "ٌ": 263,
      "ٍ": 264,
      "َ": 265,
      "ُ": 266,
      "ِ": 267,
      "ّ": 268,
      "ْ": 269,
      "ٓ": 270,
      "ٔ": 271,
      "٠": 272,
      "١": 273,
      "٢": 274,
      "٣": 275,
      "٤": 276,
      "٥": 277,
      "٦": 278,
      "٧": 279,
      "٨": 280,
      "٩": 281,
      "٪": 282,
      "٫": 283,
      "٬": 284,
      "ٰ": 285,
      "ٴ": 286,
      "پ": 287,
      "ٿ": 288,
      "څ": 289,
      "چ": 290,
      "ژ": 291,
      "ک": 292,
      "ڪ": 293,
      "ګ": 294,
      "گ": 295,
      "ڵ": 296,
      "ں": 297,
      "ھ": 298,
      "ۀ": 299,
      "ہ": 300,
      "ۂ": 301,
      "ۃ": 302,
      "ۆ": 303,
      "ی": 304,
      "ێ": 305,
      "ے": 306,
      "۔": 307,
      "ە": 308,
      "۰": 309,
      "۱": 310,
      "۲": 311,
      "۳": 312,
      "۴": 313,
      "۵": 314,
      "۶": 315,
      "۷": 316,
      "۸": 317,
      "۹": 318,
      "ܔ": 319,
      "ܜ": 320,
      "ก": 321,
      "ง": 322,
      "แ": 323,
      "ა": 324,
      "გ": 325,
      "ე": 326,
      "ვ": 327,
      "თ": 328,
      "ი": 329,
      "ლ": 330,
      "მ": 331,
      "ნ": 332,
      "ო": 333,
      "რ": 334,
      "ს": 335,
      "უ": 336,
      "ქ": 337,
      "ḥ": 338,
      "ṇ": 339,
      "ṯ": 340,
      "ủ": 341,
      "ἐ": 342,
      "ἥ": 343,
      "ἴ": 344,
      "ῖ": 345,
      "​": 346,
      "‌": 347,
      "‍": 348,
      "‎": 349,
      "‏": 350,
      "–": 351,
      "—": 352,
      "―": 353,
      "‘": 354,
      "’": 355,
      "‚": 356,
      "“": 357,
      "”": 358,
      "„": 359,
      "†": 360,
      "•": 361,
      "‪": 362,
      "‫": 363,
      "‬": 364,
      "‭": 365,
      "′": 366,
      "‹": 367,
      "›": 368,
      "※": 369,
      "⁄": 370,
      "⁠": 371,
      "⁣": 372,
      "⁧": 373,
      "⁩": 374,
      "⁪": 375,
      "⁭": 376,
      "⁮": 377,
      "⁯": 378,
      "₩": 379,
      "€": 380,
      "₹": 381,
      "⃣": 382,
      "←": 383,
      "↑": 384,
      "→": 385,
      "↓": 386,
      "⇆": 387,
      "⇐": 388,
      "⇔": 389,
      "∀": 390,
      "∆": 391,
      "∈": 392,
      "−": 393,
      "∗": 394,
      "∘": 395,
      "√": 396,
      "∴": 397,
      "≈": 398,
      "≠": 399,
      "≡": 400,
      "≤": 401,
      "≥": 402,
      "⊞": 403,
      "⋆": 404,
      "⌘": 405,
      "⏳": 406,
      "⏺": 407,
      "▐": 408,
      "■": 409,
      "□": 410,
      "▪": 411,
      "▫": 412,
      "▬": 413,
      "▲": 414,
      "▶": 415,
      "►": 416,
      "◀": 417,
      "◄": 418,
      "◇": 419,
      "◊": 420,
      "○": 421,
      "●": 422,
      "◦": 423,
      "◽": 424,
      "◾": 425,
      "★": 426,
      "☆": 427,
      "☚": 428,
      "☺": 429,
      "☼": 430,
      "♊": 431,
      "♒": 432,
      "♡": 433,
      "♥": 434,
      "♦": 435,
      "♪": 436,
      "♫": 437,
      "♬": 438,
      "♯": 439,
      "⚡": 440,
      "⚽": 441,
      "✅": 442,
      "✋": 443,
      "✍": 444,
      "✓": 445,
      "✔": 446,
      "✕": 447,
      "✤": 448,
      "✭": 449,
      "✳": 450,
      "✵": 451,
      "❇": 452,
      "❌": 453,
      "❗": 454,
      "❤": 455,
      "➌": 456,
      "➐": 457,
      "➕": 458,
      "➖": 459,
      "⟨": 460,
      "⟩": 461,
      "⦁": 462,
      "⬅": 463,
      "《": 464,
      "》": 465,
      "「": 466,
      "か": 467,
      "き": 468,
      "ど": 469,
      "ま": 470,
      "メ": 471,
      "モ": 472,
      "ヤ": 473,
      "一": 474,
      "东": 475,
      "事": 476,
      "人": 477,
      "件": 478,
      "前": 479,
      "十": 480,
      "台": 481,
      "命": 482,
      "坛": 483,
      "外": 484,
      "天": 485,
      "子": 486,
      "孫": 487,
      "將": 488,
      "撫": 489,
      "斐": 490,
      "旗": 491,
      "日": 492,
      "月": 493,
      "朝": 494,
      "本": 495,
      "樹": 496,
      "湾": 497,
      "灣": 498,
      "爱": 499,
      "生": 500,
      "甲": 501,
      "碌": 502,
      "神": 503,
      "臺": 504,
      "英": 505,
      "蔼": 506,
      "语": 507,
      "谷": 508,
      "軍": 509,
      "锦": 510,
      "门": 511,
      "革": 512,
      "도": 513,
      "라": 514,
      "아": 515,
      "장": 516,
      "티": 517,
      "": 518,
      "": 519,
      "": 520,
      "": 521,
      "": 522,
      "": 523,
      "": 524,
      "": 525,
      "": 526,
      "": 527,
      "": 528,
      "": 529,
      "": 530,
      "": 531,
      "": 532,
      "": 533,
      "": 534,
      "": 535,
      "": 536,
      "": 537,
      "": 538,
      "": 539,
      "": 540,
      "": 541,
      "": 542,
      "": 543,
      "": 544,
      "": 545,
      "": 546,
      "": 547,
      "": 548,
      "﴾": 549,
      "﴿": 550,
      "️": 551,
      "﻿": 552,
      "�": 553,
      "🇩": 554,
      "🇪": 555,
      "🇬": 556,
      "🇷": 557,
      "🇺": 558,
      "🌀": 559,
      "🌐": 560,
      "🌬": 561,
      "🌲": 562,
      "🌷": 563,
      "🌸": 564,
      "🌺": 565,
      "🍁": 566,
      "🍃": 567,
      "🍳": 568,
      "🎁": 569,
      "🎄": 570,
      "🎥": 571,
      "🎬": 572,
      "🐶": 573,
      "👈": 574,
      "👌": 575,
      "👏": 576,
      "👑": 577,
      "👻": 578,
      "💎": 579,
      "💕": 580,
      "💜": 581,
      "💟": 582,
      "💫": 583,
      "💳": 584,
      "📈": 585,
      "📌": 586,
      "📍": 587,
      "📑": 588,
      "📝": 589,
      "📣": 590,
      "📱": 591,
      "📽": 592,
      "🔎": 593,
      "🔔": 594,
      "🔥": 595,
      "🔴": 596,
      "🔵": 597,
      "🔶": 598,
      "🔷": 599,
      "🔸": 600,
      "🔹": 601,
      "🔺": 602,
      "🔻": 603,
      "🗽": 604,
      "😀": 605,
      "😁": 606,
      "😂": 607,
      "😅": 608,
      "😉": 609,
      "😊": 610,
      "😌": 611,
      "😍": 612,
      "😎": 613,
      "😏": 614,
      "😐": 615,
      "😒": 616,
      "😔": 617,
      "😕": 618,
      "😗": 619,
      "😙": 620,
      "😛": 621,
      "😢": 622,
      "😥": 623,
      "😭": 624,
      "😳": 625,
      "😵": 626,
      "😶": 627,
      "🙁": 628,
      "🙂": 629,
      "🙏": 630,
      "🚀": 631,
      "🚫": 632,
      "🤔": 633,
      "🤗": 634,
      "🥇": 635,
      "##ر": 636,
      "##ی": 637,
      "##ب": 638,
      "##ن": 639,
      "##د": 640,
      "##ه": 641,
      "##و": 642,
      "##ا": 643,
      "##ل": 644,
      "##س": 645,
      "##ز": 646,
      "##ت": 647,
      "##ش": 648,
      "##y": 649,
      "##n": 650,
      "##a": 651,
      "##k": 652,
      "##۴": 653,
      "##а": 654,
      "##б": 655,
      "##р": 656,
      "##д": 657,
      "##и": 658,
      "##н": 659,
      "##о": 660,
      "##ک": 661,
      "##i": 662,
      "##l": 663,
      "##m": 664,
      "##c": 665,
      "##o": 666,
      "##s": 667,
      "##َ": 668,
      "##ْ": 669,
      "##ً": 670,
      "##م": 671,
      "##خ": 672,
      "##ج": 673,
      "##x": 674,
      "##e": 675,
      "##t": 676,
      "##w": 677,
      "##r": 678,
      "##d": 679,
      "##چ": 680,
      "##u": 681,
      "##‌": 682,
      "##ص": 683,
      "##پ": 684,
      "##؛": 685,
      "##ف": 686,
      "##ق": 687,
      "##ئ": 688,
      "##ع": 689,
      "##ي": 690,
      "##ك": 691,
      "##۵": 692,
      "##۰": 693,
      "##8": 694,
      "##h": 695,
      "##b": 696,
      "##3": 697,
      "##v": 698,
      "##ۀ": 699,
      "##ە": 700,
      "##گ": 701,
      "##g": 702,
      "##ى": 703,
      "##p": 704,
      "##f": 705,
      "##ژ": 706,
      "##أ": 707,
      "##ِ": 708,
      "##ّ": 709,
      "##z": 710,
      "##ط": 711,
      "##ح": 712,
      "##7": 713,
      "##9": 714,
      "##0": 715,
      "##آ": 716,
      "##غ": 717,
      "##٥": 718,
      "##ؤ": 719,
      "##۸": 720,
      "##۶": 721,
      "##1": 722,
      "##ذ": 723,
      "##ظ": 724,
      "##ـ": 725,
      "##ُ": 726,
      "##|": 727,
      "##”": 728,
      "##٣": 729,
      "##.": 730,
      "##ض": 731,
      "##q": 732,
      "##ث": 733,
      "##۳": 734,
      "##α": 735,
      "##j": 736,
      "##“": 737,
      "##ة": 738,
      "##ٔ": 739,
      "##4": 740,
      "##ë": 741,
      "##2": 742,
      "##ü": 743,
      "##5": 744,
      "##۷": 745,
      "##;": 746,
      "##۲": 747,
      "##ء": 748,
      "##-": 749,
      "##[": 750,
      "##۹": 751,
      "##۱": 752,
      "##6": 753,
      "##ä": 754,
      "##á": 755,
      "##]": 756,
      "##،": 757,
      "##‍": 758,
      "##â": 759,
      "##٦": 760,
      "##_": 761,
      "##(": 762,
      "##)": 763,
      "##ú": 764,
      "##٠": 765,
      "##١": 766,
      "##ٌ": 767,
      "##>": 768,
      "##ρ": 769,
      "##إ": 770,
      "##‬": 771,
      "##,": 772,
      "##̇": 773,
      "##ۂ": 774,
      "##‎": 775,
      "##»": 776,
      "##/": 777,
      "##+": 778,
      "##٩": 779,
      "##@": 780,
      "##ٿ": 781,
      "##ı": 782,
      "##؟": 783,
      "##`": 784,
      "##í": 785,
      "##‫": 786,
      "##ٍ": 787,
      "##т": 788,
      "##°": 789,
      "##‪": 790,
      "##{": 791,
      "##٧": 792,
      "##\"": 793,
      "##}": 794,
      "##é": 795,
      "##ñ": 796,
      "##λ": 797,
      "##ε": 798,
      "##κ": 799,
      "##τ": 800,
      "##ο": 801,
      "##ν": 802,
      "##*": 803,
      "##=": 804,
      "##«": 805,
      "##‏": 806,
      "##%": 807,
      "##ç": 808,
      "##!": 809,
      "##е": 810,
      "##́": 811,
      "##л": 812,
      "##ь": 813,
      "##ы": 814,
      "##й": 815,
      "##☺": 816,
      "##ş": 817,
      "##ω": 818,
      "##ς": 819,
      "##←": 820,
      "##ก": 821,
      "##ง": 822,
      "##ï": 823,
      "##ۆ": 824,
      "##'": 825,
      "##ô": 826,
      "##?": 827,
      "##٨": 828,
      "##٤": 829,
      "##<": 830,
      "##ٰ": 831,
      "##:": 832,
      "##&": 833,
      "##ש": 834,
      "##י": 835,
      "##ח": 836,
      "##ö": 837,
      "##✅": 838,
      "##ó": 839,
      "##٢": 840,
      "##è": 841,
      "##ø": 842,
      "##ß": 843,
      "##🔥": 844,
      "##ū": 845,
      "##ː": 846,
      "##⃣": 847,
      "##ڵ": 848,
      "##~": 849,
      "##≈": 850,
      "##г": 851,
      "##გ": 852,
      "##ლ": 853,
      "##ო": 854,
      "##ვ": 855,
      "##ა": 856,
      "##ნ": 857,
      "##ი": 858,
      "##谷": 859,
      "##英": 860,
      "##樹": 861,
      "##ê": 862,
      "##ھ": 863,
      "##̈": 864,
      "##ã": 865,
      "##ს": 866,
      "##მ": 867,
      "##თ": 868,
      "##უ": 869,
      "##à": 870,
      "##γ": 871,
      "##●": 872,
      "##♥": 873,
      "##﻿": 874,
      "##本": 875,
      "##人": 876,
      "##ủ": 877,
      "##­": 878,
      "##子": 879,
      "##ɪ": 880,
      "##å": 881,
      "##♯": 882,
      "##♫": 883,
      "##♪": 884,
      "##​": 885,
      "##ქ": 886,
      "##რ": 887,
      "##ე": 888,
      "###": 889,
      "##ܔ": 890,
      "##语": 891,
      "##": 892,
      "##’": 893,
      "##ə": 894,
      "##ˈ": 895,
      "##ɛ": 896,
      "##ʊ": 897,
      "##👏": 898,
      "##♬": 899,
      "##̊": 900,
      "##ٴ": 901,
      "##😍": 902,
      "##с": 903,
      "##\\": 904,
      "##坛": 905,
      "##东": 906,
      "##门": 907,
      "##к": 908,
      "##у": 909,
      "##ē": 910,
      "##ā": 911,
      "##ṇ": 912,
      "##ī": 913,
      "##•": 914,
      "##š": 915,
      "##î": 916,
      "##月": 917,
      "##旗": 918,
      "##ğ": 919,
      "##›": 920,
      "##軍": 921,
      "##將": 922,
      "##٪": 923,
      "##‘": 924,
      "##⁣": 925,
      "##件": 926,
      "##🇺": 927,
      "##🇩": 928,
      "##🇪": 929,
      "##$": 930,
      "##灣": 931,
      "##🌷": 932,
      "##ł": 933,
      "##🌸": 934,
      "##٬": 935,
      "##ò": 936,
      "##ì": 937,
      "##¬": 938,
      "##ń": 939,
      "##ˌ": 940,
      "##′": 941,
      "##м": 942,
      "##️": 943,
      "##▬": 944,
      "##ζ": 945,
      "##😀": 946,
      "##🤔": 947,
      "##😗": 948,
      "##х": 949,
      "##‭": 950,
      "##😉": 951,
      "##아": 952,
      "##라": 953,
      "##👌": 954,
      "##£": 955,
      "##ڪ": 956,
      "##ٓ": 957,
      "##ʀ": 958,
      "##ɔ": 959,
      "##̃": 960,
      "##‹": 961,
      "##ῖ": 962,
      "##😙": 963,
      "##😔": 964,
      "##😂": 965,
      "##😅": 966,
      "##ű": 967,
      "##я": 968,
      "##פ": 969,
      "##ה": 970,
      "##命": 971,
      "##🇬": 972,
      "##🇷": 973,
      "##": 974,
      "##": 975,
      "##⌘": 976,
      "##湾": 977,
      "##ć": 978,
      "##": 979,
      "##장": 980,
      "##�": 981,
      "##★": 982,
      "##—": 983,
      "##æ": 984,
      "##👻": 985,
      "##β": 986,
      "##ð": 987,
      "##٫": 988,
      "##🍃": 989,
      "##ے": 990,
      "##😁": 991,
      "##ŋ": 992,
      "##😵": 993,
      "##^": 994,
      "##🎄": 995,
      "##ګ": 996,
      "##₩": 997,
      "##➖": 998,
      "##ں": 999,
      "##ћ": 1000,
      "##ṯ": 1001,
      "##¤": 1002,
      "##ý": 1003,
      "##§": 1004,
      "##": 1005,
      "##ё": 1006,
      "##ان": 1007,
      "##ای": 1008,
      "##ار": 1009,
      "##ست": 1010,
      "##ند": 1011,
      "در": 1012,
      "##ین": 1013,
      "به": 1014,
      "می": 1015,
      "##ود": 1016,
      "##ید": 1017,
      "که": 1018,
      "از": 1019,
      "را": 1020,
      "است": 1021,
      "با": 1022,
      "##اد": 1023,
      "بر": 1024,
      "##رد": 1025,
      "##ال": 1026,
      "این": 1027,
      "##ام": 1028,
      "##ور": 1029,
      "##اه": 1030,
      "##یر": 1031,
      "##ات": 1032,
      "آن": 1033,
      "##یم": 1034,
      "یک": 1035,
      "می‌": 1036,
      "##شت": 1037,
      "##ما": 1038,
      "هم": 1039,
      "کن": 1040,
      "##وان": 1041,
      "برای": 1042,
      "##لی": 1043,
      "##اب": 1044,
      "##ری": 1045,
      "##ها": 1046,
      "##ون": 1047,
      "##های": 1048,
      "های": 1049,
      "##ده": 1050,
      "##فت": 1051,
      "##سی": 1052,
      "##ول": 1053,
      "##از": 1054,
      "ان": 1055,
      "##وی": 1056,
      "من": 1057,
      "کرد": 1058,
      "مو": 1059,
      "##گر": 1060,
      "دار": 1061,
      "خود": 1062,
      "##اری": 1063,
      "##را": 1064,
      "##رو": 1065,
      "##لا": 1066,
      "##مان": 1067,
      "##می": 1068,
      "خو": 1069,
      "##تر": 1070,
      "##اده": 1071,
      "شما": 1072,
      "##تی": 1073,
      "بود": 1074,
      "نی": 1075,
      "##کن": 1076,
      "رو": 1077,
      "کار": 1078,
      "##ه‌": 1079,
      "یا": 1080,
      "باش": 1081,
      "بی": 1082,
      "ها": 1083,
      "تا": 1084,
      "##یت": 1085,
      "ما": 1086,
      "##گی": 1087,
      "##زی": 1088,
      "او": 1089,
      "##انی": 1090,
      "تو": 1091,
      "دا": 1092,
      "##خت": 1093,
      "ای": 1094,
      "ده": 1095,
      "شد": 1096,
      "شده": 1097,
      "سال": 1098,
      "##اید": 1099,
      "##اس": 1100,
      "دو": 1101,
      "##ایی": 1102,
      "ام": 1103,
      "هر": 1104,
      "##رک": 1105,
      "دی": 1106,
      "هست": 1107,
      "کند": 1108,
      "##دا": 1109,
      "مح": 1110,
      "کنید": 1111,
      "##یا": 1112,
      "شود": 1113,
      "آم": 1114,
      "توان": 1115,
      "فر": 1116,
      "مت": 1117,
      "پی": 1118,
      "کنند": 1119,
      "مع": 1120,
      "خواه": 1121,
      "##فر": 1122,
      "##بی": 1123,
      "داشت": 1124,
      "##انه": 1125,
      "##قی": 1126,
      "##‌های": 1127,
      "اما": 1128,
      "##نگ": 1129,
      "دست": 1130,
      "##گاه": 1131,
      "سر": 1132,
      "##یل": 1133,
      "تر": 1134,
      "باشد": 1135,
      "##بت": 1136,
      "##له": 1137,
      "دارد": 1138,
      "نمی": 1139,
      "حال": 1140,
      "##نی": 1141,
      "آنها": 1142,
      "##عی": 1143,
      "##اق": 1144,
      "باید": 1145,
      "مد": 1146,
      "##رت": 1147,
      "اگر": 1148,
      "قر": 1149,
      "##توان": 1150,
      "##مای": 1151,
      "##وز": 1152,
      "##ادی": 1153,
      "بد": 1154,
      "مش": 1155,
      "##ارد": 1156,
      "کم": 1157,
      "استف": 1158,
      "گر": 1159,
      "ال": 1160,
      "استفاده": 1161,
      "کش": 1162,
      "باز": 1163,
      "دان": 1164,
      "چه": 1165,
      "##رف": 1166,
      "چی": 1167,
      "##شان": 1168,
      "اس": 1169,
      "##‌ها": 1170,
      "##فته": 1171,
      "بسی": 1172,
      "##جه": 1173,
      "اند": 1174,
      "##جود": 1175,
      "##وری": 1176,
      "##بر": 1177,
      "##اره": 1178,
      "نظ": 1179,
      "دیگر": 1180,
      "##عد": 1181,
      "##اف": 1182,
      "مورد": 1183,
      "زمان": 1184,
      "##وند": 1185,
      "هستند": 1186,
      "##اند": 1187,
      "انج": 1188,
      "##که": 1189,
      "مس": 1190,
      "##نده": 1191,
      "##اخت": 1192,
      "##خو": 1193,
      "##امه": 1194,
      "##عه": 1195,
      "تح": 1196,
      "نو": 1197,
      "##وم": 1198,
      "##دید": 1199,
      "##عت": 1200,
      "پیش": 1201,
      "روز": 1202,
      "انجام": 1203,
      "##کر": 1204,
      "مق": 1205,
      "مرد": 1206,
      "##..": 1207,
      "تن": 1208,
      "##نین": 1209,
      "داد": 1210,
      "اف": 1211,
      "نیست": 1212,
      "##زار": 1213,
      "زند": 1214,
      "جه": 1215,
      "##مل": 1216,
      "تم": 1217,
      "وجود": 1218,
      "##قت": 1219,
      "##رس": 1220,
      "##اط": 1221,
      "انت": 1222,
      "بین": 1223,
      "بیشت": 1224,
      "اج": 1225,
      "##شی": 1226,
      "##رگ": 1227,
      "عن": 1228,
      "##رب": 1229,
      "رس": 1230,
      "##دی": 1231,
      "نیز": 1232,
      "##الی": 1233,
      "##ستان": 1234,
      "مه": 1235,
      "می‌ش": 1236,
      "##کی": 1237,
      "##مین": 1238,
      "همه": 1239,
      "##خص": 1240,
      "پس": 1241,
      "اح": 1242,
      "قرار": 1243,
      "کرده": 1244,
      "##گیر": 1245,
      "بز": 1246,
      "ات": 1247,
      "##رکت": 1248,
      "هی": 1249,
      "گذ": 1250,
      "##ریک": 1251,
      "مم": 1252,
      "روی": 1253,
      "توس": 1254,
      "عنوان": 1255,
      "...": 1256,
      "##امل": 1257,
      "##وت": 1258,
      "خواهد": 1259,
      "زی": 1260,
      "##ترین": 1261,
      "داشته": 1262,
      "کشور": 1263,
      "بخ": 1264,
      "زندگی": 1265,
      "دانش": 1266,
      "دهد": 1267,
      "واق": 1268,
      "ساز": 1269,
      "##ونه": 1270,
      "مط": 1271,
      "سی": 1272,
      "ند": 1273,
      "##شن": 1274,
      "ممکن": 1275,
      "##شته": 1276,
      "می‌توان": 1277,
      "همچ": 1278,
      "##کل": 1279,
      "گفت": 1280,
      "##وه": 1281,
      "##فا": 1282,
      "می‌ک": 1283,
      "##یده": 1284,
      "##امی": 1285,
      "تص": 1286,
      "تج": 1287,
      "مان": 1288,
      "وی": 1289,
      "مج": 1290,
      "داده": 1291,
      "بیشتر": 1292,
      "##رای": 1293,
      "##رز": 1294,
      "راه": 1295,
      "نظر": 1296,
      "بازی": 1297,
      "بسیار": 1298,
      "##شد": 1299,
      "دارند": 1300,
      "می‌کن": 1301,
      "اط": 1302,
      "جم": 1303,
      "##خی": 1304,
      "##ایت": 1305,
      "شرکت": 1306,
      "هیچ": 1307,
      "##دم": 1308,
      "##چه": 1309,
      "نیاز": 1310,
      "کردن": 1311,
      "##قه": 1312,
      "##گان": 1313,
      "برن": 1314,
      "##اص": 1315,
      "##وش": 1316,
      "نام": 1317,
      "نق": 1318,
      "بزرگ": 1319,
      "یکی": 1320,
      "##اتی": 1321,
      "اول": 1322,
      "##است": 1323,
      "##کان": 1324,
      "نه": 1325,
      "کس": 1326,
      "آمریک": 1327,
      "##وا": 1328,
      "اص": 1329,
      "##ورت": 1330,
      "کل": 1331,
      "شه": 1332,
      "افر": 1333,
      "مث": 1334,
      "دور": 1335,
      "بعد": 1336,
      "جدید": 1337,
      "تغ": 1338,
      "تنها": 1339,
      "##مند": 1340,
      "##حی": 1341,
      "20": 1342,
      "تواند": 1343,
      "ساخت": 1344,
      "نمی‌": 1345,
      "چند": 1346,
      "شن": 1347,
      "کمک": 1348,
      "نشان": 1349,
      "همچنین": 1350,
      "##وید": 1351,
      "مردم": 1352,
      "##ارت": 1353,
      "##زای": 1354,
      "فق": 1355,
      "##لب": 1356,
      "##ازه": 1357,
      "##خواه": 1358,
      "##با": 1359,
      "پای": 1360,
      "‌های": 1361,
      "عم": 1362,
      "ماه": 1363,
      "بن": 1364,
      "##سان": 1365,
      "##صد": 1366,
      "زن": 1367,
      "اد": 1368,
      "##ییر": 1369,
      "قب": 1370,
      "تغییر": 1371,
      "طور": 1372,
      "##جا": 1373,
      "##ره": 1374,
      "##لام": 1375,
      "می‌شود": 1376,
      "##er": 1377,
      "چیزی": 1378,
      "واقع": 1379,
      "شوند": 1380,
      "بار": 1381,
      "##عات": 1382,
      "##اک": 1383,
      "##ادر": 1384,
      "سو": 1385,
      "##دود": 1386,
      "##ژی": 1387,
      "##رائ": 1388,
      "##ه‌ای": 1389,
      "کنیم": 1390,
      "آز": 1391,
      "ایر": 1392,
      "##قل": 1393,
      "برنامه": 1394,
      "زیر": 1395,
      "می‌کند": 1396,
      "##لف": 1397,
      "پرو": 1398,
      "توسط": 1399,
      "اع": 1400,
      "همان": 1401,
      "##به": 1402,
      "قد": 1403,
      "جن": 1404,
      "##ه‌ی": 1405,
      "##شه": 1406,
      "##جاد": 1407,
      "دن": 1408,
      "##ورد": 1409,
      "##یه": 1410,
      "ایجاد": 1411,
      "تمام": 1412,
      "##ابل": 1413,
      "آیا": 1414,
      "نا": 1415,
      "##زین": 1416,
      "فقط": 1417,
      "خدا": 1418,
      "بیم": 1419,
      "بل": 1420,
      "##گونه": 1421,
      "##بان": 1422,
      "صورت": 1423,
      "##باره": 1424,
      "##ستم": 1425,
      "آموز": 1426,
      "دل": 1427,
      "##وع": 1428,
      "بیش": 1429,
      "جهان": 1430,
      "مانند": 1431,
      "مص": 1432,
      "##ونی": 1433,
      "طول": 1434,
      "خان": 1435,
      "تب": 1436,
      "##قد": 1437,
      "##ه‌های": 1438,
      "##کار": 1439,
      "##کت": 1440,
      "چیز": 1441,
      "##خاب": 1442,
      "تول": 1443,
      "بسیاری": 1444,
      "##یلی": 1445,
      "حتی": 1446,
      "فع": 1447,
      "نس": 1448,
      "ارت": 1449,
      "هن": 1450,
      "کو": 1451,
      "هایی": 1452,
      "باشید": 1453,
      "انتخاب": 1454,
      "تع": 1455,
      "اینکه": 1456,
      "زمین": 1457,
      "##ثر": 1458,
      "افراد": 1459,
      "خط": 1460,
      "##کس": 1461,
      "##ضی": 1462,
      "گرفت": 1463,
      "یاد": 1464,
      "##بود": 1465,
      "##تاب": 1466,
      "##رسی": 1467,
      "اطلا": 1468,
      "آمریکا": 1469,
      "سه": 1470,
      "وق": 1471,
      "رفت": 1472,
      "برخی": 1473,
      "##تان": 1474,
      "غیر": 1475,
      "نم": 1476,
      "##گذ": 1477,
      "##مال": 1478,
      "تق": 1479,
      "آی": 1480,
      "زمانی": 1481,
      "نش": 1482,
      "مهم": 1483,
      "##قیق": 1484,
      "##لیل": 1485,
      "پر": 1486,
      "##شم": 1487,
      "دول": 1488,
      "##وس": 1489,
      "##on": 1490,
      "##سته": 1491,
      "اخ": 1492,
      "‌ها": 1493,
      "##نج": 1494,
      "##فی": 1495,
      "ایران": 1496,
      "اش": 1497,
      ".»": 1498,
      "##گری": 1499,
      "##وب": 1500,
      "کود": 1501,
      "جای": 1502,
      "##گیری": 1503,
      "##وق": 1504,
      "افزای": 1505,
      "به‌": 1506,
      "##سم": 1507,
      "کتاب": 1508,
      "چرا": 1509,
      "افزایش": 1510,
      "می‌ده": 1511,
      "فیل": 1512,
      "درصد": 1513,
      "##00": 1514,
      "معم": 1515,
      "##بار": 1516,
      "باشند": 1517,
      "نمای": 1518,
      "دهند": 1519,
      "آب": 1520,
      "##بین": 1521,
      "هد": 1522,
      "وا": 1523,
      "بخش": 1524,
      "##اً": 1525,
      "##بال": 1526,
      "##ابی": 1527,
      "دوست": 1528,
      "سا": 1529,
      "مرا": 1530,
      "##کرد": 1531,
      "تولید": 1532,
      "##یس": 1533,
      "شب": 1534,
      "##ریق": 1535,
      "دید": 1536,
      "مر": 1537,
      "فکر": 1538,
      "غذ": 1539,
      "##in": 1540,
      "##زه": 1541,
      "شخص": 1542,
      "مشت": 1543,
      "مدیر": 1544,
      "همین": 1545,
      "##ژه": 1546,
      "دهید": 1547,
      "حق": 1548,
      "علا": 1549,
      "ارائ": 1550,
      "سیا": 1551,
      "وقتی": 1552,
      "میلی": 1553,
      "چگونه": 1554,
      "##یشه": 1555,
      "##یدا": 1556,
      "کسی": 1557,
      "گرو": 1558,
      "##ایل": 1559,
      "توجه": 1560,
      "فرو": 1561,
      "مشکل": 1562,
      "تش": 1563,
      "حس": 1564,
      "فعال": 1565,
      "##رم": 1566,
      "##طور": 1567,
      "بدون": 1568,
      "##سه": 1569,
      "ارائه": 1570,
      "عل": 1571,
      "خار": 1572,
      "مخت": 1573,
      "سازمان": 1574,
      "می‌کنند": 1575,
      "##وط": 1576,
      "##an": 1577,
      "##نه": 1578,
      "کردند": 1579,
      "توانید": 1580,
      "##هایی": 1581,
      "کنم": 1582,
      "##رات": 1583,
      "فرد": 1584,
      "هنگ": 1585,
      "بودند": 1586,
      "عمل": 1587,
      "زیادی": 1588,
      "اعت": 1589,
      "##عیت": 1590,
      "پیدا": 1591,
      "آن‌ها": 1592,
      "کاه": 1593,
      "##ازی": 1594,
      "سیستم": 1595,
      "حا": 1596,
      "احس": 1597,
      "شدن": 1598,
      "##جی": 1599,
      "جنگ": 1600,
      "اه": 1601,
      "##راحی": 1602,
      "##رزش": 1603,
      "شهر": 1604,
      "##بط": 1605,
      "خیلی": 1606,
      "کاهش": 1607,
      "آل": 1608,
      "##روع": 1609,
      "خوب": 1610,
      "خر": 1611,
      "نفر": 1612,
      "##تما": 1613,
      "مطال": 1614,
      "##دار": 1615,
      "19": 1616,
      "##ar": 1617,
      "۲۰": 1618,
      "دولت": 1619,
      "##داشت": 1620,
      "اقت": 1621,
      "شروع": 1622,
      "بال": 1623,
      "##ذیر": 1624,
      "بوده": 1625,
      "مختلف": 1626,
      "گرد": 1627,
      "ترک": 1628,
      "##اش": 1629,
      "کام": 1630,
      "امرو": 1631,
      "گرفته": 1632,
      "سپ": 1633,
      "##وار": 1634,
      "##فق": 1635,
      "اقتص": 1636,
      "##ستی": 1637,
      "خانه": 1638,
      "فیلم": 1639,
      "##وص": 1640,
      "درمان": 1641,
      "انسان": 1642,
      "اطلاعات": 1643,
      "احساس": 1644,
      "##الات": 1645,
      "گروه": 1646,
      "قابل": 1647,
      "##لیه": 1648,
      "##گه": 1649,
      "درباره": 1650,
      "اولین": 1651,
      "موض": 1652,
      "ایم": 1653,
      "##رین": 1654,
      "##یمی": 1655,
      "متح": 1656,
      "##دن": 1657,
      "بهترین": 1658,
      "دیگری": 1659,
      "قبل": 1660,
      "##دان": 1661,
      "##رکز": 1662,
      "گو": 1663,
      "##ویی": 1664,
      "##اسی": 1665,
      "نز": 1666,
      "##زینه": 1667,
      "دلیل": 1668,
      "بناب": 1669,
      "میان": 1670,
      "شک": 1671,
      "منط": 1672,
      "##ولی": 1673,
      "دارید": 1674,
      "مست": 1675,
      "شان": 1676,
      "چنین": 1677,
      "تاری": 1678,
      "منت": 1679,
      "جل": 1680,
      "کسب": 1681,
      "صح": 1682,
      "##یف": 1683,
      "سایت": 1684,
      "##باط": 1685,
      "انگ": 1686,
      "روش": 1687,
      "حرف": 1688,
      "##or": 1689,
      "ترین": 1690,
      "همیشه": 1691,
      "##عث": 1692,
      "می‌تواند": 1693,
      "ندارد": 1694,
      "##ثیر": 1695,
      "تلا": 1696,
      "پرد": 1697,
      "گیر": 1698,
      "زبان": 1699,
      "##راین": 1700,
      "بنابراین": 1701,
      "باعث": 1702,
      "##زش": 1703,
      "ولی": 1704,
      "201": 1705,
      "##یدن": 1706,
      "##میم": 1707,
      "کوچ": 1708,
      "##سر": 1709,
      "##اهی": 1710,
      "موفق": 1711,
      "قدرت": 1712,
      "احت": 1713,
      "ارو": 1714,
      "##ینی": 1715,
      "##مه": 1716,
      "خانو": 1717,
      "پاس": 1718,
      "آورد": 1719,
      "معمول": 1720,
      "ارتباط": 1721,
      "گذشته": 1722,
      "مخ": 1723,
      "دریا": 1724,
      "سط": 1725,
      "طراحی": 1726,
      "خدم": 1727,
      "کاری": 1728,
      "اجتما": 1729,
      "قان": 1730,
      "تعد": 1731,
      "طریق": 1732,
      "محص": 1733,
      "##ضر": 1734,
      "##اور": 1735,
      "اروپ": 1736,
      "آنچه": 1737,
      "تلاش": 1738,
      "اب": 1739,
      "مدت": 1740,
      "جهانی": 1741,
      "سری": 1742,
      "اشت": 1743,
      "هدف": 1744,
      "حدود": 1745,
      "##یب": 1746,
      "سن": 1747,
      "دنبال": 1748,
      "##گو": 1749,
      "بهتر": 1750,
      "##en": 1751,
      "##اپ": 1752,
      "##ودی": 1753,
      "شامل": 1754,
      "##ومی": 1755,
      "##مد": 1756,
      "دانشگاه": 1757,
      "وب": 1758,
      "بالا": 1759,
      "هنوز": 1760,
      "##گز": 1761,
      "##ربه": 1762,
      "محصول": 1763,
      "توسعه": 1764,
      "خاص": 1765,
      "##نان": 1766,
      "##گرد": 1767,
      "ار": 1768,
      "اصلی": 1769,
      "اجتماعی": 1770,
      "سرمای": 1771,
      "قط": 1772,
      "بدن": 1773,
      "شم": 1774,
      "##ریان": 1775,
      "##افی": 1776,
      "نوع": 1777,
      "##ویس": 1778,
      "افت": 1779,
      "سای": 1780,
      "لی": 1781,
      "خرید": 1782,
      "آینده": 1783,
      "##al": 1784,
      "مسئ": 1785,
      "##at": 1786,
      "دریافت": 1787,
      "خواهند": 1788,
      "##ندی": 1789,
      "فروش": 1790,
      "##اسب": 1791,
      "ته": 1792,
      "##ران": 1793,
      "تان": 1794,
      "ادامه": 1795,
      "##ندگان": 1796,
      "تحقیق": 1797,
      "مصرف": 1798,
      "کمی": 1799,
      "کننده": 1800,
      "خواهید": 1801,
      "زنان": 1802,
      "##هن": 1803,
      "نسبت": 1804,
      "تصمیم": 1805,
      "بع": 1806,
      "تأ": 1807,
      "##راه": 1808,
      "احتمال": 1809,
      "زیرا": 1810,
      "خانواده": 1811,
      "پاسخ": 1812,
      "دادن": 1813,
      "##شر": 1814,
      "جز": 1815,
      "##فاوت": 1816,
      "##ضای": 1817,
      "حاضر": 1818,
      "##رح": 1819,
      "گی": 1820,
      "نیر": 1821,
      "دارای": 1822,
      "بررسی": 1823,
      "##اح": 1824,
      "مالی": 1825,
      "رشد": 1826,
      "آموزش": 1827,
      "ساعت": 1828,
      "##وک": 1829,
      "کوچک": 1830,
      "نزدی": 1831,
      "می‌دهد": 1832,
      "کنتر": 1833,
      "حالی": 1834,
      "بگیر": 1835,
      "چهار": 1836,
      "میلیون": 1837,
      "ندار": 1838,
      "##مت": 1839,
      "تجربه": 1840,
      "جام": 1841,
      "##مللی": 1842,
      "ری": 1843,
      "##es": 1844,
      "فعالیت": 1845,
      "صد": 1846,
      "##ابر": 1847,
      "گزار": 1848,
      "کلی": 1849,
      "شرای": 1850,
      "شرایط": 1851,
      "تبد": 1852,
      "اض": 1853,
      "##کنون": 1854,
      "کنترل": 1855,
      "نتی": 1856,
      "میز": 1857,
      "تبدیل": 1858,
      "##برد": 1859,
      "توانند": 1860,
      "صف": 1861,
      "پشت": 1862,
      "##ائ": 1863,
      "موضوع": 1864,
      "همراه": 1865,
      "خوبی": 1866,
      "مل": 1867,
      "گفته": 1868,
      "پزش": 1869,
      "کامل": 1870,
      "داخ": 1871,
      "امروز": 1872,
      "##اران": 1873,
      "تحت": 1874,
      "خص": 1875,
      "##رده": 1876,
      "طبی": 1877,
      "هزار": 1878,
      "ارزش": 1879,
      "وارد": 1880,
      "ست": 1881,
      "##ظه": 1882,
      "پنج": 1883,
      "##اطر": 1884,
      "بده": 1885,
      "بتوان": 1886,
      "آغ": 1887,
      "##لاح": 1888,
      "۱۹": 1889,
      "##شار": 1890,
      "اک": 1891,
      "وقت": 1892,
      "گست": 1893,
      "##ضا": 1894,
      "سطح": 1895,
      "##ویر": 1896,
      "منطقه": 1897,
      "بلکه": 1898,
      "چون": 1899,
      "##ه‌اند": 1900,
      "بیماری": 1901,
      "بازار": 1902,
      "گزارش": 1903,
      "حل": 1904,
      "##ازم": 1905,
      "##در": 1906,
      "شاید": 1907,
      "هفته": 1908,
      "اخت": 1909,
      "اجازه": 1910,
      "صحبت": 1911,
      "##نا": 1912,
      "##یدی": 1913,
      "سب": 1914,
      "مرب": 1915,
      "خوان": 1916,
      "پذیر": 1917,
      "صن": 1918,
      "##گوی": 1919,
      "خصوص": 1920,
      "اندازه": 1921,
      "تعداد": 1922,
      "چشم": 1923,
      "##گران": 1924,
      "مدیریت": 1925,
      "مواد": 1926,
      "##‌تر": 1927,
      "##پی": 1928,
      "سخ": 1929,
      "حدا": 1930,
      "پول": 1931,
      "شی": 1932,
      "اغ": 1933,
      "دلار": 1934,
      "##۰۰": 1935,
      "سلام": 1936,
      "آخ": 1937,
      "آسی": 1938,
      "پایان": 1939,
      "شکل": 1940,
      "##ندان": 1941,
      "سل": 1942,
      "یع": 1943,
      "بیشتری": 1944,
      "آغاز": 1945,
      "##فاق": 1946,
      "محدود": 1947,
      "نتیجه": 1948,
      "##رژی": 1949,
      "مثال": 1950,
      "وض": 1951,
      "برابر": 1952,
      "درست": 1953,
      "واقعی": 1954,
      "##تری": 1955,
      "مغ": 1956,
      "کان": 1957,
      "ایالات": 1958,
      "خواست": 1959,
      "هستید": 1960,
      "دوره": 1961,
      "##le": 1962,
      "مثل": 1963,
      "سف": 1964,
      "خطر": 1965,
      "##دام": 1966,
      "متحده": 1967,
      "خوش": 1968,
      "صفح": 1969,
      "##it": 1970,
      "ابت": 1971,
      "یافت": 1972,
      "وز": 1973,
      "یعنی": 1974,
      "اتفاق": 1975,
      "اید": 1976,
      "##بران": 1977,
      "نگاه": 1978,
      "طرف": 1979,
      "اغلب": 1980,
      "دنیا": 1981,
      "جمله": 1982,
      "ره": 1983,
      "##خواست": 1984,
      "##فه": 1985,
      "حمای": 1986,
      "##نت": 1987,
      "مربوط": 1988,
      "##ic": 1989,
      "##ابت": 1990,
      "شدند": 1991,
      "هزینه": 1992,
      "##انس": 1993,
      "بح": 1994,
      "امکان": 1995,
      "چین": 1996,
      "##وست": 1997,
      "موارد": 1998,
      "مک": 1999,
      "مناسب": 2000,
      "اروپا": 2001,
      "نبود": 2002,
      "اساس": 2003,
      "البت": 2004,
      "عب": 2005,
      "حض": 2006,
      "تاریخ": 2007,
      "نزدیک": 2008,
      "##ه‌ها": 2009,
      "دیگران": 2010,
      "».": 2011,
      "کسانی": 2012,
      "البته": 2013,
      "تیم": 2014,
      "پیر": 2015,
      "##داری": 2016,
      "مشخص": 2017,
      "منظ": 2018,
      "حمایت": 2019,
      "لازم": 2020,
      "انرژی": 2021,
      "آزمای": 2022,
      "##کاری": 2023,
      "امن": 2024,
      "خدمات": 2025,
      "رای": 2026,
      "هنگامی": 2027,
      "قیم": 2028,
      "جان": 2029,
      "##قات": 2030,
      "خاطر": 2031,
      "##ربی": 2032,
      "روسی": 2033,
      "فل": 2034,
      "هوا": 2035,
      "##بری": 2036,
      "مرت": 2037,
      "مطالعه": 2038,
      "شناخت": 2039,
      "موجود": 2040,
      "آر": 2041,
      "اینجا": 2042,
      "جمه": 2043,
      "سرا": 2044,
      "اقتصادی": 2045,
      "رابط": 2046,
      "طب": 2047,
      "داریم": 2048,
      "می‌خواه": 2049,
      "##جر": 2050,
      "قانون": 2051,
      "بدان": 2052,
      "تقری": 2053,
      "نگه": 2054,
      "کودکان": 2055,
      "کافی": 2056,
      "سرمایه": 2057,
      "توص": 2058,
      "کاملا": 2059,
      "##شید": 2060,
      "##رخ": 2061,
      "تاثیر": 2062,
      "خون": 2063,
      "پیشر": 2064,
      "##اله": 2065,
      "##ولو": 2066,
      "##ویت": 2067,
      "##رض": 2068,
      "سایر": 2069,
      "سپس": 2070,
      "تک": 2071,
      "##این": 2072,
      "خواب": 2073,
      "##صل": 2074,
      "اعلام": 2075,
      "##یره": 2076,
      "##ئیس": 2077,
      "سیاسی": 2078,
      "سریع": 2079,
      "می‌شوند": 2080,
      "دخ": 2081,
      "انتظ": 2082,
      "ملی": 2083,
      "حی": 2084,
      "##گذار": 2085,
      "سفر": 2086,
      "نخواه": 2087,
      "تقریبا": 2088,
      "نمایش": 2089,
      "شخصی": 2090,
      "اقد": 2091,
      "10": 2092,
      "کردم": 2093,
      "جو": 2094,
      "مرگ": 2095,
      "اکنون": 2096,
      "آزمایش": 2097,
      "شوید": 2098,
      "رنگ": 2099,
      "##من": 2100,
      "نت": 2101,
      "قیمت": 2102,
      "کمتر": 2103,
      "زمینه": 2104,
      "##st": 2105,
      "داستان": 2106,
      "درک": 2107,
      "in": 2108,
      "بهبود": 2109,
      "پرداخت": 2110,
      "جا": 2111,
      "##‌اند": 2112,
      "مجم": 2113,
      "بان": 2114,
      "هرگز": 2115,
      "كه": 2116,
      "دارم": 2117,
      "نقش": 2118,
      "تکن": 2119,
      "لب": 2120,
      "المللی": 2121,
      "طبیعی": 2122,
      "حقی": 2123,
      "انتظار": 2124,
      "می‌کرد": 2125,
      "##شین": 2126,
      "##جوی": 2127,
      "فرز": 2128,
      "بعضی": 2129,
      "رسید": 2130,
      "جوان": 2131,
      "##وهای": 2132,
      "مذ": 2133,
      "کودک": 2134,
      "ساده": 2135,
      "##امبر": 2136,
      "انتق": 2137,
      "مادر": 2138,
      "حف": 2139,
      "محی": 2140,
      "محیط": 2141,
      "پروژه": 2142,
      "خارج": 2143,
      "##امات": 2144,
      "پار": 2145,
      "محت": 2146,
      "##ro": 2147,
      "حداقل": 2148,
      "لح": 2149,
      "سخت": 2150,
      "کنار": 2151,
      "عمومی": 2152,
      "##خورد": 2153,
      "روسیه": 2154,
      "##اهای": 2155,
      "##اتر": 2156,
      "شر": 2157,
      "عو": 2158,
      "##وده": 2159,
      "ببین": 2160,
      "دقیق": 2161,
      "##ئن": 2162,
      "##میت": 2163,
      "موفقیت": 2164,
      "ساخته": 2165,
      "فرص": 2166,
      "نخ": 2167,
      "تما": 2168,
      "خلا": 2169,
      "رق": 2170,
      "##ونت": 2171,
      "سیاست": 2172,
      "دوم": 2173,
      ").": 2174,
      "موق": 2175,
      "آماده": 2176,
      "ور": 2177,
      "افرادی": 2178,
      "حقوق": 2179,
      "حفظ": 2180,
      "مشکلات": 2181,
      "##قدر": 2182,
      "تل": 2183,
      "خداوند": 2184,
      "نف": 2185,
      "انگلی": 2186,
      "اثر": 2187,
      "حک": 2188,
      "شبکه": 2189,
      "جامعه": 2190,
      "##اخ": 2191,
      "بودن": 2192,
      "نکن": 2193,
      "##کو": 2194,
      "آنجا": 2195,
      "th": 2196,
      "حد": 2197,
      "فی": 2198,
      "رفتار": 2199,
      "سازی": 2200,
      "حساب": 2201,
      "##ولوژی": 2202,
      "هو": 2203,
      "۲۰۱": 2204,
      "علیه": 2205,
      "سوی": 2206,
      "نکرد": 2207,
      "پرس": 2208,
      "##الت": 2209,
      "حرکت": 2210,
      "##صر": 2211,
      "صفحه": 2212,
      "دستگاه": 2213,
      "کشورهای": 2214,
      "صرف": 2215,
      "طی": 2216,
      "قادر": 2217,
      "جست": 2218,
      "##آمد": 2219,
      "200": 2220,
      "آنان": 2221,
      "جلو": 2222,
      "رئیس": 2223,
      "رابطه": 2224,
      "##غان": 2225,
      "##گوید": 2226,
      "آلمان": 2227,
      "سرعت": 2228,
      "مب": 2229,
      "##ایج": 2230,
      "نب": 2231,
      "گذاری": 2232,
      "خور": 2233,
      "میزان": 2234,
      "##اهده": 2235,
      "دوباره": 2236,
      "##مندان": 2237,
      "غذایی": 2238,
      "##مز": 2239,
      "##ابع": 2240,
      "##re": 2241,
      "##لح": 2242,
      "##خصص": 2243,
      "امید": 2244,
      "نمی‌توان": 2245,
      "##لق": 2246,
      "##خانه": 2247,
      "متفاوت": 2248,
      "##ئی": 2249,
      "تخ": 2250,
      "گذا": 2251,
      "##ac": 2252,
      "##هنگ": 2253,
      "جایی": 2254,
      "خارجی": 2255,
      "##گیرد": 2256,
      "سراسر": 2257,
      "گاهی": 2258,
      "##کتر": 2259,
      "آمریکایی": 2260,
      "علاوه": 2261,
      "عض": 2262,
      "عکس": 2263,
      "باور": 2264,
      "##افه": 2265,
      "هنگام": 2266,
      "برق": 2267,
      "تف": 2268,
      "آسیب": 2269,
      "بپ": 2270,
      "مار": 2271,
      "مف": 2272,
      "##om": 2273,
      "پیشنه": 2274,
      "آزاد": 2275,
      "تصویر": 2276,
      "اخیر": 2277,
      "حمل": 2278,
      "ویژه": 2279,
      "بیان": 2280,
      "وضعیت": 2281,
      "##ion": 2282,
      "##طان": 2283,
      "نوشت": 2284,
      "هستیم": 2285,
      "دسترسی": 2286,
      "معمولا": 2287,
      "خبر": 2288,
      "گونه": 2289,
      "بخشی": 2290,
      "واقعا": 2291,
      "آمده": 2292,
      "معت": 2293,
      "حم": 2294,
      "یاب": 2295,
      "راح": 2296,
      "فرم": 2297,
      "##کند": 2298,
      "بیمار": 2299,
      "کوت": 2300,
      "گل": 2301,
      "##سازی": 2302,
      "##کیل": 2303,
      "می‌توانید": 2304,
      "طولانی": 2305,
      "نتایج": 2306,
      "حقیقت": 2307,
      "مستق": 2308,
      "مشاهده": 2309,
      "##یز": 2310,
      "داشتن": 2311,
      "اشتب": 2312,
      "##ظت": 2313,
      "دختر": 2314,
      "نور": 2315,
      "شناس": 2316,
      "تجاری": 2317,
      "برگ": 2318,
      "زیاد": 2319,
      "##ستگی": 2320,
      "##رش": 2321,
      "##اهم": 2322,
      "پایین": 2323,
      "فشار": 2324,
      "هنر": 2325,
      "سعی": 2326,
      "##el": 2327,
      "یافته": 2328,
      "یه": 2329,
      "برس": 2330,
      "اینتر": 2331,
      "مسیر": 2332,
      "مکان": 2333,
      "##افق": 2334,
      "نشده": 2335,
      "ابزار": 2336,
      "##بور": 2337,
      "منتشر": 2338,
      "خورد": 2339,
      "بیر": 2340,
      "##دیگر": 2341,
      "##قق": 2342,
      "مشتریان": 2343,
      "##وریه": 2344,
      "آش": 2345,
      "عملی": 2346,
      "امنیت": 2347,
      "حضور": 2348,
      "##داف": 2349,
      "##‌ال": 2350,
      "جذ": 2351,
      "##لمان": 2352,
      "##وجه": 2353,
      "##تن": 2354,
      "کیف": 2355,
      "##جب": 2356,
      "##گار": 2357,
      "پدر": 2358,
      "مبت": 2359,
      "قسم": 2360,
      "نباید": 2361,
      "##قا": 2362,
      "رخ": 2363,
      "عالی": 2364,
      "##ظیم": 2365,
      "مهارت": 2366,
      "اقتصاد": 2367,
      "آور": 2368,
      "معن": 2369,
      "فرا": 2370,
      "اضافه": 2371,
      "معنی": 2372,
      "ایشان": 2373,
      "محصولات": 2374,
      "درخواست": 2375,
      "فران": 2376,
      "مدل": 2377,
      "فرصت": 2378,
      "##‌ترین": 2379,
      "لذ": 2380,
      "مطم": 2381,
      "آمد": 2382,
      "شور": 2383,
      "بی‌": 2384,
      "شناخته": 2385,
      "تلف": 2386,
      "##ومت": 2387,
      "مرح": 2388,
      "دم": 2389,
      "##طه": 2390,
      "##عا": 2391,
      "حالا": 2392,
      "شو": 2393,
      "استرات": 2394,
      "خش": 2395,
      "##ابه": 2396,
      "سنگ": 2397,
      "##et": 2398,
      "همکاری": 2399,
      "موسی": 2400,
      "نظامی": 2401,
      "استراتژی": 2402,
      ")،": 2403,
      "اسرائ": 2404,
      "گیرد": 2405,
      "##راف": 2406,
      "درد": 2407,
      "توانایی": 2408,
      "مبار": 2409,
      "مرکز": 2410,
      "بودم": 2411,
      "##لم": 2412,
      "##ou": 2413,
      "##ابط": 2414,
      "نخست": 2415,
      "ساله": 2416,
      "##جو": 2417,
      "##سانی": 2418,
      "منابع": 2419,
      "تمرکز": 2420,
      "##نامه": 2421,
      "پیشنهاد": 2422,
      "غذا": 2423,
      "##ادل": 2424,
      "چیست": 2425,
      "##is": 2426,
      "محل": 2427,
      "ترس": 2428,
      "ثبت": 2429,
      "کلا": 2430,
      "##الب": 2431,
      "روشن": 2432,
      "گیری": 2433,
      "نویس": 2434,
      "طرح": 2435,
      "سمت": 2436,
      "##امین": 2437,
      "جنسی": 2438,
      "##امپ": 2439,
      "دیده": 2440,
      "##رار": 2441,
      "##ماد": 2442,
      "##شود": 2443,
      "جمع": 2444,
      "اشتباه": 2445,
      "بعدی": 2446,
      "##بات": 2447,
      "##قای": 2448,
      "##واره": 2449,
      "روان": 2450,
      "روابط": 2451,
      "##شق": 2452,
      "کشت": 2453,
      "گوش": 2454,
      "حرفه": 2455,
      "انگی": 2456,
      "##ين": 2457,
      "نیستند": 2458,
      "آگاه": 2459,
      "##تل": 2460,
      "ضر": 2461,
      "##هایت": 2462,
      "می‌توانند": 2463,
      "دقی": 2464,
      "هستم": 2465,
      "دهه": 2466,
      "بس": 2467,
      "پیام": 2468,
      "خودش": 2469,
      "عملکرد": 2470,
      "##ریم": 2471,
      "خودتان": 2472,
      "اشاره": 2473,
      "##نو": 2474,
      "پیشرفت": 2475,
      "st": 2476,
      "ایده": 2477,
      "شغ": 2478,
      "##کنان": 2479,
      "اکثر": 2480,
      "فراهم": 2481,
      "اتح": 2482,
      "‌ای": 2483,
      "متوجه": 2484,
      "##‌هایی": 2485,
      "داخلی": 2486,
      "منجر": 2487,
      "خواهیم": 2488,
      "روند": 2489,
      "##oo": 2490,
      "##واج": 2491,
      "توضی": 2492,
      "##باشد": 2493,
      "##ائل": 2494,
      "داشتند": 2495,
      "جهت": 2496,
      "فه": 2497,
      "اعتماد": 2498,
      "مقدار": 2499,
      "مدرس": 2500,
      "کدام": 2501,
      "افغان": 2502,
      "صنعت": 2503,
      "تغییرات": 2504,
      "ماند": 2505,
      "تشکیل": 2506,
      "تحقیقات": 2507,
      "کال": 2508,
      "بگیرید": 2509,
      "انگلیسی": 2510,
      "##بانی": 2511,
      "منظور": 2512,
      "نگر": 2513,
      "##خیص": 2514,
      "مها": 2515,
      "##am": 2516,
      "تحص": 2517,
      "گرفتن": 2518,
      "تمرین": 2519,
      "رسد": 2520,
      "مراق": 2521,
      "پوش": 2522,
      "سوم": 2523,
      "استخ": 2524,
      "بازاری": 2525,
      "the": 2526,
      "##ینه": 2527,
      "آخرین": 2528,
      "دقیقه": 2529,
      "##as": 2530,
      "ماشین": 2531,
      "پوست": 2532,
      "مشتری": 2533,
      "##ریف": 2534,
      "نداشت": 2535,
      "ویژ": 2536,
      "تشخیص": 2537,
      "دهیم": 2538,
      "برد": 2539,
      "کی": 2540,
      "##ناه": 2541,
      "حمله": 2542,
      "رژ": 2543,
      "هوش": 2544,
      "‌هایی": 2545,
      "اپ": 2546,
      "شاه": 2547,
      "باشیم": 2548,
      "مطمئن": 2549,
      "بانک": 2550,
      "ندارند": 2551,
      "دنی": 2552,
      "کاربران": 2553,
      "توضیح": 2554,
      "گوی": 2555,
      "دوستان": 2556,
      "اسپ": 2557,
      "سخن": 2558,
      "مرحله": 2559,
      "##راک": 2560,
      "انقل": 2561,
      "مستقیم": 2562,
      "باقی": 2563,
      "توصیه": 2564,
      "افز": 2565,
      "آزادی": 2566,
      "اتاق": 2567,
      "می‌دان": 2568,
      "بسته": 2569,
      "نمود": 2570,
      "تس": 2571,
      "##لیغ": 2572,
      "هفت": 2573,
      "تبلیغ": 2574,
      "##حل": 2575,
      "وسی": 2576,
      "می‌آ": 2577,
      "##ظر": 2578,
      "ظاه": 2579,
      "##یتال": 2580,
      "امر": 2581,
      "متن": 2582,
      "##گذاری": 2583,
      "کوتاه": 2584,
      "عشق": 2585,
      "وزن": 2586,
      "گوید": 2587,
      "برخورد": 2588,
      "نفت": 2589,
      "##لاین": 2590,
      "جریان": 2591,
      "نهایت": 2592,
      "۱۰": 2593,
      "شکست": 2594,
      "رود": 2595,
      "##گفت": 2596,
      "##واع": 2597,
      "اهداف": 2598,
      "انواع": 2599,
      "##عیین": 2600,
      "تعیین": 2601,
      "واقعیت": 2602,
      "##میز": 2603,
      "مرتبط": 2604,
      "سوریه": 2605,
      "اجرا": 2606,
      "پاک": 2607,
      "##سال": 2608,
      "مردان": 2609,
      "قه": 2610,
      "رژیم": 2611,
      "بلند": 2612,
      "مشابه": 2613,
      "an": 2614,
      "مغز": 2615,
      "مدرسه": 2616,
      "ارس": 2617,
      "##il": 2618,
      "تمامی": 2619,
      "بخواه": 2620,
      "می‌کنید": 2621,
      "تهدید": 2622,
      "کاناد": 2623,
      "اطلاع": 2624,
      "استاند": 2625,
      "بیرون": 2626,
      "مناط": 2627,
      "توافق": 2628,
      "اق": 2629,
      "ابتدا": 2630,
      "چندین": 2631,
      "محقق": 2632,
      "بحث": 2633,
      "آت": 2634,
      "ازد": 2635,
      "سلامت": 2636,
      "حالت": 2637,
      "نوشته": 2638,
      "اطمین": 2639,
      "جمهوری": 2640,
      "موسیقی": 2641,
      "یکدیگر": 2642,
      "##امت": 2643,
      "نسخ": 2644,
      "اهمیت": 2645,
      "داخل": 2646,
      "ویر": 2647,
      "محاف": 2648,
      "کیفیت": 2649,
      "می‌رس": 2650,
      "میل": 2651,
      "##شناس": 2652,
      "همچنان": 2653,
      "اطمینان": 2654,
      "##ادگی": 2655,
      "آنلاین": 2656,
      "نرم": 2657,
      "##گل": 2658,
      "##گون": 2659,
      "عرض": 2660,
      "##ed": 2661,
      "مال": 2662,
      "##آن": 2663,
      "##راح": 2664,
      "ازدواج": 2665,
      "عق": 2666,
      "استاندارد": 2667,
      "درآمد": 2668,
      "لذت": 2669,
      "اسرائیل": 2670,
      "##اموش": 2671,
      "سود": 2672,
      "قوی": 2673,
      "اینترنت": 2674,
      "جلوگیری": 2675,
      "تای": 2676,
      "می‌گوید": 2677,
      "##آوری": 2678,
      "آسان": 2679,
      "سرطان": 2680,
      "پزشکی": 2681,
      "سفید": 2682,
      "شدید": 2683,
      "محلی": 2684,
      "اعضای": 2685,
      "کشف": 2686,
      "قسمت": 2687,
      "ذهن": 2688,
      "نص": 2689,
      "علاقه": 2690,
      "افغانستان": 2691,
      "##بیه": 2692,
      "فرانسه": 2693,
      "ویژگی": 2694,
      "ورزش": 2695,
      "نکنید": 2696,
      "##ادت": 2697,
      "سلول": 2698,
      "فیزی": 2699,
      "##وعه": 2700,
      "##تح": 2701,
      "##الد": 2702,
      "ساختمان": 2703,
      "خصوصی": 2704,
      "تکنولوژی": 2705,
      "بازگ": 2706,
      "اختی": 2707,
      "گزینه": 2708,
      "پیچ": 2709,
      "12": 2710,
      "##مون": 2711,
      "پاد": 2712,
      "خی": 2713,
      "عرا": 2714,
      "طبق": 2715,
      "پل": 2716,
      "جدا": 2717,
      "میلیارد": 2718,
      "راست": 2719,
      "اولیه": 2720,
      "کامپی": 2721,
      "کا": 2722,
      "##تور": 2723,
      "می‌کنم": 2724,
      "تأثیر": 2725,
      "نخواهد": 2726,
      "بندی": 2727,
      "مجموعه": 2728,
      "##ch": 2729,
      "##ol": 2730,
      "##داشته": 2731,
      "15": 2732,
      "##پیم": 2733,
      "سوال": 2734,
      "ارسال": 2735,
      "##رافی": 2736,
      "فوق": 2737,
      "نیم": 2738,
      "##وتی": 2739,
      "بگذار": 2740,
      "قرن": 2741,
      "##جات": 2742,
      "دادند": 2743,
      "دوران": 2744,
      "ارز": 2745,
      "آرام": 2746,
      "##انیا": 2747,
      "بازاریابی": 2748,
      "درو": 2749,
      "سالم": 2750,
      "وس": 2751,
      "##لیس": 2752,
      "مسئله": 2753,
      "##ایش": 2754,
      "عد": 2755,
      "فرهنگ": 2756,
      "گسترش": 2757,
      "قوان": 2758,
      "##یبانی": 2759,
      "پشتیبانی": 2760,
      "##افت": 2761,
      "آموزان": 2762,
      "انتقال": 2763,
      "تجارت": 2764,
      "##اصل": 2765,
      "##لیت": 2766,
      "##ad": 2767,
      "مقاله": 2768,
      "##فاع": 2769,
      "جدی": 2770,
      "ترکیه": 2771,
      "زنده": 2772,
      "##iv": 2773,
      "کنندگان": 2774,
      "##رفی": 2775,
      "مناطق": 2776,
      "18": 2777,
      "دری": 2778,
      "##ابق": 2779,
      "تفاوت": 2780,
      "پژ": 2781,
      "مسائل": 2782,
      "آقای": 2783,
      "##ئم": 2784,
      "تصور": 2785,
      "##وای": 2786,
      "رفتن": 2787,
      "تنظیم": 2788,
      "دانشجوی": 2789,
      ".\"": 2790,
      "کارهای": 2791,
      "حیوان": 2792,
      "ترامپ": 2793,
      "##چار": 2794,
      "جدیدی": 2795,
      "خواهم": 2796,
      "یابد": 2797,
      "برنام": 2798,
      "هند": 2799,
      "متخصص": 2800,
      "امریک": 2801,
      "##لاف": 2802,
      "اوقات": 2803,
      "##اکر": 2804,
      "اسل": 2805,
      "می‌دهند": 2806,
      "ران": 2807,
      "می‌کنیم": 2808,
      "کلم": 2809,
      "آدم": 2810,
      "شیر": 2811,
      "فار": 2812,
      "اقدام": 2813,
      "شخصیت": 2814,
      "قلب": 2815,
      "##داد": 2816,
      "##وزی": 2817,
      "##ing": 2818,
      "آتش": 2819,
      "##ریه": 2820,
      "فرزند": 2821,
      "##وبی": 2822,
      "خودم": 2823,
      "فلس": 2824,
      "مجبور": 2825,
      "کردیم": 2826,
      "موا": 2827,
      "##کته": 2828,
      "گسترده": 2829,
      "تماس": 2830,
      "نیروهای": 2831,
      "##بح": 2832,
      "اله": 2833,
      "تحلیل": 2834,
      "اختیار": 2835,
      "احتمالا": 2836,
      "قوانین": 2837,
      "مهاج": 2838,
      "این‌": 2839,
      "##جمه": 2840,
      "دنیای": 2841,
      "##ندگی": 2842,
      "موس": 2843,
      "حز": 2844,
      "##خته": 2845,
      "یادگیری": 2846,
      "پژوه": 2847,
      "قدیمی": 2848,
      "آید": 2849,
      "مقابل": 2850,
      "قصد": 2851,
      "صلح": 2852,
      "چقدر": 2853,
      "معرفی": 2854,
      "مشترک": 2855,
      "گوگل": 2856,
      "بنی": 2857,
      "بگوی": 2858,
      "لو": 2859,
      "هواپیم": 2860,
      "مبارزه": 2861,
      "of": 2862,
      "آس": 2863,
      "صبح": 2864,
      "##ئو": 2865,
      "دارو": 2866,
      "##نم": 2867,
      "##ولیت": 2868,
      "رسانه": 2869,
      "بچه": 2870,
      "موقعیت": 2871,
      "انسانی": 2872,
      "فضای": 2873,
      "مدار": 2874,
      "بازگشت": 2875,
      "ایست": 2876,
      "عراق": 2877,
      "انداز": 2878,
      "بزرگترین": 2879,
      "##دای": 2880,
      "بهداشت": 2881,
      "بازدید": 2882,
      "امنی": 2883,
      "مقای": 2884,
      "اتحادی": 2885,
      "درون": 2886,
      "رسیدن": 2887,
      "##خصوص": 2888,
      "سیاه": 2889,
      "گذاشت": 2890,
      "تض": 2891,
      "تاب": 2892,
      "برند": 2893,
      "مای": 2894,
      "اعمال": 2895,
      "نسخه": 2896,
      "بش": 2897,
      "بینی": 2898,
      "دستور": 2899,
      "پا": 2900,
      "ببر": 2901,
      "چطور": 2902,
      "بشر": 2903,
      "فصل": 2904,
      "##حد": 2905,
      "دچار": 2906,
      "##id": 2907,
      "الله": 2908,
      "کانادا": 2909,
      "عدم": 2910,
      "شده‌اند": 2911,
      "گرم": 2912,
      "وظ": 2913,
      "##ناک": 2914,
      "بهره": 2915,
      "نیروی": 2916,
      "۲۰۰": 2917,
      "مذاکر": 2918,
      "شبیه": 2919,
      "ارزی": 2920,
      "همانطور": 2921,
      "علمی": 2922,
      "مقایسه": 2923,
      "##کنش": 2924,
      "نمونه": 2925,
      "ترکیب": 2926,
      "##وتر": 2927,
      "##ویزی": 2928,
      "حاصل": 2929,
      "##یند": 2930,
      "##زا": 2931,
      "متع": 2932,
      "ضد": 2933,
      "دوربین": 2934,
      "عبارت": 2935,
      "##گزین": 2936,
      "فردی": 2937,
      "فض": 2938,
      "تلفن": 2939,
      "جستجو": 2940,
      "لباس": 2941,
      "ژاپ": 2942,
      "کره": 2943,
      "##رن": 2944,
      "##لود": 2945,
      "نقطه": 2946,
      "گردد": 2947,
      "شش": 2948,
      "تروری": 2949,
      "بزر": 2950,
      "امنیتی": 2951,
      "مسی": 2952,
      "مثبت": 2953,
      "رسمی": 2954,
      "جایگزین": 2955,
      "مفید": 2956,
      "حزب": 2957,
      "تازه": 2958,
      "کمپ": 2959,
      "قل": 2960,
      "دسترس": 2961,
      "زیب": 2962,
      "ناب": 2963,
      "عص": 2964,
      "میتوان": 2965,
      "تلویزی": 2966,
      "نامه": 2967,
      "شا": 2968,
      "##کنند": 2969,
      "مشاور": 2970,
      "نار": 2971,
      "شدت": 2972,
      "ابر": 2973,
      "##ay": 2974,
      "عاش": 2975,
      "نح": 2976,
      "##بع": 2977,
      "برج": 2978,
      "##روت": 2979,
      "پرداز": 2980,
      "کجا": 2981,
      "قرآن": 2982,
      "اطراف": 2983,
      "##مانی": 2984,
      "فراموش": 2985,
      "متوس": 2986,
      "##عهد": 2987,
      "ارزیابی": 2988,
      "مسا": 2989,
      "بک": 2990,
      "مدا": 2991,
      "ژن": 2992,
      "##عاده": 2993,
      "امیدوار": 2994,
      "شهرو": 2995,
      "محققان": 2996,
      "موثر": 2997,
      "##شناسی": 2998,
      "شناسایی": 2999,
      "راحتی": 3000,
      "عرب": 3001,
      "##ینگ": 3002,
      "دندان": 3003,
      "قانونی": 3004,
      "مراقبت": 3005,
      "زود": 3006,
      "عمی": 3007,
      "تکر": 3008,
      "نداشته": 3009,
      "دیج": 3010,
      "موتور": 3011,
      "خودشان": 3012,
      "بمان": 3013,
      "عامل": 3014,
      "##ورتی": 3015,
      "عضو": 3016,
      "کامپیوتر": 3017,
      "##ot": 3018,
      "دهنده": 3019,
      "جمعیت": 3020,
      "نقل": 3021,
      "ذخ": 3022,
      "##خش": 3023,
      "نکته": 3024,
      "##لال": 3025,
      "روح": 3026,
      "روزانه": 3027,
      "خوردن": 3028,
      "دش": 3029,
      "آن‌": 3030,
      "re": 3031,
      "##ig": 3032,
      "کرده‌اند": 3033,
      "مطالعات": 3034,
      "صادر": 3035,
      "اسلامی": 3036,
      "خاصی": 3037,
      "سبک": 3038,
      "آوری": 3039,
      "سرد": 3040,
      "دولتی": 3041,
      "کلاس": 3042,
      "دستی": 3043,
      "پروت": 3044,
      "##هنگی": 3045,
      "##ایند": 3046,
      "##سیس": 3047,
      "اشتراک": 3048,
      "چال": 3049,
      "##رال": 3050,
      "##جم": 3051,
      "##سیون": 3052,
      "تعریف": 3053,
      "اتحادیه": 3054,
      "ریا": 3055,
      "هدایت": 3056,
      "خودرو": 3057,
      "افس": 3058,
      "حذ": 3059,
      "##اها": 3060,
      "پرواز": 3061,
      "انقلاب": 3062,
      "##سیم": 3063,
      "گیرند": 3064,
      "##اتیک": 3065,
      "##عده": 3066,
      "دع": 3067,
      "##ستانی": 3068,
      "بزرگی": 3069,
      "اگرچه": 3070,
      "فوت": 3071,
      "##یک": 3072,
      "آف": 3073,
      "##نوان": 3074,
      "##ریب": 3075,
      "مطرح": 3076,
      "مواجه": 3077,
      "دانشجویان": 3078,
      "##‌‌": 3079,
      "منبع": 3080,
      "توانست": 3081,
      "امام": 3082,
      "مز": 3083,
      "موجب": 3084,
      "##کننده": 3085,
      "چیزهایی": 3086,
      "##پذیر": 3087,
      "##لاً": 3088,
      "حوز": 3089,
      "##‌ای": 3090,
      "##انیه": 3091,
      "100": 3092,
      "دشم": 3093,
      "##صه": 3094,
      "مؤ": 3095,
      "همسر": 3096,
      "واکنش": 3097,
      "علت": 3098,
      "فرهنگی": 3099,
      "##os": 3100,
      "چرخ": 3101,
      "مبتلا": 3102,
      "ضروری": 3103,
      "##نگی": 3104,
      "##ویه": 3105,
      "پزشک": 3106,
      "تحصیل": 3107,
      "انتخابات": 3108,
      "تاک": 3109,
      "##ent": 3110,
      "لین": 3111,
      "درجه": 3112,
      "ورود": 3113,
      "حذف": 3114,
      "##عتی": 3115,
      "‌اش": 3116,
      "##وئ": 3117,
      "برگزار": 3118,
      "رسیده": 3119,
      "علائم": 3120,
      "جذب": 3121,
      "پلیس": 3122,
      "تصا": 3123,
      "دکتر": 3124,
      "دفاع": 3125,
      "ثابت": 3126,
      "دانلود": 3127,
      "زیست": 3128,
      "امروزه": 3129,
      "30": 3130,
      "##گردان": 3131,
      "ویت": 3132,
      "منح": 3133,
      "کارت": 3134,
      "اساسی": 3135,
      "ببینید": 3136,
      "مسلمان": 3137,
      "ساختار": 3138,
      "بخوان": 3139,
      "متوسط": 3140,
      "رفته": 3141,
      "##وران": 3142,
      "تست": 3143,
      "پسر": 3144,
      "نگران": 3145,
      "هوشمند": 3146,
      "عاشق": 3147,
      "##شا": 3148,
      "بلا": 3149,
      "##هور": 3150,
      "جمهور": 3151,
      "ثروت": 3152,
      "پست": 3153,
      "##لند": 3154,
      "##انت": 3155,
      "اجرای": 3156,
      "نجات": 3157,
      "تصاویر": 3158,
      "تمای": 3159,
      "علی": 3160,
      "‌ی": 3161,
      "##طر": 3162,
      "قطع": 3163,
      "ماده": 3164,
      "##us": 3165,
      "بارد": 3166,
      "امور": 3167,
      "بین‌ال": 3168,
      "##ئین": 3169,
      "فرمان": 3170,
      "مخال": 3171,
      "##کا": 3172,
      "##ct": 3173,
      "آموزشی": 3174,
      "محتوای": 3175,
      "معتقد": 3176,
      "آشن": 3177,
      "‌شان": 3178,
      "##حال": 3179,
      "شمالی": 3180,
      "محب": 3181,
      "محافظت": 3182,
      "11": 3183,
      "##ow": 3184,
      "زده": 3185,
      "مدرن": 3186,
      "اصلاح": 3187,
      "پژوهش": 3188,
      "فنا": 3189,
      "حکومت": 3190,
      "بگیرد": 3191,
      "بدانید": 3192,
      "##وح": 3193,
      "دیدگاه": 3194,
      "ظاهر": 3195,
      "وزیر": 3196,
      "توانیم": 3197,
      "فرآ": 3198,
      "می‌شد": 3199,
      "چالش": 3200,
      "رد": 3201,
      "##اج": 3202,
      "ماهی": 3203,
      "سرمایه‌": 3204,
      "ترتی": 3205,
      "فایل": 3206,
      "فناوری": 3207,
      "##‌و": 3208,
      "دیدن": 3209,
      "خواندن": 3210,
      "قبلی": 3211,
      "معمولاً": 3212,
      "شغل": 3213,
      "##ra": 3214,
      "ارتش": 3215,
      "معنای": 3216,
      "بریت": 3217,
      "کاربرد": 3218,
      "قاب": 3219,
      "##وریت": 3220,
      "همس": 3221,
      "##روف": 3222,
      "199": 3223,
      "##سب": 3224,
      "صدای": 3225,
      "مسئول": 3226,
      "واحد": 3227,
      "بگو": 3228,
      "سق": 3229,
      "مرک": 3230,
      "کلیدی": 3231,
      "رقابت": 3232,
      "##ژن": 3233,
      "##غال": 3234,
      "رهبری": 3235,
      "شیمی": 3236,
      "می‌رسد": 3237,
      "##ایع": 3238,
      "لط": 3239,
      "زد": 3240,
      "لحظه": 3241,
      "لیست": 3242,
      "تور": 3243,
      "مشار": 3244,
      "شع": 3245,
      "دانست": 3246,
      "ch": 3247,
      "مگر": 3248,
      "کد": 3249,
      "##اصله": 3250,
      "کلمه": 3251,
      "##کتری": 3252,
      "نگرانی": 3253,
      "بالای": 3254,
      "نخستین": 3255,
      "##لس": 3256,
      "##ut": 3257,
      "محک": 3258,
      "شگفت": 3259,
      "گاز": 3260,
      "##ته": 3261,
      "خشونت": 3262,
      "وح": 3263,
      "##ابقه": 3264,
      "متوق": 3265,
      "رسان": 3266,
      "گویند": 3267,
      "مقامات": 3268,
      "آفریق": 3269,
      "متوقف": 3270,
      "کشته": 3271,
      "آخر": 3272,
      "جالب": 3273,
      "بو": 3274,
      "درمانی": 3275,
      "جزئی": 3276,
      "والد": 3277,
      "مسئولیت": 3278,
      "روید": 3279,
      "بتواند": 3280,
      "آد": 3281,
      "اختص": 3282,
      "مهند": 3283,
      "امریکا": 3284,
      "ملل": 3285,
      "هشت": 3286,
      "برادر": 3287,
      "##زارت": 3288,
      "مجاز": 3289,
      "پایه": 3290,
      "جشن": 3291,
      "عف": 3292,
      "اين": 3293,
      "بله": 3294,
      "بیماران": 3295,
      "##ur": 3296,
      "استرس": 3297,
      "مرز": 3298,
      "نوز": 3299,
      "ترتیب": 3300,
      "فاصله": 3301,
      "علم": 3302,
      "پارک": 3303,
      "سرویس": 3304,
      "دانشمندان": 3305,
      "اعتق": 3306,
      "ناشی": 3307,
      "بین‌المللی": 3308,
      "وزارت": 3309,
      "‌تان": 3310,
      "اینها": 3311,
      "##شنبه": 3312,
      "عوامل": 3313,
      "انگیز": 3314,
      "منفی": 3315,
      "جنوبی": 3316,
      "##ازد": 3317,
      "مهمی": 3318,
      "اقدامات": 3319,
      "قدم": 3320,
      "##گانه": 3321,
      "##کاران": 3322,
      "ظرف": 3323,
      "قرارد": 3324,
      "ول": 3325,
      "می‌گوی": 3326,
      "جنب": 3327,
      "خدمت": 3328,
      "داری": 3329,
      "مزای": 3330,
      "بزن": 3331,
      "13": 3332,
      "اث": 3333,
      "سرز": 3334,
      "se": 3335,
      "کشورها": 3336,
      "عمر": 3337,
      "تری": 3338,
      "محبوب": 3339,
      "اسلام": 3340,
      "نیازهای": 3341,
      "عمیق": 3342,
      "##فع": 3343,
      "جواب": 3344,
      "تکرار": 3345,
      "##شده": 3346,
      "تقویت": 3347,
      "##داران": 3348,
      "۱۵": 3349,
      "##کنندگان": 3350,
      "زدن": 3351,
      "##وانی": 3352,
      "هوایی": 3353,
      "##جان": 3354,
      "دروغ": 3355,
      "##‌آ": 3356,
      "موش": 3357,
      "باشم": 3358,
      "الکتر": 3359,
      "صورتی": 3360,
      "##اظ": 3361,
      "نشانه": 3362,
      "عرضه": 3363,
      "اخلا": 3364,
      "##ابان": 3365,
      "می‌ر": 3366,
      "مقا": 3367,
      "افزار": 3368,
      "نرخ": 3369,
      "بالاتر": 3370,
      "تاریخی": 3371,
      "##ماز": 3372,
      "مانده": 3373,
      "آوردن": 3374,
      "شماره": 3375,
      "فرآیند": 3376,
      "50": 3377,
      "نهایی": 3378,
      "##يد": 3379,
      "فرزندان": 3380,
      "سع": 3381,
      "شدم": 3382,
      "ایرانی": 3383,
      "ارشد": 3384,
      "عملیات": 3385,
      "ذکر": 3386,
      "ملا": 3387,
      "##ag": 3388,
      "معرض": 3389,
      "نکرده": 3390,
      "افتاد": 3391,
      "بند": 3392,
      "##وف": 3393,
      "زیبا": 3394,
      "ایمیل": 3395,
      "اظه": 3396,
      "اظهار": 3397,
      "تد": 3398,
      "غرب": 3399,
      "کاربر": 3400,
      "##رانی": 3401,
      "همواره": 3402,
      "ذخیره": 3403,
      "مشارکت": 3404,
      "هشد": 3405,
      "ریزی": 3406,
      "بم": 3407,
      "سلاح": 3408,
      "25": 3409,
      "##میل": 3410,
      "پوشش": 3411,
      "قابلیت": 3412,
      "##سون": 3413,
      "کف": 3414,
      "##اشی": 3415,
      "نسل": 3416,
      "نوشتن": 3417,
      "نصب": 3418,
      "اختصاص": 3419,
      "صاح": 3420,
      "کاملاً": 3421,
      "پیچیده": 3422,
      "حوزه": 3423,
      "##دایی": 3424,
      "کارکنان": 3425,
      "16": 3426,
      "##لاگ": 3427,
      "مشغ": 3428,
      "عه": 3429,
      "کشتی": 3430,
      "صدا": 3431,
      "بحران": 3432,
      "برسد": 3433,
      "گون": 3434,
      "خانم": 3435,
      "هتل": 3436,
      "اطلاعاتی": 3437,
      "دیجیتال": 3438,
      "خلق": 3439,
      "##راج": 3440,
      "دشوار": 3441,
      "طلا": 3442,
      "حفا": 3443,
      "گران": 3444,
      "مجد": 3445,
      "اعتقاد": 3446,
      "##im": 3447,
      "##ریت": 3448,
      "سالگی": 3449,
      "بگیرند": 3450,
      "com": 3451,
      "دین": 3452,
      "چینی": 3453,
      "کشاور": 3454,
      "ممن": 3455,
      "تقسیم": 3456,
      "فیزیکی": 3457,
      "تون": 3458,
      "##نش": 3459,
      "##‌ی": 3460,
      "خلاق": 3461,
      "مسافر": 3462,
      "مرکزی": 3463,
      "##وله": 3464,
      "##عیف": 3465,
      "دهم": 3466,
      "قبول": 3467,
      "آورده": 3468,
      "صند": 3469,
      "مي": 3470,
      "##سات": 3471,
      "##تون": 3472,
      "احتر": 3473,
      "حیوانات": 3474,
      "والدین": 3475,
      "خودمان": 3476,
      "زندان": 3477,
      "عوض": 3478,
      "نفس": 3479,
      "ژاپن": 3480,
      "وعده": 3481,
      "مستقل": 3482,
      "گذار": 3483,
      "پرت": 3484,
      "##رمان": 3485,
      "##ایه": 3486,
      "##اصر": 3487,
      "محدودیت": 3488,
      "آشکار": 3489,
      "بست": 3490,
      "سگ": 3491,
      "##لات": 3492,
      "انتشار": 3493,
      "غربی": 3494,
      "هرچ": 3495,
      "احساسات": 3496,
      "شمار": 3497,
      "اکت": 3498,
      "روزی": 3499,
      "واقعاً": 3500,
      "رایگان": 3501,
      "چاپ": 3502,
      "کیل": 3503,
      "تلویزیون": 3504,
      "استاد": 3505,
      "گردش": 3506,
      "فن": 3507,
      "گفتند": 3508,
      "گوشی": 3509,
      "کلمات": 3510,
      "روب": 3511,
      "کری": 3512,
      "سلامتی": 3513,
      "هشدار": 3514,
      "خرو": 3515,
      "##ورک": 3516,
      "مختلفی": 3517,
      "فهم": 3518,
      "زیبایی": 3519,
      "ستاره": 3520,
      "تایید": 3521,
      "مشغول": 3522,
      "دفت": 3523,
      "قدرتمند": 3524,
      "تهیه": 3525,
      "اداره": 3526,
      "قرارداد": 3527,
      "بای": 3528,
      "الان": 3529,
      "نماید": 3530,
      "داشتم": 3531,
      "علوم": 3532,
      "مناف": 3533,
      "##اندن": 3534,
      "متر": 3535,
      "##کرو": 3536,
      "##un": 3537,
      "سین": 3538,
      "عین": 3539,
      "واب": 3540,
      "هسته": 3541,
      "فرض": 3542,
      "اروپایی": 3543,
      "مذه": 3544,
      "اقامت": 3545,
      "نتوان": 3546,
      "یون": 3547,
      "نظام": 3548,
      "برقرار": 3549,
      "به‌ع": 3550,
      "پد": 3551,
      "متحد": 3552,
      "##زم": 3553,
      "##ورش": 3554,
      "پناه": 3555,
      "سرب": 3556,
      "لحاظ": 3557,
      "خورشید": 3558,
      "14": 3559,
      "خیر": 3560,
      "فیس": 3561,
      "فرست": 3562,
      "مقر": 3563,
      "دام": 3564,
      "نباشد": 3565,
      "##سا": 3566,
      "درس": 3567,
      "العاده": 3568,
      "مخاط": 3569,
      "وسیله": 3570,
      "راهی": 3571,
      "al": 3572,
      "de": 3573,
      "جراحی": 3574,
      "##oc": 3575,
      "استرال": 3576,
      "رت": 3577,
      "پیاده": 3578,
      "رهبران": 3579,
      "تضمین": 3580,
      "می‌باشد": 3581,
      "##هم": 3582,
      "استرالیا": 3583,
      "مخصوص": 3584,
      "پو": 3585,
      "##قیه": 3586,
      "دادگاه": 3587,
      "دلایل": 3588,
      "شیوه": 3589,
      "افزود": 3590,
      "خوی": 3591,
      "آگاهی": 3592,
      "اون": 3593,
      "##غن": 3594,
      "ایمان": 3595,
      "راحت": 3596,
      "رشته": 3597,
      "تحریم": 3598,
      "تجه": 3599,
      "بچ": 3600,
      "نشد": 3601,
      "خوشحال": 3602,
      "تولد": 3603,
      "۱۲": 3604,
      "سازد": 3605,
      "عربستان": 3606,
      "احترام": 3607,
      "##ap": 3608,
      "صنعتی": 3609,
      "دفتر": 3610,
      "تجهیز": 3611,
      "خاک": 3612,
      "##شند": 3613,
      "فعلی": 3614,
      "درخت": 3615,
      "##ادث": 3616,
      "##ویق": 3617,
      "مصاح": 3618,
      "موضو": 3619,
      "مکانی": 3620,
      "آپ": 3621,
      "رنج": 3622,
      "نظارت": 3623,
      "پادش": 3624,
      "مام": 3625,
      "چگون": 3626,
      "گام": 3627,
      "##رست": 3628,
      "به‌طور": 3629,
      "رویداد": 3630,
      "##زد": 3631,
      "##ir": 3632,
      "##ce": 3633,
      "##‌ب": 3634,
      "تبلیغات": 3635,
      "حفاظت": 3636,
      "##گن": 3637,
      "اصل": 3638,
      "دقت": 3639,
      "گذاشته": 3640,
      "عادی": 3641,
      "##ــ": 3642,
      "خدای": 3643,
      "##اهد": 3644,
      "می‌گیرد": 3645,
      "چگونگی": 3646,
      "شمال": 3647,
      "##ia": 3648,
      "##یسی": 3649,
      "مجموع": 3650,
      "نویسنده": 3651,
      "قربانی": 3652,
      "می‌کردند": 3653,
      "مطلب": 3654,
      "تمایل": 3655,
      "منافع": 3656,
      "عجی": 3657,
      "بریتانیا": 3658,
      "شیمیایی": 3659,
      "گم": 3660,
      "##تا": 3661,
      "سبز": 3662,
      "بگذارید": 3663,
      "میدان": 3664,
      "خواسته": 3665,
      ".”": 3666,
      "شهری": 3667,
      "می‌گیر": 3668,
      "متم": 3669,
      "##روم": 3670,
      "امتح": 3671,
      "فرود": 3672,
      "منتقل": 3673,
      "##بیل": 3674,
      "بدهید": 3675,
      "##بیر": 3676,
      "اسم": 3677,
      "کوه": 3678,
      "##یمان": 3679,
      "ترجی": 3680,
      "نیازمند": 3681,
      "طبیعت": 3682,
      "الکترونی": 3683,
      "؟!": 3684,
      "ریس": 3685,
      "مفه": 3686,
      "‌تر": 3687,
      "کارآ": 3688,
      "نشست": 3689,
      "۳۰": 3690,
      "نحوه": 3691,
      "پیش‌": 3692,
      "شاهد": 3693,
      "##زمان": 3694,
      "##کات": 3695,
      "##od": 3696,
      "فروشگاه": 3697,
      "ar": 3698,
      "##نز": 3699,
      "تقریباً": 3700,
      "##ذی": 3701,
      "گروهی": 3702,
      "17": 3703,
      "چنان": 3704,
      "کنی": 3705,
      "بدست": 3706,
      "تعط": 3707,
      "امتحان": 3708,
      "بیمارستان": 3709,
      "منحصر": 3710,
      "عفونت": 3711,
      "آفر": 3712,
      "دسته": 3713,
      "##وسی": 3714,
      "دانم": 3715,
      "نوعی": 3716,
      "جنوب": 3717,
      "ایمنی": 3718,
      "فلسط": 3719,
      "تامین": 3720,
      "عقب": 3721,
      "منتظر": 3722,
      "هزاران": 3723,
      "on": 3724,
      "کارگران": 3725,
      "##...": 3726,
      "دعوت": 3727,
      "##فانه": 3728,
      "کلید": 3729,
      "روغن": 3730,
      "##گذارد": 3731,
      "وید": 3732,
      "محس": 3733,
      "نقاط": 3734,
      "بتوانند": 3735,
      "and": 3736,
      "نوزاد": 3737,
      "وبلاگ": 3738,
      "بستگی": 3739,
      "نگهداری": 3740,
      "یهودی": 3741,
      "شویم": 3742,
      "قهوه": 3743,
      "ویتامین": 3744,
      "sp": 3745,
      "##um": 3746,
      "اوایل": 3747,
      "ترجمه": 3748,
      "تعدادی": 3749,
      "##ul": 3750,
      "اتفا": 3751,
      "رهبر": 3752,
      "ترجیح": 3753,
      "اتفاقی": 3754,
      "حاف": 3755,
      "طوری": 3756,
      "جذاب": 3757,
      "آسمان": 3758,
      "تخصص": 3759,
      "##زل": 3760,
      "به‌عنوان": 3761,
      "تعهد": 3762,
      "متصل": 3763,
      "باره": 3764,
      "##ریزی": 3765,
      "اصول": 3766,
      "افتد": 3767,
      "حملات": 3768,
      "ارد": 3769,
      "مقام": 3770,
      "نهاد": 3771,
      "حتما": 3772,
      "ژان": 3773,
      "گذشت": 3774,
      "توصیف": 3775,
      "##گردد": 3776,
      "دیر": 3777,
      "قا": 3778,
      "بردن": 3779,
      "رح": 3780,
      "رادی": 3781,
      "بودجه": 3782,
      "دریایی": 3783,
      "الهی": 3784,
      "اعد": 3785,
      "میشود": 3786,
      "گفتم": 3787,
      "انگل": 3788,
      "##رایی": 3789,
      "سوخت": 3790,
      "is": 3791,
      "سک": 3792,
      "##حیح": 3793,
      "جایزه": 3794,
      "##بینی": 3795,
      "عک": 3796,
      "##سل": 3797,
      "sh": 3798,
      "بنا": 3799,
      "مهاجرت": 3800,
      "وظیف": 3801,
      "##ردگی": 3802,
      "تقا": 3803,
      "جلسه": 3804,
      "##گزاری": 3805,
      "ملاقات": 3806,
      "بقیه": 3807,
      "##عم": 3808,
      "جع": 3809,
      "كن": 3810,
      "مایل": 3811,
      "۱۸": 3812,
      "عبور": 3813,
      "سرزمین": 3814,
      "##باری": 3815,
      "##الم": 3816,
      "بودیم": 3817,
      "کارها": 3818,
      "اهل": 3819,
      "پنه": 3820,
      "برآ": 3821,
      "اجتن": 3822,
      "اجتناب": 3823,
      "en": 3824,
      "بید": 3825,
      "##نام": 3826,
      "##راسی": 3827,
      "##ess": 3828,
      "می‌گویند": 3829,
      "##em": 3830,
      "کرده‌": 3831,
      "میلادی": 3832,
      "\".": 3833,
      "تی": 3834,
      "رها": 3835,
      "مشک": 3836,
      "ماد": 3837,
      "۱۰۰": 3838,
      "مزایای": 3839,
      "ad": 3840,
      "نبا": 3841,
      "##ter": 3842,
      "##ایق": 3843,
      "کانال": 3844,
      "پاید": 3845,
      "##گین": 3846,
      "باغ": 3847,
      "گیاه": 3848,
      "پیروزی": 3849,
      "فضا": 3850,
      "بروز": 3851,
      "آزمون": 3852,
      "بروید": 3853,
      "نیوی": 3854,
      "تئ": 3855,
      "##سک": 3856,
      "دربار": 3857,
      "برنده": 3858,
      "تکنیک": 3859,
      "لند": 3860,
      "تاکنون": 3861,
      "شده‌": 3862,
      "مدیران": 3863,
      "یافتن": 3864,
      "رست": 3865,
      "فراتر": 3866,
      "ارتباطات": 3867,
      "چپ": 3868,
      "پیشرفته": 3869,
      "آبی": 3870,
      "برچ": 3871,
      "شهروندان": 3872,
      "مخالف": 3873,
      "گناه": 3874,
      "اندازی": 3875,
      "پدید": 3876,
      "##ویم": 3877,
      "بهتری": 3878,
      "نامیده": 3879,
      "انجمن": 3880,
      "اصلا": 3881,
      "قدر": 3882,
      "تشویق": 3883,
      "طبقه": 3884,
      "مقاومت": 3885,
      "نیویورک": 3886,
      "رز": 3887,
      "##نتی": 3888,
      "فرایند": 3889,
      "توانم": 3890,
      "ناراح": 3891,
      "عادت": 3892,
      "##ation": 3893,
      "سعودی": 3894,
      "پخش": 3895,
      "##حیه": 3896,
      "##ضح": 3897,
      "روست": 3898,
      "افتاده": 3899,
      "پن": 3900,
      "تجهیزات": 3901,
      "حضرت": 3902,
      "تعطیل": 3903,
      "شف": 3904,
      "قبلا": 3905,
      "همانند": 3906,
      "جایگاه": 3907,
      "متمرکز": 3908,
      "##شنگ": 3909,
      "ادعا": 3910,
      "آرز": 3911,
      "رویکرد": 3912,
      "جزیره": 3913,
      "pro": 3914,
      "##ابله": 3915,
      "معروف": 3916,
      "مقابله": 3917,
      "بیشترین": 3918,
      "سختی": 3919,
      "سرباز": 3920,
      "##انگی": 3921,
      "امسال": 3922,
      "سپت": 3923,
      "اضطر": 3924,
      "فرمود": 3925,
      "سابق": 3926,
      "نوج": 3927,
      "اضافی": 3928,
      "بتوانید": 3929,
      "##th": 3930,
      "توجهی": 3931,
      "تفکر": 3932,
      "مداوم": 3933,
      "بطور": 3934,
      "سام": 3935,
      "بیت": 3936,
      "برخوردار": 3937,
      "بگویید": 3938,
      "لینک": 3939,
      "جنبش": 3940,
      "شماست": 3941,
      "برچسب": 3942,
      "سؤ": 3943,
      "فنی": 3944,
      "##ولد": 3945,
      "198": 3946,
      "##دهد": 3947,
      "فرار": 3948,
      "قرمز": 3949,
      "هیچ‌": 3950,
      "معمولی": 3951,
      "خطرناک": 3952,
      "رض": 3953,
      "زندانی": 3954,
      "محتوا": 3955,
      "شغلی": 3956,
      "آشنا": 3957,
      "جزئیات": 3958,
      "سپتامبر": 3959,
      "40": 3960,
      "چربی": 3961,
      "##بخ": 3962,
      "مصاحبه": 3963,
      "‌ترین": 3964,
      "چیزهای": 3965,
      "قلبی": 3966,
      "ثانیه": 3967,
      "کر": 3968,
      "##زیع": 3969,
      "سرگر": 3970,
      "حو": 3971,
      "هم‌": 3972,
      "توزیع": 3973,
      "امپ": 3974,
      "هیجان": 3975,
      "بزرگتر": 3976,
      "تز": 3977,
      "درستی": 3978,
      "24": 3979,
      "بدهد": 3980,
      "مالک": 3981,
      "افسردگی": 3982,
      "ریسک": 3983,
      "نات": 3984,
      "کرب": 3985,
      "##لط": 3986,
      "درگیر": 3987,
      "استان": 3988,
      "اختلاف": 3989,
      "ne": 3990,
      "صاد": 3991,
      "ورز": 3992,
      "پلا": 3993,
      "روزنامه": 3994,
      "خریداری": 3995,
      "ملت": 3996,
      "##ویل": 3997,
      "##ئت": 3998,
      "می‌خ": 3999,
      "دائ": 4000,
      "پذیرش": 4001,
      "حداک": 4002,
      "بخور": 4003,
      "تخم": 4004,
      "زم": 4005,
      "برده": 4006,
      "نیرو": 4007,
      "آث": 4008,
      "جس": 4009,
      "##ri": 4010,
      "میکند": 4011,
      "##اما": 4012,
      "تاکید": 4013,
      "عهده": 4014,
      "رتبه": 4015,
      "فوتبال": 4016,
      "un": 4017,
      "بخوانید": 4018,
      "ناد": 4019,
      "معل": 4020,
      "ناگه": 4021,
      "اعتبار": 4022,
      "پرسش": 4023,
      "مالیات": 4024,
      "دقیقا": 4025,
      "انگلستان": 4026,
      "##وکر": 4027,
      "پیوند": 4028,
      "می‌رود": 4029,
      "مى": 4030,
      "##ژانس": 4031,
      "کنفر": 4032,
      "امتی": 4033,
      "جامع": 4034,
      "ایتال": 4035,
      "بدین": 4036,
      "##جع": 4037,
      "دیوار": 4038,
      "نمی‌دان": 4039,
      "##نوعی": 4040,
      "بگویم": 4041,
      "ایتالیا": 4042,
      "نماز": 4043,
      "##جام": 4044,
      "کشید": 4045,
      "اصط": 4046,
      "صحنه": 4047,
      "##ذیه": 4048,
      "##and": 4049,
      "اختلال": 4050,
      "خیابان": 4051,
      "فارغ": 4052,
      "پنهان": 4053,
      "goo": 4054,
      "سند": 4055,
      "شای": 4056,
      "نیازی": 4057,
      "آیند": 4058,
      "بارداری": 4059,
      "##جد": 4060,
      "می‌ز": 4061,
      "دانند": 4062,
      "وظیفه": 4063,
      "گاه": 4064,
      "جستجوی": 4065,
      "اور": 4066,
      "‌اند": 4067,
      "##وذ": 4068,
      "خاور": 4069,
      "رمز": 4070,
      "لغ": 4071,
      "##لیم": 4072,
      "همزمان": 4073,
      "تنهایی": 4074,
      "##رافیک": 4075,
      "هرچند": 4076,
      "لا": 4077,
      "##کنم": 4078,
      "پاکستان": 4079,
      "پرورش": 4080,
      "عجیب": 4081,
      "حاوی": 4082,
      "لطفا": 4083,
      "هماه": 4084,
      "##دهی": 4085,
      "واضح": 4086,
      "جاده": 4087,
      "اسب": 4088,
      "می‌خواهد": 4089,
      "محسوب": 4090,
      "صحیح": 4091,
      "##امله": 4092,
      "تغذیه": 4093,
      "##شناسان": 4094,
      "مند": 4095,
      "##اورد": 4096,
      "##زیه": 4097,
      "روزهای": 4098,
      "مراحل": 4099,
      "پروتئین": 4100,
      "er": 4101,
      "دیدار": 4102,
      "برآورد": 4103,
      "at": 4104,
      "قتل": 4105,
      "##ریح": 4106,
      "سفار": 4107,
      "شورای": 4108,
      "می‌آید": 4109,
      "نیمه": 4110,
      "طل": 4111,
      "##راض": 4112,
      "اتص": 4113,
      "مرور": 4114,
      "##خره": 4115,
      "کردید": 4116,
      "اشک": 4117,
      "ممنوع": 4118,
      "سنت": 4119,
      "##کده": 4120,
      "مقد": 4121,
      "می‌پ": 4122,
      "مجوز": 4123,
      "سوء": 4124,
      "حداکثر": 4125,
      "##سایت": 4126,
      "کارهایی": 4127,
      "##راحت": 4128,
      "مسیح": 4129,
      "مفهوم": 4130,
      "حافظه": 4131,
      "حاک": 4132,
      "##چی": 4133,
      "##ازید": 4134,
      "متقا": 4135,
      "کنفرانس": 4136,
      "##op": 4137,
      "##گاری": 4138,
      "می‌بین": 4139,
      "اتوم": 4140,
      "مذاکره": 4141,
      "آثار": 4142,
      "دس": 4143,
      "هزین": 4144,
      "##فاوتی": 4145,
      "»،": 4146,
      "تیر": 4147,
      "ضعیف": 4148,
      "##اساس": 4149,
      "دشمن": 4150,
      "متعد": 4151,
      "گذر": 4152,
      "تجزیه": 4153,
      "نمایند": 4154,
      "یخ": 4155,
      "تاسیس": 4156,
      "افتخ": 4157,
      "استخدام": 4158,
      "60": 4159,
      "ap": 4160,
      "##ستر": 4161,
      "لندن": 4162,
      "صادق": 4163,
      "us": 4164,
      "بص": 4165,
      "##حالی": 4166,
      "مصر": 4167,
      "فرانس": 4168,
      "بازداشت": 4169,
      "نمایید": 4170,
      "واشنگ": 4171,
      "فضایی": 4172,
      "۵۰": 4173,
      "موقع": 4174,
      "مبتنی": 4175,
      "بخواهید": 4176,
      "چار": 4177,
      "کلیک": 4178,
      "نمی‌تواند": 4179,
      "بور": 4180,
      "برداشت": 4181,
      "بزرگسال": 4182,
      "اپل": 4183,
      "[...": 4184,
      "انع": 4185,
      "آمار": 4186,
      "رانندگی": 4187,
      "[...]": 4188,
      "##فس": 4189,
      "امضا": 4190,
      "دانید": 4191,
      "افکار": 4192,
      "تهران": 4193,
      "ویروس": 4194,
      "بیاور": 4195,
      "ماج": 4196,
      "نفوذ": 4197,
      "ارزان": 4198,
      "واشنگتن": 4199,
      "کارشناسی": 4200,
      "بپرس": 4201,
      "بهداشتی": 4202,
      "سرمایه‌گذاری": 4203,
      "صبر": 4204,
      "قض": 4205,
      "ببرید": 4206,
      "نمی‌شود": 4207,
      "گرفتند": 4208,
      "سخنرانی": 4209,
      "عرو": 4210,
      "نژ": 4211,
      "براساس": 4212,
      "بدتر": 4213,
      "تعامل": 4214,
      "می‌خواهید": 4215,
      "سقوط": 4216,
      "نیمی": 4217,
      "##گویی": 4218,
      "پایگاه": 4219,
      "ندارید": 4220,
      "حکم": 4221,
      "امتیاز": 4222,
      "نادر": 4223,
      "##تیک": 4224,
      "کمبود": 4225,
      "مطل": 4226,
      "ساختن": 4227,
      "تکمیل": 4228,
      "##یید": 4229,
      "بیمه": 4230,
      "موسسه": 4231,
      "ip": 4232,
      "پزشکان": 4233,
      "آهنگ": 4234,
      "تمیز": 4235,
      "##وال": 4236,
      "مساله": 4237,
      "اثرات": 4238,
      "انگیزه": 4239,
      "##کری": 4240,
      "بهشت": 4241,
      "بالق": 4242,
      "دموکر": 4243,
      "مول": 4244,
      "##وما": 4245,
      "##وئن": 4246,
      "همچون": 4247,
      "گفتن": 4248,
      "سنتی": 4249,
      "کمتری": 4250,
      "خانگی": 4251,
      "غیرق": 4252,
      "خلاصه": 4253,
      "کات": 4254,
      "##بد": 4255,
      "##غم": 4256,
      "سهام": 4257,
      "گوشت": 4258,
      "بپرد": 4259,
      "اخلاقی": 4260,
      "سان": 4261,
      "##یتالی": 4262,
      "ترکی": 4263,
      "کشاورزی": 4264,
      "وابسته": 4265,
      "كرد": 4266,
      "نوی": 4267,
      "می‌داد": 4268,
      "بازسازی": 4269,
      "تحمل": 4270,
      "پایدار": 4271,
      "ترا": 4272,
      "##سین": 4273,
      "شرکت‌های": 4274,
      "معماری": 4275,
      "مراک": 4276,
      "آمیز": 4277,
      "ویدی": 4278,
      "موب": 4279,
      "انداخت": 4280,
      "دستیابی": 4281,
      "صاحب": 4282,
      "خویش": 4283,
      "ph": 4284,
      "دارایی": 4285,
      "بازیکن": 4286,
      "شرک": 4287,
      "شانس": 4288,
      "چهارم": 4289,
      "مذهبی": 4290,
      "بالقوه": 4291,
      "000": 4292,
      "۱۳": 4293,
      "##صله": 4294,
      "سالانه": 4295,
      "نزدیکی": 4296,
      "اصطلاح": 4297,
      "##ie": 4298,
      "##ers": 4299,
      "##آور": 4300,
      "برتر": 4301,
      "اکتبر": 4302,
      "میوه": 4303,
      "پان": 4304,
      "##gle": 4305,
      "آنج": 4306,
      "پیامبر": 4307,
      "مذاکرات": 4308,
      "هور": 4309,
      "معامله": 4310,
      "مشهور": 4311,
      "نظریه": 4312,
      "##ack": 4313,
      "هواپیما": 4314,
      "خشک": 4315,
      "عدد": 4316,
      "##if": 4317,
      "##گا": 4318,
      "سور": 4319,
      "احتمالاً": 4320,
      "ندارم": 4321,
      "تابستان": 4322,
      "بیدار": 4323,
      "تأیید": 4324,
      "حیات": 4325,
      "آلمانی": 4326,
      "هویت": 4327,
      "انگشت": 4328,
      "##ازند": 4329,
      "##میانه": 4330,
      "پادشاه": 4331,
      "خاورمیانه": 4332,
      "جور": 4333,
      "عیسی": 4334,
      "چک": 4335,
      "استقل": 4336,
      "ماست": 4337,
      "هسته‌ای": 4338,
      "اتم": 4339,
      "کیلوم": 4340,
      "مناس": 4341,
      "چهره": 4342,
      "منطق": 4343,
      "##وکراسی": 4344,
      "جد": 4345,
      "آزمایشگاه": 4346,
      "ing": 4347,
      "مارس": 4348,
      "جاری": 4349,
      "چش": 4350,
      "##زان": 4351,
      "مدتی": 4352,
      "مانع": 4353,
      "##‌که": 4354,
      "##عف": 4355,
      "##اختی": 4356,
      "مبل": 4357,
      "نابود": 4358,
      "رضایت": 4359,
      "مدارس": 4360,
      "مهندسی": 4361,
      "حجم": 4362,
      "خرد": 4363,
      "زودی": 4364,
      "طراح": 4365,
      "عزی": 4366,
      "##فل": 4367,
      "می‌د": 4368,
      "بارها": 4369,
      "##وایی": 4370,
      "##ab": 4371,
      "##پر": 4372,
      "##اریس": 4373,
      "دهندگان": 4374,
      "نوجوان": 4375,
      "##یدم": 4376,
      "سال‌های": 4377,
      "محمد": 4378,
      "##شای": 4379,
      "معنا": 4380,
      "بلافا": 4381,
      "bl": 4382,
      "دهان": 4383,
      "فهرست": 4384,
      "google": 4385,
      "آژانس": 4386,
      "##وج": 4387,
      "می‌‌": 4388,
      "تدری": 4389,
      "افتخار": 4390,
      "بلافاصله": 4391,
      "for": 4392,
      "it": 4393,
      "دف": 4394,
      "##یش": 4395,
      "##ادار": 4396,
      "بازیکنان": 4397,
      "مشاوره": 4398,
      "رستوران": 4399,
      "سوز": 4400,
      "موزه": 4401,
      "گفتگو": 4402,
      "2015": 4403,
      "تاز": 4404,
      "خال": 4405,
      "##میر": 4406,
      "نوشید": 4407,
      "سیاره": 4408,
      "##000": 4409,
      "غذاهای": 4410,
      "فرانسوی": 4411,
      "توی": 4412,
      "##ورو": 4413,
      "سیگار": 4414,
      "اولویت": 4415,
      "کارمندان": 4416,
      "##اخر": 4417,
      "##دهم": 4418,
      "کارگر": 4419,
      "جنبه": 4420,
      "pl": 4421,
      "عذ": 4422,
      "##av": 4423,
      "قطعا": 4424,
      "سران": 4425,
      "مصنوعی": 4426,
      "مراسم": 4427,
      "دسامبر": 4428,
      "شوه": 4429,
      "عصر": 4430,
      "تحصیلی": 4431,
      "استقلال": 4432,
      "شار": 4433,
      "باد": 4434,
      "آزار": 4435,
      "ترد": 4436,
      "شاد": 4437,
      "احتی": 4438,
      "نقشه": 4439,
      "##ه‌ایم": 4440,
      "آدرس": 4441,
      "سطوح": 4442,
      "پردازش": 4443,
      "وحشت": 4444,
      "آیت": 4445,
      "##اهیم": 4446,
      "باشگاه": 4447,
      "نقاشی": 4448,
      "con": 4449,
      "یك": 4450,
      "##og": 4451,
      "ایالت": 4452,
      "داند": 4453,
      "مراج": 4454,
      "سنگین": 4455,
      "!!": 4456,
      "طال": 4457,
      "پاریس": 4458,
      "بیست": 4459,
      "دومین": 4460,
      "##بیند": 4461,
      "آهن": 4462,
      "##مالی": 4463,
      "معی": 4464,
      "راهن": 4465,
      "le": 4466,
      "or": 4467,
      "قالب": 4468,
      "مثلا": 4469,
      "انگلیس": 4470,
      "ژانویه": 4471,
      "چای": 4472,
      "صدها": 4473,
      "am": 4474,
      "کشوری": 4475,
      "می‌توانیم": 4476,
      "عمده": 4477,
      "197": 4478,
      "صفحات": 4479,
      "انتقاد": 4480,
      "##رق": 4481,
      "##پار": 4482,
      "اواخر": 4483,
      "ایستگاه": 4484,
      "برجسته": 4485,
      "as": 4486,
      "عناصر": 4487,
      "معتبر": 4488,
      "##خیر": 4489,
      "داروهای": 4490,
      "سرور": 4491,
      "مجلس": 4492,
      "تحقیقاتی": 4493,
      "نبوده": 4494,
      "نمایشگاه": 4495,
      "شرقی": 4496,
      "نده": 4497,
      "##صیل": 4498,
      "نوامبر": 4499,
      "اجرایی": 4500,
      "التح": 4501,
      "مردی": 4502,
      "نموده": 4503,
      "دموکراسی": 4504,
      "موبایل": 4505,
      "جاد": 4506,
      "شریک": 4507,
      "ژوئن": 4508,
      "همکاران": 4509,
      "##ابد": 4510,
      "نداریم": 4511,
      "سبب": 4512,
      "حر": 4513,
      "مدرک": 4514,
      "متخصصان": 4515,
      "خالی": 4516,
      "##ob": 4517,
      "غیرم": 4518,
      "اسپانیا": 4519,
      "ma": 4520,
      "اوب": 4521,
      "اعتراض": 4522,
      "##ate": 4523,
      "جوانان": 4524,
      "##نمایی": 4525,
      "بزنید": 4526,
      "؟»": 4527,
      "جرم": 4528,
      "دیپ": 4529,
      "۱۹۹": 4530,
      "مراجعه": 4531,
      "نان": 4532,
      "##اکس": 4533,
      "روبرو": 4534,
      "شفاف": 4535,
      "جی": 4536,
      "برا": 4537,
      "همه‌ی": 4538,
      "آمو": 4539,
      "جنگل": 4540,
      "محکوم": 4541,
      "مجدد": 4542,
      "##ip": 4543,
      "الکترونیکی": 4544,
      "cl": 4545,
      "آلب": 4546,
      "متولد": 4547,
      "هنری": 4548,
      "نگاهی": 4549,
      "دک": 4550,
      "##نس": 4551,
      "##ard": 4552,
      "اکث": 4553,
      "موضوعات": 4554,
      "tr": 4555,
      "خاط": 4556,
      "زنج": 4557,
      "خشم": 4558,
      "متاس": 4559,
      "تصاد": 4560,
      "مجله": 4561,
      "نمی‌کند": 4562,
      "شهرهای": 4563,
      "دون": 4564,
      "نبرد": 4565,
      "۱۱": 4566,
      "یکسان": 4567,
      "کارگردان": 4568,
      "هوای": 4569,
      "آرامش": 4570,
      "امیدوارم": 4571,
      "نزد": 4572,
      "عدالت": 4573,
      "اثبات": 4574,
      "ورزشی": 4575,
      "سادگی": 4576,
      "هرگونه": 4577,
      "##‌جمه": 4578,
      "شناسی": 4579,
      "ناپ": 4580,
      "##ive": 4581,
      "می‌گیرند": 4582,
      "اتصال": 4583,
      "جلب": 4584,
      "##اقع": 4585,
      "دانیم": 4586,
      "زخ": 4587,
      "نر": 4588,
      "می‌شن": 4589,
      "برنامه‌": 4590,
      "##کسی": 4591,
      "می‌خواست": 4592,
      "مخفی": 4593,
      "این‌که": 4594,
      "ظرفیت": 4595,
      "خروج": 4596,
      "‌ام": 4597,
      "هستی": 4598,
      "مربی": 4599,
      "کمپانی": 4600,
      "عصبی": 4601,
      "فرودگاه": 4602,
      "نادیده": 4603,
      "طیف": 4604,
      "مون": 4605,
      "پرست": 4606,
      "مشکلی": 4607,
      "خسته": 4608,
      "مور": 4609,
      "##عش": 4610,
      "##ویب": 4611,
      "بیای": 4612,
      "مسابقه": 4613,
      "##ine": 4614,
      "آفریقا": 4615,
      "ex": 4616,
      "we": 4617,
      "ریشه": 4618,
      "##هنی": 4619,
      "ارزشمند": 4620,
      "مکمل": 4621,
      "!»": 4622,
      "##بل": 4623,
      "تصویب": 4624,
      "منظم": 4625,
      "مجازات": 4626,
      "اوباما": 4627,
      "لز": 4628,
      "وظای": 4629,
      "متعلق": 4630,
      "کاربردی": 4631,
      "نوش": 4632,
      "خواستار": 4633,
      "بافت": 4634,
      "##لیلی": 4635,
      "ناخ": 4636,
      "دختران": 4637,
      "وسایل": 4638,
      "ترافیک": 4639,
      "شوم": 4640,
      "هاست": 4641,
      "دانشکده": 4642,
      "2017": 4643,
      "ورودی": 4644,
      "عظیم": 4645,
      "##نجی": 4646,
      "سریال": 4647,
      "##ity": 4648,
      "قهرمان": 4649,
      "برخ": 4650,
      "دادم": 4651,
      "2018": 4652,
      "ارتباطی": 4653,
      "روانی": 4654,
      "گری": 4655,
      "۲۵": 4656,
      "##ub": 4657,
      "کارخانه": 4658,
      "غذای": 4659,
      "مقدس": 4660,
      "##سیر": 4661,
      "ارتقا": 4662,
      "آشپ": 4663,
      "صنایع": 4664,
      "تحول": 4665,
      "مسلمانان": 4666,
      "مراکز": 4667,
      "##یدند": 4668,
      "معامل": 4669,
      "حقو": 4670,
      "مبلغ": 4671,
      "باتری": 4672,
      "بالایی": 4673,
      "خوانده": 4674,
      "غنی": 4675,
      "فری": 4676,
      "اسن": 4677,
      "تحویل": 4678,
      "##برداری": 4679,
      "ریاست": 4680,
      "نوشیدنی": 4681,
      "ید": 4682,
      "۱۴": 4683,
      "##ge": 4684,
      "##طی": 4685,
      "منزل": 4686,
      "فردا": 4687,
      "ترکیبی": 4688,
      "یم": 4689,
      "##واری": 4690,
      "##مر": 4691,
      "توق": 4692,
      "رساند": 4693,
      "مهمترین": 4694,
      "شرق": 4695,
      "تماشا": 4696,
      "پاداش": 4697,
      "سؤال": 4698,
      "ارم": 4699,
      "تجربی": 4700,
      "موشک": 4701,
      "man": 4702,
      "بگوید": 4703,
      "##صاب": 4704,
      "کشیدن": 4705,
      "منطقی": 4706,
      "اعدام": 4707,
      "عربی": 4708,
      "##غل": 4709,
      "پولی": 4710,
      "بدی": 4711,
      "مرغ": 4712,
      "صادرات": 4713,
      "کودکی": 4714,
      "wor": 4715,
      "سرک": 4716,
      "‌مان": 4717,
      "##نای": 4718,
      "##زیک": 4719,
      "سهم": 4720,
      "بالات": 4721,
      "فعالیت‌های": 4722,
      "طالبان": 4723,
      "21": 4724,
      "می‌س": 4725,
      "دیدم": 4726,
      "تأمین": 4727,
      "انقلابی": 4728,
      "کارشناسان": 4729,
      "متفاوتی": 4730,
      "##رتان": 4731,
      "نظیر": 4732,
      "کاغ": 4733,
      "سیم": 4734,
      "##بندی": 4735,
      "##انیایی": 4736,
      "نشود": 4737,
      "آورند": 4738,
      "مسیحی": 4739,
      "دائمی": 4740,
      "الی": 4741,
      "##او": 4742,
      "برگرد": 4743,
      "هایشان": 4744,
      "میکنند": 4745,
      "راز": 4746,
      "منع": 4747,
      "برنامه‌های": 4748,
      "حادث": 4749,
      "نظری": 4750,
      "تحریک": 4751,
      "نوآوری": 4752,
      "قضا": 4753,
      "نژاد": 4754,
      "فدر": 4755,
      "خانوادگی": 4756,
      "ابتلا": 4757,
      "بماند": 4758,
      "90": 4759,
      "بفه": 4760,
      "##عمل": 4761,
      "##طاف": 4762,
      "برود": 4763,
      "کتابخانه": 4764,
      "##نوشت": 4765,
      "بمب": 4766,
      "صندلی": 4767,
      "پیش‌بینی": 4768,
      "حقوقی": 4769,
      "##ه‌ام": 4770,
      "##قیان": 4771,
      "روزه": 4772,
      "می‌خواهند": 4773,
      "محیطی": 4774,
      "mar": 4775,
      "دعا": 4776,
      "سم": 4777,
      "ظهور": 4778,
      "‌شده": 4779,
      "بنویس": 4780,
      "اخبار": 4781,
      "خارجه": 4782,
      "##igh": 4783,
      "ریاضی": 4784,
      "داشتیم": 4785,
      "قی": 4786,
      "2016": 4787,
      "22": 4788,
      "رک": 4789,
      "عوار": 4790,
      "گذارد": 4791,
      "پرونده": 4792,
      "وف": 4793,
      "کاخ": 4794,
      "دیابت": 4795,
      "هدی": 4796,
      "شرایطی": 4797,
      "پنجره": 4798,
      "برگشت": 4799,
      "##ارات": 4800,
      "##ندوز": 4801,
      "باکتری": 4802,
      "تعادل": 4803,
      "انگار": 4804,
      "##est": 4805,
      "کمپین": 4806,
      "انعطاف": 4807,
      "##کشی": 4808,
      "نیستم": 4809,
      "سوالات": 4810,
      "پذیری": 4811,
      "تعطیلات": 4812,
      "وظایف": 4813,
      "شل": 4814,
      "معلم": 4815,
      "لبخ": 4816,
      "استراتژیک": 4817,
      "‌‌": 4818,
      "##روی": 4819,
      "##شیدی": 4820,
      "کنگر": 4821,
      "بیند": 4822,
      "آمدن": 4823,
      "چیزها": 4824,
      "کفش": 4825,
      "فس": 4826,
      "قلم": 4827,
      "استراحت": 4828,
      "جمعی": 4829,
      "شبک": 4830,
      "کوچکی": 4831,
      "کمیته": 4832,
      "رایج": 4833,
      "جانبی": 4834,
      "اذ": 4835,
      "حج": 4836,
      "زنی": 4837,
      "##سول": 4838,
      "کمونی": 4839,
      "ویندوز": 4840,
      "زا": 4841,
      "قول": 4842,
      "##جاست": 4843,
      "استث": 4844,
      "خورده": 4845,
      "آلود": 4846,
      "ستار": 4847,
      "ثروتمند": 4848,
      "sc": 4849,
      "رییس": 4850,
      "##انگیز": 4851,
      "##غام": 4852,
      "کاربری": 4853,
      "to": 4854,
      "آیه": 4855,
      "اقیان": 4856,
      "پروژ": 4857,
      "احتمالی": 4858,
      "##افتد": 4859,
      "ed": 4860,
      "شکن": 4861,
      "شکر": 4862,
      "##ver": 4863,
      "کشد": 4864,
      "مقدم": 4865,
      "مطالب": 4866,
      "گشت": 4867,
      "برگزاری": 4868,
      "بگیریم": 4869,
      "گرچه": 4870,
      "خلاف": 4871,
      "##جویی": 4872,
      "گرس": 4873,
      "نقض": 4874,
      "ابزارهای": 4875,
      "##لت": 4876,
      "مهمان": 4877,
      "راهنمایی": 4878,
      "سوئ": 4879,
      "تروریستی": 4880,
      "میتواند": 4881,
      "بوک": 4882,
      "وضع": 4883,
      "آفت": 4884,
      "رون": 4885,
      "##طرف": 4886,
      "میکرو": 4887,
      "مطابق": 4888,
      "خطوط": 4889,
      "علاق": 4890,
      "خواند": 4891,
      "آسیا": 4892,
      "سرانجام": 4893,
      "احم": 4894,
      "تجدید": 4895,
      "تعجب": 4896,
      "گردید": 4897,
      "مناسبی": 4898,
      "درحالی": 4899,
      "راضی": 4900,
      "نقد": 4901,
      "فیلتر": 4902,
      "التحصیل": 4903,
      "ht": 4904,
      "حرک": 4905,
      "ندید": 4906,
      "۴۰": 4907,
      "##ئید": 4908,
      "برداری": 4909,
      "شنیده": 4910,
      "شوروی": 4911,
      "بزرگسالان": 4912,
      "تشکر": 4913,
      "196": 4914,
      "خورشیدی": 4915,
      "شاخص": 4916,
      "فدرال": 4917,
      "pr": 4918,
      "##up": 4919,
      "منص": 4920,
      "داعش": 4921,
      "ناحیه": 4922,
      "##all": 4923,
      "اتحاد": 4924,
      "سابقه": 4925,
      "بنیاد": 4926,
      "کارآفر": 4927,
      "عوارض": 4928,
      "کنگره": 4929,
      "خام": 4930,
      "گمان": 4931,
      "نظرات": 4932,
      "دیپلم": 4933,
      "خل": 4934,
      "لم": 4935,
      "##اگون": 4936,
      "##‌کننده": 4937,
      "##ایان": 4938,
      "##ستند": 4939,
      "سیگن": 4940,
      "شیطان": 4941,
      "سیگنال": 4942,
      "ac": 4943,
      "رمان": 4944,
      "الم": 4945,
      "کشیده": 4946,
      "اکس": 4947,
      "۱۶": 4948,
      "اندکی": 4949,
      "ناام": 4950,
      "ذهنی": 4951,
      "وام": 4952,
      "##یتی": 4953,
      "##گانی": 4954,
      "بازنش": 4955,
      "##ell": 4956,
      "##لیکی": 4957,
      "دوستی": 4958,
      "کالج": 4959,
      "اردو": 4960,
      "تئوری": 4961,
      "بگذارد": 4962,
      "رع": 4963,
      "الکتری": 4964,
      "اخیرا": 4965,
      "شواهد": 4966,
      "آه": 4967,
      "خبری": 4968,
      "##فرم": 4969,
      "حساس": 4970,
      "عکاسی": 4971,
      "ناس": 4972,
      "##ue": 4973,
      "##ماند": 4974,
      "جنگی": 4975,
      "حادثه": 4976,
      "وجه": 4977,
      "تکامل": 4978,
      "تفسیر": 4979,
      "چرخه": 4980,
      "جر": 4981,
      "حدی": 4982,
      "له": 4983,
      "مری": 4984,
      "##راری": 4985,
      "سرنوشت": 4986,
      "مداخ": 4987,
      "هدیه": 4988,
      "80": 4989,
      "رفع": 4990,
      "##ظاه": 4991,
      "محاس": 4992,
      "الهام": 4993,
      "مقررات": 4994,
      "te": 4995,
      "رم": 4996,
      "ضرب": 4997,
      "علام": 4998,
      "##اکی": 4999,
      "##مور": 5000,
      "نیستید": 5001,
      "درباره‌ی": 5002,
      "معیار": 5003,
      "لبخند": 5004,
      "جغ": 5005,
      "##جار": 5006,
      "استعد": 5007,
      "نماینده": 5008,
      "معتقدند": 5009,
      "اي": 5010,
      "شادی": 5011,
      "مأ": 5012,
      "هرچه": 5013,
      "خواهان": 5014,
      "اضطراب": 5015,
      "این‌ها": 5016,
      "بیاید": 5017,
      "شنبه": 5018,
      "امکانات": 5019,
      "پیروی": 5020,
      "مراقب": 5021,
      "فال": 5022,
      "فور": 5023,
      "اخترا": 5024,
      "پذیرفته": 5025,
      "می‌خواهم": 5026,
      "سفارش": 5027,
      "قضاوت": 5028,
      "##نظر": 5029,
      "##سیل": 5030,
      "دوز": 5031,
      "آمریکای": 5032,
      "وقوع": 5033,
      "##art": 5034,
      "رقم": 5035,
      "اکثریت": 5036,
      "سیر": 5037,
      "کاب": 5038,
      "##شوند": 5039,
      "##ير": 5040,
      "##ّت": 5041,
      "##فاعی": 5042,
      "کیلومتر": 5043,
      "محاسبه": 5044,
      "ضعف": 5045,
      "پایت": 5046,
      "##na": 5047,
      "##ثی": 5048,
      "اوکر": 5049,
      "متهم": 5050,
      "2014": 5051,
      "ماموریت": 5052,
      "طلب": 5053,
      "عقل": 5054,
      "##‌گیری": 5055,
      "پارلمان": 5056,
      "اتومبیل": 5057,
      "بوی": 5058,
      "##وگر": 5059,
      "آنقدر": 5060,
      "داوط": 5061,
      "بعدا": 5062,
      "اپلیکی": 5063,
      "##وغ": 5064,
      "##لز": 5065,
      "پیوست": 5066,
      "##مدت": 5067,
      "بدهی": 5068,
      "داوطلب": 5069,
      "تظاه": 5070,
      "می‌ن": 5071,
      "نمایندگان": 5072,
      "ماندن": 5073,
      "معلوم": 5074,
      "بیایید": 5075,
      "واس": 5076,
      "##خواب": 5077,
      "روزها": 5078,
      "مخدر": 5079,
      "نفع": 5080,
      "یورو": 5081,
      "##بخت": 5082,
      "##روید": 5083,
      "مجازی": 5084,
      "ادع": 5085,
      "فرصتی": 5086,
      "اینترنتی": 5087,
      "می‌دانند": 5088,
      "مقی": 5089,
      "##کید": 5090,
      "موقت": 5091,
      "خودکار": 5092,
      "الگو": 5093,
      "بزرگ‌ترین": 5094,
      "##سلام": 5095,
      "دستگیر": 5096,
      "بالاخره": 5097,
      "چشمان": 5098,
      "35": 5099,
      "سئو": 5100,
      "فوری": 5101,
      "لایه": 5102,
      "الز": 5103,
      "نمی‌خواه": 5104,
      "گروه‌های": 5105,
      "##نظ": 5106,
      "##ادن": 5107,
      "معادل": 5108,
      "درگیری": 5109,
      "مواف": 5110,
      "بیانیه": 5111,
      "تبلیغاتی": 5112,
      "جداگانه": 5113,
      "موافقت": 5114,
      "دمای": 5115,
      "##ke": 5116,
      "##20": 5117,
      "نیک": 5118,
      "اوست": 5119,
      "واژه": 5120,
      "باری": 5121,
      "فای": 5122,
      "فول": 5123,
      "وار": 5124,
      "استق": 5125,
      "موهای": 5126,
      "متعهد": 5127,
      "عمد": 5128,
      "۱۹۸": 5129,
      "استخوان": 5130,
      "پلاستی": 5131,
      "مقیاس": 5132,
      "ون": 5133,
      "##زده": 5134,
      "##‌اف": 5135,
      "##املی": 5136,
      "بانکی": 5137,
      "اپلیکیشن": 5138,
      "ic": 5139,
      "##زر": 5140,
      "##خا": 5141,
      "همگی": 5142,
      "تنوع": 5143,
      "زندگی‌": 5144,
      "یادآوری": 5145,
      "ایمن": 5146,
      "هنرمند": 5147,
      "رعایت": 5148,
      "co": 5149,
      "كار": 5150,
      "##بند": 5151,
      "##سکو": 5152,
      "##فرو": 5153,
      "هاي": 5154,
      "۱۹۷": 5155,
      "پدرش": 5156,
      "ردی": 5157,
      "غم": 5158,
      "##se": 5159,
      "می‌ی": 5160,
      "##ماس": 5161,
      "داده‌اند": 5162,
      "تأکید": 5163,
      "کلیس": 5164,
      "جوام": 5165,
      "تردید": 5166,
      "وال": 5167,
      "##مره": 5168,
      "می‌گفت": 5169,
      "کنونی": 5170,
      "انح": 5171,
      "مخل": 5172,
      "نخواهند": 5173,
      "استعداد": 5174,
      "##بیت": 5175,
      "الکل": 5176,
      "کسب‌و": 5177,
      "زودتر": 5178,
      "آلودگی": 5179,
      "##اوز": 5180,
      "##ساز": 5181,
      "بدترین": 5182,
      "صرفه": 5183,
      "بخواهد": 5184,
      "خن": 5185,
      "۱۷": 5186,
      "##‌پذیر": 5187,
      "آنتی": 5188,
      "روشی": 5189,
      "ساحل": 5190,
      "جلسات": 5191,
      "بدهند": 5192,
      "دامنه": 5193,
      "ناراحت": 5194,
      "شرح": 5195,
      "پلت": 5196,
      "راجع": 5197,
      "اسکن": 5198,
      "مسلح": 5199,
      "##مینی": 5200,
      "حیاتی": 5201,
      "فلسفه": 5202,
      "لغو": 5203,
      "اقیانوس": 5204,
      "علامت": 5205,
      "##وپ": 5206,
      "کارمند": 5207,
      "توپ": 5208,
      "دیوان": 5209,
      "نمی‌کنند": 5210,
      "دانشگاهی": 5211,
      "استانداردهای": 5212,
      "تروریسم": 5213,
      "تحصیلات": 5214,
      "باردار": 5215,
      "متاسفانه": 5216,
      "سرکوب": 5217,
      "23": 5218,
      "حین": 5219,
      "کت": 5220,
      "##يت": 5221,
      "بهر": 5222,
      "برسان": 5223,
      "سرخ": 5224,
      "##رگانی": 5225,
      "ببینند": 5226,
      "همه‌": 5227,
      "گربه": 5228,
      "نماد": 5229,
      "بدانند": 5230,
      "صندوق": 5231,
      "الکتریکی": 5232,
      "##چرخ": 5233,
      "مرده": 5234,
      "جلوی": 5235,
      "نویسندگان": 5236,
      "70": 5237,
      "be": 5238,
      "ني": 5239,
      "##ist": 5240,
      "##ps": 5241,
      "استد": 5242,
      "انف": 5243,
      "مقالات": 5244,
      "##لیک": 5245,
      "بازگرد": 5246,
      "تحقق": 5247,
      "فقر": 5248,
      "مستند": 5249,
      "ثبات": 5250,
      "پیمان": 5251,
      "##کب": 5252,
      "##کش": 5253,
      "برزی": 5254,
      "جمعه": 5255,
      "فیزیک": 5256,
      "فلسطینی": 5257,
      "تازگی": 5258,
      "ندهید": 5259,
      "سازنده": 5260,
      "اراده": 5261,
      "مواردی": 5262,
      "اتخا": 5263,
      "احساسی": 5264,
      "ظاهرا": 5265,
      "ویدئ": 5266,
      "تزریق": 5267,
      "اتخاذ": 5268,
      "دادیم": 5269,
      "غیره": 5270,
      "جیم": 5271,
      "هایش": 5272,
      "دلاری": 5273,
      "خبرنگ": 5274,
      "کلاسی": 5275,
      "##ill": 5276,
      "بپرسید": 5277,
      "پایتخت": 5278,
      "دای": 5279,
      "”.": 5280,
      "##لین": 5281,
      "موج": 5282,
      "روس": 5283,
      "مالکیت": 5284,
      "cr": 5285,
      "شکلی": 5286,
      "آوریل": 5287,
      "اوکراین": 5288,
      "آک": 5289,
      "زوج": 5290,
      "ضبط": 5291,
      "##‌طور": 5292,
      "##ارتمان": 5293,
      "خراب": 5294,
      "ببرد": 5295,
      "ببیند": 5296,
      "##موز": 5297,
      "می‌برد": 5298,
      "سالی": 5299,
      "ادبی": 5300,
      "رئیس‌جمه": 5301,
      "اسناد": 5302,
      "بکن": 5303,
      "تخت": 5304,
      "۲۴": 5305,
      "##گرام": 5306,
      "زمینی": 5307,
      "حسین": 5308,
      "وبسایت": 5309,
      "ببینیم": 5310,
      "تماشای": 5311,
      "برقراری": 5312,
      "ابراز": 5313,
      "دشمنان": 5314,
      "500": 5315,
      "دبیر": 5316,
      "عر": 5317,
      "گزین": 5318,
      "حرفه‌ای": 5319,
      "سکوت": 5320,
      "خلی": 5321,
      "ضمن": 5322,
      "هید": 5323,
      "خودت": 5324,
      "پیشگیری": 5325,
      "شکایت": 5326,
      "محدوده": 5327,
      "##چوب": 5328,
      "روزمره": 5329,
      "فقیر": 5330,
      "آلوده": 5331,
      "قطار": 5332,
      "قطعه": 5333,
      "کمیسیون": 5334,
      "مرتب": 5335,
      "بنیان": 5336,
      "گذاشتن": 5337,
      "مؤثر": 5338,
      "راهنمای": 5339,
      "عاط": 5340,
      "کور": 5341,
      "بعنوان": 5342,
      "می‌کردم": 5343,
      "رودخانه": 5344,
      "دستورال": 5345,
      "جعبه": 5346,
      "##ابتی": 5347,
      "##تیکی": 5348,
      "2012": 5349,
      "جوامع": 5350,
      "he": 5351,
      "la": 5352,
      "۶۰": 5353,
      "##وین": 5354,
      "##ازیم": 5355,
      "پیشین": 5356,
      "ویزای": 5357,
      "شرکت‌ها": 5358,
      "کوین": 5359,
      "می‌خواهیم": 5360,
      "هورمون": 5361,
      "##اتور": 5362,
      "شارژ": 5363,
      "فوریه": 5364,
      "لات": 5365,
      "##جای": 5366,
      "مهرب": 5367,
      "سازمانی": 5368,
      "194": 5369,
      "شرط": 5370,
      "یهودیان": 5371,
      "زرد": 5372,
      "ین": 5373,
      "##خاص": 5374,
      "شدیم": 5375,
      "مهم‌ترین": 5376,
      "موجودات": 5377,
      "لحظ": 5378,
      "##our": 5379,
      "نوشیدن": 5380,
      "کاغذ": 5381,
      "بومی": 5382,
      "ضربه": 5383,
      "کنون": 5384,
      "برایش": 5385,
      "امت": 5386,
      "##فرمای": 5387,
      "چندان": 5388,
      "گرفتم": 5389,
      "##one": 5390,
      "حسابداری": 5391,
      "استدلال": 5392,
      "بکار": 5393,
      "سینه": 5394,
      "##ud": 5395,
      "##التی": 5396,
      "خودکشی": 5397,
      "پیگیری": 5398,
      "هیئت": 5399,
      "##ولیک": 5400,
      "##ort": 5401,
      "سلط": 5402,
      "خوشبخت": 5403,
      "نکند": 5404,
      "##ft": 5405,
      "راه‌": 5406,
      "##ضاع": 5407,
      "##ونا": 5408,
      "##ه‌اید": 5409,
      "....": 5410,
      "آمدند": 5411,
      "اختراع": 5412,
      "##ابقات": 5413,
      "مسابقات": 5414,
      "تجاوز": 5415,
      "wh": 5416,
      "کالی": 5417,
      "##انو": 5418,
      "بهار": 5419,
      "میر": 5420,
      "##الله": 5421,
      "مشا": 5422,
      "اته": 5423,
      "پرورد": 5424,
      "##ائی": 5425,
      "مخاطبان": 5426,
      "36": 5427,
      "45": 5428,
      "گریه": 5429,
      "##ba": 5430,
      "##روز": 5431,
      "اسید": 5432,
      "اتوب": 5433,
      "حقیقی": 5434,
      "تقاضای": 5435,
      "سرگرم": 5436,
      "##سور": 5437,
      "پذیرفت": 5438,
      "زمستان": 5439,
      "دستورالعمل": 5440,
      "خب": 5441,
      "##ect": 5442,
      "عنصر": 5443,
      "برنامه‌ریزی": 5444,
      "po": 5445,
      "خنده": 5446,
      "طرز": 5447,
      "گویی": 5448,
      "اوضاع": 5449,
      "مردمی": 5450,
      "بخاطر": 5451,
      "تصویری": 5452,
      "آرای": 5453,
      "حب": 5454,
      "کاش": 5455,
      "کپی": 5456,
      "##انگ": 5457,
      "۱۹۶": 5458,
      "کالری": 5459,
      "استخراج": 5460,
      "کربن": 5461,
      "##خان": 5462,
      "##فون": 5463,
      "##یدان": 5464,
      "برایم": 5465,
      "اجاره": 5466,
      "اتمی": 5467,
      "##کتور": 5468,
      "حالیکه": 5469,
      "مشابهی": 5470,
      "شکنجه": 5471,
      "28": 5472,
      "بشناس": 5473,
      "دلیلی": 5474,
      "شکار": 5475,
      "كند": 5476,
      "راستی": 5477,
      "اینست": 5478,
      "آمادگی": 5479,
      "مارک": 5480,
      "مجددا": 5481,
      "##ock": 5482,
      "کاند": 5483,
      "##پزش": 5484,
      "##يم": 5485,
      "سوسی": 5486,
      "نسبتا": 5487,
      "مغزی": 5488,
      "فلسطین": 5489,
      "شده‌است": 5490,
      "متقاضی": 5491,
      "لای": 5492,
      "ناه": 5493,
      "##‌کنندگان": 5494,
      "همدیگر": 5495,
      "رسانی": 5496,
      "گذاران": 5497,
      "جنایت": 5498,
      "##مزد": 5499,
      "##ace": 5500,
      "شعر": 5501,
      "سربازان": 5502,
      "نویسی": 5503,
      "برخلاف": 5504,
      "توقف": 5505,
      "net": 5506,
      "##ov": 5507,
      "اینگونه": 5508,
      "خواهی": 5509,
      "مثلاً": 5510,
      "ساکن": 5511,
      "آنجایی": 5512,
      "نع": 5513,
      "بهینه": 5514,
      "دیگه": 5515,
      "##نجان": 5516,
      "ژاپنی": 5517,
      "جشنواره": 5518,
      "نباشید": 5519,
      "##ight": 5520,
      "آری": 5521,
      "نگ": 5522,
      "##لر": 5523,
      "میدهد": 5524,
      "باران": 5525,
      "##ind": 5526,
      "آورید": 5527,
      "مخالفت": 5528,
      "جغرافی": 5529,
      "[+": 5530,
      "غلط": 5531,
      "##تم": 5532,
      "لبنان": 5533,
      "یابند": 5534,
      "بگوییم": 5535,
      "روحانی": 5536,
      "هماهنگی": 5537,
      "اتوبوس": 5538,
      "[+]": 5539,
      "بشن": 5540,
      "فکری": 5541,
      "انسان‌ها": 5542,
      "تخمین": 5543,
      "بکشد": 5544,
      "26": 5545,
      "تایل": 5546,
      "##زات": 5547,
      "موافق": 5548,
      "دوچرخ": 5549,
      "2019": 5550,
      "بازارهای": 5551,
      "سراغ": 5552,
      "تخصصی": 5553,
      "آلبوم": 5554,
      "[-": 5555,
      "زای": 5556,
      "##pt": 5557,
      "آنهایی": 5558,
      "ندرت": 5559,
      "اشغال": 5560,
      "اشخاص": 5561,
      "195": 5562,
      "طلاق": 5563,
      "احتیاج": 5564,
      "[-]": 5565,
      "کابل": 5566,
      "یکپار": 5567,
      "##ترس": 5568,
      "سال‌ها": 5569,
      "مسکو": 5570,
      "سوگ": 5571,
      "قند": 5572,
      "##قیب": 5573,
      "مدنی": 5574,
      "مقصد": 5575,
      "کلاه": 5576,
      "یادداشت": 5577,
      "میزبان": 5578,
      "کسب‌وکار": 5579,
      "کلاسیک": 5580,
      "می‌افتد": 5581,
      "باشه": 5582,
      "قرص": 5583,
      "تصمیمات": 5584,
      "تروریست": 5585,
      "خلاقیت": 5586,
      "فریب": 5587,
      "می‌بر": 5588,
      "##ابری": 5589,
      "بازیگر": 5590,
      "##ه‌هایی": 5591,
      "2013": 5592,
      "حلقه": 5593,
      "رقص": 5594,
      "پیچید": 5595,
      "امپرات": 5596,
      "دموکراتیک": 5597,
      "تویی": 5598,
      "عده": 5599,
      "فاج": 5600,
      "لوله": 5601,
      "یاری": 5602,
      "##دهنده": 5603,
      "##رسد": 5604,
      "نشسته": 5605,
      "##‌العاده": 5606,
      "مهاجر": 5607,
      "بخورید": 5608,
      "احمق": 5609,
      "fi": 5610,
      "رده": 5611,
      "درخ": 5612,
      "الگ": 5613,
      "##ومه": 5614,
      "روش‌های": 5615,
      "موتورهای": 5616,
      "گیاهان": 5617,
      "خاطرات": 5618,
      "صفر": 5619,
      "نکات": 5620,
      "##ّا": 5621,
      "##لاک": 5622,
      "سوار": 5623,
      "سیستم‌های": 5624,
      "es": 5625,
      "رنگی": 5626,
      "##وکس": 5627,
      "##گزار": 5628,
      "##حه": 5629,
      "##ارک": 5630,
      "رایانه": 5631,
      "دقیقاً": 5632,
      "تخریب": 5633,
      "موسسات": 5634,
      "مرزهای": 5635,
      "ویدئو": 5636,
      "web": 5637,
      "شست": 5638,
      "فت": 5639,
      "##‌سازی": 5640,
      "باستان": 5641,
      "خواهر": 5642,
      "بزند": 5643,
      "تعمیر": 5644,
      "مبنی": 5645,
      "تلویزیونی": 5646,
      "ناگهانی": 5647,
      "app": 5648,
      "فساد": 5649,
      "عاطفی": 5650,
      "me": 5651,
      "رف": 5652,
      "شاخ": 5653,
      "ناک": 5654,
      "سبزی": 5655,
      "طرفداران": 5656,
      "جانب": 5657,
      "یونان": 5658,
      "حوادث": 5659,
      "معاملات": 5660,
      "sm": 5661,
      "حامی": 5662,
      "##زاری": 5663,
      "داده‌های": 5664,
      "میانگین": 5665,
      "نداشتند": 5666,
      "مؤس": 5667,
      "رأ": 5668,
      "عظ": 5669,
      "عالم": 5670,
      "نقص": 5671,
      "اکسی": 5672,
      "مادرش": 5673,
      "ناگهان": 5674,
      "ser": 5675,
      "تنگ": 5676,
      "##هر": 5677,
      "انکار": 5678,
      "گواهی": 5679,
      "سایه": 5680,
      "تسلیم": 5681,
      "می‌آورد": 5682,
      "##تاس": 5683,
      "روم": 5684,
      "بازی‌های": 5685,
      "قطعات": 5686,
      "پنجم": 5687,
      "نمی‌توانند": 5688,
      "اشتباهات": 5689,
      "می‌داند": 5690,
      "ناپدید": 5691,
      "مشاغل": 5692,
      "تسه": 5693,
      "##بای": 5694,
      "برطرف": 5695,
      "منف": 5696,
      "##عیتی": 5697,
      "اعتباری": 5698,
      "ستون": 5699,
      "##oun": 5700,
      "فیسب": 5701,
      "اتمام": 5702,
      "آشپز": 5703,
      "دینی": 5704,
      "##io": 5705,
      "##ml": 5706,
      "آنگاه": 5707,
      "##کیه": 5708,
      "تاریک": 5709,
      "مهاجران": 5710,
      "عز": 5711,
      "داره": 5712,
      "شناختی": 5713,
      "اشتغال": 5714,
      "کلیسا": 5715,
      "پرسید": 5716,
      "تجربیات": 5717,
      "آفتاب": 5718,
      "برزیل": 5719,
      "im": 5720,
      "سیل": 5721,
      "یمن": 5722,
      "##راث": 5723,
      "می‌توانم": 5724,
      "##فیف": 5725,
      "اشیا": 5726,
      "عقیده": 5727,
      "گردشگری": 5728,
      "دکمه": 5729,
      "لمس": 5730,
      "جاب": 5731,
      "صلی": 5732,
      "کلیه": 5733,
      "برایتان": 5734,
      "##ant": 5735,
      "گردن": 5736,
      "ملک": 5737,
      "معناست": 5738,
      "لذا": 5739,
      "وسیع": 5740,
      "آموخت": 5741,
      "مداخله": 5742,
      "بهره‌": 5743,
      "صوتی": 5744,
      "دستمزد": 5745,
      "پرچ": 5746,
      "بتوانیم": 5747,
      "رفتارهای": 5748,
      "بایست": 5749,
      "مخصوصا": 5750,
      "اشکال": 5751,
      "300": 5752,
      "پره": 5753,
      "یو": 5754,
      "##‌آوری": 5755,
      "##غه": 5756,
      "استودی": 5757,
      "یک‌": 5758,
      "##ویز": 5759,
      "سلول‌های": 5760,
      "ویدیو": 5761,
      "فش": 5762,
      "##ولت": 5763,
      "اسلح": 5764,
      "چراغ": 5765,
      "خرج": 5766,
      "کوچکتر": 5767,
      "نتیج": 5768,
      "همسرش": 5769,
      "سرگرمی": 5770,
      "جفت": 5771,
      "سار": 5772,
      "ناز": 5773,
      "بیفت": 5774,
      "دهی": 5775,
      "##اخته": 5776,
      "ناپذیر": 5777,
      "کوتاهی": 5778,
      "امریکایی": 5779,
      "میتوانید": 5780,
      "پروتکل": 5781,
      "همسایه": 5782,
      "پدرم": 5783,
      "فرستاده": 5784,
      "تقاضا": 5785,
      "نوجوانان": 5786,
      "زخم": 5787,
      "27": 5788,
      "شام": 5789,
      "##اهایی": 5790,
      "سالهای": 5791,
      "سیب": 5792,
      "کلام": 5793,
      "ابتدایی": 5794,
      "داروها": 5795,
      "قربانیان": 5796,
      "زنجیره": 5797,
      "دوچرخه": 5798,
      "الگوریت": 5799,
      "ونز": 5800,
      "##نیا": 5801,
      "##ینا": 5802,
      "السلام": 5803,
      "دریاچه": 5804,
      "سینما": 5805,
      "می‌خوان": 5806,
      "هیدرو": 5807,
      "سوگند": 5808,
      "فیسبوک": 5809,
      "آسانی": 5810,
      "##شب": 5811,
      "##کدام": 5812,
      "معد": 5813,
      "اهدا": 5814,
      "بدانیم": 5815,
      "ضرورت": 5816,
      "راننده": 5817,
      "خلیج": 5818,
      "جاس": 5819,
      "##ast": 5820,
      "درونی": 5821,
      "##ice": 5822,
      "مادرم": 5823,
      "ببرند": 5824,
      "اصلاحات": 5825,
      "عزیز": 5826,
      "خاموش": 5827,
      "زنگ": 5828,
      "شجا": 5829,
      "۸۰": 5830,
      "##ain": 5831,
      "##لاس": 5832,
      "تنظیمات": 5833,
      "آرزو": 5834,
      "متعددی": 5835,
      "ونزوئ": 5836,
      "##اعت": 5837,
      "##مایی": 5838,
      "خطرات": 5839,
      "2011": 5840,
      "ویرایش": 5841,
      "چارچوب": 5842,
      "تسهیل": 5843,
      "##ولای": 5844,
      "مقاد": 5845,
      "اجباری": 5846,
      "متنوع": 5847,
      "فیلی": 5848,
      "۵۰۰": 5849,
      "ادغام": 5850,
      "##گذاران": 5851,
      "##‌‌‌‌": 5852,
      "بالاترین": 5853,
      "انفجار": 5854,
      "خس": 5855,
      "گال": 5856,
      "##ولا": 5857,
      "معلمان": 5858,
      "شنید": 5859,
      "##گویم": 5860,
      "تمرینات": 5861,
      "می‌دانیم": 5862,
      "متعدد": 5863,
      "تدریس": 5864,
      "اکسیژن": 5865,
      "مقادیر": 5866,
      "##ld": 5867,
      "##چیز": 5868,
      "توج": 5869,
      "تنش": 5870,
      "قبلاً": 5871,
      "##ومیت": 5872,
      "اخلاق": 5873,
      "برآورده": 5874,
      "حاکم": 5875,
      "هزینه‌های": 5876,
      "استقبال": 5877,
      "ab": 5878,
      "سالن": 5879,
      "##وتری": 5880,
      "##ite": 5881,
      "صاحبان": 5882,
      "می‌یابد": 5883,
      "##بتی": 5884,
      "##يل": 5885,
      "##ویج": 5886,
      "باشی": 5887,
      "تومور": 5888,
      "محور": 5889,
      "شهادت": 5890,
      "سخنان": 5891,
      "وضوح": 5892,
      "پیروز": 5893,
      "پروردگار": 5894,
      "پرچم": 5895,
      "ایتالی": 5896,
      "حریم": 5897,
      "##ph": 5898,
      "##راس": 5899,
      "رفتم": 5900,
      "می‌دانید": 5901,
      "ناراحتی": 5902,
      "ابع": 5903,
      "فراوانی": 5904,
      "تسلی": 5905,
      "مزیت": 5906,
      "ملاح": 5907,
      "##ضه": 5908,
      "استی": 5909,
      "کارآمد": 5910,
      "توسع": 5911,
      "بخشد": 5912,
      "گواه": 5913,
      "رسیدگی": 5914,
      "عضلات": 5915,
      "برساند": 5916,
      "مایکرو": 5917,
      "کرده‌اید": 5918,
      "غیرقابل": 5919,
      "دفاعی": 5920,
      "درب": 5921,
      "میراث": 5922,
      "##گرا": 5923,
      "محاسب": 5924,
      "متأ": 5925,
      "مقداری": 5926,
      "دلم": 5927,
      "تعلق": 5928,
      "خواستم": 5929,
      "برسند": 5930,
      "وسیعی": 5931,
      "شیرین": 5932,
      "ایستاده": 5933,
      "رئیس‌جمهور": 5934,
      "ایتالیایی": 5935,
      "آو": 5936,
      "دز": 5937,
      "دوی": 5938,
      "دگر": 5939,
      "فزای": 5940,
      "##هی": 5941,
      "##طوری": 5942,
      "##؟؟": 5943,
      "##ادمی": 5944,
      "اوج": 5945,
      "متق": 5946,
      "ماهه": 5947,
      "پرنده": 5948,
      "می‌دهید": 5949,
      "ژنتیکی": 5950,
      "پدیده": 5951,
      "فریاد": 5952,
      "لنز": 5953,
      "##برگ": 5954,
      "افسر": 5955,
      "مطلق": 5956,
      "آیات": 5957,
      "اخراج": 5958,
      "2008": 5959,
      "کالیفر": 5960,
      "پوند": 5961,
      "​​": 5962,
      "##روند": 5963,
      "روایت": 5964,
      "نیستیم": 5965,
      "نداده": 5966,
      "دخالت": 5967,
      "بشری": 5968,
      "مجه": 5969,
      "##پرس": 5970,
      "داغ": 5971,
      "نظرس": 5972,
      "نامزد": 5973,
      "شنیدن": 5974,
      "رفتاری": 5975,
      "وب‌": 5976,
      "نخواهید": 5977,
      "مبنای": 5978,
      "پرتاب": 5979,
      "هماهنگ": 5980,
      "طلایی": 5981,
      "##‌افزار": 5982,
      "آقا": 5983,
      "بت": 5984,
      "ربات": 5985,
      "غال": 5986,
      "۲۱": 5987,
      "متغ": 5988,
      "دستاورد": 5989,
      "ارتفاع": 5990,
      "رفتند": 5991,
      "##are": 5992,
      "##وفان": 5993,
      "بچه‌ها": 5994,
      "صلاح": 5995,
      "واکس": 5996,
      "##co": 5997,
      "##مار": 5998,
      "##انونی": 5999,
      "سازگار": 6000,
      "شهرد": 6001,
      "رادیو": 6002,
      "غیرقانونی": 6003,
      "می‌شناس": 6004,
      "نظرسنجی": 6005,
      "غالبا": 6006,
      "سنی": 6007,
      "قایق": 6008,
      "##زاده": 6009,
      "متش": 6010,
      "می‌توانست": 6011,
      "بعدها": 6012,
      "حساسی": 6013,
      "ابتدای": 6014,
      "۲۰۱۵": 6015,
      "بسازید": 6016,
      "##age": 6017,
      "بصورت": 6018,
      "مولک": 6019,
      "شرکتی": 6020,
      "فیلیپ": 6021,
      "فا": 6022,
      "##طبی": 6023,
      "جنس": 6024,
      "سپاس": 6025,
      "دریای": 6026,
      "خالص": 6027,
      "جویی": 6028,
      "هار": 6029,
      "امیر": 6030,
      "عمق": 6031,
      "بلوک": 6032,
      "مکزیک": 6033,
      "مرتکب": 6034,
      "آفرین": 6035,
      "رحم": 6036,
      "اسلحه": 6037,
      "el": 6038,
      "عج": 6039,
      "##طل": 6040,
      "معا": 6041,
      "اعط": 6042,
      "##وسف": 6043,
      "##ore": 6044,
      "محافظ": 6045,
      "مي‌": 6046,
      "ماجرا": 6047,
      "عذاب": 6048,
      "تظاهرات": 6049,
      "آشپزخانه": 6050,
      "الگوریتم": 6051,
      "ونزوئلا": 6052,
      "طعم": 6053,
      "کاپ": 6054,
      "##سافت": 6055,
      "##طانی": 6056,
      "محبت": 6057,
      "الته": 6058,
      "بینید": 6059,
      "تجرب": 6060,
      "می‌دهیم": 6061,
      "تأسیس": 6062,
      "آپارتمان": 6063,
      "مأم": 6064,
      "کلیسای": 6065,
      "آکادمی": 6066,
      "##بول": 6067,
      "##پت": 6068,
      "##ادله": 6069,
      "##ازده": 6070,
      "نظم": 6071,
      "مسدود": 6072,
      "##اکت": 6073,
      "قدرد": 6074,
      "خطا": 6075,
      "مشکلاتی": 6076,
      "سازماندهی": 6077,
      "شهرها": 6078,
      "صدور": 6079,
      "پشتی": 6080,
      "ببینم": 6081,
      "هنرمندان": 6082,
      "وسط": 6083,
      "عبارتند": 6084,
      "آشنایی": 6085,
      "فاجعه": 6086,
      "سون": 6087,
      "پری": 6088,
      "##الیسم": 6089,
      "ماهواره": 6090,
      "ناشن": 6091,
      "افزوده": 6092,
      "زندانیان": 6093,
      "شبه": 6094,
      "##زرگ": 6095,
      "بروند": 6096,
      "معج": 6097,
      "سرقت": 6098,
      "##ربزرگ": 6099,
      "بازیگران": 6100,
      "کامپیوتری": 6101,
      "گوناگون": 6102,
      "موضوعی": 6103,
      "ابعاد": 6104,
      "):": 6105,
      "تند": 6106,
      "سالها": 6107,
      "امّا": 6108,
      "معدن": 6109,
      "نداد": 6110,
      "بپذیر": 6111,
      "عملیاتی": 6112,
      "##ook": 6113,
      "قضیه": 6114,
      "توییتر": 6115,
      "۲۲": 6116,
      "##کم": 6117,
      "بابت": 6118,
      "کشورهایی": 6119,
      "شهرت": 6120,
      "سایبری": 6121,
      "عبد": 6122,
      "انتظارات": 6123,
      "روانشناسی": 6124,
      "کانادایی": 6125,
      "فوق‌العاده": 6126,
      "بگذارند": 6127,
      "مدارک": 6128,
      "سوئد": 6129,
      "اقل": 6130,
      "##ec": 6131,
      "##ایم": 6132,
      "مواقع": 6133,
      "اصلاً": 6134,
      "2000": 6135,
      "اتفاقات": 6136,
      "مفاهیم": 6137,
      "شهروند": 6138,
      "مرورگر": 6139,
      "تسلیح": 6140,
      "خونی": 6141,
      "کب": 6142,
      "محرک": 6143,
      "کتابی": 6144,
      "2010": 6145,
      "نمی‌توانید": 6146,
      "التحصیلان": 6147,
      "کالیفرنیا": 6148,
      "em": 6149,
      "وکیل": 6150,
      "پلی": 6151,
      "پاپ": 6152,
      "##مپ": 6153,
      "##ure": 6154,
      "##آگاه": 6155,
      "میشه": 6156,
      "سرتاس": 6157,
      "مطب": 6158,
      "عموم": 6159,
      "آفریقای": 6160,
      "جیمز": 6161,
      "سرتاسر": 6162,
      "شایع": 6163,
      "هل": 6164,
      "هلند": 6165,
      "##ib": 6166,
      "##ایلی": 6167,
      "خودداری": 6168,
      "افرا": 6169,
      "توانستند": 6170,
      "وحشی": 6171,
      "بایستی": 6172,
      "می‌سازد": 6173,
      "یکپارچه": 6174,
      "معدنی": 6175,
      "مکر": 6176,
      "##وسته": 6177,
      "##میمی": 6178,
      "##‌تان": 6179,
      "می‌گردد": 6180,
      "##می‌": 6181,
      "بیام": 6182,
      "دوشنبه": 6183,
      "سفارت": 6184,
      "نکنند": 6185,
      "فرمانده": 6186,
      "شعار": 6187,
      "محکم": 6188,
      "ادبیات": 6189,
      "زایمان": 6190,
      "تدا": 6191,
      "دارویی": 6192,
      "دیوید": 6193,
      "آیفون": 6194,
      "دانستن": 6195,
      "خند": 6196,
      "مضر": 6197,
      "##اداری": 6198,
      "##اتل": 6199,
      "می‌گذار": 6200,
      "##ه‌گیری": 6201,
      "بدهیم": 6202,
      "جاذ": 6203,
      "اسپانیایی": 6204,
      "درختان": 6205,
      "ناتو": 6206,
      "شایسته": 6207,
      "می‌پرد": 6208,
      "خوشبختانه": 6209,
      "\"،": 6210,
      "جدایی": 6211,
      "وین": 6212,
      "يک": 6213,
      "برداشته": 6214,
      "ایفا": 6215,
      "متمای": 6216,
      "معاصر": 6217,
      "گرما": 6218,
      "همان‌طور": 6219,
      "رسانه‌های": 6220,
      "متقاعد": 6221,
      "شوهر": 6222,
      "تصادفی": 6223,
      "ارمغان": 6224,
      "توجیه": 6225,
      "ائت": 6226,
      "تها": 6227,
      "‌سازی": 6228,
      "##برت": 6229,
      "##ian": 6230,
      "سریعتر": 6231,
      "معنوی": 6232,
      "طراحان": 6233,
      "کمونیست": 6234,
      "لاتین": 6235,
      "بنگ": 6236,
      "جنین": 6237,
      "عادل": 6238,
      "کاف": 6239,
      "##نند": 6240,
      "##ox": 6241,
      "ویزا": 6242,
      "اعتراف": 6243,
      "پیامد": 6244,
      "سومین": 6245,
      "حرکات": 6246,
      "کارآفرین": 6247,
      "جغرافیایی": 6248,
      "مجهز": 6249,
      "75": 6250,
      "mic": 6251,
      "غلب": 6252,
      "##ak": 6253,
      "##قین": 6254,
      "بروم": 6255,
      "محض": 6256,
      "الگوی": 6257,
      "اداری": 6258,
      "##ass": 6259,
      "می‌زند": 6260,
      "رأی": 6261,
      "جوی": 6262,
      "قوم": 6263,
      "پال": 6264,
      "۷۰": 6265,
      "##صدی": 6266,
      "دائم": 6267,
      "##زایر": 6268,
      "سوئیس": 6269,
      "##گذشت": 6270,
      "شکسته": 6271,
      "حمام": 6272,
      "خیانت": 6273,
      "بوجود": 6274,
      "##ذیرد": 6275,
      "دونالد": 6276,
      "متغیر": 6277,
      "غلبه": 6278,
      "29": 6279,
      "بخصوص": 6280,
      "توده": 6281,
      "جبران": 6282,
      "ژوئ": 6283,
      "##تاح": 6284,
      "##te": 6285,
      "##يه": 6286,
      "میکنم": 6287,
      "رسول": 6288,
      "مهر": 6289,
      "سازند": 6290,
      "تبادل": 6291,
      "افتتاح": 6292,
      "نبودند": 6293,
      "##‌الله": 6294,
      "اسرائیلی": 6295,
      "شبکه‌های": 6296,
      "پوی": 6297,
      "##‌پ": 6298,
      "باه": 6299,
      "##ورند": 6300,
      "یکبار": 6301,
      "##اطع": 6302,
      "سپری": 6303,
      "گویم": 6304,
      "بدهم": 6305,
      "فراوان": 6306,
      "خروجی": 6307,
      "گرسنگی": 6308,
      "مایکروسافت": 6309,
      "hd": 6310,
      "دانه": 6311,
      "عط": 6312,
      "عسل": 6313,
      "ماری": 6314,
      "ویل": 6315,
      "##‌ت": 6316,
      "محروم": 6317,
      "کیست": 6318,
      "بگویند": 6319,
      "مخاطب": 6320,
      "بیاورید": 6321,
      "بنویسید": 6322,
      "آذ": 6323,
      "پورت": 6324,
      "##شور": 6325,
      "##ئه": 6326,
      "می‌گذارد": 6327,
      "مسأ": 6328,
      "شهید": 6329,
      "ساح": 6330,
      "شبانه": 6331,
      "##ome": 6332,
      "عرصه": 6333,
      "جوش": 6334,
      "باب": 6335,
      "پیوسته": 6336,
      "نوار": 6337,
      "مطالع": 6338,
      "مالیاتی": 6339,
      "هواپیمای": 6340,
      "عصبانی": 6341,
      "برادران": 6342,
      "تعهدات": 6343,
      "!!!": 6344,
      "فالون": 6345,
      "تایلند": 6346,
      "fl": 6347,
      "قائل": 6348,
      "هایتان": 6349,
      "اسباب": 6350,
      "نادرست": 6351,
      "ارتقاء": 6352,
      "اگه": 6353,
      "بردار": 6354,
      "##end": 6355,
      "sy": 6356,
      "زلز": 6357,
      "‌‌های": 6358,
      "##وود": 6359,
      "##عود": 6360,
      "دردن": 6361,
      "خواص": 6362,
      "الف": 6363,
      "اسک": 6364,
      "تجار": 6365,
      "##وشید": 6366,
      "شنا": 6367,
      "نمون": 6368,
      "فروخته": 6369,
      "جزو": 6370,
      "رفاه": 6371,
      "ژوئیه": 6372,
      "چوب": 6373,
      "##رید": 6374,
      "##ust": 6375,
      "##عکس": 6376,
      "##pn": 6377,
      "اوت": 6378,
      "مسجد": 6379,
      "می‌شوید": 6380,
      "زیرس": 6381,
      "اعل": 6382,
      "سیاستم": 6383,
      "##ord": 6384,
      "فرزندتان": 6385,
      "حرارت": 6386,
      "ویدئویی": 6387,
      "حساسیت": 6388,
      "fr": 6389,
      "جولای": 6390,
      "نیت": 6391,
      "مدعی": 6392,
      "مربوطه": 6393,
      "2009": 6394,
      "صبحانه": 6395,
      "دیجیتالی": 6396,
      "زلزله": 6397,
      "my": 6398,
      "بي": 6399,
      "گاو": 6400,
      "سرما": 6401,
      "##اقد": 6402,
      "اسکات": 6403,
      "واژ": 6404,
      "لیزر": 6405,
      "مغذی": 6406,
      "خونریزی": 6407,
      "حدس": 6408,
      "فیبر": 6409,
      "خوراکی": 6410,
      "بلاک": 6411,
      "##بختی": 6412,
      "بیفتد": 6413,
      "op": 6414,
      "pre": 6415,
      "بلی": 6416,
      "بگذ": 6417,
      "دي": 6418,
      "قبر": 6419,
      "میکن": 6420,
      "بوده‌اند": 6421,
      "روحی": 6422,
      "ترویج": 6423,
      "نمیتوان": 6424,
      "رساندن": 6425,
      "گیرید": 6426,
      "واردات": 6427,
      "ابراهیم": 6428,
      "سبزیجات": 6429,
      "بفر": 6430,
      "خستگی": 6431,
      "شیشه": 6432,
      "۳۵": 6433,
      "ساکنان": 6434,
      "مشخصات": 6435,
      "نصف": 6436,
      "مسافرت": 6437,
      "جسمی": 6438,
      "آماز": 6439,
      "موان": 6440,
      "کول": 6441,
      "##زاب": 6442,
      "##پل": 6443,
      "##ارف": 6444,
      "##المه": 6445,
      "تاخیر": 6446,
      "بداند": 6447,
      "##خواهی": 6448,
      "ماهیت": 6449,
      "۱۹۴": 6450,
      "inter": 6451,
      "پژوهشگران": 6452,
      "مذهب": 6453,
      "مطلوب": 6454,
      "آمازون": 6455,
      "ps": 6456,
      "فو": 6457,
      "##کشان": 6458,
      "##ix": 6459,
      "##‌ن": 6460,
      "##امون": 6461,
      "کارکرد": 6462,
      "مهار": 6463,
      "نمی‌کن": 6464,
      "کوبا": 6465,
      "جنسیت": 6466,
      "تضعیف": 6467,
      "new": 6468,
      "عبار": 6469,
      "کیس": 6470,
      "##عان": 6471,
      "کنه": 6472,
      "ماسا": 6473,
      "مسکن": 6474,
      "رسمیت": 6475,
      "خواننده": 6476,
      "می‌آیند": 6477,
      "ممنون": 6478,
      "جدول": 6479,
      "واسطه": 6480,
      "نعمت": 6481,
      "##صورت": 6482,
      "استارت": 6483,
      "کارفرمای": 6484,
      "##ختن": 6485,
      "تمدن": 6486,
      "مجسم": 6487,
      "موضع": 6488,
      "پرده": 6489,
      "لیبی": 6490,
      "بمانید": 6491,
      "ناهار": 6492,
      "باند": 6493,
      "خلب": 6494,
      "زبانی": 6495,
      "صدم": 6496,
      "##ایر": 6497,
      "خداست": 6498,
      "لوازم": 6499,
      "فرستاد": 6500,
      "فولاد": 6501,
      "وب‌سایت": 6502,
      "32": 6503,
      "بنده": 6504,
      "پور": 6505,
      "کریم": 6506,
      "##مکن": 6507,
      "##حق": 6508,
      "##ینامه": 6509,
      "استع": 6510,
      "می‌روند": 6511,
      "پرندگان": 6512,
      "سیاست‌های": 6513,
      "۲۰۱۱": 6514,
      "فارس": 6515,
      "بمانند": 6516,
      "اختصاصی": 6517,
      "گواهینامه": 6518,
      "you": 6519,
      "فاقد": 6520,
      "می‌گویم": 6521,
      "واجد": 6522,
      "مشتاق": 6523,
      "حاشی": 6524,
      "آلرژی": 6525,
      "دندانپزش": 6526,
      "one": 6527,
      "اردوگاه": 6528,
      "br": 6529,
      "داوری": 6530,
      "املاک": 6531,
      "محاک": 6532,
      "##اقب": 6533,
      "تنفس": 6534,
      "بینیم": 6535,
      "راهکار": 6536,
      "اعتصاب": 6537,
      "نفرت": 6538,
      "گیاهی": 6539,
      "بنیادی": 6540,
      "بکشید": 6541,
      "اعداد": 6542,
      "سامسون": 6543,
      "دموکرات": 6544,
      "dna": 6545,
      "امان": 6546,
      "جبه": 6547,
      "عاد": 6548,
      "برف": 6549,
      "پیکر": 6550,
      "کمال": 6551,
      "کشتن": 6552,
      "رویدادهای": 6553,
      "نهادهای": 6554,
      "اضطراری": 6555,
      "مخلوط": 6556,
      "قدردانی": 6557,
      "))": 6558,
      "sk": 6559,
      "ur": 6560,
      "نک": 6561,
      "نرس": 6562,
      "##سف": 6563,
      "##‌تری": 6564,
      "##دهند": 6565,
      "مشورت": 6566,
      "مستقر": 6567,
      "حاکمیت": 6568,
      "تیراند": 6569,
      "بصری": 6570,
      "پرهیز": 6571,
      "واکسن": 6572,
      "آینه": 6573,
      "رغم": 6574,
      "شرم": 6575,
      "نوری": 6576,
      "هج": 6577,
      "کامی": 6578,
      "##له‌ی": 6579,
      "##ey": 6580,
      "##‌ام": 6581,
      "##ّه": 6582,
      "دست‌": 6583,
      "پسران": 6584,
      "##وتین": 6585,
      "2020": 6586,
      "مهمتر": 6587,
      "گردند": 6588,
      "شکاف": 6589,
      "رقابتی": 6590,
      "2007": 6591,
      "مالزی": 6592,
      "زیرساخت": 6593,
      "سنین": 6594,
      "غول": 6595,
      "۹۰": 6596,
      "##ستری": 6597,
      "اندروید": 6598,
      "گفتار": 6599,
      "##مندی": 6600,
      "نمایندگی": 6601,
      "##گهی": 6602,
      "##۰۰۰": 6603,
      "خواستند": 6604,
      "جمع‌آوری": 6605,
      "سقف": 6606,
      "مسافران": 6607,
      "مطلع": 6608,
      "ناسا": 6609,
      "##نظامی": 6610,
      "سامسونگ": 6611,
      "بوت": 6612,
      "عاق": 6613,
      "غرق": 6614,
      "##کین": 6615,
      "##پا": 6616,
      "انه": 6617,
      "گرمای": 6618,
      "دانشجویی": 6619,
      "##اسیون": 6620,
      "بگیرم": 6621,
      "##پیک": 6622,
      "فرمول": 6623,
      "نفتی": 6624,
      "##ode": 6625,
      "امپراتوری": 6626,
      "##اقی": 6627,
      "##‌انگیز": 6628,
      "##ازن": 6629,
      "دستان": 6630,
      "انتهای": 6631,
      "احزاب": 6632,
      "نظرم": 6633,
      "ملکه": 6634,
      "نوزادان": 6635,
      "ناشناخته": 6636,
      "mac": 6637,
      "حامل": 6638,
      "سنج": 6639,
      "کبد": 6640,
      "##ّی": 6641,
      "کهکشان": 6642,
      "##شتر": 6643,
      "اولی": 6644,
      "داستانی": 6645,
      "##رفه": 6646,
      "زندگ": 6647,
      "به‌صورت": 6648,
      "سازمان‌های": 6649,
      "فیلم‌های": 6650,
      "۲۰۱۸": 6651,
      "hiv": 6652,
      "ببخ": 6653,
      "##pr": 6654,
      "می‌گذ": 6655,
      "اندام": 6656,
      "داده‌ها": 6657,
      "نمی‌کرد": 6658,
      "193": 6659,
      "بالغ": 6660,
      "تلقی": 6661,
      "بیرونی": 6662,
      "مزمن": 6663,
      "بزنند": 6664,
      "الکترونیک": 6665,
      "400": 6666,
      "بگ": 6667,
      "بشود": 6668,
      "روده": 6669,
      "##فکر": 6670,
      "دانشجو": 6671,
      "۲۰۱۳": 6672,
      "افسانه": 6673,
      "تئاتر": 6674,
      "آرت": 6675,
      "تکان": 6676,
      "طوفان": 6677,
      "وری": 6678,
      "##بیا": 6679,
      "##وات": 6680,
      "##وارد": 6681,
      "##مید": 6682,
      "##ویسی": 6683,
      "ادرار": 6684,
      "##سمس": 6685,
      "حسن": 6686,
      "آوردند": 6687,
      "اختل": 6688,
      "مکالمه": 6689,
      "بشریت": 6690,
      "فزاینده": 6691,
      "تقد": 6692,
      "خشن": 6693,
      "##نایی": 6694,
      "درسی": 6695,
      "کارایی": 6696,
      "##افل": 6697,
      "##ملل": 6698,
      "بخش‌های": 6699,
      "ضرر": 6700,
      "مایع": 6701,
      "مایکل": 6702,
      "جایگزینی": 6703,
      "ویتنام": 6704,
      "گذارند": 6705,
      "کریسمس": 6706,
      "كنند": 6707,
      "رکورد": 6708,
      "شلوغ": 6709,
      "اینستا": 6710,
      "ائتلاف": 6711,
      "مداف": 6712,
      "‌کننده": 6713,
      "##قول": 6714,
      "بیاب": 6715,
      "##گوست": 6716,
      "۲۰۱۴": 6717,
      "فراخ": 6718,
      "خلاقانه": 6719,
      "31": 6720,
      "آگهی": 6721,
      "تپ": 6722,
      "دود": 6723,
      "لس": 6724,
      "چاق": 6725,
      "##راهی": 6726,
      "##da": 6727,
      "##ارستان": 6728,
      "تغییراتی": 6729,
      "مشخصی": 6730,
      "دشواری": 6731,
      "قلمرو": 6732,
      "خنک": 6733,
      "خلبان": 6734,
      "رؤ": 6735,
      "##iz": 6736,
      "##مود": 6737,
      "##ry": 6738,
      "##qu": 6739,
      "استر": 6740,
      "کنس": 6741,
      "توانستم": 6742,
      "فرمت": 6743,
      "بدنی": 6744,
      "کشی": 6745,
      "بازرگانی": 6746,
      "عموما": 6747,
      "حقایق": 6748,
      "۱۹۵": 6749,
      "##بورگ": 6750,
      "مهارت‌های": 6751,
      "کالا": 6752,
      "پادشاهی": 6753,
      "آست": 6754,
      "۰۰۰": 6755,
      "##کور": 6756,
      "##ss": 6757,
      "بره": 6758,
      "برعکس": 6759,
      "برایشان": 6760,
      "##تیاد": 6761,
      "##ه‌بندی": 6762,
      "بیاورد": 6763,
      "فرق": 6764,
      "نوا": 6765,
      "برنج": 6766,
      "انتخابی": 6767,
      "##وطه": 6768,
      "##ang": 6769,
      "خریداران": 6770,
      "2006": 6771,
      "مطمئ": 6772,
      "عروسی": 6773,
      "دردناک": 6774,
      "res": 6775,
      "##دل": 6776,
      "بودید": 6777,
      "سرم": 6778,
      "مثبتی": 6779,
      "اعتیاد": 6780,
      "گسترد": 6781,
      "نداشتم": 6782,
      "راستای": 6783,
      "سوره": 6784,
      "آهسته": 6785,
      "جاذبه": 6786,
      "col": 6787,
      "تار": 6788,
      "تکه": 6789,
      "##شتی": 6790,
      "انیمی": 6791,
      "##مانه": 6792,
      "نیام": 6793,
      "توانسته": 6794,
      "اندیشه": 6795,
      "مرات": 6796,
      "فروشنده": 6797,
      "شیو": 6798,
      "رسیدند": 6799,
      "تلفنی": 6800,
      "گوشه": 6801,
      "نرم‌افزار": 6802,
      "نابودی": 6803,
      "وابستگی": 6804,
      "html": 6805,
      "مهربان": 6806,
      "مطمئنا": 6807,
      "di": 6808,
      "سید": 6809,
      "غری": 6810,
      "غافل": 6811,
      "گز": 6812,
      "##شک": 6813,
      "##جایی": 6814,
      "تجویز": 6815,
      "تبعی": 6816,
      "جزء": 6817,
      "آرژ": 6818,
      "جوانی": 6819,
      "نمودار": 6820,
      "##وتیک": 6821,
      "پژوهشی": 6822,
      "نیروگاه": 6823,
      "بیاموز": 6824,
      "متمایز": 6825,
      "اینستاگرام": 6826,
      "سه‌": 6827,
      "نما": 6828,
      "##طری": 6829,
      "##اسط": 6830,
      "نمک": 6831,
      "تاریکی": 6832,
      "۱۹۳": 6833,
      "برسید": 6834,
      "می‌دانم": 6835,
      "خودروهای": 6836,
      "car": 6837,
      "بفرو": 6838,
      "تام": 6839,
      "توری": 6840,
      "کاست": 6841,
      "##مدی": 6842,
      "باستانی": 6843,
      "اینجاست": 6844,
      "کرده‌ایم": 6845,
      "##راسیون": 6846,
      "کمترین": 6847,
      "پیشرو": 6848,
      "گیرنده": 6849,
      "چنانچه": 6850,
      "رحمت": 6851,
      "جراح": 6852,
      "زور": 6853,
      "شلیک": 6854,
      "فنجان": 6855,
      "نگار": 6856,
      "##کام": 6857,
      "##pl": 6858,
      "برگز": 6859,
      "کارتان": 6860,
      "##رایه": 6861,
      "کلستر": 6862,
      "شهرستان": 6863,
      "گردان": 6864,
      "لیبر": 6865,
      "خوانندگان": 6866,
      "آرامی": 6867,
      "مادران": 6868,
      "پیشنهادی": 6869,
      "باهوش": 6870,
      "موانع": 6871,
      "حاشیه": 6872,
      "ro": 6873,
      "جک": 6874,
      "غر": 6875,
      "هندی": 6876,
      "پتان": 6877,
      "کوش": 6878,
      "یار": 6879,
      "##مع": 6880,
      "استن": 6881,
      "اسد": 6882,
      "##رسانی": 6883,
      "تشدید": 6884,
      "امروزی": 6885,
      "متحدان": 6886,
      "##act": 6887,
      "قطعاً": 6888,
      "آدمی": 6889,
      "آرزوی": 6890,
      "تبعیض": 6891,
      "no": 6892,
      "ss": 6893,
      "قاره": 6894,
      "قفل": 6895,
      "گیت": 6896,
      "##وقت": 6897,
      "بیکاری": 6898,
      "گرایی": 6899,
      "گرفته‌اند": 6900,
      "قطر": 6901,
      "قطعی": 6902,
      "لیگ": 6903,
      "سخنگ": 6904,
      "لطف": 6905,
      "دیروز": 6906,
      "هم‌چ": 6907,
      "لزوم": 6908,
      "ناامید": 6909,
      "معاون": 6910,
      "پتانسیل": 6911,
      "ثال": 6912,
      "مض": 6913,
      "۲۳": 6914,
      "دیکت": 6915,
      "##باح": 6916,
      "تلاش‌های": 6917,
      "فلور": 6918,
      "کشتار": 6919,
      "نگرش": 6920,
      "شاهزاده": 6921,
      "شاع": 6922,
      "ردیابی": 6923,
      "می‌برند": 6924,
      "محاکمه": 6925,
      "اختلالات": 6926,
      "کلسترول": 6927,
      "mon": 6928,
      "tim": 6929,
      "وادار": 6930,
      "یی": 6931,
      "رابرت": 6932,
      "معبد": 6933,
      "اتری": 6934,
      "زنانی": 6935,
      "تغییری": 6936,
      "##جویان": 6937,
      "بازنشستگی": 6938,
      "آگوست": 6939,
      "تکیه": 6940,
      "دوری": 6941,
      "##وشی": 6942,
      "اندیش": 6943,
      "بردند": 6944,
      "درواقع": 6945,
      "##ide": 6946,
      "نحو": 6947,
      "روستایی": 6948,
      "جورج": 6949,
      "لهستان": 6950,
      "انیمیشن": 6951,
      "**": 6952,
      "war": 6953,
      "ظهر": 6954,
      "##زام": 6955,
      "##‌گذاری": 6956,
      "تحمیل": 6957,
      "هیچکس": 6958,
      "زنند": 6959,
      "دوستانه": 6960,
      "همینطور": 6961,
      "بیماری‌های": 6962,
      "مغازه": 6963,
      "قهر": 6964,
      "عذر": 6965,
      "عمدتا": 6966,
      "جبهه": 6967,
      "بغ": 6968,
      "شتاب": 6969,
      "استرو": 6970,
      "بری": 6971,
      "اینطور": 6972,
      "دوام": 6973,
      "اندک": 6974,
      "مسل": 6975,
      "می‌کشد": 6976,
      "می‌دهم": 6977,
      "غذاها": 6978,
      "دریافتند": 6979,
      "پیرامون": 6980,
      "همسرتان": 6981,
      "می‌رفت": 6982,
      "فهمید": 6983,
      "نمی‌دانم": 6984,
      "قضایی": 6985,
      "ستارگان": 6986,
      "vpn": 6987,
      "الا": 6988,
      "مین": 6989,
      "مستم": 6990,
      "يا": 6991,
      "##ber": 6992,
      "##pe": 6993,
      "##ff": 6994,
      "##اهو": 6995,
      "##ونزی": 6996,
      "دیسک": 6997,
      "مشرو": 6998,
      "ویلی": 6999,
      "اروپای": 7000,
      "##ولوژیکی": 7001,
      "تخلیه": 7002,
      "اذیت": 7003,
      "دیپلماتیک": 7004,
      "ادعای": 7005,
      "آرژانت": 7006,
      "سمی": 7007,
      "##ینت": 7008,
      "روزنام": 7009,
      "نقلیه": 7010,
      "بیش‌تر": 7011,
      "پنجاه": 7012,
      "طرفدار": 7013,
      "آزمایشی": 7014,
      "حتماً": 7015,
      "قاچ": 7016,
      "منطقه‌ای": 7017,
      "شاخه": 7018,
      "زح": 7019,
      "عام": 7020,
      "غی": 7021,
      "غریب": 7022,
      "هول": 7023,
      "۴۵": 7024,
      "##رون": 7025,
      "##شیم": 7026,
      "##جنس": 7027,
      "همۀ": 7028,
      "معده": 7029,
      "الکس": 7030,
      "اسرار": 7031,
      "مسن": 7032,
      "مخرب": 7033,
      "۲۰۱۶": 7034,
      "##ivers": 7035,
      "کریست": 7036,
      "کرده‌ام": 7037,
      "قیامت": 7038,
      "راه‌حل": 7039,
      "قاچاق": 7040,
      "qu": 7041,
      "ربط": 7042,
      "پي": 7043,
      "گور": 7044,
      "##ts": 7045,
      "##پرد": 7046,
      "برلین": 7047,
      "کردی": 7048,
      "مترو": 7049,
      "بازخورد": 7050,
      "بزرگ‌تر": 7051,
      "خطاب": 7052,
      "نمره": 7053,
      "خلاص": 7054,
      "##ash": 7055,
      "تورم": 7056,
      "seo": 7057,
      "نتوانست": 7058,
      "رزرو": 7059,
      "کربوه": 7060,
      "سفارشی": 7061,
      "شرکای": 7062,
      "پلتفرم": 7063,
      "micro": 7064,
      "مسأله": 7065,
      "jo": 7066,
      "بکند": 7067,
      "تقل": 7068,
      "جمل": 7069,
      "وان": 7070,
      "کرم": 7071,
      "گرا": 7072,
      "##چال": 7073,
      "##uc": 7074,
      "##‌شده": 7075,
      "انی": 7076,
      "##ویض": 7077,
      "دافا": 7078,
      "دستش": 7079,
      "چهارشنبه": 7080,
      "مواجهه": 7081,
      "وحشتناک": 7082,
      "الزامات": 7083,
      "ساحلی": 7084,
      "کربوهید": 7085,
      "33": 7086,
      "65": 7087,
      "شون": 7088,
      "مارت": 7089,
      "پمپ": 7090,
      "##xt": 7091,
      "میخواه": 7092,
      "دوش": 7093,
      "سرپ": 7094,
      "بینند": 7095,
      "ابزاری": 7096,
      "مربع": 7097,
      "ترسناک": 7098,
      "می‌بینید": 7099,
      "غیرممکن": 7100,
      "سلطنتی": 7101,
      "id": 7102,
      "جین": 7103,
      "خات": 7104,
      "می‌ك": 7105,
      "##روش": 7106,
      "اواسط": 7107,
      "آنهاست": 7108,
      "اخذ": 7109,
      "سطحی": 7110,
      "##گردانی": 7111,
      "عواقب": 7112,
      "صرفاً": 7113,
      "1000": 7114,
      "می‌شدند": 7115,
      "مسئولان": 7116,
      "عکاس": 7117,
      "صادقانه": 7118,
      "دیوانه": 7119,
      "التهاب": 7120,
      "کافئین": 7121,
      "تیره": 7122,
      "##زن": 7123,
      "##oft": 7124,
      "برویم": 7125,
      "کنج": 7126,
      "محله": 7127,
      "اندونزی": 7128,
      "نوک": 7129,
      "##ith": 7130,
      "بهبودی": 7131,
      "##ame": 7132,
      "امیدواریم": 7133,
      "زدند": 7134,
      "قاضی": 7135,
      "تیراندازی": 7136,
      "34": 7137,
      "ios": 7138,
      "بول": 7139,
      "تابع": 7140,
      "رهایی": 7141,
      "پاره": 7142,
      "گنج": 7143,
      "##ial": 7144,
      "راه‌اند": 7145,
      "هایم": 7146,
      "کارش": 7147,
      "پروسه": 7148,
      "چراکه": 7149,
      "اساسا": 7150,
      "بندر": 7151,
      "تصادف": 7152,
      "world": 7153,
      "ندیده": 7154,
      "فایده": 7155,
      "انحص": 7156,
      "فشرده": 7157,
      "مأموریت": 7158,
      "ثالث": 7159,
      "راه‌اندازی": 7160,
      "lin": 7161,
      "خج": 7162,
      "زبال": 7163,
      "سوا": 7164,
      "##اژ": 7165,
      "##ایات": 7166,
      "میانه": 7167,
      "ماسک": 7168,
      "##رگان": 7169,
      "اطاعت": 7170,
      "نمی‌کنم": 7171,
      "پایانی": 7172,
      "ماهانه": 7173,
      "کتاب‌های": 7174,
      "ساعات": 7175,
      "شباه": 7176,
      "حاکی": 7177,
      "ریزش": 7178,
      "چرخش": 7179,
      "اکتش": 7180,
      "univers": 7181,
      "ممنوعیت": 7182,
      "کربوهیدرات": 7183,
      "55": 7184,
      "sa": 7185,
      "wi": 7186,
      "خدایی": 7187,
      "قبیل": 7188,
      "میشوند": 7189,
      "اصرار": 7190,
      "گرفتار": 7191,
      "شکم": 7192,
      "شورشی": 7193,
      "##ish": 7194,
      "توضیحات": 7195,
      "all": 7196,
      "مادری": 7197,
      "هیچ‌کس": 7198,
      "جادو": 7199,
      "متقابل": 7200,
      "عادلانه": 7201,
      "بلیط": 7202,
      "pc": 7203,
      "آند": 7204,
      "آمی": 7205,
      "فرک": 7206,
      "وج": 7207,
      "یکشنبه": 7208,
      "##گرایی": 7209,
      "##یتان": 7210,
      "زیان": 7211,
      "مطاب": 7212,
      "به‌د": 7213,
      "ویران": 7214,
      "##ــــ": 7215,
      "ms": 7216,
      "جون": 7217,
      "زانو": 7218,
      "په": 7219,
      "##نون": 7220,
      "##‌م": 7221,
      "##یری": 7222,
      "##یرت": 7223,
      "##گرفت": 7224,
      "راهبرد": 7225,
      "فعالان": 7226,
      "نمی‌توانیم": 7227,
      "روشنایی": 7228,
      "بخواهیم": 7229,
      "توافقنامه": 7230,
      "لزوما": 7231,
      "مطابقت": 7232,
      "39": 7233,
      "cd": 7234,
      "نازی": 7235,
      "یقین": 7236,
      "##ئون": 7237,
      "درصدی": 7238,
      "کنسول": 7239,
      "##الیستی": 7240,
      "تعویض": 7241,
      "##ory": 7242,
      "اشتیا": 7243,
      "ستم": 7244,
      "نمودند": 7245,
      "##‌آموز": 7246,
      "مقاوم": 7247,
      "اظهارات": 7248,
      "بستر": 7249,
      "المپیک": 7250,
      "اشیاء": 7251,
      "صلاحیت": 7252,
      "ge": 7253,
      "بوس": 7254,
      "حسی": 7255,
      "برش": 7256,
      "کارگردانی": 7257,
      "ایی": 7258,
      "گرایش": 7259,
      "تحسین": 7260,
      "##اطیسی": 7261,
      "##الیست": 7262,
      "...»": 7263,
      "غیرنظامی": 7264,
      "منتقد": 7265,
      "تصمیم‌گیری": 7266,
      "میزبانی": 7267,
      "تاثیرات": 7268,
      "سریع‌تر": 7269,
      "متعادل": 7270,
      "سردرد": 7271,
      "آفریقایی": 7272,
      "پلاستیک": 7273,
      "##سکوپ": 7274,
      "بکنید": 7275,
      "اتهام": 7276,
      "سخنگوی": 7277,
      "کنجکا": 7278,
      "ib": 7279,
      "ببند": 7280,
      "مظ": 7281,
      "##لانی": 7282,
      "##ضان": 7283,
      "##ماً": 7284,
      "داشتید": 7285,
      "هیپ": 7286,
      "##باشند": 7287,
      "مدیریتی": 7288,
      "##‌انداز": 7289,
      "۲۰۱۰": 7290,
      "کالاهای": 7291,
      "عاشقانه": 7292,
      "پلاستیکی": 7293,
      "ویلیام": 7294,
      "red": 7295,
      "ئی": 7296,
      "تیمی": 7297,
      "فورد": 7298,
      "قار": 7299,
      "قوا": 7300,
      "لرز": 7301,
      "##له‌ای": 7302,
      "##pa": 7303,
      "درگذشت": 7304,
      "داروی": 7305,
      "##میلی": 7306,
      "امواج": 7307,
      "اموال": 7308,
      "مدی": 7309,
      "اجزای": 7310,
      "روشنی": 7311,
      "شوخی": 7312,
      "بخواهند": 7313,
      "قلعه": 7314,
      "رادیویی": 7315,
      "درخشان": 7316,
      "ev": 7317,
      "up": 7318,
      "آتی": 7319,
      "سح": 7320,
      "##اداران": 7321,
      "برتری": 7322,
      "بازتاب": 7323,
      "جهنم": 7324,
      "تعبیر": 7325,
      "قانع": 7326,
      "ایدئ": 7327,
      "تخفیف": 7328,
      "آگاهانه": 7329,
      "فارسی": 7330,
      "آن‌جا": 7331,
      "##‌ایم": 7332,
      "عهد": 7333,
      "دربارۀ": 7334,
      "سندرم": 7335,
      "استودیو": 7336,
      "آواز": 7337,
      "ماساژ": 7338,
      "ظریف": 7339,
      "ورد": 7340,
      "پت": 7341,
      "نیوز": 7342,
      "معای": 7343,
      "بینایی": 7344,
      "نمی‌دهد": 7345,
      "ایرلند": 7346,
      "##پیوند": 7347,
      "ابتکار": 7348,
      "صرفا": 7349,
      "اشتباهی": 7350,
      "مسیری": 7351,
      "هواپیمایی": 7352,
      "گردشگران": 7353,
      "جادویی": 7354,
      "متشکل": 7355,
      "بوش": 7356,
      "۲۷": 7357,
      "##نشین": 7358,
      "##ti": 7359,
      "##ینو": 7360,
      "برمی‌": 7361,
      "خودروی": 7362,
      "بیل": 7363,
      "ایز": 7364,
      "متاب": 7365,
      "سرطانی": 7366,
      "کمکی": 7367,
      "چهل": 7368,
      "نوبت": 7369,
      "گفت‌و": 7370,
      "##باران": 7371,
      "تولیدی": 7372,
      "مریم": 7373,
      "مرزی": 7374,
      "##راتور": 7375,
      "##ath": 7376,
      "نسبتاً": 7377,
      "شکلات": 7378,
      "۲۰۱۲": 7379,
      "قسمتی": 7380,
      "بازدیدکنندگان": 7381,
      "comp": 7382,
      "پناهندگان": 7383,
      "حبس": 7384,
      "act": 7385,
      "جال": 7386,
      "جسم": 7387,
      "هیت": 7388,
      "کپ": 7389,
      "##ري": 7390,
      "##اا": 7391,
      "##me": 7392,
      "##طو": 7393,
      "برانگیز": 7394,
      "انق": 7395,
      "هیچگاه": 7396,
      "فروشی": 7397,
      "نفره": 7398,
      "خوش‌": 7399,
      "نکردند": 7400,
      "متناسب": 7401,
      "روستا": 7402,
      "آموخته": 7403,
      "ملاحظه": 7404,
      "معجزه": 7405,
      "تسلیحات": 7406,
      "48": 7407,
      "can": 7408,
      "ra": 7409,
      "ادی": 7410,
      "هکر": 7411,
      "##مانده": 7412,
      "امارات": 7413,
      "نامح": 7414,
      "فقدان": 7415,
      "سواری": 7416,
      "ابدا": 7417,
      "پاسخگویی": 7418,
      "ایده‌های": 7419,
      "آزمایشات": 7420,
      "عضلانی": 7421,
      "مارکس": 7422,
      "##ool": 7423,
      "بریتانیایی": 7424,
      "همسرم": 7425,
      "خسارت": 7426,
      "تث": 7427,
      "شانه": 7428,
      "چه‌": 7429,
      "کجاست": 7430,
      "گن": 7431,
      "همراهی": 7432,
      "کارگری": 7433,
      "کم‌": 7434,
      "بازرسی": 7435,
      "قدیم": 7436,
      "هواداران": 7437,
      "عضویت": 7438,
      "همسای": 7439,
      "نباشند": 7440,
      "یخچال": 7441,
      "براي": 7442,
      "خبرنگاران": 7443,
      "جاسوسی": 7444,
      "پیامدهای": 7445,
      "نواحی": 7446,
      "bo": 7447,
      "بج": 7448,
      "جزایر": 7449,
      "خرده": 7450,
      "##دراسیون": 7451,
      "##ولان": 7452,
      "خوشم": 7453,
      "تربیت": 7454,
      "نامش": 7455,
      "منتظ": 7456,
      "ابد": 7457,
      "خوابیدن": 7458,
      "دنیایی": 7459,
      "خیال": 7460,
      "زیبای": 7461,
      "آفریده": 7462,
      "زخمی": 7463,
      "تحولات": 7464,
      "عظیمی": 7465,
      "کیسه": 7466,
      "per": 7467,
      "par": 7468,
      "wind": 7469,
      "بب": 7470,
      "تطبی": 7471,
      "سد": 7472,
      "یت": 7473,
      "##ax": 7474,
      "##ظم": 7475,
      "برون": 7476,
      "می‌باشند": 7477,
      "بیا": 7478,
      "گرگ": 7479,
      "دانش‌آموز": 7480,
      "مجمع": 7481,
      "اقلیت": 7482,
      "آن‌چه": 7483,
      "اختلافات": 7484,
      "عادات": 7485,
      "مراتب": 7486,
      "سواحل": 7487,
      "فرکانس": 7488,
      "وردپرس": 7489,
      "des": 7490,
      "قاتل": 7491,
      "##مونی": 7492,
      "انز": 7493,
      "موز": 7494,
      "گره": 7495,
      "تحرک": 7496,
      "دانشمند": 7497,
      "تصریح": 7498,
      "بازیابی": 7499,
      "ماهر": 7500,
      "ناو": 7501,
      "سناری": 7502,
      "قطب": 7503,
      "ریز": 7504,
      "ریش": 7505,
      "بتوانم": 7506,
      "معتق": 7507,
      "میتوانند": 7508,
      "مشاوران": 7509,
      "مهندس": 7510,
      "نشستن": 7511,
      "شفافیت": 7512,
      "کاندید": 7513,
      "ii": 7514,
      "med": 7515,
      "sch": 7516,
      "رب": 7517,
      "ناق": 7518,
      "بیایند": 7519,
      "الکت": 7520,
      "##واک": 7521,
      "جدیدترین": 7522,
      "##باع": 7523,
      "اعضا": 7524,
      "فروشندگان": 7525,
      "##‌آمیز": 7526,
      "مشکوک": 7527,
      "می‌نویس": 7528,
      "دبیرستان": 7529,
      "متأس": 7530,
      "اشتیاق": 7531,
      "95": 7532,
      "gr": 7533,
      "min": 7534,
      "اکر": 7535,
      "ششم": 7536,
      "هری": 7537,
      "##ug": 7538,
      "ترور": 7539,
      "نامن": 7540,
      "سوپ": 7541,
      "سپاه": 7542,
      "انسانها": 7543,
      "سنسور": 7544,
      "ارث": 7545,
      "طرفی": 7546,
      "نخواهیم": 7547,
      "امپری": 7548,
      "استانبول": 7549,
      "##iew": 7550,
      "مکرر": 7551,
      "dis": 7552,
      "gl": 7553,
      "mo": 7554,
      "رضا": 7555,
      "پاهای": 7556,
      "##مم": 7557,
      "##گام": 7558,
      "باق": 7559,
      "هرکسی": 7560,
      "معتر": 7561,
      "##فران": 7562,
      "خطای": 7563,
      "##ستیک": 7564,
      "خوشبختی": 7565,
      "##خواسته": 7566,
      "۲۰۱۷": 7567,
      "مخالفان": 7568,
      "پیچیدگی": 7569,
      "met": 7570,
      "فاک": 7571,
      "قوت": 7572,
      "نج": 7573,
      "همکار": 7574,
      "##میتی": 7575,
      "##ه‌تر": 7576,
      "انتخاباتی": 7577,
      "توصی": 7578,
      "بمباران": 7579,
      "کشاورزان": 7580,
      "وفاداری": 7581,
      "پیوستن": 7582,
      "محاسبات": 7583,
      "مستمر": 7584,
      "متأسفانه": 7585,
      "فاکتور": 7586,
      "خم": 7587,
      "دبی": 7588,
      "شوک": 7589,
      "لپ": 7590,
      "هیل": 7591,
      "##اع": 7592,
      "##انورد": 7593,
      "برابری": 7594,
      "##لیف": 7595,
      "بالینی": 7596,
      "##ics": 7597,
      "مبادله": 7598,
      "گلوله": 7599,
      "مجموعه‌ای": 7600,
      "مسیحیان": 7601,
      "متقاضیان": 7602,
      "ir": 7603,
      "پید": 7604,
      "پایی": 7605,
      "##ik": 7606,
      "##‌اش": 7607,
      "##كه": 7608,
      "می‌ماند": 7609,
      "##ه‌اش": 7610,
      "##نگاری": 7611,
      "اندوه": 7612,
      "رسند": 7613,
      "قبال": 7614,
      "##ank": 7615,
      "قیمتی": 7616,
      "دستگاه‌های": 7617,
      "نگرفته": 7618,
      "تایپ": 7619,
      "سرزنش": 7620,
      "محبوبیت": 7621,
      "پشتیبان": 7622,
      "دال": 7623,
      "قومی": 7624,
      "پات": 7625,
      "یابی": 7626,
      "##لزم": 7627,
      "برید": 7628,
      "تاج": 7629,
      "مردمان": 7630,
      "یادآور": 7631,
      "مستلزم": 7632,
      "مرتبه": 7633,
      "بسازد": 7634,
      "تسلط": 7635,
      "##وئید": 7636,
      "##رمانه": 7637,
      "صدمه": 7638,
      "اِ": 7639,
      "ذرات": 7640,
      "##‌س": 7641,
      "##انا": 7642,
      "می‌گرد": 7643,
      "##سیله": 7644,
      "نیا": 7645,
      "##خورده": 7646,
      "مقط": 7647,
      "مقصر": 7648,
      "احاط": 7649,
      "گذران": 7650,
      "وقایع": 7651,
      "سپرده": 7652,
      "##ick": 7653,
      "عبادت": 7654,
      "2003": 7655,
      "یهود": 7656,
      "نحوی": 7657,
      "بوسیله": 7658,
      "تونل": 7659,
      "ناتوانی": 7660,
      "می‌دادند": 7661,
      "دفعه": 7662,
      "منعکس": 7663,
      "هیتلر": 7664,
      "85": 7665,
      "ارب": 7666,
      "نگیر": 7667,
      "پند": 7668,
      "پرا": 7669,
      "چسب": 7670,
      "##دین": 7671,
      "##اي": 7672,
      "##ies": 7673,
      "##جمی": 7674,
      "بهانه": 7675,
      "##ه‌سازی": 7676,
      "امری": 7677,
      "فرشته": 7678,
      "گرای": 7679,
      "رویای": 7680,
      "کلین": 7681,
      "بنشین": 7682,
      "##ert": 7683,
      "نشوید": 7684,
      "هدر": 7685,
      "علیر": 7686,
      "۲۰۰۰": 7687,
      "پیری": 7688,
      "نگهبان": 7689,
      "2005": 7690,
      "تهدیدات": 7691,
      "راستا": 7692,
      "دروازه": 7693,
      "ریاضیات": 7694,
      "پروژه‌های": 7695,
      "معیارهای": 7696,
      "آفرینش": 7697,
      "url": 7698,
      "احاطه": 7699,
      "##هین": 7700,
      "##عامل": 7701,
      "برم": 7702,
      "برقی": 7703,
      "بیگانه": 7704,
      "امشب": 7705,
      "##خوش": 7706,
      "سازگاری": 7707,
      "##ans": 7708,
      "191": 7709,
      "##ence": 7710,
      "##اپذیر": 7711,
      "تلخ": 7712,
      "حیوانی": 7713,
      "تکراری": 7714,
      "1990": 7715,
      "فرمودند": 7716,
      "فورا": 7717,
      "الگوهای": 7718,
      "تهاجمی": 7719,
      "اکتشاف": 7720,
      "go": 7721,
      "son": 7722,
      "دفع": 7723,
      "مباح": 7724,
      "##کوس": 7725,
      "الح": 7726,
      "الماس": 7727,
      "پروف": 7728,
      "دلایلی": 7729,
      "##کردن": 7730,
      "اجتماع": 7731,
      "متنفر": 7732,
      "تایمز": 7733,
      "آدم‌ها": 7734,
      "تاکسی": 7735,
      "رسانه‌ها": 7736,
      "اکسید": 7737,
      "کامیون": 7738,
      "آرژانتین": 7739,
      "mba": 7740,
      "سوری": 7741,
      "نرو": 7742,
      "وصل": 7743,
      "##خر": 7744,
      "##جستان": 7745,
      "##ظی": 7746,
      "روحیه": 7747,
      "بیاند": 7748,
      "192": 7749,
      "مزر": 7750,
      "قطعنامه": 7751,
      "iso": 7752,
      "بورژ": 7753,
      "بازنشسته": 7754,
      "مولکول": 7755,
      "بفرست": 7756,
      "ایدئولوژی": 7757,
      "air": 7758,
      "et": 7759,
      "iv": 7760,
      "بقای": 7761,
      "دما": 7762,
      "غار": 7763,
      "كم": 7764,
      "وص": 7765,
      "##الح": 7766,
      "انب": 7767,
      "داشته‌اند": 7768,
      "بلژی": 7769,
      "جلوه": 7770,
      "تاریخچه": 7771,
      "جنسیتی": 7772,
      "شهروندی": 7773,
      "ation": 7774,
      "play": 7775,
      "اعطا": 7776,
      "38": 7777,
      "حش": 7778,
      "ذات": 7779,
      "صاف": 7780,
      "پستان": 7781,
      "۲۶": 7782,
      "##فاده": 7783,
      "همجنس": 7784,
      "##ویسم": 7785,
      "گفتیم": 7786,
      "روشهای": 7787,
      "۱۹۲": 7788,
      "آسیایی": 7789,
      "آمریکایی‌ها": 7790,
      "شورش": 7791,
      "استخر": 7792,
      "150": 7793,
      "ولایت": 7794,
      "ویدیویی": 7795,
      "post": 7796,
      "شباهت": 7797,
      "اچ": 7798,
      "یان": 7799,
      "##نال": 7800,
      "##طوب": 7801,
      "##ختری": 7802,
      "متری": 7803,
      "گرجستان": 7804,
      "##خصی": 7805,
      "نقط": 7806,
      "بنزین": 7807,
      "تعلیم": 7808,
      "ابری": 7809,
      "شمش": 7810,
      "شماری": 7811,
      "ریچ": 7812,
      "نکنیم": 7813,
      "نمی‌توانم": 7814,
      "شکستن": 7815,
      "ویژگی‌های": 7816,
      "کارفرمایان": 7817,
      "مجسمه": 7818,
      "بپیوند": 7819,
      "خز": 7820,
      "زاده": 7821,
      "پیم": 7822,
      "پکن": 7823,
      "کین": 7824,
      "کیه": 7825,
      "گش": 7826,
      "##ma": 7827,
      "##ment": 7828,
      "##خیم": 7829,
      "همد": 7830,
      "مدام": 7831,
      "هیچوقت": 7832,
      "نمی‌شوند": 7833,
      "سوزی": 7834,
      "اعصاب": 7835,
      "به‌خ": 7836,
      "مرطوب": 7837,
      "ساعته": 7838,
      "۱۹۱": 7839,
      "منظر": 7840,
      "هوشی": 7841,
      "##ree": 7842,
      "عراقی": 7843,
      "اندازه‌گیری": 7844,
      "ترکیبات": 7845,
      "یونانی": 7846,
      "بورس": 7847,
      "بالاتری": 7848,
      "وفادار": 7849,
      "معتقدم": 7850,
      "99": 7851,
      "رقیب": 7852,
      "سکه": 7853,
      "##نیم": 7854,
      "##طن": 7855,
      "##غیب": 7856,
      "هیات": 7857,
      "ساختاری": 7858,
      "آیین": 7859,
      "اهمیتی": 7860,
      "190": 7861,
      "چشمگیری": 7862,
      "تاثیری": 7863,
      "پرداخته": 7864,
      "پارچه": 7865,
      "موقعیتی": 7866,
      "نفری": 7867,
      "کلمبیا": 7868,
      "حواس": 7869,
      "زاویه": 7870,
      "window": 7871,
      "00": 7872,
      "bus": 7873,
      "dr": 7874,
      "##ایز": 7875,
      "می‌شویم": 7876,
      "پسند": 7877,
      "پروفس": 7878,
      "فیلمی": 7879,
      "نمایان": 7880,
      "خدماتی": 7881,
      "گزارشی": 7882,
      "مغن": 7883,
      "##انسون": 7884,
      "مستقیما": 7885,
      "متعال": 7886,
      "پردازد": 7887,
      "رسانده": 7888,
      "اعتراضات": 7889,
      "پروفسور": 7890,
      "gen": 7891,
      "لق": 7892,
      "پهن": 7893,
      "##سکی": 7894,
      "##کال": 7895,
      "##tp": 7896,
      "##كت": 7897,
      "##ha": 7898,
      "اینقدر": 7899,
      "##لیق": 7900,
      "تواف": 7901,
      "محوطه": 7902,
      "مشه": 7903,
      "ناخواسته": 7904,
      "دوستش": 7905,
      "علل": 7906,
      "پاسخی": 7907,
      "حدودی": 7908,
      "سفیر": 7909,
      "ste": 7910,
      "اقداماتی": 7911,
      "۲۰۰۹": 7912,
      "می‌زنند": 7913,
      "کاتولیک": 7914,
      "انداخته": 7915,
      "آشپزی": 7916,
      "##وگرافی": 7917,
      "لحظات": 7918,
      "سیاستمداران": 7919,
      "..": 7920,
      "aut": 7921,
      "صعود": 7922,
      "گان": 7923,
      "##زنی": 7924,
      "##گونی": 7925,
      "مید": 7926,
      "##الو": 7927,
      "##اتوری": 7928,
      "دوازده": 7929,
      "ترغیب": 7930,
      "نوآور": 7931,
      "اشعه": 7932,
      "##ach": 7933,
      "برسیم": 7934,
      "جعلی": 7935,
      "راهنما": 7936,
      "مارتین": 7937,
      "جالبی": 7938,
      "تطبیق": 7939,
      "((": 7940,
      "cap": 7941,
      "زه": 7942,
      "وحد": 7943,
      "پود": 7944,
      "پیت": 7945,
      "پوتین": 7946,
      "‌‌ها": 7947,
      "##شو": 7948,
      "##az": 7949,
      "##پاشی": 7950,
      "درج": 7951,
      "کارگاه": 7952,
      "محتر": 7953,
      "تمدید": 7954,
      "تعقیب": 7955,
      "بخشیدن": 7956,
      "شراب": 7957,
      "تفریح": 7958,
      "می‌رسید": 7959,
      "واحدهای": 7960,
      "اتوماتیک": 7961,
      "براى": 7962,
      "mark": 7963,
      "قیام": 7964,
      "کارآفرینی": 7965,
      "یوگا": 7966,
      "به‌خاطر": 7967,
      "--": 7968,
      "37": 7969,
      "home": 7970,
      "pe": 7971,
      "؟؟؟": 7972,
      "دانی": 7973,
      "موی": 7974,
      "یونی": 7975,
      "##ms": 7976,
      "درای": 7977,
      "ماژ": 7978,
      "فرشت": 7979,
      "جهش": 7980,
      "مدیره": 7981,
      "شخصیتی": 7982,
      "آسیب‌پذیر": 7983,
      "sec": 7984,
      "پوستی": 7985,
      "گرسنه": 7986,
      "قهرمانی": 7987,
      "زباله": 7988,
      "نامناسب": 7989,
      "64": 7990,
      "bit": 7991,
      "غالب": 7992,
      "هک": 7993,
      "پنت": 7994,
      "کوان": 7995,
      "##ادا": 7996,
      "##ورم": 7997,
      "خودی": 7998,
      "کارشان": 7999,
      "##یاط": 8000,
      "معکوس": 8001,
      "بدل": 8002,
      "پسرش": 8003,
      "نشانه‌های": 8004,
      "مرجع": 8005,
      "##ناکی": 8006,
      "تضاد": 8007,
      "ژنرال": 8008,
      "فرآیندهای": 8009,
      "عینک": 8010,
      "سانتی": 8011,
      "آرایش": 8012,
      "عزت": 8013,
      "مزرعه": 8014,
      "do": 8015,
      "sup": 8016,
      "فدراسیون": 8017,
      "۲۸": 8018,
      "##رفت": 8019,
      "بهم": 8020,
      "بیستم": 8021,
      "ایالتی": 8022,
      "پیتر": 8023,
      "بینش": 8024,
      "زیستی": 8025,
      "مهم‌تر": 8026,
      "##ork": 8027,
      "##ائو": 8028,
      "inst": 8029,
      "مستقیماً": 8030,
      "ورزشکاران": 8031,
      "usb": 8032,
      "بپردازید": 8033,
      "cont": 8034,
      "مریخ": 8035,
      "gro": 8036,
      "ly": 8037,
      "خرس": 8038,
      "##وستان": 8039,
      "##per": 8040,
      "##ـه": 8041,
      "##اهدی": 8042,
      "##وانه": 8043,
      "سرش": 8044,
      "دانستم": 8045,
      "مسائ": 8046,
      "##امیه": 8047,
      "زیرز": 8048,
      "کوک": 8049,
      "بخشید": 8050,
      "چهارمین": 8051,
      "میلیون‌ها": 8052,
      "مذکور": 8053,
      "شواهدی": 8054,
      "پیشنهادات": 8055,
      "سودمند": 8056,
      "لوکس": 8057,
      "ذخایر": 8058,
      "##ign": 8059,
      "سلاح‌های": 8060,
      "بعداً": 8061,
      "همه‌چیز": 8062,
      "غالباً": 8063,
      "نامحدود": 8064,
      "مسائلی": 8065,
      "ثان": 8066,
      "##وظ": 8067,
      "##کلی": 8068,
      "##یما": 8069,
      "آماری": 8070,
      "قرون": 8071,
      "داده‌": 8072,
      "نشریه": 8073,
      "واگذار": 8074,
      "حرفی": 8075,
      "باورند": 8076,
      "اخیراً": 8077,
      "فرماید": 8078,
      "شاگردان": 8079,
      "سرمایه‌داری": 8080,
      "ناخود": 8081,
      "منصفانه": 8082,
      "شهرداری": 8083,
      "تجارب": 8084,
      "ag": 8085,
      "ll": 8086,
      "os": 8087,
      "pa": 8088,
      "رخت": 8089,
      "شکی": 8090,
      "غزه": 8091,
      "##نهایت": 8092,
      "##ُر": 8093,
      "باطل": 8094,
      "می‌اند": 8095,
      "دستگیری": 8096,
      "اندی": 8097,
      "یادم": 8098,
      "##int": 8099,
      "قابل‌": 8100,
      "خریدار": 8101,
      "فلزی": 8102,
      "هنرهای": 8103,
      "پوشیده": 8104,
      "خوشحالم": 8105,
      "خدایان": 8106,
      "art": 8107,
      "قاعده": 8108,
      "برداشتن": 8109,
      "دفن": 8110,
      "درحالی‌که": 8111,
      "عجله": 8112,
      "عاقل": 8113,
      "شاعر": 8114,
      "وحدت": 8115,
      "ارایه": 8116,
      "فاز": 8117,
      "##سو": 8118,
      "##فای": 8119,
      "##طئه": 8120,
      "##ذیب": 8121,
      "##ندم": 8122,
      "استوار": 8123,
      "تاپ": 8124,
      "توطئه": 8125,
      "فرقی": 8126,
      "##اصد": 8127,
      "سوالی": 8128,
      "گرفتیم": 8129,
      "آباد": 8130,
      "آغوش": 8131,
      "آسیای": 8132,
      "خوشحالی": 8133,
      "پیروان": 8134,
      "کودکانی": 8135,
      "تلسکوپ": 8136,
      "مفصل": 8137,
      "هوشمندانه": 8138,
      "بایگانی": 8139,
      "بیاورند": 8140,
      "بپردازد": 8141,
      "مغناطیسی": 8142,
      "ناخودآگاه": 8143,
      "44": 8144,
      "ارگانی": 8145,
      "بطری": 8146,
      "ه‌ای": 8147,
      "”،": 8148,
      "بادی": 8149,
      "اینچ": 8150,
      "می‌گرفت": 8151,
      "##ماع": 8152,
      "##لیون": 8153,
      "##ه‌رو": 8154,
      "##ه‌است": 8155,
      "فرش": 8156,
      "##امیک": 8157,
      "شرکتهای": 8158,
      "گیج": 8159,
      "پردازنده": 8160,
      "تحریم‌های": 8161,
      "گناهان": 8162,
      "جسد": 8163,
      "تدریج": 8164,
      "خاطره": 8165,
      "خبرنگار": 8166,
      "##بایست": 8167,
      "ec": 8168,
      "رگ": 8169,
      "هرد": 8170,
      "گارد": 8171,
      "یوسف": 8172,
      "##لاوه": 8173,
      "بیه": 8174,
      "ایکس": 8175,
      "اندرو": 8176,
      "##شدت": 8177,
      "##استفاده": 8178,
      "اعزام": 8179,
      "##ong": 8180,
      "ستایش": 8181,
      "سلولی": 8182,
      "انتقام": 8183,
      "انتقادی": 8184,
      "مبارزات": 8185,
      "##ood": 8186,
      "برجام": 8187,
      "##‌آور": 8188,
      "بپردازند": 8189,
      "انگشتان": 8190,
      "gu": 8191,
      "حیرت": 8192,
      "##عل": 8193,
      "##ثری": 8194,
      "انص": 8195,
      "شدیدی": 8196,
      "محرمانه": 8197,
      "فراز": 8198,
      "مدال": 8199,
      "موردی": 8200,
      "##عهده": 8201,
      "سازندگان": 8202,
      "سوئی": 8203,
      "سوپر": 8204,
      "دلخواه": 8205,
      "پرسیده": 8206,
      "2004": 8207,
      "ببریم": 8208,
      "روستای": 8209,
      "1980": 8210,
      "اوراق": 8211,
      "حامیان": 8212,
      "می‌گذارند": 8213,
      "کلینتون": 8214,
      "پروفایل": 8215,
      "out": 8216,
      "شری": 8217,
      "صریح": 8218,
      "فاش": 8219,
      "کروم": 8220,
      "نوین": 8221,
      "سیار": 8222,
      "شنوند": 8223,
      "##ata": 8224,
      "##ناع": 8225,
      "محدودی": 8226,
      "می‌دانست": 8227,
      "##ower": 8228,
      "صداقت": 8229,
      "##راجویی": 8230,
      "##‌بوک": 8231,
      "سکونت": 8232,
      "ماجراجویی": 8233,
      "مقطع": 8234,
      "windows": 8235,
      "av": 8236,
      "ber": 8237,
      "جیب": 8238,
      "شوی": 8239,
      "نابر": 8240,
      "##موزی": 8241,
      "##خل": 8242,
      "##‌نامه": 8243,
      "##آمیز": 8244,
      "معقول": 8245,
      "بخار": 8246,
      "##سانس": 8247,
      "قدری": 8248,
      "##فیق": 8249,
      "هدفی": 8250,
      "مختص": 8251,
      "فلز": 8252,
      "آزادانه": 8253,
      "فرانک": 8254,
      "ترسیم": 8255,
      "پوشیدن": 8256,
      "رانندگان": 8257,
      "هواپیماهای": 8258,
      "تدوین": 8259,
      "گونگ": 8260,
      "پوشان": 8261,
      "می‌بینیم": 8262,
      "حرکتی": 8263,
      "acc": 8264,
      "حاملگی": 8265,
      "خجالت": 8266,
      "back": 8267,
      "رول": 8268,
      "غبار": 8269,
      "قم": 8270,
      "مادی": 8271,
      "پخت": 8272,
      "چرب": 8273,
      "کیت": 8274,
      "‌ست": 8275,
      "‌کردن": 8276,
      "##ضل": 8277,
      "##ضع": 8278,
      "راه‌های": 8279,
      "برانگی": 8280,
      "##ویژه": 8281,
      "ترم": 8282,
      "کمر": 8283,
      "##گیرانه": 8284,
      "شنوایی": 8285,
      "به‌ویژه": 8286,
      "##اپور": 8287,
      "آرشی": 8288,
      "خورند": 8289,
      "str": 8290,
      "وسوس": 8291,
      "این‌گونه": 8292,
      "پنیر": 8293,
      "خشمگین": 8294,
      "پرستار": 8295,
      "مقدمه": 8296,
      "بازگرداندن": 8297,
      "شجاعت": 8298,
      "فیلیپین": 8299,
      "آستانه": 8300,
      "مباحث": 8301,
      "شمشیر": 8302,
      "رج": 8303,
      "صهی": 8304,
      "چت": 8305,
      "##قیم": 8306,
      "##30": 8307,
      "##أت": 8308,
      "##حاف": 8309,
      "##امتر": 8310,
      "موزیک": 8311,
      "توهین": 8312,
      "##اقض": 8313,
      "قرض": 8314,
      "بخرید": 8315,
      "##رایم": 8316,
      "نقره": 8317,
      "گیریم": 8318,
      "شیعه": 8319,
      "شیوع": 8320,
      "آخرت": 8321,
      "اقدامی": 8322,
      "جاود": 8323,
      "محتوی": 8324,
      "اثرب": 8325,
      "##جانبه": 8326,
      "قراردادهای": 8327,
      "مى‌": 8328,
      "آزمایشگاهی": 8329,
      "علاقه‌": 8330,
      "احمقانه": 8331,
      "##ount": 8332,
      "کنسرت": 8333,
      "لیبرال": 8334,
      "عذرخواهی": 8335,
      "خاتمه": 8336,
      "ماژول": 8337,
      "bu": 8338,
      "mi": 8339,
      "تال": 8340,
      "قاطع": 8341,
      "نگفت": 8342,
      "پائ": 8343,
      "۳۰۰": 8344,
      "##نویس": 8345,
      "##تونی": 8346,
      "استعم": 8347,
      "##ردی": 8348,
      "همیش": 8349,
      "##ویچ": 8350,
      "دارا": 8351,
      "متدا": 8352,
      "سرنگ": 8353,
      "صدر": 8354,
      "شیعی": 8355,
      "پارامتر": 8356,
      "مسیرهای": 8357,
      "آسانسور": 8358,
      "ساختمانی": 8359,
      "متخصصین": 8360,
      "تابستانی": 8361,
      "دستیار": 8362,
      "مهندسان": 8363,
      "گونه‌ای": 8364,
      "کیلومتری": 8365,
      "استثنایی": 8366,
      "هم‌چنین": 8367,
      "روزنامه‌": 8368,
      "زحمت": 8369,
      "کوانت": 8370,
      "بخواب": 8371,
      "جریم": 8372,
      "عطر": 8373,
      "هلی": 8374,
      "گرافی": 8375,
      "##نل": 8376,
      "##vel": 8377,
      "##ورا": 8378,
      "همت": 8379,
      "کارشناس": 8380,
      "هرکدام": 8381,
      "محو": 8382,
      "معین": 8383,
      "معاهده": 8384,
      "مقاصد": 8385,
      "##الیز": 8386,
      "گفته‌اند": 8387,
      "بنظر": 8388,
      "خطی": 8389,
      "فروپاشی": 8390,
      "تلاشی": 8391,
      "سلطه": 8392,
      "بیانگر": 8393,
      "##ase": 8394,
      "افزونه": 8395,
      "دانستند": 8396,
      "انداختن": 8397,
      "افراطی": 8398,
      "پویا": 8399,
      "بردارید": 8400,
      "600": 8401,
      "]]": 8402,
      "by": 8403,
      "bar": 8404,
      "طر": 8405,
      "عید": 8406,
      "قصه": 8407,
      "يك": 8408,
      "##چین": 8409,
      "##پولی": 8410,
      "بودی": 8411,
      "هرکس": 8412,
      "بدیه": 8413,
      "تحق": 8414,
      "##ربایج": 8415,
      "نقشی": 8416,
      "خداحاف": 8417,
      "‌هاي": 8418,
      "دیدند": 8419,
      "پنجشنبه": 8420,
      "چشمگیر": 8421,
      "مدل‌های": 8422,
      "مبارز": 8423,
      "کیک": 8424,
      "گویا": 8425,
      "ظاهری": 8426,
      "تهدیدی": 8427,
      "عقاید": 8428,
      "کاشت": 8429,
      "۲۰۰۸": 8430,
      "ساختارهای": 8431,
      "php": 8432,
      "دفاتر": 8433,
      "بشناسید": 8434,
      "گالری": 8435,
      "آذربایج": 8436,
      "فراخوان": 8437,
      "micros": 8438,
      "تقلید": 8439,
      "بلژیک": 8440,
      "بدیهی": 8441,
      "اَ": 8442,
      "رصد": 8443,
      "گیم": 8444,
      "##نویسی": 8445,
      "##aw": 8446,
      "##gr": 8447,
      "##fl": 8448,
      "می‌آمد": 8449,
      "##دهندگان": 8450,
      "کاراک": 8451,
      "فرمای": 8452,
      "بارسل": 8453,
      "پروست": 8454,
      "تعلیق": 8455,
      "ریخته": 8456,
      "مارکسی": 8457,
      "آشام": 8458,
      "اقتصاددان": 8459,
      "نویسد": 8460,
      "نویسند": 8461,
      "بلندمدت": 8462,
      "بگذاریم": 8463,
      "تاکتیک": 8464,
      "##‌وقت": 8465,
      "##‌بندی": 8466,
      "جذابیت": 8467,
      "مادربزرگ": 8468,
      "مسیحیت": 8469,
      "ببخشید": 8470,
      "تثبیت": 8471,
      "فرشتگان": 8472,
      "وسوسه": 8473,
      "43": 8474,
      "بجای": 8475,
      "تگ": 8476,
      "تشن": 8477,
      "خیره": 8478,
      "دختری": 8479,
      "فاط": 8480,
      "كرده": 8481,
      "لع": 8482,
      "نشن": 8483,
      "##سری": 8484,
      "##ost": 8485,
      "##يس": 8486,
      "انسول": 8487,
      "منش": 8488,
      "امضای": 8489,
      "‌هایشان": 8490,
      "مدیرعامل": 8491,
      "متحرک": 8492,
      "تکذیب": 8493,
      "می‌کردیم": 8494,
      "##ild": 8495,
      "مناطقی": 8496,
      "بکشند": 8497,
      "مقرون": 8498,
      "حرام": 8499,
      "نانو": 8500,
      "نرمال": 8501,
      "برسانند": 8502,
      "برسانید": 8503,
      "قواعد": 8504,
      "انسولین": 8505,
      "سانت": 8506,
      "مُ": 8507,
      "گرافیک": 8508,
      "##سله": 8509,
      "##ile": 8510,
      "همگان": 8511,
      "مناق": 8512,
      "##نگری": 8513,
      "نوبل": 8514,
      "تناسب": 8515,
      "تصمیمی": 8516,
      "آلات": 8517,
      "گردیده": 8518,
      "تأخیر": 8519,
      "سلسله": 8520,
      "جاوا": 8521,
      "می‌آورند": 8522,
      "120": 8523,
      "گازهای": 8524,
      "اردن": 8525,
      "رمزگذاری": 8526,
      "آنجلس": 8527,
      "احتیاط": 8528,
      "صلیب": 8529,
      "همیشگی": 8530,
      "ct": 8531,
      "آرا": 8532,
      "بکنند": 8533,
      "تفاوتی": 8534,
      "جاه": 8535,
      "گا": 8536,
      "##شایی": 8537,
      "##فورد": 8538,
      "کنگ": 8539,
      "انها": 8540,
      "هاى": 8541,
      "پیغام": 8542,
      "پیشتر": 8543,
      "##اندان": 8544,
      "رویاهای": 8545,
      "نشانگر": 8546,
      "بلد": 8547,
      "خانه‌های": 8548,
      "##ary": 8549,
      "بنابر": 8550,
      "##خوردگی": 8551,
      "خبرگزاری": 8552,
      "اسپرم": 8553,
      "این‌جا": 8554,
      "فیس‌بوک": 8555,
      "بچه‌های": 8556,
      "دانمارک": 8557,
      "كنید": 8558,
      "black": 8559,
      "org": 8560,
      "همکارانش": 8561,
      "نازل": 8562,
      "انبوه": 8563,
      "نوآورانه": 8564,
      "صهیونی": 8565,
      "rob": 8566,
      "دغ": 8567,
      "صمیم": 8568,
      "مبه": 8569,
      "کیم": 8570,
      "۲۹": 8571,
      "۶۵": 8572,
      "##mi": 8573,
      "##ایتی": 8574,
      "می‌ترس": 8575,
      "انبار": 8576,
      "بیانی": 8577,
      "##فره": 8578,
      "القا": 8579,
      "گروگان": 8580,
      "کاملی": 8581,
      "سفرهای": 8582,
      "ind": 8583,
      "‌ایم": 8584,
      "مایه": 8585,
      "هشتم": 8586,
      "عجیبی": 8587,
      "رمزنگاری": 8588,
      "استثنا": 8589,
      "داوطلبانه": 8590,
      "نرسیده": 8591,
      "مدافع": 8592,
      "ter": 8593,
      "بذ": 8594,
      "زشت": 8595,
      "ساکت": 8596,
      "عی": 8597,
      "مکت": 8598,
      "چاقی": 8599,
      "کرو": 8600,
      "اینک": 8601,
      "کنوان": 8602,
      "##انیاهو": 8603,
      "ایس": 8604,
      "گرین": 8605,
      "دادستان": 8606,
      "کلان": 8607,
      "202": 8608,
      "نمی‌آ": 8609,
      "چندانی": 8610,
      "شیکا": 8611,
      "وضعیتی": 8612,
      "یافتند": 8613,
      "جواه": 8614,
      "نتانیاهو": 8615,
      "محتوایی": 8616,
      "۲۰۱۹": 8617,
      "نکردم": 8618,
      "بسپار": 8619,
      "خیاب": 8620,
      "دستورات": 8621,
      "فضانورد": 8622,
      "خالق": 8623,
      "word": 8624,
      "رونمایی": 8625,
      "خنثی": 8626,
      "دستاوردهای": 8627,
      "انحصاری": 8628,
      "پاییز": 8629,
      "کنوانسیون": 8630,
      "شیکاگو": 8631,
      "her": 8632,
      "ion": 8633,
      "sw": 8634,
      "vis": 8635,
      "خاندان": 8636,
      "١٩": 8637,
      "کافه": 8638,
      "##منین": 8639,
      "##صلی": 8640,
      "##كن": 8641,
      "##ِی": 8642,
      "برگردان": 8643,
      "می‌فه": 8644,
      "##گرفته": 8645,
      "کارل": 8646,
      "آمدید": 8647,
      "می‌کنی": 8648,
      "زنبور": 8649,
      "نسبی": 8650,
      "نشوند": 8651,
      "##وستون": 8652,
      "فرصت‌های": 8653,
      "سنگاپور": 8654,
      "کاوش": 8655,
      "نوزدهم": 8656,
      "کیلوگر": 8657,
      "##اهدات": 8658,
      "مفهومی": 8659,
      "ناخن": 8660,
      "اردوغان": 8661,
      "ظاهراً": 8662,
      "توسعه‌": 8663,
      "سحر": 8664,
      "47": 8665,
      "51": 8666,
      "hp": 8667,
      "لاک": 8668,
      "پله": 8669,
      "پراک": 8670,
      "پلاگ": 8671,
      "چوبی": 8672,
      "##تاً": 8673,
      "##کون": 8674,
      "##پک": 8675,
      "##پورت": 8676,
      "##گراف": 8677,
      "اسکی": 8678,
      "اسرایی": 8679,
      "افشا": 8680,
      "##شنامه": 8681,
      "بلغ": 8682,
      "جانبه": 8683,
      "مرگبار": 8684,
      "##oud": 8685,
      "نداشتیم": 8686,
      "دوستانم": 8687,
      "فضاهای": 8688,
      "فرضیه": 8689,
      "مقرر": 8690,
      "می‌خواستم": 8691,
      "سارا": 8692,
      "شجاع": 8693,
      "میخواهید": 8694,
      "متداول": 8695,
      "دغد": 8696,
      "not": 8697,
      "بقا": 8698,
      "تگز": 8699,
      "جرایم": 8700,
      "شفا": 8701,
      "پش": 8702,
      "‌اید": 8703,
      "##ly": 8704,
      "##ee": 8705,
      "##hn": 8706,
      "برعهده": 8707,
      "##الص": 8708,
      "همب": 8709,
      "سالگرد": 8710,
      "پیامی": 8711,
      "بازگردان": 8712,
      "فیلس": 8713,
      "دردسر": 8714,
      "##ous": 8715,
      "##راکم": 8716,
      "وحش": 8717,
      "comm": 8718,
      "می‌دارد": 8719,
      "##پرستی": 8720,
      "ضربان": 8721,
      "دگرگون": 8722,
      "اقلیمی": 8723,
      "بغداد": 8724,
      "university": 8725,
      "علیرغم": 8726,
      "پراکنده": 8727,
      "bro": 8728,
      "جانسون": 8729,
      "حص": 8730,
      "مود": 8731,
      "هراس": 8732,
      "کُ": 8733,
      "کث": 8734,
      "##زون": 8735,
      "##man": 8736,
      "##طب": 8737,
      "براد": 8738,
      "روبات": 8739,
      "توازن": 8740,
      "خواهش": 8741,
      "ترمیم": 8742,
      "الملل": 8743,
      "کشورش": 8744,
      "مجاهد": 8745,
      "بازیافت": 8746,
      "##اصره": 8747,
      "نامید": 8748,
      "ناخوش": 8749,
      "نشینی": 8750,
      "تانک": 8751,
      "بعید": 8752,
      "نبودم": 8753,
      "نکردن": 8754,
      "پرسیدم": 8755,
      "مبارک": 8756,
      "ارزهای": 8757,
      "۲۰۰۵": 8758,
      "سامان": 8759,
      "جسمانی": 8760,
      "لطفاً": 8761,
      "ناخالص": 8762,
      "اعلامیه": 8763,
      "##press": 8764,
      "برگزیده": 8765,
      "ریچارد": 8766,
      "محترم": 8767,
      "microsoft": 8768,
      "cent": 8769,
      "eb": 8770,
      "ul": 8771,
      "wat": 8772,
      "آوی": 8773,
      "ربود": 8774,
      "فین": 8775,
      "لوک": 8776,
      "مگ": 8777,
      "هالی": 8778,
      "وات": 8779,
      "##اکنون": 8780,
      "##يا": 8781,
      "می‌بایست": 8782,
      "##ریحی": 8783,
      "##راق": 8784,
      "##ه‌دار": 8785,
      "دهه‌ی": 8786,
      "متو": 8787,
      "گرامی": 8788,
      "مسم": 8789,
      "بینم": 8790,
      "زیبات": 8791,
      "تبریک": 8792,
      "واژن": 8793,
      "مرج": 8794,
      "سنگی": 8795,
      "ملحق": 8796,
      "یابید": 8797,
      "فراگیر": 8798,
      "دمکر": 8799,
      "افزاری": 8800,
      "سرمایه‌گذاران": 8801,
      "افتادن": 8802,
      "بستن": 8803,
      "پدربزرگ": 8804,
      "گمراه": 8805,
      "پنل": 8806,
      "بخورند": 8807,
      "زنجیر": 8808,
      "اذعان": 8809,
      "تداوم": 8810,
      "کارآفرینان": 8811,
      "بگذران": 8812,
      "همسایگان": 8813,
      "بارسلونا": 8814,
      "پروستات": 8815,
      "پلاگین": 8816,
      "تگزاس": 8817,
      "همبستگی": 8818,
      "زیباترین": 8819,
      "بکنم": 8820,
      "دکت": 8821,
      "زغال": 8822,
      "فاس": 8823,
      "نه‌": 8824,
      "کاس": 8825,
      "##عب": 8826,
      "داوود": 8827,
      "اسمیت": 8828,
      "مقال": 8829,
      "تصدی": 8830,
      "نهفته": 8831,
      "##کسل": 8832,
      "تولیدکنندگان": 8833,
      "سازمان‌ها": 8834,
      "##arch": 8835,
      "دولت‌های": 8836,
      "خدمه": 8837,
      "چشم‌انداز": 8838,
      "موجودی": 8839,
      "تلفات": 8840,
      "1999": 8841,
      "پوسته": 8842,
      "آفرید": 8843,
      "سوراخ": 8844,
      "tech": 8845,
      "اتهامات": 8846,
      "غریبه": 8847,
      "متابولی": 8848,
      "گفت‌وگو": 8849,
      "دکترا": 8850,
      "49": 8851,
      "cre": 8852,
      "آلی": 8853,
      "آدام": 8854,
      "بندگان": 8855,
      "حرم": 8856,
      "صل": 8857,
      "غل": 8858,
      "ــ": 8859,
      "لار": 8860,
      "لامپ": 8861,
      "##َّ": 8862,
      "##خب": 8863,
      "##der": 8864,
      "##فسه": 8865,
      "##كر": 8866,
      "##ارض": 8867,
      "##تیو": 8868,
      "هائی": 8869,
      "دوگانه": 8870,
      "محاصره": 8871,
      "فرقه": 8872,
      "##کیو": 8873,
      "گذرد": 8874,
      "کلسیم": 8875,
      "زنانه": 8876,
      "##کتان": 8877,
      "فعالی": 8878,
      "نشر": 8879,
      "منتخب": 8880,
      "کوچکترین": 8881,
      "جامد": 8882,
      "تکمیلی": 8883,
      "حکمت": 8884,
      "تفنگ": 8885,
      "نظامیان": 8886,
      "نداشتن": 8887,
      "محافظه": 8888,
      "off": 8889,
      "ژنتیک": 8890,
      "تورنت": 8891,
      "سؤالات": 8892,
      "مجدداً": 8893,
      "عده‌ای": 8894,
      "open": 8895,
      "اتریش": 8896,
      "پنتاگون": 8897,
      "جریمه": 8898,
      "if": 8899,
      "tion": 8900,
      "اژ": 8901,
      "لن": 8902,
      "##لاند": 8903,
      "##فند": 8904,
      "##ِن": 8905,
      "##اهیر": 8906,
      "##ریز": 8907,
      "انس": 8908,
      "##روح": 8909,
      "سازه": 8910,
      "##شدن": 8911,
      "تقص": 8912,
      "دیدیم": 8913,
      "لیستی": 8914,
      "صدایی": 8915,
      "خواندم": 8916,
      "ایدز": 8917,
      "ارزشی": 8918,
      "پارکینگ": 8919,
      "سینمایی": 8920,
      "مکانیک": 8921,
      "هم‌اکنون": 8922,
      "امپرا": 8923,
      "دایره": 8924,
      "مؤسسه": 8925,
      "تپه": 8926,
      "به‌دست": 8927,
      "ثانویه": 8928,
      "na": 8929,
      "ترو": 8930,
      "ده‌ها": 8931,
      "سي": 8932,
      "سکته": 8933,
      "فتح": 8934,
      "گار": 8935,
      "##رند": 8936,
      "##فیه": 8937,
      "بام": 8938,
      "می‌خورد": 8939,
      "منز": 8940,
      "توانی": 8941,
      "معص": 8942,
      "ترانه": 8943,
      "کمدی": 8944,
      "احمد": 8945,
      "رویا": 8946,
      "تصفیه": 8947,
      "فروخت": 8948,
      "متحمل": 8949,
      "آوریم": 8950,
      "star": 8951,
      "خصوصیات": 8952,
      "مهاجم": 8953,
      "بشکه": 8954,
      "لینوکس": 8955,
      "##own": 8956,
      "مزایا": 8957,
      "قاعد": 8958,
      "چارلز": 8959,
      "پانزده": 8960,
      "سوزان": 8961,
      "آیت‌الله": 8962,
      "ass": 8963,
      "نمی‌خواهم": 8964,
      "ديگر": 8965,
      "عبارات": 8966,
      "توافقی": 8967,
      "خیابانی": 8968,
      "with": 8969,
      "تدار": 8970,
      "رئ": 8971,
      "رطو": 8972,
      "قبی": 8973,
      "كشور": 8974,
      "##شینی": 8975,
      "##ارید": 8976,
      "میاد": 8977,
      "##امد": 8978,
      "##یتون": 8979,
      "هرگاه": 8980,
      "دادید": 8981,
      "پسرم": 8982,
      "نشین": 8983,
      "پرخ": 8984,
      "مختل": 8985,
      "ارجا": 8986,
      "خصوصا": 8987,
      "بحرانی": 8988,
      "##کوین": 8989,
      "تفاهم": 8990,
      "محلول": 8991,
      "بانکداری": 8992,
      "برنامه‌ی": 8993,
      "عصب": 8994,
      "##ational": 8995,
      "تاسیسات": 8996,
      "امتداد": 8997,
      "شهردار": 8998,
      "time": 8999,
      "حشرات": 9000,
      "زیرزمینی": 9001,
      "کیلوگرم": 9002,
      "رطوبت": 9003,
      "46": 9004,
      "gra": 9005,
      "ختم": 9006,
      "رشت": 9007,
      "لبه": 9008,
      "چم": 9009,
      "گوسف": 9010,
      "بریز": 9011,
      "##ورید": 9012,
      "موف": 9013,
      "موها": 9014,
      "نیج": 9015,
      "تحلیلی": 9016,
      "مردانه": 9017,
      "نقدی": 9018,
      "شناور": 9019,
      "بحرین": 9020,
      "##کوپ": 9021,
      "2001": 9022,
      "تأثیرات": 9023,
      "پردازند": 9024,
      "تصاویری": 9025,
      "مکانیکی": 9026,
      "##ull": 9027,
      "پلاس": 9028,
      "می‌بینم": 9029,
      "1970": 9030,
      "قهرمانان": 9031,
      "رکود": 9032,
      "غرور": 9033,
      "کوشش": 9034,
      "ابداع": 9035,
      "ww": 9036,
      "تابل": 9037,
      "حروف": 9038,
      "##وام": 9039,
      "##مول": 9040,
      "##‌مدت": 9041,
      "دراز": 9042,
      "میت": 9043,
      "می‌بیند": 9044,
      "بزنم": 9045,
      "همانگونه": 9046,
      "##بانیت": 9047,
      "خارق": 9048,
      "شکوه": 9049,
      "طرفین": 9050,
      "رایان": 9051,
      "گویید": 9052,
      "هفتم": 9053,
      "هرچی": 9054,
      "۱۰۰۰": 9055,
      "نمی‌دانند": 9056,
      "مقدماتی": 9057,
      "نازک": 9058,
      "نکاتی": 9059,
      "نیامده": 9060,
      "800": 9061,
      "cam": 9062,
      "day": 9063,
      "sl": 9064,
      "نکت": 9065,
      "##نستان": 9066,
      "##جت": 9067,
      "##يز": 9068,
      "##bo": 9069,
      "##ذکر": 9070,
      "میخو": 9071,
      "##ترز": 9072,
      "توالت": 9073,
      "داشتنی": 9074,
      "سرچ": 9075,
      "الآن": 9076,
      "رسم": 9077,
      "سیست": 9078,
      "تجمع": 9079,
      "کمک‌های": 9080,
      "به‌نظر": 9081,
      "مصرفی": 9082,
      "فعالیتهای": 9083,
      "ارزش‌های": 9084,
      "شیخ": 9085,
      "حمایتی": 9086,
      "##ical": 9087,
      "عباس": 9088,
      "داستان‌های": 9089,
      "میلیاردها": 9090,
      "گذاشتند": 9091,
      "##تونم": 9092,
      "محدودیت‌های": 9093,
      "رادیکال": 9094,
      "قدرتی": 9095,
      "سامانه": 9096,
      "تخمک": 9097,
      "ارمنستان": 9098,
      "علاقمند": 9099,
      "دیپلمات": 9100,
      "نمی‌کنیم": 9101,
      "استعفا": 9102,
      "آذربایجان": 9103,
      "ناخوشایند": 9104,
      "نیجریه": 9105,
      "cor": 9106,
      "ds": 9107,
      "fe": 9108,
      "hy": 9109,
      "شبی": 9110,
      "مات": 9111,
      "##لۀ": 9112,
      "##خوانی": 9113,
      "می‌نام": 9114,
      "معدود": 9115,
      "##فرما": 9116,
      "##دیده": 9117,
      "پیشبرد": 9118,
      "تجسم": 9119,
      "هیچ‌وقت": 9120,
      "تبلت": 9121,
      "اطلاعی": 9122,
      "واجب": 9123,
      "درمانگر": 9124,
      "صحن": 9125,
      "تهی": 9126,
      "منظومه": 9127,
      "فلج": 9128,
      "inf": 9129,
      "پرسنل": 9130,
      "توانستیم": 9131,
      "اثری": 9132,
      "پرتغال": 9133,
      "شمارش": 9134,
      "کریس": 9135,
      "مترجم": 9136,
      "مکانیسم": 9137,
      "۱۹۷۰": 9138,
      "دیکتاتوری": 9139,
      "دانش‌آموزان": 9140,
      "3d": 9141,
      "ca": 9142,
      "cs": 9143,
      "fin": 9144,
      "pol": 9145,
      "سزا": 9146,
      "##زدهم": 9147,
      "##کونی": 9148,
      "##گم": 9149,
      "##حت": 9150,
      "درخش": 9151,
      "می‌فرم": 9152,
      "نیوزی": 9153,
      "شدگان": 9154,
      "دویدن": 9155,
      "دستکاری": 9156,
      "سرشار": 9157,
      "جهاد": 9158,
      "##وتن": 9159,
      "زیرد": 9160,
      "اطرافی": 9161,
      "##کسون": 9162,
      "نمایشی": 9163,
      "علایم": 9164,
      "۲۰۲": 9165,
      "دولت‌ها": 9166,
      "صحت": 9167,
      "فلزات": 9168,
      "خشکی": 9169,
      "تایوان": 9170,
      "آسان‌تر": 9171,
      "آسمانی": 9172,
      "اندازد": 9173,
      "فرماندهی": 9174,
      "شگفت‌انگیز": 9175,
      "جنبه‌های": 9176,
      "پدران": 9177,
      "نژادی": 9178,
      "متاسف": 9179,
      "استیو": 9180,
      "سپاسگزار": 9181,
      "شورشیان": 9182,
      "پودر": 9183,
      "کاراکتر": 9184,
      "نیوزیلند": 9185,
      "اطرافیان": 9186,
      "41": 9187,
      "رش": 9188,
      "فاشی": 9189,
      "پین": 9190,
      "۷۵": 9191,
      "##کلا": 9192,
      "##ual": 9193,
      "##ستون": 9194,
      "##یدنی": 9195,
      "##ولین": 9196,
      "منشا": 9197,
      "##ه‌شده": 9198,
      "بیوتیک": 9199,
      "اسکار": 9200,
      "##خوبی": 9201,
      "##وتو": 9202,
      "##وتا": 9203,
      "ساعتی": 9204,
      "تاثیرگذار": 9205,
      "2002": 9206,
      "نمی‌توانست": 9207,
      "هفتاد": 9208,
      "شیرینی": 9209,
      "کاربردهای": 9210,
      "موشکی": 9211,
      "نتواند": 9212,
      "مخصوصاً": 9213,
      "افزودن": 9214,
      "می‌بینند": 9215,
      "خلقت": 9216,
      "مهربانی": 9217,
      "شکارچی": 9218,
      "لایحه": 9219,
      "مطبوع": 9220,
      "استرالی": 9221,
      "سرپرست": 9222,
      "می‌نویسد": 9223,
      "پیدایش": 9224,
      "هردو": 9225,
      "شیعیان": 9226,
      "قبیله": 9227,
      "mc": 9228,
      "ng": 9229,
      "شرا": 9230,
      "لکه": 9231,
      "لنین": 9232,
      "مونت": 9233,
      "ه‌ی": 9234,
      "##ier": 9235,
      "کهن": 9236,
      "می‌نم": 9237,
      "##ونگ": 9238,
      "##روب": 9239,
      "بیولوژیکی": 9240,
      "##یتور": 9241,
      "مسال": 9242,
      "مسلم": 9243,
      "مجروح": 9244,
      "عملا": 9245,
      "سوابق": 9246,
      "زبان‌های": 9247,
      "خوراک": 9248,
      "بانک‌ها": 9249,
      "سوالاتی": 9250,
      "ریاض": 9251,
      "تمایز": 9252,
      "۱۵۰": 9253,
      "اعتقادات": 9254,
      "نتوانسته": 9255,
      "گمشده": 9256,
      "کارآموزی": 9257,
      "پایداری": 9258,
      "نوجوانی": 9259,
      "لاغ": 9260,
      "گذراندن": 9261,
      "امتیازات": 9262,
      "تظاهر": 9263,
      "انحراف": 9264,
      "مخلوق": 9265,
      "کاپیتان": 9266,
      "استارتاپ": 9267,
      "مظنون": 9268,
      "super": 9269,
      "il": 9270,
      "pd": 9271,
      "sn": 9272,
      "جاهای": 9273,
      "ظلم": 9274,
      "عث": 9275,
      "قفسه": 9276,
      "یاران": 9277,
      "##son": 9278,
      "##يان": 9279,
      "##ject": 9280,
      "##انید": 9281,
      "دره": 9282,
      "استال": 9283,
      "##فتگی": 9284,
      "توماس": 9285,
      "##ومتی": 9286,
      "##رسان": 9287,
      "ناشناس": 9288,
      "آلت": 9289,
      "هدفمند": 9290,
      "##ition": 9291,
      "انگیزی": 9292,
      "اپراتور": 9293,
      "سخنران": 9294,
      "۲۰۰۳": 9295,
      "افسرده": 9296,
      "سقط": 9297,
      "دامن": 9298,
      "##‌بخش": 9299,
      "رونق": 9300,
      "می‌گفتند": 9301,
      "هاروارد": 9302,
      "تقصیر": 9303,
      ")؛": 9304,
      "pp": 9305,
      "ta": 9306,
      "خرا": 9307,
      "سونی": 9308,
      "صمیمی": 9309,
      "قص": 9310,
      "لیم": 9311,
      "چنگ": 9312,
      "‌‌‌": 9313,
      "##شویی": 9314,
      "##ys": 9315,
      "##جین": 9316,
      "##فرد": 9317,
      "باخت": 9318,
      "بردم": 9319,
      "کارخان": 9320,
      "محف": 9321,
      "توانمند": 9322,
      "فریم": 9323,
      "معاف": 9324,
      "معادن": 9325,
      ".....": 9326,
      "##شناختی": 9327,
      "تصرف": 9328,
      "فعلا": 9329,
      "ارتقای": 9330,
      "مدت‌ها": 9331,
      "دریافتی": 9332,
      "بدانم": 9333,
      "نخواهم": 9334,
      "حکومتی": 9335,
      "نخست‌": 9336,
      "سلولهای": 9337,
      "آدم‌های": 9338,
      "اندازه‌ی": 9339,
      "عصبانیت": 9340,
      "زودرس": 9341,
      "دعوا": 9342,
      "طلای": 9343,
      "هورمونی": 9344,
      "ايران": 9345,
      "امتناع": 9346,
      "##فکران": 9347,
      "بیابید": 9348,
      "روزنامه‌نگ": 9349,
      "موفقی": 9350,
      "ba": 9351,
      "bat": 9352,
      "اورش": 9353,
      "تونی": 9354,
      "حما": 9355,
      "حتا": 9356,
      "زاد": 9357,
      "زائ": 9358,
      "نگاری": 9359,
      "##بانه": 9360,
      "##باتی": 9361,
      "##لَ": 9362,
      "##منان": 9363,
      "##قام": 9364,
      "##ّل": 9365,
      "##ازل": 9366,
      "الج": 9367,
      "احکام": 9368,
      "مجارستان": 9369,
      "جماهیر": 9370,
      "نمی‌دهند": 9371,
      "بلوغ": 9372,
      "دلش": 9373,
      "##قدس": 9374,
      "تقویم": 9375,
      "کتاب‌ها": 9376,
      "گرداند": 9377,
      "##ale": 9378,
      "##ich": 9379,
      "آرمان": 9380,
      "عکس‌های": 9381,
      "شناسان": 9382,
      "ابزارها": 9383,
      "تسکین": 9384,
      "ایرانیان": 9385,
      "بمیر": 9386,
      "می‌پرس": 9387,
      "عمدتاً": 9388,
      "جابجایی": 9389,
      "قارچ": 9390,
      "معاینه": 9391,
      "اورشلیم": 9392,
      "mat": 9393,
      "تیز": 9394,
      "خمینی": 9395,
      "قریب": 9396,
      "مزار": 9397,
      "۳۶": 9398,
      "۴۰۰": 9399,
      "##سام": 9400,
      "##خشی": 9401,
      "##ex": 9402,
      "##ردن": 9403,
      "##ازدهم": 9404,
      "##راضی": 9405,
      "آمدم": 9406,
      "کشند": 9407,
      "نظرتان": 9408,
      "روزگار": 9409,
      "شنیدم": 9410,
      "به‌جای": 9411,
      "لیوان": 9412,
      "لیتر": 9413,
      "خانواده‌های": 9414,
      "جانشین": 9415,
      "حسابرسی": 9416,
      "جلوتر": 9417,
      "عضله": 9418,
      "تفریحی": 9419,
      "نگرفت": 9420,
      "ویروسی": 9421,
      "سودان": 9422,
      "موسوم": 9423,
      "بخواند": 9424,
      "می‌گویید": 9425,
      "روبه‌رو": 9426,
      "فهمیدم": 9427,
      "##یمانده": 9428,
      "مؤسسات": 9429,
      "افسران": 9430,
      "intern": 9431,
      "فواید": 9432,
      "می‌گذرد": 9433,
      "باقیمانده": 9434,
      "علاقه‌مند": 9435,
      "تحقیر": 9436,
      "فاطمه": 9437,
      "می‌فرماید": 9438,
      "gre": 9439,
      "tra": 9440,
      "view": 9441,
      "اى": 9442,
      "ریت": 9443,
      "سفت": 9444,
      "فدا": 9445,
      "قله": 9446,
      "وَ": 9447,
      "پرف": 9448,
      "ژنو": 9449,
      "کما": 9450,
      "‌پذیر": 9451,
      "‌‌ی": 9452,
      "##‌دهنده": 9453,
      "می‌زد": 9454,
      "انطب": 9455,
      "توکیو": 9456,
      "فرس": 9457,
      "##وزیر": 9458,
      "بدنه": 9459,
      "بازه": 9460,
      "افق": 9461,
      "مهدی": 9462,
      "##کیک": 9463,
      "رویه": 9464,
      "##کلت": 9465,
      "هیچگونه": 9466,
      "نامگذاری": 9467,
      "سوژه": 9468,
      "##کارا": 9469,
      "وقفه": 9470,
      "دیدنی": 9471,
      "ابدی": 9472,
      "محصولاتی": 9473,
      "قطره": 9474,
      "##احت": 9475,
      "##stem": 9476,
      "int": 9477,
      "پایین‌تر": 9478,
      "معنایی": 9479,
      "تسری": 9480,
      "پاکسازی": 9481,
      "طبقاتی": 9482,
      "قدمت": 9483,
      "sem": 9484,
      "فنلاند": 9485,
      "پناهگاه": 9486,
      "نيز": 9487,
      "ناقص": 9488,
      "فاسد": 9489,
      "انطباق": 9490,
      "ai": 9491,
      "cp": 9492,
      "data": 9493,
      "حاد": 9494,
      "زیتون": 9495,
      "سانس": 9496,
      "شك": 9497,
      "قز": 9498,
      "##جانی": 9499,
      "##حده": 9500,
      "ازجم": 9501,
      "برگه": 9502,
      "تناس": 9503,
      "واقعه": 9504,
      "##وشند": 9505,
      "دوره‌های": 9506,
      "بنوشید": 9507,
      "بارش": 9508,
      "رفتیم": 9509,
      "##iness": 9510,
      "مختصر": 9511,
      "##ance": 9512,
      "لیسانس": 9513,
      "پاسخگو": 9514,
      "ملزم": 9515,
      "پیراه": 9516,
      "کالاها": 9517,
      "آن‌قدر": 9518,
      "شگفتی": 9519,
      "مصاحب": 9520,
      "گمرک": 9521,
      "پدیدار": 9522,
      "گذراند": 9523,
      "اصطلاحات": 9524,
      "بفهمید": 9525,
      "منفجر": 9526,
      "امیرالم": 9527,
      "system": 9528,
      "گرایانه": 9529,
      "اثربخشی": 9530,
      "تورنتو": 9531,
      "ازجمله": 9532,
      "42": 9533,
      "ol": 9534,
      "بخورد": 9535,
      "خفیف": 9536,
      "زدم": 9537,
      "نگوی": 9538,
      "وحی": 9539,
      "پرز": 9540,
      "گوار": 9541,
      "##ساب": 9542,
      "##مرد": 9543,
      "##پات": 9544,
      "##hd": 9545,
      "##ایا": 9546,
      "بايد": 9547,
      "یکم": 9548,
      "می‌مان": 9549,
      "تران": 9550,
      "چهر": 9551,
      "مسکونی": 9552,
      "نمی‌د": 9553,
      "بارگذاری": 9554,
      "دلس": 9555,
      "تقلب": 9556,
      "ارقام": 9557,
      "صداهای": 9558,
      "صفات": 9559,
      "گلوک": 9560,
      "فشارهای": 9561,
      "##تنها": 9562,
      "##ise": 9563,
      "منظورم": 9564,
      "دوستانش": 9565,
      "نهایتا": 9566,
      "آقایان": 9567,
      "منحص": 9568,
      "تونس": 9569,
      "عزیزان": 9570,
      "trans": 9571,
      "مهمانان": 9572,
      "##ound": 9573,
      "دزدی": 9574,
      "اسکاتلند": 9575,
      "نگیرید": 9576,
      "آرشیو": 9577,
      "سزاوار": 9578,
      "نخست‌وزیر": 9579,
      "king": 9580,
      "sd": 9581,
      "دزد": 9582,
      "ذاتی": 9583,
      "صبور": 9584,
      "غروب": 9585,
      "نگذار": 9586,
      "یز": 9587,
      "۳۲": 9588,
      "‌کنندگان": 9589,
      "##سالی": 9590,
      "##tle": 9591,
      "##‌مت": 9592,
      "میگیرد": 9593,
      "خوار": 9594,
      "اسیر": 9595,
      "ادراک": 9596,
      "تبع": 9597,
      "‌هاست": 9598,
      "به‌کار": 9599,
      "معمار": 9600,
      "دیدید": 9601,
      "حسادت": 9602,
      "پاسپورت": 9603,
      "سایز": 9604,
      "خانواده‌اش": 9605,
      "ایده‌": 9606,
      "##ster": 9607,
      "دخترش": 9608,
      "سنگینی": 9609,
      "گوییم": 9610,
      "۲۰۰۱": 9611,
      "مساوی": 9612,
      "عمیقی": 9613,
      "بخوانند": 9614,
      "عفو": 9615,
      "پناهندگی": 9616,
      "حدیث": 9617,
      "۱۹۸۰": 9618,
      "apple": 9619,
      "می‌خواند": 9620,
      "مولکولی": 9621,
      "عبدالله": 9622,
      "ناوگان": 9623,
      "نابرابری": 9624,
      "نه‌تنها": 9625,
      "تصدیق": 9626,
      "66": 9627,
      "96": 9628,
      "[[": 9629,
      "mus": 9630,
      "جوری": 9631,
      "ساند": 9632,
      "ممل": 9633,
      "نپ": 9634,
      "نامی": 9635,
      "##وها": 9636,
      "##وفر": 9637,
      "##vi": 9638,
      "اینان": 9639,
      "##ریایی": 9640,
      "##اریا": 9641,
      "نیفت": 9642,
      "روت": 9643,
      "متکی": 9644,
      "نوسان": 9645,
      "مردها": 9646,
      "شرکت‌کنندگان": 9647,
      "بلو": 9648,
      "بخشش": 9649,
      "اساساً": 9650,
      "شناختن": 9651,
      "جوایز": 9652,
      "بسازیم": 9653,
      "ماندند": 9654,
      "فلسفی": 9655,
      "تابعیت": 9656,
      "بزنیم": 9657,
      "استادان": 9658,
      "بیداری": 9659,
      "نیروها": 9660,
      "سوءاستفاده": 9661,
      "مناسبت": 9662,
      "بفهمیم": 9663,
      "سئوال": 9664,
      "گزینه‌های": 9665,
      "هیدروژن": 9666,
      "افراط": 9667,
      "دندانپزشک": 9668,
      "سنجش": 9669,
      "گسترده‌ای": 9670,
      "ربطی": 9671,
      "جملات": 9672,
      "link": 9673,
      "business": 9674,
      "درایو": 9675,
      "رختخواب": 9676,
      "خداحافظی": 9677,
      "مبهم": 9678,
      "مجاهدین": 9679,
      "قاعدگی": 9680,
      "زیردریایی": 9681,
      "aw": 9682,
      "af": 9683,
      "fa": 9684,
      "key": 9685,
      "تیل": 9686,
      "حرار": 9687,
      "دپ": 9688,
      "عیب": 9689,
      "قوه": 9690,
      "‌دار": 9691,
      "##work": 9692,
      "##ابند": 9693,
      "خوک": 9694,
      "هرج": 9695,
      "اسامی": 9696,
      "پیشگام": 9697,
      "مهلت": 9698,
      "بزودی": 9699,
      "ناظر": 9700,
      "محصولی": 9701,
      "پنجمین": 9702,
      "سفری": 9703,
      "##وسترون": 9704,
      "##roid": 9705,
      "حکایت": 9706,
      "نمودن": 9707,
      "هفتگی": 9708,
      "می‌رسند": 9709,
      "فارکس": 9710,
      "نارا": 9711,
      "آن‌که": 9712,
      "دعای": 9713,
      "برادرش": 9714,
      "تحریم‌ها": 9715,
      "کرده‌است": 9716,
      "سهامداران": 9717,
      "كردن": 9718,
      "کاغذی": 9719,
      "اعطای": 9720,
      "اسراییل": 9721,
      "هرچیزی": 9722,
      "land": 9723,
      "so": 9724,
      "sol": 9725,
      "آسم": 9726,
      "جزی": 9727,
      "عار": 9728,
      "مینی": 9729,
      "‌شدن": 9730,
      "##نشان": 9731,
      "##اشت": 9732,
      "##شوی": 9733,
      "##صیلی": 9734,
      "##ثال": 9735,
      "##ادش": 9736,
      "یکسانی": 9737,
      "منا": 9738,
      "کارگزار": 9739,
      "پیک": 9740,
      "اسکری": 9741,
      "مسلط": 9742,
      "##وهر": 9743,
      "بازی‌ها": 9744,
      "کوب": 9745,
      "پرین": 9746,
      "غذاهایی": 9747,
      "##anc": 9748,
      "حائ": 9749,
      "##اشق": 9750,
      "اتفاقاتی": 9751,
      "خاطرنشان": 9752,
      "پارا": 9753,
      "تفکیک": 9754,
      "بپو": 9755,
      "منحرف": 9756,
      "ماهیگیری": 9757,
      "خدایا": 9758,
      "می‌گیرید": 9759,
      "زمستانی": 9760,
      "ناامیدی": 9761,
      "شستن": 9762,
      "نروژ": 9763,
      "اژد": 9764,
      "جزیی": 9765,
      "57": 9766,
      "book": 9767,
      "بشم": 9768,
      "حلی": 9769,
      "شیلی": 9770,
      "پخته": 9771,
      "پاها": 9772,
      "چر": 9773,
      "##رع": 9774,
      "##cl": 9775,
      "##‌گر": 9776,
      "##‌زده": 9777,
      "##ارتی": 9778,
      "راک": 9779,
      "می‌دید": 9780,
      "همایش": 9781,
      "کارفرما": 9782,
      "متد": 9783,
      "ترش": 9784,
      "اسطور": 9785,
      "##عدی": 9786,
      "عناو": 9787,
      "کشورمان": 9788,
      "ویکتور": 9789,
      "مصمم": 9790,
      "به‌شدت": 9791,
      "دربارهٔ": 9792,
      "ایمپل": 9793,
      "سناتور": 9794,
      "رسیدیم": 9795,
      "فرموده": 9796,
      "تمرین‌کنندگان": 9797,
      "مطمئناً": 9798,
      "بانک‌های": 9799,
      "این‌طور": 9800,
      "داروهایی": 9801,
      "سردرگ": 9802,
      "تریلیون": 9803,
      "مامور": 9804,
      "eng": 9805,
      "بهشتی": 9806,
      "دکور": 9807,
      "رونالد": 9808,
      "منتقدان": 9809,
      "ببندید": 9810,
      "ارجاع": 9811,
      "پیراهن": 9812,
[...]
