[UNK]	0
[CLS]	1
[SEP]	2
[PAD]	3
[MASK]	4
!	5
"	6
#	7
$	8
%	9
&	10
'	11
(	12
)	13
*	14
+	15
,	16
-	17
.	18
/	19
0	20
1	21
2	22
3	23
4	24
5	25
6	26
7	27
8	28
9	29
:	30
;	31
<	32
=	33
>	34
?	35
@	36
[	37
\	38
]	39
^	40
_	41
`	42
a	43
b	44
c	45
d	46
e	47
f	48
g	49
h	50
i	51
j	52
k	53
l	54
m	55
n	56
o	57
p	58
q	59
r	60
s	61
t	62
u	63
v	64
w	65
x	66
y	67
z	68
{	69
|	70
}	71
~	72
	73
	74
	75
	76
	77
	78
	79
	80
	81
	82
	83
	84
	85
	86
	87
¡	88
¢	89
£	90
¤	91
¥	92
§	93
©	94
«	95
¬	96
­	97
®	98
°	99
±	100
·	101
»	102
×	103
ß	104
à	105
á	106
â	107
ã	108
ä	109
å	110
æ	111
ç	112
è	113
é	114
ê	115
ë	116
ì	117
í	118
î	119
ï	120
ð	121
ñ	122
ò	123
ó	124
ô	125
ö	126
÷	127
ø	128
ú	129
ü	130
ý	131
þ	132
ā	133
ć	134
ē	135
ğ	136
ī	137
ı	138
ł	139
ń	140
ŋ	141
œ	142
ş	143
š	144
ū	145
ű	146
ž	147
ƒ	148
ǎ	149
ɔ	150
ə	151
ɛ	152
ɜ	153
ɨ	154
ɪ	155
ʀ	156
ʁ	157
ʊ	158
ʺ	159
ˈ	160
ˌ	161
ˏ	162
ː	163
́	164
̃	165
̇	166
̈	167
̊	168
̋	169
̏	170
̨	171
̵	172
α	173
β	174
γ	175
δ	176
ε	177
ζ	178
θ	179
κ	180
λ	181
μ	182
ν	183
ο	184
ρ	185
ς	186
τ	187
φ	188
ω	189
а	190
б	191
г	192
д	193
е	194
з	195
и	196
й	197
к	198
л	199
м	200
н	201
о	202
п	203
р	204
с	205
т	206
у	207
ф	208
х	209
ы	210
ь	211
я	212
ё	213
ћ	214
ה	215
ח	216
י	217
כ	218
מ	219
פ	220
ש	221
،	222
؛	223
؟	224
ء	225
آ	226
أ	227
ؤ	228
إ	229
ئ	230
ا	231
ب	232
ة	233
ت	234
ث	235
ج	236
ح	237
خ	238
د	239
ذ	240
ر	241
ز	242
س	243
ش	244
ص	245
ض	246
ط	247
ظ	248
ع	249
غ	250
ـ	251
ف	252
ق	253
ك	254
ل	255
م	256
ن	257
ه	258
و	259
ى	260
ي	261
ً	262
ٌ	263
ٍ	264
َ	265
ُ	266
ِ	267
ّ	268
ْ	269
ٓ	270
ٔ	271
٠	272
١	273
٢	274
٣	275
٤	276
٥	277
٦	278
٧	279
٨	280
٩	281
٪	282
٫	283
٬	284
ٰ	285
ٴ	286
پ	287
ٿ	288
څ	289
چ	290
ژ	291
ک	292
ڪ	293
ګ	294
گ	295
ڵ	296
ں	297
ھ	298
ۀ	299
ہ	300
ۂ	301
ۃ	302
ۆ	303
ی	304
ێ	305
ے	306
۔	307
ە	308
۰	309
۱	310
۲	311
۳	312
۴	313
۵	314
۶	315
۷	316
۸	317
۹	318
ܔ	319
ܜ	320
ก	321
ง	322
แ	323
ა	324
გ	325
ე	326
ვ	327
თ	328
ი	329
ლ	330
მ	331
ნ	332
ო	333
რ	334
ს	335
უ	336
ქ	337
ḥ	338
ṇ	339
ṯ	340
ủ	341
ἐ	342
ἥ	343
ἴ	344
ῖ	345
​	346
‌	347
‍	348
‎	349
‏	350
–	351
—	352
―	353
‘	354
’	355
‚	356
“	357
”	358
„	359
†	360
•	361
‪	362
‫	363
‬	364
‭	365
′	366
‹	367
›	368
※	369
⁄	370
⁠	371
⁣	372
⁧	373
⁩	374
⁪	375
⁭	376
⁮	377
⁯	378
₩	379
€	380
₹	381
⃣	382
←	383
↑	384
→	385
↓	386
⇆	387
⇐	388
⇔	389
∀	390
∆	391
∈	392
−	393
∗	394
∘	395
√	396
∴	397
≈	398
≠	399
≡	400
≤	401
≥	402
⊞	403
⋆	404
⌘	405
⏳	406
⏺	407
▐	408
■	409
□	410
▪	411
▫	412
▬	413
▲	414
▶	415
►	416
◀	417
◄	418
◇	419
◊	420
○	421
●	422
◦	423
◽	424
◾	425
★	426
☆	427
☚	428
☺	429
☼	430
♊	431
♒	432
♡	433
♥	434
♦	435
♪	436
♫	437
♬	438
♯	439
⚡	440
⚽	441
✅	442
✋	443
✍	444
✓	445
✔	446
✕	447
✤	448
✭	449
✳	450
✵	451
❇	452
❌	453
❗	454
❤	455
➌	456
➐	457
➕	458
➖	459
⟨	460
⟩	461
⦁	462
⬅	463
《	464
》	465
「	466
か	467
き	468
ど	469
ま	470
メ	471
モ	472
ヤ	473
一	474
东	475
事	476
人	477
件	478
前	479
十	480
台	481
命	482
坛	483
外	484
天	485
子	486
孫	487
將	488
撫	489
斐	490
旗	491
日	492
月	493
朝	494
本	495
樹	496
湾	497
灣	498
爱	499
生	500
甲	501
碌	502
神	503
臺	504
英	505
蔼	506
语	507
谷	508
軍	509
锦	510
门	511
革	512
도	513
라	514
아	515
장	516
티	517
	518
	519
	520
	521
	522
	523
	524
	525
	526
	527
	528
	529
	530
	531
	532
	533
	534
	535
	536
	537
	538
	539
	540
	541
	542
	543
	544
	545
	546
	547
	548
﴾	549
﴿	550
️	551
﻿	552
�	553
🇩	554
🇪	555
🇬	556
🇷	557
🇺	558
🌀	559
🌐	560
🌬	561
🌲	562
🌷	563
🌸	564
🌺	565
🍁	566
🍃	567
🍳	568
🎁	569
🎄	570
🎥	571
🎬	572
🐶	573
👈	574
👌	575
👏	576
👑	577
👻	578
💎	579
💕	580
💜	581
💟	582
💫	583
💳	584
📈	585
📌	586
📍	587
📑	588
📝	589
📣	590
📱	591
📽	592
🔎	593
🔔	594
🔥	595
🔴	596
🔵	597
🔶	598
🔷	599
🔸	600
🔹	601
🔺	602
🔻	603
🗽	604
😀	605
😁	606
😂	607
😅	608
😉	609
😊	610
😌	611
😍	612
😎	613
😏	614
😐	615
😒	616
😔	617
😕	618
😗	619
😙	620
😛	621
😢	622
😥	623
😭	624
😳	625
😵	626
😶	627
🙁	628
🙂	629
🙏	630
🚀	631
🚫	632
🤔	633
🤗	634
🥇	635
##س	636
##ک	637
##و	638
##ت	639
##ر	640
##ه	641
##ا	642
##ی	643
##s	644
##k	645
##ف	646
##ن	647
##‌	648
##ب	649
##ي	650
##۲	651
##,	652
##i	653
##n	654
##d	655
##a	656
##b	657
##t	658
##ش	659
##د	660
##م	661
##ُ	662
##ع	663
##ّ	664
##h	665
##c	666
##گ	667
##ئ	668
##ل	669
##ِ	670
##ژ	671
##e	672
##r	673
##چ	674
##ز	675
##ق	676
##ى	677
##g	678
##p	679
##خ	680
##ص	681
##ھ	682
##u	683
##l	684
##ض	685
##o	686
##.	687
##”	688
##2	689
##5	690
##m	691
##پ	692
##f	693
##q	694
##۶	695
##۴	696
##۵	697
##!	698
##v	699
##آ	700
##ج	701
##ط	702
##ة	703
##أ	704
##x	705
##َ	706
##غ	707
##9	708
##ذ	709
##ك	710
##z	711
##y	712
##0	713
##۷	714
##ء	715
##1	716
##ح	717
##۹	718
##w	719
##=	720
##>	721
##۰	722
##ث	723
##ظ	724
##3	725
##ۀ	726
##6	727
##‫	728
##‬	729
##‭	730
##)	731
##(	732
##»	733
##،	734
##۳	735
##۸	736
##۱	737
##٩	738
##١	739
##7	740
##ـ	741
##ö	742
##ؤ	743
##j	744
##é	745
##á	746
##8	747
##­	748
##ٌ	749
##ْ	750
##ً	751
##4	752
##‎	753
##-	754
##ٰ	755
##٠	756
##ٔ	757
##_	758
##‍	759
##μ	760
##ۂ	761
##]	762
##с	763
##х	764
##о	765
##д	766
##:	767
##﻿	768
##‏	769
##[	770
##’	771
##/	772
##î	773
##â	774
##'	775
##ٓ	776
##؛	777
##命	778
##?	779
##�	780
##ş	781
##إ	782
##ٍ	783
##@	784
##}	785
##;	786
##ó	787
##坛	788
##东	789
##门	790
##ä	791
##—	792
##٨	793
##٢	794
##​	795
##٥	796
##"	797
###	798
##ì	799
##٣	800
##٧	801
##*	802
##%	803
##è	804
##؟	805
##ە	806
##ہ	807
##٦	808
##٤	809
##«	810
##́	811
##к	812
##р	813
##у	814
##г	815
##ก	816
##ง	817
##٪	818
##+	819
##გ	820
##ლ	821
##ო	822
##ვ	823
##ა	824
##ნ	825
##ი	826
##$	827
##α	828
##б	829
##✤	830
##í	831
##ű	832
##ò	833
##е	834
##т	835
##а	836
##л	837
##и	838
##я	839
##ç	840
##😍	841
##^	842
##😉	843
##̇	844
##ü	845
##•	846
##ø	847
##ã	848
##👌	849
##👏	850
##♪	851
##♬	852
##	853
##κ	854
##ε	855
##ῖ	856
##ν	857
##ο	858
##ς	859
##‘	860
##😏	861
##°	862
##	863
##➖	864
##§	865
##′	866
##<	867
##{	868
##ˈ	869
##♫	870
##ë	871
##ñ	872
##🇺	873
##🇩	874
##🇪	875
##›	876
##ζ	877
##“	878
##👻	879
##	880
##š	881
##ı	882
##🎄	883
##‪	884
##|	885
##å	886
##ٴ	887
##¬	888
##̈	889
##–	890
##̋	891
##ß	892
##à	893
##ú	894
##✅	895
##장	896
##️	897
##⃣	898
##γ	899
##😥	900
##ქ	901
##რ	902
##თ	903
##ე	904
##♯	905
##●	906
##ğ	907
##ː	908
##ɪ	909
##ŋ	910
##ʊ	911
##~	912
##ń	913
##ā	914
##	915
##ے	916
##̊	917
##ω	918
##₩	919
##←	920
##朝	921
##⚡	922
##ٿ	923
##\	924
##ē	925
##≈	926
##£	927
##😀	928
##×	929
##ܔ	930
##本	931
##语	932
##ˏ	933
##й	934
##н	935
##♥	936
##😵	937
##ۆ	938
##🌸	939
##😁	940
##▬	941
##	942
##ï	943
##λ	944
##τ	945
##ρ	946
##ṇ	947
##ī	948
##	949
##ł	950
##&	951
##٫	952
##◄	953
##ý	954
##☼	955
##¤	956
##🍃	957
##	958
##ь	959
##ы	960
##🌷	961
##⁣	962
##ێ	963
##ô	964
##灣	965
##٬	966
##😂	967
##`	968
##★	969
##ש	970
##י	971
##ח	972
##🇬	973
##🇷	974
##ć	975
##ۃ	976
##м	977
##ê	978
##⌘	979
##🔥	980
##ს	981
##მ	982
##უ	983
##פ	984
##ה	985
##軍	986
##將	987
##아	988
##라	989
##ṯ	990
##ʀ	991
##ɔ	992
##̃	993
##‹	994
##湾	995
##子	996
##β	997
##ڪ	998
##ủ	999
##	1000
##ū	1001
##ё	1002
##▐	1003
##	1004
##	1005
##月	1006
##事	1007
##件	1008
##ð	1009
##ћ	1010
##ə	1011
##ɛ	1012
##☺	1013
##😙	1014
##😔	1015
##😅	1016
##ڵ	1017
##🤗	1018
##🤔	1019
##😗	1020
##谷	1021
##英	1022
##樹	1023
##人	1024
##	1025
##ګ	1026
##ں	1027
##旗	1028
##ˌ	1029
##æ	1030
##·	1031
##ان	1032
##ای	1033
##ار	1034
##ست	1035
##ند	1036
در	1037
##ین	1038
به	1039
می	1040
##ید	1041
##ود	1042
از	1043
که	1044
را	1045
است	1046
با	1047
##اد	1048
بر	1049
##رد	1050
##ال	1051
##ام	1052
این	1053
##ور	1054
##اه	1055
##یر	1056
##ات	1057
##یم	1058
آن	1059
یک	1060
##شت	1061
می‌	1062
##ما	1063
هم	1064
##ها	1065
##وان	1066
##های	1067
کن	1068
برای	1069
##لی	1070
##اب	1071
##ری	1072
##ون	1073
##ده	1074
##فت	1075
##سی	1076
##ول	1077
های	1078
##از	1079
##وی	1080
من	1081
کرد	1082
ان	1083
##گر	1084
##ه‌	1085
مو	1086
##اری	1087
##تر	1088
خود	1089
دار	1090
##می	1091
##رو	1092
##مان	1093
##را	1094
##لا	1095
خو	1096
##تی	1097
شما	1098
##کن	1099
بود	1100
نی	1101
##اده	1102
رو	1103
کار	1104
باش	1105
یا	1106
بی	1107
##یت	1108
تا	1109
##گی	1110
##زی	1111
##انی	1112
ما	1113
او	1114
تو	1115
دا	1116
##خت	1117
ها	1118
ای	1119
شده	1120
ده	1121
شد	1122
سال	1123
##اس	1124
##اید	1125
##ایی	1126
دو	1127
##رک	1128
ام	1129
##‌های	1130
هر	1131
دی	1132
هست	1133
##دا	1134
##یا	1135
کند	1136
مح	1137
کنید	1138
شود	1139
توان	1140
آم	1141
فر	1142
مت	1143
پی	1144
مع	1145
کنند	1146
##بی	1147
##فر	1148
خواه	1149
داشت	1150
##قی	1151
##انه	1152
اما	1153
##نگ	1154
##گاه	1155
##‌ها	1156
دست	1157
##یل	1158
##بت	1159
سر	1160
##نی	1161
باشد	1162
نمی	1163
دارد	1164
##عی	1165
##له	1166
آنها	1167
##شان	1168
##اق	1169
حال	1170
باید	1171
##رت	1172
مد	1173
تر	1174
##توان	1175
اگر	1176
##وز	1177
##مای	1178
##ارد	1179
قر	1180
##ادی	1181
بد	1182
مش	1183
کم	1184
استف	1185
استفاده	1186
##که	1187
ال	1188
کش	1189
باز	1190
##رف	1191
گر	1192
چه	1193
##بر	1194
چی	1195
دان	1196
اس	1197
بسی	1198
##وری	1199
##فته	1200
##جه	1201
##جود	1202
##اف	1203
##اند	1204
دیگر	1205
##اره	1206
##خو	1207
نظ	1208
اند	1209
##عد	1210
##وند	1211
هستند	1212
زمان	1213
##جام	1214
مس	1215
مورد	1216
##اخت	1217
داد	1218
##نده	1219
##وم	1220
##..	1221
تح	1222
##دید	1223
##امه	1224
##عه	1225
##کر	1226
پیش	1227
انجام	1228
نو	1229
روز	1230
مق	1231
مرد	1232
##نین	1233
تن	1234
اف	1235
##عت	1236
نیست	1237
##زار	1238
##رس	1239
##با	1240
##مل	1241
##شی	1242
زند	1243
##کی	1244
##قت	1245
جه	1246
تم	1247
وجود	1248
##الی	1249
##دی	1250
انت	1251
بیشت	1252
##رب	1253
##رگ	1254
اج	1255
عن	1256
##ستان	1257
بین	1258
نیز	1259
##مین	1260
##گیر	1261
می‌ش	1262
مه	1263
##خص	1264
رس	1265
اح	1266
همه	1267
پس	1268
کرده	1269
قرار	1270
بز	1271
##ریک	1272
##رکت	1273
هی	1274
مم	1275
##ترین	1276
روی	1277
توس	1278
##وت	1279
عنوان	1280
ات	1281
گذ	1282
##امل	1283
زی	1284
خواهد	1285
...	1286
##شن	1287
داشته	1288
کشور	1289
زندگی	1290
بخ	1291
دانش	1292
واق	1293
دهد	1294
##ونه	1295
##کل	1296
مط	1297
##امی	1298
##شد	1299
ممکن	1300
همچ	1301
می‌توان	1302
##فا	1303
##شته	1304
##وه	1305
می‌ک	1306
ساز	1307
سی	1308
گفت	1309
تص	1310
##یده	1311
تج	1312
##رای	1313
مج	1314
بیشتر	1315
##انند	1316
##رز	1317
وی	1318
##است	1319
راه	1320
بسیار	1321
##خی	1322
می‌کن	1323
##ایت	1324
بازی	1325
اط	1326
نظر	1327
دارند	1328
##اتی	1329
جم	1330
##دم	1331
شرکت	1332
هیچ	1333
نیاز	1334
##چه	1335
##گان	1336
برن	1337
##وش	1338
##ه‌ای	1339
##اص	1340
کردن	1341
##قه	1342
ند	1343
نق	1344
نام	1345
بزرگ	1346
##کان	1347
##وا	1348
اول	1349
##ه‌های	1350
##ورت	1351
آمریک	1352
یکی	1353
اص	1354
##اط	1355
افر	1356
کس	1357
##مند	1358
مث	1359
بعد	1360
جدید	1361
دور	1362
##حی	1363
کل	1364
نمی‌	1365
تغ	1366
شه	1367
##خواه	1368
تنها	1369
داده	1370
##ه‌ی	1371
##er	1372
نه	1373
##ارت	1374
تواند	1375
چند	1376
کمک	1377
20	1378
ساخت	1379
##وید	1380
همچنین	1381
نشان	1382
##زای	1383
##لب	1384
مردم	1385
فق	1386
اع	1387
##مو	1388
##ازه	1389
شن	1390
پای	1391
بن	1392
##صد	1393
ماه	1394
##سان	1395
##در	1396
##اک	1397
##ییر	1398
تغییر	1399
##جا	1400
قب	1401
##لام	1402
##به	1403
##ادر	1404
زن	1405
می‌شود	1406
##تان	1407
چیزی	1408
طور	1409
واقع	1410
##عات	1411
##ژی	1412
##دود	1413
اد	1414
##ره	1415
شوند	1416
##رائ	1417
##قل	1418
آز	1419
ایر	1420
برنامه	1421
بار	1422
سو	1423
می‌کند	1424
##لف	1425
زیر	1426
.»	1427
کنیم	1428
توسط	1429
پرو	1430
##کار	1431
##ورد	1432
##شه	1433
##جاد	1434
جن	1435
##یه	1436
##ابل	1437
ایجاد	1438
تمام	1439
آیا	1440
##زین	1441
##ونی	1442
دن	1443
فقط	1444
بیم	1445
##بان	1446
##گونه	1447
خدا	1448
##ستم	1449
بل	1450
##باره	1451
آموز	1452
بیش	1453
جهان	1454
صورت	1455
مانند	1456
مص	1457
تب	1458
طول	1459
نا	1460
خان	1461
دل	1462
##گذ	1463
##خاب	1464
##یلی	1465
چیز	1466
##اض	1467
##بود	1468
بسیاری	1469
تول	1470
حتی	1471
فع	1472
ارت	1473
##هایی	1474
نس	1475
هن	1476
انتخاب	1477
همان	1478
باشید	1479
قد	1480
##in	1481
تع	1482
افراد	1483
##ثر	1484
اینکه	1485
زمین	1486
##کس	1487
##تاب	1488
تق	1489
##رسی	1490
خط	1491
کو	1492
اخ	1493
یاد	1494
اطلا	1495
آمریکا	1496
##کت	1497
##on	1498
وق	1499
##وس	1500
##شم	1501
برخی	1502
نم	1503
##مال	1504
گرفت	1505
سه	1506
##کرد	1507
غیر	1508
رفت	1509
زمانی	1510
##قیق	1511
مهم	1512
##لیل	1513
آی	1514
##فی	1515
##گری	1516
نش	1517
دول	1518
##نج	1519
##بین	1520
##وع	1521
##بار	1522
##گیری	1523
ایران	1524
##وب	1525
##00	1526
کود	1527
##سم	1528
##وق	1529
##سته	1530
به‌	1531
افزای	1532
اش	1533
پر	1534
جای	1535
کتاب	1536
افزایش	1537
چرا	1538
می‌ده	1539
##اً	1540
##بال	1541
##ضی	1542
##ابی	1543
فیل	1544
باشند	1545
مرا	1546
نمای	1547
##اش	1548
تولید	1549
##یس	1550
دوست	1551
##ریق	1552
##an	1553
آب	1554
شب	1555
درصد	1556
مر	1557
بخش	1558
فکر	1559
دهند	1560
غذ	1561
مشت	1562
مدیر	1563
شخص	1564
همین	1565
##دام	1566
سا	1567
هد	1568
دید	1569
##زه	1570
حق	1571
ارائ	1572
##طور	1573
دهید	1574
##ژه	1575
وقتی	1576
##ایل	1577
سیا	1578
علا	1579
##ازی	1580
چگونه	1581
##نه	1582
مشکل	1583
تش	1584
##یشه	1585
فعال	1586
عم	1587
##یدا	1588
گرو	1589
##سه	1590
میلی	1591
کسی	1592
توجه	1593
بدون	1594
حس	1595
عل	1596
خار	1597
مخت	1598
ارائه	1599
##دار	1600
##وط	1601
سازمان	1602
هایی	1603
فرو	1604
می‌کنند	1605
##ar	1606
توانید	1607
##جی	1608
##رات	1609
کنم	1610
کردند	1611
زیادی	1612
هنگ	1613
##عیت	1614
فرد	1615
بودند	1616
عمل	1617
##رم	1618
آن‌ها	1619
##داشت	1620
کاه	1621
معم	1622
احس	1623
سیستم	1624
پیدا	1625
جنگ	1626
##راحی	1627
##بط	1628
شدن	1629
اه	1630
خیلی	1631
##ستی	1632
کاهش	1633
##رزش	1634
##تما	1635
شهر	1636
##روع	1637
خوب	1638
آل	1639
مطال	1640
نفر	1641
بال	1642
دولت	1643
خر	1644
##ذیر	1645
اقت	1646
مختلف	1647
19	1648
شروع	1649
ترک	1650
بوده	1651
۲۰	1652
##وار	1653
امرو	1654
کام	1655
##اح	1656
##یمی	1657
دریا	1658
##رین	1659
##فق	1660
##وص	1661
اقتص	1662
فیلم	1663
اطلاعات	1664
##الات	1665
گرفته	1666
##دن	1667
احساس	1668
سپ	1669
##گه	1670
انسان	1671
##اسی	1672
قابل	1673
درباره	1674
##ویی	1675
موض	1676
درمان	1677
##لیه	1678
اولین	1679
##or	1680
دیگری	1681
بهترین	1682
متح	1683
گروه	1684
گرد	1685
قبل	1686
##رکز	1687
ایم	1688
خانه	1689
بناب	1690
دلیل	1691
##ینی	1692
##زینه	1693
شک	1694
نز	1695
میان	1696
منط	1697
##سر	1698
مست	1699
منت	1700
تاری	1701
کسب	1702
صح	1703
##باط	1704
##زش	1705
چنین	1706
سایت	1707
##en	1708
جل	1709
##ه‌ها	1710
دارید	1711
##یف	1712
##عث	1713
همیشه	1714
روش	1715
##ثیر	1716
حرف	1717
می‌تواند	1718
گو	1719
انگ	1720
ندارد	1721
##یدن	1722
##at	1723
تلا	1724
##راین	1725
بنابراین	1726
##مه	1727
باعث	1728
##دان	1729
کوچ	1730
##میم	1731
##es	1732
زبان	1733
201	1734
موفق	1735
##اپ	1736
قدرت	1737
اعت	1738
ارو	1739
##اهی	1740
ولی	1741
خانو	1742
پرد	1743
احت	1744
پاس	1745
معمول	1746
اق	1747
ارتباط	1748
مخ	1749
##گرد	1750
سط	1751
طراحی	1752
##al	1753
خدم	1754
##گو	1755
اجتما	1756
تعد	1757
گذشته	1758
محص	1759
قان	1760
##ه‌اند	1761
##مد	1762
##ودی	1763
##اور	1764
طریق	1765
اروپ	1766
##یب	1767
تلاش	1768
آنچه	1769
مدت	1770
جهانی	1771
بهتر	1772
اشت	1773
حدود	1774
سری	1775
دنبال	1776
هدف	1777
اب	1778
##گز	1779
گیر	1780
شامل	1781
##ولی	1782
وب	1783
##نان	1784
دانشگاه	1785
##افی	1786
هنوز	1787
آورد	1788
شم	1789
محصول	1790
کاری	1791
##ریان	1792
خاص	1793
اصلی	1794
توسعه	1795
بدن	1796
اجتماعی	1797
##ربه	1798
##ویس	1799
سرمای	1800
قط	1801
بالا	1802
##ندی	1803
سن	1804
نوع	1805
دریافت	1806
سای	1807
##راه	1808
مسئ	1809
خرید	1810
##اسب	1811
ترین	1812
ار	1813
افت	1814
آینده	1815
##شر	1816
##هن	1817
ادامه	1818
تحقیق	1819
کمی	1820
فروش	1821
##ائ	1822
تصمیم	1823
بع	1824
ته	1825
تأ	1826
مصرف	1827
زنان	1828
##‌تر	1829
احتمال	1830
نسبت	1831
زیرا	1832
خواهند	1833
##مت	1834
خواهید	1835
پاسخ	1836
##برد	1837
##فاوت	1838
حاض	1839
جز	1840
##رح	1841
##انس	1842
نیر	1843
حاضر	1844
##ندگان	1845
دارای	1846
دادن	1847
بررسی	1848
کنتر	1849
رشد	1850
آموزش	1851
کوچک	1852
##ابر	1853
نزدی	1854
مالی	1855
می‌دهد	1856
بگیر	1857
حالی	1858
##مللی	1859
میز	1860
ساعت	1861
ندار	1862
جام	1863
فعالیت	1864
##ران	1865
کننده	1866
چهار	1867
شرای	1868
گزار	1869
##کنون	1870
میلیون	1871
شرایط	1872
تبد	1873
لی	1874
اض	1875
کنترل	1876
کلی	1877
تبدیل	1878
تجربه	1879
توانند	1880
صف	1881
موضوع	1882
همراه	1883
##اران	1884
پشت	1885
خوبی	1886
##it	1887
مل	1888
کامل	1889
داخ	1890
امروز	1891
تحت	1892
##ویر	1893
##یدی	1894
طبی	1895
گی	1896
پزش	1897
خص	1898
نتی	1899
گفته	1900
فض	1901
##پی	1902
پنج	1903
بده	1904
بتوان	1905
##اطر	1906
##شار	1907
##لاح	1908
آغ	1909
##رده	1910
##گوی	1911
وارد	1912
##تری	1913
##‌هایی	1914
۱۹	1915
##من	1916
گست	1917
##این	1918
سطح	1919
ارزش	1920
بلکه	1921
##ظه	1922
##ازم	1923
چون	1924
بیماری	1925
##کو	1926
بازار	1927
##ic	1928
##گران	1929
گزارش	1930
منطقه	1931
شاید	1932
ری	1933
صحبت	1934
حل	1935
صد	1936
وقت	1937
##۰۰	1938
هزار	1939
مرب	1940
اجازه	1941
صن	1942
هفته	1943
سب	1944
تعداد	1945
خصوص	1946
مدیریت	1947
##نا	1948
##le	1949
مواد	1950
چشم	1951
حدا	1952
سخ	1953
اندازه	1954
اغ	1955
پول	1956
آسی	1957
سلام	1958
##فاق	1959
##ندان	1960
یع	1961
بیشتری	1962
دلار	1963
آغاز	1964
محدود	1965
##رژی	1966
مثال	1967
وض	1968
شکل	1969
شی	1970
پایان	1971
درست	1972
واقعی	1973
آخ	1974
ایالات	1975
##خواست	1976
مغ	1977
پذیر	1978
وا	1979
اک	1980
سل	1981
هستید	1982
##بران	1983
خانواده	1984
متحده	1985
خوان	1986
سف	1987
ابت	1988
مثل	1989
برابر	1990
خطر	1991
صفح	1992
دوره	1993
خوش	1994
یعنی	1995
اتفاق	1996
نتیجه	1997
##کاری	1998
نگاه	1999
اغلب	2000
وز	2001
کان	2002
خواست	2003
##فه	2004
##ابت	2005
##وست	2006
مربوط	2007
حمای	2008
##داری	2009
یافت	2010
اید	2011
دنیا	2012
ره	2013
طرف	2014
##st	2015
جمله	2016
بح	2017
هزینه	2018
امکان	2019
شدند	2020
##نت	2021
موارد	2022
نبود	2023
مناسب	2024
اساس	2025
اروپا	2026
مک	2027
البت	2028
تاریخ	2029
نزدیک	2030
عب	2031
البته	2032
حض	2033
چین	2034
کسانی	2035
پیر	2036
مشخص	2037
دیگران	2038
##خواهد	2039
منظ	2040
تیم	2041
##مایش	2042
حمایت	2043
##بری	2044
لازم	2045
انرژی	2046
##ولو	2047
اخت	2048
خدمات	2049
آر	2050
امن	2051
هنگامی	2052
قیم	2053
##قات	2054
##ربی	2055
##میت	2056
».	2057
خاطر	2058
رای	2059
عمو	2060
##شید	2061
روسی	2062
موجود	2063
مرت	2064
##لس	2065
مطالعه	2066
اقتصادی	2067
##اله	2068
جمه	2069
##رخ	2070
رابط	2071
سرا	2072
اینجا	2073
##ویت	2074
جان	2075
هوا	2076
##گذار	2077
تقری	2078
##رض	2079
کودکان	2080
##جر	2081
شناخت	2082
قانون	2083
طب	2084
توص	2085
کاملا	2086
پیشر	2087
نگه	2088
تاثیر	2089
##وک	2090
کافی	2091
سرمایه	2092
##صل	2093
سایر	2094
سپس	2095
##وهای	2096
خون	2097
اعلام	2098
داریم	2099
##اهای	2100
##ئیس	2101
سیاسی	2102
سریع	2103
خواب	2104
درک	2105
می‌شوند	2106
انتظ	2107
تقریبا	2108
ست	2109
دخ	2110
اکنون	2111
کودک	2112
آزمایش	2113
حی	2114
ملی	2115
مرگ	2116
سفر	2117
##جوی	2118
کمتر	2119
قیمت	2120
نمایش	2121
##یره	2122
بهبود	2123
شخصی	2124
داستان	2125
تک	2126
شوید	2127
هرگز	2128
نقش	2129
می‌کرد	2130
##خورد	2131
بان	2132
##ro	2133
پرداخت	2134
زمینه	2135
##شین	2136
کردم	2137
).	2138
طبیعی	2139
تکن	2140
##کتر	2141
فرز	2142
لب	2143
بعضی	2144
رنگ	2145
المللی	2146
##امبر	2147
جوان	2148
مذ	2149
انتظار	2150
جو	2151
نت	2152
حقی	2153
مادر	2154
كه	2155
##کند	2156
دارم	2157
حف	2158
انتق	2159
محی	2160
پار	2161
خارج	2162
محیط	2163
##‌ترین	2164
10	2165
محت	2166
##‌اند	2167
##اتر	2168
حداقل	2169
پدر	2170
رسید	2171
نخ	2172
پروژه	2173
سخت	2174
روسیه	2175
##اخ	2176
اقدام	2177
##ونت	2178
لح	2179
عمومی	2180
ببین	2181
##ac	2182
موفقیت	2183
##ئن	2184
دقیق	2185
کنار	2186
فرص	2187
تما	2188
مان	2189
حقوق	2190
##قدر	2191
خلا	2192
##he	2193
سیاست	2194
رق	2195
افرادی	2196
دوم	2197
شر	2198
##وده	2199
مشکلات	2200
موق	2201
حفظ	2202
##ولوژی	2203
ساخته	2204
خداوند	2205
انگلی	2206
نکن	2207
##آمد	2208
آنجا	2209
##الت	2210
عو	2211
حک	2212
بودن	2213
##re	2214
شبکه	2215
رفتار	2216
مجمو	2217
."	2218
جامعه	2219
اثر	2220
نف	2221
۲۰۱	2222
##مانی	2223
##ئی	2224
حد	2225
نکرد	2226
جا	2227
حساب	2228
هو	2229
حرکت	2230
علیه	2231
##گوید	2232
دستگاه	2233
بدان	2234
صرف	2235
کشورهای	2236
##ion	2237
##مندان	2238
##رش	2239
جست	2240
قادر	2241
صفحه	2242
آنان	2243
طی	2244
##غان	2245
##هم	2246
##صر	2247
نب	2248
رئیس	2249
##ایج	2250
سوی	2251
جلو	2252
پرس	2253
##el	2254
##مز	2255
200	2256
##لح	2257
سرعت	2258
##اهده	2259
آماده	2260
فی	2261
)،	2262
مب	2263
##لق	2264
##om	2265
برس	2266
میزان	2267
##ابع	2268
##گیرد	2269
##خصص	2270
غذایی	2271
##‌ال	2272
دوباره	2273
ساده	2274
نمی‌توان	2275
##هنگ	2276
رابطه	2277
##is	2278
متفاوت	2279
##سازی	2280
##شود	2281
امید	2282
تخ	2283
##خانه	2284
خارجی	2285
سراسر	2286
##باشد	2287
##ضا	2288
بپ	2289
گذاری	2290
علاوه	2291
عض	2292
سازی	2293
آمریکایی	2294
##سال	2295
برق	2296
مار	2297
خور	2298
باور	2299
آسیب	2300
عکس	2301
مف	2302
حمل	2303
پیشنه	2304
آزاد	2305
اخیر	2306
تف	2307
هنگام	2308
ور	2309
تصویر	2310
##طان	2311
وضعیت	2312
##تن	2313
##افه	2314
ویژه	2315
جایی	2316
تل	2317
هستیم	2318
معمولا	2319
گذا	2320
دسترسی	2321
راح	2322
اینتر	2323
واقعا	2324
##کیل	2325
بیان	2326
معت	2327
##et	2328
زیاد	2329
کوت	2330
بیمار	2331
گاهی	2332
مستق	2333
خبر	2334
می‌توانید	2335
نوشت	2336
طولانی	2337
##یز	2338
بخشی	2339
##ظت	2340
##ستگی	2341
##بور	2342
دختر	2343
اشتب	2344
نتایج	2345
##ابه	2346
مشاهده	2347
تجاری	2348
##دیگر	2349
پایین	2350
حقیقت	2351
داشتن	2352
##ing	2353
##اهم	2354
بیر	2355
##ou	2356
##وجه	2357
##وریه	2358
حم	2359
##افق	2360
برگ	2361
##داف	2362
سعی	2363
می‌خواه	2364
##جو	2365
فشار	2366
مشتریان	2367
ابزار	2368
هنر	2369
منتشر	2370
##قق	2371
مکان	2372
امنیت	2373
نور	2374
مسیر	2375
##گار	2376
##ابد	2377
##جب	2378
شو	2379
آش	2380
جذ	2381
گونه	2382
عملی	2383
نشده	2384
مبت	2385
حضور	2386
فرم	2387
گل	2388
نباید	2389
آمده	2390
معن	2391
مهارت	2392
رخ	2393
قسم	2394
اقتصاد	2395
##ظیم	2396
درخواست	2397
محصولات	2398
فران	2399
کیف	2400
فرصت	2401
عالی	2402
لذ	2403
##ومت	2404
مطم	2405
معنی	2406
##عا	2407
خورد	2408
##نو	2409
ایشان	2410
تلف	2411
##لم	2412
بی‌	2413
مرح	2414
اضافه	2415
استرات	2416
مدل	2417
شناس	2418
شور	2419
##as	2420
##am	2421
حالا	2422
##ضای	2423
خش	2424
درد	2425
همکاری	2426
نظامی	2427
شناخته	2428
##ابط	2429
استراتژی	2430
اسرائ	2431
سنگ	2432
مبار	2433
##سانی	2434
موسی	2435
یافته	2436
توانایی	2437
مرکز	2438
بودم	2439
##ين	2440
##طه	2441
##امپ	2442
منابع	2443
نخست	2444
##ol	2445
##آن	2446
##لمان	2447
آمد	2448
محل	2449
##الب	2450
##ادل	2451
پیشنهاد	2452
تمرکز	2453
چیست	2454
گیرد	2455
آور	2456
ثبت	2457
##بات	2458
فرا	2459
##ماد	2460
روشن	2461
طرح	2462
##امین	2463
سمت	2464
غذا	2465
جمع	2466
کلا	2467
کشت	2468
روابط	2469
##ظر	2470
جنسی	2471
##هایت	2472
##تل	2473
اشتباه	2474
##شق	2475
##قای	2476
ترس	2477
نیستند	2478
بس	2479
##نامه	2480
ضر	2481
می‌توانند	2482
##کنان	2483
هستم	2484
بعدی	2485
پیام	2486
پیشرفت	2487
خودش	2488
دقی	2489
گوش	2490
##ریم	2491
عملکرد	2492
آگاه	2493
##ed	2494
مقام	2495
دیده	2496
خودتان	2497
روان	2498
فراهم	2499
نویس	2500
شغ	2501
##گفت	2502
##بانی	2503
اکثر	2504
##واره	2505
دهه	2506
اشاره	2507
حرفه	2508
##ائل	2509
اتح	2510
داخلی	2511
ایده	2512
متوجه	2513
##‌‌	2514
منجر	2515
انگی	2516
توضی	2517
##هر	2518
##واج	2519
تان	2520
مقدار	2521
اعتماد	2522
کدام	2523
##کنند	2524
تغییرات	2525
مدرس	2526
افغان	2527
ساله	2528
تشکیل	2529
تحقیقات	2530
صنعت	2531
نگر	2532
##il	2533
انگلیسی	2534
بگیرید	2535
##خیص	2536
گیری	2537
##گذاری	2538
یه	2539
مها	2540
دنی	2541
تحص	2542
داشتند	2543
جهت	2544
روند	2545
مراق	2546
بازاری	2547
تمرین	2548
نداشت	2549
استخ	2550
منظور	2551
##ناه	2552
آخرین	2553
##رار	2554
ماشین	2555
اسپ	2556
پوست	2557
مشتری	2558
ویژ	2559
سوم	2560
##ریف	2561
تشخیص	2562
کال	2563
رژ	2564
ماند	2565
دقیقه	2566
##‌آ	2567
برد	2568
خواهیم	2569
کاربران	2570
توضیح	2571
رسد	2572
ندارند	2573
دوستان	2574
باشیم	2575
هوش	2576
گرفتن	2577
the	2578
##حال	2579
##ینه	2580
##شناس	2581
مطمئن	2582
دهیم	2583
اپ	2584
پوش	2585
سخن	2586
شاه	2587
##حل	2588
مستقیم	2589
in	2590
می‌د	2591
مرحله	2592
حمله	2593
اتاق	2594
باقی	2595
انقل	2596
##لیغ	2597
آزادی	2598
توصیه	2599
تبلیغ	2600
افز	2601
وسی	2602
هفت	2603
##لاین	2604
برخورد	2605
می‌آ	2606
متن	2607
ظاه	2608
ازد	2609
##یتال	2610
کوتاه	2611
##گون	2612
وزن	2613
عشق	2614
##عیین	2615
نفت	2616
اهداف	2617
آلمان	2618
تعیین	2619
انوا	2620
جریان	2621
##راک	2622
واقعیت	2623
##گل	2624
##راف	2625
نمود	2626
شکست	2627
گوی	2628
تس	2629
امر	2630
نهایت	2631
##میز	2632
انواع	2633
##مون	2634
مرتبط	2635
رژیم	2636
سوریه	2637
۱۰	2638
گوید	2639
مردان	2640
پاک	2641
##افت	2642
بلند	2643
مغز	2644
##oo	2645
رود	2646
بسته	2647
بانک	2648
ارس	2649
دری	2650
استاند	2651
عق	2652
کاناد	2653
تمامی	2654
مناط	2655
تای	2656
می‌کنید	2657
تهدید	2658
توافق	2659
بیرون	2660
##ad	2661
مشابه	2662
چندین	2663
این‌	2664
محقق	2665
حالت	2666
ابتدا	2667
اطلاع	2668
می‌رس	2669
بحث	2670
اطمین	2671
سلامت	2672
موسیقی	2673
##راح	2674
##قا	2675
جمهوری	2676
درآمد	2677
یکدیگر	2678
نسخ	2679
مدرسه	2680
داخل	2681
همچنان	2682
##iv	2683
میل	2684
اجرا	2685
##امت	2686
محاف	2687
آت	2688
نرم	2689
##ادگی	2690
اطمینان	2691
##تح	2692
نوشته	2693
مال	2694
لذت	2695
استاندارد	2696
اسرائیل	2697
عرض	2698
##الد	2699
جلوگیری	2700
اینترنت	2701
اهمیت	2702
آنلاین	2703
می‌گوید	2704
ازدواج	2705
آسان	2706
##ch	2707
##اموش	2708
سرطان	2709
##بیه	2710
کیفیت	2711
قوی	2712
محلی	2713
قسمت	2714
سفید	2715
سود	2716
پزشکی	2717
##وتی	2718
شدید	2719
##ادت	2720
ورزش	2721
نکنید	2722
ویژگی	2723
اعضای	2724
ذهن	2725
##ایش	2726
ویر	2727
خصوصی	2728
نص	2729
کشف	2730
فرانسه	2731
سلول	2732
بازگ	2733
##قد	2734
درو	2735
##پیم	2736
پاد	2737
افغانستان	2738
تکنولوژی	2739
##تور	2740
راست	2741
جدا	2742
طبق	2743
فیزی	2744
عرا	2745
خی	2746
پیچ	2747
گزینه	2748
می‌کنم	2749
##اصل	2750
##داشته	2751
تأثیر	2752
اختی	2753
نخواهد	2754
کامپی	2755
ارسال	2756
بگذار	2757
فوق	2758
اولیه	2759
دوران	2760
12	2761
##جات	2762
علاقه	2763
st	2764
##لیس	2765
##وتر	2766
##انیا	2767
سالم	2768
میلیارد	2769
سوال	2770
بازاریابی	2771
##اها	2772
آرام	2773
##یبانی	2774
##وبی	2775
.”	2776
عد	2777
قرن	2778
##وای	2779
گسترش	2780
##رفی	2781
تجارت	2782
پشتیبانی	2783
قوان	2784
مای	2785
وس	2786
فرهنگ	2787
دادند	2788
کی	2789
##ابق	2790
##نم	2791
انتقال	2792
##رافی	2793
مجموعه	2794
نیم	2795
ارز	2796
##id	2797
برنام	2798
##فاع	2799
مناطق	2800
بو	2801
مسئله	2802
##اکر	2803
پل	2804
##لیت	2805
جدی	2806
آموزان	2807
ترکیه	2808
بندی	2809
تفاوت	2810
##ئم	2811
مسائل	2812
دانشجوی	2813
پژ	2814
##لاف	2815
##چار	2816
حیوان	2817
ترامپ	2818
امریک	2819
تصور	2820
جدیدی	2821
آقای	2822
تنظیم	2823
متخصص	2824
15	2825
می‌کنیم	2826
کلم	2827
می‌دهند	2828
خودم	2829
شخصیت	2830
اسل	2831
اوقات	2832
کارهای	2833
کنندگان	2834
فار	2835
رفتن	2836
18	2837
آدم	2838
هند	2839
##اوی	2840
فرزند	2841
##جم	2842
خواهم	2843
زنده	2844
فلس	2845
##بح	2846
مقاله	2847
نیروهای	2848
قلب	2849
تماس	2850
احتمالا	2851
قوانین	2852
مجبور	2853
گسترده	2854
##ریه	2855
آتش	2856
##ولیت	2857
شیر	2858
تحلیل	2859
دنیای	2860
یادگیری	2861
حز	2862
ساختمان	2863
یابد	2864
##جمه	2865
موس	2866
##کته	2867
کردیم	2868
پژوه	2869
صلح	2870
##اج	2871
قدیمی	2872
چقدر	2873
بهداشت	2874
معرفی	2875
بگوی	2876
گوگل	2877
مشترک	2878
اله	2879
قصد	2880
مقابل	2881
##ازد	2882
اختیار	2883
هواپیم	2884
##دای	2885
آس	2886
بنی	2887
an	2888
##خصوص	2889
مبارزه	2890
بش	2891
موقعیت	2892
برند	2893
بازگشت	2894
انسانی	2895
##یند	2896
صبح	2897
دارو	2898
بزرگترین	2899
تض	2900
تاب	2901
مدار	2902
فضای	2903
شان	2904
امنی	2905
اتحادی	2906
بازدید	2907
عراق	2908
اعمال	2909
##ئو	2910
##نتی	2911
رسیدن	2912
درون	2913
سیاه	2914
ببر	2915
##رن	2916
بچه	2917
دستور	2918
مقای	2919
##ot	2920
چطور	2921
##خش	2922
##شناسی	2923
##os	2924
دچار	2925
##وزی	2926
ایست	2927
کا	2928
رسانه	2929
نیروی	2930
of	2931
##ینگ	2932
نسخه	2933
##شده	2934
##ناک	2935
عدم	2936
##کنش	2937
همانطور	2938
ارزی	2939
آید	2940
وظ	2941
میتوان	2942
متع	2943
مذاکر	2944
##گزین	2945
کانادا	2946
شبیه	2947
##ویزی	2948
علمی	2949
فصل	2950
##لود	2951
بشر	2952
بهره	2953
ترکیب	2954
فل	2955
##پذیر	2956
۲۰۰	2957
دوربین	2958
عبارت	2959
##ay	2960
##ec	2961
##خته	2962
ژاپ	2963
بزر	2964
دکتر	2965
بینی	2966
گذاشت	2967
تلفن	2968
مقایسه	2969
حاصل	2970
جستجو	2971
لباس	2972
شده‌اند	2973
##‌تان	2974
مثبت	2975
نمونه	2976
ناب	2977
جایگزین	2978
فردی	2979
امنیتی	2980
##ig	2981
کمپ	2982
مسی	2983
گرم	2984
رسمی	2985
مهاج	2986
##یک	2987
موا	2988
نقطه	2989
حزب	2990
عص	2991
تروری	2992
مفید	2993
شش	2994
نار	2995
قل	2996
##ایند	2997
تلویزی	2998
##انت	2999
دسترس	3000
وح	3001
##زا	3002
##ent	3003
##بع	3004
##ستانی	3005
می‌دان	3006
##روت	3007
الله	3008
عاش	3009
نح	3010
کره	3011
تازه	3012
مشاور	3013
شدت	3014
##ورتی	3015
متوس	3016
##اشی	3017
##عهد	3018
گردد	3019
ارزیابی	3020
اطراف	3021
سرد	3022
##آوری	3023
امیدوار	3024
فراموش	3025
مدا	3026
محققان	3027
شهرو	3028
بک	3029
شا	3030
عرب	3031
##us	3032
قرآن	3033
##خواهید	3034
شناسایی	3035
##لال	3036
موثر	3037
صادر	3038
تکر	3039
مراقبت	3040
عمی	3041
##تون	3042
دیج	3043
دندان	3044
##سیم	3045
راحتی	3046
ابر	3047
##سیس	3048
خودشان	3049
بمان	3050
ذخ	3051
جمعیت	3052
زود	3053
دمو	3054
##نوان	3055
##رال	3056
موتور	3057
قانونی	3058
عامل	3059
##کننده	3060
روح	3061
مطالعات	3062
##اتیک	3063
##هنگی	3064
کامپیوتر	3065
ضد	3066
خاصی	3067
##‌و	3068
کجا	3069
##عده	3070
دولتی	3071
اشتراک	3072
دش	3073
عضو	3074
اسلامی	3075
پزشک	3076
دع	3077
سبک	3078
خوردن	3079
##نگی	3080
نقل	3081
انداز	3082
حذ	3083
روزانه	3084
##ریب	3085
مز	3086
چال	3087
خودرو	3088
تعریف	3089
افس	3090
نداشته	3091
هدایت	3092
ریا	3093
فوت	3094
آوری	3095
لو	3096
بزرگی	3097
##عتی	3098
اگرچه	3099
کرده‌اند	3100
پرواز	3101
##لاً	3102
زیب	3103
انقلاب	3104
نکته	3105
مطرح	3106
##ag	3107
دانشجویان	3108
اتحادیه	3109
##لند	3110
کلاس	3111
آف	3112
آن‌	3113
منبع	3114
پروت	3115
چیزهایی	3116
دشم	3117
موجب	3118
امام	3119
مؤ	3120
واکنش	3121
##سیون	3122
دهنده	3123
علت	3124
حوز	3125
ضروری	3126
دستی	3127
مواجه	3128
##em	3129
درجه	3130
تحصیل	3131
##کید	3132
فرهنگی	3133
انتخابات	3134
همسر	3135
بارد	3136
متر	3137
##وران	3138
##انیه	3139
##اویر	3140
ورود	3141
حذف	3142
علائم	3143
برگزار	3144
ویت	3145
رسیده	3146
مبتلا	3147
##شا	3148
جذب	3149
واح	3150
منح	3151
ثابت	3152
##طر	3153
امروزه	3154
##گردان	3155
دفاع	3156
پلیس	3157
الکتر	3158
##ow	3159
ببینید	3160
گیرند	3161
دانلود	3162
اساسی	3163
##ur	3164
الع	3165
متوسط	3166
چرخ	3167
##تا	3168
##صه	3169
##ه‌ام	3170
پسر	3171
بخوان	3172
##هور	3173
همس	3174
قطع	3175
عاشق	3176
تمای	3177
پست	3178
زیست	3179
تصاویر	3180
##ap	3181
اجرای	3182
بین‌ال	3183
100	3184
جمهور	3185
هوشمند	3186
ثروت	3187
##وف	3188
##ئین	3189
نامه	3190
مخال	3191
نجات	3192
تست	3193
امور	3194
ساختار	3195
آموزشی	3196
نگران	3197
##‌ب	3198
شمالی	3199
محافظت	3200
معتقد	3201
اصلاح	3202
توانست	3203
آشن	3204
محتوای	3205
محب	3206
دیدگاه	3207
فنا	3208
بدانید	3209
پژوهش	3210
حکومت	3211
فرآ	3212
سرمایه‌	3213
فرمان	3214
##...	3215
می‌شد	3216
چالش	3217
بگیرد	3218
مدرن	3219
وزیر	3220
توانیم	3221
رفته	3222
مسلمان	3223
##سب	3224
##‌شان	3225
بلا	3226
پا	3227
ماهی	3228
فایل	3229
قاب	3230
برج	3231
##وریت	3232
معمولاً	3233
فناوری	3234
کاربرد	3235
بریت	3236
##وح	3237
##نش	3238
##ایع	3239
30	3240
معنای	3241
شغل	3242
##im	3243
##ut	3244
قرارد	3245
ارتش	3246
زده	3247
سق	3248
##ژن	3249
صدای	3250
ترتی	3251
ظاهر	3252
واحد	3253
مرک	3254
رقابت	3255
11	3256
##جان	3257
کلیدی	3258
بگو	3259
##سون	3260
##وئ	3261
##کتری	3262
199	3263
##روف	3264
می‌رسد	3265
خواندن	3266
علی	3267
اینها	3268
قبلی	3269
##وانی	3270
مشار	3271
رهبری	3272
لط	3273
شگفت	3274
##غال	3275
مسئول	3276
مگر	3277
کارت	3278
شیمی	3279
##يد	3280
دیدن	3281
نخستین	3282
آنکه	3283
متوق	3284
بالای	3285
گاز	3286
شع	3287
مسا	3288
خشونت	3289
نگرانی	3290
متوقف	3291
آفریق	3292
لیست	3293
##کاران	3294
زیبا	3295
بتواند	3296
##نام	3297
##دایی	3298
کلمه	3299
جزئی	3300
جالب	3301
##‌ای	3302
مسئولیت	3303
گویند	3304
##زارت	3305
مهند	3306
عف	3307
مقامات	3308
جشن	3309
##ابقه	3310
ملل	3311
اختص	3312
نوز	3313
والد	3314
##زمین	3315
روید	3316
بیماران	3317
هشت	3318
##رانی	3319
مجاز	3320
امریکا	3321
لین	3322
آد	3323
دانشمندان	3324
تور	3325
کد	3326
برادر	3327
کشورها	3328
##اصله	3329
ناشی	3330
لحظه	3331
استرس	3332
اعتق	3333
بله	3334
جنوبی	3335
منفی	3336
سرویس	3337
مهمی	3338
پرداز	3339
بین‌المللی	3340
مرز	3341
وزارت	3342
##کنندگان	3343
##فع	3344
دانست	3345
اقدامات	3346
عوامل	3347
آخر	3348
پارک	3349
کشته	3350
##oc	3351
جنب	3352
اث	3353
اين	3354
ظرف	3355
می‌گوی	3356
علم	3357
ترتیب	3358
انگیز	3359
مزای	3360
##ers	3361
ماده	3362
پایه	3363
بزن	3364
می‌ر	3365
خدمت	3366
##کا	3367
##ابان	3368
نیازهای	3369
تکرار	3370
قدم	3371
درمانی	3372
اسلام	3373
##داران	3374
##ation	3375
عمیق	3376
##شنبه	3377
افتاد	3378
جواب	3379
##آورد	3380
هوایی	3381
##گانه	3382
##ماز	3383
##اظ	3384
دروغ	3385
باشم	3386
##un	3387
تقویت	3388
فاصله	3389
13	3390
مقا	3391
##ادهای	3392
##میل	3393
بالاتر	3394
نرخ	3395
اخلا	3396
فرآیند	3397
موش	3398
تاریخی	3399
فرزندان	3400
سع	3401
۱۵	3402
محبوب	3403
بند	3404
نهایی	3405
کاربر	3406
احتر	3407
بم	3408
افزار	3409
ایمیل	3410
ارشد	3411
##ir	3412
معرض	3413
بای	3414
ایرانی	3415
عملیات	3416
اظه	3417
مشارکت	3418
عرضه	3419
##شند	3420
میکن	3421
هشد	3422
##لاگ	3423
نشانه	3424
##ویه	3425
شمار	3426
عمر	3427
سلاح	3428
غرب	3429
ملا	3430
##سا	3431
همواره	3432
تد	3433
نکرده	3434
قابلیت	3435
محک	3436
اظهار	3437
ذکر	3438
شدم	3439
پوشش	3440
نصب	3441
کاملاً	3442
##ــ	3443
کارکنان	3444
اختصاص	3445
صاح	3446
صورتی	3447
انج	3448
مشغ	3449
نسل	3450
شماره	3451
##ریت	3452
بحران	3453
برسد	3454
زدن	3455
پرت	3456
خانم	3457
اطلاعاتی	3458
دیجیتال	3459
##راج	3460
##زد	3461
رسان	3462
مجد	3463
کشتی	3464
خلق	3465
ریزی	3466
هتل	3467
بگیرند	3468
دشوار	3469
نوشتن	3470
پیچیده	3471
ذخیره	3472
حوزه	3473
اعتقاد	3474
کف	3475
رد	3476
کشاور	3477
؟!	3478
مانده	3479
تقسیم	3480
حفا	3481
عه	3482
##چی	3483
مرکزی	3484
وعده	3485
##زم	3486
فیزیکی	3487
مسافر	3488
##ه‌اید	3489
##داد	3490
حیوانات	3491
25	3492
صند	3493
##لات	3494
قبول	3495
والدین	3496
ممن	3497
روب	3498
خلاق	3499
زندان	3500
##ه‌هایی	3501
طلا	3502
چینی	3503
##عیف	3504
محدودیت	3505
ژاپن	3506
آشکار	3507
خودمان	3508
مستقل	3509
صدا	3510
گون	3511
نفس	3512
واقعاً	3513
احساسات	3514
##سات	3515
انتشار	3516
تلویزیون	3517
غربی	3518
##اصر	3519
نمایند	3520
اکت	3521
ماد	3522
##ورش	3523
اعتر	3524
به‌ع	3525
بست	3526
سگ	3527
کلمات	3528
چاپ	3529
سرب	3530
مختلفی	3531
استاد	3532
آوردن	3533
رایگان	3534
16	3535
سلامتی	3536
هشدار	3537
##کرو	3538
خرو	3539
زیبایی	3540
مشغول	3541
درس	3542
مناف	3543
مي	3544
کیل	3545
قدرتمند	3546
دفت	3547
مام	3548
##ورک	3549
واب	3550
##ایه	3551
گوشی	3552
؟»	3553
نتوان	3554
سالگی	3555
گردش	3556
اقامت	3557
عوض	3558
علوم	3559
اروپایی	3560
الان	3561
تهیه	3562
##پر	3563
نظام	3564
مذه	3565
برقرار	3566
تایید	3567
##اندن	3568
اداره	3569
گفتند	3570
فن	3571
نباشد	3572
##ul	3573
میشود	3574
##یمان	3575
##وله	3576
متحد	3577
روزی	3578
بچ	3579
سین	3580
قه	3581
##‌اش	3582
دهم	3583
فیس	3584
پناه	3585
##گن	3586
استرال	3587
هسته	3588
ول	3589
کری	3590
مقر	3591
##غن	3592
رهبران	3593
لحاظ	3594
50	3595
جراحی	3596
مخاط	3597
خورشید	3598
تضمین	3599
فرض	3600
##قیه	3601
استرالیا	3602
##ia	3603
می‌باشد	3604
دادگاه	3605
راحت	3606
افزود	3607
راهی	3608
ستاره	3609
مخصوص	3610
##od	3611
داشتم	3612
##um	3613
##دهد	3614
دلایل	3615
اون	3616
رانند	3617
com	3618
خیر	3619
وسیله	3620
زد	3621
عین	3622
میدان	3623
تحریم	3624
خوشحال	3625
تجه	3626
خوی	3627
دام	3628
چگون	3629
نماید	3630
تری	3631
داری	3632
فهم	3633
آورده	3634
##ومی	3635
##زمان	3636
درخت	3637
موضو	3638
مصاح	3639
تجهیز	3640
##ادث	3641
##ویق	3642
فعلی	3643
احترام	3644
نشد	3645
تولد	3646
##نز	3647
صنعتی	3648
آپ	3649
دین	3650
کارآ	3651
نظارت	3652
پادش	3653
العاده	3654
به‌طور	3655
آگاهی	3656
##یسی	3657
##اهد	3658
شیوه	3659
تبلیغات	3660
14	3661
رشته	3662
خاک	3663
۱۲	3664
ایمان	3665
عربستان	3666
چگونگی	3667
خدای	3668
##کات	3669
فرست	3670
یون	3671
گران	3672
سازد	3673
##سل	3674
مکانی	3675
حفاظت	3676
عادی	3677
می‌کردند	3678
میکند	3679
تمایل	3680
شمال	3681
##بیل	3682
قربانی	3683
مجموع	3684
دقت	3685
فرود	3686
متم	3687
عجی	3688
گذار	3689
منافع	3690
اصل	3691
بگذارید	3692
مطلب	3693
##بینی	3694
سبز	3695
رت	3696
##ذی	3697
دفتر	3698
##ter	3699
re	3700
گام	3701
امتح	3702
##بیر	3703
شیمیایی	3704
پو	3705
بدهید	3706
بریتانیا	3707
##گردد	3708
گذاشته	3709
می‌گیرد	3710
ترجی	3711
نیازمند	3712
منتقل	3713
ریس	3714
##کلی	3715
##زل	3716
گم	3717
رنج	3718
نویسنده	3719
می‌گیر	3720
نشست	3721
الکترونی	3722
مفه	3723
دربار	3724
شهری	3725
فروشگاه	3726
تقریباً	3727
##الم	3728
بدست	3729
طبیعت	3730
کوه	3731
##باری	3732
بیمارستان	3733
امتحان	3734
##گذارد	3735
تعط	3736
گروهی	3737
نحوه	3738
##خواهند	3739
شاهد	3740
پیش‌	3741
##رایی	3742
چنان	3743
منتظر	3744
فلسط	3745
نوعی	3746
گذشت	3747
جنوب	3748
هزاران	3749
عفونت	3750
وید	3751
##ریزی	3752
ایمنی	3753
عقب	3754
##عم	3755
کارگران	3756
اسم	3757
دعوت	3758
##ess	3759
وبلاگ	3760
ch	3761
روغن	3762
شده‌	3763
##ه‌ایم	3764
نقاط	3765
کلید	3766
بتوانند	3767
نوزاد	3768
تامین	3769
۳۰	3770
##فانه	3771
محس	3772
منحصر	3773
....	3774
##فاقی	3775
بستگی	3776
دانم	3777
اتفاقی	3778
ترجیح	3779
اوایل	3780
تعدادی	3781
##گزاری	3782
نگهداری	3783
##‌س	3784
رادی	3785
آسمان	3786
به‌عنوان	3787
.[	3788
تخصص	3789
حاف	3790
##ip	3791
##and	3792
ویتامین	3793
حملات	3794
متصل	3795
یهودی	3796
هرچ	3797
اصول	3798
رهبر	3799
17	3800
تعهد	3801
حتما	3802
##سک	3803
##انگی	3804
توصیف	3805
طوری	3806
##بخ	3807
قرارداد	3808
عک	3809
جذاب	3810
خواسته	3811
دریایی	3812
دسته	3813
کارها	3814
##حیح	3815
قهوه	3816
اعد	3817
##اده‌	3818
##اضی	3819
##ویم	3820
##ردگی	3821
بید	3822
دیر	3823
رح	3824
##روم	3825
ارد	3826
انگل	3827
ملاقات	3828
نبا	3829
تقاض	3830
##گین	3831
مهاجرت	3832
مایل	3833
##th	3834
##راسی	3835
آفر	3836
##op	3837
ژان	3838
##اما	3839
ترجمه	3840
گفتم	3841
پنه	3842
سرزمین	3843
می‌گویند	3844
بقیه	3845
پاید	3846
بردن	3847
##تناب	3848
الهی	3849
##ab	3850
عبور	3851
وظیف	3852
جع	3853
سک	3854
سوخت	3855
افتد	3856
اجتناب	3857
اهل	3858
مزایای	3859
تئ	3860
برچ	3861
بودیم	3862
گیاه	3863
##وسی	3864
کنی	3865
جایزه	3866
نیوی	3867
باغ	3868
پیروزی	3869
##ce	3870
##ایق	3871
بروید	3872
تاکنون	3873
مدیران	3874
کانال	3875
شویم	3876
میلادی	3877
بروز	3878
بودجه	3879
ارتباطات	3880
چپ	3881
آزمون	3882
قهر	3883
فراتر	3884
جلسه	3885
تکنیک	3886
بهتری	3887
رست	3888
تشویق	3889
and	3890
مقاومت	3891
انجمن	3892
باره	3893
۱۰۰	3894
اصلا	3895
پدید	3896
فرایند	3897
نامیده	3898
ناراح	3899
مخالف	3900
۱۸	3901
روست	3902
##مولی	3903
عادت	3904
گناه	3905
پیشرفته	3906
آبی	3907
قبلا	3908
شهروندان	3909
رض	3910
##ولد	3911
فضا	3912
شف	3913
##یدم	3914
تجهیزات	3915
".	3916
توانم	3917
تعطیل	3918
سابق	3919
همانند	3920
فرار	3921
رویکرد	3922
سعودی	3923
سرباز	3924
آرز	3925
واض	3926
##ته	3927
##ویل	3928
برنده	3929
امسال	3930
بیشترین	3931
جایگاه	3932
سام	3933
یافتن	3934
اور	3935
ژن	3936
اضطر	3937
بتوانید	3938
طبقه	3939
بطور	3940
پخش	3941
اضافی	3942
برخوردار	3943
متمرکز	3944
سرگر	3945
نوج	3946
جامع	3947
بگویید	3948
برداشت	3949
##ابله	3950
##می‌	3951
سختی	3952
حضرت	3953
نیویورک	3954
درگیر	3955
شماست	3956
مقابله	3957
198	3958
»،	3959
سؤ	3960
##تامبر	3961
##av	3962
ادعا	3963
توجهی	3964
جنبش	3965
هیچ‌	3966
قدر	3967
معروف	3968
تفکر	3969
جزئیات	3970
ناد	3971
ورز	3972
##لط	3973
##دهی	3974
اندازی	3975
زندانی	3976
چیزهای	3977
شغلی	3978
قلبی	3979
چربی	3980
قرمز	3981
بزرگتر	3982
برچسب	3983
حو	3984
##if	3985
معل	3986
خطرناک	3987
واش	3988
##جع	3989
درستی	3990
معمولی	3991
می‌خ	3992
جزیره	3993
بدهد	3994
فرمود	3995
نات	3996
هیجان	3997
مداوم	3998
ریسک	3999
کر	4000
##ct	4001
امپ	4002
اختلاف	4003
sp	4004
فنی	4005
توزی	4006
دائ	4007
سپتامبر	4008
لینک	4009
رها	4010
##اکی	4011
خریداری	4012
حداک	4013
آشنا	4014
##صورت	4015
تاکید	4016
بخور	4017
ملت	4018
افسردگی	4019
فوتبال	4020
جاد	4021
بنا	4022
پلا	4023
##ثار	4024
##حیه	4025
آیند	4026
تخم	4027
##نوعی	4028
##ئت	4029
دیوار	4030
عهده	4031
جس	4032
بیت	4033
دقیقا	4034
استان	4035
ناگه	4036
مالیات	4037
مالک	4038
بخوانید	4039
می‌رود	4040
##یدند	4041
پذیرش	4042
ad	4043
امتی	4044
اعتبار	4045
انگلستان	4046
##ژانس	4047
##ندن	4048
نیرو	4049
توزیع	4050
ثانیه	4051
کنفر	4052
پرسش	4053
پن	4054
بگویم	4055
مصاحبه	4056
روزنامه	4057
اختلال	4058
##ازید	4059
کرب	4060
برده	4061
خیابان	4062
فارغ	4063
پنهان	4064
پیاده	4065
##شناسان	4066
40	4067
##وذ	4068
بدین	4069
اصط	4070
بارداری	4071
زم	4072
##لیم	4073
محتوا	4074
جستجوی	4075
ایتال	4076
##گویی	4077
متق	4078
نیازی	4079
مى	4080
پیوند	4081
هرچند	4082
pro	4083
كن	4084
نماز	4085
##اورد	4086
##ذیه	4087
ایتالیا	4088
شای	4089
صاد	4090
می‌ز	4091
پاکستان	4092
حاوی	4093
خاور	4094
رز	4095
سند	4096
همزمان	4097
##ازند	4098
روزهای	4099
لطفا	4100
goo	4101
لغ	4102
##گاری	4103
هماه	4104
##ستر	4105
برآورد	4106
می‌خواهد	4107
صحیح	4108
هزین	4109
##جایی	4110
هم‌	4111
محسوب	4112
رمز	4113
##کری	4114
عجیب	4115
واضح	4116
تز	4117
##کده	4118
تجزی	4119
صحنه	4120
افتاده	4121
رتبه	4122
دم	4123
##ریح	4124
تنهایی	4125
سفار	4126
مراحل	4127
##رافیک	4128
##حالی	4129
اتص	4130
پروتئین	4131
de	4132
##بد	4133
می‌پ	4134
اسب	4135
طل	4136
##او	4137
پرورش	4138
مرور	4139
دیدار	4140
##فس	4141
شورای	4142
##آور	4143
تغذیه	4144
##فاوتی	4145
مجوز	4146
کردید	4147
24	4148
##سین	4149
سوء	4150
اشک	4151
مسیح	4152
##امله	4153
مقد	4154
حداکثر	4155
tr	4156
قتل	4157
نیمه	4158
دشمن	4159
##وال	4160
##خره	4161
کارهایی	4162
اتوم	4163
##راحت	4164
کنفرانس	4165
حاک	4166
##اساس	4167
تیر	4168
##لو	4169
متعد	4170
بازداشت	4171
ممنوع	4172
مفهوم	4173
آثار	4174
##کراسی	4175
وظیفه	4176
فهر	4177
##ie	4178
##og	4179
فرانس	4180
استخدام	4181
دس	4182
ماج	4183
واشنگ	4184
بخواهید	4185
##‌که	4186
تاسیس	4187
مبتنی	4188
چار	4189
می‌بین	4190
بزرگسال	4191
سنت	4192
نمی‌تواند	4193
تجزیه	4194
لندن	4195
دانند	4196
مصر	4197
افتخ	4198
فضایی	4199
##...]	4200
ضعیف	4201
کلیک	4202
بپرس	4203
رانندگی	4204
یخ	4205
آمار	4206
انع	4207
کارشناسی	4208
سرمایه‌گذاری	4209
صادق	4210
واشنگتن	4211
افکار	4212
تهران	4213
[...]	4214
بدتر	4215
می‌آید	4216
##مع	4217
##غم	4218
نمی‌شود	4219
##000	4220
##ack	4221
ارزان	4222
##یتالی	4223
گذر	4224
سخنرانی	4225
بهداشتی	4226
سقوط	4227
عرو	4228
##یش	4229
براساس	4230
مطل	4231
تعامل	4232
ببرید	4233
un	4234
نیمی	4235
##کش	4236
بالق	4237
اپل	4238
نادر	4239
کمبود	4240
پایگاه	4241
غیرق	4242
نمایید	4243
می‌خواهید	4244
مذاکره	4245
##وج	4246
تکمیل	4247
##دهم	4248
##اختی	4249
آهنگ	4250
اثرات	4251
امتیاز	4252
قض	4253
مند	4254
##یید	4255
##ویسی	4256
##ity	4257
بپرد	4258
حافظه	4259
تمیز	4260
بهشت	4261
گوشت	4262
ندارید	4263
al	4264
موقع	4265
حکم	4266
.)	4267
##وئن	4268
##‌ی	4269
کمتری	4270
همچون	4271
می‌داد	4272
صبر	4273
##زان	4274
##میر	4275
##جد	4276
ترکی	4277
منطق	4278
##ورو	4279
سهام	4280
سنتی	4281
چهارم	4282
پایدار	4283
هرک	4284
ar	4285
تاز	4286
ویدی	4287
##‌ن	4288
امضا	4289
بازسازی	4290
مساله	4291
شرکت‌های	4292
گرفتند	4293
نفوذ	4294
ویروس	4295
اخلاقی	4296
کشاورزی	4297
##gle	4298
##ob	4299
##ادار	4300
##اع	4301
##صله	4302
موب	4303
دارایی	4304
تحمل	4305
خانگی	4306
دموکر	4307
ماست	4308
دانید	4309
بازیکن	4310
بیمه	4311
موسسه	4312
شانس	4313
بیاور	4314
معماری	4315
مول	4316
نژ	4317
برتر	4318
گفتن	4319
ساختن	4320
ne	4321
شرک	4322
دستیابی	4323
مذهبی	4324
##وایی	4325
نزدیکی	4326
کارگر	4327
##ard	4328
خلاصه	4329
بیدار	4330
##مر	4331
پزشکان	4332
مذاکرات	4333
خویش	4334
اصطلاح	4335
۱۳	4336
##ابند	4337
عدد	4338
كرد	4339
##‌شده	4340
پیامبر	4341
مشهور	4342
صاحب	4343
اکتبر	4344
احتمالاً	4345
تابستان	4346
آلمانی	4347
ندارم	4348
بالقوه	4349
se	4350
##بل	4351
وابسته	4352
خاورمی	4353
سرک	4354
استقل	4355
##شوند	4356
##پار	4357
هویت	4358
۵۰	4359
نظریه	4360
ترا	4361
##شای	4362
##فاصله	4363
انگیزه	4364
پادشاه	4365
ap	4366
طراح	4367
عیسی	4368
سالانه	4369
آزمایشگاه	4370
حیات	4371
مبل	4372
کات	4373
هسته‌ای	4374
رضایت	4375
هور	4376
مدتی	4377
اتم	4378
میوه	4379
میکنند	4380
بارها	4381
تأیید	4382
مهندسی	4383
زودی	4384
##20	4385
معامله	4386
خشک	4387
نابود	4388
##عف	4389
##اریس	4390
مانع	4391
رویداد	4392
نوجوان	4393
عزی	4394
چش	4395
مناس	4396
##بیند	4397
انگشت	4398
مارس	4399
کیلوم	4400
جاری	4401
حجم	4402
##کسی	4403
سال‌های	4404
خاورمیانه	4405
پان	4406
##مالی	4407
دهان	4408
مدارس	4409
60	4410
بازیکنان	4411
بلافاصله	4412
آژانس	4413
خال	4414
##رق	4415
##نس	4416
تدری	4417
فهرست	4418
000	4419
آمیز	4420
##ه‌اش	4421
سران	4422
گفتگو	4423
2015	4424
غذاهای	4425
##est	4426
فرانسوی	4427
sh	4428
##فل	4429
چهره	4430
انداخت	4431
جد	4432
##‌کننده	4433
کارمندان	4434
هواپیما	4435
افتخار	4436
on	4437
ترد	4438
سور	4439
##گانی	4440
اولویت	4441
رستوران	4442
بور	4443
##رتان	4444
نوشید	4445
قطعا	4446
##اخر	4447
سیگار	4448
##خان	4449
##خیر	4450
مصنوعی	4451
مراسم	4452
تحصیلی	4453
عذ	4454
موزه	4455
google	4456
استقلال	4457
خرد	4458
مض	4459
مشاوره	4460
دسامبر	4461
جنبه	4462
وحشت	4463
bl	4464
باشگاه	4465
معنا	4466
احتی	4467
197	4468
##نمایی	4469
آدرس	4470
دف	4471
شاد	4472
##اهیم	4473
ایالت	4474
نقاشی	4475
پردازش	4476
!»	4477
طال	4478
باد	4479
معی	4480
گاه	4481
##طی	4482
مثلا	4483
##اکس	4484
انگلیس	4485
ip	4486
##ستند	4487
دومین	4488
آیت	4489
سنگین	4490
ph	4491
##ist	4492
##eb	4493
##صیل	4494
بیست	4495
اجرایی	4496
می‌توانیم	4497
صدها	4498
ایستگاه	4499
شوه	4500
##ra	4501
برا	4502
اوب	4503
اواخر	4504
کشوری	4505
عناصر	4506
##خواهیم	4507
ژانویه	4508
عصر	4509
سیاره	4510
عمده	4511
سطوح	4512
تحقیقاتی	4513
آزار	4514
##دهند	4515
داروهای	4516
التح	4517
راهن	4518
صفحات	4519
نمایشگاه	4520
آهن	4521
شار	4522
نقشه	4523
نبوده	4524
معتبر	4525
قالب	4526
پاریس	4527
۱۱	4528
##عش	4529
نوامبر	4530
شریک	4531
مجلس	4532
مراج	4533
برنامه‌	4534
توی	4535
ژوئن	4536
##روی	4537
برخ	4538
مدرک	4539
نداریم	4540
۱۹۹	4541
متخصصان	4542
دموکراسی	4543
تون	4544
##اقع	4545
نمی‌دان	4546
شرقی	4547
برجسته	4548
اعتراض	4549
موبایل	4550
آلب	4551
##زام	4552
##ub	4553
دهندگان	4554
بزنید	4555
خالی	4556
چای	4557
اکث	4558
روبرو	4559
نبرد	4560
##اغ	4561
می‌‌	4562
همه‌ی	4563
همکاران	4564
دیپ	4565
خاط	4566
سوز	4567
ناپ	4568
سبب	4569
حر	4570
##نظر	4571
نموده	4572
جوانان	4573
محمد	4574
محکوم	4575
موضوعات	4576
الکترونیکی	4577
جور	4578
جرم	4579
دک	4580
سان	4581
##ارهای	4582
شهرهای	4583
نگاهی	4584
##ive	4585
چک	4586
متاس	4587
متولد	4588
نمی‌کند	4589
##ate	4590
شفاف	4591
##‌جمه	4592
کارگردان	4593
زنج	4594
هنری	4595
امیدوارم	4596
خشم	4597
##جاست	4598
استق	4599
جنگل	4600
اثبات	4601
می‌س	4602
سرور	4603
مردی	4604
تصاد	4605
##ine	4606
عدالت	4607
مجدد	4608
اتصال	4609
!!	4610
بکن	4611
سادگی	4612
بیای	4613
می‌شن	4614
##‌مان	4615
هرگونه	4616
نزد	4617
انتقاد	4618
قا	4619
یك	4620
##برداری	4621
اسپانیا	4622
ورزشی	4623
مراجعه	4624
زخ	4625
##کز	4626
یکسان	4627
آرامش	4628
جلب	4629
##سیر	4630
می‌خواست	4631
داند	4632
هوای	4633
می‌گیرند	4634
تی	4635
##نای	4636
کمپانی	4637
فرودگاه	4638
جاده	4639
##هنی	4640
##ویب	4641
ظرفیت	4642
con	4643
##ak	4644
هستی	4645
معامل	4646
مشکلی	4647
کشید	4648
##art	4649
##لیلی	4650
##نوشت	4651
عصبی	4652
طیف	4653
برگرد	4654
ناخ	4655
مخفی	4656
این‌که	4657
خروج	4658
us	4659
مربی	4660
ارزشمند	4661
مکمل	4662
is	4663
##انو	4664
##ایف	4665
##فرم	4666
تصویب	4667
کاربردی	4668
##فرو	4669
##نجی	4670
منظم	4671
مجازات	4672
##ov	4673
##طرف	4674
وسایل	4675
متعلق	4676
نادیده	4677
##واری	4678
آمو	4679
دختران	4680
ران	4681
##‌پذیر	4682
##گا	4683
بافت	4684
دانشکده	4685
2017	4686
ورودی	4687
اوباما	4688
##ast	4689
مسابقه	4690
پرست	4691
##all	4692
خواستار	4693
آفریقا	4694
ترافیک	4695
نهاد	4696
##up	4697
خسته	4698
اسن	4699
2018	4700
آشپ	4701
مبلغ	4702
cl	4703
ریشه	4704
##کشی	4705
تحول	4706
ارتباطی	4707
سریال	4708
صنایع	4709
قهرمان	4710
##وقی	4711
دانیم	4712
غذای	4713
روانی	4714
21	4715
##تیک	4716
مجله	4717
عظیم	4718
##بندی	4719
باتری	4720
##روز	4721
نوشیدنی	4722
۲۵	4723
موشک	4724
مقدس	4725
ترکیبی	4726
##وپ	4727
مهمترین	4728
for	4729
شوم	4730
۱۴	4731
##ایان	4732
ریاست	4733
en	4734
غنی	4735
مراکز	4736
بالایی	4737
تماشا	4738
مسلمانان	4739
کارخانه	4740
دادم	4741
تجربی	4742
ارتقا	4743
پاداش	4744
سؤال	4745
بگوید	4746
نظری	4747
تحویل	4748
اختر	4749
صادرات	4750
شبک	4751
فردا	4752
منطقی	4753
شرق	4754
ارم	4755
لز	4756
##انیایی	4757
توق	4758
غیرم	4759
بالات	4760
تأمین	4761
فری	4762
منع	4763
نوش	4764
پروژ	4765
سهم	4766
فعالیت‌های	4767
طالبان	4768
بدی	4769
کودکی	4770
انقلابی	4771
عربی	4772
نشود	4773
##افتد	4774
کاغ	4775
pl	4776
بفه	4777
متفاوتی	4778
مرغ	4779
مور	4780
##قیان	4781
مسیحی	4782
##صاب	4783
منزل	4784
راز	4785
برود	4786
نوآوری	4787
##ell	4788
اعدام	4789
حادث	4790
نر	4791
##زیک	4792
تحریک	4793
دائمی	4794
as	4795
کشیدن	4796
صندلی	4797
فدر	4798
ابتلا	4799
می‌خواهند	4800
بماند	4801
بمب	4802
پیش‌بینی	4803
قضا	4804
##جویی	4805
##طاف	4806
بنویس	4807
حقوقی	4808
برگشت	4809
##igh	4810
دون	4811
##50	4812
نظیر	4813
خانوادگی	4814
ریاضی	4815
am	4816
##لین	4817
##ارات	4818
علاق	4819
خوانده	4820
محیطی	4821
th	4822
ستار	4823
ظهور	4824
عوار	4825
##ماند	4826
ویند	4827
نمی‌کن	4828
هدی	4829
پولی	4830
کارشناسان	4831
رساند	4832
دیدم	4833
ex	4834
کاخ	4835
##لت	4836
دیابت	4837
اخبار	4838
کمپین	4839
وام	4840
##وگر	4841
##دهید	4842
سوالات	4843
چیزها	4844
خارجه	4845
2016	4846
لبخ	4847
انعطاف	4848
نیستم	4849
شرایطی	4850
سیم	4851
##‌گیری	4852
##شیدی	4853
کتابخانه	4854
ثروتمند	4855
استراحت	4856
کنگر	4857
رایج	4858
استراتژیک	4859
قی	4860
کوچکی	4861
وظایف	4862
##سول	4863
آلود	4864
مطالب	4865
##بند	4866
معلم	4867
کمونی	4868
تعادل	4869
انگار	4870
پنجره	4871
کفش	4872
اقیان	4873
##‌گر	4874
##ts	4875
##ri	4876
##غام	4877
باکتری	4878
گذارد	4879
احتمالی	4880
جانبی	4881
رک	4882
##‌ام	4883
استث	4884
برگزاری	4885
قلم	4886
کاربری	4887
ویندوز	4888
اذ	4889
دعا	4890
شکر	4891
قول	4892
درحالی	4893
می‌ن	4894
گرس	4895
گرچه	4896
مقدم	4897
جمعی	4898
نقض	4899
بگیریم	4900
رییس	4901
##ه‌است	4902
پرونده	4903
فیلتر	4904
ابزارهای	4905
تعطیلات	4906
##يم	4907
داشتیم	4908
احم	4909
سوئ	4910
##ائی	4911
میتواند	4912
##يت	4913
مهمان	4914
راهنمایی	4915
خطوط	4916
آورند	4917
##اگون	4918
##ey	4919
مطابق	4920
##ord	4921
کمیته	4922
سرانجام	4923
آفت	4924
حج	4925
رون	4926
##موز	4927
روزه	4928
تعجب	4929
مناسبی	4930
آیه	4931
الی	4932
##یتی	4933
تجدید	4934
تروریستی	4935
بزرگسالان	4936
التحصیل	4937
بیند	4938
بازنش	4939
این‌ها	4940
وضع	4941
خورشیدی	4942
شوروی	4943
شاخص	4944
##انگیز	4945
جی	4946
حرک	4947
راضی	4948
نقد	4949
کارآفر	4950
##جای	4951
داعش	4952
خلاف	4953
الهام	4954
عوارض	4955
شکن	4956
##ظاه	4957
میکرو	4958
##لیکی	4959
نظرات	4960
ناام	4961
دیپلم	4962
فدرال	4963
to	4964
##نظ	4965
##مور	4966
اندکی	4967
سیگن	4968
شناسی	4969
196	4970
واس	4971
##ثی	4972
آمدن	4973
الم	4974
تشکر	4975
آسیا	4976
نژاد	4977
ندید	4978
یو	4979
گردید	4980
خانواد	4981
شیطان	4982
بگذارد	4983
##لیک	4984
شواهد	4985
تئوری	4986
ht	4987
ذهنی	4988
ناس	4989
ژنتی	4990
##ادن	4991
منص	4992
الکتری	4993
##خواهم	4994
اتحاد	4995
ضرب	4996
##ّت	4997
##زده	4998
##ps	4999
##روید	5000
اخیرا	5001
کالج	5002
مداخ	5003
عکاسی	5004
22	5005
خبری	5006
گشت	5007
تکامل	5008
فس	5009
##‌پ	5010
شنیده	5011
ناحیه	5012
حساس	5013
کشد	5014
سیگنال	5015
خل	5016
رع	5017
مأ	5018
##ge	5019
سرنوشت	5020
نیستید	5021
درباره‌ی	5022
لبخند	5023
کنگره	5024
رفع	5025
علام	5026
کاب	5027
تفسیر	5028
برنامه‌های	5029
بنیاد	5030
معتقدند	5031
مقررات	5032
حادثه	5033
جغ	5034
خام	5035
رمان	5036
۱۶	5037
##زر	5038
هرچه	5039
دوستی	5040
##سلام	5041
مراقب	5042
اردو	5043
اضطراب	5044
آه	5045
##‌اف	5046
##‌کنندگان	5047
کشیده	5048
امکانات	5049
قضاوت	5050
سابقه	5051
پایت	5052
##ئید	5053
آمریکای	5054
ادع	5055
می‌خواهم	5056
گری	5057
##املی	5058
##فاعی	5059
پذیری	5060
پیروی	5061
رقم	5062
سفارش	5063
وجه	5064
گمان	5065
دراز	5066
برداری	5067
##ابید	5068
اوکر	5069
محاس	5070
وقوع	5071
2014	5072
##ill	5073
چرخه	5074
ماموریت	5075
سیر	5076
شادی	5077
مری	5078
##بخت	5079
خودکار	5080
بعدا	5081
اپلیکی	5082
اکس	5083
وف	5084
##بیت	5085
##چرخ	5086
بهر	5087
داوط	5088
۴۰	5089
آنقدر	5090
خورده	5091
متهم	5092
##لبان	5093
جنگی	5094
حدی	5095
##na	5096
روزها	5097
##مدت	5098
اکثریت	5099
زنی	5100
##هام	5101
استعد	5102
پیوست	5103
معادل	5104
نمایندگان	5105
کسب‌و	5106
بدهی	5107
##سیل	5108
معلوم	5109
کیلومتر	5110
بیایید	5111
90	5112
تظاه	5113
فال	5114
لم	5115
موقت	5116
دستگیر	5117
مجازی	5118
بزرگ‌ترین	5119
فرصتی	5120
اینترنتی	5121
فوری	5122
##راری	5123
##ورا	5124
مخدر	5125
خواند	5126
می‌دانند	5127
محاسبه	5128
ac	5129
ضعف	5130
مقی	5131
بازگرد	5132
بالاخره	5133
چشمان	5134
or	5135
پد	5136
##ماس	5137
شنبه	5138
نماینده	5139
##ستیک	5140
اتومبیل	5141
##اذ	5142
##عمل	5143
درگیری	5144
مواف	5145
تبلیغاتی	5146
هدیه	5147
pr	5148
دمای	5149
عقل	5150
می‌گفت	5151
بوک	5152
##‌سازی	5153
بیاید	5154
دوز	5155
کلیس	5156
موافقت	5157
##لز	5158
##ندگی	5159
موهای	5160
خواهان	5161
۱۹۸	5162
پدرش	5163
نفع	5164
جداگانه	5165
اپلیکیشن	5166
##ost	5167
تنوع	5168
پذیرفته	5169
ماندن	5170
مقیاس	5171
اي	5172
همه‌	5173
اوست	5174
یادآوری	5175
بانکی	5176
استخوان	5177
ضمن	5178
فول	5179
##کب	5180
##pl	5181
همگی	5182
جوام	5183
هنرمند	5184
رعایت	5185
le	5186
سئو	5187
##ساز	5188
کنونی	5189
الگو	5190
##‌تری	5191
میدهد	5192
انح	5193
عمد	5194
۱۹۷	5195
تردید	5196
بوی	5197
نخواهند	5198
یورو	5199
باردار	5200
ناراحت	5201
آلودگی	5202
بخواهد	5203
جر	5204
خن	5205
##اوز	5206
##فج	5207
##ایم	5208
آنتی	5209
بدترین	5210
ایمن	5211
تأکید	5212
لحظ	5213
sc	5214
له	5215
##عاد	5216
استد	5217
می‌ی	5218
متعهد	5219
سرخ	5220
الکل	5221
همان‌	5222
ساحل	5223
بدهند	5224
80	5225
باری	5226
راجع	5227
##مانه	5228
روشی	5229
اقیانوس	5230
ناه	5231
داده‌اند	5232
نمی‌کنند	5233
مخل	5234
دانشگاهی	5235
واژه	5236
حیاتی	5237
زودتر	5238
لغو	5239
سرکوب	5240
متاسفانه	5241
علامت	5242
##se	5243
##ud	5244
mar	5245
شرح	5246
کارمند	5247
بدانند	5248
جلسات	5249
ببینند	5250
رم	5251
##سایت	5252
##‌م	5253
##ue	5254
##اهایی	5255
تحصیلات	5256
الکتریکی	5257
وار	5258
وال	5259
##گرام	5260
دیوان	5261
مسلح	5262
##رگانی	5263
##ind	5264
نویسندگان	5265
تخت	5266
بیانیه	5267
تحقق	5268
##‌‌‌‌	5269
پلت	5270
ویدئ	5271
ندهید	5272
برزی	5273
##ترس	5274
توپ	5275
اتخ	5276
مستند	5277
تازگی	5278
ردی	5279
##ib	5280
##مره	5281
##ماً	5282
##ازیم	5283
مقالات	5284
استانداردهای	5285
فلسطینی	5286
نان	5287
می‌برد	5288
خودت	5289
جلوی	5290
تزریق	5291
ثبات	5292
لایه	5293
##ير	5294
خراب	5295
مواردی	5296
ظاهرا	5297
دامنه	5298
حین	5299
غم	5300
##التی	5301
##خواهی	5302
##مورد	5303
غیره	5304
خبرنگ	5305
##our	5306
صندوق	5307
بپرسید	5308
اتخاذ	5309
زوج	5310
##وین	5311
احساسی	5312
جیم	5313
##ain	5314
نیک	5315
تروریسم	5316
اوکراین	5317
هار	5318
##خاص	5319
صرفه	5320
فلسفه	5321
ببرد	5322
فای	5323
۱۷	5324
##ونا	5325
موج	5326
##ارتمان	5327
رئیس‌جمه	5328
آوریل	5329
کلاسی	5330
اسناد	5331
پیمان	5332
##اتور	5333
فقر	5334
برقراری	5335
آک	5336
عر	5337
ببینیم	5338
ببیند	5339
”.	5340
##ابتی	5341
فیزیک	5342
پایتخت	5343
دبیر	5344
راه‌	5345
##فرمای	5346
دادیم	5347
پیشین	5348
پیشگیری	5349
##رسد	5350
دلاری	5351
شکایت	5352
مرتب	5353
راهنمای	5354
23	5355
هاست	5356
فقیر	5357
ادبی	5358
تماشای	5359
دستورال	5360
ابراز	5361
ضبط	5362
##ft	5363
سالی	5364
جمعه	5365
##ولیک	5366
سلط	5367
می‌کردم	5368
خلی	5369
##لر	5370
بردار	5371
اسکن	5372
زمینی	5373
گروه‌های	5374
کمیسیون	5375
بعنوان	5376
##ect	5377
مالکیت	5378
##کم	5379
##‌ت	5380
##ver	5381
درب	5382
##ant	5383
شکلی	5384
می‌خواهیم	5385
مؤثر	5386
سکوت	5387
هورمون	5388
جوامع	5389
عاط	5390
ویزای	5391
شرکت‌ها	5392
وبسایت	5393
بنیان	5394
##چوب	5395
درمورد	5396
دشمنان	5397
مهرب	5398
حرفه‌ای	5399
2012	5400
۱۹۶	5401
خوشبخت	5402
موجودات	5403
کاغذ	5404
فوریه	5405
ني	5406
##ba	5407
##انگ	5408
کنون	5409
برایش	5410
مرده	5411
سازنده	5412
مهم‌ترین	5413
حسابداری	5414
نوشیدن	5415
استدلال	5416
زرد	5417
##سور	5418
بهار	5419
##یدان	5420
انفج	5421
خودکشی	5422
روس	5423
پیگیری	5424
بکار	5425
نکند	5426
##ایر	5427
شدیم	5428
چندان	5429
سازمانی	5430
194	5431
##ock	5432
حسین	5433
تخمین	5434
یهودیان	5435
هید	5436
گزین	5437
۲۴	5438
##فون	5439
میر	5440
##برگ	5441
اتوب	5442
پرورد	5443
کاند	5444
درخ	5445
یک‌	5446
##ویز	5447
گربه	5448
شرط	5449
##ضاع	5450
مخاطبان	5451
شارژ	5452
):	5453
..	5454
##الله	5455
گرفتم	5456
محدوده	5457
بومی	5458
اختراع	5459
سم	5460
شکار	5461
هیئت	5462
کوین	5463
آلوده	5464
سرگرم	5465
زمستان	5466
دستورالعمل	5467
برایم	5468
هایشان	5469
امت	5470
روزمره	5471
تجاوز	5472
طرز	5473
لات	5474
کالی	5475
##گزار	5476
##ارک	5477
##ابقات	5478
مشاغ	5479
اسید	5480
مسابقات	5481
عنصر	5482
پذیرفت	5483
مجددا	5484
برنامه‌ریزی	5485
##کتور	5486
نسبتا	5487
حقیقی	5488
##مزد	5489
تصویری	5490
مشابهی	5491
cr	5492
بشناس	5493
اینست	5494
مردمی	5495
اتمی	5496
قطعه	5497
استخراج	5498
کالری	5499
آرای	5500
خب	5501
ضربه	5502
کت	5503
کاش	5504
##لاک	5505
آمادگی	5506
حالیکه	5507
دلیلی	5508
کپی	5509
##وکس	5510
آنجایی	5511
سوسی	5512
جنایت	5513
##one	5514
انسان‌ها	5515
مغزی	5516
گذاشتن	5517
فلسطین	5518
سربازان	5519
برخلاف	5520
همدیگر	5521
اوضاع	5522
بخاطر	5523
مثلاً	5524
ژاپنی	5525
جعبه	5526
توقف	5527
بشن	5528
مون	5529
درحال	5530
نماد	5531
نباشید	5532
متقاضی	5533
سینه	5534
##پزش	5535
اینگونه	5536
##گرفت	5537
تجرب	5538
ساکن	5539
مخالفت	5540
شده‌است	5541
تقاضای	5542
[+	5543
حب	5544
##هی	5545
##كن	5546
##نجان	5547
##ort	5548
میزبان	5549
لبنان	5550
رودخانه	5551
بگوییم	5552
اتوبوس	5553
[+]	5554
تایل	5555
##ابری	5556
الگ	5557
##‌آوری	5558
بکشد	5559
روحانی	5560
هماهنگی	5561
گریه	5562
##شب	5563
راستی	5564
آنهایی	5565
موافق	5566
بازارهای	5567
پیچید	5568
[-	5569
قند	5570
نع	5571
##بای	5572
یکپار	5573
سال‌ها	5574
دوچرخ	5575
ندرت	5576
اشخاص	5577
تخصصی	5578
جغرافی	5579
[-]	5580
۶۰	5581
##ولت	5582
الت	5583
سوگ	5584
یادداشت	5585
احتیاج	5586
500	5587
لای	5588
##خوان	5589
باشه	5590
مقصد	5591
بازیگر	5592
نداد	5593
قطار	5594
سراغ	5595
کربن	5596
کسب‌وکار	5597
غلط	5598
می‌افتد	5599
##ه‌تر	5600
مدنی	5601
احمق	5602
28	5603
فاج	5604
فکری	5605
ناک	5606
##ml	5607
##روند	5608
قرص	5609
اشغال	5610
اراده	5611
تصمیمات	5612
تروریست	5613
طلاق	5614
70	5615
آری	5616
ناز	5617
نویسی	5618
کابل	5619
اجاره	5620
2019	5621
امپرات	5622
بخورید	5623
wh	5624
##ian	5625
##؟؟	5626
مسکو	5627
2013	5628
گیاهان	5629
خاطرات	5630
##ّا	5631
##زات	5632
##پرس	5633
##لاس	5634
##قیب	5635
##عیتی	5636
اتهام	5637
روش‌های	5638
##oun	5639
آلبوم	5640
کلاسیک	5641
35	5642
تویی	5643
كار	5644
بهینه	5645
##اخته	5646
داده‌های	5647
سیستم‌های	5648
مادرش	5649
دقیقاً	5650
تخریب	5651
موتورهای	5652
26	5653
طلب	5654
نکات	5655
کور	5656
##زاری	5657
باستان	5658
توج	5659
دیگه	5660
بزند	5661
تعمیر	5662
پرچ	5663
مبنی	5664
خلاقیت	5665
معاملات	5666
زای	5667
##iz	5668
باران	5669
مارک	5670
تلویزیونی	5671
شعر	5672
یونان	5673
حوادث	5674
عاطفی	5675
بص	5676
رف	5677
فریب	5678
آنرا	5679
کلاه	5680
##گویم	5681
##کوپ	5682
سبزی	5683
نداشتند	5684
ناگهانی	5685
##تاس	5686
##بتی	5687
می‌بر	5688
پرسید	5689
مؤس	5690
ویدئو	5691
نتیج	5692
اکسی	5693
جانب	5694
رقص	5695
جشنواره	5696
فیسب	5697
ناگهان	5698
صفر	5699
پره	5700
میانگین	5701
قطعات	5702
طرفداران	5703
نمی‌توانند	5704
آمدند	5705
اشتباهات	5706
می‌داند	5707
دموکراتیک	5708
ناپدید	5709
مشاغل	5710
جاب	5711
حامی	5712
رده	5713
##چیز	5714
##پرد	5715
##ارا	5716
##یری	5717
گواهی	5718
اعتباری	5719
پنجم	5720
حلقه	5721
##۰۰۰	5722
آورید	5723
موسسات	5724
رأ	5725
شست	5726
عز	5727
میرا	5728
برطرف	5729
##راس	5730
##ختن	5731
نقص	5732
تسلیم	5733
مهاجران	5734
مرزهای	5735
اتمام	5736
آشپز	5737
بهره‌	5738
عالم	5739
كند	5740
##حه	5741
نشسته	5742
تاریک	5743
تجربیات	5744
تنگ	5745
خنده	5746
##نیا	5747
##ولا	5748
رایانه	5749
مهاجر	5750
فساد	5751
برزیل	5752
web	5753
تسه	5754
برایتان	5755
گذاران	5756
می‌توانم	5757
گردشگری	5758
استعداد	5759
یابند	5760
##طوری	5761
انکار	5762
بیفت	5763
بازی‌های	5764
گردن	5765
بتوانیم	5766
پارلمان	5767
صوتی	5768
عظ	5769
##اعت	5770
استودی	5771
آنگاه	5772
داره	5773
دستمزد	5774
##ومه	5775
##کیه	5776
سوار	5777
##گذاران	5778
##فیف	5779
اشیا	5780
کلیسا	5781
##ice	5782
پدرم	5783
رفتارهای	5784
مخصوصا	5785
اشکال	5786
##ight	5787
آفتاب	5788
صلی	5789
عده	5790
##کین	5791
اسلح	5792
رسانی	5793
معناست	5794
وسیع	5795
سلول‌های	5796
همسرش	5797
شکنجه	5798
شاخ	5799
لوله	5800
یمن	5801
استی	5802
توسع	5803
کوچکتر	5804
کوتاهی	5805
لذا	5806
داروها	5807
میتوانید	5808
ویدیو	5809
نوجوانان	5810
جفت	5811
ونز	5812
##آم	5813
##end	5814
سایه	5815
ملک	5816
ابتدایی	5817
امریکایی	5818
سرگرمی	5819
لمس	5820
27	5821
جاس	5822
رنگی	5823
فش	5824
یاری	5825
##زاده	5826
##ولای	5827
سالهای	5828
تقاضا	5829
زخم	5830
الگوریت	5831
فیسبوک	5832
گویی	5833
##مایی	5834
##پا	5835
چراغ	5836
اهدا	5837
بدانیم	5838
آسانی	5839
ایتالی	5840
لا	5841
##دنی	5842
##وتری	5843
سیب	5844
اشتغال	5845
ضرورت	5846
اصلاحات	5847
36	5848
دینی	5849
شام	5850
شجا	5851
خواهر	5852
ببرند	5853
متعددی	5854
خلیج	5855
ونزوئ	5856
man	5857
##دل	5858
##pr	5859
##غیر	5860
منف	5861
خطرات	5862
مادرم	5863
می‌آورد	5864
بایست	5865
قربانیان	5866
te	5867
خاموش	5868
زنگ	5869
کلیه	5870
##ik	5871
##ld	5872
درونی	5873
محاسب	5874
مقاد	5875
متنوع	5876
پروتکل	5877
دکمه	5878
سوگند	5879
##انونی	5880
اجباری	5881
کلام	5882
شنید	5883
2011	5884
چارچوب	5885
##ورند	5886
##ویج	5887
##الیسم	5888
ادغام	5889
##گذشت	5890
پیروز	5891
تمرینات	5892
می‌دانیم	5893
متعدد	5894
بالاترین	5895
تسهیل	5896
مین	5897
الزام	5898
قبلاً	5899
هزینه‌های	5900
فیلی	5901
##co	5902
##لان	5903
##زرگ	5904
السلام	5905
تنش	5906
غیرقابل	5907
۲۱	5908
محض	5909
دریاچه	5910
سخنان	5911
##‌الله	5912
داوطلب	5913
سیل	5914
##تم	5915
##ax	5916
سالن	5917
معلمان	5918
شهرد	5919
خرج	5920
عقیده	5921
اخلاق	5922
صاحبان	5923
برآورده	5924
پرچم	5925
##ox	5926
##ادمی	5927
##دهنده	5928
##میلی	5929
کارآمد	5930
سالها	5931
ناپذیر	5932
گواه	5933
وضوح	5934
تنظیمات	5935
می‌دانید	5936
مزیت	5937
می‌خوان	5938
تدریس	5939
استقبال	5940
می‌یابد	5941
##مار	5942
کارکرد	5943
تومور	5944
خواهی	5945
رسیدگی	5946
برساند	5947
فراوانی	5948
تسلی	5949
فرستاده	5950
عزیز	5951
پروردگار	5952
sm	5953
حریم	5954
دفاعی	5955
##ss	5956
##بول	5957
##طبی	5958
##ازده	5959
باشی	5960
متأ	5961
مقداری	5962
شهادت	5963
دلم	5964
برسند	5965
وسیعی	5966
ناراحتی	5967
میراث	5968
##pt	5969
می‌دهید	5970
##ass	5971
مایکرو	5972
سینما	5973
##‌افزار	5974
رئیس‌جمهور	5975
هیدرو	5976
ایتالیایی	5977
be	5978
net	5979
ser	5980
خس	5981
##ire	5982
مید	5983
روم	5984
اوج	5985
نظرس	5986
رفتم	5987
آیات	5988
##ang	5989
راننده	5990
at	5991
غال	5992
​​	5993
##دهای	5994
##زن	5995
##ure	5996
کرده‌اید	5997
روایت	5998
متش	5999
نیستیم	6000
نامزد	6001
تعلق	6002
2008	6003
شیرین	6004
##age	6005
آرزو	6006
ژنتیکی	6007
اکسیژن	6008
نگ	6009
نخواهید	6010
##ix	6011
##طل	6012
مطلق	6013
شناختی	6014
اخراج	6015
دخالت	6016
مبنای	6017
میکنم	6018
هماهنگ	6019
حاکم	6020
زنجیره	6021
کالیفر	6022
300	6023
آو	6024
فزای	6025
لنز	6026
مجه	6027
##30	6028
##ایلی	6029
برمی‌	6030
ارتفاع	6031
بشری	6032
مداخله	6033
غالبا	6034
دگر	6035
پوند	6036
##يل	6037
داغ	6038
دستاورد	6039
##خواب	6040
حساسی	6041
##are	6042
عضلات	6043
##وفان	6044
غیرقانونی	6045
می‌شناس	6046
مأم	6047
مقادیر	6048
نظرسنجی	6049
45	6050
he	6051
قایق	6052
بعدها	6053
شنیدن	6054
شهرها	6055
بسازید	6056
طلایی	6057
دوچرخه	6058
کاف	6059
۲۲	6060
##ber	6061
##پل	6062
محور	6063
افسر	6064
بخشد	6065
سازگار	6066
رفتاری	6067
۲۰۱۵	6068
ویرایش	6069
شرکتی	6070
خالص	6071
گال	6072
##te	6073
##گاهی	6074
##وسف	6075
##ore	6076
دریای	6077
بچه‌ها	6078
خند	6079
##تو	6080
می‌توانست	6081
اعط	6082
قدرد	6083
تأسیس	6084
ابتدای	6085
شهروند	6086
همسایه	6087
ونزوئلا	6088
دوی	6089
سنی	6090
واکس	6091
##رید	6092
بروند	6093
##ه‌گیری	6094
اسک	6095
بلوک	6096
##ite	6097
مرتکب	6098
هنرمندان	6099
##ook	6100
فوق‌ال	6101
پرتاب	6102
آپارتمان	6103
رحم	6104
تظاهرات	6105
im	6106
طعم	6107
عج	6108
##سافت	6109
##برت	6110
##طانی	6111
باب	6112
مسدود	6113
##مندی	6114
می‌دهیم	6115
مشکلاتی	6116
عبارتند	6117
مولک	6118
کلیسای	6119
آکادمی	6120
فیلیپ	6121
دز	6122
##يه	6123
ناشن	6124
عمق	6125
سپاس	6126
##کوک	6127
صدور	6128
بپذیر	6129
ماجرا	6130
انفجار	6131
الگوریتم	6132
بصورت	6133
ربات	6134
صلاح	6135
ملاح	6136
پاپ	6137
۸۰	6138
##ust	6139
برمی	6140
هایش	6141
##ربزرگ	6142
مطالع	6143
##ace	6144
محافظ	6145
گوناگون	6146
عذاب	6147
it	6148
##وما	6149
معج	6150
سرقت	6151
نظم	6152
نمون	6153
رفتند	6154
سازماندهی	6155
پشتی	6156
موضوعی	6157
فریاد	6158
توییتر	6159
شایع	6160
##اشت	6161
##میمی	6162
بابت	6163
کشورهایی	6164
شهرت	6165
ابعاد	6166
سایبری	6167
خواستم	6168
بگذارند	6169
"،	6170
ed	6171
بنگ	6172
##ضه	6173
مواقع	6174
معدن	6175
بازیگران	6176
اصلاً	6177
اتفاقات	6178
ببینم	6179
مفاهیم	6180
روانشناسی	6181
کامپیوتری	6182
وسط	6183
سوئد	6184
تسلیح	6185
شبه	6186
##صدی	6187
باه	6188
دهی	6189
محرک	6190
محبت	6191
##اکت	6192
ستون	6193
انتظارات	6194
نمی‌توانید	6195
کانادایی	6196
مرورگر	6197
التها	6198
##شور	6199
##man	6200
میشه	6201
##اداری	6202
افرا	6203
پرنده	6204
2010	6205
نکنند	6206
مدارک	6207
محکم	6208
پدیده	6209
کالیفرنیا	6210
بت	6211
هلند	6212
وکیل	6213
##کشان	6214
##ّه	6215
##غه	6216
خودداری	6217
بیام	6218
مطب	6219
ماهه	6220
عملیاتی	6221
وحشی	6222
آفرین	6223
تند	6224
مکر	6225
کاپ	6226
##حق	6227
معدنی	6228
سرتاس	6229
نمیتوان	6230
جنس	6231
کتابی	6232
آشنایی	6233
آفریقای	6234
زندانیان	6235
قضیه	6236
التحصیلان	6237
جیمز	6238
آقا	6239
ادر	6240
##قین	6241
##ادله	6242
دیوید	6243
عموم	6244
سفارت	6245
افزوده	6246
فرمانده	6247
اقل	6248
تدا	6249
کب	6250
##aw	6251
دارویی	6252
##فرست	6253
آیفون	6254
بدهیم	6255
اسپانیایی	6256
دانستن	6257
می‌سازد	6258
خوشبختانه	6259
زایمان	6260
آشپزخانه	6261
جدایی	6262
##وود	6263
##io	6264
##qu	6265
می‌گردد	6266
ایفا	6267
متمای	6268
متقا	6269
ماهواره	6270
زیرس	6271
ائت	6272
پلی	6273
اولی	6274
##اسیون	6275
عبد	6276
جاذ	6277
معنوی	6278
بایستی	6279
درختان	6280
فاجعه	6281
اسلحه	6282
متقاعد	6283
mic	6284
عط	6285
غلب	6286
نرس	6287
الگوی	6288
##باشند	6289
مکزیک	6290
سومین	6291
طراحان	6292
تصادفی	6293
حرکات	6294
کارآفرین	6295
یکپارچه	6296
##وارد	6297
##وسته	6298
##ry	6299
##pn	6300
برداشته	6301
می‌گذ	6302
روحی	6303
امّا	6304
بینید	6305
نمی‌د	6306
##ork	6307
##ذیرد	6308
رادیو	6309
مضر	6310
ارمغان	6311
کمونیست	6312
جغرافیایی	6313
تها	6314
جنین	6315
##تاح	6316
##عان	6317
سوئیس	6318
بوجود	6319
ادبیات	6320
بخصوص	6321
جبران	6322
##شون	6323
میباشد	6324
بروم	6325
یکبار	6326
دوشنبه	6327
گرما	6328
##زایر	6329
نبودند	6330
توانستند	6331
رسانه‌های	6332
می‌زند	6333
همان‌طور	6334
لاتین	6335
سرتاسر	6336
##امون	6337
##شتر	6338
##وشید	6339
افتتاح	6340
بدهم	6341
فراوان	6342
دونالد	6343
گرسنگی	6344
مایکروسافت	6345
مجهز	6346
خونی	6347
وین	6348
##عکس	6349
##چنین	6350
##یتان	6351
اوت	6352
دائم	6353
معاصر	6354
واژ	6355
خروجی	6356
می‌زن	6357
بنویسید	6358
توجیه	6359
رأی	6360
پوی	6361
##ma	6362
متغیر	6363
مسأ	6364
##پیک	6365
سریعتر	6366
اسرائیلی	6367
بگویند	6368
اعتراف	6369
ناتو	6370
غلبه	6371
آند	6372
جویی	6373
فت	6374
ماری	6375
##حلی	6376
می‌گذارد	6377
ویزا	6378
سپری	6379
مالیاتی	6380
تعهدات	6381
می‌پرد	6382
شوهر	6383
فالون	6384
تایلند	6385
پری	6386
##کام	6387
##ّی	6388
دردن	6389
رسول	6390
ارتقاء	6391
توده	6392
پال	6393
##‌گذاری	6394
##ستری	6395
می‌گذار	6396
سازند	6397
2000	6398
شنا	6399
اداری	6400
نادرست	6401
co	6402
آذ	6403
عسل	6404
##وقت	6405
##عود	6406
استع	6407
سیاستم	6408
خیانت	6409
هواپیمای	6410
عصبانی	6411
مي‌	6412
اسباب	6413
بگذ	6414
چوب	6415
محروم	6416
مهر	6417
تجار	6418
تبادل	6419
2009	6420
فرزندتان	6421
##ــــ	6422
رفاه	6423
قائل	6424
ژوئ	6425
##ial	6426
استر	6427
می‌شوید	6428
شبانه	6429
##act	6430
دیجیتالی	6431
##بختی	6432
شبکه‌های	6433
ویدئویی	6434
اگه	6435
بغ	6436
عادل	6437
##سف	6438
##فکر	6439
##مید	6440
##مکن	6441
خواص	6442
مدعی	6443
بداند	6444
الف	6445
مسجد	6446
ماهیت	6447
جزو	6448
خونریزی	6449
خوراکی	6450
##بورگ	6451
بیاورید	6452
بیفتد	6453
دای	6454
سرو	6455
قوم	6456
##اون	6457
##10	6458
بوده‌اند	6459
##رسانی	6460
شهید	6461
۱۹۴	6462
حمام	6463
برادران	6464
آموخت	6465
جولای	6466
خستگی	6467
##اقی	6468
##مپ	6469
##per	6470
تاخیر	6471
امیر	6472
##اقد	6473
خطا	6474
لیزر	6475
ایستاده	6476
آماز	6477
قبر	6478
موان	6479
هل	6480
##له‌ی	6481
ماسا	6482
پیوسته	6483
سرما	6484
ترویج	6485
##کردن	6486
واردات	6487
مغذی	6488
مربوطه	6489
حرارت	6490
نک	6491
##مایشی	6492
زندگ	6493
##اطع	6494
نصف	6495
تضعیف	6496
شعار	6497
مسافرت	6498
مذهب	6499
شایسته	6500
ژوئیه	6501
بگ	6502
بلی	6503
دود	6504
عبار	6505
فو	6506
##وشی	6507
##يش	6508
##ff	6509
##شتی	6510
ساکنان	6511
حدس	6512
دندانپزش	6513
جسمی	6514
مطلوب	6515
سبزیجات	6516
جبه	6517
۷۰	6518
##کور	6519
##مود	6520
##ple	6521
استارت	6522
##ه‌شده	6523
محاک	6524
اسکات	6525
مسکن	6526
رساندن	6527
فروخته	6528
195	6529
بمانید	6530
حساسیت	6531
آمازون	6532
br	6533
gr	6534
جوش	6535
صدم	6536
##اتل	6537
##ه‌بندی	6538
کارفرمای	6539
تمدن	6540
مجسم	6541
نداده	6542
وب‌س	6543
لیبی	6544
شیو	6545
گواهین	6546
:«	6547
باند	6548
ویل	6549
##رهای	6550
##زاب	6551
می‌روند	6552
##ازن	6553
تاک	6554
##اقب	6555
نمی‌کرد	6556
خداست	6557
مشخصات	6558
سیاست‌های	6559
جنسیت	6560
ابراهیم	6561
بمانند	6562
ممنون	6563
نعمت	6564
زیرساخت	6565
hd	6566
تام	6567
پورت	6568
کامی	6569
کریم	6570
می‌گویم	6571
مهار	6572
مشتاق	6573
موضع	6574
مخاطب	6575
جدول	6576
ناهار	6577
عرصه	6578
29	6579
my	6580
عاد	6581
میشوند	6582
مسل	6583
رسمیت	6584
راهکار	6585
آلرژی	6586
شکسته	6587
گیاهی	6588
واجد	6589
۲۰۱۱	6590
مطمئ	6591
صبحانه	6592
بکشید	6593
بلاک	6594
ببخ	6595
فاقد	6596
يک	6597
برف	6598
نهادهای	6599
گویم	6600
می‌آیند	6601
بنیادی	6602
لوازم	6603
پژوهشگران	6604
رویدادهای	6605
سامسون	6606
اضطراری	6607
مخلوط	6608
حاشی	6609
##ئه	6610
##المه	6611
##ویسم	6612
املاک	6613
مشورت	6614
##وتین	6615
اعتصاب	6616
اختصاصی	6617
حاکمیت	6618
تیراند	6619
##نظامی	6620
بصری	6621
قدردانی	6622
pre	6623
you	6624
امان	6625
دي	6626
پید	6627
##نایی	6628
##ارف	6629
برسان	6630
پیکر	6631
اندروید	6632
تنفس	6633
##گهی	6634
##گوست	6635
مستقر	6636
کشتن	6637
مالزی	6638
معیار	6639
فولاد	6640
شیشه	6641
شلو	6642
کیس	6643
##شیم	6644
میکرد	6645
نفرت	6646
گسترد	6647
2007	6648
جمع‌آوری	6649
کیست	6650
مسافران	6651
واکسن	6652
وب‌سایت	6653
hiv	6654
me	6655
جمل	6656
غی	6657
2020	6658
بگیرم	6659
inter	6660
فارس	6661
نمایندگی	6662
مطلع	6663
ناسا	6664
امپراتوری	6665
سامسونگ	6666
حامل	6667
دانه	6668
شرم	6669
غرق	6670
۳۵	6671
##راهی	6672
##چال	6673
فرق	6674
نظرم	6675
کوبا	6676
رقابتی	6677
فرمول	6678
نوزادان	6679
اعداد	6680
زلز	6681
عاق	6682
کبد	6683
گاو	6684
##بیا	6685
##طری	6686
استن	6687
##ملل	6688
انتهای	6689
پسران	6690
سازمان‌های	6691
فیلم‌های	6692
۲۰۱۸	6693
سقف	6694
میکنید	6695
new	6696
اردوگاه	6697
پرهیز	6698
dna	6699
sy	6700
رغم	6701
سنین	6702
ون	6703
##‌‌های	6704
کهکشان	6705
کنه	6706
کمال	6707
دانشجویی	6708
پرندگان	6709
فیبر	6710
تلقی	6711
بیرونی	6712
مزمن	6713
سنج	6714
##رفت	6715
برگز	6716
##ه‌سازی	6717
شکاف	6718
بزنند	6719
زلزله	6720
32	6721
بنده	6722
بشود	6723
زبانی	6724
غول	6725
##سکی	6726
##sc	6727
درسی	6728
##ولین	6729
سرم	6730
داده‌ها	6731
به‌صورت	6732
بالغ	6733
اختل	6734
نفتی	6735
!!!	6736
واسطه	6737
تکان	6738
##‌انگیز	6739
##عاده	6740
##پت	6741
داستانی	6742
اندام	6743
تقد	6744
مهمتر	6745
ملکه	6746
##ics	6747
مایع	6748
جایگزینی	6749
ویتنام	6750
کریسم	6751
رکورد	6752
.(	6753
طوفان	6754
مداف	6755
##ron	6756
کارایی	6757
روزنام	6758
##مینی	6759
بخش‌های	6760
##گردانی	6761
۲۰۱۳	6762
##ome	6763
##ash	6764
تئاتر	6765
اینستا	6766
ائتلاف	6767
شلوغ	6768
خشن	6769
نوری	6770
##رون	6771
##قول	6772
##ph	6773
##كه	6774
##ارستان	6775
داوری	6776
##رفه	6777
بینیم	6778
دانشجو	6779
##درصد	6780
تغییراتی	6781
خواننده	6782
مشخصی	6783
##ولوژیکی	6784
۲۰۱۴	6785
فرستاد	6786
الکترونیک	6787
دموکرات	6788
ادرار	6789
گواهینامه	6790
خلبان	6791
چاق	6792
یقین	6793
##da	6794
##pe	6795
بدنی	6796
احزاب	6797
حقایق	6798
##ستیکی	6799
خواستند	6800
##ish	6801
مهارت‌های	6802
بشریت	6803
دشواری	6804
آست	6805
آگهی	6806
رؤ	6807
هج	6808
##رها	6809
ازای	6810
برعکس	6811
##اسط	6812
بازرگانی	6813
قطر	6814
۱۹۵	6815
2006	6816
پادشاهی	6817
خنک	6818
فزاینده	6819
31	6820
بوت	6821
مثبتی	6822
تبعی	6823
پرده	6824
راستای	6825
مایکل	6826
عروسی	6827
قلمرو	6828
کریسمس	6829
آینه	6830
روده	6831
کنس	6832
برایشان	6833
انیمی	6834
نوار	6835
انتخابی	6836
تلفنی	6837
نداشتم	6838
نرم‌افزار	6839
می‌رفت	6840
دردناک	6841
مطمئنا	6842
سه‌	6843
فور	6844
وج	6845
##ile	6846
##تیاد	6847
آرژ	6848
نابودی	6849
افسانه	6850
وابستگی	6851
؟"	6852
بفرو	6853
تپ	6854
جراح	6855
غاف	6856
ورد	6857
##وها	6858
##فاده	6859
##uc	6860
##ment	6861
تجویز	6862
اعتیاد	6863
مرات	6864
##ark	6865
گردند	6866
تاریکی	6867
گیرید	6868
خریداران	6869
جزء	6870
لیبر	6871
۱۹۳	6872
مکالمه	6873
جوانی	6874
رسیدند	6875
برسید	6876
پژوهشی	6877
مهربان	6878
بیاموز	6879
متمایز	6880
res	6881
قبیل	6882
##ly	6883
##ونگ	6884
کرده‌ایم	6885
بیاورد	6886
کمترین	6887
پیشرو	6888
می‌دانم	6889
رحمت	6890
ps	6891
پتان	6892
۹۰	6893
باستانی	6894
توانستم	6895
برنج	6896
آرامی	6897
پیشنهادی	6898
##ivers	6899
خودروهای	6900
کریست	6901
چنانچه	6902
##سترول	6903
ناشناخته	6904
اینستاگرام	6905
شلیک	6906
۵۰۰	6907
##ies	6908
##دست	6909
استرو	6910
بره	6911
اینجاست	6912
##الیستی	6913
سوپ	6914
بلو	6915
غذاها	6916
امروزی	6917
##ith	6918
نحو	6919
html	6920
آهسته	6921
باهوش	6922
موانع	6923
جوی	6924
کاست	6925
##له‌ای	6926
##پس	6927
بیکاری	6928
دیکت	6929
فرمت	6930
گفتار	6931
تشدید	6932
قطعی	6933
سخنگ	6934
مادران	6935
خلاص	6936
قطعاً	6937
نیروگاه	6938
75	6939
ic	6940
تکه	6941
فنجان	6942
کوش	6943
گیت	6944
##شو	6945
##آگاه	6946
##جنس	6947
دستان	6948
تغییری	6949
حسن	6950
##ory	6951
تلاش‌های	6952
دیروز	6953
آرزوی	6954
ناامید	6955
اختلالات	6956
))	6957
ab	6958
mac	6959
ثال	6960
غر	6961
غریب	6962
هندی	6963
وادار	6964
نیام	6965
معاون	6966
مشرو	6967
نوا	6968
اتری	6969
زنانی	6970
فلور	6971
لطف	6972
لزوم	6973
col	6974
سید	6975
##xt	6976
##ینو	6977
##ینت	6978
رابرت	6979
برو	6980
بودید	6981
دریافتند	6982
##ick	6983
همسای	6984
خلاقانه	6985
نتوانست	6986
روستایی	6987
انیمیشن	6988
توری	6989
تقل	6990
دوری	6991
غری	6992
##سو	6993
##اهو	6994
اسد	6995
اندیشه	6996
تحمیل	6997
##باح	6998
##وهید	6999
هیچکس	7000
کلسترول	7001
بیماری‌های	7002
طرفدار	7003
##جویان	7004
##وتیک	7005
درواقع	7006
شاع	7007
عمدتا	7008
لهستان	7009
ردیابی	7010
em	7011
قفل	7012
مستم	7013
نگار	7014
##اا	7015
##pa	7016
اینطور	7017
##ونزی	7018
ویلی	7019
می‌دهم	7020
نگرش	7021
همسرتان	7022
نمی‌دانم	7023
قاچ	7024
ستارگان	7025
بازنشستگی	7026
می‌برند	7027
بخو	7028
وای	7029
۲۳	7030
می‌کشد	7031
نمک	7032
##وطه	7033
متحدان	7034
اروپای	7035
خوانندگان	7036
پیرامون	7037
اذیت	7038
تبعیض	7039
آرژانت	7040
آگوست	7041
قاره	7042
##ردی	7043
معده	7044
##رایه	7045
بزرگ‌تر	7046
آزمایشی	7047
بیش‌تر	7048
گرفته‌اند	7049
##ans	7050
شهرستان	7051
##orld	7052
##پرست	7053
حتماً	7054
كنند	7055
دیپلماتیک	7056
پتانسیل	7057
تکیه	7058
شتاب	7059
‌های	7060
##کال	7061
##خر	7062
##انا	7063
همۀ	7064
دوام	7065
توانسته	7066
معبد	7067
سرز	7068
آنهاست	7069
همینطور	7070
پنجاه	7071
آدمی	7072
راه‌حل	7073
جاذبه	7074
400	7075
جک	7076
نما	7077
##ah	7078
درگذشت	7079
هاي	7080
الکس	7081
بازخورد	7082
اندک	7083
مسن	7084
خطاب	7085
۲۰۱۶	7086
کالا	7087
##ode	7088
سفارشی	7089
سوره	7090
جورج	7091
قیامت	7092
ur	7093
الا	7094
بکند	7095
##ایات	7096
##یرت	7097
##ath	7098
مخرب	7099
فروشنده	7100
فهمید	7101
رزرو	7102
قضایی	7103
قاچاق	7104
یار	7105
##ري	7106
##ورم	7107
دافا	7108
اسرار	7109
ابزاری	7110
آوردند	7111
##پیوند	7112
گوشه	7113
##‌آمیز	7114
عذر	7115
وحشتناک	7116
غیرممکن	7117
ادعای	7118
سلطنتی	7119
خات	7120
زح	7121
ظهر	7122
عام	7123
##az	7124
##oft	7125
کرده‌ام	7126
##ه‌ترین	7127
##میزی	7128
کارش	7129
##شاند	7130
لیگ	7131
مربع	7132
عواقب	7133
صرفاً	7134
تخلیه	7135
ویران	7136
می‌شدند	7137
عکاس	7138
کربوهید	7139
منطقه‌ای	7140
پلتفرم	7141
جبهه	7142
غافل	7143
قاضی	7144
مارت	7145
۰۰۰	7146
##زنی	7147
##ug	7148
درج	7149
راه‌اند	7150
برویم	7151
برلین	7152
همکار	7153
کنج	7154
##راسیون	7155
کارتان	7156
نقلیه	7157
##باران	7158
ساحلی	7159
اساسا	7160
بهبودی	7161
##‌انداز	7162
کشتار	7163
ترسناک	7164
بردند	7165
محاکمه	7166
تیراندازی	7167
tim	7168
ربط	7169
##sh	7170
##‌کنند	7171
##me	7172
اواسط	7173
دست‌	7174
اندیش	7175
اندونزی	7176
چراکه	7177
سطحی	7178
گیرنده	7179
امیدواریم	7180
مسئولان	7181
car	7182
حاکی	7183
خج	7184
زور	7185
زبال	7186
##ویض	7187
کردی	7188
##‌هایش	7189
##الیست	7190
##شدن	7191
اخذ	7192
ساعات	7193
ضرر	7194
مواجهه	7195
اکتش	7196
تصادف	7197
مأموریت	7198
ثالث	7199
راه‌اندازی	7200
**	7201
fl	7202
تابع	7203
سوا	7204
کرم	7205
##ینا	7206
##ابقت	7207
دیسک	7208
دستش	7209
عضل	7210
توضیحات	7211
شاهزاده	7212
چرخش	7213
هیچ‌کس	7214
seo	7215
نمی‌کنم	7216
کافئین	7217
micro	7218
مسأله	7219
بب	7220
سمی	7221
شل	7222
۴۵	7223
##مونی	7224
##oh	7225
درآورد	7226
کشی	7227
##رگان	7228
هیپ	7229
پایانی	7230
گرفتار	7231
شباه	7232
فعالان	7233
چهارشنبه	7234
ریزش	7235
مغازه	7236
شورشی	7237
##ide	7238
تورم	7239
univers	7240
شرکای	7241
##‌پذیری	7242
انحص	7243
الزامات	7244
بلیط	7245
ios	7246
vpn	7247
بخواهیم	7248
##۲۰	7249
##گام	7250
##ولان	7251
ماسک	7252
دوش	7253
مطابقت	7254
کتاب‌های	7255
دوستانه	7256
شکم	7257
##ence	7258
روشنایی	7259
dr	7260
بي	7261
فرک	7262
مظ	7263
##ئون	7264
##استفاده	7265
راهبرد	7266
اطاعت	7267
ماهانه	7268
زنند	7269
توصی	7270
نمی‌توانیم	7271
اظهارات	7272
مادری	7273
ندیده	7274
اشیاء	7275
کربوهیدرات	7276
war	7277
##نشین	7278
باق	7279
کارگردانی	7280
مدی	7281
##اطیسی	7282
غیرنظامی	7283
خانواده‌	7284
تاثیرات	7285
##‌آموز	7286
آفریقایی	7287
گذارند	7288
بکنید	7289
حاشیه	7290
qu	7291
بج	7292
جال	7293
نازی	7294
میانه	7295
آنج	7296
کنسول	7297
تصمیم‌گیری	7298
میزبانی	7299
##خواسته	7300
۲۰۱۰	7301
کالاهای	7302
دربارۀ	7303
پلاستیکی	7304
بخواهند	7305
قار	7306
پور	7307
پات	7308
کول	7309
گنج	7310
۲۷	7311
##اي	7312
##اداران	7313
گرایش	7314
تحسین	7315
اجزای	7316
نامش	7317
اصرار	7318
قدیم	7319
تعویض	7320
اشتیا	7321
شوخی	7322
سردرد	7323
مقاوم	7324
رادیویی	7325
پلاستیک	7326
می‌بینید	7327
المپیک	7328
فایده	7329
ماساژ	7330
ویلیام	7331
رهایی	7332
وری	7333
گور	7334
##مم	7335
##gr	7336
برتری	7337
بازتاب	7338
جهنم	7339
مدیریتی	7340
انسانها	7341
روشنی	7342
صرفا	7343
تخفیف	7344
فارسی	7345
ممنوعیت	7346
صادقانه	7347
درخشان	7348
شاخه	7349
التهاب	7350
آتی	7351
ببند	7352
تیمی	7353
تیره	7354
سح	7355
لس	7356
##ایتی	7357
داروی	7358
امواج	7359
محر	7360
##نگاری	7361
نوک	7362
گفت‌و	7363
نمی‌دهد	7364
تعبیر	7365
نمره	7366
ایدئ	7367
هواپیمایی	7368
جادویی	7369
متقابل	7370
سندرم	7371
آواز	7372
صلاحیت	7373
##میتی	7374
##‌هایشان	7375
محله	7376
متاب	7377
چهل	7378
نوبت	7379
...»	7380
نامح	7381
ایرلند	7382
تولیدی	7383
##ary	7384
##اپذیر	7385
قانع	7386
نسبتاً	7387
معتق	7388
اشتباهی	7389
مسیری	7390
نمودار	7391
##وئید	7392
پناهندگان	7393
سخنگوی	7394
pc	7395
قوا	7396
مگ	7397
پاره	7398
##دین	7399
##چین	7400
##ms	7401
برش	7402
##الو	7403
همراهی	7404
انق	7405
خودروی	7406
اموال	7407
کمکی	7408
بینایی	7409
شکلات	7410
ابتکار	7411
سریع‌تر	7412
۲۰۱۲	7413
متعادل	7414
1000	7415
زدند	7416
متشکل	7417
تسلیحات	7418
cd	7419
حسی	7420
هیت	7421
هکر	7422
په	7423
##سکو	7424
امارات	7425
##خصی	7426
هیچگاه	7427
فقدان	7428
پروسه	7429
به‌خ	7430
ابدا	7431
پاسخگویی	7432
ایده‌های	7433
آزمایشات	7434
نکردند	7435
متناسب	7436
بریتانیایی	7437
خسارت	7438
عضلانی	7439
mon	7440
بوش	7441
تث	7442
زاوی	7443
کجاست	7444
##خوانی	7445
یکشنبه	7446
همد	7447
خوشم	7448
معای	7449
داشتید	7450
بازرسی	7451
##خورده	7452
بینند	7453
زیان	7454
پیامدهای	7455
آن‌جا	7456
نباشند	7457
جاسوسی	7458
نواحی	7459
wind	7460
جین	7461
خدایی	7462
##sl	7463
##ee	7464
##گرا	7465
موز	7466
کارگری	7467
محم	7468
مریم	7469
عضویت	7470
قسمتی	7471
دنیایی	7472
جادو	7473
تحولات	7474
کاندید	7475
عظیمی	7476
فشرده	7477
فوق‌العاده	7478
تار	7479
تطبی	7480
جزایر	7481
وان	7482
گز	7483
می‌باشند	7484
سرطانی	7485
تربیت	7486
##اندی	7487
##ank	7488
اقلیت	7489
##ame	7490
همسرم	7491
بندر	7492
اختلافات	7493
می‌نویس	7494
عادات	7495
خرده	7496
چه‌	7497
##دراسیون	7498
##طو	7499
هایتان	7500
##خوش	7501
دانشمند	7502
بازیابی	7503
نامن	7504
سواری	7505
قطب	7506
سناری	7507
بتوانم	7508
میتوانند	7509
قلعه	7510
زیبای	7511
گردشگران	7512
##iew	7513
خبرنگاران	7514
حبس	7515
عادلانه	7516
34	7517
بوس	7518
جسم	7519
ظریف	7520
ناق	7521
##ظی	7522
##ظم	7523
ایز	7524
##فران	7525
تصریح	7526
جدیدترین	7527
##راتور	7528
خیال	7529
آن‌چه	7530
##ows	7531
one	7532
شفافیت	7533
دبیرستان	7534
متأس	7535
سواحل	7536
فرکانس	7537
33	7538
el	7539
ششم	7540
پرا	7541
##فورد	7542
##الح	7543
بیا	7544
##باع	7545
نفره	7546
۲۰۱۷	7547
مارکس	7548
نمودند	7549
توافقنامه	7550
بازدیدکنندگان	7551
میکنیم	7552
زخمی	7553
مراتب	7554
].	7555
خم	7556
نخواهیم	7557
کپ	7558
##دامی	7559
##جمی	7560
برم	7561
انز	7562
مجمع	7563
##واک	7564
##ارتان	7565
خطای	7566
منتظ	7567
عاشقانه	7568
مهندس	7569
هرکسی	7570
براي	7571
دیوانه	7572
معجزه	7573
39	7574
ev	7575
fr	7576
op	7577
##af	7578
##ضان	7579
##انورد	7580
بیایند	7581
معتر	7582
مقال	7583
مرزی	7584
سپاه	7585
ابد	7586
هواداران	7587
آگاهانه	7588
##‌آور	7589
مشاوران	7590
##‌بندی	7591
نشستن	7592
امپری	7593
استانبول	7594
پیچیدگی	7595
استودیو	7596
محاسبات	7597
وردپرس	7598
اشتیاق	7599
متأسفانه	7600
48	7601
ارب	7602
وصل	7603
پاهای	7604
برابری	7605
ترور	7606
تحرک	7607
مردمان	7608
اعضا	7609
انتخاباتی	7610
ستم	7611
بمباران	7612
عهد	7613
روستا	7614
یخچال	7615
متقاضیان	7616
فاک	7617
##لزم	7618
##اتوری	7619
می‌ماند	7620
گرگ	7621
##ink	7622
بالینی	7623
193	7624
سنسور	7625
خوشبختی	7626
دستگاه‌های	7627
مجموعه‌ای	7628
مخالفان	7629
##وگرافی	7630
پیوستن	7631
پشتیبان	7632
دبی	7633
لرز	7634
هری	7635
##عامل	7636
##گونی	7637
درآم	7638
##لیق	7639
##سیله	7640
انب	7641
بیل	7642
دانش‌آموز	7643
یادآور	7644
مستلزم	7645
اجتماع	7646
##ous	7647
بسازد	7648
تسلط	7649
مکرر	7650
ib	7651
red	7652
؟”	7653
ذرات	7654
زانو	7655
قوت	7656
قومی	7657
هیل	7658
پمپ	7659
##ok	7660
##fl	7661
##گرفته	7662
الح	7663
مقط	7664
احاط	7665
نقط	7666
بنشین	7667
ماهر	7668
##ژیک	7669
وقایع	7670
192	7671
قیمتی	7672
خوابیدن	7673
2003	7674
بوسیله	7675
ناتوانی	7676
می‌دادند	7677
تونل	7678
منعکس	7679
وفاداری	7680
مستمر	7681
فاکتور	7682
world	7683
وص	7684
پایی	7685
##oy	7686
##ندم	7687
درصدی	7688
برقی	7689
برانگیز	7690
مشکوک	7691
نشوید	7692
علیر	7693
طرفی	7694
عبادت	7695
مبادله	7696
معیارهای	7697
مسیحیان	7698
ریاضیات	7699
علاقه‌	7700
ادی	7701
شانه	7702
لپ	7703
نگیر	7704
هدر	7705
يا	7706
۲۶	7707
##کوس	7708
##هین	7709
##شیر	7710
##خل	7711
برون	7712
##ردن	7713
اندوه	7714
سازگاری	7715
کلین	7716
ساختاری	7717
##int	7718
فروشندگان	7719
##ical	7720
ریش	7721
منظر	7722
نگهبان	7723
2005	7724
تلخ	7725
آدم‌ها	7726
نحوی	7727
تکراری	7728
محبوبیت	7729
##چیزی	7730
سرزنش	7731
اکتشاف	7732
دفع	7733
مباح	7734
نرو	7735
##ـه	7736
##گرایی	7737
امری	7738
فرشت	7739
مقصر	7740
قبال	7741
پروف	7742
فروشی	7743
ارث	7744
##انسون	7745
تهدیدات	7746
##‌وقت	7747
1990	7748
رسانه‌ها	7749
پروژه‌های	7750
الگوهای	7751
ملاحظه	7752
آرژانتین	7753
اکر	7754
رب	7755
سد	7756
##نال	7757
##12	7758
تاج	7759
سیار	7760
دلایلی	7761
۲۰۰۰	7762
##ناکی	7763
حیوانی	7764
کیسه	7765
url	7766
can	7767
dis	7768
gl	7769
mba	7770
اِ	7771
بفرست	7772
شوک	7773
فورا	7774
گرا	7775
##وستان	7776
##لامی	7777
امشب	7778
گره	7779
رویای	7780
آمریکایی‌ها	7781
گلوله	7782
شهروندی	7783
مزر	7784
کشاورزان	7785
آفریده	7786
بورژ	7787
صدمه	7788
کامیون	7789
ایدئولوژی	7790
sk	7791
بپیوند	7792
##جستان	7793
درای	7794
##ودر	7795
##ه‌دار	7796
##ختری	7797
آیین	7798
یهود	7799
inst	7800
متنفر	7801
ویدیویی	7802
وفادار	7803
مولکول	7804
هیتلر	7805
55	7806
بقای	7807
##sa	7808
##der	7809
##cl	7810
##غیب	7811
##انه‌ای	7812
بهانه	7813
همب	7814
نیت	7815
بنزین	7816
روشهای	7817
۱۹۱	7818
نکنیم	7819
نمی‌توانم	7820
نگرفته	7821
تایپ	7822
تایمز	7823
اعطا	7824
تهاجمی	7825
دال	7826
پکن	7827
پستان	7828
کیه	7829
##آید	7830
##طوب	7831
مدام	7832
الماس	7833
رسند	7834
زمانیکه	7835
ابری	7836
آسیایی	7837
ویژگی‌های	7838
ترکیبات	7839
ولایت	7840
یونانی	7841
cont	7842
بالاتری	7843
شباهت	7844
پتر	7845
پیت	7846
همجنس	7847
##ویچ	7848
دوازده	7849
سرش	7850
گرجستان	7851
هیچوقت	7852
نمی‌شوند	7853
اهمیتی	7854
چشمگیری	7855
پیری	7856
مرتبه	7857
تاثیری	7858
شکستن	7859
عراقی	7860
150	7861
آفرینش	7862
معتقدم	7863
ii	7864
med	7865
سوری	7866
پهن	7867
##نویس	7868
##نهایت	7869
##دت	7870
##اهدی	7871
تواف	7872
مشه	7873
می‌شویم	7874
##ern	7875
##موزی	7876
پروفس	7877
##ong	7878
خدماتی	7879
گزارشی	7880
موقعیتی	7881
جنسیتی	7882
مستقیما	7883
دروازه	7884
۲۰۰۹	7885
فرمودند	7886
آموخته	7887
کارفرمایان	7888
احاطه	7889
65	7890
سار	7891
صاف	7892
##son	7893
##انید	7894
بهم	7895
برید	7896
اینقدر	7897
پیاده‌	7898
##ert	7899
ناو	7900
فیلمی	7901
دوستش	7902
مرطوب	7903
بخشید	7904
##منت	7905
اقداماتی	7906
شورش	7907
##ood	7908
حواس	7909
آشپزی	7910
اکسید	7911
لحظات	7912
مجسمه	7913
پروفسور	7914
37	7915
38	7916
aut	7917
air	7918
تلس	7919
دما	7920
ساده‌	7921
صعود	7922
##كت	7923
##وانت	7924
##دهندگان	7925
خودی	7926
هیات	7927
پاسخی	7928
ریز	7929
هوشی	7930
برسیم	7931
کلمبیا	7932
اندازه‌گیری	7933
جعلی	7934
iso	7935
می‌زنند	7936
جالبی	7937
تطبیق	7938
met	7939
post	7940
اچ	7941
بول	7942
##وظ	7943
##tp	7944
##شایی	7945
میخ	7946
باهم	7947
##روش	7948
کارگاه	7949
ماژ	7950
توبه	7951
محتر	7952
فرشته	7953
ترغیب	7954
تمدید	7955
190	7956
سفیر	7957
نفری	7958
متعال	7959
##ign	7960
مترو	7961
واحدهای	7962
رسانده	7963
براى	7964
ناخود	7965
بازنشسته	7966
بردارید	7967
خز	7968
فه	7969
نشن	7970
چسب	7971
”،	7972
##رنگ	7973
##مرد	7974
##خیم	7975
تاکسی	7976
##یاط	7977
نوآور	7978
اعصاب	7979
ناخواسته	7980
تعلیم	7981
ریچ	7982
تاریخچه	7983
تفریح	7984
راستا	7985
اعتراضات	7986
کارآفرینی	7987
نامناسب	7988
اکو	7989
ذات	7990
هک	7991
پیم	7992
پنت	7993
۲۸	7994
##سن	7995
##سری	7996
##کدام	7997
##ton	7998
##طب	7999
##حاف	8000
بری	8001
اینکار	8002
##لیون	8003
داشته‌اند	8004
جهش	8005
پسرش	8006
نشانه‌های	8007
شخصیتی	8008
می‌رسید	8009
فرآیندهای	8010
بستر	8011
پوستی	8012
قهرمانی	8013
کاتولیک	8014
رقیب	8015
هرد	8016
پند	8017
پوتین	8018
##‌ش	8019
##انش	8020
میدهند	8021
که‌	8022
کارشناس	8023
گرایی	8024
گفتیم	8025
جلوه	8026
شماری	8027
خریدار	8028
##ائلی	8029
ساعته	8030
مغن	8031
##olog	8032
نویسند	8033
ورزشکاران	8034
بپردازید	8035
آرایش	8036
به‌خاطر	8037
95	8038
des	8039
قاتل	8040
گن	8041
##وو	8042
##sp	8043
##قیم	8044
##لیف	8045
کارشان	8046
بیستم	8047
ایالتی	8048
##نگری	8049
مسائلی	8050
بینش	8051
زیرزمین	8052
مرجع	8053
بخشیدن	8054
حدودی	8055
میلیون‌ها	8056
واگذار	8057
مذکور	8058
شراب	8059
شواهدی	8060
پیشنهادات	8061
مستقیماً	8062
قیام	8063
بعداً	8064
##press	8065
غالباً	8066
نامحدود	8067
sup	8068
بطری	8069
لق	8070
##ستات	8071
بیانی	8072
بیگانه	8073
تاپ	8074
آماری	8075
معکوس	8076
بدل	8077
کم‌	8078
##....	8079
تعقیب	8080
نمایان	8081
علل	8082
باورند	8083
اخیراً	8084
سودمند	8085
قطعنامه	8086
##ction	8087
اتوماتیک	8088
all	8089
انداخته	8090
دفعه	8091
سانتی	8092
همه‌چیز	8093
شهرداری	8094
00	8095
cap	8096
ثان	8097
فدراسیون	8098
##ear	8099
##طن	8100
می‌گرفت	8101
همیش	8102
##ویژه	8103
نیوز	8104
روحیه	8105
دستگیری	8106
##سانس	8107
ذخایر	8108
خوشحالم	8109
بورس	8110
درحالی‌که	8111
مریخ	8112
خبرنگار	8113
عزت	8114
مارتین	8115
--	8116
44	8117
min	8118
سکه	8119
##فای	8120
##‌ست	8121
##ایز	8122
استوار	8123
##ریز	8124
توط	8125
فرقی	8126
قرون	8127
##شدت	8128
سوالی	8129
یادم	8130
مدیره	8131
چهارمین	8132
آسیای	8133
کودکانی	8134
مفصل	8135
هنرهای	8136
فراخوان	8137
فلزی	8138
وحدت	8139
روبه‌	8140
ژنرال	8141
برداشتن	8142
تجارب	8143
((	8144
er	8145
حش	8146
خرس	8147
رخت	8148
صدر	8149
كم	8150
یونی	8151
##اژ	8152
##پولی	8153
##ثری	8154
بیه	8155
پیتر	8156
##عهده	8157
زیستی	8158
مختص	8159
##کوین	8160
بایگانی	8161
عینک	8162
خدایان	8163
بپردازد	8164
یوگا	8165
آرت	8166
غزه	8167
غالب	8168
فاز	8169
##تونی	8170
##نون	8171
##‌ز	8172
برانگی	8173
##ابانی	8174
##لاوه	8175
بیاند	8176
اعزام	8177
مهم‌تر	8178
اشعه	8179
حرفی	8180
##ata	8181
خوشحالی	8182
مبارز	8183
مبارزات	8184
فلز	8185
##‌بوک	8186
سرمایه‌داری	8187
##پرستی	8188
##ult	8189
تحریم‌های	8190
راهنما	8191
usb	8192
عجله	8193
سیاستمداران	8194
ناخودآگاه	8195
up	8196
شری	8197
لع	8198
##نل	8199
##چنان	8200
##for	8201
##ورید	8202
همت	8203
شدیدی	8204
مدال	8205
موردی	8206
##امیک	8207
سازندگان	8208
شرکتهای	8209
نشریه	8210
191	8211
سپرده	8212
گیج	8213
انتقادی	8214
ببریم	8215
1980	8216
بپردازند	8217
قاعده	8218
روزنامه‌	8219
زباله	8220
زاویه	8221
windows	8222
کلینتون	8223
تلسکوپ	8224
sw	8225
تال	8226
حیرت	8227
صریح	8228
نابر	8229
پي	8230
##ta	8231
##cc	8232
##پاشی	8233
##ستون	8234
باطل	8235
##ادا	8236
##یما	8237
مجر	8238
سوئی	8239
همین‌	8240
##ens	8241
##دانان	8242
پردازد	8243
محدودی	8244
سفرهای	8245
انتقام	8246
شاگردان	8247
هوشمندانه	8248
##راجویی	8249
ماجراجویی	8250
تدریج	8251
زنجیر	8252
micros	8253
مقطع	8254
مزرعه	8255
!)	8256
؟؟؟	8257
رج	8258
زه	8259
قم	8260
موی	8261
نکت	8262
##ماع	8263
##هاي	8264
هایم	8265
ایکس	8266
محوطه	8267
فرش	8268
قرض	8269
##شنامه	8270
##اصد	8271
سوزی	8272
دلخواه	8273
پیروان	8274
ستایش	8275
مارکسی	8276
وسوس	8277
هواپیماهای	8278
رانندگان	8279
اوراق	8280
می‌بینیم	8281
دفن	8282
play	8283
##بایست	8284
حاملگی	8285
خجالت	8286
ارگانی	8287
ارایه	8288
رضا	8289
فاش	8290
نگفت	8291
هول	8292
یابی	8293
یوسف	8294
##ier	8295
##ذیب	8296
برجام	8297
انص	8298
متدا	8299
##اقض	8300
##الیز	8301
کوک	8302
به‌ویژه	8303
هدفی	8304
شمشیر	8305
آغوش	8306
سلولی	8307
آرشی	8308
پرداخته	8309
2004	8310
لوکس	8311
تدوین	8312
comp	8313
بیاورند	8314
منصفانه	8315
بازگرداندن	8316
شجاعت	8317
فیلیپین	8318
مباحث	8319
مغناطیسی	8320
99	8321
پخت	8322
چرب	8323
##ارید	8324
بودی	8325
نیا	8326
توهین	8327
فراز	8328
نوین	8329
بخرید	8330
نقره	8331
شنوایی	8332
##یهی	8333
##enc	8334
##اپور	8335
اقدامی	8336
##ition	8337
##ناع	8338
آخرت	8339
خوش‌	8340
پارام	8341
محتوی	8342
جاود	8343
قراردادهای	8344
روستای	8345
آزمایشگاهی	8346
پرستار	8347
گرسنه	8348
حرکتی	8349
acc	8350
کنسرت	8351
عذرخواهی	8352
خاتمه	8353
ماژول	8354
bus	8355
sec	8356
جون	8357
دانی	8358
رگ	8359
فورد	8360
نج	8361
نه‌	8362
##به‌	8363
##عل	8364
##ep	8365
دره	8366
می‌فه	8367
کاراک	8368
##یتون	8369
متری	8370
معقول	8371
سرنگ	8372
##عدی	8373
سیست	8374
ساختمانی	8375
##اپی	8376
شیوع	8377
مسیرهای	8378
پوشیده	8379
پوشیدن	8380
تابستانی	8381
اثرب	8382
جسد	8383
هم‌چنین	8384
خشمگین	8385
استثنایی	8386
مقدمه	8387
توسعه‌	8388
لیبرال	8389
پروفایل	8390
85	8391
la	8392
جریم	8393
شکی	8394
کوانت	8395
‌ها	8396
##کون	8397
##هزار	8398
##حت	8399
##وانه	8400
منش	8401
موزیک	8402
دانستم	8403
##ربایج	8404
##وتو	8405
اعلامی	8406
گرفتیم	8407
تلاشی	8408
شیعی	8409
پارچه	8410
بیانگر	8411
فرانک	8412
ترسیم	8413
این‌گونه	8414
متخصصین	8415
می‌دانست	8416
##جانبه	8417
سکونت	8418
خاطره	8419
حامیان	8420
شاعر	8421
64	8422
بکنند	8423
صهی	8424
هلی	8425
پائ	8426
##ارض	8427
استعم	8428
##هایش	8429
محو	8430
معین	8431
معاهده	8432
بدیهی	8433
گفته‌اند	8434
نقشی	8435
خداحاف	8436
بلژیک	8437
چشمگیر	8438
آزادانه	8439
نگرفت	8440
عقاید	8441
تهدیدی	8442
۲۰۰۸	8443
سلاح‌های	8444
هرکدام	8445
کیلومتری	8446
بشناسید	8447
گالری	8448
افراطی	8449
آذربایج	8450
تقلید	8451
رصد	8452
ربود	8453
##‌شناسی	8454
##‌زده	8455
##پوش	8456
##پورت	8457
##أت	8458
بادی	8459
ایس	8460
تحق	8461
##شناختی	8462
شنوند	8463
##خوردگی	8464
##ach	8465
ظاهری	8466
بگذاریم	8467
120	8468
##ower	8469
مهندسان	8470
پردازنده	8471
مادربزرگ	8472
مسیحیت	8473
هرکس	8474
انگشتان	8475
می‌گذارند	8476
زحمت	8477
تثبیت	8478
تشن	8479
دختری	8480
غبار	8481
فاط	8482
وک	8483
##‌د	8484
##يان	8485
##ne	8486
##غد	8487
##work	8488
##80	8489
بات	8490
براد	8491
اینک	8492
می‌ك	8493
مناق	8494
انسول	8495
بنظر	8496
بارسل	8497
قدری	8498
متحرک	8499
##att	8500
پنجشنبه	8501
می‌کردیم	8502
برسانند	8503
مدل‌های	8504
مناطقی	8505
کاشت	8506
بکشند	8507
مقرون	8508
پنیر	8509
ببخشید	8510
برسانید	8511
محرمانه	8512
!"	8513
43	8514
cre	8515
home	8516
id	8517
آرا	8518
بذ	8519
زا	8520
##‌دار	8521
##صلی	8522
##جانی	8523
بام	8524
اینچ	8525
همگان	8526
تناسب	8527
##وتا	8528
##رایم	8529
تعلیق	8530
##atch	8531
##ائو	8532
استخر	8533
آسانسور	8534
##رافیکی	8535
تضاد	8536
گازهای	8537
صداقت	8538
آستانه	8539
آنجلس	8540
پارامتر	8541
انسولین	8542
41	8543
fre	8544
تفاوتی	8545
جیب	8546
شوی	8547
مبه	8548
منو	8549
پیشتر	8550
اندی	8551
مقاصد	8552
تصمیمی	8553
##فیق	8554
##anc	8555
تأخیر	8556
##وستون	8557
خبرگزاری	8558
آشام	8559
کیک	8560
گونه‌ای	8561
دانمارک	8562
رمزگذاری	8563
php	8564
همکارانش	8565
حرام	8566
پویا	8567
همیشگی	8568
خیره	8569
قاطع	8570
مُ	8571
مات	8572
هالی	8573
وات	8574
##ساب	8575
##‌نام	8576
##ختی	8577
##آمیز	8578
است‌	8579
بریز	8580
انها	8581
##انیاهو	8582
امضای	8583
پیغام	8584
##افز	8585
بخار	8586
بازیافت	8587
نشانگر	8588
خطی	8589
تکذیب	8590
فرماید	8591
دستیار	8592
گونگ	8593
بچه‌های	8594
گناهان	8595
رمزنگاری	8596
black	8597
احتیاط	8598
صلیب	8599
تاکتیک	8600
عاقل	8601
انبوه	8602
جاه	8603
عطر	8604
هراس	8605
چاقی	8606
کرو	8607
کیت	8608
##تاً	8609
##رند	8610
##منی	8611
##ex	8612
##خشی	8613
##ual	8614
میخواهید	8615
کنوان	8616
القا	8617
اندرو	8618
دادستان	8619
نوبل	8620
رویاهای	8621
زیرد	8622
زیبات	8623
چندانی	8624
202	8625
نسبی	8626
گروگان	8627
کاملی	8628
فضانورد	8629
وضعیتی	8630
شیعه	8631
شیکا	8632
محتوایی	8633
۲۰۱۹	8634
نکردم	8635
جاوا	8636
فراگیر	8637
دستورات	8638
##شاء	8639
##ational	8640
فیس‌بوک	8641
جذابیت	8642
آفرید	8643
دفاتر	8644
رونمایی	8645
خنثی	8646
فرشتگان	8647
نوآورانه	8648
صهیونی	8649
bit	8650
rob	8651
بجای	8652
خاند	8653
زشت	8654
مادی	8655
کیم	8656
گش	8657
گیم	8658
##نویسی	8659
##ِی	8660
##َّ	8661
راه‌های	8662
می‌آمد	8663
کنگ	8664
دارا	8665
##فره	8666
##گیرانه	8667
بلغ	8668
نشوند	8669
فروپاشی	8670
جواه	8671
نتانیاهو	8672
پرسیده	8673
اسپرم	8674
می‌آورند	8675
گویا	8676
بلندمدت	8677
ساختارهای	8678
نوزدهم	8679
کیلوگر	8680
عجیبی	8681
مفهومی	8682
نرمال	8683
ظاهراً	8684
##ount	8685
انحصاری	8686
کنوانسیون	8687
sch	8688
سانت	8689
صمیم	8690
طر	8691
قص	8692
پلاگ	8693
چوبی	8694
گارد	8695
##فند	8696
##يس	8697
##يا	8698
##منین	8699
##ایانه	8700
میخو	8701
##الص	8702
آمدید	8703
##فرما	8704
##کیو	8705
##کسل	8706
پرخ	8707
آباد	8708
بنابر	8709
صحن	8710
فضاهای	8711
سلس	8712
فرصت‌های	8713
بسپار	8714
نداشتیم	8715
دوستانم	8716
این‌جا	8717
ste	8718
##‌ایم	8719
هشتم	8720
ناخن	8721
داوطلبانه	8722
university	8723
47	8724
ma	8725
تگز	8726
مکت	8727
چت	8728
کروم	8729
۲۹	8730
۶۵	8731
##اکنون	8732
##نسی	8733
##‌دهنده	8734
##box	8735
##ha	8736
##mi	8737
##60	8738
درام	8739
میش	8740
برعهده	8741
می‌خورد	8742
منز	8743
رومی	8744
سالگرد	8745
##‌هاي	8746
ترمیم	8747
اسرایی	8748
می‌کنی	8749
نامید	8750
ناخوش	8751
فیلس	8752
مدیرعامل	8753
دیدند	8754
سلطه	8755
##oud	8756
کاوش	8757
كنید	8758
انداختن	8759
می‌خواستم	8760
##فرماید	8761
اردوغان	8762
org	8763
احمقانه	8764
دگرگون	8765
مدافع	8766
علیرغم	8767
متداول	8768
شیکاگو	8769
سلسله	8770
600	8771
؟؟	8772
جانسون	8773
دغد	8774
ساکت	8775
مود	8776
کث	8777
گرافیک	8778
##پک	8779
برگردان	8780
می‌ترس	8781
##هاست	8782
کارخان	8783
پیامی	8784
کشورش	8785
##row	8786
##ase	8787
ارزهای	8788
##‌بخش	8789
مقرر	8790
اردن	8791
لطفاً	8792
نازل	8793
اقلیمی	8794
بغداد	8795
قواعد	8796
پاییز	8797
غار	8798
قصه	8799
لوک	8800
١٩	8801
پش	8802
##فیه	8803
می‌گرد	8804
##ریحی	8805
##روح	8806
روبات	8807
دهه‌ی	8808
متو	8809
الملل	8810
پسند	8811
##ere	8812
آلات	8813
بعید	8814
نبودم	8815
۲۰۰۵	8816
وحش	8817
##ull	8818
گمراه	8819
بخورند	8820
لزوما	8821
اذعان	8822
ضربان	8823
mark	8824
ریچارد	8825
av	8826
ir	8827
آدام	8828
تگ	8829
زغال	8830
عید	8831
كرده	8832
##bo	8833
انبار	8834
فرام	8835
پروستات	8836
تبریک	8837
خانه‌های	8838
فعالی	8839
دولت‌های	8840
گردیده	8841
##ator	8842
ملحق	8843
موجودی	8844
مرگبار	8845
##out	8846
ایستاد	8847
1999	8848
ناخالص	8849
اتهامات	8850
متابولی	8851
همبستگی	8852
محترم	8853
زیباترین	8854
پلاگین	8855
تگزاس	8856
:"	8857
ec	8858
fi	8859
per	8860
حص	8861
قو	8862
پراک	8863
۳۰۰	8864
##کاوی	8865
##‌‌ها	8866
##جین	8867
میک	8868
می‌نم	8869
##فتگی	8870
موف	8871
##مانده	8872
##دیده	8873
مجاهد	8874
تولیدکنندگان	8875
سازمان‌ها	8876
چشم‌انداز	8877
تفنگ	8878
##تنها	8879
تانک	8880
##ild	8881
ind	8882
دکترا	8883
##own	8884
تورنت	8885
سوراخ	8886
بکنم	8887
##ake	8888
پدربزرگ	8889
مجدداً	8890
اتریش	8891
همسایگان	8892
پنتاگون	8893
توطئه	8894
microsoft	8895
بارسلونا	8896
gen	8897
word	8898
بقا	8899
حرم	8900
سون	8901
شبی	8902
لامپ	8903
کاس	8904
##اهیر	8905
##گراف	8906
##ه‌تان	8907
کارل	8908
خواهش	8909
چهر	8910
اسمیت	8911
##رسان	8912
کلان	8913
بلد	8914
سنگی	8915
کوچکترین	8916
##ich	8917
تکمیلی	8918
حکمت	8919
نکردن	8920
تلفات	8921
سنگاپور	8922
نداشتن	8923
افزاری	8924
افزونه	8925
سینمایی	8926
حافظ	8927
سؤالات	8928
امپرا	8929
هم‌اکنون	8930
گفت‌وگو	8931
sn	8932
آلی	8933
جرایم	8934
شفا	8935
##وجود	8936
##فرد	8937
##ذکر	8938
می‌نام	8939
##هایشان	8940
نیج	8941
معص	8942
تصدی	8943
نشر	8944
##ance	8945
دیدیم	8946
منتخ	8947
گیریم	8948
تهی	8949
صدایی	8950
ایدز	8951
2001	8952
خورند	8953
خصوصیات	8954
خیابانی	8955
##جمله	8956
مزایا	8957
##اهدات	8958
جسمانی	8959
پنل	8960
پانزده	8961
تداوم	8962
عبارات	8963
توافقی	8964
gu	8965
no	8966
تدار	8967
سارا	8968
فا	8969
پله	8970
##فسه	8971
##ِن	8972
##ارم	8973
داوود	8974
هرگاه	8975
تراز	8976
کمدی	8977
مسال	8978
تصفیه	8979
نمی‌خواهم	8980
نهفته	8981
تقص	8982
مختل	8983
متحمل	8984
ارجا	8985
بحرانی	8986
نظامیان	8987
نویسد	8988
برنامه‌ی	8989
عصب	8990
منحص	8991
پارکینگ	8992
comm	8993
مکانیک	8994
دمکر	8995
می‌پرس	8996
تاسیسات	8997
خالق	8998
شجاع	8999
نرسیده	9000
ابداع	9001
زیرزمینی	9002
خاندان	9003
پراکنده	9004
)؛	9005
eb	9006
ms	9007
not	9008
wi	9009
with	9010
آوی	9011
تابل	9012
رول	9013
سي	9014
ورش	9015
پرف	9016
گوسف	9017
##قام	9018
##yn	9019
##ارو	9020
بهای	9021
بابا	9022
##ادو	9023
بازگردان	9024
گرامی	9025
تحلیلی	9026
پسرم	9027
##اصره	9028
کلسیم	9029
.»[	9030
به‌دست	9031
خدمه	9032
##این‌	9033
واژن	9034
تاثیرگذار	9035
بانکداری	9036
تصاویری	9037
بستن	9038
چارلز	9039
art	9040
نمی‌کنیم	9041
شهردار	9042
نکاتی	9043
ثانویه	9044
کیلوگرم	9045
42	9046
51	9047
gre	9048
ww	9049
رطو	9050
##گم	9051
##land	9052
##ایا	9053
##ارن	9054
##یدنی	9055
استال	9056
می‌بیند	9057
##روب	9058
توازن	9059
تران	9060
گرین	9061
##اندر	9062
##وتن	9063
##بانیت	9064
##کسون	9065
خارق	9066
##ication	9067
خصوصا	9068
بحرین	9069
پرسیدم	9070
##ings	9071
مهاجم	9072
می‌دارد	9073
محافظه	9074
##تونم	9075
لینوکس	9076
دانستند	9077
۱۵۰	9078
پوسته	9079
1970	9080
قاعد	9081
علاقمند	9082
مقدماتی	9083
ژنتیک	9084
امتداد	9085
نمی‌دانند	9086
سحر	9087
وسوسه	9088
رطوبت	9089
bu	9090
hp	9091
رشت	9092
سکته	9093
فین	9094
فاس	9095
لاک	9096
کافه	9097
##نستان	9098
##عب	9099
##لۀ	9100
##ارتی	9101
میاد	9102
کهن	9103
می‌بایست	9104
##تیو	9105
##یتور	9106
پیشبرد	9107
بینم	9108
##گیرند	9109
بزنم	9110
کمک‌های	9111
زنانه	9112
زنبور	9113
همانگونه	9114
ریخته	9115
##ley	9116
حمایتی	9117
طرفین	9118
عموما	9119
جانبه	9120
دردسر	9121
مبارک	9122
محلول	9123
میلیاردها	9124
بشکه	9125
اثری	9126
افتادن	9127
محدودیت‌های	9128
تخمک	9129
آیت‌الله	9130
قهرمانان	9131
ارمنستان	9132
رکود	9133
دستاوردهای	9134
کوشش	9135
آذربایجان	9136
ناخوشایند	9137
بندگان	9138
حروف	9139
يك	9140
کُ	9141
##کونی	9142
##‌وز	9143
##‌مت	9144
##بو	9145
##vel	9146
میت	9147
محاصره	9148
معدود	9149
سرچ	9150
الج	9151
الآن	9152
احمد	9153
تجمع	9154
هیچ‌وقت	9155
##وشند	9156
نقدی	9157
اطلاعی	9158
به‌نظر	9159
دولت‌ها	9160
جامد	9161
فعالیتهای	9162
واجب	9163
آوریم	9164
##app	9165
سرمایه‌گذاران	9166
مکانیسم	9167
سامان	9168
قدرتی	9169
می‌بینم	9170
ass	9171
سپاسگزار	9172
ديگر	9173
دیکتاتوری	9174
غریبه	9175
46	9176
كشور	9177
##tr	9178
##hd	9179
##لَ	9180
درخش	9181
می‌اند	9182
##رافت	9183
نیافت	9184
نیوزی	9185
توالت	9186
دوگانه	9187
دستکاری	9188
اسکی	9189
##ومتی	9190
مردانه	9191
اطرافی	9192
نمایشی	9193
علایم	9194
صحت	9195
مصرفی	9196
شیخ	9197
یافتند	9198
عباس	9199
پرسنل	9200
فلج	9201
فرماندهی	9202
پردازند	9203
شمارش	9204
پرتغال	9205
دامن	9206
استثنا	9207
مؤسسه	9208
کارآفرینان	9209
استعفا	9210
کاراکتر	9211
ag	9212
act	9213
pd	9214
اژ	9215
ترو	9216
عی	9217
فتح	9218
وه	9219
کین	9220
۷۵	9221
##یکی	9222
##‌مدت	9223
##شینی	9224
##ool	9225
##پات	9226
درهای	9227
یکم	9228
منق	9229
انس	9230
##اریا	9231
دویدن	9232
داشتنی	9233
سرشار	9234
سازه	9235
تجسم	9236
شناور	9237
ناشر	9238
##ond	9239
شکوه	9240
۱۹۲	9241
ارزش‌های	9242
ایده‌	9243
2002	9244
هفتم	9245
تایوان	9246
ارزشی	9247
شیرینی	9248
آسمانی	9249
نتواند	9250
مى‌	9251
می‌بینند	9252
متاسف	9253
دیپلمات	9254
مهربانی	9255
شکارچی	9256
نازک	9257
استرالی	9258
پیدایش	9259
intern	9260
می‌نویسد	9261
حشرات	9262
جریمه	9263
]]	9264
اَ	9265
صمیمی	9266
فاصل	9267
لاغ	9268
چم	9269
##همان	9270
##يز	9271
##زدهم	9272
##11	9273
##‌هایم	9274
محف	9275
فرقه	9276
##کیک	9277
##ery	9278
##کارا	9279
عملا	9280
##ale	9281
خواندم	9282
تفاهم	9283
بانک‌ها	9284
آسان‌تر	9285
##قدس	9286
تأثیرات	9287
توانستیم	9288
مخصوصاً	9289
کارآموزی	9290
گمشده	9291
پایداری	9292
سامانه	9293
امتیازات	9294
خلقت	9295
انحراف	9296
نیامده	9297
سیستمی	9298
موفقی	9299
نیجریه	9300
منتخب	9301
hy	9302
ده‌ها	9303
لنین	9304
لبه	9305
##باتی	9306
##شوی	9307
##خود	9308
##ll	9309
دربر	9310
راک	9311
##ابیم	9312
بیولوژیکی	9313
توانمند	9314
ترانه	9315
اسکار	9316
جهاد	9317
مجروح	9318
تبلت	9319
ارتقای	9320
##iness	9321
لیستی	9322
نمی‌توانست	9323
سخنران	9324
هفتاد	9325
سوالاتی	9326
۲۰۰۳	9327
ریاض	9328
تمایز	9329
کاربردهای	9330
موشکی	9331
مکانیکی	9332
رادیکال	9333
گذراندن	9334
۱۹۷۰	9335
برگزیده	9336
تپه	9337
مظنون	9338
49	9339
back	9340
ge	9341
par	9342
pol	9343
rec	9344
sl	9345
اورش	9346
سزا	9347
نپ	9348
پین	9349
ژنو	9350
یاران	9351
##‌ک	9352
##‌کردن	9353
##tc	9354
##شک	9355
میده	9356
ازجمله	9357
##ادش	9358
##اده‌ی	9359
##سیلی	9360
موها	9361
بیابید	9362
توماس	9363
معاف	9364
سرپرست	9365
##تواند	9366
مسلم	9367
دادید	9368
افشا	9369
رسم	9370
رویا	9371
فعلا	9372
نشینی	9373
ساعتی	9374
زبان‌های	9375
مدت‌ها	9376
دریافتی	9377
##stem	9378
بدانم	9379
خوراک	9380
##ames	9381
خشکی	9382
سلولهای	9383
فلزات	9384
زودرس	9385
بمیر	9386
فنل	9387
فرضیه	9388
پوشان	9389
نوجوانی	9390
نژادی	9391
هورمونی	9392
تظاهر	9393
می‌گفتند	9394
ايران	9395
مطبوع	9396
دایره	9397
غرور	9398
شورشیان	9399
اعلامیه	9400
شیعیان	9401
][	9402
حتا	9403
شك	9404
عث	9405
نخواهم	9406
##سام	9407
##port	9408
##!!	9409
##ریایی	9410
##فتی	9411
دوبار	9412
معادن	9413
کشند	9414
گذران	9415
جماهیر	9416
نمی‌دهند	9417
فروخت	9418
معمار	9419
##احت	9420
درمانگر	9421
هدفمند	9422
پاسخگو	9423
##iss	9424
ابزارها	9425
گویید	9426
آدم‌های	9427
گذاشتند	9428
عصبانیت	9429
ایرانیان	9430
##یمانده	9431
افزودن	9432
۱۰۰۰	9433
عمدتاً	9434
هاروارد	9435
امتناع	9436
جابجایی	9437
عده‌ای	9438
باقیمانده	9439
روزنامه‌نگ	9440
تقصیر	9441
نیوزیلند	9442
3d	9443
gro	9444
تود	9445
تونی	9446
جاهای	9447
حما	9448
غل	9449
فاشی	9450
لیم	9451
مزار	9452
۳۶	9453
۳۴	9454
##سالی	9455
##رود	9456
##نشان	9457
##‌است	9458
##‌نامه	9459
##ject	9460
میشد	9461
می‌فرماید	9462
##ازدهم	9463
توانی	9464
فرس	9465
احکام	9466
مجارستان	9467
سوابق	9468
تقویم	9469
##ons	9470
مرج	9471
منتق	9472
جانشین	9473
پارا	9474
جلوتر	9475
تفریحی	9476
##old	9477
سودان	9478
اندازه‌ی	9479
مترجم	9480
سقط	9481
شگفت‌انگیز	9482
##able	9483
طلای	9484
خانواده‌های	9485
لایحه	9486
استیو	9487
فواید	9488
قارچ	9489
اورشلیم	9490
sem	9491
we	9492
ختم	9493
زائ	9494
ساند	9495
قفسه	9496
هال	9497
کما	9498
۳۱	9499
##دها	9500
##ازان	9501
منا	9502
##گرم	9503
روزگار	9504
نامگذاری	9505
##اضع	9506
##ins	9507
کتاب‌ها	9508
دیدنی	9509
ابدی	9510
محصولاتی	9511
آرمان	9512
حسابرسی	9513
نخست‌وز	9514
تسری	9515
تسکین	9516
پاکسازی	9517
str	9518
مایه	9519
موسوم	9520
جنبه‌های	9521
می‌گویید	9522
نتوانسته	9523
منفجر	9524
کاپیتان	9525
می‌گذرد	9526
##فکران	9527
امیرالم	9528
بلوغ	9529
هردو	9530
روبه‌رو	9531
فاطمه	9532
cent	9533
mo	9534
جزی	9535
حاد	9536
فدا	9537
قریب	9538
پرز	9539
پودر	9540
چنگ	9541
##فری	9542
##له‌	9543
##40	9544
##کنید	9545
فریم	9546
تناس	9547
واقعه	9548
##کلت	9549
بنوشید	9550
دلس	9551
دلش	9552
##گویند	9553
پیراه	9554
داستان‌های	9555
انگیزی	9556
طبقاتی	9557
افسرده	9558
بخواند	9559
کریس	9560
گمرک	9561
بفهمید	9562
نيز	9563
##پرداخت	9564
استارتاپ	9565
open	9566
دانش‌آموزان	9567
تحقیر	9568
ll	9569
بخورد	9570
خفیف	9571
خمینی	9572
ظلم	9573
قز	9574
لن	9575
نگذار	9576
وَ	9577
##فش	9578
##باد	9579
##بانه	9580
##ُم	9581
##cr	9582
##حده	9583
میگیرد	9584
آنف	9585
می‌دید	9586
##گرهای	9587
توکیو	9588
کمر	9589
هیچگونه	9590
دوره‌های	9591
ناشناس	9592
به‌کار	9593
به‌جای	9594
گردان	9595
کمیت	9596
لیوان	9597
ملزم	9598
صداهای	9599
منظومه	9600
پدران	9601
حکومتی	9602
فشارهای	9603
دوستانش	9604
نهایتا	9605
##ade	9606
ویروسی	9607
شگفتی	9608
##und	9609
اعتقادات	9610
##‌ناپذیر	9611
عزیزان	9612
رونق	9613
مخلوق	9614
اسکاتلند	9615
معاینه	9616
ناقص	9617
نگیرید	9618
اثربخشی	9619
fin	9620
دپ	9621
صبور	9622
لکه	9623
وحی	9624
##اجی	9625
##‌بی	9626
##عید	9627
##قان	9628
##vi	9629
بايد	9630
بردم	9631
اینان	9632
می‌زد	9633
##ازل	9634
روبه	9635
بدنه	9636
بازه	9637
گذرد	9638
تصرف	9639
ماهوار	9640
بارگذاری	9641
تقلب	9642
گلوک	9643
معنایی	9644
سنگینی	9645
منظورم	9646
کالاها	9647
عمیقی	9648
بخوانند	9649
250	9650
پناهندگی	9651
۱۹۸۰	9652
tech	9653
دندانپزشک	9654
خانواده‌اش	9655
نابرابری	9656
aw	9657
joh	9658
mus	9659
pa	9660
آبر	9661
ذاتی	9662
رش	9663
رئ	9664
زاده	9665
سونی	9666
غروب	9667
ممل	9668
##‌سی	9669
##ns	9670
##مول	9671
##منان	9672
##لندی	9673
##ضم	9674
##‬‬	9675
انطب	9676
متکی	9677
پیک	9678
##جامد	9679
مساوی	9680
مسکونی	9681
افق	9682
بازی‌ها	9683
شنیدم	9684
ادراک	9685
پاسپورت	9686
لیسانس	9687
خوانند	9688
اساساً	9689
##roid	9690
عکس‌های	9691
دخترش	9692
بسازیم	9693
۲۰۰۱	9694
برادرش	9695
بزنیم	9696
قدمت	9697
کشاورز	9698
استادان	9699
پلاس	9700
app	9701
بفهمیم	9702
گزینه‌های	9703
##ound	9704
دزدی	9705
افراط	9706
گسترده‌ای	9707
جملات	9708
نه‌تنها	9709
تورنتو	9710
سزاوار	9711
انطباق	9712
cp	9713
cam	9714
حرار	9715
خرا	9716
عیب	9717
مینی	9718
نوی	9719
##فسی	9720
##شویی	9721
درم	9722
میگوید	9723
میرسد	9724
باخت	9725
می‌مان	9726
##ه‌شان	9727
دومی	9728
متض	9729
اسامی	9730
اسطور	9731
اسکری	9732
نوسان	9733
مردها	9734
مهلت	9735
##ایتان	9736
سوپر	9737
ناظر	9738
حسادت	9739
مختصر	9740
ایمپل	9741
##eng	9742
محصولی	9743
##ise	9744
بی‌ت	9745
اپراتور	9746
هفتگی	9747
star	9748
فارکس	9749
دعوا	9750
تحریم‌ها	9751
نیروها	9752
حدیث	9753
مؤسسات	9754
عبدالله	9755
ربطی	9756
business	9757
خداحافظی	9758
مبهم	9759
زیردریایی	9760
مجاهدین	9761
آسم	9762
بشم	9763
جوه	9764
زیتون	9765
فک	9766
ندهد	9767
نگاری	9768
یابید	9769
##‌بار	9770
##cd	9771
##صیلی	9772
##كر	9773
##ارج	9774
##اده‌ای	9775
یکسانی	9776
می‌ب	9777
می‌خو	9778
##ونم	9779
##ولف	9780
منم	9781
خوک	9782
هرچیزی	9783
ترم	9784
نظرتان	9785
اندازد	9786
مسلط	9787
نواز	9788
بزودی	9789
رویه	9790
شرکت‌کنندگان	9791
##موس	9792
بنام	9793
##ina	9794
پرین	9795
غذاهایی	9796
لیتر	9797
پنجمین	9798
سفری	9799
اتفاقاتی	9800
##وسترون	9801
خاطرنشان	9802
##ions	9803
پایین‌تر	9804
فلسفی	9805
تابعیت	9806
آن‌که	9807
آن‌قدر	9808
منحرف	9809
##aph	9810
ماهیگیری	9811
فهمیدم	9812
بیداری	9813
پدیدار	9814
apple	9815
تونس	9816
کاغذی	9817
ناامیدی	9818
هیدروژن	9819
مولکولی	9820
نروژ	9821
super	9822
اسراییل	9823
ارجاع	9824
قاعدگی	9825
[[	9826
bar	9827
gal	9828
out	9829
vis	9830
ریت	9831
شیلی	9832
فانت	9833
قبی	9834
گوار	9835
##واس	9836
##بک	9837
##ّل	9838
##ِر	9839
##les	9840
##طلب	9841
##کنی	9842
نیفت	9843
بیوتیک	9844
اسیر	9845
مهدی	9846
کشورمان	9847
مجت	9848
بارش	9849
به‌شدت	9850
بخشش	9851
دربارهٔ	9852
سایز	9853
ارقام	9854
صفات	9855
##ital	9856
مبادل	9857
عضله	9858
مطمئناً	9859
داروهایی	9860
ناراضی	9861
سردرگ	9862
عفو	9863
##فعال	9864
زمستانی	9865
كردن	9866
سوزان	9867
مهمانان	9868
رونالد	9869
افسران	9870
اعطای	9871
سنجش	9872
علاقه‌مند	9873
ناوگان	9874
رختخواب	9875
اطرافیان	9876
منتقدان	9877
جزیی	9878
حرارتی	9879
72	9880
by	9881
آمی	9882
تیز	9883
حلی	9884
ساق	9885
سانس	9886
قله	9887
##وفر	9888
##‌دهی	9889
##گشت	9890
##زایی	9891
راس	9892
کارگزار	9893
توئی	9894
دوقل	9895
هرج	9896
گرمای	9897
نیازها	9898
##وردی	9899
تعاملی	9900
یادتان	9901
دیدید	9902
آلوم	9903
شمسی	9904
مکالم	9905
بپو	9906
بسازند	9907
این‌طور	9908
آقایان	9909
off	9910
تریلیون	9911
مصاحب	9912
جامعه‌ی	9913
گذراند	9914
سهامداران	9915
۱۹۹۰	9916
کابوس	9917
##‌‌‌‌‌‌‌‌	9918
شستن	9919
system	9920
تقدیر	9921
رؤی	9922
کثیف	9923
تصدیق	9924
ایمپلنت	9925
.‏	9926
52	9927
:)	9928
sd	9929
خد	9930
عش	9931
عرق	9932
ماب	9933
مونت	9934
نامی	9935
٢٠	9936
گرافیکی	9937
##فار	9938
##نر	9939
##نیم	9940
##شمی	9941
##ُر	9942
##غی	9943
##ys	9944
درمی	9945
آمدم	9946
ترش	9947
الن	9948
پیشگام	9949
عناو	9950
##کلین	9951
مجزا	9952
ویکی	9953
کلینی	9954
پایبند	9955
بنویسم	9956
جناح	9957
نشانی	9958
##اشق	9959
فیلمبرداری	9960
##ica	9961
حکایت	9962
نمودن	9963
می‌دانستم	9964
##سیسکو	9965
می‌گوییم	9966
مامور	9967
خدایا	9968
می‌گیرید	9969
بهشتی	9970
اصطلاحات	9971
تراکنش	9972
دکور	9973
می‌خواند	9974
ببندید	9975
درایو	9976
پشیمان	9977
57	9978
day	9979
ele	9980
go	9981
sam	9982
جوری	9983
حت	9984
ذی	9985
##au	9986
##زند	9987
##ثه	9988
##ثال	9989
##ؤمنین	9990
##میرد	9991
نیکو	9992
امگا	9993
##یافت	9994
گرمایش	9995
##شیند	9996
زندگی‌تان	9997
نداره	9998
مصری	9999
