<unk>	0
<s>	0
</s>	0
▁ا	-0
▁ب	-1
▁م	-2
▁د	-3
▁ک	-4
ان	-5
را	-6
▁ه	-7
ست	-8
▁و	-9
▁ت	-10
ند	-11
ار	-12
ای	-13
ین	-14
▁در	-15
▁ش	-16
▁ن	-17
▁به	-18
▁می	-19
▁آ	-20
▁س	-21
ید	-22
ود	-23
▁خ	-24
▁که	-25
▁از	-26
▁را	-27
▁است	-28
▁با	-29
▁ی	-30
رد	-31
اد	-32
ال	-33
▁این	-34
▁پ	-35
رو	-36
ام	-37
ری	-38
▁گ	-39
▁ج	-40
▁ف	-41
▁ح	-42
اه	-43
▁های	-44
رای	-45
▁کن	-46
ما	-47
▁آن	-48
▁ع	-49
ور	-50
▁چ	-51
یم	-52
▁ز	-53
▁یک	-54
شت	-55
لی	-56
▁تو	-57
▁هم	-58
▁ق	-59
▁برای	-60
ات	-61
اب	-62
سی	-63
فت	-64
ون	-65
▁شد	-66
▁بر	-67
یر	-68
▁ر	-69
از	-70
▁ها	-71
▁کرد	-72
▁رو	-73
▁خو	-74
ول	-75
▁ان	-76
▁من	-77
▁مو	-78
ها	-79
گر	-80
می	-81
▁خود	-82
اری	-83
انی	-84
لا	-85
تی	-86
اده	-87
▁ط	-88
▁دار	-89
▁نی	-90
▁شما	-91
▁ای	-92
▁بود	-93
گی	-94
▁بی	-95
▁کار	-96
▁توان	-97
▁باش	-98
تر	-99
▁ص	-100
▁ده	-101
وی	-102
های	-103
▁دا	-104
▁یا	-105
مان	-106
زی	-107
▁تا	-108
▁کند	-109
▁شود	-110
▁ما	-111
▁او	-112
خت	-113
▁شده	-114
▁کنند	-115
▁سال	-116
کن	-117
▁ام	-118
اس	-119
وان	-120
▁دو	-121
اید	-122
یت	-123
رک	-124
▁کنید	-125
▁دی	-126
▁(	-127
ایی	-128
▁هست	-129
▁هر	-130
..	-131
▁خواه	-132
▁پی	-133
▁مح	-134
دی	-135
انه	-136
ده	-137
▁آم	-138
نی	-139
▁مت	-140
بی	-141
▁مع	-142
اق	-143
▁اف	-144
شته	-145
▁اند	-146
▁ل	-147
▁تر	-148
▁اما	-149
قی	-150
له	-151
نگ	-152
▁باشد	-153
▁دست	-154
گاه	-155
رت	-156
بت	-157
یا	-158
دا	-159
▁دارد	-160
عی	-161
▁نمی	-162
▁آنها	-163
▁حال	-164
▁دان	-165
▁فر	-166
▁باید	-167
▁غ	-168
▁ال	-169
مای	-170
بر	-171
▁اگر	-172
فته	-173
▁کم	-174
▁سر	-175
▁مش	-176
شان	-177
▁شو	-178
▁«	-179
فاده	-180
▁کش	-181
▁استفاده	-182
اره	-183
که	-184
▁بد	-185
▁1	-186
▁چه	-187
رف	-188
وز	-189
▁چی	-190
جه	-191
▁باز	-192
ارد	-193
امه	-194
▁،	-195
نده	-196
▁اس	-197
▁گر	-198
▁بسی	-199
یل	-200
جود	-201
اف	-202
▁نظ	-203
ادی	-204
▁دیگر	-205
عه	-206
رار	-207
▁مد	-208
▁هستند	-209
جام	-210
▁مورد	-211
اخت	-212
وری	-213
به	-214
▁زی	-215
▁نو	-216
▁تح	-217
عت	-218
▁کرده	-219
▁دهد	-220
▁انجام	-221
▁داد	-222
▁پیش	-223
▁روز	-224
دید	-225
▁رس	-226
▁بین	-227
نین	-228
▁مق	-229
▁2	-230
▁تن	-231
عد	-232
▁مرد	-233
▁گذ	-234
▁نیست	-235
▁عن	-236
زار	-237
وم	-238
کی	-239
▁بخ	-240
▁زند	-241
شی	-242
▁تواند	-243
رگ	-244
▁همه	-245
▁زم	-246
اط	-247
▁وجود	-248
مل	-249
▁مس	-250
▁جه	-251
▁تم	-252
▁بیشت	-253
▁انت	-254
قت	-255
▁اج	-256
ستان	-257
الی	-258
▁نیز	-259
فر	-260
▁ند	-261
▁مه	-262
▁اح	-263
▁عنوان	-264
خص	-265
▁قرار	-266
▁پس	-267
ریک	-268
رات	-269
یده	-270
▁بز	-271
رکت	-272
▁خواهد	-273
▁مم	-274
▁ساز	-275
رس	-276
▁هی	-277
وت	-278
وا	-279
▁روی	-280
▁توس	-281
▁ات	-282
▁داشته	-283
ونه	-284
امل	-285
▁مان	-286
...	-287
▁وی	-288
کر	-289
▁کشور	-290
نامه	-291
▁زندگی	-292
▁داشت	-293
▁دانش	-294
کل	-295
▁واق	-296
▁۱	-297
▁مط	-298
▁راه	-299
▁ممکن	-300
وه	-301
خی	-302
▁همچ	-303
▁سی	-304
قه	-305
▁گفت	-306
شن	-307
چه	-308
▁.	-309
▁شوند	-310
▁جم	-311
▁تص	-312
▁تج	-313
ورد	-314
امی	-315
ینه	-316
▁داده	-317
رز	-318
▁مج	-319
اص	-320
▁بیشتر	-321
رب	-322
▁گو	-323
▁بازی	-324
▁دارند	-325
▁بسیار	-326
▁اط	-327
ایت	-328
▁شرکت	-329
▁کردن	-330
▁نیاز	-331
در	-332
▁نظر	-333
▁هیچ	-334
گان	-335
مو	-336
▁زمان	-337
▁هایی	-338
▁شن	-339
شد	-340
کان	-341
فا	-342
▁طور	-343
▁بزرگ	-344
▁نام	-345
▁"	-346
ترین	-347
00	-348
▁نق	-349
▁افرا	-350
▁کس	-351
عات	-352
▁کنیم	-353
ره	-354
▁اول	-355
ازه	-356
▁یکی	-357
▁آمریک	-358
▁اص	-359
با	-360
▁برنامه	-361
▁جدید	-362
حی	-363
▁شه	-364
▁تنها	-365
ورت	-366
▁تغ	-367
▁بگ	-368
▁دور	-369
▁کل	-370
▁مث	-371
مند	-372
سان	-373
▁حد	-374
▁نه	-375
کت	-376
▁چند	-377
▁ساخت	-378
▁کمک	-379
شه	-380
▁همچنین	-381
er	-382
▁پرو	-383
زای	-384
▁مردم	-385
ارت	-386
▁۲	-387
صد	-388
▁فق	-389
▁زن	-390
▁پای	-391
لب	-392
▁ماه	-393
اند	-394
▁بن	-395
جا	-396
▁نشان	-397
▁نا	-398
▁تغی	-399
لام	-400
▁قب	-401
▁اد	-402
▁چیزی	-403
رائ	-404
ژی	-405
▁سو	-406
▁واقع	-407
سته	-408
فی	-409
ستم	-410
▁بار	-411
▁S	-412
▁توانید	-413
▁آز	-414
▁قد	-415
.»	-416
▁توسط	-417
باره	-418
▁اش	-419
▁اع	-420
جاد	-421
▁ایر	-422
▁دهند	-423
▁جن	-424
▁ایجاد	-425
ابل	-426
اک	-427
▁گی	-428
▁همان	-429
▁تمام	-430
یه	-431
▁آموز	-432
▁صورت	-433
▁بیم	-434
▁فقط	-435
رم	-436
▁بعد	-437
کار	-438
▁آیا	-439
▁بل	-440
▁چیز	-441
▁کنم	-442
in	-443
▁خدا	-444
▁کو	-445
بان	-446
▁جهان	-447
▁طول	-448
▁بیش	-449
▁تب	-450
▁نش	-451
▁دل	-452
▁C	-453
خاب	-454
▁مص	-455
گونه	-456
▁خی	-457
▁ض	-458
▁مانند	-459
▁بسیاری	-460
▁تع	-461
▁فع	-462
▁باشید	-463
▁ك	-464
▁تق	-465
▁تول	-466
اض	-467
هایی	-468
▁ارت	-469
بود	-470
▁انتخاب	-471
▁حتی	-472
مت	-473
راه	-474
▁نس	-475
▁هن	-476
▁اینکه	-477
▁ری	-478
روز	-479
▁افراد	-480
لف	-481
▁آی	-482
▁ترین	-483
رسی	-484
▁سه	-485
▁خط	-486
▁نم	-487
▁آمریکا	-488
▁یاد	-489
▁اطلا	-490
on	-491
▁رفت	-492
تاب	-493
رده	-494
مین	-495
نج	-496
▁A	-497
▁برخی	-498
شم	-499
▁وق	-500
کس	-501
▁مهم	-502
لیل	-503
ژه	-504
▁زمانی	-505
سه	-506
▁خان	-507
مال	-508
▁ث	-509
قیق	-510
تان	-511
▁گرفت	-512
وب	-513
▁غیر	-514
وش	-515
توان	-516
نه	-517
اتی	-518
▁کردند	-519
▁دول	-520
گری	-521
▁برا	-522
an	-523
وق	-524
▁جای	-525
▁ایران	-526
▁باشند	-527
وع	-528
▁کود	-529
ثر	-530
▁-	-531
▁افزای	-532
ادر	-533
بال	-534
واه	-535
ونی	-536
▁افزایش	-537
▁دهید	-538
▁سا	-539
ستی	-540
▁کتاب	-541
ابی	-542
▁نمای	-543
گیری	-544
▁بخش	-545
ساس	-546
▁آب	-547
▁مرا	-548
▁تغییر	-549
▁فیل	-550
ریق	-551
▁تولید	-552
▁چرا	-553
▁درصد	-554
ینی	-555
▁20	-556
▁غذ	-557
دام	-558
▁شخص	-559
▁مشت	-560
▁توانند	-561
▁اطلاعات	-562
▁همین	-563
▁ذ	-564
▁شب	-565
▁فکر	-566
▁M	-567
▁بع	-568
رح	-569
▁توجه	-570
یس	-571
یدا	-572
▁هد	-573
▁علا	-574
▁ارائ	-575
▁سیا	-576
▁فرو	-577
ضی	-578
▁دید	-579
▁ارائه	-580
ایل	-581
▁ایم	-582
زینه	-583
▁حق	-584
▁مشکل	-585
مه	-586
▁میلی	-587
▁تش	-588
▁فعال	-589
▁اخ	-590
▁گرو	-591
▁کسی	-592
▁بوده	-593
▁وقتی	-594
▁چگونه	-595
▁مخت	-596
▁خار	-597
▁عم	-598
وط	-599
رام	-600
ریت	-601
اً	-602
▁3	-603
▁P	-604
▁نخ	-605
جی	-606
▁“	-607
▁بدون	-608
▁خد	-609
▁دوست	-610
▁فرد	-611
عیت	-612
مات	-613
▁بودند	-614
▁اعت	-615
▁زیادی	-616
▁احت	-617
وس	-618
▁شدن	-619
گز	-620
▁عمل	-621
▁گرد	-622
▁خانه	-623
▁درباره	-624
▁هنگ	-625
▁پیدا	-626
▁عل	-627
ar	-628
▁گرفته	-629
▁کاه	-630
▁برد	-631
بط	-632
▁گروه	-633
راحی	-634
▁معم	-635
▁جنگ	-636
▁آل	-637
قل	-638
یشه	-639
▁اه	-640
۰۰	-641
▁سیستم	-642
تما	-643
روع	-644
بار	-645
▁ژ	-646
▁کاهش	-647
رزش	-648
▁خیلی	-649
▁وا	-650
▁حس	-651
▁–	-652
▁مطال	-653
▁بال	-654
▁شهر	-655
زه	-656
وند	-657
راین	-658
▁سازمان	-659
▁خوب	-660
من	-661
رین	-662
▁شروع	-663
▁اقت	-664
فق	-665
لیه	-666
▁دولت	-667
▁ترک	-668
گه	-669
▁کام	-670
وص	-671
▁دنی	-672
▁دریا	-673
▁متح	-674
است	-675
or	-676
الات	-677
یمی	-678
▁اب	-679
▁سایت	-680
▁B	-681
▁اقتص	-682
▁سپ	-683
▁نفر	-684
▁احساس	-685
▁فیلم	-686
▁قابل	-687
▁موض	-688
▁شک	-689
▁پر	-690
▁دلیل	-691
▁دیگری	-692
کرد	-693
▁اولین	-694
▁چنین	-695
ودی	-696
ازی	-697
رکز	-698
اسی	-699
▁کننده	-700
▁انسان	-701
▁قبل	-702
پی	-703
▁بناب	-704
▁بهترین	-705
وار	-706
دار	-707
سر	-708
▁T	-709
▁امروز	-710
▁نز	-711
یف	-712
رید	-713
▁منط	-714
زش	-715
▁مست	-716
▁میان	-717
▁دارید	-718
باط	-719
▁منت	-720
▁کسب	-721
▁صح	-722
▁19	-723
▁روش	-724
بین	-725
▁جل	-726
▁تاری	-727
▁:	-728
▁خواهید	-729
en	-730
▁ندارد	-731
▁آورد	-732
▁حرف	-733
▁همیشه	-734
یدن	-735
عث	-736
▁تلا	-737
▁باعث	-738
▁انگ	-739
▁زبان	-740
ربه	-741
سم	-742
▁بنابراین	-743
▁پرد	-744
▁کوچ	-745
▁افت	-746
▁فرا	-747
▁D	-748
▁ارو	-749
▁موفق	-750
▁خواهند	-751
شتی	-752
▁دن	-753
▁خانو	-754
▁دارای	-755
▁پاس	-756
▁قدرت	-757
▁ولی	-758
▁اق	-759
▁گذشته	-760
▁ارتباط	-761
▁مدت	-762
▁مخ	-763
▁توسعه	-764
▁معمول	-765
ران	-766
ظه	-767
▁سط	-768
▁طراحی	-769
al	-770
at	-771
▁اجتما	-772
مد	-773
▁محص	-774
▁طریق	-775
ویی	-776
طور	-777
▁دنبال	-778
▁...	-779
▁شم	-780
▁اروپ	-781
▁قان	-782
▁جهانی	-783
▁201	-784
▁5	-785
ولی	-786
▁تلاش	-787
▁کاری	-788
▁سری	-789
▁بهتر	-790
es	-791
▁آنچه	-792
اشت	-793
▁تعد	-794
▁هدف	-795
▁4	-796
اور	-797
▁مختلف	-798
▁I	-799
▁وب	-800
▁آینده	-801
اهی	-802
ریان	-803
▁شامل	-804
▁دانشگاه	-805
فاق	-806
▁هنوز	-807
▁محصول	-808
▁خاص	-809
میم	-810
نان	-811
▁پذ	-812
رن	-813
▁اصلی	-814
مایه	-815
▁زیر	-816
ندی	-817
▁اجتماعی	-818
▁خرید	-819
▁بالا	-820
▁قط	-821
▁لی	-822
▁سن	-823
▁بدن	-824
▁نوع	-825
▁اتفاق	-826
▁اشت	-827
هن	-828
▁سای	-829
▁سرمایه	-830
اسب	-831
▁دریافت	-832
▁مسئ	-833
▁مدی	-834
▁ادامه	-835
▁فروش	-836
▁المل	-837
▁گفته	-838
▁حدود	-839
▁تک	-840
▁تجربه	-841
شر	-842
▁تأ	-843
▁تحقیق	-844
ثیر	-845
▁H	-846
▁[	-847
افی	-848
▁حاض	-849
▁دادن	-850
▁مصرف	-851
▁جز	-852
▁G	-853
▁کمی	-854
▁نسبت	-855
فاوت	-856
▁احتمال	-857
▁اندازه	-858
▁ته	-859
▁زنان	-860
▁پاسخ	-861
▁خانواده	-862
این	-863
انس	-864
▁زیرا	-865
▁درمان	-866
اپ	-867
▁صد	-868
▁همراه	-869
دم	-870
ائ	-871
دود	-872
▁بررسی	-873
▁حاضر	-874
دیل	-875
▁رشد	-876
▁کوچک	-877
▁حالی	-878
▁هزینه	-879
▁آموزش	-880
▁مالی	-881
▁نزدی	-882
▁منطقه	-883
ترل	-884
صوص	-885
▁ندار	-886
▁نیرو	-887
▁ساعت	-888
▁میز	-889
▁المللی	-890
▁فعالیت	-891
▁خوبی	-892
▁میلیون	-893
رایط	-894
▁خاط	-895
▁چهار	-896
▁جام	-897
کنون	-898
▁گزار	-899
▁اض	-900
▁هفته	-901
▁شرایط	-902
▁حل	-903
▁کنترل	-904
▁تبدیل	-905
▁اید	-906
▁کلی	-907
▁وقت	-908
▁پزش	-909
▁کامل	-910
▁صف	-911
▁داخ	-912
▁شی	-913
تیجه	-914
▁تحت	-915
▁زمین	-916
یدی	-917
▁مل	-918
▁دوره	-919
▁طبی	-920
اران	-921
اش	-922
▁بده	-923
لاح	-924
▁R	-925
ربی	-926
▁فض	-927
▁آغ	-928
▁وارد	-929
▁بتوان	-930
گرد	-931
بری	-932
▁پنج	-933
▁ظ	-934
▁گست	-935
▁موضوع	-936
▁تصمیم	-937
▁بلکه	-938
▁سطح	-939
▁ارزش	-940
▁نتیجه	-941
ازم	-942
▁بیماری	-943
وست	-944
▁خصوص	-945
نا	-946
▁اک	-947
▁بازار	-948
▁مسی	-949
▁اجازه	-950
▁چون	-951
شار	-952
it	-953
▁گزارش	-954
▁هزار	-955
▁جمه	-956
▁تان	-957
▁صحبت	-958
▁گوید	-959
گران	-960
▁۲۰	-961
▁اخت	-962
▁E	-963
▁مرب	-964
▁کان	-965
▁شاید	-966
▁صن	-967
حه	-968
▁سب	-969
▁تعداد	-970
▁۳	-971
▁متحده	-972
▁مواد	-973
▁شدند	-974
▁ار	-975
▁مدیریت	-976
▁سخ	-977
ندان	-978
▁مثال	-979
▁L	-980
le	-981
▁چشم	-982
▁بیشتری	-983
▁پول	-984
▁شکل	-985
رژی	-986
▁اغ	-987
▁دلار	-988
ندگان	-989
▁گذاری	-990
▁آسی	-991
▁آغاز	-992
▁پایان	-993
▁وز	-994
دن	-995
▁وض	-996
یره	-997
▁آخ	-998
▁واقعی	-999
ic	-1000
کو	-1001
▁سل	-1002
عنی	-1003
▁ایالات	-1004
▁مغ	-1005
▁درست	-1006
▁هستید	-1007
▁بگیر	-1008
▁سف	-1009
▁F	-1010
▁برابر	-1011
رش	-1012
▁سلام	-1013
▁جمله	-1014
▁ابت	-1015
▁۱۹	-1016
بران	-1017
رون	-1018
▁مف	-1019
رض	-1020
ابت	-1021
▁طرف	-1022
▁کردم	-1023
برد	-1024
».	-1025
▁خوش	-1026
▁سازی	-1027
▁اغلب	-1028
▁نگاه	-1029
نت	-1030
مانی	-1031
▁مربوط	-1032
اح	-1033
اله	-1034
▁حمای	-1035
▁گیر	-1036
▁مثل	-1037
st	-1038
▁W	-1039
کاری	-1040
رخ	-1041
▁اینجا	-1042
▁امکان	-1043
▁بح	-1044
▁اساس	-1045
▁مناسب	-1046
▁نبود	-1047
▁مطالعه	-1048
▁نوی	-1049
▁اروپا	-1050
▁چین	-1051
بته	-1052
▁مک	-1053
▁منظ	-1054
▁یعنی	-1055
▁محدود	-1056
▁دنیا	-1057
▁سرا	-1058
▁ره	-1059
▁حض	-1060
▁رسد	-1061
▁پذیر	-1062
مایش	-1063
تری	-1064
▁دیگران	-1065
▁مشخص	-1066
▁گیری	-1067
▁نزدیک	-1068
▁شوید	-1069
▁عب	-1070
▁تاریخ	-1071
▁پروژه	-1072
▁کسانی	-1073
▁زمینه	-1074
▁تیم	-1075
ویر	-1076
▁حمایت	-1077
قات	-1078
▁قیم	-1079
▁جا	-1080
▁شبکه	-1081
▁انرژی	-1082
میت	-1083
▁لازم	-1084
▁6	-1085
اخته	-1086
لس	-1087
▁امن	-1088
▁گیرد	-1089
▁جو	-1090
▁خدمات	-1091
ولو	-1092
▁گونه	-1093
▁نگه	-1094
▁عمو	-1095
▁یافت	-1096
▁هنگامی	-1097
▁خاطر	-1098
▁البته	-1099
▁N	-1100
▁مرت	-1101
▁نف	-1102
▁روسی	-1103
صل	-1104
▁موجود	-1105
▁خواب	-1106
▁رای	-1107
اقل	-1108
▁اکنون	-1109
گو	-1110
▁جان	-1111
▁اقتصادی	-1112
▁گوی	-1113
▁هوا	-1114
▁بدان	-1115
▁رابط	-1116
ویت	-1117
▁کافی	-1118
▁طب	-1119
▁توص	-1120
▁کودکان	-1121
▁داریم	-1122
اشته	-1123
بانی	-1124
).	-1125
▁کاملا	-1126
جر	-1127
شید	-1128
▁فی	-1129
▁تقری	-1130
▁سایر	-1131
▁نمایش	-1132
▁قانون	-1133
▁اعلام	-1134
هم	-1135
ئیس	-1136
▁سپس	-1137
▁خون	-1138
وده	-1139
خانه	-1140
▁حی	-1141
▁سیاسی	-1142
▁نخواه	-1143
▁سریع	-1144
▁انتظ	-1145
▁قیمت	-1146
▁درک	-1147
▁ملی	-1148
روری	-1149
▁ست	-1150
▁شخصی	-1151
▁آزمایش	-1152
▁بان	-1153
▁۵	-1154
▁پیشر	-1155
▁بهبود	-1156
لاف	-1157
▁مرگ	-1158
▁تقریبا	-1159
▁جامعه	-1160
▁دخ	-1161
▁رسید	-1162
▁کمتر	-1163
اهای	-1164
ro	-1165
جوی	-1166
▁كه	-1167
▁داستان	-1168
▁سفر	-1169
▁درخ	-1170
▁رنگ	-1171
▁شان	-1172
▁موارد	-1173
▁دارم	-1174
امبر	-1175
▁تکن	-1176
▁طبیعی	-1177
▁ساخته	-1178
ریم	-1179
▁هرگز	-1180
▁محی	-1181
▁فرز	-1182
▁محیط	-1183
▁نت	-1184
▁بعضی	-1185
▁ساده	-1186
re	-1187
▁شناس	-1188
▁کودک	-1189
▁مذ	-1190
شین	-1191
▁لب	-1192
▁حف	-1193
ونت	-1194
▁محت	-1195
▁انتق	-1196
▁خارج	-1197
▁حقی	-1198
▁پرس	-1199
▁لح	-1200
▁رابطه	-1201
▁روسیه	-1202
▁سخت	-1203
▁عمومی	-1204
▁اقدام	-1205
ئن	-1206
▁نقش	-1207
▁صفحه	-1208
ابد	-1209
▁ویژه	-1210
ذار	-1211
▁تما	-1212
▁ایده	-1213
▁فرص	-1214
▁موفقیت	-1215
▁رق	-1216
▁عو	-1217
▁آنجا	-1218
▁حداقل	-1219
▁دوم	-1220
دان	-1221
he	-1222
▁آماده	-1223
▁حقوق	-1224
▁پدر	-1225
▁کنار	-1226
▁موق	-1227
▁مشکلات	-1228
▁افرادی	-1229
▁هو	-1230
▁بودن	-1231
▁پرداخت	-1232
▁رود	-1233
▁سیاست	-1234
▁نکن	-1235
▁حفظ	-1236
ولوژی	-1237
ارک	-1238
ئی	-1239
▁ببین	-1240
▁سوی	-1241
▁دقیق	-1242
▁200	-1243
▁رفتار	-1244
▁مجمو	-1245
)،	-1246
گیر	-1247
▁سرعت	-1248
▁حک	-1249
."	-1250
▁۴	-1251
▁حرکت	-1252
▁انگلی	-1253
▁تاثیر	-1254
راح	-1255
▁یافته	-1256
▁نب	-1257
▁خداوند	-1258
▁صرف	-1259
الت	-1260
▁دستگاه	-1261
▁طی	-1262
وک	-1263
اخ	-1264
جو	-1265
غان	-1266
▁7	-1267
▁کشورهای	-1268
ac	-1269
▁تغیی	-1270
▁برخ	-1271
هنگ	-1272
ایج	-1273
▁جست	-1274
▁آنان	-1275
▁علاوه	-1276
لق	-1277
▁قادر	-1278
اهده	-1279
▁حرفه	-1280
▁جوان	-1281
▁۲۰۱	-1282
▁دوباره	-1283
صر	-1284
ion	-1285
▁غذایی	-1286
ابع	-1287
خصص	-1288
▁میزان	-1289
▁جلو	-1290
طه	-1291
یب	-1292
▁نک	-1293
▁خطر	-1294
▁رئیس	-1295
مندان	-1296
راک	-1297
آن	-1298
واست	-1299
ابه	-1300
▁متفاوت	-1301
▁خواست	-1302
▁خواهیم	-1303
▁برو	-1304
▁10	-1305
افه	-1306
▁خارجی	-1307
آمد	-1308
▁تخ	-1309
▁راح	-1310
▁سراسر	-1311
▁حم	-1312
▁امید	-1313
▁بپ	-1314
▁مب	-1315
▁علیه	-1316
▁انتظار	-1317
▁تل	-1318
▁فرم	-1319
▁جایی	-1320
قدر	-1321
▁انگی	-1322
راف	-1323
▁برق	-1324
▁عض	-1325
▁آوری	-1326
ضا	-1327
▁آسیب	-1328
▁بیان	-1329
om	-1330
▁هنگام	-1331
طان	-1332
▁پیشنه	-1333
▁آمد	-1334
▁مادر	-1335
▁آزاد	-1336
el	-1337
▁هستیم	-1338
سال	-1339
▁خورد	-1340
▁آمریکایی	-1341
▁دهه	-1342
▁تف	-1343
کیل	-1344
▁باور	-1345
▁دیده	-1346
▁دسترسی	-1347
▁عکس	-1348
▁بخشی	-1349
▁آید	-1350
▁نویس	-1351
▁وضعیت	-1352
▁معت	-1353
▁واقعا	-1354
▁داشتن	-1355
▁طولانی	-1356
▁ور	-1357
▁کوت	-1358
تن	-1359
ظت	-1360
ستگی	-1361
▁خبر	-1362
▁بیمار	-1363
▁8	-1364
▁زیاد	-1365
روی	-1366
▁معمولا	-1367
▁شر	-1368
▁اینتر	-1369
▁تجاری	-1370
▁مشاهده	-1371
▁نتایج	-1372
▁اشتب	-1373
وریه	-1374
دیگر	-1375
افق	-1376
▁گاهی	-1377
بور	-1378
گار	-1379
داف	-1380
▁برگ	-1381
▁نشده	-1382
▁روند	-1383
▁پایین	-1384
▁مکان	-1385
قق	-1386
▁دهیم	-1387
▁منتشر	-1388
ou	-1389
▁فشار	-1390
سانی	-1391
▁ابزار	-1392
▁مشتریان	-1393
جب	-1394
ing	-1395
▁سعی	-1396
▁آمده	-1397
▁دختر	-1398
▁امنیت	-1399
▁آش	-1400
▁شناخته	-1401
▁معن	-1402
واره	-1403
▁حقیقت	-1404
▁جذ	-1405
▁مبت	-1406
▁مدیر	-1407
▁خواهم	-1408
تیک	-1409
▁9	-1410
▁اضافه	-1411
▁حضور	-1412
▁رخ	-1413
▁حمل	-1414
▁مسل	-1415
▁معنی	-1416
عا	-1417
▁مهارت	-1418
▁عملی	-1419
▁هنر	-1420
▁نباید	-1421
▁کیف	-1422
ومت	-1423
▁محصولات	-1424
▁درد	-1425
▁متو	-1426
▁نظامی	-1427
▁O	-1428
▁فرصت	-1429
▁لذ	-1430
▁عالی	-1431
▁فران	-1432
▁گل	-1433
▁ترس	-1434
▁ایشان	-1435
هر	-1436
ضای	-1437
▁سنگ	-1438
▁مرح	-1439
▁مطم	-1440
is	-1441
▁مدل	-1442
▁حساب	-1443
راتژی	-1444
بات	-1445
▁ساله	-1446
et	-1447
▁کنندگان	-1448
▁بودم	-1449
▁اسرائ	-1450
ماد	-1451
▁خلا	-1452
▁U	-1453
▁خش	-1454
اندن	-1455
▁همکاری	-1456
▁توانایی	-1457
▁استراتژی	-1458
ابط	-1459
ين	-1460
▁دقی	-1461
▁بچه	-1462
▁درخواست	-1463
▁بس	-1464
▁دارو	-1465
▁بندی	-1466
▁رسانه	-1467
▁مبار	-1468
الب	-1469
▁حالا	-1470
▁موسی	-1471
▁منابع	-1472
▁چیست	-1473
▁تمرکز	-1474
▁نخست	-1475
▁تلف	-1476
▁بینی	-1477
▁خور	-1478
▁سرو	-1479
▁بعدی	-1480
▁اقتصاد	-1481
▁سمت	-1482
▁توانیم	-1483
تل	-1484
ادل	-1485
▁مرکز	-1486
▁ثبت	-1487
▁روشن	-1488
هایت	-1489
قای	-1490
▁جنسی	-1491
نو	-1492
▁اشاره	-1493
شق	-1494
▁اشتباه	-1495
▁نیستند	-1496
▁جمع	-1497
▁نوشت	-1498
▁طرح	-1499
▁روابط	-1500
▁نوشته	-1501
▁غذا	-1502
امین	-1503
کنان	-1504
▁کلا	-1505
▁هستم	-1506
▁محل	-1507
▁فراه	-1508
▁توصیه	-1509
▁مرحله	-1510
داری	-1511
▁خودش	-1512
▁کدام	-1513
داشت	-1514
▁عملکرد	-1515
▁حمله	-1516
▁خودتان	-1517
▁آور	-1518
ائل	-1519
▁فراهم	-1520
ol	-1521
▁گویند	-1522
▁دقیقه	-1523
▁پیام	-1524
▁آگاه	-1525
▁مقام	-1526
▁متوجه	-1527
▁افز	-1528
▁پیشنهاد	-1529
▁اکثر	-1530
▁علاقه	-1531
▁شغ	-1532
▁داخلی	-1533
▁منجر	-1534
▁منظور	-1535
فه	-1536
پل	-1537
▁پشتی	-1538
▁اعتماد	-1539
واج	-1540
رال	-1541
▁توضی	-1542
▁مسیر	-1543
▁داشتند	-1544
am	-1545
▁تشکیل	-1546
▁پوست	-1547
▁مقدار	-1548
▁بگیرید	-1549
خیص	-1550
▁تغییرات	-1551
▁مجموعه	-1552
▁صنعت	-1553
▁گزینه	-1554
▁افغان	-1555
▁سوم	-1556
▁تحقیقات	-1557
▁جهت	-1558
▁جمهوری	-1559
▁برس	-1560
▁تحص	-1561
ناه	-1562
▁بسته	-1563
▁اتح	-1564
▁مدرس	-1565
▁نگر	-1566
▁اسل	-1567
▁اتاق	-1568
رافی	-1569
ریه	-1570
▁پیشرفت	-1571
▁مراق	-1572
▁استخ	-1573
▁مها	-1574
تح	-1575
ریف	-1576
▁بازاری	-1577
▁وسی	-1578
▁V	-1579
▁مستق	-1580
▁گرفتن	-1581
▁تشخیص	-1582
▁قر	-1583
▁یه	-1584
اصله	-1585
▁نرم	-1586
سک	-1587
▁مشتری	-1588
▁ماشین	-1589
▁قل	-1590
▁باشیم	-1591
▁ندارند	-1592
▁یابد	-1593
▁انگلیسی	-1594
▁تصویر	-1595
ارس	-1596
▁کال	-1597
▁کاربران	-1598
▁آخرین	-1599
il	-1600
▁کا	-1601
▁توضیح	-1602
▁رژ	-1603
▁هوش	-1604
▁گردد	-1605
▁دادند	-1606
▁اسپ	-1607
▁گیرند	-1608
لیغ	-1609
▁باقی	-1610
▁مطمئن	-1611
▁کی	-1612
گل	-1613
▁نهایت	-1614
▁سخن	-1615
▁تمرین	-1616
▁اجرای	-1617
▁دوستان	-1618
▁شاه	-1619
راق	-1620
مون	-1621
▁نور	-1622
لاین	-1623
▁اثر	-1624
▁برخورد	-1625
▁بهره	-1626
قد	-1627
▁تبلیغ	-1628
میز	-1629
واع	-1630
▁نداشت	-1631
▁کوتاه	-1632
ظیم	-1633
▁مدرسه	-1634
وبی	-1635
عیین	-1636
بیه	-1637
▁ظاه	-1638
▁متن	-1639
▁/	-1640
▁۶	-1641
▁نبا	-1642
▁اث	-1643
▁پشت	-1644
▁انقل	-1645
تش	-1646
▁اهداف	-1647
▁گسترده	-1648
▁مر	-1649
▁نفت	-1650
▁نمود	-1651
▁تعیین	-1652
▁جریان	-1653
▁پوش	-1654
▁ازد	-1655
▁مرتبط	-1656
▁آزادی	-1657
▁اجرا	-1658
▁انواع	-1659
▁وزن	-1660
as	-1661
▁آلمان	-1662
یز	-1663
▁بلند	-1664
▁واقعیت	-1665
خه	-1666
▁سوریه	-1667
▁امر	-1668
▁بخواه	-1669
▁تای	-1670
▁مشابه	-1671
قا	-1672
▁دری	-1673
ed	-1674
ظر	-1675
▁مغز	-1676
▁شکست	-1677
▁توانست	-1678
سل	-1679
▁رژیم	-1680
اتر	-1681
▁بش	-1682
▁ارس	-1683
▁بانک	-1684
▁درآمد	-1685
▁تمامی	-1686
▁بیرون	-1687
▁مردان	-1688
▁محقق	-1689
▁استاند	-1690
▁ابتدا	-1691
▁مسئله	-1692
▁چندین	-1693
▁توافق	-1694
▁اطمین	-1695
▁عشق	-1696
▁مناط	-1697
▁کاناد	-1698
▁بحث	-1699
ad	-1700
▁تهدید	-1701
▁یکدیگر	-1702
▁بو	-1703
▁حالت	-1704
▁همچنان	-1705
▁قس	-1706
▁الله	-1707
▁داخل	-1708
▁سلامت	-1709
▁موسیقی	-1710
oo	-1711
▁ویژ	-1712
▁اهمیت	-1713
▁آموزان	-1714
حال	-1715
ادگی	-1716
ندگی	-1717
▁محاف	-1718
▁اطمینان	-1719
گون	-1720
▁اسرائیل	-1721
ch	-1722
▁خوان	-1723
▁پاک	-1724
▁پا	-1725
▁لذت	-1726
▁عرض	-1727
انیا	-1728
▁مال	-1729
▁نص	-1730
▁جلوگیری	-1731
▁میل	-1732
▁کردیم	-1733
▁کیفیت	-1734
▁آنلاین	-1735
▁اولیه	-1736
▁پزشکی	-1737
▁عق	-1738
▁الکت	-1739
▁میکن	-1740
▁بگو	-1741
▁آسان	-1742
▁سرطان	-1743
▁قوی	-1744
▁محلی	-1745
▁اینترنت	-1746
▁برند	-1747
▁نمونه	-1748
▁نکنید	-1749
▁اعضای	-1750
وای	-1751
▁سود	-1752
▁ورزش	-1753
▁خصوصی	-1754
▁ویژگی	-1755
▁کشف	-1756
▁ازدواج	-1757
▁الع	-1758
▁سفید	-1759
▁نسخه	-1760
▁مقاله	-1761
▁ذهن	-1762
▁فرانسه	-1763
▁هسته	-1764
▁استاندارد	-1765
▁پیچ	-1766
کته	-1767
ادت	-1768
▁قسمت	-1769
الد	-1770
▁سلول	-1771
▁تکنولوژی	-1772
▁افغانستان	-1773
▁جدا	-1774
▁اختی	-1775
▁دک	-1776
▁فیزی	-1777
▁بازگ	-1778
▁نامه	-1779
▁دهنده	-1780
▁گوش	-1781
▁نخواهد	-1782
▁میک	-1783
▁راست	-1784
نم	-1785
اوی	-1786
گذ	-1787
▁درو	-1788
▁؟	-1789
▁پاد	-1790
شناس	-1791
▁خوا	-1792
▁معل	-1793
▁شدید	-1794
▁ارسال	-1795
▁کامپی	-1796
▁دوران	-1797
امت	-1798
لیس	-1799
▁زنده	-1800
▁اخیر	-1801
حل	-1802
▁سالم	-1803
▁فوق	-1804
▁جمهور	-1805
لیت	-1806
▁ارز	-1807
یک	-1808
▁سوال	-1809
جات	-1810
▁۱۰	-1811
▁عد	-1812
▁بگذار	-1813
▁ماند	-1814
▁قرن	-1815
▁پشتیبانی	-1816
▁آرام	-1817
مز	-1818
▁صل	-1819
▁تجارت	-1820
▁گسترش	-1821
رفی	-1822
روس	-1823
▁بازاریابی	-1824
▁وس	-1825
.”	-1826
فاع	-1827
▁مای	-1828
▁ترکیه	-1829
▁میلیارد	-1830
▁تفاوت	-1831
▁انتقال	-1832
▁*	-1833
▁فرهنگ	-1834
▁بک	-1835
▁قوان	-1836
▁جدی	-1837
رامپ	-1838
ئم	-1839
▁)	-1840
چار	-1841
▁پژ	-1842
of	-1843
000	-1844
▁انسانی	-1845
حد	-1846
▁مناطق	-1847
▁پرداز	-1848
بح	-1849
اصل	-1850
▁نیم	-1851
▁مسائل	-1852
▁دانشجوی	-1853
▁»	-1854
▁جدیدی	-1855
تا	-1856
▁اوقات	-1857
▁تازه	-1858
▁کارهای	-1859
خته	-1860
تور	-1861
▁رفتن	-1862
▁خودم	-1863
▁ناب	-1864
▁ترامپ	-1865
ئو	-1866
▁نقطه	-1867
▁۲۰۰	-1868
▁امریک	-1869
▁متخصص	-1870
▁کره	-1871
▁شخصیت	-1872
▁ران	-1873
اها	-1874
▁آقای	-1875
▁تماس	-1876
▁کجا	-1877
▁فرزند	-1878
▁مبارزه	-1879
▁هند	-1880
▁دنیای	-1881
▁نیروهای	-1882
▁تحلیل	-1883
▁مهاج	-1884
▁قلب	-1885
▁نشانه	-1886
▁فلس	-1887
▁قصد	-1888
ابق	-1889
▁آتش	-1890
▁هفت	-1891
▁آدم	-1892
▁پژوه	-1893
▁احتمالا	-1894
▁یادگیری	-1895
▁شبیه	-1896
▁قوانین	-1897
▁ساختمان	-1898
▁نیروی	-1899
▁t	-1900
▁طبق	-1901
▁تری	-1902
▁ایست	-1903
▁بگوی	-1904
▁قدیمی	-1905
▁مشترک	-1906
▁مجبور	-1907
▁معرفی	-1908
▁K	-1909
▁گوگل	-1910
▁ریزی	-1911
▁مقابل	-1912
گفت	-1913
▁پل	-1914
ولیت	-1915
▁اله	-1916
▁شدت	-1917
وتر	-1918
▁صلح	-1919
▁رد	-1920
▁موس	-1921
▁حز	-1922
▁تصور	-1923
▁چقدر	-1924
▁موقعیت	-1925
▁مستقیم	-1926
▁امنی	-1927
▁صبح	-1928
گیرد	-1929
▁فضای	-1930
▁درون	-1931
▁عراق	-1932
روت	-1933
▁تض	-1934
▁جستجو	-1935
▁رسیدن	-1936
▁بنی	-1937
▁مقای	-1938
انیه	-1939
▁بازدید	-1940
▁بزرگترین	-1941
▁دچار	-1942
▁دانست	-1943
وتی	-1944
▁مقایسه	-1945
▁تاب	-1946
▁سیاه	-1947
▁عبارت	-1948
اج	-1949
▁نکته	-1950
▁فرامو	-1951
بع	-1952
▁بشر	-1953
ادیه	-1954
▁اعمال	-1955
کنش	-1956
▁فل	-1957
▁ارزی	-1958
ویزی	-1959
▁گرم	-1960
▁وظ	-1961
سازی	-1962
▁متع	-1963
راب	-1964
▁میش	-1965
▁فصل	-1966
▁علمی	-1967
▁چطور	-1968
▁میتوان	-1969
iv	-1970
▁ترکیب	-1971
▁عدم	-1972
▁اختیار	-1973
▁کانادا	-1974
▁موا	-1975
▁تأثیر	-1976
صه	-1977
▁مطالعات	-1978
and	-1979
▁حاصل	-1980
▁افزار	-1981
▁راحتی	-1982
▁۸	-1983
ینگ	-1984
▁J	-1985
سیون	-1986
▁ژاپ	-1987
▁تلفن	-1988
▁فردی	-1989
▁امنیتی	-1990
▁گذار	-1991
کرا	-1992
▁شا	-1993
▁همانطور	-1994
▁رسمی	-1995
▁لباس	-1996
▁مثبت	-1997
▁جایگز	-1998
▁12	-1999
▁نداشته	-2000
▁اتحادیه	-2001
▁بازگشت	-2002
id	-2003
▁مفید	-2004
ay	-2005
آی	-2006
▁عص	-2007
▁گذاشت	-2008
▁رسیده	-2009
▁دوربین	-2010
▁دسترس	-2011
▁تلویزی	-2012
زا	-2013
▁دانم	-2014
▁۷	-2015
▁15	-2016
▁نح	-2017
▁مدا	-2018
انت	-2019
ستانی	-2020
▁توانم	-2021
▁شش	-2022
شا	-2023
▁افس	-2024
▁صاد	-2025
ent	-2026
▁کمپ	-2027
عهد	-2028
آوری	-2029
اشق	-2030
جیت	-2031
▁حیوان	-2032
▁عامل	-2033
▁روزانه	-2034
▁18	-2035
کا	-2036
▁آس	-2037
▁زده	-2038
▁متوس	-2039
▁اطراف	-2040
▁تروری	-2041
لال	-2042
▁محققان	-2043
▁ارزیابی	-2044
▁مشاور	-2045
▁شناسایی	-2046
▁حزب	-2047
▁سرد	-2048
▁درجه	-2049
▁انداز	-2050
▁دانند	-2051
▁روان	-2052
▁شیر	-2053
▁موثر	-2054
▁لو	-2055
▁فراموش	-2056
راز	-2057
▁العاده	-2058
جم	-2059
وزه	-2060
▁زود	-2061
▁بمان	-2062
▁مراقبت	-2063
▁شهرو	-2064
▁امیدوار	-2065
▁عمی	-2066
▁دیجیت	-2067
▁خودشان	-2068
▁عرب	-2069
▁اشتراک	-2070
▁دندان	-2071
▁قانونی	-2072
▁نقل	-2073
▁ذخ	-2074
▁جمعیت	-2075
اشی	-2076
▁خاصی	-2077
▁رفته	-2078
us	-2079
هنگی	-2080
رگی	-2081
نگی	-2082
سیس	-2083
عده	-2084
▁دولتی	-2085
یری	-2086
▁خوردن	-2087
رونی	-2088
▁عضو	-2089
▁پروت	-2090
یلی	-2091
▁اسلامی	-2092
ig	-2093
▁دش	-2094
سیم	-2095
▁کامپیوتر	-2096
▁ضد	-2097
▁حذ	-2098
لاً	-2099
▁آف	-2100
عتی	-2101
▁دع	-2102
وانی	-2103
▁روح	-2104
▁بزرگی	-2105
▁دمو	-2106
▁سبک	-2107
▁تعریف	-2108
▁۹	-2109
▁چال	-2110
▁زیست	-2111
▁موتور	-2112
▁”	-2113
▁ژن	-2114
▁پزشک	-2115
▁مواجه	-2116
▁چرخ	-2117
▁مطرح	-2118
ot	-2119
▁داری	-2120
▁لحظه	-2121
▁پایه	-2122
لود	-2123
▁پرواز	-2124
▁فوت	-2125
▁دانشجویان	-2126
▁هدایت	-2127
▁شمالی	-2128
▁وزیر	-2129
▁نکرده	-2130
خواه	-2131
▁موجب	-2132
▁قرآن	-2133
▁چیزهایی	-2134
▁دستی	-2135
رور	-2136
▁بارد	-2137
▁علی	-2138
▁کلاس	-2139
▁ببر	-2140
▁واکنش	-2141
گردان	-2142
▁فرهنگی	-2143
▁تحصیل	-2144
▁کلمه	-2145
▁افتد	-2146
▁منبع	-2147
ته	-2148
▁امام	-2149
▁ضروری	-2150
....	-2151
ورتی	-2152
▁انگیز	-2153
▁اگرچه	-2154
▁علت	-2155
▁نکرد	-2156
▁برگزار	-2157
کید	-2158
رالی	-2159
سب	-2160
▁مبتلا	-2161
▁حذف	-2162
▁مؤ	-2163
▁سازد	-2164
▁انقلاب	-2165
▁هوشمند	-2166
▁انتخابات	-2167
▁دفاع	-2168
▁ورود	-2169
▁علائم	-2170
▁ویت	-2171
▁جذب	-2172
وران	-2173
▁منح	-2174
▁ثابت	-2175
ag	-2176
روف	-2177
▁دشم	-2178
شناسی	-2179
ریب	-2180
▁دهم	-2181
▁همسر	-2182
▁اساسی	-2183
▁قرا	-2184
▁پلیس	-2185
یش	-2186
▁نگران	-2187
▁امروزه	-2188
▁زد	-2189
▁•	-2190
▁حوزه	-2191
▁دانلود	-2192
▁متوسط	-2193
تون	-2194
▁فار	-2195
▁زیب	-2196
ابقه	-2197
▁ببینید	-2198
ئین	-2199
▁همس	-2200
ادهای	-2201
▁عاشق	-2202
▁تمای	-2203
خش	-2204
▁معنای	-2205
▁آموزشی	-2206
▁صدای	-2207
▁معتقد	-2208
▁بخوان	-2209
▁محافظت	-2210
روزی	-2211
▁ماد	-2212
▁نجات	-2213
▁تست	-2214
▁ترتی	-2215
▁ثروت	-2216
سون	-2217
▁بای	-2218
▁امور	-2219
▁ماده	-2220
▁مخال	-2221
▁پژوهش	-2222
ur	-2223
▁آشن	-2224
▁محب	-2225
▁روید	-2226
▁محتوای	-2227
▁بدانید	-2228
▁of	-2229
▁پسر	-2230
▁بگیرد	-2231
▁ساختار	-2232
▁پیچیده	-2233
▁تنظیم	-2234
▁فنا	-2235
▁مدرن	-2236
▁چالش	-2237
ــ	-2238
ژن	-2239
اضی	-2240
لند	-2241
▁ستاره	-2242
▁اصلاح	-2243
▁دیدگاه	-2244
▁مرک	-2245
▁فرمان	-2246
لاگ	-2247
▁پو	-2248
راحت	-2249
ow	-2250
▁ماهی	-2251
▁حکومت	-2252
▁p	-2253
▁قاب	-2254
▁شیوه	-2255
▁مسلمان	-2256
وف	-2257
▁فاصله	-2258
▁فناوری	-2259
وح	-2260
▁فایل	-2261
▁کلیدی	-2262
▁شغل	-2263
▁آنکه	-2264
ارکت	-2265
▁برج	-2266
▁بریت	-2267
▁ظاهر	-2268
▁قرارد	-2269
▁کاربرد	-2270
غال	-2271
▁دکتر	-2272
▁قبلی	-2273
▁وح	-2274
▁کارت	-2275
▁اپ	-2276
جان	-2277
▁مختل	-2278
▁شع	-2279
▁رقابت	-2280
▁دیدن	-2281
▁معمولاً	-2282
رانی	-2283
▁پست	-2284
▁ارتش	-2285
يد	-2286
▁واحد	-2287
▁اینها	-2288
ایه	-2289
▁کشته	-2290
▁خواندن	-2291
▁شیمی	-2292
▁مسئول	-2293
وقف	-2294
▁سق	-2295
▁قطع	-2296
وریت	-2297
▁رهبری	-2298
▁شگفت	-2299
ec	-2300
▁بالای	-2301
▁جنوبی	-2302
ایع	-2303
▁نخستین	-2304
باز	-2305
▁لیست	-2306
▁قه	-2307
▁متوقف	-2308
▁گاز	-2309
▁آفریق	-2310
وله	-2311
▁خودرو	-2312
▁خشونت	-2313
▁بتواند	-2314
▁ترتیب	-2315
▁درمانی	-2316
رایی	-2317
▁ایت	-2318
▁ملل	-2319
▁جالب	-2320
▁نگرانی	-2321
20	-2322
▁زیبا	-2323
un	-2324
▁لط	-2325
آیند	-2326
▁مقد	-2327
▁جزئی	-2328
▁آد	-2329
▁اختص	-2330
▁St	-2331
▁ذخیره	-2332
▁وسیله	-2333
▁بیماران	-2334
▁مسئولیت	-2335
!!	-2336
سا	-2337
زارت	-2338
▁مقامات	-2339
▁عف	-2340
▁جایگزین	-2341
em	-2342
▁مجاز	-2343
آورد	-2344
▁جشن	-2345
▁نوز	-2346
▁دانشمندان	-2347
▁والد	-2348
▁گفتند	-2349
خصوص	-2350
▁مهند	-2351
▁مهمی	-2352
▁ناشی	-2353
▁دانید	-2354
▁کشورها	-2355
▁لین	-2356
▁مگر	-2357
▁امریکا	-2358
ut	-2359
افت	-2360
▁مرز	-2361
▁شماره	-2362
▁شدم	-2363
▁اعتق	-2364
▁منفی	-2365
▁سرویس	-2366
▁آخر	-2367
▁مانده	-2368
گانه	-2369
▁هشت	-2370
▁عوامل	-2371
▁کد	-2372
▁سرز	-2373
▁استرس	-2374
▁سع	-2375
▁وزارت	-2376
▁اقدامات	-2377
▁بزن	-2378
اویر	-2379
▁اين	-2380
▁ظرف	-2381
▁پارک	-2382
▁عرضه	-2383
نش	-2384
▁استرالی	-2385
اما	-2386
ابان	-2387
▁آورده	-2388
▁برادر	-2389
▁هوایی	-2390
▁خدمت	-2391
میل	-2392
▁نیازهای	-2393
اظ	-2394
ماز	-2395
فع	-2396
▁علم	-2397
▁s	-2398
▁عمیق	-2399
کاران	-2400
▁داند	-2401
▁باشم	-2402
▁افتاد	-2403
▁تکرار	-2404
▁جواب	-2405
ویه	-2406
▁تد	-2407
ربانی	-2408
▁اسلام	-2409
▁تقویت	-2410
▁قدر	-2411
ation	-2412
▁بالاتر	-2413
چی	-2414
ers	-2415
▁نرخ	-2416
▁اندازی	-2417
▁موش	-2418
▁ارشد	-2419
راج	-2420
▁نهایی	-2421
▁تاریخی	-2422
▁معرض	-2423
▁محبوب	-2424
▁فرزندان	-2425
▁199	-2426
▁مقا	-2427
▁کاربر	-2428
▁تصاویر	-2429
▁فرآیند	-2430
ذیر	-2431
▁ایمیل	-2432
▁زدن	-2433
داران	-2434
▁تهیه	-2435
▁فرست	-2436
▁نماید	-2437
▁اخلا	-2438
▁مزای	-2439
im	-2440
▁دروغ	-2441
▁رشته	-2442
▁مساف	-2443
▁موضو	-2444
زم	-2445
وئ	-2446
▁سلاح	-2447
▁دانیم	-2448
▁ایرانی	-2449
▁30	-2450
▁صورتی	-2451
▁پار	-2452
▁عمر	-2453
▁محک	-2454
▁In	-2455
▁فهم	-2456
▁نصب	-2457
▁پوشش	-2458
▁خواسته	-2459
▁مشارکت	-2460
▁شویم	-2461
ap	-2462
▁بند	-2463
▁ذکر	-2464
▁قابلیت	-2465
▁مشغ	-2466
▁برسد	-2467
▁اختصاص	-2468
▁همواره	-2469
▁کاملاً	-2470
▁کارکنان	-2471
▁صاح	-2472
▁نسل	-2473
▁کنی	-2474
▁مرکزی	-2475
▁عملیات	-2476
نز	-2477
▁کف	-2478
راری	-2479
▁دام	-2480
▁غرب	-2481
▁دیجیتال	-2482
▁The	-2483
▁نفس	-2484
▁هشد	-2485
▁بگیرند	-2486
▁مجد	-2487
▁ملا	-2488
▁هتل	-2489
▁پرت	-2490
▁اطلاعاتی	-2491
▁ناپ	-2492
▁دشوار	-2493
بد	-2494
▁تس	-2495
▁عه	-2496
▁لا	-2497
▁خانم	-2498
▁کشتی	-2499
▁خلق	-2500
▁بحران	-2501
▁ي	-2502
ir	-2503
▁قبول	-2504
▁اعتقاد	-2505
▁روزنامه	-2506
▁کشاور	-2507
▁تور	-2508
▁فرض	-2509
▁نوشتن	-2510
▁فیزیکی	-2511
حات	-2512
یمان	-2513
او	-2514
▁کری	-2515
▁وعده	-2516
▁بم	-2517
▁c	-2518
عیف	-2519
▁دسته	-2520
▁حفا	-2521
▁خلاق	-2522
▁زندان	-2523
▁حیوانات	-2524
جمه	-2525
▁چینی	-2526
▁اداره	-2527
ایش	-2528
▁خودمان	-2529
سات	-2530
▁صند	-2531
▁والدین	-2532
▁مستقل	-2533
▁محدودیت	-2534
عم	-2535
▁شمار	-2536
گوی	-2537
▁ژاپن	-2538
▁گران	-2539
▁دموکرا	-2540
▁تلویزیون	-2541
قیه	-2542
▁ممن	-2543
▁تصوی	-2544
▁احساسات	-2545
▁جد	-2546
▁یو	-2547
شنبه	-2548
▁طلا	-2549
▁ناخ	-2550
▁تقسیم	-2551
▁سالگی	-2552
▁آوردن	-2553
▁بله	-2554
▁غربی	-2555
▁مختلفی	-2556
▁واقعاً	-2557
▁اکت	-2558
وید	-2559
▁انج	-2560
▁توی	-2561
▁تمایل	-2562
اصر	-2563
▁مي	-2564
زد	-2565
▁کلمات	-2566
oc	-2567
▁مشغول	-2568
▁میدان	-2569
▁عوض	-2570
▁کیل	-2571
▁رایگان	-2572
▁سگ	-2573
▁سلامتی	-2574
▁قدرتمند	-2575
▁نویسنده	-2576
▁اقامت	-2577
▁مناف	-2578
ورک	-2579
▁گوشی	-2580
▁واب	-2581
▁مند	-2582
▁گردش	-2583
▁اروپایی	-2584
▁علوم	-2585
▁لحاظ	-2586
▁استاد	-2587
▁نتوان	-2588
▁برقرار	-2589
▁دفت	-2590
▁تایید	-2591
▁هشدار	-2592
▁زیبایی	-2593
▁متحد	-2594
▁نظام	-2595
▁گذاشته	-2596
▁غل	-2597
▁درس	-2598
▁میشود	-2599
▁نباشد	-2600
غن	-2601
▁۱۵	-2602
▁روزی	-2603
▁مذه	-2604
▁کوه	-2605
▁مخاط	-2606
▁الان	-2607
تو	-2608
▁11	-2609
▁جراحی	-2610
▁داشتم	-2611
▁(1	-2612
▁قدم	-2613
ثی	-2614
▁کشت	-2615
▁راحت	-2616
▁رهبران	-2617
▁دلایل	-2618
▁­	-2619
▁پناه	-2620
▁چنان	-2621
▁تضمین	-2622
▁پیاده	-2623
▁دادگاه	-2624
ul	-2625
▁فن	-2626
▁نشد	-2627
▁راهی	-2628
▁طبقه	-2629
▁نحوه	-2630
▁فیس	-2631
▁استرالیا	-2632
▁m	-2633
▁خورشید	-2634
جهیز	-2635
زمان	-2636
▁عین	-2637
▁افزود	-2638
ویق	-2639
▁ول	-2640
▁فعلی	-2641
▁خرو	-2642
▁مام	-2643
▁تحریم	-2644
▁خوشحال	-2645
پیم	-2646
▁اون	-2647
▁متر	-2648
▁دقت	-2649
▁چگون	-2650
▁باره	-2651
▁100	-2652
▁بودجه	-2653
▁مار	-2654
▁صنعتی	-2655
▁طوری	-2656
▁احترام	-2657
▁مصاح	-2658
▁نظارت	-2659
▁رت	-2660
▁تجهیز	-2661
▁تولد	-2662
▁قهوه	-2663
▁چگونگی	-2664
راتی	-2665
▁مخصوص	-2666
▁آگاهی	-2667
▁میکند	-2668
▁تبلیغات	-2669
▁خاک	-2670
▁درخت	-2671
؟!	-2672
▁آمیز	-2673
▁ایمان	-2674
یدم	-2675
▁دین	-2676
▁قربانی	-2677
اهد	-2678
▁عربستان	-2679
▁مکانی	-2680
یسی	-2681
▁عادی	-2682
▁مطلب	-2683
▁حفاظت	-2684
گن	-2685
▁عجی	-2686
▁فرود	-2687
▁منافع	-2688
بش	-2689
کلی	-2690
▁آفر	-2691
▁اصل	-2692
▁شمال	-2693
▁فرای	-2694
▁پادش	-2695
▁مصاحبه	-2696
▁شیمیایی	-2697
▁بدهید	-2698
▁بگذارید	-2699
ادث	-2700
▁یون	-2701
um	-2702
▁گم	-2703
▁چاپ	-2704
▁امتح	-2705
▁دفتر	-2706
▁منتقل	-2707
▁رنج	-2708
▁سبز	-2709
▁سین	-2710
▁جلسه	-2711
▁ترجی	-2712
▁الکترونی	-2713
▁بریتانیا	-2714
ter	-2715
؟»	-2716
▁بدست	-2717
▁گفتم	-2718
▁توجهی	-2719
▁25	-2720
os	-2721
زل	-2722
مرکز	-2723
▁میده	-2724
▁رح	-2725
▁فروشگاه	-2726
▁بیمارستان	-2727
▁تعط	-2728
▁گام	-2729
▁شهری	-2730
باری	-2731
▁آشکار	-2732
▁شاهد	-2733
▁گروهی	-2734
▁امتحان	-2735
▁نیازمند	-2736
فانه	-2737
▁خطرن	-2738
بل	-2739
حیه	-2740
▁صحنه	-2741
▁خدای	-2742
▁طبیعت	-2743
▁پیشرفته	-2744
▁مفه	-2745
▁ایمنی	-2746
▁هزاران	-2747
▁بقیه	-2748
▁ترجمه	-2749
▁جایزه	-2750
▁گذارد	-2751
▁13	-2752
▁فلسط	-2753
▁بتوانند	-2754
▁آپ	-2755
▁محس	-2756
▁منحصر	-2757
▁نقاط	-2758
▁عفونت	-2759
od	-2760
▁كن	-2761
▁عقب	-2762
▁جنوب	-2763
▁تامین	-2764
▁تقریباً	-2765
نس	-2766
▁مشه	-2767
▁دعوت	-2768
▁رتبه	-2769
▁وبلاگ	-2770
▁بست	-2771
▁آیند	-2772
▁روغن	-2773
▁نوزاد	-2774
▁اوایل	-2775
▁کارها	-2776
.[	-2777
▁وید	-2778
▁تخصص	-2779
▁کلید	-2780
▁نگهداری	-2781
▁!	-2782
▁مز	-2783
▁اتفاقی	-2784
کره	-2785
▁اسم	-2786
▁متصل	-2787
▁نوعی	-2788
▁حاف	-2789
▁بستگی	-2790
▁تعدادی	-2791
▁ویتامین	-2792
▁گاه	-2793
▁تعهد	-2794
▁نشست	-2795
▁کارگران	-2796
ess	-2797
▁50	-2798
▁جزیره	-2799
▁توصیف	-2800
▁حملات	-2801
▁منتظر	-2802
▁انتشار	-2803
▁گناه	-2804
▁آسمان	-2805
ia	-2806
بیل	-2807
▁رادی	-2808
▁کارآ	-2809
▁شناخت	-2810
▁دریایی	-2811
▁جذاب	-2812
حیح	-2813
ردگی	-2814
▁فضا	-2815
▁قرم	-2816
▁عک	-2817
▁اعد	-2818
بیر	-2819
نتی	-2820
▁آر	-2821
▁بردن	-2822
یفه	-2823
گذار	-2824
▁خام	-2825
▁رهبر	-2826
▁پرسش	-2827
▁یهودی	-2828
▁قرارداد	-2829
الیا	-2830
▁بید	-2831
▁بودیم	-2832
پر	-2833
▁اصول	-2834
▁حتما	-2835
▁ملاقات	-2836
▁تقاض	-2837
▁سوخت	-2838
▁مایل	-2839
تناب	-2840
▁پنه	-2841
گذاری	-2842
▁الهی	-2843
▁بساز	-2844
▁پاید	-2845
▁دستور	-2846
▁مهاجرت	-2847
▁عبور	-2848
▁برنده	-2849
▁نامیده	-2850
چسب	-2851
▁انگل	-2852
▁اجتناب	-2853
▁مزایای	-2854
▁ارد	-2855
▁صدا	-2856
▁ـ	-2857
انو	-2858
لو	-2859
▁16	-2860
▁۱۲	-2861
▁هرچ	-2862
▁بروز	-2863
▁سرزمین	-2864
▁ورز	-2865
▁گیاه	-2866
هی	-2867
▁X	-2868
▁بگذ	-2869
▁بروید	-2870
▁تاکنون	-2871
لات	-2872
▁ژان	-2873
▁جنبه	-2874
▁بهتری	-2875
▁کانال	-2876
▁مدیران	-2877
▁هواپیم	-2878
ولد	-2879
روم	-2880
▁اهل	-2881
▁سختی	-2882
▁تکنیک	-2883
▁ارتباطات	-2884
ایق	-2885
▁جع	-2886
▁باغ	-2887
▁روست	-2888
▁آزمون	-2889
مولی	-2890
▁تغذ	-2891
▁تئ	-2892
▁پدید	-2893
▁گذشت	-2894
▁وظیفه	-2895
▁پیروزی	-2896
▁نیمه	-2897
▁نیوی	-2898
▁یافتن	-2899
▁فرایند	-2900
▁میلادی	-2901
ونا	-2902
گین	-2903
ابله	-2904
▁درستی	-2905
▁فراتر	-2906
▁اصلا	-2907
▁برسان	-2908
▁ثانیه	-2909
▁مخالف	-2910
▁مقاومت	-2911
▁اضط	-2912
▁تشویق	-2913
شنگ	-2914
▁رست	-2915
▁انگیزه	-2916
▁بیای	-2917
▁سعودی	-2918
▁شهروندان	-2919
رایش	-2920
▁آبی	-2921
▁برگز	-2922
▁عادت	-2923
▁ترجیح	-2924
▁تعطیل	-2925
ویل	-2926
▁14	-2927
▁چپ	-2928
گاهی	-2929
▁اظه	-2930
▁سرباز	-2931
▁کردید	-2932
▁بتوانید	-2933
▁۳۰	-2934
امله	-2935
▁امسال	-2936
▁مقابله	-2937
▁بیشترین	-2938
▁شف	-2939
▁بهداشت	-2940
▁رویکرد	-2941
▁برخوردار	-2942
ویس	-2943
▁فد	-2944
▁قبلا	-2945
▁اضافی	-2946
▁نظریه	-2947
▁بب	-2948
▁۱۰۰	-2949
▁حضرت	-2950
▁تغذیه	-2951
▁افتاده	-2952
▁f	-2953
داک	-2954
▁شماست	-2955
▁واض	-2956
تامبر	-2957
▁تجهیزات	-2958
▁دهندگان	-2959
▁آرز	-2960
▁بطور	-2961
▁درگیر	-2962
▁بگویید	-2963
▁متمرکز	-2964
نوعی	-2965
▁رض	-2966
▁ظه	-2967
گاری	-2968
▁پخش	-2969
▁ادعا	-2970
▁اظهار	-2971
th	-2972
▁شغلی	-2973
▁قلبی	-2974
▁چهره	-2975
".	-2976
»،	-2977
▁سؤ	-2978
▁روب	-2979
▁سرگر	-2980
▁انجمن	-2981
▁معروف	-2982
جع	-2983
▁طل	-2984
▁سام	-2985
▁ناد	-2986
▁اسک	-2987
▁فنی	-2988
▁بدهد	-2989
▁همانند	-2990
رتان	-2991
▁عهده	-2992
▁قرمز	-2993
▁برچسب	-2994
▁جزئیات	-2995
رافیک	-2996
▁فرمود	-2997
▁زندانی	-2998
-1	-2999
▁لینک	-3000
▁چربی	-3001
▁هیجان	-3002
▁d	-3003
▁بیت	-3004
▁مقر	-3005
▁خواند	-3006
▁مداوم	-3007
▁نیویورک	-3008
▁Y	-3009
▁دائ	-3010
▁بزرگتر	-3011
ab	-3012
زیع	-3013
ومی	-3014
▁مبل	-3015
▁معمولی	-3016
▁چیزهای	-3017
▁آشنا	-3018
▁حو	-3019
▁جنبش	-3020
▁خطرناک	-3021
▁خریداری	-3022
ce	-3023
ثار	-3024
لاک	-3025
▁سک	-3026
نمایی	-3027
▁تاکید	-3028
▁پیوند	-3029
▁سپتامبر	-3030
▁بکن	-3031
داشتی	-3032
▁ریسک	-3033
▁فرار	-3034
▁تنهایی	-3035
ذی	-3036
▁هایشان	-3037
زیه	-3038
▁رز	-3039
▁اختلاف	-3040
▁امپ	-3041
▁بنا	-3042
▁رها	-3043
▁شای	-3044
▁فوتبال	-3045
ندن	-3046
▁نات	-3047
▁پذیرش	-3048
▁بخوانید	-3049
ژانس	-3050
▁ناگه	-3051
▁استان	-3052
▁افسردگی	-3053
▁سابق	-3054
▁دقیقا	-3055
مع	-3056
▁اصط	-3057
▁کشد	-3058
▁یاب	-3059
▁برده	-3060
▁مالک	-3061
▁بگویم	-3062
▁مالیات	-3063
یدند	-3064
▁سیاره	-3065
ئت	-3066
وال	-3067
▁امتی	-3068
op	-3069
سین	-3070
▁نده	-3071
▁توزیع	-3072
▁فارغ	-3073
▁حافظه	-3074
▁بارداری	-3075
▁انگلستان	-3076
▁اختلال	-3077
▁خیر	-3078
▁کرب	-3079
فرانس	-3080
▁حداک	-3081
▁پنهان	-3082
▁گرفتند	-3083
▁مى	-3084
▁محتوا	-3085
▁جستجوی	-3086
av	-3087
خره	-3088
داد	-3089
▁ملت	-3090
▁نیازی	-3091
▁خیابان	-3092
اورد	-3093
▁متق	-3094
▁بدین	-3095
▁نماز	-3096
▁برداشت	-3097
▁لغ	-3098
رداز	-3099
▁حاوی	-3100
▁b	-3101
▁خاور	-3102
▁میوه	-3103
▁محسوب	-3104
▁برآورد	-3105
▁همزمان	-3106
▁پاکستان	-3107
اکره	-3108
▁بیمه	-3109
▁تی	-3110
▁هماه	-3111
▁اطلاع	-3112
▁ایتالیا	-3113
کده	-3114
▁دیوار	-3115
▁پرورش	-3116
▁مراحل	-3117
پیما	-3118
▁سفار	-3119
▁رمز	-3120
▁ماج	-3121
▁دیدار	-3122
▁موزه	-3123
فاوتی	-3124
▁صحیح	-3125
▁عجیب	-3126
▁نقشه	-3127
▁تجزیه	-3128
▁اعتبار	-3129
▁مذاکره	-3130
راض	-3131
▁اتص	-3132
▁جاده	-3133
▁مرور	-3134
▁هاست	-3135
▁پذیری	-3136
▁بدی	-3137
▁واضح	-3138
▁هرچند	-3139
▁روزهای	-3140
▁پروتئین	-3141
▁17	-3142
▁مجوز	-3143
▁مساله	-3144
▁نمایند	-3145
▁کارهایی	-3146
وذ	-3147
▁تز	-3148
▁سند	-3149
▁سوء	-3150
لت	-3151
▁متعد	-3152
▁کارشناس	-3153
سور	-3154
▁اسب	-3155
▁قتل	-3156
▁پن	-3157
▁حاک	-3158
▁گذر	-3159
▁شورای	-3160
▁ممنوع	-3161
▁استخدام	-3162
▁موضوعات	-3163
حالی	-3164
▁سنت	-3165
▁مسیح	-3166
▁شناسی	-3167
▁چهارم	-3168
▁معامله	-3169
▁بخواهید	-3170
▁بص	-3171
▁دم	-3172
▁اشک	-3173
▁ترا	-3174
▁آثار	-3175
▁مفهوم	-3176
▁کنفرانس	-3177
ri	-3178
▁دس	-3179
...]	-3180
▁مبتنی	-3181
▁198	-3182
▁کلیک	-3183
▁بزرگسال	-3184
▁افتخ	-3185
▁بپرس	-3186
▁لطفا	-3187
▁خلاصه	-3188
▁فضایی	-3189
غم	-3190
▁ابتد	-3191
▁تفکر	-3192
▁آورند	-3193
▁واشنگ	-3194
▁رانندگی	-3195
▁نژ	-3196
جوان	-3197
▁زودی	-3198
▁نمایید	-3199
اگر	-3200
▁صادر	-3201
▁ضعیف	-3202
▁لندن	-3203
جد	-3204
قوه	-3205
▁یخ	-3206
▁اخی	-3207
▁فهر	-3208
ارهای	-3209
جایی	-3210
▁مصر	-3211
▁التح	-3212
▁بدتر	-3213
▁دشمن	-3214
▁شانس	-3215
▁حداکثر	-3216
▁بهداشتی	-3217
▁آهنگ	-3218
▁افکار	-3219
▁تاسیس	-3220
▁مطل	-3221
▁موقع	-3222
▁ببرید	-3223
▁ریشه	-3224
▁ارزان	-3225
▁تهران	-3226
▁فرانس	-3227
▁واشنگتن	-3228
▁انع	-3229
▁شوم	-3230
▁پلا	-3231
▁موسسه	-3232
▁مذاک	-3233
▁تکمیل	-3234
▁سخنرانی	-3235
▁کارشناسی	-3236
▁نادر	-3237
▁تعامل	-3238
▁بازداشت	-3239
▁۱۸	-3240
▁اپل	-3241
▁صادق	-3242
▁نیمی	-3243
▁التحص	-3244
▁کمبود	-3245
▁قض	-3246
▁[...]	-3247
▁نبوده	-3248
▁بالقوه	-3249
▁براساس	-3250
▁ندارید	-3251
▁کمتری	-3252
کش	-3253
▁,	-3254
ورا	-3255
▁تمیز	-3256
▁سقوط	-3257
▁هایش	-3258
ریح	-3259
▁غیرق	-3260
▁اثرات	-3261
▁بیند	-3262
▁امتیاز	-3263
ack	-3264
ity	-3265
▁خانگی	-3266
▁ویروس	-3267
طی	-3268
▁سنتی	-3269
▁حکم	-3270
▁صبر	-3271
▁بخور	-3272
▁ویدی	-3273
ادار	-3274
کتری	-3275
▁كرد	-3276
▁موب	-3277
▁امضا	-3278
▁اخیرا	-3279
▁سالانه	-3280
▁پایدار	-3281
▁کشاورزی	-3282
▁آهن	-3283
کننده	-3284
▁تحمل	-3285
▁گفتن	-3286
▁اخلاقی	-3287
▁اصطلاح	-3288
▁برداری	-3289
وئن	-3290
▁ساختن	-3291
▁برجسته	-3292
▁جایگاه	-3293
▁وابسته	-3294
سیر	-3295
شند	-3296
▁برتر	-3297
og	-3298
gle	-3299
▁سهام	-3300
▁ماست	-3301
▁نفوذ	-3302
▁بازیکن	-3303
▁مشاوره	-3304
▁دارایی	-3305
▁پزشکان	-3306
▁کارخانه	-3307
ew	-3308
▁همچون	-3309
▁نزدیکی	-3310
▁پایگاه	-3311
▁دستیابی	-3312
▁هواپیما	-3313
▁شرک	-3314
▁شور	-3315
میانه	-3316
▁برمی	-3317
▁بیدار	-3318
مس	-3319
آور	-3320
▁ترد	-3321
▁سان	-3322
▁تدری	-3323
رق	-3324
▁40	-3325
مالی	-3326
▁خویش	-3327
▁مذهبی	-3328
عف	-3329
▁مشهور	-3330
▁بازسازی	-3331
▁مول	-3332
▁هرک	-3333
▁ندارم	-3334
.)	-3335
50	-3336
▁برگرد	-3337
▁دف	-3338
▁Goo	-3339
▁مدتی	-3340
▁مذاکرات	-3341
ناک	-3342
اختی	-3343
▁تأی	-3344
▁اکتبر	-3345
▁عدد	-3346
▁رساند	-3347
▁ترکی	-3348
▁خوشب	-3349
▁آلمانی	-3350
▁احتمالاً	-3351
▁سرک	-3352
▁تابستان	-3353
▁خاورمیانه	-3354
▁مارس	-3355
▁معماری	-3356
▁حیات	-3357
▁هویت	-3358
وایی	-3359
▁استقل	-3360
▁نموده	-3361
▁نوشید	-3362
ard	-3363
▁مناس	-3364
▁میکنند	-3365
▁پیامبر	-3366
دهی	-3367
▁چش	-3368
اریس	-3369
▁بلاف	-3370
▁بارها	-3371
ra	-3372
▁طراح	-3373
▁عیسی	-3374
▁مانع	-3375
▁تأیید	-3376
▁بوک	-3377
▁تخم	-3378
▁جاری	-3379
▁کیلوم	-3380
▁نوجوان	-3381
▁بازیکنان	-3382
شای	-3383
▁حجم	-3384
▁رضایت	-3385
▁بلافاصله	-3386
کری	-3387
▁سوز	-3388
▁گوشت	-3389
▁نابود	-3390
▁خشک	-3391
▁دهان	-3392
▁مهندسی	-3393
ماً	-3394
▁گفتگو	-3395
▁پادشاه	-3396
؟؟	-3397
راد	-3398
▁آمو	-3399
▁آمار	-3400
▁دادم	-3401
▁مدارس	-3402
▁بپرداز	-3403
وسی	-3404
▁24	-3405
گانی	-3406
▁کارمندان	-3407
▁i	-3408
▁An	-3409
ماتی	-3410
▁کات	-3411
▁غذاهای	-3412
۰۰۰	-3413
▁مصنوعی	-3414
▁رستوران	-3415
زان	-3416
پار	-3417
▁کارگر	-3418
▁تحصیلی	-3419
▁فرانسوی	-3420
▁معنا	-3421
▁سادگی	-3422
▁اولویت	-3423
اخر	-3424
▁آژانس	-3425
▁فهرست	-3426
▁1.	-3427
▁شاد	-3428
▁عزی	-3429
▁چار	-3430
▁سران	-3431
▁دسامبر	-3432
▁احتی	-3433
▁قطعا	-3434
▁پرونده	-3435
ob	-3436
▁مض	-3437
▁آدرس	-3438
▁صاحب	-3439
▁مراج	-3440
▁استقلال	-3441
▁کتابخانه	-3442
▁عذ	-3443
▁باد	-3444
▁انگشت	-3445
▁سیگار	-3446
▁ژانویه	-3447
▁مراسم	-3448
▁نقاشی	-3449
▁پردازش	-3450
▁سنگین	-3451
پس	-3452
▁۵۰	-3453
▁خال	-3454
▁معی	-3455
▁ایالت	-3456
▁شرقی	-3457
وج	-3458
▁اوب	-3459
▁عمده	-3460
عش	-3461
▁کشید	-3462
▁تحقیقاتی	-3463
ماتیک	-3464
▁کشوری	-3465
▁انگلیس	-3466
▁رویداد	-3467
سلام	-3468
▁قهر	-3469
▁2015	-3470
▁آزار	-3471
▁سطوح	-3472
▁پرست	-3473
▁گویم	-3474
▁شنیده	-3475
▁اجرایی	-3476
زام	-3477
▁مجله	-3478
▁اواخر	-3479
▁صفحات	-3480
▁مسابقه	-3481
▁ایستگاه	-3482
▁داروهای	-3483
▁هور	-3484
▁صدها	-3485
▁قالب	-3486
▁دومین	-3487
▁نداریم	-3488
▁موبایل	-3489
▁طال	-3490
▁گری	-3491
▁عناصر	-3492
▁نوامبر	-3493
▁گذاران	-3494
▁دستو	-3495
▁شنبه	-3496
▁بزنید	-3497
اقع	-3498
▁شریک	-3499
▁روبرو	-3500
▁پنجره	-3501
▁متخصصان	-3502
دهم	-3503
▁آیت	-3504
▁سبب	-3505
▁مجلس	-3506
▁پاریس	-3507
▁مراجعه	-3508
▁همکاران	-3509
گا	-3510
رامی	-3511
▁جاد	-3512
▁مدرک	-3513
▁وحشت	-3514
▁معتبر	-3515
▁اعتراض	-3516
▁خر	-3517
▁پان	-3518
▁ژوئن	-3519
▁الکترونیکی	-3520
▁اور	-3521
▁تسل	-3522
▁چای	-3523
▁بیست	-3524
▁خسته	-3525
▁عصر	-3526
▁مرغ	-3527
▁خالی	-3528
up	-3529
ive	-3530
▁محکوم	-3531
all	-3532
خیر	-3533
▁افتخار	-3534
▁شهرهای	-3535
est	-3536
▁Ch	-3537
▁اکث	-3538
▁شار	-3539
▁عرو	-3540
▁جنگل	-3541
▁دیدم	-3542
▁چک	-3543
▁جوانان	-3544
ئید	-3545
برای	-3546
▁آلب	-3547
▁جرم	-3548
▁تصاد	-3549
▁یکسان	-3550
نجی	-3551
▁یك	-3552
▁استق	-3553
▁شفاف	-3554
▁مجدد	-3555
▁60	-3556
▁راهن	-3557
▁هوای	-3558
▁اتصال	-3559
▁خورده	-3560
▁نگاهی	-3561
الم	-3562
▁نزد	-3563
▁ورزشی	-3564
▁زخ	-3565
▁قا	-3566
▁جلب	-3567
▁خشم	-3568
▁اثبات	-3569
▁بیانیه	-3570
▁هرگونه	-3571
هنی	-3572
▁باشگاه	-3573
▁نادیده	-3574
▁کارگردان	-3575
لیلی	-3576
▁هنری	-3577
▁سابقه	-3578
▁عدالت	-3579
▁دموکراسی	-3580
نای	-3581
گویی	-3582
▁سرور	-3583
▁عصبی	-3584
▁واژه	-3585
▁آرامش	-3586
▁کمپانی	-3587
▁اسپانیا	-3588
ظی	-3589
▁زنج	-3590
▁بگیری	-3591
▁متولد	-3592
▁مشکلی	-3593
▁Google	-3594
▁امیدوارم	-3595
if	-3596
ov	-3597
ine	-3598
▁فری	-3599
▁محمد	-3600
▁مخفی	-3601
▁مربی	-3602
▁انتقاد	-3603
ct	-3604
art	-3605
خورد	-3606
▁مردی	-3607
▁مکمل	-3608
▁هستی	-3609
▁بیاور	-3610
▁تصویب	-3611
▁ظرفیت	-3612
▁ارزشمند	-3613
مق	-3614
مام	-3615
▁the	-3616
▁منظم	-3617
غل	-3618
▁and	-3619
▁کاربردی	-3620
!»	-3621
آم	-3622
▁بور	-3623
▁طیف	-3624
▁وظای	-3625
▁متعلق	-3626
▁وسایل	-3627
کز	-3628
ate	-3629
▁۱۳	-3630
▁متاس	-3631
▁مجازات	-3632
▁خواستار	-3633
عکس	-3634
▁آفریقا	-3635
ex	-3636
▁دون	-3637
▁بافت	-3638
▁دیپل	-3639
▁مقدس	-3640
▁ورودی	-3641
▁نمایشگاه	-3642
▁خرد	-3643
▁اوباما	-3644
اکس	-3645
وقی	-3646
▁197	-3647
▁کمیته	-3648
▁ترافیک	-3649
▁التحصیل	-3650
▁فرودگاه	-3651
▁ارا	-3652
▁مبلغ	-3653
▁محیطی	-3654
▁ارتباطی	-3655
اردی	-3656
واری	-3657
▁تحول	-3658
▁سریال	-3659
▁مجموع	-3660
▁دانشکده	-3661
▁روانی	-3662
▁صنایع	-3663
ub	-3664
ستیک	-3665
▁آشپ	-3666
▁۱۹۹	-3667
▁0	-3668
▁غذای	-3669
▁اسن	-3670
▁تیر	-3671
▁خروج	-3672
▁عظیم	-3673
▁نهاد	-3674
▁باتری	-3675
▁نوشیدنی	-3676
▁بینید	-3677
▁تماشا	-3678
▁دختران	-3679
▁غنی	-3680
▁2017	-3681
▁منزل	-3682
▁موشک	-3683
▁تجربی	-3684
▁بالایی	-3685
▁ترکیبی	-3686
▁نوش	-3687
▁مارک	-3688
▁ارتقا	-3689
▁تحویل	-3690
▁ریاست	-3691
▁صادرات	-3692
▁مهمترین	-3693
ak	-3694
ast	-3695
▁ارم	-3696
▁بگوید	-3697
▁قهرمان	-3698
▁نبرد	-3699
▁نظیر	-3700
انیایی	-3701
زیک	-3702
▁سؤال	-3703
▁خارجه	-3704
▁منطقی	-3705
▁مسلمانان	-3706
▁بران	-3707
▁مثلا	-3708
▁تأمین	-3709
▁مراکز	-3710
دیه	-3711
▁Re	-3712
▁ابر	-3713
▁کودکی	-3714
کنندگان	-3715
شیدی	-3716
▁توق	-3717
▁شرق	-3718
▁نشود	-3719
▁متفاوتی	-3720
▁ناحیه	-3721
ht	-3722
صاب	-3723
▁لز	-3724
▁سهم	-3725
▁اعدام	-3726
▁بالات	-3727
▁دائمی	-3728
▁کشیدن	-3729
▁بازگرد	-3730
لین	-3731
▁دیر	-3732
▁بهشت	-3733
▁پاداش	-3734
▁انقلابی	-3735
▁انف	-3736
▁برود	-3737
10	-3738
▁w	-3739
▁کاغ	-3740
▁رسان	-3741
▁عربی	-3742
▁مسیحی	-3743
طرف	-3744
▁ابتلا	-3745
▁بماند	-3746
طاف	-3747
▁گشت	-3748
▁بایست	-3749
▁تحریک	-3750
▁خوانده	-3751
▁خانوادگی	-3752
▁پیر	-3753
▁جمعی	-3754
▁فردا	-3755
▁حقوقی	-3756
▁ریاضی	-3757
▁نوآوری	-3758
فل	-3759
▁جس	-3760
▁2018	-3761
▁صرفه	-3762
▁صندلی	-3763
ord	-3764
▁طالبان	-3765
▁آیه	-3766
▁حادث	-3767
مر	-3768
▁آلود	-3769
▁عوار	-3770
ell	-3771
▁قضا	-3772
▁قول	-3773
▁پولی	-3774
▁چیزها	-3775
▁شکن	-3776
▁سیم	-3777
▁طلب	-3778
▁وام	-3779
▁روزه	-3780
▁ویند	-3781
▁دیابت	-3782
▁سوالات	-3783
▁بمب	-3784
▁راز	-3785
▁کاخ	-3786
▁خواستم	-3787
انوس	-3788
کتور	-3789
▁واس	-3790
▁نژاد	-3791
▁چرخه	-3792
▁نیستم	-3793
▁انعطاف	-3794
▁شرایطی	-3795
وهای	-3796
▁ظهور	-3797
▁کشیده	-3798
▁کوچکی	-3799
▁گردید	-3800
▁استراحت	-3801
▁ثروتمند	-3802
▁کارشناسان	-3803
زیت	-3804
▁الم	-3805
▁رایج	-3806
▁غیرم	-3807
▁لایه	-3808
چرخ	-3809
▁اي	-3810
▁زنی	-3811
▁لبخ	-3812
میر	-3813
▁جور	-3814
▁تعادل	-3815
▁جانبی	-3816
▁نویسی	-3817
▁وظایف	-3818
▁استراتژیک	-3819
غام	-3820
لیک	-3821
گره	-3822
▁قی	-3823
نوشت	-3824
▁قلم	-3825
com	-3826
▁Pro	-3827
▁حادثه	-3828
▁کمپین	-3829
▁کاربری	-3830
▁احتمالی	-3831
▁جی	-3832
▁وجه	-3833
▁کفش	-3834
ظاه	-3835
▁انگار	-3836
مانه	-3837
▁باکتری	-3838
▁بگیریم	-3839
▁داشتیم	-3840
30	-3841
▁۲۵	-3842
▁اتوم	-3843
▁استث	-3844
▁اخبار	-3845
▁برگزاری	-3846
وپ	-3847
▁اذ	-3848
▁رک	-3849
▁نقض	-3850
▁کوین	-3851
▁ویندوز	-3852
▁میتواند	-3853
ip	-3854
▁Z	-3855
▁in	-3856
▁اقی	-3857
▁تاز	-3858
▁معامل	-3859
▁ابزارهای	-3860
▁هدیه	-3861
▁تعطیلات	-3862
▁گرس	-3863
▁درحالی	-3864
▁سوئ	-3865
▁تجدید	-3866
▁کمونی	-3867
▁تروریستی	-3868
▁۱۱	-3869
▁رییس	-3870
▁معلم	-3871
▁مناسبی	-3872
▁راهنمایی	-3873
▁بزرگسالان	-3874
.5	-3875
يت	-3876
▁آفت	-3877
▁درم	-3878
▁دعا	-3879
▁جامع	-3880
▁خلاف	-3881
OS	-3882
▁تعجب	-3883
▁خطوط	-3884
▁مطابق	-3885
▁مطالب	-3886
▁مهمان	-3887
▁خورشیدی	-3888
ey	-3889
ist	-3890
▁خل	-3891
▁خبری	-3892
▁شوروی	-3893
▁سرانجام	-3894
ارات	-3895
▁راضی	-3896
▁عوارض	-3897
يم	-3898
اکی	-3899
پزش	-3900
لیکی	-3901
▁اکس	-3902
▁حرک	-3903
▁وضع	-3904
▁شاخص	-3905
لز	-3906
ربان	-3907
▁گرچه	-3908
▁بازنش	-3909
▁آمدن	-3910
▁محاس	-3911
▁الهام	-3912
NA	-3913
سف	-3914
▁نقد	-3915
▁2016	-3916
▁سیگن	-3917
▁ناام	-3918
▁وکار	-3919
▁اندکی	-3920
▁کنگره	-3921
▁پذیرفته	-3922
▁بف	-3923
▁بنویس	-3924
▁فدرال	-3925
▁نظرات	-3926
▁بگذارد	-3927
▁حج	-3928
▁آسیا	-3929
▁الکتری	-3930
▁خواهان	-3931
▁کارآفر	-3932
▁نماینده	-3933
▁كند	-3934
▁ناه	-3935
▁ذهنی	-3936
بیت	-3937
▁برگشت	-3938
کسی	-3939
▁وف	-3940
▁مقی	-3941
▁میخ	-3942
▁ناس	-3943
▁کنس	-3944
▁حساس	-3945
▁کالج	-3946
▁فیلتر	-3947
ادن	-3948
مور	-3949
▁منص	-3950
▁تشکر	-3951
▁گربه	-3952
انگ	-3953
▁عکاسی	-3954
▁محاسبه	-3955
▁نیستید	-3956
▁الی	-3957
▁رفع	-3958
▁کاب	-3959
▁سیگنال	-3960
▁معتقدند	-3961
▁رع	-3962
▁داعش	-3963
▁مداخ	-3964
▁تردید	-3965
ّت	-3966
▁مأ	-3967
▁تازگی	-3968
▁شواهد	-3969
▁۱۴	-3970
▁تکامل	-3971
▁امکانات	-3972
نام	-3973
فاعی	-3974
▁اوک	-3975
▁خودک	-3976
▁وقوع	-3977
▁مقررات	-3978
▁جداگانه	-3979
▁جغ	-3980
▁نفع	-3981
▁علام	-3982
▁هرچه	-3983
▁دوستی	-3984
▁فلسفه	-3985
▁لبخند	-3986
▁خودکار	-3987
▁میخواه	-3988
▁آمریکای	-3989
واب	-3990
▁دهی	-3991
▁رقم	-3992
▁اخترا	-3993
▁تئوری	-3994
▁روزها	-3995
▁پیروی	-3996
ill	-3997
ولین	-3998
▁سفارش	-3999
▁اضطراب	-4000
▁اردو	-4001
▁آنقدر	-4002
▁اتحاد	-4003
▁قضاوت	-4004
▁اپلیکی	-4005
زر	-4006
ساز	-4007
▁احس	-4008
▁ضعف	-4009
▁جنگی	-4010
▁پارل	-4011
▁دامنه	-4012
▁شیطان	-4013
فس	-4014
▁بعدا	-4015
▁شادی	-4016
▁متهم	-4017
▁مراقب	-4018
▁نمایندگان	-4019
سای	-4020
ماس	-4021
▁حدی	-4022
▁داوط	-4023
▁مجازی	-4024
▁عط	-4025
▁وار	-4026
▁بدهی	-4027
▁رمان	-4028
▁ماندن	-4029
▁اینترنتی	-4030
بیند	-4031
▁ادع	-4032
▁مور	-4033
▁ثبات	-4034
▁مخدر	-4035
▁مرده	-4036
▁بینیم	-4037
▁کیلومتر	-4038
▁آزمایشگاه	-4039
ort	-4040
تیکی	-4041
▁موقت	-4042
▁فرصتی	-4043
خا	-4044
مره	-4045
▁مری	-4046
▁تظاه	-4047
▁استعد	-4048
▁اکثریت	-4049
▁درگیری	-4050
▁اتومبیل	-4051
▁196	-4052
▁سرخ	-4053
▁هاي	-4054
▁پایت	-4055
▁بنیاد	-4056
▁چشمان	-4057
▁آلودگی	-4058
▁تبلیغاتی	-4059
ang	-4060
افقت	-4061
▁دادیم	-4062
▁بری	-4063
▁باری	-4064
▁رسانی	-4065
▁داوطلب	-4066
کب	-4067
املی	-4068
▁دوز	-4069
▁کاف	-4070
▁بانکی	-4071
▁بالاخره	-4072
ختی	-4073
▁Sp	-4074
▁قسم	-4075
▁دمای	-4076
▁بیاید	-4077
عمل	-4078
گرام	-4079
▁فوری	-4080
▁گمان	-4081
▁موهای	-4082
▁بیایید	-4083
▁سازنده	-4084
▁محدوده	-4085
▁اپلیکیشن	-4086
ect	-4087
▁آه	-4088
▁اوست	-4089
▁موافقت	-4090
▁ماموریت	-4091
▁یادآوری	-4092
وین	-4093
▁گویی	-4094
▁خواهی	-4095
▁پیوست	-4096
▁سرنوشت	-4097
ant	-4098
ائی	-4099
▁فس	-4100
جویی	-4101
نوان	-4102
▁ضمن	-4103
▁تنوع	-4104
▁پدرش	-4105
▁رعایت	-4106
▁میدهد	-4107
▁کنونی	-4108
▁انداخت	-4109
▁له	-4110
سایت	-4111
▁یورو	-4112
▁مقیاس	-4113
▁پیمان	-4114
▁نخواهند	-4115
▁بدهند	-4116
▁بخواهد	-4117
▁رایانه	-4118
▁21	-4119
▁Bl	-4120
▁الکل	-4121
▁ایمن	-4122
▁تأکید	-4123
▁زودتر	-4124
▁باردار	-4125
▁انح	-4126
▁2014	-4127
▁الگو	-4128
▁همگی	-4129
▁متعهد	-4130
▁استخوان	-4131
▁De	-4132
▁Un	-4133
▁درب	-4134
▁فال	-4135
▁جوام	-4136
▁دراز	-4137
▁راجع	-4138
▁ساحل	-4139
▁هنرمند	-4140
”.	-4141
▁+	-4142
▁سئو	-4143
▁زمینی	-4144
▁دانشگاهی	-4145
اوز	-4146
▁خن	-4147
▁عقل	-4148
▁فول	-4149
▁آنتی	-4150
▁سرکوب	-4151
▁یابند	-4152
▁بدانند	-4153
▁اقیانوس	-4154
ost	-4155
نظر	-4156
▁عمد	-4157
رگانی	-4158
▁حلقه	-4159
▁روشی	-4160
▁سینه	-4161
▁جلسات	-4162
▁حیاتی	-4163
▁ناراحت	-4164
▁الکتریکی	-4165
▁بوی	-4166
▁استد	-4167
▁قطعه	-4168
▁مسلح	-4169
▁بهینه	-4170
▁ببینند	-4171
▁دستگیر	-4172
▁تحصیلات	-4173
شب	-4174
▁شرح	-4175
▁لغو	-4176
▁ویر	-4177
▁علامت	-4178
ie	-4179
▁آک	-4180
▁۴۰	-4181
▁تون	-4182
▁ندهید	-4183
▁کارمند	-4184
▁ماهواره	-4185
ue	-4186
▁Sh	-4187
▁مخل	-4188
▁پلت	-4189
▁ضربه	-4190
▁مایک	-4191
▁اندرو	-4192
▁نویسندگان	-4193
نظ	-4194
▁90	-4195
▁شام	-4196
▁سالی	-4197
▁عصبانی	-4198
هام	-4199
▁پد	-4200
▁دای	-4201
▁اتخا	-4202
▁برزی	-4203
▁تحقق	-4204
▁جعبه	-4205
▁جلوی	-4206
▁غیره	-4207
▁معادل	-4208
▁برانگی	-4209
.1	-4210
BA	-4211
▁#	-4212
ind	-4213
▁رم	-4214
التی	-4215
▁حین	-4216
▁زنند	-4217
▁بردار	-4218
▁بپرسید	-4219
▁مواردی	-4220
▁فلسطینی	-4221
▁استانداردهای	-4222
جار	-4223
▁میر	-4224
▁شکلی	-4225
▁اتخاذ	-4226
▁تزریق	-4227
▁تفسیر	-4228
▁روزمره	-4229
▁توانستند	-4230
▁متاسفانه	-4231
▁فا	-4232
▁توپ	-4233
▁گرفتم	-4234
▁مقالات	-4235
our	-4236
خاص	-4237
▁ببرد	-4238
▁دلاری	-4239
▁دیوان	-4240
▁بدترین	-4241
سیک	-4242
ونگ	-4243
اهایی	-4244
▁تصمی	-4245
▁جمعه	-4246
▁شدیم	-4247
▁ندرت	-4248
ارتمان	-4249
▁مستند	-4250
▁کارفر	-4251
▁احساسی	-4252
کرات	-4253
▁خبرنگ	-4254
▁ویدئو	-4255
▁ناپذیر	-4256
▁اوکراین	-4257
▁رودخانه	-4258
دنی	-4259
زرگ	-4260
ومه	-4261
▁غم	-4262
▁زوج	-4263
▁صندوق	-4264
▁برقراری	-4265
▁توانستم	-4266
مرد	-4267
کام	-4268
▁خراب	-4269
▁مدار	-4270
▁آلوده	-4271
▁آوریل	-4272
▁ببینیم	-4273
▁>	-4274
▁n	-4275
▁تخت	-4276
▁نیک	-4277
▁چاق	-4278
▁اسناد	-4279
▁ببیند	-4280
▁شکایت	-4281
کیه	-4282
▁عر	-4283
▁۱۹۷	-4284
▁خودت	-4285
▁ظاهرا	-4286
▁تماشای	-4287
▁تروریسم	-4288
▁پیشگیری	-4289
ont	-4290
زین	-4291
ولیک	-4292
▁خلی	-4293
▁مشا	-4294
▁اسکن	-4295
▁اراده	-4296
▁نشسته	-4297
▁زنجیره	-4298
ابتی	-4299
▁فقر	-4300
▁موج	-4301
▁۱۹۸	-4302
برگ	-4303
غیر	-4304
▁ضبط	-4305
▁عاط	-4306
▁کنون	-4307
▁ابراز	-4308
▁حسابد	-4309
▁فوریه	-4310
▁فیزیک	-4311
▁دستورال	-4312
چوب	-4313
مینی	-4314
▁شرط	-4315
▁مؤثر	-4316
▁چندان	-4317
▁جشنواره	-4318
تم	-4319
▁وال	-4320
▁ادبی	-4321
▁بخشد	-4322
▁لوله	-4323
▁آمدند	-4324
▁بعنوان	-4325
▁جر	-4326
▁طرز	-4327
▁دبیر	-4328
▁سایه	-4329
▁آورید	-4330
▁برایش	-4331
▁بنیان	-4332
▁مالکیت	-4333
▁نوشیدن	-4334
▁وبسایت	-4335
pp	-4336
▁Al	-4337
فرنی	-4338
▁درمورد	-4339
▁سازمانی	-4340
وگ	-4341
اطر	-4342
سیل	-4343
▁۱۶	-4344
▁خنده	-4345
▁سکوت	-4346
▁جوامع	-4347
▁ویزای	-4348
▁خوشبخت	-4349
▁روحانی	-4350
▁هورمون	-4351
▁کمیسیون	-4352
▁حسابداری	-4353
IS	-4354
حق	-4355
▁مرتب	-4356
▁نکند	-4357
▁السلام	-4358
▁خودکشی	-4359
▁پایتخت	-4360
):	-4361
وره	-4362
پرس	-4363
▁بومی	-4364
▁کاغذ	-4365
▁گذارند	-4366
se	-4367
ضاع	-4368
▁ني	-4369
نجان	-4370
▁اتوب	-4371
▁بکار	-4372
▁توده	-4373
▁اجاره	-4374
ud	-4375
▁زرد	-4376
▁پیگیری	-4377
▁استدلال	-4378
one	-4379
▁80	-4380
▁راستی	-4381
▁مخاطبان	-4382
▁موجودات	-4383
eb	-4384
ark	-4385
ولا	-4386
▁لات	-4387
▁هید	-4388
▁شارژ	-4389
▁گریه	-4390
▁برایم	-4391
بو	-4392
غه	-4393
ویم	-4394
▁هار	-4395
▁حسین	-4396
▁پیشین	-4397
▁گذاشتن	-4398
ry	-4399
۲۰	-4400
▁HT	-4401
باشد	-4402
▁ناز	-4403
ابقات	-4404
▁هیئت	-4405
▁گونا	-4406
▁سرگرم	-4407
▁شکنجه	-4408
▁مجددا	-4409
▁دشمنان	-4410
▁راهنمای	-4411
▁مسابقات	-4412
▁دستورالعمل	-4413
ain	-4414
ایم	-4415
فون	-4416
وزی	-4417
▁اسید	-4418
▁بشناس	-4419
▁حالیکه	-4420
▁زمستان	-4421
▁یهودیان	-4422
شود	-4423
▁(2	-4424
چرخه	-4425
▁حقیقی	-4426
▁تصویری	-4427
▁مشابهی	-4428
▁خواستند	-4429
ير	-4430
▁؛	-4431
▁امت	-4432
▁پذی	-4433
▁اتمی	-4434
▁کالی	-4435
▁پرسید	-4436
▁سربازان	-4437
▁Q	-4438
▁بهار	-4439
▁ساکن	-4440
▁فقیر	-4441
▁اینست	-4442
▁معلوم	-4443
▁کالری	-4444
▁آنجایی	-4445
▁شناختی	-4446
ستر	-4447
ight	-4448
▁شبه	-4449
▁2012	-4450
▁شکار	-4451
▁عنصر	-4452
▁تجاوز	-4453
▁دلیلی	-4454
▁نسبتا	-4455
▁اختراع	-4456
▁استخراج	-4457
▁194	-4458
▁بشن	-4459
▁پرورد	-4460
▁ژاپنی	-4461
▁آمادگی	-4462
▁نباشید	-4463
▁فکری	-4464
▁مغزی	-4465
▁قطعات	-4466
▁برخلاف	-4467
▁فلسطین	-4468
▁متقاضی	-4469
+]	-4470
۱۹	-4471
▁[+]	-4472
▁شکر	-4473
▁کپی	-4474
برداری	-4475
▁اوضاع	-4476
▁پدیده	-4477
▁بگوییم	-4478
▁اینگونه	-4479
مپ	-4480
ock	-4481
ver	-4482
▁توقف	-4483
▁عقیده	-4484
▁مردمی	-4485
▁اتوبوس	-4486
▁تقاضای	-4487
▁همدیگر	-4488
دل	-4489
مزد	-4490
▁الگ	-4491
▁بکشد	-4492
▁پروف	-4493
▁بینند	-4494
▁تخصصی	-4495
▁درحال	-4496
▁بازارهای	-4497
-]	-4498
جای	-4499
▁نع	-4500
▁[-]	-4501
▁روم	-4502
▁کاش	-4503
▁تخمین	-4504
▁لبنان	-4505
▁ماجرا	-4506
▁موافق	-4507
لر	-4508
شده	-4509
فرم	-4510
▁نقص	-4511
▁تایل	-4512
▁دکمه	-4513
▁دیگه	-4514
▁رفتم	-4515
▁گیرید	-4516
▁یکپار	-4517
▁احتیاج	-4518
▁میزبان	-4519
▁هماهنگی	-4520
▁زای	-4521
▁سراغ	-4522
▁جنایت	-4523
▁میکرو	-4524
▁آنهایی	-4525
▁جغرافی	-4526
▁دوچرخه	-4527
کند	-4528
اتور	-4529
راکی	-4530
▁قند	-4531
▁پره	-4532
▁قطار	-4533
▁نظری	-4534
▁پذیرفت	-4535
▁22	-4536
▁حب	-4537
▁رغم	-4538
▁نماد	-4539
▁کلیه	-4540
▁مخالفت	-4541
▁تصمیمات	-4542
▁نگ	-4543
▁منف	-4544
▁جویی	-4545
▁سوسی	-4546
▁مدنی	-4547
▁مقصد	-4548
▁بخاطر	-4549
▁بازیگر	-4550
▁بخورید	-4551
ib	-4552
ریزی	-4553
▁جیم	-4554
▁سلط	-4555
▁باشه	-4556
▁اشخاص	-4557
end	-4558
زات	-4559
▁Tr	-4560
▁مکال	-4561
▁کابل	-4562
▁همسایه	-4563
▁غی	-4564
عیتی	-4565
▁كار	-4566
▁کربن	-4567
▁اشغال	-4568
▁امپرات	-4569
▁دریاچه	-4570
▁گیاهان	-4571
بتی	-4572
▁۱۷	-4573
الله	-4574
زاری	-4575
یدان	-4576
▁سوگ	-4577
▁فاج	-4578
▁قرص	-4579
▁بزند	-4580
▁طلاق	-4581
▁مسکو	-4582
▁پنجم	-4583
▁کلاسیک	-4584
▁رقص	-4585
▁فریب	-4586
▁مبنی	-4587
▁نکات	-4588
▁مستقی	-4589
▁خلاقیت	-4590
▁معاملات	-4591
▁تلویزیونی	-4592
▁۱۹۶	-4593
▁آنرا	-4594
▁ویدئ	-4595
▁باران	-4596
▁نداشتند	-4597
▁h	-4598
فکر	-4599
▁IP	-4600
▁Pl	-4601
▁اتهام	-4602
▁تخریب	-4603
▁عاطفی	-4604
▁مادرش	-4605
▁یونان	-4606
▁باستان	-4607
▁خاطرات	-4608
▁ناگهانی	-4609
▁موتورهای	-4610
ّا	-4611
▁|	-4612
رفت	-4613
رول	-4614
گزار	-4615
▁بفر	-4616
▁پرچ	-4617
▁آلبوم	-4618
▁١	-4619
oun	-4620
▁کت	-4621
▁تویی	-4622
▁سبزی	-4623
▁وضوح	-4624
▁دقیقاً	-4625
▁راننده	-4626
ختن	-4627
طبی	-4628
قیب	-4629
▁خب	-4630
ثیرات	-4631
▁اکسی	-4632
▁آسانی	-4633
▁اتمام	-4634
▁رفتند	-4635
▁فاجعه	-4636
▁مشاغل	-4637
▁ناگهان	-4638
▁طرفداران	-4639
▁دموکراتیک	-4640
راث	-4641
راس	-4642
شتر	-4643
▁برطرف	-4644
▁پرنده	-4645
▁موسسات	-4646
▁ناپدید	-4647
▁میانگین	-4648
iz	-4649
▁l	-4650
▁۶۰	-4651
ایلی	-4652
▁شعر	-4653
▁احمق	-4654
▁حامی	-4655
▁گردند	-4656
▁مداخله	-4657
▁مرزهای	-4658
▁اعتباری	-4659
▁تجربیات	-4660
▁اشتباهات	-4661
▁رأ	-4662
▁تسه	-4663
▁کلاه	-4664
▁رف	-4665
▁بفه	-4666
▁شست	-4667
▁صفر	-4668
▁مؤس	-4669
▁نان	-4670
▁انکار	-4671
▁برزیل	-4672
▁تاریک	-4673
▁معناست	-4674
▁برایتان	-4675
▁SE	-4676
رارت	-4677
▁جسم	-4678
▁آشپز	-4679
▁بیفت	-4680
▁سوار	-4681
▁گردن	-4682
▁بتوانیم	-4683
کم	-4684
فیف	-4685
کوپ	-4686
▁تنگ	-4687
▁سرت	-4688
▁یمن	-4689
▁رنگی	-4690
▁یاری	-4691
▁مهاجر	-4692
▁دستمزد	-4693
ear	-4694
▁En	-4695
▁عظ	-4696
▁رده	-4697
▁لمس	-4698
▁محض	-4699
▁عالم	-4700
▁هایم	-4701
▁وسیع	-4702
راسیون	-4703
▁استودی	-4704
▁پارلمان	-4705
-2	-4706
PS	-4707
بوک	-4708
▁Ad	-4709
▁Ar	-4710
▁عز	-4711
راست	-4712
▁عده	-4713
▁داره	-4714
▁همسرش	-4715
▁ویدیو	-4716
▁کلیسا	-4717
▁کوتاهی	-4718
▁مهاجران	-4719
▁گردشگری	-4720
▁رفتارهای	-4721
مکن	-4722
رورت	-4723
ولای	-4724
▁اشیا	-4725
▁آفتاب	-4726
▁تسلیم	-4727
▁گواهی	-4728
▁داروها	-4729
▁سرگرمی	-4730
▁ابتدایی	-4731
▁فرستاده	-4732
▁نوجوانان	-4733
يل	-4734
لاس	-4735
مار	-4736
▁Ex	-4737
▁سم	-4738
وتری	-4739
▁پلی	-4740
راحتی	-4741
▁سالهای	-4742
▁میتوانید	-4743
▁&	-4744
▁جفت	-4745
▁ونز	-4746
▁2019	-4747
▁استی	-4748
▁اهدا	-4749
▁صوتی	-4750
▁فساد	-4751
▁بدانیم	-4752
▁کوچکتر	-4753
▁تروریست	-4754
.2	-4755
▁فش	-4756
▁۲۴	-4757
▁توج	-4758
▁روس	-4759
▁شاخ	-4760
▁لذا	-4761
▁مفاه	-4762
▁آنگاه	-4763
▁اشکال	-4764
▁ببرند	-4765
▁هایتان	-4766
▁الگوریت	-4767
شور	-4768
▁آری	-4769
▁تقاضا	-4770
▁متعددی	-4771
ML	-4772
▁Cl	-4773
خوان	-4774
▁جاس	-4775
▁شجا	-4776
▁2013	-4777
▁خلیج	-4778
▁چراغ	-4779
▁درونی	-4780
▁امریکایی	-4781
ne	-4782
يه	-4783
پا	-4784
▁خند	-4785
▁زخم	-4786
▁اسلحه	-4787
▁متنوع	-4788
▁ونزوئ	-4789
▁اشتغال	-4790
▁استعداد	-4791
انونی	-4792
▁دینی	-4793
▁عرصه	-4794
▁خطرات	-4795
▁ضرورت	-4796
▁فیسبوک	-4797
▁قربانیان	-4798
ge	-4799
لیم	-4800
▁زنگ	-4801
▁سیب	-4802
▁محور	-4803
▁متعدد	-4804
▁نداده	-4805
▁واسطه	-4806
▁اصلاحات	-4807
▁خرج	-4808
▁تسهیل	-4809
▁خواهر	-4810
▁اجباری	-4811
▁تمرینات	-4812
▁نرس	-4813
الیایی	-4814
▁ادغام	-4815
▁الزام	-4816
▁دانستم	-4817
▁برآورده	-4818
اتل	-4819
بول	-4820
▁بت	-4821
▁بنگ	-4822
▁رحم	-4823
▁تنظی	-4824
ادمی	-4825
دهای	-4826
رایه	-4827
ساخت	-4828
▁تنش	-4829
▁باشی	-4830
▁آفرین	-4831
▁خاموش	-4832
▁قبلاً	-4833
▁مادرم	-4834
▁پیروز	-4835
▁افسانه	-4836
▁چارچوب	-4837
pt	-4838
▁a	-4839
زاده	-4840
▁Com	-4841
▁اتو	-4842
▁سالن	-4843
▁گواه	-4844
▁صاحبان	-4845
▁مخصوصا	-4846
▁معلمان	-4847
▁پروتکل	-4848
age	-4849
ian	-4850
▁US	-4851
▁سیل	-4852
▁بشری	-4853
▁کلام	-4854
▁سوگند	-4855
▁برساند	-4856
▁استقبال	-4857
▁غیرقابل	-4858
ادله	-4859
▁پدرم	-4860
▁برسند	-4861
▁تدریس	-4862
▁دفاعی	-4863
▁سالها	-4864
▁شیرین	-4865
▁وسیعی	-4866
▁رسیدگی	-4867
▁کارآمد	-4868
▁فراوانی	-4869
▁یادداشت	-4870
▁بالاترین	-4871
ice	-4872
اقت	-4873
▁70	-4874
▁ابع	-4875
▁ملک	-4876
▁حریم	-4877
▁مزیت	-4878
▁پرچم	-4879
▁اندیشه	-4880
▁مقداری	-4881
are	-4882
▁فه	-4883
▁تسلی	-4884
▁شهرد	-4885
▁ماهه	-4886
▁تومور	-4887
▁حوادث	-4888
▁سخنان	-4889
▁ایستاده	-4890
▁ناراحتی	-4891
▁التحصیلان	-4892
ure	-4893
رفه	-4894
ادیر	-4895
ازده	-4896
▁عزیز	-4897
▁شهرها	-4898
▁نیستیم	-4899
▁ژنتیکی	-4900
▁ضر	-4901
ایده	-4902
▁مون	-4903
▁جانب	-4904
▁فیلی	-4905
▁مطلق	-4906
▁ملاح	-4907
زاینده	-4908
▁روایت	-4909
▁میراث	-4910
▁میکنم	-4911
▁کارکرد	-4912
▁نخواهید	-4913
.0	-4914
ore	-4915
▁1-	-4916
▁2-	-4917
▁مجه	-4918
▁منع	-4919
▁حاکم	-4920
▁نظرس	-4921
▁اخراج	-4922
▁سینما	-4923
▁مبنای	-4924
▁اکسیژن	-4925
▁هماهنگ	-4926
▁تنظیمات	-4927
▁کالیفرنی	-4928
▁اوج	-4929
▁مین	-4930
▁آرزو	-4931
▁آیات	-4932
▁دانه	-4933
▁سازند	-4934
▁مثلاً	-4935
▁هیدرو	-4936
▁ارتفاع	-4937
▁مقادیر	-4938
ff	-4939
روش	-4940
وفان	-4941
▁داغ	-4942
▁مأم	-4943
▁تعلق	-4944
▁اخلاق	-4945
▁دخالت	-4946
▁دستاورد	-4947
▁فزاینده	-4948
▁ایتالیایی	-4949
زن	-4950
ire	-4951
وسته	-4952
▁گرا	-4953
▁پوند	-4954
▁محاسب	-4955
▁بسازید	-4956
12	-4957
ik	-4958
ویز	-4959
▁500	-4960
▁غال	-4961
▁لنز	-4962
▁افسر	-4963
▁شرکتی	-4964
▁شهادت	-4965
▁نامزد	-4966
▁نظرسنجی	-4967
▁غیرقانونی	-4968
act	-4969
ass	-4970
▁دلم	-4971
▁بینم	-4972
▁قایق	-4973
▁قدرد	-4974
▁تأسیس	-4975
▁حساسی	-4976
▁شنیدن	-4977
▁ابتدای	-4978
▁افزوده	-4979
طل	-4980
اعت	-4981
طانی	-4982
▁اعط	-4983
▁جاب	-4984
▁کشی	-4985
رمانی	-4986
▁رسند	-4987
▁فورا	-4988
▁شبانه	-4989
▁طلایی	-4990
▁غالبا	-4991
▁فریاد	-4992
▁سازگار	-4993
▁آپارتمان	-4994
یدگی	-4995
▁طعم	-4996
▁نار	-4997
▁۲۰۱۵	-4998
▁بروند	-4999
▁دریای	-5000
▁عضلات	-5001
▁مرتکب	-5002
▁رفتاری	-5003
▁برداشته	-5004
▁عبارتند	-5005
▁ونزوئلا	-5006
60	-5007
صدی	-5008
کوک	-5009
▁دوی	-5010
▁سنی	-5011
▁متأ	-5012
▁متش	-5013
مانند	-5014
▁عذاب	-5015
▁مولک	-5016
▁نداد	-5017
▁واکس	-5018
روسافت	-5019
▁بعدها	-5020
▁یکپارچه	-5021
▁هنرمندان	-5022
▁v	-5023
ook	-5024
ایر	-5025
▁زا	-5026
▁وسط	-5027
ربزرگ	-5028
▁خالص	-5029
▁منطق	-5030
▁ناشن	-5031
▁مسافر	-5032
▁پرتاب	-5033
▁تظاهرات	-5034
▁توانسته	-5035
▁مشکلاتی	-5036
▁آشپزخانه	-5037
IV	-5038
میلی	-5039
▁کلم	-5040
▁شهرت	-5041
▁صدور	-5042
▁صلاح	-5043
▁بصورت	-5044
▁مسدود	-5045
▁گوناگون	-5046
▁الگوریتم	-5047
برت	-5048
▁آو	-5049
▁کب	-5050
▁عمق	-5051
▁نظم	-5052
اداری	-5053
▁معدن	-5054
▁شهروند	-5055
▁موضوعی	-5056
▁کامپیوتری	-5057
AS	-5058
eg	-5059
ox	-5060
ite	-5061
میمی	-5062
گذشت	-5063
▁تکه	-5064
▁غلط	-5065
▁معج	-5066
▁بابت	-5067
▁سرقت	-5068
▁ابعاد	-5069
▁آکادمی	-5070
▁انفجار	-5071
▁سایبری	-5072
▁شایسته	-5073
▁اتفاقات	-5074
▁بگذارند	-5075
▁کشورهایی	-5076
▁سازماندهی	-5077
مدت	-5078
▁23	-5079
▁دز	-5080
حدود	-5081
▁دگر	-5082
▁ردی	-5083
▁ربات	-5084
▁سوئد	-5085
▁سپاس	-5086
▁كنند	-5087
▁ببینم	-5088
▁مواقع	-5089
▁مرورگر	-5090
▁کلیسای	-5091
man	-5092
▁باب	-5093
▁جنس	-5094
▁2011	-5095
▁قضیه	-5096
▁نگار	-5097
▁توجیه	-5098
▁مدارک	-5099
▁نکنند	-5100
▁بایستی	-5101
▁توییتر	-5102
ld	-5103
▁28	-5104
▁پری	-5105
▁بلوک	-5106
▁میشه	-5107
▁اصلاً	-5108
▁معدنی	-5109
▁خودداری	-5110
▁انتظارات	-5111
ace	-5112
her	-5113
ust	-5114
اسر	-5115
امپ	-5116
▁بیام	-5117
▁عموم	-5118
▁آفریقای	-5119
▁بازیگران	-5120
▁روانشناسی	-5121
▁کالیفرنیا	-5122
ES	-5123
ئه	-5124
قین	-5125
▁کنه	-5126
▁وکیل	-5127
▁سفارت	-5128
▁مفاهیم	-5129
▁g	-5130
شون	-5131
ثیری	-5132
مایی	-5133
▁تدا	-5134
▁تند	-5135
▁الته	-5136
▁روبه	-5137
▁شیشه	-5138
▁محرک	-5139
▁محکم	-5140
▁هلند	-5141
▁آیفون	-5142
▁بدهیم	-5143
▁کتابی	-5144
▁زایمان	-5145
▁عملیاتی	-5146
ber	-5147
پیک	-5148
قاعد	-5149
▁اقل	-5150
▁وری	-5151
▁ایفا	-5152
▁محبت	-5153
▁ارمغان	-5154
▁زندانیان	-5155
▁کانادایی	-5156
pl	-5157
▁جوی	-5158
▁ستون	-5159
▁متمای	-5160
▁دارویی	-5161
▁نتوانست	-5162
▁خوشبختانه	-5163
"،	-5164
qu	-5165
▁'	-5166
▁۸۰	-5167
ــــ	-5168
وارد	-5169
▁باه	-5170
▁جنین	-5171
▁معنوی	-5172
▁آشنایی	-5173
▁پیوسته	-5174
▁پروردگار	-5175
▁اسپانیایی	-5176
تاح	-5177
زده	-5178
▁شوه	-5179
▁گوشه	-5180
▁جدایی	-5181
▁ندیده	-5182
▁تصادفی	-5183
▁فرمانده	-5184
▁نمیتوان	-5185
▁جغرافیایی	-5186
شو	-5187
بیا	-5188
▁فت	-5189
▁جاذ	-5190
▁کور	-5191
▁خونی	-5192
▁قائل	-5193
▁وحشی	-5194
▁حرکات	-5195
▁لاتین	-5196
▁دوشنبه	-5197
▁طراحان	-5198
▁متقاعد	-5199
▁IS	-5200
رهای	-5201
زایر	-5202
▁گرای	-5203
ادلانه	-5204
▁بوجود	-5205
▁دانستن	-5206
▁میباشد	-5207
io	-5208
وود	-5209
کشان	-5210
▁پال	-5211
▁بدهم	-5212
▁جادو	-5213
▁غلبه	-5214
▁مجهز	-5215
▁پرده	-5216
▁گرما	-5217
▁سومین	-5218
▁مکزیک	-5219
▁سرتاسر	-5220
▁نبودند	-5221
▁۲۱	-5222
▁300	-5223
▁الگوی	-5224
▁افتتاح	-5225
▁درختان	-5226
▁فراوان	-5227
▁کارآفرین	-5228
اون	-5229
▁کر	-5230
▁آقا	-5231
▁لای	-5232
▁دائم	-5233
▁جبران	-5234
▁نویسد	-5235
▁بگویند	-5236
▁بنویسید	-5237
▁کمونیست	-5238
▁مایکروسافت	-5239
ولت	-5240
▁بي	-5241
ایان	-5242
ستری	-5243
▁تها	-5244
▁رأی	-5245
▁2008	-5246
▁تروی	-5247
▁سپری	-5248
▁ویزا	-5249
▁سوئیس	-5250
▁معاصر	-5251
▁تایلند	-5252
▁سریعتر	-5253
▁فرماید	-5254
اع	-5255
دو	-5256
ork	-5257
مندی	-5258
▁اعل	-5259
▁کاپ	-5260
▁شکسته	-5261
▁متغیر	-5262
▁مغازه	-5263
▁تعهدات	-5264
▁گرسنگی	-5265
مث	-5266
▁35	-5267
دودی	-5268
وئیه	-5269
▁(19	-5270
▁عسل	-5271
▁وین	-5272
▁امّا	-5273
▁ناتو	-5274
▁ابراه	-5275
▁خروجی	-5276
▁یکبار	-5277
▁ادبیات	-5278
▁مالیاتی	-5279
عان	-5280
عود	-5281
▁آگ	-5282
▁پاپ	-5283
▁پوی	-5284
▁بخصوص	-5285
▁جاذبه	-5286
▁رادیو	-5287
▁ارتقاء	-5288
▁نادرست	-5289
PA	-5290
۵۰	-5291
شما	-5292
▁ائت	-5293
▁رون	-5294
▁صلی	-5295
▁عبد	-5296
الیسم	-5297
▁2010	-5298
▁شوهر	-5299
▁محروم	-5300
▁اعتراف	-5301
▁فرزندتان	-5302
▁هواپیمای	-5303
ّه	-5304
کور	-5305
پذیر	-5306
▁انس	-5307
▁اوت	-5308
▁شنا	-5309
▁چوب	-5310
مایشی	-5311
▁استع	-5312
▁بدنی	-5313
▁بروم	-5314
▁اداری	-5315
▁اسباب	-5316
▁دونالد	-5317
▁سیاستم	-5318
▁فروخته	-5319
▁پردازد	-5320
▁ویدئویی	-5321
آیا	-5322
اطع	-5323
رها	-5324
بورگ	-5325
طوری	-5326
▁مسأ	-5327
▁مضر	-5328
▁تجار	-5329
▁رسول	-5330
▁بیفتد	-5331
▁دیوید	-5332
▁گرایی	-5333
▁مربوطه	-5334
▁بیاورید	-5335
▁اسرائیلی	-5336
▁دیجیتالی	-5337
دین	-5338
▁زلز	-5339
▁شایع	-5340
▁مدعی	-5341
▁خوراکی	-5342
▁صبحانه	-5343
اقد	-5344
▁جزو	-5345
▁گاو	-5346
▁مغذی	-5347
▁تبادل	-5348
▁جولای	-5349
▁زلزله	-5350
▁مسافرت	-5351
▁هل	-5352
▁خطا	-5353
▁ساح	-5354
▁جسمی	-5355
▁حمام	-5356
▁خواص	-5357
▁رفاه	-5358
▁قاره	-5359
▁لیزر	-5360
▁خیانت	-5361
▁فیلیپ	-5362
غی	-5363
▁جوش	-5364
▁قوم	-5365
▁موان	-5366
▁نظرم	-5367
▁تضعیف	-5368
▁تعمیر	-5369
▁حرارت	-5370
▁دربار	-5371
▁ماهیت	-5372
▁ژوئیه	-5373
▁رساندن	-5374
▁خونریزی	-5375
PN	-5376
ax	-5377
سکی	-5378
▁ون	-5379
▁آماز	-5380
▁سرما	-5381
▁شعار	-5382
▁ماسا	-5383
▁رسمیت	-5384
▁مطلوب	-5385
▁واردات	-5386
▁سبزیجات	-5387
3)	-5388
ix	-5389
وقت	-5390
▁Ph	-5391
▁سنج	-5392
▁مکر	-5393
▁گال	-5394
▁مسجد	-5395
▁خستگی	-5396
▁بمانید	-5397
▁مکالمه	-5398
▁دندانپزش	-5399
ّی	-5400
زاب	-5401
مود	-5402
▁27	-5403
▁Pr	-5404
▁آند	-5405
▁دود	-5406
▁ضرب	-5407
ینامه	-5408
▁شاخه	-5409
▁مسکن	-5410
▁بداند	-5411
▁ساکنان	-5412
ضه	-5413
▁آذ	-5414
همان	-5415
▁بلی	-5416
▁خلب	-5417
▁غری	-5418
▁نصف	-5419
ستیکی	-5420
▁آینه	-5421
▁بنده	-5422
▁خرده	-5423
▁شهید	-5424
▁ترویج	-5425
▁آمازون	-5426
▁بمانند	-5427
▁تیراند	-5428
▁گیرنده	-5429
▁کارفرمای	-5430
▁گواهینامه	-5431
11	-5432
وطه	-5433
گرم	-5434
▁26	-5435
▁خس	-5436
ایند	-5437
وریم	-5438
▁سیر	-5439
▁بلاک	-5440
▁ماری	-5441
▁مرات	-5442
▁کامی	-5443
▁خداست	-5444
▁فالون	-5445
سو	-5446
oin	-5447
اقب	-5448
▁شرم	-5449
▁قبر	-5450
▁لیبی	-5451
▁مهار	-5452
▁واجد	-5453
▁پیکر	-5454
▁بکشید	-5455
▁مشتاق	-5456
▁ناهار	-5457
▁گیاهی	-5458
▁حساسیت	-5459
▁میشوند	-5460
AT	-5461
انش	-5462
گهی	-5463
▁آست	-5464
▁تاک	-5465
▁عاد	-5466
▁مید	-5467
▁تمدن	-5468
▁فاقد	-5469
▁محاک	-5470
▁مذهب	-5471
▁زیرساخت	-5472
▁پژوهشگران	-5473
per	-5474
مدی	-5475
▁Am	-5476
اشیه	-5477
بندی	-5478
نایی	-5479
وتین	-5480
▁موضع	-5481
▁نعمت	-5482
▁پورت	-5483
▁مخاطب	-5484
▁مشورت	-5485
▁بنیادی	-5486
▁سامسون	-5487
▁مشخصات	-5488
▁قدردانی	-5489
ارف	-5490
▁Th	-5491
▁۲۲	-5492
▁App	-5493
▁اگه	-5494
▁جبه	-5495
▁امان	-5496
▁بصری	-5497
▁جیمز	-5498
▁روحی	-5499
▁کیست	-5500
▁گذرد	-5501
▁آلرژی	-5502
▁مستقر	-5503
▁معیار	-5504
▁راهکار	-5505
▁رسیدند	-5506
▁اضطراری	-5507
▁نهادهای	-5508
▁45	-5509
▁يک	-5510
▁برف	-5511
▁حدس	-5512
▁روده	-5513
▁زدند	-5514
▁املاک	-5515
▁جنسیت	-5516
▁مالزی	-5517
▁گویید	-5518
▁اختصاصی	-5519
▁اندروید	-5520
▁رویدادهای	-5521
CC	-5522
كن	-5523
!!!	-5524
ial	-5525
▁Sc	-5526
▁نر	-5527
▁خوی	-5528
▁بگیرم	-5529
▁ساعات	-5530
▁لوازم	-5531
▁مخلوط	-5532
▁استارت	-5533
▁اعتصاب	-5534
▁حاکمیت	-5535
▁فرستاد	-5536
▁ابراهیم	-5537
▁مسافران	-5538
خشی	-5539
▁فو	-5540
▁بیا	-5541
▁شلو	-5542
▁2009	-5543
▁جدول	-5544
▁ناسا	-5545
▁کوبا	-5546
▁تاخیر	-5547
▁خورند	-5548
▁واکسن	-5549
▁سامسونگ	-5550
aw	-5551
ازن	-5552
کال	-5553
▁غرق	-5554
▁ازای	-5555
▁باند	-5556
▁تنفس	-5557
▁حامل	-5558
▁محله	-5559
▁مطلع	-5560
▁مطمئ	-5561
▁نفرت	-5562
▁اندام	-5563
▁پرهیز	-5564
▁انتهای	-5565
▁رقابتی	-5566
▁میکنید	-5567
▁خواننده	-5568
▁ناشناخته	-5569
ros	-5570
کسل	-5571
▁آنج	-5572
▁جری	-5573
▁نیت	-5574
▁کبد	-5575
▁تلقی	-5576
▁سنین	-5577
▁کشتن	-5578
▁کیلو	-5579
▁حاشیه	-5580
▁فرمول	-5581
▁فروشی	-5582
▁ممنون	-5583
▁کهکشان	-5584
▁پرندگان	-5585
▁نمایندگی	-5586
40	-5587
انا	-5588
▁دي	-5589
▁سقف	-5590
▁بشود	-5591
▁بیاب	-5592
▁ستار	-5593
▁بزنند	-5594
▁داوری	-5595
▁فولاد	-5596
▁آوردند	-5597
▁بیرونی	-5598
▁دانشجویی	-5599
▁امپراتوری	-5600
▁الا	-5601
▁لحظ	-5602
▁2000	-5603
▁اختل	-5604
▁درسی	-5605
▁فیبر	-5606
▁مزمن	-5607
▁نفتی	-5608
▁کمال	-5609
▁یقین	-5610
▁اعداد	-5611
▁بردند	-5612
▁فهمید	-5613
▁پسران	-5614
▁دانشجو	-5615
▁ویرایش	-5616
DA	-5617
▁۷۰	-5618
▁آسم	-5619
▁ملکه	-5620
▁رکورد	-5621
▁زبانی	-5622
▁کریسم	-5623
▁نوزادان	-5624
پت	-5625
آگاه	-5626
▁آهسته	-5627
▁ادرار	-5628
▁الملل	-5629
▁مدیری	-5630
▁مسأله	-5631
▁میکرد	-5632
▁گیریم	-5633
▁کاندید	-5634
▁اردوگاه	-5635
19	-5636
ly	-5637
▁to	-5638
▁ویل	-5639
▁۱۹۴	-5640
▁بالغ	-5641
▁فارس	-5642
▁نوری	-5643
▁یابی	-5644
▁۲۰۱۸	-5645
▁مشخصی	-5646
▁مهمتر	-5647
▁پستان	-5648
▁خودروی	-5649
▁ویتنام	-5650
▁خلاقانه	-5651
▁تغییراتی	-5652
▁جایگزینی	-5653
▁الکترونیک	-5654
▁As	-5655
▁تام	-5656
▁خنک	-5657
▁غول	-5658
اگرام	-5659
▁تکان	-5660
▁مداف	-5661
▁آرامی	-5662
▁قلمرو	-5663
▁داستانی	-5664
▁دانستند	-5665
▁دموکرات	-5666
ینو	-5667
کارا	-5668
▁HIV	-5669
▁الف	-5670
گزاری	-5671
▁2020	-5672
▁آگهی	-5673
▁۲۰۱۱	-5674
گردانی	-5675
▁آموخت	-5676
▁خلبان	-5677
▁برادران	-5678
▁بازرگانی	-5679
▁=	-5680
طری	-5681
ینا	-5682
روئید	-5683
ارستان	-5684
▁تئاتر	-5685
▁مثبتی	-5686
▁پیشرو	-5687
▁دشواری	-5688
▁محدودی	-5689
▁کریسمس	-5690
.3	-5691
.4	-5692
MS	-5693
▁ببخ	-5694
▁دردن	-5695
▁شکاف	-5696
▁احزاب	-5697
▁بشریت	-5698
▁تلفنی	-5699
▁طوفان	-5700
▁عروسی	-5701
▁میانه	-5702
▁راستای	-5703
▁نداشتم	-5704
كه	-5705
▁HD	-5706
▁رؤ	-5707
▁عج	-5708
کنند	-5709
▁خشن	-5710
▁تبعی	-5711
▁انیمی	-5712
▁برعکس	-5713
▁بودید	-5714
▁پیرام	-5715
▁پژوهشی	-5716
▁کارایی	-5717
▁برایشان	-5718
▁وابستگی	-5719
80	-5720
ment	-5721
▁نما	-5722
▁جبهه	-5723
▁سیست	-5724
▁مایع	-5725
▁کردی	-5726
▁برسید	-5727
▁ملاحظه	-5728
IC	-5729
پو	-5730
ترس	-5731
پرد	-5732
▁تپ	-5733
علیه	-5734
▁آرژ	-5735
▁نوا	-5736
▁تجویز	-5737
▁حقایق	-5738
▁گوییم	-5739
▁ائتلاف	-5740
▁بیاموز	-5741
▁بیاورد	-5742
▁دردناک	-5743
▁متمایز	-5744
▁انتخابی	-5745
▁دوستانه	-5746
▁فروشنده	-5747
AR	-5748
لم	-5749
ile	-5750
▁هج	-5751
▁وج	-5752
تیاد	-5753
▁برن	-5754
▁بلو	-5755
▁تقد	-5756
▁ورد	-5757
سترول	-5758
▁استن	-5759
▁برنج	-5760
▁تکیه	-5761
▁جراح	-5762
▁جوانی	-5763
▁فایده	-5764
ولوژیکی	-5765
▁بینداز	-5766
▁تاریکی	-5767
▁مهربان	-5768
▁اینجاست	-5769
▁پادشاهی	-5770
AN	-5771
ED	-5772
ics	-5773
افل	-5774
▁بره	-5775
▁جزء	-5776
▁عام	-5777
▁یار	-5778
▁2007	-5779
▁پتان	-5780
▁غذاها	-5781
▁موانع	-5782
▁اعتیاد	-5783
▁محافظه	-5784
▁باستانی	-5785
▁خریداران	-5786
:«	-5787
بینی	-5788
▁آرت	-5789
▁بوت	-5790
▁ربط	-5791
ivers	-5792
▁تیره	-5793
▁شانه	-5794
▁شلیک	-5795
▁۲۰۱۳	-5796
▁۲۰۱۴	-5797
▁امروزی	-5798
▁بیکاری	-5799
▁نابودی	-5800
▁اینستاگرام	-5801
ick	-5802
ies	-5803
اهو	-5804
قول	-5805
،000	-5806
▁195	-5807
▁DNA	-5808
▁لطف	-5809
▁نوار	-5810
▁قطعاً	-5811
▁پروسه	-5812
▁گذران	-5813
▁تغییری	-5814
▁مطمئنا	-5815
▁کمترین	-5816
▁اختلالات	-5817
▁خودروهای	-5818
▁پیشنهادی	-5819
.(	-5820
▁$	-5821
▁اظ	-5822
▁برم	-5823
▁ثال	-5824
▁ضرر	-5825
▁رحمت	-5826
▁فرمت	-5827
▁قطعی	-5828
▁نیام	-5829
▁پیرو	-5830
الیستی	-5831
▁آرزوی	-5832
▁فنجان	-5833
▁وادار	-5834
▁دیوانه	-5835
▁ردیابی	-5836
▁برانگیز	-5837
ER	-5838
IT	-5839
ee	-5840
ory	-5841
جنس	-5842
▁سخنگ	-5843
▁لزوم	-5844
▁پاره	-5845
▁تشدید	-5846
▁مایکل	-5847
▁معاون	-5848
▁نیروگاه	-5849
▁دریافتند	-5850
▁]	-5851
ans	-5852
باح	-5853
سمه	-5854
چاق	-5855
▁گیت	-5856
▁هندی	-5857
▁بهانه	-5858
▁تحمیل	-5859
▁مادران	-5860
▁ناامید	-5861
▁چنانچه	-5862
▁انیمیشن	-5863
راگ	-5864
ress	-5865
ماند	-5866
▁آمی	-5867
▁مهر	-5868
▁نمک	-5869
▁آدمی	-5870
▁اظها	-5871
▁رزرو	-5872
▁مستم	-5873
▁نگرش	-5874
▁اسکات	-5875
▁دیروز	-5876
▁زنانی	-5877
▁لهستان	-5878
▁محاکمه	-5879
▁روستایی	-5880
▁پیرامون	-5881
وام	-5882
وشید	-5883
وهید	-5884
▁اسد	-5885
▁قفل	-5886
▁اتری	-5887
▁اذیت	-5888
▁اندک	-5889
▁سوزی	-5890
▁شتاب	-5891
▁تخلیه	-5892
▁معجزه	-5893
▁کریست	-5894
▁گفتار	-5895
▁متحدان	-5896
ایات	-5897
درصد	-5898
▁قطر	-5899
▁مشرو	-5900
▁نقلیه	-5901
استفاده	-5902
▁آرژانت	-5903
▁اینطور	-5904
▁درواقع	-5905
▁طرفدار	-5906
▁آزمایشی	-5907
▁شاهزاده	-5908
▁همسرتان	-5909
▁پتانسیل	-5910
▁کلسترول	-5911
▁پي	-5912
اویه	-5913
▁تقل	-5914
▁سوپ	-5915
▁شاع	-5916
▁لیب	-5917
▁توری	-5918
▁معبد	-5919
▁معده	-5920
▁بفرست	-5921
▁تبعیض	-5922
▁آنهاست	-5923
▁اروپای	-5924
▁همینطور	-5925
▁بازنشستگی	-5926
▁خوانندگان	-5927
▁دیپلماتیک	-5928
EC	-5929
اا	-5930
طر	-5931
▁دوام	-5932
▁دوری	-5933
▁دیکت	-5934
▁باهوش	-5935
▁سفارشی	-5936
▁کارتان	-5937
.8	-5938
ري	-5939
زو	-5940
شش	-5941
ish	-5942
همه	-5943
▁حسن	-5944
▁سید	-5945
▁مسن	-5946
▁همد	-5947
▁بکند	-5948
▁تیمی	-5949
▁قلعه	-5950
▁مترو	-5951
▁کالا	-5952
▁آگوست	-5953
▁عمدتا	-5954
▁مجسمه	-5955
▁ستارگان	-5956
▁شهرستان	-5957
.6	-5958
SS	-5959
ph	-5960
▁—	-5961
ary	-5962
اسط	-5963
رسد	-5964
چال	-5965
یرت	-5966
▁3-	-5967
▁زح	-5968
▁سرم	-5969
▁فرق	-5970
نظامی	-5971
▁شنید	-5972
▁مخرب	-5973
▁۲۰۱۶	-5974
▁حتماً	-5975
▁سواری	-5976
▁قیامت	-5977
▁پنجاه	-5978
▁ابزاری	-5979
▁سلطنتی	-5980
▁بازخورد	-5981
oft	-5982
ram	-5983
جنگ	-5984
orld	-5985
▁قرض	-5986
▁پمپ	-5987
▁اولی	-5988
▁دانی	-5989
▁صرفاً	-5990
▁قاچاق	-5991
▁قضایی	-5992
▁درگذشت	-5993
▁مواجهه	-5994
؟"	-5995
▁خز	-5996
▁گز	-5997
▁۹۰	-5998
شاند	-5999
ونزی	-6000
▁ظهر	-6001
▁دافا	-6002
▁آموخته	-6003
▁بهبودی	-6004
▁ترسناک	-6005
▁دروازه	-6006
az	-6007
بند	-6008
▁پت	-6009
باله	-6010
▁Con	-6011
▁خات	-6012
▁لرز	-6013
▁همۀ	-6014
الیست	-6015
▁2006	-6016
▁عکاس	-6017
▁مربع	-6018
▁کارش	-6019
▁ادعای	-6020
▁اساسا	-6021
▁اواسط	-6022
▁برلین	-6023
▁ساحلی	-6024
▁هیچکس	-6025
وهیدرات	-6026
▁پایانی	-6027
▁پلتفرم	-6028
▁اندونزی	-6029
ome	-6030
خود	-6031
ویض	-6032
مونی	-6033
▁زور	-6034
▁سمی	-6035
▁کنج	-6036
▁ثالث	-6037
▁حاکی	-6038
▁سطحی	-6039
▁غافل	-6040
▁تصادف	-6041
▁زباله	-6042
▁فشرده	-6043
▁مراتب	-6044
▁درآورد	-6045
▁کافئین	-6046
▁غیرممکن	-6047
▁وحشتناک	-6048
▁تیراندازی	-6049
۱۰	-6050
صلی	-6051
▁re	-6052
▁جک	-6053
ابقت	-6054
▁Man	-6055
▁سوا	-6056
▁نرو	-6057
▁خطاب	-6058
▁دستش	-6059
▁دیسک	-6060
▁شباه	-6061
▁قاضی	-6062
▁نفره	-6063
▁کیسه	-6064
▁اسرار	-6065
▁برویم	-6066
▁توانی	-6067
▁روشنی	-6068
▁چراکه	-6069
▁ماهانه	-6070
▁امیدواریم	-6071
ash	-6072
خدا	-6073
وها	-6074
وکس	-6075
▁بغ	-6076
ence	-6077
رگان	-6078
▁for	-6079
▁لیگ	-6080
▁وای	-6081
▁وسو	-6082
باران	-6083
واسته	-6084
▁انحص	-6085
▁اکتش	-6086
▁تورم	-6087
▁شماری	-6088
▁نگرفته	-6089
▁صادقانه	-6090
▁مسئولان	-6091
▁چهارشنبه	-6092
16	-6093
ah	-6094
▁e	-6095
ردی	-6096
چین	-6097
▁شل	-6098
وتیک	-6099
▁اخذ	-6100
▁سکه	-6101
▁۵۰۰	-6102
▁بلیط	-6103
▁ریزش	-6104
▁نمره	-6105
▁ویلی	-6106
▁شورشی	-6107
▁مادری	-6108
▁همکار	-6109
▁کشتار	-6110
▁مطابقت	-6111
▁الزامات	-6112
▁بخواهیم	-6113
▁·	-6114
ith	-6115
ong	-6116
چرا	-6117
▁خج	-6118
لانی	-6119
▁Mic	-6120
▁فرک	-6121
▁کرم	-6122
▁گره	-6123
شتیاق	-6124
▁ماسک	-6125
▁شرکای	-6126
▁گرفتار	-6127
▁توضیحات	-6128
AC	-6129
▁۳۵	-6130
▁Ser	-6131
▁امی	-6132
اطیسی	-6133
انداز	-6134
▁تابع	-6135
▁منتظ	-6136
▁اطاعت	-6137
▁بپذیر	-6138
▁بکنید	-6139
▁عواقب	-6140
▁ویران	-6141
▁فعالان	-6142
▁یکشنبه	-6143
▁اظهارات	-6144
▁روشنایی	-6145
▁مأموریت	-6146
▁کارگردانی	-6147
▁مظ	-6148
▁وص	-6149
ولان	-6150
▁بپی	-6151
▁دوش	-6152
▁لزو	-6153
▁زانو	-6154
▁سرپر	-6155
▁چرخش	-6156
▁کریم	-6157
▁اشیاء	-6158
▁رابرت	-6159
▁راهبرد	-6160
▁تاثیرات	-6161
▁پلاستیکی	-6162
▁توافقنامه	-6163
▁کربوهیدرات	-6164
ID	-6165
سن	-6166
ide	-6167
ode	-6168
بای	-6169
,000	-6170
البی	-6171
چیزی	-6172
▁تاپ	-6173
▁حسی	-6174
▁پند	-6175
▁گنج	-6176
▁اینچ	-6177
▁برید	-6178
▁جورج	-6179
▁اجزای	-6180
▁کنسول	-6181
▁التهاب	-6182
▁دربارۀ	-6183
▁کالاهای	-6184
▁غیرنظامی	-6185
▁٢	-6186
rom	-6187
ئون	-6188
▁په	-6189
▁الح	-6190
▁شکم	-6191
▁۱۹۳	-6192
▁سوره	-6193
▁قدیم	-6194
▁تحسین	-6195
▁ماساژ	-6196
▁گلوله	-6197
▁اشتیاق	-6198
▁درخشان	-6199
▁بخواهند	-6200
▁رادیویی	-6201
▁میزبانی	-6202
▁پلاستیک	-6203
▁آفریقایی	-6204
IN	-6205
TP	-6206
ug	-6207
شیم	-6208
گام	-6209
گرا	-6210
میتی	-6211
▁نوک	-6212
▁ببند	-6213
▁متاب	-6214
▁نامش	-6215
اداران	-6216
▁اصرار	-6217
▁تخفیف	-6218
▁تعویض	-6219
▁سردرد	-6220
▁گردان	-6221
▁افزاری	-6222
▁بازتاب	-6223
▁بینایی	-6224
▁تولیدی	-6225
▁نمودند	-6226
▁قطعنامه	-6227
▁مدیریتی	-6228
▁ِ	-6229
▁32	-6230
▁لس	-6231
یتان	-6232
▁خرا	-6233
▁وان	-6234
▁شوخی	-6235
▁قانع	-6236
▁مارت	-6237
▁معای	-6238
▁اموال	-6239
▁برتری	-6240
▁رهایی	-6241
▁المپیک	-6242
▁صلاحیت	-6243
▁مبادله	-6244
▁عادلانه	-6245
▁عاشقانه	-6246
▁ممنوعیت	-6247
▁هواپیمایی	-6248
EB	-6249
oy	-6250
uc	-6251
خصی	-6252
▁آتی	-6253
▁عهد	-6254
▁بفرو	-6255
▁جلوه	-6256
▁صرفا	-6257
▁نوبت	-6258
▁کمکی	-6259
▁داروی	-6260
▁مسیری	-6261
▁مقاوم	-6262
▁گرایش	-6263
▁جادویی	-6264
▁متعادل	-6265
▁نکردند	-6266
▁اشتباهی	-6267
▁انسانها	-6268
▁انق	-6269
▁باق	-6270
راتور	-6271
▁HTML	-6272
▁جهنم	-6273
▁اکسید	-6274
▁متشکل	-6275
▁سرطانی	-6276
▁متقابل	-6277
▁نسبتاً	-6278
▁آگاهانه	-6279
▁پناهندگان	-6280
SA	-6281
oh	-6282
خل	-6283
مح	-6284
▁سح	-6285
▁VPN	-6286
▁درن	-6287
▁ریز	-6288
▁زیان	-6289
▁طرفی	-6290
▁معتق	-6291
▁نشین	-6292
▁۲۰۱۰	-6293
▁خسارت	-6294
▁شکلات	-6295
▁فارسی	-6296
▁نواحی	-6297
▁کجاست	-6298
▁ایرلند	-6299
▁بازرسی	-6300
▁داشتید	-6301
▁سخنگوی	-6302
▁نباشند	-6303
▁کارگری	-6304
▁تسلیحات	-6305
▁آزمایشات	-6306
▁پاسخگویی	-6307
طو	-6308
▁75	-6309
▁هیت	-6310
▁آواز	-6311
▁ایدئ	-6312
▁زخمی	-6313
▁دستان	-6314
▁عظیمی	-6315
▁آفریده	-6316
▁تحولات	-6317
▁عضلانی	-6318
▁نمودار	-6319
▁همراهی	-6320
▁تاریخچه	-6321
15	-6322
َّ	-6323
ail	-6324
شیر	-6325
راقی	-6326
فورد	-6327
▁هکر	-6328
▁پات	-6329
▁پور	-6330
▁براي	-6331
▁مانی	-6332
▁کشند	-6333
▁خدایی	-6334
▁متناسب	-6335
▁بریتانیایی	-6336
yn	-6337
عل	-6338
ینت	-6339
▁36	-6340
▁تث	-6341
▁الک	-6342
▁حبس	-6343
▁دکت	-6344
جویان	-6345
▁بوسی	-6346
▁تطبی	-6347
▁تربیت	-6348
▁روستا	-6349
▁زیبای	-6350
▁عضویت	-6351
▁فقدان	-6352
▁امارات	-6353
▁بتوانم	-6354
▁دنیایی	-6355
▁هیچگاه	-6356
▁میتوانند	-6357
▁پیامدهای	-6358
▁گردشگران	-6359
▁خبرنگاران	-6360
))	-6361
ظم	-6362
iew	-6363
کات	-6364
▁29	-6365
▁برش	-6366
▁دبی	-6367
▁قطب	-6368
▁چهل	-6369
▁ابدا	-6370
▁خوشم	-6371
▁خیال	-6372
▁ظریف	-6373
▁مرزی	-6374
▁آنجلس	-6375
▁اقلیت	-6376
▁امواج	-6377
▁تصریح	-6378
▁خاطره	-6379
▁سناری	-6380
▁سواحل	-6381
▁عادات	-6382
▁همسرم	-6383
▁بوسیله	-6384
▁جاسوسی	-6385
▁فرکانس	-6386
▁اختلافات	-6387
.7	-6388
ok	-6389
ank	-6390
الح	-6391
باع	-6392
جمی	-6393
سری	-6394
▁Te	-6395
▁یی	-6396
▁ششم	-6397
▁بندر	-6398
▁تحرک	-6399
▁فلور	-6400
▁ماهر	-6401
▁۲۰۱۲	-6402
▁Inter	-6403
▁تایمز	-6404
▁سندرم	-6405
▁قسمتی	-6406
▁نشینی	-6407
▁میکنیم	-6408
▁ویلیام	-6409
▁بازیابی	-6410
▁جدیدترین	-6411
▁دبیرستان	-6412
18	-6413
ime	-6414
منت	-6415
▁Ac	-6416
رمان	-6417
▁توه	-6418
▁درا	-6419
گرفته	-6420
▁شلوغ	-6421
▁قاتل	-6422
▁قبیل	-6423
▁نامن	-6424
▁اندیش	-6425
▁بازدیدکنندگان	-6426
RL	-6427
ows	-6428
ضان	-6429
هیچ	-6430
واک	-6431
ژیک	-6432
▁Be	-6433
باتی	-6434
دامی	-6435
مدان	-6436
▁Mar	-6437
▁جین	-6438
انورد	-6439
سفانه	-6440
▁1000	-6441
▁استف	-6442
▁خلاص	-6443
▁هرکسی	-6444
▁بیایند	-6445
▁شفافیت	-6446
▁استودیو	-6447
▁محاسبات	-6448
▁نخواهیم	-6449
▁استانبول	-6450
▁توانستیم	-6451
IP	-6452
pe	-6453
ool	-6454
فیق	-6455
▁SEO	-6456
بارات	-6457
▁اعضا	-6458
▁غریب	-6459
▁معتر	-6460
▁نحوی	-6461
▁پراک	-6462
▁درصدی	-6463
▁مارکس	-6464
▁پاهای	-6465
▁یخچال	-6466
▁بالینی	-6467
▁وردپرس	-6468
▁دانشمند	-6469
▁هواداران	-6470
طب	-6471
ach	-6472
ood	-6473
لزم	-6474
▁4-	-6475
▁ستم	-6476
▁قوا	-6477
رمانه	-6478
▁سپاه	-6479
▁مریم	-6480
▁جزایر	-6481
▁زاویه	-6482
▁قیمتی	-6483
▁مدیره	-6484
▁فاکتور	-6485
▁پیوستن	-6486
▁Univers	-6487
▁پرداخته	-6488
▁پیچیدگی	-6489
▁متقاضیان	-6490
▁انتخاباتی	-6491
مش	-6492
ous	-6493
▁**	-6494
▁کنگ	-6495
▁خطای	-6496
▁درای	-6497
▁صدمه	-6498
▁مجمع	-6499
▁مکرر	-6500
▁نازی	-6501
▁پسند	-6502
▁۲۰۱۷	-6503
▁اندوه	-6504
▁بسازد	-6505
▁روحیه	-6506
▁محافظ	-6507
▁مرتبه	-6508
▁مردمان	-6509
▁مستلزم	-6510
▁پردازند	-6511
▁پشتیبان	-6512
].	-6513
بن	-6514
org	-6515
▁st	-6516
ایتی	-6517
▁New	-6518
▁ابد	-6519
▁انب	-6520
▁مقط	-6521
اتوری	-6522
▁احاط	-6523
▁ذرات	-6524
▁زیبات	-6525
▁سنسور	-6526
▁فرشته	-6527
▁مستمر	-6528
▁منعکس	-6529
▁مهندس	-6530
▁نشستن	-6531
▁برابری	-6532
▁یادآور	-6533
▁بمباران	-6534
▁هوشمندانه	-6535
.9	-6536
ext	-6537
ردن	-6538
▁31	-6539
▁گن	-6540
روژن	-6541
▁قصه	-6542
▁قوت	-6543
ارتان	-6544
▁برقی	-6545
▁ترور	-6546
▁قومی	-6547
▁احاطه	-6548
▁بنشین	-6549
▁مشکوک	-6550
▁نشوید	-6551
▁خوابیدن	-6552
▁ریاضیات	-6553
▁مشاوران	-6554
▁ناتوانی	-6555
▁متأسفانه	-6556
وظ	-6557
يا	-6558
یکی	-6559
▁يا	-6560
▁۲۳	-6561
گونی	-6562
▁Pre	-6563
▁شوی	-6564
▁دفعه	-6565
▁تدریج	-6566
▁تعبیر	-6567
▁عبادت	-6568
▁وقایع	-6569
▁اجتماع	-6570
▁اندازد	-6571
▁حیوانی	-6572
▁شناسند	-6573
▁خوشبختی	-6574
▁ساختاری	-6575
▁معیارهای	-6576
▁فروشندگان	-6577
1)	-6578
▁r	-6579
ink	-6580
▁Wh	-6581
خواب	-6582
رادی	-6583
▁400	-6584
▁War	-6585
▁ارب	-6586
▁ارث	-6587
▁شری	-6588
▁هدر	-6589
▁هیل	-6590
▁قبال	-6591
▁کلین	-6592
▁امپری	-6593
▁سرزنش	-6594
▁گمراه	-6595
▁انگیزی	-6596
▁اکتشاف	-6597
▁دلایلی	-6598
▁سازگاری	-6599
▁محبوبیت	-6600
▁مسیحیان	-6601
▁وفاداری	-6602
خر	-6603
كت	-6604
پک	-6605
ورن	-6606
کوس	-6607
▁۲۷	-6608
راضی	-6609
▁تلخ	-6610
▁وصل	-6611
▁امری	-6612
▁تونل	-6613
▁علاق	-6614
▁مباح	-6615
▁دیدند	-6616
▁سپرده	-6617
▁تکراری	-6618
▁الگوهای	-6619
▁آرژانتین	-6620
te	-6621
اقض	-6622
زنی	-6623
▁حش	-6624
بریم	-6625
فران	-6626
نشین	-6627
▁انز	-6628
▁نحو	-6629
انسون	-6630
جستان	-6631
▁....	-6632
▁مطبو	-6633
▁پایی	-6634
▁عراقی	-6635
▁نگهبان	-6636
▁کامیون	-6637
▁مخالفان	-6638
▁پردازنده	-6639
TS	-6640
؟”	-6641
ریس	-6642
غیب	-6643
▁سد	-6644
▁لپ	-6645
ical	-6646
ختری	-6647
▁مزر	-6648
▁نیا	-6649
▁هیپ	-6650
▁خودی	-6651
▁بپیوند	-6652
▁وفادار	-6653
▁فرمودند	-6654
▁ویدیویی	-6655
▁بازنشسته	-6656
▁کشاورزان	-6657
▁آت	-6658
▁مرم	-6659
▁موی	-6660
▁پله	-6661
▁گرگ	-6662
▁اعطا	-6663
▁كرده	-6664
▁نکنیم	-6665
▁هیتلر	-6666
▁روشهای	-6667
▁شناسان	-6668
▁شهروندی	-6669
▁مطبوعات	-6670
ond	-6671
ton	-6672
طوب	-6673
وشی	-6674
▁PC	-6675
روسی	-6676
▁MBA	-6677
▁تاج	-6678
▁سرش	-6679
▁پیم	-6680
▁کول	-6681
خوانی	-6682
▁بورژ	-6683
▁دارا	-6684
▁مدام	-6685
▁مقصر	-6686
▁نقره	-6687
▁شباهت	-6688
▁مولکول	-6689
▁انداخته	-6690
▁بالاتری	-6691
▁تهدیدات	-6692
ویچ	-6693
▁ادی	-6694
▁چسب	-6695
رسانی	-6696
▁برون	-6697
▁بقای	-6698
▁سلطه	-6699
▁آوریم	-6700
▁بیستم	-6701
▁راستا	-6702
▁شناسد	-6703
▁اهمیتی	-6704
▁تهاجمی	-6705
▁جنسیتی	-6706
▁چشمگیری	-6707
▁ایدئولوژی	-6708
14	-6709
AP	-6710
und	-6711
قان	-6712
▁iOS	-6713
▁تار	-6714
▁همت	-6715
▁پکن	-6716
▁پیت	-6717
▁امشب	-6718
▁تایپ	-6719
▁تسلط	-6720
▁ساعته	-6721
▁شکستن	-6722
▁مزرعه	-6723
▁مقدمه	-6724
▁ولایت	-6725
▁آسیایی	-6726
▁تاثیری	-6727
▁خدماتی	-6728
▁گزارشی	-6729
▁یونانی	-6730
▁ترکیبات	-6731
▁زمانیکه	-6732
▁موقعیتی	-6733
▁_	-6734
out	-6735
زید	-6736
فیه	-6737
خیلی	-6738
▁دما	-6739
▁همب	-6740
▁1990	-6741
▁ابری	-6742
▁اشعه	-6743
▁تعلی	-6744
▁حواس	-6745
▁نیوز	-6746
▁هوشی	-6747
▁پیری	-6748
▁دوستش	-6749
▁محوطه	-6750
▁همسای	-6751
▁پوستی	-6752
▁گفتیم	-6753
▁دوازده	-6754
▁اقداماتی	-6755
▁ناخواسته	-6756
▁کارفرمایان	-6757
17	-6758
ron	-6759
ult	-6760
▁خم	-6761
لیون	-6762
▁193	-6763
▁ذات	-6764
▁شوک	-6765
▁ناو	-6766
▁کیه	-6767
▁درآم	-6768
▁صعود	-6769
▁آشپزی	-6770
▁بخشید	-6771
▁برسیم	-6772
▁ترانه	-6773
▁جالبی	-6774
▁مرطوب	-6775
▁همجنس	-6776
▁پارچه	-6777
▁اینقدر	-6778
▁بیگانه	-6779
▁سامانه	-6780
▁معتقدم	-6781
▁گرجستان	-6782
حت	-6783
The	-6784
رنگ	-6785
▁Wi	-6786
امیه	-6787
اهدی	-6788
ستون	-6789
شایی	-6790
▁بهم	-6791
▁بوش	-6792
▁دال	-6793
▁نشن	-6794
▁وحد	-6795
▁کرو	-6796
▁یوس	-6797
▁جعلی	-6798
▁زندگ	-6799
▁عجله	-6800
▁نفری	-6801
▁تاکسی	-6802
▁تطبیق	-6803
▁رویای	-6804
▁زیستی	-6805
▁متنفر	-6806
▁ناخوش	-6807
▁نوآور	-6808
▁پاسخی	-6809
▁دلخواه	-6810
▁رسانده	-6811
▁کلمبیا	-6812
▁بردارید	-6813
▁مستقیما	-6814
25	-6815
ON	-6816
▁وه	-6817
رافت	-6818
واهی	-6819
کتان	-6820
▁بیل	-6821
▁ماژ	-6822
▁یهود	-6823
▁ترغیب	-6824
▁متعال	-6825
▁آفرینش	-6826
▁بخشیدن	-6827
▁اعتراضات	-6828
ll	-6829
”،	-6830
ath	-6831
ern	-6832
لیف	-6833
▁He	-6834
فتگی	-6835
پولی	-6836
▁Net	-6837
▁تلس	-6838
▁فای	-6839
▁گور	-6840
▁باهم	-6841
▁بستر	-6842
▁بپذی	-6843
▁سوری	-6844
▁شورش	-6845
▁محتر	-6846
▁هیات	-6847
▁پسرش	-6848
▁۲۰۰۹	-6849
▁اعصاب	-6850
▁الماس	-6851
▁ترسیم	-6852
▁لحظات	-6853
▁ناخود	-6854
▁نخورد	-6855
▁گرسنه	-6856
▁اینکار	-6857
▁شخصیتی	-6858
▁هیچوقت	-6859
▁قهرمانی	-6860
▁پروفسور	-6861
IM	-6862
orm	-6863
یاط	-6864
▁5-	-6865
▁Ed	-6866
▁هک	-6867
ائلی	-6868
▁And	-6869
▁بول	-6870
▁صاف	-6871
▁قار	-6872
▁مغن	-6873
اسیون	-6874
▁Wind	-6875
▁براى	-6876
▁توبه	-6877
▁متری	-6878
▁۲۰۰۰	-6879
▁آرایش	-6880
▁جانبه	-6881
▁فیلمی	-6882
▁ایالتی	-6883
▁میدهند	-6884
▁کارشان	-6885
▁واحدهای	-6886
▁بپردازید	-6887
▁مستقیماً	-6888
▁ورزشکاران	-6889
sh	-6890
▁●	-6891
son	-6892
▁Gr	-6893
ستات	-6894
گرای	-6895
یعنی	-6896
▁150	-6897
▁You	-6898
▁مصد	-6899
▁وگو	-6900
زمینی	-6901
▁تواف	-6902
▁رومی	-6903
▁سفیر	-6904
▁مرجع	-6905
▁کوان	-6906
▁تمدید	-6907
▁حدودی	-6908
▁مذکور	-6909
▁داشتنی	-6910
▁مسائلی	-6911
▁نامناسب	-6912
▁کاتولیک	-6913
▁فرآیندهای	-6914
▁کارآفرینی	-6915
AM	-6916
ِی	-6917
▁k	-6918
دای	-6919
▁My	-6920
▁وک	-6921
پورت	-6922
گوید	-6923
▁اتم	-6924
▁جهش	-6925
▁هرد	-6926
▁آباد	-6927
▁آشام	-6928
▁بینش	-6929
▁خیره	-6930
▁شراب	-6931
▁نگیر	-6932
▁غریبه	-6933
▁پوتین	-6934
▁باورند	-6935
▁خریدار	-6936
▁سودمند	-6937
▁واگذار	-6938
▁دستگیری	-6939
طن	-6940
روح	-6941
وات	-6942
▁اچ	-6943
سانس	-6944
▁One	-6945
▁بدل	-6946
▁علل	-6947
▁پنت	-6948
▁پید	-6949
▁2003	-6950
▁آیین	-6951
▁ایکس	-6952
▁قدری	-6953
▁گرده	-6954
▁آماری	-6955
▁بعداً	-6956
▁اخیراً	-6957
▁نمایان	-6958
▁نگاران	-6959
▁هنرهای	-6960
▁کارگاه	-6961
▁اتوماتیک	-6962
▁پیشنهادات	-6963
90	-6964
نل	-6965
ame	-6966
anc	-6967
ual	-6968
ثری	-6969
حاف	-6970
خیم	-6971
▁كم	-6972
▁مگ	-6973
الیز	-6974
موزی	-6975
▁Res	-6976
▁ثان	-6977
▁جمل	-6978
▁صدر	-6979
▁پهن	-6980
▁پود	-6981
▁چرب	-6982
▁۱۹۵	-6983
▁2005	-6984
▁قرون	-6985
▁مریخ	-6986
▁ارایه	-6987
▁تعقیب	-6988
▁ذخایر	-6989
▁سانتی	-6990
▁معکوس	-6991
▁نگاری	-6992
▁آستانه	-6993
▁شواهدی	-6994
۱۸	-6995
لان	-6996
هاي	-6997
▁((	-6998
▁CD	-6999
olog	-7000
هایش	-7001
▁Col	-7002
▁شکی	-7003
▁میت	-7004
▁رقیب	-7005
▁فلزی	-7006
▁قیام	-7007
▁مفصل	-7008
▁یادم	-7009
▁آسیای	-7010
▁سوالی	-7011
▁نامند	-7012
▁ژنرال	-7013
▁غالباً	-7014
▁بایگانی	-7015
▁بپردازد	-7016
▁شهرداری	-7017
▁فراخوان	-7018
▁کودکانی	-7019
NS	-7020
ثه	-7021
ert	-7022
ign	-7023
طئه	-7024
نون	-7025
چشم	-7026
پاشی	-7027
▁انص	-7028
▁بام	-7029
▁بیه	-7030
▁سور	-7031
▁غزه	-7032
مایید	-7033
▁بطری	-7034
▁بورس	-7035
▁حرفی	-7036
▁عینک	-7037
▁نواز	-7038
▁یوگا	-7039
▁اعزام	-7040
▁بازمی	-7041
▁تجارب	-7042
▁توطئه	-7043
▁برداشتن	-7044
▁خوشحالی	-7045
▁مبارزات	-7046
▁نظامیان	-7047
RM	-7048
اهم	-7049
ایز	-7050
بله	-7051
ذیب	-7052
راخ	-7053
ندم	-7054
▁Le	-7055
عامل	-7056
▁URL	-7057
▁ریچ	-7058
▁عزت	-7059
▁فلز	-7060
▁ناک	-7061
▁عاقل	-7062
▁غالب	-7063
▁فرقی	-7064
▁وحدت	-7065
راجویی	-7066
▁ببریم	-7067
▁سلولی	-7068
▁شدیدی	-7069
▁قاعده	-7070
▁استوار	-7071
▁خدایان	-7072
▁انتقادی	-7073
▁خبرنگار	-7074
▁منصفانه	-7075
▁چهارمین	-7076
▁کلینتون	-7077
▁بپردازند	-7078
▁فدراسیون	-7079
خب	-7080
▁x	-7081
اصد	-7082
کرم	-7083
▁۴۵	-7084
▁رخت	-7085
▁باطل	-7086
▁زاده	-7087
▁مختص	-7088
▁مقطع	-7089
وگرافی	-7090
▁اوراق	-7091
▁دمکرا	-7092
▁موردی	-7093
▁راهنما	-7094
▁پوشیده	-7095
▁گذراند	-7096
▁خوشحالم	-7097
▁نامحدود	-7098
▁ناخودآگاه	-7099
▁سیاستمداران	-7100
برا	-7101
▁(20	-7102
▁ISO	-7103
▁فاز	-7104
▁بادی	-7105
▁بنوی	-7106
▁حیرت	-7107
▁سازه	-7108
▁صریح	-7109
▁مؤمن	-7110
▁مدال	-7111
▁منظر	-7112
رخواهی	-7113
▁نابرا	-7114
▁حاملگی	-7115
▁گرفتیم	-7116
▁آزادانه	-7117
▁شاگردان	-7118
▁سازندگان	-7119
▁ماجراجویی	-7120
SL	-7121
اژ	-7122
وتو	-7123
▁Br	-7124
▁on	-7125
▁زه	-7126
▁قم	-7127
▁لق	-7128
جانی	-7129
▁دره	-7130
▁رضا	-7131
▁فرش	-7132
▁منش	-7133
▁گیج	-7134
گرایی	-7135
▁1980	-7136
▁بفهم	-7137
▁تفری	-7138
▁رویه	-7139
▁سوئی	-7140
▁لوکس	-7141
▁متدا	-7142
▁هدفی	-7143
▁تدوین	-7144
▁شجاعت	-7145
▁نشریه	-7146
▁وسوسه	-7147
▁ارگانی	-7148
▁تلسکوپ	-7149
▁مارتین	-7150
▁بیاورند	-7151
▁فیلیپین	-7152
▁مغناطیسی	-7153
▁هواپیماهای	-7154
ِن	-7155
att	-7156
ens	-7157
اپی	-7158
ناع	-7159
▁خرس	-7160
▁زنم	-7161
▁فاش	-7162
▁قبی	-7163
▁آخرت	-7164
▁آلات	-7165
▁اثرب	-7166
▁نوین	-7167
▁پرین	-7168
▁بخرید	-7169
▁خاتمه	-7170
▁ستایش	-7171
▁پذیرد	-7172
▁اقدامی	-7173
▁روستای	-7174
▁پرسیده	-7175
▁پوشیدن	-7176
▁برگردان	-7177
▁شرکتهای	-7178
▁رانندگان	-7179
▁آزمایشگاهی	-7180
13	-7181
HD	-7182
St	-7183
ple	-7184
حتی	-7185
فره	-7186
پوش	-7187
▁AD	-7188
▁Fr	-7189
▁IC	-7190
▁۲۶	-7191
ions	-7192
اپور	-7193
▁تال	-7194
▁تپه	-7195
▁دفن	-7196
▁کوک	-7197
▁جاود	-7198
▁شاعر	-7199
▁كنید	-7200
▁همیش	-7201
گیرانه	-7202
▁بنزین	-7203
▁حرکتی	-7204
▁سکونت	-7205
▁ماژول	-7206
▁محتوی	-7207
▁پرستار	-7208
▁محرمانه	-7209
▁پروفایل	-7210
▁ساختمانی	-7211
▁عذرخواهی	-7212
▁بازگرداندن	-7213
70	-7214
ET	-7215
ier	-7216
ree	-7217
احت	-7218
ower	-7219
رایم	-7220
عهده	-7221
▁سلس	-7222
▁واژ	-7223
▁پخت	-7224
ربایج	-7225
نگاری	-7226
▁آرشی	-7227
▁آغوش	-7228
▁شیعی	-7229
▁اسرای	-7230
▁خجالت	-7231
▁شمشیر	-7232
▁معقول	-7233
▁انتقام	-7234
▁بیانگر	-7235
▁حامیان	-7236
▁خشمگین	-7237
▁سفرهای	-7238
▁مارکسی	-7239
▁مسیرهای	-7240
▁استثنایی	-7241
▁بازگردان	-7242
▁تابستانی	-7243
▁کیلومتری	-7244
▁قراردادهای	-7245
4)	-7246
Fi	-7247
غد	-7248
کون	-7249
▁(3	-7250
▁لع	-7251
تیشن	-7252
▁USB	-7253
▁آنت	-7254
▁جسد	-7255
▁دفع	-7256
▁صهی	-7257
▁وحش	-7258
▁سرنگ	-7259
▁فورد	-7260
▁معین	-7261
▁یوسف	-7262
▁یونی	-7263
▁برجام	-7264
▁تلاشی	-7265
▁سلسله	-7266
▁گالری	-7267
▁افزونه	-7268
▁شنوایی	-7269
▁بشناسید	-7270
▁متخصصین	-7271
جز	-7272
▁۰	-7273
ild	-7274
ائو	-7275
ادا	-7276
زون	-7277
▁II	-7278
▁رصد	-7279
▁هول	-7280
▁ربود	-7281
▁زحمت	-7282
▁شورا	-7283
▁شیوع	-7284
▁فرشت	-7285
▁نقشی	-7286
▁کاشت	-7287
▁گونگ	-7288
▁بخواب	-7289
▁بکنند	-7290
▁توهین	-7291
▁جریمه	-7292
▁ظاهری	-7293
▁عقاید	-7294
▁موزیک	-7295
▁کنسرت	-7296
▁تفاوتی	-7297
▁معاهده	-7298
▁نرسیده	-7299
▁هایمان	-7300
▁چشمگیر	-7301
▁گرداند	-7302
▁بگذاریم	-7303
أت	-7304
سکو	-7305
▁قف	-7306
وقتی	-7307
گردد	-7308
▁190	-7309
▁192	-7310
▁آرا	-7311
▁تشن	-7312
رامتر	-7313
لاگین	-7314
▁شیعه	-7315
▁قاطع	-7316
▁مناق	-7317
▁استعم	-7318
▁بکشند	-7319
▁متحرک	-7320
▁مقرون	-7321
▁خوانند	-7322
▁هرکدام	-7323
▁آذربایج	-7324
▁احمقانه	-7325
▁انگشتان	-7326
▁برسانند	-7327
▁برسانید	-7328
▁مهندسان	-7329
الص	-7330
جین	-7331
کین	-7332
▁Or	-7333
▁چت	-7334
صورت	-7335
نگری	-7336
▁Car	-7337
▁تحق	-7338
▁ناق	-7339
▁هری	-7340
▁هلی	-7341
رافیکی	-7342
▁استخر	-7343
▁بارسل	-7344
▁بلژیک	-7345
▁تثبیت	-7346
▁تعلیم	-7347
▁ریخته	-7348
▁همگان	-7349
▁افراطی	-7350
▁تهدیدی	-7351
▁مناطقی	-7352
▁گازهای	-7353
▁انسولین	-7354
▁بیانداز	-7355
▁مادربزرگ	-7356
In	-7357
RP	-7358
بخش	-7359
قیم	-7360
وتا	-7361
▁34	-7362
atch	-7363
ount	-7364
هاست	-7365
▁آوی	-7366
▁سرب	-7367
▁مبه	-7368
▁محو	-7369
▁کیک	-7370
وستون	-7371
▁بنظر	-7372
▁غبار	-7373
▁پنیر	-7374
▁پویا	-7375
خوردگی	-7376
▁انبوه	-7377
▁تقلید	-7378
▁قبیله	-7379
▁احتیاط	-7380
▁همیشگی	-7381
▁پارامتر	-7382
▁پنجشنبه	-7383
▁نوآورانه	-7384
▁همکارانش	-7385
▁اقتصاددان	-7386
6)	-7387
۱۱	-7388
yst	-7389
▁جیب	-7390
▁سار	-7391
▁کرا	-7392
▁گیم	-7393
▁انها	-7394
▁فرقه	-7395
▁مادی	-7396
▁مونت	-7397
▁نانو	-7398
▁نوبل	-7399
▁نگفت	-7400
▁هراس	-7401
انیاهو	-7402
▁تناسب	-7403
▁تکذیب	-7404
▁دایره	-7405
▁مقاصد	-7406
▁کاراک	-7407
▁تصمیمی	-7408
▁لیبرال	-7409
▁موجودی	-7410
▁نشانگر	-7411
▁گردیده	-7412
▁آسانسور	-7413
▁دانمارک	-7414
▁رونمایی	-7415
▁رمزگذاری	-7416
-3	-7417
af	-7418
ترز	-7419
ونز	-7420
▁عی	-7421
▁گش	-7422
▁۲۸	-7423
▁Air	-7424
▁آلی	-7425
▁خطی	-7426
▁رویا	-7427
▁هالی	-7428
▁چاقی	-7429
▁۲۰۰۸	-7430
▁World	-7431
▁بدیهی	-7432
▁دختری	-7433
▁دیدیم	-7434
▁نکردم	-7435
▁پیشتر	-7436
▁پیغام	-7437
▁خداحاف	-7438
▁صهیونی	-7439
▁مسیحیت	-7440
▁وضعیتی	-7441
▁چندانی	-7442
▁گروگان	-7443
▁گناهان	-7444
▁فضانورد	-7445
▁محتوایی	-7446
▁رمزنگاری	-7447
▁میخواهید	-7448
▁نتوانسته	-7449
SD	-7450
]]	-7451
جن	-7452
▁y	-7453
enc	-7454
رغم	-7455
▁33	-7456
▁رگ	-7457
اگون	-7458
راکم	-7459
▁بوس	-7460
▁جاه	-7461
▁فاط	-7462
▁لکه	-7463
▁منو	-7464
▁هاى	-7465
▁پرخ	-7466
▁اندی	-7467
▁بازه	-7468
▁بجای	-7469
▁براد	-7470
▁تضاد	-7471
▁جاوا	-7472
▁حرام	-7473
▁خنثی	-7474
▁خیاب	-7475
▁زیرد	-7476
▁شیکا	-7477
▁صلیب	-7478
▁نسبی	-7479
▁کافه	-7480
▁آمدید	-7481
▁امضای	-7482
▁تصفیه	-7483
▁تعلیق	-7484
▁دفاتر	-7485
▁عجیبی	-7486
▁کاملی	-7487
وانسیون	-7488
▁تاکتیک	-7489
▁دستیار	-7490
▁انحصاری	-7491
▁بازیافت	-7492
▁دادستان	-7493
▁دستورات	-7494
▁فروپاشی	-7495
▁داوطلبانه	-7496
BC	-7497
عب	-7498
فال	-7499
▁CO	-7500
آنها	-7501
جمله	-7502
منین	-7503
▁دغد	-7504
ition	-7505
▁2004	-7506
▁بخار	-7507
▁خدمه	-7508
▁رویم	-7509
▁ناخن	-7510
▁هشتم	-7511
▁انبار	-7512
▁بسپار	-7513
▁تعرفه	-7514
▁فرانک	-7515
▁نشوند	-7516
ational	-7517
▁بیوتیک	-7518
▁جذابیت	-7519
▁فراگیر	-7520
▁فضاهای	-7521
▁نوزدهم	-7522
▁بلندمدت	-7523
▁دوستانم	-7524
▁رویاهای	-7525
▁نداشتیم	-7526
▁ساختارهای	-7527
7)	-7528
MI	-7529
oud	-7530
تاً	-7531
روه	-7532
موس	-7533
کیو	-7534
▁Im	-7535
▁On	-7536
▁de	-7537
▁رج	-7538
ارید	-7539
▁بلغ	-7540
▁لبه	-7541
▁محم	-7542
▁وات	-7543
▁پائ	-7544
▁کیت	-7545
مانده	-7546
▁القا	-7547
▁خاند	-7548
▁صمیم	-7549
▁مایه	-7550
▁هندو	-7551
▁چوبی	-7552
▁کاست	-7553
▁گارد	-7554
▁صداقت	-7555
▁فعالی	-7556
▁مؤسسه	-7557
▁نرمال	-7558
▁برعهده	-7559
▁سالگرد	-7560
▁متداول	-7561
▁پراکنده	-7562
TA	-7563
يس	-7564
روب	-7565
فند	-7566
يان	-7567
پات	-7568
▁55	-7569
▁65	-7570
▁IB	-7571
port	-7572
اصره	-7573
الین	-7574
▁تگز	-7575
▁مات	-7576
▁بشکه	-7577
▁تراز	-7578
▁هرکس	-7579
▁کاوش	-7580
▁گویا	-7581
▁۲۰۱۹	-7582
rosoft	-7583
هایشان	-7584
▁تأخیر	-7585
▁نبودم	-7586
▁پوسته	-7587
▁کشورش	-7588
▁اقلیمی	-7589
▁خواندم	-7590
▁خودروس	-7591
▁دگرگون	-7592
▁شیکاگو	-7593
▁مفهومی	-7594
▁گرافیک	-7595
▁انداختن	-7596
▁فرشتگان	-7597
▁خبرگزاری	-7598
▁نتانیاهو	-7599
2)	-7600
شک	-7601
وو	-7602
۱۲	-7603
row	-7604
منی	-7605
چیز	-7606
▁Fl	-7607
▁مُ	-7608
بایی	-7609
▁Red	-7610
▁ترو	-7611
▁زشت	-7612
▁اردن	-7613
▁ساکت	-7614
▁سنگی	-7615
▁قفسه	-7616
▁نازل	-7617
▁وقفه	-7618
▁اذعان	-7619
▁بنابر	-7620
▁ترمیم	-7621
▁فرضیه	-7622
▁مدافع	-7623
▁پیامی	-7624
▁بخورند	-7625
▁ظاهراً	-7626
▁Windows	-7627
▁برگزیده	-7628
▁مدیرعامل	-7629
99	-7630
own	-7631
▁Se	-7632
▁تسک	-7633
▁مکت	-7634
▁هال	-7635
▁Inst	-7636
▁بعید	-7637
▁شجاع	-7638
▁ملحق	-7639
▁۲۰۰۵	-7640
▁بغداد	-7641
▁تفریح	-7642
▁دکترا	-7643
▁ابتکار	-7644
▁ارزهای	-7645
▁جسمانی	-7646
▁دنباله	-7647
▁منظومه	-7648
▁ناخالص	-7649
▁پیروان	-7650
▁اردوغان	-7651
▁متابولی	-7652
▁پروستات	-7653
▁گذاشتند	-7654
▁کنوانسیون	-7655
مم	-7656
ata	-7657
ابر	-7658
ارن	-7659
زند	-7660
▁تگ	-7661
▁کث	-7662
باید	-7663
فعال	-7664
یدنی	-7665
▁120	-7666
▁حرم	-7667
▁رسم	-7668
▁مود	-7669
▁پرف	-7670
▁بکنم	-7671
▁پیتر	-7672
▁تگزاس	-7673
▁دغدغه	-7674
▁روبات	-7675
▁ضربان	-7676
▁قواعد	-7677
▁لزوما	-7678
▁نکردن	-7679
▁بگذران	-7680
▁جانسون	-7681
▁مجدداً	-7682
▁مرگبار	-7683
▁بارسلونا	-7684
▁همسایگان	-7685
▁University	-7686
▁تولیدکنندگان	-7687
ادش	-7688
▁AP	-7689
▁Sk	-7690
▁نج	-7691
▁کُ	-7692
اهیر	-7693
رالم	-7694
یتون	-7695
▁WEB	-7696
▁ادا	-7697
▁بقا	-7698
▁بلد	-7699
▁لامپ	-7700
▁اسپرم	-7701
▁شدگان	-7702
▁محترم	-7703
▁نهفته	-7704
▁پاییز	-7705
▁تکمیلی	-7706
▁ثانویه	-7707
▁نژادپر	-7708
▁پلاگین	-7709
▁یافتند	-7710
▁اتهامات	-7711
▁اعلامیه	-7712
▁کوچکترین	-7713
.»[	-7714
ake	-7715
ann	-7716
old	-7717
ارض	-7718
ارو	-7719
ایا	-7720
دست	-7721
▁حص	-7722
ator	-7723
انید	-7724
▁حلی	-7725
▁زدم	-7726
▁عید	-7727
▁ماک	-7728
▁منز	-7729
▁موف	-7730
▁پنل	-7731
اهدات	-7732
▁Home	-7733
▁افشا	-7734
▁تانک	-7735
▁تفنگ	-7736
▁جواه	-7737
▁فیلس	-7738
▁کروم	-7739
▁امپرا	-7740
▁تبریک	-7741
▁تداوم	-7742
▁تلفات	-7743
▁تورنت	-7744
▁خواهش	-7745
▁مزایا	-7746
▁ببخشید	-7747
▁دوگانه	-7748
▁سؤالات	-7749
▁محاصره	-7750
▁نداشتن	-7751
▁پرسیدم	-7752
▁سنگاپور	-7753
▁زیباترین	-7754
ich	-7755
قام	-7756
▁Dr	-7757
▁MS	-7758
▁اى	-7759
land	-7760
کسون	-7761
▁بلا	-7762
▁شفا	-7763
▁عصب	-7764
▁غار	-7765
▁قله	-7766
▁نیج	-7767
▁هام	-7768
▁کیم	-7769
▁امیر	-7770
▁اینک	-7771
▁بابا	-7772
▁بودی	-7773
▁زغال	-7774
▁سکته	-7775
▁منحص	-7776
▁جرایم	-7777
▁زنانه	-7778
▁شدیدا	-7779
▁صدایی	-7780
▁متحمل	-7781
▁تحلیلی	-7782
▁شناسیم	-7783
▁عبارات	-7784
▁تاسیسات	-7785
▁خصوصیات	-7786
▁سینمایی	-7787
▁همبستگی	-7788
▁پنتاگون	-7789
▁روانشناس	-7790
▁زیرزمینی	-7791
!"	-7792
ys	-7793
يش	-7794
۱۵	-7795
سام	-7796
مثل	-7797
▁48	-7798
ناکی	-7799
کاوی	-7800
▁بپو	-7801
▁نشر	-7802
▁کاس	-7803
اویری	-7804
▁آدام	-7805
▁ارجا	-7806
▁بستن	-7807
▁چاره	-7808
▁کلان	-7809
▁آفرید	-7810
▁اتریش	-7811
▁سوراخ	-7812
▁لایحه	-7813
▁مثابه	-7814
▁مجاهد	-7815
▁پوشان	-7816
▁یابید	-7817
▁علیرغم	-7818
▁مکانیک	-7819
▁خیابانی	-7820
▁پارکینگ	-7821
▁کیلوگرم	-7822
▁تاثیرگذار	-7823
1]	-7824
RI	-7825
TC	-7826
co	-7827
تق	-7828
ase	-7829
ull	-7830
ارا	-7831
فیل	-7832
نمی	-7833
▁نپ	-7834
ance	-7835
طوبت	-7836
▁تقص	-7837
▁سون	-7838
▁معص	-7839
▁ورش	-7840
▁ایدز	-7841
▁بریم	-7842
▁تابل	-7843
▁تدار	-7844
▁حکمت	-7845
▁خارق	-7846
▁قاعد	-7847
▁کمدی	-7848
▁ابداع	-7849
▁دادید	-7850
▁رطوبت	-7851
▁ژنتیک	-7852
▁کلسیم	-7853
▁گرامی	-7854
ication	-7855
▁امتداد	-7856
▁بحرانی	-7857
▁خاندان	-7858
▁شهردار	-7859
▁مردانه	-7860
▁پانزده	-7861
▁علاقمند	-7862
▁پدربزرگ	-7863
▁بانکداری	-7864
▁Microsoft	-7865
!)	-7866
5)	-7867
HP	-7868
لۀ	-7869
يز	-7870
vel	-7871
ذکر	-7872
شوی	-7873
وتن	-7874
پول	-7875
▁95	-7876
▁AM	-7877
▁اِ	-7878
ings	-7879
امیک	-7880
بانه	-7881
هزار	-7882
جانبه	-7883
▁Play	-7884
▁بزنم	-7885
▁بهای	-7886
▁تصدی	-7887
▁كشور	-7888
▁میاد	-7889
▁نقدی	-7890
▁کوشش	-7891
▁دردسر	-7892
▁شناسم	-7893
▁فروخت	-7894
▁نامید	-7895
▁چارلز	-7896
▁افتادن	-7897
▁توافقی	-7898
▁حمایتی	-7899
▁نیجریه	-7900
▁تصاویری	-7901
▁دستاوردهای	-7902
--	-7903
CA	-7904
ارج	-7905
تیو	-7906
خان	-7907
فور	-7908
ودن	-7909
شینی	-7910
ومتی	-7911
کونی	-7912
▁سحر	-7913
▁فاس	-7914
▁لوک	-7915
▁یکم	-7916
▁۳۰۰	-7917
▁1999	-7918
▁اثری	-7919
▁بدنه	-7920
▁درمی	-7921
▁سوژه	-7922
▁گوسف	-7923
▁توازن	-7924
▁زنبور	-7925
▁طرفین	-7926
▁مباحث	-7927
▁محلول	-7928
▁مهاجم	-7929
▁نکاتی	-7930
▁هرگاه	-7931
▁اطلاعی	-7932
▁دانسته	-7933
▁ریچارد	-7934
▁گلخانه	-7935
▁سپاسگزار	-7936
▁فعالیتهای	-7937
▁ناخوشایند	-7938
)؛	-7939
پرو	-7940
▁iP	-7941
▁سي	-7942
اتیک	-7943
ارتی	-7944
اریا	-7945
▁ایز	-7946
▁فلج	-7947
جوانی	-7948
دهنده	-7949
نستان	-7950
چگونه	-7951
▁1970	-7952
▁2001	-7953
▁تجمع	-7954
▁تخمک	-7955
▁جامد	-7956
▁حروف	-7957
▁شکوه	-7958
▁نازک	-7959
▁هفتم	-7960
▁واژن	-7961
▁گرین	-7962
پرداخت	-7963
▁اسمیت	-7964
▁توالت	-7965
▁خزانه	-7966
▁شمارش	-7967
▁شنیدم	-7968
▁لطفاً	-7969
▁مصرفی	-7970
▁نشانی	-7971
▁نیافت	-7972
▁نیوزی	-7973
▁پرسنل	-7974
▁اطرافی	-7975
▁بندگان	-7976
▁پیشبرد	-7977
▁مقدماتی	-7978
▁کاراکتر	-7979
▁ارمنستان	-7980
▁همانگونه	-7981
▁آذربایجان	-7982
▁میلیاردها	-7983
EL	-7984
EM	-7985
۱۳	-7986
▁‘	-7987
▁Me	-7988
▁PS	-7989
▁يك	-7990
ject	-7991
راهن	-7992
سالی	-7993
▁صحت	-7994
▁هاش	-7995
آمریک	-7996
▁اسما	-7997
▁الآن	-7998
▁تونی	-7999
▁ديگر	-8000
▁رکود	-8001
▁واجب	-8002
▁پسرم	-8003
▁حشرات	-8004
▁داوود	-8005
▁علایم	-8006
▁قدرتی	-8007
▁مبارک	-8008
▁هفتاد	-8009
▁استثنا	-8010
▁استعفا	-8011
▁تایوان	-8012
▁نتواند	-8013
▁نمایشی	-8014
▁پرتغال	-8015
▁مهربانی	-8016
▁قهرمانان	-8017
CD	-8018
][	-8019
ps	-8020
َل	-8021
ale	-8022
ons	-8023
pen	-8024
کیک	-8025
▁شك	-8026
▁١٩	-8027
▁پش	-8028
آمیز	-8029
تومی	-8030
ساله	-8031
لیقه	-8032
کدام	-8033
▁ذره	-8034
▁فین	-8035
▁منق	-8036
▁ناف	-8037
▁۱۵۰	-8038
▁احمد	-8039
▁عباس	-8040
▁فراز	-8041
▁سرشار	-8042
▁سوزان	-8043
▁صمیمی	-8044
▁عموما	-8045
▁نیامده	-8046
▁دستکاری	-8047
▁مکانیسم	-8048
▁کارآموزی	-8049
24	-8050
تص	-8051
▁%	-8052
box	-8053
ley	-8054
net	-8055
واد	-8056
▁..	-8057
▁37	-8058
▁HP	-8059
▁Qu	-8060
قدرت	-8061
▁Med	-8062
▁شیخ	-8063
▁محف	-8064
ریایی	-8065
▁اسکی	-8066
▁بردم	-8067
▁تبلت	-8068
▁جوری	-8069
▁عملا	-8070
▁ارزشی	-8071
▁بااین	-8072
▁بدانم	-8073
▁دویدن	-8074
▁شناور	-8075
▁لیستی	-8076
▁مجروح	-8077
▁منتخب	-8078
▁موشکی	-8079
▁آسمانی	-8080
▁افسرده	-8081
▁سیستمی	-8082
▁تأثیرات	-8083
▁خواستیم	-8084
▁درمانگر	-8085
▁دیپلمات	-8086
▁رادیکال	-8087
▁سوالاتی	-8088
▁نوجوانی	-8089
▁پایداری	-8090
▁گذراندن	-8091
▁بیولوژیکی	-8092
▁کارآفرینان	-8093
حس	-8094
غر	-8095
iss	-8096
قدس	-8097
مول	-8098
▁بچ	-8099
▁خص	-8100
▁۲٫	-8101
▁600	-8102
▁For	-8103
▁درج	-8104
▁دلش	-8105
▁سزا	-8106
▁خالق	-8107
▁خشکی	-8108
▁خلقت	-8109
▁ریاض	-8110
▁سارا	-8111
▁موها	-8112
▁تفاهم	-8113
▁خورید	-8114
▁درهای	-8115
▁ساعتی	-8116
▁موفقی	-8117
▁نژادی	-8118
▁واقعه	-8119
▁بیابید	-8120
▁سخنران	-8121
▁شیعیان	-8122
▁دریافتی	-8123
▁مکانیکی	-8124
▁هاروارد	-8125
▁هورمونی	-8126
▁امتیازات	-8127
▁فرماندهی	-8128
:"	-8129
ai	-8130
-20	-8131
ستن	-8132
عید	-8133
▁AS	-8134
...»	-8135
lect	-8136
ذیری	-8137
زدهم	-8138
سیلی	-8139
▁Aut	-8140
▁فتح	-8141
▁قوه	-8142
▁ماز	-8143
▁مرج	-8144
iness	-8145
البته	-8146
▁فعلا	-8147
▁میشد	-8148
▁کارل	-8149
▁۱۹۷۰	-8150
یمانده	-8151
▁خوابی	-8152
▁زودرس	-8153
▁فلزات	-8154
▁مظنون	-8155
▁ارتقای	-8156
▁انحراف	-8157
▁جماهیر	-8158
▁سرپرست	-8159
▁هدفمند	-8160
▁سلولهای	-8161
▁شورشیان	-8162
▁نیوزیلند	-8163
▁کاربردهای	-8164
PC	-8165
ise	-8166
▁39	-8167
▁43	-8168
▁اژ	-8169
able	-8170
آنچه	-8171
شلیم	-8172
▁Sch	-8173
▁حتا	-8174
▁حما	-8175
▁زائ	-8176
▁نوت	-8177
▁ژنو	-8178
ازدهم	-8179
▁برگه	-8180
▁بلوغ	-8181
▁تجسم	-8182
▁قارچ	-8183
▁معاف	-8184
▁نگری	-8185
▁احکام	-8186
▁ترسند	-8187
▁تمایز	-8188
▁جاهای	-8189
▁خوراک	-8190
▁سوابق	-8191
▁فواید	-8192
▁معمار	-8193
▁منظره	-8194
▁گمشده	-8195
▁امتناع	-8196
▁تفریحی	-8197
▁شکارچی	-8198
▁شیرینی	-8199
▁فهمیدم	-8200
▁معاینه	-8201
▁نخواهم	-8202
▁ابزارها	-8203
▁توانمند	-8204
▁جابجایی	-8205
▁مخصوصاً	-8206
▁دیکتاتوری	-8207
ery	-8208
les	-8209
اوت	-8210
بسی	-8211
ریز	-8212
▁IT	-8213
▁ــ	-8214
حاتی	-8215
طباق	-8216
نویس	-8217
چنین	-8218
▁ختم	-8219
▁عطر	-8220
▁لیم	-8221
▁چنگ	-8222
▁کما	-8223
▁ابدی	-8224
▁غرور	-8225
▁گانه	-8226
▁آرمان	-8227
▁ايران	-8228
▁بحرین	-8229
▁تسکین	-8230
▁داران	-8231
▁دیدنی	-8232
▁سودان	-8233
▁نوشتم	-8234
▁جانشین	-8235
▁لینوکس	-8236
▁پاسخگو	-8237
▁عصبانیت	-8238
▁محصولاتی	-8239
▁نامگذاری	-8240
8)	-8241
▁{	-8242
▁أ	-8243
iel	-8244
ium	-8245
uct	-8246
ازل	-8247
دها	-8248
کلت	-8249
▁Ev	-8250
▁رش	-8251
▁طر	-8252
▁لن	-8253
ames	-8254
بدون	-8255
لاوه	-8256
▁دلس	-8257
ystem	-8258
▁Cont	-8259
▁تسری	-8260
▁فاشی	-8261
▁قطره	-8262
▁مزار	-8263
▁منتق	-8264
▁گمرک	-8265
▁Black	-8266
▁تحقیر	-8267
▁تقویم	-8268
▁جلوتر	-8269
▁خصوصا	-8270
▁خمینی	-8271
▁پدران	-8272
▁افزودن	-8273
▁انطباق	-8274
▁بخواند	-8275
▁بفهمید	-8276
▁بنوشید	-8277
▁روزگار	-8278
▁امیرالم	-8279
▁حسابرسی	-8280
▁باقیمانده	-8281
آز	-8282
َن	-8283
▁j	-8284
فتی	-8285
ماه	-8286
▁عث	-8287
زایی	-8288
ویسی	-8289
▁Web	-8290
▁سقط	-8291
▁نيز	-8292
▁پین	-8293
اندوم	-8294
▁زنیم	-8295
▁عضله	-8296
▁قریب	-8297
▁ناقص	-8298
▁نامی	-8299
▁نگوی	-8300
▁پودر	-8301
▁گزین	-8302
▁۱۰۰۰	-8303
▁اسکار	-8304
▁بخورد	-8305
▁توکیو	-8306
▁لیوان	-8307
▁معادن	-8308
▁نگرفت	-8309
▁حکومتی	-8310
▁عمدتاً	-8311
▁ماهیچه	-8312
▁میگیرد	-8313
▁نهایتا	-8314
▁نگیرید	-8315
▁ویروسی	-8316
▁اثربخشی	-8317
▁دوستانش	-8318
▁فرانسیس	-8319
▁فشارهای	-8320
▁هیچگونه	-8321
▁اسکاتلند	-8322
▁اعتقادات	-8323
▁ایرانیان	-8324
22	-8325
ُم	-8326
min	-8327
اجی	-8328
اضع	-8329
رند	-8330
فای	-8331
▁85	-8332
▁فک	-8333
ومیت	-8334
▁Mac	-8335
▁Met	-8336
▁ترش	-8337
▁حاد	-8338
▁دزد	-8339
▁راک	-8340
▁ساق	-8341
▁فدا	-8342
▁ناگ	-8343
▁پرز	-8344
▁آمدم	-8345
▁باخت	-8346
▁بايد	-8347
▁بگرد	-8348
▁تصرف	-8349
▁خفیف	-8350
▁دومی	-8351
▁قدمت	-8352
▁لنین	-8353
▁ملزم	-8354
▁منشا	-8355
▁هردو	-8356
▁چاله	-8357
▁دخترش	-8358
▁دریاب	-8359
▁رفتیم	-8360
▁عمیقی	-8361
▁متاسف	-8362
▁مترجم	-8363
▁مخلوق	-8364
▁موسوم	-8365
usiness	-8366
▁ازجمله	-8367
▁سنگینی	-8368
▁طبقاتی	-8369
▁عزیزان	-8370
▁معنایی	-8371
▁بخوانند	-8372
▁دانستید	-8373
▁استارتاپ	-8374
▁بارگذاری	-8375
▁نابرابری	-8376
▁پناهندگی	-8377
DF	-8378
ts	-8379
بک	-8380
فش	-8381
يی	-8382
‬‬	-8383
تول	-8384
نیم	-8385
▁44	-8386
ound	-8387
uper	-8388
▁Des	-8389
▁ترم	-8390
▁جزی	-8391
▁عیب	-8392
▁ممل	-8393
▁نگذ	-8394
▁پیک	-8395
▁کهن	-8396
▁کین	-8397
▁گان	-8398
ایتان	-8399
رنشان	-8400
فکران	-8401
▁آرای	-8402
▁تناس	-8403
▁جهاد	-8404
▁صبور	-8405
▁لرزه	-8406
▁متکی	-8407
▁نوبه	-8408
▁پلاس	-8409
▁کلیس	-8410
مندانه	-8411
▁بزنیم	-8412
▁توماس	-8413
▁جملات	-8414
▁دیدید	-8415
▁فاطمه	-8416
▁مساوی	-8417
▁منفجر	-8418
▁نویسم	-8419
▁بسازیم	-8420
▁بفهمیم	-8421
▁جنگنده	-8422
▁صداهای	-8423
▁مسکونی	-8424
▁کالاها	-8425
▁اورشلیم	-8426
▁پاسپورت	-8427
▁پاکسازی	-8428
▁مجارستان	-8429
▁سوءاستفاده	-8430
پن	-8431
ade	-8432
زیم	-8433
▁38	-8434
▁At	-8435
▁[[	-8436
ital	-8437
roid	-8438
ستند	-8439
ورات	-8440
▁آنف	-8441
▁عاش	-8442
▁وحی	-8443
رارتی	-8444
▁بنام	-8445
▁دعوا	-8446
▁ربطی	-8447
▁رونق	-8448
▁ریخت	-8449
▁غروب	-8450
▁كردن	-8451
▁مینی	-8452
گذاران	-8453
▁ادراک	-8454
▁اسامی	-8455
▁اینان	-8456
▁تقصیر	-8457
▁مختصر	-8458
▁میرسد	-8459
▁نهاده	-8460
▁نگذار	-8461
▁هفتگی	-8462
▁برادرش	-8463
▁تابعیت	-8464
▁شناسید	-8465
▁فرموده	-8466
▁قاعدگی	-8467
▁میگوید	-8468
▁نیروها	-8469
▁پیدایش	-8470
▁کشاورز	-8471
▁استادان	-8472
▁مولکولی	-8473
▁کاپیتان	-8474
▁پرداختند	-8475
▁زیردریایی	-8476
▁تولیدکننده	-8477
ِر	-8478
ّل	-8479
eng	-8480
اسم	-8481
زدی	-8482
شهر	-8483
▁Sm	-8484
work	-8485
شویی	-8486
▁آله	-8487
▁بشم	-8488
▁عار	-8489
▁منا	-8490
ترانه	-8491
▁تقلب	-8492
▁ذاتی	-8493
▁سونی	-8494
▁شعله	-8495
▁طلای	-8496
▁لیتر	-8497
▁مسلم	-8498
▁ندهد	-8499
▁پخته	-8500
▁پرسد	-8501
▁گلوک	-8502
▁۱۹۸۰	-8503
وسترون	-8504
▁اسکری	-8505
▁ایمپل	-8506
▁براین	-8507
▁زیتون	-8508
▁شگفتی	-8509
▁فارکس	-8510
▁منحرف	-8511
▁نوسان	-8512
▁تورنتو	-8513
▁سزاوار	-8514
▁محصولی	-8515
▁ناشناس	-8516
▁پدیدار	-8517
▁پنجمین	-8518
▁یکسانی	-8519
▁آموزانی	-8520
▁اپراتور	-8521
▁تریلیون	-8522
▁زمستانی	-8523
▁ناامیدی	-8524
▁گرایانه	-8525
▁خاطرنشان	-8526
▁دندانپزشک	-8527
9)	-8528
OR	-8529
uk	-8530
ضم	-8531
كر	-8532
٠٠	-8533
طار	-8534
عین	-8535
▁دپ	-8536
▁۲۹	-8537
ارشی	-8538
رسان	-8539
وریا	-8540
پوست	-8541
▁تیز	-8542
▁خوک	-8543
گرهای	-8544
▁2002	-8545
▁الکس	-8546
▁بارش	-8547
▁جزیی	-8548
▁مبهم	-8549
▁مهلت	-8550
▁ناظر	-8551
▁نیفت	-8552
▁۲۰۰۳	-8553
▁ارجاع	-8554
▁ارقام	-8555
▁استیو	-8556
▁افتند	-8557
▁افراط	-8558
▁انتشا	-8559
▁بزودی	-8560
▁سردرگ	-8561
▁فلسفی	-8562
▁مردها	-8563
▁میتون	-8564
▁نمودن	-8565
▁کاتال	-8566
▁کاغذی	-8567
▁حرارتی	-8568
▁مؤسسات	-8569
▁مناسبت	-8570
▁ناراضی	-8571
▁نظرتان	-8572
▁اسراییل	-8573
▁بازگشته	-8574
▁غذاهایی	-8575
▁هیدروژن	-8576
▁کشورمان	-8577
▁اتفاقاتی	-8578
▁اطرافیان	-8579
IF	-8580
alt	-8581
mer	-8582
ohn	-8583
سیا	-8584
ظره	-8585
فسی	-8586
▁El	-8587
▁رئ	-8588
▁قز	-8589
▁۱٫	-8590
بخشی	-8591
طوره	-8592
لاند	-8593
کوپی	-8594
▁Bit	-8595
▁افق	-8596
▁بدب	-8597
▁فرس	-8598
▁قید	-8599
▁متض	-8600
▁مجت	-8601
▁هرج	-8602
▁آلوم	-8603
▁تعمی	-8604
▁تونس	-8605
▁دزدی	-8606
▁ساند	-8607
▁سفری	-8608
▁سوپر	-8609
▁شمسی	-8610
▁صفات	-8611
▁مسلط	-8612
▁نروژ	-8613
▁اعطای	-8614
▁بخشند	-8615
▁حسادت	-8616
▁کلینی	-8617
▁کناره	-8618
▁گرمای	-8619
▁بسازند	-8620
▁تعاملی	-8621
▁لیسانس	-8622
▁ماندند	-8623
▁منظورم	-8624
▁نماییم	-8625
▁نیازها	-8626
▁پشیمان	-8627
▁دربارهٔ	-8628
▁رختخواب	-8629
▁خداحافظی	-8630
▁داروهایی	-8631
▁ماهیگیری	-8632
-5	-8633
MA	-8634
فری	-8635
نیک	-8636
▁(4	-8637
▁عش	-8638
cess	-8639
مردم	-8640
کلین	-8641
▁Ste	-8642
▁ظلم	-8643
▁عفو	-8644
▁کمر	-8645
ؤمنین	-8646
▁بخشش	-8647
▁توئی	-8648
▁سایز	-8649
▁سنجش	-8650
▁عناو	-8651
▁مجزا	-8652
▁مقدم	-8653
▁وزنه	-8654
▁کثیف	-8655
▁کریس	-8656
▁۱۹۹۰	-8657
برنامه	-8658
▁حکایت	-8659
▁ربوده	-8660
▁میرند	-8661
▁کابوس	-8662
▁آقایان	-8663
▁اساساً	-8664
▁افزاید	-8665
▁افسران	-8666
▁انجامد	-8667
▁ببندید	-8668
▁بیداری	-8669
▁تراکنش	-8670
▁شناختن	-8671
▁مایعات	-8672
▁ناوگان	-8673
▁هرچیزی	-8674
▁گذاشتم	-8675
▁یادتان	-8676
▁ایمپلنت	-8677
▁عبدالله	-8678
▁مجاهدین	-8679
▁مطمئناً	-8680
▁منتقدان	-8681
▁گرافیکی	-8682
▁اصطلاحات	-8683
▁سهامداران	-8684
سپ	-8685
مج	-8686
۳۰	-8687
eed	-8688
▁AC	-8689
▁اَ	-8690
▁حت	-8691
تنها	-8692
گرفت	-8693
▁All	-8694
▁رؤی	-8695
▁عرق	-8696
▁لاک	-8697
▁منم	-8698
▁۱۹۲	-8699
ative	-8700
▁امگا	-8701
▁بسکت	-8702
▁حدیث	-8703
▁دوقل	-8704
▁شستن	-8705
▁شیلی	-8706
▁فانت	-8707
▁مصری	-8708
▁پوشه	-8709
▁درایو	-8710
▁صراحت	-8711
▁فوراً	-8712
▁نداره	-8713
▁بدنتان	-8714
▁بنویسم	-8715
▁خوشمزه	-8716
▁رسیدیم	-8717
▁غیرمنت	-8718
▁مهمانان	-8719
▁افزارهای	-8720
▁استرالیایی	-8721
▁دندانپزشکی	-8722
▁فیلمبرداری	-8723
ma	-8724
ww	-8725
ضل	-8726
يي	-8727
۱۴	-8728
بلی	-8729
خوب	-8730
علی	-8731
قال	-8732
گیل	-8733
▁Gl	-8734
▁۶۵	-8735
شیند	-8736
وئید	-8737
وردی	-8738
▁250	-8739
▁pro	-8740
▁الج	-8741
▁جوه	-8742
▁نصی	-8743
▁گلی	-8744
▁خوشه	-8745
▁سانس	-8746
▁فاسد	-8747
▁مرید	-8748
▁مصمم	-8749
▁مقرر	-8750
▁ویکی	-8751
▁آمیزی	-8752
▁بهشتی	-8753
▁تداخل	-8754
▁تسریع	-8755
▁تقدیر	-8756
▁دائما	-8757
▁درنظر	-8758
▁دشمنی	-8759
▁دهکده	-8760
▁زدایی	-8761
▁مبتدی	-8762
▁عواملی	-8763
▁پایبند	-8764
▁پیشگام	-8765
▁کارگزار	-8766
▁کوانتومی	-8767
▁تستوسترون	-8768
cl	-8769
fl	-8770
جت	-8771
رع	-8772
ina	-8773
ins	-8774
ورو	-8775
▁2)	-8776
▁47	-8777
▁ذی	-8778
▁مچ	-8779
▁۳۶	-8780
▁Ass	-8781
خواهی	-8782
▁(200	-8783
▁Comp	-8784
▁جناح	-8785
▁نکنم	-8786
▁پانل	-8787
▁۲۰۰۱	-8788
▁تصدیق	-8789
▁جوایز	-8790
▁سوئدی	-8791
▁مامور	-8792
▁محتمل	-8793
▁ایستاد	-8794
▁بیابان	-8795
▁خوانیم	-8796
▁رونالد	-8797
▁شایعات	-8798
▁مهمانی	-8799
▁باورهای	-8800
▁بنیادین	-8801
▁گذرنامه	-8802
▁معاملاتی	-8803
آب	-8804
▁↑	-8805
aph	-8806
کنی	-8807
▁Is	-8808
وترا	-8809
▁بشه	-8810
▁تبی	-8811
▁ریه	-8812
▁ماب	-8813
▁مطب	-8814
▁نای	-8815
▁پرا	-8816
▁کاز	-8817
▁اصفه	-8818
▁تخته	-8819
▁درام	-8820
▁قطبی	-8821
▁مستح	-8822
▁یوتی	-8823
▁العمل	-8824
▁دزدید	-8825
▁سئوال	-8826
▁شاگرد	-8827
▁مسواک	-8828
▁معتاد	-8829
▁همایش	-8830
▁کشنده	-8831
▁اسطوره	-8832
▁بخشیده	-8833
▁جنایات	-8834
▁سرنشین	-8835
▁گرمایش	-8836
▁یارانه	-8837
▁اتصالات	-8838
▁استقرار	-8839
▁بازیگری	-8840
▁درازمدت	-8841
▁ماندگار	-8842
▁محتویات	-8843
▁پناهگاه	-8844
▁روزرسانی	-8845
▁غیرمنتظره	-8846
▁بازاریابان	-8847
▁سرماخوردگی	-8848
3]	-8849
EA	-8850
ُر	-8851
ave	-8852
igh	-8853
ung	-8854
حاب	-8855
ظهر	-8856
عون	-8857
فقط	-8858
كان	-8859
نين	-8860
▁64	-8861
خامت	-8862
دانش	-8863
مادی	-8864
گروه	-8865
▁الن	-8866
▁راس	-8867
earch	-8868
ترسید	-8869
▁Word	-8870
▁بمیر	-8871
▁بنگل	-8872
▁حیاط	-8873
▁فتنه	-8874
▁فریم	-8875
▁مزاح	-8876
▁منکر	-8877
▁پاها	-8878
▁گیرم	-8879
▁تعالی	-8880
▁تعویق	-8881
▁ثباتی	-8882
▁دراین	-8883
▁شوهرش	-8884
▁فرستد	-8885
▁مسخره	-8886
▁منتهی	-8887
▁پیکسل	-8888
▁بعلاوه	-8889
▁خانوار	-8890
▁نویسند	-8891
▁نیافته	-8892
▁اختیاری	-8893
▁فلوریدا	-8894
▁بلغارستان	-8895
Cl	-8896
▁→	-8897
ole	-8898
ors	-8899
تین	-8900
ولف	-8901
پای	-8902
وازی	-8903
چشمه	-8904
▁Can	-8905
▁بهش	-8906
▁رول	-8907
▁لغت	-8908
▁1960	-8909
▁اوپک	-8910
▁دعای	-8911
▁ردیف	-8912
▁رسما	-8913
▁عددی	-8914
▁لوگو	-8915
▁محکو	-8916
▁کارم	-8917
▁آرشیو	-8918
▁انتها	-8919
▁تظاهر	-8920
▁تفکیک	-8921
▁تنبیه	-8922
▁توییت	-8923
▁حدودا	-8924
▁سلطنت	-8925
▁عارضه	-8926
▁منصوب	-8927
▁کیفری	-8928
▁بازنده	-8929
▁سناتور	-8930
▁محققین	-8931
▁مربیان	-8932
▁مردگان	-8933
▁نویسان	-8934
▁بازبینی	-8935
▁بسکتبال	-8936
▁جایگاهی	-8937
▁شایستگی	-8938
▁مانیتور	-8939
▁پرستاری	-8940
▁کودکتان	-8941
▁التحصیلی	-8942
ep	-8943
لای	-8944
کنه	-8945
نگام	-8946
چنان	-8947
▁Cre	-8948
▁آکو	-8949
▁بات	-8950
▁جنب	-8951
▁زاد	-8952
▁سوق	-8953
▁شکو	-8954
▁صاب	-8955
▁صدق	-8956
▁مرو	-8957
▁ناآ	-8958
▁گود	-8959
ement	-8960
زندگی	-8961
▁اعظم	-8962
▁ایام	-8963
▁خطری	-8964
▁رایت	-8965
▁وسعت	-8966
▁کیفی	-8967
▁تشریح	-8968
▁تقدیم	-8969
▁تنفسی	-8970
▁خیریه	-8971
▁راستش	-8972
▁سلمان	-8973
▁مبارز	-8974
▁نورون	-8975
▁تلگرام	-8976
▁خوردند	-8977
▁عموماً	-8978
▁بپذیرید	-8979
▁خاکستری	-8980
▁سالیانه	-8981
▁پردازیم	-8982
▁کنجکاوی	-8983
▁استروئید	-8984
▁قراردادی	-8985
▁دوستانتان	-8986
IA	-8987
ئل	-8988
كا	-8989
كی	-8990
لن	-8991
ats	-8992
ica	-8993
سمی	-8994
▁غف	-8995
شتین	-8996
گهای	-8997
▁Act	-8998
▁Min	-8999
▁Sec	-9000
▁جلد	-9001
▁جما	-9002
▁قصر	-9003
▁مزه	-9004
▁مقص	-9005
ology	-9006
بارتی	-9007
زایمر	-9008
مایند	-9009
▁احیا	-9010
▁حجاب	-9011
▁دمشق	-9012
▁غلظت	-9013
▁بستری	-9014
▁بعداز	-9015
▁جنایی	-9016
▁دخترم	-9017
▁مبلمان	-9018
▁مردانی	-9019
▁پایینی	-9020
ــــــــ	-9021
▁آلزایمر	-9022
▁برگرفته	-9023
▁خواهران	-9024
▁محاسباتی	-9025
▁مدیترانه	-9026
▁پیکربندی	-9027
▁تحلیلگران	-9028
DP	-9029
Sc	-9030
au	-9031
vi	-9032
yt	-9033
صب	-9034
نر	-9035
app	-9036
ett	-9037
آید	-9038
راً	-9039
ater	-9040
roup	-9041
کنید	-9042
▁آلت	-9043
▁تنی	-9044
▁حائ	-9045
▁حول	-9046
▁صرب	-9047
▁عرف	-9048
▁معط	-9049
انیوم	-9050
▁آمري	-9051
▁ببخش	-9052
▁برات	-9053
▁تاجر	-9054
▁حومه	-9055
▁روتر	-9056
▁شخصا	-9057
▁مخاب	-9058
▁نیکو	-9059
▁کهنه	-9060
▁بازده	-9061
▁شنوند	-9062
▁فسیلی	-9063
▁پرسند	-9064
▁پرولت	-9065
▁پیانو	-9066
▁گذارم	-9067
▁آشکارا	-9068
▁برترین	-9069
▁رسانند	-9070
▁سرچشمه	-9071
▁ماجرای	-9072
▁نظارتی	-9073
▁پیراهن	-9074
▁یوتیوب	-9075
▁آکادمیک	-9076
▁انجامید	-9077
▁تعاملات	-9078
▁مدیتیشن	-9079
▁معترضان	-9080
▁هیچکدام	-9081
▁انتشارات	-9082
▁بیاموزید	-9083
▁امپراطوری	-9084
پیش	-9085
▁--	-9086
▁99	-9087
▁CP	-9088
▁La	-9089
ward	-9090
روید	-9091
مانت	-9092
کتاب	-9093
▁بسي	-9094
▁سفت	-9095
▁فور	-9096
▁کنت	-9097
aster	-9098
▁Mark	-9099
▁آورم	-9100
▁آیتم	-9101
▁انبا	-9102
▁بارز	-9103
▁توست	-9104
▁علنی	-9105
▁منشأ	-9106
▁مهدی	-9107
▁ورشک	-9108
▁آلبرت	-9109
▁ارواح	-9110
▁اعلان	-9111
▁شوهرم	-9112
▁عبدال	-9113
▁مرزها	-9114
▁مرموز	-9115
▁معرفت	-9116
▁نشدند	-9117
▁یازده	-9118
▁عناوین	-9119
▁فهمیدن	-9120
▁نیاورد	-9121
▁کاندوم	-9122
▁اسکریپت	-9123
▁بازجویی	-9124
▁دریافته	-9125
▁مشاهدات	-9126
▁کارفرما	-9127
▁داوطلبان	-9128
▁دیوارهای	-9129
▁سوسیالیستی	-9130
OL	-9131
OM	-9132
bo	-9133
▁<	-9134
تره	-9135
خور	-9136
سیه	-9137
شتن	-9138
ندر	-9139
▁1)	-9140
▁Gu	-9141
▁ST	-9142
▁هز	-9143
▁۷۵	-9144
؟؟؟؟	-9145
ردهی	-9146
زیکی	-9147
پلود	-9148
▁Gal	-9149
▁Gen	-9150
▁Mon	-9151
▁com	-9152
▁الز	-9153
▁ذیل	-9154
▁طری	-9155
▁فلا	-9156
▁نمى	-9157
▁پاش	-9158
▁گله	-9159
خواست	-9160
کردنی	-9161
▁Cent	-9162
▁Next	-9163
▁تابش	-9164
▁خوار	-9165
▁درود	-9166
▁مسال	-9167
▁میرد	-9168
▁همهٔ	-9169
▁وجوه	-9170
▁چکار	-9171
▁کوکی	-9172
▁۱۹۶۰	-9173
▁انجیل	-9174
▁باریک	-9175
▁بازگو	-9176
▁درگاه	-9177
▁دورتر	-9178
▁زیارت	-9179
▁غمگین	-9180
▁مامان	-9181
▁مسافت	-9182
▁مسایل	-9183
▁مواضع	-9184
▁میمون	-9185
▁کنجکا	-9186
▁بروکسل	-9187
▁بوستون	-9188
▁عبارتی	-9189
▁مجرمان	-9190
▁همسران	-9191
▁گفتگوی	-9192
▁آلومینی	-9193
▁ارگانیک	-9194
▁پذیرفتن	-9195
▁موضوعاتی	-9196
sp	-9197
اء	-9198
تع	-9199
ذر	-9200
ِل	-9201
یع	-9202
۱۷	-9203
▁?	-9204
itt	-9205
oad	-9206
orn	-9207
ube	-9208
▁42	-9209
▁ید	-9210
▁تیل	-9211
▁دکو	-9212
▁کپس	-9213
▁گیل	-9214
ورهای	-9215
▁اوتی	-9216
▁حفره	-9217
▁دخیل	-9218
▁سهمی	-9219
▁سیری	-9220
▁شعبه	-9221
▁غیبت	-9222
▁مجری	-9223
▁ملیت	-9224
▁نیکی	-9225
▁کروز	-9226
بهترین	-9227
▁آبشار	-9228
▁ارباب	-9229
▁امداد	-9230
▁تراشه	-9231
▁ترسید	-9232
▁ترفند	-9233
▁رابین	-9234
▁طبقات	-9235
▁عمیقا	-9236
▁فهمند	-9237
▁موضعی	-9238
▁پرستش	-9239
▁بارانی	-9240
▁تناسلی	-9241
▁داوران	-9242
▁شکستگی	-9243
▁استعمار	-9244
▁اورژانس	-9245
▁راهبردی	-9246
▁درحالیکه	-9247
▁قدرتمندی	-9248
▁ابزارهایی	-9249
▁تصویربرداری	-9250
-4	-9251
2]	-9252
BS	-9253
EN	-9254
خد	-9255
ife	-9256
oot	-9257
وبه	-9258
افتد	-9259
خصیص	-9260
ربند	-9261
رسون	-9262
قیقی	-9263
ینگی	-9264
▁آکس	-9265
▁حجت	-9266
▁زام	-9267
▁فلش	-9268
▁مزد	-9269
▁هضم	-9270
▁وگر	-9271
▁کبک	-9272
▁آوار	-9273
▁اسیر	-9274
▁الیز	-9275
▁جاست	-9276
▁درهم	-9277
▁سانت	-9278
▁طلبی	-9279
▁عظمت	-9280
▁مواظ	-9281
▁پرتو	-9282
▁پستی	-9283
▁آپلود	-9284
▁ایراد	-9285
▁باراک	-9286
▁رقبای	-9287
▁مبادل	-9288
▁مثانه	-9289
▁مجلات	-9290
▁مشخصه	-9291
▁مشمول	-9292
▁معدود	-9293
▁نیستی	-9294
▁پاراگ	-9295
▁کاران	-9296
▁باروری	-9297
▁برگردد	-9298
▁جمعیتی	-9299
▁ساختند	-9300
▁مسالمت	-9301
▁بزرگسالی	-9302
▁پارلمانی	-9303
▁کمونیستی	-9304
▁سیاستمدار	-9305
:2	-9306
ft	-9307
قر	-9308
۱۶	-9309
air	-9310
apt	-9311
ero	-9312
فار	-9313
ماق	-9314
چون	-9315
▁DV	-9316
▁Em	-9317
▁LL	-9318
▁جت	-9319
▁	-9320
ا	-9321
ی	-9322
ر	-9323
د	-9324
ن	-9325
ه	-9326
م	-9327
و	-9328
ت	-9329
ب	-9330
ک	-9331
س	-9332
ش	-9333
ل	-9334
ز	-9335
.	-9336
ف	-9337
گ	-9338
خ	-9339
ع	-9340
ق	-9341
ج	-9342
ح	-9343
،	-9344
آ	-9345
پ	-9346
ط	-9347
ص	-9348
چ	-9349
غ	-9350
ض	-9351
e	-9352
ذ	-9353
ظ	-9354
a	-9355
ث	-9356
o	-9357
:	-9358
i	-9359
0	-9360
ئ	-9361
r	-9362
)	-9363
n	-9364
(	-9365
1	-9366
t	-9367
ژ	-9368
s	-9369
؟	-9370
»	-9371
2	-9372
l	-9373
۰	-9374
«	-9375
"	-9376
-	-9377
۱	-9378
ي	-9379
S	-9380
c	-9381
u	-9382
d	-9383
!	-9384
A	-9385
5	-9386
C	-9387
۲	-9388
9	-9389
h	-9390
3	-9391
m	-9392
P	-9393
ً	-9394
ك	-9395
4	-9396
M	-9397
p	-9398
g	-9399
؛	-9400
T	-9401
D	-9402
I	-9403
6	-9404
8	-9405
y	-9406
B	-9407
7	-9408
E	-9409
”	-9410
۵	-9411
R	-9412
۹	-9413
ِ	-9414
L	-9415
۳	-9416
]	-9417
[	-9418
أ	-9419
b	-9420
N	-9421
G	-9422
k	-9423
H	-9424
“	-9425
f	-9426
O	-9427
­	-9428
F	-9429
۴	-9430
–	-9431
,	-9432
v	-9433
۶	-9434
۸	-9435
w	-9436
/	-9437
W	-9438
ى	-9439
۷	-9440
ۀ	-9441
V	-9442
U	-9443
ـ	-9444
ّ	-9445
ء	-9446
x	-9447
ؤ	-9448
َ	-9449
K	-9450
*	-9451
J	-9452
ُ	-9453
ٔ	-9454
z	-9455
X	-9456
+	-9457
٪	-9458
%	-9459
•	-9460
Y	-9461
٫	-9462
'	-9463
Q	-9464
>	-9465
j	-9466
Z	-9467
’	-9468
|	-9469
١	-9470
ْ	-9471
ة	-9472
_	-9473
٬	-9474
٠	-9475
#	-9476
&	-9477
=	-9478
q	-9479
?	-9480
٢	-9481
—	-9482
;	-9483
٩	-9484
$	-9485
¬	-9486
·	-9487
‬	-9488
●	-9489
٨	-9490
\	-9491
٣	-9492
{	-9493
}	-9494
‘	-9495
<	-9496
٧	-9497
@	-9498
٥	-9499
٤	-9500
↑	-9501
é	-9502
→	-9503
إ	-9504
ٌ	-9505
▪	-9506
←	-9507
‫	-9508
‍	-9509
٦	-9510
€	-9511
×	-9512
ü	-9513
®	-9514
ە	-9515
⁯	-9516
°	-9517
️	-9518
ٍ	-9519
♪	-9520
ö	-9521
■	-9522
◄	-9523
ھ	-9524
′	-9525
›	-9526
ó	-9527
á	-9528
~	-9529
â	-9530
♫	-9531
😉	-9532
‪	-9533
£	-9534
ä	-9535
➖	-9536
ç	-9537
^	-9538
‹	-9539
♦	-9540
🔹	-9541
ı	-9542
😀	-9543
§	-9544
ٰ	-9545
−	-9546
✅	-9547
`	-9548
à	-9549
□	-9550
♥	-9551
ş	-9552
ˈ	-9553
⇐	-9554
	-9555
è	-9556
▫	-9557
©	-9558
🔸	-9559
ñ	-9560
α	-9561
	-9562
🙂	-9563
É	-9564
√	-9565
😍	-9566
	-9567
ā	-9568
	-9569
ã	-9570
́	-9571
р	-9572
±	-9573
å	-9574
í	-9575
и	-9576
⁄	-9577
★	-9578
Ç	-9579
ú	-9580
ٿ	-9581
❤	-9582
﴾	-9583
👌	-9584
œ	-9585
̊	-9586
̋	-9587
μ	-9588
а	-9589
е	-9590
н	-9591
о	-9592
ٴ	-9593
۔	-9594
⁭	-9595
☺	-9596
✓	-9597
✔	-9598
﴿	-9599
🌷	-9600
	-9601
Ø	-9602
ø	-9603
ğ	-9604
İ	-9605
̈	-9606
Δ	-9607
Ω	-9608
ε	-9609
ۆ	-9610
ა	-9611
„	-9612
⁪	-9613
◊	-9614
♬	-9615
♯	-9616
⚡	-9617
✤	-9618
✭	-9619
⦁	-9620
	-9621
	-9622
👈	-9623
🔴	-9624
	-9625
Ö	-9626
ë	-9627
β	-9628
ν	-9629
М	-9630
д	-9631
⁩	-9632
▐	-9633
▬	-9634
○	-9635
✕	-9636
	-9637
🌸	-9638
🔻	-9639
😂	-9640
😐	-9641
	-9642
	-9643
	-9644
¤	-9645
Â	-9646
ï	-9647
ò	-9648
ń	-9649
Ş	-9650
š	-9651
ɪ	-9652
̨	-9653
θ	-9654
κ	-9655
Т	-9656
к	-9657
с	-9658
ڪ	-9659
ვ	-9660
ლ	-9661
ო	-9662
⁣	-9663
⁧	-9664
⁮	-9665
⃣	-9666
≠	-9667
≡	-9668
≤	-9669
➕	-9670
	-9671
	-9672
👏	-9673
👻	-9674
🔥	-9675
🔺	-9676
😊	-9677
	-9678
	-9679
¡	-9680
¢	-9681
Ã	-9682
Ä	-9683
Ü	-9684
ß	-9685
ê	-9686
î	-9687
ð	-9688
ô	-9689
÷	-9690
ý	-9691
ē	-9692
ƒ	-9693
ɛ	-9694
ʊ	-9695
ː	-9696
̇	-9697
γ	-9698
λ	-9699
ο	-9700
ρ	-9701
ς	-9702
τ	-9703
Б	-9704
К	-9705
б	-9706
г	-9707
й	-9708
л	-9709
י	-9710
ڵ	-9711
ہ	-9712
ۂ	-9713
ܔ	-9714
ܜ	-9715
თ	-9716
ი	-9717
რ	-9718
ს	-9719
‚	-9720
‭	-9721
≥	-9722
▲	-9723
▶	-9724
◀	-9725
◦	-9726
☼	-9727
❇	-9728
メ	-9729
事	-9730
件	-9731
台	-9732
日	-9733
朝	-9734
本	-9735
灣	-9736
軍	-9737
	-9738
	-9739
	-9740
	-9741
	-9742
	-9743
	-9744
	-9745
🇪	-9746
🍃	-9747
📣	-9748
🔷	-9749
😅	-9750
😏	-9751
😛	-9752
😢	-9753
😥	-9754
😳	-9755
😵	-9756
🙁	-9757
	-9758
	-9759
	-9760
	-9761
	-9762
¥	-9763
Á	-9764
Å	-9765
Ô	-9766
æ	-9767
ì	-9768
þ	-9769
ć	-9770
ī	-9771
ł	-9772
ŋ	-9773
ū	-9774
ű	-9775
Ž	-9776
ǎ	-9777
ɔ	-9778
ə	-9779
ɜ	-9780
ɨ	-9781
ʀ	-9782
ʁ	-9783
ʺ	-9784
ˌ	-9785
ˏ	-9786
̃	-9787
̏	-9788
̵	-9789
Α	-9790
Ε	-9791
Μ	-9792
Φ	-9793
ζ	-9794
φ	-9795
ω	-9796
Г	-9797
З	-9798
И	-9799
О	-9800
П	-9801
С	-9802
м	-9803
т	-9804
у	-9805
ф	-9806
х	-9807
ы	-9808
ь	-9809
я	-9810
ё	-9811
ћ	-9812
ה	-9813
ח	-9814
כ	-9815
מ	-9816
פ	-9817
ש	-9818
ٓ	-9819
څ	-9820
ګ	-9821
ں	-9822
ۃ	-9823
ێ	-9824
ے	-9825
ก	-9826
ง	-9827
แ	-9828
გ	-9829
ე	-9830
მ	-9831
ნ	-9832
უ	-9833
ქ	-9834
Ḥ	-9835
ṇ	-9836
ṯ	-9837
ủ	-9838
ἐ	-9839
ἥ	-9840
Ἴ	-9841
ῖ	-9842
―	-9843
†	-9844
※	-9845
⁠	-9846
₩	-9847
₹	-9848
↓	-9849
⇆	-9850
⇔	-9851
∀	-9852
∆	-9853
∈	-9854
∗	-9855
∘	-9856
∴	-9857
≈	-9858
⊞	-9859
⋆	-9860
⌘	-9861
⏳	-9862
⏺	-9863
►	-9864
◇	-9865
◽	-9866
◾	-9867
☆	-9868
☚	-9869
♊	-9870
♒	-9871
♡	-9872
⚽	-9873
✋	-9874
✍	-9875
✳	-9876
✵	-9877
❌	-9878
❗	-9879
➌	-9880
➐	-9881
⟨	-9882
⟩	-9883
⬅	-9884
《	-9885
》	-9886
「	-9887
か	-9888
き	-9889
ど	-9890
ま	-9891
モ	-9892
ヤ	-9893
一	-9894
东	-9895
人	-9896
前	-9897
十	-9898
命	-9899
坛	-9900
外	-9901
天	-9902
子	-9903
孫	-9904
將	-9905
撫	-9906
斐	-9907
旗	-9908
月	-9909
樹	-9910
湾	-9911
爱	-9912
生	-9913
甲	-9914
碌	-9915
神	-9916
臺	-9917
英	-9918
蔼	-9919
语	-9920
谷	-9921
锦	-9922
门	-9923
革	-9924
도	-9925
라	-9926
아	-9927
장	-9928
티	-9929
	-9930
	-9931
	-9932
	-9933
	-9934
	-9935
	-9936
	-9937
	-9938
	-9939
	-9940
	-9941
	-9942
	-9943
	-9944
	-9945
🇩	-9946
🇬	-9947
🇷	-9948
🇺	-9949
🌀	-9950
🌐	-9951
🌬	-9952
🌲	-9953
🌺	-9954
🍁	-9955
🍳	-9956
🎁	-9957
🎄	-9958
🎥	-9959
🎬	-9960
🐶	-9961
👑	-9962
💎	-9963
💕	-9964
💜	-9965
💟	-9966
💫	-9967
💳	-9968
📈	-9969
📌	-9970
📍	-9971
📑	-9972
📝	-9973
📱	-9974
📽	-9975
🔎	-9976
🔔	-9977
🔵	-9978
🔶	-9979
🗽	-9980
😁	-9981
😌	-9982
😎	-9983
😒	-9984
😔	-9985
😕	-9986
😗	-9987
😙	-9988
😭	-9989
😶	-9990
🙏	-9991
🚀	-9992
🚫	-9993
🤔	-9994
🤗	-9995
🥇	-9996
