<unk>	0
<s>	0
</s>	0
.	-3.40849
▁و	-3.62284
▁در	-3.68751
▁به	-3.73778
▁می	-3.81327
▁که	-3.9235
▁از	-3.93618
▁را	-4.06714
،	-4.09214
ی	-4.14115
▁است	-4.24896
▁این	-4.32178
▁های	-4.60599
▁با	-4.79253
▁برای	-4.8246
▁یک	-4.84737
▁،	-4.89758
▁ها	-4.988
ه	-5.02341
▁	-5.0323
▁آن	-5.1224
▁شما	-5.37072
▁خود	-5.47706
▁کند	-5.56287
▁شود	-5.58705
▁یا	-5.62514
▁ما	-5.65909
▁شده	-5.67074
▁تا	-5.70263
▁ای	-5.74085
▁.	-5.74155
▁کنید	-5.78296
▁او	-5.7978
▁(	-5.80222
▁ی	-5.80399
▁من	-5.81794
▁بر	-5.84773
▁کنند	-5.89824
▁بود	-5.90447
▁سال	-5.90869
▁هم	-5.9552
▁هر	-5.98146
▁کار	-6.00358
▁اما	-6.02338
▁باشد	-6.04405
▁دارد	-6.09485
:	-6.11148
▁کرد	-6.11235
▁نمی	-6.11555
▁آنها	-6.11877
▁باید	-6.14191
▁شد	-6.15957
▁«	-6.19656
▁استفاده	-6.23115
؟	-6.24539
▁اگر	-6.26267
▁مورد	-6.35614
▁هستند	-6.36555
▁:	-6.38337
▁"	-6.40274
▁دهد	-6.42188
▁کرده	-6.43142
▁انجام	-6.4529
▁دو	-6.45881
▁اند	-6.47025
▁دیگر	-6.50388
▁تواند	-6.51303
▁همه	-6.51648
▁وجود	-6.51714
ان	-6.51871
▁حال	-6.52187
)	-6.52291
▁چه	-6.53171
▁)	-6.55369
▁نیز	-6.55597
▁قرار	-6.58287
▁عنوان	-6.59403
▁م	-6.59536
▁خواهد	-6.6079
▁تر	-6.64463
▁داشته	-6.65886
▁زندگی	-6.68991
▁دست	-6.72794
▁نیست	-6.73476
▁ممکن	-6.73912
▁»	-6.74601
▁روز	-6.74737
▁بین	-6.75085
▁شوند	-6.76069
▁روی	-6.77054
▁پس	-6.77061
▁...	-6.78994
▁طور	-6.79825
▁داده	-6.7985
▁بسیار	-6.80363
▁دارند	-6.81115
▁شرکت	-6.8237
▁نظر	-6.83316
▁کردن	-6.83812
▁-	-6.84027
م	-6.84295
▁زمان	-6.84944
▁بیشتر	-6.85837
▁کنیم	-6.90418
▁هیچ	-6.90555
▁هایی	-6.91701
▁برنامه	-6.92701
▁تنها	-6.93728
ت	-6.93988
▁پیش	-6.94632
▁جدید	-6.94856
ین	-6.94942
▁کمک	-6.95133
▁مردم	-6.98212
▁همچنین	-6.99129
ات	-7.0008
ش	-7.01415
▁نشان	-7.02326
▁یکی	-7.03309
▁چند	-7.03435
▁نه	-7.06355
▁چیزی	-7.06802
▁نیاز	-7.06961
▁بازی	-7.08037
▁توانید	-7.09649
▁کشور	-7.10065
▁توسط	-7.10707
▁راه	-7.11329
اً	-7.11514
د	-7.12254
▁صورت	-7.12664
▁تمام	-7.13241
▁ایجاد	-7.14006
▁داد	-7.14111
▁فقط	-7.16072
▁آیا	-7.1646
▁ترین	-7.16937
▁جهان	-7.17925
▁کنم	-7.18469
▁گفت	-7.19134
▁بعد	-7.2032
▁نام	-7.20325
▁بیش	-7.20765
ن	-7.21392
▁مانند	-7.21736
▁دهند	-7.2195
▁افراد	-7.22468
▁حتی	-7.23005
▁باشید	-7.23066
▁بی	-7.23246
▁اینکه	-7.2357
▁بسیاری	-7.24254
▁آمریکا	-7.25661
▁بزرگ	-7.26391
▁برخی	-7.27956
▁بار	-7.27958
▁زمانی	-7.31051
▁کردند	-7.31155
▁ش	-7.31155
▁ایران	-7.31178
▁باشند	-7.32835
▁تغییر	-7.3295
▁درصد	-7.34727
▁افزایش	-7.34849
▁دهید	-7.35089
▁تو	-7.36224
▁داشت	-7.37818
▁فکر	-7.37831
!	-7.38318
▁ماه	-7.39329
؛	-7.40138
▁اطلاعات	-7.403
▁توانند	-7.40335
▁توجه	-7.40497
▁مهم	-7.40674
▁آب	-7.41811
▁ارائه	-7.42321
▁تولید	-7.43086
▁چگونه	-7.43272
▁“	-7.43294
▁کسی	-7.43464
▁رو	-7.4361
▁سه	-7.43651
▁ت	-7.43761
▁غیر	-7.44455
▁همین	-7.44465
▁وقتی	-7.45031
▁بدون	-7.45234
▁خانه	-7.45696
▁شدن	-7.46312
▁همان	-7.4672
▁باز	-7.46733
▁چرا	-7.47026
▁بوده	-7.47708
▁بخش	-7.47753
.»	-7.48123
▁بودند	-7.4814
▁درباره	-7.48397
▁گرفته	-7.48758
▁زیادی	-7.48849
▁سیستم	-7.48924
▁–	-7.48938
▁انتخاب	-7.48942
▁پیدا	-7.49154
▁ب	-7.50142
های	-7.50641
▁خوب	-7.51064
▁سر	-7.5129
▁”	-7.51551
▁کاهش	-7.5176
▁شان	-7.52636
▁کتاب	-7.52739
▁سازمان	-7.52944
▁دولت	-7.53191
▁تان	-7.53216
▁شروع	-7.54345
▁مختلف	-7.54712
-	-7.55254
▁دوست	-7.55589
▁طول	-7.5569
▁سایت	-7.571
▁چیز	-7.57429
▁قبل	-7.5831
▁دلیل	-7.58639
▁فیلم	-7.5873
▁قابل	-7.58766
▁چنین	-7.59085
▁اولین	-7.59387
▁روش	-7.60701
▁کننده	-7.6112
▁نفر	-7.61531
▁کامل	-7.62452
▁دارید	-7.62613
▁زبان	-7.62873
▁بهترین	-7.6302
▁!	-7.63287
▁کسب	-7.63817
▁گروه	-7.63847
▁خدا	-7.63947
▁خواهید	-7.64318
▁انسان	-7.64335
▁همیشه	-7.6513
▁دیگری	-7.65221
▁ندارد	-7.65596
▁خواهند	-7.65935
▁ام	-7.66424
▁بنابراین	-7.66428
▁باعث	-7.66558
▁ولی	-7.66869
ر	-7.67009
▁گذشته	-7.68864
▁طریق	-7.6902
▁توسعه	-7.69133
▁مدت	-7.69705
▁طراحی	-7.69939
▁توان	-7.70148
ب	-7.7027
▁خیل	-7.70441
▁میان	-7.70681
▁؟	-7.71224
▁تلاش	-7.71264
▁احساس	-7.72004
▁دنبال	-7.72218
▁آنچه	-7.73376
▁جنگ	-7.73631
▁ِ	-7.74387
▁شهر	-7.74547
▁تعداد	-7.74585
▁بهتر	-7.74681
▁آینده	-7.74979
▁زنان	-7.75026
▁هدف	-7.75041
▁اول	-7.75596
▁هنوز	-7.75639
▁شامل	-7.75651
▁جهانی	-7.75655
▁نوع	-7.75977
▁اجتماعی	-7.76861
▁واقع	-7.77109
▁اصلی	-7.77228
▁درست	-7.77882
▁حدود	-7.78021
▁سرمایه	-7.78259
▁ادامه	-7.79525
▁کاری	-7.79803
▁تجربه	-7.7998
▁,	-7.80978
▁گفته	-7.81249
▁مصرف	-7.81267
▁دادن	-7.81479
▁دریافت	-7.81698
▁[	-7.82132
▁اندازه	-7.82294
▁حاضر	-7.82329
▁زیرا	-7.82427
▁خانواده	-7.82491
▁؛	-7.82617
▁رشد	-7.82728
▁دارای	-7.82807
▁ن	-7.82816
▁اش	-7.83505
▁بالا	-7.83897
▁دانش	-7.83951
▁دانشگاه	-7.84261
▁آموزش	-7.84267
▁یاد	-7.84292
▁ا	-7.8444
▁بررسی	-7.84495
▁فعالیت	-7.84726
ها	-7.84735
▁همراه	-7.84861
▁منطقه	-7.84928
ۀ	-7.84931
▁هزینه	-7.84969
ا	-7.85428
▁بدن	-7.85725
▁سطح	-7.8662
▁میلیون	-7.86734
▁درمان	-7.86742
▁زیر	-7.8703
▁المللی	-7.87112
▁هفته	-7.87119
▁وقت	-7.87248
▁کنترل	-7.87432
▁زمین	-7.8772
▁شرایط	-7.879
▁عمل	-7.88098
s	-7.88157
▁پاسخ	-7.88319
▁ساعت	-7.88335
▁تبدیل	-7.88908
▁امروز	-7.89107
▁خوبی	-7.89607
▁فرد	-7.90072
▁تحت	-7.90559
▁کم	-7.90854
▁قدرت	-7.90941
▁نتیجه	-7.91167
▁موضوع	-7.912
▁تصمیم	-7.91632
▁دوره	-7.91971
▁حالی	-7.92113
▁نسبت	-7.92382
▁پر	-7.93394
▁بلکه	-7.93472
▁برابر	-7.93475
▁چون	-7.93551
ند	-7.9376
▁صحبت	-7.94109
▁اجازه	-7.9418
▁گوید	-7.94322
▁بیماری	-7.94382
▁پایان	-7.94601
▁مواد	-7.94839
▁مثل	-7.95189
▁مدیریت	-7.95203
▁کوچک	-7.95271
▁شاید	-7.95398
»	-7.95635
▁گزارش	-7.95794
▁پول	-7.95891
▁جای	-7.96023
▁مثال	-7.9611
▁دلار	-7.964
▁­	-7.96736
ز	-7.97271
▁شدند	-7.97288
▁گذاری	-7.97342
▁اید	-7.97388
▁متحده	-7.979
الات	-7.98119
▁سازی	-7.98636
▁وارد	-7.99369
ک	-7.99865
▁آغاز	-8.00196
ل	-8.00555
▁هستید	-8.00905
▁مناسب	-8.00972
▁جمله	-8.01575
▁وب	-8.0178
▁کردم	-8.02217
▁حل	-8.02477
▁بازار	-8.03029
▁چین	-8.03339
▁اغلب	-8.03685
▁شکل	-8.03798
▁بیشتری	-8.03806
▁ارتباط	-8.03807
▁خدمات	-8.03912
▁دنیا	-8.03924
▁اروپا	-8.04162
▁واقعی	-8.04183
▁نگاه	-8.04211
▁حمایت	-8.04212
▁گرفت	-8.05049
▁خاطر	-8.05308
▁ارزش	-8.05696
▁موارد	-8.06292
▁مطالعه	-8.06297
▁یعنی	-8.06517
▁شوید	-8.07234
▁رسد	-8.07276
▁تیم	-8.07312
تر	-8.07779
▁کسانی	-8.07858
▁چشم	-8.08112
▁پروژه	-8.0823
▁دیگران	-8.08331
▁لازم	-8.08753
▁نزدیک	-8.08846
▁مشکل	-8.08956
▁گونه	-8.09196
▁انرژی	-8.09226
▁شبکه	-8.09344
▁داستان	-8.09373
▁زمینه	-8.09422
▁گیرد	-8.09629
▁/	-8.10574
س	-8.10593
▁دور	-8.10987
تان	-8.1106
▁البته	-8.1118
▁کودکان	-8.11474
▁هنگامی	-8.1149
▁کمتر	-8.11553
▁ان	-8.11616
▁سایر	-8.11937
▁کل	-8.12137
▁s	-8.12421
▁اکنون	-8.12427
▁اساس	-8.12529
▁زن	-8.12636
▁اینجا	-8.1268
▁داریم	-8.12904
▁تاریخ	-8.13183
]	-8.1333
▁مربوط	-8.13355
▁خرید	-8.13438
▁متفاوت	-8.1376
▁اقتصادی	-8.13991
▁اعلام	-8.14134
▁گیری	-8.14494
▁مشکلات	-8.14613
▁خاص	-8.1466
▁سپس	-8.14899
▁جا	-8.15169
▁قیمت	-8.15215
▁مالی	-8.16229
▁هزار	-8.16668
▁قانون	-8.16692
▁سیاسی	-8.16739
▁کافی	-8.1684
▁اتفاق	-8.16902
▁رنگ	-8.1691
▁نقش	-8.17298
▁كه	-8.18083
▁پی	-8.18109
▁جامعه	-8.1839
▁کمی	-8.1879
▁کشورهای	-8.18954
▁فروش	-8.19442
▁دارم	-8.19692
▁مشخص	-8.19901
▁ساخت	-8.20006
▁سفر	-8.20043
▁درک	-8.20489
▁هرگز	-8.20579
▁خارج	-8.20819
▁ه	-8.20822
▁ساخته	-8.20828
▁بعضی	-8.21216
▁طبیعی	-8.21308
▁کنار	-8.21874
▁ساده	-8.21983
▁امکان	-8.22379
▁موفقیت	-8.22719
▁ملی	-8.23448
▁رابطه	-8.23497
▁مرگ	-8.23584
▁صفحه	-8.23898
▁کودک	-8.2397
▁روسیه	-8.24124
▁عمومی	-8.24227
▁سیاست	-8.24501
▁آنجا	-8.2455
▁ویژه	-8.24726
▁حقوق	-8.24765
▁سوی	-8.24813
▁سرعت	-8.24844
▁هست	-8.24874
▁حداقل	-8.24894
▁2	-8.25368
▁خواب	-8.25446
▁شخصی	-8.25513
▁یافته	-8.25514
▁پرداخت	-8.25609
▁خون	-8.25913
▁دوم	-8.25949
▁ایده	-8.25962
▁خطر	-8.26
▁آماده	-8.26212
▁حفظ	-8.26388
▁سخت	-8.26575
▁جلو	-8.26653
▁بهبود	-8.26832
▁بودن	-8.26941
▁چهار	-8.27145
▁حرکت	-8.27663
▁حق	-8.27871
▁شب	-8.27922
▁بد	-8.28183
▁تحقیقات	-8.28413
▁S	-8.28553
▁خداوند	-8.28662
▁رئیس	-8.29676
▁تاثیر	-8.30011
▁مان	-8.3018
▁دستگاه	-8.30544
▁احتمال	-8.30588
▁قادر	-8.30664
ره	-8.30719
▁افرادی	-8.30721
▁طی	-8.30867
▁میزان	-8.31049
▁وضعیت	-8.31367
▁علاوه	-8.31611
▁خواهیم	-8.31786
▁انتظار	-8.31871
▁حرفه	-8.31876
▁سریع	-8.32199
▁دوباره	-8.32242
▁آنان	-8.32688
▁آسیب	-8.32923
▁غذایی	-8.33268
▁ایم	-8.33922
▁سراسر	-8.34089
▁رود	-8.3461
▁موجود	-8.35005
▁حد	-8.35034
▁هنگام	-8.35145
▁علیه	-8.35167
▁جایی	-8.35351
▁نتایج	-8.35494
▁C	-8.35551
▁آید	-8.35645
یت	-8.35981
▁پایین	-8.36155
▁روند	-8.36339
▁3	-8.36383
▁آورد	-8.36443
▁5	-8.36882
▁آمریکایی	-8.37198
▁دهه	-8.37282
▁داشتن	-8.37489
▁گاهی	-8.37536
▁سعی	-8.37569
▁بیان	-8.38388
▁دیده	-8.38402
▁هستیم	-8.38508
یم	-8.38685
▁تصویر	-8.38749
▁محصولات	-8.38809
▁خارجی	-8.38943
▁واقعا	-8.38982
▁زیاد	-8.39166
▁آمده	-8.39223
▁عکس	-8.39225
▁دسترسی	-8.39523
▁مرد	-8.39552
▁صرف	-8.39597
▁10	-8.39708
▁طولانی	-8.39865
▁کارهای	-8.4003
­	-8.40062
▁مشاهده	-8.40223
▁معمولا	-8.40271
▁تجاری	-8.40605
گیری	-8.40615
▁دهیم	-8.40777
▁امنیت	-8.40935
▁مشتریان	-8.40952
▁طرف	-8.41359
▁حضور	-8.41365
ى	-8.41391
▁منتشر	-8.41506
▁گیرند	-8.4164
▁مدل	-8.41765
▁بخشی	-8.41798
▁پنج	-8.41821
▁حقیقت	-8.41917
▁نشده	-8.42018
▁مهارت	-8.42408
▁مکان	-8.42432
▁آزاد	-8.42495
▁باور	-8.42896
▁خواهم	-8.42985
▁شناخته	-8.43036
▁کنندگان	-8.43086
جر	-8.43136
▁فشار	-8.43146
▁فرصت	-8.43532
▁آزمایش	-8.43639
▁محیط	-8.43646
▁معنی	-8.43872
▁نباید	-8.43971
▁اضافه	-8.44027
▁A	-8.44063
▁عالی	-8.44219
▁ال	-8.44671
▁درخواست	-8.4497
▁ایشان	-8.45007
▁نمایش	-8.4508
▁طرح	-8.45399
▁بندی	-8.45459
▁محصول	-8.45712
▁کلی	-8.45975
▁منابع	-8.45991
▁موفق	-8.46415
انه	-8.46815
▁بچه	-8.46892
▁غذا	-8.47171
▁همکاری	-8.47395
▁رسانه	-8.47419
▁حالا	-8.47555
▁سمت	-8.47565
▁توانایی	-8.47621
▁مرکز	-8.47698
▁حرف	-8.477
▁پوست	-8.48194
▁جمع	-8.4831
ع	-8.48412
▁نخست	-8.48555
▁رفتار	-8.48627
▁تمرکز	-8.48971
▁چیست	-8.48975
▁محل	-8.49145
▁بودم	-8.49481
▁ساله	-8.49568
▁4	-8.49706
▁ثبت	-8.49749
▁اعتماد	-8.50109
▁چیزهای	-8.50243
▁توانیم	-8.50263
▁رخ	-8.50666
▁نوشته	-8.50856
▁اشاره	-8.50896
▁گویند	-8.5097
▁اکثر	-8.51322
▁روابط	-8.51323
▁کدام	-8.51355
▁کس	-8.51627
▁اثر	-8.5188
▁گزین	-8.52001
▁اقتصاد	-8.52131
▁1	-8.52162
▁نیستند	-8.52208
▁توصیه	-8.52304
▁سن	-8.52375
▁مرحله	-8.52438
▁علاقه	-8.52558
▁حمله	-8.52797
▁هستم	-8.52877
▁یافت	-8.53022
▁عملکرد	-8.53046
▁جهت	-8.53299
▁تقریبا	-8.534
▁نور	-8.53723
▁فراهم	-8.53732
▁وزن	-8.539
شان	-8.53938
▁خودتان	-8.53968
▁مقدار	-8.53983
▁دقیقه	-8.53986
▁متوجه	-8.54172
▁تغییرات	-8.54673
▁نظامی	-8.54675
▁داشتند	-8.54693
▁اهمیت	-8.54738
▁بسته	-8.54942
▁بعدی	-8.55061
▁ف	-8.55203
▁صنعت	-8.55635
▁مجموعه	-8.55712
▁داخلی	-8.55795
▁پیشرفت	-8.55866
▁آمد	-8.55872
▁۲	-8.56008
▁بگیرید	-8.56076
▁کاربران	-8.56277
▁رسید	-8.56297
▁ماشین	-8.56311
▁آ	-8.56361
گی	-8.56418
▁سوم	-8.56484
▁اهداف	-8.56522
▁یابد	-8.56926
▁گرفتن	-8.56957
▁خودش	-8.57153
▁فرا	-8.57375
▁آسان	-8.57436
▁نخواه	-8.57532
▁کاملا	-8.57581
▁دقیق	-8.57659
▁آخرین	-8.57745
▁قسمت	-8.57773
▁منظور	-8.57779
▁برد	-8.58023
▁بینی	-8.58052
▁تشخیص	-8.58207
▁اتاق	-8.58231
▁حساب	-8.58286
▁گردد	-8.58292
▁آموزان	-8.58451
▁مسیر	-8.58762
▁باشیم	-8.58953
▁امر	-8.58998
▁ندارند	-8.59128
▁انگلیسی	-8.5921
▁دادند	-8.59782
▁باقی	-8.60201
▁نبود	-8.60208
▁واقعیت	-8.60221
▁فعال	-8.6031
▁کوتاه	-8.60425
▁نگه	-8.6057
▁تشکیل	-8.60698
▁اجرا	-8.60835
▁حالت	-8.60881
▁جریان	-8.61199
▁عشق	-8.61406
▁مشتری	-8.61519
▁مدرسه	-8.61693
▁مغز	-8.61794
▁پشت	-8.61811
▁جمهوری	-8.61852
▁رژیم	-8.61869
▁الله	-8.62064
▁آلمان	-8.62213
ید	-8.62266
▁B	-8.62373
▁نفت	-8.62624
▁صد	-8.62987
▁انواع	-8.63303
▁تعیین	-8.63303
▁گسترده	-8.63591
▁بیرون	-8.63679
▁مرتبط	-8.63787
ون	-8.63866
▁ابتدا	-8.63878
▁سوریه	-8.63931
▁داخل	-8.63948
▁مردان	-8.6403
ور	-8.64178
▁سلامت	-8.64195
▁آزادی	-8.6429
▁مطمئن	-8.64295
▁تفاوت	-8.6441
▁مشابه	-8.6441
▁ده	-8.6451
▁کیفیت	-8.64559
▁مسائل	-8.64691
▁اسرائیل	-8.64729
▁نامه	-8.64898
▁پیشنهاد	-8.65107
▁خط	-8.65108
▁مسئله	-8.65192
▁نرم	-8.65317
▁مناطق	-8.65389
▁شدید	-8.65565
▁جز	-8.65566
▁بحث	-8.65688
▁خصوص	-8.65831
▁اطمینان	-8.65952
▁موسیقی	-8.66091
ق	-8.66223
▁پدر	-8.66258
▁درآمد	-8.66303
▁لذت	-8.66521
▁اینترنت	-8.66659
▁گوش	-8.66793
▁سرطان	-8.67023
▁همچنان	-8.67094
ترین	-8.67114
▁D	-8.67173
▁آنلاین	-8.67233
▁کشف	-8.67305
▁نهایت	-8.67315
▁کردیم	-8.67398
▁یکدیگر	-8.67495
▁۳	-8.67517
▁نا	-8.67639
▁محدود	-8.67654
▁ازدواج	-8.67806
▁رفت	-8.6797
▁ند	-8.67979
▁نمونه	-8.68245
ٔ	-8.68529
به	-8.68533
▁ابزار	-8.68651
▁اولیه	-8.68824
▁۵	-8.68879
▁اعضای	-8.69108
▁آوری	-8.69116
▁نسخه	-8.69129
▁ارسال	-8.69256
▁مقاله	-8.69273
▁ویژگ	-8.69279
▁افغانستان	-8.69403
▁جوان	-8.69422
▁نکنید	-8.69479
▁درد	-8.69646
▁۱	-8.69704
▁فرانسه	-8.69787
▁انتقال	-8.69823
▁پزشکی	-8.69847
▁سوال	-8.69979
▁دوران	-8.69995
▁۱۰	-8.70023
▁تمامی	-8.70312
▁روشن	-8.7046
▁دید	-8.70569
▁سفید	-8.70803
▁هسته	-8.70947
▁تجارت	-8.70953
▁محلی	-8.70971
▁تهدید	-8.71007
▁زنده	-8.71508
▁بالای	-8.71618
▁جمهور	-8.71639
▁شکست	-8.71789
▁مادر	-8.7196
▁شخص	-8.7203
▁6	-8.72085
▁قرن	-8.72149
▁دهنده	-8.72175
▁پیام	-8.72325
▁اخیر	-8.72406
▁فوق	-8.7253
▁جان	-8.72545
▁فرهنگ	-8.72614
▁*	-8.72625
▁جدی	-8.72647
▁قوی	-8.72804
گاه	-8.73135
▁تصور	-8.73295
▁توضیح	-8.733
▁دار	-8.73375
▁سلول	-8.73509
▁بازاریابی	-8.73567
▁دوستان	-8.73632
▁گسترش	-8.73973
▁اشتباه	-8.74148
▁)،	-8.74182
▁پشتیبانی	-8.74251
ي	-8.74278
▁ترکیه	-8.74317
▁بانک	-8.74459
».	-8.74723
▁گذاشت	-8.74784
▁سالم	-8.75048
▁ترک	-8.7525
▁تماس	-8.75294
▁رفتن	-8.7538
▁بشر	-8.75459
▁کره	-8.75649
▁قوانین	-8.75672
▁اختیار	-8.76053
▁تازه	-8.76215
▁تنظیم	-8.76445
▁اوقات	-8.76603
▁نقطه	-8.76613
▁نیروهای	-8.76669
من	-8.76862
▁شخصیت	-8.76876
▁تحقیق	-8.774
▁ترامپ	-8.77555
▁میلیارد	-8.77611
▁خبر	-8.77673
▁جنسی	-8.77964
▁عبارت	-8.78113
▁بلند	-8.78226
▁تمرین	-8.78255
▁فصل	-8.78444
▁مستقیم	-8.78627
▁مبارزه	-8.78649
▁قصد	-8.78669
▁استراتژی	-8.78716
▁توافق	-8.78768
▁برند	-8.78831
▁مرا	-8.78872
▁احتمالا	-8.78879
▁خصوصی	-8.79215
▁هوا	-8.79274
▁تکنولوژی	-8.79295
▁اقدام	-8.793
▁تأثیر	-8.79727
▁صلح	-8.80047
▁تن	-8.80282
▁خوش	-8.80333
▁یادگیری	-8.80425
▁آتش	-8.80432
▁شبیه	-8.80487
▁ریزی	-8.80489
▁نیروی	-8.80635
▁کن	-8.80674
▁مقابل	-8.80727
▁دنیای	-8.80735
▁قدیمی	-8.81174
▁عضو	-8.81221
▁قلب	-8.81226
چقدر	-8.81364
▁معرفی	-8.81483
▁گوگل	-8.81516
▁اعمال	-8.81527
▁موقعیت	-8.81533
▁سی	-8.81676
▁چطور	-8.81763
▁ساختمان	-8.81815
▁فضای	-8.81986
▁عراق	-8.82189
▁مفید	-8.8226
و	-8.82312
▁تحلیل	-8.82335
▁آدم	-8.82613
▁مجبور	-8.82641
▁حزب	-8.82771
ِ	-8.82817
▁نشانه	-8.82979
▁شدت	-8.83434
▁۴	-8.83466
▁بزرگترین	-8.83909
▁رسیدن	-8.84209
▁ذهن	-8.8443
▁حاصل	-8.84531
▁لباس	-8.84533
▁مقایسه	-8.84535
▁7	-8.84795
▁نکته	-8.84882
▁آقای	-8.85351
▁دچار	-8.85472
▁کانادا	-8.85533
▁درون	-8.85587
▁تلفن	-8.85632
▁خودم	-8.85694
▁همانطور	-8.85825
عدم	-8.85997
▁گرم	-8.86483
▁ي	-8.86724
▁اتحادیه	-8.86772
▁مدیر	-8.86991
▁ضد	-8.87073
▁گل	-8.87094
▁ورزش	-8.87118
▁مثبت	-8.87298
▁20	-8.87368
▁دوربین	-8.87472
▁ست	-8.87488
▁علمی	-8.87597
▁مشترک	-8.87676
▁هنر	-8.87755
▁طبق	-8.87998
▁پا	-8.88081
▁برقرار	-8.88184
▁دسترس	-8.882
▁ى	-8.88534
▁راحتی	-8.88543
▁بازگشت	-8.88633
▁انسانی	-8.88639
▁ظاهر	-8.88671
که	-8.88706
▁عامل	-8.88927
▁نداشته	-8.89002
▁جایگزین	-8.89056
▁رسمی	-8.8907
▁بتوان	-8.89166
▁مراقبت	-8.8963
▁اشتراک	-8.8986
▁کجا	-8.89867
▁زده	-8.90007
▁رسیده	-8.90059
▁فراموش	-8.90185
▁توانم	-8.90206
▁دانند	-8.90333
▁جستجو	-8.90358
▁فردی	-8.90374
▁سیاه	-8.90476
▁عملیات	-8.90553
▁پذیر	-8.90725
▁نحو	-8.90852
▁P	-8.9087
▁محققان	-8.90894
▁داری	-8.91046
▁قرآن	-8.91149
▁سبک	-8.91217
▁امنیتی	-8.91263
له	-8.91536
▁روزانه	-8.9168
▁زیست	-8.91757
▁ارزیابی	-8.91764
▁نقل	-8.91859
▁جالب	-8.91946
▁هند	-8.91991
▁کلاس	-8.92099
▁خوردن	-8.92192
▁جمعیت	-8.92218
▁منبع	-8.92221
▁العاده	-8.92313
▁دانشجویان	-8.92339
▁معنای	-8.92346
▁حکومت	-8.92497
▁شناسایی	-8.92498
2	-8.92514
▁پزشک	-8.92531
▁علائم	-8.92682
▁مطالعات	-8.92686
▁تعریف	-8.92774
▁حس	-8.92801
▁ات	-8.9303
▁وزیر	-8.93052
▁8	-8.93335
▁رفته	-8.93337
▁شش	-8.93349
e	-8.93664
▁دیجیتال	-8.93701
▁ماند	-8.93937
▁صدای	-8.94032
▁لیست	-8.94183
▁درجه	-8.94319
▁خودشان	-8.94356
▁حمل	-8.94362
▁علت	-8.94471
▁مبتلا	-8.94638
."	-8.94676
▁لحظه	-8.94832
▁دختر	-8.95047
▁پایه	-8.95071
▁دهم	-8.9512
▁هدایت	-8.95299
▁افزار	-8.95519
▁موثر	-8.9562
▁اسلامی	-8.95641
▁انقلاب	-8.95642
▁اقدامات	-8.95881
▁پسر	-8.95954
▁دل	-8.96079
▁اطراف	-8.96103
▁جدا	-8.96297
▁واکنش	-8.96312
▁پلیس	-8.96359
▁بالاتر	-8.96425
▁F	-8.96455
▁قانونی	-8.96571
▁مطرح	-8.96731
▁تحصیل	-8.96894
▁افتد	-8.96939
▁زود	-8.96997
▁حذف	-8.97019
”	-8.97051
▁دی	-8.9713
▁E	-8.97157
▁ثابت	-8.97213
▁پست	-8.97337
▁موجب	-8.97424
▁ورود	-8.9759
▁انتخابات	-8.97591
▁حوز	-8.97626
▁برگزار	-8.97691
▁اگرچه	-8.97913
▁کلمه	-8.97933
▁سازد	-8.98052
▁نکرده	-8.98134
▁ترس	-8.9816
▁دفاع	-8.98177
▁R	-8.98216
"	-8.98217
▁ضروری	-8.98401
▁اصل	-8.98469
▁چالش	-8.98488
▁خواست	-8.98495
▁محافظت	-8.98587
▁خاصی	-8.98666
▁جذب	-8.98769
▁M	-8.98797
ال	-8.9882
▁آرام	-8.98868
▁شمالی	-8.98961
▁نگران	-8.98984
▁هوشمند	-8.99167
▁امور	-8.99348
▁بیمار	-8.9942
▁]	-8.99497
▁انگیز	-8.99539
▁دانلود	-8.99954
▁فرهنگی	-9.00031
▁ببینید	-9.00457
▁متوسط	-9.00489
ست	-9.00573
▁استاندارد	-9.0064
▁امام	-9.00693
▁دکتر	-9.0074
ده	-9.00895
▁معتقد	-9.00945
▁ماده	-9.00956
▁عوامل	-9.01053
▁•	-9.01058
▁دولتی	-9.01226
▁تست	-9.01246
▁ترکیب	-9.01621
▁ارتش	-9.01667
▁خواندن	-9.01752
▁نجات	-9.01862
▁رد	-9.01924
▁امروزه	-9.02058
▁بیماران	-9.02109
▁محتوای	-9.02154
▁نو	-9.02162
▁تصاویر	-9.02164
▁ستاره	-9.0228
▁عمیق	-9.02337
▁اجرای	-9.02528
▁تک	-9.02624
▁T	-9.02778
▁).	-9.02801
▁فایل	-9.02803
▁شغل	-9.02944
▁مدرن	-9.0295
▁پرواز	-9.03105
▁دشوار	-9.03119
▁خلق	-9.03286
▁کارت	-9.0336
▁ترتیب	-9.03387
▁بگیرد	-9.03497
▁بدانید	-9.03611
▁دیدگاه	-9.03615
▁دیدن	-9.03697
▁پیچیده	-9.04015
▁15	-9.04053
▁امریکا	-9.04189
▁اساسی	-9.04199
▁فاصله	-9.04331
▁قطع	-9.0453
ار	-9.04626
▁رقابت	-9.04829
▁موسس	-9.04851
▁فناوری	-9.05044
▁مسئولیت	-9.0506
▁ک	-9.0519
▁بحران	-9.05256
▁شیوه	-9.0526
▁بزرگی	-9.05292
▁علی	-9.05468
ما	-9.05567
▁of	-9.05584
▁نمود	-9.05647
▁بازدید	-9.05694
▁آخر	-9.05702
▁12	-9.05772
▁معمول	-9.06136
▁دانم	-9.06255
▁د	-9.06268
▁سود	-9.06367
▁سنگ	-9.06532
▁خشونت	-9.06729
▁کشته	-9.07099
▁کلیدی	-9.07401
▁معمولاً	-9.07467
,	-9.07587
▁30	-9.07631
▁کامپیوتر	-9.07702
▁رهبری	-9.07754
▁دلایل	-9.07808
▁آموزشی	-9.07928
▁۱۹	-9.08129
توقف	-9.08202
▁علم	-9.08671
▁قدر	-9.08728
▁مقامات	-9.09055
▁توانست	-9.09219
▁جواب	-9.09426
▁استرس	-9.09486
▁تهی	-9.0961
▁مانده	-9.09623
▁نگرانی	-9.09635
▁دانشمندان	-9.09672
▁ایمیل	-9.09762
▁دانید	-9.0993
▁جنوبی	-9.09993
▁سرویس	-9.10079
▁وسیله	-9.10105
▁گفتند	-9.10152
▁ملل	-9.10189
▁آورده	-9.10246
ذخیره	-9.10297
▁G	-9.10601
▁عمر	-9.10668
▁صبح	-9.11159
▁مگر	-9.11169
▁نفس	-9.11417
▁مند	-9.11464
▁اس	-9.11543
▁ناشی	-9.11687
▁۶	-9.11771
▁وزارت	-9.1185
عرض	-9.11902
▁نسل	-9.11971
▁داند	-9.12012
▁منفی	-9.12327
▁قبلی	-9.12415
▁اين	-9.12448
▁تکرار	-9.12533
▁کشورها	-9.12598
y	-9.12723
▁درمانی	-9.12906
▁کنی	-9.1293
▁هفت	-9.13043
▁شماره	-9.13279
▁عرضه	-9.13354
▁سلاح	-9.13428
▁کلمات	-9.13661
▁نماید	-9.13676
▁شدم	-9.13803
▁کشتی	-9.13897
D	-9.13939
▁احساسات	-9.14031
▁زدن	-9.14204
er	-9.14367
▁نرخ	-9.14455
▁خدمت	-9.14488
▁نیازهای	-9.14607
▁هوایی	-9.14654
تقویت	-9.14658
▁اندازی	-9.14842
▁پوشش	-9.14928
▁باشم	-9.14953
▁مو	-9.14966
▁The	-9.15029
▁اسلام	-9.15059
▁ساختار	-9.15076
▁شویم	-9.15283
▁خواند	-9.15418
▁قابلیت	-9.15496
▁زیبا	-9.15603
▁مشارکت	-9.15666
▁فرزند	-9.15692
▁آوردن	-9.15811
▁گاز	-9.15986
▁9	-9.16036
▁رشته	-9.16212
▁تمایل	-9.1622
▁ارشد	-9.16308
▁نهایی	-9.16355
▁دانیم	-9.1637
▁ر	-9.16391
▁کارکنان	-9.16425
▁۲۰	-9.16574
▁تری	-9.1658
▁سخن	-9.1663
▁هتل	-9.1678
▁ذکر	-9.1681
▁مواجه	-9.173
▁مت	-9.17305
▁همواره	-9.17324
▁حیوانات	-9.17393
▁خانم	-9.17443
▁خواسته	-9.17447
▁H	-9.17451
▁آگاه	-9.17493
1	-9.17833
▁بدتر	-9.17938
▁».	-9.17992
▁مستقل	-9.18077
▁L	-9.18099
▁نوشتن	-9.1816
▁بله	-9.18163
▁نصب	-9.18197
▁انداز	-9.18249
▁قبول	-9.18418
ایل	-9.18511
▁ـ	-9.18899
▁برسد	-9.19035
t	-9.19039
▁50	-9.19156
▁عهد	-9.19174
▁شگفت	-9.1927
٪	-9.19793
▁بگیرند	-9.19881
▁روزنامه	-9.20089
▁تاریخی	-9.20194
▁تقسیم	-9.20241
▁عوض	-9.20242
ـ	-9.2034
▁سالگی	-9.20394
▁ژاپن	-9.205
▁محدودیت	-9.20557
▁آمیز	-9.20666
▁احترام	-9.20734
▁پاک	-9.20745
▁اداره	-9.20756
▁فیزیکی	-9.20781
▁کاربر	-9.20817
▁مهمی	-9.2116
▁والدین	-9.21192
اده	-9.21304
▁تلویزیون	-9.2137
▁واحد	-9.21677
▁عاشق	-9.21912
▁دندان	-9.22047
▁خودمان	-9.22061
▁وعده	-9.22195
▁صاحب	-9.22239
▁نویسنده	-9.22277
▁زندان	-9.22365
▁گاه	-9.2238
▁گام	-9.22621
▁راست	-9.22755
▁مرکزی	-9.22902
▁18	-9.22913
▁رهبران	-9.23076
▁مشغول	-9.23078
▁خیر	-9.2314
▁امید	-9.23186
▁گران	-9.23495
▁رایگان	-9.23606
خیلی	-9.23641
▁غربی	-9.23756
▁دفتر	-9.23963
▁تایید	-9.23972
▁الان	-9.24043
▁زیبایی	-9.24092
▁غرب	-9.24277
▁خورشید	-9.24414
▁علوم	-9.24465
▁ایمان	-9.24474
▁کد	-9.24566
▁سگ	-9.2457
▁نظام	-9.2457
▁لحاظ	-9.2459
اف	-9.24704
▁منتظر	-9.24714
▁نامید	-9.24941
▁داشتم	-9.25023
▁چینی	-9.25171
▁کی	-9.25254
گان	-9.25295
▁شمار	-9.25359
▁اروپایی	-9.25386
▁قدم	-9.25493
▁چنان	-9.25504
▁مطلب	-9.25611
▁دقت	-9.25614
▁استرالیا	-9.25847
▁ساز	-9.26065
▁گوشی	-9.26129
▁دسته	-9.26209
▁نباشد	-9.26261
▁راحت	-9.26366
▁تولد	-9.26384
▁سلامتی	-9.26464
▁خریدار	-9.26467
▁صدا	-9.26641
▁تحریم	-9.26664
▁بن	-9.26879
a	-9.26967
▁تضمین	-9.27032
C	-9.27171
▁آگاهی	-9.27275
▁جراحی	-9.2744
▁متحد	-9.27443
▁دارو	-9.27615
▁صورتی	-9.27737
▁هشدار	-9.27852
▁دادگاه	-9.27953
▁نظارت	-9.28093
▁طبقه	-9.28137
▁فعلی	-9.28263
▁تبلیغات	-9.28397
▁دین	-9.2843
▁منافع	-9.28475
▁حفاظت	-9.28624
/	-9.28646
▁بریتانیا	-9.28714
▁عربستان	-9.2874
▁فرم	-9.28772
▁برخورد	-9.28844
▁اقامت	-9.2886
▁استاد	-9.28901
▁مهاجرت	-9.28909
▁قهوه	-9.29003
▁بودجه	-9.29092
▁جو	-9.2922
▁پارک	-9.29301
▁یه	-9.29351
▁ضرب	-9.2955
▁سبز	-9.29568
▁رنج	-9.29688
▁موتور	-9.29709
▁تکنیک	-9.29803
▁N	-9.29902
▁چگونگ	-9.29937
▁بقی	-9.30037
▁تقریب	-9.30141
▁برق	-9.30234
▁منحصر	-9.30397
▁گذارد	-9.30608
▁نابود	-9.30744
▁هشت	-9.30819
▁۸	-9.30824
▁شمال	-9.30867
▁آیند	-9.30873
مان	-9.30914
▁جنب	-9.31072
▁عادی	-9.31401
▁شیمیایی	-9.31559
▁مصاحبه	-9.31569
▁پرسش	-9.31578
▁عجیب	-9.31694
▁شاهد	-9.31707
▁فرآیند	-9.31756
▁گر	-9.31789
▁بگذارید	-9.31833
▁روح	-9.31976
▁قدرتمند	-9.3218
▁توصیف	-9.3224
▁صنعتی	-9.32326
▁عقب	-9.3252
▁100	-9.32528
3	-9.32597
▁باره	-9.32706
▁متن	-9.3276
▁منتقل	-9.3279
▁جلسه	-9.328
▁درس	-9.32816
▁بدهید	-9.32977
▁بیمارستان	-9.33018
▁محبوب	-9.33049
▁کارگران	-9.33181
▁اعتقاد	-9.33203
▁روغن	-9.33204
▁گفتم	-9.33542
▁مزایای	-9.33617
▁مي	-9.33792
▁س	-9.34001
▁مفهوم	-9.34041
▁بنا	-9.34087
▁فروشگاه	-9.34089
▁جنوب	-9.34146
▁دستور	-9.34256
▁حملات	-9.34314
ء	-9.34356
A	-9.34514
یا	-9.34686
▁عفونت	-9.3474
▁صحنه	-9.34754
▁رتبه	-9.34881
▁فرض	-9.34893
▁کارشناس	-9.35169
▁ترجمه	-9.35194
▁مقام	-9.35235
▁جایزه	-9.35341
▁نگهداری	-9.35481
▁تامین	-9.35569
▁امضا	-9.35587
▁هیجان	-9.3559
▁دعوت	-9.36012
▁خطرناک	-9.36013
▁ایمنی	-9.36023
▁امن	-9.36063
▁هزاران	-9.36069
▁وبلاگ	-9.36266
▁نقاط	-9.36297
▁بتوانند	-9.36373
▁دروغ	-9.36483
▁ملت	-9.36627
▁اصول	-9.36697
▁ویتامین	-9.36726
▁اهل	-9.36739
▁پیشرفته	-9.36763
▁آشکار	-9.37124
▁انتشار	-9.3721
▁فضا	-9.37285
▁متصل	-9.37445
▁کانال	-9.37451
▁جزیره	-9.37464
▁۳۰	-9.37485
▁ملاقات	-9.3759
▁عبور	-9.37744
▁شیر	-9.37898
▁بردن	-9.37902
G	-9.38115
ف	-9.38322
▁پژوهش	-9.38393
▁مدیران	-9.38415
▁آزمون	-9.38608
▁آسمان	-9.38628
▁ارتباطات	-9.38666
▁فوتبال	-9.389
▁سو	-9.38966
▁ویروس	-9.39051
▁جزئیات	-9.39078
▁چرخ	-9.39241
▁میشود	-9.39254
▁دریایی	-9.39373
▁افتاد	-9.39478
▁معروف	-9.39488
▁کارها	-9.39515
▁آل	-9.39589
▁طبیعت	-9.39602
▁برداشت	-9.39732
▁دشمن	-9.39784
▁رها	-9.3994
▁سرزمین	-9.39945
▁I	-9.39959
▁چاپ	-9.39984
▁رهبر	-9.39992
▁برنده	-9.40045
▁فرار	-9.40092
▁فن	-9.40114
اجتناب	-9.40227
▁زد	-9.4029
▁مایل	-9.40361
▁مرز	-9.40435
▁محتوا	-9.40442
▁بطور	-9.40525
▁تفکر	-9.40535
▁a	-9.40603
▁نداشت	-9.40659
▁تجهیزات	-9.40685
▁تشویق	-9.40827
▁خاک	-9.40828
▁بودیم	-9.40869
▁بدان	-9.40874
▁یافتن	-9.4092
▁لی	-9.41005
▁مسال	-9.41088
▁اصلاح	-9.41417
▁انجمن	-9.41426
(	-9.41447
▁شک	-9.41505
▁بروز	-9.41523
▁بروید	-9.41582
▁نیازمند	-9.41627
▁اسم	-9.41636
▁نظریه	-9.41704
▁مقاومت	-9.41829
▁پیروزی	-9.41955
▁دهندگان	-9.41963
▁۱۵	-9.42009
▁روزی	-9.4205
▁هاست	-9.42167
▁تاکنون	-9.42177
▁عادت	-9.42182
▁مخالف	-9.42379
▁شهروندان	-9.42387
▁وظیفه	-9.42498
▁ایالت	-9.42511
▁اتفاقی	-9.42515
▁چپ	-9.42652
▁لو	-9.427
▁میلادی	-9.42818
▁ثانیه	-9.42821
▁پخ	-9.42833
▁مد	-9.42938
▁ریسک	-9.42942
▁پدید	-9.42988
▁ادعا	-9.43103
▁گری	-9.43118
▁نیویورک	-9.43242
▁راهی	-9.43263
▁گروهی	-9.4332
▁جنبش	-9.43354
▁الهی	-9.43406
▁کلید	-9.43439
▁نیمه	-9.43838
▁سعودی	-9.43933
▁نوعی	-9.43949
▁انگیزه	-9.43951
▁امتحان	-9.44073
▁اعتبار	-9.44138
▁آشنا	-9.44143
▁ناراحت	-9.44187
▁پای	-9.44266
▁حضرت	-9.44327
▁متمرکز	-9.44498
▁ایرانی	-9.4452
▁جایگاه	-9.44546
▁قبلا	-9.44722
▁افتاده	-9.4474
▁همانند	-9.44743
▁قرمز	-9.44764
▁رویکرد	-9.44784
▁مسئول	-9.4487
▁.»	-9.44921
▁واضح	-9.4494
▁شناسی	-9.4501
▁لینک	-9.45052
▁امسال	-9.45097
▁اضافی	-9.45251
▁بتوانید	-9.45296
ای	-9.4532
▁ماهی	-9.4536
▁تغذیه	-9.45417
▁کردید	-9.45474
▁16	-9.45489
▁گذشت	-9.45489
▁بیت	-9.45649
▁مداوم	-9.45721
▁مقابله	-9.45721
▁بگویید	-9.45727
▁برچسب	-9.45881
▁ترجیح	-9.45907
▁همسر	-9.46023
▁درگیر	-9.46042
▁K	-9.46059
▁کشد	-9.46219
یر	-9.46267
▁دیدار	-9.46273
▁سرد	-9.46318
▁خودرو	-9.46338
▁سپتامبر	-9.4635
S	-9.46397
▁آور	-9.46475
▁تاکید	-9.46509
▁بزرگتر	-9.46526
▁قرارداد	-9.46586
▁شماست	-9.46599
اب	-9.46672
▁بیشترین	-9.46712
▁فنی	-9.46792
▁چربی	-9.46884
▁سری	-9.46905
▁سختی	-9.46968
▁چهره	-9.4698
▁توزیع	-9.46984
▁رساند	-9.47015
نامه	-9.4714
▁ضعیف	-9.47239
▁تنهایی	-9.47297
▁X	-9.47298
▁گفتن	-9.47355
▁۷	-9.47407
▁افسردگی	-9.47462
▁بدهد	-9.47501
▁صحیح	-9.47555
▁آی	-9.47669
▁ویزا	-9.47796
گ	-9.47836
▁بهداشت	-9.47853
▁شهری	-9.4786
▁11	-9.47941
▁مالیات	-9.47991
▁عین	-9.48097
▁برخوردار	-9.48099
▁حداکثر	-9.48102
▁پروتئین	-9.48112
▁عملی	-9.48211
▁پذیرش	-9.4826
▁آورند	-9.48499
▁19	-9.48528
▁سابق	-9.48704
▁معمولی	-9.48726
▁پ	-9.48765
▁غذاهای	-9.48777
▁دانست	-9.48778
▁خیابان	-9.48793
▁شغلی	-9.488
▁دقیقا	-9.488
▁اظهار	-9.48809
گونه	-9.48885
▁فرزندان	-9.48896
▁بخوانید	-9.4891
▁سیاره	-9.48951
▁پنهان	-9.48955
r	-9.48968
▁میکند	-9.49017
▁مراحل	-9.49072
▁۹	-9.49116
▁اختصاص	-9.49123
▁اطلاع	-9.49195
▁آثار	-9.49233
▁فرایند	-9.49351
▁چی	-9.49417
▁متر	-9.49429
▁مجدد	-9.49534
▁کنفرانس	-9.49559
▁متخصص	-9.49644
ول	-9.49727
▁قلبی	-9.49729
▁زند	-9.49777
▁تخم	-9.49803
▁انگلستان	-9.49887
▁سنگین	-9.4991
▁بگویم	-9.5006
▁بدین	-9.50102
▁پاکستان	-9.50117
▁25	-9.50153
▁نماز	-9.50221
▁گرفتند	-9.50402
▁اختلال	-9.50452
▁افکار	-9.50547
▁برده	-9.5058
▁حافظه	-9.50633
▁استخدام	-9.50871
▁مطابق	-9.50887
▁جستجوی	-9.50938
▁ایتالیا	-9.51017
ارغ	-9.51082
▁همزمان	-9.51375
▁اصلا	-9.51417
%	-9.51463
▁۱۲	-9.51493
▁قتل	-9.51701
▁پذیری	-9.51727
▁موزه	-9.51788
▁بیمه	-9.51799
▁ارزان	-9.5181
▁افزود	-9.51817
▁شورای	-9.51825
▁بهتری	-9.51826
▁پرورش	-9.51868
▁بارداری	-9.51882
▁میوه	-9.51892
حاوی	-9.52018
▁بستگ	-9.52086
n	-9.52141
▁محسو	-9.52175
▁ح	-9.52236
▁داروهای	-9.5239
▁جاده	-9.5243
چه	-9.52455
▁تهران	-9.52706
▁اندک	-9.52792
▁هایشان	-9.52851
▁تجزی	-9.52873
▁ممنوع	-9.53056
▁مصر	-9.53124
▁روزهای	-9.5321
▁مذاکره	-9.5321
▁نیم	-9.53327
▁نمایند	-9.53385
ك	-9.53649
.”	-9.53732
▁موقع	-9.53778
▁40	-9.53802
5	-9.53862
▁هرچند	-9.54076
▁مراجع	-9.54145
▁فرمود	-9.5437
▁سوء	-9.54411
▁خوشحال	-9.54416
▁سنت	-9.5444
▁نقشه	-9.54586
▁نفوذ	-9.54909
▁محکوم	-9.54915
▁معامله	-9.54915
▁هواپیما	-9.54967
▁گو	-9.55143
▁شوم	-9.55157
...	-9.55181
▁فهرست	-9.55432
▁صبر	-9.55434
▁گردید	-9.55532
▁متعدد	-9.55609
B	-9.55613
▁خلاصه	-9.55805
▁شانس	-9.55823
▁13	-9.55827
▁بوک	-9.55906
▁۱۸	-9.55939
▁لندن	-9.55965
▁بازداشت	-9.56132
▁نمایید	-9.56145
▁موضوعات	-9.56252
▁مبتنی	-9.563
▁بخواهید	-9.56307
▁کلیک	-9.56429
▁خورد	-9.56476
▁تعامل	-9.5649
▁اپل	-9.56495
▁سوخت	-9.56518
▁جشن	-9.56651
▁پذیرفت	-9.56682
▁عیس	-9.56684
▁میدان	-9.56697
▁وسیع	-9.56793
▁[...]	-9.56825
▁رانندگی	-9.56826
▁تکمیل	-9.56831
▁موشک	-9.56867
▁ل	-9.56997
▁عدالت	-9.57
▁تمیز	-9.57006
▁14	-9.57024
▁ریشه	-9.57091
▁واشنگتن	-9.57177
▁اثرات	-9.57261
▁چهارم	-9.57292
▁گناه	-9.57557
▁جذاب	-9.57698
▁ببرید	-9.57709
▁برادر	-9.57832
i	-9.58005
لقو	-9.58039
▁براساس	-9.5806
▁سقوط	-9.5806
▁V	-9.58077
▁خویش	-9.58111
▁اصطلاح	-9.5812
▁درخت	-9.58188
▁روان	-9.58199
▁سخنرانی	-9.58208
▁پل	-9.58219
▁ندارید	-9.58249
▁پایگاه	-9.58256
▁مارس	-9.58389
▁مذاکرات	-9.58415
▁کمبود	-9.58415
▁60	-9.58433
▁دهان	-9.58492
▁تحمل	-9.58564
▁ساختن	-9.58628
▁بازیکنان	-9.58726
▁هویت	-9.58786
▁پایدار	-9.58814
▁مشاور	-9.58833
ج	-9.58834
▁مشهور	-9.58951
▁گوشت	-9.59043
▁۵۰	-9.59091
▁بهداشتی	-9.59097
▁پزشکان	-9.59236
▁برداری	-9.59246
▁e	-9.59274
▁تابستان	-9.59357
▁پیامبر	-9.59361
▁باغ	-9.59425
▁همچون	-9.59504
▁فضایی	-9.59508
▁آهن	-9.59529
▁برتر	-9.59577
▁شواهد	-9.5967
▁خانگی	-9.59676
▁مطالب	-9.59762
▁24	-9.59859
▁نیمی	-9.59904
▁زودی	-9.59938
▁آهنگ	-9.6015
▁مجوز	-9.60318
▁کشاورزی	-9.60319
▁رستوران	-9.60394
▁وابسته	-9.60394
▁بازسازی	-9.60448
▁جرم	-9.60458
▁سالانه	-9.6055
▁کوه	-9.60606
M	-9.60652
▁کارخانه	-9.60779
▁اخلاقی	-9.60874
▁معماری	-9.60889
▁دستیابی	-9.60961
▁عدد	-9.61017
▁اون	-9.61142
▁سنتی	-9.61158
دست	-9.61162
▁برجسته	-9.61306
▁سوالات	-9.61392
▁خشک	-9.61574
▁مشاوره	-9.61611
▁بیدار	-9.61612
▁کمتری	-9.61668
▁حجم	-9.617
▁حیات	-9.61767
▁اکتبر	-9.61857
پ	-9.61954
▁مذهبی	-9.61997
▁گذار	-9.62197
al	-9.62354
▁نبوده	-9.62378
تون	-9.62456
▁ج	-9.62525
▁صادر	-9.62687
▁ندارم	-9.6297
▁رضایت	-9.62985
4	-9.63114
▁جنگل	-9.63118
▁کارمندان	-9.63119
▁مانع	-9.6323
▁صفحات	-9.63343
اخر	-9.63423
▁تأیید	-9.6353
▁سلام	-9.63705
▁خاورمیانه	-9.63718
▁عناصر	-9.63906
▁کیلومتر	-9.63906
▁معنا	-9.6391
▁مراسم	-9.63912
▁چک	-9.63963
▁W	-9.64041
▁استقلال	-9.64094
▁نزد	-9.64308
▁طلا	-9.64382
▁افتخار	-9.6441
۱	-9.6441
▁مسلمان	-9.64417
▁هوش	-9.64481
▁جاری	-9.64486
▁ماست	-9.6458
▁آبی	-9.64943
▁مدارس	-9.65063
▁17	-9.65144
▁سیگار	-9.65184
▁ز	-9.65227
▁نموده	-9.65277
▁مهندسی	-9.65315
ژانس	-9.65421
▁بارها	-9.6552
▁بلافاص	-9.65628
▁ار	-9.65655
▁آدرس	-9.65805
▁عصر	-9.65819
▁بند	-9.65929
▁پردازش	-9.66006
▁خرد	-9.66045
o	-9.66133
▁قالب	-9.66191
سازی	-9.66203
▁دیوار	-9.66375
▁مجلس	-9.66392
c	-9.66597
وس	-9.66631
▁اولویت	-9.66771
▁فرانسوی	-9.66841
▁قطعا	-9.66946
▁کتابخانه	-9.67002
▁محمد	-9.67168
▁چای	-9.67177
چ	-9.67295
▁گذاران	-9.67311
▁معتبر	-9.67354
▁شهرهای	-9.67397
این	-9.67408
▁۱۰۰	-9.67445
▁دادم	-9.67516
▁روبرو	-9.67547
▁دسامبر	-9.67741
▁آلمانی	-9.67751
▁مصنوعی	-9.67806
ص	-9.67833
▁انگلیس	-9.67935
▁پرونده	-9.67943
▁جوانان	-9.67944
▁گویم	-9.68
▁مرغ	-9.68134
▁سادگی	-9.68145
▁نوشت	-9.68181
▁نشست	-9.68223
l	-9.68262
▁ق	-9.68282
▁ژانویه	-9.6833
▁سین	-9.68426
▁سطوح	-9.68527
▁'	-9.6855
▁عرض	-9.68654
▁حکم	-9.68656
▁منزل	-9.68729
▁باشگاه	-9.68734
▁بازیکن	-9.6882
▁متخصصان	-9.68902
▁شناخت	-9.68912
▁آیت	-9.68929
▁نزدیکی	-9.68971
▁نقاشی	-9.69105
▁پاریس	-9.69122
d	-9.69156
یل	-9.69168
▁دختران	-9.69217
▁موبایل	-9.6933
▁یك	-9.69376
▁کارگر	-9.69423
▁نظیر	-9.69517
▁مقدس	-9.69522
▁شریک	-9.69546
▁the	-9.69577
▁and	-9.69708
▁شنبه	-9.69724
▁مجله	-9.69905
▁عمده	-9.70026
▁Google	-9.70115
▁ترافیک	-9.70115
▁ایستگاه	-9.70131
▁طیف	-9.70163
▁کشید	-9.70185
▁شرقی	-9.70363
▁آموز	-9.70414
▁بیست	-9.70486
▁نمایشگاه	-9.70573
▁آمار	-9.70682
▁آرامش	-9.707
▁ثروت	-9.70716
▁نوامبر	-9.70718
▁مسابقه	-9.70762
▁پنجره	-9.70809
▁دارایی	-9.70916
▁دموکراسی	-9.7092
▁وسایل	-9.70921
▁دیابت	-9.70923
▁سبب	-9.7095
▁نداریم	-9.7114
▁تحصیلی	-9.71183
▁ژوئن	-9.71326
000	-9.71461
▁خسته	-9.71527
▁پاداش	-9.71527
▁مدرک	-9.71528
▁سریال	-9.71544
▁خورده	-9.71682
▁اثبات	-9.71732
▁شیطان	-9.71734
▁بزنید	-9.71738
▁خالی	-9.71739
▁سهم	-9.71751
▁رمز	-9.71752
▁ing	-9.71888
▁پرو	-9.71957
▁کارگردان	-9.72014
▁حتما	-9.72033
T	-9.72062
▁یکسان	-9.72067
▁نشد	-9.72263
▁اسپانیا	-9.72323
in	-9.72336
▁منظم	-9.72356
▁بافت	-9.72398
▁مجموع	-9.7247
▁ظرفیت	-9.72569
▁دیدم	-9.72638
▁فرق	-9.72671
▁كرد	-9.72782
▁کاربرد	-9.72863
▁اتصال	-9.72868
▁گیر	-9.72999
▁مجازات	-9.73039
گر	-9.7306
E	-9.73145
▁الکترونیکی	-9.73275
▁پرسید	-9.73293
▁بیانی	-9.73448
▁غنی	-9.7358
▁نبرد	-9.73596
▁امیدوارم	-9.7367
▁لا	-9.73821
▁هاي	-9.73825
▁اجرایی	-9.73951
▁دومین	-9.73989
▁سابقه	-9.74005
▁آفریقا	-9.74088
▁خروج	-9.7409
▁مکمل	-9.74203
▁پیوند	-9.74205
▁امتیاز	-9.74319
▁هرگونه	-9.74319
▁نوزاد	-9.74477
▁جلب	-9.74633
یک	-9.74686
▁گشت	-9.74755
▁متعلق	-9.7491
ing	-9.7516
▁نادیده	-9.7525
▁کمپانی	-9.75251
▁فرودگاه	-9.75259
▁مخفی	-9.753
▁کمیته	-9.75319
▁تعجب	-9.75345
▁سؤال	-9.7537
▁ابتلا	-9.75461
▁متولد	-9.75479
▁همکاران	-9.75484
▁فیس	-9.75562
▁عصبی	-9.75673
▁خلاف	-9.75727
▁معلم	-9.75737
اژه	-9.75767
▁آزار	-9.75889
▁عظیم	-9.7604
▁هوای	-9.76044
▁مسلمانان	-9.76049
▁مدتی	-9.76091
▁صنایع	-9.76097
▁قول	-9.76153
▁اوباما	-9.76309
▁لطفا	-9.76326
▁تعهد	-9.76453
▁هنری	-9.76493
▁وظایف	-9.76523
▁چندان	-9.76653
▁تصوی	-9.76702
▁خواستار	-9.76762
ة	-9.7677
یب	-9.76857
▁رویداد	-9.77141
▁2017	-9.77165
▁دانشکده	-9.77382
▁مبلغ	-9.77382
▁پادشاه	-9.77384
وق	-9.77416
نی	-9.77491
▁مخصوص	-9.77561
▁ورزشی	-9.7759
8	-9.77792
▁بینید	-9.77818
R	-9.7797
▁+	-9.77974
نگ	-9.78024
▁غذای	-9.7806
▁کاربردی	-9.78172
▁شرق	-9.78212
▁استراتژیک	-9.78364
▁اختلاف	-9.78372
▁فرو	-9.78424
ینگ	-9.78441
▁مراک	-9.78463
▁پیرو	-9.78731
P	-9.78802
▁هورمون	-9.789
▁بهشت	-9.78938
▁صادرات	-9.78955
▁باتری	-9.78971
▁مردی	-9.7909
▁تحویل	-9.79118
▁ریاست	-9.7934
▁O	-9.79428
▁2018	-9.79556
▁مسیح	-9.79726
▁اخبار	-9.79777
▁مهمترین	-9.79794
▁روانی	-9.79989
▁تعادل	-9.79998
▁اعدام	-9.79998
▁کشیدن	-9.8
▁فردا	-9.80005
▁بگوید	-9.80008
▁ناحیه	-9.80019
▁دعا	-9.80025
p	-9.80192
▁نوشیدنی	-9.80317
▁2015	-9.8053
۵	-9.80531
▁خ	-9.80534
▁وضع	-9.80638
▁ارز	-9.80655
ینه	-9.8066
▁رقم	-9.8067
▁ورودی	-9.80709
▁کفش	-9.8072
ين	-9.80943
▁سهام	-9.8096
▁عربی	-9.80978
▁منطقی	-9.81003
▁حساس	-9.81077
▁طالبان	-9.8112
▁مثلا	-9.81185
▁انگار	-9.81322
▁کمپین	-9.81535
▁تأمین	-9.81557
▁کارشناسان	-9.81566
▁نشود	-9.81576
▁جامع	-9.81597
▁هستی	-9.81796
▁جانب	-9.81936
▁تحریک	-9.82232
▁قربانی	-9.82289
▁نوآوری	-9.82313
▁میکنند	-9.82385
▁لایه	-9.82632
▁خانوادگی	-9.82687
▁بماند	-9.82694
▁دائمی	-9.82716
اگر	-9.82741
▁خواستم	-9.82769
▁ترکیبی	-9.82811
▁صندلی	-9.82915
▁تون	-9.82997
▁برود	-9.83093
▁آیه	-9.83194
f	-9.83281
▁متهم	-9.83445
▁ظهور	-9.83473
▁کاخ	-9.83605
▁ض	-9.8362
▁رایج	-9.83671
▁ژن	-9.83737
▁تاسیس	-9.8375
▁خواهان	-9.83753
▁فدرال	-9.83827
▁داشتیم	-9.83877
▁فرستاد	-9.83881
۴	-9.83882
▁خارجه	-9.83974
▁عوارض	-9.84057
▁مشکلی	-9.84101
▁ع	-9.84104
▁خدای	-9.8413
نده	-9.84249
▁چیزها	-9.84287
▁مک	-9.84313
▁میز	-9.84366
▁انعط	-9.84518
▁اتحاد	-9.84525
▁نکات	-9.84525
▁فقر	-9.846
▁زنی	-9.84651
▁محیطی	-9.84688
▁90	-9.84742
▁باکتری	-9.8475
▁انقلابی	-9.84867
وم	-9.84981
▁کوین	-9.85076
▁مراقب	-9.85115
▁تعطیلات	-9.85261
▁کشیده	-9.85287
▁آسیا	-9.85404
▁شرط	-9.85458
▁مجاز	-9.85474
▁تی	-9.855
▁بزرگسالان	-9.85503
▁شاه	-9.8553
▁آمدن	-9.85636
▁استراحت	-9.85681
▁حادثه	-9.85702
▁بمب	-9.85746
▁ظرف	-9.85891
▁لبخند	-9.85915
▁ویندوز	-9.85915
▁مسکو	-9.85949
▁معادل	-9.85965
▁باد	-9.86048
ایی	-9.86132
▁مقررات	-9.86176
▁مست	-9.86291
▁هایش	-9.86362
▁رییس	-9.86389
▁تخت	-9.86461
▁سرور	-9.86663
▁گفتگو	-9.86727
۳	-9.86816
▁ابزارهای	-9.86827
▁امکانات	-9.86856
▁ارتباطی	-9.86917
نقض	-9.87075
▁هدیه	-9.87333
▁جانبی	-9.87338
▁دیر	-9.87341
▁بگیریم	-9.87351
▁نیستم	-9.87396
▁وجه	-9.87488
▁نویسی	-9.87506
▁راضی	-9.87581
▁گرچه	-9.87583
▁بدی	-9.87738
▁فرمان	-9.87759
▁ریز	-9.87797
▁داعش	-9.87824
▁گمان	-9.8785
▁2016	-9.88049
▁الهام	-9.88049
لا	-9.88086
۲	-9.88114
▁امیدوار	-9.88266
▁اسب	-9.88279
بط	-9.88382
ئی	-9.88461
▁کودکی	-9.88462
▁سرانجام	-9.88528
▁خطوط	-9.88531
▁U	-9.88564
▁كند	-9.88574
▁in	-9.88755
▁؟!	-9.88873
▁نظرات	-9.89011
▁درحالی	-9.89027
▁تروریستی	-9.89273
▁یورو	-9.89275
▁وام	-9.89366
▁راهنمایی	-9.89399
▁نتوانست	-9.8949
▁شوروی	-9.89499
▁تشکر	-9.895
▁شاخص	-9.89502
▁زنند	-9.89543
▁بینند	-9.89631
▁استخوان	-9.89702
▁اضطراب	-9.89739
▁کاربری	-9.89748
وی	-9.89925
▁ضعف	-9.89983
▁۱۳	-9.89985
▁کنگره	-9.90023
▁اد	-9.90025
▁ناپذیر	-9.9007
واقعاً	-9.90163
▁فر	-9.90222
▁معاملات	-9.90227
▁ماموریت	-9.90233
▁گربه	-9.90258
▁ید	-9.90354
نت	-9.90448
▁سیگنال	-9.90472
▁میتواند	-9.90529
اد	-9.90619
▁موج	-9.90658
▁نفع	-9.90719
▁حقوقی	-9.90835
▁صادق	-9.90942
▁c	-9.90949
▁پیشین	-9.91094
▁گویی	-9.91136
▁نماینده	-9.91182
▁قضاوت	-9.91212
▁ژنتیک	-9.91213
▁چ	-9.9123
▁روم	-9.9131
▁محاسب	-9.91367
▁تکامل	-9.91368
▁تردید	-9.91369
▁کالج	-9.91461
▁برگزاری	-9.91476
▁كار	-9.91497
▁تصادف	-9.91581
▁یخ	-9.91627
▁۴۰	-9.91711
▁بگذارد	-9.9173
▁اخیرا	-9.91832
▁خواهی	-9.91867
▁انتقاد	-9.91933
▁رفع	-9.91955
▁فلسفه	-9.92167
▁دهی	-9.92259
O	-9.92292
▁عکاسی	-9.92401
▁تفسیر	-9.92455
▁مقیاس	-9.92466
▁نمایندگان	-9.9247
▁جی	-9.9255
▁خورشیدی	-9.92551
▁تور	-9.92553
▁رسانی	-9.92554
▁کا	-9.92582
▁خام	-9.92599
▁سفارش	-9.92638
▁پیوست	-9.92646
▁سرنوشت	-9.92709
سر	-9.92727
6	-9.92811
▁خطا	-9.9291
▁فوری	-9.93033
▁مهمان	-9.93168
▁یابند	-9.93261
▁غل	-9.93289
▁کشوری	-9.93378
▁تازگی	-9.93478
▁گی	-9.93581
▁نیستید	-9.93673
▁ثبات	-9.93701
▁مقالات	-9.93729
▁٬	-9.93779
با	-9.93886
▁خبری	-9.93904
▁عضل	-9.93966
▁علامت	-9.93976
▁بیاید	-9.93988
▁آزمایشگاه	-9.93992
کس	-9.94075
▁هرچه	-9.94099
▁ماندن	-9.94106
ح	-9.94149
▁|	-9.94221
▁اختراع	-9.94223
▁جداگانه	-9.94226
نا	-9.94241
▁مخدر	-9.94245
N	-9.94266
▁روحی	-9.94346
▁دمای	-9.94395
▁وقوع	-9.9449
▁اکثریت	-9.94581
▁خراب	-9.94582
▁احتمالی	-9.94611
ام	-9.94683
▁کو	-9.94705
▁گرد	-9.94781
▁80	-9.94852
▁دامنه	-9.94896
▁اقیانوس	-9.94979
▁بینیم	-9.94991
▁شادی	-9.9502
▁اتومبیل	-9.95247
▁۱۴	-9.95267
▁پدرش	-9.95443
▁دستگیر	-9.95481
▁اپلیکیشن	-9.95505
▁تنوع	-9.95517
▁استانداردها	-9.95544
▁مدار	-9.95556
▁شوهر	-9.95692
▁روزها	-9.95705
▁»،	-9.95717
▁شنید	-9.95748
▁نقد	-9.95793
▁آنقدر	-9.95836
سون	-9.95876
▁21	-9.95886
F	-9.9595
▁بیایید	-9.96026
▁سیم	-9.96098
▁روزه	-9.96107
▁اعتراض	-9.9619
▁یم	-9.96373
▁لب	-9.96478
▁مرده	-9.96534
▁میل	-9.96542
▁لغو	-9.96542
▁اوکراین	-9.96545
▁سازنده	-9.96553
▁خودکار	-9.96663
▁بدهی	-9.96748
▁کوچکی	-9.96789
▁جلسات	-9.96806
▁دادیم	-9.96945
▁موجودات	-9.97001
گین	-9.97046
▁رعای	-9.9709
▁تئوری	-9.97296
▁تزریق	-9.97328
▁آلودگی	-9.97331
▁تخصص	-9.97333
▁ذهنی	-9.97338
خانه	-9.97358
▁بالاخره	-9.97366
▁#	-9.97412
▁d	-9.97414
▁راستا	-9.97491
▁نکرد	-9.97596
▁موافقت	-9.97918
▁اوست	-9.97954
en	-9.98038
▁توپ	-9.98098
▁نویسندگان	-9.98122
▁شرح	-9.98123
▁برج	-9.98235
▁مرتب	-9.98241
▁مجازی	-9.98313
▁>	-9.98324
▁متعهد	-9.98389
▁متنوع	-9.98397
▁الکل	-9.98413
▁موقت	-9.98642
▁صند	-9.98941
▁۲۵	-9.98942
▁ساحل	-9.9895
▁فای	-9.99051
▁ایمن	-9.99073
▁ثروتمند	-9.99089
▁یهودی	-9.99097
k	-9.99124
▁نویس	-9.99125
▁اف	-9.99169
▁ارزشمند	-9.99173
▁اسناد	-9.99184
▁شکایت	-9.99185
▁سرکوب	-9.99189
▁آفتاب	-9.992
▁مهر	-9.99226
K	-9.99244
تواند	-9.99274
▁مربی	-9.99306
▁تأکید	-9.99452
▁جوامع	-9.99452
▁مناسبی	-9.99565
▁احتیاج	-9.99721
▁محدوده	-9.99752
▁شنا	-9.99793
▁باردار	-9.99823
▁نخواهند	-9.99869
داری	-9.99912
▁یادآوری	-9.99914
ژن	-9.99962
▁همگی	-10.0001
▁غریب	-10.0001
▁بخواهد	-10.0027
▁حلقه	-10.003
▁کوچکتر	-10.0042
▁آنتی	-10.0042
▁مال	-10.0047
▁زا	-10.005
▁آمدند	-10.005
▁بدهند	-10.0056
▁ماهواره	-10.0082
▁گ	-10.0102
راجع	-10.0102
▁تبلیغاتی	-10.0105
▁نهاد	-10.0127
▁جعبه	-10.0135
▁متاسفانه	-10.0135
▁تروریسم	-10.0136
▁طرز	-10.0136
▁اتفاقات	-10.0139
▁گذارند	-10.014
▁۱۱	-10.0142
▁کنونی	-10.0148
▁فوت	-10.015
▁ببینند	-10.0191
▁شعر	-10.0194
▁بدانند	-10.0197
▁الکتریکی	-10.0201
▁تماشای	-10.0201
h	-10.0221
▁توانستند	-10.0226
یس	-10.0235
▁عموم	-10.0238
▁تجدید	-10.0245
▁اینترنتی	-10.0246
▁قطعه	-10.0253
▁ابر	-10.0271
▁عنصر	-10.0273
▁عصبانی	-10.0273
▁تحقق	-10.0274
▁پولی	-10.0284
َ	-10.0288
▁اشکال	-10.0292
▁ندهید	-10.0301
▁استدلال	-10.0301
▁سکوت	-10.0302
9	-10.0318
▁بیند	-10.0319
▁جلوی	-10.0324
▁موهای	-10.0332
▁اشتباهات	-10.0334
▁اراده	-10.0338
▁حیاتی	-10.0343
▁زوج	-10.0347
خاذ	-10.0352
▁بو	-10.0355
▁انگشت	-10.0365
▁تبلیغ	-10.0375
▁کمیسیون	-10.0385
▁آورید	-10.039
▁فرصتی	-10.0406
▁پایتخت	-10.0412
▁بپرسید	-10.0413
▁رودخانه	-10.0415
▁22	-10.0422
▁بانکی	-10.0424
سایت	-10.0425
خ	-10.0436
▁توانستم	-10.044
▁روزمره	-10.0441
▁هنرمند	-10.0444
▁زندانی	-10.0444
▁زنجیره	-10.0455
▁گرفتم	-10.0462
▁فلسطینی	-10.0475
▁آوریل	-10.0483
▁ضمن	-10.0483
▁!»	-10.0488
▁ندرت	-10.0498
▁سند	-10.0517
▁ببیند	-10.0528
▁شدیم	-10.0529
▁ببرد	-10.0532
▁شکر	-10.0539
▁رمان	-10.0539
▁یهودیان	-10.0541
com	-10.055
▁ببینیم	-10.0556
▁خنده	-10.0561
▁سایه	-10.0562
ابراز	-10.0577
▁دشمنان	-10.0582
▁جمعه	-10.0585
▁مخاطبان	-10.0593
▁پیر	-10.0597
▁راهنمای	-10.0598
▁جنگی	-10.0598
▁شناختی	-10.0601
عنوان	-10.0602
▁تصمیمات	-10.0603
▁کنون	-10.0604
▁بایست	-10.061
▁كنند	-10.0611
▁آماد	-10.0613
▁کربن	-10.0616
▁جشنواره	-10.064
▁السلام	-10.064
▁حسین	-10.0643
▁بخشد	-10.0659
▁کمونیست	-10.0669
▁مؤثر	-10.0669
▁خشم	-10.067
▁سرخ	-10.0675
▁نوشیدن	-10.0678
▁آلوده	-10.0681
▁گذاشتن	-10.0688
▁معلوم	-10.0688
▁دستورالعمل	-10.0698
▁قطر	-10.0698
نه	-10.0698
▁لمس	-10.0699
▁بس	-10.07
▁70	-10.0704
ّ	-10.0708
▁سربازان	-10.0711
▁کاغذ	-10.0714
▁زمستان	-10.0714
▁فوریه	-10.0716
▁کارمند	-10.0717
▁تماشا	-10.0727
▁J	-10.0728
▁انداخت	-10.0734
مالکیت	-10.0747
▁گذر	-10.076
▁نشسته	-10.0765
▁گیرید	-10.0784
▁شارژ	-10.0785
b	-10.0805
▁گم	-10.0821
▁کابل	-10.0844
▁بهار	-10.0845
ث	-10.0852
▁۶۰	-10.0859
▁اجاره	-10.0873
▁n	-10.0883
▁سرگرم	-10.0893
▁مسابق	-10.0896
▁حسابداری	-10.0899
▁هیئت	-10.0902
▁2012	-10.0903
▁خودکشی	-10.0906
▁بال	-10.0909
▁خواستند	-10.0914
▁پیگیر	-10.0921
▁بومی	-10.093
▁نکند	-10.0937
▁رفتارهای	-10.0943
▁تخمین	-10.095
▁فیلتر	-10.0956
▁مقصد	-10.0962
L	-10.0965
▁اسید	-10.0968
وب	-10.0971
▁عالم	-10.0991
▁تجاوز	-10.0991
▁کپی	-10.1003
▁محکم	-10.1022
▁جویی	-10.1027
▁توقف	-10.1028
m	-10.1031
▁خاطرات	-10.1032
an	-10.1038
▁راستی	-10.1039
▁i	-10.1049
▁خطرات	-10.105
▁حقیقی	-10.1051
▁اتوبوس	-10.1051
▁شکنجه	-10.1051
▁سراغ	-10.1053
▁خب	-10.1058
▁مهاجران	-10.1063
▁مادرش	-10.1068
▁عرب	-10.1068
▁عقل	-10.1082
تمام	-10.1088
▁مه	-10.1092
▁فلسطین	-10.1105
▁ارتفاع	-10.1111
▁بخاطر	-10.1142
▁کلاسیک	-10.1144
▁دیگه	-10.1148
▁500	-10.1152
▁مرور	-10.1165
▁قند	-10.1165
▁ارتقا	-10.1171
▁اوضاع	-10.1172
▁کالری	-10.1172
▁استخراج	-10.1175
▁مشاغل	-10.1202
▁گوناگون	-10.1202
▁تقاضای	-10.123
▁قهرمان	-10.1232
▁زرد	-10.1242
▁دائم	-10.1242
▁گیاهان	-10.1247
مت	-10.1254
▁۱۶	-10.1258
دهی	-10.1273
▁نسبتا	-10.1282
▁r	-10.1289
▁لبنان	-10.1289
▁برخلاف	-10.1294
▁همدیگر	-10.1296
▁قطار	-10.1298
▁غیره	-10.1301
▁محور	-10.1302
▁قطعات	-10.1307
▁یمن	-10.1307
▁2014	-10.131
▁گردن	-10.1311
▁&	-10.1314
▁اتمی	-10.1317
▁o	-10.1318
▁سالها	-10.1319
▁موضع	-10.1325
▁شکلی	-10.1334
▁رادیو	-10.1336
▁تروریست	-10.1354
▁نباشید	-10.1356
تو	-10.1375
▁درگیری	-10.1378
▁f	-10.1384
▁نقص	-10.1387
▁جمعی	-10.1404
▁شفاف	-10.1416
▁شاد	-10.1416
▁میزبان	-10.1416
ط	-10.1416
▁[+]	-10.1418
▁بگوییم	-10.1419
▁راز	-10.142
▁شبه	-10.1421
▁میدهد	-10.1423
▁فهمید	-10.1433
▁مخالفت	-10.1438
▁t	-10.1443
▁تخریب	-10.1449
▁دکمه	-10.1449
▁عقیده	-10.1449
▁بکشد	-10.145
▁رفتم	-10.1463
▁فقیر	-10.1465
▁زمینی	-10.1466
▁صفر	-10.1467
▁آلبوم	-10.148
▁دوچرخه	-10.148
▁فساد	-10.148
▁مدنی	-10.1482
▁آر	-10.1489
▁اکسی	-10.1492
▁ربات	-10.1493
▁ستون	-10.1503
▁ایفا	-10.1508
▁دوز	-10.1509
▁اشخاص	-10.1511
▁خواهر	-10.1513
▁اسکن	-10.1518
▁نوجوانان	-10.1521
▁باران	-10.1525
▁گیاه	-10.1528
▁اصلاحات	-10.153
▁ری	-10.1537
▁همسایه	-10.1543
▁یکپارچ	-10.1543
▁خاموش	-10.1543
گذاری	-10.1553
▁طلاق	-10.1554
▁هماهنگی	-10.1555
▁محقق	-10.156
قرص	-10.1561
▁ك	-10.1572
▁گرا	-10.1574
▁p	-10.1574
▁یادداشت	-10.1575
▁سینما	-10.1577
وضوح	-10.1578
▁میلی	-10.1582
▁غلط	-10.1607
▁مبن	-10.1608
▁خلاقیت	-10.1608
▁تجربیات	-10.161
▁دلاری	-10.1618
▁گردند	-10.1619
▁خودت	-10.162
▁طعم	-10.1638
▁دریاچه	-10.1638
وش	-10.1641
or	-10.1655
بستگی	-10.166
يد	-10.1661
▁استعداد	-10.1667
▁تخصصی	-10.1669
▁بخورید	-10.167
▁کاش	-10.1676
▁یونان	-10.1678
▁بوی	-10.1683
▁2019	-10.1702
7	-10.1702
▁باستان	-10.1703
▁تقاضا	-10.1705
▁باشه	-10.1711
▁مارک	-10.1716
▁۲۴	-10.1717
▁عده	-10.1725
▁موتورهای	-10.1725
▁ناگهان	-10.1737
وا	-10.1738
▁کلیسا	-10.1745
▁یاری	-10.1751
▁دلم	-10.1759
قابل	-10.176
▁پنجم	-10.1785
I	-10.1792
▁ژاپنی	-10.1794
▁فاجعه	-10.1798
▁فرمانده	-10.1798
▁شاخ	-10.1801
▁بزند	-10.1803
▁بازارها	-10.1809
▁عاطفی	-10.1816
▁مرزهای	-10.1826
طرف	-10.1827
▁مسلح	-10.1829
▁تعمیر	-10.1829
▁حوادث	-10.183
▁قبیل	-10.1831
▁پرنده	-10.1836
▁آمریکای	-10.1839
▁طرفداران	-10.1842
▁رفتند	-10.1847
▁جام	-10.1856
▁راننده	-10.1867
▁نداشتند	-10.1874
▁تاریک	-10.1878
▁دم	-10.1891
▁آشنای	-10.1901
▁لذا	-10.1909
▁مداخله	-10.1915
▁سرباز	-10.192
▁انکار	-10.1929
▁تسلیم	-10.1931
▁برزیل	-10.1936
▁سخنان	-10.1936
▁گرایی	-10.1937
▁شام	-10.194
▁سوار	-10.1943
▁نژاد	-10.1944
▁توی	-10.1947
▁کلیه	-10.1948
▁گواهی	-10.1952
▁نماد	-10.1956
▁سازند	-10.1957
▁ناگهانی	-10.1957
▁ضرورت	-10.1958
ناپدید	-10.1961
▁چارچوب	-10.1961
▁تایلند	-10.1961
X	-10.1967
▁سیب	-10.1968
▁نظم	-10.1972
▁غالب	-10.1977
▁2013	-10.1994
▁مغزی	-10.1997
▁بلوک	-10.1999
▁پارلمان	-10.2001
▁دموکرات	-10.2002
▁رحم	-10.2004
▁لزوم	-10.2013
▁کان	-10.2015
▁er	-10.2025
گری	-10.2026
▁200	-10.2028
▁بازیگر	-10.2034
▁پیمان	-10.2052
▁آپارتمان	-10.206
▁اشتغال	-10.206
g	-10.2061
توانند	-10.2074
▁دانستم	-10.2082
▁رده	-10.2087
▁فیسبوک	-10.2093
▁الگوی	-10.2097
▁مواقع	-10.2106
▁بکار	-10.211
▁گردشگری	-10.212
دار	-10.212
▁عزیز	-10.2121
▁معناست	-10.2129
▁نگار	-10.213
▁مدارک	-10.2133
▁زخم	-10.2136
▁کلام	-10.2144
▁داروها	-10.2147
▁پژوهشگر	-10.215
▁اگ	-10.2153
غام	-10.2158
▁۱۷	-10.2167
▁23	-10.2171
u	-10.2173
يت	-10.2188
on	-10.2192
▁صوتی	-10.2196
▁رغ	-10.2198
▁28	-10.2198
فزایند	-10.2211
▁طلب	-10.2211
▁حاکم	-10.2217
▁b	-10.2219
▁تلویزیونی	-10.2219
▁مزیت	-10.2228
▁خرج	-10.2231
▁همسرش	-10.2231
▁تمرینات	-10.2232
▁چراغ	-10.2234
▁یکبار	-10.2235
▁زنگ	-10.2242
دریس	-10.2252
ُ	-10.2263
▁جفت	-10.2263
▁آپ	-10.2264
رات	-10.2267
پروتکل	-10.2273
▁مبنای	-10.2285
▁شی	-10.2288
▁آنگاه	-10.229
▁امریکایی	-10.2303
▁آیات	-10.2303
۰۰۰	-10.2311
▁میراث	-10.2311
کت	-10.2313
▁موش	-10.2315
▁قربانیان	-10.2317
▁پروردگار	-10.2318
▁سان	-10.2319
▁Re	-10.2323
▁عذاب	-10.2329
▁اسلحه	-10.2329
▁الگوریتم	-10.2329
▁سوگند	-10.2329
▁تنش	-10.2332
▁اعتباری	-10.2335
▁دانه	-10.2337
▁تحول	-10.2339
▁داره	-10.2351
ed	-10.2365
▁بدانیم	-10.2369
▁Z	-10.2378
▁میتوانید	-10.238
▁مالک	-10.2384
▁1-	-10.2385
▁فور	-10.239
▁خلاق	-10.2393
▁مفاهیم	-10.2397
▁خلیج	-10.2397
▁ببرند	-10.2399
▁عرصه	-10.2399
▁سرگرمی	-10.2408
▁روحانی	-10.242
▁مستند	-10.2428
▁استان	-10.2429
▁دینی	-10.2431
▁ونزوئلا	-10.2432
▁دخالت	-10.2432
▁پرچم	-10.2432
▁ابتدایی	-10.2444
▁نادر	-10.2445
▁مادرم	-10.2446
▁انفجار	-10.2446
▁واسطه	-10.2446
▁برایش	-10.246
▁پیشرو	-10.2467
▁مخصوصا	-10.2479
▁کلیسای	-10.2497
le	-10.2509
▁دانستن	-10.2517
▁اخلاق	-10.2519
▁پیروز	-10.2523
▁انتظارات	-10.2529
H	-10.2531
▁هنرمندان	-10.2532
▁الزام	-10.2533
▁تظاهرات	-10.2537
صورت	-10.2538
▁اجباری	-10.2543
▁بستر	-10.2546
▁کف	-10.255
ویج	-10.256
▁مقادیر	-10.257
▁اخراج	-10.257
▁قایق	-10.257
▁شیرین	-10.2577
▁سئو	-10.2584
▁۸۰	-10.2585
▁مکزیک	-10.2587
▁اح	-10.2587
▁%	-10.2591
▁معلمان	-10.2594
▁تنگ	-10.26
▁افسانه	-10.2605
▁جوش	-10.2621
▁سیر	-10.2624
▁برگشت	-10.2625
▁سور	-10.2631
▁کوبا	-10.2634
▁برآورده	-10.2643
حین	-10.2651
▁اندیشه	-10.2652
دام	-10.2672
بت	-10.2674
▁کیف	-10.2677
▁—	-10.2677
▁عمق	-10.2679
▁IP	-10.2683
▁وکار	-10.2686
▁ملک	-10.269
▁سریعتر	-10.2691
▁استقبال	-10.2692
▁کور	-10.2703
لزم	-10.2709
▁فریاد	-10.2711
▁لیزر	-10.2712
▁ص	-10.2712
▁اندروید	-10.2712
▁شنیدن	-10.2713
▁برگ	-10.2715
لوله	-10.2718
▁اص	-10.2721
▁قبلاً	-10.2724
▁بازیگران	-10.2728
▁واردات	-10.2729
▁پدرم	-10.2731
یسم	-10.2733
▁مون	-10.2736
▁فیزیک	-10.2738
▁نی	-10.2742
▁شهادت	-10.2746
▁التحصیلان	-10.2756
▁افسر	-10.2758
رار	-10.2758
▁روایت	-10.2767
▁يک	-10.2771
▁دوستی	-10.2776
▁35	-10.2777
▁رفاه	-10.2782
▁ابعاد	-10.2782
▁وکیل	-10.2782
▁برساند	-10.2782
▁پرتاب	-10.2782
▁توییتر	-10.2784
▁300	-10.2787
▁چشمگیر	-10.2791
▁رسیدگی	-10.2793
▁رنگی	-10.2808
▁ملاحظ	-10.2818
▁برسند	-10.2818
▁مس	-10.2818
▁اشغال	-10.2821
▁ایتالیایی	-10.2823
▁باشی	-10.2825
حریم	-10.2829
▁روسی	-10.283
جایی	-10.2833
▁هماهنگ	-10.2841
▁ایستاده	-10.2852
▁بنیاد	-10.2863
▁جنس	-10.2876
▁فراوانی	-10.2889
▁کالیفرنیا	-10.2889
▁محبت	-10.289
▁m	-10.2904
▁سازگار	-10.2913
▁وری	-10.2914
▁to	-10.2914
▁’	-10.2914
▁جنایت	-10.2925
▁رسند	-10.2927
▁ویدئو	-10.294
قاعد	-10.2949
▁منطق	-10.2958
▁مطلق	-10.296
▁کارآمد	-10.2962
▁اوج	-10.2962
▁داغ	-10.2962
▁نادرست	-10.2963
▁نداده	-10.2967
▁نخواهید	-10.2972
▁غم	-10.2974
W	-10.2976
▁شر	-10.2979
▁کشی	-10.2985
از	-10.2986
▁آقا	-10.2989
▁مرتکب	-10.2998
▁سرقت	-10.2998
▁نظرسنج	-10.3004
▁نیستیم	-10.301
▁دریای	-10.3015
▁2-	-10.3024
▁درونی	-10.3029
▁الی	-10.3029
▁غیرقانونی	-10.3035
ازم	-10.3039
▁قضی	-10.3042
▁سازمانی	-10.3044
تعلق	-10.3046
▁دان	-10.3046
▁جور	-10.3048
▁نیرو	-10.3054
▁شهرت	-10.3057
▁طلایی	-10.3065
▁مشورت	-10.3071
▁بسازید	-10.3071
▁2011	-10.3071
▁۲۰۱۵	-10.3071
▁شهید	-10.3073
re	-10.3078
▁چشمان	-10.3084
▁کوتاهی	-10.3088
▁وسط	-10.3098
▁فهم	-10.3103
▁بایستی	-10.3103
▁لهستان	-10.3108
▁خالص	-10.3108
کن	-10.3109
▁برآورد	-10.3117
▁رم	-10.3121
۶	-10.3129
▁شهرها	-10.3149
▁سرتا	-10.3155
▁بعدها	-10.3159
▁سا	-10.3175
▁عام	-10.3175
▁آشپزخانه	-10.3182
▁۲۰۰	-10.3194
داد	-10.3199
▁جزو	-10.3201
▁ویدیو	-10.3201
▁مح	-10.3211
▁اعطا	-10.3219
▁تأسیس	-10.3219
▁سالن	-10.3225
▁شبانه	-10.3236
▁سوئد	-10.3249
مسدود	-10.3256
▁قدردان	-10.3257
▁امّا	-10.3258
▁التهاب	-10.3258
▁شایسته	-10.3259
▁ببینم	-10.326
▁شهروند	-10.3274
▁افزوده	-10.3291
▁حرکات	-10.3294
▁بینم	-10.3299
رت	-10.3304
▁مهاجر	-10.3306
▁گرما	-10.3306
▁محاسبات	-10.3308
▁برایم	-10.3311
▁خواه	-10.3311
▁مسیحی	-10.3312
▁زندانیان	-10.3314
▁سیل	-10.3316
el	-10.3316
▁طراح	-10.3348
▁بروند	-10.3352
▁فریب	-10.3376
▁گردش	-10.3381
▁طراحان	-10.3384
▁هلند	-10.3404
▁توانسته	-10.3407
▁بگذارند	-10.3409
▁دفاعی	-10.3411
▁جر	-10.3412
▁26	-10.3419
▁دلیلی	-10.3426
▁آرزو	-10.3435
▁محض	-10.3439
▁جراح	-10.344
▁محروم	-10.3443
▁وحشتناک	-10.3445
▁فرماید	-10.3446
▁لاتین	-10.3448
▁سایبری	-10.3457
لی	-10.3462
▁مکانی	-10.3471
▁روانشناسی	-10.3483
▁2008	-10.3484
▁کنه	-10.3486
▁تعهدات	-10.35
▁برید	-10.3505
▁حیوان	-10.3509
▁پلی	-10.3513
▁بده	-10.3521
▁ضرر	-10.3522
▁کانادایی	-10.3533
U	-10.3549
▁مضر	-10.3559
▁محرک	-10.356
▁عسل	-10.356
▁نعمت	-10.3561
▁_	-10.3562
▁قوم	-10.3571
▁نویسد	-10.3572
▁کریم	-10.3578
▁ریاضی	-10.3584
▁بگو	-10.3587
▁زایمان	-10.3599
▁شیشه	-10.3599
▁نکنند	-10.3602
▁رقص	-10.3612
ود	-10.3627
▁روس	-10.3634
▁آیفون	-10.3638
▁رسول	-10.3638
▁دیوید	-10.3638
▁پردازد	-10.3639
▁جبران	-10.3639
▁ادبیات	-10.3641
▁آفریقای	-10.3652
▁ارمغا	-10.3676
▁جاذب	-10.3676
▁نصف	-10.3677
▁خوشبختانه	-10.3677
▁اسپانیایی	-10.3681
وف	-10.3682
▁میشه	-10.3691
▁بدهیم	-10.3695
▁۲۱	-10.3695
▁دستمزد	-10.3696
▁کیست	-10.3704
؟»	-10.3708
▁ماجرا	-10.3709
▁درختان	-10.3709
▁فا	-10.3713
▁معدنی	-10.3714
▁معاصر	-10.3715
▁قائل	-10.3716
▁جنین	-10.3722
is	-10.3723
▁جدایی	-10.3726
▁دانشگاهی	-10.3738
▁بل	-10.3742
▁ناتو	-10.3742
▁معنوی	-10.3745
▁x	-10.3749
▁دارویی	-10.3754
▁تسلیحات	-10.3755
▁دوشنبه	-10.3755
▁ائتلاف	-10.3755
▁مقداری	-10.3755
▁سوئیس	-10.3755
▁45	-10.3755
▁تدریج	-10.3758
▁ندیده	-10.3762
▁پیکر	-10.3763
گرد	-10.3763
▁2000	-10.3766
▁ابتدای	-10.3766
▁!!	-10.3767
▁نیت	-10.3787
وجود	-10.3792
▁مسجد	-10.3794
▁مجهز	-10.3794
▁کهکشان	-10.3795
▁فراوان	-10.3795
▁بشری	-10.3799
▁برادران	-10.3808
▁شور	-10.3809
▁۷۰	-10.3821
▁جغرافیایی	-10.3828
▁بعدا	-10.3831
▁اعتراف	-10.3834
▁خورند	-10.3836
us	-10.3846
’	-10.3846
نس	-10.3847
▁دام	-10.3853
▁تمدن	-10.3873
▁ادرار	-10.3874
▁2010	-10.3874
▁حمام	-10.3875
▁معدن	-10.3875
▁ماهه	-10.3876
کاری	-10.3879
▁رأی	-10.3881
وع	-10.3885
▁بروم	-10.3887
▁نان	-10.3887
▁ناتوان	-10.3888
▁کامپیوتری	-10.3899
▁افتتاح	-10.3912
▁تبادل	-10.3913
▁میکنم	-10.3913
▁بخصوص	-10.3915
▁پوند	-10.3917
V	-10.3921
▁نوار	-10.3921
▁گوشه	-10.3921
▁فرود	-10.3927
▁اداری	-10.3937
▁فیبر	-10.394
▁شوک	-10.3942
▁دموکراتی	-10.3943
▁نیک	-10.3947
▁تجویز	-10.3953
▁مایکروسافت	-10.3953
▁تلقی	-10.3953
▁گرسنگی	-10.3961
بل	-10.3961
▁بدهم	-10.3965
▁مخاطب	-10.3969
▁نبودند	-10.3977
▁رفتاری	-10.3978
▁سپری	-10.3982
▁ابراهیم	-10.3993
▁بگویند	-10.3993
▁بنویسید	-10.3993
▁بیاورید	-10.3993
▁شکاف	-10.3995
▁مسافران	-10.4006
▁رویدادهای	-10.4017
▁باش	-10.4019
▁مسأل	-10.4034
▁مغازه	-10.4034
کو	-10.4034
▁شایع	-10.404
▁سنی	-10.4044
▁حسن	-10.4048
▁کیس	-10.4056
▁شکسته	-10.4063
▁ماهیت	-10.4072
▁ایرلند	-10.4076
▁ذات	-10.4076
▁دونالد	-10.4077
▁حرارت	-10.4079
▁?	-10.4079
▁سامان	-10.4081
▁چوب	-10.4082
▁موافق	-10.4092
▁ارتقاء	-10.4116
▁فکری	-10.4123
▁بلاک	-10.4124
▁یابی	-10.413
▁رحمت	-10.4131
▁ساکن	-10.4133
▁on	-10.4133
▁انتهای	-10.4138
▁بخشید	-10.4149
شنیده	-10.4155
▁فرمول	-10.4158
▁نوزادان	-10.4184
▁مغذ	-10.4196
▁ژوئیه	-10.4197
▁خواص	-10.4197
▁قلمرو	-10.4197
▁گذرد	-10.4208
جه	-10.4208
▁فروخته	-10.4221
▁زیرساخت	-10.4238
▁$	-10.4242
▁وحشت	-10.4244
▁سقف	-10.4248
▁فرزندتان	-10.4248
▁مسافرت	-10.4254
▁تکان	-10.4257
اپ	-10.426
▁اعتصاب	-10.4279
▁جولای	-10.4279
▁اینطور	-10.4279
▁زلزله	-10.4279
▁ویدئویی	-10.428
▁مدعی	-10.4281
▁حدی	-10.4284
▁g	-10.4284
▁جیمز	-10.4285
▁صبحانه	-10.4287
▁هواپیمای	-10.4287
▁لیبی	-10.4289
▁پروس	-10.4289
▁27	-10.4308
▁نهادهای	-10.4317
▁اج	-10.432
▁خونریزی	-10.4321
▁بیفتد	-10.4321
▁نگرفت	-10.4325
اس	-10.4325
▁آوردند	-10.4335
▁لس	-10.4341
▁خروجی	-10.4343
▁سبزیجات	-10.4362
▁مذهب	-10.4372
▁مادران	-10.4375
ضعیف	-10.4379
▁جنسیت	-10.4383
▁فاق	-10.4384
▁بنده	-10.4394
▁خوراکی	-10.4397
▁خستگی	-10.4404
▁دردناک	-10.4404
▁حقایق	-10.4405
▁قلم	-10.4406
▁حاکمیت	-10.4407
▁قاره	-10.441
▁رساندن	-10.4415
▁جک	-10.4416
▁ساکنان	-10.4419
▁خیانت	-10.4446
▁آمازون	-10.4446
▁گرافیک	-10.4447
▁تاخیر	-10.4463
▁مکالمه	-10.4467
▁بداند	-10.4471
▁مطلوب	-10.4472
▁=	-10.4473
ستان	-10.4475
▁l	-10.4476
▁زدند	-10.4485
▁واکسن	-10.4488
▁موانع	-10.4488
اعت	-10.4491
▁مشخصات	-10.4492
▁داوری	-10.4494
▁فولاد	-10.4499
▁گیریم	-10.4515
▁موسی	-10.4519
▁جسمی	-10.4525
▁جدول	-10.4531
▁مسکن	-10.4531
زاب	-10.4534
▁آینه	-10.4536
▁کمال	-10.4548
▁دانستند	-10.455
▁پسران	-10.4551
▁مالیاتی	-10.4565
▁پاپ	-10.457
▁ویتنام	-10.4573
▁بمانید	-10.4573
▁فالون	-10.4579
▁رسمیت	-10.4579
▁ادعای	-10.4585
▁کر	-10.4586
▁تنفس	-10.4587
ممکن	-10.46
نظر	-10.4615
▁پیشگیر	-10.4615
▁آرزوی	-10.4616
▁خلبان	-10.4616
▁نگرش	-10.4619
▁خداست	-10.4636
▁خار	-10.4638
▁جزئی	-10.4653
▁رز	-10.4657
▁معاون	-10.4659
▁گواهینامه	-10.466
▁پرندگان	-10.466
▁استارت	-10.4661
اجد	-10.4661
▁بمانند	-10.4664
▁بندر	-10.4672
▁گویید	-10.4673
▁شناس	-10.4695
▁تئاتر	-10.4702
▁اردوگاه	-10.4702
▁شعار	-10.4712
یوم	-10.4722
▁فارس	-10.4724
▁وابستگ	-10.4733
▁اندام	-10.4736
▁ملکه	-10.4739
▁اوت	-10.474
▁اعداد	-10.4745
▁بکشید	-10.4746
▁2009	-10.4746
▁املاک	-10.4746
▁کوک	-10.4758
▁برف	-10.4759
▁توجیه	-10.476
▁طرفدار	-10.4763
▁آلرژی	-10.477
▁گاو	-10.4779
▁کشتن	-10.4788
▁اضطراری	-10.4789
▁مخلوط	-10.4789
▁تابع	-10.4791
بی	-10.4803
▁In	-10.481
▁مور	-10.4811
طلع	-10.4821
▁لطف	-10.4822
▁خونی	-10.4826
ذ	-10.4826
▁خواننده	-10.483
غول	-10.483
▁مستقر	-10.4832
حاشیه	-10.4832
▁مزمن	-10.4833
▁بردند	-10.4837
▁بصری	-10.4842
▁Pro	-10.4842
▁افزون	-10.4851
▁اسرائیلی	-10.4852
▁سم	-10.4853
et	-10.4858
▁مالزی	-10.4876
▁2020	-10.4877
▁گفتار	-10.4881
th	-10.4882
▁فی	-10.4885
▁۲۲	-10.4891
▁کبد	-10.4895
▁رسیدند	-10.4898
▁ناسا	-10.4901
▁تکی	-10.4904
▁؟»	-10.491
▁هایتان	-10.4916
▁نفرت	-10.4916
▁ساعات	-10.492
▁سامسونگ	-10.492
▁بنیادی	-10.4926
▁تیر	-10.4928
حساسیت	-10.493
▁تب	-10.4931
▁نظرم	-10.4933
at	-10.4939
▁پرد	-10.494
▁مربوطه	-10.4951
▁ظاهرا	-10.4953
▁۹۰	-10.4957
▁گیاهی	-10.4964
▁غرق	-10.4967
▁بگیرم	-10.4969
▁مرورگر	-10.4976
؟!	-10.4977
▁الکترونیک	-10.4985
▁دانشجو	-10.4987
▁خودروهای	-10.499
▁سنین	-10.4998
▁مسئولان	-10.4998
id	-10.5002
▁آهسته	-10.5009
▁ناشناخته	-10.5009
▁باهوش	-10.501
▁۲۰۱۱	-10.5011
▁کشت	-10.5013
▁نمایندگی	-10.5014
▁برنج	-10.5017
▁بنیان	-10.5018
▁طوفان	-10.5028
▁پرستار	-10.5031
وت	-10.5031
▁شن	-10.5038
وز	-10.5044
▁افغان	-10.5053
▁خنک	-10.5054
▁Y	-10.5059
▁باند	-10.5061
▁امپراتوری	-10.5071
▁الملل	-10.5076
▁اختصاصی	-10.5084
▁تل	-10.5085
▁کلاه	-10.5089
▁شکار	-10.5089
▁برانگیز	-10.509
▁۲۰۱۸	-10.5099
▁دانشجویی	-10.5099
▁بزنند	-10.51
▁بالغ	-10.5104
▁سندر	-10.511
▁محو	-10.512
مون	-10.5132
▁شکم	-10.5132
▁گرفتار	-10.5134
▁مخرب	-10.5143
▁مراتب	-10.5143
سم	-10.5148
▁بشود	-10.5148
▁مایع	-10.5153
▁کالا	-10.5162
▁گوییم	-10.5164
▁مهمتر	-10.5166
▁ششم	-10.5175
▁موضوعی	-10.5188
▁متمایز	-10.5189
▁29	-10.5201
v	-10.5212
یده	-10.5212
▁اختلالات	-10.5214
▁بشریت	-10.5214
▁مسن	-10.5221
▁شلوغ	-10.5234
▁کریسمس	-10.5234
▁تحمیل	-10.5234
▁جبهه	-10.5234
▁رکورد	-10.5234
▁HIV	-10.5234
▁کابین	-10.5234
▁مایکل	-10.5235
▁اط	-10.5239
▁تعطیل	-10.525
▁نامزد	-10.5274
ic	-10.5277
▁سفارت	-10.5279
▁۲۰۱۴	-10.528
▁خلاقانه	-10.5283
▁کارایی	-10.5284
▁فروشی	-10.5287
▁آری	-10.531
▁اسد	-10.5315
▁مدافع	-10.5326
▁آگهی	-10.5326
▁انه	-10.5332
▁توضیحات	-10.5335
▁جست	-10.5337
برد	-10.5338
برداری	-10.5349
▁مهربان	-10.5353
▁امت	-10.5361
▁محافظه	-10.5366
▁۲۰۱۳	-10.5372
▁0	-10.5374
▁فرمت	-10.5406
▁افت	-10.5416
▁ناهار	-10.5418
w	-10.5418
▁2007	-10.5419
▁بیاورد	-10.5419
▁مربع	-10.5422
حسین	-10.5431
▁بازرگانی	-10.5437
▁برعکس	-10.5443
▁شیمی	-10.5445
▁نمک	-10.5447
قدر	-10.5449
▁مسافر	-10.5452
▁ترسناک	-10.5465
▁محله	-10.5465
▁DNA	-10.5465
▁عروسی	-10.5468
▁خریداران	-10.5471
▁نداشتم	-10.5498
▁مردمی	-10.5506
▁اعتیاد	-10.5511
▁انیمیشن	-10.5511
▁ستارگان	-10.5512
▁مطمئنا	-10.5518
▁فروشنده	-10.5532
es	-10.554
مانند	-10.5542
▁سوزی	-10.5552
▁خیال	-10.5554
▁تم	-10.5555
▁اینستاگرام	-10.5558
▁عذر	-10.5558
▁عواقب	-10.5558
▁نیروگاه	-10.556
▁ربط	-10.556
▁رقابتی	-10.5561
▁کرم	-10.5567
▁قرض	-10.5571
x	-10.5593
▁پیرامون	-10.5605
▁لحظات	-10.5606
▁برسید	-10.5606
▁دوستانه	-10.5608
it	-10.563
▁ناامید	-10.5638
▁وادار	-10.5641
▁عل	-10.5651
▁y	-10.5652
▁تیره	-10.566
▁بودید	-10.5663
▁3-	-10.5666
▁اینجاست	-10.5667
▁خطای	-10.5669
▁خودروی	-10.5672
▁لنز	-10.5685
▁دیوانه	-10.569
▁پاره	-10.5697
▁کنسول	-10.57
▁فنجان	-10.5701
▁شلیک	-10.5701
▁خوانندگان	-10.5702
▁شهرستان	-10.5705
▁پادشاهی	-10.5715
کر	-10.5716
▁نوجوان	-10.5719
▁عمدتا	-10.5721
▁قسم	-10.5739
▁۵۰۰	-10.5744
▁۳۵	-10.5746
برای	-10.5748
▁پلتفرم	-10.5748
▁انسانها	-10.5748
▁تبعیض	-10.5748
▁دبیرستان	-10.5748
▁دافا	-10.5749
▁گرایش	-10.5751
کی	-10.5752
▁شرکای	-10.5773
قفل	-10.5788
▁اي	-10.5794
▁تشدید	-10.5796
پتانسیل	-10.5796
▁دیروز	-10.5797
▁متحدان	-10.5802
▁;	-10.5811
▁ته	-10.5811
0	-10.5817
▁لیگ	-10.5819
▁٪	-10.5823
▁کش	-10.5827
▁استودیو	-10.5832
اخذ	-10.5835
▁تاریکی	-10.5837
▁ثالث	-10.5845
▁کلسترول	-10.5845
▁جهنم	-10.5845
▁شاهزاده	-10.5845
▁کشتار	-10.5846
▁!!!	-10.5846
▁محاکمه	-10.5852
▁معین	-10.5854
▁نکردن	-10.5856
▁حواس	-10.5861
▁ردیابی	-10.5869
▁سمی	-10.587
▁بیکاری	-10.5872
▁کالاهای	-10.5886
▁باستانی	-10.589
▁نشینی	-10.5893
▁معبد	-10.5893
▁آواز	-10.5897
▁متقابل	-10.5898
▁غذاها	-10.5915
▁بازنشستگی	-10.5919
▁نمای	-10.5927
▁ویران	-10.5937
▁درواقع	-10.5942
▁آگوست	-10.5942
▁مأموریت	-10.5944
▁بورس	-10.5949
▁ویدیوی	-10.5953
▁معجزه	-10.5957
▁مسلم	-10.5958
".	-10.5961
▁سرش	-10.5963
توانیم	-10.5966
ar	-10.5977
▁پوشید	-10.5987
▁همینطور	-10.5991
▁دیسک	-10.5993
▁دروازه	-10.5994
▁شون	-10.6008
▁دربار	-10.6009
▁هیچکس	-10.601
▁75	-10.602
هر	-10.6027
▁مهار	-10.6034
▁تورم	-10.6036
▁درسی	-10.6038
▁شتاب	-10.604
اند	-10.604
▁2006	-10.6041
▁قضایی	-10.6041
▁اشک	-10.6046
▁زیان	-10.6046
▁هنگ	-10.6047
▁مجددا	-10.6048
▁بستن	-10.605
▁همسرتان	-10.605
▁گذراند	-10.6051
▁دوش	-10.6054
▁روستایی	-10.6057
▁منع	-10.6059
▁هواپیماها	-10.6068
▁ظهر	-10.6073
▁بیل	-10.6076
▁پژوهشی	-10.6078
▁تخلیه	-10.609
▁صعود	-10.609
▁دیپلماتیک	-10.609
▁اذیت	-10.609
▁تومور	-10.6097
▁اظهارات	-10.6118
ia	-10.612
▁تسهیل	-10.613
▁نوری	-10.6131
▁قفس	-10.6139
▁پنجاه	-10.614
▁مفصل	-10.6141
▁قلعه	-10.6143
▁نقلیه	-10.6145
▁ئی	-10.6151
▁توانمند	-10.6161
▁صف	-10.6162
▁بیرونی	-10.6174
▁کارکرد	-10.6182
▁آموخته	-10.6188
▁آرژانتین	-10.6189
▁۲۰۱۶	-10.619
لاس	-10.6191
▁معده	-10.6195
▁قیامت	-10.6197
▁de	-10.62
▁كم	-10.6203
▁400	-10.6205
▁استثنای	-10.6213
▁لین	-10.6222
▁1000	-10.6228
▁کول	-10.6241
▁تلخ	-10.6241
▁طبقات	-10.6242
MBA	-10.6244
▁h	-10.6248
▁برلین	-10.625
▁شکلات	-10.626
واسط	-10.6261
▁نمره	-10.6273
▁32	-10.6288
▁کربوهید	-10.629
▁پن	-10.6291
▁بکند	-10.6298
▁آیین	-10.6314
▁خم	-10.6329
▁آدمی	-10.6332
▁مثبتی	-10.6337
غم	-10.6338
آ	-10.6339
▁دستان	-10.6358
▁رابط	-10.6378
▁سواری	-10.6382
▁تاثیرات	-10.6384
▁جاهای	-10.639
▁کافئین	-10.6392
▁قاتل	-10.6392
▁پمپ	-10.6392
▁وقف	-10.6394
▁یقین	-10.6394
يه	-10.6399
▁ویرایش	-10.6402
▁تلفنی	-10.6404
▁چرخش	-10.6417
▁سلطنتی	-10.6421
▁امارات	-10.6429
▁تخفیف	-10.6443
▁قاضی	-10.6443
▁اندونزی	-10.6443
▁پناهندگان	-10.6443
▁مستمر	-10.6444
▁اموال	-10.6446
▁برویم	-10.6447
▁امیدواریم	-10.6452
۷	-10.6462
▁رایان	-10.6469
▁سای	-10.6472
▁for	-10.6474
▁تیراندازی	-10.6476
▁حاک	-10.6483
▁الگو	-10.6491
▁زور	-10.6492
▁تاکتیک	-10.6495
▁تربیت	-10.6495
▁رقیب	-10.6495
▁چهارشنبه	-10.6496
▁اجزای	-10.6499
▁صادقانه	-10.6499
▁کتابی	-10.65
▁گان	-10.6501
▁آنهاست	-10.6504
▁فشرده	-10.6507
ion	-10.6513
▁چراکه	-10.6529
▁اساسا	-10.6532
▁معیارهای	-10.6533
▁تغییراتی	-10.6541
▁راهنما	-10.6545
▁زباله	-10.6547
▁وحشی	-10.6547
مواج	-10.6551
▁رهایی	-10.6556
▁گره	-10.6557
▁سفارشی	-10.6561
حتماً	-10.6575
▁مواجهه	-10.6576
▁يا	-10.6581
▁قطعی	-10.6592
▁ساحلی	-10.6593
▁بلیط	-10.6599
▁عادلانه	-10.6599
▁جورج	-10.66
▁خسارت	-10.6602
▁تام	-10.6605
▁هندی	-10.6605
▁ماهانه	-10.6606
▁متقاضیان	-10.6609
▁سکه	-10.6612
▁ماسک	-10.6621
▁جوانی	-10.6622
مین	-10.6631
▁لک	-10.6632
▁میشوند	-10.6646
▁درب	-10.6647
▁یکشنبه	-10.6651
▁پلاستیک	-10.6651
▁·	-10.6652
▁استوار	-10.6652
▁اقلیت	-10.6652
▁VPN	-10.6658
▁نوبت	-10.6658
▁پیامدهای	-10.6665
▁باری	-10.6674
▁هراس	-10.668
▁سد	-10.6681
▁رسم	-10.6691
▁k	-10.6692
▁زاده	-10.6692
▁متناسب	-10.6704
▁وقایع	-10.6704
▁بخواهیم	-10.6706
مثل	-10.6706
▁روشنایی	-10.6708
▁توافقنامه	-10.6709
▁راهبرد	-10.6719
اک	-10.6725
▁آزمایشات	-10.6736
شن	-10.6737
▁قان	-10.6743
▁4-	-10.6746
▁میکرو	-10.675
▁پورت	-10.6753
▁فعالان	-10.6754
▁احمق	-10.6754
▁مکرر	-10.6755
▁اشتیاق	-10.6757
▁فرکانس	-10.6757
▁درخشان	-10.6757
▁تعویض	-10.6757
▁شباهت	-10.6757
▁اشیاء	-10.6757
▁ناظر	-10.6757
▁صلاحیت	-10.6758
ئو	-10.6759
▁پیچ	-10.676
راق	-10.676
▁روستا	-10.6767
دن	-10.6769
▁تحولات	-10.6771
▁نمودند	-10.6779
▁باب	-10.6788
فر	-10.6795
▁وجو	-10.6798
▁غیرنظامی	-10.681
▁متعادل	-10.681
▁گلوله	-10.6811
▁بکنید	-10.6812
▁المپیک	-10.6813
▁سوپر	-10.6815
▁دایر	-10.6821
▁خوابیدن	-10.6822
زا	-10.6826
▁سخنگوی	-10.6826
▁پیشنهادی	-10.6829
▁طب	-10.6831
▁اختلافات	-10.6832
▁سون	-10.6834
ایش	-10.6841
جمع	-10.6846
▁مارکس	-10.6857
▁کارش	-10.6859
▁کنجکاو	-10.6863
▁HTML	-10.6865
▁همسرم	-10.6866
▁31	-10.6873
▁دانشجوی	-10.6878
▁رضا	-10.6892
▁شناسان	-10.6894
▁دود	-10.6908
00	-10.6914
▁داشتید	-10.6915
▁جزایر	-10.6917
▁درگذشت	-10.6917
▁عادات	-10.6919
▁رادیویی	-10.6921
ig	-10.6927
▁وصل	-10.693
▁عاشقانه	-10.6935
▁شوخی	-10.6955
▁کنگ	-10.6958
▁خدایی	-10.6962
▁ماساژ	-10.6971
▁مشکوک	-10.6971
▁بازتاب	-10.6971
▁بخواهند	-10.6972
▁تعبیر	-10.6977
▁دیکتاتور	-10.6979
▁مردمان	-10.6985
▁فورا	-10.699
▁Me	-10.699
▁آتی	-10.6995
▁پوشیدن	-10.7001
▁تاپ	-10.7012
▁اتهام	-10.702
▁36	-10.702
▁پلاستیکی	-10.7025
▁ظریف	-10.7025
▁گردشگران	-10.703
▁اکسید	-10.7031
▁آفریقایی	-10.7035
▁تاریخچه	-10.7035
▁صرفا	-10.7036
▁فورد	-10.7038
▁پناه	-10.704
▁al	-10.7043
▁شه	-10.7049
▁بینایی	-10.7054
▁قاطع	-10.7057
▁جادویی	-10.7064
▁معیار	-10.7071
▁کشند	-10.7073
▁حبس	-10.7081
▁بازدیدکنندگان	-10.7081
▁لیبرال	-10.7081
▁میزبانی	-10.7084
ض	-10.7085
▁جسم	-10.7088
▁قدیم	-10.709
چین	-10.7096
عکس	-10.7097
▁جین	-10.7099
▁مبادله	-10.7113
دا	-10.7127
▁التحصیل	-10.7128
▁شماری	-10.7134
▁فرشته	-10.7135
خواهی	-10.7137
z	-10.7141
▁مشتاق	-10.7145
رون	-10.7151
▁نکردند	-10.7152
▁زیبای	-10.7161
▁پاهای	-10.7163
▁فارسی	-10.717
▁بوسیل	-10.7176
زرو	-10.718
▁قد	-10.7186
▁دفعه	-10.7189
▁فقدان	-10.719
▁سودمند	-10.7191
▁عضلانی	-10.7191
▁متعال	-10.7191
▁۲۰۱۰	-10.7191
سا	-10.7198
▁بریتانیایی	-10.7201
سی	-10.7203
▁مریم	-10.7203
▁برمی	-10.7215
▁کارگردانی	-10.7229
▁مهندس	-10.7231
▁نت	-10.724
▁پاسخگویی	-10.7241
▁هواپیمایی	-10.7244
▁یخچال	-10.7246
▁نباشند	-10.7247
▁هواداران	-10.725
▁کجاست	-10.7253
▁قطب	-10.7256
▁خبرنگاران	-10.7258
▁ولایت	-10.7267
واحی	-10.7267
▁تایپ	-10.727
گو	-10.7271
دوین	-10.7277
▁تند	-10.728
▁گرگ	-10.7281
▁رابرت	-10.7285
▁جاسوسی	-10.7292
▁پردازند	-10.7293
▁وار	-10.7293
▁زانو	-10.7294
▁بازرسی	-10.7295
▁چهل	-10.73
▁استعفا	-10.7302
▁۲۰۱۲	-10.7302
▁کلمبیا	-10.7302
▁ذرات	-10.7303
▁برتری	-10.7306
علیه	-10.7306
صد	-10.7312
▁روید	-10.7318
▁تونل	-10.7328
▁گور	-10.7336
▁پرهیز	-10.7337
▁ترور	-10.7345
صریح	-10.7347
▁آفریده	-10.7349
دان	-10.7349
▁تطبیق	-10.7358
▁تایمز	-10.7359
کتور	-10.7365
▁دستی	-10.7366
▁ریاضیات	-10.7371
▁سواح	-10.7372
▁الگوهای	-10.739
▁نمودار	-10.7398
▁الف	-10.7398
▁حسی	-10.7402
ol	-10.741
▁پارچ	-10.7411
▁داروی	-10.7412
▁متشک	-10.7414
اسیون	-10.7414
▁وردپرس	-10.7414
▁آنجلس	-10.7415
▁عبادت	-10.7418
▁SEO	-10.7418
▁شفافیت	-10.7419
▁برون	-10.7419
Y	-10.742
اژ	-10.742
▁بدل	-10.7423
▁توانستیم	-10.7427
▁نشستن	-10.743
▁اتم	-10.743
▁هی	-10.7444
▁دبی	-10.7452
▁برش	-10.7457
▁دانشمند	-10.7458
بر	-10.7459
▁خلاص	-10.7463
▁تحرک	-10.7469
▁خان	-10.7471
▁بیایند	-10.7471
▁فروشندگان	-10.7474
▁بتوانم	-10.7478
▁بازاریاب	-10.7486
▁5-	-10.7504
▁اندازد	-10.7509
▁."	-10.751
▁ممنون	-10.7518
▁ابتکار	-10.7519
▁ترکیبات	-10.7523
▁نامناسب	-10.7528
▁زاویه	-10.7528
▁استانبول	-10.7529
▁صاف	-10.753
▁شناسند	-10.7533
▁))	-10.7541
رایانه	-10.7546
▁گویا	-10.7554
▁مرتبه	-10.7558
▁دن	-10.7561
▁زخمی	-10.7569
▁۲۳	-10.7571
▁دکترا	-10.7572
▁۲۰۱۷	-10.7586
▁معاهد	-10.7589
▁قصه	-10.7594
▁هو	-10.7597
▁پشتیبان	-10.7602
▁پیشنهادات	-10.7603
پیچیدگی	-10.761
▁همکار	-10.763
▁وا	-10.7632
قبال	-10.7636
▁آکادمی	-10.764
▁بمباران	-10.7644
▁متأسفانه	-10.7644
▁مرجع	-10.7645
▁نازی	-10.7647
▁پیوستن	-10.7652
▁کشاورزان	-10.7652
▁اهدا	-10.7657
▁قوت	-10.7658
▁خوشبختی	-10.7661
▁عقا	-10.7662
▁یادآور	-10.7665
▁فرآیندها	-10.7675
▁کت	-10.768
▁زبانی	-10.7681
▁سپاه	-10.7687
▁صدر	-10.7688
قصر	-10.7693
▁معقول	-10.7702
اری	-10.7702
▁بالینی	-10.7703
▁نگهبان	-10.7719
▁عظیمی	-10.7725
▁روشنی	-10.773
▁هرکسی	-10.7731
▁کارگری	-10.7741
▁مادری	-10.7746
▁سرزنش	-10.776
▁ابد	-10.7765
▁اندوه	-10.7769
▁اسبا	-10.777
▁محبوبیت	-10.7771
لت	-10.7772
▁آغ	-10.7772
▁مسیحیان	-10.7784
▁وفاداری	-10.7794
▁رویای	-10.7794
در	-10.7815
▁کامیون	-10.7819
▁بسازد	-10.782
▁صدمه	-10.7821
۹	-10.7823
▁مبارزات	-10.7826
▁ارث	-10.784
▁دا	-10.7858
▁نانو	-10.7868
'	-10.787
▁قراردادها	-10.7874
▁مقطع	-10.7878
▁احاط	-10.7878
▁تسلط	-10.7882
▁فیلیپین	-10.7883
▁لپ	-10.7892
▁سپرده	-10.7897
▁فلز	-10.7897
▁پان	-10.79
آن	-10.7903
▁هشتم	-10.7908
▁افزاری	-10.7911
▁پیری	-10.7911
▁بازه	-10.7916
▁متغیر	-10.7916
▁HD	-10.7921
▁فیل	-10.7933
▁65	-10.7936
▁هیتلر	-10.7938
▁نشوید	-10.7938
▁شنوند	-10.7938
▁تعق	-10.7939
▁موی	-10.7939
▁هدر	-10.7942
▁آفرینش	-10.7943
▁کاف	-10.7947
▁پردازنده	-10.7948
▁man	-10.7949
▁دیدند	-10.7953
▁فاز	-10.7954
▁بدنی	-10.7958
▁مولکول	-10.796
▁۲۰۰۰	-10.7977
عهد	-10.7981
▁متری	-10.7982
▁بالاتری	-10.7984
▁ابو	-10.7992
▁امشب	-10.7998
▁توریست	-10.7998
▁فرمودند	-10.801
کا	-10.8012
▁دوری	-10.8018
▁بینش	-10.8028
▁ماهر	-10.8029
▁ط	-10.8037
▁دما	-10.8044
▁150	-10.8048
▁34	-10.8054
ْ	-10.8055
▁گمراه	-10.8058
▁One	-10.8059
▁۲۷	-10.8063
▁شناسد	-10.8069
▁گرداند	-10.807
▁نفره	-10.8079
▁تهاجمی	-10.8082
▁تاکسی	-10.8082
ایز	-10.8083
▁شورش	-10.8096
حال	-10.8099
▁پله	-10.8104
▁re	-10.8105
۲۶	-10.8118
▁بازنشسته	-10.8119
▁الماس	-10.8119
▁اپ	-10.8128
زیابی	-10.8128
سانس	-10.8133
um	-10.8139
▁فرش	-10.8141
ce	-10.8149
▁اروپای	-10.8163
▁پرس	-10.817
نو	-10.8178
▁دستاوردها	-10.8189
▁شکستن	-10.819
رسانی	-10.8193
▁ترانه	-10.8202
▁اشتباهی	-10.8206
▁وفادار	-10.8206
,000	-10.8209
▁مدیره	-10.8212
▁سوری	-10.8218
▁۴۵	-10.8224
دل	-10.8225
▁قاچاق	-10.8241
▁سلطه	-10.8241
▁●	-10.8241
▁مطبوعات	-10.8244
▁کین	-10.8244
▁بیگانه	-10.8247
▁حیوانی	-10.8247
▁ورزشکاران	-10.8247
▁لاک	-10.8249
▁تحلیلگر	-10.8251
▁دادستان	-10.8253
۸	-10.8255
▁سازگاری	-10.8263
▁دوستش	-10.8264
▁بنی	-10.8264
▁بوش	-10.8271
▁استخر	-10.8277
▁آوریم	-10.8278
▁بهبودی	-10.8284
▁مؤمن	-10.8298
غیب	-10.8299
▁iOS	-10.8303
▁1990	-10.8303
▁بنزین	-10.8306
▁وال	-10.8306
▁جهش	-10.8307
▁نکنیم	-10.8307
▁کارفرمایان	-10.831
▁رگ	-10.831
▁بنظر	-10.8311
عجله	-10.8313
▁امروزی	-10.8317
▁کری	-10.8317
▁منظر	-10.8319
ژ	-10.8328
▁فراگیر	-10.8345
▁حامی	-10.835
▁سرطانی	-10.836
مرطوب	-10.8365
▁گرجستان	-10.8365
▁هیچوقت	-10.8365
▁تعلیم	-10.8365
▁تجارب	-10.8366
▁پکن	-10.8368
▁نوین	-10.8369
▁عزت	-10.8371
ری	-10.8382
▁آسیایی	-10.8388
▁اچ	-10.8389
▁گفتیم	-10.8394
▁تیمی	-10.8408
▁مقدمه	-10.8408
▁جنسیتی	-10.8415
▁بلژیک	-10.8427
▁اعصاب	-10.8427
▁اشعه	-10.8429
▁معتقدم	-10.8431
▁خاطره	-10.8433
▁بیا	-10.8434
▁هیات	-10.8439
▁شهروندی	-10.844
▁نسبی	-10.8446
▁ترسیم	-10.8449
▁تاثیرگذار	-10.8449
▁یاران	-10.8451
▁داران	-10.8454
کل	-10.8455
▁پستان	-10.8465
▁My	-10.8466
▁دنیایی	-10.8478
▁War	-10.8484
▁مباحث	-10.849
▁تلسکوپ	-10.849
▁مزرعه	-10.849
▁پروفسور	-10.849
▁اسرار	-10.8492
▁مارتین	-10.8493
▁گیج	-10.8494
▁بیستم	-10.8494
▁امیر	-10.8498
▁طرفی	-10.8502
حدس	-10.8507
▁مترو	-10.8509
▁نمایان	-10.851
▁33	-10.8511
▁اعتراضات	-10.8512
اء	-10.8519
▁مستقیما	-10.852
ران	-10.8521
▁خاتم	-10.8521
▁تفریح	-10.8522
▁پلت	-10.8525
يل	-10.8541
▁ناخواسته	-10.8553
▁کاتولیک	-10.8553
▁سفیر	-10.8554
▁بلا	-10.8555
▁2003	-10.8555
▁بازخورد	-10.8557
▁سیاستمداران	-10.8561
▁احیا	-10.8567
▁بقای	-10.8569
▁شیو	-10.8585
▁بک	-10.8586
▁واحدها	-10.8587
▁آشپزی	-10.8587
▁رویاهای	-10.8588
دوام	-10.8589
▁مؤسس	-10.86
▁نکن	-10.8601
مه	-10.861
▁روبات	-10.8614
▁قو	-10.8615
▁تقلب	-10.8617
▁برسیم	-10.8626
▁انتخاباتی	-10.8633
▁48	-10.8636
▁or	-10.8641
▁نگاران	-10.8645
▁v	-10.8648
▁بهانه	-10.8649
se	-10.8654
▁جیب	-10.8655
▁سردرد	-10.8657
▁خدایان	-10.867
▁قیام	-10.8671
▁قومی	-10.8674
براي	-10.8675
▁یونانی	-10.8677
آیا	-10.868
تمدید	-10.8681
▁مغناطیس	-10.8681
▁محترم	-10.8681
▁باطل	-10.8681
▁اتوماتیک	-10.8681
▁وحدت	-10.8681
▁براى	-10.8683
▁یوگا	-10.8683
▁شراب	-10.8685
▁بخشیدن	-10.869
توانید	-10.8701
▁بازده	-10.8702
▁اجتماع	-10.8707
▁قاعد	-10.8724
▁39	-10.8728
▁شوی	-10.8733
نشریه	-10.8735
بینی	-10.8735
▁برقی	-10.8736
_	-10.8741
▁جعلی	-10.8742
▁اعزام	-10.8746
▁گرسنه	-10.8746
▁مبارک	-10.8746
▁2005	-10.8747
▁پوتین	-10.8747
▁عید	-10.8754
▁کامپیوترها	-10.8761
▁وگو	-10.8763
▁سؤالات	-10.8774
ئید	-10.8779
▁پرت	-10.8781
▁هک	-10.8782
شود	-10.8789
▁بلد	-10.8792
▁You	-10.8798
تن	-10.8804
▁یادم	-10.8805
روف	-10.8806
▁درایو	-10.8809
▁ذخای	-10.8811
▁ژنرال	-10.8811
▁((	-10.8812
▁بست	-10.8815
▁کارآفرینی	-10.8816
▁دلخواه	-10.8816
▁ديگر	-10.882
▁عینک	-10.8824
اقت	-10.883
▁مهاجم	-10.8834
فت	-10.8834
نگی	-10.8834
▁واگذار	-10.8848
▁پسرش	-10.8857
▁نداد	-10.8867
▁نقدی	-10.8868
▁بنابر	-10.8872
▁تکراری	-10.8872
▁بپردازید	-10.8876
▁معکوس	-10.8876
▁جسد	-10.8876
▁رانندگان	-10.8876
▁مریخ	-10.8876
▁۲۰۰۹	-10.8876
زی	-10.8884
▁نامند	-10.8887
▁کیت	-10.8891
▁شاعر	-10.8897
▁تاب	-10.8897
ur	-10.8897
▁میانه	-10.8902
▁شفا	-10.8904
▁سل	-10.8911
▁زنم	-10.8913
▁دارا	-10.8914
غ	-10.892
▁95	-10.8925
▁پیتر	-10.8928
▁ء	-10.893
▁دیوارها	-10.8937
▁لیو	-10.8941
▁مذکور	-10.8942
▁شمشیر	-10.8942
▁مستقیماً	-10.8942
▁نامحدود	-10.8945
▁لوکس	-10.8945
▁پیغام	-10.8947
▁سوسیالیست	-10.8951
▁نیافت	-10.8964
▁چهارمین	-10.8982
▁چرب	-10.8985
▁پویا	-10.8985
▁ارای	-10.8986
ro	-10.8986
▁القا	-10.8994
▁عبارات	-10.9008
▁USB	-10.9008
ch	-10.9011
▁ISO	-10.9012
▁فرانک	-10.9014
▁منصفانه	-10.9014
▁نگفت	-10.9015
▁شاگردان	-10.9018
▁لوگو	-10.9019
▁سید	-10.9019
▁فدراسیون	-10.902
▁صریح	-10.9021
▁صح	-10.9035
▁...»	-10.9047
▁بخار	-10.9052
▁پارا	-10.9056
▁دفع	-10.9069
بار	-10.907
خودآگاه	-10.9074
توطئه	-10.9075
▁غزه	-10.9075
▁یوسف	-10.9075
▁هرچیز	-10.9076
▁علاقمند	-10.9076
▁کنسرت	-10.9077
▁سودآور	-10.9079
▁اخیراً	-10.908
▁سرما	-10.9082
▁قهرمانی	-10.9085
▁De	-10.9092
▁نشین	-10.9094
▁ایکس	-10.9094
▁کمپ	-10.9099
▁خبرنگار	-10.9102
دال	-10.9106
یست	-10.911
▁برداشتن	-10.9111
▁پرست	-10.9113
▁مار	-10.9116
▁خوشحالم	-10.9116
▁آلات	-10.9121
▁ژنو	-10.9124
▁تس	-10.9134
▁URL	-10.9142
▁بپردازد	-10.9142
▁بایگانی	-10.9142
▁غبار	-10.9142
▁بیاورند	-10.9142
▁گونگ	-10.9148
▁شهرداری	-10.915
▁آستانه	-10.9151
▁For	-10.9156
▁دستیار	-10.9156
▁ساختارها	-10.9159
▁نظامیان	-10.9165
▁شع	-10.9176
▁ره	-10.9176
▁گرفتیم	-10.9184
▁آموخت	-10.9187
▁میتوان	-10.9193
▁پایانی	-10.9209
▁ناخوشایند	-10.9209
▁بطری	-10.9211
▁(1)	-10.9214
un	-10.9216
▁دوازده	-10.9224
▁اکو	-10.9235
▁):	-10.9246
▁ation	-10.925
▁فلزی	-10.9252
▁55	-10.9258
▁گناهان	-10.9266
▁عراقی	-10.9268
▁مقاوم	-10.9268
▁بعداً	-10.9271
▁ترسید	-10.9271
▁بازگرداندن	-10.9272
▁آخرت	-10.9275
▁توانی	-10.9277
▁بپردازند	-10.9277
▁ستایش	-10.9279
▁مختصر	-10.9281
lo	-10.9285
▁حسابرس	-10.9293
فایل	-10.9296
▁برجام	-10.9296
▁افشا	-10.9304
▁انگشتان	-10.9313
▁فراخوان	-10.9314
شه	-10.9315
▁ول	-10.932
▁ساختاری	-10.9322
▁85	-10.9325
کش	-10.9325
▁نش	-10.9327
▁هفتم	-10.9327
▁داوطلب	-10.9329
▁پذیرد	-10.9337
عامل	-10.9342
یچه	-10.9344
▁تعلیق	-10.9346
▁حیرت	-10.9346
▁کلینتون	-10.9346
▁انتقام	-10.9346
▁محرمانه	-10.9347
▁تقلید	-10.9348
▁ببریم	-10.9348
▁مأمور	-10.9348
▁سازندگان	-10.9348
▁سلسل	-10.9353
▁تجمع	-10.9354
▁ساعته	-10.9356
▁حامیان	-10.9362
راه	-10.9364
▁بیوتیک	-10.9367
▁فاش	-10.938
▁بزرگسال	-10.9381
▁انتخابی	-10.9386
▁دف	-10.9386
▁بادی	-10.9387
▁روستای	-10.939
▁دستورات	-10.9393
▁نگاری	-10.9395
▁اتریش	-10.9415
▁ماجراجویی	-10.9415
▁سکونت	-10.9416
▁كنید	-10.9416
▁خشن	-10.9419
▁مجل	-10.9419
▁تگ	-10.9431
▁تپه	-10.9431
▁چت	-10.9436
▁Be	-10.944
▁آسیای	-10.944
▁سازه	-10.945
▁پخت	-10.9459
▁وحش	-10.9461
▁خجالت	-10.9465
▁ایستاد	-10.9465
لامپ	-10.9484
▁ظلم	-10.9484
▁قارچ	-10.9485
▁خاکستر	-10.9485
▁نابرابر	-10.9485
▁حاملگی	-10.9486
▁اردن	-10.9488
وری	-10.9489
co	-10.9493
▁یابید	-10.9498
▁تار	-10.9502
▁Q	-10.9509
▁آزادانه	-10.9512
▁برگرداند	-10.9521
▁گرامی	-10.9523
جا	-10.9526
▁پور	-10.9529
▁شعب	-10.953
▁نوآوران	-10.9534
▁آباد	-10.9541
▁آماری	-10.9541
▁نظری	-10.9544
▁فضاهای	-10.9544
▁بغداد	-10.9554
▁تناسب	-10.9554
▁فروپاش	-10.9554
▁آرشیو	-10.9554
▁1980	-10.9554
▁Home	-10.9554
▁وسوسه	-10.9555
▁ماندگار	-10.9555
▁کیهان	-10.9555
▁پاییز	-10.9555
▁خشمگین	-10.9555
▁رصد	-10.9556
ّت	-10.9556
▁پنیر	-10.9556
▁دردسر	-10.956
▁شجاعت	-10.9562
▁اتهامات	-10.9566
تحرک	-10.9569
▁خوانند	-10.9575
▁دبیر	-10.9581
▁حکمت	-10.9589
▁بازگرداند	-10.9599
▁ــ	-10.96
▁چال	-10.9607
رو	-10.9609
▁معترض	-10.9615
▁ماژول	-10.9625
▁شیعه	-10.9625
▁نروژ	-10.9625
▁بخرید	-10.9625
▁توهین	-10.9627
ولت	-10.9629
▁مادی	-10.9632
▁سحر	-10.9638
▁اثربخش	-10.9645
▁دستگیری	-10.9645
▁ویل	-10.9649
انا	-10.9659
▁کمر	-10.9668
▁صداهای	-10.9668
▁کمدی	-10.967
▁مدیریتی	-10.9675
جی	-10.968
▁گنج	-10.9682
واک	-10.9683
عرفه	-10.9686
▁مختل	-10.9694
▁موقعیتی	-10.9694
▁آسانسور	-10.9696
▁متداول	-10.9696
▁2004	-10.9697
▁شرم	-10.9701
▁WEB	-10.9704
▁انس	-10.9705
▁لیتر	-10.9712
▁راهکار	-10.9712
▁مهندسان	-10.9714
▁انتقادی	-10.9718
روژن	-10.9725
▁تضاد	-10.9728
لحق	-10.9732
را	-10.9734
▁شدگان	-10.9745
▁هرکس	-10.9751
▁دیپلم	-10.9758
▁قهرمانان	-10.9758
▁تجسم	-10.9767
▁فیلسوف	-10.9767
▁مقاصد	-10.9767
▁هرکدام	-10.9767
▁۲۸	-10.9767
▁شنوایی	-10.9768
▁خوشحالی	-10.9769
▁ed	-10.9771
▁ملیت	-10.9772
▁2)	-10.9777
▁ماری	-10.9796
▁بردارید	-10.98
▁متخصصین	-10.981
▁مم	-10.9815
ie	-10.9821
▁كس	-10.9828
ast	-10.9832
▁کاشت	-10.9833
▁آذربایجان	-10.9839
▁خداحافظ	-10.9839
▁صبور	-10.9839
▁پنجشنبه	-10.9839
▁منفجر	-10.9839
▁گالری	-10.9839
▁جریمه	-10.9839
▁بشناسید	-10.9839
▁تکذ	-10.9841
▁بدیهی	-10.9842
▁World	-10.9843
▁يك	-10.9845
▁عباس	-10.9845
▁ادی	-10.9849
▁انداختن	-10.9849
▁دفا	-10.9857
▁سارا	-10.9861
▁کوش	-10.9861
▁کیک	-10.9862
▁ناخ	-10.9865
▁حج	-10.9869
▁ارزها	-10.9879
▁۰	-10.9885
▁افراطی	-10.989
▁آرایش	-10.9891
▁انگیزی	-10.99
▁صلیب	-10.9901
ra	-10.9904
تثبیت	-10.9911
▁فرشتگان	-10.9911
▁مادربزرگ	-10.9911
▁بلندمدت	-10.9911
▁ببخشید	-10.9912
▁**	-10.9912
▁بگذاریم	-10.9913
▁ترمیم	-10.9914
▁اقتصاددان	-10.9914
▁احمقانه	-10.9916
ma	-10.9917
ad	-10.9918
▁شرکتی	-10.9922
▁جذابیت	-10.9925
om	-10.9934
▁دستش	-10.9945
▁ریخته	-10.9962
▁دوستانم	-10.9971
▁دانمارک	-10.9973
▁متنفر	-10.9977
▁زحمت	-10.9984
▁انسولین	-10.9984
▁برسانید	-10.9985
▁برسانند	-10.9985
▁۲۰۰۸	-10.9985
▁بکشند	-10.9986
▁جانشین	-10.9987
▁‘	-10.9988
▁نوزدهم	-10.999
▁بت	-10.9991
▁جاوا	-10.9991
to	-10.9992
گراف	-10.9994
▁آرمان	-10.9995
یلیون	-11.0004
گن	-11.0012
▁38	-11.0015
▁120	-11.0016
▁درمانگر	-11.0016
▁بجای	-11.0024
ri	-11.0028
▁بشک	-11.0029
na	-11.003
▁اى	-11.0037
▁تجربی	-11.0042
▁همگان	-11.0048
سل	-11.0049
▁حامل	-11.0056
▁کاست	-11.0056
▁قم	-11.0057
▁قواعد	-11.0058
▁همیشگی	-11.0058
▁خنث	-11.0058
▁نوبل	-11.0063
▁حرام	-11.0063
تی	-11.0064
▁نرمال	-11.0071
▁آزمایشگاهی	-11.0072
ابت	-11.0077
▁مسیحیت	-11.0085
▁1)	-11.0088
▁زیستی	-11.0091
▁قوا	-11.0095
▁is	-11.0096
ir	-11.0097
▁Man	-11.0099
▁خل	-11.01
▁ضخ	-11.0108
▁متقاضی	-11.0117
ائی	-11.0122
▁شخصیتی	-11.0128
▁منظوم	-11.0132
▁انبوه	-11.0132
▁نازل	-11.0132
▁شستشو	-11.0132
▁تداو	-11.0134
▁بنیانگذار	-11.0136
▁بکنند	-11.0136
▁اسپرم	-11.0136
▁هوشیار	-11.0144
ly	-11.0144
▁پایبند	-11.0144
▁کال	-11.0151
▁شناسم	-11.0151
▁ارت	-11.0152
▁سلولی	-11.0152
▁نشانگر	-11.0164
▁قیمتی	-11.0181
▁نیو	-11.0184
ex	-11.0195
▁تاج	-11.0195
▁زشت	-11.0198
برگزاری	-11.0199
▁محافظ	-11.0206
▁رمزنگاری	-11.0207
▁مجاهد	-11.0207
▁Windows	-11.0207
▁معاین	-11.0207
▁وکلا	-11.0208
▁خدم	-11.0214
استفاده	-11.0217
▁امری	-11.0218
▁۲٫	-11.0218
▁امان	-11.022
▁دیدیم	-11.0231
▁یون	-11.0238
▁نرسیده	-11.0238
▁w	-11.0245
▁زدم	-11.0261
▁داوطلبانه	-11.0262
▁37	-11.0264
▁بوت	-11.0266
▁گازها	-11.0267
▁دانی	-11.0268
▁دندانپزشک	-11.0275
▁شیکاگو	-11.0282
▁کنوانسیون	-11.0282
تصفیه	-11.0282
▁کوانتوم	-11.0282
نتانیاهو	-11.0282
▁زغال	-11.0282
▁تعالی	-11.0282
▁۲۰۱۹	-11.0283
▁حدیث	-11.0283
▁رونمایی	-11.0285
te	-11.0285
-1	-11.0293
▁خصوصیات	-11.0293
طه	-11.0297
▁سفرهای	-11.0302
۱۰	-11.0308
▁نکردم	-11.0312
▁La	-11.0322
▁پاس	-11.0323
▁600	-11.0324
▁Wi	-11.0326
▁خوار	-11.0329
وک	-11.0333
▁شناسیم	-11.0338
▁تابستانی	-11.0338
▁صدق	-11.034
▁کام	-11.0347
پر	-11.0347
ّه	-11.035
▁خواندم	-11.0351
▁دگرگون	-11.0352
▁انحصاری	-11.0354
▁اردوغان	-11.0358
▁دعوا	-11.0358
▁رادیکال	-11.0358
▁سنگاپور	-11.0358
▁سوراخ	-11.0358
▁کیلوگرم	-11.0358
▁تمایز	-11.0358
▁Play	-11.0358
▁خالق	-11.0358
▁مؤسسه	-11.036
▁نشوند	-11.0362
la	-11.0363
▁یافتند	-11.0366
▁پوش	-11.0366
▁نم	-11.0379
▁آمدید	-11.038
▁مجسم	-11.0383
▁۳۰۰	-11.0384
▁تاسیسات	-11.0388
▁پیروان	-11.04
▁چاقی	-11.0402
▁قرو	-11.0419
▁دغدغ	-11.0434
▁جواهر	-11.0434
▁PS	-11.0434
▁میخواهید	-11.0434
▁خاندان	-11.0434
▁علیر	-11.0442
▁کوشش	-11.0443
ً	-11.0444
▁نداشتیم	-11.0446
▁سکت	-11.046
▁z	-11.046
وپ	-11.0464
▁ارگان	-11.0466
▁نشر	-11.0466
▁فرضیه	-11.0473
ry	-11.0476
▁غار	-11.0494
۲۰	-11.05
▁صمیمی	-11.0501
▁شست	-11.0503
▁مشت	-11.051
▁سرنگون	-11.0511
▁نازک	-11.0511
▁جرایم	-11.0511
▁University	-11.0511
▁حول	-11.0514
▁مرگبار	-11.0515
10	-11.0522
▁فلسف	-11.0523
▁برم	-11.0523
▁پراکنده	-11.0528
▁دلش	-11.0537
▁99	-11.0541
▁انبار	-11.0557
▁ابداع	-11.0579
بعید	-11.0584
▁پال	-11.0587
▁مثاب	-11.0588
▁ناخالص	-11.0588
▁توازن	-11.0588
▁جسمانی	-11.0589
▁۲۰۰۵	-11.0589
▁جملات	-11.059
▁مق	-11.0592
▁بازیافت	-11.0593
▁جانسون	-11.0594
▁خورید	-11.0595
▁تفاهم	-11.0597
▁تایوان	-11.0602
▁لطفاً	-11.0603
il	-11.0608
▁جوی	-11.0616
▁تونی	-11.0616
▁برگزیده	-11.0618
▁پوستی	-11.0622
▁امتیازات	-11.0622
▁آفرید	-11.0627
▁پرسیدم	-11.0628
▁پرتو	-11.063
▁لزوما	-11.0634
أ	-11.0635
▁موها	-11.0638
▁کارآفرین	-11.0652
▁أ	-11.0655
▁عصب	-11.0666
▁اذعان	-11.0666
▁انحراف	-11.0666
▁تگزاس	-11.0666
▁محاصر	-11.0666
▁پلاگین	-11.0666
▁بارسلونا	-11.0667
▁ربود	-11.0667
▁پروستات	-11.0667
▁اقلیمی	-11.0668
▁بخورند	-11.0668
▁همسایگان	-11.0669
▁خودروساز	-11.0671
▁مکانیسم	-11.0672
بریک	-11.0677
▁کارآفرینان	-11.0681
▁دویدن	-11.0681
▁زیباترین	-11.0682
▁گیم	-11.0682
Q	-11.069
تیک	-11.0693
▁رحمان	-11.0697
▁پنل	-11.0697
▁لایح	-11.0698
بان	-11.0699
▁ایزو	-11.0705
▁اینچ	-11.0709
▁نبودم	-11.0713
▁تانک	-11.0713
▁اکتشاف	-11.0717
▁گرایانه	-11.0719
كن	-11.0723
▁گذاشتند	-11.0724
▁چوبی	-11.0736
PS	-11.0743
▁پرسنل	-11.0745
▁نهفته	-11.0745
▁1999	-11.0746
▁فتح	-11.0746
انت	-11.0746
▁سیا	-11.0746
▁صهیونیست	-11.0746
▁روانشناس	-11.0746
▁تولیدکنندگان	-11.0747
▁رویم	-11.0747
st	-11.0749
▁بکنم	-11.0749
▁عطر	-11.0759
▁اسمیت	-11.0762
▁مکانیک	-11.0762
▁افتادن	-11.0777
▁ستم	-11.078
▁نخورد	-11.0781
▁پسرم	-11.0788
▁موثرتر	-11.0795
ate	-11.0795
io	-11.0804
▁PC	-11.0806
▁خطی	-11.0823
▁Microsoft	-11.0825
▁منتخب	-11.0825
▁پنتاگون	-11.0825
▁داوود	-11.0825
▁کلسیم	-11.0826
▁پودر	-11.0826
▁اعضا	-11.0826
▁مزایا	-11.0827
وند	-11.083
ونگ	-11.0835
۰	-11.0839
▁دوگانه	-11.0839
▁کشش	-11.0839
▁جامد	-11.0844
▁رکو	-11.0848
▁نداشتن	-11.0856
▁ادا	-11.086
گرفته	-11.086
▁تراش	-11.0873
pe	-11.0881
▁داشتنی	-11.0883
▁مترجم	-11.089
▁جن	-11.0893
▁64	-11.0901
▁ادراک	-11.0905
▁امپراطور	-11.0905
▁مجارستان	-11.0905
▁واجب	-11.0905
▁ارباب	-11.0905
▁قبر	-11.0906
یپ	-11.0907
▁احمد	-11.0908
▁پارکینگ	-11.0908
كه	-11.091
▁عیب	-11.091
▁ایرانیان	-11.0911
بندی	-11.0914
▁ثانویه	-11.0914
▁نیوز	-11.0918
▁شهردار	-11.0918
org	-11.0919
چرا	-11.092
▁تف	-11.0931
تحمل	-11.0935
ss	-11.0946
▁حرفی	-11.095
ختم	-11.0969
▁بقا	-11.0981
▁ایدز	-11.0983
اتیک	-11.0985
▁رطوب	-11.0985
▁مجزا	-11.0985
▁واژن	-11.0986
▁دوستانش	-11.0987
▁چارلز	-11.0987
▁هدفمند	-11.0987
▁مجری	-11.0988
▁علایم	-11.099
ساکت	-11.1
ine	-11.1008
▁سینمایی	-11.1021
▁غالبا	-11.1026
▁نر	-11.103
▁محدودی	-11.1037
▁کشورش	-11.1051
▁43	-11.1054
▁قدمت	-11.1055
▁گفتگوی	-11.1066
▁ارجاع	-11.1066
▁حشرات	-11.1066
▁حفر	-11.1068
▁2001	-11.1069
▁گرمایش	-11.1076
▁رویا	-11.1077
▁No	-11.1092
▁بانکداری	-11.1093
▁نوشتار	-11.1095
مال	-11.1098
▁زیرزمینی	-11.1105
یّت	-11.1105
▁قله	-11.1106
40	-11.1113
تا	-11.1113
▁IT	-11.1122
▁Co	-11.1124
ne	-11.1131
رس	-11.114
▁ساختمانی	-11.1142
▁ایدئولوژی	-11.1142
▁1970	-11.1149
▁غرور	-11.1149
▁ايران	-11.1149
▁تلف	-11.115
▁گزار	-11.115
▁بحرین	-11.115
ــ	-11.1151
▁ذ	-11.1159
یعنی	-11.1164
J	-11.1166
▁دادید	-11.1167
▁عموما	-11.1174
▁47	-11.1175
▁شنیدم	-11.1179
پس	-11.1181
▁افزودن	-11.1182
▁پوشاند	-11.1198
یز	-11.1201
▁ظاهری	-11.1204
▁نخب	-11.1206
▁۱۰۰۰	-11.1218
▁داو	-11.122
دگی	-11.1221
The	-11.1228
ضم	-11.1228
▁تقصیر	-11.1231
▁مبهم	-11.1231
▁گذراندن	-11.1232
▁بیابان	-11.1233
▁تقویم	-11.1233
▁New	-11.1236
▁بارور	-11.1237
▁شکوه	-11.1238
▁بزنم	-11.1239
▁پرتغال	-11.1239
▁جادو	-11.124
▁سفت	-11.1241
▁ذره	-11.1248
▁کلا	-11.1252
▁پو	-11.1256
▁کسر	-11.1258
▁ترم	-11.1259
mi	-11.1259
▁نیامده	-11.1266
▁سودان	-11.1267
▁وحی	-11.1268
خیر	-11.1271
لو	-11.1275
▁کریس	-11.1279
▁دختری	-11.1279
▁خر	-11.1285
▁پانزده	-11.1286
▁پدران	-11.129
▁ناو	-11.1308
▁An	-11.1314
▁ارمنستان	-11.1314
▁سوژه	-11.1314
▁مکانیکی	-11.1314
▁نیجریه	-11.1315
▁شکوفا	-11.1315
▁توالت	-11.1318
▁مبارز	-11.1324
▁جهاد	-11.1324
▁دیپلمات	-11.1324
۵۰	-11.1325
کند	-11.1328
▁۶۵	-11.1329
▁مقرر	-11.1335
یلر	-11.1338
▁]]	-11.134
▁هرگاه	-11.1343
▁روب	-11.1345
▁عزیزان	-11.1352
▁تاجر	-11.1353
▁شناسید	-11.1361
▁¬	-11.1365
▁له	-11.137
▁Con	-11.1371
▁غافل	-11.1374
▁44	-11.138
▁تأخ	-11.1382
▁شجاع	-11.1386
▁طرفین	-11.1388
ابق	-11.1392
▁موزیک	-11.1393
▁سرپرست	-11.1394
▁گروگان	-11.1397
▁مسیرها	-11.1397
▁۱۹۷۰	-11.1399
▁احکام	-11.1399
▁تبلت	-11.1399
▁فلج	-11.1399
▁معدود	-11.1399
▁خزانه	-11.1399
▁ناکام	-11.14
▁شیخ	-11.14
▁تسکین	-11.14
▁چاقو	-11.1405
▁ناشر	-11.1407
est	-11.1411
۰۰	-11.1418
▁خواستیم	-11.1419
▁Le	-11.1423
حتا	-11.1425
▁هردو	-11.1427
▁پرش	-11.1427
▁ترسند	-11.1429
▁فراز	-11.1431
اسپورت	-11.1434
▁لخت	-11.1435
▁فلا	-11.1437
▁مقدماتی	-11.1444
▁خو	-11.1451
▁استیو	-11.1452
پا	-11.146
▁پروت	-11.1467
قام	-11.1478
▁نیوزیلند	-11.1483
▁صراحت	-11.1483
▁خفیف	-11.1483
▁اطرافیان	-11.1485
▁سرشار	-11.1485
▁مشروع	-11.1486
▁تابعیت	-11.1488
.6	-11.1489
▁شورشیان	-11.1492
▁Mac	-11.1494
▁۲۹	-11.1496
▁خوراک	-11.1497
سک	-11.1497
ثه	-11.1499
▁ریچارد	-11.1503
▁MS	-11.1514
▁شهدا	-11.1518
▁--	-11.153
▁محتوایی	-11.1537
دی	-11.1537
▁بریم	-11.1539
▁CD	-11.154
▁مجرمان	-11.1541
▁طر	-11.1546
[	-11.1548
▁گستر	-11.1552
▁استعمار	-11.1557
▁تکمیلی	-11.1566
▁بگذار	-11.1566
▁جاودان	-11.1567
▁اسکار	-11.157
▁ویلیام	-11.157
▁شیعیان	-11.1572
▁حماس	-11.1572
▁هفتاد	-11.1572
▁Red	-11.1574
▁محتمل	-11.1576
▁چنگ	-11.158
الیز	-11.158
▁مقر	-11.1583
▁سخنران	-11.1585
كر	-11.1589
▁نتواند	-11.1589
da	-11.1592
▁فرستند	-11.1596
▁نویسم	-11.1606
نق	-11.1635
مندان	-11.1646
▁بتا	-11.1647
▁دیوان	-11.1648
▁مجروح	-11.1655
▁مظنون	-11.1655
▁گمشده	-11.1655
▁کاپیتان	-11.1655
▁سونی	-11.1656
▁لینوکس	-11.1659
ian	-11.167
>	-11.1673
▁برگه	-11.1679
▁کارآموزی	-11.1682
▁بیولوژیکی	-11.1693
▁نوشتم	-11.1702
▁فل	-11.1707
▁اعتقادات	-11.1712
▁خواهش	-11.1718
▁غ	-11.1721
▁مض	-11.1722
▁بز	-11.1724
▁تأثیرگذار	-11.173
کسی	-11.173
▁تونس	-11.1731
▁رسان	-11.1731
▁هاروارد	-11.1742
▁توماس	-11.1742
▁سپاس	-11.1742
▁جماه	-11.1742
▁Web	-11.1742
▁سقط	-11.1742
▁کابوس	-11.1742
▁ناشناس	-11.1742
▁وطن	-11.1743
▁ماجرای	-11.1744
▁افسرده	-11.1745
▁مسیری	-11.1745
▁جلد	-11.1746
▁منظره	-11.1747
▁گانه	-11.1752
▁عملا	-11.1753
▁سنا	-11.1766
▁زر	-11.1768
▁مچ	-11.1769
▁مصری	-11.177
▁خیابانی	-11.1804
▁ابزارها	-11.1807
▁نامش	-11.1813
▁Al	-11.182
ve	-11.1828
▁برانگیخت	-11.183
▁کثیف	-11.183
▁بیابید	-11.183
▁معاف	-11.183
▁معادن	-11.1831
▁تصرف	-11.1832
▁عکاس	-11.1834
▁کانون	-11.1834
▁روزگار	-11.1837
امت	-11.1838
os	-11.1841
▁حاد	-11.1844
+	-11.1845
▁تورنتو	-11.1846
▁هیدروژن	-11.1847
▁چن	-11.1855
▁ببر	-11.1856
▁تبع	-11.186
کار	-11.1861
▁مهربانی	-11.1867
▁کاس	-11.1868
▁۱۵۰	-11.1871
▁الا	-11.1876
▁نما	-11.1887
جانب	-11.1889
RI	-11.1894
▁بدانم	-11.1895
▁ث	-11.1897
▁نژادی	-11.1901
▁51	-11.1902
▁اَ	-11.1902
▁سنگی	-11.1914
▁امتناع	-11.1918
▁بلوغ	-11.1918
▁قریب	-11.1918
▁زودرس	-11.1919
▁جابجایی	-11.192
▁فعلا	-11.1921
▁زنیم	-11.1921
▁خوک	-11.1923
▁نوسان	-11.1923
▁Black	-11.1924
▁فریم	-11.1925
▁دعای	-11.1929
▁اعظم	-11.1932
▁لق	-11.1932
گشایی	-11.194
▁نوجوانی	-11.1944
▁افق	-11.1947
▁بشار	-11.1949
تل	-11.1952
▁سرم	-11.1961
▁کوچ	-11.1962
▁شیرینی	-11.1965
▁استادان	-11.1966
▁نخواهم	-11.1976
▁منظورم	-11.1981
باق	-11.1984
▁انی	-11.1986
ac	-11.199
▁جوری	-11.1993
▁مردانه	-11.1996
▁بردم	-11.1998
!»	-11.2005
سلط	-11.2006
واضع	-11.2006
▁اورشلیم	-11.2007
▁باقیمانده	-11.2007
▁جنایات	-11.2007
▁فواید	-11.2007
▁تحقیر	-11.2007
▁جناح	-11.2007
▁خمینی	-11.2008
▁مهلت	-11.2008
▁موجودی	-11.2008
▁حجاب	-11.2009
▁انجیل	-11.2009
▁خرس	-11.2009
▁توهم	-11.2011
▁بخواند	-11.2012
▁انط	-11.2016
انگ	-11.2027
▁کشاند	-11.2029
▁پاسخگو	-11.2032
▁موسو	-11.2034
▁فهمیدم	-11.2038
▁حرکتی	-11.2041
▁an	-11.2044
مع	-11.205
▁عضوی	-11.2058
▁پیدایش	-11.2062
▁جلوتر	-11.2066
مر	-11.2076
▁Car	-11.2079
▁دستاورد	-11.2083
▁رول	-11.2086
▁نیل	-11.2089
▁فنلاند	-11.2097
▁توکیو	-11.2098
فاسد	-11.2099
▁ناقص	-11.2099
▁پناهگاه	-11.21
▁کودکانی	-11.2101
▁افتند	-11.2105
im	-11.2107
▁کیم	-11.2108
راست	-11.211
۱۹	-11.2112
تلفات	-11.2116
▁نامگذاری	-11.2119
▁اسکاتلند	-11.2119
▁احتیاط	-11.2119
جمله	-11.2121
▁منتقدان	-11.2121
▁دانستید	-11.2122
وظ	-11.2124
▁کالاها	-11.2129
am	-11.213
▁en	-11.213
▁خصوصا	-11.2138
▁٫	-11.2142
▁اک	-11.2145
يم	-11.2154
▁آمدم	-11.2158
▁ادعاهای	-11.2171
▁علن	-11.2175
ell	-11.2176
▁فاطمه	-11.2188
▁پیراهن	-11.2188
▁بفهمید	-11.2189
▁بنوشید	-11.219
▁مهدی	-11.2192
▁2002	-11.2192
▁[[	-11.2199
ير	-11.2199
▁معمار	-11.2201
▁لرزه	-11.2206
▁لای	-11.2208
نشان	-11.2208
▁800	-11.2211
▁رفتیم	-11.2219
▁برادرش	-11.2221
▁آسم	-11.2222
وسترو	-11.2228
▁تفریحی	-11.2233
▁خشکی	-11.2239
جو	-11.2243
▁عمدت	-11.2248
▁اطلاعی	-11.225
▁خوان	-11.2258
▁۱٫	-11.226
▁انجامید	-11.2263
وگرافی	-11.2264
▁اولی	-11.2269
▁متابولی	-11.227
▁دزدی	-11.2275
▁کودتا	-11.228
▁ثمر	-11.228
▁نگیرید	-11.228
▁زیتون	-11.2281
▁پیکسل	-11.2281
▁Go	-11.2283
▁محتویات	-11.2283
▁میرند	-11.2283
▁بخورد	-11.2285
▁پرسد	-11.2292
▁فون	-11.2297
▁صفات	-11.2299
▁سانتی	-11.2304
حرف	-11.2306
▁افراط	-11.2308
▁گریز	-11.2308
▁گذاشتم	-11.2315
▁نهایتا	-11.2317
▁نیروها	-11.2318
▁گیرم	-11.2328
شمول	-11.233
▁49	-11.233
▁ابدی	-11.2334
▁پاها	-11.2337
بانی	-11.2346
ظ	-11.2347
▁درصدی	-11.2356
فن	-11.2361
فرد	-11.2364
بو	-11.2371
▁عفو	-11.2372
▁تداخل	-11.2373
▁سزاوار	-11.2373
▁تراکنش	-11.2373
▁مجاور	-11.2373
▁میگیرد	-11.2373
▁پناهندگی	-11.2373
▁غروب	-11.2373
▁تصدیق	-11.2373
▁حسادت	-11.2373
▁بندگان	-11.2374
▁افزاید	-11.2374
▁غمگین	-11.2374
▁عبدالله	-11.2374
▁بخوانند	-11.2374
▁زدایی	-11.2376
▁تقدیر	-11.2378
▁تقوا	-11.2378
▁عصا	-11.238
▁اسکی	-11.2382
▁اسیر	-11.2382
▁تقدی	-11.2382
▁کنت	-11.2383
▁نوک	-11.2395
فعال	-11.2396
▁دیدید	-11.2397
دریایی	-11.2399
TC	-11.2399
▁نورون	-11.2401
▁مساوی	-11.2407
گانه	-11.2409
▁تومان	-11.2417
▁بنیادین	-11.242
▁داوطلبان	-11.242
▁طلای	-11.2421
▁جنگنده	-11.2423
▁پرز	-11.2426
▁انتشارات	-11.2432
▁آقایان	-11.244
li	-11.2441
اسی	-11.2442
▁دخترش	-11.2446
نشأ	-11.2448
▁پایداری	-11.2449
▁مقرو	-11.245
نيز	-11.2454
▁مرموز	-11.2466
▁رختخواب	-11.2467
▁بسازیم	-11.2467
▁۱۹۸۰	-11.2467
▁بفهمیم	-11.2468
▁متکی	-11.2469
▁بزنیم	-11.2471
▁۲۰۰۳	-11.2472
▁سران	-11.2476
▁خوانیم	-11.2476
▁دیو	-11.2479
▁پد	-11.248
▁حجت	-11.248
▁شناختن	-11.2493
▁اسراییل	-11.2495
یشن	-11.2497
▁گرین	-11.2502
یف	-11.2504
اق	-11.2505
عرق	-11.2506
▁چو	-11.2525
▁42	-11.2529
▁Mo	-11.2531
▁باورهای	-11.2531
▁ماندند	-11.2532
وال	-11.2535
▁آسمانی	-11.2537
▁پز	-11.2539
▁پرداختند	-11.2544
▁عزیزم	-11.2545
▁مردها	-11.2549
▁شل	-11.2554
▁شمرد	-11.2556
▁امپریالیست	-11.256
▁مصالح	-11.256
▁هالیوود	-11.256
▁بزودی	-11.256
▁حکایت	-11.2561
▁معصوم	-11.2561
▁فارک	-11.2561
▁تفکی	-11.2562
▁دخترم	-11.2563
▁قاعدگی	-11.2563
▁تعمی	-11.2565
▁سهامداران	-11.2566
▁مصم	-11.257
ta	-11.2576
▁)؛	-11.2578
▁مقدم	-11.2581
▁ذی	-11.2582
▁کتب	-11.2584
▁كردن	-11.2586
▁پنجمین	-11.2593
▁کارفرما	-11.2597
▁اسامی	-11.2598
▁.”	-11.2612
▁پذیرفتن	-11.2612
▁نمودن	-11.2619
▁مولکولی	-11.2621
▁قید	-11.2628
روی	-11.2637
▁هیل	-11.2646
▁ساق	-11.265
▁بلندتر	-11.2651
▁250	-11.2653
▁گزارشگر	-11.2654
▁اسکات	-11.2656
▁تلگرام	-11.2656
▁ایمپل	-11.2658
▁ولت	-11.266
▁آلت	-11.2665
▁نماییم	-11.2669
▁ریه	-11.2671
▁نواز	-11.2673
▁لر	-11.2678
▁امین	-11.2678
▁پذیرند	-11.268
▁بلو	-11.2684
▁اتوم	-11.2686
العمل	-11.2688
▁شیلی	-11.2691
▁کات	-11.2692
▁آفرین	-11.2694
▁سنسور	-11.2694
▁توافقی	-11.2703
▁طلبان	-11.2706
▁فهمیدن	-11.2718
▁ماهیگیری	-11.2718
ary	-11.272
▁یس	-11.272
▁افزارها	-11.2722
▁بخشند	-11.2731
▁مامور	-11.2735
▁هائی	-11.274
▁پدربزرگ	-11.2743
▁هرج	-11.2745
▁یار	-11.2746
▁تشریح	-11.2752
▁ببندید	-11.2752
اسطوره	-11.2752
▁سناتور	-11.2753
▁ناراضی	-11.2754
▁توقع	-11.2754
▁پخته	-11.2754
▁مسایل	-11.2755
▁مریض	-11.2755
▁هلی	-11.2756
▁توئیتر	-11.2756
▁اسکریپ	-11.2758
▁جانور	-11.2761
▁دزد	-11.2776
سریع	-11.2784
▁پشیمان	-11.2787
▁رسیدیم	-11.2788
▁اشیا	-11.2789
▁مزه	-11.2795
▁۴۰۰	-11.2799
▁CO	-11.2805
▁پهنا	-11.2806
▁دهکد	-11.2807
▁حائ	-11.2813
▁کشورمان	-11.2817
مجسمه	-11.2817
ent	-11.282
▁گا	-11.284
▁مش	-11.2841
▁عناوین	-11.2849
▁عارض	-11.2849
▁عظمت	-11.2849
▁۱۹۹۰	-11.2849
▁بسازند	-11.285
▁ردیف	-11.285
▁حر	-11.2851
▁ایراد	-11.2852
▁ندهد	-11.2854
30	-11.2855
▁مرید	-11.2858
خت	-11.2859
▁نمایشگر	-11.2859
▁بخشش	-11.2861
▁یهود	-11.2883
▁شمسی	-11.2889
▁مناظر	-11.2891
▁زنانه	-11.2903
▁یان	-11.2907
رد	-11.291
▁شوهرش	-11.2917
Fi	-11.2921
▁بوس	-11.2922
▁رقبای	-11.2943
▁فلوریدا	-11.2947
▁ناچیز	-11.2947
▁[1]	-11.2947
▁اوپک	-11.2947
▁وسعت	-11.2947
▁پیتزا	-11.2947
▁خوشمزه	-11.2947
▁پیانو	-11.2947
▁تکلیف	-11.2948
▁بنویسم	-11.295
▁نيست	-11.295
▁رسانند	-11.2951
▁41	-11.2951
▁۲۰۰۱	-11.2952
▁پرسند	-11.2953
▁ویکتور	-11.2954
▁Net	-11.2961
▁اینست	-11.2964
▁مایعات	-11.2967
▁کشاورز	-11.2973
▁سوزاند	-11.2978
▁عز	-11.2978
▁ناامیدی	-11.2979
▁بش	-11.2979
▁مشاهد	-11.2981
▁راهکارهای	-11.2984
▁دند	-11.2988
▁بازنده	-11.299
▁اتصالات	-11.2991
▁گفتگوها	-11.2998
▁مربیان	-11.3001
▁آله	-11.301
▁تفنگ	-11.301
▁سام	-11.3015
ah	-11.3026
▁پوشه	-11.3032
▁فاکتور	-11.3037
▁عبدال	-11.3045
▁بسکتبال	-11.3046
▁لغت	-11.3046
▁آشامیدن	-11.3046
▁شلوار	-11.3046
▁حیاط	-11.3046
▁معتاد	-11.3046
▁پیک	-11.3047
▁نداره	-11.3048
▁سرنشین	-11.3049
▁امگا	-11.3049
اعلامیه	-11.3057
▁سکس	-11.3059
▁۷۵	-11.3061
▁یانگ	-11.3063
▁استرالیایی	-11.3065
▁بیو	-11.3068
▁تأ	-11.308
▁چاق	-11.3082
▁فک	-11.3082
▁چار	-11.3082
▁سرود	-11.3085
▁موس	-11.3086
▁شورا	-11.3087
▁Ad	-11.3087
▁سلطنت	-11.3088
▁To	-11.3092
▁tion	-11.3093
ut	-11.3093
▁نوب	-11.3097
▁اِ	-11.31
▁گرمای	-11.3101
▁دائما	-11.3101
اور	-11.3103
▁کلان	-11.3107
▁کشیش	-11.3115
▁اب	-11.3131
▁شاگرد	-11.3132
▁حرارتی	-11.3134
سه	-11.3137
▁سئوال	-11.314
▁بدنتان	-11.3142
▁بعلاوه	-11.3146
▁درازمدت	-11.3146
▁آویز	-11.3146
فضل	-11.3146
▁Apple	-11.3146
▁(2)	-11.3146
▁نزول	-11.3146
عطوف	-11.3148
▁فرستد	-11.3148
▁میکنیم	-11.315
▁لنین	-11.3153
▁منته	-11.3156
▁قصر	-11.3163
▁نکنم	-11.3163
▁مردگان	-11.3164
▁46	-11.3165
▁شایعات	-11.3169
&	-11.318
▁غد	-11.318
▁طل	-11.3184
▁هفتگ	-11.3189
ظهر	-11.3189
▁زمستانی	-11.3189
▁کاغذی	-11.3189
ایق	-11.3196
کننده	-11.3208
▁پناهجوی	-11.3213
▁اصفهان	-11.3247
▁بلغارستان	-11.3247
▁شایستگی	-11.3247
▁ضایع	-11.3247
▁فتنه	-11.3247
▁کلینیک	-11.3247
▁Air	-11.325
▁غیبت	-11.3252
▁نفری	-11.3255
▁ابن	-11.3256
▁دندانپزشکی	-11.3256
▁پردازیم	-11.3256
▁تابش	-11.3262
▁کشنده	-11.3269
▁فو	-11.3269
منتظره	-11.3281
اسه	-11.3283
▁شکی	-11.3284
▁گرایان	-11.3289
ual	-11.3308
▁متد	-11.3312
▁آورم	-11.3316
▁بنای	-11.3327
▁96	-11.3327
▁700	-11.333
▁بیداری	-11.3331
ak	-11.3334
صوب	-11.3337
▁سف	-11.3344
▁قطبی	-11.3349
▁سرماخوردگی	-11.3349
▁تعوی	-11.3349
▁مبلمان	-11.335
▁مسخره	-11.3351
▁عروسک	-11.3353
▁تجلی	-11.3354
▁مص	-11.3355
▁بنام	-11.3357
▁ببین	-11.3358
▁بازگو	-11.3358
فروش	-11.3359
ظت	-11.336
لند	-11.3362
ساز	-11.3363
▁استروئید	-11.3363
نویسی	-11.3383
▁رسما	-11.3385
▁خدایا	-11.3396
▁لان	-11.3397
زن	-11.3399
▁انتها	-11.3401
▁ers	-11.3401
▁كن	-11.3422
▁یکسانی	-11.3422
▁بشه	-11.3429
ner	-11.3432
▁th	-11.3439
▁گشود	-11.3442
▁ریل	-11.3444
ag	-11.3446
▁مر	-11.3451
▁ly	-11.3452
é	-11.3452
▁ارواح	-11.3452
▁آبشار	-11.3452
▁1960	-11.3453
▁شگفتی	-11.3456
▁ذیل	-11.3457
▁مانیتور	-11.346
ap	-11.3461
▁بلاگ	-11.3461
▁تولیدکنند	-11.3462
▁نقر	-11.3464
▁نشت	-11.3465
▁شمع	-11.3468
▁فلان	-11.347
▁بارز	-11.3473
▁تیز	-11.3473
▁خیز	-11.3478
▁بهشتی	-11.3479
▁خانمان	-11.348
تونم	-11.3481
=	-11.3489
▁بردار	-11.3493
ies	-11.3495
▁بازگشته	-11.3495
ation	-11.3496
box	-11.3503
▁پسند	-11.3504
سنجش	-11.3516
▁کالای	-11.3517
as	-11.3518
j	-11.3518
▁برا	-11.3526
▁بدنه	-11.3536
SS	-11.3549
▁موازی	-11.355
▁مرج	-11.3552
▁اوران	-11.3554
▁یوتیوب	-11.3556
▁تنبیه	-11.3556
▁شریف	-11.3557
▁ارگانیک	-11.3557
▁جناب	-11.3557
▁همسران	-11.3558
▁1.5	-11.3559
▁بازیگری	-11.3559
▁حوم	-11.356
▁جلال	-11.356
▁آکادمیک	-11.3562
▁خوردند	-11.3564
فلزات	-11.3566
▁194	-11.3571
▁Intern	-11.3573
uper	-11.3576
▁ثباتی	-11.3579
IP	-11.3581
▁شدیدتر	-11.3588
▁دیدنی	-11.3589
▁يد	-11.3596
▁es	-11.3596
▁سالیانه	-11.3598
▁ایست	-11.3599
▁نار	-11.36
▁میرسد	-11.3603
▁خواهران	-11.3606
▁جت	-11.3611
▁گذارم	-11.3617
▁هارد	-11.3618
▁منکر	-11.3621
▁کیفری	-11.3629
▁دامن	-11.3629
▁ذهنیت	-11.3629
▁بگیر	-11.3632
دون	-11.3635
یابی	-11.3639
▁برندهای	-11.3646
▁Business	-11.3662
▁Next	-11.3662
▁طنز	-11.3662
▁تناقض	-11.3662
▁نیاورد	-11.3662
▁نمر	-11.3662
▁زیارت	-11.3662
مخزن	-11.3662
▁دمشق	-11.3662
▁بپذیرید	-11.3662
▁بدو	-11.3662
▁اعلان	-11.3665
▁کدها	-11.3666
ter	-11.3669
▁خیریه	-11.367
لیف	-11.3671
ive	-11.3673
▁سوئدی	-11.3685
▁طلبی	-11.3686
ستر	-11.3688
▁حدودا	-11.3691
▁ایام	-11.3691
▁سوئی	-11.3692
▁اله	-11.3694
هیچ	-11.3695
مل	-11.3697
▁خور	-11.371
▁جویان	-11.3711
▁اسپا	-11.3711
▁فیلد	-11.3715
▁شو	-11.3723
▁گزارشات	-11.3726
▁7-	-11.3728
ment	-11.373
یوس	-11.3731
جویی	-11.3733
است	-11.3734
▁57	-11.3743
▁ّ	-11.3745
▁مرزها	-11.3745
لن	-11.3761
▁نیکی	-11.3762
▁تعاملی	-11.3768
▁آلزایمر	-11.3768
▁مدیترانه	-11.3768
▁مدیتیشن	-11.3768
▁ناچار	-11.3768
▁کفایت	-11.3768
▁نیکو	-11.3768
▁جماعت	-11.3768
▁جنایی	-11.3769
▁عطا	-11.3776
▁مری	-11.3776
▁توییت	-11.3777
▁فلش	-11.3778
▁اینک	-11.378
▁عاقلان	-11.3784
▁باریک	-11.3784
▁سیری	-11.3785
▁فقه	-11.3789
▁محف	-11.3796
▁عمیقا	-11.3797
▁آشکارا	-11.3797
▁لوپ	-11.3797
▁اکسیدان	-11.3798
چشمه	-11.3808
▁ذهنم	-11.3818
ty	-11.3825
▁ریو	-11.3827
▁توست	-11.3839
ابع	-11.3842
▁باخت	-11.3843
▁کارل	-11.3845
▁استثنا	-11.3845
دو	-11.3848
▁فرماندار	-11.3855
▁التحصیلی	-11.3861
▁کاران	-11.3863
▁امداد	-11.3866
▁قضا	-11.387
رن	-11.3872
▁دورتر	-11.3873
ندگان	-11.3875
▁بنگلادش	-11.3875
▁کاندوم	-11.3875
▁هیچکدام	-11.3876
▁انزوا	-11.3876
▁بیاموزید	-11.3876
▁کبک	-11.3876
▁۱۹۶۰	-11.3876
▁شرك	-11.3876
▁نهاده	-11.3878
▁معرفت	-11.388
▁جستجوگر	-11.3883
▁فهمند	-11.3886
▁Can	-11.3887
رول	-11.3892
▁فروخت	-11.3897
▁اور	-11.3897
▁گنجاند	-11.3904
▁غافلگیر	-11.3907
▁گارد	-11.3908
▁پین	-11.3914
▁مهمانی	-11.3915
▁میلان	-11.3916
▁مداخل	-11.3918
ix	-11.3925
▁کاراکتر	-11.3928
me	-11.3929
▁شخصا	-11.3931
▁پرستاری	-11.3933
وه	-11.3939
de	-11.3948
▁فسیلی	-11.3953
▁ریخت	-11.3956
▁آلن	-11.3959
رز	-11.3963
.8	-11.3972
▁۶۰۰	-11.3976
نقره	-11.3978
▁انباشت	-11.3984
تناسلی	-11.3984
▁میگوید	-11.3984
الیزابت	-11.3985
▁تبیین	-11.3985
▁اقلام	-11.3985
▁بوستون	-11.3985
▁مارکسیست	-11.3991
▁باراک	-11.3999
▁مصوب	-11.3999
▁انجامد	-11.4
▁تبعید	-11.4001
خصوص	-11.4003
▁۳۴	-11.4005
▁رفتارها	-11.4008
▁نشدند	-11.4008
▁نوت	-11.4013
▁کفر	-11.4027
ov	-11.4043
▁اورژانس	-11.4046
end	-11.4051
▁قاب	-11.4052
▁تنفسی	-11.406
▁ادبی	-11.4074
▁تبار	-11.4078
up	-11.4083
باع	-11.4086
▁هیدرو	-11.4093
▁آلومینیوم	-11.4094
▁هجوم	-11.4094
▁پرولتاریا	-11.4094
▁بسيار	-11.4094
▁کمربند	-11.4094
آپلود	-11.4094
▁دخیل	-11.4094
▁مسافت	-11.4094
▁بروکسل	-11.4094
▁PHP	-11.4094
▁مزارع	-11.4095
▁حباب	-11.4095
▁تعدیل	-11.4095
▁شنود	-11.4095
FDA	-11.4096
▁براون	-11.4096
▁مقول	-11.4099
▁بورژواز	-11.4106
▁فطر	-11.4108
▁دانستیم	-11.411
▁اندرو	-11.4115
▁سواد	-11.4117
▁نمایشی	-11.4118
▁بدم	-11.4118
▁استودیوی	-11.4123
▁نیازها	-11.4125
Z	-11.413
▁ابرها	-11.4133
▁تخیل	-11.4157
▁تماشاگر	-11.4158
ous	-11.4159
▁٢	-11.4161
▁72	-11.4163
▁سلولها	-11.4176
▁زنید	-11.4183
اش	-11.4185
▁ابری	-11.4186
▁1996	-11.4205
▁مواظب	-11.4205
▁کپسول	-11.4205
▁Mode	-11.4206
▁مشی	-11.4206
▁تهوی	-11.4207
▁زوال	-11.4207
▁کروز	-11.4208
▁سبد	-11.4209
▁پيش	-11.4213
▁تصمیمی	-11.4217
▁داوران	-11.4218
▁۹۹	-11.4227
▁ساختند	-11.4233
▁la	-11.4234
رج	-11.4247
بورد	-11.425
¬	-11.425
▁مراکش	-11.4254
IS	-11.4254
▁ملا	-11.4256
▁بسیج	-11.427
▁تهاجم	-11.4273
▁امپراتور	-11.4273
▁بازرگان	-11.4273
▁II	-11.4274
▁مبادل	-11.4283
▁درام	-11.4285
▁گرانش	-11.4285
▁Do	-11.4287
▁صمیم	-11.4288
▁All	-11.429
ti	-11.4297
▁تومورها	-11.43
ist	-11.431
فل	-11.4311
تخصیص	-11.4318
▁آنفولانزا	-11.4318
▁اصحاب	-11.4318
▁ضمانت	-11.4318
▁فضاپیما	-11.4318
▁Android	-11.4318
▁مثانه	-11.4318
▁تزئین	-11.4318
▁سفیدپوست	-11.4318
▁۲۰۰۷	-11.4318
▁همتای	-11.4318
▁مقصو	-11.4319
▁مساحت	-11.4319
▁هپات	-11.4319
▁شنوید	-11.4319
▁بکنیم	-11.4323
▁جوهر	-11.4323
▁انسانیت	-11.4326
vi	-11.4326
ولوژی	-11.4332
▁مسی	-11.4333
▁معماران	-11.4336
ud	-11.4337
▁تسهیلات	-11.4338
▁آوار	-11.4339
▁درود	-11.434
▁عینی	-11.4346
انتزی	-11.4349
▁فشارها	-11.4351
▁مونت	-11.4351
▁متغیرها	-11.4359
▁خوابی	-11.4359
▁قطعیت	-11.4366
▁66	-11.4366
ay	-11.4371
ویژه	-11.4372
▁لند	-11.4376
▁عددی	-11.4386
▁نمایی	-11.4387
▁سوسیالیس	-11.4391
son	-11.4393
▁بیکار	-11.4397
▁6-	-11.4397
▁بارانی	-11.4404
ical	-11.4406
شور	-11.4409
جام	-11.4414
▁!)	-11.4418
▁پری	-11.4426
▁1998	-11.4431
▁صخره	-11.4431
▁معضل	-11.4431
▁مجرد	-11.4431
▁Open	-11.4431
▁بشنوید	-11.4432
▁1950	-11.4432
▁نوکیا	-11.4432
▁مجت	-11.4433
▁کیلو	-11.4434
▁نخ	-11.4436
▁App	-11.4441
▁كنم	-11.4443
▁اسمش	-11.4444
▁آرزوهای	-11.4445
▁گذاریم	-11.4445
▁خودخواه	-11.4446
▁کویت	-11.4446
ستش	-11.4448
▁سلیق	-11.4452
▁برخوردارند	-11.4457
▁فرایندها	-11.4464
پرداخت	-11.4475
صحیح	-11.4479
▁حلی	-11.4479
نکردن	-11.4481
▁4)	-11.4484
▁ity	-11.4486
▁گرفتید	-11.4488
▁ذو	-11.449
mo	-11.4491
▁فت	-11.4491
سو	-11.4504
خدا	-11.4511
▁طاق	-11.4516
▁190	-11.452
ریک	-11.4523
دم	-11.4526
▁گوسفند	-11.4531
▁میمون	-11.4532
پی	-11.4536
▁بور	-11.4538
▁کاوش	-11.4542
▁رفیق	-11.4546
▁مکتب	-11.4546
▁وگرنه	-11.4546
▁استناد	-11.4547
▁آوردم	-11.4549
▁وجدان	-11.4549
▁۱۹۸	-11.4554
▁پروازهای	-11.4558
▁GP	-11.4572
▁Ka	-11.4572
▁پرسیدند	-11.4574
شستن	-11.4575
▁كردند	-11.4576
یزه	-11.4579
▁بزرگسالی	-11.4579
▁360	-11.4582
▁مجرم	-11.4585
▁هاشمی	-11.4588
▁ناب	-11.4589
▁آموزد	-11.4592
کثیر	-11.4595
تلاف	-11.4595
▁بخت	-11.4602
▁میاد	-11.4603
.7	-11.4605
▁سینمای	-11.4611
▁۳۲	-11.4618
▁مسئولین	-11.4619
▁کارم	-11.4621
ریتم	-11.4628
لیس	-11.463
▁وود	-11.4632
▁یازده	-11.4643
▁اطل	-11.4645
▁جیم	-11.4649
شویی	-11.4651
▁مناقش	-11.4653
▁؟؟؟	-11.4654
▁قراردادی	-11.4657
گستری	-11.4659
▁جعفر	-11.4662
▁رجوع	-11.4662
▁چمدان	-11.4662
▁گوارش	-11.4662
▁شانگهای	-11.4662
▁بالستیک	-11.4663
▁گردآوری	-11.4663
▁الکساندر	-11.4663
▁آموزگار	-11.4663
▁سانسور	-11.4663
▁Post	-11.4663
▁شانزده	-11.4664
▁نداری	-11.4666
▁<	-11.4669
▁الکترون	-11.4669
▁لحن	-11.4671
▁ْ	-11.4675
▁ماموران	-11.468
ادی	-11.468
▁فهمد	-11.4688
▁رویایی	-11.4688
▁۳۶	-11.4692
.3	-11.4692
▁ion	-11.4695
وقتی	-11.4701
▁جد	-11.4705
▁us	-11.4709
▁حافظ	-11.4714
▁عمو	-11.4725
▁3.	-11.4727
قاطع	-11.4737
▁لاغر	-11.4739
▁صالح	-11.4739
▁عروق	-11.474
OS	-11.4749
12	-11.4751
▁پارلمانی	-11.4754
▁202	-11.4758
او	-11.4759
▁فتو	-11.4762
▁مع	-11.4763
▁آمیزی	-11.4764
▁سیاستمدار	-11.4765
▁وارن	-11.4775
▁1994	-11.478
▁آذر	-11.478
▁بیهوده	-11.478
▁عنکبوت	-11.478
▁حریف	-11.478
▁۲۰۰۶	-11.4781
▁میانمار	-11.4782
▁مبالغ	-11.4783
▁180	-11.4783
▁صلاح	-11.4784
يس	-11.4794
▁بگذارم	-11.4795
▁سازیم	-11.4796
▁عمان	-11.4796
▁گفتید	-11.48
▁We	-11.48
▁@	-11.4801
▁سنج	-11.4803
▁سوسیال	-11.4805
▁رویه	-11.4815
▁پترو	-11.4821
▁کینگ	-11.483
شهود	-11.4834
▁سیتی	-11.4836
▁پرداختن	-11.4838
اشق	-11.4844
▁نویسند	-11.4846
▁ثروتمندان	-11.4847
IC	-11.4869
زاع	-11.4873
▁بزن	-11.4874
▁On	-11.4879
▁رویدادها	-11.4883
رک	-11.4884
▁تجهیز	-11.489
▁سوزن	-11.4891
▁پار	-11.4896
▁1989	-11.4899
▁الجزایر	-11.4899
▁انفرادی	-11.4899
▁بازگردد	-11.4899
▁یادبود	-11.4899
▁امیرالمؤمنین	-11.4899
▁تلفظ	-11.4899
▁Dead	-11.4899
▁ادوارد	-11.49
▁بپذیرد	-11.4901
▁معلولیت	-11.4902
▁CSS	-11.4902
▁تنبل	-11.4904
▁فیزیولوژیک	-11.4905
MS	-11.4911
▁خوریم	-11.4912
▁آلی	-11.4913
▁هلندی	-11.4918
:«	-11.4918
▁گول	-11.4928
▁تلاشی	-11.4929
▁وسطی	-11.4932
کاب	-11.4932
▁عمد	-11.4934
▁جاست	-11.4934
▁مخاطر	-11.4938
▁سازید	-11.4942
پیمایی	-11.4945
▁خبرهای	-11.4946
مود	-11.495
▁گردم	-11.495
البته	-11.4952
▁!"	-11.496
▁گله	-11.4964
▁سوزان	-11.497
▁52	-11.4971
▁خوشبخت	-11.4981
▁دوبار	-11.4982
▁ابزارهایی	-11.4983
▁کوهستان	-11.4984
تحول	-11.4997
▁مسافرتی	-11.4998
ial	-11.4999
▁معلول	-11.5007
20	-11.5011
▁سوپ	-11.5012
هالی	-11.5013
بری	-11.5014
▁چان	-11.5018
▁بفهمند	-11.502
▁غیرمستقیم	-11.502
▁مخارج	-11.502
▁منفعت	-11.502
▁سلطان	-11.502
▁اطفال	-11.502
▁Power	-11.502
▁اقتدار	-11.502
▁پیمانکار	-11.502
▁آلفا	-11.502
▁اخوان	-11.5021
▁ملایم	-11.5023
فق	-11.5023
▁استالین	-11.5025
▁ستاد	-11.5026
▁AI	-11.5031
▁پشتی	-11.5032
گلوکز	-11.5035
▁اکشن	-11.504
▁عکاسان	-11.504
▁جوج	-11.5043
▁منوی	-11.5045
مپ	-11.505
▁بوئ	-11.5052
▁آرم	-11.5054
اوی	-11.5061
▁نواخت	-11.5062
▁ترا	-11.5068
سیستم	-11.5075
▁هل	-11.5079
▁مامان	-11.5082
سری	-11.5096
▁فرزندش	-11.5099
▁هکرها	-11.5108
▁خطاهای	-11.5108
▁رن	-11.511
▁دس	-11.512
▁En	-11.5121
▁ترسد	-11.5121
▁آرا	-11.5132
▁اخطار	-11.5142
▁ناگزیر	-11.5142
▁ایسلند	-11.5142
▁کریستال	-11.5142
▁حفاری	-11.5142
▁پیرمرد	-11.5142
▁دمکراس	-11.5142
▁فیزیکدان	-11.5142
▁بیاوریم	-11.5142
▁API	-11.5143
▁روانپزشک	-11.5143
▁برگردید	-11.5143
▁Live	-11.5143
▁برگردد	-11.5147
▁بدهکار	-11.5148
▁رسیم	-11.5148
▁3)	-11.5148
▁جهات	-11.515
▁چید	-11.515
▁ریختن	-11.5151
ریم	-11.5151
▁مباد	-11.5151
▁غربال	-11.5153
▁استعدادها	-11.5153
▁چیه	-11.5155
▁بازم	-11.5157
▁Ex	-11.5166
▁تهدیدها	-11.5169
ویل	-11.5171
شا	-11.5173
▁پرسیدن	-11.5178
▁پُ	-11.5179
▁اسپری	-11.5182
▁بزرگان	-11.5188
▁رس	-11.5189
▁دانا	-11.519
▁آمارها	-11.519
▁اومد	-11.5201
▁آم	-11.5205
▁کردستان	-11.5207
▁کارفرمای	-11.5208
▁کارگیری	-11.5208
▁آک	-11.5209
دس	-11.5219
ish	-11.522
ff	-11.5224
▁خاصیت	-11.5225
▁کلامی	-11.5231
▁تیک	-11.5233
▁2:	-11.5235
▁at	-11.5243
لیکن	-11.5245
▁خونه	-11.5248
▁آدا	-11.5253
▁نظارتی	-11.5258
www	-11.5265
▁صابون	-11.5265
▁مستعمر	-11.5265
▁نصیحت	-11.5265
▁آنچنان	-11.5265
▁دکوراسیون	-11.5265
▁کوچولو	-11.5265
▁چيز	-11.5265
▁سیلیکون	-11.5265
▁نامرئی	-11.5265
▁مسمومیت	-11.5266
▁اتباع	-11.5267
▁گیتس	-11.5267
▁ندیدم	-11.5268
▁موقتی	-11.5269
ّر	-11.5269
▁اسپم	-11.527
▁برپا	-11.527
▁co	-11.5271
▁خلو	-11.5275
▁اُ	-11.5276
▁خورم	-11.5277
▁خوانم	-11.5279
بد	-11.528
able	-11.5283
▁دال	-11.5284
▁Ma	-11.5286
نگری	-11.5289
اوگان	-11.5294
▁نگر	-11.5295
▁خف	-11.5295
▁سنجی	-11.5296
▁فرستادن	-11.5297
▁چسب	-11.5311
▁عروقی	-11.5311
▁97	-11.5313
▁مادرید	-11.5314
▁نود	-11.5316
▁اپراتور	-11.5318
▁Data	-11.532
سلمان	-11.5322
▁گلو	-11.5323
▁Mi	-11.5325
▁مطالبات	-11.5328
▁سار	-11.533
▁193	-11.5331
▁شوق	-11.5332
▁کشیدند	-11.5332
▁تکنولوژیکی	-11.5342
▁فقرا	-11.5346
▁شهرک	-11.5353
۴۴	-11.5376
▁کشم	-11.5377
lin	-11.5384
▁احمدی	-11.5385
▁جابجا	-11.5388
▁محمول	-11.539
▁موعظه	-11.539
▁كتاب	-11.539
▁غفل	-11.539
▁LED	-11.539
▁بفرستید	-11.5392
▁شفاهی	-11.5392
▁اکرم	-11.5396
▁متعارف	-11.5397
رنگ	-11.5397
▁اقوا	-11.5398
▁دگرگونی	-11.54
ard	-11.5403
▁خوشم	-11.541
▁آرایشی	-11.5412
▁شانسی	-11.5413
ER	-11.5415
▁VR	-11.5415
▁نزدیکتر	-11.5417
▁صفت	-11.5419
▁ساکنین	-11.542
ئ	-11.5421
▁غای	-11.5422
▁حکیم	-11.5429
۱۱	-11.5431
▁۸۵	-11.5431
▁میدهند	-11.5438
فاصل	-11.5439
▁استقامت	-11.5439
▁سس	-11.5439
▁0.	-11.5443
▁ton	-11.5447
▁شیک	-11.5449
پل	-11.545
افزار	-11.545
▁ژو	-11.5455
▁مطمئنم	-11.5457
بول	-11.5459
ung	-11.5459
▁MA	-11.5462
▁نهم	-11.5474
سن	-11.5479
▁مخف	-11.5486
صت	-11.5496
▁کمان	-11.5498
▁دارن	-11.5498
▁be	-11.5505
▁خرگوش	-11.5517
▁دپارتمان	-11.5517
▁مصدوم	-11.5517
▁کمونیسم	-11.5517
▁هندوستان	-11.5517
▁مادام	-11.5517
▁پائین	-11.5517
▁جنگجوی	-11.5518
▁خودآگاه	-11.5518
▁it	-11.5518
▁دوزخ	-11.5518
▁تخلف	-11.5519
▁مکانیزم	-11.5519
▁زهرا	-11.5519
▁خیس	-11.5519
▁رومانی	-11.552
▁سیارات	-11.5521
▁برگردم	-11.5524
▁Free	-11.5524
▁قرائ	-11.5526
▁by	-11.5527
▁قب	-11.5536
▁همگانی	-11.5539
أت	-11.5544
▁فیلمنامه	-11.5558
▁انتقادات	-11.5564
▁شات	-11.5569
▁دلال	-11.5571
▁گردان	-11.5571
▁سناریو	-11.5574
▁مسلما	-11.5575
tic	-11.5575
اط	-11.5577
نهایت	-11.5578
▁زنجیر	-11.5579
▁نیکل	-11.5602
▁كشور	-11.5604
▁فعل	-11.5605
▁ستیز	-11.5608
▁ریش	-11.5614
▁ژ	-11.5622
شون	-11.5626
▁زو	-11.5628
▁شکارچی	-11.563
▁فیلیپ	-11.5632
▁اعم	-11.5639
ha	-11.5639
▁Game	-11.5641
▁63	-11.5642
▁خویشاوند	-11.5645
▁آشفته	-11.5645
▁احداث	-11.5645
▁برکنار	-11.5645
▁رونالدو	-11.5645
▁خشنود	-11.5645
▁۳٫	-11.5646
▁خودروها	-11.5648
▁متاسفم	-11.5648
▁79	-11.565
▁نمي	-11.565
روال	-11.5657
▁خواندند	-11.5657
▁گلف	-11.5658
▁دیواره	-11.5666
▁(3)	-11.5669
▁قدس	-11.567
▁فرزندانشان	-11.5672
▁مخاطبین	-11.5676
▁59	-11.5677
▁کجای	-11.5678
▁فول	-11.5679
▁خوری	-11.5688
over	-11.569
▁بودایی	-11.5691
▁چاه	-11.5701
▁همدل	-11.5703
▁عثمانی	-11.5706
هنگام	-11.5707
▁1.	-11.5708
▁com	-11.5709
▁مکالم	-11.5709
▁فرآور	-11.571
▁۳۸	-11.572
▁امتحانات	-11.5722
یع	-11.5726
▁رسیدم	-11.573
▁شم	-11.5732
▁لن	-11.5737
▁Ph	-11.5738
▁منتقد	-11.574
▁اجبار	-11.5748
نمایی	-11.5752
یاری	-11.5752
▁روتر	-11.5754
▁مختص	-11.5757
▁بازوی	-11.5759
▁تع	-11.576
▁دیش	-11.5767
حنی	-11.5768
▁1997	-11.5775
▁تراژدی	-11.5775
▁سجده	-11.5775
▁پارکینسون	-11.5775
▁آشفتگی	-11.5775
IoT	-11.5775
▁CRM	-11.5775
▁الدین	-11.5775
▁فوکو	-11.5776
▁اختیاری	-11.5776
▁آسایش	-11.5777
▁جزییات	-11.5778
▁56	-11.5778
▁نبودن	-11.578
▁گندم	-11.578
▁اتکا	-11.578
▁خوام	-11.578
▁ایستادن	-11.578
▁بزرگوار	-11.5781
▁فضانوردان	-11.5781
▁لاستیک	-11.5784
mart	-11.5787
▁سالمند	-11.5795
▁77	-11.58
▁فیلترها	-11.5803
فی	-11.5809
تاج	-11.5812
اوتیسم	-11.5816
▁مرس	-11.5817
▁St	-11.582
▁ژان	-11.5822
جوری	-11.5828
دوستانه	-11.5839
دردی	-11.584
▁پیا	-11.5841
جنگ	-11.5843
▁متا	-11.5843
MIT	-11.5843
▁شا	-11.5847
ux	-11.5851
▁مردانی	-11.5852
▁بِ	-11.5854
▁1:	-11.5858
▁تز	-11.5866
مثال	-11.5867
▁گار	-11.5869
▁حلال	-11.5871
▁سریعا	-11.5871
▁۵۵	-11.5873
قاب	-11.5882
▁اریک	-11.5888
یچ	-11.5888
▁محوری	-11.5891
▁کارگزار	-11.5905
▁مبل	-11.5906
▁محتاط	-11.5906
▁بجز	-11.5906
▁جرائم	-11.5906
▁ترشح	-11.5906
▁انتزاع	-11.5906
▁54	-11.5906
▁جمهوریخواه	-11.5907
▁آمريکا	-11.5907
▁زنبور	-11.5907
▁پلاسما	-11.5907
▁آشتی	-11.5907
▁تسلا	-11.5907
▁گیتار	-11.5907
▁چادر	-11.5907
▁جکسون	-11.5908
▁ایر	-11.5908
▁فرعون	-11.5908
▁۲۰۲۰	-11.5908
▁Of	-11.5909
▁دون	-11.5909
▁مشتق	-11.5909
▁جونز	-11.591
▁شادمان	-11.591
▁←	-11.5911
▁ADHD	-11.5913
▁بخوانم	-11.5913
▁فولیک	-11.5914
▁ولز	-11.5917
▁خوانید	-11.5917
▁حوصله	-11.5918
▁Sam	-11.5924
▁کارزار	-11.5925
▁لات	-11.593
▁هلاک	-11.5939
ib	-11.594
▁مدتها	-11.5942
▁El	-11.5944
▁میکروب	-11.5944
▁نرفته	-11.5945
▁اندازند	-11.5946
▁دنیاست	-11.5949
▁گن	-11.5949
▁189	-11.5952
▁۳۱	-11.5953
نویس	-11.5954
ستعد	-11.5957
سین	-11.5959
▁Star	-11.5961
tion	-11.5963
ever	-11.5969
▁Time	-11.597
سوختگی	-11.5971
طبق	-11.5972
▁دستم	-11.5972
یکون	-11.5974
▁فال	-11.5982
▁آنا	-11.5986
گاس	-11.5986
▁5000	-11.5992
▁پادشاهان	-11.5997
رضا	-11.5998
▁پاتر	-11.6007
تراکم	-11.6009
ue	-11.6009
ul	-11.601
za	-11.601
ci	-11.6011
▁کران	-11.6015
▁le	-11.6016
یزم	-11.6017
▁موز	-11.6026
▁ایا	-11.6026
وطه	-11.6028
▁AC	-11.6029
▁روستاها	-11.6031
▁نوشید	-11.6034
گا	-11.6034
▁درج	-11.6035
▁قدرتمندتر	-11.6036
▁پردازی	-11.6037
▁سعادت	-11.6038
▁Galaxy	-11.604
▁انعکاس	-11.604
▁بیندازید	-11.604
▁ناکارآمد	-11.604
▁Group	-11.604
▁ابهام	-11.604
▁آنکارا	-11.604
▁پرسپولیس	-11.604
▁رویترز	-11.604
▁پالایش	-11.604
▁القدس	-11.604
دانید	-11.6041
▁عاری	-11.6041
زوی	-11.6042
▁ment	-11.6043
▁اسکلت	-11.6044
▁تعارض	-11.6045
فور	-11.6047
▁آبجو	-11.6048
▁Blue	-11.6049
▁زیباست	-11.6054
▁عفونی	-11.6054
▁ترفند	-11.6056
▁صداها	-11.6057
▁پروانه	-11.6058
ns	-11.6061
▁اوّل	-11.6061
افت	-11.6063
▁کتک	-11.6066
▁ندا	-11.6068
یدنت	-11.6068
▁رازهای	-11.6068
ide	-11.6071
▁نتوان	-11.6075
▁لول	-11.6076
▁نژادپرستی	-11.6076
ey	-11.6077
▁شین	-11.6079
▁کلر	-11.6084
▁OS	-11.6084
▁ترسم	-11.6092
کنند	-11.6092
▁فیلمساز	-11.6094
▁per	-11.6096
پناهنده	-11.6106
▁رزمی	-11.6108
ph	-11.6111
▁برادرم	-11.6121
صرافی	-11.6125
▁کمیاب	-11.6133
▁حالات	-11.6146
ائل	-11.6147
▁کلیساها	-11.6148
▁پیامبران	-11.615
▁سلیمان	-11.6159
▁ورق	-11.616
▁ارزشمندی	-11.616
▁قانونگذار	-11.616
طابق	-11.6162
▁هموار	-11.6163
▁مرح	-11.6168
▁جنجال	-11.6175
▁کروموزوم	-11.6175
▁سرسخت	-11.6175
▁شاغل	-11.6175
▁واگن	-11.6176
▁میگرن	-11.6177
▁ندهند	-11.6178
▁ببخشد	-11.6179
▁‫	-11.618
▁معاش	-11.6181
▁کروم	-11.6184
▁متوالی	-11.6185
▁هکر	-11.6186
▁بینانه	-11.6189
▁ar	-11.6189
▁کوسه	-11.6199
em	-11.62
ـــ	-11.6207
▁قدرتی	-11.621
▁فار	-11.622
▁لنزها	-11.6222
ارد	-11.6225
٫	-11.6232
▁بانوی	-11.6245
آنچه	-11.6246
▁پیوندهای	-11.6257
شو	-11.6257
▁سرورها	-11.626
▁گرو	-11.6263
تیپ	-11.6263
َّ	-11.6267
▁نامزدها	-11.6271
ارویی	-11.6272
SD	-11.6274
▁پلاک	-11.6277
اع	-11.6278
▁افقی	-11.628
▁داور	-11.6291
▁ورزشکار	-11.6299
▁قمار	-11.6304
ang	-11.6308
▁آکسفورد	-11.6312
▁هکتار	-11.6312
▁پیغمبر	-11.6312
▁Server	-11.6312
▁مسؤول	-11.6312
▁نگویید	-11.6312
▁پازل	-11.6312
▁قزاقستان	-11.6312
▁مؤلف	-11.6312
▁بریزید	-11.6313
▁پش	-11.6314
▁بیاورم	-11.6316
▁بمانم	-11.6316
▁والد	-11.6317
▁تیروئید	-11.6319
▁آنزیم	-11.6319
▁آلاینده	-11.6323
▁{	-11.6325
▁نوح	-11.6327
اکت	-11.6328
فا	-11.6333
عده	-11.6334
▁کاترین	-11.6334
▁غوط	-11.6336
▁پیشانی	-11.6338
▁پاور	-11.6341
▁اکس	-11.6345
▁سیگاری	-11.6347
▁یازدهم	-11.6347
▁جرات	-11.635
▁نیا	-11.635
▁son	-11.6362
▁انجامش	-11.6367
▁الن	-11.637
▁اعما	-11.637
▁مرخصی	-11.6371
ron	-11.6375
▁پهن	-11.6375
▁لاس	-11.638
▁سرف	-11.6389
رژن	-11.6391
BO	-11.6393
▁مشترکی	-11.6396
▁جدیدتر	-11.6402
▁یگانه	-11.6406
▁جون	-11.6415
▁جادوگر	-11.6417
▁me	-11.6421
▁آفرینی	-11.6425
▁اژدها	-11.6431
▁لعنت	-11.6433
▁بورژوا	-11.6436
بدل	-11.6436
▁دزدید	-11.6436
▁میلاد	-11.6437
▁کیو	-11.6444
▁يم	-11.6446
ee	-11.6448
▁بازماندگان	-11.6451
▁كودك	-11.6451
▁ناسازگار	-11.6451
▁[2]	-11.6451
▁خوشایند	-11.6451
▁بپذیریم	-11.6451
▁بمانیم	-11.6452
▁نارضای	-11.6452
▁بخوریم	-11.6453
▁رسالت	-11.6458
LE	-11.6458
▁خوانی	-11.6458
ft	-11.646
▁جمعیتی	-11.646
▁رئال	-11.646
▁شکننده	-11.6461
▁انگل	-11.6462
▁طرفه	-11.6462
وربین	-11.6464
▁حرم	-11.6467
فستیو	-11.6468
ge	-11.6474
ik	-11.6474
▁جاه	-11.6476
si	-11.6477
واژه	-11.6481
▁لوک	-11.6483
غی	-11.6483
▁گیل	-11.649
▁ولاد	-11.6495
▁کلاهبرداری	-11.6495
▁مردن	-11.6495
▁گذارید	-11.6498
▁98	-11.6502
▁تشکیلات	-11.6502
▁ژل	-11.6506
▁متنی	-11.6515
art	-11.6518
▁گوی	-11.652
▁شورشی	-11.6521
ادارات	-11.6523
▁پاد	-11.6523
▁حسینی	-11.6524
ٌ	-11.6529
▁بين	-11.6536
▁خد	-11.6538
▁مینی	-11.6549
▁پرستی	-11.655
▁ارزشی	-11.6552
علق	-11.656
تاژ	-11.6564
ts	-11.6578
ational	-11.6591
▁اختصار	-11.6591
▁روانشناختی	-11.6591
▁لشکر	-11.6591
▁متناقض	-11.6591
▁معایب	-11.6591
▁عرش	-11.6591
▁جناز	-11.6592
▁......	-11.6592
▁نگذارید	-11.6592
▁گذرانند	-11.6593
▁دشت	-11.6594
▁دیزل	-11.6595
▁Per	-11.6595
▁عیار	-11.6596
▁برآمد	-11.6597
يي	-11.6597
▁الزاما	-11.6601
▁فداکار	-11.6601
▁فرع	-11.6602
▁عموی	-11.6602
▁غرف	-11.6609
عت	-11.6609
▁نیفتاد	-11.661
▁١٩	-11.6614
oc	-11.6618
رانی	-11.6629
▁فهمم	-11.6633
▁بي	-11.6633
▁کوهستانی	-11.6635
▁تخیلی	-11.6635
▁CC	-11.6637
اکانت	-11.6638
هیلاری	-11.6641
▁سلم	-11.6642
▁3000	-11.6648
▁86	-11.6653
▁بودا	-11.6658
ow	-11.6663
▁کشورشان	-11.6665
▁سردرگمی	-11.6666
▁عاملی	-11.6671
▁Sp	-11.6672
▁سنسورها	-11.6677
▁دشوارتر	-11.6678
▁u	-11.6697
▁هول	-11.6701
سوزاندن	-11.6706
ازی	-11.6707
▁منتظره	-11.6711
قه	-11.6713
▁بخور	-11.6714
خوانی	-11.6714
▁دریافتی	-11.6715
▁160	-11.6716
چی	-11.6719
▁پت	-11.6722
▁برخاست	-11.6723
▁نصیب	-11.6727
▁تسلی	-11.6727
AC	-11.6728
▁عوا	-11.6729
▁عاشورا	-11.6734
▁1992	-11.6734
▁Life	-11.6734
▁with	-11.6734
▁متضاد	-11.6734
▁ژورنال	-11.6734
▁فقیه	-11.6734
▁اتمسفر	-11.6734
▁جنرال	-11.6734
▁استبداد	-11.6735
▁دمکراتیک	-11.6735
▁IBM	-11.6735
▁نترسید	-11.6735
▁بنشینید	-11.6735
▁post	-11.6735
▁سختگیرانه	-11.6735
▁III	-11.6735
▁کادر	-11.6735
▁مصون	-11.6737
▁مخابرات	-11.6737
▁۹۵	-11.6739
▁منچستر	-11.6742
▁سیستماتیک	-11.6744
ance	-11.6745
یك	-11.6745
▁گه	-11.6748
▁ببرم	-11.6752
▁۴۸	-11.6753
ity	-11.6754
لي	-11.6765
▁بیتی	-11.6766
▁Semal	-11.6769
روس	-11.677
▁یابیم	-11.6773
▁۸۰۰	-11.6774
▁کافیست	-11.6775
ave	-11.6782
▁نع	-11.6782
▁منم	-11.6783
▁بتن	-11.6784
▁Auto	-11.6785
▁نیش	-11.6788
ou	-11.679
گام	-11.6791
▁فروشان	-11.6793
نیا	-11.6796
▁ساعتی	-11.68
oo	-11.6804
▁درآمدها	-11.6805
▁1.1	-11.681
▁ID	-11.6816
اج	-11.6819
توس	-11.6824
”.	-11.6826
ip	-11.6827
▁سازش	-11.6835
.5	-11.6843
سیت	-11.6846
▁کنن	-11.6855
▁68	-11.6858
di	-11.6858
▁عروس	-11.6863
هب	-11.6864
▁نابینا	-11.6865
▁بزرگتری	-11.6866
دنبال	-11.6868
▁اجزا	-11.687
گل	-11.687
▁2.5	-11.6876
):	-11.6876
▁He	-11.6878
▁شکن	-11.6878
▁دیل	-11.6879
▁دروغگو	-11.6879
▁بفهمد	-11.6879
▁ناموفق	-11.6879
▁پرتقال	-11.6879
▁مصیبت	-11.6879
شطرنج	-11.6879
▁قشر	-11.6879
▁صربستان	-11.6879
▁زائد	-11.6879
▁ملموس	-11.6879
▁HPV	-11.688
▁Light	-11.688
▁لیمو	-11.688
▁شاهکار	-11.688
▁رمانتیک	-11.688
▁بسپارید	-11.688
▁لیاقت	-11.6881
▁بازدارند	-11.6882
au	-11.6883
▁خاور	-11.6883
▁خمیر	-11.6884
▁لم	-11.6884
▁مل	-11.6886
▁صوت	-11.6889
رزومه	-11.689
▁John	-11.6891
▁احرا	-11.6893
برگ	-11.6894
ek	-11.6896
▁سلب	-11.6896
▁دفعات	-11.6899
▁مزد	-11.6903
▁چشمه	-11.6908
▁روشنفکران	-11.6911
ba	-11.6922
▁اندیشید	-11.6924
▁میرد	-11.6926
▁خیالی	-11.6932
▁As	-11.6932
▁Bar	-11.6939
NA	-11.6939
▁69	-11.694
▁کود	-11.6941
▁اسل	-11.6948
▁مول	-11.6951
▁شدیدا	-11.6951
▁نیمک	-11.6955
لین	-11.6957
فراغ	-11.6959
ظهور	-11.6959
یدن	-11.6959
▁شایعه	-11.6972
▁حقیقتا	-11.6973
ice	-11.698
▁st	-11.6983
خلال	-11.6989
▁ینگ	-11.6991
بهترین	-11.6996
▁5)	-11.6997
وار	-11.7001
.9	-11.7014
ارت	-11.702
▁توئیت	-11.702
▁آلبرت	-11.7023
▁پوز	-11.7023
▁تحریف	-11.7026
▁نامعلوم	-11.7026
▁دهقان	-11.7026
▁الحاق	-11.7026
▁بگم	-11.7026
▁دینامیک	-11.7027
▁بشناسیم	-11.7027
▁انقراض	-11.7027
▁خویشتن	-11.7028
▁برگردیم	-11.7028
▁بانکوک	-11.7029
▁تبریز	-11.7029
▁بنویسد	-11.703
▁بانوان	-11.7033
▁تدارکات	-11.7034
طف	-11.7034
▁تالار	-11.7037
شاء	-11.704
▁طرد	-11.704
▁متابولیک	-11.7044
▁جنگید	-11.7044
▁معان	-11.7046
▁نوشا	-11.7054
الله	-11.7055
▁پیشنهادهای	-11.7056
▁حتم	-11.7061
▁TV	-11.7066
▁منفرد	-11.7074
avid	-11.7082
▁استانی	-11.7083
ca	-11.7084
ستون	-11.7086
▁ch	-11.7088
▁اثرگذار	-11.709
▁بول	-11.7091
▁مومن	-11.7092
رم	-11.7095
داران	-11.7095
▁آره	-11.7098
▁سوختن	-11.7102
تعجب	-11.7117
▁جوانب	-11.7118
گرایی	-11.7125
یگ	-11.7127
▁هشدارهای	-11.7127
گرا	-11.7128
▁فرضی	-11.7128
▁ma	-11.7128
▁آمریکاست	-11.713
مو	-11.7133
▁اهدای	-11.7134
▁تحقیقی	-11.7136
جیل	-11.7137
▁نس	-11.714
▁غلات	-11.7141
سلام	-11.7141
کم	-11.7142
▁منشا	-11.7142
▁عاقل	-11.7154
▁میرود	-11.7164
ern	-11.7167
▁زامبی	-11.7171
▁نشنید	-11.7172
▁UV	-11.7174
▁دوقلو	-11.7174
▁لط	-11.7174
▁کافر	-11.7174
▁1993	-11.7176
▁آکواریو	-11.7176
▁انصاف	-11.7176
▁حصول	-11.7176
▁[3]	-11.7176
▁بیافتد	-11.7176
▁میکروسکوپ	-11.7176
▁متناوب	-11.7176
▁واژگان	-11.7176
▁تاسف	-11.7176
▁فاضل	-11.7176
▁یائسگی	-11.7176
▁2.0	-11.7176
▁دیزنی	-11.7176
▁اونا	-11.7177
▁گوا	-11.7177
▁بنویسند	-11.7177
▁راکت	-11.7177
▁رب	-11.7178
▁جنون	-11.7179
▁فرید	-11.718
فاق	-11.7181
▁اردو	-11.7181
▁کدوم	-11.7182
▁صلی	-11.7182
▁پرتره	-11.7182
▁ترمز	-11.7183
▁تزکی	-11.7183
چاره	-11.7184
▁ندادند	-11.7189
▁فروید	-11.7189
▁۲۵۰	-11.7198
▁روشنگر	-11.7204
▁امانت	-11.7205
▁۴۷	-11.7209
▁عود	-11.7209
▁شادتر	-11.721
▁نمادی	-11.7212
▁آرایه	-11.7216
گردهمایی	-11.7218
▁88	-11.7221
یزیم	-11.7225
▁نمانده	-11.7228
▁یخی	-11.7231
▁شیرده	-11.7235
▁هدایای	-11.7237
حدود	-11.7239
▁خال	-11.7243
▁فرماندهان	-11.7245
▁زی	-11.7247
▁پویای	-11.7247
▁Mon	-11.7248
▁جه	-11.7254
▁بدبختی	-11.7259
▁مشروط	-11.726
طبیعی	-11.726
▁مهندسین	-11.726
بلیت	-11.7261
▁فعالانه	-11.7262
▁گیت	-11.7263
▁ایوان	-11.7266
▁ً	-11.7269
▁سازمانها	-11.7274
▁گون	-11.728
▁land	-11.728
ژی	-11.7286
سخ	-11.7293
▁پذیرایی	-11.7302
60	-11.7308
▁10-	-11.7323
▁همجنسگرا	-11.7324
ئر	-11.7326
▁1991	-11.7327
▁تدابیر	-11.7327
▁مخترع	-11.7327
▁ناهنجار	-11.7327
▁ژنراتور	-11.7327
▁سیاهچال	-11.7327
▁زناشویی	-11.7327
▁مشهد	-11.7327
▁ارمنی	-11.7327
▁ظروف	-11.7327
▁عمودی	-11.7327
▁بگذرانید	-11.7328
▁Cloud	-11.7328
▁کرسی	-11.7328
▁اجداد	-11.7328
Bitcoin	-11.7329
▁سعد	-11.733
▁لرزش	-11.7331
▁۶۴	-11.7334
▁مسلحانه	-11.7337
▁میگردد	-11.7338
▁سي	-11.7338
▁انتحاری	-11.7341
▁باشکوه	-11.7341
▁غارت	-11.7347
▁استحکام	-11.7347
▁di	-11.735
ملا	-11.7356
▁دریاها	-11.7357
▁قر	-11.7361
▁۱۹۰	-11.7361
az	-11.7363
▁بيشتر	-11.7363
▁عم	-11.7366
يق	-11.7368
ana	-11.7371
▁قلبم	-11.7372
▁وصف	-11.7373
▁ریزد	-11.7378
▁نارنجی	-11.738
وعد	-11.738
هله	-11.7381
▁شیل	-11.7382
▁صو	-11.7385
▁چا	-11.7389
▁ناامنی	-11.7392
یج	-11.7393
▁بیس	-11.7395
انید	-11.74
▁فراغ	-11.7401
▁کشیدم	-11.7409
▁مارکت	-11.7412
▁بیم	-11.7412
وانه	-11.7412
معه	-11.742
▁١	-11.7421
PA	-11.7422
▁یونی	-11.7423
▁دروغین	-11.7432
▁IN	-11.7434
▁مازاد	-11.7434
▁4:	-11.7439
▁AP	-11.7443
▁DC	-11.7444
ick	-11.7445
ادار	-11.745
▁شیری	-11.745
▁میخواهم	-11.7452
ash	-11.7455
▁سوس	-11.7467
▁بیگ	-11.7474
▁اسماعیل	-11.7475
▁قشنگ	-11.7476
▁Pre	-11.7478
▁اقلیم	-11.748
اسرائيل	-11.7481
▁رمضان	-11.7481
▁موظف	-11.7481
▁هيچ	-11.7481
▁ابریشم	-11.7481
▁بفرمایید	-11.7481
▁بپردازیم	-11.7481
▁معشوق	-11.7481
▁مضطر	-11.7481
▁اپوزیسیون	-11.7481
▁رسوایی	-11.7481
▁پریود	-11.7482
▁مروار	-11.7482
▁Back	-11.7482
▁اکبر	-11.7482
▁Call	-11.7483
▁قبرس	-11.7484
▁كنیم	-11.7485
▁پیشگویی	-11.7485
▁آمرز	-11.7487
▁Inter	-11.7487
▁مدینه	-11.7487
▁کنش	-11.7488
▁تکنسی	-11.7489
▁مراد	-11.7504
ریل	-11.7506
▁1.2	-11.7509
▁Lo	-11.751
▁مگه	-11.7511
▁انتفاع	-11.7512
جذ	-11.7521
حد	-11.753
واره	-11.7532
چر	-11.7541
▁140	-11.7542
▁رخداد	-11.7545
▁پالس	-11.7548
▁گزینش	-11.7552
▁فرزندانم	-11.7555
تریوم	-11.7557
الت	-11.7557
▁امیدواری	-11.7557
▁بیض	-11.756
▁آز	-11.7565
▁نیامد	-11.7568
▁معنادار	-11.7572
▁کبدی	-11.7572
▁خانوار	-11.7573
▁نرسید	-11.7574
▁شهود	-11.7576
رف	-11.758
فه	-11.7596
▁کلیدها	-11.7598
قدرت	-11.7599
▁کرای	-11.7605
ویو	-11.7612
|	-11.7618
اي	-11.7626
▁هال	-11.7627
▁صحرای	-11.763
▁مطالعاتی	-11.7632
▁زایی	-11.7632
ll	-11.7633
ox	-11.7634
▁استثمار	-11.7637
▁المسلمین	-11.7637
▁انقباض	-11.7637
▁لوئیس	-11.7637
▁ساندویچ	-11.7637
▁فرمایند	-11.7637
▁جابز	-11.7637
کمبریج	-11.7637
▁توت	-11.7637
▁Master	-11.7637
▁فرانسیسکو	-11.7637
▁خادم	-11.7637
▁1995	-11.7637
▁حراج	-11.7637
▁Good	-11.7638
▁سمبل	-11.7638
▁بخرند	-11.7639
▁پرینتر	-11.764
زند	-11.7641
▁مکعب	-11.7645
▁آموختن	-11.7646
▁کتابها	-11.7647
▁محرومیت	-11.7647
ite	-11.765
▁نکردیم	-11.7651
▁پاول	-11.7652
▁67	-11.7653
▁Previ	-11.7655
▁جواد	-11.7659
▁بندگی	-11.7659
▁ترمینا	-11.7663
▁نیرومند	-11.7665
ناس	-11.7666
▁حکمرانی	-11.767
▁نگهدار	-11.767
▁چهارده	-11.7671
▁سالاد	-11.7683
لر	-11.7693
▁دوستدار	-11.7693
▁تکاملی	-11.7695
▁مانور	-11.7695
▁ریس	-11.7701
▁لاو	-11.7701
اید	-11.7705
▁آسیاب	-11.7709
▁نامزدی	-11.7709
▁نامیم	-11.7709
TA	-11.771
▁فین	-11.7713
▁ویدئوهای	-11.7714
▁آمین	-11.7717
▁هستن	-11.7721
▁پي	-11.7722
افزون	-11.7729
▁as	-11.7737
بله	-11.7738
وئید	-11.7741
▁خوی	-11.7742
▁مناظره	-11.7744
▁انت	-11.7744
▁آلود	-11.7745
DA	-11.7747
▁نوا	-11.7752
uc	-11.7756
نر	-11.7763
۴۳	-11.7765
▁پرسی	-11.7774
ton	-11.7775
▁Or	-11.7777
▁تعبی	-11.7778
▁بخواه	-11.778
فاکس	-11.7781
▁دریغ	-11.7782
ّی	-11.7793
▁WordPress	-11.7796
▁تنباکو	-11.7796
▁سرمربی	-11.7796
▁مستحکم	-11.7796
▁مرتفع	-11.7796
▁وسواس	-11.7796
▁ائمه	-11.7796
▁روایات	-11.7796
▁1986	-11.7796
▁فاشیست	-11.7796
▁محمود	-11.7796
▁بخوابید	-11.7796
▁DNS	-11.7797
▁53	-11.7797
اقبت	-11.7797
▁برگردند	-11.7799
▁علف	-11.7799
▁آست	-11.7799
▁بخرم	-11.7802
۱۳	-11.7804
ake	-11.7815
ارچوب	-11.7817
دیس	-11.7819
ster	-11.7819
▁مستر	-11.7831
▁خا	-11.7832
▁موافقم	-11.7838
وحشیانه	-11.7839
▁پارامترهای	-11.7841
▁Ver	-11.7842
اکر	-11.7842
٠	-11.7845
69	-11.7846
▁پاي	-11.7847
پوش	-11.7855
qu	-11.7857
ki	-11.7862
▁pro	-11.7863
▁رسانید	-11.7869
▁فرزندانش	-11.787
يش	-11.7873
▁مدرس	-11.7878
كت	-11.7878
▁الع	-11.7882
▁نز	-11.7882
▁پیشگام	-11.7889
▁گفتمان	-11.7897
▁علما	-11.7901
اقل	-11.7903
▁ارثی	-11.7904
▁رایت	-11.7905
۱۸	-11.7909
سوی	-11.7909
▁BA	-11.7911
دیت	-11.7913
▁7)	-11.7915
IT	-11.7918
ستم	-11.792
▁پیامک	-11.7921
▁نوی	-11.7929
▁ترکی	-11.793
▁خوشش	-11.793
ct	-11.7931
ara	-11.7936
rn	-11.7937
ong	-11.7937
▁فج	-11.7941
کلی	-11.7942
▁پارامتر	-11.7947
▁تعصب	-11.7948
▁حاج	-11.7951
▁HTTP	-11.7956
▁iPhone	-11.7957
▁ناآرام	-11.7957
▁نابغه	-11.7957
▁بازگردند	-11.7957
▁نگذاشت	-11.7957
▁امپریالیسم	-11.7957
▁آمیخت	-11.7957
▁نیوزلند	-11.7957
▁احسان	-11.7957
▁ویرجینیا	-11.7958
▁\"	-11.7958
▁فینال	-11.7958
▁بشنوند	-11.7959
▁منجم	-11.796
▁عدل	-11.7961
ob	-11.7963
▁اره	-11.7963
▁پیشگیرانه	-11.7965
▁مجانی	-11.7965
▁هولو	-11.7969
▁آوارگ	-11.797
▁j	-11.7972
▁قل	-11.7973
▁‬	-11.7978
▁میشل	-11.7978
▁مجید	-11.7991
▁چارل	-11.7994
▁62	-11.8001
ug	-11.8002
زینو	-11.8003
فیفا	-11.8007
▁برگشتم	-11.8007
▁مایلی	-11.8007
شنج	-11.8011
▁افتادند	-11.8013
▁تعاونی	-11.8014
گیل	-11.8016
ائو	-11.8022
رانه	-11.8024
ِن	-11.8028
uk	-11.8037
▁Ro	-11.8038
▁کارتون	-11.8042
ew	-11.8044
▁بروس	-11.8045
▁آلیس	-11.8046
ویچ	-11.8052
▁خوردم	-11.8057
▁عقد	-11.8061
▁جوک	-11.8068
do	-11.8069
▁کاندید	-11.8073
▁Un	-11.8075
▁سالخورد	-11.8076
بسط	-11.8078
▁up	-11.8079
سکی	-11.8082
▁سپاسگزار	-11.8083
▁کیفی	-11.8085
▁فرزندم	-11.8091
▁900	-11.8092
▁۳۷	-11.8094
قیف	-11.8099
▁نخواست	-11.8108
▁تظاهر	-11.8113
دروید	-11.8118
▁عادل	-11.8121
▁قاهره	-11.8121
▁فرمایید	-11.8121
▁پوسید	-11.8121
▁فرسود	-11.8121
▁کامرون	-11.8122
▁PDF	-11.8122
▁احوال	-11.8122
▁۱۹۳۰	-11.8122
▁باطن	-11.8122
بنفش	-11.8122
▁مساجد	-11.8122
▁لادن	-11.8123
▁بپرسند	-11.8123
شکستگی	-11.8124
▁خندد	-11.8125
▁پوچ	-11.8126
▁اپرا	-11.8126
▁آشو	-11.8127
▁ویلیامز	-11.8128
▁رقبا	-11.8128
▁صحرا	-11.8129
▁انحصار	-11.8129
۶۹	-11.813
▁ضری	-11.8131
سطو	-11.8133
تنفر	-11.8134
▁توفان	-11.8138
▁بلک	-11.8141
▁نئو	-11.8142
▁et	-11.8142
▁جری	-11.8144
▁گردیم	-11.8147
▁یست	-11.8148
man	-11.8151
▁ممنونم	-11.8152
hen	-11.8153
▁الکس	-11.8155
اض	-11.8158
▁3:	-11.8164
▁منحصرب	-11.8169
▁61	-11.817
▁وزرا	-11.8177
▁فاکتورهای	-11.8177
▁ویدئوی	-11.8178
تاهل	-11.8178
ub	-11.8178
مانع	-11.8182
▁93	-11.8183
خته	-11.8183
▁برندگان	-11.8185
▁بالاست	-11.8187
▁مُ	-11.8192
▁دانشگاهیان	-11.8196
▁آوردیم	-11.8197
اکان	-11.8198
کلاسی	-11.8202
▁پوشی	-11.8207
tra	-11.8208
معمول	-11.8208
▁Ste	-11.821
مهیا	-11.8217
حلال	-11.8221
غلات	-11.8223
▁برسم	-11.8231
فان	-11.8237
▁ES	-11.824
▁بهائی	-11.8241
زبور	-11.8242
▁لوس	-11.8248
ولا	-11.8258
▁حسابی	-11.8262
فیس	-11.8269
-5	-11.8271
▁پوستر	-11.8273
▁»؛	-11.8274
▁نشدنی	-11.8275
▁درگاه	-11.8277
▁بوم	-11.8284
▁آتشفشان	-11.8288
▁پرطرفدار	-11.8288
▁ممتاز	-11.8288
▁میخوام	-11.8288
▁سرنخ	-11.8288
▁بلومبرگ	-11.8288
▁ناصر	-11.8288
▁سزار	-11.8289
▁۱۹۹۸	-11.8289
▁ماهگی	-11.8289
▁مرکب	-11.8289
▁پرخاشگر	-11.8289
▁فریز	-11.8291
▁برنز	-11.8293
▁۲۰۰۲	-11.8295
فونت	-11.8296
▁شویی	-11.8298
▁جعل	-11.8299
▁170	-11.8307
ood	-11.8307
ise	-11.8312
۴۶	-11.8314
▁كامل	-11.8314
▁رادار	-11.8314
ers	-11.8315
▁باج	-11.8317
سیون	-11.8319
BI	-11.8319
▁Love	-11.832
▁عطف	-11.832
▁ين	-11.8322
▁یتیم	-11.8323
▁چشمانش	-11.8324
▁هیولا	-11.8329
۱۷	-11.8343
▁Sha	-11.8356
▁کسان	-11.8364
▁آرترو	-11.8371
▁con	-11.8374
▁مکزیکی	-11.8374
▁حسگر	-11.8375
▁توکل	-11.8375
▁چرخد	-11.8378
▁هوس	-11.8379
کوپتر	-11.8391
▁بیلی	-11.8393
دورو	-11.8397
▁بنگ	-11.8399
▁متفکر	-11.84
فکر	-11.8404
▁نقاش	-11.8411
▁میتون	-11.8413
ارک	-11.8414
▁قور	-11.8414
▁خوابند	-11.8416
▁سوخته	-11.8417
۵۲	-11.8424
اح	-11.8426
▁خندید	-11.844
زو	-11.8441
▁تك	-11.8442
▁دایی	-11.8442
▁مبتدی	-11.8442
▁Sa	-11.8444
▁گلد	-11.8449
▁ربا	-11.8451
▁بروی	-11.8455
▁اسکیزوفرن	-11.8457
▁معبود	-11.8457
▁نامطلوب	-11.8457
▁Chrome	-11.8457
▁بپیوندید	-11.8457
▁آزاردهنده	-11.8458
▁سخاوتمند	-11.8458
٧	-11.8459
▁AM	-11.8459
▁SSL	-11.8459
▁لغا	-11.8459
▁بفروشد	-11.846
لف	-11.8461
Mobile	-11.8461
▁لبنی	-11.8462
▁بشوند	-11.8462
▁نیاید	-11.8464
▁میکنه	-11.8464
▁پلاس	-11.8465
▁ic	-11.8465
▁شریعت	-11.8468
▁۳۳	-11.847
▁کافران	-11.8475
▁نوروز	-11.8476
▁فرمانروای	-11.8483
▁معت	-11.8484
▁زدیم	-11.8485
▁View	-11.8487
▁out	-11.8487
▁پوشا	-11.8487
▁يافت	-11.8489
▁آدام	-11.8498
▁عنا	-11.8501
▁اجسا	-11.8503
▁92	-11.8507
▁یادت	-11.8511
▁آجر	-11.8516
▁اعتقادی	-11.8517
▁دوستت	-11.852
▁سرب	-11.8521
بولتون	-11.8527
70	-11.8528
▁دخترها	-11.8529
▁78	-11.8531
▁تعطیلی	-11.8536
▁والا	-11.8538
▁برگزید	-11.8541
▁سرای	-11.8544
▁76	-11.8549
▁زاد	-11.8558
▁سرا	-11.8558
نج	-11.8559
▁دوستم	-11.8564
▁تبر	-11.8566
▁مهد	-11.857
کوور	-11.8571
کاست	-11.8577
خبر	-11.858
▁تجرب	-11.858
▁جف	-11.8583
▁زین	-11.8587
▁گردی	-11.8591
▁گردانند	-11.8592
▁ژانر	-11.8594
▁گمرکی	-11.8597
cy	-11.8605
▁داروین	-11.8608
▁برگشته	-11.8608
ّا	-11.8613
▁بدنش	-11.8618
▁مزاحم	-11.862
▁مخلوق	-11.8621
▁اسپر	-11.8626
اراضی	-11.8627
▁ارتجاع	-11.863
▁خودمختار	-11.863
▁مقبره	-11.863
▁منسجم	-11.863
▁ناعادلانه	-11.863
▁توحید	-11.863
▁اساتید	-11.863
▁School	-11.863
▁گیگابایت	-11.863
▁متشکرم	-11.863
▁اصالت	-11.863
▁صبحگاهی	-11.863
▁شایان	-11.863
الوگ	-11.863
▁وارث	-11.8631
▁عقلانی	-11.8631
▁IS	-11.8632
▁توانبخشی	-11.8632
▁2030	-11.8632
▁ذرت	-11.8635
▁go	-11.8635
▁مساعد	-11.8636
▁سرگردان	-11.8637
▁شرع	-11.864
▁Mc	-11.8642
▁.....	-11.8643
▁کج	-11.8644
▁قربان	-11.8651
▁مرجان	-11.8656
▁تیتر	-11.8657
▁ضمی	-11.8658
مند	-11.866
▁هور	-11.8666
▁no	-11.8672
▁آس	-11.8673
▁ارض	-11.8673
▁خردسال	-11.8674
▁کشتند	-11.8676
▁تذکر	-11.8685
▁دکتری	-11.869
ru	-11.8692
▁عمران	-11.8699
▁Na	-11.8704
▁اعرا	-11.8705
▁ter	-11.8706
لون	-11.8709
▁نباش	-11.8712
▁میلیاردر	-11.8717
▁AR	-11.8718
ney	-11.872
▁SD	-11.8723
▁برن	-11.8733
▁گز	-11.8734
*	-11.8736
▁چاپی	-11.8737
رید	-11.8737
▁ad	-11.874
▁پروژ	-11.8742
▁آغازین	-11.8746
▁خریدن	-11.8747
▁انیم	-11.875
همه	-11.8759
▁۳۰۰۰	-11.876
▁one	-11.8763
▁سبزی	-11.8764
▁ترند	-11.8767
فشاری	-11.8769
▁Am	-11.8772
▁192	-11.8772
▁کورت	-11.8774
▁تشن	-11.8777
▁پاسخگوی	-11.8783
▁محدودیتی	-11.8784
▁کانت	-11.8785
▁الکترو	-11.8786
اتیو	-11.8789
▁کاشته	-11.8791
GA	-11.8793
▁نوش	-11.8794
▁مبد	-11.8796
▁کلم	-11.8798
▁نفرین	-11.8803
▁1979	-11.8805
▁توفیق	-11.8805
▁طناب	-11.8805
▁مدفوع	-11.8805
▁مصداق	-11.8805
▁High	-11.8805
oint	-11.8805
▁مظلوم	-11.8805
▁ترانزی	-11.8805
▁دلپذیر	-11.8806
▁سردبیر	-11.8806
▁پلیمر	-11.8806
▁بشویید	-11.8806
▁بپذیرند	-11.8806
▁آرتور	-11.8807
▁US	-11.8808
▁اذ	-11.881
▁سوزش	-11.8814
▁مخلوقات	-11.8814
AT	-11.8817
▁اینچی	-11.8821
▁حرمت	-11.8821
۱۲	-11.8821
igital	-11.8824
one	-11.8826
▁MP	-11.8827
▁ویرانگر	-11.8828
▁نمایشنامه	-11.8829
▁Dis	-11.883
▁82	-11.8831
▁ورزید	-11.8832
▁AT	-11.8834
▁ac	-11.8842
واصل	-11.8845
▁مالکان	-11.8847
سرع	-11.8849
▁مستندات	-11.8852
▁هاوایی	-11.8855
▁Su	-11.886
▁ادب	-11.8862
▁بازرس	-11.8867
▁4000	-11.8871
▁رسوم	-11.8872
▁ماریا	-11.8872
▁ریک	-11.8872
▁آسا	-11.8874
▁اقل	-11.8876
▁نشدن	-11.8881
وَ	-11.8883
مقیم	-11.8883
▁افکن	-11.8886
▁2014،	-11.8891
▁Ch	-11.8891
▁شرمند	-11.8892
▁وکارها	-11.8893
▁موقعی	-11.8894
۱۵	-11.8897
▁۴٫	-11.8899
ساوی	-11.8903
▁مرسی	-11.8906
ust	-11.891
all	-11.8911
▁عی	-11.8912
▁اکثرا	-11.8913
ترين	-11.8914
▁اتو	-11.8924
بدون	-11.8926
بند	-11.8928
be	-11.8932
▁خش	-11.8932
▁Ni	-11.8937
صلی	-11.8937
▁لیس	-11.8939
▁عمرش	-11.894
▁گلی	-11.8942
▁ظالمان	-11.8945
▁میهن	-11.895
▁لاین	-11.8961
▁تشی	-11.8964
CC	-11.8965
▁۵۰۰۰	-11.8971
عقوب	-11.8974
سوره	-11.8981
▁زنبورها	-11.8983
▁احضار	-11.8984
▁دوپامین	-11.8984
▁لیورپول	-11.8984
▁ناپایدار	-11.8984
▁ناگوار	-11.8984
تمسخر	-11.8984
▁اهرم	-11.8984
▁تدبیر	-11.8984
▁هولناک	-11.8984
▁استعمال	-11.8984
▁کربلا	-11.8984
▁مدیون	-11.8984
▁آرسن	-11.8984
▁جوزف	-11.8985
▁سیدنی	-11.8986
▁NG	-11.8986
▁تیغ	-11.8986
▁Sky	-11.8986
▁چکیده	-11.8987
▁همجنس	-11.8988
▁89	-11.8992
▁وانگ	-11.8996
▁کاپ	-11.8997
▁بیایم	-11.8998
▁مولف	-11.8999
▁جانی	-11.8999
▁عرفان	-11.9001
▁دستشویی	-11.9002
▁ارزی	-11.9003
▁تونست	-11.9005
▁Win	-11.9006
▁It	-11.9007
▁پارس	-11.9008
▁God	-11.9008
َا	-11.9009
▁گویش	-11.9009
▁خوابید	-11.9009
▁HP	-11.901
▁تابلو	-11.9017
▁سست	-11.9019
net	-11.902
زار	-11.9026
عظم	-11.903
▁شاهدان	-11.9034
ئوس	-11.9035
▁ماشینی	-11.9036
:"	-11.9036
▁پایش	-11.9037
▁شکرگزاری	-11.9037
▁حوا	-11.9043
رواج	-11.9044
per	-11.9045
مثلا	-11.9047
▁Ne	-11.905
▁Sch	-11.9051
▁فراموشی	-11.9053
▁لابی	-11.9057
▁you	-11.9058
▁نهادی	-11.9059
CS	-11.9061
خود	-11.907
▁وَ	-11.9075
▁مکس	-11.9088
▁آدمها	-11.9091
▁2015،	-11.9091
▁جغرافیا	-11.9097
▁EB	-11.9099
▁Pa	-11.9101
▁تبعی	-11.9104
امین	-11.9105
شیب	-11.9107
▁کاهن	-11.9109
▁Bo	-11.911
▁(19	-11.911
▁خص	-11.9111
▁Gu	-11.9111
▁AD	-11.9113
ایم	-11.9118
▁کما	-11.9119
▁اغرا	-11.9122
▁پستاندار	-11.9124
▁میلر	-11.913
▁مذا	-11.9132
یقه	-11.9132
▁عق	-11.9138
▁سوز	-11.9138
age	-11.9143
▁برو	-11.9148
MA	-11.9155
▁الکلی	-11.9157
یوان	-11.9157
▁Network	-11.9162
▁عباد	-11.9162
▁بذر	-11.9162
▁1988	-11.9165
▁Project	-11.9165
▁آریزونا	-11.9165
▁تصاحب	-11.9165
▁خراسان	-11.9165
▁نفهمید	-11.9165
▁هیپنوتیزم	-11.9165
▁کاذب	-11.9165
▁سکولار	-11.9165
▁اعتنا	-11.9166
▁Tech	-11.9166
▁اسلاید	-11.9166
▁صدمات	-11.9166
▁هیأت	-11.9166
▁بگردید	-11.9166
▁کبیر	-11.9166
▁Out	-11.9166
▁Gold	-11.9167
▁ویلسون	-11.9167
▁ترانس	-11.9167
▁بغل	-11.9168
▁الکسا	-11.917
▁Up	-11.917
▁فیش	-11.9172
جماع	-11.9173
▁مؤ	-11.9175
▁Design	-11.9175
▁یادگار	-11.9175
▁بخورم	-11.9179
▁ریاض	-11.918
عابد	-11.9184
▁گزید	-11.9184
▁گراها	-11.9184
▁مثلث	-11.9189
پینگ	-11.9189
▁موم	-11.919
▁آمریكا	-11.919
▁پهلو	-11.9191
▁‍	-11.9195
AL	-11.9195
▁کنیا	-11.92
▁فرزندانتان	-11.92
يج	-11.92
▁پاشید	-11.9204
گار	-11.9204
▁مب	-11.9205
▁٣	-11.9208
▁خونین	-11.9208
▁پند	-11.9209
▁قومیت	-11.9211
▁شناختند	-11.9214
▁نامیدند	-11.9217
▁خواهرش	-11.9218
▁پذیرفتند	-11.9219
American	-11.9221
▁عج	-11.9223
حق	-11.9224
رق	-11.923
▁Max	-11.9234
▁بکش	-11.9235
▁خز	-11.9238
سعود	-11.924
رسوم	-11.9244
▁نرد	-11.9245
HA	-11.9245
كنون	-11.9246
▁میکروبی	-11.9248
▁ویدیوهای	-11.9248
▁یور	-11.9249
وکار	-11.9249
▁نظار	-11.9257
▁آف	-11.9269
توالی	-11.927
▁اسکان	-11.9271
▁ri	-11.9281
▁جیمی	-11.9284
▁نیس	-11.929
دگان	-11.9296
RS	-11.9311
▁رت	-11.9316
▁۱۲۰	-11.9318
▁پارتی	-11.9327
سالم	-11.9332
نک	-11.9333
▁مونو	-11.9337
▁84	-11.934
▁تدارک	-11.9342
▁سومی	-11.9343
▁نبی	-11.9345
▁Day	-11.935
▁Java	-11.935
▁کامبوج	-11.9351
▁تلفیق	-11.9351
ترقی	-11.9351
▁چلسی	-11.9351
▁بفروشید	-11.9351
۷۹	-11.9352
▁بشناسند	-11.9352
▁خلیف	-11.9352
▁1930	-11.9353
▁جغرافیای	-11.9353
▁Hua	-11.9354
▁وصیت	-11.9354
▁City	-11.9354
▁حیط	-11.9355
▁بشنود	-11.9355
sa	-11.9355
▁عجب	-11.9355
▁بفرستد	-11.9356
▁بخرد	-11.9356
▁شكل	-11.9357
▁رند	-11.9359
▁دالر	-11.9362
▁گاوها	-11.9364
▁مسوول	-11.9365
غال	-11.9365
▁el	-11.9367
▁معالجه	-11.9367
TP	-11.937
ware	-11.938
25	-11.9382
▁Mar	-11.9384
AM	-11.9385
▁back	-11.9387
▁نارسا	-11.9388
داشت	-11.9397
▁زار	-11.9399
air	-11.9401
▁دیدگی	-11.9403
▁دانیل	-11.9404
یونسکو	-11.9405
SC	-11.9406
بخش	-11.9409
EPA	-11.9412
تال	-11.9414
بورگ	-11.9414
▁State	-11.9414
▁کلاژ	-11.9415
▁واکنشی	-11.9419
▁احتمالات	-11.942
▁هش	-11.9422
▁بازگشتند	-11.9427
▁بسا	-11.9428
▁هدفش	-11.9431
افی	-11.9432
▁Po	-11.9433
▁وقتش	-11.9437
حتی	-11.9451
ax	-11.9451
▁سول	-11.9453
▁Cap	-11.9454
▁آهنی	-11.9456
شاپ	-11.9458
٨	-11.9463
▁داگ	-11.9467
▁گرده	-11.9468
▁زم	-11.9472
بیش	-11.9473
▁زهر	-11.9474
ناپذیر	-11.9479
فاشیسم	-11.9492
▁مارکو	-11.9492
▁عکسی	-11.9494
▁مولا	-11.9495
▁۴۲	-11.9496
اندن	-11.9497
▁دوازدهم	-11.9498
آیی	-11.9504
▁فردای	-11.9505
نم	-11.9505
▁ممل	-11.9509
▁حفاظتی	-11.9517
▁زره	-11.9519
lex	-11.9519
▁سنگر	-11.9525
شته	-11.9527
▁رُ	-11.9527
LA	-11.9529
▁بدبین	-11.9538
▁Li	-11.9538
▁الکترومغناطیس	-11.9539
▁بپوشید	-11.9539
▁دخانیات	-11.9539
▁دلقک	-11.9539
▁مفاد	-11.9539
▁تجدیدپذیر	-11.954
▁دادرسی	-11.954
▁نشریات	-11.954
▁Media	-11.954
آرتریت	-11.954
▁آشام	-11.954
▁1920	-11.9541
▁گنجینه	-11.9541
▁لگن	-11.9541
▁قهر	-11.9541
▁شنویم	-11.9543
▁پیمود	-11.9544
▁3.5	-11.9544
▁خرسند	-11.9547
▁آکن	-11.9548
▁تباه	-11.9548
▁آنتونی	-11.9552
▁ایدئولوژیک	-11.9554
▁جاسوس	-11.9559
▁پلک	-11.9561
▁میهمان	-11.9561
▁ME	-11.9562
▁بامزه	-11.9563
no	-11.9568
▁حسابدار	-11.9569
ملو	-11.9569
▁دای	-11.957
زدگی	-11.9571
▁نمادها	-11.9572
▁چتر	-11.958
DR	-11.9583
▁تورها	-11.9583
▁تق	-11.9587
کراس	-11.9588
sh	-11.9594
دهد	-11.9594
▁فرزندشان	-11.9595
▁کلیو	-11.9598
▁جل	-11.9598
▁پیت	-11.96
تفرقه	-11.9603
▁USD	-11.9604
▁خواهرم	-11.9605
۱۶	-11.9605
توپ	-11.9605
▁۹۶	-11.9607
▁der	-11.9608
▁DS	-11.9608
▁تصادفات	-11.9613
▁1500	-11.9617
ko	-11.9618
bo	-11.9619
▁آتن	-11.9622
▁مداد	-11.9623
▁بگیری	-11.9624
ke	-11.9628
▁؟"	-11.963
▁اندیش	-11.9637
▁برگرد	-11.9638
▁دستمزدها	-11.9638
▁لینکد	-11.9643
▁فرآورد	-11.9648
▁رویاها	-11.965
▁لیز	-11.9651
lan	-11.9655
▁SM	-11.9657
▁قائ	-11.9659
▁سانتا	-11.9664
حساب	-11.9664
▁گین	-11.9666
▁شاعران	-11.9669
▁رک	-11.967
▁کاندیدای	-11.9676
▁نماند	-11.9676
▁(3	-11.9677
▁شتر	-11.9678
▁Vi	-11.9681
۱۴	-11.9686
ory	-11.9688
▁جوید	-11.9694
ارنگ	-11.9695
خور	-11.9696
▁برزیلی	-11.9697
▁شاپ	-11.9699
ّل	-11.9702
▁جنگند	-11.9718
SI	-11.9719
برهنه	-11.972
▁امیدی	-11.973
▁استغفار	-11.9732
▁فامیل	-11.9732
▁شامپو	-11.9732
▁YouTube	-11.9732
▁تسنیم	-11.9732
اسحاق	-11.9732
▁Office	-11.9732
▁تاجیکستان	-11.9732
▁***	-11.9732
▁واکسیناسیون	-11.9732
▁آسپر	-11.9732
og	-11.9732
▁نافرمان	-11.9732
▁کشمکش	-11.9732
▁Security	-11.9732
▁محسن	-11.9732
▁System	-11.9732
▁کامنت	-11.9733
▁محرم	-11.9734
▁اعضاء	-11.9734
کالیف	-11.9734
ya	-11.9734
▁الکترود	-11.9735
▁بنشیند	-11.9735
▁تموم	-11.9736
▁مگاوات	-11.9737
▁کارآمدتر	-11.9739
▁King	-11.9739
▁آیم	-11.974
▁غلام	-11.9742
▁ریال	-11.9742
▁پریشان	-11.9742
▁Drive	-11.9743
▁طفل	-11.9744
▁چمن	-11.9744
AR	-11.9746
▁ویرایشگر	-11.9747
▁شخصاً	-11.9748
BC	-11.9754
کتاپ	-11.9755
▁اقامتگاه	-11.9756
▁۱۹۵	-11.9756
▁شیراز	-11.9756
▁کردار	-11.9758
▁داش	-11.9761
▁نین	-11.9762
▁تد	-11.9763
▁SP	-11.9764
▁گمرک	-11.9769
ens	-11.9781
▁do	-11.9782
▁عزاداری	-11.9783
▁پانزدهم	-11.9798
▁تین	-11.9801
▁AS	-11.9806
▁نویسید	-11.9811
▁Vo	-11.9821
▁کُ	-11.9825
▁58	-11.9836
▁ديد	-11.9837
▁يي	-11.9839
lix	-11.984
زاد	-11.984
▁۷۰۰	-11.9845
▁Don	-11.985
اتون	-11.9855
اقص	-11.9856
▁ra	-11.9858
برابر	-11.9859
آمیز	-11.986
▁ترساند	-11.9862
▁رؤیای	-11.9865
ذوق	-11.9868
▁گالی	-11.9874
یای	-11.988
تول	-11.9888
▁ثروتمندتر	-11.9889
جرقه	-11.9896
عادی	-11.9896
▁بلای	-11.9896
یار	-11.9896
▁دیرین	-11.9897
LS	-11.9903
▁بنز	-11.9908
▁Col	-11.9913
▁٤	-11.9915
ost	-11.9919
▁دهلی	-11.9919
ریس	-11.9919
▁آشکارساز	-11.992
▁CV	-11.9923
▁Science	-11.9924
▁دلسوز	-11.9926
زلزل	-11.9927
▁1975	-11.9928
▁فضیلت	-11.9928
▁ماساچوست	-11.9928
▁آیپد	-11.9928
▁پیشتاز	-11.9928
▁XML	-11.9928
▁White	-11.9928
▁نمائید	-11.9928
55	-11.9928
▁شراکت	-11.9928
▁Mark	-11.9929
▁اونجا	-11.993
▁بتمن	-11.9932
▁منصف	-11.9932
▁مکانهای	-11.9933
▁ضمیر	-11.9933
▁اسنو	-11.9934
▁اشاع	-11.9934
▁بپرسم	-11.9935
▁پاسداران	-11.9936
32	-11.9936
▁Sun	-11.9936
پردازی	-11.9937
▁خوای	-11.9937
▁معذ	-11.9938
▁هشیار	-11.9939
▁بکشم	-11.9939
▁لوح	-11.9939
یاهو	-11.994
▁SS	-11.994
▁اولا	-11.9942
▁نکردید	-11.9942
gu	-11.9945
▁متراکم	-11.9949
▁کارگزاران	-11.995
▁81	-11.995
ray	-11.9952
▁نگرد	-11.9953
my	-11.9955
▁GT	-11.9956
▁گردشگر	-11.9957
80	-11.9959
▁سپاری	-11.9962
▁mg	-11.9962
کائین	-11.9967
▁te	-11.9967
LDL	-11.997
▁Park	-11.9971
RNA	-11.9975
▁نمایم	-11.9977
وتو	-11.9978
▁139	-11.9979
زون	-11.9982
rin	-11.9988
atch	-11.9993
▁دزدان	-11.9995
▁متفکران	-11.9995
▁کون	-11.9997
▁کرو	-11.9999
▁تردیدی	-12.0001
▁کرک	-12.0002
nd	-12.0009
اسکناس	-12.0012
▁خوابیده	-12.0015
▁بازگردان	-12.0017
▁ماکرو	-12.0018
▁لوسی	-12.0019
حسب	-12.0022
▁TR	-12.0023
▁خصو	-12.0026
▁مشارکتی	-12.0029
بیگانگان	-12.003
▁نشدم	-12.0032
▁Pi	-12.0034
▁شناختم	-12.0036
▁محسوس	-12.0041
ندن	-12.0043
نظم	-12.0047
▁ژی	-12.0048
▁ترجیحات	-12.005
▁5:	-12.0053
▁بون	-12.0054
▁بخوان	-12.0056
▁ببینی	-12.0059
نواخت	-12.006
حداقل	-12.0061
▁آو	-12.0061
▁ro	-12.0065
▁پنهانی	-12.0069
▁سیزده	-12.007
▁یِ	-12.0076
ool	-12.008
ight	-12.0081
▁آخ	-12.0084
▁Br	-12.0087
nt	-12.0088
▁عرف	-12.0089
▁فروشند	-12.0089
مشتاقانه	-12.009
▁یگان	-12.0092
تایی	-12.0092
یکس	-12.0106
▁مز	-12.011
▁گود	-12.0113
▁CR	-12.0115
▁خسار	-12.0119
90	-12.0119
▁كا	-12.0121
▁نگریست	-12.0121
AMP	-12.0123
سموم	-12.0123
▁سمینار	-12.0124
▁بگویی	-12.0125
▁مطب	-12.0127
▁Battle	-12.0128
▁تشعشع	-12.0128
▁میگویند	-12.0128
▁نپذیرفت	-12.0128
▁پنسیلوانیا	-12.0128
▁کبود	-12.0128
▁فرانسیس	-12.0128
تأسف	-12.0128
▁توليد	-12.0128
▁جسور	-12.0128
▁میلیمتر	-12.0128
▁غذاخوری	-12.0128
▁Journ	-12.0128
▁بازمانده	-12.0128
▁نشیمن	-12.0128
▁ویزیت	-12.0128
▁بیابند	-12.0128
▁Code	-12.0128
▁مرمر	-12.0128
خشکسالی	-12.0128
▁1949	-12.0129
▁بپیوندد	-12.0129
▁>>	-12.0129
▁لیپو	-12.0129
▁دیس	-12.0129
ran	-12.0129
▁1.4	-12.0131
▁مصلح	-12.0131
▁جوراب	-12.0133
▁گرامر	-12.0134
▁1984	-12.0134
▁حک	-12.0135
▁برنارد	-12.0136
▁ریگان	-12.0139
▁اقبال	-12.0142
بوت	-12.0144
▁خواری	-12.0147
▁گال	-12.0147
▁گلدان	-12.015
▁۳۹	-12.0153
▁Val	-12.0153
۲۴	-12.0156
▁لوط	-12.0159
▁پرداز	-12.0159
wei	-12.0162
▁سپاسگزاری	-12.0162
▁فروند	-12.0163
▁متعاقب	-12.0164
▁سالیان	-12.0166
▁لینگ	-12.0172
SA	-12.0173
ابی	-12.0173
زید	-12.018
▁IV	-12.0181
ai	-12.0181
▁خودتون	-12.0197
ka	-12.0202
▁ویلا	-12.0204
۹۶	-12.0204
▁وخیم	-12.0205
▁Inc	-12.0206
▁بیاد	-12.0212
▁Fr	-12.0213
▁مانعی	-12.0217
▁تح	-12.0226
▁عمار	-12.0226
یمیر	-12.0231
۲۵	-12.0235
▁گراف	-12.0236
ler	-12.024
▁پاشن	-12.0245
▁73	-12.0248
▁ster	-12.0251
پولو	-12.0252
ps	-12.0253
١	-12.0264
شامل	-12.0266
▁اشیای	-12.0271
ستن	-12.0272
▁پرداختی	-12.0272
q	-12.0274
▁پذیرای	-12.0276
ترا	-12.0276
توانم	-12.0282
▁بچ	-12.0285
▁130	-12.0288
▁بازدیدکنند	-12.0289
▁برپای	-12.0298
▁بلی	-12.0301
▁صر	-12.0305
han	-12.031
▁چشمی	-12.0312
▁2،	-12.0313
ICO	-12.0319
دانیم	-12.0319
ess	-12.0319
▁استیون	-12.0321
▁رسال	-12.0322
▁File	-12.0329
▁BS	-12.033
▁Amazon	-12.0332
▁iPad	-12.0332
▁بوتاکس	-12.0332
▁درخشش	-12.0332
▁سریلانکا	-12.0332
▁۱۹۹۲	-12.0332
▁Health	-12.0332
▁ملوان	-12.0332
▁گنبد	-12.0332
▁پسورد	-12.0332
▁برام	-12.0333
▁Way	-12.0333
▁بفروشند	-12.0333
دایرکتوری	-12.0334
▁بصیرت	-12.0334
▁قبرستان	-12.0337
▁سوئیسی	-12.0337
▁پررنگ	-12.0338
▁تحریر	-12.0338
▁سیارک	-12.0338
▁هجدهم	-12.034
▁87	-12.034
▁چرت	-12.0343
▁ایجاب	-12.0346
▁LG	-12.0347
▁پائول	-12.0347
▁سندرز	-12.0349
▁74	-12.0351
▁Glob	-12.0353
برا	-12.0353
▁اخر	-12.0354
ear	-12.0354
▁SQL	-12.0355
▁پوک	-12.0359
وط	-12.0361
اوا	-12.037
▁افزا	-12.037
▁سده	-12.0374
▁کِ	-12.0375
▁جیو	-12.0376
op	-12.038
▁اشتها	-12.038
▁سناریوی	-12.0381
▁کوشید	-12.0381
۳۰	-12.0383
▁سناریوها	-12.0396
▁خوردگی	-12.0396
ren	-12.0397
▁مغول	-12.0398
▁زل	-12.04
▁سردار	-12.04
MI	-12.0405
اهی	-12.0408
ازیر	-12.0416
▁سکو	-12.0418
▁am	-12.0419
▁استیل	-12.042
▁ابی	-12.0421
▁روایتی	-12.0423
▁ساک	-12.0423
▁داروسازی	-12.0427
التر	-12.0431
▁سياس	-12.0432
▁۷۲	-12.0445
▁رئ	-12.0447
▁جدال	-12.0449
SH	-12.0456
▁(8	-12.0459
▁پشیمانی	-12.0463
NET	-12.0472
#	-12.0473
▁گواه	-12.0474
▁خندان	-12.0474
تولید	-12.0475
▁معجز	-12.0475
▁Ko	-12.0482
▁بدید	-12.0483
▁خردمند	-12.0488
▁نتیج	-12.0488
تنها	-12.0489
۹۸	-12.049
▁موسوی	-12.0492
▁روا	-12.0496
پیوسته	-12.0501
▁حرفهای	-12.0502
ier	-12.051
▁آموزند	-12.0511
▁پک	-12.0513
قرار	-12.0514
▁دایم	-12.0514
▁سرپرستی	-12.0514
▁لئو	-12.0521
▁مورخ	-12.0527
▁ورای	-12.0528
▁Vis	-12.053
▁دلت	-12.0531
▁افزودنی	-12.0531
▁مطبوع	-12.0534
▁همچن	-12.0535
US	-12.0536
BS	-12.0537
19	-12.0537
ابولیک	-12.0539
▁Trans	-12.054
▁ابرقهرمان	-12.054
▁تروتسکی	-12.054
▁مارشال	-12.054
▁مضاعف	-12.054
▁دلسرد	-12.054
▁سانتیمتر	-12.054
▁حصار	-12.054
▁رقیق	-12.054
▁هواشناسی	-12.054
▁کارآگاه	-12.054
▁بیروت	-12.054
▁مشكل	-12.054
ittle	-12.054
▁اسرارآمیز	-12.054
▁حوالی	-12.0541
▁Edition	-12.0541
▁حیث	-12.0541
▁شرافت	-12.0541
▁قضائی	-12.0541
▁HTTPS	-12.0541
▁شتم	-12.0541
TE	-12.0542
▁آئین	-12.0542
▁بوسنی	-12.0542
▁۶٫	-12.0542
▁Dark	-12.0542
▁بخریم	-12.0542
▁West	-12.0542
▁365	-12.0543
▁مستثن	-12.0543
▁خلا	-12.0543
عه	-12.0544
▁استریت	-12.0544
▁پیمایش	-12.0544
▁نوشند	-12.0545
▁Street	-12.0547
load	-12.0547
▁پیل	-12.0547
ئه	-12.0549
▁چرم	-12.0549
▁News	-12.055
▁شاتر	-12.0554
▁زمين	-12.0556
▁منفعل	-12.0557
▁دسر	-12.0559
▁Plus	-12.0561
باد	-12.0563
go	-12.0565
lock	-12.0566
IN	-12.057
▁شفق	-12.0574
نوئل	-12.0575
▁دونم	-12.0576
▁حقّ	-12.0585
▁فرستادند	-12.0587
▁سرمای	-12.0588
▁انداختند	-12.059
ابلیس	-12.0592
▁انضباط	-12.0592
bu	-12.0594
▁منشور	-12.0599
▁}	-12.0601
▁بیشمار	-12.0605
▁افتخاری	-12.061
▁روسا	-12.0616
▁لارن	-12.0617
▁عمدی	-12.0625
لوژی	-12.0625
▁%)	-12.0631
▁پلید	-12.0632
EC	-12.0632
▁نال	-12.0639
اکتیو	-12.0639
▁اصلاحی	-12.0639
▁my	-12.0641
po	-12.0645
▁هیپو	-12.0647
▁روزهایی	-12.0651
▁ستان	-12.0652
اریز	-12.0662
▁گریخت	-12.0663
▁انفجاری	-12.0664
▁کریستین	-12.0668
▁کمیت	-12.0675
▁EC	-12.0677
IF	-12.0677
▁And	-12.0677
▁mo	-12.0678
▁هنجارها	-12.0681
▁سپرد	-12.0684
▁محول	-12.0686
▁بوکس	-12.0686
▁SE	-12.0689
▁طبع	-12.0693
ole	-12.0695
▁دندانهای	-12.07
طین	-12.07
▁IC	-12.0703
▁نهار	-12.0716
دگي	-12.0717
▁یونس	-12.0724
hu	-12.0724
▁MI	-12.0725
شعار	-12.0728
هال	-12.073
▁IO	-12.073
▁Comp	-12.0734
▁6000	-12.0736
▁Core	-12.0747
▁Studio	-12.0749
▁مولد	-12.075
▁Art	-12.075
▁UN	-12.0751
▁Manager	-12.0753
▁آمبولانس	-12.0753
▁اقتباس	-12.0753
▁بیندازد	-12.0753
▁زاکربرگ	-12.0753
▁سورپرایز	-12.0753
▁ناپلئون	-12.0753
▁چگال	-12.0753
▁مغایر	-12.0753
▁House	-12.0753
▁مفتخر	-12.0753
▁منصور	-12.0753
▁CPU	-12.0753
▁بیهوش	-12.0753
▁گلوتن	-12.0753
▁برسانیم	-12.0754
▁With	-12.0754
▁مرکل	-12.0754
▁نخورید	-12.0754
▁متفق	-12.0755
▁Page	-12.0755
وگ	-12.0755
▁شنوم	-12.0756
▁جمال	-12.0756
▁الم	-12.0756
▁آه	-12.0757
▁1.8	-12.0759
▁پیامد	-12.0759
▁خرداد	-12.076
▁رحیم	-12.076
▁li	-12.0762
طری	-12.0763
▁روتین	-12.0763
▁کنيد	-12.0763
دهای	-12.0764
▁شرور	-12.0765
▁غیب	-12.0765
اپیش	-12.0766
iv	-12.0772
▁سوت	-12.0774
▁زیربنای	-12.0775
ES	-12.0777
نشین	-12.078
▁RE	-12.078
▁(10	-12.0782
▁سونوگراف	-12.0787
▁يت	-12.0787
▁صدد	-12.0788
▁سلیمانی	-12.0789
۶۸	-12.0789
▁پسندیده	-12.079
▁علای	-12.079
▁زیاده	-12.0793
▁دوک	-12.0793
کستر	-12.0794
▁لوتر	-12.0797
▁اصولا	-12.0802
▁فست	-12.0802
بلاغ	-12.0802
▁لیون	-12.0803
he	-12.0807
▁دویست	-12.0808
▁٩	-12.0808
▁سپر	-12.0809
▁تایی	-12.0809
▁فیزیوتراپی	-12.0811
▁الح	-12.0812
▁رابین	-12.0812
old	-12.0815
▁رویت	-12.0815
▁٨	-12.0825
tor	-12.0828
▁شیا	-12.083
▁نبودیم	-12.0831
▁آمدیم	-12.0834
▁:)	-12.0838
ولین	-12.0838
ON	-12.0839
▁دهانش	-12.0841
▁اسمی	-12.0843
▁رساندند	-12.0843
IA	-12.0845
زاک	-12.0845
اکا	-12.0845
▁حاکمان	-12.0852
▁نفی	-12.0857
▁350	-12.0861
توث	-12.0862
▁مشکی	-12.0863
شکل	-12.0866
▁رست	-12.0872
▁؟”	-12.0875
لَ	-12.0882
▁کیش	-12.0883
▁آهنگساز	-12.0886
;	-12.0888
تقابل	-12.0889
ورشکستگی	-12.0892
ris	-12.0893
بیوتیک	-12.0903
ize	-12.0907
ندگی	-12.0907
▁خریده	-12.0908
▁گفتاری	-12.0912
▁(7	-12.0917
▁اسکور	-12.0921
▁ارو	-12.0922
روم	-12.0923
▁میدانی	-12.0924
21	-12.0925
ُل	-12.0925
▁روشنفکر	-12.0926
▁اکرا	-12.0928
اجسام	-12.0935
▁اکر	-12.0935
▁کنارش	-12.0946
▁SO	-12.0949
▁ممنوعه	-12.0952
▁بم	-12.0953
▁یوم	-12.0954
امی	-12.0955
تقارن	-12.0957
▁گناهکار	-12.0957
▁کسل	-12.0957
▁پرید	-12.0961
▁71	-12.0967
▁نکشید	-12.0967
▁na	-12.0969
▁Control	-12.097
▁1987	-12.097
▁Analytic	-12.097
▁College	-12.097
▁متجاوز	-12.097
▁ویراستار	-12.097
اپیزود	-12.097
▁[5]	-12.097
▁کریپتو	-12.097
▁Image	-12.097
▁ناکافی	-12.097
▁Machine	-12.097
راگم	-12.0971
▁بپیوندند	-12.0971
▁۱۹۴۵	-12.0971
▁DVD	-12.0971
▁Center	-12.0971
▁سومالی	-12.0971
▁ابوظ	-12.0971
▁هنگفت	-12.0971
▁1945	-12.0972
▁نياز	-12.0972
▁آلبانی	-12.0972
▁نگیرد	-12.0972
▁بازوها	-12.0974
▁پراگ	-12.0974
▁مورگان	-12.0975
▁بشوید	-12.0975
▁مُرد	-12.0976
▁بردبار	-12.0977
▁۶۶	-12.0977
▁مغل	-12.0977
▁بشویم	-12.0977
▁برندها	-12.0977
▁جارو	-12.0979
▁آيا	-12.0979
خا	-12.098
▁نگو	-12.0983
▁فعلاً	-12.0985
▁pa	-12.0986
▁میانجی	-12.0987
ثر	-12.0987
▁دمکرات	-12.0987
▁میگه	-12.099
EL	-12.099
ny	-12.0992
راب	-12.0993
۶۰	-12.0995
▁زشتی	-12.0996
▁نشیند	-12.0997
▁Fire	-12.1
▁فنگ	-12.1001
▁Book	-12.1004
ضت	-12.1009
50	-12.1015
ific	-12.102
لى	-12.1026
▁پرسم	-12.1027
نوس	-12.1028
▁باهاش	-12.1031
ali	-12.1032
▁آرت	-12.1035
▁فسیل	-12.1035
▁آتلانتی	-12.1035
▁رسیدید	-12.1036
▁app	-12.104
نیوم	-12.1041
▁بندهای	-12.1041
▁Se	-12.1045
يده	-12.1048
▁هود	-12.1049
▁ري	-12.1059
▁مجبورند	-12.1065
تصاب	-12.1068
▁دیم	-12.107
شماری	-12.1071
گفته	-12.1072
صیل	-12.1078
▁کوم	-12.1081
▁شاء	-12.1082
▁توضیحی	-12.1087
ّم	-12.1089
وتی	-12.1089
che	-12.109
پولیس	-12.1093
▁هوادار	-12.1097
▁کرات	-12.1099
▁آرد	-12.1099
▁گردو	-12.1104
▁مَ	-12.1105
اول	-12.1106
▁کارتر	-12.111
▁نرفت	-12.1116
▁(4	-12.1116
▁End	-12.1124
زیستی	-12.1126
عقد	-12.1127
▁گرمایی	-12.1129
▁سپ	-12.1131
جمعیت	-12.1136
▁تشک	-12.1137
▁بشی	-12.114
▁مرورگرها	-12.1146
▁Da	-12.1148
▁یادش	-12.1149
▁1200	-12.1152
-2	-12.1152
▁آش	-12.1152
▁Chi	-12.1154
شدت	-12.1156
مبو	-12.1165
FA	-12.1165
دوکس	-12.1167
▁1,	-12.1168
▁Is	-12.1168
▁خرم	-12.117
▁بيش	-12.1177
▁بولیو	-12.1182
▁Cam	-12.1184
سوخ	-12.1186
رقه	-12.1187
▁Express	-12.1193
▁آمستردام	-12.1193
▁بیندازیم	-12.1193
▁مضحک	-12.1193
▁مفقود	-12.1193
▁پنگوئن	-12.1193
▁۱۹۹۴	-12.1193
▁پرهزین	-12.1193
▁افسوس	-12.1193
▁کاکائو	-12.1193
▁نشاط	-12.1193
▁الوقوع	-12.1193
▁Store	-12.1193
▁گاراژ	-12.1193
▁زای	-12.1193
▁Paul	-12.1193
▁۱۹۶۸	-12.1194
▁کاروان	-12.1194
▁Rich	-12.1194
▁پدیا	-12.1195
▁ببخشند	-12.1196
▁خس	-12.1196
▁بمیرد	-12.1196
▁دیتا	-12.1196
Search	-12.1197
▁Tru	-12.1198
▁لفظ	-12.1198
▁یونیسف	-12.1198
خوب	-12.1199
▁Games	-12.1199
▁متوسل	-12.1201
▁کورتیزو	-12.1201
نیامین	-12.1203
▁راستین	-12.1203
▁کاوشگر	-12.1204
▁عاج	-12.1205
قرعه	-12.1207
▁سپاسگزارم	-12.1207
▁(4)	-12.1208
همان	-12.1212
سویه	-12.1216
ber	-12.1216
va	-12.122
کتوم	-12.1221
▁صل	-12.1225
▁ماجراهای	-12.1225
أن	-12.1226
۲۲	-12.1226
▁بدنساز	-12.1228
▁ابتکارات	-12.1229
▁\	-12.1229
▁سراسری	-12.1229
سانحه	-12.123
ev	-12.1232
▁Dr	-12.1232
▁خصم	-12.1234
اتور	-12.1236
▁لکن	-12.1239
▁ta	-12.124
▁EA	-12.124
▁Cal	-12.1244
راط	-12.1246
▁نرود	-12.1251
ونایت	-12.1251
َد	-12.1255
▁رون	-12.1256
▁Di	-12.126
▁شوخ	-12.1262
▁سوزنی	-12.1265
▁اسکو	-12.1266
▁تایم	-12.1266
.4	-12.1266
▁كشورها	-12.1266
پسون	-12.1266
▁آموزنده	-12.127
▁ex	-12.1281
▁خواستن	-12.1283
fa	-12.1283
▁Lin	-12.1293
بقی	-12.1295
▁پندار	-12.1297
▁نهادها	-12.1302
▁بورگ	-12.1303
▁عن	-12.1303
▁نوازندگ	-12.1306
▁نشستم	-12.1316
▁PR	-12.1322
▁موری	-12.1328
▁ذل	-12.1331
ng	-12.1332
▁-1	-12.1333
صرف	-12.1333
▁راهرو	-12.1334
▁لایت	-12.1338
حل	-12.1338
▁ive	-12.134
uck	-12.1342
yl	-12.1342
▁نجومی	-12.1344
▁خانواد	-12.1352
حکیم	-12.1354
▁لغز	-12.1357
۲۳	-12.1359
▁آلپ	-12.1359
مردم	-12.1362
زد	-12.1362
▁1.0	-12.1365
▁Port	-12.1369
▁فراخواند	-12.1371
▁جیر	-12.1372
▁110	-12.1376
▁فریبند	-12.1376
ئون	-12.1382
▁فالو	-12.1385
۷۷	-12.1389
▁لور	-12.1392
شل	-12.1394
▁هندو	-12.1394
▁Gra	-12.1397
▁Ed	-12.1398
▁اخ	-12.14
▁un	-12.1401
وثی	-12.1401
▁اراد	-12.1401
MO	-12.1407
▁مسیریاب	-12.1408
▁line	-12.1411
▁واتس	-12.1412
▁میکنن	-12.1413
su	-12.1413
▁اهم	-12.1415
▁عشقی	-12.1418
▁1973	-12.142
▁1978	-12.142
▁eBay	-12.142
▁هوانورد	-12.142
▁گسست	-12.142
▁انیشتین	-12.142
▁عتیق	-12.142
نتاریو	-12.142
▁قاسم	-12.142
obert	-12.142
▁فرانکلین	-12.142
▁رزولو	-12.142
▁شلاق	-12.142
▁حوض	-12.142
▁بیابد	-12.142
▁مستحق	-12.142
▁پورشه	-12.1421
▁Watch	-12.1421
▁محصو	-12.1421
▁آناتومی	-12.1421
▁Will	-12.1421
▁شریان	-12.1421
▁پلوتو	-12.1422
▁انقضا	-12.1422
▁وینس	-12.1422
▁انگور	-12.1423
▁بشناسد	-12.1423
▁Tag	-12.1423
▁UX	-12.1423
▁نویسندگی	-12.1424
▁کلارک	-12.1424
▁Bi	-12.1427
▁تندرو	-12.1428
▁لطیف	-12.1429
OR	-12.1434
▁بکارگیری	-12.1435
▁دیکت	-12.1437
▁رینگ	-12.1438
لک	-12.1438
▁Mich	-12.1438
▁۸۸	-12.1439
▁CH	-12.144
▁تص	-12.144
▁۵۱	-12.1441
▁بشمار	-12.1442
▁سپید	-12.1445
▁غارها	-12.1447
der	-12.1448
▁ناف	-12.1449
ple	-12.145
کون	-12.1453
▁صلیبی	-12.1462
▁CS	-12.1463
▁زیباتر	-12.1472
الد	-12.1472
▁طبیعتا	-12.1472
▁هزاره	-12.1477
▁ننگ	-12.1481
▁فراور	-12.1481
▁؟؟	-12.1482
وسکوپ	-12.1484
▁ویکی	-12.1494
▁غیا	-12.15
▁Ta	-12.1504
▁٧	-12.1511
طمع	-12.1512
▁مجوزها	-12.1517
▁اورژانسی	-12.1522
٥	-12.1524
▁کیفر	-12.1529
▁فدا	-12.1529
▁یادمان	-12.1531
▁اشغالگر	-12.1531
▁پروا	-12.1531
▁پیشگامان	-12.1532
▁پرا	-12.1534
▁نورد	-12.1534
▁Bit	-12.1535
▁روت	-12.1537
▁كردم	-12.154
▁ناک	-12.1544
▁پیداست	-12.1548
ثناء	-12.1551
▁ژئو	-12.1552
▁جم	-12.1553
زاده	-12.1553
▁بچرخان	-12.1554
ant	-12.1557
▁Note	-12.1559
عاب	-12.1559
يب	-12.1562
▁ED	-12.1562
امبورگ	-12.1562
▁متوسطه	-12.1563
▁Ac	-12.1564
▁بتون	-12.1565
سَ	-12.1566
▁آندر	-12.1568
lash	-12.1572
▁450	-12.1576
▁گلوی	-12.1582
}	-12.1584
host	-12.1585
پف	-12.1597
لاب	-12.1602
خواستم	-12.1611
ral	-12.1613
۴۰	-12.1615
▁Qu	-12.1618
▁جذابی	-12.1619
▁IR	-12.1619
▁میکروف	-12.1621
▁٢٠١	-12.1622
▁زیرک	-12.1622
▁تابلوی	-12.1623
▁RS	-12.1624
رال	-12.1627
▁خراش	-12.1629
▁mon	-12.163
▁پذیریم	-12.1631
▁Sc	-12.1633
رام	-12.1637
ؤ	-12.1638
▁مگا	-12.164
▁Service	-12.1648
۷۶	-12.1649
▁صدایش	-12.1651
Adobe	-12.1652
▁1968	-12.1652
▁Evil	-12.1652
▁Type	-12.1652
▁انعقاد	-12.1652
▁نیکوتین	-12.1652
▁انزال	-12.1652
▁ارتودنسی	-12.1652
▁حماقت	-12.1652
▁Read	-12.1653
▁بخند	-12.1653
▁محفظ	-12.1653
▁چروک	-12.1653
▁جاناتان	-12.1653
▁پسربچه	-12.1653
▁آلیاژ	-12.1653
▁اجاق	-12.1653
▁مکاتب	-12.1653
▁Bank	-12.1653
▁جديد	-12.1654
▁تیلور	-12.1654
▁Sony	-12.1654
▁Work	-12.1654
▁لوبیا	-12.1654
▁باقر	-12.1654
▁خندیدن	-12.1655
▁مددکار	-12.1655
▁۵٫	-12.1655
▁آنارشیست	-12.1656
▁بپرسیم	-12.1657
▁فرمایش	-12.1657
▁گرانبها	-12.1657
▁۴۹	-12.1658
▁باورها	-12.166
▁هد	-12.1662
▁چاپگر	-12.1662
▁کولون	-12.1662
▁(1	-12.1664
▁جونگ	-12.1666
▁فروک	-12.1666
▁کویر	-12.1666
▁Ha	-12.1666
▁مسموم	-12.1666
سان	-12.1675
▁Key	-12.1676
▁پوشند	-12.1681
ull	-12.1681
▁دژ	-12.1685
▁San	-12.1686
▁دنيا	-12.1701
▁درشت	-12.1702
▁جادوی	-12.1703
▁مادرت	-12.1709
bel	-12.171
▁خوبه	-12.1715
▁(6	-12.172
▁مالت	-12.1722
▁ّه	-12.1723
▁سونا	-12.1724
▁خوشبین	-12.1725
▁So	-12.1726
▁كاه	-12.1729
نگر	-12.1731
▁نجوم	-12.1731
▁نوپا	-12.1732
▁بسر	-12.1732
▁لورن	-12.1733
ho	-12.1735
▁Pen	-12.1736
sp	-12.1736
▁ژاک	-12.1737
جائی	-12.1744
▁Pay	-12.1745
وایی	-12.1746
▁طبی	-12.1747
▁یزد	-12.175
js	-12.1751
▁احترا	-12.1751
▁خاله	-12.1758
▁پارسا	-12.1761
mon	-12.1763
باح	-12.1764
▁تبت	-12.1765
▁مارت	-12.177
▁Em	-12.1774
جهل	-12.1774
▁Bio	-12.1778
▁پسا	-12.1779
▁po	-12.1782
▁ضمنی	-12.179
▁دنی	-12.1792
اثر	-12.1792
الا	-12.1792
تور	-12.1795
▁زير	-12.1798
زرسان	-12.18
کرون	-12.1803
▁١٠	-12.1804
امد	-12.1805
LI	-12.1814
ذکر	-12.1817
رسمی	-12.1822
ویرایش	-12.1823
قرض	-12.1823
همچنین	-12.1823
▁اوری	-12.1827
▁فولادی	-12.1828
▁براش	-12.1834
eed	-12.1835
CI	-12.1845
▁کیا	-12.1847
گزار	-12.1847
▁اتفاقا	-12.185
▁زه	-12.1851
▁خبرها	-12.1853
▁طو	-12.1856
▁پهلوی	-12.1857
▁187	-12.1858
▁مارچ	-12.1862
▁فان	-12.1866
▁َ	-12.1866
۴۱	-12.1866
يان	-12.1868
عاهد	-12.1877
عج	-12.1878
▁بالش	-12.1886
cript	-12.1887
PC	-12.189
▁Space	-12.189
▁تغيير	-12.189
▁منازع	-12.189
ە	-12.189
▁1971	-12.189
▁Research	-12.189
▁ازبکستان	-12.189
▁خالکوبی	-12.189
▁زحمات	-12.189
▁فیلادلفیا	-12.189
▁معیشت	-12.189
▁میشیگان	-12.1891
▁وکالت	-12.1891
▁کریستوف	-12.1891
▁React	-12.1891
▁مفسر	-12.1891
اتیوپی	-12.1891
▁سرهنگ	-12.1891
▁اوهایو	-12.1891
▁رأس	-12.1891
EM	-12.1892
▁پتاس	-12.1892
▁بنشینند	-12.1892
▁وثیق	-12.1893
▁مجرا	-12.1893
▁کرامت	-12.1893
▁نباشیم	-12.1894
▁هامبورگ	-12.1894
▁گودال	-12.1895
▁کوپر	-12.1896
▁فمینیست	-12.19
▁ایل	-12.1901
▁(5)	-12.1902
ative	-12.1903
▁سمع	-12.1904
▁موریس	-12.1905
▁شارل	-12.1906
▁Ga	-12.1906
وئ	-12.1907
▁آفت	-12.1909
▁پرنس	-12.191
"،	-12.1914
▁فهمیم	-12.1914
اگ	-12.1914
▁کردها	-12.1916
▁زرا	-12.1918
▁آیید	-12.192
▁گردانید	-12.1928
▁كش	-12.193
کیج	-12.1934
▁Tele	-12.1938
نترل	-12.1938
min	-12.1942
▁شوراها	-12.1954
▁نظریات	-12.1954
▁رفتید	-12.1955
▁خانمی	-12.1958
سیم	-12.196
cer	-12.1968
▁نیازمندی	-12.1973
▁Du	-12.1974
اکتشافات	-12.1976
▁شرف	-12.1981
▁باغبانی	-12.1984
لوک	-12.1985
▁بیچار	-12.1989
▁جنایتکاران	-12.1989
ale	-12.1995
▁گذران	-12.1997
علی	-12.201
▁لازمه	-12.2012
mm	-12.2017
يع	-12.202
▁کاندیدا	-12.2021
▁Real	-12.2029
۲۱	-12.2033
▁دروس	-12.2033
ذا	-12.2036
▁8)	-12.2037
کول	-12.2039
لیزا	-12.2049
SP	-12.2049
▁Ki	-12.2053
▁رخت	-12.2058
ga	-12.2059
▁بکن	-12.2062
رفتاری	-12.2064
▁sh	-12.207
▁ورم	-12.2074
NF	-12.2074
▁بدنم	-12.2075
vo	-12.2081
▁کوبید	-12.2082
▁لیر	-12.2085
▁94	-12.209
▁نوشتند	-12.2099
▁قطارها	-12.2105
wi	-12.2107
▁CE	-12.2107
▁درجات	-12.2111
گشت	-12.2114
▁بازخوردها	-12.2119
▁موبایلی	-12.2119
wa	-12.2122
رود	-12.2122
▁كل	-12.2123
ker	-12.2129
by	-12.2129
▁عبد	-12.213
▁پدرت	-12.2131
▁قلو	-12.2131
⁯	-12.2134
▁Online	-12.2134
▁Trump	-12.2134
▁استنفورد	-12.2134
▁انستیتو	-12.2134
▁بیاندازد	-12.2134
▁شکسپیر	-12.2134
▁قفقاز	-12.2134
▁مقتضی	-12.2134
▁نئولیبرال	-12.2134
▁نیوجرسی	-12.2134
▁پترزبورگ	-12.2134
▁هموطن	-12.2134
▁تنزل	-12.2134
اااا	-12.2134
▁مطهر	-12.2134
▁نامشخص	-12.2134
زانس	-12.2135
▁تفصیل	-12.2135
▁۱۹۹۹	-12.2135
▁بپرهیزید	-12.2135
▁کباب	-12.2135
▁پاندا	-12.2135
▁Night	-12.2135
عاره	-12.2136
▁فیض	-12.2136
ستور	-12.2136
▁اسفند	-12.2136
▁فلک	-12.2136
▁فروتن	-12.2137
▁گزاف	-12.2137
▁علي	-12.2138
▁Facebook	-12.2139
▁قذ	-12.2139
▁قن	-12.2139
▁شکیبا	-12.214
▁Video	-12.214
یتیش	-12.2142
رارت	-12.2143
▁آدرنال	-12.2144
zy	-12.2144
▁باغچه	-12.2145
▁×	-12.2145
▁همجنسگرای	-12.2148
▁جنگیدن	-12.2148
▁رید	-12.215
NC	-12.2153
▁إ	-12.2155
▁ندادن	-12.2155
ene	-12.2156
▁مبتدیان	-12.2156
▁گاردین	-12.2157
▁00	-12.2159
▁ابله	-12.2165
▁اجتماعات	-12.217
▁توافقات	-12.217
▁متنفرم	-12.2171
eb	-12.2172
▁پات	-12.2174
▁گشتند	-12.2177
ark	-12.2179
▁Card	-12.2182
ab	-12.2184
غير	-12.2186
▁كسان	-12.2186
مودم	-12.2186
here	-12.2191
▁قویتر	-12.2191
▁لانگ	-12.2192
▁طلبد	-12.2193
UN	-12.2195
▁انگیزش	-12.2198
طلاق	-12.2198
▁کوتو	-12.22
▁ger	-12.22
▁یوس	-12.22
▁یکسر	-12.2204
▁Sk	-12.2206
▁پانام	-12.2208
▁TM	-12.221
▁تجار	-12.221
ini	-12.2214
وبری	-12.2217
میایی	-12.2217
▁کاشان	-12.2217
▁رؤیا	-12.2218
▁داک	-12.2219
▁مبدا	-12.2223
▁تیرانداز	-12.2226
▁نادان	-12.2231
CA	-12.2237
شوند	-12.2239
▁آد	-12.2243
▁معیارها	-12.2244
▁Her	-12.2246
▁میخ	-12.2246
▁سواران	-12.2247
حم	-12.2251
▁آمپ	-12.2253
ular	-12.2255
خر	-12.2256
▁فدای	-12.2256
FS	-12.2259
ایع	-12.226
▁gen	-12.2261
▁کارا	-12.2261
fi	-12.2263
پورتال	-12.2264
دکس	-12.227
فسکی	-12.2273
خوش	-12.2275
▁لَ	-12.2276
▁کارنامه	-12.2276
خام	-12.2282
“	-12.2286
▁ne	-12.2287
▁استار	-12.2287
▁رخدادها	-12.2295
van	-12.2296
▁لاری	-12.2297
شرف	-12.2297
▁Pr	-12.2298
ky	-12.2304
▁همراهان	-12.2309
▁کلن	-12.2311
قرآن	-12.2317
شبیه	-12.232
برت	-12.2323
ja	-12.2324
ربارا	-12.2326
▁AF	-12.2326
▁کوری	-12.2331
ئل	-12.2339
▁سربازی	-12.2343
▁۵۳	-12.2348
کوپن	-12.2352
کتوب	-12.2364
▁آسود	-12.2365
MP	-12.2369
▁بخشنده	-12.237
▁لام	-12.2372
▁کاشی	-12.2372
▁ترسی	-12.2374
▁مؤثرتر	-12.2381
▁پرینت	-12.2382
▁Par	-12.2383
▁1982	-12.2384
▁Instagram	-12.2384
▁Music	-12.2384
▁ization	-12.2384
▁آلاسکا	-12.2384
▁آپارتاید	-12.2384
▁بیاندازید	-12.2384
▁رؤسا	-12.2384
▁رضوی	-12.2384
▁قحط	-12.2384
▁نابارور	-12.2384
▁هیبرید	-12.2384
▁۱۹۹۱	-12.2384
▁[4]	-12.2384
▁ضلع	-12.2384
▁لجستیک	-12.2384
▁متأث	-12.2384
▁نظافت	-12.2384
▁خائن	-12.2384
▁بيمار	-12.2385
▁تزیین	-12.2385
▁تأمل	-12.2385
▁دریابید	-12.2385
▁دماغ	-12.2385
▁منهتن	-12.2385
▁حمید	-12.2385
▁كنيد	-12.2385
▁۷٫	-12.2386
▁گاندی	-12.2386
▁How	-12.2386
▁آهستگ	-12.2387
▁Now	-12.2387
▁سفارتخانه	-12.2387
جمجمه	-12.2387
▁آراء	-12.2388
▁مکث	-12.2389
▁ting	-12.2389
▁5.5	-12.239
▁ندای	-12.239
▁دلتنگ	-12.2391
▁بسازم	-12.2392
BMI	-12.2392
▁كوچ	-12.2395
▁خرند	-12.2395
▁زوم	-12.2396
▁معارف	-12.2397
▁php	-12.2398
▁صید	-12.2399
فون	-12.2399
غرامت	-12.2403
▁Har	-12.2405
پتون	-12.2407
▁83	-12.2409
▁منتها	-12.2414
▁!!!!	-12.2417
▁۷۸	-12.242
▁دونی	-12.2421
▁جادوگری	-12.2421
▁قبولی	-12.2422
وزیت	-12.2423
▁پیکار	-12.2424
▁مارکسیس	-12.2425
▁لبنانی	-12.2425
▁نگفتم	-12.2425
▁محضر	-12.2427
▁6)	-12.2427
▁دانمارکی	-12.2427
▁bar	-12.2428
▁NT	-12.2429
▁MB	-12.2432
▁ism	-12.2433
▁101	-12.2434
تعارف	-12.2436
▁Test	-12.2436
▁المان	-12.2438
▁den	-12.244
دولتی	-12.2443
ایت	-12.2443
▁قوس	-12.2444
لفل	-12.245
باز	-12.2451
▁Top	-12.2451
▁ياد	-12.2451
کور	-12.2453
▁خواد	-12.2454
▁افشاگر	-12.2455
▁میرزا	-12.2458
▁آمریکائی	-12.246
▁گذاشتیم	-12.2464
▁معلومات	-12.2465
تذکر	-12.2465
ویوتا	-12.2466
gra	-12.2467
▁جایش	-12.2468
▁منشی	-12.2472
▁معرف	-12.2472
▁01	-12.2472
▁بلع	-12.2473
شناس	-12.2474
بیر	-12.2475
lu	-12.2477
▁May	-12.248
▁بیمارستانی	-12.2481
ورت	-12.2484
باغ	-12.2486
▁آرای	-12.249
▁واگذاری	-12.2495
▁نمیشه	-12.2497
▁Cat	-12.2502
tan	-12.2504
▁Ho	-12.2505
▁سینا	-12.2509
▁رؤیاهای	-12.2521
▁وف	-12.2523
▁ني	-12.2527
▁ضا	-12.2532
ade	-12.2534
مسیری	-12.2537
گوس	-12.2538
▁پاکستانی	-12.2539
▁Jo	-12.2541
iz	-12.2546
ouch	-12.2547
▁مداری	-12.2549
▁پاش	-12.2553
cho	-12.2554
جان	-12.2557
▁نامد	-12.2558
DC	-12.2563
▁لیک	-12.2569
▁9:	-12.2571
▁شمول	-12.2573
ذار	-12.2574
ادین	-12.2583
the	-12.2584
▁کمد	-12.2585
▁tic	-12.2587
▁سازم	-12.2588
dd	-12.259
DS	-12.2592
▁se	-12.2594
▁مشخصا	-12.2596
▁برنام	-12.2596
لِ	-12.2597
TS	-12.2599
▁ادو	-12.2601
ازا	-12.2603
▁تئو	-12.2603
▁سیال	-12.2612
▁Com	-12.2618
▁سیما	-12.2624
▁بگی	-12.2626
▁rs	-12.2629
▁گير	-12.2631
یحه	-12.2631
▁ببخش	-12.2633
▁گوي	-12.2634
so	-12.2635
اکولا	-12.2636
▁بسپار	-12.2637
▁ماریو	-12.2637
▁الکتری	-12.2637
▁کرا	-12.264
gg	-12.264
خاصم	-12.2641
▁1981	-12.2641
▁1985	-12.2641
▁Down	-12.2641
▁السّلام	-12.2641
▁دریانورد	-12.2641
▁مقاربت	-12.2641
▁York	-12.2641
▁سانفرانسیس	-12.2641
▁رجوی	-12.2641
tz	-12.2641
▁فوبیا	-12.2641
▁کارولینا	-12.2641
▁Institute	-12.2641
▁کاتالو	-12.2641
▁نجیب	-12.2641
▁واشینگتن	-12.2641
▁زائر	-12.2642
▁(15	-12.2642
گجت	-12.2642
▁مهیج	-12.2642
اعتدال	-12.2642
▁آفلا	-12.2642
▁سازوکار	-12.2642
▁پاتریک	-12.2642
▁کنکور	-12.2642
▁نزنید	-12.2642
▁۱۹۸۱	-12.2643
▁0.5	-12.2643
▁مگس	-12.2643
▁۱۸۰	-12.2643
▁زنجب	-12.2644
▁ربع	-12.2644
▁چر	-12.2645
▁Bay	-12.2645
▁کرز	-12.2648
▁Ti	-12.2649
▁کراتین	-12.2652
▁اندیشیدن	-12.2654
▁قبض	-12.2657
▁جوانتر	-12.2657
▁کامپ	-12.2658
٠٠	-12.2661
▁کرن	-12.2662
▁حسابداران	-12.2664
▁یکجا	-12.2669
▁توانا	-12.267
▁شکارچیان	-12.2671
▁رین	-12.2672
tal	-12.2673
▁موند	-12.2677
THE	-12.2679
▁آییم	-12.2682
▁؟؟؟؟	-12.2685
▁ium	-12.2685
عور	-12.2685
▁سالار	-12.2688
▁برهان	-12.2694
▁حلب	-12.2696
▁دستیاران	-12.2698
▁Cha	-12.2698
▁اونها	-12.27
ten	-12.2701
har	-12.2702
مبر	-12.2703
▁انتقالات	-12.2707
▁آنجاست	-12.2709
▁ley	-12.2712
TU	-12.2712
▁خجالتی	-12.2714
▁چیپ	-12.2719
▁CT	-12.2719
▁گشای	-12.2722
▁اخت	-12.2724
کاسترو	-12.2724
reat	-12.2726
ita	-12.2726
▁گند	-12.2727
لتیک	-12.273
▁all	-12.2732
جل	-12.2736
۳۱	-12.2737
▁3.0	-12.2738
▁ترد	-12.274
▁سوئ	-12.2744
▁پذیرتر	-12.2745
IM	-12.2747
▁ادوی	-12.2752
ریپل	-12.2757
سیا	-12.2759
▁قمر	-12.2761
▁کاندیداهای	-12.2763
▁Ar	-12.2766
▁بنر	-12.2776
▁خریدم	-12.2785
زين	-12.2796
ley	-12.2801
رست	-12.2803
CO	-12.2804
▁پژو	-12.2807
٩	-12.2816
▁افکند	-12.2817
▁UI	-12.2817
سالان	-12.282
▁مترق	-12.2826
▁لنگ	-12.2826
▁۱۹۳	-12.2832
٬	-12.2837
انگلیسی	-12.2837
بحث	-12.2837
افتاده	-12.2838
▁انید	-12.284
▁بشم	-12.284
ot	-12.2841
سقف	-12.2845
▁جاهل	-12.2845
۸۰	-12.2847
اکسل	-12.2849
▁غنا	-12.285
mes	-12.2852
AP	-12.2853
▁نگری	-12.2866
▁ni	-12.2873
▁آدامس	-12.2874
ISP	-12.2875
▁جهادی	-12.2876
▁کوبی	-12.288
▁پرتغالی	-12.288
▁Im	-12.2882
ايشان	-12.2884
ناک	-12.2887
▁سارق	-12.2893
▁ثانی	-12.2898
▁پدری	-12.2899
▁دایناسور	-12.29
▁اطرافش	-12.29
▁اپیدمی	-12.2904
▁First	-12.2904
▁Management	-12.2904
▁اربعین	-12.2904
▁طاهر	-12.2904
▁Multi	-12.2904
▁نگاشت	-12.2904
1974	-12.2904
▁اللّه	-12.2904
بیزینس	-12.2904
▁آخوند	-12.2904
▁قیاف	-12.2904
▁مزایده	-12.2904
CR	-12.2904
▁زندگى	-12.2904
▁تراکتور	-12.2904
▁نوترون	-12.2904
▁شهامت	-12.2905
▁Speed	-12.2905
▁فَ	-12.2906
▁نخواند	-12.2906
▁خلیل	-12.2906
▁نپال	-12.2907
▁°	-12.2907
▁خوشگل	-12.2907
▁مدّت	-12.2907
▁خدمتکار	-12.2907
▁4.5	-12.2909
▁1.7	-12.291
▁191	-12.291
▁یحی	-12.2911
▁لنگر	-12.2911
▁WW	-12.2911
▁can	-12.2911
▁1.3	-12.2912
▁حتّ	-12.2912
▁زمزمه	-12.2912
پلاستی	-12.2912
جمیع	-12.2913
▁حسود	-12.2913
▁سرپوش	-12.2913
▁فس	-12.2913
▁بیزار	-12.2915
ble	-12.2916
▁FX	-12.2916
▁کنگو	-12.2918
ello	-12.2919
▁نشون	-12.2919
▁Cl	-12.2922
▁چهاردهم	-12.2922
▁ضمنا	-12.2923
▁UK	-12.2924
سرعت	-12.2925
▁هیو	-12.2925
▁125	-12.2925
▁min	-12.2927
رومیان	-12.293
▁Mini	-12.293
▁ملاک	-12.2931
▁حمد	-12.2933
جوش	-12.2933
▁قرمزی	-12.2939
▁185	-12.2939
▁لعنتی	-12.2941
▁هفدهم	-12.2942
لنتا	-12.2944
▁شعا	-12.2944
▁اینشتین	-12.2946
▁تیتان	-12.2946
▁۹۷	-12.2948
▁بیکر	-12.2949
▁دانان	-12.2959
▁ظالم	-12.2961
▁۱۹۴	-12.2963
▁غریزه	-12.2964
▁HR	-12.2968
▁معنویت	-12.2971
▁٥	-12.2972
▁آکا	-12.2974
دور	-12.2974
▁id	-12.2979
▁رفقای	-12.298
▁والدینش	-12.2982
▁DSL	-12.2987
▁اروپاست	-12.299
▁بدنام	-12.2993
رفت	-12.2995
▁کشیم	-12.2996
eter	-12.2999
LLM	-12.2999
▁اپی	-12.3001
▁Ja	-12.3003
Grand	-12.3004
▁خزر	-12.3007
ئن	-12.3008
16	-12.3011
۵۸	-12.3014
▁شك	-12.3026
▁ولو	-12.3026
▁الْ	-12.3028
▁مائو	-12.3036
▁تورات	-12.306
27	-12.306
▁نهادین	-12.306
▁۱۳۹	-12.3065
▁سرو	-12.3066
▁خفا	-12.3067
▁رضایی	-12.3069
▁اع	-12.3075
نیاز	-12.3077
▁ولف	-12.3081
استه	-12.3089
▁11-	-12.3091
▁اسلو	-12.3095
▁میلیونر	-12.3096
▁کرون	-12.3097
▁At	-12.3098
▁آوا	-12.3099
ome	-12.3104
▁العم	-12.311
▁توسع	-12.311
▁دیک	-12.3115
▁ادم	-12.3117
▁جایز	-12.312
مولتی	-12.3122
▁تکنولوژیک	-12.3128
▁0.1	-12.3132
oh	-12.3133
▁کلو	-12.3133
فین	-12.3135
ریق	-12.3135
سنتز	-12.3139
▁PO	-12.314
LL	-12.314
▁زادگاه	-12.3141
▁EP	-12.3141
توان	-12.3143
▁برفی	-12.3145
▁he	-12.3151
ez	-12.3152
▁نوزده	-12.3156
عَ	-12.3158
ord	-12.3159
▁هجده	-12.3163
▁الس	-12.3167
era	-12.317
PD	-12.3171
▁ژنی	-12.3171
ختخواب	-12.3173
▁Fantas	-12.3174
سرگذشت	-12.3174
پسوریازیس	-12.3174
▁1966	-12.3174
▁North	-12.3174
▁work	-12.3174
▁اهریمن	-12.3174
▁بُعد	-12.3174
▁بپوشند	-12.3174
▁بیندازند	-12.3174
▁سوغات	-12.3174
▁هیدرولیک	-12.3174
▁کوهنورد	-12.3174
▁۱۹۹۵	-12.3174
️	-12.3174
▁لگد	-12.3174
▁اخترشناس	-12.3174
▁تظاهرکنندگان	-12.3174
▁واقف	-12.3174
▁منازل	-12.3174
1983	-12.3174
▁هوندا	-12.3174
▁فارنهایت	-12.3174
▁ماتریس	-12.3174
▁آندروژن	-12.3174
▁مصطف	-12.3174
▁code	-12.3174
▁حشره	-12.3174
▁1977	-12.3175
▁لئوناردو	-12.3175
▁کلکسیون	-12.3175
▁اجمال	-12.3175
▁احادی	-12.3176
▁بنگرید	-12.3176
▁کارلوس	-12.3176
▁غص	-12.3176
▁خانوم	-12.3177
▁قلاب	-12.3177
▁ادیسون	-12.3178
▁2.4	-12.3179
▁دادخواست	-12.3179
▁رآ	-12.318
▁افتتاحیه	-12.3181
▁آزرد	-12.3182
▁محبو	-12.3182
▁Times	-12.3182
▁Link	-12.3183
دلیل	-12.3184
▁تاندون	-12.3189
▁شاداب	-12.3191
▁میکنی	-12.3191
▁چسبند	-12.3191
▁نیکوکار	-12.3193
ure	-12.3193
طر	-12.3194
▁سات	-12.3196
▁اذان	-12.3197
▁وایت	-12.3199
ملکوت	-12.3199
▁سنجید	-12.3199
res	-12.32
▁National	-12.3201
▁شبح	-12.3201
▁واسط	-12.3202
yan	-12.3205
▁ia	-12.3206
▁TO	-12.3207
▁AB	-12.3207
sc	-12.3208
▁برگشتند	-12.321
▁علیها	-12.3211
▁کارکردها	-12.3213
▁گریس	-12.3214
▁اولش	-12.3214
▁CA	-12.3214
light	-12.3216
HDL	-12.3219
▁ژا	-12.322
▁خیمه	-12.3223
ator	-12.3227
▁زندگانی	-12.323
▁1400	-12.3233
▁دوبله	-12.3237
رفه	-12.3237
گز	-12.3239
▁User	-12.324
▁Tur	-12.3246
ike	-12.3247
▁بایستید	-12.3253
▁Te	-12.3257
▁گلای	-12.3262
▁آبادی	-12.3263
ئول	-12.3266
▁تایر	-12.3267
▁ستود	-12.3268
▁شنیدند	-12.3271
▁تونید	-12.3274
واقعی	-12.3274
۶۵	-12.3274
سارت	-12.3274
▁فجر	-12.3279
جانی	-12.3283
▁ge	-12.3284
▁کوهن	-12.3287
ائیل	-12.329
آر	-12.3291
▁ماندنی	-12.3293
▁عاطف	-12.3294
OP	-12.3296
▁فلو	-12.3302
▁روبی	-12.3302
▁خوا	-12.3302
▁بناها	-12.3305
وژ	-12.3307
▁لایک	-12.331
خوبی	-12.331
▁تپ	-12.3312
▁age	-12.3315
▁پاکیز	-12.332
▁NA	-12.3326
ارانتی	-12.333
▁لیل	-12.334
▁خودشون	-12.3344
▁پرتوها	-12.3356
يز	-12.3356
▁ميان	-12.3356
▁برآوردها	-12.3363
▁دندانی	-12.3364
مرد	-12.3366
▁قا	-12.3367
▁vi	-12.3376
pa	-12.3381
▁سفره	-12.3382
خه	-12.3383
کیه	-12.3384
مجاز	-12.3385
▁فشرد	-12.3387
▁گردهم	-12.3389
مارکت	-12.339
کتاب	-12.3392
ore	-12.3393
۹۳	-12.3393
▁0.0	-12.34
▁اشراف	-12.3402
شکوفه	-12.3408
▁الاسلا	-12.3408
▁!؟	-12.341
گران	-12.3411
گراد	-12.3417
ael	-12.3417
اظر	-12.3419
▁پارسی	-12.3422
دانم	-12.3424
▁پریدن	-12.3425
▁لال	-12.3429
جس	-12.343
▁سیار	-12.343
مسوولیت	-12.3431
LTE	-12.3434
▁ag	-12.3436
▁هیولای	-12.3436
توانستید	-12.3443
▁استاندار	-12.3446
VA	-12.3449
▁Direct	-12.3452
▁BMW	-12.3452
▁Green	-12.3452
▁آخرالزمان	-12.3452
▁ضوابط	-12.3452
▁مصارف	-12.3452
▁[6]	-12.3452
▁General	-12.3452
▁اوصاف	-12.3452
▁عارف	-12.3452
▁مجال	-12.3452
▁اکوادور	-12.3452
▁بلشویک	-12.3452
▁Show	-12.3452
مغرور	-12.3452
▁1967	-12.3452
▁WiFi	-12.3452
▁ورزد	-12.3453
▁بیاموزیم	-12.3453
▁پطر	-12.3453
▁لز	-12.3453
▁۱۹۸۹	-12.3453
▁بیاموزند	-12.3454
▁Chat	-12.3454
▁آنتونیو	-12.3454
▁''	-12.3455
▁دوقلوها	-12.3455
▁ASP	-12.3455
▁بفرستند	-12.3455
OL	-12.3456
▁بروکلین	-12.3457
▁مافیا	-12.3457
▁Run	-12.3458
▁امنيت	-12.3459
▁بپرسد	-12.346
ST	-12.3462
▁بپرس	-12.3462
▁سینوس	-12.3463
▁um	-12.3467
▁صلوات	-12.3468
▁James	-12.3468
▁موت	-12.347
▁کیپ	-12.3471
▁Mu	-12.3473
▁مزدور	-12.3473
▁مرتبا	-12.3474
▁همانجا	-12.3476
3)	-12.3476
ونا	-12.3478
▁هرچقدر	-12.3483
بیا	-12.3485
▁پختن	-12.3486
▁شعارهای	-12.349
▁خوردیم	-12.3491
دیوانگی	-12.3492
▁آگ	-12.3493
بوغ	-12.3498
▁جولی	-12.3499
▁++	-12.3499
▁اسپ	-12.3504
▁نوس	-12.3506
▁حیل	-12.3511
und	-12.3521
▁کوب	-12.3525
▁رستگاری	-12.3527
dy	-12.3529
▁بلایا	-12.353
▁رضای	-12.3535
مَ	-12.354
▁قالی	-12.3543
▁ard	-12.3543
br	-12.3545
▁پروردگارت	-12.3546
▁عطار	-12.3549
لب	-12.3549
▁زوجین	-12.3551
▁آوردید	-12.3555
سکو	-12.3555
CMS	-12.3556
▁2500	-12.3557
GR	-12.3564
▁نمودارها	-12.3567
▁ارک	-12.3567
47	-12.3569
▁بندد	-12.3571
یهودا	-12.3581
In	-12.3584
▁سفال	-12.3589
ute	-12.359
▁همدان	-12.3592
ولو	-12.3593
▁خاتمی	-12.3596
▁!”	-12.3598
ane	-12.3598
▁فید	-12.3599
▁NO	-12.3599
خواد	-12.3602
▁ئ	-12.3604
mb	-12.3606
▁رقصیدن	-12.3607
▁نخور	-12.3608
▁حسگرها	-12.3608
لندر	-12.3615
your	-12.3621
▁چرخید	-12.3621
▁بدبخت	-12.3622
▁عمرم	-12.3625
▁سب	-12.3625
▁خرابکار	-12.3626
▁لقم	-12.3633
▁انگیزشی	-12.3639
کام	-12.3642
▁شهو	-12.3642
ضاح	-12.3645
گردان	-12.3647
طیع	-12.3648
▁فانی	-12.3656
ئین	-12.3657
▁غر	-12.3658
▁برگردان	-12.3661
▁بترس	-12.3664
▁موجه	-12.3667
کینز	-12.3668
▁دعاها	-12.3668
▁کوت	-12.3669
ms	-12.3669
▁گراد	-12.367
ضروری	-12.3671
تماس	-12.3671
فقط	-12.3672
▁تعار	-12.3673
-12	-12.3674
▁گرام	-12.3674
میزی	-12.3674
دویی	-12.3676
▁پرینس	-12.3677
▁بورد	-12.368
▁8000	-12.3681
▁بالی	-12.3683
ایه	-12.3683
نبرگ	-12.3683
باف	-12.3689
▁پروازها	-12.369
تمایل	-12.3692
▁فرج	-12.3694
▁سکی	-12.3705
▁شیفت	-12.3709
بسته	-12.3715
▁آرک	-12.3717
▁گذرا	-12.3718
تورم	-12.3719
SB	-12.3719
▁car	-12.3721
▁بفرست	-12.3722
۵۷	-12.3732
▁نوازند	-12.3732
▁خزند	-12.3733
▁ba	-12.3734
▁6:	-12.3734
▁Us	-12.3735
ٍ	-12.3738
▁1965	-12.3738
▁بیاندازیم	-12.3738
▁متمدن	-12.3738
▁هاوکینگ	-12.3738
▁غلیظ	-12.3738
▁Dream	-12.3738
▁خونسرد	-12.3738
▁درخشند	-12.3738
▁مافوق	-12.3738
▁استنباط	-12.3738
▁کرواسی	-12.3738
ايجاد	-12.3738
▁لیتیوم	-12.3738
▁۰٫	-12.3738
شوالیه	-12.3738
▁موناکو	-12.3738
▁مژه	-12.3738
▁ورزند	-12.3738
▁فرهاد	-12.3738
▁چشید	-12.3738
▁LCD	-12.3738
▁سیاتل	-12.3738
▁۱۹۹۷	-12.3738
▁رجب	-12.3739
▁new	-12.3739
▁واژین	-12.3739
▁بشنویم	-12.374
▁امكان	-12.374
▁نیابت	-12.374
▁دیویس	-12.374
▁PPC	-12.374
▁۰۰۰	-12.374
▁نجف	-12.3741
▁بکشیم	-12.3741
▁ted	-12.3742
▁عاجز	-12.3742
▁بذار	-12.3742
▁بگذرد	-12.3743
▁شناسنامه	-12.3743
▁دروغگویی	-12.3743
▁۶۷	-12.3744
▁بمیرم	-12.3744
▁ظن	-12.3745
▁Bad	-12.3745
شیمی	-12.3746
▁سوپرمن	-12.3746
▁Van	-12.3747
▁بارندگی	-12.3747
▁3.3	-12.3748
ich	-12.3748
▁نگردد	-12.3749
▁board	-12.3751
▁SA	-12.3752
▁عکسبرداری	-12.3752
▁PL	-12.3753
▁نشینند	-12.3753
▁off	-12.3753
▁عوام	-12.3754
▁مزاحمت	-12.3754
▁موکل	-12.3754
▁لوم	-12.3754
▁Men	-12.3755
▁کشورم	-12.3755
اهانت	-12.3755
▁Pan	-12.3755
▁so	-12.3756
▁رسيد	-12.3756
▁کاستا	-12.3757
▁انقدر	-12.3757
▁کراو	-12.3759
▁ایستد	-12.3761
▁bu	-12.3761
▁رابطۀ	-12.3761
▁جبر	-12.3762
▁یورک	-12.3767
▁ie	-12.3768
▁ness	-12.3769
▁CDC	-12.377
ari	-12.3771
▁پیرتر	-12.3772
کرده	-12.3774
▁گوسفندان	-12.3775
file	-12.3775
▁زمانبندی	-12.3777
▁les	-12.3778
▁بخر	-12.378
شتاین	-12.3784
▁گرای	-12.3785
▁یوحن	-12.3786
CH	-12.3788
TV	-12.3789
▁رژه	-12.3791
▁بندند	-12.3792
ill	-12.3796
▁موازن	-12.3796
▁She	-12.3797
یلتس	-12.38
▁مروری	-12.3802
رداد	-12.3803
اسکال	-12.3803
▁چشمانم	-12.3808
lay	-12.3809
▁فود	-12.3811
▁(20	-12.3811
La	-12.3814
▁۹۳	-12.3818
tt	-12.3818
▁000	-12.3819
▁سیزدهم	-12.3822
▁لار	-12.3823
نگن	-12.3826
ونیک	-12.3827
con	-12.3832
CM	-12.3832
▁كو	-12.3833
don	-12.3834
▁استونی	-12.3835
▁لون	-12.3839
▁بخاری	-12.3845
▁way	-12.3849
▁Ben	-12.385
▁کینز	-12.3851
▁پتو	-12.3853
LC	-12.3855
▁AL	-12.386
▁بدوی	-12.386
▁Min	-12.3861
▁bo	-12.3861
▁دامپزشکی	-12.3863
ze	-12.3868
▁شرت	-12.387
FC	-12.3871
همت	-12.3873
▁بازنشستگ	-12.3873
/1	-12.3874
▁طبعی	-12.3876
▁pi	-12.388
▁نژادپرستان	-12.388
CAD	-12.3882
ace	-12.3883
۸۷	-12.3885
چن	-12.3886
PI	-12.3887
BA	-12.3888
ji	-12.389
▁Word	-12.3901
▁کنترلر	-12.3901
▁مقدمات	-12.3902
ّد	-12.3902
qui	-12.3905
▁اپراتورها	-12.3906
▁دوخت	-12.3914
خوان	-12.3918
▁دردی	-12.392
▁آشپز	-12.392
▁Not	-12.3921
▁گیران	-12.3923
▁اسپین	-12.3924
▁end	-12.3925
خو	-12.3932
▁PM	-12.3933
▁Tom	-12.3936
mit	-12.3941
▁یافتم	-12.395
PP	-12.3952
▁پراکند	-12.3954
بوست	-12.3955
٣	-12.396
▁سکوی	-12.3963
▁فرانس	-12.3964
▁du	-12.3964
هموار	-12.3964
▁غریز	-12.3971
زادی	-12.398
▁ورزی	-12.398
▁ca	-12.3984
gar	-12.3984
▁هفده	-12.399
▁۴۰۰۰	-12.3991
▁گوینده	-12.3992
▁پنی	-12.3993
ef	-12.3994
▁UC	-12.3998
▁كلی	-12.3998
▁دول	-12.4002
قط	-12.4005
وگو	-12.4006
▁ورید	-12.4008
▁Mad	-12.4014
شهر	-12.4021
ماتور	-12.4021
-3	-12.4022
▁سهامدار	-12.4022
▁محتوی	-12.4023
مشغله	-12.4028
▁اسیدی	-12.403
ö	-12.4032
دبلیو	-12.4032
▁1961	-12.4032
▁Micro	-12.4032
▁الکترولیت	-12.4032
▁تانزانیا	-12.4032
▁دعوی	-12.4032
▁سحابی	-12.4032
▁سطل	-12.4032
▁پرخطر	-12.4032
▁کبوتر	-12.4032
isplay	-12.4032
▁شرمسار	-12.4032
▁مقعد	-12.4032
▁کاظم	-12.4032
▁تاريخ	-12.4032
▁سجاد	-12.4032
▁Hyper	-12.4032
▁توخال	-12.4032
▁زکات	-12.4032
▁عقرب	-12.4032
▁فاتح	-12.4032
▁مونترال	-12.4032
▁مینیاتور	-12.4032
▁ژرف	-12.4032
▁خازن	-12.4032
▁افتضاح	-12.4032
▁نلسون	-12.4032
▁فحش	-12.4032
▁موتورسیکلت	-12.4032
▁1956	-12.4032
▁بپوشانید	-12.4032
▁شروط	-12.4032
▁نیوتن	-12.4033
▁حضار	-12.4033
▁عبرت	-12.4033
▁NBA	-12.4033
▁ERP	-12.4033
دولف	-12.4033
▁زياد	-12.4034
▁سیسکو	-12.4034
▁هرمز	-12.4034
▁چاوز	-12.4034
▁هلیوم	-12.4034
▁بخوانیم	-12.4035
▁پرنسس	-12.4036
▁مارپیچ	-12.4036
Pixel	-12.4036
▁پشتکار	-12.4038
▁پون	-12.404
▁کفار	-12.4042
▁بگوئید	-12.4043
▁سکن	-12.4046
▁طالب	-12.4047
▁جنگیدند	-12.4049
▁پانکرا	-12.4049
خواهم	-12.4054
▁شنیدیم	-12.4057
▁91	-12.4058
AA	-12.4058
rom	-12.4062
▁NV	-12.4068
▁Heart	-12.4069
▁صدف	-12.4069
رای	-12.4072
▁آرزوها	-12.4072
▁بيان	-12.4075
ائب	-12.4076
▁یزید	-12.4078
▁EX	-12.4078
▁ترسیدم	-12.4079
CTA	-12.4082
▁ائی	-12.4082
پایه	-12.4083
▁داون	-12.4084
▁برگشتن	-12.4087
▁ئو	-12.4089
▁195	-12.4093
▁الفبای	-12.4097
حص	-12.4103
bs	-12.4106
▁خردمندان	-12.411
▁ساری	-12.4111
▁نهان	-12.4116
▁بایستد	-12.4116
gy	-12.4117
▁شرک	-12.4123
amp	-12.4124
▁غواصی	-12.4126
▁CI	-12.4128
خان	-12.4133
▁سلفی	-12.414
▁-2	-12.4141
right	-12.4145
▁ممیز	-12.4146
▁خرو	-12.4148
▁اختلا	-12.4148
▁مطلوبی	-12.4149
99	-12.4153
▁Ju	-12.4156
▁فضانورد	-12.4158
▁ساد	-12.4161
▁مود	-12.4162
٢	-12.4168
▁نمیتوان	-12.417
پورت	-12.4172
top	-12.4172
▁افریقا	-12.4173
▁سردرگم	-12.4176
▁اردی	-12.4176
yn	-12.4177
▁پیمانان	-12.418
رده	-12.4186
▁جنگجو	-12.4188
▁ماورا	-12.4191
▁نج	-12.4191
▁HC	-12.4191
▁خیا	-12.4194
▁sp	-12.4199
▁بجا	-12.4201
ED	-12.4203
خي	-12.4209
▁Han	-12.4209
ارا	-12.4209
if	-12.4215
▁ST	-12.4219
pH	-12.4219
ae	-12.423
رشاد	-12.4241
▁RT	-12.4243
▁کوپ	-12.4245
Box	-12.4251
بیعت	-12.4252
تَ	-12.4252
▁تیل	-12.4253
▁اقا	-12.4254
۵۹	-12.4258
لخ	-12.4261
▁اشتهای	-12.4264
گيري	-12.4265
تک	-12.4266
سطح	-12.4268
بهشت	-12.4268
امروز	-12.4268
▁Bre	-12.427
ming	-12.4272
▁روزگاری	-12.4275
dia	-12.428
▁Tor	-12.4282
▁Bab	-12.4283
onic	-12.4284
▁پلان	-12.4286
▁تقی	-12.4287
▁10000	-12.4291
رشوه	-12.4301
▁کارائ	-12.4306
ocal	-12.4312
▁محاف	-12.4315
▁هیپ	-12.4322
ايت	-12.4323
▁یقینا	-12.4323
▁زراع	-12.4324
▁کاه	-12.4324
▁بخواهی	-12.4333
قیاس	-12.4333
▁تقاضاها	-12.4334
▁IELTS	-12.4335
▁micro	-12.4335
▁سبحان	-12.4335
▁سروصدا	-12.4335
▁۱۹۷۵	-12.4335
مکاشفه	-12.4335
▁سرامیک	-12.4335
▁گستاخ	-12.4335
▁مشاجر	-12.4335
▁طنین	-12.4335
▁موهبت	-12.4335
▁ملانوم	-12.4335
▁Europe	-12.4335
▁واکسین	-12.4335
▁تسبیح	-12.4335
▁سانتیگراد	-12.4335
▁Duty	-12.4335
▁فلورانس	-12.4335
▁تندرست	-12.4335
▁Comput	-12.4335
▁جاوید	-12.4335
▁باینری	-12.4335
▁افروز	-12.4335
▁South	-12.4336
مالاریا	-12.4336
▁Final	-12.4336
▁Azu	-12.4336
▁وآله	-12.4337
▁۹٫	-12.4337
▁بنویسیم	-12.4337
▁9001	-12.4337
وئیل	-12.4337
▁پیشینیان	-12.4338
▁سلیم	-12.4339
▁میدهیم	-12.4339
▁دگر	-12.4342
▁قضایا	-12.4342
▁حیف	-12.4343
▁دیگو	-12.4343
▁بشنوم	-12.4344
جیغ	-12.4344
▁سرت	-12.4345
▁رنک	-12.4346
▁(13	-12.4346
▁Log	-12.4347
▁اقیانوسیه	-12.4347
▁ایسنا	-12.4349
▁بشکند	-12.435
▁پلانک	-12.435
▁پردازان	-12.4358
▁Unit	-12.4362
▁مركز	-12.4363
▁ریچ	-12.4368
▁نزن	-12.4369
▁Line	-12.4369
▁سالاری	-12.437
row	-12.4372
▁نداشتید	-12.4375
▁نیکولا	-12.4376
▁key	-12.4376
▁آزمای	-12.4378
▁ab	-12.4378
▁مرداد	-12.4378
▁time	-12.438
▁بابل	-12.4386
▁زنش	-12.4387
▁پاراد	-12.4389
▁port	-12.439
▁دستکش	-12.4391
اموس	-12.4391
روان	-12.4398
کاک	-12.4398
ury	-12.4399
▁184	-12.44
▁PP	-12.4401
▁کورن	-12.4401
thing	-12.4402
▁شیفته	-12.4406
▁آما	-12.4406
▁صادراتی	-12.4407
▁بزنی	-12.4415
▁معی	-12.4417
▁(12	-12.4417
▁9)	-12.4421
اشی	-12.4422
▁لویی	-12.4424
▁Ab	-12.4425
▁خوشحالیم	-12.4425
جات	-12.4427
▁..."	-12.4427
اتوژن	-12.4429
▁کولین	-12.4431
▁نشستند	-12.4435
▁Gen	-12.4436
ایس	-12.4441
▁صور	-12.4444
دخانه	-12.4445
▁AA	-12.4451
▁پیوندد	-12.4454
▁سیمون	-12.4458
▁چل	-12.4459
▁خانوارها	-12.4462
OT	-12.4467
▁جاها	-12.4473
▁کوز	-12.4473
▁نصر	-12.4476
▁em	-12.4479
▁نک	-12.4488
▁هاوس	-12.449
▁کاراکترها	-12.4495
▁شهریه	-12.4497
▁باکو	-12.4498
▁عاد	-12.45
▁inter	-12.45
Re	-12.4505
UM	-12.4505
▁لل	-12.4507
▁ریا	-12.451
▁انبیا	-12.4511
ریا	-12.4512
▁دوس	-12.4513
▁١٨	-12.4517
▁کدامند	-12.4518
▁وفا	-12.4519
▁بچگ	-12.452
زگیل	-12.4522
ire	-12.4522
▁بکنی	-12.4522
ائق	-12.4523
▁جوانا	-12.4523
لاک	-12.4523
▁٠	-12.4524
▁نده	-12.4528
«	-12.453
▁شار	-12.4531
table	-12.4536
▁7:	-12.4536
arm	-12.4537
▁خطاها	-12.4538
▁نگ	-12.4539
▁حرك	-12.4539
▁box	-12.4539
▁...».	-12.454
▁ظ	-12.4547
پش	-12.4548
خیز	-12.4553
▁نژادها	-12.4555
▁ساب	-12.4558
دخل	-12.4563
▁mm	-12.4564
▁دونگ	-12.4565
جیسون	-12.4569
▁واحدی	-12.4571
▁IA	-12.4573
▁لئون	-12.4574
▁ندگان	-12.4575
nel	-12.4576
▁we	-12.4576
▁هارل	-12.4576
بک	-12.4577
▁RF	-12.4579
خداوند	-12.4581
▁مورفی	-12.4581
فیزیک	-12.4583
توز	-12.4583
DE	-12.4584
▁فروشد	-12.4585
تکوین	-12.4586
▁بمبگذار	-12.4588
hip	-12.459
▁LA	-12.4591
▁۹۰۰	-12.4592
ادت	-12.4594
صراف	-12.4595
ety	-12.4597
▁۱۵۰۰	-12.4598
mar	-12.4598
▁بلعید	-12.4598
▁سعود	-12.4606
▁خند	-12.4606
▁بعدتر	-12.4612
11	-12.4613
▁im	-12.4615
▁Pol	-12.4617
ile	-12.4619
▁mi	-12.462
بخیر	-12.4623
مصادره	-12.4628
▁رؤی	-12.4629
▁فیزیولوژی	-12.4632
▁تقلی	-12.464
فورم	-12.4643
▁سانتریف	-12.4647
′	-12.4647
▁ناآگاه	-12.4647
▁world	-12.4647
▁بفهمم	-12.4647
▁رستاخیز	-12.4647
▁مستحب	-12.4647
▁ملبورن	-12.4647
▁بیانجامد	-12.4647
▁پنالتی	-12.4647
▁چوپان	-12.4647
▁زوایا	-12.4647
▁هنرپیش	-12.4647
▁صنف	-12.4647
▁اسفنج	-12.4647
▁ملودی	-12.4647
▁مونیخ	-12.4647
▁جنی	-12.4647
▁بیامرز	-12.4647
▁چابک	-12.4647
▁فرسایش	-12.4647
▁سربلند	-12.4648
ارگاسم	-12.4648
▁بیندیش	-12.4648
▁مجرب	-12.4648
▁Technology	-12.4648
▁اسکایپ	-12.4648
▁Story	-12.4648
▁مسافربری	-12.4648
▁کاتالوگ	-12.4648
▁1946	-12.4649
▁۱۹۸۵	-12.4649
▁سکانس	-12.4649
▁آلوئ	-12.4649
▁برگردانید	-12.465
▁FTP	-12.465
▁ART	-12.465
▁میخوای	-12.4651
▁راجرز	-12.4651
▁تلاو	-12.4651
▁1080	-12.4651
▁بیاموزد	-12.4651
▁هیستر	-12.4652
▁بخوابد	-12.4652
نحط	-12.4652
▁اندیشند	-12.4653
ثلی	-12.4654
▁گچ	-12.4655
▁خوندم	-12.4655
▁پوکر	-12.4656
▁احت	-12.4659
جن	-12.4661
▁Hol	-12.4661
شاءالله	-12.4662
▁نورانی	-12.4662
▁وارون	-12.4662
▁بیولوژی	-12.4665
▁باربری	-12.4666
▁COM	-12.4668
▁ریاضت	-12.4669
▁®	-12.467
▁۵۴	-12.4671
▁خرما	-12.4671
▁RC	-12.4673
▁بریس	-12.4673
▁فهمی	-12.4674
▁نزدي	-12.4675
▁امیلی	-12.4679
▁5/	-12.468
▁book	-12.4681
▁لرزید	-12.4682
▁Alt	-12.4685
▁ham	-12.4692
▁Ra	-12.4695
عود	-12.4695
▁آموختم	-12.4698
▁By	-12.4699
▁گلزنی	-12.4702
گرم	-12.4705
▁متروکه	-12.4705
▁Wall	-12.4705
met	-12.4708
rd	-12.471
▁عزا	-12.4711
▁کوی	-12.4717
نگتون	-12.4723
▁نوید	-12.4724
هوت	-12.473
▁قدمی	-12.4733
▁تویی	-12.4733
گانگی	-12.474
▁han	-12.4742
مگر	-12.4744
NT	-12.4744
يط	-12.4753
جسارت	-12.4756
▁صالحی	-12.4759
▁ساختم	-12.476
▁دِ	-12.4762
فات	-12.4764
▁BC	-12.4765
▁آرش	-12.4766
▁رق	-12.4767
▁شکند	-12.4768
▁سردردها	-12.4769
▁کلیت	-12.4771
▁اشکالات	-12.4776
▁Tim	-12.4778
کسپرس	-12.4779
دولت	-12.478
this	-12.478
▁بیار	-12.4783
سپار	-12.4786
▁حما	-12.4791
▁توج	-12.4793
▁کرت	-12.4797
حام	-12.4799
IQ	-12.48
لان	-12.4805
▁ماهیگیر	-12.4811
▁ردیاب	-12.4812
AID	-12.482
پانصد	-12.4822
pan	-12.4823
eck	-12.4824
▁ling	-12.4825
▁آدمهای	-12.4829
مادی	-12.4832
▁بوروکرا	-12.4832
▁جینس	-12.4835
▁Kar	-12.4835
▁...”	-12.484
▁حیا	-12.4843
▁چرچ	-12.4848
▁هدفون	-12.4849
سزا	-12.485
zo	-12.485
▁نظرش	-12.4855
▁Fe	-12.4857
خوردگی	-12.4859
ack	-12.486
میر	-12.4867
▁بانو	-12.487
▁معما	-12.4873
▁نزدیکان	-12.4874
CF	-12.4875
▁ip	-12.4878
▁کولی	-12.4889
▁Full	-12.4889
وث	-12.489
▁اض	-12.4891
▁کوشن	-12.4893
وتون	-12.4895
▁بسزا	-12.4898
مس	-12.4899
هرتز	-12.4902
▁مسئل	-12.4905
مجید	-12.4905
راد	-12.4907
نسکی	-12.4918
▁da	-12.4921
▁دیگ	-12.4926
▁سیس	-12.4928
▁بدار	-12.494
▁Pet	-12.4948
چا	-12.4951
str	-12.4954
▁ثو	-12.4959
▁شرا	-12.4969
▁Daniel	-12.497
▁LinkedIn	-12.497
▁Source	-12.497
▁اللَّه	-12.497
▁اهواز	-12.497
▁فرانکفورت	-12.497
▁مایکرو	-12.497
▁آنتالیا	-12.497
▁بیگناه	-12.497
▁هیدرات	-12.497
مغفرت	-12.497
مخازن	-12.497
▁حصر	-12.497
▁ختنه	-12.497
▁سوگوار	-12.497
▁گلیسیری	-12.497
▁Island	-12.497
▁ملّ	-12.497
▁Break	-12.497
▁کمیسار	-12.497
▁ساموئ	-12.497
▁Enter	-12.497
▁Program	-12.497
▁Brit	-12.497
▁play	-12.497
▁فرارسید	-12.4971
▁(18	-12.4971
▁بامداد	-12.4971
▁Just	-12.4971
▁more	-12.4971
hui	-12.4971
▁گشاد	-12.4971
▁نگیرند	-12.4971
▁رشید	-12.4972
▁Long	-12.4972
▁سوچی	-12.4972
▁شارون	-12.4972
▁Lang	-12.4973
▁Block	-12.4973
▁مدير	-12.4973
▁ICC	-12.4973
▁سپردن	-12.4973
▁داماد	-12.4974
▁رعد	-12.4975
space	-12.4975
▁خراف	-12.4976
▁پوپولیست	-12.4976
▁ظر	-12.4976
▁نرسد	-12.4976
▁کورتیکو	-12.4977
▁1800	-12.4977
▁بیاییم	-12.4977
▁الج	-12.4978
▁۸۶	-12.4978
▁اقش	-12.4978
▁آلبرتا	-12.4979
ree	-12.4979
▁روانکاو	-12.498
▁۹۲	-12.498
oi	-12.4982
▁زراعت	-12.4986
▁اردک	-12.4986
▁روحانیون	-12.4987
▁GDP	-12.4987
▁هلن	-12.4988
▁مهدوی	-12.4988
▁day	-12.4988
استی	-12.4989
ساجی	-12.4989
▁حاجت	-12.499
دکست	-12.4993
▁Sub	-12.4997
سیوم	-12.4997
خطی	-12.4998
ccess	-12.5
▁CBD	-12.5003
▁کامیابی	-12.5005
جنیفر	-12.5007
▁هن	-12.5009
▁روي	-12.501
▁همسان	-12.501
▁بارسا	-12.5011
▁محمدی	-12.5011
▁مکن	-12.5012
▁ایندیانا	-12.5013
▁رهنمود	-12.5015
▁Ve	-12.5015
▁بنویس	-12.5016
▁توس	-12.5017
▁DD	-12.5019
▁عکسها	-12.5019
▁گنگ	-12.5022
کاش	-12.5022
NP	-12.5026
▁معر	-12.5026
▁میشم	-12.5027
▁رسانا	-12.5028
▁ترجیحا	-12.5036
get	-12.5037
▁اسکر	-12.5041
▁هرتز	-12.5041
▁رزم	-12.5041
▁Vol	-12.5042
▁خوف	-12.5042
▁فری	-12.5045
▁برگزی	-12.5045
▁صدیق	-12.505
▁Bur	-12.505
▁شنی	-12.5051
▁Share	-12.5054
▁CP	-12.5057
دانه	-12.5058
▁SPF	-12.506
▁لرز	-12.5064
▁زنها	-12.5068
▁جویا	-12.5069
NS	-12.5074
▁ER	-12.508
هُ	-12.5081
▁المقد	-12.5083
▁ارضا	-12.5088
▁خبره	-12.5088
▁vo	-12.5095
cent	-12.5097
یستا	-12.5099
خانی	-12.5103
uri	-12.5104
48	-12.5107
▁(5	-12.5108
▁افشان	-12.511
▁آراست	-12.511
▁بمان	-12.5111
▁مقاومتی	-12.5116
سلم	-12.5121
▁وسیل	-12.5125
▁تابو	-12.5127
▁شرکا	-12.5127
▁نص	-12.5128
▁ga	-12.5128
▁طف	-12.5128
▁واعظ	-12.5132
▁بوسیدن	-12.5132
▁Che	-12.5134
and	-12.5136
▁Mont	-12.5138
▁Fin	-12.5138
نگا	-12.5143
▁عثمان	-12.5144
iam	-12.5145
▁همسو	-12.5147
▁اطرافم	-12.515
▁گوئی	-12.5151
▁مودی	-12.5152
▁کلّ	-12.5152
▁حضورش	-12.5152
▁بنت	-12.5152
SE	-12.5153
▁پهپاد	-12.5155
▁Lab	-12.5155
▁کتان	-12.5156
gen	-12.5158
▁Bell	-12.5167
▁استنل	-12.5167
▁جنایتکار	-12.5167
▁عملگر	-12.5169
▁مِ	-12.5169
▁pre	-12.5172
پاش	-12.5172
۵۶	-12.5174
▁Wh	-12.5177
▁ous	-12.5178
kin	-12.5178
افر	-12.5182
ئت	-12.5182
▁750	-12.5185
▁توجیهی	-12.5187
tro	-12.5193
رگ	-12.5197
▁محا	-12.5198
▁ساختمانهای	-12.5199
▁جنت	-12.5201
▁Who	-12.5204
▁هانس	-12.5204
▁مردند	-12.5209
گون	-12.5211
▁والن	-12.5211
▁افتادم	-12.5212
VI	-12.5212
▁صاحبش	-12.5212
حيط	-12.5215
▁مزا	-12.5219
▁dis	-12.5221
ask	-12.5221
▁ادین	-12.5227
گذر	-12.5229
nc	-12.5231
eau	-12.5232
▁ساي	-12.5232
▁GS	-12.5234
انتفاع	-12.5235
قَ	-12.5236
منطقی	-12.5236
▁فضاها	-12.5237
کوب	-12.5241
▁هیولاها	-12.5241
معمولا	-12.5244
نمای	-12.5245
oom	-12.5245
-6	-12.5249
ys	-12.5256
▁ریت	-12.5257
BT	-12.5258
37	-12.5262
▁RA	-12.5266
▁Ba	-12.5266
▁مواز	-12.5268
یکاتور	-12.5279
▁Joe	-12.5281
▁صحی	-12.5282
كار	-12.5284
دهنده	-12.5294
▁زانوی	-12.5295
AND	-12.5299
▁sa	-12.5301
ماع	-12.5301
▁پابرجا	-12.5302
▁ناشنوا	-12.5303
WhatsApp	-12.5303
▁1963	-12.5303
▁English	-12.5303
▁Foundation	-12.5303
▁iTunes	-12.5303
▁ارتعاش	-12.5303
▁بپردازم	-12.5303
▁بوداپست	-12.5303
▁Cyber	-12.5303
burg	-12.5303
▁شگرف	-12.5303
▁دقایق	-12.5303
▁مننژی	-12.5303
▁Snap	-12.5303
▁نیکاراگوئه	-12.5303
▁حیدر	-12.5303
▁آئودی	-12.5303
▁Prince	-12.5303
▁٢٠٠	-12.5303
▁بیوشیمی	-12.5303
▁مشرق	-12.5303
▁Report	-12.5304
▁Vision	-12.5304
▁پرهیزگار	-12.5304
▁Water	-12.5304
▁Dragon	-12.5304
ناسیونال	-12.5304
▁Zero	-12.5304
▁Color	-12.5304
ستعار	-12.5304
▁page	-12.5304
▁مهلک	-12.5304
▁list	-12.5304
▁CNN	-12.5304
▁هوآ	-12.5305
▁دلگرم	-12.5305
▁صادرکنندگان	-12.5305
▁Land	-12.5305
▁چاکرا	-12.5305
ail	-12.5305
▁رسوب	-12.5305
▁Class	-12.5305
▁Bill	-12.5306
▁ندانست	-12.5306
▁نانومتر	-12.5306
▁کمپرس	-12.5308
▁تشریفات	-12.5308
کاتالان	-12.5309
▁چاک	-12.5309
▁کُرد	-12.5309
▁ربایی	-12.5309
▁بشوم	-12.531
▁Lee	-12.5311
▁نرو	-12.5312
▁تکنو	-12.5313
رنست	-12.5314
▁رزق	-12.5317
آشغال	-12.5318
▁دوحه	-12.532
▁ادل	-12.532
▁غرض	-12.5321
▁عقلانیت	-12.5323
▁Hi	-12.5326
بندان	-12.5328
▁مایر	-12.5329
▁سیکل	-12.533
▁RAM	-12.533
watch	-12.5332
▁مدرسان	-12.5335
▁زینت	-12.5337
▁بیاور	-12.534
▁جادوگران	-12.534
▁Del	-12.5341
▁Wire	-12.5342
▁ent	-12.5343
ric	-12.5347
▁تروما	-12.5349
▁اقام	-12.5349
▁5%	-12.5352
▁mer	-12.5354
▁اژدهای	-12.5355
▁باختر	-12.5355
▁OC	-12.5356
▁EN	-12.5356
ساله	-12.5357
▁انگشتر	-12.5361
▁هميش	-12.5363
ero	-12.5364
▁ence	-12.5364
mail	-12.5368
▁٦	-12.537
▁سرایی	-12.5371
مقدّس	-12.5374
▁بازپرس	-12.5374
▁Sta	-12.5374
▁Ser	-12.5377
▁نمیتونم	-12.538
الف	-12.5385
▁بتونی	-12.5386
▁Cor	-12.5386
▁مارگار	-12.5387
▁گرن	-12.5388
▁IU	-12.5389
▁os	-12.5389
uman	-12.539
▁Comm	-12.539
شوق	-12.5396
▁واهم	-12.5397
▁پیوستند	-12.5398
▁2.6	-12.5401
▁زب	-12.5402
ional	-12.5402
لکان	-12.5404
ماد	-12.5411
▁138	-12.5412
▁راسل	-12.5419
▁هکرهای	-12.5421
▁کنندگی	-12.5422
PO	-12.5425
مولر	-12.5428
▁Univers	-12.5431
▁تفنگدار	-12.5432
▁یافتیم	-12.5445
▁میدانم	-12.5447
ژست	-12.5447
غیر	-12.5448
نَ	-12.5449
▁8:	-12.5451
▁Rock	-12.5453
▁پیست	-12.5456
ott	-12.5461
▁GI	-12.5464
▁هیلی	-12.5476
▁OF	-12.5477
lement	-12.5478
▁مدد	-12.5481
▁UT	-12.5482
other	-12.5483
ديد	-12.5483
sign	-12.5484
زایی	-12.5485
▁ساختیم	-12.5489
▁زیرزمین	-12.5489
▁مگ	-12.5493
▁نیای	-12.5494
oS	-12.5499
▁ینی	-12.5503
ift	-12.5511
۴۷	-12.5514
28	-12.5516
▁الگوها	-12.5516
▁۷۴	-12.552
▁رپ	-12.5526
یث	-12.553
▁مبنا	-12.5533
٦	-12.5539
بن	-12.5542
▁بلندگو	-12.5547
▁سیمان	-12.5549
انوس	-12.5552
▁نکش	-12.5552
▁لید	-12.5555
▁Add	-12.5556
▁نگهبانی	-12.5559
لکس	-12.556
پروری	-12.5561
لیندا	-12.5565
ella	-12.5566
▁Bel	-12.5568
▁فرست	-12.5573
▁ful	-12.5575
IBS	-12.5578
پوینت	-12.5579
▁خارجیان	-12.5581
back	-12.5581
آزادی	-12.5581
▁عمدا	-12.5584
خوف	-12.5584
وصل	-12.5585
تراپی	-12.5586
ump	-12.5596
ala	-12.5599
روز	-12.5603
▁لاب	-12.5605
ورات	-12.5607
قضی	-12.5608
▁Ze	-12.5613
▁2.1	-12.5617
▁گیگا	-12.562
▁bit	-12.5621
▁پوی	-12.5622
يست	-12.5623
▁هستش	-12.5631
▁جولیا	-12.5633
▁GB	-12.5636
▁Soci	-12.5637
شیرجه	-12.5638
۷۱	-12.5639
▁مشروب	-12.5639
▁هارت	-12.5639
HR	-12.564
▁view	-12.5644
▁Market	-12.5648
انزجار	-12.5648
مجادله	-12.5648
▁1972	-12.5648
▁Death	-12.5648
▁Domain	-12.5648
▁down	-12.5648
▁house	-12.5648
▁اوراسیا	-12.5648
▁بیرحم	-12.5648
▁تلوزیون	-12.5648
▁سرسبز	-12.5648
▁متوازن	-12.5648
▁پزشك	-12.5648
▁۱۹۶۲	-12.5648
▁ترفیع	-12.5648
Royal	-12.5648
▁مائده	-12.5648
▁نمیدونم	-12.5648
▁que	-12.5648
▁اندرسون	-12.5648
▁برزخ	-12.5648
ذبح	-12.5648
▁کارتریج	-12.5648
▁مستندساز	-12.5648
حكوم	-12.5648
▁شارلوت	-12.5648
▁Over	-12.5649
▁کالبد	-12.5649
▁Node	-12.5649
▁Geo	-12.5649
▁ذهنش	-12.5649
▁Motor	-12.5649
پسند	-12.5649
▁Application	-12.5649
▁سطر	-12.5649
▁Gmail	-12.5649
▁Hill	-12.5649
▁Account	-12.5649
سرگیجه	-12.5649
▁1952	-12.565
prise	-12.565
▁بچسب	-12.565
▁مونرو	-12.565
▁Pack	-12.565
▁ریاضیدان	-12.565
▁ميلي	-12.565
▁خواستگار	-12.5651
▁بمیرند	-12.5651
▁فرسا	-12.5651
▁(11	-12.5651
▁تشنگ	-12.5652
▁ندهیم	-12.5652
▁Ash	-12.5652
دمیل	-12.5653
▁دایناسورها	-12.5653
▁برسانم	-12.5654
▁کنيم	-12.5654
▁بمیری	-12.5654
▁شنوا	-12.5655
▁آدامز	-12.5655
▁سیبری	-12.5655
▁SMS	-12.5657
craft	-12.5657
▁شجاعانه	-12.5657
▁افول	-12.5658
▁رنو	-12.5658
▁پولشویی	-12.5659
▁کلانتر	-12.566
▁شبك	-12.566
▁ترازو	-12.5663
▁ندانید	-12.5663
▁بدارد	-12.5663
▁Tri	-12.5664
▁متنفرند	-12.5665
je	-12.5666
▁گويد	-12.5667
قب	-12.5669
▁انگاری	-12.5671
▁(7)	-12.5672
eth	-12.5673
act	-12.5673
▁مختصات	-12.5673
▁IF	-12.5676
▁ارد	-12.5678
ونین	-12.5679
cs	-12.568
▁میلیاردرها	-12.5682
▁بورن	-12.5683
▁berg	-12.5683
6.5	-12.5687
▁میکرون	-12.5687
▁کلوب	-12.5691
دونستم	-12.5692
▁بایستند	-12.5693
ommand	-12.5694
حبوب	-12.5694
▁Ge	-12.5695
▁معترضین	-12.5697
oul	-12.5698
▁فلین	-12.57
▁ریزند	-12.5702
▁Hard	-12.5707
▁خالد	-12.5708
▁پیوندند	-12.5709
تیام	-12.5715
ثاق	-12.5716
اربا	-12.5717
ملک	-12.5719
▁ادار	-12.572
▁رازی	-12.5721
▁چرخند	-12.5722
حه	-12.5723
▁مشتریانش	-12.5724
▁مفت	-12.5728
مار	-12.573
▁مضرات	-12.5734
▁واداشت	-12.5735
ado	-12.5736
▁تکوین	-12.5737
ros	-12.5737
▁پود	-12.5738
رکد	-12.5739
▁ARM	-12.5741
▁کاز	-12.5747
▁مردانگی	-12.5748
▁نخاعی	-12.5748
ock	-12.5749
تومی	-12.575
▁بخیر	-12.5755
اچ	-12.5755
اپی	-12.5757
▁EV	-12.576
▁Ri	-12.5761
gram	-12.5762
▁انتر	-12.5762
▁List	-12.5762
▁مدیا	-12.577
▁مونده	-12.577
کسین	-12.5772
▁لاغری	-12.5773
▁نقا	-12.5778
uff	-12.5778
▁دخ	-12.5781
اطاق	-12.5782
▁گلاب	-12.5782
▁مأ	-12.5783
تقلا	-12.5783
صمیمیت	-12.5786
6)	-12.5789
▁سرپا	-12.5791
ington	-12.5792
▁GO	-12.5796
▁۱۶۰	-12.5797
▁MD	-12.5805
Me	-12.5807
▁شرب	-12.5807
▁زنا	-12.5808
▁زید	-12.581
▁فرستادم	-12.5814
▁دلفی	-12.5815
rie	-12.5816
▁معمای	-12.5822
las	-12.5825
▁123	-12.5826
▁چکش	-12.5826
گذار	-12.583
▁cor	-12.5832
▁شنیدار	-12.5833
▁انار	-12.5833
44	-12.5837
▁اومده	-12.5839
▁سق	-12.5839
▁انشا	-12.5841
▁راهب	-12.5845
▁ابرو	-12.5847
▁طوفانی	-12.5847
▁نگاهش	-12.5849
▁کوا	-12.585
▁بیولوژیک	-12.585
▁ساو	-12.5851
▁کاندیداها	-12.5851
▁دوج	-12.5854
AS	-12.5855
rk	-12.5855
▁BI	-12.5855
▁الهیات	-12.5863
▁Pe	-12.5865
CU	-12.5867
عین	-12.5868
▁عد	-12.5869
▁اندیشی	-12.5875
ano	-12.5878
▁افترا	-12.588
arch	-12.5881
▁اصطلاحا	-12.5881
▁پارو	-12.5885
▁باسن	-12.5886
مرگ	-12.5895
▁America	-12.5896
▁پنداری	-12.5897
فتگی	-12.5903
▁Es	-12.5911
UB	-12.5912
▁انش	-12.5916
▁کرمل	-12.5919
موند	-12.5926
att	-12.5926
EE	-12.5932
▁تورن	-12.5933
II	-12.5934
▁ian	-12.5934
▁HI	-12.5936
▁fin	-12.5937
ونتو	-12.5937
فدراسیون	-12.5938
بخشی	-12.5938
تکنولوژی	-12.5938
▁ادعاها	-12.594
onor	-12.5944
چون	-12.5945
▁رژ	-12.5945
95	-12.5945
oon	-12.5947
TM	-12.595
▁اندازید	-12.5954
▁آمریكای	-12.5957
of	-12.5958
شعل	-12.5961
▁Cra	-12.5961
زمایش	-12.5963
▁هردوی	-12.5965
▁راهبر	-12.5969
Access	-12.5972
▁نکنی	-12.5982
سوس	-12.5986
ds	-12.5986
▁PH	-12.599
ason	-12.5991
طالع	-12.5992
▁test	-12.5993
▁بق	-12.5995
▁الک	-12.5996
▁کنسر	-12.5998
ua	-12.5998
▁حاجی	-12.5999
▁تش	-12.5999
▁ماهیان	-12.6001
▁پنداشت	-12.6002
وارتز	-12.6003
PayPal	-12.6005
▁1976	-12.6005
▁Airbnb	-12.6005
▁Batman	-12.6005
▁Entertainment	-12.6005
▁Thin	-12.6005
▁Virtu	-12.6005
▁جفرسون	-12.6005
▁ناقض	-12.6005
▁هیمالیا	-12.6005
▁هیوندای	-12.6005
▁کلرادو	-12.6005
▁۱۹۷۳	-12.6005
▁بنوشند	-12.6005
▁هولمز	-12.6005
▁[8]	-12.6005
▁Standard	-12.6005
▁Shadow	-12.6005
▁دریابند	-12.6005
▁تبصر	-12.6005
▁Kingdom	-12.6005
▁Charl	-12.6005
▁Old	-12.6006
▁خیاط	-12.6006
▁حبیب	-12.6006
▁مقبول	-12.6006
uage	-12.6006
▁شارپ	-12.6006
▁دنیوی	-12.6006
▁برانکو	-12.6006
▁1929	-12.6006
▁فریلنسر	-12.6006
TH	-12.6006
▁طاعون	-12.6006
▁Rank	-12.6006
▁کوالا	-12.6006
▁Law	-12.6006
▁tive	-12.6007
▁۱۹۸۴	-12.6008
▁تاوان	-12.6008
▁بگذرانند	-12.6008
▁لابرا	-12.6008
▁خودکفا	-12.6009
▁BBC	-12.6009
▁سافت	-12.601
PF	-12.601
▁Fort	-12.6011
▁هیاهو	-12.6011
▁بویایی	-12.6012
▁Systems	-12.6012
▁قدیس	-12.6013
▁OK	-12.6013
▁صرب	-12.6013
▁زینب	-12.6015
▁۸۲	-12.6019
▁منازعات	-12.6019
▁روبرت	-12.602
▁115	-12.6022
▁سوزد	-12.6023
▁اظهارنامه	-12.6023
▁والی	-12.6023
▁نبات	-12.6025
▁پراکن	-12.6025
▁Gear	-12.6026
▁Lu	-12.6027
▁نباشم	-12.6028
▁head	-12.6029
▁AN	-12.6029
tain	-12.6031
▁مورخان	-12.6031
▁چشمانتان	-12.6036
▁چسبیده	-12.6041
▁کریستیان	-12.6043
▁کاوی	-12.6045
▁win	-12.6046
▁چرخشی	-12.6046
▁Ca	-12.6047
▁قران	-12.6047
▁ورشکسته	-12.6049
hot	-12.6049
▁شهریور	-12.605
واسطه	-12.6052
باب	-12.6052
▁دیار	-12.6053
▁VM	-12.6054
ولیت	-12.6057
▁10:	-12.6057
rea	-12.606
▁186	-12.606
غدیر	-12.6067
▁درصدد	-12.6074
IFA	-12.6074
▁باربی	-12.6079
▁جویند	-12.6081
▁مناف	-12.6081
iva	-12.6088
-4	-12.6089
▁هوک	-12.6091
▁sta	-12.6093
بلو	-12.6093
▁Gi	-12.6094
▁جیل	-12.6094
WC	-12.6097
پانچ	-12.6099
سفر	-12.6107
▁راهش	-12.6108
منت	-12.6108
▁گرند	-12.6111
ck	-12.6113
▁des	-12.6114
SL	-12.6122
▁زنجان	-12.6126
▁جزیی	-12.6127
LT	-12.6129
غور	-12.6137
▁Sand	-12.6138
فروشی	-12.6138
۱۹۸۸	-12.614
▁انصاری	-12.614
rine	-12.614
خل	-12.6143
▁بردیم	-12.6143
▁کادو	-12.6147
پرداز	-12.615
عطف	-12.6152
ُوا	-12.6155
فیدل	-12.616
▁بلور	-12.6162
we	-12.6164
▁میرم	-12.6165
▁مرت	-12.6176
▁الل	-12.6178
حامد	-12.6179
وسیت	-12.6183
▁یدن	-12.6183
مهاجمان	-12.6187
▁Hall	-12.6188
▁پالم	-12.619
pen	-12.6194
ism	-12.6194
آی	-12.6195
▁اجر	-12.6195
بدخیم	-12.6196
▁آمر	-12.6199
▁WP	-12.6206
▁آرنول	-12.621
▁آي	-12.6211
شاالله	-12.6213
▁همسرشان	-12.6215
▁دامپزشک	-12.6215
▁red	-12.6216
▁ناامن	-12.6216
▁مرخص	-12.6216
▁ریکا	-12.622
▁کثیر	-12.6221
256	-12.6222
ویت	-12.6224
▁نادری	-12.6229
صال	-12.623
ضر	-12.6239
▁ho	-12.6246
▁هوم	-12.6253
ama	-12.6258
▁MO	-12.6265
LR	-12.6268
VE	-12.6269
▁میدانند	-12.6272
▁data	-12.6273
▁بخی	-12.6278
rus	-12.6279
lia	-12.628
فعل	-12.6281
▁EM	-12.6289
bil	-12.6291
يح	-12.6291
فصل	-12.6295
شروع	-12.6295
کردن	-12.6301
پوشانی	-12.6307
▁More	-12.6307
خمر	-12.6308
@	-12.6308
استروئید	-12.6308
انسانی	-12.6309
▁آفرینند	-12.631
▁Sea	-12.6311
▁Hat	-12.6311
▁BP	-12.6316
آفرینی	-12.6317
▁رشت	-12.6319
▁کنین	-12.6323
ino	-12.6327
ram	-12.6328
▁پارت	-12.6333
▁فیت	-12.6338
وران	-12.634
▁کارخان	-12.6341
▁رسی	-12.6341
تینو	-12.6341
▁Die	-12.6341
▁آریا	-12.6346
گویی	-12.6349
card	-12.635
▁تَ	-12.635
▁ot	-12.6351
▁اسکل	-12.6352
▁ُ	-12.6356
▁تلاشم	-12.6357
▁متاسف	-12.636
▁فمینیس	-12.6362
زمینی	-12.6362
▁بشنو	-12.6363
▁ang	-12.6364
▁انا	-12.6366
▁دسی	-12.6366
▁نگذار	-12.6367
قامت	-12.637
▁بگوئی	-12.6373
ABC	-12.6373
▁انجم	-12.6373
▁Fall	-12.6374
▁زرتشت	-12.6375
Settings	-12.6376
▁Girl	-12.6376
▁Product	-12.6376
▁Square	-12.6376
▁iCloud	-12.6376
▁آنفلوانزا	-12.6376
▁انتظام	-12.6376
▁ترکمنستان	-12.6376
▁طالقان	-12.6376
▁معاویه	-12.6376
▁مگاپیکسل	-12.6376
▁میگیرند	-12.6376
▁هژمونی	-12.6376
▁پیکاسو	-12.6376
▁چامسکی	-12.6376
▁۱۹۷۲	-12.6376
▁۱۹۷۴	-12.6376
▁۱۹۷۸	-12.6376
نانوذرات	-12.6376
▁بپوشد	-12.6376
▁Place	-12.6376
مورینیو	-12.6376
▁بنگر	-12.6376
▁مجار	-12.6376
▁Crypto	-12.6376
تیلرسون	-12.6376
▁What	-12.6376
▁درخشانی	-12.6376
▁ورشو	-12.6376
▁اثاثیه	-12.6376
▁Metro	-12.6376
▁گمنام	-12.6376
▁سندیکا	-12.6376
▁1917	-12.6376
▁name	-12.6376
▁Protect	-12.6376
▁Club	-12.6376
▁Active	-12.6376
▁۱۹۴۲	-12.6376
ault	-12.6376
▁مرض	-12.6376
▁Eye	-12.6376
▁مودبانه	-12.6377
▁Moz	-12.6377
▁Face	-12.6377
▁واتیکان	-12.6377
▁Merc	-12.6378
▁Hand	-12.6378
▁گسل	-12.6378
▁مریلند	-12.6378
▁بالعکس	-12.6379
▁محبّ	-12.6379
▁غضب	-12.6379
▁نانسی	-12.6379
▁2.2	-12.6379
▁فزون	-12.6379
▁ship	-12.6379
▁فلورس	-12.6379
▁ius	-12.638
▁خندند	-12.638
▁بالگرد	-12.638
interest	-12.6381
▁انگلس	-12.6381
▁Ice	-12.6381
▁Jon	-12.6381
▁سوفی	-12.6382
▁یابم	-12.6382
▁خيل	-12.6382
▁Blu	-12.6382
▁جوآن	-12.6382
▁حقيق	-12.6382
▁sub	-12.6382
▁سمینارها	-12.6383
▁صادرکنند	-12.6384
▁هریس	-12.6384
بایست	-12.6386
▁خیم	-12.6386
▁گيرد	-12.6387
آل	-12.6388
▁مخل	-12.639
▁نخل	-12.6391
نشیا	-12.6393
▁ردپای	-12.6394
جویان	-12.6397
▁میدم	-12.6397
▁مقدو	-12.6398
CP	-12.6398
▁شنیدید	-12.6401
▁ناشتا	-12.6401
▁پردازید	-12.6402
▁ملائکه	-12.6402
▁کاریکاتور	-12.6404
▁DM	-12.6404
▁دپ	-12.6406
▁Str	-12.6408
▁نیچه	-12.6408
سران	-12.6408
درج	-12.6408
اشنی	-12.6408
▁لِ	-12.6409
▁فرستادیم	-12.6416
▁پاسدار	-12.6417
▁گیلان	-12.6417
راهام	-12.6419
▁آبزی	-12.6419
▁گلوب	-12.6422
▁گذرند	-12.6423
▁رهن	-12.6425
باط	-12.6425
▁مشق	-12.6426
▁Find	-12.6426
▁بمون	-12.6428
رینو	-12.6433
نام	-12.6435
▁سیت	-12.6436
▁not	-12.6438
▁جانش	-12.6442
▁Eas	-12.6442
ماند	-12.6443
▁ایماندار	-12.6444
▁Change	-12.6444
sel	-12.6451
sch	-12.6453
▁گاس	-12.6455
▁خواندیم	-12.6455
▁Photo	-12.6455
▁آبادان	-12.6457
hina	-12.6457
ison	-12.6458
▁بستند	-12.6459
استر	-12.6462
▁تقوی	-12.6462
▁قلبش	-12.6463
▁نمودیم	-12.6463
▁هورن	-12.6463
▁تراشی	-12.6465
▁رسا	-12.6466
▁تراپی	-12.6466
▁بشوی	-12.6466
کوفه	-12.6468
val	-12.6468
▁بنابرا	-12.647
▁هارون	-12.6471
روباه	-12.6472
▁استثنائ	-12.6473
▁پیشران	-12.6473
یرن	-12.6479
بض	-12.6481
▁سرچ	-12.6482
00000	-12.6483
▁ستار	-12.6483
▁عامی	-12.6488
▁كشت	-12.649
▁ON	-12.649
De	-12.6492
26	-12.6492
▁امامان	-12.6492
▁149	-12.6493
▁اجت	-12.6495
▁افر	-12.6499
نتس	-12.6504
فهیم	-12.6508
حف	-12.6509
▁کانی	-12.6512
▁احد	-12.6515
▁دردها	-12.6524
لوت	-12.6525
زجر	-12.6525
mat	-12.6537
تساب	-12.6537
ROI	-12.6539
▁Mor	-12.654
زحل	-12.6543
▁اشغالی	-12.6543
▁پهپادها	-12.6544
▁FI	-12.6544
lass	-12.6546
▁۴۵۰	-12.6546
▁فرما	-12.6553
▁220	-12.6553
sca	-12.6554
▁سرکش	-12.6554
▁لت	-12.6556
قي	-12.6558
▁ti	-12.6561
lick	-12.6567
▁تعری	-12.6571
▁Bl	-12.6574
ATA	-12.6577
rest	-12.6582
/3	-12.6582
illa	-12.6584
▁00:	-12.6584
وریس	-12.6586
▁11:	-12.6586
خص	-12.6587
یوژ	-12.6588
▁حرفش	-12.659
▁کمون	-12.6591
den	-12.6595
▁هدایا	-12.6601
▁داروساز	-12.6604
▁دلهای	-12.6605
ICE	-12.6607
خار	-12.6608
▁بارید	-12.6608
یدو	-12.6614
▁مصاد	-12.6615
▁الکتریک	-12.6616
▁شمس	-12.662
read	-12.662
ence	-12.6621
▁ph	-12.6625
▁آفریدگا	-12.6629
py	-12.6632
گشا	-12.6632
▁پذیرا	-12.6634
سوری	-12.6638
▁الر	-12.6638
▁Steve	-12.6641
▁علا	-12.6644
▁Boy	-12.6645
گور	-12.6652
▁men	-12.6653
WA	-12.6653
سیر	-12.6653
▁مونا	-12.6656
▁مسافری	-12.6657
▁گرافی	-12.666
چگونه	-12.6661
▁پسرک	-12.6661
▁بعض	-12.667
▁بخ	-12.6673
▁گنو	-12.6674
وود	-12.6674
▁Ku	-12.6678
▁Lock	-12.668
▁سِ	-12.6681
جب	-12.6682
▁Part	-12.6683
▁ذر	-12.6689
field	-12.6691
Station	-12.6691
مجموعه	-12.6693
قطبی	-12.6693
روح	-12.6695
يافت	-12.6697
port	-12.6699
▁فنا	-12.6701
▁پسندید	-12.6701
کمتر	-12.6701
▁ND	-12.6702
رتال	-12.6702
▁her	-12.6702
Man	-12.6703
▁مرحل	-12.6704
▁bus	-12.6705
▁آخرش	-12.6706
طرفه	-12.671
▁هوی	-12.6713
low	-12.6717
▁lo	-12.6717
▁IG	-12.6717
راحتی	-12.6718
▁گالو	-12.672
گولا	-12.6721
RP	-12.6723
▁بوق	-12.6729
ریکا	-12.6729
▁Connect	-12.673
▁op	-12.6731
▁نسخ	-12.6731
▁گوگ	-12.6733
mas	-12.6735
ound	-12.6736
▁اسپی	-12.6739
▁کرونا	-12.6741
افکت	-12.6745
▁تبد	-12.6745
▁سیاهپوست	-12.6746
نطق	-12.6749
▁کوفت	-12.6749
▁Carl	-12.6751
▁پوندی	-12.6754
▁رونالد	-12.6759
volution	-12.676
á	-12.676
▁Clean	-12.676
▁Dynamic	-12.676
▁آلاباما	-12.676
▁اخلاص	-12.676
▁استنشاق	-12.676
▁اغتشاش	-12.676
▁اقتضا	-12.676
▁خوزستان	-12.676
▁دیترویت	-12.676
▁زردچوبه	-12.676
▁فصول	-12.676
▁مفرط	-12.676
txt	-12.676
خرچنگ	-12.676
هوافضا	-12.676
▁شکایات	-12.676
▁After	-12.676
▁همبرگر	-12.676
▁Legend	-12.676
▁بیابیم	-12.676
▁Drop	-12.676
▁هاوانا	-12.676
▁حكم	-12.676
▁Histor	-12.676
▁نخرید	-12.676
▁George	-12.6761
▁ترودو	-12.6761
▁آهنربا	-12.6761
▁(17	-12.6761
▁Ultr	-12.6761
▁عابر	-12.6761
▁well	-12.6761
▁Compan	-12.6761
▁۱۹۳۹	-12.6761
▁Wild	-12.6761
▁1953	-12.6761
طوطی	-12.6761
▁LLC	-12.6762
iving	-12.6762
▁کامپایل	-12.6762
▁۱۰۰۰۰	-12.6762
▁بیفتند	-12.6762
ndex	-12.6762
▁بهمراه	-12.6763
▁ION	-12.6763
▁Moon	-12.6763
▁چریک	-12.6763
▁فخر	-12.6763
کنندگان	-12.6763
▁BIM	-12.6764
▁Pop	-12.6764
▁Yes	-12.6764
▁علاج	-12.6764
▁گذرانید	-12.6764
▁بسوزاند	-12.6764
▁اصط	-12.6764
lim	-12.6765
phone	-12.6765
▁جسی	-12.6768
قوطی	-12.6768
نسون	-12.6769
▁فیلیپس	-12.677
▁مکررا	-12.677
▁کورکو	-12.677
▁Get	-12.6771
▁ربانی	-12.6772
▁ناسیونالیست	-12.6772
▁عدن	-12.6773
دالاس	-12.6773
▁موسیقیدان	-12.6773
▁فيل	-12.6773
▁دونست	-12.6776
RT	-12.6778
▁۶۲	-12.6779
ونز	-12.678
فروغ	-12.6781
بیح	-12.6781
▁پربار	-12.6782
▁100%	-12.6782
▁کنسرو	-12.6782
▁نابینای	-12.6782
pin	-12.6785
▁فولک	-12.6786
DF	-12.6786
مردان	-12.6786
▁موهایش	-12.6789
▁دزدیدن	-12.6798
▁ثور	-12.6802
یلووات	-12.6807
▁بینا	-12.6808
▁٢٠	-12.6812
زیل	-12.6812
tes	-12.6816
EA	-12.6816
▁ایرنا	-12.6818
▁اسپنس	-12.6822
▁لوکا	-12.6823
▁ha	-12.6824
tract	-12.6824
rian	-12.6825
▁کیل	-12.6827
ras	-12.6829
▁بلر	-12.6841
وکا	-12.6844
سیل	-12.6845
ding	-12.6851
شایی	-12.6851
ars	-12.6854
▁اق	-12.6857
▁رش	-12.6857
▁متح	-12.6862
▁fe	-12.6864
▁کاردیو	-12.6864
▁اعلی	-12.6866
▁پورن	-12.6867
▁بسم	-12.6867
▁مغ	-12.6872
▁Dar	-12.6876
▁کوس	-12.6878
▁فیبرو	-12.6879
۰۹	-12.6883
▁NET	-12.6889
▁کلونی	-12.69
▁گدا	-12.6906
نجیر	-12.6906
▁خبرنگاری	-12.6909
▁Count	-12.691
ower	-12.6911
▁ویژ	-12.6912
▁نایت	-12.6915
▁متان	-12.6917
▁انتقادها	-12.692
▁کپ	-12.6925
▁نمکی	-12.6928
أم	-12.693
ورو	-12.6934
▁بارد	-12.6944
▁لیند	-12.6944
▁زیم	-12.6946
▁ance	-12.6946
ویس	-12.6948
تونید	-12.695
▁فقیرتر	-12.6954
شهری	-12.6955
روج	-12.6957
▁آلرژ	-12.6959
جای	-12.696
▁tra	-12.696
▁SC	-12.6963
▁گشتم	-12.6964
ONE	-12.6967
uch	-12.6972
▁کوکا	-12.6972
نقل	-12.6972
▁لیدی	-12.6972
▁لیت	-12.6976
IEC	-12.698
▁خروش	-12.6986
دارند	-12.6986
سبیل	-12.6988
▁chi	-12.6989
▁ریم	-12.6989
نوشت	-12.6995
▁تراشید	-12.6997
-20	-12.7
▁بریز	-12.7001
▁ps	-12.7003
evel	-12.7007
▁هلم	-12.7012
تزر	-12.7015
▁نادانی	-12.7015
▁king	-12.7016
review	-12.7017
لاغ	-12.702
▁اسام	-12.7022
ame	-12.7027
▁یدک	-12.7028
OW	-12.7029
▁یزدی	-12.7029
▁Ten	-12.7048
▁تلو	-12.705
▁آتلانت	-12.7051
▁لپت	-12.7053
لوب	-12.7054
خلوص	-12.7057
▁واچ	-12.7057
▁Rad	-12.7057
▁انضباطی	-12.7061
▁احتیاطی	-12.7063
وآن	-12.7064
پرو	-12.7068
▁آستر	-12.7085
\	-12.7092
یوحن	-12.7092
Book	-12.7093
تغییر	-12.7093
سالار	-12.7094
خدمت	-12.7097
محمد	-12.7098
▁جنگد	-12.7099
▁Er	-12.71
▁مطالع	-12.7101
face	-12.7102
آزمای	-12.7102
chat	-12.7106
▁Safe	-12.7116
▁سردتر	-12.7118
▁عص	-12.7124
DP	-12.7126
▁گسترد	-12.7128
▁ry	-12.7128
کشی	-12.7131
▁نئ	-12.7131
▁Ber	-12.7132
سئول	-12.7132
زوو	-12.7137
▁HS	-12.7139
58	-12.7141
▁1600	-12.7144
▁مشرک	-12.7146
ریو	-12.7154
▁نارس	-12.7155
▁Capita	-12.7156
ora	-12.7159
▁Chris	-12.7159
▁بلغار	-12.716
اورلئان	-12.716
▁system	-12.716
▁آسپیر	-12.716
▁استکهلم	-12.716
▁امیرالم	-12.716
▁جبرئیل	-12.716
▁خُب	-12.716
▁والیبال	-12.716
▁پذير	-12.716
▁گسیخت	-12.716
▁Profess	-12.716
▁[10]	-12.716
▁بازگردید	-12.716
▁ناپاک	-12.716
▁آزمودن	-12.716
▁ببندد	-12.716
▁تناوب	-12.716
زعفران	-12.716
▁بینجامد	-12.716
▁روادید	-12.716
▁مختار	-12.716
▁؟؟؟؟؟؟	-12.716
▁Blood	-12.716
جگوار	-12.716
▁پرولتر	-12.716
▁Python	-12.716
▁یلدا	-12.716
▁اسپیکر	-12.716
▁رزماری	-12.7161
▁لرزاند	-12.7161
▁گیاهخوار	-12.7161
▁قریش	-12.7161
▁Road	-12.7161
▁HDMI	-12.7161
▁طبيع	-12.7161
▁1957	-12.7161
▁Money	-12.7161
▁بکشاند	-12.7161
▁ستمکار	-12.7161
▁Prime	-12.7161
▁1918	-12.7161
▁IVF	-12.7161
▁نیاکان	-12.7161
▁طلسم	-12.7161
▁NFC	-12.7161
▁نمازگزار	-12.7161
▁۱۹۷۱	-12.7162
حا	-12.7162
▁هارپر	-12.7162
▁TED	-12.7162
▁Awards	-12.7162
▁Sign	-12.7163
▁Fair	-12.7163
▁1948	-12.7163
▁نكرد	-12.7163
▁Off	-12.7164
▁ببخشیم	-12.7164
▁نیفتد	-12.7164
▁لوب	-12.7164
▁هلال	-12.7164
▁رغبت	-12.7165
▁علوی	-12.7165
▁1942	-12.7165
▁پروژست	-12.7165
▁بهجت	-12.7165
▁بولینگ	-12.7166
▁بسپارند	-12.7166
▁قاچاقچیان	-12.7166
▁مسح	-12.7166
▁Team	-12.7168
Al	-12.7168
▁جاودانگی	-12.717
قیل	-12.717
▁Je	-12.717
▁مشروبات	-12.7171
▁See	-12.7171
رادف	-12.7171
▁ments	-12.7172
پال	-12.7173
▁ذینفعان	-12.7173
▁بگید	-12.7173
▁قشنگی	-12.7173
زیس	-12.7174
تام	-12.7174
▁Fi	-12.7175
▁ملّت	-12.7175
▁›	-12.7176
▁OECD	-12.7176
▁فروختن	-12.718
▁اعجا	-12.7182
▁سنگها	-12.7184
▁USA	-12.7184
▁جدل	-12.7184
▁متقارن	-12.7186
LM	-12.7187
رکعت	-12.7187
▁آشناست	-12.7193
▁NC	-12.7193
أهل	-12.7194
▁LAN	-12.7195
▁خفت	-12.7196
▁106	-12.7197
▁کنج	-12.7197
رکوس	-12.7197
▁log	-12.7201
سبورگ	-12.7203
▁پوشد	-12.7203
▁حب	-12.7203
▁کارامد	-12.7204
▁Cent	-12.7205
تُن	-12.7207
زده	-12.7209
▁فاحشه	-12.7214
▁form	-12.7219
أَ	-12.7222
▁if	-12.7222
ارین	-12.7225
ورک	-12.7226
MG	-12.7227
▁پنت	-12.7228
VR	-12.7231
▁IM	-12.7231
▁پیشنهادها	-12.7233
mic	-12.7234
▁Tu	-12.7235
▁سختگیر	-12.7236
تمبر	-12.7236
▁اجراست	-12.7237
گرینلند	-12.7238
▁پلن	-12.7239
وپال	-12.7241
▁نیما	-12.7241
▁؟!»	-12.7243
▁Va	-12.7244
▁شاکی	-12.7245
▁آتشین	-12.7246
NU	-12.7254
گى	-12.7256
زش	-12.7257
ium	-12.7258
eview	-12.726
▁AU	-12.726
وزه	-12.7262
▁102	-12.7262
جفری	-12.7266
▁عری	-12.7269
▁نبرگ	-12.7269
▁دمو	-12.7273
mus	-12.7274
▁کروی	-12.7278
▁کارول	-12.728
▁تراک	-12.7282
isk	-12.7286
▁[/	-12.7287
ائ	-12.7293
▁DA	-12.7299
awn	-12.7302
▁188	-12.7304
▁CPA	-12.7305
تانول	-12.731
▁تائو	-12.731
▁متع	-12.7311
▁دبستانی	-12.7318
REM	-12.732
▁جاي	-12.732
CIA	-12.732
راکل	-12.7327
▁net	-12.7329
▁کوپتر	-12.733
ient	-12.7332
▁لوری	-12.7336
کاندین	-12.7336
Words	-12.7343
▁والت	-12.7354
لوف	-12.736
AV	-12.7363
توسل	-12.7366
▁Ken	-12.7373
شیما	-12.7373
▁Las	-12.7376
▁بارون	-12.7376
▁cr	-12.7378
▁تماما	-12.7381
▁Ig	-12.7382
▁لارا	-12.7384
▁عط	-12.7385
تروفی	-12.7386
دانند	-12.7393
ردین	-12.7393
ورش	-12.7394
▁ایستا	-12.7398
دنیل	-12.7399
nce	-12.7403
▁Sw	-12.7403
▁شمارند	-12.7408
▁تورین	-12.7409
▁pr	-12.7409
▁دبستان	-12.7415
▁Universit	-12.7417
▁باغبان	-12.7421
▁Nin	-12.7422
▁لذ	-12.7426
itch	-12.7428
▁گرید	-12.7439
▁اغ	-12.7442
▁گي	-12.7445
▁دوبی	-12.7447
land	-12.7452
▁تسم	-12.7453
۱۹۵۶	-12.7455
38	-12.7459
رفاکس	-12.7466
▁Hy	-12.7469
سلاو	-12.7472
out	-12.7472
▁کالی	-12.7472
▁متحدین	-12.7474
برگیرند	-12.7476
sia	-12.7477
▁Des	-12.7479
ّق	-12.7479
اسلواکی	-12.748
▁جیان	-12.7486
▁link	-12.749
وجه	-12.7491
▁mode	-12.7492
xit	-12.7495
▁چارت	-12.7496
اطع	-12.7503
▁نصرال	-12.7505
ثبات	-12.7506
▁امامزاد	-12.7507
آمریکا	-12.7507
style	-12.7507
کربن	-12.7508
آشپز	-12.7509
‍	-12.7509
++	-12.7509
میوه	-12.751
app	-12.7511
▁محاکم	-12.7511
اکشن	-12.7512
▁منتظرم	-12.7512
اچی	-12.7513
لتون	-12.7515
ao	-12.7515
برند	-12.7516
rap	-12.7522
▁نایل	-12.7522
سام	-12.7526
mg	-12.7526
▁فوم	-12.7527
▁ET	-12.7528
غض	-12.753
▁رجا	-12.7537
▁متروک	-12.7538
▁لیلی	-12.7538
ata	-12.7538
▁DO	-12.7541
▁8/	-12.7545
▁بگذر	-12.7546
▁۶۱	-12.7546
▁بپا	-12.7548
▁نوروزی	-12.7549
▁(9	-12.7551
اسکوتر	-12.7557
ومنی	-12.7563
▁شیعی	-12.7563
▁مخابر	-12.7568
oy	-12.7568
▁بروکلی	-12.757
▁دز	-12.7572
▁مخد	-12.7572
▁رمزارز	-12.7573
▁Residen	-12.7577
▁مزخرف	-12.7577
شیائومی	-12.7577
گوانتانامو	-12.7577
▁Avenger	-12.7577
▁انکشاف	-12.7577
▁بمالید	-12.7577
▁جمشید	-12.7577
▁معطل	-12.7577
▁نگذشت	-12.7577
▁وایکینگ	-12.7577
▁۱۹۶۶	-12.7577
▁Assassin	-12.7577
▁Marvel	-12.7577
▁مغرب	-12.7577
▁کذب	-12.7577
▁شالود	-12.7577
▁فاطمی	-12.7577
▁Excel	-12.7577
▁لشگر	-12.7577
▁League	-12.7577
▁Valley	-12.7577
▁trans	-12.7577
sible	-12.7577
▁رزمندگان	-12.7577
▁روپیه	-12.7577
▁سولفور	-12.7577
▁آویخت	-12.7577
▁ساسانی	-12.7577
ouble	-12.7577
▁Canada	-12.7577
▁ترومن	-12.7577
▁Object	-12.7577
صميم	-12.7577
▁Head	-12.7577
▁4.0	-12.7577
▁آينده	-12.7577
▁Earth	-12.7578
▁Archive	-12.7578
▁Marketing	-12.7578
▁هیدروکسی	-12.7578
▁Software	-12.7578
▁گوردون	-12.7578
▁ICT	-12.7578
▁مدفون	-12.7578
▁1939	-12.7578
▁Poly	-12.7578
▁Hack	-12.7578
مجامع	-12.7579
▁Wood	-12.7579
▁سامورا	-12.7579
▁خاشق	-12.7579
▁Mail	-12.7579
▁مژد	-12.7579
▁اکتشافی	-12.7579
▁بنشینیم	-12.7579
امر	-12.7579
▁نروید	-12.7579
▁our	-12.758
▁2050	-12.758
▁Maps	-12.758
▁Lite	-12.7581
▁اسپارت	-12.7581
▁ver	-12.7581
▁Jet	-12.7582
▁باشيد	-12.7582
:00	-12.7583
▁SEM	-12.7583
▁Age	-12.7583
▁Site	-12.7584
▁MAC	-12.7584
▁EQ	-12.7584
▁بپذیرم	-12.7584
▁ski	-12.7585
▁جات	-12.7585
▁هیپر	-12.7585
▁بخوابم	-12.7585
▁جودی	-12.7586
▁چين	-12.7586
▁آکور	-12.7587
▁ساحر	-12.7587
▁179	-12.7587
▁هندس	-12.7587
▁صحاب	-12.7588
۸۹	-12.7589
▁اختر	-12.759
▁۷۳	-12.7591
▁نخوردن	-12.7594
▁کُش	-12.7596
▁عاشقان	-12.7596
▁کویل	-12.7597
▁1-2	-12.7598
▁عالمان	-12.7598
▁pe	-12.7598
eon	-12.7599
▁cher	-12.76
▁خندیدند	-12.7601
نتفلیکس	-12.7601
▁دهيد	-12.7601
▁Pad	-12.7603
order	-12.7603
▁اسبق	-12.7608
▁مناقشات	-12.7611
▁آفریند	-12.7613
▁Intel	-12.7614
Pr	-12.7615
▁نایب	-12.7617
▁پدربزرگش	-12.7617
▁ated	-12.7618
▁بدش	-12.7618
▁نوشتید	-12.7619
▁آت	-12.762
▁112	-12.762
▁پنس	-12.7621
▁الشع	-12.7621
▁آموختند	-12.7622
▁ology	-12.7622
▁شمردن	-12.7624
▁dr	-12.7624
▁EU	-12.7626
DI	-12.7627
▁کاراته	-12.7629
NG	-12.763
ken	-12.7634
▁650	-12.7635
▁15-	-12.7635
لله	-12.7636
▁شیدا	-12.7636
asa	-12.7636
tel	-12.7637
زاق	-12.7638
وژن	-12.764
▁استعمارگر	-12.7644
▁TI	-12.7644
▁کاسب	-12.7645
awa	-12.7647
▁ندادم	-12.7648
▁علام	-12.7648
يار	-12.7652
ics	-12.7653
▁الق	-12.7654
PVC	-12.7656
خون	-12.7658
▁بث	-12.766
▁est	-12.7662
▁شکنی	-12.7666
▁cl	-12.7668
بست	-12.7669
ME	-12.7672
bit	-12.7675
▁Far	-12.7676
▁زان	-12.7679
▁توام	-12.7681
▁Marc	-12.7684
▁نشو	-12.7688
رزمنده	-12.7689
▁براندو	-12.769
▁بازجو	-12.7693
▁DE	-12.7696
▁حض	-12.7696
▁اورد	-12.7698
▁قلی	-12.7698
▁Op	-12.7703
لیا	-12.7705
▁ابدا	-12.7708
▁سیف	-12.7712
▁سگها	-12.7712
▁ملات	-12.7714
▁کاتالی	-12.7716
لیز	-12.7718
ماتیس	-12.7721
ايل	-12.7721
▁هنجار	-12.7722
▁کرمان	-12.7723
دایرکت	-12.7723
▁Si	-12.7725
EI	-12.773
▁کنارم	-12.7731
▁نيروها	-12.7731
ank	-12.7736
▁آنجلی	-12.7736
HL	-12.7736
▁ler	-12.7737
▁MR	-12.7737
▁WI	-12.7737
▁گای	-12.7737
▁ـــ	-12.7742
▁نماها	-12.7742
▁فاصل	-12.7744
خلأ	-12.7754
ژو	-12.7755
▁PG	-12.7761
▁Mal	-12.7763
▁هیرو	-12.7763
ینینگ	-12.7769
ِم	-12.777
▁BB	-12.7772
▁ther	-12.7774
Sense	-12.7777
▁پوت	-12.7782
قول	-12.7783
▁خوشا	-12.7785
red	-12.7788
▁انگ	-12.7788
86	-12.7791
تیان	-12.7798
plan	-12.7799
▁Financ	-12.7799
▁Sim	-12.78
سپاری	-12.78
rey	-12.7801
▁ئي	-12.7807
▁ائ	-12.7809
▁توش	-12.7809
bar	-12.7811
BM	-12.7812
▁تضادها	-12.7812
اسک	-12.7816
▁Para	-12.7818
▁Plan	-12.7818
[...]
