[UNK]	0
[CLS]	1
[SEP]	2
[PAD]	3
[MASK]	4
!	5
"	6
#	7
$	8
%	9
&	10
'	11
(	12
)	13
*	14
+	15
,	16
-	17
.	18
/	19
0	20
1	21
2	22
3	23
4	24
5	25
6	26
7	27
8	28
9	29
:	30
;	31
<	32
=	33
>	34
?	35
@	36
[	37
\	38
]	39
^	40
_	41
`	42
a	43
b	44
c	45
d	46
e	47
f	48
g	49
h	50
i	51
j	52
k	53
l	54
m	55
n	56
o	57
p	58
q	59
r	60
s	61
t	62
u	63
v	64
w	65
x	66
y	67
z	68
{	69
|	70
}	71
~	72
	73
	74
	75
	76
	77
	78
	79
	80
	81
	82
	83
	84
	85
	86
	87
¡	88
¢	89
£	90
¤	91
¥	92
§	93
©	94
«	95
¬	96
­	97
®	98
°	99
±	100
·	101
»	102
×	103
ß	104
à	105
á	106
â	107
ã	108
ä	109
å	110
æ	111
ç	112
è	113
é	114
ê	115
ë	116
ì	117
í	118
î	119
ï	120
ð	121
ñ	122
ò	123
ó	124
ô	125
ö	126
÷	127
ø	128
ú	129
ü	130
ý	131
þ	132
ā	133
ć	134
ē	135
ğ	136
ī	137
ı	138
ł	139
ń	140
ŋ	141
œ	142
ş	143
š	144
ū	145
ű	146
ž	147
ƒ	148
ǎ	149
ɔ	150
ə	151
ɛ	152
ɜ	153
ɨ	154
ɪ	155
ʀ	156
ʁ	157
ʊ	158
ʺ	159
ˈ	160
ˌ	161
ˏ	162
ː	163
́	164
̃	165
̇	166
̈	167
̊	168
̋	169
̏	170
̨	171
̵	172
α	173
β	174
γ	175
δ	176
ε	177
ζ	178
θ	179
κ	180
λ	181
μ	182
ν	183
ο	184
ρ	185
ς	186
τ	187
φ	188
ω	189
а	190
б	191
г	192
д	193
е	194
з	195
и	196
й	197
к	198
л	199
м	200
н	201
о	202
п	203
р	204
с	205
т	206
у	207
ф	208
х	209
ы	210
ь	211
я	212
ё	213
ћ	214
ה	215
ח	216
י	217
כ	218
מ	219
פ	220
ש	221
،	222
؛	223
؟	224
ء	225
آ	226
أ	227
ؤ	228
إ	229
ئ	230
ا	231
ب	232
ة	233
ت	234
ث	235
ج	236
ح	237
خ	238
د	239
ذ	240
ر	241
ز	242
س	243
ش	244
ص	245
ض	246
ط	247
ظ	248
ع	249
غ	250
ـ	251
ف	252
ق	253
ك	254
ل	255
م	256
ن	257
ه	258
و	259
ى	260
ي	261
ً	262
ٌ	263
ٍ	264
َ	265
ُ	266
ِ	267
ّ	268
ْ	269
ٓ	270
ٔ	271
٠	272
١	273
٢	274
٣	275
٤	276
٥	277
٦	278
٧	279
٨	280
٩	281
٪	282
٫	283
٬	284
ٰ	285
ٴ	286
پ	287
ٿ	288
څ	289
چ	290
ژ	291
ک	292
ڪ	293
ګ	294
گ	295
ڵ	296
ں	297
ھ	298
ۀ	299
ہ	300
ۂ	301
ۃ	302
ۆ	303
ی	304
ێ	305
ے	306
۔	307
ە	308
۰	309
۱	310
۲	311
۳	312
۴	313
۵	314
۶	315
۷	316
۸	317
۹	318
ܔ	319
ܜ	320
ก	321
ง	322
แ	323
ა	324
გ	325
ე	326
ვ	327
თ	328
ი	329
ლ	330
მ	331
ნ	332
ო	333
რ	334
ს	335
უ	336
ქ	337
ḥ	338
ṇ	339
ṯ	340
ủ	341
ἐ	342
ἥ	343
ἴ	344
ῖ	345
​	346
‌	347
‍	348
‎	349
‏	350
–	351
—	352
―	353
‘	354
’	355
‚	356
“	357
”	358
„	359
†	360
•	361
‪	362
‫	363
‬	364
‭	365
′	366
‹	367
›	368
※	369
⁄	370
⁠	371
⁣	372
⁧	373
⁩	374
⁪	375
⁭	376
⁮	377
⁯	378
₩	379
€	380
₹	381
⃣	382
←	383
↑	384
→	385
↓	386
⇆	387
⇐	388
⇔	389
∀	390
∆	391
∈	392
−	393
∗	394
∘	395
√	396
∴	397
≈	398
≠	399
≡	400
≤	401
≥	402
⊞	403
⋆	404
⌘	405
⏳	406
⏺	407
▐	408
■	409
□	410
▪	411
▫	412
▬	413
▲	414
▶	415
►	416
◀	417
◄	418
◇	419
◊	420
○	421
●	422
◦	423
◽	424
◾	425
★	426
☆	427
☚	428
☺	429
☼	430
♊	431
♒	432
♡	433
♥	434
♦	435
♪	436
♫	437
♬	438
♯	439
⚡	440
⚽	441
✅	442
✋	443
✍	444
✓	445
✔	446
✕	447
✤	448
✭	449
✳	450
✵	451
❇	452
❌	453
❗	454
❤	455
➌	456
➐	457
➕	458
➖	459
⟨	460
⟩	461
⦁	462
⬅	463
《	464
》	465
「	466
か	467
き	468
ど	469
ま	470
メ	471
モ	472
ヤ	473
一	474
东	475
事	476
人	477
件	478
前	479
十	480
台	481
命	482
坛	483
外	484
天	485
子	486
孫	487
將	488
撫	489
斐	490
旗	491
日	492
月	493
朝	494
本	495
樹	496
湾	497
灣	498
爱	499
生	500
甲	501
碌	502
神	503
臺	504
英	505
蔼	506
语	507
谷	508
軍	509
锦	510
门	511
革	512
도	513
라	514
아	515
장	516
티	517
	518
	519
	520
	521
	522
	523
	524
	525
	526
	527
	528
	529
	530
	531
	532
	533
	534
	535
	536
	537
	538
	539
	540
	541
	542
	543
	544
	545
	546
	547
	548
﴾	549
﴿	550
️	551
﻿	552
�	553
🇩	554
🇪	555
🇬	556
🇷	557
🇺	558
🌀	559
🌐	560
🌬	561
🌲	562
🌷	563
🌸	564
🌺	565
🍁	566
🍃	567
🍳	568
🎁	569
🎄	570
🎥	571
🎬	572
🐶	573
👈	574
👌	575
👏	576
👑	577
👻	578
💎	579
💕	580
💜	581
💟	582
💫	583
💳	584
📈	585
📌	586
📍	587
📑	588
📝	589
📣	590
📱	591
📽	592
🔎	593
🔔	594
🔥	595
🔴	596
🔵	597
🔶	598
🔷	599
🔸	600
🔹	601
🔺	602
🔻	603
🗽	604
😀	605
😁	606
😂	607
😅	608
😉	609
😊	610
😌	611
😍	612
😎	613
😏	614
😐	615
😒	616
😔	617
😕	618
😗	619
😙	620
😛	621
😢	622
😥	623
😭	624
😳	625
😵	626
😶	627
🙁	628
🙂	629
🙏	630
🚀	631
🚫	632
🤔	633
🤗	634
🥇	635
##ز	636
##و	637
##ی	638
##l	639
##u	640
##s	641
##t	642
##r	643
##a	644
##o	645
##ح	646
##ق	647
##ن	648
##د	649
##ا	650
##ل	651
##1	652
##5	653
##4	654
##ب	655
##e	656
##‌	657
##ه	658
##ف	659
##س	660
##ت	661
##n	662
##9	663
##3	664
##8	665
##ض	666
##ک	667
##ر	668
##ع	669
##ج	670
##ي	671
##م	672
##ش	673
##ـ	674
##ص	675
##y	676
##m	677
##p	678
##h	679
##i	680
##c	681
##g	682
##w	683
##d	684
##غ	685
##ّ	686
##گ	687
##آ	688
##خ	689
##6	690
##7	691
##پ	692
##ط	693
##چ	694
##ذ	695
##/	696
##b	697
##k	698
##ژ	699
##f	700
##ِ	701
##ئ	702
##۰	703
##۱	704
##۵	705
##؟	706
##٤	707
##ً	708
##ā	709
##ى	710
##x	711
##]	712
##.	713
##َ	714
##ك	715
##ۀ	716
##۸	717
##z	718
##ْ	719
##ُ	720
##ة	721
##v	722
##>	723
##ھ	724
##0	725
##أ	726
##۴	727
##۹	728
##ء	729
##۶	730
##ٔ	731
##)	732
##2	733
##j	734
##۷	735
##ث	736
##​	737
##"	738
##ö	739
##”	740
##ظ	741
##۳	742
##[	743
##۲	744
##‎	745
##،	746
##ٍ	747
##%	748
##٩	749
##٨	750
##ü	751
##-	752
##q	753
##,	754
##ؤ	755
##ş	756
##«	757
##?	758
##ñ	759
##_	760
##؛	761
##٠	762
##+	763
##–	764
##(	765
##“	766
###	767
##}	768
##!	769
##٪	770
##إ	771
##á	772
##:	773
##٢	774
##‍	775
##‏	776
##ı	777
##٥	778
##ë	779
##ç	780
##е	781
##ћ	782
##ˈ	783
##*	784
##»	785
##&	786
##‘	787
##٦	788
##٧	789
##ä	790
##›	791
##ٌ	792
##é	793
##ē	794
##	795
##ٰ	796
##̊	797
##١	798
##⚡	799
##ṯ	800
##~	801
##♪	802
##{	803
##\	804
##;	805
##|	806
##٣	807
##è	808
##'	809
##ū	810
##å	811
##ń	812
##😂	813
##ە	814
##р	815
##с	816
##н	817
##о	818
##г	819
##ۆ	820
##	821
##<	822
##�	823
##ó	824
##ô	825
##😍	826
##ṇ	827
##ī	828
##­	829
##б	830
##°	831
##д	832
##а	833
##́	834
##л	835
##ь	836
##ы	837
##й	838
##	839
##̋	840
##æ	841
##к	842
##у	843
##👻	844
##′	845
##ω	846
##გ	847
##ლ	848
##ო	849
##ვ	850
##ა	851
##ნ	852
##ი	853
##’	854
##😥	855
##=	856
##¬	857
##ß	858
##$	859
##λ	860
##ε	861
##κ	862
##τ	863
##ρ	864
##ο	865
##ν	866
##ò	867
##﻿	868
##‫	869
##ű	870
##ڵ	871
##ý	872
##😉	873
##ì	874
##軍	875
##將	876
##̇	877
##٫	878
##ګ	879
##^	880
##ï	881
##•	882
##🇬	883
##🇷	884
##@	885
##☼	886
##à	887
##ٓ	888
##—	889
##ζ	890
##‬	891
##т	892
##⃣	893
##٬	894
##♬	895
##â	896
##ٿ	897
##§	898
##✅	899
##◄	900
##ğ	901
##♫	902
##♯	903
##≈	904
##ٴ	905
##х	906
##ہ	907
##😏	908
##ã	909
##●	910
##♥	911
##ø	912
##‹	913
##ქ	914
##რ	915
##თ	916
##ე	917
##ú	918
##✤	919
##ۃ	920
##🤗	921
##😀	922
##🤔	923
##😗	924
##🌷	925
##ё	926
##	927
##‭	928
##⁣	929
##í	930
##←	931
##灣	932
##月	933
##事	934
##件	935
##γ	936
##	937
##י	938
##פ	939
##ה	940
##ˌ	941
##ɪ	942
##🔥	943
##🍃	944
##ڪ	945
##️	946
##‪	947
##š	948
##ῖ	949
##ς	950
##	951
##	952
##ں	953
##£	954
##`	955
##ð	956
##本	957
##语	958
##ێ	959
##¤	960
##α	961
##	962
##人	963
##🎄	964
##м	965
##и	966
##̈	967
##ก	968
##ง	969
##☺	970
##ː	971
##ŋ	972
##ʊ	973
##я	974
##😙	975
##😔	976
##😅	977
##😁	978
##ש	979
##ח	980
##ܔ	981
##▬	982
##×	983
##▐	984
##ۂ	985
##아	986
##라	987
##谷	988
##英	989
##樹	990
##μ	991
##朝	992
##👌	993
##ê	994
##β	995
##·	996
##😵	997
##🌸	998
##ˏ	999
##ə	1000
##ɛ	1001
##	1002
##子	1003
##⌘	1004
##ʀ	1005
##ɔ	1006
##̃	1007
##命	1008
##î	1009
##旗	1010
##ủ	1011
##➖	1012
##	1013
##장	1014
##ს	1015
##მ	1016
##უ	1017
##₩	1018
##👏	1019
##🇺	1020
##🇩	1021
##🇪	1022
##	1023
##ć	1024
##坛	1025
##东	1026
##门	1027
##ے	1028
##★	1029
##ł	1030
##湾	1031
##ان	1032
##ای	1033
##ار	1034
##ست	1035
##ند	1036
در	1037
##ین	1038
به	1039
می	1040
##ید	1041
##ود	1042
از	1043
که	1044
را	1045
است	1046
با	1047
##اد	1048
بر	1049
##رد	1050
##ال	1051
##ام	1052
این	1053
##ور	1054
##اه	1055
##یر	1056
##ات	1057
##یم	1058
آن	1059
یک	1060
##شت	1061
می‌	1062
##ما	1063
هم	1064
##ها	1065
##وان	1066
##های	1067
کن	1068
برای	1069
##لی	1070
##اب	1071
##ری	1072
##ون	1073
##ده	1074
##فت	1075
##سی	1076
##ول	1077
های	1078
##از	1079
##وی	1080
من	1081
کرد	1082
ان	1083
##گر	1084
##ه‌	1085
مو	1086
##اری	1087
##تر	1088
خود	1089
دار	1090
##می	1091
##رو	1092
##مان	1093
##را	1094
##لا	1095
خو	1096
##تی	1097
شما	1098
##کن	1099
بود	1100
نی	1101
##اده	1102
رو	1103
کار	1104
باش	1105
یا	1106
بی	1107
##یت	1108
تا	1109
##گی	1110
##زی	1111
##انی	1112
ما	1113
او	1114
تو	1115
دا	1116
##خت	1117
ها	1118
ای	1119
شده	1120
ده	1121
شد	1122
سال	1123
##اس	1124
##اید	1125
##ایی	1126
دو	1127
##رک	1128
ام	1129
##‌های	1130
هر	1131
دی	1132
هست	1133
##دا	1134
##یا	1135
کند	1136
مح	1137
کنید	1138
شود	1139
توان	1140
آم	1141
فر	1142
مت	1143
پی	1144
مع	1145
کنند	1146
##بی	1147
##فر	1148
خواه	1149
داشت	1150
##قی	1151
##انه	1152
اما	1153
##نگ	1154
##گاه	1155
##‌ها	1156
دست	1157
##یل	1158
##بت	1159
سر	1160
##نی	1161
باشد	1162
نمی	1163
دارد	1164
##عی	1165
##له	1166
آنها	1167
##شان	1168
##اق	1169
حال	1170
باید	1171
##رت	1172
مد	1173
تر	1174
##توان	1175
اگر	1176
##وز	1177
##مای	1178
##ارد	1179
قر	1180
##ادی	1181
بد	1182
مش	1183
کم	1184
استف	1185
استفاده	1186
##که	1187
ال	1188
کش	1189
باز	1190
##رف	1191
گر	1192
چه	1193
##بر	1194
چی	1195
دان	1196
اس	1197
بسی	1198
##وری	1199
##فته	1200
##جه	1201
##جود	1202
##اف	1203
##اند	1204
دیگر	1205
##اره	1206
##خو	1207
نظ	1208
اند	1209
##عد	1210
##وند	1211
هستند	1212
زمان	1213
##جام	1214
مس	1215
مورد	1216
##اخت	1217
داد	1218
##نده	1219
##وم	1220
##..	1221
تح	1222
##دید	1223
##امه	1224
##عه	1225
##کر	1226
پیش	1227
انجام	1228
نو	1229
روز	1230
مق	1231
مرد	1232
##نین	1233
تن	1234
اف	1235
##عت	1236
نیست	1237
##زار	1238
##رس	1239
##با	1240
##مل	1241
##شی	1242
زند	1243
##کی	1244
##قت	1245
جه	1246
تم	1247
وجود	1248
##الی	1249
##دی	1250
انت	1251
بیشت	1252
##رب	1253
##رگ	1254
اج	1255
عن	1256
##ستان	1257
بین	1258
نیز	1259
##مین	1260
##گیر	1261
می‌ش	1262
مه	1263
##خص	1264
رس	1265
اح	1266
همه	1267
پس	1268
کرده	1269
قرار	1270
بز	1271
##ریک	1272
##رکت	1273
هی	1274
مم	1275
##ترین	1276
روی	1277
توس	1278
##وت	1279
عنوان	1280
ات	1281
گذ	1282
##امل	1283
زی	1284
خواهد	1285
...	1286
##شن	1287
داشته	1288
کشور	1289
زندگی	1290
بخ	1291
دانش	1292
واق	1293
دهد	1294
##ونه	1295
##کل	1296
مط	1297
##امی	1298
##شد	1299
ممکن	1300
همچ	1301
می‌توان	1302
##فا	1303
##شته	1304
##وه	1305
می‌ک	1306
ساز	1307
سی	1308
گفت	1309
تص	1310
##یده	1311
تج	1312
##رای	1313
مج	1314
بیشتر	1315
##انند	1316
##رز	1317
وی	1318
##است	1319
راه	1320
بسیار	1321
##خی	1322
می‌کن	1323
##ایت	1324
بازی	1325
اط	1326
نظر	1327
دارند	1328
##اتی	1329
جم	1330
##دم	1331
شرکت	1332
هیچ	1333
نیاز	1334
##چه	1335
##گان	1336
برن	1337
##وش	1338
##ه‌ای	1339
##اص	1340
کردن	1341
##قه	1342
ند	1343
نق	1344
نام	1345
بزرگ	1346
##کان	1347
##وا	1348
اول	1349
##ه‌های	1350
##ورت	1351
آمریک	1352
یکی	1353
اص	1354
##اط	1355
افر	1356
کس	1357
##مند	1358
مث	1359
بعد	1360
جدید	1361
دور	1362
##حی	1363
کل	1364
نمی‌	1365
تغ	1366
شه	1367
##خواه	1368
تنها	1369
داده	1370
##ه‌ی	1371
##er	1372
نه	1373
##ارت	1374
تواند	1375
چند	1376
کمک	1377
20	1378
ساخت	1379
##وید	1380
همچنین	1381
نشان	1382
##زای	1383
##لب	1384
مردم	1385
فق	1386
اع	1387
##مو	1388
##ازه	1389
شن	1390
پای	1391
بن	1392
##صد	1393
ماه	1394
##سان	1395
##در	1396
##اک	1397
##ییر	1398
تغییر	1399
##جا	1400
قب	1401
##لام	1402
##به	1403
##ادر	1404
زن	1405
می‌شود	1406
##تان	1407
چیزی	1408
طور	1409
واقع	1410
##عات	1411
##ژی	1412
##دود	1413
اد	1414
##ره	1415
شوند	1416
##رائ	1417
##قل	1418
آز	1419
ایر	1420
برنامه	1421
بار	1422
سو	1423
می‌کند	1424
##لف	1425
زیر	1426
.»	1427
کنیم	1428
توسط	1429
پرو	1430
##کار	1431
##ورد	1432
##شه	1433
##جاد	1434
جن	1435
##یه	1436
##ابل	1437
ایجاد	1438
تمام	1439
آیا	1440
##زین	1441
##ونی	1442
دن	1443
فقط	1444
بیم	1445
##بان	1446
##گونه	1447
خدا	1448
##ستم	1449
بل	1450
##باره	1451
آموز	1452
بیش	1453
جهان	1454
صورت	1455
مانند	1456
مص	1457
تب	1458
طول	1459
نا	1460
خان	1461
دل	1462
##گذ	1463
##خاب	1464
##یلی	1465
چیز	1466
##اض	1467
##بود	1468
بسیاری	1469
تول	1470
حتی	1471
فع	1472
ارت	1473
##هایی	1474
نس	1475
هن	1476
انتخاب	1477
همان	1478
باشید	1479
قد	1480
##in	1481
تع	1482
افراد	1483
##ثر	1484
اینکه	1485
زمین	1486
##کس	1487
##تاب	1488
تق	1489
##رسی	1490
خط	1491
کو	1492
اخ	1493
یاد	1494
اطلا	1495
آمریکا	1496
##کت	1497
##on	1498
وق	1499
##وس	1500
##شم	1501
برخی	1502
نم	1503
##مال	1504
گرفت	1505
سه	1506
##کرد	1507
غیر	1508
رفت	1509
زمانی	1510
##قیق	1511
مهم	1512
##لیل	1513
آی	1514
##فی	1515
##گری	1516
نش	1517
دول	1518
##نج	1519
##بین	1520
##وع	1521
##بار	1522
##گیری	1523
ایران	1524
##وب	1525
##00	1526
کود	1527
##سم	1528
##وق	1529
##سته	1530
به‌	1531
افزای	1532
اش	1533
پر	1534
جای	1535
کتاب	1536
افزایش	1537
چرا	1538
می‌ده	1539
##اً	1540
##بال	1541
##ضی	1542
##ابی	1543
فیل	1544
باشند	1545
مرا	1546
نمای	1547
##اش	1548
تولید	1549
##یس	1550
دوست	1551
##ریق	1552
##an	1553
آب	1554
شب	1555
درصد	1556
مر	1557
بخش	1558
فکر	1559
دهند	1560
غذ	1561
مشت	1562
مدیر	1563
شخص	1564
همین	1565
##دام	1566
سا	1567
هد	1568
دید	1569
##زه	1570
حق	1571
ارائ	1572
##طور	1573
دهید	1574
##ژه	1575
وقتی	1576
##ایل	1577
سیا	1578
علا	1579
##ازی	1580
چگونه	1581
##نه	1582
مشکل	1583
تش	1584
##یشه	1585
فعال	1586
عم	1587
##یدا	1588
گرو	1589
##سه	1590
میلی	1591
کسی	1592
توجه	1593
بدون	1594
حس	1595
عل	1596
خار	1597
مخت	1598
ارائه	1599
##دار	1600
##وط	1601
سازمان	1602
هایی	1603
فرو	1604
می‌کنند	1605
##ar	1606
توانید	1607
##جی	1608
##رات	1609
کنم	1610
کردند	1611
زیادی	1612
هنگ	1613
##عیت	1614
فرد	1615
بودند	1616
عمل	1617
##رم	1618
آن‌ها	1619
##داشت	1620
کاه	1621
معم	1622
احس	1623
سیستم	1624
پیدا	1625
جنگ	1626
##راحی	1627
##بط	1628
شدن	1629
اه	1630
خیلی	1631
##ستی	1632
کاهش	1633
##رزش	1634
##تما	1635
شهر	1636
##روع	1637
خوب	1638
آل	1639
مطال	1640
نفر	1641
بال	1642
دولت	1643
خر	1644
##ذیر	1645
اقت	1646
مختلف	1647
19	1648
شروع	1649
ترک	1650
بوده	1651
۲۰	1652
##وار	1653
امرو	1654
کام	1655
##اح	1656
##یمی	1657
دریا	1658
##رین	1659
##فق	1660
##وص	1661
اقتص	1662
فیلم	1663
اطلاعات	1664
##الات	1665
گرفته	1666
##دن	1667
احساس	1668
سپ	1669
##گه	1670
انسان	1671
##اسی	1672
قابل	1673
درباره	1674
##ویی	1675
موض	1676
درمان	1677
##لیه	1678
اولین	1679
##or	1680
دیگری	1681
بهترین	1682
متح	1683
گروه	1684
گرد	1685
قبل	1686
##رکز	1687
ایم	1688
خانه	1689
بناب	1690
دلیل	1691
##ینی	1692
##زینه	1693
شک	1694
نز	1695
میان	1696
منط	1697
##سر	1698
مست	1699
منت	1700
تاری	1701
کسب	1702
صح	1703
##باط	1704
##زش	1705
چنین	1706
سایت	1707
##en	1708
جل	1709
##ه‌ها	1710
دارید	1711
##یف	1712
##عث	1713
همیشه	1714
روش	1715
##ثیر	1716
حرف	1717
می‌تواند	1718
گو	1719
انگ	1720
ندارد	1721
##یدن	1722
##at	1723
تلا	1724
##راین	1725
بنابراین	1726
##مه	1727
باعث	1728
##دان	1729
کوچ	1730
##میم	1731
##es	1732
زبان	1733
201	1734
موفق	1735
##اپ	1736
قدرت	1737
اعت	1738
ارو	1739
##اهی	1740
ولی	1741
خانو	1742
پرد	1743
احت	1744
پاس	1745
معمول	1746
اق	1747
ارتباط	1748
مخ	1749
##گرد	1750
سط	1751
طراحی	1752
##al	1753
خدم	1754
##گو	1755
اجتما	1756
تعد	1757
گذشته	1758
محص	1759
قان	1760
##ه‌اند	1761
##مد	1762
##ودی	1763
##اور	1764
طریق	1765
اروپ	1766
##یب	1767
تلاش	1768
آنچه	1769
مدت	1770
جهانی	1771
بهتر	1772
اشت	1773
حدود	1774
سری	1775
دنبال	1776
هدف	1777
اب	1778
##گز	1779
گیر	1780
شامل	1781
##ولی	1782
وب	1783
##نان	1784
دانشگاه	1785
##افی	1786
هنوز	1787
آورد	1788
شم	1789
محصول	1790
کاری	1791
##ریان	1792
خاص	1793
اصلی	1794
توسعه	1795
بدن	1796
اجتماعی	1797
##ربه	1798
##ویس	1799
سرمای	1800
قط	1801
بالا	1802
##ندی	1803
سن	1804
نوع	1805
دریافت	1806
سای	1807
##راه	1808
مسئ	1809
خرید	1810
##اسب	1811
ترین	1812
ار	1813
افت	1814
آینده	1815
##شر	1816
##هن	1817
ادامه	1818
تحقیق	1819
کمی	1820
فروش	1821
##ائ	1822
تصمیم	1823
بع	1824
ته	1825
تأ	1826
مصرف	1827
زنان	1828
##‌تر	1829
احتمال	1830
نسبت	1831
زیرا	1832
خواهند	1833
##مت	1834
خواهید	1835
پاسخ	1836
##برد	1837
##فاوت	1838
حاض	1839
جز	1840
##رح	1841
##انس	1842
نیر	1843
حاضر	1844
##ندگان	1845
دارای	1846
دادن	1847
بررسی	1848
کنتر	1849
رشد	1850
آموزش	1851
کوچک	1852
##ابر	1853
نزدی	1854
مالی	1855
می‌دهد	1856
بگیر	1857
حالی	1858
##مللی	1859
میز	1860
ساعت	1861
ندار	1862
جام	1863
فعالیت	1864
##ران	1865
کننده	1866
چهار	1867
شرای	1868
گزار	1869
##کنون	1870
میلیون	1871
شرایط	1872
تبد	1873
لی	1874
اض	1875
کنترل	1876
کلی	1877
تبدیل	1878
تجربه	1879
توانند	1880
صف	1881
موضوع	1882
همراه	1883
##اران	1884
پشت	1885
خوبی	1886
##it	1887
مل	1888
کامل	1889
داخ	1890
امروز	1891
تحت	1892
##ویر	1893
##یدی	1894
طبی	1895
گی	1896
پزش	1897
خص	1898
نتی	1899
گفته	1900
فض	1901
##پی	1902
پنج	1903
بده	1904
بتوان	1905
##اطر	1906
##شار	1907
##لاح	1908
آغ	1909
##رده	1910
##گوی	1911
وارد	1912
##تری	1913
##‌هایی	1914
۱۹	1915
##من	1916
گست	1917
##این	1918
سطح	1919
ارزش	1920
بلکه	1921
##ظه	1922
##ازم	1923
چون	1924
بیماری	1925
##کو	1926
بازار	1927
##ic	1928
##گران	1929
گزارش	1930
منطقه	1931
شاید	1932
ری	1933
صحبت	1934
حل	1935
صد	1936
وقت	1937
##۰۰	1938
هزار	1939
مرب	1940
اجازه	1941
صن	1942
هفته	1943
سب	1944
تعداد	1945
خصوص	1946
مدیریت	1947
##نا	1948
##le	1949
مواد	1950
چشم	1951
حدا	1952
سخ	1953
اندازه	1954
اغ	1955
پول	1956
آسی	1957
سلام	1958
##فاق	1959
##ندان	1960
یع	1961
بیشتری	1962
دلار	1963
آغاز	1964
محدود	1965
##رژی	1966
مثال	1967
وض	1968
شکل	1969
شی	1970
پایان	1971
درست	1972
واقعی	1973
آخ	1974
ایالات	1975
##خواست	1976
مغ	1977
پذیر	1978
وا	1979
اک	1980
سل	1981
هستید	1982
##بران	1983
خانواده	1984
متحده	1985
خوان	1986
سف	1987
ابت	1988
مثل	1989
برابر	1990
خطر	1991
صفح	1992
دوره	1993
خوش	1994
یعنی	1995
اتفاق	1996
نتیجه	1997
##کاری	1998
نگاه	1999
اغلب	2000
وز	2001
کان	2002
خواست	2003
##فه	2004
##ابت	2005
##وست	2006
مربوط	2007
حمای	2008
##داری	2009
یافت	2010
اید	2011
دنیا	2012
ره	2013
طرف	2014
##st	2015
جمله	2016
بح	2017
هزینه	2018
امکان	2019
شدند	2020
##نت	2021
موارد	2022
نبود	2023
مناسب	2024
اساس	2025
اروپا	2026
مک	2027
البت	2028
تاریخ	2029
نزدیک	2030
عب	2031
البته	2032
حض	2033
چین	2034
کسانی	2035
پیر	2036
مشخص	2037
دیگران	2038
##خواهد	2039
منظ	2040
تیم	2041
##مایش	2042
حمایت	2043
##بری	2044
لازم	2045
انرژی	2046
##ولو	2047
اخت	2048
خدمات	2049
آر	2050
امن	2051
هنگامی	2052
قیم	2053
##قات	2054
##ربی	2055
##میت	2056
».	2057
خاطر	2058
رای	2059
عمو	2060
##شید	2061
روسی	2062
موجود	2063
مرت	2064
##لس	2065
مطالعه	2066
اقتصادی	2067
##اله	2068
جمه	2069
##رخ	2070
رابط	2071
سرا	2072
اینجا	2073
##ویت	2074
جان	2075
هوا	2076
##گذار	2077
تقری	2078
##رض	2079
کودکان	2080
##جر	2081
شناخت	2082
قانون	2083
طب	2084
توص	2085
کاملا	2086
پیشر	2087
نگه	2088
تاثیر	2089
##وک	2090
کافی	2091
سرمایه	2092
##صل	2093
سایر	2094
سپس	2095
##وهای	2096
خون	2097
اعلام	2098
داریم	2099
##اهای	2100
##ئیس	2101
سیاسی	2102
سریع	2103
خواب	2104
درک	2105
می‌شوند	2106
انتظ	2107
تقریبا	2108
ست	2109
دخ	2110
اکنون	2111
کودک	2112
آزمایش	2113
حی	2114
ملی	2115
مرگ	2116
سفر	2117
##جوی	2118
کمتر	2119
قیمت	2120
نمایش	2121
##یره	2122
بهبود	2123
شخصی	2124
داستان	2125
تک	2126
شوید	2127
هرگز	2128
نقش	2129
می‌کرد	2130
##خورد	2131
بان	2132
##ro	2133
پرداخت	2134
زمینه	2135
##شین	2136
کردم	2137
).	2138
طبیعی	2139
تکن	2140
##کتر	2141
فرز	2142
لب	2143
بعضی	2144
رنگ	2145
المللی	2146
##امبر	2147
جوان	2148
مذ	2149
انتظار	2150
جو	2151
نت	2152
حقی	2153
مادر	2154
كه	2155
##کند	2156
دارم	2157
حف	2158
انتق	2159
محی	2160
پار	2161
خارج	2162
محیط	2163
##‌ترین	2164
10	2165
محت	2166
##‌اند	2167
##اتر	2168
حداقل	2169
پدر	2170
رسید	2171
نخ	2172
پروژه	2173
سخت	2174
روسیه	2175
##اخ	2176
اقدام	2177
##ونت	2178
لح	2179
عمومی	2180
ببین	2181
##ac	2182
موفقیت	2183
##ئن	2184
دقیق	2185
کنار	2186
فرص	2187
تما	2188
مان	2189
حقوق	2190
##قدر	2191
خلا	2192
##he	2193
سیاست	2194
رق	2195
افرادی	2196
دوم	2197
شر	2198
##وده	2199
مشکلات	2200
موق	2201
حفظ	2202
##ولوژی	2203
ساخته	2204
خداوند	2205
انگلی	2206
نکن	2207
##آمد	2208
آنجا	2209
##الت	2210
عو	2211
حک	2212
بودن	2213
##re	2214
شبکه	2215
رفتار	2216
مجمو	2217
."	2218
جامعه	2219
اثر	2220
نف	2221
۲۰۱	2222
##مانی	2223
##ئی	2224
حد	2225
نکرد	2226
جا	2227
حساب	2228
هو	2229
حرکت	2230
علیه	2231
##گوید	2232
دستگاه	2233
بدان	2234
صرف	2235
کشورهای	2236
##ion	2237
##مندان	2238
##رش	2239
جست	2240
قادر	2241
صفحه	2242
آنان	2243
طی	2244
##غان	2245
##هم	2246
##صر	2247
نب	2248
رئیس	2249
##ایج	2250
سوی	2251
جلو	2252
پرس	2253
##el	2254
##مز	2255
200	2256
##لح	2257
سرعت	2258
##اهده	2259
آماده	2260
فی	2261
)،	2262
مب	2263
##om	2264
##لق	2265
برس	2266
میزان	2267
##ابع	2268
##گیرد	2269
##خصص	2270
غذایی	2271
##‌ال	2272
دوباره	2273
ساده	2274
نمی‌توان	2275
##هنگ	2276
رابطه	2277
##is	2278
متفاوت	2279
##سازی	2280
##شود	2281
امید	2282
تخ	2283
##خانه	2284
خارجی	2285
سراسر	2286
##باشد	2287
##ضا	2288
بپ	2289
گذاری	2290
علاوه	2291
عض	2292
سازی	2293
آمریکایی	2294
##سال	2295
برق	2296
مار	2297
خور	2298
باور	2299
آسیب	2300
عکس	2301
مف	2302
حمل	2303
پیشنه	2304
آزاد	2305
اخیر	2306
تف	2307
هنگام	2308
ور	2309
تصویر	2310
##طان	2311
وضعیت	2312
##تن	2313
##افه	2314
ویژه	2315
جایی	2316
تل	2317
هستیم	2318
معمولا	2319
گذا	2320
دسترسی	2321
راح	2322
اینتر	2323
واقعا	2324
##کیل	2325
بیان	2326
معت	2327
##et	2328
زیاد	2329
کوت	2330
بیمار	2331
گاهی	2332
مستق	2333
خبر	2334
می‌توانید	2335
نوشت	2336
طولانی	2337
##یز	2338
بخشی	2339
##ظت	2340
##ستگی	2341
##بور	2342
دختر	2343
اشتب	2344
نتایج	2345
##ابه	2346
مشاهده	2347
تجاری	2348
##دیگر	2349
پایین	2350
حقیقت	2351
داشتن	2352
##ing	2353
##اهم	2354
بیر	2355
##ou	2356
##وجه	2357
##وریه	2358
حم	2359
##افق	2360
برگ	2361
##داف	2362
سعی	2363
می‌خواه	2364
##جو	2365
فشار	2366
مشتریان	2367
ابزار	2368
هنر	2369
منتشر	2370
##قق	2371
مکان	2372
امنیت	2373
نور	2374
مسیر	2375
##گار	2376
##ابد	2377
##جب	2378
شو	2379
آش	2380
جذ	2381
گونه	2382
عملی	2383
نشده	2384
مبت	2385
حضور	2386
فرم	2387
گل	2388
نباید	2389
آمده	2390
معن	2391
مهارت	2392
رخ	2393
قسم	2394
اقتصاد	2395
##ظیم	2396
درخواست	2397
محصولات	2398
فران	2399
کیف	2400
فرصت	2401
عالی	2402
لذ	2403
##ومت	2404
مطم	2405
معنی	2406
##عا	2407
خورد	2408
##نو	2409
ایشان	2410
تلف	2411
##لم	2412
بی‌	2413
مرح	2414
اضافه	2415
استرات	2416
مدل	2417
شناس	2418
شور	2419
##as	2420
##am	2421
حالا	2422
##ضای	2423
خش	2424
درد	2425
همکاری	2426
نظامی	2427
شناخته	2428
##ابط	2429
استراتژی	2430
اسرائ	2431
سنگ	2432
مبار	2433
##سانی	2434
موسی	2435
یافته	2436
توانایی	2437
مرکز	2438
بودم	2439
##ين	2440
##طه	2441
##امپ	2442
منابع	2443
نخست	2444
##ol	2445
##آن	2446
##لمان	2447
آمد	2448
محل	2449
##الب	2450
##ادل	2451
پیشنهاد	2452
تمرکز	2453
چیست	2454
گیرد	2455
آور	2456
ثبت	2457
##بات	2458
فرا	2459
##ماد	2460
روشن	2461
طرح	2462
##امین	2463
سمت	2464
غذا	2465
جمع	2466
کلا	2467
کشت	2468
روابط	2469
##ظر	2470
جنسی	2471
##هایت	2472
##تل	2473
اشتباه	2474
##شق	2475
##قای	2476
ترس	2477
نیستند	2478
بس	2479
##نامه	2480
ضر	2481
می‌توانند	2482
##کنان	2483
هستم	2484
بعدی	2485
پیام	2486
پیشرفت	2487
خودش	2488
دقی	2489
گوش	2490
##ریم	2491
عملکرد	2492
آگاه	2493
##ed	2494
مقام	2495
دیده	2496
خودتان	2497
روان	2498
فراهم	2499
نویس	2500
شغ	2501
##گفت	2502
##بانی	2503
اکثر	2504
##واره	2505
دهه	2506
اشاره	2507
حرفه	2508
##ائل	2509
اتح	2510
داخلی	2511
ایده	2512
متوجه	2513
##‌‌	2514
منجر	2515
انگی	2516
توضی	2517
##هر	2518
##واج	2519
تان	2520
مقدار	2521
اعتماد	2522
کدام	2523
##کنند	2524
تغییرات	2525
مدرس	2526
افغان	2527
ساله	2528
تشکیل	2529
تحقیقات	2530
صنعت	2531
نگر	2532
##il	2533
انگلیسی	2534
بگیرید	2535
##خیص	2536
گیری	2537
##گذاری	2538
یه	2539
مها	2540
دنی	2541
تحص	2542
داشتند	2543
جهت	2544
روند	2545
مراق	2546
بازاری	2547
تمرین	2548
نداشت	2549
استخ	2550
منظور	2551
##ناه	2552
آخرین	2553
##رار	2554
ماشین	2555
اسپ	2556
پوست	2557
مشتری	2558
ویژ	2559
سوم	2560
##ریف	2561
تشخیص	2562
کال	2563
رژ	2564
ماند	2565
دقیقه	2566
##‌آ	2567
برد	2568
خواهیم	2569
کاربران	2570
توضیح	2571
رسد	2572
ندارند	2573
دوستان	2574
باشیم	2575
هوش	2576
گرفتن	2577
the	2578
##حال	2579
##ینه	2580
##شناس	2581
مطمئن	2582
دهیم	2583
اپ	2584
پوش	2585
سخن	2586
شاه	2587
##حل	2588
مستقیم	2589
in	2590
می‌د	2591
مرحله	2592
حمله	2593
اتاق	2594
باقی	2595
انقل	2596
##لیغ	2597
آزادی	2598
توصیه	2599
تبلیغ	2600
افز	2601
وسی	2602
هفت	2603
##لاین	2604
برخورد	2605
می‌آ	2606
متن	2607
ظاه	2608
ازد	2609
##یتال	2610
کوتاه	2611
##گون	2612
وزن	2613
عشق	2614
##عیین	2615
نفت	2616
اهداف	2617
آلمان	2618
تعیین	2619
انوا	2620
جریان	2621
##راک	2622
واقعیت	2623
##گل	2624
##راف	2625
نمود	2626
شکست	2627
گوی	2628
تس	2629
امر	2630
نهایت	2631
##میز	2632
انواع	2633
##مون	2634
مرتبط	2635
رژیم	2636
سوریه	2637
۱۰	2638
گوید	2639
مردان	2640
پاک	2641
##افت	2642
بلند	2643
مغز	2644
##oo	2645
رود	2646
بسته	2647
بانک	2648
ارس	2649
دری	2650
استاند	2651
عق	2652
کاناد	2653
تمامی	2654
مناط	2655
تای	2656
می‌کنید	2657
تهدید	2658
توافق	2659
بیرون	2660
##ad	2661
مشابه	2662
چندین	2663
این‌	2664
محقق	2665
حالت	2666
ابتدا	2667
اطلاع	2668
می‌رس	2669
بحث	2670
اطمین	2671
سلامت	2672
موسیقی	2673
##راح	2674
##قا	2675
جمهوری	2676
درآمد	2677
یکدیگر	2678
نسخ	2679
مدرسه	2680
داخل	2681
همچنان	2682
##iv	2683
میل	2684
اجرا	2685
##امت	2686
محاف	2687
آت	2688
نرم	2689
##ادگی	2690
اطمینان	2691
##تح	2692
نوشته	2693
مال	2694
لذت	2695
استاندارد	2696
اسرائیل	2697
عرض	2698
##الد	2699
جلوگیری	2700
اینترنت	2701
اهمیت	2702
آنلاین	2703
می‌گوید	2704
ازدواج	2705
آسان	2706
##ch	2707
##اموش	2708
سرطان	2709
##بیه	2710
کیفیت	2711
قوی	2712
محلی	2713
قسمت	2714
سفید	2715
سود	2716
پزشکی	2717
##وتی	2718
شدید	2719
##ادت	2720
ورزش	2721
نکنید	2722
ویژگی	2723
اعضای	2724
ذهن	2725
##ایش	2726
ویر	2727
خصوصی	2728
نص	2729
کشف	2730
فرانسه	2731
سلول	2732
بازگ	2733
##قد	2734
درو	2735
##پیم	2736
پاد	2737
افغانستان	2738
تکنولوژی	2739
##تور	2740
راست	2741
جدا	2742
طبق	2743
فیزی	2744
عرا	2745
خی	2746
پیچ	2747
گزینه	2748
می‌کنم	2749
##اصل	2750
##داشته	2751
تأثیر	2752
اختی	2753
نخواهد	2754
کامپی	2755
ارسال	2756
بگذار	2757
فوق	2758
اولیه	2759
دوران	2760
12	2761
##جات	2762
علاقه	2763
st	2764
##لیس	2765
##وتر	2766
##انیا	2767
سالم	2768
میلیارد	2769
سوال	2770
بازاریابی	2771
##اها	2772
آرام	2773
##یبانی	2774
##وبی	2775
.”	2776
عد	2777
قرن	2778
##وای	2779
گسترش	2780
##رفی	2781
تجارت	2782
پشتیبانی	2783
قوان	2784
مای	2785
وس	2786
فرهنگ	2787
دادند	2788
کی	2789
##ابق	2790
##نم	2791
انتقال	2792
##رافی	2793
مجموعه	2794
نیم	2795
ارز	2796
##id	2797
برنام	2798
##فاع	2799
مناطق	2800
بو	2801
مسئله	2802
##اکر	2803
پل	2804
##لیت	2805
جدی	2806
آموزان	2807
ترکیه	2808
بندی	2809
تفاوت	2810
##ئم	2811
مسائل	2812
دانشجوی	2813
پژ	2814
##لاف	2815
##چار	2816
حیوان	2817
ترامپ	2818
امریک	2819
تصور	2820
جدیدی	2821
آقای	2822
تنظیم	2823
متخصص	2824
15	2825
می‌کنیم	2826
کلم	2827
می‌دهند	2828
خودم	2829
شخصیت	2830
اسل	2831
اوقات	2832
کارهای	2833
کنندگان	2834
فار	2835
رفتن	2836
18	2837
آدم	2838
هند	2839
##اوی	2840
فرزند	2841
##جم	2842
خواهم	2843
زنده	2844
فلس	2845
##بح	2846
مقاله	2847
نیروهای	2848
قلب	2849
تماس	2850
احتمالا	2851
قوانین	2852
مجبور	2853
گسترده	2854
##ریه	2855
آتش	2856
##ولیت	2857
شیر	2858
تحلیل	2859
دنیای	2860
یادگیری	2861
حز	2862
ساختمان	2863
یابد	2864
##جمه	2865
موس	2866
##کته	2867
کردیم	2868
پژوه	2869
صلح	2870
##اج	2871
قدیمی	2872
چقدر	2873
بهداشت	2874
معرفی	2875
بگوی	2876
گوگل	2877
مشترک	2878
اله	2879
قصد	2880
مقابل	2881
##ازد	2882
اختیار	2883
هواپیم	2884
##دای	2885
آس	2886
بنی	2887
an	2888
##خصوص	2889
مبارزه	2890
بش	2891
موقعیت	2892
برند	2893
بازگشت	2894
انسانی	2895
##یند	2896
صبح	2897
دارو	2898
بزرگترین	2899
تض	2900
تاب	2901
مدار	2902
فضای	2903
شان	2904
امنی	2905
اتحادی	2906
بازدید	2907
عراق	2908
اعمال	2909
##ئو	2910
##نتی	2911
رسیدن	2912
درون	2913
سیاه	2914
ببر	2915
##رن	2916
بچه	2917
دستور	2918
مقای	2919
##ot	2920
چطور	2921
##خش	2922
##شناسی	2923
##os	2924
دچار	2925
##وزی	2926
ایست	2927
کا	2928
رسانه	2929
نیروی	2930
of	2931
##ینگ	2932
نسخه	2933
##شده	2934
##ناک	2935
عدم	2936
##کنش	2937
همانطور	2938
ارزی	2939
آید	2940
وظ	2941
میتوان	2942
متع	2943
مذاکر	2944
##گزین	2945
کانادا	2946
شبیه	2947
##ویزی	2948
علمی	2949
فصل	2950
##لود	2951
بشر	2952
بهره	2953
ترکیب	2954
فل	2955
##پذیر	2956
۲۰۰	2957
دوربین	2958
عبارت	2959
##ay	2960
##ec	2961
##خته	2962
ژاپ	2963
بزر	2964
دکتر	2965
بینی	2966
گذاشت	2967
تلفن	2968
مقایسه	2969
حاصل	2970
جستجو	2971
لباس	2972
شده‌اند	2973
##‌تان	2974
مثبت	2975
نمونه	2976
ناب	2977
جایگزین	2978
فردی	2979
امنیتی	2980
##ig	2981
کمپ	2982
مسی	2983
گرم	2984
رسمی	2985
مهاج	2986
##یک	2987
موا	2988
نقطه	2989
حزب	2990
عص	2991
تروری	2992
مفید	2993
شش	2994
نار	2995
قل	2996
##ایند	2997
تلویزی	2998
##انت	2999
دسترس	3000
وح	3001
##زا	3002
##ent	3003
##بع	3004
##ستانی	3005
می‌دان	3006
##روت	3007
الله	3008
عاش	3009
نح	3010
کره	3011
تازه	3012
مشاور	3013
شدت	3014
##ورتی	3015
متوس	3016
##اشی	3017
##عهد	3018
گردد	3019
ارزیابی	3020
اطراف	3021
سرد	3022
##آوری	3023
امیدوار	3024
فراموش	3025
مدا	3026
محققان	3027
شهرو	3028
بک	3029
شا	3030
عرب	3031
##us	3032
قرآن	3033
##خواهید	3034
شناسایی	3035
##لال	3036
موثر	3037
صادر	3038
تکر	3039
مراقبت	3040
عمی	3041
##تون	3042
دیج	3043
دندان	3044
##سیم	3045
راحتی	3046
ابر	3047
##سیس	3048
خودشان	3049
بمان	3050
ذخ	3051
جمعیت	3052
زود	3053
دمو	3054
##نوان	3055
##رال	3056
موتور	3057
قانونی	3058
عامل	3059
##کننده	3060
روح	3061
مطالعات	3062
##اتیک	3063
##هنگی	3064
کامپیوتر	3065
ضد	3066
خاصی	3067
##‌و	3068
کجا	3069
##عده	3070
دولتی	3071
اشتراک	3072
دش	3073
عضو	3074
اسلامی	3075
پزشک	3076
دع	3077
سبک	3078
خوردن	3079
##نگی	3080
نقل	3081
انداز	3082
حذ	3083
روزانه	3084
##ریب	3085
مز	3086
چال	3087
خودرو	3088
تعریف	3089
افس	3090
نداشته	3091
هدایت	3092
ریا	3093
فوت	3094
آوری	3095
لو	3096
بزرگی	3097
##عتی	3098
اگرچه	3099
کرده‌اند	3100
پرواز	3101
##لاً	3102
زیب	3103
انقلاب	3104
نکته	3105
مطرح	3106
##ag	3107
دانشجویان	3108
اتحادیه	3109
##لند	3110
کلاس	3111
آف	3112
آن‌	3113
منبع	3114
پروت	3115
چیزهایی	3116
دشم	3117
موجب	3118
امام	3119
مؤ	3120
واکنش	3121
##سیون	3122
دهنده	3123
علت	3124
حوز	3125
ضروری	3126
دستی	3127
مواجه	3128
##em	3129
درجه	3130
تحصیل	3131
##کید	3132
فرهنگی	3133
انتخابات	3134
همسر	3135
بارد	3136
متر	3137
##وران	3138
##انیه	3139
##اویر	3140
ورود	3141
حذف	3142
علائم	3143
برگزار	3144
ویت	3145
رسیده	3146
مبتلا	3147
##شا	3148
جذب	3149
واح	3150
منح	3151
ثابت	3152
##طر	3153
امروزه	3154
##گردان	3155
دفاع	3156
پلیس	3157
الکتر	3158
##ow	3159
ببینید	3160
گیرند	3161
دانلود	3162
اساسی	3163
##ur	3164
الع	3165
متوسط	3166
چرخ	3167
##تا	3168
##صه	3169
##ه‌ام	3170
پسر	3171
بخوان	3172
##هور	3173
همس	3174
قطع	3175
عاشق	3176
تمای	3177
پست	3178
زیست	3179
تصاویر	3180
##ap	3181
اجرای	3182
بین‌ال	3183
100	3184
جمهور	3185
هوشمند	3186
ثروت	3187
##وف	3188
##ئین	3189
نامه	3190
مخال	3191
نجات	3192
تست	3193
امور	3194
ساختار	3195
آموزشی	3196
نگران	3197
##‌ب	3198
شمالی	3199
محافظت	3200
معتقد	3201
اصلاح	3202
توانست	3203
آشن	3204
محتوای	3205
محب	3206
دیدگاه	3207
فنا	3208
بدانید	3209
پژوهش	3210
حکومت	3211
فرآ	3212
سرمایه‌	3213
فرمان	3214
##...	3215
می‌شد	3216
چالش	3217
بگیرد	3218
مدرن	3219
وزیر	3220
توانیم	3221
رفته	3222
مسلمان	3223
##‌شان	3224
##سب	3225
بلا	3226
پا	3227
ماهی	3228
فایل	3229
قاب	3230
برج	3231
##وریت	3232
معمولاً	3233
فناوری	3234
کاربرد	3235
بریت	3236
##وح	3237
##نش	3238
##ایع	3239
30	3240
معنای	3241
شغل	3242
##im	3243
##ut	3244
قرارد	3245
ارتش	3246
زده	3247
سق	3248
##ژن	3249
صدای	3250
ترتی	3251
ظاهر	3252
واحد	3253
مرک	3254
رقابت	3255
11	3256
##جان	3257
کلیدی	3258
بگو	3259
##وئ	3260
##سون	3261
##کتری	3262
199	3263
##روف	3264
می‌رسد	3265
خواندن	3266
علی	3267
اینها	3268
قبلی	3269
##وانی	3270
مشار	3271
رهبری	3272
لط	3273
شگفت	3274
##غال	3275
مسئول	3276
مگر	3277
کارت	3278
شیمی	3279
##يد	3280
دیدن	3281
نخستین	3282
آنکه	3283
متوق	3284
بالای	3285
گاز	3286
شع	3287
مسا	3288
خشونت	3289
نگرانی	3290
متوقف	3291
آفریق	3292
لیست	3293
##کاران	3294
زیبا	3295
بتواند	3296
##نام	3297
##دایی	3298
کلمه	3299
جزئی	3300
جالب	3301
##‌ای	3302
مسئولیت	3303
گویند	3304
##زارت	3305
مهند	3306
عف	3307
مقامات	3308
جشن	3309
##ابقه	3310
ملل	3311
اختص	3312
نوز	3313
والد	3314
##زمین	3315
روید	3316
بیماران	3317
هشت	3318
##رانی	3319
مجاز	3320
امریکا	3321
لین	3322
آد	3323
دانشمندان	3324
تور	3325
کد	3326
برادر	3327
کشورها	3328
##اصله	3329
ناشی	3330
لحظه	3331
استرس	3332
اعتق	3333
بله	3334
جنوبی	3335
منفی	3336
سرویس	3337
مهمی	3338
پرداز	3339
بین‌المللی	3340
مرز	3341
وزارت	3342
##کنندگان	3343
##فع	3344
دانست	3345
اقدامات	3346
عوامل	3347
آخر	3348
پارک	3349
کشته	3350
##oc	3351
جنب	3352
اث	3353
اين	3354
ظرف	3355
می‌گوی	3356
علم	3357
ترتیب	3358
انگیز	3359
مزای	3360
##ers	3361
ماده	3362
پایه	3363
بزن	3364
می‌ر	3365
خدمت	3366
##کا	3367
##ابان	3368
نیازهای	3369
تکرار	3370
قدم	3371
درمانی	3372
اسلام	3373
##داران	3374
##ation	3375
عمیق	3376
##شنبه	3377
افتاد	3378
جواب	3379
##آورد	3380
هوایی	3381
##گانه	3382
##ماز	3383
##اظ	3384
دروغ	3385
باشم	3386
##un	3387
تقویت	3388
فاصله	3389
13	3390
مقا	3391
##ادهای	3392
##میل	3393
بالاتر	3394
نرخ	3395
اخلا	3396
فرآیند	3397
موش	3398
تاریخی	3399
فرزندان	3400
سع	3401
۱۵	3402
محبوب	3403
بند	3404
نهایی	3405
کاربر	3406
احتر	3407
بم	3408
افزار	3409
ایمیل	3410
ارشد	3411
##ir	3412
معرض	3413
بای	3414
ایرانی	3415
عملیات	3416
اظه	3417
مشارکت	3418
عرضه	3419
##شند	3420
میکن	3421
هشد	3422
##لاگ	3423
نشانه	3424
##ویه	3425
شمار	3426
عمر	3427
سلاح	3428
غرب	3429
ملا	3430
##سا	3431
همواره	3432
تد	3433
نکرده	3434
قابلیت	3435
محک	3436
اظهار	3437
ذکر	3438
شدم	3439
پوشش	3440
نصب	3441
کاملاً	3442
##ــ	3443
کارکنان	3444
اختصاص	3445
صاح	3446
صورتی	3447
انج	3448
مشغ	3449
نسل	3450
شماره	3451
##ریت	3452
بحران	3453
برسد	3454
زدن	3455
پرت	3456
خانم	3457
اطلاعاتی	3458
دیجیتال	3459
##راج	3460
##زد	3461
رسان	3462
مجد	3463
کشتی	3464
خلق	3465
ریزی	3466
هتل	3467
بگیرند	3468
دشوار	3469
نوشتن	3470
پیچیده	3471
ذخیره	3472
حوزه	3473
اعتقاد	3474
کف	3475
رد	3476
کشاور	3477
؟!	3478
مانده	3479
تقسیم	3480
حفا	3481
عه	3482
##چی	3483
مرکزی	3484
وعده	3485
##زم	3486
فیزیکی	3487
مسافر	3488
##ه‌اید	3489
##داد	3490
حیوانات	3491
25	3492
صند	3493
##لات	3494
قبول	3495
والدین	3496
ممن	3497
روب	3498
خلاق	3499
زندان	3500
##ه‌هایی	3501
طلا	3502
چینی	3503
##عیف	3504
محدودیت	3505
ژاپن	3506
آشکار	3507
خودمان	3508
مستقل	3509
صدا	3510
گون	3511
نفس	3512
واقعاً	3513
احساسات	3514
##سات	3515
انتشار	3516
تلویزیون	3517
غربی	3518
##اصر	3519
نمایند	3520
اکت	3521
ماد	3522
##ورش	3523
اعتر	3524
به‌ع	3525
بست	3526
سگ	3527
کلمات	3528
چاپ	3529
سرب	3530
مختلفی	3531
استاد	3532
آوردن	3533
رایگان	3534
16	3535
سلامتی	3536
هشدار	3537
##کرو	3538
خرو	3539
زیبایی	3540
مشغول	3541
درس	3542
مناف	3543
مي	3544
کیل	3545
قدرتمند	3546
دفت	3547
مام	3548
##ورک	3549
واب	3550
##ایه	3551
گوشی	3552
؟»	3553
نتوان	3554
سالگی	3555
گردش	3556
اقامت	3557
عوض	3558
علوم	3559
اروپایی	3560
الان	3561
تهیه	3562
##پر	3563
نظام	3564
مذه	3565
برقرار	3566
تایید	3567
##اندن	3568
اداره	3569
گفتند	3570
فن	3571
نباشد	3572
##ul	3573
میشود	3574
##یمان	3575
##وله	3576
متحد	3577
روزی	3578
بچ	3579
سین	3580
قه	3581
##‌اش	3582
دهم	3583
فیس	3584
پناه	3585
##گن	3586
استرال	3587
هسته	3588
ول	3589
کری	3590
مقر	3591
##غن	3592
رهبران	3593
لحاظ	3594
50	3595
جراحی	3596
مخاط	3597
خورشید	3598
تضمین	3599
فرض	3600
##قیه	3601
استرالیا	3602
##ia	3603
می‌باشد	3604
دادگاه	3605
راحت	3606
افزود	3607
راهی	3608
ستاره	3609
مخصوص	3610
##od	3611
داشتم	3612
##um	3613
##دهد	3614
دلایل	3615
اون	3616
رانند	3617
com	3618
خیر	3619
وسیله	3620
زد	3621
عین	3622
میدان	3623
تحریم	3624
خوشحال	3625
تجه	3626
خوی	3627
دام	3628
چگون	3629
نماید	3630
تری	3631
داری	3632
فهم	3633
آورده	3634
##زمان	3635
##ومی	3636
درخت	3637
موضو	3638
مصاح	3639
تجهیز	3640
##ادث	3641
##ویق	3642
فعلی	3643
احترام	3644
نشد	3645
تولد	3646
##نز	3647
صنعتی	3648
آپ	3649
دین	3650
کارآ	3651
نظارت	3652
پادش	3653
العاده	3654
به‌طور	3655
آگاهی	3656
##یسی	3657
##اهد	3658
شیوه	3659
تبلیغات	3660
14	3661
رشته	3662
خاک	3663
۱۲	3664
ایمان	3665
عربستان	3666
چگونگی	3667
خدای	3668
##کات	3669
فرست	3670
یون	3671
گران	3672
سازد	3673
##سل	3674
مکانی	3675
حفاظت	3676
عادی	3677
می‌کردند	3678
میکند	3679
تمایل	3680
شمال	3681
##بیل	3682
قربانی	3683
مجموع	3684
دقت	3685
فرود	3686
متم	3687
عجی	3688
گذار	3689
منافع	3690
اصل	3691
بگذارید	3692
مطلب	3693
##بینی	3694
سبز	3695
رت	3696
##ذی	3697
دفتر	3698
##ter	3699
re	3700
گام	3701
امتح	3702
##بیر	3703
شیمیایی	3704
پو	3705
بدهید	3706
بریتانیا	3707
##گردد	3708
گذاشته	3709
می‌گیرد	3710
ترجی	3711
نیازمند	3712
منتقل	3713
ریس	3714
##زل	3715
##کلی	3716
گم	3717
رنج	3718
نویسنده	3719
می‌گیر	3720
نشست	3721
الکترونی	3722
مفه	3723
دربار	3724
شهری	3725
فروشگاه	3726
تقریباً	3727
##الم	3728
بدست	3729
طبیعت	3730
کوه	3731
##باری	3732
بیمارستان	3733
امتحان	3734
##گذارد	3735
تعط	3736
گروهی	3737
نحوه	3738
##خواهند	3739
شاهد	3740
پیش‌	3741
##رایی	3742
چنان	3743
منتظر	3744
فلسط	3745
نوعی	3746
گذشت	3747
جنوب	3748
هزاران	3749
عفونت	3750
وید	3751
##ریزی	3752
ایمنی	3753
عقب	3754
##عم	3755
کارگران	3756
اسم	3757
دعوت	3758
##ess	3759
وبلاگ	3760
ch	3761
روغن	3762
شده‌	3763
##ه‌ایم	3764
نقاط	3765
کلید	3766
بتوانند	3767
نوزاد	3768
تامین	3769
۳۰	3770
##فانه	3771
محس	3772
منحصر	3773
....	3774
##فاقی	3775
بستگی	3776
دانم	3777
اتفاقی	3778
ترجیح	3779
اوایل	3780
تعدادی	3781
##گزاری	3782
نگهداری	3783
##‌س	3784
رادی	3785
آسمان	3786
به‌عنوان	3787
.[	3788
تخصص	3789
حاف	3790
##ip	3791
##and	3792
ویتامین	3793
حملات	3794
متصل	3795
یهودی	3796
هرچ	3797
اصول	3798
رهبر	3799
17	3800
تعهد	3801
حتما	3802
##سک	3803
##انگی	3804
توصیف	3805
طوری	3806
##بخ	3807
قرارداد	3808
عک	3809
جذاب	3810
خواسته	3811
دریایی	3812
دسته	3813
کارها	3814
##حیح	3815
قهوه	3816
اعد	3817
##اده‌	3818
##اضی	3819
##ویم	3820
##ردگی	3821
بید	3822
دیر	3823
رح	3824
##روم	3825
ارد	3826
انگل	3827
ملاقات	3828
نبا	3829
تقاض	3830
##گین	3831
مهاجرت	3832
مایل	3833
##th	3834
##راسی	3835
آفر	3836
##op	3837
ژان	3838
##اما	3839
ترجمه	3840
گفتم	3841
پنه	3842
سرزمین	3843
می‌گویند	3844
بقیه	3845
پاید	3846
بردن	3847
##تناب	3848
الهی	3849
##ab	3850
عبور	3851
وظیف	3852
جع	3853
سک	3854
سوخت	3855
افتد	3856
اجتناب	3857
اهل	3858
مزایای	3859
تئ	3860
برچ	3861
بودیم	3862
گیاه	3863
##وسی	3864
کنی	3865
جایزه	3866
نیوی	3867
باغ	3868
پیروزی	3869
##ce	3870
##ایق	3871
بروید	3872
تاکنون	3873
مدیران	3874
کانال	3875
شویم	3876
میلادی	3877
بروز	3878
بودجه	3879
ارتباطات	3880
چپ	3881
آزمون	3882
قهر	3883
فراتر	3884
جلسه	3885
تکنیک	3886
بهتری	3887
رست	3888
تشویق	3889
and	3890
مقاومت	3891
انجمن	3892
باره	3893
۱۰۰	3894
اصلا	3895
پدید	3896
فرایند	3897
نامیده	3898
ناراح	3899
مخالف	3900
۱۸	3901
روست	3902
##مولی	3903
عادت	3904
گناه	3905
پیشرفته	3906
آبی	3907
قبلا	3908
شهروندان	3909
رض	3910
##ولد	3911
فضا	3912
شف	3913
##یدم	3914
تجهیزات	3915
".	3916
توانم	3917
تعطیل	3918
سابق	3919
همانند	3920
فرار	3921
رویکرد	3922
سعودی	3923
سرباز	3924
آرز	3925
واض	3926
##ته	3927
##ویل	3928
برنده	3929
امسال	3930
بیشترین	3931
جایگاه	3932
سام	3933
یافتن	3934
اور	3935
ژن	3936
اضطر	3937
بتوانید	3938
طبقه	3939
بطور	3940
پخش	3941
اضافی	3942
برخوردار	3943
متمرکز	3944
سرگر	3945
نوج	3946
جامع	3947
بگویید	3948
برداشت	3949
##ابله	3950
##می‌	3951
سختی	3952
حضرت	3953
نیویورک	3954
درگیر	3955
شماست	3956
مقابله	3957
198	3958
»،	3959
سؤ	3960
##av	3961
##تامبر	3962
ادعا	3963
توجهی	3964
جنبش	3965
هیچ‌	3966
قدر	3967
معروف	3968
تفکر	3969
جزئیات	3970
ناد	3971
ورز	3972
##لط	3973
##دهی	3974
اندازی	3975
زندانی	3976
چیزهای	3977
شغلی	3978
قلبی	3979
چربی	3980
قرمز	3981
بزرگتر	3982
برچسب	3983
حو	3984
##if	3985
معل	3986
خطرناک	3987
واش	3988
##جع	3989
درستی	3990
معمولی	3991
می‌خ	3992
جزیره	3993
بدهد	3994
فرمود	3995
نات	3996
هیجان	3997
مداوم	3998
ریسک	3999
کر	4000
##ct	4001
امپ	4002
اختلاف	4003
sp	4004
فنی	4005
توزی	4006
دائ	4007
سپتامبر	4008
لینک	4009
رها	4010
##اکی	4011
خریداری	4012
حداک	4013
آشنا	4014
##صورت	4015
تاکید	4016
بخور	4017
ملت	4018
افسردگی	4019
فوتبال	4020
جاد	4021
بنا	4022
پلا	4023
##ثار	4024
##حیه	4025
آیند	4026
تخم	4027
##نوعی	4028
##ئت	4029
دیوار	4030
عهده	4031
جس	4032
بیت	4033
دقیقا	4034
استان	4035
ناگه	4036
مالیات	4037
مالک	4038
بخوانید	4039
می‌رود	4040
##یدند	4041
پذیرش	4042
ad	4043
امتی	4044
اعتبار	4045
انگلستان	4046
##ژانس	4047
##ندن	4048
نیرو	4049
توزیع	4050
ثانیه	4051
کنفر	4052
پرسش	4053
پن	4054
بگویم	4055
مصاحبه	4056
روزنامه	4057
اختلال	4058
##ازید	4059
کرب	4060
برده	4061
خیابان	4062
فارغ	4063
پنهان	4064
پیاده	4065
##شناسان	4066
40	4067
##وذ	4068
بدین	4069
اصط	4070
بارداری	4071
زم	4072
##لیم	4073
محتوا	4074
جستجوی	4075
ایتال	4076
##گویی	4077
متق	4078
نیازی	4079
مى	4080
پیوند	4081
هرچند	4082
pro	4083
كن	4084
نماز	4085
##اورد	4086
##ذیه	4087
ایتالیا	4088
شای	4089
صاد	4090
می‌ز	4091
پاکستان	4092
حاوی	4093
خاور	4094
رز	4095
سند	4096
همزمان	4097
##ازند	4098
روزهای	4099
لطفا	4100
goo	4101
لغ	4102
##گاری	4103
هماه	4104
##ستر	4105
برآورد	4106
می‌خواهد	4107
صحیح	4108
هزین	4109
##جایی	4110
هم‌	4111
محسوب	4112
رمز	4113
##کری	4114
عجیب	4115
واضح	4116
تز	4117
##کده	4118
تجزی	4119
صحنه	4120
افتاده	4121
رتبه	4122
دم	4123
##ریح	4124
تنهایی	4125
سفار	4126
مراحل	4127
##رافیک	4128
##حالی	4129
اتص	4130
پروتئین	4131
de	4132
##بد	4133
می‌پ	4134
اسب	4135
طل	4136
##او	4137
پرورش	4138
مرور	4139
دیدار	4140
##فس	4141
شورای	4142
##آور	4143
تغذیه	4144
##فاوتی	4145
مجوز	4146
کردید	4147
24	4148
##سین	4149
سوء	4150
اشک	4151
مسیح	4152
##امله	4153
مقد	4154
حداکثر	4155
tr	4156
قتل	4157
نیمه	4158
دشمن	4159
##وال	4160
##خره	4161
کارهایی	4162
اتوم	4163
##راحت	4164
کنفرانس	4165
حاک	4166
##اساس	4167
تیر	4168
##لو	4169
متعد	4170
بازداشت	4171
ممنوع	4172
مفهوم	4173
آثار	4174
##کراسی	4175
وظیفه	4176
فهر	4177
##og	4178
##ie	4179
فرانس	4180
استخدام	4181
دس	4182
ماج	4183
واشنگ	4184
بخواهید	4185
##‌که	4186
تاسیس	4187
مبتنی	4188
چار	4189
می‌بین	4190
بزرگسال	4191
سنت	4192
نمی‌تواند	4193
تجزیه	4194
لندن	4195
دانند	4196
مصر	4197
افتخ	4198
فضایی	4199
##...]	4200
ضعیف	4201
کلیک	4202
بپرس	4203
رانندگی	4204
یخ	4205
آمار	4206
انع	4207
کارشناسی	4208
سرمایه‌گذاری	4209
صادق	4210
واشنگتن	4211
افکار	4212
تهران	4213
[...]	4214
بدتر	4215
می‌آید	4216
##مع	4217
##غم	4218
نمی‌شود	4219
##000	4220
##ack	4221
ارزان	4222
##یتالی	4223
گذر	4224
سخنرانی	4225
بهداشتی	4226
سقوط	4227
عرو	4228
##یش	4229
براساس	4230
مطل	4231
تعامل	4232
ببرید	4233
un	4234
نیمی	4235
##کش	4236
بالق	4237
اپل	4238
نادر	4239
کمبود	4240
پایگاه	4241
غیرق	4242
نمایید	4243
می‌خواهید	4244
مذاکره	4245
##وج	4246
تکمیل	4247
##دهم	4248
##اختی	4249
آهنگ	4250
اثرات	4251
امتیاز	4252
قض	4253
مند	4254
##یید	4255
##ویسی	4256
##ity	4257
بپرد	4258
حافظه	4259
تمیز	4260
بهشت	4261
گوشت	4262
ندارید	4263
al	4264
موقع	4265
حکم	4266
.)	4267
##وئن	4268
##‌ی	4269
کمتری	4270
همچون	4271
می‌داد	4272
صبر	4273
##زان	4274
##جد	4275
##میر	4276
ترکی	4277
منطق	4278
##ورو	4279
سهام	4280
سنتی	4281
چهارم	4282
پایدار	4283
هرک	4284
ar	4285
تاز	4286
ویدی	4287
##‌ن	4288
امضا	4289
بازسازی	4290
مساله	4291
شرکت‌های	4292
گرفتند	4293
نفوذ	4294
ویروس	4295
اخلاقی	4296
کشاورزی	4297
##ob	4298
##gle	4299
##ادار	4300
##اع	4301
##صله	4302
موب	4303
دارایی	4304
تحمل	4305
خانگی	4306
دموکر	4307
ماست	4308
دانید	4309
بازیکن	4310
بیمه	4311
موسسه	4312
شانس	4313
بیاور	4314
معماری	4315
مول	4316
نژ	4317
برتر	4318
گفتن	4319
ساختن	4320
ne	4321
شرک	4322
دستیابی	4323
مذهبی	4324
##وایی	4325
نزدیکی	4326
کارگر	4327
##ard	4328
خلاصه	4329
بیدار	4330
##مر	4331
پزشکان	4332
مذاکرات	4333
خویش	4334
اصطلاح	4335
۱۳	4336
##ابند	4337
عدد	4338
كرد	4339
##‌شده	4340
پیامبر	4341
مشهور	4342
صاحب	4343
اکتبر	4344
احتمالاً	4345
تابستان	4346
آلمانی	4347
ندارم	4348
بالقوه	4349
se	4350
##بل	4351
وابسته	4352
خاورمی	4353
سرک	4354
استقل	4355
##شوند	4356
##پار	4357
هویت	4358
۵۰	4359
نظریه	4360
ترا	4361
##شای	4362
##فاصله	4363
انگیزه	4364
پادشاه	4365
ap	4366
طراح	4367
عیسی	4368
سالانه	4369
آزمایشگاه	4370
حیات	4371
مبل	4372
کات	4373
هسته‌ای	4374
رضایت	4375
هور	4376
مدتی	4377
اتم	4378
میوه	4379
میکنند	4380
بارها	4381
تأیید	4382
مهندسی	4383
زودی	4384
##20	4385
معامله	4386
خشک	4387
نابود	4388
##عف	4389
##اریس	4390
مانع	4391
رویداد	4392
نوجوان	4393
عزی	4394
چش	4395
مناس	4396
##بیند	4397
انگشت	4398
مارس	4399
کیلوم	4400
جاری	4401
حجم	4402
##کسی	4403
سال‌های	4404
خاورمیانه	4405
پان	4406
##مالی	4407
دهان	4408
مدارس	4409
60	4410
بازیکنان	4411
بلافاصله	4412
آژانس	4413
خال	4414
##نس	4415
##رق	4416
تدری	4417
فهرست	4418
000	4419
آمیز	4420
##ه‌اش	4421
سران	4422
گفتگو	4423
2015	4424
غذاهای	4425
##est	4426
فرانسوی	4427
sh	4428
##فل	4429
چهره	4430
انداخت	4431
جد	4432
##‌کننده	4433
کارمندان	4434
هواپیما	4435
افتخار	4436
on	4437
ترد	4438
سور	4439
##گانی	4440
اولویت	4441
رستوران	4442
بور	4443
##رتان	4444
نوشید	4445
قطعا	4446
##اخر	4447
سیگار	4448
##خان	4449
##خیر	4450
مصنوعی	4451
مراسم	4452
تحصیلی	4453
عذ	4454
موزه	4455
google	4456
استقلال	4457
خرد	4458
مض	4459
مشاوره	4460
دسامبر	4461
جنبه	4462
وحشت	4463
bl	4464
باشگاه	4465
معنا	4466
احتی	4467
197	4468
##نمایی	4469
آدرس	4470
دف	4471
شاد	4472
##اهیم	4473
ایالت	4474
نقاشی	4475
پردازش	4476
!»	4477
طال	4478
باد	4479
معی	4480
گاه	4481
##طی	4482
مثلا	4483
##اکس	4484
انگلیس	4485
ip	4486
##ستند	4487
دومین	4488
آیت	4489
سنگین	4490
ph	4491
##eb	4492
##صیل	4493
##ist	4494
بیست	4495
اجرایی	4496
می‌توانیم	4497
صدها	4498
ایستگاه	4499
شوه	4500
##ra	4501
برا	4502
اوب	4503
اواخر	4504
کشوری	4505
عناصر	4506
##خواهیم	4507
ژانویه	4508
عصر	4509
سیاره	4510
عمده	4511
سطوح	4512
تحقیقاتی	4513
آزار	4514
##دهند	4515
داروهای	4516
التح	4517
راهن	4518
صفحات	4519
نمایشگاه	4520
آهن	4521
شار	4522
نقشه	4523
نبوده	4524
معتبر	4525
قالب	4526
پاریس	4527
۱۱	4528
##عش	4529
نوامبر	4530
شریک	4531
مجلس	4532
مراج	4533
برنامه‌	4534
توی	4535
ژوئن	4536
##روی	4537
برخ	4538
مدرک	4539
نداریم	4540
۱۹۹	4541
متخصصان	4542
دموکراسی	4543
تون	4544
##اقع	4545
نمی‌دان	4546
شرقی	4547
برجسته	4548
اعتراض	4549
موبایل	4550
آلب	4551
##زام	4552
##ub	4553
دهندگان	4554
بزنید	4555
خالی	4556
چای	4557
اکث	4558
روبرو	4559
نبرد	4560
##اغ	4561
می‌‌	4562
همه‌ی	4563
همکاران	4564
دیپ	4565
خاط	4566
سوز	4567
ناپ	4568
سبب	4569
حر	4570
##نظر	4571
نموده	4572
جوانان	4573
محمد	4574
محکوم	4575
موضوعات	4576
الکترونیکی	4577
جور	4578
جرم	4579
دک	4580
سان	4581
##ارهای	4582
شهرهای	4583
نگاهی	4584
##ive	4585
چک	4586
متاس	4587
متولد	4588
نمی‌کند	4589
##ate	4590
شفاف	4591
##‌جمه	4592
کارگردان	4593
زنج	4594
هنری	4595
امیدوارم	4596
خشم	4597
##جاست	4598
استق	4599
جنگل	4600
اثبات	4601
می‌س	4602
سرور	4603
مردی	4604
تصاد	4605
##ine	4606
عدالت	4607
مجدد	4608
اتصال	4609
!!	4610
بکن	4611
سادگی	4612
بیای	4613
می‌شن	4614
##‌مان	4615
هرگونه	4616
نزد	4617
انتقاد	4618
قا	4619
یك	4620
##برداری	4621
اسپانیا	4622
ورزشی	4623
مراجعه	4624
زخ	4625
##کز	4626
یکسان	4627
آرامش	4628
جلب	4629
##سیر	4630
می‌خواست	4631
داند	4632
هوای	4633
می‌گیرند	4634
تی	4635
##نای	4636
کمپانی	4637
فرودگاه	4638
جاده	4639
##هنی	4640
##ویب	4641
ظرفیت	4642
con	4643
##ak	4644
هستی	4645
معامل	4646
مشکلی	4647
کشید	4648
##art	4649
##لیلی	4650
##نوشت	4651
عصبی	4652
طیف	4653
برگرد	4654
ناخ	4655
مخفی	4656
این‌که	4657
خروج	4658
us	4659
مربی	4660
ارزشمند	4661
مکمل	4662
is	4663
##انو	4664
##ایف	4665
##فرم	4666
تصویب	4667
کاربردی	4668
##فرو	4669
##نجی	4670
منظم	4671
مجازات	4672
##ov	4673
##طرف	4674
وسایل	4675
متعلق	4676
نادیده	4677
##واری	4678
آمو	4679
دختران	4680
ران	4681
##‌پذیر	4682
##گا	4683
بافت	4684
دانشکده	4685
2017	4686
ورودی	4687
اوباما	4688
##ast	4689
مسابقه	4690
پرست	4691
##all	4692
خواستار	4693
آفریقا	4694
ترافیک	4695
نهاد	4696
##up	4697
خسته	4698
اسن	4699
2018	4700
آشپ	4701
مبلغ	4702
cl	4703
ریشه	4704
##کشی	4705
تحول	4706
ارتباطی	4707
سریال	4708
صنایع	4709
قهرمان	4710
##وقی	4711
دانیم	4712
غذای	4713
روانی	4714
21	4715
##تیک	4716
مجله	4717
عظیم	4718
##بندی	4719
باتری	4720
##روز	4721
نوشیدنی	4722
۲۵	4723
موشک	4724
مقدس	4725
ترکیبی	4726
##وپ	4727
مهمترین	4728
for	4729
شوم	4730
۱۴	4731
##ایان	4732
ریاست	4733
en	4734
غنی	4735
مراکز	4736
بالایی	4737
تماشا	4738
مسلمانان	4739
کارخانه	4740
دادم	4741
تجربی	4742
ارتقا	4743
پاداش	4744
سؤال	4745
بگوید	4746
نظری	4747
تحویل	4748
اختر	4749
صادرات	4750
شبک	4751
فردا	4752
منطقی	4753
شرق	4754
ارم	4755
لز	4756
##انیایی	4757
توق	4758
غیرم	4759
بالات	4760
تأمین	4761
فری	4762
منع	4763
نوش	4764
پروژ	4765
سهم	4766
فعالیت‌های	4767
طالبان	4768
بدی	4769
کودکی	4770
انقلابی	4771
عربی	4772
نشود	4773
##افتد	4774
کاغ	4775
pl	4776
بفه	4777
متفاوتی	4778
مرغ	4779
مور	4780
##قیان	4781
مسیحی	4782
##صاب	4783
منزل	4784
راز	4785
برود	4786
نوآوری	4787
##ell	4788
اعدام	4789
حادث	4790
نر	4791
##زیک	4792
تحریک	4793
دائمی	4794
as	4795
کشیدن	4796
صندلی	4797
فدر	4798
ابتلا	4799
می‌خواهند	4800
بماند	4801
بمب	4802
پیش‌بینی	4803
قضا	4804
##جویی	4805
##طاف	4806
بنویس	4807
حقوقی	4808
برگشت	4809
##igh	4810
دون	4811
##50	4812
نظیر	4813
خانوادگی	4814
ریاضی	4815
am	4816
##لین	4817
##ارات	4818
علاق	4819
خوانده	4820
محیطی	4821
th	4822
ستار	4823
ظهور	4824
عوار	4825
##ماند	4826
ویند	4827
نمی‌کن	4828
هدی	4829
پولی	4830
کارشناسان	4831
رساند	4832
دیدم	4833
ex	4834
کاخ	4835
##لت	4836
دیابت	4837
اخبار	4838
کمپین	4839
وام	4840
##وگر	4841
##دهید	4842
سوالات	4843
چیزها	4844
خارجه	4845
2016	4846
لبخ	4847
انعطاف	4848
نیستم	4849
شرایطی	4850
سیم	4851
##‌گیری	4852
##شیدی	4853
کتابخانه	4854
ثروتمند	4855
استراحت	4856
کنگر	4857
رایج	4858
استراتژیک	4859
قی	4860
کوچکی	4861
وظایف	4862
##سول	4863
آلود	4864
مطالب	4865
##بند	4866
معلم	4867
کمونی	4868
تعادل	4869
انگار	4870
پنجره	4871
کفش	4872
اقیان	4873
##ts	4874
##ri	4875
##‌گر	4876
##غام	4877
باکتری	4878
گذارد	4879
احتمالی	4880
جانبی	4881
رک	4882
##‌ام	4883
استث	4884
برگزاری	4885
قلم	4886
کاربری	4887
ویندوز	4888
اذ	4889
دعا	4890
شکر	4891
قول	4892
درحالی	4893
می‌ن	4894
گرس	4895
گرچه	4896
مقدم	4897
جمعی	4898
نقض	4899
بگیریم	4900
رییس	4901
##ه‌است	4902
پرونده	4903
فیلتر	4904
ابزارهای	4905
تعطیلات	4906
##يم	4907
داشتیم	4908
احم	4909
سوئ	4910
##ائی	4911
میتواند	4912
##يت	4913
مهمان	4914
راهنمایی	4915
خطوط	4916
آورند	4917
##اگون	4918
##ey	4919
مطابق	4920
##ord	4921
کمیته	4922
سرانجام	4923
آفت	4924
حج	4925
رون	4926
##موز	4927
روزه	4928
تعجب	4929
مناسبی	4930
آیه	4931
الی	4932
##یتی	4933
تجدید	4934
تروریستی	4935
بزرگسالان	4936
التحصیل	4937
بیند	4938
بازنش	4939
این‌ها	4940
وضع	4941
خورشیدی	4942
شوروی	4943
شاخص	4944
##انگیز	4945
جی	4946
حرک	4947
راضی	4948
نقد	4949
کارآفر	4950
##جای	4951
داعش	4952
خلاف	4953
الهام	4954
عوارض	4955
شکن	4956
##ظاه	4957
میکرو	4958
##لیکی	4959
نظرات	4960
ناام	4961
دیپلم	4962
فدرال	4963
to	4964
##نظ	4965
##مور	4966
اندکی	4967
سیگن	4968
شناسی	4969
196	4970
واس	4971
##ثی	4972
آمدن	4973
الم	4974
تشکر	4975
آسیا	4976
نژاد	4977
ندید	4978
یو	4979
گردید	4980
خانواد	4981
شیطان	4982
بگذارد	4983
##لیک	4984
شواهد	4985
تئوری	4986
ht	4987
ذهنی	4988
ناس	4989
ژنتی	4990
##ادن	4991
منص	4992
الکتری	4993
##خواهم	4994
اتحاد	4995
ضرب	4996
##زده	4997
##ps	4998
##ّت	4999
##روید	5000
اخیرا	5001
کالج	5002
مداخ	5003
عکاسی	5004
22	5005
خبری	5006
گشت	5007
تکامل	5008
فس	5009
##‌پ	5010
شنیده	5011
ناحیه	5012
حساس	5013
کشد	5014
سیگنال	5015
خل	5016
رع	5017
مأ	5018
##ge	5019
سرنوشت	5020
نیستید	5021
درباره‌ی	5022
لبخند	5023
کنگره	5024
رفع	5025
علام	5026
کاب	5027
تفسیر	5028
برنامه‌های	5029
بنیاد	5030
معتقدند	5031
مقررات	5032
حادثه	5033
جغ	5034
خام	5035
رمان	5036
۱۶	5037
##زر	5038
هرچه	5039
دوستی	5040
##سلام	5041
مراقب	5042
اردو	5043
اضطراب	5044
آه	5045
##‌اف	5046
##‌کنندگان	5047
کشیده	5048
امکانات	5049
قضاوت	5050
سابقه	5051
پایت	5052
##ئید	5053
آمریکای	5054
ادع	5055
می‌خواهم	5056
گری	5057
##املی	5058
##فاعی	5059
پذیری	5060
پیروی	5061
رقم	5062
سفارش	5063
وجه	5064
گمان	5065
دراز	5066
برداری	5067
##ابید	5068
اوکر	5069
محاس	5070
وقوع	5071
2014	5072
##ill	5073
چرخه	5074
ماموریت	5075
سیر	5076
شادی	5077
مری	5078
##بخت	5079
خودکار	5080
بعدا	5081
اپلیکی	5082
اکس	5083
وف	5084
##بیت	5085
##چرخ	5086
بهر	5087
داوط	5088
۴۰	5089
آنقدر	5090
خورده	5091
متهم	5092
##لبان	5093
جنگی	5094
حدی	5095
##na	5096
روزها	5097
##مدت	5098
اکثریت	5099
زنی	5100
##هام	5101
استعد	5102
پیوست	5103
معادل	5104
نمایندگان	5105
کسب‌و	5106
بدهی	5107
##سیل	5108
معلوم	5109
کیلومتر	5110
بیایید	5111
90	5112
تظاه	5113
فال	5114
لم	5115
موقت	5116
دستگیر	5117
مجازی	5118
بزرگ‌ترین	5119
فرصتی	5120
اینترنتی	5121
فوری	5122
##راری	5123
##ورا	5124
مخدر	5125
خواند	5126
می‌دانند	5127
محاسبه	5128
ac	5129
ضعف	5130
مقی	5131
بازگرد	5132
بالاخره	5133
چشمان	5134
or	5135
پد	5136
##ماس	5137
شنبه	5138
نماینده	5139
##ستیک	5140
اتومبیل	5141
##اذ	5142
##عمل	5143
درگیری	5144
مواف	5145
تبلیغاتی	5146
هدیه	5147
pr	5148
دمای	5149
عقل	5150
می‌گفت	5151
بوک	5152
##‌سازی	5153
بیاید	5154
دوز	5155
کلیس	5156
موافقت	5157
##لز	5158
##ندگی	5159
موهای	5160
خواهان	5161
۱۹۸	5162
پدرش	5163
نفع	5164
جداگانه	5165
اپلیکیشن	5166
##ost	5167
تنوع	5168
پذیرفته	5169
ماندن	5170
مقیاس	5171
اي	5172
همه‌	5173
اوست	5174
یادآوری	5175
بانکی	5176
استخوان	5177
ضمن	5178
فول	5179
##کب	5180
##pl	5181
همگی	5182
جوام	5183
هنرمند	5184
رعایت	5185
le	5186
سئو	5187
##ساز	5188
کنونی	5189
الگو	5190
##‌تری	5191
میدهد	5192
انح	5193
عمد	5194
۱۹۷	5195
تردید	5196
بوی	5197
نخواهند	5198
یورو	5199
باردار	5200
ناراحت	5201
آلودگی	5202
بخواهد	5203
جر	5204
خن	5205
##اوز	5206
##فج	5207
##ایم	5208
آنتی	5209
بدترین	5210
ایمن	5211
تأکید	5212
لحظ	5213
sc	5214
له	5215
##عاد	5216
استد	5217
می‌ی	5218
متعهد	5219
سرخ	5220
الکل	5221
همان‌	5222
ساحل	5223
بدهند	5224
80	5225
باری	5226
راجع	5227
##مانه	5228
روشی	5229
اقیانوس	5230
ناه	5231
داده‌اند	5232
نمی‌کنند	5233
مخل	5234
دانشگاهی	5235
واژه	5236
حیاتی	5237
زودتر	5238
لغو	5239
سرکوب	5240
متاسفانه	5241
علامت	5242
##ud	5243
##se	5244
mar	5245
شرح	5246
کارمند	5247
بدانند	5248
جلسات	5249
ببینند	5250
رم	5251
##ue	5252
##‌م	5253
##سایت	5254
##اهایی	5255
تحصیلات	5256
الکتریکی	5257
وار	5258
وال	5259
##گرام	5260
دیوان	5261
مسلح	5262
##رگانی	5263
##ind	5264
نویسندگان	5265
تخت	5266
بیانیه	5267
تحقق	5268
##‌‌‌‌	5269
پلت	5270
ویدئ	5271
ندهید	5272
برزی	5273
##ترس	5274
توپ	5275
اتخ	5276
مستند	5277
تازگی	5278
ردی	5279
##مره	5280
##ib	5281
##ماً	5282
##ازیم	5283
مقالات	5284
استانداردهای	5285
فلسطینی	5286
نان	5287
می‌برد	5288
خودت	5289
جلوی	5290
تزریق	5291
ثبات	5292
لایه	5293
##ير	5294
خراب	5295
مواردی	5296
ظاهرا	5297
دامنه	5298
حین	5299
غم	5300
##التی	5301
##خواهی	5302
##مورد	5303
غیره	5304
خبرنگ	5305
##our	5306
صندوق	5307
بپرسید	5308
اتخاذ	5309
زوج	5310
##وین	5311
احساسی	5312
جیم	5313
##ain	5314
نیک	5315
تروریسم	5316
اوکراین	5317
هار	5318
##خاص	5319
صرفه	5320
فلسفه	5321
ببرد	5322
فای	5323
۱۷	5324
##ونا	5325
موج	5326
##ارتمان	5327
رئیس‌جمه	5328
آوریل	5329
کلاسی	5330
اسناد	5331
پیمان	5332
##اتور	5333
فقر	5334
برقراری	5335
آک	5336
عر	5337
ببینیم	5338
ببیند	5339
”.	5340
##ابتی	5341
فیزیک	5342
پایتخت	5343
دبیر	5344
راه‌	5345
##فرمای	5346
دادیم	5347
پیشین	5348
پیشگیری	5349
##رسد	5350
دلاری	5351
شکایت	5352
مرتب	5353
راهنمای	5354
23	5355
هاست	5356
فقیر	5357
ادبی	5358
تماشای	5359
دستورال	5360
ابراز	5361
ضبط	5362
##ft	5363
سالی	5364
جمعه	5365
##ولیک	5366
سلط	5367
می‌کردم	5368
خلی	5369
##لر	5370
بردار	5371
اسکن	5372
زمینی	5373
گروه‌های	5374
کمیسیون	5375
بعنوان	5376
##ect	5377
مالکیت	5378
##‌ت	5379
##کم	5380
##ver	5381
درب	5382
##ant	5383
شکلی	5384
می‌خواهیم	5385
مؤثر	5386
سکوت	5387
هورمون	5388
جوامع	5389
عاط	5390
ویزای	5391
شرکت‌ها	5392
وبسایت	5393
بنیان	5394
##چوب	5395
درمورد	5396
دشمنان	5397
مهرب	5398
حرفه‌ای	5399
2012	5400
۱۹۶	5401
خوشبخت	5402
موجودات	5403
کاغذ	5404
فوریه	5405
ني	5406
##ba	5407
##انگ	5408
کنون	5409
برایش	5410
مرده	5411
سازنده	5412
مهم‌ترین	5413
حسابداری	5414
نوشیدن	5415
استدلال	5416
زرد	5417
##سور	5418
بهار	5419
##یدان	5420
انفج	5421
خودکشی	5422
روس	5423
پیگیری	5424
بکار	5425
نکند	5426
##ایر	5427
شدیم	5428
چندان	5429
سازمانی	5430
194	5431
##ock	5432
حسین	5433
تخمین	5434
یهودیان	5435
هید	5436
گزین	5437
۲۴	5438
##فون	5439
میر	5440
##برگ	5441
اتوب	5442
پرورد	5443
کاند	5444
درخ	5445
یک‌	5446
##ویز	5447
گربه	5448
شرط	5449
##ضاع	5450
مخاطبان	5451
شارژ	5452
):	5453
..	5454
##الله	5455
گرفتم	5456
محدوده	5457
بومی	5458
اختراع	5459
سم	5460
شکار	5461
هیئت	5462
کوین	5463
آلوده	5464
سرگرم	5465
زمستان	5466
دستورالعمل	5467
برایم	5468
هایشان	5469
امت	5470
روزمره	5471
تجاوز	5472
طرز	5473
لات	5474
کالی	5475
##گزار	5476
##ارک	5477
##ابقات	5478
مشاغ	5479
اسید	5480
مسابقات	5481
عنصر	5482
پذیرفت	5483
مجددا	5484
برنامه‌ریزی	5485
##کتور	5486
نسبتا	5487
حقیقی	5488
##مزد	5489
تصویری	5490
مشابهی	5491
cr	5492
بشناس	5493
اینست	5494
مردمی	5495
اتمی	5496
قطعه	5497
استخراج	5498
کالری	5499
آرای	5500
خب	5501
ضربه	5502
کت	5503
کاش	5504
##لاک	5505
آمادگی	5506
حالیکه	5507
دلیلی	5508
کپی	5509
##وکس	5510
آنجایی	5511
سوسی	5512
جنایت	5513
##one	5514
انسان‌ها	5515
مغزی	5516
گذاشتن	5517
فلسطین	5518
سربازان	5519
برخلاف	5520
همدیگر	5521
اوضاع	5522
بخاطر	5523
مثلاً	5524
ژاپنی	5525
جعبه	5526
توقف	5527
بشن	5528
مون	5529
درحال	5530
نماد	5531
نباشید	5532
متقاضی	5533
سینه	5534
##پزش	5535
اینگونه	5536
##گرفت	5537
تجرب	5538
ساکن	5539
مخالفت	5540
شده‌است	5541
تقاضای	5542
[+	5543
حب	5544
##هی	5545
##كن	5546
##نجان	5547
##ort	5548
میزبان	5549
لبنان	5550
رودخانه	5551
بگوییم	5552
اتوبوس	5553
[+]	5554
تایل	5555
##ابری	5556
الگ	5557
##‌آوری	5558
بکشد	5559
روحانی	5560
هماهنگی	5561
گریه	5562
##شب	5563
راستی	5564
آنهایی	5565
موافق	5566
بازارهای	5567
پیچید	5568
[-	5569
قند	5570
نع	5571
##بای	5572
یکپار	5573
سال‌ها	5574
دوچرخ	5575
ندرت	5576
اشخاص	5577
تخصصی	5578
جغرافی	5579
[-]	5580
۶۰	5581
##ولت	5582
الت	5583
سوگ	5584
یادداشت	5585
احتیاج	5586
500	5587
لای	5588
##خوان	5589
باشه	5590
مقصد	5591
بازیگر	5592
نداد	5593
قطار	5594
سراغ	5595
کربن	5596
کسب‌وکار	5597
غلط	5598
می‌افتد	5599
##ه‌تر	5600
مدنی	5601
احمق	5602
28	5603
فاج	5604
فکری	5605
ناک	5606
##ml	5607
##روند	5608
قرص	5609
اشغال	5610
اراده	5611
تصمیمات	5612
تروریست	5613
طلاق	5614
70	5615
آری	5616
ناز	5617
نویسی	5618
کابل	5619
اجاره	5620
2019	5621
امپرات	5622
بخورید	5623
wh	5624
##ian	5625
##؟؟	5626
مسکو	5627
2013	5628
گیاهان	5629
خاطرات	5630
##زات	5631
##ّا	5632
##پرس	5633
##لاس	5634
##قیب	5635
##عیتی	5636
اتهام	5637
روش‌های	5638
##oun	5639
آلبوم	5640
کلاسیک	5641
35	5642
تویی	5643
كار	5644
بهینه	5645
##اخته	5646
داده‌های	5647
سیستم‌های	5648
مادرش	5649
دقیقاً	5650
تخریب	5651
موتورهای	5652
26	5653
طلب	5654
نکات	5655
کور	5656
##زاری	5657
باستان	5658
توج	5659
دیگه	5660
بزند	5661
تعمیر	5662
پرچ	5663
مبنی	5664
خلاقیت	5665
معاملات	5666
زای	5667
##iz	5668
باران	5669
مارک	5670
تلویزیونی	5671
شعر	5672
یونان	5673
حوادث	5674
عاطفی	5675
بص	5676
رف	5677
فریب	5678
آنرا	5679
کلاه	5680
##گویم	5681
##کوپ	5682
سبزی	5683
نداشتند	5684
ناگهانی	5685
##بتی	5686
##تاس	5687
می‌بر	5688
پرسید	5689
مؤس	5690
ویدئو	5691
نتیج	5692
اکسی	5693
جانب	5694
رقص	5695
جشنواره	5696
فیسب	5697
ناگهان	5698
صفر	5699
پره	5700
میانگین	5701
قطعات	5702
طرفداران	5703
نمی‌توانند	5704
آمدند	5705
اشتباهات	5706
می‌داند	5707
دموکراتیک	5708
ناپدید	5709
مشاغل	5710
جاب	5711
حامی	5712
رده	5713
##پرد	5714
##چیز	5715
##ارا	5716
##یری	5717
گواهی	5718
اعتباری	5719
پنجم	5720
حلقه	5721
##۰۰۰	5722
آورید	5723
موسسات	5724
رأ	5725
شست	5726
عز	5727
میرا	5728
برطرف	5729
##راس	5730
##ختن	5731
نقص	5732
تسلیم	5733
مهاجران	5734
مرزهای	5735
اتمام	5736
آشپز	5737
بهره‌	5738
عالم	5739
كند	5740
##حه	5741
نشسته	5742
تاریک	5743
تجربیات	5744
تنگ	5745
خنده	5746
##نیا	5747
##ولا	5748
رایانه	5749
مهاجر	5750
فساد	5751
برزیل	5752
web	5753
تسه	5754
برایتان	5755
گذاران	5756
می‌توانم	5757
گردشگری	5758
استعداد	5759
یابند	5760
##طوری	5761
انکار	5762
بیفت	5763
بازی‌های	5764
گردن	5765
بتوانیم	5766
پارلمان	5767
صوتی	5768
عظ	5769
##اعت	5770
استودی	5771
آنگاه	5772
داره	5773
دستمزد	5774
##ومه	5775
##کیه	5776
سوار	5777
##گذاران	5778
##فیف	5779
اشیا	5780
کلیسا	5781
##ice	5782
پدرم	5783
رفتارهای	5784
مخصوصا	5785
اشکال	5786
##ight	5787
آفتاب	5788
صلی	5789
عده	5790
##کین	5791
اسلح	5792
رسانی	5793
معناست	5794
وسیع	5795
سلول‌های	5796
همسرش	5797
شکنجه	5798
شاخ	5799
لوله	5800
یمن	5801
استی	5802
توسع	5803
کوچکتر	5804
کوتاهی	5805
لذا	5806
داروها	5807
میتوانید	5808
ویدیو	5809
نوجوانان	5810
جفت	5811
ونز	5812
##آم	5813
##end	5814
سایه	5815
ملک	5816
ابتدایی	5817
امریکایی	5818
سرگرمی	5819
لمس	5820
27	5821
جاس	5822
رنگی	5823
فش	5824
یاری	5825
##زاده	5826
##ولای	5827
سالهای	5828
تقاضا	5829
زخم	5830
الگوریت	5831
فیسبوک	5832
گویی	5833
##مایی	5834
##پا	5835
چراغ	5836
اهدا	5837
بدانیم	5838
آسانی	5839
ایتالی	5840
لا	5841
##دنی	5842
##وتری	5843
سیب	5844
اشتغال	5845
ضرورت	5846
اصلاحات	5847
36	5848
دینی	5849
شام	5850
شجا	5851
خواهر	5852
ببرند	5853
متعددی	5854
خلیج	5855
ونزوئ	5856
man	5857
##دل	5858
##pr	5859
##غیر	5860
منف	5861
خطرات	5862
مادرم	5863
می‌آورد	5864
بایست	5865
قربانیان	5866
te	5867
خاموش	5868
زنگ	5869
کلیه	5870
##ld	5871
##ik	5872
درونی	5873
محاسب	5874
مقاد	5875
متنوع	5876
پروتکل	5877
دکمه	5878
سوگند	5879
##انونی	5880
اجباری	5881
کلام	5882
شنید	5883
2011	5884
چارچوب	5885
##ورند	5886
##ویج	5887
##الیسم	5888
ادغام	5889
##گذشت	5890
پیروز	5891
تمرینات	5892
می‌دانیم	5893
متعدد	5894
بالاترین	5895
تسهیل	5896
مین	5897
الزام	5898
قبلاً	5899
هزینه‌های	5900
فیلی	5901
##زرگ	5902
##ox	5903
##لان	5904
السلام	5905
تنش	5906
غیرقابل	5907
۲۱	5908
محض	5909
دریاچه	5910
سخنان	5911
##‌الله	5912
داوطلب	5913
سیل	5914
##ax	5915
##تم	5916
سالن	5917
معلمان	5918
شهرد	5919
خرج	5920
عقیده	5921
اخلاق	5922
صاحبان	5923
برآورده	5924
پرچم	5925
##co	5926
##ادمی	5927
##دهنده	5928
##میلی	5929
کارآمد	5930
سالها	5931
ناپذیر	5932
گواه	5933
وضوح	5934
تنظیمات	5935
می‌دانید	5936
مزیت	5937
می‌خوان	5938
تدریس	5939
استقبال	5940
می‌یابد	5941
##مار	5942
کارکرد	5943
تومور	5944
خواهی	5945
رسیدگی	5946
برساند	5947
فراوانی	5948
تسلی	5949
فرستاده	5950
عزیز	5951
پروردگار	5952
sm	5953
حریم	5954
دفاعی	5955
##ss	5956
##بول	5957
##طبی	5958
##ازده	5959
باشی	5960
متأ	5961
مقداری	5962
شهادت	5963
دلم	5964
برسند	5965
وسیعی	5966
ناراحتی	5967
میراث	5968
##pt	5969
می‌دهید	5970
##ass	5971
مایکرو	5972
سینما	5973
##‌افزار	5974
رئیس‌جمهور	5975
هیدرو	5976
ایتالیایی	5977
be	5978
net	5979
ser	5980
خس	5981
##ire	5982
مید	5983
روم	5984
اوج	5985
نظرس	5986
رفتم	5987
آیات	5988
##ang	5989
راننده	5990
at	5991
غال	5992
​​	5993
##زن	5994
##ure	5995
##دهای	5996
کرده‌اید	5997
روایت	5998
متش	5999
نیستیم	6000
نامزد	6001
تعلق	6002
2008	6003
شیرین	6004
##age	6005
آرزو	6006
ژنتیکی	6007
اکسیژن	6008
نگ	6009
نخواهید	6010
##ix	6011
##طل	6012
مطلق	6013
شناختی	6014
اخراج	6015
دخالت	6016
مبنای	6017
میکنم	6018
هماهنگ	6019
حاکم	6020
زنجیره	6021
کالیفر	6022
300	6023
آو	6024
فزای	6025
لنز	6026
مجه	6027
##30	6028
##ایلی	6029
برمی‌	6030
ارتفاع	6031
بشری	6032
مداخله	6033
غالبا	6034
دگر	6035
پوند	6036
##يل	6037
داغ	6038
دستاورد	6039
##خواب	6040
حساسی	6041
##are	6042
عضلات	6043
##وفان	6044
غیرقانونی	6045
می‌شناس	6046
مأم	6047
مقادیر	6048
نظرسنجی	6049
45	6050
he	6051
قایق	6052
بعدها	6053
شنیدن	6054
شهرها	6055
بسازید	6056
طلایی	6057
دوچرخه	6058
کاف	6059
۲۲	6060
##پل	6061
##ber	6062
محور	6063
افسر	6064
بخشد	6065
سازگار	6066
رفتاری	6067
۲۰۱۵	6068
ویرایش	6069
شرکتی	6070
خالص	6071
گال	6072
##te	6073
##گاهی	6074
##وسف	6075
##ore	6076
دریای	6077
بچه‌ها	6078
خند	6079
##تو	6080
می‌توانست	6081
اعط	6082
قدرد	6083
تأسیس	6084
ابتدای	6085
شهروند	6086
همسایه	6087
ونزوئلا	6088
دوی	6089
سنی	6090
واکس	6091
##رید	6092
بروند	6093
##ه‌گیری	6094
اسک	6095
بلوک	6096
##ite	6097
مرتکب	6098
هنرمندان	6099
##ook	6100
فوق‌ال	6101
پرتاب	6102
آپارتمان	6103
رحم	6104
تظاهرات	6105
im	6106
طعم	6107
عج	6108
##برت	6109
##سافت	6110
##طانی	6111
باب	6112
مسدود	6113
##مندی	6114
می‌دهیم	6115
مشکلاتی	6116
عبارتند	6117
مولک	6118
کلیسای	6119
آکادمی	6120
فیلیپ	6121
دز	6122
##يه	6123
ناشن	6124
عمق	6125
سپاس	6126
##کوک	6127
صدور	6128
بپذیر	6129
ماجرا	6130
انفجار	6131
الگوریتم	6132
بصورت	6133
ربات	6134
صلاح	6135
ملاح	6136
پاپ	6137
۸۰	6138
##ust	6139
برمی	6140
هایش	6141
##ربزرگ	6142
مطالع	6143
##ace	6144
محافظ	6145
گوناگون	6146
عذاب	6147
it	6148
##وما	6149
معج	6150
سرقت	6151
نظم	6152
نمون	6153
رفتند	6154
سازماندهی	6155
پشتی	6156
موضوعی	6157
فریاد	6158
توییتر	6159
شایع	6160
##اشت	6161
##میمی	6162
بابت	6163
کشورهایی	6164
شهرت	6165
ابعاد	6166
سایبری	6167
خواستم	6168
بگذارند	6169
"،	6170
ed	6171
بنگ	6172
##ضه	6173
مواقع	6174
معدن	6175
بازیگران	6176
اصلاً	6177
اتفاقات	6178
ببینم	6179
مفاهیم	6180
روانشناسی	6181
کامپیوتری	6182
وسط	6183
سوئد	6184
تسلیح	6185
شبه	6186
##صدی	6187
باه	6188
دهی	6189
محرک	6190
محبت	6191
##اکت	6192
ستون	6193
انتظارات	6194
نمی‌توانید	6195
کانادایی	6196
مرورگر	6197
التها	6198
##شور	6199
##man	6200
میشه	6201
##اداری	6202
افرا	6203
پرنده	6204
2010	6205
نکنند	6206
مدارک	6207
محکم	6208
پدیده	6209
کالیفرنیا	6210
بت	6211
هلند	6212
وکیل	6213
##کشان	6214
##غه	6215
##ّه	6216
خودداری	6217
بیام	6218
مطب	6219
ماهه	6220
عملیاتی	6221
وحشی	6222
آفرین	6223
تند	6224
مکر	6225
کاپ	6226
##حق	6227
معدنی	6228
سرتاس	6229
نمیتوان	6230
جنس	6231
کتابی	6232
آشنایی	6233
آفریقای	6234
زندانیان	6235
قضیه	6236
التحصیلان	6237
جیمز	6238
آقا	6239
ادر	6240
##قین	6241
##ادله	6242
دیوید	6243
عموم	6244
سفارت	6245
افزوده	6246
فرمانده	6247
اقل	6248
تدا	6249
کب	6250
##aw	6251
دارویی	6252
##فرست	6253
آیفون	6254
بدهیم	6255
اسپانیایی	6256
دانستن	6257
می‌سازد	6258
خوشبختانه	6259
زایمان	6260
آشپزخانه	6261
جدایی	6262
##وود	6263
##io	6264
##qu	6265
می‌گردد	6266
ایفا	6267
متمای	6268
متقا	6269
ماهواره	6270
زیرس	6271
ائت	6272
پلی	6273
اولی	6274
##اسیون	6275
عبد	6276
جاذ	6277
معنوی	6278
بایستی	6279
درختان	6280
فاجعه	6281
اسلحه	6282
متقاعد	6283
mic	6284
عط	6285
غلب	6286
نرس	6287
الگوی	6288
##باشند	6289
مکزیک	6290
سومین	6291
طراحان	6292
تصادفی	6293
حرکات	6294
کارآفرین	6295
یکپارچه	6296
##وارد	6297
##وسته	6298
##ry	6299
##pn	6300
برداشته	6301
می‌گذ	6302
روحی	6303
امّا	6304
بینید	6305
نمی‌د	6306
##ork	6307
##ذیرد	6308
رادیو	6309
مضر	6310
ارمغان	6311
کمونیست	6312
جغرافیایی	6313
تها	6314
جنین	6315
##تاح	6316
##عان	6317
سوئیس	6318
بوجود	6319
ادبیات	6320
بخصوص	6321
جبران	6322
##شون	6323
میباشد	6324
بروم	6325
یکبار	6326
دوشنبه	6327
گرما	6328
##زایر	6329
نبودند	6330
توانستند	6331
رسانه‌های	6332
می‌زند	6333
همان‌طور	6334
لاتین	6335
سرتاسر	6336
##امون	6337
##شتر	6338
##وشید	6339
افتتاح	6340
بدهم	6341
فراوان	6342
دونالد	6343
گرسنگی	6344
مایکروسافت	6345
مجهز	6346
خونی	6347
وین	6348
##عکس	6349
##چنین	6350
##یتان	6351
اوت	6352
دائم	6353
معاصر	6354
واژ	6355
خروجی	6356
می‌زن	6357
بنویسید	6358
توجیه	6359
رأی	6360
پوی	6361
##ma	6362
متغیر	6363
مسأ	6364
##پیک	6365
سریعتر	6366
اسرائیلی	6367
بگویند	6368
اعتراف	6369
ناتو	6370
غلبه	6371
آند	6372
جویی	6373
فت	6374
ماری	6375
##حلی	6376
می‌گذارد	6377
ویزا	6378
سپری	6379
مالیاتی	6380
تعهدات	6381
می‌پرد	6382
شوهر	6383
فالون	6384
تایلند	6385
پری	6386
##کام	6387
##ّی	6388
دردن	6389
رسول	6390
ارتقاء	6391
توده	6392
پال	6393
##‌گذاری	6394
##ستری	6395
می‌گذار	6396
سازند	6397
2000	6398
شنا	6399
اداری	6400
نادرست	6401
co	6402
آذ	6403
عسل	6404
##وقت	6405
##عود	6406
استع	6407
سیاستم	6408
خیانت	6409
هواپیمای	6410
عصبانی	6411
مي‌	6412
اسباب	6413
بگذ	6414
چوب	6415
محروم	6416
مهر	6417
تجار	6418
تبادل	6419
2009	6420
فرزندتان	6421
##ــــ	6422
رفاه	6423
قائل	6424
ژوئ	6425
##ial	6426
استر	6427
می‌شوید	6428
شبانه	6429
##act	6430
دیجیتالی	6431
##بختی	6432
شبکه‌های	6433
ویدئویی	6434
اگه	6435
بغ	6436
عادل	6437
##فکر	6438
##سف	6439
##مید	6440
##مکن	6441
خواص	6442
مدعی	6443
بداند	6444
الف	6445
مسجد	6446
ماهیت	6447
جزو	6448
خونریزی	6449
خوراکی	6450
##بورگ	6451
بیاورید	6452
بیفتد	6453
دای	6454
سرو	6455
قوم	6456
##اون	6457
##10	6458
بوده‌اند	6459
##رسانی	6460
شهید	6461
۱۹۴	6462
حمام	6463
برادران	6464
آموخت	6465
جولای	6466
خستگی	6467
##اقی	6468
##مپ	6469
##per	6470
تاخیر	6471
امیر	6472
##اقد	6473
خطا	6474
لیزر	6475
ایستاده	6476
آماز	6477
قبر	6478
موان	6479
هل	6480
##له‌ی	6481
ماسا	6482
پیوسته	6483
سرما	6484
ترویج	6485
##کردن	6486
واردات	6487
مغذی	6488
مربوطه	6489
حرارت	6490
نک	6491
##مایشی	6492
زندگ	6493
##اطع	6494
نصف	6495
تضعیف	6496
شعار	6497
مسافرت	6498
مذهب	6499
شایسته	6500
ژوئیه	6501
بگ	6502
بلی	6503
دود	6504
عبار	6505
فو	6506
##وشی	6507
##يش	6508
##ff	6509
##شتی	6510
ساکنان	6511
حدس	6512
دندانپزش	6513
جسمی	6514
مطلوب	6515
سبزیجات	6516
جبه	6517
۷۰	6518
##کور	6519
##مود	6520
##ple	6521
استارت	6522
##ه‌شده	6523
محاک	6524
اسکات	6525
مسکن	6526
رساندن	6527
فروخته	6528
195	6529
بمانید	6530
حساسیت	6531
آمازون	6532
br	6533
gr	6534
جوش	6535
صدم	6536
##اتل	6537
##ه‌بندی	6538
کارفرمای	6539
تمدن	6540
مجسم	6541
نداده	6542
وب‌س	6543
لیبی	6544
شیو	6545
گواهین	6546
:«	6547
باند	6548
ویل	6549
##زاب	6550
##رهای	6551
می‌روند	6552
##ازن	6553
تاک	6554
##اقب	6555
نمی‌کرد	6556
خداست	6557
مشخصات	6558
سیاست‌های	6559
جنسیت	6560
ابراهیم	6561
بمانند	6562
ممنون	6563
نعمت	6564
زیرساخت	6565
hd	6566
تام	6567
پورت	6568
کامی	6569
کریم	6570
می‌گویم	6571
مهار	6572
مشتاق	6573
موضع	6574
مخاطب	6575
جدول	6576
ناهار	6577
عرصه	6578
29	6579
my	6580
عاد	6581
میشوند	6582
مسل	6583
رسمیت	6584
راهکار	6585
آلرژی	6586
شکسته	6587
گیاهی	6588
واجد	6589
۲۰۱۱	6590
مطمئ	6591
صبحانه	6592
بکشید	6593
بلاک	6594
ببخ	6595
فاقد	6596
يک	6597
برف	6598
نهادهای	6599
گویم	6600
می‌آیند	6601
بنیادی	6602
لوازم	6603
پژوهشگران	6604
رویدادهای	6605
سامسون	6606
اضطراری	6607
مخلوط	6608
حاشی	6609
##ئه	6610
##المه	6611
##ویسم	6612
املاک	6613
مشورت	6614
##وتین	6615
اعتصاب	6616
اختصاصی	6617
حاکمیت	6618
تیراند	6619
##نظامی	6620
بصری	6621
قدردانی	6622
pre	6623
you	6624
امان	6625
دي	6626
پید	6627
##نایی	6628
##ارف	6629
برسان	6630
پیکر	6631
اندروید	6632
تنفس	6633
##گهی	6634
##گوست	6635
مستقر	6636
کشتن	6637
مالزی	6638
معیار	6639
فولاد	6640
شیشه	6641
شلو	6642
کیس	6643
##شیم	6644
میکرد	6645
نفرت	6646
گسترد	6647
2007	6648
جمع‌آوری	6649
کیست	6650
مسافران	6651
واکسن	6652
وب‌سایت	6653
hiv	6654
me	6655
جمل	6656
غی	6657
2020	6658
بگیرم	6659
inter	6660
فارس	6661
نمایندگی	6662
مطلع	6663
ناسا	6664
امپراتوری	6665
سامسونگ	6666
حامل	6667
دانه	6668
شرم	6669
غرق	6670
۳۵	6671
##راهی	6672
##چال	6673
فرق	6674
نظرم	6675
کوبا	6676
رقابتی	6677
فرمول	6678
نوزادان	6679
اعداد	6680
زلز	6681
عاق	6682
کبد	6683
گاو	6684
##بیا	6685
##طری	6686
استن	6687
##ملل	6688
انتهای	6689
پسران	6690
سازمان‌های	6691
فیلم‌های	6692
۲۰۱۸	6693
سقف	6694
میکنید	6695
new	6696
اردوگاه	6697
پرهیز	6698
dna	6699
sy	6700
رغم	6701
سنین	6702
ون	6703
##‌‌های	6704
کهکشان	6705
کنه	6706
کمال	6707
دانشجویی	6708
پرندگان	6709
فیبر	6710
تلقی	6711
بیرونی	6712
مزمن	6713
سنج	6714
##رفت	6715
برگز	6716
##ه‌سازی	6717
شکاف	6718
بزنند	6719
زلزله	6720
32	6721
بنده	6722
بشود	6723
زبانی	6724
غول	6725
##sc	6726
##سکی	6727
درسی	6728
##ولین	6729
سرم	6730
داده‌ها	6731
به‌صورت	6732
بالغ	6733
اختل	6734
نفتی	6735
!!!	6736
واسطه	6737
تکان	6738
##‌انگیز	6739
##عاده	6740
##پت	6741
داستانی	6742
اندام	6743
تقد	6744
مهمتر	6745
ملکه	6746
##ics	6747
مایع	6748
جایگزینی	6749
ویتنام	6750
کریسم	6751
رکورد	6752
.(	6753
طوفان	6754
مداف	6755
##ron	6756
کارایی	6757
روزنام	6758
##مینی	6759
بخش‌های	6760
##گردانی	6761
۲۰۱۳	6762
##ome	6763
##ash	6764
تئاتر	6765
اینستا	6766
ائتلاف	6767
شلوغ	6768
خشن	6769
نوری	6770
##قول	6771
##رون	6772
##ph	6773
##كه	6774
##ارستان	6775
داوری	6776
##رفه	6777
بینیم	6778
دانشجو	6779
##درصد	6780
تغییراتی	6781
خواننده	6782
مشخصی	6783
##ولوژیکی	6784
۲۰۱۴	6785
فرستاد	6786
الکترونیک	6787
دموکرات	6788
ادرار	6789
گواهینامه	6790
خلبان	6791
چاق	6792
یقین	6793
##pe	6794
##da	6795
بدنی	6796
احزاب	6797
حقایق	6798
##ستیکی	6799
خواستند	6800
##ish	6801
مهارت‌های	6802
بشریت	6803
دشواری	6804
آست	6805
آگهی	6806
رؤ	6807
هج	6808
##رها	6809
ازای	6810
برعکس	6811
##اسط	6812
بازرگانی	6813
قطر	6814
۱۹۵	6815
2006	6816
پادشاهی	6817
خنک	6818
فزاینده	6819
31	6820
بوت	6821
مثبتی	6822
تبعی	6823
پرده	6824
راستای	6825
مایکل	6826
عروسی	6827
قلمرو	6828
کریسمس	6829
آینه	6830
روده	6831
کنس	6832
برایشان	6833
انیمی	6834
نوار	6835
انتخابی	6836
تلفنی	6837
نداشتم	6838
نرم‌افزار	6839
می‌رفت	6840
دردناک	6841
مطمئنا	6842
سه‌	6843
فور	6844
وج	6845
##ile	6846
##تیاد	6847
آرژ	6848
نابودی	6849
افسانه	6850
وابستگی	6851
؟"	6852
بفرو	6853
تپ	6854
جراح	6855
غاف	6856
ورد	6857
##وها	6858
##uc	6859
##فاده	6860
##ment	6861
تجویز	6862
اعتیاد	6863
مرات	6864
##ark	6865
گردند	6866
تاریکی	6867
گیرید	6868
خریداران	6869
جزء	6870
لیبر	6871
۱۹۳	6872
مکالمه	6873
جوانی	6874
رسیدند	6875
برسید	6876
پژوهشی	6877
مهربان	6878
بیاموز	6879
متمایز	6880
res	6881
قبیل	6882
##ly	6883
##ونگ	6884
کرده‌ایم	6885
بیاورد	6886
کمترین	6887
پیشرو	6888
می‌دانم	6889
رحمت	6890
ps	6891
پتان	6892
۹۰	6893
باستانی	6894
توانستم	6895
برنج	6896
آرامی	6897
پیشنهادی	6898
##ivers	6899
خودروهای	6900
کریست	6901
چنانچه	6902
##سترول	6903
ناشناخته	6904
اینستاگرام	6905
شلیک	6906
۵۰۰	6907
##دست	6908
##ies	6909
استرو	6910
بره	6911
اینجاست	6912
##الیستی	6913
سوپ	6914
بلو	6915
غذاها	6916
امروزی	6917
##ith	6918
نحو	6919
html	6920
آهسته	6921
باهوش	6922
موانع	6923
جوی	6924
کاست	6925
##له‌ای	6926
##پس	6927
بیکاری	6928
دیکت	6929
فرمت	6930
گفتار	6931
تشدید	6932
قطعی	6933
سخنگ	6934
مادران	6935
خلاص	6936
قطعاً	6937
نیروگاه	6938
75	6939
ic	6940
تکه	6941
فنجان	6942
کوش	6943
گیت	6944
##جنس	6945
##شو	6946
##آگاه	6947
دستان	6948
تغییری	6949
حسن	6950
##ory	6951
تلاش‌های	6952
دیروز	6953
آرزوی	6954
ناامید	6955
اختلالات	6956
))	6957
ab	6958
mac	6959
ثال	6960
غر	6961
غریب	6962
هندی	6963
وادار	6964
نیام	6965
معاون	6966
مشرو	6967
نوا	6968
اتری	6969
زنانی	6970
فلور	6971
لطف	6972
لزوم	6973
col	6974
سید	6975
##xt	6976
##ینو	6977
##ینت	6978
رابرت	6979
برو	6980
بودید	6981
دریافتند	6982
##ick	6983
همسای	6984
خلاقانه	6985
نتوانست	6986
روستایی	6987
انیمیشن	6988
توری	6989
تقل	6990
دوری	6991
غری	6992
##سو	6993
##اهو	6994
اسد	6995
اندیشه	6996
تحمیل	6997
##باح	6998
##وهید	6999
هیچکس	7000
کلسترول	7001
بیماری‌های	7002
طرفدار	7003
##جویان	7004
##وتیک	7005
درواقع	7006
شاع	7007
عمدتا	7008
لهستان	7009
ردیابی	7010
em	7011
قفل	7012
مستم	7013
نگار	7014
##اا	7015
##pa	7016
اینطور	7017
##ونزی	7018
ویلی	7019
می‌دهم	7020
نگرش	7021
همسرتان	7022
نمی‌دانم	7023
قاچ	7024
ستارگان	7025
بازنشستگی	7026
می‌برند	7027
بخو	7028
وای	7029
۲۳	7030
می‌کشد	7031
نمک	7032
##وطه	7033
متحدان	7034
اروپای	7035
خوانندگان	7036
پیرامون	7037
اذیت	7038
تبعیض	7039
آرژانت	7040
آگوست	7041
قاره	7042
##ردی	7043
معده	7044
##رایه	7045
بزرگ‌تر	7046
آزمایشی	7047
بیش‌تر	7048
گرفته‌اند	7049
##ans	7050
شهرستان	7051
##orld	7052
##پرست	7053
حتماً	7054
كنند	7055
دیپلماتیک	7056
پتانسیل	7057
تکیه	7058
شتاب	7059
‌های	7060
##کال	7061
##خر	7062
##انا	7063
همۀ	7064
دوام	7065
توانسته	7066
معبد	7067
سرز	7068
آنهاست	7069
همینطور	7070
پنجاه	7071
آدمی	7072
راه‌حل	7073
جاذبه	7074
400	7075
جک	7076
نما	7077
##ah	7078
درگذشت	7079
هاي	7080
الکس	7081
بازخورد	7082
اندک	7083
مسن	7084
خطاب	7085
۲۰۱۶	7086
کالا	7087
##ode	7088
سفارشی	7089
سوره	7090
جورج	7091
قیامت	7092
ur	7093
الا	7094
بکند	7095
##ایات	7096
##یرت	7097
##ath	7098
مخرب	7099
فروشنده	7100
فهمید	7101
رزرو	7102
قضایی	7103
قاچاق	7104
یار	7105
##ري	7106
##ورم	7107
دافا	7108
اسرار	7109
ابزاری	7110
آوردند	7111
##پیوند	7112
گوشه	7113
##‌آمیز	7114
عذر	7115
وحشتناک	7116
غیرممکن	7117
ادعای	7118
سلطنتی	7119
خات	7120
زح	7121
ظهر	7122
عام	7123
##az	7124
##oft	7125
کرده‌ام	7126
##ه‌ترین	7127
##میزی	7128
کارش	7129
##شاند	7130
لیگ	7131
مربع	7132
عواقب	7133
صرفاً	7134
تخلیه	7135
ویران	7136
می‌شدند	7137
عکاس	7138
کربوهید	7139
منطقه‌ای	7140
پلتفرم	7141
جبهه	7142
غافل	7143
قاضی	7144
مارت	7145
۰۰۰	7146
##زنی	7147
##ug	7148
درج	7149
راه‌اند	7150
برویم	7151
برلین	7152
همکار	7153
کنج	7154
##راسیون	7155
کارتان	7156
نقلیه	7157
##باران	7158
ساحلی	7159
اساسا	7160
بهبودی	7161
##‌انداز	7162
کشتار	7163
ترسناک	7164
بردند	7165
محاکمه	7166
تیراندازی	7167
tim	7168
ربط	7169
##sh	7170
##‌کنند	7171
##me	7172
اواسط	7173
دست‌	7174
اندیش	7175
اندونزی	7176
چراکه	7177
سطحی	7178
گیرنده	7179
امیدواریم	7180
مسئولان	7181
car	7182
حاکی	7183
خج	7184
زور	7185
زبال	7186
##ویض	7187
کردی	7188
##‌هایش	7189
##الیست	7190
##شدن	7191
اخذ	7192
ساعات	7193
ضرر	7194
مواجهه	7195
اکتش	7196
تصادف	7197
مأموریت	7198
ثالث	7199
راه‌اندازی	7200
**	7201
fl	7202
تابع	7203
سوا	7204
کرم	7205
##ینا	7206
##ابقت	7207
دیسک	7208
دستش	7209
عضل	7210
توضیحات	7211
شاهزاده	7212
چرخش	7213
هیچ‌کس	7214
seo	7215
نمی‌کنم	7216
کافئین	7217
micro	7218
مسأله	7219
بب	7220
سمی	7221
شل	7222
۴۵	7223
##oh	7224
##مونی	7225
درآورد	7226
کشی	7227
##رگان	7228
هیپ	7229
پایانی	7230
گرفتار	7231
شباه	7232
فعالان	7233
چهارشنبه	7234
ریزش	7235
مغازه	7236
شورشی	7237
##ide	7238
تورم	7239
univers	7240
شرکای	7241
##‌پذیری	7242
انحص	7243
الزامات	7244
بلیط	7245
ios	7246
vpn	7247
بخواهیم	7248
##گام	7249
##۲۰	7250
##ولان	7251
ماسک	7252
دوش	7253
مطابقت	7254
کتاب‌های	7255
دوستانه	7256
شکم	7257
##ence	7258
روشنایی	7259
dr	7260
بي	7261
فرک	7262
مظ	7263
##ئون	7264
##استفاده	7265
راهبرد	7266
اطاعت	7267
ماهانه	7268
زنند	7269
توصی	7270
نمی‌توانیم	7271
اظهارات	7272
مادری	7273
ندیده	7274
اشیاء	7275
کربوهیدرات	7276
war	7277
##نشین	7278
باق	7279
کارگردانی	7280
مدی	7281
##اطیسی	7282
غیرنظامی	7283
خانواده‌	7284
تاثیرات	7285
##‌آموز	7286
آفریقایی	7287
گذارند	7288
بکنید	7289
حاشیه	7290
qu	7291
بج	7292
جال	7293
نازی	7294
میانه	7295
آنج	7296
کنسول	7297
تصمیم‌گیری	7298
میزبانی	7299
##خواسته	7300
۲۰۱۰	7301
کالاهای	7302
دربارۀ	7303
پلاستیکی	7304
بخواهند	7305
قار	7306
پور	7307
پات	7308
کول	7309
گنج	7310
۲۷	7311
##اي	7312
##اداران	7313
گرایش	7314
تحسین	7315
اجزای	7316
نامش	7317
اصرار	7318
قدیم	7319
تعویض	7320
اشتیا	7321
شوخی	7322
سردرد	7323
مقاوم	7324
رادیویی	7325
پلاستیک	7326
می‌بینید	7327
المپیک	7328
فایده	7329
ماساژ	7330
ویلیام	7331
رهایی	7332
وری	7333
گور	7334
##مم	7335
##gr	7336
برتری	7337
بازتاب	7338
جهنم	7339
مدیریتی	7340
انسانها	7341
روشنی	7342
صرفا	7343
تخفیف	7344
فارسی	7345
ممنوعیت	7346
صادقانه	7347
درخشان	7348
شاخه	7349
التهاب	7350
آتی	7351
ببند	7352
تیمی	7353
تیره	7354
سح	7355
لس	7356
##ایتی	7357
داروی	7358
امواج	7359
محر	7360
##نگاری	7361
نوک	7362
گفت‌و	7363
نمی‌دهد	7364
تعبیر	7365
نمره	7366
ایدئ	7367
هواپیمایی	7368
جادویی	7369
متقابل	7370
سندرم	7371
آواز	7372
صلاحیت	7373
##میتی	7374
##‌هایشان	7375
محله	7376
متاب	7377
چهل	7378
نوبت	7379
...»	7380
نامح	7381
ایرلند	7382
تولیدی	7383
##ary	7384
##اپذیر	7385
قانع	7386
نسبتاً	7387
معتق	7388
اشتباهی	7389
مسیری	7390
نمودار	7391
##وئید	7392
پناهندگان	7393
سخنگوی	7394
pc	7395
قوا	7396
مگ	7397
پاره	7398
##دین	7399
##ms	7400
##چین	7401
برش	7402
##الو	7403
همراهی	7404
انق	7405
خودروی	7406
اموال	7407
کمکی	7408
بینایی	7409
شکلات	7410
ابتکار	7411
سریع‌تر	7412
۲۰۱۲	7413
متعادل	7414
1000	7415
زدند	7416
متشکل	7417
تسلیحات	7418
cd	7419
حسی	7420
هیت	7421
هکر	7422
په	7423
##سکو	7424
امارات	7425
##خصی	7426
هیچگاه	7427
فقدان	7428
پروسه	7429
به‌خ	7430
ابدا	7431
پاسخگویی	7432
ایده‌های	7433
آزمایشات	7434
نکردند	7435
متناسب	7436
بریتانیایی	7437
خسارت	7438
عضلانی	7439
mon	7440
بوش	7441
تث	7442
زاوی	7443
کجاست	7444
##خوانی	7445
یکشنبه	7446
همد	7447
خوشم	7448
معای	7449
داشتید	7450
بازرسی	7451
##خورده	7452
بینند	7453
زیان	7454
پیامدهای	7455
آن‌جا	7456
نباشند	7457
جاسوسی	7458
نواحی	7459
wind	7460
جین	7461
خدایی	7462
##sl	7463
##ee	7464
##گرا	7465
موز	7466
کارگری	7467
محم	7468
مریم	7469
عضویت	7470
قسمتی	7471
دنیایی	7472
جادو	7473
تحولات	7474
کاندید	7475
عظیمی	7476
فشرده	7477
فوق‌العاده	7478
تار	7479
تطبی	7480
جزایر	7481
وان	7482
گز	7483
می‌باشند	7484
سرطانی	7485
تربیت	7486
##اندی	7487
##ank	7488
اقلیت	7489
##ame	7490
همسرم	7491
بندر	7492
اختلافات	7493
می‌نویس	7494
عادات	7495
خرده	7496
چه‌	7497
##دراسیون	7498
##طو	7499
هایتان	7500
##خوش	7501
دانشمند	7502
بازیابی	7503
نامن	7504
سواری	7505
قطب	7506
سناری	7507
بتوانم	7508
میتوانند	7509
قلعه	7510
زیبای	7511
گردشگران	7512
##iew	7513
خبرنگاران	7514
حبس	7515
عادلانه	7516
34	7517
بوس	7518
جسم	7519
ظریف	7520
ناق	7521
##ظی	7522
##ظم	7523
ایز	7524
##فران	7525
تصریح	7526
جدیدترین	7527
##راتور	7528
خیال	7529
آن‌چه	7530
##ows	7531
one	7532
شفافیت	7533
دبیرستان	7534
متأس	7535
سواحل	7536
فرکانس	7537
33	7538
el	7539
ششم	7540
پرا	7541
##فورد	7542
##الح	7543
بیا	7544
##باع	7545
نفره	7546
۲۰۱۷	7547
مارکس	7548
نمودند	7549
توافقنامه	7550
بازدیدکنندگان	7551
میکنیم	7552
زخمی	7553
مراتب	7554
].	7555
خم	7556
نخواهیم	7557
کپ	7558
##دامی	7559
##جمی	7560
برم	7561
انز	7562
مجمع	7563
##واک	7564
##ارتان	7565
خطای	7566
منتظ	7567
عاشقانه	7568
مهندس	7569
هرکسی	7570
براي	7571
دیوانه	7572
معجزه	7573
39	7574
ev	7575
fr	7576
op	7577
##af	7578
##ضان	7579
##انورد	7580
بیایند	7581
معتر	7582
مقال	7583
مرزی	7584
سپاه	7585
ابد	7586
هواداران	7587
آگاهانه	7588
##‌آور	7589
مشاوران	7590
##‌بندی	7591
نشستن	7592
امپری	7593
استانبول	7594
پیچیدگی	7595
استودیو	7596
محاسبات	7597
وردپرس	7598
اشتیاق	7599
متأسفانه	7600
48	7601
ارب	7602
وصل	7603
پاهای	7604
برابری	7605
ترور	7606
تحرک	7607
مردمان	7608
اعضا	7609
انتخاباتی	7610
ستم	7611
بمباران	7612
عهد	7613
روستا	7614
یخچال	7615
متقاضیان	7616
فاک	7617
##لزم	7618
##اتوری	7619
می‌ماند	7620
گرگ	7621
##ink	7622
بالینی	7623
193	7624
سنسور	7625
خوشبختی	7626
دستگاه‌های	7627
مجموعه‌ای	7628
مخالفان	7629
##وگرافی	7630
پیوستن	7631
پشتیبان	7632
دبی	7633
لرز	7634
هری	7635
##عامل	7636
##گونی	7637
درآم	7638
##لیق	7639
##سیله	7640
انب	7641
بیل	7642
دانش‌آموز	7643
یادآور	7644
مستلزم	7645
اجتماع	7646
##ous	7647
بسازد	7648
تسلط	7649
مکرر	7650
ib	7651
red	7652
؟”	7653
ذرات	7654
زانو	7655
قوت	7656
قومی	7657
هیل	7658
پمپ	7659
##ok	7660
##fl	7661
##گرفته	7662
الح	7663
مقط	7664
احاط	7665
نقط	7666
بنشین	7667
ماهر	7668
##ژیک	7669
وقایع	7670
192	7671
قیمتی	7672
خوابیدن	7673
2003	7674
بوسیله	7675
ناتوانی	7676
می‌دادند	7677
تونل	7678
منعکس	7679
وفاداری	7680
مستمر	7681
فاکتور	7682
world	7683
وص	7684
پایی	7685
##oy	7686
##ندم	7687
درصدی	7688
برقی	7689
برانگیز	7690
مشکوک	7691
نشوید	7692
علیر	7693
طرفی	7694
عبادت	7695
مبادله	7696
معیارهای	7697
مسیحیان	7698
ریاضیات	7699
علاقه‌	7700
ادی	7701
شانه	7702
لپ	7703
نگیر	7704
هدر	7705
يا	7706
۲۶	7707
##هین	7708
##کوس	7709
##شیر	7710
##خل	7711
برون	7712
##ردن	7713
اندوه	7714
سازگاری	7715
کلین	7716
ساختاری	7717
##int	7718
فروشندگان	7719
##ical	7720
ریش	7721
منظر	7722
نگهبان	7723
2005	7724
تلخ	7725
آدم‌ها	7726
نحوی	7727
تکراری	7728
محبوبیت	7729
##چیزی	7730
سرزنش	7731
اکتشاف	7732
دفع	7733
مباح	7734
نرو	7735
##ـه	7736
##گرایی	7737
امری	7738
فرشت	7739
مقصر	7740
قبال	7741
پروف	7742
فروشی	7743
ارث	7744
##انسون	7745
تهدیدات	7746
##‌وقت	7747
1990	7748
رسانه‌ها	7749
پروژه‌های	7750
الگوهای	7751
ملاحظه	7752
آرژانتین	7753
اکر	7754
رب	7755
سد	7756
##نال	7757
##12	7758
تاج	7759
سیار	7760
دلایلی	7761
۲۰۰۰	7762
##ناکی	7763
حیوانی	7764
کیسه	7765
url	7766
can	7767
dis	7768
gl	7769
mba	7770
اِ	7771
بفرست	7772
شوک	7773
فورا	7774
گرا	7775
##وستان	7776
##لامی	7777
امشب	7778
گره	7779
رویای	7780
آمریکایی‌ها	7781
گلوله	7782
شهروندی	7783
مزر	7784
کشاورزان	7785
آفریده	7786
بورژ	7787
صدمه	7788
کامیون	7789
ایدئولوژی	7790
sk	7791
بپیوند	7792
##جستان	7793
درای	7794
##ودر	7795
##ه‌دار	7796
##ختری	7797
آیین	7798
یهود	7799
inst	7800
متنفر	7801
ویدیویی	7802
وفادار	7803
مولکول	7804
هیتلر	7805
55	7806
بقای	7807
##sa	7808
##cl	7809
##der	7810
##غیب	7811
##انه‌ای	7812
بهانه	7813
همب	7814
نیت	7815
بنزین	7816
روشهای	7817
۱۹۱	7818
نکنیم	7819
نمی‌توانم	7820
نگرفته	7821
تایپ	7822
تایمز	7823
اعطا	7824
تهاجمی	7825
دال	7826
پکن	7827
پستان	7828
کیه	7829
##آید	7830
##طوب	7831
مدام	7832
الماس	7833
رسند	7834
زمانیکه	7835
ابری	7836
آسیایی	7837
ویژگی‌های	7838
ترکیبات	7839
ولایت	7840
یونانی	7841
cont	7842
بالاتری	7843
شباهت	7844
پتر	7845
پیت	7846
همجنس	7847
##ویچ	7848
دوازده	7849
سرش	7850
گرجستان	7851
هیچوقت	7852
نمی‌شوند	7853
اهمیتی	7854
چشمگیری	7855
پیری	7856
مرتبه	7857
تاثیری	7858
شکستن	7859
عراقی	7860
150	7861
آفرینش	7862
معتقدم	7863
ii	7864
med	7865
سوری	7866
پهن	7867
##نویس	7868
##نهایت	7869
##دت	7870
##اهدی	7871
تواف	7872
مشه	7873
می‌شویم	7874
##ern	7875
##موزی	7876
پروفس	7877
##ong	7878
خدماتی	7879
گزارشی	7880
موقعیتی	7881
جنسیتی	7882
مستقیما	7883
دروازه	7884
۲۰۰۹	7885
فرمودند	7886
آموخته	7887
کارفرمایان	7888
احاطه	7889
65	7890
سار	7891
صاف	7892
##son	7893
##انید	7894
بهم	7895
برید	7896
اینقدر	7897
پیاده‌	7898
##ert	7899
ناو	7900
فیلمی	7901
دوستش	7902
مرطوب	7903
بخشید	7904
##منت	7905
اقداماتی	7906
شورش	7907
##ood	7908
حواس	7909
آشپزی	7910
اکسید	7911
لحظات	7912
مجسمه	7913
پروفسور	7914
38	7915
37	7916
aut	7917
air	7918
تلس	7919
دما	7920
ساده‌	7921
صعود	7922
##كت	7923
##وانت	7924
##دهندگان	7925
خودی	7926
هیات	7927
پاسخی	7928
ریز	7929
هوشی	7930
برسیم	7931
کلمبیا	7932
اندازه‌گیری	7933
جعلی	7934
iso	7935
می‌زنند	7936
جالبی	7937
تطبیق	7938
met	7939
post	7940
اچ	7941
بول	7942
##وظ	7943
##tp	7944
##شایی	7945
میخ	7946
باهم	7947
##روش	7948
کارگاه	7949
ماژ	7950
توبه	7951
محتر	7952
فرشته	7953
ترغیب	7954
تمدید	7955
190	7956
سفیر	7957
نفری	7958
متعال	7959
##ign	7960
مترو	7961
واحدهای	7962
رسانده	7963
براى	7964
ناخود	7965
بازنشسته	7966
بردارید	7967
خز	7968
فه	7969
نشن	7970
چسب	7971
”،	7972
##رنگ	7973
##مرد	7974
##خیم	7975
تاکسی	7976
##یاط	7977
نوآور	7978
اعصاب	7979
ناخواسته	7980
تعلیم	7981
ریچ	7982
تاریخچه	7983
تفریح	7984
راستا	7985
اعتراضات	7986
کارآفرینی	7987
نامناسب	7988
اکو	7989
ذات	7990
هک	7991
پیم	7992
پنت	7993
۲۸	7994
##ton	7995
##حاف	7996
##سن	7997
##سری	7998
##کدام	7999
##طب	8000
بری	8001
اینکار	8002
##لیون	8003
داشته‌اند	8004
جهش	8005
پسرش	8006
نشانه‌های	8007
شخصیتی	8008
می‌رسید	8009
فرآیندهای	8010
بستر	8011
پوستی	8012
قهرمانی	8013
کاتولیک	8014
رقیب	8015
هرد	8016
پند	8017
پوتین	8018
##‌ش	8019
##انش	8020
میدهند	8021
که‌	8022
کارشناس	8023
گرایی	8024
گفتیم	8025
جلوه	8026
شماری	8027
خریدار	8028
##ائلی	8029
ساعته	8030
مغن	8031
##olog	8032
نویسند	8033
ورزشکاران	8034
بپردازید	8035
آرایش	8036
به‌خاطر	8037
95	8038
des	8039
قاتل	8040
گن	8041
##وو	8042
##sp	8043
##قیم	8044
##لیف	8045
کارشان	8046
بیستم	8047
ایالتی	8048
##نگری	8049
مسائلی	8050
بینش	8051
زیرزمین	8052
مرجع	8053
بخشیدن	8054
حدودی	8055
میلیون‌ها	8056
واگذار	8057
مذکور	8058
شراب	8059
شواهدی	8060
پیشنهادات	8061
مستقیماً	8062
قیام	8063
بعداً	8064
##press	8065
غالباً	8066
نامحدود	8067
sup	8068
بطری	8069
لق	8070
##ستات	8071
بیانی	8072
بیگانه	8073
تاپ	8074
آماری	8075
معکوس	8076
بدل	8077
کم‌	8078
##....	8079
تعقیب	8080
نمایان	8081
علل	8082
باورند	8083
اخیراً	8084
سودمند	8085
قطعنامه	8086
##ction	8087
اتوماتیک	8088
all	8089
انداخته	8090
دفعه	8091
سانتی	8092
همه‌چیز	8093
شهرداری	8094
00	8095
cap	8096
ثان	8097
فدراسیون	8098
##ear	8099
##طن	8100
می‌گرفت	8101
همیش	8102
##ویژه	8103
نیوز	8104
روحیه	8105
دستگیری	8106
##سانس	8107
ذخایر	8108
خوشحالم	8109
بورس	8110
درحالی‌که	8111
مریخ	8112
خبرنگار	8113
عزت	8114
مارتین	8115
--	8116
44	8117
min	8118
سکه	8119
##‌ست	8120
##فای	8121
##ایز	8122
استوار	8123
##ریز	8124
توط	8125
فرقی	8126
قرون	8127
##شدت	8128
سوالی	8129
یادم	8130
مدیره	8131
چهارمین	8132
آسیای	8133
کودکانی	8134
مفصل	8135
هنرهای	8136
فراخوان	8137
فلزی	8138
وحدت	8139
روبه‌	8140
ژنرال	8141
برداشتن	8142
تجارب	8143
((	8144
er	8145
حش	8146
خرس	8147
رخت	8148
صدر	8149
كم	8150
یونی	8151
##اژ	8152
##پولی	8153
##ثری	8154
بیه	8155
پیتر	8156
##عهده	8157
زیستی	8158
مختص	8159
##کوین	8160
بایگانی	8161
عینک	8162
خدایان	8163
بپردازد	8164
یوگا	8165
آرت	8166
غزه	8167
غالب	8168
فاز	8169
##نون	8170
##‌ز	8171
##تونی	8172
برانگی	8173
##ابانی	8174
##لاوه	8175
بیاند	8176
اعزام	8177
مهم‌تر	8178
اشعه	8179
حرفی	8180
##ata	8181
خوشحالی	8182
مبارز	8183
مبارزات	8184
فلز	8185
##‌بوک	8186
سرمایه‌داری	8187
##پرستی	8188
##ult	8189
تحریم‌های	8190
راهنما	8191
usb	8192
عجله	8193
سیاستمداران	8194
ناخودآگاه	8195
up	8196
شری	8197
لع	8198
##نل	8199
##چنان	8200
##for	8201
##ورید	8202
همت	8203
شدیدی	8204
مدال	8205
موردی	8206
##امیک	8207
سازندگان	8208
شرکتهای	8209
نشریه	8210
191	8211
سپرده	8212
گیج	8213
انتقادی	8214
ببریم	8215
1980	8216
بپردازند	8217
قاعده	8218
روزنامه‌	8219
زباله	8220
زاویه	8221
windows	8222
کلینتون	8223
تلسکوپ	8224
sw	8225
تال	8226
حیرت	8227
صریح	8228
نابر	8229
پي	8230
##ta	8231
##cc	8232
##پاشی	8233
##ستون	8234
باطل	8235
##ادا	8236
##یما	8237
مجر	8238
سوئی	8239
همین‌	8240
##ens	8241
##دانان	8242
پردازد	8243
محدودی	8244
سفرهای	8245
انتقام	8246
شاگردان	8247
هوشمندانه	8248
##راجویی	8249
ماجراجویی	8250
تدریج	8251
زنجیر	8252
micros	8253
مقطع	8254
مزرعه	8255
!)	8256
؟؟؟	8257
رج	8258
زه	8259
قم	8260
موی	8261
نکت	8262
##ماع	8263
##هاي	8264
هایم	8265
ایکس	8266
محوطه	8267
فرش	8268
قرض	8269
##شنامه	8270
##اصد	8271
سوزی	8272
دلخواه	8273
پیروان	8274
ستایش	8275
مارکسی	8276
وسوس	8277
هواپیماهای	8278
رانندگان	8279
اوراق	8280
می‌بینیم	8281
دفن	8282
play	8283
##بایست	8284
حاملگی	8285
خجالت	8286
ارگانی	8287
ارایه	8288
رضا	8289
فاش	8290
نگفت	8291
هول	8292
یابی	8293
یوسف	8294
##ier	8295
##ذیب	8296
برجام	8297
انص	8298
متدا	8299
##اقض	8300
##الیز	8301
کوک	8302
به‌ویژه	8303
هدفی	8304
شمشیر	8305
آغوش	8306
سلولی	8307
آرشی	8308
پرداخته	8309
2004	8310
لوکس	8311
تدوین	8312
comp	8313
بیاورند	8314
منصفانه	8315
بازگرداندن	8316
شجاعت	8317
فیلیپین	8318
مباحث	8319
مغناطیسی	8320
99	8321
پخت	8322
چرب	8323
##ارید	8324
بودی	8325
نیا	8326
توهین	8327
فراز	8328
نوین	8329
بخرید	8330
نقره	8331
شنوایی	8332
##یهی	8333
##enc	8334
##اپور	8335
اقدامی	8336
##ition	8337
##ناع	8338
آخرت	8339
خوش‌	8340
پارام	8341
محتوی	8342
جاود	8343
قراردادهای	8344
روستای	8345
آزمایشگاهی	8346
پرستار	8347
گرسنه	8348
حرکتی	8349
acc	8350
کنسرت	8351
عذرخواهی	8352
خاتمه	8353
ماژول	8354
bus	8355
sec	8356
جون	8357
دانی	8358
رگ	8359
فورد	8360
نج	8361
نه‌	8362
##به‌	8363
##ep	8364
##عل	8365
دره	8366
می‌فه	8367
کاراک	8368
##یتون	8369
متری	8370
معقول	8371
سرنگ	8372
##عدی	8373
سیست	8374
ساختمانی	8375
##اپی	8376
شیوع	8377
مسیرهای	8378
پوشیده	8379
پوشیدن	8380
تابستانی	8381
اثرب	8382
جسد	8383
هم‌چنین	8384
خشمگین	8385
استثنایی	8386
مقدمه	8387
توسعه‌	8388
لیبرال	8389
پروفایل	8390
85	8391
la	8392
جریم	8393
شکی	8394
کوانت	8395
‌ها	8396
##حت	8397
##هزار	8398
##کون	8399
##وانه	8400
منش	8401
موزیک	8402
دانستم	8403
##ربایج	8404
##وتو	8405
اعلامی	8406
گرفتیم	8407
تلاشی	8408
شیعی	8409
پارچه	8410
بیانگر	8411
فرانک	8412
ترسیم	8413
این‌گونه	8414
متخصصین	8415
می‌دانست	8416
##جانبه	8417
سکونت	8418
خاطره	8419
حامیان	8420
شاعر	8421
64	8422
بکنند	8423
صهی	8424
هلی	8425
پائ	8426
##ارض	8427
استعم	8428
##هایش	8429
محو	8430
معین	8431
معاهده	8432
بدیهی	8433
گفته‌اند	8434
نقشی	8435
خداحاف	8436
بلژیک	8437
چشمگیر	8438
آزادانه	8439
نگرفت	8440
عقاید	8441
تهدیدی	8442
۲۰۰۸	8443
سلاح‌های	8444
هرکدام	8445
کیلومتری	8446
بشناسید	8447
گالری	8448
افراطی	8449
آذربایج	8450
تقلید	8451
رصد	8452
ربود	8453
##‌شناسی	8454
##‌زده	8455
##پوش	8456
##پورت	8457
##أت	8458
بادی	8459
ایس	8460
تحق	8461
##شناختی	8462
شنوند	8463
##خوردگی	8464
##ach	8465
ظاهری	8466
بگذاریم	8467
120	8468
##ower	8469
مهندسان	8470
پردازنده	8471
مادربزرگ	8472
مسیحیت	8473
هرکس	8474
انگشتان	8475
می‌گذارند	8476
زحمت	8477
تثبیت	8478
تشن	8479
دختری	8480
غبار	8481
فاط	8482
وک	8483
##‌د	8484
##ne	8485
##80	8486
##يان	8487
##work	8488
##غد	8489
بات	8490
براد	8491
اینک	8492
می‌ك	8493
مناق	8494
انسول	8495
بنظر	8496
بارسل	8497
قدری	8498
متحرک	8499
##att	8500
پنجشنبه	8501
می‌کردیم	8502
برسانند	8503
مدل‌های	8504
مناطقی	8505
کاشت	8506
بکشند	8507
مقرون	8508
پنیر	8509
ببخشید	8510
برسانید	8511
محرمانه	8512
!"	8513
43	8514
cre	8515
home	8516
id	8517
آرا	8518
بذ	8519
زا	8520
##‌دار	8521
##جانی	8522
##صلی	8523
بام	8524
اینچ	8525
همگان	8526
تناسب	8527
##وتا	8528
##رایم	8529
تعلیق	8530
##atch	8531
##ائو	8532
استخر	8533
آسانسور	8534
##رافیکی	8535
تضاد	8536
گازهای	8537
صداقت	8538
آستانه	8539
آنجلس	8540
پارامتر	8541
انسولین	8542
41	8543
fre	8544
تفاوتی	8545
جیب	8546
شوی	8547
مبه	8548
منو	8549
پیشتر	8550
اندی	8551
مقاصد	8552
تصمیمی	8553
##فیق	8554
##anc	8555
تأخیر	8556
##وستون	8557
خبرگزاری	8558
آشام	8559
کیک	8560
گونه‌ای	8561
دانمارک	8562
رمزگذاری	8563
php	8564
همکارانش	8565
حرام	8566
پویا	8567
همیشگی	8568
خیره	8569
قاطع	8570
مُ	8571
مات	8572
هالی	8573
وات	8574
##‌نام	8575
##ساب	8576
##آمیز	8577
##ختی	8578
است‌	8579
بریز	8580
انها	8581
##انیاهو	8582
امضای	8583
پیغام	8584
##افز	8585
بخار	8586
بازیافت	8587
نشانگر	8588
خطی	8589
تکذیب	8590
فرماید	8591
دستیار	8592
گونگ	8593
بچه‌های	8594
گناهان	8595
رمزنگاری	8596
black	8597
احتیاط	8598
صلیب	8599
تاکتیک	8600
عاقل	8601
انبوه	8602
جاه	8603
عطر	8604
هراس	8605
چاقی	8606
کرو	8607
کیت	8608
##ual	8609
##ex	8610
##تاً	8611
##رند	8612
##منی	8613
##خشی	8614
میخواهید	8615
کنوان	8616
القا	8617
اندرو	8618
دادستان	8619
نوبل	8620
رویاهای	8621
زیرد	8622
زیبات	8623
چندانی	8624
202	8625
نسبی	8626
گروگان	8627
کاملی	8628
فضانورد	8629
وضعیتی	8630
شیعه	8631
شیکا	8632
محتوایی	8633
۲۰۱۹	8634
نکردم	8635
جاوا	8636
فراگیر	8637
دستورات	8638
##شاء	8639
##ational	8640
فیس‌بوک	8641
جذابیت	8642
آفرید	8643
دفاتر	8644
رونمایی	8645
خنثی	8646
فرشتگان	8647
نوآورانه	8648
صهیونی	8649
bit	8650
rob	8651
بجای	8652
خاند	8653
زشت	8654
مادی	8655
کیم	8656
گش	8657
گیم	8658
##نویسی	8659
##ِی	8660
##َّ	8661
راه‌های	8662
می‌آمد	8663
کنگ	8664
دارا	8665
##فره	8666
##گیرانه	8667
بلغ	8668
نشوند	8669
فروپاشی	8670
جواه	8671
نتانیاهو	8672
پرسیده	8673
اسپرم	8674
می‌آورند	8675
گویا	8676
بلندمدت	8677
ساختارهای	8678
نوزدهم	8679
کیلوگر	8680
عجیبی	8681
مفهومی	8682
نرمال	8683
ظاهراً	8684
##ount	8685
انحصاری	8686
کنوانسیون	8687
sch	8688
سانت	8689
صمیم	8690
طر	8691
قص	8692
پلاگ	8693
چوبی	8694
گارد	8695
##فند	8696
##يا	8697
##يس	8698
##منین	8699
##ایانه	8700
میخو	8701
##الص	8702
آمدید	8703
##فرما	8704
##کیو	8705
##کسل	8706
پرخ	8707
آباد	8708
بنابر	8709
صحن	8710
فضاهای	8711
سلس	8712
فرصت‌های	8713
بسپار	8714
نداشتیم	8715
دوستانم	8716
این‌جا	8717
ste	8718
##‌ایم	8719
هشتم	8720
ناخن	8721
داوطلبانه	8722
university	8723
47	8724
ma	8725
تگز	8726
مکت	8727
چت	8728
کروم	8729
۲۹	8730
۶۵	8731
##نسی	8732
##اکنون	8733
##‌دهنده	8734
##mi	8735
##ha	8736
##60	8737
##box	8738
درام	8739
میش	8740
برعهده	8741
می‌خورد	8742
منز	8743
رومی	8744
سالگرد	8745
##‌هاي	8746
ترمیم	8747
اسرایی	8748
می‌کنی	8749
نامید	8750
ناخوش	8751
فیلس	8752
مدیرعامل	8753
دیدند	8754
سلطه	8755
##oud	8756
کاوش	8757
كنید	8758
انداختن	8759
می‌خواستم	8760
##فرماید	8761
اردوغان	8762
org	8763
احمقانه	8764
دگرگون	8765
مدافع	8766
علیرغم	8767
متداول	8768
شیکاگو	8769
سلسله	8770
600	8771
؟؟	8772
جانسون	8773
دغد	8774
ساکت	8775
مود	8776
کث	8777
گرافیک	8778
##پک	8779
برگردان	8780
می‌ترس	8781
##هاست	8782
کارخان	8783
پیامی	8784
کشورش	8785
##row	8786
##ase	8787
ارزهای	8788
##‌بخش	8789
مقرر	8790
اردن	8791
لطفاً	8792
نازل	8793
اقلیمی	8794
بغداد	8795
قواعد	8796
پاییز	8797
غار	8798
قصه	8799
لوک	8800
١٩	8801
پش	8802
##فیه	8803
می‌گرد	8804
##ریحی	8805
##روح	8806
روبات	8807
دهه‌ی	8808
متو	8809
الملل	8810
پسند	8811
##ere	8812
آلات	8813
بعید	8814
نبودم	8815
۲۰۰۵	8816
وحش	8817
##ull	8818
گمراه	8819
بخورند	8820
لزوما	8821
اذعان	8822
ضربان	8823
mark	8824
ریچارد	8825
av	8826
ir	8827
آدام	8828
تگ	8829
زغال	8830
عید	8831
كرده	8832
##bo	8833
انبار	8834
فرام	8835
پروستات	8836
تبریک	8837
خانه‌های	8838
فعالی	8839
دولت‌های	8840
گردیده	8841
##ator	8842
ملحق	8843
موجودی	8844
مرگبار	8845
##out	8846
ایستاد	8847
1999	8848
ناخالص	8849
اتهامات	8850
متابولی	8851
همبستگی	8852
محترم	8853
زیباترین	8854
پلاگین	8855
تگزاس	8856
:"	8857
ec	8858
fi	8859
per	8860
حص	8861
قو	8862
پراک	8863
۳۰۰	8864
##‌‌ها	8865
##کاوی	8866
##جین	8867
میک	8868
می‌نم	8869
##فتگی	8870
موف	8871
##مانده	8872
##دیده	8873
مجاهد	8874
تولیدکنندگان	8875
سازمان‌ها	8876
چشم‌انداز	8877
تفنگ	8878
##تنها	8879
تانک	8880
##ild	8881
ind	8882
دکترا	8883
##own	8884
تورنت	8885
سوراخ	8886
بکنم	8887
##ake	8888
پدربزرگ	8889
مجدداً	8890
اتریش	8891
همسایگان	8892
پنتاگون	8893
توطئه	8894
microsoft	8895
بارسلونا	8896
gen	8897
word	8898
بقا	8899
حرم	8900
سون	8901
شبی	8902
لامپ	8903
کاس	8904
##اهیر	8905
##گراف	8906
##ه‌تان	8907
کارل	8908
خواهش	8909
چهر	8910
اسمیت	8911
##رسان	8912
کلان	8913
بلد	8914
سنگی	8915
کوچکترین	8916
##ich	8917
تکمیلی	8918
حکمت	8919
نکردن	8920
تلفات	8921
سنگاپور	8922
نداشتن	8923
افزاری	8924
افزونه	8925
سینمایی	8926
حافظ	8927
سؤالات	8928
امپرا	8929
هم‌اکنون	8930
گفت‌وگو	8931
sn	8932
آلی	8933
جرایم	8934
شفا	8935
##وجود	8936
##فرد	8937
##ذکر	8938
می‌نام	8939
##هایشان	8940
نیج	8941
معص	8942
تصدی	8943
نشر	8944
##ance	8945
دیدیم	8946
منتخ	8947
گیریم	8948
تهی	8949
صدایی	8950
ایدز	8951
2001	8952
خورند	8953
خصوصیات	8954
خیابانی	8955
##جمله	8956
مزایا	8957
##اهدات	8958
جسمانی	8959
پنل	8960
پانزده	8961
تداوم	8962
عبارات	8963
توافقی	8964
gu	8965
no	8966
تدار	8967
سارا	8968
فا	8969
پله	8970
##فسه	8971
##ِن	8972
##ارم	8973
داوود	8974
هرگاه	8975
تراز	8976
کمدی	8977
مسال	8978
تصفیه	8979
نمی‌خواهم	8980
نهفته	8981
تقص	8982
مختل	8983
متحمل	8984
ارجا	8985
بحرانی	8986
نظامیان	8987
نویسد	8988
برنامه‌ی	8989
عصب	8990
منحص	8991
پارکینگ	8992
comm	8993
مکانیک	8994
دمکر	8995
می‌پرس	8996
تاسیسات	8997
خالق	8998
شجاع	8999
نرسیده	9000
ابداع	9001
زیرزمینی	9002
خاندان	9003
پراکنده	9004
)؛	9005
eb	9006
ms	9007
not	9008
wi	9009
with	9010
آوی	9011
تابل	9012
رول	9013
سي	9014
ورش	9015
پرف	9016
گوسف	9017
##قام	9018
##yn	9019
##ارو	9020
بهای	9021
بابا	9022
##ادو	9023
بازگردان	9024
گرامی	9025
تحلیلی	9026
پسرم	9027
##اصره	9028
کلسیم	9029
.»[	9030
به‌دست	9031
خدمه	9032
##این‌	9033
واژن	9034
تاثیرگذار	9035
بانکداری	9036
تصاویری	9037
بستن	9038
چارلز	9039
art	9040
نمی‌کنیم	9041
شهردار	9042
نکاتی	9043
ثانویه	9044
کیلوگرم	9045
42	9046
51	9047
gre	9048
ww	9049
رطو	9050
##land	9051
##گم	9052
##ایا	9053
##ارن	9054
##یدنی	9055
استال	9056
می‌بیند	9057
##روب	9058
توازن	9059
تران	9060
گرین	9061
##اندر	9062
##وتن	9063
##بانیت	9064
##کسون	9065
خارق	9066
##ication	9067
خصوصا	9068
بحرین	9069
پرسیدم	9070
##ings	9071
مهاجم	9072
می‌دارد	9073
محافظه	9074
##تونم	9075
لینوکس	9076
دانستند	9077
۱۵۰	9078
پوسته	9079
1970	9080
قاعد	9081
علاقمند	9082
مقدماتی	9083
ژنتیک	9084
امتداد	9085
نمی‌دانند	9086
سحر	9087
وسوسه	9088
رطوبت	9089
bu	9090
hp	9091
رشت	9092
سکته	9093
فین	9094
فاس	9095
لاک	9096
کافه	9097
##نستان	9098
##لۀ	9099
##عب	9100
##ارتی	9101
میاد	9102
کهن	9103
می‌بایست	9104
##تیو	9105
##یتور	9106
پیشبرد	9107
بینم	9108
##گیرند	9109
بزنم	9110
کمک‌های	9111
زنانه	9112
زنبور	9113
همانگونه	9114
ریخته	9115
##ley	9116
حمایتی	9117
طرفین	9118
عموما	9119
جانبه	9120
دردسر	9121
مبارک	9122
محلول	9123
میلیاردها	9124
بشکه	9125
اثری	9126
افتادن	9127
محدودیت‌های	9128
تخمک	9129
آیت‌الله	9130
قهرمانان	9131
ارمنستان	9132
رکود	9133
دستاوردهای	9134
کوشش	9135
آذربایجان	9136
ناخوشایند	9137
بندگان	9138
حروف	9139
يك	9140
کُ	9141
##بو	9142
##‌وز	9143
##‌مت	9144
##کونی	9145
##vel	9146
میت	9147
محاصره	9148
معدود	9149
سرچ	9150
الج	9151
الآن	9152
احمد	9153
تجمع	9154
هیچ‌وقت	9155
##وشند	9156
نقدی	9157
اطلاعی	9158
به‌نظر	9159
دولت‌ها	9160
جامد	9161
فعالیتهای	9162
واجب	9163
آوریم	9164
##app	9165
سرمایه‌گذاران	9166
مکانیسم	9167
سامان	9168
قدرتی	9169
می‌بینم	9170
ass	9171
سپاسگزار	9172
ديگر	9173
دیکتاتوری	9174
غریبه	9175
46	9176
كشور	9177
##tr	9178
##لَ	9179
##hd	9180
درخش	9181
می‌اند	9182
##رافت	9183
نیافت	9184
نیوزی	9185
توالت	9186
دوگانه	9187
دستکاری	9188
اسکی	9189
##ومتی	9190
مردانه	9191
اطرافی	9192
نمایشی	9193
علایم	9194
صحت	9195
مصرفی	9196
شیخ	9197
یافتند	9198
عباس	9199
پرسنل	9200
فلج	9201
فرماندهی	9202
پردازند	9203
شمارش	9204
پرتغال	9205
دامن	9206
استثنا	9207
مؤسسه	9208
کارآفرینان	9209
استعفا	9210
کاراکتر	9211
ag	9212
act	9213
pd	9214
اژ	9215
ترو	9216
عی	9217
فتح	9218
وه	9219
کین	9220
۷۵	9221
##یکی	9222
##ool	9223
##‌مدت	9224
##شینی	9225
##پات	9226
درهای	9227
یکم	9228
منق	9229
انس	9230
##اریا	9231
دویدن	9232
داشتنی	9233
سرشار	9234
سازه	9235
تجسم	9236
شناور	9237
ناشر	9238
##ond	9239
شکوه	9240
۱۹۲	9241
ارزش‌های	9242
ایده‌	9243
2002	9244
هفتم	9245
تایوان	9246
ارزشی	9247
شیرینی	9248
آسمانی	9249
نتواند	9250
مى‌	9251
می‌بینند	9252
متاسف	9253
دیپلمات	9254
مهربانی	9255
شکارچی	9256
نازک	9257
استرالی	9258
پیدایش	9259
intern	9260
می‌نویسد	9261
حشرات	9262
جریمه	9263
]]	9264
اَ	9265
صمیمی	9266
فاصل	9267
لاغ	9268
چم	9269
##زدهم	9270
##11	9271
##همان	9272
##يز	9273
##‌هایم	9274
محف	9275
فرقه	9276
##کیک	9277
##ery	9278
##کارا	9279
عملا	9280
##ale	9281
خواندم	9282
تفاهم	9283
بانک‌ها	9284
آسان‌تر	9285
##قدس	9286
تأثیرات	9287
توانستیم	9288
مخصوصاً	9289
کارآموزی	9290
گمشده	9291
پایداری	9292
سامانه	9293
امتیازات	9294
خلقت	9295
انحراف	9296
نیامده	9297
سیستمی	9298
موفقی	9299
نیجریه	9300
منتخب	9301
hy	9302
ده‌ها	9303
لنین	9304
لبه	9305
##ll	9306
##باتی	9307
##شوی	9308
##خود	9309
دربر	9310
راک	9311
##ابیم	9312
بیولوژیکی	9313
توانمند	9314
ترانه	9315
اسکار	9316
جهاد	9317
مجروح	9318
تبلت	9319
ارتقای	9320
##iness	9321
لیستی	9322
نمی‌توانست	9323
سخنران	9324
هفتاد	9325
سوالاتی	9326
۲۰۰۳	9327
ریاض	9328
تمایز	9329
کاربردهای	9330
موشکی	9331
مکانیکی	9332
رادیکال	9333
گذراندن	9334
۱۹۷۰	9335
برگزیده	9336
تپه	9337
مظنون	9338
49	9339
back	9340
ge	9341
par	9342
pol	9343
rec	9344
sl	9345
اورش	9346
سزا	9347
نپ	9348
پین	9349
ژنو	9350
یاران	9351
##tc	9352
##‌ک	9353
##‌کردن	9354
##شک	9355
میده	9356
ازجمله	9357
##ادش	9358
##اده‌ی	9359
##سیلی	9360
موها	9361
بیابید	9362
توماس	9363
معاف	9364
سرپرست	9365
##تواند	9366
مسلم	9367
دادید	9368
افشا	9369
رسم	9370
رویا	9371
فعلا	9372
نشینی	9373
ساعتی	9374
زبان‌های	9375
مدت‌ها	9376
دریافتی	9377
##stem	9378
بدانم	9379
خوراک	9380
##ames	9381
خشکی	9382
سلولهای	9383
فلزات	9384
زودرس	9385
بمیر	9386
فنل	9387
فرضیه	9388
پوشان	9389
نوجوانی	9390
نژادی	9391
هورمونی	9392
تظاهر	9393
می‌گفتند	9394
ايران	9395
مطبوع	9396
دایره	9397
غرور	9398
شورشیان	9399
اعلامیه	9400
شیعیان	9401
][	9402
حتا	9403
شك	9404
عث	9405
نخواهم	9406
##سام	9407
##port	9408
##!!	9409
##ریایی	9410
##فتی	9411
دوبار	9412
معادن	9413
کشند	9414
گذران	9415
جماهیر	9416
نمی‌دهند	9417
فروخت	9418
معمار	9419
##احت	9420
درمانگر	9421
هدفمند	9422
پاسخگو	9423
##iss	9424
ابزارها	9425
گویید	9426
آدم‌های	9427
گذاشتند	9428
عصبانیت	9429
ایرانیان	9430
##یمانده	9431
افزودن	9432
۱۰۰۰	9433
عمدتاً	9434
هاروارد	9435
امتناع	9436
جابجایی	9437
عده‌ای	9438
باقیمانده	9439
روزنامه‌نگ	9440
تقصیر	9441
نیوزیلند	9442
3d	9443
gro	9444
تود	9445
تونی	9446
جاهای	9447
حما	9448
غل	9449
فاشی	9450
لیم	9451
مزار	9452
۳۴	9453
۳۶	9454
##نشان	9455
##‌است	9456
##‌نامه	9457
##سالی	9458
##رود	9459
##ject	9460
میشد	9461
می‌فرماید	9462
##ازدهم	9463
توانی	9464
فرس	9465
احکام	9466
مجارستان	9467
سوابق	9468
تقویم	9469
##ons	9470
مرج	9471
منتق	9472
جانشین	9473
پارا	9474
جلوتر	9475
تفریحی	9476
##old	9477
سودان	9478
اندازه‌ی	9479
مترجم	9480
سقط	9481
شگفت‌انگیز	9482
##able	9483
طلای	9484
خانواده‌های	9485
لایحه	9486
استیو	9487
فواید	9488
قارچ	9489
اورشلیم	9490
sem	9491
we	9492
ختم	9493
زائ	9494
ساند	9495
قفسه	9496
هال	9497
کما	9498
۳۱	9499
##دها	9500
##ازان	9501
منا	9502
##گرم	9503
روزگار	9504
نامگذاری	9505
##اضع	9506
##ins	9507
کتاب‌ها	9508
دیدنی	9509
ابدی	9510
محصولاتی	9511
آرمان	9512
حسابرسی	9513
نخست‌وز	9514
تسری	9515
تسکین	9516
پاکسازی	9517
str	9518
مایه	9519
موسوم	9520
جنبه‌های	9521
می‌گویید	9522
نتوانسته	9523
منفجر	9524
کاپیتان	9525
می‌گذرد	9526
##فکران	9527
امیرالم	9528
بلوغ	9529
هردو	9530
روبه‌رو	9531
فاطمه	9532
cent	9533
mo	9534
جزی	9535
حاد	9536
فدا	9537
قریب	9538
پرز	9539
پودر	9540
چنگ	9541
##له‌	9542
##40	9543
##فری	9544
##کنید	9545
فریم	9546
تناس	9547
واقعه	9548
##کلت	9549
بنوشید	9550
دلس	9551
دلش	9552
##گویند	9553
پیراه	9554
داستان‌های	9555
انگیزی	9556
طبقاتی	9557
افسرده	9558
بخواند	9559
کریس	9560
گمرک	9561
بفهمید	9562
نيز	9563
##پرداخت	9564
استارتاپ	9565
open	9566
دانش‌آموزان	9567
تحقیر	9568
ll	9569
بخورد	9570
خفیف	9571
خمینی	9572
ظلم	9573
قز	9574
لن	9575
نگذار	9576
وَ	9577
##حده	9578
##باد	9579
##بانه	9580
##فش	9581
##cr	9582
##ُم	9583
میگیرد	9584
آنف	9585
می‌دید	9586
##گرهای	9587
توکیو	9588
کمر	9589
هیچگونه	9590
دوره‌های	9591
ناشناس	9592
به‌کار	9593
به‌جای	9594
گردان	9595
کمیت	9596
لیوان	9597
ملزم	9598
صداهای	9599
منظومه	9600
پدران	9601
حکومتی	9602
فشارهای	9603
دوستانش	9604
نهایتا	9605
##ade	9606
ویروسی	9607
شگفتی	9608
##und	9609
اعتقادات	9610
##‌ناپذیر	9611
عزیزان	9612
رونق	9613
مخلوق	9614
اسکاتلند	9615
معاینه	9616
ناقص	9617
نگیرید	9618
اثربخشی	9619
fin	9620
دپ	9621
صبور	9622
لکه	9623
وحی	9624
##قان	9625
##اجی	9626
##‌بی	9627
##عید	9628
##vi	9629
بايد	9630
بردم	9631
اینان	9632
می‌زد	9633
##ازل	9634
روبه	9635
بدنه	9636
بازه	9637
گذرد	9638
تصرف	9639
ماهوار	9640
بارگذاری	9641
تقلب	9642
گلوک	9643
معنایی	9644
سنگینی	9645
منظورم	9646
کالاها	9647
عمیقی	9648
بخوانند	9649
250	9650
پناهندگی	9651
۱۹۸۰	9652
tech	9653
دندانپزشک	9654
خانواده‌اش	9655
نابرابری	9656
aw	9657
joh	9658
mus	9659
pa	9660
آبر	9661
ذاتی	9662
رش	9663
رئ	9664
زاده	9665
سونی	9666
غروب	9667
ممل	9668
##لندی	9669
##‌سی	9670
##ns	9671
##ضم	9672
##مول	9673
##منان	9674
##‬‬	9675
انطب	9676
متکی	9677
پیک	9678
##جامد	9679
مساوی	9680
مسکونی	9681
افق	9682
بازی‌ها	9683
شنیدم	9684
ادراک	9685
پاسپورت	9686
لیسانس	9687
خوانند	9688
اساساً	9689
##roid	9690
عکس‌های	9691
دخترش	9692
بسازیم	9693
۲۰۰۱	9694
برادرش	9695
بزنیم	9696
قدمت	9697
کشاورز	9698
استادان	9699
پلاس	9700
app	9701
بفهمیم	9702
گزینه‌های	9703
##ound	9704
دزدی	9705
افراط	9706
گسترده‌ای	9707
جملات	9708
نه‌تنها	9709
تورنتو	9710
سزاوار	9711
انطباق	9712
cp	9713
cam	9714
حرار	9715
خرا	9716
عیب	9717
مینی	9718
نوی	9719
##فسی	9720
##شویی	9721
درم	9722
میگوید	9723
میرسد	9724
باخت	9725
می‌مان	9726
##ه‌شان	9727
دومی	9728
متض	9729
اسامی	9730
اسطور	9731
اسکری	9732
نوسان	9733
مردها	9734
مهلت	9735
##ایتان	9736
سوپر	9737
ناظر	9738
حسادت	9739
مختصر	9740
ایمپل	9741
##eng	9742
محصولی	9743
##ise	9744
بی‌ت	9745
اپراتور	9746
هفتگی	9747
star	9748
فارکس	9749
دعوا	9750
تحریم‌ها	9751
نیروها	9752
حدیث	9753
مؤسسات	9754
عبدالله	9755
ربطی	9756
business	9757
خداحافظی	9758
مبهم	9759
زیردریایی	9760
مجاهدین	9761
آسم	9762
بشم	9763
جوه	9764
زیتون	9765
فک	9766
ندهد	9767
نگاری	9768
یابید	9769
##‌بار	9770
##صیلی	9771
##cd	9772
##كر	9773
##ارج	9774
##اده‌ای	9775
یکسانی	9776
می‌ب	9777
می‌خو	9778
##ونم	9779
##ولف	9780
منم	9781
خوک	9782
هرچیزی	9783
ترم	9784
نظرتان	9785
اندازد	9786
مسلط	9787
نواز	9788
بزودی	9789
رویه	9790
شرکت‌کنندگان	9791
##موس	9792
بنام	9793
##ina	9794
پرین	9795
غذاهایی	9796
لیتر	9797
پنجمین	9798
سفری	9799
اتفاقاتی	9800
##وسترون	9801
خاطرنشان	9802
##ions	9803
پایین‌تر	9804
فلسفی	9805
تابعیت	9806
آن‌که	9807
آن‌قدر	9808
منحرف	9809
##aph	9810
ماهیگیری	9811
فهمیدم	9812
بیداری	9813
پدیدار	9814
apple	9815
تونس	9816
کاغذی	9817
ناامیدی	9818
هیدروژن	9819
مولکولی	9820
نروژ	9821
super	9822
اسراییل	9823
ارجاع	9824
قاعدگی	9825
[[	9826
bar	9827
gal	9828
out	9829
vis	9830
ریت	9831
شیلی	9832
فانت	9833
قبی	9834
گوار	9835
##واس	9836
##les	9837
##بک	9838
##ّل	9839
##طلب	9840
##ِر	9841
##کنی	9842
نیفت	9843
بیوتیک	9844
اسیر	9845
مهدی	9846
کشورمان	9847
مجت	9848
بارش	9849
به‌شدت	9850
بخشش	9851
دربارهٔ	9852
سایز	9853
ارقام	9854
صفات	9855
##ital	9856
مبادل	9857
عضله	9858
مطمئناً	9859
داروهایی	9860
ناراضی	9861
سردرگ	9862
عفو	9863
##فعال	9864
زمستانی	9865
كردن	9866
سوزان	9867
مهمانان	9868
رونالد	9869
افسران	9870
اعطای	9871
سنجش	9872
علاقه‌مند	9873
ناوگان	9874
رختخواب	9875
اطرافیان	9876
منتقدان	9877
جزیی	9878
حرارتی	9879
72	9880
by	9881
آمی	9882
تیز	9883
حلی	9884
ساق	9885
سانس	9886
قله	9887
##زایی	9888
##وفر	9889
##‌دهی	9890
##گشت	9891
راس	9892
کارگزار	9893
توئی	9894
دوقل	9895
هرج	9896
گرمای	9897
نیازها	9898
##وردی	9899
تعاملی	9900
یادتان	9901
دیدید	9902
آلوم	9903
شمسی	9904
مکالم	9905
بپو	9906
بسازند	9907
این‌طور	9908
آقایان	9909
off	9910
تریلیون	9911
مصاحب	9912
جامعه‌ی	9913
گذراند	9914
سهامداران	9915
۱۹۹۰	9916
کابوس	9917
##‌‌‌‌‌‌‌‌	9918
شستن	9919
system	9920
تقدیر	9921
رؤی	9922
کثیف	9923
تصدیق	9924
ایمپلنت	9925
.‏	9926
52	9927
:)	9928
sd	9929
خد	9930
عش	9931
عرق	9932
ماب	9933
مونت	9934
نامی	9935
٢٠	9936
گرافیکی	9937
##نر	9938
##نیم	9939
##فار	9940
##شمی	9941
##ys	9942
##غی	9943
##ُر	9944
درمی	9945
آمدم	9946
ترش	9947
الن	9948
پیشگام	9949
عناو	9950
##کلین	9951
مجزا	9952
ویکی	9953
کلینی	9954
پایبند	9955
بنویسم	9956
جناح	9957
نشانی	9958
##اشق	9959
فیلمبرداری	9960
##ica	9961
حکایت	9962
نمودن	9963
می‌دانستم	9964
##سیسکو	9965
می‌گوییم	9966
مامور	9967
خدایا	9968
می‌گیرید	9969
بهشتی	9970
اصطلاحات	9971
تراکنش	9972
دکور	9973
می‌خواند	9974
ببندید	9975
درایو	9976
پشیمان	9977
57	9978
day	9979
ele	9980
go	9981
sam	9982
جوری	9983
حت	9984
ذی	9985
##زند	9986
##uk	9987
##ثه	9988
##ثال	9989
##ؤمنین	9990
##میرد	9991
نیکو	9992
امگا	9993
##یافت	9994
گرمایش	9995
##شیند	9996
زندگی‌تان	9997
نداره	9998
مصری	9999
غیرمنت	10000
قابل‌	10001
##ats	10002
بدنتان	10003
شناختن	10004
عواملی	10005
بسکت	10006
مامان	10007
##بخشی	10008
سئوال	10009
تجربه‌ی	10010
manag	10011
بنگل	10012
دندانپزشکی	10013
فوراً	10014
کوانتومی	10015
ربوده	10016
فاسد	10017
استرالیایی	10018
نخست‌وزیر	10019
تسریع	10020
tw	10021
دزد	10022
قوه	10023
مچ	10024
##حاب	10025
##طار	10026
##‎‎	10027
درنظر	10028
کرده‌است	10029
بودج	10030
بیابان	10031
##گیل	10032
توهم	10033
دهکده	10034
بازیگری	10035
نمی‌خواست	10036
مصمم	10037
##ative	10038
قطره	10039
صدق	10040
جوایز	10041
رسیدیم	10042
مکان‌های	10043
مبتدی	10044
می‌رسند	10045
شاگرد	10046
دشمنی	10047
تستوسترون	10048
انتشارات	10049
پناهگاه	10050
شده‌اید	10051
دائما	10052
next	10053
معاملاتی	10054
تداخل	10055
محتویات	10056
dv	10057
تبی	10058
حیاط	10059
ــ	10060
مصد	10061
پذیرد	10062
یوتی	10063
##au	10064
##لای	10065
##‌ر	10066
##فال	10067
##90	10068
##رع	10069
##عین	10070
##bs	10071
##انسی	10072
همایش	10073
شدگان	10074
پیکسل	10075
سرنشین	10076
مسواک	10077
مردگان	10078
مهمانی	10079
اصفه	10080
جنایات	10081
رفتیم	10082
آلت	10083
گردهم	10084
بعلاوه	10085
۱۹۰	10086
##rom	10087
محتمل	10088
نکنم	10089
باورهای	10090
تفکیک	10091
نورون	10092
بازاریابان	10093
تمرین‌کنندگان	10094
int	10095
inf	10096
افزون	10097
##oot	10098
موسس	10099
##ave	10100
شایستگی	10101
هزینه‌ها	10102
اتصالات	10103
مناسبت	10104
پانل	10105
آلبرت	10106
استقرار	10107
سوئدی	10108
بنیادین	10109
##ترسید	10110
time	10111
آرشیو	10112
بلغارستان	10113
val	10114
آله	10115
بشه	10116
پاها	10117
##وعات	10118
##سوی	10119
##ner	10120
##خامت	10121
##َن	10122
##ست‌ها	10123
بهش	10124
میس	10125
بروکس	10126
اینه	10127
منکر	10128
اوپک	10129
##مایند	10130
می‌شوم	10131
##ero	10132
مستح	10133
منتهی	10134
قطبی	10135
##ظهر	10136
مانیتور	10137
معتاد	10138
دخترم	10139
طرح‌های	10140
ماندگار	10141
راستش	10142
مزاح	10143
trans	10144
می‌خواستند	10145
درازمدت	10146
۱۹۶۰	10147
ملاحظ	10148
بگذران	10149
سرماخوردگی	10150
فلوریدا	10151
##‌متحده	10152
cor	10153
ng	10154
اى	10155
تیل	10156
حول	10157
دب	10158
زدم	10159
##زدی	10160
##وام	10161
##وازی	10162
##نين	10163
##ساله	10164
##عون	10165
##گهای	10166
##پوست	10167
##كی	10168
##ستن	10169
برگرفته	10170
##وریم	10171
روت	10172
##اسم	10173
بازبینی	10174
نوبه	10175
مقت	10176
رسما	10177
ویکتور	10178
##مندانه	10179
سوژه	10180
ناآ	10181
خانوار	10182
جلد	10183
##alt	10184
سناتور	10185
امکان‌پذیر	10186
تلگرام	10187
محققین	10188
قسمت‌های	10189
عددی	10190
دعای	10191
1998	10192
انجیل	10193
خاکستری	10194
سوءاستفاده	10195
شوهرش	10196
توییت	10197
مربیان	10198
داوطلبان	10199
ردیف	10200
سلطنت	10201
دست‌کم	10202
قبیله	10203
bi	10204
css	10205
iv	10206
ro	10207
صراحت	10208
قصر	10209
موری	10210
نای	10211
پخته	10212
کاز	10213
۳۲	10214
۴۰۰	10215
##وژن	10216
##ae	10217
##حساب	10218
##اء	10219
##بن	10220
##‌شدن	10221
##سمی	10222
##ضل	10223
##iel	10224
##پول	10225
##كان	10226
رابین	10227
می‌افت	10228
کارم	10229
محکو	10230
فرضی	10231
خواهران	10232
مردانی	10233
نامند	10234
اعظم	10235
سوق	10236
پروند	10237
آموزانی	10238
تعویق	10239
پرولت	10240
بخشند	10241
گرداند	10242
حدودا	10243
ایالات‌متحده	10244
عموماً	10245
کودکتان	10246
نوشتم	10247
کیفری	10248
گوییم	10249
بانک‌های	10250
گذاشتم	10251
لوگو	10252
قراردادی	10253
بستری	10254
android	10255
جایگاهی	10256
ماجرای	10257
پرستاری	10258
حجاب	10259
الیز	10260
1960	10261
غمگین	10262
غیبت	10263
تقدیم	10264
کنجکاوی	10265
john	10266
بسکتبال	10267
mc	10268
آکو	10269
جما	10270
عرف	10271
##زیم	10272
##یی	10273
##لمانی	10274
##min	10275
##gh	10276
درود	10277
برات	10278
برترین	10279
##ه‌‌ی	10280
ایام	10281
##نگام	10282
سرس	10283
بازده	10284
بازنده	10285
مسخره	10286
تنبیه	10287
تنفسی	10288
مجری	10289
ویز	10290
تشریح	10291
##ater	10292
دوستانتان	10293
مایعات	10294
وسعت	10295
کیفی	10296
##ement	10297
##ung	10298
لغت	10299
دمشق	10300
برخاست	10301
منصوب	10302
##سازان	10303
سوسیالیستی	10304
بپذیرید	10305
پیکربندی	10306
استروئید	10307
خوشمزه	10308
##ology	10309
پیراهن	10310
bre	10311
pp	10312
صرب	10313
قید	10314
مخاب	10315
نگوی	10316
گود	10317
##جت	10318
##ca	10319
##bc	10320
##ظور	10321
##شتین	10322
مواضع	10323
تاجر	10324
##یافته	10325
پیانو	10326
##نیک	10327
مدیتی	10328
مشاهدات	10329
مسایل	10330
احیا	10331
گفتگوی	10332
بعداز	10333
##زایمر	10334
پایینی	10335
جنایی	10336
کوکی	10337
وقفه	10338
نشین	10339
نماییم	10340
آلزایمر	10341
ارواح	10342
دنباله	10343
حلق	10344
مبلمان	10345
بسي	10346
عمیقا	10347
1996	10348
آشکارا	10349
رتب	10350
تعاملات	10351
اکثرا	10352
سالیانه	10353
محاسباتی	10354
مطبوعات	10355
ببخش	10356
مدیتر	10357
ارباب	10358
امپراطوری	10359
سرچشم	10360
غلظت	10361
مناظر	10362
یوتیوب	10363
مدیتیشن	10364
77	10365
pe	10366
حائ	10367
سفت	10368
نانو	10369
چکار	10370
گیل	10371
##ai	10372
##جوری	10373
##po	10374
##com	10375
درگاه	10376
##ورن	10377
##ریك	10378
کرده‌	10379
انبا	10380
توست	10381
معط	10382
معرفت	10383
بازجویی	10384
دانسته	10385
نظارتی	10386
همهٔ	10387
هیچکدام	10388
مثابه	10389
باراک	10390
خطری	10391
شخصا	10392
علنی	10393
قابل‌ت	10394
شکو	10395
شکستگی	10396
ابن	10397
ریخت	10398
منظره	10399
سخت‌تر	10400
فرموده	10401
آمده‌اند	10402
ماندند	10403
می‌رساند	10404
نصی	10405
اختیاری	10406
برنامه‌ای	10407
تحلیلگران	10408
##نشینی	10409
فهمیدن	10410
می‌گیریم	10411
دیوارهای	10412
گذرنامه	10413
شوهرم	10414
##aster	10415
نمی‌کنید	10416
کاندوم	10417
پذیرفتن	10418
آکادمیک	10419
می‌پردازد	10420
بیاموزید	10421
معترضان	10422
مجرمان	10423
ورشک	10424
اسکریپت	10425
:”	10426
mod	10427
بگرد	10428
بوستون	10429
ذیل	10430
رایت	10431
زام	10432
فلا	10433
فسیلی	10434
وگر	10435
چر	10436
یازده	10437
##uro	10438
##لن	10439
##انه‌ی	10440
میمون	10441
برگه	10442
##راق	10443
نیکی	10444
نیاورد	10445
روتر	10446
کارفرما	10447
##زیست	10448
##انیوم	10449
اوتی	10450
امداد	10451
آمري	10452
مقص	10453
انتها	10454
زیارت	10455
دورتر	10456
نشانه‌ای	10457
اعلان	10458
بارز	10459
همانا	10460
تعالی	10461
تعرفه	10462
##کردنی	10463
کتابخان	10464
مراجع	10465
مرموز	10466
کوچک‌تر	10467
سلمان	10468
نزدیک‌تر	10469
شورا	10470
ویژه‌ای	10471
stud	10472
بزرگر	10473
همسران	10474
مرزها	10475
نشدند	10476
هیچ‌گاه	10477
می‌خورند	10478
عزیزم	10479
آیتم	10480
کنجکا	10481
ادیان	10482
همین‌طور	10483
منشأ	10484
عناوین	10485
الیزابت	10486
66	10487
es	10488
view	10489
آوار	10490
تراک	10491
ضمان	10492
هارد	10493
##وات	10494
##ti	10495
##قال	10496
##تاز	10497
##مش	10498
##آل	10499
##ئل	10500
##راض	10501
##تیکی	10502
##زیکی	10503
##‌هاست	10504
کمرب	10505
بازگو	10506
مسو	10507
مسافت	10508
##ومند	10509
##خیلی	10510
بارانی	10511
نمى	10512
بخشیده	10513
##arch	10514
موضوعاتی	10515
##itt	10516
##وستانه	10517
تصویربرداری	10518
شناسند	10519
قوی‌تر	10520
بازگشته	10521
تابش	10522
فلش	10523
مراقبت‌های	10524
##ime	10525
اورژانس	10526
1989	10527
##ife	10528
براون	10529
نمی‌دانیم	10530
##ube	10531
درحالیکه	10532
حجت	10533
ادعاهای	10534
##ــــــــ	10535
وجوه	10536
ارگانیک	10537
استعمار	10538
فیلسوف	10539
تناسلی	10540
آلومینی	10541
بروکسل	10542
cs	10543
data	10544
fda	10545
led	10546
rem	10547
sol	10548
آکس	10549
ابه	10550
تنی	10551
طری	10552
طنز	10553
عار	10554
هریک	10555
هولو	10556
کروز	10557
##بایی	10558
##چر	10559
میبین	10560
##امد	10561
آن‌هایی	10562
##کنه	10563
داوران	10564
ترفند	10565
بازمی‌	10566
انجامید	10567
نیستی	10568
ناگ	10569
سهمی	10570
آبشار	10571
موضعی	10572
فضاپ	10573
##ردهی	10574
طبقات	10575
دخیل	10576
ملیت	10577
پرداختند	10578
پارلمانی	10579
نخب	10580
رفتارها	10581
تخیل	10582
ابزارهایی	10583
برنامه‌ها	10584
۲۰۰۷	10585
مواظ	10586
پاکی	10587
قدرتمندی	10588
آپلود	10589
پرستش	10590
eng	10591
کمونیستی	10592
لحظه‌ای	10593
عظمت	10594
راهبردی	10595
بزرگراه	10596
96	10597
iot	10598
key	10599
تخصی	10600
جت	10601
زي	10602
زاد	10603
عینی	10604
نگذ	10605
هپات	10606
هضم	10607
پستی	10608
##صب	10609
##yt	10610
##ium	10611
درهم	10612
برگردد	10613
##قیقی	10614
مشمول	10615
کشش	10616
گرام	10617
رویایی	10618
مجلات	10619
بزرگسالی	10620
دوره‌ی	10621
بنای	10622
جنگ‌های	10623
انسانیت	10624
مخزن	10625
گزارشات	10626
تکلیف	10627
رقبای	10628
شناسان	10629
شخصیت‌های	10630
جستجوگر	10631
ذخیر	10632
پرتو	10633
گونه‌های	10634
آرزوهای	10635
dead	10636
بکنیم	10637
amer	10638
جرج	10639
باریک	10640
توسعه‌ی	10641
serv	10642
کبک	10643
رجوع	10644
مسالمت	10645
توئیتر	10646
تخصیص	10647
56	10648
800	10649
link	10650
تط	10651
رن	10652
سج	10653
۳۸	10654
##ail	10655
##oe	10656
##way	10657
##ware	10658
##غالی	10659
##ظره	10660
##ایای	10661
استح	10662
##ماق	10663
براین	10664
##لیقه	10665
انفر	10666
تومان	10667
دوپ	10668
متنوعی	10669
الز	10670
بازرگان	10671
اسف	10672
بسیج	10673
اصحاب	10674
باروری	10675
تولیدکننده	10676
کامپ	10677
درمان‌های	10678
گیگ	10679
خصوصاً	10680
باورن	10681
پوشه	10682
ذهنیت	10683
مشترکی	10684
موثرتر	10685
سینمای	10686
سوختگی	10687
برخوردارند	10688
ناتوان	10689
جمعیتی	10690
سوسیالیسم	10691
بشنوید	10692
محافظه‌	10693
تهاجم	10694
سیاستمدار	10695
هلندی	10696
دیکتاتور	10697
بورژوازی	10698
هالیوود	10699
آنفولان	10700
اصفهان	10701
حائز	10702
کمربند	10703
5g	10704
gps	10705
power	10706
بتا	10707
ذره	10708
مبال	10709
نئ	10710
۵۵	10711
##گستری	10712
##شتن	10713
##ابون	10714
منه	10715
##ترز	10716
رویم	10717
متد	10718
سرعتی	10719
کشنده	10720
کشیش	10721
مثانه	10722
شهدا	10723
##ونیک	10724
خانه‌ی	10725
یادبود	10726
اشباع	10727
علائ	10728
خیلی‌ها	10729
1950	10730
##مداد	10731
گزارش‌های	10732
نگهدار	10733
##ouse	10734
۲۰۰۶	10735
لوپ	10736
پروازهای	10737
چالش‌های	10738
1997	10739
تخمدان	10740
طلوع	10741
##فروشی	10742
کابین	10743
بهره‌مند	10744
نگارش	10745
شلوار	10746
دغدغه	10747
متابولیسم	10748
می‌نماید	10749
مزارع	10750
بنگلادش	10751
سرچشمه	10752
معطوف	10753
59	10754
تخته	10755
داین	10756
زوال	10757
طاق	10758
وست	10759
پاش	10760
##‌کار	10761
##يی	10762
##her	10763
##ّم	10764
##خبر	10765
##70	10766
##).	10767
##ستقیم	10768
میو	10769
برکت	10770
آنتونی	10771
##سیستم	10772
موازی	10773
خوابی	10774
بازپرداخت	10775
چیه	10776
تحقیقی	10777
نهاده	10778
ناچار	10779
آیکون	10780
مراکش	10781
گردآوری	10782
تهویه	10783
##منظور	10784
ایده‌ها	10785
تکثیر	10786
پرداختن	10787
موقتی	10788
مقام‌های	10789
نسخه‌های	10790
وسطی	10791
شانگهای	10792
کامپیوترهای	10793
مسئولین	10794
مسافرتی	10795
شایعات	10796
بویژه	10797
server	10798
عبدال	10799
نوکیا	10800
لرزه	10801
www	10802
پاراگراف	10803
فانتزی	10804
مجتمع	10805
کلینیک	10806
غیرمنتظره	10807
نخبگان	10808
هپاتیت	10809
باورنکردنی	10810
af	10811
mit	10812
mot	10813
حاج	10814
عاملی	10815
قفس	10816
۶۰۰	10817
۹۹	10818
##اوت	10819
##جور	10820
##يده	10821
برکن	10822
##ریس	10823
اوم	10824
توانمندی	10825
##خوبی	10826
دادگستری	10827
اجلاس	10828
مهد	10829
اتوما	10830
ایراد	10831
##شماری	10832
تعدیل	10833
قطعیت	10834
هنگامی‌که	10835
رابطه‌ی	10836
شركت	10837
آسیب‌پذیری	10838
##وجهی	10839
پیشرفت‌های	10840
عملکردی	10841
مایک	10842
حزبی	10843
بشرد	10844
بین‌الملل	10845
معتقدیم	10846
1994	10847
ماموران	10848
adhd	10849
عروسک	10850
امضاء	10851
نمیتواند	10852
عبارتی	10853
##الوگ	10854
چمدان	10855
امیرالمؤمنین	10856
مدیترانه	10857
وگرنه	10858
انفرادی	10859
63	10860
cn	10861
mob	10862
soc	10863
xbox	10864
your	10865
جولی	10866
حوا	10867
ذوب	10868
زین	10869
صدام	10870
لیا	10871
هام	10872
وطن	10873
کورتی	10874
‌می‌	10875
##شاری	10876
##پای	10877
##ذب	10878
##ke	10879
##َر	10880
##ینسون	10881
##ابایت	10882
##گرایان	10883
موت	10884
##تره	10885
##راست	10886
روال	10887
هاشمی	10888
سالمندان	10889
محرو	10890
حالات	10891
بازگردد	10892
مسؤ	10893
مسمو	10894
انجامش	10895
تناقض	10896
شهرک	10897
ادوارد	10898
ناظ	10899
ناچیز	10900
به‌روز	10901
پرش	10902
##ana	10903
آلن	10904
##orn	10905
متحول	10906
میانمار	10907
##سرعت	10908
جلس	10909
مصرف‌کنندگان	10910
پولدار	10911
شیطانی	10912
کانون	10913
تکنیکی	10914
بپذیرد	10915
بیمارانی	10916
سودآور	10917
تأثیری	10918
تأثیرگذار	10919
شعله	10920
خیریه	10921
میدانید	10922
دمکراسی	10923
عروق	10924
عروقی	10925
مشهورترین	10926
##ove	10927
توریستی	10928
کیهان	10929
62	10930
82	10931
hu	10932
رفیق	10933
صالح	10934
فستی	10935
ماز	10936
هان	10937
##وبه	10938
##اشته	10939
##‌اس	10940
##ve	10941
##ایجی	10942
بریم	10943
می‌بخ	10944
می‌روم	10945
منوی	10946
##ه‌داری	10947
متنا	10948
##وزف	10949
##رسون	10950
وجودی	10951
عنکب	10952
اطفال	10953
شرکت‌هایی	10954
نامر	10955
بنگر	10956
زنم	10957
اخوان	10958
نمي	10959
نمید	10960
غیرفعال	10961
به‌د	10962
##ange	10963
معماران	10964
اقتدار	10965
سنا	10966
##lex	10967
نتایجی	10968
##ولوژیک	10969
تلفظ	10970
توانایی‌های	10971
نسخه‌ی	10972
میلان	10973
ورزشکار	10974
ذهنم	10975
بگذارم	10976
189	10977
فرزندش	10978
بشوی	10979
سعادت	10980
کوهستان	10981
عکسی	10982
معلولیت	10983
کره‌	10984
رویدادها	10985
مبلغی	10986
بفهمند	10987
خلوت	10988
کابینه	10989
برمی‌گردد	10990
نمی‌داند	10991
چاقو	10992
استروژن	10993
گلوکز	10994
مبادلات	10995
تبیین	10996
مقصود	10997
اتوماسیون	10998
do	10999
fe	11000
sub	11001
حومه	11002
دند	11003
ریه	11004
لش	11005
نگری	11006
کرا	11007
۸۵	11008
##line	11009
##حد	11010
##‌ان	11011
##‌دهندگان	11012
##‌کوین	11013
##کتی	11014
##گي	11015
##كار	11016
درنهایت	11017
رام	11018
برایت	11019
موع	11020
خودِ	11021
متنی	11022
بدم	11023
کم‌تر	11024
احی	11025
بلوم	11026
ناگز	11027
حسابی	11028
##ors	11029
##rol	11030
حفاری	11031
مبدل	11032
شناسد	11033
روانپزش	11034
180	11035
شانسی	11036
##تاژ	11037
غربال	11038
اسمش	11039
شده‌ام	11040
برگردید	11041
cloud	11042
احمدی	11043
مریض	11044
آرایشی	11045
امپراتور	11046
دگرگونی	11047
فتنه	11048
مدافعان	11049
کپسول	11050
طرحی	11051
پرفروش	11052
گوسفند	11053
لاغر	11054
group	11055
مسمومیت	11056
b2	11057
che	11058
di	11059
dav	11060
har	11061
sur	11062
بلیت	11063
حوص	11064
فصلی	11065
قمار	11066
گازی	11067
##باس	11068
##‌داد	11069
##du	11070
##گاس	11071
##گاران	11072
##ِل	11073
##ئیت	11074
##َه	11075
دراین	11076
##ادور	11077
##یمن	11078
همگانی	11079
هاى	11080
آمریك	11081
حالتی	11082
##مایید	11083
سیلیک	11084
نداری	11085
کلامی	11086
ماه‌های	11087
تبعیت	11088
زمینه‌های	11089
##ony	11090
گرفتید	11091
##ann	11092
گروههای	11093
منتقد	11094
سایت‌های	11095
سخاوت	11096
آسیبی	11097
ایده‌ی	11098
##ism	11099
دقیقی	11100
مطمئنم	11101
تکنولوژیکی	11102
کلماتی	11103
برندهای	11104
فرماندار	11105
##وئل	11106
کدهای	11107
سرویس‌های	11108
read	11109
دارایی‌های	11110
میکروبی	11111
مأمور	11112
نيست	11113
crm	11114
حباب	11115
##كنند	11116
نتیجه‌ی	11117
##coin	11118
network	11119
مطالعاتی	11120
گیتس	11121
هکرها	11122
سناریو	11123
امپریالیستی	11124
درآمدی	11125
لقب	11126
آشامیدنی	11127
قزاق	11128
جماعت	11129
ضمانت	11130
عارضه	11131
فستیوال	11132
نامرئی	11133
700	11134
900	11135
]،	11136
آتل	11137
اُ	11138
جاهایی	11139
حریف	11140
سکس	11141
صل	11142
عمان	11143
فیب	11144
كتاب	11145
مفا	11146
هز	11147
واک	11148
کرات	11149
کویت	11150
گلف	11151
##زید	11152
##یع	11153
##لسی	11154
##فان	11155
##يي	11156
##hone	11157
##طف	11158
میگر	11159
کهنه	11160
استار	11161
همون	11162
کردستان	11163
##لاق	11164
ممكن	11165
اتباع	11166
چندی	11167
نمرات	11168
به‌خوبی	11169
فیلم‌ها	11170
مستعم	11171
پرداختی	11172
اقلام	11173
مخارج	11174
##ream	11175
جست‌و	11176
پرسیدن	11177
پرسیدند	11178
##ضایتی	11179
تشخیصی	11180
##پیمایی	11181
بوئ	11182
کامپیوترها	11183
فناوری‌های	11184
فرستادن	11185
rev	11186
فرایندهای	11187
شفاهی	11188
تراژ	11189
چشمی	11190
تدریجی	11191
غیرمستقیم	11192
سوسیال	11193
ناکار	11194
تسهیلات	11195
نگاران	11196
نمونه‌های	11197
استناد	11198
عکاسان	11199
بفرستید	11200
نیافته	11201
عاقلانه	11202
متاسفم	11203
فنلاند	11204
محکومیت	11205
54	11206
آرم	11207
بُ	11208
ثمر	11209
خرگ	11210
عاج	11211
غفل	11212
قرائ	11213
مرو	11214
نود	11215
کفر	11216
گنجان	11217
۳۷	11218
##sd	11219
##ram	11220
##‌گیر	11221
##تیم	11222
##راتی	11223
##ّر	11224
ازش	11225
می‌دار	11226
می‌فرست	11227
##هایم	11228
بودایی	11229
بیگ	11230
بیگان	11231
ماشینی	11232
توابع	11233
دستم	11234
تحر	11235
پسری	11236
سیگاری	11237
تصحیح	11238
بزرگتری	11239
کلر	11240
نمی‌شد	11241
نهم	11242
اعم	11243
جناب	11244
وقف	11245
جایز	11246
##رمن	11247
اهالی	11248
بالستیک	11249
دانشگاه‌ها	11250
رایان	11251
سریعا	11252
نکردنی	11253
##ett	11254
بلندتر	11255
هندوستان	11256
واکنش‌های	11257
ثروتمندان	11258
شعبه	11259
بچرخ	11260
برگردم	11261
ارزشمندی	11262
یک‌بار	11263
ناکام	11264
جابجا	11265
منفعت	11266
متشکر	11267
اسطوره	11268
دکوراسیون	11269
کنجکاو	11270
تراکم	11271
!”	11272
bro	11273
gd	11274
game	11275
ارک	11276
خونه	11277
صابون	11278
لاست	11279
نخورد	11280
گله	11281
‌شود	11282
##19	11283
##جنگ	11284
##ئول	11285
اینم	11286
بوده‌است	11287
یائ	11288
توت	11289
##داث	11290
سرود	11291
مساحت	11292
جهات	11293
.....	11294
زندگی‌ام	11295
گفتید	11296
بزرگان	11297
نمی‌بین	11298
نمی‌آید	11299
##خواهان	11300
گروه‌ها	11301
جنگنده	11302
مخف	11303
##ict	11304
ریختن	11305
چشمه	11306
اکشن	11307
یافته‌های	11308
پیشروی	11309
نمایشگر	11310
بعضی‌ها	11311
مادرید	11312
نکرده‌اند	11313
تخلف	11314
گلخانه	11315
ساختمان‌های	11316
##شاوند	11317
##‌بازی	11318
فرزندانشان	11319
رسانه‌ای	11320
آپارت	11321
کمونیسم	11322
http	11323
مداخلات	11324
بنیانگذار	11325
هجوم	11326
پیتزا	11327
خزانه	11328
اکوسیستم	11329
بیهوده	11330
مکتب	11331
عثمانی	11332
دپارتمان	11333
سانسور	11334
call	11335
if	11336
lib	11337
pet	11338
ul	11339
آشتی	11340
بداف	11341
تخیلی	11342
جری	11343
دامپ	11344
رهن	11345
سمین	11346
ضای	11347
قاشق	11348
وکار	11349
گول	11350
گانه	11351
گندم	11352
یی	11353
ید	11354
##دری	11355
##راز	11356
##yl	11357
##mer	11358
##ger	11359
##word	11360
##bl	11361
##ql	11362
رادار	11363
آنا	11364
##وانا	11365
کناره	11366
برایمان	11367
##ویش	11368
منچ	11369
##ه‌کننده	11370
خوشه	11371
##کنشی	11372
##فرین	11373
سرتان	11374
##رگذ	11375
احداث	11376
پس‌	11377
راههای	11378
##کانت	11379
ساختند	11380
فعل	11381
##ont	11382
نزاع	11383
لیپ	11384
شیک	11385
نزدیکترین	11386
پیرمرد	11387
شرطی	11388
آشفتگی	11389
آسپ	11390
آسایش	11391
مزد	11392
خودروها	11393
بلاگ	11394
پارکینسون	11395
حفاظ	11396
مخاطبین	11397
خویشاوند	11398
تازه‌ای	11399
بیاوریم	11400
api	11401
التحصیلی	11402
سوزاندن	11403
##‌جمهوری	11404
واسه	11405
ساکنین	11406
##axy	11407
##اااا	11408
پائین	11409
مفاصل	11410
تراژدی	11411
fil	11412
mag	11413
vr	11414
ارا	11415
اریک	11416
ارگان	11417
جرائ	11418
جکسون	11419
حماس	11420
خیس	11421
فید	11422
فولیک	11423
كود	11424
پز	11425
##وفی	11426
##ux	11427
##aa	11428
##15	11429
##علی	11430
##ـت	11431
##غل	11432
##ثل	11433
##ارویی	11434
##نده‌ای	11435
میرس	11436
##اهام	11437
آنالیز	11438
هموار	11439
##ه‌‌ای	11440
موثری	11441
##لاسی	11442
خوشی	11443
بیتی	11444
##انداران	11445
انتزا	11446
اجبار	11447
رویترز	11448
مجاور	11449
اطلس	11450
بلندی	11451
##inc	11452
زمانی‌که	11453
حسب	11454
قدرت‌های	11455
بازارها	11456
حلال	11457
سبد	11458
##led	11459
وزنه	11460
دنیاست	11461
ستاد	11462
پارتی	11463
خورید	11464
مفیدی	11465
عملکردهای	11466
اسپم	11467
##وتراپی	11468
ایستادن	11469
مؤمنان	11470
بخوانم	11471
فایل‌های	11472
##ute	11473
برادرم	11474
کفایت	11475
گوشی‌های	11476
پناهجویان	11477
ولتاژ	11478
##ump	11479
امتحانات	11480
هیچ‌گونه	11481
##ift	11482
نرفت	11483
ثروتمندترین	11484
##‌گرایی	11485
بنگاه	11486
مسلما	11487
بجز	11488
بیانیه‌ای	11489
القاعده	11490
بازگردانده	11491
galaxy	11492
رونالدو	11493
اوتیسم	11494
خرگوش	11495
93	11496
92	11497
cy	11498
fac	11499
king	11500
pay	11501
part	11502
sim	11503
بشار	11504
حفره	11505
راند	11506
لئون	11507
نشت	11508
نپذیر	11509
وود	11510
گا	11511
گه	11512
گلی	11513
گشود	11514
##‌رسانی	11515
##سایی	11516
##کوه	11517
##عار	11518
##عادل	11519
##ندر	11520
بهمن	11521
استانی	11522
استادی	11523
آنکارا	11524
همک	11525
کنش	11526
##ولار	11527
داروس	11528
##لاحی	11529
خوار	11530
رومانی	11531
بیکار	11532
ایوان	11533
فراری	11534
پیغم	11535
##یلت	11536
بازماند	11537
بازنگری	11538
می‌توانستم	11539
می‌توانستند	11540
می‌کشید	11541
سیارات	11542
مجرد	11543
##خیز	11544
فقرات	11545
ادارات	11546
اخطار	11547
به‌خصوص	11548
تولیدات	11549
احساساتی	11550
##یدنت	11551
سراسری	11552
محتاط	11553
پرسپولی	11554
##oll	11555
شدیدتر	11556
ویرجین	11557
سلول‌ها	11558
تفاوت‌های	11559
می‌دانستند	11560
مؤمن	11561
الکترون	11562
ماهیچه	11563
زیباست	11564
هشتاد	11565
139	11566
بستنی	11567
نتوانید	11568
کوهن	11569
##‌ساز	11570
انعک	11571
تراشه	11572
کاتال	11573
برگرداند	11574
پرستاران	11575
توقع	11576
ندیدم	11577
مطالعه‌ای	11578
colle	11579
بجنگ	11580
همدردی	11581
اکرم	11582
پیاده‌سازی	11583
جونز	11584
ترشح	11585
سجده	11586
بشردوستانه	11587
بوئینگ	11588
غفلت	11589
بدافزار	11590
53	11591
97	11592
ter	11593
tur	11594
صرافی	11595
لاس	11596
ندهند	11597
هي	11598
۳۹	11599
۴۸	11600
##ei	11601
##‌پی	11602
##رام	11603
##پایه	11604
##fer	11605
بهائی	11606
##یدگی	11607
باج	11608
برپا	11609
آنچنان	11610
##فتان	11611
انی	11612
##ه‌مان	11613
دارن	11614
ایا	11615
شدی	11616
سالمی	11617
فرای	11618
فرنگی	11619
بازدار	11620
تمس	11621
هیجانی	11622
##رایز	11623
چندگانه	11624
ادام	11625
زمینه‌ی	11626
نمایی	11627
پرنس	11628
مطالبات	11629
۲۰۲۰	11630
مستعد	11631
صداها	11632
نبودن	11633
عضوی	11634
شوکه	11635
ورزشگاه	11636
##نتیجه	11637
عفونی	11638
good	11639
پادشاهان	11640
block	11641
iphone	11642
بیندازید	11643
میکروب	11644
sci	11645
##عاده‌ای	11646
بهره‌برداری	11647
تسلیحاتی	11648
می‌گذر	11649
می‌پردازند	11650
ببخشد	11651
وجدان	11652
یارانه	11653
غافلگیر	11654
منتظره	11655
معترض	11656
زهرا	11657
مناقشه	11658
صهیونیستی	11659
متوالی	11660
استالین	11661
قزاقستان	11662
76	11663
ai	11664
cop	11665
dom	11666
gm	11667
gh	11668
high	11669
nor	11670
os	11671
vo	11672
آمیزی	11673
اپی	11674
زرا	11675
سلب	11676
طع	11677
هف	11678
پاور	11679
چاه	11680
چاره	11681
۳۳	11682
۴۲	11683
‌ای	11684
##زاد	11685
##وض	11686
##وژ	11687
##بق	11688
##به‌ها	11689
##‌در	11690
##ضباط	11691
##ga	11692
##پد	11693
##ky	11694
##ki	11695
میخواست	11696
هایمان	11697
منج	11698
بودا	11699
##یتا	11700
تائید	11701
افسان	11702
##باسی	11703
بیننده	11704
می‌کشند	11705
سازید	11706
اصیل	11707
نمی‌خواهد	11708
##ه‌یی	11709
جنج	11710
تبعید	11711
کوپ	11712
مرخصی	11713
انسان‌های	11714
آوردم	11715
بدهکار	11716
تیم‌های	11717
رسیدم	11718
عکس‌ها	11719
طولانی‌تر	11720
اقتصادهای	11721
اقتصاددانان	11722
خوردند	11723
تسلا	11724
تسخیر	11725
##oss	11726
متعارف	11727
بمانم	11728
مؤلف	11729
منحنی	11730
العمل	11731
1992	11732
قدرتمندترین	11733
نتوانند	11734
نتوانستند	11735
##ifi	11736
كردند	11737
phot	11738
نژادپرستی	11739
فلسطینیان	11740
##فرمایید	11741
تروریست‌ها	11742
عطا	11743
پالایش	11744
الکساندر	11745
می‌كند	11746
بریزید	11747
کروموز	11748
می‌مانند	11749
نگویید	11750
نصیحت	11751
آکسفورد	11752
موعظه	11753
ناگزیر	11754
غربالگری	11755
68	11756
88	11757
live	11758
su	11759
sa	11760
آج	11761
آره	11762
ائ	11763
بقی	11764
تفر	11765
جانی	11766
جاست	11767
عاری	11768
قش	11769
متی	11770
۴۴	11771
‌ی	11772
##ماه	11773
##صت	11774
##bi	11775
درخصوص	11776
##ورها	11777
مناز	11778
مناظ	11779
انضباط	11780
خودآ	11781
##راغ	11782
خوبه	11783
نیل	11784
توئیت	11785
##یلد	11786
##نیز	11787
کشورشان	11788
##کلای	11789
نامه‌ای	11790
اعماق	11791
دلت	11792
تعارض	11793
خطاهای	11794
عملاً	11795
آلفا	11796
منطبق	11797
##enn	11798
روش‌ها	11799
##ated	11800
خاصیت	11801
سایرین	11802
لیکن	11803
پنجر	11804
گستره	11805
سلیمان	11806
قیمت‌ها	11807
فرزندی	11808
دستگاهی	11809
ترسید	11810
پیامبران	11811
بازاریاب	11812
کالای	11813
میلاد	11814
نصیب	11815
خیالی	11816
هواپیماها	11817
بمانیم	11818
دانستید	11819
کوهستانی	11820
دائماً	11821
بخوریم	11822
جادوگر	11823
۱۳۹	11824
کاترین	11825
رانده	11826
آفتابی	11827
واسط	11828
بازگرداند	11829
رئیس‌جمهوری	11830
بردارند	11831
کلاهبرداری	11832
مهاجرتی	11833
غیرنظامیان	11834
پهنای	11835
ایسلند	11836
فضانوردان	11837
pdf	11838
گذرانده	11839
نویسان	11840
مکالمات	11841
مخفف	11842
بازماندگان	11843
69	11844
78	11845
book	11846
del	11847
kn	11848
max	11849
بـه	11850
جرات	11851
دکتری	11852
دایر	11853
عال	11854
فونت	11855
مزه	11856
هکت	11857
چادر	11858
ژور	11859
گشته	11860
یخی	11861
##16	11862
##‌کن	11863
##سپ	11864
##کاب	11865
##گارت	11866
##by	11867
ازآن	11868
برروی	11869
##یمتر	11870
یکسال	11871
فرعون	11872
متون	11873
معاش	11874
##یله	11875
مدد	11876
پیشی	11877
افقی	11878
انتح	11879
رویارویی	11880
##وشیمی	11881
قدس	11882
سهولت	11883
بخش‌هایی	11884
سپرد	11885
اقوام	11886
##alk	11887
شکل‌گیری	11888
##rome	11889
پرسشنامه	11890
رخداد	11891
بسوز	11892
روانشناختی	11893
نهایتاً	11894
بلندترین	11895
فلسف	11896
##وزیسیون	11897
دندان‌های	11898
اثرگذ	11899
قهو	11900
تریلر	11901
بیت‌کوین	11902
add	11903
رزمی	11904
یكی	11905
شبکه‌ی	11906
ناساز	11907
میرود	11908
کتک	11909
اهدافی	11910
360	11911
بپذیریم	11912
التهابی	11913
ibm	11914
هیلاری	11915
market	11916
فراموشی	11917
منحصرب	11918
محفوظ	11919
نگذارید	11920
techn	11921
سردرگمی	11922
تطابق	11923
علائمی	11924
!؟	11925
74	11926
98	11927
mi	11928
ty	11929
دنده	11930
شوق	11931
شامپ	11932
عزم	11933
لثه	11934
مفت	11935
ممان	11936
مرس	11937
نخورده	11938
کج	11939
کجای	11940
یگانه	11941
##‌الت	11942
##‌دهند	11943
##يک	11944
##مات	11945
##ble	11946
##انیت	11947
##ارها	11948
##ارزش	11949
میخواهم	11950
##الیا	11951
منس	11952
تاجی	11953
دیزنی	11954
ترانس	11955
پیشانی	11956
مقوله	11957
همچین	11958
راهپیمایی	11959
کسری	11960
زناش	11961
بلع	11962
خانه‌ها	11963
هنج	11964
تعج	11965
دوستانی	11966
حسینی	11967
سازمانهای	11968
##ara	11969
جهانیان	11970
شمرده	11971
تهوع	11972
چهارده	11973
بیماری‌ها	11974
محدودیتی	11975
واکنشی	11976
سلیم	11977
نزدیکتر	11978
##بریج	11979
کافیست	11980
لحن	11981
موقعی	11982
امیدواری	11983
آسیب‌پذیر	11984
ورق	11985
نوشته‌های	11986
حقیقتا	11987
درآمدهای	11988
##ider	11989
anal	11990
ببرم	11991
فرمانرو	11992
1991	11993
160	11994
؟».	11995
مکانیزم	11996
اورانیوم	11997
می‌خند	11998
spe	11999
هزینه‌ی	12000
##‌یابی	12001
سوزن	12002
who	12003
نرسید	12004
سه‌شنبه	12005
درآمده	12006
بنشینید	12007
مشهود	12008
هوشیار	12009
design	12010
لعنت	12011
سوئیچ	12012
پرزیدنت	12013
جوهر	12014
ویکتوریا	12015
پرولتاریا	12016
زامبی	12017
آلومینیوم	12018
ابهام	12019
آنفولانزا	12020
jav	12021
uv	12022
شرا	12023
شطر	12024
طرد	12025
فمینی	12026
لیت	12027
لیب	12028
نمانده	12029
نترسید	12030
‏‏	12031
##ls	12032
##air	12033
##بخش	12034
##‌ه	12035
##کد	12036
##mp	12037
##ck	12038
##چاله	12039
##۵۰	12040
##ارند	12041
بهت	12042
میانی	12043
##اهل	12044
آنار	12045
می‌ان	12046
##هاب	12047
کارزار	12048
دهه‌های	12049
شدیدا	12050
فرید	12051
فرآوری	12052
معال	12053
الس	12054
بازت	12055
داده‌ایم	12056
مردن	12057
سواد	12058
بیش‌تری	12059
##ane	12060
##arn	12061
جلال	12062
حرف‌های	12063
فعالیت‌ها	12064
طرفه	12065
تکاملی	12066
خبرهای	12067
نشده‌اند	12068
شاهکار	12069
##راحتی	12070
تحلیلگر	12071
نارضایتی	12072
اعتقادی	12073
قابلیت‌های	12074
پناهنده	12075
راحت‌تر	12076
عقب‌	12077
##ipt	12078
آبیاری	12079
##اوات	12080
اشکالی	12081
می‌سازند	12082
بفهمد	12083
درختی	12084
##پردازی	12085
بيشتر	12086
بسپارید	12087
فعالیتی	12088
wordpress	12089
hpv	12090
مطبوعاتی	12091
صربستان	12092
مواظب	12093
می‌بخشد	12094
گنجانده	12095
cv	12096
light	12097
آئ	12098
اکانت	12099
بِ	12100
ثباتی	12101
زوده	12102
ساس	12103
صوت	12104
طن	12105
لام	12106
لاز	12107
لخته	12108
مانی	12109
پوس	12110
پازل	12111
چاله	12112
یور	12113
##وچ	12114
##وفق	12115
##sm	12116
##‌ف	12117
##يند	12118
##cp	12119
##gb	12120
##br	12121
بادام	12122
##اتو	12123
##اتان	12124
آنطور	12125
##هایتان	12126
##ویک	12127
نیش	12128
بیافتد	12129
##یتو	12130
ایی	12131
امیدی	12132
دیواری	12133
دیشب	12134
متا	12135
استفراغ	12136
کشم	12137
بازهم	12138
##بره	12139
##افرا	12140
نوظه	12141
نامعل	12142
آمریکاست	12143
##eral	12144
فقرا	12145
##اکو	12146
جنرال	12147
تقوا	12148
اشار	12149
آبجو	12150
سیستماتیک	12151
فیلمنامه	12152
حالی‌که	12153
ملایم	12154
آزمایش‌های	12155
جوانب	12156
حکیم	12157
برخورداری	12158
اختیارات	12159
موقعیت‌های	12160
۲۰۰۴	12161
1995	12162
چاپی	12163
چنانکه	12164
##عمول	12165
سرزمینی	12166
آینده‌ای	12167
فارغ‌الت	12168
arch	12169
appl	12170
گفتگوهای	12171
برگردیم	12172
end	12173
نرفته	12174
بنویسد	12175
##‌گرا	12176
##ourn	12177
cry	12178
بشناسیم	12179
نتیجه‌گیری	12180
بهره‌وری	12181
استودیوی	12182
منفرد	12183
برمی‌گرد	12184
کبدی	12185
کریستال	12186
مشروط	12187
##gram	12188
bitcoin	12189
جواهرات	12190
پرخاش	12191
##این‌حال	12192
اژدها	12193
ایده‌آل	12194
معافیت	12195
زائد	12196
جزییات	12197
##‌رغم	12198
ناظران	12199
david	12200
سیلیکون	12201
جرائم	12202
67	12203
86	12204
dns	12205
mer	12206
mult	12207
tom	12208
work	12209
»؛	12210
؟‏	12211
شیب	12212
شکننده	12213
شصت	12214
صفت	12215
صخره	12216
ضخیم	12217
عود	12218
غلات	12219
فقه	12220
مَ	12221
ژئو	12222
کینگ	12223
یازدهم	12224
۶۴	12225
##دارد	12226
##سگی	12227
##رامی	12228
##مادی	12229
##غت	12230
##پایان	12231
درها	12232
درنتیجه	12233
اینصورت	12234
##ورهای	12235
می‌روید	12236
منب	12237
توکن	12238
داور	12239
ایفای	12240
امین	12241
بدبختی	12242
##برابر	12243
پیش‌تر	12244
اجاز	12245
اجزا	12246
سیتی	12247
نامزدی	12248
ناموفق	12249
اصولی	12250
دوره‌ای	12251
نمی‌شناس	12252
نشان‌دهنده	12253
جنون	12254
بلک	12255
مصون	12256
نافر	12257
ناحی	12258
تقابل	12259
نشری	12260
فروید	12261
##ari	12262
مطالبی	12263
مختر	12264
بدنبال	12265
خطرناکی	12266
آرتر	12267
بانکوک	12268
آسیب‌	12269
نوشتار	12270
##ask	12271
بردگی	12272
قدیمی‌ترین	12273
متعجب	12274
فلان	12275
##ution	12276
1993	12277
مهندسین	12278
آداب	12279
سعید	12280
چینی‌ها	12281
chr	12282
تکنیک‌های	12283
جامعه‌ای	12284
بیاورم	12285
نمی‌دانست	12286
استقامت	12287
می‌شناخت	12288
۲۵۰	12289
خانواده‌ها	12290
دوزهای	12291
لهستانی	12292
عرص	12293
میرند	12294
ندادند	12295
##کوپتر	12296
شستشوی	12297
استیون	12298
smart	12299
غیرد	12300
کنسولگری	12301
انقراض	12302
iii	12303
پیاده‌روی	12304
##form	12305
تدارک	12306
دمکراتیک	12307
الجزایر	12308
semalt	12309
گردهمایی	12310
آمريکا	12311
دایناس	12312
یائسگی	12313
دامپزش	12314
پیغمبر	12315
پرسپولیس	12316
فارغ‌التح	12317
dig	12318
god	12319
life	12320
mp	12321
بين	12322
تله	12323
خلال	12324
ضخامت	12325
غد	12326
غارت	12327
مگه	12328
وکلای	12329
یانگ	12330
‌است	12331
‏‎	12332
##نید	12333
##اگونی	12334
##‌گری	12335
##ملی	12336
##مدی	12337
بران	12338
##امن	12339
##وره	12340
خودخواه	12341
بیلی	12342
تاسف	12343
##انیان	12344
معینی	12345
##فرستند	12346
سرن	12347
ترمز	12348
##اختن	12349
داده‌اید	12350
تحریف	12351
نوح	12352
رسالت	12353
احراز	12354
گفتنی	12355
ادار	12356
سومی	12357
زیرنویس	12358
مصالح	12359
سهیم	12360
به‌دن	12361
کتابهای	12362
شکوف	12363
##راهای	12364
نیرویی	12365
نیرومند	12366
کلیپ	12367
گزارشگر	12368
پذیرایی	12369
مشخصه	12370
سریعترین	12371
خوابگاه	12372
بانوی	12373
روانشناس	12374
توضیحی	12375
بردارد	12376
اپوزیسیون	12377
inc	12378
هفته‌ای	12379
شیری	12380
##ose	12381
نارنجی	12382
حوزه‌های	12383
پژوهشگر	12384
علی‌رغم	12385
توربین	12386
تداب	12387
کیلو	12388
رویکردی	12389
دیوارها	12390
پنجه	12391
تزئین	12392
تیروئید	12393
##ebook	12394
##‌مانده	12395
ارمنی	12396
بنویسند	12397
فیلترهای	12398
ناامنی	12399
ناهنج	12400
تعمیرات	12401
شستشو	12402
نگفته	12403
مطالعه‌ی	12404
فرماندهان	12405
##mail	12406
بگم	12407
سرنگونی	12408
متضاد	12409
عشقی	12410
بگذرانید	12411
آکواری	12412
بسيار	12413
لیاقت	12414
قرائت	12415
انتزاعی	12416
هکتار	12417
شطرنج	12418
نوظهور	12419
79	12420
cb	12421
cal	12422
how	12423
ob	12424
ra	12425
آلیس	12426
بولی	12427
بفرمایید	12428
سس	12429
ظال	12430
فاض	12431
فوک	12432
فقیه	12433
قاه	12434
کـه	12435
۴۱	12436
‎‏	12437
##زون	12438
##وماً	12439
##سفر	12440
##تایی	12441
##ضر	12442
##آیند	12443
##fc	12444
##٠٠	12445
##اینده	12446
##ستین	12447
##ینز	12448
میخواهد	12449
میتون	12450
میهمان	12451
##ودن	12452
براند	12453
موظ	12454
مواز	12455
داران	12456
نیتر	12457
باشکوه	12458
بیس	12459
داود	12460
امثال	12461
کندی	12462
متفکر	12463
سرفه	12464
ترمین	12465
##وزه	12466
مشی	12467
##برند	12468
پیشگویی	12469
روزافز	12470
تنفر	12471
مهیا	12472
زندگی‌اش	12473
ارتکاب	12474
نمیدان	12475
فعالانه	12476
عمودی	12477
حسگر	12478
دلیلش	12479
##alth	12480
وقت‌ها	12481
واگن	12482
سلطان	12483
مرتبا	12484
بانوان	12485
صرفه‌	12486
سویا	12487
آشفته	12488
بی‌س	12489
پیام‌های	12490
تشکیلات	12491
اسپری	12492
عدالتی	12493
تصورات	12494
قلبم	12495
ایستادگی	12496
کافر	12497
۲۰۰۲	12498
حزب‌الله	12499
مشارکتی	12500
نگرانی‌های	12501
فن‌آوری	12502
ولز	12503
reg	12504
عروس	12505
بپردازیم	12506
وحشتناکی	12507
مدرکی	12508
موشک‌های	12509
enter	12510
leg	12511
یکپارچ	12512
اشخاصی	12513
قبرس	12514
##uck	12515
توریست	12516
وصف	12517
بقایای	12518
سرنگون	12519
وکلا	12520
اسکیز	12521
international	12522
ریتم	12523
حوصله	12524
هيچ	12525
انتحاری	12526
ممانعت	12527
زناشویی	12528
po	12529
ver	12530
آدر	12531
سودی	12532
ساده‌ای	12533
صوم	12534
صحی	12535
لرزش	12536
نفه	12537
واری	12538
کرسی	12539
##یبت	12540
##tube	12541
##‌ع	12542
##‌انگی	12543
##ضاح	12544
##پال	12545
##پایی	12546
##ینگی	12547
میخواهند	12548
##یمه	12549
آنات	12550
می‌فرو	12551
##ونیا	12552
نیو	12553
سالاد	12554
هستن	12555
محوری	12556
آماده‌	12557
##اقل	12558
مدینه	12559
کمبریج	12560
کشیدند	12561
اسماع	12562
##خوار	12563
تنبا	12564
رسوایی	12565
بخرند	12566
ایرلندی	12567
پروانه	12568
جنگجویان	12569
##rop	12570
تکنسین	12571
جوابی	12572
نکردیم	12573
مبانی	12574
نمی‌توانستم	12575
##eth	12576
بی‌نظ	12577
شناسیم	12578
تهدیدهای	12579
سودآوری	12580
نابینا	12581
آن‌را	12582
پرتقال	12583
گوناگونی	12584
##ular	12585
##سلمین	12586
حکمرانی	12587
اتمسفر	12588
blue	12589
ریاست‌جمهوری	12590
خلع	12591
دوزخ	12592
اسیدهای	12593
مؤسس	12594
جابز	12595
تومورهای	12596
##irect	12597
اقلیم	12598
شیوه‌های	12599
راهکارهای	12600
سرمربی	12601
۱۹۳۰	12602
نیامد	12603
انقبا	12604
مشهد	12605
ساندویچ	12606
رشدی	12607
پرینتر	12608
طریقی	12609
استحکام	12610
##عادلانه	12611
زودهنگام	12612
اسماعیل	12613
::	12614
cle	12615
dc	12616
fall	12617
mid	12618
pal	12619
vir	12620
wr	12621
بق	12622
بخت	12623
جنی	12624
ساک	12625
قاط	12626
پاتر	12627
کمان	12628
کشاند	12629
۸۰۰	12630
##اونی	12631
##لینگ	12632
##بلی	12633
##‌سال	12634
##‌گذاران	12635
##ّد	12636
##گد	12637
##vc	12638
میگویند	12639
راکت	12640
آنتن	12641
##ریل	12642
کردها	12643
##ه‌‌های	12644
##ه‌تری	12645
##کنم	12646
بیف	12647
دوستم	12648
هرحال	12649
دیواره	12650
معانی	12651
معضل	12652
مدنظر	12653
بازوی	12654
نوت	12655
##erg	12656
خانه‌ای	12657
کوب	12658
##وبیا	12659
##arm	12660
ایمیلی	12661
شمع	12662
لیز	12663
##ican	12664
مکزیکی	12665
محتو	12666
حساب‌های	12667
مهارتهای	12668
مرحوم	12669
ins	12670
186	12671
فوتب	12672
لوئیس	12673
##urity	12674
دروغین	12675
فرزندانش	12676
خانم‌ها	12677
وعده‌های	12678
کلیدهای	12679
کانال‌های	12680
ژنراتور	12681
1986	12682
معلول	12683
برنامه‌نویسی	12684
conn	12685
برگردند	12686
خانواده‌ی	12687
رمانتیک	12688
مسلحانه	12689
نمادین	12690
موافقم	12691
##ike	12692
می‌شناسم	12693
متغیرهای	12694
امانت	12695
برگزید	12696
بخوابید	12697
نقطه‌ای	12698
هوشیاری	12699
محرومیت	12700
میگرن	12701
حفاظتی	12702
آنارشی	12703
4k	12704
5000	12705
61	12706
bm	12707
gold	12708
tre	12709
آواره	12710
بوم	12711
خاد	12712
خوری	12713
خیز	12714
ظروف	12715
علف	12716
غو	12717
قائ	12718
##ومیت	12719
##oad	12720
##لوب	12721
##گوس	12722
دردی	12723
میگیر	12724
میگردد	12725
بااین‌حال	12726
برهم	12727
اینحال	12728
آنزیم	12729
منشا	12730
##ه‌ال	12731
##راکی	12732
نیکل	12733
توح	12734
فرعی	12735
داشته‌	12736
مشروع	12737
بازدهی	12738
##برید	12739
زمان‌های	12740
انتفاعی	12741
مهره	12742
اتلاف	12743
##شنه	12744
بخرم	12745
دارندگان	12746
مثالی	12747
نمی‌خواهیم	12748
نمی‌رسد	12749
ادای	12750
##کارانه	12751
تعبیه	12752
تعصب	12753
تعاونی	12754
غیرع	12755
##فیس	12756
سیاستی	12757
تلاش‌ها	12758
بالاست	12759
کمیاب	12760
کنترلی	12761
##پیچ	12762
گزارش‌ها	12763
شیء	12764
خواستیم	12765
مناسبات	12766
».[	12767
مرتفع	12768
نخوان	12769
آزادسازی	12770
اقتصاددان	12771
هفته‌ی	12772
دریغ	12773
سفیدپوست	12774
قوانینی	12775
188	12776
اندازه‌ای	12777
پژوهش‌های	12778
##ـــ	12779
دشوارتر	12780
140	12781
تعطیلی	12782
adv	12783
ارزان‌تر	12784
1979	12785
آموختن	12786
لزوماً	12787
برگشتم	12788
amaz	12789
اکسیدان	12790
بازگردند	12791
رمضان	12792
ویدئوی	12793
بشنوند	12794
##میلیون	12795
شیوه‌ای	12796
previ	12797
عاقبت	12798
ویلیامز	12799
معایب	12800
امپریالیسم	12801
كمك	12802
شبیه‌سازی	12803
معصوم	12804
سرسخت	12805
بعدازظهر	12806
احیای	12807
##‌دادن	12808
انعکاس	12809
کروموزوم	12810
قشنگ	12811
previous	12812
cra	12813
doc	12814
ig	12815
lab	12816
sil	12817
will	12818
ارگ	12819
بترس	12820
تك	12821
ثانی	12822
زان	12823
ستی	12824
ویا	12825
گار	12826
۴۷	12827
۹۵	12828
##si	12829
##to	12830
##اعات	12831
##‌گذار	12832
##تای	12833
##32	12834
##کانی	12835
##ک‌های	12836
##کاست	12837
##جز	12838
##جاز	12839
##dl	12840
بروس	12841
##ردام	12842
##اتید	12843
##ماسی	12844
موم	12845
##روزی	12846
کارگیری	12847
ماف	12848
هائی	12849
شده‌ایم	12850
##ایدار	12851
دیابتی	12852
نمیکند	12853
##اقعی	12854
مدف	12855
بدو	12856
الکلی	12857
مساج	12858
##کرون	12859
اتاقی	12860
سازش	12861
گفته‌ی	12862
مجانی	12863
ساختگی	12864
مصیبت	12865
##بودی	12866
نمادی	12867
دوستت	12868
شبه‌	12869
علایق	12870
آلاینده	12871
مستغ	12872
دنبالش	12873
فضل	12874
مرگش	12875
رنگ‌های	12876
دستگاه‌ها	12877
##نوتی	12878
روشنفکران	12879
##ility	12880
کوتاه‌مدت	12881
عقید	12882
فیزیولوژیکی	12883
stat	12884
ang	12885
بشوند	12886
شاغل	12887
ابرها	12888
کلاس‌های	12889
##‌به‌	12890
بندگی	12891
افزارهای	12892
میکنه	12893
بستگان	12894
شایعه	12895
رزومه	12896
بپرسند	12897
مضمون	12898
سرورهای	12899
پروژه‌ها	12900
استثمار	12901
مأموران	12902
ممنونم	12903
youtube	12904
میکردند	12905
پهل	12906
گناهی	12907
حصول	12908
آویزان	12909
تنیس	12910
mobile	12911
مازاد	12912
تاجیک	12913
نامعلوم	12914
قاهره	12915
صرفه‌جویی	12916
مساجد	12917
3000	12918
code	12919
don	12920
fir	12921
file	12922
je	12923
san	12924
ssl	12925
،"	12926
آهنی	12927
بخواهم	12928
خاکی	12929
خمیر	12930
دلب	12931
سلیقه	12932
شریف	12933
ضعی	12934
فكر	12935
قشر	12936
كسی	12937
٪)	12938
یوح	12939
##اوا	12940
##به‌های	12941
##راب	12942
##جوهای	12943
##ham	12944
##ds	12945
##پرو	12946
##za	12947
بهین	12948
بهادار	12949
استعف	12950
اینچی	12951
اینكه	12952
##ونین	12953
موادی	12954
##لافی	12955
##اسازی	12956
##‌هایتان	12957
دیو	12958
معلق	12959
##فرینی	12960
ترجم	12961
##کره	12962
پیشینه	12963
##الیف	12964
نمی‌خواهند	12965
شنود	12966
##رهیز	12967
بارگیری	12968
به‌م	12969
به‌سرعت	12970
پرطرف	12971
پرتره	12972
دریافته	12973
##ene	12974
لیور	12975
##itch	12976
آسیاب	12977
مکعب	12978
انتظاری	12979
جوجه	12980
رقبا	12981
فیفا	12982
نوروز	12983
بی‌ث	12984
کافران	12985
مهاجرین	12986
امیدوارند	12987
##ush	12988
الکترود	12989
الکتروم	12990
تمایلی	12991
عمیق‌تر	12992
محکمی	12993
پنهانی	12994
جعل	12995
project	12996
۱۹۹۸	12997
نمی‌دانید	12998
##ubl	12999
می‌‌کند	13000
انتقادات	13001
تیپ	13002
plus	13003
جغراف	13004
پدری	13005
جرمی	13006
همان‌گونه	13007
دانشگاهیان	13008
##رسدس	13009
لااقل	13010
زندگیتان	13011
خشنود	13012
glob	13013
ابریشم	13014
ساده‌تر	13015
##ency	13016
شنونده	13017
##افزاید	13018
school	13019
روزنامه‌نگاران	13020
مبالغ	13021
بلومبرگ	13022
ژورنال	13023
تعجبی	13024
++	13025
>>	13026
cat	13027
city	13028
mode	13029
so	13030
tv	13031
xml	13032
»[	13033
آرس	13034
زو	13035
زرق	13036
شرو	13037
فون	13038
لج	13039
مرسدس	13040
هیر	13041
ورا	13042
یگان	13043
##جاب	13044
##يب	13045
##موم	13046
##mm	13047
##hu	13048
##ئیم	13049
##ئینی	13050
##كز	13051
##ستا	13052
در‌	13053
##یدر	13054
استغ	13055
باخبر	13056
بروی	13057
برندگان	13058
##ورانه	13059
##دهیم	13060
##ولید	13061
دوجانبه	13062
##داق	13063
پیشت	13064
معادله	13065
انجامد	13066
احسان	13067
بخند	13068
شرکتها	13069
نام‌های	13070
نامطل	13071
بزرگوار	13072
شنوید	13073
سوخته	13074
##شهر	13075
جنازه	13076
آموزد	13077
گرفتگی	13078
##0000	13079
ارائه‌	13080
مطالبه	13081
کامرون	13082
انسانهای	13083
کوچولو	13084
حدوداً	13085
مسئله‌ی	13086
##کوپی	13087
آغازین	13088
مغاز	13089
خواسته‌های	13090
لبنی	13091
##ision	13092
مارکت	13093
دخترها	13094
حقیقتاً	13095
##عاع	13096
اسرائيل	13097
روانشناسان	13098
ماشین‌های	13099
ذهنتان	13100
##قدرت	13101
مایلی	13102
پلان	13103
شخصیت‌ها	13104
داروخانه	13105
دوربین‌های	13106
تمایلات	13107
دیدگاه‌های	13108
کدوم	13109
پردازیم	13110
170	13111
هیچ‌کدام	13112
کرون	13113
پیوندهای	13114
طلبی	13115
تراش	13116
مخفیانه	13117
دوستیابی	13118
تجربه‌ای	13119
می‌شناسند	13120
پویایی	13121
نمی‌کردم	13122
بفروشد	13123
گیتار	13124
***	13125
بپیوندید	13126
بولتون	13127
نیوزلند	13128
جاودانه	13129
تشنج	13130
free	13131
وهله	13132
گمرکی	13133
آتلان	13134
لاستیک	13135
ضایعات	13136
موظف	13137
اسکیزوفر	13138
مستغلات	13139
bat	13140
journ	13141
log	13142
men	13143
map	13144
over	13145
opt	13146
py	13147
pat	13148
pers	13149
»(	13150
ذرت	13151
رفق	13152
زدایی	13153
سزار	13154
شتر	13155
لار	13156
مکه	13157
هاب	13158
پرب	13159
پشیم	13160
۴۳	13161
##‌داری	13162
##‌زا	13163
##ساری	13164
##--	13165
درح	13166
راه‌هایی	13167
##الا	13168
اینو	13169
##ریش	13170
##گراد	13171
##ترن	13172
##لاط	13173
رواج	13174
##ختند	13175
توانبخشی	13176
خواهرش	13177
مدلی	13178
##اردو	13179
قرضه	13180
الْ	13181
پیشگیرانه	13182
گفتی	13183
مجرم	13184
##ورتان	13185
اصالت	13186
نمی‌فه	13187
نهادی	13188
ماهگی	13189
مصوب	13190
ارتجا	13191
##شمار	13192
به‌وجود	13193
به‌منظور	13194
به‌راحتی	13195
فکرش	13196
بدنش	13197
ارثی	13198
پاسخگوی	13199
##کوبی	13200
سخنی	13201
خوشش	13202
##ster	13203
انتقالی	13204
محیط‌	13205
سختگیرانه	13206
##els	13207
ورژن	13208
می‌خواهی	13209
آشوب	13210
بی‌گ	13211
فراغت	13212
تمرینی	13213
اپرا	13214
##حلال	13215
می‌آموز	13216
##ada	13217
##iver	13218
میلر	13219
بازگشایی	13220
پلیم	13221
خودمخت	13222
187	13223
صبحگاهی	13224
کاشته	13225
سردبیر	13226
حوزه‌ی	13227
##ures	13228
پسرها	13229
سرمایه‌گذار	13230
میکنی	13231
اروپایی‌ها	13232
اونا	13233
char	13234
رویکردهای	13235
كنیم	13236
دیپل	13237
رازهای	13238
خانواده‌ام	13239
##‌افزاری	13240
استعدادهای	13241
عقلانی	13242
می‌یابند	13243
سوسیالیست	13244
تایلندی	13245
فاجع	13246
فوق‌العاده‌ای	13247
آندروید	13248
پهپ	13249
همدلی	13250
وانمود	13251
کیهانی	13252
شریعت	13253
نکته‌ای	13254
میخوام	13255
پوشانده	13256
رتبه‌بندی	13257
متشکرم	13258
اراضی	13259
ائمه	13260
مناظره	13261
به‌دنبال	13262
آکواریوم	13263
فاضل	13264
انقباض	13265
()	13266
01	13267
58	13268
73	13269
89	13270
bas	13271
bur	13272
sou	13273
vol	13274
تذکر	13275
دشت	13276
رزم	13277
سلف	13278
شهاب	13279
غرفه	13280
غوطه	13281
وي	13282
پت	13283
کاک	13284
کادر	13285
کرایه	13286
گلب	13287
۵۲	13288
##وگ	13289
##وشد	13290
##tps	13291
##دیت	13292
##‌اید	13293
##تش	13294
##طرب	13295
##fr	13296
می‌پذیر	13297
می‌جنگ	13298
کارتر	13299
اومد	13300
هاوایی	13301
##گاه‌های	13302
بازمی	13303
گرای	13304
گرایانه	13305
##وندا	13306
##ومتر	13307
روزهایی	13308
افشای	13309
اجداد	13310
احض	13311
......	13312
کشور‌های	13313
سیزده	13314
##اتیو	13315
2030	13316
ناعادلانه	13317
دلپذیر	13318
به‌س	13319
##یسون	13320
مراد	13321
##وطی	13322
##احب	13323
نزول	13324
مسئولی	13325
مسئله‌ای	13326
##بردار	13327
میلیونها	13328
ملتی	13329
هنگامیکه	13330
موجودیت	13331
رنگین	13332
رنگ‌ها	13333
دقیقه‌ای	13334
مانعی	13335
مبادا	13336
مستقیمی	13337
##جومی	13338
مرحله‌ی	13339
آورم	13340
بسط	13341
پوشاک	13342
باقی‌مانده	13343
دریچه	13344
درواز	13345
سیاه‌پ	13346
عصاره	13347
برجست	13348
هشتگ	13349
##‌سوزی	13350
آینده‌ی	13351
##ards	13352
search	13353
تردیدی	13354
سوزش	13355
برزیلی	13356
بومیان	13357
##طبیعی	13358
پریود	13359
دایرکت	13360
آلرژیک	13361
۱۹۵۰	13362
اتریوم	13363
ایزو	13364
اکتشافات	13365
سدیم	13366
media	13367
میشل	13368
منزوی	13369
ebay	13370
می‌اندازد	13371
فداکاری	13372
دوپامین	13373
متناوب	13374
بشویید	13375
واکسین	13376
ناکارآمد	13377
مروارید	13378
ترمینال	13379
صومعه	13380
پرطرفدار	13381
down	13382
gt	13383
hum	13384
way	13385
،...	13386
؟.	13387
آرد	13388
جوزف	13389
شیل	13390
ضریب	13391
فان	13392
لور	13393
مکس	13394
مرسی	13395
نماند	13396
هشی	13397
کورت	13398
##ole	13399
##ک‌ها	13400
##ژنی	13401
##ستید	13402
باکس	13403
برسم	13404
##اتا	13405
آنی	13406
همگام	13407
منیز	13408
##گرافی	13409
نیاید	13410
روایات	13411
بیز	13412
توالی	13413
توفان	13414
دهانه	13415
دورد	13416
داشتی	13417
##بتان	13418
اسما	13419
اسمی	13420
مقیم	13421
هیچی	13422
نمی‌خواهید	13423
نمی‌داد	13424
ماه‌ها	13425
تبار	13426
تبریز	13427
به‌اند	13428
نفرین	13429
##als	13430
سایتی	13431
جزیر	13432
لیند	13433
پولس	13434
پیرو	13435
##لسون	13436
علیهم	13437
بپرهیز	13438
شناسید	13439
##آنچه	13440
ثبت‌نام	13441
اشتباهاتی	13442
پیامد	13443
پوستر	13444
مشتریانی	13445
افزاید	13446
طبقه‌ی	13447
185	13448
آدمها	13449
نارسایی	13450
پاول	13451
##ations	13452
افتادند	13453
مادورو	13454
خویشتن	13455
سوختن	13456
تفکرات	13457
prot	13458
فهرستی	13459
چارلی	13460
می‌دادم	13461
خرده‌	13462
مضطرب	13463
شادتر	13464
class	13465
اقیانوسی	13466
سیری	13467
##ource	13468
کتبی	13469
می‌شناسد	13470
بپذیرند	13471
وحشیانه	13472
واژگان	13473
می‌زنیم	13474
استعمال	13475
تاکتیکی	13476
سیدنی	13477
دستشویی	13478
control	13479
تالار	13480
security	13481
گشوده	13482
لیمو	13483
مملو	13484
مستحکم	13485
ملاحظات	13486
آوارگان	13487
science	13488
عقب‌نشینی	13489
روزافزون	13490
تنباکو	13491
لیورپول	13492
%)	13493
71	13494
84	13495
ca	13496
hot	13497
mor	13498
master	13499
sun	13500
tag	13501
test	13502
vide	13503
تشی	13504
حامله	13505
سنجی	13506
عامه	13507
لادن	13508
پاف	13509
چلسی	13510
##ler	13511
##ek	13512
##ci	13513
##گشایی	13514
##پوستان	13515
##fa	13516
##24	13517
یک‌س	13518
##وانیا	13519
##لیو	13520
منی	13521
##زیستی	13522
امامت	13523
متاهل	13524
##بیک	13525
##نیه	13526
##شانید	13527
بدلیل	13528
اسرع	13529
اساتید	13530
داده‌	13531
##گیرنده	13532
رسانند	13533
پس‌انداز	13534
رویت	13535
گفتمان	13536
تصاحب	13537
مجل	13538
کسان	13539
جدیدتر	13540
دورۀ	13541
کوسه	13542
##کرده	13543
کودتا	13544
به‌ز	13545
پردیس	13546
هدفش	13547
دانشگاه‌های	13548
##let	13549
اغراق	13550
یعق	13551
اکبر	13552
صفحه‌ی	13553
خوشایند	13554
##str	13555
تقریبی	13556
قیمت‌های	13557
##ache	13558
##reet	13559
پرسد	13560
مارش	13561
جذابی	13562
شدیداً	13563
ویراست	13564
طبقۀ	13565
184	13566
لباس‌های	13567
نابغه	13568
مهاجمان	13569
نارگیل	13570
موثرترین	13571
مساعد	13572
فرزندانتان	13573
مادام	13574
فهمیده	13575
۱۲۰	13576
1988	13577
هم‌زمان	13578
##‌نظر	13579
ناپل	13580
شکرگزاری	13581
وارن	13582
وارث	13583
لنزهای	13584
خندید	13585
ماریا	13586
ویلسون	13587
مشتاقانه	13588
ونکو	13589
گورستان	13590
محموله	13591
نشنیده	13592
انصاف	13593
اندرویدی	13594
می‌گردند	13595
تدارکات	13596
paul	13597
شکوفا	13598
بگردید	13599
american	13600
عنکبوت	13601
ویرجینیا	13602
مرسوم	13603
طناب	13604
شکوفایی	13605
مدفوع	13606
##نوتیزم	13607
یوحنا	13608
جغرافیا	13609
اسکیزوفرنی	13610
")	13611
"(	13612
83	13613
94	13614
big	13615
dem	13616
eth	13617
mr	13618
port	13619
rock	13620
she	13621
بخواب	13622
جوک	13623
ضمیم	13624
طرق	13625
عوا	13626
كل	13627
كنم	13628
لول	13629
والی	13630
یاب	13631
##ric	13632
##‌شناختی	13633
##رویی	13634
##be	13635
##bur	13636
##َد	13637
##َم	13638
##ادیم	13639
بریده	13640
##یرا	13641
کنیا	13642
##ابعی	13643
##ویو	13644
کاره	13645
##انیات	13646
دهها	13647
دهه‌ها	13648
دوب	13649
هرم	13650
پیاز	13651
##نیاز	13652
قربان	13653
الق	13654
دانشی	13655
رسوم	13656
رسماً	13657
احوال	13658
بخرد	13659
##قهر	13660
نمی‌رود	13661
##اکم	13662
زیرب	13663
.»(	13664
ناسیون	13665
خانمی	13666
ارتود	13667
انتخاب‌های	13668
##وقوع	13669
هدایای	13670
جنگند	13671
خریده	13672
خرابی	13673
خریدن	13674
1930	13675
صحرا	13676
افتند	13677
مصرف‌کننده	13678
پاسخ‌های	13679
یافته‌اند	13680
رابطه‌ای	13681
جانوران	13682
شناخته‌شده	13683
می‌کردید	13684
سخت‌ترین	13685
رقمی	13686
درخواستی	13687
تلفی	13688
##amp	13689
همکاری‌های	13690
اپید	13691
متناقض	13692
این‌قدر	13693
میلیاردر	13694
اسلاید	13695
آدم‌هایی	13696
هندو	13697
فرزندم	13698
بازگشتند	13699
داروین	13700
نابین	13701
فرآورد	13702
دروغگو	13703
##چیان	13704
اعتراضی	13705
گردشگر	13706
نشدن	13707
یونسکو	13708
1984	13709
هیچ‌یک	13710
خیابان‌ها	13711
می‌زنم	13712
افتخاری	13713
##‌جمهور	13714
استثنای	13715
tool	13716
##سیلوانیا	13717
##play	13718
لحظاتی	13719
مستندات	13720
روس‌ها	13721
بشناسند	13722
بشنود	13723
تأسیسات	13724
edition	13725
پالس	13726
co2	13727
مسلماً	13728
syn	13729
بفروشید	13730
الکسا	13731
هیپنوتیزم	13732
بفرستد	13733
همجنسگرا	13734
ساده‌ترین	13735
هلیکوپتر	13736
می‌نامند	13737
کماکان	13738
رئال	13739
ناآرامی	13740
هولوکاست	13741
زادگاه	13742
service	13743
به‌روزرسانی	13744
تمسخر	13745
منسجم	13746
معالجه	13747
منبعی	13748
آرتروز	13749
digital	13750
تدابیر	13751
ناهنجاری	13752
غواص	13753
استعفای	13754
منیزیم	13755
:‏	13756
batt	13757
dec	13758
ep	13759
hon	13760
house	13761
js	13762
od	13763
بتن	13764
خفه	13765
شین	13766
صی	13767
فاکس	13768
نك	13769
ناف	13770
هوان	13771
وانگ	13772
پرک	13773
ژل	13774
۴۶	13775
##وکار	13776
##نانی	13777
##‌ا	13778
##ney	13779
##راد	13780
##ينه	13781
##back	13782
##ئیل	13783
##كس	13784
درز	13785
درص	13786
میگیرند	13787
بروک	13788
اینچنین	13789
می‌بود	13790
می‌میر	13791
می‌چرخ	13792
منافق	13793
##ه‌بر	13794
##ترل	13795
خودتون	13796
##کنیم	13797
کارولین	13798
بیچ	13799
آماد	13800
سرشان	13801
ترقی	13802
بازنویسی	13803
بازرسان	13804
اسه	13805
اسکلت	13806
نوتر	13807
تنبل	13808
افریق	13809
اجسام	13810
بینانه	13811
هیولا	13812
هیأت	13813
ممتاز	13814
اتکا	13815
...)	13816
می‌توانی	13817
تجلی	13818
مجذ	13819
ندان	13820
نشانه‌ها	13821
اعراب	13822
قبولی	13823
زن‌ها	13824
تمامیت	13825
خانمان	13826
دلق	13827
##ines	13828
به‌ه	13829
به‌وسی	13830
کتابش	13831
کتاب‌هایی	13832
نمایه	13833
مریدان	13834
شخصاً	13835
دیدی	13836
1920	13837
##ense	13838
مدتها	13839
ابو	13840
آوردیم	13841
ملموس	13842
واقعیتی	13843
پذیرند	13844
حضوری	13845
داستان‌ها	13846
خلاء	13847
پرسند	13848
بپوشید	13849
آسیب‌های	13850
حمله‌ی	13851
نوشتاری	13852
گلو	13853
مرحله‌ای	13854
##asa	13855
پیشنهادهای	13856
کشتند	13857
ترسند	13858
##‌‌‌	13859
وسیله‌ای	13860
گویش	13861
دریابید	13862
جمهوری‌	13863
مالکان	13864
استانداردها	13865
125	13866
1500	13867
فرزندشان	13868
آتش‌سوزی	13869
##ott	13870
کاذب	13871
عاشورا	13872
چالشی	13873
خودروسازی	13874
لوگوی	13875
##ape	13876
احترامی	13877
هشدارهای	13878
تضمینی	13879
فرستنده	13880
گرانش	13881
space	13882
بخورم	13883
dev	13884
منطقه‌ی	13885
دفعات	13886
آزاردهنده	13887
شارل	13888
چکیده	13889
بیایم	13890
تیتر	13891
تجدیدپذیر	13892
https	13893
جرأت	13894
جغرافیای	13895
میدانی	13896
نمیتوانید	13897
##awei	13898
آندرو	13899
سروکار	13900
news	13901
mach	13902
مدیون	13903
مقاله‌ای	13904
نقطه‌ی	13905
##قیمت	13906
capt	13907
آرتور	13908
برانگیخته	13909
سوئیسی	13910
دمکرات	13911
موفقیتی	13912
میدهیم	13913
huawei	13914
هزاره	13915
##‌انگیزی	13916
amazon	13917
الکترومغن	13918
دیپلماسی	13919
ونکوور	13920
dark	13921
et	13922
euro	13923
nat	13924
pan	13925
page	13926
؟)	13927
اوری	13928
تروت	13929
جف	13930
دق	13931
عایق	13932
قوای	13933
لان	13934
مونی	13935
نویسم	13936
واد	13937
پيش	13938
چگ	13939
چيز	13940
گلیس	13941
یزد	13942
۷۲	13943
##زود	13944
##زلی	13945
##حاق	13946
##بوج	13947
##‌برداری	13948
##‌یافته	13949
##فورم	13950
##سند	13951
##ساد	13952
##کینگ	13953
##رج	13954
##خور	13955
##fs	13956
##َل	13957
##كل	13958
##ستگان	13959
##امتی	13960
##اهب	13961
منابعی	13962
##رویم	13963
نیوم	13964
دهلی	13965
هرز	13966
##فرض	13967
خواهرم	13968
##وزن	13969
##برای	13970
اسکان	13971
مسعود	13972
دادرسی	13973
##شنام	13974
نامت	13975
##era	13976
نهنگ	13977
پایش	13978
شونده	13979
صورتحساب	13980
##ino	13981
##شمالی	13982
مشتق	13983
عمران	13984
عمرش	13985
روشنگری	13986
##esh	13987
##ائین	13988
چهارچوب	13989
وقتش	13990
یافته‌ها	13991
نزدیک‌ترین	13992
رنگار	13993
قادرند	13994
برگشته	13995
مکان‌ها	13996
گلکسی	13997
استراتژی‌های	13998
فراخوانی	13999
تمرین‌کننده	14000
##‌آپ	14001
##‌آید	14002
تسنیم	14003
##ids	14004
ششمین	14005
قلمداد	14006
وزارتخانه	14007
مزایایی	14008
130	14009
مانده‌اند	14010
ماده‌ی	14011
سگ‌ها	14012
اونس	14013
real	14014
نیازمندی	14015
جعفر	14016
##ify	14017
هم‌چنان	14018
arm	14019
خردسال	14020
1975	14021
##فروش	14022
اختراعات	14023
غیرمعمول	14024
asp	14025
خواندند	14026
چشمانش	14027
priv	14028
اسکناس	14029
انفجاری	14030
white	14031
نتیجه‌ای	14032
عزاداری	14033
تنگه	14034
جاسوس	14035
فشاری	14036
میکردم	14037
شرمنده	14038
تصادفات	14039
اعضاء	14040
instit	14041
آرتریت	14042
هولناک	14043
میکروف	14044
فینال	14045
فاشیسم	14046
office	14047
manager	14048
آمریكا	14049
بیگانگان	14050
استغفار	14051
گلبول	14052
احضار	14053
واکسیناسیون	14054
مجذوب	14055
87	14056
cm	14057
dm	14058
loc	14059
national	14060
ol	14061
park	14062
top	14063
اشی	14064
بتر	14065
بگیری	14066
بگویی	14067
خرم	14068
دادی	14069
عجب	14070
غده	14071
كش	14072
لف	14073
لابی	14074
هوم	14075
وگاس	14076
پابر	14077
کرک	14078
گان	14079
گوان	14080
۵۱	14081
##زونا	14082
##raph	14083
##دو	14084
##17	14085
##بون	14086
##‌داشت	14087
##کیم	14088
##عودی	14089
##يط	14090
##pg	14091
##cg	14092
##چوست	14093
##bit	14094
##ji	14095
##que	14096
میشی	14097
میداد	14098
##ودو	14099
بااین	14100
##اهه	14101
کنن	14102
##ریا	14103
##ولتی	14104
منفع	14105
انحلال	14106
##اریو	14107
روایتی	14108
بیاد	14109
ایل	14110
دهقان	14111
سالخورده	14112
دوبرابر	14113
محمود	14114
فرمایید	14115
##بیح	14116
دست‌های	14117
الگویی	14118
القدس	14119
بازمانده	14120
نورد	14121
بینندگان	14122
##وشاپ	14123
نامنظ	14124
تغذی	14125
اعمالی	14126
بنز	14127
بنشیند	14128
ادب	14129
رفته‌اند	14130
تشعش	14131
عمدا	14132
خارش	14133
کامنت	14134
پاسداران	14135
##گردی	14136
آورده‌اند	14137
ارج	14138
شیردهی	14139
خونین	14140
دخانیات	14141
محتاج	14142
دقیق‌تر	14143
نکردید	14144
مفاد	14145
بیمارستانی	14146
خشکس	14147
موسیق	14148
اتاق‌های	14149
تساوی	14150
عدل	14151
دانشجویانی	14152
##ote	14153
##osh	14154
تلفن‌های	14155
بکشم	14156
متراکم	14157
ایرانی‌ها	14158
مخاطره	14159
نشدم	14160
کارآیی	14161
فرستد	14162
رحمانه	14163
جنبش‌های	14164
prof	14165
لغات	14166
بپرسم	14167
تازه‌	14168
blu	14169
ipad	14170
نوشابه	14171
علاقه‌ای	14172
this	14173
ناسالم	14174
1949	14175
سموم	14176
آرایه	14177
می‌خوانیم	14178
اسکای	14179
دزدیده	14180
بتمن	14181
ماساچوست	14182
مشروعیت	14183
توصیه‌های	14184
فاکتورهای	14185
همتایان	14186
پارامترهای	14187
صمیمانه	14188
تابلو	14189
خارق‌ال	14190
##‬‬‬‬	14191
٢٠١	14192
مزاحم	14193
قابل‌توجهی	14194
کره‌شمالی	14195
منچستر	14196
ضعیفی	14197
نامطلوب	14198
اسهال	14199
are	14200
cro	14201
direct	14202
ee	14203
jon	14204
love	14205
may	14206
nv	14207
pass	14208
rf	14209
rel	14210
watch	14211
بشق	14212
دایی	14213
زره	14214
سده	14215
سویی	14216
سولف	14217
شبان	14218
ضمیر	14219
مندی	14220
وفق	14221
کوی	14222
گامی	14223
یابیم	14224
۷۰۰	14225
‌کند	14226
��	14227
##‌ات	14228
##سار	14229
##yle	14230
##ward	14231
##dr	14232
##پور	14233
##book	14234
ازبک	14235
استیل	14236
باها	14237
باوجود	14238
برام	14239
آنگ	14240
همخوانی	14241
##ابولیک	14242
##فتن	14243
روندی	14244
روکش	14245
بیابند	14246
ماسه	14247
اوّل	14248
فرن	14249
اماکن	14250
سرگردان	14251
سرپرستی	14252
مدر	14253
کشیدم	14254
##کرات	14255
نوسازی	14256
مقبره	14257
اجابت	14258
اجماع	14259
ممنو	14260
زندگی‌شان	14261
ممکنه	14262
##اصری	14263
صورتش	14264
##کتاپ	14265
نمایشنامه	14266
آبهای	14267
آب‌های	14268
غذاخ	14269
عمدی	14270
فروند	14271
اهدای	14272
۲۰۲	14273
پردازی	14274
اقرار	14275
##گوئه	14276
##ائن	14277
##ited	14278
##پیش	14279
۱۹۲۰	14280
ارزشش	14281
بیماریهای	14282
ریگان	14283
چشم‌ها	14284
ایده‌ای	14285
ملیتی	14286
محیط‌های	14287
رسیده‌اند	14288
ببینی	14289
مانور	14290
خلافت	14291
حسابدار	14292
باورم	14293
فرانسیس	14294
فرانسیسکو	14295
بی‌اعت	14296
کلاژن	14297
##‌آورد	14298
ویرانی	14299
اسلو	14300
متوسطه	14301
##uty	14302
لطمه	14303
هشداری	14304
تدبیر	14305
آپدیت	14306
دفترچه	14307
##tern	14308
chrome	14309
ترجیحات	14310
ژانر	14311
1987	14312
پلاک	14313
بازداشتگاه	14314
جوراب	14315
usd	14316
پولیس	14317
ویدئوهای	14318
##ection	14319
تجربه‌های	14320
آریزونا	14321
##کینز	14322
health	14323
فواصل	14324
زیرساخت‌های	14325
ps4	14326
انحصار	14327
##فرانسیسکو	14328
انزوا	14329
وصیت	14330
بپیوندد	14331
بذر	14332
عیار	14333
روزنامه‌نگار	14334
center	14335
پلاسما	14336
ویزیت	14337
انباشته	14338
فولیکول	14339
همکلاسی	14340
فرایندی	14341
یکپارچگی	14342
دوردست	14343
یعقوب	14344
ضمیمه	14345
منفعل	14346
خشکسالی	14347
بشقاب	14348
غذاخوری	14349
az	14350
bo	14351
fire	14352
hand	14353
lg	14354
squ	14355
soft	14356
sql	14357
ادا	14358
ادم	14359
جیمی	14360
حقیق	14361
زاکر	14362
سندی	14363
فیت	14364
فوران	14365
كس	14366
لیس	14367
مفق	14368
هات	14369
چو	14370
کشان	14371
‌‌	14372
##یندی	14373
##دگی	14374
##اك	14375
##فور	14376
##سنت	14377
##صی	14378
##پیر	14379
##اریم	14380
درسته	14381
درآور	14382
میهن	14383
##ادف	14384
برآمد	14385
یکصد	14386
می‌كنند	14387
برایان	14388
##سیه	14389
منشاء	14390
موعد	14391
##روک	14392
بیندی	14393
##گیز	14394
ماکرو	14395
توکل	14396
هاپ	14397
سرآ	14398
نمیشود	14399
بدید	14400
اسکو	14401
اسـت	14402
نوازی	14403
اجن	14404
اجساد	14405
پسوند	14406
##کلن	14407
نقاش	14408
##واکی	14409
زنیم	14410
مصداق	14411
توليد	14412
کوچه	14413
##وبری	14414
پرشور	14415
شب‌ها	14416
سازمانها	14417
جنگلی	14418
کامبوج	14419
مستث	14420
سریلان	14421
هواوی	14422
جوان‌تر	14423
معتدل	14424
بیروت	14425
فرصت‌ها	14426
خوردم	14427
##asp	14428
پاکستانی	14429
تکنولوژی‌های	14430
start	14431
وسواس	14432
دکترای	14433
پست‌های	14434
کارت‌های	14435
رویدادی	14436
محبوب‌ترین	14437
افزودنی	14438
اونجا	14439
نشدنی	14440
گذاریم	14441
فروشگاه‌های	14442
بروزرسانی	14443
رمزگشایی	14444
دسکتاپ	14445
موبایلی	14446
سرکه	14447
سورپ	14448
۱۹۹۲	14449
تونم	14450
می‌‌شود	14451
شبکه‌ای	14452
می‌نویسم	14453
رییس‌جمهور	14454
سیگنال‌های	14455
موافقتنامه	14456
وارده	14457
سالیان	14458
ناکامی	14459
##ization	14460
##بولانس	14461
آذر	14462
صدمات	14463
بلاکچین	14464
بوتاکس	14465
بفروشند	14466
تقلبی	14467
نمائید	14468
نازی‌ها	14469
دالر	14470
یونیسف	14471
برادری	14472
میتونه	14473
اطلاعیه	14474
فاصله‌ی	14475
مخلوقات	14476
نوسانات	14477
##ittle	14478
فضاپیم	14479
لشکر	14480
داروسازی	14481
قهوه‌ای	14482
analyt	14483
لازمه	14484
تاجیکستان	14485
پشیمانی	14486
فاضلاب	14487
دایرکتوری	14488
نامنظم	14489
ممنوعه	14490
aud	14491
full	14492
games	14493
just	14494
rad	14495
sal	14496
uk	14497
win	14498
؟...	14499
جوید	14500
خزان	14501
رفر	14502
زیم	14503
شرافت	14504
ضمنی	14505
طفل	14506
فط	14507
نن	14508
هلاک	14509
پنگ	14510
چید	14511
چتر	14512
چمن	14513
یاهو	14514
۵۳	14515
##زستان	14516
##حور	14517
##قانی	14518
##دادی	14519
##‌مر	14520
##جمو	14521
##يات	14522
##ya	14523
##por	14524
##ii	14525
##چه‌ها	14526
دري	14527
دروس	14528
میسر	14529
میخواهیم	14530
راوی	14531
استب	14532
آنت	14533
یکسری	14534
##شتان	14535
می‌افزاید	14536
##هاى	14537
##هائی	14538
منشور	14539
##ه‌گذاری	14540
اوه	14541
هاوک	14542
دهۀ	14543
سراز	14544
قرم	14545
استفاده‌	14546
گرمی	14547
اسحاق	14548
داده‌ام	14549
##عهدی	14550
پیشه	14551
نواختن	14552
##باکس	14553
عنایت	14554
هیول	14555
بخریم	14556
همچنين	14557
می‌کرده	14558
نمی‌گیرد	14559
##جاوز	14560
مصلح	14561
یادت	14562
نشیمن	14563
اشا	14564
کتابها	14565
ابرو	14566
ابلیس	14567
گیرم	14568
فروشند	14569
تهمت	14570
##رحال	14571
بررسی‌های	14572
ریک	14573
صدد	14574
پذیرای	14575
هواشناسی	14576
سریع‌ترین	14577
انتظارش	14578
پاراد	14579
جستجوهای	14580
مارچ	14581
مفصلی	14582
مبتل	14583
گلدان	14584
پیامک	14585
شاهدان	14586
مغزتان	14587
دریاها	14588
street	14589
برنامه‌هایی	14590
صلح‌آمیز	14591
شانزده	14592
ابرقهر	14593
##agram	14594
پروتستان	14595
علیه‌ال	14596
کارآگاه	14597
##ession	14598
دیرتر	14599
گناهکار	14600
سؤالی	14601
هیچ‌چیز	14602
حوالی	14603
##ific	14604
لینکدین	14605
شایان	14606
سندرز	14607
تزکیه	14608
devel	14609
##obe	14610
پانزدهم	14611
نمی‌دانستم	14612
ناپایدار	14613
ext	14614
کابینت	14615
گریز	14616
معادلات	14617
فلسطینی‌ها	14618
سمبل	14619
کتب	14620
پیچیده‌تر	14621
نامزدهای	14622
فزاینده‌ای	14623
می‌شناسیم	14624
image	14625
دزدان	14626
##اشتند	14627
فتوشاپ	14628
هجدهم	14629
درآوردن	14630
cdc	14631
##flix	14632
sky	14633
استعماری	14634
می‌ترسند	14635
cpu	14636
studio	14637
گیگابایت	14638
دندانی	14639
مخترع	14640
سرنخ	14641
ارتجاعی	14642
پافشاری	14643
عواطف	14644
battle	14645
تروتسکی	14646
رنگارنگ	14647
زاکربرگ	14648
4000	14649
bp	14650
ben	14651
du	14652
ear	14653
hol	14654
little	14655
mat	14656
mem	14657
mri	14658
now	14659
pix	14660
run	14661
rest	14662
امی	14663
باین	14664
جبر	14665
جراحت	14666
خُ	14667
دسر	14668
رقیق	14669
زشتی	14670
ساب	14671
قات	14672
لوط	14673
ماین	14674
هت	14675
هود	14676
هوی	14677
ورم	14678
وخیم	14679
پُر	14680
گس	14681
یان	14682
۳۰۰۰	14683
##حان	14684
##14	14685
##به‌ی	14686
##‌ح	14687
##‌دی	14688
##فکری	14689
##مام	14690
##شوق	14691
##mg	14692
##wood	14693
##گس	14694
##خوری	14695
##پز	14696
##ژانسی	14697
##َب	14698
##َلَ	14699
##ارکی	14700
درنگ	14701
##ودگی	14702
بالی	14703
باارزش	14704
یکباره	14705
##شتاین	14706
می‌ری	14707
می‌تر	14708
##لیتی	14709
##گرانه	14710
موه	14711
##ترنت	14712
ماکس	14713
شدنی	14714
هرآنچه	14715
آمبولانس	14716
متفق	14717
##بیوتیک	14718
##توانید	14719
##اردی	14720
اسارت	14721
نوه	14722
##باش	14723
تموم	14724
گفتاری	14725
##بودن	14726
تعمیم	14727
غیرمن	14728
پرند	14729
مرید	14730
ارائه‌ی	14731
تشریف	14732
فروشان	14733
صحرای	14734
اعتمادی	14735
تلاشهای	14736
ارضی	14737
کلیوی	14738
ملوان	14739
نبودیم	14740
تیمش	14741
##ولوشن	14742
نخورید	14743
خبرنامه	14744
##ough	14745
گلوتن	14746
مهارت‌ها	14747
آسانتر	14748
فیزیوتراپی	14749
کی‌	14750
کلمه‌ی	14751
##جمعیت	14752
آتش‌ب	14753
موسوی	14754
بازدیدکننده	14755
دندان‌ها	14756
لوسی	14757
##urr	14758
فرآیندی	14759
مرکل	14760
110	14761
کاربرانی	14762
##ساعت	14763
بسته‌بندی	14764
اقامتگاه	14765
گذارم	14766
##زلزل	14767
کلیدوا	14768
روستاهای	14769
واضحی	14770
پنسیلوانیا	14771
حاکمان	14772
چاره‌ای	14773
سرمایه‌گذاری‌های	14774
قضات	14775
جداسازی	14776
online	14777
##خانه‌ای	14778
شادمانی	14779
user	14780
##over	14781
تماشاگران	14782
مورخ	14783
ستاره‌	14784
ستاره‌ای	14785
expl	14786
express	14787
بیندازد	14788
اسکنر	14789
1945	14790
گزینش	14791
صلیبی	14792
365	14793
سالهاست	14794
netflix	14795
خسارات	14796
دویست	14797
بگذر	14798
شیوه‌ی	14799
پیداست	14800
برسانیم	14801
راه‌حل‌های	14802
دانیل	14803
درخشش	14804
##cript	14805
نیفتاده	14806
کارگزاران	14807
elect	14808
dvd	14809
ورشکستگی	14810
ذخیره‌سازی	14811
به‌دلیل	14812
facebook	14813
آجیل	14814
خودآگاهی	14815
کشمکش	14816
نشریات	14817
first	14818
global	14819
machine	14820
("	14821
),	14822
.“	14823
cis	14824
core	14825
gp	14826
hel	14827
ldl	14828
mt	14829
md	14830
ok	14831
west	14832
آرک	14833
اگز	14834
تامپ	14835
حفر	14836
ذین	14837
فح	14838
قن	14839
لگن	14840
مالت	14841
نخواست	14842
نگیرد	14843
هش	14844
وم	14845
وآ	14846
ورای	14847
گارا	14848
یتیم	14849
##یج	14850
##بوری	14851
##‌ق	14852
##99	14853
##ره‌ای	14854
##آنی	14855
##view	14856
##ستردام	14857
میشن	14858
میگه	14859
راش	14860
اینا	14861
می‌داشت	14862
##لیکس	14863
##ون‌ها	14864
##ه‌ن	14865
##ه‌گر	14866
دارنده	14867
کاران	14868
توفیق	14869
هرجا	14870
دیافرا	14871
آمرزش	14872
متجاوز	14873
معذ	14874
ترسی	14875
##توانند	14876
بدر	14877
المان	14878
چیپ	14879
اسکر	14880
##نینگ	14881
##رسمی	14882
رویاها	14883
مجید	14884
برنارد	14885
اولا	14886
بنفش	14887
زنید	14888
آموزگاران	14889
فعلاً	14890
زمین‌های	14891
آیپد	14892
بخشهای	14893
سیستمهای	14894
سایت‌ها	14895
گوجه	14896
اضاف	14897
خصومت	14898
فضیلت	14899
خطراتی	14900
کانت	14901
نقش‌های	14902
جواد	14903
105	14904
موفقیت‌آمیز	14905
کنارش	14906
تماسی	14907
هوادار	14908
مارکو	14909
طولانی‌مدت	14910
نورپردازی	14911
خوردگی	14912
بی‌خ	14913
بسا	14914
می‌دانی	14915
هفته‌های	14916
##adem	14917
##chain	14918
store	14919
بوکس	14920
پلک	14921
مجبورند	14922
بشوید	14923
بشویم	14924
اتحادیه‌ی	14925
##ots	14926
شگفت‌زده	14927
جزئیاتی	14928
مسئولیت‌های	14929
اختصار	14930
اصولا	14931
نباشیم	14932
عادت‌های	14933
1982	14934
کربلا	14935
سندروم	14936
هزینه‌ای	14937
def	14938
آمارهای	14939
ویدیوی	14940
بازیکنی	14941
مضح	14942
۱۹۹۴	14943
۱۹۹۶	14944
نهادها	14945
مورگان	14946
المسلمین	14947
نژادپرست	14948
کسب‌و‌کار	14949
فولادی	14950
##‌متر	14951
خلیفه	14952
تجربۀ	14953
##كنون	14954
پیچیده‌ای	14955
ناکافی	14956
tele	14957
می‌شناسید	14958
دزدید	14959
نمونه‌ای	14960
۱۹۴۵	14961
قبرستان	14962
بوسنی	14963
evil	14964
سنسورهای	14965
سیاره‌ای	14966
بپیوندند	14967
می‌گرفتند	14968
مارکسیست	14969
مارکسیسم	14970
کوکائین	14971
comput	14972
بامزه	14973
جواهر	14974
صمیمیت	14975
مودم	14976
سونوگرافی	14977
ماهواره‌ای	14978
خراسان	14979
گوارش	14980
دوقلو	14981
می‌افتند	14982
مخابراتی	14983
b2b	14984
منجمد	14985
speed	14986
بازتولید	14987
فارغ‌التحصیل	14988
آتلانتیک	14989
مارشال	14990
مفقود	14991
استبداد	14992
قرمزی	14993
اشاعه	14994
develop	14995
دیافراگم	14996
bab	14997
b12	14998
cc	14999
cit	15000
card	15001
ever	15002
eff	15003
hor	15004
james	15005
mess	15006
publ	15007
rh	15008
rich	15009
sony	15010
tem	15011
آلف	15012
بمیرد	15013
زبانه	15014
صلو	15015
صعودی	15016
غض	15017
فلف	15018
فسیل	15019
لئو	15020
نجومی	15021
پوز	15022
چرت	15023
۶۱	15024
۹۶	15025
“.	15026
##زبورگ	15027
##la	15028
##18	15029
##‌گران	15030
##‌طلب	15031
##33	15032
##86	15033
##رور	15034
##شنی	15035
##de	15036
##di	15037
##پتو	15038
##چه‌های	15039
##bn	15040
باط	15041
##ادلف	15042
برز	15043
براش	15044
##اهش	15045
##اهیمی	15046
کنيد	15047
منسو	15048
##راً	15049
نیاور	15050
هاف	15051
آمستردام	15052
متذکر	15053
معشوق	15054
دسته‌بندی	15055
ترسم	15056
قرآنی	15057
استفاد	15058
الش	15059
گراهام	15060
روزرسانی	15061
انتصاب	15062
##وشیما	15063
نهی	15064
نهار	15065
##ونیوم	15066
بلوتو	15067
آموزنده	15068
نسلی	15069
یادش	15070
غیرطبیعی	15071
##فیع	15072
علاو	15073
هنگ‌کن	15074
##داشتن	15075
سیستم‌	15076
جنگید	15077
اهرم	15078
گرده	15079
میانجی	15080
مستحق	15081
ابوظ	15082
کلیشه	15083
وارداتی	15084
ریال	15085
سفینه	15086
خوابیده	15087
تکالیف	15088
مادرشان	15089
مبد	15090
ماندگاری	15091
##افتاده	15092
ارسطو	15093
راستین	15094
طبقه‌بندی	15095
1200	15096
stand	15097
کیش	15098
##idge	15099
سیاه‌	15100
##ینگتن	15101
گرمایی	15102
شاء	15103
عمیقاً	15104
میکنن	15105
اظهارنظر	15106
نسل‌های	15107
به‌علاوه	15108
سربازی	15109
ولادیم	15110
##ody	15111
react	15112
رحمان	15113
اورژانسی	15114
جامعۀ	15115
امتیازی	15116
پنبه	15117
program	15118
سنتز	15119
می‌خواستیم	15120
تماشاگر	15121
نرود	15122
باکتریایی	15123
بیندازیم	15124
۱۹۷۹	15125
۱۹۶۸	15126
نياز	15127
گزینه‌ی	15128
غلطی	15129
عطف	15130
اسباب‌بازی	15131
بغل	15132
نمی‌کردند	15133
##ront	15134
نحوه‌ی	15135
##‌کننده‌ای	15136
بوسه	15137
پراکند	15138
اکران	15139
قومیت	15140
حرمت	15141
کاسه	15142
commun	15143
سپاسگزارم	15144
hyper	15145
شكل	15146
music	15147
مملکت	15148
سوزانده	15149
مابقی	15150
روتین	15151
کازینو	15152
براتون	15153
ببخشند	15154
بازمی‌گردد	15155
بازرگانان	15156
تحریر	15157
كودك	15158
type	15159
بولیوی	15160
journal	15161
video	15162
بیچاره	15163
سورپرایز	15164
ابوظبی	15165
ولادیمیر	15166
\"	15167
dan	15168
more	15169
na	15170
night	15171
ss	15172
wifi	15173
آکنه	15174
بيش	15175
جائی	15176
حك	15177
دیم	15178
ذغال	15179
رید	15180
ریل	15181
رئی	15182
زل	15183
زوم	15184
شات	15185
شسته	15186
شاتر	15187
شتم	15188
طلبان	15189
عتی	15190
فاح	15191
لاین	15192
نفی	15193
هوس	15194
وت	15195
واین	15196
۴۹	15197
‌که	15198
##ral	15199
##لّه	15200
##‌تی	15201
##‌کشی	15202
##ضت	15203
##عاب	15204
##عاتی	15205
##شه‌ای	15206
##آهن	15207
##face	15208
##ِم	15209
##َی	15210
##َا	15211
##كند	15212
میرد	15213
باس	15214
باطری	15215
##امیل	15216
##یرو	15217
##یرانی	15218
آنگونه	15219
آنابولیک	15220
##هایو	15221
کردار	15222
موث	15223
##ترال	15224
خودک	15225
##میع	15226
##لاغ	15227
کارتون	15228
بیابد	15229
مائو	15230
توقی	15231
ایندی	15232
سالمند	15233
دوازدهم	15234
پیل	15235
داشته‌اید	15236
دست‌ها	15237
مشکی	15238
مشورتی	15239
بازرس	15240
##وریان	15241
موردش	15242
تحکیم	15243
پیشینی	15244
پسرب	15245
پسورد	15246
رویش	15247
کشورم	15248
سازیم	15249
سیارک	15250
##وشم	15251
کسر	15252
باربار	15253
پروس	15254
خانه‌	15255
##گذر	15256
خطایی	15257
نمیده	15258
پرجمعیت	15259
فیلادلف	15260
هدست	15261
دیده‌اند	15262
حرف‌ها	15263
اشتراکی	15264
ریو	15265
مغلوب	15266
خوانیم	15267
مذاهب	15268
101	15269
مارول	15270
##ouch	15271
شوخ	15272
فرانکلین	15273
بی‌ح	15274
بی‌رح	15275
نویسندگی	15276
##‌آی	15277
هفته‌ها	15278
ازدست	15279
تسلیت	15280
state	15281
story	15282
بنیامین	15283
ant	15284
برندها	15285
سیاهچاله	15286
##ینگتون	15287
میتوانیم	15288
سردار	15289
اشتراک‌گذاری	15290
مزبور	15291
افسوس	15292
واحدی	15293
وزیران	15294
مرکب	15295
جشنوار	15296
بندهای	15297
مادرت	15298
قدرتمندتر	15299
نتوانیم	15300
طبیعتا	15301
هرچیز	15302
قراردادها	15303
آفرینی	15304
خیابان‌های	15305
##ograph	15306
آمارها	15307
جدال	15308
خرداد	15309
1973	15310
1978	15311
منعقد	15312
1969	15313
##ible	15314
بکارگیری	15315
بشناسد	15316
##گرفتن	15317
محافظتی	15318
نکشید	15319
زندگیم	15320
گسترده‌تر	15321
پورشه	15322
##سکوپی	15323
پراگ	15324
instagram	15325
فهمند	15326
کم‌کم	15327
##earch	15328
access	15329
قاطعانه	15330
واتس	15331
activ	15332
##ield	15333
طاقت	15334
می‌فرستد	15335
انیشتین	15336
اثرگذار	15337
آناتومی	15338
بی‌گناه	15339
سریلانکا	15340
پنگوئن	15341
آتش‌بس	15342
ذینفع	15343
گاراژ	15344
ber	15345
best	15346
ct	15347
ce	15348
her	15349
list	15350
law	15351
mb	15352
mal	15353
pin	15354
pack	15355
sle	15356
source	15357
wom	15358
اره	15359
بط	15360
بشدت	15361
تروم	15362
زمز	15363
شیم	15364
مفر	15365
مضا	15366
مولد	15367
ندا	15368
هرو	15369
ونیز	15370
چنين	15371
کوری	15372
کوم	15373
۷۸	15374
‌م	15375
##نمی	15376
##نیت	15377
##هری	15378
##سای	15379
##تز	15380
##cess	15381
##dom	15382
##خدم	15383
##ظمی	15384
درسال	15385
میدهید	15386
برآم	15387
##اهمیت	15388
##ازیس	15389
##ویا	15390
انست	15391
مومی	15392
خوام	15393
##یته	15394
##زیکو	15395
اوبر	15396
ایند	15397
دیکته	15398
فره	15399
مشرک	15400
بازو	15401
اسق	15402
نظاره	15403
مسابق	15404
موردنظر	15405
##الیه	15406
##امیکی	15407
راهنم	15408
##ایتد	15409
کسل	15410
دورانی	15411
نمی‌ش	15412
نمی‌گوید	15413
نهضت	15414
پایه‌ای	15415
قبایل	15416
##شهری	15417
##وبات	15418
کودتای	15419
افزایشی	15420
پررنگ	15421
نمایم	15422
دوستداران	15423
تشک	15424
حسرت	15425
##احتی	15426
نزولی	15427
محصور	15428
دریافتیم	15429
احتمالات	15430
کنتراست	15431
ارزش‌ها	15432
اتفاقا	15433
مکات	15434
موجوداتی	15435
جاناتان	15436
تاثیرگذاری	15437
حیث	15438
##acy	15439
موفقیت‌های	15440
شرارت	15441
دستگاههای	15442
باورها	15443
مکان‌هایی	15444
معنادار	15445
شناسه	15446
شناسم	15447
روابطی	15448
ماندنی	15449
آزادی‌های	15450
گوینده	15451
عقد	15452
آرامگاه	15453
نیمه‌	15454
##ident	15455
امریکای	15456
ساختمان‌ها	15457
##پذیری	15458
گرمسیر	15459
پستانداران	15460
زده‌اند	15461
فرزندانمان	15462
کریستی	15463
میدانیم	15464
خاکستر	15465
پوچ	15466
پوپولی	15467
می‌گیرم	15468
محسن	15469
۱۸۹	15470
1983	15471
adobe	15472
بپرسیم	15473
مطلبی	15474
show	15475
انداختند	15476
احتیاجی	15477
!».	15478
سوزنی	15479
سانحه	15480
جنگل‌های	15481
amp	15482
1968	15483
منصرف	15484
ادعایی	15485
لمسی	15486
می‌گفتم	15487
کلیساها	15488
اپلیکیشن‌های	15489
بنیانگذاران	15490
پذیرفتند	15491
جابه‌	15492
head	15493
ویرایشگر	15494
خندیدن	15495
تجارتی	15496
زندگي	15497
پورتال	15498
##رفتاری	15499
شلوغی	15500
برهنه	15501
مگاوات	15502
نگهبانان	15503
نکته‌ی	15504
توسعه‌دهندگان	15505
تشنه	15506
سانتا	15507
برگردانده	15508
استثناء	15509
انسجام	15510
حماقت	15511
چنگال	15512
دلسرد	15513
می‌زدند	15514
management	15515
تیلور	15516
برکنار	15517
آسپرین	15518
استادیوم	15519
اپیزود	15520
سلیمانی	15521
شراکت	15522
crypt	15523
توحید	15524
غیرعادی	15525
ارتودنسی	15526
درصورتی	15527
دلقک	15528
analytics	15529
سرازیر	15530
صلوات	15531
بلوتوث	15532
مضاعف	15533
450	15534
alex	15535
ba	15536
bel	15537
bad	15538
bmi	15539
ds	15540
div	15541
jo	15542
last	15543
mg	15544
pi	15545
sel	15546
sand	15547
ux	15548
york	15549
آجر	15550
آتن	15551
ابی	15552
بيم	15553
تزی	15554
تبر	15555
جابه	15556
جارو	15557
دژ	15558
ذوق	15559
رین	15560
ریم	15561
ریلی	15562
شکس	15563
ضل	15564
طمع	15565
غای	15566
غلام	15567
فات	15568
قذ	15569
قالی	15570
كاری	15571
لید	15572
لانه	15573
هویج	15574
وثی	15575
پتاس	15576
چانه	15577
کوله	15578
ین	15579
۹۷	15580
##زاس	15581
##وکی	15582
##وارت	15583
##نند	15584
##باز	15585
##‌دان	15586
##‌بران	15587
##فشان	15588
##35	15589
##عال	15590
##يون	15591
##ym	15592
##ius	15593
##آب	15594
##خدا	15595
میله	15596
میباشند	15597
ازاین	15598
راج	15599
راکتور	15600
##رداد	15601
اینف	15602
می‌ای	15603
می‌بند	15604
هموط	15605
##سیته	15606
##روفی	15607
نیوج	15608
مائ	15609
اوهایو	15610
متفکران	15611
مداد	15612
##افری	15613
##خوابی	15614
مسموم	15615
##اختند	15616
داده‌است	15617
جهل	15618
جهادی	15619
..."	15620
تجلیل	15621
شهود	15622
پروازی	15623
پروبیوتیک	15624
ناخو	15625
خانه‌اش	15626
دلالت	15627
تعرف	15628
یادمان	15629
اطلاق	15630
غیررسمی	15631
مهمات	15632
اشعار	15633
پرستی	15634
فیلد	15635
دیداری	15636
سازمان‌دهی	15637
فردای	15638
آن‌هاست	15639
آلپ	15640
سایتهای	15641
اشتها	15642
##ولیبر	15643
بدنم	15644
##its	15645
چشم‌های	15646
مثلث	15647
طبع	15648
حیطه	15649
پارس	15650
رسیدید	15651
خبرها	15652
پایین‌ترین	15653
ترسد	15654
بسوی	15655
مراقبه	15656
سومالی	15657
بردگان	15658
تهدیدها	15659
بحثی	15660
جمهوریخواه	15661
##پیمان	15662
مایا	15663
کیفر	15664
وظای	15665
نابار	15666
خودروساز	15667
نوزده	15668
کدامیک	15669
زدیم	15670
آپولو	15671
دینامیک	15672
شده‌ی	15673
دانمارکی	15674
باغبانی	15675
1985	15676
جادوی	15677
رزولوشن	15678
می‌پرسد	15679
trump	15680
خالکوبی	15681
گفتگوها	15682
خردمند	15683
1971	15684
1977	15685
##rain	15686
نظریه‌ی	15687
مورچه	15688
نقدینگی	15689
شکنج	15690
۱۹۸۱	15691
ايشان	15692
جرقه	15693
لهجه	15694
نیکوتین	15695
پیمانکاران	15696
1940	15697
##پرداز	15698
می‌خوانند	15699
##berg	15700
می‌توانستیم	15701
تندر	15702
grand	15703
research	15704
غریبی	15705
متحدانش	15706
drive	15707
کولون	15708
بنشینند	15709
ایدئولوژیک	15710
پیمایش	15711
زنجیره‌ای	15712
گاردین	15713
دغدغ	15714
##board	15715
internet	15716
مابین	15717
##غیان	15718
الزامی	15719
حواستان	15720
آپارتاید	15721
college	15722
می‌گذراند	15723
میخواستم	15724
application	15725
نیتروژن	15726
لیزری	15727
بهینه‌سازی	15728
مسئولیتی	15729
به‌زودی	15730
ناپلئون	15731
هوانوردی	15732
میشیگان	15733
ازبکستان	15734
فلفل	15735
شکسپیر	15736
)-	15737
)»	15738
6000	15739
81	15740
bal	15741
boy	15742
e3	15743
fri	15744
found	15745
jack	15746
mad	15747
pm	15748
ram	15749
«...	15750
اتیو	15751
تیک	15752
حلب	15753
شیاط	15754
عیس	15755
قور	15756
قفق	15757
لک	15758
لخت	15759
نط	15760
نوم	15761
نگو	15762
والت	15763
چطوری	15764
گراف	15765
۵۴	15766
۶۶	15767
۸۸	15768
‌کنند	15769
##زول	15770
##وغ	15771
##of	15772
##اعی	15773
##لایی	15774
##‌وی	15775
##‌شناسان	15776
##فن	15777
##کول	15778
##کسیون	15779
##يست	15780
##شاد	15781
##صاف	15782
##yc	15783
##cs	15784
##we	15785
##پرسی	15786
##ِّ	15787
##ئوس	15788
##َع	15789
##انۀ	15790
##انه‌	15791
##اروس	15792
درع	15793
میرز	15794
راه‌ها	15795
باگ	15796
برآ	15797
بریتی	15798
##الحه	15799
می‌‌‌	15800
کنت	15801
بیعت	15802
داگ	15803
دوک	15804
هرروز	15805
کنده	15806
محول	15807
محرم	15808
فرما	15809
دستشان	15810
بدرفتاری	15811
الدین	15812
گرایان	15813
نظرت	15814
نوپا	15815
اجاق	15816
##رزد	15817
راهرو	15818
نمی‌‌	15819
آموزه	15820
بیش‌	15821
یادگار	15822
نمادهای	15823
نشاط	15824
به‌ش	15825
به‌سوی	15826
جنگیدن	15827
انگور	15828
##ates	15829
##گواری	15830
ابلاغ	15831
شماها	15832
خصلت	15833
##ices	15834
صدایش	15835
خصوصیت	15836
واگذاری	15837
مشخصا	15838
##وکسی	15839
رفتارهایی	15840
مبدا	15841
گلد	15842
##asy	15843
##ason	15844
آمدیم	15845
##‌آنج	15846
متنفرم	15847
ارسالی	15848
این‌حال	15849
پاداشی	15850
نیمکت	15851
برندسازی	15852
کاشی	15853
متوسل	15854
دندانهای	15855
مترقی	15856
تورات	15857
تورهای	15858
احتراق	15859
عملیات‌های	15860
کارآمدی	15861
پیش‌فرض	15862
##ther	15863
##oph	15864
admin	15865
produ	15866
هرکاری	15867
ویدیوهای	15868
بازیکنانی	15869
دهانش	15870
۱۹۹۹	15871
cons	15872
پروژه‌ای	15873
رساندند	15874
باکتری‌ها	15875
خانواده‌ای	15876
پدرت	15877
learn	15878
والتر	15879
پیمانکار	15880
فیزیکدان	15881
شنیده‌اید	15882
میدانند	15883
نگه‌	15884
edit	15885
می‌گذارم	15886
گاوها	15887
استنفورد	15888
html5	15889
ویرانگر	15890
times	15891
##‌کننده‌ی	15892
خجالتی	15893
توصیفی	15894
گنجینه	15895
نامشخص	15896
مقاومتی	15897
جادوگری	15898
کاندیدای	15899
انزوای	15900
بورژوایی	15901
فهمد	15902
گنبد	15903
بیاندازد	15904
وکالت	15905
منزله	15906
پسندیده	15907
منقرض	15908
می‌دیدم	15909
مبتدیان	15910
فرضیات	15911
نئولیبر	15912
ult	15913
تفرقه	15914
منحصربه‌	15915
پوسیدگی	15916
آدرنال	15917
پهلوی	15918
بپرهیزید	15919
تلفیق	15920
اجناس	15921
فطرت	15922
توقیف	15923
نیوجرسی	15924
اتیوپی	15925
بریتیش	15926
ak	15927
ast	15928
bank	15929
get	15930
long	15931
mil	15932
nov	15933
pop	15934
rom	15935
ray	15936
sign	15937
ts	15938
tit	15939
آيا	15940
بسر	15941
تاند	15942
جاش	15943
ري	15944
رآ	15945
سست	15946
سول	15947
سیت	15948
سکان	15949
سکو	15950
شلاق	15951
فنگ	15952
فامیل	15953
قح	15954
لوتر	15955
لایق	15956
لباسی	15957
مـ	15958
نرد	15959
نجی	15960
نگرد	15961
واز	15962
پشه	15963
گي	15964
گاندی	15965
##واب	15966
##واز	15967
##lish	15968
##rs	15969
##حم	15970
##ناپذیر	15971
##دال	15972
##ايش	15973
##‌کاری	15974
##‌حال	15975
##ساط	15976
##ye	15977
##go	15978
##طح	15979
##طفی	15980
##چون	15981
##ُن	15982
##ایقی	15983
##اتین	15984
آنانی	15985
همسال	15986
##ه‌س	15987
خودران	15988
##راط	15989
##لاستی	15990
کاروان	15991
کارنامه	15992
هربار	15993
دیک	15994
متهمان	15995
سرشت	15996
سرهنگ	15997
نظافت	15998
##ومتری	15999
مقار	16000
تنزل	16001
می‌شدم	16002
زیاده	16003
.......	16004
##شدگان	16005
نامیدند	16006
اولش	16007
نمی‌باشد	16008
کمکم	16009
نشانه‌هایی	16010
پروتون	16011
مصالحه	16012
ناوبری	16013
ارتشی	16014
قدمی	16015
کوبی	16016
گرفته‌اید	16017
غیرمت	16018
نشستم	16019
دوست‌داشت	16020
##any	16021
مروری	16022
دیده‌ام	16023
وقتیکه	16024
تشبیه	16025
##ars	16026
دولتهای	16027
فیلم‌هایی	16028
سپر	16029
روش‌هایی	16030
اجتماعات	16031
بهتره	16032
ابله	16033
واکر	16034
##نتاین	16035
امن‌تر	16036
لبنانی	16037
پرسشی	16038
خوریم	16039
بسازم	16040
روانه	16041
انگیزش	16042
##ily	16043
کوتاه‌تر	16044
##ents	16045
صادراتی	16046
زیباتر	16047
##agon	16048
##ages	16049
قطعنام	16050
زیستن	16051
زیستگاه	16052
پاشنه	16053
115	16054
شعب	16055
والدینی	16056
پرتغالی	16057
روبل	16058
نتوانستم	16059
گرانب	16060
سرزمین‌های	16061
اورا	16062
1981	16063
نادان	16064
هیجان‌انگیز	16065
کرامت	16066
برده‌اند	16067
انعق	16068
پایگاه‌های	16069
جديد	16070
##خانه‌های	16071
۱۹۹۱	16072
##طرفه	16073
بافت‌های	16074
##وپاتی	16075
ستاره‌ها	16076
htc	16077
سفارشات	16078
راه‌آهن	16079
بصیرت	16080
می‌برید	16081
##ends	16082
معجزات	16083
نمونه‌هایی	16084
استارت‌آپ	16085
معیارها	16086
دموکرات‌ها	16087
رؤیا	16088
جراحان	16089
الحاق	16090
نمایانگر	16091
بیاندازید	16092
لعنتی	16093
account	16094
نجوم	16095
ایسنا	16096
آراء	16097
آلیاژ	16098
شفاعت	16099
می‌پرسند	16100
##لَّه	16101
دربرابر	16102
گوارشی	16103
آمیخته	16104
مصدومیت	16105
ngc	16106
مقتضی	16107
ناگوار	16108
فضاپیما	16109
گرامر	16110
منهتن	16111
روانپزشکی	16112
مستعمره	16113
سمینار	16114
پارتیشن	16115
می‌انجامد	16116
اجزاء	16117
christ	16118
غیردولتی	16119
پیشتاز	16120
پهپاد	16121
کاکائو	16122
تشییع	16123
یک‌سوم	16124
فیلادلفیا	16125
گرمسیری	16126
پتاسیم	16127
شیاطین	16128
##‌آنجلس	16129
box	16130
brow	16131
da	16132
dsl	16133
fant	16134
hub	16135
lin	16136
lim	16137
lang	16138
msc	16139
nav	16140
sir	16141
saf	16142
wal	16143
آث	16144
آیر	16145
آخو	16146
بکر	16147
بارت	16148
تکی	16149
جدای	16150
رپ	16151
رقی	16152
رجوی	16153
سئول	16154
غلی	16155
قال	16156
قلی	16157
قضای	16158
لکن	16159
لایت	16160
لوس	16161
لاپ	16162
نبین	16163
ناهم	16164
نئو	16165
ياد	16166
پرسی	16167
کرن	16168
کبیر	16169
۵۸	16170
۵۶	16171
##والی	16172
##lin	16173
##نمای	16174
##نوع	16175
##اوری	16176
##بست	16177
##‌خ	16178
##‌ریزی	16179
##همه	16180
##يخ	16181
##pro	16182
##ّلام	16183
##چه‌ی	16184
##ارین	16185
##ستیم	16186
میگن	16187
میتونم	16188
##ودا	16189
استریت	16190
برفی	16191
##الس	16192
##اتن	16193
آنجاست	16194
یکجا	16195
یکتا	16196
کنف	16197
##ونتی	16198
##سیا	16199
انش	16200
##ه‌کنندگان	16201
##ترا	16202
خودمون	16203
بوده‌ام	16204
کارا	16205
ایجاب	16206
دوتا	16207
کندتر	16208
آمدی	16209
پیونگ	16210
معرف	16211
سرانه	16212
نمیشه	16213
##اقبا	16214
استفاده‌ی	16215
الب	16216
زمانه	16217
پیشاپ	16218
پسوری	16219
تصوری	16220
جمال	16221
##وشیم	16222
##ورتون	16223
کلارک	16224
ساخته‌شده	16225
بناهای	16226
بارهای	16227
تبخیر	16228
آمریکائی	16229
به‌هم	16230
اشراف	16231
کتاب‌	16232
##ano	16233
مرجان	16234
ساح	16235
عمارت	16236
علما	16237
##ینیو	16238
نزنید	16239
وب‌	16240
خریدم	16241
کمیک	16242
فعالیت‌هایی	16243
ارزشهای	16244
ریزد	16245
صحبت‌های	16246
واقعیات	16247
آخرال	16248
خوانید	16249
مک‌	16250
خوابید	16251
سفره	16252
سیاستهای	16253
سیاست‌ها	16254
##ree	16255
معنویت	16256
بسنج	16257
پیشرفتی	16258
روندهای	16259
استخوانی	16260
منظوره	16261
رژیمی	16262
دوستانشان	16263
وسیله‌ی	16264
دریانورد	16265
این‌باره	16266
برنامۀ	16267
متعاقبا	16268
گذاشتیم	16269
پروتز	16270
دستیاران	16271
هوشمندی	16272
توانستید	16273
هشتمین	16274
لینکلن	16275
دانستیم	16276
فرآیندها	16277
فرزندانم	16278
صورتیکه	16279
؟!»	16280
محدودیت‌هایی	16281
مادرز	16282
یونس	16283
گام‌های	16284
بیمارستان‌ها	16285
##ips	16286
رحیم	16287
نباش	16288
سکولار	16289
۱۸۰	16290
رضوی	16291
ژنوم	16292
##iff	16293
واشینگتن	16294
تخم‌مر	16295
نیرو‌های	16296
اصطلاحی	16297
كنترل	16298
مجوزهای	16299
گذرانند	16300
پاناما	16301
اولویت‌های	16302
##raft	16303
##ateg	16304
fort	16305
نظریات	16306
پروژه‌ی	16307
ستاره‌های	16308
رمزار	16309
دیوانگی	16310
##ours	16311
عرشه	16312
##‌تاپ	16313
بنیان‌گذار	16314
روسای	16315
پرهزینه	16316
قدردان	16317
ربات‌ها	16318
##اشتن	16319
زندگى	16320
می‌رفتم	16321
شاعران	16322
##ather	16323
اسرارآمیز	16324
متابولیک	16325
...».	16326
نگفتم	16327
خوش‌بین	16328
اندیشید	16329
##شاءالله	16330
صهیونیست	16331
robert	16332
صحنه‌های	16333
فیلسوفان	16334
فرسوده	16335
ppc	16336
انباشت	16337
linked	16338
محافظه‌کار	16339
نگهدارنده	16340
هامبورگ	16341
موتوری	16342
##words	16343
blockchain	16344
ghost	16345
هفده	16346
جنجال	16347
منازعه	16348
واریز	16349
خادم	16350
شبه‌نظامی	16351
الکترومغناطیسی	16352
institute	16353
حقیقتی	16354
جویدن	16355
علیه‌السلام	16356
هنگ‌کنگ	16357
قوربا	16358
پیشاپیش	16359
06	16360
02	16361
a3	16362
bay	16363
cms	16364
dyn	16365
fa	16366
from	16367
hal	16368
il	16369
land	16370
lcd	16371
آلاس	16372
ایت	16373
بگری	16374
تلق	16375
تعهدی	16376
حراج	16377
خزر	16378
دلف	16379
رضای	16380
راندن	16381
شال	16382
شرف	16383
طاه	16384
طغیان	16385
فص	16386
قیا	16387
كوچ	16388
لرد	16389
لوی	16390
لویی	16391
نگا	16392
هادی	16393
ودر	16394
پود	16395
پالت	16396
چروک	16397
یب	16398
یحی	16399
۷۶	16400
##زمانی	16401
##نفر	16402
##لک	16403
##‌ج	16404
##‌جی	16405
##ng	16406
##net	16407
##کود	16408
##رر	16409
##عظ	16410
##شانی	16411
##صدا	16412
##ych	16413
##iet	16414
##گى	16415
##خالی	16416
##چل	16417
##ژیت	16418
##__	16419
##ارکت	16420
میگفت	16421
باک	16422
باکی	16423
##امو	16424
اینطوری	16425
اینشتین	16426
آنِ	16427
می‌رویم	16428
منشی	16429
انشا	16430
مواقعی	16431
خودرویی	16432
##راجی	16433
##تیوم	16434
##کنولوژی	16435
نیکارا	16436
بیو	16437
بیکر	16438
بیزین	16439
ایشون	16440
معبود	16441
معابد	16442
##وزیت	16443
گربه‌ها	16444
##وریس	16445
وجودش	16446
رساله	16447
##فاعات	16448
##استی	16449
##استر	16450
نظرش	16451
شرکت‌کننده	16452
نامیم	16453
جدیدش	16454
پایه‌ی	16455
تبعات	16456
ارتفاعات	16457
رفتید	16458
به‌ت	16459
پرول	16460
جایش	16461
دوستشان	16462
عموی	16463
بالش	16464
اقتباس	16465
##ora	16466
کسب‌	16467
##ena	16468
اروپاست	16469
اصلی‌ترین	16470
سنگر	16471
افتتا	16472
چهاردهم	16473
خوانی	16474
وزنی	16475
مکث	16476
قانونگذاران	16477
آزمایش‌ها	16478
جوانتر	16479
حسابداران	16480
هوازی	16481
##omb	16482
مفسر	16483
##olution	16484
تسویه	16485
##oop	16486
می‌رسیم	16487
نرم‌افزاری	16488
182	16489
ann	16490
##ects	16491
اندازند	16492
آن‌گاه	16493
##ural	16494
عاشقش	16495
##oci	16496
اثا	16497
انگیزه‌های	16498
مزایده	16499
##unt	16500
ایمیل‌های	16501
کشتی‌های	16502
زدگی	16503
میدانم	16504
گمراهی	16505
درباره‌	16506
هرچقدر	16507
رضایی	16508
سعودی‌ها	16509
هیجان‌زده	16510
spot	16511
جاده‌ای	16512
پرسش‌های	16513
مولتی	16514
shad	16515
بورسیه	16516
##خانه‌ها	16517
1974	16518
آلبانی	16519
زنجبیل	16520
مربیگری	16521
form	16522
فریزر	16523
کفش‌های	16524
##‌گرایان	16525
1967	16526
همه‌جا	16527
ضمنا	16528
دبیرکل	16529
نتیجۀ	16530
رأس	16531
می‌خوانم	16532
##طلبی	16533
معجز	16534
نمیتوانند	16535
راهکارهایی	16536
resp	16537
برهان	16538
سوپرم	16539
کاستی	16540
کاسترو	16541
اندیشیدن	16542
پاتریک	16543
چه‌قدر	16544
سناریوی	16545
ریشه‌های	16546
رباتیک	16547
یهودا	16548
پترزبورگ	16549
می‌كرد	16550
می‌نمود	16551
green	16552
build	16553
شکارچیان	16554
محفظه	16555
سخنرانان	16556
geor	16557
مصاحبه‌ای	16558
##atsapp	16559
##‎‎‎‎	16560
سهمیه	16561
میوه‌ها	16562
social	16563
جست‌وجو	16564
gdp	16565
لئوناردو	16566
نافرمانی	16567
object	16568
بی‌سابقه	16569
bmw	16570
محیط‌زیست	16571
اپیدمی	16572
اشیای	16573
باهاش	16574
مستثنی	16575
قذافی	16576
##‌برانگیز	16577
وظایفی	16578
قحطی	16579
آلاسکا	16580
cast	16581
ctr	16582
dh	16583
dd	16584
dat	16585
dream	16586
duty	16587
kill	16588
let	16589
mm	16590
om	16591
ret	16592
sett	16593
tor	16594
uc	16595
var	16596
اوی	16597
جاها	16598
جونگ	16599
خت	16600
خست	16601
خفا	16602
دلا	16603
ریب	16604
شاپ	16605
ضامن	16606
غیب	16607
قدی	16608
قمر	16609
كاهش	16610
مکن	16611
نین	16612
نصر	16613
نویز	16614
هیم	16615
هوندا	16616
وایت	16617
پیا	16618
پکی	16619
کتی	16620
کینه	16621
کبودی	16622
۶۸	16623
##حض	16624
##اى	16625
##لوک	16626
##13	16627
##‌گویی	16628
##‌اکس	16629
##کست	16630
##کراس	16631
##ي‌	16632
##pal	16633
##ij	16634
##iam	16635
##غذ	16636
##zy	16637
##أن	16638
##ندو	16639
درکی	16640
استم	16641
استایل	16642
اینتل	16643
می‌گشت	16644
می‌میرد	16645
همی	16646
##میق	16647
ماوس	16648
داشب	16649
##ختگی	16650
دوس	16651
پیکار	16652
دستمال	16653
سرگذشت	16654
سرپوش	16655
##شانند	16656
قرعه	16657
استفان	16658
بازآ	16659
اسیدی	16660
##وریتی	16661
موردنیاز	16662
دادخواست	16663
##کرهای	16664
زندگانی	16665
##دیو	16666
احادی	16667
بخاری	16668
سیاهی	16669
ندادن	16670
اصابت	16671
بعدش	16672
کلوپ	16673
بارور	16674
سوغ	16675
مصادر	16676
تعال	16677
کوال	16678
نمیر	16679
دیدگی	16680
سیستم‌ها	16681
اهریم	16682
گردم	16683
منتها	16684
صحبتی	16685
##atic	16686
زبانهای	16687
##ائیک	16688
تأمل	16689
لیون	16690
##پیچی	16691
ریپل	16692
سلم	16693
خوانم	16694
سفیدی	16695
صفحه‌ای	16696
مکاش	16697
سریعاً	16698
پارسال	16699
##ret	16700
نکرده‌ایم	16701
بپوشند	16702
خورم	16703
##ets	16704
نوشتند	16705
مکانهای	16706
دردهای	16707
فراگیری	16708
نداشته‌اند	16709
##گونه‌ای	16710
تایم	16711
##ives	16712
لذت‌بخش	16713
تکنولوژیک	16714
stor	16715
سالم‌تر	16716
بواس	16717
فارنهایت	16718
شیراز	16719
آسوده	16720
بشارت	16721
شانزدهم	16722
متعاهد	16723
سردی	16724
اندازۀ	16725
##‌باز	16726
دیدگاهی	16727
علیها	16728
##زمینه	16729
موش‌ها	16730
ملائ	16731
محدودیت‌ها	16732
ولنتاین	16733
کریپتو	16734
اونها	16735
فهمم	16736
مجموعه‌ی	16737
حداکثری	16738
اعتبارات	16739
شایست	16740
گذرگاه	16741
اخلاقیات	16742
كردم	16743
shop	16744
تویوتا	16745
۱۹۹۵	16746
می‌‌کنند	16747
isp	16748
پروژکتور	16749
plan	16750
برگشتند	16751
انعطاف‌پذیری	16752
##‌گرایانه	16753
بیندازند	16754
جیوه	16755
1966	16756
ضربات	16757
مراقبتی	16758
آهستگی	16759
هاروی	16760
لایه‌های	16761
رفاهی	16762
فریبنده	16763
استیشن	16764
بایستید	16765
متأثر	16766
متأسف	16767
micha	16768
hdl	16769
کریمه	16770
هجده	16771
کریستین	16772
کاسته	16773
بخوبی	16774
زحمات	16775
##ugh	16776
مظل	16777
لس‌آنجلس	16778
محمدی	16779
کاندیداهای	16780
اربعین	16781
علیرضا	16782
نروژی	16783
سیاره‌ی	16784
نویسنده‌ی	16785
مختصری	16786
##‌زبان	16787
##‌زدایی	16788
سانتیمتر	16789
رومیان	16790
general	16791
کارلوس	16792
تابلوی	16793
رشته‌های	16794
تظاهرکنندگان	16795
llm	16796
خراش	16797
ساقه	16798
ساقط	16799
عرفان	16800
گودال	16801
اکثراً	16802
کورتیزول	16803
مسؤولیت	16804
بنگرید	16805
سخاوتمندانه	16806
کراتین	16807
ارکستر	16808
بازدارندگی	16809
north	16810
افسانه‌ای	16811
غدد	16812
فوتبالیست	16813
سیاه‌پوست	16814
دوبله	16815
چگالی	16816
میکروفون	16817
مبتلایان	16818
کی‌روش	16819
کلیدواژه	16820
مبدأ	16821
مومیایی	16822
همسالان	16823
پسوریازیس	16824
تخم‌مرغ	16825
''	16826
)‏	16827
05	16828
350	16829
dou	16830
dog	16831
hr	16832
ham	16833
hard	16834
iel	16835
ico	16836
mart	16837
mill	16838
nt	16839
node	16840
tm	16841
water	16842
آئین	16843
بفرستند	16844
جیر	16845
حمد	16846
زرت	16847
شریان	16848
شاتل	16849
شعاع	16850
صید	16851
صرع	16852
ضو	16853
لاری	16854
مژ	16855
ننگ	16856
١٨	16857
پم	16858
پط	16859
پاند	16860
چوپ	16861
ژو	16862
کراس	16863
گاران	16864
۵۰۰۰	16865
‌اند	16866
‌تواند	16867
##sung	16868
##ty	16869
##ror	16870
##ren	16871
##نها	16872
##به‌ای	16873
##بعدی	16874
##‌شناس	16875
##ness	16876
##جید	16877
##يك	16878
##شات	16879
##mon	16880
##cel	16881
##گور	16882
##گير	16883
##پو	16884
##طم	16885
##چه‌	16886
##key	16887
##ُل	16888
##اینی	16889
بها	16890
میث	16891
ازین	16892
استون	16893
کنگو	16894
برای‌	16895
##سیت	16896
من‌	16897
انبیا	16898
موجی	16899
##روال	16900
##تیب	16901
ماک	16902
ماورا	16903
اوصاف	16904
شده‌ای	16905
##اسو	16906
دوسال	16907
دیگ	16908
سرشماری	16909
مداری	16910
بدبخت	16911
الک	16912
کششی	16913
دانا	16914
##ومین	16915
تنا	16916
افک	16917
##گیران	16918
##وتوپ	16919
سیلی	16920
##استرو	16921
برنمی	16922
ناممکن	16923
نمی‌آور	16924
شهریه	16925
نهان	16926
بنت	16927
##اکا	16928
بلشوی	16929
آموزگار	16930
به‌تاز	16931
اشرف	16932
پرینت	16933
دوستدار	16934
دیده‌ایم	16935
شهرهایی	16936
1900	16937
ترکمن	16938
حرفهای	16939
##ese	16940
موفق‌ترین	16941
بدن‌تان	16942
##ائیب	16943
تصمیماتی	16944
میلیونر	16945
لیلا	16946
خصمانه	16947
پنج‌	16948
شیفت	16949
مغول	16950
ابتکاری	16951
وزرای	16952
خواستید	16953
##ste	16954
جانور	16955
جوانه	16956
شرور	16957
شرعی	16958
جاي	16959
خبره	16960
درخواست‌های	16961
##نواخت	16962
بی‌نهایت	16963
مبارزان	16964
کشتیرانی	16965
کدامند	16966
inv	16967
اطلاع‌رسانی	16968
##الدین	16969
کیپ	16970
تفاوت‌ها	16971
مدارکی	16972
##انتا	16973
##uss	16974
فوتون	16975
آفلاین	16976
##unes	16977
138	16978
مادرتان	16979
ولت	16980
ولى	16981
خیری	16982
1400	16983
گرانشی	16984
رستگاری	16985
ورزید	16986
حوثی	16987
می‌خوریم	16988
کرمان	16989
جاده‌ها	16990
كنيد	16991
هزینه‌	16992
ماجراهای	16993
بپرسد	16994
under	16995
.))	16996
تراکتور	16997
##istr	16998
سانفرانسیسکو	16999
غیرمجاز	17000
plat	17001
می‌نمایند	17002
الکتریسیته	17003
اکسل	17004
پیوستگی	17005
معلومات	17006
کلیساهای	17007
دستورالعمل‌های	17008
نداده‌اند	17009
what	17010
whatsapp	17011
##ize	17012
ملکوت	17013
کارکردن	17014
میداند	17015
att	17016
heart	17017
رحمتی	17018
سپاسگزاری	17019
کباب	17020
1956	17021
فرستادند	17022
آستین	17023
بیاموزند	17024
بیاموزیم	17025
سوپرمن	17026
غرامت	17027
باقر	17028
مسیریابی	17029
مگس	17030
ابتکارات	17031
سناریوهای	17032
لپ‌تاپ	17033
اکوادور	17034
همتای	17035
نابرابر	17036
ارگانیسم	17037
کاوشگر	17038
کارخانه‌های	17039
آدامس	17040
چهره‌های	17041
associ	17042
نپال	17043
لنگر	17044
##ُمْ	17045
نوازندگان	17046
break	17047
ناگفته	17048
جستجوگرها	17049
لوپوس	17050
برکناری	17051
می‌دارند	17052
کاتالونیا	17053
domain	17054
ناسازگار	17055
technology	17056
شامپو	17057
هنجارهای	17058
بی‌نظیر	17059
آرسنال	17060
مدرنی	17061
معذرت	17062
باربارا	17063
وثیقه	17064
قفقاز	17065
منحصربه‌فرد	17066
linkedin	17067
یحیی	17068
احادیث	17069
ضوابط	17070
به‌تازگی	17071
cas	17072
dl	17073
east	17074
epa	17075
far	17076
fact	17077
gb	17078
gmail	17079
hist	17080
kr	17081
line	17082
lock	17083
mir	17084
miss	17085
ns	17086
nik	17087
pos	17088
rt	17089
van	17090
yes	17091
zero	17092
آق	17093
آدا	17094
تیت	17095
جیسون	17096
سات	17097
سوت	17098
طوف	17099
فجر	17100
نبی	17101
نعم	17102
١٠	17103
پختن	17104
چرم	17105
ژنی	17106
۶۷	17107
۷۴	17108
۷۷	17109
۸۲	17110
۹۸	17111
##ua	17112
##نوا	17113
##اورت	17114
##بسته	17115
##يق	17116
##صری	17117
##ios	17118
##cer	17119
##che	17120
##gan	17121
##ژاد	17122
##xx	17123
##ْت	17124
درآ	17125
درشت	17126
درعین	17127
میشم	17128
میبرد	17129
راسل	17130
استونی	17131
استوارت	17132
##ورایی	17133
##اته	17134
##ریفی	17135
##ونز	17136
##ونو	17137
##سیان	17138
هایت	17139
منن	17140
منازل	17141
انقدر	17142
##گرای	17143
موجه	17144
##اریف	17145
خودسر	17146
روبی	17147
کارِ	17148
بیوه	17149
امكان	17150
دیویس	17151
دیزل	17152
دیزلی	17153
متورم	17154
پیگرد	17155
##بی‌سی	17156
داشته‌ایم	17157
##قیل	17158
دستوری	17159
دستتان	17160
سرت	17161
نمیکنند	17162
##رتز	17163
زمانبندی	17164
پیشبینی	17165
روزگاری	17166
روزمر	17167
می‌شده	17168
رسیم	17169
##وتکنولوژی	17170
گذرا	17171
##شنا	17172
##وهان	17173
سیاتل	17174
گفتگویی	17175
تجویزی	17176
نظرشان	17177
کردنش	17178
##ارتز	17179
##رائی	17180
بارندگی	17181
زیرک	17182
بلكه	17183
همانجا	17184
تقاطع	17185
سهامی	17186
غیرضر	17187
به‌ن	17188
مدیری	17189
حقّ	17190
تشکل	17191
علمای	17192
##تماس	17193
##ating	17194
اعتدال	17195
اقبال	17196
بدنسازی	17197
تأسف	17198
کوچک‌ترین	17199
میزند	17200
ساعت‌های	17201
پشتکار	17202
سبکی	17203
آخه	17204
خوشبین	17205
انرژی‌های	17206
رابطۀ	17207
خونس	17208
پارکر	17209
نکرده‌ام	17210
عکسبرداری	17211
بی‌شک	17212
##ascript	17213
کلاً	17214
می‌رسانند	17215
آتشی	17216
قسمتهای	17217
stop	17218
کلمه‌ای	17219
مجبورید	17220
بکشیم	17221
لوئی	17222
پروازها	17223
آن‌طور	17224
تست‌های	17225
محبوس	17226
لطیف	17227
انگیزشی	17228
دروغگویی	17229
137	17230
رسانید	17231
##زمایی	17232
##پرستان	17233
درباره‌اش	17234
باغچه	17235
برچسب‌ها	17236
كننده	17237
##شایر	17238
جدیت	17239
۱۹۹۷	17240
##ally	17241
نوشیدنی‌های	17242
استثن	17243
میکروسکوپی	17244
1965	17245
خامنه	17246
خواندنی	17247
academ	17248
princ	17249
تختخواب	17250
فیزیکدانان	17251
نيرو	17252
1947	17253
کاندیدا	17254
سمتی	17255
بشنویم	17256
موناکو	17257
##گرفتگی	17258
کسب‌وکارهای	17259
محضر	17260
کارآمدتر	17261
متمایل	17262
ائتلافی	17263
می‌زنید	17264
بگذرد	17265
غیاب	17266
خلبانان	17267
نرم‌افزارهای	17268
می‌رفتند	17269
نیروگاه‌های	17270
بروکلین	17271
خاتمی	17272
پهلو	17273
چه‌طور	17274
انزال	17275
ادیسون	17276
display	17277
auto	17278
mini	17279
erp	17280
بیهوشی	17281
بیاندازیم	17282
کرواسی	17283
گوسفندان	17284
دلسوز	17285
final	17286
رئيس	17287
راسخ	17288
رؤیاهای	17289
مونتاژ	17290
حتّی	17291
فلاش	17292
##ــــــــــــــــ	17293
check	17294
##دریج	17295
خویشاوندان	17296
نپذیرفت	17297
##‌درمانی	17298
ناسازگاری	17299
marketing	17300
آماده‌سازی	17301
virt	17302
قاطعیت	17303
مافوق	17304
south	17305
سلفی	17306
چیدمان	17307
هاوکینگ	17308
منسوخ	17309
پسربچه	17310
sleep	17311
غایب	17312
رآکتور	17313
نجیب	17314
دوست‌داشتنی	17315
رمزارز	17316
قورباغه	17317
اثاث	17318
پکیج	17319
داشبورد	17320
michael	17321
گارانتی	17322
(«	17323
./	17324
but	17325
cf	17326
count	17327
eu	17328
fm	17329
fbi	17330
gir	17331
hell	17332
hill	17333
host	17334
jun	17335
kar	17336
lte	17337
mount	17338
non	17339
oh	17340
oc	17341
ros	17342
sat	17343
ut	17344
wp	17345
»)	17346
»!	17347
آین	17348
بزار	17349
بتون	17350
بخواهی	17351
ترافیکی	17352
ربع	17353
زوای	17354
زکات	17355
زراد	17356
سعد	17357
شنی	17358
شویی	17359
ظل	17360
غریزی	17361
فج	17362
كام	17363
نلسون	17364
هانت	17365
هراسی	17366
واتی	17367
وهم	17368
پاست	17369
چام	17370
چاوز	17371
کوز	17372
کیب	17373
گپ	17374
گورد	17375
یس	17376
‌دهد	17377
‎‎	17378
”)	17379
##زانیا	17380
##less	17381
##load	17382
##sb	17383
##دف	17384
##ديد	17385
##45	17386
##باب	17387
##‌مد	17388
##‌قیمت	17389
##فیت	17390
##کاک	17391
##ماری	17392
##صور	17393
##صرف	17394
##mark	17395
##ient	17396
##gen	17397
##do	17398
##dy	17399
##خه	17400
##چن	17401
##vo	17402
##ندرت	17403
دربی	17404
بهایی	17405
راد	17406
رازی	17407
##ردید	17408
##الحی	17409
##ورف	17410
##یرین	17411
آنهم	17412
آنفل	17413
می‌نوشت	17414
همگرایی	17415
##ونید	17416
##ونستم	17417
##سیکلت	17418
##گرایانه	17419
##ه‌ي	17420
خودآگاه	17421
خواری	17422
بوده‌اید	17423
بوده‌ایم	17424
روا	17425
کارد	17426
کارائیب	17427
ماس	17428
##اسبی	17429
دوبل	17430
##یائو	17431
متان	17432
دستکش	17433
ترند	17434
بدبین	17435
کمد	17436
کمین	17437
الرح	17438
کشفی	17439
اسپی	17440
##اندار	17441
زمان‌بندی	17442
انجام‌شده	17443
تنه	17444
مهیج	17445
...”	17446
زندگیشان	17447
سازوکار	17448
گفته‌ام	17449
ویس	17450
راهش	17451
راهکاری	17452
اولاً	17453
بعدتر	17454
نمی‌رس	17455
تغي	17456
شهامت	17457
پایبندی	17458
تماماً	17459
بلایی	17460
مصوبه	17461
دلال	17462
دلتان	17463
ارتد	17464
کوپر	17465
##onom	17466
به‌جز	17467
به‌ندرت	17468
بخشنده	17469
ساعاتی	17470
عمرم	17471
گروه‌هایی	17472
بدونم	17473
جنگجو	17474
گردو	17475
##ائیل	17476
لیتیوم	17477
ملان	17478
گیفت	17479
صداهایی	17480
وقتها	17481
صفحاتی	17482
بحال	17483
آرن	17484
##وکراسی	17485
106	17486
سخت‌افزار	17487
عوام	17488
جاوید	17489
فیض	17490
##ison	17491
عکس‌هایی	17492
طولانی‌ترین	17493
##ington	17494
گلخانه‌ای	17495
فرصت‌هایی	17496
بی‌م	17497
بی‌بی‌سی	17498
سنگ‌های	17499
روشنفکر	17500
ترسیده	17501
بسزایی	17502
##کننده‌ی	17503
ماندلا	17504
##cher	17505
شدیدترین	17506
ویژگی‌هایی	17507
فرهنگ‌های	17508
الهه	17509
بازگشتی	17510
مداربسته	17511
مقایس	17512
میتوانم	17513
##aya	17514
اطرافش	17515
ابرهای	17516
موتورسیکلت	17517
دعوی	17518
خودروسازان	17519
##ague	17520
همسری	17521
آشنایان	17522
رقابت‌های	17523
بگوئید	17524
ظرفشویی	17525
۱۵۰۰	17526
شماره‌ی	17527
2500	17528
آشکارساز	17529
نظام‌های	17530
متمدن	17531
کوهی	17532
جامعه‌	17533
کره‌ای	17534
می‌پذیرد	17535
سهامدار	17536
مولر	17537
آژانس‌های	17538
##overy	17539
لزومی	17540
مقدمات	17541
جیغ	17542
1961	17543
المثل	17544
سیریز	17545
pres	17546
۱۹۸۹	17547
۱۹۸۲	17548
ايجاد	17549
ناهمو	17550
زوجین	17551
فایروال	17552
##‌تک	17553
شارژر	17554
##وکسید	17555
مونترال	17556
می‌بریم	17557
بایستد	17558
atl	17559
تندرو	17560
اولیه‌ی	17561
توجیهی	17562
hdr	17563
مهارتی	17564
مسلمین	17565
استنباط	17566
کریستوفر	17567
icc	17568
نتوانستیم	17569
آرژانتینی	17570
درآورده	17571
بيان	17572
سحابی	17573
جینس	17574
توافقات	17575
كمتر	17576
مارکسیستی	17577
آرشیوهای	17578
هلیوم	17579
ماتریس	17580
مکتوب	17581
دیپلمات‌های	17582
بمیرم	17583
##فشانی	17584
بپوشانید	17585
درمیان	17586
پیشگامان	17587
samsung	17588
موریس	17589
شکوفه	17590
مسوولیت	17591
english	17592
جست‌وجوی	17593
ادامه‌ی	17594
جنجالی	17595
مصونیت	17596
دامپزشکی	17597
خودخواهانه	17598
ظالمانه	17599
point	17600
connect	17601
person	17602
خودمختار	17603
هشیار	17604
فرآورده	17605
غواصی	17606
کارولینای	17607
مصلحت	17608
earth	17609
علاوه‌بر	17610
پراکندگی	17611
برآمده	17612
تزیین	17613
هموطنان	17614
آثاری	17615
یبوست	17616
سوپرمارکت	17617
ielts	17618
ماوراء	17619
غیرضروری	17620
)[	17621
.]	17622
91	17623
bet	17624
bill	17625
cta	17626
est	17627
ga	17628
gn	17629
gam	17630
ke	17631
lay	17632
pac	17633
ris	17634
sing	17635
tot	17636
touch	17637
ve	17638
آستان	17639
آکا	17640
امیلی	17641
اكنون	17642
بجا	17643
بطوری	17644
زع	17645
سمع	17646
صالحی	17647
طالب	17648
عارف	17649
فست	17650
كامل	17651
كسانی	17652
لنگ	17653
لوت	17654
ملب	17655
مندان	17656
هابل	17657
پچ	17658
پنی	17659
چاب	17660
چاک	17661
ژاک	17662
کرای	17663
یورک	17664
۵۹	17665
‌و	17666
‏(	17667
##قلی	17668
##بارت	17669
##‌بر	17670
##‌بینی	17671
##‌می‌	17672
##فصل	17673
##سکوپ	17674
##جار	17675
##يح	17676
##hr	17677
##gl	17678
##گوار	17679
##خون	17680
##پاس	17681
##طقی	17682
##fe	17683
##field	17684
##ِک	17685
##ِین	17686
##َت	17687
##22	17688
میشناس	17689
میخوان	17690
برکلی	17691
اینجوری	17692
##ه‌بان	17693
##میه	17694
نیوتن	17695
روى	17696
رومیزی	17697
کارمان	17698
کارساز	17699
بیلیون	17700
##انیک	17701
توخالی	17702
محال	17703
توانا	17704
آمرز	17705
آمینه	17706
معارف	17707
کننده‌ای	17708
دستخوش	17709
سرگی	17710
حالم	17711
حالش	17712
مشوق	17713
التماس	17714
اسکل	17715
اندر	17716
مسطح	17717
نوردهی	17718
زنده‌	17719
عناصری	17720
بزنی	17721
هیست	17722
توسل	17723
اتو	17724
بختی	17725
واقف	17726
مطیع	17727
گفته‌های	17728
بازیهای	17729
جمجمه	17730
برنز	17731
کسى	17732
کلکسیون	17733
نمی‌پذیر	17734
نمی‌گذارد	17735
زنش	17736
زنها	17737
زننده	17738
ادویه	17739
##رائیل	17740
.».	17741
مصارف	17742
دلشان	17743
تعاریف	17744
##کسید	17745
کویر	17746
پریدن	17747
شبح	17748
فعاليت	17749
دولتها	17750
فیلمساز	17751
مستر	17752
آوردید	17753
بدنام	17754
نزدیك	17755
نزدیکان	17756
##ita	17757
##کوف	17758
صدقه	17759
وضعی	17760
آخری	17761
خواستن	17762
انتقالات	17763
##red	17764
##reen	17765
مبح	17766
##‌الم	17767
مستقلی	17768
آشکاری	17769
فرصتهای	17770
بی‌پایان	17771
##ola	17772
خودشون	17773
می‌آوریم	17774
تسبیح	17775
محافل	17776
قویتر	17777
تأثیرگذاری	17778
نیمکره	17779
آتشفشان	17780
بشکند	17781
لباسشویی	17782
موتورز	17783
مؤثری	17784
##ury	17785
بخوانیم	17786
ساختارها	17787
پايان	17788
##ima	17789
نگرانی‌ها	17790
کدها	17791
والدینش	17792
ميل	17793
بچگی	17794
خوشحالیم	17795
گذارید	17796
##ipp	17797
##ops	17798
باغی	17799
رستا	17800
رستور	17801
مطلوبی	17802
گوشتی	17803
آلمانی‌ها	17804
رستوران‌ها	17805
معیوب	17806
phil	17807
سانتری	17808
کارگردانان	17809
کمپانی‌های	17810
نظریه‌های	17811
ash	17812
بنویسیم	17813
##ights	17814
لبخندی	17815
انعطاف‌پذیر	17816
بازنشستگان	17817
الهام‌بخش	17818
1963	17819
دبیرستانی	17820
۱۹۶۹	17821
1946	17822
سرگرم‌کننده	17823
بشنوم	17824
نعوظ	17825
کوره	17826
دستمزدها	17827
text	17828
دستاوردها	17829
پلیسی	17830
رسولان	17831
روزنامه‌ها	17832
یقینا	17833
رؤسای	17834
##ments	17835
برهه	17836
فلورانس	17837
color	17838
قضاییه	17839
##ريق	17840
بازتابی	17841
انقضا	17842
مقالاتی	17843
پتروشیمی	17844
auth	17845
airbn	17846
جاودان	17847
پرخطر	17848
زنبورها	17849
کُرد	17850
ناشران	17851
poly	17852
سردرگم	17853
دبلیو	17854
پرونده‌های	17855
engine	17856
آپارتمانی	17857
libr	17858
cyber	17859
پرنسس	17860
هفدهم	17861
کوپن	17862
می‌خندد	17863
اشاره‌ای	17864
دایناسور	17865
نفهم	17866
بیزانس	17867
اقیانوسیه	17868
افریقا	17869
فضاپیمای	17870
خزانه‌داری	17871
ابرقهرمان	17872
باینری	17873
مضحک	17874
پیشینیان	17875
زمزمه	17876
اسقف	17877
راهنماهای	17878
تاندون	17879
مادرزادی	17880
بیزینس	17881
settings	17882
استمرار	17883
مصادره	17884
تغيير	17885
سیریزا	17886
airbnb	17887
:(	17888
action	17889
fun	17890
ict	17891
ml	17892
mel	17893
nba	17894
nsa	17895
old	17896
pg	17897
site	17898
ssd	17899
task	17900
vm	17901
،”	17902
بسم	17903
بعث	17904
تامل	17905
جوم	17906
حوله	17907
خیم	17908
دیت	17909
[...]
