<unk>	0
<s>	0
</s>	0
▁ا	-0
▁ب	-1
▁م	-2
▁د	-3
▁ک	-4
ان	-5
را	-6
▁ه	-7
ست	-8
▁و	-9
▁ت	-10
ند	-11
ار	-12
ای	-13
ین	-14
▁در	-15
▁ش	-16
▁ن	-17
▁به	-18
▁می	-19
▁آ	-20
▁س	-21
ید	-22
ود	-23
▁خ	-24
▁که	-25
▁از	-26
▁را	-27
▁است	-28
▁با	-29
▁ی	-30
رد	-31
اد	-32
ال	-33
▁این	-34
▁پ	-35
رو	-36
ام	-37
ری	-38
▁گ	-39
▁ج	-40
▁ف	-41
▁ح	-42
اه	-43
▁های	-44
رای	-45
▁کن	-46
ما	-47
▁آن	-48
▁ع	-49
ور	-50
▁چ	-51
یم	-52
▁ز	-53
▁یک	-54
شت	-55
لی	-56
▁تو	-57
▁هم	-58
▁ق	-59
▁برای	-60
ات	-61
اب	-62
سی	-63
فت	-64
ون	-65
▁شد	-66
▁بر	-67
یر	-68
▁ر	-69
از	-70
▁ها	-71
▁کرد	-72
▁رو	-73
▁خو	-74
ول	-75
▁ان	-76
▁من	-77
▁مو	-78
ها	-79
گر	-80
می	-81
▁خود	-82
اری	-83
انی	-84
لا	-85
تی	-86
اده	-87
▁ط	-88
▁دار	-89
▁نی	-90
▁شما	-91
▁ای	-92
▁بود	-93
گی	-94
▁بی	-95
▁کار	-96
▁توان	-97
▁باش	-98
تر	-99
▁ص	-100
▁ده	-101
وی	-102
های	-103
▁دا	-104
▁یا	-105
مان	-106
زی	-107
▁تا	-108
▁کند	-109
▁شود	-110
▁ما	-111
▁او	-112
خت	-113
▁شده	-114
▁کنند	-115
▁سال	-116
کن	-117
▁ام	-118
اس	-119
وان	-120
▁دو	-121
اید	-122
یت	-123
رک	-124
▁کنید	-125
▁دی	-126
▁(	-127
ایی	-128
▁هست	-129
▁هر	-130
..	-131
▁خواه	-132
▁پی	-133
▁مح	-134
دی	-135
انه	-136
ده	-137
▁آم	-138
نی	-139
▁مت	-140
بی	-141
▁مع	-142
اق	-143
▁اف	-144
شته	-145
▁اند	-146
▁ل	-147
▁تر	-148
▁اما	-149
قی	-150
له	-151
نگ	-152
▁باشد	-153
▁دست	-154
گاه	-155
رت	-156
بت	-157
یا	-158
دا	-159
▁دارد	-160
عی	-161
▁نمی	-162
▁آنها	-163
▁حال	-164
▁دان	-165
▁فر	-166
▁باید	-167
▁غ	-168
▁ال	-169
مای	-170
بر	-171
▁اگر	-172
فته	-173
▁کم	-174
▁سر	-175
▁مش	-176
شان	-177
▁شو	-178
▁«	-179
فاده	-180
▁کش	-181
▁استفاده	-182
اره	-183
که	-184
▁بد	-185
▁1	-186
▁چه	-187
رف	-188
وز	-189
▁چی	-190
جه	-191
▁باز	-192
ارد	-193
امه	-194
▁،	-195
نده	-196
▁اس	-197
▁گر	-198
▁بسی	-199
یل	-200
جود	-201
اف	-202
▁نظ	-203
ادی	-204
▁دیگر	-205
عه	-206
رار	-207
▁مد	-208
▁هستند	-209
جام	-210
▁مورد	-211
اخت	-212
وری	-213
به	-214
▁زی	-215
▁نو	-216
▁تح	-217
عت	-218
▁کرده	-219
▁دهد	-220
▁انجام	-221
▁داد	-222
▁پیش	-223
▁روز	-224
دید	-225
▁رس	-226
▁بین	-227
نین	-228
▁مق	-229
▁2	-230
▁تن	-231
عد	-232
▁مرد	-233
▁گذ	-234
▁نیست	-235
▁عن	-236
زار	-237
وم	-238
کی	-239
▁بخ	-240
▁زند	-241
شی	-242
▁تواند	-243
رگ	-244
▁همه	-245
▁زم	-246
اط	-247
▁وجود	-248
مل	-249
▁مس	-250
▁جه	-251
▁تم	-252
▁بیشت	-253
▁انت	-254
قت	-255
▁اج	-256
ستان	-257
الی	-258
▁نیز	-259
فر	-260
▁ند	-261
▁مه	-262
▁اح	-263
▁عنوان	-264
خص	-265
▁قرار	-266
▁پس	-267
ریک	-268
رات	-269
یده	-270
▁بز	-271
رکت	-272
▁خواهد	-273
▁مم	-274
▁ساز	-275
رس	-276
▁هی	-277
وت	-278
وا	-279
▁روی	-280
▁توس	-281
▁ات	-282
▁داشته	-283
ونه	-284
امل	-285
▁مان	-286
...	-287
▁وی	-288
کر	-289
▁کشور	-290
نامه	-291
▁زندگی	-292
▁داشت	-293
▁دانش	-294
کل	-295
▁واق	-296
▁۱	-297
▁مط	-298
▁راه	-299
▁ممکن	-300
وه	-301
خی	-302
▁همچ	-303
▁سی	-304
قه	-305
▁گفت	-306
شن	-307
چه	-308
▁.	-309
▁شوند	-310
▁جم	-311
▁تص	-312
▁تج	-313
ورد	-314
امی	-315
ینه	-316
▁داده	-317
رز	-318
▁مج	-319
اص	-320
▁بیشتر	-321
رب	-322
▁گو	-323
▁بازی	-324
▁دارند	-325
▁بسیار	-326
▁اط	-327
ایت	-328
▁شرکت	-329
▁کردن	-330
▁نیاز	-331
در	-332
▁نظر	-333
▁هیچ	-334
گان	-335
مو	-336
▁زمان	-337
▁هایی	-338
▁شن	-339
شد	-340
کان	-341
فا	-342
▁طور	-343
▁بزرگ	-344
▁نام	-345
▁"	-346
ترین	-347
00	-348
▁نق	-349
▁افرا	-350
▁کس	-351
عات	-352
▁کنیم	-353
ره	-354
▁اول	-355
ازه	-356
▁یکی	-357
▁آمریک	-358
▁اص	-359
با	-360
▁برنامه	-361
▁جدید	-362
حی	-363
▁شه	-364
▁تنها	-365
ورت	-366
▁تغ	-367
▁بگ	-368
▁دور	-369
▁کل	-370
▁مث	-371
مند	-372
سان	-373
▁حد	-374
▁نه	-375
کت	-376
▁چند	-377
▁ساخت	-378
▁کمک	-379
شه	-380
▁همچنین	-381
er	-382
▁پرو	-383
زای	-384
▁مردم	-385
ارت	-386
▁۲	-387
صد	-388
▁فق	-389
▁زن	-390
▁پای	-391
لب	-392
▁ماه	-393
اند	-394
▁بن	-395
جا	-396
▁نشان	-397
▁نا	-398
▁تغی	-399
لام	-400
▁قب	-401
▁اد	-402
▁چیزی	-403
رائ	-404
ژی	-405
▁سو	-406
▁واقع	-407
سته	-408
فی	-409
ستم	-410
▁بار	-411
▁S	-412
▁توانید	-413
▁آز	-414
▁قد	-415
.»	-416
▁توسط	-417
باره	-418
▁اش	-419
▁اع	-420
جاد	-421
▁ایر	-422
▁دهند	-423
▁جن	-424
▁ایجاد	-425
ابل	-426
اک	-427
▁گی	-428
▁همان	-429
▁تمام	-430
یه	-431
▁آموز	-432
▁صورت	-433
▁بیم	-434
▁فقط	-435
رم	-436
▁بعد	-437
کار	-438
▁آیا	-439
▁بل	-440
▁چیز	-441
▁کنم	-442
in	-443
▁خدا	-444
▁کو	-445
بان	-446
▁جهان	-447
▁طول	-448
▁بیش	-449
▁تب	-450
▁نش	-451
▁دل	-452
▁C	-453
خاب	-454
▁مص	-455
گونه	-456
▁خی	-457
▁ض	-458
▁مانند	-459
▁بسیاری	-460
▁تع	-461
▁فع	-462
▁باشید	-463
▁ك	-464
▁تق	-465
▁تول	-466
اض	-467
هایی	-468
▁ارت	-469
بود	-470
▁انتخاب	-471
▁حتی	-472
مت	-473
راه	-474
▁نس	-475
▁هن	-476
▁اینکه	-477
▁ری	-478
روز	-479
▁افراد	-480
لف	-481
▁آی	-482
▁ترین	-483
رسی	-484
▁سه	-485
▁خط	-486
▁نم	-487
▁آمریکا	-488
▁یاد	-489
▁اطلا	-490
on	-491
▁رفت	-492
تاب	-493
رده	-494
مین	-495
نج	-496
▁A	-497
▁برخی	-498
شم	-499
▁وق	-500
کس	-501
▁مهم	-502
لیل	-503
ژه	-504
▁زمانی	-505
سه	-506
▁خان	-507
مال	-508
▁ث	-509
قیق	-510
تان	-511
▁گرفت	-512
وب	-513
▁غیر	-514
وش	-515
توان	-516
نه	-517
اتی	-518
▁کردند	-519
▁دول	-520
گری	-521
▁برا	-522
an	-523
وق	-524
▁جای	-525
▁ایران	-526
▁باشند	-527
وع	-528
▁کود	-529
ثر	-530
▁-	-531
▁افزای	-532
ادر	-533
بال	-534
واه	-535
ونی	-536
▁افزایش	-537
▁دهید	-538
▁سا	-539
ستی	-540
▁کتاب	-541
ابی	-542
▁نمای	-543
گیری	-544
▁بخش	-545
ساس	-546
▁آب	-547
▁مرا	-548
▁تغییر	-549
▁فیل	-550
ریق	-551
▁تولید	-552
▁چرا	-553
▁درصد	-554
ینی	-555
▁20	-556
▁غذ	-557
دام	-558
▁شخص	-559
▁مشت	-560
▁توانند	-561
▁اطلاعات	-562
▁همین	-563
▁ذ	-564
▁شب	-565
▁فکر	-566
▁M	-567
▁بع	-568
رح	-569
▁توجه	-570
یس	-571
یدا	-572
▁هد	-573
▁علا	-574
▁ارائ	-575
▁سیا	-576
▁فرو	-577
ضی	-578
▁دید	-579
▁ارائه	-580
ایل	-581
▁ایم	-582
زینه	-583
▁حق	-584
▁مشکل	-585
مه	-586
▁میلی	-587
▁تش	-588
▁فعال	-589
▁اخ	-590
▁گرو	-591
▁کسی	-592
▁بوده	-593
▁وقتی	-594
▁چگونه	-595
▁مخت	-596
▁خار	-597
▁عم	-598
وط	-599
رام	-600
ریت	-601
اً	-602
▁3	-603
▁P	-604
▁نخ	-605
جی	-606
▁“	-607
▁بدون	-608
▁خد	-609
▁دوست	-610
▁فرد	-611
عیت	-612
مات	-613
▁بودند	-614
▁اعت	-615
▁زیادی	-616
▁احت	-617
وس	-618
▁شدن	-619
گز	-620
▁عمل	-621
▁گرد	-622
▁خانه	-623
▁درباره	-624
▁هنگ	-625
▁پیدا	-626
▁عل	-627
ar	-628
▁گرفته	-629
▁کاه	-630
▁برد	-631
بط	-632
▁گروه	-633
راحی	-634
▁معم	-635
▁جنگ	-636
▁آل	-637
قل	-638
یشه	-639
▁اه	-640
۰۰	-641
▁سیستم	-642
تما	-643
روع	-644
بار	-645
▁ژ	-646
▁کاهش	-647
رزش	-648
▁خیلی	-649
▁وا	-650
▁حس	-651
▁–	-652
▁مطال	-653
▁بال	-654
▁شهر	-655
زه	-656
وند	-657
راین	-658
▁سازمان	-659
▁خوب	-660
من	-661
رین	-662
▁شروع	-663
▁اقت	-664
فق	-665
لیه	-666
▁دولت	-667
▁ترک	-668
گه	-669
▁کام	-670
وص	-671
▁دنی	-672
▁دریا	-673
▁متح	-674
است	-675
or	-676
الات	-677
یمی	-678
▁اب	-679
▁سایت	-680
▁B	-681
▁اقتص	-682
▁سپ	-683
▁نفر	-684
▁احساس	-685
▁فیلم	-686
▁قابل	-687
▁موض	-688
▁شک	-689
▁پر	-690
▁دلیل	-691
▁دیگری	-692
کرد	-693
▁اولین	-694
▁چنین	-695
ودی	-696
ازی	-697
رکز	-698
اسی	-699
▁کننده	-700
▁انسان	-701
▁قبل	-702
پی	-703
▁بناب	-704
▁بهترین	-705
وار	-706
دار	-707
سر	-708
▁T	-709
▁امروز	-710
▁نز	-711
یف	-712
رید	-713
▁منط	-714
زش	-715
▁مست	-716
▁میان	-717
▁دارید	-718
باط	-719
▁منت	-720
▁کسب	-721
▁صح	-722
▁19	-723
▁روش	-724
بین	-725
▁جل	-726
▁تاری	-727
▁:	-728
▁خواهید	-729
en	-730
▁ندارد	-731
▁آورد	-732
▁حرف	-733
▁همیشه	-734
یدن	-735
عث	-736
▁تلا	-737
▁باعث	-738
▁انگ	-739
▁زبان	-740
ربه	-741
سم	-742
▁بنابراین	-743
▁پرد	-744
▁کوچ	-745
▁افت	-746
▁فرا	-747
▁D	-748
▁ارو	-749
▁موفق	-750
▁خواهند	-751
شتی	-752
▁دن	-753
▁خانو	-754
▁دارای	-755
▁پاس	-756
▁قدرت	-757
▁ولی	-758
▁اق	-759
▁گذشته	-760
▁ارتباط	-761
▁مدت	-762
▁مخ	-763
▁توسعه	-764
▁معمول	-765
ران	-766
ظه	-767
▁سط	-768
▁طراحی	-769
al	-770
at	-771
▁اجتما	-772
مد	-773
▁محص	-774
▁طریق	-775
ویی	-776
طور	-777
▁دنبال	-778
▁...	-779
▁شم	-780
▁اروپ	-781
▁قان	-782
▁جهانی	-783
▁201	-784
▁5	-785
ولی	-786
▁تلاش	-787
▁کاری	-788
▁سری	-789
▁بهتر	-790
es	-791
▁آنچه	-792
اشت	-793
▁تعد	-794
▁هدف	-795
▁4	-796
اور	-797
▁مختلف	-798
▁I	-799
▁وب	-800
▁آینده	-801
اهی	-802
ریان	-803
▁شامل	-804
▁دانشگاه	-805
فاق	-806
▁هنوز	-807
▁محصول	-808
▁خاص	-809
میم	-810
نان	-811
▁پذ	-812
رن	-813
▁اصلی	-814
مایه	-815
▁زیر	-816
ندی	-817
▁اجتماعی	-818
▁خرید	-819
▁بالا	-820
▁قط	-821
▁لی	-822
▁سن	-823
▁بدن	-824
▁نوع	-825
▁اتفاق	-826
▁اشت	-827
هن	-828
▁سای	-829
▁سرمایه	-830
اسب	-831
▁دریافت	-832
▁مسئ	-833
▁مدی	-834
▁ادامه	-835
▁فروش	-836
▁المل	-837
▁گفته	-838
▁حدود	-839
▁تک	-840
▁تجربه	-841
شر	-842
▁تأ	-843
▁تحقیق	-844
ثیر	-845
▁H	-846
▁[	-847
افی	-848
▁حاض	-849
▁دادن	-850
▁مصرف	-851
▁جز	-852
▁G	-853
▁کمی	-854
▁نسبت	-855
فاوت	-856
▁احتمال	-857
▁اندازه	-858
▁ته	-859
▁زنان	-860
▁پاسخ	-861
▁خانواده	-862
این	-863
انس	-864
▁زیرا	-865
▁درمان	-866
اپ	-867
▁صد	-868
▁همراه	-869
دم	-870
ائ	-871
دود	-872
▁بررسی	-873
▁حاضر	-874
دیل	-875
▁رشد	-876
▁کوچک	-877
▁حالی	-878
▁هزینه	-879
▁آموزش	-880
▁مالی	-881
▁نزدی	-882
▁منطقه	-883
ترل	-884
صوص	-885
▁ندار	-886
▁نیرو	-887
▁ساعت	-888
▁میز	-889
▁المللی	-890
▁فعالیت	-891
▁خوبی	-892
▁میلیون	-893
رایط	-894
▁خاط	-895
▁چهار	-896
▁جام	-897
کنون	-898
▁گزار	-899
▁اض	-900
▁هفته	-901
▁شرایط	-902
▁حل	-903
▁کنترل	-904
▁تبدیل	-905
▁اید	-906
▁کلی	-907
▁وقت	-908
▁پزش	-909
▁کامل	-910
▁صف	-911
▁داخ	-912
▁شی	-913
تیجه	-914
▁تحت	-915
▁زمین	-916
یدی	-917
▁مل	-918
▁دوره	-919
▁طبی	-920
اران	-921
اش	-922
▁بده	-923
لاح	-924
▁R	-925
ربی	-926
▁فض	-927
▁آغ	-928
▁وارد	-929
▁بتوان	-930
گرد	-931
بری	-932
▁پنج	-933
▁ظ	-934
▁گست	-935
▁موضوع	-936
▁تصمیم	-937
▁بلکه	-938
▁سطح	-939
▁ارزش	-940
▁نتیجه	-941
ازم	-942
▁بیماری	-943
وست	-944
▁خصوص	-945
نا	-946
▁اک	-947
▁بازار	-948
▁مسی	-949
▁اجازه	-950
▁چون	-951
شار	-952
it	-953
▁گزارش	-954
▁هزار	-955
▁جمه	-956
▁تان	-957
▁صحبت	-958
▁گوید	-959
گران	-960
▁۲۰	-961
▁اخت	-962
▁E	-963
▁مرب	-964
▁کان	-965
▁شاید	-966
▁صن	-967
حه	-968
▁سب	-969
▁تعداد	-970
▁۳	-971
▁متحده	-972
▁مواد	-973
▁شدند	-974
▁ار	-975
▁مدیریت	-976
▁سخ	-977
ندان	-978
▁مثال	-979
▁L	-980
le	-981
▁چشم	-982
▁بیشتری	-983
▁پول	-984
▁شکل	-985
رژی	-986
▁اغ	-987
▁دلار	-988
ندگان	-989
▁گذاری	-990
▁آسی	-991
▁آغاز	-992
▁پایان	-993
▁وز	-994
دن	-995
▁وض	-996
یره	-997
▁آخ	-998
▁واقعی	-999
ic	-1000
کو	-1001
▁سل	-1002
عنی	-1003
▁ایالات	-1004
▁مغ	-1005
▁درست	-1006
▁هستید	-1007
▁بگیر	-1008
▁سف	-1009
▁F	-1010
▁برابر	-1011
رش	-1012
▁سلام	-1013
▁جمله	-1014
▁ابت	-1015
▁۱۹	-1016
بران	-1017
رون	-1018
▁مف	-1019
رض	-1020
ابت	-1021
▁طرف	-1022
▁کردم	-1023
برد	-1024
».	-1025
▁خوش	-1026
▁سازی	-1027
▁اغلب	-1028
▁نگاه	-1029
نت	-1030
مانی	-1031
▁مربوط	-1032
اح	-1033
اله	-1034
▁حمای	-1035
▁گیر	-1036
▁مثل	-1037
st	-1038
▁W	-1039
کاری	-1040
رخ	-1041
▁اینجا	-1042
▁امکان	-1043
▁بح	-1044
▁اساس	-1045
▁مناسب	-1046
▁نبود	-1047
▁مطالعه	-1048
▁نوی	-1049
▁اروپا	-1050
▁چین	-1051
بته	-1052
▁مک	-1053
▁منظ	-1054
▁یعنی	-1055
▁محدود	-1056
▁دنیا	-1057
▁سرا	-1058
▁ره	-1059
▁حض	-1060
▁رسد	-1061
▁پذیر	-1062
مایش	-1063
تری	-1064
▁دیگران	-1065
▁مشخص	-1066
▁گیری	-1067
▁نزدیک	-1068
▁شوید	-1069
▁عب	-1070
▁تاریخ	-1071
▁پروژه	-1072
▁کسانی	-1073
▁زمینه	-1074
▁تیم	-1075
ویر	-1076
▁حمایت	-1077
قات	-1078
▁قیم	-1079
▁جا	-1080
▁شبکه	-1081
▁انرژی	-1082
میت	-1083
▁لازم	-1084
▁6	-1085
اخته	-1086
لس	-1087
▁امن	-1088
▁گیرد	-1089
▁جو	-1090
▁خدمات	-1091
ولو	-1092
▁گونه	-1093
▁نگه	-1094
▁عمو	-1095
▁یافت	-1096
▁هنگامی	-1097
▁خاطر	-1098
▁البته	-1099
▁N	-1100
▁مرت	-1101
▁نف	-1102
▁روسی	-1103
صل	-1104
▁موجود	-1105
▁خواب	-1106
▁رای	-1107
اقل	-1108
▁اکنون	-1109
گو	-1110
▁جان	-1111
▁اقتصادی	-1112
▁گوی	-1113
▁هوا	-1114
▁بدان	-1115
▁رابط	-1116
ویت	-1117
▁کافی	-1118
▁طب	-1119
▁توص	-1120
▁کودکان	-1121
▁داریم	-1122
اشته	-1123
بانی	-1124
).	-1125
▁کاملا	-1126
جر	-1127
شید	-1128
▁فی	-1129
▁تقری	-1130
▁سایر	-1131
▁نمایش	-1132
▁قانون	-1133
▁اعلام	-1134
هم	-1135
ئیس	-1136
▁سپس	-1137
▁خون	-1138
وده	-1139
خانه	-1140
▁حی	-1141
▁سیاسی	-1142
▁نخواه	-1143
▁سریع	-1144
▁انتظ	-1145
▁قیمت	-1146
▁درک	-1147
▁ملی	-1148
روری	-1149
▁ست	-1150
▁شخصی	-1151
▁آزمایش	-1152
▁بان	-1153
▁۵	-1154
▁پیشر	-1155
▁بهبود	-1156
لاف	-1157
▁مرگ	-1158
▁تقریبا	-1159
▁جامعه	-1160
▁دخ	-1161
▁رسید	-1162
▁کمتر	-1163
اهای	-1164
ro	-1165
جوی	-1166
▁كه	-1167
▁داستان	-1168
▁سفر	-1169
▁درخ	-1170
▁رنگ	-1171
▁شان	-1172
▁موارد	-1173
▁دارم	-1174
امبر	-1175
▁تکن	-1176
▁طبیعی	-1177
▁ساخته	-1178
ریم	-1179
▁هرگز	-1180
▁محی	-1181
▁فرز	-1182
▁محیط	-1183
▁نت	-1184
▁بعضی	-1185
▁ساده	-1186
re	-1187
▁شناس	-1188
▁کودک	-1189
▁مذ	-1190
شین	-1191
▁لب	-1192
▁حف	-1193
ونت	-1194
▁محت	-1195
▁انتق	-1196
▁خارج	-1197
▁حقی	-1198
▁پرس	-1199
▁لح	-1200
▁رابطه	-1201
▁روسیه	-1202
▁سخت	-1203
▁عمومی	-1204
▁اقدام	-1205
ئن	-1206
▁نقش	-1207
▁صفحه	-1208
ابد	-1209
▁ویژه	-1210
ذار	-1211
▁تما	-1212
▁ایده	-1213
▁فرص	-1214
▁موفقیت	-1215
▁رق	-1216
▁عو	-1217
▁آنجا	-1218
▁حداقل	-1219
▁دوم	-1220
دان	-1221
he	-1222
▁آماده	-1223
▁حقوق	-1224
▁پدر	-1225
▁کنار	-1226
▁موق	-1227
▁مشکلات	-1228
▁افرادی	-1229
▁هو	-1230
▁بودن	-1231
▁پرداخت	-1232
▁رود	-1233
▁سیاست	-1234
▁نکن	-1235
▁حفظ	-1236
ولوژی	-1237
ارک	-1238
ئی	-1239
▁ببین	-1240
▁سوی	-1241
▁دقیق	-1242
▁200	-1243
▁رفتار	-1244
▁مجمو	-1245
)،	-1246
گیر	-1247
▁سرعت	-1248
▁حک	-1249
."	-1250
▁۴	-1251
▁حرکت	-1252
▁انگلی	-1253
▁تاثیر	-1254
راح	-1255
▁یافته	-1256
▁نب	-1257
▁خداوند	-1258
▁صرف	-1259
الت	-1260
▁دستگاه	-1261
▁طی	-1262
وک	-1263
اخ	-1264
جو	-1265
غان	-1266
▁7	-1267
▁کشورهای	-1268
ac	-1269
▁تغیی	-1270
▁برخ	-1271
هنگ	-1272
ایج	-1273
▁جست	-1274
▁آنان	-1275
▁علاوه	-1276
لق	-1277
▁قادر	-1278
اهده	-1279
▁حرفه	-1280
▁جوان	-1281
▁۲۰۱	-1282
▁دوباره	-1283
صر	-1284
ion	-1285
▁غذایی	-1286
ابع	-1287
خصص	-1288
▁میزان	-1289
▁جلو	-1290
طه	-1291
یب	-1292
▁نک	-1293
▁خطر	-1294
▁رئیس	-1295
مندان	-1296
راک	-1297
آن	-1298
واست	-1299
ابه	-1300
▁متفاوت	-1301
▁خواست	-1302
▁خواهیم	-1303
▁برو	-1304
▁10	-1305
افه	-1306
▁خارجی	-1307
آمد	-1308
▁تخ	-1309
▁راح	-1310
▁سراسر	-1311
▁حم	-1312
▁امید	-1313
▁بپ	-1314
▁مب	-1315
▁علیه	-1316
▁انتظار	-1317
▁تل	-1318
▁فرم	-1319
▁جایی	-1320
قدر	-1321
▁انگی	-1322
راف	-1323
▁برق	-1324
▁عض	-1325
▁آوری	-1326
ضا	-1327
▁آسیب	-1328
▁بیان	-1329
om	-1330
▁هنگام	-1331
طان	-1332
▁پیشنه	-1333
▁آمد	-1334
▁مادر	-1335
▁آزاد	-1336
el	-1337
▁هستیم	-1338
سال	-1339
▁خورد	-1340
▁آمریکایی	-1341
▁دهه	-1342
▁تف	-1343
کیل	-1344
▁باور	-1345
▁دیده	-1346
▁دسترسی	-1347
▁عکس	-1348
▁بخشی	-1349
▁آید	-1350
▁نویس	-1351
▁وضعیت	-1352
▁معت	-1353
▁واقعا	-1354
▁داشتن	-1355
▁طولانی	-1356
▁ور	-1357
▁کوت	-1358
تن	-1359
ظت	-1360
ستگی	-1361
▁خبر	-1362
▁بیمار	-1363
▁8	-1364
▁زیاد	-1365
روی	-1366
▁معمولا	-1367
▁شر	-1368
▁اینتر	-1369
▁تجاری	-1370
▁مشاهده	-1371
▁نتایج	-1372
▁اشتب	-1373
وریه	-1374
دیگر	-1375
افق	-1376
▁گاهی	-1377
بور	-1378
گار	-1379
داف	-1380
▁برگ	-1381
▁نشده	-1382
▁روند	-1383
▁پایین	-1384
▁مکان	-1385
قق	-1386
▁دهیم	-1387
▁منتشر	-1388
ou	-1389
▁فشار	-1390
سانی	-1391
▁ابزار	-1392
▁مشتریان	-1393
جب	-1394
ing	-1395
▁سعی	-1396
▁آمده	-1397
▁دختر	-1398
▁امنیت	-1399
▁آش	-1400
▁شناخته	-1401
▁معن	-1402
واره	-1403
▁حقیقت	-1404
▁جذ	-1405
▁مبت	-1406
▁مدیر	-1407
▁خواهم	-1408
تیک	-1409
▁9	-1410
▁اضافه	-1411
▁حضور	-1412
▁رخ	-1413
▁حمل	-1414
▁مسل	-1415
▁معنی	-1416
عا	-1417
▁مهارت	-1418
▁عملی	-1419
▁هنر	-1420
▁نباید	-1421
▁کیف	-1422
ومت	-1423
▁محصولات	-1424
▁درد	-1425
▁متو	-1426
▁نظامی	-1427
▁O	-1428
▁فرصت	-1429
▁لذ	-1430
▁عالی	-1431
▁فران	-1432
▁گل	-1433
▁ترس	-1434
▁ایشان	-1435
هر	-1436
ضای	-1437
▁سنگ	-1438
▁مرح	-1439
▁مطم	-1440
is	-1441
▁مدل	-1442
▁حساب	-1443
راتژی	-1444
بات	-1445
▁ساله	-1446
et	-1447
▁کنندگان	-1448
▁بودم	-1449
▁اسرائ	-1450
ماد	-1451
▁خلا	-1452
▁U	-1453
▁خش	-1454
اندن	-1455
▁همکاری	-1456
▁توانایی	-1457
▁استراتژی	-1458
ابط	-1459
ين	-1460
▁دقی	-1461
▁بچه	-1462
▁درخواست	-1463
▁بس	-1464
▁دارو	-1465
▁بندی	-1466
▁رسانه	-1467
▁مبار	-1468
الب	-1469
▁حالا	-1470
▁موسی	-1471
▁منابع	-1472
▁چیست	-1473
▁تمرکز	-1474
▁نخست	-1475
▁تلف	-1476
▁بینی	-1477
▁خور	-1478
▁سرو	-1479
▁بعدی	-1480
▁اقتصاد	-1481
▁سمت	-1482
▁توانیم	-1483
تل	-1484
ادل	-1485
▁مرکز	-1486
▁ثبت	-1487
▁روشن	-1488
هایت	-1489
قای	-1490
▁جنسی	-1491
نو	-1492
▁اشاره	-1493
شق	-1494
▁اشتباه	-1495
▁نیستند	-1496
▁جمع	-1497
▁نوشت	-1498
▁طرح	-1499
▁روابط	-1500
▁نوشته	-1501
▁غذا	-1502
امین	-1503
کنان	-1504
▁کلا	-1505
▁هستم	-1506
▁محل	-1507
▁فراه	-1508
▁توصیه	-1509
▁مرحله	-1510
داری	-1511
▁خودش	-1512
▁کدام	-1513
داشت	-1514
▁عملکرد	-1515
▁حمله	-1516
▁خودتان	-1517
▁آور	-1518
ائل	-1519
▁فراهم	-1520
ol	-1521
▁گویند	-1522
▁دقیقه	-1523
▁پیام	-1524
▁آگاه	-1525
▁مقام	-1526
▁متوجه	-1527
▁افز	-1528
▁پیشنهاد	-1529
▁اکثر	-1530
▁علاقه	-1531
▁شغ	-1532
▁داخلی	-1533
▁منجر	-1534
▁منظور	-1535
فه	-1536
پل	-1537
▁پشتی	-1538
▁اعتماد	-1539
واج	-1540
رال	-1541
▁توضی	-1542
▁مسیر	-1543
▁داشتند	-1544
am	-1545
▁تشکیل	-1546
▁پوست	-1547
▁مقدار	-1548
▁بگیرید	-1549
خیص	-1550
▁تغییرات	-1551
▁مجموعه	-1552
▁صنعت	-1553
▁گزینه	-1554
▁افغان	-1555
▁سوم	-1556
▁تحقیقات	-1557
▁جهت	-1558
▁جمهوری	-1559
▁برس	-1560
▁تحص	-1561
ناه	-1562
▁بسته	-1563
▁اتح	-1564
▁مدرس	-1565
▁نگر	-1566
▁اسل	-1567
▁اتاق	-1568
رافی	-1569
ریه	-1570
▁پیشرفت	-1571
▁مراق	-1572
▁استخ	-1573
▁مها	-1574
تح	-1575
ریف	-1576
▁بازاری	-1577
▁وسی	-1578
▁V	-1579
▁مستق	-1580
▁گرفتن	-1581
▁تشخیص	-1582
▁قر	-1583
▁یه	-1584
اصله	-1585
▁نرم	-1586
سک	-1587
▁مشتری	-1588
▁ماشین	-1589
▁قل	-1590
▁باشیم	-1591
▁ندارند	-1592
▁یابد	-1593
▁انگلیسی	-1594
▁تصویر	-1595
ارس	-1596
▁کال	-1597
▁کاربران	-1598
▁آخرین	-1599
il	-1600
▁کا	-1601
▁توضیح	-1602
▁رژ	-1603
▁هوش	-1604
▁گردد	-1605
▁دادند	-1606
▁اسپ	-1607
▁گیرند	-1608
لیغ	-1609
▁باقی	-1610
▁مطمئن	-1611
▁کی	-1612
گل	-1613
▁نهایت	-1614
▁سخن	-1615
▁تمرین	-1616
▁اجرای	-1617
▁دوستان	-1618
▁شاه	-1619
راق	-1620
مون	-1621
▁نور	-1622
لاین	-1623
▁اثر	-1624
▁برخورد	-1625
▁بهره	-1626
قد	-1627
▁تبلیغ	-1628
میز	-1629
واع	-1630
▁نداشت	-1631
▁کوتاه	-1632
ظیم	-1633
▁مدرسه	-1634
وبی	-1635
عیین	-1636
بیه	-1637
▁ظاه	-1638
▁متن	-1639
▁/	-1640
▁۶	-1641
▁نبا	-1642
▁اث	-1643
▁پشت	-1644
▁انقل	-1645
تش	-1646
▁اهداف	-1647
▁گسترده	-1648
▁مر	-1649
▁نفت	-1650
▁نمود	-1651
▁تعیین	-1652
▁جریان	-1653
▁پوش	-1654
▁ازد	-1655
▁مرتبط	-1656
▁آزادی	-1657
▁اجرا	-1658
▁انواع	-1659
▁وزن	-1660
as	-1661
▁آلمان	-1662
یز	-1663
▁بلند	-1664
▁واقعیت	-1665
خه	-1666
▁سوریه	-1667
▁امر	-1668
▁بخواه	-1669
▁تای	-1670
▁مشابه	-1671
قا	-1672
▁دری	-1673
ed	-1674
ظر	-1675
▁مغز	-1676
▁شکست	-1677
▁توانست	-1678
سل	-1679
▁رژیم	-1680
اتر	-1681
▁بش	-1682
▁ارس	-1683
▁بانک	-1684
▁درآمد	-1685
▁تمامی	-1686
▁بیرون	-1687
▁مردان	-1688
▁محقق	-1689
▁استاند	-1690
▁ابتدا	-1691
▁مسئله	-1692
▁چندین	-1693
▁توافق	-1694
▁اطمین	-1695
▁عشق	-1696
▁مناط	-1697
▁کاناد	-1698
▁بحث	-1699
ad	-1700
▁تهدید	-1701
▁یکدیگر	-1702
▁بو	-1703
▁حالت	-1704
▁همچنان	-1705
▁قس	-1706
▁الله	-1707
▁داخل	-1708
▁سلامت	-1709
▁موسیقی	-1710
oo	-1711
▁ویژ	-1712
▁اهمیت	-1713
▁آموزان	-1714
حال	-1715
ادگی	-1716
ندگی	-1717
▁محاف	-1718
▁اطمینان	-1719
گون	-1720
▁اسرائیل	-1721
ch	-1722
▁خوان	-1723
▁پاک	-1724
▁پا	-1725
▁لذت	-1726
▁عرض	-1727
انیا	-1728
▁مال	-1729
▁نص	-1730
▁جلوگیری	-1731
▁میل	-1732
▁کردیم	-1733
▁کیفیت	-1734
▁آنلاین	-1735
▁اولیه	-1736
▁پزشکی	-1737
▁عق	-1738
▁الکت	-1739
▁میکن	-1740
▁بگو	-1741
▁آسان	-1742
▁سرطان	-1743
▁قوی	-1744
▁محلی	-1745
▁اینترنت	-1746
▁برند	-1747
▁نمونه	-1748
▁نکنید	-1749
▁اعضای	-1750
وای	-1751
▁سود	-1752
▁ورزش	-1753
▁خصوصی	-1754
▁ویژگی	-1755
▁کشف	-1756
▁ازدواج	-1757
▁الع	-1758
▁سفید	-1759
▁نسخه	-1760
▁مقاله	-1761
▁ذهن	-1762
▁فرانسه	-1763
▁هسته	-1764
▁استاندارد	-1765
▁پیچ	-1766
کته	-1767
ادت	-1768
▁قسمت	-1769
الد	-1770
▁سلول	-1771
▁تکنولوژی	-1772
▁افغانستان	-1773
▁جدا	-1774
▁اختی	-1775
▁دک	-1776
▁فیزی	-1777
▁بازگ	-1778
▁نامه	-1779
▁دهنده	-1780
▁گوش	-1781
▁نخواهد	-1782
▁میک	-1783
▁راست	-1784
نم	-1785
اوی	-1786
گذ	-1787
▁درو	-1788
▁؟	-1789
▁پاد	-1790
شناس	-1791
▁خوا	-1792
▁معل	-1793
▁شدید	-1794
▁ارسال	-1795
▁کامپی	-1796
▁دوران	-1797
امت	-1798
لیس	-1799
▁زنده	-1800
▁اخیر	-1801
حل	-1802
▁سالم	-1803
▁فوق	-1804
▁جمهور	-1805
لیت	-1806
▁ارز	-1807
یک	-1808
▁سوال	-1809
جات	-1810
▁۱۰	-1811
▁عد	-1812
▁بگذار	-1813
▁ماند	-1814
▁قرن	-1815
▁پشتیبانی	-1816
▁آرام	-1817
مز	-1818
▁صل	-1819
▁تجارت	-1820
▁گسترش	-1821
رفی	-1822
روس	-1823
▁بازاریابی	-1824
▁وس	-1825
.”	-1826
فاع	-1827
▁مای	-1828
▁ترکیه	-1829
▁میلیارد	-1830
▁تفاوت	-1831
▁انتقال	-1832
▁*	-1833
▁فرهنگ	-1834
▁بک	-1835
▁قوان	-1836
▁جدی	-1837
رامپ	-1838
ئم	-1839
▁)	-1840
چار	-1841
▁پژ	-1842
of	-1843
000	-1844
▁انسانی	-1845
حد	-1846
▁مناطق	-1847
▁پرداز	-1848
بح	-1849
اصل	-1850
▁نیم	-1851
▁مسائل	-1852
▁دانشجوی	-1853
▁»	-1854
▁جدیدی	-1855
تا	-1856
▁اوقات	-1857
▁تازه	-1858
▁کارهای	-1859
خته	-1860
تور	-1861
▁رفتن	-1862
▁خودم	-1863
▁ناب	-1864
▁ترامپ	-1865
ئو	-1866
▁نقطه	-1867
▁۲۰۰	-1868
▁امریک	-1869
▁متخصص	-1870
▁کره	-1871
▁شخصیت	-1872
▁ران	-1873
اها	-1874
▁آقای	-1875
▁تماس	-1876
▁کجا	-1877
▁فرزند	-1878
▁مبارزه	-1879
▁هند	-1880
▁دنیای	-1881
▁نیروهای	-1882
▁تحلیل	-1883
▁مهاج	-1884
▁قلب	-1885
▁نشانه	-1886
▁فلس	-1887
▁قصد	-1888
ابق	-1889
▁آتش	-1890
▁هفت	-1891
▁آدم	-1892
▁پژوه	-1893
▁احتمالا	-1894
▁یادگیری	-1895
▁شبیه	-1896
▁قوانین	-1897
▁ساختمان	-1898
▁نیروی	-1899
▁t	-1900
▁طبق	-1901
▁تری	-1902
▁ایست	-1903
▁بگوی	-1904
▁قدیمی	-1905
▁مشترک	-1906
▁مجبور	-1907
▁معرفی	-1908
▁K	-1909
▁گوگل	-1910
▁ریزی	-1911
▁مقابل	-1912
گفت	-1913
▁پل	-1914
ولیت	-1915
▁اله	-1916
▁شدت	-1917
وتر	-1918
▁صلح	-1919
▁رد	-1920
▁موس	-1921
▁حز	-1922
▁تصور	-1923
▁چقدر	-1924
▁موقعیت	-1925
▁مستقیم	-1926
▁امنی	-1927
▁صبح	-1928
گیرد	-1929
▁فضای	-1930
▁درون	-1931
▁عراق	-1932
روت	-1933
▁تض	-1934
▁جستجو	-1935
▁رسیدن	-1936
▁بنی	-1937
▁مقای	-1938
انیه	-1939
▁بازدید	-1940
▁بزرگترین	-1941
▁دچار	-1942
▁دانست	-1943
وتی	-1944
▁مقایسه	-1945
▁تاب	-1946
▁سیاه	-1947
▁عبارت	-1948
اج	-1949
▁نکته	-1950
▁فرامو	-1951
بع	-1952
▁بشر	-1953
ادیه	-1954
▁اعمال	-1955
کنش	-1956
▁فل	-1957
▁ارزی	-1958
ویزی	-1959
▁گرم	-1960
▁وظ	-1961
سازی	-1962
▁متع	-1963
راب	-1964
▁میش	-1965
▁فصل	-1966
▁علمی	-1967
▁چطور	-1968
▁میتوان	-1969
iv	-1970
▁ترکیب	-1971
▁عدم	-1972
▁اختیار	-1973
▁کانادا	-1974
▁موا	-1975
▁تأثیر	-1976
صه	-1977
▁مطالعات	-1978
and	-1979
▁حاصل	-1980
▁افزار	-1981
▁راحتی	-1982
▁۸	-1983
ینگ	-1984
▁J	-1985
سیون	-1986
▁ژاپ	-1987
▁تلفن	-1988
▁فردی	-1989
▁امنیتی	-1990
▁گذار	-1991
کرا	-1992
▁شا	-1993
▁همانطور	-1994
▁رسمی	-1995
▁لباس	-1996
▁مثبت	-1997
▁جایگز	-1998
▁12	-1999
▁نداشته	-2000
▁اتحادیه	-2001
▁بازگشت	-2002
id	-2003
▁مفید	-2004
ay	-2005
آی	-2006
▁عص	-2007
▁گذاشت	-2008
▁رسیده	-2009
▁دوربین	-2010
▁دسترس	-2011
▁تلویزی	-2012
زا	-2013
▁دانم	-2014
▁۷	-2015
▁15	-2016
▁نح	-2017
▁مدا	-2018
انت	-2019
ستانی	-2020
▁توانم	-2021
▁شش	-2022
شا	-2023
▁افس	-2024
▁صاد	-2025
ent	-2026
▁کمپ	-2027
عهد	-2028
آوری	-2029
اشق	-2030
جیت	-2031
▁حیوان	-2032
▁عامل	-2033
▁روزانه	-2034
▁18	-2035
کا	-2036
▁آس	-2037
▁زده	-2038
▁متوس	-2039
▁اطراف	-2040
▁تروری	-2041
لال	-2042
▁محققان	-2043
▁ارزیابی	-2044
▁مشاور	-2045
▁شناسایی	-2046
▁حزب	-2047
▁سرد	-2048
▁درجه	-2049
▁انداز	-2050
▁دانند	-2051
▁روان	-2052
▁شیر	-2053
▁موثر	-2054
▁لو	-2055
▁فراموش	-2056
راز	-2057
▁العاده	-2058
جم	-2059
وزه	-2060
▁زود	-2061
▁بمان	-2062
▁مراقبت	-2063
▁شهرو	-2064
▁امیدوار	-2065
▁عمی	-2066
▁دیجیت	-2067
▁خودشان	-2068
▁عرب	-2069
▁اشتراک	-2070
▁دندان	-2071
▁قانونی	-2072
▁نقل	-2073
▁ذخ	-2074
▁جمعیت	-2075
اشی	-2076
▁خاصی	-2077
▁رفته	-2078
us	-2079
هنگی	-2080
رگی	-2081
نگی	-2082
سیس	-2083
عده	-2084
▁دولتی	-2085
یری	-2086
▁خوردن	-2087
رونی	-2088
▁عضو	-2089
▁پروت	-2090
یلی	-2091
▁اسلامی	-2092
ig	-2093
▁دش	-2094
سیم	-2095
▁کامپیوتر	-2096
▁ضد	-2097
▁حذ	-2098
لاً	-2099
▁آف	-2100
عتی	-2101
▁دع	-2102
وانی	-2103
▁روح	-2104
▁بزرگی	-2105
▁دمو	-2106
▁سبک	-2107
▁تعریف	-2108
▁۹	-2109
▁چال	-2110
▁زیست	-2111
▁موتور	-2112
▁”	-2113
▁ژن	-2114
▁پزشک	-2115
▁مواجه	-2116
▁چرخ	-2117
▁مطرح	-2118
ot	-2119
▁داری	-2120
▁لحظه	-2121
▁پایه	-2122
لود	-2123
▁پرواز	-2124
▁فوت	-2125
▁دانشجویان	-2126
▁هدایت	-2127
▁شمالی	-2128
▁وزیر	-2129
▁نکرده	-2130
خواه	-2131
▁موجب	-2132
▁قرآن	-2133
▁چیزهایی	-2134
▁دستی	-2135
رور	-2136
▁بارد	-2137
▁علی	-2138
▁کلاس	-2139
▁ببر	-2140
▁واکنش	-2141
گردان	-2142
▁فرهنگی	-2143
▁تحصیل	-2144
▁کلمه	-2145
▁افتد	-2146
▁منبع	-2147
ته	-2148
▁امام	-2149
▁ضروری	-2150
....	-2151
ورتی	-2152
▁انگیز	-2153
▁اگرچه	-2154
▁علت	-2155
▁نکرد	-2156
▁برگزار	-2157
کید	-2158
رالی	-2159
سب	-2160
▁مبتلا	-2161
▁حذف	-2162
▁مؤ	-2163
▁سازد	-2164
▁انقلاب	-2165
▁هوشمند	-2166
▁انتخابات	-2167
▁دفاع	-2168
▁ورود	-2169
▁علائم	-2170
▁ویت	-2171
▁جذب	-2172
وران	-2173
▁منح	-2174
▁ثابت	-2175
ag	-2176
روف	-2177
▁دشم	-2178
شناسی	-2179
ریب	-2180
▁دهم	-2181
▁همسر	-2182
▁اساسی	-2183
▁قرا	-2184
▁پلیس	-2185
یش	-2186
▁نگران	-2187
▁امروزه	-2188
▁زد	-2189
▁•	-2190
▁حوزه	-2191
▁دانلود	-2192
▁متوسط	-2193
تون	-2194
▁فار	-2195
▁زیب	-2196
ابقه	-2197
▁ببینید	-2198
ئین	-2199
▁همس	-2200
ادهای	-2201
▁عاشق	-2202
▁تمای	-2203
خش	-2204
▁معنای	-2205
▁آموزشی	-2206
▁صدای	-2207
▁معتقد	-2208
▁بخوان	-2209
▁محافظت	-2210
روزی	-2211
▁ماد	-2212
▁نجات	-2213
▁تست	-2214
▁ترتی	-2215
▁ثروت	-2216
سون	-2217
▁بای	-2218
▁امور	-2219
▁ماده	-2220
▁مخال	-2221
▁پژوهش	-2222
ur	-2223
▁آشن	-2224
▁محب	-2225
▁روید	-2226
▁محتوای	-2227
▁بدانید	-2228
▁of	-2229
▁پسر	-2230
▁بگیرد	-2231
▁ساختار	-2232
▁پیچیده	-2233
▁تنظیم	-2234
▁فنا	-2235
▁مدرن	-2236
▁چالش	-2237
ــ	-2238
ژن	-2239
اضی	-2240
لند	-2241
▁ستاره	-2242
▁اصلاح	-2243
▁دیدگاه	-2244
▁مرک	-2245
▁فرمان	-2246
لاگ	-2247
▁پو	-2248
راحت	-2249
ow	-2250
▁ماهی	-2251
▁حکومت	-2252
▁p	-2253
▁قاب	-2254
▁شیوه	-2255
▁مسلمان	-2256
وف	-2257
▁فاصله	-2258
▁فناوری	-2259
وح	-2260
▁فایل	-2261
▁کلیدی	-2262
▁شغل	-2263
▁آنکه	-2264
ارکت	-2265
▁برج	-2266
▁بریت	-2267
▁ظاهر	-2268
▁قرارد	-2269
▁کاربرد	-2270
غال	-2271
▁دکتر	-2272
▁قبلی	-2273
▁وح	-2274
▁کارت	-2275
▁اپ	-2276
جان	-2277
▁مختل	-2278
▁شع	-2279
▁رقابت	-2280
▁دیدن	-2281
▁معمولاً	-2282
رانی	-2283
▁پست	-2284
▁ارتش	-2285
يد	-2286
▁واحد	-2287
▁اینها	-2288
ایه	-2289
▁کشته	-2290
▁خواندن	-2291
▁شیمی	-2292
▁مسئول	-2293
وقف	-2294
▁سق	-2295
▁قطع	-2296
وریت	-2297
▁رهبری	-2298
▁شگفت	-2299
ec	-2300
▁بالای	-2301
▁جنوبی	-2302
ایع	-2303
▁نخستین	-2304
باز	-2305
▁لیست	-2306
▁قه	-2307
▁متوقف	-2308
▁گاز	-2309
▁آفریق	-2310
وله	-2311
▁خودرو	-2312
▁خشونت	-2313
▁بتواند	-2314
▁ترتیب	-2315
▁درمانی	-2316
رایی	-2317
▁ایت	-2318
▁ملل	-2319
▁جالب	-2320
▁نگرانی	-2321
20	-2322
▁زیبا	-2323
un	-2324
▁لط	-2325
آیند	-2326
▁مقد	-2327
▁جزئی	-2328
▁آد	-2329
▁اختص	-2330
▁St	-2331
▁ذخیره	-2332
▁وسیله	-2333
▁بیماران	-2334
▁مسئولیت	-2335
!!	-2336
سا	-2337
زارت	-2338
▁مقامات	-2339
▁عف	-2340
▁جایگزین	-2341
em	-2342
▁مجاز	-2343
آورد	-2344
▁جشن	-2345
▁نوز	-2346
▁دانشمندان	-2347
▁والد	-2348
▁گفتند	-2349
خصوص	-2350
▁مهند	-2351
▁مهمی	-2352
▁ناشی	-2353
▁دانید	-2354
▁کشورها	-2355
▁لین	-2356
▁مگر	-2357
▁امریکا	-2358
ut	-2359
افت	-2360
▁مرز	-2361
▁شماره	-2362
▁شدم	-2363
▁اعتق	-2364
▁منفی	-2365
▁سرویس	-2366
▁آخر	-2367
▁مانده	-2368
گانه	-2369
▁هشت	-2370
▁عوامل	-2371
▁کد	-2372
▁سرز	-2373
▁استرس	-2374
▁سع	-2375
▁وزارت	-2376
▁اقدامات	-2377
▁بزن	-2378
اویر	-2379
▁اين	-2380
▁ظرف	-2381
▁پارک	-2382
▁عرضه	-2383
نش	-2384
▁استرالی	-2385
اما	-2386
ابان	-2387
▁آورده	-2388
▁برادر	-2389
▁هوایی	-2390
▁خدمت	-2391
میل	-2392
▁نیازهای	-2393
اظ	-2394
ماز	-2395
فع	-2396
▁علم	-2397
▁s	-2398
▁عمیق	-2399
کاران	-2400
▁داند	-2401
▁باشم	-2402
▁افتاد	-2403
▁تکرار	-2404
▁جواب	-2405
ویه	-2406
▁تد	-2407
ربانی	-2408
▁اسلام	-2409
▁تقویت	-2410
▁قدر	-2411
ation	-2412
▁بالاتر	-2413
چی	-2414
ers	-2415
▁نرخ	-2416
▁اندازی	-2417
▁موش	-2418
▁ارشد	-2419
راج	-2420
▁نهایی	-2421
▁تاریخی	-2422
▁معرض	-2423
▁محبوب	-2424
▁فرزندان	-2425
▁199	-2426
▁مقا	-2427
▁کاربر	-2428
▁تصاویر	-2429
▁فرآیند	-2430
ذیر	-2431
▁ایمیل	-2432
▁زدن	-2433
داران	-2434
▁تهیه	-2435
▁فرست	-2436
▁نماید	-2437
▁اخلا	-2438
▁مزای	-2439
im	-2440
▁دروغ	-2441
▁رشته	-2442
▁مساف	-2443
▁موضو	-2444
زم	-2445
وئ	-2446
▁سلاح	-2447
▁دانیم	-2448
▁ایرانی	-2449
▁30	-2450
▁صورتی	-2451
▁پار	-2452
▁عمر	-2453
▁محک	-2454
▁In	-2455
▁فهم	-2456
▁نصب	-2457
▁پوشش	-2458
▁خواسته	-2459
▁مشارکت	-2460
▁شویم	-2461
ap	-2462
▁بند	-2463
▁ذکر	-2464
▁قابلیت	-2465
▁مشغ	-2466
▁برسد	-2467
▁اختصاص	-2468
▁همواره	-2469
▁کاملاً	-2470
▁کارکنان	-2471
▁صاح	-2472
▁نسل	-2473
▁کنی	-2474
▁مرکزی	-2475
▁عملیات	-2476
نز	-2477
▁کف	-2478
راری	-2479
▁دام	-2480
▁غرب	-2481
▁دیجیتال	-2482
▁The	-2483
▁نفس	-2484
▁هشد	-2485
▁بگیرند	-2486
▁مجد	-2487
▁ملا	-2488
▁هتل	-2489
▁پرت	-2490
▁اطلاعاتی	-2491
▁ناپ	-2492
▁دشوار	-2493
بد	-2494
▁تس	-2495
▁عه	-2496
▁لا	-2497
▁خانم	-2498
▁کشتی	-2499
▁خلق	-2500
▁بحران	-2501
▁ي	-2502
ir	-2503
▁قبول	-2504
▁اعتقاد	-2505
▁روزنامه	-2506
▁کشاور	-2507
▁تور	-2508
▁فرض	-2509
▁نوشتن	-2510
▁فیزیکی	-2511
حات	-2512
یمان	-2513
او	-2514
▁کری	-2515
▁وعده	-2516
▁بم	-2517
▁c	-2518
عیف	-2519
▁دسته	-2520
▁حفا	-2521
▁خلاق	-2522
▁زندان	-2523
▁حیوانات	-2524
جمه	-2525
▁چینی	-2526
▁اداره	-2527
ایش	-2528
▁خودمان	-2529
سات	-2530
▁صند	-2531
▁والدین	-2532
▁مستقل	-2533
▁محدودیت	-2534
عم	-2535
▁شمار	-2536
گوی	-2537
▁ژاپن	-2538
▁گران	-2539
▁دموکرا	-2540
▁تلویزیون	-2541
قیه	-2542
▁ممن	-2543
▁تصوی	-2544
▁احساسات	-2545
▁جد	-2546
▁یو	-2547
شنبه	-2548
▁طلا	-2549
▁ناخ	-2550
▁تقسیم	-2551
▁سالگی	-2552
▁آوردن	-2553
▁بله	-2554
▁غربی	-2555
▁مختلفی	-2556
▁واقعاً	-2557
▁اکت	-2558
وید	-2559
▁انج	-2560
▁توی	-2561
▁تمایل	-2562
اصر	-2563
▁مي	-2564
زد	-2565
▁کلمات	-2566
oc	-2567
▁مشغول	-2568
▁میدان	-2569
▁عوض	-2570
▁کیل	-2571
▁رایگان	-2572
▁سگ	-2573
▁سلامتی	-2574
▁قدرتمند	-2575
▁نویسنده	-2576
▁اقامت	-2577
▁مناف	-2578
ورک	-2579
▁گوشی	-2580
▁واب	-2581
▁مند	-2582
▁گردش	-2583
▁اروپایی	-2584
▁علوم	-2585
▁لحاظ	-2586
▁استاد	-2587
▁نتوان	-2588
▁برقرار	-2589
▁دفت	-2590
▁تایید	-2591
▁هشدار	-2592
▁زیبایی	-2593
▁متحد	-2594
▁نظام	-2595
▁گذاشته	-2596
▁غل	-2597
▁درس	-2598
▁میشود	-2599
▁نباشد	-2600
غن	-2601
▁۱۵	-2602
▁روزی	-2603
▁مذه	-2604
▁کوه	-2605
▁مخاط	-2606
▁الان	-2607
تو	-2608
▁11	-2609
▁جراحی	-2610
▁داشتم	-2611
▁(1	-2612
▁قدم	-2613
ثی	-2614
▁کشت	-2615
▁راحت	-2616
▁رهبران	-2617
▁دلایل	-2618
▁­	-2619
▁پناه	-2620
▁چنان	-2621
▁تضمین	-2622
▁پیاده	-2623
▁دادگاه	-2624
ul	-2625
▁فن	-2626
▁نشد	-2627
▁راهی	-2628
▁طبقه	-2629
▁نحوه	-2630
▁فیس	-2631
▁استرالیا	-2632
▁m	-2633
▁خورشید	-2634
جهیز	-2635
زمان	-2636
▁عین	-2637
▁افزود	-2638
ویق	-2639
▁ول	-2640
▁فعلی	-2641
▁خرو	-2642
▁مام	-2643
▁تحریم	-2644
▁خوشحال	-2645
پیم	-2646
▁اون	-2647
▁متر	-2648
▁دقت	-2649
▁چگون	-2650
▁باره	-2651
▁100	-2652
▁بودجه	-2653
▁مار	-2654
▁صنعتی	-2655
▁طوری	-2656
▁احترام	-2657
▁مصاح	-2658
▁نظارت	-2659
▁رت	-2660
▁تجهیز	-2661
▁تولد	-2662
▁قهوه	-2663
▁چگونگی	-2664
راتی	-2665
▁مخصوص	-2666
▁آگاهی	-2667
▁میکند	-2668
▁تبلیغات	-2669
▁خاک	-2670
▁درخت	-2671
؟!	-2672
▁آمیز	-2673
▁ایمان	-2674
یدم	-2675
▁دین	-2676
▁قربانی	-2677
اهد	-2678
▁عربستان	-2679
▁مکانی	-2680
یسی	-2681
▁عادی	-2682
▁مطلب	-2683
▁حفاظت	-2684
گن	-2685
▁عجی	-2686
▁فرود	-2687
▁منافع	-2688
بش	-2689
کلی	-2690
▁آفر	-2691
▁اصل	-2692
▁شمال	-2693
▁فرای	-2694
▁پادش	-2695
▁مصاحبه	-2696
▁شیمیایی	-2697
▁بدهید	-2698
▁بگذارید	-2699
ادث	-2700
▁یون	-2701
um	-2702
▁گم	-2703
▁چاپ	-2704
▁امتح	-2705
▁دفتر	-2706
▁منتقل	-2707
▁رنج	-2708
▁سبز	-2709
▁سین	-2710
▁جلسه	-2711
▁ترجی	-2712
▁الکترونی	-2713
▁بریتانیا	-2714
ter	-2715
؟»	-2716
▁بدست	-2717
▁گفتم	-2718
▁توجهی	-2719
▁25	-2720
os	-2721
زل	-2722
مرکز	-2723
▁میده	-2724
▁رح	-2725
▁فروشگاه	-2726
▁بیمارستان	-2727
▁تعط	-2728
▁گام	-2729
▁شهری	-2730
باری	-2731
▁آشکار	-2732
▁شاهد	-2733
▁گروهی	-2734
▁امتحان	-2735
▁نیازمند	-2736
فانه	-2737
▁خطرن	-2738
بل	-2739
حیه	-2740
▁صحنه	-2741
▁خدای	-2742
▁طبیعت	-2743
▁پیشرفته	-2744
▁مفه	-2745
▁ایمنی	-2746
▁هزاران	-2747
▁بقیه	-2748
▁ترجمه	-2749
▁جایزه	-2750
▁گذارد	-2751
▁13	-2752
▁فلسط	-2753
▁بتوانند	-2754
▁آپ	-2755
▁محس	-2756
▁منحصر	-2757
▁نقاط	-2758
▁عفونت	-2759
od	-2760
▁كن	-2761
▁عقب	-2762
▁جنوب	-2763
▁تامین	-2764
▁تقریباً	-2765
نس	-2766
▁مشه	-2767
▁دعوت	-2768
▁رتبه	-2769
▁وبلاگ	-2770
▁بست	-2771
▁آیند	-2772
▁روغن	-2773
▁نوزاد	-2774
▁اوایل	-2775
▁کارها	-2776
.[	-2777
▁وید	-2778
▁تخصص	-2779
▁کلید	-2780
▁نگهداری	-2781
▁!	-2782
▁مز	-2783
▁اتفاقی	-2784
کره	-2785
▁اسم	-2786
▁متصل	-2787
▁نوعی	-2788
▁حاف	-2789
▁بستگی	-2790
▁تعدادی	-2791
▁ویتامین	-2792
▁گاه	-2793
▁تعهد	-2794
▁نشست	-2795
▁کارگران	-2796
ess	-2797
▁50	-2798
▁جزیره	-2799
▁توصیف	-2800
▁حملات	-2801
▁منتظر	-2802
▁انتشار	-2803
▁گناه	-2804
▁آسمان	-2805
ia	-2806
بیل	-2807
▁رادی	-2808
▁کارآ	-2809
▁شناخت	-2810
▁دریایی	-2811
▁جذاب	-2812
حیح	-2813
ردگی	-2814
▁فضا	-2815
▁قرم	-2816
▁عک	-2817
▁اعد	-2818
بیر	-2819
نتی	-2820
▁آر	-2821
▁بردن	-2822
یفه	-2823
گذار	-2824
▁خام	-2825
▁رهبر	-2826
▁پرسش	-2827
▁یهودی	-2828
▁قرارداد	-2829
الیا	-2830
▁بید	-2831
▁بودیم	-2832
پر	-2833
▁اصول	-2834
▁حتما	-2835
▁ملاقات	-2836
▁تقاض	-2837
▁سوخت	-2838
▁مایل	-2839
تناب	-2840
▁پنه	-2841
گذاری	-2842
▁الهی	-2843
▁بساز	-2844
▁پاید	-2845
▁دستور	-2846
▁مهاجرت	-2847
▁عبور	-2848
▁برنده	-2849
▁نامیده	-2850
چسب	-2851
▁انگل	-2852
▁اجتناب	-2853
▁مزایای	-2854
▁ارد	-2855
▁صدا	-2856
▁ـ	-2857
انو	-2858
لو	-2859
▁16	-2860
▁۱۲	-2861
▁هرچ	-2862
▁بروز	-2863
▁سرزمین	-2864
▁ورز	-2865
▁گیاه	-2866
هی	-2867
▁X	-2868
▁بگذ	-2869
▁بروید	-2870
▁تاکنون	-2871
لات	-2872
▁ژان	-2873
▁جنبه	-2874
▁بهتری	-2875
▁کانال	-2876
▁مدیران	-2877
▁هواپیم	-2878
ولد	-2879
روم	-2880
▁اهل	-2881
▁سختی	-2882
▁تکنیک	-2883
▁ارتباطات	-2884
ایق	-2885
▁جع	-2886
▁باغ	-2887
▁روست	-2888
▁آزمون	-2889
مولی	-2890
▁تغذ	-2891
▁تئ	-2892
▁پدید	-2893
▁گذشت	-2894
▁وظیفه	-2895
▁پیروزی	-2896
▁نیمه	-2897
▁نیوی	-2898
▁یافتن	-2899
▁فرایند	-2900
▁میلادی	-2901
ونا	-2902
گین	-2903
ابله	-2904
▁درستی	-2905
▁فراتر	-2906
▁اصلا	-2907
▁برسان	-2908
▁ثانیه	-2909
▁مخالف	-2910
▁مقاومت	-2911
▁اضط	-2912
▁تشویق	-2913
شنگ	-2914
▁رست	-2915
▁انگیزه	-2916
▁بیای	-2917
▁سعودی	-2918
▁شهروندان	-2919
رایش	-2920
▁آبی	-2921
▁برگز	-2922
▁عادت	-2923
▁ترجیح	-2924
▁تعطیل	-2925
ویل	-2926
▁14	-2927
▁چپ	-2928
گاهی	-2929
▁اظه	-2930
▁سرباز	-2931
▁کردید	-2932
▁بتوانید	-2933
▁۳۰	-2934
امله	-2935
▁امسال	-2936
▁مقابله	-2937
▁بیشترین	-2938
▁شف	-2939
▁بهداشت	-2940
▁رویکرد	-2941
▁برخوردار	-2942
ویس	-2943
▁فد	-2944
▁قبلا	-2945
▁اضافی	-2946
▁نظریه	-2947
▁بب	-2948
▁۱۰۰	-2949
▁حضرت	-2950
▁تغذیه	-2951
▁افتاده	-2952
▁f	-2953
داک	-2954
▁شماست	-2955
▁واض	-2956
تامبر	-2957
▁تجهیزات	-2958
▁دهندگان	-2959
▁آرز	-2960
▁بطور	-2961
▁درگیر	-2962
▁بگویید	-2963
▁متمرکز	-2964
نوعی	-2965
▁رض	-2966
▁ظه	-2967
گاری	-2968
▁پخش	-2969
▁ادعا	-2970
▁اظهار	-2971
th	-2972
▁شغلی	-2973
▁قلبی	-2974
▁چهره	-2975
".	-2976
»،	-2977
▁سؤ	-2978
▁روب	-2979
▁سرگر	-2980
▁انجمن	-2981
▁معروف	-2982
جع	-2983
▁طل	-2984
▁سام	-2985
▁ناد	-2986
▁اسک	-2987
▁فنی	-2988
▁بدهد	-2989
▁همانند	-2990
رتان	-2991
▁عهده	-2992
▁قرمز	-2993
▁برچسب	-2994
▁جزئیات	-2995
رافیک	-2996
▁فرمود	-2997
▁زندانی	-2998
-1	-2999
▁لینک	-3000
▁چربی	-3001
▁هیجان	-3002
▁d	-3003
▁بیت	-3004
▁مقر	-3005
▁خواند	-3006
▁مداوم	-3007
▁نیویورک	-3008
▁Y	-3009
▁دائ	-3010
▁بزرگتر	-3011
ab	-3012
زیع	-3013
ومی	-3014
▁مبل	-3015
▁معمولی	-3016
▁چیزهای	-3017
▁آشنا	-3018
▁حو	-3019
▁جنبش	-3020
▁خطرناک	-3021
▁خریداری	-3022
ce	-3023
ثار	-3024
لاک	-3025
▁سک	-3026
نمایی	-3027
▁تاکید	-3028
▁پیوند	-3029
▁سپتامبر	-3030
▁بکن	-3031
داشتی	-3032
▁ریسک	-3033
▁فرار	-3034
▁تنهایی	-3035
ذی	-3036
▁هایشان	-3037
زیه	-3038
▁رز	-3039
▁اختلاف	-3040
▁امپ	-3041
▁بنا	-3042
▁رها	-3043
▁شای	-3044
▁فوتبال	-3045
ندن	-3046
▁نات	-3047
▁پذیرش	-3048
▁بخوانید	-3049
ژانس	-3050
▁ناگه	-3051
▁استان	-3052
▁افسردگی	-3053
▁سابق	-3054
▁دقیقا	-3055
مع	-3056
▁اصط	-3057
▁کشد	-3058
▁یاب	-3059
▁برده	-3060
▁مالک	-3061
▁بگویم	-3062
▁مالیات	-3063
یدند	-3064
▁سیاره	-3065
ئت	-3066
وال	-3067
▁امتی	-3068
op	-3069
سین	-3070
▁نده	-3071
▁توزیع	-3072
▁فارغ	-3073
▁حافظه	-3074
▁بارداری	-3075
▁انگلستان	-3076
▁اختلال	-3077
▁خیر	-3078
▁کرب	-3079
فرانس	-3080
▁حداک	-3081
▁پنهان	-3082
▁گرفتند	-3083
▁مى	-3084
▁محتوا	-3085
▁جستجوی	-3086
av	-3087
خره	-3088
داد	-3089
▁ملت	-3090
▁نیازی	-3091
▁خیابان	-3092
اورد	-3093
▁متق	-3094
▁بدین	-3095
▁نماز	-3096
▁برداشت	-3097
▁لغ	-3098
رداز	-3099
▁حاوی	-3100
▁b	-3101
▁خاور	-3102
▁میوه	-3103
▁محسوب	-3104
▁برآورد	-3105
▁همزمان	-3106
▁پاکستان	-3107
اکره	-3108
▁بیمه	-3109
▁تی	-3110
▁هماه	-3111
▁اطلاع	-3112
▁ایتالیا	-3113
کده	-3114
▁دیوار	-3115
▁پرورش	-3116
▁مراحل	-3117
پیما	-3118
▁سفار	-3119
▁رمز	-3120
▁ماج	-3121
▁دیدار	-3122
▁موزه	-3123
فاوتی	-3124
▁صحیح	-3125
▁عجیب	-3126
▁نقشه	-3127
▁تجزیه	-3128
▁اعتبار	-3129
▁مذاکره	-3130
راض	-3131
▁اتص	-3132
▁جاده	-3133
▁مرور	-3134
▁هاست	-3135
▁پذیری	-3136
▁بدی	-3137
▁واضح	-3138
▁هرچند	-3139
▁روزهای	-3140
▁پروتئین	-3141
▁17	-3142
▁مجوز	-3143
▁مساله	-3144
▁نمایند	-3145
▁کارهایی	-3146
وذ	-3147
▁تز	-3148
▁سند	-3149
▁سوء	-3150
لت	-3151
▁متعد	-3152
▁کارشناس	-3153
سور	-3154
▁اسب	-3155
▁قتل	-3156
▁پن	-3157
▁حاک	-3158
▁گذر	-3159
▁شورای	-3160
▁ممنوع	-3161
▁استخدام	-3162
▁موضوعات	-3163
حالی	-3164
▁سنت	-3165
▁مسیح	-3166
▁شناسی	-3167
▁چهارم	-3168
▁معامله	-3169
▁بخواهید	-3170
▁بص	-3171
▁دم	-3172
▁اشک	-3173
▁ترا	-3174
▁آثار	-3175
▁مفهوم	-3176
▁کنفرانس	-3177
ri	-3178
▁دس	-3179
...]	-3180
▁مبتنی	-3181
▁198	-3182
▁کلیک	-3183
▁بزرگسال	-3184
▁افتخ	-3185
▁بپرس	-3186
▁لطفا	-3187
▁خلاصه	-3188
▁فضایی	-3189
غم	-3190
▁ابتد	-3191
▁تفکر	-3192
▁آورند	-3193
▁واشنگ	-3194
▁رانندگی	-3195
▁نژ	-3196
جوان	-3197
▁زودی	-3198
▁نمایید	-3199
اگر	-3200
▁صادر	-3201
▁ضعیف	-3202
▁لندن	-3203
جد	-3204
قوه	-3205
▁یخ	-3206
▁اخی	-3207
▁فهر	-3208
ارهای	-3209
جایی	-3210
▁مصر	-3211
▁التح	-3212
▁بدتر	-3213
▁دشمن	-3214
▁شانس	-3215
▁حداکثر	-3216
▁بهداشتی	-3217
▁آهنگ	-3218
▁افکار	-3219
▁تاسیس	-3220
▁مطل	-3221
▁موقع	-3222
▁ببرید	-3223
▁ریشه	-3224
▁ارزان	-3225
▁تهران	-3226
▁فرانس	-3227
▁واشنگتن	-3228
▁انع	-3229
▁شوم	-3230
▁پلا	-3231
▁موسسه	-3232
▁مذاک	-3233
▁تکمیل	-3234
▁سخنرانی	-3235
▁کارشناسی	-3236
▁نادر	-3237
▁تعامل	-3238
▁بازداشت	-3239
▁۱۸	-3240
▁اپل	-3241
▁صادق	-3242
▁نیمی	-3243
▁التحص	-3244
▁کمبود	-3245
▁قض	-3246
▁[...]	-3247
▁نبوده	-3248
▁بالقوه	-3249
▁براساس	-3250
▁ندارید	-3251
▁کمتری	-3252
کش	-3253
▁,	-3254
ورا	-3255
▁تمیز	-3256
▁سقوط	-3257
▁هایش	-3258
ریح	-3259
▁غیرق	-3260
▁اثرات	-3261
▁بیند	-3262
▁امتیاز	-3263
ack	-3264
ity	-3265
▁خانگی	-3266
▁ویروس	-3267
طی	-3268
▁سنتی	-3269
▁حکم	-3270
▁صبر	-3271
▁بخور	-3272
▁ویدی	-3273
ادار	-3274
کتری	-3275
▁كرد	-3276
▁موب	-3277
▁امضا	-3278
▁اخیرا	-3279
▁سالانه	-3280
▁پایدار	-3281
▁کشاورزی	-3282
▁آهن	-3283
کننده	-3284
▁تحمل	-3285
▁گفتن	-3286
▁اخلاقی	-3287
▁اصطلاح	-3288
▁برداری	-3289
وئن	-3290
▁ساختن	-3291
▁برجسته	-3292
▁جایگاه	-3293
▁وابسته	-3294
سیر	-3295
شند	-3296
▁برتر	-3297
og	-3298
gle	-3299
▁سهام	-3300
▁ماست	-3301
▁نفوذ	-3302
▁بازیکن	-3303
▁مشاوره	-3304
▁دارایی	-3305
▁پزشکان	-3306
▁کارخانه	-3307
ew	-3308
▁همچون	-3309
▁نزدیکی	-3310
▁پایگاه	-3311
▁دستیابی	-3312
▁هواپیما	-3313
▁شرک	-3314
▁شور	-3315
میانه	-3316
▁برمی	-3317
▁بیدار	-3318
مس	-3319
آور	-3320
▁ترد	-3321
▁سان	-3322
▁تدری	-3323
رق	-3324
▁40	-3325
مالی	-3326
▁خویش	-3327
▁مذهبی	-3328
عف	-3329
▁مشهور	-3330
▁بازسازی	-3331
▁مول	-3332
▁هرک	-3333
▁ندارم	-3334
.)	-3335
50	-3336
▁برگرد	-3337
▁دف	-3338
▁Goo	-3339
▁مدتی	-3340
▁مذاکرات	-3341
ناک	-3342
اختی	-3343
▁تأی	-3344
▁اکتبر	-3345
▁عدد	-3346
▁رساند	-3347
▁ترکی	-3348
▁خوشب	-3349
▁آلمانی	-3350
▁احتمالاً	-3351
▁سرک	-3352
▁تابستان	-3353
▁خاورمیانه	-3354
▁مارس	-3355
▁معماری	-3356
▁حیات	-3357
▁هویت	-3358
وایی	-3359
▁استقل	-3360
▁نموده	-3361
▁نوشید	-3362
ard	-3363
▁مناس	-3364
▁میکنند	-3365
▁پیامبر	-3366
دهی	-3367
▁چش	-3368
اریس	-3369
▁بلاف	-3370
▁بارها	-3371
ra	-3372
▁طراح	-3373
▁عیسی	-3374
▁مانع	-3375
▁تأیید	-3376
▁بوک	-3377
▁تخم	-3378
▁جاری	-3379
▁کیلوم	-3380
▁نوجوان	-3381
▁بازیکنان	-3382
شای	-3383
▁حجم	-3384
▁رضایت	-3385
▁بلافاصله	-3386
کری	-3387
▁سوز	-3388
▁گوشت	-3389
▁نابود	-3390
▁خشک	-3391
▁دهان	-3392
▁مهندسی	-3393
ماً	-3394
▁گفتگو	-3395
▁پادشاه	-3396
؟؟	-3397
راد	-3398
▁آمو	-3399
▁آمار	-3400
▁دادم	-3401
▁مدارس	-3402
▁بپرداز	-3403
وسی	-3404
▁24	-3405
گانی	-3406
▁کارمندان	-3407
▁i	-3408
▁An	-3409
ماتی	-3410
▁کات	-3411
▁غذاهای	-3412
۰۰۰	-3413
▁مصنوعی	-3414
▁رستوران	-3415
زان	-3416
پار	-3417
▁کارگر	-3418
▁تحصیلی	-3419
▁فرانسوی	-3420
▁معنا	-3421
▁سادگی	-3422
▁اولویت	-3423
اخر	-3424
▁آژانس	-3425
▁فهرست	-3426
▁1.	-3427
▁شاد	-3428
▁عزی	-3429
▁چار	-3430
▁سران	-3431
▁دسامبر	-3432
▁احتی	-3433
▁قطعا	-3434
▁پرونده	-3435
ob	-3436
▁مض	-3437
▁آدرس	-3438
▁صاحب	-3439
▁مراج	-3440
▁استقلال	-3441
▁کتابخانه	-3442
▁عذ	-3443
▁باد	-3444
▁انگشت	-3445
▁سیگار	-3446
▁ژانویه	-3447
▁مراسم	-3448
▁نقاشی	-3449
▁پردازش	-3450
▁سنگین	-3451
پس	-3452
▁۵۰	-3453
▁خال	-3454
▁معی	-3455
▁ایالت	-3456
▁شرقی	-3457
وج	-3458
▁اوب	-3459
▁عمده	-3460
عش	-3461
▁کشید	-3462
▁تحقیقاتی	-3463
ماتیک	-3464
▁کشوری	-3465
▁انگلیس	-3466
▁رویداد	-3467
سلام	-3468
▁قهر	-3469
▁2015	-3470
▁آزار	-3471
▁سطوح	-3472
▁پرست	-3473
▁گویم	-3474
▁شنیده	-3475
▁اجرایی	-3476
زام	-3477
▁مجله	-3478
▁اواخر	-3479
▁صفحات	-3480
▁مسابقه	-3481
▁ایستگاه	-3482
▁داروهای	-3483
▁هور	-3484
▁صدها	-3485
▁قالب	-3486
▁دومین	-3487
▁نداریم	-3488
▁موبایل	-3489
▁طال	-3490
▁گری	-3491
▁عناصر	-3492
▁نوامبر	-3493
▁گذاران	-3494
▁دستو	-3495
▁شنبه	-3496
▁بزنید	-3497
اقع	-3498
▁شریک	-3499
▁روبرو	-3500
▁پنجره	-3501
▁متخصصان	-3502
دهم	-3503
▁آیت	-3504
▁سبب	-3505
▁مجلس	-3506
▁پاریس	-3507
▁مراجعه	-3508
▁همکاران	-3509
گا	-3510
رامی	-3511
▁جاد	-3512
▁مدرک	-3513
▁وحشت	-3514
▁معتبر	-3515
▁اعتراض	-3516
▁خر	-3517
▁پان	-3518
▁ژوئن	-3519
▁الکترونیکی	-3520
▁اور	-3521
▁تسل	-3522
▁چای	-3523
▁بیست	-3524
▁خسته	-3525
▁عصر	-3526
▁مرغ	-3527
▁خالی	-3528
up	-3529
ive	-3530
▁محکوم	-3531
all	-3532
خیر	-3533
▁افتخار	-3534
▁شهرهای	-3535
est	-3536
▁Ch	-3537
▁اکث	-3538
▁شار	-3539
▁عرو	-3540
▁جنگل	-3541
▁دیدم	-3542
▁چک	-3543
▁جوانان	-3544
ئید	-3545
برای	-3546
▁آلب	-3547
▁جرم	-3548
▁تصاد	-3549
▁یکسان	-3550
نجی	-3551
▁یك	-3552
▁استق	-3553
▁شفاف	-3554
▁مجدد	-3555
▁60	-3556
▁راهن	-3557
▁هوای	-3558
▁اتصال	-3559
▁خورده	-3560
▁نگاهی	-3561
الم	-3562
▁نزد	-3563
▁ورزشی	-3564
▁زخ	-3565
▁قا	-3566
▁جلب	-3567
▁خشم	-3568
▁اثبات	-3569
▁بیانیه	-3570
▁هرگونه	-3571
هنی	-3572
▁باشگاه	-3573
▁نادیده	-3574
▁کارگردان	-3575
لیلی	-3576
▁هنری	-3577
▁سابقه	-3578
▁عدالت	-3579
▁دموکراسی	-3580
نای	-3581
گویی	-3582
▁سرور	-3583
▁عصبی	-3584
▁واژه	-3585
▁آرامش	-3586
▁کمپانی	-3587
▁اسپانیا	-3588
ظی	-3589
▁زنج	-3590
▁بگیری	-3591
▁متولد	-3592
▁مشکلی	-3593
▁Google	-3594
▁امیدوارم	-3595
if	-3596
ov	-3597
ine	-3598
▁فری	-3599
▁محمد	-3600
▁مخفی	-3601
▁مربی	-3602
▁انتقاد	-3603
ct	-3604
art	-3605
خورد	-3606
▁مردی	-3607
▁مکمل	-3608
▁هستی	-3609
▁بیاور	-3610
▁تصویب	-3611
▁ظرفیت	-3612
▁ارزشمند	-3613
مق	-3614
مام	-3615
▁the	-3616
▁منظم	-3617
غل	-3618
▁and	-3619
▁کاربردی	-3620
!»	-3621
آم	-3622
▁بور	-3623
▁طیف	-3624
▁وظای	-3625
▁متعلق	-3626
▁وسایل	-3627
کز	-3628
ate	-3629
▁۱۳	-3630
▁متاس	-3631
▁مجازات	-3632
▁خواستار	-3633
عکس	-3634
▁آفریقا	-3635
ex	-3636
▁دون	-3637
▁بافت	-3638
▁دیپل	-3639
▁مقدس	-3640
▁ورودی	-3641
▁نمایشگاه	-3642
▁خرد	-3643
▁اوباما	-3644
اکس	-3645
وقی	-3646
▁197	-3647
▁کمیته	-3648
▁ترافیک	-3649
▁التحصیل	-3650
▁فرودگاه	-3651
▁ارا	-3652
▁مبلغ	-3653
▁محیطی	-3654
▁ارتباطی	-3655
اردی	-3656
واری	-3657
▁تحول	-3658
▁سریال	-3659
▁مجموع	-3660
▁دانشکده	-3661
▁روانی	-3662
▁صنایع	-3663
ub	-3664
ستیک	-3665
▁آشپ	-3666
▁۱۹۹	-3667
▁0	-3668
▁غذای	-3669
▁اسن	-3670
▁تیر	-3671
▁خروج	-3672
▁عظیم	-3673
▁نهاد	-3674
▁باتری	-3675
▁نوشیدنی	-3676
▁بینید	-3677
▁تماشا	-3678
▁دختران	-3679
▁غنی	-3680
▁2017	-3681
▁منزل	-3682
▁موشک	-3683
▁تجربی	-3684
▁بالایی	-3685
▁ترکیبی	-3686
▁نوش	-3687
▁مارک	-3688
▁ارتقا	-3689
▁تحویل	-3690
▁ریاست	-3691
▁صادرات	-3692
▁مهمترین	-3693
ak	-3694
ast	-3695
▁ارم	-3696
▁بگوید	-3697
▁قهرمان	-3698
▁نبرد	-3699
▁نظیر	-3700
انیایی	-3701
زیک	-3702
▁سؤال	-3703
▁خارجه	-3704
▁منطقی	-3705
▁مسلمانان	-3706
▁بران	-3707
▁مثلا	-3708
▁تأمین	-3709
▁مراکز	-3710
دیه	-3711
▁Re	-3712
▁ابر	-3713
▁کودکی	-3714
کنندگان	-3715
شیدی	-3716
▁توق	-3717
▁شرق	-3718
▁نشود	-3719
▁متفاوتی	-3720
▁ناحیه	-3721
ht	-3722
صاب	-3723
▁لز	-3724
▁سهم	-3725
▁اعدام	-3726
▁بالات	-3727
▁دائمی	-3728
▁کشیدن	-3729
▁بازگرد	-3730
لین	-3731
▁دیر	-3732
▁بهشت	-3733
▁پاداش	-3734
▁انقلابی	-3735
▁انف	-3736
▁برود	-3737
10	-3738
▁w	-3739
▁کاغ	-3740
▁رسان	-3741
▁عربی	-3742
▁مسیحی	-3743
طرف	-3744
▁ابتلا	-3745
▁بماند	-3746
طاف	-3747
▁گشت	-3748
▁بایست	-3749
▁تحریک	-3750
▁خوانده	-3751
▁خانوادگی	-3752
▁پیر	-3753
▁جمعی	-3754
▁فردا	-3755
▁حقوقی	-3756
▁ریاضی	-3757
▁نوآوری	-3758
فل	-3759
▁جس	-3760
▁2018	-3761
▁صرفه	-3762
▁صندلی	-3763
ord	-3764
▁طالبان	-3765
▁آیه	-3766
▁حادث	-3767
مر	-3768
▁آلود	-3769
▁عوار	-3770
ell	-3771
▁قضا	-3772
▁قول	-3773
▁پولی	-3774
▁چیزها	-3775
▁شکن	-3776
▁سیم	-3777
▁طلب	-3778
▁وام	-3779
▁روزه	-3780
▁ویند	-3781
▁دیابت	-3782
▁سوالات	-3783
▁بمب	-3784
▁راز	-3785
▁کاخ	-3786
▁خواستم	-3787
انوس	-3788
کتور	-3789
▁واس	-3790
▁نژاد	-3791
▁چرخه	-3792
▁نیستم	-3793
▁انعطاف	-3794
▁شرایطی	-3795
وهای	-3796
▁ظهور	-3797
▁کشیده	-3798
▁کوچکی	-3799
▁گردید	-3800
▁استراحت	-3801
▁ثروتمند	-3802
▁کارشناسان	-3803
زیت	-3804
▁الم	-3805
▁رایج	-3806
▁غیرم	-3807
▁لایه	-3808
چرخ	-3809
▁اي	-3810
▁زنی	-3811
▁لبخ	-3812
میر	-3813
▁جور	-3814
▁تعادل	-3815
▁جانبی	-3816
▁نویسی	-3817
▁وظایف	-3818
▁استراتژیک	-3819
غام	-3820
لیک	-3821
گره	-3822
▁قی	-3823
نوشت	-3824
▁قلم	-3825
com	-3826
▁Pro	-3827
▁حادثه	-3828
▁کمپین	-3829
▁کاربری	-3830
▁احتمالی	-3831
▁جی	-3832
▁وجه	-3833
▁کفش	-3834
ظاه	-3835
▁انگار	-3836
مانه	-3837
▁باکتری	-3838
▁بگیریم	-3839
▁داشتیم	-3840
30	-3841
▁۲۵	-3842
▁اتوم	-3843
▁استث	-3844
▁اخبار	-3845
▁برگزاری	-3846
وپ	-3847
▁اذ	-3848
▁رک	-3849
▁نقض	-3850
▁کوین	-3851
▁ویندوز	-3852
▁میتواند	-3853
ip	-3854
▁Z	-3855
▁in	-3856
▁اقی	-3857
▁تاز	-3858
▁معامل	-3859
▁ابزارهای	-3860
▁هدیه	-3861
▁تعطیلات	-3862
▁گرس	-3863
▁درحالی	-3864
▁سوئ	-3865
▁تجدید	-3866
▁کمونی	-3867
▁تروریستی	-3868
▁۱۱	-3869
▁رییس	-3870
▁معلم	-3871
▁مناسبی	-3872
▁راهنمایی	-3873
▁بزرگسالان	-3874
.5	-3875
يت	-3876
▁آفت	-3877
▁درم	-3878
▁دعا	-3879
▁جامع	-3880
▁خلاف	-3881
OS	-3882
▁تعجب	-3883
▁خطوط	-3884
▁مطابق	-3885
▁مطالب	-3886
▁مهمان	-3887
▁خورشیدی	-3888
ey	-3889
ist	-3890
▁خل	-3891
▁خبری	-3892
▁شوروی	-3893
▁سرانجام	-3894
ارات	-3895
▁راضی	-3896
▁عوارض	-3897
يم	-3898
اکی	-3899
پزش	-3900
لیکی	-3901
▁اکس	-3902
▁حرک	-3903
▁وضع	-3904
▁شاخص	-3905
لز	-3906
ربان	-3907
▁گرچه	-3908
▁بازنش	-3909
▁آمدن	-3910
▁محاس	-3911
▁الهام	-3912
NA	-3913
سف	-3914
▁نقد	-3915
▁2016	-3916
▁سیگن	-3917
▁ناام	-3918
▁وکار	-3919
▁اندکی	-3920
▁کنگره	-3921
▁پذیرفته	-3922
▁بف	-3923
▁بنویس	-3924
▁فدرال	-3925
▁نظرات	-3926
▁بگذارد	-3927
▁حج	-3928
▁آسیا	-3929
▁الکتری	-3930
▁خواهان	-3931
▁کارآفر	-3932
▁نماینده	-3933
▁كند	-3934
▁ناه	-3935
▁ذهنی	-3936
بیت	-3937
▁برگشت	-3938
کسی	-3939
▁وف	-3940
▁مقی	-3941
▁میخ	-3942
▁ناس	-3943
▁کنس	-3944
▁حساس	-3945
▁کالج	-3946
▁فیلتر	-3947
ادن	-3948
مور	-3949
▁منص	-3950
▁تشکر	-3951
▁گربه	-3952
انگ	-3953
▁عکاسی	-3954
▁محاسبه	-3955
▁نیستید	-3956
▁الی	-3957
▁رفع	-3958
▁کاب	-3959
▁سیگنال	-3960
▁معتقدند	-3961
▁رع	-3962
▁داعش	-3963
▁مداخ	-3964
▁تردید	-3965
ّت	-3966
▁مأ	-3967
▁تازگی	-3968
▁شواهد	-3969
▁۱۴	-3970
▁تکامل	-3971
▁امکانات	-3972
نام	-3973
فاعی	-3974
▁اوک	-3975
▁خودک	-3976
▁وقوع	-3977
▁مقررات	-3978
▁جداگانه	-3979
▁جغ	-3980
▁نفع	-3981
▁علام	-3982
▁هرچه	-3983
▁دوستی	-3984
▁فلسفه	-3985
▁لبخند	-3986
▁خودکار	-3987
▁میخواه	-3988
▁آمریکای	-3989
واب	-3990
▁دهی	-3991
▁رقم	-3992
▁اخترا	-3993
▁تئوری	-3994
▁روزها	-3995
▁پیروی	-3996
ill	-3997
ولین	-3998
▁سفارش	-3999
▁اضطراب	-4000
▁اردو	-4001
▁آنقدر	-4002
▁اتحاد	-4003
▁قضاوت	-4004
▁اپلیکی	-4005
زر	-4006
ساز	-4007
▁احس	-4008
▁ضعف	-4009
▁جنگی	-4010
▁پارل	-4011
▁دامنه	-4012
▁شیطان	-4013
فس	-4014
▁بعدا	-4015
▁شادی	-4016
▁متهم	-4017
▁مراقب	-4018
▁نمایندگان	-4019
سای	-4020
ماس	-4021
▁حدی	-4022
▁داوط	-4023
▁مجازی	-4024
▁عط	-4025
▁وار	-4026
▁بدهی	-4027
▁رمان	-4028
▁ماندن	-4029
▁اینترنتی	-4030
بیند	-4031
▁ادع	-4032
▁مور	-4033
▁ثبات	-4034
▁مخدر	-4035
▁مرده	-4036
▁بینیم	-4037
▁کیلومتر	-4038
▁آزمایشگاه	-4039
ort	-4040
تیکی	-4041
▁موقت	-4042
▁فرصتی	-4043
خا	-4044
مره	-4045
▁مری	-4046
▁تظاه	-4047
▁استعد	-4048
▁اکثریت	-4049
▁درگیری	-4050
▁اتومبیل	-4051
▁196	-4052
▁سرخ	-4053
▁هاي	-4054
▁پایت	-4055
▁بنیاد	-4056
▁چشمان	-4057
▁آلودگی	-4058
▁تبلیغاتی	-4059
ang	-4060
افقت	-4061
▁دادیم	-4062
▁بری	-4063
▁باری	-4064
▁رسانی	-4065
▁داوطلب	-4066
کب	-4067
املی	-4068
▁دوز	-4069
▁کاف	-4070
▁بانکی	-4071
▁بالاخره	-4072
ختی	-4073
▁Sp	-4074
▁قسم	-4075
▁دمای	-4076
▁بیاید	-4077
عمل	-4078
گرام	-4079
▁فوری	-4080
▁گمان	-4081
▁موهای	-4082
▁بیایید	-4083
▁سازنده	-4084
▁محدوده	-4085
▁اپلیکیشن	-4086
ect	-4087
▁آه	-4088
▁اوست	-4089
▁موافقت	-4090
▁ماموریت	-4091
▁یادآوری	-4092
وین	-4093
▁گویی	-4094
▁خواهی	-4095
▁پیوست	-4096
▁سرنوشت	-4097
ant	-4098
ائی	-4099
▁فس	-4100
جویی	-4101
نوان	-4102
▁ضمن	-4103
▁تنوع	-4104
▁پدرش	-4105
▁رعایت	-4106
▁میدهد	-4107
▁کنونی	-4108
▁انداخت	-4109
▁له	-4110
سایت	-4111
▁یورو	-4112
▁مقیاس	-4113
▁پیمان	-4114
▁نخواهند	-4115
▁بدهند	-4116
▁بخواهد	-4117
▁رایانه	-4118
▁21	-4119
▁Bl	-4120
▁الکل	-4121
▁ایمن	-4122
▁تأکید	-4123
▁زودتر	-4124
▁باردار	-4125
▁انح	-4126
▁2014	-4127
▁الگو	-4128
▁همگی	-4129
▁متعهد	-4130
▁استخوان	-4131
▁De	-4132
▁Un	-4133
▁درب	-4134
▁فال	-4135
▁جوام	-4136
▁دراز	-4137
▁راجع	-4138
▁ساحل	-4139
▁هنرمند	-4140
”.	-4141
▁+	-4142
▁سئو	-4143
▁زمینی	-4144
▁دانشگاهی	-4145
اوز	-4146
▁خن	-4147
▁عقل	-4148
▁فول	-4149
▁آنتی	-4150
▁سرکوب	-4151
▁یابند	-4152
▁بدانند	-4153
▁اقیانوس	-4154
ost	-4155
نظر	-4156
▁عمد	-4157
رگانی	-4158
▁حلقه	-4159
▁روشی	-4160
▁سینه	-4161
▁جلسات	-4162
▁حیاتی	-4163
▁ناراحت	-4164
▁الکتریکی	-4165
▁بوی	-4166
▁استد	-4167
▁قطعه	-4168
▁مسلح	-4169
▁بهینه	-4170
▁ببینند	-4171
▁دستگیر	-4172
▁تحصیلات	-4173
شب	-4174
▁شرح	-4175
▁لغو	-4176
▁ویر	-4177
▁علامت	-4178
ie	-4179
▁آک	-4180
▁۴۰	-4181
▁تون	-4182
▁ندهید	-4183
▁کارمند	-4184
▁ماهواره	-4185
ue	-4186
▁Sh	-4187
▁مخل	-4188
▁پلت	-4189
▁ضربه	-4190
▁مایک	-4191
▁اندرو	-4192
▁نویسندگان	-4193
نظ	-4194
▁90	-4195
▁شام	-4196
▁سالی	-4197
▁عصبانی	-4198
هام	-4199
▁پد	-4200
▁دای	-4201
▁اتخا	-4202
▁برزی	-4203
▁تحقق	-4204
▁جعبه	-4205
▁جلوی	-4206
▁غیره	-4207
▁معادل	-4208
▁برانگی	-4209
.1	-4210
BA	-4211
▁#	-4212
ind	-4213
▁رم	-4214
التی	-4215
▁حین	-4216
▁زنند	-4217
▁بردار	-4218
▁بپرسید	-4219
▁مواردی	-4220
▁فلسطینی	-4221
▁استانداردهای	-4222
جار	-4223
▁میر	-4224
▁شکلی	-4225
▁اتخاذ	-4226
▁تزریق	-4227
▁تفسیر	-4228
▁روزمره	-4229
▁توانستند	-4230
▁متاسفانه	-4231
▁فا	-4232
▁توپ	-4233
▁گرفتم	-4234
▁مقالات	-4235
our	-4236
خاص	-4237
▁ببرد	-4238
▁دلاری	-4239
▁دیوان	-4240
▁بدترین	-4241
سیک	-4242
ونگ	-4243
اهایی	-4244
▁تصمی	-4245
▁جمعه	-4246
▁شدیم	-4247
▁ندرت	-4248
ارتمان	-4249
▁مستند	-4250
▁کارفر	-4251
▁احساسی	-4252
کرات	-4253
▁خبرنگ	-4254
▁ویدئو	-4255
▁ناپذیر	-4256
▁اوکراین	-4257
▁رودخانه	-4258
دنی	-4259
زرگ	-4260
ومه	-4261
▁غم	-4262
▁زوج	-4263
▁صندوق	-4264
▁برقراری	-4265
▁توانستم	-4266
مرد	-4267
کام	-4268
▁خراب	-4269
▁مدار	-4270
▁آلوده	-4271
▁آوریل	-4272
▁ببینیم	-4273
▁>	-4274
▁n	-4275
▁تخت	-4276
▁نیک	-4277
▁چاق	-4278
▁اسناد	-4279
▁ببیند	-4280
▁شکایت	-4281
کیه	-4282
▁عر	-4283
▁۱۹۷	-4284
▁خودت	-4285
▁ظاهرا	-4286
▁تماشای	-4287
▁تروریسم	-4288
▁پیشگیری	-4289
ont	-4290
زین	-4291
ولیک	-4292
▁خلی	-4293
▁مشا	-4294
▁اسکن	-4295
▁اراده	-4296
▁نشسته	-4297
▁زنجیره	-4298
ابتی	-4299
▁فقر	-4300
▁موج	-4301
▁۱۹۸	-4302
برگ	-4303
غیر	-4304
▁ضبط	-4305
▁عاط	-4306
▁کنون	-4307
▁ابراز	-4308
▁حسابد	-4309
▁فوریه	-4310
▁فیزیک	-4311
▁دستورال	-4312
چوب	-4313
مینی	-4314
▁شرط	-4315
▁مؤثر	-4316
▁چندان	-4317
▁جشنواره	-4318
تم	-4319
▁	-4320
ا	-4321
ی	-4322
ر	-4323
د	-4324
ن	-4325
ه	-4326
م	-4327
و	-4328
ت	-4329
ب	-4330
ک	-4331
س	-4332
ش	-4333
ل	-4334
ز	-4335
.	-4336
ف	-4337
گ	-4338
خ	-4339
ع	-4340
ق	-4341
ج	-4342
ح	-4343
،	-4344
آ	-4345
پ	-4346
ط	-4347
ص	-4348
چ	-4349
غ	-4350
ض	-4351
e	-4352
ذ	-4353
ظ	-4354
a	-4355
ث	-4356
o	-4357
:	-4358
i	-4359
0	-4360
ئ	-4361
r	-4362
)	-4363
n	-4364
(	-4365
1	-4366
t	-4367
ژ	-4368
s	-4369
؟	-4370
»	-4371
2	-4372
l	-4373
۰	-4374
«	-4375
"	-4376
-	-4377
۱	-4378
ي	-4379
S	-4380
c	-4381
u	-4382
d	-4383
!	-4384
A	-4385
5	-4386
C	-4387
۲	-4388
9	-4389
h	-4390
3	-4391
m	-4392
P	-4393
ً	-4394
ك	-4395
4	-4396
M	-4397
p	-4398
g	-4399
؛	-4400
T	-4401
D	-4402
I	-4403
6	-4404
8	-4405
y	-4406
B	-4407
7	-4408
E	-4409
”	-4410
۵	-4411
R	-4412
۹	-4413
ِ	-4414
L	-4415
۳	-4416
]	-4417
[	-4418
أ	-4419
b	-4420
N	-4421
G	-4422
k	-4423
H	-4424
“	-4425
f	-4426
O	-4427
­	-4428
F	-4429
۴	-4430
–	-4431
,	-4432
v	-4433
۶	-4434
۸	-4435
w	-4436
/	-4437
W	-4438
ى	-4439
۷	-4440
ۀ	-4441
V	-4442
U	-4443
ـ	-4444
ّ	-4445
ء	-4446
x	-4447
ؤ	-4448
َ	-4449
K	-4450
*	-4451
J	-4452
ُ	-4453
ٔ	-4454
z	-4455
X	-4456
+	-4457
٪	-4458
%	-4459
•	-4460
Y	-4461
٫	-4462
'	-4463
Q	-4464
>	-4465
j	-4466
Z	-4467
’	-4468
|	-4469
١	-4470
ْ	-4471
ة	-4472
_	-4473
٬	-4474
٠	-4475
#	-4476
&	-4477
=	-4478
q	-4479
?	-4480
٢	-4481
—	-4482
;	-4483
٩	-4484
$	-4485
¬	-4486
·	-4487
‬	-4488
●	-4489
٨	-4490
\	-4491
٣	-4492
{	-4493
}	-4494
‘	-4495
<	-4496
٧	-4497
@	-4498
٥	-4499
٤	-4500
↑	-4501
é	-4502
→	-4503
إ	-4504
ٌ	-4505
▪	-4506
←	-4507
‫	-4508
‍	-4509
٦	-4510
€	-4511
×	-4512
ü	-4513
®	-4514
ە	-4515
⁯	-4516
°	-4517
️	-4518
ٍ	-4519
♪	-4520
ö	-4521
■	-4522
◄	-4523
ھ	-4524
′	-4525
›	-4526
ó	-4527
á	-4528
~	-4529
â	-4530
♫	-4531
😉	-4532
‪	-4533
£	-4534
ä	-4535
➖	-4536
ç	-4537
^	-4538
‹	-4539
♦	-4540
🔹	-4541
ı	-4542
😀	-4543
§	-4544
ٰ	-4545
−	-4546
✅	-4547
`	-4548
à	-4549
□	-4550
♥	-4551
ş	-4552
ˈ	-4553
⇐	-4554
	-4555
è	-4556
▫	-4557
©	-4558
🔸	-4559
ñ	-4560
α	-4561
	-4562
🙂	-4563
É	-4564
√	-4565
😍	-4566
	-4567
ā	-4568
	-4569
ã	-4570
́	-4571
р	-4572
±	-4573
å	-4574
í	-4575
и	-4576
⁄	-4577
★	-4578
Ç	-4579
ú	-4580
ٿ	-4581
❤	-4582
﴾	-4583
👌	-4584
œ	-4585
̊	-4586
̋	-4587
μ	-4588
а	-4589
е	-4590
н	-4591
о	-4592
ٴ	-4593
۔	-4594
⁭	-4595
☺	-4596
✓	-4597
✔	-4598
﴿	-4599
🌷	-4600
	-4601
Ø	-4602
ø	-4603
ğ	-4604
İ	-4605
̈	-4606
Δ	-4607
Ω	-4608
ε	-4609
ۆ	-4610
ა	-4611
„	-4612
⁪	-4613
◊	-4614
♬	-4615
♯	-4616
⚡	-4617
✤	-4618
✭	-4619
⦁	-4620
	-4621
	-4622
👈	-4623
🔴	-4624
	-4625
Ö	-4626
ë	-4627
β	-4628
ν	-4629
М	-4630
д	-4631
⁩	-4632
▐	-4633
▬	-4634
○	-4635
✕	-4636
	-4637
🌸	-4638
🔻	-4639
😂	-4640
😐	-4641
	-4642
	-4643
	-4644
¤	-4645
Â	-4646
ï	-4647
ò	-4648
ń	-4649
Ş	-4650
š	-4651
ɪ	-4652
̨	-4653
θ	-4654
κ	-4655
Т	-4656
к	-4657
с	-4658
ڪ	-4659
ვ	-4660
ლ	-4661
ო	-4662
⁣	-4663
⁧	-4664
⁮	-4665
⃣	-4666
≠	-4667
≡	-4668
≤	-4669
➕	-4670
	-4671
	-4672
👏	-4673
👻	-4674
🔥	-4675
🔺	-4676
😊	-4677
	-4678
	-4679
¡	-4680
¢	-4681
Ã	-4682
Ä	-4683
Ü	-4684
ß	-4685
ê	-4686
î	-4687
ð	-4688
ô	-4689
÷	-4690
ý	-4691
ē	-4692
ƒ	-4693
ɛ	-4694
ʊ	-4695
ː	-4696
̇	-4697
γ	-4698
λ	-4699
ο	-4700
ρ	-4701
ς	-4702
τ	-4703
Б	-4704
К	-4705
б	-4706
г	-4707
й	-4708
л	-4709
י	-4710
ڵ	-4711
ہ	-4712
ۂ	-4713
ܔ	-4714
ܜ	-4715
თ	-4716
ი	-4717
რ	-4718
ს	-4719
‚	-4720
‭	-4721
≥	-4722
▲	-4723
▶	-4724
◀	-4725
◦	-4726
☼	-4727
❇	-4728
メ	-4729
事	-4730
件	-4731
台	-4732
日	-4733
朝	-4734
本	-4735
灣	-4736
軍	-4737
	-4738
	-4739
	-4740
	-4741
	-4742
	-4743
	-4744
	-4745
🇪	-4746
🍃	-4747
📣	-4748
🔷	-4749
😅	-4750
😏	-4751
😛	-4752
😢	-4753
😥	-4754
😳	-4755
😵	-4756
🙁	-4757
	-4758
	-4759
	-4760
	-4761
	-4762
¥	-4763
Á	-4764
Å	-4765
Ô	-4766
æ	-4767
ì	-4768
þ	-4769
ć	-4770
ī	-4771
ł	-4772
ŋ	-4773
ū	-4774
ű	-4775
Ž	-4776
ǎ	-4777
ɔ	-4778
ə	-4779
ɜ	-4780
ɨ	-4781
ʀ	-4782
ʁ	-4783
ʺ	-4784
ˌ	-4785
ˏ	-4786
̃	-4787
̏	-4788
̵	-4789
Α	-4790
Ε	-4791
Μ	-4792
Φ	-4793
ζ	-4794
φ	-4795
ω	-4796
Г	-4797
З	-4798
И	-4799
О	-4800
П	-4801
С	-4802
м	-4803
т	-4804
у	-4805
ф	-4806
х	-4807
ы	-4808
ь	-4809
я	-4810
ё	-4811
ћ	-4812
ה	-4813
ח	-4814
כ	-4815
מ	-4816
פ	-4817
ש	-4818
ٓ	-4819
څ	-4820
ګ	-4821
ں	-4822
ۃ	-4823
ێ	-4824
ے	-4825
ก	-4826
ง	-4827
แ	-4828
გ	-4829
ე	-4830
მ	-4831
ნ	-4832
უ	-4833
ქ	-4834
Ḥ	-4835
ṇ	-4836
ṯ	-4837
ủ	-4838
ἐ	-4839
ἥ	-4840
Ἴ	-4841
ῖ	-4842
―	-4843
†	-4844
※	-4845
⁠	-4846
₩	-4847
₹	-4848
↓	-4849
⇆	-4850
⇔	-4851
∀	-4852
∆	-4853
∈	-4854
∗	-4855
∘	-4856
∴	-4857
≈	-4858
⊞	-4859
⋆	-4860
⌘	-4861
⏳	-4862
⏺	-4863
►	-4864
◇	-4865
◽	-4866
◾	-4867
☆	-4868
☚	-4869
♊	-4870
♒	-4871
♡	-4872
⚽	-4873
✋	-4874
✍	-4875
✳	-4876
✵	-4877
❌	-4878
❗	-4879
➌	-4880
➐	-4881
⟨	-4882
⟩	-4883
⬅	-4884
《	-4885
》	-4886
「	-4887
か	-4888
き	-4889
ど	-4890
ま	-4891
モ	-4892
ヤ	-4893
一	-4894
东	-4895
人	-4896
前	-4897
十	-4898
命	-4899
坛	-4900
外	-4901
天	-4902
子	-4903
孫	-4904
將	-4905
撫	-4906
斐	-4907
旗	-4908
月	-4909
樹	-4910
湾	-4911
爱	-4912
生	-4913
甲	-4914
碌	-4915
神	-4916
臺	-4917
英	-4918
蔼	-4919
语	-4920
谷	-4921
锦	-4922
门	-4923
革	-4924
도	-4925
라	-4926
아	-4927
장	-4928
티	-4929
	-4930
	-4931
	-4932
	-4933
	-4934
	-4935
	-4936
	-4937
	-4938
	-4939
	-4940
	-4941
	-4942
	-4943
	-4944
	-4945
🇩	-4946
🇬	-4947
🇷	-4948
🇺	-4949
🌀	-4950
🌐	-4951
🌬	-4952
🌲	-4953
🌺	-4954
🍁	-4955
🍳	-4956
🎁	-4957
🎄	-4958
🎥	-4959
🎬	-4960
🐶	-4961
👑	-4962
💎	-4963
💕	-4964
💜	-4965
💟	-4966
💫	-4967
💳	-4968
📈	-4969
📌	-4970
📍	-4971
📑	-4972
📝	-4973
📱	-4974
📽	-4975
🔎	-4976
🔔	-4977
🔵	-4978
🔶	-4979
🗽	-4980
😁	-4981
😌	-4982
😎	-4983
😒	-4984
😔	-4985
😕	-4986
😗	-4987
😙	-4988
😭	-4989
😶	-4990
🙏	-4991
🚀	-4992
🚫	-4993
🤔	-4994
🤗	-4995
🥇	-4996
