<unk>	0
<s>	0
</s>	0
.	-3.36156
▁و	-3.65057
▁در	-3.71189
▁به	-3.76356
،	-3.81099
▁می	-3.83669
▁که	-3.94558
▁از	-3.95563
▁را	-4.08795
ی	-4.23948
▁است	-4.26275
▁این	-4.34956
▁های	-4.69782
▁با	-4.81571
▁برای	-4.83542
▁یک	-4.87863
▁ها	-5.08151
▁آن	-5.17023
▁شما	-5.38648
▁خود	-5.49066
▁کند	-5.58166
▁شود	-5.6031
:	-5.66391
▁یا	-5.6641
▁ما	-5.67875
▁شده	-5.68594
▁تا	-5.71803
▁کنید	-5.80479
▁(	-5.85813
▁او	-5.86695
)	-5.87972
▁بر	-5.88036
▁ای	-5.89052
ه	-5.90306
▁بود	-5.9115
م	-5.91505
▁کنند	-5.92042
▁من	-5.94202
▁سال	-5.94894
▁هر	-5.99705
▁هم	-6.00263
▁کار	-6.02636
▁اما	-6.0352
▁باشد	-6.06995
▁دارد	-6.11377
▁نمی	-6.11417
▁کرد	-6.12822
؟	-6.13577
▁آنها	-6.15277
▁باید	-6.15923
▁شد	-6.1817
▁«	-6.22937
▁استفاده	-6.2467
ش	-6.25087
▁اگر	-6.28026
▁ی	-6.30772
▁،	-6.31781
▁هستند	-6.3769
▁مورد	-6.39173
▁کرده	-6.43818
▁دهد	-6.43876
▁انجام	-6.44466
▁دو	-6.47626
▁اند	-6.49087
▁	-6.49153
▁دیگر	-6.519
▁تواند	-6.52517
▁همه	-6.53321
▁وجود	-6.53352
▁چه	-6.56369
▁حال	-6.57047
▁نیز	-6.57184
های	-6.58755
▁عنوان	-6.60545
▁قرار	-6.60878
ان	-6.61955
▁خواهد	-6.62877
ت	-6.64874
▁داشته	-6.6714
▁زندگی	-6.70823
ها	-6.7149
»	-6.72872
▁دست	-6.73116
▁تر	-6.73573
▁نیست	-6.74479
▁ممکن	-6.75482
▁بین	-6.76468
▁پس	-6.76874
▁روی	-6.77615
▁شوند	-6.78062
د	-6.8024
▁روز	-6.80366
▁داده	-6.81241
ن	-6.82038
▁بسیار	-6.8226
▁.	-6.82268
▁دارند	-6.83138
▁شرکت	-6.84176
ند	-6.85411
▁نظر	-6.85876
▁کردن	-6.86397
▁زمان	-6.87014
▁بیشتر	-6.87699
!	-6.88446
ا	-6.88473
-	-6.88762
▁طور	-6.89297
▁"	-6.91139
؛	-6.92599
▁کنیم	-6.92845
▁هیچ	-6.94071
▁برنامه	-6.94911
▁تنها	-6.95534
▁کمک	-6.96664
▁مردم	-7.00186
▁پیش	-7.00325
▁همچنین	-7.00449
▁هایی	-7.02295
▁راه	-7.05088
▁نشان	-7.05463
▁یکی	-7.05531
▁چند	-7.06033
▁کشور	-7.08347
▁چیزی	-7.08607
▁بازی	-7.10596
▁توانید	-7.10907
ین	-7.11294
▁توسط	-7.12073
▁نه	-7.12357
▁جدید	-7.13917
▁نیاز	-7.14531
▁تمام	-7.15163
▁ایجاد	-7.1551
▁بی	-7.16118
.»	-7.16427
▁صورت	-7.16753
...	-7.16973
▁داد	-7.17
▁فقط	-7.18063
▁آیا	-7.18713
▁گفت	-7.18815
و	-7.19289
▁جهان	-7.1961
ات	-7.20088
▁نام	-7.20265
▁کنم	-7.20354
s	-7.20965
▁بیش	-7.21617
▁بعد	-7.2266
▁مانند	-7.23358
▁باشید	-7.24114
▁افراد	-7.24243
ر	-7.24674
▁حتی	-7.25015
▁دهند	-7.25057
▁آمریکا	-7.25578
▁اینکه	-7.25753
▁بسیاری	-7.25761
▁ترین	-7.26552
▁بزرگ	-7.28675
▁برخی	-7.29078
ید	-7.30408
▁بار	-7.30523
"	-7.3103
▁زمانی	-7.33103
▁ایران	-7.33227
▁کردند	-7.33915
▁باشند	-7.34734
▁تغییر	-7.34745
▁-	-7.36207
▁افزایش	-7.36326
▁درصد	-7.37084
▁دهید	-7.37353
ِ	-7.38308
یم	-7.38609
▁فکر	-7.40111
▁داشت	-7.40392
▁ماه	-7.40491
▁توانند	-7.41718
▁مهم	-7.42081
▁آب	-7.43257
▁ارائه	-7.43568
▁تولید	-7.44784
▁رو	-7.4562
▁بخش	-7.45818
▁همین	-7.46012
▁چگونه	-7.46136
▁کسی	-7.462
▁تو	-7.46592
▁وقتی	-7.46974
▁بوده	-7.47252
▁انتخاب	-7.47369
▁بدون	-7.47432
▁“	-7.47735
▁همان	-7.48618
▁شدن	-7.48934
▁سه	-7.493
▁چرا	-7.49369
▁پیدا	-7.49633
▁بودند	-7.49674
▁زیادی	-7.49859
▁خانه	-7.50079
▁درباره	-7.50184
▁سر	-7.50578
▁گرفته	-7.50937
▁سیستم	-7.50956
▁خوب	-7.52539
▁کتاب	-7.52664
ع	-7.53363
▁کاهش	-7.53399
▁خیلی	-7.54361
▁–	-7.54848
▁دوست	-7.55198
▁دولت	-7.55206
▁ب	-7.5565
تان	-7.55746
▁شروع	-7.55837
▁باز	-7.56662
▁توجه	-7.56747
ک	-7.56777
▁طول	-7.57197
▁سایت	-7.58678
▁اطلاعات	-7.5876
▁چیز	-7.58934
س	-7.59018
▁نفر	-7.59956
▁دلیل	-7.60066
▁سازمان	-7.60297
▁قابل	-7.60694
▁قبل	-7.61267
▁چنین	-7.6183
▁اولین	-7.6188
شان	-7.6319
▁فیلم	-7.63247
ي	-7.63435
▁کننده	-7.64572
▁بهترین	-7.64592
▁دارید	-7.65064
▁کسب	-7.6519
▁زبان	-7.65305
­	-7.65346
▁ام	-7.65357
▁خدا	-7.65777
▁دیگری	-7.65881
▁خواهید	-7.66441
▁انسان	-7.66645
▁ندارد	-7.66817
▁توان	-7.66908
▁همیشه	-7.66999
▁گروه	-7.67053
▁باعث	-7.67754
▁:	-7.67829
▁بنابراین	-7.68177
,	-7.68725
ب	-7.68755
تر	-7.68805
▁جنگ	-7.69222
▁خواهند	-7.69266
”	-7.69292
▁...	-7.69379
▁مدت	-7.69434
▁تلاش	-7.70008
▁گذشته	-7.70646
▁توسعه	-7.70923
▁طریق	-7.70923
▁غیر	-7.70977
▁ولی	-7.71138
▁طراحی	-7.7165
▁اول	-7.72836
ل	-7.73125
▁شهر	-7.74533
▁هدف	-7.74588
▁مختلف	-7.74672
▁آنچه	-7.75416
▁روش	-7.75509
▁بهتر	-7.76213
▁آینده	-7.76557
▁شامل	-7.76866
▁دنبال	-7.76962
▁جهانی	-7.77165
▁بدن	-7.77188
▁هنوز	-7.77462
▁اصلی	-7.78149
▁اجتماعی	-7.78508
▁نوع	-7.78517
]	-7.79075
▁حدود	-7.80056
▁پر	-7.80701
▁یاد	-7.80822
▁میان	-7.80834
▁سرمایه	-7.80903
▁ادامه	-7.8138
▁گفته	-7.82099
▁تجربه	-7.82445
▁زنان	-7.82741
▁اندازه	-7.83032
▁احساس	-7.83121
▁حاضر	-7.83381
▁مصرف	-7.83393
▁دادن	-7.8347
ست	-7.84194
▁کاری	-7.84353
▁رشد	-7.84368
▁خانواده	-7.84406
▁دریافت	-7.84457
▁دارای	-7.8458
▁زیرا	-7.84729
▁اش	-7.85101
▁همراه	-7.8523
▁آموزش	-7.85652
▁دانشگاه	-7.85742
▁دانش	-7.85978
▁بررسی	-7.86242
▁هزینه	-7.86937
▁کامل	-7.87229
▁منطقه	-7.87272
▁کم	-7.87458
▁میلیون	-7.87677
▁بالا	-7.87754
▁S	-7.87845
▁کنترل	-7.88217
▁سطح	-7.88441
▁المللی	-7.88705
▁ساعت	-7.89301
ار	-7.89452
▁درمان	-7.89592
▁هفته	-7.89604
▁وقت	-7.89706
▁تصمیم	-7.90135
▁زمین	-7.90234
▁تبدیل	-7.90262
▁پاسخ	-7.90346
▁فعالیت	-7.90609
▁خوبی	-7.90629
▁قدرت	-7.90696
▁واقع	-7.90889
▁فرد	-7.90932
▁ن	-7.91196
▁عمل	-7.91482
▁امروز	-7.9192
▁تحت	-7.92158
▁مدیریت	-7.92534
▁دوره	-7.92871
▁زیر	-7.92879
▁موضوع	-7.9299
ۀ	-7.93484
▁بلکه	-7.94833
▁نتیجه	-7.94975
▁صحبت	-7.95311
ای	-7.9536
ز	-7.95486
▁گذاری	-7.95605
▁بیماری	-7.95913
▁C	-7.95949
▁اجازه	-7.96004
▁چون	-7.9614
▁برابر	-7.96423
▁جای	-7.96494
ال	-7.96528
▁مواد	-7.96644
▁گوید	-7.96724
▁مثال	-7.97123
▁گزارش	-7.97225
▁تعداد	-7.97233
▁پایان	-7.9776
▁شاید	-7.97879
▁دلار	-7.98766
▁متحده	-7.98793
▁حل	-7.99102
ح	-7.99117
▁کوچک	-7.99307
▁شدند	-7.99573
▁آغاز	-7.99616
▁سازی	-7.99906
(	-8.00186
▁نسبت	-8.00215
مان	-8.00591
▁کل	-8.00619
ف	-8.00843
▁پول	-8.01188
▁اید	-8.01733
▁ایالات	-8.01948
▁وارد	-8.01995
▁هستید	-8.02208
▁درست	-8.02571
▁تان	-8.03008
▁شرایط	-8.03344
▁جمله	-8.0336
در	-8.03923
▁حالی	-8.04228
▁اروپا	-8.04231
▁بیشتری	-8.04257
▁واقعی	-8.0495
▁گرفت	-8.05099
▁اغلب	-8.05175
▁بازار	-8.05479
▁دنیا	-8.05862
▁ارتباط	-8.05924
▁مثل	-8.05931
▁خدمات	-8.05939
▁شکل	-8.06026
▁مناسب	-8.06192
▁حمایت	-8.06207
▁نزدیک	-8.06423
▁کردم	-8.06673
▁خاطر	-8.06825
▁چشم	-8.07029
▁چین	-8.07153
▁ارزش	-8.07647
▁مطالعه	-8.07919
▁B	-8.08289
به	-8.08694
▁یعنی	-8.0879
▁لازم	-8.09057
▁کودکان	-8.09156
▁تیم	-8.09346
▁رسد	-8.09462
▁دیگران	-8.09677
▁شوید	-8.09751
ى	-8.09934
▁پروژه	-8.10253
▁جا	-8.10348
▁کسانی	-8.10428
▁خرید	-8.10554
من	-8.10631
▁زمینه	-8.10703
▁مشکل	-8.11048
▁انرژی	-8.11263
▁شبکه	-8.11441
▁قیمت	-8.11706
▁A	-8.11773
▁گیرد	-8.12096
▁گونه	-8.12504
▁البته	-8.13395
▁سایر	-8.13488
ق	-8.13665
▁زن	-8.13785
▁هنگامی	-8.14345
▁اینجا	-8.14349
▁اکنون	-8.14555
▁خاص	-8.15061
▁مربوط	-8.1521
▁کافی	-8.15438
▁قانون	-8.15655
▁اقتصادی	-8.15685
انه	-8.15956
▁فروش	-8.16024
▁تاریخ	-8.16128
▁اتفاق	-8.16306
▁داریم	-8.1635
D	-8.16607
C	-8.16636
▁اعلام	-8.16908
y	-8.16916
▁وب	-8.16946
▁ساخت	-8.17141
▁سپس	-8.17448
ص	-8.18023
یک	-8.18184
▁اساس	-8.18238
S	-8.18238
▁مالی	-8.18385
▁سیاسی	-8.18398
▁گیری	-8.18636
▁کمی	-8.18781
▁دور	-8.19067
ام	-8.19434
▁کمتر	-8.19578
▁نقش	-8.19718
▁خواب	-8.19778
▁هست	-8.20226
▁داستان	-8.20264
▁جامعه	-8.20863
▁کنار	-8.21148
▁2	-8.21149
▁موارد	-8.21197
▁هزار	-8.21407
▁كه	-8.21505
P	-8.21507
ون	-8.21583
▁کشورهای	-8.21675
ور	-8.2168
▁سفر	-8.21708
▁خون	-8.22172
▁دارم	-8.22468
▁طبیعی	-8.22526
▁هرگز	-8.23046
▁ساخته	-8.23151
▁بعضی	-8.23235
▁خارج	-8.23283
▁درک	-8.23294
▁ساده	-8.23438
▁دوم	-8.23555
▁رنگ	-8.23739
/	-8.23966
▁امکان	-8.24016
▁نگاه	-8.24349
▁حرکت	-8.24397
▁موفقیت	-8.24608
▁ملی	-8.24937
▁T	-8.25115
▁مرگ	-8.25514
▁سیاست	-8.25615
▁رابطه	-8.25714
▁عمومی	-8.25813
▁روسیه	-8.25922
▁صفحه	-8.26216
▁حقوق	-8.26269
▁ویژه	-8.26355
▁حداقل	-8.26502
▁مشکلات	-8.26647
▁سرعت	-8.26737
▁[	-8.2715
▁شخصی	-8.27258
▁ایده	-8.27339
▁آنجا	-8.27527
▁حق	-8.27542
▁آماده	-8.27683
یت	-8.27701
▁شب	-8.27769
▁سخت	-8.2784
».	-8.27976
▁خطر	-8.27989
▁مشخص	-8.28068
▁سوی	-8.28157
▁بهبود	-8.28193
▁حفظ	-8.28837
ج	-8.29202
▁پرداخت	-8.29301
▁بودن	-8.29364
خ	-8.30049
▁کودک	-8.30429
▁موجود	-8.30603
▁5	-8.30772
▁چهار	-8.30814
▁تاثیر	-8.3177
▁خداوند	-8.31885
▁یافته	-8.31931
▁سریع	-8.32061
▁افرادی	-8.32174
▁دستگاه	-8.32243
▁قادر	-8.32325
▁حرفه	-8.32366
▁رئیس	-8.32425
▁میزان	-8.33006
▁علاوه	-8.33074
▁سراسر	-8.33175
▁انتظار	-8.33507
▁داشتن	-8.33565
▁طی	-8.33604
▁1	-8.33712
▁وضعیت	-8.33793
▁دوباره	-8.33844
M	-8.34096
ایی	-8.343
▁متفاوت	-8.34404
▁غذایی	-8.34484
▁3	-8.34518
▁آورد	-8.34519
▁آسیب	-8.34597
▁آنان	-8.34605
▁شان	-8.34778
▁F	-8.35207
از	-8.3567
B	-8.35732
▁10	-8.35771
▁عکس	-8.35972
▁P	-8.36155
▁خواهیم	-8.36203
▁علیه	-8.36571
▁مرد	-8.36636
▁زیاد	-8.37019
▁هنگام	-8.37353
بر	-8.37398
▁ایم	-8.37728
▁نتایج	-8.37821
▁پایین	-8.38009
T	-8.38135
▁خارجی	-8.3853
▁دهه	-8.38802
که	-8.38909
."	-8.39486
▁حرف	-8.39756
▁سعی	-8.39793
▁هستیم	-8.39883
▁آید	-8.3995
▁جایی	-8.40261
▁آمریکایی	-8.40263
▁محصولات	-8.40324
▁روند	-8.40342
▁حد	-8.40357
▁دیده	-8.40378
▁مشتریان	-8.40912
▁واقعا	-8.40988
▁طرف	-8.41065
▁نا	-8.41086
▁طولانی	-8.41091
▁بیان	-8.41129
2	-8.41309
▁دسترسی	-8.41311
▁معمولا	-8.41581
▁حضور	-8.41586
▁مکان	-8.41641
▁تجاری	-8.42026
▁مشاهده	-8.42191
▁حقیقت	-8.42473
▁نمایش	-8.42791
t	-8.42806
▁امنیت	-8.42843
ما	-8.42868
▁منتشر	-8.42911
e	-8.42998
▁بخشی	-8.43234
▁نشده	-8.43243
▁گاهی	-8.43301
▁بد	-8.43701
▁مهارت	-8.4371
▁مدل	-8.43737
▁دهیم	-8.43743
اً	-8.43971
▁آمده	-8.44131
اد	-8.44158
▁شناخته	-8.44412
▁پنج	-8.44781
▁D	-8.4486
▁خواهم	-8.44969
L	-8.45217
▁اضافه	-8.45329
▁محیط	-8.45346
▁معنی	-8.45394
▁فرصت	-8.45405
▁ال	-8.45426
▁نباید	-8.46189
▁عالی	-8.4648
al	-8.46519
er	-8.46624
▁درخواست	-8.46825
▁کنندگان	-8.46858
▁فشار	-8.47025
▁محصول	-8.47528
▁پی	-8.47585
▁رود	-8.47623
▁منابع	-8.47633
▁موفق	-8.47719
▁ایشان	-8.47992
▁طرح	-8.48393
▁آزاد	-8.48413
انی	-8.48576
▁رخ	-8.48742
▁غذا	-8.49146
A	-8.49191
▁توانایی	-8.49333
یا	-8.49363
▁بندی	-8.4937
▁همکاری	-8.495
▁سمت	-8.49663
▁حالا	-8.49673
▁4	-8.49737
▁اکثر	-8.49782
▁بچه	-8.49866
▁رسانه	-8.49993
▁مرکز	-8.50156
▁چیست	-8.5031
▁تمرکز	-8.50589
E	-8.50592
▁E	-8.50683
▁جمع	-8.50683
▁رفتار	-8.50808
▁نور	-8.50949
▁کس	-8.51026
▁ساله	-8.51293
ری	-8.51315
▁رسید	-8.51495
▁گویند	-8.51618
▁ثبت	-8.51675
▁توانیم	-8.51775
▁یافت	-8.51862
پ	-8.51862
▁کدام	-8.51938
3	-8.51967
رو	-8.51975
G	-8.52398
▁اعتماد	-8.52467
▁ع	-8.52467
چ	-8.52584
▁اشاره	-8.52594
▁نبود	-8.52624
▁بودم	-8.52631
▁کلی	-8.52713
o	-8.52984
▁مسیر	-8.53027
▁19	-8.5306
▁اثر	-8.53118
▁روابط	-8.53141
▁نوشته	-8.5336
▁نیستند	-8.53646
▁G	-8.53802
▁اقتصاد	-8.53947
▁توصیه	-8.54007
▁حساب	-8.54062
▁مرحله	-8.54256
گی	-8.54304
▁هستم	-8.54321
▁عملکرد	-8.5457
نی	-8.54746
▁حمله	-8.54807
▁فراهم	-8.54823
▁م	-8.55004
▁ماشین	-8.55071
▁سن	-8.5514
این	-8.55247
▁دقیقه	-8.55274
▁متوجه	-8.55383
▁منجر	-8.55588
F	-8.55656
وس	-8.55656
▁علاقه	-8.55701
▁کن	-8.55783
▁آزمایش	-8.5589
▁خودتان	-8.55903
▁مقدار	-8.5591
▁جهت	-8.55951
▁برد	-8.56015
▁صنعت	-8.56244
▁نظامی	-8.56245
▁آمد	-8.56309
▁بعدی	-8.56332
▁تغییرات	-8.56333
▁تحقیقات	-8.56512
▁درآمد	-8.56994
▁داخلی	-8.57109
▁تشکیل	-8.57226
▁باور	-8.57309
▁داشتند	-8.5738
▁بگیرید	-8.57425
▁پوست	-8.57494
▁مجموعه	-8.57605
▁اهمیت	-8.57678
▁گزینه	-8.57694
▁کاربران	-8.57718
▁تقریبا	-8.57942
▁اهداف	-8.58007
▁بسته	-8.58143
▁پشت	-8.58398
▁منظور	-8.58562
▁اتاق	-8.58648
یان	-8.58678
▁ان	-8.58725
▁خودش	-8.58824
ترین	-8.58845
O	-8.58916
▁پیشرفت	-8.59068
▁بینی	-8.59165
I	-8.59202
ده	-8.59399
▁گیرند	-8.59507
▁گرفتن	-8.59656
اس	-8.59757
▁تشخیص	-8.59758
▁N	-8.59835
▁قسمت	-8.59861
▁محل	-8.60025
▁فعال	-8.60256
▁باشیم	-8.60277
▁ندارند	-8.60351
▁کاملا	-8.60376
▁یابد	-8.60523
▁مردان	-8.60573
▁اجرا	-8.60658
▁پیشنهاد	-8.60672
▁آخرین	-8.60806
▁انگلیسی	-8.60833
▁محدود	-8.60913
▁امر	-8.61025
▁آموزان	-8.61124
وی	-8.6126
▁گردد	-8.61551
▁۵	-8.61617
َ	-8.61674
گ	-8.61689
▁عشق	-8.61756
ing	-8.61938
▁نگه	-8.61944
▁باقی	-8.61983
تا	-8.6206
▁سی	-8.62081
لا	-8.6214
▁6	-8.62171
▁دادند	-8.62234
▁احتمال	-8.62249
▁H	-8.62319
▁شدید	-8.62349
▁کوتاه	-8.62437
▁واقعیت	-8.6244
▁ا	-8.62449
ض	-8.62799
4	-8.6287
▁وزن	-8.62951
▁پدر	-8.63246
▁جریان	-8.63377
گر	-8.63649
▁مشتری	-8.63673
▁حالت	-8.63701
▁مغز	-8.63753
▁رژیم	-8.63787
▁مدرسه	-8.63936
با	-8.64028
▁آلمان	-8.6414
▁جمهوری	-8.64213
▁/	-8.64632
▁گسترده	-8.64678
▁انواع	-8.64747
▁بهره	-8.64771
▁خط	-8.64831
▁تعیین	-8.64885
▁تصویر	-8.65077
▁مرتبط	-8.65167
1	-8.65405
▁پیام	-8.65496
▁بیرون	-8.6552
▁ابتدا	-8.65566
▁سوریه	-8.65688
▁داخل	-8.65987
▁M	-8.66134
)،	-8.66305
5	-8.66338
▁تفاوت	-8.66352
▁موسیقی	-8.66421
▁آزادی	-8.66431
▁نرم	-8.66623
in	-8.66637
▁سلامت	-8.6665
▁جوان	-8.66674
ول	-8.66958
▁مسئله	-8.67196
▁اسرائیل	-8.67399
▁اطمینان	-8.6748
▁I	-8.67548
▁مناطق	-8.67551
▁بحث	-8.67622
▁کیفیت	-8.67701
▁خصوص	-8.67772
▁سلول	-8.67801
▁یکدیگر	-8.67817
▁لذت	-8.67978
▁روشن	-8.68028
▁مطمئن	-8.68075
▁همچنان	-8.68121
▁الله	-8.683
▁کشف	-8.68705
▁سرطان	-8.68833
▁ل	-8.68985
▁اینترنت	-8.69019
▁خوش	-8.69032
).	-8.69093
▁ده	-8.69194
▁آنلاین	-8.69201
تون	-8.69202
▁سوم	-8.69266
▁R	-8.69582
▁جلوگیری	-8.69636
▁توافق	-8.69702
▁رفت	-8.69743
▁انتقال	-8.69855
▁اولیه	-8.6991
ٔ	-8.69925
▁درد	-8.70093
▁قوی	-8.70156
▁گوش	-8.70182
▁اعضای	-8.70274
▁نمونه	-8.7029
▁آوری	-8.70341
▁۴	-8.70351
R	-8.70361
▁ازدواج	-8.70366
▁شخص	-8.70415
▁نکنید	-8.70521
▁کردیم	-8.70564
▁جان	-8.7067
▁سالم	-8.70744
d	-8.70809
▁مادر	-8.7087
▁ارسال	-8.71027
▁پزشکی	-8.71082
▁ویژگی	-8.71097
▁مقاله	-8.71171
p	-8.7123
▁نسخه	-8.71244
▁افغانستان	-8.71393
▁تمامی	-8.71441
▁ساختمان	-8.71451
نا	-8.71533
▁توضیح	-8.71547
▁نو	-8.71592
▁فرانسه	-8.71614
▁دوران	-8.71974
▁محلی	-8.7202
▁هسته	-8.72131
▁)	-8.72273
▁ترک	-8.72373
▁7	-8.72439
▁تجارت	-8.72507
▁خبر	-8.7254
یل	-8.72632
▁دید	-8.72703
▁اختیار	-8.72734
▁جمهور	-8.72854
▁نخواهد	-8.73034
▁سفید	-8.73105
▁دختر	-8.73231
▁۳	-8.73337
▁اخیر	-8.73458
▁قرن	-8.73508
▁۱۰	-8.73781
▁نامه	-8.73838
▁بانک	-8.73887
r	-8.73992
▁دهنده	-8.74012
n	-8.74153
▁تحقیق	-8.74237
▁۱۹	-8.74411
▁جدی	-8.74478
▁زنده	-8.74547
▁فوق	-8.7455
تی	-8.7463
▁نهایت	-8.74671
or	-8.74701
▁»	-8.74748
▁۲	-8.74812
8	-8.74817
▁مرا	-8.75236
▁فرهنگ	-8.75452
▁تصور	-8.75545
▁ت	-8.75613
را	-8.75726
▁پشتیبانی	-8.75728
▁گسترش	-8.75772
▁بازاریابی	-8.76009
an	-8.76059
می	-8.76231
▁اشتباه	-8.76289
▁قلب	-8.76378
▁ترکیه	-8.76409
▁دل	-8.7645
▁مسائل	-8.76469
▁گل	-8.76551
▁تماس	-8.76632
N	-8.76714
▁ذهن	-8.76773
▁هوا	-8.76871
▁شکست	-8.76918
i	-8.77105
▁آدم	-8.77161
▁قوانین	-8.77488
▁اوقات	-8.77721
▁رفتن	-8.77731
نده	-8.7797
▁برند	-8.78287
▁مو	-8.78292
▁تازه	-8.7837
▁تکنولوژی	-8.78659
گان	-8.78674
▁نیروهای	-8.78751
▁شخصیت	-8.78931
▁پذیر	-8.7912
اب	-8.79251
▁L	-8.79307
▁ترامپ	-8.79387
▁احتمالا	-8.79416
▁بلند	-8.79445
▁نقطه	-8.79467
▁آسان	-8.79496
بی	-8.79519
▁جنسی	-8.79567
▁تمرین	-8.79855
▁8	-8.79905
لی	-8.79938
▁کره	-8.80029
هایی	-8.8005
▁؟	-8.80064
▁نفت	-8.8009
▁تهدید	-8.8011
▁مستقیم	-8.80148
▁جز	-8.80251
▁خصوصی	-8.80257
▁مجبور	-8.80272
▁قصد	-8.80597
▁کارهای	-8.8062
▁استراتژی	-8.80743
▁مبارزه	-8.80936
▁اقدام	-8.81
a	-8.81022
▁فصل	-8.81251
تو	-8.81388
▁آتش	-8.81433
▁صلح	-8.81739
▁۱	-8.8202
▁سوال	-8.82208
▁یادگیری	-8.82244
▁دقیق	-8.82251
نگ	-8.82258
H	-8.82323
▁دنیای	-8.82383
▁شبیه	-8.82422
سی	-8.82535
▁قدیمی	-8.82607
▁ریزی	-8.82652
۳	-8.82691
▁دار	-8.82706
▁نیروی	-8.82709
▁س	-8.82735
▁مشترک	-8.82807
ط	-8.82828
▁نشانه	-8.82963
گاه	-8.82973
▁پا	-8.82986
▁معرفی	-8.83221
▁گوگل	-8.83224
▁اعمال	-8.83224
ث	-8.83257
▁مقابل	-8.83285
▁دوستان	-8.83436
▁صرف	-8.83497
▁موقعیت	-8.83516
▁میلیارد	-8.83563
ك	-8.83734
▁بشر	-8.83952
نه	-8.84011
▁مفید	-8.84056
▁ابزار	-8.84244
▁د	-8.84355
▁عراق	-8.84373
▁چقدر	-8.84394
▁فضای	-8.84593
▁تحلیل	-8.84614
▁چطور	-8.84731
▁عامل	-8.84782
▁دی	-8.84903
▁شدت	-8.85122
.”	-8.85236
گو	-8.85608
▁جدیدی	-8.85673
▁حزب	-8.85924
▁حاصل	-8.86005
▁رسیدن	-8.86049
دی	-8.86168
▁تن	-8.86381
▁دچار	-8.8669
▁بزرگترین	-8.86745
▁کجا	-8.8685
▁مقایسه	-8.86863
c	-8.86913
▁فراموش	-8.87295
▁نکته	-8.87295
▁بازگشت	-8.87463
▁جمعیت	-8.87587
▁کانادا	-8.87622
k	-8.87724
g	-8.87863
▁تلفن	-8.87903
en	-8.87931
▁همانطور	-8.88262
▁20	-8.88262
▁عدم	-8.88523
وا	-8.88524
▁درون	-8.88776
▁عضو	-8.88839
▁سیاه	-8.88925
▁آقای	-8.8897
▁مطالعات	-8.89045
▁مثبت	-8.89047
▁سنگ	-8.89234
▁انسانی	-8.89286
▁دوربین	-8.89326
▁علمی	-8.89395
▁لباس	-8.89491
▁گرم	-8.89508
▁دسترس	-8.89647
f	-8.89698
▁لا	-8.89929
re	-8.90276
▁راحتی	-8.90292
▁*	-8.90322
▁رسمی	-8.90515
▁اتحادیه	-8.90564
▁لو	-8.90611
▁مشابه	-8.90666
▁نداشته	-8.90725
▁ضد	-8.90732
▁اطراف	-8.91069
▁اشتراک	-8.9109
l	-8.9112
▁خودم	-8.912
▁رسیده	-8.91376
▁ظاهر	-8.91423
▁مراقبت	-8.91424
▁طبق	-8.91654
▁تأثیر	-8.91745
▁W	-8.91881
▁فردی	-8.91911
▁محققان	-8.91936
▁امنیتی	-8.92216
۴	-8.92394
▁صدای	-8.92443
▁توانم	-8.92455
▁محتوای	-8.92669
▁ترس	-8.92897
▁جدا	-8.9297
آ	-8.93106
▁روزانه	-8.93145
▁واکنش	-8.93182
▁جستجو	-8.93359
▁ارزیابی	-8.9355
▁زده	-8.93572
دار	-8.9359
▁دانشجویان	-8.9359
▁شناسایی	-8.93739
▁سبک	-8.94013
▁دانند	-8.94042
▁معنای	-8.94051
▁خوردن	-8.94097
▁خاصی	-8.94191
▁علائم	-8.94197
▁پزشک	-8.94252
u	-8.94254
▁نقل	-8.94281
▁زیست	-8.94394
▁انگیز	-8.94435
▁العاده	-8.94476
▁قرآن	-8.94673
▁منبع	-8.94678
▁تعریف	-8.95129
▁شش	-8.95167
▁مان	-8.95208
▁درجه	-8.95326
▁عمر	-8.95329
▁وزیر	-8.9542
▁مبتلا	-8.95599
▁پسر	-8.95635
U	-8.95668
یر	-8.95778
▁کلاس	-8.95833
el	-8.95947
▁حکومت	-8.9598
▁رفته	-8.9605
کار	-8.96136
▁حس	-8.96444
ئی	-8.9652
▁موثر	-8.96552
▁ورزش	-8.96576
▁هند	-8.966
▁حمل	-8.96661
▁خواست	-8.96676
▁خودشان	-8.96708
on	-8.96948
▁دیدن	-8.96952
٪	-8.97021
▁علت	-8.97124
۱	-8.97349
▁اسلامی	-8.97422
کس	-8.97424
▁دکتر	-8.9754
▁هدایت	-8.97596
▁لحظه	-8.97694
▁فرزند	-8.97742
▁متوسط	-8.97884
▁مطرح	-8.98076
▁افزار	-8.98106
۲	-8.98148
▁علی	-8.98332
▁پایه	-8.98332
▁قانونی	-8.9836
▁ثابت	-8.98463
▁داری	-8.98505
▁لیست	-8.98526
▁”	-8.98539
▁حذف	-8.98657
▁پلیس	-8.98692
le	-8.98744
▁نکرده	-8.98827
▁موجب	-8.98879
یه	-8.98885
▁انقلاب	-8.99047
▁برگزار	-8.99154
▁ماند	-8.99547
▁دفاع	-8.99591
▁چیزهایی	-8.99904
▁انتخابات	-8.9994
▁محافظت	-8.99949
▁کلمه	-9.0005
▁چالش	-9.00123
▁افتد	-9.00148
▁ف	-9.00149
▁ضروری	-9.00222
▁شمالی	-9.00227
▁استاندارد	-9.00263
▁جذب	-9.00321
▁خواندن	-9.00355
▁اگرچه	-9.00558
۶	-9.00591
▁ورود	-9.00609
غ	-9.00696
اف	-9.00798
▁سازد	-9.00823
یس	-9.00995
▁چ	-9.01068
▁امور	-9.0108
▁پست	-9.01098
▁نگران	-9.011
▁دهم	-9.01119
۵	-9.01244
▁مدرن	-9.01317
▁ر	-9.01359
▁بیمار	-9.01537
▁فرهنگی	-9.01631
ود	-9.01674
▁9	-9.01783
7	-9.01978
▁دولتی	-9.01994
▁پرواز	-9.02264
▁خ	-9.02296
▁حوزه	-9.02616
▁•	-9.02618
▁مدیر	-9.0266
▁دانلود	-9.02717
▁18	-9.02848
▁امروزه	-9.02962
▁امام	-9.03104
▁ببینید	-9.03233
▁عوامل	-9.0333
ـ	-9.03378
▁بیماران	-9.0338
▁عبارت	-9.03424
▁ترکیب	-9.03635
▁اس	-9.03636
▁عمیق	-9.03671
▁نجات	-9.03844
▁کو	-9.03881
▁سود	-9.04021
V	-9.04163
▁اجرای	-9.04363
▁تنظیم	-9.04461
▁هنر	-9.04489
▁ارتش	-9.04656
۹	-9.04677
▁ماده	-9.04792
▁آخر	-9.04839
▁تصاویر	-9.04865
z	-9.04968
▁فایل	-9.04977
▁اساسی	-9.05175
▁ترتیب	-9.05276
▁مت	-9.05316
▁بدانید	-9.05329
▁پیچیده	-9.05382
▁of	-9.05393
▁بگیرد	-9.05398
▁بزرگی	-9.05548
زی	-9.05674
▁علم	-9.05704
▁نمود	-9.05824
▁ستاره	-9.05902
▁شغل	-9.06028
▁دیدگاه	-9.06339
▁امریکا	-9.06401
▁شیوه	-9.06951
▁مسئولیت	-9.06972
▁رقابت	-9.07018
▁فناوری	-9.0716
ar	-9.07167
▁فاصله	-9.07266
▁کارت	-9.07419
▁فرا	-9.07665
▁K	-9.07744
▁بحران	-9.07796
it	-9.07829
▁معمول	-9.07978
▁جالب	-9.08007
▁12	-9.08156
▁کلیدی	-9.08284
▁آموزشی	-9.08433
▁دانم	-9.08515
▁بازدید	-9.08552
▁معمولاً	-9.08568
▁آنکه	-9.08728
نت	-9.08771
لو	-9.0882
▁جواب	-9.08892
▁کشته	-9.09053
▁خشونت	-9.09188
وم	-9.09356
ژ	-9.09469
▁شگفت	-9.09513
▁نخستین	-9.10013
▁گو	-9.1004
▁رهبری	-9.10224
▁متوقف	-9.1049
▁توانست	-9.10717
▁جایگزین	-9.10835
▁بتواند	-9.10851
▁V	-9.10853
▁مقامات	-9.1088
ic	-9.1089
▁جنوبی	-9.10925
▁دانشمندان	-9.10961
▁ایمیل	-9.11099
▁ملل	-9.1127
%	-9.11545
m	-9.11644
▁نگرانی	-9.11884
اک	-9.11933
▁ذخیره	-9.12031
▁وسیله	-9.12032
▁۶	-9.12107
▁سرویس	-9.12145
▁دندان	-9.12145
▁مشارکت	-9.12364
کا	-9.12407
▁زیبا	-9.12407
▁خدمت	-9.12482
▁O	-9.12573
et	-9.12658
▁15	-9.12687
▁تری	-9.12725
▁اقدامات	-9.12901
▁کامپیوتر	-9.12984
▁کشورها	-9.13036
▁قبلی	-9.13046
▁بالای	-9.13153
▁ناشی	-9.13172
▁دانید	-9.13189
▁مگر	-9.13227
▁استرس	-9.13455
▁منفی	-9.13682
▁گفتند	-9.1373
▁نفس	-9.13828
جا	-9.13882
▁صبح	-9.13906
▁اين	-9.14007
▁شماره	-9.14073
▁رد	-9.14261
▁تکرار	-9.14305
▁جو	-9.14334
▁مد	-9.14341
▁خانم	-9.14412
▁کنی	-9.14427
▁مانده	-9.14545
W	-9.14803
▁عرضه	-9.14886
▁تست	-9.15204
▁نسل	-9.15224
▁ح	-9.15235
▁اندازی	-9.15265
▁ه	-9.15302
[	-9.15398
▁آورده	-9.15414
▁سلاح	-9.15418
▁محدودیت	-9.15487
▁قبول	-9.15532
▁آل	-9.15554
کو	-9.15605
▁داند	-9.15621
▁احساسات	-9.15638
کر	-9.1564
▁منتظر	-9.15645
▁باشم	-9.15743
يد	-9.15744
▁انداز	-9.15758
▁هوایی	-9.15761
▁کلمات	-9.15761
▁سخن	-9.15846
▁اسلام	-9.1586
▁بالاتر	-9.15934
▁درمانی	-9.16021
▁تقویت	-9.16107
9	-9.16168
▁نیازهای	-9.16347
▁هفت	-9.16384
▁آمیز	-9.16481
▁نرخ	-9.16574
ّ	-9.16715
نو	-9.1676
▁پوشش	-9.16774
▁شیر	-9.16888
۷	-9.16938
است	-9.17035
▁تک	-9.17038
▁گاز	-9.17055
▁زدن	-9.17068
▁ارشد	-9.17389
▁قابلیت	-9.17421
▁خلق	-9.17841
▁معرض	-9.17972
▁تمایل	-9.1798
▁نوشتن	-9.18036
▁30	-9.18054
▁کارکنان	-9.1809
▁نهایی	-9.18107
▁ک	-9.18168
▁صدا	-9.1819
▁The	-9.18242
۸	-9.18317
▁تهیه	-9.1833
اق	-9.18457
▁نماید	-9.18507
▁مواجه	-9.18648
▁رشته	-9.18684
▁هتل	-9.18686
▁شدم	-9.18849
▁ذکر	-9.18923
▁ساختار	-9.1897
▁عملیات	-9.1897
▁هوشمند	-9.19013
▁مستقل	-9.19038
▁دیجیتال	-9.19053
▁والدین	-9.19084
فر	-9.19117
b	-9.19124
▁حیوانات	-9.19185
▁دانیم	-9.19224
کل	-9.19229
وز	-9.19312
▁ق	-9.19356
▁آر	-9.19561
▁عاشق	-9.19605
وت	-9.19613
▁نصب	-9.1964
▁نظارت	-9.1965
▁خواسته	-9.19697
▁شویم	-9.19966
▁برسد	-9.19995
سون	-9.19999
▁کشتی	-9.20095
▁هشدار	-9.20114
▁همواره	-9.20168
اری	-9.20196
▁کاملاً	-9.20199
▁کی	-9.20224
▁شک	-9.2028
▁امید	-9.2045
▁بگیرند	-9.20858
▁ساز	-9.2086
▁بنا	-9.21045
▁واحد	-9.2113
▁مهمی	-9.2115
▁وزارت	-9.21321
▁مند	-9.21495
▁آرام	-9.21529
کی	-9.2155
▁سگ	-9.21684
w	-9.21724
▁زندان	-9.21728
▁تاریخی	-9.21754
▁تقسیم	-9.21812
دو	-9.21859
▁روزنامه	-9.21872
▁ش	-9.22017
K	-9.22149
▁دارو	-9.2221
▁کاربر	-9.22253
▁احترام	-9.22302
▁ژاپن	-9.22341
▁فیزیکی	-9.22397
▁وعده	-9.2243
▁تلویزیون	-9.22534
دان	-9.22601
▁ج	-9.22869
at	-9.23077
▁سو	-9.23137
▁۲۰	-9.23146
▁بن	-9.23176
▁اداره	-9.23293
6	-9.23582
▁فرم	-9.2364
▁پ	-9.23679
▁مرکزی	-9.23703
▁قدم	-9.2378
▁آوردن	-9.23881
▁خودمان	-9.24062
▁سالگی	-9.24319
▁آسمان	-9.24346
▁عوض	-9.24414
▁مشغول	-9.24414
h	-9.24417
▁مي	-9.24441
▁سبز	-9.2454
▁اینها	-9.24569
ed	-9.24663
▁برقرار	-9.24766
▁بله	-9.24771
▁راست	-9.24809
▁لی	-9.24841
▁واقعاً	-9.24878
▁حفاظت	-9.24921
▁قدر	-9.24938
▁فرزندان	-9.24987
▁رایگان	-9.25082
▁منحصر	-9.2517
▁رهبران	-9.25202
▁دسته	-9.25289
نس	-9.25458
▁نظام	-9.25514
▁چاپ	-9.25556
▁تایید	-9.25588
▁نویسنده	-9.25838
▁متن	-9.25911
▁غربی	-9.25977
▁قرارداد	-9.26143
▁آی	-9.26147
▁علوم	-9.26316
▁متحد	-9.26352
▁ایمان	-9.26456
ol	-9.26658
▁لحاظ	-9.267
▁شاهد	-9.26913
▁غرب	-9.26916
▁اروپایی	-9.26986
▁۷	-9.26989
▁استرالیا	-9.27066
▁مطلب	-9.27088
▁زیبایی	-9.27204
▁گذاشته	-9.27241
▁نباشد	-9.27241
▁راحت	-9.27274
پا	-9.27486
▁گام	-9.27492
▁اعتقاد	-9.27496
▁الان	-9.27525
▁دلایل	-9.27624
▁چینی	-9.27827
▁میشود	-9.27956
ُ	-9.28134
▁دشوار	-9.28151
us	-9.28156
▁افتاد	-9.28359
▁خورشید	-9.28378
▁سلامتی	-9.28445
▁اطلاعاتی	-9.28469
▁گوشی	-9.28479
▁دقت	-9.28515
ذ	-9.28567
▁جراحی	-9.28737
▁تحریم	-9.28908
▁بیمارستان	-9.29046
▁شر	-9.29061
ri	-9.29136
▁تضمین	-9.29171
▁پیاده	-9.29177
▁تولد	-9.29188
▁برخورد	-9.29218
▁دروغ	-9.29322
▁فعلی	-9.29423
▁دادگاه	-9.29424
▁نحوه	-9.29494
▁کد	-9.2955
▁موتور	-9.2969
▁برق	-9.29721
▁طبقه	-9.29831
؟»	-9.29861
▁گ	-9.29959
▁­	-9.29964
▁داشتم	-9.30019
▁J	-9.30118
▁پاک	-9.30269
▁اقامت	-9.30482
▁منافع	-9.30497
▁صورتی	-9.30598
بین	-9.30672
ur	-9.30801
▁تبلیغات	-9.30859
▁گران	-9.30872
▁بریتانیا	-9.30877
000	-9.30965
هم	-9.31076
▁نخست	-9.31094
▁۸	-9.31161
▁بودجه	-9.31168
▁مختلفی	-9.3117
▁عربستان	-9.31437
چه	-9.31513
▁آگاهی	-9.31546
▁قهوه	-9.31704
▁مهاجرت	-9.31788
▁فرآیند	-9.31803
▁چگونگی	-9.3184
▁اصول	-9.3184
▁ز	-9.31879
▁تکنیک	-9.31975
؟!	-9.3205
▁صد	-9.32113
▁میدان	-9.32274
▁پارک	-9.32595
▁U	-9.32611
یده	-9.32783
▁اصل	-9.32887
▁عادی	-9.32936
بار	-9.33022
▁میکند	-9.33181
▁فرض	-9.33482
ره	-9.33531
▁قدرتمند	-9.33533
▁باره	-9.3359
▁مصاحبه	-9.33751
▁شیمیایی	-9.33759
▁گذارد	-9.33768
▁امن	-9.338
دا	-9.33802
▁توصیف	-9.33889
▁منتقل	-9.33889
▁نیازمند	-9.33963
▁بدهید	-9.3399
▁بگذارید	-9.34037
▁صنعتی	-9.34217
▁گفتم	-9.3427
▁مایل	-9.34301
▁خیابان	-9.34304
▁دفتر	-9.34433
▁رنج	-9.34609
رد	-9.34695
▁مزایای	-9.34698
▁جلسه	-9.3472
▁زد	-9.3479
▁محبوب	-9.34829
▁شمال	-9.34837
▁عقب	-9.3486
▁فضا	-9.34879
ra	-9.34984
▁!	-9.35023
▁مک	-9.35035
▁کر	-9.3507
▁اسم	-9.3511
▁روغن	-9.35279
کن	-9.35317
▁بدست	-9.35402
▁ترجیح	-9.35419
▁روح	-9.35434
▁وبلاگ	-9.35559
▁نگهداری	-9.35711
▁گرد	-9.35762
▁استاد	-9.35832
▁طبیعت	-9.3584
▁فروشگاه	-9.36029
▁فن	-9.36036
▁آشنا	-9.36101
▁حملات	-9.3626
▁جنوب	-9.36552
▁پیشرفته	-9.36642
▁کارگران	-9.36645
▁دستور	-9.36689
▁صحنه	-9.3669
▁آیند	-9.36712
▁گاه	-9.36716
▁عفونت	-9.36832
▁۹	-9.36878
▁اصلاح	-9.36888
مه	-9.37095
▁ترجمه	-9.37258
▁بقیه	-9.37258
▁جایزه	-9.37283
▁مصر	-9.37309
▁بتوانند	-9.37442
▁خاک	-9.37473
▁هزاران	-9.37536
▁هیجان	-9.37545
▁فرار	-9.3755
▁بزرگتر	-9.37761
▁دعوت	-9.3783
▁نقاط	-9.3783
▁ایمنی	-9.3793
▁تقریباً	-9.3798
▁نداشت	-9.38029
▁تامین	-9.38093
▁رتبه	-9.38118
▁خطرناک	-9.38122
▁ویتامین	-9.38262
▁شهری	-9.38332
▁مقام	-9.38343
▁اوایل	-9.38458
▁آشکار	-9.38466
جو	-9.38494
له	-9.385
▁متصل	-9.38551
▁عین	-9.38657
▁100	-9.38685
▁50	-9.38834
▁پای	-9.38871
▁11	-9.38944
X	-9.38977
▁بستگی	-9.38991
▁انتشار	-9.39
st	-9.39009
▁دین	-9.39079
▁ملاقات	-9.39276
اند	-9.39386
▁جزیره	-9.39422
▁مقاومت	-9.39463
▁ملت	-9.39541
▁عبور	-9.39572
▁اهل	-9.39861
پی	-9.39958
▁پژوهش	-9.39965
مون	-9.40027
▁نشد	-9.40256
▁مدیران	-9.40275
▁ادعا	-9.4029
▁خورد	-9.40384
رس	-9.40427
▁کانال	-9.40483
▁کارها	-9.40499
▁سرد	-9.40562
▁بردن	-9.40582
▁برنده	-9.4065
▁دریایی	-9.40677
▁قرمز	-9.40744
▁فوتبال	-9.40745
▁ارتباطات	-9.4081
ch	-9.40857
▁سوخت	-9.41006
▁الهی	-9.41497
▁جزئیات	-9.41524
▁آزمون	-9.41636
▁بیت	-9.41685
▁اجتناب	-9.41784
▁معروف	-9.41784
▁ـ	-9.41918
▁درس	-9.41923
es	-9.41952
سو	-9.42027
▁نامیده	-9.4209
▁بطور	-9.42248
▁پل	-9.42391
▁آگاه	-9.4243
▁پایدار	-9.42617
▁محتوا	-9.42622
▁دشمن	-9.42627
▁تشویق	-9.42684
▁تحصیل	-9.427
▁پنهان	-9.42835
.[	-9.42869
▁بدان	-9.42944
▁شمار	-9.4305
▁تفکر	-9.43145
▁سرزمین	-9.43147
▁۳۰	-9.4315
▁بروید	-9.43224
▁بودیم	-9.43375
▁تاکنون	-9.43441
▁ویروس	-9.43453
▁اتفاقی	-9.43468
▁رهبر	-9.43479
▁اطلاع	-9.43494
▁ری	-9.4354
0	-9.43561
▁تجهیزات	-9.43604
▁یافتن	-9.43662
▁جنبه	-9.43786
▁عادت	-9.44053
▁توجهی	-9.44093
ظ	-9.44191
▁خشک	-9.44207
▁شهروندان	-9.44264
▁گروهی	-9.44328
▁ماهی	-9.44393
▁گذشت	-9.44415
▁شانس	-9.44545
▁ار	-9.44704
▁کلید	-9.44729
▁چپ	-9.44763
▁وظیفه	-9.44817
▁فراتر	-9.44885
▁تعدادی	-9.44963
▁یه	-9.45172
▁راهی	-9.4522
▁میلادی	-9.45285
▁s	-9.4534
▁نیمه	-9.454
▁دهندگان	-9.45428
▁ثانیه	-9.45434
▁ریسک	-9.45455
▁پیروزی	-9.45493
▁روزی	-9.45601
▁جنبش	-9.45616
▁۱۵	-9.45722
▁پاکستان	-9.4575
▁امتحان	-9.45812
▁پرسش	-9.45858
▁ایرانی	-9.45921
اتی	-9.45933
▁سعودی	-9.45968
▁نوعی	-9.45995
▁نیم	-9.46008
▁باغ	-9.46035
▁13	-9.46103
▁ص	-9.46111
▁سا	-9.46136
▁خیر	-9.46161
▁بهداشت	-9.46166
▁انگیزه	-9.46175
▁انجمن	-9.46212
▁متمرکز	-9.46213
▁بتوانید	-9.46249
▁جایگاه	-9.46278
▁همسر	-9.46343
▁متر	-9.46357
▁امسال	-9.4641
▁اضافی	-9.46525
▁رویکرد	-9.4655
فی	-9.46551
هر	-9.46612
▁بیدار	-9.46627
▁مسئول	-9.46635
▁دیوار	-9.46656
▁نیویورک	-9.46686
▁غ	-9.46752
▁رها	-9.46797
▁تغذیه	-9.46839
▁حضرت	-9.46839
▁اعتبار	-9.46857
▁مقابله	-9.46877
▁نظریه	-9.46996
▁مداوم	-9.47153
▁پخش	-9.47153
▁افتاده	-9.47165
▁موقع	-9.47288
سا	-9.4729
▁مع	-9.47303
▁واضح	-9.47311
▁بگویید	-9.47311
▁قبلا	-9.47312
▁سابق	-9.47515
▁لینک	-9.4753
▁آهن	-9.47591
▁درگیر	-9.47594
▁برچسب	-9.47651
th	-9.47758
▁تاکید	-9.47788
▁دیدار	-9.47887
▁چهره	-9.47953
▁بیشترین	-9.47981
▁هواپیما	-9.48077
▁کردید	-9.48161
▁برادر	-9.48214
▁عدد	-9.48264
سازی	-9.48337
▁طوری	-9.48345
▁همانند	-9.48477
▁بدهد	-9.48478
▁ضعیف	-9.48481
is	-9.48497
▁فرو	-9.48509
am	-9.48532
▁عهده	-9.48555
▁سختی	-9.48717
فا	-9.48738
وف	-9.48764
▁طلا	-9.48864
▁نماز	-9.48929
▁چربی	-9.48957
او	-9.49063
▁خودرو	-9.49071
▁شماست	-9.49307
اگر	-9.49448
▁آموز	-9.49493
▁سری	-9.4952
پر	-9.49652
▁شغلی	-9.49671
▁تنهایی	-9.49691
▁سپتامبر	-9.49707
▁چیزهای	-9.49852
▁فنی	-9.49887
▁برخوردار	-9.49911
▁خریداری	-9.49938
▁گر	-9.4996
▁عملی	-9.50018
▁صحیح	-9.50031
ين	-9.50068
▁مالیات	-9.50195
▁پذیرش	-9.50267
▁توزیع	-9.50356
تن	-9.50499
بل	-9.50557
▁اختصاص	-9.50575
▁مراحل	-9.50688
▁بخوانید	-9.50691
▁قلبی	-9.50761
▁کشد	-9.50772
▁فرایند	-9.50779
▁پروتئین	-9.50845
▁افسردگی	-9.50846
یز	-9.50967
▁روزهای	-9.51021
▁بروز	-9.51102
▁دقیقا	-9.5121
سر	-9.51284
▁آثار	-9.51337
▁سنگین	-9.51338
▁بگویم	-9.51367
▁غذاهای	-9.51473
▁Re	-9.51487
▁سیاره	-9.51511
اش	-9.51519
▁درستی	-9.51536
▁معمولی	-9.51544
▁انگلستان	-9.51832
▁گفتن	-9.51859
▁فارغ	-9.51998
▁حافظه	-9.52034
▁اختلال	-9.52219
▁عجیب	-9.52231
▁متخصص	-9.52234
▁حداکثر	-9.52328
▁استخدام	-9.5233
▁کنفرانس	-9.52331
▁افکار	-9.5235
▁جستجوی	-9.52371
▁همزمان	-9.52411
▁پذیری	-9.52426
▁جذاب	-9.52462
ینگ	-9.52477
▁ست	-9.52525
▁بارداری	-9.52558
▁برده	-9.52626
▁ایتالیا	-9.52641
▁پرورش	-9.52828
مو	-9.52842
▁مى	-9.52912
ad	-9.5304
▁افزود	-9.53115
▁گرفتند	-9.5323
▁۱۲	-9.53288
li	-9.53314
▁دهان	-9.53322
▁حاوی	-9.53332
▁بوک	-9.53464
▁محسوب	-9.53497
▁خوشحال	-9.53536
▁بهتری	-9.5355
▁بدین	-9.53607
▁آور	-9.53645
la	-9.53652
▁بیمه	-9.53769
▁ارزان	-9.53868
▁فر	-9.539
▁مس	-9.54141
▁مجوز	-9.54177
▁سیگار	-9.54186
▁هشت	-9.54267
▁داروهای	-9.54355
▁اصلا	-9.54428
▁اظهار	-9.54563
▁p	-9.54658
▁تهران	-9.54682
▁دعا	-9.54692
▁زود	-9.54827
▁صادر	-9.54901
▁موزه	-9.54945
▁میوه	-9.55061
▁بند	-9.55076
▁نشست	-9.55111
▁تجزیه	-9.5519
▁مذاکره	-9.5519
▁قتل	-9.55197
یست	-9.55222
▁جاده	-9.55272
▁آورند	-9.55273
▁چی	-9.55284
▁بدتر	-9.55292
▁یکسان	-9.55386
▁شورای	-9.55562
رز	-9.55574
▁25	-9.55706
▁هرچند	-9.55744
▁16	-9.55824
▁مفهوم	-9.55849
▁مساله	-9.55882
▁آ	-9.55955
▁مانع	-9.55982
▁نقشه	-9.56007
▁چهارم	-9.56056
یو	-9.56061
ئو	-9.56215
▁سنت	-9.56537
▁هایشان	-9.56552
ران	-9.56561
▁برداری	-9.56714
▁اف	-9.56929
▁کلیک	-9.56955
کت	-9.56958
▁شوم	-9.57105
▁معامله	-9.57261
▁بخواهید	-9.57261
▁آمار	-9.57291
▁اپل	-9.57316
ma	-9.57386
▁شناسی	-9.575
اع	-9.57595
▁مبتنی	-9.57611
▁لندن	-9.57613
▁اون	-9.57687
▁ساختن	-9.57688
▁موضوعات	-9.57911
▁خلاصه	-9.58043
▁نمایند	-9.58065
▁افتخار	-9.58137
▁رانندگی	-9.58138
▁زودی	-9.58198
ation	-9.58211
▁تکمیل	-9.58231
▁کشید	-9.58243
▁موشک	-9.5827
▁نفوذ	-9.5832
▁نمایید	-9.5835
▁مهندسی	-9.58473
▁گذاشت	-9.58652
▁تمیز	-9.58672
▁شناخت	-9.5868
▁تعامل	-9.58752
▁هاست	-9.58766
مت	-9.58768
▁فهرست	-9.58843
▁جشن	-9.58848
جی	-9.58871
▁اثرات	-9.58916
▁واشنگتن	-9.59198
▁ببرید	-9.59212
▁صبر	-9.5941
▁ریشه	-9.5942
یسم	-9.5957
▁کارهایی	-9.59614
▁بازیکنان	-9.59767
▁موسسه	-9.59767
▁نوشت	-9.60021
▁مشهور	-9.60091
▁خویش	-9.60094
▁سخنرانی	-9.60204
▁مذاکرات	-9.6027
▁براساس	-9.6027
▁تحمل	-9.60271
▁کمبود	-9.60283
▁بهداشتی	-9.60306
▁کارشناسی	-9.6033
▁چنان	-9.60441
▁بالقوه	-9.6045
▁عدالت	-9.6045
▁[...]	-9.6045
▁ندارید	-9.60467
▁پایگاه	-9.60469
▁گناه	-9.60561
▁سقوط	-9.60811
▁گوشت	-9.60827
as	-9.60844
سال	-9.60935
دن	-9.60952
▁فضایی	-9.60972
شی	-9.61018
▁هویت	-9.61022
ia	-9.61075
▁نبوده	-9.61246
سل	-9.61349
وری	-9.61355
▁خانگی	-9.61361
▁17	-9.61459
▁برتر	-9.61465
آن	-9.61493
▁زند	-9.615
ro	-9.616
قا	-9.61609
▁پیامبر	-9.6165
▁نیمی	-9.61749
▁تابستان	-9.61769
▁,	-9.61864
▁کوه	-9.61891
x	-9.61967
▁پزشکان	-9.62013
▁14	-9.62032
▁برمی	-9.62042
▁وابسته	-9.62084
زن	-9.62153
▁مطالب	-9.62158
▁قطع	-9.62274
▁۱۸	-9.62277
▁پیوند	-9.62295
▁کشاورزی	-9.62348
▁رستوران	-9.6245
▁برجسته	-9.62452
▁مارس	-9.62479
▁صاحب	-9.62492
▁جی	-9.62566
▁آهنگ	-9.62594
اط	-9.62612
▁روان	-9.62709
▁مشاوره	-9.62781
▁شواهد	-9.62818
▁سوالات	-9.62873
▁اخلاقی	-9.6299
▁موبایل	-9.63003
▁دستیابی	-9.63041
▁درخت	-9.63077
▁کارخانه	-9.63162
▁سنتی	-9.63177
▁سالانه	-9.63209
▁همچون	-9.6323
▁جرم	-9.63446
▁بازسازی	-9.63619
▁X	-9.63754
▁40	-9.63789
▁فی	-9.63929
▁ندارم	-9.63932
▁حجم	-9.64049
▁کا	-9.64319
▁مذهبی	-9.64391
▁کارمندان	-9.64462
▁ماست	-9.64527
▁بس	-9.64613
▁اکتبر	-9.64682
▁حیات	-9.64717
▁تأیید	-9.64867
▁بازداشت	-9.65065
▁بارها	-9.65133
▁بهشت	-9.65198
’	-9.65244
▁رضایت	-9.65258
▁احتمالاً	-9.65308
مین	-9.65309
▁خاورمیانه	-9.65433
▁صفحات	-9.65433
▁مراسم	-9.65445
یدن	-9.65451
▁نابود	-9.65463
▁جنگل	-9.65468
▁ارز	-9.65523
▁محمد	-9.65635
فت	-9.65773
10	-9.65783
▁معماری	-9.65923
il	-9.65944
▁معنا	-9.66142
▁نموده	-9.66164
▁عناصر	-9.66192
▁استقلال	-9.66193
▁رساند	-9.66373
بو	-9.66508
▁عیسی	-9.66576
▁کمتری	-9.66577
un	-9.66604
▁جاری	-9.66883
▁نزد	-9.66916
▁مدارس	-9.67006
▁میکنند	-9.67049
▁آدرس	-9.67152
▁ط	-9.67168
▁گشت	-9.67201
!»	-9.67289
پس	-9.67307
▁بو	-9.6732
▁بلافاصله	-9.67343
▁معتقد	-9.67483
▁گذار	-9.67556
▁سهم	-9.67616
▁هوش	-9.67717
▁پردازش	-9.67729
ئ	-9.68043
▁مسلمان	-9.68259
قی	-9.68372
▁بش	-9.68476
▁روبرو	-9.68507
▁اولویت	-9.68516
▁فرانسوی	-9.68702
▁مصنوعی	-9.68702
▁قالب	-9.68703
▁آژانس	-9.68898
▁۵۰	-9.68923
▁سادگی	-9.69098
▁حکم	-9.69123
▁گذاران	-9.69133
رت	-9.69221
▁نیازی	-9.69262
▁مجلس	-9.69292
▁آلمانی	-9.6931
▁سلام	-9.69413
▁دسامبر	-9.69487
▁معتبر	-9.69487
▁عصر	-9.69487
▁ایالت	-9.69566
▁عرض	-9.69612
▁شهرهای	-9.69643
▁قطعا	-9.6979
▁پرونده	-9.69898
▁نزدیکی	-9.69995
▁سطوح	-9.7008
▁مرغ	-9.70092
▁کتابخانه	-9.70118
۰۰۰	-9.70168
▁دریا	-9.70191
▁انگلیس	-9.70245
▁نقاشی	-9.70252
▁ژانویه	-9.70279
▁متخصصان	-9.70291
▁۱۰۰	-9.70333
▁بازیکن	-9.70361
▁منزل	-9.70402
بان	-9.70416
▁چای	-9.70444
▁آبی	-9.70462
▁تحصیلی	-9.70751
▁جوانان	-9.70906
▁ابزارهای	-9.71009
▁باشگاه	-9.7108
▁ایستگاه	-9.71082
▁تب	-9.71214
▁پرو	-9.71276
▁مقدس	-9.71277
▁عمده	-9.71361
▁دادم	-9.71466
▁شریک	-9.71536
تیک	-9.71572
وب	-9.71589
برای	-9.7159
▁پاریس	-9.71687
▁کارگر	-9.71738
▁دارایی	-9.71788
▁شنیده	-9.71808
▁محکوم	-9.71844
▁صدها	-9.7188
▁2015	-9.71887
'	-9.71928
▁گویم	-9.72002
▁مسابقه	-9.72082
▁ترافیک	-9.72082
▁اواخر	-9.72083
▁مجله	-9.72089
▁سبب	-9.72285
▁وسایل	-9.72286
▁مرز	-9.72315
▁نداریم	-9.72333
▁شرقی	-9.72394
کش	-9.72402
▁24	-9.72427
▁نوامبر	-9.72691
▁نمایشگاه	-9.72744
الی	-9.72746
▁طیف	-9.7275
▁دیابت	-9.72895
▁بزنید	-9.7291
▁شنبه	-9.72914
▁دومین	-9.72927
▁آرامش	-9.73036
▁صادرات	-9.73037
وک	-9.73053
▁پنجره	-9.73131
▁امضا	-9.73234
▁جلو	-9.73276
▁ثروت	-9.73298
▁نظیر	-9.73303
▁مراجعه	-9.73355
▁برگشت	-9.73433
▁مر	-9.73472
▁مدرک	-9.73514
▁سرور	-9.73596
زا	-9.73641
▁اسپانیا	-9.73694
▁دختران	-9.73713
▁ژوئن	-9.73714
▁منظم	-9.73714
▁سریال	-9.73802
گار	-9.7382
▁60	-9.73878
▁خسته	-9.73924
▁مجدد	-9.74002
▁اجرایی	-9.74005
▁اثبات	-9.74125
ة	-9.74332
▁خالی	-9.74356
▁الکترونیکی	-9.74363
▁مخالف	-9.74418
▁اتصال	-9.74448
▁چک	-9.74539
▁پاداش	-9.74539
▁نبرد	-9.74766
▁مجموع	-9.74775
▁دانست	-9.74793
▁بیست	-9.74922
▁ظرفیت	-9.7498
▁کارگردان	-9.75097
▁مدتی	-9.75107
▁فردا	-9.75124
▁دیدم	-9.75142
▁مجازات	-9.75245
وان	-9.75305
▁ثبات	-9.75372
ot	-9.75539
▁مکمل	-9.75586
▁نویسی	-9.75648
▁امیدوار	-9.7567
▁بال	-9.75675
▁the	-9.75735
▁نوزاد	-9.75759
▁حتما	-9.75801
▁دیر	-9.75805
▁غنی	-9.75818
▁یك	-9.75834
▁ابر	-9.75836
▁آفریقا	-9.75845
تری	-9.7592
▁جلب	-9.76003
▁خورده	-9.76025
▁تحقیقاتی	-9.76051
▁اصطلاح	-9.76101
▁متعلق	-9.76211
om	-9.76261
▁مق	-9.76275
▁بیانیه	-9.76276
▁فا	-9.76298
▁هرگونه	-9.76343
▁نادیده	-9.76422
te	-9.76483
ستر	-9.76594
▁عصبی	-9.76624
▁دموکراسی	-9.76633
▁ابتلا	-9.76633
▁واژه	-9.76849
▁کمپانی	-9.76853
▁Google	-9.76855
اه	-9.7692
▁سابقه	-9.76995
▁شیطان	-9.77057
▁فرودگاه	-9.77065
جر	-9.77076
▁سؤال	-9.77092
▁امتیاز	-9.77136
▁تعجب	-9.7727
▁متولد	-9.7727
▁سهام	-9.77323
▁تور	-9.7749
▁امیدوارم	-9.77543
▁هی	-9.77584
▁کور	-9.7759
▁تصویب	-9.77697
▁ارزشمند	-9.77722
▁هوای	-9.77734
▁نهاد	-9.77819
▁بافت	-9.77826
مر	-9.77915
id	-9.77921
▁انگار	-9.77931
▁هنری	-9.77935
گیری	-9.77977
▁موقت	-9.78
▁رویداد	-9.78048
گرد	-9.78109
▁صنایع	-9.78126
▁فرمود	-9.78188
دل	-9.78217
▁تعهد	-9.78235
▁and	-9.78246
sh	-9.78322
▁وظایف	-9.78341
شت	-9.78489
▁اوباما	-9.78557
▁مبلغ	-9.78558
▁خواستار	-9.7864
▁خلاف	-9.78652
▁فیس	-9.78672
▁تکامل	-9.78772
▁معلم	-9.78845
▁خروج	-9.79103
▁برداشت	-9.79188
▁ورزشی	-9.79204
▁کاربردی	-9.79273
▁قول	-9.79283
گیر	-9.79342
▁کمیته	-9.79447
▁تماشا	-9.795
▁عظیم	-9.79512
▁مسلمانان	-9.79618
٫	-9.79647
▁آزار	-9.7967
▁کان	-9.79767
▁دانشکده	-9.79859
▁تی	-9.80022
▁سوء	-9.80085
▁تردید	-9.80364
ارت	-9.80432
▁c	-9.80478
▁غذای	-9.80565
ss	-9.80639
▁بل	-9.80706
▁تحویل	-9.80738
▁گیر	-9.80813
▁۱۳	-9.80872
▁مراکز	-9.80958
▁ریاست	-9.80974
▁استراتژیک	-9.81004
▁زا	-9.81166
▁بمب	-9.81185
▁2017	-9.81186
▁بدی	-9.81196
▁لطفا	-9.8124
▁اختلاف	-9.81298
▁شرق	-9.81348
▁اعدام	-9.81401
▁باتری	-9.81474
▁گردید	-9.81475
▁ورودی	-9.81593
روز	-9.81622
▁مهمترین	-9.81647
▁بگوید	-9.81667
چی	-9.81747
▁پادشاه	-9.81758
▁روانی	-9.81843
▁نوشیدنی	-9.81866
▁مسیح	-9.82178
▁تأمین	-9.82295
▁گفتگو	-9.82395
▁نگاهی	-9.82396
▁آم	-9.8242
اح	-9.82473
نامه	-9.82492
▁کفش	-9.82538
▁پیشین	-9.82586
▁وضع	-9.82708
▁مثلا	-9.82718
▁منطقی	-9.82732
▁نشود	-9.82771
▁بینید	-9.82783
▁شاد	-9.82802
▁تعادل	-9.82967
▁ناحیه	-9.82967
▁رقم	-9.82968
▁کشیدن	-9.8302
▁سیم	-9.83089
▁مردی	-9.83099
▁ممنوع	-9.8316
▁جامع	-9.83219
▁هستی	-9.83367
▁چندان	-9.83371
▁خارجه	-9.83397
▁طلب	-9.834
▁مارک	-9.83565
▁زمستان	-9.83647
▁قربانی	-9.83676
▁کارشناسان	-9.83733
داری	-9.8387
▁کاغذ	-9.83873
▁بماند	-9.83874
▁تحریک	-9.83874
▁خانوادگی	-9.83875
▁دائمی	-9.84003
▁برود	-9.84055
▁شاه	-9.84076
▁خواند	-9.84095
وپ	-9.84119
▁کمپین	-9.84147
▁بالایی	-9.84212
▁ترکیبی	-9.84292
▁اخبار	-9.84332
▁نوآوری	-9.84558
أ	-9.84616
▁خوانده	-9.84641
▁صندلی	-9.84787
▁2018	-9.84795
▁طالبان	-9.84798
▁رایج	-9.84947
▁فیلتر	-9.85039
▁مشکلی	-9.85075
▁رسانی	-9.85086
▁عربی	-9.85153
▁محیطی	-9.85182
▁استراحت	-9.85248
▁خدای	-9.85249
▁کاخ	-9.85285
lo	-9.85395
▁نکرد	-9.854
يت	-9.85472
▁عوارض	-9.85479
▁صرفه	-9.85534
▁تاسیس	-9.85664
▁میز	-9.85686
▁ظهور	-9.8571
▁آیه	-9.85761
com	-9.85848
بری	-9.85885
▁متهم	-9.85909
▁خواهر	-9.86011
▁چیزها	-9.8611
ْ	-9.86153
▁هو	-9.86159
دم	-9.8617
▁چرخه	-9.8617
▁فدرال	-9.86175
▁حساس	-9.86187
▁انعطاف	-9.86408
▁ك	-9.86472
00	-9.865
▁الکل	-9.86539
ate	-9.8657
▁0	-9.8657
▁بزرگسالان	-9.86742
▁ژن	-9.86909
▁خواستم	-9.86922
▁یخ	-9.87048
▁باد	-9.87134
▁خراب	-9.87135
▁لایه	-9.87156
▁تعطیلات	-9.87168
▁ثروتمند	-9.87199
▁مجاز	-9.87231
▁کشیده	-9.87255
op	-9.8742
▁موج	-9.8751
".	-9.87523
▁اتحاد	-9.8756
▁ارتباطی	-9.87573
▁لبخند	-9.87582
▁ویندوز	-9.87582
▁ماندن	-9.87695
▁مراقب	-9.87891
▁حادثه	-9.88055
▁معادل	-9.88064
▁انقلابی	-9.88071
ter	-9.88092
▁انتقاد	-9.881
ex	-9.8816
▁کوین	-9.88252
▁مح	-9.88293
▁شرط	-9.88319
▁امکانات	-9.88398
▁جانبی	-9.88407
▁کودکی	-9.88475
▁باکتری	-9.88531
سف	-9.88559
▁مقررات	-9.88563
▁فرمان	-9.88665
▁آسیا	-9.88756
▁ضمن	-9.88769
▁رییس	-9.88791
▁بگیریم	-9.88794
50	-9.88914
▁متفاوتی	-9.88955
▁نماد	-9.8917
▁ویدئو	-9.89231
▁نقض	-9.89248
de	-9.89296
بد	-9.89356
▁یو	-9.894
▁شکر	-9.89451
انگ	-9.89483
▁اقیانوس	-9.89489
▁Z	-9.89547
▁داشتیم	-9.89557
▁الهام	-9.89732
▁هدیه	-9.89733
▁میتواند	-9.89779
▁راضی	-9.89822
▁f	-9.89874
▁بایست	-9.89934
▁پیر	-9.90014
بند	-9.90027
▁تخم	-9.90067
▁گری	-9.90116
وه	-9.9012
▁ات	-9.90298
▁هایش	-9.90429
▁خواهان	-9.90442
٬	-9.90454
▁داعش	-9.90456
▁In	-9.90536
▁مطابق	-9.9057
شو	-9.90791
»،	-9.90867
▁مه	-9.90899
▁مرتب	-9.90905
▁خطوط	-9.90951
▁وجه	-9.91011
رف	-9.91046
▁کاربری	-9.91095
ly	-9.91185
▁سرانجام	-9.91194
▁شوروی	-9.91203
▁تروریستی	-9.91272
▁نظرات	-9.91371
▁حقوقی	-9.91401
▁مخفی	-9.91409
▁راهنمایی	-9.91426
▁معاملات	-9.91433
رن	-9.91441
تز	-9.91576
im	-9.91652
▁ضعف	-9.91679
▁شاخص	-9.91683
▁بیا	-9.91732
ut	-9.91753
▁اضطراب	-9.91925
▁گرچه	-9.91939
▁روزه	-9.92038
v	-9.92054
co	-9.92116
ne	-9.92134
▁یورو	-9.92244
▁سیگنال	-9.92419
▁کنگره	-9.92424
▁2016	-9.92427
ion	-9.92428
▁برگزاری	-9.92536
▁پذیرفته	-9.92558
▁كند	-9.92622
▁نفع	-9.92667
▁بگذارد	-9.92696
▁آمدن	-9.92699
تل	-9.92819
▁پیمان	-9.9282
▁نیستم	-9.92879
▁تشکر	-9.9296
▁استخوان	-9.92984
ent	-9.93069
▁وکار	-9.93133
▁احتمالی	-9.93135
▁رفع	-9.93181
▁کشوری	-9.93241
▁مدار	-9.93288
▁حسین	-9.93312
▁نماینده	-9.93312
▁کالج	-9.93434
▁خورشیدی	-9.93443
▁اندکی	-9.93461
▁m	-9.93653
▁قضاوت	-9.93669
▁ماموریت	-9.93675
▁نمایندگان	-9.93691
ho	-9.93699
▁شا	-9.93707
ta	-9.93775
▁گربه	-9.93966
▁مال	-9.94169
▁محاسبه	-9.94169
گری	-9.9417
▁in	-9.94296
▁عکاسی	-9.94337
▁صادق	-9.94393
▁آیت	-9.94409
▁اخیرا	-9.94439
▁فوری	-9.94551
▁معتقدند	-9.94559
▁90	-9.94725
▁سینما	-9.94774
▁سفارش	-9.94784
روی	-9.94785
ائی	-9.94858
▁چرخ	-9.94928
▁تازگی	-9.94929
▁ناپذیر	-9.94968
▁فهم	-9.95016
کان	-9.95084
▁زنی	-9.95172
کاری	-9.95181
▁مقیاس	-9.95184
▁مخدر	-9.95203
all	-9.9529
▁گمان	-9.95332
▁وقوع	-9.95438
▁جداگانه	-9.95438
▁مج	-9.95554
▁ظرف	-9.95662
▁سرنوشت	-9.95694
▁فلسفه	-9.95694
ce	-9.95796
▁شرایطی	-9.95814
▁برج	-9.95827
▁نیستید	-9.95858
▁تفسیر	-9.95951
▁روم	-9.95994
▁وام	-9.96015
۰۰	-9.96154
▁بازیگر	-9.96169
▁هرچه	-9.96172
▁آنقدر	-9.96204
▁اختراع	-9.96208
▁تئوری	-9.96208
سم	-9.96217
▁پیروی	-9.96251
▁خبری	-9.96257
ry	-9.96385
▁علامت	-9.96465
▁دمای	-9.96479
▁کوچکی	-9.96506
▁چشمان	-9.96556
▁کیلومتر	-9.96603
▁آزمایشگاه	-9.96662
▁خودکار	-9.96678
▁اتومبیل	-9.96724
▁مقالات	-9.96724
▁زوج	-9.96801
ir	-9.96803
▁دامنه	-9.96924
▁اپلیکیشن	-9.96983
▁پارلمان	-9.96983
▁دستگیر	-9.97177
▁مؤثر	-9.97243
▁زنند	-9.97313
▁اکثریت	-9.97372
گا	-9.97421
▁ویدیو	-9.97502
▁کاش	-9.97525
▁۱۱	-9.97711
▁مهر	-9.97714
▁تنوع	-9.97769
▁اشکال	-9.97833
▁جلوی	-9.97858
▁اعتراض	-9.97938
دون	-9.97981
▁۱۴	-9.98079
ستان	-9.9808
▁روزها	-9.9812
▁شادی	-9.98236
▁اوکراین	-9.98288
▁بدهی	-9.98371
▁مهمان	-9.98463
سه	-9.98485
▁استعداد	-9.98554
▁مرده	-9.986
▁موهای	-9.98758
▁ذهنی	-9.98808
▁لغو	-9.98815
▁آلودگی	-9.98818
نج	-9.98828
▁معلوم	-9.9908
▁مش	-9.99103
▁مجازی	-9.99129
ig	-9.99145
▁انگشت	-9.99208
▁كار	-9.99208
▁تخصص	-9.99258
▁Ma	-9.99261
▁پدرش	-9.99338
▁جلسات	-9.99345
▁متنوع	-9.99349
لت	-9.99376
um	-9.99387
▁a	-9.99397
▁مشاور	-9.99505
▁تزریق	-9.99611
▁بالاخره	-9.99611
me	-9.99676
▁مناسبی	-9.9972
▁یابند	-9.99742
▁گم	-9.99761
▁نویسندگان	-9.99884
▁گویی	-9.99907
▁محور	-9.9991
▁بیاید	-10
يم	-10.0008
▁بیایید	-10.0015
▁شکایت	-10.0015
▁نی	-10.0018
▁دادیم	-10.0018
▁زودتر	-10.0023
▁سازنده	-10.0024
▁موجودات	-10.0035
شد	-10.0057
▁باردار	-10.0067
▁دهی	-10.0069
▁سرکوب	-10.007
▁سرخ	-10.0072
جه	-10.0075
▁بینیم	-10.0077
▁شی	-10.0081
▁خواهی	-10.0087
▁نقد	-10.0089
▁ساحل	-10.0089
▁ذ	-10.0091
▁تأکید	-10.0095
▁رعایت	-10.0095
▁متعهد	-10.0095
▁شرح	-10.0102
▁مربی	-10.0107
▁یادآوری	-10.0109
▁سان	-10.0113
▁پوش	-10.0117
▁محدوده	-10.012
▁احتیاج	-10.0122
▁نخواهند	-10.0122
عنوان	-10.0134
▁بیند	-10.0136
▁آفتاب	-10.0149
خت	-10.015
▁بخواهد	-10.0151
▁میدهد	-10.0154
▁باران	-10.0155
▁اوست	-10.0156
▁بدهند	-10.0157
▁فل	-10.0162
▁تبلیغاتی	-10.0165
▁رایانه	-10.0167
▁اسناد	-10.0176
ul	-10.0177
ow	-10.0186
▁۴۰	-10.0191
ء	-10.0195
▁راجع	-10.0204
▁2014	-10.0204
▁ناراحت	-10.0205
▁کیف	-10.0208
▁مستند	-10.0212
▁کاربرد	-10.0229
▁جوامع	-10.0231
▁کنونی	-10.0231
▁جنگی	-10.0231
▁ایمن	-10.024
▁اسید	-10.025
▁راستا	-10.0251
ell	-10.0252
IS	-10.0272
▁تحصیلات	-10.0273
▁+	-10.0274
20	-10.0275
▁قطار	-10.0286
▁لبنان	-10.0286
▁طرز	-10.0287
▁توپ	-10.0288
▁اینترنتی	-10.03
▁بدانند	-10.0306
▁یهودی	-10.0312
▁همگی	-10.0314
▁حلقه	-10.0316
▁گی	-10.0319
▁میل	-10.0321
▁سینه	-10.0321
▁الکتریکی	-10.0323
▁تماشای	-10.0331
▁پولی	-10.0332
▁ببینند	-10.0345
▁مرور	-10.0348
▁اتفاقات	-10.0349
+	-10.0353
▁مب	-10.0359
▁بهینه	-10.0364
▁سوئد	-10.0369
▁ماهواره	-10.0371
▁فقر	-10.0371
سن	-10.0375
▁قطعه	-10.0382
▁استانداردهای	-10.0385
▁گذر	-10.0388
رون	-10.0393
▁تجدید	-10.0396
▁ندهید	-10.0397
▁اسب	-10.0398
▁بکار	-10.0403
▁کلام	-10.0411
▁گرا	-10.0412
▁نوشیدن	-10.0417
ایش	-10.0417
▁درگیری	-10.0418
شن	-10.0419
▁همکاران	-10.0424
▁كرد	-10.0438
▁ضربه	-10.0443
▁بانکی	-10.0453
▁آنتی	-10.0455
man	-10.0462
▁حین	-10.0473
▁حیاتی	-10.0475
لین	-10.0477
ay	-10.0478
▁اتخاذ	-10.048
▁تحقق	-10.048
▁جعبه	-10.048
▁برزیل	-10.0481
خانه	-10.0495
▁فرصتی	-10.0499
▁بپرسید	-10.0508
▁صندوق	-10.0508
▁#	-10.0512
▁عموم	-10.0516
▁فوت	-10.0527
▁b	-10.0536
▁متاسفانه	-10.0537
▁روزمره	-10.0537
▁اشتباهات	-10.0538
▁سند	-10.0541
and	-10.0547
▁زنجیره	-10.0561
▁توانستند	-10.0564
▁عنصر	-10.0565
▁استدلال	-10.0565
▁بدترین	-10.0588
وش	-10.0588
▁رحم	-10.0588
گران	-10.0597
▁ببرد	-10.0601
▁مار	-10.0612
۰	-10.0617
▁ندرت	-10.0622
▁سوار	-10.0645
▁عالم	-10.065
▁تروریسم	-10.065
▁زندانی	-10.0651
▁رودخانه	-10.0652
رب	-10.0653
▁وسط	-10.0667
شون	-10.067
▁شعر	-10.0679
▁غیره	-10.0686
▁ببینیم	-10.071
▁سکوت	-10.0711
▁آلوده	-10.0712
▁ببیند	-10.0712
▁کنون	-10.0721
▁آوریل	-10.0727
▁کمیسیون	-10.0737
▁ابراز	-10.0739
▁مخاطبان	-10.075
▁جمعه	-10.075
▁توانستم	-10.0751
▁تبلیغ	-10.0758
ill	-10.0759
▁وبسایت	-10.0765
▁گرفتم	-10.0765
▁بینند	-10.077
▁هنرمند	-10.0773
to	-10.0776
▁پیشگیری	-10.0777
se	-10.0787
▁تصمیمات	-10.079
▁اراده	-10.0794
▁مالکیت	-10.0797
بخش	-10.0802
▁Y	-10.0808
▁نشسته	-10.0823
▁مخصوص	-10.0823
زه	-10.0825
▁تقاضا	-10.0826
▁هلند	-10.0833
حال	-10.0837
▁قند	-10.0844
▁ضبط	-10.0852
▁جشنواره	-10.0852
ونی	-10.0852
▁استان	-10.0858
▁Pro	-10.0866
▁سربازان	-10.0872
ub	-10.0877
▁دستورالعمل	-10.0881
▁فقیر	-10.0881
▁اشغال	-10.0882
▁۲۵	-10.0883
▁فوریه	-10.0884
▁هورمون	-10.0886
▁سرباز	-10.0887
گل	-10.0888
▁فرق	-10.0892
▁21	-10.0893
▁پرس	-10.0899
▁پایتخت	-10.091
▁خشم	-10.091
▁شدیم	-10.0917
ندگان	-10.0929
est	-10.0932
زد	-10.0939
▁لوله	-10.0942
Y	-10.0954
افت	-10.0955
▁گیاه	-10.0956
ge	-10.0957
▁رمان	-10.0969
▁جنایت	-10.0969
▁لمس	-10.0969
▁De	-10.0971
▁آمدند	-10.0972
ie	-10.0973
▁سایه	-10.0985
▁یهودیان	-10.0989
▁گذارند	-10.0992
▁حاکم	-10.0995
▁کمونیست	-10.0998
▁مکزیک	-10.0998
▁درمورد	-10.0999
▁روحانی	-10.1004
▁برقراری	-10.1004
▁کارمند	-10.1006
داد	-10.1012
▁دا	-10.1018
▁گردن	-10.1023
▁آورید	-10.1025
▁توده	-10.1029
▁خنده	-10.1033
▁نکند	-10.1038
ته	-10.104
▁خودکشی	-10.1059
▁السلام	-10.1059
▁حسابداری	-10.1063
اما	-10.1065
▁دشمنان	-10.1069
▁پرسید	-10.1069
▁مسابقات	-10.1087
▁هیئت	-10.1087
▁توقف	-10.1087
▁کابل	-10.1089
▁بومی	-10.1092
▁سرگرم	-10.1095
▁تخمین	-10.1098
▁سیر	-10.1098
▁انفجار	-10.1117
▁شارژ	-10.1117
▁اجاره	-10.1117
▁ویزای	-10.1122
▁صفر	-10.1122
▁گذاشتن	-10.1129
▁محکم	-10.1148
▁مقصد	-10.1148
▁پیگیری	-10.115
مند	-10.1158
▁مور	-10.1159
▁بخشد	-10.1163
▁خو	-10.1172
▁سل	-10.1173
▁هاي	-10.1174
▁80	-10.1176
▁اتوبوس	-10.1177
▁حقیقی	-10.1177
▁کربن	-10.1178
طر	-10.1179
اء	-10.1181
▁راهنمای	-10.1191
J	-10.1192
▁شناختی	-10.1198
▁مالک	-10.1205
دست	-10.1212
▁نژاد	-10.1217
▁عرب	-10.1222
اور	-10.1233
▁سراغ	-10.1239
▁خطرات	-10.1242
▁گریه	-10.1244
▁رفتارهای	-10.1249
مال	-10.1262
▁ارتفاع	-10.1268
▁شکنجه	-10.1268
▁خاطرات	-10.1269
▁نیک	-10.1269
نظر	-10.1275
رم	-10.1293
▁تجاوز	-10.1298
▁مشاغل	-10.1298
▁گوناگون	-10.1298
▁راستی	-10.1307
صد	-10.1312
▁حالیکه	-10.1318
▁اوضاع	-10.1329
▁فلسطین	-10.1338
▁بگ	-10.1353
▁استخراج	-10.136
▁کپی	-10.1362
▁خواستند	-10.1363
▁روایت	-10.1364
شه	-10.1372
▁مهاجران	-10.1381
▁تقاضای	-10.1386
▁کالری	-10.1392
▁Ch	-10.14
mo	-10.1405
na	-10.1405
▁اتمی	-10.1412
▁دم	-10.1414
▁2012	-10.1422
▁آنجایی	-10.1423
▁تم	-10.1432
▁کلاسیک	-10.1434
▁كنند	-10.1438
▁گیاهان	-10.1441
▁توی	-10.1449
▁آمادگی	-10.1452
▁ماجرا	-10.1453
▁نباشید	-10.1455
تین	-10.1457
▁مسافرت	-10.1458
▁خام	-10.1459
▁تخت	-10.1462
▁مواردی	-10.1466
▁زرد	-10.148
▁بخاطر	-10.1483
▁برخلاف	-10.1483
زو	-10.1484
▁۱۶	-10.1489
▁شبه	-10.149
▁همدیگر	-10.149
▁راز	-10.1494
▁الی	-10.1498
▁یمن	-10.1505
▁نسبتا	-10.1507
12	-10.1509
▁زمینی	-10.1513
▁[+]	-10.1514
▁بگوییم	-10.1514
▁تنفس	-10.1514
▁دیگه	-10.1515
▁بازارهای	-10.1518
▁مادرش	-10.1525
▁شکلی	-10.1525
ers	-10.1531
▁ایفا	-10.1531
▁پدیده	-10.1532
▁قطعات	-10.1532
▁فریب	-10.1533
▁موضع	-10.1545
▁عقیده	-10.1545
▁بوی	-10.1555
▁Me	-10.1556
▁کارآمد	-10.1558
▁روس	-10.1565
▁جمعی	-10.1568
▁میزبان	-10.1572
پل	-10.1577
▁بکشد	-10.1583
ity	-10.1586
▁موافق	-10.1594
30	-10.1597
کننده	-10.16
-1	-10.16
▁درحالی	-10.1603
کند	-10.1603
▁قهرمان	-10.1607
▁پروردگار	-10.1607
der	-10.1609
▁اینگونه	-10.1615
▁موافقت	-10.1621
اپ	-10.1623
گرا	-10.1629
▁دکمه	-10.1639
▁نقص	-10.1639
▁مدنی	-10.1645
▁فهمید	-10.1646
▁خب	-10.1649
▁نوجوانان	-10.1654
▁نادر	-10.1654
art	-10.1655
▁درحال	-10.166
▁اسپ	-10.167
▁تخریب	-10.167
▁دوچرخه	-10.167
▁ضرورت	-10.167
▁مسکو	-10.1673
pe	-10.1681
ساز	-10.1685
▁جویی	-10.1696
▁شفاف	-10.1701
▁رقص	-10.1702
▁تنگ	-10.1704
▁تجربیات	-10.1706
▁کلیسا	-10.1719
نز	-10.1724
▁کوچکتر	-10.1726
▁گیرید	-10.1728
▁>	-10.1732
▁یونان	-10.1732
▁خلاقیت	-10.1737
▁نمای	-10.1741
▁رغم	-10.1741
▁آمریکای	-10.1743
▁کف	-10.1743
▁تخصصی	-10.1744
▁؛	-10.1747
▁رفتم	-10.1756
▁مخالفت	-10.176
▁هماهنگی	-10.1764
▁عقل	-10.1764
▁آلبوم	-10.1766
▁خاموش	-10.1766
▁بخورید	-10.1768
▁خرد	-10.1773
▁دلاری	-10.1774
_	-10.1782
▁شایع	-10.1783
▁میلی	-10.1785
▁روشی	-10.1788
▁شام	-10.1796
▁اشخاص	-10.1798
▁همسایه	-10.1798
▁تع	-10.1807
▁نکات	-10.1814
▁ژاپنی	-10.182
▁مشابهی	-10.1821
▁طعم	-10.183
▁غلط	-10.183
▁دموکراتیک	-10.1832
▁طلاق	-10.1836
▁Mo	-10.1838
▁همسرش	-10.1841
▁پنجم	-10.1842
▁اصلاحات	-10.1856
ab	-10.1861
▁ملک	-10.1862
▁دریاچه	-10.1863
▁باشه	-10.1866
lu	-10.1868
▁ربات	-10.187
▁وسیع	-10.1883
▁آرزو	-10.189
▁کلیه	-10.189
▁قرص	-10.1896
▁موسسات	-10.1896
▁بزند	-10.1908
Q	-10.1911
one	-10.1914
راه	-10.1919
▁فساد	-10.1926
▁دستمزد	-10.1927
▁مبنی	-10.1929
ph	-10.193
▁باستان	-10.1945
▁ناگهان	-10.1947
▁عاطفی	-10.1959
▁موتورهای	-10.1962
لر	-10.1968
▁تصویری	-10.1968
▁طرفداران	-10.1973
▁سیب	-10.1979
▁تروریست	-10.1982
▁نداشتند	-10.1987
▁حوادث	-10.1992
▁وضوح	-10.1992
خر	-10.1994
▁مرزهای	-10.2
▁انکار	-10.2001
▁کلاه	-10.2012
▁احساسی	-10.2012
▁سئو	-10.2024
▁St	-10.2027
▁یادداشت	-10.2028
ni	-10.2028
شا	-10.203
▁۶۰	-10.203
▁d	-10.2033
▁خودت	-10.2034
▁|	-10.2034
▁تاریک	-10.2037
▁آنهایی	-10.2046
ارد	-10.2048
▁راننده	-10.2058
▁میانگین	-10.2059
ine	-10.2062
▁دقیقاً	-10.2066
۱۹	-10.2068
▁دام	-10.207
خواه	-10.2073
▁پرنده	-10.2077
*	-10.2078
▁مست	-10.2085
▁شن	-10.2086
▁مسلح	-10.2087
▁فاجعه	-10.209
▁تایلند	-10.209
▁اتمام	-10.2092
مل	-10.2096
▁۱۷	-10.2101
▁شوهر	-10.2121
▁ناپدید	-10.2123
▁Co	-10.2128
▁برطرف	-10.2131
▁ناگهانی	-10.2135
▁جام	-10.2136
▁مغزی	-10.2141
خوان	-10.2144
▁رفتند	-10.2152
شما	-10.2156
▁آپارتمان	-10.2156
▁مداخله	-10.2156
▁لذا	-10.2157
▁لب	-10.2169
خا	-10.2173
▁IP	-10.2174
ورد	-10.2182
▁اد	-10.2186
ist	-10.219
▁مواقع	-10.219
ائ	-10.2191
▁گردند	-10.2193
کم	-10.2208
▁چارچوب	-10.2223
▁سوئیس	-10.2223
▁آنرا	-10.2228
قه	-10.2228
▁معناست	-10.2229
▁شنیدن	-10.2238
hi	-10.2253
▁تسلیم	-10.2256
▁مطلق	-10.2256
os	-10.226
▁بتوانیم	-10.2263
▁سخنان	-10.2263
لان	-10.2265
▁برآورده	-10.2268
▁داروها	-10.2282
▁فیسبوک	-10.229
▁تلویزیونی	-10.2294
▁عزیز	-10.2298
▁شو	-10.2307
▁مدارک	-10.2311
▁برآورد	-10.2311
▁لزوم	-10.2316
▁استودیو	-10.2323
▁محض	-10.2329
▁عده	-10.2334
▁گواهی	-10.2357
▁تمرینات	-10.2363
▁زخم	-10.2372
ive	-10.2374
▁موش	-10.238
سین	-10.2381
▁گردشگری	-10.2381
▁نظم	-10.2391
▁مبنای	-10.2391
▁مزیت	-10.2392
▁رده	-10.2399
▁رمز	-10.2402
▁داره	-10.2409
▁فرستاده	-10.2411
▁هل	-10.2416
▁باشی	-10.242
▁الگوی	-10.2424
ag	-10.2432
▁1-	-10.244
▁کالا	-10.2444
▁کش	-10.2455
▁اعتباری	-10.2455
▁بلوک	-10.2457
▁اشتغال	-10.2459
ير	-10.2459
▁2019	-10.246
▁جفت	-10.2465
▁&	-10.2466
▁بدانیم	-10.2474
▁چشمگیر	-10.2477
▁Ro	-10.248
▁جانب	-10.2483
▁عام	-10.2488
▁تحول	-10.2489
▁صوتی	-10.2492
▁معنوی	-10.2493
▁میراث	-10.2493
▁ببرند	-10.2497
▁چراغ	-10.2513
پرس	-10.2515
▁یاری	-10.2515
▁قربانیان	-10.2517
▁متعدد	-10.2518
▁خلاق	-10.2522
▁ابتدایی	-10.2525
▁الگوریتم	-10.2528
▁خلیج	-10.2528
▁کبد	-10.2529
▁بایستی	-10.2533
اژ	-10.2534
sp	-10.2534
▁امریکایی	-10.2536
▁میتوانید	-10.2537
▁سرگرمی	-10.2553
▁عذاب	-10.2562
▁2013	-10.2563
ck	-10.2565
▁خرج	-10.2566
▁دلم	-10.2568
▁تنش	-10.2578
▁کشی	-10.2585
▁زنگ	-10.2592
▁ونزوئلا	-10.2597
▁پروتکل	-10.2597
▁اسلحه	-10.2597
▁مضر	-10.2598
▁عرصه	-10.2631
per	-10.2633
▁ریاضی	-10.2634
▁پیشرو	-10.2639
▁22	-10.2647
▁2-	-10.2647
▁یکبار	-10.2656
▁بنیاد	-10.2657
▁افتتاح	-10.2666
▁دخالت	-10.2666
▁مفاهیم	-10.2666
▁مقادیر	-10.2666
▁پرچم	-10.2666
▁واسطه	-10.2672
باز	-10.2673
▁متعددی	-10.2676
▁نداده	-10.269
▁پیروز	-10.2693
▁هنرمندان	-10.2693
▁h	-10.2699
▁اخراج	-10.2701
▁آسانی	-10.2704
عا	-10.2708
▁نامزد	-10.271
▁دانشگاهی	-10.2715
▁گاو	-10.2722
▁آنگاه	-10.2729
گن	-10.2736
▁ادغام	-10.2736
▁اکسیژن	-10.2736
▁سوگند	-10.2736
▁۲۴	-10.2738
▁اجباری	-10.2741
▁خطا	-10.2752
▁معلمان	-10.276
▁شیرین	-10.2762
▁استقبال	-10.2772
▁تدریس	-10.2772
▁قایق	-10.2772
▁تظاهرات	-10.2774
▁مادرم	-10.2782
▁دانستم	-10.2782
▁آیات	-10.2785
▁انتظارات	-10.2787
OS	-10.2795
▁صاحبان	-10.2799
▁تنظیمات	-10.2803
nd	-10.2807
▁افسانه	-10.2807
▁پرتاب	-10.281
▁حریم	-10.281
▁نش	-10.2812
▁Be	-10.2827
▁کلیسای	-10.2828
di	-10.2832
▁گا	-10.2834
▁قبلاً	-10.2838
داران	-10.2839
▁مخصوصا	-10.2841
▁فریاد	-10.2842
▁اندروید	-10.2843
▁ویزا	-10.2845
▁پلی	-10.2868
▁دانستن	-10.2878
▁برساند	-10.2878
▁غیرقابل	-10.2879
اج	-10.2889
▁التحصیلان	-10.2892
ادی	-10.2895
▁برسند	-10.2914
▁لیزر	-10.2923
▁رسیدگی	-10.2925
▁سازند	-10.294
▁سازمانی	-10.2942
▁آس	-10.2948
▁ابعاد	-10.295
▁هماهنگ	-10.2952
▁روستا	-10.2955
فه	-10.2961
▁اندیشه	-10.2966
▁بالاترین	-10.2966
▁تعطیل	-10.2977
▁پدرم	-10.2977
▁پو	-10.2979
▁70	-10.298
▁دینی	-10.2985
▁شهادت	-10.2986
▁وکیل	-10.2988
ac	-10.2989
▁اخلاق	-10.299
▁توییتر	-10.2991
▁ایستاده	-10.2994
▁کول	-10.2999
نر	-10.3004
▁عمق	-10.3022
▁خیال	-10.3022
▁فلسطینی	-10.3025
▁لنز	-10.3026
▁واردات	-10.3033
▁بگو	-10.3033
▁فراوانی	-10.3042
▁یابی	-10.3048
▁رنگی	-10.3052
▁رز	-10.3055
▁تعلق	-10.3058
▁نخواهید	-10.3058
▁میکنم	-10.3059
▁وسیعی	-10.3072
▁شهرها	-10.3079
▁التحصیل	-10.3079
دگی	-10.3081
▁ژنتیکی	-10.3084
▁روسی	-10.3086
▁کوتاهی	-10.3087
▁آقا	-10.309
▁ناراحتی	-10.3092
▁عضلات	-10.3094
▁مرتکب	-10.3094
▁کالیفرنیا	-10.3094
▁رفاه	-10.3095
▁La	-10.3098
▁بازیگران	-10.3099
وقت	-10.3111
da	-10.3123
▁فزاینده	-10.3131
یوم	-10.3131
▁دوستی	-10.3132
▁داغ	-10.3133
▁نادرست	-10.3135
▁مثلاً	-10.3154
▁دانه	-10.3156
11	-10.3161
یون	-10.3165
▁مشورت	-10.3167
▁طب	-10.3168
▁فولاد	-10.317
ess	-10.317
▁ایتالیایی	-10.3172
▁سازگار	-10.3174
سک	-10.3176
▁رادیو	-10.3177
▁منطق	-10.3188
▁اي	-10.3195
▁شهرت	-10.3197
انا	-10.3197
مپ	-10.3203
آور	-10.3204
▁بسازید	-10.3204
▁سرقت	-10.3204
▁بصورت	-10.3208
▁فیبر	-10.3211
▁پوند	-10.3216
▁ستون	-10.323
«	-10.3232
خود	-10.3235
▁غیرقانونی	-10.3241
▁نظرسنجی	-10.3243
▁مسافر	-10.3245
▁مرورگر	-10.3245
▁سم	-10.3249
▁ژ	-10.325
▁نیستیم	-10.3254
▁اپ	-10.326
▁دان	-10.3265
▁مطلوب	-10.3278
▁لهستان	-10.3278
▁تأسیس	-10.3278
▁نیرو	-10.3297
▁بده	-10.3308
خته	-10.3313
▁طلایی	-10.332
▁رسند	-10.3322
▁جوش	-10.3323
▁افزوده	-10.3328
▁شبانه	-10.3337
▁آپ	-10.3341
▁۲۰۱۵	-10.3353
▁دلیلی	-10.3359
tion	-10.3362
▁معدن	-10.3362
▁جر	-10.3364
▁An	-10.3372
▁بروند	-10.3373
▁دراز	-10.3374
▁برداشته	-10.3379
up	-10.3385
▁اوج	-10.3387
▁بهار	-10.3387
▁محاسبات	-10.339
▁یکپارچه	-10.339
▁عبارتند	-10.3391
یکی	-10.3394
▁جزو	-10.3396
▁فیزیک	-10.3401
age	-10.3406
▁بستر	-10.3411
▁Wi	-10.3427
j	-10.3427
;	-10.3428
▁آشپزخانه	-10.3428
▁شعار	-10.3428
▁خالص	-10.3429
▁ماهه	-10.3442
▁کشت	-10.3445
▁ببینم	-10.3445
▁مسیحی	-10.3448
▁اسکن	-10.3451
io	-10.3457
▁مسدود	-10.3465
▁حرکات	-10.3465
▁محبت	-10.3466
▁درونی	-10.347
▁فو	-10.3472
▁سیل	-10.3475
يل	-10.3475
▁جنس	-10.3478
▁دفاعی	-10.3481
کاران	-10.3482
▁مهاجر	-10.3491
▁بلا	-10.3495
▁کوبا	-10.3498
▁غم	-10.35
مار	-10.35
ast	-10.3503
▁توانسته	-10.3522
▁سالهای	-10.3525
▁زندانیان	-10.3533
▁دریای	-10.3534
▁محروم	-10.3538
▁شایسته	-10.3541
▁سایبری	-10.3542
▁سازماندهی	-10.3542
ll	-10.3543
▁بگذارند	-10.3545
▁شهید	-10.3548
شود	-10.3554
سان	-10.356
▁طراحان	-10.3563
▁اهدا	-10.3574
مانند	-10.3575
▁جراح	-10.3592
▁مکانی	-10.3593
▁تند	-10.3597
رهای	-10.3602
▁طراح	-10.3605
▁پن	-10.3606
زاد	-10.3611
▁قضیه	-10.3618
▁توجیه	-10.3618
▁2011	-10.3619
▁لاتین	-10.362
▁نکنند	-10.3628
▁بشری	-10.3631
رود	-10.3631
▁بابت	-10.3631
▁تعهدات	-10.3637
▁تکه	-10.3642
▁بعدها	-10.3654
▁وحشتناک	-10.3656
▁سالن	-10.3661
▁اصلاً	-10.3663
وند	-10.3664
▁To	-10.3686
▁خودداری	-10.369
bo	-10.3693
▁گردش	-10.3694
▁سفارت	-10.3695
em	-10.3698
يه	-10.3698
▁آشنایی	-10.3703
▁۸۰	-10.3705
▁200	-10.371
▁رب	-10.3722
▁روانشناسی	-10.373
▁سرتاسر	-10.3733
▁ضرر	-10.3734
▁زایمان	-10.3734
▁آیفون	-10.3734
عه	-10.3736
▁قوم	-10.3739
▁گرما	-10.3749
▁حیوان	-10.3759
▁محرک	-10.3773
▁شیشه	-10.3773
▁شهروند	-10.3776
▁کارکرد	-10.3781
انت	-10.3794
▁مقداری	-10.3801
▁معدنی	-10.3803
40	-10.3803
▁فرود	-10.3805
▁آفریقای	-10.3805
▁ارمغان	-10.3811
▁التهاب	-10.3811
▁جبران	-10.3812
▁بدهیم	-10.3819
▁کانادایی	-10.3821
▁نویس	-10.3827
بت	-10.3829
▁روبه	-10.383
ایت	-10.3843
انید	-10.3847
▁تدریج	-10.3851
▁قائل	-10.3851
▁خوشبختانه	-10.3852
رق	-10.3852
▁شکاف	-10.3859
داشت	-10.3861
▁ابتدای	-10.3862
▁برو	-10.3882
▁پاپ	-10.3889
▁معاصر	-10.389
▁جغرافیایی	-10.3891
▁پال	-10.3893
▁اسپانیایی	-10.3894
▁جنین	-10.3896
▁خر	-10.39
▁کنه	-10.3904
▁فکری	-10.3907
رای	-10.3908
▁پیوسته	-10.391
بال	-10.3911
▁جور	-10.3912
▁'	-10.392
▁درختان	-10.3926
▁سریعتر	-10.3927
▁تسلیحات	-10.393
▁متقاعد	-10.393
▁نعمت	-10.393
▁مجهز	-10.393
▁کهکشان	-10.3932
▁کریم	-10.3933
▁عسل	-10.3934
▁دائم	-10.3934
▁نصف	-10.3935
زند	-10.3937
▁ندیده	-10.3937
▁جدایی	-10.3939
▁فراوان	-10.3949
▁میشه	-10.3957
▁وال	-10.3957
▁شنا	-10.3958
▁هایتان	-10.396
▁کال	-10.3962
▁رساندن	-10.3967
▁دارویی	-10.3968
▁دوشنبه	-10.3969
▁ادرار	-10.3969
▁رم	-10.3977
▁چوب	-10.3978
▁بیل	-10.3986
▁کامپیوتری	-10.3993
15	-10.3996
▁to	-10.3999
▁گوشه	-10.3999
▁تق	-10.4001
▁آک	-10.4007
گونه	-10.4009
▁بوجود	-10.4011
▁يک	-10.4028
▁500	-10.4031
▁گرایی	-10.4031
▁کشتن	-10.4032
▁مل	-10.4045
▁تلقی	-10.405
▁غلبه	-10.405
▁تمدن	-10.405
▁مول	-10.4051
▁امّا	-10.4051
▁تصادفی	-10.4051
▁ادبیات	-10.4052
برد	-10.4055
▁کرم	-10.4073
▁پرده	-10.4073
?	-10.4074
▁میباشد	-10.4081
▁بدهم	-10.4085
▁بگویند	-10.4089
▁رسول	-10.4091
▁سومین	-10.4098
▁28	-10.4101
▁نویسد	-10.4101
تم	-10.4115
▁ناتو	-10.4115
):	-10.4118
▁نبودند	-10.4118
عکس	-10.4123
▁بروم	-10.4123
ant	-10.4125
▁اعتراف	-10.413
▁بنویسید	-10.413
▁مایکروسافت	-10.413
▁تجویز	-10.413
▁طوفان	-10.413
▁رأی	-10.413
▁مسجد	-10.413
ّت	-10.4136
ap	-10.414
▁کیست	-10.414
ff	-10.4151
▁مسافران	-10.4158
رک	-10.4163
▁مغازه	-10.417
▁فرماید	-10.4171
▁سپری	-10.4171
▁2008	-10.4172
آیا	-10.4172
▁بینم	-10.4174
ver	-10.4178
▁برف	-10.4185
خواهی	-10.4187
عد	-10.4195
▁ضرب	-10.421
▁گرسنگی	-10.4211
▁تبادل	-10.4211
▁گفتار	-10.4222
یب	-10.4224
▁خواه	-10.4224
▁Sh	-10.4228
▁ساکن	-10.4243
▁زیرساخت	-10.4253
oc	-10.4255
▁عملیاتی	-10.4258
▁سنی	-10.4263
▁انتهای	-10.4268
▁ماهیت	-10.4288
!!	-10.4289
▁جاذبه	-10.4293
▁ایرلند	-10.4293
▁خیانت	-10.4293
▁ارتقاء	-10.4293
▁رفتاری	-10.4293
▁شکسته	-10.4294
▁اسباب	-10.4295
▁موسی	-10.4296
▁بخصوص	-10.4296
▁رویدادهای	-10.4301
▁عصبانی	-10.4302
▁برانگیز	-10.4334
▁دونالد	-10.4334
▁23	-10.4335
▁2010	-10.4337
▁شور	-10.4338
▁قلمرو	-10.4338
▁رضا	-10.4339
▁فرمول	-10.4344
▁مخاطب	-10.4347
نش	-10.4353
▁فرزندتان	-10.4356
▁ائتلاف	-10.4375
▁ابراهیم	-10.4375
▁پردازد	-10.4375
▁ویدئویی	-10.4378
▁دیوید	-10.438
▁اداری	-10.4381
▁فروخته	-10.4392
ve	-10.4394
قر	-10.4395
▁n	-10.4401
ضعیف	-10.4401
▁برادران	-10.4402
▁تعمیر	-10.4408
▁نوار	-10.441
▁بیاورید	-10.4416
▁بیفتد	-10.4417
▁هواپیمای	-10.4429
18	-10.443
po	-10.4432
▁نداد	-10.444
▁حرارت	-10.4442
چین	-10.4453
▁جولای	-10.4458
▁مدعی	-10.4459
▁برگ	-10.4466
▁تیر	-10.4468
▁رحمت	-10.4468
▁صبحانه	-10.4469
▁Do	-10.4475
▁مخ	-10.4476
▁۲۱	-10.4486
▁زلزله	-10.45
▁سبزیجات	-10.45
▁مغذی	-10.45
▁حمام	-10.45
▁نهادهای	-10.4501
▁قاره	-10.4505
▁حساسیت	-10.4506
▁نوزادان	-10.4508
son	-10.4513
ace	-10.4517
▁(19	-10.4519
▁خروجی	-10.4522
▁خوراکی	-10.4526
▁جوی	-10.4531
▁پورت	-10.4534
دید	-10.4541
▁اعتصاب	-10.4542
▁خواص	-10.4542
▁سقف	-10.4542
▁وحشت	-10.4553
▁300	-10.4558
▁تاخیر	-10.456
▁بنده	-10.4563
▁اینطور	-10.4564
–	-10.4569
▁لیبی	-10.4571
▁۷۰	-10.4572
▁خونریزی	-10.4584
▁ژوئیه	-10.4584
▁موانع	-10.4584
▁پژوهشگران	-10.459
رها	-10.4601
▁تکان	-10.4604
▁حدی	-10.4614
وئید	-10.4617
▁بداند	-10.4617
▁مشکلاتی	-10.4619
▁مالیاتی	-10.4622
▁آمازون	-10.4627
اجد	-10.4629
▁حاکمیت	-10.4632
زار	-10.4633
▁ساکنان	-10.4642
▁جسمی	-10.4647
▁مذهب	-10.4649
همه	-10.4664
▁خستگی	-10.4669
▁مکالمه	-10.4669
▁بمانید	-10.4669
▁دردناک	-10.467
▁آرایش	-10.4671
▁رسمیت	-10.4676
▁مربوطه	-10.4687
▁شناس	-10.4692
▁بتوان	-10.4697
▁شاخه	-10.4698
▁نان	-10.471
▁نخ	-10.4711
▁ترویج	-10.4712
▁حقایق	-10.4712
▁ویتنام	-10.4712
▁ناهار	-10.4712
▁مسکن	-10.4714
▁مشخصات	-10.4747
▁واکسن	-10.4755
▁خلبان	-10.4755
▁گواهینامه	-10.4755
▁آینه	-10.476
▁بمانند	-10.4761
ca	-10.4771
▁خورند	-10.4772
▁ادعای	-10.478
▁افت	-10.4785
▁خرده	-10.4786
do	-10.4788
خور	-10.479
ect	-10.479
▁آری	-10.4792
▁جزئی	-10.4794
▁بزرگسال	-10.4796
▁فالون	-10.48
▁نگرش	-10.4815
ard	-10.4817
▁حدس	-10.4819
زل	-10.4823
ite	-10.4828
▁جنسیت	-10.4833
▁آرزوی	-10.4837
▁لوازم	-10.4841
▁معاون	-10.4841
▁فاقد	-10.4841
▁مشتاق	-10.4842
▁بعدا	-10.4843
▁بکشید	-10.4847
▁پرندگان	-10.4847
▁Al	-10.4848
ga	-10.4848
▁قطر	-10.4859
▁نمک	-10.4861
▁خداست	-10.4863
▁Sp	-10.4867
▁خونی	-10.4867
▁طرفدار	-10.4876
لند	-10.4883
▁قدردانی	-10.4885
▁اگه	-10.4886
▁جیمز	-10.4888
دام	-10.4891
ang	-10.4898
ولی	-10.49
▁نیو	-10.4906
ee	-10.4909
▁پسران	-10.4918
16	-10.492
▁دموکرات	-10.4925
▁میشوند	-10.4928
▁املاک	-10.4928
▁شیمی	-10.493
▁مادران	-10.4931
▁گیرنده	-10.4937
▁نیا	-10.4944
▁w	-10.4945
▁صف	-10.4946
no	-10.495
▁لطف	-10.4964
▁رابط	-10.4964
لک	-10.4964
▁دیجیتالی	-10.4966
ولوژی	-10.497
▁فعالان	-10.4971
▁اضطراری	-10.4972
▁تئاتر	-10.4972
▁بصری	-10.4972
▁پرهیز	-10.4972
همان	-10.4972
▁مستقر	-10.4973
▁جدول	-10.4973
SA	-10.4974
ber	-10.4977
▁اوت	-10.4986
ip	-10.4989
▁گذرد	-10.4989
“	-10.5001
act	-10.5002
فروش	-10.5004
▁میکرو	-10.5005
▁i	-10.5007
▁35	-10.5009
▁اعداد	-10.5016
▁مزمن	-10.5018
▁مالزی	-10.5019
▁شکار	-10.502
▁ریز	-10.5023
▁ناسا	-10.5023
▁دوز	-10.5031
▁گویید	-10.5035
▁کمال	-10.5035
▁اندام	-10.5037
”.	-10.5045
200	-10.5049
▁شورش	-10.5052
▁گیاهی	-10.5052
:«	-10.5053
▁حسن	-10.5054
▁سامسونگ	-10.506
▁مخلوط	-10.506
▁ساعات	-10.5061
▁اردوگاه	-10.5061
▁فارس	-10.5066
PA	-10.5067
▁انداخت	-10.5069
▁ملا	-10.5076
▁بگیرم	-10.5079
▁بنیادی	-10.5085
▁2000	-10.5086
▁نما	-10.5091
▁زدند	-10.5091
ES	-10.5098
شده	-10.5103
▁رسیدند	-10.5105
▁غرق	-10.5106
▁2009	-10.5106
▁یقین	-10.5106
جان	-10.511
▁Mi	-10.5112
▁موضوعی	-10.512
قل	-10.5138
▁دن	-10.514
فل	-10.5146
الله	-10.5147
▁دانشجو	-10.5149
▁مطلع	-10.515
▁ناشناخته	-10.515
▁زانو	-10.5153
▁خواننده	-10.5155
▁تابع	-10.5156
▁نتوانست	-10.5165
▁معیار	-10.5166
▁بندر	-10.5167
▁زور	-10.517
▁نفرت	-10.5178
▁الکترونیک	-10.5189
▁حاشیه	-10.5194
▁ممنون	-10.5194
▁خنک	-10.5195
▁بالغ	-10.5197
▁ارث	-10.5199
▁نمایندگی	-10.52
وار	-10.5225
▁روده	-10.5227
ti	-10.5231
▁الملل	-10.5233
▁برنج	-10.5242
▁بزنند	-10.5245
▁میکنید	-10.5246
▁بشود	-10.5249
▁جک	-10.5255
گذاری	-10.5264
▁مهمتر	-10.5265
▁سنین	-10.5268
درصد	-10.5274
مرد	-10.5275
▁دانشجویی	-10.5275
▁Bo	-10.5283
▁مایع	-10.5283
▁افغان	-10.5284
▁داوری	-10.5286
▁غول	-10.5291
▁مص	-10.5292
▁Lo	-10.5294
▁امپراتوری	-10.5296
ron	-10.5302
▁بنیان	-10.5314
▁اختلالات	-10.5315
▁میتوان	-10.5318
▁محله	-10.5326
▁احزاب	-10.533
▁تحمیل	-10.533
▁متمایز	-10.533
▁کریسمس	-10.533
▁رکورد	-10.533
▁خم	-10.5339
▁درگذشت	-10.5344
▁محقق	-10.5351
▁بردند	-10.5351
▁خودروهای	-10.5358
▁۲۲	-10.536
▁الگو	-10.5362
▁ملکه	-10.5371
▁مسأله	-10.5376
▁آهسته	-10.5376
▁مراتب	-10.5376
▁مخرب	-10.5376
▁مردمی	-10.5382
▁اسرائیلی	-10.5385
▁روحی	-10.5398
▁مسئولان	-10.5403
ton	-10.5404
▁آوردند	-10.5404
▁اختصاصی	-10.5406
IC	-10.5407
▁No	-10.5408
▁t	-10.5418
ec	-10.5421
▁باهوش	-10.5422
▁۲۰۱۸	-10.5422
▁چرخش	-10.5423
▁برایش	-10.5425
▁خلاقانه	-10.5426
▁ظاهرا	-10.5427
▁وری	-10.5435
حل	-10.5435
اید	-10.5439
▁پدید	-10.5441
▁گرفتار	-10.5442
رنگ	-10.545
AS	-10.5451
▁افشا	-10.546
▁تصادف	-10.5466
▁شلوغ	-10.5468
فته	-10.5472
▁Li	-10.5478
▁وادار	-10.5482
▁فرستاد	-10.5482
ea	-10.5482
▁تومور	-10.5491
▁Ar	-10.5494
▁26	-10.5495
▁ارتقا	-10.5502
▁دانستند	-10.5505
▁شکم	-10.5509
▁آگهی	-10.5514
▁۲۰۱۱	-10.5515
▁2020	-10.5516
خدا	-10.5517
▁HIV	-10.5519
لد	-10.5526
▁نظرم	-10.5526
▁عروسی	-10.5526
▁غریب	-10.5533
▁درخشان	-10.5562
بیا	-10.5565
لن	-10.5566
▁شوی	-10.5567
▁بازرگانی	-10.5571
اره	-10.5571
>	-10.5571
▁=	-10.5574
ابی	-10.5577
ha	-10.5588
▁گیریم	-10.5591
▁بشریت	-10.5593
▁مسن	-10.5599
▁شنید	-10.5601
ریک	-10.5603
▁توضیحات	-10.5603
▁تیره	-10.5605
▁مکرر	-10.5608
▁ترسناک	-10.5608
گویی	-10.561
شک	-10.5613
تور	-10.5614
تس	-10.5614
▁همگان	-10.5617
▁ره	-10.5617
ke	-10.5628
نام	-10.5632
▁ث	-10.5634
سکی	-10.5634
گذار	-10.5653
ER	-10.5654
▁انیمیشن	-10.5654
▁وابستگی	-10.5654
▁مربع	-10.5654
▁مهربان	-10.5655
علیه	-10.5657
وال	-10.5663
▁خریداران	-10.5666
▁Con	-10.567
▁درب	-10.5671
▁پیچ	-10.5671
▁آموخت	-10.5674
▁غذاها	-10.5676
اده	-10.568
ack	-10.5683
▁Po	-10.5685
▁برعکس	-10.5687
▁نداشتم	-10.5695
▁ملاحظه	-10.5701
▁پیرامون	-10.5701
▁جبهه	-10.5701
▁برسید	-10.5702
▁45	-10.5702
▁HD	-10.5711
۱۰	-10.5714
ورا	-10.5718
▁اسد	-10.5729
فق	-10.5731
▁جست	-10.5736
▁قد	-10.574
كه	-10.5742
▁کارایی	-10.5743
▁تورم	-10.5745
ner	-10.5745
▁لس	-10.5745
▁اینستاگرام	-10.5749
▁پناه	-10.5749
▁بیاورد	-10.575
پوش	-10.5757
▁ششم	-10.5758
▁رقابتی	-10.5765
▁فروشنده	-10.5766
جنگ	-10.5786
▁سالها	-10.5788
ob	-10.5789
AR	-10.5791
▁اعتیاد	-10.5796
▁دگرگون	-10.5796
▁گوییم	-10.5797
▁نیروگاه	-10.5798
▁فایده	-10.5799
▁تکیه	-10.5803
شته	-10.581
▁بدل	-10.5812
▁آفرین	-10.5828
▁اینجاست	-10.5841
¬	-10.5844
▁ستارگان	-10.5844
▁اجتماع	-10.5845
▁فنجان	-10.5845
▁شلیک	-10.5846
▁2007	-10.5846
▁جزء	-10.5847
▁27	-10.5849
▁نشین	-10.5852
▁بستن	-10.5853
▁رویای	-10.5854
▁محافظه	-10.5861
پذیر	-10.5889
۲۰	-10.5889
▁مترو	-10.589
▁عواقب	-10.5892
▁ابتکار	-10.5892
▁دبیرستان	-10.5893
▁۲۰۱۴	-10.5893
▁۲۰۱۳	-10.5893
▁خوانندگان	-10.5894
▁ربط	-10.5895
▁پاس	-10.5897
▁فرمت	-10.5902
▁نوجوان	-10.5908
▁حج	-10.5909
▁سمی	-10.5915
▁خودروی	-10.592
▁متحدان	-10.5923
▁For	-10.5934
▁کوش	-10.5937
▁ناامید	-10.594
▁لحظات	-10.5941
▁پتانسیل	-10.5941
▁پلتفرم	-10.5941
▁تبعیض	-10.5941
▁قفل	-10.5942
▁پروسه	-10.5942
▁دافا	-10.5942
▁DNA	-10.5943
▁مایکل	-10.5943
▁قرض	-10.5946
▁قطعاً	-10.5947
رات	-10.5948
الت	-10.5953
▁بیکاری	-10.5963
▁دوستانه	-10.5964
▁نمودار	-10.5975
▁حواس	-10.598
▁ثالث	-10.5989
▁شرکای	-10.5989
▁ردیابی	-10.599
▁معبد	-10.5991
▁$	-10.5993
▁دیوانه	-10.5998
▁آرامی	-10.6001
▁تاریکی	-10.6005
▁مطمئنا	-10.601
▁برید	-10.602
pl	-10.6028
ts	-10.6028
▁جایگزینی	-10.6031
▁تشدید	-10.6038
▁جهنم	-10.6038
ment	-10.6039
گزار	-10.6046
▁شهرستان	-10.6046
▁کالاهای	-10.6052
▁متنفر	-10.6052
EC	-10.6054
▁خطای	-10.6056
▁خطاب	-10.606
کنند	-10.6062
▁معین	-10.6066
▁باستانی	-10.6067
▁پاره	-10.6068
▁پادشاهی	-10.6071
ian	-10.6071
▁دشواری	-10.6078
▁متقابل	-10.6087
▁مأموریت	-10.6089
مز	-10.6089
▁چنانچه	-10.609
▁کمترین	-10.6091
▁همینطور	-10.6093
▁دیروز	-10.6093
▁کنگ	-10.6097
خل	-10.61
▁نفتی	-10.6108
▁مجددا	-10.6111
▁قسم	-10.6112
لف	-10.6121
▁پژوهشی	-10.6136
▁محاکمه	-10.6136
▁گرایش	-10.6138
ندگی	-10.6138
▁رزرو	-10.6139
17	-10.6148
وو	-10.6153
نویس	-10.6154
▁ویران	-10.616
▁نکردن	-10.6167
▁شانه	-10.617
▁اذیت	-10.6186
▁تخلیه	-10.6186
▁صعود	-10.6186
▁معجزه	-10.6186
▁کلسترول	-10.6186
▁شتاب	-10.6186
▁بیرونی	-10.6193
▁کشتار	-10.6193
▁ماری	-10.6197
زمان	-10.6198
!!!	-10.6198
▁نواز	-10.6205
▁دریافتند	-10.6205
▁دیسک	-10.6211
ty	-10.6215
▁تاپ	-10.6218
▁اظهارات	-10.6219
▁re	-10.6227
iv	-10.6227
▁مهار	-10.623
▁نابودی	-10.623
ud	-10.6233
▁بازنشستگی	-10.6236
▁شاهزاده	-10.6236
▁دیپلماتیک	-10.6237
▁هنگ	-10.624
▁نقلیه	-10.6245
▁همسرتان	-10.6252
▁۹۰	-10.626
دور	-10.6266
IN	-10.6267
|	-10.627
▁اندک	-10.6274
▁مسلم	-10.6274
3)	-10.6275
▁بت	-10.628
▁دوازده	-10.6286
▁شاعر	-10.6286
▁مفصل	-10.6286
▁سوزی	-10.6288
▁Se	-10.6289
▁معده	-10.6291
▁آواز	-10.6295
؟"	-10.6299
▁بور	-10.6303
▁شرم	-10.6304
▁نیت	-10.6304
▁جورج	-10.6307
▁نظری	-10.631
▁روستایی	-10.6318
80	-10.6323
▁قل	-10.633
▁مثبتی	-10.6333
▁آرژانتین	-10.6336
▁ظهر	-10.6336
▁آگوست	-10.6336
▁3-	-10.6344
اتور	-10.6347
▁اب	-10.6352
روس	-10.6364
▁درواقع	-10.6368
▁قطعی	-10.6372
▁تسهیل	-10.6373
چرا	-10.6376
be	-10.6377
19	-10.6377
جل	-10.6382
▁منع	-10.6383
▁قومی	-10.6385
▁مجسمه	-10.6386
▁قلعه	-10.6387
▁عمدتا	-10.6388
▁تلفنی	-10.6394
▁قیامت	-10.6397
▁بودید	-10.6397
طور	-10.6397
▁هیچکس	-10.6403
▁بکند	-10.6409
▁اشک	-10.6413
▁بورس	-10.6415
▁الف	-10.642
qu	-10.6421
▁احمد	-10.6437
▁۲۰۱۶	-10.6437
▁حتماً	-10.6438
▁تلخ	-10.6439
▁بازخورد	-10.644
▁پنجاه	-10.6442
▁—	-10.6444
▁الزامات	-10.6445
▁مون	-10.6445
he	-10.6457
▁دوام	-10.6461
▁کتابی	-10.6462
▁فروشی	-10.6464
ide	-10.6465
▁اکس	-10.6477
▁v	-10.6481
سپ	-10.6484
▁بک	-10.6486
ماه	-10.6487
▁کافئین	-10.6488
▁دروازه	-10.6488
▁مستمر	-10.6489
▁پمپ	-10.649
▁قضایی	-10.649
ew	-10.6496
▁پذیرفت	-10.6497
▁شکلات	-10.65
دین	-10.6501
▁صرفاً	-10.6502
▁تغییراتی	-10.6505
▁توانمند	-10.6506
▁سلطنتی	-10.6507
▁برلین	-10.6508
▁عهد	-10.6509
▁تف	-10.6519
▁دستان	-10.6529
▁اجزای	-10.654
▁اواسط	-10.654
▁تاثیرات	-10.6541
▁نگهبان	-10.6544
▁کت	-10.6548
ru	-10.6549
25	-10.6552
▁آموخته	-10.6556
▁Le	-10.6558
oo	-10.6562
سته	-10.6568
▁لیگ	-10.6571
▁دما	-10.659
▁تخفیف	-10.6591
▁اندونزی	-10.6591
▁2006	-10.6595
▁اموال	-10.6596
▁]	-10.6604
▁مواجهه	-10.6605
گز	-10.6608
ight	-10.6609
▁مری	-10.6611
مثل	-10.6619
▁سفارشی	-10.662
▁زیان	-10.6623
رین	-10.6627
▁آیین	-10.6631
▁قا	-10.6633
▁زباله	-10.6643
▁مهاجم	-10.6643
▁حاکی	-10.6643
▁قاتل	-10.6644
▁غیرممکن	-10.6645
▁فشرده	-10.6647
▁انسانها	-10.6648
▁يا	-10.6649
▁اور	-10.6654
▁درآورد	-10.6654
CC	-10.6655
MS	-10.6655
▁خا	-10.6656
▁امیدواریم	-10.6659
end	-10.6664
▁تیراندازی	-10.6672
▁معیارهای	-10.6676
پرداز	-10.6679
▁آنهاست	-10.6686
▁کاشت	-10.6688
▁فورا	-10.669
nt	-10.6694
آل	-10.6694
▁اطاعت	-10.6695
▁قاضی	-10.6695
▁پناهندگان	-10.6695
▁کیسه	-10.6697
▁سواری	-10.6697
▁فراخوان	-10.6697
▁واگذار	-10.67
▁تربیت	-10.6701
▁برویم	-10.6705
▁اساسا	-10.6706
کسی	-10.6706
▁ماسک	-10.6714
▁همکار	-10.6716
13	-10.6717
▁گره	-10.6719
▁امارات	-10.6722
ft	-10.6727
نما	-10.673
فور	-10.6734
rd	-10.6741
au	-10.6747
▁چهارشنبه	-10.6747
▁خسارت	-10.6747
▁سپاه	-10.6748
▁چراکه	-10.675
▁نمره	-10.6753
▁صادقانه	-10.6753
ترا	-10.6763
▁نگرفته	-10.6764
الا	-10.6767
▁l	-10.6768
▁ماهانه	-10.6771
▁جوانی	-10.6774
▁هراس	-10.6791
▁قلم	-10.6794
▁اصرار	-10.68
▁بخواهیم	-10.68
▁بلیط	-10.68
▁کارفرما	-10.68
▁اخذ	-10.68
▁نوبت	-10.6802
▁فرمانده	-10.6806
▁الع	-10.6807
برا	-10.6808
بن	-10.6813
▁سکه	-10.6815
▁متقاضیان	-10.6819
▁ریزش	-10.6823
▁پیوست	-10.6824
▁مطابقت	-10.6828
▁ابد	-10.6831
▁راهنما	-10.685
▁کربوهیدرات	-10.6853
▁وقایع	-10.6853
▁شباهت	-10.6853
▁رقیب	-10.6853
▁·	-10.6853
▁بلو	-10.6853
▁مشخصی	-10.6859
▁ممنوعیت	-10.686
▁نوری	-10.6862
▁کام	-10.6864
▁ساحلی	-10.6866
▁سوپر	-10.6866
▁بلاک	-10.6867
▁تحولات	-10.6869
▁آزمایشات	-10.6885
▁مگ	-10.6887
وط	-10.6887
حد	-10.6891
▁داروی	-10.6898
int	-10.69
▁for	-10.6905
▁اقلیت	-10.6906
▁فرکانس	-10.6906
▁متعادل	-10.6906
▁یکشنبه	-10.6906
▁تاکتیک	-10.6906
▁پیامدهای	-10.6906
▁پوشیدن	-10.6908
▁بکنید	-10.6911
▁Ex	-10.6912
▁نشینی	-10.6916
▁روشنایی	-10.6924
▁آف	-10.6925
▁پلاستیک	-10.6925
▁۳۵	-10.6926
go	-10.6927
▁هندی	-10.693
▁متغیر	-10.6938
▁کارتان	-10.6942
▁ترور	-10.6944
یستی	-10.6944
حق	-10.6947
▁دوش	-10.6948
▁پیشنهادی	-10.6959
▁تحسین	-10.696
▁اشیاء	-10.696
▁تعویض	-10.696
▁پیوستن	-10.6961
▁توافقنامه	-10.6963
▁نکن	-10.6964
▁ترسید	-10.6975
نشین	-10.6976
▁Sa	-10.6981
▁ته	-10.6981
▁۵۰۰	-10.6982
min	-10.6991
les	-10.6994
=	-10.6998
▁نم	-10.7002
شهر	-10.7009
▁متناسب	-10.7013
▁دربارۀ	-10.7013
▁سرپرست	-10.7014
▁سردرد	-10.7016
▁لپ	-10.7017
▁دستیار	-10.702
▁بکش	-10.7037
▁داستانی	-10.7038
▁اختلافات	-10.7038
▁سوره	-10.7039
▁نازی	-10.7042
▁1000	-10.7048
▁مهندس	-10.7056
60	-10.7059
▁اشتیاق	-10.7067
▁المپیک	-10.7067
▁بخواهند	-10.7067
▁ماساژ	-10.7067
▁گلوله	-10.7068
▁صلاحیت	-10.7069
▁قطعنامه	-10.7069
▁سخنگوی	-10.707
▁رادیویی	-10.707
vi	-10.7072
▁سیا	-10.7078
▁وصل	-10.7079
▁جن	-10.708
▁آو	-10.7087
▁پلاستیکی	-10.7102
یپ	-10.7112
▁استوار	-10.7116
NA	-10.7117
▁پاهای	-10.7118
▁تعبیر	-10.7122
▁مشکوک	-10.7122
▁عادات	-10.7122
▁قانع	-10.7122
▁بازتاب	-10.7125
▁سرو	-10.7125
▁g	-10.7126
ear	-10.7126
▁رابرت	-10.7128
رسان	-10.7139
ld	-10.7142
▁شناسان	-10.7143
port	-10.7143
▁رهایی	-10.7143
ory	-10.7156
va	-10.7163
▁متشکل	-10.7176
▁شوخی	-10.7176
▁مبادله	-10.7177
کلی	-10.7177
▁عادلانه	-10.7177
▁دانشجوی	-10.718
▁گردشگران	-10.7182
▁نمودند	-10.7183
▁بست	-10.7188
▁عاشقانه	-10.7189
▁خوابیدن	-10.7191
▁Un	-10.7198
▁وحشی	-10.7201
يا	-10.7204
▁جین	-10.7204
▁نگار	-10.7216
▁آش	-10.7226
▁رسم	-10.7228
▁براي	-10.7229
14	-10.7231
▁Br	-10.7231
▁بازدیدکنندگان	-10.7232
▁جادویی	-10.7233
▁آتی	-10.724
▁گرگ	-10.7243
▁زیبای	-10.7244
هاست	-10.7246
▁بینایی	-10.725
▁آباد	-10.7253
توان	-10.7256
▁نفره	-10.7257
▁قدیم	-10.7262
▁۲۰۰	-10.7266
▁سرما	-10.7266
▁نکردند	-10.7268
▁کارگردانی	-10.7274
▁کات	-10.7275
لز	-10.7277
▁میزبانی	-10.7277
▁آفریقایی	-10.728
▁ایست	-10.7281
آمد	-10.7283
▁احمق	-10.7284
▁Pa	-10.7284
▁HTML	-10.7286
▁خجالت	-10.7286
▁ظریف	-10.7286
▁بخار	-10.7287
▁چسب	-10.7291
▁آگاهانه	-10.7297
▁صرفا	-10.7298
▁جلوه	-10.7304
▁کاست	-10.7306
▁برایشان	-10.7309
▁(1	-10.7312
▁درسی	-10.7315
▁قطب	-10.732
▁نسبتاً	-10.732
بود	-10.732
صورت	-10.7322
؟؟؟	-10.7324
راس	-10.7326
▁آدمی	-10.7331
▁متعال	-10.7342
▁نواحی	-10.7342
▁بازرسی	-10.7342
▁۲۰۱۰	-10.7343
▁VPN	-10.7344
دارد	-10.7348
کردن	-10.7348
▁پاسخگویی	-10.7348
▁نباشند	-10.7351
▁ابزاری	-10.7356
▁خبرنگاران	-10.7357
ps	-10.7366
٠	-10.7367
▁کجاست	-10.7367
▁ي	-10.7368
▁هواپیمایی	-10.7373
هیچ	-10.7373
▁پار	-10.738
▁e	-10.7382
▁اتهام	-10.7384
▁شماری	-10.7386
▁باب	-10.7394
AT	-10.7397
▁عضلانی	-10.7398
▁یخچال	-10.7398
▁حبس	-10.7398
▁ذرات	-10.7398
▁آزمایشی	-10.7405
▁کشند	-10.7405
▁صلیب	-10.7408
▁دال	-10.7409
▁تاریخچه	-10.741
70	-10.7413
▁سرم	-10.7414
▁آفریده	-10.7421
▁رویا	-10.7421
▁اکسید	-10.7425
▁همسرم	-10.7428
▁یادآور	-10.7431
یابی	-10.7435
▁دود	-10.7437
▁رس	-10.7442
▁برتری	-10.7446
▁4-	-10.7449
▁سواحل	-10.7454
▁امواج	-10.7454
▁کلمبیا	-10.7454
▁فاکتور	-10.7454
▁هواداران	-10.7456
▁سودمند	-10.7457
BA	-10.7458
▁زشت	-10.7461
▁بریتانیایی	-10.7462
▁هیچگاه	-10.7463
▁ستم	-10.7468
▁مارکس	-10.747
▁ریاضیات	-10.7471
ّه	-10.7477
▁جاهای	-10.7478
▁سرش	-10.7491
▁الم	-10.7495
▁نشستن	-10.7495
▁تس	-10.7497
شر	-10.7508
▁تطبیق	-10.751
▁فقدان	-10.751
▁وردپرس	-10.7511
▁آنجلس	-10.7511
▁استعفا	-10.7511
▁جزایر	-10.7512
▁منو	-10.7513
▁بمیر	-10.7515
فکر	-10.7522
▁فارسی	-10.7522
▁باری	-10.7525
▁بازیابی	-10.7527
▁عضویت	-10.7528
لّ	-10.7533
▁داشتید	-10.7535
▁جسم	-10.7539
▁بتوانم	-10.7546
ak	-10.7563
▁تصریح	-10.7567
▁عبادت	-10.7567
▁بوسیله	-10.7567
ance	-10.7567
▁سناریو	-10.7567
▁دانمارک	-10.7568
▁گردان	-10.7581
▁الگوهای	-10.7593
▁دبی	-10.7594
۵۰	-10.7597
▁پخت	-10.76
بله	-10.7602
▁مشاوران	-10.7603
▁دارا	-10.7617
▁جاسوسی	-10.7621
رج	-10.7624
▁تحرک	-10.7625
▁۲۰۱۲	-10.7625
▁تایمز	-10.7625
▁سندرم	-10.7625
▁تونل	-10.7626
▁لیبرال	-10.7627
▁بگذر	-10.7627
▁نامید	-10.7628
▁میتوانند	-10.7629
▁دزد	-10.763
▁فروشندگان	-10.763
▁بدنی	-10.763
▁(20	-10.7634
▁میکنیم	-10.7634
باد	-10.7635
نمی	-10.7636
▁تل	-10.7638
یتی	-10.7639
▁ویرایش	-10.7651
▁زخمی	-10.7656
گردان	-10.7661
ran	-10.7663
▁مردمان	-10.7664
▁قبیل	-10.7665
▁ِ	-10.7666
▁ابو	-10.7669
رفت	-10.7669
TA	-10.7672
رید	-10.7681
▁استانبول	-10.7682
▁مجمع	-10.7683
▁ولایت	-10.7683
▁چهل	-10.7683
▁یادم	-10.7691
▁جدیدترین	-10.7695
▁افق	-10.7698
▁خلاص	-10.7713
▁عظیمی	-10.7716
▁نیکو	-10.7718
زان	-10.7725
▁دانشمند	-10.7732
وگرافی	-10.7737
▁استثنا	-10.7737
▁نخواهیم	-10.774
▁ماهر	-10.7742
یلی	-10.7743
▁بیایند	-10.7745
▁شفافیت	-10.7745
▁ترکیبات	-10.775
نشان	-10.7755
▁گویا	-10.7771
MA	-10.7771
▁پشتیبان	-10.7773
▁توانستیم	-10.7775
سور	-10.7776
ue	-10.7778
▁75	-10.7788
▁کارگری	-10.7797
▁نامناسب	-10.7798
▁SEO	-10.7798
▁زاویه	-10.7798
▁احیا	-10.7799
▁بخشید	-10.78
▁بالینی	-10.7801
▁مرجع	-10.7803
▁روشنی	-10.7815
▁خدایی	-10.7816
کور	-10.7823
▁افسر	-10.7836
قدر	-10.7837
▁He	-10.7839
▁خبرنگار	-10.7841
▁مخالفان	-10.7842
▁خان	-10.7845
▁مریم	-10.7847
▁قاچاق	-10.7856
▁بمباران	-10.7856
▁پیچیدگی	-10.7856
▁Q	-10.7858
▁سنسور	-10.7858
فن	-10.7862
▁پیشنهادات	-10.7867
▁کشاورزان	-10.7868
▁حسی	-10.787
▁هرکسی	-10.7876
▁نحوی	-10.7877
▁بوش	-10.7883
▁مادری	-10.7885
▁پردازند	-10.7888
انند	-10.7898
▁Car	-10.7901
▁شه	-10.7904
▁فراگیر	-10.7906
▁آلرژی	-10.7909
▁مستلزم	-10.7915
▁سرزنش	-10.7915
▁بسازد	-10.7915
▁کامیون	-10.7916
▁۲۰۱۷	-10.7916
▁صدمه	-10.7919
▁قوت	-10.792
▁مبارزات	-10.7926
ire	-10.793
▁Mar	-10.7931
our	-10.7931
▁پاسخگو	-10.7939
▁مرزی	-10.794
ou	-10.7943
یزه	-10.7946
▁سد	-10.7947
▁بهبودی	-10.7949
فرم	-10.7951
▁اندوه	-10.7954
▁بز	-10.7955
▁روحیه	-10.7957
▁War	-10.7962
▁de	-10.7965
▁تایپ	-10.7965
▁مقطع	-10.7974
▁معقول	-10.7975
▁خاطره	-10.7975
▁فرشته	-10.7976
▁اندیش	-10.7977
▁New	-10.7977
▁افزاری	-10.7979
▁31	-10.7979
▁فیلیپین	-10.7979
▁مرتبه	-10.7981
ارک	-10.7983
اخ	-10.7983
نک	-10.7987
▁محبوبیت	-10.7987
▁هوشمندانه	-10.7989
▁الا	-10.7993
▁مدیره	-10.8004
▁مسیحیان	-10.8005
▁پرتو	-10.8009
▁دکترا	-10.8009
ick	-10.8018
▁تونی	-10.8019
برگ	-10.8025
▁احاطه	-10.8034
▁هیتلر	-10.8034
▁مقصر	-10.8034
▁قصه	-10.8034
▁پانزده	-10.8034
▁نشوید	-10.8034
▁متأسفانه	-10.8034
mp	-10.8036
ore	-10.8038
▁غار	-10.8051
▁روشهای	-10.8052
▁خوشبختی	-10.8055
▁گلو	-10.8064
خواست	-10.807
▁كس	-10.808
▁آکادمی	-10.8084
▁شوک	-10.8091
▁امروزی	-10.8092
▁تسلط	-10.8094
▁قبال	-10.8095
▁تاثیرگذار	-10.8096
▁نحو	-10.8106
▁شناسند	-10.8108
▁ناتوانی	-10.811
str	-10.8113
▁دفعه	-10.8118
▁هدر	-10.8119
sa	-10.8119
چر	-10.812
▁پستان	-10.8121
▁وفاداری	-10.8121
قط	-10.8121
▁اروپای	-10.813
▁اعطا	-10.8133
جور	-10.8134
mi	-10.8139
▁زبانی	-10.814
▁دوری	-10.8149
bu	-10.815
▁اندازد	-10.8151
▁عروق	-10.8154
▁گمراه	-10.8155
▁رگ	-10.8156
▁Vi	-10.8163
Fi	-10.8168
▁پرداخته	-10.8168
▁تیمی	-10.8172
اندن	-10.8179
َّ	-10.8183
▁برش	-10.8186
▁36	-10.8187
▁وفادار	-10.8188
2)	-10.8199
▁بخشیدن	-10.8203
TC	-10.8204
لون	-10.8206
▁صاف	-10.8219
if	-10.8221
▁سپرده	-10.8229
▁اشتباهی	-10.8234
▁400	-10.8237
▁توریست	-10.824
▁آفرینش	-10.8241
بون	-10.8262
▁محو	-10.8287
برت	-10.8296
؟”	-10.8298
▁پردازنده	-10.8304
▁پرت	-10.8304
▁Ad	-10.831
▁مولکول	-10.8318
٨	-10.8337
▁بازنشسته	-10.8337
▁ویدیویی	-10.8342
▁حیوانی	-10.8343
زید	-10.8343
▁هشتم	-10.8349
▁ورزشکاران	-10.835
▁دادستان	-10.8356
▁خوار	-10.8357
ــ	-10.8361
▁فرمودند	-10.8367
اسیون	-10.8369
▁دیدند	-10.8371
22	-10.8371
ong	-10.8382
▁تاکسی	-10.8382
▁۲۳	-10.8382
▁فاز	-10.8388
▁سازگاری	-10.839
يي	-10.8392
▁5-	-10.8399
▁تهدیدات	-10.8399
▁مناظر	-10.8399
24	-10.8401
▁سرطانی	-10.8404
▁نکنیم	-10.8406
▁مطبوعات	-10.8408
وما	-10.8411
▁كرده	-10.8442
▁Ge	-10.8442
تال	-10.8445
▁بیستم	-10.8452
▁جادو	-10.8459
The	-10.846
▁صمیمی	-10.8461
▁نقره	-10.8461
▁MBA	-10.8463
▁کارفرمایان	-10.8463
ّی	-10.8465
▁نانو	-10.8476
▁مدام	-10.8479
▁شکستن	-10.848
▁32	-10.8483
يان	-10.8487
▁انداخته	-10.8499
▁واحدهای	-10.85
▁پله	-10.8501
گه	-10.8501
▁متا	-10.8509
ثر	-10.8516
▁مرطوب	-10.8523
▁سلطه	-10.8523
▁بنزین	-10.8523
▁امشب	-10.8527
▁۲۷	-10.8529
▁باخت	-10.8533
▁نسبی	-10.8536
▁شناسد	-10.8539
سلام	-10.8542
MI	-10.8551
▁نگاران	-10.8554
▁فور	-10.8557
شناس	-10.856
▁29	-10.8563
Z	-10.8571
ولا	-10.8572
▁اعصاب	-10.8586
▁تضاد	-10.8586
▁مزرعه	-10.8586
▁گرجستان	-10.8586
▁تعلیم	-10.8586
▁جهش	-10.8587
▁iOS	-10.8587
-2	-10.8587
▁پکن	-10.8591
▁صدر	-10.8597
▁بنظر	-10.8597
▁دنیایی	-10.8597
▁پیری	-10.8599
▁تهاجمی	-10.8601
AC	-10.8601
▁بگیر	-10.8602
ook	-10.8605
▁اعتراضات	-10.8607
▁پویا	-10.8607
▁مقدمه	-10.861
▁تخیل	-10.8614
▁شهروندی	-10.8626
▁قر	-10.8627
CA	-10.863
▁خوشحالی	-10.8632
lan	-10.8635
▁فرش	-10.8638
▁افزودن	-10.8645
▁ذات	-10.8649
▁بلژیک	-10.8649
▁تجارب	-10.8649
▁مباحث	-10.8649
▁محوطه	-10.8649
▁ناخواسته	-10.8649
▁منظر	-10.865
▁1990	-10.8651
▁اشعه	-10.8656
▁روبات	-10.8657
▁روید	-10.866
▁نوین	-10.8667
▁کوب	-10.8675
▁_	-10.868
▁سین	-10.8681
▁استخر	-10.8683
eg	-10.8683
▁روزگار	-10.8684
▁برون	-10.8685
▁کمپ	-10.8687
وین	-10.8695
ds	-10.8696
▁تفریح	-10.8699
▁حامی	-10.87
▁هک	-10.8702
▁زنانی	-10.8703
▁میانه	-10.8704
▁بوت	-10.8704
▁الزام	-10.8704
آگاه	-10.8707
▁کری	-10.8709
هایشان	-10.871
▁پسرش	-10.8712
▁آشپزی	-10.8713
▁بیگانه	-10.8713
▁پارچه	-10.8714
▁برسیم	-10.8714
▁الماس	-10.8715
نور	-10.8717
▁بي	-10.8717
▁آسیایی	-10.8721
گفت	-10.8724
77	-10.873
▁سامانه	-10.8732
▁نر	-10.8734
▁هیات	-10.8739
سکو	-10.874
▁پور	-10.8742
▁جنسیتی	-10.8745
▁میکروب	-10.8745
▁موی	-10.8748
▁نباش	-10.8749
▁عمد	-10.8754
ng	-10.8755
▁انتخاباتی	-10.8758
▁کارش	-10.876
▁طرفی	-10.876
35	-10.8761
▁رویاهای	-10.8763
▁امیر	-10.8767
▁پیکر	-10.8771
▁راهکار	-10.8773
▁PC	-10.8774
▁پروفسور	-10.8777
▁عجله	-10.8777
▁پرتغال	-10.8777
▁خندید	-10.8778
▁آوریم	-10.8781
ستون	-10.8784
org	-10.8786
▁برقی	-10.8788
▁دلخواه	-10.8789
▁اینقدر	-10.8793
▁سیاستمداران	-10.8793
▁گیج	-10.8794
▁فرآیندهای	-10.8795
▁معتقدم	-10.8802
▁تج	-10.8812
▁باطل	-10.8816
▁بردارید	-10.8818
هاي	-10.8819
▁عمو	-10.8819
▁ترسیم	-10.8824
یعنی	-10.8827
▁جعلی	-10.8832
▁دلایلی	-10.8833
▁اعزام	-10.8842
▁ترغیب	-10.8842
▁تعقیب	-10.8842
▁کاتولیک	-10.8842
▁سپاسگزار	-10.8842
▁انبار	-10.8851
▁شراب	-10.8852
▁نمایان	-10.8855
▁مستقیما	-10.8859
▁پایانی	-10.8859
ادا	-10.887
▁تاب	-10.887
▁رسانده	-10.887
▁Qu	-10.8871
خصوص	-10.8884
▁۲۰۰۰	-10.8884
▁اتم	-10.8885
▁One	-10.8887
▁تکراری	-10.8889
▁ترانه	-10.8893
▁کارگاه	-10.8899
آر	-10.89
▁میکرد	-10.8904
\	-10.8907
▁اتوماتیک	-10.8907
▁زحمت	-10.8907
▁گرسنه	-10.8907
▁علل	-10.8907
▁محترم	-10.8907
▁عزت	-10.8907
▁تقلب	-10.8907
ـــ	-10.8908
▁۲۰۰۹	-10.8908
▁خرس	-10.891
▁گفتیم	-10.8911
خط	-10.8923
▁سوری	-10.8926
کوپ	-10.8931
▁ارای	-10.8939
▁Cl	-10.8943
▁بازده	-10.8949
▁Ra	-10.8953
▁بنی	-10.8954
▁پلت	-10.8955
IP	-10.8958
▁دوستش	-10.8961
▁سای	-10.8968
▁ساختاری	-10.8972
▁اسرار	-10.8972
٣	-10.8972
▁بپردازید	-10.8972
▁تلسکوپ	-10.8972
▁ژنرال	-10.8972
▁سفیر	-10.8972
▁براى	-10.8973
▁پوتین	-10.8973
▁میدهند	-10.8974
▁برداشتن	-10.8977
اکس	-10.8986
▁فیل	-10.8987
▁مستقیماً	-10.899
▁بابا	-10.8999
ON	-10.9
▁ندا	-10.9006
ster	-10.9007
▁آفرید	-10.9011
▁پد	-10.9012
by	-10.9016
▁150	-10.9017
▁اچ	-10.9019
90	-10.9019
▁عینک	-10.9022
کتور	-10.9023
▁گز	-10.9024
▁سؤالات	-10.9027
▁زی	-10.9027
▁معکوس	-10.9038
▁پشیمان	-10.9038
▁مذکور	-10.9038
▁وحدت	-10.9038
▁تمدید	-10.9038
▁مبارک	-10.9038
▁●	-10.9039
▁مریخ	-10.9041
▁2003	-10.9044
▁نامحدود	-10.9044
▁جانبه	-10.9052
▁اشیا	-10.9053
▁توبه	-10.9068
▁ساعته	-10.9072
▁گرداند	-10.9077
▁سپ	-10.9082
▁کریس	-10.9083
▁انگیزی	-10.9083
▁١	-10.9087
▁خدایان	-10.9092
▁ذخایر	-10.9104
▁صریح	-10.9104
▁پیغام	-10.9104
▁جسد	-10.9104
▁رانندگان	-10.9104
▁یوگا	-10.9105
▁کوهستان	-10.9106
▁یونانی	-10.9108
نوس	-10.9112
▁تونس	-10.912
اوا	-10.912
▁My	-10.9127
▁هنرهای	-10.9136
▁خوان	-10.9138
nc	-10.9138
▁غریبه	-10.9143
▁قهرمانی	-10.9143
▁دیوان	-10.9151
ial	-10.9153
▁ژو	-10.9154
▁بنابر	-10.9155
▁کارآفرینی	-10.9157
▁قیام	-10.9157
موس	-10.9159
اله	-10.9164
پیش	-10.9167
▁شمشیر	-10.9171
▁عبارات	-10.9171
▁قرون	-10.9176
▁لوگو	-10.9181
▁کلا	-10.9182
land	-10.9183
▁شاگردان	-10.9184
▁درایو	-10.9185
▁دفع	-10.919
▁اخیراً	-10.919
▁تح	-10.9192
پول	-10.9205
کام	-10.9205
▁خیره	-10.9209
صدور	-10.9213
▁بینش	-10.9214
▁خریدار	-10.9214
▁باورند	-10.9215
▁گور	-10.9217
▁چرب	-10.9218
▁Ba	-10.9223
▁باهم	-10.9229
ical	-10.9233
▁سام	-10.9233
▁آستانه	-10.9238
▁ديگر	-10.9238
▁کمر	-10.9239
▁مارتین	-10.9239
▁سودآور	-10.924
▁2005	-10.9242
▁ایکس	-10.9248
▁انداختن	-10.9251
▁بالاتری	-10.9253
ki	-10.9253
▁بعداً	-10.9258
▁هواپیماهای	-10.9259
han	-10.9265
بازی	-10.9275
ستم	-10.9276
انس	-10.9281
▁نظامیان	-10.9281
che	-10.9282
▁مغ	-10.9285
▁غالب	-10.9293
ture	-10.9297
▁بپردازد	-10.9305
▁فدراسیون	-10.9305
▁بایگانی	-10.9306
▁بطری	-10.9306
▁غالباً	-10.9308
out	-10.9309
▁Ho	-10.9323
شناسی	-10.9337
گون	-10.9337
ice	-10.9339
ونگ	-10.9341
▁مرج	-10.9342
کین	-10.9343
▁پرستار	-10.9349
اوی	-10.935
▁اک	-10.9355
ID	-10.9355
▁ژنو	-10.9364
خوب	-10.9364
▁شجاع	-10.9367
}	-10.9373
▁آغوش	-10.9373
▁توطئه	-10.9373
▁علاقمند	-10.9373
▁ناخودآگاه	-10.9373
▁ناخوشایند	-10.9373
▁کنسرت	-10.9373
▁یوسف	-10.9375
▁دفن	-10.9375
▁غزه	-10.9375
▁بخوا	-10.9377
▁جالبی	-10.9377
▁متری	-10.9378
▁فلزی	-10.9379
▁جیب	-10.938
21	-10.9386
▁بوس	-10.9394
▁مختصر	-10.9405
▁نگاری	-10.9413
▁سوز	-10.9418
tra	-10.942
▁بازمی	-10.9433
بات	-10.9433
▁URL	-10.9442
▁قاعده	-10.9442
▁پروفایل	-10.9442
▁بپردازند	-10.9442
▁کلینتون	-10.9442
▁شهرداری	-10.9442
▁جهاد	-10.9442
▁منصفانه	-10.9443
▁اوراق	-10.9443
▁پیروان	-10.9444
▁ببریم	-10.9447
PS	-10.9449
▁نگر	-10.9452
▁ایالتی	-10.9454
▁لوکس	-10.9456
▁سفرهای	-10.9456
▁حامیان	-10.9456
▁بلد	-10.9458
▁آخرت	-10.9472
علی	-10.9476
▁داوطلب	-10.9479
پرو	-10.9481
▁فلا	-10.9484
▁چهارمین	-10.9485
کال	-10.9496
ً	-10.9498
▁قراردادهای	-10.9499
cy	-10.95
▁بازگرداند	-10.9504
500	-10.9504
خو	-10.9509
ED	-10.951
٩	-10.9511
▁حیرت	-10.9511
▁سکونت	-10.9511
▁مسیرهای	-10.9512
▁پوشیده	-10.9513
▁عطر	-10.9515
▁چت	-10.9517
▁لاک	-10.9518
نگر	-10.9522
▁اقداماتی	-10.9524
▁عراقی	-10.9527
▁روستای	-10.9532
▁مدال	-10.9532
▁سازه	-10.9532
▁زاده	-10.9533
رغم	-10.9534
▁دستگیری	-10.9536
فو	-10.954
▁۴۵	-10.9542
ix	-10.9543
▁انگشتان	-10.9548
▁گذراند	-10.9551
▁مقاوم	-10.9561
▁آلات	-10.9563
▁آسیای	-10.9566
▁x	-10.9571
▁دستورات	-10.9571
▁ماجراجویی	-10.958
▁ISO	-10.958
▁تقلید	-10.958
▁تدوین	-10.958
▁تجمع	-10.9581
▁ستایش	-10.9582
▁حاملگی	-10.9582
▁خوانند	-10.9586
▁سازندگان	-10.9586
▁خوشحالم	-10.9588
▁فلز	-10.9588
▁بازگرداندن	-10.9588
▁امری	-10.959
ai	-10.9608
01	-10.9608
▁دانی	-10.961
sk	-10.9612
▁آزادانه	-10.9614
ویل	-10.9615
▁شرکتهای	-10.9622
ence	-10.9626
عهده	-10.9639
ایر	-10.964
▁اِ	-10.964
▁سید	-10.9643
▁کارشان	-10.9647
لیس	-10.9648
▁مغناطیسی	-10.965
▁بیاورند	-10.965
▁قارچ	-10.965
▁وسوسه	-10.965
▁ابداع	-10.9651
▁نشریه	-10.9652
DA	-10.9653
▁1980	-10.9653
▁رصد	-10.9653
▁فاش	-10.9654
▁شجاعت	-10.9656
EA	-10.9657
▁خور	-10.9659
▁هردو	-10.9659
ish	-10.9665
زاده	-10.9669
▁گناهان	-10.967
توانید	-10.9677
هزار	-10.9684
▁موقعیتی	-10.9696
▁فضاهای	-10.9698
▁گرفتیم	-10.9701
so	-10.9703
۱۸	-10.9705
▁گنج	-10.9707
▁شورا	-10.9708
ائو	-10.972
▁انتقام	-10.9721
▁خاتمه	-10.9721
▁سحر	-10.9721
▁خشمگین	-10.9721
▁کیهان	-10.9722
▁بخرید	-10.9723
EM	-10.9724
▁غبار	-10.9725
▁on	-10.9726
▁آماری	-10.973
▁گونگ	-10.9731
4)	-10.9732
ِن	-10.9737
ik	-10.9738
▁پان	-10.974
▁كن	-10.9745
▁برگرداند	-10.9746
BC	-10.9747
▁وحش	-10.9748
AP	-10.9751
▁ببین	-10.9752
▁نامند	-10.9756
▁دستاورد	-10.9761
▁Ph	-10.9763
▁تاج	-10.9764
▁فروخت	-10.977
▁کوچ	-10.9775
▁دبیر	-10.9787
▁پرسیده	-10.9787
▁مختل	-10.9788
▁تعلیق	-10.9792
▁اتریش	-10.9792
▁ماژول	-10.9792
▁عذرخواهی	-10.9792
▁محرمانه	-10.9793
▁جاودان	-10.9793
لس	-10.9793
▁خشن	-10.9794
▁زیستی	-10.9795
▁ماندگار	-10.9796
▁كنید	-10.9798
ستین	-10.9801
CS	-10.9802
▁تپه	-10.9805
▁اتهامات	-10.9809
ary	-10.9821
▁ناب	-10.9832
ake	-10.9832
ci	-10.9836
▁اینکار	-10.9846
حتی	-10.9849
▁Ca	-10.9852
▁رومی	-10.9856
▁((	-10.9857
▁انتقادی	-10.986
▁کنسول	-10.9863
▁رؤیا	-10.9863
▁ظلم	-10.9863
▁فروپاشی	-10.9863
▁آرشیو	-10.9863
▁تناسب	-10.9863
▁متداول	-10.9863
▁کارشناس	-10.9865
▁استثنایی	-10.9866
▁تص	-10.9867
▁گرمای	-10.9868
▁پذیرد	-10.9875
TS	-10.9884
▁مهندسان	-10.9885
▁متخصصین	-10.9899
ov	-10.9907
▁گرامی	-10.9908
▁خل	-10.9915
▁کاس	-10.9917
بوس	-10.9919
pa	-10.9933
▁بغداد	-10.9935
▁سلسله	-10.9935
▁بشناسید	-10.9935
▁دفاتر	-10.9935
▁شنوایی	-10.9935
▁نروژ	-10.9935
▁نوزدهم	-10.9935
▁گالری	-10.9935
▁صداقت	-10.9935
▁مترجم	-10.9936
▁آسانسور	-10.9937
▁USB	-10.9937
▁پنیر	-10.9938
▁اردن	-10.9939
▁موزیک	-10.9939
▁برجام	-10.9943
▁اسل	-10.9945
▁عید	-10.9946
▁پاییز	-10.9948
▁بکنند	-10.9948
▁دردسر	-10.9948
▁قدری	-10.9949
▁افزونه	-10.9952
حه	-10.9953
▁کمدی	-10.9955
▁گازهای	-10.9968
dy	-10.9971
ارا	-10.9972
▁فورد	-10.9981
▁ساختارهای	-10.9984
▁معاهده	-11.0007
▁مقاصد	-11.0007
▁شیوع	-11.0007
▁عقاید	-11.0007
▁بیوتیک	-11.0007
▁جریمه	-11.0008
▁استعمار	-11.0008
▁توهین	-11.0008
▁بگذاریم	-11.0012
▁فرانک	-11.0014
▁همکارانش	-11.0017
▁۲۶	-11.0019
▁نرسیده	-11.0022
tic	-11.0022
▁حکمت	-11.0026
گرایی	-11.0032
رام	-11.0033
▁آت	-11.0033
سط	-11.0036
▁۰	-11.0039
pt	-11.0041
▁مقدم	-11.0054
ath	-11.0067
▁بفرست	-11.0074
▁آذربایجان	-11.008
▁انسولین	-11.008
▁بلندمدت	-11.008
▁تکذیب	-11.008
▁متحرک	-11.008
▁منفجر	-11.008
▁هرکدام	-11.008
▁برسانید	-11.008
▁برسانند	-11.0081
▁صبور	-11.0081
▁شیعه	-11.0081
▁ترمیم	-11.0082
▁تأ	-11.0084
▁احمقانه	-11.0084
▁جانشین	-11.0085
لب	-11.0089
بور	-11.0091
▁بجای	-11.0092
▁بکشند	-11.0095
CO	-11.0107
lin	-11.0108
▁Or	-11.0108
یّت	-11.0113
▁صداهای	-11.0113
tor	-11.0114
▁آزمایشگاهی	-11.0115
▁دیو	-11.0122
▁پوستی	-11.0125
▁خز	-11.013
▁لین	-11.0138
▁زنم	-11.0138
▁پیتر	-11.0141
تک	-11.0142
▁شخصیتی	-11.0152
▁حامل	-11.0152
▁تثبیت	-11.0154
▁همیشگی	-11.0154
▁مادربزرگ	-11.0155
▁کیک	-11.0155
▁جادوگر	-11.0173
▁ریخته	-11.0174
▁آرمان	-11.0175
جنس	-11.0176
▁اسپرم	-11.0177
]]	-11.018
RA	-11.0181
IM	-11.0181
▁جاوا	-11.0182
▁قهرمانان	-11.0186
▁هفتم	-11.0188
غر	-11.0195
av	-11.0198
▁تجربی	-11.0202
▁Tra	-11.0208
▁نرمال	-11.021
خون	-11.0218
تمام	-11.0224
▁احتیاط	-11.0228
▁اورژانس	-11.0228
▁نوآورانه	-11.0228
▁پنجشنبه	-11.0228
▁انبوه	-11.0228
▁عباس	-11.0228
▁تأخیر	-11.0228
▁خواهش	-11.023
غیر	-11.0237
▁تانک	-11.0239
▁٢	-11.024
▁جذابیت	-11.0243
▁افراطی	-11.0245
▁قبیله	-11.025
وقتی	-11.0251
▁کیلومتری	-11.0263
▁En	-11.0266
cu	-11.0268
▁بول	-11.0272
▁نگفت	-11.028
▁AS	-11.0283
١	-11.0287
▁قم	-11.0289
▁قوا	-11.0292
▁اکتشاف	-11.0294
ارو	-11.0298
▁قاطع	-11.03
▁گیم	-11.03
▁مدیرعامل	-11.0303
▁فیلسوف	-11.0303
▁هیدروژن	-11.0303
▁اسکاتلند	-11.0303
▁قواعد	-11.0303
▁تجسم	-11.0303
▁مسائلی	-11.0303
▁رمزگذاری	-11.0303
پز	-11.0303
▁رونمایی	-11.0307
کرد	-11.0308
لي	-11.031
▁نوبل	-11.031
▁دایره	-11.0313
▁Home	-11.032
ضر	-11.0322
▁بازیافت	-11.0324
LA	-11.033
▁نشانگر	-11.0334
▁US	-11.0342
▁Da	-11.0349
▁متقاضی	-11.035
BS	-11.0355
▁شم	-11.0367
▁فرقه	-11.0374
▁World	-11.0378
▁رمزنگاری	-11.0378
▁فرشتگان	-11.0378
▁میخواهید	-11.0379
▁گروگان	-11.0379
▁۲۰۰۸	-11.0379
▁بدیهی	-11.038
ذا	-11.038
▁وکلا	-11.038
23	-11.038
▁پایبند	-11.0381
▁نازل	-11.0382
▁لیتر	-11.0382
بول	-11.0383
▁2004	-11.0384
نیا	-11.0392
▁Ne	-11.0397
▁اسکو	-11.0399
▁Ha	-11.04
▁گردیده	-11.0402
▁جم	-11.0406
▁مسیحیت	-11.0413
▁مقر	-11.0418
▁انها	-11.0421
▁نتوانسته	-11.0424
ریل	-11.0425
دیو	-11.0426
زر	-11.0433
▁تابستانی	-11.0433
اصل	-11.0436
▁مدافع	-11.0437
&	-11.0438
۹۵	-11.044
آنها	-11.0441
,000	-11.0442
ven	-11.0442
▁دیدیم	-11.0447
▁تصفیه	-11.0454
▁خنثی	-11.0454
▁شیکاگو	-11.0454
▁ناخن	-11.0454
▁شستشو	-11.0454
▁کافه	-11.0455
▁گشود	-11.0456
▁هوشیار	-11.0456
▁نشوند	-11.0457
▁بنیانگذار	-11.0457
▁حرام	-11.0457
▁دندانپزشک	-11.0464
▁گرافیک	-11.0465
▁نکردم	-11.0466
▁بقا	-11.0476
▁لکه	-11.0477
▁داوطلبانه	-11.0478
AM	-11.0483
▁چاقی	-11.0484
▁دستاوردهای	-11.0486
▁خصوصیات	-11.0487
▁تاسیسات	-11.049
▁دوستانم	-11.0496
▁الکس	-11.0497
وید	-11.0499
ساخت	-11.0508
▁مادی	-11.0509
▁کیت	-11.0514
▁انحصاری	-11.0517
▁تعرفه	-11.053
▁دعوا	-11.053
▁سنگاپور	-11.053
▁کیلوگرم	-11.053
▁خدمه	-11.053
▁رادیکال	-11.053
▁تعالی	-11.0532
29	-11.0537
▁آمدید	-11.0537
▁ساکت	-11.0542
able	-11.0545
خیر	-11.0554
▁سوالی	-11.0556
اعت	-11.0556
گردد	-11.0562
▁CO	-11.0563
▁محافظ	-11.0563
▁منته	-11.0564
▁نداشتیم	-11.0565
▁پیشتر	-11.0565
▁کوشش	-11.0566
▁صدق	-11.0579
▁تگ	-11.0586
بست	-11.0588
▁Gra	-11.0588
ies	-11.0601
▁نتانیاهو	-11.0607
▁تمایز	-11.0607
▁سرنگون	-11.0607
▁پراکنده	-11.0608
▁خاندان	-11.0608
▁ناکام	-11.061
99	-11.061
▁زنبور	-11.061
▁مؤسسه	-11.0619
con	-11.0619
▁افتادن	-11.0621
▁مرگبار	-11.0622
ST	-11.0627
!"	-11.0628
RP	-11.0634
▁تراز	-11.0636
▁۲۸	-11.0642
TP	-11.0644
▁PS	-11.0645
67	-11.0647
▁ملیت	-11.065
▁کابین	-11.0661
۱۵	-11.0667
▁ادا	-11.0667
▁ارزهای	-11.0674
▁CD	-11.0675
▁فعالیتهای	-11.0682
▁لبه	-11.0684
▁اسراییل	-11.0684
▁خبرگزاری	-11.0684
▁جرایم	-11.0684
▁جملات	-11.0685
▁سوراخ	-11.0685
▁نازک	-11.0685
▁زغال	-11.0685
▁۲۰۱۹	-11.0687
تار	-11.0687
▁عطا	-11.0688
▁بادی	-11.0689
▁بشکه	-11.0694
▁حول	-11.0696
▁خواندم	-11.0699
▁گارد	-11.07
▁سالگرد	-11.0702
1)	-11.0705
▁آرا	-11.0707
انداز	-11.0715
mer	-11.0727
ریا	-11.0727
۱۱	-11.0728
▁لن	-11.0731
باید	-11.0734
▁st	-11.0736
▁Pre	-11.0736
▁هرکس	-11.0746
▁قفسه	-11.0751
▁اقلیمی	-11.0756
▁Windows	-11.0763
▁اذعان	-11.0763
▁اردوغان	-11.0763
▁بارسلونا	-11.0763
▁کنوانسیون	-11.0763
▁بعید	-11.0763
▁ملحق	-11.0763
▁عصب	-11.0764
خواهد	-11.0764
▁تایوان	-11.0765
▁تفنگ	-11.0765
▁34	-11.077
▁گیل	-11.0771
▁فرضیه	-11.0772
▁بخورند	-11.0773
TI	-11.0774
▁برگزیده	-11.0776
▁وقفه	-11.0777
▁لزوما	-11.0779
▁ظاهراً	-11.0782
كن	-11.0786
اگ	-11.0787
▁امضای	-11.0787
▁120	-11.0789
▁خودروساز	-11.0793
▁اج	-11.0795
▁درمانگر	-11.0795
▁موها	-11.0795
▁فال	-11.0796
▁MS	-11.0796
▁یهود	-11.08
har	-11.0811
▁امتیازات	-11.0812
▁اومد	-11.0813
▁کارآفرین	-11.0826
▁كم	-11.083
سار	-11.0831
▁سارا	-11.0832
▁انحراف	-11.0841
▁تگزاس	-11.0841
▁منظومه	-11.0841
▁ناخالص	-11.0841
▁پروستات	-11.0841
▁۲۰۰۵	-11.0843
▁همسایگان	-11.0844
▁جسمانی	-11.0844
بورگ	-11.0846
▁تولیدکنندگان	-11.0846
▁پنل	-11.0853
اهی	-11.0854
▁چوبی	-11.0855
▁فراز	-11.0856
اکر	-11.0858
▁جیم	-11.0863
wi	-11.0864
فون	-11.0869
▁ضربان	-11.0869
▁Du	-11.0883
ark	-11.0889
ens	-11.0895
خوش	-11.0895
ach	-11.0905
روم	-11.0906
▁ابدی	-11.0912
▁دزدی	-11.0915
du	-11.0917
▁گذاشتند	-11.0917
▁University	-11.0921
▁دغدغه	-11.0921
▁پلاگین	-11.0921
▁پرسنل	-11.0921
▁مونت	-11.0922
▁تلفات	-11.0927
▁مجدداً	-11.0929
▁جانسون	-11.0932
ren	-11.0933
▁مزایا	-11.0933
خان	-11.0934
بط	-11.0934
▁بکنم	-11.0936
97	-11.0942
▁نتوان	-11.0947
۱۲	-11.0949
▁عجیبی	-11.0967
▁مشت	-11.0971
▁مایه	-11.0976
▁El	-11.0977
▁خال	-11.0977
▁شهردار	-11.0984
َل	-11.0986
▁Pe	-11.0986
5)	-11.0995
DC	-11.0999
▁تفاهم	-11.1001
▁ثانویه	-11.1001
▁صهیونیست	-11.1001
▁ببخشید	-11.1001
▁ادراک	-11.1001
▁نژادپرست	-11.1001
▁کاراکتر	-11.1001
▁کلسیم	-11.1001
▁حدیث	-11.1004
▁لامپ	-11.1004
▁WEB	-11.1005
▁ارگان	-11.1005
▁دوگانه	-11.1006
▁خالق	-11.1006
▁پوسته	-11.1014
▁نهفته	-11.1014
▁**	-11.1016
RE	-11.1017
▁کین	-11.1017
▁اعضا	-11.1018
▁نشر	-11.1026
▁قبر	-11.1029
▁نبودم	-11.103
▁زو	-11.1031
▁اعلامیه	-11.1032
row	-11.1034
39	-11.1038
...»	-11.1041
▁حرم	-11.1048
28	-11.105
گير	-11.1056
▁هیل	-11.1058
حدود	-11.1059
▁گان	-11.1061
68	-11.1064
▁کوچکترین	-11.1064
▁شناسم	-11.1066
▁کُ	-11.1079
▁بنگ	-11.1079
▁تداوم	-11.1081
▁محاصره	-11.1081
▁منتخب	-11.1081
▁كشور	-11.1081
▁تبریک	-11.1082
▁Comp	-11.1085
▁پارکینگ	-11.1086
لات	-11.1088
▁مکانیسم	-11.1093
بک	-11.1094
▁زیباترین	-11.1095
كار	-11.1101
▁حاد	-11.1103
▁رسان	-11.1103
▁دویدن	-11.1113
ost	-11.1121
▁یافتند	-11.1122
▁تاجر	-11.1124
▁کارآفرینان	-11.1126
▁نداشتن	-11.113
▁شل	-11.1135
69	-11.1135
دوست	-11.1151
▁پرسیدم	-11.1155
▁65	-11.1155
▁مکانیک	-11.1156
ib	-11.1156
▁دلش	-11.1158
ایل	-11.116
▁Com	-11.1161
▁حشرات	-11.1163
▁رطوبت	-11.1163
▁متحمل	-11.1163
▁پنتاگون	-11.1163
▁همبستگی	-11.1163
▁سکته	-11.1163
▁علایم	-11.1163
▁زیرزمینی	-11.1163
▁واژن	-11.1164
▁واجب	-11.1165
▁سینمایی	-11.1171
مردم	-11.1175
vo	-11.1177
▁کیم	-11.1183
▁ژنتیک	-11.1187
▁محلول	-11.1192
لیف	-11.1192
▁اى	-11.1199
عب	-11.1201
▁کارگزار	-11.1203
▁190	-11.1206
OR	-11.1208
▁بخور	-11.1212
▁قله	-11.1213
▁شدگان	-11.1214
اقل	-11.1219
▁کشاند	-11.1224
mon	-11.1226
استفاده	-11.1229
dd	-11.1229
▁Red	-11.1233
▁موثرتر	-11.124
▁زدم	-11.1242
▁قضا	-11.1242
▁کشش	-11.1243
▁ارجاع	-11.1245
▁مثابه	-11.1245
▁چارلز	-11.1245
▁امتداد	-11.1245
▁لایحه	-11.1245
▁توازن	-11.1245
▁پدربزرگ	-11.1246
▁سوزن	-11.1246
▁چاره	-11.1247
▁بانکداری	-11.1251
▁آدام	-11.1252
▁پودر	-11.1252
▁33	-11.1253
▁مجزا	-11.1255
▁صحرا	-11.1256
قدرت	-11.1257
▁۱۵۰	-11.126
-20	-11.1266
▁پاتر	-11.1268
▁یابید	-11.1271
▁تیز	-11.1298
▁سار	-11.1301
▁شناسیم	-11.1302
جد	-11.1318
▁نوشتار	-11.1321
کات	-11.1321
۳۰	-11.1322
▁You	-11.1324
▁Microsoft	-11.1327
▁بحرین	-11.1327
▁فتح	-11.1327
▁خارق	-11.1328
▁داوود	-11.1328
▁گلخانه	-11.1332
▁عیب	-11.1335
▁مجری	-11.1335
▁2001	-11.1336
▁غالبا	-11.134
▁تأثیرات	-11.134
▁هدفمند	-11.1341
▁پارس	-11.1343
▁مفهومی	-11.1344
▁بندگان	-11.1349
▁نس	-11.1354
▁پذیرفتن	-11.1359
▁55	-11.1361
امین	-11.1361
▁آز	-11.1366
▁پیک	-11.1367
▁کلان	-11.1369
ome	-11.137
▁Go	-11.1384
bi	-11.1387
mm	-11.1392
▁ایدز	-11.1409
▁عبدال	-11.141
٧	-11.1411
▁مجارستان	-11.1411
▁نیجریه	-11.1411
▁حروف	-11.1411
▁تابلو	-11.1413
▁مبهم	-11.1414
▁گذراندن	-11.1416
بیل	-11.1417
app	-11.142
▁شناور	-11.1421
▁سئوال	-11.1425
▁گرین	-11.1429
ساله	-11.143
PC	-11.1432
اشی	-11.1433
▁بزنم	-11.1436
▁فعل	-11.144
▁متد	-11.1447
▁گرمایش	-11.1448
لینگ	-11.1449
▁مقرر	-11.1456
mb	-11.1456
si	-11.1482
ئل	-11.1485
▁قدمت	-11.149
سری	-11.1492
▁پرش	-11.1493
▁ریچارد	-11.1495
▁گوسفند	-11.1495
▁سوژه	-11.1495
▁معدود	-11.1495
▁غرور	-11.1495
▁رکود	-11.1496
▁هیولا	-11.1496
▁تبلت	-11.1497
▁1999	-11.1497
▁ایرانیان	-11.1497
▁بیابان	-11.1497
▁يك	-11.1499
▁فلج	-11.1502
▁توالت	-11.1504
▁Di	-11.1506
▁اسمیت	-11.1513
▁Pri	-11.1515
▁مزد	-11.1516
▁نوک	-11.1522
نوع	-11.1528
▁شیخ	-11.1531
▁سودان	-11.1531
SE	-11.1531
▁Ac	-11.1531
▁Ste	-11.1535
▁جامد	-11.1536
ba	-11.1537
غال	-11.1538
▁فول	-11.1539
▁بدو	-11.1544
IA	-11.1544
▁تأثیرگذار	-11.1544
پو	-11.1545
▁مبارز	-11.1547
▁بازه	-11.1549
▁95	-11.1553
▁شمارش	-11.1555
▁طرفین	-11.1556
▁ایدئولوژی	-11.156
▁عزیزان	-11.1561
آموز	-11.1564
ev	-11.1565
IF	-11.1567
▁عموما	-11.1567
▁ناظر	-11.1568
27	-11.1569
▁پین	-11.1571
▁نیافت	-11.1574
چگونه	-11.1576
▁احکام	-11.1579
▁ارمنستان	-11.1579
▁تقصیر	-11.1579
▁نیوزیلند	-11.1579
▁تقویم	-11.1579
▁ارباب	-11.1579
▁تسکین	-11.158
▁مقدماتی	-11.158
▁Game	-11.158
▁ايران	-11.1581
▁ایراد	-11.1582
▁1970	-11.1582
▁خزانه	-11.1583
▁شکوه	-11.1583
▁لطفاً	-11.1584
▁ناشر	-11.1588
گور	-11.1588
▁الآن	-11.1589
▁تخمک	-11.1598
▁پیشبرد	-11.1599
▁اطرافیان	-11.16
▁گفتگوی	-11.1601
▁دانسته	-11.1606
▁چاقو	-11.1608
▁دنباله	-11.161
ure	-11.1619
▁شنیدم	-11.1628
ox	-11.1631
▁کاربردهای	-11.1637
▁كا	-11.1646
▁داران	-11.1648
گشت	-11.165
▁بتا	-11.1652
▁سفت	-11.1655
▁میلیاردها	-11.1661
▁خفیف	-11.1665
▁شیعیان	-11.1665
▁محتمل	-11.1665
▁48	-11.1667
▁حاج	-11.1667
▁دیپلمات	-11.1668
زون	-11.1668
▁‘	-11.1668
▁شورشیان	-11.1669
▁سرشار	-11.1672
▁پدران	-11.1674
▁صحت	-11.1675
▁چنگ	-11.1677
rn	-11.1678
▁نتواند	-11.1679
▁هفتاد	-11.1681
▁شهدا	-11.1685
▁دادید	-11.1695
▁تکمیلی	-11.1705
▁مردانه	-11.1718
▁رف	-11.172
▁Man	-11.1724
ana	-11.1727
▁فعلا	-11.173
0،000	-11.1736
بسیار	-11.1737
▁مجرمان	-11.174
▁موز	-11.174
85	-11.1744
▁هرگاه	-11.1749
▁هندو	-11.1749
▁مجروح	-11.1751
▁سوابق	-11.1751
▁١٩	-11.1751
▁سلیمان	-11.1751
▁کارآموزی	-11.1751
▁ذره	-11.1754
▁We	-11.1756
ئین	-11.1757
▁سانتی	-11.1758
▁نابینا	-11.1759
▁تابعیت	-11.176
▁کیلو	-11.176
▁فلزات	-11.1762
▁شست	-11.1762
اول	-11.1763
قد	-11.1764
32	-11.1768
▁نیامده	-11.1769
نوش	-11.1769
▁نقدی	-11.1776
][	-11.1782
▁سخنران	-11.1788
▁دستکاری	-11.1794
▁نکاتی	-11.1796
▁اخ	-11.1802
▁نص	-11.1804
رضا	-11.1804
ah	-11.1813
hu	-11.1819
▁اعتقادات	-11.1823
tu	-11.1824
▁پسرم	-11.1825
▁صالح	-11.1838
▁هاروارد	-11.1838
▁بیولوژیکی	-11.1838
▁حماس	-11.1838
we	-11.184
▁افسرده	-11.1841
▁جماه	-11.1841
زمین	-11.1842
▁حر	-11.1853
▁رک	-11.1864
تنها	-11.1866
ley	-11.187
▁خوراک	-11.1873
زندگی	-11.1877
▁الح	-11.1877
▁دوستانش	-11.1881
▁سلولهای	-11.1892
▁کاپ	-11.1896
▁خواستیم	-11.1898
دانست	-11.1904
گرفت	-11.1907
▁استیو	-11.1907
▁عصبانیت	-11.1908
البته	-11.191
pp	-11.1915
▁غافل	-11.1918
▁گزار	-11.1922
▁ویلیام	-11.1922
کد	-11.1925
▁مظنون	-11.1926
▁برانگیخت	-11.1926
▁بیابید	-11.1926
▁لینوکس	-11.1926
▁استروئید	-11.1926
▁استارتاپ	-11.1926
▁هول	-11.1926
▁کابوس	-11.1926
▁مهربانی	-11.1927
▁لاغر	-11.1927
▁قوه	-11.1931
▁برگه	-11.1933
▁خورید	-11.1935
log	-11.1937
47	-11.1941
▁خلقت	-11.1941
▁جوری	-11.1945
بدون	-11.1945
▁فرماندار	-11.195
ائل	-11.1957
eb	-11.1957
▁%	-11.1961
یشن	-11.1961
کول	-11.1962
IT	-11.1965
fe	-11.1968
▁زنانه	-11.197
۱۳	-11.1971
▁فشارهای	-11.1973
▁بزن	-11.1976
48	-11.1984
شب	-11.1994
▁بدانم	-11.1995
tro	-11.1999
▁بچ	-11.2
my	-11.2005
▁آد	-11.2009
low	-11.2014
▁امتناع	-11.2014
▁صراحت	-11.2014
▁کثیف	-11.2014
▁۱۹۷۰	-11.2015
▁فرستند	-11.2015
ya	-11.2015
▁ختم	-11.2017
▁زودرس	-11.2018
▁عکاس	-11.2026
▁بخت	-11.2032
▁مچ	-11.2034
▁37	-11.2036
ولین	-11.204
▁r	-11.2057
▁پي	-11.2058
▁افزارهای	-11.207
ey	-11.2075
▁غیرنظامی	-11.2086
کنندگان	-11.2086
▁۱۰۰۰	-11.2088
▁مکانیکی	-11.2089
▁ابزارها	-11.209
آنچه	-11.2093
net	-11.2093
26	-11.2095
ave	-11.2102
▁معاینه	-11.2103
▁نخواهم	-11.2103
▁تورنتو	-11.2104
use	-11.2104
▁فواید	-11.2104
▁گمشده	-11.2104
▁شکارچی	-11.2105
▁جابجایی	-11.2105
▁بلوغ	-11.2106
▁App	-11.2107
▁منظره	-11.2108
▁عملا	-11.2108
▁مخصوصاً	-11.2111
▁سونی	-11.2115
▁حتا	-11.2118
▁اسکار	-11.212
▁نوجوانی	-11.2121
▁بترس	-11.2122
▁ادو	-11.2123
▁ترسند	-11.2124
lock	-11.2125
▁ارتقای	-11.2126
سیل	-11.2129
عج	-11.2133
ek	-11.2143
▁مود	-11.2147
▁ببر	-11.2155
ator	-11.2165
▁فرماندهی	-11.2165
66	-11.2166
▁فریم	-11.2167
86	-11.2173
▁کوک	-11.2173
▁گریز	-11.2175
▁فهمیدم	-11.218
▁تحقیر	-11.2194
▁جنایات	-11.2194
▁توکیو	-11.2194
▁کاپیتان	-11.2194
▁اپراتور	-11.2194
▁رونق	-11.2194
▁تصرف	-11.2194
▁مهلت	-11.2195
▁خوک	-11.2196
▁سقط	-11.2196
▁نوسان	-11.2198
▁۳۰۰	-11.2202
▁وطن	-11.2205
▁نامگذاری	-11.2209
are	-11.221
▁پیدایش	-11.2211
▁دیکتاتوری	-11.2214
▁استادان	-11.2224
▁نج	-11.2224
▁باورهای	-11.2228
▁نوشتم	-11.2239
▁شناختن	-11.2245
76	-11.2247
▁گانه	-11.2247
▁قطره	-11.2251
▁ایزو	-11.2252
▁منتقدان	-11.2252
▁pro	-11.2257
▁جلوتر	-11.2259
▁کالاها	-11.2267
▁ماجرای	-11.2282
▁Black	-11.2284
▁تداخل	-11.2284
▁اعظم	-11.2284
▁انطباق	-11.2284
▁بفهمید	-11.2284
▁باقیمانده	-11.2284
▁معادن	-11.2284
▁ملزم	-11.2284
▁اثربخشی	-11.2285
▁حسابرسی	-11.2285
▁خمینی	-11.2285
▁قریب	-11.2285
▁بسیج	-11.2285
▁گمرک	-11.2286
▁جلد	-11.2287
فرد	-11.2288
▁لیوان	-11.2289
▁مؤسسات	-11.229
▁{	-11.229
▁بنوشید	-11.229
▁حجاب	-11.2292
way	-11.2293
▁پدیدار	-11.2296
▁ناشناس	-11.2297
▁سور	-11.2299
▁امداد	-11.23
red	-11.2301
▁تفریحی	-11.2305
▁بخواند	-11.2306
▁افسران	-11.2317
▁كل	-11.2323
▁کانون	-11.2329
▁بردم	-11.2331
میر	-11.2332
▁أ	-11.2346
▁نژادی	-11.2347
▁نگرفت	-11.2354
▁هورمونی	-11.2361
▁آلت	-11.2364
▁خصوصا	-11.2365
ناک	-11.2365
▁نیروها	-11.2367
▁معمار	-11.2372
▁عضله	-11.2376
▁لعنت	-11.2376
▁ناقص	-11.2376
▁نگیرید	-11.2376
▁عمدتاً	-11.2376
▁شفا	-11.2377
▁موسوم	-11.2377
▁میگیرد	-11.2377
▁متفکر	-11.2378
▁Web	-11.2379
▁پناهگاه	-11.2379
زایی	-11.2381
▁نيز	-11.2382
▁ماهیچه	-11.2382
▁انگل	-11.2383
فان	-11.2385
NS	-11.2387
gr	-11.2392
جایی	-11.2396
اچ	-11.2399
▁هیچگونه	-11.2399
▁بخورد	-11.2401
ress	-11.241
▁دخترش	-11.2415
▁اَ	-11.2419
▁اصطلاحات	-11.2424
33	-11.2425
ney	-11.2427
ound	-11.245
▁استارت	-11.2451
٢	-11.2453
▁Mon	-11.2462
▁برپا	-11.2468
▁ازجمله	-11.2469
▁اورشلیم	-11.2469
▁تراکنش	-11.2469
▁ارقام	-11.2469
▁پیراهن	-11.2469
▁پاسپورت	-11.2469
▁توماس	-11.2469
▁پناهندگی	-11.2469
▁جناح	-11.247
▁مجاور	-11.247
▁چاله	-11.2471
▁سپاس	-11.2471
▁زیتون	-11.2471
▁شیرینی	-11.2472
▁بخوانند	-11.2477
كر	-11.2481
cl	-11.2482
uc	-11.2483
▁بارگذاری	-11.2483
واقع	-11.2487
گروه	-11.2487
▁k	-11.2488
▁صفات	-11.249
▁نهایتا	-11.2494
▁600	-11.2496
▁دانستید	-11.25
▁خیز	-11.2505
▁لنین	-11.2512
▁توهم	-11.2514
▁نابرابری	-11.2516
▁لخت	-11.2518
cc	-11.2518
▁برادرش	-11.2533
▁جنگنده	-11.2535
▁بنیادین	-11.2538
▁39	-11.2544
▁قبرس	-11.2549
▁رفتیم	-11.2553
▁Mac	-11.2555
▁دیدید	-11.2558
▁جغرافیا	-11.256
▁بفهمیم	-11.2562
▁سزاوار	-11.2562
▁فاطمه	-11.2562
▁تقدیر	-11.2562
▁غروب	-11.2562
▁فنلاند	-11.2562
▁مرموز	-11.2562
▁لرزه	-11.2562
▁بسازیم	-11.2562
▁سوءاستفاده	-11.2563
▁مساوی	-11.2563
▁ثمر	-11.2564
▁محتویات	-11.2566
▁پاکسازی	-11.2568
▁مسکونی	-11.2569
▁بزنیم	-11.2569
▁متکی	-11.2572
▁2002	-11.2574
▁Air	-11.2574
▁Jo	-11.2577
▁آسم	-11.2579
رل	-11.258
ari	-11.258
63	-11.258
US	-11.2586
▁طبقاتی	-11.2598
▁چهارده	-11.26
▁نوبه	-11.2602
cha	-11.2615
آب	-11.2617
▁زنیم	-11.2622
ُر	-11.2631
▁موس	-11.2634
▁نویسم	-11.2636
گذر	-11.2636
▁85	-11.2641
▁مط	-11.2646
▁عفو	-11.2656
▁رختخواب	-11.2657
▁زیردریایی	-11.2657
▁قاعدگی	-11.2657
▁لیسانس	-11.2657
▁جوایز	-11.2657
▁فاسد	-11.2657
▁حکایت	-11.2657
ژن	-11.2657
▁اسامی	-11.2657
▁حسادت	-11.2658
▁ناوگان	-11.2658
▁۱۹۸۰	-11.2658
▁میرسد	-11.2658
▁میگوید	-11.2658
Re	-11.2666
▁هفتگی	-11.2673
▁سایز	-11.2674
▁تولیدکننده	-11.2674
▁۲٫	-11.2674
▁[[	-11.2678
▁مردها	-11.2681
▁IT	-11.2684
▁پاها	-11.2685
زده	-11.2691
▁كردن	-11.2692
tin	-11.2696
▁هکرها	-11.2702
OL	-11.2706
راست	-11.2709
▁مهمانان	-11.2719
▁افراط	-11.2729
▁شناسید	-11.2731
▁تد	-11.2732
شاه	-11.2732
yn	-11.2734
شخص	-11.2735
▁38	-11.2739
▁هرج	-11.2745
وکس	-11.2746
EN	-11.2751
▁شعله	-11.2752
▁هالیوود	-11.2752
▁عثمان	-11.2752
▁تریلیون	-11.2752
▁مصالح	-11.2752
▁منحرف	-11.2752
▁انجیل	-11.2752
▁فلسفی	-11.2752
▁همجنسگرا	-11.2752
▁پیکسل	-11.2753
▁فارکس	-11.2753
▁سهامداران	-11.2753
▁ندهد	-11.2755
▁داوطلبان	-11.2766
▁گرایانه	-11.2771
▁سنجش	-11.2772
ther	-11.2774
▁بگذار	-11.2777
▁رن	-11.2781
▁فرموده	-11.2783
▁پرسد	-11.2787
▁پنجمین	-11.2788
ier	-11.2795
▁پخته	-11.28
▁باریک	-11.28
▁کرو	-11.2801
۴۰	-11.2801
▁مختص	-11.2804
▁حجت	-11.2805
▁قید	-11.2811
ِل	-11.2813
ina	-11.2816
ریس	-11.2825
rit	-11.2831
▁سردرگم	-11.2848
▁ناراضی	-11.2848
▁مسلط	-11.2848
▁بزودی	-11.2848
▁کودتا	-11.2848
▁تشریح	-11.2848
▁۲۰۰۳	-11.2851
▁پیشگام	-11.2851
ative	-11.2851
▁تلف	-11.2852
[1]	-11.2852
▁پرداختند	-11.2864
59	-11.2867
▁اسیر	-11.2868
▁AC	-11.2869
▁آمدم	-11.2871
▁افتند	-11.2872
37	-11.2873
▁اسکی	-11.2877
▁مولکولی	-11.2878
▁ذاتی	-11.288
نمایی	-11.2881
کتاب	-11.2883
▁ــ	-11.2884
ood	-11.2895
َن	-11.2898
▁سنج	-11.2901
▁co	-11.2901
واره	-11.2902
tri	-11.2915
36	-11.2917
▁یونی	-11.2918
ler	-11.292
▁زم	-11.2924
▁انتشارات	-11.2936
▁نورون	-11.2939
▁آقایان	-11.2942
٥	-11.2945
▁ایمپلنت	-11.2945
▁تلگرام	-11.2945
▁معصوم	-11.2945
▁خداحافظی	-11.2945
▁مصمم	-11.2945
▁بسازند	-11.2945
▁غمگین	-11.2945
▁ناامیدی	-11.2946
▁پهن	-11.2946
▁شمسی	-11.2947
▁مجاهدین	-11.2947
view	-11.2948
▁مریض	-11.2948
▁ماهیگیری	-11.2949
RS	-11.295
▁رخداد	-11.2952
بوت	-11.2958
▁برگردان	-11.2961
▁توئیتر	-11.2963
▁Su	-11.2964
▁نمودن	-11.2964
▁نماییم	-11.2965
▁کتب	-11.2966
▁44	-11.2973
▁اعطای	-11.298
▁آله	-11.2981
ons	-11.2988
▁بشار	-11.2989
br	-11.2992
▁ادعاهای	-11.2994
▁گذاشتم	-11.2996
za	-11.3005
▁تومان	-11.3007
▁مؤمن	-11.3022
MP	-11.3022
رحم	-11.3022
▁بنام	-11.3025
▁250	-11.3027
▁همایش	-11.303
▁Hu	-11.3032
▁مز	-11.3036
برنامه	-11.3037
گین	-11.3037
٤	-11.3043
▁افزاید	-11.3043
▁بدبخت	-11.3043
▁تصدیق	-11.3043
▁وسعت	-11.3043
▁ببندید	-11.3043
▁ربوده	-11.3043
▁توقع	-11.3043
▁استقرار	-11.3043
▁زر	-11.3044
▁عبدالله	-11.3044
▁ردیف	-11.3044
▁۱۹۹۰	-11.3044
▁سناتور	-11.3047
▁Time	-11.3048
95	-11.3048
▁شکن	-11.3049
RI	-11.305
▁شیلی	-11.3052
ult	-11.3053
DS	-11.3057
▁میرند	-11.3057
▁Star	-11.3058
▁شستن	-11.306
وتو	-11.306
▁سنا	-11.3062
rs	-11.3067
▁مایعات	-11.3067
▁مطمئناً	-11.3073
▁کشورمان	-11.3077
▁منظورم	-11.3078
سیون	-11.308
▁اساساً	-11.3093
▁نمایشگر	-11.3097
▁ماندند	-11.31
55	-11.3114
▁هرچیزی	-11.3122
▁بلندتر	-11.3131
ویت	-11.3131
6)	-11.3139
▁مناسبت	-11.314
▁رقبای	-11.314
▁بسکتبال	-11.3142
▁تستوسترون	-11.3142
▁تسریع	-11.3142
▁عناوین	-11.3142
▁فلوریدا	-11.3142
▁فیلمبرداری	-11.3142
▁مسواک	-11.3142
▁خوشمزه	-11.3142
▁بنویسم	-11.3142
▁دهکده	-11.3142
▁پز	-11.3142
▁دوقلو	-11.3142
▁معتاد	-11.3142
▁پیانو	-11.3143
▁نداره	-11.3144
▁العمل	-11.3144
▁فوراً	-11.3146
▁عرق	-11.3147
ولوژیک	-11.3149
قبل	-11.3152
▁بازگشته	-11.3154
▁استرالیایی	-11.3158
▁ناچیز	-11.316
▁امگا	-11.3161
جین	-11.3173
▁کشاورز	-11.3178
▁حرارتی	-11.3182
▁اتصالات	-11.3186
▁۶۵	-11.3194
St	-11.3199
HA	-11.3216
▁الن	-11.3217
▁۲۹	-11.3218
▁راهکارهای	-11.3226
▁مامور	-11.3228
▁گرافیکی	-11.3229
▁گرو	-11.3229
38	-11.3231
۱۴	-11.3234
فقط	-11.3235
gi	-11.3236
▁AM	-11.3238
▁At	-11.324
▁اژدها	-11.3242
▁تفکیک	-11.3242
▁درازمدت	-11.3242
▁مبتدی	-11.3242
▁پیتزا	-11.3243
▁مسایل	-11.3243
▁پوشه	-11.3244
عطوف	-11.3245
ans	-11.3247
▁پانل	-11.325
▁نهاده	-11.325
▁رسیدیم	-11.3251
▁سرنشین	-11.3252
▁بازاریابان	-11.3254
▁اندیشید	-11.3256
▁زدایی	-11.326
▁دیوارهای	-11.3264
▁دائما	-11.3268
▁شوهرش	-11.3271
amp	-11.3279
وژن	-11.3281
▁کوانتومی	-11.3286
▁نویسان	-11.3291
لوس	-11.3301
يده	-11.3301
یزم	-11.3302
AA	-11.3308
▁نگو	-11.3313
وجود	-11.3321
▁جد	-11.3323
▁بدنتان	-11.3326
▁دندانپزشکی	-11.3329
▁فیلیپ	-11.3343
▁لغت	-11.3343
▁اسطوره	-11.3343
▁نزول	-11.3343
▁اوپک	-11.3343
▁اسکات	-11.3344
▁گذرنامه	-11.3345
▁فهمیدن	-11.3346
ارزش	-11.3348
▁نيست	-11.335
▁خوانیم	-11.3353
▁۲۰۰۱	-11.3362
▁Gu	-11.3369
▁چاق	-11.338
▁۱٫	-11.3382
▁روتر	-11.3385
▁شایعات	-11.3391
▁نکنم	-11.3394
۶۰	-11.3403
▁انتها	-11.3406
▁مربیان	-11.3409
▁جستجوگر	-11.3428
▁اسپا	-11.3428
▁راهبرد	-11.3429
ممکن	-11.3434
▁کاندیدا	-11.3436
ins	-11.3437
▁رسما	-11.3438
▁وزنه	-11.3443
▁اصفهان	-11.3445
▁بلغارستان	-11.3445
▁سرماخوردگی	-11.3445
▁غیرمنتظره	-11.3445
▁مواضع	-11.3445
▁قصر	-11.3445
▁↑	-11.3445
▁کلینیک	-11.3445
▁روزرسانی	-11.3446
▁تکلیف	-11.3446
▁یارانه	-11.3447
▁نشنید	-11.3447
▁مبلمان	-11.3448
▁تجلی	-11.3449
▁تعوی	-11.3449
▁استالین	-11.3452
ترس	-11.3456
▁عروسک	-11.347
▁47	-11.3475
▁Ta	-11.3485
▁تابش	-11.3485
دهد	-11.3485
▁Min	-11.3495
▁کشنده	-11.35
▁سول	-11.3508
▁سلطنت	-11.351
▁چکار	-11.352
ert	-11.3524
▁تخته	-11.3525
▁All	-11.3525
بزرگ	-11.3529
▁شاگرد	-11.3531
é	-11.3548
▁بعلاوه	-11.3548
▁مشاهدات	-11.3548
▁مسخره	-11.3548
▁فرستد	-11.3548
▁منصوب	-11.3548
▁فتنه	-11.3548
▁حیاط	-11.3548
▁ترفند	-11.3549
▁خانوار	-11.3549
▁آبشار	-11.3549
▁j	-11.355
-5	-11.3551
56	-11.3553
lt	-11.3556
▁نیافته	-11.3558
تاب	-11.3563
▁وجوه	-11.3563
▁محققین	-11.3567
دیگر	-11.357
▁بخشیده	-11.3573
▁القا	-11.3578
▁قطبی	-11.359
▁کشیش	-11.3595
100	-11.36
▁مهدی	-11.3601
▁نیوز	-11.3602
▁همسران	-11.3604
▁گیرم	-11.3605
جز	-11.3608
▁گنجاند	-11.3608
▁بشه	-11.3609
▁خوشه	-11.3627
▁نیل	-11.3641
▁ریه	-11.3643
ten	-11.3646
▁شایستگی	-11.3652
▁عارضه	-11.3652
▁تنبیه	-11.3652
▁مانیتور	-11.3652
▁→	-11.3652
▁بازبینی	-11.3653
ero	-11.3654
چنين	-11.3655
▁موازی	-11.3656
▁1960	-11.3656
▁کیفری	-11.3661
▁ذیل	-11.3661
بران	-11.3661
▁بازگو	-11.3661
کنید	-11.3661
▁گزارشگر	-11.3664
▁سلمان	-11.3664
▁معترضان	-11.3666
▁آکادمیک	-11.3669
ions	-11.367
▁طلبان	-11.367
الدین	-11.3674
▁سوق	-11.3681
▁منکر	-11.3683
▁مردگان	-11.3684
ME	-11.3685
ّر	-11.3692
ئه	-11.3696
ka	-11.3701
خورد	-11.3702
▁تعاملات	-11.3707
گذشت	-11.371
▁Par	-11.3711
▁بازنده	-11.3724
▁افکن	-11.3727
▁فدا	-11.3729
▁Fl	-11.373
▁مراجع	-11.3731
▁مرزها	-11.3746
انسان	-11.3746
▁معلول	-11.3755
▁اسکریپت	-11.3758
▁عظمت	-11.3758
▁غلظت	-11.3758
▁یوتیوب	-11.3758
▁ارواح	-11.3758
▁اعلان	-11.3758
▁بپذیرید	-11.3758
▁دمشق	-11.3758
▁تقدیم	-11.3758
▁خاکستری	-11.3758
▁شلوار	-11.3758
▁تقوا	-11.3763
▁بیس	-11.3765
▁کودکتان	-11.3765
▁غیبت	-11.3767
▁سالیانه	-11.3768
▁خیریه	-11.3769
▁تحلیلگران	-11.3774
▁راستش	-11.3774
▁پردازیم	-11.3784
▁صح	-11.3786
▁سکس	-11.3806
▁هد	-11.3815
چنین	-11.3823
▁دوستانتان	-11.3825
▁ریخت	-11.3826
▁خواهران	-11.3827
▁کنجکاوی	-11.3828
▁طبع	-11.383
▁پردازی	-11.3842
88	-11.3844
ax	-11.3846
آمیز	-11.3849
—	-11.3849
▁آلزایمر	-11.3864
▁مدیترانه	-11.3864
▁پیکربندی	-11.3864
▁پهلو	-11.3864
▁برخاست	-11.3864
▁زیارت	-11.3865
چون	-11.3865
▁Play	-11.3866
▁بقای	-11.3868
▁جنایی	-11.3869
▁ارگانیک	-11.3869
▁پرستاری	-11.3873
▁شمع	-11.3874
▁رسانند	-11.3886
▁برگرفته	-11.3889
und	-11.3895
▁43	-11.3897
▁حسگر	-11.39
OC	-11.3901
▁پذیرند	-11.3901
▁مزه	-11.3902
ize	-11.3902
▁سرود	-11.3903
▁پرسند	-11.392
▁ریو	-11.3923
ern	-11.3926
▁دورتر	-11.3935
RC	-11.3938
AL	-11.3942
45	-11.3945
▁حدودا	-11.3946
▁شنوند	-11.3948
خواب	-11.395
کوب	-11.395
شدن	-11.3959
▁دامن	-11.3959
▁خوردند	-11.396
the	-11.3964
▁شدیدتر	-11.3968
▁بیاموزید	-11.3972
▁مدیتیشن	-11.3972
▁بازجویی	-11.3972
▁سرچشمه	-11.3972
▁هیچکدام	-11.3972
▁حومه	-11.3972
▁ناچار	-11.3972
▁مخابر	-11.3972
▁زین	-11.3972
▁پرستش	-11.3972
▁مخزن	-11.3973
نفر	-11.3975
▁غافلگیر	-11.3981
34	-11.3981
57	-11.3982
▁فرستادن	-11.3983
▁ذهنیت	-11.3985
اغ	-11.3996
▁گزارشات	-11.3998
44	-11.3998
ection	-11.3999
▁آرزوهای	-11.3999
▁آشکارا	-11.4013
gu	-11.4019
▁Can	-11.4019
▁امپراطوری	-11.4019
gen	-11.4023
▁خانمان	-11.4026
لوک	-11.4026
▁رست	-11.4032
▁سنجی	-11.4037
▁فسیلی	-11.4041
آید	-11.4046
▁آه	-11.4053
▁اکسیدان	-11.4058
PD	-11.4076
▁نیکل	-11.4077
▁گذارم	-11.4077
▁اقلام	-11.408
▁مزاحم	-11.408
▁کاندوم	-11.408
▁علنی	-11.408
▁منشأ	-11.408
▁انزوا	-11.4081
▁نیاورد	-11.4081
▁کفایت	-11.4081
▁کبک	-11.4082
▁معرفت	-11.4082
▁طنز	-11.4082
▁آلبرت	-11.4084
▁(1)	-11.4086
▁شخصا	-11.4091
▁آیتم	-11.4095
▁99	-11.4112
▁ورزید	-11.4114
▁کنجکاو	-11.4117
▁سامان	-11.4123
▁۷۵	-11.4129
dia	-11.4135
▁برندهای	-11.4137
▁نشدند	-11.4159
▁سوسیالیستی	-11.4168
▁Mark	-11.4169
▁شوهرم	-11.417
▁64	-11.4175
▁Cor	-11.4175
▁فلش	-11.4176
تواند	-11.4181
▁ادبی	-11.4187
▁Next	-11.419
▁آلومینیوم	-11.419
▁تناسلی	-11.419
▁بروکسل	-11.419
▁انباشت	-11.419
▁جماعت	-11.419
▁تبیین	-11.4191
▁۱۹۶۰	-11.4192
▁عزیزم	-11.4192
▁مصوب	-11.4193
چند	-11.4193
▁مسافت	-11.4193
▁جناب	-11.4193
▁بوستون	-11.4194
▁<	-11.4196
▁Apple	-11.42
▁ریختن	-11.4204
۱۷	-11.4208
▁سس	-11.4209
شناخت	-11.4211
شوند	-11.4212
بهترین	-11.4228
پوست	-11.4235
▁توست	-11.4237
۹۳	-11.4242
۲۵	-11.4243
▁طبقات	-11.425
In	-11.4257
▁آورم	-11.4257
▁فلان	-11.4267
ادت	-11.4274
▁کوکی	-11.4278
64	-11.4282
نیز	-11.4282
ایند	-11.4286
▁گول	-11.4289
ium	-11.4293
TM	-11.4297
▁نشت	-11.4299
▁بنگلادش	-11.4301
▁تصویربرداری	-11.4301
▁سعادت	-11.4301
▁ظالم	-11.4301
▁متابولیسم	-11.4301
▁دخیل	-11.4301
▁مزارع	-11.4301
▁مشمول	-11.4301
▁حفره	-11.4301
▁قشنگ	-11.4301
▁بسيار	-11.4301
▁جلال	-11.4301
▁تراشه	-11.4302
▁براون	-11.4303
▁ادیان	-11.4309
▁درحالیکه	-11.431
▁داوران	-11.4312
▁شعبه	-11.4318
خوار	-11.4321
▁MA	-11.4323
mit	-11.4326
▁شکستگی	-11.433
▁کروز	-11.4338
▁اخت	-11.4339
▁Ka	-11.4341
▁نگارش	-11.4344
▁?	-11.4344
▁فهمند	-11.4348
ale	-11.4365
▁عمیقا	-11.4375
▁امپراتور	-11.4385
▁افزون	-11.4387
▁تبار	-11.4394
▁or	-11.44
▁دانا	-11.4402
EL	-11.4411
تخصیص	-11.4414
▁آپلود	-11.4414
▁اجلاس	-11.4414
▁تناقض	-11.4414
▁ضمانت	-11.4414
▁مسالمت	-11.4414
▁مواظب	-11.4414
▁مثانه	-11.4414
▁مساحت	-11.4414
▁هجوم	-11.4414
▁هضم	-11.4414
▁معضل	-11.4414
hr	-11.4414
▁مجلات	-11.4414
▁توییت	-11.4416
▁شریف	-11.4417
▁بنوش	-11.442
▁زوال	-11.4422
▁مراکش	-11.4423
▁مارکسیست	-11.4427
su	-11.4429
ase	-11.4438
▁SM	-11.444
▁تبعید	-11.444
▁تسهیلات	-11.4443
avi	-11.4454
▁برگردد	-11.4455
▁راهبردی	-11.4458
▁باروری	-11.446
ایران	-11.4464
▁کرای	-11.4465
▁بلاگ	-11.447
يک	-11.4471
▁پيش	-11.4474
▁Ru	-11.4479
▁کامپیوترهای	-11.4479
▁باراک	-11.4485
▁رفتارها	-11.4487
▁قاب	-11.4488
▁ابن	-11.4505
▁ایستاد	-11.4512
▁ایستادن	-11.4518
▁con	-11.452
▁سوزاند	-11.452
▁Business	-11.4527
▁آنفولانزا	-11.4527
▁بشنوید	-11.4527
▁حائز	-11.4527
▁طلوع	-11.4527
▁پرولتاریا	-11.4527
▁کپسول	-11.4527
▁تعدیل	-11.4527
▁عاقلانه	-11.4529
▁بکنیم	-11.4533
▁سوختگی	-11.4543
▁جت	-11.4544
▁بزرگراه	-11.4552
▁فک	-11.4561
▁دانستیم	-11.4564
que	-11.457
خیلی	-11.4582
▁قطعیت	-11.4582
بیت	-11.459
▁پروازهای	-11.4597
▁معماران	-11.4601
▁برخوردارند	-11.4602
▁هیدرو	-11.4606
▁دیکتاتور	-11.4616
▁تهاجم	-11.4616
▁بازرگان	-11.4617
75	-11.4618
96	-11.4621
۱۶	-11.4623
▁هرحال	-11.4628
▁پندار	-11.4637
▁اتو	-11.464
ٌ	-11.4642
▁اصحاب	-11.4642
▁الیزابت	-11.4642
▁فضاپیما	-11.4642
▁نخبگان	-11.4642
▁پاراگراف	-11.4642
▁Open	-11.4642
▁PHP	-11.4642
▁آیکون	-11.4642
▁مسوول	-11.4642
▁مبادلات	-11.4642
▁وگرنه	-11.4643
▁کمربند	-11.4643
▁سفیدپوست	-11.4644
▁بازپرداخت	-11.4645
▁نوکیا	-11.4645
▁فطر	-11.4647
▁سبد	-11.465
▁مجرم	-11.466
▁you	-11.4662
▁سالمندان	-11.4669
▁فقه	-11.4676
▁کابینه	-11.4683
▁سواد	-11.4687
wo	-11.4688
▁فرایندهای	-11.4692
کینز	-11.4692
▁پرسیدند	-11.4693
▁مسئولین	-11.4704
▁گن	-11.4706
▁ناتوان	-11.4709
۲۴	-11.4711
▁کاوش	-11.4711
▁ماکرو	-11.4718
يز	-11.4721
▁سپرد	-11.4733
87	-11.4734
توانند	-11.4739
▁مأمور	-11.4741
▁دیپلم	-11.475
▁So	-11.4752
▁Pi	-11.4757
▁تزئین	-11.4758
▁دادگستری	-11.4758
▁Android	-11.4758
▁تکثیر	-11.4758
▁فانتزی	-11.4758
▁مجتمع	-11.4758
▁مقصود	-11.4758
▁گستره	-11.4758
▁چمدان	-11.4759
▁گردآوری	-11.4759
▁لثه	-11.4759
▁گوارش	-11.4759
▁بورژوازی	-11.4759
▁۲۰۰۷	-11.4761
▁هاشمی	-11.4761
▁مجرد	-11.4762
▁تخمدان	-11.4763
▁یادبود	-11.4767
▁Dis	-11.4767
تحول	-11.4774
▁کفر	-11.4787
▁com	-11.4787
بعد	-11.4787
سیس	-11.4788
▁مقرو	-11.4797
▁الکترون	-11.4799
▁Act	-11.4814
▁بگذارم	-11.4817
▁کدهای	-11.4827
▁برکت	-11.4829
▁Str	-11.483
▁مهد	-11.4833
▁ریاض	-11.4833
▁یازده	-11.4834
▁گرانش	-11.4838
▁51	-11.484
▁سیاستمدار	-11.4848
▁تبعی	-11.4854
▁Per	-11.486
▁دروغگو	-11.4861
▁انسانیت	-11.4863
▁اسمش	-11.4867
▁CA	-11.4869
۸۰	-11.4873
▁1998	-11.4876
▁بیهوده	-11.4876
▁هپاتیت	-11.4876
▁تهویه	-11.4876
▁بالستیک	-11.4876
▁شركت	-11.4876
▁حباب	-11.4876
▁شانگهای	-11.4876
▁صخره	-11.4876
▁شنوید	-11.4877
▁سوسیالیسم	-11.4877
▁Data	-11.4877
▁1996	-11.4878
▁امضاء	-11.4879
▁شانزده	-11.4879
▁GPS	-11.488
▁شنود	-11.4881
▁استناد	-11.4885
▁پرفروش	-11.4887
▁تشر	-11.4889
▁میانمار	-11.4891
▁کارگیری	-11.4891
شاید	-11.4893
▁ماموران	-11.4894
▁محکومیت	-11.4898
▁نمیتواند	-11.49
line	-11.4909
▁معتقدیم	-11.4917
▁داو	-11.4926
نبرگ	-11.4938
ّا	-11.4941
یابد	-11.4943
طرف	-11.4947
وارد	-11.4947
▁اُ	-11.4952
▁41	-11.4953
▁آموزد	-11.4957
▁AI	-11.4958
▁جابه	-11.4969
ling	-11.4978
▁تجهیز	-11.4986
▁صلاح	-11.4992
ous	-11.4995
‬	-11.4995
▁امیرالمؤمنین	-11.4995
▁انفرادی	-11.4995
▁باورنکردنی	-11.4995
▁غیرفعال	-11.4995
▁مبالغ	-11.4995
▁بپذیرد	-11.4995
▁مناقشه	-11.4995
▁سلیقه	-11.4995
▁هجده	-11.4995
▁اشباع	-11.4995
▁استروژن	-11.4995
▁Super	-11.4996
▁حریف	-11.4996
▁خلوت	-11.4997
▁وجدان	-11.4997
▁مبدل	-11.4998
▁۲۰۰۶	-11.4998
▁ذوب	-11.4998
▁بازگردد	-11.5003
▁تشک	-11.5005
▁جوهر	-11.5005
▁جرج	-11.5006
▁عقلانی	-11.5007
گرفته	-11.5009
▁42	-11.5009
نمود	-11.501
▁مدافعان	-11.5021
tter	-11.5029
مندان	-11.5036
▁Am	-11.5043
lay	-11.5049
▁پولدار	-11.5052
▁كردند	-11.5054
پایه	-11.5056
▁آلن	-11.506
▁مدرس	-11.5061
▁عمان	-11.5063
▁رویدادها	-11.5072
▁جولی	-11.5073
CH	-11.5076
▁چیه	-11.5087
▁حافظ	-11.5099
▁ژل	-11.51
▁خدایا	-11.5104
▁نداری	-11.5111
امروز	-11.5116
▁اسماعیل	-11.5116
▁الجزایر	-11.5116
▁فستیوال	-11.5116
▁مشروط	-11.5116
▁رجوع	-11.5116
▁ممكن	-11.5116
▁مقوله	-11.5116
▁رفیق	-11.5116
▁تعاون	-11.5116
▁نواخت	-11.5116
▁نصیب	-11.5117
▁نجوم	-11.5118
▁معلولیت	-11.5119
ara	-11.5119
▁بویژ	-11.512
▁نمي	-11.5128
▁قمار	-11.5131
باشد	-11.5132
day	-11.5135
▁ملایم	-11.5136
▁نخورده	-11.5139
▁نزن	-11.5142
▁فیلمنامه	-11.5142
▁نوروز	-11.5146
air	-11.5146
89	-11.5147
▁بخوان	-11.5149
▁کویت	-11.516
▁كنم	-11.5161
پدر	-11.5168
▁مُ	-11.5171
▁میدانید	-11.518
٠٠	-11.5183
93	-11.5189
▁خوشبخت	-11.519
▁۴۰۰	-11.5197
▁۳۴	-11.5197
▁ژان	-11.5208
back	-11.5208
▁ES	-11.5215
▁اسپری	-11.5221
▁پارا	-11.5222
▁تقریب	-11.5225
▁دوبار	-11.5227
51	-11.5228
▁ابرها	-11.5228
ؤ	-11.5235
EP	-11.5237
▁اتوماسیون	-11.5238
▁اخطار	-11.5238
▁اطفال	-11.5238
▁اقتدار	-11.5238
▁حفاری	-11.5238
▁روانپزشک	-11.5238
▁عنکبوت	-11.5238
▁غیرمستقیم	-11.5238
▁مداخلات	-11.5238
▁بفهمند	-11.5238
▁CSS	-11.5238
▁لقب	-11.5238
▁درنهایت	-11.5238
▁مکتب	-11.5238
▁جهات	-11.5238
▁Auto	-11.5239
▁گیتس	-11.5239
07	-11.5241
▁اخوان	-11.5245
▁پلاک	-11.5248
▁تنبل	-11.5249
▁ناو	-11.5256
▁عکاسان	-11.5263
▁خردمند	-11.5269
▁بدهکار	-11.5271
▁فرید	-11.5274
▁اپرا	-11.5277
▁ورزشکار	-11.5279
ile	-11.5279
آیی	-11.528
▁آنتونی	-11.5296
▁1.5	-11.5303
فیل	-11.5303
62	-11.5307
هنگام	-11.5316
▁زنید	-11.5318
▁Of	-11.5321
▁یزد	-11.5328
▁ریش	-11.5337
▁شیک	-11.5345
ئوس	-11.535
▁دکوراسیون	-11.5361
▁صابون	-11.5361
▁منفعت	-11.5361
▁آشامیدنی	-11.5361
▁اتباع	-11.5361
▁کوچولو	-11.5361
▁گلوکز	-11.5361
▁اکوسیستم	-11.5361
▁نامرئی	-11.5361
▁برگردید	-11.5361
▁لحن	-11.5361
▁کریستال	-11.5361
▁زامبی	-11.5362
▁سانسور	-11.5362
▁تلفظ	-11.5362
▁مخارج	-11.5362
▁مسمومیت	-11.5363
▁1989	-11.5363
▁سیزده	-11.5364
▁نویسند	-11.5364
▁فیزیکدان	-11.5364
31	-11.5372
▁بلیت	-11.5378
▁تکنولوژیکی	-11.5378
TV	-11.5384
آیند	-11.5386
▁مباد	-11.5386
▁46	-11.5387
▁بیکار	-11.5392
▁ني	-11.5397
ram	-11.5397
▁۳۶	-11.5399
▁گار	-11.5402
▁کامپیوترها	-11.5402
▁Mode	-11.5421
▁سوپ	-11.5427
▁چو	-11.5441
▁اکت	-11.5444
▁SD	-11.545
فهم	-11.5453
▁خطاهای	-11.5458
معمول	-11.5467
ئون	-11.5483
▁جابجا	-11.5484
توانیم	-11.5484
▁شین	-11.5484
▁سوسیال	-11.5484
▁آمریكا	-11.5486
▁امپریالیستی	-11.5486
▁شریعت	-11.5486
▁ناگزیر	-11.5486
▁نزاع	-11.5486
▁الکساندر	-11.5486
▁نصیحت	-11.5486
▁توابع	-11.5486
▁ایسلند	-11.5486
▁شفاهی	-11.5487
▁زهرا	-11.5487
▁چيز	-11.5488
▁Free	-11.5489
▁Dead	-11.5489
▁John	-11.5489
▁خوریم	-11.5497
▁بفرستید	-11.5498
▁عاج	-11.5499
▁اسپم	-11.5501
▁حسب	-11.5515
▁فتو	-11.5524
▁عن	-11.5527
▁سوزان	-11.5539
▁شوق	-11.554
▁جنب	-11.554
form	-11.5541
فرانس	-11.5542
▁اشتها	-11.5546
NG	-11.5563
▁پرسیدن	-11.5565
▁ژانر	-11.5575
▁کردستان	-11.5594
فورد	-11.5594
49	-11.5595
ning	-11.5602
خوانده	-11.5603
▁بسپار	-11.5606
41	-11.5609
ward	-11.5611
‍	-11.5613
▁موعظه	-11.5613
▁آنچنان	-11.5613
▁بچرخ	-11.5613
▁مصدوم	-11.5613
▁اهالی	-11.5613
▁تعصب	-11.5613
▁استقامت	-11.5613
▁فرنگی	-11.5613
▁پناهجویان	-11.5613
▁تراکم	-11.5613
▁برگردم	-11.5613
▁سیارات	-11.5613
▁گندم	-11.5614
▁پیرمرد	-11.5614
▁پائین	-11.5615
▁1950	-11.5623
▁II	-11.5626
▁مادرید	-11.5629
▁بنگاه	-11.5631
کرده	-11.5631
▁آلفا	-11.5631
▁نرفته	-11.5638
▁ترسد	-11.5638
▁نارس	-11.5638
▁ساکنین	-11.5639
▁فون	-11.5662
▁خوانم	-11.5665
۲۰۰	-11.5673
hat	-11.5682
pi	-11.5683
▁مطالبات	-11.5688
▁Har	-11.5692
▁ثروتمندان	-11.5696
کشور	-11.571
اثر	-11.5715
▁On	-11.5722
▁انتقادات	-11.5723
تغییر	-11.5726
خداوند	-11.5726
ava	-11.5731
▁خرم	-11.5731
▁ID	-11.5733
▁هکر	-11.5739
▁مؤ	-11.5739
▁احداث	-11.5741
▁تصحیح	-11.5741
▁دپارتمان	-11.5741
▁سیلیکون	-11.5741
▁غفلت	-11.5741
▁مفاصل	-11.5741
▁جعفر	-11.5741
▁قاشق	-11.5741
▁آذر	-11.5741
▁چندگانه	-11.5741
▁بپوشان	-11.5742
▁كتاب	-11.5742
▁نمرات	-11.5742
▁هندوستان	-11.5742
▁اکشن	-11.5742
▁برکنار	-11.5742
▁مکانیزم	-11.5744
▁Post	-11.5747
▁تونم	-11.5754
▁لیمو	-11.5756
▁رومانی	-11.5759
▁بزرگوار	-11.5764
▁صفت	-11.5765
▁حسابدار	-11.5774
▁معما	-11.5775
▁Art	-11.5776
▁نیش	-11.5785
▁فرزندانشان	-11.5791
▁فهمد	-11.5797
fi	-11.5805
▁me	-11.5807
▁جف	-11.5808
vers	-11.5812
▁امتحانات	-11.5814
▁پلاس	-11.5815
▁کرون	-11.5817
ros	-11.5817
ise	-11.5822
▁خودروها	-11.5828
▁سوزاندن	-11.5835
▁پارامتر	-11.5837
▁جاست	-11.5854
▁اجبار	-11.5855
▁بازوی	-11.586
▁لئو	-11.5869
▁بدافزار	-11.5871
٦	-11.5871
▁تخلف	-11.5871
▁خویشاوند	-11.5871
▁دمکراسی	-11.5871
▁رونالدو	-11.5871
▁محموله	-11.5871
▁مکالمات	-11.5871
▁خرگوش	-11.5871
▁پارکینسون	-11.5871
▁سلطان	-11.5871
▁بیاوریم	-11.5871
▁ولتاژ	-11.5871
94	-11.5872
▁ادوارد	-11.5872
▁آسایش	-11.5872
▁1994	-11.5873
▁خشنود	-11.5873
▁LED	-11.5874
▁FDA	-11.5875
▁دوزخ	-11.5878
▁رژ	-11.5879
▁Back	-11.588
زبان	-11.588
▁وارن	-11.5884
▁چاه	-11.5886
▁فضانوردان	-11.5887
▁حکیم	-11.5889
▁ستاد	-11.5891
▁ad	-11.5893
▁ندیدم	-11.5896
▁مخاطبین	-11.5898
▁بين	-11.5903
▁پرستاران	-11.5907
▁منتقد	-11.5917
▁72	-11.5937
▁اعم	-11.5939
TH	-11.5939
▁مسلما	-11.5951
▁هیپو	-11.5957
قول	-11.5973
▁180	-11.5991
دولت	-11.5993
▁System	-11.6002
▁آمريکا	-11.6002
▁سرسخت	-11.6002
▁تراژدی	-11.6002
▁جزییات	-11.6002
▁سمینار	-11.6002
▁آنالیز	-11.6003
▁ترشح	-11.6003
▁اکرم	-11.6003
▁کینگ	-11.6004
▁نیرومند	-11.6004
▁اوتیسم	-11.6005
▁هلاک	-11.6008
▁کشیدند	-11.6014
▁اقتصاددانان	-11.6018
▁رسیم	-11.6018
▁خیس	-11.602
▁Cap	-11.6021
▁۳۲	-11.6022
▁ورزشگاه	-11.6023
▁بخوانم	-11.6032
▁دنده	-11.6033
▁حلال	-11.6034
▁خوام	-11.6035
▁ریک	-11.6051
▁Ko	-11.6051
▁شیفت	-11.6055
▁فقرات	-11.6056
▁کتک	-11.6057
▁گلف	-11.6063
ham	-11.6075
▁کارزار	-11.608
tics	-11.6091
▁اتکا	-11.6091
▁نگرد	-11.6103
▁مادام	-11.6107
▁نیامد	-11.6109
ux	-11.6113
▁گرایان	-11.6119
قانون	-11.6121
▁ADHD	-11.6136
▁آشفتگی	-11.6136
▁اقوام	-11.6136
▁بشردوستانه	-11.6136
▁بوئینگ	-11.6136
▁ناکارآمد	-11.6136
▁اصیل	-11.6136
▁سجده	-11.6136
▁بازنگری	-11.6136
▁چادر	-11.6136
▁رویترز	-11.6136
▁ادارات	-11.6136
▁۶۰۰	-11.6137
▁آنکارا	-11.6137
NET	-11.6137
▁دنیاست	-11.6137
▁مستعد	-11.6137
▁بردارند	-11.6137
▁جکسون	-11.6139
▁عفونی	-11.6139
▁تریلر	-11.6142
▁مشتق	-11.6142
جویان	-11.6145
▁گفتگوهای	-11.6151
۲۱	-11.6152
▁پروانه	-11.6155
▁هشتاد	-11.6158
▁اوّل	-11.6166
قابل	-11.6169
▁مؤمنان	-11.6176
▁شوکه	-11.6177
▁تله	-11.618
▁یگانه	-11.618
▁زیباست	-11.6182
▁نگفته	-11.6185
▁میگرن	-11.6188
▁فلسطینیان	-11.6215
▁Ju	-11.6221
▁فونت	-11.6224
▁کمیاب	-11.6241
▁کیو	-11.6241
▁سلب	-11.6247
▁انعکاس	-11.6271
▁جرائم	-11.6271
▁محتاط	-11.6271
▁پرسپولیس	-11.6271
▁API	-11.6271
▁اورانیوم	-11.6271
▁بیندازید	-11.6271
▁فرعون	-11.6271
▁کمونیسم	-11.6271
▁ببخشد	-11.6271
▁بيشتر	-11.6271
▁متوالی	-11.6271
▁همدردی	-11.6271
▁ندهند	-11.6271
▁تائید	-11.6271
▁گیتار	-11.6272
▁←	-11.6272
▁۲۰۲۰	-11.6274
▁ریتم	-11.6275
▁تسلا	-11.6275
▁آشتی	-11.6275
▁پناهنده	-11.6275
▁پرسشنامه	-11.6276
▁واگن	-11.6276
att	-11.6276
▁جوجه	-11.6276
▁رزمی	-11.6278
زیدنت	-11.6282
ji	-11.6284
▁زنجیر	-11.6288
fer	-11.6296
▁غیرنظامیان	-11.6297
▁آوا	-11.6297
غل	-11.631
▁سکو	-11.631
▁قدس	-11.6314
خرید	-11.6314
ition	-11.6319
▁هموار	-11.6322
▁خورم	-11.6323
▁(2)	-11.6338
ism	-11.6343
nal	-11.635
▁پوستر	-11.6352
▁49	-11.6352
sis	-11.6363
▁بتن	-11.6369
▁یازدهم	-11.6372
▁ندید	-11.6387
▁معترض	-11.639
#	-11.6392
▁Bar	-11.6406
▁بورژوا	-11.6407
▁اطلس	-11.6408
▁القاعده	-11.6408
▁القدس	-11.6408
▁تطابق	-11.6408
▁صرافی	-11.6408
▁قزاقستان	-11.6408
▁مرخصی	-11.6408
▁ویکتوریا	-11.6408
▁کروموزوم	-11.6408
▁Trans	-11.6408
▁لاستیک	-11.6408
▁نگویید	-11.6408
▁ابهام	-11.6408
▁تعارض	-11.6408
▁بمانم	-11.6408
▁شاغل	-11.6408
▁اعماق	-11.6409
▁بریزید	-11.6409
▁Power	-11.641
▁1997	-11.6411
▁پازل	-11.6412
[2]	-11.6415
▁فار	-11.6416
emp	-11.6419
▁خوانید	-11.6424
▁قدرتمندترین	-11.6427
▁جمهوریخواه	-11.6427
▁شمرده	-11.6428
▁نتوانند	-11.643
uk	-11.6431
٫۵	-11.6431
gin	-11.6433
▁نتوانستند	-11.644
▁بسا	-11.6449
▁بکن	-11.6458
den	-11.646
CR	-11.6463
>>	-11.6466
▁مورخ	-11.647
of	-11.6481
ble	-11.6493
▁متون	-11.6506
▁پادشاهان	-11.6513
▁نرس	-11.6518
yo	-11.6521
▁۳۱	-11.6522
▁نئو	-11.6522
▁پوک	-11.6527
▁بازاریاب	-11.653
طبیعی	-11.6531
▁پیوندهای	-11.6533
▁Galaxy	-11.6547
▁آکسفورد	-11.6547
▁غربالگری	-11.6547
▁متعارف	-11.6547
▁مسؤول	-11.6547
▁آلاینده	-11.6547
▁CRM	-11.6547
▁مشهود	-11.6547
▁هفده	-11.6547
▁جنجال	-11.6547
▁بمانیم	-11.6547
▁سهولت	-11.6547
▁تسخیر	-11.6547
▁بذر	-11.6547
▁Xbox	-11.6547
▁تقابل	-11.6548
▁خوشایند	-11.6549
▁پلاسما	-11.6552
▁پیامبران	-11.6553
▁کوسه	-11.6553
▁شکننده	-11.6553
▁بجز	-11.6554
▁آشام	-11.6554
▁دائماً	-11.6555
▁بخوریم	-11.6558
rm	-11.6559
hen	-11.6562
▁میلاد	-11.6563
▁شاهکار	-11.6566
▁IV	-11.657
▁نوشید	-11.6573
▁نرسید	-11.6576
ich	-11.6578
▁جرات	-11.6581
▁فیلمساز	-11.6587
▁منفرد	-11.6588
▁tr	-11.659
▁پاور	-11.6598
▁گذرانده	-11.6602
▁آبجو	-11.6605
▁عملاً	-11.6639
▁ستیز	-11.6651
over	-11.6651
▁سیتی	-11.6652
▁تپ	-11.6656
ker	-11.6658
▁نخورد	-11.6667
▁Live	-11.667
▁نرفت	-11.6671
بیشتر	-11.6676
▁VR	-11.668
اندیش	-11.6682
tain	-11.6685
▁انضباط	-11.6687
▁كودك	-11.6687
▁متاسفم	-11.6687
▁محفوظ	-11.6687
▁ناسازگار	-11.6687
▁بازماندگان	-11.6687
▁تهوع	-11.6687
▁نترسید	-11.6687
▁نیفتاد	-11.6688
▁اسکلت	-11.6688
▁معایب	-11.6688
▁منحنی	-11.6688
▁عزم	-11.6688
▁نارضای	-11.6688
▁آشفته	-11.6688
▁رسالت	-11.6688
▁تیروئید	-11.6688
Po	-11.669
mail	-11.6692
▁جونز	-11.6692
ko	-11.6693
▁شاء	-11.6695
▁موسس	-11.6711
▁عاری	-11.6714
عمل	-11.6714
ja	-11.6723
▁شنونده	-11.6723
▁MP	-11.673
▁۵۵	-11.6734
۹۰	-11.6752
▁اسپر	-11.6761
ّل	-11.6778
▁کوهن	-11.6794
des	-11.6797
▁مَ	-11.6811
q	-11.6823
▁پیل	-11.6824
▁دشوارتر	-11.6826
▁اتمسفر	-11.683
▁بنشینید	-11.683
▁بپذیریم	-11.683
▁حوصله	-11.683
▁راهپیمایی	-11.683
▁سختگیرانه	-11.683
▁سوئیچ	-11.683
▁نگذاشت	-11.683
▁پیغمبر	-11.683
▁روانشناختی	-11.683
▁غوطه	-11.683
▁متناقض	-11.683
▁رویارویی	-11.683
▁سیستماتیک	-11.6831
▁مؤلف	-11.6831
▁هکتار	-11.6831
▁اکانت	-11.6831
جهان	-11.6831
▁استبداد	-11.6832
▁میخواهم	-11.6833
▁عیار	-11.6834
▁دیزل	-11.6835
▁پهنای	-11.6836
▁۸۵	-11.6837
▁جواهرات	-11.6838
▁@	-11.684
▁حک	-11.6841
▁رحمانه	-11.6845
▁Day	-11.6847
▁سرفه	-11.6853
▁کادر	-11.6856
▁شك	-11.6856
▁رازهای	-11.6862
▁داور	-11.6865
rop	-11.6866
▁اریک	-11.6868
▁نهایتاً	-11.6872
▁ببرم	-11.6874
▁کسری	-11.6882
▁نوح	-11.6894
ناپذیر	-11.6911
▁۲۵۰	-11.6923
bit	-11.6925
۲۲	-11.6939
حسن	-11.6958
ement	-11.6961
همچنین	-11.6961
شرکت	-11.6962
▁صربستان	-11.6975
▁ضخیم	-11.6975
▁قرائت	-11.6975
▁اختصار	-11.6975
▁بفهمد	-11.6975
▁غرفه	-11.6975
▁مخفف	-11.6975
▁مصیبت	-11.6975
▁هنجار	-11.6975
▁زائد	-11.6975
▁متضاد	-11.6975
▁لیاقت	-11.6975
▁فقیه	-11.6975
▁ناموفق	-11.6975
▁بخند	-11.6975
ارض	-11.6976
▁Blue	-11.6976
▁عاقل	-11.6976
بالا	-11.6977
▁شارل	-11.6977
▁عرش	-11.6977
▁آداب	-11.6979
سازمان	-11.6979
▁قشر	-11.6979
▁آنزیم	-11.698
▁مدنظر	-11.698
▁نمانده	-11.698
▁وصف	-11.6981
▁نگذارید	-11.6981
۲۳	-11.6981
▁توربین	-11.6982
▁طرد	-11.6982
▁بسپارید	-11.6983
▁خمیر	-11.6984
▁آبیاری	-11.6985
▁Win	-11.6986
▁لیکن	-11.6986
▁صوت	-11.6989
▁منطبق	-11.6992
▁خاور	-11.6992
▁اثرگذار	-11.6993
▁ناظران	-11.7002
▁تحلیلگر	-11.7008
▁آموختن	-11.7012
▁کلیپ	-11.7017
800	-11.7022
▁دوزهای	-11.7028
▁توکن	-11.7036
ower	-11.7037
▁تومورهای	-11.7049
پورت	-11.7057
▁تیپ	-11.7063
▁جوانب	-11.7069
▁توئیت	-11.7095
ose	-11.7102
حقیقت	-11.7107
قرآن	-11.7109
علم	-11.7115
▁عاشورا	-11.7122
▁Group	-11.7122
▁IBM	-11.7122
▁with	-11.7122
▁احراز	-11.7122
▁رزومه	-11.7122
▁متابولیک	-11.7122
▁متعاقب	-11.7122
▁نامعلوم	-11.7122
▁نوظهور	-11.7122
▁ژورنال	-11.7122
▁استفراغ	-11.7122
▁بشناسیم	-11.7122
▁Server	-11.7122
▁بیافتد	-11.7122
▁فرآوری	-11.7122
▁روشنفکران	-11.7122
▁عذر	-11.7122
▁شصت	-11.7122
▁برگردیم	-11.7122
▁بیاورم	-11.7122
▁ملموس	-11.7123
▁گذرانند	-11.7124
▁الحاق	-11.7124
▁پُر	-11.7124
▁هیلاری	-11.7124
▁فكر	-11.7124
▁وهله	-11.713
پور	-11.7131
-19	-11.7134
▁بانکوک	-11.7134
▁۹۹	-11.7135
▁بقایای	-11.7138
▁بانوی	-11.7139
▁الب	-11.714
car	-11.7141
▁قفس	-11.7145
▁Ver	-11.7148
duct	-11.7149
▁ژئو	-11.7152
▁مبل	-11.7166
▁دفعات	-11.7167
gan	-11.7172
▁نادان	-11.7176
ami	-11.7176
▁متغیرهای	-11.7183
▁۳۸	-11.719
چیزی	-11.7192
af	-11.7196
▁فقرا	-11.7205
▁ریس	-11.7213
ung	-11.7227
06	-11.7234
nu	-11.7237
▁Er	-11.7238
400	-11.724
▁56	-11.7248
▁وقف	-11.7251
▁140	-11.7253
▁700	-11.7258
▁پلک	-11.7263
▁دایناسور	-11.7272
▁انقراض	-11.7272
▁دامپزشک	-11.7272
▁شطرنج	-11.7272
▁ضخامت	-11.7272
▁متعجب	-11.7272
▁معافیت	-11.7272
▁پرتقال	-11.7272
▁یائسگی	-11.7272
▁بنویسد	-11.7272
▁جنازه	-11.7272
▁لشکر	-11.7272
▁تبریز	-11.7272
▁دهقان	-11.7272
▁کافر	-11.7273
▁کلیساها	-11.7276
▁خویشتن	-11.7278
▁فضل	-11.7279
▁وحشیانه	-11.728
[3]	-11.728
▁جاسوس	-11.7281
▁غلات	-11.7281
▁اردو	-11.7281
▁!!!	-11.7283
▁کلیشه	-11.7283
▁شیب	-11.7284
▁کاترین	-11.7288
▁اسکر	-11.729
▁مهیا	-11.7304
▁تعمیرات	-11.7305
▁۳٫	-11.7307
▁ندادند	-11.731
▁ترمز	-11.731
▁دریچه	-11.7311
چشم	-11.7312
▁عقی	-11.7313
▁کامپ	-11.7314
▁فرماندهان	-11.7315
▁CV	-11.7323
evel	-11.733
▁کپ	-11.7337
▁فروید	-11.7338
▁مونو	-11.7342
ever	-11.7352
▁عروس	-11.7353
▁Sol	-11.7354
▁360	-11.7357
VR	-11.7378
▁نتیج	-11.7384
▁بازهم	-11.7386
▁معنادار	-11.7388
زاک	-11.7389
▁بدار	-11.7417
▁مشروع	-11.7422
▁96	-11.7423
▁Semalt	-11.7423
▁انتحاری	-11.7423
▁تحریف	-11.7423
▁ظروف	-11.7423
▁مرحوم	-11.7423
▁ممانعت	-11.7423
▁نوشابه	-11.7423
▁ژنراتور	-11.7423
▁گردهمایی	-11.7423
▁انصاف	-11.7423
▁باشکوه	-11.7423
▁بنویسند	-11.7423
▁هدایای	-11.7423
▁کروم	-11.7423
▁امثال	-11.7423
▁پژو	-11.7423
▁متناوب	-11.7423
▁واژگان	-11.7423
▁دیزنی	-11.7423
▁بگذرانید	-11.7424
▁کنسولگری	-11.7424
▁ارمنی	-11.7424
▁والد	-11.7426
Tech	-11.7426
▁رمانتیک	-11.7426
▁آرایه	-11.7427
▁تالار	-11.7427
chi	-11.7428
▁جنگجویان	-11.7428
▁خلال	-11.7431
▁جنون	-11.7431
▁زیرنویس	-11.7434
▁خلع	-11.7435
mber	-11.7436
▁مسلحانه	-11.7436
▁تدارکات	-11.7438
▁لط	-11.7439
▁تك	-11.7452
▁گزینش	-11.7455
▁غارت	-11.7462
itch	-11.7465
cent	-11.7484
mun	-11.7489
▁سریعترین	-11.7513
سنگ	-11.753
▁۳۷	-11.7543
▁ساک	-11.7545
***	-11.7553
▁گدا	-11.7555
ail	-11.7557
آمریکا	-11.7559
ویرایش	-11.7562
mg	-11.7563
▁شادتر	-11.7576
▁ارتکاب	-11.7577
▁انتزاعی	-11.7577
▁تدابیر	-11.7577
▁زناشویی	-11.7577
▁مضمون	-11.7577
▁میکروسکوپ	-11.7577
▁HPV	-11.7577
▁بپردازیم	-11.7577
▁مخترع	-11.7577
▁هيچ	-11.7577
▁www	-11.7577
▁جنرال	-11.7577
▁لرزش	-11.7577
▁استحکام	-11.7577
▁مشهد	-11.7577
▁مدینه	-11.7578
▁زودهنگام	-11.7578
▁post	-11.7578
▁اکو	-11.758
▁بانوان	-11.758
▁ایستادگی	-11.758
▁دیشب	-11.758
▁Inter	-11.758
▁MIT	-11.758
▁‫	-11.758
▁عمودی	-11.7581
▁حوا	-11.7582
▁داروخانه	-11.7582
era	-11.7586
▁اقلیم	-11.759
▁تنفر	-11.7598
▁داود	-11.7602
▁پراکن	-11.7603
▁نوپا	-11.7604
▁عود	-11.7609
فیلم	-11.7611
▁مذ	-11.7623
▁خوابگاه	-11.7629
▁57	-11.7634
ano	-11.7646
kin	-11.7651
ino	-11.7678
▁66	-11.7678
آفرین	-11.7694
ray	-11.7699
▁روانشناس	-11.7705
حداقل	-11.7718
▁صلی	-11.7721
▁Network	-11.7733
▁اسرائيل	-11.7733
▁اپوزیسیون	-11.7733
▁بعدازظهر	-11.7733
▁دمکراتیک	-11.7733
▁علایق	-11.7733
▁ابریشم	-11.7733
▁تکنسین	-11.7733
▁حصول	-11.7733
▁رمضان	-11.7733
▁معلق	-11.7733
▁سرمربی	-11.7733
ology	-11.7734
▁فرانسیسکو	-11.7734
▁حراج	-11.7734
▁اجداد	-11.7734
▁پریود	-11.7734
▁مکعب	-11.7735
دمکرات	-11.7735
▁كمك	-11.7736
▁پرتره	-11.7736
▁۲۰۰۴	-11.7737
ware	-11.774
▁آواره	-11.7742
▁كنیم	-11.7748
▁پیشگویی	-11.7764
▁پرینتر	-11.7768
▁ریزد	-11.7777
▁نکردیم	-11.7778
▁زراع	-11.7801
بلاغ	-11.7802
ساعت	-11.7809
▁تنیس	-11.7837
▁UV	-11.7863
کودک	-11.7882
▁آکواریوم	-11.7892
▁انقباض	-11.7892
▁تزکیه	-11.7892
▁روزافزون	-11.7892
▁مستحکم	-11.7892
▁آویزان	-11.7892
▁بخوابید	-11.7892
▁لوئیس	-11.7892
▁1992	-11.7892
▁تعبیه	-11.7892
▁موظف	-11.7892
▁بخرند	-11.7892
▁معشوق	-11.7892
▁بفرمایید	-11.7892
▁جابز	-11.7892
▁برگردند	-11.7892
▁عصاره	-11.7893
▁نگریست	-11.7895
▁سمبل	-11.7895
▁شهود	-11.7895
▁وزارتخانه	-11.7898
▁خامنه	-11.79
▁الکترود	-11.7907
▁نامزدها	-11.7912
ated	-11.7921
▁دریغ	-11.7948
نامۀ	-11.7959
here	-11.798
▁And	-11.7995
▁عرف	-11.8003
▁Mc	-11.8005
▁برگزید	-11.8027
▁پالس	-11.8028
Pro	-11.8043
arch	-11.8045
▁گزین	-11.8052
▁Previous	-11.8053
▁Service	-11.8053
▁انتفاعی	-11.8053
▁تنباکو	-11.8053
▁ساندویچ	-11.8053
▁ویرجینیا	-11.8053
▁اتلاف	-11.8053
▁بشنوند	-11.8053
▁کمبریج	-11.8053
▁پیشگیرانه	-11.8053
▁بازگردند	-11.8053
graph	-11.8053
▁میگویند	-11.8053
▁بخرم	-11.8053
▁دلسوز	-11.8053
▁حکمرانی	-11.8053
▁فینال	-11.8053
▁روایات	-11.8054
▁وسواس	-11.8054
▁فرعی	-11.8054
▁شیء	-11.8056
▁1995	-11.8057
▁خادم	-11.806
▁محرومیت	-11.8066
▁کاندید	-11.8071
▁کرسی	-11.8072
▁Call	-11.8078
▁پژوهشگر	-11.8079
▁دشت	-11.809
▁آسیاب	-11.809
▁پارامترهای	-11.8095
book	-11.8095
▁شاخ	-11.81
▁دایم	-11.8102
▁اکبر	-11.8107
key	-11.8112
▁۴۸	-11.8113
▁2.0	-11.8122
۹۸	-11.8137
اولین	-11.8152
▁160	-11.8162
▁آلیس	-11.8202
۶۷	-11.8205
▁HTTP	-11.8214
▁شکوفا	-11.8216
▁WordPress	-11.8217
▁Studio	-11.8217
▁رئال	-11.8217
▁صومعه	-11.8217
▁عاقبت	-11.8217
▁مرتفع	-11.8217
▁مروارید	-11.8217
▁احسان	-11.8217
▁احوال	-11.8217
▁دوجانبه	-11.8217
▁بپرسند	-11.8217
▁آندروید	-11.8217
▁فراغت	-11.8217
▁IoT	-11.8217
▁استثمار	-11.8217
▁نیوزلند	-11.8218
▁1993	-11.822
▁مساجد	-11.822
▁رقبا	-11.822
▁بستگان	-11.8222
▁Light	-11.8222
▁ویلیامز	-11.8224
▁سعد	-11.8224
▁علف	-11.8224
▁إ	-11.8224
▁اقتصاددان	-11.8225
▁میکنه	-11.8226
▁بهادار	-11.8227
▁بشوند	-11.8228
▁سارق	-11.8229
▁لادن	-11.8231
▁مجانی	-11.8232
▁باطن	-11.8235
▁مأموران	-11.8236
▁مخفیانه	-11.8237
▁میکردند	-11.8245
▁موریس	-11.8245
▁کدوم	-11.8251
▁کاهن	-11.8257
▁بندگی	-11.8261
▁گراف	-11.827
▁Sha	-11.827
▁غل	-11.8272
▁قمر	-11.8273
▁ترانس	-11.8285
▁پوچ	-11.8295
▁میکنی	-11.8302
توجه	-11.8376
▁iPhone	-11.8384
▁المسلمین	-11.8384
▁بلومبرگ	-11.8384
▁مخاطره	-11.8384
▁کازینو	-11.8384
▁ائمه	-11.8384
▁رسوایی	-11.8384
▁نابغه	-11.8384
▁پرطرفدار	-11.8384
▁1991	-11.8384
▁آتشفشان	-11.8384
▁دینامیک	-11.8384
▁شعور	-11.8384
▁عطف	-11.8384
▁متاهل	-11.8384
▁سرنخ	-11.8384
▁فیزیولوژیکی	-11.8385
▁کامرون	-11.8385
▁فرمایند	-11.8385
▁بخواهم	-11.8386
▁۱۹۳۰	-11.8387
▁DNS	-11.8388
▁بشمار	-11.8389
▁ضایعات	-11.839
▁نخواست	-11.8394
▁توفان	-11.8396
▁سرگردان	-11.84
▁اطلاعیه	-11.8402
▁آزادسازی	-11.8406
▁جعل	-11.841
▁زایی	-11.8414
▁هور	-11.8414
▁III	-11.8431
▁روانشناسان	-11.8432
▁ترساند	-11.8442
▁اسکنر	-11.8473
▁آگ	-11.8475
▁پاول	-11.8498
can	-11.8519
▁فیلد	-11.852
▁800	-11.8528
300	-11.8536
افراد	-11.8538
App	-11.8542
▁تظاهر	-11.8543
▁کاندیداها	-11.8553
▁Bitcoin	-11.8553
▁Chrome	-11.8553
▁آزاردهنده	-11.8553
▁بپیوندید	-11.8553
▁مرسدس	-11.8553
▁مستغلات	-11.8553
▁سیاهچاله	-11.8553
▁ممتاز	-11.8553
▁بفروشد	-11.8553
▁تشنج	-11.8553
▁قاهره	-11.8553
▁مرکب	-11.8554
▁نکشید	-11.8554
یوحنا	-11.8555
▁كامل	-11.8556
▁۲۰۰۲	-11.8557
▁مورچه	-11.8558
work	-11.8559
▁شهاب	-11.8561
▁فاشیست	-11.8573
▁یتیم	-11.8575
▁زرق	-11.8579
▁انحصار	-11.8583
▁سونا	-11.8588
pro	-11.861
▁5000	-11.8624
▁نگذار	-11.8629
▁ادب	-11.8631
▁Im	-11.8641
▁جواد	-11.8661
▁UC	-11.8708
حافظ	-11.8708
سرمایه	-11.871
سرعت	-11.8711
شامل	-11.8715
▁کج	-11.8719
▁اغراق	-11.8726
▁بازگشایی	-11.8726
▁صمیمانه	-11.8726
▁مضطرب	-11.8726
▁ناعادلانه	-11.8726
▁مساعد	-11.8726
▁نپذیرفت	-11.8726
▁پوشانده	-11.8726
▁محمود	-11.8726
▁فرمایید	-11.8726
▁اساتید	-11.8726
▁میخوام	-11.8726
▁فرمانروای	-11.8726
▁خندد	-11.8726
ization	-11.8726
▁صبحگاهی	-11.8726
▁توانبخشی	-11.8726
▁Photo	-11.8726
▁مملو	-11.8726
▁فداکاری	-11.8727
▁معبود	-11.8728
▁همدلی	-11.8729
▁خردسال	-11.8729
▁بولتون	-11.873
▁ذرت	-11.873
▁شرمنده	-11.8731
▁عقد	-11.8731
▁پویایی	-11.8731
▁سزار	-11.8732
▁پوشاک	-11.8733
فضا	-11.8739
▁نمایشنامه	-11.8743
▁شایان	-11.8743
▁دوستیابی	-11.8743
۷۰	-11.8743
▁کافران	-11.8744
▁آلرژیک	-11.8745
▁گناهکار	-11.8747
▁نقاش	-11.8751
نوئل	-11.8752
▁رواج	-11.8754
vis	-11.8816
▁Love	-11.8822
پنج	-11.8823
UR	-11.885
ینگتون	-11.8851
▁شیل	-11.8854
▁مؤسس	-11.8864
باور	-11.8875
cker	-11.8878
مرکز	-11.8883
تاریخ	-11.8886
عشق	-11.8886
▁UN	-11.8894
▁حتم	-11.8899
▁آوارگان	-11.8901
▁اراضی	-11.8901
▁اصالت	-11.8901
▁امپریالیسم	-11.8901
▁تذکر	-11.8901
▁ضریب	-11.8901
▁ملاحظات	-11.8901
▁نامطلوب	-11.8901
▁پهپاد	-11.8901
▁گیگابایت	-11.8901
▁اتریوم	-11.8901
▁بشویید	-11.8901
▁آرتروز	-11.8901
▁خودمختار	-11.8901
▁طناب	-11.8901
▁مقبره	-11.8901
▁سردبیر	-11.8901
▁مادورو	-11.8901
▁ورژن	-11.8902
▁Life	-11.8902
▁ناصر	-11.8902
▁همگام	-11.8902
▁Master	-11.8902
▁آشوب	-11.8903
▁رسوم	-11.8905
▁1986	-11.8905
▁غیرمعمول	-11.8908
▁ژاک	-11.8908
▁فیفا	-11.8909
فیلد	-11.8913
▁دفترچه	-11.8913
▁Tru	-11.8914
▁مخلوقات	-11.8916
▁عدل	-11.8919
▁اکتشافات	-11.8921
▁سدیم	-11.8922
▁هشتگ	-11.8923
▁تشی	-11.8924
▁سوسیالیست	-11.8938
▁1.1	-11.895
اسرع	-11.8952
▁Inc	-11.8979
▁واتس	-11.8986
خیز	-11.9021
▁۶۴	-11.904
هدف	-11.9054
▁فضانورد	-11.9057
▁مخلوق	-11.9064
آمریکایی	-11.9068
▁آلود	-11.907
▁عادل	-11.9077
▁International	-11.908
▁Science	-11.908
▁اسکیزوفرنی	-11.908
▁تمسخر	-11.908
▁لیورپول	-11.908
▁مدفوع	-11.908
▁مظلوم	-11.908
▁بپذیرند	-11.908
▁دوپامین	-11.908
▁دستشویی	-11.908
▁ترمینال	-11.908
▁توفیق	-11.908
▁نفهمید	-11.908
▁ناگوار	-11.908
▁€	-11.908
▁جانوران	-11.908
▁هولناک	-11.908
▁وانمود	-11.908
box	-11.9081
▁کربلا	-11.9081
▁تجرب	-11.9082
▁۱۹۹۸	-11.9082
▁شکوفایی	-11.9082
▁وگاس	-11.9082
▁منزوی	-11.9082
▁موافقتنامه	-11.9083
▁لنگ	-11.9084
▁مدیون	-11.9086
▁2030	-11.9088
▁گویش	-11.909
▁Cloud	-11.9093
▁دوردست	-11.9097
پلاستی	-11.9097
▁اقامتگاه	-11.91
ship	-11.9101
▁۸۰۰	-11.9106
▁بسط	-11.9107
mark	-11.9107
▁نیاید	-11.911
▁ویرانگر	-11.9117
▁مستر	-11.9124
▁لابی	-11.9147
▁عرفان	-11.9155
ask	-11.9168
old	-11.9181
time	-11.9186
تعداد	-11.9247
هرگز	-11.9249
(1)	-11.9254
▁1979	-11.9262
▁School	-11.9262
▁آریزونا	-11.9262
▁احضار	-11.9262
▁اعراب	-11.9262
▁تصاحب	-11.9262
▁جرأت	-11.9262
▁فولیکول	-11.9262
▁محتاج	-11.9262
▁منسجم	-11.9262
▁نارگیل	-11.9262
▁ناپایدار	-11.9262
▁هلیکوپتر	-11.9262
▁ونکوور	-11.9262
▁چهارچوب	-11.9262
▁کاذب	-11.9262
▁مصداق	-11.9262
▁PDF	-11.9262
▁لغات	-11.9262
▁مرسوم	-11.9262
▁بگردید	-11.9262
▁اعتنا	-11.9262
▁اهرم	-11.9262
▁استعمال	-11.9262
▁صدمات	-11.9262
▁گورستان	-11.9263
▁پنداشت	-11.9263
▁وارث	-11.9264
▁طرق	-11.9265
▁Good	-11.9265
▁۱۹۵۰	-11.9267
▁پلیمر	-11.9267
▁دلپذیر	-11.9268
▁سیدنی	-11.9268
▁آجر	-11.9268
▁شمرد	-11.927
▁مرسی	-11.9277
▁الْ	-11.9279
▁1.2	-11.9282
▁میشل	-11.9289
▁۱۲۰	-11.9347
چسب	-11.9363
▁Inf	-11.9364
▁شاپ	-11.9386
900	-11.9412
▁اونجا	-11.9417
▁نظار	-11.9422
▁شعب	-11.9423
▁تدارک	-11.9429
$	-11.9431
تقریبا	-11.9431
میلیون	-11.9432
فیزیک	-11.9435
▁جواهر	-11.9437
▁ضمیمه	-11.9447
▁غواص	-11.9447
▁معالجه	-11.9447
▁ناآرامی	-11.9447
▁هیپنوتیزم	-11.9447
▁تدبیر	-11.9447
▁سفینه	-11.9447
▁هیأت	-11.9447
▁کامبوج	-11.9447
▁بشناسند	-11.9447
▁بفروشید	-11.9447
▁بشنود	-11.9447
▁زادگاه	-11.9447
▁منچستر	-11.9447
▁چلسی	-11.9447
▁بخرد	-11.9447
▁ناسالم	-11.9447
▁مشروب	-11.9447
▁همتایان	-11.9447
▁توحید	-11.9447
▁تلفیق	-11.9447
▁پردیس	-11.9447
▁ویلسون	-11.9447
▁بامزه	-11.9449
▁خفه	-11.9453
▁دزدیده	-11.9454
▁چکیده	-11.9455
▁Read	-11.9456
▁اسکان	-11.9457
▁آسود	-11.9457
▁خبرنامه	-11.9463
اجرا	-11.947
serv	-11.9476
زنویسی	-11.9492
▁لیز	-11.951
▁2.5	-11.9536
0,000	-11.954
▁يافت	-11.9606
انقلاب	-11.962
▁Design	-11.9635
▁الکترومغناطیس	-11.9635
▁بپوشید	-11.9635
▁سکولار	-11.9635
▁عواطف	-11.9635
▁مجذوب	-11.9635
▁اجسام	-11.9635
▁SSL	-11.9635
▁خراسان	-11.9635
▁عایق	-11.9635
▁سالخورده	-11.9636
▁اشراف	-11.9636
▁منیزیم	-11.9636
▁کبیر	-11.9636
▁فواصل	-11.9636
▁دریابید	-11.9636
▁خلاء	-11.9636
▁دادرسی	-11.9637
▁تجدیدپذیر	-11.9637
▁Key	-11.9638
▁سروکار	-11.964
▁وصیت	-11.964
▁File	-11.9641
▁موعد	-11.9643
▁بغل	-11.9643
▁قهر	-11.9645
▁تیغ	-11.9647
▁1930	-11.9648
▁فاکس	-11.965
▁پاشید	-11.9651
▁رُ	-11.9654
▁مولف	-11.9663
▁قربان	-11.9673
▁الکترو	-11.9737
ries	-11.9775
اقتصاد	-11.9812
جمع	-11.9817
▁1920	-11.9825
▁حیطه	-11.9828
▁عزاداری	-11.9828
▁فرآورده	-11.9828
▁هولوکاست	-11.9828
▁واکسیناسیون	-11.9828
▁افریقا	-11.9828
▁مسعود	-11.9828
▁مگاوات	-11.9828
▁خلیفه	-11.9828
▁بیگانگان	-11.9828
▁بنشیند	-11.9828
▁مفاد	-11.9828
▁فامیل	-11.9828
▁اسهال	-11.9828
▁نشریات	-11.9828
▁بلاکچین	-11.9829
▁اعضاء	-11.9829
▁محرم	-11.9829
▁قلمداد	-11.9829
▁مشروعیت	-11.9832
▁گلبول	-11.9832
▁کامنت	-11.9832
▁اظهارنظر	-11.9832
▁صورتحساب	-11.9832
▁پترو	-11.9833
▁گلکسی	-11.9834
▁المثل	-11.9836
▁لگن	-11.9837
▁مطب	-11.9837
داستان	-11.9838
▁پراگ	-11.9839
▁شامپو	-11.9842
▁بازداشتگاه	-11.9843
وئن	-11.9845
▁ارضا	-11.9855
▁شكل	-11.9871
▁ایدئولوژیک	-11.9871
▁دایر	-11.9875
▁God	-11.9893
▁تباه	-11.9894
▁پاشن	-11.9909
فصل	-12.0007
wei	-12.0011
مثلاً	-12.0017
▁Project	-12.0024
▁YouTube	-12.0024
▁انحلال	-12.0024
▁تاجیکستان	-12.0024
▁دخانیات	-12.0024
▁دوبرابر	-12.0024
▁پابرجا	-12.0024
▁پروتستان	-12.0024
▁چارلی	-12.0024
▁کشمکش	-12.0024
▁آپدیت	-12.0024
▁رنگارنگ	-12.0024
▁دیپلماسی	-12.0024
▁متراکم	-12.0024
▁محسوس	-12.0024
▁هشیار	-12.0024
▁بپرسم	-12.0024
▁تشنه	-12.0024
▁دلقک	-12.0024
▁انصار	-12.0024
▁عجب	-12.0025
▁اسلاید	-12.0025
▁پاسداران	-12.0025
▁پیمود	-12.0025
board	-12.0025
▁فاشیسم	-12.0026
▁آرتور	-12.0028
▁پریشان	-12.0029
▁غلام	-12.003
▁سموم	-12.003
آزمایی	-12.003
▁وخیم	-12.0031
▁پشه	-12.0031
▁گوجه	-12.0032
▁پرشور	-12.0033
▁Out	-12.0033
▁اسکناس	-12.0033
▁روشنگری	-12.0038
read	-12.0064
▁اخر	-12.0068
light	-12.0068
▁آشکارساز	-12.0075
bar	-12.0089
▁هیپ	-12.0113
▁ویرایشگر	-12.0151
uck	-12.0164
شروع	-12.0207
تجربه	-12.0208
غذا	-12.0222
▁اجساد	-12.0224
▁اجماع	-12.0224
▁استغفار	-12.0224
▁بپیوندد	-12.0224
▁خسارات	-12.0224
▁فضیلت	-12.0224
▁ماساچوست	-12.0224
▁متشکرم	-12.0224
▁نامنظم	-12.0224
▁همکلاسی	-12.0224
▁٢٠١	-12.0224
▁پنسیلوانیا	-12.0224
▁یکپارچگی	-12.0224
▁اجابت	-12.0224
▁تکالیف	-12.0224
▁معتدل	-12.0224
▁نمائید	-12.0224
▁رمزگشا	-12.0224
▁آرتریت	-12.0224
▁جوزف	-12.0224
▁تسنیم	-12.0224
▁شنویم	-12.0224
▁توليد	-12.0224
▁بازمانده	-12.0224
▁غذاخوری	-12.0224
▁Sky	-12.0224
کتومی	-12.0224
▁کلاژن	-12.0224
▁منافق	-12.0224
▁شیردهی	-12.0224
▁میلیمتر	-12.0224
▁ویزیت	-12.0225
مرگ	-12.0225
▁What	-12.0226
▁طفل	-12.0227
▁Gold	-12.0227
▁بیابند	-12.0228
▁گرامر	-12.0229
▁منصف	-12.023
۵۰۰	-12.023
▁سیارک	-12.0231
▁بازدیدکننده	-12.0231
▁مرمر	-12.0232
وزرسانی	-12.0238
سیستم	-12.0243
▁یاهو	-12.0244
▁Hua	-12.0255
▁گردشگر	-12.0277
isco	-12.0326
▁1500	-12.0344
احساس	-12.0413
منظور	-12.0413
انگلیسی	-12.0413
▁فیزیولوژی	-12.0427
▁Control	-12.0428
▁High	-12.0428
▁Mobile	-12.0428
▁تشعشع	-12.0428
▁تفرقه	-12.0428
▁دسکتاپ	-12.0428
▁سریلانکا	-12.0428
▁فاضلاب	-12.0428
▁فتوشاپ	-12.0428
▁مفقود	-12.0428
▁مملکت	-12.0428
▁ضمیر	-12.0428
▁تحریر	-12.0428
▁یونسکو	-12.0428
ough	-12.0428
▁درخشش	-12.0428
▁منفعل	-12.0428
▁شراکت	-12.0428
▁گنجینه	-12.0428
▁تعمیم	-12.0428
▁نشیمن	-12.0428
▁عنایت	-12.0428
▁تساوی	-12.0429
▁Media	-12.0429
▁پافشار	-12.0429
دایرکتوری	-12.043
▁ایجاب	-12.043
▁اکران	-12.043
▁ملوان	-12.0431
▁1949	-12.0431
▁1988	-12.0432
vision	-12.0432
▁سندرز	-12.0433
▁محسن	-12.0435
▁جاهل	-12.0435
▁تموم	-12.0436
▁جوراب	-12.0436
صنع	-12.0436
▁مغول	-12.0442
▁چرت	-12.0442
▁انشا	-12.0472
انجام	-12.0477
▁دانیل	-12.049
hot	-12.0545
▁مطبوع	-12.0605
مطمئن	-12.0621
قرض	-12.063
×	-12.0636
▁Street	-12.0636
▁White	-12.0636
▁ابرقهرمان	-12.0636
▁اقرار	-12.0636
▁مضاعف	-12.0636
▁پرهزینه	-12.0636
▁یعقوب	-12.0636
▁1984	-12.0636
▁XML	-12.0636
▁بشقاب	-12.0636
▁بیچاره	-12.0636
▁آموزگاران	-12.0636
▁بخریم	-12.0636
▁تروتسکی	-12.0636
▁سرازیر	-12.0636
▁دلسرد	-12.0636
▁آیپد	-12.0636
▁دبستان	-12.0636
▁سانتیمتر	-12.0636
▁خشکسالی	-12.0636
▁بنفش	-12.0636
▁اسرارآمیز	-12.0637
▁بوتاکس	-12.0637
▁پیشتاز	-12.0638
▁بلعید	-12.0638
▁لینکدین	-12.064
▁HTTPS	-12.064
▁1975	-12.064
▁سپاری	-12.064
▁هواشناسی	-12.0641
زمایش	-12.0642
▁۱۹۲۰	-12.0643
other	-12.0643
load	-12.0644
▁قاطعانه	-12.0644
▁دونم	-12.0644
▁Max	-12.0645
▁چرم	-12.0646
سنجی	-12.0652
ular	-12.0663
▁بوسنی	-12.0663
▁American	-12.0664
▁لیپو	-12.0706
base	-12.0765
Cloud	-12.0833
انرژی	-12.0834
دانشگاه	-12.0834
ü	-12.0849
▁Edition	-12.0849
▁Security	-12.0849
▁Smart	-12.0849
▁ارسطو	-12.0849
▁بازتولید	-12.0849
▁زاکربرگ	-12.0849
▁سورپرایز	-12.0849
▁مستعمره	-12.0849
▁منجمد	-12.0849
▁کلیدواژه	-12.0849
▁کوکائین	-12.0849
▁Battle	-12.0849
▁آمرزش	-12.0849
▁فیزیوتراپی	-12.0849
▁آجیل	-12.0849
▁نخورید	-12.0849
▁بیندازد	-12.0849
▁لهجه	-12.0849
▁مارشال	-12.0849
▁مشكل	-12.0849
▁برسانیم	-12.0849
▁زیربنای	-12.0849
▁منشاء	-12.0849
▁بیروت	-12.0849
▁ارضی	-12.085
▁منعقد	-12.085
▁مغایر	-12.085
▁زمين	-12.0851
▁خودآگاهی	-12.0851
▁Drive	-12.0851
▁حوالی	-12.0851
▁گلوتن	-12.0852
▁تهمت	-12.0852
▁قضائی	-12.0852
▁منشور	-12.0853
▁آيا	-12.0859
ible	-12.0861
▁استریت	-12.0862
▁مشکی	-12.0864
طلب	-12.0934
حکیم	-12.0945
▁Park	-12.0961
600	-12.1021
▁آهنگساز	-12.1022
انتخاب	-12.1051
خارج	-12.1052
دختر	-12.1054
▁غیب	-12.1057
▁ورشکست	-12.1064
▁Amazon	-12.1066
▁Digital	-12.1066
▁iPad	-12.1066
▁آتلانتیک	-12.1066
▁آمبولانس	-12.1066
▁اقتباس	-12.1066
▁بصیرت	-12.1066
▁بپیوندند	-12.1066
▁ناکافی	-12.1066
▁اسحاق	-12.1066
▁اقبال	-12.1066
▁رقیق	-12.1066
▁نگیرد	-12.1066
▁حصار	-12.1066
▁نورپردازی	-12.1067
▁آلبانی	-12.1067
▁برنارد	-12.1067
▁Image	-12.1067
▁اشعار	-12.1067
▁ابلیس	-12.1067
▁گنبد	-12.1067
▁ورشکستگی	-12.1068
▁بشوید	-12.1068
▁آئین	-12.1068
▁کریستین	-12.1069
▁هنگفت	-12.1069
▁وکالت	-12.1069
▁State	-12.107
▁1945	-12.107
▁نياز	-12.1071
▁موسوی	-12.1071
▁With	-12.1071
▁خندان	-12.1075
▁خراش	-12.1076
[5]	-12.1077
▁Your	-12.1082
▁Code	-12.1087
▁بعض	-12.1141
جرقه	-12.1144
▁فسیل	-12.1149
قضی	-12.1197
ju	-12.1209
2.1	-12.123
▁برهان	-12.1235
منطقه	-12.1273
▁میکنن	-12.1281
▁فرانسیس	-12.1288
▁Manager	-12.1289
▁آمستردام	-12.1289
▁ابوظبی	-12.1289
▁الوقوع	-12.1289
▁انتصاب	-12.1289
▁اپیزود	-12.1289
▁بلوتوث	-12.1289
▁خصومت	-12.1289
▁ذینفع	-12.1289
▁متجاوز	-12.1289
▁متذکر	-12.1289
▁معجزات	-12.1289
▁مفتخر	-12.1289
▁پرجمعیت	-12.1289
▁پروبیوتیک	-12.1289
▁پنگوئن	-12.1289
▁DVD	-12.1289
▁بیندازیم	-12.1289
▁سونوگرافی	-12.1289
▁ویراستار	-12.1289
▁CPU	-12.1289
▁افسوس	-12.1289
▁GDP	-12.1289
▁ببخشند	-12.1289
▁ذوق	-12.1289
▁متوسل	-12.1289
▁بولیوی	-12.1289
▁مابقی	-12.1289
▁گراهام	-12.1289
▁حیث	-12.1289
▁گاراژ	-12.1289
▁سندروم	-12.129
▁پستانداران	-12.129
▁براتون	-12.1291
▁مُرد	-12.1291
▁فلفل	-12.1291
▁مارکسیسم	-12.1291
▁MRI	-12.1293
▁کریپتو	-12.1293
▁شتم	-12.1296
▁هرچیز	-12.1373
right	-12.1378
▁کاوشگر	-12.1385
▁خانواد	-12.1461
طبق	-12.1474
پوینت	-12.1489
حزب	-12.1502
▁Office	-12.1516
▁eBay	-12.1516
▁آنابولیک	-12.1516
▁انیشتین	-12.1516
▁دیافراگم	-12.1516
▁مذاهب	-12.1516
▁مضحک	-12.1516
▁ولادیمیر	-12.1516
▁کاکائو	-12.1516
▁SQL	-12.1516
▁انقضا	-12.1516
▁۱۹۴۵	-12.1516
▁بشناسد	-12.1516
▁قبایل	-12.1516
▁محصور	-12.1516
▁ناگفته	-12.1516
▁پسربچه	-12.1516
▁تسلیت	-12.1516
▁حوض	-12.1516
▁رحیم	-12.1516
▁آپولو	-12.1516
▁بذار	-12.1516
▁مزبور	-12.1516
▁عتیق	-12.1516
▁یونیسف	-12.1517
▁سانحه	-12.1517
▁مستحق	-12.1518
▁پورشه	-12.1518
▁برهنه	-12.1518
▁Rock	-12.1518
▁1987	-12.152
▁مشرک	-12.152
▁رساله	-12.152
▁نویسندگی	-12.1521
▁گرانبها	-12.1536
▁عصا	-12.1537
اطلاق	-12.161
اخلاق	-12.1733
محمد	-12.1733
▁مسموم	-12.1746
®	-12.1748
▁Express	-12.1748
▁Netflix	-12.1748
▁آسپرین	-12.1748
▁احتراق	-12.1748
▁ارتودنسی	-12.1748
▁انسجام	-12.1748
▁خصلت	-12.1748
▁لفظ	-12.1748
▁ناپلئون	-12.1748
▁نیتروژن	-12.1748
▁۱۹۶۸	-12.1748
▁۱۹۷۹	-12.1748
▁۱۹۹۲	-12.1748
▁اجناس	-12.1748
▁زندگي	-12.1748
▁ارکستر	-12.1748
▁بپرسیم	-12.1748
▁غیرعادی	-12.1748
▁Sony	-12.1748
▁آمیخته	-12.1748
▁آناتومی	-12.1749
▁طمع	-12.1749
▁فاحش	-12.1749
▁Euro	-12.1749
▁منصور	-12.1749
▁قرعه	-12.175
▁دنيا	-12.175
▁نیکوتین	-12.175
▁استثناء	-12.175
▁پائول	-12.1751
▁جديد	-12.1751
▁فرضیات	-12.1751
▁قاسم	-12.1751
▁اجاق	-12.1752
▁3.5	-12.1752
wood	-12.1769
▁Moto	-12.1854
▁1.0	-12.1882
@	-12.1971
پناه	-12.1972
ە	-12.1987
▁Adobe	-12.1987
▁College	-12.1987
▁Evil	-12.1987
▁Machine	-12.1987
▁آنارشیست	-12.1987
▁تغيير	-12.1987
▁حماقت	-12.1987
▁رزولوشن	-12.1987
▁زحمات	-12.1987
▁سخاوت	-12.1987
▁هوانوردی	-12.1987
▁۱۹۹۶	-12.1987
▁خالکوبی	-12.1987
▁میباشند	-12.1987
▁بنشینند	-12.1987
▁کنتراست	-12.1987
▁منازعه	-12.1987
▁چروک	-12.1987
world	-12.1987
ئيس	-12.1987
▁دیکته	-12.1987
▁کرامت	-12.1987
▁آلیاژ	-12.1987
▁معیشت	-12.1987
▁نقدینگی	-12.1987
▁انزال	-12.1987
▁سرهنگ	-12.1987
▁نهضت	-12.1987
▁هامبورگ	-12.1987
▁هویج	-12.1987
▁لطیف	-12.1987
▁میشیگان	-12.1987
▁فرانکلین	-12.1988
▁شلاق	-12.199
▁مکاتب	-12.1993
تمایل	-12.2047
▁1.4	-12.2057
فشار	-12.2088
وئر	-12.2185
▁Analytics	-12.223
▁Little	-12.223
⁯	-12.223
{	-12.2465
°	-12.248
️	-12.327
ٍ	-12.3834
ö	-12.4128
<	-12.4415
■	-12.4431
◄	-12.4431
ھ	-12.4743
′	-12.4743
›	-12.5066
إ	-12.5729
‘	-12.6086
ó	-12.6472
á	-12.6856
♫	-12.7256
â	-12.7256
~	-12.7256
😉	-12.8108
‪	-12.8562
£	-12.9038
ä	-12.9038
ç	-12.9538
^	-13.0065
‹	-13.0065
♦	-13.0065
ı	-13.062
😀	-13.062
−	-13.1209
ٰ	-13.1209
§	-13.1209
✅	-13.1209
•	-13.1818
`	-13.1834
à	-13.1834
□	-13.1834
♥	-13.1834
‫	-13.2485
ş	-13.25
⇐	-13.25
ˈ	-13.25
	-13.3215
è	-13.3215
●	-13.3968
ñ	-13.4817
α	-13.4817
É	-13.5726
😍	-13.5726
	-13.6726
ā	-13.6726
	-13.6726
ã	-13.7837
́	-13.7837
р	-13.7837
←	-13.9072
å	-13.9087
í	-13.9087
и	-13.9087
⁄	-13.9087
±	-13.9087
★	-13.9087
﴾	-14.0516
👌	-14.0516
Ç	-14.0516
ú	-14.0516
ٿ	-14.0516
̊	-14.2183
̋	-14.2183
μ	-14.2183
а	-14.2183
е	-14.2183
н	-14.2183
о	-14.2183
ٴ	-14.2183
۔	-14.2183
⁭	-14.2183
✓	-14.2183
☺	-14.2183
ø	-14.4183
İ	-14.4183
ۆ	-14.4183
⁪	-14.4183
	-14.4183
Ø	-14.4183
̈	-14.4183
Δ	-14.4183
Ω	-14.4183
ა	-14.4183
♯	-14.4183
✤	-14.4183
✭	-14.4183
⦁	-14.4183
	-14.4183
ğ	-14.4183
ε	-14.4183
·	-14.6667
▐	-14.6683
🔻	-14.6683
	-14.6683
ë	-14.6683
ν	-14.6683
д	-14.6683
	-14.6683
🌸	-14.6683
😂	-14.6683
😐	-14.6683
β	-14.6683
⁩	-14.6683
▬	-14.6683
Ö	-14.6683
ò	-15.0016
š	-15.0016
	-15.0016
¤	-15.0016
Â	-15.0016
ï	-15.0016
Ş	-15.0016
ɪ	-15.0016
Т	-15.0016
к	-15.0016
ڪ	-15.0016
ვ	-15.0016
ლ	-15.0016
⃣	-15.0016
≠	-15.0016
≡	-15.0016
≤	-15.0016
	-15.0016
🔥	-15.0016
🔺	-15.0016
😊	-15.0016
⁣	-15.0016
👏	-15.0016
👻	-15.0016
с	-15.0016
⁮	-15.0016
ო	-15.0016
κ	-15.0016
🍃	-15.5016
	-15.5016
ß	-15.5016
‚	-15.5016
	-15.5016
¢	-15.5016
Ã	-15.5016
Ä	-15.5016
Ü	-15.5016
ð	-15.5016
ô	-15.5016
ý	-15.5016
ē	-15.5016
ɛ	-15.5016
γ	-15.5016
ο	-15.5016
ρ	-15.5016
ς	-15.5016
τ	-15.5016
Б	-15.5016
б	-15.5016
г	-15.5016
й	-15.5016
л	-15.5016
י	-15.5016
ہ	-15.5016
ۂ	-15.5016
თ	-15.5016
ი	-15.5016
რ	-15.5016
‭	-15.5016
▶	-15.5016
◦	-15.5016
メ	-15.5016
事	-15.5016
件	-15.5016
朝	-15.5016
灣	-15.5016
軍	-15.5016
	-15.5016
	-15.5016
	-15.5016
	-15.5016
🇪	-15.5016
😅	-15.5016
😏	-15.5016
😢	-15.5016
😥	-15.5016
😳	-15.5016
😵	-15.5016
🙁	-15.5016
÷	-15.5016
ڵ	-15.5016
☼	-15.5016
ː	-15.5016
λ	-15.5016
ს	-15.5016
😛	-16.4961
🔷	-16.4962
📣	-16.4963
	-16.4964
	-16.4965
	-16.4966
	-16.4967
本	-16.4968
日	-16.4969
台	-16.497
❇	-16.4971
◀	-16.4972
▲	-16.4973
≥	-16.4974
ܜ	-16.4975
ܔ	-16.4976
К	-16.4977
̇	-16.4978
ʊ	-16.4979
ƒ	-16.498
î	-16.4981
ê	-16.4982
¡	-16.4983
	-16.4984
➕	-16.4985
⁧	-16.4986
θ	-16.4987
̨	-16.4988
ń	-16.4989
	-16.499
	-16.4991
✕	-16.4992
○	-16.4993
М	-16.4994
🔴	-16.4995
👈	-16.4996
	-16.4997
⚡	-16.4998
♬	-16.4999
◊	-16.5
„	-16.5001
€	-16.5002
↑	-16.5002
→	-16.5002
🌷	-16.5002
﴿	-16.5003
✔	-16.5004
œ	-16.5005
❤	-16.5006
√	-16.5007
🙂	-16.5008
	-16.5009
🔸	-16.501
©	-16.5011
▫	-16.5012
🔹	-16.5013
➖	-16.5014
♪	-16.5015
ʁ	-16.5016
ˌ	-16.5016
》	-16.5016
🇺	-16.5016
✍	-16.5016
⏺	-16.5016
	-16.5016
	-16.5016
	-16.5016
	-16.5016
	-16.5016
¥	-16.5016
Å	-16.5016
Ô	-16.5016
æ	-16.5016
ì	-16.5016
þ	-16.5016
ć	-16.5016
ī	-16.5016
ł	-16.5016
ŋ	-16.5016
ū	-16.5016
Ž	-16.5016
ǎ	-16.5016
ɔ	-16.5016
ɜ	-16.5016
ɨ	-16.5016
ʀ	-16.5016
ʺ	-16.5016
ˏ	-16.5016
̏	-16.5016
̵	-16.5016
Α	-16.5016
Μ	-16.5016
Φ	-16.5016
ζ	-16.5016
φ	-16.5016
ω	-16.5016
Г	-16.5016
З	-16.5016
О	-16.5016
П	-16.5016
С	-16.5016
м	-16.5016
т	-16.5016
у	-16.5016
ф	-16.5016
ы	-16.5016
ь	-16.5016
я	-16.5016
ё	-16.5016
ћ	-16.5016
ה	-16.5016
ח	-16.5016
כ	-16.5016
מ	-16.5016
פ	-16.5016
ש	-16.5016
ٓ	-16.5016
څ	-16.5016
ګ	-16.5016
ں	-16.5016
ۃ	-16.5016
ێ	-16.5016
ے	-16.5016
ก	-16.5016
ง	-16.5016
გ	-16.5016
ე	-16.5016
მ	-16.5016
ნ	-16.5016
უ	-16.5016
ქ	-16.5016
ṇ	-16.5016
ṯ	-16.5016
ủ	-16.5016
Ἴ	-16.5016
ῖ	-16.5016
―	-16.5016
†	-16.5016
※	-16.5016
₩	-16.5016
₹	-16.5016
↓	-16.5016
⇆	-16.5016
⇔	-16.5016
∀	-16.5016
∆	-16.5016
∈	-16.5016
∗	-16.5016
∘	-16.5016
∴	-16.5016
≈	-16.5016
⊞	-16.5016
⋆	-16.5016
⌘	-16.5016
►	-16.5016
◇	-16.5016
◽	-16.5016
◾	-16.5016
☆	-16.5016
☚	-16.5016
♊	-16.5016
♒	-16.5016
♡	-16.5016
⚽	-16.5016
✋	-16.5016
✳	-16.5016
✵	-16.5016
❌	-16.5016
❗	-16.5016
➌	-16.5016
➐	-16.5016
⟨	-16.5016
⟩	-16.5016
⬅	-16.5016
《	-16.5016
か	-16.5016
き	-16.5016
ど	-16.5016
ま	-16.5016
モ	-16.5016
ヤ	-16.5016
一	-16.5016
东	-16.5016
人	-16.5016
前	-16.5016
命	-16.5016
外	-16.5016
子	-16.5016
孫	-16.5016
將	-16.5016
撫	-16.5016
斐	-16.5016
旗	-16.5016
月	-16.5016
樹	-16.5016
湾	-16.5016
爱	-16.5016
生	-16.5016
甲	-16.5016
碌	-16.5016
臺	-16.5016
英	-16.5016
蔼	-16.5016
语	-16.5016
锦	-16.5016
门	-16.5016
革	-16.5016
도	-16.5016
라	-16.5016
장	-16.5016
	-16.5016
	-16.5016
	-16.5016
	-16.5016
	-16.5016
	-16.5016
	-16.5016
	-16.5016
	-16.5016
	-16.5016
	-16.5016
	-16.5016
	-16.5016
	-16.5016
	-16.5016
	-16.5016
🇩	-16.5016
🇬	-16.5016
🇷	-16.5016
🌀	-16.5016
🌐	-16.5016
🌬	-16.5016
🌲	-16.5016
🍁	-16.5016
🍳	-16.5016
🎁	-16.5016
🎄	-16.5016
🎥	-16.5016
🎬	-16.5016
🐶	-16.5016
👑	-16.5016
💎	-16.5016
💕	-16.5016
💟	-16.5016
📑	-16.5016
📝	-16.5016
📱	-16.5016
📽	-16.5016
🔎	-16.5016
🔔	-16.5016
🔵	-16.5016
🔶	-16.5016
🗽	-16.5016
😁	-16.5016
😌	-16.5016
😎	-16.5016
😒	-16.5016
😔	-16.5016
😕	-16.5016
😗	-16.5016
😙	-16.5016
😭	-16.5016
😶	-16.5016
🙏	-16.5016
🚀	-16.5016
🚫	-16.5016
🤔	-16.5016
🤗	-16.5016
🥇	-16.5016
📈	-16.5016
ű	-16.5016
Ε	-16.5016
แ	-16.5016
⁠	-16.5016
⏳	-16.5016
「	-16.5016
아	-16.5016
티	-16.5016
🌺	-16.5016
💜	-16.5016
💫	-16.5016
💳	-16.5016
📌	-16.5016
📍	-16.5016
Á	-16.5016
ə	-16.5016
̃	-16.5016
И	-16.5016
х	-16.5016
Ḥ	-16.5016
十	-16.5016
坛	-16.5016
天	-16.5016
神	-16.5016
谷	-16.5016
ἐ	-16.5016
ἥ	-16.5016
▪	-16.5016
