<unk>	0
<s>	0
</s>	0
.	-3.50002
ی	-3.62167
▁و	-3.69138
▁در	-3.77198
▁به	-3.83476
▁می	-3.89052
▁که	-4.02374
▁از	-4.03601
▁را	-4.15561
،	-4.18912
▁است	-4.32889
▁این	-4.41809
▁های	-4.69559
ه	-4.75114
▁با	-4.85056
▁برای	-4.91647
▁یک	-4.93161
▁،	-4.99535
▁ها	-5.06218
▁	-5.19896
▁آن	-5.20542
م	-5.33788
▁شما	-5.46526
▁خود	-5.55654
ان	-5.64137
▁کند	-5.66331
▁ما	-5.68666
▁شود	-5.68725
▁یا	-5.70242
▁بر	-5.74765
▁تا	-5.74792
▁شده	-5.77247
▁ای	-5.78856
د	-5.79312
▁ی	-5.8228
▁.	-5.82376
▁او	-5.83863
▁(	-5.84847
▁من	-5.85109
ت	-5.87654
▁کنید	-5.88329
ش	-5.94419
▁سال	-5.96684
▁بود	-5.97774
▁کنند	-5.99498
▁هم	-6.00358
▁کار	-6.01173
▁هر	-6.03346
ن	-6.07599
ا	-6.08714
▁اما	-6.10303
▁باشد	-6.14422
:	-6.16144
▁کرد	-6.19384
▁دارد	-6.1953
▁نمی	-6.20398
▁آنها	-6.21056
▁شد	-6.22111
▁باید	-6.24605
ات	-6.28409
▁«	-6.29675
؟	-6.30433
ند	-6.32752
▁استفاده	-6.33129
ر	-6.34021
▁م	-6.34414
▁اگر	-6.36289
ل	-6.36615
ین	-6.42385
▁دو	-6.43798
ب	-6.44318
▁مورد	-6.45645
▁هستند	-6.46599
)	-6.46709
▁:	-6.47732
ز	-6.49549
▁"	-6.50291
▁دهد	-6.52241
▁اند	-6.52768
▁انجام	-6.53201
▁کرده	-6.53247
▁ب	-6.54764
▁تر	-6.55426
▁دیگر	-6.59119
▁حال	-6.60181
▁تواند	-6.61393
▁وجود	-6.61727
▁)	-6.61904
▁همه	-6.62101
▁چه	-6.62219
▁نیز	-6.65615
▁قرار	-6.683
های	-6.68974
▁عنوان	-6.69415
ع	-6.70025
▁خواهد	-6.70816
▁روز	-6.72787
▁ن	-6.74923
▁دست	-6.75384
▁بین	-6.75617
▁داشته	-6.76021
یم	-6.76272
▁نیست	-6.76309
و	-6.77391
س	-6.77691
▁زندگی	-6.78791
▁»	-6.80197
▁روی	-6.80994
▁پس	-6.81902
ک	-6.82992
▁ممکن	-6.83925
▁...	-6.8481
▁شوند	-6.86078
ید	-6.8614
▁نظر	-6.88335
ها	-6.89168
▁بسیار	-6.89293
▁ش	-6.89552
▁طور	-6.8985
▁داده	-6.90063
▁-	-6.9076
▁شرکت	-6.90846
▁دارند	-6.91198
▁زمان	-6.93472
ار	-6.93609
▁کردن	-6.93926
▁بیشتر	-6.9474
ال	-6.96678
▁هیچ	-6.97003
▁ت	-6.98402
▁کنیم	-7.00507
▁پیش	-7.00785
▁بی	-7.01418
▁برنامه	-7.02727
▁مردم	-7.03301
▁تنها	-7.03711
ف	-7.03796
▁جدید	-7.03988
▁کمک	-7.05196
▁همچنین	-7.09139
اً	-7.09327
ق	-7.09551
▁کشور	-7.09665
▁نشان	-7.10353
▁سر	-7.13312
▁هایی	-7.13314
▁چند	-7.13372
▁تو	-7.13495
▁راه	-7.14361
▁نه	-7.14728
تر	-7.14905
▁نیاز	-7.15668
ون	-7.16469
▁نام	-7.16581
▁بازی	-7.17134
▁داد	-7.17161
▁چیزی	-7.17485
▁بعد	-7.18171
▁گفت	-7.19586
▁توانید	-7.19741
▁توسط	-7.20722
▁صورت	-7.21575
▁تمام	-7.21812
▁آیا	-7.22433
ج	-7.22532
▁یکی	-7.23364
s	-7.23972
▁ایجاد	-7.24022
▁باز	-7.2474
▁فقط	-7.26084
▁بار	-7.26644
▁جهان	-7.26855
▁ترین	-7.27162
ست	-7.27978
ور	-7.28203
▁رو	-7.28333
▁کنم	-7.28634
▁آمریکا	-7.28733
▁بیش	-7.30194
▁افراد	-7.31405
▁مانند	-7.31781
▁دهند	-7.31798
▁بزرگ	-7.3261
▁حتی	-7.33014
▁باشید	-7.33096
▁آب	-7.3329
▁اینکه	-7.33618
ي	-7.35011
▁بسیاری	-7.35978
▁ماه	-7.36182
▁برخی	-7.37568
▁S	-7.38512
-	-7.38557
!	-7.39427
خ	-7.39807
▁ایران	-7.40193
یت	-7.40946
▁کردند	-7.42013
▁درصد	-7.42109
▁زمانی	-7.42831
▁باشند	-7.42856
▁تغییر	-7.42867
▁فکر	-7.43148
▁داشت	-7.43176
▁C	-7.44396
▁افزایش	-7.44865
▁مهم	-7.45058
▁دهید	-7.45141
▁بخش	-7.46032
؛	-7.46965
پ	-7.46986
▁آ	-7.47105
▁غیر	-7.47874
▁اطلاعات	-7.50331
▁توانند	-7.50461
▁توجه	-7.50515
انه	-7.51051
▁تولید	-7.51112
▁دوست	-7.51237
ح	-7.51539
▁ارائه	-7.52335
▁چرا	-7.52934
▁چگونه	-7.53287
▁“	-7.53311
▁سه	-7.53592
▁کسی	-7.5399
▁همین	-7.54473
▁ام	-7.54566
e	-7.54628
▁بدون	-7.55307
▁سازمان	-7.55492
▁انتخاب	-7.55721
▁خانه	-7.55728
▁ان	-7.55745
▁وقتی	-7.55787
▁پیدا	-7.55843
▁کتاب	-7.56161
▁همان	-7.56538
▁شدن	-7.56739
▁پر	-7.56992
▁سیستم	-7.57407
▁ف	-7.57602
a	-7.57712
.»	-7.58216
o	-7.58331
▁درباره	-7.5839
▁ا	-7.5843
▁نفر	-7.58726
▁بوده	-7.58829
▁–	-7.58953
▁بودند	-7.58969
▁گرفته	-7.58979
▁خوب	-7.59067
▁زیادی	-7.59351
▁تان	-7.59916
▁شان	-7.59986
ام	-7.60056
▁ع	-7.60949
▁”	-7.61553
▁کاهش	-7.61776
▁خیل	-7.61853
▁دولت	-7.62163
▁دلیل	-7.62492
y	-7.62665
▁ال	-7.62819
▁جنگ	-7.63427
▁شروع	-7.64356
▁مختلف	-7.64732
▁A	-7.64818
▁فیلم	-7.65162
▁طول	-7.6571
▁مدت	-7.66036
▁چیز	-7.66233
▁شهر	-7.66259
▁خدا	-7.66279
ری	-7.66869
▁P	-7.67022
▁انسان	-7.67054
▁قبل	-7.67064
▁سایت	-7.6712
▁!	-7.67248
▁زبان	-7.68635
▁قابل	-7.68735
▁چنین	-7.69095
▁جا	-7.6938
▁اولین	-7.69512
▁کم	-7.70412
▁بد	-7.70459
▁روش	-7.70802
▁؟	-7.71036
ص	-7.71982
▁[	-7.72062
▁گروه	-7.72247
▁کننده	-7.72331
▁کامل	-7.72612
▁دارید	-7.72744
▁ه	-7.72949
▁توان	-7.73167
▁بهترین	-7.73276
▁کسب	-7.73892
▁اش	-7.741
▁خواهید	-7.74368
▁واقع	-7.74949
▁همیشه	-7.75146
▁ر	-7.75224
ط	-7.7556
er	-7.75582
▁ندارد	-7.75611
▁خواهند	-7.75969
گ	-7.76027
▁بنابراین	-7.76443
▁باعث	-7.76574
▁B	-7.76946
▁بدن	-7.78267
▁تلاش	-7.78289
ده	-7.7836
▁دارای	-7.78687
▁دیگری	-7.78732
▁ولی	-7.7889
چ	-7.78912
▁گذشته	-7.78924
▁طریق	-7.79035
اب	-7.79085
▁توسعه	-7.79143
▁هدف	-7.79277
اد	-7.79467
▁طراحی	-7.80034
1	-7.80496
▁اول	-7.81256
»	-7.81786
▁احساس	-7.81924
▁دنبال	-7.82221
▁3	-7.82248
▁زنان	-7.82595
▁یاد	-7.83236
ول	-7.83264
▁آنچه	-7.83444
▁نا	-7.83766
▁ل	-7.8403
t	-7.8416
▁ِ	-7.84518
▁تعداد	-7.84603
2	-7.84841
▁دانشگاه	-7.84879
▁نوع	-7.85011
▁آینده	-7.85045
u	-7.85051
▁حدود	-7.85302
▁بهتر	-7.85647
▁هنوز	-7.85655
▁شامل	-7.85673
▁خ	-7.85758
▁زن	-7.86172
▁میان	-7.86738
لی	-7.86808
▁اجتماعی	-7.86969
C	-7.87045
▁اصلی	-7.87574
▁زمین	-7.87615
▁جهانی	-7.87634
▁سرمایه	-7.88265
ای	-7.88979
ایی	-7.89061
▁ادامه	-7.89537
▁دریافت	-7.89609
▁D	-7.89681
▁تجربه	-7.89985
▁س	-7.90211
کس	-7.90781
i	-7.90825
▁,	-7.90865
▁کل	-7.90955
▁پی	-7.91202
▁مصرف	-7.91302
گر	-7.91308
▁درست	-7.9131
▁ساعت	-7.91586
▁دادن	-7.91602
▁گفته	-7.91793
▁ح	-7.9186
▁بالا	-7.92144
تان	-7.92191
▁پول	-7.92208
▁اندازه	-7.9231
▁حاضر	-7.92344
▁عمل	-7.92369
▁؛	-7.92494
▁خانواده	-7.92498
▁M	-7.92532
▁آموزش	-7.92608
▁زیرا	-7.9263
▁رشد	-7.92744
▁زیر	-7.92915
▁کوچک	-7.92981
▁پاسخ	-7.93025
▁درمان	-7.9305
ۀ	-7.93546
▁همراه	-7.93609
▁امروز	-7.93718
▁موضوع	-7.93981
▁دانش	-7.94013
▁5	-7.94072
S	-7.94417
▁وقت	-7.94454
▁بررسی	-7.94516
▁4	-7.9472
▁فعالیت	-7.94768
▁منطقه	-7.94962
▁هزینه	-7.94981
▁میلیون	-7.95022
▁s	-7.95436
▁شکل	-7.95848
▁دلار	-7.95966
]	-7.9613
P	-7.9616
▁کنترل	-7.96342
5	-7.96419
مان	-7.96621
▁سطح	-7.96629
گی	-7.96755
D	-7.96828
▁کاری	-7.96993
▁المللی	-7.97204
▁هفته	-7.97295
▁گرفت	-7.97843
▁فرد	-7.97913
▁شرایط	-7.97915
▁مناسب	-7.98111
▁T	-7.98238
▁تصمیم	-7.98575
▁قدرت	-7.98584
▁ارتباط	-7.98836
▁تبدیل	-7.98924
l	-7.98988
▁گزارش	-7.99055
▁پایان	-7.99683
T	-8.00386
▁مدیریت	-8.00436
▁تحت	-8.00573
▁د	-8.00904
A	-8.01038
▁نتیجه	-8.01172
▁خوبی	-8.0128
▁پ	-8.01484
▁نسبت	-8.02234
سی	-8.02252
▁دوره	-8.0228
▁گذاری	-8.02523
▁مشکل	-8.02845
▁مثل	-8.03178
▁برابر	-8.03474
▁بلکه	-8.03477
▁چون	-8.03597
ض	-8.03824
▁سازی	-8.04074
نگ	-8.04102
▁صحبت	-8.04126
▁اجازه	-8.04194
جر	-8.04207
▁گوید	-8.04392
▁جای	-8.04719
▁حل	-8.04768
▁بیماری	-8.04784
▁مواد	-8.04884
▁اید	-8.05044
▁شاید	-8.05429
3	-8.05471
▁L	-8.05914
▁مثال	-8.06108
▁F	-8.06378
p	-8.06399
▁G	-8.06671
▁­	-8.06681
ره	-8.06797
▁اروپا	-8.06813
الات	-8.07087
▁حالی	-8.07144
0	-8.07148
▁E	-8.0718
رو	-8.07285
▁متحده	-8.08044
▁آغاز	-8.0813
▁19	-8.08591
▁شدند	-8.08592
بر	-8.08597
▁وارد	-8.09243
▁خاطر	-8.09243
▁اس	-8.09468
▁هست	-8.09767
▁دنیا	-8.0998
▁ق	-8.10139
▁گ	-8.10234
غ	-8.10375
▁2	-8.10829
8	-8.10853
▁تیم	-8.10876
▁هستید	-8.11007
▁جمله	-8.11581
▁نو	-8.11587
▁پا	-8.12021
وی	-8.12064
▁دور	-8.12363
▁چین	-8.12435
▁بازار	-8.12579
▁ارزش	-8.13044
▁نگاه	-8.13228
▁نزدیک	-8.13393
c	-8.13461
n	-8.13489
▁چشم	-8.13532
▁مرد	-8.13537
▁اساس	-8.13675
▁اغلب	-8.13695
▁خدمات	-8.13932
▁اینجا	-8.13964
in	-8.13964
▁فروش	-8.14141
▁حمایت	-8.14227
I	-8.14331
▁مربوط	-8.14342
وا	-8.14512
▁کردم	-8.14792
▁رنگ	-8.15502
▁ج	-8.15673
▁گیری	-8.1575
▁واقعی	-8.15765
وم	-8.15934
an	-8.15988
▁کودک	-8.16049
▁مطالعه	-8.16306
▁موارد	-8.16307
▁جلو	-8.16442
▁یعنی	-8.16502
▁حقوق	-8.16627
کار	-8.16688
k	-8.16981
▁/	-8.17128
▁لازم	-8.17133
▁شوید	-8.17245
▁بیشتری	-8.17254
▁کودکان	-8.17309
▁خرید	-8.17312
▁رسد	-8.17393
یل	-8.1741
▁خون	-8.17822
▁کسانی	-8.17842
4	-8.17896
▁پروژه	-8.18231
▁مشخص	-8.18312
▁مت	-8.18359
E	-8.18399
اس	-8.18678
al	-8.18783
ود	-8.18815
▁1	-8.19165
▁گونه	-8.19174
▁انرژی	-8.19227
▁شبکه	-8.19364
▁دیگران	-8.19367
▁داستان	-8.19393
▁قیمت	-8.19669
یر	-8.19691
▁گیرد	-8.19718
▁زمینه	-8.19808
d	-8.20008
▁اعلام	-8.20032
▁6	-8.20236
9	-8.20455
ك	-8.21107
7	-8.21111
▁کمتر	-8.21157
▁البته	-8.21169
اق	-8.21275
گیری	-8.21337
▁H	-8.21457
▁وب	-8.21588
▁احتمال	-8.21749
▁سایر	-8.21964
▁آنجا	-8.22024
▁تاریخ	-8.22115
▁سیاست	-8.22246
▁هنگامی	-8.22375
▁غذا	-8.22409
▁اکنون	-8.22443
▁خاص	-8.22445
نی	-8.22447
▁شب	-8.22452
▁سفر	-8.22832
وس	-8.22842
▁داریم	-8.23185
▁I	-8.23514
▁متفاوت	-8.23775
▁اتفاق	-8.23908
▁ساخت	-8.24027
▁سن	-8.24078
▁کافی	-8.24158
▁خواب	-8.24197
▁هزار	-8.24614
را	-8.24664
▁مشکلات	-8.24764
▁جمع	-8.24808
▁ز	-8.24841
▁ک	-8.24894
▁پرداخت	-8.24895
▁سپس	-8.24931
▁اقتصادی	-8.24933
شان	-8.24966
▁قانون	-8.24966
▁حد	-8.25707
r	-8.25956
▁کمی	-8.26168
از	-8.26169
▁مالی	-8.26431
▁مو	-8.26615
M	-8.26668
▁سیاسی	-8.26755
6	-8.27036
▁مکان	-8.27061
▁نقش	-8.27109
ما	-8.27175
یک	-8.27176
▁مرگ	-8.27793
▁ملی	-8.28163
لا	-8.28232
▁جامعه	-8.28446
▁كه	-8.28503
▁R	-8.28605
گاه	-8.28767
▁چهار	-8.28797
▁کنار	-8.28863
ث	-8.29324
گان	-8.29344
▁بهبود	-8.29386
▁خارج	-8.29537
▁کشورهای	-8.29653
▁دارم	-8.30088
▁آورد	-8.30434
▁هرگز	-8.30584
▁کن	-8.30642
▁تاثیر	-8.30791
▁ساخته	-8.31104
▁سو	-8.3111
▁بعضی	-8.31214
▁طبیعی	-8.31304
بی	-8.31596
▁محیط	-8.31803
▁ساده	-8.32024
▁امکان	-8.32301
▁حرکت	-8.32445
ar	-8.32686
▁موفقیت	-8.3277
▁مادر	-8.32964
▁۳	-8.33016
▁حق	-8.33375
▁رابطه	-8.33456
▁۲	-8.33539
▁طرف	-8.3367
▁صفحه	-8.33914
ِ	-8.34049
▁روسیه	-8.3406
▁10	-8.34157
▁سخت	-8.34348
▁عمومی	-8.34579
▁ویژه	-8.34706
▁سرعت	-8.34847
▁نور	-8.34867
▁حداقل	-8.34893
▁ده	-8.35092
▁چ	-8.35118
ى	-8.35128
گو	-8.35192
▁فرصت	-8.35222
▁یافته	-8.35746
یا	-8.36063
▁خطر	-8.36074
m	-8.36084
▁شخصی	-8.36144
▁آماده	-8.36266
▁حفظ	-8.36404
▁کلی	-8.36515
▁ایده	-8.36695
َ	-8.37024
▁سی	-8.37289
L	-8.37325
▁سوی	-8.37331
R	-8.37472
or	-8.37548
▁N	-8.37632
▁درک	-8.37806
h	-8.38131
▁دار	-8.3837
▁بودن	-8.3841
نا	-8.38453
▁تحقیقات	-8.38493
▁دوم	-8.38545
▁سریع	-8.38649
▁خداوند	-8.38665
▁مان	-8.3898
le	-8.39067
▁مع	-8.3908
▁بیان	-8.39276
▁موجود	-8.39288
به	-8.39581
▁رئیس	-8.39691
▁دی	-8.39754
▁صرف	-8.40091
له	-8.40155
▁7	-8.40172
▁نبود	-8.40219
۱	-8.40225
▁رفتار	-8.40303
▁دستگاه	-8.40612
▁قادر	-8.40679
ّ	-8.40854
▁میزان	-8.41079
▁حرفه	-8.41109
نده	-8.41254
▁وضعیت	-8.41392
▁داشتن	-8.41427
▁علاوه	-8.41627
▁نمایش	-8.41732
▁انتظار	-8.41792
▁لو	-8.41827
▁سراسر	-8.41828
▁خواهیم	-8.41901
▁دوباره	-8.42231
گرد	-8.42237
▁طی	-8.42373
▁ایم	-8.42397
من	-8.42733
▁آسیب	-8.42939
▁غذایی	-8.42974
▁عکس	-8.43023
▁۱۹	-8.43129
▁8	-8.43279
رد	-8.43378
▁آزمایش	-8.43473
B	-8.43497
▁آزاد	-8.43582
▁ار	-8.4372
▁علیه	-8.43803
▁افرادی	-8.43993
▁هنگام	-8.44049
re	-8.44157
▁رود	-8.44218
▁زیاد	-8.44467
▁صد	-8.44549
کر	-8.44626
▁۴	-8.44653
▁بخشی	-8.44944
O	-8.45078
▁فرا	-8.45142
▁نتایج	-8.4551
g	-8.45659
▁محل	-8.46076
▁آید	-8.46091
▁پایین	-8.46202
▁پوست	-8.46506
▁باور	-8.46556
▁رسید	-8.46573
▁آل	-8.46628
▁بانک	-8.46689
▁پدر	-8.46789
▁روند	-8.46875
▁ي	-8.47029
▁آمریکایی	-8.47102
▁جایی	-8.47113
▁روشن	-8.47216
▁دهه	-8.47497
▁حرف	-8.475
▁پیشنهاد	-8.47509
دار	-8.47513
▁سعی	-8.47571
▁کس	-8.47898
▁لی	-8.47908
▁آنان	-8.47975
▁گاهی	-8.48034
▁حقیقت	-8.48203
▁فشار	-8.48257
▁آمد	-8.48433
▁واقعا	-8.48466
▁ند	-8.48584
▁هستیم	-8.48656
▁خارجی	-8.48703
اف	-8.48719
▁دیده	-8.48814
▁تصویر	-8.4886
▁محصولات	-8.48913
با	-8.49052
ترین	-8.49165
▁مقدار	-8.49217
ئی	-8.49457
▁مشتریان	-8.49562
▁آمده	-8.49565
▁حضور	-8.49713
▁امنیت	-8.49883
▁طولانی	-8.49898
▁تک	-8.49994
▁برد	-8.50114
­	-8.50187
▁دسترسی	-8.50216
▁پنج	-8.5024
▁مشاهده	-8.50251
رس	-8.5027
▁معمولا	-8.5037
▁حساب	-8.50505
ظ	-8.50554
▁تجاری	-8.50586
▁دهیم	-8.509
▁خبر	-8.51349
▁کارهای	-8.51402
▁رخ	-8.51487
▁منتشر	-8.51522
▁شکست	-8.51631
▁اقتصاد	-8.51663
زی	-8.51665
▁گیرند	-8.51811
▁مدل	-8.51985
▁مسیر	-8.51995
▁۵	-8.52246
▁نشده	-8.52249
▁مهارت	-8.52442
en	-8.52493
▁جو	-8.5265
▁ات	-8.52737
▁مغز	-8.53084
▁خواهم	-8.53089
▁دل	-8.53162
▁کنندگان	-8.53299
▁9	-8.53337
▁شناخته	-8.53377
▁اثر	-8.53436
▁تغییرات	-8.53475
▁کوتاه	-8.53703
▁اینترنت	-8.53761
▁معنی	-8.53912
▁نباید	-8.53986
▁اضافه	-8.54043
▁عالی	-8.5422
▁یافت	-8.54478
▁فعال	-8.54527
▁درخواست	-8.54955
▁مر	-8.55126
▁ایشان	-8.55162
▁دید	-8.55179
ذ	-8.55309
▁دوستان	-8.5531
▁طرح	-8.55414
▁محصول	-8.55631
▁مطمئن	-8.5576
▁ترس	-8.55933
▁منابع	-8.55992
۵	-8.56114
▁نظامی	-8.56247
▁موفق	-8.56386
▁بندی	-8.56521
▁مرکز	-8.56629
▁گل	-8.56664
▁گزین	-8.56807
▁بچه	-8.56952
▁همکاری	-8.57224
▁رسانه	-8.5742
▁تن	-8.57478
▁سمت	-8.57684
▁ست	-8.57709
▁توانایی	-8.57712
اری	-8.5774
▁ابتدا	-8.57848
on	-8.5786
▁W	-8.57861
▁اکثر	-8.57908
▁جوان	-8.57996
▁حالا	-8.58153
۹	-8.58287
▁کا	-8.58462
▁پل	-8.58498
▁نخست	-8.5857
▁ساله	-8.5891
▁گویند	-8.58936
▁تمرکز	-8.58986
▁چیست	-8.59031
▁گوش	-8.59113
▁منظور	-8.59404
▁کدام	-8.59443
▁حس	-8.59526
"	-8.59745
▁ثبت	-8.59764
▁امر	-8.59894
▁اسرائیل	-8.59944
▁اعتماد	-8.60125
▁نخواه	-8.60256
▁کو	-8.60347
▁توانیم	-8.60474
▁تقریبا	-8.60509
▁جان	-8.60619
▁بیرون	-8.60731
▁چیزهای	-8.60743
▁اشاره	-8.60914
▁مردان	-8.61082
یس	-8.61089
▁نوشته	-8.6109
▁روابط	-8.61339
▁آر	-8.61377
▁کی	-8.61873
▁O	-8.6192
▁ری	-8.61933
▁سوم	-8.62138
▁توصیه	-8.6232
▁مرحله	-8.62443
▁علاقه	-8.62566
▁ماشین	-8.62822
▁حمله	-8.6295
▁عملکرد	-8.63062
لو	-8.63067
▁نیستند	-8.63155
▁صنعت	-8.63167
کن	-8.63215
▁جهت	-8.63315
▁هستم	-8.63558
▁پشت	-8.63751
▁فراهم	-8.63752
▁خودتان	-8.64139
▁متوجه	-8.64186
▁دقیقه	-8.64201
▁فر	-8.64632
▁بودم	-8.64634
▁خط	-8.64684
▁پذیر	-8.64688
▁خوش	-8.64718
▁اهمیت	-8.64753
▁بسته	-8.64885
▁توضیح	-8.65069
▁پسر	-8.65106
اند	-8.65255
▁داشتند	-8.65483
▁فا	-8.65512
▁وزن	-8.6556
▁پیشرفت	-8.65673
▁مجموعه	-8.65792
▁شدید	-8.65812
▁تشکیل	-8.66024
b	-8.6603
▁بگیرید	-8.66099
دو	-8.66146
▁سرطان	-8.66152
▁نرم	-8.66311
▁گذاشت	-8.66381
▁کاربران	-8.66404
▁مستقیم	-8.66408
▁نگه	-8.66473
▁رفت	-8.66475
▁اهداف	-8.66555
▁خودش	-8.66727
▁اتاق	-8.66764
▁داخلی	-8.66826
▁یابد	-8.66935
▁گرفتن	-8.67067
▁خصوص	-8.67157
▁کاملا	-8.67289
بار	-8.67294
▁آسان	-8.67442
▁دقیق	-8.67554
▁جز	-8.67592
▁سلول	-8.6772
▁جمهوری	-8.67784
▁بشر	-8.67787
▁قسمت	-8.67803
at	-8.67807
▁آخرین	-8.67828
f	-8.67954
▁اجرا	-8.68082
▁تشخیص	-8.68222
▁V	-8.68293
▁عشق	-8.68485
▁گردد	-8.68535
▁آموزان	-8.68601
▁بو	-8.68853
▁محدود	-8.68871
ch	-8.69042
▁باشیم	-8.69053
▁گو	-8.69061
▁لا	-8.6914
▁ندارند	-8.69142
تون	-8.69193
▁بتوان	-8.69344
▁آوری	-8.69365
▁انگلیسی	-8.6958
ic	-8.69613
▁مس	-8.69707
▁نهایت	-8.69813
▁باقی	-8.70311
وت	-8.70416
▁بعدی	-8.70461
▁شخص	-8.70602
▁واقعیت	-8.70656
▁ابزار	-8.70745
▁دادند	-8.70954
۰	-8.71047
کا	-8.71177
▁آلمان	-8.71187
▁جریان	-8.71213
▁۱	-8.71216
▁مشتری	-8.71329
▁آدم	-8.7135
▁درآمد	-8.71478
▁مدرسه	-8.71681
▁اخیر	-8.71698
▁ظاهر	-8.71817
▁رژیم	-8.71885
آ	-8.71959
▁الله	-8.72093
▁دختر	-8.7219
▁اشتباه	-8.72242
▁غ	-8.72252
▁حالت	-8.72313
▁بن	-8.72492
▁نفت	-8.72721
▁هند	-8.72756
نو	-8.72798
▁داخل	-8.72873
▁سلامت	-8.73192
▁انواع	-8.73319
▁تعیین	-8.73322
▁پیام	-8.73475
▁گسترده	-8.73595
▁شر	-8.7376
▁مرتبط	-8.73819
▁سوریه	-8.73879
▁موسیقی	-8.74287
▁تفاوت	-8.74426
▁مشابه	-8.74426
▁کیفیت	-8.74588
▁۱۰	-8.74704
▁مسائل	-8.74705
G	-8.74911
خو	-8.74917
▁هوا	-8.74973
▁تهدید	-8.75124
▁مسئله	-8.75194
▁برگزار	-8.75261
▁مناطق	-8.75405
تو	-8.75487
فر	-8.75597
▁بحث	-8.75686
یده	-8.75795
ائ	-8.75811
▁آزادی	-8.75936
▁بینی	-8.75945
▁اطمینان	-8.75968
F	-8.76054
▁ك	-8.76104
▁یکدیگر	-8.7611
ران	-8.76214
▁نامه	-8.76461
▁لذت	-8.76535
▁مد	-8.76575
وب	-8.76837
۲	-8.77
▁توانست	-8.77007
▁انتقال	-8.77033
▁شخصیت	-8.77091
▁همچنان	-8.77105
it	-8.77124
▁آنلاین	-8.7725
▁شک	-8.77337
▁رد	-8.77347
که	-8.7735
▁کشف	-8.77363
ُ	-8.77606
▁توافق	-8.7774
▁ازدواج	-8.77822
▁بلند	-8.78155
▁نمونه	-8.78255
▁۶	-8.78363
ٔ	-8.78544
▁کردیم	-8.78773
▁اولیه	-8.7883
▁p	-8.78893
▁کجا	-8.79077
▁نسخه	-8.79126
▁ارسال	-8.79272
▁مقاله	-8.79272
▁ویژگ	-8.79272
▁قوی	-8.79298
▁اعضای	-8.79327
تا	-8.79338
▁افغانستان	-8.7942
▁نکنید	-8.79529
▁تحلیل	-8.79638
▁ترک	-8.79666
▁m	-8.79699
▁فرانسه	-8.79784
▁سوال	-8.79971
▁ساختمان	-8.79995
▁تلفن	-8.80079
کو	-8.80098
▁دوران	-8.80174
▁اختیار	-8.80226
▁تکنولوژی	-8.80226
▁ذهن	-8.8035
▁خصوصی	-8.80375
▁20	-8.80521
نت	-8.80526
▁موقعیت	-8.80554
▁جمهور	-8.80575
▁سالم	-8.80623
▁عراق	-8.80669
▁پزشکی	-8.80742
▁دنیای	-8.80747
▁سفید	-8.80844
▁تجارت	-8.80966
▁میلیارد	-8.80966
▁K	-8.81097
▁رسمی	-8.8119
▁مثبت	-8.81412
▁قرن	-8.81486
▁فرهنگ	-8.81542
▁طبق	-8.81549
▁کامپیوتر	-8.81561
▁هسته	-8.81672
نس	-8.8172
▁زنده	-8.81797
▁تحقیق	-8.82125
».	-8.82308
▁جدی	-8.82321
▁گرم	-8.82341
N	-8.82457
▁عضو	-8.82462
▁افزار	-8.82467
▁فوق	-8.82575
▁*	-8.8267
▁قلب	-8.82752
▁محلی	-8.82822
▁دهنده	-8.83134
کی	-8.83181
▁درون	-8.8326
▁تصور	-8.83295
▁)،	-8.8334
▁مدیر	-8.83456
▁مرا	-8.83697
▁بازاریابی	-8.83736
▁آتش	-8.83755
۴	-8.8376
▁گسترش	-8.83981
▁برند	-8.84077
▁ترکیه	-8.84313
▁ط	-8.84394
▁بالای	-8.84395
▁پشتیبانی	-8.84413
▁رسیدن	-8.84583
دا	-8.84726
▁توانم	-8.8476
▁دفاع	-8.85291
▁تماس	-8.85304
il	-8.85371
▁رفتن	-8.85372
▁زیبا	-8.85455
▁تمامی	-8.85658
▁قوانین	-8.8568
▁بازگشت	-8.86148
▁شش	-8.86149
▁نمود	-8.86169
▁تازه	-8.86256
▁کره	-8.86338
”	-8.86413
▁تنظیم	-8.86461
is	-8.86558
▁نیروهای	-8.86586
▁نقطه	-8.86618
▁اوقات	-8.86621
۶	-8.86682
دان	-8.86744
▁احتمالا	-8.86762
▁آقای	-8.86822
۷	-8.86907
et	-8.87106
V	-8.87559
▁ترامپ	-8.87566
▁12	-8.87803
اک	-8.87825
۸	-8.87922
وز	-8.87995
▁جنسی	-8.88027
▁عبارت	-8.88123
▁تمرین	-8.88176
▁انگیز	-8.88221
▁هفت	-8.88262
▁فصل	-8.88443
▁قطع	-8.88465
▁U	-8.88587
▁استراتژی	-8.88619
▁قصد	-8.88683
▁مبارزه	-8.88802
▁گرد	-8.88914
▁مجبور	-8.88923
▁اد	-8.8898
زا	-8.89105
رت	-8.89174
▁اقدام	-8.89221
چقدر	-8.89391
▁ماند	-8.89461
▁بالاتر	-8.89566
▁اطراف	-8.89731
▁تأثیر	-8.89747
▁ورزش	-8.89782
ol	-8.89855
▁دکتر	-8.89894
▁صلح	-8.90056
ing	-8.90071
▁زیست	-8.90079
▁گر	-8.90298
▁خواست	-8.90333
▁یادگیری	-8.90464
▁شبیه	-8.9051
▁راست	-8.90532
▁مقابل	-8.90554
▁15	-8.90883
▁قدیمی	-8.90956
▁سیاه	-8.91041
▁جستجو	-8.9112
▁ریزی	-8.91156
▁نیروی	-8.91307
▁معرفی	-8.91448
▁مشترک	-8.91531
▁اعمال	-8.91533
▁گوگل	-8.91536
▁18	-8.91593
▁چطور	-8.91778
▁فضای	-8.91945
▁ص	-8.92264
▁مفید	-8.92278
H	-8.9238
▁حزب	-8.92777
▁عامل	-8.92918
ئو	-8.93022
ur	-8.93207
▁J	-8.93464
▁انتخابات	-8.93849
▁هنر	-8.93859
ro	-8.93943
▁بزرگترین	-8.93989
▁سا	-8.9401
▁نداشت	-8.94033
▁ترکیب	-8.94072
▁موثر	-8.94292
▁نشانه	-8.94389
▁زندان	-8.94458
ra	-8.94487
خت	-8.94535
▁حاصل	-8.94547
▁مقایسه	-8.94547
▁لباس	-8.94558
▁فرم	-8.94676
▁درد	-8.94761
▁رقابت	-8.94803
▁نکته	-8.94889
▁ساز	-8.94892
▁فراموش	-8.95316
▁دچار	-8.95487
w	-8.95497
▁کانادا	-8.95503
▁زود	-8.95507
▁آخر	-8.95752
▁همانطور	-8.95831
▁جمعیت	-8.95886
▁معتقد	-8.9609
▁خوردن	-8.96127
▁شدت	-8.96142
▁ساختار	-8.96143
در	-8.96404
عدم	-8.96569
▁دیدن	-8.96747
▁اتحادیه	-8.96792
."	-8.96955
▁مطالعات	-8.96958
▁زد	-8.97029
▁سنگ	-8.97065
▁]	-8.97103
سون	-8.97223
▁دسترس	-8.97296
▁ضد	-8.97334
▁دوربین	-8.97487
el	-8.97651
۳	-8.98003
▁برقرار	-8.98186
▁۲۰۰	-8.98201
▁مق	-8.98211
ایل	-8.98229
▁پست	-8.9823
وار	-8.98263
▁ژاپن	-8.9845
▁انسانی	-8.98451
▁ى	-8.98536
کت	-8.98612
▁علمی	-8.98651
▁تبلیغات	-8.98953
▁دین	-8.98992
▁جایگزین	-8.99072
▁راحتی	-8.99217
ed	-8.99288
▁نداشته	-8.99529
▁انداز	-8.99654
▁مراقبت	-8.99713
▁اشتراک	-8.99876
رم	-9.00088
▁فرو	-9.00216
▁تلویزیون	-9.00235
ژ	-9.00453
▁دانند	-9.00466
▁کر	-9.00534
▁زده	-9.00586
▁عملیات	-9.0062
th	-9.00628
▁رسیده	-9.0064
▁b	-9.00651
ad	-9.0066
ri	-9.0078
▁نحو	-9.00869
▁محققان	-9.00969
▁خودم	-9.0106
▁قرآن	-9.01142
جو	-9.01196
▁جدا	-9.01221
▁سبک	-9.01231
▁پزشک	-9.01244
زن	-9.01291
▁مک	-9.01295
▁واکنش	-9.01322
▁پرواز	-9.01342
▁سود	-9.01391
▁محتوای	-9.01589
▁داری	-9.01775
▁ارزیابی	-9.01781
▁نقل	-9.01848
▁جالب	-9.01964
▁صدای	-9.02001
▁روزانه	-9.0207
▁کلاس	-9.02121
▁منبع	-9.02241
▁العاده	-9.02328
▁دانشجویان	-9.02334
▁حکومت	-9.02512
▁شناسایی	-9.02546
00	-9.02547
▁علائم	-9.02697
▁تعریف	-9.02789
▁مح	-9.02874
▁معنای	-9.03062
▁وزیر	-9.03096
▁امنیتی	-9.03102
▁عمیق	-9.03252
▁فردی	-9.0329
▁عمر	-9.03585
/	-9.03621
▁شناخت	-9.03704
▁دیجیتال	-9.03717
▁رفته	-9.03752
▁c	-9.0396
▁حمل	-9.04076
▁چرخ	-9.04185
یسم	-9.04269
جا	-9.04327
▁دارو	-9.04352
▁لیست	-9.04353
▁۷	-9.044
▁علی	-9.04416
▁انقلاب	-9.04563
▁مبتلا	-9.04654
▁علت	-9.04683
فت	-9.04836
▁لحظه	-9.04842
▁فرزند	-9.04924
▁خودشان	-9.04939
▁درجه	-9.04951
▁l	-9.05028
▁پایه	-9.0525
▁هدایت	-9.05315
▁۹	-9.05446
▁بش	-9.05498
am	-9.05575
▁تحصیل	-9.05825
▁خاصی	-9.05975
▁اقدامات	-9.0601
لت	-9.06053
٪	-9.06076
▁دهم	-9.06093
▁دشوار	-9.06171
▁متوسط	-9.06267
▁پلیس	-9.064
▁ورود	-9.06447
▁اسلامی	-9.06623
▁تکرار	-9.06651
▁مطرح	-9.06746
▁خودرو	-9.06836
▁مواجه	-9.06844
▁حذف	-9.07035
▁افتد	-9.07054
▁افزود	-9.07132
▁آرام	-9.07144
▁خواندن	-9.07145
▁آی	-9.07195
▁ثابت	-9.07228
▁خواند	-9.07239
چه	-9.07254
▁موجب	-9.0749
U	-9.07537
z	-9.07547
▁حوز	-9.07661
▁اصل	-9.07687
▁نگران	-9.07897
▁کلمه	-9.0792
▁اگرچه	-9.0799
▁ادعا	-9.08008
▁دا	-9.08017
▁عاشق	-9.08101
▁بیمار	-9.08125
es	-9.08245
▁سازد	-9.08364
▁ضروری	-9.08394
▁چالش	-9.08492
,	-9.08509
▁نکرد	-9.08519
▁اف	-9.08634
▁محافظت	-9.08683
▁اک	-9.08709
▁هواپیما	-9.08753
▁نکرده	-9.0876
▁جذب	-9.08785
وش	-9.08984
▁۸	-9.09052
▁قانونی	-9.09077
▁هوشمند	-9.09179
v	-9.0921
▁زدن	-9.09394
▁مدرن	-9.09475
▁صدا	-9.09509
▁کارت	-9.09557
سو	-9.09577
▁استاندارد	-9.09598
▁امور	-9.09607
▁گاز	-9.09642
أ	-9.09698
ئ	-9.09724
▁شناس	-9.09726
▁دانلود	-9.09969
اده	-9.10363
▁سخن	-9.10413
سا	-9.10465
▁ببینید	-9.10483
▁متحد	-9.10608
▁واحد	-9.10667
▁بازدید	-9.10669
ستان	-9.10717
▁).	-9.10887
▁200	-9.10966
▁عوامل	-9.11067
▁•	-9.11072
▁شمالی	-9.1117
▁of	-9.11213
▁ض	-9.11445
▁علم	-9.11488
▁فرهنگی	-9.11497
▁a	-9.11561
▁ارتش	-9.11673
▁شغل	-9.1187
▁نجات	-9.11876
اش	-9.11918
▁ماده	-9.11954
▁تست	-9.12137
▁تصاویر	-9.12177
▁گری	-9.12182
▁ستاره	-9.1228
▁خانم	-9.12296
▁بیماران	-9.12341
اط	-9.12344
▁30	-9.12703
▁آشنا	-9.12797
▁امام	-9.12797
▁فایل	-9.12801
▁امروزه	-9.12858
يد	-9.12959
▁خریدار	-9.13116
▁اجرای	-9.13156
▁خلق	-9.13341
▁ترتیب	-9.13402
ینگ	-9.13462
▁گران	-9.13478
تن	-9.13507
▁بگیرد	-9.1355
دن	-9.13564
بل	-9.13612
▁دیدگاه	-9.13653
▁بدانید	-9.13725
▁پیچیده	-9.14024
▁بدان	-9.14077
▁امریکا	-9.14158
▁فاصله	-9.14331
شن	-9.14444
▁موسس	-9.14852
▁معمول	-9.14892
▁صبح	-9.14898
▁تع	-9.14957
▁آوردن	-9.15013
▁فناوری	-9.15059
▁مسئولیت	-9.15128
▁شیوه	-9.15165
▁بحران	-9.15269
un	-9.15279
▁مسئول	-9.15304
▁پارک	-9.15483
گار	-9.15849
▁دولتی	-9.16069
وق	-9.16089
▁اج	-9.16571
▁کد	-9.16654
▁دانم	-9.16656
▁خشونت	-9.16745
▁اعتبار	-9.16745
▁تون	-9.16924
▁۲۰	-9.17106
▁جواب	-9.17143
▁کشته	-9.17207
▁بریتانیا	-9.17277
▁اسم	-9.17375
▁معمولاً	-9.17479
▁اساسی	-9.17526
x	-9.17581
▁قدم	-9.17628
▁دلایل	-9.17837
▁گرا	-9.18103
▁شگفت	-9.18243
توقف	-9.18342
▁کلیدی	-9.18349
▁شیر	-9.18392
▁همسر	-9.18549
▁رهبری	-9.18571
▁قدر	-9.18864
▁آفریقا	-9.18892
▁مقامات	-9.19144
▁متن	-9.19146
▁بنا	-9.19244
▁تهی	-9.19448
▁مش	-9.19456
▁افتاد	-9.19467
▁دانشمندان	-9.19722
us	-9.1973
▁خیر	-9.1975
▁t	-9.19808
▁ایمیل	-9.1985
نامه	-9.19869
مین	-9.19893
▁مشارکت	-9.19983
▁دانید	-9.19983
بو	-9.20049
▁d	-9.20079
▁سرویس	-9.20093
▁وسیله	-9.20095
سر	-9.2012
▁شی	-9.2019
▁دندان	-9.20211
ایش	-9.20227
▁خدمت	-9.20243
سک	-9.20297
ذخیره	-9.20312
▁هشت	-9.20316
▁ملل	-9.20322
▁فرض	-9.20391
▁خوشحال	-9.20533
▁فرآیند	-9.20643
▁ماهی	-9.20657
▁مانده	-9.20732
▁جی	-9.20737
▁آمیز	-9.20758
▁کنی	-9.20767
▁جنوبی	-9.20874
▁نگرانی	-9.20877
▁اين	-9.20916
▁برق	-9.20987
▁آورده	-9.21028
▁حیات	-9.21104
▁بند	-9.21111
▁اسلام	-9.2134
▁گفتند	-9.214
▁نفس	-9.21421
▁ژ	-9.21526
▁اعتقاد	-9.21642
▁ناشی	-9.21673
▁مگر	-9.21737
است	-9.21786
▁آموزشی	-9.21806
▁محبوب	-9.21865
▁وزارت	-9.2187
▁رس	-9.2192
▁استرس	-9.21954
عرض	-9.22047
▁نسل	-9.22074
▁کشورها	-9.22084
▁بزرگی	-9.22389
▁داند	-9.22542
▁The	-9.2256
▁منفی	-9.2268
▁پژوهش	-9.22726
▁قرارداد	-9.22756
وک	-9.2277
▁غرب	-9.23186
▁فل	-9.23352
▁سلاح	-9.23443
▁عرضه	-9.23491
▁فضا	-9.23513
▁استرالیا	-9.2367
▁کلمات	-9.23674
▁ذ	-9.23761
▁قبول	-9.23785
▁هی	-9.23857
▁محدودیت	-9.23904
▁نماید	-9.23926
▁منتظر	-9.23949
▁شماره	-9.23949
یدن	-9.24051
▁فرزندان	-9.24097
▁نش	-9.24158
تقویت	-9.24256
▁عین	-9.24352
▁آگاه	-9.24391
▁کشتی	-9.24395
▁احساسات	-9.24441
▁نرخ	-9.24472
▁پاک	-9.24514
▁اندازی	-9.24543
▁گی	-9.24563
▁خوان	-9.24583
▁11	-9.24733
▁دروغ	-9.24823
رات	-9.24946
▁باشم	-9.25032
▁نیازهای	-9.25041
▁پوشش	-9.25108
▁نوشتن	-9.25231
▁شویم	-9.2528
▁تب	-9.25313
▁هوایی	-9.25324
▁شمار	-9.25351
▁مست	-9.25532
▁دان	-9.2566
▁قابلیت	-9.25724
فا	-9.25747
فی	-9.25799
▁بل	-9.25825
(	-9.25877
▁خو	-9.26162
▁رشته	-9.26206
▁تمایل	-9.26215
▁مالیات	-9.26248
▁ارشد	-9.26325
▁».	-9.26365
▁دستور	-9.2637
▁کارکنان	-9.26442
▁دانیم	-9.26453
▁50	-9.26588
▁والدین	-9.26675
▁نهایی	-9.26681
▁هتل	-9.26795
▁ذکر	-9.26815
▁اظهار	-9.27263
▁همواره	-9.27266
▁درمانی	-9.27297
▁امید	-9.27428
▁شنید	-9.27457
▁ـ	-9.27463
▁حیوانات	-9.27474
مر	-9.27479
▁هشدار	-9.275
نج	-9.27571
ینه	-9.27579
▁قبلی	-9.27611
▁St	-9.27733
▁Re	-9.27759
▁خواسته	-9.27918
▁نظارت	-9.27973
000	-9.2803
ين	-9.28076
▁مستقل	-9.28092
▁اختصاص	-9.28211
▁آشکار	-9.28212
▁نصب	-9.28212
▁صاحب	-9.28569
▁حر	-9.28587
بت	-9.28716
▁بس	-9.28862
▁برسد	-9.29061
▁بله	-9.29129
▁سگ	-9.29214
ow	-9.29231
▁عهد	-9.29335
یست	-9.29378
▁متر	-9.29412
داری	-9.29473
▁مص	-9.29537
ـ	-9.29673
▁دانست	-9.29825
▁برداشت	-9.29829
▁یه	-9.29837
▁مند	-9.2988
▁بگیرند	-9.29924
▁استاد	-9.29944
▁روزنامه	-9.30147
▁تقسیم	-9.30257
▁عوض	-9.30257
اج	-9.30258
▁کاربر	-9.3031
▁منحصر	-9.30379
▁تماشا	-9.30379
ay	-9.30722
▁احترام	-9.30745
▁اداره	-9.30747
▁سالگی	-9.30908
▁مجدد	-9.30989
خته	-9.3099
این	-9.31126
▁فیزیکی	-9.3145
▁پرو	-9.31468
▁گاه	-9.31489
▁شدم	-9.31537
▁شناسی	-9.31543
▁بدتر	-9.31626
▁نظام	-9.31676
▁حفاظت	-9.3185
▁آسمان	-9.31851
as	-9.31888
▁وعده	-9.31988
▁n	-9.32201
▁اقامت	-9.32222
▁سبز	-9.32223
▁نویسنده	-9.32241
▁نوشت	-9.32282
وف	-9.32343
▁قدرتمند	-9.32349
▁موتور	-9.32592
▁ایمان	-9.32611
▁گام	-9.32643
٫	-9.32719
گا	-9.32721
▁مي	-9.32726
▁انتشار	-9.32843
▁چاپ	-9.33057
▁مشغول	-9.33096
سازی	-9.33251
▁رهبران	-9.3327
▁خورشید	-9.33344
▁آسیا	-9.33374
▁۱۵	-9.33375
▁تاریخی	-9.33428
▁خودمان	-9.33538
▁رایگان	-9.33714
...	-9.33754
▁زیبایی	-9.33834
▁خدای	-9.33895
▁دفتر	-9.33973
▁13	-9.34003
▁تایید	-9.34084
ء	-9.34343
▁علوم	-9.34503
▁نشست	-9.3459
▁لحاظ	-9.34606
▁تور	-9.34713
▁شاهد	-9.34746
▁آموز	-9.34765
▁جن	-9.34787
هر	-9.35076
▁۳۰	-9.35087
اپ	-9.35118
▁غربی	-9.3515
▁اروپایی	-9.3524
▁مرکزی	-9.35243
▁راحت	-9.35316
▁چنان	-9.35501
▁مطلب	-9.35627
▁دقت	-9.35627
▁16	-9.3571
▁الان	-9.35712
▁میدان	-9.35716
▁100	-9.3576
▁X	-9.35779
▁نشد	-9.35803
▁بردن	-9.35922
▁پرسید	-9.36007
▁تی	-9.36204
▁نباشد	-9.36399
▁تولد	-9.36405
ter	-9.36562
▁مرز	-9.36593
▁گناه	-9.36659
▁تحریم	-9.36682
▁تضمین	-9.37048
کش	-9.37213
▁تیر	-9.37396
▁اسپ	-9.37508
▁داشتم	-9.37593
کل	-9.37594
▁رز	-9.37704
▁بیمارستان	-9.37715
▁جراحی	-9.37833
▁25	-9.37876
▁تری	-9.37978
▁آور	-9.38037
▁دادگاه	-9.38061
▁فعلی	-9.38095
▁f	-9.38211
▁اصول	-9.38381
▁منافع	-9.3849
▁سلامتی	-9.38535
▁i	-9.38551
▁مهمی	-9.38577
▁آگاهی	-9.38619
▁طبقه	-9.38685
▁برخورد	-9.38718
▁عربستان	-9.38759
▁پن	-9.38909
▁متخصص	-9.38931
▁چینی	-9.38946
▁گوشی	-9.38975
▁مهاجرت	-9.38983
▁قهوه	-9.39019
▁مه	-9.39025
▁بودجه	-9.39211
▁برادر	-9.39309
▁فرمود	-9.39339
▁پادشاه	-9.39551
▁ضرب	-9.39555
▁نامید	-9.39598
▁خورد	-9.39609
▁دیوار	-9.39722
▁رنج	-9.39732
▁دسته	-9.3975
▁w	-9.39764
▁تکنیک	-9.39819
رف	-9.39853
▁جذاب	-9.39952
▁چگونگ	-9.39952
▁بقی	-9.39989
om	-9.39999
ation	-9.40155
▁چی	-9.40312
▁نابود	-9.4076
▁گذارد	-9.40953
▁روح	-9.41267
▁عادی	-9.41308
▁آیند	-9.4141
▁مصاحبه	-9.41573
▁شیمیایی	-9.41585
▁اح	-9.41663
▁عجیب	-9.41709
▁تس	-9.41752
▁پرسش	-9.41758
پا	-9.41805
▁خیابان	-9.41846
▁بگذارید	-9.41899
▁بیت	-9.4198
ul	-9.41985
▁پذیرفت	-9.4201
▁14	-9.4208
▁نیازمند	-9.42128
▁توصیف	-9.42256
▁گفتم	-9.42436
▁امن	-9.42447
▁عقب	-9.42532
▁حکم	-9.42671
▁اطلاع	-9.42757
▁e	-9.42773
▁امتحان	-9.42806
▁جلسه	-9.42806
▁منتقل	-9.42806
▁مایل	-9.43021
لف	-9.43024
ir	-9.43032
بط	-9.43047
▁جنوب	-9.43086
▁بدهید	-9.43112
▁سوخت	-9.43117
▁ابر	-9.43128
▁جنب	-9.43132
زو	-9.43206
▁روغن	-9.43221
▁كرد	-9.4327
▁طبیعت	-9.43359
▁برتر	-9.43391
▁بستگ	-9.43397
▁کارگران	-9.43407
▁یافتن	-9.43492
▁درگیر	-9.43497
▁خروج	-9.43498
▁آمار	-9.43567
داد	-9.43727
▁مزایای	-9.43824
▁ترجیح	-9.43915
▁مفهوم	-9.44054
▁برنده	-9.44091
▁فروشگاه	-9.44147
▁وبلاگ	-9.44194
▁دم	-9.44279
▁سل	-9.44424
ستر	-9.44455
▁حملات	-9.44472
▁اصلاح	-9.44474
▁بایست	-9.44509
▁ایرانی	-9.4469
▁سرد	-9.44715
▁صحنه	-9.44755
▁عفونت	-9.44759
▁صنعتی	-9.44798
▁رتبه	-9.44896
▁کارشناس	-9.44965
▁خویش	-9.45061
▁برخوردار	-9.45076
▁سم	-9.45114
▁ترجمه	-9.45177
▁مقام	-9.45214
▁جایزه	-9.45324
▁نگهداری	-9.4534
▁زند	-9.45459
▁فن	-9.45537
▁هیجان	-9.45602
▁امضا	-9.45623
▁بزرگتر	-9.45679
▁مصر	-9.45777
▁تامین	-9.45907
▁باره	-9.45927
▁کلید	-9.45973
▁دعوت	-9.46027
▁خطرناک	-9.46028
▁خشک	-9.4604
▁فرایند	-9.46042
▁نقاط	-9.46321
▁الگو	-9.46321
ot	-9.46325
▁تقریب	-9.4669
▁ایمنی	-9.46704
▁ویتامین	-9.46742
▁In	-9.46753
▁اهل	-9.46754
▁بتوانند	-9.46761
▁شمال	-9.46771
▁هزاران	-9.46791
▁زا	-9.46798
▁فور	-9.471
▁ملت	-9.47111
▁برداری	-9.47117
▁رساند	-9.47152
▁تخصص	-9.47173
▁لینک	-9.47182
▁خطا	-9.47232
▁پیشرفته	-9.47244
ia	-9.47324
▁r	-9.47342
▁مقاومت	-9.47375
▁متصل	-9.47461
▁جزیره	-9.47464
▁چا	-9.47489
▁کانال	-9.47545
▁ملاقات	-9.47606
▁صورتی	-9.47732
▁عبور	-9.47751
W	-9.4777
▁فرار	-9.47896
▁رها	-9.47964
▁تابستان	-9.48041
▁تکمیل	-9.48186
▁خرد	-9.48225
سل	-9.48322
▁چهارم	-9.48429
%	-9.48498
▁آزمون	-9.48623
▁رهبر	-9.48706
▁میشود	-9.48789
▁۱۲	-9.48795
▁مدیران	-9.48863
▁نیم	-9.48889
▁فوتبال	-9.48916
اژ	-9.49024
▁قرمز	-9.49063
▁ویروس	-9.49066
▁الهی	-9.49069
▁جزئیات	-9.49126
▁ارتباطات	-9.49163
▁گذشت	-9.4923
▁فی	-9.49286
▁محتوا	-9.49367
▁خر	-9.49428
▁امیدوار	-9.49488
▁معروف	-9.49504
▁دشمن	-9.49593
▁گذار	-9.4965
▁ارز	-9.49716
لین	-9.49757
▁سرزمین	-9.49947
▁دریایی	-9.50002
▁کلیسا	-9.50146
▁تقاضا	-9.50243
اجتناب	-9.50244
▁مسال	-9.50463
▁تفکر	-9.50541
▁بطور	-9.50541
de	-9.50561
▁کارها	-9.50578
ندگان	-9.50639
▁کارگردان	-9.50707
▁تجهیزات	-9.50713
K	-9.50724
▁تشویق	-9.50839
▁خاک	-9.50906
داران	-9.50924
▁پنهان	-9.51142
▁تعامل	-9.51309
▁پایدار	-9.51379
▁انجمن	-9.51438
▁بروید	-9.51599
▁ژن	-9.51708
▁نظریه	-9.51755
▁17	-9.51994
▁بروز	-9.52063
▁دهندگان	-9.52143
▁گیر	-9.52145
خور	-9.52181
▁تاکنون	-9.52193
▁عادت	-9.52193
▁مخالف	-9.52221
▁پخ	-9.52378
▁پیروزی	-9.52467
▁وظیفه	-9.52495
▁ایالت	-9.52507
▁شهروندان	-9.52573
▁میلادی	-9.52649
▁ثانیه	-9.528
افت	-9.52814
▁قر	-9.52891
▁پدید	-9.52968
▁ریسک	-9.5298
▁کارگر	-9.53036
▁اع	-9.53044
▁چپ	-9.53045
ct	-9.53143
▁شهری	-9.53188
▁نیویورک	-9.53258
▁0	-9.53308
▁جنبش	-9.53551
▁بیست	-9.53723
▁کش	-9.53739
وپ	-9.53739
▁سعودی	-9.53872
▁پاکستان	-9.53887
▁محسو	-9.5391
▁h	-9.53992
ent	-9.54068
la	-9.5409
پر	-9.54128
▁پای	-9.54159
▁اختلاف	-9.5418
▁ناراحت	-9.5418
▁نیمه	-9.54183
▁گفتگو	-9.54271
▁انتقاد	-9.54335
▁حضرت	-9.54335
▁عل	-9.54361
▁.»	-9.54383
▁بودیم	-9.54424
▁متمرکز	-9.54489
▁باغ	-9.54506
▁شانس	-9.54512
▁موقع	-9.54576
▁جایگاه	-9.54607
▁انگیزه	-9.54609
ss	-9.54679
گونه	-9.54772
▁رویکرد	-9.54801
▁هو	-9.54834
فه	-9.54923
▁واضح	-9.54955
▁عظیم	-9.54955
▁نویس	-9.55043
▁امسال	-9.55112
▁افتاده	-9.55256
▁اضافی	-9.55267
▁بنیاد	-9.5527
▁آرزو	-9.55291
▁تغذیه	-9.55423
▁سابق	-9.55516
▁ممنوع	-9.5558
▁بتوانید	-9.55636
.”	-9.55649
ve	-9.55689
▁مداوم	-9.55737
▁بگویید	-9.55738
▁همانند	-9.55809
▁برچسب	-9.55894
▁پیوست	-9.55896
▁قبلا	-9.55955
▁طلا	-9.55956
گری	-9.55961
▁بیدار	-9.55991
▁پو	-9.5602
▁پیوند	-9.56053
▁عدد	-9.56057
▁آهن	-9.56062
▁مقابله	-9.56134
▁هاست	-9.5618
▁مطالب	-9.56208
▁دانشجو	-9.56264
▁نماز	-9.56307
▁سپتامبر	-9.56366
▁کشد	-9.56519
▁تاکید	-9.56532
um	-9.56565
▁اتفاقی	-9.56592
▁دیدار	-9.56748
▁سرگرم	-9.56843
۰۰	-9.56888
▁پیامبر	-9.56913
▁نیا	-9.56994
▁توزیع	-9.57
▁بهداشت	-9.57078
▁سؤال	-9.57159
▁چربی	-9.57163
▁چهره	-9.57168
▁مل	-9.57187
▁ضعیف	-9.57213
▁کالا	-9.57255
▁g	-9.57279
▁روزهای	-9.57469
▁تخم	-9.57471
▁افسردگی	-9.57481
▁بدهد	-9.57497
▁صحیح	-9.57556
▁گویی	-9.5775
ig	-9.57887
▁تنهایی	-9.57896
▁60	-9.57941
▁ویزا	-9.57947
▁روستا	-9.57978
ژن	-9.58063
se	-9.58072
▁حداکثر	-9.58118
▁پروتئین	-9.58118
▁کردید	-9.58257
▁فنی	-9.58351
▁بیشترین	-9.58362
▁40	-9.58429
▁دقیقا	-9.58601
▁فرستاد	-9.58602
▁غذاهای	-9.58621
▁میکند	-9.58674
▁in	-9.58721
▁پذیرش	-9.58786
▁آورند	-9.58874
▁قهرمان	-9.58924
▁سیاره	-9.58927
▁۱۸	-9.58958
▁بخوانید	-9.58994
▁ناگهان	-9.59086
▁مراحل	-9.59086
اء	-9.59222
j	-9.59248
▁آثار	-9.59249
▁کوه	-9.59282
lo	-9.59334
ارغ	-9.59478
▁کنفرانس	-9.59574
▁گفتن	-9.59578
▁کشید	-9.59689
▁پذیری	-9.59827
▁نوعی	-9.59884
▁سنت	-9.59885
▁انگلستان	-9.599
دام	-9.59967
▁شماست	-9.60027
▁اون	-9.60072
▁گروهی	-9.60084
▁سنگین	-9.60085
▁پیر	-9.6012
▁بگویم	-9.60139
▁روان	-9.60218
▁اختلال	-9.6037
▁معمولی	-9.60437
▁امتیاز	-9.60557
▁شغلی	-9.60563
▁افکار	-9.60605
▁حافظه	-9.60678
▁سختی	-9.60773
▁اصلا	-9.6081
▁مطابق	-9.60886
▁استخدام	-9.60887
▁بدین	-9.60891
قاعد	-9.60895
▁مون	-9.60924
▁ایتالیا	-9.60981
▁کان	-9.61059
▁معنا	-9.61243
▁پیرو	-9.61343
▁همزمان	-9.61385
▁شورای	-9.61592
▁نهاد	-9.61639
▁فهم	-9.61639
▁قتل	-9.61718
▁موزه	-9.61724
▁دعا	-9.61729
▁گرفتند	-9.6174
▁نگار	-9.61746
▁بیمه	-9.61795
▁میوه	-9.61845
▁پرورش	-9.61884
▁فرمان	-9.61895
te	-9.61973
▁24	-9.62011
▁بوک	-9.6205
▁نمای	-9.62091
▁ارزان	-9.62116
▁آهنگ	-9.62231
▁سیگار	-9.62256
▁قلبی	-9.62364
▁هماهنگ	-9.62384
ry	-9.6245
▁صادر	-9.62534
▁دهان	-9.62535
▁بارداری	-9.6264
me	-9.6265
▁نفوذ	-9.6272
▁جاده	-9.6272
▁مجوز	-9.62721
▁تهران	-9.62722
▁روس	-9.62831
▁تجزی	-9.62888
▁برده	-9.62989
▁داروهای	-9.63115
▁اصطلاح	-9.63226
▁مذاکره	-9.63226
▁سفارش	-9.63226
ive	-9.63252
▁نمایند	-9.63332
▁گردید	-9.63375
▁جستجوی	-9.63397
▁جر	-9.63509
id	-9.63839
▁مرتب	-9.6388
▁هایشان	-9.63904
▁اتصال	-9.63909
▁یکسان	-9.6396
▁چک	-9.64009
▁هرچند	-9.64077
▁وسیع	-9.64091
اخر	-9.64135
▁سهام	-9.64155
▁مراجع	-9.64184
▁عملی	-9.64259
▁کاش	-9.64299
▁سوء	-9.6445
▁ساختن	-9.64629
▁مور	-9.64673
▁مانع	-9.64711
▁پوش	-9.64723
▁Co	-9.64924
▁محکوم	-9.64931
▁معامله	-9.64931
▁سین	-9.65077
▁۵۰	-9.65264
▁اپل	-9.65309
▁نقشه	-9.65418
▁فهرست	-9.65448
▁صبر	-9.65513
▁شوم	-9.65562
▁متعدد	-9.65621
▁افتخار	-9.65794
tion	-9.65808
▁Ma	-9.65843
▁خلاصه	-9.65884
▁لندن	-9.65971
▁فیل	-9.66044
▁بازداشت	-9.6616
▁گذر	-9.66213
▁نمایید	-9.66263
▁بخواهید	-9.66316
▁مبتنی	-9.66316
حاوی	-9.66398
▁جشن	-9.66718
▁موضوعات	-9.66836
▁[...]	-9.66841
▁رانندگی	-9.66841
▁طلب	-9.66842
▁گیاه	-9.66842
▁کلیک	-9.6687
▁غل	-9.6694
▁موشک	-9.66963
▁عدالت	-9.67016
▁تمیز	-9.6702
▁ریشه	-9.67023
▁عیس	-9.67118
▁واشنگتن	-9.67192
▁۱۰۰	-9.67219
X	-9.67334
▁تاسیس	-9.67371
▁آم	-9.67412
ut	-9.67495
ion	-9.67544
لقو	-9.67545
▁ساحل	-9.67545
▁اثرات	-9.67597
تیک	-9.67628
▁ببرید	-9.67722
شا	-9.67756
▁سخنرانی	-9.67899
▁مهندسی	-9.68007
▁سقوط	-9.68075
▁براساس	-9.68076
▁ندارید	-9.68254
▁پایگاه	-9.68286
▁نزد	-9.68419
▁مذاکرات	-9.68431
▁کمبود	-9.68431
▁بهتری	-9.6846
▁تحمل	-9.68555
اژه	-9.68601
▁مشاور	-9.68641
▁کور	-9.68691
ma	-9.6876
▁هویت	-9.68869
▁بازیکنان	-9.68929
▁مشهور	-9.68968
زید	-9.69156
▁مارس	-9.69371
گذاری	-9.69472
▁همچون	-9.69506
▁گوشت	-9.69607
▁پزشکان	-9.69662
▁شواهد	-9.69685
▁خانگی	-9.69687
▁دموکرات	-9.69866
▁انداخت	-9.69884
▁سوار	-9.69907
▁بهشت	-9.69938
ab	-9.69988
▁بیند	-9.70143
▁بهداشتی	-9.70349
▁اندک	-9.70373
▁رستوران	-9.70409
▁وابسته	-9.70409
▁بازسازی	-9.70516
▁معماری	-9.70592
▁رویداد	-9.70798
▁کارخانه	-9.708
▁ویدیو	-9.70963
▁جرم	-9.71005
ce	-9.71005
▁دستیابی	-9.71032
▁زودی	-9.71226
▁برجسته	-9.71322
▁محمد	-9.71325
▁کشاورزی	-9.71363
مون	-9.71416
▁اخلاقی	-9.71449
▁ملک	-9.71478
▁موبایل	-9.71505
▁Ch	-9.71547
▁نیمی	-9.71591
▁اعتراض	-9.71689
▁شاه	-9.71689
▁گشت	-9.71697
▁'	-9.71717
▁سان	-9.71724
▁سوالات	-9.71732
▁مشاوره	-9.71841
▁مسیحی	-9.71859
▁اکتبر	-9.71873
he	-9.71876
نشین	-9.71931
▁فضایی	-9.71946
▁حجم	-9.72061
▁مراک	-9.72072
▁سالانه	-9.72092
▁درخت	-9.72404
▁نقد	-9.72433
▁سنتی	-9.72495
▁مذهبی	-9.725
▁برگ	-9.72634
▁ندارم	-9.72989
▁کمتری	-9.73013
▁رضایت	-9.73019
▁تم	-9.73021
ap	-9.732
▁کارمندان	-9.73213
and	-9.73305
▁صفحات	-9.73359
▁سلام	-9.73528
▁تأیید	-9.73546
▁انگشت	-9.73546
▁خاورمیانه	-9.73734
▁نبوده	-9.73793
▁عناصر	-9.73922
▁کیلومتر	-9.73922
▁فراوان	-9.73924
▁مراسم	-9.73938
▁فهمید	-9.74057
▁استقلال	-9.7411
▁آزار	-9.74168
▁خواهر	-9.74196
▁مسلمان	-9.74323
▁رمز	-9.74327
▁آزمایشگاه	-9.74392
ate	-9.7453
▁هوش	-9.74893
▁the	-9.74944
▁سینما	-9.74969
▁جاری	-9.74977
em	-9.75033
▁عزیز	-9.75057
زار	-9.75076
▁مدارس	-9.7515
▁جنگل	-9.7516
ine	-9.75278
▁معدن	-9.75297
ژانس	-9.75438
▁بلافاص	-9.75655
▁آدرس	-9.75822
▁عصر	-9.75822
ير	-9.75912
رز	-9.75971
▁پردازش	-9.76014
▁نموده	-9.76196
▁قالب	-9.76206
com	-9.76233
▁ریز	-9.76381
▁مجلس	-9.76443
▁De	-9.76457
▁بارها	-9.76654
▁شاد	-9.76699
▁فرانسوی	-9.76784
▁اولویت	-9.76786
▁قطعا	-9.76832
▁انگلیس	-9.76857
۰۰۰	-9.76985
▁کتابخانه	-9.77025
▁معتبر	-9.77367
▁ing	-9.77381
▁تاریک	-9.77468
▁باستان	-9.77517
پذیر	-9.77545
▁روبرو	-9.77563
▁فقر	-9.77581
▁گذاران	-9.77636
▁پرس	-9.77739
▁دسامبر	-9.77757
▁مصنوعی	-9.77757
vi	-9.778
▁پرونده	-9.77992
li	-9.78038
▁شوهر	-9.78149
▁ثروتمند	-9.7815
▁سادگی	-9.78162
▁ماست	-9.78199
▁مرغ	-9.7825
▁عرض	-9.78268
▁گویم	-9.78336
▁ژانویه	-9.78345
▁كن	-9.78347
سم	-9.78366
ard	-9.78389
▁مجموع	-9.78469
co	-9.78492
Q	-9.78539
▁سطوح	-9.78542
قبال	-9.78607
▁شهرهای	-9.78651
▁ابزارهای	-9.78726
▁جوانان	-9.7874
▁باشگاه	-9.78749
▁منزل	-9.78786
▁بازیکن	-9.78838
رق	-9.78875
▁2015	-9.78937
▁نقاشی	-9.78939
▁دستگیر	-9.79049
▁میزبان	-9.79135
▁پاریس	-9.79136
▁and	-9.79148
دل	-9.79206
▁متخصصان	-9.79266
▁قو	-9.7933
▁نظیر	-9.79532
▁مقدس	-9.79533
▁روم	-9.79557
▁+	-9.79583
▁شریک	-9.79709
▁شنبه	-9.79756
▁شا	-9.7992
▁مجله	-9.79981
▁Google	-9.80131
▁ترافیک	-9.80131
▁ایستگاه	-9.80132
▁دومین	-9.80151
▁سور	-9.80203
▁عمده	-9.80217
▁دختران	-9.80233
▁آیت	-9.80338
▁کشیدن	-9.80404
▁یك	-9.80456
▁مهمان	-9.80486
▁طیف	-9.80567
▁۱۳	-9.8057
▁نمایشگاه	-9.80634
▁ثروت	-9.80733
▁نوامبر	-9.80734
دگی	-9.80785
▁نیو	-9.80857
▁پنجره	-9.80858
ge	-9.80885
▁مسابقه	-9.8092
▁دموکراسی	-9.80935
▁دیابت	-9.80936
▁سبب	-9.80937
▁آلمانی	-9.80939
▁وسایل	-9.80944
▁اط	-9.80996
▁چای	-9.81008
▁آرامش	-9.8108
▁نداریم	-9.8114
▁همکاران	-9.81142
گین	-9.81207
op	-9.813
نقض	-9.81317
▁ژوئن	-9.8134
اي	-9.81388
▁شرقی	-9.81401
st	-9.81416
▁حتما	-9.81459
▁سرور	-9.81542
▁پاداش	-9.81543
▁مدرک	-9.81544
▁خسته	-9.81547
▁خالی	-9.8156
▁سریال	-9.8158
▁کاربرد	-9.81642
▁اثبات	-9.81746
▁بزنید	-9.81746
▁شیطان	-9.81746
all	-9.81808
▁ثبات	-9.81949
▁صادرات	-9.82176
▁هاي	-9.82209
▁خورده	-9.82244
اقت	-9.82276
▁اسپانیا	-9.82288
im	-9.82357
▁منظم	-9.82363
▁اب	-9.82392
جه	-9.82433
▁اسب	-9.82478
▁برگشت	-9.82565
▁حساس	-9.8262
▁ظرفیت	-9.82623
▁دادم	-9.82659
اگر	-9.82696
▁فرق	-9.82888
▁فردا	-9.8294
ha	-9.83003
▁مجازات	-9.8314
ac	-9.83178
ْ	-9.8318
▁؟!	-9.83292
▁عموم	-9.8337
ة	-9.83387
▁مسیح	-9.83407
▁تحصیلی	-9.83517
▁تحول	-9.83594
▁نبرد	-9.83599
▁خل	-9.83674
▁غنی	-9.83704
▁آموخت	-9.83802
▁الکترونیکی	-9.83803
▁شن	-9.83889
▁دیدم	-9.84071
▁دیر	-9.84097
▁بافت	-9.84121
▁نیک	-9.84142
▁مکمل	-9.8422
▁امیدوارم	-9.84262
▁نوزاد	-9.84303
▁سابقه	-9.84322
▁هرگونه	-9.84332
▁لطفا	-9.84397
▁جلب	-9.84637
▁قد	-9.84872
▁متعلق	-9.8495
▁مخفی	-9.85055
▁نزدیکی	-9.85087
▁انگار	-9.85165
▁کمپانی	-9.85266
▁تعجب	-9.85266
▁نادیده	-9.85266
▁فرودگاه	-9.85279
▁کمیته	-9.85283
▁90	-9.85331
بخش	-9.85344
▁مربی	-9.85366
▁v	-9.85428
▁سهم	-9.85443
▁Mo	-9.85449
▁ابتلا	-9.85477
▁متولد	-9.85477
▁زخم	-9.85478
▁معلم	-9.85551
پرداز	-9.85729
▁فیس	-9.85769
▁تصوی	-9.85849
▁عصبی	-9.85987
▁خلاف	-9.86023
▁صنایع	-9.86112
▁ارزشمند	-9.86117
▁اجرایی	-9.8629
▁مسلمانان	-9.86298
▁تصادف	-9.86325
▁اوباما	-9.86325
▁موقت	-9.86329
▁یونان	-9.86341
▁تعهد	-9.8639
▁وظایف	-9.86538
▁قول	-9.86597
▁Z	-9.86666
▁گم	-9.86674
▁کیف	-9.86682
▁جانب	-9.86725
▁مارک	-9.86735
▁تکامل	-9.86753
▁ماندن	-9.86802
▁قوم	-9.86811
▁ریاضی	-9.86966
▁خواستار	-9.87002
▁2017	-9.87181
▁نیرو	-9.87208
▁مبلغ	-9.87396
▁دانشکده	-9.87396
ریک	-9.8747
▁شرق	-9.87491
os	-9.875
▁رسانی	-9.87503
خانه	-9.87617
فل	-9.87806
▁مخصوص	-9.87931
ً	-9.8807
▁نویسی	-9.88269
ایز	-9.88446
▁بمب	-9.88518
▁استراتژیک	-9.88651
▁بیانی	-9.88821
▁هوای	-9.88865
▁هورمون	-9.88914
▁سیم	-9.89104
▁تحویل	-9.89133
توانید	-9.89155
▁باتری	-9.89261
وئ	-9.89272
لاس	-9.89297
▁کاربردی	-9.89365
▁هنری	-9.89379
▁ریاست	-9.89393
▁2018	-9.89572
▁تردید	-9.89582
▁یخ	-9.89793
▁اخبار	-9.89803
▁مهمترین	-9.89812
▁چندان	-9.8986
▁ناحیه	-9.90013
▁تعادل	-9.90013
▁اعدام	-9.90023
▁بگوید	-9.90104
▁تل	-9.90388
▁نژاد	-9.90456
▁وضع	-9.90629
▁اپ	-9.90681
▁کمپین	-9.90682
▁رقم	-9.90685
▁بینید	-9.90739
▁ورزشی	-9.90768
ne	-9.90826
▁کفش	-9.90913
▁o	-9.9093
غام	-9.90962
▁کام	-9.91029
▁طالبان	-9.91124
▁Y	-9.91144
▁نکن	-9.91176
▁نوشیدنی	-9.91267
▁۴۰	-9.91323
▁تق	-9.91434
▁جامع	-9.91506
▁تخت	-9.91556
▁تأمین	-9.91572
▁خواه	-9.91618
▁نشود	-9.91629
▁منطقی	-9.91655
▁اي	-9.91658
▁روانی	-9.91751
▁کاغذ	-9.91797
▁زمستان	-9.91797
▁عربی	-9.91822
▁قربانی	-9.91894
▁کارشناسان	-9.91911
▁مثلا	-9.92024
▁میکنند	-9.92035
ta	-9.92044
▁ماجرا	-9.92092
▁فیلتر	-9.92127
▁جور	-9.92228
▁نوآوری	-9.92248
▁تحریک	-9.92248
art	-9.92443
▁یابی	-9.92488
▁>	-9.92544
▁لایه	-9.92557
ie	-9.92635
▁خانوادگی	-9.92701
▁بماند	-9.92708
ho	-9.92792
▁موج	-9.92828
▁سازگار	-9.92957
▁صندلی	-9.92965
▁لب	-9.93006
یوم	-9.93189
▁ورودی	-9.93261
▁اص	-9.93346
▁ظهور	-9.93384
▁متهم	-9.9346
▁80	-9.93494
پل	-9.9351
▁خواستم	-9.93798
▁چیزها	-9.93808
گن	-9.93816
▁فدرال	-9.93843
▁کاخ	-9.93952
▁رایج	-9.93996
▁عوارض	-9.94072
▁سئو	-9.94174
▁دائمی	-9.94176
▁خواهان	-9.94179
▁دائم	-9.94203
▁مجاز	-9.94248
▁ضمن	-9.94369
▁er	-9.94392
▁اتحاد	-9.94511
▁انعط	-9.94534
▁نکات	-9.9454
▁آیه	-9.94546
▁رحم	-9.94732
▁باکتری	-9.94767
▁لزوم	-9.94768
▁برود	-9.94774
امت	-9.94836
▁الکل	-9.94858
▁مراقب	-9.94957
سکو	-9.94975
▁نشین	-9.95003
▁خارجه	-9.95069
▁داشتیم	-9.95165
▁پیشین	-9.95223
ولوژی	-9.95265
▁تعطیلات	-9.9535
▁شهروند	-9.95581
▁شرط	-9.9561
▁کوین	-9.95651
▁بزرگسالان	-9.95654
▁میکرو	-9.95693
▁استراحت	-9.95696
▁حادثه	-9.95696
▁نتوانست	-9.95696
▁غالب	-9.95705
▁کشیده	-9.95826
▁ظرف	-9.95862
▁لبخند	-9.95931
▁ویندوز	-9.95931
▁معادل	-9.95932
▁خراب	-9.95999
▁رمان	-9.96022
ساز	-9.96042
▁مدار	-9.96072
▁آمدن	-9.96152
▁مقررات	-9.96165
▁مسکو	-9.96177
▁ترکیبی	-9.96323
وئید	-9.96403
▁حج	-9.96432
▁حیوان	-9.9645
▁رییس	-9.96494
▁نماد	-9.96678
▁۱۱	-9.96716
اوی	-9.96756
▁كار	-9.96767
▁اقیانوس	-9.96873
▁شکر	-9.97047
▁ویدئو	-9.97285
▁هدیه	-9.97348
▁عقل	-9.9735
▁امکانات	-9.97365
▁بگیریم	-9.97395
▁ذهنی	-9.97428
ag	-9.97434
▁۲۵	-9.97444
▁هل	-9.97502
▁انقلابی	-9.97577
▁گرچه	-9.97622
ّت	-9.97703
▁داعش	-9.97825
▁مقدم	-9.97828
▁جسم	-9.97856
▁راضی	-9.97874
ex	-9.97973
▁2016	-9.98063
▁الهام	-9.98073
▁حسین	-9.98091
est	-9.98103
▁صف	-9.98107
▁پیمان	-9.98134
▁جام	-9.98252
▁استخوان	-9.9832
▁۱۴	-9.98356
ack	-9.9845
▁خطوط	-9.98544
▁سرانجام	-9.98544
▁شایع	-9.98549
▁گمان	-9.98573
ll	-9.98603
▁جانبی	-9.98749
▁تجدید	-9.98785
▁سیل	-9.98954
▁درحالی	-9.99027
if	-9.9921
▁یورو	-9.99289
▁وجه	-9.99332
▁فارس	-9.99354
▁تشکر	-9.99512
▁كند	-9.9952
▁شوروی	-9.99543
▁شاخص	-9.99548
ub	-9.99604
▁اضطراب	-9.99754
▁میتواند	-9.99943
▁کارآفرین	-9.99998
▁ضعف	-9.99999
▁کنگره	-10
▁ناپذیر	-10.0005
▁تروریستی	-10.0015
▁معاملات	-10.0024
▁ماموریت	-10.0027
▁گربه	-10.0032
▁راهنمایی	-10.0034
▁Pro	-10.0039
▁سیگنال	-10.0049
ud	-10.0058
▁فلز	-10.007
▁نفع	-10.0074
▁21	-10.009
▁کت	-10.0092
▁صادق	-10.0092
▁قضاوت	-10.0123
▁ژنتیک	-10.0124
▁نظرات	-10.0125
▁محاسب	-10.0129
▁|	-10.0137
▁تئوری	-10.0148
▁کالج	-10.0152
▁نماینده	-10.0153
گزار	-10.0158
na	-10.0168
ell	-10.0184
▁اخیرا	-10.0193
▁کاربری	-10.0194
▁رفع	-10.0197
▁آپ	-10.0198
▁بگذارد	-10.0198
50	-10.0201
▁مرده	-10.0207
▁فلسفه	-10.0225
di	-10.0234
▁زنند	-10.0236
▁تفسیر	-10.0247
▁دفع	-10.0247
▁مقیاس	-10.0247
▁نمایندگان	-10.0252
▁محور	-10.0255
▁سرنوشت	-10.0272
▁خواهی	-10.0285
▁شیرین	-10.0288
▁خام	-10.0292
bo	-10.0303
▁جنسیت	-10.0313
▁افسر	-10.0325
▁یابند	-10.0327
▁عکاسی	-10.0329
نظر	-10.0335
▁برج	-10.0338
▁آفرین	-10.0348
▁استعداد	-10.0348
▁تازگی	-10.0348
اسیون	-10.0366
طرف	-10.0377
▁٬	-10.0378
▁مقالات	-10.0382
▁دمای	-10.0392
▁عضل	-10.0398
▁زوج	-10.0399
▁علامت	-10.0399
▁بیاید	-10.0399
▁22	-10.04
▁کف	-10.0405
▁گرما	-10.0406
▁بازیگر	-10.0423
▁اختراع	-10.0424
▁مخدر	-10.0424
▁جداگانه	-10.0424
▁شور	-10.0433
▁هرچه	-10.0439
▁سیر	-10.0444
▁سرخ	-10.0448
▁وقوع	-10.0449
▁اشکال	-10.0451
▁کشی	-10.0466
▁خورشیدی	-10.0475
▁دامنه	-10.0475
▁اکثریت	-10.0479
▁چشمان	-10.0483
▁اتومبیل	-10.0526
▁روانشناس	-10.0526
▁پارلمان	-10.0526
▁بدهی	-10.0527
sh	-10.0551
▁اپلیکیشن	-10.0552
▁تنوع	-10.0552
▁افت	-10.0553
▁داوطلب	-10.0578
▁مؤثر	-10.0578
oc	-10.0583
▁مهر	-10.0584
▁پنجم	-10.0595
▁آنقدر	-10.06
٠	-10.0604
▁معلوم	-10.0604
▁بیایید	-10.0604
▁پدرش	-10.0606
▁دام	-10.062
▁نیستید	-10.0625
مال	-10.0628
▁موهای	-10.063
▁روحی	-10.0643
▁روزها	-10.0648
▁مالک	-10.0654
▁اوکراین	-10.0656
▁لغو	-10.0656
▁باران	-10.0658
انگ	-10.0671
▁جلسات	-10.0682
▁سازنده	-10.0696
اتور	-10.0701
▁سازند	-10.0707
▁2014	-10.0708
▁رعای	-10.0708
▁فوری	-10.0711
▁گذاشتن	-10.0719
▁بخوان	-10.0724
▁شادی	-10.0729
ؤ	-10.0734
▁تزریق	-10.0734
▁آلودگی	-10.0734
▁بالاخره	-10.0734
▁#	-10.0741
اکت	-10.0746
▁موجودات	-10.0755
▁70	-10.076
▁طب	-10.0766
▁۶۰	-10.0776
▁کلام	-10.0779
جمع	-10.0786
▁غم	-10.0796
▁دوز	-10.0798
يت	-10.08
▁یهودی	-10.0805
pe	-10.0808
▁موافقت	-10.081
▁نویسندگان	-10.0815
▁سپ	-10.0821
▁استانداردها	-10.0833
▁شرح	-10.0835
▁متنوع	-10.084
▁متعهد	-10.0841
▁فرمانده	-10.0847
▁کوچکتر	-10.0847
▁اسکن	-10.0854
▁مستند	-10.0882
▁دادیم	-10.0885
▁پلاستیک	-10.0893
▁مسلح	-10.0893
▁پوشید	-10.0904
▁باردار	-10.0906
▁توپ	-10.0911
▁خودکار	-10.0918
▁بینیم	-10.0918
▁آفتاب	-10.092
▁سرکوب	-10.092
▁اسناد	-10.092
▁شکایت	-10.092
خاذ	-10.092
age	-10.0924
▁چوب	-10.0929
▁شنا	-10.0942
▁ایمن	-10.0946
▁تأکید	-10.0947
▁جوامع	-10.0947
▁صند	-10.0947
▁مجازی	-10.0959
▁k	-10.0964
▁فوت	-10.0972
▁احتیاج	-10.0974
▁غریب	-10.1001
▁نما	-10.1014
per	-10.1019
▁راستا	-10.1019
▁بخواهد	-10.1028
▁حلقه	-10.1028
▁فیزیک	-10.1034
▁یادآوری	-10.1044
▁سون	-10.1047
▁نخواهند	-10.1053
▁سند	-10.1055
▁بدهند	-10.1057
گل	-10.1064
▁بینند	-10.1064
کتور	-10.1077
▁ماهواره	-10.1082
▁محدوده	-10.1084
▁اسید	-10.1086
▁شام	-10.1097
▁آنتی	-10.1103
▁قطار	-10.1109
▁همگی	-10.111
▁۱۶	-10.1115
ity	-10.1128
▁متاسفانه	-10.1137
▁جعبه	-10.1137
▁تروریسم	-10.1137
▁لبنان	-10.1137
▁طرز	-10.1139
آن	-10.1146
▁نوشیدن	-10.1146
▁آمدند	-10.1153
ph	-10.1155
یابی	-10.1155
▁گذارند	-10.1169
▁اوست	-10.1191
▁الکتریکی	-10.1191
▁دزد	-10.1193
▁مرور	-10.1193
▁شعر	-10.1193
▁ببینند	-10.1199
▁۱۹۸	-10.1199
▁اتفاقات	-10.1203
▁Wi	-10.1203
▁سوئد	-10.1219
دون	-10.1238
▁بدانند	-10.124
▁استثنا	-10.1247
▁کنونی	-10.1256
کننده	-10.1261
▁عنصر	-10.1274
▁تحقق	-10.1274
▁عصبانی	-10.1276
▁توانستند	-10.1288
▁سکوت	-10.1302
▁استدلال	-10.1303
ey	-10.1303
▁ندهید	-10.1303
▁عالم	-10.1303
پوش	-10.1317
▁الزام	-10.133
▁اراده	-10.1336
▁بکار	-10.1348
▁پان	-10.1353
▁برزیل	-10.1359
▁تبلیغ	-10.1367
قابل	-10.1368
ist	-10.1375
▁اشتباهات	-10.1378
▁قطعه	-10.1378
▁کمیسیون	-10.1386
▁خوراک	-10.1386
ast	-10.1389
ess	-10.1399
▁پایتخت	-10.1414
▁هنرمند	-10.1415
▁نامزد	-10.1415
▁رودخانه	-10.1417
▁وسط	-10.1417
▁بپرسید	-10.1421
▁قیام	-10.1436
مود	-10.1437
سایت	-10.144
▁زنجیره	-10.1442
▁خبرنگار	-10.1442
▁روزمره	-10.1443
تواند	-10.1451
▁st	-10.1456
▁بلو	-10.1458
▁شورش	-10.1472
▁!»	-10.148
شویی	-10.1498
▁ندرت	-10.1508
▁آورید	-10.1511
▁500	-10.1518
▁ببرد	-10.1528
▁محافظ	-10.1528
▁زرد	-10.1532
▁سایه	-10.1535
▁کنون	-10.1538
▁بگو	-10.1538
▁ببیند	-10.154
▁آماد	-10.1544
▁راهنمای	-10.1548
▁آوریل	-10.155
IS	-10.1557
▁ببینیم	-10.1561
▁یهودیان	-10.1565
▁خنده	-10.1579
▁فلسطینی	-10.158
▁اشغال	-10.1584
▁توانستم	-10.1601
▁جنایت	-10.1613
▁کربن	-10.1613
عنوان	-10.1614
▁لطف	-10.1617
▁مخاطبان	-10.1617
▁دشمنان	-10.1624
▁دن	-10.1626
▁1-	-10.1629
▁السلام	-10.1642
▁جشنواره	-10.1642
ight	-10.1642
▁تابع	-10.1643
▁مهندس	-10.1653
▁هلند	-10.1664
▁سرباز	-10.1664
▁کمونیست	-10.167
▁حرارت	-10.167
▁آلوده	-10.1671
▁خشم	-10.1671
▁پردازند	-10.1671
▁کوش	-10.1677
▁تصمیمات	-10.1691
راجع	-10.1692
ip	-10.1692
up	-10.1698
▁کارمند	-10.1699
▁مکزیک	-10.1699
▁فقیر	-10.1699
▁دستورالعمل	-10.17
▁قطر	-10.17
▁لمس	-10.1701
▁صح	-10.1717
▁قند	-10.1723
▁مبن	-10.173
▁سربازان	-10.1735
▁فوریه	-10.1744
to	-10.1761
io	-10.1768
▁شارژ	-10.1787
nd	-10.1791
▁گرفتم	-10.1802
▁اگ	-10.181
▁روحانی	-10.1819
▁رغ	-10.182
▁گذراند	-10.182
ازم	-10.1841
og	-10.1848
▁کابل	-10.1851
▁حاکم	-10.1851
▁بگذار	-10.1854
▁پیشگیر	-10.1864
▁نشسته	-10.1867
▁اجاره	-10.1875
▁مسابق	-10.1878
▁حسابداری	-10.188
▁۱۷	-10.1881
▁كنند	-10.19
▁هیئت	-10.1904
▁2012	-10.1904
▁خودکشی	-10.1906
ite	-10.1908
▁بومی	-10.1912
▁صفر	-10.1913
▁گردن	-10.1914
قدر	-10.1916
تمام	-10.1926
▁IP	-10.1933
▁انفجار	-10.1934
▁رفتارهای	-10.1952
▁عرب	-10.1959
▁مقصد	-10.1963
▁تخمین	-10.1965
▁خواستند	-10.1969
فروش	-10.1972
▁نکند	-10.1974
▁جویی	-10.1976
▁گیرید	-10.198
ly	-10.1985
▁پیگیر	-10.1992
▁تجاوز	-10.1993
▁کپی	-10.1994
▁فلسطین	-10.1997
▁توقف	-10.2
ost	-10.2004
▁بخشد	-10.2011
▁محکم	-10.2023
▁194	-10.2046
▁%	-10.2048
▁اتوبوس	-10.2053
▁حقیقی	-10.2053
▁شکنجه	-10.2053
▁سراغ	-10.2053
▁وفادار	-10.2054
▁ناسا	-10.2057
▁مهاجران	-10.2081
▁آفرید	-10.2083
▁کریس	-10.2098
▁وحش	-10.2099
حق	-10.2102
▁ارتفاع	-10.2113
▁خطرات	-10.2115
▁خاطرات	-10.2117
▁نباش	-10.2132
▁بخاطر	-10.2143
▁مهربان	-10.2143
▁دیگه	-10.2143
one	-10.2146
▁کلاسیک	-10.2153
▁مادرش	-10.2162
▁ارتقا	-10.2173
▁استخراج	-10.2173
▁اوضاع	-10.2173
▁پروردگار	-10.2173
▁روایت	-10.2174
▁کالری	-10.2177
اعت	-10.2181
▁فریب	-10.2198
▁خب	-10.2203
▁مشاغل	-10.2204
▁گوناگون	-10.2204
صریح	-10.2205
▁مخاطب	-10.2229
▁کارآمد	-10.2234
▁اتمی	-10.2242
ace	-10.2243
▁تروریست	-10.2245
▁سیب	-10.225
ord	-10.2265
▁متقاضی	-10.2265
▁احمق	-10.2265
▁محروم	-10.2265
▁اتهام	-10.2265
▁محو	-10.2292
▁re	-10.2293
▁Ar	-10.2295
▁برخلاف	-10.2296
▁همدیگر	-10.2296
▁تنفس	-10.2296
▁گیاهان	-10.2296
ff	-10.2296
▁ساکن	-10.2298
▁Me	-10.2306
▁&	-10.2313
▁پناه	-10.2316
▁مسافرت	-10.2319
▁موضع	-10.2326
▁۲۴	-10.2336
▁کرو	-10.234
برداری	-10.234
▁بلا	-10.2346
▁رقص	-10.2357
▁رادیو	-10.2363
▁نباشید	-10.2369
▁قطعات	-10.238
▁نوجوان	-10.2384
▁یمن	-10.2387
▁مایع	-10.2388
▁نقص	-10.2388
▁ربات	-10.2392
▁میدهد	-10.2396
▁ایفا	-10.2401
ock	-10.2404
▁ابد	-10.241
▁2-	-10.241
ment	-10.2417
▁شفاف	-10.2419
▁[+]	-10.2419
▁بگوییم	-10.242
▁نسبتا	-10.2432
▁تنگ	-10.245
▁تخریب	-10.245
▁دکمه	-10.245
▁عقیده	-10.245
▁بکشد	-10.245
▁موافق	-10.2454
▁35	-10.2456
▁23	-10.2462
▁مخالفت	-10.2476
ابراز	-10.248
▁دوچرخه	-10.2482
▁ضرورت	-10.2482
▁آلبوم	-10.2482
▁فساد	-10.2482
▁Mar	-10.2484
▁مدنی	-10.2499
10	-10.2499
▁اشخاص	-10.2513
تحرک	-10.2513
▁An	-10.2523
▁۸۰	-10.2523
▁مارکس	-10.2539
▁محقق	-10.2541
▁ستون	-10.2541
▁36	-10.2542
▁یکپارچ	-10.2544
▁همسایه	-10.2544
▁خاموش	-10.2546
▁نوجوانان	-10.2549
▁نادر	-10.2553
▁اصلاحات	-10.2555
▁همسرش	-10.2557
▁to	-10.256
▁طلاق	-10.2561
وضوح	-10.2576
▁یادداشت	-10.2578
▁سنج	-10.2589
▁پرستار	-10.2602
▁تجربیات	-10.2608
▁کلاه	-10.261
▁خلاقیت	-10.2614
▁غلط	-10.2615
ob	-10.2625
▁کول	-10.2631
▁دریاچه	-10.264
▁طعم	-10.264
ran	-10.2641
▁Sp	-10.2643
▁رفتم	-10.2651
▁باشه	-10.2659
▁عمدتا	-10.266
▁بخورید	-10.2671
▁پال	-10.2674
جام	-10.2691
زاد	-10.2695
▁امپراتور	-10.2703
▁2019	-10.2703
▁ناامید	-10.2703
▁گردند	-10.2711
▁Ad	-10.2719
▁موتورهای	-10.2736
▁گردش	-10.2743
ber	-10.2746
▁عده	-10.2763
▁عاطفی	-10.28
▁فاجعه	-10.28
▁مرزهای	-10.28
▁تعمیر	-10.28
▁بزند	-10.2801
مالکیت	-10.2805
▁شاخ	-10.2808
▁حوادث	-10.2832
▁دستمزد	-10.2832
▁قبیل	-10.2832
ti	-10.2839
ng	-10.2853
▁طرفداران	-10.2864
qu	-10.2865
▁راننده	-10.2867
▁پرنده	-10.2868
▁Ex	-10.2874
▁قل	-10.2884
▁28	-10.2891
▁لذا	-10.2897
▁حامی	-10.2898
▁نداد	-10.2899
توانند	-10.2908
ew	-10.2919
▁To	-10.292
▁مداخله	-10.2923
▁گواهی	-10.2929
▁تسلیم	-10.293
▁جک	-10.2931
ure	-10.2932
▁نداشتند	-10.2933
▁گرایی	-10.2939
▁Ro	-10.2961
▁چارچوب	-10.2962
ناپدید	-10.2963
▁بازرگان	-10.2963
▁نظم	-10.2963
▁تایلند	-10.2963
▁Pa	-10.2964
▁موش	-10.2968
▁انکار	-10.2975
▁Al	-10.2994
▁مؤسس	-10.2995
▁2013	-10.2995
▁سوئیس	-10.2995
▁برآورده	-10.3
▁سخنان	-10.3013
▁Se	-10.3014
▁رفتند	-10.3017
▁بلوک	-10.3023
▁محض	-10.304
▁آپارتمان	-10.3061
▁اشتغال	-10.3061
▁داروها	-10.3065
der	-10.3079
▁فیسبوک	-10.3095
▁مواقع	-10.3095
▁گردشگری	-10.3096
▁پژوهشگر	-10.3106
ov	-10.3123
▁دلم	-10.3127
▁معناست	-10.3142
▁مدارک	-10.3153
▁مطلق	-10.3161
▁صوتی	-10.3162
فزایند	-10.3165
▁دانستم	-10.3192
▁استودیو	-10.3195
▁گنج	-10.3204
دریس	-10.3211
▁مزیت	-10.323
▁باشی	-10.3241
▁خرج	-10.3245
▁سلطنت	-10.3263
پروتکل	-10.3264
▁300	-10.3271
▁جفت	-10.3273
▁گاو	-10.3274
▁تمرینات	-10.3274
▁سار	-10.3276
▁عام	-10.3277
▁چراغ	-10.3278
▁مبنای	-10.3278
ca	-10.3278
▁بقا	-10.3279
PS	-10.328
▁میراث	-10.3297
▁گان	-10.3303
لزم	-10.3304
▁شنیدن	-10.3308
▁امریکایی	-10.3319
▁اسلحه	-10.333
▁الگوریتم	-10.333
▁عذاب	-10.333
▁سوگند	-10.333
▁ابتدایی	-10.3337
▁قربانیان	-10.335
iv	-10.3355
▁معنوی	-10.3365
tor	-10.3385
▁خلاق	-10.3391
▁45	-10.3396
▁عرصه	-10.3399
▁مفاهیم	-10.3399
▁ببرند	-10.3399
▁خلیج	-10.3399
▁کبد	-10.3399
اجد	-10.3404
▁بدانیم	-10.3408
▁فیبر	-10.3408
▁اخلاق	-10.3409
▁مبارز	-10.3416
▁مخصوصا	-10.3424
▁دخالت	-10.3433
▁ونزوئلا	-10.3433
▁پرچم	-10.3433
▁واسطه	-10.3434
▁تومور	-10.3434
▁شجاع	-10.3435
▁زنگ	-10.3441
▁پیروز	-10.3444
Y	-10.3446
ولت	-10.3448
▁تنش	-10.3451
▁کوبا	-10.3452
▁تسهیل	-10.3468
SS	-10.3486
▁پیشرو	-10.349
30	-10.3495
▁برآورد	-10.3497
▁اجباری	-10.3502
▁مضر	-10.3504
IC	-10.351
▁سریعتر	-10.3521
▁Con	-10.3524
▁افتتاح	-10.3537
▁تظاهرات	-10.3543
صورت	-10.3551
▁آقا	-10.3552
▁26	-10.3562
▁بازارها	-10.3565
▁دانستن	-10.3568
▁هنرمندان	-10.3571
▁مقادیر	-10.3572
▁اخراج	-10.3572
▁قایق	-10.3572
▁بوس	-10.3595
▁انتظارات	-10.3596
▁بستر	-10.3598
▁افسانه	-10.3607
▁اندیش	-10.3624
▁معلمان	-10.363
▁چشمگیر	-10.3642
▁زر	-10.3661
ویج	-10.3671
▁لنز	-10.3678
▁عمق	-10.3678
▁—	-10.3678
▁مسلم	-10.3683
▁اندروید	-10.3713
▁لیزر	-10.3713
▁فریاد	-10.3713
▁کاف	-10.3724
▁اندیشه	-10.3729
▁قبلاً	-10.3731
▁شهادت	-10.3748
▁بازیگران	-10.3762
▁خیال	-10.3778
▁التحصیلان	-10.3782
▁ابعاد	-10.3783
▁رفاه	-10.3784
▁توییتر	-10.3784
▁پرتاب	-10.3784
▁برساند	-10.3784
▁وکیل	-10.379
▁رسیدگی	-10.3808
تعلق	-10.381
▁کشاورز	-10.3811
▁ملاحظ	-10.3819
▁حامل	-10.382
▁برسند	-10.3821
▁جنس	-10.3823
▁واردات	-10.3824
ru	-10.3827
▁منطق	-10.3828
▁ایتالیایی	-10.3834
▁اخ	-10.3835
▁فولاد	-10.3855
▁کوک	-10.3858
▁تعطیل	-10.3872
▁جوش	-10.3879
▁کالیفرنیا	-10.3891
▁قطب	-10.3891
▁اکسید	-10.3891
▁محبت	-10.3895
▁ایستاده	-10.3895
▁’	-10.3906
MS	-10.3909
▁27	-10.3918
▁۷۰	-10.392
▁يک	-10.3927
ang	-10.3954
▁منظر	-10.3956
▁نظرسنج	-10.3963
▁التحصیل	-10.3964
▁پوند	-10.3968
▁نادرست	-10.3971
▁دریای	-10.3972
▁داغ	-10.3975
▁رسند	-10.3986
▁ملا	-10.3989
▁کشند	-10.3995
▁دستاورد	-10.4
▁مرتکب	-10.4
▁سرقت	-10.4
ook	-10.4004
ant	-10.4008
▁مسافر	-10.401
▁?	-10.4013
▁طلایی	-10.4016
▁سرتا	-10.4026
▁Br	-10.4031
▁نخواهید	-10.4032
▁نداده	-10.4032
▁غیرقانونی	-10.4036
OS	-10.4036
▁قضی	-10.4037
▁_	-10.404
لوله	-10.406
▁مولکول	-10.4073
▁۲۰۱۵	-10.4073
▁2011	-10.4073
▁مشورت	-10.4073
▁بسازید	-10.4073
▁شهید	-10.4076
ib	-10.4077
اتیک	-10.4083
▁Be	-10.4106
▁خالص	-10.411
▁لهستان	-10.411
▁نگرفت	-10.4112
▁رسم	-10.4119
قصر	-10.4126
[	-10.4127
▁کشت	-10.4129
خص	-10.4142
▁مطلوب	-10.4146
▁شهرها	-10.415
▁مرورگر	-10.4152
قرص	-10.4162
▁سندر	-10.4166
▁آشپزخانه	-10.4184
▁Le	-10.4192
iz	-10.421
▁طراح	-10.4219
▁آکادمی	-10.4221
▁تأسیس	-10.4221
▁اعطا	-10.4221
▁پخت	-10.4234
▁ذات	-10.4245
▁التهاب	-10.4258
▁تفریح	-10.4258
▁شایسته	-10.4258
▁امّا	-10.4258
▁شعار	-10.4258
▁قدردان	-10.4263
▁مهاجر	-10.427
مسدود	-10.4271
▁شبانه	-10.4273
▁جزو	-10.4277
▁ببینم	-10.4284
▁حرکات	-10.4296
▁زندانیان	-10.43
▁شکاف	-10.4324
▁محاسبات	-10.4324
▁جراح	-10.4333
;	-10.4333
▁x	-10.4335
▁بروند	-10.4338
▁کشتن	-10.4348
فور	-10.4376
▁طراحان	-10.4407
▁بگذارند	-10.4432
son	-10.4435
▁اهدا	-10.4437
▁=	-10.4438
▁کرم	-10.4444
▁وحشتناک	-10.4447
▁سایبری	-10.4447
▁فرماید	-10.4447
▁لاتین	-10.4447
ear	-10.446
▁راهکار	-10.4462
ke	-10.4473
ev	-10.4495
▁2008	-10.4496
▁متشک	-10.4497
بورگ	-10.4502
▁ویران	-10.4504
▁تعهدات	-10.4518
ian	-10.4519
mm	-10.452
▁ابو	-10.4521
▁توجیه	-10.4523
▁ضرر	-10.4523
▁کانادایی	-10.4555
▁دیپلم	-10.4561
▁نعمت	-10.4562
▁محرک	-10.4562
▁عسل	-10.4576
ــ	-10.4588
▁موسی	-10.4597
▁سفارت	-10.46
▁زایمان	-10.4601
▁شیشه	-10.4601
▁رضا	-10.4604
▁2000	-10.4612
▁کریم	-10.4617
▁۲۱	-10.4619
▁نکنند	-10.4631
ES	-10.4633
▁نویسد	-10.4637
▁Un	-10.4639
▁آیفون	-10.4639
▁ادبیات	-10.4639
▁جبران	-10.4639
▁دیوید	-10.4639
▁پردازد	-10.4639
واسط	-10.4648
▁رسول	-10.4653
▁پورت	-10.4658
▁دارویی	-10.4669
▁متغیر	-10.4678
▁ارمغا	-10.4678
▁نصف	-10.4678
▁جاذب	-10.4679
▁خوشبختانه	-10.4684
▁میشه	-10.4684
▁اسپانیایی	-10.4691
▁خوشبخت	-10.4711
▁He	-10.4711
غیب	-10.4714
▁معاصر	-10.4717
▁قائل	-10.4717
▁رساندن	-10.4731
▁ناتو	-10.4744
▁جدایی	-10.4747
▁کیست	-10.4748
▁بدهیم	-10.4752
▁کال	-10.4753
▁ائتلاف	-10.4756
▁تدریج	-10.4756
▁تسلیحات	-10.4756
▁تهاجم	-10.4756
▁دوشنبه	-10.4756
▁پرست	-10.4758
▁درختان	-10.4759
▁ندیده	-10.4771
▁!!	-10.4774
▁پیکر	-10.4786
▁مجهز	-10.4796
▁مسجد	-10.4796
▁جغرافیایی	-10.4799
▁کهکشان	-10.4799
ER	-10.4808
وجود	-10.4823
▁جنین	-10.4824
▁پاپ	-10.4828
▁اعتراف	-10.4835
▁طوفان	-10.4835
▁مختص	-10.4835
▁خورند	-10.4836
ـــ	-10.4845
’	-10.4858
▁ادرار	-10.4875
▁رأی	-10.4875
▁حمام	-10.4875
▁2010	-10.4877
▁تمدن	-10.4877
▁کرا	-10.4895
▁ناتوان	-10.4911
▁برادران	-10.4911
▁تبادل	-10.4915
▁میکنم	-10.4921
▁بخصوص	-10.4921
▁اداری	-10.4944
▁تجویز	-10.4955
▁مایکروسافت	-10.4955
▁گرسنگی	-10.4955
▁خیانت	-10.4955
▁شوک	-10.4955
▁تلقی	-10.4956
▁سپری	-10.4962
▁بدهم	-10.4962
▁رویدادهای	-10.4983
▁ابراهیم	-10.4995
▁بنویسید	-10.4995
▁بیاورید	-10.4995
▁بگویند	-10.4996
AR	-10.5024
▁سامان	-10.5025
▁مسافران	-10.5034
▁مغازه	-10.5035
▁مسأل	-10.5035
▁ویرایش	-10.5035
▁هنگ	-10.5046
▁رایان	-10.5055
▁No	-10.5056
▁فرود	-10.5064
٢	-10.5076
▁افراط	-10.5076
▁ایرلند	-10.5076
▁دونالد	-10.5076
▁صمیم	-10.5076
▁!!!	-10.5082
▁نوار	-10.5089
▁مکانیک	-10.5109
▁کیس	-10.5114
▁ارتقاء	-10.5117
▁ایستاد	-10.5153
▁بلاک	-10.5158
مثل	-10.5162
▁رحمت	-10.5165
▁فرمول	-10.5176
tic	-10.5181
ire	-10.5185
AT	-10.5187
▁دایر	-10.5197
▁ژوئیه	-10.5198
▁مغذ	-10.5198
▁خواص	-10.5198
بینی	-10.52
▁قلمرو	-10.5201
▁پاس	-10.5205
▁نوزادان	-10.5227
سپار	-10.5227
▁برانگیز	-10.5239
▁زیرساخت	-10.5239
▁سقف	-10.5239
▁$	-10.5243
▁ویدئویی	-10.5251
▁فرزندتان	-10.5256
▁مذهب	-10.5264
end	-10.5269
▁گذرد	-10.527
ابق	-10.5271
▁وحشت	-10.5277
▁اعتصاب	-10.528
▁زلزله	-10.528
▁الکترو	-10.5281
▁جیمز	-10.5281
▁جولای	-10.5281
▁اینطور	-10.5282
▁مدعی	-10.5282
AC	-10.5299
▁صبحانه	-10.5303
▁لیبی	-10.5304
▁نهادهای	-10.5313
EC	-10.532
▁خونریزی	-10.5322
▁بیفتد	-10.5322
▁نمک	-10.5326
▁گور	-10.5351
▁HD	-10.5357
▁بازنشستگ	-10.5364
▁سبزیجات	-10.5364
▁پروس	-10.5368
ak	-10.5373
ضعیف	-10.5391
▁حقایق	-10.5406
▁خستگی	-10.5406
▁دردناک	-10.5406
▁قاره	-10.5407
no	-10.5413
▁حاکمیت	-10.5415
▁١	-10.5424
▁لس	-10.5438
▁غار	-10.5443
▁آمازون	-10.5448
▁گرافیک	-10.5448
▁تاخیر	-10.5448
▁داوری	-10.5448
▁۲۲	-10.545
▁قبر	-10.545
▁۹۰	-10.5452
▁ساکنان	-10.5454
۵۰	-10.5457
▁قلم	-10.5466
▁فاق	-10.547
▁زور	-10.5477
▁29	-10.5479
▁واکسن	-10.549
▁موانع	-10.549
▁کارکرد	-10.5491
▁3-	-10.55
▁ممنون	-10.5532
▁جدول	-10.5532
▁آرایش	-10.5539
▁سوپر	-10.554
▁مسکن	-10.5543
▁آینه	-10.5556
ous	-10.5565
▁ویتنام	-10.5575
▁بمانید	-10.5575
▁فالون	-10.5575
▁ناهار	-10.5576
▁شیمی	-10.5591
▁بپرس	-10.5607
▁مجسم	-10.5617
▁خلبان	-10.5618
▁نگرش	-10.5618
▁دانستند	-10.5632
da	-10.5633
▁استارت	-10.5635
>	-10.5647
▁جزئی	-10.5655
▁پور	-10.5659
▁خار	-10.566
▁معاون	-10.566
▁بمانند	-10.5661
▁گواهینامه	-10.5662
▁بزرگسال	-10.5669
▁پرندگان	-10.5675
▁پرد	-10.5697
ممکن	-10.5699
۲۰	-10.5701
▁آلرژی	-10.5703
▁اردوگاه	-10.5703
▁تئاتر	-10.5703
▁دندانپزشک	-10.5703
▁پرهیز	-10.5703
▁سف	-10.5704
▁وابستگ	-10.5721
▁ارث	-10.5725
ron	-10.5729
▁گویید	-10.5744
▁بکشید	-10.5747
▁املاک	-10.5747
▁۵۰۰	-10.5747
▁اعداد	-10.5749
▁2009	-10.5758
▁طرفدار	-10.5774
گذر	-10.5778
▁اضطراری	-10.579
▁عبدال	-10.579
▁مخلوط	-10.579
طلع	-10.5791
حاشیه	-10.5791
▁بستن	-10.5829
▁75	-10.5833
▁افزون	-10.5834
▁مستقر	-10.5834
▁بصری	-10.5834
▁مزمن	-10.5834
▁یقین	-10.5836
خودآگاه	-10.5838
▁زانو	-10.584
▁For	-10.5873
▁الکترونیک	-10.5877
▁2020	-10.5878
▁مالزی	-10.5878
▁بندر	-10.5879
▁افشا	-10.5904
▁سامسونگ	-10.5922
▁ساعات	-10.5922
▁ارگان	-10.5944
▁الملل	-10.5968
▁تبع	-10.5969
▁غرق	-10.597
▁فرانک	-10.5975
▁خودروهای	-10.5981
▁نانو	-10.5985
▁چار	-10.5994
▁بگیرم	-10.5996
▁ناشناخته	-10.601
▁۲۰۱۱	-10.601
▁آهسته	-10.601
▁نیکو	-10.6012
▁باهوش	-10.6014
▁بنیان	-10.6015
▁نمایندگی	-10.602
▁افغان	-10.6054
▁خنک	-10.6055
▁عمو	-10.6074
+	-10.6089
▁معیار	-10.6091
▁۲۰۱۸	-10.61
▁بزنند	-10.61
▁بالغ	-10.6102
▁خشن	-10.6118
▁مخرب	-10.6145
▁کاندید	-10.6145
▁مراتب	-10.6146
▁رویای	-10.6158
▁بشود	-10.6159
▁App	-10.619
▁متمایز	-10.619
▁۳۵	-10.6191
ood	-10.6192
▁شفا	-10.6215
▁HIV	-10.6236
▁تحمیل	-10.6236
▁رکورد	-10.6236
▁ابتکار	-10.6236
▁شلوغ	-10.6236
▁کریسمس	-10.6236
▁جبهه	-10.6236
▁کابین	-10.6237
▁بشریت	-10.6239
▁مایکل	-10.624
▁اختلالات	-10.6242
سانس	-10.6265
DA	-10.6267
▁۲۰۱۴	-10.6281
▁خلاقانه	-10.6289
▁گلو	-10.6294
ide	-10.6311
▁for	-10.6312
▁آگهی	-10.6327
▁مدافع	-10.6327
▁۲۰۱۳	-10.6373
▁بفرست	-10.6373
ial	-10.6386
▁پیچ	-10.6387
▁(20	-10.6406
▁جست	-10.6409
حسین	-10.641
▁پویا	-10.6414
▁بیاورد	-10.642
▁مربع	-10.642
▁درخشان	-10.6421
▁2007	-10.6432
▁تقدی	-10.6433
▁ترسناک	-10.6466
▁DNA	-10.647
▁مکرر	-10.647
PA	-10.6508
رسانی	-10.6511
▁اعتیاد	-10.6513
▁انیمیشن	-10.6513
▁ستارگان	-10.6513
▁192	-10.6517
▁جورج	-10.6528
▁فروشنده	-10.6542
J	-10.6551
▁1000	-10.6554
▁اینستاگرام	-10.656
▁عواقب	-10.656
▁عذر	-10.656
▁نیروگاه	-10.6565
▁قرض	-10.657
▁ربط	-10.6574
▁اجتماع	-10.6578
▁دگرگون	-10.6607
▁لحظات	-10.6607
▁پیرامون	-10.6607
▁برسید	-10.661
▁نمودار	-10.6617
▁400	-10.6638
▁دیوانه	-10.6654
ix	-10.6663
▁پاره	-10.6699
▁کنسول	-10.6702
▁فنجان	-10.6702
▁شلیک	-10.6702
▁خوانندگان	-10.6705
▁شهرستان	-10.6724
▁قسم	-10.6731
¬	-10.675
▁دبیرستان	-10.675
▁پلتفرم	-10.675
▁تبعیض	-10.675
▁شرکای	-10.675
▁دافا	-10.6755
▁گرایش	-10.6759
▁کاست	-10.6772
MI	-10.6778
MA	-10.6782
▁تشدید	-10.6798
پتانسیل	-10.6798
▁بیکاری	-10.6801
▁دیروز	-10.6801
▁حواس	-10.6801
غول	-10.6809
ance	-10.6845
▁ثالث	-10.6846
▁دیکتاتور	-10.6846
▁محاکمه	-10.6846
▁جهنم	-10.6846
▁شاهزاده	-10.6846
▁کلسترول	-10.6846
▁نگفت	-10.6846
▁اسرار	-10.6847
▁ردیابی	-10.6849
▁متنفر	-10.6854
▁گرگ	-10.6857
▁کشتار	-10.6859
IN	-10.6876
▁لیگ	-10.6878
▁آواز	-10.6895
▁معبد	-10.6895
▁متقابل	-10.69
▁مترو	-10.6913
con	-10.6928
'	-10.6936
▁معجزه	-10.6944
▁درواقع	-10.6944
▁آگوست	-10.6944
▁شاعر	-10.6944
▁احمد	-10.6944
▁مأموریت	-10.6948
▁۱۹۳	-10.6956
▁بورس	-10.696
▁پارا	-10.6973
▁دروازه	-10.6993
▁همینطور	-10.6993
▁**	-10.6994
▁دیسک	-10.7003
ust	-10.704
▁ظهر	-10.7042
▁شتاب	-10.7042
▁قضایی	-10.7048
▁2006	-10.7054
▁زیان	-10.7055
▁مهار	-10.7058
▁همسرتان	-10.7059
رضا	-10.7064
▁تخلیه	-10.7091
▁صعود	-10.7091
▁اذیت	-10.7091
▁دیپلماتیک	-10.7092
▁مفصل	-10.7141
▁دوازده	-10.7141
▁قفس	-10.7141
▁قلعه	-10.7141
▁نگهبان	-10.7142
▁پنجاه	-10.7143
▁لر	-10.7147
▁سانتی	-10.7149
▁نقلیه	-10.7154
ton	-10.7167
▁عکاس	-10.7177
▁آرژانتین	-10.7191
▁۲۰۱۶	-10.7191
MBA	-10.7193
▁نیافت	-10.7196
AM	-10.7216
▁معده	-10.7234
اخذ	-10.724
▁بازخورد	-10.7241
▁نمره	-10.7243
▁تلخ	-10.7256
▁میتوان	-10.7291
▁کربوهید	-10.7292
▁قاچاق	-10.7292
▁بکند	-10.7293
act	-10.7301
حتماً	-10.7313
NS	-10.7333
out	-10.7334
_	-10.7337
▁حاک	-10.7347
▁بشک	-10.7385
▁کافئین	-10.7394
▁پمپ	-10.7394
▁قاتل	-10.7395
▁راهنما	-10.7437
▁تخفیف	-10.7445
▁قاضی	-10.7445
▁اندونزی	-10.7445
▁اموال	-10.7445
▁سپاه	-10.7445
▁پناهندگان	-10.7446
▁برویم	-10.7449
▁مستمر	-10.745
▁وقف	-10.7456
بستگی	-10.7472
NA	-10.7477
▁فشرده	-10.7496
▁چهارشنبه	-10.7496
▁رقیب	-10.7496
▁تاکتیک	-10.7497
▁مهاجم	-10.7497
▁تربیت	-10.7498
▁خاتم	-10.7498
▁مشتاق	-10.7502
▁صادقانه	-10.7508
▁معیارهای	-10.7511
tra	-10.7537
·	-10.7548
▁انحصار	-10.7548
▁زباله	-10.7548
▁واگذار	-10.7562
▁رهایی	-10.7581
▁اکتشاف	-10.76
▁خسارت	-10.76
▁عادلانه	-10.76
▁میشوند	-10.76
▁بلیط	-10.7601
▁War	-10.7622
▁سکه	-10.7631
▁VPN	-10.7653
▁اقلیت	-10.7653
▁یکشنبه	-10.7653
▁فراخوان	-10.7653
▁پیامدهای	-10.7653
▁نوبت	-10.7667
▁زاده	-10.7684
▁مامور	-10.7704
▁بخواهیم	-10.7705
▁وقایع	-10.7705
▁متناسب	-10.7705
▁راهبرد	-10.7706
▁توافقنامه	-10.7713
مواج	-10.7757
▁اشتیاق	-10.7758
▁صلاحیت	-10.7758
▁فرکانس	-10.7758
▁تعویض	-10.7758
▁شباهت	-10.7758
▁سرپرست	-10.7758
▁اشیاء	-10.7759
▁ناظر	-10.7759
ish	-10.7761
▁خوابیدن	-10.7776
ick	-10.7789
ies	-10.779
▁المپیک	-10.7811
▁غیرنظامی	-10.7811
▁متعادل	-10.7811
▁منتقد	-10.7811
▁بکنید	-10.7812
▁سخنگوی	-10.7812
▁گلوله	-10.7819
▁سردرد	-10.782
▁دستیار	-10.7832
gra	-10.785
▁کارفرما	-10.7864
▁HTML	-10.7865
▁کنجکاو	-10.7865
▁چسب	-10.7865
حساسیت	-10.7876
▁نقر	-10.7892
▁لک	-10.7906
▁درگذشت	-10.7919
▁شوخی	-10.7919
▁جزایر	-10.7919
▁عادات	-10.7919
▁رادیویی	-10.7931
▁هواپیماها	-10.7936
▁وصل	-10.7949
▁بخواهند	-10.7973
▁مشکوک	-10.7973
▁تعبیر	-10.7973
▁ماساژ	-10.7973
▁بازتاب	-10.7973
▁بخار	-10.7974
▁آتی	-10.7993
بندی	-10.7999
▁ظریف	-10.8027
▁مؤمن	-10.8027
▁جادویی	-10.8027
▁گردشگران	-10.8027
قفل	-10.804
▁تاریخچه	-10.8043
▁موسو	-10.8058
▁بازدیدکنندگان	-10.8082
▁خجالت	-10.8082
▁لیبرال	-10.8082
▁حبس	-10.8082
▁مبادله	-10.8084
▁عفو	-10.8086
وگرافی	-10.8113
▁فرشته	-10.8137
▁بخواب	-10.8137
▁صلیب	-10.8137
روژن	-10.8149
▁بوسیل	-10.8154
▁۲۰۱۰	-10.8192
▁فقدان	-10.8192
▁پاسخگویی	-10.8192
▁متعال	-10.8192
▁سودمند	-10.8192
port	-10.8193
▁سواح	-10.8193
▁عضلانی	-10.8194
واحی	-10.8197
▁اعضا	-10.8208
‬	-10.8247
▁یخچال	-10.8247
▁معلول	-10.8248
▁زشت	-10.8248
▁بازرسی	-10.825
▁ولایت	-10.825
▁فاکتور	-10.8251
▁هواداران	-10.8253
▁۲۳	-10.8263
▁بنابر	-10.8264
▁تایپ	-10.8271
▁۲۰۱۲	-10.8303
▁کلمبیا	-10.8303
▁استعفا	-10.8304
علیه	-10.8305
▁ذرات	-10.8308
▁تطبیق	-10.8359
▁ویلیام	-10.836
▁تایمز	-10.8363
▁پارچ	-10.8365
▁گویا	-10.8365
▁عقا	-10.8371
▁بازاریاب	-10.8379
▁آنجلس	-10.8416
▁عبادت	-10.8416
▁وردپرس	-10.8416
▁SEO	-10.8416
▁متابولی	-10.8416
▁دانمارک	-10.8416
▁شفافیت	-10.8429
▁دانشمند	-10.8439
▁خلاص	-10.8443
▁سناریو	-10.8473
▁بیایند	-10.8473
▁New	-10.8477
▁فروشندگان	-10.8484
▁پشتیبان	-10.8494
▁ایدئولوژی	-10.853
▁نامناسب	-10.853
▁استانبول	-10.853
▁سنسور	-10.853
▁زاویه	-10.853
گراف	-10.8531
▁صاف	-10.8545
▁یادآور	-10.8553
,000	-10.8559
▁۲۰۱۷	-10.8587
▁معاهد	-10.8587
▁قصه	-10.8588
▁قضا	-10.859
پیچیدگی	-10.8592
▁سوسیال	-10.8644
▁متأسفانه	-10.8645
▁بمباران	-10.8645
▁پانزده	-10.8703
▁معقول	-10.8703
▁بالینی	-10.8712
Fi	-10.8715
▁You	-10.8735
▁معترض	-10.8762
▁سرزنش	-10.8762
▁Qu	-10.8763
▁مباد	-10.8768
▁احیا	-10.8788
▁بسازد	-10.8821
▁کامیون	-10.8821
▁صدمه	-10.8825
▁مقطع	-10.888
▁سپرده	-10.888
▁احاط	-10.8884
تمدید	-10.8903
▁هیتلر	-10.8939
▁نشوید	-10.8939
▁شنوند	-10.8947
▁۲۰۰۰	-10.8961
ON	-10.8981
▁امشب	-10.9
▁توریست	-10.9005
▁مناظر	-10.9059
▁گمراه	-10.906
▁عروق	-10.906
▁One	-10.9064
▁عمد	-10.9075
▁تاکسی	-10.9077
▁بازنشسته	-10.912
●	-10.912
▁الماس	-10.9121
عهد	-10.916
▁تضاد	-10.9181
٨	-10.9242
▁بورژوا	-10.9242
▁مطبوعات	-10.9242
▁رقبا	-10.9242
▁ورزشکاران	-10.9242
▁سلطه	-10.9243
▁بیگانه	-10.9244
عجله	-10.9251
ence	-10.9275
▁1990	-10.9304
▁تخیل	-10.9304
▁بنزین	-10.9304
▁کارفرمایان	-10.9305
▁iOS	-10.9306
▁جهش	-10.9308
▁فراگیر	-10.9323
▁تجارب	-10.9366
▁گرجستان	-10.9366
▁هیچوقت	-10.9366
▁تعلیم	-10.9366
▁نسبی	-10.9367
مرطوب	-10.9367
بعید	-10.9395
▁اکو	-10.9429
▁بلژیک	-10.9429
▁اعصاب	-10.9429
▁اشعه	-10.9431
▁تاثیرگذار	-10.9453
▁تلسکوپ	-10.9492
▁مباحث	-10.9492
▁مزرعه	-10.9492
▁پرتغال	-10.9492
▁پروفسور	-10.9492
▁مارتین	-10.9492
▁یازده	-10.9493
▁رویاهای	-10.9494
▁فعلا	-10.9495
▁آشپزی	-10.9555
▁زحمت	-10.9555
▁ناخواسته	-10.9555
▁کاتولیک	-10.9555
▁جهاد	-10.9556
▁خندید	-10.956
▁سفیر	-10.956
ake	-10.9576
▁هیدرو	-10.961
▁تقلب	-10.9619
ong	-10.9624
▁برسیم	-10.9624
نشریه	-10.9658
لامپ	-10.9672
▁اتوماتیک	-10.9683
▁سپاسگزار	-10.9683
▁مغناطیس	-10.9683
▁وحدت	-10.9683
▁یوگا	-10.9683
▁محترم	-10.9683
▁براى	-10.9684
▁باطل	-10.9687
▁گرسنه	-10.9747
▁اعزام	-10.9747
▁پوتین	-10.9747
▁مبارک	-10.9748
ash	-10.9767
▁دلخواه	-10.9812
\	-10.9812
▁ذخای	-10.9812
▁ديگر	-10.9812
▁ژنرال	-10.9812
▁کوهستان	-10.9817
▁چرب	-10.9876
٣	-10.9878
▁بپردازید	-10.9878
▁معکوس	-10.9878
▁جسد	-10.9878
▁رانندگان	-10.9879
▁مریخ	-10.988
▁شمشیر	-10.9943
▁مذکور	-10.9943
▁نامحدود	-10.9943
▁پشیمان	-10.9943
▁سوسیالیست	-10.9945
▁فدراسیون	-11.001
▁منصفانه	-11.001
▁USB	-11.001
▁ISO	-11.001
▁شاگردان	-11.001
▁عبارات	-11.001
▁نخورد	-11.0011
▁درایو	-11.0047
{	-11.0076
▁علاقمند	-11.0076
▁سودآور	-11.0076
توطئه	-11.0076
▁کنسرت	-11.0076
▁هرچیز	-11.0076
▁یوسف	-11.0077
▁؟؟؟	-11.0077
▁غزه	-11.0077
▁URL	-11.0143
▁بیاورند	-11.0143
▁بپردازد	-11.0143
▁(19	-11.0144
▁آستانه	-11.0144
▁بایگانی	-11.0144
▁ناخوشایند	-11.0211
▁بطری	-11.0211
▁(1)	-11.0212
حریم	-11.0225
▁مقاوم	-11.0252
}	-11.0279
▁بپردازند	-11.0279
شهود	-11.0302
شمول	-11.0315
▁مأمور	-11.034
داشت	-11.0346
▁World	-11.0347
▁انتقام	-11.0347
▁محرمانه	-11.0347
▁تعلیق	-11.0347
▁تقلید	-11.0348
▁کلینتون	-11.0348
▁عطر	-11.0348
▁نرفت	-11.0348
▁مترجم	-11.0348
▁حیرت	-11.0349
▁سلسل	-11.0353
عامل	-11.0355
▁مجل	-11.0385
▁ببین	-11.0385
▁ماجراجویی	-11.0416
‘	-11.0416
▁سکونت	-11.0416
▁اتریش	-11.0417
▁سحر	-11.0417
▁تپه	-11.0419
▁گارد	-11.042
▁نابرابر	-11.0486
▁نوآوران	-11.0486
▁ظلم	-11.0486
▁ابداع	-11.0486
*	-11.0928
=	-11.0929
٩	-11.0986
<	-11.1987
٧	-11.2316
«	-11.26
@	-11.3009
Z	-11.3506
٥	-11.3851
٤	-11.3949
|	-11.3991
&	-11.4192
é	-11.4454
إ	-11.5207
ٌ	-11.5548
←	-11.6143
١	-11.6335
‫	-11.6392
‍	-11.6518
٦	-11.6776
q	-11.7589
?	-11.8582
“	-11.8902
#	-12.1485
×	-12.1542
ü	-12.1754
®	-12.2654
ە	-12.2892
⁯	-12.3136
°	-12.3386
٬	-12.3849
️	-12.4176
♪	-12.4739
ٍ	-12.4739
ö	-12.5033
ھ	-12.5649
′	-12.5649
›	-12.5971
ó	-12.7377
á	-12.7762
♫	-12.8162
â	-12.8162
~	-12.8162
😉	-12.9013
‪	-12.9468
ä	-12.9944
£	-12.9944
ç	-13.0444
^	-13.097
‹	-13.097
♦	-13.097
🔹	-13.097
ı	-13.1526
😀	-13.1526
$	-13.2058
–	-13.2058
§	-13.2114
ٰ	-13.2114
−	-13.2114
✅	-13.2114
`	-13.2739
à	-13.2739
♥	-13.2739
ˈ	-13.3406
ş	-13.3406
⇐	-13.3406
è	-13.412
▫	-13.412
🔸	-13.4889
ñ	-13.5723
α	-13.5723
É	-13.6632
√	-13.6632
•	-13.7575
	-13.7632
ā	-13.7632
	-13.7632
ã	-13.8743
́	-13.8743
р	-13.8743
í	-13.9993
±	-13.9993
å	-13.9993
⁄	-13.9993
★	-13.9993
и	-13.9993
—	-14.1365
ٿ	-14.1421
Ç	-14.1421
ú	-14.1421
﴾	-14.1421
μ	-14.3088
̊	-14.3088
✓	-14.3088
ٴ	-14.3088
⁭	-14.3088
☺	-14.3088
о	-14.3088
а	-14.3088
н	-14.3088
е	-14.3088
ø	-14.5088
	-14.5088
Ø	-14.5088
ğ	-14.5088
İ	-14.5088
̈	-14.5088
Δ	-14.5088
Ω	-14.5088
ε	-14.5088
ۆ	-14.5088
⁪	-14.5088
◊	-14.5088
♬	-14.5088
♯	-14.5088
✤	-14.5088
✭	-14.5088
⦁	-14.5088
	-14.5088
	-14.5088
🔴	-14.5088
ა	-14.5088
Ö	-14.7588
	-14.7588
ë	-14.7588
ν	-14.7588
▬	-14.7588
○	-14.7588
	-14.7588
🌸	-14.7588
😂	-14.7588
😐	-14.7588
β	-14.7588
д	-14.7588
ɪ	-15.0921
≠	-15.0921
š	-15.0921
	-15.0921
	-15.0921
¤	-15.0921
Â	-15.0921
ï	-15.0921
ò	-15.0921
Ş	-15.0921
̨	-15.0921
κ	-15.0921
Т	-15.0921
ڪ	-15.0921
⁣	-15.0921
⁧	-15.0921
⁮	-15.0921
⃣	-15.0921
≡	-15.0921
≤	-15.0921
➕	-15.0921
	-15.0921
	-15.0921
👏	-15.0921
👻	-15.0921
🔥	-15.0921
🔺	-15.0921
ń	-15.0921
к	-15.0921
с	-15.0921
ვ	-15.0921
ლ	-15.0921
ო	-15.0921
ː	-15.5921
‭	-15.5921
	-15.5921
ē	-15.5921
Ü	-15.5921
י	-15.5921
🇪	-15.5921
🍃	-15.5921
	-15.5921
¡	-15.5921
¢	-15.5921
Ã	-15.5921
Ä	-15.5921
ß	-15.5921
î	-15.5921
ð	-15.5921
÷	-15.5921
ý	-15.5921
ɛ	-15.5921
γ	-15.5921
λ	-15.5921
ο	-15.5921
ρ	-15.5921
ς	-15.5921
τ	-15.5921
Б	-15.5921
б	-15.5921
г	-15.5921
й	-15.5921
ہ	-15.5921
ۂ	-15.5921
ი	-15.5921
‚	-15.5921
≥	-15.5921
▲	-15.5921
▶	-15.5921
◀	-15.5921
◦	-15.5921
☼	-15.5921
❇	-15.5921
メ	-15.5921
事	-15.5921
件	-15.5921
朝	-15.5921
灣	-15.5921
軍	-15.5921
	-15.5921
	-15.5921
	-15.5921
	-15.5921
	-15.5921
	-15.5921
	-15.5921
🔷	-15.5921
😅	-15.5921
😏	-15.5921
😢	-15.5921
😥	-15.5921
😳	-15.5921
😵	-15.5921
🙁	-15.5921
ô	-15.5921
ڵ	-15.5921
л	-15.5921
თ	-15.5921
რ	-15.5921
ს	-15.5921
😛	-16.5878
📣	-16.5879
本	-16.588
日	-16.5881
台	-16.5882
ܜ	-16.5883
ܔ	-16.5884
К	-16.5885
̇	-16.5886
ʊ	-16.5887
ƒ	-16.5888
ê	-16.5889
	-16.589
😊	-16.5891
θ	-16.5892
	-16.5893
🔻	-16.5894
✕	-16.5895
▐	-16.5896
⁩	-16.5897
М	-16.5898
👈	-16.5899
⚡	-16.59
„	-16.5901
🌷	-16.5902
﴿	-16.5903
✔	-16.5904
۔	-16.5905
̋	-16.5906
œ	-16.5907
👌	-16.5908
❤	-16.5909
😍	-16.591
🙂	-16.5911
	-16.5912
©	-16.5913
	-16.5914
□	-16.5915
➖	-16.5916
◄	-16.5917
■	-16.5918
€	-16.5919
▪	-16.592
→	-16.5921
ŋ	-16.5921
ɔ	-16.5921
ʀ	-16.5921
̃	-16.5921
כ	-16.5921
מ	-16.5921
ש	-16.5921
神	-16.5921
谷	-16.5921
🇺	-16.5921
🤗	-16.5921
Ε	-16.5921
П	-16.5921
》	-16.5921
	-16.5921
	-16.5921
	-16.5921
	-16.5921
	-16.5921
¥	-16.5921
Á	-16.5921
Å	-16.5921
Ô	-16.5921
æ	-16.5921
ì	-16.5921
þ	-16.5921
ć	-16.5921
ī	-16.5921
ł	-16.5921
ű	-16.5921
Ž	-16.5921
ǎ	-16.5921
ə	-16.5921
ɜ	-16.5921
ɨ	-16.5921
ʺ	-16.5921
ˌ	-16.5921
ˏ	-16.5921
̏	-16.5921
̵	-16.5921
Α	-16.5921
Μ	-16.5921
Φ	-16.5921
ζ	-16.5921
φ	-16.5921
ω	-16.5921
Г	-16.5921
О	-16.5921
С	-16.5921
м	-16.5921
т	-16.5921
у	-16.5921
ы	-16.5921
я	-16.5921
ё	-16.5921
ћ	-16.5921
ה	-16.5921
ח	-16.5921
פ	-16.5921
ٓ	-16.5921
څ	-16.5921
ګ	-16.5921
ں	-16.5921
ۃ	-16.5921
ێ	-16.5921
ے	-16.5921
ก	-16.5921
ง	-16.5921
แ	-16.5921
ე	-16.5921
ნ	-16.5921
უ	-16.5921
ქ	-16.5921
Ḥ	-16.5921
ṇ	-16.5921
ṯ	-16.5921
ủ	-16.5921
ἐ	-16.5921
ἥ	-16.5921
Ἴ	-16.5921
ῖ	-16.5921
―	-16.5921
†	-16.5921
※	-16.5921
₩	-16.5921
₹	-16.5921
↓	-16.5921
⇆	-16.5921
⇔	-16.5921
∀	-16.5921
∆	-16.5921
∈	-16.5921
∗	-16.5921
∘	-16.5921
∴	-16.5921
≈	-16.5921
⊞	-16.5921
⋆	-16.5921
⌘	-16.5921
⏳	-16.5921
⏺	-16.5921
►	-16.5921
◇	-16.5921
◽	-16.5921
◾	-16.5921
☆	-16.5921
☚	-16.5921
♊	-16.5921
♒	-16.5921
♡	-16.5921
⚽	-16.5921
✋	-16.5921
✍	-16.5921
✳	-16.5921
✵	-16.5921
❌	-16.5921
❗	-16.5921
➌	-16.5921
➐	-16.5921
⟨	-16.5921
⟩	-16.5921
⬅	-16.5921
《	-16.5921
「	-16.5921
か	-16.5921
き	-16.5921
ど	-16.5921
ま	-16.5921
モ	-16.5921
ヤ	-16.5921
一	-16.5921
东	-16.5921
前	-16.5921
十	-16.5921
命	-16.5921
坛	-16.5921
外	-16.5921
天	-16.5921
子	-16.5921
孫	-16.5921
將	-16.5921
撫	-16.5921
斐	-16.5921
旗	-16.5921
月	-16.5921
樹	-16.5921
湾	-16.5921
爱	-16.5921
生	-16.5921
甲	-16.5921
碌	-16.5921
臺	-16.5921
英	-16.5921
蔼	-16.5921
语	-16.5921
锦	-16.5921
门	-16.5921
革	-16.5921
도	-16.5921
라	-16.5921
장	-16.5921
티	-16.5921
	-16.5921
	-16.5921
	-16.5921
	-16.5921
	-16.5921
	-16.5921
	-16.5921
	-16.5921
	-16.5921
	-16.5921
	-16.5921
	-16.5921
	-16.5921
	-16.5921
	-16.5921
	-16.5921
🇩	-16.5921
🇬	-16.5921
🇷	-16.5921
🌀	-16.5921
🌐	-16.5921
🌬	-16.5921
🌲	-16.5921
🌺	-16.5921
🍁	-16.5921
🍳	-16.5921
🎁	-16.5921
🎄	-16.5921
🎥	-16.5921
🎬	-16.5921
🐶	-16.5921
👑	-16.5921
💎	-16.5921
💕	-16.5921
💜	-16.5921
💟	-16.5921
💫	-16.5921
💳	-16.5921
📈	-16.5921
📌	-16.5921
📍	-16.5921
📑	-16.5921
📝	-16.5921
📱	-16.5921
📽	-16.5921
🔎	-16.5921
🔔	-16.5921
🔵	-16.5921
🔶	-16.5921
🗽	-16.5921
😁	-16.5921
😌	-16.5921
😎	-16.5921
😔	-16.5921
😕	-16.5921
😗	-16.5921
😙	-16.5921
😭	-16.5921
😶	-16.5921
🙏	-16.5921
🚀	-16.5921
🚫	-16.5921
🤔	-16.5921
🥇	-16.5921
😒	-16.5921
ū	-16.5921
⁠	-16.5921
아	-16.5921
З	-16.5921
И	-16.5921
х	-16.5921
人	-16.5921
ʁ	-16.5922
ф	-16.5922
ь	-16.5922
გ	-16.5922
მ	-16.5922
↑	-16.5922
