<unk>	0
<s>	0
</s>	0
▁ا	-0
▁ب	-1
▁م	-2
▁د	-3
▁ک	-4
▁ی	-5
▁ه	-6
▁و	-7
▁ر	-8
▁ت	-9
ان	-10
▁.	-11
▁ن	-12
ای	-13
ست	-14
▁ش	-15
ار	-16
ند	-17
▁در	-18
ین	-19
▁س	-20
▁به	-21
▁می	-22
▁،	-23
▁خ	-24
▁آ	-25
▁را	-26
▁از	-27
▁که	-28
ود	-29
▁است	-30
ید	-31
▁با	-32
▁گ	-33
▁پ	-34
▁این	-35
▁بر	-36
▁ف	-37
رد	-38
اد	-39
▁ان	-40
ام	-41
▁ج	-42
▁های	-43
ال	-44
▁ح	-45
▁ع	-46
▁ز	-47
▁چ	-48
ور	-49
▁ق	-50
▁کن	-51
اه	-52
ما	-53
یر	-54
▁یک	-55
▁آن	-56
▁تو	-57
▁هم	-58
▁برای	-59
شت	-60
▁ها	-61
▁ل	-62
یم	-63
▁شد	-64
▁رو	-65
فت	-66
▁ط	-67
اب	-68
▁دار	-69
ون	-70
لی	-71
▁کرد	-72
▁ات	-73
ری	-74
▁من	-75
لا	-76
از	-77
▁مو	-78
▁ای	-79
ها	-80
سی	-81
▁یا	-82
را	-83
گر	-84
▁کار	-85
رو	-86
▁او	-87
▁ده	-88
▁ص	-89
▁خود	-90
▁شما	-91
▁نی	-92
▁ند	-93
▁توان	-94
▁بود	-95
می	-96
▁دا	-97
▁خو	-98
اده	-99
▁تر	-100
▁باش	-101
▁تا	-102
▁دو	-103
▁ما	-104
▁بی	-105
یت	-106
▁کند	-107
▁:	-108
▁شود	-109
▁دی	-110
▁کنند	-111
▁ام	-112
تر	-113
▁شده	-114
▁ال	-115
▁سال	-116
▁(	-117
مان	-118
یا	-119
▁هر	-120
خت	-121
▁)	-122
▁کنید	-123
▁1	-124
▁هست	-125
زی	-126
▁ار	-127
تی	-128
ول	-129
▁اند	-130
گی	-131
▁ید	-132
اید	-133
اس	-134
دا	-135
▁اف	-136
▁ست	-137
وی	-138
▁دان	-139
اری	-140
نو	-141
▁یی	-142
▁داشت	-143
▁»	-144
▁0	-145
▁؟	-146
نگ	-147
ده	-148
کن	-149
▁غ	-150
▁دست	-151
▁اما	-152
▁پی	-153
▁باشد	-154
▁گر	-155
رک	-156
▁دارد	-157
▁مح	-158
▁حال	-159
▁نمی	-160
▁آنها	-161
▁وا	-162
بت	-163
▁2	-164
▁باید	-165
یل	-166
▁تح	-167
▁قر	-168
▁فر	-169
▁اگر	-170
زار	-171
▁«	-172
▁کم	-173
له	-174
▁مع	-175
▁چه	-176
▁دیگر	-177
مو	-178
▁فاده	-179
ات	-180
بی	-181
▁شو	-182
▁واه	-183
▁"	-184
▁چی	-185
انه	-186
▁رس	-187
▁سی	-188
▁اس	-189
▁بار	-190
قی	-191
▁نظ	-192
در	-193
مای	-194
▁بین	-195
▁مت	-196
امه	-197
رف	-198
فته	-199
جود	-200
▁سر	-201
عی	-202
▁انج	-203
▁مش	-204
نی	-205
▁نش	-206
▁۱	-207
▁زمان	-208
▁زند	-209
▁مورد	-210
▁نو	-211
▁داد	-212
▁تن	-213
▁چن	-214
جه	-215
▁هستند	-216
▁گذ	-217
▁بد	-218
که	-219
▁کش	-220
▁تواند	-221
▁مان	-222
▁دهد	-223
▁انجام	-224
▁گاه	-225
▁نا	-226
▁کرده	-227
▁یم	-228
عه	-229
▁ری	-230
▁مر	-231
▁مس	-232
بر	-233
عد	-234
اف	-235
▁روز	-236
▁خواه	-237
▁-	-238
▁اج	-239
▁سا	-240
▁نیست	-241
▁تم	-242
با	-243
▁هی	-244
▁وجود	-245
زش	-246
▁مرد	-247
▁قرار	-248
▁همه	-249
وا	-250
انی	-251
دید	-252
▁مه	-253
▁نه	-254
شتر	-255
کر	-256
▁بیشتر	-257
▁چنین	-258
▁اح	-259
▁جه	-260
کا	-261
▁نیز	-262
▁عنو	-263
▁عنوان	-264
▁ساز	-265
ارد	-266
▁ین	-267
▁وی	-268
رکت	-269
عت	-270
▁بخ	-271
▁!	-272
به	-273
▁مد	-274
▁زی	-275
▁مم	-276
فا	-277
▁اد	-278
▁وق	-279
مین	-280
▁توس	-281
▁پس	-282
امل	-283
▁پیش	-284
▁دارند	-285
▁داشته	-286
خص	-287
▁انت	-288
▁هایی	-289
▁خواهد	-290
▁رن	-291
▁زندگی	-292
▁ور	-293
نا	-294
▁۰	-295
▁تص	-296
▁دانش	-297
ایی	-298
▁نق	-299
▁تج	-300
▁ث	-301
ونه	-302
▁شوند	-303
▁ممکن	-304
▁ذ	-305
▁بز	-306
▁اط	-307
▁روی	-308
▁نظر	-309
▁e	-310
ادی	-311
▁گو	-312
وری	-313
▁اق	-314
▁9	-315
▁داده	-316
▁۲	-317
▁گفت	-318
وم	-319
▁کس	-320
▁s	-321
▁کو	-322
▁راه	-323
ایت	-324
قه	-325
مل	-326
▁شرکت	-327
▁اه	-328
▁بسی	-329
رگ	-330
▁بسیار	-331
▁واق	-332
▁ض	-333
▁مق	-334
یده	-335
▁کردن	-336
یک	-337
▁نگ	-338
▁خا	-339
▁هیچ	-340
▁نیاز	-341
کل	-342
فر	-343
▁3	-344
▁طور	-345
▁تنها	-346
▁زن	-347
▁کنیم	-348
▁اش	-349
▁اص	-350
▁یکی	-351
▁تغ	-352
▁ترین	-353
نده	-354
▁جم	-355
چه	-356
▁مری	-357
هر	-358
▁مریکا	-359
▁S	-360
▁افر	-361
▁بخش	-362
▁؛	-363
ورت	-364
▁رنامه	-365
▁5	-366
▁پر	-367
سان	-368
▁افراد	-369
▁تمام	-370
▁بعد	-371
▁بزرگ	-372
گیر	-373
▁کل	-374
▁قب	-375
▁کمک	-376
▁آم	-377
▁اول	-378
▁مردم	-379
▁ي	-380
▁مند	-381
خا	-382
کی	-383
▁چند	-384
▁جدید	-385
▁یت	-386
▁نام	-387
▁صورت	-388
▁فق	-389
▁ك	-390
▁بازی	-391
شته	-392
▁اع	-393
▁تان	-394
قیق	-395
▁باره	-396
▁C	-397
لت	-398
وه	-399
▁نشان	-400
لام	-401
خی	-402
▁دور	-403
▁i	-404
ییر	-405
▁تغییر	-406
ابر	-407
▁چیزی	-408
صد	-409
جا	-410
▁گیر	-411
▁یاب	-412
▁4	-413
لب	-414
وت	-415
▁زیر	-416
طر	-417
▁دن	-418
▁کت	-419
▁نس	-420
وان	-421
▁A	-422
اره	-423
▁کشور	-424
▁ساخت	-425
▁دل	-426
▁اخ	-427
▁دهند	-428
▁دوست	-429
▁شان	-430
▁پای	-431
▁انه	-432
▁توسط	-433
▁کنم	-434
▁افز	-435
رائ	-436
▁سو	-437
..	-438
▁ارت	-439
الی	-440
▁باز	-441
▁کا	-442
▁مج	-443
شه	-444
▁ایج	-445
▁ایجاد	-446
▁آیا	-447
▁نت	-448
▁خانه	-449
▁حد	-450
▁فقط	-451
▁تب	-452
▁چیز	-453
▁ً	-454
بان	-455
حی	-456
▁ماه	-457
ژی	-458
ابل	-459
▁عمو	-460
▁حا	-461
▁ایر	-462
▁مانند	-463
▁رفت	-464
لو	-465
▁پرو	-466
▁حق	-467
▁وان	-468
▁اب	-469
ارت	-470
▁واقع	-471
▁جهان	-472
▁یافت	-473
▁”	-474
▁طول	-475
▁زمین	-476
لف	-477
عیت	-478
▁بیش	-479
سه	-480
▁n	-481
▁گی	-482
▁روش	-483
▁سیاری	-484
▁6	-485
▁تع	-486
▁غیر	-487
▁8	-488
▁حتی	-489
▁رد	-490
▁تول	-491
▁باشید	-492
▁انتخا	-493
▁اینکه	-494
▁M	-495
▁مط	-496
لیل	-497
▁t	-498
▁بن	-499
ثر	-500
▁خان	-501
ره	-502
شد	-503
▁شهر	-504
▁P	-505
ساس	-506
▁سه	-507
ادر	-508
▁اطلا	-509
▁اطلاع	-510
▁بل	-511
▁شر	-512
شر	-513
▁چگ	-514
▁کردند	-515
▁گرد	-516
ینه	-517
▁ود	-518
▁دید	-519
▁برخی	-520
▁هد	-521
▁فرو	-522
▁لی	-523
▁مهم	-524
▁انداز	-525
ژه	-526
▁باشند	-527
▁لا	-528
▁ایران	-529
▁آی	-530
▁یه	-531
▁تما	-532
ضو	-533
▁۹	-534
▁7	-535
زه	-536
▁گرفت	-537
▁زمانی	-538
▁درصد	-539
ضی	-540
▁ژ	-541
یدا	-542
▁افزای	-543
▁انسان	-544
ستم	-545
▁فیل	-546
▁شب	-547
ورد	-548
صی	-549
▁یل	-550
▁کاری	-551
▁کسی	-552
گاه	-553
▁[	-554
▁اک	-555
▁کتاب	-556
▁دهید	-557
▁قدر	-558
▁کود	-559
▁ایم	-560
▁شن	-561
▁علا	-562
▁فکر	-563
▁شور	-564
▁کودک	-565
▁مث	-566
▁تولید	-567
▁سیا	-568
زد	-569
▁شخص	-570
ریق	-571
▁جنگ	-572
▁B	-573
مایش	-574
▁ِ	-575
▁چرا	-576
on	-577
بود	-578
تب	-579
▁واهید	-580
▁ارائ	-581
▁گرفته	-582
▁“	-583
▁تش	-584
▁ارائه	-585
▁...	-586
رس	-587
▁آب	-588
▁جای	-589
▁خار	-590
یس	-591
▁بودند	-592
▁چگونه	-593
▁T	-594
▁تلا	-595
وق	-596
▁خد	-597
▁وقتی	-598
▁مشکل	-599
مت	-600
سته	-601
▁سازم	-602
زینه	-603
▁بدون	-604
▁نم	-605
▁همین	-606
کان	-607
شم	-608
▁غذ	-609
▁ظ	-610
▁بوده	-611
▁همان	-612
▁هنگ	-613
کار	-614
▁پیدا	-615
▁سیستم	-616
▁شدن	-617
▁قابل	-618
▁دارید	-619
▁گرو	-620
▁شرو	-621
▁مص	-622
▁فرد	-623
▁نخ	-624
▁۳	-625
▁گروه	-626
▁خی	-627
ایل	-628
▁زیادی	-629
▁a	-630
▁شنا	-631
▁D	-632
▁–	-633
ترین	-634
روز	-635
▁نفر	-636
▁احساس	-637
▁خوب	-638
▁کاه	-639
راحی	-640
▁کننده	-641
▁شم	-642
▁شروع	-643
▁­	-644
▁دلیل	-645
▁پو	-646
▁هنگام	-647
بو	-648
▁خیلی	-649
▁کاهش	-650
▁دیگ	-651
▁حس	-652
ازه	-653
▁واهند	-654
▁I	-655
▁آمو	-656
▁دیر	-657
▁وب	-658
▁پن	-659
فق	-660
▁er	-661
▁دولت	-662
▁لو	-663
▁توجه	-664
اشت	-665
▁خدا	-666
زان	-667
▁فیلم	-668
▁هو	-669
▁ولی	-670
▁بازار	-671
▁الا	-672
تص	-673
▁۵	-674
کس	-675
▁امروز	-676
▁آز	-677
▁r	-678
شان	-679
قل	-680
ضر	-681
▁آورد	-682
▁سایت	-683
تما	-684
دام	-685
▁نک	-686
▁خارج	-687
▁ستان	-688
▁گوی	-689
است	-690
▁زبان	-691
▁,	-692
▁اولین	-693
▁قبل	-694
▁عم	-695
دن	-696
▁فروش	-697
▁هترین	-698
▁دیگری	-699
رکز	-700
▁جن	-701
▁بنابر	-702
▁شک	-703
▁حرف	-704
▁باع	-705
▁مدت	-706
گو	-707
▁تاری	-708
▁قدرت	-709
▁حدود	-710
▁میان	-711
▁کسب	-712
▁منط	-713
▁عد	-714
▁تفا	-715
▁منت	-716
▁همی	-717
▁ارو	-718
▁سن	-719
▁همیشه	-720
or	-721
▁یلی	-722
▁G	-723
▁انگ	-724
▁ندارد	-725
▁تجر	-726
▁جا	-727
▁خواست	-728
▁سط	-729
▁خانوا	-730
▁یاد	-731
▁قان	-732
▁پاس	-733
▁تفاوت	-734
▁باعث	-735
▁H	-736
▁مرا	-737
▁صح	-738
ضوع	-739
▁موضوع	-740
▁خص	-741
▁]	-742
▁درست	-743
▁تلاش	-744
▁ارتبا	-745
▁قانون	-746
▁هدف	-747
▁مخت	-748
ثیر	-749
▁طریق	-750
▁توسعه	-751
▁یابی	-752
▁گذشته	-753
▁رق	-754
▁سری	-755
▁احتما	-756
پا	-757
▁طراحی	-758
طه	-759
بال	-760
مات	-761
▁نزد	-762
▁دنبال	-763
لم	-764
▁خصو	-765
میم	-766
صول	-767
گز	-768
▁اید	-769
▁آنچه	-770
▁افت	-771
▁عال	-772
چک	-773
▁کام	-774
▁عر	-775
▁سپ	-776
سر	-777
▁زنان	-778
▁۴	-779
▁R	-780
▁ره	-781
▁نامه	-782
▁محصول	-783
▁جهانی	-784
صل	-785
▁E	-786
▁بدن	-787
رده	-788
▁بهتر	-789
لیه	-790
▁چین	-791
یف	-792
▁گونه	-793
▁شامل	-794
▁هن	-795
▁آینده	-796
▁رمای	-797
▁مختلف	-798
▁هنو	-799
▁یع	-800
▁بیم	-801
▁هنوز	-802
▁وز	-803
ضا	-804
▁گزار	-805
▁جز	-806
اسب	-807
▁نتی	-808
ar	-809
▁تماعی	-810
▁اصلی	-811
قا	-812
▁وسی	-813
▁نوع	-814
خر	-815
▁تصمیم	-816
▁اروپا	-817
▁تاریخ	-818
▁رمایه	-819
▁گفته	-820
▁تحقیق	-821
▁c	-822
▁مسئ	-823
▁نیر	-824
▁طبی	-825
▁وارد	-826
▁ادامه	-827
ریان	-828
▁/	-829
▁تأ	-830
▁المل	-831
▁ته	-832
▁خر	-833
▁سازی	-834
▁الملل	-835
▁F	-836
▁تجربه	-837
▁دادن	-838
▁l	-839
طور	-840
▁L	-841
▁وقت	-842
▁درمان	-843
▁شاه	-844
▁برد	-845
▁اعت	-846
فاق	-847
▁اتفاق	-848
▁کوچک	-849
▁مصرف	-850
▁ساعت	-851
▁نسبت	-852
▁یان	-853
▁حاضر	-854
▁زیرا	-855
▁آل	-856
▁جام	-857
▁رشد	-858
▁جو	-859
▁ران	-860
▁پاسخ	-861
▁هفته	-862
ذیر	-863
▁هوا	-864
▁ملی	-865
▁هزینه	-866
▁نده	-867
▁قط	-868
▁ردا	-869
▁پا	-870
▁بگیر	-871
▁m	-872
رات	-873
▁شورها	-874
رسی	-875
▁آور	-876
▁دارای	-877
▁بررسی	-878
▁نف	-879
ترل	-880
▁عالیت	-881
▁یلیون	-882
▁منطقه	-883
▁سل	-884
▁آموزش	-885
▁تل	-886
▁طر	-887
▁شا	-888
▁حالی	-889
▁کامل	-890
▁ئ	-891
▁کنترل	-892
▁طال	-893
▁خوبی	-894
▁چشم	-895
جر	-896
▁سطح	-897
▁بالا	-898
▁ارزش	-899
▁نزدیک	-900
▁سای	-901
▁داخ	-902
▁برابر	-903
▁چهار	-904
an	-905
▁ثال	-906
▁W	-907
▁نوی	-908
▁کلی	-909
شی	-910
ایط	-911
▁شرایط	-912
▁تبد	-913
▁پشت	-914
▁رسید	-915
▁گذاری	-916
▁همر	-917
▁سلام	-918
▁همراه	-919
▁تبدیل	-920
▁گزارش	-921
وس	-922
▁N	-923
▁صف	-924
▁سف	-925
▁رای	-926
▁مل	-927
▁۶	-928
من	-929
▁مخ	-930
افی	-931
▁دیریت	-932
▁تحت	-933
▁هزار	-934
گان	-935
▁رخ	-936
▁گوید	-937
▁گذار	-938
▁عمل	-939
▁پایان	-940
▁بع	-941
▁نتیجه	-942
ظه	-943
▁ترکی	-944
▁پنج	-945
▁آغ	-946
▁دسترس	-947
▁دوره	-948
▁خاطر	-949
▁یر	-950
▁حل	-951
▁رات	-952
▁۸	-953
هنگ	-954
▁چون	-955
er	-956
▁بلکه	-957
▁آر	-958
▁شدند	-959
▁کاربر	-960
▁صحبت	-961
▁داریم	-962
وند	-963
▁اجازه	-964
▁تک	-965
▁سخت	-966
▁پذیر	-967
ضای	-968
▁مواد	-969
▁اغ	-970
▁شاید	-971
▁دنیا	-972
▁اخت	-973
▁پزش	-974
وز	-975
▁تعد	-976
▁قا	-977
▁فا	-978
یب	-979
▁قد	-980
▁پول	-981
▁صن	-982
▁کمی	-983
▁بیمار	-984
▁تعداد	-985
▁کردم	-986
▁فع	-987
سم	-988
▁یماری	-989
▁شناخت	-990
▁وض	-991
▁شکل	-992
▁عمولا	-993
▁نقل	-994
▁آغاز	-995
▁تق	-996
وار	-997
▁مشت	-998
مه	-999
▁دلار	-1000
▁مثل	-1001
▁جمله	-1002
لاح	-1003
▁راب	-1004
▁طرف	-1005
▁دخ	-1006
▁بند	-1007
مد	-1008
▁آسی	-1009
یط	-1010
یه	-1011
▁شوید	-1012
▁نگاه	-1013
▁الات	-1014
▁بت	-1015
▁رسد	-1016
▁نظام	-1017
لای	-1018
▁b	-1019
▁طب	-1020
رم	-1021
▁واقعی	-1022
ابت	-1023
▁هستید	-1024
▁اتی	-1025
▁آخر	-1026
▁تحده	-1027
▁صفح	-1028
ودی	-1029
شار	-1030
▁خاص	-1031
▁یعنی	-1032
▁اض	-1033
▁بح	-1034
▁مناسب	-1035
▁صد	-1036
اند	-1037
▁اغلب	-1038
▁واقعا	-1039
▁مقد	-1040
▁انر	-1041
▁گیرد	-1042
بوط	-1043
▁خواب	-1044
▁نب	-1045
▁خدمات	-1046
▁رب	-1047
▁امن	-1048
▁رفتار	-1049
مایت	-1050
▁حمایت	-1051
▁مربوط	-1052
هور	-1053
▁قیم	-1054
▁خط	-1055
▁اکن	-1056
▁خون	-1057
▁مدر	-1058
▁زد	-1059
▁سب	-1060
شق	-1061
▁جان	-1062
▁ابت	-1063
▁طالعه	-1064
▁بان	-1065
▁لاز	-1066
▁۷	-1067
▁البت	-1068
▁لازم	-1069
▁داست	-1070
▁g	-1071
▁البته	-1072
▁کسانی	-1073
▁عل	-1074
▁تیم	-1075
▁نگه	-1076
▁پروژه	-1077
▁انرژی	-1078
▁زمینه	-1079
▁عب	-1080
▁مشخص	-1081
▁قیمت	-1082
▁زمایش	-1083
▁سفر	-1084
▁خرید	-1085
▁شبکه	-1086
▁ون	-1087
▁راح	-1088
▁نمایش	-1089
▁واهد	-1090
▁کمتر	-1091
▁گیری	-1092
تصا	-1093
▁اقتصا	-1094
▁منظ	-1095
صر	-1096
▁اعلام	-1097
al	-1098
in	-1099
▁حم	-1100
اط	-1101
▁آنجا	-1102
▁لح	-1103
▁اینجا	-1104
▁رداخت	-1105
▁جوی	-1106
▁روسی	-1107
▁مف	-1108
▁موجود	-1109
▁سیاست	-1110
▁قری	-1111
▁اکنون	-1112
▁d	-1113
ئیس	-1114
الب	-1115
▁بده	-1116
▁عکس	-1117
▁تاثیر	-1118
▁نهاد	-1119
▁کافی	-1120
▁ضر	-1121
▁o	-1122
▁رنگ	-1123
▁سپس	-1124
عا	-1125
▁واهیم	-1126
▁پار	-1127
▁توصی	-1128
▁سایر	-1129
▁ایده	-1130
▁کنار	-1131
▁تمرکز	-1132
ته	-1133
▁سریع	-1134
▁كه	-1135
▁فرهنگ	-1136
ئن	-1137
▁دوم	-1138
▁ۀ	-1139
▁نداشت	-1140
▁سیاسی	-1141
▁درک	-1142
ظا	-1143
راف	-1144
▁انتظا	-1145
▁لب	-1146
▁داشتن	-1147
▁وفق	-1148
▁یشر	-1149
▁قریبا	-1150
دی	-1151
▁انگل	-1152
▁اقدام	-1153
▁نقش	-1154
▁مالی	-1155
▁جامعه	-1156
▁طبیعی	-1157
تری	-1158
▁شناس	-1159
▁O	-1160
▁درد	-1161
▁بهبود	-1162
▁اساس	-1163
▁آش	-1164
▁خصوص	-1165
▁یشرفت	-1166
▁چنان	-1167
▁نویس	-1168
▁نگر	-1169
▁مرگ	-1170
▁هرگز	-1171
▁روند	-1172
▁ساخته	-1173
▁تکن	-1174
▁دارم	-1175
▁in	-1176
▁دارو	-1177
▁ویژه	-1178
▁کنندگ	-1179
▁ولو	-1180
▁پرس	-1181
▁حساب	-1182
▁بعضی	-1183
▁موارد	-1184
▁حف	-1185
زند	-1186
▁خورد	-1187
▁ساده	-1188
▁ول	-1189
▁سرا	-1190
▁امکان	-1191
▁حدا	-1192
▁حرکت	-1193
▁مک	-1194
▁حداقل	-1195
▁وفقیت	-1196
▁بودن	-1197
▁فرزند	-1198
خه	-1199
▁یسی	-1200
▁فرا	-1201
▁سرعت	-1202
▁تخ	-1203
▁مغ	-1204
▁رابطه	-1205
▁بگ	-1206
کم	-1207
▁چر	-1208
هم	-1209
▁یون	-1210
▁صفحه	-1211
▁یافته	-1212
▁آمد	-1213
▁روسیه	-1214
▁علیه	-1215
▁دقیق	-1216
▁فرم	-1217
▁عمومی	-1218
▁خطر	-1219
▁دهیم	-1220
▁دیده	-1221
▁شخصی	-1222
he	-1223
▁فرص	-1224
▁وش	-1225
▁ّ	-1226
▁حقوق	-1227
▁p	-1228
داشت	-1229
▁تف	-1230
▁آماده	-1231
▁طی	-1232
▁حفظ	-1233
▁چیزها	-1234
یمی	-1235
▁علاوه	-1236
▁10	-1237
▁ترام	-1238
▁گاهی	-1239
▁داوند	-1240
ابع	-1241
ئل	-1242
es	-1243
▁مندان	-1244
▁حاف	-1245
سال	-1246
اپ	-1247
ادا	-1248
▁عو	-1249
▁نبود	-1250
▁ازگ	-1251
▁نمای	-1252
لاق	-1253
ران	-1254
▁بخشی	-1255
اق	-1256
اله	-1257
▁ترس	-1258
کتر	-1259
▁پیو	-1260
▁f	-1261
▁رئیس	-1262
▁آنان	-1263
▁U	-1264
▁ارد	-1265
▁صرف	-1266
ic	-1267
▁نیرو	-1268
▁مکان	-1269
▁رگ	-1270
▁قادر	-1271
▁امید	-1272
▁میزان	-1273
▁داری	-1274
هن	-1275
▁یش	-1276
▁وضعیت	-1277
▁ابزار	-1278
▁u	-1279
آمد	-1280
▁حرفه	-1281
ذار	-1282
▁گویند	-1283
▁سراسر	-1284
▁ابتدا	-1285
▁دانید	-1286
▁غر	-1287
▁شی	-1288
▁ماش	-1289
▁سوی	-1290
▁غذایی	-1291
▁پدر	-1292
تو	-1293
▁جمع	-1294
قات	-1295
▁دختر	-1296
▁وس	-1297
▁آسیب	-1298
▁خوش	-1299
▁بیر	-1300
▁َ	-1301
▁خش	-1302
تان	-1303
▁باور	-1304
▁نظامی	-1305
▁نگران	-1306
▁آزاد	-1307
▁نتای	-1308
en	-1309
کت	-1310
▁مسئول	-1311
▁آید	-1312
▁نتایج	-1313
▁خارجی	-1314
▁کیف	-1315
ظیم	-1316
▁زیبا	-1317
▁سنگ	-1318
اح	-1319
▁شکست	-1320
ویر	-1321
▁خبر	-1322
افق	-1323
▁ناس	-1324
▁ملک	-1325
▁گران	-1326
▁گیرند	-1327
▁اشت	-1328
▁پایین	-1329
▁تس	-1330
▁مادر	-1331
▁اثر	-1332
کو	-1333
▁رود	-1334
▁زیاد	-1335
▁آمده	-1336
▁فشار	-1337
▁تصویر	-1338
تا	-1339
▁اخیر	-1340
▁حقیق	-1341
▁حقیقت	-1342
▁ترن	-1343
▁بتوان	-1344
▁حض	-1345
▁ستق	-1346
▁جایی	-1347
▁V	-1348
▁کدام	-1349
▁هستیم	-1350
▁دهه	-1351
▁ساله	-1352
▁جل	-1353
▁بندی	-1354
▁بینی	-1355
▁مقدار	-1356
▁ورزش	-1357
▁تریان	-1358
▁طولان	-1359
▁ى	-1360
▁حضور	-1361
ظت	-1362
▁نمود	-1363
at	-1364
▁شاهده	-1365
▁جذ	-1366
▁لس	-1367
▁بیان	-1368
▁فعال	-1369
▁تجاری	-1370
▁بست	-1371
▁هنر	-1372
▁بودم	-1373
▁اهدا	-1374
▁گردد	-1375
▁کوت	-1376
▁مسیر	-1377
ندان	-1378
▁بیا	-1379
▁منتشر	-1380
▁هوش	-1381
▁نشده	-1382
▁سعی	-1383
یره	-1384
وب	-1385
▁توانا	-1386
وریه	-1387
▁امنیت	-1388
▁رز	-1389
▁مرتب	-1390
▁مهارت	-1391
▁مدل	-1392
▁نور	-1393
▁پوست	-1394
ومت	-1395
میت	-1396
▁رژ	-1397
ئو	-1398
امبر	-1399
گیری	-1400
▁بچه	-1401
▁اضاف	-1402
▁محیط	-1403
▁کوتاه	-1404
فی	-1405
▁عالی	-1406
▁اي	-1407
▁نباید	-1408
▁اضافه	-1409
▁معنی	-1410
▁غذا	-1411
مئن	-1412
ونت	-1413
ایید	-1414
لق	-1415
▁وزن	-1416
▁تمر	-1417
▁لذ	-1418
▁فرصت	-1419
▁راست	-1420
▁طرح	-1421
▁بگذار	-1422
▁مطمئن	-1423
▁اسرائ	-1424
▁منابع	-1425
▁ایشان	-1426
▁حالا	-1427
▁روشن	-1428
▁مرح	-1429
▁مست	-1430
▁نج	-1431
▁بو	-1432
▁راتژی	-1433
▁زا	-1434
▁ـ	-1435
re	-1436
بری	-1437
▁*	-1438
▁رسانه	-1439
▁مرکز	-1440
▁الله	-1441
▁انی	-1442
▁اکثر	-1443
▁مردان	-1444
▁منظور	-1445
▁ارز	-1446
▁سمت	-1447
▁نوشت	-1448
▁ساب	-1449
st	-1450
▁مبت	-1451
لیس	-1452
تصاد	-1453
▁قای	-1454
▁قتصاد	-1455
▁چیست	-1456
▁اندار	-1457
ابط	-1458
▁بعدی	-1459
جب	-1460
▁جنسی	-1461
▁الت	-1462
لح	-1463
▁محد	-1464
▁شار	-1465
▁رت	-1466
▁ثبت	-1467
▁رند	-1468
▁گذاشت	-1469
▁یات	-1470
▁موفق	-1471
▁اعتما	-1472
▁نوشته	-1473
▁محدود	-1474
▁کلید	-1475
▁متو	-1476
▁زده	-1477
▁بیرون	-1478
oo	-1479
▁اشاره	-1480
قدر	-1481
انس	-1482
▁رم	-1483
▁ستقیم	-1484
یدار	-1485
▁روابط	-1486
خصص	-1487
ئم	-1488
▁شغ	-1489
▁جنو	-1490
▁اتح	-1491
▁اپ	-1492
▁پیر	-1493
▁توصیه	-1494
▁حمله	-1495
▁قس	-1496
▁ترج	-1497
▁مرحله	-1498
▁علاقه	-1499
▁هستم	-1500
▁بسته	-1501
▁ماشین	-1502
▁تشک	-1503
▁باقی	-1504
های	-1505
▁ملکرد	-1506
▁کلا	-1507
▁جهت	-1508
▁ترکیب	-1509
غان	-1510
قیقه	-1511
▁فراه	-1512
▁یابد	-1513
▁دقیقه	-1514
▁ودتان	-1515
▁آسان	-1516
▁خودش	-1517
▁یز	-1518
▁وید	-1519
▁فراهم	-1520
▁افغان	-1521
ou	-1522
▁اتحاد	-1523
▁متوجه	-1524
▁۱۰	-1525
▁کر	-1526
▁پرد	-1527
▁آرام	-1528
▁منجر	-1529
▁داخلی	-1530
ریک	-1531
▁برگ	-1532
▁هسته	-1533
▁اهمیت	-1534
▁گرفتن	-1535
▁توافق	-1536
ضیح	-1537
▁صاح	-1538
▁آگاه	-1539
▁توضیح	-1540
میز	-1541
▁دادند	-1542
▁گزینه	-1543
▁مذ	-1544
موعه	-1545
▁جموعه	-1546
▁فل	-1547
▁صنعت	-1548
▁بلند	-1549
طان	-1550
▁نرم	-1551
▁تشکیل	-1552
▁سرطان	-1553
▁مب	-1554
▁نکن	-1555
▁لین	-1556
▁سالم	-1557
▁قسمت	-1558
▁اهداف	-1559
شید	-1560
▁اتاق	-1561
▁تمرین	-1562
▁اً	-1563
▁شدید	-1564
▁اله	-1565
▁عشق	-1566
▁تحص	-1567
▁مار	-1568
▁جمهور	-1569
▁رف	-1570
▁سلول	-1571
▁کاملا	-1572
▁آخرین	-1573
▁الی	-1574
▁تحصیل	-1575
خیص	-1576
ستر	-1577
▁تشخیص	-1578
▁قطع	-1579
▁داخل	-1580
▁درآمد	-1581
▁دام	-1582
▁تلف	-1583
▁دانند	-1584
▁نیا	-1585
▁بانک	-1586
اهر	-1587
▁نص	-1588
▁پاک	-1589
▁باشیم	-1590
▁سخ	-1591
▁موزان	-1592
جو	-1593
یش	-1594
▁شناسی	-1595
ra	-1596
▁اقعیت	-1597
▁حالت	-1598
▁بینید	-1599
▁محل	-1600
▁جریان	-1601
▁شیر	-1602
▁حو	-1603
▁نقلاب	-1604
صله	-1605
▁تون	-1606
▁فاصله	-1607
لیغ	-1608
▁تمامی	-1609
▁تبلیغ	-1610
▁گان	-1611
▁رژیم	-1612
تل	-1613
▁پشتیب	-1614
▁مشتری	-1615
▁بشر	-1616
▁فصل	-1617
▁بهره	-1618
▁مدرسه	-1619
▁w	-1620
▁آزادی	-1621
▁نهایت	-1622
ro	-1623
▁یو	-1624
▁امر	-1625
▁درون	-1626
▁انوا	-1627
▁رهبر	-1628
▁پرداز	-1629
تباه	-1630
▁شتباه	-1631
▁افتاد	-1632
▁کردیم	-1633
▁قلب	-1634
▁مسا	-1635
▁اجرا	-1636
▁دود	-1637
▁معت	-1638
▁ریزی	-1639
▁دهنده	-1640
▁بحث	-1641
▁وع	-1642
▁پزشکی	-1643
▁آلمان	-1644
▁انواع	-1645
▁ژن	-1646
عیین	-1647
▁نادا	-1648
▁تعیین	-1649
▁زندان	-1650
▁سترده	-1651
▁سوریه	-1652
▁مرتبط	-1653
▁واهم	-1654
▁کنان	-1655
il	-1656
▁K	-1657
▁گستر	-1658
▁وسیقی	-1659
▁دع	-1660
▁مغز	-1661
▁سفید	-1662
▁ترنت	-1663
▁کیفیت	-1664
▁ریا	-1665
▁رگزار	-1666
▁مسائل	-1667
▁دهم	-1668
ion	-1669
▁عرض	-1670
▁تهدید	-1671
▁رست	-1672
▁جوان	-1673
▁مسئله	-1674
▁ولوژی	-1675
نوع	-1676
اطق	-1677
▁مناطق	-1678
▁سلامت	-1679
▁چندین	-1680
گیز	-1681
▁دنی	-1682
▁اطمین	-1683
om	-1684
▁جدا	-1685
شن	-1686
لاین	-1687
▁پیما	-1688
▁نلاین	-1689
▁انگیز	-1690
▁شخصیت	-1691
▁لذت	-1692
▁ارسال	-1693
▁رآ	-1694
▁جست	-1695
▁ویژ	-1696
▁خصوصی	-1697
▁دول	-1698
ادل	-1699
▁طبق	-1700
قال	-1701
▁درو	-1702
▁نتقال	-1703
▁کشف	-1704
▁ساختم	-1705
واج	-1706
▁زدواج	-1707
▁پیام	-1708
ac	-1709
▁زنده	-1710
▁مقاله	-1711
▁حی	-1712
▁فت	-1713
▁لوگیر	-1714
▁زای	-1715
▁نسخه	-1716
▁اسا	-1717
▁روح	-1718
▁نمونه	-1719
▁سوال	-1720
▁سخن	-1721
▁کجا	-1722
▁پزشک	-1723
▁کنون	-1724
▁گوش	-1725
▁اولیه	-1726
▁جویان	-1727
▁ذهن	-1728
▁تحلیل	-1729
▁محلی	-1730
▁بگو	-1731
▁فوق	-1732
▁لیارد	-1733
▁ویژگی	-1734
▁دوران	-1735
▁رانسه	-1736
▁نکنید	-1737
▁تی	-1738
▁راق	-1739
▁کان	-1740
▁خور	-1741
▁اختیا	-1742
یدن	-1743
▁تلفن	-1744
راق	-1745
▁J	-1746
▁اعضای	-1747
▁عراق	-1748
▁وقعیت	-1749
▁قوی	-1750
▁پیوتر	-1751
▁شنو	-1752
حال	-1753
▁آت	-1754
▁تجارت	-1755
▁عا	-1756
▁تأثیر	-1757
▁مهوری	-1758
▁مثبت	-1759
▁وظ	-1760
▁سوم	-1761
▁موا	-1762
▁عامل	-1763
▁معرف	-1764
▁ذیر	-1765
▁اسپ	-1766
▁چال	-1767
▁سرد	-1768
▁گرم	-1769
▁عضو	-1770
▁قرن	-1771
▁تماس	-1772
▁سود	-1773
▁نیم	-1774
▁وال	-1775
سا	-1776
▁عق	-1777
▁راحت	-1778
نه	-1779
▁اور	-1780
▁کره	-1781
▁افزار	-1782
▁تصور	-1783
الت	-1784
▁آتش	-1785
هان	-1786
▁شبی	-1787
▁ونی	-1788
▁الاتر	-1789
▁ترک	-1790
▁مدیر	-1791
▁گسترش	-1792
▁اعم	-1793
▁گن	-1794
▁دانم	-1795
▁دریا	-1796
▁ترکیه	-1797
▁بات	-1798
▁متر	-1799
▁ازی	-1800
▁پل	-1801
▁رفتن	-1802
▁وانین	-1803
دم	-1804
▁پسر	-1805
▁دگاه	-1806
▁ء	-1807
▁ٔ	-1808
▁یچ	-1809
▁میک	-1810
▁صلح	-1811
زا	-1812
فاع	-1813
▁دفاع	-1814
▁راج	-1815
▁شنبه	-1816
▁جدی	-1817
▁قل	-1818
▁ازگشت	-1819
▁پژ	-1820
▁دانست	-1821
آن	-1822
قای	-1823
▁خودرو	-1824
▁فهم	-1825
ol	-1826
گل	-1827
▁خیر	-1828
▁ریکا	-1829
▁تازه	-1830
▁صدا	-1831
▁لند	-1832
▁تنظیم	-1833
▁نقطه	-1834
▁حیوان	-1835
▁اوقات	-1836
▁آقای	-1837
▁ترامپ	-1838
▁رسیده	-1839
▁جدیدی	-1840
▁ورد	-1841
▁عبارت	-1842
▁آدم	-1843
▁شبیه	-1844
▁یور	-1845
▁خودم	-1846
▁متخصص	-1847
▁علی	-1848
▁زیست	-1849
بور	-1850
▁اث	-1851
قت	-1852
▁وری	-1853
▁پوش	-1854
▁چقدر	-1855
▁شدت	-1856
▁بارزه	-1857
el	-1858
▁قصد	-1859
▁تمای	-1860
▁نشانه	-1861
▁صب	-1862
▁ing	-1863
▁مجبور	-1864
▁نفس	-1865
▁عف	-1866
▁نبا	-1867
▁مدار	-1868
حل	-1869
▁اطراف	-1870
▁دنیای	-1871
زب	-1872
▁رج	-1873
▁دکتر	-1874
ستی	-1875
▁نفت	-1876
▁دگیری	-1877
بار	-1878
▁اعمال	-1879
▁سازد	-1880
ابه	-1881
▁رک	-1882
▁کال	-1883
یات	-1884
▁مسی	-1885
▁مال	-1886
▁قدیمی	-1887
ظر	-1888
ازی	-1889
▁عص	-1890
▁میر	-1891
▁پژوه	-1892
it	-1893
▁حزب	-1894
▁یانه	-1895
▁مقابل	-1896
▁تری	-1897
▁هداشت	-1898
▁ریز	-1899
▁پست	-1900
▁معرفی	-1901
▁گوگل	-1902
▁مشترک	-1903
یتی	-1904
▁وجه	-1905
▁دستور	-1906
▁چطور	-1907
▁ایگاه	-1908
▁جمعیت	-1909
▁ُ	-1910
▁جستجو	-1911
▁ورشید	-1912
▁عه	-1913
▁تال	-1914
▁مفید	-1915
▁آورده	-1916
ستا	-1917
▁صبح	-1918
▁موت	-1919
▁ماند	-1920
▁سرو	-1921
▁دانیم	-1922
▁سیاه	-1923
▁گل	-1924
▁فضای	-1925
▁لع	-1926
▁رسیدن	-1927
▁بس	-1928
▁معم	-1929
▁پژوهش	-1930
▁h	-1931
▁عمر	-1932
▁خت	-1933
▁بنی	-1934
▁موثر	-1935
▁داند	-1936
▁رامو	-1937
▁لباس	-1938
▁ازدید	-1939
▁حک	-1940
▁انطور	-1941
الع	-1942
▁قایسه	-1943
▁مطالع	-1944
▁رقابت	-1945
▁روم	-1946
▁نکته	-1947
وط	-1948
اکر	-1949
چار	-1950
▁لط	-1951
▁راموش	-1952
▁رسمی	-1953
▁رفته	-1954
▁دچار	-1955
▁عدم	-1956
▁همسر	-1957
▁راحتی	-1958
▁نیروی	-1959
▁روان	-1960
▁هند	-1961
▁علمی	-1962
▁اجر	-1963
▁ربین	-1964
▁ایت	-1965
▁خلا	-1966
▁فردی	-1967
▁اختار	-1968
▁زود	-1969
▁دندان	-1970
▁حاصل	-1971
▁مؤ	-1972
انیه	-1973
▁قام	-1974
▁قرآن	-1975
▁روب	-1976
▁خاصی	-1977
قان	-1978
▁هفت	-1979
▁خن	-1980
اپن	-1981
راح	-1982
▁رقر	-1983
▁ژاپن	-1984
▁رقرار	-1985
▁امام	-1986
▁ظاهر	-1987
et	-1988
▁وح	-1989
▁جایگز	-1990
ویز	-1991
▁منیتی	-1992
▁شناسا	-1993
▁ضد	-1994
▁نر	-1995
▁پایه	-1996
▁اشترا	-1997
▁توانم	-1998
▁پرواز	-1999
▁دش	-2000
▁نح	-2001
▁برو	-2002
لات	-2003
▁راقبت	-2004
▁راف	-2005
▁ملیات	-2006
▁موتور	-2007
▁کلاس	-2008
▁مای	-2009
▁تلویز	-2010
▁رنج	-2011
▁افتد	-2012
گار	-2013
▁لام	-2014
▁واح	-2015
▁بپ	-2016
▁فضا	-2017
عهد	-2018
▁مشابه	-2019
▁دین	-2020
▁شش	-2021
▁دیج	-2022
▁مدا	-2023
▁نیو	-2024
▁حققان	-2025
nd	-2026
▁دولتی	-2027
▁عرب	-2028
▁کشت	-2029
▁واکن	-2030
▁دمو	-2031
▁سبک	-2032
▁منب	-2033
▁واکنش	-2034
▁خوردن	-2035
▁وسیله	-2036
ریف	-2037
▁جالب	-2038
▁منبع	-2039
▁یزی	-2040
▁حکومت	-2041
▁علائم	-2042
▁تعریف	-2043
▁ارم	-2044
▁بمان	-2045
▁درجه	-2046
میق	-2047
▁عمیق	-2048
▁علت	-2049
▁وزیر	-2050
▁ماهی	-2051
▁ودشان	-2052
▁دیجیت	-2053
▁20	-2054
▁یب	-2055
▁ابر	-2056
▁کیل	-2057
▁ذخ	-2058
▁اسی	-2059
▁رتی	-2060
▁مانده	-2061
▁حذ	-2062
▁تکر	-2063
▁مبتلا	-2064
▁لیست	-2065
ریم	-2066
▁ضروری	-2067
▁دموکر	-2068
▁هدایت	-2069
▁لحظه	-2070
▁حمل	-2071
▁گون	-2072
▁ائ	-2073
▁سلامی	-2074
▁St	-2075
▁شت	-2076
▁رشته	-2077
وسط	-2078
▁ینگ	-2079
▁متوسط	-2080
▁دشوار	-2081
▁ندگان	-2082
▁v	-2083
▁ستین	-2084
▁بزر	-2085
▁پلیس	-2086
▁اگرچه	-2087
▁بزرگی	-2088
▁تکرار	-2089
is	-2090
اها	-2091
طرح	-2092
▁امور	-2093
▁مطرح	-2094
▁مواجه	-2095
am	-2096
▁حذف	-2097
▁مانی	-2098
▁ثابت	-2099
▁عاشق	-2100
▁موجب	-2101
▁اصلاح	-2102
▁افزود	-2103
▁on	-2104
▁نکرده	-2105
ay	-2106
▁شمالی	-2107
▁کلمه	-2108
▁حافظت	-2109
ed	-2110
▁چالش	-2111
روت	-2112
▁رساند	-2113
▁سک	-2114
▁کارت	-2115
▁جذب	-2116
▁گردان	-2117
▁نما	-2118
▁معنا	-2119
ابق	-2120
▁محت	-2121
▁مدرن	-2122
▁ورود	-2123
بات	-2124
▁الد	-2125
▁درگیر	-2126
خش	-2127
▁زرگ	-2128
ریه	-2129
▁نجات	-2130
▁ترو	-2131
▁ثروت	-2132
▁دانلو	-2133
▁The	-2134
▁استان	-2135
کید	-2136
▁بیت	-2137
▁آمیز	-2138
▁حوزه	-2139
▁اساسی	-2140
جم	-2141
▁واحد	-2142
▁اردار	-2143
▁بگی	-2144
▁الگو	-2145
▁•	-2146
▁عوامل	-2147
یتا	-2148
▁زل	-2149
▁ذکر	-2150
▁واسته	-2151
▁موزش	-2152
▁داران	-2153
▁تحد	-2154
▁تلاف	-2155
▁ماده	-2156
▁باد	-2157
▁of	-2158
▁ویر	-2159
▁ریدار	-2160
▁ناب	-2161
▁ارتش	-2162
▁درس	-2163
▁اتیک	-2164
▁معمول	-2165
الف	-2166
▁خانم	-2167
▁اجرای	-2168
▁داشتم	-2169
▁خلق	-2170
▁واندن	-2171
▁سابقه	-2172
▁هیز	-2173
▁گرا	-2174
▁مخالف	-2175
▁ستاره	-2176
▁موزشی	-2177
▁ناک	-2178
▁اویر	-2179
▁فایل	-2180
▁نشین	-2181
▁منتظر	-2182
▁یگان	-2183
ri	-2184
▁اری	-2185
توای	-2186
▁بگیرد	-2187
▁حتوای	-2188
▁برس	-2189
▁آس	-2190
▁اون	-2191
▁معن	-2192
ch	-2193
▁تاب	-2194
▁یچیده	-2195
▁شه	-2196
▁شغل	-2197
▁دیدن	-2198
▁واره	-2199
▁معنای	-2200
▁30	-2201
▁اپل	-2202
▁راهی	-2203
▁هاست	-2204
لیت	-2205
▁کی	-2206
▁دری	-2207
▁شیم	-2208
▁گذشت	-2209
▁ناوری	-2210
▁رض	-2211
▁شیوه	-2212
▁st	-2213
▁قبلی	-2214
▁بحران	-2215
▁گویید	-2216
▁بله	-2217
▁آنکه	-2218
▁صدای	-2219
as	-2220
شا	-2221
▁الدین	-2222
▁شدم	-2223
▁کشته	-2224
▁کلیدی	-2225
▁خشونت	-2226
▁رتیب	-2227
▁گام	-2228
▁جواب	-2229
▁مین	-2230
▁اینها	-2231
▁بریتا	-2232
▁تام	-2233
▁رهبری	-2234
▁مگر	-2235
▁خدمت	-2236
▁قبلا	-2237
▁مرک	-2238
▁منح	-2239
▁شویم	-2240
▁بالای	-2241
▁دلایل	-2242
▁فریق	-2243
▁لمان	-2244
▁k	-2245
▁تست	-2246
▁تالیا	-2247
▁دقیقا	-2248
▁گفتند	-2249
بوب	-2250
▁ادر	-2251
▁متوق	-2252
▁اسلام	-2253
▁جنوبی	-2254
▁انیا	-2255
▁فریقا	-2256
▁متوقف	-2257
لیا	-2258
▁نسل	-2259
▁قامات	-2260
▁فرض	-2261
تبار	-2262
▁عتبار	-2263
▁پارک	-2264
▁استرس	-2265
یند	-2266
▁فار	-2267
ندس	-2268
▁In	-2269
▁ظرف	-2270
▁ساد	-2271
▁ایمیل	-2272
▁قه	-2273
▁شارکت	-2274
▁مهندس	-2275
▁حفا	-2276
▁قبول	-2277
▁رآیند	-2278
▁سرویس	-2279
سب	-2280
▁وشحال	-2281
▁بردار	-2282
▁ذخیره	-2283
▁شماره	-2284
▁ئی	-2285
▁تض	-2286
▁ویت	-2287
▁علم	-2288
▁وزار	-2289
زو	-2290
▁ریس	-2291
▁گذر	-2292
▁باشم	-2293
▁آوردن	-2294
▁ناشی	-2295
▁اعتقا	-2296
▁محبوب	-2297
▁وزارت	-2298
▁ریم	-2299
▁رتبه	-2300
▁منفی	-2301
ایع	-2302
▁اکت	-2303
▁مهمی	-2304
▁تمایل	-2305
ow	-2306
ویت	-2307
▁الع	-2308
▁یشان	-2309
ایست	-2310
▁هوایی	-2311
▁املا	-2312
▁رالیا	-2313
▁رور	-2314
▁عرضه	-2315
▁سق	-2316
▁نماید	-2317
▁زم	-2318
▁یدن	-2319
جان	-2320
▁بک	-2321
▁tion	-2322
▁سلاح	-2323
▁کف	-2324
▁کلمات	-2325
▁أ	-2326
▁كن	-2327
▁تین	-2328
▁دودیت	-2329
▁مي	-2330
▁اسم	-2331
▁موش	-2332
▁برخ	-2333
▁سون	-2334
▁تد	-2335
▁تقویت	-2336
▁زدن	-2337
▁نرخ	-2338
▁رح	-2339
▁کشتی	-2340
▁دروغ	-2341
عیف	-2342
▁آفر	-2343
▁شمار	-2344
▁ضعیف	-2345
اص	-2346
ad	-2347
▁اصلا	-2348
▁al	-2349
▁پوشش	-2350
▁اين	-2351
▁اخلاق	-2352
▁الیات	-2353
▁کنی	-2354
▁ابلیت	-2355
▁نصب	-2356
▁شگ	-2357
▁معر	-2358
us	-2359
▁روزی	-2360
▁عام	-2361
▁یند	-2362
▁ارشد	-2363
▁نهایی	-2364
▁رها	-2365
▁لول	-2366
▁مشغ	-2367
▁بستگی	-2368
▁وار	-2369
▁تهیه	-2370
▁سفار	-2371
▁معرض	-2372
▁یابان	-2373
▁پدید	-2374
▁املاً	-2375
▁زو	-2376
▁هتل	-2377
ظهار	-2378
▁اظهار	-2379
افر	-2380
▁لای	-2381
▁مسافر	-2382
شدار	-2383
▁متح	-2384
▁وم	-2385
▁ادش	-2386
▁هشدار	-2387
▁مور	-2388
▁12	-2389
▁میش	-2390
▁مستقل	-2391
▁نظارت	-2392
▁تصاص	-2393
▁شاور	-2394
▁نوشتن	-2395
▁توی	-2396
▁یسم	-2397
▁آفرین	-2398
سیم	-2399
▁دسته	-2400
▁صاحب	-2401
▁سگ	-2402
▁قدم	-2403
▁ادعا	-2404
▁برسد	-2405
▁وانان	-2406
▁15	-2407
▁له	-2408
▁تلال	-2409
▁یزیکی	-2410
▁مثلا	-2411
▁عین	-2412
▁خلاق	-2413
▁شگفت	-2414
▁گفتم	-2415
▁آگاهی	-2416
▁عوض	-2417
▁میشود	-2418
لاگ	-2419
▁ملل	-2420
▁سالگی	-2421
ونگ	-2422
▁۲۰	-2423
▁جلو	-2424
▁اهل	-2425
▁صند	-2426
▁برادر	-2427
▁تقسیم	-2428
▁وعده	-2429
▁منحصر	-2430
▁رده	-2431
▁چینی	-2432
▁اداره	-2433
▁حافظه	-2434
▁مرکزی	-2435
▁عج	-2436
آوری	-2437
▁50	-2438
▁خاک	-2439
▁فیس	-2440
▁ودمان	-2441
▁حاکم	-2442
▁آسمان	-2443
▁اقام	-2444
▁حفاظت	-2445
▁نند	-2446
▁الان	-2447
ریب	-2448
▁رغ	-2449
▁غربی	-2450
▁اقامت	-2451
سات	-2452
▁چاپ	-2453
▁نتشار	-2454
▁مناف	-2455
▁یست	-2456
▁گناه	-2457
▁فرانس	-2458
▁محتوا	-2459
▁مشغول	-2460
...	-2461
▁انتقا	-2462
▁میکند	-2463
▁یگ	-2464
▁انده	-2465
▁زئ	-2466
▁بیاور	-2467
▁پیوند	-2468
▁گوشی	-2469
فتر	-2470
▁فن	-2471
▁آسیا	-2472
زای	-2473
لفی	-2474
▁ختلفی	-2475
▁قربان	-2476
▁اتم	-2477
▁تایید	-2478
▁لامتی	-2479
▁دفتر	-2480
▁خواند	-2481
ce	-2482
▁نع	-2483
▁یرو	-2484
▁شهرها	-2485
▁ببر	-2486
▁جویی	-2487
▁علوم	-2488
اظ	-2489
▁en	-2490
▁le	-2491
▁اصل	-2492
▁طلا	-2493
▁لحاظ	-2494
le	-2495
▁دف	-2496
▁غرب	-2497
▁عادی	-2498
▁ایمان	-2499
▁مذه	-2500
▁کری	-2501
▁خرو	-2502
▁راغ	-2503
▁ذیرفت	-2504
▁ژو	-2505
▁موس	-2506
▁تفکر	-2507
▁دقت	-2508
▁صنع	-2509
▁عاد	-2510
▁کیلو	-2511
قد	-2512
▁ندر	-2513
▁مطلب	-2514
▁بوک	-2515
▁سوخت	-2516
▁الکتر	-2517
▁منافع	-2518
▁ne	-2519
▁سبز	-2520
▁نباشد	-2521
▁or	-2522
▁یکه	-2523
▁هشت	-2524
▁تولد	-2525
▁تحریم	-2526
▁دارا	-2527
▁جراحی	-2528
▁رخورد	-2529
▁بینیم	-2530
▁اژ	-2531
▁تضمین	-2532
▁پیاده	-2533
▁انوی	-2534
▁طبقه	-2535
▁مپ	-2536
▁قاب	-2537
▁هایش	-2538
▁استاد	-2539
▁بقی	-2540
▁یده	-2541
▁عهده	-2542
▁هل	-2543
▁یف	-2544
▁نحوه	-2545
▁تیک	-2546
▁خوان	-2547
سو	-2548
▁معتقد	-2549
وده	-2550
▁رار	-2551
▁كرد	-2552
▁نگهدا	-2553
▁عت	-2554
▁متن	-2555
▁فعلی	-2556
▁شیمیا	-2557
▁X	-2558
▁هاجر	-2559
▁روغ	-2560
▁ینه	-2561
▁مسیح	-2562
▁چرخه	-2563
▁عربست	-2564
▁لعاده	-2565
▁تز	-2566
▁نخست	-2567
▁صنعتی	-2568
▁خلاص	-2569
▁قهوه	-2570
▁بودجه	-2571
▁هاجرت	-2572
▁شع	-2573
▁جنب	-2574
▁وند	-2575
زیک	-2576
▁رین	-2577
▁طوری	-2578
▁فرمود	-2579
▁عادت	-2580
▁دیوار	-2581
ve	-2582
▁ادشاه	-2583
▁چگونگ	-2584
▁میخ	-2585
▁قی	-2586
▁شمال	-2587
▁تکنیک	-2588
▁برق	-2589
▁نین	-2590
▁آموز	-2591
▁جذاب	-2592
▁نابود	-2593
زم	-2594
▁آشکار	-2595
برد	-2596
▁ریح	-2597
▁دیدار	-2598
▁رداشت	-2599
▁باب	-2600
▁y	-2601
▁امیدو	-2602
ia	-2603
▁گاز	-2604
▁چهارم	-2605
▁وام	-2606
▁اره	-2607
▁ایدار	-2608
▁ضا	-2609
▁بستان	-2610
▁صاحبه	-2611
▁کوه	-2612
▁آشنا	-2613
▁سین	-2614
▁مید	-2615
▁پرسش	-2616
▁عجیب	-2617
▁آیند	-2618
▁رع	-2619
▁عی	-2620
هوم	-2621
▁اسک	-2622
▁تعهد	-2623
▁مفهوم	-2624
▁یهودی	-2625
▁توصیف	-2626
▁رافیک	-2627
زاد	-2628
▁امپ	-2629
▁عقب	-2630
▁زهای	-2631
▁الق	-2632
▁یرانی	-2633
▁بلا	-2634
▁جلسه	-2635
▁خروج	-2636
▁ترجمه	-2637
▁منتقل	-2638
▁'	-2639
نان	-2640
▁لاک	-2641
▁بدهید	-2642
یح	-2643
مون	-2644
▁وف	-2645
▁رحم	-2646
▁روغن	-2647
▁شاهد	-2648
▁نوزاد	-2649
▁te	-2650
▁آمار	-2651
▁قطعا	-2652
▁بودیم	-2653
▁طبیعت	-2654
▁وبلاگ	-2655
▁کارها	-2656
▁سؤ	-2657
ضل	-2658
▁کد	-2659
▁نوعی	-2660
▁تامین	-2661
▁خشک	-2662
▁ترجیح	-2663
▁وانند	-2664
▁حملات	-2665
▁نمایی	-2666
id	-2667
▁بدی	-2668
▁نگی	-2669
▁برخور	-2670
▁گروهی	-2671
ناک	-2672
▁یخ	-2673
▁اوا	-2674
▁تعط	-2675
▁متحان	-2676
▁بدست	-2677
▁صحنه	-2678
روف	-2679
▁مایل	-2680
▁بینند	-2681
▁عفونت	-2682
▁اندو	-2683
▁خویش	-2684
▁جزیره	-2685
▁۳۰	-2686
میل	-2687
▁بردن	-2688
▁جنوب	-2689
▁مقام	-2690
▁ایمنی	-2691
▁تعطیل	-2692
▁رایند	-2693
▁زرگتر	-2694
▁ناسان	-2695
▁بقیه	-2696
▁جایزه	-2697
▁بنا	-2698
▁امضا	-2699
▁رایش	-2700
▁ماس	-2701
▁مون	-2702
▁رمان	-2703
▁هیجان	-2704
▁اعد	-2705
▁دعوت	-2706
▁طرناک	-2707
▁مسلم	-2708
▁فهمید	-2709
▁حضر	-2710
▁ملت	-2711
▁عبور	-2712
▁نقاط	-2713
▁وانید	-2714
مز	-2715
▁ویتام	-2716
▁ویروس	-2717
ot	-2718
▁اوایل	-2719
یو	-2720
▁رادی	-2721
▁عدادی	-2722
طین	-2723
▁آگ	-2724
▁قاومت	-2725
▁Y	-2726
▁لینک	-2727
▁کردید	-2728
▁متصل	-2729
▁کانال	-2730
▁لاقات	-2731
▁عودی	-2732
▁Re	-2733
▁یپ	-2734
▁قول	-2735
▁یورک	-2736
▁درستی	-2737
قق	-2738
▁دس	-2739
▁طات	-2740
▁تکمیل	-2741
▁دیران	-2742
▁گردید	-2743
▁لسطین	-2744
▁تئ	-2745
▁ستم	-2746
▁الهی	-2747
▁اصول	-2748
▁تحمل	-2749
▁آزمون	-2750
▁ازیگر	-2751
▁یافتن	-2752
▁تشوی	-2753
▁نیمه	-2754
▁برنده	-2755
تبال	-2756
▁وضع	-2757
▁شهری	-2758
▁قرمز	-2759
▁مهمتر	-2760
▁وتبال	-2761
▁رمز	-2762
▁شانس	-2763
▁زئیات	-2764
طب	-2765
▁دب	-2766
▁دهان	-2767
▁همکار	-2768
شمن	-2769
▁ندار	-2770
▁وظیف	-2771
▁خنران	-2772
▁معروف	-2773
▁شکن	-2774
▁دشمن	-2775
▁نژ	-2776
▁it	-2777
خاطب	-2778
▁بکش	-2779
▁مرز	-2780
▁موزه	-2781
▁وجهی	-2782
▁رزمین	-2783
▁مخاطب	-2784
▁انش	-2785
▁عملی	-2786
▁حساس	-2787
▁زودی	-2788
▁کلیسا	-2789
▁تناب	-2790
▁تشویق	-2791
▁متع	-2792
▁وین	-2793
▁برده	-2794
▁کارگر	-2795
▁عنا	-2796
▁بطور	-2797
▁فرار	-2798
▁یلادی	-2799
▁باغ	-2800
▁اتوم	-2801
▁سایه	-2802
▁هیزات	-2803
▁بزن	-2804
▁امیده	-2805
▁زایای	-2806
▁نتوان	-2807
مب	-2808
▁ویدئو	-2809
▁پنهان	-2810
▁چپ	-2811
▁انند	-2812
▁تعامل	-2813
ut	-2814
▁انجمن	-2815
▁نظریه	-2816
▁یروزی	-2817
▁بروز	-2818
▁جنبش	-2819
▁at	-2820
▁بروید	-2821
▁عضل	-2822
▁سختی	-2823
▁خواهی	-2824
▁دهندگ	-2825
دد	-2826
▁تغذ	-2827
▁فراتر	-2828
اهد	-2829
▁سلط	-2830
▁جنبه	-2831
▁وظیفه	-2832
▁وندان	-2833
▁حکم	-2834
▁اندن	-2835
▁مى	-2836
▁ایالت	-2837
▁موق	-2838
▁واس	-2839
▁ریسک	-2840
▁خدای	-2841
▁ثانیه	-2842
تئ	-2843
▁اتر	-2844
▁بهتری	-2845
▁el	-2846
▁حضرت	-2847
▁زنند	-2848
▁نگیزه	-2849
▁زش	-2850
▁صحی	-2851
▁مانع	-2852
▁پخش	-2853
▁بیدار	-2854
▁تغذیه	-2855
▁گفتگو	-2856
▁بیو	-2857
▁کمپ	-2858
▁یکرد	-2859
▁قابله	-2860
ضح	-2861
▁نکرد	-2862
▁واضح	-2863
▁متی	-2864
▁آرزو	-2865
▁امسال	-2866
▁سند	-2867
▁اضافی	-2868
▁تعادل	-2869
▁یامبر	-2870
▁دت	-2871
▁داک	-2872
▁مداوم	-2873
▁واش	-2874
▁بدان	-2875
▁حسین	-2876
▁ممنوع	-2877
چسب	-2878
▁عظیم	-2879
▁کارش	-2880
▁برچسب	-2881
▁تامبر	-2882
▁شماست	-2883
▁فنی	-2884
▁مقا	-2885
▁کشد	-2886
▁مرور	-2887
▁بمب	-2888
▁ناپ	-2889
▁توزی	-2890
▁صحیح	-2891
▁نماز	-2892
▁مطالب	-2893
▁فض	-2894
▁گفتن	-2895
▁انویه	-2896
▁سیم	-2897
▁رایی	-2898
▁شغلی	-2899
▁چهره	-2900
▁تاکید	-2901
گرم	-2902
▁قلبی	-2903
▁صاد	-2904
▁عداد	-2905
▁چربی	-2906
▁آورند	-2907
▁سرگرم	-2908
▁توزیع	-2909
▁پروتئ	-2910
▁پیوست	-2911
▁رط	-2912
▁سؤال	-2913
▁صادر	-2914
▁سردگی	-2915
▁عمولی	-2916
▁هرمان	-2917
▁ترا	-2918
▁بدهد	-2919
▁خصوصا	-2920
▁روستا	-2921
▁لز	-2922
▁میوه	-2923
▁لیم	-2924
▁نفو	-2925
▁تور	-2926
▁رسند	-2927
▁داکثر	-2928
▁میدان	-2929
▁پذیرش	-2930
▁يد	-2931
▁۱۵	-2932
▁تاسی	-2933
اهی	-2934
▁جرم	-2935
▁فدر	-2936
▁خواهم	-2937
سف	-2938
▁آث	-2939
▁۵۰	-2940
▁زنش	-2941
▁سلمان	-2942
▁سیاره	-2943
▁گهان	-2944
▁مبل	-2945
▁همچ	-2946
▁آثار	-2947
▁مراحل	-2948
▁راز	-2949
▁شوم	-2950
▁حاد	-2951
▁سنگین	-2952
▁زخ	-2953
▁قت	-2954
▁حیا	-2955
▁مجدد	-2956
▁اشک	-2957
▁ستج	-2958
▁بگویم	-2959
▁40	-2960
▁nt	-2961
▁یج	-2962
▁داع	-2963
ess	-2964
▁همزم	-2965
▁افکار	-2966
▁فرمان	-2967
▁متیاز	-2968
▁فی	-2969
▁فارغ	-2970
▁نشست	-2971
▁رضایت	-2972
زل	-2973
▁خدام	-2974
▁جع	-2975
▁قتل	-2976
▁یوم	-2977
▁قاعد	-2978
▁مطابق	-2979
▁تخم	-2980
▁رستاد	-2981
▁نیازی	-2982
گا	-2983
▁قضا	-2984
▁مها	-2985
▁محک	-2986
▁صادق	-2987
▁ستجوی	-2988
چند	-2989
▁آهنگ	-2990
▁بدین	-2991
▁خاور	-2992
▁مهاجر	-2993
▁هرچند	-2994
▁بیمه	-2995
▁نقا	-2996
▁حاوی	-2997
▁سیگار	-2998
▁ــ	-2999
▁رورش	-3000
▁لطفا	-3001
▁نقشه	-3002
▁ارزان	-3003
▁اندیش	-3004
زیه	-3005
سوب	-3006
▁گین	-3007
▁جاده	-3008
▁ذاکر	-3009
▁محسوب	-3010
oc	-3011
▁re	-3012
هران	-3013
▁دهی	-3014
▁مجوز	-3015
▁تهران	-3016
▁نفوذ	-3017
▁دم	-3018
▁وئ	-3019
▁ذاکره	-3020
pp	-3021
▁کده	-3022
▁دهای	-3023
▁تجزیه	-3024
▁nd	-3025
▁اتص	-3026
▁سور	-3027
▁سفارش	-3028
▁ستر	-3029
▁گانه	-3030
▁اتصال	-3031
▁بهشت	-3032
▁شورای	-3033
▁بدتر	-3034
▁کریس	-3035
▁یکسان	-3036
▁تقد	-3037
▁ریت	-3038
▁ستون	-3039
▁سهام	-3040
▁وسیع	-3041
▁آبی	-3042
▁سوء	-3043
▁سابق	-3044
▁گم	-3045
▁شف	-3046
▁اتو	-3047
▁محکوم	-3048
▁مساله	-3049
▁راضی	-3050
▁فرما	-3051
▁زداشت	-3052
▁عامله	-3053
▁موقع	-3054
▁نژاد	-3055
▁فهر	-3056
▁کرب	-3057
▁طلاح	-3058
▁کلیک	-3059
▁خلاصه	-3060
▁فهرست	-3061
عدد	-3062
▁صبر	-3063
▁بپرس	-3064
▁تاسیس	-3065
▁متعدد	-3066
ir	-3067
▁شوی	-3068
▁مصر	-3069
▁بردی	-3070
▁لندن	-3071
▁دادها	-3072
▁موسسه	-3073
▁Goo	-3074
▁رون	-3075
▁ارتقا	-3076
▁آهن	-3077
▁طلب	-3078
▁یتر	-3079
▁واشنگ	-3080
▁ro	-3081
▁ضع	-3082
▁مبتنی	-3083
▁ملا	-3084
▁بینم	-3085
▁موشک	-3086
▁فضایی	-3087
▁درخت	-3088
▁افتخا	-3089
▁شنیده	-3090
▁وه	-3091
▁محمد	-3092
▁اثرات	-3093
▁عدالت	-3094
▁نندگی	-3095
▁+	-3096
▁جشن	-3097
▁سطو	-3098
▁کاف	-3099
▁برند	-3100
▁تمیز	-3101
▁ریشه	-3102
▁گیاه	-3103
▁>	-3104
▁25	-3105
▁میل	-3106
▁ساکن	-3107
▁ستگاه	-3108
▁۱۲	-3109
▁برمی	-3110
▁گوشت	-3111
▁مذاکر	-3112
ent	-3113
▁جر	-3114
▁یض	-3115
▁بیل	-3116
▁تحول	-3117
▁ساحل	-3118
ma	-3119
▁یس	-3120
▁بال	-3121
▁رنو	-3122
▁زنی	-3123
▁دیدم	-3124
▁ساختن	-3125
▁حرک	-3126
▁هور	-3127
▁گوییم	-3128
لس	-3129
▁سقوط	-3130
▁بارها	-3131
▁ببرید	-3132
▁راساس	-3133
▁مایید	-3134
ge	-3135
▁وپ	-3136
▁سنج	-3137
اور	-3138
▁جاد	-3139
▁نیمی	-3140
▁رانسو	-3141
▁کمبود	-3142
▁لغ	-3143
▁جانب	-3144
▁هویت	-3145
▁مشهور	-3146
حص	-3147
▁التحص	-3148
▁مشاور	-3149
▁سنت	-3150
▁کات	-3151
▁اهیم	-3152
▁القوه	-3153
▁نبوده	-3154
ویس	-3155
▁ویا	-3156
▁یك	-3157
▁ارچ	-3158
▁ریف	-3159
▁عرو	-3160
▁تدری	-3161
▁سازند	-3162
▁همچون	-3163
▁ذر	-3164
▁ين	-3165
▁تاز	-3166
▁زون	-3167
▁اخیرا	-3168
▁شواهد	-3169
▁سنتی	-3170
▁ماست	-3171
▁کمتری	-3172
▁طیف	-3173
▁پاری	-3174
▁خانگی	-3175
▁زس	-3176
▁رش	-3177
ادار	-3178
▁ستن	-3179
▁دادم	-3180
▁اورزی	-3181
▁رستور	-3182
▁زشکان	-3183
راض	-3184
▁واژه	-3185
▁ابسته	-3186
▁بنویس	-3187
▁زسازی	-3188
▁پرسید	-3189
▁ردش	-3190
▁شاوره	-3191
▁یتان	-3192
▁الانه	-3193
▁عماری	-3194
▁ویدیو	-3195
gl	-3196
▁کث	-3197
▁خورده	-3198
▁رجسته	-3199
▁عتراض	-3200
▁والات	-3201
زیز	-3202
▁Ch	-3203
▁برتر	-3204
▁مذهبی	-3205
▁مایند	-3206
▁وبایل	-3207
▁تیر	-3208
▁حجم	-3209
▁مارس	-3210
▁اکتبر	-3211
▁11	-3212
▁دای	-3213
▁تعجب	-3214
▁عزیز	-3215
▁انگشت	-3216
▁نموده	-3217
▁طع	-3218
▁the	-3219
▁لاً	-3220
▁لود	-3221
▁وک	-3222
▁سهم	-3223
▁مول	-3224
▁خاورم	-3225
▁عدد	-3226
▁گشت	-3227
▁لمانی	-3228
▁گواهی	-3229
▁جاز	-3230
▁هید	-3231
▁مربی	-3232
▁رادیو	-3233
▁60	-3234
▁وکار	-3235
▁گویم	-3236
▁خواهر	-3237
▁مکانی	-3238
▁ندارم	-3239
یید	-3240
▁راوان	-3241
▁کب	-3242
▁تأیید	-3243
▁ردشگر	-3244
▁صفحات	-3245
این	-3246
▁مقدس	-3247
▁بش	-3248
▁قلال	-3249
▁مراسم	-3250
▁حیات	-3251
▁عیسی	-3252
▁فلسف	-3253
▁رونده	-3254
▁عناصر	-3255
موع	-3256
▁ازه	-3257
▁آزار	-3258
▁مجموع	-3259
▁آژ	-3260
▁لوله	-3261
▁مدتی	-3262
▁سالها	-3263
▁ity	-3264
▁عصر	-3265
▁جاری	-3266
▁فردا	-3267
▁سینما	-3268
▁سیل	-3269
▁مدارس	-3270
▁خالی	-3271
▁طراح	-3272
▁ation	-3273
درس	-3274
▁شید	-3275
▁هاي	-3276
ازش	-3277
▁100	-3278
▁ایی	-3279
▁آدرس	-3280
▁معدن	-3281
▁ردازش	-3282
▁سم	-3283
▁مام	-3284
▁قاضی	-3285
▁کشید	-3286
▁ازنده	-3287
سن	-3288
▁رید	-3289
▁آژانس	-3290
▁x	-3291
▁شام	-3292
▁قالب	-3293
▁سوز	-3294
▁مجلس	-3295
▁سادگی	-3296
▁شکر	-3297
▁جنگل	-3298
▁اثبات	-3299
▁ابو	-3300
▁دمی	-3301
▁سبب	-3302
▁لاف	-3303
▁شوهر	-3304
▁ولویت	-3305
▁18	-3306
▁لن	-3307
▁معتبر	-3308
اهای	-3309
▁سوئ	-3310
▁شریک	-3311
▁تاریک	-3312
▁ذاهای	-3313
▁زمینی	-3314
▁عید	-3315
▁کتور	-3316
ur	-3317
▁روبرو	-3318
امب	-3319
نوعی	-3320
▁دایی	-3321
▁دسامب	-3322
▁صنوعی	-3323
▁نسبتا	-3324
▁قص	-3325
▁ابه	-3326
▁ماج	-3327
▁منزل	-3328
▁ازگار	-3329
▁دگی	-3330
▁com	-3331
▁انان	-3332
▁سطوح	-3333
▁وحشت	-3334
ni	-3335
▁de	-3336
▁قبال	-3337
▁ازیکن	-3338
▁اشگاه	-3339
▁رسانی	-3340
▁نقاشی	-3341
od	-3342
ثه	-3343
▁’	-3344
▁شیط	-3345
▁ظهور	-3346
▁لم	-3347
▁گار	-3348
▁ریستی	-3349
▁مهمان	-3350
▁نگلیس	-3351
▁پاریس	-3352
قب	-3353
▁قلم	-3354
▁یام	-3355
▁صدها	-3356
مر	-3357
▁دعا	-3358
▁نظیر	-3359
▁Googl	-3360
▁کشوری	-3361
▁زب	-3362
▁شرقی	-3363
▁مجله	-3364
▁بایست	-3365
ul	-3366
▁Li	-3367
▁راتور	-3368
▁عده	-3369
▁ادید	-3370
▁باما	-3371
▁عمده	-3372
▁اواخر	-3373
▁نشد	-3374
▁شفاف	-3375
اک	-3376
▁متاس	-3377
▁مردی	-3378
▁آرامش	-3379
▁مود	-3380
▁هات	-3381
▁طالب	-3382
▁وامبر	-3383
▁پنجره	-3384
اداش	-3385
▁and	-3386
▁ارک	-3387
▁بیست	-3388
▁سرور	-3389
▁وسایل	-3390
▁پاداش	-3391
ولد	-3392
▁De	-3393
▁ژوئن	-3394
▁دیابت	-3395
آور	-3396
▁چای	-3397
▁فرست	-3398
▁مدرک	-3399
▁ماجرا	-3400
پز	-3401
▁امی	-3402
▁درم	-3403
▁اردو	-3404
▁خسته	-3405
▁سریال	-3406
▁میز	-3407
▁پیم	-3408
▁برگشت	-3409
▁بزنید	-3410
▁راجعه	-3411
▁سالان	-3412
▁شیطان	-3413
▁آپ	-3414
▁تشکر	-3415
▁جادو	-3416
▁ادرات	-3417
▁خشم	-3418
▁حتما	-3419
▁مرده	-3420
▁کوین	-3421
تیک	-3422
▁حیط	-3423
▁چرخ	-3424
▁ثبات	-3425
▁منظم	-3426
▁ظرفیت	-3427
▁چندان	-3428
ایف	-3429
▁شرق	-3430
▁مشک	-3431
▁عموم	-3432
▁نگاهی	-3433
▁ونیکی	-3434
▁|	-3435
▁Pro	-3436
▁اوت	-3437
▁خال	-3438
▁متولد	-3439
▁واستم	-3440
▁كار	-3441
▁آشپز	-3442
▁جازات	-3443
▁دیپ	-3444
▁ماد	-3445
▁استیک	-3446
▁غنی	-3447
▁نال	-3448
▁متاسف	-3449
▁یانیه	-3450
▁Z	-3451
ack	-3452
...]	-3453
▁[...]	-3454
▁دومین	-3455
▁منطقی	-3456
▁کپ	-3457
▁ترد	-3458
▁سرش	-3459
▁وانده	-3460
▁هنری	-3461
▁چک	-3462
▁وای	-3463
▁مکمل	-3464
▁خب	-3465
▁اکس	-3466
▁مپانی	-3467
▁ْ	-3468
▁دي	-3469
▁جلب	-3470
▁پیچ	-3471
▁مندی	-3472
▁متعلق	-3473
▁ورزشی	-3474
um	-3475
▁جور	-3476
▁زخم	-3477
▁وشه	-3478
▁مخفی	-3479
ویل	-3480
▁Wi	-3481
▁یار	-3482
▁زاده	-3483
▁عصبی	-3484
▁لایه	-3485
▁هستی	-3486
▁آموخت	-3487
▁ادیده	-3488
▁کمیته	-3489
▁جاع	-3490
▁زنج	-3491
▁ابتلا	-3492
▁تماشا	-3493
ap	-3494
کز	-3495
▁فو	-3496
▁رویدا	-3497
▁مشکلی	-3498
▁الم	-3499
▁تصاد	-3500
▁معلم	-3501
▁انگار	-3502
ویب	-3503
▁جنس	-3504
▁ورم	-3505
▁یدند	-3506
▁تصادف	-3507
▁صنایع	-3508
▁جامع	-3509
▁ندگی	-3510
▁تصویب	-3511
▁تکامل	-3512
▁یونان	-3513
▁رسو	-3514
▁موقت	-3515
▁وظایف	-3516
▁انع	-3517
▁ریاضی	-3518
▁ورت	-3519
▁ناحی	-3520
▁نویسی	-3521
li	-3522
se	-3523
un	-3524
art	-3525
▁خرد	-3526
▁دمه	-3527
▁دبیر	-3528
▁مبلغ	-3529
▁ورودی	-3530
▁کشیدن	-3531
▁ed	-3532
▁انب	-3533
▁سیون	-3534
and	-3535
▁th	-3536
▁بعدا	-3537
▁تغال	-3538
▁الایی	-3539
▁خارجه	-3540
▁قال	-3541
▁دیپلم	-3542
او	-3543
▁نار	-3544
▁وقو	-3545
▁بافت	-3546
▁Ne	-3547
▁to	-3548
▁بول	-3549
▁اندا	-3550
▁تردید	-3551
▁مراکز	-3552
▁رغم	-3553
▁روانی	-3554
▁هورمو	-3555
▁z	-3556
▁ایع	-3557
▁١	-3558
▁اخبار	-3559
▁تحویل	-3560
▁شیدنی	-3561
▁پیشین	-3562
▁سان	-3563
▁وست	-3564
▁یمز	-3565
▁میده	-3566
▁ریاست	-3567
▁لر	-3568
▁گز	-3569
▁زمست	-3570
▁لزوم	-3571
▁مجاز	-3572
▁باتری	-3573
لوم	-3574
▁ion	-3575
▁العمل	-3576
▁روزها	-3577
▁ماندن	-3578
▁معلوم	-3579
▁معی	-3580
▁یگن	-3581
▁اعدام	-3582
▁ناحیه	-3583
▁یح	-3584
▁بگوید	-3585
▁لان	-3586
▁نقض	-3587
▁کفش	-3588
▁غذای	-3589
▁گیرید	-3590
▁دائ	-3591
▁رقم	-3592
▁ناه	-3593
▁هاجم	-3594
▁16	-3595
▁یق	-3596
▁صاب	-3597
▁نبرد	-3598
▁_	-3599
▁حر	-3600
▁تقا	-3601
▁هیت	-3602
▁یره	-3603
▁روزه	-3604
غذ	-3605
all	-3606
▁ضمن	-3607
▁یشه	-3608
▁کاغذ	-3609
▁معادل	-3610
▁ng	-3611
▁الک	-3612
▁نشود	-3613
▁وقوع	-3614
▁تأمین	-3615
▁دائمی	-3616
▁عربی	-3617
غل	-3618
▁فک	-3619
▁سته	-3620
▁پرست	-3621
▁فیلتر	-3622
▁ستند	-3623
▁صرفه	-3624
▁تحریک	-3625
▁خورید	-3626
▁j	-3627
▁آیه	-3628
▁کمپین	-3629
یاس	-3630
▁حقو	-3631
▁امو	-3632
▁انح	-3633
▁شرط	-3634
▁برود	-3635
▁حقوقی	-3636
▁صندلی	-3637
▁وآوری	-3638
▁Sp	-3639
▁ستا	-3640
▁سکو	-3641
▁نوج	-3642
▁بماند	-3643
▁رقی	-3644
▁عقل	-3645
▁رایج	-3646
▁میکرو	-3647
▁کشیده	-3648
▁هستان	-3649
خند	-3650
▁ریب	-3651
▁مبا	-3652
وارض	-3653
▁حیطی	-3654
▁عوارض	-3655
▁فدرال	-3656
▁مزد	-3657
▁کاخ	-3658
▁رانه	-3659
▁رویا	-3660
▁پناه	-3661
▁گرما	-3662
طاف	-3663
▁فقر	-3664
▁چاق	-3665
▁الکل	-3666
▁نکات	-3667
▁زنجیر	-3668
▁پارچه	-3669
▁ویی	-3670
▁نعطاف	-3671
ue	-3672
▁هیل	-3673
▁رندگ	-3674
▁علام	-3675
▁رداند	-3676
▁نیستم	-3677
▁14	-3678
▁دارک	-3679
▁مسکو	-3680
▁گمان	-3681
▁لبخند	-3682
▁مراقب	-3683
▁کاران	-3684
▁24	-3685
▁آلب	-3686
▁انس	-3687
▁داعش	-3688
▁حادثه	-3689
▁Se	-3690
▁رکو	-3691
▁ضعف	-3692
▁خراب	-3693
▁یندوز	-3694
▁ct	-3695
▁لف	-3696
▁هدیه	-3697
▁کنگر	-3698
▁قررات	-3699
▁پیمان	-3700
▁کانات	-3701
im	-3702
▁سام	-3703
▁چار	-3704
▁بخشد	-3705
▁بران	-3706
▁جانبی	-3707
▁نفع	-3708
▁رنده	-3709
▁رییس	-3710
▁اکتری	-3711
▁یانوس	-3712
ig	-3713
▁ذه	-3714
▁آفت	-3715
▁خطا	-3716
▁دائم	-3717
▁مارک	-3718
▁na	-3719
▁نقد	-3720
▁سسات	-3721
▁یورو	-3722
▁موج	-3723
▁۱۰۰	-3724
▁باران	-3725
▁Bl	-3726
▁Sh	-3727
▁بکن	-3728
▁نظرات	-3729
▁یدوار	-3730
ریت	-3731
▁الز	-3732
▁سرب	-3733
▁پرده	-3734
▁گرچه	-3735
▁الهام	-3736
▁امد	-3737
▁توپ	-3738
▁ضطر	-3739
▁آمدن	-3740
▁آوری	-3741
▁گرسن	-3742
ie	-3743
▁اسن	-3744
▁برت	-3745
▁راک	-3746
▁شایع	-3747
▁گراف	-3748
▁معامل	-3749
▁عبد	-3750
▁معیار	-3751
▁غل	-3752
▁ولت	-3753
▁خطوط	-3754
▁داره	-3755
▁درحال	-3756
▁رزه	-3757
▁هایم	-3758
▁تجدید	-3759
▁نون	-3760
▁کوپ	-3761
▁ناسبی	-3762
▁ایق	-3763
▁جسم	-3764
▁فلز	-3765
▁كند	-3766
▁کنه	-3767
▁یدم	-3768
▁شاخص	-3769
▁ضطراب	-3770
▁جی	-3771
▁فه	-3772
▁تخص	-3773
▁قوم	-3774
▁لیک	-3775
▁ندا	-3776
▁یشن	-3777
▁برگرد	-3778
▁زنشست	-3779
▁شوروی	-3780
▁شل	-3781
▁بور	-3782
▁نیک	-3783
▁هاب	-3784
▁گربه	-3785
▁کنگره	-3786
▁یابند	-3787
▁یشگیر	-3788
▁اورد	-3789
▁نباش	-3790
▁موریت	-3791
▁Al	-3792
▁آیت	-3793
▁زوج	-3794
▁لاخ	-3795
▁ژنتیک	-3796
▁یگنال	-3797
▁nce	-3798
▁ریه	-3799
▁عکا	-3800
▁لوک	-3801
▁واب	-3802
خل	-3803
▁ریخت	-3804
▁اندهی	-3805
▁اندکی	-3806
▁تازگی	-3807
▁دادیم	-3808
▁نل	-3809
▁مکا	-3810
▁مخدر	-3811
▁جنسیت	-3812
▁قضاوت	-3813
ht	-3814
▁عن	-3815
▁شاغل	-3816
▁کالج	-3817
▁تئوری	-3818
▁یکیشن	-3819
▁راد	-3820
▁جد	-3821
▁وحش	-3822
▁محور	-3823
▁گویی	-3824
▁یاری	-3825
▁ارآمد	-3826
▁بازان	-3827
▁عکاسی	-3828
▁فلسفه	-3829
▁مداخل	-3830
▁٬	-3831
سیر	-3832
▁۴۰	-3833
▁خالص	-3834
▁ذهنی	-3835
▁یونی	-3836
▁شیرین	-3837
▁اذ	-3838
▁مز	-3839
▁وژ	-3840
▁توق	-3841
▁دفع	-3842
▁اقلی	-3843
▁متهم	-3844
▁تفسیر	-3845
▁لاخره	-3846
▁مقیاس	-3847
▁#	-3848
▁ra	-3849
اسبه	-3850
▁لیب	-3851
▁خبری	-3852
▁دلال	-3853
▁یکار	-3854
▁حاسبه	-3855
▁رنوشت	-3856
▁عار	-3857
▁ازده	-3858
▁اسیون	-3859
▁for	-3860
▁دون	-3861
▁سئو	-3862
▁سرخ	-3863
▁گردند	-3864
▁Ma	-3865
▁مأ	-3866
▁رفع	-3867
▁زیت	-3868
▁بهار	-3869
▁جداگ	-3870
▁هرچه	-3871
▁تقدند	-3872
▁ري	-3873
▁اهن	-3874
▁یایید	-3875
▁غان	-3876
▁تراع	-3877
▁اتومب	-3878
▁بیاید	-3879
▁دخانه	-3880
▁علامت	-3881
▁پیروی	-3882
▁کراین	-3883
▁Sc	-3884
▁وج	-3885
▁راس	-3886
▁نات	-3887
▁دراز	-3888
▁اشکال	-3889
▁فروخت	-3890
▁قالات	-3891
▁ودکار	-3892
▁13	-3893
▁دزد	-3894
▁رضا	-3895
▁سرک	-3896
▁شادی	-3897
▁هکار	-3898
▁کثریت	-3899
▁تجا	-3900
▁زرد	-3901
▁شاد	-3902
▁ناش	-3903
▁ویز	-3904
▁پورت	-3905
▁آنقدر	-3906
▁دامنه	-3907
▁٪	-3908
▁وغ	-3909
▁اصر	-3910
▁جغ	-3911
▁بدهی	-3912
▁ریتم	-3913
▁هواره	-3914
▁پارلم	-3915
▁اگ	-3916
▁چم	-3917
▁لال	-3918
▁ونز	-3919
▁تنوع	-3920
▁پولی	-3921
▁اربرد	-3922
▁ترنتی	-3923
▁کتریک	-3924
▁تظ	-3925
▁الن	-3926
▁تظاهر	-3927
▁شایست	-3928
▁دال	-3929
▁مرغ	-3930
▁ضرب	-3931
▁موز	-3932
▁نست	-3933
▁پارا	-3934
▁کلام	-3935
▁اهانه	-3936
▁فیزیک	-3937
▁et	-3938
▁لغو	-3939
▁مؤثر	-3940
▁خورند	-3941
▁فرصتی	-3942
▁مجازی	-3943
ئی	-3944
▁اته	-3945
▁اسب	-3946
▁اران	-3947
▁سافت	-3948
▁عروس	-3949
▁جلسات	-3950
▁دترین	-3951
▁راستا	-3952
▁نرا	-3953
▁یکو	-3954
▁دانه	-3955
▁سوار	-3956
▁میلی	-3957
▁ننده	-3958
▁آفتاب	-3959
▁تجاوز	-3960
▁ني	-3961
▁ght	-3962
▁تبع	-3963
▁لات	-3964
▁صرفا	-3965
▁وافق	-3966
▁تزریق	-3967
▁توییت	-3968
▁حدوده	-3969
▁ناهند	-3970
▁ic	-3971
▁صار	-3972
▁منص	-3973
زیل	-3974
▁ri	-3975
▁رام	-3976
▁ویل	-3977
▁غریب	-3978
▁جغراف	-3979
▁وافقت	-3980
▁غم	-3981
▁برج	-3982
▁تیا	-3983
▁حقی	-3984
▁شرح	-3985
▁دمای	-3986
▁عالم	-3987
ard	-3988
▁تاپ	-3989
▁هار	-3990
▁پارت	-3991
▁دآوری	-3992
▁متعهد	-3993
▁متنوع	-3994
▁شکار	-3995
▁گرام	-3996
▁مستند	-3997
▁اوست	-3998
▁تخصص	-3999
▁مسلح	-4000
▁همگی	-4001
▁پروس	-4002
▁بانکی	-4003
▁رعایت	-4004
▁زودتر	-4005
▁سرکوب	-4006
▁واهان	-4007
▁%	-4008
▁&	-4009
▁ثنا	-4010
▁صوت	-4011
▁آنتی	-4012
▁تجرب	-4013
▁فرید	-4014
▁پدرش	-4015
▁اسناد	-4016
▁شکایت	-4017
امع	-4018
▁رال	-4019
▁رسی	-4020
▁شدیم	-4021
▁جوامع	-4022
▁صندوق	-4023
▁میدهد	-4024
▁طرز	-4025
▁ادرم	-4026
▁تیاج	-4027
▁فوری	-4028
▁قطار	-4029
▁بهینه	-4030
▁کنونی	-4031
▁لق	-4032
▁Con	-4033
▁ایمن	-4034
▁وئیس	-4035
▁کربن	-4036
▁لودگی	-4037
▁ریک	-4038
▁تحقق	-4039
▁حلقه	-4040
▁رنگی	-4041
▁قطعه	-4042
▁ومین	-4043
▁تأکید	-4044
▁راستی	-4045
▁خام	-4046
▁عبا	-4047
▁لکه	-4048
▁ویه	-4049
▁ment	-4050
▁خنده	-4051
▁بدهند	-4052
▁La	-4053
▁ربا	-4054
▁یمن	-4055
▁ماری	-4056
▁ارچوب	-4057
▁ورا	-4058
▁استر	-4059
▁راجع	-4060
▁روشی	-4061
▁سینه	-4062
▁ندرت	-4063
▁برسان	-4064
▁حیاتی	-4065
▁دیوان	-4066
▁روزمر	-4067
▁لبنان	-4068
▁Q	-4069
▁پلت	-4070
▁جعبه	-4071
▁اطرات	-4072
▁ma	-4073
▁ضب	-4074
▁قف	-4075
▁جمعه	-4076
▁ضربه	-4077
▁اجبار	-4078
▁واردی	-4079
▁وریسم	-4080
▁٫	-4081
▁An	-4082
شناس	-4083
▁ابع	-4084
▁شکلی	-4085
▁نگار	-4086
▁دیدتر	-4087
▁سازید	-4088
▁گذارن	-4089
▁90	-4090
▁حین	-4091
▁توده	-4092
▁سوئد	-4093
▁نالد	-4094
▁اشتبا	-4095
▁عصبان	-4096
▁sh	-4097
▁۲۵	-4098
▁دیو	-4099
▁لوب	-4100
▁درخش	-4101
▁مکزیک	-4102
▁یسیون	-4103
▁قو	-4104
▁الح	-4105
▁اتخا	-4106
▁ردمی	-4107
▁عنصر	-4108
▁کشان	-4109
▁یلند	-4110
▁رأ	-4111
▁ير	-4112
▁بیند	-4113
▁جلوی	-4114
▁شنید	-4115
▁طلاق	-4116
▁فکری	-4117
▁لاها	-4118
▁برزیل	-4119
▁بنیان	-4120
▁ندهید	-4121
▁ئید	-4122
▁واسط	-4123
▁یدگی	-4124
▁اراده	-4125
la	-4126
▁HT	-4127
▁۶۰	-4128
▁سار	-4129
▁رسان	-4130
▁اتخاذ	-4131
▁الزام	-4132
▁وط	-4133
اهرا	-4134
▁زید	-4135
▁پان	-4136
▁یکر	-4137
▁خودت	-4138
▁آورید	-4139
▁خوراک	-4140
▁دلاری	-4141
▁ظاهرا	-4142
▁نامزد	-4143
▁ونیست	-4144
مور	-4145
▁ge	-4146
▁اتور	-4147
▁دانی	-4148
▁سکوت	-4149
▁شیدن	-4150
▁قیام	-4151
▁ایتخت	-4152
▁خبرنگ	-4153
ne	-4154
▁زین	-4155
▁سیر	-4156
▁نظم	-4157
▁الکیت	-4158
وص	-4159
▁17	-4160
▁ذب	-4161
▁یغ	-4162
▁تابع	-4163
▁غیره	-4164
▁آمدند	-4165
▁آوریل	-4166
▁تقاضا	-4167
▁لسلام	-4168
▁گرفتم	-4169
▁هه	-4170
▁هک	-4171
▁يک	-4172
▁ضبط	-4173
▁هیو	-4174
▁جمعی	-4175
▁زایم	-4176
▁سنجی	-4177
▁بپذیر	-4178
▁تمایز	-4179
▁نشسته	-4180
▁گرایی	-4181
بیند	-4182
▁ببرد	-4183
▁ابراز	-4184
▁ببیند	-4185
▁شمنان	-4186
▁IP	-4187
▁يا	-4188
▁۱۸	-4189
▁ادی	-4190
▁رقص	-4191
▁کور	-4192
▁بسایت	-4193
▁مأمور	-4194
غال	-4195
▁صه	-4196
خصوص	-4197
▁اشیا	-4198
▁کالی	-4199
▁اشغال	-4200
▁شنوار	-4201
▁ماشای	-4202
▁مخصوص	-4203
▁مخلو	-4204
▁جنایت	-4205
▁هنمای	-4206
est	-4207
ord	-4208
راحت	-4209
▁عقید	-4210
▁هلند	-4211
▁آلوده	-4212
▁اراحت	-4213
▁سرباز	-4214
▁فوریه	-4215
▁گذران	-4216
▁SE	-4217
▁فقیر	-4218
▁مالک	-4219
▁حرارت	-4220
اطف	-4221
▁Ad	-4222
▁عاطف	-4223
▁یلان	-4224
▁دروید	-4225
▁وکس	-4226
▁کپی	-4227
▁روحان	-4228
▁موهای	-4229
▁US	-4230
▁ذاشت	-4231
▁سران	-4232
▁ناخت	-4233
th	-4234
جار	-4235
▁الغ	-4236
▁لمس	-4237
▁نحو	-4238
▁کاب	-4239
▁رویم	-4240
▁شارژ	-4241
▁ویزای	-4242
▁=	-4243
▁Mo	-4244
اهان	-4245
▁رسم	-4246
▁نادر	-4247
▁یوان	-4248
▁تناسب	-4249
▁یاهان	-4250
ئت	-4251
راج	-4252
▁لوژ	-4253
▁ودک	-4254
▁باشه	-4255
▁توقف	-4256
▁زدهم	-4257
▁دوستی	-4258
▁نفجار	-4259
▁بادل	-4260
▁اجاره	-4261
▁برایش	-4262
▁یگیری	-4263
OS	-4264
▁اهم	-4265
▁بومی	-4266
▁هیئت	-4267
▁اتمام	-4268
▁العاد	-4269
▁فادار	-4270
▁هربان	-4271
▁ودکشی	-4272
▁ادا	-4273
▁وود	-4274
▁یکل	-4275
▁فریب	-4276
▁نکند	-4277
▁گردن	-4278
▁اتهام	-4279
▁تخمین	-4280
▁ذاشتن	-4281
▁مسابق	-4282
▁نیادی	-4283
▁لت	-4284
▁ایز	-4285
▁حسن	-4286
▁ضاع	-4287
▁کیه	-4288
▁رفتم	-4289
▁مقصد	-4290
▁پروف	-4291
▁کابل	-4292
▁لوژیک	-4293
▁80	-4294
▁یامد	-4295
▁بشناس	-4296
▁خطرات	-4297
▁رآورد	-4298
▁کالیف	-4299
▁Pl	-4300
▁ch	-4301
▁تخت	-4302
▁درب	-4303
▁شون	-4304
▁ابهی	-4305
▁استو	-4306
▁بینا	-4307
▁دستی	-4308
▁مادگ	-4309
▁محکم	-4310
▁اتوبو	-4311
▁ردگار	-4312
▁کالری	-4313
▁اسد	-4314
▁ناخ	-4315
▁وبا	-4316
▁یمی	-4317
▁یین	-4318
▁ارکس	-4319
▁گریه	-4320
▁گونا	-4321
▁حقیقی	-4322
▁شکنجه	-4323
▁مندتر	-4324
▁بزی	-4325
▁شعر	-4326
▁کرو	-4327
▁ارتف	-4328
▁وانی	-4329
▁واکس	-4330
▁برایم	-4331
ct	-4332
▁اکو	-4333
▁وضو	-4334
▁فرمای	-4335
ub	-4336
▁۱۱	-4337
▁Com	-4338
▁Mar	-4339
▁صفر	-4340
▁ارات	-4341
▁خراج	-4342
io	-4343
▁رر	-4344
▁ظم	-4345
▁صری	-4346
▁هرو	-4347
ers	-4348
سیک	-4349
▁وت	-4350
▁ادب	-4351
▁اهه	-4352
▁فلو	-4353
▁اهنگ	-4354
NA	-4355
▁روس	-4356
▁اتمی	-4357
▁اتین	-4358
▁خلاف	-4359
▁ارمند	-4360
▁لاسیک	-4361
▁بي	-4362
▁کول	-4363
▁غزی	-4364
▁فات	-4365
▁ضرور	-4366
▁روپ	-4367
▁یفا	-4368
▁اکسی	-4369
▁وفان	-4370
▁قاضای	-4371
▁وریست	-4372
▁طا	-4373
▁رفه	-4374
▁وژن	-4375
▁کشند	-4376
▁دداشت	-4377
▁پرستا	-4378
▁Ex	-4379
▁راث	-4380
▁بنای	-4381
▁قایق	-4382
▁یزبان	-4383
▁شها	-4384
▁وچک	-4385
+]	-4386
▁[+]	-4387
▁دکم	-4388
▁کشی	-4389
▁غذاها	-4390
BA	-4391
ss	-4392
▁لّ	-4393
▁تنا	-4394
▁فیف	-4395
▁قند	-4396
▁مدنی	-4397
▁تخصصی	-4398
▁موافق	-4399
-]	-4400
▁IS	-4401
▁ئو	-4402
▁[-]	-4403
▁ائل	-4404
▁دتا	-4405
▁اموش	-4406
▁ردها	-4407
▁پنجم	-4408
▁اهنگی	-4409
▁وچکتر	-4410
ock	-4411
▁70	-4412
▁کسل	-4413
▁انکار	-4414
فهم	-4415
▁Le	-4416
▁کاش	-4417
▁بفهم	-4418
▁لوژی	-4419
▁محقق	-4420
▁منف	-4421
▁كنند	-4422
▁ة	-4423
▁Ar	-4424
▁نز	-4425
▁اچه	-4426
▁لیت	-4427
▁انداخ	-4428
▁گنج	-4429
▁کالا	-4430
▁یبری	-4431
av	-4432
▁ive	-4433
▁عادل	-4434
▁نستن	-4435
▁چش	-4436
▁اجعه	-4437
▁ولاد	-4438
our	-4439
▁احت	-4440
▁سیس	-4441
▁یبر	-4442
▁انید	-4443
ost	-4444
▁ar	-4445
▁ادث	-4446
▁جات	-4447
▁رقه	-4448
▁سیب	-4449
▁طره	-4450
▁Cl	-4451
▁ایه	-4452
▁هرت	-4453
▁واز	-4454
▁رکات	-4455
▁بنیاد	-4456
▁پارتم	-4457
▁1.	-4458
▁۱۴	-4459
▁فرش	-4460
▁یزر	-4461
▁اسید	-4462
ill	-4463
▁تکب	-4464
▁اسکا	-4465
▁بکار	-4466
▁اشی	-4467
▁تنش	-4468
▁زنگ	-4469
▁ونس	-4470
▁گری	-4471
▁زرگان	-4472
▁میت	-4473
▁باشی	-4474
▁رطرف	-4475
▁رزهای	-4476
▁ur	-4477
▁اسط	-4478
▁تتا	-4479
▁ذاب	-4480
▁ناراح	-4481
▁?	-4482
ing	-4483
▁تکل	-4484
▁ستی	-4485
▁نان	-4486
▁گند	-4487
▁مبار	-4488
▁وردند	-4489
▁فش	-4490
▁رتر	-4491
▁فتی	-4492
▁مهر	-4493
▁میشه	-4494
▁نماد	-4495
▁گذارد	-4496
▁پلی	-4497
▁مادرش	-4498
▁man	-4499
▁دیت	-4500
▁واص	-4501
▁شویی	-4502
▁اجد	-4503
▁توج	-4504
▁شبه	-4505
▁لاس	-4506
▁لحه	-4507
▁مدن	-4508
▁ندی	-4509
▁آقا	-4510
▁ئین	-4511
▁انم	-4512
▁وئل	-4513
▁کرم	-4514
▁اهای	-4515
▁دعای	-4516
▁سرما	-4517
▁ارگان	-4518
▁مادی	-4519
▁ندید	-4520
▁حت	-4521
▁خلی	-4522
▁ریل	-4523
▁شورش	-4524
▁اتل	-4525
▁اده	-4526
▁روید	-4527
▁نکردن	-4528
▁اچ	-4529
▁رپ	-4530
▁فوت	-4531
▁دینی	-4532
▁بخشید	-4533
ell	-4534
▁زنم	-4535
▁گاو	-4536
▁طرفدا	-4537
▁—	-4538
ace	-4539
▁موم	-4540
▁گلو	-4541
▁الون	-4542
▁سانه	-4543
▁متری	-4544
▁یاها	-4545
▁ie	-4546
▁بلو	-4547
▁تدا	-4548
▁مبارز	-4549
▁۸۰	-4550
▁دگر	-4551
▁سترو	-4552
▁نجان	-4553
▁شاورز	-4554
▁21	-4555
▁عک	-4556
▁ادو	-4557
▁تنگ	-4558
▁ینی	-4559
▁برید	-4560
▁اوج	-4561
▁غام	-4562
▁وله	-4563
ke	-4564
▁غا	-4565
▁App	-4566
▁نیدن	-4567
▁وریم	-4568
▁اى	-4569
▁يت	-4570
▁ونا	-4571
▁ستاده	-4572
▁پیروز	-4573
▁Ro	-4574
▁an	-4575
▁عوا	-4576
▁پیک	-4577
▁ستری	-4578
▁یران	-4579
▁خه	-4580
▁هز	-4581
▁Int	-4582
▁ایب	-4583
▁دها	-4584
▁نوا	-4585
▁حریم	-4586
▁19	-4587
▁ارل	-4588
▁لذا	-4589
▁مزا	-4590
▁ویزا	-4591
▁یکرو	-4592
▁Ac	-4593
▁no	-4594
▁جت	-4595
▁منع	-4596
▁ازم	-4597
▁یید	-4598
▁ابید	-4599
▁تعلق	-4600
▁صلاح	-4601
سل	-4602
▁ردن	-4603
▁سرم	-4604
▁کین	-4605
▁البا	-4606
▁ربات	-4607
▁رفتند	-4608
▁٠	-4609
ook	-4610
▁جب	-4611
▁ازن	-4612
▁حبت	-4613
▁حدی	-4614
▁طای	-4615
▁فتد	-4616
▁ادری	-4617
▁افسر	-4618
▁قدیم	-4619
▁وران	-4620
▁چشمان	-4621
▁۱۳	-4622
▁چوب	-4623
▁نداز	-4624
▁نظری	-4625
▁دغ	-4626
▁بوی	-4627
▁دوز	-4628
▁ورس	-4629
▁افشا	-4630
▁فزای	-4631
▁ناتو	-4632
ate	-4633
▁ارب	-4634
▁غول	-4635
▁منا	-4636
▁بشری	-4637
▁مسیحی	-4638
ML	-4639
PS	-4640
▁الف	-4641
▁خته	-4642
▁وسط	-4643
▁جاست	-4644
▁ندانه	-4645
▁HI	-4646
▁Uni	-4647
▁سنی	-4648
▁اریو	-4649
▁موسی	-4650
▁انتان	-4651
▁هال	-4652
▁تانه	-4653
▁محاسب	-4654
▁باس	-4655
▁وسه	-4656
▁کلم	-4657
▁ینو	-4658
▁عکاس	-4659
▁دریای	-4660
are	-4661
▁Ph	-4662
▁جک	-4663
▁اوری	-4664
▁باری	-4665
▁منطق	-4666
co	-4667
▁Fi	-4668
▁ph	-4669
▁وخ	-4670
▁ّا	-4671
▁دوی	-4672
▁متد	-4673
▁مزه	-4674
▁ورگ	-4675
▁امان	-4676
▁استار	-4677
▁ارض	-4678
▁فند	-4679
▁فتار	-4680
▁یانت	-4681
▁En	-4682
▁Th	-4683
▁ry	-4684
▁تاج	-4685
▁خرج	-4686
▁سکن	-4687
▁ولای	-4688
▁ازگرد	-4689
op	-4690
▁واژ	-4691
▁ومی	-4692
▁یال	-4693
▁فرود	-4694
▁وئید	-4695
▁دستان	-4696
▁تسل	-4697
▁ضیه	-4698
▁منی	-4699
▁نصف	-4700
▁هول	-4701
▁پلا	-4702
▁ولین	-4703
▁گردش	-4704
ry	-4705
ort	-4706
▁li	-4707
▁منش	-4708
▁کوک	-4709
▁تونی	-4710
▁سرتا	-4711
▁نوار	-4712
▁ایستی	-4713
▁هروند	-4714
▁سي	-4715
▁برم	-4716
▁جین	-4717
▁لمه	-4718
▁وده	-4719
▁نسور	-4720
▁شنایی	-4721
IS	-4722
ame	-4723
▁راط	-4724
▁رکا	-4725
▁عان	-4726
▁تراف	-4727
▁ستار	-4728
▁ادهای	-4729
▁يم	-4730
▁راند	-4731
lo	-4732
بخ	-4733
ore	-4734
▁اقل	-4735
▁انا	-4736
▁لیس	-4737
▁جراح	-4738
▁یحات	-4739
▁خونی	-4740
▁شیمی	-4741
▁یایی	-4742
▁خوشبخ	-4743
ga	-4744
بخت	-4745
▁Be	-4746
▁چا	-4747
▁ارش	-4748
▁بهم	-4749
▁دلم	-4750
▁شست	-4751
▁ژوئ	-4752
▁کاو	-4753
▁رکرد	-4754
▁وشبخت	-4755
▁٢	-4756
▁IC	-4757
▁فس	-4758
▁زاب	-4759
▁ودا	-4760
▁ّت	-4761
▁امس	-4762
▁اندر	-4763
▁ختان	-4764
▁دیکت	-4765
▁واری	-4766
▁وطلب	-4767
▁یروز	-4768
▁تاد	-4769
▁غلب	-4770
▁واد	-4771
▁گیریم	-4772
▁22	-4773
▁be	-4774
▁۲۴	-4775
▁جفت	-4776
▁رژی	-4777
▁شتن	-4778
▁عمق	-4779
▁قرص	-4780
▁فرمو	-4781
▁ولیک	-4782
▁آما	-4783
▁ارف	-4784
▁ونگ	-4785
▁شاگر	-4786
▁Te	-4787
▁۱۶	-4788
▁ائو	-4789
▁هان	-4790
▁یبی	-4791
▁دربار	-4792
▁لکت	-4793
▁سپری	-4794
▁یدنی	-4795
▁تاک	-4796
▁یکس	-4797
▁صمیم	-4798
▁کردی	-4799
▁نداخت	-4800
AS	-4801
▁لیف	-4802
▁نای	-4803
▁امین	-4804
▁اء	-4805
▁۷۰	-4806
▁نگاری	-4807
▁یث	-4808
▁اهر	-4809
▁کمر	-4810
▁یوز	-4811
▁رسیم	-4812
▁اداری	-4813
▁طعم	-4814
▁ارسی	-4815
▁لبان	-4816
▁٩	-4817
ast	-4818
ork	-4819
▁رك	-4820
▁اگه	-4821
▁ماع	-4822
▁نزا	-4823
▁وگا	-4824
▁ایند	-4825
▁ناخته	-4826
▁;	-4827
▁1-	-4828
▁بجا	-4829
▁تیو	-4830
▁نتا	-4831
طرا	-4832
▁اوی	-4833
▁ایش	-4834
▁ایل	-4835
▁ترم	-4836
▁غذی	-4837
▁وقا	-4838
▁کوچ	-4839
▁تنام	-4840
▁والی	-4841
▁انشان	-4842
▁Tr	-4843
▁په	-4844
▁ابا	-4845
▁نوش	-4846
▁ستگی	-4847
▁فارس	-4848
▁ونیک	-4849
▁اضطرا	-4850
▁Man	-4851
▁توک	-4852
▁زمن	-4853
▁پیرا	-4854
▁We	-4855
▁زار	-4856
▁رابط	-4857
▁مذهب	-4858
▁ناظر	-4859
▁ستانی	-4860
بین	-4861
▁افق	-4862
▁نقص	-4863
▁ممنو	-4864
▁HD	-4865
▁اقد	-4866
▁رمت	-4867
▁عود	-4868
▁قین	-4869
▁لار	-4870
▁اسکن	-4871
▁ستیم	-4872
▁ادران	-4873
▁Sa	-4874
▁ly	-4875
▁ابد	-4876
▁تاق	-4877
▁عهد	-4878
▁ومه	-4879
▁بنده	-4880
▁$	-4881
▁حتم	-4882
▁محض	-4883
▁وجو	-4884
▁جزئی	-4885
▁me	-4886
▁وهی	-4887
▁یدا	-4888
ine	-4889
ome	-4890
▁طن	-4891
▁لپ	-4892
▁جزو	-4893
▁راخ	-4894
▁صر	-4895
▁امت	-4896
▁تحم	-4897
▁روت	-4898
▁لوت	-4899
▁نورد	-4900
▁وابست	-4901
mi	-4902
▁مضر	-4903
▁وطه	-4904
▁چسب	-4905
▁تماع	-4906
▁روحی	-4907
▁ستقر	-4908
▁لیسم	-4909
PN	-4910
ft	-4911
▁2-	-4912
▁رخش	-4913
▁لطف	-4914
▁تهای	-4915
▁Jo	-4916
▁ادت	-4917
▁حله	-4918
▁ناط	-4919
▁اریا	-4920
▁متعا	-4921
iv	-4922
mp	-4923
ree	-4924
ینگ	-4925
▁ia	-4926
▁ld	-4927
▁قطر	-4928
▁لحظ	-4929
▁ورژ	-4930
▁تکار	-4931
▁ریست	-4932
▁ناسا	-4933
▁لي	-4934
▁ارن	-4935
▁دله	-4936
▁ردند	-4937
▁شورا	-4938
▁گه	-4939
▁زرس	-4940
▁سکی	-4941
▁سید	-4942
▁غلط	-4943
▁انیم	-4944
▁مقدم	-4945
▁کارا	-4946
▁پذیری	-4947
ta	-4948
▁HIV	-4949
▁افا	-4950
▁شیک	-4951
▁پری	-4952
▁یسه	-4953
▁gra	-4954
▁خره	-4955
▁رزی	-4956
▁فرق	-4957
▁یتی	-4958
▁برگز	-4959
me	-4960
▁2.	-4961
▁Su	-4962
▁الو	-4963
▁اهد	-4964
▁دات	-4965
▁عصب	-4966
▁لاه	-4967
▁ینک	-4968
▁گزاری	-4969
▁حج	-4970
▁۲۱	-4971
▁200	-4972
▁ent	-4973
▁اهو	-4974
▁تشا	-4975
▁عسل	-4976
▁وات	-4977
▁هانه	-4978
▁یلیا	-4979
▁یهود	-4980
▁حب	-4981
▁یِ	-4982
▁DNA	-4983
▁جنا	-4984
▁یزا	-4985
▁ce	-4986
▁صو	-4987
▁ble	-4988
▁وبه	-4989
▁نتون	-4990
ox	-4991
qu	-4992
▁nc	-4993
▁Mic	-4994
▁دوش	-4995
▁وتا	-4996
▁ییم	-4997
▁شانه	-4998
▁sp	-4999
▁لد	-5000
▁حدس	-5001
▁یای	-5002
▁یفت	-5003
▁ادان	-5004
▁حافظ	-5005
▁مایه	-5006
na	-5007
▁He	-5008
▁هج	-5009
▁حظه	-5010
▁رتو	-5011
▁رعه	-5012
▁شاند	-5013
▁پایی	-5014
▁میانه	-5015
▁35	-5016
▁ni	-5017
▁رؤ	-5018
▁اپی	-5019
▁ایو	-5020
▁غرق	-5021
▁لزی	-5022
▁مبو	-5023
▁نسول	-5024
▁وندی	-5025
▁دما	-5026
▁طاب	-5027
▁کنج	-5028
▁هیدر	-5029
▁گرافی	-5030
ark	-5031
▁Me	-5032
▁حه	-5033
▁ure	-5034
▁ریو	-5035
▁نود	-5036
▁بازگ	-5037
▁سوره	-5038
▁شتار	-5039
▁شنوا	-5040
xt	-5041
▁مقر	-5042
▁هیپ	-5043
▁ولا	-5044
ck	-5045
▁se	-5046
▁500	-5047
▁ینت	-5048
▁وادار	-5049
si	-5050
▁VPN	-5051
▁هنم	-5052
▁وپر	-5053
▁36	-5054
▁بری	-5055
▁جار	-5056
▁زاد	-5057
▁قسم	-5058
▁لاب	-5059
▁کوب	-5060
▁ریان	-5061
▁شخصا	-5062
ES	-5063
▁¬	-5064
▁آری	-5065
▁مره	-5066
▁طه	-5067
▁Ser	-5068
▁انک	-5069
▁کیم	-5070
▁اندک	-5071
▁وجوان	-5072
int	-5073
▁Op	-5074
▁۹۰	-5075
▁300	-5076
▁حمت	-5077
▁رأی	-5078
▁شتم	-5079
▁لیه	-5080
▁مجا	-5081
▁وگو	-5082
▁شیده	-5083
▁نندگ	-5084
▁وازه	-5085
▁ینطور	-5086
▁23	-5087
▁is	-5088
▁رئ	-5089
▁پم	-5090
▁تکه	-5091
▁روف	-5092
▁ناگ	-5093
▁ونو	-5094
▁ددا	-5095
▁رمی	-5096
▁نزی	-5097
▁نوک	-5098
▁کوش	-5099
AT	-5100
ile	-5101
▁آنا	-5102
▁اهت	-5103
▁داغ	-5104
▁سقف	-5105
▁کون	-5106
▁vers	-5107
▁رژان	-5108
▁مهار	-5109
▁کسید	-5110
ite	-5111
▁28	-5112
▁۱۷	-5113
▁وسو	-5114
▁گزا	-5115
▁درها	-5116
▁عمار	-5117
▁شکلات	-5118
▁خیل	-5119
▁وقف	-5120
▁انگر	-5121
▁روپای	-5122
▁پیچید	-5123
▁قض	-5124
▁حاک	-5125
▁سمی	-5126
▁لعه	-5127
▁یرت	-5128
▁دایا	-5129
▁درات	-5130
▁لیون	-5131
▁روانش	-5132
▁لکترو	-5133
fe	-5134
▁جزء	-5135
▁منو	-5136
▁هره	-5137
▁یزم	-5138
▁ازیم	-5139
▁جزای	-5140
▁lo	-5141
▁اگو	-5142
▁پاش	-5143
▁فتگی	-5144
▁هنما	-5145
▁معمار	-5146
ass	-5147
▁Wh	-5148
▁ئه	-5149
▁رث	-5150
▁یط	-5151
▁میم	-5152
▁بودی	-5153
▁رگیری	-5154
▁بقا	-5155
▁حرم	-5156
▁هود	-5157
▁ورن	-5158
▁ادات	-5159
▁الین	-5160
▁ضایی	-5161
▁Co	-5162
▁Ta	-5163
▁نیت	-5164
▁هاد	-5165
▁وکا	-5166
▁گرگ	-5167
▁اریم	-5168
▁اعضا	-5169
▁زبانی	-5170
▁he	-5171
▁جیب	-5172
▁طری	-5173
▁فان	-5174
▁لیا	-5175
▁پاه	-5176
▁اعات	-5177
▁زندگ	-5178
ode	-5179
▁CS	-5180
▁انز	-5181
▁همۀ	-5182
▁ورش	-5183
▁کبد	-5184
▁کتب	-5185
▁کنس	-5186
▁HTML	-5187
▁·	-5188
ick	-5189
▁دک	-5190
▁نپ	-5191
▁ارا	-5192
▁بدا	-5193
▁تیز	-5194
▁حسی	-5195
▁قفل	-5196
▁وتو	-5197
▁ورو	-5198
▁گره	-5199
▁یری	-5200
▁ترور	-5201
ED	-5202
ang	-5203
▁وچ	-5204
▁Net	-5205
▁جری	-5206
▁نشر	-5207
▁یتا	-5208
▁ترون	-5209
▁ورشی	-5210
▁وسیا	-5211
mo	-5212
oll	-5213
ust	-5214
▁45	-5215
▁CO	-5216
▁۱۹	-5217
▁New	-5218
▁بخت	-5219
▁برف	-5220
▁حمد	-5221
▁دیس	-5222
▁ندو	-5223
▁هین	-5224
▁پیت	-5225
▁اشتی	-5226
▁اینه	-5227
▁نایی	-5228
▁نامید	-5229
▁آک	-5230
▁دز	-5231
▁اخذ	-5232
▁جلس	-5233
▁ارمن	-5234
▁ندها	-5235
▁دستیا	-5236
▁مامور	-5237
▁AD	-5238
▁زیب	-5239
▁ستش	-5240
▁مواج	-5241
▁وازی	-5242
AN	-5243
▁PC	-5244
▁دگ	-5245
▁ابل	-5246
▁رول	-5247
▁پرت	-5248
ool	-5249
▁تای	-5250
▁شیو	-5251
▁ونه	-5252
▁یقه	-5253
▁رتری	-5254
PA	-5255
▁Pa	-5256
▁WE	-5257
▁SEO	-5258
▁جاب	-5259
▁جال	-5260
▁فال	-5261
▁خوانی	-5262
▁رهایی	-5263
va	-5264
▁اسخ	-5265
▁تحق	-5266
▁خنک	-5267
▁راش	-5268
▁وفا	-5269
▁یزه	-5270
▁یدئو	-5271
▁3.	-5272
▁You	-5273
▁اسه	-5274
▁ندن	-5275
▁ینش	-5276
▁Lo	-5277
▁Pre	-5278
▁War	-5279
▁tor	-5280
▁احی	-5281
▁تمد	-5282
▁جاو	-5283
▁سوس	-5284
▁اتری	-5285
▁برها	-5286
▁Ed	-5287
▁em	-5288
▁تث	-5289
▁امه	-5290
▁بوت	-5291
▁محو	-5292
▁نمک	-5293
AC	-5294
▁زام	-5295
▁غال	-5296
▁لیو	-5297
▁رامی	-5298
▁سوسی	-5299
▁سیال	-5300
▁توانی	-5301
so	-5302
▁‬	-5303
▁لیگ	-5304
▁معا	-5305
▁انیت	-5306
▁جانی	-5307
▁سوری	-5308
▁فتیم	-5309
▁ثم	-5310
▁پک	-5311
▁ect	-5312
▁احل	-5313
▁دعو	-5314
▁لنز	-5315
▁لینی	-5316
▁وشان	-5317
▁26	-5318
▁27	-5319
▁da	-5320
▁ft	-5321
▁۲۲	-5322
▁ادن	-5323
▁دبی	-5324
▁سفی	-5325
▁کنگ	-5326
▁انتی	-5327
▁بهای	-5328
▁وایی	-5329
▁گزین	-5330
▁عز	-5331
زایا	-5332
▁ضرر	-5333
▁قوا	-5334
▁لاگ	-5335
▁ودر	-5336
▁یخت	-5337
▁اریاب	-5338
▁زیبای	-5339
▁مزایا	-5340
▁لل	-5341
▁بیه	-5342
▁حام	-5343
▁ظره	-5344
▁ابری	-5345
▁ناسب	-5346
▁ادآور	-5347
RL	-5348
وف	-5349
▁CD	-5350
▁No	-5351
▁۳۵	-5352
▁ریخ	-5353
▁سمان	-5354
▁کاند	-5355
▁اسخگو	-5356
▁مودند	-5357
▁ta	-5358
▁For	-5359
▁مینا	-5360
▁سفانه	-5361
MS	-5362
ip	-5363
ime	-5364
▁SS	-5365
▁آمر	-5366
▁افع	-5367
▁ظهر	-5368
▁وره	-5369
▁رایان	-5370
▁وشیدن	-5371
ont	-5372
▁II	-5373
▁Pr	-5374
▁زک	-5375
▁احا	-5376
▁الس	-5377
▁اها	-5378
▁دیا	-5379
▁ادام	-5380
▁امری	-5381
▁علاق	-5382
▁لک	-5383
▁جله	-5384
▁روژ	-5385
▁رکت	-5386
▁لبه	-5387
▁ناز	-5388
▁هری	-5389
▁وبی	-5390
▁ینا	-5391
▁هوشم	-5392
▁ایستا	-5393
▁To	-5394
▁ثی	-5395
▁And	-5396
▁هدر	-5397
▁کرا	-5398
▁گال	-5399
▁نوآور	-5400
DA	-5401
پس	-5402
▁AS	-5403
▁us	-5404
▁آسا	-5405
▁جوش	-5406
▁قدس	-5407
▁مسن	-5408
▁گوا	-5409
▁یزیو	-5410
ff	-5411
ice	-5412
▁75	-5413
▁ial	-5414
▁اتا	-5415
▁امل	-5416
▁تار	-5417
▁لسل	-5418
▁نکو	-5419
▁پاپ	-5420
▁راکت	-5421
▁همسا	-5422
▁یدان	-5423
▁ذراند	-5424
▁Mac	-5425
▁One	-5426
▁Res	-5427
▁Wor	-5428
▁اطم	-5429
▁حبس	-5430
▁همگ	-5431
▁۲۰۰	-5432
▁ترجم	-5433
▁مانه	-5434
▁مراه	-5435
▁●	-5436
▁My	-5437
▁Sy	-5438
▁ex	-5439
▁خم	-5440
▁MBA	-5441
▁صور	-5442
▁لیز	-5443
▁ونت	-5444
▁نوشید	-5445
ank	-5446
▁3-	-5447
▁CR	-5448
▁ازش	-5449
▁تات	-5450
▁تهی	-5451
▁هام	-5452
NS	-5453
▁Na	-5454
▁تنه	-5455
▁لگی	-5456
▁ژیک	-5457
▁۵۰۰	-5458
▁بانی	-5459
▁فانه	-5460
▁وعات	-5461
▁یمان	-5462
▁استخر	-5463
AR	-5464
▁MS	-5465
▁ern	-5466
▁iOS	-5467
▁اطل	-5468
▁سبی	-5469
▁لوم	-5470
▁ndow	-5471
▁رجست	-5472
ics	-5473
▁(1	-5474
▁عط	-5475
▁مض	-5476
▁وگ	-5477
▁Pri	-5478
▁ابی	-5479
▁ارث	-5480
▁شکی	-5481
▁مینی	-5482
▁یانگ	-5483
ala	-5484
ith	-5485
ood	-5486
▁AC	-5487
▁حث	-5488
▁WEB	-5489
▁ریش	-5490
▁سنا	-5491
▁قیب	-5492
▁مده	-5493
▁چهل	-5494
▁کوس	-5495
▁ایست	-5496
▁موها	-5497
TP	-5498
▁es	-5499
▁Tra	-5500
▁بحر	-5501
▁زدا	-5502
▁چرب	-5503
▁دیدا	-5504
▁سالی	-5505
▁مانت	-5506
▁وانم	-5507
ath	-5508
▁Bu	-5509
▁Mi	-5510
▁PS	-5511
▁gy	-5512
▁زر	-5513
▁برش	-5514
▁فته	-5515
▁دمان	-5516
▁وگان	-5517
▁یدیم	-5518
▁یستم	-5519
▁امیان	-5520
IT	-5521
ey	-5522
▁Do	-5523
▁كا	-5524
▁يل	-5525
▁پت	-5526
▁لیل	-5527
▁وصل	-5528
▁نامی	-5529
ash	-5530
ink	-5531
▁32	-5532
▁Gr	-5533
▁وي	-5534
▁ert	-5535
▁شتر	-5536
▁شکم	-5537
▁ness	-5538
▁انهای	-5539
TS	-5540
ab	-5541
gi	-5542
▁ISO	-5543
▁تنی	-5544
▁روگ	-5545
▁هدا	-5546
▁ودآ	-5547
▁نداد	-5548
▁وستی	-5549
ak	-5550
pt	-5551
▁31	-5552
▁AM	-5553
▁روک	-5554
▁زیم	-5555
▁محر	-5556
▁وزی	-5557
ER	-5558
▁Car	-5559
▁اعل	-5560
▁دره	-5561
▁قطب	-5562
▁قلی	-5563
▁AR	-5564
▁Ni	-5565
▁سد	-5566
▁طف	-5567
▁URL	-5568
▁pro	-5569
▁احم	-5570
▁تصر	-5571
▁روا	-5572
▁زیک	-5573
▁شفا	-5574
▁قوت	-5575
▁لوا	-5576
▁یغا	-5577
▁الری	-5578
▁خیره	-5579
▁دگار	-5580
▁رانی	-5581
▁غالب	-5582
▁وانه	-5583
▁\	-5584
ata	-5585
▁IB	-5586
▁USB	-5587
▁ائی	-5588
▁بای	-5589
▁تعل	-5590
▁ردگ	-5591
▁نجا	-5592
▁خوری	-5593
▁اتوری	-5594
▁ایگان	-5595
eo	-5596
▁Am	-5597
▁وو	-5598
▁ice	-5599
▁nic	-5600
▁رگو	-5601
▁زمی	-5602
▁افزا	-5603
▁دآور	-5604
▁ستانه	-5605
▁tal	-5606
▁طلو	-5607
▁فعل	-5608
▁گوس	-5609
▁{	-5610
▁رمن	-5611
▁یلو	-5612
▁محتو	-5613
▁ازهای	-5614
▁مقاوم	-5615
olo	-5616
▁Bo	-5617
▁سس	-5618
▁افی	-5619
▁برن	-5620
▁بیگ	-5621
▁صدی	-5622
▁طار	-5623
▁وشش	-5624
▁یله	-5625
▁دامن	-5626
▁Go	-5627
▁Qu	-5628
▁الش	-5629
▁خشن	-5630
▁هدی	-5631
▁ببین	-5632
▁تگان	-5633
▁رایم	-5634
▁ndows	-5635
▁پوشید	-5636
ti	-5637
▁4-	-5638
▁Ev	-5639
▁رزو	-5640
▁علل	-5641
▁وکی	-5642
▁Serv	-5643
AP	-5644
EC	-5645
yp	-5646
▁‘	-5647
▁هش	-5648
▁بدل	-5649
▁بوس	-5650
▁ثاب	-5651
▁مگا	-5652
▁هلی	-5653
▁وبل	-5654
▁یزد	-5655
▁بانه	-5656
▁تخوا	-5657
▁AP	-5658
▁On	-5659
▁we	-5660
▁۲۳	-5661
▁۴۵	-5662
▁اجب	-5663
▁تلخ	-5664
▁زور	-5665
▁مکر	-5666
▁وبت	-5667
▁یلس	-5668
▁Comp	-5669
▁برون	-5670
▁٨	-5671
افظ	-5672
▁IT	-5673
▁un	-5674
▁تند	-5675
▁سکه	-5676
▁ششم	-5677
▁وتر	-5678
▁یمو	-5679
▁امدا	-5680
▁اینک	-5681
▁قانه	-5682
▁یجان	-5683
▁محافظ	-5684
ha	-5685
ذر	-5686
ere	-5687
▁۲۷	-5688
▁rch	-5689
▁بها	-5690
▁دوق	-5691
▁میگ	-5692
▁نکر	-5693
▁یکا	-5694
▁Home	-5695
▁ستیک	-5696
▁مختل	-5697
▁وانیم	-5698
▁Red	-5699
▁مات	-5700
▁پکن	-5701
▁اهده	-5702
▁ملات	-5703
▁ولان	-5704
▁رستان	-5705
ind	-5706
▁my	-5707
▁گش	-5708
▁Air	-5709
▁دفن	-5710
▁صاف	-5711
▁موی	-5712
▁نیل	-5713
▁انها	-5714
یز	-5715
▁Of	-5716
▁ul	-5717
▁شق	-5718
▁چو	-5719
▁400	-5720
▁لون	-5721
▁وکل	-5722
▁work	-5723
▁تانی	-5724
▁یالی	-5725
▁احتیا	-5726
▁تجربی	-5727
▁29	-5728
▁زي	-5729
▁Med	-5730
▁ain	-5731
▁فاش	-5732
▁فای	-5733
▁مبر	-5734
▁land	-5735
▁ادرا	-5736
ly	-5737
att	-5738
▁نچ	-5739
▁یص	-5740
▁آتی	-5741
▁کیک	-5742
▁یکن	-5743
▁نگون	-5744
▁ژانس	-5745
▁یشگی	-5746
▁As	-5747
▁ES	-5748
▁up	-5749
▁تپ	-5750
▁ذی	-5751
▁ard	-5752
▁بلغ	-5753
▁وحی	-5754
▁کمت	-5755
▁یها	-5756
▁داوط	-5757
▁4.	-5758
▁OS	-5759
▁sc	-5760
▁ئل	-5761
▁ian	-5762
▁افک	-5763
▁جزا	-5764
▁سسه	-5765
▁شوک	-5766
▁یشتر	-5767
▁داوطل	-5768
uc	-5769
▁mi	-5770
▁غه	-5771
▁ریج	-5772
▁نتو	-5773
▁وبر	-5774
▁وزا	-5775
▁Play	-5776
▁سمیت	-5777
▁وسته	-5778
ho	-5779
▁PH	-5780
▁آو	-5781
▁تگ	-5782
▁جس	-5783
▁رۀ	-5784
▁اکم	-5785
▁شین	-5786
▁قرا	-5787
▁قید	-5788
▁مسل	-5789
▁هبر	-5790
AM	-5791
ID	-5792
▁net	-5793
▁out	-5794
▁زوم	-5795
▁زوی	-5796
▁غار	-5797
▁فاز	-5798
▁فور	-5799
▁فول	-5800
▁کته	-5801
▁یلت	-5802
▁یوی	-5803
▁انتر	-5804
▁غیرم	-5805
▁منان	-5806
▁مسلما	-5807
▁نگذار	-5808
ET	-5809
ara	-5810
▁do	-5811
▁la	-5812
▁Exp	-5813
▁غزه	-5814
▁ندگ	-5815
▁نوب	-5816
▁پال	-5817
▁یما	-5818
▁roso	-5819
▁زنید	-5820
▁الیست	-5821
lu	-5822
oud	-5823
ull	-5824
▁EC	-5825
atch	-5826
▁ایک	-5827
▁برا	-5828
▁لفا	-5829
▁کشن	-5830
▁یلا	-5831
▁ارشی	-5832
▁وابید	-5833
▁}	-5834
▁Di	-5835
▁iP	-5836
▁ica	-5837
▁امش	-5838
▁حرا	-5839
▁دمت	-5840
▁قبا	-5841
▁ودی	-5842
▁ویم	-5843
▁یزو	-5844
▁داوم	-5845
▁دران	-5846
IP	-5847
▁٣	-5848
old	-5849
▁Ra	-5850
▁150	-5851
▁Ste	-5852
▁Web	-5853
▁درج	-5854
▁پمپ	-5855
▁ابین	-5856
▁یستی	-5857
▁امپرا	-5858
▁(2	-5859
▁ey	-5860
▁if	-5861
▁ted	-5862
▁تکی	-5863
▁جهش	-5864
▁ریدا	-5865
▁زماند	-5866
RP	-5867
▁وث	-5868
▁کز	-5869
▁Can	-5870
▁Des	-5871
▁سما	-5872
▁نوس	-5873
▁انور	-5874
▁اکتر	-5875
▁جرای	-5876
▁مودن	-5877
▁El	-5878
▁Sk	-5879
▁um	-5880
▁خل	-5881
▁پز	-5882
▁گس	-5883
▁دیل	-5884
▁رسا	-5885
▁زیل	-5886
▁فون	-5887
▁قدی	-5888
▁مدی	-5889
▁نیس	-5890
▁گیج	-5891
▁Word	-5892
▁رایت	-5893
▁موزی	-5894
▁ناور	-5895
▁یانو	-5896
▁رگذار	-5897
▁مایان	-5898
▁Po	-5899
▁چت	-5900
▁اشم	-5901
▁درگ	-5902
▁شنگ	-5903
▁صدر	-5904
▁فرس	-5905
▁وهر	-5906
▁Time	-5907
▁امنی	-5908
▁تادن	-5909
▁ندرو	-5910
▁کارآ	-5911
▁Black	-5912
IC	-5913
▁HP	-5914
▁جسد	-5915
▁قرض	-5916
▁استه	-5917
▁هالی	-5918
own	-5919
واه	-5920
▁ac	-5921
▁اا	-5922
▁گا	-5923
▁Aut	-5924
▁ایس	-5925
▁ثیر	-5926
▁شته	-5927
▁عزت	-5928
▁وژه	-5929
▁رانس	-5930
▁مقرر	-5931
▁کمون	-5932
▁انتها	-5933
hn	-5934
▁fi	-5935
▁gn	-5936
▁يش	-5937
▁Bit	-5938
▁Met	-5939
▁ائم	-5940
▁بوش	-5941
▁شیش	-5942
▁قصه	-5943
▁ورک	-5944
▁وهم	-5945
▁کیت	-5946
▁ارست	-5947
▁روری	-5948
▁زانه	-5949
▁ماها	-5950
MI	-5951
▁Br	-5952
▁lt	-5953
▁فظ	-5954
▁يس	-5955
▁۲۶	-5956
▁All	-5957
▁Sec	-5958
▁افس	-5959
▁پاد	-5960
▁اولی	-5961
TA	-5962
▁Du	-5963
▁مگ	-5964
▁تها	-5965
▁رخا	-5966
▁ودن	-5967
▁پرا	-5968
▁Game	-5969
▁رانش	-5970
▁گیرم	-5971
ero	-5972
oun	-5973
▁bo	-5974
▁by	-5975
▁قم	-5976
▁ابق	-5977
▁جیم	-5978
▁داز	-5979
▁ریع	-5980
▁صلی	-5981
▁فره	-5982
▁لور	-5983
▁لوگ	-5984
▁پله	-5985
▁برانگ	-5986
▁<	-5987
usi	-5988
▁48	-5989
▁Gu	-5990
▁Pi	-5991
▁ki	-5992
▁tt	-5993
▁Gen	-5994
▁رصد	-5995
▁عمد	-5996
▁قوه	-5997
▁نگل	-5998
▁Inst	-5999
▁gram	-6000
▁میکن	-6001
▁ورده	-6002
▁افسرد	-6003
HD	-6004
▁**	-6005
▁di	-6006
▁مچ	-6007
▁پد	-6008
▁خطی	-6009
▁ینان	-6010
▁انسته	-6011
ua	-6012
▁صل	-6013
▁۲۸	-6014
▁Gra	-6015
▁ایا	-6016
▁ختم	-6017
▁داف	-6018
▁عبه	-6019
▁وقع	-6020
▁تریک	-6021
▁رداد	-6022
▁قریب	-6023
▁65	-6024
▁Dis	-6025
▁باق	-6026
▁دلی	-6027
▁ناح	-6028
▁پنل	-6029
▁Mark	-6030
▁اکنش	-6031
▁کایت	-6032
▁PD	-6033
▁ss	-6034
▁ton	-6035
▁انط	-6036
▁تفک	-6037
▁شیخ	-6038
▁فدا	-6039
▁هلت	-6040
▁Cont	-6041
▁راهن	-6042
▁منتق	-6043
▁نگری	-6044
▁ینتر	-6045
▁لیستی	-6046
ild	-6047
ous	-6048
▁55	-6049
▁ID	-6050
▁ST	-6051
▁Sm	-6052
▁رچ	-6053
▁لج	-6054
▁هٔ	-6055
▁اشه	-6056
▁انل	-6057
▁حتا	-6058
▁عفو	-6059
▁فلج	-6060
▁مسو	-6061
▁واک	-6062
▁پور	-6063
▁اندی	-6064
▁ودتا	-6065
IN	-6066
▁@	-6067
act	-6068
▁CP	-6069
▁DS	-6070
▁Pe	-6071
▁So	-6072
▁mo	-6073
▁رص	-6074
▁وص	-6075
▁min	-6076
▁آسم	-6077
▁انو	-6078
▁سیت	-6079
▁نزو	-6080
▁هیم	-6081
▁یگا	-6082
▁دومی	-6083
▁نایت	-6084
▁اندرو	-6085
▁هایتا	-6086
▁33	-6087
▁34	-6088
▁120	-6089
▁nes	-6090
▁بلد	-6091
▁دلش	-6092
▁صحت	-6093
▁صله	-6094
▁Tech	-6095
▁دادگ	-6096
▁طلای	-6097
ON	-6098
▁5-	-6099
▁Is	-6100
▁ell	-6101
▁ختص	-6102
▁لاو	-6103
▁ویش	-6104
▁استا	-6105
▁اشته	-6106
▁دانا	-6107
▁لاری	-6108
▁یانی	-6109
▁هموار	-6110
RI	-6111
oot	-6112
▁جش	-6113
▁دپ	-6114
▁كم	-6115
▁Cre	-6116
▁ردم	-6117
▁شتی	-6118
▁همو	-6119
▁ومو	-6120
▁پخت	-6121
▁اورا	-6122
▁قامت	-6123
▁کامپ	-6124
▁گفتی	-6125
▁مرزها	-6126
▁!!	-6127
▁Or	-6128
▁SM	-6129
▁بص	-6130
▁زه	-6131
▁عش	-6132
▁nge	-6133
▁احد	-6134
▁ارس	-6135
▁زشت	-6136
▁عرف	-6137
▁ناد	-6138
▁نيز	-6139
▁پات	-6140
▁فرین	-6141
▁95	-6142
▁ine	-6143
▁ory	-6144
▁ral	-6145
▁سقط	-6146
▁وزش	-6147
▁وسع	-6148
▁ress	-6149
▁ادرش	-6150
▁رگان	-6151
▁زاره	-6152
▁ولیت	-6153
▁یتزا	-6154
▁مشاهد	-6155
BC	-6156
دو	-6157
oto	-6158
▁IN	-6159
▁ut	-6160
▁Mon	-6161
▁Rob	-6162
▁iew	-6163
▁way	-6164
▁اشق	-6165
▁امب	-6166
▁زنا	-6167
▁سول	-6168
▁شات	-6169
▁شرف	-6170
▁نجه	-6171
▁یتس	-6172
▁یدر	-6173
▁سایل	-6174
▁وریس	-6175
ase	-6176
oup	-6177
ینو	-6178
▁At	-6179
▁Ha	-6180
▁op	-6181
▁sy	-6182
▁بره	-6183
▁تپه	-6184
▁عطر	-6185
▁ویق	-6186
▁Open	-6187
▁book	-6188
▁roid	-6189
▁فاصل	-6190
▁یرین	-6191
▁Cloud	-6192
▁افتند	-6193
▁ha	-6194
▁qu	-6195
▁ty	-6196
▁دق	-6197
▁سع	-6198
▁lic	-6199
▁zon	-6200
▁الج	-6201
▁راض	-6202
▁شنه	-6203
▁طوف	-6204
▁قله	-6205
▁قهر	-6206
▁لکس	-6207
▁ناو	-6208
▁نگو	-6209
▁ورز	-6210
▁کتر	-6211
▁یزش	-6212
▁۱۵۰	-6213
▁Cent	-6214
▁ارتا	-6215
▁ردار	-6216
▁لاین	-6217
▁DV	-6218
▁يك	-6219
▁Spe	-6220
▁sta	-6221
▁ual	-6222
▁ارگ	-6223
▁ازو	-6224
▁حلی	-6225
▁عطا	-6226
▁بارز	-6227
▁تبال	-6228
▁دادی	-6229
▁ناختی	-6230
TC	-6231
▁(3	-6232
▁ad	-6233
▁bl	-6234
▁بج	-6235
▁Ass	-6236
▁ber	-6237
▁con	-6238
▁ney	-6239
▁org	-6240
▁اکر	-6241
▁فتح	-6242
▁مرج	-6243
▁وگر	-6244
▁ویس	-6245
▁یوه	-6246
▁۳۰۰	-6247
ru	-6248
▁↑	-6249
▁SD	-6250
▁sm	-6251
▁xy	-6252
ound	-6253
▁بهش	-6254
▁دتر	-6255
▁ذات	-6256
▁رئی	-6257
▁راو	-6258
▁هرم	-6259
▁یمه	-6260
▁سیست	-6261
▁وردگ	-6262
▁متحده	-6263
IM	-6264
▁38	-6265
▁85	-6266
▁co	-6267
▁pl	-6268
▁لئ	-6269
▁مّ	-6270
▁Sup	-6271
▁ies	-6272
▁بتا	-6273
▁ذار	-6274
▁ومن	-6275
▁وکر	-6276
▁ینس	-6277
▁John	-6278
▁بلاگ	-6279
كر	-6280
▁→	-6281
ach	-6282
unt	-6283
uro	-6284
▁1)	-6285
▁2)	-6286
▁Un	-6287
▁ربست	-6288
▁عددی	-6289
▁پوشا	-6290
▁اوران	-6291
▁رترین	-6292
▁یخواه	-6293
جع	-6294
▁٧	-6295
▁--	-6296
▁39	-6297
▁LL	-6298
▁Stu	-6299
▁رسن	-6300
▁رما	-6301
▁فین	-6302
▁لتر	-6303
▁همت	-6304
▁کست	-6305
▁یتم	-6306
▁سیری	-6307
▁لیبر	-6308
▁نیکی	-6309
▁وردی	-6310
▁مراجع	-6311
▁نهاده	-6312
▁Fl	-6313
▁IV	-6314
▁ظت	-6315
▁۶۵	-6316
▁mic	-6317
▁ابن	-6318
▁بیس	-6319
▁قبر	-6320
▁لگر	-6321
▁لید	-6322
▁نشا	-6323
▁وفی	-6324
▁پوس	-6325
▁Next	-6326
▁اسلا	-6327
▁اوند	-6328
▁اینست	-6329
ep	-6330
ise	-6331
▁Ab	-6332
▁IM	-6333
▁go	-6334
▁اظ	-6335
▁لگ	-6336
▁Acc	-6337
▁ver	-6338
▁اتش	-6339
▁حول	-6340
▁شرم	-6341
▁لیپ	-6342
▁نسر	-6343
▁ویک	-6344
▁Busi	-6345
▁form	-6346
▁رگاه	-6347
amp	-6348
itt	-6349
▁رل	-6350
▁Bra	-6351
▁Vis	-6352
▁tiv	-6353
▁اوب	-6354
▁رپر	-6355
▁سوق	-6356
▁لله	-6357
▁مرت	-6358
▁هرا	-6359
▁Mana	-6360
▁ادبی	-6361
▁تناس	-6362
▁مدرس	-6363
▁هانی	-6364
▁هیپو	-6365
CA	-6366
EL	-6367
EM	-6368
de	-6369
ong	-6370
▁Da	-6371
▁MA	-6372
▁سح	-6373
▁Mus	-6374
▁Not	-6375
▁خوا	-6376
▁شگر	-6377
▁ندم	-6378
▁نوم	-6379
▁ولد	-6380
▁Star	-6381
▁بیاب	-6382
▁فاعی	-6383
▁فولا	-6384
▁هارد	-6385
▁ومان	-6386
▁کلین	-6387
▁گارا	-6388
▁یونا	-6389
ینز	-6390
▁44	-6391
▁AI	-6392
▁AT	-6393
▁RS	-6394
▁Ri	-6395
▁ئد	-6396
▁لخ	-6397
ouse	-6398
▁600	-6399
▁Cap	-6400
▁Gre	-6401
▁ser	-6402
▁ریپ	-6403
▁سحر	-6404
▁عرق	-6405
▁مقص	-6406
▁Data	-6407
▁دمات	-6408
▁رؤیا	-6409
▁وستان	-6410
que	-6411
▁5.	-6412
▁PP	-6413
▁PR	-6414
▁ow	-6415
ount	-6416
▁FDA	-6417
▁PHP	-6418
▁Sta	-6419
▁شیا	-6420
▁منم	-6421
▁وما	-6422
▁یکم	-6423
▁ious	-6424
▁عفون	-6425
▁والد	-6426
▁وضعی	-6427
CD	-6428
go	-6429
oli	-6430
▁ti	-6431
▁ضم	-6432
▁وآ	-6433
▁end	-6434
▁بلی	-6435
▁سطی	-6436
▁سفت	-6437
▁صدق	-6438
▁ظلم	-6439
▁عیب	-6440
▁کلر	-6441
▁یاس	-6442
▁ارتر	-6443
▁انشا	-6444
▁سعود	-6445
▁ورید	-6446
▁کراسی	-6447
▁Fr	-6448
▁SP	-6449
▁pe	-6450
▁شك	-6451
▁نض	-6452
▁Bro	-6453
▁Day	-6454
▁ادم	-6455
▁انق	-6456
▁رفی	-6457
▁مبی	-6458
▁ولر	-6459
▁افرا	-6460
▁فران	-6461
▁لمات	-6462
▁متنا	-6463
IF	-6464
ضم	-6465
▁إ	-6466
▁Si	-6467
▁۲٫	-6468
▁۷۵	-6469
▁Ana	-6470
▁GPS	-6471
▁est	-6472
▁ذیل	-6473
▁سلو	-6474
▁هضم	-6475
▁پین	-6476
▁Free	-6477
▁Post	-6478
▁آمری	-6479
▁باها	-6480
▁هایت	-6481
▁Press	-6482
▁نداری	-6483
▁وربین	-6484
ai	-6485
ca	-6486
▁ٌ	-6487
▁NG	-6488
▁Sw	-6489
▁am	-6490
▁ol	-6491
▁ضه	-6492
▁Dev	-6493
▁Fin	-6494
▁Pow	-6495
▁اهی	-6496
▁قصر	-6497
▁نتر	-6498
▁نیش	-6499
▁Amer	-6500
▁Auto	-6501
▁آلود	-6502
▁الای	-6503
▁ایان	-6504
▁ریاض	-6505
▁تقریب	-6506
▁یدهای	-6507
os	-6508
ava	-6509
end	-6510
▁43	-6511
▁ff	-6512
▁ضل	-6513
▁۳۶	-6514
▁oin	-6515
▁ort	-6516
▁الر	-6517
▁جزی	-6518
▁جلد	-6519
▁قشه	-6520
▁لغت	-6521
▁مرو	-6522
▁وشم	-6523
▁چیه	-6524
▁ژنو	-6525
▁Book	-6526
▁Dead	-6527
▁Prev	-6528
▁Syst	-6529
▁دوبار	-6530
▁فرادی	-6531
Tu	-6532
▁٤	-6533
▁▪	-6534
▁VR	-6535
▁du	-6536
جهیز	-6537
▁Art	-6538
▁CSS	-6539
▁تره	-6540
▁هرج	-6541
▁ADHD	-6542
▁Blue	-6543
▁back	-6544
▁ware	-6545
▁اختر	-6546
▁ریال	-6547
▁ستاد	-6548
▁پروژ	-6549
▁تجهیز	-6550
CC	-6551
vi	-6552
ww	-6553
لر	-6554
▁Up	-6555
▁va	-6556
▁Bre	-6557
▁Che	-6558
▁Cra	-6559
▁Per	-6560
▁جاه	-6561
▁دوپ	-6562
▁ردو	-6563
▁رزا	-6564
▁زیس	-6565
▁ناف	-6566
▁نری	-6567
▁هما	-6568
▁هیر	-6569
▁یاف	-6570
▁Tran	-6571
▁ختار	-6572
▁داور	-6573
▁دیان	-6574
▁رمند	-6575
▁شابه	-6576
▁اهایی	-6577
▁اینتر	-6578
ud	-6579
ide	-6580
▁CB	-6581
▁CV	-6582
▁TH	-6583
▁ip	-6584
▁هب	-6585
▁هي	-6586
▁۱٫	-6587
▁۲۹	-6588
▁(1)	-6589
▁Sam	-6590
▁ric	-6591
▁tic	-6592
▁رکه	-6593
▁سپر	-6594
▁شاخ	-6595
▁نول	-6596
▁هرک	-6597
▁یوس	-6598
▁Back	-6599
▁Gala	-6600
▁ریعت	-6601
▁مایک	-6602
▁مرات	-6603
▁هادی	-6604
▁کترون	-6605
OR	-6606
ett	-6607
▁42	-6608
▁NF	-6609
▁cl	-6610
▁ec	-6611
▁شح	-6612
▁250	-6613
▁CRM	-6614
▁LED	-6615
▁www	-6616
▁بهت	-6617
▁رنا	-6618
▁سلا	-6619
▁ماک	-6620
▁ناظ	-6621
▁ویو	-6622
▁آزما	-6623
▁ابها	-6624
▁ارتم	-6625
▁بلیت	-6626
▁دستم	-6627
▁رآور	-6628
▁رافی	-6629
▁رهای	-6630
▁ریده	-6631
▁زاین	-6632
▁ستید	-6633
▁ویید	-6634
▁گانی	-6635
▁برایت	-6636
▁نیستی	-6637
▁‫	-6638
ant	-6639
ele	-6640
ump	-6641
▁51	-6642
▁64	-6643
▁UN	-6644
▁Us	-6645
▁ظه	-6646
▁API	-6647
▁Out	-6648
▁خند	-6649
▁دیم	-6650
▁ذره	-6651
▁ربط	-6652
▁شرک	-6653
▁فلش	-6654
▁موع	-6655
▁King	-6656
▁دیدی	-6657
▁فاهی	-6658
▁نگین	-6659
▁وزان	-6660
▁پلاس	-6661
▁چندی	-6662
▁گردی	-6663
IA	-6664
oT	-6665
ist	-6666
▁CA	-6667
▁Vo	-6668
▁cy	-6669
▁il	-6670
▁Cor	-6671
▁ائت	-6672
▁تحا	-6673
▁تکا	-6674
▁حیح	-6675
▁کوا	-6676
▁اروی	-6677
▁تبار	-6678
▁ههای	-6679
▁یاور	-6680
▁توجهی	-6681
▁سیدند	-6682
DP	-6683
نس	-6684
▁‍	-6685
▁←	-6686
one	-6687
▁8.	-6688
▁Fe	-6689
▁GM	-6690
▁Dav	-6691
▁ner	-6692
▁جرج	-6693
▁فنا	-6694
▁قیه	-6695
▁مخف	-6696
▁نها	-6697
▁همن	-6698
▁ژان	-6699
▁Coll	-6700
▁ارون	-6701
▁ارکت	-6702
▁رعون	-6703
igh	-6704
ory	-6705
▁..	-6706
▁6.	-6707
▁99	-6708
▁آه	-6709
▁Col	-6710
▁Ent	-6711
▁che	-6712
▁باط	-6713
▁رشت	-6714
▁سرت	-6715
▁مکن	-6716
▁نهم	-6717
▁وزف	-6718
▁یرا	-6719
▁Live	-6720
▁دارن	-6721
▁عمال	-6722
▁ونده	-6723
▁یستاد	-6724
EA	-6725
OC	-6726
box	-6727
▁))	-6728
▁37	-6729
▁6-	-6730
▁AL	-6731
▁CH	-6732
▁Tw	-6733
▁۳۲	-6734
▁آلت	-6735
▁باف	-6736
▁ذوب	-6737
▁رجا	-6738
▁رنت	-6739
▁محا	-6740
▁هیا	-6741
▁کشش	-6742
▁کنت	-6743
▁اعما	-6744
▁انات	-6745
▁راتو	-6746
▁ردگی	-6747
▁ستور	-6748
▁پیرو	-6749
▁ندهای	-6750
صا	-6751
eld	-6752
oom	-6753
▁41	-6754
▁47	-6755
▁NS	-6756
▁غی	-6757
▁Bar	-6758
▁Ber	-6759
▁IoT	-6760
▁Rep	-6761
▁Vie	-6762
▁cha	-6763
▁day	-6764
▁اقت	-6765
▁راگ	-6766
▁کنش	-6767
▁کهن	-6768
▁گله	-6769
▁Xbox	-6770
▁word	-6771
▁ستعد	-6772
▁صولا	-6773
▁علما	-6774
▁لندی	-6775
▁نوان	-6776
▁Group	-6777
▁ارویی	-6778
▁فتاده	-6779
ph	-6780
wn	-6781
ين	-6782
▁IR	-6783
▁جف	-6784
▁خف	-6785
▁rol	-6786
▁اوک	-6787
▁حجت	-6788
▁خوک	-6789
▁شدی	-6790
▁پید	-6791
▁یگو	-6792
▁اریک	-6793
▁ازان	-6794
▁استف	-6795
▁بروی	-6796
▁طابق	-6797
▁کروس	-6798
▁اینده	-6799
▁تفاقا	-6800
وو	-6801
▁٥	-6802
▁72	-6803
▁:)	-6804
▁MP	-6805
▁sa	-6806
▁زگ	-6807
▁bil	-6808
▁ger	-6809
▁آیی	-6810
▁بپر	-6811
▁خصی	-6812
▁خیم	-6813
▁فاق	-6814
▁واج	-6815
▁یبت	-6816
▁یوت	-6817
▁۴۰۰	-6818
▁Link	-6819
▁Sema	-6820
▁ارها	-6821
▁رزمی	-6822
▁فونت	-6823
▁نطور	-6824
▁واست	-6825
▁یاید	-6826
▁اختصا	-6827
▁اهرات	-6828
▁اهکار	-6829
▁بازدا	-6830
▁رادار	-6831
▁میلاد	-6832
ea	-6833
▁Edi	-6834
▁Min	-6835
▁Pay	-6836
▁tra	-6837
▁تاخ	-6838
▁تید	-6839
▁پرش	-6840
▁یدی	-6841
▁Comm	-6842
▁Desi	-6843
▁stra	-6844
▁امنه	-6845
▁لیتی	-6846
▁موسس	-6847
▁گلیس	-6848
▁ارهای	-6849
ui	-6850
ype	-6851
▁NA	-6852
▁Dri	-6853
▁Geo	-6854
▁Har	-6855
▁IBM	-6856
▁MIT	-6857
▁Rev	-6858
▁dio	-6859
▁mon	-6860
▁nch	-6861
▁آلن	-6862
▁آله	-6863
▁بجز	-6864
▁بدو	-6865
▁تمن	-6866
▁ثمر	-6867
▁حسب	-6868
▁حما	-6869
▁خیس	-6870
▁شیب	-6871
▁غات	-6872
▁لقب	-6873
▁یخی	-6874
▁۶۰۰	-6875
▁Call	-6876
▁Face	-6877
▁with	-6878
▁امپر	-6879
▁روتر	-6880
▁عیار	-6881
▁لابی	-6882
▁معما	-6883
▁ینال	-6884
▁موقعی	-6885
QL	-6886
fi	-6887
ld	-6888
up	-6889
ich	-6890
▁7.	-6891
▁EM	-6892
▁RA	-6893
▁si	-6894
▁۳۱	-6895
▁HPV	-6896
▁int	-6897
▁ncy	-6898
▁خرس	-6899
▁داب	-6900
▁سبد	-6901
▁فلا	-6902
▁کبک	-6903
▁یتو	-6904
▁یكی	-6905
▁Life	-6906
▁View	-6907
▁tics	-6908
▁تایی	-6909
▁ردیم	-6910
▁سالا	-6911
▁واهر	-6912
za	-6913
ani	-6914
▁SA	-6915
▁TR	-6916
▁UC	-6917
▁لش	-6918
▁Ama	-6919
▁per	-6920
▁res	-6921
▁اکی	-6922
▁توش	-6923
▁طرن	-6924
▁نسی	-6925
▁نشت	-6926
▁نفی	-6927
▁هنی	-6928
▁وئن	-6929
▁يان	-6930
▁کتک	-6931
▁Gene	-6932
▁Scie	-6933
▁post	-6934
▁تران	-6935
▁تقال	-6936
▁زادا	-6937
▁ورها	-6938
▁کاره	-6939
▁ردازی	-6940
OL	-6941
نت	-6942
ير	-6943
igi	-6944
▁0.	-6945
▁49	-6946
▁DC	-6947
▁It	-6948
▁ga	-6949
▁mg	-6950
▁Ver	-6951
▁Wal	-6952
▁ابز	-6953
▁اکا	-6954
▁سلم	-6955
▁سکس	-6956
▁طنز	-6957
▁هاى	-6958
▁ومت	-6959
▁کبر	-6960
▁گلف	-6961
▁Bitc	-6962
▁اختن	-6963
▁انتا	-6964
▁بستگ	-6965
▁دریچ	-6966
▁شیری	-6967
▁وهله	-6968
▁AN	-6969
▁CN	-6970
▁Mc	-6971
▁tr	-6972
▁wi	-6973
▁ئم	-6974
▁حظ	-6975
▁Cry	-6976
▁NET	-6977
▁Sea	-6978
▁ئول	-6979
▁ارج	-6980
▁اعی	-6981
▁ترش	-6982
▁ضان	-6983
▁لکو	-6984
▁وطن	-6985
▁وعد	-6986
▁کنن	-6987
▁انکا	-6988
▁تاسف	-6989
▁حصول	-6990
▁مونی	-6991
▁نتیج	-6992
▁وانا	-6993
▁ونین	-6994
نر	-6995
ali	-6996
▁BM	-6997
▁LG	-6998
▁UV	-6999
▁bu	-7000
▁ئن	-7001
▁خز	-7002
▁زظ	-7003
▁Bri	-7004
▁DNS	-7005
▁Dra	-7006
▁Glo	-7007
▁Lib	-7008
▁SQL	-7009
▁درت	-7010
▁دوس	-7011
▁رزش	-7012
▁رعی	-7013
▁رلی	-7014
▁سوپ	-7015
▁معه	-7016
▁کفر	-7017
▁Good	-7018
▁bile	-7019
▁ارید	-7020
▁رتبا	-7021
▁روای	-7022
▁ناهن	-7023
▁کیفی	-7024
▁David	-7025
▁میکنی	-7026
EN	-7027
ver	-7028
▁Cy	-7029
▁Ge	-7030
▁ev	-7031
▁tu	-7032
▁آف	-7033
▁حش	-7034
▁کج	-7035
▁۳۴	-7036
▁۸۵	-7037
▁bal	-7038
▁lay	-7039
▁ron	-7040
▁تله	-7041
▁ریق	-7042
▁عاش	-7043
▁علق	-7044
▁فری	-7045
▁لثه	-7046
▁لحن	-7047
▁موف	-7048
▁نجم	-7049
▁کمب	-7050
▁Mast	-7051
▁hool	-7052
▁ript	-7053
▁ادار	-7054
▁ادای	-7055
▁ارند	-7056
▁افزو	-7057
▁رآمد	-7058
▁ناصر	-7059
▁هستن	-7060
▁پرور	-7061
▁کراس	-7062
▁کسان	-7063
BS	-7064
gh	-7065
پو	-7066
▁56	-7067
▁CC	-7068
▁RO	-7069
▁dy	-7070
▁دۀ	-7071
▁لك	-7072
▁1.5	-7073
▁Cam	-7074
▁Nat	-7075
▁SSL	-7076
▁Son	-7077
▁des	-7078
▁ئون	-7079
▁بفر	-7080
▁داگ	-7081
▁ستد	-7082
▁لوی	-7083
▁نبی	-7084
▁یاز	-7085
▁یبو	-7086
▁Chro	-7087
▁استن	-7088
▁التی	-7089
▁ترها	-7090
▁دیون	-7091
▁وهای	-7092
▁Photo	-7093
12	-7094
di	-7095
gg	-7096
اما	-7097
▁Ba	-7098
▁CT	-7099
▁GP	-7100
▁۵۵	-7101
▁Fra	-7102
▁III	-7103
▁cap	-7104
▁dia	-7105
▁آرا	-7106
▁ادل	-7107
▁بوم	-7108
▁رضه	-7109
▁رچه	-7110
▁فكر	-7111
▁کسا	-7112
▁HTTP	-7113
▁Plus	-7114
▁fice	-7115
▁اتان	-7116
▁اسپا	-7117
▁افته	-7118
▁امرو	-7119
▁زینو	-7120
▁ندان	-7121
▁واند	-7122
▁پارچ	-7123
▁موفقی	-7124
▁پیمای	-7125
EG	-7126
HA	-7127
يا	-7128
▁٦	-7129
arl	-7130
▁46	-7131
▁54	-7132
▁63	-7133
▁HS	-7134
▁TV	-7135
▁ka	-7136
▁pa	-7137
▁تي	-7138
▁دِ	-7139
▁PDF	-7140
▁دنش	-7141
▁سست	-7142
▁لاق	-7143
▁وتی	-7144
▁What	-7145
▁iPho	-7146
▁اقبت	-7147
▁نامن	-7148
▁ناها	-7149
▁یتون	-7150
▁نشینی	-7151
▁یالیس	-7152
EF	-7153
LA	-7154
وک	-7155
ari	-7156
▁BP	-7157
▁CF	-7158
▁EB	-7159
▁GS	-7160
▁Je	-7161
▁mb	-7162
▁pt	-7163
▁ya	-7164
▁700	-7165
▁Key	-7166
▁Sol	-7167
▁توا	-7168
▁درن	-7169
▁رگش	-7170
▁سپا	-7171
▁لائ	-7172
▁ملو	-7173
▁Fall	-7174
▁انجا	-7175
▁دخان	-7176
▁ویان	-7177
▁پرسی	-7178
▁پوشی	-7179
DL	-7180
EP	-7181
TE	-7182
پر	-7183
ale	-7184
▁Es	-7185
▁ll	-7186
▁(2)	-7187
▁Cle	-7188
▁Pet	-7189
▁Sha	-7190
▁Sim	-7191
▁Soc	-7192
▁Tom	-7193
▁app	-7194
▁gen	-7195
▁بتد	-7196
▁بشه	-7197
▁بلک	-7198
▁تیپ	-7199
▁رفا	-7200
▁شوق	-7201
▁شیل	-7202
▁لبو	-7203
▁مگه	-7204
▁هکر	-7205
▁وته	-7206
▁وزه	-7207
▁یزن	-7208
▁ارزی	-7209
▁ازها	-7210
▁ایتی	-7211
▁رزان	-7212
▁لئون	-7213
▁ویرا	-7214
▁هیپنو	-7215
أت	-7216
تن	-7217
صت	-7218
ish	-7219
▁Aw	-7220
▁id	-7221
▁ke	-7222
▁po	-7223
▁».	-7224
▁۳۷	-7225
▁۹۹	-7226
▁Cro	-7227
▁Ima	-7228
▁dis	-7229
▁dom	-7230
▁ier	-7231
▁red	-7232
▁الب	-7233
▁توم	-7234
▁خلع	-7235
▁داق	-7236
▁رائ	-7237
▁ردد	-7238
▁شصت	-7239
▁شیء	-7240
▁عزم	-7241
▁قات	-7242
▁Read	-7243
▁Stra	-7244
▁تالی	-7245
▁فرنی	-7246
▁ندتر	-7247
▁والا	-7248
▁الیان	-7249
▁هادها	-7250
).	-7251
ib	-7252
sy	-7253
arm	-7254
arn	-7255
ask	-7256
ond	-7257
ush	-7258
انو	-7259
▁ضط	-7260
▁فج	-7261
ideo	-7262
▁Mer	-7263
▁Sur	-7264
▁Tri	-7265
▁ess	-7266
▁tch	-7267
▁wor	-7268
▁اسو	-7269
▁انف	-7270
▁اوه	-7271
▁بیک	-7272
▁جیل	-7273
▁دمن	-7274
▁زرق	-7275
▁صفت	-7276
▁صیت	-7277
▁طرد	-7278
▁عجب	-7279
▁قرب	-7280
▁كسی	-7281
▁مزم	-7282
▁هیج	-7283
▁گور	-7284
▁Batt	-7285
▁Java	-7286
▁comp	-7287
▁ical	-7288
▁ریسم	-7289
▁شتند	-7290
▁وانگ	-7291
▁گرمی	-7292
▁Insta	-7293
▁شتاین	-7294
AL	-7295
US	-7296
▁€	-7297
ana	-7298
ult	-7299
▁52	-7300
▁66	-7301
▁Ap	-7302
▁BS	-7303
▁Ca	-7304
▁Ir	-7305
▁RF	-7306
▁ba	-7307
▁fl	-7308
▁؟!	-7309
▁زت	-7310
▁كس	-7311
▁نط	-7312
▁360	-7313
▁How	-7314
▁Inc	-7315
▁bur	-7316
▁gon	-7317
▁key	-7318
▁ازد	-7319
▁قفس	-7320
▁مشی	-7321
▁وشن	-7322
▁چاه	-7323
▁کیش	-7324
▁۲۵۰	-7325
▁File	-7326
▁High	-7327
▁Work	-7328
▁ular	-7329
▁ارسا	-7330
▁بارد	-7331
▁بخور	-7332
▁راتی	-7333
▁ندیش	-7334
▁نگور	-7335
▁ومیت	-7336
▁یزان	-7337
EE	-7338
LR	-7339
يد	-7340
چی	-7341
▁((	-7342
▁Av	-7343
▁Dy	-7344
▁ir	-7345
▁ky	-7346
▁mm	-7347
▁wh	-7348
▁آخ	-7349
▁۴۸	-7350
▁۶۴	-7351
▁Bio	-7352
▁Ele	-7353
▁GDP	-7354
▁تئو	-7355
▁تحر	-7356
▁ردی	-7357
▁سرع	-7358
▁سرگ	-7359
▁سلب	-7360
▁طین	-7361
▁فضل	-7362
▁مضا	-7363
▁وپا	-7364
▁چنگ	-7365
▁کتا	-7366
▁کیس	-7367
▁یفر	-7368
▁Arch	-7369
▁Euro	-7370
▁Gold	-7371
▁West	-7372
▁nolo	-7373
▁ادرس	-7374
▁امله	-7375
▁ردین	-7376
▁رستی	-7377
▁مینه	-7378
▁وربا	-7379
▁Smart	-7380
▁بگیری	-7381
▁گاران	-7382
10	-7383
MA	-7384
VC	-7385
ili	-7386
umb	-7387
ure	-7388
ویی	-7389
▁57	-7390
▁NO	-7391
▁Ti	-7392
▁io	-7393
▁os	-7394
▁ذا	-7395
▁God	-7396
▁Hua	-7397
▁Sen	-7398
▁Tur	-7399
▁احب	-7400
▁ازا	-7401
▁تأث	-7402
▁خوی	-7403
▁رفر	-7404
▁طرق	-7405
▁كمك	-7406
▁هها	-7407
▁Digi	-7408
▁Love	-7409
▁face	-7410
▁mark	-7411
▁رشان	-7412
▁هیأت	-7413
▁ورست	-7414
▁اترین	-7415
LS	-7416
fo	-7417
ws	-7418
ade	-7419
ung	-7420
▁).	-7421
▁Em	-7422
▁Er	-7423
▁JS	-7424
▁SC	-7425
▁Wa	-7426
▁au	-7427
▁iz	-7428
▁nb	-7429
▁ny	-7430
▁pp	-7431
▁بق	-7432
▁ژل	-7433
mail	-7434
▁Ang	-7435
▁Ext	-7436
▁Mod	-7437
▁Nor	-7438
▁Pal	-7439
▁She	-7440
▁XML	-7441
▁bit	-7442
▁der	-7443
▁gue	-7444
▁you	-7445
▁آلی	-7446
▁تگا	-7447
▁رتا	-7448
▁شای	-7449
▁فاد	-7450
▁قاد	-7451
▁نبه	-7452
▁نسا	-7453
▁نوح	-7454
▁ورق	-7455
▁Part	-7456
▁ارکر	-7457
▁انوس	-7458
▁رینا	-7459
▁Media	-7460
▁ببینی	-7461
ka	-7462
ki	-7463
ela	-7464
iss	-7465
oly	-7466
▁96	-7467
▁BI	-7468
▁ER	-7469
▁Ke	-7470
▁om	-7471
▁ue	-7472
▁wa	-7473
▁صا	-7474
▁۳٫	-7475
▁۳۸	-7476
▁Chi	-7477
▁Don	-7478
▁Hon	-7479
▁Sou	-7480
▁ley	-7481
▁تعا	-7482
▁جعل	-7483
▁نشو	-7484
▁ولز	-7485
▁وها	-7486
▁ایای	-7487
▁سانس	-7488
▁وزرا	-7489
▁Block	-7490
▁State	-7491
▁Stree	-7492
▁نماین	-7493
OT	-7494
hi	-7495
yle	-7496
▁7-	-7497
▁97	-7498
▁IF	-7499
▁OL	-7500
▁ON	-7501
▁Ob	-7502
▁PL	-7503
▁fe	-7504
▁gr	-7505
▁ko	-7506
▁عظ	-7507
▁فد	-7508
▁۴۲	-7509
▁!!!	-7510
▁Cha	-7511
▁Max	-7512
▁USD	-7513
▁bot	-7514
▁box	-7515
▁gin	-7516
▁wei	-7517
▁اخر	-7518
▁بدم	-7519
▁تدل	-7520
▁جره	-7521
▁خفه	-7522
▁دلق	-7523
▁راي	-7524
▁رلو	-7525
▁سوگ	-7526
▁شتا	-7527
▁مکه	-7528
▁همس	-7529
▁گیم	-7530
▁Card	-7531
▁Rock	-7532
▁ures	-7533
▁ward	-7534
▁اسان	-7535
▁راید	-7536
▁YouTu	-7537
▁رنگار	-7538
fa	-7539
no	-7540
TPS	-7541
und	-7542
▁(4	-7543
▁2:	-7544
▁GT	-7545
▁IU	-7546
▁MC	-7547
▁TC	-7548
▁ht	-7549
▁بط	-7550
▁طل	-7551
▁800	-7552
▁Ben	-7553
▁Eth	-7554
▁Fri	-7555
▁Imp	-7556
▁اهب	-7557
▁بسط	-7558
▁زگی	-7559
▁ستث	-7560
▁ضلا	-7561
▁قشر	-7562
▁نگا	-7563
▁هلو	-7564
▁۸۰۰	-7565
▁Park	-7566
▁Real	-7567
▁ازند	-7568
▁اورم	-7569
▁خانو	-7570
▁دروس	-7571
▁دلقک	-7572
▁دودی	-7573
▁دکار	-7574
▁رحیم	-7575
▁نتیک	-7576
▁همچن	-7577
▁ورای	-7578
▁Insti	-7579
▁White	-7580
▁بگویی	-7581
▁رتیزو	-7582
▁ستیون	-7583
▁کلاسی	-7584
ja	-7585
ُر	-7586
ole	-7587
ori	-7588
qua	-7589
▁)،	-7590
▁62	-7591
▁EN	-7592
▁ov	-7593
▁ua	-7594
▁دژ	-7595
▁نِ	-7596
ream	-7597
▁Bur	-7598
▁Ind	-7599
▁Ter	-7600
▁Vir	-7601
▁fli	-7602
▁nda	-7603
▁phy	-7604
▁que	-7605
▁جون	-7606
▁زگش	-7607
▁شکو	-7608
▁لها	-7609
▁نهی	-7610
▁وزد	-7611
▁کاس	-7612
▁Code	-7613
▁Jour	-7614
▁Paul	-7615
▁Port	-7616
▁hine	-7617
▁لادی	-7618
▁لانس	-7619
▁لایی	-7620
▁نتین	-7621
▁Space	-7622
▁board	-7623
▁ریگان	-7624
▁میکنن	-7625
▁وتاکس	-7626
sa	-7627
ict	-7628
oop	-7629
▁(5	-7630
▁8-	-7631
▁ED	-7632
▁FX	-7633
▁Fa	-7634
▁GR	-7635
▁HC	-7636
▁JP	-7637
▁eB	-7638
▁بچ	-7639
▁طم	-7640
▁كر	-7641
▁هت	-7642
▁180	-7643
▁Cli	-7644
▁Dom	-7645
▁Jon	-7646
▁San	-7647
▁Sky	-7648
▁Tal	-7649
▁Way	-7650
▁bar	-7651
▁ege	-7652
▁row	-7653
▁بسا	-7654
▁بکا	-7655
▁ذرت	-7656
▁زان	-7657
▁شمع	-7658
▁صول	-7659
▁عذر	-7660
▁لاش	-7661
▁نشن	-7662
▁هيچ	-7663
▁چیپ	-7664
▁یول	-7665
▁یگی	-7666
▁Dire	-7667
▁Heal	-7668
▁News	-7669
▁Reco	-7670
▁iPad	-7671
▁آزمو	-7672
▁رونا	-7673
▁سانی	-7674
▁قهرم	-7675
▁مایا	-7676
▁کرات	-7677
▁کمیس	-7678
▁یلین	-7679
▁یمنی	-7680
▁Drive	-7681
▁HTTPS	-7682
▁Medic	-7683
▁توشاپ	-7684
▁ریپتو	-7685
▁سابقا	-7686
BI	-7687
▁59	-7688
▁69	-7689
▁AF	-7690
▁CM	-7691
▁DM	-7692
▁WH	-7693
▁نن	-7694
▁۴۴	-7695
yper	-7696
▁CDC	-7697
▁Fan	-7698
▁Hub	-7699
▁Sun	-7700
▁php	-7701
▁pri	-7702
▁ret	-7703
▁آلا	-7704
▁اقه	-7705
▁بتن	-7706
▁بزا	-7707
▁تخر	-7708
▁توب	-7709
▁توز	-7710
▁دهۀ	-7711
▁رمو	-7712
▁صدد	-7713
▁عدی	-7714
▁لتا	-7715
▁نزل	-7716
▁نمو	-7717
▁نوت	-7718
▁نکه	-7719
▁وشی	-7720
▁وصف	-7721
▁کما	-7722
▁گول	-7723
▁۱۲۰	-7724
▁Dark	-7725
▁With	-7726
▁load	-7727
▁ارشا	-7728
▁لانه	-7729
▁مبنا	-7730
▁نقاش	-7731
▁ودگی	-7732
▁گواه	-7733
AA	-7734
ll	-7735
lt	-7736
orn	-7737
لیک	-7738
▁2،	-7739
▁93	-7740
▁Ko	-7741
▁Sn	-7742
▁Yo	-7743
▁ru	-7744
▁ژه	-7745
▁یۀ	-7746
▁۴۷	-7747
▁۹۵	-7748
irst	-7749
▁(3)	-7750
▁2.0	-7751
▁Big	-7752
▁ICO	-7753
▁LDL	-7754
▁Men	-7755
▁NAS	-7756
▁cia	-7757
▁dex	-7758
▁nci	-7759
▁اپو	-7760
▁توت	-7761
▁دلت	-7762
▁راع	-7763
▁رهی	-7764
▁ستو	-7765
▁نرو	-7766
▁ودم	-7767
▁کتو	-7768
▁کسر	-7769
▁کوی	-7770
▁گها	-7771
▁یگه	-7772
▁Fire	-7773
▁Tool	-7774
▁flix	-7775
▁ount	-7776
▁بارا	-7777
▁بالی	-7778
▁بایل	-7779
▁رارت	-7780
▁ربار	-7781
▁فرات	-7782
▁لوتن	-7783
▁لیدی	-7784
▁لیکس	-7785
▁هندس	-7786
▁پروا	-7787
▁کالت	-7788
▁یمون	-7789
▁ینوس	-7790
▁House	-7791
▁برنام	-7792
▁تورها	-7793
▁جوانا	-7794
ئه	-7795
ilm	-7796
راس	-7797
ینس	-7798
▁4)	-7799
▁77	-7800
▁92	-7801
▁98	-7802
▁>>	-7803
▁BC	-7804
▁Lu	-7805
▁SU	-7806
▁Vi	-7807
▁اك	-7808
▁۳۳	-7809
▁۴٫	-7810
▁CPU	-7811
▁DVD	-7812
▁End	-7813
▁Lab	-7814
▁MRI	-7815
▁Map	-7816
▁May	-7817
▁ire	-7818
▁ium	-7819
▁rge	-7820
▁ria	-7821
▁sis	-7822
▁آوا	-7823
▁خاب	-7824
▁ختن	-7825
▁خیا	-7826
▁دسر	-7827
▁رنی	-7828
▁ساک	-7829
▁فیا	-7830
▁نشی	-7831
▁وسک	-7832
▁یدو	-7833
▁یسک	-7834
▁یپل	-7835
▁Mode	-7836
▁Pers	-7837
▁Will	-7838
▁Your	-7839
▁eBay	-7840
▁ific	-7841
▁آمدی	-7842
▁رهنه	-7843
▁رینگ	-7844
▁یمار	-7845
▁Class	-7846
▁نگونه	-7847
▁ورهای	-7848
bo	-7849
ec	-7850
ek	-7851
zz	-7852
نز	-7853
ِی	-7854
ift	-7855
ئول	-7856
▁1:	-7857
▁EA	-7858
▁EU	-7859
▁HB	-7860
▁MD	-7861
▁TM	-7862
▁ab	-7863
▁طح	-7864
▁Ado	-7865
▁Sub	-7866
▁pho	-7867
▁ung	-7868
▁اسف	-7869
▁بذر	-7870
▁رخت	-7871
▁شهو	-7872
▁صیل	-7873
▁عدل	-7874
▁لاد	-7875
▁لفل	-7876
▁متا	-7877
▁مطب	-7878
▁یشت	-7879
▁Jame	-7880
▁Rich	-7881
▁Soft	-7882
▁اخته	-7883
▁اهها	-7884
▁برگر	-7885
▁تابی	-7886
▁هیرو	-7887
▁وردن	-7888
▁ورین	-7889
▁Video	-7890
▁Watch	-7891
▁chain	-7892
▁دازید	-7893
OM	-7894
ora	-7895
ott	-7896
rom	-7897
xel	-7898
▁78	-7899
▁82	-7900
▁Ag	-7901
▁BA	-7902
▁TS	-7903
▁ot	-7904
▁pr	-7905
▁زع	-7906
▁صم	-7907
▁۷۲	-7908
▁Add	-7909
▁Dro	-7910
▁Hot	-7911
▁Pen	-7912
▁lor	-7913
▁ste	-7914
▁اطی	-7915
▁بين	-7916
▁بگم	-7917
▁جوک	-7918
▁دشت	-7919
▁رجو	-7920
▁شکا	-7921
▁عات	-7922
▁عتی	-7923
▁غده	-7924
▁غلی	-7925
▁فسر	-7926
▁نوه	-7927
▁وآن	-7928
▁یتز	-7929
▁یمر	-7930
▁Bank	-7931
▁Core	-7932
▁Litt	-7933
▁Mini	-7934
▁berg	-7935
▁serv	-7936
▁الیس	-7937
▁توسل	-7938
▁روزن	-7939
▁ریقا	-7940
▁فتند	-7941
▁لیاژ	-7942
▁هارت	-7943
▁وشند	-7944
▁ولتی	-7945
▁پیچی	-7946
▁Point	-7947
▁Store	-7948
LE	-7949
au	-7950
ya	-7951
ze	-7952
ati	-7953
cha	-7954
▁91	-7955
▁DD	-7956
▁Gh	-7957
▁IG	-7958
▁NV	-7959
▁cc	-7960
▁rt	-7961
ouch	-7962
▁Aca	-7963
▁Rad	-7964
▁Tim	-7965
▁حاج	-7966
▁رزم	-7967
▁زدی	-7968
▁فظه	-7969
▁گلی	-7970
▁گیت	-7971
▁یحی	-7972
▁یرن	-7973
▁Chri	-7974
▁Evil	-7975
▁Just	-7976
▁Note	-7977
▁Page	-7978
▁Sony	-7979
▁Tele	-7980
▁Type	-7981
▁User	-7982
▁wood	-7983
▁اشید	-7984
▁خودر	-7985
▁راوی	-7986
▁متقا	-7987
▁نترل	-7988
▁گذرا	-7989
▁احترا	-7990
OP	-7991
RS	-7992
dy	-7993
▁®	-7994
irl	-7995
ody	-7996
utt	-7997
الا	-7998
▁(7	-7999
▁.»	-8000
▁53	-8001
▁61	-8002
▁AB	-8003
▁Ho	-8004
▁NP	-8005
▁Py	-8006
▁WW	-8007
▁as	-8008
▁su	-8009
▁ve	-8010
▁پي	-8011
▁۴۳	-8012
▁Vol	-8013
▁all	-8014
▁lla	-8015
▁one	-8016
▁val	-8017
▁آنی	-8018
▁اشا	-8019
▁اوس	-8020
▁ختی	-8021
▁رعا	-8022
▁روج	-8023
▁ریچ	-8024
▁شکس	-8025
▁فزا	-8026
▁لئو	-8027
▁نبر	-8028
▁پهن	-8029
▁یتل	-8030
▁یته	-8031
▁Resi	-8032
▁Spot	-8033
▁ادها	-8034
▁تایل	-8035
▁دوکس	-8036
▁رانت	-8037
▁رهنگ	-8038
▁روتن	-8039
▁نتها	-8040
▁ندین	-8041
▁ومتر	-8042
▁چیده	-8043
▁Resea	-8044
▁Trump	-8045
▁اجران	-8046
▁انستی	-8047
▁شیگان	-8048
▁فروشی	-8049
▁کستان	-8050
DC	-8051
zo	-8052
▁×	-8053
ign	-8054
ird	-8055
▁3)	-8056
▁68	-8057
▁74	-8058
▁79	-8059
▁88	-8060
▁Az	-8061
▁Hy	-8062
▁Ju	-8063
▁Ly	-8064
▁UX	-8065
▁Ub	-8066
▁لژ	-8067
▁۵۲	-8068
arth	-8069
▁365	-8070
▁AMP	-8071
▁BMI	-8072
▁Dia	-8073
▁EPA	-8074
▁Fre	-8075
▁Mid	-8076
▁Mot	-8077
▁Now	-8078
▁Tor	-8079
▁cle	-8080
▁ima	-8081
▁بام	-8082
▁بيش	-8083
▁دیش	-8084
▁دیک	-8085
▁عطف	-8086
▁لگن	-8087
▁نصر	-8088
▁وشا	-8089
▁ولف	-8090
▁کیا	-8091
▁گست	-8092
▁Fort	-8093
▁Onli	-8094
▁Test	-8095
▁cont	-8096
▁read	-8097
▁اسرا	-8098
▁اشند	-8099
▁براه	-8100
▁بیعت	-8101
▁دازد	-8102
▁دوار	-8103
▁فقاز	-8104
▁وسیل	-8105
▁یبرو	-8106
▁ینجا	-8107
▁React	-8108
▁field	-8109
▁ریتیش	-8110
TM	-8111
ci	-8112
ml	-8113
▁°	-8114
▁⁯	-8115
ane	-8116
ilt	-8117
▁67	-8118
▁Hi	-8119
▁Ja	-8120
▁MB	-8121
▁MO	-8122
▁PM	-8123
▁Sl	-8124
▁rd	-8125
▁؟؟	-8126
▁2.5	-8127
▁Del	-8128
▁Dut	-8129
▁Ken	-8130
▁NGC	-8131
▁Pan	-8132
▁can	-8133
▁gic	-8134
▁ous	-8135
▁vis	-8136
▁آرم	-8137
▁اوز	-8138
▁بهر	-8139
▁ثار	-8140
▁دوک	-8141
▁رسه	-8142
▁رضو	-8143
▁ریگ	-8144
▁مجم	-8145
▁مسک	-8146
▁میا	-8147
▁نته	-8148
▁نمى	-8149
▁وئی	-8150
▁پلک	-8151
▁پژو	-8152
▁یفه	-8153
▁Down	-8154
▁stic	-8155
▁اراد	-8156
▁تجار	-8157
▁تینگ	-8158
▁دورا	-8159
▁روتز	-8160
▁رودر	-8161
▁سلیم	-8162
▁قلاب	-8163
▁ندند	-8164
▁نهتن	-8165
▁ورزی	-8166
▁Music	-8167
▁اناما	-8168
▁ایانه	-8169
▁بخوان	-8170
▁وهایو	-8171
▁گسترد	-8172
ئر	-8173
حق	-8174
ert	-8175
▁3:	-8176
▁58	-8177
▁DA	-8178
▁LS	-8179
▁MI	-8180
▁[1	-8181
▁۴۱	-8182
▁Bat	-8183
▁Bay	-8184
▁ERP	-8185
▁Pub	-8186
▁Ult	-8187
▁Wat	-8188
▁fic	-8189
▁nna	-8190
▁ren	-8191
▁اهش	-8192
▁بون	-8193
▁تاً	-8194
▁سیک	-8195
▁عبو	-8196
▁لفی	-8197
▁لكه	-8198
▁مکس	-8199
▁پوچ	-8200
▁ییس	-8201
▁Jack	-8202
▁Mess	-8203
▁York	-8204
▁port	-8205
▁ابدا	-8206
▁دامس	-8207
▁دودو	-8208
▁ریکی	-8209
▁سئول	-8210
▁لکوت	-8211
▁هالو	-8212
▁هانس	-8213
▁یلات	-8214
▁Award	-8215
▁Conne	-8216
▁Journ	-8217
▁Speed	-8218
▁Stand	-8219
▁رتیکو	-8220
EX	-8221
Hz	-8222
TV	-8223
ah	-8224
ji	-8225
rit	-8226
ایا	-8227
▁".	-8228
▁(6	-8229
▁76	-8230
▁AV	-8231
▁By	-8232
▁Gl	-8233
▁HR	-8234
▁Il	-8235
▁SW	-8236
▁js	-8237
▁رِ	-8238
▁هف	-8239
▁160	-8240
▁Are	-8241
▁Bad	-8242
▁CMS	-8243
▁Her	-8244
▁Hum	-8245
▁IEL	-8246
▁LLM	-8247
▁Mat	-8248
▁PPC	-8249
▁Tre	-8250
▁[1]	-8251
▁ius	-8252
▁nta	-8253
▁son	-8254
▁sub	-8255
▁آنِ	-8256
▁آيا	-8257
▁اجت	-8258
▁افه	-8259
▁بدأ	-8260
▁برآ	-8261
▁بسر	-8262
▁بغل	-8263
▁حیه	-8264
▁درز	-8265
▁رتش	-8266
▁شكل	-8267
▁صبا	-8268
▁نید	-8269
▁نیه	-8270
▁هوم	-8271
▁چتر	-8272
▁یبل	-8273
▁یرم	-8274
▁Cana	-8275
▁Last	-8276
▁Wall	-8277
▁base	-8278
▁mini	-8279
▁ural	-8280
▁استی	-8281
▁اکرا	-8282
▁توسع	-8283
▁جایز	-8284
▁دویه	-8285
▁ریزر	-8286
▁ستثن	-8287
▁واین	-8288
▁وسنی	-8289
▁First	-8290
▁Grand	-8291
▁صورتی	-8292
▁میایی	-8293
▁یزانس	-8294
▁یزینس	-8295
أن	-8296
ina	-8297
▁3،	-8298
▁73	-8299
▁AU	-8300
▁EL	-8301
▁GB	-8302
▁NT	-8303
▁TO	-8304
▁ji	-8305
▁za	-8306
ulti	-8307
▁Bel	-8308
▁HDL	-8309
▁HDR	-8310
▁Hel	-8311
▁LCD	-8312
▁RNA	-8313
▁Sil	-8314
▁THE	-8315
▁Val	-8316
▁met	-8317
▁ray	-8318
▁انن	-8319
▁باک	-8320
▁تمی	-8321
▁تیب	-8322
▁شأن	-8323
▁شاپ	-8324
▁طبه	-8325
▁عقد	-8326
▁غدد	-8327
▁غری	-8328
▁فقه	-8329
▁لوط	-8330
▁میس	-8331
▁هاو	-8332
▁وسل	-8333
▁ولن	-8334
▁ونر	-8335
▁وون	-8336
▁پشه	-8337
▁پُر	-8338
▁چان	-8339
▁چرت	-8340
▁۷۰۰	-8341
▁Coin	-8342
▁Full	-8343
▁Pack	-8344
▁Pass	-8345
▁cast	-8346
▁time	-8347
▁very	-8348
▁ابان	-8349
▁اداب	-8350
▁افیا	-8351
▁باکس	-8352
▁بیای	-8353
▁ترال	-8354
▁داما	-8355
▁رشید	-8356
▁ریمه	-8357
▁نزال	-8358
▁Fanta	-8359
▁Hyper	-8360
▁North	-8361
▁ولیان	-8362
DI	-8363
yo	-8364
لد	-8365
hen	-8366
ita	-8367
ارو	-8368
▁ET	-8369
▁OR	-8370
▁ck	-8371
▁gi	-8372
▁پذ	-8373
▁۳۹	-8374
▁۴۶	-8375
▁۵۱	-8376
▁۹۶	-8377
▁140	-8378
▁3.5	-8379
▁ASP	-8380
▁BMW	-8381
▁Emp	-8382
▁ICC	-8383
▁ION	-8384
▁ISP	-8385
▁Law	-8386
▁Loc	-8387
▁Pho	-8388
▁Tag	-8389
▁Top	-8390
▁med	-8391
▁olu	-8392
▁rib	-8393
▁rid	-8394
▁باج	-8395
▁بنز	-8396
▁تأس	-8397
▁تیل	-8398
▁ربی	-8399
▁رنک	-8400
▁ریر	-8401
▁زدم	-8402
▁سده	-8403
▁سوخ	-8404
▁فید	-8405
▁لوس	-8406
▁محب	-8407
▁مپر	-8408
▁نسب	-8409
▁وکت	-8410
▁پيش	-8411
▁یجی	-8412
▁....	-8413
▁Ever	-8414
▁Line	-8415
▁Show	-8416
▁ctor	-8417
▁down	-8418
▁head	-8419
▁link	-8420
▁list	-8421
▁your	-8422
▁بریت	-8423
▁تویی	-8424
▁رهاد	-8425
▁زادی	-8426
▁سنده	-8427
▁مرار	-8428
▁نهان	-8429
▁وابط	-8430
▁کاست	-8431
▁Build	-8432
▁Dream	-8433
▁Front	-8434
▁Ghost	-8435
▁Sport	-8436
▁اختلا	-8437
▁رلینگ	-8438
DS	-8439
xi	-8440
ye	-8441
وپ	-8442
▁ٍ	-8443
▁♪	-8444
out	-8445
اتی	-8446
▁4:	-8447
▁Dr	-8448
▁EV	-8449
▁Fu	-8450
▁TP	-8451
▁vo	-8452
▁عث	-8453
leep	-8454
▁10-	-8455
▁130	-8456
▁Bab	-8457
▁Bas	-8458
▁HTC	-8459
▁dow	-8460
▁olo	-8461
▁our	-8462
▁toc	-8463
▁ult	-8464
▁اقی	-8465
▁دیه	-8466
▁ذوق	-8467
▁رژه	-8468
▁رکس	-8469
▁زما	-8470
▁شوخ	-8471
▁شوه	-8472
▁طفل	-8473
▁طمع	-8474
▁علف	-8475
▁میه	-8476
▁نیف	-8477
▁وجی	-8478
▁ولى	-8479
▁پنی	-8480
▁چمن	-8481
▁کیپ	-8482
▁یدل	-8483
▁یغه	-8484
▁یلن	-8485
▁ینج	-8486
▁Asso	-8487
▁Best	-8488
▁Cast	-8489
▁Conv	-8490
▁Corp	-8491
▁East	-8492
▁Lock	-8493
▁cess	-8494
▁duct	-8495
▁page	-8496
▁ster	-8497
▁عوام	-8498
▁نقدر	-8499
▁ونیا	-8500
▁وکوس	-8501
▁وگرا	-8502
▁یابت	-8503
▁یرها	-8504
▁ینده	-8505
▁یگرا	-8506
▁Found	-8507
▁Priva	-8508
▁block	-8509
▁versi	-8510
▁اندلا	-8511
▁مالیا	-8512
▁وناکو	-8513
ba	-8514
og	-8515
pi	-8516
sh	-8517
ami	-8518
asp	-8519
gli	-8520
ئون	-8521
تیب	-8522
▁84	-8523
▁::	-8524
▁CI	-8525
▁DI	-8526
▁DR	-8527
▁GA	-8528
▁OK	-8529
▁UK	-8530
▁bi	-8531
▁ca	-8532
▁١٠	-8533
▁Box	-8534
▁Boy	-8535
▁Eco	-8536
▁FBI	-8537
▁LTE	-8538
▁Lee	-8539
▁Mad	-8540
▁Ori	-8541
▁Pat	-8542
▁Psy	-8543
▁USA	-8544
▁Van	-8545
▁WHO	-8546
▁ora	-8547
▁shi	-8548
▁tte	-8549
▁آذر	-8550
▁اشن	-8551
▁جرب	-8552
▁حصر	-8553
▁رأس	-8554
▁ربع	-8555
▁رمه	-8556
▁زها	-8557
▁صرع	-8558
▁طفی	-8559
▁عری	-8560
▁فتا	-8561
▁لرد	-8562
▁یسا	-8563
▁ینچ	-8564
▁Dyna	-8565
▁Hall	-8566
▁Hand	-8567
▁Plan	-8568
▁Rank	-8569
▁hael	-8570
▁line	-8571
▁ادند	-8572
▁ارتی	-8573
▁اردی	-8574
▁اگرا	-8575
▁بازد	-8576
▁توفر	-8577
▁دگیر	-8578
▁شغال	-8579
▁فهمی	-8580
▁موری	-8581
▁ولاً	-8582
▁ویای	-8583
▁گرای	-8584
▁یندگ	-8585
▁Heart	-8586
▁Pixel	-8587
▁Start	-8588
▁style	-8589
▁اعاتی	-8590
▁ترتیب	-8591
▁یبوست	-8592
▁یلتون	-8593
20	-8594
aS	-8595
to	-8596
vo	-8597
يز	-8598
▁■	-8599
▁◄	-8600
ama	-8601
ris	-8602
الو	-8603
▁71	-8604
▁DB	-8605
▁DH	-8606
▁EQ	-8607
▁Gi	-8608
▁Mu	-8609
▁NC	-8610
▁OF	-8611
▁Ru	-8612
▁ai	-8613
▁fr	-8614
▁gg	-8615
▁mp	-8616
▁py	-8617
▁sw	-8618
itch	-8619
▁170	-8620
▁CTA	-8621
▁Lea	-8622
▁NBA	-8623
▁NSA	-8624
▁cra	-8625
▁dge	-8626
▁duc	-8627
▁ler	-8628
▁mac	-8629
▁ula	-8630
▁آره	-8631
▁ادف	-8632
▁الل	-8633
▁بنگ	-8634
▁تاو	-8635
▁حوا	-8636
▁خزر	-8637
▁ربو	-8638
▁رتب	-8639
▁روى	-8640
▁عضا	-8641
▁لبی	-8642
▁مکث	-8643
▁هلن	-8644
▁هوس	-8645
▁ونم	-8646
▁پتو	-8647
▁کسى	-8648
▁کمه	-8649
▁گرف	-8650
▁Assa	-8651
▁Aven	-8652
▁Care	-8653
▁Cour	-8654
▁Duty	-8655
▁Insi	-8656
▁Para	-8657
▁Temp	-8658
▁fess	-8659
▁icle	-8660
▁rise	-8661
▁this	-8662
▁ارگی	-8663
▁اصله	-8664
▁اوان	-8665
▁بزنی	-8666
▁دولف	-8667
▁روست	-8668
▁ریمی	-8669
▁زگیل	-8670
▁شوره	-8671
▁شوری	-8672
▁قیاس	-8673
▁نهای	-8674
▁نونی	-8675
▁نینگ	-8676
▁Brain	-8677
▁Green	-8678
▁IELTS	-8679
▁South	-8680
▁نشناس	-8681
▁یبایی	-8682
▁یستان	-8683
CS	-8684
PD	-8685
bi	-8686
جت	-8687
جی	-8688
EST	-8689
yal	-8690
سیا	-8691
لاک	-8692
▁83	-8693
▁AG	-8694
▁AW	-8695
▁CL	-8696
▁IL	-8697
▁IO	-8698
▁Ka	-8699
▁SN	-8700
▁VI	-8701
▁ek	-8702
▁ps	-8703
▁rg	-8704
▁وَ	-8705
▁یژ	-8706
▁***	-8707
▁110	-8708
▁Ali	-8709
▁Aud	-8710
▁COM	-8711
▁Cur	-8712
▁Div	-8713
▁Eff	-8714
▁Hen	-8715
▁IBS	-8716
▁OEC	-8717
▁Pra	-8718
▁SSD	-8719
▁Ten	-8720
▁aut	-8721
▁tec	-8722
▁تلو	-8723
▁جیر	-8724
▁حلب	-8725
▁داش	-8726
▁ذان	-8727
▁رهن	-8728
▁رکن	-8729
▁ستف	-8730
▁شاء	-8731
▁صید	-8732
▁فرت	-8733
▁فنگ	-8734
▁لبن	-8735
▁لتی	-8736
▁ناق	-8737
▁هاف	-8738
▁وسا	-8739
▁پند	-8740
▁کاپ	-8741
▁یضا	-8742
▁یفل	-8743
▁ینز	-8744
▁یوا	-8745
▁Dani	-8746
▁Hunt	-8747
▁Site	-8748
▁file	-8749
▁mics	-8750
▁site	-8751
▁test	-8752
▁ائیل	-8753
▁رؤیت	-8754
▁راما	-8755
▁ردهم	-8756
▁سیدن	-8757
▁لوان	-8758
▁مجید	-8759
▁نجام	-8760
▁نزاس	-8761
▁نولو	-8762
▁وریت	-8763
▁وریل	-8764
▁ونیخ	-8765
▁کمیت	-8766
▁یستا	-8767
▁یگری	-8768
▁Engli	-8769
▁Story	-8770
▁house	-8771
▁stall	-8772
▁اربری	-8773
▁خوابی	-8774
▁راتین	-8775
▁رانند	-8776
▁پلاست	-8777
GA	-8778
mm	-8779
بک	-8780
▁›	-8781
iti	-8782
▁86	-8783
▁89	-8784
▁BR	-8785
▁EF	-8786
▁GO	-8787
▁Kn	-8788
▁PO	-8789
▁SO	-8790
▁VM	-8791
▁eg	-8792
▁iv	-8793
▁pH	-8794
▁so	-8795
▁گپ	-8796
▁۵۳	-8797
▁۸۸	-8798
▁1.2	-8799
▁3.0	-8800
▁900	-8801
▁Bet	-8802
▁Cal	-8803
▁Cyb	-8804
▁Dog	-8805
▁Exc	-8806
▁Fer	-8807
▁Lay	-8808
▁Run	-8809
▁Sel	-8810
▁cal	-8811
▁del	-8812
▁emp	-8813
▁hip	-8814
▁iTu	-8815
▁آتن	-8816
▁آرد	-8817
▁ئور	-8818
▁الص	-8819
▁باه	-8820
▁بکر	-8821
▁جهل	-8822
▁جیغ	-8823
▁رضی	-8824
▁رعد	-8825
▁صال	-8826
▁فقت	-8827
▁لمن	-8828
▁لگد	-8829
▁مهد	-8830
▁میق	-8831
▁ولک	-8832
▁چرم	-8833
▁Adva	-8834
▁Atla	-8835
▁Bill	-8836
▁Carl	-8837
▁Chat	-8838
▁Crea	-8839
▁Engi	-8840
▁Film	-8841
▁Kill	-8842
▁Lang	-8843
▁Mart	-8844
▁Meta	-8845
▁OECD	-8846
▁Over	-8847
▁Poli	-8848
▁Remo	-8849
▁Resp	-8850
▁Sour	-8851
▁more	-8852
▁nced	-8853
▁بدار	-8854
▁ریتا	-8855
▁لیکی	-8856
▁مارا	-8857
▁مسئل	-8858
▁کارم	-8859
▁یلاس	-8860
▁Break	-8861
▁Creat	-8862
▁Learn	-8863
▁یادین	-8864
EO	-8865
LC	-8866
ng	-8867
ux	-8868
سک	-8869
پل	-8870
۱۰	-8871
▁é	-8872
aci	-8873
ola	-8874
نیک	-8875
کوف	-8876
ینا	-8877
▁(8	-8878
▁++	-8879
▁81	-8880
▁94	-8881
▁Bi	-8882
▁Cr	-8883
▁Ga	-8884
▁Ig	-8885
▁PT	-8886
▁RE	-8887
▁UI	-8888
▁ho	-8889
▁ثه	-8890
▁صی	-8891
▁طو	-8892
▁هژ	-8893
▁پچ	-8894
▁یذ	-8895
▁۵٫	-8896
▁۵۴	-8897
▁۵۸	-8898
▁CNN	-8899
▁Dep	-8900
▁Doc	-8901
▁Dou	-8902
▁Rec	-8903
▁SPF	-8904
▁art	-8905
▁mod	-8906
▁nel	-8907
▁ngo	-8908
▁pre	-8909
▁rep	-8910
▁sec	-8911
▁tan	-8912
▁und	-8913
▁آخه	-8914
▁آنگ	-8915
▁اهک	-8916
▁تقی	-8917
▁روچ	-8918
▁شلی	-8919
▁طاع	-8920
▁طیب	-8921
▁لاص	-8922
▁متخ	-8923
▁ننگ	-8924
▁یگر	-8925
▁DSLR	-8926
▁Form	-8927
▁Hell	-8928
▁List	-8929
▁Long	-8930
▁Poly	-8931
▁Sett	-8932
▁Virt	-8933
▁Walk	-8934
▁Wire	-8935
▁Zero	-8936
▁date	-8937
▁ford	-8938
▁tran	-8939
▁الیف	-8940
▁امبر	-8941
▁ایپو	-8942
▁حبوب	-8943
▁دایم	-8944
▁رایس	-8945
▁رونه	-8946
▁رگشت	-8947
▁لاند	-8948
▁لیلی	-8949
▁نکنی	-8950
▁هرتز	-8951
▁وارت	-8952
▁ویند	-8953
▁پنها	-8954
▁Azure	-8955
▁Touch	-8956
▁انگلس	-8957
▁ریشان	-8958
▁پیگیر	-8959
IL	-8960
ju	-8961
يه	-8962
ape	-8963
uss	-8964
▁5)	-8965
▁EX	-8966
▁Ep	-8967
▁IQ	-8968
▁Ki	-8969
▁LA	-8970
▁OP	-8971
▁RP	-8972
▁RT	-8973
▁WP	-8974
▁fa	-8975
▁رُ	-8976
▁غص	-8977
▁هگ	-8978
▁۴۹	-8979
▁۹۷	-8980
▁125	-8981
▁450	-8982
▁ABC	-8983
▁Ani	-8984
▁Ast	-8985
▁CPA	-8986
▁Fle	-8987
▁Han	-8988
▁ICT	-8989
▁Inf	-8990
▁Log	-8991
▁Nev	-8992
▁RAM	-8993
▁USC	-8994
▁Win	-8995
▁any	-8996
▁car	-8997
▁exa	-8998
▁ext	-8999
▁hui	-9000
▁lin	-9001
▁lly	-9002
▁nal	-9003
▁nia	-9004
▁ola	-9005
▁ond	-9006
▁باگ	-9007
▁بحا	-9008
▁جمل	-9009
▁سوت	-9010
▁شنی	-9011
▁عاج	-9012
▁غاز	-9013
▁فاظ	-9014
▁متش	-9015
▁نجر	-9016
▁نمي	-9017
▁هلک	-9018
▁ورب	-9019
▁پیا	-9020
▁کاک	-9021
▁یجه	-9022
▁یدک	-9023
▁یرگ	-9024
▁یفی	-9025
▁Airb	-9026
▁Club	-9027
▁Hard	-9028
▁Hero	-9029
▁Hill	-9030
▁Hist	-9031
▁Mont	-9032
▁Node	-9033
▁Sand	-9034
▁phic	-9035
▁اتها	-9036
▁رلوس	-9037
▁روسو	-9038
▁رویز	-9039
▁نگشت	-9040
▁هاکی	-9041
▁وروف	-9042
▁یرون	-9043
▁یسان	-9044
▁یلون	-9045
▁Color	-9046
▁Death	-9047
▁Frank	-9048
▁Gmail	-9049
▁Motor	-9050
▁Mount	-9051
▁Royal	-9052
▁world	-9053
▁اراتن	-9054
▁بدانی	-9055
▁وکرات	-9056
GB	-9057
mb	-9058
su	-9059
zy	-9060
▁ە	-9061
oro	-9062
pha	-9063
ریا	-9064
▁5:	-9065
▁87	-9066
▁BB	-9067
▁FA	-9068
▁Tu	-9069
▁Ve	-9070
▁hi	-9071
▁od	-9072
▁شي	-9073
▁ضی	-9074
▁1.4	-9075
▁350	-9076
▁ARM	-9077
▁Alt	-9078
▁BBC	-9079
▁CAD	-9080
▁Gro	-9081
▁Old	-9082
▁Sch	-9083
▁Var	-9084
▁erp	-9085
▁fra	-9086
▁ham	-9087
▁lex	-9088
▁nti	-9089
▁ris	-9090
▁sto	-9091
▁tri	-9092
▁ura	-9093
▁اگا	-9094
▁بتی	-9095
▁حوز	-9096
▁ختگ	-9097
▁خیز	-9098
▁داپ	-9099
▁سره	-9100
▁سوب	-9101
▁عدن	-9102
▁فیض	-9103
▁لاح	-9104
▁لخت	-9105
▁متف	-9106
▁نکس	-9107
▁ودو	-9108
▁وزس	-9109
▁کمد	-9110
▁گوگ	-9111
▁یوب	-9112
▁Camp	-9113
▁Cort	-9114
▁Find	-9115
▁Gear	-9116
▁Land	-9117
▁Matt	-9118
▁Plat	-9119
▁Snap	-9120
▁Team	-9121
▁code	-9122
▁comm	-9123
▁data	-9124
▁disp	-9125
▁look	-9126
▁real	-9127
▁ssin	-9128
▁اهید	-9129
▁بخند	-9130
▁تقلا	-9131
▁دیدگ	-9132
▁راور	-9133
▁رخان	-9134
▁رزند	-9135
▁رچین	-9136
▁مثال	-9137
▁نیوی	-9138
▁ورتی	-9139
▁پتیک	-9140
▁یلور	-9141
▁Charl	-9142
▁Count	-9143
▁Guard	-9144
▁Share	-9145
▁ccess	-9146
▁watch	-9147
▁ارکوس	-9148
▁رسیوم	-9149
▁رشناس	-9150
▁طاعون	-9151
▁نستان	-9152
▁هیستر	-9153
▁وارتز	-9154
▁وکراس	-9155
▁کارخا	-9156
HS	-9157
NG	-9158
da	-9159
nc	-9160
te	-9161
فو	-9162
كس	-9163
amb	-9164
asa	-9165
han	-9166
olf	-9167
qui	-9168
unc	-9169
سیت	-9170
قیل	-9171
▁."	-9172
▁9-	-9173
▁AA	-9174
▁CU	-9175
▁PA	-9176
▁SH	-9177
▁UL	-9178
▁UP	-9179
▁Ze	-9180
▁br	-9181
▁ku	-9182
▁yo	-9183
▁ظن	-9184
▁۶۶	-9185
▁۷٫	-9186
▁Aft	-9187
▁Age	-9188
▁CBD	-9189
▁Fli	-9190
▁Gri	-9191
▁IVF	-9192
▁NFC	-9193
▁Ops	-9194
▁Que	-9195
▁Reb	-9196
▁Ret	-9197
▁SMS	-9198
▁Und	-9199
▁ics	-9200
▁lli	-9201
▁ord	-9202
▁ran	-9203
▁sel	-9204
▁spe	-9205
▁vir	-9206
▁آجر	-9207
▁آلپ	-9208
▁بیب	-9209
▁حقّ	-9210
▁حیث	-9211
▁خلو	-9212
▁درآ	-9213
▁دوگ	-9214
▁ربت	-9215
▁ربن	-9216
▁رزق	-9217
▁سطل	-9218
▁سفا	-9219
▁شبح	-9220
▁ضای	-9221
▁عمه	-9222
▁لیر	-9223
▁مژه	-9224
▁همة	-9225
▁واپ	-9226
▁وکو	-9227
▁پیگ	-9228
▁ژنی	-9229
▁یاک	-9230
▁یگز	-9231
▁۱۸۰	-9232
▁Capi	-9233
▁Girl	-9234
▁Mail	-9235
▁Mill	-9236
▁Ming	-9237
▁Muse	-9238
▁Pala	-9239
▁SERP	-9240
▁ctro	-9241
▁ream	-9242
▁reen	-9243
▁roll	-9244
▁ابله	-9245
▁ادون	-9246
▁ازات	-9247
▁انتو	-9248
▁اهند	-9249
▁باطی	-9250
▁بنیا	-9251
▁رتان	-9252
▁رزین	-9253
▁شگری	-9254
▁شیدا	-9255
▁لیان	-9256
▁مامو	-9257
▁مایش	-9258
▁مرحل	-9259
▁میرا	-9260
▁کانا	-9261
▁یرید	-9262
▁ینگو	-9263
▁Earth	-9264
▁Honor	-9265
▁Metro	-9266
▁Multi	-9267
▁Place	-9268
▁Voice	-9269
▁berry	-9270
▁point	-9271
▁start	-9272
▁stics	-9273
▁امورا	-9274
▁تالان	-9275
▁لائکه	-9276
▁یداری	-9277
▁یستون	-9278
3]	-9279
CE	-9280
DR	-9281
FC	-9282
TI	-9283
ug	-9284
ِن	-9285
iao	-9286
ila	-9287
▁1/	-9288
▁1،	-9289
▁CG	-9290
▁HE	-9291
▁ML	-9292
▁PG	-9293
▁Rh	-9294
▁Ye	-9295
▁ae	-9296
▁فم	-9297
▁نئ	-9298
▁۵۶	-9299
▁۶٫	-9300
▁(5)	-9301
▁1.6	-9302
▁ACT	-9303
▁BIM	-9304
▁Die	-9305
▁FTP	-9306
▁Hal	-9307
▁LAN	-9308
▁LLC	-9309
▁Nav	-9310
▁Opt	-9311
▁Ora	-9312
▁Pod	-9313
▁ROI	-9314
▁Sal	-9315
▁Shi	-9316
▁[3]	-9317
▁bus	-9318
▁exp	-9319
▁hol	-9320
▁	-9321
ا	-9322
ی	-9323
ر	-9324
د	-9325
ن	-9326
ه	-9327
م	-9328
و	-9329
ت	-9330
ب	-9331
ک	-9332
س	-9333
ش	-9334
ل	-9335
ز	-9336
.	-9337
ف	-9338
گ	-9339
خ	-9340
ع	-9341
ق	-9342
ج	-9343
ح	-9344
،	-9345
آ	-9346
پ	-9347
ط	-9348
ص	-9349
چ	-9350
غ	-9351
ض	-9352
e	-9353
ذ	-9354
ظ	-9355
a	-9356
ث	-9357
o	-9358
:	-9359
i	-9360
0	-9361
ئ	-9362
r	-9363
)	-9364
n	-9365
(	-9366
1	-9367
t	-9368
ژ	-9369
s	-9370
؟	-9371
»	-9372
2	-9373
l	-9374
۰	-9375
«	-9376
"	-9377
-	-9378
۱	-9379
ي	-9380
S	-9381
c	-9382
u	-9383
d	-9384
!	-9385
A	-9386
5	-9387
C	-9388
۲	-9389
9	-9390
h	-9391
3	-9392
m	-9393
P	-9394
ً	-9395
ك	-9396
4	-9397
M	-9398
p	-9399
g	-9400
؛	-9401
T	-9402
D	-9403
I	-9404
6	-9405
8	-9406
y	-9407
B	-9408
7	-9409
E	-9410
”	-9411
۵	-9412
R	-9413
۹	-9414
ِ	-9415
L	-9416
۳	-9417
]	-9418
[	-9419
أ	-9420
b	-9421
N	-9422
G	-9423
k	-9424
H	-9425
“	-9426
f	-9427
O	-9428
­	-9429
F	-9430
۴	-9431
–	-9432
,	-9433
v	-9434
۶	-9435
۸	-9436
w	-9437
/	-9438
W	-9439
ى	-9440
۷	-9441
ۀ	-9442
V	-9443
U	-9444
ـ	-9445
ّ	-9446
ء	-9447
x	-9448
ؤ	-9449
َ	-9450
K	-9451
*	-9452
J	-9453
ٔ	-9454
ُ	-9455
z	-9456
X	-9457
+	-9458
٪	-9459
%	-9460
•	-9461
Y	-9462
٫	-9463
'	-9464
Q	-9465
>	-9466
j	-9467
Z	-9468
’	-9469
|	-9470
١	-9471
ْ	-9472
ة	-9473
_	-9474
٬	-9475
٠	-9476
#	-9477
&	-9478
=	-9479
q	-9480
?	-9481
٢	-9482
—	-9483
;	-9484
٩	-9485
$	-9486
¬	-9487
·	-9488
‬	-9489
●	-9490
٨	-9491
\	-9492
٣	-9493
{	-9494
}	-9495
‘	-9496
<	-9497
٧	-9498
@	-9499
٥	-9500
٤	-9501
↑	-9502
é	-9503
→	-9504
إ	-9505
ٌ	-9506
▪	-9507
←	-9508
‫	-9509
‍	-9510
٦	-9511
€	-9512
ە	-9513
×	-9514
ü	-9515
®	-9516
⁯	-9517
°	-9518
️	-9519
ٍ	-9520
♪	-9521
ö	-9522
■	-9523
◄	-9524
ھ	-9525
′	-9526
›	-9527
ó	-9528
á	-9529
~	-9530
â	-9531
♫	-9532
😉	-9533
‪	-9534
£	-9535
ä	-9536
➖	-9537
ç	-9538
^	-9539
‹	-9540
♦	-9541
🔹	-9542
ı	-9543
😀	-9544
§	-9545
ٓ	-9546
ٰ	-9547
−	-9548
✅	-9549
`	-9550
à	-9551
□	-9552
♥	-9553
ş	-9554
ˈ	-9555
⇐	-9556
	-9557
è	-9558
▫	-9559
©	-9560
🔸	-9561
ñ	-9562
α	-9563
	-9564
🙂	-9565
É	-9566
√	-9567
😍	-9568
	-9569
ā	-9570
	-9571
ã	-9572
́	-9573
р	-9574
±	-9575
å	-9576
í	-9577
и	-9578
⁄	-9579
★	-9580
Ç	-9581
ú	-9582
ٿ	-9583
❤	-9584
﴾	-9585
👌	-9586
œ	-9587
̊	-9588
̋	-9589
μ	-9590
а	-9591
е	-9592
н	-9593
о	-9594
ٴ	-9595
۔	-9596
⁭	-9597
☺	-9598
✓	-9599
✔	-9600
﴿	-9601
🌷	-9602
	-9603
Ø	-9604
ø	-9605
ğ	-9606
İ	-9607
̈	-9608
Δ	-9609
Ω	-9610
ε	-9611
ۆ	-9612
ა	-9613
„	-9614
⁪	-9615
◊	-9616
♬	-9617
♯	-9618
⚡	-9619
✤	-9620
✭	-9621
⦁	-9622
	-9623
	-9624
👈	-9625
🔴	-9626
	-9627
Ö	-9628
ë	-9629
β	-9630
ν	-9631
М	-9632
д	-9633
⁩	-9634
▐	-9635
▬	-9636
○	-9637
✕	-9638
	-9639
🌸	-9640
🔻	-9641
😂	-9642
😐	-9643
	-9644
	-9645
	-9646
¤	-9647
Â	-9648
ï	-9649
ò	-9650
ń	-9651
Ş	-9652
š	-9653
ɪ	-9654
̨	-9655
θ	-9656
κ	-9657
Т	-9658
к	-9659
с	-9660
ڪ	-9661
ვ	-9662
ლ	-9663
ო	-9664
⁣	-9665
⁧	-9666
⁮	-9667
⃣	-9668
≠	-9669
≡	-9670
≤	-9671
➕	-9672
	-9673
	-9674
👏	-9675
👻	-9676
🔥	-9677
🔺	-9678
😊	-9679
	-9680
	-9681
¡	-9682
¢	-9683
Ã	-9684
Ä	-9685
Ü	-9686
ß	-9687
ê	-9688
î	-9689
ð	-9690
ô	-9691
÷	-9692
ý	-9693
ē	-9694
ƒ	-9695
ɛ	-9696
ʊ	-9697
ː	-9698
̇	-9699
γ	-9700
λ	-9701
ο	-9702
ρ	-9703
ς	-9704
τ	-9705
Б	-9706
К	-9707
б	-9708
г	-9709
й	-9710
л	-9711
י	-9712
ڵ	-9713
ہ	-9714
ۂ	-9715
ܔ	-9716
ܜ	-9717
თ	-9718
ი	-9719
რ	-9720
ს	-9721
‚	-9722
‭	-9723
≥	-9724
▲	-9725
▶	-9726
◀	-9727
◦	-9728
☼	-9729
❇	-9730
メ	-9731
事	-9732
件	-9733
台	-9734
日	-9735
朝	-9736
本	-9737
灣	-9738
軍	-9739
	-9740
	-9741
	-9742
	-9743
	-9744
	-9745
	-9746
	-9747
🇪	-9748
🍃	-9749
📣	-9750
🔷	-9751
😅	-9752
😏	-9753
😛	-9754
😢	-9755
😥	-9756
😳	-9757
😵	-9758
🙁	-9759
	-9760
	-9761
	-9762
	-9763
	-9764
¥	-9765
Á	-9766
Å	-9767
Ô	-9768
æ	-9769
ì	-9770
þ	-9771
ć	-9772
ī	-9773
ł	-9774
ŋ	-9775
ū	-9776
ű	-9777
Ž	-9778
ǎ	-9779
ɔ	-9780
ə	-9781
ɜ	-9782
ɨ	-9783
ʀ	-9784
ʁ	-9785
ʺ	-9786
ˌ	-9787
ˏ	-9788
̃	-9789
̏	-9790
̵	-9791
Α	-9792
Ε	-9793
Μ	-9794
Φ	-9795
ζ	-9796
φ	-9797
ω	-9798
Г	-9799
З	-9800
И	-9801
О	-9802
П	-9803
С	-9804
м	-9805
т	-9806
у	-9807
ф	-9808
х	-9809
ы	-9810
ь	-9811
я	-9812
ё	-9813
ћ	-9814
ה	-9815
ח	-9816
כ	-9817
מ	-9818
פ	-9819
ש	-9820
څ	-9821
ګ	-9822
ں	-9823
ۃ	-9824
ێ	-9825
ے	-9826
ก	-9827
ง	-9828
แ	-9829
გ	-9830
ე	-9831
მ	-9832
ნ	-9833
უ	-9834
ქ	-9835
Ḥ	-9836
ṇ	-9837
ṯ	-9838
ủ	-9839
ἐ	-9840
ἥ	-9841
Ἴ	-9842
ῖ	-9843
―	-9844
†	-9845
※	-9846
⁠	-9847
₩	-9848
₹	-9849
↓	-9850
⇆	-9851
⇔	-9852
∀	-9853
∆	-9854
∈	-9855
∗	-9856
∘	-9857
∴	-9858
≈	-9859
⊞	-9860
⋆	-9861
⌘	-9862
⏳	-9863
⏺	-9864
►	-9865
◇	-9866
◽	-9867
◾	-9868
☆	-9869
☚	-9870
♊	-9871
♒	-9872
♡	-9873
⚽	-9874
✋	-9875
✍	-9876
✳	-9877
✵	-9878
❌	-9879
❗	-9880
➌	-9881
➐	-9882
⟨	-9883
⟩	-9884
⬅	-9885
《	-9886
》	-9887
「	-9888
か	-9889
き	-9890
ど	-9891
ま	-9892
モ	-9893
ヤ	-9894
一	-9895
东	-9896
人	-9897
前	-9898
十	-9899
命	-9900
坛	-9901
外	-9902
天	-9903
子	-9904
孫	-9905
將	-9906
撫	-9907
斐	-9908
旗	-9909
月	-9910
樹	-9911
湾	-9912
爱	-9913
生	-9914
甲	-9915
碌	-9916
神	-9917
臺	-9918
英	-9919
蔼	-9920
语	-9921
谷	-9922
锦	-9923
门	-9924
革	-9925
도	-9926
라	-9927
아	-9928
장	-9929
티	-9930
	-9931
	-9932
	-9933
	-9934
	-9935
	-9936
	-9937
	-9938
	-9939
	-9940
	-9941
	-9942
	-9943
	-9944
	-9945
	-9946
🇩	-9947
🇬	-9948
🇷	-9949
🇺	-9950
🌀	-9951
🌐	-9952
🌬	-9953
🌲	-9954
🌺	-9955
🍁	-9956
🍳	-9957
🎁	-9958
🎄	-9959
🎥	-9960
🎬	-9961
🐶	-9962
👑	-9963
💎	-9964
💕	-9965
💜	-9966
💟	-9967
💫	-9968
💳	-9969
📈	-9970
📌	-9971
📍	-9972
📑	-9973
📝	-9974
📱	-9975
📽	-9976
🔎	-9977
🔔	-9978
🔵	-9979
🔶	-9980
🗽	-9981
😁	-9982
😌	-9983
😎	-9984
😒	-9985
😔	-9986
😕	-9987
😗	-9988
😙	-9989
😭	-9990
😶	-9991
🙏	-9992
🚀	-9993
🚫	-9994
🤔	-9995
🤗	-9996
