<unk>	0
<s>	0
</s>	0
▁ا	-0
▁ب	-1
▁م	-2
▁د	-3
▁ک	-4
ان	-5
را	-6
▁ه	-7
▁و	-8
ست	-9
▁ت	-10
ند	-11
ار	-12
ای	-13
ین	-14
▁در	-15
▁ش	-16
▁ن	-17
▁به	-18
▁می	-19
▁آ	-20
▁س	-21
▁خ	-22
ید	-23
ود	-24
▁که	-25
▁از	-26
▁را	-27
▁ی	-28
▁است	-29
▁با	-30
رد	-31
اد	-32
ال	-33
▁پ	-34
▁این	-35
رو	-36
ام	-37
ری	-38
▁گ	-39
▁ج	-40
▁های	-41
▁ف	-42
▁ح	-43
اه	-44
رای	-45
▁کن	-46
▁آن	-47
▁ع	-48
ما	-49
▁چ	-50
ور	-51
▁ز	-52
▁یک	-53
یم	-54
▁تو	-55
شت	-56
لی	-57
▁هم	-58
▁ق	-59
▁برای	-60
▁،	-61
اب	-62
ات	-63
سی	-64
▁بر	-65
فت	-66
▁شد	-67
ون	-68
▁ها	-69
▁ر	-70
یر	-71
▁کرد	-72
▁رو	-73
▁ان	-74
از	-75
▁خو	-76
▁مو	-77
▁من	-78
ول	-79
گر	-80
▁خود	-81
اری	-82
لا	-83
می	-84
انی	-85
تی	-86
ها	-87
▁دار	-88
▁ط	-89
▁نی	-90
اده	-91
▁.	-92
▁شما	-93
▁ای	-94
▁بود	-95
▁کار	-96
گی	-97
▁بی	-98
▁باش	-99
▁توان	-100
▁ص	-101
▁ده	-102
▁یا	-103
▁دا	-104
وی	-105
تر	-106
▁تا	-107
زی	-108
▁کند	-109
مان	-110
▁ما	-111
▁شود	-112
▁او	-113
خت	-114
ایی	-115
▁کنند	-116
▁شده	-117
▁سال	-118
▁ام	-119
▁(	-120
▁دو	-121
▁تر	-122
اید	-123
کن	-124
اس	-125
وان	-126
یت	-127
▁کنید	-128
▁هر	-129
▁دی	-130
▁خواه	-131
▁هست	-132
▁پی	-133
▁مح	-134
ده	-135
▁آم	-136
دی	-137
انه	-138
▁مت	-139
نی	-140
▁مع	-141
▁ل	-142
اق	-143
▁اف	-144
بی	-145
شته	-146
▁اند	-147
رک	-148
های	-149
▁اما	-150
قی	-151
▁باشد	-152
له	-153
▁دست	-154
نگ	-155
گاه	-156
رت	-157
بت	-158
▁دارد	-159
▁حال	-160
▁نمی	-161
دا	-162
▁دان	-163
▁ال	-164
عی	-165
▁آنها	-166
▁فر	-167
یا	-168
▁1	-169
▁غ	-170
▁باید	-171
▁سر	-172
مای	-173
▁«	-174
▁اگر	-175
▁کم	-176
▁مش	-177
▁شو	-178
فته	-179
▁کش	-180
کی	-181
▁استف	-182
▁استفاده	-183
اره	-184
بر	-185
▁چه	-186
▁بد	-187
▁چی	-188
▁باز	-189
▁گر	-190
رف	-191
▁اس	-192
جه	-193
وز	-194
امه	-195
▁بسی	-196
▁نظ	-197
جود	-198
نده	-199
ارد	-200
▁دیگر	-201
رار	-202
اف	-203
▁)	-204
عه	-205
ادی	-206
▁نش	-207
▁مد	-208
▁مورد	-209
▁2	-210
▁هستند	-211
▁انج	-212
▁:	-213
▁نو	-214
که	-215
اخت	-216
▁زی	-217
▁"	-218
..	-219
▁تح	-220
▁روز	-221
▁دهد	-222
▁کرده	-223
▁رس	-224
▁داد	-225
وری	-226
عت	-227
▁پیش	-228
▁انجام	-229
▁بین	-230
یل	-231
دید	-232
▁ند	-233
▁گذ	-234
▁مق	-235
▁تن	-236
▁مرد	-237
رب	-238
نین	-239
▁نیست	-240
عد	-241
▁عن	-242
▁زند	-243
▁بخ	-244
▁همه	-245
زار	-246
▁زم	-247
▁تواند	-248
▁مس	-249
وم	-250
▁وجود	-251
▁جه	-252
▁تم	-253
رگ	-254
اط	-255
▁انت	-256
مل	-257
▁بیشت	-258
▁اج	-259
قت	-260
شی	-261
ستان	-262
▁نیز	-263
▁مه	-264
الی	-265
▁مان	-266
▁اح	-267
▁پس	-268
▁قرار	-269
▁عنوان	-270
فر	-271
خص	-272
▁ساز	-273
رات	-274
▁بز	-275
▁خواهد	-276
▁ات	-277
یده	-278
▁»	-279
ریک	-280
رکت	-281
▁هی	-282
▁مم	-283
▁روی	-284
▁توس	-285
▁داشته	-286
▁۱	-287
▁وی	-288
امل	-289
رس	-290
وا	-291
وت	-292
ونه	-293
▁کشور	-294
▁زندگی	-295
▁داشت	-296
▁دانش	-297
نامه	-298
▁واق	-299
▁سی	-300
کر	-301
▁راه	-302
▁مط	-303
▁ممکن	-304
وه	-305
کل	-306
▁...	-307
▁گفت	-308
▁همچ	-309
قه	-310
خی	-311
▁شوند	-312
▁جم	-313
▁هایی	-314
▁تص	-315
▁تج	-316
▁گو	-317
▁مج	-318
▁داده	-319
چه	-320
رز	-321
▁بیشتر	-322
▁-	-323
نا	-324
ینه	-325
▁بازی	-326
▁نه	-327
امی	-328
▁دارند	-329
اص	-330
▁بسیار	-331
▁اط	-332
▁کردن	-333
▁نظر	-334
▁شرکت	-335
ایت	-336
▁هیچ	-337
▁نیاز	-338
ورد	-339
▁زمان	-340
گان	-341
به	-342
▁طور	-343
▁نام	-344
▁بزرگ	-345
▁نق	-346
▁کس	-347
فا	-348
▁افرا	-349
▁یکی	-350
▁کنیم	-351
00	-352
▁اول	-353
کان	-354
عات	-355
▁اص	-356
▁آمریک	-357
مو	-358
▁شه	-359
ازه	-360
▁برنامه	-361
ره	-362
▁کل	-363
▁۲	-364
▁تنها	-365
▁جدید	-366
▁دور	-367
▁تغ	-368
▁مث	-369
▁بگ	-370
حی	-371
ورت	-372
▁S	-373
ترین	-374
▁حد	-375
▁ساخت	-376
▁قد	-377
▁چند	-378
مند	-379
▁کمک	-380
▁پرو	-381
▁همچنین	-382
▁نا	-383
سان	-384
▁مردم	-385
▁زن	-386
زای	-387
کت	-388
▁فق	-389
▁پای	-390
▁ماه	-391
▁شن	-392
صد	-393
er	-394
شه	-395
▁نشان	-396
شن	-397
ارت	-398
لب	-399
▁قب	-400
▁اد	-401
▁تغی	-402
▁سو	-403
▁بار	-404
جا	-405
لام	-406
▁چیزی	-407
اند	-408
▁واقع	-409
با	-410
رائ	-411
ژی	-412
▁C	-413
سته	-414
ستم	-415
شد	-416
▁آز	-417
▁اش	-418
لف	-419
▁توانید	-420
▁گی	-421
▁توسط	-422
▁ایر	-423
باره	-424
▁اع	-425
▁دهند	-426
▁بن	-427
جاد	-428
▁همان	-429
شان	-430
▁A	-431
▁تمام	-432
▁ایجاد	-433
رم	-434
▁صورت	-435
▁جن	-436
ابل	-437
▁آموز	-438
زه	-439
▁بیم	-440
▁فقط	-441
▁آی	-442
▁آیا	-443
▁ترین	-444
▁کو	-445
▁بعد	-446
▁بل	-447
▁خدا	-448
▁ك	-449
ضی	-450
▁کنم	-451
کس	-452
▁دل	-453
▁ری	-454
▁جهان	-455
▁تب	-456
▁طول	-457
▁بیش	-458
▁ض	-459
▁خی	-460
in	-461
قد	-462
▁مص	-463
بان	-464
خاب	-465
▁تع	-466
▁مانند	-467
▁بسیاری	-468
▁فع	-469
گونه	-470
▁تول	-471
▁ارت	-472
▁نس	-473
▁حتی	-474
▁باشید	-475
▁سه	-476
▁هن	-477
▁انتخاب	-478
▁اینکه	-479
▁افراد	-480
▁خط	-481
▁رفت	-482
▁3	-483
▁یاد	-484
▁آمریکا	-485
رسی	-486
▁اطلا	-487
فی	-488
▁تق	-489
تاب	-490
▁نم	-491
بود	-492
راه	-493
▁برخی	-494
on	-495
▁وق	-496
▁ث	-497
▁مهم	-498
رده	-499
نج	-500
▁زمانی	-501
▁خان	-502
▁غیر	-503
مت	-504
▁گرفت	-505
لیل	-506
ژه	-507
▁M	-508
کار	-509
قیق	-510
شم	-511
▁کردند	-512
مال	-513
▁وا	-514
▁سا	-515
▁دول	-516
مین	-517
▁جای	-518
وش	-519
▁ایران	-520
سه	-521
▁باشند	-522
▁برا	-523
▁P	-524
▁کود	-525
ثر	-526
▁20	-527
an	-528
وب	-529
▁افزای	-530
وق	-531
گری	-532
▁دهید	-533
▁بخش	-534
وع	-535
توان	-536
▁درصد	-537
▁افزایش	-538
ادر	-539
▁نمای	-540
▁کتاب	-541
▁آب	-542
صی	-543
▁چیز	-544
▁فیل	-545
▁مرا	-546
▁تغییر	-547
▁حا	-548
▁هد	-549
▁دوست	-550
▁چرا	-551
یس	-552
ساس	-553
بال	-554
▁!	-555
نه	-556
▁تولید	-557
ریق	-558
▁شان	-559
▁ذ	-560
▁غذ	-561
ابی	-562
▁فکر	-563
▁شب	-564
▁شخص	-565
▁فرو	-566
گیری	-567
▁[	-568
▁همین	-569
▁مشت	-570
اتی	-571
▁بع	-572
▁دید	-573
▁توانند	-574
▁اطلاعات	-575
▁توجه	-576
▁علا	-577
یدا	-578
▁سیا	-579
▁ایم	-580
▁ارائ	-581
▁حق	-582
رح	-583
▁میلی	-584
▁ارائه	-585
▁گرو	-586
▁اخ	-587
ایل	-588
▁کسی	-589
▁عم	-590
▁مشکل	-591
▁چگونه	-592
▁“	-593
▁تش	-594
▁فعال	-595
ونی	-596
زینه	-597
▁وقتی	-598
جی	-599
▁گرد	-600
▁؟	-601
▁بوده	-602
▁خار	-603
ینی	-604
▁مخت	-605
▁بدون	-606
▁خانه	-607
وط	-608
▁خد	-609
واه	-610
▁نخ	-611
.»	-612
▁فرد	-613
ریت	-614
▁اعت	-615
▁B	-616
▁شدن	-617
رام	-618
▁احت	-619
▁هنگ	-620
▁تان	-621
▁بودند	-622
▁عل	-623
▁گروه	-624
▁عمل	-625
▁پیدا	-626
▁زیادی	-627
▁گرفته	-628
▁درباره	-629
عیت	-630
مات	-631
▁پر	-632
▁–	-633
▁کاه	-634
گز	-635
▁ژ	-636
▁T	-637
▁آل	-638
روز	-639
اً	-640
▁اه	-641
▁جنگ	-642
▁معم	-643
ستی	-644
رزش	-645
بط	-646
ar	-647
راحی	-648
▁سیستم	-649
یشه	-650
▁”	-651
▁حس	-652
▁5	-653
▁کاهش	-654
روع	-655
قل	-656
▁شهر	-657
▁خیلی	-658
تما	-659
▁سازمان	-660
مه	-661
▁مطال	-662
۰۰	-663
▁خوب	-664
▁برد	-665
▁بال	-666
▁4	-667
▁اقت	-668
▁شروع	-669
▁مختلف	-670
▁دولت	-671
وس	-672
▁کام	-673
لیه	-674
تان	-675
▁D	-676
▁دنی	-677
▁اب	-678
▁سپ	-679
راین	-680
بار	-681
ران	-682
فق	-683
گه	-684
▁کننده	-685
▁19	-686
▁متح	-687
▁اقتص	-688
▁نفر	-689
▁سایت	-690
▁شک	-691
▁احساس	-692
وند	-693
الات	-694
▁قابل	-695
▁فیلم	-696
▁چنین	-697
▁اولین	-698
▁موض	-699
or	-700
▁آورد	-701
▁دلیل	-702
رین	-703
▁دیگری	-704
▁قبل	-705
▁I	-706
رکز	-707
یمی	-708
▁نز	-709
▁بناب	-710
▁خر	-711
▁بهترین	-712
▁انسان	-713
▁میان	-714
▁منط	-715
▁دارید	-716
▁مست	-717
ودی	-718
▁منت	-719
▁تاری	-720
▁جل	-721
▁کسب	-722
▁روش	-723
▁صح	-724
باط	-725
▁خواهید	-726
وار	-727
یدن	-728
▁حرف	-729
▁پرد	-730
▁همیشه	-731
▁انگ	-732
▁ندارد	-733
▁فرا	-734
▁زبان	-735
▁افت	-736
▁تلا	-737
▁خواهند	-738
عث	-739
▁بنابراین	-740
▁باعث	-741
▁ولی	-742
▁دن	-743
زش	-744
▁کوچ	-745
اران	-746
▁ارو	-747
▁s	-748
▁موفق	-749
▁لی	-750
ربه	-751
▁پاس	-752
▁قدرت	-753
▁خانو	-754
en	-755
▁دارای	-756
▁ارتباط	-757
▁گذشته	-758
▁مخ	-759
▁کاری	-760
▁توسعه	-761
▁مدت	-762
شتی	-763
▁201	-764
▁دریا	-765
▁سط	-766
▁کی	-767
▁طراحی	-768
▁معمول	-769
ازی	-770
ظه	-771
بین	-772
▁اجتما	-773
▁طریق	-774
▁محص	-775
سم	-776
▁قان	-777
کرد	-778
▁دنبال	-779
▁G	-780
▁اروپ	-781
▁H	-782
al	-783
▁تلاش	-784
▁سری	-785
▁جهانی	-786
پی	-787
▁پذ	-788
▁پا	-789
▁آنچه	-790
▁شم	-791
ویی	-792
▁هدف	-793
▁تعد	-794
اهی	-795
▁بهتر	-796
▁ِ	-797
at	-798
ضر	-799
▁آینده	-800
▁دانشگاه	-801
طور	-802
▁وب	-803
▁بالا	-804
▁شامل	-805
▁هنوز	-806
▁صد	-807
▁زیر	-808
▁محصول	-809
سر	-810
نان	-811
▁خاص	-812
فاق	-813
▁سن	-814
ریان	-815
▁اصلی	-816
▁اجتماعی	-817
میم	-818
▁سرمای	-819
▁قط	-820
▁بدن	-821
▁R	-822
▁نوع	-823
اشت	-824
▁خرید	-825
▁سرمایه	-826
▁تک	-827
▁فروش	-828
مد	-829
▁سای	-830
▁اتفاق	-831
▁مدی	-832
▁مسئ	-833
ندی	-834
▁اشت	-835
▁ادامه	-836
▁,	-837
▁E	-838
▁حدود	-839
▁المل	-840
▁تجربه	-841
▁گفته	-842
▁خوا	-843
▁دریافت	-844
ولی	-845
اسب	-846
▁ته	-847
▁تحقیق	-848
▁مصرف	-849
▁جز	-850
▁دادن	-851
▁کمی	-852
من	-853
▁؛	-854
▁زنان	-855
▁تأ	-856
▁احتمال	-857
▁نسبت	-858
ثیر	-859
هن	-860
▁پاسخ	-861
▁زیرا	-862
افی	-863
▁خانواده	-864
▁اندازه	-865
اور	-866
فاوت	-867
شر	-868
ضای	-869
▁درمان	-870
▁همراه	-871
صو	-872
▁حاضر	-873
▁بررسی	-874
▁رشد	-875
▁۳	-876
▁منطقه	-877
▁مالی	-878
▁هزینه	-879
▁ساعت	-880
▁آموزش	-881
▁کوچک	-882
دیل	-883
ضا	-884
▁نیرو	-885
▁L	-886
▁حالی	-887
▁چهار	-888
▁نزدی	-889
▁میلیون	-890
دود	-891
▁ندار	-892
▁کنتر	-893
▁جام	-894
فه	-895
رش	-896
▁فعالیت	-897
▁هفته	-898
▁المللی	-899
▁اید	-900
▁وقت	-901
▁گزار	-902
▁F	-903
▁شی	-904
▁6	-905
▁خوبی	-906
▁خاط	-907
▁شرای	-908
es	-909
▁حل	-910
▁کلی	-911
▁شرایط	-912
▁اض	-913
کنون	-914
▁قر	-915
▁کنترل	-916
▁نتی	-917
▁میز	-918
▁تبدیل	-919
▁پزش	-920
▁صف	-921
▁داخ	-922
▁زمین	-923
▁کامل	-924
دم	-925
▁تحت	-926
▁مل	-927
▁هزار	-928
▁ارزش	-929
▁اک	-930
▁ترکی	-931
▁نتیجه	-932
▁وارد	-933
▁طبی	-934
▁دوره	-935
▁امروز	-936
▁پنج	-937
▁ظ	-938
▁ست	-939
▁بده	-940
▁۲۰	-941
لاح	-942
▁آغ	-943
▁کا	-944
ربی	-945
▁کان	-946
▁بتوان	-947
▁موضوع	-948
▁گست	-949
▁سطح	-950
▁جا	-951
یدی	-952
▁تصمیم	-953
▁بلکه	-954
▁مسی	-955
▁چون	-956
▁ار	-957
▁بیماری	-958
▁بازار	-959
▁خصو	-960
▁اجازه	-961
▁گوید	-962
▁گزارش	-963
▁جمه	-964
▁W	-965
▁اخت	-966
ازم	-967
دار	-968
▁شاید	-969
▁صحبت	-970
بری	-971
▁مرب	-972
▁۱۹	-973
▁صن	-974
شار	-975
▁­	-976
▁چشم	-977
▁سب	-978
▁تعداد	-979
▁سخ	-980
▁مدیریت	-981
▁مواد	-982
▁شدند	-983
▁گذاری	-984
le	-985
▁پول	-986
حه	-987
▁پایان	-988
it	-989
▁متحده	-990
▁شکل	-991
▁دلار	-992
▁وز	-993
▁آخ	-994
▁سازی	-995
▁مثال	-996
▁ره	-997
▁آسی	-998
▁گیر	-999
▁وض	-1000
▁اغ	-1001
▁N	-1002
▁سل	-1003
▁آغاز	-1004
▁بیشتری	-1005
وست	-1006
گران	-1007
رژی	-1008
ئی	-1009
▁برابر	-1010
▁درست	-1011
شق	-1012
ندان	-1013
▁ایالات	-1014
گرد	-1015
▁مغ	-1016
▁واقعی	-1017
▁سلام	-1018
▁بگیر	-1019
▁سف	-1020
▁هستید	-1021
دام	-1022
ندگان	-1023
عنی	-1024
▁طرف	-1025
▁ابت	-1026
▁کردم	-1027
▁جمله	-1028
▁خطر	-1029
▁خوش	-1030
یره	-1031
▁دنیا	-1032
▁نگاه	-1033
▁7	-1034
بران	-1035
ic	-1036
▁مثل	-1037
▁نوی	-1038
▁اغلب	-1039
▁حمای	-1040
▁مک	-1041
▁گیری	-1042
▁اروپا	-1043
رون	-1044
▁مربوط	-1045
▁اینجا	-1046
▁۵	-1047
ابت	-1048
▁جان	-1049
▁چین	-1050
▁بح	-1051
▁پذیر	-1052
▁امکان	-1053
در	-1054
▁منظ	-1055
▁اساس	-1056
▁مطالعه	-1057
▁یعنی	-1058
▁جو	-1059
کو	-1060
▁مناسب	-1061
▁نبود	-1062
▁/	-1063
▁محدود	-1064
▁شوید	-1065
▁عب	-1066
▁رسد	-1067
▁خاطر	-1068
▁تاریخ	-1069
▁حض	-1070
▁نزدیک	-1071
▁دیگران	-1072
بته	-1073
▁کسانی	-1074
▁تیم	-1075
▁سرا	-1076
▁پروژه	-1077
▁مشخص	-1078
رخ	-1079
▁زمینه	-1080
▁طی	-1081
اپ	-1082
▁حمایت	-1083
▁شناخت	-1084
▁قیم	-1085
▁گونه	-1086
نت	-1087
برد	-1088
▁انرژی	-1089
▁شبکه	-1090
▁لازم	-1091
مانی	-1092
▁آزمای	-1093
▁گیرد	-1094
▁امن	-1095
انس	-1096
قات	-1097
▁خدمات	-1098
▁هنگامی	-1099
▁یافت	-1100
▁آش	-1101
▁نگه	-1102
▁عمو	-1103
اله	-1104
▁فی	-1105
▁البته	-1106
دن	-1107
کاری	-1108
▁خواب	-1109
▁گوی	-1110
▁رای	-1111
میت	-1112
ویر	-1113
▁هوا	-1114
▁روسی	-1115
▁مرت	-1116
▁فل	-1117
▁موجود	-1118
▁اکنون	-1119
▁8	-1120
صل	-1121
▁t	-1122
▁داریم	-1123
▁طب	-1124
▁اقتصادی	-1125
▁رابط	-1126
اقل	-1127
▁۴	-1128
ولو	-1129
تری	-1130
▁نف	-1131
▁کافی	-1132
▁بدان	-1133
رض	-1134
▁کودکان	-1135
▁نمایش	-1136
▁کاملا	-1137
▁قانون	-1138
▁حی	-1139
ائ	-1140
جر	-1141
▁خون	-1142
▁تقری	-1143
▁توصی	-1144
▁سایر	-1145
▁سپس	-1146
شید	-1147
▁رود	-1148
▁اعلام	-1149
این	-1150
ویت	-1151
▁بان	-1152
ئیس	-1153
اح	-1154
▁سریع	-1155
▁سیاسی	-1156
▁قیمت	-1157
بانی	-1158
اسی	-1159
▁ملی	-1160
▁انتظ	-1161
▁دخ	-1162
▁نخواه	-1163
▁شخصی	-1164
▁ي	-1165
▁اقد	-1166
▁كه	-1167
▁نت	-1168
▁آزمایش	-1169
▁پیشر	-1170
▁رنگ	-1171
▁جامعه	-1172
▁پرداخت	-1173
▁سفر	-1174
اشته	-1175
▁مرگ	-1176
▁رسید	-1177
▁داستان	-1178
▁تقریبا	-1179
▁درک	-1180
▁شناس	-1181
▁9	-1182
روری	-1183
▁بهبود	-1184
▁کمتر	-1185
ro	-1186
▁دارم	-1187
▁ساخته	-1188
▁هرگز	-1189
▁تکن	-1190
لاف	-1191
▁یاب	-1192
▁لب	-1193
▁فرز	-1194
▁بعضی	-1195
▁حقی	-1196
▁طبیعی	-1197
▁موارد	-1198
re	-1199
▁محی	-1200
▁محیط	-1201
گو	-1202
امبر	-1203
▁پرس	-1204
▁ساده	-1205
▁کودک	-1206
▁مذ	-1207
▁انتق	-1208
▁حف	-1209
جوی	-1210
ریم	-1211
▁درخ	-1212
▁محت	-1213
امات	-1214
▁200	-1215
▁لح	-1216
▁خارج	-1217
▁رابطه	-1218
▁سخت	-1219
▁صفحه	-1220
خانه	-1221
▁روسیه	-1222
▁نقش	-1223
▁عو	-1224
▁عمومی	-1225
ونت	-1226
▁ویژه	-1227
▁کنار	-1228
▁10	-1229
▁ایده	-1230
شین	-1231
▁رق	-1232
▁یافته	-1233
▁موفقیت	-1234
▁فرص	-1235
▁هو	-1236
▁تما	-1237
▁دوم	-1238
is	-1239
▁سیاست	-1240
▁موق	-1241
▁حداقل	-1242
▁آنجا	-1243
▁آماده	-1244
▁افرادی	-1245
▁بودن	-1246
▁حقوق	-1247
▁حفظ	-1248
▁سوی	-1249
▁مشکلات	-1250
اهای	-1251
▁حساب	-1252
he	-1253
▁مجمو	-1254
▁حک	-1255
▁نکن	-1256
▁تل	-1257
▁ببین	-1258
▁دقیق	-1259
ئن	-1260
هایی	-1261
▁خداوند	-1262
وده	-1263
▁سرعت	-1264
▁حرکت	-1265
▁انگلی	-1266
اک	-1267
ارک	-1268
ولوژی	-1269
▁رفتار	-1270
ذار	-1271
▁صرف	-1272
▁تاثیر	-1273
▁۲۰۱	-1274
▁دستگاه	-1275
▁کشورهای	-1276
▁جست	-1277
▁ور	-1278
▁بو	-1279
▁نب	-1280
صر	-1281
▁آنان	-1282
▁قادر	-1283
▁O	-1284
▁حرفه	-1285
▁جوان	-1286
▁علاوه	-1287
غان	-1288
▁خواست	-1289
▁خواهیم	-1290
راح	-1291
▁تغیی	-1292
▁جلو	-1293
▁رئیس	-1294
▁دوباره	-1295
ایج	-1296
▁میزان	-1297
اهده	-1298
▁فرم	-1299
▁غذایی	-1300
▁جایی	-1301
ابع	-1302
الت	-1303
▁مف	-1304
لق	-1305
ion	-1306
▁نک	-1307
طه	-1308
▁امید	-1309
▁حم	-1310
▁U	-1311
▁متفاوت	-1312
ac	-1313
مندان	-1314
▁علیه	-1315
▁تخ	-1316
▁برخ	-1317
▁آمد	-1318
▁انتظار	-1319
▁انگی	-1320
هنگ	-1321
▁مب	-1322
▁خارجی	-1323
▁سراسر	-1324
▁درد	-1325
▁نویس	-1326
افه	-1327
جو	-1328
▁عض	-1329
▁راح	-1330
▁آید	-1331
▁بیان	-1332
▁مادر	-1333
▁خورد	-1334
راک	-1335
▁آوری	-1336
▁هنگام	-1337
▁برق	-1338
▁گاهی	-1339
▁آمریکایی	-1340
▁آسیب	-1341
▁عکس	-1342
▁بپ	-1343
▁شر	-1344
▁آزاد	-1345
▁پیشنه	-1346
▁تف	-1347
▁دیده	-1348
▁باور	-1349
▁خبر	-1350
بات	-1351
▁وضعیت	-1352
طان	-1353
▁دهه	-1354
▁هستیم	-1355
گیر	-1356
▁دسترسی	-1357
قدر	-1358
▁آمده	-1359
راف	-1360
▁بخشی	-1361
داری	-1362
▁داشتن	-1363
واست	-1364
▁واقعا	-1365
▁معت	-1366
▁بیمار	-1367
▁روند	-1368
▁o	-1369
▁کوت	-1370
کیل	-1371
▁برگ	-1372
▁طولانی	-1373
▁نتایج	-1374
▁مشاهده	-1375
▁معمولا	-1376
▁زیاد	-1377
▁حقیقت	-1378
▁اشتب	-1379
ظت	-1380
▁دختر	-1381
▁تجاری	-1382
▁گل	-1383
▁دهیم	-1384
ستگی	-1385
▁فشار	-1386
▁پایین	-1387
گار	-1388
▁سعی	-1389
▁مسل	-1390
▁اینتر	-1391
▁نشده	-1392
▁برو	-1393
▁یه	-1394
افق	-1395
om	-1396
▁منتشر	-1397
وریه	-1398
▁ساله	-1399
▁مدیر	-1400
▁مشتریان	-1401
قق	-1402
▁امنیت	-1403
as	-1404
ادا	-1405
▁هنر	-1406
داف	-1407
▁حضور	-1408
▁جذ	-1409
▁شناخته	-1410
▁خواهم	-1411
واره	-1412
▁ترس	-1413
عا	-1414
▁عملی	-1415
ابه	-1416
▁کیف	-1417
▁حمل	-1418
قا	-1419
▁۶	-1420
سانی	-1421
▁مبت	-1422
▁معنی	-1423
بور	-1424
▁رخ	-1425
اندن	-1426
▁نباید	-1427
▁اضافه	-1428
دیگر	-1429
▁عالی	-1430
▁مهارت	-1431
▁مکان	-1432
ing	-1433
▁فه	-1434
▁فران	-1435
آمد	-1436
▁خور	-1437
▁ایشان	-1438
▁کنندگان	-1439
جب	-1440
▁محصولات	-1441
▁مدل	-1442
▁نظامی	-1443
▁فرصت	-1444
▁متو	-1445
▁لذ	-1446
▁سنگ	-1447
▁مطم	-1448
el	-1449
▁بندی	-1450
ومت	-1451
▁غذا	-1452
▁مرح	-1453
▁تلف	-1454
▁V	-1455
تیک	-1456
▁اسرائ	-1457
▁استرات	-1458
دان	-1459
▁بچه	-1460
▁خش	-1461
▁c	-1462
▁ابزار	-1463
▁همکاری	-1464
▁استراتژی	-1465
▁حالا	-1466
▁رسانه	-1467
▁خلا	-1468
▁توانایی	-1469
▁آور	-1470
▁موسی	-1471
▁مبار	-1472
▁بودم	-1473
▁درخواست	-1474
▁دقی	-1475
ابط	-1476
▁نخست	-1477
▁اقتصاد	-1478
خه	-1479
▁بینی	-1480
▁تمرکز	-1481
▁منابع	-1482
تن	-1483
▁بعدی	-1484
▁کلا	-1485
▁مرکز	-1486
▁چیست	-1487
▁سمت	-1488
الب	-1489
▁بس	-1490
▁ثبت	-1491
روی	-1492
▁اعتم	-1493
▁توانیم	-1494
▁m	-1495
ادل	-1496
▁روشن	-1497
▁طرح	-1498
▁جنسی	-1499
▁نوشت	-1500
▁نوشته	-1501
▁اشاره	-1502
قای	-1503
▁اشتباه	-1504
ou	-1505
▁جمع	-1506
▁روابط	-1507
خصص	-1508
تل	-1509
امین	-1510
▁محل	-1511
et	-1512
ين	-1513
▁آگاه	-1514
▁کدام	-1515
▁نیستند	-1516
▁گویند	-1517
هایت	-1518
▁توصیه	-1519
▁حمله	-1520
▁مرحله	-1521
▁علاقه	-1522
▁مسیر	-1523
▁هستم	-1524
▁منظور	-1525
یه	-1526
▁افز	-1527
▁فراه	-1528
▁خودش	-1529
▁عملکرد	-1530
▁پیام	-1531
▁خودتان	-1532
▁دقیقه	-1533
▁پیشنهاد	-1534
▁شغ	-1535
کنان	-1536
▁اکثر	-1537
▁فراهم	-1538
▁اعتماد	-1539
▁مر	-1540
▁p	-1541
▁دارو	-1542
ناسی	-1543
▁متوجه	-1544
▁داخلی	-1545
▁منجر	-1546
▁داشتند	-1547
▁اتح	-1548
ائل	-1549
▁پشتی	-1550
▁بسته	-1551
▁توضی	-1552
▁پوست	-1553
واج	-1554
▁جهت	-1555
▁نور	-1556
▁سوم	-1557
▁گزینه	-1558
▁جمهوری	-1559
▁مجموعه	-1560
▁مقدار	-1561
▁مدرس	-1562
▁نگر	-1563
▁افغان	-1564
▁صنعت	-1565
▁تغییرات	-1566
▁تشکیل	-1567
▁تحقیقات	-1568
▁بگیرید	-1569
▁سرو	-1570
▁متن	-1571
▁اسل	-1572
▁کال	-1573
▁پیشرفت	-1574
▁مها	-1575
▁اتاق	-1576
▁یابد	-1577
▁گرفتن	-1578
▁پوش	-1579
▁مراق	-1580
oo	-1581
▁استخ	-1582
▁بازاری	-1583
▁خصوص	-1584
▁آخرین	-1585
ارس	-1586
▁ماشین	-1587
ریف	-1588
▁مشتری	-1589
▁نرم	-1590
▁وسی	-1591
▁گیرند	-1592
▁قل	-1593
▁تشخی	-1594
▁*	-1595
▁گردد	-1596
▁تصویر	-1597
پل	-1598
ناه	-1599
داشت	-1600
▁انگلیسی	-1601
▁برس	-1602
▁مستق	-1603
رال	-1604
صیل	-1605
▁هوش	-1606
اصله	-1607
▁شاه	-1608
▁باشیم	-1609
▁ندارند	-1610
▁رژ	-1611
رافی	-1612
▁توضیح	-1613
▁کاربران	-1614
▁دادند	-1615
...	-1616
▁سخن	-1617
▁اثر	-1618
▁نهایت	-1619
▁تس	-1620
▁دوستان	-1621
▁)،	-1622
▁باقی	-1623
am	-1624
ریه	-1625
▁اسپ	-1626
▁تمرین	-1627
▁توانست	-1628
▁اجرای	-1629
لیغ	-1630
▁انقل	-1631
▁تبلیغ	-1632
▁نمود	-1633
▁مدرسه	-1634
▁بهره	-1635
▁ظاه	-1636
▁امر	-1637
▁نامه	-1638
▁الله	-1639
▁کوتاه	-1640
▁معن	-1641
▁خوان	-1642
▁نداشت	-1643
ظیم	-1644
▁پشت	-1645
▁آزادی	-1646
واع	-1647
▁شا	-1648
▁برخورد	-1649
▁نفت	-1650
لاین	-1651
▁جریان	-1652
راق	-1653
▁وزن	-1654
».	-1655
▁اهداف	-1656
▁اث	-1657
عیین	-1658
▁شکست	-1659
▁انواع	-1660
▁تعیین	-1661
میز	-1662
▁واقعیت	-1663
▁بانک	-1664
▁تشخیص	-1665
▁گسترده	-1666
▁عشق	-1667
▁بلند	-1668
▁آلمان	-1669
▁مرتبط	-1670
▁اجرا	-1671
▁سوریه	-1672
▁لو	-1673
▁نبا	-1674
▁مردان	-1675
تح	-1676
▁قه	-1677
▁مشابه	-1678
▁مغز	-1679
il	-1680
بیه	-1681
▁رژیم	-1682
نو	-1683
▁ارس	-1684
▁تمامی	-1685
▁بخواه	-1686
▁آموزان	-1687
▁تهدید	-1688
▁مسئله	-1689
▁اق	-1690
▁بیرون	-1691
▁استاند	-1692
▁مناط	-1693
▁اهمیت	-1694
▁ابتدا	-1695
▁توافق	-1696
▁چندین	-1697
اتر	-1698
▁محقق	-1699
▁بحث	-1700
▁سلامت	-1701
▁ازد	-1702
▁حالت	-1703
▁آت	-1704
▁اطمین	-1705
▁مطمئن	-1706
▁موسیقی	-1707
▁یکدیگر	-1708
کا	-1709
▁اسرائیل	-1710
▁داخل	-1711
گل	-1712
▁محاف	-1713
آن	-1714
▁ویژ	-1715
▁قس	-1716
▁کیفیت	-1717
▁بش	-1718
▁کردیم	-1719
▁همچنان	-1720
▁اطمینان	-1721
▁آنلاین	-1722
ادگی	-1723
▁عرض	-1724
▁تای	-1725
▁مال	-1726
▁ازدواج	-1727
▁لذت	-1728
▁میل	-1729
یز	-1730
▁عق	-1731
ناک	-1732
▁بگو	-1733
▁قوی	-1734
▁نمونه	-1735
▁اینترنت	-1736
▁جلوگیری	-1737
▁سود	-1738
مون	-1739
▁الکت	-1740
▁سرطان	-1741
▁پزشکی	-1742
▁آسان	-1743
▁پدر	-1744
▁سفید	-1745
▁اولیه	-1746
انیا	-1747
▁اعضای	-1748
▁۱۰	-1749
▁کشف	-1750
▁محلی	-1751
▁نسخه	-1752
▁ذهن	-1753
▁دهنده	-1754
▁مقاله	-1755
سال	-1756
▁).	-1757
▁ویژگی	-1758
▁افغانستان	-1759
▁نکنید	-1760
▁فیزی	-1761
▁ورزش	-1762
▁فرانسه	-1763
▁سلول	-1764
گون	-1765
▁گوش	-1766
▁هسته	-1767
▁دک	-1768
▁اختی	-1769
▁خصوصی	-1770
▁پیچ	-1771
▁تکنولوژی	-1772
▁i	-1773
▁رد	-1774
▁برند	-1775
▁قسمت	-1776
ad	-1777
ادت	-1778
▁۷	-1779
▁الع	-1780
▁بازگ	-1781
ed	-1782
▁K	-1783
▁جدا	-1784
کته	-1785
▁راست	-1786
▁زنده	-1787
▁۸	-1788
▁کامپی	-1789
▁ارز	-1790
روس	-1791
ئو	-1792
▁ماند	-1793
▁نخواهد	-1794
▁پرداز	-1795
▁وس	-1796
▁معل	-1797
وبی	-1798
امت	-1799
الد	-1800
▁درآمد	-1801
▁ارسال	-1802
▁سوال	-1803
▁دوران	-1804
▁عد	-1805
▁فوق	-1806
▁اخیر	-1807
▁بگذار	-1808
▁قرن	-1809
▁پلی	-1810
▁میلیارد	-1811
▁شدید	-1812
جات	-1813
us	-1814
▁آرام	-1815
▁جمهور	-1816
▁بازاریابی	-1817
▁درو	-1818
▁سالم	-1819
وای	-1820
▁صل	-1821
▁نیم	-1822
▁گسترش	-1823
▁پشتیبانی	-1824
▁۲۰۰	-1825
▁تجارت	-1826
▁فرهنگ	-1827
▁انتقال	-1828
▁ترکیه	-1829
▁تفاوت	-1830
▁۹	-1831
ظر	-1832
▁پاک	-1833
▁ترک	-1834
لیت	-1835
▁قوان	-1836
▁بک	-1837
▁دفا	-1838
▁جدی	-1839
▁دری	-1840
▁کره	-1841
▁مناطق	-1842
ئم	-1843
مز	-1844
▁رفتن	-1845
▁مسائل	-1846
▁پژ	-1847
حل	-1848
▁انسانی	-1849
▁آقای	-1850
▁تازه	-1851
▁پل	-1852
▁J	-1853
▁کجا	-1854
رفی	-1855
رامپ	-1856
▁دانشجوی	-1857
▁b	-1858
▁نقطه	-1859
▁اوقات	-1860
▁کارهای	-1861
▁جدیدی	-1862
ol	-1863
تور	-1864
چار	-1865
ندگی	-1866
▁هند	-1867
▁امریک	-1868
▁ترامپ	-1869
▁15	-1870
▁l	-1871
▁12	-1872
▁متخصص	-1873
اصل	-1874
▁ناب	-1875
▁ران	-1876
خته	-1877
▁اقدام	-1878
▁شخصیت	-1879
000	-1880
▁آتش	-1881
▁قلب	-1882
▁تری	-1883
▁موا	-1884
▁فرزند	-1885
▁مبارزه	-1886
▁خودم	-1887
▁آدم	-1888
▁فلس	-1889
▁تماس	-1890
▁تحلیل	-1891
▁دنیای	-1892
▁هفت	-1893
▁نشانه	-1894
▁نیروهای	-1895
بح	-1896
▁طبق	-1897
▁مهاج	-1898
▁احتمالا	-1899
▁موس	-1900
▁d	-1901
▁اله	-1902
▁قصد	-1903
▁افس	-1904
▁نیروی	-1905
▁یادگیری	-1906
ابق	-1907
▁شبیه	-1908
▁دانست	-1909
▁پژوه	-1910
▁قوانین	-1911
▁ریزی	-1912
▁ساختمان	-1913
▁قدیمی	-1914
▁مجبور	-1915
▁امرو	-1916
▁ایست	-1917
▁مقابل	-1918
▁حز	-1919
▁چقدر	-1920
▁معرفی	-1921
نم	-1922
▁18	-1923
▁گوگل	-1924
▁مشترک	-1925
شناس	-1926
▁بنی	-1927
▁بگوی	-1928
▁تصور	-1929
▁شدت	-1930
سک	-1931
▁صلح	-1932
▁نص	-1933
▁صبح	-1934
▁گذار	-1935
ch	-1936
ولیت	-1937
▁موقعیت	-1938
▁عا	-1939
▁فضای	-1940
▁مستقیم	-1941
▁بشر	-1942
▁گرم	-1943
▁عراق	-1944
▁جستجو	-1945
▁بزرگترین	-1946
▁مای	-1947
▁بازدید	-1948
▁امنی	-1949
▁مقای	-1950
▁اتحادی	-1951
▁درون	-1952
▁سیاه	-1953
▁رسیدن	-1954
▁تض	-1955
▁مقایسه	-1956
▁نکته	-1957
▁».	-1958
▁تاب	-1959
▁عبارت	-1960
ینگ	-1961
▁فصل	-1962
▁چطور	-1963
▁فرامو	-1964
▁اختیار	-1965
رن	-1966
▁دچار	-1967
▁]	-1968
▁کانادا	-1969
▁عدم	-1970
وک	-1971
▁وظ	-1972
▁اعمال	-1973
▁ارزی	-1974
▁علمی	-1975
انیه	-1976
ویزی	-1977
▁اتحادیه	-1978
▁مطالعات	-1979
▁حاصل	-1980
زا	-1981
کنش	-1982
شا	-1983
▁متع	-1984
سیون	-1985
▁تأثیر	-1986
▁راحتی	-1987
▁ى	-1988
▁افزار	-1989
▁معتقد	-1990
▁ضد	-1991
▁بازگشت	-1992
▁میک	-1993
▁فردی	-1994
▁تلفن	-1995
▁همانطور	-1996
وتر	-1997
▁گذاشت	-1998
روت	-1999
▁داری	-2000
▁لباس	-2001
صه	-2002
راب	-2003
گیرد	-2004
▁فا	-2005
▁ژاپ	-2006
▁نداشته	-2007
▁امنیتی	-2008
▁روان	-2009
▁رسمی	-2010
▁مثبت	-2011
▁دانم	-2012
▁مفید	-2013
▁جایگز	-2014
▁رسیده	-2015
▁دوربین	-2016
▁تروری	-2017
▁پد	-2018
▁زده	-2019
▁دسترس	-2020
▁توانم	-2021
▁کمپ	-2022
▁صاد	-2023
▁تلویزی	-2024
▁میتوان	-2025
▁نح	-2026
▁شیر	-2027
▁انداز	-2028
▁دانند	-2029
▁مدا	-2030
ثی	-2031
▁حزب	-2032
▁عامل	-2033
▁حیوان	-2034
▁مشاور	-2035
دهای	-2036
گذ	-2037
وتی	-2038
▁عص	-2039
ay	-2040
▁آس	-2041
▁زد	-2042
▁منب	-2043
and	-2044
عهد	-2045
▁روزانه	-2046
▁علی	-2047
▁اطراف	-2048
▁برج	-2049
▁فراموش	-2050
▁ارزیابی	-2051
جیت	-2052
کرا	-2053
▁متوس	-2054
."	-2055
▁وح	-2056
▁ژن	-2057
▁العاده	-2058
▁امیدوار	-2059
▁شهرو	-2060
▁محققان	-2061
▁رفته	-2062
▁موثر	-2063
▁شناسایی	-2064
▁عرب	-2065
▁نقل	-2066
▁زود	-2067
▁مراقبت	-2068
▁قانونی	-2069
▁دمو	-2070
▁عمی	-2071
▁شش	-2072
▁خودشان	-2073
▁عضو	-2074
▁بمان	-2075
▁دیجیت	-2076
▁درجه	-2077
▁جمعیت	-2078
▁کامپیوتر	-2079
لال	-2080
ئین	-2081
▁اشتراک	-2082
گفت	-2083
▁ذخ	-2084
▁خوردن	-2085
▁چرخ	-2086
▁اسلامی	-2087
▁دش	-2088
آوری	-2089
▁سبک	-2090
▁خاصی	-2091
▁کلاس	-2092
▁دولتی	-2093
▁روح	-2094
▁سرد	-2095
▁دستی	-2096
▁پایه	-2097
هنگی	-2098
▁لحظه	-2099
▁پروت	-2100
▁موتور	-2101
سون	-2102
ent	-2103
▁تعریف	-2104
▁آف	-2105
▁قرآن	-2106
▁هدایت	-2107
▁ریا	-2108
▁زیست	-2109
وزه	-2110
▁حذ	-2111
▁پرواز	-2112
رگی	-2113
▁چال	-2114
▁وزیر	-2115
سیس	-2116
ri	-2117
عده	-2118
▁انگیز	-2119
▁همس	-2120
ستانی	-2121
▁بزرگی	-2122
زهایی	-2123
▁دع	-2124
▁دهم	-2125
▁علت	-2126
▁فوت	-2127
ویه	-2128
▁مطرح	-2129
▁مواجه	-2130
▁افتد	-2131
▁پزشک	-2132
▁دانشجویان	-2133
▁منبع	-2134
▁انقلاب	-2135
لود	-2136
▁امام	-2137
▁چیزهایی	-2138
لاً	-2139
▁فض	-2140
▁دندان	-2141
▁n	-2142
▁شمالی	-2143
▁اگرچه	-2144
اها	-2145
رور	-2146
▁کلمه	-2147
▁نکرده	-2148
▁واکنش	-2149
سیم	-2150
▁فرهنگی	-2151
▁دشم	-2152
▁مؤ	-2153
▁موجب	-2154
▁مبتلا	-2155
▁سازد	-2156
نگی	-2157
▁ضروری	-2158
▁f	-2159
▁تحصیل	-2160
▁ببر	-2161
▁تاک	-2162
▁انتخابات	-2163
رونی	-2164
آی	-2165
▁ـ	-2166
▁ورود	-2167
▁لا	-2168
▁حذف	-2169
▁هوشمند	-2170
عتی	-2171
▁برگزار	-2172
▁نکرد	-2173
انت	-2174
▁جذب	-2175
▁کارت	-2176
▁علائم	-2177
▁پلیس	-2178
▁دفاع	-2179
▁لین	-2180
▁دانلود	-2181
▁تصا	-2182
▁امروزه	-2183
▁ثابت	-2184
▁منح	-2185
▁حوزه	-2186
▁اساسی	-2187
▁واح	-2188
▁بارد	-2189
▁ببینید	-2190
▁ویت	-2191
▁ساختار	-2192
ریب	-2193
▁of	-2194
▁فار	-2195
st	-2196
ورتی	-2197
▁فنا	-2198
یش	-2199
▁a	-2200
▁•	-2201
▁تست	-2202
▁ماده	-2203
▁استاندارد	-2204
▁زیب	-2205
▁متوسط	-2206
▁نگران	-2207
▁عاشق	-2208
رالی	-2209
▁صدای	-2210
▁ترکیب	-2211
ته	-2212
جم	-2213
▁تمای	-2214
▁ثروت	-2215
▁نجات	-2216
گردان	-2217
لند	-2218
▁پسر	-2219
▁روید	-2220
▁ستاره	-2221
▁معنای	-2222
ابقه	-2223
▁بخوان	-2224
▁تنظیم	-2225
روف	-2226
▁St	-2227
▁فرمان	-2228
وران	-2229
▁مخال	-2230
▁آموزشی	-2231
▁محتوای	-2232
▁ترتی	-2233
▁محب	-2234
▁امور	-2235
▁محافظت	-2236
سب	-2237
▁پژوهش	-2238
▁مدرن	-2239
▁اصلاح	-2240
▁بگیرد	-2241
▁حکومت	-2242
▁بدانید	-2243
▁دیدگاه	-2244
▁مسلمان	-2245
▁ظاهر	-2246
▁چالش	-2247
▁پیچیده	-2248
▁ماهی	-2249
راحت	-2250
▁فاصله	-2251
▁شغل	-2252
▁30	-2253
▁دکتر	-2254
▁شع	-2255
▁مرک	-2256
▁فایل	-2257
▁فناوری	-2258
▁شیوه	-2259
ارکت	-2260
▁پذی	-2261
▁دیدن	-2262
▁خواندن	-2263
▁ماد	-2264
▁قبلی	-2265
وص	-2266
▁اپ	-2267
▁ارتش	-2268
سازی	-2269
▁بریت	-2270
▁کاربرد	-2271
▁قاب	-2272
▁مسئول	-2273
▁سق	-2274
وانی	-2275
▁کلیدی	-2276
▁پست	-2277
▁رقابت	-2278
رمان	-2279
▁میش	-2280
غال	-2281
▁قطع	-2282
▁شیمی	-2283
▁لیست	-2284
▁رهبری	-2285
ژن	-2286
▁کشته	-2287
ot	-2288
▁لط	-2289
ra	-2290
وریت	-2291
▁معمولاً	-2292
▁میکن	-2293
▁درمانی	-2294
▁بالای	-2295
▁نگرانی	-2296
▁نخستین	-2297
▁ایت	-2298
▁گاز	-2299
▁شگفت	-2300
ایع	-2301
▁خشونت	-2302
▁خودرو	-2303
ادهای	-2304
▁متوق	-2305
ow	-2306
وح	-2307
▁قرا	-2308
لاگ	-2309
▁مانده	-2310
▁زیبا	-2311
▁همسر	-2312
▁جنوبی	-2313
▁امریکا	-2314
▁آد	-2315
▁آفریق	-2316
▁آورده	-2317
▁متوقف	-2318
▁مقامات	-2319
▁آخر	-2320
▁بای	-2321
▁جالب	-2322
▁ترتیب	-2323
ig	-2324
ut	-2325
▁جزئی	-2326
▁مسئولیت	-2327
▁والد	-2328
▁بتواند	-2329
▁اختص	-2330
▁دانید	-2331
▁گفتند	-2332
▁مهند	-2333
id	-2334
▁وسیله	-2335
▁ملل	-2336
زارت	-2337
▁هشت	-2338
▁مقد	-2339
▁مجاز	-2340
▁عف	-2341
▁پو	-2342
▁جشن	-2343
▁خوشح	-2344
▁ذخیره	-2345
▁مرز	-2346
▁فرآی	-2347
▁199	-2348
▁اين	-2349
iv	-2350
▁بیماران	-2351
▁جایگزین	-2352
شناسی	-2353
▁استرس	-2354
▁مگر	-2355
▁نوز	-2356
▁ول	-2357
رایی	-2358
▁علم	-2359
▁پارک	-2360
▁سرویس	-2361
▁دانشمندان	-2362
un	-2363
▁In	-2364
▁اعتق	-2365
▁ناشی	-2366
▁شماره	-2367
وله	-2368
▁شدم	-2369
▁اینها	-2370
▁عوامل	-2371
▁وزارت	-2372
▁تی	-2373
▁بند	-2374
▁تور	-2375
▁داند	-2376
▁مهمی	-2377
▁اقدامات	-2378
▁منفی	-2379
▁سع	-2380
▁ظرف	-2381
▁قرارد	-2382
▁خدمت	-2383
▁گران	-2384
ایه	-2385
▁عرضه	-2386
▁بزن	-2387
رانی	-2388
▁11	-2389
▁سرز	-2390
▁افتاد	-2391
ur	-2392
گانه	-2393
▁نماید	-2394
▁استرالی	-2395
▁کنی	-2396
▁هوایی	-2397
▁پیرو	-2398
▁محبوب	-2399
▁کشورها	-2400
▁قدر	-2401
▁عمیق	-2402
▁اسلام	-2403
▁نیازهای	-2404
▁جواب	-2405
▁تکرار	-2406
▁اندازی	-2407
ادش	-2408
▁زدن	-2409
▁تقویت	-2410
▁تد	-2411
اظ	-2412
▁دروغ	-2413
▁فرست	-2414
▁موش	-2415
▁باشم	-2416
ec	-2417
▁The	-2418
▁صورتی	-2419
ماز	-2420
▁شویم	-2421
ابان	-2422
▁تصاویر	-2423
▁اخلا	-2424
لس	-2425
يد	-2426
▁نرخ	-2427
▁بالاتر	-2428
▁تاریخی	-2429
جان	-2430
▁فهم	-2431
▁مقا	-2432
▁آوردن	-2433
▁فرآیند	-2434
کاران	-2435
▁رشته	-2436
▁فرزندان	-2437
خش	-2438
▁ارشد	-2439
▁دانیم	-2440
▁نهایی	-2441
▁ایرانی	-2442
ربانی	-2443
▁ملا	-2444
▁تهیه	-2445
▁معرض	-2446
▁خواسته	-2447
▁کف	-2448
▁ذکر	-2449
▁کری	-2450
▁عمر	-2451
▁ایمیل	-2452
میل	-2453
▁کاربر	-2454
▁غرب	-2455
▁سلاح	-2456
▁w	-2457
▁مساف	-2458
▁مشارکت	-2459
▁همواره	-2460
▁کد	-2461
▁مزای	-2462
▁دام	-2463
▁محک	-2464
▁نسل	-2465
▁بله	-2466
▁موضو	-2467
▁پوشش	-2468
▁عملیات	-2469
▁قابلیت	-2470
▁هشد	-2471
راج	-2472
▁نصب	-2473
▁نوشتن	-2474
▁اختصاص	-2475
خصوص	-2476
▁صاح	-2477
▁نفس	-2478
▁کاملاً	-2479
▁کارکنان	-2480
▁عه	-2481
▁مشغ	-2482
داران	-2483
▁e	-2484
ختی	-2485
▁کشتی	-2486
فع	-2487
▁50	-2488
▁برسد	-2489
▁بحران	-2490
▁ناپ	-2491
▁خانم	-2492
▁دسته	-2493
▁مرکزی	-2494
▁هتل	-2495
▁دیجیتال	-2496
▁اطلاعاتی	-2497
▁خلق	-2498
▁دشوار	-2499
▁توی	-2500
▁مند	-2501
▁اعتقاد	-2502
▁دین	-2503
▁طلا	-2504
▁مجد	-2505
▁سالگی	-2506
▁کشاور	-2507
▁بگیرند	-2508
▁جد	-2509
▁حفا	-2510
▁ممن	-2511
▁قبول	-2512
▁چینی	-2513
▁روزنامه	-2514
▁۱۵	-2515
افت	-2516
▁معنا	-2517
▁فیزیکی	-2518
▁دموکرا	-2519
وف	-2520
▁یون	-2521
▁خلاق	-2522
▁اداره	-2523
عیف	-2524
▁100	-2525
سا	-2526
سات	-2527
ter	-2528
▁صند	-2529
▁پار	-2530
▁مي	-2531
▁حیوانات	-2532
ation	-2533
▁زندان	-2534
▁خودمان	-2535
▁والدین	-2536
▁عوض	-2537
▁پرت	-2538
▁روزی	-2539
ag	-2540
▁سگ	-2541
حات	-2542
▁بم	-2543
▁ژو	-2544
▁وعده	-2545
راری	-2546
▁ژاپن	-2547
▁مستقل	-2548
▁محدودیت	-2549
▁غربی	-2550
▁نویسنده	-2551
▁13	-2552
▁تقسیم	-2553
▁احساسات	-2554
اصر	-2555
▁شمار	-2556
جعه	-2557
▁تصوی	-2558
▁واقعاً	-2559
▁تلویزیون	-2560
▁25	-2561
▁اکت	-2562
▁کیل	-2563
▁گردش	-2564
▁استاد	-2565
ذیر	-2566
▁مز	-2567
▁گوشی	-2568
▁کلمات	-2569
قیه	-2570
▁تمایل	-2571
ذی	-2572
▁رایگان	-2573
▁سلامتی	-2574
ورک	-2575
▁الان	-2576
▁زیبایی	-2577
▁مختلفی	-2578
▁مشغول	-2579
▁دفت	-2580
▁قدرتمند	-2581
▁ناخ	-2582
تا	-2583
▁هرچ	-2584
▁واحد	-2585
زو	-2586
▁عی	-2587
▁نظام	-2588
▁داشتم	-2589
▁گاه	-2590
▁علوم	-2591
▁مناف	-2592
▁لحاظ	-2593
▁گذاشته	-2594
▁غل	-2595
شنبه	-2596
▁متر	-2597
▁عین	-2598
▁واب	-2599
▁اقامت	-2600
▁اروپایی	-2601
).	-2602
▁کوه	-2603
▁متحد	-2604
▁مذه	-2605
▁برقرار	-2606
▁X	-2607
▁قا	-2608
▁سرب	-2609
▁کشت	-2610
▁قدم	-2611
▁چنان	-2612
تون	-2613
جمه	-2614
▁16	-2615
▁باره	-2616
▁مخاط	-2617
▁رت	-2618
▁نتوان	-2619
▁آمیز	-2620
▁پناه	-2621
▁تون	-2622
▁خورشید	-2623
▁هشدار	-2624
▁نباشد	-2625
▁خرو	-2626
▁فیس	-2627
▁راهی	-2628
▁فضا	-2629
پیم	-2630
▁جراحی	-2631
زم	-2632
▁آگاهی	-2633
▁تضمین	-2634
▁پیاده	-2635
▁رهبران	-2636
▁طبقه	-2637
▁مار	-2638
▁درس	-2639
▁افزود	-2640
▁دلایل	-2641
غن	-2642
▁نحوه	-2643
▁دقت	-2644
▁ایمان	-2645
▁دادگاه	-2646
ایش	-2647
▁راحت	-2648
▁تایید	-2649
▁استرالیا	-2650
▁فن	-2651
▁تجه	-2652
▁تحریم	-2653
▁اون	-2654
▁خوشحال	-2655
▁تولد	-2656
▁احترام	-2657
▁عربستان	-2658
▁دفتر	-2659
▁تجهیز	-2660
نش	-2661
▁فعلی	-2662
▁قهوه	-2663
▁بودجه	-2664
▁صنعتی	-2665
▁سین	-2666
ویق	-2667
▁آفر	-2668
▁درخت	-2669
▁مکانی	-2670
▁اصل	-2671
▁مصاح	-2672
▁پادش	-2673
یک	-2674
▁رنج	-2675
▁مام	-2676
▁گام	-2677
▁نظارت	-2678
em	-2679
یمان	-2680
▁چگون	-2681
▁تبلیغات	-2682
▁كن	-2683
▁حفاظت	-2684
ــ	-2685
▁طوری	-2686
▁شمال	-2687
▁چگونگی	-2688
▁گم	-2689
▁قربانی	-2690
▁نگ	-2691
▁عادی	-2692
▁مطلب	-2693
اهد	-2694
▁یو	-2695
▁منافع	-2696
▁مصاحبه	-2697
▁شیمیایی	-2698
ul	-2699
▁بست	-2700
▁عجی	-2701
▁بریتانیا	-2702
▁چاپ	-2703
▁بگذارید	-2704
▁14	-2705
▁میدان	-2706
▁g	-2707
وید	-2708
▁جنب	-2709
▁خاک	-2710
▁سبز	-2711
▁خدای	-2712
▁فرای	-2713
▁مخصوص	-2714
▁رح	-2715
▁شهری	-2716
▁امتح	-2717
▁جلسه	-2718
▁فرود	-2719
▁گفتم	-2720
▁منتقل	-2721
▁ترجی	-2722
▁بدهید	-2723
رست	-2724
ادث	-2725
▁طبیعت	-2726
oc	-2727
▁مفه	-2728
▁آیند	-2729
▁الکترونی	-2730
گن	-2731
▁h	-2732
▁شاهد	-2733
▁فروشگاه	-2734
▁گذارد	-2735
▁توجهی	-2736
▁گروهی	-2737
▁بدست	-2738
▁تعط	-2739
▁آشکار	-2740
▁منحصر	-2741
▁امتحان	-2742
▁بیمارستان	-2743
▁اسم	-2744
▁شنا	-2745
▁صحنه	-2746
▁عفونت	-2747
▁نیازمند	-2748
▁رتبه	-2749
▁ون	-2750
▁کلید	-2751
▁ایمنی	-2752
▁ترجمه	-2753
▁بقیه	-2754
▁نشست	-2755
▁جایزه	-2756
▁پیشرفته	-2757
▁آپ	-2758
▁عقب	-2759
▁فلسط	-2760
▁تامین	-2761
▁منتظر	-2762
▁هزاران	-2763
▁جنوب	-2764
▁کارگران	-2765
um	-2766
فانه	-2767
▁نوعی	-2768
▁دعوت	-2769
▁روغن	-2770
حیه	-2771
▁محس	-2772
▁یهودی	-2773
ir	-2774
زل	-2775
▁نقاط	-2776
▁بتوانند	-2777
▁برنده	-2778
▁تقریباً	-2779
بیل	-2780
▁خام	-2781
▁بستگی	-2782
▁۱۲	-2783
▁۳۰	-2784
▁گناه	-2785
▁وبلاگ	-2786
▁نگهداری	-2787
▁ویتامین	-2788
▁مشه	-2789
▁اوایل	-2790
▁تعدادی	-2791
▁فرض	-2792
▁وید	-2793
▁رهبر	-2794
عم	-2795
▁حاف	-2796
▁متم	-2797
▁جذاب	-2798
▁پرسش	-2799
▁اتفاقی	-2800
▁صدا	-2801
▁نوزاد	-2802
▁انتشار	-2803
▁تعهد	-2804
▁متصل	-2805
▁آسمان	-2806
▁جزیره	-2807
▁ارد	-2808
▁اصول	-2809
▁بردن	-2810
▁مقام	-2811
▁حملات	-2812
بد	-2813
▁حتما	-2814
▁توصیف	-2815
بیر	-2816
ونا	-2817
▁بنا	-2818
▁دریایی	-2819
▁اعد	-2820
▁قرم	-2821
▁ژان	-2822
▁رادی	-2823
▁میشود	-2824
▁.»	-2825
▁رز	-2826
▁الهی	-2827
حیح	-2828
▁دستور	-2829
سل	-2830
▁انگل	-2831
اشی	-2832
▁عک	-2833
▁وظی	-2834
▁مهاجرت	-2835
ردگی	-2836
▁روب	-2837
▁سوخت	-2838
▁ملاقات	-2839
یدم	-2840
الیا	-2841
▁پنه	-2842
▁عبور	-2843
▁مایل	-2844
▁سرزمین	-2845
باری	-2846
▁تقا	-2847
▁گذشت	-2848
▁بودیم	-2849
▁کارها	-2850
خر	-2851
▁r	-2852
▁جع	-2853
تناب	-2854
▁هاست	-2855
▁Y	-2856
چسب	-2857
▁اهل	-2858
▁بید	-2859
▁اجتناب	-2860
ess	-2861
راتی	-2862
▁رها	-2863
▁نامیده	-2864
▁بساز	-2865
▁یافتن	-2866
▁مزایای	-2867
▁لند	-2868
▁۱۰۰	-2869
▁کارآ	-2870
▁کانال	-2871
ایق	-2872
▁باغ	-2873
▁پاید	-2874
▁پیروزی	-2875
▁بروز	-2876
▁گیاه	-2877
▁آزمون	-2878
▁نظریه	-2879
▁0	-2880
▁بروید	-2881
▁نیوی	-2882
▁تکنیک	-2883
▁(1	-2884
▁17	-2885
▁آشنا	-2886
▁سختی	-2887
▁مدیران	-2888
▁دهندگان	-2889
▁بب	-2890
▁تئ	-2891
▁فراتر	-2892
▁ارتباطات	-2893
▁in	-2894
▁جنبه	-2895
▁تاکنون	-2896
▁بیت	-2897
▁شهروندان	-2898
زمان	-2899
▁مخالف	-2900
▁وظیفه	-2901
▁میلادی	-2902
▁آبی	-2903
▁بگذ	-2904
▁نشد	-2905
▁ثانیه	-2906
▁خواند	-2907
od	-2908
▁پدید	-2909
▁بهتری	-2910
▁انگیزه	-2911
im	-2912
▁ورز	-2913
▁اصلا	-2914
▁انجمن	-2915
لات	-2916
کلی	-2917
▁نیمه	-2918
▁نیویورک	-2919
▁رست	-2920
▁فرایند	-2921
▁مقاومت	-2922
▁ٔ	-2923
▁فد	-2924
▁اضط	-2925
▁برآ	-2926
ضح	-2927
▁عادت	-2928
▁تشویق	-2929
هم	-2930
اکر	-2931
▁چپ	-2932
▁پخش	-2933
▁درستی	-2934
▁سعودی	-2935
ذیه	-2936
▁بیای	-2937
▁افتاده	-2938
ce	-2939
نتی	-2940
▁جی	-2941
▁تجهیزات	-2942
ابله	-2943
▁حضرت	-2944
▁روست	-2945
▁سرباز	-2946
▁هواپیم	-2947
شنگ	-2948
▁شف	-2949
▁پن	-2950
ظهار	-2951
▁قبلا	-2952
▁اظهار	-2953
▁برسان	-2954
▁تعطیل	-2955
▁جایگاه	-2956
▁متمرکز	-2957
▁مقابله	-2958
▁همانند	-2959
▁ترجیح	-2960
▁شناسی	-2961
▁ادعا	-2962
▁رویکرد	-2963
مولی	-2964
▁فنی	-2965
▁کردید	-2966
▁بیشترین	-2967
راز	-2968
▁سک	-2969
▁ظه	-2970
▁سپت	-2971
▁امسال	-2972
▁معروف	-2973
رایش	-2974
▁آرز	-2975
▁اضافی	-2976
▁بتوانید	-2977
▁قرارداد	-2978
▁طل	-2979
▁تغذیه	-2980
گین	-2981
▁دم	-2982
▁مقر	-2983
▁بطور	-2984
▁فرمود	-2985
امله	-2986
▁لینک	-2987
▁مداوم	-2988
▁بگویید	-2989
▁برخوردار	-2990
▁حو	-2991
▁سام	-2992
▁برچسب	-2993
▁شماست	-2994
▁سؤ	-2995
▁کشد	-2996
▁فرار	-2997
▁آر	-2998
▁شغلی	-2999
▁قرمز	-3000
▁محتوا	-3001
▁جزئیات	-3002
▁خطرناک	-3003
▁زندانی	-3004
▁معمولی	-3005
▁سپتامبر	-3006
▁چربی	-3007
▁چهره	-3008
انو	-3009
▁خیر	-3010
▁توزی	-3011
▁قلبی	-3012
▁چیزهای	-3013
▁سرگر	-3014
ia	-3015
داک	-3016
▁1.	-3017
▁گذر	-3018
▁توزیع	-3019
▁هیجان	-3020
▁بزرگتر	-3021
▁تنهایی	-3022
ئت	-3023
▁امپ	-3024
os	-3025
▁تز	-3026
▁الگ	-3027
▁بدهد	-3028
▁جنبش	-3029
▁عهده	-3030
▁افسردگی	-3031
▁پلا	-3032
▁ریسک	-3033
▁مالک	-3034
▁استان	-3035
▁درگیر	-3036
▁اختلاف	-3037
▁مبل	-3038
▁کرب	-3039
▁برگز	-3040
▁خریداری	-3041
نمایی	-3042
▁دائ	-3043
▁نات	-3044
▁حداک	-3045
▁پذیرش	-3046
ویل	-3047
رافیک	-3048
▁برده	-3049
▁پیوند	-3050
▁رض	-3051
▁تاکید	-3052
▁میکند	-3053
.”	-3054
ثار	-3055
▁شای	-3056
▁فوتبال	-3057
جع	-3058
▁۱۸	-3059
▁اصط	-3060
▁سیاره	-3061
▁بخوانید	-3062
صیلی	-3063
▁ناگه	-3064
▁پذیری	-3065
روم	-3066
▁دقیقا	-3067
▁بهداشت	-3068
▁مالیات	-3069
زیه	-3070
▁سابق	-3071
خواه	-3072
ژانس	-3073
▁امتی	-3074
▁کنفر	-3075
ers	-3076
▁مى	-3077
پیما	-3078
▁بکن	-3079
▁ملت	-3080
▁بدین	-3081
▁ناد	-3082
▁انگلستان	-3083
▁نده	-3084
گذاری	-3085
▁بگویم	-3086
▁هایشان	-3087
▁گرفتند	-3088
▁نماز	-3089
▁اختلال	-3090
▁خیابان	-3091
▁40	-3092
▁فارغ	-3093
▁حافظه	-3094
▁پنهان	-3095
اما	-3096
▁لغ	-3097
جد	-3098
▁سند	-3099
▁اطلاع	-3100
▁بارداری	-3101
▁نیازی	-3102
▁ایتالیا	-3103
ap	-3104
خره	-3105
▁جستجوی	-3106
داشتی	-3107
▁خاور	-3108
▁میوه	-3109
▁همزمان	-3110
▁198	-3111
▁رمز	-3112
▁بیمه	-3113
▁موزه	-3114
▁نمایند	-3115
▁پاکستان	-3116
▁24	-3117
▁ترا	-3118
▁عجیب	-3119
▁پرورش	-3120
▁اعتبار	-3121
▁حاوی	-3122
▁لطفا	-3123
▁نقشه	-3124
▁آورند	-3125
▁دیوار	-3126
▁جاده	-3127
▁هماه	-3128
▁محسوب	-3129
▁اسب	-3130
▁اسک	-3131
▁سنت	-3132
▁واضح	-3133
▁نفو	-3134
▁صحیح	-3135
اکره	-3136
▁مراحل	-3137
▁روزهای	-3138
▁پروتئین	-3139
ومی	-3140
▁بدی	-3141
▁تجزیه	-3142
▁دیدار	-3143
▁برآورد	-3144
▁قتل	-3145
▁سفار	-3146
▁شورای	-3147
▁مذاکره	-3148
▁کشید	-3149
لیم	-3150
اورد	-3151
▁ماج	-3152
▁ممنوع	-3153
ئید	-3154
▁اتص	-3155
▁اشک	-3156
▁مرور	-3157
20	-3158
ولد	-3159
کده	-3160
▁هرچند	-3161
▁کارشناس	-3162
▁حداکثر	-3163
زد	-3164
▁سوء	-3165
▁مجوز	-3166
▁مفهوم	-3167
▁کارهایی	-3168
▁حاک	-3169
▁متقا	-3170
▁کنفرانس	-3171
راض	-3172
▁تفکر	-3173
▁مسیح	-3174
▁مساله	-3175
▁دس	-3176
▁نژ	-3177
فاوتی	-3178
▁آثار	-3179
▁معامله	-3180
▁ضعیف	-3181
▁متعد	-3182
▁یخ	-3183
▁افتخ	-3184
▁خلاصه	-3185
▁استخدام	-3186
▁شوم	-3187
▁موسسه	-3188
▁موضوعات	-3189
▁مصر	-3190
▁دشمن	-3191
▁لندن	-3192
th	-3193
▁صادر	-3194
▁فضایی	-3195
▁واشنگ	-3196
▁نمایید	-3197
▁صادق	-3198
▁موقع	-3199
▁کلیک	-3200
▁فرانس	-3201
▁مبتنی	-3202
▁بخواهید	-3203
▁بیند	-3204
▁بص	-3205
▁بزرگسال	-3206
...]	-3207
▁Goo	-3208
▁انع	-3209
▁آمار	-3210
▁[...]	-3211
▁رانندگی	-3212
▁اپل	-3213
▁ریشه	-3214
▁افکار	-3215
▁ویروس	-3216
▁چهارم	-3217
او	-3218
▁امضا	-3219
▁شانس	-3220
▁نفوذ	-3221
▁ارزان	-3222
▁تهران	-3223
▁واشنگتن	-3224
▁ابتد	-3225
▁بپرس	-3226
▁زودی	-3227
▁تاسیس	-3228
▁بهداشتی	-3229
▁کارشناسی	-3230
▁شور	-3231
▁صبر	-3232
▁بازداشت	-3233
جام	-3234
سور	-3235
▁آهنگ	-3236
▁ببرید	-3237
▁سخنرانی	-3238
ویس	-3239
▁بدتر	-3240
▁سقوط	-3241
▁مذاک	-3242
▁تعامل	-3243
▁براساس	-3244
چی	-3245
▁التح	-3246
▁نیمی	-3247
▁ندارید	-3248
▁پایگاه	-3249
هی	-3250
▁حکم	-3251
▁مطل	-3252
▁نادر	-3253
▁تکمیل	-3254
▁ساختن	-3255
▁کمبود	-3256
▁امتیاز	-3257
قوه	-3258
▁اخی	-3259
▁برداری	-3260
▁v	-3261
وال	-3262
▁۵۰	-3263
▁تمیز	-3264
▁پزشکان	-3265
▁هواپیما	-3266
لاک	-3267
▁60	-3268
▁كرد	-3269
▁اثرات	-3270
▁بالقوه	-3271
▁براد	-3272
▁سنتی	-3273
▁گفتن	-3274
▁همچون	-3275
غم	-3276
▁گری	-3277
▁غیرق	-3278
▁خانگی	-3279
▁کمتری	-3280
▁برداشت	-3281
▁سالانه	-3282
▁آهن	-3283
▁سان	-3284
▁سهام	-3285
▁اخیرا	-3286
▁انداخت	-3287
▁بوک	-3288
▁بپرد	-3289
▁رساند	-3290
▁اخلاقی	-3291
▁اصطلاح	-3292
▁کشاورزی	-3293
رتان	-3294
▁تحمل	-3295
▁وابسته	-3296
▁پایدار	-3297
▁بازسازی	-3298
لت	-3299
▁کات	-3300
▁مراک	-3301
▁نبوده	-3302
▁معماری	-3303
▁کارخانه	-3304
ity	-3305
سیر	-3306
▁دف	-3307
▁بخور	-3308
▁»،	-3309
▁خویش	-3310
▁صاحب	-3311
▁ویدی	-3312
▁مشاوره	-3313
▁دستیابی	-3314
ریح	-3315
▁موب	-3316
▁بازیکن	-3317
▁دارایی	-3318
▁شرک	-3319
▁مذهبی	-3320
▁برجسته	-3321
▁'	-3322
▁An	-3323
▁نزدیکی	-3324
جوان	-3325
▁آنج	-3326
▁برتر	-3327
▁مارس	-3328
▁اکتبر	-3329
▁تدری	-3330
▁عدد	-3331
▁مشهور	-3332
▁مذاکرات	-3333
▁Ch	-3334
gle	-3335
کتری	-3336
▁ندارم	-3337
▁احتمالاً	-3338
▁خشک	-3339
▁سوز	-3340
▁بیدار	-3341
▁تابستان	-3342
▁تأی	-3343
▁حیات	-3344
▁خوشب	-3345
▁آلمانی	-3346
▁پیامبر	-3347
▁ترد	-3348
▁هویت	-3349
لو	-3350
میانه	-3351
▁پادشاه	-3352
▁خاورمیانه	-3353
▁اتم	-3354
▁تخم	-3355
▁عیسی	-3356
▁ماست	-3357
▁نوشید	-3358
▁کیلوم	-3359
▁فو	-3360
▁استقل	-3361
▁نموده	-3362
ack	-3363
▁مناس	-3364
▁آزمایشگاه	-3365
▁جاری	-3366
▁مدتی	-3367
عف	-3368
داد	-3369
نوعی	-3370
▁مانع	-3371
اریس	-3372
▁نابود	-3373
▁مهندسی	-3374
▁چک	-3375
▁حجم	-3376
▁عزی	-3377
▁هاي	-3378
▁چار	-3379
▁طراح	-3380
▁بارها	-3381
▁رضایت	-3382
▁مدارس	-3383
هر	-3384
▁اوا	-3385
▁هور	-3386
▁نوجوان	-3387
▁چش	-3388
▁برگرد	-3389
▁بلاف	-3390
▁دهان	-3391
▁فهرست	-3392
▁ing	-3393
▁آژانس	-3394
▁بلافاصله	-3395
▁Re	-3396
ادار	-3397
▁آمو	-3398
▁دادم	-3399
▁رستوران	-3400
▁بازیکنان	-3401
▁بور	-3402
▁گوشت	-3403
▁گفتگو	-3404
▁غذاهای	-3405
▁سیگار	-3406
▁اولویت	-3407
▁فرانسوی	-3408
▁مول	-3409
▁نوش	-3410
▁بپرداز	-3411
▁کارمندان	-3412
▁کتابخانه	-3413
▁پان	-3414
▁کارگر	-3415
▁گذاران	-3416
ie	-3417
▁خال	-3418
طی	-3419
▁قطعا	-3420
ard	-3421
▁عذ	-3422
▁ارا	-3423
▁سران	-3424
▁انگشت	-3425
▁تأیید	-3426
▁دسامبر	-3427
▁مصنوعی	-3428
▁گویم	-3429
▁تحصیلی	-3430
▁پرونده	-3431
وایی	-3432
▁سادگی	-3433
▁استقلال	-3434
اج	-3435
مالی	-3436
▁شاد	-3437
▁آزار	-3438
▁احتی	-3439
▁ژانویه	-3440
▁and	-3441
▁آدرس	-3442
▁سطوح	-3443
مع	-3444
شای	-3445
▁آیت	-3446
▁محمد	-3447
▁باشگاه	-3448
▁پردازش	-3449
▁یك	-3450
▁2015	-3451
▁شرقی	-3452
▁ایالت	-3453
▁مراسم	-3454
▁نقاشی	-3455
▁دومین	-3456
▁سنگین	-3457
▁پاریس	-3458
بل	-3459
▁+	-3460
▁!!	-3461
▁زا	-3462
▁طال	-3463
▁راهن	-3464
pp	-3465
▁شار	-3466
▁عصر	-3467
▁معی	-3468
▁قالب	-3469
▁انگلیس	-3470
▁چای	-3471
ماتیک	-3472
▁شنبه	-3473
▁صدها	-3474
▁مجله	-3475
▁عمده	-3476
▁پرست	-3477
▁شنیده	-3478
▁صفحات	-3479
▁کشوری	-3480
ate	-3481
ماً	-3482
▁اواخر	-3483
▁Google	-3484
▁ایستگاه	-3485
▁the	-3486
▁میده	-3487
▁عناصر	-3488
▁رویداد	-3489
▁مسابقه	-3490
▁۱۳	-3491
▁شکن	-3492
▁بیست	-3493
▁مجلس	-3494
▁داروهای	-3495
▁تحقیقاتی	-3496
▁نمایشگاه	-3497
▁هایش	-3498
▁معتبر	-3499
▁پنجره	-3500
▁اجرایی	-3501
▁نوامبر	-3502
دهی	-3503
▁دون	-3504
▁سبب	-3505
▁خورده	-3506
▁موبایل	-3507
▁دموکراسی	-3508
رق	-3509
زان	-3510
▁شریک	-3511
▁وحشت	-3512
▁نداریم	-3513
▁همکاران	-3514
۰۰۰	-3515
▁پادا	-3516
▁ژوئن	-3517
▁جاد	-3518
▁خالی	-3519
▁خسته	-3520
▁سرور	-3521
▁مدرک	-3522
▁متخصصان	-3523
▁اوب	-3524
▁دستو	-3525
▁بزنید	-3526
▁جوانان	-3527
سین	-3528
▁مراجعه	-3529
▁جرم	-3530
▁قضا	-3531
▁مرغ	-3532
▁۱۹۹	-3533
▁شفاف	-3534
▁روبرو	-3535
▁اعتراض	-3536
▁افتخار	-3537
▁197	-3538
▁اور	-3539
▁گرا	-3540
▁جنگل	-3541
▁دیدم	-3542
▁مجدد	-3543
▁محکوم	-3544
▁اسپانیا	-3545
▁الکترونیکی	-3546
پار	-3547
▁؟!	-3548
▁آلب	-3549
▁هنری	-3550
▁بیاور	-3551
▁نگاهی	-3552
▁اکث	-3553
▁مردی	-3554
▁ابر	-3555
▁سابقه	-3556
▁مجموع	-3557
▁بیانیه	-3558
▁شهرهای	-3559
av	-3560
پر	-3561
▁خشم	-3562
▁تصاد	-3563
▁هوای	-3564
▁آرامش	-3565
▁یکسان	-3566
▁امیدوارم	-3567
▁کارگردان	-3568
دهم	-3569
▁جور	-3570
▁نزد	-3571
▁رسان	-3572
▁متاس	-3573
▁اثبات	-3574
▁ورزشی	-3575
▁واژه	-3576
▁عدالت	-3577
▁هرگونه	-3578
og	-3579
▁باد	-3580
▁برادر	-3581
▁انتقاد	-3582
▁جلب	-3583
خیر	-3584
▁زخ	-3585
نجی	-3586
▁مخفی	-3587
▁اتصال	-3588
▁بگیری	-3589
گا	-3590
▁عصبی	-3591
▁مربی	-3592
▁هستی	-3593
▁ظرفیت	-3594
▁کمیته	-3595
▁نادیده	-3596
▁کمپانی	-3597
▁فرودگاه	-3598
عش	-3599
▁زنج	-3600
▁متولد	-3601
▁مشکلی	-3602
▁خرد	-3603
▁خروج	-3604
▁آفریقا	-3605
▁طیف	-3606
اقع	-3607
هنی	-3608
▁تیر	-3609
▁مکمل	-3610
▁ارزشمند	-3611
نس	-3612
all	-3613
▁فری	-3614
▁مقدس	-3615
▁منظم	-3616
▁تصویب	-3617
▁اوباما	-3618
▁مجازات	-3619
▁Z	-3620
▁دیپل	-3621
▁وظای	-3622
▁متعلق	-3623
▁کاربردی	-3624
لیلی	-3625
▁زنی	-3626
▁خواستار	-3627
گذار	-3628
▁الی	-3629
▁بافت	-3630
▁وسایل	-3631
▁دختران	-3632
▁2017	-3633
▁نظیر	-3634
▁بینید	-3635
▁ورودی	-3636
▁ترافیک	-3637
▁سریال	-3638
▁دانشکده	-3639
▁وف	-3640
▁Pro	-3641
▁عظیم	-3642
▁ارتباطی	-3643
گاری	-3644
▁غذای	-3645
▁منزل	-3646
▁قهرمان	-3647
ab	-3648
کری	-3649
▁آشپ	-3650
▁ارتقا	-3651
▁روانی	-3652
▁گردید	-3653
وسی	-3654
▁مارک	-3655
▁صنایع	-3656
▁التحصیل	-3657
▁زو	-3658
▁تحول	-3659
▁نهاد	-3660
▁محیطی	-3661
▁مراکز	-3662
▁مسلمانان	-3663
op	-3664
▁حقو	-3665
خا	-3666
ظی	-3667
الم	-3668
▁مبلغ	-3669
▁باتری	-3670
▁بالایی	-3671
▁خوانده	-3672
▁2.	-3673
▁ید	-3674
ماتی	-3675
▁اسن	-3676
▁تحویل	-3677
▁نوشیدنی	-3678
▁غنی	-3679
▁نبرد	-3680
▁بایست	-3681
▁ریاست	-3682
▁ترکیبی	-3683
آور	-3684
▁قی	-3685
▁توق	-3686
▁دیر	-3687
▁طلب	-3688
▁2018	-3689
▁سؤال	-3690
▁مهمترین	-3691
art	-3692
▁ارم	-3693
▁شرق	-3694
▁گشت	-3695
▁عربی	-3696
▁موشک	-3697
صاب	-3698
▁اعدام	-3699
▁بگوید	-3700
▁تجربی	-3701
▁تماشا	-3702
▁منطقی	-3703
▁ناحیه	-3704
▁پاداش	-3705
▁کشیدن	-3706
▁یم	-3707
▁بهشت	-3708
▁پولی	-3709
▁صادرات	-3710
▁۲۵	-3711
سلام	-3712
▁خارجه	-3713
▁کودکی	-3714
نز	-3715
زیک	-3716
▁سهم	-3717
▁بالات	-3718
ine	-3719
▁انف	-3720
▁سرک	-3721
▁سیم	-3722
▁پیر	-3723
▁روزه	-3724
▁مثلا	-3725
▁طالبان	-3726
▁انقلابی	-3727
▁قول	-3728
▁فردا	-3729
▁متفاوتی	-3730
▁کارشناسان	-3731
▁نشود	-3732
انیایی	-3733
▁تأمین	-3734
▁دائمی	-3735
غل	-3736
اردی	-3737
شیدی	-3738
▁منع	-3739
▁کاغ	-3740
▁بازگرد	-3741
▁آلود	-3742
▁جمعی	-3743
▁مسیحی	-3744
▁میکنند	-3745
▁>	-3746
est	-3747
▁آیه	-3748
▁صرفه	-3749
▁تحریک	-3750
▁نوآوری	-3751
▁اي	-3752
▁حادث	-3753
▁لایه	-3754
▁خواستم	-3755
▁درح	-3756
▁ابتلا	-3757
▁بماند	-3758
▁خانوادگی	-3759
ob	-3760
طاف	-3761
▁بفه	-3762
▁بمب	-3763
▁برود	-3764
▁حقوقی	-3765
▁صندلی	-3766
▁جس	-3767
ub	-3768
▁دعا	-3769
▁ظهور	-3770
▁نژاد	-3771
▁ریاضی	-3772
▁چرخه	-3773
▁اخبار	-3774
▁داشتیم	-3775
ge	-3776
ستیک	-3777
شند	-3778
▁عوار	-3779
▁".	-3780
▁رک	-3781
یدند	-3782
▁کاخ	-3783
▁دیابت	-3784
اگر	-3785
نای	-3786
▁کشیده	-3787
▁شرایطی	-3788
دیه	-3789
ندوز	-3790
▁تعادل	-3791
▁کمپین	-3792
▁انعطاف	-3793
▁باکتری	-3794
up	-3795
سول	-3796
▁90	-3797
▁مور	-3798
▁کوین	-3799
▁نیستم	-3800
▁وظایف	-3801
▁سوالات	-3802
واری	-3803
▁معلم	-3804
▁انگار	-3805
▁تعطیلات	-3806
▁استراتژیک	-3807
ct	-3808
ver	-3809
زیت	-3810
▁کفش	-3811
▁آمدن	-3812
▁کنگر	-3813
▁چیزها	-3814
▁فس	-3815
▁قلم	-3816
▁بران	-3817
▁رایج	-3818
▁جانبی	-3819
▁حادثه	-3820
▁کوچکی	-3821
▁استراحت	-3822
▁اذ	-3823
▁راز	-3824
▁لبخ	-3825
▁وجه	-3826
▁ویندوز	-3827
کتور	-3828
▁استث	-3829
▁نویسی	-3830
▁Ne	-3831
▁اکس	-3832
▁رییس	-3833
▁ثروتمند	-3834
غام	-3835
▁۱۱	-3836
▁دهی	-3837
▁کاربری	-3838
تو	-3839
ord	-3840
▁اقی	-3841
▁احتمالی	-3842
ke	-3843
▁آسیا	-3844
▁خواهان	-3845
▁هدیه	-3846
▁بگیریم	-3847
▁برگزاری	-3848
جار	-3849
خورد	-3850
▁اتوم	-3851
▁خلاف	-3852
▁راضی	-3853
▁گرچه	-3854
▁گمان	-3855
ist	-3856
انوس	-3857
▁الم	-3858
▁نقض	-3859
▁گرس	-3860
▁ابزارهای	-3861
▁احم	-3862
▁2016	-3863
▁مهمان	-3864
▁میتواند	-3865
▁تروریستی	-3866
▁راهنمایی	-3867
▁خل	-3868
▁۱۴	-3869
▁وار	-3870
▁وضع	-3871
فل	-3872
▁آفت	-3873
▁سوئ	-3874
▁كند	-3875
▁خطوط	-3876
▁مطابق	-3877
▁مطالب	-3878
▁معامل	-3879
▁سرانجام	-3880
▁21	-3881
▁تعجب	-3882
▁تجدید	-3883
▁مناسبی	-3884
▁بری	-3885
▁خبری	-3886
▁فیلتر	-3887
▁درحالی	-3888
▁حرک	-3889
▁بزرگسالان	-3890
▁حج	-3891
▁واس	-3892
▁تشکر	-3893
▁جامع	-3894
▁شاخص	-3895
▁شوروی	-3896
▁فدرال	-3897
▁خورشیدی	-3898
ive	-3899
▁Sp	-3900
▁تخص	-3901
▁منص	-3902
▁بنیاد	-3903
▁عوارض	-3904
▁کنگره	-3905
کنندگان	-3906
▁کارآفر	-3907
ّت	-3908
میر	-3909
▁De	-3910
▁لم	-3911
▁گربه	-3912
▁نظرات	-3913
▁نماینده	-3914
گنال	-3915
▁شیطان	-3916
▁سیگنال	-3917
ربان	-3918
▁خواهی	-3919
ell	-3920
ازگی	-3921
▁محاس	-3922
▁ناام	-3923
▁گویی	-3924
▁اندکی	-3925
▁|	-3926
گانی	-3927
▁مقی	-3928
▁وام	-3929
▁ذهنی	-3930
▁بازنش	-3931
▁بنویس	-3932
▁پذیرفته	-3933
لیکی	-3934
نوشت	-3935
▁اردو	-3936
▁رمان	-3937
▁کالج	-3938
▁تئوری	-3939
▁دوستی	-3940
▁برگشت	-3941
▁شواهد	-3942
▁الکتری	-3943
▁بگذارد	-3944
▁رع	-3945
▁حساس	-3946
▁عکاسی	-3947
▁فلسفه	-3948
▁استاندار	-3949
ضیه	-3950
▁ناس	-3951
▁جنگی	-3952
▁داعش	-3953
مور	-3954
▁رم	-3955
ارات	-3956
▁196	-3957
▁اتحاد	-3958
if	-3959
▁له	-3960
▁اوک	-3961
▁حدی	-3962
▁مداخ	-3963
▁محاسبه	-3964
ظاه	-3965
چرخ	-3966
▁۴۰	-3967
▁رفع	-3968
▁نفع	-3969
▁تردید	-3970
▁تکامل	-3971
▁مقررات	-3972
▁نقد	-3973
▁علام	-3974
▁نیستید	-3975
▁جغ	-3976
▁عرو	-3977
▁مری	-3978
▁مرده	-3979
▁استعد	-3980
▁الهام	-3981
▁تازگی	-3982
▁معتقدند	-3983
لز	-3984
▁٬	-3985
▁شادی	-3986
▁غیرم	-3987
▁هرچه	-3988
ue	-3989
یلی	-3990
▁ناه	-3991
▁بیاید	-3992
▁بینیم	-3993
▁لبخند	-3994
▁مراقب	-3995
▁پیروی	-3996
▁اضطراب	-3997
▁امکانات	-3998
طرف	-3999
▁Bl	-4000
▁اخترا	-4001
▁سفارش	-4002
▁قضاوت	-4003
▁جداگانه	-4004
▁مأ	-4005
▁رقم	-4006
▁قسم	-4007
▁وقوع	-4008
▁اکثریت	-4009
▁آمریکای	-4010
▁Un	-4011
▁دوز	-4012
▁کاب	-4013
▁دامنه	-4014
▁کیلومتر	-4015
مر	-4016
one	-4017
▁ضعف	-4018
▁پایت	-4019
▁ماموریت	-4020
▁احس	-4021
▁بوی	-4022
▁عقل	-4023
▁آرزو	-4024
▁ثبات	-4025
▁متهم	-4026
▁پارل	-4027
▁اتومبیل	-4028
▁بعدا	-4029
▁داوط	-4030
▁آنقدر	-4031
▁ماندن	-4032
▁اپلیکی	-4033
ht	-4034
▁عط	-4035
گویی	-4036
▁بدهی	-4037
▁خودک	-4038
▁رسانی	-4039
▁داوطلب	-4040
▁آه	-4041
▁گز	-4042
▁تظاه	-4043
▁پیمان	-4044
▁بیایید	-4045
▁سازنده	-4046
▁نمایندگان	-4047
▁Sh	-4048
▁st	-4049
▁مخدر	-4050
▁روزها	-4051
▁ادع	-4052
▁مون	-4053
▁یورو	-4054
▁دادیم	-4055
▁فرصتی	-4056
▁مجازی	-4057
▁خودکار	-4058
▁اینترنتی	-4059
▁80	-4060
▁موقت	-4061
راد	-4062
▁2014	-4063
▁چشمان	-4064
▁یابند	-4065
▁#	-4066
بیت	-4067
پزش	-4068
▁فال	-4069
▁آلودگی	-4070
▁محدوده	-4071
▁بالاخره	-4072
واب	-4073
▁غم	-4074
▁الز	-4075
▁مدار	-4076
com	-4077
ادن	-4078
کید	-4079
▁سم	-4080
افقت	-4081
▁درگیری	-4082
▁رایانه	-4083
▁سرنوشت	-4084
▁موافقت	-4085
▁ناپذیر	-4086
▁تبلیغاتی	-4087
▁جر	-4088
▁سئو	-4089
▁دمای	-4090
▁عمد	-4091
▁استق	-4092
▁اوست	-4093
▁باری	-4094
▁متعهد	-4095
▁مقیاس	-4096
▁موهای	-4097
▁پیوست	-4098
▁استخوان	-4099
▁دای	-4100
▁فول	-4101
▁ویر	-4102
▁بانکی	-4103
▁اپلیکیشن	-4104
ماس	-4105
مره	-4106
▁سرخ	-4107
▁تخصص	-4108
▁تنوع	-4109
▁همگی	-4110
▁رعایت	-4111
▁هنرمند	-4112
OS	-4113
ort	-4114
▁ایمن	-4115
▁فوری	-4116
▁پدرش	-4117
▁اندرو	-4118
▁یادآوری	-4119
▁ردی	-4120
▁جوام	-4121
▁کلیس	-4122
▁تأکید	-4123
زر	-4124
لین	-4125
▁سینه	-4126
▁بهینه	-4127
▁نخواهند	-4128
ير	-4129
اوز	-4130
▁نیک	-4131
▁الکل	-4132
▁الگو	-4133
▁زنند	-4134
▁زودتر	-4135
▁معیار	-4136
▁کنونی	-4137
ill	-4138
است	-4139
▁انح	-4140
▁كار	-4141
▁مخل	-4142
▁حلقه	-4143
▁آمدند	-4144
▁بخواهد	-4145
▁بدترین	-4146
انگ	-4147
▁22	-4148
▁میر	-4149
▁آنتی	-4150
▁روشی	-4151
▁ساحل	-4152
▁بدهند	-4153
▁تفسیر	-4154
▁جلسات	-4155
▁زمینی	-4156
▁Q	-4157
▁شرح	-4158
▁پلت	-4159
▁اسکن	-4160
▁قطعه	-4161
▁ماهواره	-4162
50	-4163
▁۱۶	-4164
▁لغو	-4165
▁کاف	-4166
▁راجع	-4167
▁مسلح	-4168
▁حیاتی	-4169
▁علامت	-4170
▁اقیانوس	-4171
لیک	-4172
▁خن	-4173
▁۱۹۷	-4174
▁جعبه	-4175
▁شکلی	-4176
▁باردار	-4177
▁کارمند	-4178
▁گذارند	-4179
▁تحصیلات	-4180
▁تروریسم	-4181
▁دانشگاهی	-4182
▁متاسفانه	-4183
▁استانداردهای	-4184
يت	-4185
▁Al	-4186
▁حین	-4187
رگانی	-4188
▁ضربه	-4189
▁سرکوب	-4190
▁دستگیر	-4191
▁ناراحت	-4192
▁آک	-4193
▁ین	-4194
کرات	-4195
▁وال	-4196
▁۱۹۸	-4197
▁صندوق	-4198
▁ببینند	-4199
▁بدانند	-4200
▁الکتریکی	-4201
NA	-4202
▁١	-4203
گرام	-4204
▁توپ	-4205
▁شام	-4206
▁موج	-4207
▁جلوی	-4208
▁دیوان	-4209
▁توانستند	-4210
املی	-4211
▁سور	-4212
▁استد	-4213
▁مقالات	-4214
▁نویسندگان	-4215
کب	-4216
▁er	-4217
بیند	-4218
▁فقر	-4219
▁تحقق	-4220
▁جمعه	-4221
▁سالی	-4222
▁مستند	-4223
▁عصبانی	-4224
▁ني	-4225
▁دلاری	-4226
▁فیزیک	-4227
▁معادل	-4228
▁ندهید	-4229
▁3.	-4230
▁آرا	-4231
▁اراده	-4232
▁مواردی	-4233
▁فلسطینی	-4234
خاذ	-4235
▁روس	-4236
▁برزی	-4237
▁تاثی	-4238
▁آورید	-4239
▁اتخاذ	-4240
▁تزریق	-4241
▁ظاهرا	-4242
▁احساسی	-4243
▁غیره	-4244
▁گرفتم	-4245
▁برانگی	-4246
غی	-4247
جویی	-4248
▁شدیم	-4249
▁کلاسی	-4250
▁بپرسید	-4251
▁پایتخت	-4252
▁توانستم	-4253
▁رودخانه	-4254
بو	-4255
▁خبرنگ	-4256
▁روزمره	-4257
▁زنجیره	-4258
▁آوریل	-4259
▁مالکیت	-4260
▁اوکراین	-4261
سایت	-4262
▁روم	-4263
▁زوج	-4264
▁ضبط	-4265
▁ندرت	-4266
ارتمان	-4267
▁ببرد	-4268
▁تصمی	-4269
▁خراب	-4270
▁سایه	-4271
▁اسناد	-4272
▁ببیند	-4273
▁بنیان	-4274
▁تخت	-4275
▁شرط	-4276
▁چاق	-4277
▁بخشد	-4278
▁خنده	-4279
▁ابراز	-4280
▁ببینیم	-4281
▁تماشای	-4282
▁دشمنان	-4283
▁وبسایت	-4284
▁برقراری	-4285
se	-4286
▁1-	-4287
▁ادبی	-4288
▁کت	-4289
نوان	-4290
▁سکوت	-4291
▁کارفر	-4292
▁k	-4293
▁هید	-4294
▁خودت	-4295
▁شکایت	-4296
▁فوریه	-4297
▁السلام	-4298
▁جشنواره	-4299
▁پیشگیری	-4300
فس	-4301
چوب	-4302
▁IP	-4303
▁خلی	-4304
▁قطار	-4305
▁آلوده	-4306
▁راستی	-4307
▁نشسته	-4308
▁کمونی	-4309
▁گذاشتن	-4310
▁راهنمای	-4311
▁کمیسیون	-4312
ect	-4313
ستر	-4314
▁500	-4315
▁عاط	-4316
▁مؤثر	-4317
▁معلوم	-4318
▁چندان	-4319
▁بعنوان	-4320
▁دستورال	-4321
▁y	-4322
▁عر	-4323
ابتی	-4324
تیکی	-4325
▁حسین	-4326
▁جوامع	-4327
▁گیرید	-4328
▁شناختی	-4329
اطر	-4330
▁Con	-4331
▁طرز	-4332
▁معا	-4333
▁کنون	-4334
▁ویزای	-4335
▁هورمون	-4336
▁دبیر	-4337
▁شارژ	-4338
▁ویدئو	-4339
ace	-4340
خاص	-4341
▁70	-4342
▁لات	-4343
▁لوله	-4344
▁روحانی	-4345
▁سازمانی	-4346
▁مرتب	-4347
▁نوشیدن	-4348
▁موجودات	-4349
▁یهودیان	-4350
▁۱۷	-4351
▁توده	-4352
▁کاغذ	-4353
▁اجاره	-4354
▁برایش	-4355
▁استدلال	-4356
▁حسابداری	-4357
ost	-4358
التی	-4359
ولیک	-4360
▁امت	-4361
▁2012	-4362
▁بومی	-4363
▁بکار	-4364
▁هیئت	-4365
▁خودکشی	-4366
▁خوشبخت	-4367
▁پیگیری	-4368
▁خواستند	-4369
▁%	-4370
ضاع	-4371
کسی	-4372
▁HT	-4373
فرنی	-4374
▁نکند	-4375
▁تخمین	-4376
ant	-4377
عمل	-4378
گوی	-4379
▁۶۰	-4380
▁زرد	-4381
▁میکرو	-4382
▁اختراع	-4383
ve	-4384
▁شکر	-4385
ابقات	-4386
▁تجاوز	-4387
▁مسابقات	-4388
ne	-4389
▁194	-4390
▁اته	-4391
▁بهار	-4392
▁بینند	-4393
▁پیشین	-4394
▁مخاطبان	-4395
our	-4396
▁شبه	-4397
▁مشا	-4398
▁اتوب	-4399
▁اسید	-4400
▁جویی	-4401
▁گریه	-4402
▁حقیقی	-4403
▁سرگرم	-4404
▁شکنجه	-4405
▁پرورد	-4406
ast	-4407
▁کالی	-4408
▁تقاضای	-4409
▁زمستان	-4410
▁دستورالعمل	-4411
▁23	-4412
▁جیم	-4413
▁عنصر	-4414
▁ارتفا	-4415
▁نر	-4416
▁دیگه	-4417
▁واکس	-4418
▁بخاطر	-4419
▁مردمی	-4420
▁پرسید	-4421
▁تصویری	-4422
▁کپی	-4423
▁اوضاع	-4424
▁کالری	-4425
▁استخراج	-4426
▁سربازان	-4427
غه	-4428
▁نع	-4429
▁کور	-4430
▁فقیر	-4431
▁کربن	-4432
▁گونا	-4433
▁برایم	-4434
▁حالیکه	-4435
▁مشابهی	-4436
▁حب	-4437
▁اتمی	-4438
▁شکار	-4439
▁اینست	-4440
▁بشناس	-4441
▁دلیلی	-4442
▁مجددا	-4443
▁آمادگی	-4444
سیل	-4445
ونگ	-4446
▁!»	-4447
▁....	-4448
▁مغزی	-4449
▁قطعات	-4450
▁نسبتا	-4451
▁فلسطین	-4452
▁متقاضی	-4453
▁پذیرفت	-4454
▁&	-4455
ind	-4456
▁کاش	-4457
▁استی	-4458
▁توقف	-4459
▁وکار	-4460
▁جنایت	-4461
▁برخلاف	-4462
▁همدیگر	-4463
▁Pl	-4464
▁۲۴	-4465
▁ساکن	-4466
▁سوسی	-4467
▁فکری	-4468
▁پروف	-4469
▁ویدیو	-4470
▁پدیده	-4471
▁آنجایی	-4472
▁اینگونه	-4473
يم	-4474
ومه	-4475
▁2-	-4476
نجان	-4477
▁ضمن	-4478
▁نباشید	-4479
▁SE	-4480
▁معد	-4481
▁باران	-4482
▁میدهد	-4483
▁ژاپنی	-4484
▁جغرافی	-4485
+]	-4486
فون	-4487
▁US	-4488
▁re	-4489
یدان	-4490
▁[+]	-4491
▁رفتم	-4492
▁نماد	-4493
▁اتوبوس	-4494
▁بگوییم	-4495
▁مخالفت	-4496
▁هماهنگی	-4497
وین	-4498
▁بشن	-4499
▁بکشد	-4500
▁دکمه	-4501
▁فریب	-4502
▁ویدئ	-4503
▁عقیده	-4504
▁لبنان	-4505
زات	-4506
▁(2	-4507
▁Cl	-4508
چرخه	-4509
▁سراغ	-4510
▁آلبوم	-4511
▁تخصصی	-4512
▁موافق	-4513
▁دوچرخه	-4514
▁بازارهای	-4515
-]	-4516
ark	-4517
▁36	-4518
▁En	-4519
▁[-]	-4520
▁شعر	-4521
▁مطمئ	-4522
▁اشخاص	-4523
▁اشغال	-4524
▁آنهایی	-4525
▁احتیاج	-4526
ip	-4527
ain	-4528
کیه	-4529
اتور	-4530
▁زای	-4531
▁سوگ	-4532
▁تایل	-4533
▁طلاق	-4534
▁مسکو	-4535
▁کابل	-4536
▁یکپار	-4537
▁مطمئنا	-4538
▁همسایه	-4539
وپ	-4540
قیب	-4541
▁Ad	-4542
▁آشن	-4543
▁مقصد	-4544
▁نظری	-4545
▁کلیه	-4546
▁میزبان	-4547
▁کلاسیک	-4548
ud	-4549
▁خب	-4550
▁رغم	-4551
▁سلط	-4552
▁قند	-4553
▁۱۹۶	-4554
▁باشه	-4555
▁مدنی	-4556
▁کلاه	-4557
▁گردند	-4558
▁خلاقیت	-4559
▁تصمیمات	-4560
▁قرص	-4561
▁مکال	-4562
▁یاری	-4563
▁ماجرا	-4564
▁بازیگر	-4565
▁دریاچه	-4566
▁دموکراتیک	-4567
راکی	-4568
▁امپرات	-4569
▁بخورید	-4570
ّا	-4571
▁عده	-4572
▁نان	-4573
▁2019	-4574
▁تویی	-4575
▁جانب	-4576
▁مهاجر	-4577
▁گیاهان	-4578
▁موتورهای	-4579
ry	-4580
▁صفر	-4581
▁نکات	-4582
▁پنجم	-4583
▁مستقی	-4584
▁رنگی	-4585
▁تخریب	-4586
▁خاطرات	-4587
▁دقیقاً	-4588
▁مرزهای	-4589
▁موسسات	-4590
BA	-4591
▁ۀ	-4592
▁رقص	-4593
▁ناز	-4594
▁بزند	-4595
▁سوار	-4596
▁مبنی	-4597
▁محور	-4598
▁خواهر	-4599
▁رفتند	-4600
▁عاطفی	-4601
▁فاجعه	-4602
▁باستان	-4603
▁تروریست	-4604
▁ناگهانی	-4605
▁تلویزیونی	-4606
ock	-4607
▁جسم	-4608
▁شست	-4609
▁احمق	-4610
▁سبزی	-4611
▁فساد	-4612
برداری	-4613
▁دستمز	-4614
▁پرنده	-4615
▁یونان	-4616
▁طرفداران	-4617
کش	-4618
▁28	-4619
▁Ex	-4620
▁رف	-4621
▁Com	-4622
▁بفر	-4623
▁رده	-4624
▁وضوح	-4625
▁راننده	-4626
▁معاملات	-4627
▁میانگین	-4628
▁نداشتند	-4629
تم	-4630
لر	-4631
▁عظ	-4632
مینی	-4633
▁مؤس	-4634
▁اکسی	-4635
▁حامی	-4636
▁عالم	-4637
▁مداخله	-4638
▁ناگهان	-4639
▁Ar	-4640
▁رأ	-4641
▁تسه	-4642
▁پره	-4643
▁انکار	-4644
▁تسلیم	-4645
▁گواهی	-4646
▁35	-4647
▁آسانی	-4648
▁مادرش	-4649
عیتی	-4650
▁تنگ	-4651
▁حرا	-4652
▁سیل	-4653
▁منف	-4654
▁2013	-4655
▁آشپز	-4656
▁ستون	-4657
▁اتمام	-4658
▁برطرف	-4659
▁مشاغل	-4660
▁ناپدید	-4661
▁استعداد	-4662
▁اعتباری	-4663
▁اشتباهات	-4664
کوپ	-4665
▁دینی	-4666
▁آنگاه	-4667
▁تاریک	-4668
▁مهاجران	-4669
لاس	-4670
ولا	-4671
▁IS	-4672
▁آری	-4673
▁اتو	-4674
▁داره	-4675
▁آفتاب	-4676
▁کلیسا	-4677
▁اشتغال	-4678
▁دانستم	-4679
▁تجربیات	-4680
پا	-4681
راث	-4682
فیف	-4683
▁لمس	-4684
▁یمن	-4685
▁برزیل	-4686
▁گرایی	-4687
▁گردشگری	-4688
▁بج	-4689
ریزی	-4690
▁اشیا	-4691
▁وسیع	-4692
▁گردن	-4693
▁معناست	-4694
▁برایتان	-4695
شب	-4696
▁لذا	-4697
▁پرچ	-4698
▁صوتی	-4699
▁بتوانیم	-4700
▁پارلمان	-4701
▁رفتارهای	-4702
سف	-4703
يل	-4704
ختن	-4705
▁خند	-4706
▁نقص	-4707
▁آفرین	-4708
▁اشکال	-4709
▁استودی	-4710
اخته	-4711
▁خرج	-4712
راسیون	-4713
▁همسرش	-4714
▁سرگرمی	-4715
▁کوچکتر	-4716
ft	-4717
لیپ	-4718
▁فش	-4719
▁جفت	-4720
▁بیفت	-4721
▁دانه	-4722
▁مفاه	-4723
▁کوتاهی	-4724
▁فرستاده	-4725
▁میتوانید	-4726
▁نوجوانان	-4727
io	-4728
end	-4729
رورت	-4730
▁زخم	-4731
▁سرت	-4732
▁سیب	-4733
اهایی	-4734
▁کلام	-4735
▁سازند	-4736
▁سینما	-4737
▁داروها	-4738
▁سالهای	-4739
▁ابتدایی	-4740
▁امریکایی	-4741
▁قربانیان	-4742
؟؟	-4743
ite	-4744
▁اسلحه	-4745
▁تقاضا	-4746
▁سوگند	-4747
▁پروتکل	-4748
▁الگوریت	-4749
ice	-4750
زوئ	-4751
ینا	-4752
▁بت	-4753
▁300	-4754
▁اهدا	-4755
▁درونی	-4756
▁بدانیم	-4757
are	-4758
oun	-4759
بتی	-4760
بوک	-4761
غیر	-4762
▁Tr	-4763
▁عز	-4764
▁جاس	-4765
▁زنگ	-4766
▁کشی	-4767
▁خلیج	-4768
▁عرصه	-4769
▁عزیز	-4770
▁گرای	-4771
▁ببرند	-4772
▁مادرم	-4773
▁اصلاحات	-4774
▁شجا	-4775
▁ملک	-4776
ظیمات	-4777
▁خاموش	-4778
▁ضرورت	-4779
▁واسطه	-4780
▁ونزوئ	-4781
▁فیسبوک	-4782
▁متعددی	-4783
▁تنظیمات	-4784
▁یادداشت	-4785
ضه	-4786
ولای	-4787
▁تسهیل	-4788
▁خطرات	-4789
▁چارچوب	-4790
وگ	-4791
▁Le	-4792
▁رحم	-4793
▁متنوع	-4794
▁هیدرو	-4795
▁اجباری	-4796
ئه	-4797
▁26	-4798
▁وری	-4799
کننده	-4800
▁ادغام	-4801
▁مخصوصا	-4802
▁بالاترین	-4803
pt	-4804
وزی	-4805
کام	-4806
وتری	-4807
▁ابز	-4808
▁تدریس	-4809
▁متعدد	-4810
▁اکسیژن	-4811
▁معلمان	-4812
▁تمرینات	-4813
ore	-4814
ایلی	-4815
▁تنش	-4816
▁حاکم	-4817
▁ماهه	-4818
▁قبلاً	-4819
▁افسانه	-4820
▁انفجار	-4821
▁استقبال	-4822
▁برآورده	-4823
طبی	-4824
نام	-4825
▁سالن	-4826
▁اندیشه	-4827
▁صاحبان	-4828
▁—	-4829
▁on	-4830
▁کر	-4831
▁۸۰	-4832
▁باشی	-4833
▁پدرم	-4834
▁اخلاق	-4835
▁تومور	-4836
▁سخنان	-4837
▁پیروز	-4838
اتل	-4839
رول	-4840
ویم	-4841
▁جوی	-4842
راحتی	-4843
▁حریم	-4844
▁شیرین	-4845
▁فریاد	-4846
▁ناراحتی	-4847
ure	-4848
▁[1	-4849
رایه	-4850
▁بنگ	-4851
▁مزیت	-4852
▁چراغ	-4853
▁شهادت	-4854
▁مسافر	-4855
▁ایتالی	-4856
▁فراوانی	-4857
▁التحصیلان	-4858
برگ	-4859
▁ضر	-4860
▁ابع	-4861
▁تسلی	-4862
▁مایک	-4863
▁ملاح	-4864
▁گواه	-4865
▁عضلات	-4866
▁برساند	-4867
▁رسیدگی	-4868
▁کارآمد	-4869
▁غیرقابل	-4870
ادمی	-4871
▁درب	-4872
▁دلم	-4873
زاینده	-4874
▁برسند	-4875
▁حوادث	-4876
▁دفاعی	-4877
▁وسیعی	-4878
▁مقداری	-4879
▁ایستاده	-4880
▁ایتالیایی	-4881
▁’	-4882
پرس	-4883
▁0.	-4884
ادله	-4885
▁دوی	-4886
▁تعلق	-4887
▁نگار	-4888
▁مثلاً	-4889
▁میراث	-4890
▁ژنتیکی	-4891
▁فزاینده	-4892
ML	-4893
▁27	-4894
▁دز	-4895
▁اوج	-4896
▁جنس	-4897
▁لنز	-4898
▁آیات	-4899
▁مطلق	-4900
▁اخراج	-4901
▁کالیفرنی	-4902
ئیه	-4903
بیا	-4904
راس	-4905
▁45	-4906
▁بشری	-4907
▁بینم	-4908
▁رسند	-4909
▁پوند	-4910
▁دخالت	-4911
▁روایت	-4912
▁نداده	-4913
▁نیستیم	-4914
ff	-4915
شور	-4916
گزار	-4917
▁مجه	-4918
▁مقاد	-4919
▁نظرس	-4920
▁مبنای	-4921
▁ارتفاع	-4922
▁دستمزد	-4923
▁رفتاری	-4924
▁نخواهید	-4925
▁?	-4926
▁_	-4927
دال	-4928
مار	-4929
ویز	-4930
▁فت	-4931
وفان	-4932
▁غال	-4933
▁پری	-4934
▁پیو	-4935
انونی	-4936
▁شنیدن	-4937
▁طلایی	-4938
▁پرتاب	-4939
▁هماهنگ	-4940
▁دستاورد	-4941
▁غی	-4942
▁متق	-4943
▁ربات	-4944
▁شهرد	-4945
▁صلاح	-4946
▁كنند	-4947
▁غالبا	-4948
▁مقادیر	-4949
▁نظرسنجی	-4950
▁غیرقانونی	-4951
▁آو	-4952
▁سنی	-4953
▁متأ	-4954
▁نار	-4955
▁نظم	-4956
▁2011	-4957
▁قایق	-4958
▁مولک	-4959
▁۲۰۱۵	-4960
▁بصورت	-4961
▁بعدها	-4962
▁شرکتی	-4963
▁فیلیپ	-4964
▁ابتدای	-4965
▁بسازید	-4966
▁سازگار	-4967
حق	-4968
age	-4969
▁Th	-4970
ight	-4971
▁دگر	-4972
▁طعم	-4973
▁متش	-4974
▁فورا	-4975
▁حساسی	-4976
▁دریای	-4977
▁رادیو	-4978
▁محاسب	-4979
▁x	-4980
▁آقا	-4981
▁عمق	-4982
▁غلط	-4983
▁کلم	-4984
▁بلوک	-4985
▁سپاس	-4986
▁مرتکب	-4987
▁مکزیک	-4988
▁افزوده	-4989
اقت	-4990
▁تکه	-4991
▁کنه	-4992
▁عذاب	-4993
▁منطق	-4994
▁تظاهرات	-4995
▁توانسته	-4996
▁ونزوئلا	-4997
▁آشپزخانه	-4998
▁Sc	-4999
▁کب	-5000
طانی	-5001
▁اعط	-5002
▁الته	-5003
▁محبت	-5004
▁تأسیس	-5005
▁شبانه	-5006
▁آکادمی	-5007
▁کلیسای	-5008
▁آپارتمان	-5009
▁الگوریتم	-5010
ازده	-5011
▁خطا	-5012
▁مأم	-5013
▁محض	-5014
▁وسط	-5015
▁صدور	-5016
▁قدرد	-5017
▁ببینم	-5018
▁شهرها	-5019
▁آشنایی	-5020
▁شایسته	-5021
▁عبارتند	-5022
▁مشکلاتی	-5023
▁یکپارچه	-5024
▁هنرمندان	-5025
▁سازماندهی	-5026
کوک	-5027
▁هار	-5028
▁ناشن	-5029
▁مسدود	-5030
▁زندانیان	-5031
ربز	-5032
▁معج	-5033
ربزرگ	-5034
▁سرقت	-5035
▁بروند	-5036
▁موضوعی	-5037
▁بازیگران	-5038
▁کامپیوتری	-5039
ib	-5040
▁لای	-5041
▁امّا	-5042
▁قضیه	-5043
▁معدن	-5044
▁نداد	-5045
روسافت	-5046
▁ابعاد	-5047
▁سالها	-5048
▁عملیاتی	-5049
▁گوناگون	-5050
30	-5051
IS	-5052
ld	-5053
▁=	-5054
▁تند	-5055
ادایی	-5056
▁بابت	-5057
▁خالص	-5058
▁سوئد	-5059
▁شهرت	-5060
▁مدارک	-5061
▁توییتر	-5062
▁بگذارند	-5063
▁انتظارات	-5064
▁کشورهایی	-5065
▁روانشناسی	-5066
ire	-5067
اسر	-5068
▁بیاب	-5069
▁توجی	-5070
▁اصلاً	-5071
▁مواقع	-5072
▁سایبری	-5073
▁شهروند	-5074
▁فرماید	-5075
▁مرورگر	-5076
▁مفاهیم	-5077
▁اتفاقات	-5078
▁پروردگار	-5079
بول	-5080
▁اقل	-5081
▁2008	-5082
▁خونی	-5083
▁کتابی	-5084
▁کالیفرنیا	-5085
ak	-5086
يه	-5087
ook	-5088
آگاه	-5089
▁باط	-5090
▁جادو	-5091
▁عموم	-5092
▁میشه	-5093
▁وکیل	-5094
▁سرتاسر	-5095
▁آفریقای	-5096
▁کانادایی	-5097
؟»	-5098
act	-5099
▁نرس	-5100
▁پال	-5101
▁محرک	-5102
▁هلند	-5103
▁گوشه	-5104
▁معدنی	-5105
▁نویسد	-5106
▁بایستی	-5107
▁خودداری	-5108
▁۲۱	-5109
میمی	-5110
▁نیت	-5111
اداری	-5112
▁بیام	-5113
▁شیشه	-5114
▁محکم	-5115
▁سفارت	-5116
▁نکنند	-5117
▁زایمان	-5118
▁فرمانده	-5119
PS	-5120
عکس	-5121
▁HI	-5122
▁تدا	-5123
▁جاب	-5124
▁آیفون	-5125
▁دیوید	-5126
▁ادبیات	-5127
▁دارویی	-5128
▁پردازد	-5129
ass	-5130
فرم	-5131
▁Ph	-5132
ایده	-5133
▁جاذ	-5134
▁جوش	-5135
▁داغ	-5136
▁مسا	-5137
▁وحشی	-5138
▁بدهیم	-5139
▁دانستن	-5140
▁درختان	-5141
▁اسپانیایی	-5142
▁خوشبختانه	-5143
▁بي	-5144
▁يک	-5145
▁رون	-5146
▁وین	-5147
▁گاو	-5148
▁ایفا	-5149
▁جنین	-5150
▁شوهر	-5151
▁قائل	-5152
▁گرما	-5153
▁جدایی	-5154
▁شکسته	-5155
▁متمای	-5156
▁معاصر	-5157
▁ارمغان	-5158
▁تصادفی	-5159
▁متقاعد	-5160
▁پیوسته	-5161
▁برداشته	-5162
▁نتوانست	-5163
یدگی	-5164
▁ائت	-5165
▁تها	-5166
▁شوه	-5167
▁پرچم	-5168
▁معنوی	-5169
▁ندیده	-5170
▁دوشنبه	-5171
▁سریعتر	-5172
▁طراحان	-5173
▁کمونیست	-5174
▁یی	-5175
▁اعل	-5176
▁مجهز	-5177
▁ویزا	-5178
▁حرکات	-5179
▁سومین	-5180
▁لاتین	-5181
▁کارآفرین	-5182
▁جغرافیایی	-5183
ph	-5184
▁بف	-5185
▁قض	-5186
▁”.	-5187
▁باب	-5188
▁گال	-5189
▁2000	-5190
▁تروی	-5191
▁عادل	-5192
▁الگوی	-5193
▁اعتراف	-5194
رفه	-5195
صدی	-5196
قین	-5197
▁to	-5198
زایر	-5199
▁رأی	-5200
▁عسل	-5201
▁قوم	-5202
▁2010	-5203
▁حمام	-5204
▁غلبه	-5205
▁ناتو	-5206
▁پرده	-5207
▁بردار	-5208
▁بوجود	-5209
▁متغیر	-5210
▁هایتان	-5211
تاح	-5212
▁بط	-5213
▁خس	-5214
▁انه	-5215
▁سون	-5216
▁بخصو	-5217
▁دائم	-5218
▁رسول	-5219
▁ابراه	-5220
▁اداری	-5221
▁تبادل	-5222
▁سوئیس	-5223
▁میکنم	-5224
▁افتتاح	-5225
▁اسرائیلی	-5226
اطع	-5227
ایم	-5228
فکر	-5229
مدت	-5230
▁App	-5231
▁باه	-5232
▁صلی	-5233
▁بدهم	-5234
▁سپری	-5235
▁جبران	-5236
▁خیانت	-5237
▁یکبار	-5238
▁فراوان	-5239
▁نبودند	-5240
▁گرسنگی	-5241
▁مایکروسافت	-5242
ang	-5243
برت	-5244
رمانی	-5245
▁کیست	-5246
▁جاذبه	-5247
▁محروم	-5248
▁مخاطب	-5249
▁بگویند	-5250
▁بنویسید	-5251
▁بیاورید	-5252
▁۷۰	-5253
▁مسأ	-5254
▁شاخه	-5255
▁شهید	-5256
▁خروجی	-5257
▁مغازه	-5258
▁ویرایش	-5259
▁هل	-5260
▁!!!	-5261
▁پوی	-5262
▁بروم	-5263
▁پورت	-5264
▁یابی	-5265
▁تایلند	-5266
▁تعهدات	-5267
▁دونالد	-5268
▁برادران	-5269
▁هواپیمای	-5270
▁4.	-5271
▁شایع	-5272
▁اسباب	-5273
▁ارتقاء	-5274
▁نادرست	-5275
ox	-5276
نظ	-5277
ear	-5278
ایر	-5279
▁لز	-5280
▁اگه	-5281
▁سیر	-5282
▁مضر	-5283
▁پور	-5284
▁شعار	-5285
▁ماری	-5286
▁نوار	-5287
▁مالیاتی	-5288
ork	-5289
▁جزو	-5290
▁زلز	-5291
▁تجار	-5292
▁خواص	-5293
▁رفاه	-5294
▁گذرد	-5295
▁خورند	-5296
▁ژوئیه	-5297
▁فروخته	-5298
ّه	-5299
▁$	-5300
▁آذ	-5301
▁آگ	-5302
▁۲۲	-5303
زاده	-5304
▁چوب	-5305
▁بنده	-5306
▁حرارت	-5307
▁سیاستم	-5308
▁فرستاد	-5309
▁سوسیالی	-5310
▁ویدئویی	-5311
▁فرزندتان	-5312
اطی	-5313
عود	-5314
مایی	-5315
گذشت	-5316
▁ضرب	-5317
▁جیمز	-5318
▁مدعی	-5319
▁مسجد	-5320
▁تعمیر	-5321
▁جولای	-5322
▁زلزله	-5323
▁فروشی	-5324
▁آوردند	-5325
▁حساسیت	-5326
▁صبحانه	-5327
▁مربوطه	-5328
▁دیجیتالی	-5329
؟!	-5330
اقد	-5331
وود	-5332
▁HD	-5333
▁تام	-5334
▁بلاک	-5335
▁سرما	-5336
▁فیبر	-5337
▁لیزر	-5338
▁مغذی	-5339
▁بیفتد	-5340
▁خوراکی	-5341
▁خونریزی	-5342
▁Am	-5343
▁عج	-5344
▁اوت	-5345
▁حدس	-5346
▁میخ	-5347
▁کاپ	-5348
▁ترویج	-5349
▁واردات	-5350
▁گیرنده	-5351
▁سبزیجات	-5352
▁نمیتوان	-5353
qu	-5354
ارف	-5355
▁3-	-5356
▁بیا	-5357
▁ساح	-5358
▁قبر	-5359
▁نصف	-5360
▁جسمی	-5361
▁قاره	-5362
▁هایم	-5363
▁خستگی	-5364
▁گیریم	-5365
▁رساندن	-5366
▁ساکنان	-5367
▁مسافرت	-5368
▁مشخصات	-5369
زاب	-5370
▁29	-5371
▁شرم	-5372
▁غری	-5373
مازون	-5374
▁زدند	-5375
▁بداند	-5376
▁داوری	-5377
▁ماهیت	-5378
▁مطلوب	-5379
▁آمازون	-5380
▁مکالمه	-5381
▁پژوهشگران	-5382
".	-5383
عان	-5384
▁گش	-5385
▁بلی	-5386
▁ویل	-5387
▁موان	-5388
▁کوبا	-5389
▁تضعیف	-5390
▁جنسیت	-5391
▁کارکرد	-5392
▁is	-5393
کشان	-5394
▁ضرر	-5395
▁محد	-5396
▁آینه	-5397
▁جدول	-5398
▁خرده	-5399
▁ماسا	-5400
▁مذهب	-5401
▁مسکن	-5402
▁نظرم	-5403
▁نعمت	-5404
▁رسمیت	-5405
▁ممنون	-5406
▁ابراهیم	-5407
▁دانستند	-5408
مپ	-5409
ian	-5410
▁دي	-5411
▁سنج	-5412
▁مکر	-5413
▁۱۹۴	-5414
▁لیبی	-5415
▁موضع	-5416
▁فالون	-5417
▁ناهار	-5418
▁بمانید	-5419
▁تیراند	-5420
▁کارفرمای	-5421
زده	-5422
کین	-5423
▁خلب	-5424
▁پاپ	-5425
▁امان	-5426
▁مرات	-5427
▁خداست	-5428
▁زبانی	-5429
▁فهمید	-5430
▁لوازم	-5431
▁استارت	-5432
مکن	-5433
▁۳۵	-5434
کدام	-5435
ینامه	-5436
▁استع	-5437
▁ستار	-5438
▁ملکه	-5439
▁مهار	-5440
▁فولاد	-5441
▁گویید	-5442
▁بمانند	-5443
▁اختصاصی	-5444
▁پرندگان	-5445
▁گواهینامه	-5446
شو	-5447
▁Te	-5448
▁تمدن	-5449
▁فاقد	-5450
▁واجد	-5451
▁آلرژی	-5452
▁اردوگاه	-5453
▁دندانپزش	-5454
اقب	-5455
شتر	-5456
وطه	-5457
کور	-5458
▁for	-5459
▁تقد	-5460
▁جری	-5461
▁2009	-5462
▁تنفس	-5463
▁حاشی	-5464
▁محاک	-5465
▁نفرت	-5466
▁اعداد	-5467
▁املاک	-5468
▁بکشید	-5469
▁مشتاق	-5470
▁گیاهی	-5471
▁اعتصاب	-5472
▁بنیادی	-5473
▁سامسون	-5474
▁دموکرات	-5475
ust	-5476
رید	-5477
لیس	-5478
▁جبه	-5479
▁۵۰۰	-5480
▁کشتن	-5481
▁کمال	-5482
▁کیلو	-5483
▁بردند	-5484
▁مخلوط	-5485
▁اضطراری	-5486
▁خواننده	-5487
▁قدردانی	-5488
▁نهادهای	-5489
▁رویدادهای	-5490
▁برف	-5491
▁نما	-5492
▁بصری	-5493
▁روحی	-5494
▁بخصوص	-5495
▁مستقر	-5496
▁مشورت	-5497
▁واکسن	-5498
▁پرهیز	-5499
▁حاکمیت	-5500
▁رسیدند	-5501
PN	-5502
ساخت	-5503
وتین	-5504
▁امی	-5505
▁ششم	-5506
▁عاد	-5507
▁2020	-5508
▁روده	-5509
▁فارس	-5510
▁نوری	-5511
▁تاخیر	-5512
▁حاشیه	-5513
▁مالزی	-5514
▁مهمتر	-5515
▁نامزد	-5516
▁پسران	-5517
▁رقابتی	-5518
▁زیرساخت	-5519
پیک	-5520
گهی	-5521
▁As	-5522
▁خوی	-5523
▁سقف	-5524
▁شلو	-5525
▁غول	-5526
▁نوا	-5527
▁سنین	-5528
▁شکاف	-5529
▁مطلع	-5530
▁ناسا	-5531
▁کامی	-5532
▁توجیه	-5533
▁ساعات	-5534
▁اندروید	-5535
▁سامسونگ	-5536
▁مسافران	-5537
oin	-5538
▁Be	-5539
ستری	-5540
▁غرق	-5541
▁محله	-5542
▁نفتی	-5543
▁اندام	-5544
▁بگیرم	-5545
▁فرمول	-5546
▁گرمای	-5547
▁دانشجویی	-5548
▁په	-5549
▁۹۰	-5550
شویی	-5551
▁مهر	-5552
▁۲۰۱۱	-5553
▁آهسته	-5554
▁احزاب	-5555
▁دستان	-5556
▁گفتار	-5557
▁انتهای	-5558
▁نوزادان	-5559
▁ناشناخته	-5560
▁نمایندگی	-5561
▁امپراتوری	-5562
ax	-5563
ome	-5564
▁رب	-5565
▁لزو	-5566
▁کبد	-5567
▁حامل	-5568
ارهایی	-5569
▁مسأله	-5570
▁کهکشان	-5571
▁داستانی	-5572
ّی	-5573
ازن	-5574
نظر	-5575
وریم	-5576
▁ببخ	-5577
▁بوت	-5578
▁بالغ	-5579
▁تلقی	-5580
▁مزمن	-5581
▁۲۰۱۸	-5582
▁بزنند	-5583
▁بیرونی	-5584
▁al	-5585
▁Man	-5586
▁آسم	-5587
▁الف	-5588
▁حسن	-5589
▁بشود	-5590
▁عبدال	-5591
▁گردان	-5592
▁گوییم	-5593
▁دانشجو	-5594
▁کاندید	-5595
▁دوستانه	-5596
▁الکترونیک	-5597
اعت	-5598
سمس	-5599
▁؟»	-5600
▁آرت	-5601
▁لحظ	-5602
▁اختل	-5603
▁تکان	-5604
▁ادرار	-5605
▁بشریت	-5606
▁تئاتر	-5607
▁طوفان	-5608
▁خودروی	-5609
زین	-5610
▁تپ	-5611
ایند	-5612
نایی	-5613
▁HIV	-5614
▁آست	-5615
▁بلو	-5616
▁کنس	-5617
▁کول	-5618
▁جبهه	-5619
▁درسی	-5620
▁الملل	-5621
▁رکورد	-5622
▁مایکل	-5623
▁ائتلاف	-5624
▁اینستا	-5625
▁کارایی	-5626
▁کریسمس	-5627
▁جایگزینی	-5628
10	-5629
آم	-5630
افل	-5631
کسل	-5632
▁195	-5633
▁دود	-5634
▁مداف	-5635
▁۲۰۱۴	-5636
▁فایده	-5637
▁مدیری	-5638
▁پستان	-5639
▁ویتنام	-5640
▁خلاقانه	-5641
ساز	-5642
مود	-5643
▁We	-5644
▁لس	-5645
حدود	-5646
▁خشن	-5647
▁خنک	-5648
ستیکی	-5649
▁آگهی	-5650
▁فراخ	-5651
▁آرامی	-5652
▁خلبان	-5653
▁قلمرو	-5654
▁مشخصی	-5655
▁محافظه	-5656
▁تغییراتی	-5657
▁75	-5658
▁مض	-5659
بورگ	-5660
▁الا	-5661
▁یار	-5662
▁بدنی	-5663
▁فرمت	-5664
▁۲۰۱۳	-5665
ارستان	-5666
▁آموخت	-5667
▁دشواری	-5668
▁پادشاهی	-5669
▁بازرگانی	-5670
ix	-5671
دل	-5672
ode	-5673
▁رؤ	-5674
مانه	-5675
پذیر	-5676
▁2007	-5677
▁برنج	-5678
▁کالا	-5679
▁کردی	-5680
▁برعکس	-5681
▁حقایق	-5682
▁عروسی	-5683
▁میانه	-5684
▁بیاورد	-5685
▁دردناک	-5686
▁ملاحظه	-5687
▁انتخابی	-5688
▁برایشان	-5689
▁خریداران	-5690
)،	-5691
ov	-5692
her	-5693
▁DNA	-5694
▁بره	-5695
▁سرم	-5696
مانند	-5697
▁شانه	-5698
▁بودید	-5699
▁مثبتی	-5700
▁راستای	-5701
▁محدودی	-5702
▁نداشتم	-5703
▁هج	-5704
تیاد	-5705
مندی	-5706
▁زور	-5707
▁گان	-5708
▁سوزی	-5709
▁نیام	-5710
▁اسکات	-5711
▁انیمی	-5712
▁تلفنی	-5713
▁اعتیاد	-5714
▁مهربان	-5715
▁نابودی	-5716
▁برانگیز	-5717
▁فروشنده	-5718
▁وابستگی	-5719
▁٪	-5720
▁Mar	-5721
▁آرژ	-5722
▁جزء	-5723
▁ربط	-5724
▁سید	-5725
▁عام	-5726
▁تبعی	-5727
▁تکیه	-5728
▁دانی	-5729
▁مایع	-5730
▁تجویز	-5731
▁جوانی	-5732
▁بیاموز	-5733
▁متمایز	-5734
▁نمودار	-5735
▁پژوهشی	-5736
▁نیروگاه	-5737
▁اینستاگرام	-5738
ile	-5739
▁IC	-5740
وارد	-5741
▁لیب	-5742
▁نمک	-5743
▁تیره	-5744
▁غافل	-5745
▁کلست	-5746
▁برسید	-5747
▁پیرام	-5748
▁گذران	-5749
▁تاریکی	-5750
▁خودروهای	-5751
iz	-5752
▁Mic	-5753
▁آدمی	-5754
▁توری	-5755
▁رحمت	-5756
▁پاره	-5757
▁پیشرو	-5758
▁دیوانه	-5759
▁چنانچه	-5760
▁کمترین	-5761
▁اینجاست	-5762
▁باستانی	-5763
پت	-5764
▁4-	-5765
▁جک	-5766
▁۱۹۵	-5767
▁بفرو	-5768
▁جراح	-5769
▁شلیک	-5770
▁باهوش	-5771
▁فنجان	-5772
▁موانع	-5773
▁مادران	-5774
▁کارتان	-5775
▁شهرستان	-5776
▁پیشنهادی	-5777
▁خوانندگان	-5778
▁٢	-5779
▁32	-5780
▁اظ	-5781
ress	-5782
▁هندی	-5783
▁آرزوی	-5784
▁تبعیض	-5785
▁قطعاً	-5786
▁امروزی	-5787
▁متحدان	-5788
aw	-5789
▁;	-5790
▁or	-5791
▁400	-5792
▁قطر	-5793
▁قفل	-5794
▁لطف	-5795
▁سخنگ	-5796
▁لزوم	-5797
▁پتان	-5798
▁تشدید	-5799
▁دیروز	-5800
▁معاون	-5801
▁بیکاری	-5802
▁ناامید	-5803
باح	-5804
زام	-5805
برای	-5806
وهای	-5807
▁ثال	-5808
▁لیگ	-5809
▁دیکت	-5810
▁قطعی	-5811
▁نگرش	-5812
▁پروسه	-5813
▁کشتار	-5814
▁ردیابی	-5815
▁محاکمه	-5816
▁شاهزاده	-5817
▁پتانسیل	-5818
▁کلسترول	-5819
▁اختلالات	-5820
▁گیت	-5821
▁اتری	-5822
▁اندک	-5823
▁رزرو	-5824
▁معبد	-5825
▁نشین	-5826
▁زنانی	-5827
▁وادار	-5828
▁تغییری	-5829
▁بازنشستگی	-5830
PA	-5831
پو	-5832
ial	-5833
اهو	-5834
▁5.	-5835
▁an	-5836
کارا	-5837
▁بول	-5838
▁شاع	-5839
▁شون	-5840
▁۱۹۳	-5841
روئید	-5842
▁تأثی	-5843
▁جورج	-5844
▁آگوست	-5845
▁معجزه	-5846
▁درواقع	-5847
▁لهستان	-5848
▁انیمیشن	-5849
▁روستایی	-5850
۲۰	-5851
ont	-5852
ینو	-5853
▁**	-5854
▁انی	-5855
▁باند	-5856
▁شنید	-5857
▁تحمیل	-5858
▁توانی	-5859
▁عمدتا	-5860
▁هیچکس	-5861
▁بینداز	-5862
▁دروازه	-5863
▁همینطور	-5864
وکس	-5865
▁آمی	-5866
▁اسد	-5867
▁ظهر	-5868
▁فرق	-5869
▁2006	-5870
▁دوام	-5871
▁شتاب	-5872
▁غذاها	-5873
▁قضایی	-5874
▁اینطور	-5875
▁ستارگان	-5876
▁همسرتان	-5877
▁پیرامون	-5878
▁دریافتند	-5879
▁يا	-5880
▁Ser	-5881
▁ریز	-5882
▁اذیت	-5883
▁استن	-5884
▁اظها	-5885
▁مستم	-5886
▁ادعای	-5887
▁تخلیه	-5888
▁آرژانت	-5889
▁اروپای	-5890
▁دیپلماتیک	-5891
امپ	-5892
سمه	-5893
چاق	-5894
▁"،	-5895
▁شل	-5896
▁پي	-5897
▁گن	-5898
ماند	-5899
وتیک	-5900
▁سمی	-5901
گزاری	-5902
▁برید	-5903
▁دوری	-5904
▁دیسک	-5905
▁قلعه	-5906
▁بفرست	-5907
▁حتماً	-5908
▁سواری	-5909
▁نقلیه	-5910
▁پنجاه	-5911
▁آموخته	-5912
▁آزمایشی	-5913
DA	-5914
▁زح	-5915
▁پت	-5916
▁مسن	-5917
▁همۀ	-5918
▁تیمی	-5919
▁مارت	-5920
▁مخرب	-5921
▁مشرو	-5922
▁معده	-5923
▁۲۰۱۶	-5924
▁دربار	-5925
▁قیامت	-5926
▁مجسمه	-5927
▁طرفدار	-5928
ros	-5929
وام	-5930
▁le	-5931
▁پیک	-5932
▁تورم	-5933
▁خطاب	-5934
▁نمره	-5935
▁اسرار	-5936
▁برلین	-5937
▁بهانه	-5938
▁شرکای	-5939
▁کربوه	-5940
▁کریست	-5941
▁سفارشی	-5942
▁پلتفرم	-5943
▁بازخورد	-5944
قول	-5945
ویض	-5946
طوری	-5947
▁لرز	-5948
▁وان	-5949
▁کرم	-5950
ivers	-5951
▁اواس	-5952
▁بکند	-5953
▁زانو	-5954
▁مترو	-5955
▁کیسه	-5956
▁ساحلی	-5957
▁قاچاق	-5958
▁مراتب	-5959
ولوژیکی	-5960
▁مواجهه	-5961
▁الزامات	-5962
▁کربوهید	-5963
SA	-5964
xt	-5965
ber	-5966
پرد	-5967
گرم	-5968
▁31	-5969
▁He	-5970
▁تار	-5971
▁دوش	-5972
▁سرپ	-5973
▁دافا	-5974
▁مربع	-5975
▁ابزاری	-5976
▁ترسناک	-5977
▁سلطنتی	-5978
▁میخواه	-5979
▁غیرممکن	-5980
▁وحشتناک	-5981
ED	-5982
ence	-5983
orld	-5984
▁برم	-5985
▁تقل	-5986
▁جین	-5987
▁خات	-5988
▁سطحی	-5989
▁کریم	-5990
▁یقین	-5991
گردانی	-5992
▁اواسط	-5993
▁صرفاً	-5994
▁عواقب	-5995
▁آنهاست	-5996
▁التهاب	-5997
▁کافئین	-5998
▁مسئولان	-5999
ئل	-6000
لم	-6001
خشی	-6002
راگ	-6003
ونزی	-6004
▁اخذ	-6005
▁خرا	-6006
▁مین	-6007
▁نوک	-6008
▁گره	-6009
▁1000	-6010
▁سوره	-6011
▁عکاس	-6012
▁قاضی	-6013
▁برویم	-6014
▁روستا	-6015
▁بهبودی	-6016
▁اندونزی	-6017
▁امیدواریم	-6018
▁تیراندازی	-6019
ide	-6020
oft	-6021
ئون	-6022
جنس	-6023
سکی	-6024
▁بغ	-6025
▁حسی	-6026
▁عهد	-6027
▁نرو	-6028
▁کنج	-6029
▁گنج	-6030
▁انحص	-6031
▁بندر	-6032
▁تابع	-6033
▁ثالث	-6034
▁کارش	-6035
▁اساسا	-6036
▁شماری	-6037
▁فشرده	-6038
▁چراکه	-6039
▁صادقانه	-6040
▁چهارشنبه	-6041
یسم	-6042
▁۴۵	-6043
ایات	-6044
باله	-6045
▁man	-6046
▁کوش	-6047
▁برمی	-6048
▁حاکی	-6049
▁ریزش	-6050
▁ویلی	-6051
▁چرخش	-6052
▁اطاعت	-6053
▁تصادف	-6054
▁خدایی	-6055
▁رابرت	-6056
▁رهایی	-6057
▁روشنی	-6058
▁زباله	-6059
▁راهکار	-6060
▁ماهانه	-6061
▁پایانی	-6062
▁مأموریت	-6063
▁ممنوعیت	-6064
▁کربوهیدرات	-6065
AT	-6066
اع	-6067
ame	-6068
▁خز	-6069
▁سوا	-6070
▁سکه	-6071
▁شکم	-6072
▁وسو	-6073
▁اکتش	-6074
▁بلیط	-6075
▁شباه	-6076
▁ماسک	-6077
▁نفره	-6078
▁اصرار	-6079
▁شورشی	-6080
▁مادری	-6081
▁میشوند	-6082
▁گرفتار	-6083
▁توضیحات	-6084
▁عادلانه	-6085
-1	-6086
MS	-6087
uc	-6088
مث	-6089
▁·	-6090
▁۰	-6091
نون	-6092
ینت	-6093
▁خج	-6094
▁وج	-6095
ــــ	-6096
▁VPN	-6097
▁آند	-6098
▁فرک	-6099
▁پند	-6100
▁زاده	-6101
▁مطاب	-6102
▁ویران	-6103
▁متقابل	-6104
▁یکشنبه	-6105
me	-6106
▁7.	-6107
▁زیان	-6108
▁سیست	-6109
▁Inter	-6110
▁راهبرد	-6111
▁فعالان	-6112
▁مطابقت	-6113
▁بخواهیم	-6114
▁روشنایی	-6115
▁توافقنامه	-6116
چال	-6117
رگان	-6118
وشید	-6119
▁تسل	-6120
▁ستم	-6121
شتیاق	-6122
▁بستر	-6123
▁اشیاء	-6124
▁بپذیر	-6125
▁تعویض	-6126
▁درصدی	-6127
▁کنسول	-6128
▁اشتیاق	-6129
▁صلاحیت	-6130
▁نمودند	-6131
SS	-6132
انا	-6133
دین	-6134
یرت	-6135
▁Wh	-6136
▁ئی	-6137
لانی	-6138
▁ایی	-6139
▁برش	-6140
اطیسی	-6141
نظامی	-6142
▁اولی	-6143
▁اتهام	-6144
▁اکسید	-6145
▁بکنید	-6146
▁تحسین	-6147
▁سردرد	-6148
▁مقاوم	-6149
▁منتقد	-6150
▁گرایش	-6151
▁گلوله	-6152
▁المپیک	-6153
▁سخنگوی	-6154
▁متعادل	-6155
▁اظهارات	-6156
▁تاثیرات	-6157
▁قطعنامه	-6158
▁میزبانی	-6159
▁پلاستیک	-6160
▁آفریقایی	-6161
▁غیرنظامی	-6162
▁کارگردانی	-6163
ري	-6164
ضان	-6165
▁(3	-6166
▁Se	-6167
▁de	-6168
▁مظ	-6169
▁نصی	-6170
▁HTML	-6171
▁ببند	-6172
▁طرفی	-6173
▁نیوز	-6174
▁کنجکا	-6175
▁داشتید	-6176
▁کالاهای	-6177
▁پلاستیکی	-6178
▁."	-6179
▁at	-6180
▁تاپ	-6181
▁یوس	-6182
▁شوخی	-6183
▁اجزای	-6184
▁امواج	-6185
▁اموال	-6186
▁اندیش	-6187
▁داروی	-6188
▁درخشان	-6189
▁درگذشت	-6190
▁رادیویی	-6191
▁عاشقانه	-6192
▁مدیریتی	-6193
ick	-6194
ory	-6195
▁Ac	-6196
▁War	-6197
▁آتی	-6198
▁آواز	-6199
▁خیال	-6200
▁قانع	-6201
اداران	-6202
▁برتری	-6203
▁تخفیف	-6204
▁سندرم	-6205
▁فارسی	-6206
▁ماساژ	-6207
▁نشینی	-6208
▁افزاری	-6209
▁بازتاب	-6210
▁دربارۀ	-6211
▁آگاهانه	-6212
▁استودیو	-6213
▁بخواهند	-6214
زن	-6215
ran	-6216
▁CO	-6217
▁خا	-6218
▁رضا	-6219
▁گور	-6220
▁ایدئ	-6221
▁جلوه	-6222
▁صرفا	-6223
▁ظریف	-6224
▁فورد	-6225
▁معای	-6226
▁متشکل	-6227
▁مسیری	-6228
▁بینایی	-6229
▁جادویی	-6230
▁نگرفته	-6231
▁Univers	-6232
▁اشتباهی	-6233
▁تاریخچه	-6234
▁گردشگران	-6235
▁هواپیمایی	-6236
pe	-6237
per	-6238
▁34	-6239
▁الک	-6240
▁انس	-6241
▁بپی	-6242
▁حبس	-6243
▁ورد	-6244
▁چهل	-6245
باران	-6246
راتور	-6247
▁متاب	-6248
▁مرزی	-6249
▁نوبت	-6250
▁کمکی	-6251
▁قسمتی	-6252
▁ایرلند	-6253
▁تولیدی	-6254
▁سرطانی	-6255
▁مبادله	-6256
▁نسبتاً	-6257
▁پناهندگان	-6258
▁بازدیدکنندگان	-6259
az	-6260
سو	-6261
طو	-6262
صلی	-6263
▁6.	-6264
▁ch	-6265
▁خم	-6266
▁سح	-6267
البی	-6268
بینی	-6269
▁Pre	-6270
▁انق	-6271
▁جهنم	-6272
▁دفعه	-6273
▁فلور	-6274
▁پسند	-6275
▁کشند	-6276
▁فرشته	-6277
▁متناسب	-6278
▁نکردند	-6279
▁هیچگاه	-6280
AN	-6281
yn	-6282
▁j	-6283
مرد	-6284
گرا	-6285
مونی	-6286
▁ادی	-6287
▁هاى	-6288
جویان	-6289
▁مریم	-6290
▁۲۰۱۰	-6291
▁خسارت	-6292
▁شکلات	-6293
▁فقدان	-6294
▁مارکس	-6295
▁همسرم	-6296
▁امارات	-6297
▁عضلانی	-6298
▁تسلیحات	-6299
▁آزمایشات	-6300
▁پاسخگویی	-6301
▁بریتانیایی	-6302
▁5-	-6303
▁۲۳	-6304
▁هکر	-6305
▁کنگ	-6306
▁ابدا	-6307
▁براي	-6308
▁قدیم	-6309
▁مانی	-6310
▁عضویت	-6311
▁نواحی	-6312
▁کجاست	-6313
▁یخچال	-6314
▁بازرسی	-6315
▁جاسوسی	-6316
▁نباشند	-6317
▁همراهی	-6318
▁کارگری	-6319
▁هواداران	-6320
▁پیامدهای	-6321
▁خبرنگاران	-6322
ith	-6323
ool	-6324
شیم	-6325
مید	-6326
▁PC	-6327
▁ed	-6328
▁تث	-6329
▁یت	-6330
ایان	-6331
ولان	-6332
▁هیت	-6333
▁خوشم	-6334
▁زخمی	-6335
▁منتظ	-6336
▁نامش	-6337
▁۲۰۱۲	-6338
▁تربیت	-6339
▁جزایر	-6340
▁زیبای	-6341
▁عظیمی	-6342
▁آفریده	-6343
▁تحولات	-6344
▁دنیایی	-6345
▁خوابیدن	-6346
ug	-6347
ظم	-6348
کال	-6349
علیه	-6350
▁ابد	-6351
▁دبی	-6352
▁برون	-6353
▁تطبی	-6354
▁مجمع	-6355
▁اقلیت	-6356
▁تایمز	-6357
▁سواحل	-6358
▁عادات	-6359
▁فرکانس	-6360
▁ویلیام	-6361
▁پردازند	-6362
▁اختلافات	-6363
ik	-6364
te	-6365
مدان	-6366
ناکی	-6367
▁SEO	-6368
▁الح	-6369
▁توه	-6370
▁قطب	-6371
▁قوا	-6372
▁ناو	-6373
▁گرگ	-6374
▁بوسی	-6375
▁تحرک	-6376
▁شلوغ	-6377
▁ماهر	-6378
▁آنجلس	-6379
▁تصریح	-6380
▁خاطره	-6381
▁محافظ	-6382
▁مرتبه	-6383
▁مهندس	-6384
▁نشستن	-6385
▁بتوانم	-6386
▁شفافیت	-6387
▁وردپرس	-6388
▁بازیابی	-6389
▁مشاوران	-6390
▁توانستیم	-6391
▁میتوانند	-6392
TP	-6393
باع	-6394
▁))	-6395
▁Me	-6396
▁New	-6397
▁انز	-6398
▁دکت	-6399
▁اعضا	-6400
▁متأس	-6401
▁سناری	-6402
▁مشکوک	-6403
▁اندازد	-6404
▁بوسیله	-6405
▁بیایند	-6406
▁دانشمند	-6407
▁جدیدترین	-6408
▁دبیرستان	-6409
▁فروشندگان	-6410
oy	-6411
ash	-6412
iew	-6413
رسد	-6414
▁ارث	-6415
▁شوی	-6416
▁نیا	-6417
▁سپاه	-6418
▁قاتل	-6419
▁مکرر	-6420
▁نامن	-6421
▁امپری	-6422
▁روحیه	-6423
▁زاویه	-6424
▁سنسور	-6425
▁شناسند	-6426
▁انسانها	-6427
▁نخواهیم	-6428
▁استانبول	-6429
EB	-6430
RL	-6431
ly	-6432
اا	-6433
ong	-6434
واک	-6435
▁):	-6436
میتی	-6437
▁Net	-6438
▁باق	-6439
▁بیل	-6440
▁قصه	-6441
واسته	-6442
▁خطای	-6443
▁غریب	-6444
▁قبیل	-6445
▁معتر	-6446
▁نحوی	-6447
▁۲۰۱۷	-6448
▁هرکسی	-6449
▁پاهای	-6450
▁خوشبختی	-6451
▁مخالفان	-6452
َّ	-6453
نال	-6454
کند	-6455
▁سوپ	-6456
▁قوت	-6457
▁مقط	-6458
▁ترور	-6459
▁تهاج	-6460
▁نازی	-6461
▁مستمر	-6462
▁همکار	-6463
▁شناسان	-6464
▁فاکتور	-6465
▁پیوستن	-6466
▁بمباران	-6467
▁محاسبات	-6468
▁وفاداری	-6469
▁متأسفانه	-6470
▁کشاورزان	-6471
▁انتخاباتی	-6472
ترس	-6473
ژیک	-6474
▁48	-6475
▁موی	-6476
▁هری	-6477
▁هیل	-6478
انورد	-6479
بارات	-6480
▁بخواب	-6481
▁زیبات	-6482
▁بالینی	-6483
▁برابری	-6484
▁پیچیدگی	-6485
▁متقاضیان	-6486
▁لپ	-6487
▁۲۷	-6488
▁چسب	-6489
▁قبال	-6490
▁متری	-6491
▁اندوه	-6492
▁سرزنش	-6493
▁قیمتی	-6494
▁مدیره	-6495
▁محبوبیت	-6496
▁مسیحیان	-6497
▁پرداخته	-6498
▁پشتیبان	-6499
IT	-6500
ics	-6501
ish	-6502
لزم	-6503
▁39	-6504
▁ar	-6505
▁تاج	-6506
▁شوک	-6507
رمانه	-6508
▁تایپ	-6509
▁صدمه	-6510
▁قومی	-6511
▁هیچو	-6512
▁پایی	-6513
▁بسازد	-6514
▁مردمان	-6515
▁مستلزم	-6516
▁یادآور	-6517
▁هوشمندانه	-6518
دت	-6519
ail	-6520
▁65	-6521
▁Ed	-6522
روژن	-6523
▁عرا	-6524
▁پله	-6525
▁احاط	-6526
▁تونل	-6527
▁ذرات	-6528
▁مقصر	-6529
▁نانو	-6530
▁تدریج	-6531
▁دیدند	-6532
▁سپرده	-6533
▁منعکس	-6534
▁نگهبان	-6535
▁ناتوانی	-6536
▁پردازنده	-6537
گام	-6538
▁33	-6539
▁Col	-6540
▁ارب	-6541
▁فای	-6542
▁هدر	-6543
▁پیم	-6544
▁آباد	-6545
▁سوری	-6546
▁علیر	-6547
▁پیری	-6548
▁کلین	-6549
▁احاطه	-6550
▁بنشین	-6551
▁تعبیر	-6552
▁راستا	-6553
▁رویای	-6554
▁عبادت	-6555
▁فرمای	-6556
▁نشوید	-6557
▁هیتلر	-6558
▁وقایع	-6559
▁آفرینش	-6560
▁تهدیدات	-6561
▁ریاضیات	-6562
▁امپریالی	-6563
▁معیارهای	-6564
ER	-6565
oh	-6566
اش	-6567
ies	-6568
ولت	-6569
▁8.	-6570
▁AP	-6571
▁سد	-6572
▁وص	-6573
▁And	-6574
▁تلخ	-6575
▁سرن	-6576
▁پمپ	-6577
▁امری	-6578
▁امشب	-6579
▁برقی	-6580
▁علاق	-6581
▁پراک	-6582
▁۲۰۰۰	-6583
▁تهاجمی	-6584
▁تکراری	-6585
▁حیوانی	-6586
▁الگوهای	-6587
▁سازگاری	-6588
▁فرمودند	-6589
AS	-6590
EC	-6591
طر	-6592
كت	-6593
▁193	-6594
▁Mac	-6595
▁One	-6596
▁شری	-6597
▁نحو	-6598
▁پات	-6599
▁افسر	-6600
▁ببری	-6601
▁عروس	-6602
▁كرده	-6603
▁مباح	-6604
▁تاکسی	-6605
▁ترانه	-6606
▁ساعته	-6607
▁شناسد	-6608
▁عراقی	-6609
▁گمراه	-6610
▁اجتماع	-6611
▁اکتشاف	-6612
▁دلایلی	-6613
▁کامیون	-6614
▁انداخته	-6615
▁آرژانتین	-6616
اقض	-6617
کوس	-6618
▁AS	-6619
▁دال	-6620
▁مزر	-6621
▁وصل	-6622
جستان	-6623
▁بورژ	-6624
▁الماس	-6625
▁پارچه	-6626
▁مولکول	-6627
▁بازنشسته	-6628
▁ایدئولوژی	-6629
AC	-6630
▁SS	-6631
▁حش	-6632
▁كم	-6633
▁کپ	-6634
▁دما	-6635
▁اعطا	-6636
▁بقای	-6637
▁دارا	-6638
▁ation	-6639
▁آوریم	-6640
▁ولایت	-6641
▁جنسیتی	-6642
▁شهروندی	-6643
ah	-6644
▁●	-6645
▁گا	-6646
جایی	-6647
▁انب	-6648
▁ذات	-6649
▁غار	-6650
بوعات	-6651
▁تعلی	-6652
▁خلاص	-6653
▁سلطه	-6654
▁شورش	-6655
▁استخر	-6656
▁همجنس	-6657
▁آسیایی	-6658
▁بیگانه	-6659
▁روشهای	-6660
▁مطبوعات	-6661
▁ویدیویی	-6662
ES	-6663
طوب	-6664
▁اِ	-6665
ختری	-6666
▁192	-6667
▁MBA	-6668
▁You	-6669
▁iOS	-6670
▁شرا	-6671
▁صاف	-6672
▁1990	-6673
▁Wind	-6674
▁شباهت	-6675
▁شکستن	-6676
▁نکنیم	-6677
▁گفتیم	-6678
▁کارفرمایان	-6679
غیب	-6680
▁150	-6681
▁ریچ	-6682
▁مرم	-6683
▁همد	-6684
▁پکن	-6685
▁کیه	-6686
▁۱۹۱	-6687
▁ابری	-6688
▁بورس	-6689
▁تسلط	-6690
▁درای	-6691
▁عجله	-6692
▁مدام	-6693
▁نقره	-6694
▁مقدمه	-6695
▁استثنا	-6696
▁بپیوند	-6697
▁معتقدم	-6698
▁هیچوقت	-6699
▁وفادار	-6700
▁یونانی	-6701
▁بالاتری	-6702
▁ترکیبات	-6703
▁گرجستان	-6704
pl	-6705
شیر	-6706
▁II	-6707
▁th	-6708
▁190	-6709
▁بوش	-6710
▁تلس	-6711
▁اشعه	-6712
▁بپذی	-6713
▁رقیب	-6714
▁نفری	-6715
▁هوشی	-6716
▁هیات	-6717
▁یهود	-6718
▁اعصاب	-6719
▁بیستم	-6720
▁ترسیم	-6721
▁متنفر	-6722
▁مرطوب	-6723
▁اهمیتی	-6724
▁تاثیری	-6725
▁کلمبیا	-6726
▁ساختاری	-6727
▁موقعیتی	-6728
▁چشمگیری	-6729
▁أ	-6730
لیف	-6731
▁My	-6732
▁اچ	-6733
▁Res	-6734
▁برن	-6735
▁مغن	-6736
▁کین	-6737
▁حواس	-6738
▁خودی	-6739
▁جانبه	-6740
▁فیلمی	-6741
▁متعال	-6742
▁مزرعه	-6743
▁خدماتی	-6744
▁رسانده	-6745
▁مارتین	-6746
▁نمایان	-6747
▁گزارشی	-6748
▁مستقیما	-6749
▁پروفسور	-6750
▁اعتراضات	-6751
الح	-6752
بای	-6753
▁CD	-6754
راضی	-6755
▁علل	-6756
▁2003	-6757
▁تواف	-6758
▁سفیر	-6759
▁گرده	-6760
▁آشپزی	-6761
▁بخشید	-6762
▁حدودی	-6763
▁دوستش	-6764
▁لحظات	-6765
▁محوطه	-6766
▁همسای	-6767
▁پاسخی	-6768
▁اینقدر	-6769
▁کاتولیک	-6770
▁اقداماتی	-6771
▁ناخواسته	-6772
▁سیاستمداران	-6773
AR	-6774
▁z	-6775
▁ء	-6776
ink	-6777
ree	-6778
▁CR	-6779
ment	-6780
گونی	-6781
▁مید	-6782
▁یان	-6783
اتوری	-6784
▁صعود	-6785
▁برسیم	-6786
▁ترغیب	-6787
▁تطبیق	-6788
▁جالبی	-6789
▁ناخوش	-6790
▁نوآور	-6791
▁دوازده	-6792
▁راهنما	-6793
▁سامانه	-6794
كه	-6795
ایز	-6796
▁((	-6797
▁Wi	-6798
امیه	-6799
پاشی	-6800
▁For	-6801
▁پود	-6802
▁پیت	-6803
▁براى	-6804
▁جعلی	-6805
▁شراب	-6806
▁قیام	-6807
▁محتر	-6808
▁یوگا	-6809
▁تعقیب	-6810
▁تمدید	-6811
▁بخشیدن	-6812
▁کارگاه	-6813
▁واحدهای	-6814
▁اتوماتیک	-6815
▁کارآفرینی	-6816
ult	-6817
آیا	-6818
خیم	-6819
▁..	-6820
▁38	-6821
▁sh	-6822
▁لق	-6823
▁هک	-6824
▁بها	-6825
▁جهش	-6826
▁زنم	-6827
▁قار	-6828
▁ماژ	-6829
▁ناک	-6830
▁2005	-6831
▁نامند	-6832
▁پوتین	-6833
▁پوستی	-6834
▁کاپیت	-6835
▁گرسنه	-6836
▁داشتنی	-6837
▁شخصیتی	-6838
▁قهرمانی	-6839
▁نامناسب	-6840
IN	-6841
حت	-6842
ood	-6843
زید	-6844
یاط	-6845
▁--	-6846
▁Fl	-6847
،000	-6848
▁بدل	-6849
▁عزت	-6850
▁پنت	-6851
▁آشام	-6852
▁آیین	-6853
▁بادی	-6854
▁عینک	-6855
▁غالب	-6856
▁پسرش	-6857
▁آرایش	-6858
▁ژنرال	-6859
▁انگیزی	-6860
▁دلخواه	-6861
▁کارشان	-6862
▁فرآیندهای	-6863
ows	-6864
und	-6865
فیه	-6866
▁زه	-6867
▁مگ	-6868
▁بهم	-6869
▁بینش	-6870
▁مرجع	-6871
▁مریخ	-6872
▁پیتر	-6873
▁پیکر	-6874
▁۲۰۰۹	-6875
▁زیستی	-6876
▁سانتی	-6877
▁غریبه	-6878
▁معکوس	-6879
▁ایالتی	-6880
▁بپردازید	-6881
▁مستقیماً	-6882
▁ورزشکاران	-6883
IC	-6884
يا	-6885
ime	-6886
ram	-6887
▁95	-6888
▁AM	-6889
ائلی	-6890
اهدی	-6891
ستات	-6892
▁Car	-6893
▁خرس	-6894
▁سرش	-6895
▁مصد	-6896
▁وگو	-6897
▁کرا	-6898
▁کرو	-6899
▁خیره	-6900
▁درآم	-6901
▁زیرز	-6902
▁قدری	-6903
▁لوکس	-6904
▁نگیر	-6905
▁کوان	-6906
▁بعداً	-6907
▁دمکرا	-6908
▁ذخایر	-6909
▁مذکور	-6910
▁سودمند	-6911
▁شواهدی	-6912
▁غالباً	-6913
▁مسائلی	-6914
▁گذراند	-6915
▁گرداند	-6916
▁نامحدود	-6917
▁چهارمین	-6918
▁پیشنهادات	-6919
وظ	-6920
ert	-6921
▁55	-6922
ورده	-6923
▁191	-6924
▁ISO	-6925
▁USB	-6926
▁ثان	-6927
▁همت	-6928
▁کوک	-6929
▁ایکس	-6930
▁حرفی	-6931
▁قرون	-6932
▁آماری	-6933
▁تجارب	-6934
▁داران	-6935
▁ناخود	-6936
▁اخیراً	-6937
▁باورند	-6938
▁واگذار	-6939
▁شاگردان	-6940
▁شهرداری	-6941
▁منصفانه	-6942
▁نظامیان	-6943
▁فدراسیون	-6944
عل	-6945
شود	-6946
▁AD	-6947
اتیک	-6948
▁؟؟؟	-6949
▁دفن	-6950
▁رخت	-6951
▁شکی	-6952
▁غزه	-6953
▁محم	-6954
▁نشن	-6955
▁آلات	-6956
▁باطل	-6957
▁عاقل	-6958
▁فلزی	-6959
▁وحدت	-6960
▁یادم	-6961
▁قاعده	-6962
▁نگاری	-6963
▁خدایان	-6964
▁خریدار	-6965
▁نگاران	-6966
▁هنرهای	-6967
▁پوشیده	-6968
▁برداشتن	-6969
▁خوشحالم	-6970
▁دستگیری	-6971
ُر	-6972
اصد	-6973
ذیب	-6974
طئه	-6975
▁[2	-6976
▁en	-6977
فاده	-6978
▁(19	-6979
▁URL	-6980
▁جمل	-6981
▁فاز	-6982
▁چرب	-6983
وهایی	-6984
▁...»	-6985
▁آغوش	-6986
▁زندگ	-6987
▁سازه	-6988
▁شاعر	-6989
▁فرقی	-6990
▁مفصل	-6991
▁منظر	-6992
▁مونت	-6993
▁گونگ	-6994
▁آسیای	-6995
▁ارایه	-6996
▁توطئه	-6997
▁سوالی	-6998
▁آستانه	-6999
▁استوار	-7000
▁تلسکوپ	-7001
▁گرفتیم	-7002
▁بایگانی	-7003
▁بپردازد	-7004
▁بیاورند	-7005
▁خوشحالی	-7006
▁کودکانی	-7007
▁مغناطیسی	-7008
▁ناخودآگاه	-7009
org	-7010
ual	-7011
راخ	-7012
روش	-7013
▁AC	-7014
لیون	-7015
▁انص	-7016
▁سار	-7017
▁فرش	-7018
▁گیج	-7019
رسانی	-7020
▁اینچ	-7021
▁بطری	-7022
▁ارگانی	-7023
▁پیروان	-7024
▁گناهان	-7025
▁شرکتهای	-7026
خل	-7027
ond	-7028
▁AR	-7029
▁Pr	-7030
▁it	-7031
▁رگ	-7032
ical	-7033
▁بیه	-7034
▁جسد	-7035
▁هرد	-7036
▁اندی	-7037
▁تفری	-7038
▁مایه	-7039
▁اعزام	-7040
▁برجام	-7041
▁ستایش	-7042
▁سلولی	-7043
▁پذیرد	-7044
▁انتقادی	-7045
▁انگشتان	-7046
▁خبرنگار	-7047
▁مبارزات	-7048
▁بپردازند	-7049
NS	-7050
ake	-7051
بند	-7052
ثری	-7053
▁85	-7054
▁com	-7055
▁آلی	-7056
▁جون	-7057
▁صدر	-7058
▁بنوی	-7059
▁حیرت	-7060
▁رویه	-7061
▁سوپر	-7062
▁فراز	-7063
▁مدال	-7064
▁World	-7065
▁اوراق	-7066
▁ببریم	-7067
▁شدیدی	-7068
▁موردی	-7069
▁انتقام	-7070
▁بیوتیک	-7071
▁حامیان	-7072
▁روستای	-7073
▁پرسیده	-7074
▁محرمانه	-7075
▁پروفایل	-7076
▁کلینتون	-7077
▁سازندگان	-7078
ID	-7079
TS	-7080
پس	-7081
کم	-7082
رفت	-7083
ناع	-7084
▁چت	-7085
▁۲۶	-7086
▁تپه	-7087
▁خطی	-7088
▁هول	-7089
▁هیپ	-7090
▁سوئی	-7091
▁صریح	-7092
▁كنید	-7093
▁مقطع	-7094
▁نوین	-7095
▁گارد	-7096
راجویی	-7097
▁سکونت	-7098
▁صداقت	-7099
▁ماجراجویی	-7100
ردی	-7101
فیق	-7102
منت	-7103
▁MS	-7104
▁۲۸	-7105
ower	-7106
خواب	-7107
سانس	-7108
موزی	-7109
▁جیب	-7110
▁فلز	-7111
▁پخت	-7112
▁روبه	-7113
▁هدفی	-7114
▁تدوین	-7115
▁تعلیم	-7116
▁حرکتی	-7117
▁فرانک	-7118
▁نابرا	-7119
▁نشریه	-7120
▁یابید	-7121
▁حاملگی	-7122
▁پوشیدن	-7123
▁آزادانه	-7124
▁رانندگان	-7125
▁هواپیماهای	-7126
ضع	-7127
ضل	-7128
ign	-7129
حاف	-7130
▁قم	-7131
اپور	-7132
▁Air	-7133
▁بوس	-7134
▁دفع	-7135
▁فاش	-7136
▁کیت	-7137
▁1980	-7138
▁Home	-7139
▁آرشی	-7140
▁غبار	-7141
▁مادی	-7142
▁مختص	-7143
▁پنیر	-7144
▁یوسف	-7145
▁بنزین	-7146
▁شجاعت	-7147
▁مباحث	-7148
▁محتوی	-7149
▁معقول	-7150
▁وسوسه	-7151
▁خشمگین	-7152
▁پرستار	-7153
▁فیلیپین	-7154
▁بازگرداندن	-7155
أت	-7156
خب	-7157
مم	-7158
ریس	-7159
سله	-7160
,000	-7161
الله	-7162
الیز	-7163
رایم	-7164
میلی	-7165
واهی	-7166
▁صهی	-7167
▁وحش	-7168
انداز	-7169
▁آخرت	-7170
▁اثرب	-7171
▁جاود	-7172
▁دستش	-7173
▁شیعه	-7174
▁شیوع	-7175
▁عذرخ	-7176
▁بخرید	-7177
▁توهین	-7178
▁خاتمه	-7179
▁خجالت	-7180
▁سلسله	-7181
▁شدگان	-7182
▁شمشیر	-7183
▁ماژول	-7184
▁اقدامی	-7185
▁عذرخواهی	-7186
▁آزمایشگاهی	-7187
▁قراردادهای	-7188
زون	-7189
ویچ	-7190
▁IT	-7191
ایتی	-7192
فتگی	-7193
▁WEB	-7194
▁دند	-7195
▁قبی	-7196
▁قرض	-7197
▁۳۰۰	-7198
رامتر	-7199
▁2004	-7200
▁رویا	-7201
▁زحمت	-7202
▁شورا	-7203
▁شیعی	-7204
▁قاطع	-7205
▁متدا	-7206
▁مختل	-7207
▁همیش	-7208
▁استعم	-7209
▁موزیک	-7210
▁کنسرت	-7211
▁دستیار	-7212
▁آسانسور	-7213
▁مسیرهای	-7214
▁مهندسان	-7215
▁پارامتر	-7216
▁استثنایی	-7217
▁تابستانی	-7218
▁ساختمانی	-7219
▁کیلومتری	-7220
ok	-7221
نل	-7222
وات	-7223
▁37	-7224
▁اکر	-7225
▁تال	-7226
▁عطر	-7227
▁کمر	-7228
▁بنظر	-7229
▁تضاد	-7230
▁سرنگ	-7231
▁فرشت	-7232
▁معین	-7233
▁پویا	-7234
▁تلاشی	-7235
▁دایره	-7236
▁مقاصد	-7237
▁کوانت	-7238
▁گرافی	-7239
▁افراطی	-7240
▁افزونه	-7241
▁بیانگر	-7242
▁خوانند	-7243
▁شنوایی	-7244
▁لیبرال	-7245
▁معاهده	-7246
▁هرکدام	-7247
▁بردارید	-7248
▁فروپاشی	-7249
▁متخصصین	-7250
▁99	-7251
▁يك	-7252
▁۲٫	-7253
شایی	-7254
عهده	-7255
پورت	-7256
پولی	-7257
▁ادا	-7258
▁تحق	-7259
▁عید	-7260
▁هلی	-7261
▁کیک	-7262
ربایج	-7263
▁نقشی	-7264
▁هرکس	-7265
▁کاشت	-7266
▁کروم	-7267
▁گویا	-7268
▁بدیهی	-7269
▁جریمه	-7270
▁دفاتر	-7271
▁ظاهری	-7272
▁عقاید	-7273
▁گالری	-7274
▁ابتکار	-7275
▁تهدیدی	-7276
▁خداحاف	-7277
▁چشمگیر	-7278
▁آذربایج	-7279
▁انداختن	-7280
▁بشناسید	-7281
▁پنجشنبه	-7282
▁ساختارهای	-7283
ase	-7284
vel	-7285
ندم	-7286
▁44	-7287
▁64	-7288
▁On	-7289
▁ro	-7290
▁تگ	-7291
ount	-7292
▁(1)	-7293
▁600	-7294
▁pro	-7295
▁بلا	-7296
▁رصد	-7297
▁محو	-7298
▁گیم	-7299
انهای	-7300
▁رویم	-7301
▁بارسل	-7302
▁بلژیک	-7303
▁تعلیق	-7304
▁ریخته	-7305
▁ببخشید	-7306
▁تاکتیک	-7307
▁جذابیت	-7308
▁مارکسی	-7309
▁احمقانه	-7310
▁بلندمدت	-7311
▁بگذاریم	-7312
▁فراخوان	-7313
▁فرشتگان	-7314
▁مادربزرگ	-7315
▁اقتصاددان	-7316
يس	-7317
▁‘	-7318
▁IB	-7319
▁اى	-7320
▁بچ	-7321
▁لع	-7322
عامل	-7323
ویید	-7324
▁تشن	-7325
▁منش	-7326
▁واژ	-7327
سولین	-7328
▁بجای	-7329
▁جاوا	-7330
▁کارل	-7331
▁۲۰۰۸	-7332
▁امضای	-7333
▁بکشند	-7334
▁تثبیت	-7335
▁تقلید	-7336
▁تکذیب	-7337
▁دختری	-7338
▁متحرک	-7339
▁مقرون	-7340
▁مناطقی	-7341
▁انسولین	-7342
▁برسانند	-7343
▁برسانید	-7344
▁مدیرعامل	-7345
كن	-7346
ank	-7347
اهم	-7348
اپی	-7349
وشی	-7350
▁(4	-7351
▁اَ	-7352
▁رج	-7353
▁قف	-7354
تیشن	-7355
فورد	-7356
▁120	-7357
▁اردن	-7358
▁حرام	-7359
▁سانت	-7360
▁صلیب	-7361
▁فرقه	-7362
▁مناق	-7363
▁نوبل	-7364
گیرانه	-7365
▁تأخیر	-7366
▁تناسب	-7367
▁نرمال	-7368
▁همگان	-7369
▁تصمیمی	-7370
▁مسیحیت	-7371
▁همیشگی	-7372
▁گازهای	-7373
▁گرافیک	-7374
▁گردیده	-7375
▁بیانداز	-7376
▁رمزگذاری	-7377
ِی	-7378
pen	-7379
ائو	-7380
▁Im	-7381
▁PS	-7382
▁ad	-7383
همان	-7384
▁بلد	-7385
▁جاه	-7386
▁فاط	-7387
اندان	-7388
▁انها	-7389
▁بخار	-7390
▁نازل	-7391
▁نگفت	-7392
▁کافه	-7393
خوردگی	-7394
▁انبوه	-7395
▁بنابر	-7396
▁بکنند	-7397
▁شناسم	-7398
▁قبیله	-7399
▁پیشتر	-7400
▁پیغام	-7401
▁تفاوتی	-7402
▁نشانگر	-7403
▁اعلامیه	-7404
▁دانمارک	-7405
▁رویاهای	-7406
▁خبرگزاری	-7407
▁نوآورانه	-7408
▁همکارانش	-7409
MA	-7410
ll	-7411
ild	-7412
فره	-7413
▁]]	-7414
▁دغ	-7415
▁کج	-7416
▁Ste	-7417
▁آوی	-7418
▁زدم	-7419
▁لکه	-7420
▁مات	-7421
▁مبه	-7422
▁ناق	-7423
نگاری	-7424
▁القا	-7425
▁امیر	-7426
▁هشتم	-7427
▁انبار	-7428
▁تعرفه	-7429
▁دیدیم	-7430
▁عجیبی	-7431
▁مدافع	-7432
▁سفرهای	-7433
▁نرسیده	-7434
▁گروگان	-7435
▁Windows	-7436
▁رمزنگاری	-7437
▁داوطلبانه	-7438
IP	-7439
پک	-7440
man	-7441
▁Sk	-7442
کاگو	-7443
▁202	-7444
▁آنت	-7445
▁رسم	-7446
▁مکت	-7447
▁میت	-7448
▁کیم	-7449
▁خنثی	-7450
▁خیاب	-7451
▁صمیم	-7452
▁چاقی	-7453
▁کلان	-7454
▁۲۰۱۹	-7455
انیاهو	-7456
▁اسپرم	-7457
▁بسپار	-7458
▁مؤسسه	-7459
▁نکردم	-7460
▁پاییز	-7461
▁کاملی	-7462
▁کنوان	-7463
▁خواندم	-7464
▁شناسیم	-7465
▁شیکاگو	-7466
▁وضعیتی	-7467
▁چندانی	-7468
▁یافتند	-7469
▁انحصاری	-7470
▁دستورات	-7471
▁رونمایی	-7472
▁فضانورد	-7473
▁محتوایی	-7474
▁کنوانسیون	-7475
▁دستاوردهای	-7476
Fi	-7477
جت	-7478
طب	-7479
روح	-7480
منین	-7481
▁Red	-7482
▁زشت	-7483
▁مرج	-7484
اهدات	-7485
وستون	-7486
▁Play	-7487
▁خالق	-7488
▁خدمه	-7489
▁ساکت	-7490
▁قفسه	-7491
▁ناخن	-7492
▁کاوش	-7493
▁گرین	-7494
▁آمدید	-7495
▁تصفیه	-7496
▁زنبور	-7497
▁نشوند	-7498
▁ظاهراً	-7499
▁مفهومی	-7500
▁نوزدهم	-7501
▁اردوغان	-7502
▁دادستان	-7503
▁سنگاپور	-7504
▁نتانیاهو	-7505
▁نتوانسته	-7506
yst	-7507
سری	-7508
اگون	-7509
ویری	-7510
▁ترو	-7511
▁دغد	-7512
▁سحر	-7513
▁Comp	-7514
▁اسکی	-7515
▁افشا	-7516
▁جواه	-7517
▁شجاع	-7518
▁نسبی	-7519
▁نواز	-7520
▁هراس	-7521
▁هندو	-7522
▁پلاس	-7523
▁پلاگ	-7524
▁چوبی	-7525
وگرافی	-7526
▁سوزان	-7527
▁فرضیه	-7528
▁کاراک	-7529
▁خاندان	-7530
▁فضاهای	-7531
▁متداول	-7532
▁دوستانم	-7533
▁نداشتیم	-7534
▁میخواهید	-7535
▁ة	-7536
oud	-7537
کات	-7538
▁مُ	-7539
▁وک	-7540
راست	-7541
راکم	-7542
▁Med	-7543
▁بقا	-7544
▁بلغ	-7545
▁تگز	-7546
▁شفا	-7547
▁لبه	-7548
▁فیلس	-7549
▁جرایم	-7550
▁دردسر	-7551
▁ضربان	-7552
▁پیامی	-7553
▁برعهده	-7554
▁دگرگون	-7555
▁سالگرد	-7556
▁علیرغم	-7557
▁مرگبار	-7558
▁منظومه	-7559
▁برگردان	-7560
▁پراکنده	-7561
▁بازگردان	-7562
▁University	-7563
co	-7564
▁کُ	-7565
اصره	-7566
رادی	-7567
▁حرم	-7568
▁لاک	-7569
▁همب	-7570
▁بازه	-7571
▁بشکه	-7572
▁بعید	-7573
▁تانک	-7574
▁وقفه	-7575
▁۲۰۰۵	-7576
rosoft	-7577
▁بغداد	-7578
▁ترمیم	-7579
▁توازن	-7580
▁خواهش	-7581
▁خورید	-7582
▁لطفاً	-7583
▁مبارک	-7584
▁مجاهد	-7585
▁محترم	-7586
▁ناخال	-7587
▁نبودم	-7588
▁نکردن	-7589
▁کشورش	-7590
▁ارزهای	-7591
▁اقلیمی	-7592
▁جانسون	-7593
▁جسمانی	-7594
▁خودروس	-7595
▁پرسیدم	-7596
▁بازیافت	-7597
▁برگزیده	-7598
ِن	-7599
ath	-7600
ous	-7601
▁۶۵	-7602
▁بام	-7603
▁مود	-7604
▁Inst	-7605
▁اینک	-7606
▁بستن	-7607
▁ربود	-7608
▁سنگی	-7609
▁ملحق	-7610
▁نامز	-7611
▁هالی	-7612
▁اذعان	-7613
▁تبریک	-7614
▁تداوم	-7615
▁تگزاس	-7616
▁روبات	-7617
▁فروخت	-7618
▁قواعد	-7619
▁لزوما	-7620
▁گرامی	-7621
▁بخورند	-7622
▁بگذران	-7623
▁ریچارد	-7624
▁پلاگین	-7625
▁پدربزرگ	-7626
▁پروستات	-7627
▁گذاشتند	-7628
▁گرایانه	-7629
▁بارسلونا	-7630
▁زیباترین	-7631
▁همسایگان	-7632
▁کارآفرینان	-7633
TA	-7634
ary	-7635
زنی	-7636
کون	-7637
▁43	-7638
نگری	-7639
▁کثی	-7640
▁1999	-7641
▁برگر	-7642
▁بکنم	-7643
▁تصدی	-7644
▁زغال	-7645
▁سارا	-7646
▁اسمیت	-7647
▁دکترا	-7648
▁نهفته	-7649
▁پوسته	-7650
▁افتادن	-7651
▁صهیونی	-7652
▁فراگیر	-7653
▁موجودی	-7654
▁اتهامات	-7655
▁متابولی	-7656
▁همبستگی	-7657
▁تولیدکنندگان	-7658
كر	-7659
ارض	-7660
▁حص	-7661
▁ــ	-7662
▁لن	-7663
روسی	-7664
کتان	-7665
▁(20	-7666
▁حلی	-7667
▁فاس	-7668
▁پنل	-7669
▁کاس	-7670
▁گلی	-7671
▁آدام	-7672
▁تفنگ	-7673
▁جامد	-7674
▁حکمت	-7675
▁لامپ	-7676
▁هائی	-7677
▁کاست	-7678
▁آفرید	-7679
▁اتریش	-7680
▁تلفات	-7681
▁تورنت	-7682
▁داوود	-7683
▁دغدغه	-7684
▁زنانه	-7685
▁سوراخ	-7686
▁فعالی	-7687
▁منتخب	-7688
▁نامید	-7689
▁ژنتیک	-7690
▁کلسیم	-7691
▁بندگان	-7692
▁تکمیلی	-7693
▁دوگانه	-7694
▁سؤالات	-7695
▁مجدداً	-7696
▁محاصره	-7697
▁نداشتن	-7698
▁پنتاگون	-7699
▁کوچکترین	-7700
▁Microsoft	-7701
ata	-7702
ier	-7703
تیو	-7704
فند	-7705
کیو	-7706
▁HP	-7707
▁اژ	-7708
▁نج	-7709
اهیر	-7710
کسون	-7711
▁ایس	-7712
▁فین	-7713
▁نشر	-7714
▁نیو	-7715
▁وات	-7716
پرستی	-7717
▁ایدز	-7718
▁چاره	-7719
▁گزین	-7720
▁ارزشی	-7721
▁امپرا	-7722
▁صدایی	-7723
▁لیستی	-7724
▁ثانویه	-7725
▁مکانیک	-7726
▁سینمایی	-7727
▁پارکینگ	-7728
▁روانشناس	-7729
▁سي	-7730
▁١٩	-7731
atch	-7732
▁Can	-7733
▁جنا	-7734
▁فتح	-7735
▁ماک	-7736
▁خوار	-7737
▁سکته	-7738
▁واژن	-7739
▁کمدی	-7740
▁شدیدا	-7741
▁متحمل	-7742
▁مزایا	-7743
▁مهاجم	-7744
▁چارلز	-7745
▁توافقی	-7746
▁عبارات	-7747
▁پانزده	-7748
▁خصوصیات	-7749
▁خیابانی	-7750
own	-7751
روب	-7752
▁Br	-7753
▁Or	-7754
▁iP	-7755
▁pl	-7756
▁رش	-7757
شینی	-7758
طوبت	-7759
▁عصب	-7760
▁قله	-7761
▁گمش	-7762
▁2001	-7763
▁احمد	-7764
▁ارجا	-7765
▁بریم	-7766
▁تدار	-7767
▁تونی	-7768
▁كشور	-7769
▁میاد	-7770
▁پسرم	-7771
▁تفریح	-7772
▁حشرات	-7773
▁دادید	-7774
▁رطوبت	-7775
▁لایحه	-7776
▁محلول	-7777
▁هرگاه	-7778
ational	-7779
▁امتداد	-7780
▁بحرانی	-7781
▁شهردار	-7782
▁تاسیسات	-7783
▁کیلوگرم	-7784
▁بانکداری	-7785
▁زیرزمینی	-7786
ET	-7787
ey	-7788
The	-7789
لان	-7790
▁47	-7791
▁PH	-7792
▁us	-7793
▁رئ	-7794
امیک	-7795
رامی	-7796
▁Web	-7797
▁الج	-7798
▁ختم	-7799
▁رول	-7800
▁موف	-7801
▁نوت	-7802
▁1970	-7803
▁ديگر	-7804
▁رکود	-7805
▁غرور	-7806
▁موها	-7807
▁نقدی	-7808
▁کوشش	-7809
▁گوسف	-7810
▁شناور	-7811
▁شنیدم	-7812
▁مثابه	-7813
▁تحلیلی	-7814
▁مردانه	-7815
▁تأثیرات	-7816
▁تصاویری	-7817
▁مکانیکی	-7818
▁قهرمانان	-7819
يز	-7820
ans	-7821
att	-7822
ron	-7823
چرا	-7824
▁1)	-7825
▁2)	-7826
کونی	-7827
یعنی	-7828
▁ذره	-7829
▁نیج	-7830
▁بزنم	-7831
▁تابل	-7832
▁حروف	-7833
▁خارق	-7834
▁شکوه	-7835
▁قاعد	-7836
▁هرچی	-7837
▁هفتم	-7838
▁۱۰۰۰	-7839
▁ابداع	-7840
▁طرفین	-7841
▁عموما	-7842
▁نشانی	-7843
▁نکاتی	-7844
▁نیامده	-7845
▁گلخانه	-7846
▁همانگونه	-7847
▁¬	-7848
ترز	-7849
وتو	-7850
رالم	-7851
▁سرچ	-7852
▁پهن	-7853
نستان	-7854
▁الآن	-7855
▁تجمع	-7856
▁تخمک	-7857
▁سوژه	-7858
▁عباس	-7859
▁نازک	-7860
▁نگری	-7861
▁توالت	-7862
▁خوابی	-7863
▁قدرتی	-7864
▁مصرفی	-7865
▁استعفا	-7866
▁حمایتی	-7867
▁دانسته	-7868
▁دنباله	-7869
▁شناسید	-7870
▁نیجریه	-7871
▁دیپلمات	-7872
▁رادیکال	-7873
▁علاقمند	-7874
▁ارمنستان	-7875
▁آذربایجان	-7876
▁فعالیتهای	-7877
▁میلیاردها	-7878
▁ناخوشایند	-7879
لۀ	-7880
تاً	-7881
ردن	-7882
وتا	-7883
▁ES	-7884
▁Qu	-7885
▁شیخ	-7886
▁فلج	-7887
▁قوه	-7888
▁ناف	-7889
▁ورش	-7890
▁tion	-7891
▁اثری	-7892
▁بودی	-7893
▁تبلت	-7894
▁نوجو	-7895
▁۱۹۷۰	-7896
▁ترسند	-7897
▁تفاهم	-7898
▁خزانه	-7899
▁شمارش	-7900
▁مترجم	-7901
▁پرسنل	-7902
▁اطلاعی	-7903
▁پرتغال	-7904
▁پیشبرد	-7905
▁خواستیم	-7906
▁درمانگر	-7907
▁مقدماتی	-7908
▁مکانیسم	-7909
▁دیکتاتوری	-7910
BC	-7911
IM	-7912
ذکر	-7913
▁51	-7914
▁۲۹	-7915
زدهم	-7916
گردد	-7917
▁800	-7918
▁Bus	-7919
▁Sch	-7920
▁صحت	-7921
▁هال	-7922
▁اسما	-7923
▁تجسم	-7924
▁جهاد	-7925
▁خشکی	-7926
▁زیرد	-7927
▁پودر	-7928
رافیان	-7929
وزیلند	-7930
▁استیو	-7931
▁دویدن	-7932
▁سرشار	-7933
▁صراحت	-7934
▁علایم	-7935
▁نژادی	-7936
▁پدران	-7937
▁تایوان	-7938
▁نمایشی	-7939
▁دستکاری	-7940
▁شورشیان	-7941
▁کاراکتر	-7942
▁اطرافیان	-7943
▁سپاسگزار	-7944
▁فرماندهی	-7945
▁نیوزیلند	-7946
3]	-7947
RP	-7948
ارن	-7949
ایا	-7950
جین	-7951
وتن	-7952
ودن	-7953
▁طر	-7954
▁پش	-7955
▁۱٫	-7956
▁”،	-7957
ستون	-7958
یدنی	-7959
▁Met	-7960
▁زاد	-7961
▁سزا	-7962
▁منز	-7963
مانده	-7964
یدایش	-7965
▁بدنه	-7966
▁جوری	-7967
▁منشا	-7968
▁هردو	-7969
▁گانه	-7970
▁اسرای	-7971
▁اسکار	-7972
▁ساعتی	-7973
▁فلزات	-7974
▁موشکی	-7975
▁نویسم	-7976
▁هفتاد	-7977
استفاده	-7978
▁آسمانی	-7979
▁افزودن	-7980
▁سرپرست	-7981
▁شکارچی	-7982
▁شیرینی	-7983
▁شیعیان	-7984
▁نتواند	-7985
▁مخصوصاً	-7986
▁مهربانی	-7987
▁تاثیرگذار	-7988
▁کاربردهای	-7989
عب	-7990
ble	-7991
سام	-7992
فال	-7993
پات	-7994
▁ri	-7995
لیقه	-7996
▁Aut	-7997
▁پرف	-7998
▁عملا	-7999
▁فاشی	-8000
▁تمایز	-8001
▁خوراک	-8002
▁سوابق	-8003
▁متاسف	-8004
▁مجروح	-8005
▁مظنون	-8006
▁منظره	-8007
▁نوشتم	-8008
▁گمشده	-8009
▁لینوکس	-8010
▁سوالاتی	-8011
▁نوجوانی	-8012
▁پایداری	-8013
▁کاپیتان	-8014
▁گذراندن	-8015
▁استارتاپ	-8016
▁اعتقادات	-8017
▁کارآموزی	-8018
▁بیولوژیکی	-8019
CA	-8020
ON	-8021
ثه	-8022
▁{	-8023
ach	-8024
ern	-8025
ise	-8026
row	-8027
ull	-8028
ابد	-8029
چین	-8030
▁Sm	-8031
▁وط	-8032
▁وه	-8033
ومتی	-8034
یتون	-8035
▁Des	-8036
▁دره	-8037
▁سقط	-8038
اسیون	-8039
▁باخت	-8040
▁برگه	-8041
▁خلقت	-8042
▁رونق	-8043
▁ریاض	-8044
▁استال	-8045
▁توماس	-8046
▁جاهای	-8047
▁مخلوق	-8048
▁کاران	-8049
▁افسرده	-8050
▁سخنران	-8051
▁ناشناس	-8052
▁هدفمند	-8053
▁اپراتور	-8054
▁هاروارد	-8055
▁امتیازات	-8056
80	-8057
سکو	-8058
شوی	-8059
قام	-8060
▁CP	-8061
▁ph	-8062
▁عث	-8063
▁لاغ	-8064
▁لیم	-8065
▁محف	-8066
▁چنگ	-8067
ition	-8068
جانبه	-8069
فکران	-8070
▁بردم	-8071
▁تصرف	-8072
▁دعوا	-8073
▁ریخت	-8074
▁زنیم	-8075
▁لنین	-8076
▁لیتر	-8077
▁معاف	-8078
▁چاله	-8079
▁ايران	-8080
▁بدانم	-8081
▁صمیمی	-8082
▁معادن	-8083
▁موفقی	-8084
▁ارتقای	-8085
▁انحراف	-8086
▁بیابید	-8087
▁حکومتی	-8088
▁ناخالص	-8089
▁نخواهم	-8090
▁توانمند	-8091
▁دریافتی	-8092
▁سلولهای	-8093
▁عصبانیت	-8094
▁فرانسیس	-8095
▁هورمونی	-8096
!»	-8097
MI	-8098
ّل	-8099
صیر	-8100
▁)؛	-8101
▁.”	-8102
▁ضم	-8103
ject	-8104
باتی	-8105
بانه	-8106
خیلی	-8107
شلیم	-8108
منان	-8109
▁All	-8110
▁تیز	-8111
▁حتا	-8112
▁حما	-8113
▁دلش	-8114
▁زائ	-8115
▁فور	-8116
▁۱۵۰	-8117
▁۱۹۲	-8118
الیست	-8119
▁بلوغ	-8120
▁سونی	-8121
▁فعلا	-8122
▁قارچ	-8123
▁قریب	-8124
▁کریس	-8125
▁Black	-8126
▁آرمان	-8127
▁احکام	-8128
▁تسکین	-8129
▁تقویم	-8130
▁زودرس	-8131
▁امتناع	-8132
▁جماهیر	-8133
▁عمدتاً	-8134
▁فرموده	-8135
▁معاینه	-8136
▁ابزارها	-8137
▁جابجایی	-8138
▁ایرانیان	-8139
ep	-8140
قان	-8141
لوب	-8142
▁49	-8143
▁At	-8144
▁ID	-8145
▁۷۵	-8146
uper	-8147
انید	-8148
▁Bit	-8149
▁معط	-8150
▁پین	-8151
ازدهم	-8152
▁آمدم	-8153
▁طلای	-8154
▁عضله	-8155
▁مزار	-8156
▁میگو	-8157
یمانده	-8158
▁.....	-8159
▁بحرین	-8160
▁تحقیر	-8161
▁جلوتر	-8162
▁خمینی	-8163
▁سودان	-8164
▁فواید	-8165
▁لیوان	-8166
▁موسوم	-8167
▁افسران	-8168
▁بخواند	-8169
▁تفریحی	-8170
▁روزگار	-8171
▁فهمیدم	-8172
▁مؤسسات	-8173
▁نظرتان	-8174
▁ویروسی	-8175
▁اورشلیم	-8176
▁حسابرسی	-8177
▁مجارستان	-8178
▁باقیمانده	-8179
au	-8180
”.	-8181
▁u	-8182
▁٫	-8183
مول	-8184
کلت	-8185
کیک	-8186
جانی	-8187
طباق	-8188
▁افق	-8189
▁تبع	-8190
▁سفت	-8191
▁ظلم	-8192
▁فرس	-8193
▁کما	-8194
ction	-8195
کسازی	-8196
▁ابدی	-8197
▁الکس	-8198
▁تسری	-8199
▁قدمت	-8200
▁قطره	-8201
▁مسلم	-8202
▁ناقص	-8203
▁افتند	-8204
▁توکیو	-8205
▁خصوصا	-8206
▁دیدنی	-8207
▁انطباق	-8208
▁جانشین	-8209
▁معنایی	-8210
▁دانستید	-8211
▁هیچگونه	-8212
▁پاکسازی	-8213
▁پناهگاه	-8214
▁محصولاتی	-8215
▁نامگذاری	-8216
6)	-8217
vi	-8218
يش	-8219
ale	-8220
دای	-8221
▁Gl	-8222
▁[[	-8223
▁sp	-8224
▁شك	-8225
▁چر	-8226
جمله	-8227
حاتی	-8228
▁ترم	-8229
▁عیب	-8230
▁فدا	-8231
▁نيز	-8232
▁ژنو	-8233
▁کشم	-8234
iness	-8235
ystem	-8236
▁2002	-8237
▁بارش	-8238
▁درخش	-8239
▁فاسد	-8240
▁لرزه	-8241
▁ملزم	-8242
▁نامی	-8243
▁گمرک	-8244
▁تقصیر	-8245
▁رفتیم	-8246
▁شگفتی	-8247
▁فاطمه	-8248
▁مختصر	-8249
▁منفجر	-8250
▁واقعه	-8251
▁پیراه	-8252
▁ازجمله	-8253
▁بفهمید	-8254
▁بنوشید	-8255
▁تورنتو	-8256
▁طبقاتی	-8257
▁لیسانس	-8258
▁پاسخگو	-8259
▁پدیدار	-8260
▁گذاشتم	-8261
▁اثربخشی	-8262
▁اصطلاحات	-8263
CC	-8264
ex	-8265
ys	-8266
۱۹	-8267
اوت	-8268
قیم	-8269
▁ST	-8270
▁Gen	-8271
▁حاد	-8272
▁دلس	-8273
▁ساق	-8274
▁پرز	-8275
▁یکم	-8276
▁۴۰۰	-8277
اندوم	-8278
▁تونس	-8279
▁خفیف	-8280
▁دزدی	-8281
▁سانس	-8282
▁صفات	-8283
▁منحص	-8284
▁پرسد	-8285
▁گیرم	-8286
▁آرشیو	-8287
▁ارقام	-8288
▁بخورد	-8289
▁زیتون	-8290
▁میرند	-8291
▁آقایان	-8292
▁احتیاط	-8293
▁صداهای	-8294
▁عزیزان	-8295
▁ماهیچه	-8296
▁مسکونی	-8297
▁منظورم	-8298
▁نهایتا	-8299
▁نگیرید	-8300
▁کالاها	-8301
▁امیرالم	-8302
▁دوستانش	-8303
▁فشارهای	-8304
▁مهمانان	-8305
▁اسکاتلند	-8306
▁بارگذاری	-8307
HD	-8308
اژ	-8309
▁Gu	-8310
▁غف	-8311
▁۳۶	-8312
سالی	-8313
▁عفو	-8314
▁کهن	-8315
▁آرای	-8316
▁بايد	-8317
▁تقلب	-8318
▁تناس	-8319
▁حدیث	-8320
▁سایز	-8321
▁شعله	-8322
▁صبور	-8323
▁غروب	-8324
▁انتشا	-8325
▁تصدیق	-8326
▁حسادت	-8327
▁دخترش	-8328
▁دیدید	-8329
▁زدایی	-8330
▁عمیقی	-8331
▁مساوی	-8332
▁معمار	-8333
▁نهاده	-8334
▁نگذار	-8335
▁نیافت	-8336
▁افزاید	-8337
▁جنگنده	-8338
▁سزاوار	-8339
▁سنگینی	-8340
▁میگیرد	-8341
▁ناوگان	-8342
▁بخوانند	-8343
▁عبدالله	-8344
▁مولکولی	-8345
▁پاسپورت	-8346
▁نابرابری	-8347
▁پناهندگی	-8348
af	-8349
َل	-8350
▁\	-8351
old	-8352
son	-8353
▁Co	-8354
▁DS	-8355
▁Is	-8356
اریا	-8357
خوری	-8358
▁آنف	-8359
▁ایز	-8360
▁دزد	-8361
▁ریه	-8362
▁ممل	-8363
▁منا	-8364
ریایی	-8365
▁Cont	-8366
▁Tech	-8367
▁بخشش	-8368
▁ذاتی	-8369
▁ربطی	-8370
▁مبهم	-8371
▁متکی	-8372
▁مناز	-8373
▁نوبه	-8374
▁نیفت	-8375
▁۱۹۸۰	-8376
▁۲۰۰۳	-8377
▁ادراک	-8378
▁افراط	-8379
▁اینان	-8380
▁بزنیم	-8381
▁جملات	-8382
▁جوایز	-8383
▁درایو	-8384
▁سئوال	-8385
▁فلسفی	-8386
▁مردها	-8387
▁نوسان	-8388
▁اساساً	-8389
▁بسازیم	-8390
▁بفهمیم	-8391
▁بیداری	-8392
▁تابعیت	-8393
▁خوانیم	-8394
▁شناختن	-8395
▁ماندند	-8396
▁مناسبت	-8397
▁نیروها	-8398
▁استادان	-8399
▁رختخواب	-8400
▁مجاهدین	-8401
▁هیدروژن	-8402
▁خداحافظی	-8403
▁پرداختند	-8404
▁دندانپزشک	-8405
▁زیردریایی	-8406
▁سوءاستفاده	-8407
5)	-8408
RI	-8409
سن	-8410
ِر	-8411
قدس	-8412
يان	-8413
▁El	-8414
▁Mo	-8415
▁دپ	-8416
roid	-8417
ارید	-8418
▁آله	-8419
▁خوک	-8420
▁قید	-8421
▁هرج	-8422
▁وحی	-8423
▁پاد	-8424
نهایت	-8425
▁دعای	-8426
▁سفری	-8427
▁سنجش	-8428
▁كردن	-8429
▁مهلت	-8430
▁نیکو	-8431
▁کمون	-8432
وسترون	-8433
▁اسامی	-8434
▁بزودی	-8435
▁حکایت	-8436
▁فارکس	-8437
▁نمودن	-8438
▁هفتگی	-8439
▁برادرش	-8440
▁قاعدگی	-8441
▁محصولی	-8442
▁هرچیزی	-8443
▁پنجمین	-8444
▁پیدایش	-8445
▁پیشگام	-8446
▁سهامداران	-8447
▁تولیدکننده	-8448
ai	-8449
حد	-8450
▁<	-8451
iel	-8452
lic	-8453
ئول	-8454
زیی	-8455
فای	-8456
▁42	-8457
▁46	-8458
راسی	-8459
نشان	-8460
▁عار	-8461
▁ماز	-8462
▁مجت	-8463
▁ناگ	-8464
▁پرا	-8465
▁جزیی	-8466
▁شستن	-8467
▁مسلط	-8468
▁مقدم	-8469
▁مهدی	-8470
▁ناظر	-8471
▁نروژ	-8472
▁واجب	-8473
▁پخته	-8474
▁پرین	-8475
▁اسکری	-8476
▁اعطای	-8477
▁ایمپل	-8478
▁تفکیک	-8479
▁منحرف	-8480
▁کاتال	-8481
▁کاغذی	-8482
▁نماییم	-8483
▁یکسانی	-8484
▁اسراییل	-8485
▁تریلیون	-8486
▁زمستانی	-8487
▁غذاهایی	-8488
▁ناامیدی	-8489
▁کارگزار	-8490
▁اتفاقاتی	-8491
▁خاطرنشان	-8492
▁ماهیگیری	-8493
CD	-8494
for	-8495
طار	-8496
واد	-8497
▁خص	-8498
ارتی	-8499
رائی	-8500
طوره	-8501
ولین	-8502
▁Cre	-8503
▁Min	-8504
▁Sec	-8505
▁بشم	-8506
▁ترش	-8507
▁تنی	-8508
▁روت	-8509
▁مزه	-8510
رارتی	-8511
▁Mark	-8512
▁شیلی	-8513
▁عناو	-8514
▁مصمم	-8515
▁مینی	-8516
▁پاها	-8517
▁پرتو	-8518
▁ارجاع	-8519
▁بهشتی	-8520
▁سردرگ	-8521
▁مامور	-8522
▁همایش	-8523
▁ببندید	-8524
▁حرارتی	-8525
▁رسیدیم	-8526
▁رونالد	-8527
▁سناتور	-8528
▁ناراضی	-8529
▁پیراهن	-8530
▁ایمپلنت	-8531
▁بازگشته	-8532
▁دربارهٔ	-8533
▁مطمئناً	-8534
▁منتقدان	-8535
▁کارفرما	-8536
▁کشورمان	-8537
▁داروهایی	-8538
AM	-8539
ذر	-8540
ضم	-8541
۱۰	-8542
igh	-8543
ric	-8544
زیم	-8545
▁00	-8546
▁Ev	-8547
▁es	-8548
ارشی	-8549
▁بدب	-8550
▁جوه	-8551
ارتان	-8552
▁Word	-8553
▁آلوم	-8554
▁جناح	-8555
▁دوقل	-8556
▁شمسی	-8557
▁مصری	-8558
▁مقرر	-8559
▁ندهد	-8560
▁کثیف	-8561
▁۱۹۹۰	-8562
▁العمل	-8563
▁بخشند	-8564
▁مسواک	-8565
▁کابوس	-8566
▁اسطوره	-8567
▁بسازند	-8568
▁تعاملی	-8569
▁یادتان	-8570
▁برگرفته	-8571
▁نمایشگر	-8572
▁تستوسترون	-8573
رع	-8574
وو	-8575
ohn	-8576
▁41	-8577
▁96	-8578
▁Em	-8579
▁et	-8580
▁اً	-8581
▁ذی	-8582
ound	-8583
انسی	-8584
▁Ass	-8585
▁[1]	-8586
▁درا	-8587
▁رؤی	-8588
▁راک	-8589
▁عرق	-8590
earch	-8591
ؤمنین	-8592
خوانی	-8593
▁Cent	-8594
▁اوپک	-8595
▁مجزا	-8596
▁پوشه	-8597
▁گلوک	-8598
▁یونی	-8599
▁۲۰۰۱	-8600
▁ادیان	-8601
▁تسریع	-8602
▁تعالی	-8603
▁تقدیر	-8604
▁ثباتی	-8605
▁ربوده	-8606
▁محتمل	-8607
▁پرسند	-8608
▁Intern	-8609
▁انجامد	-8610
▁بازنده	-8611
▁بنویسم	-8612
▁تراکنش	-8613
▁خوشمزه	-8614
▁رسانند	-8615
▁عواملی	-8616
▁مایعات	-8617
▁مربیان	-8618
▁پشیمان	-8619
▁اتصالات	-8620
▁فلوریدا	-8621
▁گرافیکی	-8622
▁فیلمبرداری	-8623
TC	-8624
َن	-8625
ogy	-8626
بله	-8627
▁57	-8628
▁66	-8629
▁Go	-8630
▁حت	-8631
▁فک	-8632
▁نپ	-8633
cess	-8634
work	-8635
▁بپو	-8636
▁فلا	-8637
▁قصر	-8638
▁لغت	-8639
▁Comm	-8640
▁ment	-8641
▁اسیر	-8642
▁امگا	-8643
▁بسکت	-8644
▁حیاط	-8645
▁قطبی	-8646
▁چکار	-8647
▁توییت	-8648
▁دهکده	-8649
▁فوراً	-8650
▁معتاد	-8651
▁مواضع	-8652
▁نداره	-8653
▁ایستاد	-8654
▁بدنتان	-8655
▁بیابان	-8656
▁سرنشین	-8657
▁پایبند	-8658
▁گرمایش	-8659
▁یارانه	-8660
▁بازیگری	-8661
▁معاملاتی	-8662
▁کوانتومی	-8663
▁استرالیایی	-8664
▁بازاریابان	-8665
▁دندانپزشکی	-8666
ade	-8667
amp	-8668
▁Ge	-8669
▁ne	-8670
▁مچ	-8671
ames	-8672
خامت	-8673
فران	-8674
لاوه	-8675
پوست	-8676
▁250	-8677
▁Pri	-8678
▁آلت	-8679
▁درج	-8680
▁کنت	-8681
▁کوب	-8682
▁گیل	-8683
ربندی	-8684
▁بنام	-8685
▁بنگل	-8686
▁توئی	-8687
▁دراز	-8688
▁سیری	-8689
▁فریم	-8690
▁مرخص	-8691
▁نکنم	-8692
▁پانل	-8693
▁کارم	-8694
▁کیفی	-8695
▁Apple	-8696
▁ارباب	-8697
▁تداخل	-8698
▁دائما	-8699
▁دزدید	-8700
▁دشمنی	-8701
▁راستش	-8702
▁شاگرد	-8703
▁فرستد	-8704
▁مامان	-8705
▁مبتدی	-8706
▁پیکسل	-8707
▁کشنده	-8708
▁بعلاوه	-8709
▁شایعات	-8710
▁مردگان	-8711
▁میکنیم	-8712
▁نویسند	-8713
▁کشاورز	-8714
▁درازمدت	-8715
▁محتویات	-8716
DF	-8717
ma	-8718
ئز	-8719
▁↑	-8720
ave	-8721
enc	-8722
شنا	-8723
فسی	-8724
فور	-8725
▁٢٠	-8726
ance	-8727
▁ion	-8728
▁ابن	-8729
▁تیل	-8730
▁راس	-8731
▁شکو	-8732
▁صاب	-8733
▁عرف	-8734
▁معص	-8735
کستان	-8736
▁آورم	-8737
▁اصفه	-8738
▁تعمی	-8739
▁حجاب	-8740
▁خوشه	-8741
▁علنی	-8742
▁غیبت	-8743
▁فتنه	-8744
گذاران	-8745
▁آلبرت	-8746
▁انجیل	-8747
▁بازده	-8748
▁بازرس	-8749
▁بستری	-8750
▁تراشه	-8751
▁دخترم	-8752
▁سلطنت	-8753
▁سوئدی	-8754
▁نورون	-8755
▁نگرفت	-8756
▁نیستی	-8757
▁کلینی	-8758
▁جنایات	-8759
▁مردانی	-8760
▁مهمانی	-8761
▁بنیادین	-8762
▁خودخواه	-8763
▁شایستگی	-8764
▁مشاهدات	-8765
▁پردازیم	-8766
▁گذرنامه	-8767
▁افزارهای	-8768
▁روزرسانی	-8769
▁بلغارستان	-8770
‬‬	-8771
ara	-8772
oot	-8773
ریز	-8774
ظره	-8775
ظهر	-8776
عون	-8777
كان	-8778
▁Gr	-8779
ital	-8780
سیلی	-8781
لاند	-8782
ورات	-8783
▁ers	-8784
▁بشه	-8785
▁جلد	-8786
▁جما	-8787
▁سوق	-8788
▁مرو	-8789
▁مطب	-8790
▁هاش	-8791
انیوم	-8792
▁اعظم	-8793
▁ببخش	-8794
▁برات	-8795
▁بگرد	-8796
▁تخته	-8797
▁ردیف	-8798
▁لوگو	-8799
▁مزاح	-8800
▁پارس	-8801
▁گرام	-8802
▁یانگ	-8803
منتظره	-8804
▁آمیزی	-8805
▁تظاهر	-8806
▁خدایا	-8807
▁شوهرش	-8808
▁شوهرم	-8809
▁عارضه	-8810
▁مسخره	-8811
▁منتهی	-8812
▁منصوب	-8813
▁بخشیده	-8814
▁سیستمی	-8815
▁ماجرای	-8816
▁مبلمان	-8817
▁محققین	-8818
▁گرایان	-8819
▁آموزانی	-8820
▁تعاملات	-8821
▁خاکستری	-8822
▁ماندگار	-8823
▁غیرمنتظره	-8824
▁سرماخوردگی	-8825
EL	-8826
ُم	-8827
▁→	-8828
اسم	-8829
حاب	-8830
نين	-8831
▁cl	-8832
▁ائ	-8833
▁دب	-8834
▁رن	-8835
▁لش	-8836
▁پز	-8837
▁یس	-8838
ator	-8839
ویسی	-8840
▁700	-8841
▁Gro	-8842
▁زین	-8843
▁ستی	-8844
▁صرب	-8845
▁مقت	-8846
▁نای	-8847
▁1960	-8848
▁Open	-8849
▁رسما	-8850
▁ساند	-8851
▁عددی	-8852
▁عظمت	-8853
▁فانت	-8854
▁نیکی	-8855
▁وزنه	-8856
▁کوکی	-8857
▁یوتی	-8858
▁ارواح	-8859
▁تعویق	-8860
▁تقدیم	-8861
▁رقبای	-8862
▁مبارز	-8863
▁برترین	-8864
▁تلگرام	-8865
▁خانوار	-8866
▁خوردند	-8867
▁همسران	-8868
▁اختیاری	-8869
▁بازبینی	-8870
▁باورهای	-8871
▁بسکتبال	-8872
▁مانیتور	-8873
▁معترضان	-8874
▁انتشارات	-8875
▁دیوارهای	-8876
ww	-8877
ّم	-8878
ife	-8879
out	-8880
ورا	-8881
وعی	-8882
▁جت	-8883
▁زي	-8884
▁گه	-8885
رستی	-8886
زایی	-8887
▁1.5	-8888
▁زنا	-8889
▁هام	-8890
ترانه	-8891
▁ایام	-8892
▁بمیر	-8893
▁رایت	-8894
▁طلبی	-8895
▁مستح	-8896
▁منکر	-8897
▁انتها	-8898
▁تنبیه	-8899
▁حدودا	-8900
▁سلمان	-8901
▁شنوند	-8902
▁غمگین	-8903
▁میرسد	-8904
▁کیفری	-8905
▁گذارم	-8906
▁شکستگی	-8907
▁عموماً	-8908
▁یوتیوب	-8909
▁آکادمیک	-8910
▁ارگانیک	-8911
▁جایگاهی	-8912
▁خواهران	-8913
▁سالیانه	-8914
▁پرستاری	-8915
▁کنجکاوی	-8916
▁کودکتان	-8917
▁التحصیلی	-8918
▁قراردادی	-8919
):	-8920
2)	-8921
ung	-8922
نیم	-8923
▁7-	-8924
▁9.	-8925
▁عش	-8926
وریا	-8927
کلین	-8928
گاهی	-8929
▁Gal	-8930
▁Mas	-8931
▁آکو	-8932
▁بتا	-8933
▁طنز	-8934
▁منم	-8935
گرایی	-8936
▁Next	-8937
▁احیا	-8938
▁حسگر	-8939
▁خونه	-8940
▁درود	-8941
▁دمشق	-8942
▁عینی	-8943
▁غلظت	-8944
▁مجری	-8945
▁نيست	-8946
▁وسعت	-8947
▁اعلان	-8948
▁باریک	-8949
▁ترسید	-8950
▁تشریح	-8951
▁تنفسی	-8952
▁خیریه	-8953
▁زیارت	-8954
▁نویسان	-8955
▁نیاورد	-8956
▁پایینی	-8957
▁پذیرند	-8958
▁گفتگوی	-8959
▁اسکریپت	-8960
▁بپذیرید	-8961
▁پذیرفتن	-8962
▁Business	-8963
▁استروئید	-8964
▁داوطلبان	-8965
▁پیکربندی	-8966
▁تحلیلگران	-8967
▁دوستانتان	-8968
▁سوسیالیستی	-8969
1)	-8970
3)	-8971
فش	-8972
alt	-8973
box	-8974
ens	-8975
iss	-8976
min	-8977
دها	-8978
▁77	-8979
▁Bu	-8980
▁DV	-8981
▁Fr	-8982
▁SM	-8983
▁ac	-8984
▁ly	-8985
فاعی	-8986
وازی	-8987
ومیت	-8988
▁900	-8989
▁الن	-8990
▁بسي	-8991
▁حجت	-8992
▁حول	-8993
▁ذیل	-8994
▁صدق	-8995
▁فلش	-8996
▁ناچ	-8997
▁نگذ	-8998
▁وطن	-8999
زایمر	-9000
▁توست	-9001
▁حومه	-9002
▁خطری	-9003
▁مخاب	-9004
▁مخزن	-9005
▁مندی	-9006
▁اکثرا	-9007
▁جنایی	-9008
▁شلوار	-9009
▁عمیقا	-9010
▁مسایل	-9011
▁پرولت	-9012
▁پیانو	-9013
▁کناره	-9014
▁یاران	-9015
▁آشکارا	-9016
▁بارانی	-9017
▁عناوین	-9018
▁مجرمان	-9019
▁آلزایمر	-9020
▁بازجویی	-9021
▁مدیتیشن	-9022
▁محاسباتی	-9023
▁مدیترانه	-9024
▁امپراطوری	-9025
7)	-9026
IF	-9027
احت	-9028
شمه	-9029
هیچ	-9030
▁LL	-9031
▁No	-9032
▁SP	-9033
ings	-9034
ریقی	-9035
شتین	-9036
فعال	-9037
▁Art	-9038
▁Not	-9039
▁سول	-9040
▁منق	-9041
▁کاز	-9042
▁کبک	-9043
▁۱۹۰	-9044
▁آمري	-9045
▁الیز	-9046
▁حزبی	-9047
▁حفره	-9048
▁درام	-9049
▁شخصا	-9050
▁محکو	-9051
▁همهٔ	-9052
▁چاقو	-9053
▁۱۹۶۰	-9054
▁امداد	-9055
▁تکلیف	-9056
▁درگاه	-9057
▁فسیلی	-9058
▁فهمند	-9059
▁مرزها	-9060
▁معرفت	-9061
▁پرستش	-9062
▁سرچشمه	-9063
▁نظارتی	-9064
▁کاندوم	-9065
▁انجامید	-9066
▁بنگلادش	-9067
▁جستجوگر	-9068
▁هیچکدام	-9069
▁بیاموزید	-9070
8)	-9071
▁ّ	-9072
ero	-9073
گیل	-9074
▁La	-9075
▁sc	-9076
▁te	-9077
▁۳۴	-9078
بندی	-9079
تونم	-9080
تیسم	-9081
▁(2)	-9082
▁189	-9083
▁آلن	-9084
▁تبی	-9085
▁سنا	-9086
▁لوپ	-9087
▁گود	-9088
▁(200	-9089
▁آیتم	-9090
▁انبا	-9091
▁بارز	-9092
▁تابش	-9093
▁تاجر	-9094
▁دامن	-9095
▁روتر	-9096
▁ضمان	-9097
▁منشأ	-9098
▁نترس	-9099
▁ورشک	-9100
مندانه	-9101
پرداخت	-9102
▁Super	-9103
▁الزام	-9104
▁باراک	-9105
▁سامان	-9106
▁عزیزم	-9107
▁مرموز	-9108
▁میمون	-9109
▁نشدند	-9110
▁نمایی	-9111
▁همانا	-9112
▁یازده	-9113
▁بوستون	-9114
▁فهمیدن	-9115
▁میگوید	-9116
▁نیازها	-9117
▁نیافته	-9118
▁عاقلانه	-9119
▁درحالیکه	-9120
▁کمونیستی	-9121
5]	-9122
OR	-9123
ps	-9124
ich	-9125
ube	-9126
▁:)	-9127
▁۹۹	-9128
ouse	-9129
آمیز	-9130
ایای	-9131
ربند	-9132
پلود	-9133
▁Mus	-9134
▁PHP	-9135
▁نمى	-9136
▁گله	-9137
▁۶۰۰	-9138
کردنی	-9139
▁دخیل	-9140
▁زنید	-9141
▁شانگ	-9142
▁شنود	-9143
▁مسال	-9144
▁ملیت	-9145
▁پاکی	-9146
▁پستی	-9147
▁براون	-9148
▁تعدیل	-9149
▁تومان	-9150
▁دورتر	-9151
▁مزارع	-9152
▁مسافت	-9153
▁مشمول	-9154
▁ناچار	-9155
▁پیتزا	-9156
▁بروکسل	-9157
▁تناسلی	-9158
▁ساختند	-9159
▁کمربند	-9160
▁گذاریم	-9161
▁آلومینی	-9162
▁ادعاهای	-9163
▁استعمار	-9164
▁الیزابت	-9165
▁انسانیت	-9166
▁دانستیم	-9167
▁راهبردی	-9168
▁رفتارها	-9169
▁قدرتمندی	-9170
▁موضوعاتی	-9171
▁سوسیالیسم	-9172
▁تصویربرداری	-9173
4]	-9174
EM	-9175
صب	-9176
كا	-9177
یص	-9178
یع	-9179
erg	-9180
ons	-9181
ماق	-9182
مثل	-9183
▁Lo	-9184
▁Pa	-9185
▁Dis	-9186
▁Per	-9187
▁آنچ	-9188
▁جرج	-9189
▁دیت	-9190
▁لوک	-9191
▁مزد	-9192
▁مسو	-9193
▁نیل	-9194
▁پرش	-9195
▁کشش	-9196
ادلات	-9197
▁1996	-9198
▁آمری	-9199
▁آوار	-9200
▁بنای	-9201
▁زوال	-9202
▁شعبه	-9203
▁مواظ	-9204
▁وجوه	-9205
▁کروز	-9206
▁آبشار	-9207
▁آپلود	-9208
▁اجلاس	-9209
▁بازگو	-9210
▁ترفند	-9211
▁ذهنیت	-9212
▁طبقات	-9213
▁مراکش	-9214
▁موضعی	-9215
▁نگارش	-9216
▁کپسول	-9217
▁داوران	-9218
▁سینمای	-9219
▁اورژانس	-9220
▁پارلمانی	-9221
▁ابزارهایی	-9222
▁متابولیسم	-9223
▁کامپیوترهای	-9224
AP	-9225
َر	-9226
rid	-9227
رها	-9228
موس	-9229
▁56	-9230
▁6-	-9231
▁8-	-9232
▁SD	-9233
▁he	-9234
▁آنا	-9235
▁ابه	-9236
▁اسف	-9237
▁مقص	-9238
▁مهد	-9239
▁هضم	-9240
▁هوی	-9241
دهنده	-9242
▁امین	-9243
▁برکت	-9244
▁بلاگ	-9245
▁تخیل	-9246
▁طلوع	-9247
▁هپات	-9248
▁۲۰۰۷	-9249
▁آوردم	-9250
▁اشباع	-9251
▁اصحاب	-9252
▁افزون	-9253
▁ایراد	-9254
▁بکنیم	-9255
▁شانسی	-9256
▁شنوید	-9257
▁ضمانت	-9258
▁قطعیت	-9259
▁مثانه	-9260
▁مجلات	-9261
▁مشخصه	-9262
▁معدود	-9263
▁وجودی	-9264
▁پوشان	-9265
▁باروری	-9266
▁تخمدان	-9267
▁توئیتر	-9268
▁جمعیتی	-9269
▁رویایی	-9270
▁عدالتی	-9271
▁مسالمت	-9272
▁مشترکی	-9273
▁Android	-9274
▁آرزوهای	-9275
▁آنفولان	-9276
▁معماران	-9277
▁گزارشات	-9278
▁بزرگسالی	-9279
ّر	-9280
anc	-9281
lex	-9282
ton	-9283
uro	-9284
▁by	-9285
بگان	-9286
▁Cap	-9287
▁ity	-9288
▁آکس	-9289
▁بخت	-9290
▁بدم	-9291
▁زام	-9292
▁سرس	-9293
▁كنم	-9294
▁موت	-9295
▁ژئو	-9296
▁1950	-9297
▁1998	-9298
▁بسیج	-9299
▁تحقی	-9300
▁حائز	-9301
▁شركت	-9302
▁شهدا	-9303
▁صخره	-9304
▁وسطی	-9305
▁چشمی	-9306
▁کویت	-9307
راگراف	-9308
▁تخصیص	-9309
▁تهویه	-9310
▁سازیم	-9311
▁مقصود	-9312
▁مناظر	-9313
▁موازی	-9314
▁نوکیا	-9315
▁هلندی	-9316
▁کشاند	-9317
▁اصفهان	-9318
▁بشنوید	-9319
▁خصوصاً	-9320
▁سوختگی	-9321
▁عقلانی	-9322
▁متنوعی	-9323
▁موثرتر	-9324
▁هایمان	-9325
▁گرفتید	-9326
▁بازرگان	-9327
▁هالیوود	-9328
▁امپراتور	-9329
▁بورژوازی	-9330
▁دیکتاتور	-9331
▁سالمندان	-9332
▁پاراگراف	-9333
▁پروازهای	-9334
▁برخوردارند	-9335
ru	-9336
ذب	-9337
▁ْ	-9338
▁٣	-9339
ina	-9340
▁72	-9341
▁سج	-9342
eric	-9343
ازان	-9344
نگام	-9345
کنند	-9346
کوپی	-9347
گرنه	-9348
▁Bar	-9349
▁GPS	-9350
▁گیگ	-9351
ision	-9352
گستری	-9353
▁رفیق	-9354
▁علائ	-9355
▁مبال	-9356
▁هولو	-9357
نکردنی	-9358
▁آموزد	-9359
▁آیکون	-9360
▁بویژه	-9361
▁تناقض	-9362
▁حالات	-9363
▁دیپلم	-9364
▁سرعتی	-9365
▁عروسک	-9366
▁كردند	-9367
▁مجتمع	-9368
▁معطوف	-9369
▁موقتی	-9370
▁هاشمی	-9371
▁وگرنه	-9372
▁گستره	-9373
▁استناد	-9374
▁الکترو	-9375
▁تحقیقی	-9376
▁فیلسوف	-9377
▁نخبگان	-9378
▁هپاتیت	-9379
▁کابینه	-9380
▁کلینیک	-9381
▁گوسفند	-9382
▁استروژن	-9383
▁مبادلات	-9384
▁مسئولین	-9385
▁مسافرتی	-9386
▁پرسیدند	-9387
▁توانمندی	-9388
▁بازپرداخت	-9389
▁باورنکردنی	-9390
نر	-9391
ann	-9392
orn	-9393
ئیت	-9394
ابر	-9395
اکس	-9396
▁2:	-9397
▁97	-9398
▁OS	-9399
▁تط	-9400
▁قز	-9401
▁يد	-9402
▁۳۲	-9403
▁۸۵	-9404
▁Mon	-9405
▁آرم	-9406
▁بلع	-9407
▁دکو	-9408
▁ریک	-9409
▁سبد	-9410
▁سکس	-9411
▁فون	-9412
▁لثه	-9413
▁متد	-9414
▁وود	-9415
▁چیه	-9416
▁کفر	-9417
▁John	-9418
▁Post	-9419
▁Star	-9420
▁آلای	-9421
▁اومد	-9422
▁جناب	-9423
▁رجوع	-9424
▁فهمد	-9425
▁چشمه	-9426
▁کرات	-9427
▁کشیش	-9428
ماسیون	-9429
▁تکثیر	-9430
▁سازید	-9431
▁عاملی	-9432
▁مبلغی	-9433
▁میلان	-9434
▁نداری	-9435
▁چمدان	-9436
▁کلامی	-9437
▁گفتید	-9438
▁آنتونی	-9439
▁الکسان	-9440
▁سانسور	-9441
▁سودآور	-9442
▁فانتزی	-9443
▁مناقشه	-9444
▁پرفروش	-9445
▁کنجکاو	-9446
▁بالستیک	-9447
▁شانگهای	-9448
▁ماموران	-9449
▁پرداختن	-9450
▁کارگیری	-9451
▁گردآوری	-9452
▁دادگستری	-9453
▁اتوماسیون	-9454
ha	-9455
lo	-9456
▁@	-9457
ارج	-9458
حتی	-9459
خدا	-9460
رند	-9461
ریل	-9462
▁54	-9463
▁59	-9464
▁EC	-9465
▁هز	-9466
ater	-9467
بخشی	-9468
راپی	-9469
وقتی	-9470
▁180	-9471
▁Gre	-9472
▁Rob	-9473
▁Sem	-9474
▁ثمر	-9475
▁حوا	-9476
▁لور	-9477
▁وست	-9478
بارتی	-9479
گاران	-9480
▁1994	-9481
▁اسمش	-9482
▁خلوت	-9483
▁سیتی	-9484
▁شکرگ	-9485
▁عنکب	-9486
▁ممكن	-9487
▁۲۰۰۶	-9488
▁Manag	-9489
▁امضاء	-9490
▁برایت	-9491
▁سلیقه	-9492
▁مأمور	-9493
▁مقوله	-9494
▁ناچیز	-9495
▁اسماعی	-9496
▁بگذارم	-9497
▁بیهوده	-9498
▁عبارتی	-9499
▁توریستی	-9500
▁محکومیت	-9501
▁معتقدیم	-9502
▁میانمار	-9503
▁نمیتواند	-9504
▁ثروتمندان	-9505
▁سیاستمدار	-9506
بق	-9507
▁▪	-9508
کنه	-9509
یکی	-9510
▁!"	-9511
▁PP	-9512
▁bl	-9513
raph	-9514
اختی	-9515
ردهی	-9516
وردی	-9517
▁360	-9518
▁CSS	-9519
▁Eng	-9520
▁Pol	-9521
▁الل	-9522
▁ایا	-9523
▁باخ	-9524
▁تعا	-9525
▁ذوب	-9526
▁لقب	-9527
▁متا	-9528
▁مسؤ	-9529
▁ناظ	-9530
▁نود	-9531
▁کوپ	-9532
ستقیم	-9533
▁1989	-9534
▁Dead	-9535
▁تلفظ	-9536
▁جاست	-9537
▁ذهنم	-9538
▁صالح	-9539
▁صدام	-9540
▁طرفه	-9541
▁عروق	-9542
▁لاغر	-9543
▁مبدل	-9544
▁متنا	-9545
▁منوی	-9546
▁ناشر	-9547
▁گازی	-9548
▁گردم	-9549
▁حالتی	-9550
▁حسابی	-9551
▁خوریم	-9552
▁متحول	-9553
▁کابین	-9554
▁کانون	-9555
▁کیهان	-9556
▁ادوارد	-9557
▁انجامش	-9558
▁بپذیرد	-9559
▁تکنیکی	-9560
▁خانمان	-9561
▁سناریو	-9562
▁شیطانی	-9563
▁یادبود	-9564
▁استالین	-9565
▁انفرادی	-9566
▁بازگردد	-9567
▁مداخلات	-9568
▁مدافعان	-9569
▁معلولیت	-9570
▁بیمارانی	-9571
▁مشهورترین	-9572
▁امیرالمؤمنین	-9573
9)	-9574
:«	-9575
to	-9576
ساب	-9577
پول	-9578
▁4)	-9579
▁52	-9580
▁AI	-9581
▁حر	-9582
▁۳۸	-9583
ایجی	-9584
رافت	-9585
مداد	-9586
▁Fin	-9587
▁بیر	-9588
▁متض	-9589
▁نهم	-9590
▁کنش	-9591
▁گول	-9592
البته	-9593
▁اکشن	-9594
▁بلوم	-9595
▁ترسد	-9596
▁توهم	-9597
▁داین	-9598
▁روال	-9599
▁ستاد	-9600
▁فستی	-9601
▁قمار	-9602
▁متنی	-9603
▁مهره	-9604
▁نصیب	-9605
▁همون	-9606
▁کینگ	-9607
▁گشته	-9608
▁Power	-9609
▁اخوان	-9610
▁اطفال	-9611
▁تبیین	-9612
▁دوبار	-9613
▁سعادت	-9614
▁مخارج	-9615
▁منفعت	-9616
▁اقتدار	-9617
▁بفهمند	-9618
▁بلندتر	-9619
▁تأثیری	-9620
▁جاهایی	-9621
▁عکاسان	-9622
▁فرزندش	-9623
▁ناتوان	-9624
▁نتایجی	-9625
▁بزرگراه	-9626
▁عملکردی	-9627
▁غیرفعال	-9628
▁فستیوال	-9629
▁ورزشکار	-9630
▁رویدادها	-9631
▁تأثیرگذار	-9632
▁غیرمستقیم	-9633
▁پناهجویان	-9634
EA	-9635
LA	-9636
▁ئ	-9637
شون	-9638
وزف	-9639
▁یز	-9640
▁۵۵	-9641
▁API	-9642
▁Day	-9643
▁آتل	-9644
▁ضای	-9645
▁موع	-9646
مومیت	-9647
▁(201	-9648
▁Stud	-9649
▁جهات	-9650
▁حباب	-9651
▁خودِ	-9652
▁رسیم	-9653
▁سواد	-9654
▁شهرک	-9655
▁طرحی	-9656
▁عکسی	-9657
▁فصلی	-9658
▁فیلد	-9659
▁مریض	-9660
▁ولتا	-9661
▁پروژ	-9662
▁احمدی	-9663
▁استار	-9664
▁تهاجم	-9665
▁جماعت	-9666
▁حفاری	-9667
▁دقیقی	-9668
▁ریختن	-9669
▁سخاوت	-9670
▁عروقی	-9671
▁غربال	-9672
▁فرنگی	-9673
▁کفایت	-9674
▁Americ	-9675
▁آرایشی	-9676
▁برگردد	-9677
▁توریست	-9678
▁سوسیال	-9679
▁فنلاند	-9680
▁پرسیدن	-9681
▁پولدار	-9682
▁پیرمرد	-9683
▁برگردید	-9684
▁بیاوریم	-9685
▁دگرگونی	-9686
▁روانپزش	-9687
▁کردستان	-9688
▁کوهستان	-9689
▁فیزیکدان	-9690
HA	-9691
ats	-9692
ارو	-9693
رئی	-9694
رنگ	-9695
سیه	-9696
ـــ	-9697
لفه	-9698
▁AT	-9699
▁IR	-9700
اوات	-9701
جوری	-9702
رسون	-9703
شاری	-9704
▁احی	-9705
▁حسب	-9706
▁ناآ	-9707
ضایتی	-9708
▁Back	-9709
▁استر	-9710
▁اسپم	-9711
▁بلیت	-9712
▁تقوا	-9713
▁جولی	-9714
▁حریف	-9715
▁خورم	-9716
▁قاشق	-9717
▁قزاق	-9718
▁نامط	-9719
▁نزاع	-9720
▁کمان	-9721
▁گیتس	-9722
وسیستم	-9723
▁2016،	-9724
▁آسیبی	-9725
▁اتباع	-9726
▁تبعیت	-9727
▁توابع	-9728
▁خوانم	-9729
▁سیلیک	-9730
▁مراجع	-9731
▁مستعم	-9732
▁ندیدم	-9733
▁نمرات	-9734
▁هکرها	-9735
▁کدهای	-9736
▁گلوکز	-9737
▁درآمدی	-9738
▁دیواره	-9739
▁سیگاری	-9740
▁مادرید	-9741
▁مطمئنم	-9742
▁نامرئی	-9743
▁همگانی	-9744
▁پیشروی	-9745
▁کشیدند	-9746
▁کلماتی	-9747
▁برندهای	-9748
▁فرستادن	-9749
▁مسمومیت	-9750
▁مطالبات	-9751
▁گروههای	-9752
▁آشامیدنی	-9753
▁اکوسیستم	-9754
▁فرماندار	-9755
▁مطالعاتی	-9756
▁دکوراسیون	-9757
▁تکنولوژیکی	-9758
▁کامپیوترها	-9759
▁امپریالیستی	-9760
DP	-9761
yt	-9762
۱۱	-9763
تره	-9764
ستن	-9765
کوه	-9766
▁(6	-9767
▁1:	-9768
▁2،	-9769
▁69	-9770
▁Pe	-9771
▁Us	-9772
▁VR	-9773
▁اك	-9774
▁بُ	-9775
able	-9776
coin	-9777
قدرت	-9778
میزی	-9779
▁FDA	-9780
▁LED	-9781
▁ton	-9782
▁ابو	-9783
▁اپی	-9784
▁توت	-9785
▁صفت	-9786
▁عاج	-9787
▁مشی	-9788
▁مفت	-9789
▁نشت	-9790
ینسون	-9791
▁اکرم	-9792
▁برپا	-9793
▁بیتی	-9794
▁توقع	-9795
▁تونم	-9796
▁حفاظ	-9797
▁دارن	-9798
▁دستم	-9799
▁عمان	-9800
▁كتاب	-9801
▁مکتب	-9802
▁چندی	-9803
▁اقلام	-9804
▁تصحیح	-9805
▁جابجا	-9806
▁دریاب	-9807
▁شفاهی	-9808
▁صابون	-9809
▁موعظه	-9810
▁گنجان	-9811
▁System	-9812
▁تدریجی	-9813
▁تشخیصی	-9814
▁ساکنین	-9815
▁ماشینی	-9816
▁متعارف	-9817
▁میدهند	-9818
▁نخورده	-9819
▁بفرستید	-9820
▁تسهیلات	-9821
▁خودآگاه	-9822
▁دمکراسی	-9823
▁پرداختی	-9824
▁ارزشمندی	-9825
▁بنیانگذار	-9826
▁فرایندهای	-9827
6]	-9828
EN	-9829
du	-9830
oT	-9831
َه	-9832
ِل	-9833
rig	-9834
rol	-9835
rom	-9836
ute	-9837
ven	-9838
داث	-9839
ماع	-9840
وئل	-9841
▁NF	-9842
▁NG	-9843
▁Sw	-9844
▁Up	-9845
oint	-9846
ward	-9847
رگوش	-9848
زیکی	-9849
▁Act	-9850
▁بوئ	-9851
▁رهن	-9852
▁شیک	-9853
▁منه	-9854
▁بداف	-9855
▁بودا	-9856
▁تخلف	-9857
▁تراژ	-9858
▁خوری	-9859
▁دنده	-9860
▁زهرا	-9861
▁غفلت	-9862
▁لئون	-9863
▁مجرم	-9864
▁هجوم	-9865
▁پسری	-9866
▁اسکان	-9867
▁اهالی	-9868
▁تراکم	-9869
▁خرگوش	-9870
▁رسیدم	-9871
▁سرتان	-9872
▁مفیدی	-9873
▁پائین	-9874
▁برگردم	-9875
▁بزرگان	-9876
▁بودایی	-9877
▁رومانی	-9878
▁سیارات	-9879
▁مؤمنان	-9880
▁نکردنی	-9881
▁بدافزار	-9882
▁بزرگتری	-9883
▁خواندند	-9884
▁سوزاندن	-9885
▁میکروبی	-9886
▁کمونیسم	-9887
▁دپارتمان	-9888
▁فیلمنامه	-9889
▁هندوستان	-9890
IA	-9891
چر	-9892
eed	-9893
ype	-9894
باس	-9895
ثال	-9896
خاش	-9897
عار	-9898
قال	-9899
لسی	-9900
میه	-9901
گاس	-9902
یلت	-9903
یمه	-9904
▁63	-9905
▁CS	-9906
▁Hy	-9907
▁۳٫	-9908
عمول	-9909
▁(3)	-9910
▁Rec	-9911
▁بیگ	-9912
▁ریش	-9913
▁شاء	-9914
▁عطا	-9915
▁لیز	-9916
▁مخف	-9917
▁نمي	-9918
▁گلف	-9919
ative	-9920
شاوند	-9921
مایید	-9922
▁Data	-9923
▁برکن	-9924
▁تبار	-9925
▁جوهر	-9926
▁حافظ	-9927
▁سنجی	-9928
▁شرطی	-9929
▁فرضی	-9930
▁محرو	-9931
▁مناظ	-9932
▁هارد	-9933
▁واسه	-9934
▁Trans	-9935
▁آشفته	-9936
▁احداث	-9937
▁اخطار	-9938
▁مدتها	-9939
▁مساحت	-9940
▁مسلما	-9941
▁مفاصل	-9942
▁ناکام	-9943
▁نبودن	-9944
▁هشتاد	-9945
▁بیننده	-9946
▁عثمانی	-9947
▁متاسفم	-9948
▁محموله	-9949
▁پیشینه	-9950
▁رونالدو	-9951
▁مخاطبین	-9952
▁چندگانه	-9953
▁امتحانات	-9954
▁خویشاوند	-9955
▁پرستاران	-9956
▁پرسشنامه	-9957
▁فرزندانشان	-9958
axy	-9959
خان	-9960
عین	-9961
فری	-9962
یتو	-9963
▁MA	-9964
▁To	-9965
▁ic	-9966
ream	-9967
رائت	-9968
غالی	-9969
وانه	-9970
کنشی	-9971
یدنت	-9972
ینگی	-9973
▁CRM	-9974
▁Ind	-9975
▁Off	-9976
▁Tra	-9977
▁بين	-9978
▁تله	-9979
▁فضل	-9980
▁فعل	-9981
▁هان	-9982
مینار	-9983
▁1997	-9984
▁آلفا	-9985
▁اریک	-9986
▁اینم	-9987
▁جانی	-9988
▁حلال	-9989
▁خوام	-9990
▁سجده	-9991
▁گندم	-9992
▁آسایش	-9993
▁تریلر	-9994
▁حسینی	-9995
▁سریعا	-9996
▁وجدان	-9997
▁ولتاژ	-9998
▁آشفتگی	-9999
▁آنالیز	-10000
▁اوتیسم	-10001
▁تراژدی	-10002
▁سمینار	-10003
▁الکترون	-10004
▁اکسیدان	-10005
▁ایستادن	-10006
▁برایمان	-10007
▁تولیدات	-10008
▁خودروها	-10009
▁غافلگیر	-10010
▁مکالمات	-10011
▁صهیونیستی	-10012
▁فضانوردان	-10013
▁نزدیکترین	-10014
▁پارکینسون	-10015
▁اقتصاددانان	-10016
12	-10017
ee	-10018
لن	-10019
▁ً	-10020
▁←	-10021
ley	-10022
فان	-10023
مدی	-10024
▁86	-10025
▁IV	-10026
▁Of	-10027
▁گي	-10028
▁۳۱	-10029
غمبر	-10030
وزوم	-10031
وصله	-10032
▁139	-10033
▁Bre	-10034
▁ارک	-10035
▁بجز	-10036
▁تیپ	-10037
▁تیک	-10038
▁خیس	-10039
▁دوپ	-10040
▁دیو	-10041
▁عاق	-10042
▁كود	-10043
▁منچ	-10044
▁ولز	-10045
▁پاز	-10046
ردوست	-10047
پولیس	-10048
▁ADHD	-10049
▁آشتی	-10050
▁اصیل	-10051
▁اطلس	-10052
▁بچرخ	-10053
▁ترسم	-10054
▁تسلا	-10055
▁جرائ	-10056
▁جلال	-10057
▁جونز	-10058
▁حماس	-10059
▁خوشی	-10060
▁سعید	-10061
▁شوکه	-10062
▁شیری	-10063
▁فونت	-10064
▁مجرد	-10065
▁ویکت	-10066
▁پرنس	-10067
▁چادر	-10068
▁گریز	-10069
▁۲۰۲۰	-10070
وتراپی	-10071
▁آپارت	-10072
▁انتزا	-10073
▁بااین	-10074
▁بلندی	-10075
▁بنگاه	-10076
▁جکسون	-10077
▁حوصله	-10078
▁خاصیت	-10079
▁فقرات	-10080
▁فولیک	-10081
▁محتاط	-10082
▁موثری	-10083
▁نرفته	-10084
▁آمريکا	-10085
▁بخوانم	-10086
▁بینانه	-10087
▁خوانید	-10088
▁دنیاست	-10089
▁فرآوری	-10090
▁منتظره	-10091
▁هیجانی	-10092
▁پردازی	-10093
ردوستانه	-10094
▁القاعده	-10095
▁اندازند	-10096
▁مهاجرتی	-10097
▁ویکتوریا	-10098
▁پادشاهان	-10099
▁عملکردهای	-10100
▁فلسطینیان	-10101
▁بازگردانده	-10102
▁بشردوستانه	-10103
▁جمهوریخواه	-10104
▁ثروتمندترین	-10105
ere	-10106
اجی	-10107
اوی	-10108
▁CB	-10109
▁CC	-10110
▁MP	-10111
▁TH	-10112
▁Tw	-10113
▁ab	-10114
▁۴۸	-10115
ange	-10116
port	-10117
rome	-10118
رایز	-10119
کانت	-10120
▁زرا	-10121
▁شدی	-10122
▁شین	-10123
▁ندا	-10124
▁یائ	-10125
ابایت	-10126
▁5000	-10127
▁Free	-10128
▁Xbox	-10129
▁آبجو	-10130
▁افقی	-10131
▁انعک	-10132
▁ایزو	-10133
▁بپوش	-10134
▁رزمی	-10135
▁عاری	-10136
▁فلان	-10137
▁لخته	-10138
▁متون	-10139
▁نخور	-10140
▁Group	-10141
▁آموزه	-10142
▁ارگان	-10143
▁اعماق	-10144
▁اقوام	-10145
▁القدس	-10146
▁بستنی	-10147
▁تبعید	-10148
▁تعارض	-10149
▁داروس	-10150
▁عفونی	-10151
▁مجاور	-10152
▁مستعد	-10153
▁ناکار	-10154
▁Galaxy	-10155
▁آنکارا	-10156
▁ادارات	-10157
▁استادی	-10158
▁استانی	-10159
▁بدهکار	-10160
▁برادرم	-10161
▁بوئینگ	-10162
▁رویترز	-10163
▁زیباست	-10164
▁سراسری	-10165
▁همدردی	-10166
▁ویرجین	-10167
▁پالایش	-10168
▁پروانه	-10169
▁بازنگری	-10170
▁نتوانید	-10171
▁پناهنده	-10172
▁احساساتی	-10173
▁الکساندر	-10174
▁اورانیوم	-10175
▁بیندازید	-10176
▁پرسپولیس	-10177
▁پیامبران	-10178
▁نژادپرستی	-10179
-2	-10180
In	-10181
OL	-10182
fl	-10183
▁‫	-10184
itt	-10185
ony	-10186
ose	-10187
حال	-10188
▁3)	-10189
▁AL	-10190
▁Mi	-10191
▁up	-10192
▁هي	-10193
▁يم	-10194
▁چو	-10195
vice	-10196
رینی	-10197
لندی	-10198
▁Har	-10199
▁Out	-10200
▁Sam	-10201
▁Val	-10202
▁انض	-10203
▁بمی	-10204
▁تمس	-10205
▁جنج	-10206
▁فقه	-10207
▁نیش	-10208
▁چاه	-10209
▁یكی	-10210
▁land	-10211
▁استح	-10212
▁اینه	-10213
▁جوجه	-10214
▁شاغل	-10215
▁لیکن	-10216
▁مؤمن	-10217
▁مخفف	-10218
▁معاش	-10219
▁میگر	-10220
▁ناگز	-10221
▁واگن	-10222
▁کوسه	-10223
▁کوهن	-10224
پیمایی	-10225
▁ایوان	-10226
▁ببخشد	-10227
▁بهائی	-10228
▁بیکار	-10229
▁تائید	-10230
▁تطابق	-10231
▁خوانی	-10232
▁صداها	-10233
▁صرافی	-10234
▁معترض	-10235
▁منطبق	-10236
▁ندهند	-10237
▁هموار	-10238
▁گناهی	-10239
▁آفرینی	-10240
▁شدیدتر	-10241
▁متوالی	-10242
▁گذارید	-10243
▁دستگاهی	-10244
▁نتوانند	-10245
▁ورزشگاه	-10246
▁گذرانده	-10247
▁برگرداند	-10248
▁تسلیحاتی	-10249
▁اقتصادهای	-10250
▁غیرنظامیان	-10251
air	-10252
oto	-10253
اهل	-10254
برا	-10255
جنگ	-10256
شتن	-10257
فار	-10258
ورو	-10259
پوش	-10260
▁88	-10261
▁Hu	-10262
▁Su	-10263
▁be	-10264
▁ex	-10265
▁اُ	-10266
▁كل	-10267
آنچه	-10268
اقعی	-10269
زاری	-10270
نویس	-10271
ونده	-10272
▁آسپ	-10273
▁الس	-10274
▁بدو	-10275
▁بذر	-10276
▁دلت	-10277
▁سلب	-10278
▁شوق	-10279
▁عزم	-10280
▁لحن	-10281
▁مدد	-10282
▁هکت	-10283
▁وای	-10284
▁یخی	-10285
▁ینگ	-10286
▁۱۳۹	-10287
▁Game	-10288
▁Live	-10289
▁Time	-10290
▁بترس	-10291
▁بجنگ	-10292
▁جرات	-10293
▁عضوی	-10294
▁فرید	-10295
▁پاور	-10296
▁کجای	-10297
دارنده	-10298
▁بمانم	-10299
▁تخیلی	-10300
▁تسخیر	-10301
▁سهولت	-10302
▁شمرده	-10303
▁مرخصی	-10304
▁منحنی	-10305
▁نصیحت	-10306
▁یگانه	-10307
▁Server	-10308
▁آنچنان	-10309
▁انضباط	-10310
▁بریزید	-10311
▁بیاورم	-10312
▁خطاهای	-10313
▁سایرین	-10314
▁سلیمان	-10315
▁فرزندی	-10316
▁فروشان	-10317
▁میکروب	-10318
▁نگویید	-10319
▁پیشانی	-10320
▁پیغمبر	-10321
▁کاترین	-10322
▁آلاینده	-10323
▁آکسفورد	-10324
▁الجزایر	-10325
▁فراموشی	-10326
▁غربالگری	-10327
▁قزاقستان	-10328
▁میلیاردر	-10329
▁برخورداری	-10330
▁نتوانستند	-10331
▁قدرتمندترین	-10332
sh	-10333
امد	-10334
باً	-10335
راژ	-10336
▁!)	-10337
▁79	-10338
▁iz	-10339
▁sk	-10340
▁سس	-10341
▁طع	-10342
▁هف	-10343
سیری	-10344
▁MIT	-10345
▁Sol	-10346
▁Tim	-10347
▁[2]	-10348
▁اعم	-10349
▁تعج	-10350
▁خیز	-10351
▁عال	-10352
▁فكر	-10353
▁موم	-10354
▁نشی	-10355
▁کتک	-10356
ience	-10357
ارویی	-10358
رایان	-10359
▁انتح	-10360
▁بشار	-10361
▁خوبه	-10362
▁داور	-10363
▁ریتم	-10364
▁سرود	-10365
▁سوزن	-10366
▁غوطه	-10367
▁نارس	-10368
▁پنجه	-10369
▁اجبار	-10370
▁الدین	-10371
▁بادام	-10372
▁ترانس	-10373
▁تقابل	-10374
▁توئیت	-10375
▁خیالی	-10376
▁دکتری	-10377
▁رانده	-10378
▁عملاً	-10379
▁فراری	-10380
▁فرعون	-10381
▁مشهود	-10382
▁ناساز	-10383
▁نگفته	-10384
▁پهنای	-10385
▁کالای	-10386
ماندگان	-10387
▁آفتابی	-10388
▁ایسلند	-10389
▁بخوریم	-10390
▁بمانیم	-10391
▁دائماً	-10392
▁شنونده	-10393
▁شکننده	-10394
▁ناگزیر	-10395
▁هوشیار	-10396
▁گرفتگی	-10397
▁التهابی	-10398
▁بپذیریم	-10399
▁جواهرات	-10400
▁کشورشان	-10401
▁اختیارات	-10402
▁بازاریاب	-10403
▁رویارویی	-10404
▁کوهستانی	-10405
▁آنفولانزا	-10406
▁هواپیماها	-10407
▁بازماندگان	-10408
▁کلاهبرداری	-10409
8]	-10410
پد	-10411
▁إ	-10412
ana	-10413
ett	-10414
int	-10415
nal	-10416
▁67	-10417
▁PR	-10418
▁Ro	-10419
▁آج	-10420
▁بِ	-10421
لاحی	-10422
▁per	-10423
▁رزم	-10424
▁قدس	-10425
▁منس	-10426
▁پوس	-10427
▁ژور	-10428
الیسم	-10429
راهام	-10430
▁باکس	-10431
▁تهوع	-10432
▁سرفه	-10433
▁فهمم	-10434
▁لعنت	-10435
▁میرد	-10436
▁پیشی	-10437
شناختی	-10438
▁اژدها	-10439
▁برروی	-10440
▁سوئیچ	-10441
▁سوپرم	-10442
▁محفوظ	-10443
▁موقعی	-10444
▁میلاد	-10445
▁نخورد	-10446
▁همچین	-10447
▁اهدافی	-10448
▁برخاست	-10449
▁جادوگر	-10450
▁خبرهای	-10451
▁درخصوص	-10452
▁علائمی	-10453
▁مطالبه	-10454
▁میکروس	-10455
▁سردرگمی	-10456
▁نهایتاً	-10457
▁نگذارید	-10458
▁گذرانند	-10459
▁گنجانده	-10460
▁امیدواری	-10461
▁بلندترین	-10462
▁درآمدهای	-10463
▁بازگرداند	-10464
▁پرولتاریا	-10465
▁روانشناختی	-10466
de	-10467
صت	-10468
ari	-10469
ava	-10470
ner	-10471
ump	-10472
▁78	-10473
▁98	-10474
▁CV	-10475
▁DC	-10476
▁۹۵	-10477
وئید	-10478
▁10.	-10479
▁160	-10480
▁IBM	-10481
▁III	-10482
▁آره	-10483
▁بنز	-10484
▁شیب	-10485
▁مرس	-10486
▁نگو	-10487
▁وکل	-10488
▁کنن	-10489
▁1992	-10490
▁3000	-10491
▁Life	-10492
▁post	-10493
▁with	-10494
▁ببرم	-10495
▁بیلی	-10496
▁سلیم	-10497
▁عاشو	-10498
▁غرفه	-10499
▁فقیه	-10500
▁مصون	-10501
▁مواز	-10502
▁نرفت	-10503
▁پاتر	-10504
▁کسری	-10505
▁آندرو	-10506
▁استبد	-10507
▁امثال	-10508
▁اکانت	-10509
▁ایفای	-10510
▁بازهم	-10511
▁بردگی	-10512
▁جنرال	-10513
▁خندید	-10514
▁درختی	-10515
▁شایعه	-10516
▁طریقی	-10517
▁محوری	-10518
▁ملایم	-10519
▁مواظب	-10520
▁میانی	-10521
▁پوستر	-10522
▁یابیم	-10523
▁تکاملی	-10524
▁رحمانه	-10525
▁فهمیده	-10526
▁نترسید	-10527
▁نشنیده	-10528
▁نوشتار	-10529
▁هیلاری	-10530
▁واکنشی	-10531
▁کارزار	-10532
▁کافیست	-10533
▁Network	-10534
▁اعتقادی	-10535
▁بنشینید	-10536
▁تحلیلگر	-10537
▁جهانیان	-10538
▁دوستانی	-10539
▁مکانیزم	-10540
▁پرزیدنت	-10541
▁جنگجویان	-10542
▁دمکراتیک	-10543
▁محدودیتی	-10544
▁آلومینیوم	-10545
▁راهپیمایی	-10546
▁سازمانهای	-10547
▁سختگیرانه	-10548
▁سیستماتیک	-10549
11	-10550
DL	-10551
QL	-10552
St	-10553
bo	-10554
▁}	-10555
alk	-10556
arn	-10557
سمی	-10558
لای	-10559
وبه	-10560
وفق	-10561
▁1/	-10562
▁4:	-10563
▁68	-10564
▁UV	-10565
▁غد	-10566
▁فط	-10567
▁۳۷	-10568
باسی	-10569
شینگ	-10570
طرنج	-10571
یمتر	-10572
▁Cor	-10573
▁HPV	-10574
▁Mob	-10575
▁شصت	-10576
▁لاز	-10577
▁لاس	-10578
▁لان	-10579
▁مصی	-10580
▁پُر	-10581
▁۸۰۰	-10582
▁آداب	-10583
▁اثرگ	-10584
▁خلال	-10585
▁زائد	-10586
▁سومی	-10587
▁شریف	-10588
▁ضخیم	-10589
▁مردن	-10590
▁واری	-10591
▁Light	-10592
▁بازوی	-10593
▁بفهمد	-10594
▁بيشتر	-10595
▁جنازه	-10596
▁دفعات	-10597
▁دوقلو	-10598
▁سلطان	-10599
▁قرائت	-10600
▁لیاقت	-10601
▁مدنظر	-10602
▁وکلای	-10603
▁پرخاش	-10604
▁گفتنی	-10605
▁آبیاری	-10606
▁اشکالی	-10607
▁تصورات	-10608
▁توربین	-10609
▁جزییات	-10610
▁حقیقتا	-10611
▁دیواری	-10612
▁شاهکار	-10613
▁ناظران	-10614
▁ناموفق	-10615
▁پرتقال	-10616
▁چنانکه	-10617
▁بسپارید	-10618
▁خطرناکی	-10619
▁درنهایت	-10620
▁رمانتیک	-10621
▁سرزمینی	-10622
▁صربستان	-10623
▁فرمانرو	-10624
▁فعالیتی	-10625
▁نزدیکتر	-10626
▁مطبوعاتی	-10627
▁نارضایتی	-10628
▁گفتگوهای	-10629
٠٠	-10630
que	-10631
راغ	-10632
لاق	-10633
▁TV	-10634
▁am	-10635
▁یع	-10636
avid	-10637
lect	-10638
الیف	-10639
ظهور	-10640
▁Cam	-10641
▁Pay	-10642
▁ter	-10643
▁اره	-10644
▁بگم	-10645
▁تفر	-10646
▁ساس	-10647
▁صوت	-10648
▁طرد	-10649
▁فید	-10650
▁لام	-10651
▁ورق	-10652
ution	-10653
▁.000	-10654
▁Link	-10655
▁اجزا	-10656
▁توکن	-10657
▁دیشب	-10658
▁غلات	-10659
▁فقرا	-10660
▁معال	-10661
▁وهله	-10662
▁پازل	-10663
▁چاپی	-10664
▁کبدی	-10665
▁۲۰۰۴	-10666
بهترین	-10667
▁احراز	-10668
▁اسپری	-10669
▁اصولی	-10670
▁الحاق	-10671
▁بانوی	-10672
▁بیافت	-10673
▁بیگان	-10674
▁تالار	-10675
▁تحریف	-10676
▁جرائم	-10677
▁جوانب	-10678
▁رخداد	-10679
▁رزومه	-10680
▁زنجیر	-10681
▁شستشو	-10682
▁ضخامت	-10683
▁متشکر	-10684
▁معصوم	-10685
▁منفرد	-10686
▁میرود	-10687
▁نامعل	-10688
▁Semalt	-10689
▁انقراض	-10690
▁بانوان	-10691
▁بانکوک	-10692
▁بدنبال	-10693
▁بقایای	-10694
▁بنویسد	-10695
▁جاودان	-10696
▁دوزهای	-10697
▁معافیت	-10698
▁نابینا	-10699
▁نوظهور	-10700
▁استفراغ	-10701
▁برگردیم	-10702
▁بشناسیم	-10703
▁تعمیرات	-10704
▁سیلیکون	-10705
▁فعالانه	-10706
▁میدانید	-10707
▁وحشیانه	-10708
▁کریستال	-10709
▁آمریکاست	-10710
▁استودیوی	-10711
▁متغیرهای	-10712
40	-10713
sp	-10714
غت	-10715
ery	-10716
ium	-10717
سگی	-10718
ونم	-10719
▁>>	-10720
▁Ab	-10721
▁Sn	-10722
▁el	-10723
▁۴۷	-10724
اسور	-10725
ترود	-10726
▁10-	-10727
▁2.0	-10728
▁Exp	-10729
▁IoT	-10730
▁[3]	-10731
▁son	-10732
▁www	-10733
▁بات	-10734
▁بهت	-10735
▁بیس	-10736
▁خلع	-10737
▁عود	-10738
▁موظ	-10739
▁نوه	-10740
مانعت	-10741
▁1993	-10742
▁تاسف	-10743
▁ترمز	-10744
▁جنون	-10745
▁حصول	-10746
▁داود	-10747
▁عشقی	-10748
▁قلبم	-10749
▁مختر	-10750
▁نیکل	-10751
▁کافر	-10752
▁کدوم	-10753
▁2017،	-10754
▁آرایه	-10755
▁المسل	-10756
▁امیدی	-10757
▁بسيار	-10758
▁تدارک	-10759
▁دریچه	-10760
▁دیزنی	-10761
▁زامبی	-10762
▁شطرنج	-10763
▁فروید	-10764
▁متعجب	-10765
▁مرحوم	-10766
▁معینی	-10767
▁نیامد	-10768
▁پرتره	-10769
▁پرستی	-10770
▁کلیشه	-10771
▁گیتار	-10772
▁آکواری	-10773
▁بدبختی	-10774
▁بیافتد	-10775
▁شستشوی	-10776
▁مطالبی	-10777
▁معادله	-10778
▁ممانعت	-10779
▁نامزدی	-10780
▁ندادند	-10781
▁نمانده	-10782
▁یائسگی	-10783
▁یازدهم	-10784
▁استقامت	-10785
▁بنویسند	-10786
▁خوابگاه	-10787
▁لهستانی	-10788
▁مهندسین	-10789
▁نیرومند	-10790
▁پذیرایی	-10791
▁کتابهای	-10792
▁گزارشگر	-10793
▁دایناسور	-10794
▁فیلترهای	-10795
▁کنسولگری	-10796
▁فرماندهان	-10797
EE	-10798
sc	-10799
ضاح	-10800
يده	-10801
کاب	-10802
▁GM	-10803
▁IN	-10804
▁RA	-10805
▁»؛	-10806
▁كس	-10807
▁نئ	-10808
▁۶۴	-10809
book	-10810
▁***	-10811
▁1.1	-10812
▁1.2	-10813
▁186	-10814
▁con	-10815
▁ارگ	-10816
▁حاض	-10817
▁دشت	-10818
▁وصف	-10819
▁گلو	-10820
طبیعی	-10821
▁1991	-10822
▁King	-10823
▁View	-10824
▁انشا	-10825
▁بسوز	-10826
▁حکیم	-10827
▁ریزد	-10828
▁سهیم	-10829
▁ظروف	-10830
▁عیار	-10831
▁غارت	-10832
▁لرزش	-10833
▁مشهد	-10834
▁کرسی	-10835
گرایان	-10836
▁Cloud	-10837
▁ارمنی	-10838
▁اپوزی	-10839
▁تزئین	-10840
▁تزکیه	-10841
▁رسالت	-10842
▁شونده	-10843
▁عمودی	-10844
▁مارکت	-10845
▁متفکر	-10846
▁مشارک	-10847
▁مشروط	-10848
▁مشروع	-10849
▁ناهنج	-10850
▁هنجار	-10851
▁هکتار	-10852
▁کشیدم	-10853
▁ارتکاب	-10854
▁باشکوه	-10855
▁توضیحی	-10856
▁دروغین	-10857
▁میگردد	-10858
▁ناامنی	-10859
▁نارنجی	-10860
▁نوشابه	-10861
▁نیرویی	-10862
▁انتحاری	-10863
▁انتزاعی	-10864
▁بازارها	-10865
▁تیروئید	-10866
▁دیوارها	-10867
▁رویکردی	-10868
▁زناشویی	-10869
▁زیرنویس	-10870
▁مسلحانه	-10871
▁میخواهم	-10872
▁ژنراتور	-10873
▁بگذرانید	-10874
▁سریعترین	-10875
▁وحشتناکی	-10876
▁گردهمایی	-10877
َا	-10878
سفر	-10879
ناب	-10880
کسپ	-10881
▁3:	-10882
▁LG	-10883
▁۴۴	-10884
eral	-10885
hone	-10886
بریج	-10887
▁2.5	-10888
▁Chr	-10889
▁Int	-10890
▁باج	-10891
▁بیف	-10892
▁توح	-10893
▁شمع	-10894
▁صحی	-10895
▁قفس	-10896
▁لیپ	-10897
▁ممت	-10898
▁مگه	-10899
▁هيچ	-10900
▁۲۵۰	-10901
خورده	-10902
▁Call	-10903
▁Face	-10904
▁تنفر	-10905
▁تنیس	-10906
▁سویا	-10907
▁قبرس	-10908
▁كنیم	-10909
▁لیمو	-10910
▁معلق	-10911
▁هستن	-10912
▁وکلا	-10913
▁پلان	-10914
▁ژانر	-10915
▁یگان	-10916
▁آنزیم	-10917
▁داشتی	-10918
▁دلیلش	-10919
▁رادار	-10920
▁رمضان	-10921
▁سازان	-10922
▁سالاد	-10923
▁مبانی	-10924
▁مدرکی	-10925
▁مدینه	-10926
▁مصالح	-10927
▁مضمون	-10928
▁مندان	-10929
▁نامیم	-10930
▁نواخت	-10931
▁اشخاصی	-10932
▁حفاظتی	-10933
▁رازهای	-10934
▁رسوایی	-10935
▁سرنگون	-10936
▁کنترلی	-10937
▁Bitcoin	-10938
▁اسیدهای	-10939
▁الکترود	-10940
▁تشکیلات	-10941
▁دشوارتر	-10942
▁سرنگونی	-10943
▁پیشگویی	-10944
▁ایستادگی	-10945
▁بفرمایید	-10946
▁بپردازیم	-10947
▁داروخانه	-10948
▁همجنسگرا	-10949
▁اپوزیسیون	-10950
7]	-10951
CP	-10952
CS	-10953
EG	-10954
uk	-10955
rag	-10956
uck	-10957
way	-10958
خیز	-10959
فیس	-10960
▁BA	-10961
▁Bo	-10962
▁Cy	-10963
▁NA	-10964
▁قص	-10965
▁لج	-10966
gram	-10967
ield	-10968
land	-10969
ript	-10970
ولار	-10971
▁140	-10972
▁Acc	-10973
▁جنی	-10974
▁خاد	-10975
▁ریس	-10976
▁شیل	-10977
▁كسی	-10978
▁كمك	-10979
▁مهی	-10980
▁نوح	-10981
Press	-10982
irect	-10983
ازظهر	-10984
▁1995	-10985
▁Fran	-10986
▁Good	-10987
▁آنات	-10988
▁ادای	-10989
▁تاجی	-10990
▁تنبا	-10991
▁جابز	-10992
▁دریغ	-10993
▁زایی	-10994
▁زوده	-10995
▁سودی	-10996
▁فوتب	-10997
▁قشنگ	-10998
▁مهیا	-10999
▁موسس	-11000
▁مکعب	-11001
▁کندی	-11002
▁گردی	-11003
▁Colle	-11004
▁اتلاف	-11005
▁اقلیم	-11006
▁انقبا	-11007
▁بخرند	-11008
▁بندگی	-11009
▁ترسان	-11010
▁ترمین	-11011
▁توانا	-11012
▁جوابی	-11013
▁علایق	-11014
▁لوئیس	-11015
▁مانور	-11016
▁متضاد	-11017
▁معلول	-11018
▁Master	-11019
▁آموختن	-11020
▁آویزان	-11021
▁اتمسفر	-11022
▁تکنسین	-11023
▁مناظره	-11024
▁مکزیکی	-11025
▁نمادین	-11026
▁نکردیم	-11027
▁ویدئوی	-11028
▁پرینتر	-11029
▁چهارده	-11030
▁ژورنال	-11031
▁استثمار	-11032
▁اسرائيل	-11033
▁اسماعیل	-11034
▁ایرلندی	-11035
▁حکمرانی	-11036
▁ساندویچ	-11037
▁سودآوری	-11038
▁فرمایند	-11039
▁محرومیت	-11040
▁مشارکتی	-11041
▁کلیدهای	-11042
▁آکواریوم	-11043
▁المسلمین	-11044
▁بعدازظهر	-11045
▁تهدیدهای	-11046
▁تومورهای	-11047
▁زودهنگام	-11048
▁سفیدپوست	-11049
▁گوناگونی	-11050
▁راهکارهای	-11051
▁فرانسیسکو	-11052
▁وزارتخانه	-11053
▁فیزیولوژیکی	-11054
OC	-11055
US	-11056
cl	-11057
tt	-11058
ux	-11059
فن	-11060
۱۲	-11061
۱۸	-11062
▁٤	-11063
ush	-11064
ایب	-11065
باد	-11066
بره	-11067
ندر	-11068
▁53	-11069
▁BS	-11070
▁CA	-11071
▁as	-11072
▁ke	-11073
▁تك	-11074
alth	-11075
اهره	-11076
ومعه	-11077
گارت	-11078
▁DNS	-11079
▁Nor	-11080
▁app	-11081
▁انۀ	-11082
▁بوم	-11083
▁علف	-11084
▁نزن	-11085
▁وقف	-11086
▁ولو	-11087
▁کلر	-11088
▁گار	-11089
افزون	-11090
▁Book	-11091
▁آنتن	-11092
▁ائمه	-11093
▁اسکو	-11094
▁اونا	-11095
▁بازن	-11096
▁بخرم	-11097
▁بروس	-11098
▁بولی	-11099
▁تحری	-11100
▁خمیر	-11101
▁دوزخ	-11102
▁راند	-11103
▁رشدی	-11104
▁شویی	-11105
▁کلیپ	-11106
رالیسم	-11107
پردازی	-11108
▁2015،	-11109
▁آواره	-11110
▁احیای	-11111
▁امانت	-11112
▁تعبیه	-11113
▁خامنه	-11114
▁دوستم	-11115
▁سوخته	-11116
▁صومعه	-11117
▁عصاره	-11118
▁مرتفع	-11119
▁معانی	-11120
▁ملاحظ	-11121
▁میگرن	-11122
▁آنارشی	-11123
▁اسکیزو	-11124
▁ایمیلی	-11125
▁تنباکو	-11126
▁دروغگو	-11127
▁سرمربی	-11128
▁موافقم	-11129
▁نمیدان	-11130
▁احترامی	-11131
▁بخوابید	-11132
▁برگردند	-11133
▁مروارید	-11134
▁مناسبات	-11135
▁موجودیت	-11136
▁هوشیاری	-11137
▁پژوهشگر	-11138
▁روزافزون	-11139
▁فرزندانش	-11140
▁مهارتهای	-11141
▁کروموزوم	-11142
▁WordPress	-11143
TE	-11144
ts	-11145
yl	-11146
وچ	-11147
يي	-11148
oss	-11149
شنه	-11150
مده	-11151
کلا	-11152
▁62	-11153
▁76	-11154
▁HS	-11155
▁Li	-11156
▁\"	-11157
▁لف	-11158
▁وَ	-11159
▁ين	-11160
line	-11161
ular	-11162
ابیر	-11163
اتید	-11164
وحنا	-11165
ونیا	-11166
چاله	-11167
▁Cry	-11168
▁Inc	-11169
▁Lib	-11170
▁ایل	-11171
▁خرم	-11172
▁شتر	-11173
▁شیء	-11174
▁ظال	-11175
▁عذر	-11176
▁فرآ	-11177
▁فوا	-11178
▁متی	-11179
ology	-11180
vious	-11181
ایتان	-11182
▁HTTP	-11183
▁بخند	-11184
▁تعصب	-11185
▁خاکی	-11186
▁دردی	-11187
▁درنگ	-11188
▁راکت	-11189
▁شعور	-11190
▁ضمنا	-11191
▁عموی	-11192
▁فرعی	-11193
▁معضل	-11194
▁ورژن	-11195
▁کارا	-11196
▁2014،	-11197
▁احسان	-11198
▁بریده	-11199
▁خریده	-11200
▁خوردم	-11201
▁دهانه	-11202
▁عاقبت	-11203
▁مایلی	-11204
▁مثالی	-11205
▁مجانی	-11206
▁معایب	-11207
▁نابغه	-11208
▁نمادی	-11209
▁کمیاب	-11210
▁......	-11211
▁iPhone	-11212
▁انعکاس	-11213
▁بازدهی	-11214
▁برگشتم	-11215
▁بستگان	-11216
▁بشنوند	-11217
▁تعاونی	-11218
▁تعطیلی	-11219
▁دامپزش	-11220
▁دنبالش	-11221
▁دیابتی	-11222
▁سیاستی	-11223
▁ضایعات	-11224
▁لاستیک	-11225
▁لزوماً	-11226
▁متناوب	-11227
▁کمبریج	-11228
▁اطلاعیه	-11229
▁اعتمادی	-11230
▁افتادند	-11231
▁انتفاعی	-11232
▁قوانینی	-11233
▁نیوزلند	-11234
▁Previous	-11235
▁آزادسازی	-11236
▁بازگردند	-11237
▁دارندگان	-11238
▁سیاهچاله	-11239
▁روشنفکران	-11240
▁پیشگیرانه	-11241
▁امپریالیسم	-11242
ym	-11243
كی	-11244
يب	-11245
eth	-11246
ift	-11247
ins	-11248
oci	-11249
rop	-11250
ادو	-11251
ستا	-11252
عاع	-11253
▁5)	-11254
▁73	-11255
▁Ag	-11256
▁BM	-11257
▁Mc	-11258
▁UN	-11259
▁co	-11260
▁۴٫	-11261
جاری	-11262
لیتی	-11263
▁Bro	-11264
▁Dri	-11265
▁Key	-11266
▁PDF	-11267
▁ser	-11268
▁سیت	-11269
▁شاخ	-11270
▁قشر	-11271
▁مکس	-11272
▁نئو	-11273
▁پهل	-11274
▁پيش	-11275
urity	-11276
▁آشوب	-11277
▁اختر	-11278
▁بروی	-11279
▁تران	-11280
▁ترند	-11281
▁جرمی	-11282
▁خندد	-11283
▁شکوف	-11284
▁فکرش	-11285
▁قرضه	-11286
▁لادن	-11287
▁لیند	-11288
▁مرگش	-11289
▁موظف	-11290
▁پاول	-11291
▁کادر	-11292
▁کاره	-11293
▁کسان	-11294
▁گفتی	-11295
▁۱۹۳۰	-11296
طرفدار	-11297
▁ابرها	-11298
▁اتاقی	-11299
▁اسکنر	-11300
▁الکلی	-11301
▁اینكه	-11302
▁بازمی	-11303
▁دوستت	-11304
▁شکوفا	-11305
▁فراغت	-11306
▁قاهره	-11307
▁مازاد	-11308
▁ماهگی	-11309
▁مساجد	-11310
▁مصیبت	-11311
▁میبین	-11312
▁میگوی	-11313
▁نشدنی	-11314
▁نفرین	-11315
▁نمایه	-11316
▁نهادی	-11317
▁کرایه	-11318
▁کودتا	-11319
▁گردیم	-11320
▁آوردیم	-11321
▁استیون	-11322
▁بالاست	-11323
▁بپرسند	-11324
▁ساختگی	-11325
▁ممنونم	-11326
▁کامرون	-11327
▁آندروید	-11328
▁انتظاری	-11329
▁برندگان	-11330
▁تمایلات	-11331
▁دوجانبه	-11332
▁سرورهای	-11333
▁فرمایید	-11334
▁مأموران	-11335
▁مخفیانه	-11336
▁نامعلوم	-11337
▁ویلیامز	-11338
▁دانشگاهیان	-11339
▁روانشناسان	-11340
▁International	-11341
Cl	-11342
▁‬	-11343
اکی	-11344
چگی	-11345
▁-1	-11346
▁93	-11347
▁CT	-11348
▁Do	-11349
▁GP	-11350
▁Je	-11351
▁if	-11352
▁se	-11353
▁پم	-11354
view	-11355
ware	-11356
اااا	-11357
بودی	-11358
حلال	-11359
رسدس	-11360
غلات	-11361
گراد	-11362
یدیه	-11363
▁Sur	-11364
▁برپ	-11365
▁بلک	-11366
▁دیم	-11367
▁زرق	-11368
▁منج	-11369
▁موز	-11370
▁یور	-11371
▁Blue	-11372
▁آهنی	-11373
▁اتکا	-11374
▁اپرا	-11375
▁اکبر	-11376
▁تشنج	-11377
▁دایی	-11378
▁رقبا	-11379
▁سزار	-11380
▁شهاب	-11381
▁صحرا	-11382
▁عامه	-11383
▁فیفا	-11384
▁مراد	-11385
▁مقیم	-11386
▁نورو	-11387
▁پدری	-11388
▁چرخد	-11389
▁کامپ	-11390
▁۱۹۹۸	-11391
▁۲۰۰۲	-11392
▁آسیاب	-11393
▁اینچی	-11394
▁تعجبی	-11395
▁سوختن	-11396
▁طلبان	-11397
▁لااقل	-11398
▁متاهل	-11399
▁محکمی	-11400
▁مرسدس	-11401
▁مورچه	-11402
▁گشوده	-11403
▁آغازین	-11404
▁بخواهم	-11405
▁برگشته	-11406
▁بهادار	-11407
▁تمایلی	-11408
▁خوابند	-11409
▁میخوام	-11410
▁پنهانی	-11411
▁کازینو	-11412
ــــــــ	-11413
▁استثنای	-11414
▁بارگیری	-11415
▁بزرگوار	-11416
▁بلومبرگ	-11417
▁بیولوژی	-11418
▁جاودانه	-11419
▁حقیقتاً	-11420
▁فرستنده	-11421
▁فیلمساز	-11422
▁مستغلات	-11423
▁مهاجرین	-11424
▁انتقادات	-11425
▁توانستید	-11426
▁زندگیتان	-11427
▁پرطرفدار	-11428
▁امیدوارند	-11429
"،	-11430
يی	-11431
▁٩	-11432
enn	-11433
oll	-11434
جاز	-11435
موم	-11436
▁(7	-11437
▁61	-11438
▁EM	-11439
▁TR	-11440
▁Vo	-11441
▁me	-11442
▁ra	-11443
▁لر	-11444
▁۳۳	-11445
....	-11446
ific	-11447
ردام	-11448
عادل	-11449
عفای	-11450
نوتی	-11451
کاست	-11452
▁170	-11453
▁Mer	-11454
▁SSL	-11455
▁Tur	-11456
▁out	-11457
▁آرس	-11458
▁تهی	-11459
▁جعل	-11460
▁فیب	-11461
▁پلک	-11462
▁کوی	-11463
▁گون	-11464
ource	-11465
وادور	-11466
کلاسی	-11467
کوپتر	-11468
▁Fall	-11469
▁Read	-11470
▁اپید	-11471
▁بنگر	-11472
▁زدیم	-11473
▁سازش	-11474
▁سخنی	-11475
▁سرای	-11476
▁فاضل	-11477
▁لبنی	-11478
▁لیور	-11479
▁ملتی	-11480
▁میشل	-11481
▁ندان	-11482
▁هشتگ	-11483
▁وارن	-11484
▁وانگ	-11485
▁کوچه	-11486
گیرنده	-11487
▁Enter	-11488
▁آتلان	-11489
▁بشوند	-11490
▁زیاده	-11491
▁سرسخت	-11492
▁موادی	-11493
▁میکنه	-11494
▁نیاید	-11495
▁هزاره	-11496
▁همدلی	-11497
▁پریود	-11498
▁گمرکی	-11499
عادلانه	-11500
▁آلرژیک	-11501
▁ابریشم	-11502
▁بفروشد	-11503
▁بولتون	-11504
▁حدوداً	-11505
▁داروین	-11506
▁دخترها	-11507
▁دفترچه	-11508
▁ذهنتان	-11509
▁مخاطره	-11510
▁پویایی	-11511
▁کافران	-11512
▁کوچولو	-11513
▁کیهانی	-11514
▁استعفای	-11515
▁شکوفایی	-11516
▁انسانهای	-11517
▁بپیوندید	-11518
▁دوستیابی	-11519
▁پیوندهای	-11520
▁آزاردهنده	-11521
:"	-11522
تق	-11523
▁َ	-11524
شات	-11525
طرب	-11526
متی	-11527
همه	-11528
▁74	-11529
▁92	-11530
▁la	-11531
▁tr	-11532
form	-11533
الوگ	-11534
لافی	-11535
وبات	-11536
▁Che	-11537
▁Leg	-11538
▁all	-11539
▁آرد	-11540
▁بیز	-11541
▁جوک	-11542
▁ذرت	-11543
▁رین	-11544
▁سکو	-11545
▁ماف	-11546
▁مدف	-11547
▁ولت	-11548
▁چاک	-11549
خواست	-11550
▁1500	-11551
▁2030	-11552
▁Anal	-11553
▁Auto	-11554
▁بدنش	-11555
▁خوشش	-11556
▁رئال	-11557
▁رقمی	-11558
▁رواج	-11559
▁سپرد	-11560
▁شارل	-11561
▁فاکس	-11562
▁مدلی	-11563
▁مرسی	-11564
▁مملو	-11565
▁موری	-11566
▁وارث	-11567
▁پرسی	-11568
▁پشیم	-11569
▁پوشی	-11570
▁پیاز	-11571
▁چانه	-11572
▁ابهام	-11573
▁اجداد	-11574
▁اراضی	-11575
▁ارتجا	-11576
▁اصالت	-11577
▁اغراق	-11578
▁خشنود	-11579
▁رنگین	-11580
▁شریعت	-11581
▁عمران	-11582
▁لازمه	-11583
▁مانعی	-11584
▁مزاحم	-11585
▁مساعد	-11586
▁مضطرب	-11587
▁مقبره	-11588
▁منسجم	-11589
▁نوروز	-11590
▁هیولا	-11591
▁پسرها	-11592
▁پوشاک	-11593
▁کاشته	-11594
▁کشتند	-11595
▁School	-11596
▁اساتید	-11597
▁انقباض	-11598
▁تمرینی	-11599
▁خودمخت	-11600
▁رسانید	-11601
▁شرمنده	-11602
▁متشکرم	-11603
▁وانمود	-11604
▁استحکام	-11605
▁تایلندی	-11606
▁صبحگاهی	-11607
▁صمیمانه	-11608
▁فداکاری	-11609
▁ملاحظات	-11610
▁پاسخگوی	-11611
▁پوشانده	-11612
▁بازگشایی	-11613
▁توانبخشی	-11614
▁مارکسیست	-11615
▁رویکردهای	-11616
▁ناعادلانه	-11617
▁استعدادهای	-11618
BI	-11619
OM	-11620
كز	-11621
▁€	-11622
ask	-11623
fer	-11624
ئیل	-11625
ارم	-11626
جاب	-11627
شهر	-11628
لاط	-11629
نسی	-11630
ژنی	-11631
▁(8	-11632
▁5:	-11633
▁82	-11634
▁BP	-11635
▁CN	-11636
▁It	-11637
▁id	-11638
▁im	-11639
▁كش	-11640
very	-11641
جامد	-11642
جومی	-11643
ماسی	-11644
کوور	-11645
▁187	-11646
▁God	-11647
▁Rem	-11648
▁Str	-11649
▁one	-11650
▁الْ	-11651
▁بسر	-11652
▁بیچ	-11653
▁تشی	-11654
▁رفق	-11655
▁سلف	-11656
▁نفه	-11657
▁پهپ	-11658
▁یست	-11659
▁۷۰۰	-11660
ement	-11661
▁1979	-11662
▁Work	-11663
▁ارثی	-11664
▁تجرب	-11665
▁رویت	-11666
▁سدیم	-11667
▁سوزش	-11668
▁ضریب	-11669
▁طناب	-11670
▁قوای	-11671
▁مونی	-11672
▁میلر	-11673
▁نزول	-11674
▁پلیم	-11675
▁پولس	-11676
▁کتبی	-11677
▁کوله	-11678
▁۱۹۵۰	-11679
▁۳۰۰۰	-11680
igital	-11681
▁آرتور	-11682
▁احوال	-11683
▁افشای	-11684
▁خونین	-11685
▁سایتی	-11686
▁سیزده	-11687
▁قربان	-11688
▁مبادا	-11689
▁مبالغ	-11690
▁مدفوع	-11691
▁مصداق	-11692
▁منزوی	-11693
▁همگام	-11694
▁پولیس	-11695
▁کورتی	-11696
▁Mobile	-11697
▁آرتروز	-11698
▁اتریوم	-11699
▁برزیلی	-11700
▁بشویید	-11701
▁تردیدی	-11702
▁تفکرات	-11703
▁خویشتن	-11704
▁دارنده	-11705
▁روایات	-11706
▁سردبیر	-11707
▁عاشورا	-11708
▁فهرستی	-11709
▁لنزهای	-11710
▁مادورو	-11711
▁هاوایی	-11712
▁واژگان	-11713
▁واکسین	-11714
▁آوارگان	-11715
▁انتقالی	-11716
▁بپذیرند	-11717
▁ترمینال	-11718
▁جانوران	-11719
▁روزهایی	-11720
▁مستقیمی	-11721
▁مستندات	-11722
▁چهارچوب	-11723
▁گورستان	-11724
▁اکتشافات	-11725
▁میلیونها	-11726
▁ناکارآمد	-11727
▁سوسیالیست	-11728
▁نمایشنامه	-11729
EF	-11730
ثل	-11731
عۀ	-11732
وَ	-11733
يط	-11734
ّد	-11735
گد	-11736
یف	-11737
arm	-11738
ole	-11739
ئیم	-11740
دیا	-11741
دیت	-11742
قوب	-11743
يند	-11744
پتو	-11745
▁89	-11746
▁AF	-11747
▁EA	-11748
▁EB	-11749
▁ol	-11750
▁دق	-11751
استه	-11752
بدون	-11753
ردست	-11754
رهیز	-11755
میمه	-11756
▁Cra	-11757
▁Sim	-11758
▁احض	-11759
▁رید	-11760
▁طرق	-11761
▁لار	-11762
▁نهی	-11763
▁هشی	-11764
▁پاش	-11765
▁چيز	-11766
▁1986	-11767
▁4000	-11768
▁Love	-11769
▁استغ	-11770
▁اسرع	-11771
▁اسلو	-11772
▁افکن	-11773
▁برسم	-11774
▁ترسی	-11775
▁تنگه	-11776
▁جرأت	-11777
▁جوزف	-11778
▁دادی	-11779
▁سمبل	-11780
▁لغات	-11781
▁مارش	-11782
▁میله	-11783
▁نتیج	-11784
▁نشدن	-11785
▁نشری	-11786
▁والی	-11787
▁وگاس	-11788
▁پالس	-11789
▁گامی	-11790
▁گوار	-11791
▁گویش	-11792
▁۵۰۰۰	-11793
لوانیا	-11794
▁Smart	-11795
▁Techn	-11796
▁استیل	-11797
▁اعراب	-11798
▁امامت	-11799
▁انصاف	-11800
▁بیایم	-11801
▁توالی	-11802
▁توفان	-11803
▁جغراف	-11804
▁حامله	-11805
▁سیدنی	-11806
▁شادتر	-11807
▁ضمیمه	-11808
▁مادام	-11809
▁مدیون	-11810
▁مرسوم	-11811
▁نپذیر	-11812
▁پردیس	-11813
▁چارلی	-11814
▁چکیده	-11815
▁کامبو	-11816
▁اقیانو	-11817
▁بومیان	-11818
▁بپرهیز	-11819
▁دایرکت	-11820
▁دوردست	-11821
▁مستحکم	-11822
▁ناپاید	-11823
▁هولناک	-11824
▁استعمال	-11825
▁افتخاری	-11826
▁تاکتیکی	-11827
▁دستشویی	-11828
▁دوپامین	-11829
▁فولیکول	-11830
▁لیورپول	-11831
▁مهاجمان	-11832
▁نارسایی	-11833
▁اختراعات	-11834
▁اندرویدی	-11835
▁شکرگزاری	-11836
▁مشتریانی	-11837
▁هلیکوپتر	-11838
▁اشتباهاتی	-11839
▁اسکیزوفرنی	-11840
▁موافقتنامه	-11841
LS	-11842
VC	-11843
ck	-11844
ga	-11845
hu	-11846
اء	-11847
کد	-11848
▁‍	-11849
der	-11850
ger	-11851
ica	-11852
ney	-11853
oug	-11854
احب	-11855
ادۀ	-11856
امن	-11857
تای	-11858
هال	-11859
▁7)	-11860
▁AN	-11861
▁RF	-11862
▁۴۳	-11863
ideo	-11864
reet	-11865
بایی	-11866
زونا	-11867
مثلا	-11868
نانی	-11869
یزیم	-11870
▁Fil	-11871
▁Max	-11872
▁Mod	-11873
▁Par	-11874
▁Vis	-11875
▁اشا	-11876
▁بسط	-11877
▁ریو	-11878
▁شبی	-11879
▁مگا	-11880
▁میگ	-11881
▁کرک	-11882
▁یزد	-11883
تواند	-11884
ماتور	-11885
▁Euro	-11886
▁Glob	-11887
▁Gold	-11888
▁اونس	-11889
▁بازت	-11890
▁بنشی	-11891
▁تذکر	-11892
▁دورۀ	-11893
▁زدگی	-11894
▁شدنی	-11895
▁طبقۀ	-11896
▁لاین	-11897
▁ماسه	-11898
▁مصاد	-11899
▁ناپل	-11900
▁هدفش	-11901
▁هیأت	-11902
▁هیچی	-11903
▁کاذب	-11904
▁کنیا	-11905
نوتیزم	-11906
پوستان	-11907
▁آدمها	-11908
▁اسکلت	-11909
▁الکسا	-11910
▁بخورم	-11911
▁بدلیل	-11912
▁تابلو	-11913
▁تبریز	-11914
▁تصاحب	-11915
▁تمسخر	-11916
▁خانمی	-11917
▁رسماً	-11918
▁سفینه	-11919
▁ماریا	-11920
▁محتاج	-11921
▁کتابش	-11922
▁Design	-11923
▁اسلاید	-11924
▁انحصار	-11925
▁بپوشان	-11926
▁بگردید	-11927
▁تقریبی	-11928
▁جدیدتر	-11929
▁خواهرش	-11930
▁زادگاه	-11931
▁شدیداً	-11932
▁عنکبوت	-11933
▁مسلماً	-11934
▁منظورت	-11935
▁منیزیم	-11936
▁نارگیل	-11937
▁ونکوور	-11938
▁ویلسون	-11939
▁گفتمان	-11940
▁Project	-11941
▁آریزونا	-11942
▁تأسیسات	-11943
▁تدارکات	-11944
▁جغرافیا	-11945
▁خبرنامه	-11946
▁خوشایند	-11947
▁شناختند	-11948
▁نامیدند	-11949
▁همتایان	-11950
▁مشتاقانه	-11951
▁موثرترین	-11952
▁ویرجینیا	-11953
▁پذیرفتند	-11954
▁برانگیخته	-11955
▁هیپنوتیزم	-11956
▁فرزندانتان	-11957
BO	-11958
ei	-11959
pr	-11960
قر	-11961
con	-11962
ict	-11963
بلی	-11964
روک	-11965
ودو	-11966
وطی	-11967
ينه	-11968
پال	-11969
▁3،	-11970
▁84	-11971
▁GS	-11972
▁SA	-11973
▁Sa	-11974
▁un	-11975
▁هش	-11976
▁ژل	-11977
▁گس	-11978
azon	-11979
ense	-11980
eter	-11981
ider	-11982
nect	-11983
word	-11984
ائین	-11985
خوار	-11986
وقوع	-11987
▁Adv	-11988
▁Ang	-11989
▁Cle	-11990
▁Don	-11991
▁Sil	-11992
▁Tom	-11993
▁تیت	-11994
▁تین	-11995
▁حاج	-11996
▁خفه	-11997
▁زره	-11998
▁عجب	-11999
▁غوا	-12000
▁مشك	-12001
▁پاف	-12002
▁پیل	-12003
▁یّت	-12004
▁۱۲۰	-12005
ility	-12006
واستی	-12007
وانده	-12008
▁1930	-12009
▁Arch	-12010
▁City	-12011
▁Java	-12012
▁back	-12013
▁اسمی	-12014
▁بخرد	-12015
▁تایی	-12016
▁تلفی	-12017
▁جعفر	-12018
▁دهها	-12019
▁رسوم	-12020
▁زیرب	-12021
▁لطمه	-12022
▁نهنگ	-12023
▁ویکی	-12024
▁پایش	-12025
▁چلسی	-12026
▁کرون	-12027
▁اجسام	-12028
▁باخبر	-12029
▁بشنود	-12030
▁تساوی	-12031
▁جویان	-12032
▁حضوری	-12033
▁خرابی	-12034
▁خریدن	-12035
▁دیدگی	-12036
▁شناسه	-12037
▁مسعود	-12038
▁ملموس	-12039
▁نوازی	-12040
▁چالشی	-12041
▁کردار	-12042
▁کردها	-12043
▁گرانش	-12044
▁آمریكا	-12045
▁بفرستد	-12046
▁تدابیر	-12047
▁دزدیده	-12048
▁فرزندم	-12049
▁لحظاتی	-12050
▁معالجه	-12051
▁ناسالم	-12052
▁ناسیون	-12053
▁هدایای	-12054
▁ویراست	-12055
▁کامبوج	-12056
▁کماکان	-12057
▁اعتراضی	-12058
▁انباشته	-12059
▁بشناسند	-12060
▁بفروشید	-12061
▁بلاکچین	-12062
▁ناآرامی	-12063
▁American	-12064
▁بازگشتند	-12065
▁جغرافیای	-12066
▁درخواستی	-12067
▁ناهنجاری	-12068
▁هولوکاست	-12069
BS	-12070
LR	-12071
MP	-12072
za	-12073
قک	-12074
ple	-12075
yle	-12076
آیی	-12077
اطف	-12078
بون	-12079
بیح	-12080
بیک	-12081
ذوب	-12082
وژن	-12083
▁CH	-12084
▁Fe	-12085
▁Ma	-12086
▁؟"	-12087
▁جف	-12088
▁شت	-12089
▁یل	-12090
▁یِ	-12091
▁۴۲	-12092
▁۹۶	-12093
ئینی	-12094
اتیو	-12095
روشی	-12096
فتان	-12097
وانا	-12098
▁188	-12099
▁3.5	-12100
▁Inf	-12101
▁Lab	-12102
▁Ter	-12103
▁Ver	-12104
▁der	-12105
▁min	-12106
▁آیم	-12107
▁اتی	-12108
▁ارج	-12109
▁درز	-12110
▁قائ	-12111
▁لوس	-12112
▁کسر	-12113
▁گلب	-12114
▁گلد	-12115
انیات	-12116
رومغن	-12117
▁1920	-12118
▁،000	-12119
▁آلیس	-12120
▁تجلی	-12121
▁ترشح	-12122
▁ترقی	-12123
▁تیتر	-12124
▁حیطه	-12125
▁خلاء	-12126
▁دلقک	-12127
▁عایق	-12128
▁عمدا	-12129
▁مفاد	-12130
▁موعد	-12131
▁مکات	-12132
▁پراگ	-12133
▁پیشه	-12134
▁گالی	-12135
▁گشود	-12136
▁یاهو	-12137
▁2018،	-12138
▁Media	-12139
▁افریق	-12140
▁بامزه	-12141
▁جنگند	-12142
▁خلافت	-12143
▁خلیفه	-12144
▁دانشی	-12145
▁رایان	-12146
▁زبانه	-12147
▁شخصاً	-12148
▁ششمین	-12149
▁شنویم	-12150
▁عواطف	-12151
▁فواصل	-12152
▁قبولی	-12153
▁لوگوی	-12154
▁مجذوب	-12155
▁ممتاز	-12156
▁منبعی	-12157
▁پیامک	-12158
▁Chrome	-12159
▁Market	-12160
▁آرتریت	-12161
▁بپوشید	-12162
▁تضمینی	-12163
▁تمامیت	-12164
▁خواهرم	-12165
▁دادرسی	-12166
▁روایتی	-12167
▁سروکار	-12168
▁سوئیسی	-12169
▁فاشیسم	-12170
▁مالکان	-12171
▁متناقض	-12172
▁مریدان	-12173
▁کارآیی	-12174
▁گنجینه	-12175
▁بازرسان	-12176
▁تصادفات	-12177
▁دخانیات	-12178
▁فرآورده	-12179
▁موفقیتی	-12180
▁نوشتاری	-12181
▁بازنویسی	-12182
▁بیگانگان	-12183
▁دیپلماسی	-12184
▁سالخورده	-12185
▁فراخوانی	-12186
▁فرزندشان	-12187
▁هشدارهای	-12188
▁الکترومغن	-12189
▁تجدیدپذیر	-12190
▁خودروسازی	-12191
▁نمیتوانید	-12192
▁پیشنهادهای	-12193
▁استانداردها	-12194
))	-12195
ek	-12196
لک	-12197
َم	-12198
۱۳	-12199
▁٨	-12200
اهب	-12201
حاق	-12202
دهد	-12203
ساد	-12204
▁Di	-12205
▁ag	-12206
▁do	-12207
▁صی	-12208
Tube	-12209
ache	-12210
ابعی	-12211
ارنگ	-12212
حساب	-12213
ساری	-12214
موند	-12215
وشاپ	-12216
وندا	-12217
گوئه	-12218
▁How	-12219
▁Lin	-12220
▁Mot	-12221
▁Sou	-12222
▁آسا	-12223
▁بکش	-12224
▁دوک	-12225
▁ریل	-12226
▁زار	-12227
▁شیم	-12228
▁طفل	-12229
▁عدل	-12230
▁مفس	-12231
▁ناش	-12232
▁ورم	-12233
attle	-12234
ستگان	-12235
▁ابرو	-12236
▁اوّل	-12237
▁تشعش	-12238
▁تنبل	-12239
▁خارش	-12240
▁دانا	-12241
▁دهلی	-12242
▁دیدی	-12243
▁روکش	-12244
▁ریال	-12245
▁غیرع	-12246
▁لابی	-12247
▁مشتق	-12248
▁مونا	-12249
▁میشی	-12250
▁نورد	-12251
▁وقتش	-12252
▁کورت	-12253
▁گوان	-12254
▁اجماع	-12255
▁اسهال	-12256
▁اسکای	-12257
▁اعضاء	-12258
▁المثل	-12259
▁تسنیم	-12260
▁توفیق	-12261
▁جاسوس	-12262
▁جذابی	-12263
▁جنگید	-12264
▁خواری	-12265
▁سرشان	-12266
▁فشاری	-12267
▁فوران	-12268
▁فینال	-12269
▁ملیتی	-12270
▁نماند	-12271
▁پندار	-12272
▁کارتر	-12273
▁کامنت	-12274
▁کشمکش	-12275
▁گلبول	-12276
▁گلکسی	-12277
▁Office	-12278
▁اختصار	-12279
▁انحلال	-12280
▁بنشیند	-12281
▁خردسال	-12282
▁خودتون	-12283
▁قادرند	-12284
▁قلمداد	-12285
▁منابعی	-12286
▁میدانی	-12287
▁نویسید	-12288
▁پلاسما	-12289
▁چشمانش	-12290
▁یونسکو	-12291
▁YouTube	-12292
▁استغفار	-12293
▁انفجاری	-12294
▁حسابدار	-12295
▁خواستید	-12296
▁رنگارنگ	-12297
▁عزاداری	-12298
▁مزایایی	-12299
▁مشروعیت	-12300
▁همخوانی	-12301
▁واقعیتی	-12302
▁Security	-12303
▁اقامتگاه	-12304
▁صورتحساب	-12305
▁غیرمعمول	-12306
▁نیازمندی	-12307
▁تاجیکستان	-12308
▁فیزیولوژی	-12309
▁پارامترهای	-12310
▁واکسیناسیون	-12311
4)	-12312
ms	-12313
na	-12314
َی	-12315
زود	-12316
فات	-12317
فیع	-12318
نگو	-12319
پای	-12320
▁(5	-12321
▁58	-12322
▁mg	-12323
▁؟؟	-12324
▁آئ	-12325
▁يي	-12326
ارکی	-12327
ستین	-12328
عیفی	-12329
چوست	-12330
کائو	-12331
▁Dom	-12332
▁Mag	-12333
▁Pal	-12334
▁She	-12335
▁Sun	-12336
▁Tri	-12337
▁XML	-12338
▁act	-12339
▁you	-12340
▁آذر	-12341
▁اشی	-12342
▁اکو	-12343
▁بغل	-12344
▁غده	-12345
▁فرگ	-12346
▁نها	-12347
▁پشه	-12348
ابرجا	-12349
برابر	-12350
▁1975	-12351
▁High	-12352
▁Park	-12353
▁آیپد	-12354
▁اوری	-12355
▁بتمن	-12356
▁بنفش	-12357
▁بکشم	-12358
▁تروت	-12359
▁تشنه	-12360
▁جائی	-12361
▁جرقه	-12362
▁جواد	-12363
▁جیمی	-12364
▁سفره	-12365
▁سموم	-12366
▁سویی	-12367
▁ضمیر	-12368
▁عمرش	-12369
▁كاری	-12370
▁ممنو	-12371
▁میهن	-12372
▁نشدم	-12373
▁نگرد	-12374
▁هلاک	-12375
▁پلاک	-12376
▁پیشت	-12377
▁کوری	-12378
▁گراف	-12379
▁گوجه	-12380
▁Block	-12381
▁White	-12382
▁آپدیت	-12383
▁احضار	-12384
▁ارزشش	-12385
▁اونجا	-12386
▁اکران	-12387
▁ببینی	-12388
▁بپرسم	-12389
▁جواهر	-12390
▁دهقان	-12391
▁ضعیفی	-12392
▁فضیلت	-12393
▁معتدل	-12394
▁منشاء	-12395
▁میتون	-12396
▁نرسید	-12397
▁نظاره	-12398
▁نمایم	-12399
▁کلاژن	-12400
▁اسکناس	-12401
▁اعمالی	-12402
▁الگویی	-12403
▁برایان	-12404
▁برگزید	-12405
▁تکالیف	-12406
▁رویاها	-12407
▁شناختم	-12408
▁متراکم	-12409
▁منچستر	-12410
▁نمائید	-12411
▁نکردید	-12412
▁ویرانی	-12413
▁پابرجا	-12414
▁Science	-12415
▁ترجیحات	-12416
▁خوابیده	-12417
▁دوبرابر	-12418
▁روشنگری	-12419
▁نامطلوب	-12420
▁اظهارنظر	-12421
▁بینندگان	-12422
▁سنسورهای	-12423
▁ماساچوست	-12424
▁پاسداران	-12425
▁پروتستان	-12426
▁فاکتورهای	-12427
▁کارگزاران	-12428
▁بازداشتگاه	-12429
▁بیمارستانی	-12430
▁دانشجویانی	-12431
▁بازدیدکننده	-12432
9]	-12433
ye	-12434
لل	-12435
گي	-12436
۱۵	-12437
TPS	-12438
ape	-12439
app	-12440
ریش	-12441
فعل	-12442
نظم	-12443
يات	-12444
یمن	-12445
▁1،	-12446
▁5/	-12447
▁9-	-12448
▁Cr	-12449
▁GT	-12450
▁Jo	-12451
▁no	-12452
▁we	-12453
▁حك	-12454
▁يت	-12455
▁چگ	-12456
▁۳۹	-12457
face	-12458
ther	-12459
اردو	-12460
شقاب	-12461
ومات	-12462
یمیر	-12463
▁1.4	-12464
▁Pan	-12465
▁Vir	-12466
▁ابی	-12467
▁ادب	-12468
▁بسا	-12469
▁خسا	-12470
▁رئی	-12471
▁سده	-12472
▁مصل	-12473
▁وجو	-12474
▁گير	-12475
حداقل	-12476
واستم	-12477
کسالی	-12478
▁1949	-12479
▁1984	-12480
▁Jour	-12481
▁Part	-12482
▁ster	-12483
▁بیاد	-12484
▁توکل	-12485
▁جسور	-12486
▁لینگ	-12487
▁مجید	-12488
▁مقال	-12489
▁نسلی	-12490
▁هوان	-12491
▁وصیت	-12492
▁پنبه	-12493
▁پنسی	-12494
▁کمیت	-12495
▁۱۹۲۰	-12496
▁Space	-12497
▁اجابت	-12498
▁اجساد	-12499
▁اسحاق	-12500
▁اقرار	-12501
▁اماکن	-12502
▁انزوا	-12503
▁اهدای	-12504
▁باورم	-12505
▁بشقاب	-12506
▁بگویی	-12507
▁تعمیم	-12508
▁تفرقه	-12509
▁توليد	-12510
▁جوراب	-12511
▁دانیل	-12512
▁روندی	-12513
▁ریگان	-12514
▁سانتا	-12515
▁صورتش	-12516
▁عنایت	-12517
▁فروند	-12518
▁محمود	-12519
▁منافق	-12520
▁موردش	-12521
▁موسوی	-12522
▁نشیمن	-12523
▁هراسی	-12524
▁وارده	-12525
▁ویزیت	-12526
▁پرشور	-12527
▁گلدان	-12528
▁Battle	-12529
▁برنارد	-12530
▁بیابند	-12531
▁خسارات	-12532
▁سالیان	-12533
▁شیردهی	-12534
▁فرستند	-12535
▁فروشند	-12536
▁متوسطه	-12537
▁مسئولی	-12538
▁ممنوعه	-12539
▁نامنظم	-12540
▁نوسازی	-12541
▁هشداری	-12542
▁گردشگر	-12543
▁گفتاری	-12544
▁Digital	-12545
▁افزودنی	-12546
▁بپیوندد	-12547
▁رویدادی	-12548
▁سرپرستی	-12549
▁سرگردان	-12550
▁غذاخوری	-12551
▁فرایندی	-12552
▁فضاپیما	-12553
▁میگویند	-12554
▁نوسانات	-12555
▁همکلاسی	-12556
▁پشیمانی	-12557
▁استعماری	-12558
▁بازمانده	-12559
▁صهیونیست	-12560
▁ویدئوهای	-12561
▁یکپارچگی	-12562
▁بیماریهای	-12563
▁پنسیلوانیا	-12564
HO	-12565
عج	-12566
ott	-12567
زیر	-12568
منی	-12569
یسف	-12570
ینز	-12571
▁87	-12572
▁BI	-12573
▁JP	-12574
▁UC	-12575
▁bo	-12576
▁نل	-12577
تایی	-12578
زلزل	-12579
شامل	-12580
فقود	-12581
چیان	-12582
کتاپ	-12583
▁130	-12584
▁Cat	-12585
▁MRI	-12586
▁SQL	-12587
▁USD	-12588
▁Way	-12589
▁اجن	-12590
▁انش	-12591
▁بتن	-12592
▁بنو	-12593
▁جبر	-12594
▁دلی	-12595
▁زان	-12596
▁زیم	-12597
▁فرن	-12598
▁قهر	-12599
▁وفق	-12600
▁کتب	-12601
▁کوم	-12602
اندون	-12603
گشایی	-12604
▁Char	-12605
▁File	-12606
▁iPad	-12607
▁بالی	-12608
▁بدید	-12609
▁بورو	-12610
▁بوسه	-12611
▁تهمت	-12612
▁دالر	-12613
▁دایر	-12614
▁رویش	-12615
▁سرنخ	-12616
▁طاقت	-12617
▁عمدی	-12618
▁قضات	-12619
▁لانه	-12620
▁لشکر	-12621
▁مداد	-12622
▁مستث	-12623
▁نیوم	-12624
▁ورای	-12625
▁کانت	-12626
▁گرمی	-12627
▁۱۹۹۲	-12628
بولانس	-12629
▁ارسطو	-12630
▁بیندی	-12631
▁تقلبی	-12632
▁جراحت	-12633
▁جنگلی	-12634
▁خصومت	-12635
▁درخشش	-12636
▁روانه	-12637
▁سندرز	-12638
▁صدمات	-12639
▁كننده	-12640
▁مارکو	-12641
▁مخترع	-12642
▁مفقود	-12643
▁ملوان	-12644
▁مملکت	-12645
▁ممکنه	-12646
▁هجدهم	-12647
▁هواوی	-12648
▁وسواس	-12649
▁پسوند	-12650
▁Amazon	-12651
▁Health	-12652
▁برادری	-12653
▁بوتاکس	-12654
▁خوردگی	-12655
▁دسکتاپ	-12656
▁دندانی	-12657
▁دکترای	-12658
▁سریلان	-12659
▁طلبانه	-12660
▁فاضلاب	-12661
▁فتوشاپ	-12662
▁میتونه	-12663
▁ناکامی	-12664
▁نواختن	-12665
▁پذیرای	-12666
▁کابینت	-12667
▁بفروشند	-12668
▁خشکسالی	-12669
▁قبرستان	-12670
▁مخلوقات	-12671
▁موبایلی	-12672
▁آتلانتیک	-12673
▁داروسازی	-12674
▁رمزگشایی	-12675
▁پاکستانی	-12676
▁گیگابایت	-12677
▁آموزگاران	-12678
▁بازرگانان	-12679
▁بروزرسانی	-12680
▁قدرتمندتر	-12681
OT	-12682
َع	-12683
ane	-12684
era	-12685
ئوس	-12686
باب	-12687
لیو	-12688
میع	-12689
▁Gh	-12690
▁Kn	-12691
▁MC	-12692
▁Si	-12693
▁em	-12694
▁lo	-12695
▁۶٫	-12696
▁۷۲	-12697
ency	-12698
irst	-12699
itch	-12700
اتان	-12701
انده	-12702
ترنت	-12703
دادی	-12704
نشین	-12705
وبری	-12706
ولید	-12707
کوبی	-12708
▁365	-12709
▁GDP	-12710
▁Win	-12711
▁آرک	-12712
▁بون	-12713
▁حیث	-12714
▁دسر	-12715
▁دهۀ	-12716
▁روا	-12717
▁شات	-12718
▁شتم	-12719
▁شكل	-12720
▁صدد	-12721
▁فره	-12722
▁لئو	-12723
▁لوط	-12724
▁لکن	-12725
▁چمن	-12726
▁چید	-12727
▁یوم	-12728
ittle	-12729
پرایز	-12730
▁1988	-12731
▁Dark	-12732
▁Mode	-12733
▁News	-12734
▁Plus	-12735
▁Port	-12736
▁Rock	-12737
▁آجیل	-12738
▁تموم	-12739
▁تونه	-12740
▁خراش	-12741
▁دروس	-12742
▁دونم	-12743
▁رقیق	-12744
▁زشتی	-12745
▁سنتز	-12746
▁شاتر	-12747
▁ضمنی	-12748
▁لهجه	-12749
▁مائو	-12750
▁مارچ	-12751
▁مالت	-12752
▁مورخ	-12753
▁نهار	-12754
▁هاوک	-12755
▁ولاد	-12756
▁پینگ	-12757
▁چنين	-12758
▁یادت	-12759
ابولیک	-12760
▁David	-12761
▁HTTPS	-12762
▁آمرزش	-12763
▁آپولو	-12764
▁ابرقه	-12765
▁اسارت	-12766
▁اشتها	-12767
▁بخریم	-12768
▁بوسنی	-12769
▁بیروت	-12770
▁حوالی	-12771
▁درسته	-12772
▁دزدان	-12773
▁دیرتر	-12774
▁سؤالی	-12775
▁سهمیه	-12776
▁شایان	-12777
▁شرافت	-12778
▁صحرای	-12779
▁قرمزی	-12780
▁مطبوع	-12781
▁مفصلی	-12782
▁منشور	-12783
▁منفعل	-12784
▁موسیق	-12785
▁نوشند	-12786
▁پیامد	-12787
▁کلیوی	-12788
▁یعقوب	-12789
▁یکسری	-12790
▁Instit	-12791
▁Street	-12792
▁آموزند	-12793
▁آمیخته	-12794
▁استریت	-12795
▁بیچاره	-12796
▁دریاها	-12797
▁سرازیر	-12798
▁شاهدان	-12799
▁صمیمیت	-12800
▁مارشال	-12801
▁مغزتان	-12802
▁میکروف	-12803
▁هرآنچه	-12804
▁همچنين	-12805
▁کودتای	-12806
▁یکباره	-12807
▁Edition	-12808
▁ارتجاعی	-12809
▁انتظارش	-12810
▁تروتسکی	-12811
▁جزئیاتی	-12812
▁دینامیک	-12813
▁زیستگاه	-12814
▁قاطعانه	-12815
▁لینکدین	-12816
▁مستعمره	-12817
▁معادلات	-12818
▁میلیونر	-12819
▁نیفتاده	-12820
▁پافشاری	-12821
▁پانزدهم	-12822
▁کارآگاه	-12823
▁انداختند	-12824
▁جستجوهای	-12825
▁خودآگاهی	-12826
▁فرستادند	-12827
▁نامزدهای	-12828
▁ناپایدار	-12829
▁هواشناسی	-12830
▁کاربرانی	-12831
▁تماشاگران	-12832
▁دایرکتوری	-12833
LE	-12834
PP	-12835
UN	-12836
يع	-12837
Bay	-12838
NET	-12839
ote	-12840
بیش	-12841
دیو	-12842
راط	-12843
سار	-12844
صلت	-12845
ضحی	-12846
لفل	-12847
نیه	-12848
کلن	-12849
کیم	-12850
▁Er	-12851
▁JS	-12852
▁RS	-12853
▁Sl	-12854
▁my	-12855
▁ur	-12856
▁wh	-12857
▁قن	-12858
▁يه	-12859
▁چن	-12860
▁۵۲	-12861
flix	-12862
hine	-12863
lish	-12864
اریو	-12865
اصری	-12866
جاوز	-12867
واژه	-12868
چنین	-12869
کینز	-12870
ینفع	-12871
▁(10	-12872
▁1.8	-12873
▁AMP	-12874
▁Bur	-12875
▁CPU	-12876
▁Hum	-12877
▁San	-12878
▁off	-12879
▁res	-12880
▁آنگ	-12881
▁زوم	-12882
▁فام	-12883
▁لگن	-12884
▁واد	-12885
▁چتر	-12886
erson	-12887
اسازی	-12888
درنال	-12889
زستان	-12890
ولوشن	-12891
▁6000	-12892
▁Stat	-12893
▁With	-12894
▁ارضی	-12895
▁اولا	-12896
▁تیمش	-12897
▁خصلت	-12898
▁زاکر	-12899
▁سندی	-12900
▁شرور	-12901
▁شنوم	-12902
▁لوسی	-12903
▁لیون	-12904
▁ماکس	-12905
▁متفق	-12906
▁محسن	-12907
▁مرکل	-12908
▁مرید	-12909
▁مستر	-12910
▁مودم	-12911
▁مولد	-12912
▁نقاش	-12913
▁هایت	-12914
▁کاسه	-12915
▁کنيد	-12916
▁House	-12917
▁آمدیم	-12918
▁اشاعه	-12919
▁اشعار	-12920
▁اصولا	-12921
▁تدبیر	-12922
▁تشریف	-12923
▁تماسی	-12924
▁جوانه	-12925
▁خرداد	-12926
▁دویست	-12927
▁رابین	-12928
▁رساله	-12929
▁روتین	-12930
▁فیلاد	-12931
▁منجمد	-12932
▁نابین	-12933
▁واضحی	-12934
▁پاراد	-12935
▁کربلا	-12936
▁گرانی	-12937
▁گزینش	-12938
▁گلوتن	-12939
▁Studio	-12940
▁آسانتر	-12941
▁تورهای	-12942
▁حاکمان	-12943
▁دلپذیر	-12944
▁سندروم	-12945
▁سوزاند	-12946
▁نبودیم	-12947
▁نخورید	-12948
▁نشریات	-12949
▁وزیران	-12950
▁گرمایی	-12951
▁Manager	-12952
▁Netflix	-12953
▁استبداد	-12954
▁برسانیم	-12955
▁بیندازد	-12956
▁جداسازی	-12957
▁رساندند	-12958
▁زاکربرگ	-12959
▁شادمانی	-12960
▁فرآیندی	-12961
▁ناپلئون	-12962
▁پسندیده	-12963
▁کارآمدی	-12964
▁کوکائین	-12965
▁گردانند	-12966
▁آمبولانس	-12967
▁روستاهای	-12968
▁سازمانها	-12969
▁سورپرایز	-12970
▁کلیدواژه	-12971
▁باکتریایی	-12972
▁فیزیوتراپی	-12973
.)	-12974
2]	-12975
sk	-12976
ضت	-12977
َب	-12978
▁٥	-12979
apt	-12980
mer	-12981
obe	-12982
uty	-12983
سای	-12984
عاب	-12985
كار	-12986
ومر	-12987
▁-2	-12988
▁71	-12989
▁Du	-12990
▁IU	-12991
▁Ul	-12992
▁خُ	-12993
▁صع	-12994
▁ضل	-12995
▁غض	-12996
▁فح	-12997
▁نك	-12998
▁هت	-12999
▁وي	-13000
▁ژی	-13001
▁۶۶	-13002
راگم	-13003
نیاز	-13004
ودگی	-13005
پرست	-13006
▁184	-13007
▁350	-13008
▁Ant	-13009
▁DVD	-13010
▁Del	-13011
▁End	-13012
▁Ins	-13013
▁Jon	-13014
▁Sky	-13015
▁[5]	-13016
▁mon	-13017
▁تشک	-13018
▁حری	-13019
▁رفر	-13020
▁سلم	-13021
▁سپر	-13022
▁طبع	-13023
▁عطف	-13024
▁فنگ	-13025
▁مضح	-13026
▁معذ	-13027
▁هود	-13028
▁٢٠١	-13029
▁چیپ	-13030
▁کسل	-13031
▁کلک	-13032
مثلاً	-13033
▁1945	-13034
▁1987	-13035
▁Code	-13036
▁Prin	-13037
▁Soft	-13038
▁West	-13039
▁Your	-13040
▁over	-13041
▁آکنه	-13042
▁اهرم	-13043
▁اورژ	-13044
▁باها	-13045
▁باین	-13046
▁بذار	-13047
▁بنوش	-13048
▁تراش	-13049
▁جارو	-13050
▁حسرت	-13051
▁خادم	-13052
▁دیاف	-13053
▁ستان	-13054
▁میگه	-13055
▁نياز	-13056
▁هرجا	-13057
▁وخیم	-13058
▁پرسم	-13059
▁یادش	-13060
▁یتیم	-13061
▁۱۹۴۵	-13062
ession	-13063
بیوتیک	-13064
ستردام	-13065
▁ابلیس	-13066
▁بشوید	-13067
▁بشویم	-13068
▁تجربۀ	-13069
▁ذینفع	-13070
▁زمانه	-13071
▁سوزنی	-13072
▁شارژر	-13073
▁شرارت	-13074
▁صلیبی	-13075
▁فردای	-13076
▁فعلاً	-13077
▁قبایل	-13078
▁متذکر	-13079
▁مداری	-13080
▁نشیند	-13081
▁نگیرد	-13082
▁هنگفت	-13083
▁والتر	-13084
▁کنارش	-13085
▁گوارش	-13086
▁Analyt	-13087
▁Center	-13088
▁Direct	-13089
▁استیشن	-13090
▁انتصاب	-13091
▁برندها	-13092
▁بندهای	-13093
▁خاکستر	-13094
▁خراسان	-13095
▁خصوصیت	-13096
▁خطراتی	-13097
▁دمکرات	-13098
▁راستین	-13099
▁رسیدید	-13100
▁سومالی	-13101
▁شانزده	-13102
▁فولادی	-13103
▁متجاوز	-13104
▁مورگان	-13105
▁میانجی	-13106
▁ناکافی	-13107
▁ویدیوی	-13108
▁کارانه	-13109
▁کتابها	-13110
▁کریپتو	-13111
▁گذرگاه	-13112
▁College	-13113
▁Control	-13114
▁Machine	-13115
▁آمارهای	-13116
▁امتیازی	-13117
▁بازیکنی	-13118
▁بنیامین	-13119
▁سالهاست	-13120
▁مادرشان	-13121
▁مجبورند	-13122
▁کارولین	-13123
▁گناهکار	-13124
▁بازتولید	-13125
▁بپیوندند	-13126
▁جنایتکار	-13127
▁دیافراگم	-13128
▁مارکسیسم	-13129
▁مخابراتی	-13130
▁نژادپرست	-13131
▁ورشکستگی	-13132
▁ویرایشگر	-13133
▁سونوگرافی	-13134
▁نورپردازی	-13135
▁پیمانکاران	-13136
-3	-13137
MO	-13138
ae	-13139
sy	-13140
َد	-13141
۵۰	-13142
lin	-13143
آنی	-13144
الا	-13145
الو	-13146
جره	-13147
زاد	-13148
شدت	-13149
عدی	-13150
ورن	-13151
▁AA	-13152
▁CE	-13153
▁GR	-13154
▁Ob	-13155
▁TM	-13156
▁di	-13157
▁go	-13158
▁اگ	-13159
▁“.	-13160
awei	-13161
here	-13162
ابقی	-13163
قانی	-13164
وتوث	-13165
وظبی	-13166
▁(4)	-13167
▁185	-13168
▁Cal	-13169
▁Log	-13170
▁Reg	-13171
▁ent	-13172
▁ive	-13173
▁آلپ	-13174
▁بيش	-13175
▁بکر	-13176
▁داگ	-13177
▁ذوق	-13178
▁عقد	-13179
▁فاح	-13180
▁مدر	-13181
▁هاف	-13182
▁هاپ	-13183
▁پوز	-13184
▁چرت	-13185
▁کون	-13186
ایندی	-13187
جمعیت	-13188
زیستی	-13189
نگوئن	-13190
▁1200	-13191
▁Card	-13192
▁Paul	-13193
▁Rich	-13194
▁mark	-13195
▁بورگ	-13196
▁بیوه	-13197
▁تاون	-13198
▁ترين	-13199
▁حرمت	-13200
▁حقیق	-13201
▁ریلی	-13202
▁سکان	-13203
▁شسته	-13204
▁غلطی	-13205
▁فسیل	-13206
▁فلفل	-13207
▁لایت	-13208
▁لمسی	-13209
▁محرم	-13210
▁مرکب	-13211
▁منسو	-13212
▁نرود	-13213
▁نشاط	-13214
▁نهضت	-13215
▁هدست	-13216
▁پدیا	-13217
▁ژنوم	-13218
▁کاشی	-13219
▁کینه	-13220
▁یکصد	-13221
▁۱۹۶۸	-13222
▁۱۹۷۹	-13223
▁۱۹۹۴	-13224
▁۱۹۹۶	-13225
▁Games	-13226
▁Store	-13227
▁ابتکا	-13228
▁افسوس	-13229
▁برهنه	-13230
▁بمیرد	-13231
▁تجلیل	-13232
▁توحید	-13233
▁جامعۀ	-13234
▁دلالت	-13235
▁سردار	-13236
▁صعودی	-13237
▁قرآنی	-13238
▁قومیت	-13239
▁مابقی	-13240
▁مارول	-13241
▁نجومی	-13242
▁نشستم	-13243
▁واحدی	-13244
▁پاشنه	-13245
▁کاستی	-13246
▁گاراژ	-13247
▁Huawei	-13248
▁آنگونه	-13249
▁ابوظبی	-13250
▁ارکستر	-13251
▁استفان	-13252
▁الوقوع	-13253
▁اپیزود	-13254
▁ببخشند	-13255
▁براتون	-13256
▁بلوتوث	-13257
▁بولیوی	-13258
▁سربازی	-13259
▁عمیقاً	-13260
▁لبنانی	-13261
▁معجزات	-13262
▁منظوره	-13263
▁پروازی	-13264
▁پنگوئن	-13265
▁کاروان	-13266
▁کاکائو	-13267
▁کریستی	-13268
▁گراهام	-13269
▁گوینده	-13270
▁یونیسف	-13271
▁Express	-13272
▁آموزنده	-13273
▁سوزانده	-13274
▁صورتیکه	-13275
▁فیلادلف	-13276
▁همراهان	-13277
▁وارداتی	-13278
▁پرجمعیت	-13279
▁آمستردام	-13280
▁اورژانسی	-13281
▁بیندازیم	-13282
▁غیرطبیعی	-13283
▁ماندگاری	-13284
▁ولادیمیر	-13285
▁سپاسگزارم	-13286
▁پروبیوتیک	-13287
▁پستانداران	-13288
CG	-13289
GA	-13290
OI	-13291
by	-13292
ji	-13293
we	-13294
اخ	-13295
بن	-13296
بک	-13297
وغ	-13298
۳۰	-13299
▁٧	-13300
ren	-13301
unt	-13302
حان	-13303
خوب	-13304
رود	-13305
زلی	-13306
سنت	-13307
لاغ	-13308
پرو	-13309
کول	-13310
▁!؟	-13311
▁1,	-13312
▁9:	-13313
▁ED	-13314
▁EU	-13315
▁NV	-13316
▁UX	-13317
▁fl	-13318
▁۵۱	-13319
▁۷۶	-13320
▁۷۸	-13321
▁۸۸	-13322
ocal	-13323
ulti	-13324
لینگ	-13325
مردم	-13326
هایو	-13327
واکی	-13328
ولتی	-13329
▁1.0	-13330
▁110	-13331
▁Doc	-13332
▁Map	-13333
▁May	-13334
▁Men	-13335
▁Tag	-13336
▁؟!!	-13337
▁اگز	-13338
▁جهل	-13339
▁داک	-13340
▁سرآ	-13341
▁شاپ	-13342
▁شوخ	-13343
▁عتی	-13344
▁مفر	-13345
▁هرز	-13346
▁هرم	-13347
▁وثی	-13348
▁کیش	-13349
▁گوا	-13350
رهایی	-13351
ودنسی	-13352
▁1969	-13353
▁1973	-13354
▁1978	-13355
▁Core	-13356
▁Tool	-13357
▁Will	-13358
▁eBay	-13359
▁اسپی	-13360
▁اینا	-13361
▁بسوی	-13362
▁بوکس	-13363
▁توقی	-13364
▁جدال	-13365
▁ذغال	-13366
▁سرشت	-13367
▁سنگر	-13368
▁شلاق	-13369
▁فوکو	-13370
▁قالی	-13371
▁قدمی	-13372
▁قرعه	-13373
▁كردم	-13374
▁مؤسس	-13375
▁مشرک	-13376
▁مشکی	-13377
▁نامد	-13378
▁نمید	-13379
▁هادی	-13380
▁وزنی	-13381
▁پترو	-13382
▁کوبی	-13383
▁Watch	-13384
▁اجناس	-13385
▁انگور	-13386
▁باطری	-13387
▁بیابد	-13388
▁تحکیم	-13389
▁تسلیت	-13390
▁جادوی	-13391
▁خطایی	-13392
▁راندن	-13393
▁رحمان	-13394
▁سانحه	-13395
▁شامپو	-13396
▁غریبی	-13397
▁محصور	-13398
▁مذاهب	-13399
▁مزبور	-13400
▁مستحق	-13401
▁مغلوب	-13402
▁منزله	-13403
▁منعقد	-13404
▁میکنن	-13405
▁هرچیز	-13406
▁پررنگ	-13407
▁پسورد	-13408
▁پورشه	-13409
▁Global	-13410
▁Little	-13411
▁Search	-13412
▁آسپرین	-13413
▁آمارها	-13414
▁بردگان	-13415
▁بشناسد	-13416
▁خوابید	-13417
▁زیباتر	-13418
▁طبیعتا	-13419
▁مشورتی	-13420
▁ناگفته	-13421
▁نهادها	-13422
▁پذیریم	-13423
▁پیداست	-13424
▁پیشتاز	-13425
▁پیشینی	-13426
▁کارتون	-13427
▁یادمان	-13428
▁آرامگاه	-13429
▁آناتومی	-13430
▁اثرگذار	-13431
▁اشتراکی	-13432
▁انیشتین	-13433
▁دوازدهم	-13434
▁متفکران	-13435
▁محافظتی	-13436
▁نتوانیم	-13437
▁پرهزینه	-13438
▁آنابولیک	-13439
▁احتمالات	-13440
▁بکارگیری	-13441
▁سریلانکا	-13442
▁فرانکلین	-13443
▁میتوانیم	-13444
▁نویسندگی	-13445
▁نگهبانان	-13446
▁برگردانده	-13447
▁قراردادها	-13448
▁تاثیرگذاری	-13449
DI	-13450
IL	-13451
be	-13452
تز	-13453
ُل	-13454
ino	-13455
ipp	-13456
osh	-13457
راً	-13458
زاس	-13459
فرد	-13460
يون	-13461
کاش	-13462
▁8)	-13463
▁94	-13464
▁CF	-13465
▁IF	-13466
▁MB	-13467
▁OL	-13468
▁RE	-13469
▁].	-13470
▁fr	-13471
▁qu	-13472
▁؟”	-13473
▁ّه	-13474
▁۴۱	-13475
▁۴۹	-13476
▁۵٫	-13477
▁۵۳	-13478
ited	-13479
ouch	-13480
uter	-13481
ایتد	-13482
ربچه	-13483
سیته	-13484
ضاعف	-13485
پسون	-13486
کینگ	-13487
گراف	-13488
▁00:	-13489
▁11.	-13490
▁450	-13491
▁Bat	-13492
▁Ext	-13493
▁Rad	-13494
▁Vol	-13495
▁way	-13496
▁آجر	-13497
▁اسق	-13498
▁تبر	-13499
▁ساب	-13500
▁طمع	-13501
▁قاط	-13502
▁قلی	-13503
▁كاه	-13504
▁مبد	-13505
▁نفی	-13506
▁هات	-13507
▁هوس	-13508
▁ویز	-13509
▁پوچ	-13510
agram	-13511
chain	-13512
velop	-13513
شماری	-13514
▁,000	-13515
▁1940	-13516
▁1968	-13517
▁7000	-13518
▁Bank	-13519
▁Evil	-13520
▁Fire	-13521
▁Just	-13522
▁Page	-13523
▁Sony	-13524
▁Type	-13525
▁اجاق	-13526
▁انعق	-13527
▁بانی	-13528
▁برام	-13529
▁بشدت	-13530
▁جابه	-13531
▁جديد	-13532
▁جونگ	-13533
▁خاله	-13534
▁خوای	-13535
▁رومی	-13536
▁ساقه	-13537
▁فرما	-13538
▁فطرت	-13539
▁فوبی	-13540
▁مثلث	-13541
▁هویج	-13542
▁هیول	-13543
▁واتس	-13544
▁چروک	-13545
▁کراس	-13546
▁کیفر	-13547
▁گردو	-13548
▁Class	-13549
▁State	-13550
▁آلیاژ	-13551
▁ايشان	-13552
▁تیلور	-13553
▁حماقت	-13554
▁دلسرد	-13555
▁دهانش	-13556
▁دیکته	-13557
▁روسای	-13558
▁زندگي	-13559
▁زننده	-13560
▁شراکت	-13561
▁شلوغی	-13562
▁فامیل	-13563
▁فوتون	-13564
▁مسموم	-13565
▁مطلبی	-13566
▁منصرف	-13567
▁نزولی	-13568
▁پهلوی	-13569
▁چاپگر	-13570
▁چنگال	-13571
▁کولون	-13572
▁اتفاقا	-13573
▁احتراق	-13574
▁ادعایی	-13575
▁انزوای	-13576
▁انسجام	-13577
▁باورها	-13578
▁برکنار	-13579
▁بپرسیم	-13580
▁تجارتی	-13581
▁جویانه	-13582
▁خندیدن	-13583
▁دورانی	-13584
▁راکتور	-13585
▁روابطی	-13586
▁سکولار	-13587
▁فرضیات	-13588
▁ماندنی	-13589
▁مراقبه	-13590
▁مگاوات	-13591
▁واشینگ	-13592
▁پسربچه	-13593
▁پورتال	-13594
▁پوپولی	-13595
lication	-13596
▁Service	-13597
▁احتیاجی	-13598
▁استثناء	-13599
▁افزایشی	-13600
▁امریکای	-13601
▁تماشاگر	-13602
▁جاناتان	-13603
▁رزولوشن	-13604
▁غیرعادی	-13605
▁نیتروژن	-13606
▁نیکوتین	-13607
▁ویرانگر	-13608
▁کلیساها	-13609
▁کنتراست	-13610
▁ارتودنسی	-13611
▁استادیوم	-13612
▁دریافتیم	-13613
▁فیلسوفان	-13614
▁مسئولیتی	-13615
▁موجوداتی	-13616
▁دستگاههای	-13617
▁دوستداران	-13618
▁ایدئولوژیک	-13619
▁فرزندانمان	-13620
▁بنیانگذاران	-13621
1]	-13622
طۀ	-13623
يخ	-13624
ُن	-13625
elf	-13626
eng	-13627
les	-13628
net	-13629
ody	-13630
ترل	-13631
ویک	-13632
▁6:	-13633
▁81	-13634
▁Az	-13635
▁NO	-13636
▁ON	-13637
▁ck	-13638
▁بق	-13639
▁زر	-13640
▁قح	-13641
▁لت	-13642
▁نط	-13643
▁چي	-13644
▁گد	-13645
adem	-13646
atur	-13647
ient	-13648
oney	-13649
tain	-13650
الحه	-13651
ذیری	-13652
رادو	-13653
رسمی	-13654
زیری	-13655
لیکس	-13656
▁(5)	-13657
▁Hot	-13658
▁des	-13659
▁ell	-13660
▁آتن	-13661
▁ازب	-13662
▁الت	-13663
▁الش	-13664
▁اوه	-13665
▁حقّ	-13666
▁خائ	-13667
▁دوس	-13668
▁دیس	-13669
▁رأس	-13670
▁سات	-13671
▁غرا	-13672
▁موث	-13673
▁موه	-13674
▁ویس	-13675
▁پسا	-13676
▁ژنی	-13677
▁۲۰۲	-13678
ident	-13679
ridge	-13680
کسپیر	-13681
یاطین	-13682
▁(199	-13683
▁1971	-13684
▁comp	-13685
▁view	-13686
▁آیید	-13687
▁السّ	-13688
▁انست	-13689
▁بالش	-13690
▁بحثی	-13691
▁بدنم	-13692
▁بیاف	-13693
▁حصار	-13694
▁روبی	-13695
▁شهود	-13696
▁لایق	-13697
▁لویی	-13698
▁مبدا	-13699
▁نجوم	-13700
▁نوپا	-13701
▁واکر	-13702
▁پتاس	-13703
▁کمیک	-13704
▁کنده	-13705
▁گنبد	-13706
همچنین	-13707
ویرایش	-13708
▁2013،	-13709
▁Adobe	-13710
▁React	-13711
▁graph	-13712
▁inter	-13713
▁اطلاق	-13714
▁بصیرت	-13715
▁تبعات	-13716
▁توقیف	-13717
▁جویدن	-13718
▁خبرها	-13719
▁رفتید	-13720
▁سرهنگ	-13721
▁غیرمن	-13722
▁فمینی	-13723
▁فهمیم	-13724
▁لیزری	-13725
▁متوسل	-13726
▁مرجان	-13727
▁مضاعف	-13728
▁مهمات	-13729
▁موریس	-13730
▁نوزده	-13731
▁وکالت	-13732
▁چطوری	-13733
▁کرامت	-13734
▁کشورم	-13735
▁گرامر	-13736
▁ارسالی	-13737
▁الزامی	-13738
▁اوهایو	-13739
▁دستشان	-13740
▁دیداری	-13741
▁شیاطین	-13742
▁منازعه	-13743
▁نباشیم	-13744
▁نظریات	-13745
▁نوشتند	-13746
▁هرکاری	-13747
▁پوستان	-13748
▁پیمایش	-13749
▁کدامیک	-13750
▁باغبانی	-13751
▁بنشینند	-13752
▁تهدیدها	-13753
▁حواستان	-13754
▁خالکوبی	-13755
▁سلیمانی	-13756
▁غیررسمی	-13757
▁فریبنده	-13758
▁متحدانش	-13759
▁موردنظر	-13760
▁میشیگان	-13761
▁نقدینگی	-13762
▁هامبورگ	-13763
▁واگذاری	-13764
▁کارنامه	-13765
▁گفتگوها	-13766
▁Research	-13767
▁ازبکستان	-13768
▁دانمارکی	-13769
▁دندانهای	-13770
▁هوانوردی	-13771
▁سناریوهای	-13772
▁فیلادلفیا	-13773
-5	-13774
AL	-13775
CH	-13776
RS	-13777
bl	-13778
ya	-13779
شل	-13780
۱۴	-13781
▁×	-13782
dom	-13783
ral	-13784
تیش	-13785
زول	-13786
شنی	-13787
پان	-13788
یری	-13789
▁Af	-13790
▁FA	-13791
▁PL	-13792
▁pr	-13793
▁دژ	-13794
▁فج	-13795
▁قذ	-13796
▁مَ	-13797
▁۶۸	-13798
mail	-13799
ازیس	-13800
جرسی	-13801
رداد	-13802
ستور	-13803
غیان	-13804
فقاز	-13805
ولیب	-13806
ونیک	-13807
▁1.6	-13808
▁Add	-13809
▁Ber	-13810
▁Bra	-13811
▁Gra	-13812
▁LDL	-13813
▁Pix	-13814
▁Squ	-13815
▁ary	-13816
▁تزی	-13817
▁شال	-13818
▁فیض	-13819
▁قور	-13820
▁لاو	-13821
▁مصط	-13822
▁ياد	-13823
▁گوس	-13824
آمریک	-13825
تیوپی	-13826
گواری	-13827
▁2500	-13828
▁Phot	-13829
▁آمدی	-13830
▁ابله	-13831
▁الهه	-13832
▁برفی	-13833
▁برهه	-13834
▁بیعت	-13835
▁تقاض	-13836
▁تنزل	-13837
▁جایش	-13838
▁جمال	-13839
▁خوشت	-13840
▁رانی	-13841
▁طلبد	-13842
▁غایب	-13843
▁غلام	-13844
▁فالو	-13845
▁كودك	-13846
▁محول	-13847
▁هموط	-13848
▁پترز	-13849
▁پرتی	-13850
▁پلات	-13851
▁کباب	-13852
▁گلوی	-13853
▁یونس	-13854
▁۱۹۹۹	-13855
رفتاری	-13856
▁Drive	-13857
▁Image	-13858
▁Night	-13859
▁Trump	-13860
▁Video	-13861
▁آنانی	-13862
▁ابلاغ	-13863
▁باغچه	-13864
▁براین	-13865
▁بشارت	-13866
▁تلفیق	-13867
▁خریدم	-13868
▁راهرو	-13869
▁سپاری	-13870
▁سیارک	-13871
▁شفاعت	-13872
▁صدایش	-13873
▁ضربات	-13874
▁طغیان	-13875
▁عمارت	-13876
▁قفقاز	-13877
▁كنترل	-13878
▁محفظه	-13879
▁مقتضی	-13880
▁منقرض	-13881
▁ندادن	-13882
▁نکشید	-13883
▁نیمکت	-13884
▁واریز	-13885
▁ورزید	-13886
▁کرانه	-13887
▁گاوها	-13888
▁گشتند	-13889
▁Online	-13890
▁آدرنال	-13891
▁اتیوپی	-13892
▁اندازۀ	-13893
▁انگیزش	-13894
▁بخشنده	-13895
▁بریتیش	-13896
▁بورسیه	-13897
▁توصیفی	-13898
▁جنگیدن	-13899
▁خجالتی	-13900
▁خردمند	-13901
▁خودمون	-13902
▁سالمند	-13903
▁سواران	-13904
▁شکسپیر	-13905
▁متعاهد	-13906
▁متنفرم	-13907
▁مصالحه	-13908
▁نئولیب	-13909
▁نامشخص	-13910
▁گاردین	-13911
▁یادگار	-13912
▁استعاره	-13913
▁جادوگری	-13914
▁مبتدیان	-13915
▁مصدومیت	-13916
▁معنادار	-13917
▁مقاومتی	-13918
▁منحصربه	-13919
▁نمادهای	-13920
▁نیوجرسی	-13921
▁واقعیات	-13922
▁پوسیدگی	-13923
▁Facebook	-13924
▁اجتماعات	-13925
▁استنفورد	-13926
▁بدرفتاری	-13927
▁برندسازی	-13928
▁بورژوایی	-13929
▁بپرهیزید	-13930
▁بیاندازد	-13931
▁خودروساز	-13932
▁میخواستم	-13933
▁نمایانگر	-13934
▁ویدیوهای	-13935
▁پترزبورگ	-13936
▁کاندیدای	-13937
▁Analytics	-13938
▁بازیکنانی	-13939
▁رفتارهایی	-13940
▁نگهدارنده	-13941
--	-13942
:”	-13943
NG	-13944
PD	-13945
Re	-13946
أن	-13947
ئر	-13948
يق	-13949
asy	-13950
ene	-13951
ird	-13952
ury	-13953
ارۀ	-13954
اکت	-13955
دیس	-13956
سیت	-13957
صاف	-13958
ظمی	-13959
لوک	-13960
ولف	-13961
ویو	-13962
کره	-13963
کنی	-13964
▁83	-13965
▁ER	-13966
▁Py	-13967
▁SU	-13968
▁TO	-13969
▁rs	-13970
▁um	-13971
▁ري	-13972
▁١٠	-13973
▁۷٫	-13974
▁۷۷	-13975
قرآن	-13976
مایش	-13977
نینگ	-13978
وکار	-13979
▁101	-13980
▁5.5	-13981
▁Bio	-13982
▁Dan	-13983
▁Eth	-13984
▁NGC	-13985
▁Now	-13986
▁RNA	-13987
▁Top	-13988
▁[4]	-13989
▁ant	-13990
▁bar	-13991
▁den	-13992
▁dis	-13993
▁ism	-13994
▁php	-13995
▁آيا	-13996
▁ارن	-13997
▁بيم	-13998
▁تعه	-13999
▁جهن	-14000
▁حلب	-14001
▁دلب	-14002
▁دیک	-14003
▁رقی	-14004
▁سوت	-14005
▁صرع	-14006
▁طاق	-14007
▁عیس	-14008
▁غلی	-14009
▁فوک	-14010
▁فیت	-14011
▁نجی	-14012
▁نین	-14013
▁هاب	-14014
▁ولا	-14015
▁پرب	-14016
▁کرن	-14017
ature	-14018
لاسکا	-14019
نتاین	-14020
پیمای	-14021
یرانی	-14022
▁!!!!	-14023
▁1982	-14024
▁Fort	-14025
▁Tele	-14026
▁ting	-14027
▁آئین	-14028
▁آراء	-14029
▁ازین	-14030
▁اولش	-14031
▁تأمل	-14032
▁خرند	-14033
▁خواد	-14034
▁دونی	-14035
▁رؤیا	-14036
▁رضوی	-14037
▁روبل	-14038
▁سازم	-14039
▁شمول	-14040
▁غیرد	-14041
▁قضای	-14042
▁كنيد	-14043
▁لاری	-14044
▁لوتر	-14045
▁منشی	-14046
▁موجی	-14047
▁میرز	-14048
▁ناصر	-14049
▁نظرت	-14050
▁هیبر	-14051
▁پدرت	-14052
▁کمکم	-14053
▁یکجا	-14054
▁۱۹۹۱	-14055
ناپذیر	-14056
▁10000	-14057
▁2008،	-14058
▁2012،	-14059
▁Music	-14060
▁Stand	-14061
▁اجزاء	-14062
▁اقبال	-14063
▁بسازم	-14064
▁بلشوی	-14065
▁تسویه	-14066
▁تشبیه	-14067
▁تشییع	-14068
▁جهادی	-14069
▁رژیمی	-14070
▁زیستن	-14071
▁سرانه	-14072
▁لباسی	-14073
▁ماکرو	-14074
▁مترقی	-14075
▁مروری	-14076
▁مشخصا	-14077
▁مصلحت	-14078
▁منهتن	-14079
▁نابار	-14080
▁نادان	-14081
▁نظافت	-14082
▁نمیشه	-14083
▁نگفتم	-14084
▁پرسشی	-14085
▁پروتز	-14086
▁پرینت	-14087
▁پهپاد	-14088
▁پوشند	-14089
▁گاندی	-14090
▁گزاره	-14091
▁آلاسکا	-14092
▁جراحان	-14093
▁خودران	-14094
▁رباتیک	-14095
▁متهمان	-14096
▁ناوبری	-14097
▁ناگوار	-14098
▁پاداشی	-14099
▁پاناما	-14100
▁پتاسیم	-14101
▁پروتون	-14102
▁گوارشی	-14103
▁ization	-14104
▁ارزشهای	-14105
▁اندیشید	-14106
▁دریابید	-14107
▁رؤیاهای	-14108
▁سانفران	-14109
▁سفارشات	-14110
▁شانزدهم	-14111
▁صادراتی	-14112
▁معلومات	-14113
▁معیارها	-14114
▁هوشمندی	-14115
▁والدینی	-14116
▁پارتیشن	-14117
▁پرتغالی	-14118
▁گذاشتیم	-14119
▁گرمسیری	-14120
▁آمریکائی	-14121
▁آپارتاید	-14122
▁استخوانی	-14123
▁انتقالات	-14124
▁غیردولتی	-14125
▁میکروفون	-14126
▁نتوانستم	-14127
▁Instagram	-14128
▁اسرارآمیز	-14129
▁بیاندازید	-14130
▁روانپزشکی	-14131
▁سفارتخانه	-14132
▁سخاوتمندانه	-14133
/1	-14134
DC	-14135
Hz	-14136
mo	-14137
اث	-14138
اغ	-14139
رج	-14140
وژ	-14141
پز	-14142
۱۶	-14143
▁٦	-14144
acy	-14145
esh	-14146
gan	-14147
irl	-14148
urr	-14149
ائی	-14150
ايش	-14151
خوش	-14152
شوق	-14153
فتن	-14154
ملی	-14155
ورم	-14156
وها	-14157
گذر	-14158
▁(0	-14159
▁01	-14160
▁AB	-14161
▁GB	-14162
▁ME	-14163
▁NT	-14164
▁Wr	-14165
▁غر	-14166
▁۵۸	-14167
arth	-14168
ords	-14169
اپیش	-14170
بارا	-14171
باغه	-14172
خوان	-14173
نامۀ	-14174
یسون	-14175
▁105	-14176
▁Bay	-14177
▁Hol	-14178
▁Hor	-14179
▁ICO	-14180
▁Pub	-14181
▁Ult	-14182
▁Wom	-14183
▁ger	-14184
▁ind	-14185
▁ium	-14186
▁ley	-14187
▁باگ	-14188
▁بقی	-14189
▁بهر	-14190
▁جاي	-14191
▁دلا	-14192
▁ربع	-14193
▁سست	-14194
▁شرو	-14195
▁شعب	-14196
▁لرد	-14197
▁مگس	-14198
▁نرد	-14199
▁ولف	-14200
▁کای	-14201
▁کیا	-14202
خواهی	-14203
ونیوم	-14204
▁1981	-14205
▁1985	-14206
▁Down	-14207
▁Mess	-14208
▁Real	-14209
▁York	-14210
▁line	-14211
▁آییم	-14212
▁استم	-14213
▁اشرف	-14214
▁اکسل	-14215
▁بسنج	-14216
▁بشکن	-14217
▁جدای	-14218
▁حوثی	-14219
▁خبره	-14220
▁رجوی	-14221
▁رحیم	-14222
▁رینگ	-14223
▁سئول	-14224
▁ضامن	-14225
▁عرشه	-14226
▁قلبت	-14227
▁مصوب	-14228
▁مضحک	-14229
▁معرف	-14230
▁مقار	-14231
▁میگن	-14232
▁نامۀ	-14233
▁هفده	-14234
▁والا	-14235
▁والت	-14236
▁پالت	-14237
▁کبیر	-14238
▁۱۹۸۱	-14239
▁...».	-14240
▁Award	-14241
▁Elect	-14242
▁آبادی	-14243
▁آسوده	-14244
▁ارتشی	-14245
▁اشراف	-14246
▁اشیای	-14247
▁اونها	-14248
▁ایجاب	-14249
▁ایشون	-14250
▁برهان	-14251
▁تبخیر	-14252
▁تصوری	-14253
▁جمجمه	-14254
▁جنجال	-14255
▁عاشقش	-14256
▁غرامت	-14257
▁لعنتی	-14258
▁مادرت	-14259
▁متعاق	-14260
▁محمدی	-14261
▁مدرنی	-14262
▁معشوق	-14263
▁نتیجۀ	-14264
▁نزنید	-14265
▁هربار	-14266
▁هوازی	-14267
▁وثیقه	-14268
▁پلیمر	-14269
▁پیونگ	-14270
▁کاسته	-14271
▁کرمان	-14272
▁کلارک	-14273
▁کندتر	-14274
▁گاران	-14275
▁گرانب	-14276
▁یهودا	-14277
انداران	-14278
▁آنجاست	-14279
▁آهستگی	-14280
▁برنامۀ	-14281
▁بناهای	-14282
▁حقیقتی	-14283
▁رسولان	-14284
▁زندگیم	-14285
▁فرسوده	-14286
▁لینکلن	-14287
▁میتونم	-14288
▁هرچقدر	-14289
▁هشتمین	-14290
▁پاتریک	-14291
▁کراتین	-14292
▁کوتوله	-14293
▁Journal	-14294
▁اصطلاحی	-14295
▁السّلام	-14296
▁اینطوری	-14297
▁روندهای	-14298
▁سازوکار	-14299
▁فراگیری	-14300
▁قورباغه	-14301
▁مجوزهای	-14302
▁مسؤولیت	-14303
▁پشتوانه	-14304
▁پیشاپیش	-14305
▁پیشرفتی	-14306
▁اندیشیدن	-14307
▁دریانورد	-14308
▁دستیاران	-14309
▁سخنرانان	-14310
▁سیاستهای	-14311
▁شکارچیان	-14312
▁فرآیندها	-14313
▁فضاپیمای	-14314
▁متابولیک	-14315
▁واشینگتن	-14316
▁گیرندگان	-14317
▁Institute	-14318
▁حسابداران	-14319
▁دوستانشان	-14320
▁فوتبالیست	-14321
▁کاتالونیا	-14322
▁الکتریسیته	-14323
▁خودخواهانه	-14324
▁سانفرانسیس	-14325
▁کاندیداهای	-14326
▁قانونگذاران	-14327
▁الکترومغناطیسی	-14328
DE	-14329
gr	-14330
la	-14331
li	-14332
ml	-14333
فۀ	-14334
يک	-14335
▁°	-14336
ada	-14337
ler	-14338
ray	-14339
بخش	-14340
زمه	-14341
سلا	-14342
ماه	-14343
مدن	-14344
نیک	-14345
هری	-14346
کست	-14347
کوب	-14348
▁%)	-14349
▁(9	-14350
▁DD	-14351
▁DM	-14352
▁EP	-14353
▁ET	-14354
▁Es	-14355
▁FX	-14356
▁HR	-14357
▁MI	-14358
▁Pi	-14359
▁SO	-14360
▁UK	-14361
▁WW	-14362
▁ia	-14363
▁زل	-14364
▁نن	-14365
▁یق	-14366
▁۴۶	-14367
▁۹۷	-14368
ason	-14369
راته	-14370
روال	-14371
ریند	-14372
زارز	-14373
زینس	-14374
لیسی	-14375
پیچی	-14376
‬‬‬‬	-14377
▁000	-14378
▁1.3	-14379
▁1.7	-14380
▁125	-14381
▁3.0	-14382
▁4.5	-14383
▁Aud	-14384
▁Big	-14385
▁Saf	-14386
▁Tor	-14387
▁gen	-14388
▁آلف	-14389
▁آنِ	-14390
▁بنت	-14391
▁خزر	-14392
▁خفا	-14393
▁ربا	-14394
▁ساک	-14395
▁شرف	-14396
▁صید	-14397
▁طاه	-14398
▁عبد	-14399
▁عمه	-14400
▁غدد	-14401
▁قمر	-14402
▁قیا	-14403
▁لید	-14404
▁لیس	-14405
▁مائ	-14406
▁نبی	-14407
▁ننگ	-14408
▁کیس	-14409
▁یحی	-14410
▁یسم	-14411
▁۱۸۰	-14412
بردار	-14413
سالان	-14414
لاستی	-14415
▁Last	-14416
▁Priv	-14417
▁Prof	-14418
▁اثاث	-14419
▁اسقف	-14420
▁اینف	-14421
▁بانگ	-14422
▁بعدش	-14423
▁بیکر	-14424
▁تأسف	-14425
▁توسل	-14426
▁توله	-14427
▁ثانی	-14428
▁جایز	-14429
▁حراج	-14430
▁راهک	-14431
▁رضای	-14432
▁شعاع	-14433
▁شیفت	-14434
▁غیاب	-14435
▁فلاش	-14436
▁قحطی	-14437
▁كمتر	-14438
▁لانگ	-14439
▁لنگر	-14440
▁معرو	-14441
▁ملائ	-14442
▁موجه	-14443
▁ندید	-14444
▁نظرش	-14445
▁نویز	-14446
▁نپال	-14447
▁هايي	-14448
▁وایت	-14449
▁کشیم	-14450
▁کلوپ	-14451
▁کنگو	-14452
▁کوپر	-14453
▁یونگ	-14454
▁2009،	-14455
▁First	-14456
▁Speed	-14457
▁آخوند	-14458
▁باهاش	-14459
▁برآمد	-14460
▁تعهدی	-14461
▁تقاطع	-14462
▁تورات	-14463
▁خاتمی	-14464
▁رضایی	-14465
▁زمزمه	-14466
▁زندگى	-14467
▁سرپوش	-14468
▁سیاهی	-14469
▁شهامت	-14470
▁شکوفه	-14471
▁شیراز	-14472
▁علیها	-14473
▁غریزه	-14474
▁فریزر	-14475
▁قذافی	-14476
▁مؤلفه	-14477
▁معابد	-14478
▁معبود	-14479
▁منتها	-14480
▁مکتوب	-14481
▁وجودش	-14482
▁وزرای	-14483
▁پايان	-14484
▁پسوری	-14485
انگلیسی	-14486
▁Christ	-14487
▁آلبانی	-14488
▁اربعین	-14489
▁اعتدال	-14490
▁اقتباس	-14491
▁انباشت	-14492
▁اپیدمی	-14493
▁بیزانس	-14494
▁تابلوی	-14495
▁تویوتا	-14496
▁جوانتر	-14497
▁خصمانه	-14498
▁دبیرکل	-14499
▁رمزارز	-14500
▁زنجبیل	-14501
▁علیرضا	-14502
▁قدردان	-14503
▁مزایده	-14504
▁مستثنی	-14505
▁معنویت	-14506
▁مواقعی	-14507
▁موتوری	-14508
▁نخواست	-14509
▁نیمکره	-14510
▁هوادار	-14511
▁وظایفی	-14512
▁پارسال	-14513
▁کاسترو	-14514
▁گمراهی	-14515
▁اروپاست	-14516
▁اینشتین	-14517
▁باربارا	-14518
▁تراکتور	-14519
▁خودرویی	-14520
▁دوستشان	-14521
▁سناریوی	-14522
▁مراقبتی	-14523
▁مربیگری	-14524
▁همسالان	-14525
▁چهاردهم	-14526
▁Internet	-14527
▁اخلاقیات	-14528
▁ارتفاعات	-14529
▁اعتبارات	-14530
▁فرزندانم	-14531
▁نافرمانی	-14532
▁هنجارهای	-14533
▁سپاسگزاری	-14534
▁نمیتوانند	-14535
▁Management	-14536
▁راهکارهایی	-14537
▁سانفرانسیسکو	-14538
.5	-14539
CO	-14540
UT	-14541
da	-14542
js	-14543
خد	-14544
دو	-14545
ham	-14546
ily	-14547
ita	-14548
اول	-14549
دری	-14550
دگی	-14551
زند	-14552
عال	-14553
فیل	-14554
لوم	-14555
وفر	-14556
چیل	-14557
ژیت	-14558
▁()	-14559
▁Ap	-14560
▁IG	-14561
▁Ke	-14562
▁RT	-14563
▁bu	-14564
▁ma	-14565
▁آث	-14566
▁رآ	-14567
▁لک	-14568
▁يی	-14569
▁پچ	-14570
ends	-14571
icro	-14572
الیه	-14573
امتی	-14574
اوری	-14575
ایقی	-14576
تنها	-14577
خالی	-14578
ذاری	-14579
لاکت	-14580
مرکز	-14581
وتوپ	-14582
وریس	-14583
▁0.0	-14584
▁11-	-14585
▁2.4	-14586
▁Ben	-14587
▁Fre	-14588
▁HDR	-14589
▁LLM	-14590
▁Soc	-14591
▁Tre	-14592
▁ard	-14593
▁bus	-14594
▁key	-14595
▁net	-14596
▁red	-14597
▁آدا	-14598
▁ارش	-14599
▁افک	-14600
▁الق	-14601
▁برز	-14602
▁سوغ	-14603
▁شبح	-14604
▁غير	-14605
▁فان	-14606
▁فجر	-14607
▁لگد	-14608
▁مغف	-14609
▁چوپ	-14610
▁کتی	-14611
▁گجت	-14612
▁۰۰۰	-14613
Cloud	-14614
تاحیه	-14615
شبورد	-14616
لایان	-14617
میایی	-14618
▁1400	-14619
▁1966	-14620
▁1977	-14621
▁1983	-14622
▁Alex	-14623
▁Cons	-14624
▁Fant	-14625
▁Pack	-14626
▁Prot	-14627
▁Test	-14628
▁able	-14629
▁code	-14630
▁work	-14631
▁اذان	-14632
▁افرو	-14633
▁الرح	-14634
▁باطن	-14635
▁بحال	-14636
▁بیضه	-14637
▁تایم	-14638
▁جیوه	-14639
▁حشره	-14640
▁خیمه	-14641
▁درکی	-14642
▁رازی	-14643
▁ریپل	-14644
▁زیرک	-14645
▁ساقط	-14646
▁سردی	-14647
▁سیلی	-14648
▁شاتل	-14649
▁قائم	-14650
▁كاهش	-14651
▁لطیف	-14652
▁ماوس	-14653
▁مبدأ	-14654
▁مونو	-14655
▁نباش	-14656
▁نهان	-14657
▁هجده	-14658
▁هیپو	-14659
▁واتی	-14660
▁واقف	-14661
▁کارِ	-14662
▁کران	-14663
▁گریس	-14664
▁۱۹۹۵	-14665
توانید	-14666
ینگتون	-14667
▁2011،	-14668
▁Grand	-14669
▁North	-14670
▁Sport	-14671
▁Times	-14672
▁آستین	-14673
▁آمینه	-14674
▁احادی	-14675
▁ادویه	-14676
▁اسیدی	-14677
▁اصابت	-14678
▁العمر	-14679
▁اللّه	-14680
▁اینتل	-14681
▁بارور	-14682
▁بازان	-14683
▁بخاری	-14684
▁بخوبی	-14685
▁تونید	-14686
▁دانان	-14687
▁دوبله	-14688
▁رفاهی	-14689
▁زحمات	-14690
▁سفیدی	-14691
▁شریان	-14692
▁شهریه	-14693
▁صحبتی	-14694
▁علیهم	-14695
▁لوپوس	-14696
▁متأثر	-14697
▁محبوس	-14698
▁ملکوت	-14699
▁منازل	-14700
▁مولتی	-14701
▁مولفه	-14702
▁میکنی	-14703
▁نانوم	-14704
▁نروژی	-14705
▁نزدیك	-14706
▁نظیری	-14707
▁هوندا	-14708
▁پارسی	-14709
▁پوشید	-14710
▁چگالی	-14711
▁کبودی	-14712
▁کریمه	-14713
▁کنندۀ	-14714
▁گزاری	-14715
▁گودال	-14716
ication	-14717
olution	-14718
دارندگی	-14719
▁Academ	-14720
▁آرسنال	-14721
▁ادیسون	-14722
▁اکثراً	-14723
▁بنگرید	-14724
▁بپوشند	-14725
▁بیزینس	-14726
▁تاندون	-14727
▁تجویزی	-14728
▁حرفهای	-14729
▁خواستن	-14730
▁خودشون	-14731
▁دردهای	-14732
▁دستمال	-14733
▁دیرینه	-14734
▁سریعاً	-14735
▁شاعران	-14736
▁شنیدند	-14737
▁ماتریس	-14738
▁مختصری	-14739
▁مداران	-14740
▁مصونیت	-14741
▁پانکرا	-14742
▁پاکیزه	-14743
▁پایانه	-14744
▁پذیرتر	-14745
▁پوشاند	-14746
▁کارلوس	-14747
▁کاوشگر	-14748
▁آموزگار	-14749
▁بایستید	-14750
▁برگشتند	-14751
▁تختخواب	-14752
▁حداکثری	-14753
▁داشبورد	-14754
▁دیدگاهی	-14755
▁دیوانگی	-14756
▁زندگانی	-14757
▁مادرتان	-14758
▁مبارزان	-14759
▁مسوولیت	-14760
▁مومیایی	-14761
▁مکانهای	-14762
▁نهادینه	-14763
▁ولنتاین	-14764
▁پیوستگی	-14765
▁کریستین	-14766
▁کلکسیون	-14767
▁National	-14768
▁ارگانیسم	-14769
▁افتتاحیه	-14770
▁بیندازند	-14771
▁دادخواست	-14772
▁سانتیمتر	-14773
▁فارنهایت	-14774
▁لئوناردو	-14775
▁مبتلایان	-14776
▁پروژکتور	-14777
▁پیمانکار	-14778
▁کورتیزول	-14779
▁تکنولوژیک	-14780
▁جستجوگرها	-14781
▁نوازندگان	-14782
▁پالایشگاه	-14783
▁بازدارندگی	-14784
▁خویشاوندان	-14785
▁تظاهرکنندگان	-14786
CR	-14787
aS	-14788
zy	-14789
ذا	-14790
-12	-14791
App	-14792
any	-14793
asp	-14794
ize	-14795
let	-14796
met	-14797
omb	-14798
uri	-14799
vic	-14800
بست	-14801
َّه	-14802
کیج	-14803
▁!”	-14804
▁''	-14805
▁++	-14806
▁4،	-14807
▁EV	-14808
▁IM	-14809
▁IO	-14810
▁PO	-14811
▁خت	-14812
▁ضو	-14813
▁ظل	-14814
▁فص	-14815
▁پط	-14816
▁یب	-14817
ateg	-14818
duct	-14819
ible	-14820
icle	-14821
play	-14822
rans	-14823
ross	-14824
sung	-14825
شانی	-14826
شایر	-14827
▁0.1	-14828
▁ASP	-14829
▁BMW	-14830
▁Bal	-14831
▁ISP	-14832
▁Mid	-14833
▁Pin	-14834
▁Sub	-14835
▁THE	-14836
▁[6]	-14837
▁ist	-14838
▁log	-14839
▁بتر	-14840
▁جاش	-14841
▁حمد	-14842
▁زرت	-14843
▁زهر	-14844
▁غیب	-14845
▁فتو	-14846
▁كوچ	-14847
▁لیر	-14848
▁مکث	-14849
▁میث	-14850
▁ولى	-14851
▁پرم	-14852
▁پنی	-14853
▁کله	-14854
▁کیو	-14855
▁کیپ	-14856
رزاده	-14857
لیسمی	-14858
گرافی	-14859
▁1900	-14860
▁1967	-14861
▁Chat	-14862
▁Expl	-14863
▁Show	-14864
▁WiFi	-14865
▁book	-14866
▁cont	-14867
▁آویز	-14868
▁باقر	-14869
▁بندد	-14870
▁جدیت	-14871
▁حمید	-14872
▁حوله	-14873
▁درشت	-14874
▁دنيا	-14875
▁دیزل	-14876
▁سیال	-14877
▁شرعی	-14878
▁شمرد	-14879
▁صدقه	-14880
▁عارف	-14881
▁علما	-14882
▁فانی	-14883
▁فهمی	-14884
▁لوئی	-14885
▁مجال	-14886
▁مغول	-14887
▁نگوی	-14888
▁هانس	-14889
▁هاوس	-14890
▁ورزد	-14891
▁ویلا	-14892
▁پاکت	-14893
▁پختن	-14894
▁پهلو	-14895
▁پکیج	-14896
▁کششی	-14897
▁کوره	-14898
▁کوشد	-14899
▁کولر	-14900
▁یحیی	-14901
▁۱۹۸۹	-14902
ادهایی	-14903
▁Build	-14904
▁Ghost	-14905
▁Green	-14906
▁Hyper	-14907
▁James	-14908
▁آخرال	-14909
▁آدامس	-14910
▁استون	-14911
▁المان	-14912
▁انزال	-14913
▁اوصاف	-14914
▁بدبخت	-14915
▁بسنده	-14916
▁بهایی	-14917
▁بپرسد	-14918
▁جدیدش	-14919
▁خندان	-14920
▁دخترک	-14921
▁زوجین	-14922
▁صلوات	-14923
▁ضوابط	-14924
▁علمای	-14925
▁قیافه	-14926
▁مرتبا	-14927
▁مصارف	-14928
▁مصوبه	-14929
▁معذرت	-14930
▁منسوخ	-14931
▁نیاور	-14932
▁نیکول	-14933
▁پیکار	-14934
▁پیگرد	-14935
▁یافتم	-14936
▁آفلاین	-14937
▁آوردید	-14938
▁احادیث	-14939
▁انگاری	-14940
▁بیلیون	-14941
▁ترسیده	-14942
▁خوردیم	-14943
▁دستوری	-14944
▁رآکتور	-14945
▁قاطعیت	-14946
▁مدارکی	-14947
▁موتورز	-14948
▁مونتاژ	-14949
▁ناممکن	-14950
▁نظرشان	-14951
▁نیکارا	-14952
▁همانجا	-14953
▁کنترلر	-14954
▁گرانشی	-14955
▁General	-14956
▁آشنایان	-14957
▁آنتونیو	-14958
▁ابتکاری	-14959
▁استمرار	-14960
▁الاسلام	-14961
▁انگیزشی	-14962
▁اکوادور	-14963
▁ایزوتوپ	-14964
▁بدنسازی	-14965
▁بروکلین	-14966
▁بفرستند	-14967
▁خلبانان	-14968
▁رستگاری	-14969
▁زنبورها	-14970
▁سرشماری	-14971
▁شهرهایی	-14972
▁غیرمجاز	-14973
▁نابرابر	-14974
▁پیشبینی	-14975
▁کاندیدا	-14976
▁گرانبها	-14977
▁گردانید	-14978
▁ابتکارات	-14979
▁بیاموزند	-14980
▁بیاموزیم	-14981
▁تصمیماتی	-14982
▁مسیریابی	-14983
▁موردنیاز	-14984
▁ناسازگار	-14985
▁کشتیرانی	-14986
▁کلیساهای	-14987
▁سوپرمارکت	-14988
▁ناسازگاری	-14989
▁پسوریازیس	-14990
▁فیزیکدانان	-14991
-4	-14992
IG	-14993
Sc	-14994
my	-14995
لد	-14996
ano	-14997
bot	-14998
ety	-14999
oop	-15000
opy	-15001
ors	-15002
uss	-15003
خطر	-15004
ديد	-15005
رضا	-15006
علی	-15007
فقط	-15008
قیل	-15009
ندو	-15010
وره	-15011
▁7:	-15012
▁91	-15013
▁Dr	-15014
▁MT	-15015
▁[3	-15016
▁mm	-15017
▁na	-15018
▁os	-15019
▁ئو	-15020
▁رپ	-15021
▁صب	-15022
▁ظن	-15023
▁گپ	-15024
▁یر	-15025
▁۰٫	-15026
▁۶۷	-15027
▁۹۳	-15028
...)	-15029
ales	-15030
hael	-15031
reen	-15032
unes	-15033
ures	-15034
ارتز	-15035
اریف	-15036
تماس	-15037
تیوم	-15038
لفین	-15039
وارت	-15040
کوین	-15041
▁2.1	-15042
▁3.3	-15043
▁Bad	-15044
▁Bel	-15045
▁CDC	-15046
▁Dec	-15047
▁Dyn	-15048
▁HTC	-15049
▁Her	-15050
▁Hon	-15051
▁LCD	-15052
▁Law	-15053
▁PPC	-15054
▁SSD	-15055
▁age	-15056
▁bit	-15057
▁end	-15058
▁les	-15059
▁new	-15060
▁ted	-15061
▁آخه	-15062
▁ائی	-15063
▁باس	-15064
▁حتم	-15065
▁رژه	-15066
▁زنش	-15067
▁سعد	-15068
▁سمع	-15069
▁شرت	-15070
▁شنی	-15071
▁عاش	-15072
▁فات	-15073
▁فست	-15074
▁فود	-15075
▁لخت	-15076
▁لیو	-15077
▁مژه	-15078
▁چام	-15079
▁گات	-15080
▁گوز	-15081
order	-15082
رائیب	-15083
زانیا	-15084
ضروری	-15085
گیرند	-15086
▁1947	-15087
▁1965	-15088
▁1974	-15089
▁8000	-15090
▁Best	-15091
▁East	-15092
▁Pass	-15093
▁User	-15094
▁ling	-15095
▁ness	-15096
▁آخری	-15097
▁آنکه	-15098
▁ارتد	-15099
▁باغی	-15100
▁بختی	-15101
▁بلكه	-15102
▁بورد	-15103
▁تروم	-15104
▁تعال	-15105
▁تعرض	-15106
▁حالش	-15107
▁حتّی	-15108
▁خونس	-15109
▁رئيس	-15110
▁راسخ	-15111
▁سبکی	-15112
▁عاجز	-15113
▁عقاب	-15114
▁عوام	-15115
▁غلیظ	-15116
▁لیلا	-15117
▁مؤلف	-15118
▁محضر	-15119
▁مرفه	-15120
▁معظم	-15121
▁ملاک	-15122
▁ميان	-15123
▁نبین	-15124
▁نجیب	-15125
▁نخبه	-15126
▁ندای	-15127
▁نشون	-15128
▁نيرو	-15129
▁پارا	-15130
▁پروا	-15131
▁کلاً	-15132
▁کلمب	-15133
▁کوپن	-15134
▁کویر	-15135
▁گذرا	-15136
▁یورک	-15137
▁۱۹۹۷	-15138
ission	-15139
▁Crypt	-15140
▁Dream	-15141
▁Found	-15142
▁Front	-15143
▁board	-15144
▁؟؟؟؟؟	-15145
▁اكنون	-15146
▁امكان	-15147
▁انبیا	-15148
▁انقدر	-15149
▁ایستد	-15150
▁بشمار	-15151
▁بلایی	-15152
▁بمیرم	-15153
▁بندند	-15154
▁بکشیم	-15155
▁بگذرد	-15156
▁تندرو	-15157
▁دیزلی	-15158
▁دیویس	-15159
▁رؤسای	-15160
▁رابطۀ	-15161
▁رحمتی	-15162
▁سهامی	-15163
▁سیاتل	-15164
▁عرفان	-15165
▁ماریو	-15166
▁مافوق	-15167
▁متمدن	-15168
▁متورم	-15169
▁مظلوم	-15170
▁مغرور	-15171
▁نگردد	-15172
▁هشیار	-15173
▁همسری	-15174
▁واژین	-15175
▁ورزند	-15176
▁پارتی	-15177
▁پارکر	-15178
▁کردنش	-15179
▁کوشید	-15180
▁گزیده	-15181
▁Associ	-15182
▁استایل	-15183
▁استونی	-15184
▁التماس	-15185
▁بشنویم	-15186
▁بیهوشی	-15187
▁تعاریف	-15188
▁جنجالی	-15189
▁حسابرس	-15190
▁دستتان	-15191
▁سرمايه	-15192
▁سرگذشت	-15193
▁سوپرمن	-15194
▁فاشیست	-15195
▁لیتیوم	-15196
▁متمایل	-15197
▁مزاحمت	-15198
▁موناکو	-15199
▁ناشران	-15200
▁نشینند	-15201
▁چیدمان	-15202
▁کرواسی	-15203
▁Connect	-15204
▁Develop	-15205
▁ائتلافی	-15206
▁استاتیک	-15207
▁استنباط	-15208
▁استوارت	-15209
▁اینجوری	-15210
▁بارندگی	-15211
▁بازتابی	-15212
▁برکناری	-15213
▁روزگاری	-15214
▁ظالمانه	-15215
▁فایروال	-15216
▁قسمتهای	-15217
▁مجبورید	-15218
▁میدانیم	-15219
▁نزدیکان	-15220
▁نیاورده	-15221
▁هاوکینگ	-15222
▁وکارهای	-15223
▁پروازها	-15224
▁کارائیب	-15225
▁گارانتی	-15226
▁گفتگویی	-15227
▁یکجانبه	-15228
▁تیرانداز	-15229
▁دامپزشکی	-15230
▁دروغگویی	-15231
▁زمانبندی	-15232
▁شناسنامه	-15233
▁ماجراهای	-15234
▁پیشگامان	-15235
▁کارآمدتر	-15236
▁گوسفندان	-15237
▁بیاندازیم	-15238
▁عکسبرداری	-15239
▁خودروسازان	-15240
▁میکروسکوپی	-15241
DM	-15242
ba	-15243
ِم	-15244
ْت	-15245
ror	-15246
آفر	-15247
آله	-15248
ئیک	-15249
اصب	-15250
اوا	-15251
روا	-15252
میک	-15253
يشه	-15254
کاک	-15255
کود	-15256
یته	-15257
▁6)	-15258
▁AG	-15259
▁CM	-15260
▁EX	-15261
▁HE	-15262
▁ie	-15263
▁li	-15264
▁pH	-15265
▁۷۴	-15266
▁۹۸	-15267
angu	-15268
atic	-15269
iver	-15270
leep	-15271
orge	-15272
sych	-15273
اخیز	-15274
اروس	-15275
باکس	-15276
بسته	-15277
رویی	-15278
لایی	-15279
ماری	-15280
موار	-15281
وراء	-15282
پیشه	-15283
کتوز	-15284
▁0.2	-15285
▁BMI	-15286
▁Bab	-15287
▁Chi	-15288
▁ERP	-15289
▁FBI	-15290
▁HDL	-15291
▁Hal	-15292
▁LTE	-15293
▁NBA	-15294
▁Pat	-15295
▁car	-15296
▁und	-15297
▁تئو	-15298
▁دیل	-15299
▁راج	-15300
▁سطل	-15301
▁صدف	-15302
▁فلو	-15303
▁كام	-15304
▁لنگ	-15305
▁مته	-15306
▁نال	-15307
▁هوم	-15308
▁چرم	-15309
▁کمد	-15310
▁کوز	-15311
ffect	-15312
ption	-15313
انیان	-15314
سیکلت	-15315
واهای	-15316
وریان	-15317
▁..."	-15318
▁1956	-15319
▁1961	-15320
▁Drag	-15321
▁Mini	-15322
▁آبرو	-15323
▁آتشی	-15324
▁آنفل	-15325
▁اردی	-15326
▁اشته	-15327
▁انید	-15328
▁باله	-15329
▁باکو	-15330
▁بزار	-15331
▁بزنی	-15332
▁بلوچ	-15333
▁بيان	-15334
▁تراز	-15335
▁تشکل	-15336
▁جینس	-15337
▁حالم	-15338
▁حضار	-15339
▁دعوی	-15340
▁دلال	-15341
▁دوبل	-15342
▁راهش	-15343
▁رولت	-15344
▁زوای	-15345
▁زکات	-15346
▁ستیز	-15347
▁سلفی	-15348
▁سمتی	-15349
▁طالب	-15350
▁عباد	-15351
▁عمرم	-15352
▁قاسم	-15353
▁كامل	-15354
▁كوچك	-15355
▁لایک	-15356
▁لغزش	-15357
▁متان	-15358
▁مجسم	-15359
▁مجلل	-15360
▁محال	-15361
▁مشوق	-15362
▁مطیع	-15363
▁مهیج	-15364
▁مولر	-15365
▁نفهم	-15366
▁هرمز	-15367
▁وجوی	-15368
▁ورزی	-15369
▁چاوز	-15370
▁کلیت	-15371
▁گیفت	-15372
▁۴۰۰۰	-15373
باراتی	-15374
رافیکی	-15375
روشیمی	-15376
▁Micro	-15377
▁آثاری	-15378
▁اهانت	-15379
▁اولاً	-15380
▁ايجاد	-15381
▁بعدتر	-15382
▁بهتره	-15383
▁تاريخ	-15384
▁تزیین	-15385
▁تفصیل	-15386
▁جیسون	-15387
▁دلتان	-15388
▁ساختم	-15389
▁سحابی	-15390
▁سیسکو	-15391
▁عاطفه	-15392
▁غریزی	-15393
▁غواصی	-15394
▁فروشد	-15395
▁كسانی	-15396
▁لزومی	-15397
▁مشغله	-15398
▁مصدوم	-15399
▁مصطفی	-15400
▁نلسون	-15401
▁نیوتن	-15402
▁هلیوم	-15403
▁همتای	-15404
▁وقتها	-15405
▁پاندا	-15406
▁پرخطر	-15407
▁پرنسس	-15408
▁کنکور	-15409
▁گلایه	-15410
▁گوشتی	-15411
▁یبوست	-15412
▁یوحنا	-15413
▁ابرهای	-15414
▁اطرافش	-15415
▁افتضاح	-15416
▁بایستد	-15417
▁بخواهی	-15418
▁برگشتن	-15419
▁بسزایی	-15420
▁بگوئید	-15421
▁تاجران	-15422
▁ترسیدم	-15423
▁تلگراف	-15424
▁تماماً	-15425
▁توجیهی	-15426
▁خوشبین	-15427
▁ساعاتی	-15428
▁سالاری	-15429
▁سیلندر	-15430
▁شنیدیم	-15431
▁شوالیه	-15432
▁صفحاتی	-15433
▁ماندلا	-15434
▁ماوراء	-15435
▁ماکرون	-15436
▁مسلمین	-15437
▁مقدمات	-15438
▁مهارتی	-15439
▁نردبان	-15440
▁وسطایی	-15441
▁پشتکار	-15442
▁کنندگی	-15443
▁Michael	-15444
▁Samsung	-15445
▁آهنگساز	-15446
▁استرداد	-15447
▁بازگشتی	-15448
▁بخوانیم	-15449
▁ترافیکی	-15450
▁توافقات	-15451
▁جنگیدند	-15452
▁خواندنی	-15453
▁راهکاری	-15454
▁سهامدار	-15455
▁صداهایی	-15456
▁ظرفشویی	-15457
▁مونترال	-15458
▁میتوانم	-15459
▁ناهموار	-15460
▁هموطنان	-15461
▁همگرایی	-15462
▁پایبندی	-15463
▁پیمانان	-15464
▁آرشیوهای	-15465
▁آشکارساز	-15466
▁اندازهای	-15467
▁بپوشانید	-15468
▁تانزانیا	-15469
▁خودمختار	-15470
▁درمانگاه	-15471
▁زندگیشان	-15472
▁ساختارها	-15473
▁شدیدترین	-15474
▁غیرضروری	-15475
▁مداربسته	-15476
▁پتروشیمی	-15477
▁پراکندگی	-15478
▁کریستوفر	-15479
▁آرژانتینی	-15480
▁دستاوردها	-15481
▁مارکسیستی	-15482
▁نتوانستیم	-15483
▁کارولینای	-15484
▁بازنشستگان	-15485
▁موتورسیکلت	-15486
▁کارگردانان	-15487
99	-15488
BT	-15489
PC	-15490
bn	-15491
جل	-15492
حث	-15493
خو	-15494
طح	-15495
كس	-15496
ّس	-15497
▁■	-15498
▁◄	-15499
ami	-15500
gin	-15501
ifi	-15502
ify	-15503
اکا	-15504
ريق	-15505
لیث	-15506
ندن	-15507
وفی	-15508
ُوا	-15509
ُون	-15510
ِین	-15511
▁")	-15512
▁AU	-15513
▁EN	-15514
▁NE	-15515
▁OF	-15516
▁PM	-15517
▁Ra	-15518
▁So	-15519
▁UI	-15520
▁ge	-15521
▁pp	-15522
▁١٨	-15523
▁۹٫	-15524
ELTS	-15525
ated	-15526
olog	-15527
raft	-15528
الحی	-15529
اورت	-15530
بهشت	-15531
شهری	-15532
فشان	-15533
فکری	-15534
وپسی	-15535
کسید	-15536
یائو	-15537
ینیو	-15538
▁12-	-15539
▁138	-15540
▁2.8	-15541
▁Boy	-15542
▁Mad	-15543
▁Mor	-15544
▁Run	-15545
▁aut	-15546
▁ber	-15547
▁box	-15548
▁الب	-15549
▁بجا	-15550
▁برت	-15551
▁بوگ	-15552
▁تنه	-15553
▁جیغ	-15554
▁روه	-15555
▁روى	-15556
▁شأن	-15557
▁شید	-15558
▁طوف	-15559
▁لاب	-15560
▁لوح	-15561
▁لوی	-15562
▁ميل	-15563
▁نیر	-15564
▁هیم	-15565
▁چاب	-15566
▁ژاک	-15567
▁کسى	-15568
▁گین	-15569
right	-15570
ument	-15571
امروز	-15572
رالله	-15573
رزادی	-15574
سرانه	-15575
وریتی	-15576
▁9001	-15577
▁Cast	-15578
▁Duty	-15579
▁Full	-15580
▁Hand	-15581
▁Note	-15582
▁Spot	-15583
▁port	-15584
▁read	-15585
▁time	-15586
▁your	-15587
▁آبان	-15588
▁ارضا	-15589
▁اسپا	-15590
▁اسکل	-15591
▁بتون	-15592
▁بریس	-15593
▁برین	-15594
▁بچگی	-15595
▁بکنی	-15596
▁بیوت	-15597
▁تایر	-15598
▁تردد	-15599
▁ترمو	-15600
▁جاها	-15601
▁خدشه	-15602
▁خلیل	-15603
▁دونگ	-15604
▁دیگو	-15605
▁رشوه	-15606
▁زراد	-15607
▁ساری	-15608
▁سیرک	-15609
▁شبكه	-15610
▁طبعی	-15611
▁طنین	-15612
▁قیاس	-15613
▁مبحث	-15614
▁مسطح	-15615
▁مشاج	-15616
▁مظهر	-15617
▁نبوغ	-15618
▁نعوظ	-15619
▁وآله	-15620
▁وئید	-15621
▁وضعی	-15622
▁يافت	-15623
▁پهنا	-15624
▁کدها	-15625
▁کوهی	-15626
▁۱۹۶۹	-15627
▁۱۹۷۵	-15628
▁۱۹۸۲	-15629
نماهای	-15630
▁Final	-15631
▁IELTS	-15632
▁Pixel	-15633
▁Point	-15634
▁South	-15635
▁micro	-15636
▁انقضا	-15637
▁ایسنا	-15638
▁ایندی	-15639
▁بشنوم	-15640
▁بشکند	-15641
▁بطوری	-15642
▁تسبیح	-15643
▁جانور	-15644
▁جاوید	-15645
▁جنگجو	-15646
▁جوانا	-15647
▁دبلیو	-15648
▁دستکش	-15649
▁دلسوز	-15650
▁دلشان	-15651
▁رفقای	-15652
▁سیمون	-15653
▁شیفته	-15654
▁صالحی	-15655
▁فجایع	-15656
▁قویتر	-15657
▁لوبیا	-15658
▁مؤثری	-15659
▁محافل	-15660
▁مرداد	-15661
▁معارف	-15662
▁معیوب	-15663
▁منصور	-15664
▁ندگان	-15665
▁نورمن	-15666
▁هفدهم	-15667
▁پریدن	-15668
▁پلیسی	-15669
▁کولین	-15670
▁گشایش	-15671
▁یقینا	-15672
ettings	-15673
▁Europe	-15674
▁آرزوها	-15675
▁آشکاری	-15676
▁آماتور	-15677
▁ابتلای	-15678
▁افریقا	-15679
▁انعقاد	-15680
▁باینری	-15681
▁برآمده	-15682
▁برپایه	-15683
▁توخالی	-15684
▁جراحات	-15685
▁دستخوش	-15686
▁دیالوگ	-15687
▁رومیزی	-15688
▁سردرگم	-15689
▁سیریزا	-15690
▁عناصری	-15691
▁فعاليت	-15692
▁قضاییه	-15693
▁لبخندی	-15694
▁مجاورت	-15695
▁مستقلی	-15696
▁مطلوبی	-15697
▁میدهیم	-15698
▁میزانی	-15699
▁نشستند	-15700
▁نوردهی	-15701
▁نگذاشت	-15702
▁پیوندد	-15703
▁کارساز	-15704
▁کارمان	-15705
▁کتابچه	-15706
▁کدامند	-15707
▁آتشفشان	-15708
▁ابرقدرت	-15709
▁اصلاحیه	-15710
▁برآوردن	-15711
▁بنویسیم	-15712
▁تفریحات	-15713
▁دوستدار	-15714
▁شکیبایی	-15715
▁فرصتهای	-15716
▁فلورانس	-15717
▁معاهدات	-15718
▁مقالاتی	-15719
▁میلیونی	-15720
▁نداشتید	-15721
▁والدینش	-15722
▁پرخاشگر	-15723
▁پردازان	-15724
▁حیواناتی	-15725
▁خودسرانه	-15726
▁خوشحالیم	-15727
▁دستمزدها	-15728
▁زرادخانه	-15729
▁لباسشویی	-15730
▁مادرزادی	-15731
▁مسئولانه	-15732
▁پیشینیان	-15733
▁کنندگانی	-15734
▁آپارتمانی	-15735
▁ابرقهرمان	-15736
▁اقیانوسیه	-15737
▁دبیرستانی	-15738
▁راهنماهای	-15739
▁سانتیگراد	-15740
▁لیبرالیسم	-15741
▁تأثیرگذاری	-15742
▁جمهوریخواهان	-15743
0]	-15744
DS	-15745
HS	-15746
TM	-15747
»،	-15748
جن	-15749
فد	-15750
مج	-15751
”،	-15752
▁®	-15753
Pal	-15754
cel	-15755
dit	-15756
ugh	-15757
ule	-15758
urg	-15759
ارا	-15760
اسو	-15761
جّه	-15762
رتز	-15763
رزد	-15764
فین	-15765
مام	-15766
مگر	-15767
نیت	-15768
واز	-15769
▁8:	-15770
▁AV	-15771
▁BC	-15772
▁DI	-15773
▁NS	-15774
▁PT	-15775
▁TS	-15776
▁WP	-15777
▁Ze	-15778
▁op	-15779
▁»!	-15780
▁هه	-15781
▁پک	-15782
▁گچ	-15783
▁۵۴	-15784
edIn	-15785
istr	-15786
izon	-15787
ours	-15788
ئیدی	-15789
اندو	-15790
ایعی	-15791
تقری	-15792
ربری	-15793
رویت	-15794
شوند	-15795
قولی	-15796
ونین	-15797
ينده	-15798
کانی	-15799
▁(11	-15800
▁(15	-15801
▁10:	-15802
▁123	-15803
▁ART	-15804
▁Atl	-15805
▁Blu	-15806
▁CMS	-15807
▁CTA	-15808
▁Def	-15809
▁FTP	-15810
▁Hub	-15811
▁NSA	-15812
▁Sha	-15813
▁Tem	-15814
▁Wal	-15815
▁art	-15816
▁can	-15817
▁ham	-15818
▁han	-15819
▁pre	-15820
▁آلو	-15821
▁تغي	-15822
▁جوم	-15823
▁جیر	-15824
▁دلخ	-15825
▁رام	-15826
▁روي	-15827
▁سکی	-15828
▁عرش	-15829
▁لوت	-15830
▁لوم	-15831
▁ملب	-15832
▁واع	-15833
▁وفا	-15834
▁پائ	-15835
▁ینی	-15836
▁۹۰۰	-15837
شتاین	-15838
نواخت	-15839
ورانی	-15840
کرهای	-15841
▁1080	-15842
▁1946	-15843
▁Aven	-15844
▁Coin	-15845
▁Jack	-15846
▁Phil	-15847
▁آفیس	-15848
▁اتان	-15849
▁اوین	-15850
▁بانو	-15851
▁براش	-15852
▁بفرد	-15853
▁تلخی	-15854
▁حریق	-15855
▁حیله	-15856
▁رؤیت	-15857
▁راسل	-15858
▁رحمی	-15859
▁زگیل	-15860
▁سعود	-15861
▁سوسک	-15862
▁شعری	-15863
▁شکند	-15864
▁ضرور	-15865
▁ظالم	-15866
▁عقلی	-15867
▁ماین	-15868
▁مجرب	-15869
▁موزی	-15870
▁نظمی	-15871
▁نوید	-15872
▁هابل	-15873
▁پطرس	-15874
▁پوکر	-15875
▁کاهن	-15876
▁کمین	-15877
▁کوال	-15878
▁کورک	-15879
▁گوزن	-15880
▁گینه	-15881
▁یوان	-15882
▁۱۵۰۰	-15883
▁۱۹۸۵	-15884
خداوند	-15885
زیستور	-15886
▁Heart	-15887
▁Story	-15888
▁world	-15889
▁ابوال	-15890
▁ارشاد	-15891
▁امیلی	-15892
▁باوری	-15893
▁بدبین	-15894
▁بدشان	-15895
▁بدنام	-15896
▁بفهمم	-15897
▁تحریر	-15898
▁تفکری	-15899
▁تقلیل	-15900
▁تنبلی	-15901
▁جعفری	-15902
▁خطاها	-15903
▁خوندم	-15904
▁درصدد	-15905
▁دوخته	-15906
▁راجرز	-15907
▁زراعی	-15908
▁سلاحی	-15909
▁صحیحی	-15910
▁فانوس	-15911
▁متاثر	-15912
▁مجرای	-15913
▁ملودی	-15914
▁منقضی	-15915
▁مونیخ	-15916
▁نادری	-15917
▁هدفون	-15918
▁وخامت	-15919
▁پارگی	-15920
▁گردهم	-15921
▁گلزنی	-15922
رافتاده	-15923
▁Commun	-15924
▁آموختم	-15925
▁اثربخش	-15926
▁ارزانی	-15927
▁استریم	-15928
▁اسکایپ	-15929
▁انبوهی	-15930
▁باربری	-15931
▁بخوابد	-15932
▁جاسازی	-15933
▁جاستین	-15934
▁رقصیدن	-15935
▁سانتری	-15936
▁طوفانی	-15937
▁غارهای	-15938
▁فروشید	-15939
▁متروکه	-15940
▁مصادره	-15941
▁معاشرت	-15942
▁ملبورن	-15943
▁موازنه	-15944
▁ناآگاه	-15945
▁ناتمام	-15946
▁نورانی	-15947
▁نگهدار	-15948
▁پنالتی	-15949
▁کیفیتی	-15950
▁افزارها	-15951
▁اندیشند	-15952
▁بردباری	-15953
▁بیاموزد	-15954
▁بیتکوین	-15955
▁خداحافظ	-15956
▁دادگاهی	-15957
▁دانستنی	-15958
▁رستاخیز	-15959
▁رصدخانه	-15960
▁رهبرانی	-15961
▁روستاها	-15962
▁شاءالله	-15963
▁مالاریا	-15964
▁میلیمتر	-15965
▁نگهبانی	-15966
▁پرتوهای	-15967
▁کاتالوگ	-15968
▁کلاسهای	-15969
▁کوانتوم	-15970
▁یکنواخت	-15971
▁آنارشیست	-15972
▁بیانجامد	-15973
▁فروشگاهی	-15974
▁فقیرترین	-15975
▁مسافربری	-15976
▁مستعمرات	-15977
▁نیروهایی	-15978
▁همکارانم	-15979
▁پردازشگر	-15980
▁بازدارنده	-15981
▁برانگیختن	-15982
▁برگردانید	-15983
▁دورافتاده	-15984
▁میکروسکوپ	-15985
▁Technology	-15986
▁بازخوردهای	-15987
▁ترانزیستور	-15988
▁فرمانروایی	-15989
GB	-15990
LO	-15991
wn	-15992
zz	-15993
حم	-15994
قس	-15995
لئ	-15996
هل	-15997
يح	-15998
چن	-15999
ECD	-16000
ali	-16001
che	-16002
eta	-16003
por	-16004
ula	-16005
اعی	-16006
الف	-16007
تیس	-16008
جید	-16009
طقی	-16010
لیب	-16011
ویش	-16012
يين	-16013
پاژ	-16014
یتد	-16015
▁DA	-16016
▁IQ	-16017
▁LS	-16018
▁Po	-16019
▁Rh	-16020
▁cr	-16021
▁ec	-16022
▁ht	-16023
▁رُ	-16024
▁قو	-16025
▁چم	-16026
▁۸۶	-16027
▁۹۲	-16028
ague	-16029
edia	-16030
دولت	-16031
فورت	-16032
وهان	-16033
یافت	-16034
▁0.5	-16035
▁Box	-16036
▁Cit	-16037
▁Div	-16038
▁Dog	-16039
▁Hel	-16040
▁ICC	-16041
▁Nov	-16042
▁SPF	-16043
▁day	-16044
▁gro	-16045
▁ous	-16046
▁آرن	-16047
▁آلر	-16048
▁آکا	-16049
▁بنر	-16050
▁تمد	-16051
▁حصر	-16052
▁حقه	-16053
▁خوف	-16054
▁دله	-16055
▁ديد	-16056
▁دیگ	-16057
▁رجب	-16058
▁رعد	-16059
▁صدی	-16060
▁قوس	-16061
▁لیت	-16062
▁مِن	-16063
▁مکن	-16064
▁نعم	-16065
▁هلن	-16066
▁ژست	-16067
▁یاس	-16068
▁یین	-16069
Tunes	-16070
سترون	-16071
▁(198	-16072
▁1800	-16073
▁Brit	-16074
▁Kill	-16075
▁Long	-16076
▁Merc	-16077
▁Mill	-16078
▁Mont	-16079
▁Sant	-16080
[...]
