{
  "version": "1.0",
  "truncation": null,
  "padding": null,
  "added_tokens": [
    {
      "id": 0,
      "content": "[UNK]",
      "single_word": false,
      "lstrip": false,
      "rstrip": false,
      "normalized": false,
      "special": true
    },
    {
      "id": 1,
      "content": "[CLS]",
      "single_word": false,
      "lstrip": false,
      "rstrip": false,
      "normalized": false,
      "special": true
    },
    {
      "id": 2,
      "content": "[SEP]",
      "single_word": false,
      "lstrip": false,
      "rstrip": false,
      "normalized": false,
      "special": true
    },
    {
      "id": 3,
      "content": "[PAD]",
      "single_word": false,
      "lstrip": false,
      "rstrip": false,
      "normalized": false,
      "special": true
    },
    {
      "id": 4,
      "content": "[MASK]",
      "single_word": false,
      "lstrip": false,
      "rstrip": false,
      "normalized": false,
      "special": true
    }
  ],
  "normalizer": {
    "type": "Sequence",
    "normalizers": [
      {
        "type": "NFKC"
      },
      {
        "type": "Lowercase"
      }
    ]
  },
  "pre_tokenizer": {
    "type": "Whitespace"
  },
  "post_processor": null,
  "decoder": {
    "type": "WordPiece",
    "prefix": "##",
    "cleanup": true
  },
  "model": {
    "type": "WordPiece",
    "unk_token": "[UNK]",
    "continuing_subword_prefix": "##",
    "max_input_chars_per_word": 100,
    "vocab": {
      "[UNK]": 0,
      "[CLS]": 1,
      "[SEP]": 2,
      "[PAD]": 3,
      "[MASK]": 4,
      "!": 5,
      "\"": 6,
      "#": 7,
      "$": 8,
      "%": 9,
      "&": 10,
      "'": 11,
      "(": 12,
      ")": 13,
      "*": 14,
      "+": 15,
      ",": 16,
      "-": 17,
      ".": 18,
      "/": 19,
      "0": 20,
      "1": 21,
      "2": 22,
      "3": 23,
      "4": 24,
      "5": 25,
      "6": 26,
      "7": 27,
      "8": 28,
      "9": 29,
      ":": 30,
      ";": 31,
      "<": 32,
      "=": 33,
      ">": 34,
      "?": 35,
      "@": 36,
      "[": 37,
      "\\": 38,
      "]": 39,
      "^": 40,
      "_": 41,
      "`": 42,
      "a": 43,
      "b": 44,
      "c": 45,
      "d": 46,
      "e": 47,
      "f": 48,
      "g": 49,
      "h": 50,
      "i": 51,
      "j": 52,
      "k": 53,
      "l": 54,
      "m": 55,
      "n": 56,
      "o": 57,
      "p": 58,
      "q": 59,
      "r": 60,
      "s": 61,
      "t": 62,
      "u": 63,
      "v": 64,
      "w": 65,
      "x": 66,
      "y": 67,
      "z": 68,
      "{": 69,
      "|": 70,
      "}": 71,
      "~": 72,
      "": 73,
      "": 74,
      "": 75,
      "": 76,
      "": 77,
      "": 78,
      "": 79,
      "": 80,
      "": 81,
      "": 82,
      "": 83,
      "": 84,
      "": 85,
      "": 86,
      "": 87,
      "¡": 88,
      "¢": 89,
      "£": 90,
      "¤": 91,
      "¥": 92,
      "§": 93,
      "©": 94,
      "«": 95,
      "¬": 96,
      "­": 97,
      "®": 98,
      "°": 99,
      "±": 100,
      "·": 101,
      "»": 102,
      "×": 103,
      "ß": 104,
      "à": 105,
      "á": 106,
      "â": 107,
      "ã": 108,
      "ä": 109,
      "å": 110,
      "æ": 111,
      "ç": 112,
      "è": 113,
      "é": 114,
      "ê": 115,
      "ë": 116,
      "ì": 117,
      "í": 118,
      "î": 119,
      "ï": 120,
      "ð": 121,
      "ñ": 122,
      "ò": 123,
      "ó": 124,
      "ô": 125,
      "ö": 126,
      "÷": 127,
      "ø": 128,
      "ú": 129,
      "ü": 130,
      "ý": 131,
      "þ": 132,
      "ā": 133,
      "ć": 134,
      "ē": 135,
      "ğ": 136,
      "ī": 137,
      "ı": 138,
      "ł": 139,
      "ń": 140,
      "ŋ": 141,
      "œ": 142,
      "ş": 143,
      "š": 144,
      "ū": 145,
      "ű": 146,
      "ž": 147,
      "ƒ": 148,
      "ǎ": 149,
      "ɔ": 150,
      "ə": 151,
      "ɛ": 152,
      "ɜ": 153,
      "ɨ": 154,
      "ɪ": 155,
      "ʀ": 156,
      "ʁ": 157,
      "ʊ": 158,
      "ʺ": 159,
      "ˈ": 160,
      "ˌ": 161,
      "ˏ": 162,
      "ː": 163,
      "́": 164,
      "̃": 165,
      "̇": 166,
      "̈": 167,
      "̊": 168,
      "̋": 169,
      "̏": 170,
      "̨": 171,
      "̵": 172,
      "α": 173,
      "β": 174,
      "γ": 175,
      "δ": 176,
      "ε": 177,
      "ζ": 178,
      "θ": 179,
      "κ": 180,
      "λ": 181,
      "μ": 182,
      "ν": 183,
      "ο": 184,
      "ρ": 185,
      "ς": 186,
      "τ": 187,
      "φ": 188,
      "ω": 189,
      "а": 190,
      "б": 191,
      "г": 192,
      "д": 193,
      "е": 194,
      "з": 195,
      "и": 196,
      "й": 197,
      "к": 198,
      "л": 199,
      "м": 200,
      "н": 201,
      "о": 202,
      "п": 203,
      "р": 204,
      "с": 205,
      "т": 206,
      "у": 207,
      "ф": 208,
      "х": 209,
      "ы": 210,
      "ь": 211,
      "я": 212,
      "ё": 213,
      "ћ": 214,
      "ה": 215,
      "ח": 216,
      "י": 217,
      "כ": 218,
      "מ": 219,
      "פ": 220,
      "ש": 221,
      "،": 222,
      "؛": 223,
      "؟": 224,
      "ء": 225,
      "آ": 226,
      "أ": 227,
      "ؤ": 228,
      "إ": 229,
      "ئ": 230,
      "ا": 231,
      "ب": 232,
      "ة": 233,
      "ت": 234,
      "ث": 235,
      "ج": 236,
      "ح": 237,
      "خ": 238,
      "د": 239,
      "ذ": 240,
      "ر": 241,
      "ز": 242,
      "س": 243,
      "ش": 244,
      "ص": 245,
      "ض": 246,
      "ط": 247,
      "ظ": 248,
      "ع": 249,
      "غ": 250,
      "ـ": 251,
      "ف": 252,
      "ق": 253,
      "ك": 254,
      "ل": 255,
      "م": 256,
      "ن": 257,
      "ه": 258,
      "و": 259,
      "ى": 260,
      "ي": 261,
      "ً": 262,
      "ٌ": 263,
      "ٍ": 264,
      "َ": 265,
      "ُ": 266,
      "ِ": 267,
      "ّ": 268,
      "ْ": 269,
      "ٓ": 270,
      "ٔ": 271,
      "٠": 272,
      "١": 273,
      "٢": 274,
      "٣": 275,
      "٤": 276,
      "٥": 277,
      "٦": 278,
      "٧": 279,
      "٨": 280,
      "٩": 281,
      "٪": 282,
      "٫": 283,
      "٬": 284,
      "ٰ": 285,
      "ٴ": 286,
      "پ": 287,
      "ٿ": 288,
      "څ": 289,
      "چ": 290,
      "ژ": 291,
      "ک": 292,
      "ڪ": 293,
      "ګ": 294,
      "گ": 295,
      "ڵ": 296,
      "ں": 297,
      "ھ": 298,
      "ۀ": 299,
      "ہ": 300,
      "ۂ": 301,
      "ۃ": 302,
      "ۆ": 303,
      "ی": 304,
      "ێ": 305,
      "ے": 306,
      "۔": 307,
      "ە": 308,
      "۰": 309,
      "۱": 310,
      "۲": 311,
      "۳": 312,
      "۴": 313,
      "۵": 314,
      "۶": 315,
      "۷": 316,
      "۸": 317,
      "۹": 318,
      "ܔ": 319,
      "ܜ": 320,
      "ก": 321,
      "ง": 322,
      "แ": 323,
      "ა": 324,
      "გ": 325,
      "ე": 326,
      "ვ": 327,
      "თ": 328,
      "ი": 329,
      "ლ": 330,
      "მ": 331,
      "ნ": 332,
      "ო": 333,
      "რ": 334,
      "ს": 335,
      "უ": 336,
      "ქ": 337,
      "ḥ": 338,
      "ṇ": 339,
      "ṯ": 340,
      "ủ": 341,
      "ἐ": 342,
      "ἥ": 343,
      "ἴ": 344,
      "ῖ": 345,
      "​": 346,
      "‌": 347,
      "‍": 348,
      "‎": 349,
      "‏": 350,
      "–": 351,
      "—": 352,
      "―": 353,
      "‘": 354,
      "’": 355,
      "‚": 356,
      "“": 357,
      "”": 358,
      "„": 359,
      "†": 360,
      "•": 361,
      "‪": 362,
      "‫": 363,
      "‬": 364,
      "‭": 365,
      "′": 366,
      "‹": 367,
      "›": 368,
      "※": 369,
      "⁄": 370,
      "⁠": 371,
      "⁣": 372,
      "⁧": 373,
      "⁩": 374,
      "⁪": 375,
      "⁭": 376,
      "⁮": 377,
      "⁯": 378,
      "₩": 379,
      "€": 380,
      "₹": 381,
      "⃣": 382,
      "←": 383,
      "↑": 384,
      "→": 385,
      "↓": 386,
      "⇆": 387,
      "⇐": 388,
      "⇔": 389,
      "∀": 390,
      "∆": 391,
      "∈": 392,
      "−": 393,
      "∗": 394,
      "∘": 395,
      "√": 396,
      "∴": 397,
      "≈": 398,
      "≠": 399,
      "≡": 400,
      "≤": 401,
      "≥": 402,
      "⊞": 403,
      "⋆": 404,
      "⌘": 405,
      "⏳": 406,
      "⏺": 407,
      "▐": 408,
      "■": 409,
      "□": 410,
      "▪": 411,
      "▫": 412,
      "▬": 413,
      "▲": 414,
      "▶": 415,
      "►": 416,
      "◀": 417,
      "◄": 418,
      "◇": 419,
      "◊": 420,
      "○": 421,
      "●": 422,
      "◦": 423,
      "◽": 424,
      "◾": 425,
      "★": 426,
      "☆": 427,
      "☚": 428,
      "☺": 429,
      "☼": 430,
      "♊": 431,
      "♒": 432,
      "♡": 433,
      "♥": 434,
      "♦": 435,
      "♪": 436,
      "♫": 437,
      "♬": 438,
      "♯": 439,
      "⚡": 440,
      "⚽": 441,
      "✅": 442,
      "✋": 443,
      "✍": 444,
      "✓": 445,
      "✔": 446,
      "✕": 447,
      "✤": 448,
      "✭": 449,
      "✳": 450,
      "✵": 451,
      "❇": 452,
      "❌": 453,
      "❗": 454,
      "❤": 455,
      "➌": 456,
      "➐": 457,
      "➕": 458,
      "➖": 459,
      "⟨": 460,
      "⟩": 461,
      "⦁": 462,
      "⬅": 463,
      "《": 464,
      "》": 465,
      "「": 466,
      "か": 467,
      "き": 468,
      "ど": 469,
      "ま": 470,
      "メ": 471,
      "モ": 472,
      "ヤ": 473,
      "一": 474,
      "东": 475,
      "事": 476,
      "人": 477,
      "件": 478,
      "前": 479,
      "十": 480,
      "台": 481,
      "命": 482,
      "坛": 483,
      "外": 484,
      "天": 485,
      "子": 486,
      "孫": 487,
      "將": 488,
      "撫": 489,
      "斐": 490,
      "旗": 491,
      "日": 492,
      "月": 493,
      "朝": 494,
      "本": 495,
      "樹": 496,
      "湾": 497,
      "灣": 498,
      "爱": 499,
      "生": 500,
      "甲": 501,
      "碌": 502,
      "神": 503,
      "臺": 504,
      "英": 505,
      "蔼": 506,
      "语": 507,
      "谷": 508,
      "軍": 509,
      "锦": 510,
      "门": 511,
      "革": 512,
      "도": 513,
      "라": 514,
      "아": 515,
      "장": 516,
      "티": 517,
      "": 518,
      "": 519,
      "": 520,
      "": 521,
      "": 522,
      "": 523,
      "": 524,
      "": 525,
      "": 526,
      "": 527,
      "": 528,
      "": 529,
      "": 530,
      "": 531,
      "": 532,
      "": 533,
      "": 534,
      "": 535,
      "": 536,
      "": 537,
      "": 538,
      "": 539,
      "": 540,
      "": 541,
      "": 542,
      "": 543,
      "": 544,
      "": 545,
      "": 546,
      "": 547,
      "": 548,
      "﴾": 549,
      "﴿": 550,
      "️": 551,
      "﻿": 552,
      "�": 553,
      "🇩": 554,
      "🇪": 555,
      "🇬": 556,
      "🇷": 557,
      "🇺": 558,
      "🌀": 559,
      "🌐": 560,
      "🌬": 561,
      "🌲": 562,
      "🌷": 563,
      "🌸": 564,
      "🌺": 565,
      "🍁": 566,
      "🍃": 567,
      "🍳": 568,
      "🎁": 569,
      "🎄": 570,
      "🎥": 571,
      "🎬": 572,
      "🐶": 573,
      "👈": 574,
      "👌": 575,
      "👏": 576,
      "👑": 577,
      "👻": 578,
      "💎": 579,
      "💕": 580,
      "💜": 581,
      "💟": 582,
      "💫": 583,
      "💳": 584,
      "📈": 585,
      "📌": 586,
      "📍": 587,
      "📑": 588,
      "📝": 589,
      "📣": 590,
      "📱": 591,
      "📽": 592,
      "🔎": 593,
      "🔔": 594,
      "🔥": 595,
      "🔴": 596,
      "🔵": 597,
      "🔶": 598,
      "🔷": 599,
      "🔸": 600,
      "🔹": 601,
      "🔺": 602,
      "🔻": 603,
      "🗽": 604,
      "😀": 605,
      "😁": 606,
      "😂": 607,
      "😅": 608,
      "😉": 609,
      "😊": 610,
      "😌": 611,
      "😍": 612,
      "😎": 613,
      "😏": 614,
      "😐": 615,
      "😒": 616,
      "😔": 617,
      "😕": 618,
      "😗": 619,
      "😙": 620,
      "😛": 621,
      "😢": 622,
      "😥": 623,
      "😭": 624,
      "😳": 625,
      "😵": 626,
      "😶": 627,
      "🙁": 628,
      "🙂": 629,
      "🙏": 630,
      "🚀": 631,
      "🚫": 632,
      "🤔": 633,
      "🤗": 634,
      "🥇": 635,
      "##ن": 636,
      "##س": 637,
      "##ب": 638,
      "##ر": 639,
      "##و": 640,
      "##ت": 641,
      "##u": 642,
      "##b": 643,
      "##i": 644,
      "##e": 645,
      "##s": 646,
      "##ح": 647,
      "##ا": 648,
      "##د": 649,
      "##ل": 650,
      "##گ": 651,
      "##a": 652,
      "##n": 653,
      "##k": 654,
      "##p": 655,
      "##l": 656,
      "##ی": 657,
      "##ک": 658,
      "##ژ": 659,
      "##ه": 660,
      "##r": 661,
      "##d": 662,
      "##c": 663,
      "##h": 664,
      "##چ": 665,
      "##ك": 666,
      "##ي": 667,
      "##ف": 668,
      "##m": 669,
      "##ش": 670,
      "##م": 671,
      "##3": 672,
      "##w": 673,
      "##پ": 674,
      "##y": 675,
      "##z": 676,
      "##o": 677,
      "##f": 678,
      "##t": 679,
      "##ق": 680,
      "##ط": 681,
      "##1": 682,
      "##٤": 683,
      "##5": 684,
      "##2": 685,
      "##ز": 686,
      "##ى": 687,
      "##ع": 688,
      "##ص": 689,
      "##v": 690,
      "##۸": 691,
      "##۲": 692,
      "##g": 693,
      "##ّ": 694,
      "##̇": 695,
      "##ض": 696,
      "##ئ": 697,
      "##ج": 698,
      "##ó": 699,
      "##x": 700,
      "##٩": 701,
      "##٣": 702,
      "##7": 703,
      "##َ": 704,
      "##ِ": 705,
      "##ۀ": 706,
      "##j": 707,
      "##ـ": 708,
      "##٢": 709,
      "##q": 710,
      "##.": 711,
      "##»": 712,
      "##آ": 713,
      "##ذ": 714,
      "##8": 715,
      "##+": 716,
      "##9": 717,
      "##۳": 718,
      "##۴": 719,
      "##۵": 720,
      "##6": 721,
      "##​": 722,
      "##-": 723,
      "##4": 724,
      "##é": 725,
      "##ة": 726,
      "##خ": 727,
      "##۷": 728,
      "##‌": 729,
      "##۰": 730,
      "##۶": 731,
      "##á": 732,
      "##ظ": 733,
      "##&": 734,
      "##,": 735,
      "##ث": 736,
      "##0": 737,
      "##ä": 738,
      "##\"": 739,
      "##۱": 740,
      "##)": 741,
      "##[": 742,
      "##!": 743,
      "##‎": 744,
      "##ً": 745,
      "##ö": 746,
      "##٠": 747,
      "##>": 748,
      "##ُ": 749,
      "##å": 750,
      "##١": 751,
      "##]": 752,
      "##غ": 753,
      "##*": 754,
      "##ؤ": 755,
      "##۹": 756,
      "##،": 757,
      "##٧": 758,
      "##ç": 759,
      "##أ": 760,
      "##٨": 761,
      "##ێ": 762,
      "##ა": 763,
      "##ნ": 764,
      "##ი": 765,
      "##ñ": 766,
      "##«": 767,
      "##‏": 768,
      "##_": 769,
      "##:": 770,
      "##ٴ": 771,
      "##": 772,
      "##湾": 773,
      "##件": 774,
      "##←": 775,
      "##ô": 776,
      "##ü": 777,
      "##月": 778,
      "##事": 779,
      "##=": 780,
      "##”": 781,
      "##•": 782,
      "##í": 783,
      "##ٔ": 784,
      "##ê": 785,
      "##–": 786,
      "##人": 787,
      "##ګ": 788,
      "##ã": 789,
      "##⌘": 790,
      "##ە": 791,
      "##/": 792,
      "##;": 793,
      "##?": 794,
      "##٥": 795,
      "##'": 796,
      "##٦": 797,
      "##<": 798,
      "##·": 799,
      "##﻿": 800,
      "##✅": 801,
      "##؟": 802,
      "##ú": 803,
      "##ı": 804,
      "##灣": 805,
      "##ɪ": 806,
      "##ŋ": 807,
      "##$": 808,
      "##ٰ": 809,
      "##`": 810,
      "##à": 811,
      "##إ": 812,
      "##语": 813,
      "##о": 814,
      "##д": 815,
      "##ۆ": 816,
      "##ٿ": 817,
      "##😀": 818,
      "##ø": 819,
      "##ے": 820,
      "##т": 821,
      "##ٌ": 822,
      "##(": 823,
      "##ş": 824,
      "##è": 825,
      "##ء": 826,
      "##ʊ": 827,
      "##ھ": 828,
      "##ë": 829,
      "##£": 830,
      "##ں": 831,
      "##ā": 832,
      "##ْ": 833,
      "##命": 834,
      "##؛": 835,
      "##坛": 836,
      "##东": 837,
      "##门": 838,
      "###": 839,
      "##ۂ": 840,
      "##е": 841,
      "##н": 842,
      "##с": 843,
      "##и": 844,
      "##я": 845,
      "##¤": 846,
      "##子": 847,
      "##’": 848,
      "##â": 849,
      "##ვ": 850,
      "##უ": 851,
      "##ლ": 852,
      "##‍": 853,
      "##გ": 854,
      "##ო": 855,
      "##ˈ": 856,
      "##°": 857,
      "##‪": 858,
      "##ь": 859,
      "##ы": 860,
      "##й": 861,
      "##@": 862,
      "##{": 863,
      "##英": 864,
      "##樹": 865,
      "##ˌ": 866,
      "##“": 867,
      "##ɛ": 868,
      "##§": 869,
      "##î": 870,
      "##י": 871,
      "##ח": 872,
      "##😏": 873,
      "##ː": 874,
      "##ű": 875,
      "##́": 876,
      "##아": 877,
      "##라": 878,
      "##ћ": 879,
      "##٪": 880,
      "##ڪ": 881,
      "##რ": 882,
      "##თ": 883,
      "##ý": 884,
      "##😍": 885,
      "##ī": 886,
      "##р": 887,
      "##у": 888,
      "##г": 889,
      "##٫": 890,
      "##🇬": 891,
      "##🇷": 892,
      "##მ": 893,
      "##✤": 894,
      "##ῖ": 895,
      "##ν": 896,
      "##ο": 897,
      "##ς": 898,
      "##|": 899,
      "##♫": 900,
      "##к": 901,
      "##а": 902,
      "##~": 903,
      "##%": 904,
      "##ì": 905,
      "##פ": 906,
      "##ה": 907,
      "##τ": 908,
      "##ρ": 909,
      "##旗": 910,
      "##ω": 911,
      "##‘": 912,
      "##軍": 913,
      "##將": 914,
      "##‹": 915,
      "##장": 916,
      "##ủ": 917,
      "##ē": 918,
      "##ܔ": 919,
      "##≈": 920,
      "##ე": 921,
      "##ʀ": 922,
      "##ɔ": 923,
      "##ć": 924,
      "##ū": 925,
      "##": 926,
      "##�": 927,
      "##⃣": 928,
      "##′": 929,
      "##\\": 930,
      "##️": 931,
      "##ε": 932,
      "##ان": 933,
      "##ای": 934,
      "##ار": 935,
      "##ست": 936,
      "##ند": 937,
      "در": 938,
      "##ین": 939,
      "به": 940,
      "می": 941,
      "را": 942,
      "از": 943,
      "که": 944,
      "##ود": 945,
      "است": 946,
      "##ید": 947,
      "با": 948,
      "این": 949,
      "بر": 950,
      "##رد": 951,
      "##اد": 952,
      "ان": 953,
      "##ام": 954,
      "های": 955,
      "##ال": 956,
      "##ور": 957,
      "کن": 958,
      "##اه": 959,
      "##ما": 960,
      "##یر": 961,
      "یک": 962,
      "آن": 963,
      "تو": 964,
      "هم": 965,
      "برای": 966,
      "##شت": 967,
      "ها": 968,
      "##یم": 969,
      "شد": 970,
      "رو": 971,
      "##فت": 972,
      "##اب": 973,
      "دار": 974,
      "##ون": 975,
      "##لی": 976,
      "کرد": 977,
      "ات": 978,
      "##ری": 979,
      "من": 980,
      "##لا": 981,
      "##از": 982,
      "ای": 983,
      "مو": 984,
      "##ها": 985,
      "یا": 986,
      "##سی": 987,
      "##را": 988,
      "##گر": 989,
      "کار": 990,
      "##رو": 991,
      "او": 992,
      "ده": 993,
      "خود": 994,
      "شما": 995,
      "نی": 996,
      "ند": 997,
      "توان": 998,
      "بود": 999,
      "##می": 1000,
      "دا": 1001,
      "خو": 1002,
      "##اده": 1003,
      "تر": 1004,
      "باش": 1005,
      "تا": 1006,
      "دو": 1007,
      "ما": 1008,
      "بی": 1009,
      "##یت": 1010,
      "کند": 1011,
      "شود": 1012,
      "دی": 1013,
      "##تر": 1014,
      "کنند": 1015,
      "ام": 1016,
      "شده": 1017,
      "ال": 1018,
      "سال": 1019,
      "##تی": 1020,
      "هر": 1021,
      "##مان": 1022,
      "##یا": 1023,
      "کنید": 1024,
      "هست": 1025,
      "##زی": 1026,
      "ار": 1027,
      "##ول": 1028,
      "##خت": 1029,
      "اند": 1030,
      "##گی": 1031,
      "ید": 1032,
      "##اید": 1033,
      "##اس": 1034,
      "##دا": 1035,
      "اف": 1036,
      "##وی": 1037,
      "دان": 1038,
      "##اری": 1039,
      "##نو": 1040,
      "ست": 1041,
      "یی": 1042,
      "داشت": 1043,
      "##نگ": 1044,
      "##ده": 1045,
      "##کن": 1046,
      "دست": 1047,
      "اما": 1048,
      "پی": 1049,
      "باشد": 1050,
      "گر": 1051,
      "##رک": 1052,
      "دارد": 1053,
      "مح": 1054,
      "حال": 1055,
      "نمی": 1056,
      "آنها": 1057,
      "وا": 1058,
      "##بت": 1059,
      "باید": 1060,
      "##یل": 1061,
      "تح": 1062,
      "قر": 1063,
      "فر": 1064,
      "اگر": 1065,
      "##زار": 1066,
      "کم": 1067,
      "##له": 1068,
      "چه": 1069,
      "مع": 1070,
      "دیگر": 1071,
      "##مو": 1072,
      "فاده": 1073,
      "##ات": 1074,
      "##بی": 1075,
      "شو": 1076,
      "واه": 1077,
      "چی": 1078,
      "##انه": 1079,
      "رس": 1080,
      "سی": 1081,
      "اس": 1082,
      "بار": 1083,
      "##قی": 1084,
      "نظ": 1085,
      "##مای": 1086,
      "بین": 1087,
      "مت": 1088,
      "##امه": 1089,
      "##رف": 1090,
      "##فته": 1091,
      "##جود": 1092,
      "سر": 1093,
      "##در": 1094,
      "##عی": 1095,
      "انج": 1096,
      "مش": 1097,
      "##نی": 1098,
      "نش": 1099,
      "زمان": 1100,
      "زند": 1101,
      "مورد": 1102,
      "نو": 1103,
      "داد": 1104,
      "تن": 1105,
      "چن": 1106,
      "##جه": 1107,
      "هستند": 1108,
      "گذ": 1109,
      "بد": 1110,
      "کش": 1111,
      "تواند": 1112,
      "مان": 1113,
      "دهد": 1114,
      "##که": 1115,
      "انجام": 1116,
      "گاه": 1117,
      "نا": 1118,
      "کرده": 1119,
      "یم": 1120,
      "##عه": 1121,
      "ری": 1122,
      "مر": 1123,
      "مس": 1124,
      "##بر": 1125,
      "##عد": 1126,
      "##اف": 1127,
      "روز": 1128,
      "خواه": 1129,
      "اج": 1130,
      "سا": 1131,
      "نیست": 1132,
      "تم": 1133,
      "هی": 1134,
      "وجود": 1135,
      "##زش": 1136,
      "مرد": 1137,
      "قرار": 1138,
      "همه": 1139,
      "##با": 1140,
      "##وا": 1141,
      "نه": 1142,
      "##انی": 1143,
      "مه": 1144,
      "##دید": 1145,
      "##شتر": 1146,
      "##کر": 1147,
      "بیشتر": 1148,
      "چنین": 1149,
      "اح": 1150,
      "جه": 1151,
      "##کا": 1152,
      "نیز": 1153,
      "عنو": 1154,
      "عنوان": 1155,
      "ساز": 1156,
      "##ارد": 1157,
      "ین": 1158,
      "وی": 1159,
      "##رکت": 1160,
      "##عت": 1161,
      "بخ": 1162,
      "مد": 1163,
      "زی": 1164,
      "مم": 1165,
      "##فا": 1166,
      "اد": 1167,
      "وق": 1168,
      "پس": 1169,
      "##مین": 1170,
      "توس": 1171,
      "##امل": 1172,
      "پیش": 1173,
      "دارند": 1174,
      "داشته": 1175,
      "##خص": 1176,
      "انت": 1177,
      "هایی": 1178,
      "خواهد": 1179,
      "رن": 1180,
      "زندگی": 1181,
      "ور": 1182,
      "##نا": 1183,
      "تص": 1184,
      "##به": 1185,
      "دانش": 1186,
      "##ایی": 1187,
      "نق": 1188,
      "تج": 1189,
      "##ونه": 1190,
      "شوند": 1191,
      "ممکن": 1192,
      "بز": 1193,
      "اط": 1194,
      "روی": 1195,
      "نظر": 1196,
      "##ادی": 1197,
      "گو": 1198,
      "##وری": 1199,
      "اق": 1200,
      "داده": 1201,
      "گفت": 1202,
      "##وم": 1203,
      "کس": 1204,
      "کو": 1205,
      "راه": 1206,
      "##ایت": 1207,
      "##قه": 1208,
      "##مل": 1209,
      "شرکت": 1210,
      "اه": 1211,
      "بسی": 1212,
      "##رگ": 1213,
      "بسیار": 1214,
      "واق": 1215,
      "مق": 1216,
      "##یده": 1217,
      "کردن": 1218,
      "نگ": 1219,
      "خا": 1220,
      "هیچ": 1221,
      "نیاز": 1222,
      "##کل": 1223,
      "##فر": 1224,
      "طور": 1225,
      "تنها": 1226,
      "زن": 1227,
      "کنیم": 1228,
      "اش": 1229,
      "اص": 1230,
      "یکی": 1231,
      "تغ": 1232,
      "ترین": 1233,
      "##نده": 1234,
      "##یک": 1235,
      "جم": 1236,
      "مری": 1237,
      "##چه": 1238,
      "اخ": 1239,
      "مریکا": 1240,
      "افر": 1241,
      "بخش": 1242,
      "##ورت": 1243,
      "رنامه": 1244,
      "پر": 1245,
      "##سان": 1246,
      "افراد": 1247,
      "##هر": 1248,
      "تمام": 1249,
      "بعد": 1250,
      "بزرگ": 1251,
      "##گیر": 1252,
      "کل": 1253,
      "قب": 1254,
      "کمک": 1255,
      "آم": 1256,
      "اول": 1257,
      "مردم": 1258,
      "مند": 1259,
      "##خا": 1260,
      "چند": 1261,
      "##کی": 1262,
      "جدید": 1263,
      "یت": 1264,
      "نام": 1265,
      "صورت": 1266,
      "فق": 1267,
      "بازی": 1268,
      "##شته": 1269,
      "اع": 1270,
      "تان": 1271,
      "##قیق": 1272,
      "باره": 1273,
      "##لت": 1274,
      "##وه": 1275,
      "نشان": 1276,
      "##لام": 1277,
      "##خی": 1278,
      "دور": 1279,
      "##ییر": 1280,
      "تغییر": 1281,
      "##ابر": 1282,
      "چیزی": 1283,
      "##صد": 1284,
      "##جا": 1285,
      "گیر": 1286,
      "یاب": 1287,
      "##لب": 1288,
      "##وت": 1289,
      "زیر": 1290,
      "##طر": 1291,
      "دن": 1292,
      "کت": 1293,
      "نس": 1294,
      "##وان": 1295,
      "##اره": 1296,
      "کشور": 1297,
      "ساخت": 1298,
      "دل": 1299,
      "دهند": 1300,
      "دوست": 1301,
      "شان": 1302,
      "پای": 1303,
      "انه": 1304,
      "توسط": 1305,
      "کنم": 1306,
      "افز": 1307,
      "##رائ": 1308,
      "سو": 1309,
      "ارت": 1310,
      "##الی": 1311,
      "باز": 1312,
      "کا": 1313,
      "مج": 1314,
      "##شه": 1315,
      "ایج": 1316,
      "ایجاد": 1317,
      "آیا": 1318,
      "خانه": 1319,
      "نت": 1320,
      "حد": 1321,
      "فقط": 1322,
      "تب": 1323,
      "چیز": 1324,
      "##بان": 1325,
      "##حی": 1326,
      "ماه": 1327,
      "##..": 1328,
      "##ابل": 1329,
      "عمو": 1330,
      "حا": 1331,
      "##ژی": 1332,
      "ایر": 1333,
      "حق": 1334,
      "مانند": 1335,
      "رفت": 1336,
      "##لو": 1337,
      "پرو": 1338,
      "وان": 1339,
      "اب": 1340,
      "##ارت": 1341,
      "واقع": 1342,
      "جهان": 1343,
      "یافت": 1344,
      "طول": 1345,
      "زمین": 1346,
      "##لف": 1347,
      "##عیت": 1348,
      "بیش": 1349,
      "##سه": 1350,
      "گی": 1351,
      "روش": 1352,
      "سیاری": 1353,
      "تع": 1354,
      "غیر": 1355,
      "حتی": 1356,
      "رد": 1357,
      "تول": 1358,
      "باشید": 1359,
      "انتخا": 1360,
      "اینکه": 1361,
      "مط": 1362,
      "##لیل": 1363,
      "بن": 1364,
      "##ثر": 1365,
      "خان": 1366,
      "##شد": 1367,
      "##ره": 1368,
      "شهر": 1369,
      "سه": 1370,
      "##ساس": 1371,
      "##ادر": 1372,
      "اطلا": 1373,
      "اطلاع": 1374,
      "بل": 1375,
      "شر": 1376,
      "##شر": 1377,
      "چگ": 1378,
      "کردند": 1379,
      "گرد": 1380,
      "##ینه": 1381,
      "ود": 1382,
      "دید": 1383,
      "برخی": 1384,
      "هد": 1385,
      "فرو": 1386,
      "لی": 1387,
      "مهم": 1388,
      "انداز": 1389,
      "لا": 1390,
      "باشند": 1391,
      "آی": 1392,
      "ایران": 1393,
      "یه": 1394,
      "##ژه": 1395,
      "تما": 1396,
      "##ضو": 1397,
      "##زه": 1398,
      "گرفت": 1399,
      "زمانی": 1400,
      "درصد": 1401,
      "##ضی": 1402,
      "##یدا": 1403,
      "افزای": 1404,
      "انسان": 1405,
      "##ستم": 1406,
      "فیل": 1407,
      "شب": 1408,
      "##ورد": 1409,
      "##صی": 1410,
      "یل": 1411,
      "کاری": 1412,
      "کسی": 1413,
      "##گاه": 1414,
      "اک": 1415,
      "کتاب": 1416,
      "دهید": 1417,
      "قدر": 1418,
      "کود": 1419,
      "ایم": 1420,
      "شن": 1421,
      "علا": 1422,
      "...": 1423,
      "فکر": 1424,
      "شور": 1425,
      "کودک": 1426,
      "مث": 1427,
      "تولید": 1428,
      "سیا": 1429,
      "##زد": 1430,
      "شخص": 1431,
      "##ریق": 1432,
      "جنگ": 1433,
      "##مایش": 1434,
      "چرا": 1435,
      "##بود": 1436,
      "##تب": 1437,
      "واهید": 1438,
      "ارائ": 1439,
      "گرفته": 1440,
      "آب": 1441,
      "تش": 1442,
      "ارائه": 1443,
      "جای": 1444,
      "##رس": 1445,
      "خار": 1446,
      "بودند": 1447,
      "چگونه": 1448,
      "##یس": 1449,
      "تلا": 1450,
      "##وق": 1451,
      "خد": 1452,
      "وقتی": 1453,
      "مشکل": 1454,
      "##مت": 1455,
      "##سته": 1456,
      "سازم": 1457,
      "##زینه": 1458,
      "بدون": 1459,
      "نم": 1460,
      "همین": 1461,
      "##کان": 1462,
      "##شم": 1463,
      "غذ": 1464,
      "بوده": 1465,
      "همان": 1466,
      "هنگ": 1467,
      "##کار": 1468,
      "پیدا": 1469,
      "سیستم": 1470,
      "شدن": 1471,
      "قابل": 1472,
      "دارید": 1473,
      "گرو": 1474,
      "شرو": 1475,
      "مص": 1476,
      "فرد": 1477,
      "نخ": 1478,
      "گروه": 1479,
      "خی": 1480,
      "##ایل": 1481,
      "زیادی": 1482,
      "شنا": 1483,
      "##ترین": 1484,
      "نفر": 1485,
      "##روز": 1486,
      "er": 1487,
      "احساس": 1488,
      "خوب": 1489,
      "کاه": 1490,
      "##راحی": 1491,
      "کننده": 1492,
      "شم": 1493,
      "شروع": 1494,
      "دلیل": 1495,
      "پو": 1496,
      "هنگام": 1497,
      "##بو": 1498,
      "خیلی": 1499,
      "کاهش": 1500,
      "دیگ": 1501,
      "حس": 1502,
      "##ازه": 1503,
      "واهند": 1504,
      "آمو": 1505,
      "وب": 1506,
      "دیر": 1507,
      "پن": 1508,
      "##فق": 1509,
      "لو": 1510,
      "دولت": 1511,
      "توجه": 1512,
      "##اشت": 1513,
      "خدا": 1514,
      "##زان": 1515,
      "هو": 1516,
      "فیلم": 1517,
      "ولی": 1518,
      "بازار": 1519,
      "الا": 1520,
      "##تص": 1521,
      "##کس": 1522,
      "امروز": 1523,
      "آز": 1524,
      "##شان": 1525,
      "##قل": 1526,
      "##ضر": 1527,
      "آورد": 1528,
      "سایت": 1529,
      "##تما": 1530,
      "##دام": 1531,
      "نک": 1532,
      "خارج": 1533,
      "ستان": 1534,
      "گوی": 1535,
      "##است": 1536,
      "زبان": 1537,
      "اولین": 1538,
      "قبل": 1539,
      "عم": 1540,
      "##دن": 1541,
      "فروش": 1542,
      "هترین": 1543,
      "دیگری": 1544,
      "##رکز": 1545,
      "##on": 1546,
      "جن": 1547,
      "شک": 1548,
      "بنابر": 1549,
      "حرف": 1550,
      "باع": 1551,
      "مدت": 1552,
      "تاری": 1553,
      "##گو": 1554,
      "قدرت": 1555,
      "حدود": 1556,
      "میان": 1557,
      "کسب": 1558,
      "منط": 1559,
      "عد": 1560,
      "تفا": 1561,
      "منت": 1562,
      "همی": 1563,
      "ارو": 1564,
      "سن": 1565,
      "همیشه": 1566,
      "یلی": 1567,
      "انگ": 1568,
      "ندارد": 1569,
      "تجر": 1570,
      "جا": 1571,
      "خواست": 1572,
      "سط": 1573,
      "خانوا": 1574,
      "یاد": 1575,
      "قان": 1576,
      "پاس": 1577,
      "تفاوت": 1578,
      "باعث": 1579,
      "مرا": 1580,
      "صح": 1581,
      "موضو": 1582,
      "موضوع": 1583,
      "خص": 1584,
      "درست": 1585,
      "تلاش": 1586,
      "ارتبا": 1587,
      "قانون": 1588,
      "هدف": 1589,
      "مخت": 1590,
      "##ثیر": 1591,
      "طریق": 1592,
      "توسعه": 1593,
      "یابی": 1594,
      "گذشته": 1595,
      "رق": 1596,
      "سری": 1597,
      "احتما": 1598,
      "##پا": 1599,
      "طراحی": 1600,
      "##بال": 1601,
      "##طه": 1602,
      "##مات": 1603,
      "نزد": 1604,
      "دنبال": 1605,
      "##لم": 1606,
      "خصو": 1607,
      "##میم": 1608,
      "##صول": 1609,
      "##گز": 1610,
      "اید": 1611,
      "آنچه": 1612,
      "افت": 1613,
      "عال": 1614,
      "##چک": 1615,
      "کام": 1616,
      "##ar": 1617,
      "عر": 1618,
      "سپ": 1619,
      "زنان": 1620,
      "##سر": 1621,
      "ره": 1622,
      "نامه": 1623,
      "محصول": 1624,
      "جهانی": 1625,
      "##صل": 1626,
      "بدن": 1627,
      "بهتر": 1628,
      "##رده": 1629,
      "##لیه": 1630,
      "چین": 1631,
      "گونه": 1632,
      "##یف": 1633,
      "شامل": 1634,
      "هن": 1635,
      "آینده": 1636,
      "رمای": 1637,
      "مختلف": 1638,
      "هنو": 1639,
      "یع": 1640,
      "بیم": 1641,
      "هنوز": 1642,
      "وز": 1643,
      "##ضا": 1644,
      "گزار": 1645,
      "جز": 1646,
      "نتی": 1647,
      "##اسب": 1648,
      "تماعی": 1649,
      "اصلی": 1650,
      "##قا": 1651,
      "وسی": 1652,
      "نوع": 1653,
      "##خر": 1654,
      "تصمیم": 1655,
      "اروپا": 1656,
      "تاریخ": 1657,
      "رمایه": 1658,
      "گفته": 1659,
      "تحقیق": 1660,
      "مسئ": 1661,
      "نیر": 1662,
      "طبی": 1663,
      "وارد": 1664,
      "ادامه": 1665,
      "##ریان": 1666,
      "ته": 1667,
      "تأ": 1668,
      "المل": 1669,
      "خر": 1670,
      "سازی": 1671,
      "الملل": 1672,
      "تجربه": 1673,
      "دادن": 1674,
      "##طور": 1675,
      "in": 1676,
      "وقت": 1677,
      "درمان": 1678,
      "شاه": 1679,
      "برد": 1680,
      "اعت": 1681,
      "##فاق": 1682,
      "اتفاق": 1683,
      "کوچک": 1684,
      "مصرف": 1685,
      "##an": 1686,
      "ساعت": 1687,
      "نسبت": 1688,
      "آل": 1689,
      "یان": 1690,
      "حاضر": 1691,
      "زیرا": 1692,
      "جو": 1693,
      "جام": 1694,
      "رشد": 1695,
      "ران": 1696,
      "پاسخ": 1697,
      "هفته": 1698,
      "##ذیر": 1699,
      "هوا": 1700,
      "ملی": 1701,
      "هزینه": 1702,
      "نده": 1703,
      "قط": 1704,
      "پا": 1705,
      "ردا": 1706,
      "بگیر": 1707,
      "##or": 1708,
      "##رات": 1709,
      "شورها": 1710,
      "##رسی": 1711,
      "آور": 1712,
      "دارای": 1713,
      "بررسی": 1714,
      "نف": 1715,
      "##ترل": 1716,
      "عالیت": 1717,
      "یلیون": 1718,
      "منطقه": 1719,
      "سل": 1720,
      "آموزش": 1721,
      "تل": 1722,
      "طر": 1723,
      "شا": 1724,
      "کامل": 1725,
      "حالی": 1726,
      "کنترل": 1727,
      "طال": 1728,
      "خوبی": 1729,
      "چشم": 1730,
      "##جر": 1731,
      "بالا": 1732,
      "سطح": 1733,
      "ارزش": 1734,
      "##er": 1735,
      "نزدیک": 1736,
      "سای": 1737,
      "برابر": 1738,
      "داخ": 1739,
      "چهار": 1740,
      "ثال": 1741,
      "نوی": 1742,
      "کلی": 1743,
      "##شی": 1744,
      "##ایط": 1745,
      "شرایط": 1746,
      "تبد": 1747,
      "پشت": 1748,
      "رسید": 1749,
      "گذاری": 1750,
      "سلام": 1751,
      "همر": 1752,
      "همراه": 1753,
      "تبدیل": 1754,
      "گزارش": 1755,
      "##وس": 1756,
      "صف": 1757,
      "سف": 1758,
      "رای": 1759,
      "مل": 1760,
      "مخ": 1761,
      "##افی": 1762,
      "دیریت": 1763,
      "تحت": 1764,
      "هزار": 1765,
      "رخ": 1766,
      "##گان": 1767,
      "گوید": 1768,
      "گذار": 1769,
      "عمل": 1770,
      "پایان": 1771,
      "بع": 1772,
      "نتیجه": 1773,
      "##ظه": 1774,
      "ترکی": 1775,
      "پنج": 1776,
      "آغ": 1777,
      "دسترس": 1778,
      "دوره": 1779,
      "خاطر": 1780,
      "یر": 1781,
      "حل": 1782,
      "رات": 1783,
      "##هنگ": 1784,
      "چون": 1785,
      "بلکه": 1786,
      "آر": 1787,
      "شدند": 1788,
      "کاربر": 1789,
      "تک": 1790,
      "داریم": 1791,
      "صحبت": 1792,
      "##وند": 1793,
      "اجازه": 1794,
      "پذیر": 1795,
      "##ضای": 1796,
      "مواد": 1797,
      "اغ": 1798,
      "شاید": 1799,
      "دنیا": 1800,
      "پزش": 1801,
      "##وز": 1802,
      "تعد": 1803,
      "قا": 1804,
      "فا": 1805,
      "##یب": 1806,
      "قد": 1807,
      "پول": 1808,
      "صن": 1809,
      "کمی": 1810,
      "بیمار": 1811,
      "##سم": 1812,
      "تعداد": 1813,
      "کردم": 1814,
      "فع": 1815,
      "یماری": 1816,
      "شناخت": 1817,
      "وض": 1818,
      "شکل": 1819,
      "عمولا": 1820,
      "نقل": 1821,
      "آغاز": 1822,
      "تق": 1823,
      "##وار": 1824,
      "مشت": 1825,
      "##مه": 1826,
      "دلار": 1827,
      "جمله": 1828,
      "مثل": 1829,
      "##لاح": 1830,
      "راب": 1831,
      "طرف": 1832,
      "دخ": 1833,
      "بند": 1834,
      "##مد": 1835,
      "آسی": 1836,
      "##یط": 1837,
      "شوید": 1838,
      "نگاه": 1839,
      "الات": 1840,
      "##یه": 1841,
      "بت": 1842,
      "رسد": 1843,
      "نظام": 1844,
      "طب": 1845,
      "##لای": 1846,
      "##رم": 1847,
      "واقعی": 1848,
      "##ابت": 1849,
      "هستید": 1850,
      "اتی": 1851,
      "آخر": 1852,
      "تحده": 1853,
      "صفح": 1854,
      "##ودی": 1855,
      "##شار": 1856,
      "خاص": 1857,
      "یعنی": 1858,
      "اض": 1859,
      "بح": 1860,
      "صد": 1861,
      "مناسب": 1862,
      "##اند": 1863,
      "اغلب": 1864,
      "واقعا": 1865,
      "مقد": 1866,
      "انر": 1867,
      "گیرد": 1868,
      "##بوط": 1869,
      "خواب": 1870,
      "نب": 1871,
      "خدمات": 1872,
      "رب": 1873,
      "امن": 1874,
      "رفتار": 1875,
      "خط": 1876,
      "##مایت": 1877,
      "حمایت": 1878,
      "مربوط": 1879,
      "##هور": 1880,
      "قیم": 1881,
      "اکن": 1882,
      "خون": 1883,
      "##in": 1884,
      "مدر": 1885,
      "زد": 1886,
      "سب": 1887,
      "##شق": 1888,
      "جان": 1889,
      "ابت": 1890,
      "طالعه": 1891,
      "##al": 1892,
      "بان": 1893,
      "لاز": 1894,
      "البت": 1895,
      "لازم": 1896,
      "داست": 1897,
      "کسانی": 1898,
      "البته": 1899,
      "عل": 1900,
      "تیم": 1901,
      "نگه": 1902,
      "پروژه": 1903,
      "انرژی": 1904,
      "زمینه": 1905,
      "عب": 1906,
      "مشخص": 1907,
      "قیمت": 1908,
      "زمایش": 1909,
      "سفر": 1910,
      "خرید": 1911,
      "ون": 1912,
      "شبکه": 1913,
      "نمایش": 1914,
      "راح": 1915,
      "واهد": 1916,
      "کمتر": 1917,
      "گیری": 1918,
      "اقتص": 1919,
      "اقتصا": 1920,
      "منظ": 1921,
      "##صر": 1922,
      "اعلام": 1923,
      "حم": 1924,
      "##اط": 1925,
      "آنجا": 1926,
      "لح": 1927,
      "اینجا": 1928,
      "رداخت": 1929,
      "جوی": 1930,
      "روسی": 1931,
      "مف": 1932,
      "موجود": 1933,
      "سیاست": 1934,
      "قری": 1935,
      "اکنون": 1936,
      "##ئیس": 1937,
      "بده": 1938,
      "##الب": 1939,
      "عکس": 1940,
      "تاثیر": 1941,
      "نهاد": 1942,
      "کافی": 1943,
      "ضر": 1944,
      "th": 1945,
      "رنگ": 1946,
      "سپس": 1947,
      "##عا": 1948,
      "واهیم": 1949,
      "پار": 1950,
      "توصی": 1951,
      "سایر": 1952,
      "ایده": 1953,
      "كه": 1954,
      "کنار": 1955,
      "تمرکز": 1956,
      "سریع": 1957,
      "##ته": 1958,
      "فرهنگ": 1959,
      "##ئن": 1960,
      "دوم": 1961,
      "##es": 1962,
      "نداشت": 1963,
      "سیاسی": 1964,
      "درک": 1965,
      "##ظا": 1966,
      "##راف": 1967,
      "انتظا": 1968,
      "لب": 1969,
      "داشتن": 1970,
      "وفق": 1971,
      "یشر": 1972,
      "قریبا": 1973,
      "انگل": 1974,
      "اقدام": 1975,
      "نقش": 1976,
      "##دی": 1977,
      "مالی": 1978,
      "طبیعی": 1979,
      "جامعه": 1980,
      "##تری": 1981,
      "شناس": 1982,
      "درد": 1983,
      "بهبود": 1984,
      "اساس": 1985,
      "آش": 1986,
      "خصوص": 1987,
      "یشرفت": 1988,
      "چنان": 1989,
      "نویس": 1990,
      "نگر": 1991,
      "مرگ": 1992,
      "هرگز": 1993,
      "روند": 1994,
      "ساخته": 1995,
      "تکن": 1996,
      "دارم": 1997,
      "سخت": 1998,
      "دارو": 1999,
      "ویژه": 2000,
      "کنندگ": 2001,
      "ولو": 2002,
      "پرس": 2003,
      "حساب": 2004,
      "موارد": 2005,
      "بعضی": 2006,
      "حف": 2007,
      "##زند": 2008,
      "خورد": 2009,
      "ساده": 2010,
      "ول": 2011,
      "سرا": 2012,
      "امکان": 2013,
      "حدا": 2014,
      "حرکت": 2015,
      "مک": 2016,
      "وفقیت": 2017,
      "حداقل": 2018,
      "بودن": 2019,
      "فرزند": 2020,
      "سخ": 2021,
      "##خه": 2022,
      "یسی": 2023,
      "فرا": 2024,
      "سرعت": 2025,
      "تخ": 2026,
      "##کم": 2027,
      "مغ": 2028,
      "رابطه": 2029,
      "بگ": 2030,
      "چر": 2031,
      "یون": 2032,
      "صفحه": 2033,
      "یافته": 2034,
      "آمد": 2035,
      "روسیه": 2036,
      "##ic": 2037,
      "علیه": 2038,
      "دقیق": 2039,
      "فرم": 2040,
      "عمومی": 2041,
      "خطر": 2042,
      "دهیم": 2043,
      "st": 2044,
      "دیده": 2045,
      "##هم": 2046,
      "شخصی": 2047,
      "فرص": 2048,
      "وش": 2049,
      "حقوق": 2050,
      "##داشت": 2051,
      "تف": 2052,
      "طی": 2053,
      "10": 2054,
      "##من": 2055,
      "آماده": 2056,
      "حفظ": 2057,
      "چیزها": 2058,
      "##یمی": 2059,
      "علاوه": 2060,
      "ترام": 2061,
      "گاهی": 2062,
      "داوند": 2063,
      "##en": 2064,
      "##ابع": 2065,
      "##ئل": 2066,
      "مندان": 2067,
      "حاف": 2068,
      "##سال": 2069,
      "##اپ": 2070,
      "##ادا": 2071,
      "عو": 2072,
      "نبود": 2073,
      "ازگ": 2074,
      "نمای": 2075,
      "##لاق": 2076,
      "##ران": 2077,
      "بخشی": 2078,
      "##اق": 2079,
      "##at": 2080,
      "##اله": 2081,
      "ترس": 2082,
      "##کتر": 2083,
      "پیو": 2084,
      "رئیس": 2085,
      "آنان": 2086,
      "ارد": 2087,
      "صرف": 2088,
      "نیرو": 2089,
      "مکان": 2090,
      "رگ": 2091,
      "قادر": 2092,
      "میزان": 2093,
      "امید": 2094,
      "داری": 2095,
      "یش": 2096,
      "##هن": 2097,
      "وضعیت": 2098,
      "ابزار": 2099,
      "##آمد": 2100,
      "حرفه": 2101,
      "##ذار": 2102,
      "گویند": 2103,
      "سراسر": 2104,
      "شی": 2105,
      "دانید": 2106,
      "ابتدا": 2107,
      "غر": 2108,
      "ماش": 2109,
      "سوی": 2110,
      "غذایی": 2111,
      "پدر": 2112,
      "جمع": 2113,
      "##قات": 2114,
      "دختر": 2115,
      "آسیب": 2116,
      "وس": 2117,
      "خوش": 2118,
      "رت": 2119,
      "بیر": 2120,
      "خش": 2121,
      "باور": 2122,
      "نظامی": 2123,
      "##کت": 2124,
      "نگران": 2125,
      "نتای": 2126,
      "آزاد": 2127,
      "مسئول": 2128,
      "آید": 2129,
      "نتایج": 2130,
      "خارجی": 2131,
      "کیف": 2132,
      "##تان": 2133,
      "##ظیم": 2134,
      "زیبا": 2135,
      "co": 2136,
      "سنگ": 2137,
      "##اح": 2138,
      "شکست": 2139,
      "##ویر": 2140,
      "خبر": 2141,
      "ناس": 2142,
      "##افق": 2143,
      "ملک": 2144,
      "گران": 2145,
      "گیرند": 2146,
      "اشت": 2147,
      "پایین": 2148,
      "تس": 2149,
      "مادر": 2150,
      "اثر": 2151,
      "رود": 2152,
      "##کو": 2153,
      "زیاد": 2154,
      "آمده": 2155,
      "فشار": 2156,
      "تصویر": 2157,
      "حقیق": 2158,
      "اخیر": 2159,
      "حقیقت": 2160,
      "ترن": 2161,
      "بتوان": 2162,
      "حض": 2163,
      "ستق": 2164,
      "جایی": 2165,
      "کدام": 2166,
      "هستیم": 2167,
      "دهه": 2168,
      "ساله": 2169,
      "جل": 2170,
      "بندی": 2171,
      "بینی": 2172,
      "مقدار": 2173,
      "تریان": 2174,
      "ورزش": 2175,
      "کوت": 2176,
      "طولان": 2177,
      "حضور": 2178,
      "##ظت": 2179,
      "نمود": 2180,
      "شاهده": 2181,
      "جذ": 2182,
      "لس": 2183,
      "بیان": 2184,
      "تجاری": 2185,
      "فعال": 2186,
      "بست": 2187,
      "هنر": 2188,
      "بودم": 2189,
      "اهدا": 2190,
      "گردد": 2191,
      "##st": 2192,
      "مسیر": 2193,
      "##ندان": 2194,
      "بیا": 2195,
      "منتشر": 2196,
      "هوش": 2197,
      "نشده": 2198,
      "سعی": 2199,
      "##یره": 2200,
      "توانا": 2201,
      "##re": 2202,
      "##وریه": 2203,
      "رز": 2204,
      "امنیت": 2205,
      "مرتب": 2206,
      "مهارت": 2207,
      "مدل": 2208,
      "##وب": 2209,
      "نور": 2210,
      "پوست": 2211,
      "##ومت": 2212,
      "##میت": 2213,
      "رژ": 2214,
      "##ئو": 2215,
      "##امبر": 2216,
      "##ونت": 2217,
      "##گیری": 2218,
      "بچه": 2219,
      "اضاف": 2220,
      "محیط": 2221,
      "کوتاه": 2222,
      "عالی": 2223,
      "اي": 2224,
      "نباید": 2225,
      "##فی": 2226,
      "اضافه": 2227,
      "معنی": 2228,
      "غذا": 2229,
      "##مئن": 2230,
      "##ایید": 2231,
      "##لق": 2232,
      "وزن": 2233,
      "ne": 2234,
      "تمر": 2235,
      "لذ": 2236,
      "فرصت": 2237,
      "راست": 2238,
      "طرح": 2239,
      "بگذار": 2240,
      "مطمئن": 2241,
      "اسرائ": 2242,
      "منابع": 2243,
      "ایشان": 2244,
      "حالا": 2245,
      "روشن": 2246,
      "مرح": 2247,
      "مست": 2248,
      "نج": 2249,
      "بو": 2250,
      "راتژی": 2251,
      "زا": 2252,
      "##بری": 2253,
      "رسانه": 2254,
      "re": 2255,
      "مرکز": 2256,
      "الله": 2257,
      "انی": 2258,
      "اکثر": 2259,
      "الت": 2260,
      "مردان": 2261,
      "منظور": 2262,
      "سمت": 2263,
      "ارز": 2264,
      "نوشت": 2265,
      "ساب": 2266,
      "مبت": 2267,
      "قای": 2268,
      "قتص": 2269,
      "##لیس": 2270,
      "قتصاد": 2271,
      "اندار": 2272,
      "چیست": 2273,
      "##تا": 2274,
      "##ابط": 2275,
      "بعدی": 2276,
      "##جب": 2277,
      "جنسی": 2278,
      "##لح": 2279,
      "محد": 2280,
      "شار": 2281,
      "ثبت": 2282,
      "رند": 2283,
      "گذاشت": 2284,
      "یات": 2285,
      "موفق": 2286,
      "##ac": 2287,
      "نوشته": 2288,
      "اعتما": 2289,
      "محدود": 2290,
      "کلید": 2291,
      "متو": 2292,
      "زده": 2293,
      "##ro": 2294,
      "بیرون": 2295,
      "اشاره": 2296,
      "##قدر": 2297,
      "رم": 2298,
      "##انس": 2299,
      "ستقیم": 2300,
      "##یدار": 2301,
      "روابط": 2302,
      "##خصص": 2303,
      "جنو": 2304,
      "شغ": 2305,
      "##ئم": 2306,
      "اتح": 2307,
      "اپ": 2308,
      "پیر": 2309,
      "توصیه": 2310,
      "حمله": 2311,
      "قس": 2312,
      "ترج": 2313,
      "مرحله": 2314,
      "علاقه": 2315,
      "##oo": 2316,
      "هستم": 2317,
      "بسته": 2318,
      "ماشین": 2319,
      "۱۰": 2320,
      "تشک": 2321,
      "باقی": 2322,
      "##های": 2323,
      "ملکرد": 2324,
      "کلا": 2325,
      "##تو": 2326,
      "جهت": 2327,
      "ترکیب": 2328,
      "دقی": 2329,
      "##غان": 2330,
      "فراه": 2331,
      "یابد": 2332,
      "ودتان": 2333,
      "دقیقه": 2334,
      "آسان": 2335,
      "خودش": 2336,
      "وید": 2337,
      "یز": 2338,
      "فراهم": 2339,
      "افغان": 2340,
      "اتحاد": 2341,
      "متوجه": 2342,
      "کر": 2343,
      "پرد": 2344,
      "منجر": 2345,
      "داخلی": 2346,
      "آرام": 2347,
      "برگ": 2348,
      "##ریک": 2349,
      "هسته": 2350,
      "اهمیت": 2351,
      "گرفتن": 2352,
      "توافق": 2353,
      "صاح": 2354,
      "##ضیح": 2355,
      "آگاه": 2356,
      "توضیح": 2357,
      "the": 2358,
      "##میز": 2359,
      "دادند": 2360,
      "گزینه": 2361,
      "جمو": 2362,
      "مذ": 2363,
      "جموعه": 2364,
      "فل": 2365,
      "صنعت": 2366,
      "بلند": 2367,
      "نرم": 2368,
      "##طان": 2369,
      "تشکیل": 2370,
      "سرطان": 2371,
      "مب": 2372,
      "نکن": 2373,
      "لین": 2374,
      "سالم": 2375,
      "اهداف": 2376,
      "قسمت": 2377,
      "##شید": 2378,
      "اتاق": 2379,
      "تمرین": 2380,
      "اً": 2381,
      "شدید": 2382,
      "عشق": 2383,
      "اله": 2384,
      "مار": 2385,
      "تحص": 2386,
      "جمهور": 2387,
      "رف": 2388,
      "سلول": 2389,
      "کاملا": 2390,
      "آخرین": 2391,
      "الی": 2392,
      "تحصیل": 2393,
      "##ستر": 2394,
      "##خیص": 2395,
      "تشخیص": 2396,
      "درآمد": 2397,
      "قطع": 2398,
      "داخل": 2399,
      "دام": 2400,
      "تلف": 2401,
      "دانند": 2402,
      "نیا": 2403,
      "##تیا": 2404,
      "بانک": 2405,
      "##ra": 2406,
      "##اهر": 2407,
      "نص": 2408,
      "پاک": 2409,
      "باشیم": 2410,
      "موزان": 2411,
      "##یش": 2412,
      "##جو": 2413,
      "شناسی": 2414,
      "اخت": 2415,
      "اقعیت": 2416,
      "حالت": 2417,
      "بینید": 2418,
      "جریان": 2419,
      "محل": 2420,
      "شیر": 2421,
      "حو": 2422,
      "نقلاب": 2423,
      "##صله": 2424,
      "ti": 2425,
      "تون": 2426,
      "فاصله": 2427,
      "##لیغ": 2428,
      "تمامی": 2429,
      "تبلیغ": 2430,
      "گان": 2431,
      "رژیم": 2432,
      "پشتیب": 2433,
      "مشتری": 2434,
      "بشر": 2435,
      "فصل": 2436,
      "##تل": 2437,
      "بهره": 2438,
      "مدرسه": 2439,
      "یو": 2440,
      "نهایت": 2441,
      "آزادی": 2442,
      "درون": 2443,
      "امر": 2444,
      "انوا": 2445,
      "رهبر": 2446,
      "پرداز": 2447,
      "شتب": 2448,
      "شتباه": 2449,
      "افتاد": 2450,
      "##il": 2451,
      "کردیم": 2452,
      "قلب": 2453,
      "مسا": 2454,
      "اجرا": 2455,
      "دود": 2456,
      "معت": 2457,
      "ریزی": 2458,
      "ژن": 2459,
      "دهنده": 2460,
      "بحث": 2461,
      "وع": 2462,
      "پزشکی": 2463,
      "آلمان": 2464,
      "انواع": 2465,
      "تعی": 2466,
      "نادا": 2467,
      "تعیین": 2468,
      "سترده": 2469,
      "زندان": 2470,
      "an": 2471,
      "سوریه": 2472,
      "مرتبط": 2473,
      "واهم": 2474,
      "کنان": 2475,
      "گستر": 2476,
      "وسیقی": 2477,
      "دع": 2478,
      "سفید": 2479,
      "مغز": 2480,
      "کیفیت": 2481,
      "ترنت": 2482,
      "ریا": 2483,
      "رگزار": 2484,
      "مسائل": 2485,
      "دهم": 2486,
      "عرض": 2487,
      "تهدید": 2488,
      "جوان": 2489,
      "رست": 2490,
      "مسئله": 2491,
      "ولوژی": 2492,
      "##نوع": 2493,
      "مناط": 2494,
      "مناطق": 2495,
      "سلامت": 2496,
      "چندین": 2497,
      "دنی": 2498,
      "##گیز": 2499,
      "اطمین": 2500,
      "جدا": 2501,
      "##لاین": 2502,
      "نلاین": 2503,
      "##شن": 2504,
      "پیما": 2505,
      "انگیز": 2506,
      "شخصیت": 2507,
      "ارسال": 2508,
      "لذت": 2509,
      "جست": 2510,
      "رآ": 2511,
      "ویژ": 2512,
      "خصوصی": 2513,
      "دول": 2514,
      "on": 2515,
      "##ادل": 2516,
      "طبق": 2517,
      "##قال": 2518,
      "درو": 2519,
      "نتقال": 2520,
      "کشف": 2521,
      "ساختم": 2522,
      "##واج": 2523,
      "زدواج": 2524,
      "پیام": 2525,
      "زنده": 2526,
      "مقاله": 2527,
      "حی": 2528,
      "فت": 2529,
      "لوگیر": 2530,
      "زای": 2531,
      "نسخه": 2532,
      "روح": 2533,
      "اسا": 2534,
      "نمونه": 2535,
      "al": 2536,
      "سوال": 2537,
      "سخن": 2538,
      "کجا": 2539,
      "کنون": 2540,
      "پزشک": 2541,
      "اولیه": 2542,
      "گوش": 2543,
      "جویان": 2544,
      "ذهن": 2545,
      "##ou": 2546,
      "تحلیل": 2547,
      "محلی": 2548,
      "بگو": 2549,
      "فوق": 2550,
      "لیارد": 2551,
      "ویژگی": 2552,
      "دوران": 2553,
      "رانسه": 2554,
      "نکنید": 2555,
      "تی": 2556,
      "کان": 2557,
      "راق": 2558,
      "خور": 2559,
      "اختیا": 2560,
      "##یدن": 2561,
      "تلفن": 2562,
      "##راق": 2563,
      "اعضای": 2564,
      "عراق": 2565,
      "وقعیت": 2566,
      "قوی": 2567,
      "##it": 2568,
      "پیوتر": 2569,
      "شنو": 2570,
      "##حال": 2571,
      "آت": 2572,
      "تجارت": 2573,
      "عا": 2574,
      "مهوری": 2575,
      "تأثیر": 2576,
      "مثبت": 2577,
      "وظ": 2578,
      "سوم": 2579,
      "موا": 2580,
      "عامل": 2581,
      "معرف": 2582,
      "ذیر": 2583,
      "اسپ": 2584,
      "چال": 2585,
      "سرد": 2586,
      "گرم": 2587,
      "عضو": 2588,
      "قرن": 2589,
      "تماس": 2590,
      "سود": 2591,
      "نیم": 2592,
      "وال": 2593,
      "##سا": 2594,
      "عق": 2595,
      "راحت": 2596,
      "اور": 2597,
      "پل": 2598,
      "کره": 2599,
      "افزار": 2600,
      "le": 2601,
      "تصور": 2602,
      "##الت": 2603,
      "آتش": 2604,
      "شبی": 2605,
      "##هان": 2606,
      "ونی": 2607,
      "الاتر": 2608,
      "ترک": 2609,
      "مدیر": 2610,
      "گن": 2611,
      "گسترش": 2612,
      "اعم": 2613,
      "دریا": 2614,
      "دانم": 2615,
      "ترکیه": 2616,
      "متر": 2617,
      "بات": 2618,
      "##el": 2619,
      "ازی": 2620,
      "رفتن": 2621,
      "وانین": 2622,
      "دگاه": 2623,
      "##دم": 2624,
      "پسر": 2625,
      "یچ": 2626,
      "میک": 2627,
      "صلح": 2628,
      "##زا": 2629,
      "دفا": 2630,
      "قل": 2631,
      "دفاع": 2632,
      "راج": 2633,
      "شنبه": 2634,
      "جدی": 2635,
      "ازگشت": 2636,
      "پژ": 2637,
      "دانست": 2638,
      "##قای": 2639,
      "خودرو": 2640,
      "فهم": 2641,
      "خیر": 2642,
      "ریکا": 2643,
      "تازه": 2644,
      "صدا": 2645,
      "لند": 2646,
      "تنظیم": 2647,
      "نقطه": 2648,
      "##گل": 2649,
      "حیوان": 2650,
      "اوقات": 2651,
      "آقای": 2652,
      "ترامپ": 2653,
      "en": 2654,
      "رسیده": 2655,
      "جدیدی": 2656,
      "ورد": 2657,
      "عبارت": 2658,
      "آدم": 2659,
      "شبیه": 2660,
      "ro": 2661,
      "یور": 2662,
      "خودم": 2663,
      "متخصص": 2664,
      "علی": 2665,
      "ing": 2666,
      "زیست": 2667,
      "اث": 2668,
      "##بور": 2669,
      "##is": 2670,
      "وری": 2671,
      "##قت": 2672,
      "پوش": 2673,
      "چقدر": 2674,
      "شدت": 2675,
      "بارزه": 2676,
      "قصد": 2677,
      "تمای": 2678,
      "نشانه": 2679,
      "صب": 2680,
      "مجبور": 2681,
      "##نه": 2682,
      "نفس": 2683,
      "عف": 2684,
      "نبا": 2685,
      "مدار": 2686,
      "##حل": 2687,
      "اطراف": 2688,
      "دنیای": 2689,
      "دکتر": 2690,
      "رج": 2691,
      "##زب": 2692,
      "نفت": 2693,
      "##ستی": 2694,
      "دگیری": 2695,
      "##بار": 2696,
      "اعمال": 2697,
      "##as": 2698,
      "سازد": 2699,
      "##ابه": 2700,
      "کال": 2701,
      "مسی": 2702,
      "##یات": 2703,
      "مال": 2704,
      "قدیمی": 2705,
      "عص": 2706,
      "##ظر": 2707,
      "میر": 2708,
      "##ازی": 2709,
      "پژوه": 2710,
      "حزب": 2711,
      "یانه": 2712,
      "مقابل": 2713,
      "تری": 2714,
      "هداشت": 2715,
      "پست": 2716,
      "ریز": 2717,
      "معرفی": 2718,
      "رک": 2719,
      "گوگل": 2720,
      "مشترک": 2721,
      "وجه": 2722,
      "##یتی": 2723,
      "دستور": 2724,
      "چطور": 2725,
      "ایگاه": 2726,
      "جمعیت": 2727,
      "ورشید": 2728,
      "جستجو": 2729,
      "##آن": 2730,
      "تال": 2731,
      "عه": 2732,
      "آورده": 2733,
      "مفید": 2734,
      "##ستا": 2735,
      "موت": 2736,
      "ماند": 2737,
      "صبح": 2738,
      "گل": 2739,
      "سرو": 2740,
      "دانیم": 2741,
      "سیاه": 2742,
      "فضای": 2743,
      "بس": 2744,
      "لع": 2745,
      "رسیدن": 2746,
      "معم": 2747,
      "پژوهش": 2748,
      "of": 2749,
      "عمر": 2750,
      "بنی": 2751,
      "خت": 2752,
      "te": 2753,
      "موثر": 2754,
      "رامو": 2755,
      "ازدید": 2756,
      "داند": 2757,
      "لباس": 2758,
      "حک": 2759,
      "انطور": 2760,
      "##الع": 2761,
      "مطالع": 2762,
      "قایسه": 2763,
      "##am": 2764,
      "رقابت": 2765,
      "روم": 2766,
      "نکته": 2767,
      "##وط": 2768,
      "##اکر": 2769,
      "لط": 2770,
      "##چار": 2771,
      "راموش": 2772,
      "رفته": 2773,
      "رسمی": 2774,
      "دچار": 2775,
      "عدم": 2776,
      "همسر": 2777,
      "راحتی": 2778,
      "نیروی": 2779,
      "روان": 2780,
      "هند": 2781,
      "علمی": 2782,
      "اجر": 2783,
      "ربین": 2784,
      "خلا": 2785,
      "ایت": 2786,
      "فردی": 2787,
      "اختار": 2788,
      "دندان": 2789,
      "زود": 2790,
      "حاصل": 2791,
      "قام": 2792,
      "مؤ": 2793,
      "قرآن": 2794,
      "##انیه": 2795,
      "روب": 2796,
      "خاصی": 2797,
      "هفت": 2798,
      "##قان": 2799,
      "خن": 2800,
      "ضد": 2801,
      "ژاپ": 2802,
      "##راح": 2803,
      "رقر": 2804,
      "ژاپن": 2805,
      "رقرار": 2806,
      "ch": 2807,
      "امام": 2808,
      "ظاهر": 2809,
      "وح": 2810,
      "جایگز": 2811,
      "منیتی": 2812,
      "##ویز": 2813,
      "نر": 2814,
      "شناسا": 2815,
      "پایه": 2816,
      "اشترا": 2817,
      "توانم": 2818,
      "پرواز": 2819,
      "دش": 2820,
      "نح": 2821,
      "برو": 2822,
      "##لات": 2823,
      "راقبت": 2824,
      "شش": 2825,
      "راف": 2826,
      "ملیات": 2827,
      "موتور": 2828,
      "کلاس": 2829,
      "مای": 2830,
      "تلویز": 2831,
      "رنج": 2832,
      "افتد": 2833,
      "لام": 2834,
      "##گار": 2835,
      "واح": 2836,
      "بپ": 2837,
      "فضا": 2838,
      "مشابه": 2839,
      "##عهد": 2840,
      "دین": 2841,
      "مدا": 2842,
      "دیج": 2843,
      "نیو": 2844,
      "حققان": 2845,
      "دولتی": 2846,
      "کشت": 2847,
      "واکن": 2848,
      "عرب": 2849,
      "دمو": 2850,
      "سبک": 2851,
      "منب": 2852,
      "واکنش": 2853,
      "خوردن": 2854,
      "##ri": 2855,
      "وسیله": 2856,
      "جالب": 2857,
      "##ریف": 2858,
      "منبع": 2859,
      "یزی": 2860,
      "20": 2861,
      "حکومت": 2862,
      "علائم": 2863,
      "تعریف": 2864,
      "بمان": 2865,
      "ارم": 2866,
      "درجه": 2867,
      "de": 2868,
      "عمی": 2869,
      "عمیق": 2870,
      "علت": 2871,
      "وزیر": 2872,
      "ماهی": 2873,
      "ودشان": 2874,
      "رتی": 2875,
      "دیجیت": 2876,
      "ابر": 2877,
      "کیل": 2878,
      "یب": 2879,
      "اسی": 2880,
      "ذخ": 2881,
      "مانده": 2882,
      "حذ": 2883,
      "تکر": 2884,
      "مبتلا": 2885,
      "لیست": 2886,
      "ضروری": 2887,
      "##ریم": 2888,
      "##ch": 2889,
      "هدایت": 2890,
      "دموکر": 2891,
      "لحظه": 2892,
      "حمل": 2893,
      "گون": 2894,
      "ائ": 2895,
      "سلامی": 2896,
      "شت": 2897,
      "##ay": 2898,
      "رشته": 2899,
      "ینگ": 2900,
      "متوس": 2901,
      "متوسط": 2902,
      "ندگان": 2903,
      "دشوار": 2904,
      "ستین": 2905,
      "بزر": 2906,
      "پلیس": 2907,
      "اگرچه": 2908,
      "بزرگی": 2909,
      "تکرار": 2910,
      "مطر": 2911,
      "##اها": 2912,
      "امور": 2913,
      "مطرح": 2914,
      "مواجه": 2915,
      "مانی": 2916,
      "حذف": 2917,
      "ثابت": 2918,
      "عاشق": 2919,
      "موجب": 2920,
      "اصلاح": 2921,
      "افزود": 2922,
      "نکرده": 2923,
      "شمالی": 2924,
      "se": 2925,
      "کلمه": 2926,
      "حافظت": 2927,
      "چالش": 2928,
      "##روت": 2929,
      "رساند": 2930,
      "سک": 2931,
      "کارت": 2932,
      "گردان": 2933,
      "جذب": 2934,
      "نما": 2935,
      "معنا": 2936,
      "##ابق": 2937,
      "محت": 2938,
      "ورود": 2939,
      "مدرن": 2940,
      "##بات": 2941,
      "الد": 2942,
      "درگیر": 2943,
      "زرگ": 2944,
      "##خش": 2945,
      "##ریه": 2946,
      "نجات": 2947,
      "ترو": 2948,
      "ثروت": 2949,
      "دانلو": 2950,
      "##ol": 2951,
      "استان": 2952,
      "آمیز": 2953,
      "##کید": 2954,
      "حوزه": 2955,
      "بیت": 2956,
      "اساسی": 2957,
      "##جم": 2958,
      "اردار": 2959,
      "واحد": 2960,
      "بگی": 2961,
      "الگو": 2962,
      "ma": 2963,
      "عوامل": 2964,
      "ذکر": 2965,
      "زل": 2966,
      "##یتا": 2967,
      "واسته": 2968,
      "داران": 2969,
      "موزش": 2970,
      "ماده": 2971,
      "تحد": 2972,
      "تلاف": 2973,
      "باد": 2974,
      "ریدار": 2975,
      "ویر": 2976,
      "ناب": 2977,
      "ارتش": 2978,
      "درس": 2979,
      "اتیک": 2980,
      "معمول": 2981,
      "##الف": 2982,
      "خانم": 2983,
      "داشتم": 2984,
      "اجرای": 2985,
      "خلق": 2986,
      "واندن": 2987,
      "سابقه": 2988,
      "گرا": 2989,
      "هیز": 2990,
      "مخالف": 2991,
      "30": 2992,
      "ستاره": 2993,
      "موزشی": 2994,
      "فایل": 2995,
      "اویر": 2996,
      "نشین": 2997,
      "ناک": 2998,
      "منتظر": 2999,
      "یگان": 3000,
      "اری": 3001,
      "حتو": 3002,
      "بگیرد": 3003,
      "حتوای": 3004,
      "برس": 3005,
      "کی": 3006,
      "آس": 3007,
      "اون": 3008,
      "معن": 3009,
      "تاب": 3010,
      "یچیده": 3011,
      "شه": 3012,
      "واره": 3013,
      "دیدن": 3014,
      "شغل": 3015,
      "معنای": 3016,
      "راهی": 3017,
      "اپل": 3018,
      "هاست": 3019,
      "##لیت": 3020,
      "شیم": 3021,
      "دری": 3022,
      "گذشت": 3023,
      "ناوری": 3024,
      "رض": 3025,
      "شیوه": 3026,
      "قبلی": 3027,
      "بحران": 3028,
      "گویید": 3029,
      "بله": 3030,
      "آنکه": 3031,
      "صدای": 3032,
      "##شا": 3033,
      "الدین": 3034,
      "کشته": 3035,
      "شدم": 3036,
      "کلیدی": 3037,
      "خشونت": 3038,
      "رتیب": 3039,
      "گام": 3040,
      "جواب": 3041,
      "مین": 3042,
      "اینها": 3043,
      "بریتا": 3044,
      "تام": 3045,
      "رهبری": 3046,
      "مگر": 3047,
      "قبلا": 3048,
      "خدمت": 3049,
      "مرک": 3050,
      "منح": 3051,
      "بالای": 3052,
      "شویم": 3053,
      "دلایل": 3054,
      "فریق": 3055,
      "لمان": 3056,
      "it": 3057,
      "تست": 3058,
      "تالیا": 3059,
      "دقیقا": 3060,
      "گفتند": 3061,
      "ادر": 3062,
      "متوق": 3063,
      "##بوب": 3064,
      "اسلام": 3065,
      "جنوبی": 3066,
      "انیا": 3067,
      "فریقا": 3068,
      "متوقف": 3069,
      "##لیا": 3070,
      "نسل": 3071,
      "قامات": 3072,
      "فرض": 3073,
      "عتب": 3074,
      "عتبار": 3075,
      "استرس": 3076,
      "پارک": 3077,
      "فار": 3078,
      "ظرف": 3079,
      "##ندس": 3080,
      "ساد": 3081,
      "ایمیل": 3082,
      "قه": 3083,
      "##یند": 3084,
      "at": 3085,
      "شارکت": 3086,
      "el": 3087,
      "مهندس": 3088,
      "حفا": 3089,
      "قبول": 3090,
      "رآیند": 3091,
      "سرویس": 3092,
      "##سب": 3093,
      "وشحال": 3094,
      "##us": 3095,
      "شماره": 3096,
      "بردار": 3097,
      "ذخیره": 3098,
      "ئی": 3099,
      "تض": 3100,
      "ویت": 3101,
      "علم": 3102,
      "وزار": 3103,
      "##زو": 3104,
      "ریس": 3105,
      "گذر": 3106,
      "باشم": 3107,
      "آوردن": 3108,
      "محبوب": 3109,
      "ناشی": 3110,
      "اعتقا": 3111,
      "وزارت": 3112,
      "ریم": 3113,
      "منفی": 3114,
      "رتبه": 3115,
      "##ایع": 3116,
      "مهمی": 3117,
      "اکت": 3118,
      "تمایل": 3119,
      "##ویت": 3120,
      "الع": 3121,
      "sh": 3122,
      "یشان": 3123,
      "to": 3124,
      "##ایست": 3125,
      "هوایی": 3126,
      "رالیا": 3127,
      "املا": 3128,
      "رور": 3129,
      "عرضه": 3130,
      "سق": 3131,
      "نماید": 3132,
      "بک": 3133,
      "زم": 3134,
      "یدن": 3135,
      "##جان": 3136,
      "سلاح": 3137,
      "tion": 3138,
      "کف": 3139,
      "کلمات": 3140,
      "تین": 3141,
      "كن": 3142,
      "دودیت": 3143,
      "مي": 3144,
      "موش": 3145,
      "اسم": 3146,
      "سون": 3147,
      "برخ": 3148,
      "تد": 3149,
      "##ad": 3150,
      "تقویت": 3151,
      "زدن": 3152,
      "com": 3153,
      "نرخ": 3154,
      "رح": 3155,
      "کشتی": 3156,
      "دروغ": 3157,
      "آفر": 3158,
      "ضعی": 3159,
      "شمار": 3160,
      "ضعیف": 3161,
      "##اص": 3162,
      "##ce": 3163,
      "اصلا": 3164,
      "پوشش": 3165,
      "اخلاق": 3166,
      "اين": 3167,
      "الیات": 3168,
      "کنی": 3169,
      "ابلیت": 3170,
      "نصب": 3171,
      "شگ": 3172,
      "معر": 3173,
      "روزی": 3174,
      "عام": 3175,
      "یند": 3176,
      "ارشد": 3177,
      "نهایی": 3178,
      "رها": 3179,
      "لول": 3180,
      "مشغ": 3181,
      "##id": 3182,
      "بستگی": 3183,
      "وار": 3184,
      "یابان": 3185,
      "تهیه": 3186,
      "سفار": 3187,
      "معرض": 3188,
      "15": 3189,
      "پدید": 3190,
      "املاً": 3191,
      "12": 3192,
      "زو": 3193,
      "هتل": 3194,
      "اظه": 3195,
      "اظهار": 3196,
      "لای": 3197,
      "##افر": 3198,
      "مسافر": 3199,
      "متح": 3200,
      "##شدار": 3201,
      "هشدار": 3202,
      "وم": 3203,
      "ادش": 3204,
      "or": 3205,
      "مور": 3206,
      "میش": 3207,
      "li": 3208,
      "نظارت": 3209,
      "مستقل": 3210,
      "me": 3211,
      "##le": 3212,
      "یسم": 3213,
      "تصاص": 3214,
      "شاور": 3215,
      "سگ": 3216,
      "نوشتن": 3217,
      "توی": 3218,
      "آفرین": 3219,
      "##سیم": 3220,
      "دسته": 3221,
      "صاحب": 3222,
      "ادعا": 3223,
      "قدم": 3224,
      "برسد": 3225,
      "وانان": 3226,
      "له": 3227,
      "تلال": 3228,
      "یزیکی": 3229,
      "مثلا": 3230,
      "خلاق": 3231,
      "عین": 3232,
      "گفتم": 3233,
      "آگاهی": 3234,
      "شگفت": 3235,
      "۲۰": 3236,
      "عوض": 3237,
      "میشود": 3238,
      "##لاگ": 3239,
      "سالگی": 3240,
      "ملل": 3241,
      "50": 3242,
      "جلو": 3243,
      "##ونگ": 3244,
      "صند": 3245,
      "برادر": 3246,
      "اهل": 3247,
      "تقسیم": 3248,
      "وعده": 3249,
      "منحصر": 3250,
      "رده": 3251,
      "چینی": 3252,
      "اداره": 3253,
      "حافظه": 3254,
      "عج": 3255,
      "مرکزی": 3256,
      "##آوری": 3257,
      "فیس": 3258,
      "خاک": 3259,
      "ودمان": 3260,
      "حاکم": 3261,
      "آسمان": 3262,
      "اقام": 3263,
      "حفاظت": 3264,
      "نند": 3265,
      "الان": 3266,
      "رغ": 3267,
      "##ریب": 3268,
      "غربی": 3269,
      "اقامت": 3270,
      "##سات": 3271,
      "چاپ": 3272,
      "نتشار": 3273,
      "مناف": 3274,
      "فن": 3275,
      "یست": 3276,
      "فرانس": 3277,
      "گناه": 3278,
      "محتوا": 3279,
      "مشغول": 3280,
      "##ot": 3281,
      "انتقا": 3282,
      "میکند": 3283,
      "یگ": 3284,
      "انده": 3285,
      "زئ": 3286,
      "پیوند": 3287,
      "بیاور": 3288,
      "گوشی": 3289,
      "##فتر": 3290,
      "آسیا": 3291,
      "##زای": 3292,
      "قربان": 3293,
      "##لفی": 3294,
      "ختلفی": 3295,
      "تایید": 3296,
      "اتم": 3297,
      "لامتی": 3298,
      "دفتر": 3299,
      "خواند": 3300,
      "نع": 3301,
      "یرو": 3302,
      "شهرها": 3303,
      "ببر": 3304,
      "جویی": 3305,
      "علوم": 3306,
      "طلا": 3307,
      "##اظ": 3308,
      "اصل": 3309,
      "لحاظ": 3310,
      "دف": 3311,
      "##ow": 3312,
      "غرب": 3313,
      "عادی": 3314,
      "ایمان": 3315,
      "کری": 3316,
      "مذه": 3317,
      "خرو": 3318,
      "##ve": 3319,
      "راغ": 3320,
      "ذیرفت": 3321,
      "ژو": 3322,
      "موس": 3323,
      "تفکر": 3324,
      "دقت": 3325,
      "عاد": 3326,
      "صنع": 3327,
      "کیلو": 3328,
      "ندر": 3329,
      "مطلب": 3330,
      "##قد": 3331,
      "الکتر": 3332,
      "سوخت": 3333,
      "منافع": 3334,
      "سبز": 3335,
      "بوک": 3336,
      "نباشد": 3337,
      "یکه": 3338,
      "هشت": 3339,
      "تحریم": 3340,
      "تولد": 3341,
      "جراحی": 3342,
      "دارا": 3343,
      "رخورد": 3344,
      "##ia": 3345,
      "بینیم": 3346,
      "اژ": 3347,
      "پیاده": 3348,
      "تضمین": 3349,
      "sp": 3350,
      "انوی": 3351,
      "طبقه": 3352,
      "قاب": 3353,
      "مپ": 3354,
      "استاد": 3355,
      "هایش": 3356,
      "بقی": 3357,
      "هل": 3358,
      "یده": 3359,
      "عهده": 3360,
      "ar": 3361,
      "یف": 3362,
      "نحوه": 3363,
      "تیک": 3364,
      "خوان": 3365,
      "معتقد": 3366,
      "رار": 3367,
      "كرد": 3368,
      "##سو": 3369,
      "##وده": 3370,
      "نگهدا": 3371,
      "عت": 3372,
      "متن": 3373,
      "فعلی": 3374,
      "شیمیا": 3375,
      "هاجر": 3376,
      "روغ": 3377,
      "ینه": 3378,
      "مسیح": 3379,
      "چرخه": 3380,
      "لعاده": 3381,
      "عربست": 3382,
      "تز": 3383,
      "نخست": 3384,
      "صنعتی": 3385,
      "بودجه": 3386,
      "خلاص": 3387,
      "قهوه": 3388,
      "هاجرت": 3389,
      "شع": 3390,
      "وند": 3391,
      "جنب": 3392,
      "رین": 3393,
      "طوری": 3394,
      "##زیک": 3395,
      "فرمود": 3396,
      "دیوار": 3397,
      "عادت": 3398,
      "چگونگ": 3399,
      "ادشاه": 3400,
      "میخ": 3401,
      "قی": 3402,
      "شمال": 3403,
      "تکنیک": 3404,
      "نین": 3405,
      "برق": 3406,
      "آموز": 3407,
      "جذاب": 3408,
      "نابود": 3409,
      "##زم": 3410,
      "آشکار": 3411,
      "##برد": 3412,
      "ریح": 3413,
      "دیدار": 3414,
      "رداشت": 3415,
      "باب": 3416,
      "امیدو": 3417,
      "گاز": 3418,
      "چهارم": 3419,
      "وام": 3420,
      "اره": 3421,
      "ایدار": 3422,
      "ضا": 3423,
      "بستان": 3424,
      "صاحبه": 3425,
      "کوه": 3426,
      "آشنا": 3427,
      "سین": 3428,
      "مید": 3429,
      "پرسش": 3430,
      "عجیب": 3431,
      "آیند": 3432,
      "رع": 3433,
      "عی": 3434,
      "تعهد": 3435,
      "##هوم": 3436,
      "اسک": 3437,
      "یهودی": 3438,
      "مفهوم": 3439,
      "توصیف": 3440,
      "##me": 3441,
      "رافیک": 3442,
      "زهای": 3443,
      "##زاد": 3444,
      "امپ": 3445,
      "عقب": 3446,
      "کد": 3447,
      "الق": 3448,
      "یرانی": 3449,
      "بلا": 3450,
      "منتقل": 3451,
      "جلسه": 3452,
      "ترجمه": 3453,
      "خروج": 3454,
      "##نان": 3455,
      "لاک": 3456,
      "بدهید": 3457,
      "وف": 3458,
      "##یح": 3459,
      "##مون": 3460,
      "نوزاد": 3461,
      "شاهد": 3462,
      "رحم": 3463,
      "روغن": 3464,
      "بودیم": 3465,
      "آمار": 3466,
      "طبیعت": 3467,
      "قطعا": 3468,
      "کارها": 3469,
      "وبلاگ": 3470,
      "ph": 3471,
      "سؤ": 3472,
      "##ضل": 3473,
      "نوعی": 3474,
      "تامین": 3475,
      "یخ": 3476,
      "وانند": 3477,
      "خشک": 3478,
      "ترجیح": 3479,
      "حملات": 3480,
      "نمایی": 3481,
      "نگی": 3482,
      "۳۰": 3483,
      "بدی": 3484,
      "گروهی": 3485,
      "برخور": 3486,
      "un": 3487,
      "اوا": 3488,
      "##ناک": 3489,
      "تعط": 3490,
      "متحان": 3491,
      "بدست": 3492,
      "صحنه": 3493,
      "مایل": 3494,
      "##روف": 3495,
      "بینند": 3496,
      "عفونت": 3497,
      "خویش": 3498,
      "اندو": 3499,
      "جزیره": 3500,
      "بردن": 3501,
      "##میل": 3502,
      "مقام": 3503,
      "ایمنی": 3504,
      "رایند": 3505,
      "ناسان": 3506,
      "جنوب": 3507,
      "زرگتر": 3508,
      "تعطیل": 3509,
      "جایزه": 3510,
      "بقیه": 3511,
      "بنا": 3512,
      "امضا": 3513,
      "رایش": 3514,
      "رمان": 3515,
      "مون": 3516,
      "ماس": 3517,
      "هیجان": 3518,
      "اعد": 3519,
      "دعوت": 3520,
      "طرناک": 3521,
      "مسلم": 3522,
      "فهمید": 3523,
      "حضر": 3524,
      "##ut": 3525,
      "ed": 3526,
      "ملت": 3527,
      "نقاط": 3528,
      "وانید": 3529,
      "عبور": 3530,
      "##مز": 3531,
      "ویتام": 3532,
      "ویروس": 3533,
      "اوایل": 3534,
      "رادی": 3535,
      "عدادی": 3536,
      "آگ": 3537,
      "##طین": 3538,
      "قاومت": 3539,
      "##ma": 3540,
      "کردید": 3541,
      "لینک": 3542,
      "متصل": 3543,
      "کانال": 3544,
      "##یو": 3545,
      "لاقات": 3546,
      "عودی": 3547,
      "قول": 3548,
      "یپ": 3549,
      "درستی": 3550,
      "یورک": 3551,
      "دس": 3552,
      "طات": 3553,
      "##قق": 3554,
      "گردید": 3555,
      "دیران": 3556,
      "تکمیل": 3557,
      "لسطین": 3558,
      "تئ": 3559,
      "ستم": 3560,
      "الهی": 3561,
      "تحمل": 3562,
      "اصول": 3563,
      "یافتن": 3564,
      "آزمون": 3565,
      "ازیگر": 3566,
      "برنده": 3567,
      "تشوی": 3568,
      "نیمه": 3569,
      "na": 3570,
      "وتب": 3571,
      "قرمز": 3572,
      "مهمتر": 3573,
      "وضع": 3574,
      "and": 3575,
      "شهری": 3576,
      "وتبال": 3577,
      "شانس": 3578,
      "رمز": 3579,
      "زئیات": 3580,
      "دب": 3581,
      "همکار": 3582,
      "دهان": 3583,
      "ندار": 3584,
      "معروف": 3585,
      "##شمن": 3586,
      "وظیف": 3587,
      "خنران": 3588,
      "دشمن": 3589,
      "شکن": 3590,
      "نژ": 3591,
      "##طب": 3592,
      "مخا": 3593,
      "موزه": 3594,
      "مرز": 3595,
      "رزمین": 3596,
      "وجهی": 3597,
      "بکش": 3598,
      "مخاطب": 3599,
      "##os": 3600,
      "انش": 3601,
      "عملی": 3602,
      "حساس": 3603,
      "زودی": 3604,
      "کلیسا": 3605,
      "تناب": 3606,
      "تشویق": 3607,
      "وین": 3608,
      "برده": 3609,
      "کارگر": 3610,
      "متع": 3611,
      "بطور": 3612,
      "عنا": 3613,
      "فرار": 3614,
      "یلادی": 3615,
      "باغ": 3616,
      "اتوم": 3617,
      "سایه": 3618,
      "هیزات": 3619,
      "for": 3620,
      "امیده": 3621,
      "بزن": 3622,
      "نتوان": 3623,
      "زایای": 3624,
      "چپ": 3625,
      "##مب": 3626,
      "ویدئو": 3627,
      "##pp": 3628,
      "پنهان": 3629,
      "انند": 3630,
      "تعامل": 3631,
      "نظریه": 3632,
      "انجمن": 3633,
      "یروزی": 3634,
      "بروز": 3635,
      "جنبش": 3636,
      "بروید": 3637,
      "عضل": 3638,
      "خواهی": 3639,
      "دهندگ": 3640,
      "سختی": 3641,
      "##دد": 3642,
      "تغذ": 3643,
      "فراتر": 3644,
      "pro": 3645,
      "وندان": 3646,
      "##اهد": 3647,
      "جنبه": 3648,
      "سلط": 3649,
      "وظیفه": 3650,
      "حکم": 3651,
      "مى": 3652,
      "اندن": 3653,
      "ایالت": 3654,
      "nt": 3655,
      "واس": 3656,
      "موق": 3657,
      "ریسک": 3658,
      "ثانیه": 3659,
      "خدای": 3660,
      "##تئ": 3661,
      "بهتری": 3662,
      "اتر": 3663,
      "زنند": 3664,
      "نگیزه": 3665,
      "حضرت": 3666,
      "زش": 3667,
      "صحی": 3668,
      "مانع": 3669,
      "ng": 3670,
      "بیدار": 3671,
      "پخش": 3672,
      "گفتگو": 3673,
      "تغذیه": 3674,
      "بیو": 3675,
      "کمپ": 3676,
      "is": 3677,
      "ic": 3678,
      "یکرد": 3679,
      "قابله": 3680,
      "##ضح": 3681,
      "واضح": 3682,
      "نکرد": 3683,
      "متی": 3684,
      "آرزو": 3685,
      "امسال": 3686,
      "سند": 3687,
      "یامبر": 3688,
      "تعادل": 3689,
      "اضافی": 3690,
      "دت": 3691,
      "داک": 3692,
      "مداوم": 3693,
      "واش": 3694,
      "بدان": 3695,
      "ممنوع": 3696,
      "حسین": 3697,
      "عظیم": 3698,
      "##چسب": 3699,
      "تامبر": 3700,
      "برچسب": 3701,
      "کارش": 3702,
      "شماست": 3703,
      "ad": 3704,
      "us": 3705,
      "فنی": 3706,
      "کشد": 3707,
      "مرور": 3708,
      "مقا": 3709,
      "بمب": 3710,
      "توزی": 3711,
      "ناپ": 3712,
      "مطالب": 3713,
      "نماز": 3714,
      "صحیح": 3715,
      "wor": 3716,
      "فض": 3717,
      "گفتن": 3718,
      "انویه": 3719,
      "mo": 3720,
      "رایی": 3721,
      "سیم": 3722,
      "تاکید": 3723,
      "چهره": 3724,
      "شغلی": 3725,
      "ra": 3726,
      "##گرم": 3727,
      "قلبی": 3728,
      "صاد": 3729,
      "سرگرم": 3730,
      "عداد": 3731,
      "آورند": 3732,
      "چربی": 3733,
      "پروتئ": 3734,
      "پیوست": 3735,
      "توزیع": 3736,
      "رط": 3737,
      "۱۵": 3738,
      "##تیک": 3739,
      "صادر": 3740,
      "هرمان": 3741,
      "عمولی": 3742,
      "سردگی": 3743,
      "سؤال": 3744,
      "ترا": 3745,
      "روستا": 3746,
      "بدهد": 3747,
      "خصوصا": 3748,
      "لز": 3749,
      "میوه": 3750,
      "لیم": 3751,
      "۵۰": 3752,
      "##ess": 3753,
      "نفو": 3754,
      "تور": 3755,
      "رسند": 3756,
      "پذیرش": 3757,
      "میدان": 3758,
      "داکثر": 3759,
      "يد": 3760,
      "تاسی": 3761,
      "جرم": 3762,
      "فدر": 3763,
      "##un": 3764,
      "##اهی": 3765,
      "خواهم": 3766,
      "nd": 3767,
      "##سف": 3768,
      "آث": 3769,
      "سیاره": 3770,
      "زنش": 3771,
      "سلمان": 3772,
      "گهان": 3773,
      "همچ": 3774,
      "مراحل": 3775,
      "مبل": 3776,
      "آثار": 3777,
      "راز": 3778,
      "شوم": 3779,
      "40": 3780,
      "حاد": 3781,
      "سنگین": 3782,
      "حیا": 3783,
      "زخ": 3784,
      "قت": 3785,
      "مجدد": 3786,
      "فی": 3787,
      "##ir": 3788,
      "ستج": 3789,
      "اشک": 3790,
      "بگویم": 3791,
      "یج": 3792,
      "داع": 3793,
      "همزم": 3794,
      "افکار": 3795,
      "فرمان": 3796,
      "متیاز": 3797,
      "نشست": 3798,
      "رضایت": 3799,
      "فارغ": 3800,
      "##زل": 3801,
      "خدام": 3802,
      "جع": 3803,
      "قتل": 3804,
      "یوم": 3805,
      "مطابق": 3806,
      "قاعد": 3807,
      "نیازی": 3808,
      "تخم": 3809,
      "رستاد": 3810,
      "قضا": 3811,
      "مها": 3812,
      "##گا": 3813,
      "محک": 3814,
      "صادق": 3815,
      "ستجوی": 3816,
      "آهنگ": 3817,
      "##چند": 3818,
      "هرچند": 3819,
      "بدین": 3820,
      "خاور": 3821,
      "مهاجر": 3822,
      "ستر": 3823,
      "بیمه": 3824,
      "سیگار": 3825,
      "نقا": 3826,
      "حاوی": 3827,
      "ــ": 3828,
      "نقشه": 3829,
      "لطفا": 3830,
      "رورش": 3831,
      "ارزان": 3832,
      "اندیش": 3833,
      "جاده": 3834,
      "ذاکر": 3835,
      "گین": 3836,
      "##سوب": 3837,
      "##زیه": 3838,
      "محسوب": 3839,
      "goo": 3840,
      "تهر": 3841,
      "دم": 3842,
      "دهی": 3843,
      "مجوز": 3844,
      "تهران": 3845,
      "be": 3846,
      "نفوذ": 3847,
      "وئ": 3848,
      "##ur": 3849,
      "ذاکره": 3850,
      "ac": 3851,
      "کده": 3852,
      "دهای": 3853,
      "تجزیه": 3854,
      "سور": 3855,
      "اتص": 3856,
      "سفارش": 3857,
      "گانه": 3858,
      "اتصال": 3859,
      "بهشت": 3860,
      "شورای": 3861,
      "یکسان": 3862,
      "بدتر": 3863,
      "کریس": 3864,
      "ge": 3865,
      "ریت": 3866,
      "ستون": 3867,
      "سهام": 3868,
      "وسیع": 3869,
      "تقد": 3870,
      "آبی": 3871,
      "گم": 3872,
      "سوء": 3873,
      "سابق": 3874,
      "bl": 3875,
      "شف": 3876,
      "اتو": 3877,
      "مساله": 3878,
      "محکوم": 3879,
      "زداشت": 3880,
      "راضی": 3881,
      "فرما": 3882,
      "عامله": 3883,
      "نژاد": 3884,
      "موقع": 3885,
      "25": 3886,
      "فهر": 3887,
      "sc": 3888,
      "طلاح": 3889,
      "کلیک": 3890,
      "کرب": 3891,
      "خلاصه": 3892,
      "فهرست": 3893,
      "صبر": 3894,
      "متعد": 3895,
      "بپرس": 3896,
      "تاسیس": 3897,
      "متعدد": 3898,
      "شوی": 3899,
      "دادها": 3900,
      "مصر": 3901,
      "بردی": 3902,
      "لندن": 3903,
      "موسسه": 3904,
      "رون": 3905,
      "ارتقا": 3906,
      "آهن": 3907,
      "طلب": 3908,
      "یتر": 3909,
      "واشنگ": 3910,
      "wi": 3911,
      "we": 3912,
      "ضع": 3913,
      "مبتنی": 3914,
      "ملا": 3915,
      "۱۲": 3916,
      "بینم": 3917,
      "موشک": 3918,
      "فضایی": 3919,
      "la": 3920,
      "درخت": 3921,
      "شنیده": 3922,
      "افتخا": 3923,
      "وه": 3924,
      "محمد": 3925,
      "عدالت": 3926,
      "##ent": 3927,
      "اثرات": 3928,
      "نندگی": 3929,
      "ip": 3930,
      "تمیز": 3931,
      "جشن": 3932,
      "کاف": 3933,
      "برند": 3934,
      "ریشه": 3935,
      "گیاه": 3936,
      "سطو": 3937,
      "میل": 3938,
      "ستگاه": 3939,
      "ساکن": 3940,
      "جر": 3941,
      "برمی": 3942,
      "گوشت": 3943,
      "مذاکر": 3944,
      "cl": 3945,
      "یض": 3946,
      "بیل": 3947,
      "تحول": 3948,
      "ساحل": 3949,
      "رنو": 3950,
      "زنی": 3951,
      "بال": 3952,
      "ساختن": 3953,
      "دیدم": 3954,
      "حرک": 3955,
      "هور": 3956,
      "گوییم": 3957,
      "مایید": 3958,
      "یس": 3959,
      "راساس": 3960,
      "بارها": 3961,
      "سقوط": 3962,
      "ببرید": 3963,
      "وپ": 3964,
      "##لس": 3965,
      "سنج": 3966,
      "جاد": 3967,
      "نیمی": 3968,
      "##اور": 3969,
      "کمبود": 3970,
      "رانسو": 3971,
      "لغ": 3972,
      "man": 3973,
      "مشهور": 3974,
      "هویت": 3975,
      "جانب": 3976,
      "##حص": 3977,
      "مشاور": 3978,
      "التحص": 3979,
      "کات": 3980,
      "اهیم": 3981,
      "سنت": 3982,
      "نبوده": 3983,
      "القوه": 3984,
      "ویا": 3985,
      "یك": 3986,
      "##ویس": 3987,
      "ri": 3988,
      "عرو": 3989,
      "ارچ": 3990,
      "ریف": 3991,
      "سازند": 3992,
      "تدری": 3993,
      "همچون": 3994,
      "تاز": 3995,
      "ذر": 3996,
      "زون": 3997,
      "ين": 3998,
      "شواهد": 3999,
      "اخیرا": 4000,
      "ماست": 4001,
      "کمتری": 4002,
      "سنتی": 4003,
      "60": 4004,
      "طیف": 4005,
      "پاری": 4006,
      "خانگی": 4007,
      "زس": 4008,
      "رش": 4009,
      "##ادار": 4010,
      "ستن": 4011,
      "دادم": 4012,
      "رستور": 4013,
      "اورزی": 4014,
      "زشکان": 4015,
      "11": 4016,
      "no": 4017,
      "##راض": 4018,
      "واژه": 4019,
      "ابسته": 4020,
      "بنویس": 4021,
      "پرسید": 4022,
      "زسازی": 4023,
      "ct": 4024,
      "ردش": 4025,
      "شاوره": 4026,
      "الانه": 4027,
      "یتان": 4028,
      "عماری": 4029,
      "ویدیو": 4030,
      "کث": 4031,
      "خورده": 4032,
      "والات": 4033,
      "رجسته": 4034,
      "عتراض": 4035,
      "ex": 4036,
      "##gl": 4037,
      "برتر": 4038,
      "##زیز": 4039,
      "ati": 4040,
      "مذهبی": 4041,
      "وبایل": 4042,
      "مایند": 4043,
      "تیر": 4044,
      "حجم": 4045,
      "مارس": 4046,
      "اکتبر": 4047,
      "دای": 4048,
      "عزیز": 4049,
      "تعجب": 4050,
      "انگشت": 4051,
      "نموده": 4052,
      "طع": 4053,
      "لود": 4054,
      "لاً": 4055,
      "وک": 4056,
      "مول": 4057,
      "سهم": 4058,
      "خاورم": 4059,
      "گشت": 4060,
      "گواهی": 4061,
      "عدد": 4062,
      "لمانی": 4063,
      "جاز": 4064,
      "هید": 4065,
      "مربی": 4066,
      "رادیو": 4067,
      "وکار": 4068,
      "خواهر": 4069,
      "گویم": 4070,
      "مکانی": 4071,
      "##ack": 4072,
      "ندارم": 4073,
      "##یید": 4074,
      "راوان": 4075,
      "di": 4076,
      "کب": 4077,
      "تأیید": 4078,
      "صفحات": 4079,
      "ردشگر": 4080,
      "##این": 4081,
      "مقدس": 4082,
      "بش": 4083,
      "مراسم": 4084,
      "قلال": 4085,
      "حیات": 4086,
      "رونده": 4087,
      "فلسف": 4088,
      "عیسی": 4089,
      "عناصر": 4090,
      "pl": 4091,
      "آزار": 4092,
      "ازه": 4093,
      "##موع": 4094,
      "مجموع": 4095,
      "ity": 4096,
      "آژ": 4097,
      "سالها": 4098,
      "مدتی": 4099,
      "لوله": 4100,
      "عصر": 4101,
      "جاری": 4102,
      "##oc": 4103,
      "فردا": 4104,
      "سینما": 4105,
      "سیل": 4106,
      "##ul": 4107,
      "مدارس": 4108,
      "خالی": 4109,
      "طراح": 4110,
      "ation": 4111,
      "شید": 4112,
      "##درس": 4113,
      "con": 4114,
      "سم": 4115,
      "هاي": 4116,
      "آدرس": 4117,
      "##ازش": 4118,
      "ایی": 4119,
      "معدن": 4120,
      "ردازش": 4121,
      "100": 4122,
      "مام": 4123,
      "ازنده": 4124,
      "کشید": 4125,
      "قاضی": 4126,
      "رید": 4127,
      "آژانس": 4128,
      "18": 4129,
      "شام": 4130,
      "قالب": 4131,
      "سوز": 4132,
      "مجلس": 4133,
      "سادگی": 4134,
      "شکر": 4135,
      "جنگل": 4136,
      "اثبات": 4137,
      "دمی": 4138,
      "لاف": 4139,
      "شوهر": 4140,
      "ابو": 4141,
      "سبب": 4142,
      "ولویت": 4143,
      "لن": 4144,
      "معتبر": 4145,
      "ذاه": 4146,
      "شریک": 4147,
      "##na": 4148,
      "سوئ": 4149,
      "زمینی": 4150,
      "تاریک": 4151,
      "ذاهای": 4152,
      "عید": 4153,
      "کتور": 4154,
      "روبرو": 4155,
      "دایی": 4156,
      "صنو": 4157,
      "##امب": 4158,
      "##...": 4159,
      "نسبتا": 4160,
      "دسامب": 4161,
      "صنوعی": 4162,
      "ابه": 4163,
      "قص": 4164,
      "منزل": 4165,
      "ماج": 4166,
      "et": 4167,
      "ازگار": 4168,
      "دگی": 4169,
      "انان": 4170,
      "وحشت": 4171,
      "سطوح": 4172,
      "hi": 4173,
      "##سن": 4174,
      "رسانی": 4175,
      "اشگاه": 4176,
      "قبال": 4177,
      "ازیکن": 4178,
      "نقاشی": 4179,
      "شیط": 4180,
      "ظهور": 4181,
      "##ثه": 4182,
      "لم": 4183,
      "گار": 4184,
      "ریستی": 4185,
      "مهمان": 4186,
      "نگلیس": 4187,
      "پاریس": 4188,
      "ion": 4189,
      "قلم": 4190,
      "یام": 4191,
      "##قب": 4192,
      "صدها": 4193,
      "دعا": 4194,
      "##مر": 4195,
      "نظیر": 4196,
      "کشوری": 4197,
      "googl": 4198,
      "بایست": 4199,
      "زب": 4200,
      "##um": 4201,
      "مجله": 4202,
      "شرقی": 4203,
      "راتور": 4204,
      "ادید": 4205,
      "عده": 4206,
      "##اک": 4207,
      "باما": 4208,
      "عمده": 4209,
      "اواخر": 4210,
      "نشد": 4211,
      "شفاف": 4212,
      "متاس": 4213,
      "مردی": 4214,
      "آرامش": 4215,
      "مود": 4216,
      "وامبر": 4217,
      "هات": 4218,
      "طالب": 4219,
      "پنجره": 4220,
      "پادا": 4221,
      "بیست": 4222,
      "ارک": 4223,
      "سرور": 4224,
      "وسایل": 4225,
      "پاداش": 4226,
      "دیابت": 4227,
      "##ولد": 4228,
      "ژوئن": 4229,
      "چای": 4230,
      "##آور": 4231,
      "فرست": 4232,
      "مدرک": 4233,
      "ماجرا": 4234,
      "امی": 4235,
      "خسته": 4236,
      "##پز": 4237,
      "درم": 4238,
      "سریال": 4239,
      "اردو": 4240,
      "آپ": 4241,
      "پیم": 4242,
      "میز": 4243,
      "سالان": 4244,
      "برگشت": 4245,
      "راجعه": 4246,
      "بزنید": 4247,
      "شیطان": 4248,
      "ادرات": 4249,
      "تشکر": 4250,
      "##art": 4251,
      "جادو": 4252,
      "حتما": 4253,
      "خشم": 4254,
      "مرده": 4255,
      "کوین": 4256,
      "ثبات": 4257,
      "حیط": 4258,
      "چندان": 4259,
      "منظم": 4260,
      "چرخ": 4261,
      "ظرفیت": 4262,
      "خب": 4263,
      "وای": 4264,
      "مشک": 4265,
      "عموم": 4266,
      "شرق": 4267,
      "نگاهی": 4268,
      "ونیکی": 4269,
      "خال": 4270,
      "##ge": 4271,
      "اوت": 4272,
      "واستم": 4273,
      "متولد": 4274,
      "كار": 4275,
      "آشپز": 4276,
      "جازات": 4277,
      "ماد": 4278,
      "استیک": 4279,
      "دیپ": 4280,
      "غنی": 4281,
      "نال": 4282,
      "یانیه": 4283,
      "متاسف": 4284,
      "[...": 4285,
      "دومین": 4286,
      "منطقی": 4287,
      "[...]": 4288,
      "ترد": 4289,
      "کپ": 4290,
      "سرش": 4291,
      "وانده": 4292,
      "چک": 4293,
      "هنری": 4294,
      "gh": 4295,
      "##ایف": 4296,
      "مکمل": 4297,
      "اکس": 4298,
      "مپانی": 4299,
      "ur": 4300,
      "جلب": 4301,
      "دي": 4302,
      "پیچ": 4303,
      "مندی": 4304,
      "##and": 4305,
      "ورزشی": 4306,
      "متعلق": 4307,
      "جور": 4308,
      "وشه": 4309,
      "مخفی": 4310,
      "زخم": 4311,
      "زاده": 4312,
      "یار": 4313,
      "هستی": 4314,
      "##ویل": 4315,
      "آموخت": 4316,
      "کمیته": 4317,
      "عصبی": 4318,
      "لایه": 4319,
      "ادیده": 4320,
      "زنج": 4321,
      "تماشا": 4322,
      "جاع": 4323,
      "ابتلا": 4324,
      "فو": 4325,
      "##کز": 4326,
      "رویدا": 4327,
      "مشکلی": 4328,
      "الم": 4329,
      "معلم": 4330,
      "تصاد": 4331,
      "انگار": 4332,
      "یدند": 4333,
      "##ویب": 4334,
      "ورم": 4335,
      "جنس": 4336,
      "صنایع": 4337,
      "تصادف": 4338,
      "ندگی": 4339,
      "تصویب": 4340,
      "جامع": 4341,
      "تکامل": 4342,
      "یونان": 4343,
      "موقت": 4344,
      "رسو": 4345,
      "وظایف": 4346,
      "انع": 4347,
      "ریاضی": 4348,
      "ناحی": 4349,
      "ورت": 4350,
      "نویسی": 4351,
      "خرد": 4352,
      "دمه": 4353,
      "کشیدن": 4354,
      "ورودی": 4355,
      "دبیر": 4356,
      "مبلغ": 4357,
      "انب": 4358,
      "سیون": 4359,
      "as": 4360,
      "الایی": 4361,
      "تغال": 4362,
      "خارجه": 4363,
      "بعدا": 4364,
      "قال": 4365,
      "##ap": 4366,
      "دیپلم": 4367,
      "نار": 4368,
      "بافت": 4369,
      "وقو": 4370,
      "بول": 4371,
      "اندا": 4372,
      "مراکز": 4373,
      "تردید": 4374,
      "روانی": 4375,
      "رغم": 4376,
      "هورمو": 4377,
      "ایع": 4378,
      "16": 4379,
      "تحویل": 4380,
      "پیشین": 4381,
      "اخبار": 4382,
      "شیدنی": 4383,
      "سان": 4384,
      "وست": 4385,
      "میده": 4386,
      "یمز": 4387,
      "ریاست": 4388,
      "لر": 4389,
      "گز": 4390,
      "##ue": 4391,
      "باتری": 4392,
      "مجاز": 4393,
      "زمست": 4394,
      "لزوم": 4395,
      "##لوم": 4396,
      "معلوم": 4397,
      "ماندن": 4398,
      "روزها": 4399,
      "العمل": 4400,
      "ec": 4401,
      "معی": 4402,
      "##all": 4403,
      "یگن": 4404,
      "اعدام": 4405,
      "ناحیه": 4406,
      "یح": 4407,
      "بگوید": 4408,
      "لان": 4409,
      "نقض": 4410,
      "گیرید": 4411,
      "غذای": 4412,
      "کفش": 4413,
      "ناه": 4414,
      "هاجم": 4415,
      "دائ": 4416,
      "رقم": 4417,
      "صاب": 4418,
      "یق": 4419,
      "نبرد": 4420,
      "تقا": 4421,
      "حر": 4422,
      "هیت": 4423,
      "یره": 4424,
      "روزه": 4425,
      "ضمن": 4426,
      "یشه": 4427,
      "##غذ": 4428,
      "معادل": 4429,
      "کاغذ": 4430,
      "الک": 4431,
      "نشود": 4432,
      "تأمین": 4433,
      "وقوع": 4434,
      "دائمی": 4435,
      "fi": 4436,
      "عربی": 4437,
      "فک": 4438,
      "##غل": 4439,
      "سته": 4440,
      "پرست": 4441,
      "فیلتر": 4442,
      "ستند": 4443,
      "تحریک": 4444,
      "صرفه": 4445,
      "خورید": 4446,
      "ni": 4447,
      "nce": 4448,
      "آیه": 4449,
      "کمپین": 4450,
      "حقو": 4451,
      "24": 4452,
      "وآوری": 4453,
      "برود": 4454,
      "انح": 4455,
      "امو": 4456,
      "##یاس": 4457,
      "شرط": 4458,
      "صندلی": 4459,
      "حقوقی": 4460,
      "سکو": 4461,
      "ستا": 4462,
      "نوج": 4463,
      "بماند": 4464,
      "رقی": 4465,
      "عقل": 4466,
      "کشیده": 4467,
      "رایج": 4468,
      "میکرو": 4469,
      "هستان": 4470,
      "am": 4471,
      "مبا": 4472,
      "##خند": 4473,
      "ریب": 4474,
      "do": 4475,
      "عوار": 4476,
      "##se": 4477,
      "ناخ": 4478,
      "فدرال": 4479,
      "حیطی": 4480,
      "عوارض": 4481,
      "رانه": 4482,
      "مزد": 4483,
      "رویا": 4484,
      "گرما": 4485,
      "کاخ": 4486,
      "پناه": 4487,
      "چاق": 4488,
      "##طاف": 4489,
      "الکل": 4490,
      "فقر": 4491,
      "نکات": 4492,
      "پارچه": 4493,
      "زنجیر": 4494,
      "14": 4495,
      "ویی": 4496,
      "نعطاف": 4497,
      "علام": 4498,
      "هیل": 4499,
      "نیستم": 4500,
      "رداند": 4501,
      "رندگ": 4502,
      "گمان": 4503,
      "دارک": 4504,
      "کاران": 4505,
      "مسکو": 4506,
      "مراقب": 4507,
      "لبخند": 4508,
      "ht": 4509,
      "آلب": 4510,
      "انس": 4511,
      "حادثه": 4512,
      "داعش": 4513,
      "رکو": 4514,
      "خراب": 4515,
      "یندوز": 4516,
      "ضعف": 4517,
      "لف": 4518,
      "کنگر": 4519,
      "قررات": 4520,
      "هدیه": 4521,
      "کانات": 4522,
      "پیمان": 4523,
      "سام": 4524,
      "چار": 4525,
      "بران": 4526,
      "بخشد": 4527,
      "جانبی": 4528,
      "رنده": 4529,
      "می‌": 4530,
      "رییس": 4531,
      "اکتری": 4532,
      "یانوس": 4533,
      "نفع": 4534,
      "mar": 4535,
      "آفت": 4536,
      "ذه": 4537,
      "دائم": 4538,
      "خطا": 4539,
      "مارک": 4540,
      "جی": 4541,
      "سسات": 4542,
      "نقد": 4543,
      "یورو": 4544,
      "موج": 4545,
      "باران": 4546,
      "۱۰۰": 4547,
      "بکن": 4548,
      "یدوار": 4549,
      "نظرات": 4550,
      "پرده": 4551,
      "##ریت": 4552,
      "الز": 4553,
      "گرچه": 4554,
      "سرب": 4555,
      "الهام": 4556,
      "آوری": 4557,
      "ضطر": 4558,
      "توپ": 4559,
      "امد": 4560,
      "گرسن": 4561,
      "آمدن": 4562,
      "tr": 4563,
      "شایع": 4564,
      "گراف": 4565,
      "راک": 4566,
      "برت": 4567,
      "معامل": 4568,
      "اسن": 4569,
      "عبد": 4570,
      "معیار": 4571,
      "غل": 4572,
      "ولت": 4573,
      "درحال": 4574,
      "داره": 4575,
      "خطوط": 4576,
      "رزه": 4577,
      "هایم": 4578,
      "تجدید": 4579,
      "نون": 4580,
      "کوپ": 4581,
      "ناسبی": 4582,
      "گا": 4583,
      "جسم": 4584,
      "كند": 4585,
      "کنه": 4586,
      "ایق": 4587,
      "ندا": 4588,
      "یدم": 4589,
      "شاخص": 4590,
      "فلز": 4591,
      "ضطراب": 4592,
      "es": 4593,
      "em": 4594,
      "تخص": 4595,
      "فه": 4596,
      "قوم": 4597,
      "لیک": 4598,
      "شوروی": 4599,
      "یشن": 4600,
      "برگرد": 4601,
      "زنشست": 4602,
      "بور": 4603,
      "شل": 4604,
      "هاب": 4605,
      "نیک": 4606,
      "گربه": 4607,
      "یابند": 4608,
      "یشگیر": 4609,
      "کنگره": 4610,
      "اورد": 4611,
      "نباش": 4612,
      "موریت": 4613,
      "آیت": 4614,
      "لاخ": 4615,
      "ژنتیک": 4616,
      "زوج": 4617,
      "یگنال": 4618,
      "bo": 4619,
      "عکا": 4620,
      "واب": 4621,
      "ریه": 4622,
      "لوک": 4623,
      "su": 4624,
      "۴۰": 4625,
      "##خل": 4626,
      "راد": 4627,
      "اندکی": 4628,
      "دادیم": 4629,
      "ریخت": 4630,
      "اندهی": 4631,
      "تازگی": 4632,
      "مکا": 4633,
      "نل": 4634,
      "مخدر": 4635,
      "جنسیت": 4636,
      "قضاوت": 4637,
      "عن": 4638,
      "یکیشن": 4639,
      "شاغل": 4640,
      "کالج": 4641,
      "تئوری": 4642,
      "جد": 4643,
      "یاری": 4644,
      "ارآمد": 4645,
      "محور": 4646,
      "بازان": 4647,
      "گویی": 4648,
      "وحش": 4649,
      "مداخل": 4650,
      "فلسفه": 4651,
      "عکاسی": 4652,
      "اذ": 4653,
      "##سیر": 4654,
      "یونی": 4655,
      "شیرین": 4656,
      "خالص": 4657,
      "ذهنی": 4658,
      "مز": 4659,
      "وژ": 4660,
      "توق": 4661,
      "متهم": 4662,
      "اقلی": 4663,
      "مقیاس": 4664,
      "تفسیر": 4665,
      "دفع": 4666,
      "لاخره": 4667,
      "po": 4668,
      "حاس": 4669,
      "خبری": 4670,
      "##ed": 4671,
      "یکار": 4672,
      "دلال": 4673,
      "لیب": 4674,
      "رنوشت": 4675,
      "حاسبه": 4676,
      "sa": 4677,
      "عار": 4678,
      "ازده": 4679,
      "اسیون": 4680,
      "13": 4681,
      "دون": 4682,
      "سئو": 4683,
      "سرخ": 4684,
      "گردند": 4685,
      "زیت": 4686,
      "مأ": 4687,
      "بهار": 4688,
      "هرچه": 4689,
      "رفع": 4690,
      "جداگ": 4691,
      "تقدند": 4692,
      "ري": 4693,
      "یایید": 4694,
      "اهن": 4695,
      "he": 4696,
      "ver": 4697,
      "غان": 4698,
      "بیاید": 4699,
      "دخانه": 4700,
      "پیروی": 4701,
      "کراین": 4702,
      "اتومب": 4703,
      "تراع": 4704,
      "علامت": 4705,
      "نات": 4706,
      "وج": 4707,
      "دراز": 4708,
      "راس": 4709,
      "ودکار": 4710,
      "فروخت": 4711,
      "اشکال": 4712,
      "قالات": 4713,
      "دزد": 4714,
      "رضا": 4715,
      "سرک": 4716,
      "شادی": 4717,
      "هکار": 4718,
      "کثریت": 4719,
      "da": 4720,
      "زرد": 4721,
      "شاد": 4722,
      "پورت": 4723,
      "آنقدر": 4724,
      "ناش": 4725,
      "ویز": 4726,
      "تجا": 4727,
      "دامنه": 4728,
      "ta": 4729,
      "وغ": 4730,
      "اصر": 4731,
      "اگ": 4732,
      "جغ": 4733,
      "هواره": 4734,
      "بدهی": 4735,
      "پارلم": 4736,
      "net": 4737,
      "ریتم": 4738,
      "تنوع": 4739,
      "لال": 4740,
      "چم": 4741,
      "##ta": 4742,
      "اربرد": 4743,
      "کتریک": 4744,
      "پولی": 4745,
      "ونز": 4746,
      "ترنتی": 4747,
      "تظ": 4748,
      "شایست": 4749,
      "الن": 4750,
      "تظاهر": 4751,
      "دال": 4752,
      "مرغ": 4753,
      "##ard": 4754,
      "نست": 4755,
      "موز": 4756,
      "اهانه": 4757,
      "کلام": 4758,
      "ضرب": 4759,
      "پارا": 4760,
      "فیزیک": 4761,
      "lo": 4762,
      "مجازی": 4763,
      "فرصتی": 4764,
      "خورند": 4765,
      "مؤثر": 4766,
      "لغو": 4767,
      "ght": 4768,
      "دترین": 4769,
      "##ئی": 4770,
      "اته": 4771,
      "اران": 4772,
      "اسب": 4773,
      "سافت": 4774,
      "جلسات": 4775,
      "راستا": 4776,
      "عروس": 4777,
      "نرا": 4778,
      "ننده": 4779,
      "##de": 4780,
      "میلی": 4781,
      "یکو": 4782,
      "دانه": 4783,
      "سوار": 4784,
      "آفتاب": 4785,
      "تجاوز": 4786,
      "ني": 4787,
      "وافق": 4788,
      "تبع": 4789,
      "حدوده": 4790,
      "صرفا": 4791,
      "توییت": 4792,
      "تزریق": 4793,
      "ناهند": 4794,
      "صار": 4795,
      "لات": 4796,
      "منص": 4797,
      "غریب": 4798,
      "ویل": 4799,
      "رام": 4800,
      "##زیل": 4801,
      "جغراف": 4802,
      "وافقت": 4803,
      "تیا": 4804,
      "حقی": 4805,
      "دمای": 4806,
      "غم": 4807,
      "برج": 4808,
      "شرح": 4809,
      "عالم": 4810,
      "دآوری": 4811,
      "هار": 4812,
      "پارت": 4813,
      "تاپ": 4814,
      "متنوع": 4815,
      "متعهد": 4816,
      "شکار": 4817,
      "گرام": 4818,
      "مستند": 4819,
      "ment": 4820,
      "تخصص": 4821,
      "همگی": 4822,
      "اوست": 4823,
      "واهان": 4824,
      "مسلح": 4825,
      "پروس": 4826,
      "بانکی": 4827,
      "زودتر": 4828,
      "رعایت": 4829,
      "سرکوب": 4830,
      "ثنا": 4831,
      "صوت": 4832,
      "آنتی": 4833,
      "فرید": 4834,
      "شکایت": 4835,
      "تجرب": 4836,
      "پدرش": 4837,
      "اسناد": 4838,
      "رسی": 4839,
      "رال": 4840,
      "##امع": 4841,
      "شدیم": 4842,
      "جوامع": 4843,
      "##est": 4844,
      "صندوق": 4845,
      "میدهد": 4846,
      "فوری": 4847,
      "بهینه": 4848,
      "قطار": 4849,
      "طرز": 4850,
      "کنونی": 4851,
      "ادرم": 4852,
      "تیاج": 4853,
      "لق": 4854,
      "وئیس": 4855,
      "ایمن": 4856,
      "کربن": 4857,
      "لودگی": 4858,
      "ie": 4859,
      "ومین": 4860,
      "##ba": 4861,
      "##ie": 4862,
      "##la": 4863,
      "تحقق": 4864,
      "رنگی": 4865,
      "تأکید": 4866,
      "قطعه": 4867,
      "حلقه": 4868,
      "راستی": 4869,
      "خام": 4870,
      "خنده": 4871,
      "عبا": 4872,
      "لکه": 4873,
      "##th": 4874,
      "ویه": 4875,
      "بدهند": 4876,
      "ربا": 4877,
      "ماری": 4878,
      "یمن": 4879,
      "ارچوب": 4880,
      "سینه": 4881,
      "ورا": 4882,
      "۲۵": 4883,
      "استر": 4884,
      "برسان": 4885,
      "دیوان": 4886,
      "ریک": 4887,
      "روزمر": 4888,
      "روشی": 4889,
      "لبنان": 4890,
      "راجع": 4891,
      "ندرت": 4892,
      "حیاتی": 4893,
      "90": 4894,
      "پلت": 4895,
      "اطرات": 4896,
      "int": 4897,
      "جعبه": 4898,
      "ضب": 4899,
      "قف": 4900,
      "اجبار": 4901,
      "جمعه": 4902,
      "واردی": 4903,
      "ضربه": 4904,
      "وریسم": 4905,
      "17": 4906,
      "سازید": 4907,
      "نگار": 4908,
      "ابع": 4909,
      "دیدتر": 4910,
      "شکلی": 4911,
      "گذارن": 4912,
      "##شناس": 4913,
      "توده": 4914,
      "حین": 4915,
      "اشتبا": 4916,
      "عصبان": 4917,
      "سوئد": 4918,
      "نالد": 4919,
      "قو": 4920,
      "۶۰": 4921,
      "درخش": 4922,
      "دیو": 4923,
      "لوب": 4924,
      "مکزیک": 4925,
      "یسیون": 4926,
      "اتخا": 4927,
      "الح": 4928,
      "کشان": 4929,
      "ردمی": 4930,
      "یلند": 4931,
      "عنصر": 4932,
      "رأ": 4933,
      "طلاق": 4934,
      "لاها": 4935,
      "ير": 4936,
      "برزیل": 4937,
      "بیند": 4938,
      "شنید": 4939,
      "ندهید": 4940,
      "جلوی": 4941,
      "بنیان": 4942,
      "فکری": 4943,
      "ئید": 4944,
      "اراده": 4945,
      "یدگی": 4946,
      "واسط": 4947,
      "سار": 4948,
      "رسان": 4949,
      "الزام": 4950,
      "اتخاذ": 4951,
      "app": 4952,
      "زید": 4953,
      "ظاه": 4954,
      "وط": 4955,
      "پان": 4956,
      "یکر": 4957,
      "خودت": 4958,
      "نامزد": 4959,
      "دلاری": 4960,
      "آورید": 4961,
      "خوراک": 4962,
      "ونیست": 4963,
      "ظاهرا": 4964,
      "شیدن": 4965,
      "يا": 4966,
      "##مور": 4967,
      "اتور": 4968,
      "دانی": 4969,
      "خبرنگ": 4970,
      "ایتخت": 4971,
      "سکوت": 4972,
      "قیام": 4973,
      "زین": 4974,
      "سیر": 4975,
      "۱۸": 4976,
      "نظم": 4977,
      "الکیت": 4978,
      "تابع": 4979,
      "ذب": 4980,
      "يک": 4981,
      "یغ": 4982,
      "##وص": 4983,
      "غیره": 4984,
      "گرفتم": 4985,
      "آوریل": 4986,
      "آمدند": 4987,
      "لسلام": 4988,
      "تقاضا": 4989,
      "هک": 4990,
      "هه": 4991,
      "گرایی": 4992,
      "نشسته": 4993,
      "هیو": 4994,
      "جمعی": 4995,
      "زایم": 4996,
      "تمایز": 4997,
      "بپذیر": 4998,
      "سنجی": 4999,
      "ضبط": 5000,
      "op": 5001,
      "ببی": 5002,
      "ببرد": 5003,
      "شمنان": 5004,
      "ابراز": 5005,
      "ببیند": 5006,
      "کور": 5007,
      "ادی": 5008,
      "رقص": 5009,
      "بسایت": 5010,
      "مأمور": 5011,
      "صه": 5012,
      "مخص": 5013,
      "کالی": 5014,
      "##li": 5015,
      "##غال": 5016,
      "اشیا": 5017,
      "اشغال": 5018,
      "ماشای": 5019,
      "شنوار": 5020,
      "مخصوص": 5021,
      "mic": 5022,
      "جنایت": 5023,
      "هنمای": 5024,
      "مخلو": 5025,
      "اراح": 5026,
      "فوریه": 5027,
      "گذران": 5028,
      "آلوده": 5029,
      "عقید": 5030,
      "هلند": 5031,
      "سرباز": 5032,
      "اراحت": 5033,
      "فقیر": 5034,
      "مالک": 5035,
      "حرارت": 5036,
      "mi": 5037,
      "sm": 5038,
      "wh": 5039,
      "عاط": 5040,
      "یلان": 5041,
      "دروید": 5042,
      "عاطف": 5043,
      "وکس": 5044,
      "موهای": 5045,
      "روحان": 5046,
      "کپی": 5047,
      "ذاشت": 5048,
      "سران": 5049,
      "کاب": 5050,
      "##mi": 5051,
      "##جار": 5052,
      "رویم": 5053,
      "الغ": 5054,
      "ویزای": 5055,
      "شارژ": 5056,
      "نحو": 5057,
      "لمس": 5058,
      "نادر": 5059,
      "یاه": 5060,
      "یوان": 5061,
      "رسم": 5062,
      "تناسب": 5063,
      "یاهان": 5064,
      "##ئت": 5065,
      "##راج": 5066,
      "باشه": 5067,
      "دوستی": 5068,
      "ودک": 5069,
      "لوژ": 5070,
      "نفجار": 5071,
      "زدهم": 5072,
      "توقف": 5073,
      "80": 5074,
      "go": 5075,
      "یگیری": 5076,
      "برایش": 5077,
      "اجاره": 5078,
      "بادل": 5079,
      "فادار": 5080,
      "هربان": 5081,
      "هیئت": 5082,
      "اهم": 5083,
      "بومی": 5084,
      "العاد": 5085,
      "اتمام": 5086,
      "ودکشی": 5087,
      "ادا": 5088,
      "فریب": 5089,
      "وود": 5090,
      "به‌": 5091,
      "یکل": 5092,
      "نیادی": 5093,
      "مسابق": 5094,
      "گردن": 5095,
      "نکند": 5096,
      "تخمین": 5097,
      "اتهام": 5098,
      "ذاشتن": 5099,
      "لت": 5100,
      "کابل": 5101,
      "کیه": 5102,
      "ایز": 5103,
      "مقصد": 5104,
      "رفتم": 5105,
      "پروف": 5106,
      "حسن": 5107,
      "ضاع": 5108,
      "لوژیک": 5109,
      "بشناس": 5110,
      "۱۱": 5111,
      "خطرات": 5112,
      "رآورد": 5113,
      "یامد": 5114,
      "کالیف": 5115,
      "تخت": 5116,
      "شون": 5117,
      "درب": 5118,
      "استو": 5119,
      "دستی": 5120,
      "محکم": 5121,
      "بینا": 5122,
      "ردگار": 5123,
      "کالری": 5124,
      "اتوبو": 5125,
      "ابهی": 5126,
      "مادگ": 5127,
      "وبا": 5128,
      "گریه": 5129,
      "یین": 5130,
      "یمی": 5131,
      "ارکس": 5132,
      "اسد": 5133,
      "مندتر": 5134,
      "گونا": 5135,
      "شکنجه": 5136,
      "حقیقی": 5137,
      "ser": 5138,
      "بزی": 5139,
      "وانی": 5140,
      "کرو": 5141,
      "برایم": 5142,
      "واکس": 5143,
      "ارتف": 5144,
      "شعر": 5145,
      "gra": 5146,
      "si": 5147,
      "وضو": 5148,
      "فرمای": 5149,
      "اکو": 5150,
      "ارات": 5151,
      "خراج": 5152,
      "صفر": 5153,
      "you": 5154,
      "رر": 5155,
      "صری": 5156,
      "ظم": 5157,
      "هرو": 5158,
      "طا": 5159,
      "فلو": 5160,
      "##سیک": 5161,
      "ادب": 5162,
      "اهه": 5163,
      "اهنگ": 5164,
      "بي": 5165,
      "وت": 5166,
      "اتین": 5167,
      "اتمی": 5168,
      "لاسیک": 5169,
      "خلاف": 5170,
      "ارمند": 5171,
      "cr": 5172,
      "ho": 5173,
      "کول": 5174,
      "روس": 5175,
      "my": 5176,
      "غزی": 5177,
      "فات": 5178,
      "ضرور": 5179,
      "یفا": 5180,
      "روپ": 5181,
      "اکسی": 5182,
      "قاضای": 5183,
      "وریست": 5184,
      "وفان": 5185,
      "pe": 5186,
      "دداشت": 5187,
      "کشند": 5188,
      "پرستا": 5189,
      "رفه": 5190,
      "وژن": 5191,
      "70": 5192,
      "راث": 5193,
      "بنای": 5194,
      "قایق": 5195,
      "یزبان": 5196,
      "##ell": 5197,
      "شها": 5198,
      "وچک": 5199,
      "[+": 5200,
      "ive": 5201,
      "دکم": 5202,
      "کشی": 5203,
      "غذاها": 5204,
      "[+]": 5205,
      "فیف": 5206,
      "قند": 5207,
      "لّ": 5208,
      "موافق": 5209,
      "تنا": 5210,
      "مدنی": 5211,
      "##ace": 5212,
      "تخصصی": 5213,
      "[-": 5214,
      "ئو": 5215,
      "ائل": 5216,
      "دتا": 5217,
      "##si": 5218,
      "ردها": 5219,
      "پنجم": 5220,
      "اموش": 5221,
      "اهنگی": 5222,
      "وچکتر": 5223,
      "[-]": 5224,
      "ستی": 5225,
      "انکار": 5226,
      "کسل": 5227,
      "##ing": 5228,
      "بف": 5229,
      "محقق": 5230,
      "کاش": 5231,
      "لوژی": 5232,
      "بفهم": 5233,
      "منف": 5234,
      "كنند": 5235,
      "اچه": 5236,
      "لیت": 5237,
      "نز": 5238,
      "انداخ": 5239,
      "یبری": 5240,
      "گنج": 5241,
      "کالا": 5242,
      "عادل": 5243,
      "web": 5244,
      "نستن": 5245,
      "چش": 5246,
      "۱۴": 5247,
      "اجعه": 5248,
      "ولاد": 5249,
      "یبر": 5250,
      "انید": 5251,
      "سیس": 5252,
      "جات": 5253,
      "رقه": 5254,
      "طره": 5255,
      "سیب": 5256,
      "ادث": 5257,
      "واز": 5258,
      "##ga": 5259,
      "ایه": 5260,
      "هرت": 5261,
      "رکات": 5262,
      "بنیاد": 5263,
      "پارتم": 5264,
      "##ps": 5265,
      "فرش": 5266,
      "اسید": 5267,
      "یزر": 5268,
      "ent": 5269,
      "بکار": 5270,
      "اسکا": 5271,
      "تکب": 5272,
      "##ill": 5273,
      "زنگ": 5274,
      "گری": 5275,
      "##va": 5276,
      "تنش": 5277,
      "اشی": 5278,
      "ونس": 5279,
      "زرگان": 5280,
      "میت": 5281,
      "باشی": 5282,
      "رطرف": 5283,
      "رزهای": 5284,
      "تتا": 5285,
      "ذاب": 5286,
      "اسط": 5287,
      "ناراح": 5288,
      "تکل": 5289,
      "نان": 5290,
      "گند": 5291,
      "مبار": 5292,
      "وردند": 5293,
      "رتر": 5294,
      "فش": 5295,
      "فتی": 5296,
      "میشه": 5297,
      "گذارد": 5298,
      "مهر": 5299,
      "نماد": 5300,
      "پلی": 5301,
      "##ml": 5302,
      "مادرش": 5303,
      "war": 5304,
      "دیت": 5305,
      "واص": 5306,
      "شویی": 5307,
      "شبه": 5308,
      "لاس": 5309,
      "##ke": 5310,
      "توج": 5311,
      "ندی": 5312,
      "اجد": 5313,
      "مدن": 5314,
      "لحه": 5315,
      "uni": 5316,
      "آقا": 5317,
      "ئین": 5318,
      "اچ": 5319,
      "وئل": 5320,
      "کرم": 5321,
      "انم": 5322,
      "ارگان": 5323,
      "سرما": 5324,
      "اهای": 5325,
      "دعای": 5326,
      "ce": 5327,
      "pa": 5328,
      "مادی": 5329,
      "ندید": 5330,
      "حت": 5331,
      "خلی": 5332,
      "ریل": 5333,
      "شورش": 5334,
      "اده": 5335,
      "روید": 5336,
      "اتل": 5337,
      "نکردن": 5338,
      "21": 5339,
      "ry": 5340,
      "رپ": 5341,
      "فوت": 5342,
      "بخشید": 5343,
      "دینی": 5344,
      "۸۰": 5345,
      "زنم": 5346,
      "طرفدا": 5347,
      "گاو": 5348,
      "سانه": 5349,
      "گلو": 5350,
      "یاها": 5351,
      "موم": 5352,
      "الون": 5353,
      "متری": 5354,
      "اى": 5355,
      "بلو": 5356,
      "تدا": 5357,
      "مبارز": 5358,
      "دگر": 5359,
      "سترو": 5360,
      "نجان": 5361,
      "شاورز": 5362,
      "bi": 5363,
      "تنگ": 5364,
      "عک": 5365,
      "ینی": 5366,
      "برید": 5367,
      "ادو": 5368,
      "غام": 5369,
      "وله": 5370,
      "اوج": 5371,
      "ld": 5372,
      "غا": 5373,
      "نیدن": 5374,
      "وریم": 5375,
      "ونا": 5376,
      "يت": 5377,
      "ستاده": 5378,
      "پیروز": 5379,
      "19": 5380,
      "عوا": 5381,
      "ستری": 5382,
      "پیک": 5383,
      "یران": 5384,
      "sy": 5385,
      "حریم": 5386,
      "خه": 5387,
      "دها": 5388,
      "هز": 5389,
      "ایب": 5390,
      "نوا": 5391,
      "pr": 5392,
      "مزا": 5393,
      "یکرو": 5394,
      "ارل": 5395,
      "ویزا": 5396,
      "لذا": 5397,
      "جت": 5398,
      "منع": 5399,
      "صلاح": 5400,
      "یید": 5401,
      "ازم": 5402,
      "ابید": 5403,
      "تعلق": 5404,
      "##ate": 5405,
      "ss": 5406,
      "کین": 5407,
      "۱۳": 5408,
      "##سل": 5409,
      "البا": 5410,
      "سرم": 5411,
      "رفتند": 5412,
      "ردن": 5413,
      "ربات": 5414,
      "ly": 5415,
      "جب": 5416,
      "حبت": 5417,
      "طای": 5418,
      "ازن": 5419,
      "افسر": 5420,
      "ادری": 5421,
      "وران": 5422,
      "حدی": 5423,
      "قدیم": 5424,
      "فتد": 5425,
      "چشمان": 5426,
      "جک": 5427,
      "چوب": 5428,
      "نداز": 5429,
      "نظری": 5430,
      "بوی": 5431,
      "دغ": 5432,
      "فزای": 5433,
      "##ub": 5434,
      "دوز": 5435,
      "افشا": 5436,
      "ورس": 5437,
      "ناتو": 5438,
      "غول": 5439,
      "##ft": 5440,
      "منا": 5441,
      "ارب": 5442,
      "مسیحی": 5443,
      "بشری": 5444,
      "جاست": 5445,
      "خته": 5446,
      "ندانه": 5447,
      "الف": 5448,
      "وسط": 5449,
      "سنی": 5450,
      "موسی": 5451,
      "انتان": 5452,
      "اریو": 5453,
      "تانه": 5454,
      "هال": 5455,
      "محاسب": 5456,
      "وسه": 5457,
      "چا": 5458,
      "ینو": 5459,
      "باس": 5460,
      "کلم": 5461,
      "دریای": 5462,
      "عکاس": 5463,
      "اوری": 5464,
      "باری": 5465,
      "منطق": 5466,
      "مزه": 5467,
      "وخ": 5468,
      "ّا": 5469,
      "استار": 5470,
      "دوی": 5471,
      "امان": 5472,
      "متد": 5473,
      "ورگ": 5474,
      "فند": 5475,
      "ارض": 5476,
      "یانت": 5477,
      "فتار": 5478,
      "سکن": 5479,
      "ولای": 5480,
      "تاج": 5481,
      "خرج": 5482,
      "ازگرد": 5483,
      "##ame": 5484,
      "du": 5485,
      "ومی": 5486,
      "یال": 5487,
      "دستان": 5488,
      "واژ": 5489,
      "فرود": 5490,
      "وئید": 5491,
      "ضیه": 5492,
      "هول": 5493,
      "پلا": 5494,
      "منی": 5495,
      "گردش": 5496,
      "ولین": 5497,
      "تسل": 5498,
      "نصف": 5499,
      "تونی": 5500,
      "منش": 5501,
      "ایستی": 5502,
      "سرتا": 5503,
      "نوار": 5504,
      "کوک": 5505,
      "هروند": 5506,
      "جین": 5507,
      "سي": 5508,
      "لمه": 5509,
      "وده": 5510,
      "برم": 5511,
      "نسور": 5512,
      "شنایی": 5513,
      "تراف": 5514,
      "رکا": 5515,
      "عان": 5516,
      "راط": 5517,
      "ستار": 5518,
      "ادهای": 5519,
      "22": 5520,
      "يم": 5521,
      "انا": 5522,
      "راند": 5523,
      "جراح": 5524,
      "##بخ": 5525,
      "اقل": 5526,
      "لیس": 5527,
      "یحات": 5528,
      "شیمی": 5529,
      "یایی": 5530,
      "۲۴": 5531,
      "خونی": 5532,
      "خوشبخ": 5533,
      "شست": 5534,
      "##بخت": 5535,
      "بهم": 5536,
      "ارش": 5537,
      "دلم": 5538,
      "کاو": 5539,
      "وشبخت": 5540,
      "رکرد": 5541,
      "ژوئ": 5542,
      "##ock": 5543,
      "ke": 5544,
      "زاب": 5545,
      "فس": 5546,
      "ودا": 5547,
      "##ook": 5548,
      "ia": 5549,
      "ختان": 5550,
      "واری": 5551,
      "ّت": 5552,
      "یروز": 5553,
      "۱۶": 5554,
      "##ck": 5555,
      "دیکت": 5556,
      "امس": 5557,
      "اندر": 5558,
      "وطلب": 5559,
      "تاد": 5560,
      "غلب": 5561,
      "واد": 5562,
      "گیریم": 5563,
      "res": 5564,
      "جفت": 5565,
      "رژی": 5566,
      "##co": 5567,
      "##خته": 5568,
      "قرص": 5569,
      "فرمو": 5570,
      "ولیک": 5571,
      "عمق": 5572,
      "شتن": 5573,
      "qu": 5574,
      "up": 5575,
      "آما": 5576,
      "ونگ": 5577,
      "ارف": 5578,
      "شاگر": 5579,
      "ائو": 5580,
      "هان": 5581,
      "یبی": 5582,
      "دربار": 5583,
      "لکت": 5584,
      "##mp": 5585,
      "یدنی": 5586,
      "سپری": 5587,
      "ev": 5588,
      "صمیم": 5589,
      "۷۰": 5590,
      "##lo": 5591,
      "یکس": 5592,
      "کردی": 5593,
      "تاک": 5594,
      "نداخت": 5595,
      "ba": 5596,
      "lin": 5597,
      "نای": 5598,
      "امین": 5599,
      "لیف": 5600,
      "اء": 5601,
      "##gi": 5602,
      "نگاری": 5603,
      "##ore": 5604,
      "یث": 5605,
      "یوز": 5606,
      "کمر": 5607,
      "رسیم": 5608,
      "اداری": 5609,
      "اهر": 5610,
      "لبان": 5611,
      "ارسی": 5612,
      "طعم": 5613,
      "ha": 5614,
      "hd": 5615,
      "رك": 5616,
      "نزا": 5617,
      "وگا": 5618,
      "ایند": 5619,
      "ماع": 5620,
      "ناخته": 5621,
      "اگه": 5622,
      "min": 5623,
      "بجا": 5624,
      "نتا": 5625,
      "تیو": 5626,
      "ca": 5627,
      "car": 5628,
      "والی": 5629,
      "##طرا": 5630,
      "انشان": 5631,
      "ایل": 5632,
      "ایش": 5633,
      "اوی": 5634,
      "ترم": 5635,
      "تنام": 5636,
      "وقا": 5637,
      "کوچ": 5638,
      "غذی": 5639,
      "ابا": 5640,
      "په": 5641,
      "ستگی": 5642,
      "نوش": 5643,
      "اضطرا": 5644,
      "ونیک": 5645,
      "فارس": 5646,
      "زمن": 5647,
      "##pn": 5648,
      "پیرا": 5649,
      "زار": 5650,
      "توک": 5651,
      "ستانی": 5652,
      "ناظر": 5653,
      "رابط": 5654,
      "مذهب": 5655,
      "##بین": 5656,
      "افق": 5657,
      "ممنو": 5658,
      "نقص": 5659,
      "nc": 5660,
      "رمت": 5661,
      "عود": 5662,
      "قین": 5663,
      "لار": 5664,
      "ستیم": 5665,
      "اسکن": 5666,
      "اقد": 5667,
      "ادران": 5668,
      "bu": 5669,
      "بنده": 5670,
      "ومه": 5671,
      "تاق": 5672,
      "ابد": 5673,
      "عهد": 5674,
      "لپ": 5675,
      "وجو": 5676,
      "##ss": 5677,
      "محض": 5678,
      "جزئی": 5679,
      "حتم": 5680,
      "ble": 5681,
      "یدا": 5682,
      "وهی": 5683,
      "dna": 5684,
      "طن": 5685,
      "راخ": 5686,
      "جزو": 5687,
      "##ree": 5688,
      "new": 5689,
      "jo": 5690,
      "صر": 5691,
      "لوت": 5692,
      "روت": 5693,
      "تحم": 5694,
      "نورد": 5695,
      "وابست": 5696,
      "مضر": 5697,
      "وطه": 5698,
      "چسب": 5699,
      "روحی": 5700,
      "لیسم": 5701,
      "تماع": 5702,
      "ستقر": 5703,
      "ft": 5704,
      "tor": 5705,
      "##di": 5706,
      "تهای": 5707,
      "رخش": 5708,
      "لطف": 5709,
      "pre": 5710,
      "حله": 5711,
      "متعا": 5712,
      "ناط": 5713,
      "ادت": 5714,
      "اریا": 5715,
      "تکار": 5716,
      "قطر": 5717,
      "##ینگ": 5718,
      "امت": 5719,
      "ریست": 5720,
      "ورژ": 5721,
      "لحظ": 5722,
      "ناسا": 5723,
      "hiv": 5724,
      "so": 5725,
      "دله": 5726,
      "لي": 5727,
      "ارن": 5728,
      "ردند": 5729,
      "شورا": 5730,
      "زرس": 5731,
      "سید": 5732,
      "سکی": 5733,
      "گه": 5734,
      "##so": 5735,
      "انیم": 5736,
      "کارا": 5737,
      "پذیری": 5738,
      "مقدم": 5739,
      "one": 5740,
      "غلط": 5741,
      "mac": 5742,
      "شیک": 5743,
      "پری": 5744,
      "یِ": 5745,
      "یسه": 5746,
      "افا": 5747,
      "ap": 5748,
      "خره": 5749,
      "رزی": 5750,
      "یتی": 5751,
      "برگز": 5752,
      "فرق": 5753,
      "ps": 5754,
      "لاه": 5755,
      "دات": 5756,
      "الو": 5757,
      "اهد": 5758,
      "عصب": 5759,
      "گزاری": 5760,
      "mon": 5761,
      "حج": 5762,
      "عسل": 5763,
      "هانه": 5764,
      "۲۱": 5765,
      "##da": 5766,
      "وات": 5767,
      "اهو": 5768,
      "یهود": 5769,
      "تشا": 5770,
      "یلیا": 5771,
      "200": 5772,
      "html": 5773,
      "ab": 5774,
      "جنا": 5775,
      "حب": 5776,
      "##mo": 5777,
      "##fe": 5778,
      "ینک": 5779,
      "یزا": 5780,
      "35": 5781,
      "out": 5782,
      "vpn": 5783,
      "صو": 5784,
      "وبه": 5785,
      "نتون": 5786,
      "شانه": 5787,
      "وتا": 5788,
      "ییم": 5789,
      "دوش": 5790,
      "لد": 5791,
      "یای": 5792,
      "یفت": 5793,
      "ادان": 5794,
      "حدس": 5795,
      "حافظ": 5796,
      "مایه": 5797,
      "حظه": 5798,
      "رعه": 5799,
      "هج": 5800,
      "پایی": 5801,
      "میانه": 5802,
      "شاند": 5803,
      "رتو": 5804,
      "pri": 5805,
      "ure": 5806,
      "رؤ": 5807,
      "لزی": 5808,
      "مبو": 5809,
      "ایو": 5810,
      "نسول": 5811,
      "غرق": 5812,
      "اپی": 5813,
      "وندی": 5814,
      "دما": 5815,
      "طاب": 5816,
      "کنج": 5817,
      "هیدر": 5818,
      "گرافی": 5819,
      "ul": 5820,
      "حه": 5821,
      "نود": 5822,
      "ریو": 5823,
      "بازگ": 5824,
      "شنوا": 5825,
      "شتار": 5826,
      "سوره": 5827,
      "ولا": 5828,
      "##ip": 5829,
      "هیپ": 5830,
      "مقر": 5831,
      "##ass": 5832,
      "36": 5833,
      "fl": 5834,
      "per": 5835,
      "وادار": 5836,
      "500": 5837,
      "23": 5838,
      "هنم": 5839,
      "وپر": 5840,
      "جار": 5841,
      "زاد": 5842,
      "قسم": 5843,
      "لاب": 5844,
      "بری": 5845,
      "ریان": 5846,
      "کوب": 5847,
      "شخصا": 5848,
      "ect": 5849,
      "آری": 5850,
      "طه": 5851,
      "۹۰": 5852,
      "مره": 5853,
      "ینت": 5854,
      "##ite": 5855,
      "des": 5856,
      "کیم": 5857,
      "انک": 5858,
      "اندک": 5859,
      "وجوان": 5860,
      "ios": 5861,
      "حمت": 5862,
      "شیده": 5863,
      "مجا": 5864,
      "وازه": 5865,
      "وگو": 5866,
      "۱۷": 5867,
      "ینطور": 5868,
      "لیه": 5869,
      "شتم": 5870,
      "300": 5871,
      "نندگ": 5872,
      "رأی": 5873,
      "tal": 5874,
      "تکه": 5875,
      "رئ": 5876,
      "ونو": 5877,
      "پم": 5878,
      "##xt": 5879,
      "روف": 5880,
      "ناگ": 5881,
      "comp": 5882,
      "28": 5883,
      "tra": 5884,
      "ددا": 5885,
      "رمی": 5886,
      "نزی": 5887,
      "##yp": 5888,
      "نوک": 5889,
      "کوش": 5890,
      "کون": 5891,
      "آنا": 5892,
      "داغ": 5893,
      "مهار": 5894,
      "کسید": 5895,
      "اهت": 5896,
      "رژان": 5897,
      "سقف": 5898,
      "گزا": 5899,
      "درها": 5900,
      "عمار": 5901,
      "شکلات": 5902,
      "وسو": 5903,
      "ol": 5904,
      "خیل": 5905,
      "انگر": 5906,
      "وقف": 5907,
      "##ort": 5908,
      "work": 5909,
      "word": 5910,
      "پیچید": 5911,
      "روپای": 5912,
      "os": 5913,
      "سمی": 5914,
      "قض": 5915,
      "لعه": 5916,
      "درات": 5917,
      "حاک": 5918,
      "لیون": 5919,
      "یرت": 5920,
      "##int": 5921,
      "ste": 5922,
      "##ile": 5923,
      "روانش": 5924,
      "دایا": 5925,
      "لکترو": 5926,
      "ازیم": 5927,
      "منو": 5928,
      "هره": 5929,
      "جزء": 5930,
      "جزای": 5931,
      "یزم": 5932,
      "اگو": 5933,
      "هنما": 5934,
      "پاش": 5935,
      "فتگی": 5936,
      "معمار": 5937,
      "seo": 5938,
      "if": 5939,
      "ئه": 5940,
      "رث": 5941,
      "رگیری": 5942,
      "یط": 5943,
      "میم": 5944,
      "بودی": 5945,
      "pc": 5946,
      "بقا": 5947,
      "حرم": 5948,
      "ضایی": 5949,
      "هود": 5950,
      "الین": 5951,
      "ورن": 5952,
      "ادات": 5953,
      "هاد": 5954,
      "وکا": 5955,
      "##ll": 5956,
      "نیت": 5957,
      "اریم": 5958,
      "گرگ": 5959,
      "اعضا": 5960,
      "sta": 5961,
      "زبانی": 5962,
      "جیب": 5963,
      "طری": 5964,
      "فان": 5965,
      "لیا": 5966,
      "پاه": 5967,
      "۱۹": 5968,
      "زندگ": 5969,
      "اعات": 5970,
      "انز": 5971,
      "کنس": 5972,
      "همۀ": 5973,
      "ورش": 5974,
      "کتب": 5975,
      "##ick": 5976,
      "کبد": 5977,
      "45": 5978,
      "ارا": 5979,
      "بدا": 5980,
      "حسی": 5981,
      "دک": 5982,
      "نپ": 5983,
      "ورو": 5984,
      "وتو": 5985,
      "یری": 5986,
      "ترور": 5987,
      "گره": 5988,
      "تیز": 5989,
      "قفل": 5990,
      "book": 5991,
      "ice": 5992,
      "lt": 5993,
      "جری": 5994,
      "وچ": 5995,
      "ترون": 5996,
      "نشر": 5997,
      "ورشی": 5998,
      "یتا": 5999,
      "وسیا": 6000,
      "##ang": 6001,
      "##our": 6002,
      "آک": 6003,
      "بخت": 6004,
      "حمد": 6005,
      "نایی": 6006,
      "هین": 6007,
      "پیت": 6008,
      "##bo": 6009,
      "اینه": 6010,
      "برف": 6011,
      "ندو": 6012,
      "دیس": 6013,
      "نامید": 6014,
      "اشتی": 6015,
      "دز": 6016,
      "##pa": 6017,
      "ندها": 6018,
      "ارمن": 6019,
      "دستیا": 6020,
      "اخذ": 6021,
      "جلس": 6022,
      "مامور": 6023,
      "serv": 6024,
      "ber": 6025,
      "dis": 6026,
      "وازی": 6027,
      "ستش": 6028,
      "زیب": 6029,
      "مواج": 6030,
      "دگ": 6031,
      "##ha": 6032,
      "رول": 6033,
      "پرت": 6034,
      "ابل": 6035,
      "تای": 6036,
      "رتری": 6037,
      "یقه": 6038,
      "ونه": 6039,
      "شیو": 6040,
      "cd": 6041,
      "ii": 6042,
      "جال": 6043,
      "جاب": 6044,
      "فال": 6045,
      "##sa": 6046,
      "خوانی": 6047,
      "رهایی": 6048,
      "red": 6049,
      "ll": 6050,
      "وفا": 6051,
      "یزه": 6052,
      "##ti": 6053,
      "راش": 6054,
      "یدئو": 6055,
      "تحق": 6056,
      "اسخ": 6057,
      "خنک": 6058,
      "gen": 6059,
      "ir": 6060,
      "ندن": 6061,
      "اسه": 6062,
      "ینش": 6063,
      "27": 6064,
      "bit": 6065,
      "برها": 6066,
      "اتری": 6067,
      "تمد": 6068,
      "احی": 6069,
      "سوس": 6070,
      "جاو": 6071,
      "26": 6072,
      "can": 6073,
      "بوت": 6074,
      "تث": 6075,
      "امه": 6076,
      "محو": 6077,
      "نمک": 6078,
      "##ice": 6079,
      "ثم": 6080,
      "زام": 6081,
      "غال": 6082,
      "۲۲": 6083,
      "رامی": 6084,
      "توانی": 6085,
      "سیال": 6086,
      "سوسی": 6087,
      "لیو": 6088,
      "ib": 6089,
      "جانی": 6090,
      "سوری": 6091,
      "##ca": 6092,
      "انیت": 6093,
      "معا": 6094,
      "لیگ": 6095,
      "فتیم": 6096,
      "cap": 6097,
      "gn": 6098,
      "وشان": 6099,
      "پک": 6100,
      "احل": 6101,
      "لینی": 6102,
      "دعو": 6103,
      "لنز": 6104,
      "ms": 6105,
      "pi": 6106,
      "دبی": 6107,
      "وایی": 6108,
      "۳۵": 6109,
      "بهای": 6110,
      "انتی": 6111,
      "کنگ": 6112,
      "ادن": 6113,
      "سفی": 6114,
      "گزین": 6115,
      "عز": 6116,
      "قوا": 6117,
      "مزای": 6118,
      "ودر": 6119,
      "یخت": 6120,
      "##ua": 6121,
      "لاگ": 6122,
      "ضرر": 6123,
      "##ool": 6124,
      "##ash": 6125,
      "اریاب": 6126,
      "زیبای": 6127,
      "مزایا": 6128,
      "par": 6129,
      "حام": 6130,
      "ظره": 6131,
      "لل": 6132,
      "ناسب": 6133,
      "بیه": 6134,
      "ادآور": 6135,
      "ابری": 6136,
      "سمان": 6137,
      "کاند": 6138,
      "##وف": 6139,
      "ریخ": 6140,
      "ینا": 6141,
      "مودند": 6142,
      "اسخگو": 6143,
      "سفانه": 6144,
      "مینا": 6145,
      "ظهر": 6146,
      "##ust": 6147,
      "افع": 6148,
      "احت": 6149,
      "وره": 6150,
      "آمر": 6151,
      "رایان": 6152,
      "وشیدن": 6153,
      "gi": 6154,
      "اها": 6155,
      "دیا": 6156,
      "امری": 6157,
      "الس": 6158,
      "احا": 6159,
      "ادام": 6160,
      "علاق": 6161,
      "br": 6162,
      "back": 6163,
      "ial": 6164,
      "جله": 6165,
      "رکت": 6166,
      "زک": 6167,
      "لک": 6168,
      "لبه": 6169,
      "ناز": 6170,
      "هری": 6171,
      "وبی": 6172,
      "##up": 6173,
      "روژ": 6174,
      "ایستا": 6175,
      "هوشم": 6176,
      "##ata": 6177,
      "ثی": 6178,
      "هدر": 6179,
      "کرا": 6180,
      "گال": 6181,
      "##et": 6182,
      "نوآور": 6183,
      "all": 6184,
      "vers": 6185,
      "75": 6186,
      "by": 6187,
      "آسا": 6188,
      "گوا": 6189,
      "اتا": 6190,
      "مسن": 6191,
      "##ank": 6192,
      "جوش": 6193,
      "قدس": 6194,
      "یزیو": 6195,
      "sec": 6196,
      "url": 6197,
      "mark": 6198,
      "ki": 6199,
      "land": 6200,
      "nic": 6201,
      "wit": 6202,
      "تار": 6203,
      "راکت": 6204,
      "همسا": 6205,
      "امل": 6206,
      "یدان": 6207,
      "نکو": 6208,
      "پاپ": 6209,
      "لسل": 6210,
      "iso": 6211,
      "ذراند": 6212,
      "air": 6213,
      "day": 6214,
      "mba": 6215,
      "مانه": 6216,
      "همگ": 6217,
      "مراه": 6218,
      "اطم": 6219,
      "ترجم": 6220,
      "۲۰۰": 6221,
      "حبس": 6222,
      "gy": 6223,
      "خم": 6224,
      "صور": 6225,
      "نوشید": 6226,
      "لیز": 6227,
      "ern": 6228,
      "ونت": 6229,
      "time": 6230,
      "ey": 6231,
      "هام": 6232,
      "ازش": 6233,
      "تات": 6234,
      "تهی": 6235,
      "med": 6236,
      "بانی": 6237,
      "فانه": 6238,
      "لگی": 6239,
      "ژیک": 6240,
      "یمان": 6241,
      "استخر": 6242,
      "تنه": 6243,
      "وعات": 6244,
      "۵۰۰": 6245,
      "32": 6246,
      "gu": 6247,
      "سبی": 6248,
      "لوم": 6249,
      "##ff": 6250,
      "اطل": 6251,
      "##ath": 6252,
      "رجست": 6253,
      "ndow": 6254,
      "gro": 6255,
      "id": 6256,
      "ness": 6257,
      "ابی": 6258,
      "شکی": 6259,
      "عط": 6260,
      "مض": 6261,
      "وگ": 6262,
      "ارث": 6263,
      "یانگ": 6264,
      "مینی": 6265,
      "post": 6266,
      "bus": 6267,
      "fin": 6268,
      "حث": 6269,
      "سنا": 6270,
      "قیب": 6271,
      "مده": 6272,
      "ایست": 6273,
      "موها": 6274,
      "چهل": 6275,
      "ریش": 6276,
      "کوس": 6277,
      "ert": 6278,
      "##ala": 6279,
      "play": 6280,
      "زدا": 6281,
      "سالی": 6282,
      "مانت": 6283,
      "وانم": 6284,
      "دیدا": 6285,
      "بحر": 6286,
      "چرب": 6287,
      "دمان": 6288,
      "زر": 6289,
      "فته": 6290,
      "كا": 6291,
      "وگان": 6292,
      "یستم": 6293,
      "##gh": 6294,
      "برش": 6295,
      "یدیم": 6296,
      "##oun": 6297,
      "exp": 6298,
      "امیان": 6299,
      "sw": 6300,
      "لیل": 6301,
      "وصل": 6302,
      "يل": 6303,
      "پت": 6304,
      "##vi": 6305,
      "نامی": 6306,
      "aut": 6307,
      "fa": 6308,
      "ut": 6309,
      "شتر": 6310,
      "وي": 6311,
      "انهای": 6312,
      "شکم": 6313,
      "31": 6314,
      "ga": 6315,
      "ja": 6316,
      "sk": 6317,
      "tic": 6318,
      "تنی": 6319,
      "هدا": 6320,
      "وستی": 6321,
      "##op": 6322,
      "روگ": 6323,
      "نداد": 6324,
      "ودآ": 6325,
      "ica": 6326,
      "cor": 6327,
      "way": 6328,
      "زیم": 6329,
      "وزی": 6330,
      "۲۳": 6331,
      "روک": 6332,
      "محر": 6333,
      "##ood": 6334,
      "ted": 6335,
      "قلی": 6336,
      "دره": 6337,
      "اعل": 6338,
      "قطب": 6339,
      "usb": 6340,
      "cont": 6341,
      "home": 6342,
      "خیره": 6343,
      "دگار": 6344,
      "رانی": 6345,
      "سد": 6346,
      "شفا": 6347,
      "طف": 6348,
      "غالب": 6349,
      "قوت": 6350,
      "لوا": 6351,
      "وانه": 6352,
      "روا": 6353,
      "الری": 6354,
      "احم": 6355,
      "زیک": 6356,
      "تصر": 6357,
      "یغا": 6358,
      "fr": 6359,
      "بای": 6360,
      "خوری": 6361,
      "نجا": 6362,
      "##ne": 6363,
      "##pt": 6364,
      "اتوری": 6365,
      "ایگان": 6366,
      "تعل": 6367,
      "ردگ": 6368,
      "ائی": 6369,
      "au": 6370,
      "دآور": 6371,
      "رگو": 6372,
      "زمی": 6373,
      "وو": 6374,
      "ستانه": 6375,
      "افزا": 6376,
      "طلو": 6377,
      "گوس": 6378,
      "فعل": 6379,
      "cy": 6380,
      "رمن": 6381,
      "سس": 6382,
      "یلو": 6383,
      "##ec": 6384,
      "ازهای": 6385,
      "محتو": 6386,
      "مقاوم": 6387,
      "ric": 6388,
      "طار": 6389,
      "یله": 6390,
      "۴۵": 6391,
      "برن": 6392,
      "بیگ": 6393,
      "افی": 6394,
      "صدی": 6395,
      "وشش": 6396,
      "دامن": 6397,
      "ai": 6398,
      "ببین": 6399,
      "تگان": 6400,
      "الش": 6401,
      "هدی": 6402,
      "پوشید": 6403,
      "رایم": 6404,
      "خشن": 6405,
      "ndows": 6406,
      "um": 6407,
      "wa": 6408,
      "هش": 6409,
      "وکی": 6410,
      "علل": 6411,
      "رزو": 6412,
      "ain": 6413,
      "ian": 6414,
      "pol": 6415,
      "vi": 6416,
      "بانه": 6417,
      "بوس": 6418,
      "ثاب": 6419,
      "مگا": 6420,
      "هلی": 6421,
      "یزد": 6422,
      "که‌": 6423,
      "بدل": 6424,
      "وبل": 6425,
      "تخوا": 6426,
      "game": 6427,
      "rch": 6428,
      "زور": 6429,
      "مکر": 6430,
      "وبت": 6431,
      "۲۷": 6432,
      "##ـه": 6433,
      "برون": 6434,
      "اجب": 6435,
      "یلس": 6436,
      "تلخ": 6437,
      "تند": 6438,
      "سکه": 6439,
      "ششم": 6440,
      "قانه": 6441,
      "وتر": 6442,
      "یمو": 6443,
      "یجان": 6444,
      "##ea": 6445,
      "##ry": 6446,
      "اینک": 6447,
      "امدا": 6448,
      "محاف": 6449,
      "ard": 6450,
      "محافظ": 6451,
      "bar": 6452,
      "gr": 6453,
      "her": 6454,
      "نکر": 6455,
      "##ذر": 6456,
      "بها": 6457,
      "میگ": 6458,
      "یکا": 6459,
      "دوق": 6460,
      "وانیم": 6461,
      "مختل": 6462,
      "29": 6463,
      "wat": 6464,
      "ستیک": 6465,
      "ملات": 6466,
      "پکن": 6467,
      "مات": 6468,
      "اهده": 6469,
      "ولان": 6470,
      "رستان": 6471,
      "##ide": 6472,
      "eb": 6473,
      "vis": 6474,
      "صاف": 6475,
      "گش": 6476,
      "انها": 6477,
      "موی": 6478,
      "نیل": 6479,
      "دفن": 6480,
      "cre": 6481,
      "تانی": 6482,
      "شق": 6483,
      "لون": 6484,
      "وکل": 6485,
      "چو": 6486,
      "یالی": 6487,
      "##یز": 6488,
      "آن‌": 6489,
      "احتیا": 6490,
      "تجربی": 6491,
      "php": 6492,
      "##unt": 6493,
      "400": 6494,
      "htt": 6495,
      "زي": 6496,
      "فای": 6497,
      "مبر": 6498,
      "##ms": 6499,
      "ادرا": 6500,
      "فاش": 6501,
      "cha": 6502,
      "art": 6503,
      "آتی": 6504,
      "ذی": 6505,
      "نچ": 6506,
      "ژانس": 6507,
      "کیک": 6508,
      "یص": 6509,
      "یکن": 6510,
      "نگون": 6511,
      "یشگی": 6512,
      "tech": 6513,
      "##ull": 6514,
      "tt": 6515,
      "vo": 6516,
      "تپ": 6517,
      "وحی": 6518,
      "یها": 6519,
      "داوط": 6520,
      "کمت": 6521,
      "بلغ": 6522,
      "black": 6523,
      "ئل": 6524,
      "سسه": 6525,
      "یشتر": 6526,
      "افک": 6527,
      "شوک": 6528,
      "وزا": 6529,
      "جزا": 6530,
      "##ine": 6531,
      "##att": 6532,
      "داوطل": 6533,
      "سمیت": 6534,
      "غه": 6535,
      "وبر": 6536,
      "وسته": 6537,
      "ریج": 6538,
      "نتو": 6539,
      "bro": 6540,
      "sq": 6541,
      "آو": 6542,
      "تگ": 6543,
      "جس": 6544,
      "رۀ": 6545,
      "شین": 6546,
      "قید": 6547,
      "قرا": 6548,
      "هبر": 6549,
      "مسل": 6550,
      "اکم": 6551,
      "زوی": 6552,
      "زوم": 6553,
      "غار": 6554,
      "فور": 6555,
      "فاز": 6556,
      "فول": 6557,
      "یوی": 6558,
      "یلت": 6559,
      "انتر": 6560,
      "منان": 6561,
      "نگذار": 6562,
      "کته": 6563,
      "غیرم": 6564,
      "che": 6565,
      "gram": 6566,
      "مسلما": 6567,
      "fe": 6568,
      "ton": 6569,
      "غزه": 6570,
      "پال": 6571,
      "یما": 6572,
      "ندگ": 6573,
      "نوب": 6574,
      "زنید": 6575,
      "الیست": 6576,
      "roso": 6577,
      "ger": 6578,
      "hp": 6579,
      "لفا": 6580,
      "یلا": 6581,
      "برا": 6582,
      "ایک": 6583,
      "ارشی": 6584,
      "کشن": 6585,
      "stra": 6586,
      "##oud": 6587,
      "وابید": 6588,
      "face": 6589,
      "va": 6590,
      "حرا": 6591,
      "دمت": 6592,
      "قبا": 6593,
      "ویم": 6594,
      "##ni": 6595,
      "دران": 6596,
      "داوم": 6597,
      "امش": 6598,
      "ودی": 6599,
      "یزو": 6600,
      "##olo": 6601,
      "iv": 6602,
      "ka": 6603,
      "یستی": 6604,
      "درج": 6605,
      "ابین": 6606,
      "150": 6607,
      "امپرا": 6608,
      "پمپ": 6609,
      "pt": 6610,
      "تکی": 6611,
      "ریدا": 6612,
      "رسا": 6613,
      "زماند": 6614,
      "جهش": 6615,
      "ell": 6616,
      "open": 6617,
      "mc": 6618,
      "nes": 6619,
      "ww": 6620,
      "سما": 6621,
      "وث": 6622,
      "کز": 6623,
      "انور": 6624,
      "نوس": 6625,
      "اکتر": 6626,
      "end": 6627,
      "form": 6628,
      "جرای": 6629,
      "مودن": 6630,
      "sup": 6631,
      "dy": 6632,
      "data": 6633,
      "son": 6634,
      "خل": 6635,
      "رایت": 6636,
      "زیل": 6637,
      "فون": 6638,
      "پز": 6639,
      "چت": 6640,
      "گس": 6641,
      "##ho": 6642,
      "موزی": 6643,
      "نیس": 6644,
      "دیل": 6645,
      "ناور": 6646,
      "مدی": 6647,
      "گیج": 6648,
      "یانو": 6649,
      "قدی": 6650,
      "رگذار": 6651,
      "مایان": 6652,
      "dow": 6653,
      "ty": 6654,
      "zon": 6655,
      "شنگ": 6656,
      "صدر": 6657,
      "وهر": 6658,
      "درگ": 6659,
      "کارآ": 6660,
      "ندرو": 6661,
      "امنی": 6662,
      "فرس": 6663,
      "اشم": 6664,
      "inst": 6665,
      "key": 6666,
      "تادن": 6667,
      "with": 6668,
      "هالی": 6669,
      "استه": 6670,
      "قرض": 6671,
      "جسد": 6672,
      "bas": 6673,
      "gre": 6674,
      "pd": 6675,
      "اا": 6676,
      "ثیر": 6677,
      "شته": 6678,
      "وژه": 6679,
      "۲۶": 6680,
      "##واه": 6681,
      "##tt": 6682,
      "ایس": 6683,
      "کمون": 6684,
      "انتها": 6685,
      "##are": 6686,
      "رانس": 6687,
      "star": 6688,
      "acc": 6689,
      "مقرر": 6690,
      "عزت": 6691,
      "cc": 6692,
      "not": 6693,
      "ائم": 6694,
      "روری": 6695,
      "زانه": 6696,
      "ورک": 6697,
      "وهم": 6698,
      "يش": 6699,
      "کیت": 6700,
      "##hn": 6701,
      "ارست": 6702,
      "ماها": 6703,
      "شیش": 6704,
      "بوش": 6705,
      "##ach": 6706,
      "cloud": 6707,
      "قصه": 6708,
      "48": 6709,
      "mp": 6710,
      "mus": 6711,
      "pp": 6712,
      "فظ": 6713,
      "يس": 6714,
      "پاد": 6715,
      "اولی": 6716,
      "افس": 6717,
      "##act": 6718,
      "ea": 6719,
      "تها": 6720,
      "رخا": 6721,
      "مگ": 6722,
      "پرا": 6723,
      "گیرم": 6724,
      "ودن": 6725,
      "رانش": 6726,
      ").": 6727,
      "cam": 6728,
      "tu": 6729,
      "جیم": 6730,
      "داز": 6731,
      "صلی": 6732,
      "قم": 6733,
      "لور": 6734,
      "پله": 6735,
      "فره": 6736,
      "ریع": 6737,
      "ابق": 6738,
      "لوگ": 6739,
      "برانگ": 6740,
      "mb": 6741,
      "رصد": 6742,
      "قوه": 6743,
      "مچ": 6744,
      "ورده": 6745,
      "میکن": 6746,
      "نگل": 6747,
      "عمد": 6748,
      "ine": 6749,
      "افسرد": 6750,
      "**": 6751,
      "55": 6752,
      "est": 6753,
      "il": 6754,
      "ow": 6755,
      "صل": 6756,
      "پد": 6757,
      "۲۸": 6758,
      "انسته": 6759,
      "ینان": 6760,
      "خطی": 6761,
      "led": 6762,
      "tran": 6763,
      "65": 6764,
      "cent": 6765,
      "im": 6766,
      "ko": 6767,
      "تریک": 6768,
      "عبه": 6769,
      "ایا": 6770,
      "داف": 6771,
      "وقع": 6772,
      "رداد": 6773,
      "قریب": 6774,
      "##ild": 6775,
      "ختم": 6776,
      "دلی": 6777,
      "کایت": 6778,
      "##fa": 6779,
      "باق": 6780,
      "ناح": 6781,
      "پنل": 6782,
      "اکنش": 6783,
      "cp": 6784,
      "ima": 6785,
      "فدا": 6786,
      "هلت": 6787,
      "انط": 6788,
      "ینتر": 6789,
      "راهن": 6790,
      "نگری": 6791,
      "لیستی": 6792,
      "منتق": 6793,
      "stu": 6794,
      "تفک": 6795,
      "شیخ": 6796,
      "##old": 6797,
      "33": 6798,
      "dia": 6799,
      "ies": 6800,
      "ner": 6801,
      "حتا": 6802,
      "رچ": 6803,
      "لج": 6804,
      "هٔ": 6805,
      "پور": 6806,
      "انل": 6807,
      "اندی": 6808,
      "واک": 6809,
      "مسو": 6810,
      "اشه": 6811,
      "ودتا": 6812,
      "فلج": 6813,
      "عفو": 6814,
      "link": 6815,
      "34": 6816,
      "cra": 6817,
      "eu": 6818,
      "ral": 6819,
      "آسم": 6820,
      "رص": 6821,
      "سیت": 6822,
      "نایت": 6823,
      "نزو": 6824,
      "هیم": 6825,
      "وص": 6826,
      "انو": 6827,
      "هایتا": 6828,
      "دومی": 6829,
      "اندرو": 6830,
      "##oot": 6831,
      "یگا": 6832,
      "busi": 6833,
      "bur": 6834,
      "cle": 6835,
      "lu": 6836,
      "ris": 6837,
      "صله": 6838,
      "طلای": 6839,
      "##hd": 6840,
      "دادگ": 6841,
      "دلش": 6842,
      "بلد": 6843,
      "صحت": 6844,
      "120": 6845,
      "ory": 6846,
      "mana": 6847,
      "pow": 6848,
      "اشته": 6849,
      "ختص": 6850,
      "لاری": 6851,
      "یانی": 6852,
      "استا": 6853,
      "هموار": 6854,
      "دانا": 6855,
      "ویش": 6856,
      "لاو": 6857,
      "##ous": 6858,
      "nge": 6859,
      "جش": 6860,
      "دپ": 6861,
      "شتی": 6862,
      "كم": 6863,
      "ومو": 6864,
      "پخت": 6865,
      "همو": 6866,
      "گفتی": 6867,
      "ردم": 6868,
      "کامپ": 6869,
      "اورا": 6870,
      "قامت": 6871,
      "مرزها": 6872,
      "!!": 6873,
      "3d": 6874,
      "95": 6875,
      "ds": 6876,
      "ress": 6877,
      "بص": 6878,
      "زه": 6879,
      "زشت": 6880,
      "عش": 6881,
      "عرف": 6882,
      "ناد": 6883,
      "پات": 6884,
      "##go": 6885,
      "ارس": 6886,
      "فرین": 6887,
      "احد": 6888,
      "rep": 6889,
      "dom": 6890,
      "نيز": 6891,
      "syst": 6892,
      "رگان": 6893,
      "زاره": 6894,
      "وزش": 6895,
      "مشاهد": 6896,
      "یتزا": 6897,
      "ولیت": 6898,
      "وسع": 6899,
      "ney": 6900,
      "dev": 6901,
      "ادرش": 6902,
      "سقط": 6903,
      "lic": 6904,
      "زنا": 6905,
      "سول": 6906,
      "سایل": 6907,
      "شات": 6908,
      "شرف": 6909,
      "نجه": 6910,
      "امب": 6911,
      "یدر": 6912,
      "اشق": 6913,
      "یتس": 6914,
      "roid": 6915,
      "وریس": 6916,
      "met": 6917,
      "##oto": 6918,
      "iew": 6919,
      "auto": 6920,
      "har": 6921,
      "xy": 6922,
      "ya": 6923,
      "عطر": 6924,
      "##ینو": 6925,
      "بره": 6926,
      "ویق": 6927,
      "افتند": 6928,
      "##ord": 6929,
      "یرین": 6930,
      "فاصل": 6931,
      "next": 6932,
      "ana": 6933,
      "sha": 6934,
      "تپه": 6935,
      "bre": 6936,
      "dv": 6937,
      "mit": 6938,
      "sd": 6939,
      "ual": 6940,
      "دق": 6941,
      "سع": 6942,
      "طوف": 6943,
      "قله": 6944,
      "قهر": 6945,
      "لکس": 6946,
      "يك": 6947,
      "کتر": 6948,
      "یزش": 6949,
      "##ui": 6950,
      "##fi": 6951,
      "راض": 6952,
      "الج": 6953,
      "ناو": 6954,
      "ورز": 6955,
      "نگو": 6956,
      "ارتا": 6957,
      "ردار": 6958,
      "شنه": 6959,
      "##ere": 6960,
      "comm": 6961,
      "لاین": 6962,
      "۱۵۰": 6963,
      "press": 6964,
      "bra": 6965,
      "sam": 6966,
      "sol": 6967,
      "حلی": 6968,
      "##ep": 6969,
      "ازو": 6970,
      "ارگ": 6971,
      "بارز": 6972,
      "دادی": 6973,
      "تبال": 6974,
      "read": 6975,
      "org": 6976,
      "ناختی": 6977,
      "عطا": 6978,
      "38": 6979,
      "85": 6980,
      "اکر": 6981,
      "بج": 6982,
      "وگر": 6983,
      "یوه": 6984,
      "مرج": 6985,
      "ویس": 6986,
      "فتح": 6987,
      "۳۰۰": 6988,
      "blue": 6989,
      "john": 6990,
      "39": 6991,
      "دتر": 6992,
      "ذات": 6993,
      "رئی": 6994,
      "##io": 6995,
      "بهش": 6996,
      "راو": 6997,
      "هرم": 6998,
      "سیست": 6999,
      "یمه": 7000,
      "وردگ": 7001,
      "rob": 7002,
      "متحده": 7003,
      "##ound": 7004,
      "av": 7005,
      "free": 7006,
      "بلاگ": 7007,
      "ذار": 7008,
      "لئ": 7009,
      "مّ": 7010,
      "وکر": 7011,
      "ومن": 7012,
      "۶۵": 7013,
      "##wn": 7014,
      "ینس": 7015,
      "بتا": 7016,
      "lay": 7017,
      "oc": 7018,
      "ru": 7019,
      "sl": 7020,
      "رترین": 7021,
      "##كر": 7022,
      "عددی": 7023,
      "ربست": 7024,
      "اوران": 7025,
      "پوشا": 7026,
      "یخواه": 7027,
      "--": 7028,
      "css": 7029,
      "dn": 7030,
      "iot": 7031,
      "tw": 7032,
      "val": 7033,
      "رما": 7034,
      "فین": 7035,
      "لتر": 7036,
      "کست": 7037,
      "##جع": 7038,
      "همت": 7039,
      "نیکی": 7040,
      "رسن": 7041,
      "نهاده": 7042,
      "یتم": 7043,
      "لیبر": 7044,
      "مراجع": 7045,
      "وردی": 7046,
      "سیری": 7047,
      "hou": 7048,
      "ظت": 7049,
      "قبر": 7050,
      "لید": 7051,
      "لگر": 7052,
      "وفی": 7053,
      "##om": 7054,
      "اینست": 7055,
      "اوند": 7056,
      "بیس": 7057,
      "اسلا": 7058,
      "نشا": 7059,
      "ریپ": 7060,
      "ابن": 7061,
      "پوس": 7062,
      "col": 7063,
      "44": 7064,
      "cs": 7065,
      "اظ": 7066,
      "حول": 7067,
      "رگاه": 7068,
      "لگ": 7069,
      "اتش": 7070,
      "نسر": 7071,
      "شرم": 7072,
      "لیپ": 7073,
      "edi": 7074,
      "ware": 7075,
      "aw": 7076,
      "js": 7077,
      "رل": 7078,
      "لله": 7079,
      "هرا": 7080,
      "هانی": 7081,
      "##dy": 7082,
      "اوب": 7083,
      "تناس": 7084,
      "مرت": 7085,
      "ویک": 7086,
      "ادبی": 7087,
      "سوق": 7088,
      "##ont": 7089,
      "مدرس": 7090,
      "tiv": 7091,
      "dead": 7092,
      "رپر": 7093,
      "هیپو": 7094,
      "group": 7095,
      "bal": 7096,
      "ov": 7097,
      "tri": 7098,
      "سح": 7099,
      "شگر": 7100,
      "هارد": 7101,
      "ومان": 7102,
      "ندم": 7103,
      "خوا": 7104,
      "بیاب": 7105,
      "نوم": 7106,
      "کلین": 7107,
      "##ark": 7108,
      "فاعی": 7109,
      "ولد": 7110,
      "یونا": 7111,
      "گارا": 7112,
      "فولا": 7113,
      "prev": 7114,
      "sen": 7115,
      "ئد": 7116,
      "دمات": 7117,
      "لخ": 7118,
      "##ینز": 7119,
      "مقص": 7120,
      "عرق": 7121,
      "rev": 7122,
      "600": 7123,
      "وستان": 7124,
      "رؤیا": 7125,
      "سحر": 7126,
      "ci": 7127,
      "fda": 7128,
      "ious": 7129,
      "nat": 7130,
      "oin": 7131,
      "شیا": 7132,
      "وما": 7133,
      "یکم": 7134,
      "منم": 7135,
      "وضعی": 7136,
      "والد": 7137,
      "عفون": 7138,
      "sea": 7139,
      "shi": 7140,
      "cb": 7141,
      "file": 7142,
      "gl": 7143,
      "king": 7144,
      "بلی": 7145,
      "سفت": 7146,
      "ضم": 7147,
      "ظلم": 7148,
      "عیب": 7149,
      "وآ": 7150,
      "انشا": 7151,
      "یاس": 7152,
      "ارتر": 7153,
      "ورید": 7154,
      "کلر": 7155,
      "سطی": 7156,
      "صدق": 7157,
      "coll": 7158,
      "ort": 7159,
      "box": 7160,
      "کراسی": 7161,
      "سعود": 7162,
      "dra": 7163,
      "del": 7164,
      "ff": 7165,
      "gps": 7166,
      "ig": 7167,
      "ob": 7168,
      "sch": 7169,
      "رفی": 7170,
      "شك": 7171,
      "لمات": 7172,
      "مبی": 7173,
      "نض": 7174,
      "۷۵": 7175,
      "انق": 7176,
      "افرا": 7177,
      "فران": 7178,
      "متنا": 7179,
      "ادم": 7180,
      "ولر": 7181,
      "block": 7182,
      "http": 7183,
      "..": 7184,
      "43": 7185,
      "cn": 7186,
      "cal": 7187,
      "rt": 7188,
      "san": 7189,
      "ذیل": 7190,
      "سلو": 7191,
      "هض": 7192,
      "پین": 7193,
      "باها": 7194,
      "هایت": 7195,
      "نداری": 7196,
      "وربین": 7197,
      "آمری": 7198,
      "live": 7199,
      "life": 7200,
      "www": 7201,
      "هضم": 7202,
      "call": 7203,
      "fra": 7204,
      "gala": 7205,
      "hol": 7206,
      "ji": 7207,
      "mat": 7208,
      "vr": 7209,
      "wal": 7210,
      "ضه": 7211,
      "قصر": 7212,
      "نتر": 7213,
      "##tu": 7214,
      "ایان": 7215,
      "نیش": 7216,
      "الای": 7217,
      "یدهای": 7218,
      "اهی": 7219,
      "آلود": 7220,
      "تقریب": 7221,
      "ریاض": 7222,
      "chi": 7223,
      "amer": 7224,
      "ama": 7225,
      "dri": 7226,
      "je": 7227,
      "py": 7228,
      "port": 7229,
      "جزی": 7230,
      "ضل": 7231,
      "قشه": 7232,
      "مرو": 7233,
      "وشم": 7234,
      "ژنو": 7235,
      "۳۶": 7236,
      "##bi": 7237,
      "دوبار": 7238,
      "الر": 7239,
      "فرادی": 7240,
      "چیه": 7241,
      "stor": 7242,
      "جلد": 7243,
      "adhd": 7244,
      "لغت": 7245,
      "sub": 7246,
      "mini": 7247,
      "64": 7248,
      "glo": 7249,
      "om": 7250,
      "soc": 7251,
      "تجه": 7252,
      "۲۹": 7253,
      "##ak": 7254,
      "##pe": 7255,
      "تره": 7256,
      "هرج": 7257,
      "ستاد": 7258,
      "ریال": 7259,
      "اختر": 7260,
      "پروژ": 7261,
      "code": 7262,
      "mod": 7263,
      "ext": 7264,
      "dav": 7265,
      "your": 7266,
      "crm": 7267,
      "desi": 7268,
      "تجهیز": 7269,
      "42": 7270,
      "men": 7271,
      "جاه": 7272,
      "شابه": 7273,
      "نری": 7274,
      "هما": 7275,
      "هیر": 7276,
      "##لر": 7277,
      "اینتر": 7278,
      "یاف": 7279,
      "داور": 7280,
      "دوپ": 7281,
      "دیان": 7282,
      "ناف": 7283,
      "زیس": 7284,
      "اهایی": 7285,
      "ردو": 7286,
      "رزا": 7287,
      "رمند": 7288,
      "##itt": 7289,
      "ختار": 7290,
      "##box": 7291,
      "ky": 7292,
      "mg": 7293,
      "xbox": 7294,
      "آه": 7295,
      "رکه": 7296,
      "نول": 7297,
      "هب": 7298,
      "هي": 7299,
      "هادی": 7300,
      "یوس": 7301,
      "هرک": 7302,
      "ریعت": 7303,
      "مرات": 7304,
      "سپر": 7305,
      "شاخ": 7306,
      "مایک": 7307,
      "mast": 7308,
      "lib": 7309,
      "api": 7310,
      "کترون": 7311,
      "io": 7312,
      "sel": 7313,
      "بلیت": 7314,
      "ریده": 7315,
      "سلا": 7316,
      "شح": 7317,
      "گانی": 7318,
      "بهت": 7319,
      "رافی": 7320,
      "برایت": 7321,
      "ماک": 7322,
      "ستید": 7323,
      "دستم": 7324,
      "ناظ": 7325,
      "نیستی": 7326,
      "ویو": 7327,
      "ویید": 7328,
      "رنا": 7329,
      "ارتم": 7330,
      "ابها": 7331,
      "آزما": 7332,
      "رهای": 7333,
      "رآور": 7334,
      "زاین": 7335,
      "pho": 7336,
      "250": 7337,
      "plus": 7338,
      "page": 7339,
      "bio": 7340,
      "51": 7341,
      "bri": 7342,
      "hon": 7343,
      "mer": 7344,
      "nf": 7345,
      "pay": 7346,
      "que": 7347,
      "ter": 7348,
      "خند": 7349,
      "دیم": 7350,
      "ذره": 7351,
      "شرک": 7352,
      "ظه": 7353,
      "فاهی": 7354,
      "وزان": 7355,
      "##وو": 7356,
      "##ph": 7357,
      "موع": 7358,
      "نگین": 7359,
      "چندی": 7360,
      "گردی": 7361,
      "دیدی": 7362,
      "inf": 7363,
      "ربط": 7364,
      "فلش": 7365,
      "lab": 7366,
      "پلاس": 7367,
      "99": 7368,
      "don": 7369,
      "fli": 7370,
      "mid": 7371,
      "part": 7372,
      "ve": 7373,
      "تکا": 7374,
      "ههای": 7375,
      "کوا": 7376,
      "یاور": 7377,
      "تحا": 7378,
      "تبار": 7379,
      "توجهی": 7380,
      "اروی": 7381,
      "##ind": 7382,
      "real": 7383,
      "حیح": 7384,
      "ائت": 7385,
      "geo": 7386,
      "scie": 7387,
      "pet": 7388,
      "سیدند": 7389,
      "house": 7390,
      "bot": 7391,
      "cro": 7392,
      "der": 7393,
      "nb": 7394,
      "sur": 7395,
      "vir": 7396,
      "فنا": 7397,
      "قیه": 7398,
      "نها": 7399,
      "ژان": 7400,
      "##نس": 7401,
      "همن": 7402,
      "ارون": 7403,
      "ارکت": 7404,
      "مخف": 7405,
      "رعون": 7406,
      "جرج": 7407,
      "##ump": 7408,
      "))": 7409,
      "37": 7410,
      "41": 7411,
      "bb": 7412,
      "cat": 7413,
      "gd": 7414,
      "mul": 7415,
      "pan": 7416,
      "ron": 7417,
      "ts": 7418,
      "vie": 7419,
      "رشت": 7420,
      "مکن": 7421,
      "ونده": 7422,
      "یرا": 7423,
      "باط": 7424,
      "دارن": 7425,
      "سرت": 7426,
      "نهم": 7427,
      "عمال": 7428,
      "وزف": 7429,
      "یستاد": 7430,
      "good": 7431,
      "wei": 7432,
      "smart": 7433,
      "ult": 7434,
      "47": 7435,
      "5g": 7436,
      "fil": 7437,
      "iz": 7438,
      "imp": 7439,
      "ny": 7440,
      "ot": 7441,
      "tel": 7442,
      "آلت": 7443,
      "ذوب": 7444,
      "رجا": 7445,
      "هیا": 7446,
      "۳۲": 7447,
      "باف": 7448,
      "انات": 7449,
      "کنت": 7450,
      "ستور": 7451,
      "محا": 7452,
      "کشش": 7453,
      "اعما": 7454,
      "ردگی": 7455,
      "ندهای": 7456,
      "راتو": 7457,
      "پیرو": 7458,
      "space": 7459,
      "bitc": 7460,
      "down": 7461,
      "card": 7462,
      "pal": 7463,
      "yo": 7464,
      "جف": 7465,
      "غی": 7466,
      "گله": 7467,
      "##ct": 7468,
      "##صا": 7469,
      "راگ": 7470,
      "کهن": 7471,
      "کنش": 7472,
      "ستعد": 7473,
      "نوان": 7474,
      "رنت": 7475,
      "اقت": 7476,
      "علما": 7477,
      "ret": 7478,
      "##oom": 7479,
      "فتاده": 7480,
      "لندی": 7481,
      "what": 7482,
      "صولا": 7483,
      "ارویی": 7484,
      "72": 7485,
      ":)": 7486,
      "ag": 7487,
      "nor": 7488,
      "nch": 7489,
      "اریک": 7490,
      "خف": 7491,
      "طابق": 7492,
      "پید": 7493,
      "یگو": 7494,
      "۳۱": 7495,
      "##cc": 7496,
      "##ين": 7497,
      "ازان": 7498,
      "استف": 7499,
      "بروی": 7500,
      "شدی": 7501,
      "اینده": 7502,
      "اوک": 7503,
      "خوک": 7504,
      "واند": 7505,
      "تفاقا": 7506,
      "rol": 7507,
      "sema": 7508,
      "high": 7509,
      "کروس": 7510,
      "cast": 7511,
      "حجت": 7512,
      "gene": 7513,
      "media": 7514,
      "bil": 7515,
      "how": 7516,
      "test": 7517,
      "خیم": 7518,
      "خصی": 7519,
      "زگ": 7520,
      "فونت": 7521,
      "نطور": 7522,
      "یاید": 7523,
      "یبت": 7524,
      "یوت": 7525,
      "ارها": 7526,
      "واج": 7527,
      "واست": 7528,
      "اهکار": 7529,
      "اهرات": 7530,
      "بازدا": 7531,
      "آیی": 7532,
      "فاق": 7533,
      "رزمی": 7534,
      "اختصا": 7535,
      "بپر": 7536,
      "max": 7537,
      "میلاد": 7538,
      "۴۰۰": 7539,
      "رادار": 7540,
      "watch": 7541,
      "pdf": 7542,
      "b2": 7543,
      "dr": 7544,
      "lon": 7545,
      "sn": 7546,
      "wood": 7547,
      "تید": 7548,
      "لیتی": 7549,
      "گلیس": 7550,
      "##gg": 7551,
      "تاخ": 7552,
      "ارهای": 7553,
      "یدی": 7554,
      "پرش": 7555,
      "امنه": 7556,
      "chro": 7557,
      "موسس": 7558,
      "photo": 7559,
      "hpv": 7560,
      "dd": 7561,
      "fo": 7562,
      "fall": 7563,
      "han": 7564,
      "mm": 7565,
      "mor": 7566,
      "tv": 7567,
      "آله": 7568,
      "بـه": 7569,
      "ثمر": 7570,
      "حما": 7571,
      "خیس": 7572,
      "شیب": 7573,
      "غات": 7574,
      "لقب": 7575,
      "یخی": 7576,
      "روتر": 7577,
      "معما": 7578,
      "بدو": 7579,
      "تمن": 7580,
      "ینال": 7581,
      "حسب": 7582,
      "##ara": 7583,
      "آلن": 7584,
      "##eld": 7585,
      "spe": 7586,
      "عیار": 7587,
      "امپر": 7588,
      "موقعی": 7589,
      "ipho": 7590,
      "point": 7591,
      "۶۰۰": 7592,
      "لابی": 7593,
      "##ype": 7594,
      "ibm": 7595,
      "tics": 7596,
      "بجز": 7597,
      "view": 7598,
      "49": 7599,
      "cv": 7600,
      "cas": 7601,
      "تایی": 7602,
      "خرس": 7603,
      "داب": 7604,
      "فلا": 7605,
      "سالا": 7606,
      "واهر": 7607,
      "یتو": 7608,
      "ردیم": 7609,
      "سبد": 7610,
      "phy": 7611,
      "یكی": 7612,
      "کبک": 7613,
      "plan": 7614,
      "line": 7615,
      "ncy": 7616,
      "iii": 7617,
      "sql": 7618,
      ")،": 7619,
      "ep": 7620,
      "fri": 7621,
      "tur": 7622,
      "van": 7623,
      "west": 7624,
      "اکی": 7625,
      "زادا": 7626,
      "لش": 7627,
      "نشت": 7628,
      "نسی": 7629,
      "هنی": 7630,
      "وئن": 7631,
      "يان": 7632,
      "توش": 7633,
      "کاره": 7634,
      "تران": 7635,
      "انتا": 7636,
      "ورها": 7637,
      "کتک": 7638,
      "ردازی": 7639,
      "نفی": 7640,
      "طرن": 7641,
      "تقال": 7642,
      "mode": 7643,
      "java": 7644,
      "dc": 7645,
      "hua": 7646,
      "now": 7647,
      "اکا": 7648,
      "سکس": 7649,
      "سلم": 7650,
      "ومت": 7651,
      "کبر": 7652,
      "گلف": 7653,
      "##ki": 7654,
      "##ير": 7655,
      "هاى": 7656,
      "ابز": 7657,
      "##ero": 7658,
      "stic": 7659,
      "state": 7660,
      "بستگ": 7661,
      "اختن": 7662,
      "شیری": 7663,
      "row": 7664,
      "دریچ": 7665,
      "وهله": 7666,
      "ess": 7667,
      "who": 7668,
      "ssl": 7669,
      "طنز": 7670,
      "david": 7671,
      "dan": 7672,
      "hc": 7673,
      "mis": 7674,
      "ئم": 7675,
      "ئول": 7676,
      "اعی": 7677,
      "حظ": 7678,
      "حصول": 7679,
      "ضان": 7680,
      "لکو": 7681,
      "وعد": 7682,
      "۳۴": 7683,
      "##نت": 7684,
      "##mb": 7685,
      "انکا": 7686,
      "کنن": 7687,
      "ترش": 7688,
      "تاسف": 7689,
      "ارج": 7690,
      "وانا": 7691,
      "erp": 7692,
      "نتیج": 7693,
      "ونین": 7694,
      "list": 7695,
      "مونی": 7696,
      "emp": 7697,
      "board": 7698,
      "وطن": 7699,
      "af": 7700,
      "bile": 7701,
      "cia": 7702,
      "fro": 7703,
      "hy": 7704,
      "hor": 7705,
      "hool": 7706,
      "lg": 7707,
      "mu": 7708,
      "rd": 7709,
      "ub": 7710,
      "ue": 7711,
      "uv": 7712,
      "ئن": 7713,
      "خز": 7714,
      "رلی": 7715,
      "رعی": 7716,
      "رزش": 7717,
      "زظ": 7718,
      "کفر": 7719,
      "۸۵": 7720,
      "‌ها": 7721,
      "##te": 7722,
      "درت": 7723,
      "روای": 7724,
      "دوس": 7725,
      "ارید": 7726,
      "معه": 7727,
      "سوپ": 7728,
      "##end": 7729,
      "رتبا": 7730,
      "کیفی": 7731,
      "arch": 7732,
      "ناهن": 7733,
      "میکنی": 7734,
      "dns": 7735,
      "56": 7736,
      "pass": 7737,
      "sou": 7738,
      "site": 7739,
      "will": 7740,
      "آف": 7741,
      "تله": 7742,
      "حش": 7743,
      "رآمد": 7744,
      "فری": 7745,
      "لثه": 7746,
      "کج": 7747,
      "کـه": 7748,
      "##نر": 7749,
      "##ka": 7750,
      "##hi": 7751,
      "موف": 7752,
      "هستن": 7753,
      "ارند": 7754,
      "کمب": 7755,
      "ناصر": 7756,
      "ریق": 7757,
      "ادای": 7758,
      "ادار": 7759,
      "کسان": 7760,
      "پرور": 7761,
      "افزو": 7762,
      "علق": 7763,
      "لحن": 7764,
      "نجم": 7765,
      "عاش": 7766,
      "ript": 7767,
      "digi": 7768,
      "کراس": 7769,
      "bank": 7770,
      "hot": 7771,
      "pos": 7772,
      "ئون": 7773,
      "بفر": 7774,
      "دۀ": 7775,
      "لك": 7776,
      "لوی": 7777,
      "نبی": 7778,
      "وهای": 7779,
      "یاز": 7780,
      "یبو": 7781,
      "۵۵": 7782,
      "##ast": 7783,
      "##پس": 7784,
      "استن": 7785,
      "داگ": 7786,
      "ترها": 7787,
      "دیون": 7788,
      "التی": 7789,
      "ستد": 7790,
      "start": 7791,
      "cop": 7792,
      "eth": 7793,
      "love": 7794,
      "sig": 7795,
      "news": 7796,
      "54": 7797,
      "are": 7798,
      "fice": 7799,
      "gold": 7800,
      "od": 7801,
      "ua": 7802,
      "آرا": 7803,
      "افته": 7804,
      "بوم": 7805,
      "رچه": 7806,
      "فكر": 7807,
      "##uc": 7808,
      "##پو": 7809,
      "##اما": 7810,
      "اتان": 7811,
      "ندان": 7812,
      "امرو": 7813,
      "اسپا": 7814,
      "ادل": 7815,
      "کسا": 7816,
      "inc": 7817,
      "پارچ": 7818,
      "رضه": 7819,
      "act": 7820,
      "class": 7821,
      "پیمای": 7822,
      "head": 7823,
      "زینو": 7824,
      "white": 7825,
      "موفقی": 7826,
      "46": 7827,
      "63": 7828,
      "b1": 7829,
      "gon": 7830,
      "ham": 7831,
      "ju": 7832,
      "uc": 7833,
      "تي": 7834,
      "دِ": 7835,
      "سست": 7836,
      "ناها": 7837,
      "وتی": 7838,
      "اقبت": 7839,
      "یتون": 7840,
      "نامن": 7841,
      "دنش": 7842,
      "لاق": 7843,
      "##arl": 7844,
      "نشینی": 7845,
      "ical": 7846,
      "user": 7847,
      "یالیس": 7848,
      "bm": 7849,
      "batt": 7850,
      "jour": 7851,
      "ora": 7852,
      "ren": 7853,
      "rad": 7854,
      "sal": 7855,
      "sun": 7856,
      "type": 7857,
      "ux": 7858,
      "win": 7859,
      "xml": 7860,
      "سپا": 7861,
      "ملو": 7862,
      "##وک": 7863,
      "درن": 7864,
      "توا": 7865,
      "انجا": 7866,
      "ویان": 7867,
      "پرسی": 7868,
      "لائ": 7869,
      "پوشی": 7870,
      "دخان": 7871,
      "رگش": 7872,
      "ang": 7873,
      "##ish": 7874,
      "top": 7875,
      "spot": 7876,
      "add": 7877,
      "fire": 7878,
      "700": 7879,
      "fir": 7880,
      "gp": 7881,
      "hel": 7882,
      "hub": 7883,
      "lan": 7884,
      "lock": 7885,
      "pub": 7886,
      "tch": 7887,
      "vide": 7888,
      "بشه": 7889,
      "رفا": 7890,
      "رزان": 7891,
      "شیل": 7892,
      "لبو": 7893,
      "هکر": 7894,
      "وزه": 7895,
      "وته": 7896,
      "##sd": 7897,
      "ازها": 7898,
      "ایتی": 7899,
      "ارزی": 7900,
      "شوق": 7901,
      "بلک": 7902,
      "##arm": 7903,
      "بتد": 7904,
      "یزن": 7905,
      "تیپ": 7906,
      "rock": 7907,
      "ویرا": 7908,
      "dio": 7909,
      "load": 7910,
      "syn": 7911,
      "هیپنو": 7912,
      "مگه": 7913,
      "لئون": 7914,
      "gt": 7915,
      "hyp": 7916,
      "ier": 7917,
      "lc": 7918,
      "more": 7919,
      "pic": 7920,
      "pen": 7921,
      "pat": 7922,
      "pack": 7923,
      "ray": 7924,
      "tool": 7925,
      "uk": 7926,
      "vol": 7927,
      "».": 7928,
      "تالی": 7929,
      "شص": 7930,
      "عزم": 7931,
      "قات": 7932,
      "۳۷": 7933,
      "۹۹": 7934,
      "##أت": 7935,
      "##انو": 7936,
      "رائ": 7937,
      "توم": 7938,
      "ندتر": 7939,
      "داق": 7940,
      "الب": 7941,
      "فرنی": 7942,
      "ردد": 7943,
      "شیء": 7944,
      "الیان": 7945,
      "والا": 7946,
      "und": 7947,
      "fort": 7948,
      "cli": 7949,
      "heal": 7950,
      "هادها": 7951,
      "خلع": 7952,
      "شصت": 7953,
      "66": 7954,
      "ben": 7955,
      "core": 7956,
      "gin": 7957,
      "tre": 7958,
      "ward": 7959,
      "جیل": 7960,
      "دمن": 7961,
      "صفت": 7962,
      "صیت": 7963,
      "ضط": 7964,
      "طرد": 7965,
      "عجب": 7966,
      "فج": 7967,
      "كسی": 7968,
      "مزم": 7969,
      "گور": 7970,
      "##يد": 7971,
      "##za": 7972,
      "انف": 7973,
      "اوه": 7974,
      "بیک": 7975,
      "گرمی": 7976,
      "قرب": 7977,
      "اسو": 7978,
      "ریسم": 7979,
      "هیج": 7980,
      "وانگ": 7981,
      "reco": 7982,
      "شتند": 7983,
      "شتاین": 7984,
      "ele": 7985,
      "tom": 7986,
      "nda": 7987,
      "dire": 7988,
      "زرق": 7989,
      "insta": 7990,
      "video": 7991,
      "4k": 7992,
      "52": 7993,
      "fer": 7994,
      "gb": 7995,
      "nolo": 7996,
      "var": 7997,
      "za": 7998,
      "؟!": 7999,
      "زت": 8000,
      "كس": 8001,
      "نط": 8002,
      "هـ": 8003,
      "وَ": 8004,
      "ومیت": 8005,
      "چاه": 8006,
      "کیش": 8007,
      "یزان": 8008,
      "۶۴": 8009,
      "##تن": 8010,
      "##يا": 8011,
      "راتی": 8012,
      "ازد": 8013,
      "ندیش": 8014,
      "ارسا": 8015,
      "بارد": 8016,
      "مشی": 8017,
      "بخور": 8018,
      "نگور": 8019,
      "##arn": 8020,
      "وشن": 8021,
      "##elt": 8022,
      "۲۵۰": 8023,
      "قفس": 8024,
      "god": 8025,
      "ular": 8026,
      "360": 8027,
      "medic": 8028,
      "rich": 8029,
      "euro": 8030,
      "tele": 8031,
      "57": 8032,
      "bor": 8033,
      "fan": 8034,
      "gue": 8035,
      "just": 8036,
      "loc": 8037,
      "mot": 8038,
      "rf": 8039,
      "sis": 8040,
      "wr": 8041,
      "wall": 8042,
      "آخ": 8043,
      "تئو": 8044,
      "سلب": 8045,
      "طین": 8046,
      "فضل": 8047,
      "مینه": 8048,
      "مضا": 8049,
      "وپا": 8050,
      "چنگ": 8051,
      "کیس": 8052,
      "یفر": 8053,
      "۴۸": 8054,
      "امله": 8055,
      "تحر": 8056,
      "سرگ": 8057,
      "سرع": 8058,
      "وربا": 8059,
      "کتا": 8060,
      "ردی": 8061,
      "ردین": 8062,
      "بگیری": 8063,
      "this": 8064,
      "رستی": 8065,
      "dex": 8066,
      "ادرس": 8067,
      "sport": 8068,
      "گاران": 8069,
      "amp": 8070,
      "boy": 8071,
      "youtu": 8072,
      "big": 8073,
      "build": 8074,
      "gdp": 8075,
      "((": 8076,
      "lor": 8077,
      "ns": 8078,
      "rs": 8079,
      "rus": 8080,
      "ذا": 8081,
      "رفر": 8082,
      "رشان": 8083,
      "هها": 8084,
      "##ld": 8085,
      "##vc": 8086,
      "ازا": 8087,
      "خوی": 8088,
      "##ویی": 8089,
      "هیأت": 8090,
      "احب": 8091,
      "ورست": 8092,
      "تأث": 8093,
      "طرق": 8094,
      "اترین": 8095,
      "##und": 8096,
      "aca": 8097,
      "blo": 8098,
      "berg": 8099,
      "park": 8100,
      "ebay": 8101,
      "base": 8102,
      "كمك": 8103,
      "cer": 8104,
      "fu": 8105,
      "hen": 8106,
      "ok": 8107,
      "ori": 8108,
      "sil": 8109,
      "tc": 8110,
      "tas": 8111,
      "ze": 8112,
      "آلی": 8113,
      "بق": 8114,
      "تگا": 8115,
      "شای": 8116,
      "فاد": 8117,
      "قاد": 8118,
      "نبه": 8119,
      "ژل": 8120,
      "۳۸": 8121,
      "##vo": 8122,
      "انوس": 8123,
      "ارکر": 8124,
      "نوح": 8125,
      "ورق": 8126,
      "نسا": 8127,
      "sty": 8128,
      "stree": 8129,
      "رتا": 8130,
      "ley": 8131,
      "chat": 8132,
      "رینا": 8133,
      "##mail": 8134,
      "conne": 8135,
      "asp": 8136,
      "paul": 8137,
      "soft": 8138,
      "ببینی": 8139,
      "drive": 8140,
      "62": 8141,
      "96": 8142,
      "doc": 8143,
      "dark": 8144,
      "fre": 8145,
      "hu": 8146,
      "hand": 8147,
      "mr": 8148,
      "md": 8149,
      "rat": 8150,
      "ten": 8151,
      "سانس": 8152,
      "صا": 8153,
      "وها": 8154,
      "##he": 8155,
      "ایای": 8156,
      "نشو": 8157,
      "تعا": 8158,
      "وزرا": 8159,
      "ولز": 8160,
      "store": 8161,
      "نماین": 8162,
      "spec": 8163,
      "ico": 8164,
      "usd": 8165,
      "جعل": 8166,
      "ures": 8167,
      "field": 8168,
      "log": 8169,
      "cryp": 8170,
      "sky": 8171,
      "front": 8172,
      "rise": 8173,
      "97": 8174,
      "bat": 8175,
      "cis": 8176,
      "dro": 8177,
      "eg": 8178,
      "hine": 8179,
      "may": 8180,
      "جره": 8181,
      "راید": 8182,
      "رلو": 8183,
      "شتا": 8184,
      "عظ": 8185,
      "فد": 8186,
      "مکه": 8187,
      "گیم": 8188,
      "۴۲": 8189,
      "##ci": 8190,
      "##چی": 8191,
      "##پر": 8192,
      "راي": 8193,
      "همس": 8194,
      "اسان": 8195,
      "بدم": 8196,
      "اخر": 8197,
      "دلق": 8198,
      "سوگ": 8199,
      "##ant": 8200,
      "رنگار": 8201,
      "map": 8202,
      "تدل": 8203,
      "##ung": 8204,
      "##umb": 8205,
      "resi": 8206,
      "##ount": 8207,
      "!!!": 8208,
      "خفه": 8209,
      "dre": 8210,
      "eq": 8211,
      "ege": 8212,
      "eff": 8213,
      "full": 8214,
      "mart": 8215,
      "بط": 8216,
      "دژ": 8217,
      "دکار": 8218,
      "دودی": 8219,
      "زگی": 8220,
      "ضلا": 8221,
      "طل": 8222,
      "قشر": 8223,
      "هلو": 8224,
      "##ure": 8225,
      "##bs": 8226,
      "##to": 8227,
      "##que": 8228,
      "دروس": 8229,
      "ازند": 8230,
      "ستث": 8231,
      "ورای": 8232,
      "اهب": 8233,
      "نگا": 8234,
      "خانو": 8235,
      "نتیک": 8236,
      "بگویی": 8237,
      "کلاسی": 8238,
      "اورم": 8239,
      "بسط": 8240,
      "رتیزو": 8241,
      "رحیم": 8242,
      "همچن": 8243,
      "ipad": 8244,
      "800": 8245,
      "ستیون": 8246,
      "۸۰۰": 8247,
      "chain": 8248,
      "insti": 8249,
      "speed": 8250,
      "دلقک": 8251,
      "aa": 8252,
      "ast": 8253,
      "bp": 8254,
      "ee": 8255,
      "jon": 8256,
      "ram": 8257,
      "ria": 8258,
      "جون": 8259,
      "لها": 8260,
      "لایی": 8261,
      "لادی": 8262,
      "لانس": 8263,
      "نِ": 8264,
      "وزد": 8265,
      "کاس": 8266,
      "##ls": 8267,
      "##ja": 8268,
      "##ُر": 8269,
      "ریگان": 8270,
      "نهی": 8271,
      "نتین": 8272,
      "شکو": 8273,
      "stand": 8274,
      "وتاکس": 8275,
      "میکنن": 8276,
      "زگش": 8277,
      "59": 8278,
      "61": 8279,
      "69": 8280,
      "bs": 8281,
      "bt": 8282,
      "ck": 8283,
      "eas": 8284,
      "fol": 8285,
      "gs": 8286,
      "gm": 8287,
      "kn": 8288,
      "ken": 8289,
      "mal": 8290,
      "ran": 8291,
      "sour": 8292,
      "بچ": 8293,
      "بکا": 8294,
      "بسا": 8295,
      "زان": 8296,
      "سانی": 8297,
      "صول": 8298,
      "طم": 8299,
      "عذر": 8300,
      "كر": 8301,
      "هت": 8302,
      "کرات": 8303,
      "یول": 8304,
      "یگی": 8305,
      "##ly": 8306,
      "رونا": 8307,
      "چیپ": 8308,
      "نشن": 8309,
      "یمنی": 8310,
      "لاش": 8311,
      "یلین": 8312,
      "شمع": 8313,
      "آزمو": 8314,
      "##ork": 8315,
      "کمیس": 8316,
      "سابقا": 8317,
      "tec": 8318,
      "مایا": 8319,
      "ado": 8320,
      "ذرت": 8321,
      "180": 8322,
      "tag": 8323,
      "cdc": 8324,
      "pix": 8325,
      "swi": 8326,
      "https": 8327,
      "قهرم": 8328,
      "ریپتو": 8329,
      "هيچ": 8330,
      "توشاپ": 8331,
      "93": 8332,
      "cf": 8333,
      "cit": 8334,
      "ire": 8335,
      "kon": 8336,
      "mas": 8337,
      "mri": 8338,
      "mess": 8339,
      "our": 8340,
      "rge": 8341,
      "tou": 8342,
      "آلا": 8343,
      "تخر": 8344,
      "رمو": 8345,
      "لانه": 8346,
      "لتا": 8347,
      "نن": 8348,
      "نمو": 8349,
      "نکه": 8350,
      "نزل": 8351,
      "وشی": 8352,
      "کما": 8353,
      "گول": 8354,
      "۳۳": 8355,
      "۴۴": 8356,
      "۴۷": 8357,
      "۹۵": 8358,
      "##ek": 8359,
      "توب": 8360,
      "توز": 8361,
      "دهۀ": 8362,
      "ارشا": 8363,
      "نوت": 8364,
      "بزا": 8365,
      "گواه": 8366,
      "اقه": 8367,
      "ودگی": 8368,
      "عدی": 8369,
      "بتن": 8370,
      "صدد": 8371,
      "coin": 8372,
      "rec": 8373,
      "مبنا": 8374,
      "##amp": 8375,
      "ford": 8376,
      "ics": 8377,
      "نقاش": 8378,
      "۱۲۰": 8379,
      "bab": 8380,
      "nci": 8381,
      "priva": 8382,
      "cpu": 8383,
      "وصف": 8384,
      "flix": 8385,
      "hyper": 8386,
      "82": 8387,
      "98": 8388,
      "bad": 8389,
      "cm": 8390,
      "gar": 8391,
      "ium": 8392,
      "ount": 8393,
      "rg": 8394,
      "rest": 8395,
      "sle": 8396,
      "sna": 8397,
      "بایل": 8398,
      "دلت": 8399,
      "رارت": 8400,
      "فرات": 8401,
      "نرو": 8402,
      "ژه": 8403,
      "کوی": 8404,
      "کالت": 8405,
      "گها": 8406,
      "یۀ": 8407,
      "##av": 8408,
      "##pi": 8409,
      "##pg": 8410,
      "##dd": 8411,
      "##ze": 8412,
      "راع": 8413,
      "بالی": 8414,
      "توت": 8415,
      "##لیک": 8416,
      "ستو": 8417,
      "بارا": 8418,
      "یمون": 8419,
      "کسر": 8420,
      "کتو": 8421,
      "پروا": 8422,
      "ودم": 8423,
      "رهی": 8424,
      "ربار": 8425,
      "اپو": 8426,
      "جوانا": 8427,
      "هندس": 8428,
      "show": 8429,
      "یگه": 8430,
      "تورها": 8431,
      "wire": 8432,
      "لیکس": 8433,
      "ldl": 8434,
      "ینوس": 8435,
      "لوتن": 8436,
      "ific": 8437,
      "برنام": 8438,
      "poly": 8439,
      "music": 8440,
      "dvd": 8441,
      "لیدی": 8442,
      "first": 8443,
      "++": 8444,
      "77": 8445,
      "92": 8446,
      ">>": 8447,
      "bel": 8448,
      "bay": 8449,
      "dm": 8450,
      "fic": 8451,
      "found": 8452,
      "hell": 8453,
      "jame": 8454,
      "litt": 8455,
      "nu": 8456,
      "name": 8457,
      "rid": 8458,
      "run": 8459,
      "xi": 8460,
      "آوا": 8461,
      "اك": 8462,
      "خاب": 8463,
      "خیا": 8464,
      "دسر": 8465,
      "رنی": 8466,
      "فیا": 8467,
      "##no": 8468,
      "##ost": 8469,
      "##ئه": 8470,
      "##ji": 8471,
      "##ینس": 8472,
      "##راس": 8473,
      "یدو": 8474,
      "نشی": 8475,
      "یمار": 8476,
      "ساک": 8477,
      "ورهای": 8478,
      "نگونه": 8479,
      "آمدی": 8480,
      "##one": 8481,
      "رهنه": 8482,
      "وسک": 8483,
      "ali": 8484,
      "off": 8485,
      "ختن": 8486,
      "arm": 8487,
      "رینگ": 8488,
      "یپل": 8489,
      "force": 8490,
      "ngo": 8491,
      "##unc": 8492,
      "law": 8493,
      "last": 8494,
      "یسک": 8495,
      "host": 8496,
      "evil": 8497,
      "care": 8498,
      "para": 8499,
      "style": 8500,
      "78": 8501,
      "91": 8502,
      "bol": 8503,
      "cur": 8504,
      "fact": 8505,
      "ku": 8506,
      "lang": 8507,
      "tes": 8508,
      "ui": 8509,
      "ye": 8510,
      "بذر": 8511,
      "رخت": 8512,
      "صیل": 8513,
      "طح": 8514,
      "لاد": 8515,
      "یشت": 8516,
      "##نز": 8517,
      "##ng": 8518,
      "##ru": 8519,
      "##ws": 8520,
      "##ya": 8521,
      "##zz": 8522,
      "##ئول": 8523,
      "##ِی": 8524,
      "##انا": 8525,
      "برگر": 8526,
      "اسف": 8527,
      "متا": 8528,
      "ورین": 8529,
      "اهها": 8530,
      "مطب": 8531,
      "عدل": 8532,
      "اخته": 8533,
      "let": 8534,
      "lev": 8535,
      "وردن": 8536,
      "تابی": 8537,
      "شهو": 8538,
      "ung": 8539,
      "##ose": 8540,
      "eco": 8541,
      "لفل": 8542,
      "very": 8543,
      "disp": 8544,
      "sony": 8545,
      "note": 8546,
      "دازید": 8547,
      "story": 8548,
      "هیرو": 8549,
      "best": 8550,
      "bell": 8551,
      "den": 8552,
      "hr": 8553,
      "mt": 8554,
      "tm": 8555,
      "xp": 8556,
      "الیس": 8557,
      "دشت": 8558,
      "رجو": 8559,
      "زع": 8560,
      "شکا": 8561,
      "صم": 8562,
      "عتی": 8563,
      "عات": 8564,
      "غلی": 8565,
      "غده": 8566,
      "فسر": 8567,
      "هارت": 8568,
      "وآن": 8569,
      "۷۲": 8570,
      "##lr": 8571,
      "نوه": 8572,
      "یمر": 8573,
      "ریقا": 8574,
      "روزن": 8575,
      "توسل": 8576,
      "اطی": 8577,
      "یتز": 8578,
      "جوک": 8579,
      "ولتی": 8580,
      "بگم": 8581,
      "وشند": 8582,
      "react": 8583,
      "any": 8584,
      "فتند": 8585,
      "alt": 8586,
      "temp": 8587,
      "chri": 8588,
      "mail": 8589,
      "shop": 8590,
      "پیچی": 8591,
      "بين": 8592,
      "ps4": 8593,
      "لیاژ": 8594,
      "53": 8595,
      "74": 8596,
      "88": 8597,
      "az": 8598,
      "bir": 8599,
      "hum": 8600,
      "hard": 8601,
      "ls": 8602,
      "ous": 8603,
      "pad": 8604,
      "فظه": 8605,
      "نترل": 8606,
      "گلی": 8607,
      "گیت": 8608,
      "یحی": 8609,
      "۴۳": 8610,
      "۵۲": 8611,
      "##ig": 8612,
      "راوی": 8613,
      "خودر": 8614,
      "متقا": 8615,
      "گذرا": 8616,
      "اشید": 8617,
      "حاج": 8618,
      "یرن": 8619,
      "زدی": 8620,
      "sto": 8621,
      "رزم": 8622,
      "learn": 8623,
      "##asp": 8624,
      "meta": 8625,
      "fore": 8626,
      "usa": 8627,
      "##irl": 8628,
      "get": 8629,
      "place": 8630,
      "conv": 8631,
      "psy": 8632,
      "احترا": 8633,
      "poli": 8634,
      ".»": 8635,
      "67": 8636,
      "68": 8637,
      "79": 8638,
      "76": 8639,
      "ball": 8640,
      "bmi": 8641,
      "ek": 8642,
      "epa": 8643,
      "jack": 8644,
      "lla": 8645,
      "well": 8646,
      "تایل": 8647,
      "ختی": 8648,
      "رعا": 8649,
      "شکس": 8650,
      "فزا": 8651,
      "لئو": 8652,
      "نبر": 8653,
      "پي": 8654,
      "پهن": 8655,
      "چیده": 8656,
      "##10": 8657,
      "##ـا": 8658,
      "انستی": 8659,
      "##الا": 8660,
      "آنی": 8661,
      "روج": 8662,
      "اوس": 8663,
      "ندین": 8664,
      "دوکس": 8665,
      "ریچ": 8666,
      "اجران": 8667,
      "ادها": 8668,
      "اشا": 8669,
      "یتل": 8670,
      "یته": 8671,
      "نتها": 8672,
      "فروشی": 8673,
      "رهنگ": 8674,
      "رانت": 8675,
      "شیگان": 8676,
      "##ili": 8677,
      "ومتر": 8678,
      "ord": 8679,
      "##utt": 8680,
      "trump": 8681,
      "opt": 8682,
      "sim": 8683,
      "resea": 8684,
      "ever": 8685,
      "روتن": 8686,
      "break": 8687,
      "کستان": 8688,
      "b12": 8689,
      "58": 8690,
      "db": 8691,
      "dut": 8692,
      "date": 8693,
      "e3": 8694,
      "fx": 8695,
      "gic": 8696,
      "hs": 8697,
      "hal": 8698,
      "hill": 8699,
      "iu": 8700,
      "ius": 8701,
      "kh": 8702,
      "look": 8703,
      "rh": 8704,
      "rou": 8705,
      "sin": 8706,
      "york": 8707,
      "؟؟": 8708,
      "لژ": 8709,
      "نصر": 8710,
      "ولف": 8711,
      "کیا": 8712,
      "گست": 8713,
      "۴۱": 8714,
      "##zo": 8715,
      "##fl": 8716,
      "بام": 8717,
      "براه": 8718,
      "یک‌": 8719,
      "دوار": 8720,
      "بیعت": 8721,
      "دیک": 8722,
      "دیش": 8723,
      "اسرا": 8724,
      "ینجا": 8725,
      "اشند": 8726,
      "فقاز": 8727,
      "وسیل": 8728,
      "وشا": 8729,
      "cour": 8730,
      "onli": 8731,
      "road": 8732,
      "یبرو": 8733,
      "itu": 8734,
      "ریتیش": 8735,
      "cla": 8736,
      "node": 8737,
      "htc": 8738,
      "بيش": 8739,
      "resp": 8740,
      "365": 8741,
      "pers": 8742,
      "guard": 8743,
      "عطف": 8744,
      "corp": 8745,
      "grand": 8746,
      "دازد": 8747,
      "brain": 8748,
      "لگن": 8749,
      "film": 8750,
      "b2b": 8751,
      "ae": 8752,
      "dou": 8753,
      "ist": 8754,
      "kill": 8755,
      "low": 8756,
      "ml": 8757,
      "pra": 8758,
      "rna": 8759,
      "tan": 8760,
      "ثار": 8761,
      "رضو": 8762,
      "بهر": 8763,
      "میا": 8764,
      "اناما": 8765,
      "ایانه": 8766,
      "اوز": 8767,
      "ندند": 8768,
      "دوک": 8769,
      "اراد": 8770,
      "رسه": 8771,
      "ریگ": 8772,
      "مسک": 8773,
      "نهتن": 8774,
      "بخوان": 8775,
      "ورزی": 8776,
      "تجار": 8777,
      "دورا": 8778,
      "مجم": 8779,
      "نته": 8780,
      "....": 8781,
      "نمى": 8782,
      "insi": 8783,
      "سلیم": 8784,
      "آرم": 8785,
      "co2": 8786,
      "count": 8787,
      "رودر": 8788,
      "پلک": 8789,
      "lex": 8790,
      "قلاب": 8791,
      "پژو": 8792,
      "roy": 8793,
      "dep": 8794,
      "تینگ": 8795,
      "یفه": 8796,
      "ngc": 8797,
      "وئی": 8798,
      "rib": 8799,
      "ctr": 8800,
      "div": 8801,
      "hip": 8802,
      "hist": 8803,
      "##arth": 8804,
      "ghost": 8805,
      "dog": 8806,
      "روتز": 8807,
      "color": 8808,
      "walk": 8809,
      "from": 8810,
      "وهایو": 8811,
      "sign": 8812,
      "گسترد": 8813,
      "73": 8814,
      "cms": 8815,
      "fle": 8816,
      "ler": 8817,
      "lat": 8818,
      "mount": 8819,
      "nas": 8820,
      "nna": 8821,
      "olo": 8822,
      "pac": 8823,
      "vic": 8824,
      "vil": 8825,
      "wp": 8826,
      "سئول": 8827,
      "عبو": 8828,
      "لفی": 8829,
      "مکس": 8830,
      "هانس": 8831,
      "یلات": 8832,
      "##ku": 8833,
      "##yo": 8834,
      "##ئر": 8835,
      "تاً": 8836,
      "ییس": 8837,
      "سیک": 8838,
      "ریکی": 8839,
      "اهش": 8840,
      "ابدا": 8841,
      "پوچ": 8842,
      "##ond": 8843,
      "دامس": 8844,
      "tim": 8845,
      "دودو": 8846,
      "ani": 8847,
      "anti": 8848,
      "رتیکو": 8849,
      "sett": 8850,
      "nta": 8851,
      "cta": 8852,
      "heart": 8853,
      "هالو": 8854,
      "لکوت": 8855,
      "ppc": 8856,
      "east": 8857,
      "award": 8858,
      "north": 8859,
      "لكه": 8860,
      "journ": 8861,
      "\".": 8862,
      "ax": 8863,
      "ban": 8864,
      "cad": 8865,
      "cell": 8866,
      "dic": 8867,
      "sand": 8868,
      "zen": 8869,
      "آيا": 8870,
      "بسر": 8871,
      "بغل": 8872,
      "حیه": 8873,
      "رِ": 8874,
      "صبا": 8875,
      "نید": 8876,
      "هف": 8877,
      "هوم": 8878,
      "واین": 8879,
      "چتر": 8880,
      "۴۶": 8881,
      "‌که": 8882,
      "##ee": 8883,
      "##fo": 8884,
      "##ایا": 8885,
      "درز": 8886,
      "میایی": 8887,
      "استی": 8888,
      "برآ": 8889,
      "آنِ": 8890,
      "نیه": 8891,
      "دویه": 8892,
      "افه": 8893,
      "بدأ": 8894,
      "اجت": 8895,
      "توسع": 8896,
      "اکرا": 8897,
      "جایز": 8898,
      "یرم": 8899,
      "stat": 8900,
      "وسنی": 8901,
      "رتش": 8902,
      "یزینس": 8903,
      "engi": 8904,
      "roll": 8905,
      "ریزر": 8906,
      "یبل": 8907,
      "isp": 8908,
      "plat": 8909,
      "ural": 8910,
      "asso": 8911,
      "160": 8912,
      "body": 8913,
      "flow": 8914,
      "berry": 8915,
      "llm": 8916,
      "cana": 8917,
      "صورتی": 8918,
      "here": 8919,
      "green": 8920,
      "شكل": 8921,
      "long": 8922,
      "bmw": 8923,
      "lcd": 8924,
      "یزانس": 8925,
      "ستثن": 8926,
      "pixel": 8927,
      "hall": 8928,
      "ling": 8929,
      "mh": 8930,
      "nv": 8931,
      "nsa": 8932,
      "ole": 8933,
      "ola": 8934,
      "path": 8935,
      "rank": 8936,
      "tar": 8937,
      "ابان": 8938,
      "تمی": 8939,
      "تیب": 8940,
      "رشید": 8941,
      "شـ": 8942,
      "شأ": 8943,
      "طبه": 8944,
      "غری": 8945,
      "غدد": 8946,
      "فقه": 8947,
      "وون": 8948,
      "پشه": 8949,
      "پُر": 8950,
      "۳۹": 8951,
      "میس": 8952,
      "باک": 8953,
      "باکس": 8954,
      "انن": 8955,
      "هاو": 8956,
      "ترال": 8957,
      "بیای": 8958,
      "افیا": 8959,
      "اداب": 8960,
      "لوط": 8961,
      "ولیان": 8962,
      "شاپ": 8963,
      "##ink": 8964,
      "ونر": 8965,
      "ولن": 8966,
      "چرت": 8967,
      "stro": 8968,
      "وسل": 8969,
      "داما": 8970,
      "عقد": 8971,
      "lee": 8972,
      "text": 8973,
      "ریمه": 8974,
      "exc": 8975,
      "assa": 8976,
      "نزال": 8977,
      "۷۰۰": 8978,
      "hdl": 8979,
      "hdr": 8980,
      "creat": 8981,
      "check": 8982,
      "dyna": 8983,
      "multi": 8984,
      "south": 8985,
      "fanta": 8986,
      "dream": 8987,
      "touch": 8988,
      "شأن": 8989,
      "bc": 8990,
      "band": 8991,
      "earth": 8992,
      "hunt": 8993,
      "lum": 8994,
      "nia": 8995,
      "oh": 8996,
      "pm": 8997,
      "pap": 8998,
      "too": 8999,
      "zero": 9000,
      "تیل": 9001,
      "ریر": 9002,
      "ربی": 9003,
      "زادی": 9004,
      "سده": 9005,
      "سنده": 9006,
      "فید": 9007,
      "وکت": 9008,
      "وابط": 9009,
      "پذ": 9010,
      "چان": 9011,
      "۵۱": 9012,
      "۹۶": 9013,
      "##لد": 9014,
      "##wa": 9015,
      "##ارو": 9016,
      "باج": 9017,
      "بریت": 9018,
      "محب": 9019,
      "مرار": 9020,
      "نهان": 9021,
      "رنک": 9022,
      "نسب": 9023,
      "سوخ": 9024,
      "کاست": 9025,
      "بنز": 9026,
      "لوس": 9027,
      "رهاد": 9028,
      "تأس": 9029,
      "زدم": 9030,
      "nev": 9031,
      "اختلا": 9032,
      "lea": 9033,
      "cho": 9034,
      "share": 9035,
      "تویی": 9036,
      "مپر": 9037,
      "phic": 9038,
      "icc": 9039,
      "adva": 9040,
      "یجی": 9041,
      "ctor": 9042,
      "140": 9043,
      "duct": 9044,
      "olu": 9045,
      "msc": 9046,
      "auth": 9047,
      "cyb": 9048,
      "hero": 9049,
      "camp": 9050,
      "رلینگ": 9051,
      "frie": 9052,
      "پيش": 9053,
      "71": 9054,
      "84": 9055,
      "bill": 9056,
      "cess": 9057,
      "dh": 9058,
      "dor": 9059,
      "fm": 9060,
      "gam": 9061,
      "gmail": 9062,
      "ula": 9063,
      "اقی": 9064,
      "ذوق": 9065,
      "رژه": 9066,
      "رکس": 9067,
      "زما": 9068,
      "عث": 9069,
      "علف": 9070,
      "١٠": 9071,
      "پنی": 9072,
      "چمن": 9073,
      "ینده": 9074,
      "##وپ": 9075,
      "##اتی": 9076,
      "##ok": 9077,
      "##xi": 9078,
      "میه": 9079,
      "نیف": 9080,
      "دیه": 9081,
      "اندلا": 9082,
      "یدل": 9083,
      "شوه": 9084,
      "شوخ": 9085,
      "ینج": 9086,
      "نقدر": 9087,
      "یابت": 9088,
      "یلن": 9089,
      "ini": 9090,
      "ind": 9091,
      "یرها": 9092,
      "ونیا": 9093,
      "ولى": 9094,
      "ster": 9095,
      "عوام": 9096,
      "remo": 9097,
      "##ith": 9098,
      "مالیا": 9099,
      "##cha": 9100,
      "کیپ": 9101,
      "ship": 9102,
      "یگرا": 9103,
      "ada": 9104,
      "world": 9105,
      "lau": 9106,
      "club": 9107,
      "وکوس": 9108,
      "pop": 9109,
      "130": 9110,
      "versi": 9111,
      "وجی": 9112,
      "یغه": 9113,
      "وناکو": 9114,
      "وگرا": 9115,
      "طفل": 9116,
      "طمع": 9117,
      "sleep": 9118,
      "83": 9119,
      "::": 9120,
      "aid": 9121,
      "aft": 9122,
      "dam": 9123,
      "dash": 9124,
      "far": 9125,
      "fit": 9126,
      "fess": 9127,
      "fbi": 9128,
      "girl": 9129,
      "iq": 9130,
      "ielt": 9131,
      "kit": 9132,
      "los": 9133,
      "mill": 9134,
      "nal": 9135,
      "pu": 9136,
      "sing": 9137,
      "yes": 9138,
      "آذر": 9139,
      "حصر": 9140,
      "دگیر": 9141,
      "رمه": 9142,
      "زها": 9143,
      "طفی": 9144,
      "عری": 9145,
      "فتا": 9146,
      "لرد": 9147,
      "موری": 9148,
      "یسا": 9149,
      "##ئون": 9150,
      "توفر": 9151,
      "ترتی": 9152,
      "ارتی": 9153,
      "گرای": 9154,
      "ینچ": 9155,
      "ویای": 9156,
      "ادند": 9157,
      "اشن": 9158,
      "اعاتی": 9159,
      "بازد": 9160,
      "ربع": 9161,
      "stri": 9162,
      "stall": 9163,
      "اردی": 9164,
      "regi": 9165,
      "شغال": 9166,
      "##oop": 9167,
      "##ise": 9168,
      "یندگ": 9169,
      "spi": 9170,
      "raid": 9171,
      "جرب": 9172,
      "فهمی": 9173,
      "اگرا": 9174,
      "رأس": 9175,
      "where": 9176,
      "pres": 9177,
      "quest": 9178,
      "hael": 9179,
      "carl": 9180,
      "صرع": 9181,
      "ولاً": 9182,
      "old": 9183,
      "lte": 9184,
      "یلتون": 9185,
      "dani": 9186,
      "یبوست": 9187,
      "duty": 9188,
      "ترتیب": 9189,
      "89": 9190,
      "ah": 9191,
      "dal": 9192,
      "dge": 9193,
      "ef": 9194,
      "fat": 9195,
      "gard": 9196,
      "hat": 9197,
      "hit": 9198,
      "ide": 9199,
      "ill": 9200,
      "mia": 9201,
      "nba": 9202,
      "sat": 9203,
      "vs": 9204,
      "vm": 9205,
      "آره": 9206,
      "بنگ": 9207,
      "حوا": 9208,
      "رتب": 9209,
      "ربو": 9210,
      "ریمی": 9211,
      "شوری": 9212,
      "عضا": 9213,
      "قیاس": 9214,
      "لبی": 9215,
      "پتو": 9216,
      "۸۸": 9217,
      "##im": 9218,
      "##em": 9219,
      "##يز": 9220,
      "##الو": 9221,
      "روى": 9222,
      "روست": 9223,
      "اوان": 9224,
      "تاو": 9225,
      "دولف": 9226,
      "الل": 9227,
      "ارگی": 9228,
      "گرف": 9229,
      "کمه": 9230,
      "نهای": 9231,
      "ادف": 9232,
      "بزنی": 9233,
      "کسى": 9234,
      "اصله": 9235,
      "شوره": 9236,
      "ونم": 9237,
      "مکث": 9238,
      "stop": 9239,
      "rei": 9240,
      "ond": 9241,
      "rome": 9242,
      "یبایی": 9243,
      "eli": 9244,
      "town": 9245,
      "like": 9246,
      "یستان": 9247,
      "هلن": 9248,
      "نینگ": 9249,
      "icle": 9250,
      "##gli": 9251,
      "نونی": 9252,
      "pod": 9253,
      "safe": 9254,
      "170": 9255,
      "cry": 9256,
      "duc": 9257,
      "qual": 9258,
      "mont": 9259,
      "capi": 9260,
      "find": 9261,
      "crea": 9262,
      "commu": 9263,
      "aven": 9264,
      "info": 9265,
      "virt": 9266,
      "خزر": 9267,
      "cert": 9268,
      "task": 9269,
      "زگیل": 9270,
      "نشناس": 9271,
      "ielts": 9272,
      "81": 9273,
      "86": 9274,
      "fish": 9275,
      "git": 9276,
      "gri": 9277,
      "gate": 9278,
      "hui": 9279,
      "ime": 9280,
      "ming": 9281,
      "non": 9282,
      "oec": 9283,
      "pg": 9284,
      "pin": 9285,
      "tro": 9286,
      "تلو": 9287,
      "جیر": 9288,
      "حلب": 9289,
      "ذان": 9290,
      "رکن": 9291,
      "سیدن": 9292,
      "صید": 9293,
      "فنگ": 9294,
      "لتی": 9295,
      "لوان": 9296,
      "پند": 9297,
      "یژ": 9298,
      "یوا": 9299,
      "یضا": 9300,
      "یستا": 9301,
      "۵۳": 9302,
      "۵۴": 9303,
      "‌ای": 9304,
      "##ey": 9305,
      "##دو": 9306,
      "##ris": 9307,
      "##dc": 9308,
      "##جت": 9309,
      "راما": 9310,
      "هاف": 9311,
      "##لاک": 9312,
      "##سیا": 9313,
      "داش": 9314,
      "اربری": 9315,
      "ستف": 9316,
      "فرت": 9317,
      "ناق": 9318,
      "ینز": 9319,
      "کاپ": 9320,
      "مجید": 9321,
      "هوس": 9322,
      "رهن": 9323,
      "رانند": 9324,
      "شاء": 9325,
      "راتین": 9326,
      "کمیت": 9327,
      "خوابی": 9328,
      "لبن": 9329,
      "stone": 9330,
      "وسا": 9331,
      "نجام": 9332,
      "tis": 9333,
      "ونیخ": 9334,
      "engli": 9335,
      "وریت": 9336,
      "وریل": 9337,
      "child": 9338,
      "ائیل": 9339,
      "atla": 9340,
      "toc": 9341,
      "ردهم": 9342,
      "یگری": 9343,
      "spf": 9344,
      "یفل": 9345,
      "phd": 9346,
      "bea": 9347,
      "110": 9348,
      "mari": 9349,
      "mics": 9350,
      "sms": 9351,
      "نزاس": 9352,
      "ssd": 9353,
      "پلاست": 9354,
      "abc": 9355,
      "رؤیت": 9356,
      "ibs": 9357,
      "fina": 9358,
      "***": 9359,
      "over": 9360,
      "sche": 9361,
      "cnn": 9362,
      "نولو": 9363,
      "miss": 9364,
      "4g": 9365,
      "bull": 9366,
      "cart": 9367,
      "ei": 9368,
      "eur": 9369,
      "fam": 9370,
      "kan": 9371,
      "kin": 9372,
      "nut": 9373,
      "ore": 9374,
      "sr": 9375,
      "sum": 9376,
      "ura": 9377,
      "uri": 9378,
      "آرد": 9379,
      "ئور": 9380,
      "بکر": 9381,
      "رعد": 9382,
      "رضی": 9383,
      "ریتا": 9384,
      "صال": 9385,
      "لمن": 9386,
      "چرم": 9387,
      "گپ": 9388,
      "یـ": 9389,
      "۴۹": 9390,
      "۵۸": 9391,
      "میق": 9392,
      "باه": 9393,
      "کارم": 9394,
      "الص": 9395,
      "بدار": 9396,
      "مهد": 9397,
      "جهل": 9398,
      "فقت": 9399,
      "یادین": 9400,
      "مسئل": 9401,
      "ولک": 9402,
      "nel": 9403,
      "مارا": 9404,
      "ant": 9405,
      "آتن": 9406,
      "ros": 9407,
      "come": 9408,
      "comma": 9409,
      "ash": 9410,
      "assi": 9411,
      "nced": 9412,
      "جیغ": 9413,
      "لیکی": 9414,
      "900": 9415,
      "ftp": 9416,
      "some": 9417,
      "apa": 9418,
      "flash": 9419,
      "tte": 9420,
      "یلاس": 9421,
      "dslr": 9422,
      "لگد": 9423,
      "cross": 9424,
      "snap": 9425,
      "oecd": 9426,
      ".\"": 9427,
      "94": 9428,
      "a1": 9429,
      "aq": 9430,
      "age": 9431,
      "bow": 9432,
      "bia": 9433,
      "gor": 9434,
      "jan": 9435,
      "llo": 9436,
      "mv": 9437,
      "matt": 9438,
      "آخه": 9439,
      "تقی": 9440,
      "ثه": 9441,
      "حبوب": 9442,
      "شلی": 9443,
      "شنی": 9444,
      "صی": 9445,
      "طو": 9446,
      "طیب": 9447,
      "لاند": 9448,
      "ننگ": 9449,
      "هژ": 9450,
      "وارت": 9451,
      "پچ": 9452,
      "یذ": 9453,
      "یگر": 9454,
      "##سک": 9455,
      "##بک": 9456,
      "##cs": 9457,
      "##ver": 9458,
      "##ju": 9459,
      "##ینا": 9460,
      "آنگ": 9461,
      "روچ": 9462,
      "رونه": 9463,
      "ایپو": 9464,
      "امبر": 9465,
      "پیگیر": 9466,
      "متخ": 9467,
      "ریشان": 9468,
      "ویند": 9469,
      "اهک": 9470,
      "لیلی": 9471,
      "لاص": 9472,
      "پنها": 9473,
      "رایس": 9474,
      "انگلس": 9475,
      "رگشت": 9476,
      "##کوف": 9477,
      "نکنی": 9478,
      "الیف": 9479,
      "alp": 9480,
      "lead": 9481,
      "chan": 9482,
      "mad": 9483,
      "##ush": 9484,
      "ict": 9485,
      "mov": 9486,
      "gear": 9487,
      "rio": 9488,
      "exa": 9489,
      "دایم": 9490,
      "tru": 9491,
      "track": 9492,
      "true": 9493,
      "supp": 9494,
      "tab": 9495,
      "ops": 9496,
      "طاع": 9497,
      "هرتز": 9498,
      "frank": 9499,
      "voip": 9500,
      "ivf": 9501,
      "burg": 9502,
      "pyth": 9503,
      "self": 9504,
      "bbc": 9505,
      "mult": 9506,
      "fox": 9507,
      "azure": 9508,
      "royal": 9509,
      "bul": 9510,
      "boot": 9511,
      "cu": 9512,
      "cust": 9513,
      "fut": 9514,
      "ix": 9515,
      "kar": 9516,
      "ker": 9517,
      "las": 9518,
      "oo": 9519,
      "oth": 9520,
      "ple": 9521,
      "pool": 9522,
      "rm": 9523,
      "tol": 9524,
      "ven": 9525,
      "wan": 9526,
      "wol": 9527,
      "wom": 9528,
      "جمل": 9529,
      "رُ": 9530,
      "سوت": 9531,
      "غص": 9532,
      "غاز": 9533,
      "نجر": 9534,
      "هگ": 9535,
      "وروف": 9536,
      "پیا": 9537,
      "یجه": 9538,
      "یرگ": 9539,
      "یسان": 9540,
      "یفی": 9541,
      "۹۷": 9542,
      "##po": 9543,
      "##يه": 9544,
      "##20": 9545,
      "##gle": 9546,
      "باگ": 9547,
      "هاکی": 9548,
      "روسو": 9549,
      "اتها": 9550,
      "من‌": 9551,
      "یدک": 9552,
      "متش": 9553,
      "##نیک": 9554,
      "بدانی": 9555,
      "ورب": 9556,
      "رویز": 9557,
      "نگشت": 9558,
      "یلون": 9559,
      "نمي": 9560,
      "یرون": 9561,
      "فاظ": 9562,
      "بحا": 9563,
      "عاج": 9564,
      "team": 9565,
      "death": 9566,
      "sem": 9567,
      "set": 9568,
      "made": 9569,
      "sho": 9570,
      "shot": 9571,
      "125": 9572,
      "lia": 9573,
      "هلک": 9574,
      "use": 9575,
      "usc": 9576,
      "moon": 9577,
      "sco": 9578,
      "ipo": 9579,
      "وکرات": 9580,
      "die": 9581,
      "serp": 9582,
      "simp": 9583,
      "اراتن": 9584,
      "desk": 9585,
      "trav": 9586,
      "450": 9587,
      "lly": 9588,
      "airb": 9589,
      "voice": 9590,
      "squa": 9591,
      "zone": 9592,
      "muse": 9593,
      "honor": 9594,
      "hcg": 9595,
      "archi": 9596,
      "motor": 9597,
      "رلوس": 9598,
      "bird": 9599,
      "87": 9600,
      "ak": 9601,
      "ay": 9602,
      "ara": 9603,
      "bin": 9604,
      "dar": 9605,
      "eo": 9606,
      "fy": 9607,
      "kind": 9608,
      "lli": 9609,
      "mou": 9610,
      "nn": 9611,
      "np": 9612,
      "pb": 9613,
      "pur": 9614,
      "pala": 9615,
      "rick": 9616,
      "sor": 9617,
      "sla": 9618,
      "vall": 9619,
      "اگا": 9620,
      "بتی": 9621,
      "حوز": 9622,
      "رزند": 9623,
      "رشناس": 9624,
      "شي": 9625,
      "ضی": 9626,
      "عدن": 9627,
      "لخت": 9628,
      "نکس": 9629,
      "پتیک": 9630,
      "یوب": 9631,
      "‌و": 9632,
      "##zy": 9633,
      "راور": 9634,
      "##ریا": 9635,
      "کارخا": 9636,
      "نیوی": 9637,
      "داپ": 9638,
      "کمد": 9639,
      "متف": 9640,
      "سره": 9641,
      "هیستر": 9642,
      "بخند": 9643,
      "ورتی": 9644,
      "گوگ": 9645,
      "اهید": 9646,
      "سوب": 9647,
      "کاک": 9648,
      "ودو": 9649,
      "دیدگ": 9650,
      "لاح": 9651,
      "یلور": 9652,
      "مثال": 9653,
      "خیز": 9654,
      "وزس": 9655,
      "inv": 9656,
      "رخان": 9657,
      "تقلا": 9658,
      "tha": 9659,
      "tho": 9660,
      "stru": 9661,
      "cos": 9662,
      "neu": 9663,
      "reg": 9664,
      "rela": 9665,
      "tia": 9666,
      "roi": 9667,
      "ختگ": 9668,
      "##ama": 9669,
      "charl": 9670,
      "make": 9671,
      "shar": 9672,
      "orga": 9673,
      "edge": 9674,
      "nti": 9675,
      "فیض": 9676,
      "blood": 9677,
      "lake": 9678,
      "وکراس": 9679,
      "dist": 9680,
      "plu": 9681,
      "##ult": 9682,
      "ارکوس": 9683,
      "نستان": 9684,
      "رسیوم": 9685,
      "ssin": 9686,
      "lyn": 9687,
      "350": 9688,
      "cape": 9689,
      "fair": 9690,
      "feed": 9691,
      "ccess": 9692,
      "رچین": 9693,
      "clean": 9694,
      "metro": 9695,
      "writ": 9696,
      "foll": 9697,
      "messa": 9698,
      "وارتز": 9699,
      "طاعون": 9700,
      "ech": 9701,
      "fur": 9702,
      "ful": 9703,
      "gal": 9704,
      "hack": 9705,
      "jet": 9706,
      "lar": 9707,
      "lou": 9708,
      "lis": 9709,
      "mel": 9710,
      "pse": 9711,
      "rss": 9712,
      "root": 9713,
      "sus": 9714,
      "ssi": 9715,
      "txt": 9716,
      "vin": 9717,
      "wo": 9718,
      "xx": 9719,
      "آجر": 9720,
      "خلو": 9721,
      "ربت": 9722,
      "سفا": 9723,
      "شیدا": 9724,
      "ضای": 9725,
      "ظن": 9726,
      "لیر": 9727,
      "مژه": 9728,
      "وکو": 9729,
      "ژنی": 9730,
      "یگز": 9731,
      "۶۶": 9732,
      "##eet": 9733,
      "##ko": 9734,
      "##كس": 9735,
      "##فو": 9736,
      "##mm": 9737,
      "##fs": 9738,
      "##fc": 9739,
      "##قیل": 9740,
      "##gr": 9741,
      "درآ": 9742,
      "میرا": 9743,
      "ازات": 9744,
      "همة": 9745,
      "یاک": 9746,
      "##سیت": 9747,
      "دوگ": 9748,
      "بیب": 9749,
      "یداری": 9750,
      "پیگ": 9751,
      "واپ": 9752,
      "ادون": 9753,
      "انتو": 9754,
      "اهند": 9755,
      "حقّ": 9756,
      "ابله": 9757,
      "بنیا": 9758,
      "لاج": 9759,
      "شبح": 9760,
      "عمه": 9761,
      "سطل": 9762,
      "ina": 9763,
      "آلپ": 9764,
      "یرید": 9765,
      "ربن": 9766,
      "##esh": 9767,
      "sti": 9768,
      "رزق": 9769,
      "رزین": 9770,
      "مرحل": 9771,
      "reb": 9772,
      "reen": 9773,
      "ream": 9774,
      "حیث": 9775,
      "کانا": 9776,
      "lege": 9777,
      "##iss": 9778,
      "تالان": 9779,
      "char": 9780,
      "مایش": 9781,
      "ینگو": 9782,
      "امورا": 9783,
      "maps": 9784,
      "ata": 9785,
      "atm": 9786,
      "tow": 9787,
      "شگری": 9788,
      "یستون": 9789,
      "spam": 9790,
      "adv": 9791,
      "raw": 9792,
      "click": 9793,
      "ctro": 9794,
      "مامو": 9795,
      "۱۸۰": 9796,
      "##ube": 9797,
      "mind": 9798,
      "prime": 9799,
      "ify": 9800,
      "capt": 9801,
      "days": 9802,
      "eye": 9803,
      "audi": 9804,
      "basic": 9805,
      "frame": 9806,
      "model": 9807,
      "nfc": 9808,
      "باطی": 9809,
      "stics": 9810,
      "لائکه": 9811,
      "swift": 9812,
      "ridge": 9813,
      "cri": 9814,
      "dl": 9815,
      "fal": 9816,
      "fere": 9817,
      "kid": 9818,
      "less": 9819,
      "lite": 9820,
      "por": 9821,
      "pun": 9822,
      "ror": 9823,
      "tp": 9824,
      "vip": 9825,
      "yu": 9826,
      "zh": 9827,
      "بید": 9828,
      "بوه": 9829,
      "بشن": 9830,
      "تبر": 9831,
      "حفر": 9832,
      "رجب": 9833,
      "زره": 9834,
      "زحل": 9835,
      "شیت": 9836,
      "طوط": 9837,
      "غیب": 9838,
      "فم": 9839,
      "فجر": 9840,
      "قوط": 9841,
      "لری": 9842,
      "لدر": 9843,
      "لوده": 9844,
      "نئ": 9845,
      "وودی": 9846,
      "کله": 9847,
      "کدی": 9848,
      "گاری": 9849,
      "یرف": 9850,
      "یبا": 9851,
      "یچه": 9852,
      "۵۶": 9853,
      "۶۸": 9854,
      "۶۱": 9855,
      "##be": 9856,
      "##sh": 9857,
      "##ker": 9858,
      "##ِن": 9859,
      "راجر": 9860,
      "رائی": 9861,
      "هم‌": 9862,
      "روهای": 9863,
      "موث": 9864,
      "یاتی": 9865,
      "داون": 9866,
      "کشا": 9867,
      "نهر": 9868,
      "نسخ": 9869,
      "بلع": 9870,
      "لیان": 9871,
      "کاهد": 9872,
      "لوئه": 9873,
      "هوک": 9874,
      "عرش": 9875,
      "طالع": 9876,
      "آرای": 9877,
      "فاو": 9878,
      "صدف": 9879,
      "تسون": 9880,
      "رودو": 9881,
      "محیطی": 9882,
      "اير": 9883,
      "nec": 9884,
      "فلس": 9885,
      "فتم": 9886,
      "فتاد": 9887,
      "ala": 9888,
      "اوره": 9889,
      "eng": 9890,
      "rose": 9891,
      "مدارا": 9892,
      "ائده": 9893,
      "main": 9894,
      "رینیو": 9895,
      "rai": 9896,
      "scan": 9897,
      "ipv": 9898,
      "جرت": 9899,
      "##ape": 9900,
      "لانو": 9901,
      "emba": 9902,
      "veri": 9903,
      "bim": 9904,
      "موسیق": 9905,
      "talk": 9906,
      "step": 9907,
      "llc": 9908,
      "brit": 9909,
      "رگوسن": 9910,
      "یلتس": 9911,
      "gramm": 9912,
      "cbd": 9913,
      "drop": 9914,
      "ختیار": 9915,
      "oled": 9916,
      "b6": 9917,
      "cup": 9918,
      "eh": 9919,
      "f1": 9920,
      "fed": 9921,
      "foot": 9922,
      "gall": 9923,
      "hart": 9924,
      "iam": 9925,
      "ige": 9926,
      "jp": 9927,
      "jd": 9928,
      "jun": 9929,
      "oli": 9930,
      "pv": 9931,
      "sv": 9932,
      "sse": 9933,
      "sound": 9934,
      "via": 9935,
      "xr": 9936,
      "xia": 9937,
      "ثر": 9938,
      "جبار": 9939,
      "حن": 9940,
      "دد": 9941,
      "شانی": 9942,
      "طارد": 9943,
      "طاق": 9944,
      "ظیم": 9945,
      "فست": 9946,
      "قوس": 9947,
      "قمر": 9948,
      "هى": 9949,
      "کید": 9950,
      "گچ": 9951,
      "۷۸": 9952,
      "##سون": 9953,
      "##kk": 9954,
      "##kh": 9955,
      "##rs": 9956,
      "##يل": 9957,
      "##zi": 9958,
      "##ندا": 9959,
      "درا": 9960,
      "کهلم": 9961,
      "باکتر": 9962,
      "اینس": 9963,
      "اینر": 9964,
      "ایف": 9965,
      "ایۀ": 9966,
      "موب": 9967,
      "موزا": 9968,
      "دهن": 9969,
      "نیکس": 9970,
      "##میو": 9971,
      "##تیو": 9972,
      "##کاک": 9973,
      "ینات": 9974,
      "یناپ": 9975,
      "ینینگ": 9976,
      "رنچ": 9977,
      "اشد": 9978,
      "دنیل": 9979,
      "بلین": 9980,
      "لیای": 9981,
      "یلز": 9982,
      "یلدا": 9983,
      "خیص": 9984,
      "طبع": 9985,
      "وشید": 9986,
      "105": 9987,
      "رتینو": 9988,
      "ned": 9989,
      "need": 9990,
      "نجی": 9991,
      "نجیر": 9992,
      "ener": 9993,
      "defe": 9994,
      "ائب": 9995,
      "ائق": 9996,
      "see": 9997,
      "limi": 9998,
      "spid": 9999
    }
  }
}