<unk>	0
<s>	0
</s>	0
▁ا	-0
▁ب	-1
▁م	-2
▁د	-3
▁ک	-4
ان	-5
را	-6
▁ه	-7
▁و	-8
ست	-9
▁ت	-10
ند	-11
ار	-12
ای	-13
ین	-14
▁در	-15
▁ش	-16
▁ن	-17
▁به	-18
▁می	-19
▁آ	-20
▁س	-21
▁خ	-22
ید	-23
ود	-24
▁که	-25
▁از	-26
▁را	-27
▁ی	-28
▁است	-29
▁با	-30
رد	-31
اد	-32
ال	-33
▁پ	-34
▁این	-35
رو	-36
ام	-37
ری	-38
▁گ	-39
▁ج	-40
▁های	-41
▁ف	-42
▁ح	-43
اه	-44
رای	-45
▁کن	-46
▁آن	-47
▁ع	-48
ما	-49
▁چ	-50
ور	-51
▁ز	-52
▁یک	-53
یم	-54
▁تو	-55
شت	-56
لی	-57
▁هم	-58
▁ق	-59
▁برای	-60
▁،	-61
اب	-62
ات	-63
سی	-64
▁بر	-65
فت	-66
▁شد	-67
ون	-68
▁ها	-69
▁ر	-70
یر	-71
▁کرد	-72
▁رو	-73
▁ان	-74
از	-75
▁خو	-76
▁مو	-77
▁من	-78
ول	-79
گر	-80
▁خود	-81
اری	-82
لا	-83
می	-84
انی	-85
تی	-86
ها	-87
▁دار	-88
▁ط	-89
▁نی	-90
اده	-91
▁.	-92
▁شما	-93
▁ای	-94
▁بود	-95
▁کار	-96
گی	-97
▁بی	-98
▁باش	-99
▁توان	-100
▁ص	-101
▁ده	-102
▁یا	-103
▁دا	-104
وی	-105
تر	-106
▁تا	-107
زی	-108
▁کند	-109
مان	-110
▁ما	-111
▁شود	-112
▁او	-113
خت	-114
ایی	-115
▁کنند	-116
▁شده	-117
▁سال	-118
▁ام	-119
▁(	-120
▁دو	-121
▁تر	-122
اید	-123
کن	-124
اس	-125
وان	-126
یت	-127
▁کنید	-128
▁هر	-129
▁دی	-130
▁خواه	-131
▁هست	-132
▁پی	-133
▁مح	-134
ده	-135
▁آم	-136
دی	-137
انه	-138
▁مت	-139
نی	-140
▁مع	-141
▁ل	-142
اق	-143
▁اف	-144
بی	-145
شته	-146
▁اند	-147
رک	-148
های	-149
▁اما	-150
قی	-151
▁باشد	-152
له	-153
▁دست	-154
نگ	-155
گاه	-156
رت	-157
بت	-158
▁دارد	-159
▁حال	-160
▁نمی	-161
دا	-162
▁دان	-163
▁ال	-164
عی	-165
▁آنها	-166
▁فر	-167
یا	-168
▁1	-169
▁غ	-170
▁باید	-171
▁سر	-172
مای	-173
▁«	-174
▁اگر	-175
▁کم	-176
▁مش	-177
▁شو	-178
فته	-179
▁کش	-180
کی	-181
▁استف	-182
▁استفاده	-183
اره	-184
بر	-185
▁چه	-186
▁بد	-187
▁چی	-188
▁باز	-189
▁گر	-190
رف	-191
▁اس	-192
جه	-193
وز	-194
امه	-195
▁بسی	-196
▁نظ	-197
جود	-198
نده	-199
ارد	-200
▁دیگر	-201
رار	-202
اف	-203
▁)	-204
عه	-205
ادی	-206
▁نش	-207
▁مد	-208
▁مورد	-209
▁2	-210
▁هستند	-211
▁انج	-212
▁:	-213
▁نو	-214
که	-215
اخت	-216
▁زی	-217
▁"	-218
..	-219
▁تح	-220
▁روز	-221
▁دهد	-222
▁کرده	-223
▁رس	-224
▁داد	-225
وری	-226
عت	-227
▁پیش	-228
▁انجام	-229
▁بین	-230
یل	-231
دید	-232
▁ند	-233
▁گذ	-234
▁مق	-235
▁تن	-236
▁مرد	-237
رب	-238
نین	-239
▁نیست	-240
عد	-241
▁عن	-242
▁زند	-243
▁بخ	-244
▁همه	-245
زار	-246
▁زم	-247
▁تواند	-248
▁مس	-249
وم	-250
▁وجود	-251
▁جه	-252
▁تم	-253
رگ	-254
اط	-255
▁انت	-256
مل	-257
▁بیشت	-258
▁اج	-259
قت	-260
شی	-261
ستان	-262
▁نیز	-263
▁مه	-264
الی	-265
▁مان	-266
▁اح	-267
▁پس	-268
▁قرار	-269
▁عنوان	-270
فر	-271
خص	-272
▁ساز	-273
رات	-274
▁بز	-275
▁خواهد	-276
▁ات	-277
یده	-278
▁»	-279
ریک	-280
رکت	-281
▁هی	-282
▁مم	-283
▁روی	-284
▁توس	-285
▁داشته	-286
▁۱	-287
▁وی	-288
امل	-289
رس	-290
وا	-291
وت	-292
ونه	-293
▁کشور	-294
▁زندگی	-295
▁داشت	-296
▁دانش	-297
نامه	-298
▁واق	-299
▁سی	-300
کر	-301
▁راه	-302
▁مط	-303
▁ممکن	-304
وه	-305
کل	-306
▁...	-307
▁گفت	-308
▁همچ	-309
قه	-310
خی	-311
▁شوند	-312
▁جم	-313
▁هایی	-314
▁تص	-315
▁تج	-316
▁گو	-317
▁مج	-318
▁داده	-319
چه	-320
رز	-321
▁بیشتر	-322
▁-	-323
نا	-324
ینه	-325
▁بازی	-326
▁نه	-327
امی	-328
▁دارند	-329
اص	-330
▁بسیار	-331
▁اط	-332
▁کردن	-333
▁نظر	-334
▁شرکت	-335
ایت	-336
▁هیچ	-337
▁نیاز	-338
ورد	-339
▁زمان	-340
گان	-341
به	-342
▁طور	-343
▁نام	-344
▁بزرگ	-345
▁نق	-346
▁کس	-347
فا	-348
▁افرا	-349
▁یکی	-350
▁کنیم	-351
00	-352
▁اول	-353
کان	-354
عات	-355
▁اص	-356
▁آمریک	-357
مو	-358
▁شه	-359
ازه	-360
▁برنامه	-361
ره	-362
▁کل	-363
▁۲	-364
▁تنها	-365
▁جدید	-366
▁دور	-367
▁تغ	-368
▁مث	-369
▁بگ	-370
حی	-371
ورت	-372
▁S	-373
ترین	-374
▁حد	-375
▁ساخت	-376
▁قد	-377
▁چند	-378
مند	-379
▁کمک	-380
▁پرو	-381
▁همچنین	-382
▁نا	-383
سان	-384
▁مردم	-385
▁زن	-386
زای	-387
کت	-388
▁فق	-389
▁پای	-390
▁ماه	-391
▁شن	-392
صد	-393
er	-394
شه	-395
▁نشان	-396
شن	-397
ارت	-398
لب	-399
▁قب	-400
▁اد	-401
▁تغی	-402
▁سو	-403
▁بار	-404
جا	-405
لام	-406
▁چیزی	-407
اند	-408
▁واقع	-409
با	-410
رائ	-411
ژی	-412
▁C	-413
سته	-414
ستم	-415
شد	-416
▁آز	-417
▁اش	-418
لف	-419
▁توانید	-420
▁گی	-421
▁توسط	-422
▁ایر	-423
باره	-424
▁اع	-425
▁دهند	-426
▁بن	-427
جاد	-428
▁همان	-429
شان	-430
▁A	-431
▁تمام	-432
▁ایجاد	-433
رم	-434
▁صورت	-435
▁جن	-436
ابل	-437
▁آموز	-438
زه	-439
▁بیم	-440
▁فقط	-441
▁آی	-442
▁آیا	-443
▁ترین	-444
▁کو	-445
▁بعد	-446
▁بل	-447
▁خدا	-448
▁ك	-449
ضی	-450
▁کنم	-451
کس	-452
▁دل	-453
▁ری	-454
▁جهان	-455
▁تب	-456
▁طول	-457
▁بیش	-458
▁ض	-459
▁خی	-460
in	-461
قد	-462
▁مص	-463
بان	-464
خاب	-465
▁تع	-466
▁مانند	-467
▁بسیاری	-468
▁فع	-469
گونه	-470
▁تول	-471
▁ارت	-472
▁نس	-473
▁حتی	-474
▁باشید	-475
▁سه	-476
▁هن	-477
▁انتخاب	-478
▁اینکه	-479
▁افراد	-480
▁خط	-481
▁رفت	-482
▁3	-483
▁یاد	-484
▁آمریکا	-485
رسی	-486
▁اطلا	-487
فی	-488
▁تق	-489
تاب	-490
▁نم	-491
بود	-492
راه	-493
▁برخی	-494
on	-495
▁وق	-496
▁ث	-497
▁مهم	-498
رده	-499
نج	-500
▁زمانی	-501
▁خان	-502
▁غیر	-503
مت	-504
▁گرفت	-505
لیل	-506
ژه	-507
▁M	-508
کار	-509
قیق	-510
شم	-511
▁کردند	-512
مال	-513
▁وا	-514
▁سا	-515
▁دول	-516
مین	-517
▁جای	-518
وش	-519
▁ایران	-520
سه	-521
▁باشند	-522
▁برا	-523
▁P	-524
▁کود	-525
ثر	-526
▁20	-527
an	-528
وب	-529
▁افزای	-530
وق	-531
گری	-532
▁دهید	-533
▁بخش	-534
وع	-535
توان	-536
▁درصد	-537
▁افزایش	-538
ادر	-539
▁نمای	-540
▁کتاب	-541
▁آب	-542
صی	-543
▁چیز	-544
▁فیل	-545
▁مرا	-546
▁تغییر	-547
▁حا	-548
▁هد	-549
▁دوست	-550
▁چرا	-551
یس	-552
ساس	-553
بال	-554
▁!	-555
نه	-556
▁تولید	-557
ریق	-558
▁شان	-559
▁ذ	-560
▁غذ	-561
ابی	-562
▁فکر	-563
▁شب	-564
▁شخص	-565
▁فرو	-566
گیری	-567
▁[	-568
▁همین	-569
▁مشت	-570
اتی	-571
▁بع	-572
▁دید	-573
▁توانند	-574
▁اطلاعات	-575
▁توجه	-576
▁علا	-577
یدا	-578
▁سیا	-579
▁ایم	-580
▁ارائ	-581
▁حق	-582
رح	-583
▁میلی	-584
▁ارائه	-585
▁گرو	-586
▁اخ	-587
ایل	-588
▁کسی	-589
▁عم	-590
▁مشکل	-591
▁چگونه	-592
▁“	-593
▁تش	-594
▁فعال	-595
ونی	-596
زینه	-597
▁وقتی	-598
جی	-599
▁گرد	-600
▁؟	-601
▁بوده	-602
▁خار	-603
ینی	-604
▁مخت	-605
▁بدون	-606
▁خانه	-607
وط	-608
▁خد	-609
واه	-610
▁نخ	-611
.»	-612
▁فرد	-613
ریت	-614
▁اعت	-615
▁B	-616
▁شدن	-617
رام	-618
▁احت	-619
▁هنگ	-620
▁تان	-621
▁بودند	-622
▁عل	-623
▁گروه	-624
▁عمل	-625
▁پیدا	-626
▁زیادی	-627
▁گرفته	-628
▁درباره	-629
عیت	-630
مات	-631
▁پر	-632
▁–	-633
▁کاه	-634
گز	-635
▁ژ	-636
▁T	-637
▁آل	-638
روز	-639
اً	-640
▁اه	-641
▁جنگ	-642
▁معم	-643
ستی	-644
رزش	-645
بط	-646
ar	-647
راحی	-648
▁سیستم	-649
یشه	-650
▁”	-651
▁حس	-652
▁5	-653
▁کاهش	-654
روع	-655
قل	-656
▁شهر	-657
▁خیلی	-658
تما	-659
▁سازمان	-660
مه	-661
▁مطال	-662
۰۰	-663
▁خوب	-664
▁برد	-665
▁بال	-666
▁4	-667
▁اقت	-668
▁شروع	-669
▁مختلف	-670
▁دولت	-671
وس	-672
▁کام	-673
لیه	-674
تان	-675
▁D	-676
▁دنی	-677
▁اب	-678
▁سپ	-679
راین	-680
بار	-681
ران	-682
فق	-683
گه	-684
▁کننده	-685
▁19	-686
▁متح	-687
▁اقتص	-688
▁نفر	-689
▁سایت	-690
▁شک	-691
▁احساس	-692
وند	-693
الات	-694
▁قابل	-695
▁فیلم	-696
▁چنین	-697
▁اولین	-698
▁موض	-699
or	-700
▁آورد	-701
▁دلیل	-702
رین	-703
▁دیگری	-704
▁قبل	-705
▁I	-706
رکز	-707
یمی	-708
▁نز	-709
▁بناب	-710
▁خر	-711
▁بهترین	-712
▁انسان	-713
▁میان	-714
▁منط	-715
▁دارید	-716
▁مست	-717
ودی	-718
▁منت	-719
▁تاری	-720
▁جل	-721
▁کسب	-722
▁روش	-723
▁صح	-724
باط	-725
▁خواهید	-726
وار	-727
یدن	-728
▁حرف	-729
▁پرد	-730
▁همیشه	-731
▁انگ	-732
▁ندارد	-733
▁فرا	-734
▁زبان	-735
▁افت	-736
▁تلا	-737
▁خواهند	-738
عث	-739
▁بنابراین	-740
▁باعث	-741
▁ولی	-742
▁دن	-743
زش	-744
▁کوچ	-745
اران	-746
▁ارو	-747
▁s	-748
▁موفق	-749
▁لی	-750
ربه	-751
▁پاس	-752
▁قدرت	-753
▁خانو	-754
en	-755
▁دارای	-756
▁ارتباط	-757
▁گذشته	-758
▁مخ	-759
▁کاری	-760
▁توسعه	-761
▁مدت	-762
شتی	-763
▁201	-764
▁دریا	-765
▁سط	-766
▁کی	-767
▁طراحی	-768
▁معمول	-769
ازی	-770
ظه	-771
بین	-772
▁اجتما	-773
▁طریق	-774
▁محص	-775
سم	-776
▁قان	-777
کرد	-778
▁دنبال	-779
▁G	-780
▁اروپ	-781
▁H	-782
al	-783
▁تلاش	-784
▁سری	-785
▁جهانی	-786
پی	-787
▁پذ	-788
▁پا	-789
▁آنچه	-790
▁شم	-791
ویی	-792
▁هدف	-793
▁تعد	-794
اهی	-795
▁بهتر	-796
▁ِ	-797
at	-798
ضر	-799
▁آینده	-800
▁دانشگاه	-801
طور	-802
▁وب	-803
▁بالا	-804
▁شامل	-805
▁هنوز	-806
▁صد	-807
▁زیر	-808
▁محصول	-809
سر	-810
نان	-811
▁خاص	-812
فاق	-813
▁سن	-814
ریان	-815
▁اصلی	-816
▁اجتماعی	-817
میم	-818
▁سرمای	-819
▁قط	-820
▁بدن	-821
▁R	-822
▁نوع	-823
اشت	-824
▁خرید	-825
▁سرمایه	-826
▁تک	-827
▁فروش	-828
مد	-829
▁سای	-830
▁اتفاق	-831
▁مدی	-832
▁مسئ	-833
ندی	-834
▁اشت	-835
▁ادامه	-836
▁,	-837
▁E	-838
▁حدود	-839
▁المل	-840
▁تجربه	-841
▁گفته	-842
▁خوا	-843
▁دریافت	-844
ولی	-845
اسب	-846
▁ته	-847
▁تحقیق	-848
▁مصرف	-849
▁جز	-850
▁دادن	-851
▁کمی	-852
من	-853
▁؛	-854
▁زنان	-855
▁تأ	-856
▁احتمال	-857
▁نسبت	-858
ثیر	-859
هن	-860
▁پاسخ	-861
▁زیرا	-862
افی	-863
▁خانواده	-864
▁اندازه	-865
اور	-866
فاوت	-867
شر	-868
ضای	-869
▁درمان	-870
▁همراه	-871
صو	-872
▁حاضر	-873
▁بررسی	-874
▁رشد	-875
▁۳	-876
▁منطقه	-877
▁مالی	-878
▁هزینه	-879
▁ساعت	-880
▁آموزش	-881
▁کوچک	-882
دیل	-883
ضا	-884
▁نیرو	-885
▁L	-886
▁حالی	-887
▁چهار	-888
▁نزدی	-889
▁میلیون	-890
دود	-891
▁ندار	-892
▁کنتر	-893
▁جام	-894
فه	-895
رش	-896
▁فعالیت	-897
▁هفته	-898
▁المللی	-899
▁اید	-900
▁وقت	-901
▁گزار	-902
▁F	-903
▁شی	-904
▁6	-905
▁خوبی	-906
▁خاط	-907
▁شرای	-908
es	-909
▁حل	-910
▁کلی	-911
▁شرایط	-912
▁اض	-913
کنون	-914
▁قر	-915
▁کنترل	-916
▁نتی	-917
▁میز	-918
▁تبدیل	-919
▁پزش	-920
▁صف	-921
▁داخ	-922
▁زمین	-923
▁کامل	-924
دم	-925
▁تحت	-926
▁مل	-927
▁هزار	-928
▁ارزش	-929
▁اک	-930
▁ترکی	-931
▁نتیجه	-932
▁وارد	-933
▁طبی	-934
▁دوره	-935
▁امروز	-936
▁پنج	-937
▁ظ	-938
▁ست	-939
▁بده	-940
▁۲۰	-941
لاح	-942
▁آغ	-943
▁کا	-944
ربی	-945
▁کان	-946
▁بتوان	-947
▁موضوع	-948
▁گست	-949
▁سطح	-950
▁جا	-951
یدی	-952
▁تصمیم	-953
▁بلکه	-954
▁مسی	-955
▁چون	-956
▁ار	-957
▁بیماری	-958
▁بازار	-959
▁خصو	-960
▁اجازه	-961
▁گوید	-962
▁گزارش	-963
▁جمه	-964
▁W	-965
▁اخت	-966
ازم	-967
دار	-968
▁شاید	-969
▁صحبت	-970
بری	-971
▁مرب	-972
▁۱۹	-973
▁صن	-974
شار	-975
▁­	-976
▁چشم	-977
▁سب	-978
▁تعداد	-979
▁سخ	-980
▁مدیریت	-981
▁مواد	-982
▁شدند	-983
▁گذاری	-984
le	-985
▁پول	-986
حه	-987
▁پایان	-988
it	-989
▁متحده	-990
▁شکل	-991
▁دلار	-992
▁وز	-993
▁آخ	-994
▁سازی	-995
▁مثال	-996
▁ره	-997
▁آسی	-998
▁گیر	-999
▁وض	-1000
▁اغ	-1001
▁N	-1002
▁سل	-1003
▁آغاز	-1004
▁بیشتری	-1005
وست	-1006
گران	-1007
رژی	-1008
ئی	-1009
▁برابر	-1010
▁درست	-1011
شق	-1012
ندان	-1013
▁ایالات	-1014
گرد	-1015
▁مغ	-1016
▁واقعی	-1017
▁سلام	-1018
▁بگیر	-1019
▁سف	-1020
▁هستید	-1021
دام	-1022
ندگان	-1023
عنی	-1024
▁طرف	-1025
▁ابت	-1026
▁کردم	-1027
▁جمله	-1028
▁خطر	-1029
▁خوش	-1030
یره	-1031
▁دنیا	-1032
▁نگاه	-1033
▁7	-1034
بران	-1035
ic	-1036
▁مثل	-1037
▁نوی	-1038
▁اغلب	-1039
▁حمای	-1040
▁مک	-1041
▁گیری	-1042
▁اروپا	-1043
رون	-1044
▁مربوط	-1045
▁اینجا	-1046
▁۵	-1047
ابت	-1048
▁جان	-1049
▁چین	-1050
▁بح	-1051
▁پذیر	-1052
▁امکان	-1053
در	-1054
▁منظ	-1055
▁اساس	-1056
▁مطالعه	-1057
▁یعنی	-1058
▁جو	-1059
کو	-1060
▁مناسب	-1061
▁نبود	-1062
▁/	-1063
▁محدود	-1064
▁شوید	-1065
▁عب	-1066
▁رسد	-1067
▁خاطر	-1068
▁تاریخ	-1069
▁حض	-1070
▁نزدیک	-1071
▁دیگران	-1072
بته	-1073
▁کسانی	-1074
▁تیم	-1075
▁سرا	-1076
▁پروژه	-1077
▁مشخص	-1078
رخ	-1079
▁زمینه	-1080
▁طی	-1081
اپ	-1082
▁حمایت	-1083
▁شناخت	-1084
▁قیم	-1085
▁گونه	-1086
نت	-1087
برد	-1088
▁انرژی	-1089
▁شبکه	-1090
▁لازم	-1091
مانی	-1092
▁آزمای	-1093
▁گیرد	-1094
▁امن	-1095
انس	-1096
قات	-1097
▁خدمات	-1098
▁هنگامی	-1099
▁یافت	-1100
▁آش	-1101
▁نگه	-1102
▁عمو	-1103
اله	-1104
▁فی	-1105
▁البته	-1106
دن	-1107
کاری	-1108
▁خواب	-1109
▁گوی	-1110
▁رای	-1111
میت	-1112
ویر	-1113
▁هوا	-1114
▁روسی	-1115
▁مرت	-1116
▁فل	-1117
▁موجود	-1118
▁اکنون	-1119
▁8	-1120
صل	-1121
▁t	-1122
▁داریم	-1123
▁طب	-1124
▁اقتصادی	-1125
▁رابط	-1126
اقل	-1127
▁۴	-1128
ولو	-1129
تری	-1130
▁نف	-1131
▁کافی	-1132
▁بدان	-1133
رض	-1134
▁کودکان	-1135
▁نمایش	-1136
▁کاملا	-1137
▁قانون	-1138
▁حی	-1139
ائ	-1140
جر	-1141
▁خون	-1142
▁تقری	-1143
▁توصی	-1144
▁سایر	-1145
▁سپس	-1146
شید	-1147
▁رود	-1148
▁اعلام	-1149
این	-1150
ویت	-1151
▁بان	-1152
ئیس	-1153
اح	-1154
▁سریع	-1155
▁سیاسی	-1156
▁قیمت	-1157
بانی	-1158
اسی	-1159
▁ملی	-1160
▁انتظ	-1161
▁دخ	-1162
▁نخواه	-1163
▁شخصی	-1164
▁ي	-1165
▁اقد	-1166
▁كه	-1167
▁نت	-1168
▁آزمایش	-1169
▁پیشر	-1170
▁رنگ	-1171
▁جامعه	-1172
▁پرداخت	-1173
▁سفر	-1174
اشته	-1175
▁مرگ	-1176
▁رسید	-1177
▁داستان	-1178
▁تقریبا	-1179
▁درک	-1180
▁شناس	-1181
▁9	-1182
روری	-1183
▁بهبود	-1184
▁کمتر	-1185
ro	-1186
▁دارم	-1187
▁ساخته	-1188
▁هرگز	-1189
▁تکن	-1190
لاف	-1191
▁یاب	-1192
▁لب	-1193
▁فرز	-1194
▁بعضی	-1195
▁حقی	-1196
▁طبیعی	-1197
▁موارد	-1198
re	-1199
▁محی	-1200
▁محیط	-1201
گو	-1202
امبر	-1203
▁پرس	-1204
▁ساده	-1205
▁کودک	-1206
▁مذ	-1207
▁انتق	-1208
▁حف	-1209
جوی	-1210
ریم	-1211
▁درخ	-1212
▁محت	-1213
امات	-1214
▁200	-1215
▁لح	-1216
▁خارج	-1217
▁رابطه	-1218
▁سخت	-1219
▁صفحه	-1220
خانه	-1221
▁روسیه	-1222
▁نقش	-1223
▁عو	-1224
▁عمومی	-1225
ونت	-1226
▁ویژه	-1227
▁کنار	-1228
▁10	-1229
▁ایده	-1230
شین	-1231
▁رق	-1232
▁یافته	-1233
▁موفقیت	-1234
▁فرص	-1235
▁هو	-1236
▁تما	-1237
▁دوم	-1238
is	-1239
▁سیاست	-1240
▁موق	-1241
▁حداقل	-1242
▁آنجا	-1243
▁آماده	-1244
▁افرادی	-1245
▁بودن	-1246
▁حقوق	-1247
▁حفظ	-1248
▁سوی	-1249
▁مشکلات	-1250
اهای	-1251
▁حساب	-1252
he	-1253
▁مجمو	-1254
▁حک	-1255
▁نکن	-1256
▁تل	-1257
▁ببین	-1258
▁دقیق	-1259
ئن	-1260
هایی	-1261
▁خداوند	-1262
وده	-1263
▁سرعت	-1264
▁حرکت	-1265
▁انگلی	-1266
اک	-1267
ارک	-1268
ولوژی	-1269
▁رفتار	-1270
ذار	-1271
▁صرف	-1272
▁تاثیر	-1273
▁۲۰۱	-1274
▁دستگاه	-1275
▁کشورهای	-1276
▁جست	-1277
▁ور	-1278
▁بو	-1279
▁نب	-1280
صر	-1281
▁آنان	-1282
▁قادر	-1283
▁O	-1284
▁حرفه	-1285
▁جوان	-1286
▁علاوه	-1287
غان	-1288
▁خواست	-1289
▁خواهیم	-1290
راح	-1291
▁تغیی	-1292
▁جلو	-1293
▁رئیس	-1294
▁دوباره	-1295
ایج	-1296
▁میزان	-1297
اهده	-1298
▁فرم	-1299
▁غذایی	-1300
▁جایی	-1301
ابع	-1302
الت	-1303
▁مف	-1304
لق	-1305
ion	-1306
▁نک	-1307
طه	-1308
▁امید	-1309
▁حم	-1310
▁U	-1311
▁متفاوت	-1312
ac	-1313
مندان	-1314
▁علیه	-1315
▁تخ	-1316
▁برخ	-1317
▁آمد	-1318
▁انتظار	-1319
▁انگی	-1320
هنگ	-1321
▁مب	-1322
▁خارجی	-1323
▁سراسر	-1324
▁درد	-1325
▁نویس	-1326
افه	-1327
جو	-1328
▁عض	-1329
▁راح	-1330
▁آید	-1331
▁بیان	-1332
▁مادر	-1333
▁خورد	-1334
راک	-1335
▁آوری	-1336
▁هنگام	-1337
▁برق	-1338
▁گاهی	-1339
▁آمریکایی	-1340
▁آسیب	-1341
▁عکس	-1342
▁بپ	-1343
▁شر	-1344
▁آزاد	-1345
▁پیشنه	-1346
▁تف	-1347
▁دیده	-1348
▁باور	-1349
▁خبر	-1350
بات	-1351
▁وضعیت	-1352
طان	-1353
▁دهه	-1354
▁هستیم	-1355
گیر	-1356
▁دسترسی	-1357
قدر	-1358
▁آمده	-1359
راف	-1360
▁بخشی	-1361
داری	-1362
▁داشتن	-1363
واست	-1364
▁واقعا	-1365
▁معت	-1366
▁بیمار	-1367
▁روند	-1368
▁o	-1369
▁کوت	-1370
کیل	-1371
▁برگ	-1372
▁طولانی	-1373
▁نتایج	-1374
▁مشاهده	-1375
▁معمولا	-1376
▁زیاد	-1377
▁حقیقت	-1378
▁اشتب	-1379
ظت	-1380
▁دختر	-1381
▁تجاری	-1382
▁گل	-1383
▁دهیم	-1384
ستگی	-1385
▁فشار	-1386
▁پایین	-1387
گار	-1388
▁سعی	-1389
▁مسل	-1390
▁اینتر	-1391
▁نشده	-1392
▁برو	-1393
▁یه	-1394
افق	-1395
om	-1396
▁منتشر	-1397
وریه	-1398
▁ساله	-1399
▁مدیر	-1400
▁مشتریان	-1401
قق	-1402
▁امنیت	-1403
as	-1404
ادا	-1405
▁هنر	-1406
داف	-1407
▁حضور	-1408
▁جذ	-1409
▁شناخته	-1410
▁خواهم	-1411
واره	-1412
▁ترس	-1413
عا	-1414
▁عملی	-1415
ابه	-1416
▁کیف	-1417
▁حمل	-1418
قا	-1419
▁۶	-1420
سانی	-1421
▁مبت	-1422
▁معنی	-1423
بور	-1424
▁رخ	-1425
اندن	-1426
▁نباید	-1427
▁اضافه	-1428
دیگر	-1429
▁عالی	-1430
▁مهارت	-1431
▁مکان	-1432
ing	-1433
▁فه	-1434
▁فران	-1435
آمد	-1436
▁خور	-1437
▁ایشان	-1438
▁کنندگان	-1439
جب	-1440
▁محصولات	-1441
▁مدل	-1442
▁نظامی	-1443
▁فرصت	-1444
▁متو	-1445
▁لذ	-1446
▁سنگ	-1447
▁مطم	-1448
el	-1449
▁بندی	-1450
ومت	-1451
▁غذا	-1452
▁مرح	-1453
▁تلف	-1454
▁V	-1455
تیک	-1456
▁اسرائ	-1457
▁استرات	-1458
دان	-1459
▁بچه	-1460
▁خش	-1461
▁c	-1462
▁ابزار	-1463
▁همکاری	-1464
▁استراتژی	-1465
▁حالا	-1466
▁رسانه	-1467
▁خلا	-1468
▁توانایی	-1469
▁آور	-1470
▁موسی	-1471
▁مبار	-1472
▁بودم	-1473
▁درخواست	-1474
▁دقی	-1475
ابط	-1476
▁نخست	-1477
▁اقتصاد	-1478
خه	-1479
▁بینی	-1480
▁تمرکز	-1481
▁منابع	-1482
تن	-1483
▁بعدی	-1484
▁کلا	-1485
▁مرکز	-1486
▁چیست	-1487
▁سمت	-1488
الب	-1489
▁بس	-1490
▁ثبت	-1491
روی	-1492
▁اعتم	-1493
▁توانیم	-1494
▁m	-1495
ادل	-1496
▁روشن	-1497
▁طرح	-1498
▁جنسی	-1499
▁نوشت	-1500
▁نوشته	-1501
▁اشاره	-1502
قای	-1503
▁اشتباه	-1504
ou	-1505
▁جمع	-1506
▁روابط	-1507
خصص	-1508
تل	-1509
امین	-1510
▁محل	-1511
et	-1512
ين	-1513
▁آگاه	-1514
▁کدام	-1515
▁نیستند	-1516
▁گویند	-1517
هایت	-1518
▁توصیه	-1519
▁حمله	-1520
▁مرحله	-1521
▁علاقه	-1522
▁مسیر	-1523
▁هستم	-1524
▁منظور	-1525
یه	-1526
▁افز	-1527
▁فراه	-1528
▁خودش	-1529
▁عملکرد	-1530
▁پیام	-1531
▁خودتان	-1532
▁دقیقه	-1533
▁پیشنهاد	-1534
▁شغ	-1535
کنان	-1536
▁اکثر	-1537
▁فراهم	-1538
▁اعتماد	-1539
▁مر	-1540
▁p	-1541
▁دارو	-1542
ناسی	-1543
▁متوجه	-1544
▁داخلی	-1545
▁منجر	-1546
▁داشتند	-1547
▁اتح	-1548
ائل	-1549
▁پشتی	-1550
▁بسته	-1551
▁توضی	-1552
▁پوست	-1553
واج	-1554
▁جهت	-1555
▁نور	-1556
▁سوم	-1557
▁گزینه	-1558
▁جمهوری	-1559
▁مجموعه	-1560
▁مقدار	-1561
▁مدرس	-1562
▁نگر	-1563
▁افغان	-1564
▁صنعت	-1565
▁تغییرات	-1566
▁تشکیل	-1567
▁تحقیقات	-1568
▁بگیرید	-1569
▁سرو	-1570
▁متن	-1571
▁اسل	-1572
▁کال	-1573
▁پیشرفت	-1574
▁مها	-1575
▁اتاق	-1576
▁یابد	-1577
▁گرفتن	-1578
▁پوش	-1579
▁مراق	-1580
oo	-1581
▁استخ	-1582
▁بازاری	-1583
▁خصوص	-1584
▁آخرین	-1585
ارس	-1586
▁ماشین	-1587
ریف	-1588
▁مشتری	-1589
▁نرم	-1590
▁وسی	-1591
▁گیرند	-1592
▁قل	-1593
▁تشخی	-1594
▁*	-1595
▁گردد	-1596
▁تصویر	-1597
پل	-1598
ناه	-1599
داشت	-1600
▁انگلیسی	-1601
▁برس	-1602
▁مستق	-1603
رال	-1604
صیل	-1605
▁هوش	-1606
اصله	-1607
▁شاه	-1608
▁باشیم	-1609
▁ندارند	-1610
▁رژ	-1611
رافی	-1612
▁توضیح	-1613
▁کاربران	-1614
▁دادند	-1615
...	-1616
▁سخن	-1617
▁اثر	-1618
▁نهایت	-1619
▁تس	-1620
▁دوستان	-1621
▁)،	-1622
▁باقی	-1623
am	-1624
ریه	-1625
▁اسپ	-1626
▁تمرین	-1627
▁توانست	-1628
▁اجرای	-1629
لیغ	-1630
▁انقل	-1631
▁تبلیغ	-1632
▁نمود	-1633
▁مدرسه	-1634
▁بهره	-1635
▁ظاه	-1636
▁امر	-1637
▁نامه	-1638
▁الله	-1639
▁کوتاه	-1640
▁معن	-1641
▁خوان	-1642
▁نداشت	-1643
ظیم	-1644
▁پشت	-1645
▁آزادی	-1646
واع	-1647
▁شا	-1648
▁برخورد	-1649
▁نفت	-1650
لاین	-1651
▁جریان	-1652
راق	-1653
▁وزن	-1654
».	-1655
▁اهداف	-1656
▁اث	-1657
عیین	-1658
▁شکست	-1659
▁انواع	-1660
▁تعیین	-1661
میز	-1662
▁واقعیت	-1663
▁بانک	-1664
▁تشخیص	-1665
▁گسترده	-1666
▁عشق	-1667
▁بلند	-1668
▁آلمان	-1669
▁مرتبط	-1670
▁اجرا	-1671
▁سوریه	-1672
▁لو	-1673
▁نبا	-1674
▁مردان	-1675
تح	-1676
▁قه	-1677
▁مشابه	-1678
▁مغز	-1679
il	-1680
بیه	-1681
▁رژیم	-1682
نو	-1683
▁ارس	-1684
▁تمامی	-1685
▁بخواه	-1686
▁آموزان	-1687
▁تهدید	-1688
▁مسئله	-1689
▁اق	-1690
▁بیرون	-1691
▁استاند	-1692
▁مناط	-1693
▁اهمیت	-1694
▁ابتدا	-1695
▁توافق	-1696
▁چندین	-1697
اتر	-1698
▁محقق	-1699
▁بحث	-1700
▁سلامت	-1701
▁ازد	-1702
▁حالت	-1703
▁آت	-1704
▁اطمین	-1705
▁مطمئن	-1706
▁موسیقی	-1707
▁یکدیگر	-1708
کا	-1709
▁اسرائیل	-1710
▁داخل	-1711
گل	-1712
▁محاف	-1713
آن	-1714
▁ویژ	-1715
▁قس	-1716
▁کیفیت	-1717
▁بش	-1718
▁کردیم	-1719
▁همچنان	-1720
▁اطمینان	-1721
▁آنلاین	-1722
ادگی	-1723
▁عرض	-1724
▁تای	-1725
▁مال	-1726
▁ازدواج	-1727
▁لذت	-1728
▁میل	-1729
یز	-1730
▁عق	-1731
ناک	-1732
▁بگو	-1733
▁قوی	-1734
▁نمونه	-1735
▁اینترنت	-1736
▁جلوگیری	-1737
▁سود	-1738
مون	-1739
▁الکت	-1740
▁سرطان	-1741
▁پزشکی	-1742
▁آسان	-1743
▁پدر	-1744
▁سفید	-1745
▁اولیه	-1746
انیا	-1747
▁اعضای	-1748
▁۱۰	-1749
▁کشف	-1750
▁محلی	-1751
▁نسخه	-1752
▁ذهن	-1753
▁دهنده	-1754
▁مقاله	-1755
سال	-1756
▁).	-1757
▁ویژگی	-1758
▁افغانستان	-1759
▁نکنید	-1760
▁فیزی	-1761
▁ورزش	-1762
▁فرانسه	-1763
▁سلول	-1764
گون	-1765
▁گوش	-1766
▁هسته	-1767
▁دک	-1768
▁اختی	-1769
▁خصوصی	-1770
▁پیچ	-1771
▁تکنولوژی	-1772
▁i	-1773
▁رد	-1774
▁برند	-1775
▁قسمت	-1776
ad	-1777
ادت	-1778
▁۷	-1779
▁الع	-1780
▁بازگ	-1781
ed	-1782
▁K	-1783
▁جدا	-1784
کته	-1785
▁راست	-1786
▁زنده	-1787
▁۸	-1788
▁کامپی	-1789
▁ارز	-1790
روس	-1791
ئو	-1792
▁ماند	-1793
▁نخواهد	-1794
▁پرداز	-1795
▁وس	-1796
▁معل	-1797
وبی	-1798
امت	-1799
الد	-1800
▁درآمد	-1801
▁ارسال	-1802
▁سوال	-1803
▁دوران	-1804
▁عد	-1805
▁فوق	-1806
▁اخیر	-1807
▁بگذار	-1808
▁قرن	-1809
▁پلی	-1810
▁میلیارد	-1811
▁شدید	-1812
جات	-1813
us	-1814
▁آرام	-1815
▁جمهور	-1816
▁بازاریابی	-1817
▁درو	-1818
▁سالم	-1819
وای	-1820
▁صل	-1821
▁نیم	-1822
▁گسترش	-1823
▁پشتیبانی	-1824
▁۲۰۰	-1825
▁تجارت	-1826
▁فرهنگ	-1827
▁انتقال	-1828
▁ترکیه	-1829
▁تفاوت	-1830
▁۹	-1831
ظر	-1832
▁پاک	-1833
▁ترک	-1834
لیت	-1835
▁قوان	-1836
▁بک	-1837
▁دفا	-1838
▁جدی	-1839
▁دری	-1840
▁کره	-1841
▁مناطق	-1842
ئم	-1843
مز	-1844
▁رفتن	-1845
▁مسائل	-1846
▁پژ	-1847
حل	-1848
▁انسانی	-1849
▁آقای	-1850
▁تازه	-1851
▁پل	-1852
▁J	-1853
▁کجا	-1854
رفی	-1855
رامپ	-1856
▁دانشجوی	-1857
▁b	-1858
▁نقطه	-1859
▁اوقات	-1860
▁کارهای	-1861
▁جدیدی	-1862
ol	-1863
تور	-1864
چار	-1865
ندگی	-1866
▁هند	-1867
▁امریک	-1868
▁ترامپ	-1869
▁15	-1870
▁l	-1871
▁12	-1872
▁متخصص	-1873
اصل	-1874
▁ناب	-1875
▁ران	-1876
خته	-1877
▁اقدام	-1878
▁شخصیت	-1879
000	-1880
▁آتش	-1881
▁قلب	-1882
▁تری	-1883
▁موا	-1884
▁فرزند	-1885
▁مبارزه	-1886
▁خودم	-1887
▁آدم	-1888
▁فلس	-1889
▁تماس	-1890
▁تحلیل	-1891
▁دنیای	-1892
▁هفت	-1893
▁نشانه	-1894
▁نیروهای	-1895
بح	-1896
▁طبق	-1897
▁مهاج	-1898
▁احتمالا	-1899
▁موس	-1900
▁d	-1901
▁اله	-1902
▁قصد	-1903
▁افس	-1904
▁نیروی	-1905
▁یادگیری	-1906
ابق	-1907
▁شبیه	-1908
▁دانست	-1909
▁پژوه	-1910
▁قوانین	-1911
▁ریزی	-1912
▁ساختمان	-1913
▁قدیمی	-1914
▁مجبور	-1915
▁امرو	-1916
▁ایست	-1917
▁مقابل	-1918
▁حز	-1919
▁چقدر	-1920
▁معرفی	-1921
نم	-1922
▁18	-1923
▁گوگل	-1924
▁مشترک	-1925
شناس	-1926
▁بنی	-1927
▁بگوی	-1928
▁تصور	-1929
▁شدت	-1930
سک	-1931
▁صلح	-1932
▁نص	-1933
▁صبح	-1934
▁گذار	-1935
ch	-1936
ولیت	-1937
▁موقعیت	-1938
▁عا	-1939
▁فضای	-1940
▁مستقیم	-1941
▁بشر	-1942
▁گرم	-1943
▁عراق	-1944
▁جستجو	-1945
▁بزرگترین	-1946
▁مای	-1947
▁بازدید	-1948
▁امنی	-1949
▁مقای	-1950
▁اتحادی	-1951
▁درون	-1952
▁سیاه	-1953
▁رسیدن	-1954
▁تض	-1955
▁مقایسه	-1956
▁نکته	-1957
▁».	-1958
▁تاب	-1959
▁عبارت	-1960
ینگ	-1961
▁فصل	-1962
▁چطور	-1963
▁فرامو	-1964
▁اختیار	-1965
رن	-1966
▁دچار	-1967
▁]	-1968
▁کانادا	-1969
▁عدم	-1970
وک	-1971
▁وظ	-1972
▁اعمال	-1973
▁ارزی	-1974
▁علمی	-1975
انیه	-1976
ویزی	-1977
▁اتحادیه	-1978
▁مطالعات	-1979
▁حاصل	-1980
زا	-1981
کنش	-1982
شا	-1983
▁متع	-1984
سیون	-1985
▁تأثیر	-1986
▁راحتی	-1987
▁ى	-1988
▁افزار	-1989
▁معتقد	-1990
▁ضد	-1991
▁بازگشت	-1992
▁میک	-1993
▁فردی	-1994
▁تلفن	-1995
▁همانطور	-1996
وتر	-1997
▁گذاشت	-1998
روت	-1999
▁داری	-2000
▁لباس	-2001
صه	-2002
راب	-2003
گیرد	-2004
▁فا	-2005
▁ژاپ	-2006
▁نداشته	-2007
▁امنیتی	-2008
▁روان	-2009
▁رسمی	-2010
▁مثبت	-2011
▁دانم	-2012
▁مفید	-2013
▁جایگز	-2014
▁رسیده	-2015
▁دوربین	-2016
▁تروری	-2017
▁پد	-2018
▁زده	-2019
▁دسترس	-2020
▁توانم	-2021
▁کمپ	-2022
▁صاد	-2023
▁تلویزی	-2024
▁میتوان	-2025
▁نح	-2026
▁شیر	-2027
▁انداز	-2028
▁دانند	-2029
▁مدا	-2030
ثی	-2031
▁حزب	-2032
▁عامل	-2033
▁حیوان	-2034
▁مشاور	-2035
دهای	-2036
گذ	-2037
وتی	-2038
▁عص	-2039
ay	-2040
▁آس	-2041
▁زد	-2042
▁منب	-2043
and	-2044
عهد	-2045
▁روزانه	-2046
▁علی	-2047
▁اطراف	-2048
▁برج	-2049
▁فراموش	-2050
▁ارزیابی	-2051
جیت	-2052
کرا	-2053
▁متوس	-2054
."	-2055
▁وح	-2056
▁ژن	-2057
▁العاده	-2058
▁امیدوار	-2059
▁شهرو	-2060
▁محققان	-2061
▁رفته	-2062
▁موثر	-2063
▁شناسایی	-2064
▁عرب	-2065
▁نقل	-2066
▁زود	-2067
▁مراقبت	-2068
▁قانونی	-2069
▁دمو	-2070
▁عمی	-2071
▁شش	-2072
▁خودشان	-2073
▁عضو	-2074
▁بمان	-2075
▁دیجیت	-2076
▁درجه	-2077
▁جمعیت	-2078
▁کامپیوتر	-2079
لال	-2080
ئین	-2081
▁اشتراک	-2082
گفت	-2083
▁ذخ	-2084
▁خوردن	-2085
▁چرخ	-2086
▁اسلامی	-2087
▁دش	-2088
آوری	-2089
▁سبک	-2090
▁خاصی	-2091
▁کلاس	-2092
▁دولتی	-2093
▁روح	-2094
▁سرد	-2095
▁دستی	-2096
▁پایه	-2097
هنگی	-2098
▁لحظه	-2099
▁پروت	-2100
▁موتور	-2101
سون	-2102
ent	-2103
▁تعریف	-2104
▁آف	-2105
▁قرآن	-2106
▁هدایت	-2107
▁ریا	-2108
▁زیست	-2109
وزه	-2110
▁حذ	-2111
▁پرواز	-2112
رگی	-2113
▁چال	-2114
▁وزیر	-2115
سیس	-2116
ri	-2117
عده	-2118
▁انگیز	-2119
▁همس	-2120
ستانی	-2121
▁بزرگی	-2122
زهایی	-2123
▁دع	-2124
▁دهم	-2125
▁علت	-2126
▁فوت	-2127
ویه	-2128
▁مطرح	-2129
▁مواجه	-2130
▁افتد	-2131
▁پزشک	-2132
▁دانشجویان	-2133
▁منبع	-2134
▁انقلاب	-2135
لود	-2136
▁امام	-2137
▁چیزهایی	-2138
لاً	-2139
▁فض	-2140
▁دندان	-2141
▁n	-2142
▁شمالی	-2143
▁اگرچه	-2144
اها	-2145
رور	-2146
▁کلمه	-2147
▁نکرده	-2148
▁واکنش	-2149
سیم	-2150
▁فرهنگی	-2151
▁دشم	-2152
▁مؤ	-2153
▁موجب	-2154
▁مبتلا	-2155
▁سازد	-2156
نگی	-2157
▁ضروری	-2158
▁f	-2159
▁تحصیل	-2160
▁ببر	-2161
▁تاک	-2162
▁انتخابات	-2163
رونی	-2164
آی	-2165
▁ـ	-2166
▁ورود	-2167
▁لا	-2168
▁حذف	-2169
▁هوشمند	-2170
عتی	-2171
▁برگزار	-2172
▁نکرد	-2173
انت	-2174
▁جذب	-2175
▁کارت	-2176
▁علائم	-2177
▁پلیس	-2178
▁دفاع	-2179
▁لین	-2180
▁دانلود	-2181
▁تصا	-2182
▁امروزه	-2183
▁ثابت	-2184
▁منح	-2185
▁حوزه	-2186
▁اساسی	-2187
▁واح	-2188
▁بارد	-2189
▁ببینید	-2190
▁ویت	-2191
▁ساختار	-2192
ریب	-2193
▁of	-2194
▁فار	-2195
st	-2196
ورتی	-2197
▁فنا	-2198
یش	-2199
▁a	-2200
▁•	-2201
▁تست	-2202
▁ماده	-2203
▁استاندارد	-2204
▁زیب	-2205
▁متوسط	-2206
▁نگران	-2207
▁عاشق	-2208
رالی	-2209
▁صدای	-2210
▁ترکیب	-2211
ته	-2212
جم	-2213
▁تمای	-2214
▁ثروت	-2215
▁نجات	-2216
گردان	-2217
لند	-2218
▁پسر	-2219
▁روید	-2220
▁ستاره	-2221
▁معنای	-2222
ابقه	-2223
▁بخوان	-2224
▁تنظیم	-2225
روف	-2226
▁St	-2227
▁فرمان	-2228
وران	-2229
▁مخال	-2230
▁آموزشی	-2231
▁محتوای	-2232
▁ترتی	-2233
▁محب	-2234
▁امور	-2235
▁محافظت	-2236
سب	-2237
▁پژوهش	-2238
▁مدرن	-2239
▁اصلاح	-2240
▁بگیرد	-2241
▁حکومت	-2242
▁بدانید	-2243
▁دیدگاه	-2244
▁مسلمان	-2245
▁ظاهر	-2246
▁چالش	-2247
▁پیچیده	-2248
▁ماهی	-2249
راحت	-2250
▁فاصله	-2251
▁شغل	-2252
▁30	-2253
▁دکتر	-2254
▁شع	-2255
▁مرک	-2256
▁فایل	-2257
▁فناوری	-2258
▁شیوه	-2259
ارکت	-2260
▁پذی	-2261
▁دیدن	-2262
▁خواندن	-2263
▁ماد	-2264
▁قبلی	-2265
وص	-2266
▁اپ	-2267
▁ارتش	-2268
سازی	-2269
▁بریت	-2270
▁کاربرد	-2271
▁قاب	-2272
▁مسئول	-2273
▁سق	-2274
وانی	-2275
▁کلیدی	-2276
▁پست	-2277
▁رقابت	-2278
رمان	-2279
▁میش	-2280
غال	-2281
▁قطع	-2282
▁شیمی	-2283
▁لیست	-2284
▁رهبری	-2285
ژن	-2286
▁کشته	-2287
ot	-2288
▁لط	-2289
ra	-2290
وریت	-2291
▁معمولاً	-2292
▁میکن	-2293
▁درمانی	-2294
▁بالای	-2295
▁نگرانی	-2296
▁نخستین	-2297
▁ایت	-2298
▁گاز	-2299
▁شگفت	-2300
ایع	-2301
▁خشونت	-2302
▁خودرو	-2303
ادهای	-2304
▁متوق	-2305
ow	-2306
وح	-2307
▁قرا	-2308
لاگ	-2309
▁مانده	-2310
▁زیبا	-2311
▁همسر	-2312
▁جنوبی	-2313
▁امریکا	-2314
▁آد	-2315
▁آفریق	-2316
▁آورده	-2317
▁متوقف	-2318
▁مقامات	-2319
▁آخر	-2320
▁بای	-2321
▁جالب	-2322
▁ترتیب	-2323
ig	-2324
ut	-2325
▁جزئی	-2326
▁مسئولیت	-2327
▁والد	-2328
▁بتواند	-2329
▁اختص	-2330
▁دانید	-2331
▁گفتند	-2332
▁مهند	-2333
id	-2334
▁وسیله	-2335
▁ملل	-2336
زارت	-2337
▁هشت	-2338
▁مقد	-2339
▁مجاز	-2340
▁عف	-2341
▁پو	-2342
▁جشن	-2343
▁خوشح	-2344
▁ذخیره	-2345
▁مرز	-2346
▁فرآی	-2347
▁199	-2348
▁اين	-2349
iv	-2350
▁بیماران	-2351
▁جایگزین	-2352
شناسی	-2353
▁استرس	-2354
▁مگر	-2355
▁نوز	-2356
▁ول	-2357
رایی	-2358
▁علم	-2359
▁پارک	-2360
▁سرویس	-2361
▁دانشمندان	-2362
un	-2363
▁In	-2364
▁اعتق	-2365
▁ناشی	-2366
▁شماره	-2367
وله	-2368
▁شدم	-2369
▁اینها	-2370
▁عوامل	-2371
▁وزارت	-2372
▁تی	-2373
▁بند	-2374
▁تور	-2375
▁داند	-2376
▁مهمی	-2377
▁اقدامات	-2378
▁منفی	-2379
▁سع	-2380
▁ظرف	-2381
▁قرارد	-2382
▁خدمت	-2383
▁گران	-2384
ایه	-2385
▁عرضه	-2386
▁بزن	-2387
رانی	-2388
▁11	-2389
▁سرز	-2390
▁افتاد	-2391
ur	-2392
گانه	-2393
▁نماید	-2394
▁استرالی	-2395
▁کنی	-2396
▁هوایی	-2397
▁پیرو	-2398
▁محبوب	-2399
▁کشورها	-2400
▁قدر	-2401
▁عمیق	-2402
▁اسلام	-2403
▁نیازهای	-2404
▁جواب	-2405
▁تکرار	-2406
▁اندازی	-2407
ادش	-2408
▁زدن	-2409
▁تقویت	-2410
▁تد	-2411
اظ	-2412
▁دروغ	-2413
▁فرست	-2414
▁موش	-2415
▁باشم	-2416
ec	-2417
▁The	-2418
▁صورتی	-2419
ماز	-2420
▁شویم	-2421
ابان	-2422
▁تصاویر	-2423
▁اخلا	-2424
لس	-2425
يد	-2426
▁نرخ	-2427
▁بالاتر	-2428
▁تاریخی	-2429
جان	-2430
▁فهم	-2431
▁مقا	-2432
▁آوردن	-2433
▁فرآیند	-2434
کاران	-2435
▁رشته	-2436
▁فرزندان	-2437
خش	-2438
▁ارشد	-2439
▁دانیم	-2440
▁نهایی	-2441
▁ایرانی	-2442
ربانی	-2443
▁ملا	-2444
▁تهیه	-2445
▁معرض	-2446
▁خواسته	-2447
▁کف	-2448
▁ذکر	-2449
▁کری	-2450
▁عمر	-2451
▁ایمیل	-2452
میل	-2453
▁کاربر	-2454
▁غرب	-2455
▁سلاح	-2456
▁w	-2457
▁مساف	-2458
▁مشارکت	-2459
▁همواره	-2460
▁کد	-2461
▁مزای	-2462
▁دام	-2463
▁محک	-2464
▁نسل	-2465
▁بله	-2466
▁موضو	-2467
▁پوشش	-2468
▁عملیات	-2469
▁قابلیت	-2470
▁هشد	-2471
راج	-2472
▁نصب	-2473
▁نوشتن	-2474
▁اختصاص	-2475
خصوص	-2476
▁صاح	-2477
▁نفس	-2478
▁کاملاً	-2479
▁کارکنان	-2480
▁عه	-2481
▁مشغ	-2482
داران	-2483
▁e	-2484
ختی	-2485
▁کشتی	-2486
فع	-2487
▁50	-2488
▁برسد	-2489
▁بحران	-2490
▁ناپ	-2491
▁خانم	-2492
▁دسته	-2493
▁مرکزی	-2494
▁هتل	-2495
▁دیجیتال	-2496
▁اطلاعاتی	-2497
▁خلق	-2498
▁دشوار	-2499
▁توی	-2500
▁مند	-2501
▁اعتقاد	-2502
▁دین	-2503
▁طلا	-2504
▁مجد	-2505
▁سالگی	-2506
▁کشاور	-2507
▁بگیرند	-2508
▁جد	-2509
▁حفا	-2510
▁ممن	-2511
▁قبول	-2512
▁چینی	-2513
▁روزنامه	-2514
▁۱۵	-2515
افت	-2516
▁معنا	-2517
▁فیزیکی	-2518
▁دموکرا	-2519
وف	-2520
▁یون	-2521
▁خلاق	-2522
▁اداره	-2523
عیف	-2524
▁100	-2525
سا	-2526
سات	-2527
ter	-2528
▁صند	-2529
▁پار	-2530
▁مي	-2531
▁حیوانات	-2532
ation	-2533
▁زندان	-2534
▁خودمان	-2535
▁والدین	-2536
▁عوض	-2537
▁پرت	-2538
▁روزی	-2539
ag	-2540
▁سگ	-2541
حات	-2542
▁بم	-2543
▁ژو	-2544
▁وعده	-2545
راری	-2546
▁ژاپن	-2547
▁مستقل	-2548
▁محدودیت	-2549
▁غربی	-2550
▁نویسنده	-2551
▁13	-2552
▁تقسیم	-2553
▁احساسات	-2554
اصر	-2555
▁شمار	-2556
جعه	-2557
▁تصوی	-2558
▁واقعاً	-2559
▁تلویزیون	-2560
▁25	-2561
▁اکت	-2562
▁کیل	-2563
▁گردش	-2564
▁استاد	-2565
ذیر	-2566
▁مز	-2567
▁گوشی	-2568
▁کلمات	-2569
قیه	-2570
▁تمایل	-2571
ذی	-2572
▁رایگان	-2573
▁سلامتی	-2574
ورک	-2575
▁الان	-2576
▁زیبایی	-2577
▁مختلفی	-2578
▁مشغول	-2579
▁دفت	-2580
▁قدرتمند	-2581
▁ناخ	-2582
تا	-2583
▁هرچ	-2584
▁واحد	-2585
زو	-2586
▁عی	-2587
▁نظام	-2588
▁داشتم	-2589
▁گاه	-2590
▁علوم	-2591
▁مناف	-2592
▁لحاظ	-2593
▁گذاشته	-2594
▁غل	-2595
شنبه	-2596
▁متر	-2597
▁عین	-2598
▁واب	-2599
▁اقامت	-2600
▁اروپایی	-2601
).	-2602
▁کوه	-2603
▁متحد	-2604
▁مذه	-2605
▁برقرار	-2606
▁X	-2607
▁قا	-2608
▁سرب	-2609
▁کشت	-2610
▁قدم	-2611
▁چنان	-2612
تون	-2613
جمه	-2614
▁16	-2615
▁باره	-2616
▁مخاط	-2617
▁رت	-2618
▁نتوان	-2619
▁آمیز	-2620
▁پناه	-2621
▁تون	-2622
▁خورشید	-2623
▁هشدار	-2624
▁نباشد	-2625
▁خرو	-2626
▁فیس	-2627
▁راهی	-2628
▁فضا	-2629
پیم	-2630
▁جراحی	-2631
زم	-2632
▁آگاهی	-2633
▁تضمین	-2634
▁پیاده	-2635
▁رهبران	-2636
▁طبقه	-2637
▁مار	-2638
▁درس	-2639
▁افزود	-2640
▁دلایل	-2641
غن	-2642
▁نحوه	-2643
▁دقت	-2644
▁ایمان	-2645
▁دادگاه	-2646
ایش	-2647
▁راحت	-2648
▁تایید	-2649
▁استرالیا	-2650
▁فن	-2651
▁تجه	-2652
▁تحریم	-2653
▁اون	-2654
▁خوشحال	-2655
▁تولد	-2656
▁احترام	-2657
▁عربستان	-2658
▁دفتر	-2659
▁تجهیز	-2660
نش	-2661
▁فعلی	-2662
▁قهوه	-2663
▁بودجه	-2664
▁صنعتی	-2665
▁سین	-2666
ویق	-2667
▁آفر	-2668
▁درخت	-2669
▁مکانی	-2670
▁اصل	-2671
▁مصاح	-2672
▁پادش	-2673
یک	-2674
▁رنج	-2675
▁مام	-2676
▁گام	-2677
▁نظارت	-2678
em	-2679
یمان	-2680
▁چگون	-2681
▁تبلیغات	-2682
▁كن	-2683
▁حفاظت	-2684
ــ	-2685
▁طوری	-2686
▁شمال	-2687
▁چگونگی	-2688
▁گم	-2689
▁قربانی	-2690
▁نگ	-2691
▁عادی	-2692
▁مطلب	-2693
اهد	-2694
▁یو	-2695
▁منافع	-2696
▁مصاحبه	-2697
▁شیمیایی	-2698
ul	-2699
▁بست	-2700
▁عجی	-2701
▁بریتانیا	-2702
▁چاپ	-2703
▁بگذارید	-2704
▁14	-2705
▁میدان	-2706
▁g	-2707
وید	-2708
▁جنب	-2709
▁خاک	-2710
▁سبز	-2711
▁خدای	-2712
▁فرای	-2713
▁مخصوص	-2714
▁رح	-2715
▁شهری	-2716
▁امتح	-2717
▁جلسه	-2718
▁فرود	-2719
▁گفتم	-2720
▁منتقل	-2721
▁ترجی	-2722
▁بدهید	-2723
رست	-2724
ادث	-2725
▁طبیعت	-2726
oc	-2727
▁مفه	-2728
▁آیند	-2729
▁الکترونی	-2730
گن	-2731
▁h	-2732
▁شاهد	-2733
▁فروشگاه	-2734
▁گذارد	-2735
▁توجهی	-2736
▁گروهی	-2737
▁بدست	-2738
▁تعط	-2739
▁آشکار	-2740
▁منحصر	-2741
▁امتحان	-2742
▁بیمارستان	-2743
▁اسم	-2744
▁شنا	-2745
▁صحنه	-2746
▁عفونت	-2747
▁نیازمند	-2748
▁رتبه	-2749
▁ون	-2750
▁کلید	-2751
▁ایمنی	-2752
▁ترجمه	-2753
▁بقیه	-2754
▁نشست	-2755
▁جایزه	-2756
▁پیشرفته	-2757
▁آپ	-2758
▁عقب	-2759
▁فلسط	-2760
▁تامین	-2761
▁منتظر	-2762
▁هزاران	-2763
▁جنوب	-2764
▁کارگران	-2765
um	-2766
فانه	-2767
▁نوعی	-2768
▁دعوت	-2769
▁روغن	-2770
حیه	-2771
▁محس	-2772
▁یهودی	-2773
ir	-2774
زل	-2775
▁نقاط	-2776
▁بتوانند	-2777
▁برنده	-2778
▁تقریباً	-2779
بیل	-2780
▁خام	-2781
▁بستگی	-2782
▁۱۲	-2783
▁۳۰	-2784
▁گناه	-2785
▁وبلاگ	-2786
▁نگهداری	-2787
▁ویتامین	-2788
▁مشه	-2789
▁اوایل	-2790
▁تعدادی	-2791
▁فرض	-2792
▁وید	-2793
▁رهبر	-2794
عم	-2795
▁حاف	-2796
▁متم	-2797
▁جذاب	-2798
▁پرسش	-2799
▁اتفاقی	-2800
▁صدا	-2801
▁نوزاد	-2802
▁انتشار	-2803
▁تعهد	-2804
▁متصل	-2805
▁آسمان	-2806
▁جزیره	-2807
▁ارد	-2808
▁اصول	-2809
▁بردن	-2810
▁مقام	-2811
▁حملات	-2812
بد	-2813
▁حتما	-2814
▁توصیف	-2815
بیر	-2816
ونا	-2817
▁بنا	-2818
▁دریایی	-2819
▁اعد	-2820
▁قرم	-2821
▁ژان	-2822
▁رادی	-2823
▁میشود	-2824
▁.»	-2825
▁رز	-2826
▁الهی	-2827
حیح	-2828
▁دستور	-2829
سل	-2830
▁انگل	-2831
اشی	-2832
▁عک	-2833
▁وظی	-2834
▁مهاجرت	-2835
ردگی	-2836
▁روب	-2837
▁سوخت	-2838
▁ملاقات	-2839
یدم	-2840
الیا	-2841
▁پنه	-2842
▁عبور	-2843
▁مایل	-2844
▁سرزمین	-2845
باری	-2846
▁تقا	-2847
▁گذشت	-2848
▁بودیم	-2849
▁کارها	-2850
خر	-2851
▁r	-2852
▁جع	-2853
تناب	-2854
▁هاست	-2855
▁Y	-2856
چسب	-2857
▁اهل	-2858
▁بید	-2859
▁اجتناب	-2860
ess	-2861
راتی	-2862
▁رها	-2863
▁نامیده	-2864
▁بساز	-2865
▁یافتن	-2866
▁مزایای	-2867
▁لند	-2868
▁۱۰۰	-2869
▁کارآ	-2870
▁کانال	-2871
ایق	-2872
▁باغ	-2873
▁پاید	-2874
▁پیروزی	-2875
▁بروز	-2876
▁گیاه	-2877
▁آزمون	-2878
▁نظریه	-2879
▁0	-2880
▁بروید	-2881
▁نیوی	-2882
▁تکنیک	-2883
▁(1	-2884
▁17	-2885
▁آشنا	-2886
▁سختی	-2887
▁مدیران	-2888
▁دهندگان	-2889
▁بب	-2890
▁تئ	-2891
▁فراتر	-2892
▁ارتباطات	-2893
▁in	-2894
▁جنبه	-2895
▁تاکنون	-2896
▁بیت	-2897
▁شهروندان	-2898
زمان	-2899
▁مخالف	-2900
▁وظیفه	-2901
▁میلادی	-2902
▁آبی	-2903
▁بگذ	-2904
▁نشد	-2905
▁ثانیه	-2906
▁خواند	-2907
od	-2908
▁پدید	-2909
▁بهتری	-2910
▁انگیزه	-2911
im	-2912
▁ورز	-2913
▁اصلا	-2914
▁انجمن	-2915
لات	-2916
کلی	-2917
▁نیمه	-2918
▁نیویورک	-2919
▁رست	-2920
▁فرایند	-2921
▁مقاومت	-2922
▁ٔ	-2923
▁فد	-2924
▁اضط	-2925
▁برآ	-2926
ضح	-2927
▁عادت	-2928
▁تشویق	-2929
هم	-2930
اکر	-2931
▁چپ	-2932
▁پخش	-2933
▁درستی	-2934
▁سعودی	-2935
ذیه	-2936
▁بیای	-2937
▁افتاده	-2938
ce	-2939
نتی	-2940
▁جی	-2941
▁تجهیزات	-2942
ابله	-2943
▁حضرت	-2944
▁روست	-2945
▁سرباز	-2946
▁هواپیم	-2947
شنگ	-2948
▁شف	-2949
▁پن	-2950
ظهار	-2951
▁قبلا	-2952
▁اظهار	-2953
▁برسان	-2954
▁تعطیل	-2955
▁جایگاه	-2956
▁متمرکز	-2957
▁مقابله	-2958
▁همانند	-2959
▁ترجیح	-2960
▁شناسی	-2961
▁ادعا	-2962
▁رویکرد	-2963
مولی	-2964
▁فنی	-2965
▁کردید	-2966
▁بیشترین	-2967
راز	-2968
▁سک	-2969
▁ظه	-2970
▁سپت	-2971
▁امسال	-2972
▁معروف	-2973
رایش	-2974
▁آرز	-2975
▁اضافی	-2976
▁بتوانید	-2977
▁قرارداد	-2978
▁طل	-2979
▁تغذیه	-2980
گین	-2981
▁دم	-2982
▁مقر	-2983
▁بطور	-2984
▁فرمود	-2985
امله	-2986
▁لینک	-2987
▁مداوم	-2988
▁بگویید	-2989
▁برخوردار	-2990
▁حو	-2991
▁سام	-2992
▁برچسب	-2993
▁شماست	-2994
▁سؤ	-2995
▁کشد	-2996
▁فرار	-2997
▁آر	-2998
▁شغلی	-2999
▁قرمز	-3000
▁محتوا	-3001
▁جزئیات	-3002
▁خطرناک	-3003
▁زندانی	-3004
▁معمولی	-3005
▁سپتامبر	-3006
▁چربی	-3007
▁چهره	-3008
انو	-3009
▁خیر	-3010
▁توزی	-3011
▁قلبی	-3012
▁چیزهای	-3013
▁سرگر	-3014
ia	-3015
داک	-3016
▁1.	-3017
▁گذر	-3018
▁توزیع	-3019
▁هیجان	-3020
▁بزرگتر	-3021
▁تنهایی	-3022
ئت	-3023
▁امپ	-3024
os	-3025
▁تز	-3026
▁الگ	-3027
▁بدهد	-3028
▁جنبش	-3029
▁عهده	-3030
▁افسردگی	-3031
▁پلا	-3032
▁ریسک	-3033
▁مالک	-3034
▁استان	-3035
▁درگیر	-3036
▁اختلاف	-3037
▁مبل	-3038
▁کرب	-3039
▁برگز	-3040
▁خریداری	-3041
نمایی	-3042
▁دائ	-3043
▁نات	-3044
▁حداک	-3045
▁پذیرش	-3046
ویل	-3047
رافیک	-3048
▁برده	-3049
▁پیوند	-3050
▁رض	-3051
▁تاکید	-3052
▁میکند	-3053
.”	-3054
ثار	-3055
▁شای	-3056
▁فوتبال	-3057
جع	-3058
▁۱۸	-3059
▁اصط	-3060
▁سیاره	-3061
▁بخوانید	-3062
صیلی	-3063
▁ناگه	-3064
▁پذیری	-3065
روم	-3066
▁دقیقا	-3067
▁بهداشت	-3068
▁مالیات	-3069
زیه	-3070
▁سابق	-3071
خواه	-3072
ژانس	-3073
▁امتی	-3074
▁کنفر	-3075
ers	-3076
▁مى	-3077
پیما	-3078
▁بکن	-3079
▁ملت	-3080
▁بدین	-3081
▁ناد	-3082
▁انگلستان	-3083
▁نده	-3084
گذاری	-3085
▁بگویم	-3086
▁هایشان	-3087
▁گرفتند	-3088
▁نماز	-3089
▁اختلال	-3090
▁خیابان	-3091
▁40	-3092
▁فارغ	-3093
▁حافظه	-3094
▁پنهان	-3095
اما	-3096
▁لغ	-3097
جد	-3098
▁سند	-3099
▁اطلاع	-3100
▁بارداری	-3101
▁نیازی	-3102
▁ایتالیا	-3103
ap	-3104
خره	-3105
▁جستجوی	-3106
داشتی	-3107
▁خاور	-3108
▁میوه	-3109
▁همزمان	-3110
▁198	-3111
▁رمز	-3112
▁بیمه	-3113
▁موزه	-3114
▁نمایند	-3115
▁پاکستان	-3116
▁24	-3117
▁ترا	-3118
▁عجیب	-3119
▁پرورش	-3120
▁اعتبار	-3121
▁حاوی	-3122
▁لطفا	-3123
▁نقشه	-3124
▁آورند	-3125
▁دیوار	-3126
▁جاده	-3127
▁هماه	-3128
▁محسوب	-3129
▁اسب	-3130
▁اسک	-3131
▁سنت	-3132
▁واضح	-3133
▁نفو	-3134
▁صحیح	-3135
اکره	-3136
▁مراحل	-3137
▁روزهای	-3138
▁پروتئین	-3139
ومی	-3140
▁بدی	-3141
▁تجزیه	-3142
▁دیدار	-3143
▁برآورد	-3144
▁قتل	-3145
▁سفار	-3146
▁شورای	-3147
▁مذاکره	-3148
▁کشید	-3149
لیم	-3150
اورد	-3151
▁ماج	-3152
▁ممنوع	-3153
ئید	-3154
▁اتص	-3155
▁اشک	-3156
▁مرور	-3157
20	-3158
ولد	-3159
کده	-3160
▁هرچند	-3161
▁کارشناس	-3162
▁حداکثر	-3163
زد	-3164
▁سوء	-3165
▁مجوز	-3166
▁مفهوم	-3167
▁کارهایی	-3168
▁حاک	-3169
▁متقا	-3170
▁کنفرانس	-3171
راض	-3172
▁تفکر	-3173
▁مسیح	-3174
▁مساله	-3175
▁دس	-3176
▁نژ	-3177
فاوتی	-3178
▁آثار	-3179
▁معامله	-3180
▁ضعیف	-3181
▁متعد	-3182
▁یخ	-3183
▁افتخ	-3184
▁خلاصه	-3185
▁استخدام	-3186
▁شوم	-3187
▁موسسه	-3188
▁موضوعات	-3189
▁مصر	-3190
▁دشمن	-3191
▁لندن	-3192
th	-3193
▁صادر	-3194
▁فضایی	-3195
▁واشنگ	-3196
▁نمایید	-3197
▁صادق	-3198
▁موقع	-3199
▁کلیک	-3200
▁فرانس	-3201
▁مبتنی	-3202
▁بخواهید	-3203
▁بیند	-3204
▁بص	-3205
▁بزرگسال	-3206
...]	-3207
▁Goo	-3208
▁انع	-3209
▁آمار	-3210
▁[...]	-3211
▁رانندگی	-3212
▁اپل	-3213
▁ریشه	-3214
▁افکار	-3215
▁ویروس	-3216
▁چهارم	-3217
او	-3218
▁امضا	-3219
▁شانس	-3220
▁نفوذ	-3221
▁ارزان	-3222
▁تهران	-3223
▁واشنگتن	-3224
▁ابتد	-3225
▁بپرس	-3226
▁زودی	-3227
▁تاسیس	-3228
▁بهداشتی	-3229
▁کارشناسی	-3230
▁شور	-3231
▁صبر	-3232
▁بازداشت	-3233
جام	-3234
سور	-3235
▁آهنگ	-3236
▁ببرید	-3237
▁سخنرانی	-3238
ویس	-3239
▁بدتر	-3240
▁سقوط	-3241
▁مذاک	-3242
▁تعامل	-3243
▁براساس	-3244
چی	-3245
▁التح	-3246
▁نیمی	-3247
▁ندارید	-3248
▁پایگاه	-3249
هی	-3250
▁حکم	-3251
▁مطل	-3252
▁نادر	-3253
▁تکمیل	-3254
▁ساختن	-3255
▁کمبود	-3256
▁امتیاز	-3257
قوه	-3258
▁اخی	-3259
▁برداری	-3260
▁v	-3261
وال	-3262
▁۵۰	-3263
▁تمیز	-3264
▁پزشکان	-3265
▁هواپیما	-3266
لاک	-3267
▁60	-3268
▁كرد	-3269
▁اثرات	-3270
▁بالقوه	-3271
▁براد	-3272
▁سنتی	-3273
▁گفتن	-3274
▁همچون	-3275
غم	-3276
▁گری	-3277
▁غیرق	-3278
▁خانگی	-3279
▁کمتری	-3280
▁برداشت	-3281
▁سالانه	-3282
▁آهن	-3283
▁سان	-3284
▁سهام	-3285
▁اخیرا	-3286
▁انداخت	-3287
▁بوک	-3288
▁بپرد	-3289
▁رساند	-3290
▁اخلاقی	-3291
▁اصطلاح	-3292
▁کشاورزی	-3293
رتان	-3294
▁تحمل	-3295
▁وابسته	-3296
▁پایدار	-3297
▁بازسازی	-3298
لت	-3299
▁کات	-3300
▁مراک	-3301
▁نبوده	-3302
▁معماری	-3303
▁کارخانه	-3304
ity	-3305
سیر	-3306
▁دف	-3307
▁بخور	-3308
▁»،	-3309
▁خویش	-3310
▁صاحب	-3311
▁ویدی	-3312
▁مشاوره	-3313
▁دستیابی	-3314
ریح	-3315
▁موب	-3316
▁بازیکن	-3317
▁دارایی	-3318
▁شرک	-3319
▁مذهبی	-3320
▁برجسته	-3321
▁'	-3322
▁An	-3323
▁نزدیکی	-3324
جوان	-3325
▁آنج	-3326
▁برتر	-3327
▁مارس	-3328
▁اکتبر	-3329
▁تدری	-3330
▁عدد	-3331
▁مشهور	-3332
▁مذاکرات	-3333
▁Ch	-3334
gle	-3335
کتری	-3336
▁ندارم	-3337
▁احتمالاً	-3338
▁خشک	-3339
▁سوز	-3340
▁بیدار	-3341
▁تابستان	-3342
▁تأی	-3343
▁حیات	-3344
▁خوشب	-3345
▁آلمانی	-3346
▁پیامبر	-3347
▁ترد	-3348
▁هویت	-3349
لو	-3350
میانه	-3351
▁پادشاه	-3352
▁خاورمیانه	-3353
▁اتم	-3354
▁تخم	-3355
▁عیسی	-3356
▁ماست	-3357
▁نوشید	-3358
▁کیلوم	-3359
▁فو	-3360
▁استقل	-3361
▁نموده	-3362
ack	-3363
▁مناس	-3364
▁آزمایشگاه	-3365
▁جاری	-3366
▁مدتی	-3367
عف	-3368
داد	-3369
نوعی	-3370
▁مانع	-3371
اریس	-3372
▁نابود	-3373
▁مهندسی	-3374
▁چک	-3375
▁حجم	-3376
▁عزی	-3377
▁هاي	-3378
▁چار	-3379
▁طراح	-3380
▁بارها	-3381
▁رضایت	-3382
▁مدارس	-3383
هر	-3384
▁اوا	-3385
▁هور	-3386
▁نوجوان	-3387
▁چش	-3388
▁برگرد	-3389
▁بلاف	-3390
▁دهان	-3391
▁فهرست	-3392
▁ing	-3393
▁آژانس	-3394
▁بلافاصله	-3395
▁Re	-3396
ادار	-3397
▁آمو	-3398
▁دادم	-3399
▁رستوران	-3400
▁بازیکنان	-3401
▁بور	-3402
▁گوشت	-3403
▁گفتگو	-3404
▁غذاهای	-3405
▁سیگار	-3406
▁اولویت	-3407
▁فرانسوی	-3408
▁مول	-3409
▁نوش	-3410
▁بپرداز	-3411
▁کارمندان	-3412
▁کتابخانه	-3413
▁پان	-3414
▁کارگر	-3415
▁گذاران	-3416
ie	-3417
▁خال	-3418
طی	-3419
▁قطعا	-3420
ard	-3421
▁عذ	-3422
▁ارا	-3423
▁سران	-3424
▁انگشت	-3425
▁تأیید	-3426
▁دسامبر	-3427
▁مصنوعی	-3428
▁گویم	-3429
▁تحصیلی	-3430
▁پرونده	-3431
وایی	-3432
▁سادگی	-3433
▁استقلال	-3434
اج	-3435
مالی	-3436
▁شاد	-3437
▁آزار	-3438
▁احتی	-3439
▁ژانویه	-3440
▁and	-3441
▁آدرس	-3442
▁سطوح	-3443
مع	-3444
شای	-3445
▁آیت	-3446
▁محمد	-3447
▁باشگاه	-3448
▁پردازش	-3449
▁یك	-3450
▁2015	-3451
▁شرقی	-3452
▁ایالت	-3453
▁مراسم	-3454
▁نقاشی	-3455
▁دومین	-3456
▁سنگین	-3457
▁پاریس	-3458
بل	-3459
▁+	-3460
▁!!	-3461
▁زا	-3462
▁طال	-3463
▁راهن	-3464
pp	-3465
▁شار	-3466
▁عصر	-3467
▁معی	-3468
▁قالب	-3469
▁انگلیس	-3470
▁چای	-3471
ماتیک	-3472
▁شنبه	-3473
▁صدها	-3474
▁مجله	-3475
▁عمده	-3476
▁پرست	-3477
▁شنیده	-3478
▁صفحات	-3479
▁کشوری	-3480
ate	-3481
ماً	-3482
▁اواخر	-3483
▁Google	-3484
▁ایستگاه	-3485
▁the	-3486
▁میده	-3487
▁عناصر	-3488
▁رویداد	-3489
▁مسابقه	-3490
▁۱۳	-3491
▁شکن	-3492
▁بیست	-3493
▁مجلس	-3494
▁داروهای	-3495
▁تحقیقاتی	-3496
▁نمایشگاه	-3497
▁هایش	-3498
▁معتبر	-3499
▁پنجره	-3500
▁اجرایی	-3501
▁نوامبر	-3502
دهی	-3503
▁دون	-3504
▁سبب	-3505
▁خورده	-3506
▁موبایل	-3507
▁دموکراسی	-3508
رق	-3509
زان	-3510
▁شریک	-3511
▁وحشت	-3512
▁نداریم	-3513
▁همکاران	-3514
۰۰۰	-3515
▁پادا	-3516
▁ژوئن	-3517
▁جاد	-3518
▁خالی	-3519
▁خسته	-3520
▁سرور	-3521
▁مدرک	-3522
▁متخصصان	-3523
▁اوب	-3524
▁دستو	-3525
▁بزنید	-3526
▁جوانان	-3527
سین	-3528
▁مراجعه	-3529
▁جرم	-3530
▁قضا	-3531
▁مرغ	-3532
▁۱۹۹	-3533
▁شفاف	-3534
▁روبرو	-3535
▁اعتراض	-3536
▁افتخار	-3537
▁197	-3538
▁اور	-3539
▁گرا	-3540
▁جنگل	-3541
▁دیدم	-3542
▁مجدد	-3543
▁محکوم	-3544
▁اسپانیا	-3545
▁الکترونیکی	-3546
پار	-3547
▁؟!	-3548
▁آلب	-3549
▁هنری	-3550
▁بیاور	-3551
▁نگاهی	-3552
▁اکث	-3553
▁مردی	-3554
▁ابر	-3555
▁سابقه	-3556
▁مجموع	-3557
▁بیانیه	-3558
▁شهرهای	-3559
av	-3560
پر	-3561
▁خشم	-3562
▁تصاد	-3563
▁هوای	-3564
▁آرامش	-3565
▁یکسان	-3566
▁امیدوارم	-3567
▁کارگردان	-3568
دهم	-3569
▁جور	-3570
▁نزد	-3571
▁رسان	-3572
▁متاس	-3573
▁اثبات	-3574
▁ورزشی	-3575
▁واژه	-3576
▁عدالت	-3577
▁هرگونه	-3578
og	-3579
▁باد	-3580
▁برادر	-3581
▁انتقاد	-3582
▁جلب	-3583
خیر	-3584
▁زخ	-3585
نجی	-3586
▁مخفی	-3587
▁اتصال	-3588
▁بگیری	-3589
گا	-3590
▁عصبی	-3591
▁مربی	-3592
▁هستی	-3593
▁ظرفیت	-3594
▁کمیته	-3595
▁نادیده	-3596
▁کمپانی	-3597
▁فرودگاه	-3598
عش	-3599
▁زنج	-3600
▁متولد	-3601
▁مشکلی	-3602
▁خرد	-3603
▁خروج	-3604
▁آفریقا	-3605
▁طیف	-3606
اقع	-3607
هنی	-3608
▁تیر	-3609
▁مکمل	-3610
▁ارزشمند	-3611
نس	-3612
all	-3613
▁فری	-3614
▁مقدس	-3615
▁منظم	-3616
▁تصویب	-3617
▁اوباما	-3618
▁مجازات	-3619
▁Z	-3620
▁دیپل	-3621
▁وظای	-3622
▁متعلق	-3623
▁کاربردی	-3624
لیلی	-3625
▁زنی	-3626
▁خواستار	-3627
گذار	-3628
▁الی	-3629
▁بافت	-3630
▁وسایل	-3631
▁دختران	-3632
▁2017	-3633
▁نظیر	-3634
▁بینید	-3635
▁ورودی	-3636
▁ترافیک	-3637
▁سریال	-3638
▁دانشکده	-3639
▁وف	-3640
▁Pro	-3641
▁عظیم	-3642
▁ارتباطی	-3643
گاری	-3644
▁غذای	-3645
▁منزل	-3646
▁قهرمان	-3647
ab	-3648
کری	-3649
▁آشپ	-3650
▁ارتقا	-3651
▁روانی	-3652
▁گردید	-3653
وسی	-3654
▁مارک	-3655
▁صنایع	-3656
▁التحصیل	-3657
▁زو	-3658
▁تحول	-3659
▁نهاد	-3660
▁محیطی	-3661
▁مراکز	-3662
▁مسلمانان	-3663
op	-3664
▁حقو	-3665
خا	-3666
ظی	-3667
الم	-3668
▁مبلغ	-3669
▁باتری	-3670
▁بالایی	-3671
▁خوانده	-3672
▁2.	-3673
▁ید	-3674
ماتی	-3675
▁اسن	-3676
▁تحویل	-3677
▁نوشیدنی	-3678
▁غنی	-3679
▁نبرد	-3680
▁بایست	-3681
▁ریاست	-3682
▁ترکیبی	-3683
آور	-3684
▁قی	-3685
▁توق	-3686
▁دیر	-3687
▁طلب	-3688
▁2018	-3689
▁سؤال	-3690
▁مهمترین	-3691
art	-3692
▁ارم	-3693
▁شرق	-3694
▁گشت	-3695
▁عربی	-3696
▁موشک	-3697
صاب	-3698
▁اعدام	-3699
▁بگوید	-3700
▁تجربی	-3701
▁تماشا	-3702
▁منطقی	-3703
▁ناحیه	-3704
▁پاداش	-3705
▁کشیدن	-3706
▁یم	-3707
▁بهشت	-3708
▁پولی	-3709
▁صادرات	-3710
▁۲۵	-3711
سلام	-3712
▁خارجه	-3713
▁کودکی	-3714
نز	-3715
زیک	-3716
▁سهم	-3717
▁بالات	-3718
ine	-3719
▁انف	-3720
▁سرک	-3721
▁سیم	-3722
▁پیر	-3723
▁روزه	-3724
▁مثلا	-3725
▁طالبان	-3726
▁انقلابی	-3727
▁قول	-3728
▁فردا	-3729
▁متفاوتی	-3730
▁کارشناسان	-3731
▁نشود	-3732
انیایی	-3733
▁تأمین	-3734
▁دائمی	-3735
غل	-3736
اردی	-3737
شیدی	-3738
▁منع	-3739
▁کاغ	-3740
▁بازگرد	-3741
▁آلود	-3742
▁جمعی	-3743
▁مسیحی	-3744
▁میکنند	-3745
▁>	-3746
est	-3747
▁آیه	-3748
▁صرفه	-3749
▁تحریک	-3750
▁نوآوری	-3751
▁اي	-3752
▁حادث	-3753
▁لایه	-3754
▁خواستم	-3755
▁درح	-3756
▁ابتلا	-3757
▁بماند	-3758
▁خانوادگی	-3759
ob	-3760
طاف	-3761
▁بفه	-3762
▁بمب	-3763
▁برود	-3764
▁حقوقی	-3765
▁صندلی	-3766
▁جس	-3767
ub	-3768
▁دعا	-3769
▁ظهور	-3770
▁نژاد	-3771
▁ریاضی	-3772
▁چرخه	-3773
▁اخبار	-3774
▁داشتیم	-3775
ge	-3776
ستیک	-3777
شند	-3778
▁عوار	-3779
▁".	-3780
▁رک	-3781
یدند	-3782
▁کاخ	-3783
▁دیابت	-3784
اگر	-3785
نای	-3786
▁کشیده	-3787
▁شرایطی	-3788
دیه	-3789
ندوز	-3790
▁تعادل	-3791
▁کمپین	-3792
▁انعطاف	-3793
▁باکتری	-3794
up	-3795
سول	-3796
▁90	-3797
▁مور	-3798
▁کوین	-3799
▁نیستم	-3800
▁وظایف	-3801
▁سوالات	-3802
واری	-3803
▁معلم	-3804
▁انگار	-3805
▁تعطیلات	-3806
▁استراتژیک	-3807
ct	-3808
ver	-3809
زیت	-3810
▁کفش	-3811
▁آمدن	-3812
▁کنگر	-3813
▁چیزها	-3814
▁فس	-3815
▁قلم	-3816
▁بران	-3817
▁رایج	-3818
▁جانبی	-3819
▁حادثه	-3820
▁کوچکی	-3821
▁استراحت	-3822
▁اذ	-3823
▁راز	-3824
▁لبخ	-3825
▁وجه	-3826
▁ویندوز	-3827
کتور	-3828
▁استث	-3829
▁نویسی	-3830
▁Ne	-3831
▁اکس	-3832
▁رییس	-3833
▁ثروتمند	-3834
غام	-3835
▁۱۱	-3836
▁دهی	-3837
▁کاربری	-3838
تو	-3839
ord	-3840
▁اقی	-3841
▁احتمالی	-3842
ke	-3843
▁آسیا	-3844
▁خواهان	-3845
▁هدیه	-3846
▁بگیریم	-3847
▁برگزاری	-3848
جار	-3849
خورد	-3850
▁اتوم	-3851
▁خلاف	-3852
▁راضی	-3853
▁گرچه	-3854
▁گمان	-3855
ist	-3856
انوس	-3857
▁الم	-3858
▁نقض	-3859
▁گرس	-3860
▁ابزارهای	-3861
▁احم	-3862
▁2016	-3863
▁مهمان	-3864
▁میتواند	-3865
▁تروریستی	-3866
▁راهنمایی	-3867
▁خل	-3868
▁۱۴	-3869
▁وار	-3870
▁وضع	-3871
فل	-3872
▁آفت	-3873
▁سوئ	-3874
▁كند	-3875
▁خطوط	-3876
▁مطابق	-3877
▁مطالب	-3878
▁معامل	-3879
▁سرانجام	-3880
▁21	-3881
▁تعجب	-3882
▁تجدید	-3883
▁مناسبی	-3884
▁بری	-3885
▁خبری	-3886
▁فیلتر	-3887
▁درحالی	-3888
▁حرک	-3889
▁بزرگسالان	-3890
▁حج	-3891
▁واس	-3892
▁تشکر	-3893
▁جامع	-3894
▁شاخص	-3895
▁شوروی	-3896
▁فدرال	-3897
▁خورشیدی	-3898
ive	-3899
▁Sp	-3900
▁تخص	-3901
▁منص	-3902
▁بنیاد	-3903
▁عوارض	-3904
▁کنگره	-3905
کنندگان	-3906
▁کارآفر	-3907
ّت	-3908
میر	-3909
▁De	-3910
▁لم	-3911
▁گربه	-3912
▁نظرات	-3913
▁نماینده	-3914
گنال	-3915
▁شیطان	-3916
▁سیگنال	-3917
ربان	-3918
▁خواهی	-3919
ell	-3920
ازگی	-3921
▁محاس	-3922
▁ناام	-3923
▁گویی	-3924
▁اندکی	-3925
▁|	-3926
گانی	-3927
▁مقی	-3928
▁وام	-3929
▁ذهنی	-3930
▁بازنش	-3931
▁بنویس	-3932
▁پذیرفته	-3933
لیکی	-3934
نوشت	-3935
▁اردو	-3936
▁رمان	-3937
▁کالج	-3938
▁تئوری	-3939
▁دوستی	-3940
▁برگشت	-3941
▁شواهد	-3942
▁الکتری	-3943
▁بگذارد	-3944
▁رع	-3945
▁حساس	-3946
▁عکاسی	-3947
▁فلسفه	-3948
▁استاندار	-3949
ضیه	-3950
▁ناس	-3951
▁جنگی	-3952
▁داعش	-3953
مور	-3954
▁رم	-3955
ارات	-3956
▁196	-3957
▁اتحاد	-3958
if	-3959
▁له	-3960
▁اوک	-3961
▁حدی	-3962
▁مداخ	-3963
▁محاسبه	-3964
ظاه	-3965
چرخ	-3966
▁۴۰	-3967
▁رفع	-3968
▁نفع	-3969
▁تردید	-3970
▁تکامل	-3971
▁مقررات	-3972
▁نقد	-3973
▁علام	-3974
▁نیستید	-3975
▁جغ	-3976
▁عرو	-3977
▁مری	-3978
▁مرده	-3979
▁استعد	-3980
▁الهام	-3981
▁تازگی	-3982
▁معتقدند	-3983
لز	-3984
▁٬	-3985
▁شادی	-3986
▁غیرم	-3987
▁هرچه	-3988
ue	-3989
یلی	-3990
▁ناه	-3991
▁بیاید	-3992
▁بینیم	-3993
▁لبخند	-3994
▁مراقب	-3995
▁پیروی	-3996
▁اضطراب	-3997
▁امکانات	-3998
طرف	-3999
▁Bl	-4000
▁اخترا	-4001
▁سفارش	-4002
▁قضاوت	-4003
▁جداگانه	-4004
▁مأ	-4005
▁رقم	-4006
▁قسم	-4007
▁وقوع	-4008
▁اکثریت	-4009
▁آمریکای	-4010
▁Un	-4011
▁دوز	-4012
▁کاب	-4013
▁دامنه	-4014
▁کیلومتر	-4015
مر	-4016
one	-4017
▁ضعف	-4018
▁پایت	-4019
▁ماموریت	-4020
▁احس	-4021
▁بوی	-4022
▁عقل	-4023
▁آرزو	-4024
▁ثبات	-4025
▁متهم	-4026
▁پارل	-4027
▁اتومبیل	-4028
▁بعدا	-4029
▁داوط	-4030
▁آنقدر	-4031
▁ماندن	-4032
▁اپلیکی	-4033
ht	-4034
▁عط	-4035
گویی	-4036
▁بدهی	-4037
▁خودک	-4038
▁رسانی	-4039
▁داوطلب	-4040
▁آه	-4041
▁گز	-4042
▁تظاه	-4043
▁پیمان	-4044
▁بیایید	-4045
▁سازنده	-4046
▁نمایندگان	-4047
▁Sh	-4048
▁st	-4049
▁مخدر	-4050
▁روزها	-4051
▁ادع	-4052
▁مون	-4053
▁یورو	-4054
▁دادیم	-4055
▁فرصتی	-4056
▁مجازی	-4057
▁خودکار	-4058
▁اینترنتی	-4059
▁80	-4060
▁موقت	-4061
راد	-4062
▁2014	-4063
▁چشمان	-4064
▁یابند	-4065
▁#	-4066
بیت	-4067
پزش	-4068
▁فال	-4069
▁آلودگی	-4070
▁محدوده	-4071
▁بالاخره	-4072
واب	-4073
▁غم	-4074
▁الز	-4075
▁مدار	-4076
com	-4077
ادن	-4078
کید	-4079
▁سم	-4080
افقت	-4081
▁درگیری	-4082
▁رایانه	-4083
▁سرنوشت	-4084
▁موافقت	-4085
▁ناپذیر	-4086
▁تبلیغاتی	-4087
▁جر	-4088
▁سئو	-4089
▁دمای	-4090
▁عمد	-4091
▁استق	-4092
▁اوست	-4093
▁باری	-4094
▁متعهد	-4095
▁مقیاس	-4096
▁موهای	-4097
▁پیوست	-4098
▁استخوان	-4099
▁دای	-4100
▁فول	-4101
▁ویر	-4102
▁بانکی	-4103
▁اپلیکیشن	-4104
ماس	-4105
مره	-4106
▁سرخ	-4107
▁تخصص	-4108
▁تنوع	-4109
▁همگی	-4110
▁رعایت	-4111
▁هنرمند	-4112
OS	-4113
ort	-4114
▁ایمن	-4115
▁فوری	-4116
▁پدرش	-4117
▁اندرو	-4118
▁یادآوری	-4119
▁ردی	-4120
▁جوام	-4121
▁کلیس	-4122
▁تأکید	-4123
زر	-4124
لین	-4125
▁سینه	-4126
▁بهینه	-4127
▁نخواهند	-4128
ير	-4129
اوز	-4130
▁نیک	-4131
▁الکل	-4132
▁الگو	-4133
▁زنند	-4134
▁زودتر	-4135
▁معیار	-4136
▁کنونی	-4137
ill	-4138
است	-4139
▁انح	-4140
▁كار	-4141
▁مخل	-4142
▁حلقه	-4143
▁آمدند	-4144
▁بخواهد	-4145
▁بدترین	-4146
انگ	-4147
▁22	-4148
▁میر	-4149
▁آنتی	-4150
▁روشی	-4151
▁ساحل	-4152
▁بدهند	-4153
▁تفسیر	-4154
▁جلسات	-4155
▁زمینی	-4156
▁Q	-4157
▁شرح	-4158
▁پلت	-4159
▁اسکن	-4160
▁قطعه	-4161
▁ماهواره	-4162
50	-4163
▁۱۶	-4164
▁لغو	-4165
▁کاف	-4166
▁راجع	-4167
▁مسلح	-4168
▁حیاتی	-4169
▁علامت	-4170
▁اقیانوس	-4171
لیک	-4172
▁خن	-4173
▁۱۹۷	-4174
▁جعبه	-4175
▁شکلی	-4176
▁باردار	-4177
▁کارمند	-4178
▁گذارند	-4179
▁تحصیلات	-4180
▁تروریسم	-4181
▁دانشگاهی	-4182
▁متاسفانه	-4183
▁استانداردهای	-4184
يت	-4185
▁Al	-4186
▁حین	-4187
رگانی	-4188
▁ضربه	-4189
▁سرکوب	-4190
▁دستگیر	-4191
▁ناراحت	-4192
▁آک	-4193
▁ین	-4194
کرات	-4195
▁وال	-4196
▁۱۹۸	-4197
▁صندوق	-4198
▁ببینند	-4199
▁بدانند	-4200
▁الکتریکی	-4201
NA	-4202
▁١	-4203
گرام	-4204
▁توپ	-4205
▁شام	-4206
▁موج	-4207
▁جلوی	-4208
▁دیوان	-4209
▁توانستند	-4210
املی	-4211
▁سور	-4212
▁استد	-4213
▁مقالات	-4214
▁نویسندگان	-4215
کب	-4216
▁er	-4217
بیند	-4218
▁فقر	-4219
▁تحقق	-4220
▁جمعه	-4221
▁سالی	-4222
▁مستند	-4223
▁عصبانی	-4224
▁ني	-4225
▁دلاری	-4226
▁فیزیک	-4227
▁معادل	-4228
▁ندهید	-4229
▁3.	-4230
▁آرا	-4231
▁اراده	-4232
▁مواردی	-4233
▁فلسطینی	-4234
خاذ	-4235
▁روس	-4236
▁برزی	-4237
▁تاثی	-4238
▁آورید	-4239
▁اتخاذ	-4240
▁تزریق	-4241
▁ظاهرا	-4242
▁احساسی	-4243
▁غیره	-4244
▁گرفتم	-4245
▁برانگی	-4246
غی	-4247
جویی	-4248
▁شدیم	-4249
▁کلاسی	-4250
▁بپرسید	-4251
▁پایتخت	-4252
▁توانستم	-4253
▁رودخانه	-4254
بو	-4255
▁خبرنگ	-4256
▁روزمره	-4257
▁زنجیره	-4258
▁آوریل	-4259
▁مالکیت	-4260
▁اوکراین	-4261
سایت	-4262
▁روم	-4263
▁زوج	-4264
▁ضبط	-4265
▁ندرت	-4266
ارتمان	-4267
▁ببرد	-4268
▁تصمی	-4269
▁خراب	-4270
▁سایه	-4271
▁اسناد	-4272
▁ببیند	-4273
▁بنیان	-4274
▁تخت	-4275
▁شرط	-4276
▁چاق	-4277
▁بخشد	-4278
▁خنده	-4279
▁ابراز	-4280
▁ببینیم	-4281
▁تماشای	-4282
▁دشمنان	-4283
▁وبسایت	-4284
▁برقراری	-4285
se	-4286
▁1-	-4287
▁ادبی	-4288
▁کت	-4289
نوان	-4290
▁سکوت	-4291
▁کارفر	-4292
▁k	-4293
▁هید	-4294
▁خودت	-4295
▁شکایت	-4296
▁فوریه	-4297
▁السلام	-4298
▁جشنواره	-4299
▁پیشگیری	-4300
فس	-4301
چوب	-4302
▁IP	-4303
▁خلی	-4304
▁قطار	-4305
▁آلوده	-4306
▁راستی	-4307
▁نشسته	-4308
▁کمونی	-4309
▁گذاشتن	-4310
▁راهنمای	-4311
▁کمیسیون	-4312
ect	-4313
ستر	-4314
▁500	-4315
▁عاط	-4316
▁مؤثر	-4317
▁معلوم	-4318
▁چندان	-4319
▁	-4320
ا	-4321
ی	-4322
ر	-4323
د	-4324
ن	-4325
ه	-4326
م	-4327
و	-4328
ت	-4329
ب	-4330
ک	-4331
س	-4332
ش	-4333
ل	-4334
ز	-4335
.	-4336
ف	-4337
گ	-4338
خ	-4339
ع	-4340
ق	-4341
ج	-4342
ح	-4343
،	-4344
آ	-4345
پ	-4346
ط	-4347
ص	-4348
چ	-4349
غ	-4350
ض	-4351
e	-4352
ذ	-4353
ظ	-4354
a	-4355
ث	-4356
o	-4357
:	-4358
i	-4359
0	-4360
ئ	-4361
r	-4362
)	-4363
n	-4364
(	-4365
1	-4366
t	-4367
ژ	-4368
s	-4369
؟	-4370
»	-4371
2	-4372
l	-4373
۰	-4374
«	-4375
"	-4376
-	-4377
۱	-4378
ي	-4379
S	-4380
c	-4381
u	-4382
d	-4383
!	-4384
A	-4385
5	-4386
C	-4387
۲	-4388
9	-4389
h	-4390
3	-4391
m	-4392
P	-4393
ً	-4394
ك	-4395
4	-4396
M	-4397
p	-4398
g	-4399
؛	-4400
T	-4401
D	-4402
I	-4403
6	-4404
8	-4405
y	-4406
B	-4407
7	-4408
E	-4409
”	-4410
۵	-4411
R	-4412
۹	-4413
ِ	-4414
L	-4415
۳	-4416
]	-4417
[	-4418
أ	-4419
b	-4420
N	-4421
G	-4422
k	-4423
H	-4424
“	-4425
f	-4426
O	-4427
­	-4428
F	-4429
۴	-4430
–	-4431
,	-4432
v	-4433
۶	-4434
۸	-4435
w	-4436
/	-4437
W	-4438
ى	-4439
۷	-4440
ۀ	-4441
V	-4442
U	-4443
ـ	-4444
ّ	-4445
ء	-4446
x	-4447
ؤ	-4448
َ	-4449
K	-4450
*	-4451
J	-4452
ُ	-4453
ٔ	-4454
z	-4455
X	-4456
+	-4457
٪	-4458
%	-4459
•	-4460
Y	-4461
٫	-4462
'	-4463
Q	-4464
>	-4465
j	-4466
Z	-4467
’	-4468
|	-4469
١	-4470
ْ	-4471
ة	-4472
_	-4473
٬	-4474
٠	-4475
#	-4476
&	-4477
=	-4478
q	-4479
?	-4480
٢	-4481
—	-4482
;	-4483
٩	-4484
$	-4485
¬	-4486
·	-4487
‬	-4488
●	-4489
٨	-4490
\	-4491
٣	-4492
{	-4493
}	-4494
‘	-4495
<	-4496
٧	-4497
@	-4498
٥	-4499
٤	-4500
↑	-4501
é	-4502
→	-4503
إ	-4504
ٌ	-4505
▪	-4506
←	-4507
‫	-4508
‍	-4509
٦	-4510
€	-4511
×	-4512
ü	-4513
®	-4514
ە	-4515
⁯	-4516
°	-4517
️	-4518
ٍ	-4519
♪	-4520
ö	-4521
■	-4522
◄	-4523
ھ	-4524
′	-4525
›	-4526
ó	-4527
á	-4528
~	-4529
â	-4530
♫	-4531
😉	-4532
‪	-4533
£	-4534
ä	-4535
➖	-4536
ç	-4537
^	-4538
‹	-4539
♦	-4540
🔹	-4541
ı	-4542
😀	-4543
§	-4544
ٰ	-4545
−	-4546
✅	-4547
`	-4548
à	-4549
□	-4550
♥	-4551
ş	-4552
ˈ	-4553
⇐	-4554
	-4555
è	-4556
▫	-4557
©	-4558
🔸	-4559
ñ	-4560
α	-4561
	-4562
🙂	-4563
É	-4564
√	-4565
😍	-4566
	-4567
ā	-4568
	-4569
ã	-4570
́	-4571
р	-4572
±	-4573
å	-4574
í	-4575
и	-4576
⁄	-4577
★	-4578
Ç	-4579
ú	-4580
ٿ	-4581
❤	-4582
﴾	-4583
👌	-4584
œ	-4585
̊	-4586
̋	-4587
μ	-4588
а	-4589
е	-4590
н	-4591
о	-4592
ٴ	-4593
۔	-4594
⁭	-4595
☺	-4596
✓	-4597
✔	-4598
﴿	-4599
🌷	-4600
	-4601
Ø	-4602
ø	-4603
ğ	-4604
İ	-4605
̈	-4606
Δ	-4607
Ω	-4608
ε	-4609
ۆ	-4610
ა	-4611
„	-4612
⁪	-4613
◊	-4614
♬	-4615
♯	-4616
⚡	-4617
✤	-4618
✭	-4619
⦁	-4620
	-4621
	-4622
👈	-4623
🔴	-4624
	-4625
Ö	-4626
ë	-4627
β	-4628
ν	-4629
М	-4630
д	-4631
⁩	-4632
▐	-4633
▬	-4634
○	-4635
✕	-4636
	-4637
🌸	-4638
🔻	-4639
😂	-4640
😐	-4641
	-4642
	-4643
	-4644
¤	-4645
Â	-4646
ï	-4647
ò	-4648
ń	-4649
Ş	-4650
š	-4651
ɪ	-4652
̨	-4653
θ	-4654
κ	-4655
Т	-4656
к	-4657
с	-4658
ڪ	-4659
ვ	-4660
ლ	-4661
ო	-4662
⁣	-4663
⁧	-4664
⁮	-4665
⃣	-4666
≠	-4667
≡	-4668
≤	-4669
➕	-4670
	-4671
	-4672
👏	-4673
👻	-4674
🔥	-4675
🔺	-4676
😊	-4677
	-4678
	-4679
¡	-4680
¢	-4681
Ã	-4682
Ä	-4683
Ü	-4684
ß	-4685
ê	-4686
î	-4687
ð	-4688
ô	-4689
÷	-4690
ý	-4691
ē	-4692
ƒ	-4693
ɛ	-4694
ʊ	-4695
ː	-4696
̇	-4697
γ	-4698
λ	-4699
ο	-4700
ρ	-4701
ς	-4702
τ	-4703
Б	-4704
К	-4705
б	-4706
г	-4707
й	-4708
л	-4709
י	-4710
ڵ	-4711
ہ	-4712
ۂ	-4713
ܔ	-4714
ܜ	-4715
თ	-4716
ი	-4717
რ	-4718
ს	-4719
‚	-4720
‭	-4721
≥	-4722
▲	-4723
▶	-4724
◀	-4725
◦	-4726
☼	-4727
❇	-4728
メ	-4729
事	-4730
件	-4731
台	-4732
日	-4733
朝	-4734
本	-4735
灣	-4736
軍	-4737
	-4738
	-4739
	-4740
	-4741
	-4742
	-4743
	-4744
	-4745
🇪	-4746
🍃	-4747
📣	-4748
🔷	-4749
😅	-4750
😏	-4751
😛	-4752
😢	-4753
😥	-4754
😳	-4755
😵	-4756
🙁	-4757
	-4758
	-4759
	-4760
	-4761
	-4762
¥	-4763
Á	-4764
Å	-4765
Ô	-4766
æ	-4767
ì	-4768
þ	-4769
ć	-4770
ī	-4771
ł	-4772
ŋ	-4773
ū	-4774
ű	-4775
Ž	-4776
ǎ	-4777
ɔ	-4778
ə	-4779
ɜ	-4780
ɨ	-4781
ʀ	-4782
ʁ	-4783
ʺ	-4784
ˌ	-4785
ˏ	-4786
̃	-4787
̏	-4788
̵	-4789
Α	-4790
Ε	-4791
Μ	-4792
Φ	-4793
ζ	-4794
φ	-4795
ω	-4796
Г	-4797
З	-4798
И	-4799
О	-4800
П	-4801
С	-4802
м	-4803
т	-4804
у	-4805
ф	-4806
х	-4807
ы	-4808
ь	-4809
я	-4810
ё	-4811
ћ	-4812
ה	-4813
ח	-4814
כ	-4815
מ	-4816
פ	-4817
ש	-4818
ٓ	-4819
څ	-4820
ګ	-4821
ں	-4822
ۃ	-4823
ێ	-4824
ے	-4825
ก	-4826
ง	-4827
แ	-4828
გ	-4829
ე	-4830
მ	-4831
ნ	-4832
უ	-4833
ქ	-4834
Ḥ	-4835
ṇ	-4836
ṯ	-4837
ủ	-4838
ἐ	-4839
ἥ	-4840
Ἴ	-4841
ῖ	-4842
―	-4843
†	-4844
※	-4845
⁠	-4846
₩	-4847
₹	-4848
↓	-4849
⇆	-4850
⇔	-4851
∀	-4852
∆	-4853
∈	-4854
∗	-4855
∘	-4856
∴	-4857
≈	-4858
⊞	-4859
⋆	-4860
⌘	-4861
⏳	-4862
⏺	-4863
►	-4864
◇	-4865
◽	-4866
◾	-4867
☆	-4868
☚	-4869
♊	-4870
♒	-4871
♡	-4872
⚽	-4873
✋	-4874
✍	-4875
✳	-4876
✵	-4877
❌	-4878
❗	-4879
➌	-4880
➐	-4881
⟨	-4882
⟩	-4883
⬅	-4884
《	-4885
》	-4886
「	-4887
か	-4888
き	-4889
ど	-4890
ま	-4891
モ	-4892
ヤ	-4893
一	-4894
东	-4895
人	-4896
前	-4897
十	-4898
命	-4899
坛	-4900
外	-4901
天	-4902
子	-4903
孫	-4904
將	-4905
撫	-4906
斐	-4907
旗	-4908
月	-4909
樹	-4910
湾	-4911
爱	-4912
生	-4913
甲	-4914
碌	-4915
神	-4916
臺	-4917
英	-4918
蔼	-4919
语	-4920
谷	-4921
锦	-4922
门	-4923
革	-4924
도	-4925
라	-4926
아	-4927
장	-4928
티	-4929
	-4930
	-4931
	-4932
	-4933
	-4934
	-4935
	-4936
	-4937
	-4938
	-4939
	-4940
	-4941
	-4942
	-4943
	-4944
	-4945
🇩	-4946
🇬	-4947
🇷	-4948
🇺	-4949
🌀	-4950
🌐	-4951
🌬	-4952
🌲	-4953
🌺	-4954
🍁	-4955
🍳	-4956
🎁	-4957
🎄	-4958
🎥	-4959
🎬	-4960
🐶	-4961
👑	-4962
💎	-4963
💕	-4964
💜	-4965
💟	-4966
💫	-4967
💳	-4968
📈	-4969
📌	-4970
📍	-4971
📑	-4972
📝	-4973
📱	-4974
📽	-4975
🔎	-4976
🔔	-4977
🔵	-4978
🔶	-4979
🗽	-4980
😁	-4981
😌	-4982
😎	-4983
😒	-4984
😔	-4985
😕	-4986
😗	-4987
😙	-4988
😭	-4989
😶	-4990
🙏	-4991
🚀	-4992
🚫	-4993
🤔	-4994
🤗	-4995
🥇	-4996
