[UNK]	0
[CLS]	1
[SEP]	2
[PAD]	3
[MASK]	4
!	5
"	6
#	7
$	8
%	9
&	10
'	11
(	12
)	13
*	14
+	15
,	16
-	17
.	18
/	19
0	20
1	21
2	22
3	23
4	24
5	25
6	26
7	27
8	28
9	29
:	30
;	31
<	32
=	33
>	34
?	35
@	36
[	37
\	38
]	39
^	40
_	41
`	42
a	43
b	44
c	45
d	46
e	47
f	48
g	49
h	50
i	51
j	52
k	53
l	54
m	55
n	56
o	57
p	58
q	59
r	60
s	61
t	62
u	63
v	64
w	65
x	66
y	67
z	68
{	69
|	70
}	71
~	72
	73
	74
	75
	76
	77
	78
	79
	80
	81
	82
	83
	84
	85
	86
	87
¡	88
¢	89
£	90
¤	91
¥	92
§	93
©	94
«	95
¬	96
­	97
®	98
°	99
±	100
·	101
»	102
×	103
ß	104
à	105
á	106
â	107
ã	108
ä	109
å	110
æ	111
ç	112
è	113
é	114
ê	115
ë	116
ì	117
í	118
î	119
ï	120
ð	121
ñ	122
ò	123
ó	124
ô	125
ö	126
÷	127
ø	128
ú	129
ü	130
ý	131
þ	132
ā	133
ć	134
ē	135
ğ	136
ī	137
ı	138
ł	139
ń	140
ŋ	141
œ	142
ş	143
š	144
ū	145
ű	146
ž	147
ƒ	148
ǎ	149
ɔ	150
ə	151
ɛ	152
ɜ	153
ɨ	154
ɪ	155
ʀ	156
ʁ	157
ʊ	158
ʺ	159
ˈ	160
ˌ	161
ˏ	162
ː	163
́	164
̃	165
̇	166
̈	167
̊	168
̋	169
̏	170
̨	171
̵	172
α	173
β	174
γ	175
δ	176
ε	177
ζ	178
θ	179
κ	180
λ	181
μ	182
ν	183
ο	184
ρ	185
ς	186
τ	187
φ	188
ω	189
а	190
б	191
г	192
д	193
е	194
з	195
и	196
й	197
к	198
л	199
м	200
н	201
о	202
п	203
р	204
с	205
т	206
у	207
ф	208
х	209
ы	210
ь	211
я	212
ё	213
ћ	214
ה	215
ח	216
י	217
כ	218
מ	219
פ	220
ש	221
،	222
؛	223
؟	224
ء	225
آ	226
أ	227
ؤ	228
إ	229
ئ	230
ا	231
ب	232
ة	233
ت	234
ث	235
ج	236
ح	237
خ	238
د	239
ذ	240
ر	241
ز	242
س	243
ش	244
ص	245
ض	246
ط	247
ظ	248
ع	249
غ	250
ـ	251
ف	252
ق	253
ك	254
ل	255
م	256
ن	257
ه	258
و	259
ى	260
ي	261
ً	262
ٌ	263
ٍ	264
َ	265
ُ	266
ِ	267
ّ	268
ْ	269
ٓ	270
ٔ	271
٠	272
١	273
٢	274
٣	275
٤	276
٥	277
٦	278
٧	279
٨	280
٩	281
٪	282
٫	283
٬	284
ٰ	285
ٴ	286
پ	287
ٿ	288
څ	289
چ	290
ژ	291
ک	292
ڪ	293
ګ	294
گ	295
ڵ	296
ں	297
ھ	298
ۀ	299
ہ	300
ۂ	301
ۃ	302
ۆ	303
ی	304
ێ	305
ے	306
۔	307
ە	308
۰	309
۱	310
۲	311
۳	312
۴	313
۵	314
۶	315
۷	316
۸	317
۹	318
ܔ	319
ܜ	320
ก	321
ง	322
แ	323
ა	324
გ	325
ე	326
ვ	327
თ	328
ი	329
ლ	330
მ	331
ნ	332
ო	333
რ	334
ს	335
უ	336
ქ	337
ḥ	338
ṇ	339
ṯ	340
ủ	341
ἐ	342
ἥ	343
ἴ	344
ῖ	345
​	346
‌	347
‍	348
‎	349
‏	350
–	351
—	352
―	353
‘	354
’	355
‚	356
“	357
”	358
„	359
†	360
•	361
‪	362
‫	363
‬	364
‭	365
′	366
‹	367
›	368
※	369
⁄	370
⁠	371
⁣	372
⁧	373
⁩	374
⁪	375
⁭	376
⁮	377
⁯	378
₩	379
€	380
₹	381
⃣	382
←	383
↑	384
→	385
↓	386
⇆	387
⇐	388
⇔	389
∀	390
∆	391
∈	392
−	393
∗	394
∘	395
√	396
∴	397
≈	398
≠	399
≡	400
≤	401
≥	402
⊞	403
⋆	404
⌘	405
⏳	406
⏺	407
▐	408
■	409
□	410
▪	411
▫	412
▬	413
▲	414
▶	415
►	416
◀	417
◄	418
◇	419
◊	420
○	421
●	422
◦	423
◽	424
◾	425
★	426
☆	427
☚	428
☺	429
☼	430
♊	431
♒	432
♡	433
♥	434
♦	435
♪	436
♫	437
♬	438
♯	439
⚡	440
⚽	441
✅	442
✋	443
✍	444
✓	445
✔	446
✕	447
✤	448
✭	449
✳	450
✵	451
❇	452
❌	453
❗	454
❤	455
➌	456
➐	457
➕	458
➖	459
⟨	460
⟩	461
⦁	462
⬅	463
《	464
》	465
「	466
か	467
き	468
ど	469
ま	470
メ	471
モ	472
ヤ	473
一	474
东	475
事	476
人	477
件	478
前	479
十	480
台	481
命	482
坛	483
外	484
天	485
子	486
孫	487
將	488
撫	489
斐	490
旗	491
日	492
月	493
朝	494
本	495
樹	496
湾	497
灣	498
爱	499
生	500
甲	501
碌	502
神	503
臺	504
英	505
蔼	506
语	507
谷	508
軍	509
锦	510
门	511
革	512
도	513
라	514
아	515
장	516
티	517
	518
	519
	520
	521
	522
	523
	524
	525
	526
	527
	528
	529
	530
	531
	532
	533
	534
	535
	536
	537
	538
	539
	540
	541
	542
	543
	544
	545
	546
	547
	548
﴾	549
﴿	550
️	551
﻿	552
�	553
🇩	554
🇪	555
🇬	556
🇷	557
🇺	558
🌀	559
🌐	560
🌬	561
🌲	562
🌷	563
🌸	564
🌺	565
🍁	566
🍃	567
🍳	568
🎁	569
🎄	570
🎥	571
🎬	572
🐶	573
👈	574
👌	575
👏	576
👑	577
👻	578
💎	579
💕	580
💜	581
💟	582
💫	583
💳	584
📈	585
📌	586
📍	587
📑	588
📝	589
📣	590
📱	591
📽	592
🔎	593
🔔	594
🔥	595
🔴	596
🔵	597
🔶	598
🔷	599
🔸	600
🔹	601
🔺	602
🔻	603
🗽	604
😀	605
😁	606
😂	607
😅	608
😉	609
😊	610
😌	611
😍	612
😎	613
😏	614
😐	615
😒	616
😔	617
😕	618
😗	619
😙	620
😛	621
😢	622
😥	623
😭	624
😳	625
😵	626
😶	627
🙁	628
🙂	629
🙏	630
🚀	631
🚫	632
🤔	633
🤗	634
🥇	635
##ف	636
##ا	637
##ع	638
##ی	639
##،	640
##و	641
##س	642
##ت	643
##ک	644
##خ	645
##د	646
##ن	647
##ق	648
##ر	649
##t	650
##h	651
##ل	652
##م	653
##ه	654
##‌	655
##ۀ	656
##چ	657
##ب	658
##آ	659
##ُ	660
##ز	661
##گ	662
##e	663
##ؤ	664
##ي	665
##d	666
##u	667
##l	668
##y	669
##a	670
##j	671
##o	672
##n	673
##ش	674
##ض	675
##c	676
##r	677
##v	678
##ص	679
##p	680
##w	681
##ظ	682
##s	683
##_	684
###	685
##9	686
##7	687
##1	688
##i	689
##8	690
##0	691
##ِ	692
##ث	693
##ة	694
##پ	695
##g	696
##b	697
##ط	698
##ئ	699
##ـ	700
##٠	701
##َ	702
##غ	703
##ذ	704
##ح	705
##ً	706
##ج	707
##k	708
##۲	709
##2	710
##ژ	711
##‎	712
##m	713
##۹	714
##۳	715
##4	716
##ٔ	717
##ّ	718
##x	719
##5	720
##f	721
##ى	722
##ô	723
##۵	724
##۰	725
##3	726
##ٍ	727
##z	728
##ك	729
##ء	730
##ْ	731
##q	732
##۷	733
##6	734
##ก	735
##ง	736
##*	737
##]	738
##.	739
##)	740
##أ	741
##۸	742
##١	743
##ç	744
##ö	745
##γ	746
##۶	747
##₩	748
##(	749
##е	750
##д	751
##р	752
##а	753
##́	754
##л	755
##ь	756
##н	757
##ы	758
##й	759
##»	760
##ä	761
##é	762
##۱	763
##,	764
##ó	765
##←	766
##‏	767
##<	768
##-	769
##ھ	770
##̈	771
##٩	772
##٣	773
##٤	774
##٬	775
##٥	776
##}	777
##[	778
##‍	779
##%	780
##۴	781
##”	782
##|	783
##>	784
##ü	785
##í	786
##🔥	787
##:	788
##👏	789
##=	790
##٨	791
##"	792
##&	793
##ş	794
##ı	795
##؟	796
##٧	797
##本	798
##人	799
##/	800
##ٌ	801
##á	802
##命	803
##🌸	804
##ø	805
##ë	806
##¤	807
##б	808
##и	809
##о	810
##إ	811
##😵	812
##!	813
##è	814
##●	815
##♥	816
##ɪ	817
##ש	818
##י	819
##ח	820
##;	821
##т	822
##ń	823
##🎄	824
##’	825
##٢	826
##ρ	827
##«	828
##‫	829
##\	830
##‘	831
##å	832
##ګ	833
##ú	834
##ñ	835
##ω	836
##'	837
##ა	838
##ქ	839
##რ	840
##თ	841
##ვ	842
##ე	843
##ლ	844
##ო	845
##$	846
##{	847
##ܔ	848
##@	849
##ˌ	850
##‹	851
##ã	852
##̇	853
##¬	854
##﻿	855
##♫	856
##月	857
##α	858
##£	859
##ē	860
##ە	861
##ν	862
##ε	863
##ς	864
##⃣	865
##ï	866
##`	867
##😁	868
##坛	869
##东	870
##门	871
##ے	872
##?	873
##+	874
##ڵ	875
##؛	876
##^	877
##•	878
##😀	879
##🤔	880
##😗	881
##👌	882
##î	883
##­	884
##ː	885
##ˈ	886
##ŋ	887
##ʊ	888
##~	889
##ì	890
##â	891
##☺	892
##😙	893
##😔	894
##😂	895
##😅	896
##ۂ	897
##ê	898
##٦	899
##к	900
##у	901
##г	902
##פ	903
##ה	904
##ۆ	905
##с	906
##ğ	907
##	908
##�	909
##̊	910
##♯	911
##♪	912
##à	913
##ʀ	914
##ɔ	915
##̃	916
##★	917
##👻	918
##‬	919
##ٴ	920
##°	921
##旗	922
##♬	923
##м	924
##ٰ	925
##​	926
##😍	927
##ć	928
##🇺	929
##🇩	930
##🇪	931
##—	932
##′	933
##æ	934
##ζ	935
##谷	936
##英	937
##樹	938
##️	939
##ё	940
##ڪ	941
##ں	942
##✅	943
##š	944
##湾	945
##ā	946
##ṯ	947
##▬	948
##β	949
##‪	950
##➖	951
##ß	952
##장	953
##ű	954
##🇬	955
##🇷	956
##语	957
##ə	958
##ɛ	959
##ṇ	960
##ī	961
##ū	962
##›	963
##🍃	964
##ٓ	965
##🌷	966
##ს	967
##მ	968
##უ	969
##ი	970
##灣	971
##	972
##件	973
##ћ	974
##子	975
##я	976
##ý	977
##“	978
##⌘	979
##아	980
##라	981
##ٿ	982
##	983
##	984
##😉	985
##ò	986
##٫	987
##‭	988
##λ	989
##κ	990
##τ	991
##ο	992
##ῖ	993
##	994
##≈	995
##軍	996
##將	997
##ủ	998
##გ	999
##ნ	1000
##٪	1001
##§	1002
##ð	1003
##⁣	1004
##х	1005
##ł	1006
##ان	1007
##ای	1008
##ار	1009
##ست	1010
##ند	1011
در	1012
##ین	1013
به	1014
می	1015
##ود	1016
##ید	1017
که	1018
از	1019
را	1020
است	1021
با	1022
##اد	1023
بر	1024
##رد	1025
##ال	1026
این	1027
##ام	1028
##ور	1029
##اه	1030
##یر	1031
##ات	1032
آن	1033
##یم	1034
یک	1035
می‌	1036
##شت	1037
##ما	1038
هم	1039
کن	1040
##وان	1041
برای	1042
##لی	1043
##اب	1044
##ری	1045
##ها	1046
##ون	1047
##های	1048
های	1049
##ده	1050
##فت	1051
##سی	1052
##ول	1053
##از	1054
ان	1055
##وی	1056
من	1057
کرد	1058
مو	1059
##گر	1060
دار	1061
خود	1062
##اری	1063
##را	1064
##رو	1065
##لا	1066
##مان	1067
##می	1068
خو	1069
##تر	1070
##اده	1071
شما	1072
##تی	1073
بود	1074
نی	1075
##کن	1076
رو	1077
کار	1078
##ه‌	1079
یا	1080
باش	1081
بی	1082
ها	1083
تا	1084
##یت	1085
ما	1086
##گی	1087
##زی	1088
او	1089
##انی	1090
تو	1091
دا	1092
##خت	1093
ای	1094
ده	1095
شد	1096
شده	1097
سال	1098
##اید	1099
##اس	1100
دو	1101
##ایی	1102
ام	1103
هر	1104
##رک	1105
دی	1106
هست	1107
کند	1108
##دا	1109
مح	1110
کنید	1111
##یا	1112
شود	1113
آم	1114
توان	1115
فر	1116
مت	1117
پی	1118
کنند	1119
مع	1120
خواه	1121
##فر	1122
##بی	1123
داشت	1124
##انه	1125
##قی	1126
##‌های	1127
اما	1128
##نگ	1129
دست	1130
##گاه	1131
سر	1132
##یل	1133
تر	1134
باشد	1135
##بت	1136
##له	1137
دارد	1138
نمی	1139
حال	1140
##نی	1141
آنها	1142
##عی	1143
##اق	1144
باید	1145
مد	1146
##رت	1147
اگر	1148
قر	1149
##توان	1150
##مای	1151
##وز	1152
##ادی	1153
بد	1154
مش	1155
##ارد	1156
کم	1157
استف	1158
گر	1159
ال	1160
استفاده	1161
کش	1162
باز	1163
دان	1164
چه	1165
##رف	1166
چی	1167
##شان	1168
اس	1169
##‌ها	1170
##فته	1171
بسی	1172
##جه	1173
اند	1174
##جود	1175
##وری	1176
##بر	1177
##اره	1178
نظ	1179
دیگر	1180
##عد	1181
##اف	1182
مورد	1183
زمان	1184
##وند	1185
هستند	1186
##اند	1187
انج	1188
##که	1189
مس	1190
##نده	1191
##اخت	1192
##خو	1193
##امه	1194
##عه	1195
تح	1196
نو	1197
##وم	1198
##دید	1199
##عت	1200
پیش	1201
روز	1202
انجام	1203
##کر	1204
مق	1205
مرد	1206
##..	1207
تن	1208
##نین	1209
داد	1210
اف	1211
نیست	1212
##زار	1213
زند	1214
جه	1215
##مل	1216
تم	1217
وجود	1218
##قت	1219
##رس	1220
##اط	1221
انت	1222
بین	1223
بیشت	1224
اج	1225
##شی	1226
##رگ	1227
عن	1228
##رب	1229
رس	1230
##دی	1231
نیز	1232
##الی	1233
##ستان	1234
مه	1235
می‌ش	1236
##کی	1237
##مین	1238
همه	1239
##خص	1240
پس	1241
اح	1242
قرار	1243
کرده	1244
##گیر	1245
بز	1246
ات	1247
##رکت	1248
هی	1249
گذ	1250
##ریک	1251
مم	1252
روی	1253
توس	1254
عنوان	1255
...	1256
##امل	1257
##وت	1258
خواهد	1259
زی	1260
##ترین	1261
داشته	1262
کشور	1263
بخ	1264
زندگی	1265
دانش	1266
دهد	1267
واق	1268
ساز	1269
##ونه	1270
مط	1271
سی	1272
ند	1273
##شن	1274
ممکن	1275
##شته	1276
می‌توان	1277
همچ	1278
##کل	1279
گفت	1280
##فا	1281
##وه	1282
می‌ک	1283
##یده	1284
##امی	1285
تص	1286
تج	1287
مان	1288
وی	1289
مج	1290
داده	1291
بیشتر	1292
##رای	1293
##رز	1294
راه	1295
نظر	1296
بازی	1297
بسیار	1298
##شد	1299
دارند	1300
می‌کن	1301
اط	1302
جم	1303
##خی	1304
##ایت	1305
شرکت	1306
هیچ	1307
##دم	1308
##چه	1309
نیاز	1310
کردن	1311
##قه	1312
##گان	1313
برن	1314
##اص	1315
##وش	1316
نام	1317
نق	1318
بزرگ	1319
یکی	1320
##اتی	1321
اول	1322
##است	1323
##کان	1324
نه	1325
کس	1326
آمریک	1327
##وا	1328
اص	1329
##ورت	1330
کل	1331
شه	1332
افر	1333
مث	1334
دور	1335
بعد	1336
جدید	1337
تغ	1338
تنها	1339
##مند	1340
##حی	1341
20	1342
تواند	1343
ساخت	1344
نمی‌	1345
چند	1346
شن	1347
کمک	1348
نشان	1349
همچنین	1350
##وید	1351
مردم	1352
##ارت	1353
##زای	1354
فق	1355
##لب	1356
##ازه	1357
##خواه	1358
##با	1359
پای	1360
‌های	1361
عم	1362
ماه	1363
بن	1364
##سان	1365
##صد	1366
زن	1367
اد	1368
##ییر	1369
قب	1370
تغییر	1371
طور	1372
##جا	1373
##ره	1374
##لام	1375
می‌شود	1376
##er	1377
چیزی	1378
واقع	1379
شوند	1380
بار	1381
##عات	1382
##اک	1383
##ادر	1384
سو	1385
##دود	1386
##ژی	1387
##رائ	1388
##ه‌ای	1389
کنیم	1390
آز	1391
ایر	1392
##قل	1393
برنامه	1394
زیر	1395
می‌کند	1396
##لف	1397
پرو	1398
توسط	1399
اع	1400
همان	1401
##به	1402
قد	1403
جن	1404
##ه‌ی	1405
##شه	1406
##جاد	1407
دن	1408
##ورد	1409
##یه	1410
ایجاد	1411
تمام	1412
##ابل	1413
آیا	1414
نا	1415
##زین	1416
فقط	1417
خدا	1418
بیم	1419
بل	1420
##گونه	1421
##بان	1422
صورت	1423
##باره	1424
##ستم	1425
آموز	1426
دل	1427
##وع	1428
بیش	1429
جهان	1430
مانند	1431
مص	1432
##ونی	1433
طول	1434
خان	1435
تب	1436
##قد	1437
##ه‌های	1438
##کار	1439
##کت	1440
چیز	1441
##خاب	1442
تول	1443
بسیاری	1444
##یلی	1445
حتی	1446
فع	1447
نس	1448
ارت	1449
هن	1450
کو	1451
هایی	1452
باشید	1453
انتخاب	1454
تع	1455
اینکه	1456
زمین	1457
##ثر	1458
افراد	1459
خط	1460
##کس	1461
##ضی	1462
گرفت	1463
یاد	1464
##بود	1465
##تاب	1466
##رسی	1467
اطلا	1468
آمریکا	1469
سه	1470
وق	1471
رفت	1472
برخی	1473
##تان	1474
غیر	1475
نم	1476
##گذ	1477
##مال	1478
تق	1479
آی	1480
زمانی	1481
نش	1482
مهم	1483
##قیق	1484
##لیل	1485
پر	1486
##شم	1487
دول	1488
##وس	1489
##on	1490
##سته	1491
اخ	1492
‌ها	1493
##نج	1494
##فی	1495
ایران	1496
اش	1497
.»	1498
##گری	1499
##وب	1500
کود	1501
جای	1502
##گیری	1503
##وق	1504
افزای	1505
به‌	1506
##سم	1507
کتاب	1508
چرا	1509
افزایش	1510
می‌ده	1511
فیل	1512
درصد	1513
##00	1514
معم	1515
##بار	1516
باشند	1517
نمای	1518
دهند	1519
آب	1520
##بین	1521
هد	1522
وا	1523
بخش	1524
##اً	1525
##بال	1526
##ابی	1527
دوست	1528
سا	1529
مرا	1530
##کرد	1531
تولید	1532
##یس	1533
شب	1534
##ریق	1535
دید	1536
مر	1537
فکر	1538
غذ	1539
##in	1540
##زه	1541
شخص	1542
مشت	1543
مدیر	1544
همین	1545
##ژه	1546
دهید	1547
حق	1548
علا	1549
ارائ	1550
سیا	1551
وقتی	1552
میلی	1553
چگونه	1554
##یشه	1555
##یدا	1556
کسی	1557
گرو	1558
##ایل	1559
توجه	1560
فرو	1561
مشکل	1562
تش	1563
حس	1564
فعال	1565
##رم	1566
##طور	1567
بدون	1568
##سه	1569
ارائه	1570
عل	1571
خار	1572
مخت	1573
سازمان	1574
می‌کنند	1575
##وط	1576
##an	1577
##نه	1578
کردند	1579
توانید	1580
##هایی	1581
کنم	1582
##رات	1583
فرد	1584
هنگ	1585
بودند	1586
عمل	1587
زیادی	1588
اعت	1589
##عیت	1590
پیدا	1591
آن‌ها	1592
کاه	1593
##ازی	1594
سیستم	1595
حا	1596
احس	1597
شدن	1598
##جی	1599
جنگ	1600
اه	1601
##راحی	1602
##رزش	1603
شهر	1604
##بط	1605
خیلی	1606
کاهش	1607
آل	1608
##روع	1609
خوب	1610
خر	1611
نفر	1612
##تما	1613
مطال	1614
##دار	1615
19	1616
##ar	1617
۲۰	1618
دولت	1619
##داشت	1620
اقت	1621
شروع	1622
بال	1623
##ذیر	1624
بوده	1625
مختلف	1626
گرد	1627
ترک	1628
##اش	1629
کام	1630
امرو	1631
گرفته	1632
سپ	1633
##وار	1634
##فق	1635
اقتص	1636
##ستی	1637
خانه	1638
فیلم	1639
##وص	1640
درمان	1641
انسان	1642
اطلاعات	1643
احساس	1644
##الات	1645
گروه	1646
قابل	1647
##لیه	1648
##گه	1649
درباره	1650
اولین	1651
موض	1652
ایم	1653
##رین	1654
##یمی	1655
متح	1656
##دن	1657
بهترین	1658
دیگری	1659
قبل	1660
##دان	1661
##رکز	1662
گو	1663
##ویی	1664
##اسی	1665
نز	1666
##زینه	1667
دلیل	1668
بناب	1669
میان	1670
شک	1671
منط	1672
##ولی	1673
دارید	1674
مست	1675
شان	1676
چنین	1677
تاری	1678
منت	1679
جل	1680
کسب	1681
صح	1682
##یف	1683
سایت	1684
##باط	1685
انگ	1686
روش	1687
حرف	1688
##or	1689
ترین	1690
همیشه	1691
##عث	1692
می‌تواند	1693
ندارد	1694
##ثیر	1695
تلا	1696
پرد	1697
گیر	1698
زبان	1699
##راین	1700
بنابراین	1701
باعث	1702
##زش	1703
ولی	1704
201	1705
##یدن	1706
##میم	1707
کوچ	1708
##سر	1709
##اهی	1710
موفق	1711
قدرت	1712
احت	1713
ارو	1714
##ینی	1715
##مه	1716
خانو	1717
پاس	1718
آورد	1719
معمول	1720
ارتباط	1721
گذشته	1722
مخ	1723
دریا	1724
سط	1725
طراحی	1726
خدم	1727
کاری	1728
اجتما	1729
قان	1730
تعد	1731
طریق	1732
محص	1733
##ضر	1734
##اور	1735
اروپ	1736
آنچه	1737
تلاش	1738
اب	1739
مدت	1740
جهانی	1741
سری	1742
اشت	1743
هدف	1744
حدود	1745
##یب	1746
سن	1747
دنبال	1748
##گو	1749
بهتر	1750
##en	1751
##اپ	1752
##ودی	1753
شامل	1754
##ومی	1755
##مد	1756
دانشگاه	1757
وب	1758
بالا	1759
هنوز	1760
##گز	1761
##ربه	1762
محصول	1763
توسعه	1764
خاص	1765
##نان	1766
##گرد	1767
ار	1768
اصلی	1769
اجتماعی	1770
سرمای	1771
قط	1772
بدن	1773
شم	1774
##ریان	1775
##افی	1776
نوع	1777
##ویس	1778
افت	1779
سای	1780
لی	1781
خرید	1782
آینده	1783
##al	1784
مسئ	1785
##at	1786
دریافت	1787
خواهند	1788
##ندی	1789
فروش	1790
##اسب	1791
ته	1792
##ران	1793
تان	1794
ادامه	1795
##ندگان	1796
تحقیق	1797
مصرف	1798
کمی	1799
کننده	1800
خواهید	1801
زنان	1802
##هن	1803
نسبت	1804
تصمیم	1805
بع	1806
تأ	1807
##راه	1808
احتمال	1809
زیرا	1810
خانواده	1811
پاسخ	1812
دادن	1813
##شر	1814
جز	1815
##فاوت	1816
##ضای	1817
حاضر	1818
##رح	1819
گی	1820
نیر	1821
دارای	1822
بررسی	1823
##اح	1824
مالی	1825
رشد	1826
آموزش	1827
ساعت	1828
##وک	1829
کوچک	1830
نزدی	1831
می‌دهد	1832
کنتر	1833
حالی	1834
بگیر	1835
چهار	1836
میلیون	1837
ندار	1838
##مت	1839
تجربه	1840
جام	1841
##مللی	1842
ری	1843
##es	1844
فعالیت	1845
صد	1846
##ابر	1847
گزار	1848
کلی	1849
شرای	1850
شرایط	1851
تبد	1852
اض	1853
##کنون	1854
کنترل	1855
نتی	1856
میز	1857
تبدیل	1858
##برد	1859
توانند	1860
صف	1861
پشت	1862
##ائ	1863
موضوع	1864
همراه	1865
خوبی	1866
مل	1867
گفته	1868
پزش	1869
کامل	1870
داخ	1871
امروز	1872
##اران	1873
تحت	1874
خص	1875
##رده	1876
طبی	1877
هزار	1878
ارزش	1879
وارد	1880
ست	1881
##ظه	1882
پنج	1883
##اطر	1884
بده	1885
بتوان	1886
آغ	1887
##لاح	1888
۱۹	1889
##شار	1890
اک	1891
وقت	1892
گست	1893
##ضا	1894
سطح	1895
##ویر	1896
منطقه	1897
بلکه	1898
چون	1899
##ه‌اند	1900
بیماری	1901
بازار	1902
گزارش	1903
حل	1904
##ازم	1905
##در	1906
شاید	1907
هفته	1908
اخت	1909
اجازه	1910
صحبت	1911
##نا	1912
##یدی	1913
سب	1914
مرب	1915
خوان	1916
پذیر	1917
صن	1918
##گوی	1919
خصوص	1920
اندازه	1921
تعداد	1922
چشم	1923
##گران	1924
مدیریت	1925
مواد	1926
##‌تر	1927
##پی	1928
سخ	1929
حدا	1930
پول	1931
شی	1932
اغ	1933
دلار	1934
##۰۰	1935
سلام	1936
آخ	1937
آسی	1938
پایان	1939
شکل	1940
##ندان	1941
سل	1942
یع	1943
بیشتری	1944
آغاز	1945
##فاق	1946
محدود	1947
نتیجه	1948
##رژی	1949
مثال	1950
وض	1951
برابر	1952
درست	1953
واقعی	1954
##تری	1955
مغ	1956
کان	1957
ایالات	1958
خواست	1959
هستید	1960
دوره	1961
##le	1962
مثل	1963
سف	1964
خطر	1965
##دام	1966
متحده	1967
خوش	1968
صفح	1969
##it	1970
ابت	1971
یافت	1972
وز	1973
یعنی	1974
اتفاق	1975
اید	1976
##بران	1977
نگاه	1978
طرف	1979
اغلب	1980
دنیا	1981
جمله	1982
ره	1983
##خواست	1984
##فه	1985
حمای	1986
##نت	1987
مربوط	1988
##ic	1989
##ابت	1990
شدند	1991
هزینه	1992
##انس	1993
بح	1994
امکان	1995
چین	1996
##وست	1997
موارد	1998
مک	1999
مناسب	2000
اروپا	2001
نبود	2002
اساس	2003
البت	2004
عب	2005
حض	2006
تاریخ	2007
نزدیک	2008
##ه‌ها	2009
دیگران	2010
».	2011
کسانی	2012
البته	2013
تیم	2014
پیر	2015
##داری	2016
مشخص	2017
منظ	2018
حمایت	2019
لازم	2020
انرژی	2021
آزمای	2022
##کاری	2023
امن	2024
خدمات	2025
رای	2026
هنگامی	2027
قیم	2028
جان	2029
##قات	2030
خاطر	2031
##ربی	2032
روسی	2033
فل	2034
هوا	2035
##بری	2036
مرت	2037
مطالعه	2038
شناخت	2039
موجود	2040
آر	2041
اینجا	2042
جمه	2043
سرا	2044
اقتصادی	2045
رابط	2046
طب	2047
داریم	2048
می‌خواه	2049
##جر	2050
قانون	2051
بدان	2052
تقری	2053
نگه	2054
کودکان	2055
کافی	2056
سرمایه	2057
توص	2058
کاملا	2059
##شید	2060
##رخ	2061
تاثیر	2062
خون	2063
پیشر	2064
##اله	2065
##ولو	2066
##ویت	2067
##رض	2068
سایر	2069
سپس	2070
تک	2071
##این	2072
خواب	2073
##صل	2074
اعلام	2075
##یره	2076
##ئیس	2077
سیاسی	2078
سریع	2079
می‌شوند	2080
دخ	2081
انتظ	2082
ملی	2083
حی	2084
##گذار	2085
سفر	2086
نخواه	2087
تقریبا	2088
نمایش	2089
شخصی	2090
اقد	2091
10	2092
کردم	2093
جو	2094
مرگ	2095
اکنون	2096
آزمایش	2097
شوید	2098
رنگ	2099
##من	2100
نت	2101
قیمت	2102
کمتر	2103
زمینه	2104
##st	2105
داستان	2106
درک	2107
in	2108
بهبود	2109
پرداخت	2110
جا	2111
##‌اند	2112
مجم	2113
بان	2114
هرگز	2115
كه	2116
دارم	2117
نقش	2118
تکن	2119
لب	2120
المللی	2121
طبیعی	2122
حقی	2123
انتظار	2124
می‌کرد	2125
##شین	2126
##جوی	2127
فرز	2128
بعضی	2129
رسید	2130
جوان	2131
##وهای	2132
مذ	2133
کودک	2134
ساده	2135
##امبر	2136
انتق	2137
مادر	2138
حف	2139
محی	2140
محیط	2141
پروژه	2142
خارج	2143
##امات	2144
پار	2145
محت	2146
##ro	2147
حداقل	2148
لح	2149
سخت	2150
کنار	2151
عمومی	2152
##خورد	2153
روسیه	2154
##اهای	2155
##اتر	2156
شر	2157
عو	2158
##وده	2159
ببین	2160
دقیق	2161
##ئن	2162
##میت	2163
موفقیت	2164
ساخته	2165
فرص	2166
نخ	2167
تما	2168
خلا	2169
رق	2170
##ونت	2171
سیاست	2172
دوم	2173
).	2174
موق	2175
آماده	2176
ور	2177
افرادی	2178
حقوق	2179
حفظ	2180
مشکلات	2181
##قدر	2182
تل	2183
خداوند	2184
نف	2185
انگلی	2186
اثر	2187
حک	2188
شبکه	2189
جامعه	2190
##اخ	2191
بودن	2192
نکن	2193
##کو	2194
آنجا	2195
th	2196
حد	2197
فی	2198
رفتار	2199
سازی	2200
حساب	2201
##ولوژی	2202
هو	2203
۲۰۱	2204
علیه	2205
سوی	2206
نکرد	2207
پرس	2208
##الت	2209
حرکت	2210
##صر	2211
صفحه	2212
دستگاه	2213
کشورهای	2214
صرف	2215
طی	2216
قادر	2217
جست	2218
##آمد	2219
200	2220
آنان	2221
جلو	2222
رئیس	2223
رابطه	2224
##غان	2225
##گوید	2226
آلمان	2227
سرعت	2228
مب	2229
##ایج	2230
نب	2231
گذاری	2232
خور	2233
میزان	2234
##اهده	2235
دوباره	2236
##مندان	2237
غذایی	2238
##مز	2239
##ابع	2240
##re	2241
##لح	2242
##خصص	2243
امید	2244
نمی‌توان	2245
##لق	2246
##خانه	2247
متفاوت	2248
##ئی	2249
تخ	2250
گذا	2251
##ac	2252
##هنگ	2253
جایی	2254
خارجی	2255
##گیرد	2256
سراسر	2257
گاهی	2258
##کتر	2259
آمریکایی	2260
علاوه	2261
عض	2262
عکس	2263
باور	2264
##افه	2265
هنگام	2266
برق	2267
تف	2268
آسیب	2269
بپ	2270
مار	2271
مف	2272
##om	2273
پیشنه	2274
آزاد	2275
تصویر	2276
اخیر	2277
حمل	2278
ویژه	2279
بیان	2280
وضعیت	2281
##ion	2282
##طان	2283
نوشت	2284
هستیم	2285
دسترسی	2286
معمولا	2287
خبر	2288
گونه	2289
بخشی	2290
واقعا	2291
آمده	2292
معت	2293
حم	2294
یاب	2295
راح	2296
فرم	2297
##کند	2298
بیمار	2299
کوت	2300
گل	2301
##سازی	2302
##کیل	2303
می‌توانید	2304
طولانی	2305
نتایج	2306
حقیقت	2307
مستق	2308
مشاهده	2309
##یز	2310
داشتن	2311
اشتب	2312
##ظت	2313
دختر	2314
نور	2315
شناس	2316
تجاری	2317
برگ	2318
زیاد	2319
##ستگی	2320
##رش	2321
##اهم	2322
پایین	2323
فشار	2324
هنر	2325
سعی	2326
##el	2327
یافته	2328
یه	2329
برس	2330
اینتر	2331
مسیر	2332
مکان	2333
##افق	2334
نشده	2335
ابزار	2336
##بور	2337
منتشر	2338
خورد	2339
بیر	2340
##دیگر	2341
##قق	2342
مشتریان	2343
##وریه	2344
آش	2345
عملی	2346
امنیت	2347
حضور	2348
##داف	2349
##‌ال	2350
جذ	2351
##لمان	2352
##وجه	2353
##تن	2354
کیف	2355
##جب	2356
##گار	2357
پدر	2358
مبت	2359
قسم	2360
نباید	2361
##قا	2362
رخ	2363
عالی	2364
##ظیم	2365
مهارت	2366
اقتصاد	2367
آور	2368
معن	2369
فرا	2370
اضافه	2371
معنی	2372
ایشان	2373
محصولات	2374
درخواست	2375
فران	2376
مدل	2377
فرصت	2378
##‌ترین	2379
لذ	2380
مطم	2381
آمد	2382
شور	2383
بی‌	2384
شناخته	2385
تلف	2386
##ومت	2387
مرح	2388
دم	2389
##طه	2390
##عا	2391
حالا	2392
شو	2393
استرات	2394
خش	2395
##ابه	2396
سنگ	2397
##et	2398
همکاری	2399
موسی	2400
نظامی	2401
استراتژی	2402
)،	2403
اسرائ	2404
گیرد	2405
##راف	2406
درد	2407
توانایی	2408
مبار	2409
مرکز	2410
بودم	2411
##لم	2412
##ou	2413
##ابط	2414
نخست	2415
ساله	2416
##جو	2417
##سانی	2418
منابع	2419
تمرکز	2420
##نامه	2421
پیشنهاد	2422
غذا	2423
##ادل	2424
چیست	2425
##is	2426
محل	2427
ترس	2428
ثبت	2429
کلا	2430
##الب	2431
روشن	2432
گیری	2433
نویس	2434
طرح	2435
سمت	2436
##امین	2437
جنسی	2438
##امپ	2439
دیده	2440
##رار	2441
##ماد	2442
##شود	2443
جمع	2444
اشتباه	2445
بعدی	2446
##قای	2447
##بات	2448
##واره	2449
روان	2450
روابط	2451
##شق	2452
کشت	2453
گوش	2454
حرفه	2455
انگی	2456
##ين	2457
نیستند	2458
آگاه	2459
##تل	2460
ضر	2461
##هایت	2462
می‌توانند	2463
دقی	2464
هستم	2465
دهه	2466
بس	2467
پیام	2468
خودش	2469
عملکرد	2470
##ریم	2471
خودتان	2472
اشاره	2473
##نو	2474
پیشرفت	2475
st	2476
ایده	2477
شغ	2478
##کنان	2479
اکثر	2480
فراهم	2481
اتح	2482
‌ای	2483
متوجه	2484
##‌هایی	2485
داخلی	2486
منجر	2487
خواهیم	2488
روند	2489
##oo	2490
##واج	2491
توضی	2492
##باشد	2493
##ائل	2494
داشتند	2495
جهت	2496
فه	2497
اعتماد	2498
مقدار	2499
مدرس	2500
کدام	2501
افغان	2502
صنعت	2503
تغییرات	2504
ماند	2505
تشکیل	2506
تحقیقات	2507
کال	2508
بگیرید	2509
انگلیسی	2510
##بانی	2511
منظور	2512
نگر	2513
##خیص	2514
مها	2515
##am	2516
تحص	2517
گرفتن	2518
تمرین	2519
رسد	2520
مراق	2521
پوش	2522
سوم	2523
استخ	2524
بازاری	2525
the	2526
##ینه	2527
آخرین	2528
دقیقه	2529
##as	2530
ماشین	2531
پوست	2532
مشتری	2533
##ریف	2534
نداشت	2535
ویژ	2536
تشخیص	2537
دهیم	2538
برد	2539
کی	2540
##ناه	2541
حمله	2542
رژ	2543
هوش	2544
‌هایی	2545
اپ	2546
شاه	2547
باشیم	2548
مطمئن	2549
بانک	2550
ندارند	2551
دنی	2552
کاربران	2553
توضیح	2554
گوی	2555
دوستان	2556
اسپ	2557
سخن	2558
مرحله	2559
##راک	2560
انقل	2561
مستقیم	2562
باقی	2563
توصیه	2564
افز	2565
آزادی	2566
اتاق	2567
می‌دان	2568
بسته	2569
نمود	2570
تس	2571
##لیغ	2572
هفت	2573
تبلیغ	2574
##حل	2575
وسی	2576
می‌آ	2577
##ظر	2578
ظاه	2579
##یتال	2580
امر	2581
متن	2582
##گذاری	2583
کوتاه	2584
عشق	2585
وزن	2586
گوید	2587
برخورد	2588
نفت	2589
##لاین	2590
جریان	2591
نهایت	2592
۱۰	2593
شکست	2594
رود	2595
##گفت	2596
##واع	2597
اهداف	2598
انواع	2599
##عیین	2600
تعیین	2601
واقعیت	2602
##میز	2603
مرتبط	2604
سوریه	2605
اجرا	2606
پاک	2607
##سال	2608
مردان	2609
قه	2610
رژیم	2611
بلند	2612
مشابه	2613
an	2614
مغز	2615
مدرسه	2616
ارس	2617
##il	2618
تمامی	2619
بخواه	2620
می‌کنید	2621
تهدید	2622
کاناد	2623
اطلاع	2624
استاند	2625
بیرون	2626
مناط	2627
توافق	2628
اق	2629
ابتدا	2630
چندین	2631
محقق	2632
بحث	2633
آت	2634
ازد	2635
سلامت	2636
حالت	2637
نوشته	2638
اطمین	2639
جمهوری	2640
موسیقی	2641
یکدیگر	2642
##امت	2643
نسخ	2644
اهمیت	2645
داخل	2646
ویر	2647
محاف	2648
کیفیت	2649
می‌رس	2650
میل	2651
##شناس	2652
همچنان	2653
اطمینان	2654
##ادگی	2655
آنلاین	2656
نرم	2657
##گل	2658
##گون	2659
عرض	2660
##ed	2661
مال	2662
##آن	2663
##راح	2664
ازدواج	2665
عق	2666
استاندارد	2667
درآمد	2668
لذت	2669
اسرائیل	2670
##اموش	2671
سود	2672
قوی	2673
اینترنت	2674
جلوگیری	2675
تای	2676
می‌گوید	2677
##آوری	2678
آسان	2679
سرطان	2680
پزشکی	2681
سفید	2682
شدید	2683
محلی	2684
اعضای	2685
کشف	2686
قسمت	2687
ذهن	2688
نص	2689
علاقه	2690
افغانستان	2691
##بیه	2692
فرانسه	2693
ویژگی	2694
ورزش	2695
نکنید	2696
##ادت	2697
سلول	2698
فیزی	2699
##وعه	2700
##تح	2701
##الد	2702
ساختمان	2703
خصوصی	2704
تکنولوژی	2705
بازگ	2706
اختی	2707
گزینه	2708
پیچ	2709
12	2710
##مون	2711
پاد	2712
خی	2713
عرا	2714
طبق	2715
پل	2716
جدا	2717
میلیارد	2718
راست	2719
اولیه	2720
کامپی	2721
کا	2722
##تور	2723
می‌کنم	2724
تأثیر	2725
نخواهد	2726
بندی	2727
مجموعه	2728
##ch	2729
##ol	2730
##داشته	2731
15	2732
##پیم	2733
سوال	2734
ارسال	2735
##رافی	2736
فوق	2737
نیم	2738
##وتی	2739
بگذار	2740
قرن	2741
##جات	2742
دادند	2743
دوران	2744
ارز	2745
آرام	2746
##انیا	2747
بازاریابی	2748
درو	2749
سالم	2750
وس	2751
##لیس	2752
مسئله	2753
##ایش	2754
عد	2755
فرهنگ	2756
گسترش	2757
قوان	2758
##یبانی	2759
پشتیبانی	2760
##افت	2761
آموزان	2762
انتقال	2763
تجارت	2764
##اصل	2765
##لیت	2766
##ad	2767
مقاله	2768
##فاع	2769
جدی	2770
ترکیه	2771
زنده	2772
##iv	2773
کنندگان	2774
##رفی	2775
مناطق	2776
18	2777
دری	2778
##ابق	2779
تفاوت	2780
پژ	2781
مسائل	2782
آقای	2783
##ئم	2784
تصور	2785
##وای	2786
رفتن	2787
تنظیم	2788
دانشجوی	2789
."	2790
کارهای	2791
حیوان	2792
ترامپ	2793
##چار	2794
جدیدی	2795
خواهم	2796
یابد	2797
برنام	2798
هند	2799
متخصص	2800
امریک	2801
##لاف	2802
اوقات	2803
##اکر	2804
اسل	2805
می‌دهند	2806
ران	2807
می‌کنیم	2808
کلم	2809
آدم	2810
شیر	2811
فار	2812
اقدام	2813
شخصیت	2814
قلب	2815
##وزی	2816
##داد	2817
##ing	2818
آتش	2819
##ریه	2820
فرزند	2821
##وبی	2822
خودم	2823
فلس	2824
مجبور	2825
کردیم	2826
موا	2827
##کته	2828
گسترده	2829
تماس	2830
نیروهای	2831
##بح	2832
اله	2833
تحلیل	2834
اختیار	2835
احتمالا	2836
قوانین	2837
مهاج	2838
این‌	2839
##جمه	2840
دنیای	2841
##ندگی	2842
موس	2843
حز	2844
##خته	2845
یادگیری	2846
پژوه	2847
قدیمی	2848
آید	2849
مقابل	2850
قصد	2851
صلح	2852
چقدر	2853
معرفی	2854
مشترک	2855
گوگل	2856
بنی	2857
بگوی	2858
لو	2859
هواپیم	2860
مبارزه	2861
of	2862
آس	2863
صبح	2864
##ئو	2865
دارو	2866
##نم	2867
##ولیت	2868
رسانه	2869
بچه	2870
موقعیت	2871
انسانی	2872
فضای	2873
مدار	2874
بازگشت	2875
ایست	2876
عراق	2877
انداز	2878
بزرگترین	2879
##دای	2880
بهداشت	2881
بازدید	2882
امنی	2883
مقای	2884
اتحادی	2885
درون	2886
رسیدن	2887
##خصوص	2888
سیاه	2889
گذاشت	2890
تض	2891
تاب	2892
برند	2893
مای	2894
اعمال	2895
نسخه	2896
بش	2897
بینی	2898
دستور	2899
پا	2900
ببر	2901
چطور	2902
بشر	2903
فصل	2904
##حد	2905
دچار	2906
##id	2907
الله	2908
کانادا	2909
عدم	2910
شده‌اند	2911
گرم	2912
وظ	2913
##ناک	2914
بهره	2915
نیروی	2916
۲۰۰	2917
مذاکر	2918
شبیه	2919
ارزی	2920
همانطور	2921
علمی	2922
مقایسه	2923
##کنش	2924
نمونه	2925
ترکیب	2926
##وتر	2927
##ویزی	2928
حاصل	2929
##یند	2930
##زا	2931
متع	2932
ضد	2933
دوربین	2934
عبارت	2935
##گزین	2936
فردی	2937
فض	2938
تلفن	2939
جستجو	2940
لباس	2941
ژاپ	2942
کره	2943
##رن	2944
##لود	2945
نقطه	2946
گردد	2947
شش	2948
تروری	2949
بزر	2950
امنیتی	2951
مسی	2952
مثبت	2953
رسمی	2954
جایگزین	2955
مفید	2956
حزب	2957
تازه	2958
کمپ	2959
قل	2960
دسترس	2961
زیب	2962
ناب	2963
عص	2964
میتوان	2965
تلویزی	2966
نامه	2967
شا	2968
##کنند	2969
مشاور	2970
نار	2971
شدت	2972
ابر	2973
##ay	2974
عاش	2975
نح	2976
##بع	2977
برج	2978
##روت	2979
پرداز	2980
کجا	2981
قرآن	2982
اطراف	2983
##مانی	2984
فراموش	2985
متوس	2986
##عهد	2987
ارزیابی	2988
مسا	2989
بک	2990
مدا	2991
ژن	2992
##عاده	2993
امیدوار	2994
شهرو	2995
محققان	2996
موثر	2997
##شناسی	2998
شناسایی	2999
راحتی	3000
عرب	3001
##ینگ	3002
دندان	3003
قانونی	3004
مراقبت	3005
زود	3006
عمی	3007
تکر	3008
نداشته	3009
دیج	3010
موتور	3011
خودشان	3012
بمان	3013
عامل	3014
##ورتی	3015
عضو	3016
کامپیوتر	3017
##ot	3018
دهنده	3019
جمعیت	3020
نقل	3021
ذخ	3022
##خش	3023
نکته	3024
##لال	3025
روح	3026
روزانه	3027
خوردن	3028
دش	3029
آن‌	3030
re	3031
##ig	3032
کرده‌اند	3033
مطالعات	3034
صادر	3035
اسلامی	3036
خاصی	3037
سبک	3038
آوری	3039
سرد	3040
دولتی	3041
کلاس	3042
دستی	3043
پروت	3044
##هنگی	3045
##ایند	3046
##سیس	3047
اشتراک	3048
چال	3049
##رال	3050
##جم	3051
##سیون	3052
تعریف	3053
اتحادیه	3054
ریا	3055
هدایت	3056
خودرو	3057
افس	3058
حذ	3059
##اها	3060
پرواز	3061
انقلاب	3062
##سیم	3063
گیرند	3064
##اتیک	3065
##عده	3066
دع	3067
##ستانی	3068
بزرگی	3069
اگرچه	3070
فوت	3071
##یک	3072
آف	3073
##نوان	3074
##ریب	3075
مطرح	3076
مواجه	3077
دانشجویان	3078
##‌‌	3079
منبع	3080
توانست	3081
امام	3082
مز	3083
موجب	3084
##کننده	3085
چیزهایی	3086
##پذیر	3087
##لاً	3088
حوز	3089
##‌ای	3090
##انیه	3091
100	3092
دشم	3093
##صه	3094
مؤ	3095
همسر	3096
واکنش	3097
علت	3098
فرهنگی	3099
##os	3100
چرخ	3101
مبتلا	3102
ضروری	3103
##نگی	3104
##ویه	3105
پزشک	3106
تحصیل	3107
انتخابات	3108
تاک	3109
##ent	3110
لین	3111
درجه	3112
ورود	3113
حذف	3114
##عتی	3115
‌اش	3116
##وئ	3117
برگزار	3118
رسیده	3119
علائم	3120
جذب	3121
پلیس	3122
تصا	3123
دکتر	3124
دفاع	3125
ثابت	3126
دانلود	3127
زیست	3128
امروزه	3129
30	3130
##گردان	3131
ویت	3132
منح	3133
کارت	3134
اساسی	3135
ببینید	3136
مسلمان	3137
ساختار	3138
بخوان	3139
متوسط	3140
رفته	3141
##وران	3142
تست	3143
پسر	3144
نگران	3145
هوشمند	3146
عاشق	3147
##شا	3148
بلا	3149
##هور	3150
جمهور	3151
ثروت	3152
پست	3153
##لند	3154
##انت	3155
اجرای	3156
نجات	3157
تصاویر	3158
تمای	3159
علی	3160
‌ی	3161
##طر	3162
قطع	3163
ماده	3164
##us	3165
بارد	3166
امور	3167
بین‌ال	3168
##ئین	3169
فرمان	3170
مخال	3171
##کا	3172
##ct	3173
آموزشی	3174
محتوای	3175
معتقد	3176
آشن	3177
‌شان	3178
##حال	3179
شمالی	3180
محب	3181
محافظت	3182
11	3183
##ow	3184
زده	3185
مدرن	3186
اصلاح	3187
پژوهش	3188
فنا	3189
حکومت	3190
بگیرد	3191
بدانید	3192
##وح	3193
دیدگاه	3194
ظاهر	3195
وزیر	3196
توانیم	3197
فرآ	3198
می‌شد	3199
چالش	3200
رد	3201
##اج	3202
ماهی	3203
سرمایه‌	3204
ترتی	3205
فایل	3206
فناوری	3207
##‌و	3208
دیدن	3209
خواندن	3210
قبلی	3211
معمولاً	3212
شغل	3213
##ra	3214
ارتش	3215
معنای	3216
بریت	3217
کاربرد	3218
قاب	3219
##وریت	3220
همس	3221
##روف	3222
199	3223
##سب	3224
صدای	3225
مسئول	3226
واحد	3227
بگو	3228
سق	3229
مرک	3230
کلیدی	3231
رقابت	3232
##غال	3233
##ژن	3234
رهبری	3235
شیمی	3236
می‌رسد	3237
##ایع	3238
لط	3239
زد	3240
لحظه	3241
لیست	3242
تور	3243
مشار	3244
شع	3245
دانست	3246
ch	3247
مگر	3248
کد	3249
##اصله	3250
کلمه	3251
##کتری	3252
نگرانی	3253
بالای	3254
نخستین	3255
##لس	3256
##ut	3257
محک	3258
شگفت	3259
گاز	3260
##ته	3261
خشونت	3262
وح	3263
##ابقه	3264
متوق	3265
رسان	3266
گویند	3267
مقامات	3268
آفریق	3269
متوقف	3270
کشته	3271
آخر	3272
جالب	3273
بو	3274
درمانی	3275
جزئی	3276
والد	3277
مسئولیت	3278
روید	3279
بتواند	3280
آد	3281
اختص	3282
مهند	3283
امریکا	3284
ملل	3285
هشت	3286
برادر	3287
##زارت	3288
مجاز	3289
پایه	3290
جشن	3291
عف	3292
اين	3293
بله	3294
بیماران	3295
##ur	3296
استرس	3297
مرز	3298
نوز	3299
ترتیب	3300
فاصله	3301
علم	3302
پارک	3303
سرویس	3304
دانشمندان	3305
اعتق	3306
ناشی	3307
بین‌المللی	3308
وزارت	3309
‌تان	3310
اینها	3311
##شنبه	3312
عوامل	3313
انگیز	3314
منفی	3315
جنوبی	3316
##ازد	3317
مهمی	3318
اقدامات	3319
قدم	3320
##گانه	3321
##کاران	3322
ظرف	3323
قرارد	3324
ول	3325
می‌گوی	3326
جنب	3327
خدمت	3328
داری	3329
مزای	3330
بزن	3331
13	3332
اث	3333
سرز	3334
se	3335
کشورها	3336
عمر	3337
تری	3338
محبوب	3339
اسلام	3340
نیازهای	3341
عمیق	3342
##فع	3343
جواب	3344
تکرار	3345
##شده	3346
تقویت	3347
##داران	3348
۱۵	3349
##کنندگان	3350
زدن	3351
##وانی	3352
هوایی	3353
##جان	3354
دروغ	3355
##‌آ	3356
موش	3357
باشم	3358
الکتر	3359
صورتی	3360
##اظ	3361
نشانه	3362
عرضه	3363
اخلا	3364
##ابان	3365
می‌ر	3366
مقا	3367
افزار	3368
نرخ	3369
بالاتر	3370
تاریخی	3371
##ماز	3372
مانده	3373
آوردن	3374
شماره	3375
فرآیند	3376
50	3377
نهایی	3378
##يد	3379
فرزندان	3380
سع	3381
شدم	3382
ایرانی	3383
ارشد	3384
عملیات	3385
ذکر	3386
ملا	3387
##ag	3388
معرض	3389
نکرده	3390
افتاد	3391
بند	3392
##وف	3393
زیبا	3394
ایمیل	3395
اظه	3396
اظهار	3397
تد	3398
غرب	3399
کاربر	3400
##رانی	3401
همواره	3402
ذخیره	3403
مشارکت	3404
هشد	3405
ریزی	3406
بم	3407
سلاح	3408
25	3409
##میل	3410
پوشش	3411
قابلیت	3412
##سون	3413
کف	3414
##اشی	3415
نسل	3416
نوشتن	3417
نصب	3418
اختصاص	3419
صاح	3420
کاملاً	3421
پیچیده	3422
حوزه	3423
##دایی	3424
کارکنان	3425
16	3426
##لاگ	3427
مشغ	3428
عه	3429
کشتی	3430
صدا	3431
بحران	3432
برسد	3433
گون	3434
خانم	3435
هتل	3436
اطلاعاتی	3437
دیجیتال	3438
خلق	3439
##راج	3440
دشوار	3441
طلا	3442
حفا	3443
گران	3444
مجد	3445
اعتقاد	3446
##im	3447
##ریت	3448
سالگی	3449
بگیرند	3450
com	3451
دین	3452
چینی	3453
کشاور	3454
ممن	3455
تقسیم	3456
فیزیکی	3457
تون	3458
##نش	3459
##‌ی	3460
خلاق	3461
مسافر	3462
مرکزی	3463
##وله	3464
##عیف	3465
دهم	3466
قبول	3467
آورده	3468
صند	3469
مي	3470
##سات	3471
##تون	3472
احتر	3473
حیوانات	3474
والدین	3475
خودمان	3476
زندان	3477
عوض	3478
نفس	3479
ژاپن	3480
وعده	3481
مستقل	3482
گذار	3483
پرت	3484
##رمان	3485
##ایه	3486
##اصر	3487
محدودیت	3488
آشکار	3489
بست	3490
سگ	3491
##لات	3492
انتشار	3493
غربی	3494
هرچ	3495
احساسات	3496
شمار	3497
اکت	3498
روزی	3499
واقعاً	3500
رایگان	3501
چاپ	3502
کیل	3503
تلویزیون	3504
استاد	3505
گردش	3506
فن	3507
گفتند	3508
گوشی	3509
کلمات	3510
روب	3511
کری	3512
سلامتی	3513
هشدار	3514
خرو	3515
##ورک	3516
مختلفی	3517
فهم	3518
زیبایی	3519
ستاره	3520
تایید	3521
مشغول	3522
دفت	3523
قدرتمند	3524
تهیه	3525
اداره	3526
قرارداد	3527
بای	3528
الان	3529
نماید	3530
داشتم	3531
علوم	3532
مناف	3533
##اندن	3534
متر	3535
##کرو	3536
##un	3537
سین	3538
عین	3539
واب	3540
هسته	3541
فرض	3542
اروپایی	3543
مذه	3544
اقامت	3545
نتوان	3546
یون	3547
نظام	3548
برقرار	3549
به‌ع	3550
پد	3551
متحد	3552
##زم	3553
##ورش	3554
پناه	3555
سرب	3556
لحاظ	3557
خورشید	3558
14	3559
خیر	3560
فیس	3561
فرست	3562
مقر	3563
دام	3564
نباشد	3565
##سا	3566
درس	3567
العاده	3568
مخاط	3569
وسیله	3570
راهی	3571
al	3572
de	3573
جراحی	3574
##oc	3575
استرال	3576
رت	3577
پیاده	3578
رهبران	3579
تضمین	3580
می‌باشد	3581
##هم	3582
استرالیا	3583
مخصوص	3584
پو	3585
##قیه	3586
دادگاه	3587
دلایل	3588
شیوه	3589
افزود	3590
خوی	3591
آگاهی	3592
اون	3593
##غن	3594
ایمان	3595
راحت	3596
رشته	3597
تحریم	3598
تجه	3599
بچ	3600
نشد	3601
خوشحال	3602
تولد	3603
۱۲	3604
سازد	3605
عربستان	3606
احترام	3607
##ap	3608
صنعتی	3609
دفتر	3610
تجهیز	3611
خاک	3612
##شند	3613
فعلی	3614
درخت	3615
##ادث	3616
##ویق	3617
مصاح	3618
موضو	3619
مکانی	3620
آپ	3621
رنج	3622
نظارت	3623
پادش	3624
مام	3625
چگون	3626
گام	3627
##رست	3628
به‌طور	3629
رویداد	3630
##زد	3631
##ir	3632
##‌ب	3633
##ce	3634
تبلیغات	3635
حفاظت	3636
##گن	3637
اصل	3638
دقت	3639
گذاشته	3640
عادی	3641
##ــ	3642
خدای	3643
##اهد	3644
می‌گیرد	3645
چگونگی	3646
شمال	3647
##ia	3648
##یسی	3649
مجموع	3650
نویسنده	3651
قربانی	3652
می‌کردند	3653
مطلب	3654
تمایل	3655
منافع	3656
عجی	3657
بریتانیا	3658
شیمیایی	3659
گم	3660
##تا	3661
سبز	3662
بگذارید	3663
میدان	3664
خواسته	3665
.”	3666
شهری	3667
می‌گیر	3668
متم	3669
##روم	3670
امتح	3671
فرود	3672
منتقل	3673
##بیل	3674
بدهید	3675
##بیر	3676
اسم	3677
کوه	3678
##یمان	3679
ترجی	3680
نیازمند	3681
طبیعت	3682
الکترونی	3683
؟!	3684
ریس	3685
مفه	3686
‌تر	3687
کارآ	3688
نشست	3689
۳۰	3690
نحوه	3691
پیش‌	3692
شاهد	3693
##کات	3694
##زمان	3695
##od	3696
فروشگاه	3697
ar	3698
##نز	3699
تقریباً	3700
##ذی	3701
گروهی	3702
17	3703
چنان	3704
کنی	3705
بدست	3706
تعط	3707
امتحان	3708
بیمارستان	3709
منحصر	3710
عفونت	3711
آفر	3712
دسته	3713
##وسی	3714
دانم	3715
نوعی	3716
جنوب	3717
ایمنی	3718
فلسط	3719
تامین	3720
عقب	3721
منتظر	3722
هزاران	3723
on	3724
کارگران	3725
##...	3726
دعوت	3727
##فانه	3728
کلید	3729
روغن	3730
##گذارد	3731
وید	3732
محس	3733
نقاط	3734
بتوانند	3735
and	3736
نوزاد	3737
وبلاگ	3738
بستگی	3739
نگهداری	3740
یهودی	3741
شویم	3742
قهوه	3743
ویتامین	3744
sp	3745
##um	3746
اوایل	3747
ترجمه	3748
تعدادی	3749
##ul	3750
اتفا	3751
رهبر	3752
ترجیح	3753
اتفاقی	3754
حاف	3755
طوری	3756
جذاب	3757
آسمان	3758
تخصص	3759
##زل	3760
به‌عنوان	3761
تعهد	3762
متصل	3763
باره	3764
##ریزی	3765
اصول	3766
افتد	3767
حملات	3768
ارد	3769
مقام	3770
نهاد	3771
حتما	3772
ژان	3773
گذشت	3774
توصیف	3775
##گردد	3776
دیر	3777
قا	3778
بردن	3779
رح	3780
رادی	3781
بودجه	3782
دریایی	3783
الهی	3784
اعد	3785
میشود	3786
گفتم	3787
انگل	3788
##رایی	3789
سوخت	3790
is	3791
سک	3792
##حیح	3793
جایزه	3794
##بینی	3795
عک	3796
##سل	3797
sh	3798
بنا	3799
مهاجرت	3800
وظیف	3801
##ردگی	3802
تقا	3803
جلسه	3804
##گزاری	3805
ملاقات	3806
بقیه	3807
##عم	3808
جع	3809
كن	3810
مایل	3811
۱۸	3812
عبور	3813
سرزمین	3814
##باری	3815
##الم	3816
بودیم	3817
کارها	3818
اهل	3819
پنه	3820
برآ	3821
اجتن	3822
اجتناب	3823
en	3824
بید	3825
##نام	3826
##راسی	3827
##ess	3828
می‌گویند	3829
##em	3830
کرده‌	3831
میلادی	3832
".	3833
تی	3834
رها	3835
مشک	3836
ماد	3837
۱۰۰	3838
مزایای	3839
ad	3840
نبا	3841
##ter	3842
##ایق	3843
کانال	3844
پاید	3845
##گین	3846
باغ	3847
گیاه	3848
پیروزی	3849
فضا	3850
بروز	3851
آزمون	3852
بروید	3853
نیوی	3854
تئ	3855
##سک	3856
دربار	3857
برنده	3858
تکنیک	3859
لند	3860
تاکنون	3861
شده‌	3862
مدیران	3863
یافتن	3864
رست	3865
فراتر	3866
ارتباطات	3867
چپ	3868
پیشرفته	3869
آبی	3870
برچ	3871
شهروندان	3872
مخالف	3873
گناه	3874
اندازی	3875
پدید	3876
##ویم	3877
بهتری	3878
نامیده	3879
انجمن	3880
اصلا	3881
قدر	3882
تشویق	3883
طبقه	3884
مقاومت	3885
نیویورک	3886
رز	3887
##نتی	3888
فرایند	3889
توانم	3890
ناراح	3891
عادت	3892
##ation	3893
سعودی	3894
پخش	3895
##حیه	3896
##ضح	3897
روست	3898
افتاده	3899
پن	3900
تجهیزات	3901
حضرت	3902
تعطیل	3903
شف	3904
قبلا	3905
همانند	3906
جایگاه	3907
متمرکز	3908
##شنگ	3909
ادعا	3910
آرز	3911
رویکرد	3912
جزیره	3913
pro	3914
##ابله	3915
معروف	3916
مقابله	3917
بیشترین	3918
سختی	3919
سرباز	3920
##انگی	3921
امسال	3922
سپت	3923
اضطر	3924
فرمود	3925
سابق	3926
نوج	3927
اضافی	3928
بتوانید	3929
##th	3930
توجهی	3931
تفکر	3932
مداوم	3933
بطور	3934
سام	3935
بیت	3936
برخوردار	3937
بگویید	3938
لینک	3939
جنبش	3940
شماست	3941
برچسب	3942
سؤ	3943
فنی	3944
##ولد	3945
198	3946
##دهد	3947
فرار	3948
قرمز	3949
هیچ‌	3950
معمولی	3951
خطرناک	3952
رض	3953
زندانی	3954
محتوا	3955
شغلی	3956
آشنا	3957
جزئیات	3958
سپتامبر	3959
40	3960
چربی	3961
##بخ	3962
مصاحبه	3963
‌ترین	3964
چیزهای	3965
قلبی	3966
ثانیه	3967
کر	3968
##زیع	3969
سرگر	3970
حو	3971
هم‌	3972
توزیع	3973
امپ	3974
هیجان	3975
بزرگتر	3976
تز	3977
درستی	3978
24	3979
بدهد	3980
مالک	3981
افسردگی	3982
ریسک	3983
نات	3984
کرب	3985
##لط	3986
درگیر	3987
استان	3988
اختلاف	3989
ne	3990
صاد	3991
ورز	3992
پلا	3993
روزنامه	3994
خریداری	3995
ملت	3996
##ویل	3997
##ئت	3998
می‌خ	3999
دائ	4000
پذیرش	4001
حداک	4002
بخور	4003
تخم	4004
زم	4005
برده	4006
نیرو	4007
آث	4008
جس	4009
##ri	4010
میکند	4011
##اما	4012
تاکید	4013
عهده	4014
رتبه	4015
فوتبال	4016
un	4017
بخوانید	4018
ناد	4019
معل	4020
ناگه	4021
اعتبار	4022
پرسش	4023
مالیات	4024
دقیقا	4025
انگلستان	4026
##وکر	4027
پیوند	4028
می‌رود	4029
مى	4030
##ژانس	4031
کنفر	4032
امتی	4033
جامع	4034
ایتال	4035
بدین	4036
##جع	4037
دیوار	4038
نمی‌دان	4039
##نوعی	4040
بگویم	4041
ایتالیا	4042
نماز	4043
##جام	4044
کشید	4045
اصط	4046
صحنه	4047
##ذیه	4048
##and	4049
اختلال	4050
خیابان	4051
فارغ	4052
پنهان	4053
goo	4054
سند	4055
شای	4056
نیازی	4057
آیند	4058
بارداری	4059
##جد	4060
می‌ز	4061
دانند	4062
وظیفه	4063
گاه	4064
جستجوی	4065
اور	4066
‌اند	4067
##وذ	4068
خاور	4069
رمز	4070
لغ	4071
##لیم	4072
همزمان	4073
تنهایی	4074
##رافیک	4075
هرچند	4076
لا	4077
##کنم	4078
پاکستان	4079
پرورش	4080
عجیب	4081
حاوی	4082
لطفا	4083
هماه	4084
##دهی	4085
واضح	4086
جاده	4087
اسب	4088
می‌خواهد	4089
محسوب	4090
صحیح	4091
##امله	4092
تغذیه	4093
##شناسان	4094
مند	4095
##اورد	4096
##زیه	4097
روزهای	4098
مراحل	4099
پروتئین	4100
er	4101
دیدار	4102
برآورد	4103
at	4104
قتل	4105
##ریح	4106
سفار	4107
شورای	4108
می‌آید	4109
نیمه	4110
طل	4111
##راض	4112
اتص	4113
مرور	4114
##خره	4115
کردید	4116
اشک	4117
ممنوع	4118
سنت	4119
##کده	4120
مقد	4121
می‌پ	4122
مجوز	4123
سوء	4124
حداکثر	4125
##سایت	4126
کارهایی	4127
##راحت	4128
مسیح	4129
مفهوم	4130
حافظه	4131
حاک	4132
##چی	4133
##ازید	4134
متقا	4135
کنفرانس	4136
##گاری	4137
##op	4138
می‌بین	4139
اتوم	4140
مذاکره	4141
آثار	4142
دس	4143
هزین	4144
##فاوتی	4145
»،	4146
تیر	4147
ضعیف	4148
##اساس	4149
دشمن	4150
متعد	4151
گذر	4152
تجزیه	4153
نمایند	4154
یخ	4155
تاسیس	4156
افتخ	4157
استخدام	4158
60	4159
ap	4160
##ستر	4161
لندن	4162
صادق	4163
us	4164
بص	4165
##حالی	4166
مصر	4167
فرانس	4168
بازداشت	4169
نمایید	4170
واشنگ	4171
فضایی	4172
۵۰	4173
موقع	4174
مبتنی	4175
بخواهید	4176
چار	4177
کلیک	4178
نمی‌تواند	4179
بور	4180
برداشت	4181
بزرگسال	4182
اپل	4183
[...	4184
انع	4185
آمار	4186
رانندگی	4187
[...]	4188
##فس	4189
امضا	4190
دانید	4191
افکار	4192
تهران	4193
ویروس	4194
بیاور	4195
ماج	4196
نفوذ	4197
ارزان	4198
واشنگتن	4199
کارشناسی	4200
بپرس	4201
بهداشتی	4202
سرمایه‌گذاری	4203
صبر	4204
قض	4205
ببرید	4206
نمی‌شود	4207
گرفتند	4208
سخنرانی	4209
عرو	4210
نژ	4211
براساس	4212
بدتر	4213
تعامل	4214
می‌خواهید	4215
سقوط	4216
نیمی	4217
##گویی	4218
پایگاه	4219
ندارید	4220
حکم	4221
امتیاز	4222
نادر	4223
##تیک	4224
کمبود	4225
مطل	4226
ساختن	4227
تکمیل	4228
##یید	4229
بیمه	4230
موسسه	4231
ip	4232
پزشکان	4233
آهنگ	4234
تمیز	4235
##وال	4236
مساله	4237
اثرات	4238
انگیزه	4239
##کری	4240
بهشت	4241
بالق	4242
دموکر	4243
مول	4244
##وما	4245
##وئن	4246
همچون	4247
گفتن	4248
سنتی	4249
کمتری	4250
خانگی	4251
غیرق	4252
خلاصه	4253
کات	4254
##بد	4255
##غم	4256
سهام	4257
گوشت	4258
بپرد	4259
اخلاقی	4260
سان	4261
##یتالی	4262
ترکی	4263
کشاورزی	4264
وابسته	4265
كرد	4266
نوی	4267
می‌داد	4268
بازسازی	4269
تحمل	4270
پایدار	4271
ترا	4272
##سین	4273
شرکت‌های	4274
معماری	4275
مراک	4276
آمیز	4277
ویدی	4278
موب	4279
انداخت	4280
دستیابی	4281
صاحب	4282
خویش	4283
ph	4284
دارایی	4285
بازیکن	4286
شرک	4287
شانس	4288
چهارم	4289
مذهبی	4290
بالقوه	4291
000	4292
۱۳	4293
##صله	4294
سالانه	4295
نزدیکی	4296
اصطلاح	4297
##ie	4298
##ers	4299
##آور	4300
برتر	4301
اکتبر	4302
میوه	4303
پان	4304
##gle	4305
آنج	4306
پیامبر	4307
مذاکرات	4308
هور	4309
معامله	4310
مشهور	4311
نظریه	4312
##ack	4313
هواپیما	4314
خشک	4315
عدد	4316
##گا	4317
##if	4318
سور	4319
احتمالاً	4320
ندارم	4321
تابستان	4322
بیدار	4323
تأیید	4324
حیات	4325
آلمانی	4326
هویت	4327
انگشت	4328
##ازند	4329
##میانه	4330
پادشاه	4331
خاورمیانه	4332
جور	4333
عیسی	4334
چک	4335
استقل	4336
ماست	4337
هسته‌ای	4338
اتم	4339
کیلوم	4340
مناس	4341
چهره	4342
منطق	4343
##وکراسی	4344
جد	4345
آزمایشگاه	4346
ing	4347
مارس	4348
جاری	4349
چش	4350
##زان	4351
مدتی	4352
مانع	4353
##عف	4354
##‌که	4355
##اختی	4356
مبل	4357
نابود	4358
رضایت	4359
مدارس	4360
مهندسی	4361
حجم	4362
خرد	4363
زودی	4364
طراح	4365
عزی	4366
##فل	4367
می‌د	4368
بارها	4369
##وایی	4370
##ab	4371
##پر	4372
##اریس	4373
دهندگان	4374
نوجوان	4375
##یدم	4376
سال‌های	4377
محمد	4378
##شای	4379
معنا	4380
بلافا	4381
bl	4382
دهان	4383
فهرست	4384
google	4385
آژانس	4386
##وج	4387
می‌‌	4388
تدری	4389
افتخار	4390
بلافاصله	4391
for	4392
it	4393
دف	4394
##یش	4395
##ادار	4396
بازیکنان	4397
مشاوره	4398
رستوران	4399
سوز	4400
موزه	4401
گفتگو	4402
2015	4403
تاز	4404
خال	4405
##میر	4406
نوشید	4407
سیاره	4408
##000	4409
غذاهای	4410
فرانسوی	4411
توی	4412
##ورو	4413
سیگار	4414
اولویت	4415
کارمندان	4416
##اخر	4417
##دهم	4418
کارگر	4419
جنبه	4420
pl	4421
عذ	4422
##av	4423
قطعا	4424
سران	4425
مصنوعی	4426
مراسم	4427
دسامبر	4428
شوه	4429
عصر	4430
تحصیلی	4431
استقلال	4432
شار	4433
باد	4434
آزار	4435
ترد	4436
شاد	4437
احتی	4438
نقشه	4439
##ه‌ایم	4440
آدرس	4441
سطوح	4442
پردازش	4443
وحشت	4444
آیت	4445
##اهیم	4446
باشگاه	4447
نقاشی	4448
con	4449
یك	4450
##og	4451
ایالت	4452
داند	4453
مراج	4454
سنگین	4455
!!	4456
طال	4457
پاریس	4458
بیست	4459
دومین	4460
##بیند	4461
آهن	4462
##مالی	4463
معی	4464
راهن	4465
le	4466
or	4467
قالب	4468
مثلا	4469
انگلیس	4470
ژانویه	4471
چای	4472
صدها	4473
am	4474
کشوری	4475
می‌توانیم	4476
عمده	4477
197	4478
صفحات	4479
انتقاد	4480
##رق	4481
##پار	4482
اواخر	4483
ایستگاه	4484
برجسته	4485
as	4486
عناصر	4487
معتبر	4488
##خیر	4489
داروهای	4490
سرور	4491
مجلس	4492
تحقیقاتی	4493
نبوده	4494
نمایشگاه	4495
شرقی	4496
نده	4497
##صیل	4498
نوامبر	4499
اجرایی	4500
التح	4501
مردی	4502
نموده	4503
دموکراسی	4504
موبایل	4505
جاد	4506
شریک	4507
ژوئن	4508
همکاران	4509
##ابد	4510
نداریم	4511
سبب	4512
حر	4513
مدرک	4514
متخصصان	4515
خالی	4516
##ob	4517
غیرم	4518
اسپانیا	4519
ma	4520
اوب	4521
اعتراض	4522
##ate	4523
جوانان	4524
##نمایی	4525
بزنید	4526
؟»	4527
جرم	4528
دیپ	4529
۱۹۹	4530
مراجعه	4531
نان	4532
##اکس	4533
روبرو	4534
شفاف	4535
جی	4536
برا	4537
همه‌ی	4538
آمو	4539
جنگل	4540
محکوم	4541
مجدد	4542
##ip	4543
الکترونیکی	4544
cl	4545
آلب	4546
متولد	4547
هنری	4548
نگاهی	4549
دک	4550
##نس	4551
##ard	4552
اکث	4553
موضوعات	4554
tr	4555
خاط	4556
زنج	4557
خشم	4558
متاس	4559
تصاد	4560
مجله	4561
نمی‌کند	4562
شهرهای	4563
دون	4564
نبرد	4565
۱۱	4566
یکسان	4567
کارگردان	4568
هوای	4569
آرامش	4570
امیدوارم	4571
نزد	4572
عدالت	4573
اثبات	4574
ورزشی	4575
سادگی	4576
هرگونه	4577
##‌جمه	4578
شناسی	4579
ناپ	4580
##ive	4581
می‌گیرند	4582
اتصال	4583
جلب	4584
##اقع	4585
دانیم	4586
زخ	4587
نر	4588
می‌شن	4589
برنامه‌	4590
##کسی	4591
می‌خواست	4592
مخفی	4593
این‌که	4594
ظرفیت	4595
خروج	4596
‌ام	4597
هستی	4598
مربی	4599
کمپانی	4600
عصبی	4601
فرودگاه	4602
نادیده	4603
طیف	4604
مون	4605
پرست	4606
مشکلی	4607
خسته	4608
مور	4609
##عش	4610
##ویب	4611
بیای	4612
مسابقه	4613
##ine	4614
آفریقا	4615
ex	4616
we	4617
ریشه	4618
##هنی	4619
ارزشمند	4620
مکمل	4621
!»	4622
##بل	4623
تصویب	4624
منظم	4625
مجازات	4626
اوباما	4627
لز	4628
وظای	4629
متعلق	4630
کاربردی	4631
نوش	4632
خواستار	4633
بافت	4634
##لیلی	4635
ناخ	4636
دختران	4637
وسایل	4638
ترافیک	4639
شوم	4640
هاست	4641
دانشکده	4642
2017	4643
ورودی	4644
عظیم	4645
##نجی	4646
سریال	4647
##ity	4648
قهرمان	4649
برخ	4650
دادم	4651
2018	4652
ارتباطی	4653
روانی	4654
گری	4655
۲۵	4656
##ub	4657
کارخانه	4658
غذای	4659
مقدس	4660
##سیر	4661
ارتقا	4662
آشپ	4663
صنایع	4664
تحول	4665
مسلمانان	4666
مراکز	4667
##یدند	4668
معامل	4669
حقو	4670
مبلغ	4671
باتری	4672
بالایی	4673
خوانده	4674
غنی	4675
فری	4676
اسن	4677
تحویل	4678
##برداری	4679
ریاست	4680
نوشیدنی	4681
ید	4682
۱۴	4683
##ge	4684
##طی	4685
منزل	4686
فردا	4687
ترکیبی	4688
یم	4689
##واری	4690
##مر	4691
توق	4692
رساند	4693
مهمترین	4694
شرق	4695
تماشا	4696
پاداش	4697
سؤال	4698
ارم	4699
تجربی	4700
موشک	4701
man	4702
بگوید	4703
##صاب	4704
کشیدن	4705
منطقی	4706
اعدام	4707
عربی	4708
##غل	4709
پولی	4710
بدی	4711
مرغ	4712
صادرات	4713
کودکی	4714
wor	4715
سرک	4716
‌مان	4717
##نای	4718
##زیک	4719
سهم	4720
بالات	4721
فعالیت‌های	4722
طالبان	4723
21	4724
می‌س	4725
دیدم	4726
تأمین	4727
انقلابی	4728
کارشناسان	4729
متفاوتی	4730
##رتان	4731
نظیر	4732
کاغ	4733
سیم	4734
##بندی	4735
##انیایی	4736
نشود	4737
آورند	4738
مسیحی	4739
دائمی	4740
الی	4741
##او	4742
برگرد	4743
هایشان	4744
میکنند	4745
راز	4746
منع	4747
برنامه‌های	4748
حادث	4749
نظری	4750
تحریک	4751
نوآوری	4752
قضا	4753
نژاد	4754
فدر	4755
خانوادگی	4756
ابتلا	4757
بماند	4758
90	4759
بفه	4760
##عمل	4761
##طاف	4762
برود	4763
کتابخانه	4764
##نوشت	4765
بمب	4766
صندلی	4767
پیش‌بینی	4768
حقوقی	4769
##ه‌ام	4770
##قیان	4771
روزه	4772
می‌خواهند	4773
محیطی	4774
mar	4775
دعا	4776
سم	4777
ظهور	4778
‌شده	4779
بنویس	4780
اخبار	4781
خارجه	4782
##igh	4783
ریاضی	4784
داشتیم	4785
قی	4786
2016	4787
22	4788
رک	4789
عوار	4790
گذارد	4791
پرونده	4792
وف	4793
کاخ	4794
دیابت	4795
هدی	4796
شرایطی	4797
پنجره	4798
برگشت	4799
##ارات	4800
##ندوز	4801
باکتری	4802
تعادل	4803
انگار	4804
##est	4805
کمپین	4806
انعطاف	4807
##کشی	4808
نیستم	4809
سوالات	4810
پذیری	4811
تعطیلات	4812
وظایف	4813
شل	4814
معلم	4815
لبخ	4816
استراتژیک	4817
‌‌	4818
##روی	4819
##شیدی	4820
کنگر	4821
بیند	4822
آمدن	4823
چیزها	4824
کفش	4825
فس	4826
قلم	4827
استراحت	4828
جمعی	4829
شبک	4830
کوچکی	4831
کمیته	4832
رایج	4833
جانبی	4834
اذ	4835
حج	4836
زنی	4837
##سول	4838
کمونی	4839
ویندوز	4840
زا	4841
قول	4842
##جاست	4843
استث	4844
خورده	4845
آلود	4846
ستار	4847
ثروتمند	4848
sc	4849
رییس	4850
##انگیز	4851
##غام	4852
کاربری	4853
to	4854
آیه	4855
اقیان	4856
پروژ	4857
احتمالی	4858
##افتد	4859
ed	4860
شکن	4861
شکر	4862
##ver	4863
کشد	4864
مقدم	4865
مطالب	4866
گشت	4867
برگزاری	4868
بگیریم	4869
گرچه	4870
خلاف	4871
##جویی	4872
گرس	4873
نقض	4874
ابزارهای	4875
##لت	4876
مهمان	4877
راهنمایی	4878
سوئ	4879
تروریستی	4880
میتواند	4881
بوک	4882
وضع	4883
آفت	4884
رون	4885
##طرف	4886
میکرو	4887
مطابق	4888
خطوط	4889
علاق	4890
خواند	4891
آسیا	4892
سرانجام	4893
احم	4894
تجدید	4895
تعجب	4896
گردید	4897
مناسبی	4898
درحالی	4899
راضی	4900
نقد	4901
فیلتر	4902
التحصیل	4903
ht	4904
حرک	4905
ندید	4906
۴۰	4907
##ئید	4908
برداری	4909
شنیده	4910
شوروی	4911
بزرگسالان	4912
تشکر	4913
196	4914
خورشیدی	4915
شاخص	4916
فدرال	4917
pr	4918
##up	4919
منص	4920
داعش	4921
ناحیه	4922
##all	4923
اتحاد	4924
سابقه	4925
بنیاد	4926
کارآفر	4927
عوارض	4928
کنگره	4929
خام	4930
گمان	4931
نظرات	4932
دیپلم	4933
خل	4934
لم	4935
##اگون	4936
##‌کننده	4937
##ایان	4938
##ستند	4939
سیگن	4940
شیطان	4941
سیگنال	4942
ac	4943
رمان	4944
الم	4945
کشیده	4946
اکس	4947
۱۶	4948
اندکی	4949
ناام	4950
ذهنی	4951
وام	4952
##یتی	4953
##گانی	4954
بازنش	4955
##ell	4956
##لیکی	4957
دوستی	4958
کالج	4959
اردو	4960
تئوری	4961
بگذارد	4962
رع	4963
الکتری	4964
اخیرا	4965
شواهد	4966
آه	4967
خبری	4968
##فرم	4969
حساس	4970
عکاسی	4971
ناس	4972
##ue	4973
##ماند	4974
جنگی	4975
حادثه	4976
وجه	4977
تکامل	4978
تفسیر	4979
چرخه	4980
جر	4981
حدی	4982
له	4983
مری	4984
##راری	4985
سرنوشت	4986
مداخ	4987
هدیه	4988
80	4989
رفع	4990
##ظاه	4991
محاس	4992
الهام	4993
مقررات	4994
te	4995
رم	4996
ضرب	4997
علام	4998
##اکی	4999
