<unk>	0
<s>	0
</s>	0
.	-3.32179
▁و	-3.63096
▁در	-3.67659
▁به	-3.72214
،	-3.76939
▁می	-3.80725
▁که	-3.90276
▁از	-3.9137
▁را	-4.0502
▁است	-4.2266
▁این	-4.314
▁های	-4.66052
ی	-4.74366
▁برای	-4.79654
▁با	-4.79932
▁یک	-4.84401
▁ها	-5.05593
▁آن	-5.13653
▁شما	-5.34413
▁خود	-5.46117
▁کند	-5.53821
▁شود	-5.55971
▁یا	-5.63014
:	-5.63694
▁شده	-5.64193
▁ما	-5.66454
▁تا	-5.6964
▁کنید	-5.76136
▁او	-5.8409
▁(	-5.84481
▁ای	-5.87138
▁کنند	-5.87788
)	-5.87837
▁بود	-5.87882
▁سال	-5.91776
▁من	-5.92116
▁بر	-5.92798
▁هر	-5.97128
▁هم	-5.99693
▁اما	-6.0054
▁باشد	-6.02649
▁کار	-6.03527
▁دارد	-6.07034
▁کرد	-6.09145
؟	-6.0967
▁نمی	-6.09818
▁آنها	-6.10892
▁باید	-6.11414
▁شد	-6.14336
▁«	-6.18599
▁استفاده	-6.20334
▁اگر	-6.23689
▁،	-6.2728
▁ی	-6.28148
▁هستند	-6.33344
▁مورد	-6.3582
ه	-6.39362
▁کرده	-6.39375
▁دهد	-6.39532
▁انجام	-6.4228
▁اند	-6.45863
▁تواند	-6.48156
▁دیگر	-6.48189
▁دو	-6.4869
▁همه	-6.48873
▁وجود	-6.49013
▁چه	-6.52045
▁نیز	-6.52843
▁حال	-6.53986
▁عنوان	-6.56207
▁قرار	-6.56537
م	-6.5709
▁	-6.58137
▁خواهد	-6.58537
▁داشته	-6.62753
ش	-6.62793
▁زندگی	-6.67036
»	-6.70258
▁نیست	-6.70406
▁ممکن	-6.71143
▁شوند	-6.74234
▁دست	-6.74443
▁بین	-6.74977
▁روی	-6.76454
▁پس	-6.76617
▁داده	-6.76832
▁روز	-6.77136
▁.	-6.77432
▁تر	-6.7781
▁بسیار	-6.78493
▁دارند	-6.79447
▁کردن	-6.82012
▁نظر	-6.82251
▁شرکت	-6.82761
▁زمان	-6.83663
▁بیشتر	-6.83939
▁طور	-6.85848
▁"	-6.8679
!	-6.87622
▁کنیم	-6.88484
▁هیچ	-6.89749
؛	-6.902
▁برنامه	-6.90567
▁تنها	-6.91207
▁هایی	-6.92296
▁کمک	-6.93868
▁همچنین	-6.9611
▁یکی	-6.96334
▁مردم	-6.96455
-	-6.97271
▁پیش	-6.98566
های	-7.00559
ها	-7.01125
▁راه	-7.01561
▁نشان	-7.02091
▁چند	-7.02636
▁چیزی	-7.03929
▁بازی	-7.05923
▁توانید	-7.06544
▁کشور	-7.07395
▁توسط	-7.07735
▁نه	-7.10381
▁جدید	-7.11095
▁ایجاد	-7.11173
▁تمام	-7.12264
▁نیاز	-7.12306
▁صورت	-7.13658
▁فقط	-7.13725
▁داد	-7.13962
.»	-7.14248
▁آیا	-7.14446
...	-7.15476
▁کنم	-7.15972
▁جهان	-7.16427
▁گفت	-7.17092
▁بیش	-7.18298
▁مانند	-7.19009
▁بعد	-7.19684
▁باشید	-7.19773
ان	-7.2002
▁افراد	-7.20474
▁بسیاری	-7.20548
▁حتی	-7.20674
▁دهند	-7.20773
▁اینکه	-7.21366
▁ترین	-7.22148
▁آمریکا	-7.2364
▁نام	-7.24084
▁بی	-7.24559
▁برخی	-7.24741
▁بزرگ	-7.27314
▁زمانی	-7.27854
▁کردند	-7.29284
▁ایران	-7.29445
▁باشند	-7.30397
▁افزایش	-7.31989
ت	-7.32284
▁دهید	-7.32999
"	-7.33031
▁-	-7.3379
▁تغییر	-7.33919
▁بار	-7.34915
▁درصد	-7.35783
▁داشت	-7.36566
▁ماه	-7.37266
▁توانند	-7.37333
▁فکر	-7.37398
▁ارائه	-7.39231
▁مهم	-7.39441
ِ	-7.41456
▁همین	-7.41564
▁کسی	-7.41632
▁چگونه	-7.41798
s	-7.42186
▁بوده	-7.4242
▁وقتی	-7.43063
▁بدون	-7.43084
▁آب	-7.43133
▁“	-7.43397
ین	-7.44016
▁شدن	-7.44448
▁بودند	-7.45033
▁تولید	-7.45169
▁زیادی	-7.45273
▁چرا	-7.45665
▁خانه	-7.45726
▁سه	-7.45756
▁درباره	-7.4585
▁همان	-7.46302
▁پیدا	-7.4631
▁گرفته	-7.46534
▁انتخاب	-7.46981
▁بخش	-7.48575
▁سیستم	-7.48952
▁کاهش	-7.49062
ن	-7.49933
▁خیلی	-7.50026
▁خوب	-7.50228
▁–	-7.5051
▁شروع	-7.51498
▁دولت	-7.52362
▁طول	-7.52872
▁توجه	-7.52973
▁تو	-7.53214
▁کتاب	-7.54575
▁اطلاعات	-7.54982
▁چیز	-7.55126
▁سایت	-7.55318
▁دوست	-7.55997
▁قابل	-7.56369
▁چنین	-7.57491
▁اولین	-7.57508
▁قبل	-7.57602
▁دلیل	-7.57763
▁سازمان	-7.59416
ند	-7.59449
▁کننده	-7.59767
▁دیگری	-7.5979
▁بهترین	-7.60114
▁رو	-7.60144
▁نفر	-7.60278
▁دارید	-7.60695
▁کسب	-7.60843
ا	-7.60905
­	-7.61022
▁فیلم	-7.61978
▁خواهید	-7.62096
▁ندارد	-7.62478
▁باز	-7.62634
▁همیشه	-7.62661
▁زبان	-7.62687
▁خدا	-7.63081
▁باعث	-7.63417
▁بنابراین	-7.63839
▁انسان	-7.63925
▁خواهند	-7.64926
▁...	-7.65075
,	-7.6524
▁:	-7.65495
و	-7.65926
▁گروه	-7.66048
▁گذشته	-7.66292
▁توسعه	-7.66586
▁طریق	-7.66586
تان	-7.67064
▁مدت	-7.67107
▁طراحی	-7.67272
▁ولی	-7.67353
شان	-7.68407
▁توان	-7.68696
”	-7.68867
▁ام	-7.70079
▁تلاش	-7.70083
▁غیر	-7.70785
▁مختلف	-7.70901
▁آنچه	-7.71032
▁جنگ	-7.71507
▁روش	-7.71804
▁بهتر	-7.71884
▁آینده	-7.72203
▁شامل	-7.72525
▁هنوز	-7.73126
▁جهانی	-7.73347
▁اصلی	-7.73688
▁سر	-7.74024
▁شهر	-7.74119
▁اجتماعی	-7.74125
▁دنبال	-7.74389
▁نوع	-7.74727
د	-7.74826
▁هدف	-7.75954
▁اول	-7.76435
▁سرمایه	-7.76567
▁میان	-7.76638
▁کاری	-7.76756
▁ادامه	-7.77044
▁گفته	-7.77587
▁تجربه	-7.78104
▁زنان	-7.79017
▁حاضر	-7.79044
▁دادن	-7.79095
▁اندازه	-7.79388
▁احساس	-7.79429
▁حدود	-7.79547
▁رشد	-7.80031
▁خانواده	-7.80077
▁زیرا	-7.80344
▁دارای	-7.80766
▁بررسی	-7.81911
▁مصرف	-7.81935
▁دانش	-7.81959
▁بدن	-7.82306
▁آموزش	-7.826
▁هزینه	-7.82603
▁یاد	-7.82778
▁منطقه	-7.82929
▁دانشگاه	-7.83068
]	-7.83548
▁المللی	-7.84326
▁کنترل	-7.84836
▁دریافت	-7.85049
▁هفته	-7.85242
▁خوبی	-7.85433
▁بالا	-7.85593
▁تبدیل	-7.85925
▁پاسخ	-7.86019
▁فعالیت	-7.86276
▁کامل	-7.86395
▁همراه	-7.86455
▁زمین	-7.86522
▁میلیون	-7.86744
▁اش	-7.87214
▁درمان	-7.8722
▁وقت	-7.87623
▁تحت	-7.87817
▁ساعت	-7.88018
▁عمل	-7.88144
▁امروز	-7.88229
▁دوره	-7.88483
▁فرد	-7.89167
▁موضوع	-7.89284
▁قدرت	-7.8943
▁تصمیم	-7.89521
▁سطح	-7.89688
▁بلکه	-7.90496
▁نتیجه	-7.90636
▁واقع	-7.90849
▁صحبت	-7.90974
▁زیر	-7.91379
▁اجازه	-7.91668
▁چون	-7.91785
▁گوید	-7.9237
▁مثال	-7.92786
▁بیماری	-7.9311
▁کم	-7.93126
▁جای	-7.93231
▁مواد	-7.93248
▁تعداد	-7.93463
▁شاید	-7.93531
▁مدیریت	-7.93726
▁پایان	-7.93948
▁متحده	-7.94429
▁شدند	-7.94785
▁دلار	-7.94981
ۀ	-7.95
▁کوچک	-7.95556
▁نسبت	-7.95937
▁گذاری	-7.95981
▁اید	-7.9699
▁برابر	-7.97329
▁حالی	-7.97462
▁ایالات	-7.97612
▁هستید	-7.97823
ات	-7.98148
▁بیشتری	-7.98161
▁گزارش	-7.9823
▁آغاز	-7.98499
▁درست	-7.9885
▁جمله	-7.99025
▁وارد	-7.99352
▁شرایط	-7.99571
ر	-7.9978
▁تان	-7.99943
▁سازی	-8.00572
▁اغلب	-8.00837
▁حل	-8.01098
▁پول	-8.01222
▁کردم	-8.01432
▁واقعی	-8.01529
▁دنیا	-8.02121
▁ارتباط	-8.02203
ي	-8.0226
▁شکل	-8.02309
▁خاطر	-8.02601
▁اروپا	-8.02906
(	-8.02918
▁چین	-8.03313
▁مطالعه	-8.0358
▁مثل	-8.0362
▁بازار	-8.0393
▁یعنی	-8.04451
▁مناسب	-8.04951
▁دیگران	-8.05046
▁رسد	-8.0512
▁شوید	-8.054
▁پر	-8.05691
▁حمایت	-8.05766
▁پروژه	-8.05921
▁کسانی	-8.06103
▁زمینه	-8.06289
▁لازم	-8.06809
▁گرفت	-8.06833
▁انرژی	-8.06929
▁خدمات	-8.07061
▁شبکه	-8.07102
▁مشکل	-8.07323
▁نزدیک	-8.07335
▁تیم	-8.07687
▁گیرد	-8.07747
▁وی	-8.07948
▁گونه	-8.08167
▁چشم	-8.08606
▁البته	-8.09058
▁هنگامی	-8.09555
▁کودکان	-8.09894
▁ارزش	-8.10068
▁اکنون	-8.10217
▁اینجا	-8.10545
▁اقتصادی	-8.10932
▁مربوط	-8.10975
▁وب	-8.11471
▁داریم	-8.11933
ى	-8.12007
▁سایر	-8.12103
▁خاص	-8.12271
▁تاریخ	-8.12366
▁خرید	-8.12409
▁اعلام	-8.1258
▁سپس	-8.13107
▁زن	-8.13478
▁قیمت	-8.13739
▁سیاسی	-8.1406
▁کافی	-8.14093
▁مالی	-8.14135
▁گیری	-8.14355
▁اتفاق	-8.14506
▁قانون	-8.1508
▁اساس	-8.15439
▁کمتر	-8.15811
▁دور	-8.15915
▁داستان	-8.16487
▁جامعه	-8.16516
▁کمی	-8.16614
▁درک	-8.16625
▁کشورهای	-8.17078
▁كه	-8.17117
▁کل	-8.17155
▁موارد	-8.17421
▁دارم	-8.18058
▁طبیعی	-8.18185
▁ساخته	-8.18696
▁هرگز	-8.18696
به	-8.18775
▁بعضی	-8.18876
▁ساده	-8.19097
▁خارج	-8.19756
▁فروش	-8.19843
▁هزار	-8.1985
▁ب	-8.1998
▁ساخت	-8.20004
▁موفقیت	-8.20262
▁امکان	-8.20415
▁هست	-8.2053
▁نگاه	-8.20566
▁نقش	-8.20903
▁رابطه	-8.21373
▁عمومی	-8.21383
▁روسیه	-8.21571
▁صفحه	-8.21878
▁جا	-8.21951
▁ویژه	-8.2202
▁ملی	-8.22154
▁حداقل	-8.22164
▁رنگ	-8.22169
▁شخصی	-8.22605
▁دوم	-8.22631
▁ایده	-8.22748
▁مشکلات	-8.22825
▁حقوق	-8.23073
▁کنار	-8.23192
▁آماده	-8.23347
▁مرگ	-8.23939
».	-8.24016
▁بهبود	-8.24179
یم	-8.24249
▁سفر	-8.24272
▁بودن	-8.24487
▁حفظ	-8.24499
▁آنجا	-8.24893
▁سخت	-8.25445
▁سرعت	-8.25763
▁حرکت	-8.25971
ید	-8.26021
▁افرادی	-8.26183
▁خون	-8.26724
▁کودک	-8.26823
▁شب	-8.26893
▁سیاست	-8.27055
▁یافته	-8.27485
▁تاثیر	-8.27532
▁خداوند	-8.27543
▁خطر	-8.27553
▁خواب	-8.27612
▁حق	-8.27922
▁قادر	-8.27985
▁رئیس	-8.28087
▁[	-8.2831
▁سوی	-8.28457
تر	-8.28482
▁میزان	-8.28574
▁چهار	-8.28651
▁حرفه	-8.28706
▁علاوه	-8.28738
▁آنان	-8.288
▁طی	-8.29003
در	-8.29395
▁دوباره	-8.29504
ک	-8.29743
▁غذایی	-8.30006
س	-8.3005
▁2	-8.30123
▁آسیب	-8.3026
▁مشخص	-8.30474
▁شان	-8.30512
▁متفاوت	-8.30637
▁خواهیم	-8.31837
▁سراسر	-8.31859
▁ایم	-8.32236
▁پرداخت	-8.32736
من	-8.32842
▁دستگاه	-8.32969
▁سریع	-8.33564
▁هنگام	-8.33585
▁انتظار	-8.33976
▁دهه	-8.34675
▁خارجی	-8.3478
مان	-8.34804
▁جایی	-8.35005
▁علیه	-8.35012
."	-8.35177
▁موجود	-8.35266
/	-8.35348
▁هستیم	-8.35466
▁آید	-8.35555
▁وضعیت	-8.35593
▁آمریکایی	-8.3579
▁دیده	-8.35916
▁محصولات	-8.35935
▁داشتن	-8.36049
▁زیاد	-8.36267
▁بیان	-8.36446
▁مشتریان	-8.36514
▁واقعا	-8.36571
▁دسترسی	-8.36627
▁طولانی	-8.36721
ع	-8.37069
▁نتایج	-8.37079
▁بخشی	-8.37213
▁معمولا	-8.3722
▁حضور	-8.37249
▁حد	-8.37641
▁تجاری	-8.37707
▁مشاهده	-8.37855
▁پایین	-8.37925
▁روند	-8.37984
▁گاهی	-8.38747
▁نشده	-8.38844
▁عکس	-8.39017
▁امنیت	-8.39072
▁دهیم	-8.39347
▁سعی	-8.3947
▁آورد	-8.39493
▁آمده	-8.39666
▁شناخته	-8.40035
▁منتشر	-8.40083
▁مکان	-8.40332
▁خواهم	-8.40613
▁مرد	-8.40812
▁اضافه	-8.40991
▁5	-8.41006
▁معنی	-8.41058
▁طرف	-8.41335
▁3	-8.41364
▁10	-8.41524
▁محیط	-8.41577
▁نباید	-8.41852
▁عالی	-8.4214
▁درخواست	-8.42416
▁کنندگان	-8.4242
▁مدل	-8.42888
▁مهارت	-8.43262
▁منابع	-8.43296
▁ایشان	-8.43603
▁فرصت	-8.43784
▁فشار	-8.4394
▁نمایش	-8.44306
▁پنج	-8.44506
▁آزاد	-8.44674
▁حرف	-8.44709
▁رود	-8.44721
▁بندی	-8.44727
▁توانایی	-8.44963
▁همکاری	-8.45062
▁سمت	-8.45307
▁رخ	-8.45435
▁حقیقت	-8.45475
▁بچه	-8.45499
▁رسانه	-8.45638
ز	-8.45678
▁حالا	-8.45922
▁چیست	-8.4596
▁موفق	-8.4619
▁تمرکز	-8.46253
▁غذا	-8.46356
▁مرکز	-8.4639
ای	-8.46404
▁ساله	-8.46424
▁بودم	-8.4652
▁جمع	-8.46996
▁رفتار	-8.47037
▁ثبت	-8.47339
▁توانیم	-8.47356
▁C	-8.47775
▁طرح	-8.4797
▁اشاره	-8.48255
▁محصول	-8.48713
▁روابط	-8.48805
▁نیستند	-8.48976
▁نوشته	-8.48996
▁توصیه	-8.4967
▁کدام	-8.49756
▁بعدی	-8.49763
▁هستم	-8.49792
▁مرحله	-8.49927
▁گویند	-8.50071
▁S	-8.50279
▁حمله	-8.50406
▁فراهم	-8.50482
▁دقیقه	-8.50852
▁کلی	-8.50904
▁اکثر	-8.50966
▁متوجه	-8.51046
▁منجر	-8.51206
▁اعتماد	-8.51293
▁یافت	-8.51363
▁علاقه	-8.51364
▁خودتان	-8.51417
▁بینی	-8.51441
که	-8.51516
▁جهت	-8.51615
▁نظامی	-8.5169
▁A	-8.51903
▁مقدار	-8.52134
▁آزمایش	-8.52176
▁داخلی	-8.52251
▁تغییرات	-8.5242
▁تحقیقات	-8.52709
▁داشتند	-8.52775
▁بگیرید	-8.53083
▁مجموعه	-8.53247
▁کاربران	-8.53336
▁اهمیت	-8.53341
▁گزینه	-8.53355
▁صنعت	-8.53581
▁تقریبا	-8.53598
▁سن	-8.53608
▁اهداف	-8.53664
▁بسته	-8.5379
▁B	-8.53926
ل	-8.54725
▁پیشرفت	-8.54743
▁اقتصاد	-8.5486
▁رسید	-8.54901
▁ماشین	-8.54915
▁خودش	-8.55226
▁آمد	-8.55258
▁گرفتن	-8.55291
▁باشیم	-8.55912
▁کاملا	-8.55928
▁ندارند	-8.56014
ب	-8.5607
▁یابد	-8.5613
▁انگلیسی	-8.56303
▁محل	-8.56338
▁نبود	-8.56449
▁آخرین	-8.56452
▁بد	-8.5666
▁آموزان	-8.56721
▁منظور	-8.5675
▁پوست	-8.57004
▁کس	-8.57127
▁گردد	-8.57161
▁حساب	-8.5733
▁دادند	-8.57511
▁اتاق	-8.57526
▁تشکیل	-8.57543
▁باقی	-8.57566
▁گیرند	-8.57603
▁نور	-8.57653
▁اثر	-8.57696
▁قسمت	-8.57917
▁واقعیت	-8.57965
▁امر	-8.58223
▁وزن	-8.58594
▁جریان	-8.59043
▁جمهوری	-8.59355
▁مشتری	-8.59411
▁رژیم	-8.59448
▁مدرسه	-8.59592
▁مسیر	-8.59734
▁بهره	-8.5985
▁احتمال	-8.59948
▁تشخیص	-8.59986
▁کوتاه	-8.60308
▁عملکرد	-8.60324
▁گسترده	-8.60342
▁آلمان	-8.60356
▁اجرا	-8.6037
▁انواع	-8.60409
▁/	-8.60544
▁تعیین	-8.60548
▁باور	-8.60654
▁1	-8.60752
▁برد	-8.60753
▁مرتبط	-8.60826
▁4	-8.60972
▁عشق	-8.6111
▁پیشنهاد	-8.61331
▁سوریه	-8.61343
▁بیرون	-8.61739
▁ابتدا	-8.61798
▁نگه	-8.61813
▁درد	-8.61962
▁موسیقی	-8.62084
▁داخل	-8.62224
▁نرم	-8.62293
▁پشت	-8.62642
▁آزادی	-8.62749
▁مسئله	-8.62864
▁سلامت	-8.6287
▁اطمینان	-8.63143
▁تصویر	-8.63221
▁حالت	-8.63243
▁بحث	-8.63286
▁مغز	-8.63321
▁کیفیت	-8.63363
▁یکدیگر	-8.63469
▁فعال	-8.6356
▁مردان	-8.63587
)،	-8.63588
▁لذت	-8.63641
▁اسرائیل	-8.63653
▁همچنان	-8.63788
▁الله	-8.63944
ست	-8.64086
▁کشف	-8.64361
▁خصوص	-8.64585
▁آنلاین	-8.64864
▁سرطان	-8.65064
▁اینترنت	-8.65251
▁جلوگیری	-8.65298
▁اولیه	-8.65584
▁کردیم	-8.65714
▁محدود	-8.6582
▁اعضای	-8.65884
▁نمونه	-8.65954
▁آوری	-8.65976
▁ازدواج	-8.66028
▁پدر	-8.66143
▁نکنید	-8.66176
▁پزشکی	-8.66296
▁تمامی	-8.6636
▁گوش	-8.6637
▁ارسال	-8.66687
▁ویژگی	-8.6676
▁مقاله	-8.6684
▁نسخه	-8.66913
▁محلی	-8.67037
▁افغانستان	-8.67056
یک	-8.67178
▁فرانسه	-8.6728
▁۲	-8.67407
▁دوران	-8.67556
).	-8.67602
▁هسته	-8.67626
▁تجارت	-8.68172
▁روشن	-8.68603
▁نخواهد	-8.68694
▁سفید	-8.6877
▁قوی	-8.68775
▁رفت	-8.68907
▁جمهور	-8.6909
▁نامه	-8.69148
▁اخیر	-8.69181
▁مطمئن	-8.69323
ما	-8.69372
▁دهنده	-8.69402
▁زنده	-8.70145
▁نهایت	-8.70386
▁»	-8.70535
▁درآمد	-8.70548
▁شخص	-8.70653
▁۱۰	-8.70851
▁سالم	-8.70996
▁جوان	-8.71193
▁توضیح	-8.71294
▁پشتیبانی	-8.71315
▁بانک	-8.71373
▁گسترش	-8.71437
▁قرن	-8.71511
▁ده	-8.71596
▁بازاریابی	-8.71639
▁فرهنگ	-8.71698
▁انتقال	-8.71758
ٔ	-8.72058
▁ترکیه	-8.72075
ترین	-8.72105
▁خط	-8.72182
▁تماس	-8.72291
این	-8.72316
▁مناطق	-8.72539
▁اشتباه	-8.72585
▁م	-8.72598
▁شکست	-8.72668
▁مسائل	-8.72696
▁سوم	-8.72699
▁جدی	-8.7274
▁پی	-8.72781
▁ترک	-8.72917
▁فوق	-8.72985
▁)	-8.731
▁قوانین	-8.7315
▁اوقات	-8.73383
▁رفتن	-8.73389
▁تفاوت	-8.73498
▁تازه	-8.73982
▁شدید	-8.7424
▁نیروهای	-8.74358
▁مادر	-8.7503
▁ترامپ	-8.75052
▁شخصیت	-8.75071
▁نقطه	-8.75135
از	-8.75154
S	-8.7518
▁جنسی	-8.7518
▁سلول	-8.75577
▁کره	-8.75585
▁تحقیق	-8.75866
▁مستقیم	-8.75871
▁کارهای	-8.76224
▁جان	-8.7624
▁قصد	-8.7626
▁استراتژی	-8.76438
▁تصور	-8.76526
▁مبارزه	-8.76589
▁توافق	-8.76779
▁آتش	-8.77082
▁تکنولوژی	-8.77301
▁صلح	-8.77401
▁دنیای	-8.77403
ون	-8.77409
▁احتمالا	-8.77506
▁قلب	-8.77848
▁۳	-8.77867
▁یادگیری	-8.77899
▁دید	-8.77988
▁شبیه	-8.78067
▁نشانه	-8.78071
▁مرا	-8.78101
▁نفت	-8.78122
▁ریزی	-8.78132
▁جز	-8.78173
▁جدیدی	-8.7818
▁قدیمی	-8.78183
▁خصوصی	-8.78282
▁سوال	-8.78504
▁۵	-8.78726
▁؟	-8.78825
▁گوگل	-8.78885
▁D	-8.78903
▁معرفی	-8.78911
▁مقابل	-8.79051
اً	-8.79065
▁صرف	-8.79307
▁تمرین	-8.79505
▁آسان	-8.79542
▁پیام	-8.79629
▁موقعیت	-8.79739
▁ذهن	-8.79825
▁ساختمان	-8.79836
▁شدت	-8.79867
D	-8.80057
▁چقدر	-8.80058
▁بشر	-8.80116
▁چطور	-8.80395
▁فضای	-8.80446
▁عراق	-8.8063
▁ابزار	-8.8073
.”	-8.80893
▁برند	-8.80973
er	-8.81026
▁اختیار	-8.81028
▁۱	-8.81096
▁خبر	-8.81438
▁رسیدن	-8.81699
▁مجبور	-8.81761
▁دچار	-8.82353
▁بزرگترین	-8.82382
▁اعمال	-8.82383
2	-8.8245
▁مقایسه	-8.82528
▁آدم	-8.82547
▁فصل	-8.82901
▁نکته	-8.82962
▁نیروی	-8.83008
▁انسانی	-8.83068
▁کانادا	-8.83299
▁حاصل	-8.83391
B	-8.83499
ار	-8.83546
▁همانطور	-8.83921
▁تلفن	-8.84129
▁خودم	-8.84155
▁عدم	-8.84181
▁دقیق	-8.84244
▁درون	-8.84336
▁علمی	-8.84513
▁آقای	-8.84569
▁بلند	-8.84638
▁6	-8.84824
▁دوربین	-8.84978
▁مثبت	-8.85277
▁مشترک	-8.85343
انه	-8.85505
▁راحتی	-8.85524
▁دسترس	-8.85833
▁رسمی	-8.86142
▁*	-8.86188
▁اتحادیه	-8.86222
▁نداشته	-8.86314
▁هوا	-8.86355
▁فردی	-8.86438
▁میلیارد	-8.86486
▁دوستان	-8.86721
▁اشتراک	-8.86753
▁رسیده	-8.86864
▁مشابه	-8.86899
▁امنیتی	-8.86949
▁مراقبت	-8.87055
▁تهدید	-8.87131
C	-8.87329
▁طبق	-8.87393
▁مفید	-8.87448
▁تأثیر	-8.8751
▁محققان	-8.87585
▁توانم	-8.87698
▁لباس	-8.877
y	-8.87977
▁بازگشت	-8.87992
ق	-8.88071
▁اقدام	-8.88143
▁سیاه	-8.88228
▁فراموش	-8.88371
▁حزب	-8.88558
▁کن	-8.88588
▁روزانه	-8.88686
▁سی	-8.88914
ف	-8.89032
▁زده	-8.89128
▁ارزیابی	-8.89213
▁ضد	-8.89231
▁دانشجویان	-8.89235
▁ال	-8.89347
▁شناسایی	-8.89398
▁عامل	-8.89441
▁سبک	-8.89679
▁دانند	-8.89685
▁گرم	-8.89697
▁خوردن	-8.89776
▁اطراف	-8.89835
▁علائم	-8.8986
▁کجا	-8.89886
▁نقل	-8.89946
▁العاده	-8.90139
▁عضو	-8.90318
▁قرآن	-8.90334
▁جمعیت	-8.90394
▁تحلیل	-8.90397
یا	-8.90509
▁پزشک	-8.9055
▁درجه	-8.90645
▁تعریف	-8.90794
▁شش	-8.91048
▁مطالعات	-8.9127
▁رفته	-8.91568
▁دار	-8.91581
با	-8.91997
▁خوش	-8.92069
▁خودشان	-8.92172
▁حمل	-8.92468
▁اسلامی	-8.9261
▁قانونی	-8.92672
▁علت	-8.92783
▁ورزش	-8.92825
A	-8.92961
▁پذیر	-8.93198
▁هدایت	-8.9326
▁لحظه	-8.93357
G	-8.93642
▁مطرح	-8.9374
▁خاصی	-8.93785
▁20	-8.93812
▁پایه	-8.9392
▁جستجو	-8.94099
▁ثابت	-8.94126
▁تن	-8.94128
▁”	-8.94133
▁حذف	-8.9432
▁پلیس	-8.94336
▁نکرده	-8.94389
▁کلاس	-8.94506
▁موجب	-8.9453
▁واکنش	-8.9455
یت	-8.94603
▁منبع	-8.9465
▁مبتلا	-8.94797
▁مان	-8.94946
▁دولتی	-8.95195
▁چیزهایی	-8.95205
▁شمالی	-8.95217
▁محافظت	-8.956
▁وزیر	-8.95679
▁داری	-8.95691
▁کلمه	-8.95709
▁افتد	-8.95794
▁انقلاب	-8.95831
▁دفاع	-8.95854
▁ضروری	-8.95884
٪	-8.95939
e	-8.95979
▁انتخابات	-8.9598
▁جذب	-8.95983
▁اگرچه	-8.96172
▁سازد	-8.96413
▁ورود	-8.96457
▁فرهنگی	-8.96541
▁دهم	-8.96562
ing	-8.96618
▁امور	-8.96674
▁برگزار	-8.96734
می	-8.9682
▁هند	-8.97255
▁نگران	-8.97322
▁۴	-8.97549
▁بزرگی	-8.97834
هایی	-8.9785
▁بیمار	-8.97873
▁انگیز	-8.9827
▁•	-8.98281
▁حوزه	-8.98285
▁متوسط	-8.98314
▁امروزه	-8.98318
▁دانلود	-8.98382
▁ت	-8.98561
▁دختر	-8.9871
▁موثر	-8.9871
▁ببینید	-8.98893
▁بیماران	-8.98937
▁عوامل	-8.98993
▁افزار	-8.99069
▁علی	-8.99084
▁معنای	-8.991
▁ترس	-8.99144
▁مدرن	-8.99194
▁زیست	-8.99319
▁جدا	-8.99354
▁نجات	-8.99499
▁اساسی	-8.995
▁ظاهر	-8.99617
▁اجرای	-8.99688
▁ترکیب	-8.99926
▁محتوای	-9.00013
▁دکتر	-9.00089
▁ماده	-9.00104
▁تنظیم	-9.00173
ـ	-9.00287
▁18	-9.00293
▁ارتش	-9.00323
▁چالش	-9.00407
▁دل	-9.00461
▁تصاویر	-9.00527
▁مدیر	-9.00617
▁فایل	-9.00637
▁هنر	-9.00681
▁سنگ	-9.00864
▁خواندن	-9.0094
▁حس	-9.00945
▁بدانید	-9.00958
▁ماند	-9.01011
▁پیچیده	-9.01043
▁بگیرد	-9.01049
▁آخر	-9.01129
▁سود	-9.01132
1	-9.01146
t	-9.01232
▁امام	-9.01232
▁استاندارد	-9.0126
▁P	-9.01314
▁پرواز	-9.01454
▁ستاره	-9.0157
▁حکومت	-9.01612
ور	-9.01692
▁دیدگاه	-9.01998
▁امریکا	-9.02082
▁آموزشی	-9.02153
▁شغل	-9.02269
▁صدای	-9.02488
▁of	-9.02492
▁مسئولیت	-9.02625
▁شیوه	-9.02646
ال	-9.02704
▁دیدن	-9.02716
▁ان	-9.02718
▁فناوری	-9.02824
▁فاصله	-9.02936
▁پا	-9.03032
▁رقابت	-9.03251
▁کلیدی	-9.03475
▁کارت	-9.03543
▁ترتیب	-9.0384
▁7	-9.04035
▁دانم	-9.04132
▁بازدید	-9.04211
▁معمولاً	-9.04225
▁آنکه	-9.04242
▁معمول	-9.04262
▁جالب	-9.04266
▁تری	-9.04412
▁نمود	-9.0442
M	-9.04525
▁کشته	-9.04678
▁خشونت	-9.04852
▁خواست	-9.04915
▁T	-9.05013
▁لیست	-9.05125
▁پست	-9.05252
P	-9.05357
▁رهبری	-9.05476
▁نخستین	-9.05656
▁پسر	-9.05882
▁قبلی	-9.05906
▁جنوبی	-9.06147
▁متوقف	-9.06152
▁F	-9.06193
▁نا	-9.06405
▁بتواند	-9.06494
▁مقامات	-9.0651
▁دانشمندان	-9.06609
▁M	-9.06727
▁گل	-9.06779
▁نگرانی	-9.06887
▁ملل	-9.06921
▁جایگزین	-9.07067
▁عمر	-9.07281
▁بالای	-9.07363
▁ذخیره	-9.07694
▁وسیله	-9.07697
▁سرویس	-9.07805
▁عبارت	-9.08024
3	-9.08334
▁استرس	-9.08561
▁ناشی	-9.08814
▁علم	-9.08815
▁دانید	-9.08822
▁مگر	-9.08868
▁گفتند	-9.08947
▁اقدامات	-9.09066
▁منفی	-9.09233
▁کامپیوتر	-9.09246
▁کشورها	-9.09306
▁8	-9.09462
▁نفس	-9.09492
▁شماره	-9.09514
▁15	-9.09569
▁صبح	-9.09584
▁درمانی	-9.09589
▁E	-9.09628
▁مانده	-9.09731
بر	-9.10011
▁عمیق	-9.10216
▁عرضه	-9.10487
▁تکرار	-9.10539
▁تست	-9.10739
ص	-9.10739
▁آورده	-9.10807
▁12	-9.10836
▁نسل	-9.10859
▁سلاح	-9.11078
▁هوایی	-9.11092
▁جواب	-9.11148
▁داند	-9.11217
▁کلمات	-9.11429
▁باشم	-9.11442
▁تقویت	-9.11772
▁نیازهای	-9.11904
▁شدم	-9.11911
▁اندازی	-9.11985
▁اسلام	-9.12096
▁نرخ	-9.12233
ایی	-9.12278
▁بالاتر	-9.12366
▁پوشش	-9.12367
▁هفت	-9.12392
▁R	-9.12395
▁زدن	-9.12729
▁قابلیت	-9.13016
▁ارشد	-9.13049
▁ایمیل	-9.13055
▁دی	-9.13105
▁اين	-9.1332
▁توانست	-9.13371
▁مهمی	-9.13406
▁خلق	-9.13567
▁نهایی	-9.13614
▁معرض	-9.13635
▁زیبا	-9.13699
d	-9.13704
▁کارکنان	-9.13752
▁ن	-9.13826
▁G	-9.13829
▁تهیه	-9.14001
▁نماید	-9.14118
▁هتل	-9.14345
▁رشته	-9.1435
▁مواجه	-9.14389
▁کنی	-9.14413
▁مشارکت	-9.14573
▁ذکر	-9.14585
▁هوشمند	-9.1469
▁مستقل	-9.147
▁30	-9.14716
▁حیوانات	-9.14833
▁دانیم	-9.14847
▁عملیات	-9.15199
▁دیجیتال	-9.15204
▁خواسته	-9.1525
▁نصب	-9.15298
▁کشتی	-9.15508
▁شویم	-9.15567
▁The	-9.15572
▁خدمت	-9.15657
▁برسد	-9.15658
▁تاریخی	-9.1579
▁خانم	-9.15805
▁همواره	-9.15809
▁کاملاً	-9.15833
▁اینها	-9.15928
▁بحران	-9.16386
▁رد	-9.16438
▁قبول	-9.16508
▁بگیرند	-9.16508
▁شگفت	-9.16531
▁نوشتن	-9.16622
▁وزارت	-9.16983
▁سگ	-9.17209
▁تقسیم	-9.17474
▁روزنامه	-9.17516
تا	-9.17846
▁فیزیکی	-9.17872
▁وعده	-9.1809
▁مرکزی	-9.18179
▁ساختار	-9.18406
▁کاربر	-9.18439
▁والدین	-9.18506
▁ژاپن	-9.18583
▁محدودیت	-9.1864
گر	-9.18679
▁تلویزیون	-9.18758
▁H	-9.18821
▁اداره	-9.18962
▁دندان	-9.19013
▁احساسات	-9.19115
▁مو	-9.19145
▁خودمان	-9.19196
▁آوردن	-9.19459
▁قدم	-9.19502
▁سالگی	-9.19724
▁دسته	-9.20046
▁سخن	-9.2007
▁عوض	-9.20077
▁مشغول	-9.20078
▁منتظر	-9.20163
▁زندان	-9.20169
▁بله	-9.20268
▁واقعاً	-9.20512
گی	-9.20538
▁رایگان	-9.20718
▁رهبران	-9.20797
▁برقرار	-9.21013
▁تمایل	-9.21048
▁غربی	-9.21067
▁اطلاعاتی	-9.21092
▁تایید	-9.21224
▁صورتی	-9.21492
▁نویسنده	-9.21495
▁چینی	-9.21601
▁نظام	-9.21766
▁علوم	-9.21978
▁راست	-9.22139
▁متحد	-9.22173
E	-9.22252
▁لحاظ	-9.22364
▁فرزند	-9.22371
▁اروپایی	-9.22486
%	-9.22495
n	-9.22701
▁زیبایی	-9.22725
▁گذاشته	-9.22739
▁استرالیا	-9.22742
▁مطلب	-9.2275
بی	-9.22825
▁نباشد	-9.22882
▁گام	-9.22937
▁الان	-9.22965
▁۲۰	-9.22982
▁سلامتی	-9.2304
▁گوشی	-9.23115
▁غرب	-9.23175
▁عاشق	-9.23234
▁منحصر	-9.2338
▁امید	-9.23437
▁میشود	-9.23497
▁راحت	-9.23574
▁آمیز	-9.23676
▁دلایل	-9.23853
▁گاز	-9.23967
▁جراحی	-9.24069
▁مختلفی	-9.24163
▁دقت	-9.2418
▁ایمان	-9.24231
▁دشوار	-9.24299
4	-9.24468
▁تحریم	-9.24572
▁انداز	-9.24604
▁خورشید	-9.24614
5	-9.24655
▁داشتم	-9.24816
▁واحد	-9.24827
▁پیاده	-9.24835
▁تولد	-9.24843
▁فعلی	-9.24941
▁برخورد	-9.24954
تون	-9.25033
▁دادگاه	-9.25066
▁نحوه	-9.2514
▁احترام	-9.25221
▁طبقه	-9.2544
▁برق	-9.25509
▁­	-9.25558
ام	-9.25696
ح	-9.257
؟»	-9.2608
▁اقامت	-9.26142
▁آرام	-9.26159
▁منافع	-9.2616
▁نظارت	-9.26253
▁قدر	-9.26431
▁بریتانیا	-9.26555
▁آگاهی	-9.26639
▁بودجه	-9.26762
▁نخست	-9.26775
▁تبلیغات	-9.27073
▁عربستان	-9.27101
نه	-9.27304
o	-9.2736
▁قهوه	-9.27369
ج	-9.27373
▁چگونگی	-9.27509
۱	-9.27826
H	-9.27872
▁فرا	-9.27959
▁سبز	-9.28021
▁حفاظت	-9.28021
▁باره	-9.2806
L	-9.2829
▁میکند	-9.28521
▁صنعتی	-9.2862
▁عادی	-9.28627
▁فرض	-9.29135
▁اصل	-9.29157
▁گذارد	-9.29318
▁شیمیایی	-9.29418
▁مصاحبه	-9.29419
▁توصیف	-9.29551
▁منتقل	-9.29551
▁شاهد	-9.29582
▁بدهید	-9.29601
▁بگذارید	-9.29693
▁ا	-9.29799
▁شمال	-9.29904
▁دفتر	-9.30102
▁مند	-9.30174
▁۶	-9.30181
▁رنج	-9.3026
▁مزایای	-9.30264
▁جلسه	-9.30383
▁محبوب	-9.30507
▁عقب	-9.30524
▁مي	-9.30654
▁نو	-9.30799
▁بیمارستان	-9.308
گ	-9.3086
▁تک	-9.30904
▁روغن	-9.30943
▁بدست	-9.3099
▁فرم	-9.31017
▁وبلاگ	-9.31221
▁تضمین	-9.31222
F	-9.31287
تو	-9.31367
خ	-9.3147
▁نگهداری	-9.31498
▁روح	-9.3165
▁فروشگاه	-9.31682
c	-9.31749
▁حملات	-9.31854
▁اعتقاد	-9.31895
▁درس	-9.31943
▁گفتم	-9.31944
▁گران	-9.32023
al	-9.32161
▁دستور	-9.32171
▁کارگران	-9.32195
▁آیند	-9.32203
▁9	-9.32261
▁پیشرفته	-9.32269
▁صحنه	-9.32358
نا	-9.32429
▁دارو	-9.32449
▁گاه	-9.32451
▁عفونت	-9.32495
▁جنوب	-9.32788
▁پارک	-9.32899
▁ترجمه	-9.32927
▁بقیه	-9.3293
▁جایزه	-9.32945
▁هزاران	-9.33003
▁بتوانند	-9.33081
▁ایمنی	-9.33253
▁دعوت	-9.33493
▁نقاط	-9.33493
T	-9.33531
▁روزی	-9.33563
N	-9.33572
نی	-9.33634
▁تقریباً	-9.33643
▁تامین	-9.33655
▁متن	-9.33713
▁رتبه	-9.33781
▁هشدار	-9.33848
K	-9.33851
▁ویتامین	-9.33924
▁مقام	-9.34037
▁اوایل	-9.34094
▁متصل	-9.34213
▁آشکار	-9.34219
▁راهی	-9.34319
O	-9.3441
▁آسمان	-9.34575
p	-9.34596
▁شیر	-9.34601
▁بستگی	-9.34655
▁موتور	-9.34675
▁انتشار	-9.34723
▁ملاقات	-9.34939
▁دین	-9.35031
▁جزیره	-9.35086
▁مقاومت	-9.35108
▁عبور	-9.35231
r	-9.35328
▁صدا	-9.35334
▁فضا	-9.35516
▁اهل	-9.3553
▁چاپ	-9.35639
▁مدیران	-9.35821
▁دریایی	-9.36034
▁بردن	-9.36038
▁اس	-9.36063
▁کانال	-9.36122
▁توجهی	-9.36144
▁امن	-9.36158
▁!	-9.36163
▁پژوهش	-9.36202
▁ارتباطات	-9.36289
▁کارها	-9.3631
یان	-9.36467
▁گروهی	-9.36606
▁مهاجرت	-9.3662
ری	-9.36659
؟!	-9.36677
▁کد	-9.36712
▁طوری	-9.36723
▁دروغ	-9.3679
▁استاد	-9.36796
▁پاک	-9.36805
a	-9.36851
▁اتفاقی	-9.37065
▁ایرانی	-9.37105
▁جزئیات	-9.37171
▁اصلاح	-9.37248
▁آزمون	-9.373
▁شمار	-9.37342
▁اجتناب	-9.37446
▁معروف	-9.37449
in	-9.37542
▁50	-9.37645
▁نامیده	-9.37651
▁بودیم	-9.37724
▁بنا	-9.37765
▁برنده	-9.37844
▁ـ	-9.37912
▁فن	-9.38163
▁تعدادی	-9.38176
▁تشویق	-9.38348
▁بدان	-9.38483
▁نداشت	-9.38485
را	-9.38486
▁نوعی	-9.38692
▁تکنیک	-9.38711
▁آگاه	-9.38712
▁بروید	-9.38831
▁فرآیند	-9.38838
▁افتاد	-9.38943
▁تاکنون	-9.39104
▁N	-9.39222
▁یافتن	-9.39243
▁تجهیزات	-9.39263
▁جنبه	-9.39433
▁عادت	-9.39717
▁نیازمند	-9.39777
▁رهبر	-9.39797
گان	-9.39801
▁شهروندان	-9.399
▁سری	-9.39901
▁100	-9.4008
▁گذشت	-9.4016
▁بن	-9.4022
▁چپ	-9.40361
▁مایل	-9.40496
▁وظیفه	-9.40502
▁فراتر	-9.40508
▁ادعا	-9.40574
▁آشنا	-9.40597
▁K	-9.4061
▁۳۰	-9.40629
▁قرارداد	-9.40682
▁شک	-9.40886
▁میلادی	-9.40888
▁پیروزی	-9.40903
▁I	-9.40941
▁نیمه	-9.40949
▁دهندگان	-9.41023
▁طبیعت	-9.41034
▁بطور	-9.411
▁ثانیه	-9.41103
▁ریسک	-9.41105
▁آل	-9.41129
▁ساز	-9.41149
▁L	-9.41208
▁جنبش	-9.41274
i	-9.413
▁الهی	-9.41334
▁پرسش	-9.41438
▁امتحان	-9.4152
▁سعودی	-9.41603
لی	-9.41605
▁انگیزه	-9.41738
▁بهداشت	-9.4184
▁متمرکز	-9.41875
▁انجمن	-9.4188
▁بتوانید	-9.4189
▁جایگاه	-9.42
▁امسال	-9.42054
▁سرد	-9.42067
▁یه	-9.42145
رو	-9.42164
▁اضافی	-9.42187
انی	-9.42279
▁فوتبال	-9.42335
▁مقابله	-9.42343
▁نیویورک	-9.42348
▁سختی	-9.42464
▁تغذیه	-9.42504
▁حضرت	-9.42505
▁نظریه	-9.42531
▁تحصیل	-9.42559
▁کردید	-9.42601
▁افتاده	-9.42677
▁قبلا	-9.42699
▁ترجیح	-9.42731
▁مداوم	-9.42816
▁پخش	-9.42816
▁قرمز	-9.42918
▁واضح	-9.42976
▁بگویید	-9.42977
▁عملی	-9.42977
▁رها	-9.42991
▁بیشترین	-9.43082
▁ماهی	-9.43265
▁سابق	-9.43277
▁برچسب	-9.43299
▁شهری	-9.43308
▁خطرناک	-9.43327
▁درگیر	-9.43394
▁تاکید	-9.43448
▁چهره	-9.43535
▁مسئول	-9.43593
▁همانند	-9.43695
▁شماست	-9.43715
اس	-9.43852
▁هیجان	-9.43874
▁همسر	-9.43945
▁بدهد	-9.44106
▁ضعیف	-9.44139
▁عهده	-9.44192
▁محتوا	-9.44367
▁شغلی	-9.44449
▁چربی	-9.4448
▁11	-9.446
▁فنی	-9.44793
▁اسم	-9.44814
le	-9.4484
▁درستی	-9.4493
▁خودرو	-9.44935
▁بهتری	-9.44985
I	-9.45012
▁بزرگتر	-9.45042
▁قلبی	-9.45142
▁تنهایی	-9.4517
▁۱۵	-9.45297
▁سپتامبر	-9.45373
▁چیزهای	-9.45387
▁خریداری	-9.45438
▁خیر	-9.45481
▁صحیح	-9.45698
▁پذیرش	-9.45758
▁آی	-9.45879
▁توزیع	-9.46022
َ	-9.46057
▁13	-9.46249
▁مالیات	-9.46276
▁بیت	-9.46281
▁معمولی	-9.46329
▁بخوانید	-9.46346
▁مراحل	-9.46347
▁کشد	-9.46379
▁ملت	-9.46384
▁بروز	-9.46478
▁پروتئین	-9.46511
▁افسردگی	-9.46512
▁پای	-9.46725
▁دقیقا	-9.46773
▁اختصاص	-9.4681
▁جستجوی	-9.46912
▁آثار	-9.47001
▁بگویم	-9.47011
▁پنهان	-9.47141
▁سیاره	-9.47178
▁فرار	-9.47278
▁تفکر	-9.47457
▁عین	-9.47498
▁انگلستان	-9.47498
▁کی	-9.47522
▁برده	-9.47526
▁خیابان	-9.47642
▁فارغ	-9.4766
▁حافظه	-9.47686
▁اطلاع	-9.47766
▁بارداری	-9.47862
▁اختلال	-9.47935
▁استخدام	-9.47991
▁کنفرانس	-9.47994
▁متخصص	-9.47995
▁حداکثر	-9.47996
▁افکار	-9.48001
▁همزمان	-9.48084
▁پاکستان	-9.48313
▁ایتالیا	-9.4832
▁گرفتند	-9.48467
▁عجیب	-9.48481
▁پرورش	-9.48493
▁مى	-9.48556
▁خاک	-9.48564
▁سرزمین	-9.48654
▁نماز	-9.48669
▁۸	-9.4876
یر	-9.48929
▁حاوی	-9.48992
▁بدین	-9.49019
اب	-9.49078
▁فرزندان	-9.4915
▁محسوب	-9.49159
▁افزود	-9.49186
▁لینک	-9.49202
▁دیدار	-9.49204
▁بیمه	-9.49389
▁قدرتمند	-9.49476
ئی	-9.49538
▁اصول	-9.49813
▁میوه	-9.49902
▁اصلا	-9.50093
▁هشت	-9.503
▁تهران	-9.50342
▁آور	-9.50377
▁موزه	-9.50569
وس	-9.50633
▁آورند	-9.50784
کار	-9.50824
لا	-9.50844
▁تجزیه	-9.50854
▁مذاکره	-9.50855
▁قتل	-9.50858
▁جاده	-9.50877
.[	-9.50904
▁بدتر	-9.50972
▁زد	-9.50973
▁شورای	-9.51034
▁پذیری	-9.5108
▁مصر	-9.51098
▁هرچند	-9.51402
▁نقشه	-9.51443
R	-9.5151
▁مساله	-9.51542
▁ک	-9.51542
▁چهارم	-9.51651
▁کلید	-9.5168
▁هایشان	-9.51732
▁مفهوم	-9.52076
ول	-9.52126
▁خوشحال	-9.52407
▁کلیک	-9.52467
▁۱۲	-9.52496
▁هاست	-9.5252
▁متر	-9.52542
[	-9.52573
W	-9.52735
▁روزهای	-9.52769
▁موقع	-9.52877
▁معامله	-9.52924
▁بخواهید	-9.52929
▁اپل	-9.52951
▁شناسی	-9.52988
▁موضوعات	-9.53206
▁زودی	-9.5323
▁مبتنی	-9.53273
▁لندن	-9.53277
▁16	-9.53358
▁شانس	-9.53452
اگر	-9.53505
▁خلاصه	-9.53674
▁ارزان	-9.53722
▁نمایند	-9.53739
▁O	-9.53782
▁رانندگی	-9.538
▁دشمن	-9.53872
▁کارهایی	-9.53873
▁نفوذ	-9.53982
▁نمایید	-9.53989
▁اعتبار	-9.54008
▁گر	-9.54065
▁25	-9.54091
▁فرایند	-9.5421
▁تمیز	-9.5433
▁اثرات	-9.54438
▁مد	-9.54442
▁تکمیل	-9.54456
▁جشن	-9.54507
▁فهرست	-9.54509
g	-9.54612
▁شوم	-9.54858
▁واشنگتن	-9.54862
▁ببرید	-9.54867
▁صبر	-9.55053
▁ریشه	-9.55065
▁بهداشتی	-9.55297
▁بازیکنان	-9.55332
▁اظهار	-9.55333
▁فضایی	-9.55409
▁موسسه	-9.55422
۲	-9.55604
▁سخنرانی	-9.55688
▁مشهور	-9.55753
▁کارشناسی	-9.55835
▁ست	-9.55855
▁تحمل	-9.55933
▁زود	-9.55933
▁براساس	-9.55934
▁مذاکرات	-9.55934
▁کمبود	-9.5594
▁خویش	-9.55961
▁گفتن	-9.55991
▁بالقوه	-9.56112
▁[...]	-9.56116
▁ندارید	-9.5612
▁چنان	-9.5612
▁پایگاه	-9.56124
▁جذاب	-9.56149
ك	-9.56195
▁بوک	-9.56225
▁برخوردار	-9.56275
▁ساختن	-9.5629
▁گوشت	-9.56337
▁ویروس	-9.56359
▁پایدار	-9.56362
▁سقوط	-9.56476
▁زند	-9.56507
▁نبوده	-9.56563
▁نیمی	-9.56576
▁هویت	-9.56662
▁مجوز	-9.56984
▁سوخت	-9.57012
▁خانگی	-9.57019
▁س	-9.5706
▁W	-9.57296
▁پیامبر	-9.57325
▁,	-9.57428
▁پزشکان	-9.57546
▁کوه	-9.5763
▁وابسته	-9.57746
▁کشاورزی	-9.57906
▁نیازی	-9.57925
▁مارس	-9.57952
▁تابستان	-9.58
▁برداری	-9.58015
▁سنتی	-9.58061
▁رستوران	-9.58113
▁برجسته	-9.58113
یل	-9.5815
▁آهنگ	-9.58264
▁سالانه	-9.58298
▁خورد	-9.58334
▁سوالات	-9.58352
▁مشاوره	-9.58415
▁بیدار	-9.58426
▁برتر	-9.58443
▁شواهد	-9.58484
ed	-9.58542
▁خشک	-9.58596
▁دستیابی	-9.5868
▁قطع	-9.58698
▁باغ	-9.58737
▁کارخانه	-9.58772
▁همچون	-9.58888
▁سنت	-9.58912
▁ماست	-9.59039
▁۷	-9.59097
وی	-9.59175
▁بازسازی	-9.59247
▁ندارم	-9.59593
▁میدان	-9.59597
▁حجم	-9.59637
▁عدد	-9.59678
پ	-9.59756
▁مذهبی	-9.59785
▁کمتری	-9.5983
▁هواپیما	-9.59956
▁نیم	-9.60018
▁کارمندان	-9.60058
▁بارها	-9.60168
▁صد	-9.60171
▁برمی	-9.60192
▁اکتبر	-9.60345
▁40	-9.60395
▁آبی	-9.6044
▁بازداشت	-9.60776
’	-9.60906
ود	-9.60936
▁احتمالاً	-9.6095
▁حیات	-9.60952
▁صادر	-9.61057
▁خاورمیانه	-9.61096
▁صفحات	-9.61096
▁مراسم	-9.61099
▁مانع	-9.61122
است	-9.61296
▁معماری	-9.61465
▁نابود	-9.61693
▁نموده	-9.61698
▁عناصر	-9.61855
▁استقلال	-9.61857
us	-9.62129
▁عیسی	-9.62237
تی	-9.62331
▁آهن	-9.62414
▁جاری	-9.62468
▁معنا	-9.6248
▁میکنند	-9.62502
▁نزدیکی	-9.62608
▁مدارس	-9.62638
▁آدرس	-9.62814
▁بلافاصله	-9.63005
▁طلا	-9.63067
▁هوش	-9.63263
▁14	-9.63289
▁سیگار	-9.63323
▁معتقد	-9.63371
▁رویکرد	-9.63383
▁آلمانی	-9.63384
▁رضایت	-9.63597
▁مهندسی	-9.63616
▁V	-9.63675
▁نوشت	-9.63681
▁دارایی	-9.63813
▁اون	-9.6384
▁غذاهای	-9.63948
▁مسلمان	-9.63953
▁صاحب	-9.64043
9	-9.64082
▁روبرو	-9.64174
▁اولویت	-9.64176
▁د	-9.64237
▁مصنوعی	-9.64365
▁فرانسوی	-9.64365
▁قالب	-9.64367
کی	-9.6439
▁تأیید	-9.64553
▁آژانس	-9.64563
▁گذاران	-9.64705
▁سادگی	-9.64757
▁شهرهای	-9.6479
▁مجلس	-9.64956
▁محمد	-9.64965
▁سلام	-9.65108
▁دسامبر	-9.6515
▁معتبر	-9.6515
▁عصر	-9.65156
▁اخلاقی	-9.6537
▁عرض	-9.65383
▁دادم	-9.65465
▁قطعا	-9.6548
▁پرونده	-9.65547
ده	-9.65603
▁سنگین	-9.65617
▁تحصیلی	-9.65622
▁17	-9.65623
▁دهان	-9.65634
▁۹	-9.65639
ّ	-9.65699
▁۵۰	-9.65732
▁ایالت	-9.65742
▁سطوح	-9.65743
▁کتابخانه	-9.65768
▁جو	-9.65811
▁نقاشی	-9.65847
▁متخصصان	-9.65868
▁۱۸	-9.65913
▁ژانویه	-9.65941
▁چای	-9.6597
▁گذار	-9.66116
▁کشید	-9.66206
▁گذاشت	-9.66234
▁جوانان	-9.66306
7	-9.66308
▁مدتی	-9.66334
▁نشد	-9.66364
▁انگلیس	-9.66481
برای	-9.66547
۵	-9.66639
▁ایستگاه	-9.6674
▁باشگاه	-9.66747
▁۱۰۰	-9.66909
▁مقدس	-9.66939
۳	-9.66945
▁عمده	-9.66969
6	-9.66982
▁شریک	-9.67154
▁ع	-9.67158
▁موبایل	-9.67299
l	-9.67338
▁پاریس	-9.67344
دی	-9.6735
▁شنیده	-9.67382
▁ه	-9.67434
▁صدها	-9.67456
▁محکوم	-9.67523
▁شرقی	-9.67523
▁گویم	-9.67576
▁داروهای	-9.67581
f	-9.67686
▁ترافیک	-9.67745
▁مجله	-9.67745
▁مسابقه	-9.67745
▁اواخر	-9.6776
▁نشست	-9.67834
دار	-9.67844
!»	-9.67888
▁وسایل	-9.67947
▁سبب	-9.6795
▁نداریم	-9.67972
b	-9.68036
▁کارگر	-9.68225
▁طیف	-9.68305
▁رساند	-9.68326
▁نوامبر	-9.68353
▁مرز	-9.68385
▁نمایشگاه	-9.68405
▁اجرایی	-9.68482
▁برادر	-9.68485
▁بزنید	-9.68564
▁آرامش	-9.68571
▁شنبه	-9.68575
گاه	-9.68681
▁پل	-9.68697
▁پنجره	-9.68777
▁دختران	-9.68843
▁چی	-9.68885
دو	-9.68889
▁پیوند	-9.68916
▁ثروت	-9.68964
▁نظیر	-9.68969
▁مراجعه	-9.68998
▁جنگل	-9.69101
▁افتخار	-9.69109
اد	-9.69142
▁مرغ	-9.69167
▁اسپانیا	-9.69371
▁ژوئن	-9.69376
▁منظم	-9.69376
▁سریال	-9.69412
▁امضا	-9.69468
▁روان	-9.69564
▁خسته	-9.69582
▁پردازش	-9.69582
▁جلو	-9.69656
▁مجدد	-9.69723
▁خالی	-9.69725
▁الکترونیکی	-9.69763
▁یکسان	-9.69782
▁اثبات	-9.69788
▁جرم	-9.69824
▁تحقیقاتی	-9.69841
▁گناه	-9.69967
▁حکم	-9.69974
ة	-9.69994
▁اتصال	-9.70157
▁مخالف	-9.70228
▁بیست	-9.70333
سی	-9.70449
▁مجموع	-9.70503
▁دیدم	-9.70583
▁ظرفیت	-9.70633
▁درخت	-9.70663
an	-9.70693
▁60	-9.70743
▁دومین	-9.70858
▁مجازات	-9.70867
▁دانست	-9.70883
▁آمار	-9.70931
هر	-9.71109
▁مکمل	-9.71245
m	-9.71425
▁عدالت	-9.71449
▁حتما	-9.71463
▁مک	-9.71518
▁خورده	-9.71534
او	-9.71733
▁the	-9.71761
▁متعلق	-9.71873
▁بیانیه	-9.719
▁24	-9.71939
▁هرگونه	-9.71983
▁آفریقا	-9.72082
▁نادیده	-9.72085
▁عصبی	-9.72131
▁بافت	-9.72156
▁هوای	-9.72167
▁شناخت	-9.72198
▁ابتلا	-9.72296
▁دموکراسی	-9.72302
▁کمپانی	-9.7251
▁واژه	-9.72513
▁Google	-9.72517
▁سابقه	-9.72539
▁هنری	-9.72613
▁فرودگاه	-9.72725
▁سؤال	-9.72832
▁امتیاز	-9.72863
or	-9.72928
▁متولد	-9.72937
▁امیدوارم	-9.73035
آن	-9.73183
▁میز	-9.73191
k	-9.73284
▁تصویب	-9.73359
▁ورزشی	-9.7356
▁انگار	-9.73599
▁تعامل	-9.73756
▁صنایع	-9.73788
▁فیس	-9.73944
▁تعهد	-9.7395
▁وظایف	-9.74003
▁فرمود	-9.74008
▁اوباما	-9.74219
▁خواستار	-9.74247
▁ر	-9.74301
وا	-9.7438
▁کاربردی	-9.74467
▁معلم	-9.74571
▁بازیکن	-9.74596
▁غذای	-9.74662
▁and	-9.74713
▁قول	-9.74904
▁نزد	-9.74911
▁کمیته	-9.75121
▁مسلمانان	-9.75201
▁آزار	-9.7532
▁خروج	-9.75336
▁ج	-9.75339
▁نگاهی	-9.75347
▁هایش	-9.75367
X	-9.75369
▁دانشکده	-9.75524
▁بند	-9.75557
۴	-9.75729
▁موشک	-9.7574
▁عظیم	-9.75758
▁ورودی	-9.7596
▁19	-9.75985
▁X	-9.75996
▁مردی	-9.76007
نگ	-9.7617
▁صادرات	-9.76251
▁چندان	-9.76267
▁هستی	-9.764
▁تحویل	-9.764
▁یك	-9.76402
▁روانی	-9.76543
▁استراتژیک	-9.76602
▁خدای	-9.76603
▁مراکز	-9.76621
▁ریاست	-9.76625
▁نوزاد	-9.76647
8	-9.76738
▁باتری	-9.76779
en	-9.76822
▁غنی	-9.76844
▁2017	-9.76845
▁لطفا	-9.76872
یس	-9.76933
▁اختلاف	-9.77014
▁اعدام	-9.77064
▁نوشیدنی	-9.77069
▁گردید	-9.77154
▁جلب	-9.77263
▁مهمترین	-9.77269
▁بگوید	-9.77303
▁بینید	-9.77308
▁شرق	-9.77542
▁مشکلی	-9.77575
▁پاداش	-9.77782
▁بهشت	-9.77882
چه	-9.77886
▁تأمین	-9.77956
▁منطقی	-9.78039
▁پادشاه	-9.78076
▁مثلا	-9.78106
▁فردا	-9.78132
▁کفش	-9.78133
▁لو	-9.78171
▁سوء	-9.78183
▁نشود	-9.78415
▁چک	-9.78424
▁مسیح	-9.78444
لو	-9.78519
▁2015	-9.78552
▁محیطی	-9.78576
▁خارجه	-9.78592
▁تعادل	-9.7863
▁بالایی	-9.78631
▁کارگردان	-9.78634
▁ناحیه	-9.78639
▁کشیدن	-9.78664
▁ترکیبی	-9.78688
▁جامع	-9.78906
▁مت	-9.7894
▁نویسی	-9.7905
اند	-9.79164
V	-9.79285
▁برود	-9.79302
x	-9.79317
▁دائمی	-9.79337
▁قربانی	-9.79347
▁کارشناسان	-9.79367
▁کشوری	-9.79431
el	-9.79505
▁تحریک	-9.79536
▁خانوادگی	-9.79537
▁بماند	-9.79542
یه	-9.79713
▁ارتباطی	-9.79804
▁s	-9.79911
▁اخبار	-9.79998
▁کمپین	-9.80147
▁خوانده	-9.80177
▁نوآوری	-9.8028
▁سهم	-9.80427
▁صندلی	-9.8045
▁سهام	-9.8045
▁طالبان	-9.8046
▁2018	-9.80462
▁عربی	-9.80589
on	-9.80638
▁برداشت	-9.80723
▁دیابت	-9.80826
▁رایج	-9.80872
▁صرفه	-9.80908
▁کاخ	-9.80916
'	-9.8092
▁عوارض	-9.81141
▁لی	-9.81153
▁آیه	-9.8119
▁دیوار	-9.81239
▁تاسیس	-9.81352
▁ظهور	-9.81373
▁کودکی	-9.81395
▁منزل	-9.81445
سون	-9.81523
▁بدی	-9.8155
▁چرخه	-9.81566
▁دعا	-9.81693
▁وضع	-9.81819
▁فدرال	-9.81837
▁حساس	-9.81838
▁متفاوتی	-9.81983
▁مدرک	-9.82015
کس	-9.82062
▁انعطاف	-9.8207
▁خواستم	-9.82231
".	-9.82329
▁بزرگسالان	-9.8234
▁کشیده	-9.82739
▁تعطیلات	-9.82796
▁لایه	-9.8281
▁ژن	-9.83008
ض	-9.8303
▁۱۳	-9.83072
▁چیزها	-9.83128
▁اتحاد	-9.8324
▁لبخند	-9.83244
▁ویندوز	-9.83244
▁نبرد	-9.83293
▁مجاز	-9.83489
▁جانبی	-9.83611
▁حادثه	-9.83717
▁کوین	-9.83775
▁امکانات	-9.8378
▁رویداد	-9.83832
▁ش	-9.83842
▁فرو	-9.83892
u	-9.83899
▁وام	-9.84
▁دریا	-9.84118
▁حقوقی	-9.84132
چ	-9.84189
▁مقررات	-9.84212
▁رییس	-9.84435
▁بگیریم	-9.84455
▁گیر	-9.84506
h	-9.84646
▁داشتیم	-9.84749
▁ابزارهای	-9.84833
ic	-9.849
▁نقض	-9.84911
▁سو	-9.85068
▁اصطلاح	-9.85073
▁آسیا	-9.85084
th	-9.85194
com	-9.8532
▁هدیه	-9.85393
▁الهام	-9.85396
▁راضی	-9.85409
▁میتواند	-9.85413
▁کاربری	-9.85454
▁نیستم	-9.85455
▁شاه	-9.85473
▁مطالب	-9.85532
نده	-9.85636
▁روزه	-9.85642
▁وجه	-9.85732
▁تعجب	-9.85801
▁خواهان	-9.86061
▁نظرات	-9.86066
هم	-9.86116
٬	-9.86116
▁داعش	-9.86124
کو	-9.86197
▁مطابق	-9.86297
z	-9.86441
▁تروریستی	-9.86506
▁راهنمایی	-9.86607
▁خطوط	-9.86609
▁احتمالی	-9.86676
ين	-9.86705
▁برگزاری	-9.86733
▁ارز	-9.86812
▁سرانجام	-9.86855
▁شوروی	-9.86856
re	-9.86862
▁انقلابی	-9.8698
▁لا	-9.87041
▁استراحت	-9.87084
▁ضعف	-9.87341
▁شاخص	-9.87343
بار	-9.87352
▁زنی	-9.8744
▁فرمان	-9.87479
▁اضطراب	-9.87589
▁گرچه	-9.87595
بل	-9.87678
▁شرایطی	-9.87688
گو	-9.87795
»،	-9.8781
▁خورشیدی	-9.88008
ُ	-9.88034
▁خلاف	-9.88059
▁سیگنال	-9.88082
▁کنگره	-9.88084
▁2016	-9.88093
▁كند	-9.88151
▁پذیرفته	-9.88152
▁آمدن	-9.88161
▁کوچکی	-9.88194
▁تردید	-9.88263
▁نفع	-9.88335
▁بگذارد	-9.88341
▁سرور	-9.88576
▁تشکر	-9.88589
▁J	-9.88594
▁بمب	-9.886
▁اندکی	-9.88716
▁رفع	-9.88832
▁نماینده	-9.88918
▁گفتگو	-9.88939
▁کالج	-9.89081
▁کو	-9.89117
▁قضاوت	-9.89331
▁ماموریت	-9.89336
▁نمایندگان	-9.89341
▁آیت	-9.8937
وم	-9.89401
نو	-9.89527
▁خبری	-9.89575
اری	-9.89611
▁گربه	-9.8962
U	-9.89706
▁محاسبه	-9.89832
▁عکاسی	-9.89833
▁باد	-9.89851
▁اخیرا	-9.89914
▁تکامل	-9.89994
▁صادق	-9.90076
▁معتقدند	-9.90149
▁انتقاد	-9.90292
▁متهم	-9.90313
▁نیستید	-9.90463
▁تازگی	-9.90596
▁ممنوع	-9.9066
▁رقم	-9.9076
▁گمان	-9.90766
نت	-9.90778
▁مخفی	-9.90826
▁مقیاس	-9.90846
▁مخدر	-9.90851
▁تخم	-9.91022
▁جداگانه	-9.91101
▁وقوع	-9.91104
▁موج	-9.91318
▁رسانی	-9.91328
▁ظرف	-9.91338
▁سرنوشت	-9.91359
▁فلسفه	-9.91375
▁مناسبی	-9.91416
▁شیطان	-9.91541
▁تفسیر	-9.91617
▁دمای	-9.91685
▁آنقدر	-9.91713
ث	-9.91969
▁پیروی	-9.92023
▁علامت	-9.92135
▁هرچه	-9.9219
▁ثروتمند	-9.92342
▁اقیانوس	-9.92379
▁اتومبیل	-9.92386
▁مقالات	-9.92391
▁ذهنی	-9.92429
▁دامنه	-9.9257
▁اپلیکیشن	-9.92645
▁یورو	-9.92691
▁ماندن	-9.9275
▁جلوی	-9.92774
ینگ	-9.92781
▁کیلومتر	-9.9284
▁ثبات	-9.92842
▁آزمایشگاه	-9.92861
▁شادی	-9.9293
▁مبلغ	-9.92967
▁اکثریت	-9.92969
▁موقت	-9.93111
▁دستگیر	-9.9333
▁تنوع	-9.93431
▁میل	-9.93585
▁روزها	-9.93641
▁بدهی	-9.93821
▁اوکراین	-9.93951
▁مراقب	-9.93954
▁مرده	-9.93965
▁مجازی	-9.94157
▁ص	-9.94201
▁دهی	-9.94292
▁آلودگی	-9.94479
▁لغو	-9.94485
▁كار	-9.94626
▁تی	-9.94764
▁نکرد	-9.94784
▁نهاد	-9.9482
▁بینیم	-9.94926
▁جلسات	-9.95008
▁متنوع	-9.95021
يد	-9.9503
▁یابند	-9.95137
▁دادیم	-9.95184
▁بالاخره	-9.95273
▁تزریق	-9.95273
▁مشاور	-9.9528
▁پدرش	-9.95383
▁تخصص	-9.95493
▁خودکار	-9.95515
▁باکتری	-9.95536
▁نویسندگان	-9.95543
▁بیاید	-9.9559
سر	-9.95593
▁گویی	-9.95807
▁شکایت	-9.95811
▁بیایید	-9.95812
▁سازنده	-9.95853
▁زودتر	-9.95891
▁مرتب	-9.95896
▁زا	-9.96067
▁الکل	-9.96131
▁تبلیغاتی	-9.96157
▁خواهی	-9.9629
▁اوست	-9.96354
▁خواند	-9.96376
10	-9.96418
▁یادآوری	-9.96486
▁اینترنتی	-9.96521
ره	-9.96582
▁تأکید	-9.96614
▁رعایت	-9.96614
▁متعهد	-9.96614
۶	-9.9662
▁شرح	-9.96625
▁فوری	-9.96712
▁باردار	-9.96784
▁محدوده	-9.9684
▁احتیاج	-9.96884
▁نخواهند	-9.96885
عنوان	-9.97015
▁میدهد	-9.97087
▁نقد	-9.97116
▁ساحل	-9.97122
▁برج	-9.97161
▁بخواهد	-9.97162
▁بدهند	-9.97196
▁رایانه	-9.97206
فر	-9.97219
▁استخوان	-9.97307
▁۱۱	-9.97319
▁کنونی	-9.97418
▁اسناد	-9.97427
آ	-9.97511
▁درگیری	-9.97596
▁راجع	-9.977
۰۰۰	-9.97747
▁استان	-9.97795
▁فرصتی	-9.97817
▁سیم	-9.97832
▁تئوری	-9.97924
▁ایمن	-9.97934
▁جنگی	-9.97943
▁جوامع	-9.97975
▁تماشای	-9.97987
▁بانکی	-9.981
▁همگی	-9.98243
▁کاربرد	-9.98278
▁ناراحت	-9.98305
▁تحصیلات	-9.98311
▁۴۰	-9.98374
▁بس	-9.98427
▁ف	-9.98433
▁طرز	-9.98523
▁اتفاقات	-9.98561
▁بدانند	-9.98618
ra	-9.98622
▁سینه	-9.98715
اف	-9.98773
▁حلقه	-9.98821
▁ارزشمند	-9.98841
▁الکتریکی	-9.98852
▁ببینند	-9.99086
▁بهینه	-9.99168
▁آنتی	-9.99275
▁ماهواره	-9.9936
▁ات	-9.99372
▁قطعه	-9.99393
▁یخ	-9.99413
▁فقر	-9.99487
▁استانداردهای	-9.99509
▁مه	-9.99531
▁حیاتی	-9.99568
ro	-9.99611
▁ندهید	-9.99629
زی	-9.99666
▁معادل	-9.99897
▁ضربه	-10.0002
▁آموز	-10.0006
▁حین	-10.0024
▁جی	-10.0026
▁اتخاذ	-10.0047
▁جعبه	-10.0047
▁تحقق	-10.0047
▁نوشیدن	-10.0055
▁موهای	-10.0058
▁زنند	-10.0061
▁گشت	-10.0069
▁بپرسید	-10.0075
▁صندوق	-10.0075
▁#	-10.0078
▁مال	-10.0079
▁اشتباهات	-10.0079
▁زندانی	-10.0087
▁سرخ	-10.0088
▁گرد	-10.0096
▁روزمره	-10.0103
▁متاسفانه	-10.0103
▁عموم	-10.0111
▁توانستند	-10.0115
روز	-10.0121
ط	-10.0125
▁عنصر	-10.0131
▁استدلال	-10.0131
▁ناپذیر	-10.0133
▁توی	-10.0133
▁گو	-10.014
▁مهر	-10.0143
▁زنجیره	-10.0143
▁بدترین	-10.0149
ri	-10.0154
▁غیره	-10.016
▁ببرد	-10.0163
▁اف	-10.0169
▁فیلتر	-10.0175
▁۱۴	-10.0181
ur	-10.0183
▁سفارش	-10.0185
▁ندرت	-10.0188
پا	-10.0208
▁اشکال	-10.0209
▁زوج	-10.0213
▁دیر	-10.0214
▁تروریسم	-10.0217
▁امیدوار	-10.0217
▁رودخانه	-10.0218
▁آر	-10.0219
▁گرفتم	-10.0228
▁سند	-10.0243
▁شعر	-10.0245
▁U	-10.0252
▁جمعه	-10.0266
▁ببیند	-10.0275
▁سکوت	-10.0275
▁آلوده	-10.0276
▁ببینیم	-10.0276
کر	-10.0277
▁توانستم	-10.0279
▁آوریل	-10.0283
▁شدیم	-10.0291
ء	-10.0294
▁انگشت	-10.0298
▁روم	-10.0298
▁تصمیمات	-10.0302
▁کمیسیون	-10.0303
▁ابراز	-10.0304
▁مخاطبان	-10.031
▁تبلیغ	-10.0328
▁وبسایت	-10.0331
▁خراب	-10.0333
▁کنون	-10.0338
▁آ	-10.0338
▁پیشگیری	-10.0338
▁هنرمند	-10.0353
▁اراده	-10.036
▁مالکیت	-10.0361
▁نشسته	-10.0369
▁آمریکای	-10.0371
es	-10.0379
▁شرط	-10.0388
▁مخصوص	-10.0394
ol	-10.0404
▁ضبط	-10.0418
▁جشنواره	-10.0418
▁سربازان	-10.0428
it	-10.0438
▁برقراری	-10.0438
▁فرق	-10.044
▁فوریه	-10.0444
▁دستورالعمل	-10.0447
▁فقیر	-10.0447
▁تماشا	-10.0473
▁پایتخت	-10.0477
▁سرکوب	-10.0478
▁خشم	-10.0479
0	-10.0489
▁شکر	-10.0495
▁آمدند	-10.0504
▁لوله	-10.0506
▁هورمون	-10.0509
اک	-10.0509
▁رمان	-10.0521
at	-10.0531
▁یهودی	-10.054
▁سایه	-10.0541
▁یهودیان	-10.0546
▁گذارند	-10.0546
▁زمینی	-10.0554
▁آورید	-10.0557
▁کاغذ	-10.0563
et	-10.0567
▁زمستان	-10.0568
▁۱۹	-10.057
▁هاي	-10.0572
▁پ	-10.0573
▁پیشین	-10.0574
▁توده	-10.0575
▁کارمند	-10.0582
▁درمورد	-10.0583
▁معلوم	-10.0587
▁خنده	-10.0596
▁نکند	-10.0598
▁شناختی	-10.0601
وف	-10.0604
▁حسابداری	-10.0609
▁دشمنان	-10.0618
▁بخشد	-10.0623
▁اسب	-10.0624
▁السلام	-10.0624
▁21	-10.0624
▁ویزای	-10.0632
▁خودکشی	-10.0633
▁شکلی	-10.0636
▁90	-10.0638
▁c	-10.0639
▁مواردی	-10.0652
▁توقف	-10.0654
▁مسابقات	-10.0654
▁هیئت	-10.0654
▁کابل	-10.0655
▁تخمین	-10.0661
ar	-10.0669
▁پرسید	-10.0671
▁گم	-10.0674
▁صفر	-10.0684
▁اجاره	-10.0684
▁قطار	-10.0684
▁موجودات	-10.069
▁گذاشتن	-10.0692
is	-10.0693
▁پولی	-10.07
مه	-10.0704
▁مقصد	-10.0714
▁محکم	-10.0717
▁سرگرم	-10.0719
▁پیگیری	-10.0722
▁بیند	-10.0722
▁+	-10.0724
▁اختراع	-10.0738
▁بو	-10.0739
▁حقیقی	-10.0744
▁اتوبوس	-10.0744
▁قند	-10.0754
▁روشی	-10.0755
▁خطرات	-10.0763
▁مربی	-10.0764
▁راهنمای	-10.0772
▁اعتراض	-10.0775
▁گریه	-10.0789
▁مؤثر	-10.0792
▁خاطرات	-10.0792
▁رفتارهای	-10.0799
▁۲۵	-10.0804
▁سراغ	-10.0805
▁عرب	-10.0816
▁حسین	-10.0821
سال	-10.0821
▁ح	-10.0831
▁ارتفاع	-10.0834
▁شکنجه	-10.0834
▁دلاری	-10.0848
▁تجدید	-10.0864
▁مشاغل	-10.0865
جی	-10.087
▁جمعی	-10.0879
▁حالیکه	-10.0882
▁بایست	-10.0883
▁تقاضای	-10.0885
▁اوضاع	-10.0895
▁عالم	-10.0896
یست	-10.0896
▁کپی	-10.0904
▁خواستند	-10.091
▁وکار	-10.0915
▁توپ	-10.0922
▁استخراج	-10.0926
▁مرور	-10.0931
▁مهاجران	-10.0936
▁اتمی	-10.0952
ذ	-10.0954
▁کالری	-10.0957
▁فلسطین	-10.0963
▁آنجایی	-10.0975
▁راستی	-10.0977
▁خودت	-10.0981
▁2012	-10.0989
▁خام	-10.0992
▁کلاسیک	-10.0996
▁احساسی	-10.0997
▁گیاهان	-10.0998
غ	-10.1
کن	-10.1013
▁لبنان	-10.1017
▁آمادگی	-10.1018
▁نباشید	-10.1018
▁شبه	-10.1024
▁نسبتا	-10.1029
▁یمن	-10.1038
▁تخت	-10.1038
▁in	-10.1046
▁بخاطر	-10.1049
▁برخلاف	-10.1049
▁همدیگر	-10.1055
فت	-10.1068
▁بازارهای	-10.1069
▁قطعات	-10.1077
▁[+]	-10.108
▁تور	-10.108
▁بگوییم	-10.1082
▁گردن	-10.1087
▁پدیده	-10.1095
کل	-10.1109
▁درحال	-10.1109
▁عقیده	-10.1111
▁درحالی	-10.1113
▁دیگه	-10.1117
▁تجاوز	-10.1143
▁بکشد	-10.1143
▁جویی	-10.1164
▁اینگونه	-10.1165
▁موافقت	-10.1179
▁مشابهی	-10.1186
▁میزبان	-10.1196
▁مارک	-10.1196
▁دکمه	-10.1205
▁نقص	-10.1205
▁مدنی	-10.1208
▁نادر	-10.1209
▁نوجوانان	-10.1214
▁80	-10.1229
▁بکار	-10.1234
▁ژاپنی	-10.1237
▁ضرورت	-10.1237
▁تخریب	-10.1237
▁دوچرخه	-10.1237
▁گیرید	-10.1239
▁تخصصی	-10.1242
▁شاد	-10.1246
▁پیر	-10.1248
▁مسکو	-10.1253
▁قهرمان	-10.1259
▁رفتم	-10.1263
▁تصویری	-10.1265
▁شفاف	-10.1268
▁بینند	-10.1268
▁Re	-10.1269
▁راز	-10.127
▁تجربیات	-10.127
▁؛	-10.1273
▁کوچکتر	-10.1275
▁هماهنگی	-10.1279
سا	-10.129
▁تقاضا	-10.1297
▁خلاقیت	-10.1302
▁رغم	-10.1306
▁مخالفت	-10.1315
▁کاش	-10.1324
▁كرد	-10.1327
▁کربن	-10.1327
▁آلبوم	-10.1332
▁عقل	-10.1332
▁بخورید	-10.1333
▁خاموش	-10.1333
▁پنجم	-10.134
▁ایفا	-10.1341
▁زرد	-10.1344
▁فوت	-10.1363
▁گیاه	-10.1364
▁اشخاص	-10.1364
▁همسایه	-10.1365
▁یونان	-10.1379
▁2014	-10.1388
▁کلیه	-10.1397
▁دموکراتیک	-10.1398
▁طلاق	-10.1399
▁ضمن	-10.1401
▁باشه	-10.1409
▁اصلاحات	-10.1409
▁مغزی	-10.1424
▁دریاچه	-10.1429
▁نکات	-10.1438
▁معاملات	-10.144
▁قرص	-10.1461
▁موسسات	-10.1461
▁بزند	-10.1464
▁آنهایی	-10.1479
▁مبنی	-10.1493
▁فساد	-10.1493
▁خواهر	-10.1502
▁سینما	-10.1505
▁وسیع	-10.1505
▁موتورهای	-10.1516
▁روحانی	-10.1524
▁a	-10.1524
▁عاطفی	-10.1525
▁باستان	-10.1526
▁طرفداران	-10.1533
▁نداشتند	-10.1538
▁مرزهای	-10.1548
▁میلی	-10.1554
▁همکاران	-10.1555
▁بهار	-10.1555
▁حوادث	-10.1558
▁وضوح	-10.1558
▁انکار	-10.1562
▁ناگهان	-10.1571
▁نژاد	-10.1579
▁یادداشت	-10.1594
am	-10.1596
▁|	-10.16
▁تروریست	-10.1605
۷	-10.1621
▁میانگین	-10.1624
▁راننده	-10.1625
▁پرنده	-10.1629
▁دقیقاً	-10.1629
▁خب	-10.1632
▁ناگهانی	-10.1643
▁تاریک	-10.1648
▁مسلح	-10.1655
▁فاجعه	-10.1656
▁اتمام	-10.1657
دا	-10.1661
▁رفتند	-10.1663
▁باران	-10.1664
▁اشغال	-10.1672
▁۱۶	-10.1675
پس	-10.1676
▁آنرا	-10.1679
▁ناپدید	-10.1689
▁برطرف	-10.1694
▁۶۰	-10.1697
▁برزیل	-10.1703
▁تلویزیونی	-10.1708
▁کر	-10.1708
▁آپارتمان	-10.1722
▁مداخله	-10.1722
▁لذا	-10.1722
st	-10.1729
▁گردند	-10.1733
پر	-10.1738
▁کلیسا	-10.1744
▁محور	-10.1748
نامه	-10.175
▁سازمانی	-10.1756
▁سرباز	-10.1761
▁لمس	-10.1771
مین	-10.1786
▁چارچوب	-10.1789
▁پارلمان	-10.1789
▁معناست	-10.1792
▁شام	-10.1798
▁سخنان	-10.1799
▁آفتاب	-10.1805
▁دوستی	-10.1806
J	-10.1808
▁عزیز	-10.1817
▁بوی	-10.182
▁تسلیم	-10.1824
▁بتوانیم	-10.1825
▁بازیگر	-10.1828
▁>	-10.1832
نس	-10.1846
▁فیسبوک	-10.1856
▁لزوم	-10.1865
ْ	-10.1866
▁مدارک	-10.1868
▁اعتباری	-10.1875
▁شر	-10.1877
وری	-10.189
▁عده	-10.1891
▁داروها	-10.1897
▁موش	-10.1897
وت	-10.1905
دل	-10.1908
▁تمرینات	-10.1908
▁همسرش	-10.1911
▁جام	-10.1919
▁شی	-10.1927
▁الگوی	-10.1928
▁ویدئو	-10.193
▁مادرش	-10.1931
▁داره	-10.1934
▁گواهی	-10.1937
▁رده	-10.1937
▁گردشگری	-10.1938
رت	-10.1939
▁یاری	-10.1956
▁مزیت	-10.1958
▁نظم	-10.1958
▁سیب	-10.1959
▁مبنای	-10.1965
▁فرستاده	-10.1967
ch	-10.197
▁شوهر	-10.1979
w	-10.1987
▁زخم	-10.1998
li	-10.2
▁بلوک	-10.2002
▁برگشت	-10.2005
▁آسانی	-10.2011
▁حاکم	-10.2016
▁اشتغال	-10.2026
▁2019	-10.2026
▁جفت	-10.2027
▁&	-10.2032
▁بدانیم	-10.2032
▁چشمگیر	-10.2032
▁ابتدایی	-10.2037
▁صوتی	-10.2045
▁رحم	-10.2047
▁سرگرمی	-10.2054
▁تحول	-10.2059
▁سوار	-10.2059
▁میراث	-10.206
▁ببرند	-10.2061
▁چراغ	-10.2066
ly	-10.207
▁قربانیان	-10.2073
▁شارژ	-10.2079
▁گرا	-10.2083
▁دلیلی	-10.2087
▁خلاق	-10.2091
▁الگوریتم	-10.2094
▁خلیج	-10.2094
▁امریکایی	-10.2097
شما	-10.21
▁میتوانید	-10.2103
▁Z	-10.2106
▁تنش	-10.2111
پی	-10.2118
▁زنگ	-10.2119
▁مستند	-10.2126
▁عذاب	-10.2128
▁2013	-10.2129
▁خرج	-10.213
▁متعدد	-10.2141
▁آیات	-10.2157
▁آنگاه	-10.2157
▁ونزوئلا	-10.2163
▁اسلحه	-10.2163
▁پروتکل	-10.2163
▁متعددی	-10.2185
▁دم	-10.2192
▁عرصه	-10.2198
▁۱۷	-10.22
▁ویدیو	-10.2204
ion	-10.2208
▁استعداد	-10.2215
▁برآورده	-10.2222
▁مفاهیم	-10.2233
▁مقادیر	-10.2233
▁دخالت	-10.2233
▁واسطه	-10.2237
▁نداده	-10.2242
▁هنرمندان	-10.2243
▁فهم	-10.225
▁اخراج	-10.2268
▁انفجار	-10.2268
Y	-10.2272
▁طعم	-10.2272
▁مادرم	-10.2292
▁اجباری	-10.2292
جا	-10.2299
▁ادغام	-10.2303
▁اکسیژن	-10.2303
▁سوگند	-10.2303
▁انتظارات	-10.2311
▁رمز	-10.2311
▁پیروز	-10.2315
▁معلمان	-10.2316
▁کلیسای	-10.2322
مون	-10.2325
▁دانستم	-10.2327
▁پیمان	-10.2334
▁f	-10.2335
▁استقبال	-10.2338
▁تدریس	-10.2338
▁تظاهرات	-10.2339
um	-10.2342
▁کوتاهی	-10.2346
▁صاحبان	-10.2352
▁تنظیمات	-10.2353
▁افسانه	-10.2373
▁حریم	-10.2374
▁پرتاب	-10.2374
▁شیرین	-10.2378
▁مهمان	-10.2384
▁قبلاً	-10.2395
فی	-10.2401
▁مخصوصا	-10.2402
▁دینی	-10.2405
▁فریاد	-10.2409
▁مدار	-10.2412
▁طلب	-10.2414
▁فکری	-10.2419
۱۹	-10.2421
یسم	-10.2428
▁دانستن	-10.2435
▁کلام	-10.2441
▁برساند	-10.2444
▁غیرقابل	-10.2445
▁التحصیلان	-10.245
▁گری	-10.2451
▁سازند	-10.2456
▁دلم	-10.2467
روی	-10.2472
▁ابر	-10.2477
وب	-10.2479
▁برسند	-10.248
▁رسیدگی	-10.2485
▁رنگی	-10.2486
▁بومی	-10.2492
▁IP	-10.2494
▁کف	-10.2494
دان	-10.2502
▁ق	-10.251
▁رادیو	-10.2511
▁ابعاد	-10.2516
▁دانشگاهی	-10.2518
▁بالاترین	-10.2519
▁باشی	-10.2521
▁اندیشه	-10.2522
▁پدرم	-10.2527
▁فلسطینی	-10.2532
▁روایت	-10.2542
▁مالک	-10.2549
▁شهادت	-10.2552
▁شنیدن	-10.2552
▁وکیل	-10.2553
▁توییتر	-10.2555
▁فراوانی	-10.2556
▁ایستاده	-10.2556
▁۲۴	-10.2558
▁خ	-10.2561
▁22	-10.2565
▁روسی	-10.257
له	-10.2572
▁وسیعی	-10.2574
▁هماهنگ	-10.2577
▁ناراحتی	-10.2581
▁عمق	-10.2589
ma	-10.2591
▁1-	-10.2594
id	-10.2604
▁بال	-10.2605
▁اخلاق	-10.2613
il	-10.2617
▁چشمان	-10.262
▁تعلق	-10.2624
▁نخواهید	-10.2625
▁ژنتیکی	-10.2625
▁درونی	-10.2625
▁فهمید	-10.2635
▁بازیگران	-10.2643
▁میکنم	-10.2648
▁سالهای	-10.2658
▁مرتکب	-10.266
▁کالیفرنیا	-10.266
▁عضلات	-10.2661
▁شهرت	-10.2667
▁کیف	-10.267
▁ملک	-10.2679
▁نیستیم	-10.2681
to	-10.2684
▁شهرها	-10.2688
کا	-10.2694
▁فزاینده	-10.2697
▁داغ	-10.2697
▁نادرست	-10.2701
▁70	-10.2702
▁دانه	-10.2703
▁مثلاً	-10.2714
▁آقا	-10.2715
اما	-10.2721
▁ایتالیایی	-10.2735
جو	-10.2741
▁سان	-10.2758
▁فی	-10.2766
▁سرقت	-10.277
▁بسازید	-10.2771
▁بصورت	-10.2771
▁پوند	-10.2773
دن	-10.278
▁جانب	-10.2781
▁ستون	-10.2785
▁مکانی	-10.2787
20	-10.2791
▁سازگار	-10.2797
▁سالن	-10.2801
▁ربات	-10.2806
▁غیرقانونی	-10.2807
▁نظرسنجی	-10.2808
▁اوج	-10.2814
▁ماهه	-10.2818
▁دفاعی	-10.2819
▁منطق	-10.282
گیری	-10.2827
▁بده	-10.2868
يت	-10.2873
▁افزوده	-10.2874
اش	-10.2875
▁غلط	-10.2879
▁رسند	-10.2883
▁شبانه	-10.2892
*	-10.2907
▁مکزیک	-10.2909
▁بروند	-10.2916
▁طلایی	-10.2916
▁۲۰۱۵	-10.2919
▁نیرو	-10.2919
▁قایق	-10.292
as	-10.2929
▁برداشته	-10.2929
▁مسیحی	-10.2932
▁عبارتند	-10.2935
▁گوناگون	-10.2946
▁جزو	-10.2949
▁سئو	-10.2955
▁یکپارچه	-10.2959
▁بشری	-10.2959
۸	-10.2972
▁غم	-10.2984
▁دریای	-10.299
▁آشپزخانه	-10.2994
▁خالص	-10.2994
▁ببینم	-10.3
▁مواقع	-10.3001
سن	-10.3002
▁بنیاد	-10.3007
مانند	-10.3022
▁فیزیک	-10.3023
▁مقداری	-10.3025
▁جنایت	-10.3027
▁گ	-10.3029
▁مسدود	-10.3032
▁حرکات	-10.3032
▁محبت	-10.3033
▁توانسته	-10.3046
▁دام	-10.3048
▁سوئد	-10.306
▁2-	-10.3066
فا	-10.3068
▁الی	-10.307
▁ماجرا	-10.3079
la	-10.3082
▁جنس	-10.3083
▁زندانیان	-10.3086
▁رقص	-10.3093
▁گرما	-10.3097
▁چ	-10.3098
▁محروم	-10.3106
▁شایسته	-10.3108
▁سازماندهی	-10.3109
▁بگذارند	-10.3109
▁کشی	-10.3112
▁سایبری	-10.3114
شی	-10.312
▁طراحان	-10.3121
▁كنند	-10.313
▁بابت	-10.3139
▁بعدها	-10.3145
▁تکه	-10.3161
▁ابتدای	-10.3174
▁بگو	-10.3183
▁قضیه	-10.3184
▁2011	-10.3185
▁لاتین	-10.3185
▁نکنند	-10.3187
▁تعهدات	-10.3194
ia	-10.3195
+	-10.3207
▁بینم	-10.3211
بین	-10.3214
▁مضر	-10.3223
▁اصلاً	-10.3227
▁گردش	-10.3227
▁ریاضی	-10.3235
▁طراح	-10.3238
▁خرد	-10.3239
▁خودداری	-10.3246
ul	-10.325
▁مردمی	-10.3252
▁راستا	-10.3255
▁هلند	-10.3257
ژ	-10.3262
▁آشنایی	-10.3264
▁دراز	-10.327
وقت	-10.327
▁پرچم	-10.328
▁درب	-10.3281
▁روانشناسی	-10.3282
▁محض	-10.3285
▁برایش	-10.3294
▁بایستی	-10.3298
▁معدنی	-10.3299
▁سرتاسر	-10.33
▁زایمان	-10.33
▁آیفون	-10.33
▁ضرر	-10.3303
▁کوبا	-10.3317
_	-10.3317
▁فرود	-10.3325
▁آفریقای	-10.3326
▁هایتان	-10.3336
▁گی	-10.3339
▁شیشه	-10.3339
داری	-10.3344
ad	-10.3353
▁کامپیوتری	-10.3359
▁بدهیم	-10.3362
▁نی	-10.3366
▁کنه	-10.3372
▁ارمغان	-10.3378
▁جبران	-10.3379
▁کانادایی	-10.3381
▁روبه	-10.3382
▁کور	-10.3384
▁۸۰	-10.3388
▁حیوان	-10.3388
▁200	-10.3389
lo	-10.3402
▁شهروند	-10.3404
▁قائل	-10.3417
▁میشه	-10.3417
▁خوشبختانه	-10.3417
▁پاپ	-10.3431
▁معنوی	-10.345
▁مطلق	-10.345
▁فریب	-10.3451
▁سنی	-10.3453
▁معاصر	-10.3456
▁اسپانیایی	-10.3458
▁جنین	-10.3461
▁ویزا	-10.3467
▁نماد	-10.3468
▁پیوسته	-10.3471
▁جغرافیایی	-10.3474
▁درختان	-10.3474
▁سریعتر	-10.3476
▁رفتاری	-10.3479
▁دارویی	-10.3484
ئو	-10.3489
▁جور	-10.3491
يم	-10.3495
▁مجهز	-10.3496
▁متقاعد	-10.3496
▁نعمت	-10.3497
▁عسل	-10.3497
▁کهکشان	-10.3497
▁نصف	-10.3497
▁جدایی	-10.3499
▁ندیده	-10.35
▁اسید	-10.3507
co	-10.3519
▁شنا	-10.353
▁ادرار	-10.3536
▁دوشنبه	-10.3537
▁آرزو	-10.3538
سازی	-10.3544
▁کمونیست	-10.3545
▁دستمزد	-10.3546
▁تصادفی	-10.355
▁خطا	-10.3551
▁دائم	-10.3564
▁گوشه	-10.3567
▁فراوان	-10.3571
▁بوجود	-10.3576
▁to	-10.3578
▁500	-10.3579
▁يک	-10.3585
▁جوش	-10.3589
▁چوب	-10.3599
▁رم	-10.3603
▁سوئیس	-10.361
▁افتتاح	-10.3615
▁تمدن	-10.3616
▁غلبه	-10.3616
▁ادبیات	-10.3617
▁امّا	-10.3618
▁بروم	-10.3618
▁عملیاتی	-10.362
▁پرده	-10.3622
أ	-10.3629
▁گرایی	-10.363
v	-10.363
وز	-10.3632
▁بدهم	-10.3633
▁تب	-10.3642
▁ناتو	-10.3647
▁نبودند	-10.3647
▁سومین	-10.3648
▁میباشد	-10.3649
▁تایلند	-10.3651
▁بگویند	-10.3656
▁نویسد	-10.366
▁مشکلاتی	-10.3688
▁رأی	-10.3696
▁مایکروسافت	-10.3696
▁مسجد	-10.3696
▁بنویسید	-10.3696
):	-10.3707
▁برایم	-10.3708
▁مسافران	-10.3711
▁کیست	-10.3711
▁حدی	-10.3724
▁m	-10.3728
▁مغازه	-10.3736
▁2008	-10.3737
▁فرماید	-10.3737
▁هی	-10.375
▁سپری	-10.375
▁برآورد	-10.3752
آیا	-10.3758
▁فر	-10.3762
▁تبادل	-10.3777
▁گرسنگی	-10.3781
▁شایع	-10.3793
مر	-10.3805
▁ساکن	-10.3809
▁ماهیت	-10.3815
▁ل	-10.3815
▁انتهای	-10.3815
▁قوم	-10.3826
▁شکسته	-10.3831
چی	-10.384
▁رویدادهای	-10.3841
▁زیرساخت	-10.3858
▁خیانت	-10.3859
▁ارتقاء	-10.3859
▁جاذبه	-10.3859
▁بخصوص	-10.386
▁اسباب	-10.386
▁عصبانی	-10.3869
▁هواپیمای	-10.3876
▁فا	-10.3888
000	-10.3894
▁خواه	-10.3897
▁دونالد	-10.3901
▁2010	-10.3902
▁فرمول	-10.3907
▁پلی	-10.3913
▁فرزندتان	-10.3915
خانه	-10.3916
▁مخاطب	-10.3925
▁یکبار	-10.3929
▁برادران	-10.3929
▁سیر	-10.3934
زا	-10.3942
▁ابراهیم	-10.3942
▁ائتلاف	-10.3942
▁پردازد	-10.3943
▁دیوید	-10.3943
▁فروخته	-10.3949
▁اداری	-10.3953
▁ویدئویی	-10.3963
ضعیف	-10.3969
▁موضوعی	-10.3974
▁خروجی	-10.3978
▁تعمیر	-10.3978
▁بیفتد	-10.3983
▁بیاورید	-10.3983
▁مسافرت	-10.3989
▁نویس	-10.3994
▁تیر	-10.4001
▁28	-10.4011
ir	-10.4013
▁رفاه	-10.4022
▁جولای	-10.4024
▁مدعی	-10.4024
▁لیزر	-10.4027
▁صبحانه	-10.403
▁مالیاتی	-10.4036
▁نوزادان	-10.4053
▁شهید	-10.4054
▁b	-10.4058
▁خوراکی	-10.4065
▁حرارت	-10.4065
▁زلزله	-10.4066
▁سبزیجات	-10.4066
▁مغذی	-10.4066
▁قاره	-10.4068
▁حمام	-10.4068
▁نهادهای	-10.4069
▁حساسیت	-10.407
▁پرو	-10.408
▁موافق	-10.4082
30	-10.4087
▁تکان	-10.4094
۹	-10.4101
▁اسکن	-10.4104
▁اعتصاب	-10.4108
▁سقف	-10.4108
▁خواص	-10.4108
▁وحشت	-10.4114
▁تاخیر	-10.4116
▁لیبی	-10.4121
▁شکاف	-10.4122
▁مسافر	-10.4125
▁مرورگر	-10.4132
▁وری	-10.4134
–	-10.4136
رد	-10.4139
▁واردات	-10.4145
اتی	-10.4147
▁مربوطه	-10.4148
▁موانع	-10.415
▁ژوئیه	-10.4151
▁خونریزی	-10.4151
▁Y	-10.4153
▁پژوهشگران	-10.4154
▁رساندن	-10.4159
50	-10.4159
pe	-10.4161
اجد	-10.4162
▁p	-10.417
▁جسمی	-10.4171
▁بداند	-10.4173
▁کشت	-10.4187
▁آمازون	-10.4193
▁حاکمیت	-10.4195
▁لب	-10.4198
▁پروردگار	-10.4201
▁ساکنان	-10.4201
▁خونی	-10.4202
▁In	-10.4207
▁رسمیت	-10.4215
-1	-10.4225
شو	-10.4229
▁مکالمه	-10.4235
▁خستگی	-10.4235
▁بمانید	-10.4236
▁دردناک	-10.4236
ta	-10.4243
ot	-10.4245
ne	-10.4253
▁مس	-10.4262
▁شاخه	-10.4264
▁برگ	-10.4269
▁اوت	-10.427
▁مشخصات	-10.4272
▁مطلوب	-10.4275
▁آرزوی	-10.4276
▁مذهب	-10.4277
▁بنده	-10.4278
▁ترویج	-10.4278
▁ویتنام	-10.4278
▁حقایق	-10.4278
▁مسکن	-10.4278
▁معدن	-10.4279
▁۲۱	-10.4285
▁وسط	-10.4292
ate	-10.4294
▁بتوان	-10.4294
▁'	-10.4316
▁واکسن	-10.4321
▁گواهینامه	-10.4322
▁موضع	-10.4322
«	-10.4323
▁آینه	-10.4324
▁بمانند	-10.4325
▁خورند	-10.4325
▁23	-10.4326
▁ز	-10.4329
▁خرده	-10.4332
▁بعدا	-10.4335
▁دیجیتالی	-10.4354
▁حدس	-10.4357
▁جزئی	-10.4362
زد	-10.4364
▁فالون	-10.4366
▁ری	-10.437
▁نگرش	-10.437
تیک	-10.4383
▁شعار	-10.4384
▁خداست	-10.4394
▁فیبر	-10.4396
▁مادران	-10.4405
▁قطر	-10.4407
▁فاقد	-10.4408
▁لوازم	-10.4408
▁بکشید	-10.4408
▁مشورت	-10.4409
▁پرندگان	-10.4409
man	-10.4417
▁نمک	-10.4423
▁300	-10.4424
▁کارآمد	-10.4425
▁جنسیت	-10.443
▁طرفدار	-10.4441
▁پسران	-10.4443
تری	-10.4448
یو	-10.4449
▁اگه	-10.4451
▁فولاد	-10.4453
▁جیمز	-10.4454
شه	-10.4459
un	-10.4462
▁گیرنده	-10.4466
▁قدردانی	-10.447
;	-10.448
▁رابط	-10.4483
رون	-10.4487
▁گاو	-10.4492
▁دموکرات	-10.4493
ارد	-10.4495
▁املاک	-10.4496
▁توجیه	-10.4497
▁تنفس	-10.4497
▁چرخ	-10.4498
▁میشوند	-10.45
▁اندام	-10.4502
▁دوز	-10.4513
▁گیاهی	-10.4523
▁لطف	-10.4535
▁اضطراری	-10.4538
▁تئاتر	-10.4538
▁بصری	-10.4538
▁مستقر	-10.4538
▁جدول	-10.4539
▁گذرد	-10.4542
▁اندروید	-10.4542
▁کمال	-10.4561
▁شکار	-10.4562
▁محرک	-10.4563
“	-10.4568
▁تنگ	-10.4577
▁اسرائیلی	-10.4578
▁حسن	-10.4578
▁بنیادی	-10.458
▁اعداد	-10.4582
▁مزمن	-10.4583
▁مالزی	-10.4583
▁گویید	-10.459
▁رسیدند	-10.4594
▁ناسا	-10.4607
سو	-10.461
▁زدند	-10.4611
▁نفرت	-10.4618
▁سامسونگ	-10.4627
▁مخلوط	-10.4627
▁اردوگاه	-10.4627
▁۷۰	-10.463
▁بگیرم	-10.4634
▁نظرم	-10.4641
رس	-10.4649
اق	-10.4671
▁غرق	-10.4672
▁2009	-10.4672
عکس	-10.4673
▁کبد	-10.4676
ie	-10.4676
▁دستی	-10.4679
▁فارس	-10.4687
کاری	-10.4709
▁خواننده	-10.4716
▁مطلع	-10.4716
▁ناشناخته	-10.4716
▁نان	-10.4716
▁کشتن	-10.4718
▁تابع	-10.472
12	-10.4722
ظ	-10.4723
▁روده	-10.4724
▁2000	-10.4726
صدور	-10.4741
▁اعتراف	-10.4752
▁تلقی	-10.4755
▁جک	-10.4756
▁برانگیز	-10.476
▁خنک	-10.4761
▁حاشیه	-10.4761
▁بالغ	-10.4761
▁نمایندگی	-10.4763
▁کتابی	-10.4764
▁دانشجو	-10.4767
”.	-10.4768
▁موسی	-10.477
▁برف	-10.477
▁برنج	-10.4777
▁روحی	-10.4788
▁میکنید	-10.479
▁دانشجویی	-10.4793
ce	-10.4799
▁بزنند	-10.4808
▁شو	-10.4808
▁بشود	-10.4809
▁سنین	-10.481
▁اختصاصی	-10.4813
▁الکترونیک	-10.4813
▁محله	-10.482
▁داوری	-10.4834
▁امپراتوری	-10.484
▁افغان	-10.4851
▁غول	-10.4852
▁تم	-10.4854
▁الملل	-10.4857
▁مایع	-10.4858
▁بردند	-10.4861
لین	-10.4862
▁بنیان	-10.4863
خود	-10.4864
▁اختلالات	-10.4866
سه	-10.4867
▁شور	-10.4879
▁نامزد	-10.4883
▁آوردند	-10.4889
▁احزاب	-10.4896
▁رکورد	-10.4896
▁متمایز	-10.4896
▁تحمیل	-10.4896
▁کریسمس	-10.4896
▁Pro	-10.4901
▁خودروهای	-10.4902
▁ار	-10.4905
▁لس	-10.4912
ستان	-10.4924
▁محقق	-10.4927
▁ملکه	-10.4931
یده	-10.4941
▁سفارت	-10.4942
شون	-10.4942
▁آهسته	-10.4942
▁مخرب	-10.4942
▁مراتب	-10.4943
▁مسأله	-10.4944
گل	-10.4946
ation	-10.495
ساز	-10.4952
▁گرفتار	-10.4959
▁چرخش	-10.4961
▁ظاهرا	-10.4964
▁کریم	-10.4969
▁قلمرو	-10.4973
▁ناهار	-10.4988
▁۲۰۱۸	-10.4988
▁خلاقانه	-10.499
▁تعطیل	-10.499
▁طوفان	-10.4994
▁ارتقا	-10.4995
▁باهوش	-10.5004
▁شکم	-10.5008
▁گیریم	-10.5013
▁مهمتر	-10.5018
ران	-10.502
وک	-10.5027
ers	-10.5028
▁روس	-10.5032
▁وادار	-10.5042
▁دانستند	-10.5052
بان	-10.5053
▁مسن	-10.5054
پل	-10.5067
▁عروسی	-10.5075
▁رقابتی	-10.5079
▁آگهی	-10.508
▁0	-10.5082
▁۲۰۱۱	-10.5082
▁2020	-10.5083
همه	-10.5089
رز	-10.5093
▁آپ	-10.5093
▁دان	-10.5093
▁بازرگانی	-10.5095
▁یابی	-10.5114
im	-10.5115
▁تأسیس	-10.5123
▁HIV	-10.5126
▁توضیحات	-10.5127
▁درخشان	-10.5127
▁کالا	-10.5133
▁تجویز	-10.5135
▁بشریت	-10.5143
▁۲۲	-10.5152
شود	-10.5164
▁ششم	-10.5166
▁ترسناک	-10.5174
▁کارایی	-10.5176
گن	-10.5206
▁تورم	-10.5214
▁نداشتم	-10.5216
▁افت	-10.5218
▁مربع	-10.5221
▁انیمیشن	-10.5221
▁وابستگی	-10.5221
▁خریداران	-10.5228
▁تیره	-10.5233
مو	-10.5242
▁آری	-10.5243
▁اسد	-10.5246
▁برعکس	-10.5249
▁عام	-10.5249
>	-10.5252
?	-10.5253
▁پیچ	-10.526
▁نوار	-10.5263
▁35	-10.5263
▁جبهه	-10.5268
▁پیرامون	-10.5268
گا	-10.5268
▁ملاحظه	-10.5268
▁برسید	-10.5272
ig	-10.5276
▁مهربان	-10.5278
▁کارکرد	-10.5281
٫	-10.5285
▁خودروی	-10.529
▁باری	-10.5293
40	-10.5294
یدن	-10.531
▁اینستاگرام	-10.5315
▁سالها	-10.5316
▁آرامی	-10.5317
▁بیاورد	-10.5317
▁فروشنده	-10.5325
▁غذاها	-10.5325
▁نفتی	-10.5326
▁یو	-10.5336
▁گوییم	-10.534
▁سمی	-10.5347
▁جایگزینی	-10.5347
▁رسول	-10.5348
کننده	-10.5353
▁گفتار	-10.5356
▁Me	-10.5358
▁اعتیاد	-10.5363
▁شیمی	-10.5363
▁فایده	-10.5363
▁نیروگاه	-10.5364
▁بیرونی	-10.5365
▁تکیه	-10.5365
▁سیل	-10.5377
▁اینجاست	-10.5383
▁باند	-10.5392
▁باش	-10.5405
▁26	-10.5408
¬	-10.5411
▁ستارگان	-10.5411
▁فنجان	-10.5411
▁شلیک	-10.5412
▁2007	-10.5413
▁جزء	-10.5413
▁محافظه	-10.542
▁دوستانه	-10.5431
▁دشواری	-10.5433
▁فرمت	-10.5437
سل	-10.5442
جر	-10.5443
▁خطای	-10.5445
گری	-10.5455
▁عواقب	-10.5459
▁۲۰۱۴	-10.5459
▁۲۰۱۳	-10.546
▁خوانندگان	-10.546
▁ربط	-10.546
▁(19	-10.5461
:«	-10.5484
▁تاریکی	-10.5487
▁بودید	-10.5491
▁بیکاری	-10.5501
▁فروشی	-10.5505
▁پتانسیل	-10.5507
▁پلتفرم	-10.5507
▁تبعیض	-10.5507
▁قفل	-10.5507
▁DNA	-10.5509
▁دافا	-10.5509
▁پروسه	-10.551
▁پادشاهی	-10.551
▁قطعاً	-10.5511
▁مایکل	-10.5513
▁پژوهشی	-10.5515
▁رحمت	-10.5515
▁حواس	-10.5516
▁مطمئنا	-10.5538
▁نوجوان	-10.5541
درصد	-10.5542
▁باستانی	-10.5544
▁معاون	-10.5549
▁دیوانه	-10.5551
▁ثالث	-10.5555
▁معبد	-10.5556
▁$	-10.5559
▁استودیو	-10.5568
▁ردیابی	-10.5569
▁شرکای	-10.557
▁نظری	-10.5571
▁کالاهای	-10.5578
▁De	-10.5579
▁مثبتی	-10.5581
▁تشدید	-10.5604
▁جهنم	-10.5605
▁کان	-10.5606
▁کمترین	-10.5611
▁پاره	-10.5611
▁تغییراتی	-10.5614
▁لهستان	-10.5617
▁خیال	-10.5617
▁ضرب	-10.562
▁مهاجر	-10.5624
▁پدید	-10.5626
▁تلفنی	-10.5636
▁خطاب	-10.5641
▁شانه	-10.5643
▁نابودی	-10.5648
▁درگذشت	-10.5648
▁متقابل	-10.5653
گونه	-10.5654
▁مأموریت	-10.5654
▁چنانچه	-10.5655
▁همینطور	-10.5655
▁دیروز	-10.5656
▁مجددا	-10.5665
▁دریافتند	-10.5679
▁قسم	-10.5687
▁اندک	-10.5687
ss	-10.5689
▁d	-10.569
▁محاکمه	-10.5703
▁رزرو	-10.5703
▁گرایش	-10.5706
se	-10.5721
▁درسی	-10.5722
▁غ	-10.5726
Q	-10.5736
▁اینطور	-10.5747
▁اذیت	-10.5752
▁تخلیه	-10.5752
▁معجزه	-10.5752
▁کلسترول	-10.5752
▁شتاب	-10.5752
▁کرم	-10.5754
▁کشتار	-10.5755
om	-10.5763
▁اظهارات	-10.5768
▁مشخصی	-10.5772
▁سوزی	-10.5775
▁دیسک	-10.5785
▁قطعی	-10.5791
▁شرکتی	-10.5799
▁منع	-10.5802
▁بازنشستگی	-10.5802
▁شاهزاده	-10.5802
▁دیپلماتیک	-10.5803
▁نقلیه	-10.5805
شده	-10.5813
▁هنگ	-10.5814
▁همسرتان	-10.5816
▁پیشرو	-10.5822
▁اشک	-10.5824
▁روستایی	-10.5826
▁درواقع	-10.5837
|	-10.5838
!!	-10.5843
کند	-10.5846
شن	-10.5847
▁معده	-10.5852
کت	-10.5854
▁آواز	-10.5855
▁باب	-10.5857
▁جوانی	-10.5868
▁برید	-10.587
▁نوری	-10.5876
کم	-10.5898
▁ظهر	-10.5902
▁آگوست	-10.5902
؟"	-10.5903
te	-10.5912
▁دوام	-10.5927
▁ذ	-10.5941
▁هیچکس	-10.5942
قا	-10.5943
▁داستانی	-10.5944
▁تسهیل	-10.5946
▁قلعه	-10.5953
▁عمدتا	-10.5954
▁مجسمه	-10.5956
▁قیامت	-10.5958
▁بکند	-10.596
ter	-10.5981
▁شکلات	-10.5989
بو	-10.5992
▁خلبان	-10.5996
▁۲۰۱۶	-10.6004
▁حتماً	-10.6004
▁پنجاه	-10.6005
▁تلخ	-10.6006
▁الزامات	-10.6008
▁—	-10.601
زن	-10.6016
▁طب	-10.6019
os	-10.6036
▁جست	-10.6037
چرا	-10.6041
▁پیشنهادی	-10.6044
▁سلطنتی	-10.6045
▁سفارشی	-10.6053
▁کافئین	-10.6054
▁آنهاست	-10.6054
▁دروازه	-10.6055
▁مستمر	-10.6055
▁تاثیرات	-10.6056
▁45	-10.6061
▁صرفاً	-10.6064
▁وحشتناک	-10.6067
ائی	-10.607
na	-10.607
▁برلین	-10.6073
▁ط	-10.6073
ac	-10.6074
▁آموخته	-10.6074
▁روستا	-10.6082
▁عهد	-10.6083
▁بدنی	-10.6086
بد	-10.6087
▁لیگ	-10.6094
▁ادعای	-10.6095
گرد	-10.6095
▁۹۰	-10.6097
وه	-10.6102
▁اواسط	-10.6106
▁h	-10.6107
▁اجزای	-10.6118
▁]	-10.6119
▁لنز	-10.6123
▁سواری	-10.6131
▁مواجهه	-10.6137
▁هندی	-10.6148
▁مشتاق	-10.615
▁تخفیف	-10.6157
▁اندونزی	-10.6157
▁2006	-10.616
▁اموال	-10.616
▁زیان	-10.6163
▁مسئولان	-10.6167
▁زانو	-10.6173
▁ساعات	-10.6175
op	-10.6194
▁اساسا	-10.6207
▁زباله	-10.6209
▁حاکی	-10.6209
▁قاتل	-10.6209
▁فشرده	-10.621
▁غیرممکن	-10.6211
▁=	-10.6218
▁امیدواریم	-10.6224
▁تیراندازی	-10.6226
▁نشینی	-10.6244
▁معیارهای	-10.6255
▁گره	-10.6259
▁ماسک	-10.626
▁قاضی	-10.6261
▁اطاعت	-10.6261
▁پناهندگان	-10.6261
▁کیسه	-10.6265
▁تربیت	-10.6266
▁برویم	-10.6268
▁امارات	-10.6273
▁مست	-10.6286
▁ماهانه	-10.6298
▁چراکه	-10.6309
▁خسارت	-10.6313
▁چهارشنبه	-10.6314
▁صادقانه	-10.6316
▁نمره	-10.6318
▁ساحلی	-10.632
▁نگرفته	-10.6322
▁قلم	-10.6323
ستر	-10.6334
▁بندر	-10.6338
▁اصرار	-10.6366
▁بلیط	-10.6366
▁نوبت	-10.6366
▁اخذ	-10.6367
▁بخواهیم	-10.6369
▁سکه	-10.6372
▁ریزش	-10.6377
▁متقاضیان	-10.6378
▁27	-10.6378
▁نیک	-10.638
▁مطابقت	-10.638
▁کارتان	-10.6391
اید	-10.6398
▁تاپ	-10.6407
▁آزمایشات	-10.6409
▁فعالان	-10.641
▁هایم	-10.6415
▁سم	-10.6415
▁La	-10.6416
▁وقایع	-10.6419
▁کربوهیدرات	-10.6419
▁·	-10.6419
▁شباهت	-10.6419
▁مکرر	-10.642
▁ممنوعیت	-10.6423
علیه	-10.6424
▁بلاک	-10.6424
▁تحولات	-10.6427
▁فرمانده	-10.6434
▁زور	-10.6434
▁ازای	-10.6447
▁کنگ	-10.6467
▁زبانی	-10.647
دم	-10.6472
▁فرکانس	-10.6472
▁متعادل	-10.6472
▁اقلیت	-10.6473
▁بکنید	-10.6475
▁شماری	-10.6479
▁پیامدهای	-10.6479
▁روشنایی	-10.6481
▁آزمایشی	-10.6485
▁یکشنبه	-10.6485
▁ناامید	-10.6491
ine	-10.6492
▁الگو	-10.6493
▁التهاب	-10.6495
انت	-10.6502
▁e	-10.6504
خت	-10.6513
and	-10.6515
▁تحسین	-10.6526
▁تعویض	-10.6526
▁اشیاء	-10.6526
▁الف	-10.6526
▁توافقنامه	-10.6528
▁کش	-10.6529
▁کلاه	-10.6543
▁پلاستیک	-10.6548
▁تومور	-10.6551
▁ابزاری	-10.6555
▁3-	-10.6559
ادی	-10.656
بخش	-10.657
▁زیبای	-10.6572
▁نفره	-10.6575
▁متناسب	-10.658
▁دربارۀ	-10.6581
▁اختلافات	-10.6592
▁سوره	-10.6597
▁رابرت	-10.6597
▁پلاستیکی	-10.6611
ag	-10.6616
▁شناسان	-10.6633
▁اشتیاق	-10.6633
▁ماساژ	-10.6633
▁المپیک	-10.6633
▁گلوله	-10.6634
▁صلاحیت	-10.6634
▁بخواهند	-10.6634
▁رادیویی	-10.6635
▁قطعنامه	-10.6635
▁وصل	-10.6636
▁نمودار	-10.6641
▁نیت	-10.6653
▁سخنگوی	-10.6654
▁هو	-10.6659
▁بیا	-10.6659
▁تند	-10.6663
▁کارگردانی	-10.6675
▁قانع	-10.6688
▁تعبیر	-10.6688
▁مشکوک	-10.6688
▁عادات	-10.6689
نر	-10.6691
▁مهار	-10.6692
▁رهایی	-10.6695
▁نمودند	-10.6715
▁امروزی	-10.6717
▁۵۰۰	-10.6728
▁میزبانی	-10.674
▁معیار	-10.6741
یز	-10.6741
▁متشکل	-10.6743
▁مبادله	-10.6743
▁عادلانه	-10.6743
▁بینایی	-10.6744
▁دانشجوی	-10.6745
▁گردشگران	-10.6746
▁آتی	-10.6748
▁برایشان	-10.6751
▁عاشقانه	-10.6751
▁آفریقایی	-10.6762
▁شوخی	-10.6764
▁وال	-10.677
▁for	-10.6775
▁نم	-10.6776
▁میانه	-10.679
▁رسم	-10.6792
▁بازدیدکنندگان	-10.6798
▁۲۰۰	-10.6804
جه	-10.6806
▁نکردند	-10.6811
▁جادویی	-10.6817
▁تسلیحات	-10.6823
▁ایرلند	-10.6826
▁مردمان	-10.6836
▁صرفا	-10.6841
▁جلوه	-10.6842
▁احمق	-10.6852
▁ظریف	-10.6853
▁HTML	-10.6854
▁آگاهانه	-10.6858
▁هواپیمایی	-10.6859
▁نگار	-10.686
▁التحصیل	-10.687
قی	-10.6872
▁تیمی	-10.6875
▁نسبتاً	-10.6876
▁براي	-10.6879
▁قدیم	-10.6881
▁روشنی	-10.6884
▁اروپای	-10.6886
▁شهرستان	-10.6886
▁برو	-10.6891
▁گذر	-10.6899
▁بدل	-10.69
▁صف	-10.6901
▁نواحی	-10.6908
▁۲۰۱۰	-10.6909
▁نباشند	-10.691
▁متعال	-10.691
▁VPN	-10.6911
▁دوری	-10.6914
▁دوش	-10.6916
▁خبرنگاران	-10.6917
▁کجاست	-10.6919
ونی	-10.692
هیچ	-10.6928
▁بازرسی	-10.6931
▁پاسخگویی	-10.6937
وار	-10.6937
▁قطب	-10.6939
▁اتهام	-10.6957
▁مادری	-10.6959
▁انتخابی	-10.6961
▁کشند	-10.6962
▁عضلانی	-10.6964
▁یخچال	-10.6964
▁ذرات	-10.6964
▁حبس	-10.6965
۱۰	-10.6971
▁تاریخچه	-10.6971
▁آفریده	-10.6974
۲۰	-10.6975
▁جورج	-10.6979
▁کا	-10.698
▁میکرو	-10.698
▁داشتید	-10.698
▁اهدا	-10.6988
▁هیچگاه	-10.6998
▁برتری	-10.7002
▁همسرم	-10.7005
di	-10.7009
▁فارسی	-10.7015
▁امواج	-10.702
▁سواحل	-10.702
▁بریتانیایی	-10.7023
▁هواداران	-10.7026
▁سودمند	-10.7027
▁ریاضیات	-10.7028
▁مارکس	-10.7028
▁داروی	-10.703
▁خوابیدن	-10.7031
▁وحشی	-10.7035
▁بهبودی	-10.7047
▁۳۵	-10.7049
▁بهانه	-10.7053
ئ	-10.7053
▁یادآور	-10.7073
▁تطبیق	-10.7077
▁فقدان	-10.7077
▁وردپرس	-10.7077
▁آنجلس	-10.7077
▁جزایر	-10.7078
▁حسی	-10.7083
▁بازیابی	-10.7084
▁عضویت	-10.7087
▁بتوانم	-10.7095
يه	-10.7096
▁دبیرستان	-10.7105
▁تدریج	-10.7105
▁آم	-10.7107
▁زخمی	-10.7122
ang	-10.7124
▁دود	-10.7126
▁عظیمی	-10.713
▁قد	-10.7131
▁تصریح	-10.7134
▁عبادت	-10.7134
▁بوسیله	-10.7134
▁میتوانند	-10.714
▁بستر	-10.7144
▁پناه	-10.7147
▁انداخت	-10.7149
خدا	-10.7149
▁مشاوران	-10.7154
▁زنانی	-10.7158
▁دبی	-10.7161
▁شلوغ	-10.7162
▁جاسوسی	-10.7166
▁الگوهای	-10.7168
▁جسم	-10.7168
▁ِ	-10.7171
▁کارگری	-10.7173
▁1000	-10.7178
▁افزاری	-10.7182
▁تایمز	-10.7191
▁۲۰۱۲	-10.7191
▁سندرم	-10.7192
▁فروشندگان	-10.7193
▁چهل	-10.7194
برد	-10.72
▁بل	-10.7205
▁دستان	-10.7208
▁تونل	-10.721
▁مار	-10.7217
▁خدایی	-10.722
▁محاسبات	-10.7221
▁ویرایش	-10.7221
▁آدمی	-10.7235
▁غریب	-10.7238
▁قبیل	-10.7241
▁استانبول	-10.7248
▁مجمع	-10.7249
▁میکنیم	-10.725
▁جدیدترین	-10.7254
▁انسانها	-10.726
sh	-10.7266
▁ولایت	-10.7278
ّه	-10.7282
▁ترکیبات	-10.7284
▁خلاص	-10.7289
اء	-10.7305
▁نخواهیم	-10.7308
▁شفافیت	-10.7308
▁بیایند	-10.7309
▁دانشمند	-10.7312
▁توانستیم	-10.7319
▁مرزی	-10.7335
▁لپ	-10.7341
ph	-10.7353
▁بست	-10.7358
▁نامناسب	-10.7364
▁زاویه	-10.7364
▁پیوستن	-10.7364
▁بالینی	-10.7365
▁مرجع	-10.7366
▁SEO	-10.7366
▁اشتباهی	-10.7366
▁پیشنهادات	-10.7372
▁مریم	-10.7375
سک	-10.7387
▁نحوی	-10.7388
▁مخالفان	-10.7389
▁هرکسی	-10.739
▁پشتیبان	-10.7396
رن	-10.7403
▁پرهیز	-10.7403
▁افسر	-10.7411
60	-10.7414
▁خبرنگار	-10.7414
▁t	-10.7422
▁قاچاق	-10.7423
▁پیچیدگی	-10.7423
▁بمباران	-10.7423
▁کشاورزان	-10.7429
▁رضا	-10.7438
▁مهندس	-10.7442
▁بلا	-10.7451
▁خاطره	-10.7452
▁پایانی	-10.7454
▁پردازند	-10.7466
▁رقیب	-10.7474
▁آلرژی	-10.7478
▁مستلزم	-10.7481
▁سرزنش	-10.7481
▁کامیون	-10.7482
▁۲۰۱۷	-10.7482
▁بسازد	-10.7482
▁صدمه	-10.7483
▁قوت	-10.7484
▁پوشیدن	-10.7484
▁مبارزات	-10.7485
▁نشستن	-10.7493
▁سرطانی	-10.7494
OS	-10.7496
▁کارش	-10.7502
▁نازی	-10.7506
▁همکار	-10.7509
▁روحیه	-10.7511
▁مرتبه	-10.7518
▁مدیره	-10.7539
▁مقطع	-10.7541
▁فرشته	-10.7542
ton	-10.7543
▁فیلیپین	-10.7543
▁محبوبیت	-10.7548
ip	-10.7548
▁هوشمندانه	-10.7548
مت	-10.7548
▁فورا	-10.7551
ent	-10.7553
▁روشهای	-10.7556
▁مسیحیان	-10.7557
▁سطحی	-10.7571
▁مور	-10.7576
IS	-10.7586
▁خوشبختی	-10.7591
▁پرداخته	-10.7595
▁پستان	-10.76
▁احاطه	-10.76
▁مقصر	-10.76
▁هیتلر	-10.76
▁متأسفانه	-10.7601
▁نشوید	-10.7601
▁قصه	-10.7602
▁re	-10.7606
▁وفاداری	-10.7626
▁اي	-10.7642
▁شوک	-10.7644
▁ناتوانی	-10.7645
▁طرفی	-10.7649
▁4-	-10.765
▁یقین	-10.7654
▁آکادمی	-10.7655
▁تسلط	-10.766
▁قبال	-10.7661
▁شناسند	-10.7664
son	-10.7664
زه	-10.7669
▁هدر	-10.7673
ماه	-10.7677
▁اندازد	-10.7679
▁دفعه	-10.7683
▁اجتماع	-10.7689
شد	-10.7694
▁آرژانتین	-10.7695
▁روید	-10.7699
▁مسلم	-10.7713
▁متحدان	-10.7713
گیر	-10.7719
▁دنیایی	-10.7728
▁موی	-10.7737
▁نحو	-10.7737
ity	-10.7737
▁پذیرفت	-10.7745
گران	-10.7757
همان	-10.7765
▁ممنون	-10.7768
11	-10.7772
▁Mo	-10.7775
▁صاف	-10.7785
▁سپرده	-10.7787
▁آفرینش	-10.7789
انا	-10.7792
▁هشتم	-10.7792
▁31	-10.7808
ant	-10.7809
▁وفادار	-10.7815
▁حیوانی	-10.7819
▁دیدند	-10.7842
▁رویای	-10.7859
▁سازگاری	-10.786
▁پردازنده	-10.786
؟”	-10.7872
▁بازخورد	-10.7877
▁قضایی	-10.7886
راه	-10.7894
▁بازنشسته	-10.7903
▁سرو	-10.7905
ایت	-10.7905
▁ورزشکاران	-10.791
▁بخشید	-10.7911
▁شن	-10.7913
▁فرمودند	-10.7917
▁فاز	-10.7919
▁تغییری	-10.792
تور	-10.792
ti	-10.7925
▁پیری	-10.7927
▁ویدیویی	-10.7927
▁تهدیدات	-10.7929
▁تاکسی	-10.7933
▁پورت	-10.7934
▁متغیر	-10.7936
▁تصادف	-10.7937
▁Be	-10.7941
▁مولکول	-10.7942
▁انتخاباتی	-10.7947
▁de	-10.7952
▁ابد	-10.7957
▁75	-10.7963
▁بیستم	-10.7965
▁گویا	-10.7967
▁نکنیم	-10.797
▁توانی	-10.7971
▁Co	-10.7973
▁آیین	-10.7974
mo	-10.7977
▁كرده	-10.7984
ته	-10.7986
▁برش	-10.7988
The	-10.7999
▁پله	-10.8002
tion	-10.8007
▁افشا	-10.8009
io	-10.801
▁شکستن	-10.8018
▁برقی	-10.802
▁نقره	-10.8027
▁MBA	-10.8029
▁مدام	-10.8031
▁کارفرمایان	-10.8032
▁انداخته	-10.8045
▁يا	-10.8045
▁واحدهای	-10.8059
▁مدیریتی	-10.8062
▁رگ	-10.807
▁استخر	-10.8085
▁گرگ	-10.8087
▁ماهر	-10.8089
▁کلمبیا	-10.8089
▁مرطوب	-10.8089
▁سلطه	-10.809
▁بنزین	-10.8092
▁امشب	-10.8092
▁شناسد	-10.8093
▁ارث	-10.8094
▁شهروندی	-10.81
▁سردرد	-10.8103
▁نگاران	-10.8109
▁صدر	-10.8116
me	-10.8119
▁فرش	-10.812
▁دلایلی	-10.812
▁بنی	-10.812
▁بوش	-10.8121
▁تکراری	-10.8134
▁Ma	-10.8135
▁پویا	-10.8135
▁تهاجمی	-10.8136
نشان	-10.8137
ut	-10.8138
داد	-10.8144
▁اعصاب	-10.8152
▁مزرعه	-10.8152
▁گرجستان	-10.8152
▁iOS	-10.8153
lu	-10.8153
▁تضاد	-10.8153
▁بنظر	-10.8154
▁پکن	-10.8155
▁جهش	-10.8156
▁اعتراضات	-10.8161
▁مقدمه	-10.8168
▁نوین	-10.8193
▁صعود	-10.8194
▁انگیزی	-10.8207
▁تحرک	-10.8211
ge	-10.8215
▁بلژیک	-10.8216
▁ناخواسته	-10.8216
▁محوطه	-10.8216
▁1990	-10.8216
▁تجارب	-10.8218
▁منظر	-10.8218
▁اشعه	-10.8218
▁آوریم	-10.8218
▁جنسیتی	-10.8219
▁400	-10.8232
▁آسیایی	-10.8233
▁پاس	-10.8249
▁ترور	-10.8255
▁برون	-10.8258
▁اپ	-10.8258
▁بورس	-10.8262
▁حامی	-10.8272
▁اینقدر	-10.8272
▁بیگانه	-10.828
▁پارچه	-10.828
▁الماس	-10.8281
▁هیات	-10.8286
16	-10.8287
▁برسیم	-10.8293
▁سامانه	-10.8294
▁آشپزی	-10.8297
▁پسرش	-10.831
▁بینش	-10.8312
▁پیکر	-10.8316
▁گفتیم	-10.8319
▁کری	-10.8321
▁معتقدم	-10.8325
ex	-10.8335
▁رز	-10.8336
▁پروفسور	-10.8343
▁عجله	-10.8344
ive	-10.8344
▁دلخواه	-10.8348
▁نکن	-10.835
تن	-10.835
▁گیج	-10.8352
▁سیاستمداران	-10.8354
▁فرآیندهای	-10.836
▁ترانه	-10.8363
▁بیل	-10.8364
▁بردارید	-10.8364
▁32	-10.8365
▁قومی	-10.8367
▁ترسیم	-10.837
ap	-10.8373
▁i	-10.8376
▁جعلی	-10.8376
▁نداد	-10.8382
▁مستقیما	-10.8383
▁سوپر	-10.8387
▁لحظات	-10.8388
▁باطل	-10.8391
یعنی	-10.8394
▁رسانده	-10.8397
▁نانو	-10.8398
▁نمایان	-10.8398
▁ریز	-10.8402
دون	-10.8402
▁رویاهای	-10.8402
▁شورش	-10.8405
▁اعزام	-10.8408
▁تعقیب	-10.8408
▁کاتولیک	-10.8408
▁ترغیب	-10.8409
▁شراب	-10.841
▁راهنما	-10.8413
▁سوری	-10.8419
▁دوستش	-10.8419
▁هک	-10.842
▁بخشیدن	-10.8421
▁کارگاه	-10.8422
▁همراهی	-10.8424
da	-10.8427
▁ساعته	-10.8429
▁One	-10.8433
▁۲۷	-10.8433
▁جین	-10.8443
▁سپاه	-10.8453
▁اتم	-10.8464
▁زحمت	-10.8473
▁گرسنه	-10.8473
▁اتوماتیک	-10.8473
▁۲۰۰۹	-10.8473
▁علل	-10.8474
▁عزت	-10.8474
▁پو	-10.8482
▁Wi	-10.8488
▁بالاتری	-10.8491
▁۲۰۰۰	-10.8495
ll	-10.8497
▁29	-10.8499
بال	-10.8507
▁فیل	-10.8508
▁اکسید	-10.8513
▁یونانی	-10.8513
▁مفصل	-10.8519
▁ارای	-10.8526
▁اسرار	-10.8538
▁بپردازید	-10.8538
▁سفیر	-10.8538
▁براى	-10.8538
▁ژنرال	-10.8539
▁تلسکوپ	-10.8539
▁پوتین	-10.8539
▁امری	-10.8541
▁مستقیماً	-10.8551
▁اچ	-10.8555
▁برداشتن	-10.8559
دست	-10.8562
▁عینک	-10.8565
▁سؤالات	-10.8569
▁جالبی	-10.8571
19	-10.8578
hi	-10.8578
▁مترو	-10.8583
▁ساختاری	-10.8584
ist	-10.8585
بری	-10.8585
▁قهرمانی	-10.8587
▁گرداند	-10.8588
▁جانبه	-10.8591
▁استوار	-10.8594
▁خدایان	-10.8601
!!!	-10.8604
▁معکوس	-10.8604
▁مذکور	-10.8604
▁مبارک	-10.8604
▁وحدت	-10.8604
▁تمدید	-10.8604
▁مریخ	-10.8605
▁●	-10.8605
▁2003	-10.8607
▁یادم	-10.8608
▁نامحدود	-10.861
▁میدهند	-10.8612
▁توبه	-10.8616
▁عراقی	-10.8618
▁قیمتی	-10.8624
▁واگذار	-10.8624
▁بازتاب	-10.8632
▁خم	-10.8636
نام	-10.8647
▁ویران	-10.8667
▁ذخایر	-10.867
▁صریح	-10.867
▁پیغام	-10.867
▁رانندگان	-10.867
▁یوگا	-10.8671
▁جسد	-10.8671
▁هنرهای	-10.8674
▁کارآفرینی	-10.8675
کنند	-10.8679
▁غریبه	-10.8689
▁۲۳	-10.8695
▁شاعر	-10.8697
▁ایکس	-10.8697
▁باورند	-10.8718
تین	-10.8719
est	-10.8723
ــ	-10.8724
▁قیام	-10.873
▁خیره	-10.8731
▁ستم	-10.8735
▁عبارات	-10.8737
▁شمشیر	-10.8737
▁قرون	-10.8738
▁اقداماتی	-10.8745
▁شاگردان	-10.8745
▁Sa	-10.8746
▁g	-10.8748
▁اخیراً	-10.8751
▁_	-10.8758
ke	-10.8758
جنگ	-10.8762
نز	-10.8765
▁دفع	-10.8769
▁میتوان	-10.8769
▁نظامیان	-10.877
▁بنابر	-10.8782
اپ	-10.8795
▁موقعیتی	-10.8797
▁بعداً	-10.8797
▁وگو	-10.88
رک	-10.8803
▁مارتین	-10.8804
▁خریدار	-10.8806
▁آستانه	-10.8809
▁150	-10.8811
تل	-10.8815
▁2005	-10.8816
▁ایالتی	-10.8823
▁5-	-10.8826
▁چرب	-10.884
ER	-10.8843
▁هواپیماهای	-10.8845
▁دارا	-10.8852
▁غالب	-10.8859
▁فدراسیون	-10.8872
▁بایگانی	-10.8872
▁بپردازد	-10.8872
▁غالباً	-10.8873
▁فلزی	-10.8887
▁دوازده	-10.8892
▁اندوه	-10.8893
▁زیستی	-10.8893
اژ	-10.8895
▁بطری	-10.8896
▁سرش	-10.8905
▁بلد	-10.8906
▁نگاری	-10.8908
▁تام	-10.8912
یوم	-10.8922
▁اعطا	-10.8922
▁دستگیری	-10.8931
▁توطئه	-10.894
▁ناخودآگاه	-10.894
▁ناخوشایند	-10.894
▁کنسرت	-10.894
▁آغوش	-10.894
▁یوسف	-10.894
▁غزه	-10.894
▁دفن	-10.894
▁علاقمند	-10.8941
▁دستیار	-10.8942
one	-10.8951
▁An	-10.8953
▁شهرداری	-10.8953
em	-10.8953
be	-10.8954
شهر	-10.8957
▁هراس	-10.8959
▁شرم	-10.8962
▁Q	-10.8966
▁Al	-10.8966
▁بازمی	-10.8978
der	-10.898
۰	-10.8982
رها	-10.8985
▁برابری	-10.8991
90	-10.8991
▁اینکار	-10.8991
▁بخار	-10.8992
▁پرستار	-10.8993
▁سازه	-10.8994
فل	-10.8994
▁تولیدی	-10.8995
▁سفرهای	-10.8996
▁قرض	-10.9003
▁آخرت	-10.9005
▁URL	-10.9008
▁بپردازند	-10.9008
▁پروفایل	-10.9008
▁کلینتون	-10.9008
▁منصفانه	-10.9008
▁اوراق	-10.9009
▁قاعده	-10.9009
▁ببریم	-10.901
هاست	-10.901
▁لوکس	-10.9013
▁آماری	-10.9013
▁پیروان	-10.9013
▁حامیان	-10.9016
▁شرکتهای	-10.9022
▁شناس	-10.9022
الله	-10.9023
ell	-10.9025
▁آسیای	-10.9026
▁روستای	-10.9027
up	-10.9027
▁مسیرهای	-10.903
▁v	-10.9033
▁چهارمین	-10.9037
▁پوستی	-10.9042
▁شوی	-10.9044
▁بازگرداند	-10.9054
▁داوطلب	-10.9054
▁قراردادهای	-10.9055
no	-10.9059
▁نامند	-10.9064
یون	-10.9074
▁حیرت	-10.9077
▁سکونت	-10.9077
گار	-10.9082
▁مدال	-10.9082
▁پوشیده	-10.9083
▁آموخت	-10.9093
▁زاده	-10.9094
▁انگشتان	-10.9096
▁آلات	-10.9097
▁خوشحالم	-10.9102
رم	-10.9106
▁دستورات	-10.9109
Z	-10.9112
رهای	-10.9127
80	-10.9134
▁کارشان	-10.9134
▁بابا	-10.9135
▁بزرگسال	-10.9136
▁مقاوم	-10.9137
▁تقلید	-10.9147
▁تدوین	-10.9147
▁ماجراجویی	-10.9147
▁ستایش	-10.9147
▁تجمع	-10.9147
▁حاملگی	-10.9147
▁دا	-10.9147
ck	-10.9148
▁ISO	-10.9148
-2	-10.9149
▁سازندگان	-10.9149
▁لیبرال	-10.915
جان	-10.9157
▁آزادانه	-10.9163
▁خوشحالی	-10.9166
▁قدری	-10.917
▁بازگرداندن	-10.917
▁تاج	-10.9171
توانید	-10.9174
▁جیب	-10.9176
▁فاش	-10.9178
go	-10.9192
▁گرفتیم	-10.9193
کش	-10.9195
▁شخصیتی	-10.9195
ve	-10.9195
▁Le	-10.9199
▁تایپ	-10.9201
▁گناهان	-10.9201
▁فلز	-10.9204
▁on	-10.9205
هزار	-10.9213
▁شجاعت	-10.9215
▁وسوسه	-10.9217
▁1980	-10.9217
▁بیاورند	-10.9217
▁تونی	-10.9218
▁نشریه	-10.9218
▁مغناطیسی	-10.9221
▁ابداع	-10.9225
ho	-10.9226
▁معقول	-10.9236
▁انتقادی	-10.9241
۵۰	-10.9249
عهده	-10.9251
▁فضاهای	-10.927
▁تعلیم	-10.9275
▁انتقام	-10.9287
▁سحر	-10.9287
▁خشمگین	-10.9287
▁غبار	-10.9288
▁بخرید	-10.9289
▁خاتمه	-10.9289
▁گونگ	-10.9291
▁ي	-10.9314
▁پرسیده	-10.9327
▁سا	-10.9333
زو	-10.9334
تم	-10.9334
یکی	-10.9336
ry	-10.934
▁کام	-10.934
▁مسائلی	-10.9342
▁خجالت	-10.9343
مند	-10.9352
▁پمپ	-10.9358
▁تعلیق	-10.9358
▁اتریش	-10.9358
▁ماژول	-10.9358
▁عذرخواهی	-10.9358
▁امیر	-10.9358
▁محرمانه	-10.9358
▁خان	-10.9359
▁پلت	-10.9359
▁ماندگار	-10.9359
▁كنید	-10.936
▁خشن	-10.9361
▁تپه	-10.9364
▁اتهامات	-10.9367
رغم	-10.9376
▁پذیرد	-10.9378
▁منو	-10.9388
▁((	-10.9391
▁مون	-10.9391
▁وحش	-10.9397
▁x	-10.9402
لند	-10.9405
▁پخت	-10.9417
▁معین	-10.9422
▁کنسول	-10.9429
▁فروپاشی	-10.9429
▁متداول	-10.9429
▁تناسب	-10.943
لر	-10.9435
▁مهندسان	-10.9441
▁عید	-10.9442
▁متخصصین	-10.9455
ian	-10.9461
▁زنم	-10.9463
▁استثنایی	-10.9465
▁گرامی	-10.947
▁کارشناس	-10.9484
سان	-10.9494
▁کاشت	-10.9496
▁بغداد	-10.9501
▁دفاتر	-10.9501
▁سلسله	-10.9501
▁گالری	-10.9501
▁صداقت	-10.9501
▁شنوایی	-10.9501
▁گازهای	-10.9502
▁USB	-10.9502
▁بشناسید	-10.9502
▁آسانسور	-10.9502
▁پنیر	-10.9505
▁بکنند	-10.9506
▁فل	-10.9508
▁اردن	-10.9509
▁پاییز	-10.951
▁نوزدهم	-10.951
▁برجام	-10.9512
▁افزونه	-10.9512
▁دردسر	-10.9512
ak	-10.9518
▁آزمایشگاهی	-10.9522
▁فورد	-10.9523
▁وار	-10.9527
MA	-10.9527
▁پاهای	-10.9534
▁پیوست	-10.9536
▁ك	-10.9537
▁جراح	-10.954
تس	-10.9541
▁خدماتی	-10.9545
▁بادی	-10.9552
▁ساختارهای	-10.9553
▁۴۵	-10.9561
▁نش	-10.9562
15	-10.9563
▁عقاید	-10.9574
▁معاهده	-10.9574
▁مقاصد	-10.9574
▁جریمه	-10.9574
▁توهین	-10.9574
▁شیوع	-10.9574
▁بیوتیک	-10.9575
▁بگذاریم	-10.9576
▁هفتم	-10.9582
فن	-10.9582
▁نرسیده	-10.9582
لد	-10.9584
سین	-10.9593
▁سوالی	-10.9602
▁حکمت	-10.9605
▁همکارانش	-10.9611
AS	-10.9621
▁مهاجم	-10.9625
خته	-10.9634
▁آذربایجان	-10.9647
▁تکذیب	-10.9647
▁برسانند	-10.9647
▁برسانید	-10.9647
▁انسولین	-10.9647
▁متحرک	-10.9647
▁شیعه	-10.9647
▁بلندمدت	-10.9647
▁صبور	-10.9647
▁احمقانه	-10.9649
▁جانشین	-10.9649
▁بکشند	-10.9649
▁ترمیم	-10.9649
گفت	-10.9651
▁هرکدام	-10.9652
▁انبار	-10.9656
▁کیلومتری	-10.9666
▁بجای	-10.9675
ارت	-10.9676
ha	-10.9676
▁محو	-10.9678
▁کیک	-10.9678
▁گزارشی	-10.9682
▁برم	-10.9686
▁قهرمانان	-10.9689
▁صداهای	-10.9699
▁باهم	-10.9704
▁متنفر	-10.9705
▁داشتنی	-10.9708
▁چت	-10.9709
nd	-10.971
وقتی	-10.9718
▁تثبیت	-10.972
▁همیشگی	-10.972
▁صلیب	-10.9725
▁پیتر	-10.9725
▁اسپرم	-10.9726
ron	-10.9729
▁ریخته	-10.9731
▁نمای	-10.9737
▁کمپ	-10.9744
▁نرمال	-10.9745
▁شدیدی	-10.9748
▁آرمان	-10.9749
▁تجربی	-10.975
▁همگان	-10.9752
▁افراطی	-10.9762
▁تابستانی	-10.9766
کسی	-10.977
per	-10.9771
▁قم	-10.9778
▁غار	-10.978
▁دانمارک	-10.9784
مثل	-10.9786
▁سلولی	-10.9789
▁احتیاط	-10.9794
▁انبوه	-10.9794
▁تأخیر	-10.9794
▁عباس	-10.9794
▁نوآورانه	-10.9795
▁پنجشنبه	-10.9795
▁قبیله	-10.9804
▁جذابیت	-10.9805
▁ماری	-10.9809
,000	-10.9814
Fi	-10.9821
▁فرستاد	-10.9821
وان	-10.9822
▁تاب	-10.9828
،000	-10.9839
ستای	-10.9853
▁نشانگر	-10.9859
▁مادی	-10.986
▁اکتشاف	-10.9865
▁محترم	-10.9867
بازی	-10.9868
▁قواعد	-10.9869
▁هیدروژن	-10.9869
▁اسکاتلند	-10.9869
▁تجسم	-10.9869
▁رمزگذاری	-10.9869
▁مدیرعامل	-10.9869
▁هل	-10.9869
▁رونمایی	-10.9871
▁نوبل	-10.9872
▁آرایش	-10.9872
دید	-10.9874
▁دایره	-10.9877
▁Home	-10.9882
▁۲۶	-10.9889
▁فراگیر	-10.9891
برگ	-10.9892
▁کیت	-10.9893
▁بازیافت	-10.9896
▁Ro	-10.9897
▁لیتر	-10.9899
▁نتوانست	-10.9907
▁سرم	-10.9912
▁فرقه	-10.9912
▁انها	-10.9914
▁متقاضی	-10.9928
هایشان	-10.993
▁تاکتیک	-10.9934
!)	-10.9936
▁سید	-10.9939
▁Bo	-10.994
▁رمزنگاری	-10.9944
▁فرشتگان	-10.9944
▁گردیده	-10.9944
▁۲۰۰۸	-10.9945
▁بدیهی	-10.9945
باز	-10.9945
▁نازل	-10.9947
▁دادستان	-10.9947
▁2004	-10.9948
ga	-10.9956
▁حرفی	-10.9959
▁نتوانسته	-10.9961
▁مسیحیت	-10.9962
▁اقدامی	-10.9963
▁دوستانم	-10.9965
ay	-10.9972
▁نشین	-10.9977
▁دیدیم	-10.9979
▁نکردم	-10.9983
org	-10.9986
▁خطی	-10.999
sp	-10.9991
▁محدودی	-10.9997
▁خصوصیات	-10.9999
&	-11.0006
▁پیشتر	-11.0007
▁چاقی	-11.0007
آنها	-11.0008
▁مدافع	-11.001
▁میخواهید	-11.0017
▁سام	-11.0017
▁تصفیه	-11.002
▁خنثی	-11.002
▁ناخن	-11.002
▁شیکاگو	-11.002
▁شستشو	-11.002
▁حرام	-11.0021
▁نشوند	-11.0025
▁کافه	-11.0026
▁لکه	-11.0028
کان	-11.0032
▁داوطلبانه	-11.0035
▁تاسیسات	-11.0039
▁بک	-11.0046
انگ	-11.0047
▁آمدید	-11.005
▁مقر	-11.0056
▁انحصاری	-11.0057
▁دستاوردهای	-11.0068
ub	-11.007
خر	-11.0074
oo	-11.0076
de	-11.0081
▁تگ	-11.0084
▁گرافیک	-11.0088
▁زشت	-11.0089
ّت	-11.0089
▁امان	-11.0091
▁روبات	-11.0096
▁تعرفه	-11.0096
▁سنگاپور	-11.0096
▁رادیکال	-11.0096
▁کیلوگرم	-11.0096
▁دعوا	-11.0096
▁خدمه	-11.0096
▁ساکت	-11.0099
▁ساختمانی	-11.01
▁کوشش	-11.0103
▁نداشتیم	-11.011
va	-11.0112
70	-11.0112
▁مر	-11.0113
▁درصدی	-11.0124
▁خوانند	-11.0131
▁عطر	-11.0134
▁امضای	-11.0137
رین	-11.0138
▁My	-11.0138
ندگان	-11.0141
ab	-11.0142
!"	-11.0142
سم	-11.0145
▁رویه	-11.0151
▁ابتکار	-11.0156
▁۰	-11.0157
▁لبه	-11.0163
▁دگرگون	-11.0165
▁کمر	-11.0168
▁نتانیاهو	-11.0173
▁تمایز	-11.0173
▁پراکنده	-11.0173
اح	-11.0174
▁الزام	-11.0175
▁خاندان	-11.0176
▁نسبی	-11.0176
▁انداختن	-11.0179
▁مرگبار	-11.0181
▁الا	-11.0187
▁مؤسسه	-11.0191
▁ظاهری	-11.0193
▁l	-11.0201
هاي	-11.0202
▁خواندم	-11.0213
▁PC	-11.0215
▁سالگرد	-11.0215
▁فعالیتهای	-11.0222
▁ارزهای	-11.0228
کرد	-11.0238
ow	-11.0238
▁گمراه	-11.0243
▁هرکس	-11.0246
▁اسراییل	-11.0251
▁خبرگزاری	-11.0251
▁سوراخ	-11.0251
▁جرایم	-11.0251
▁زغال	-11.0251
▁بشکه	-11.0252
▁جملات	-11.0252
▁۲۰۱۹	-11.0253
▁نازک	-11.0254
▁عجیبی	-11.0255
po	-11.0259
مل	-11.0262
]]	-11.0275
▁اینچ	-11.0282
▁اقلیمی	-11.0293
اور	-11.0294
اره	-11.0294
▁متری	-11.0299
"،	-11.0302
=	-11.0303
▁گنج	-11.0311
▁چوبی	-11.0314
▁قفسه	-11.0316
۱۵	-11.0316
▁مایه	-11.0328
▁اذعان	-11.0329
▁اردوغان	-11.0329
▁کنوانسیون	-11.0329
▁ملحق	-11.0329
▁Windows	-11.0329
▁بعید	-11.0329
▁بارسلونا	-11.0331
▁بخورند	-11.0331
▁فرضیه	-11.0333
▁برگزیده	-11.0335
▁تایوان	-11.0337
▁وقفه	-11.0337
▁ظاهراً	-11.0341
▁کودکانی	-11.0342
▁حج	-11.0343
24	-11.0355
▁امتیازات	-11.0355
▁دکترا	-11.0359
زمان	-11.0366
▁موها	-11.037
▁تفاوتی	-11.0371
▁Sp	-11.0372
EC	-11.0373
بند	-11.0382
شا	-11.0383
▁لزوما	-11.0385
▁عصب	-11.0389
▁شه	-11.0399
یوس	-11.0405
▁انحراف	-11.0407
▁تگزاس	-11.0407
▁منظومه	-11.0407
▁پروستات	-11.0407
▁ناخالص	-11.0408
▁۲۰۰۵	-11.0408
▁جسمانی	-11.0409
▁همسایگان	-11.041
▁تولیدکنندگان	-11.0411
يل	-11.0411
▁نبودم	-11.0413
▁نکردن	-11.0415
ill	-11.0415
▁ضربان	-11.0421
▁پنل	-11.0423
age	-11.0425
▁مسیری	-11.043
▁نامید	-11.043
▁گذاشتند	-11.0438
▁پوسته	-11.0443
▁لاک	-11.0447
▁مع	-11.0448
▁کارآفرین	-11.0458
bo	-11.0458
▁۲۸	-11.0459
▁دما	-11.0464
▁آباد	-11.0485
▁University	-11.0487
▁پلاگین	-11.0487
▁پرسنل	-11.0487
▁دغدغه	-11.0488
▁World	-11.0489
▁تلفات	-11.049
▁بکنم	-11.0492
▁مجدداً	-11.0493
▁جانسون	-11.0493
▁جاوا	-11.0499
ue	-11.0502
جل	-11.0503
▁دستش	-11.0516
99	-11.052
▁بور	-11.0522
▁For	-11.0526
▁کت	-11.0535
لان	-11.0537
▁n	-11.054
کردن	-11.0545
▁مناطقی	-11.055
▁مزایا	-11.0555
▁شهردار	-11.0555
▁حدودی	-11.0563
▁تاثیرگذار	-11.0564
▁تانک	-11.0567
▁تفاهم	-11.0567
▁کاراکتر	-11.0567
▁ادراک	-11.0567
▁خالق	-11.0568
▁کلسیم	-11.0569
▁حدیث	-11.0569
▁ببخشید	-11.0569
▁ثانویه	-11.0569
▁دوگانه	-11.057
▁WEB	-11.0571
▁نهفته	-11.0571
▁نشر	-11.0572
▁لامپ	-11.0573
▁یافتند	-11.0575
ru	-11.058
▁دانی	-11.0582
▁اعلامیه	-11.0583
▁محتوایی	-11.0588
▁شناسم	-11.059
▁دختری	-11.0593
▁New	-11.0593
٠	-11.0605
لف	-11.0605
▁نفری	-11.0607
اج	-11.0607
▁روزگار	-11.0609
شت	-11.0612
▁St	-11.0614
یّت	-11.0616
▁کوچکترین	-11.0619
▁حرکتی	-11.0624
▁گذراند	-11.0624
حدود	-11.0625
▁دبیر	-11.0627
وال	-11.0631
▁No	-11.0632
▁نگهبان	-11.0636
art	-11.0638
▁مفهومی	-11.0639
▁اعضا	-11.0642
▁تداوم	-11.0647
▁محاصره	-11.0647
▁منتخب	-11.0648
▁تبریک	-11.0649
▁پارکینگ	-11.065
▁مکانیسم	-11.0653
▁حاد	-11.0654
▁زیباترین	-11.0661
▁نداشتن	-11.0673
▁شدگان	-11.0678
▁کارآفرینان	-11.0679
▁War	-11.068
مار	-11.0684
▁پرسیدم	-11.0685
▁بازه	-11.069
13	-11.0695
ment	-11.0708
▁مجزا	-11.0708
▁زدم	-11.0714
▁To	-11.0716
▁تفریح	-11.0717
نج	-11.0726
▁مختل	-11.0726
▁حشرات	-11.0729
▁رطوبت	-11.0729
▁سکته	-11.0729
▁متحمل	-11.0729
▁پنتاگون	-11.0729
▁واژن	-11.0729
▁علایم	-11.0729
▁واجب	-11.073
▁Con	-11.0731
▁بستن	-11.0731
▁همبستگی	-11.0732
▁**	-11.0736
مردم	-11.0738
▁قله	-11.0742
▁محلول	-11.0745
▁اى	-11.0747
▁زیرزمینی	-11.0748
▁مکانیک	-11.0756
sa	-11.0764
نظر	-11.0769
au	-11.0775
▁120	-11.0775
ca	-11.0775
ner	-11.0782
▁پرس	-11.0784
▁سینمایی	-11.0791
▁شناسیم	-11.0797
▁Mi	-11.0802
▁سارا	-11.0803
▁ژنتیک	-11.0809
▁مثابه	-11.0811
▁چارلز	-11.0811
▁توازن	-11.0811
▁لایحه	-11.0811
▁امتداد	-11.0811
▁ارجاع	-11.0811
ونگ	-11.0814
▁بانکداری	-11.0814
▁چاره	-11.0815
▁پودر	-11.0818
▁یابید	-11.0819
چین	-11.0824
▁HD	-11.0833
▁سل	-11.0846
▁گیم	-11.0848
▁سد	-11.0848
bu	-11.085
▁34	-11.0856
▁تأثیرات	-11.086
▁افتادن	-11.0861
افت	-11.0884
ES	-11.0887
▁مق	-11.0892
▁فیلمی	-11.0893
▁Microsoft	-11.0893
▁داوود	-11.0894
▁خارق	-11.0894
▁فتح	-11.0894
▁بحرین	-11.0894
▁عیب	-11.0895
▁گلخانه	-11.0896
۱۸	-11.0898
14	-11.0899
▁بندگان	-11.09
▁2001	-11.09
چر	-11.0901
زندگی	-11.0903
▁غالبا	-11.0907
IC	-11.0911
▁هدفمند	-11.0911
حد	-11.0915
▁دنباله	-11.0918
▁کمدی	-11.0919
▁دلش	-11.0924
▁نقشی	-11.0927
▁موثرتر	-11.0935
▁Go	-11.0936
▁بوت	-11.094
▁ایدز	-11.0942
▁کشورش	-11.0943
▁ایرانیان	-11.0948
▁پور	-11.0948
شک	-11.0952
اگ	-11.0954
▁هایمان	-11.0956
▁36	-11.0958
...»	-11.096
▁پرتو	-11.0961
▁کمکی	-11.097
▁قبر	-11.0973
خوان	-11.0975
▁نیجریه	-11.0977
▁حروف	-11.0977
▁مبهم	-11.0977
▁مجارستان	-11.0977
کال	-11.0982
ts	-11.0983
▁شناور	-11.0984
ee	-11.0985
▁بزنم	-11.0986
▁گذراندن	-11.0988
بود	-11.0988
▁قدمت	-11.0991
يي	-11.0993
▁سنگی	-11.0994
▁گرمایش	-11.0995
▁تکمیلی	-11.1001
▁کریس	-11.101
▁سودان	-11.1011
▁جن	-11.1011
▁استعفا	-11.1013
یب	-11.1023
▁مقرر	-11.1028
▁دادید	-11.1029
▁ابو	-11.1032
▁داران	-11.1034
رید	-11.104
▁نیو	-11.1042
ولی	-11.1048
▁دویدن	-11.1052
▁جادو	-11.1057
▁معدود	-11.1061
▁سوژه	-11.1061
▁رکود	-11.1061
▁تبلت	-11.1061
▁1999	-11.1061
▁فلج	-11.1062
▁غرور	-11.1062
▁بیابان	-11.1063
▁اولی	-11.1065
▁توالت	-11.1065
▁يك	-11.1068
▁طرفین	-11.1074
▁جامد	-11.1074
▁اسمیت	-11.1077
▁شیخ	-11.1083
▁PS	-11.1097
▁عزیزان	-11.1101
▁شمارش	-11.1102
ud	-11.1106
▁پدران	-11.1109
▁مردانه	-11.111
▁فاکتور	-11.1114
▁پیامی	-11.1119
▁بقا	-11.1128
▁دانسته	-11.1129
▁ایدئولوژی	-11.1129
▁احمد	-11.1135
▁جوی	-11.1137
▁مترجم	-11.1139
▁ناظر	-11.114
▁پرتغال	-11.1145
▁شجاع	-11.1145
▁ارمنستان	-11.1146
▁تقصیر	-11.1146
▁نیوزیلند	-11.1146
▁احکام	-11.1146
▁ايران	-11.1146
▁1970	-11.1146
▁خزانه	-11.1146
▁گروگان	-11.1146
▁تسکین	-11.1148
▁تقویم	-11.115
▁لطفاً	-11.115
▁الآن	-11.1151
▁تخمک	-11.1154
▁اطرافیان	-11.1154
▁نقدی	-11.1159
▁پیشبرد	-11.1159
▁شنیدم	-11.1159
▁مشت	-11.116
▁سفت	-11.1163
▁چاقو	-11.1163
▁رویم	-11.1165
▁هرگاه	-11.1166
▁برگرداند	-11.1169
▁مقدماتی	-11.117
▁بت	-11.1171
▁پانزده	-11.1173
چگونه	-11.1173
▁پوش	-11.1179
▁عموما	-11.1184
▁درمانگر	-11.1186
خور	-11.1186
▁میلیاردها	-11.1188
▁وضعیتی	-11.1192
▁کاربردهای	-11.1193
▁33	-11.1193
▁Man	-11.1198
شناسی	-11.1198
ورا	-11.1204
▁نکاتی	-11.1206
▁زنانه	-11.1208
▁۱۵۰	-11.1215
▁خفیف	-11.1231
▁دیپلمات	-11.1232
▁شیعیان	-11.1233
▁65	-11.1233
▁محتمل	-11.1233
▁سرشار	-11.1233
▁صحت	-11.1234
▁‘	-11.1234
▁نتواند	-11.1235
▁وحی	-11.1238
▁شورشیان	-11.1239
▁Car	-11.1239
▁خیابانی	-11.1241
زند	-11.1243
نمی	-11.1245
▁شهدا	-11.1249
▁پسرم	-11.1251
▁95	-11.1253
end	-11.1256
▁فراز	-11.1257
گذار	-11.1261
ty	-11.1264
▁هفتاد	-11.1265
اع	-11.1285
j	-11.1287
گذاری	-11.1288
▁بریم	-11.129
AR	-11.1293
نگر	-11.1295
حتی	-11.1298
ترا	-11.1298
▁آس	-11.1311
▁درایو	-11.1311
▁شنید	-11.1311
▁رویا	-11.1312
بله	-11.1314
▁سوابق	-11.1317
▁مجروح	-11.1317
▁کارآموزی	-11.1317
▁ذره	-11.1318
▁فلزات	-11.1323
▁تابعیت	-11.1323
▁نیامده	-11.1328
▁دن	-11.1328
▁48	-11.1331
خصوص	-11.1333
][	-11.1337
▁دستکاری	-11.1341
▁نما	-11.1342
تز	-11.1343
انند	-11.1347
▁اعتقادات	-11.1351
▁55	-11.1353
▁جوری	-11.1359
▁لخت	-11.1363
علی	-11.1371
▁مهربانی	-11.1387
▁سلولهای	-11.1389
▁هدفی	-11.1393
▁Ra	-11.1393
▁دزدی	-11.1395
▁سرپرست	-11.1399
▁ذات	-11.1403
▁موزیک	-11.1404
▁هاروارد	-11.1404
CC	-11.1405
▁افسرده	-11.1405
▁جماه	-11.1405
▁گور	-11.1408
▁صدایی	-11.1415
▁دیوان	-11.1423
18	-11.1424
▁بیولوژیکی	-11.1425
▁خواستیم	-11.1426
▁هردو	-11.1427
▁پاسخگو	-11.1428
فور	-11.1441
ير	-11.1449
▁خوار	-11.1454
▁خلقت	-11.1458
▁عصبانیت	-11.1471
mi	-11.1472
▁ویلیام	-11.1475
البته	-11.1478
▁غافل	-11.1484
▁ظلم	-11.1485
بدون	-11.1487
اسیون	-11.1487
▁بحرانی	-11.1491
▁فرماندار	-11.1492
▁مظنون	-11.1492
▁بیابید	-11.1492
▁لینوکس	-11.1492
▁استارتاپ	-11.1492
▁کابوس	-11.1492
▁بتا	-11.1493
▁فشارهای	-11.1493
▁مادربزرگ	-11.1493
▁تحلیلی	-11.1495
▁خوراک	-11.1495
▁خورید	-11.1498
▁سرما	-11.1507
▁برگه	-11.1519
یلی	-11.1528
▁اِ	-11.1528
▁عملا	-11.1533
الی	-11.1538
تنها	-11.1542
▁ببر	-11.1551
AC	-11.1558
▁قوه	-11.156
▁مح	-11.1561
▁مچ	-11.1561
رب	-11.1562
▁Ex	-11.1563
▁دوی	-11.1563
فرم	-11.1569
خواست	-11.1571
▁CO	-11.1571
▁بدانم	-11.1573
▁خواهش	-11.1574
▁Do	-11.1574
▁ديگر	-11.1575
▁%	-11.1575
▁فرانک	-11.158
▁امتناع	-11.158
▁صراحت	-11.158
▁کثیف	-11.158
▁۱۹۷۰	-11.1581
▁ختم	-11.1581
▁نوجوانی	-11.1581
▁زودرس	-11.1582
▁افزودن	-11.1583
▁قارچ	-11.1583
▁فعلا	-11.1584
▁مکانیکی	-11.1589
▁صمیمی	-11.1593
یپ	-11.1597
▁متد	-11.1599
▁ترسند	-11.1611
▁بردم	-11.1623
▁ماجرای	-11.1628
▁فرماندهی	-11.1634
▁کلا	-11.1635
▁بگیر	-11.1648
آنچه	-11.1658
▁عکاس	-11.1659
▁افزارهای	-11.1659
▁ایست	-11.1659
▁غیرنظامی	-11.166
▁منظره	-11.1668
▁نخواهم	-11.167
▁تورنتو	-11.167
▁بلوغ	-11.167
▁فواید	-11.167
▁جابجایی	-11.167
▁گمشده	-11.167
▁حتا	-11.1673
▁معاینه	-11.1673
▁مخصوصاً	-11.1675
▁شل	-11.1676
▁بدنه	-11.1676
▁ابزارها	-11.1679
وند	-11.168
▁استارت	-11.1681
▁موجودی	-11.1684
گویی	-11.1686
▁ریچارد	-11.1691
▁شورا	-11.1695
▁استادان	-11.1696
نش	-11.1699
سکی	-11.17
▁فهمیدم	-11.1704
▁خوک	-11.1709
▁خشکی	-11.1711
▁Se	-11.1712
ولا	-11.1714
25	-11.172
ear	-11.1721
▁نژادی	-11.1723
دور	-11.1729
▁سونی	-11.1734
▁نوشتم	-11.1734
▁دیکتاتوری	-11.1736
ea	-11.1738
▁پرش	-11.1741
IN	-11.1746
▁موشکی	-11.175
▁هورمونی	-11.175
do	-11.1751
▁فای	-11.1753
▁آفرید	-11.1753
▁جنایات	-11.176
▁توکیو	-11.176
▁کاپیتان	-11.176
▁رونق	-11.176
▁سقط	-11.176
▁رصد	-11.176
▁تصرف	-11.176
▁مهلت	-11.176
▁وطن	-11.1763
▁تفریحی	-11.1764
▁نامگذاری	-11.1767
▁مختصر	-11.1769
▁ترم	-11.1771
▁تار	-11.1771
ولوژی	-11.1772
▁پیدایش	-11.1773
▁Ad	-11.1782
ابی	-11.1782
▁جاهای	-11.1785
▁گا	-11.179
ai	-11.1791
▁منتقدان	-11.1791
▁گانه	-11.1792
▁دعای	-11.1801
دین	-11.1804
ick	-11.1805
▁محافظ	-11.1808
▁۱۰۰۰	-11.182
▁جلوتر	-11.182
▁پایداری	-11.1824
ix	-11.1825
رای	-11.1825
▁جهاد	-11.1833
▁تلاشی	-11.1836
▁ارتقای	-11.1836
▁تونس	-11.1838
▁باورهای	-11.1843
▁اعظم	-11.1851
▁انطباق	-11.1851
▁باقیمانده	-11.1851
▁ملزم	-11.1851
▁خمینی	-11.1851
▁قریب	-11.1851
▁تداخل	-11.1851
▁بفهمید	-11.1851
▁بسیج	-11.1851
▁قطره	-11.1851
▁بنوشید	-11.1852
▁معادن	-11.1852
▁Black	-11.1852
▁مؤسسات	-11.1853
▁بخواند	-11.1854
▁لیوان	-11.1855
▁حجاب	-11.1856
IP	-11.1856
▁پدیدار	-11.1857
▁جلد	-11.1857
▁ناشناس	-11.1858
▁حسابرسی	-11.1866
▁افسران	-11.187
▁دزد	-11.1873
▁کالاها	-11.1875
▁اثربخشی	-11.1875
▁خصوصا	-11.1878
▁ابدی	-11.1879
▁توافقی	-11.1881
۱۱	-11.1883
▁تصمیمی	-11.1886
▁شیرینی	-11.1888
▁ملا	-11.189
قه	-11.1899
▁دخترش	-11.1912
▁راهکار	-11.1924
nt	-11.193
گرا	-11.193
▁مش	-11.1937
فکر	-11.194
▁اَ	-11.1941
▁عضله	-11.1942
▁ناقص	-11.1942
▁نگیرید	-11.1942
▁عمدتاً	-11.1943
▁موسوم	-11.1943
▁نيز	-11.1944
▁فریم	-11.1944
all	-11.1944
▁ماهیچه	-11.1946
▁پناهگاه	-11.1946
▁بخورد	-11.1951
▁آسم	-11.1955
▁تل	-11.1957
بور	-11.1958
انید	-11.1958
▁هیچگونه	-11.1962
▁اصطلاحات	-11.1967
▁Web	-11.1969
▁شکی	-11.1982
داران	-11.1987
▁نیروها	-11.199
▁نهایتا	-11.1997
▁آسمانی	-11.2001
▁۳۰۰	-11.2003
▁معمار	-11.2005
مال	-11.2006
lan	-11.2009
▁منفجر	-11.2018
▁نامش	-11.2024
پیش	-11.203
ci	-11.2031
▁ارقام	-11.2035
▁تراکنش	-11.2035
▁پیراهن	-11.2035
▁پاسپورت	-11.2035
▁جناح	-11.2035
▁پناهندگی	-11.2035
▁توماس	-11.2035
▁چاله	-11.2035
▁زیتون	-11.2036
▁اورشلیم	-11.2036
han	-11.2037
▁بخوانند	-11.2037
▁واقعه	-11.2038
▁بارگذاری	-11.2042
▁استیو	-11.2043
▁صفات	-11.2044
▁دانستید	-11.2047
▁میگیرد	-11.2049
▁زنیم	-11.2052
▁اشیا	-11.206
▁نابرابری	-11.2063
▁رفتیم	-11.2068
▁دیدید	-11.2068
▁دوستانش	-11.2071
▁لنین	-11.2072
▁بنیادین	-11.2079
صد	-11.208
▁ازجمله	-11.2082
▁برادرش	-11.2082
▁شا	-11.2083
▁گشود	-11.2083
▁لیستی	-11.2088
▁مباحث	-11.2107
▁طبقاتی	-11.211
ary	-11.2112
))	-11.2119
▁جنگنده	-11.2123
ائ	-11.2124
▁دندانپزشک	-11.2126
▁App	-11.2128
▁تقدیر	-11.2128
▁سزاوار	-11.2128
▁فاطمه	-11.2128
▁مرموز	-11.2128
▁غروب	-11.2129
▁مساوی	-11.2129
▁ثمر	-11.2129
▁سوءاستفاده	-11.2129
۱۲	-11.2129
▁بسازیم	-11.2129
▁Br	-11.213
▁محتویات	-11.213
▁بفهمیم	-11.213
▁پاکسازی	-11.213
▁متکی	-11.2131
▁مسکونی	-11.2131
▁بزنیم	-11.2135
▁لرزه	-11.2135
▁2002	-11.2136
▁کیم	-11.2138
عب	-11.214
32	-11.2144
▁نوبه	-11.2147
▁نوک	-11.2152
▁دستاورد	-11.2153
▁نویسم	-11.2162
▁بخت	-11.2169
▁تیز	-11.2171
▁پین	-11.2176
عه	-11.2178
آر	-11.2181
pl	-11.2182
▁مردها	-11.2189
▁کاملی	-11.2192
▁سانتی	-11.2194
باید	-11.2201
▁طلای	-11.2209
▁آرشیو	-11.2211
رنگ	-11.2214
▁عفو	-11.2222
▁رختخواب	-11.2223
▁زیردریایی	-11.2223
▁قاعدگی	-11.2223
▁فاسد	-11.2223
▁لیسانس	-11.2223
▁اسامی	-11.2223
▁حکایت	-11.2223
▁جوایز	-11.2223
▁۱۹۸۰	-11.2223
▁حسادت	-11.2223
▁پال	-11.2223
▁ناوگان	-11.2223
لز	-11.2224
▁باریک	-11.2226
▁یون	-11.2226
▁سایز	-11.2229
▁هفتگی	-11.2231
▁کارفرما	-11.2232
▁آمدم	-11.2233
▁تقلب	-11.2233
▁تولیدکننده	-11.2234
دگی	-11.2235
▁[[	-11.2237
▁ویل	-11.2237
▁كردن	-11.2244
▁بگذار	-11.2244
روم	-11.2245
▁شناسید	-11.2249
▁مهمانان	-11.225
▁اثری	-11.2253
لون	-11.2253
MS	-11.2255
گون	-11.226
▁خرس	-11.2262
▁تع	-11.2262
ach	-11.227
▁حلی	-11.2271
▁فو	-11.2275
▁میگوید	-11.2281
ft	-11.2293
▁فرموده	-11.2299
ard	-11.2306
اه	-11.2312
ba	-11.2313
▁You	-11.2314
▁پرداختند	-11.2316
▁تریلیون	-11.2318
▁شعله	-11.2318
▁هالیوود	-11.2318
▁انجیل	-11.2318
▁شکوه	-11.2318
▁فارکس	-11.2318
▁پیکسل	-11.2319
▁ندهد	-11.2319
▁ذاتی	-11.2319
▁میرسد	-11.232
▁سهامداران	-11.2322
▁پرسد	-11.2323
اول	-11.2327
▁منحرف	-11.2327
▁قید	-11.2327
▁سنجش	-11.2328
▁بايد	-11.2328
▁داوطلبان	-11.2331
▁اور	-11.2333
▁افق	-11.2336
▁حجت	-11.2338
▁احیا	-11.2339
▁گرایانه	-11.2339
▁پخته	-11.2341
▁پنجمین	-11.2342
فروش	-11.2346
اوی	-11.2346
▁فلسفی	-11.2348
les	-11.235
▁مولکولی	-11.2354
▁افراط	-11.236
حق	-11.2361
▁39	-11.2364
17	-11.2375
▁600	-11.2376
▁ژنو	-11.2378
▁ناامیدی	-11.238
▁ویروسی	-11.2385
▁مقدم	-11.2387
500	-11.2403
زان	-11.2413
▁عطا	-11.2414
▁دال	-11.2414
▁بزودی	-11.2414
▁مسلط	-11.2414
▁تشریح	-11.2414
▁ناراضی	-11.2414
▁۲۰۰۳	-11.2415
▁تلف	-11.2418
▁85	-11.2418
▁آله	-11.2419
▁اسیر	-11.2422
▁افتند	-11.2424
▁37	-11.2425
▁نروژ	-11.2425
▁آقایان	-11.2427
مپ	-11.2438
▁اعطای	-11.2438
خوب	-11.2441
ast	-11.2441
▁سنگینی	-11.2443
▁انتشارات	-11.2461
▁منظورم	-11.2463
نور	-11.2467
پوش	-11.2469
▁پشیمان	-11.2469
▁نورون	-11.247
he	-11.2471
کتاب	-11.2471
ib	-11.2473
▁گذاشتم	-11.2481
رود	-11.2485
▁MS	-11.2486
▁نمودن	-11.2487
IT	-11.2488
▁پاها	-11.25
ik	-11.2503
ack	-11.2505
▁Com	-11.251
▁ایمپلنت	-11.2511
▁مصمم	-11.2511
▁تلگرام	-11.2511
▁مریض	-11.2512
▁غمگین	-11.2512
▁بسازند	-11.2512
▁مجاهدین	-11.2513
▁تومان	-11.2513
▁ماهیگیری	-11.2514
▁تراز	-11.2514
▁مناسبت	-11.2518
▁توئیتر	-11.2523
▁دیدنی	-11.2526
▁نماییم	-11.2526
▁شمسی	-11.253
▁همایش	-11.2531
▁نمایشی	-11.2535
▁خداحافظی	-11.2535
▁شناختن	-11.2537
▁سیا	-11.2539
جد	-11.2565
▁سنا	-11.2566
▁کشورمان	-11.2569
▁ماندند	-11.2576
▁پز	-11.2578
▁فروخت	-11.2581
الت	-11.2583
یتی	-11.2586
طر	-11.2587
ارا	-11.2589
▁کاست	-11.259
▁ترسید	-11.2592
▁بازگشته	-11.2592
▁مناظر	-11.2593
▁ادعاهای	-11.2595
▁بخشند	-11.2595
▁زمستانی	-11.2597
200	-11.2599
خا	-11.26
▁اد	-11.2602
▁شستن	-11.2606
▁شیلی	-11.2608
▁افزاید	-11.2609
▁ببندید	-11.2609
▁ربوده	-11.2609
▁وسعت	-11.2609
برنامه	-11.2609
▁۱۹۹۰	-11.261
▁عبدالله	-11.261
▁ردیف	-11.261
▁تصدیق	-11.261
▁سناتور	-11.2611
▁حرارتی	-11.2612
▁میرند	-11.2612
▁اب	-11.2614
ong	-11.2619
▁مایعات	-11.2622
▁مطمئناً	-11.2629
▁پذیرفتن	-11.2632
▁بنام	-11.2633
ey	-11.2634
سلام	-11.2638
▁خو	-11.2638
▁اساساً	-11.2644
▁گرمای	-11.2646
لن	-11.2657
so	-11.2661
▁هرچیزی	-11.2663
▁کوک	-11.2665
▁پری	-11.2668
▁رقبای	-11.267
100	-11.267
▁استقرار	-11.267
١	-11.2694
ng	-11.2698
▁Pi	-11.2703
وش	-11.2707
▁بسکتبال	-11.2708
▁تستوسترون	-11.2708
▁عناوین	-11.2708
▁فلوریدا	-11.2708
▁مسواک	-11.2708
▁معتاد	-11.2708
▁دهکده	-11.2708
▁خوشمزه	-11.2708
▁تسریع	-11.2709
▁نداره	-11.2709
▁عرق	-11.2709
▁پیانو	-11.2709
▁العمل	-11.2709
▁فوراً	-11.271
▁فیلمبرداری	-11.271
▁بنویسم	-11.2713
پرس	-11.2713
▁استرالیایی	-11.2714
▁کاغذی	-11.2716
▁آلت	-11.2717
mon	-11.2717
▁امگا	-11.2718
▁گرافیکی	-11.272
▁پایبند	-11.2723
▁ناچیز	-11.2724
▁یکسانی	-11.2728
▁اتصالات	-11.273
BA	-11.2732
▁پوشه	-11.2735
▁2)	-11.2743
▁رسیدیم	-11.2749
▁عمیقی	-11.275
▁ــ	-11.2764
▁حکومتی	-11.2765
▁مقرو	-11.2765
زون	-11.277
ّی	-11.2788
▁نخ	-11.2793
▁راهکارهای	-11.2794
فقط	-11.2795
▁دندانپزشکی	-11.2799
▁ته	-11.2805
فو	-11.2806
▁تحقیر	-11.2808
▁تفکیک	-11.2808
▁درازمدت	-11.2808
▁مسایل	-11.2808
▁اینک	-11.281
▁منته	-11.281
▁درآورد	-11.281
▁کشاورز	-11.281
غیر	-11.281
▁پانل	-11.2811
▁سرنشین	-11.2812
▁زدایی	-11.2815
▁بازاریابان	-11.2815
27	-11.2816
▁پیتزا	-11.2819
▁دائما	-11.2821
▁اسکی	-11.2825
ژن	-11.2831
▁کوانتومی	-11.2835
▁نویسان	-11.2835
▁پرت	-11.2837
ِن	-11.2841
▁معنایی	-11.2841
▁بارش	-11.2842
▁بلندتر	-11.2849
▁k	-11.2849
▁ث	-11.2851
▁وزنه	-11.2851
▁دیوارهای	-11.2856
▁بدنتان	-11.2857
▁سنسور	-11.2858
▁Lo	-11.2863
▁44	-11.2866
AP	-11.2873
ide	-11.2878
▁شگفتی	-11.2884
▁حمایتی	-11.2886
▁تفنگ	-11.2889
▁تعالی	-11.2891
23	-11.2898
اط	-11.2903
▁تعاملی	-11.2904
▁شوهرش	-11.2905
▁قاطع	-11.2907
21	-11.2909
▁اسکات	-11.291
▁گذرنامه	-11.291
▁اسطوره	-11.291
▁نيست	-11.2911
▁لغت	-11.2912
▁بخشش	-11.2914
▁IT	-11.2916
▁اسکار	-11.2919
▁خوانیم	-11.2919
▁كن	-11.2919
▁اوپک	-11.2921
▁غذاهایی	-11.2922
▁بیداری	-11.2923
▁Ne	-11.2924
▁لوگو	-11.2928
▁بان	-11.2928
۰۰	-11.293
▁شایعات	-11.293
▁نکنم	-11.2931
▁هیل	-11.2935
▁خوابی	-11.2935
▁۲۰۰۱	-11.294
تک	-11.2941
▁داروهایی	-11.2942
▁کشاند	-11.2943
▁مربیان	-11.2943
۱۴	-11.2945
▁--	-11.2951
ome	-11.2958
we	-11.2962
▁گریز	-11.2972
▁ریو	-11.298
▁خوشه	-11.2986
▁نیازها	-11.2987
ice	-11.2998
گاهی	-11.2999
▁پدربزرگ	-11.2999
▁صدق	-11.3002
▁مجری	-11.3005
▁چاق	-11.3008
▁اصفهان	-11.3011
▁بلغارستان	-11.3011
▁سرماخوردگی	-11.3011
▁غیرمنتظره	-11.3011
▁مواضع	-11.3011
▁↑	-11.3011
▁تعوی	-11.3012
▁نشنید	-11.3012
▁روزرسانی	-11.3012
▁تکلیف	-11.3012
▁مبلمان	-11.3013
▁کلینیک	-11.3013
▁قصر	-11.3015
▁شکن	-11.3016
ریک	-11.3017
▁درنظر	-11.3019
▁بشه	-11.3028
▁۶۵	-11.3028
▁38	-11.303
▁عروسک	-11.303
حی	-11.3032
▁تابش	-11.3034
▁نیافته	-11.3037
▁انتها	-11.3038
▁کشنده	-11.3043
توان	-11.3044
▁بنای	-11.3045
▁چکار	-11.3046
▁یارانه	-11.3052
▁تخته	-11.3055
▁ریه	-11.3055
▁قطبی	-11.3057
▁بخشیده	-11.3064
ob	-11.3064
خان	-11.3064
▁رسما	-11.3066
▁معاملاتی	-11.3077
▁مهدی	-11.3077
▁۲۹	-11.3087
)؛	-11.3089
▁گیرم	-11.3091
یزه	-11.3097
▁شاگرد	-11.3102
▁سئوال	-11.3106
▁منکر	-11.3108
▁1)	-11.3112
آل	-11.3112
▁مشاهدات	-11.3114
▁منصوب	-11.3114
▁حیاط	-11.3115
▁مسخره	-11.3115
▁بعلاوه	-11.3115
▁آبشار	-11.3115
▁فتنه	-11.3115
vi	-11.3115
▁فرستد	-11.3116
28	-11.3119
▁نیوز	-11.3122
▁همسران	-11.3127
▁محققین	-11.3128
▁سلطنت	-11.3133
▁سوئدی	-11.314
ps	-11.3142
NA	-11.3143
ance	-11.3146
▁پذیرند	-11.3148
▁انجامد	-11.315
▁مری	-11.3153
اله	-11.3166
شوند	-11.3172
▁r	-11.3176
ou	-11.319
iv	-11.3191
▁250	-11.3195
PS	-11.3196
vo	-11.3197
▁مهمانی	-11.3199
▁Red	-11.3201
ran	-11.3215
يا	-11.3216
▁عارضه	-11.3219
▁تنبیه	-11.3219
▁مانیتور	-11.3219
▁→	-11.3219
▁شایستگی	-11.3219
▁1960	-11.322
▁بازبینی	-11.3221
▁معترضان	-11.3223
▁سوق	-11.3226
▁سلمان	-11.3226
▁آکادمیک	-11.3228
▁مردگان	-11.3234
▁کشیش	-11.3236
IA	-11.3237
▁Ka	-11.324
▁تعاملات	-11.3241
log	-11.3241
رام	-11.3249
▁باخت	-11.325
▁سای	-11.3252
لک	-11.3253
▁ذیل	-11.3255
▁دخترم	-11.3255
▁کیفری	-11.3258
وتی	-11.3261
▁کناره	-11.3268
▁مصری	-11.3271
our	-11.3279
وین	-11.328
▁راستش	-11.3281
وپ	-11.3281
▁بارز	-11.3286
:"	-11.3291
▁بازنده	-11.3294
▁بازیگری	-11.3295
▁دشمنی	-11.3304
▁مراجع	-11.3307
▁کلان	-11.3317
▁کودکتان	-11.3319
▁حدودا	-11.3321
tra	-11.3321
▁معلول	-11.3322
▁اسکریپت	-11.3324
▁غلظت	-11.3324
▁یوتیوب	-11.3324
▁تقدیم	-11.3324
▁دمشق	-11.3324
▁عظمت	-11.3324
▁ارواح	-11.3324
▁شلوار	-11.3324
▁بپذیرید	-11.3324
▁اعلان	-11.3325
▁CD	-11.3327
▁خیریه	-11.3328
▁شفا	-11.3329
▁غیبت	-11.333
▁تحلیلگران	-11.3332
▁نر	-11.3335
▁پردازیم	-11.3335
▁کنجکاوی	-11.3338
▁سالیانه	-11.3339
▁قا	-11.3341
▁سکس	-11.3344
▁پرستاری	-11.335
مور	-11.335
▁خواهران	-11.3352
▁تقوا	-11.3353
نشین	-11.3354
یج	-11.3354
▁خاکستری	-11.3365
▁هرج	-11.337
ite	-11.3378
▁دوستانتان	-11.3379
▁التحصیلی	-11.338
▁مرزها	-11.3384
▁بازگو	-11.3384
1)	-11.3388
▁گزارشات	-11.3392
ure	-11.3393
▁خوردند	-11.3401
▁الم	-11.3408
▁43	-11.3409
ake	-11.3409
▁Vi	-11.3414
—	-11.3416
▁پسند	-11.3416
▁فراخوان	-11.3419
▁ارباب	-11.3419
▁۱٫	-11.342
▁میمون	-11.3421
▁مجرمان	-11.3422
▁w	-11.3422
▁آمیزی	-11.3425
اده	-11.3426
▁وجوه	-11.3427
▁گلو	-11.3429
▁آلزایمر	-11.343
▁مدیترانه	-11.343
▁زیارت	-11.343
▁پیکربندی	-11.343
▁جنایی	-11.3432
▁ارگانیک	-11.3433
▁شمع	-11.3433
قبل	-11.3435
ساله	-11.3437
▁رسانند	-11.3438
▁خانمان	-11.3438
▁پرسند	-11.3441
کاران	-11.3441
▁مزه	-11.3445
▁بقای	-11.345
ec	-11.345
▁مطبوعات	-11.3454
▁برگرفته	-11.3454
▁کین	-11.3457
▁ثباتی	-11.3459
▁نهاده	-11.3459
▁بدو	-11.346
▁خر	-11.3462
▁کات	-11.3467
ژی	-11.3471
▁فیلسوف	-11.3473
▁All	-11.3488
زل	-11.3489
▁دورتر	-11.3489
▁دامن	-11.3496
▁آفرین	-11.3504
▁گان	-11.3505
▁حول	-11.3508
▁فور	-11.352
▁ذهنیت	-11.3529
داشت	-11.353
▁تنفسی	-11.3532
▁ذی	-11.3532
▁حومه	-11.3538
▁مدیتیشن	-11.3538
▁سرچشمه	-11.3538
▁ناچار	-11.3538
▁بیاموزید	-11.3538
▁مخزن	-11.3538
▁بازجویی	-11.354
▁هیچکدام	-11.3541
▁بازده	-11.3544
▁آشکارا	-11.3546
▁پرستش	-11.3548
▁طلبی	-11.3549
oc	-11.355
▁Ar	-11.355
-20	-11.3551
▁مصرفی	-11.3554
▁كم	-11.3554
▁فلان	-11.3557
29	-11.3558
▁ایام	-11.356
▁Li	-11.3565
▁امپراطوری	-11.3566
▁گذارم	-11.3574
▁موازی	-11.3575
ستی	-11.3575
▁بدم	-11.3578
▁فسیلی	-11.3579
▁قدرتی	-11.358
▁چسب	-11.358
▁اکسیدان	-11.3587
▁محاسباتی	-11.359
▁بستری	-11.3594
▁تون	-11.3596
ناک	-11.3601
▁(1)	-11.3603
▁تاجر	-11.3605
▁آیتم	-11.3606
▁شخصا	-11.3607
38	-11.3608
mer	-11.3626
▁نیکی	-11.3633
ost	-11.3637
▁آرزوهای	-11.3639
▁سپاس	-11.3643
▁منشأ	-11.3647
▁کاندوم	-11.3647
▁طنز	-11.3647
▁اقلام	-11.3647
▁کبک	-11.3647
▁کفایت	-11.3647
▁Mac	-11.3648
ff	-11.3649
▁معرفت	-11.3653
▁علنی	-11.3656
▁بهشتی	-11.3658
▁برندهای	-11.3662
لي	-11.3662
nc	-11.3665
▁توهم	-11.3665
پول	-11.3667
▁پن	-11.367
ster	-11.3672
▁فلش	-11.3672
able	-11.3674
دارد	-11.3676
▁نشدند	-11.3676
▁فهمیدن	-11.3679
▁توست	-11.3681
▁99	-11.3684
ave	-11.3689
▁شوهرم	-11.3691
▁مرج	-11.3695
mm	-11.3697
▁سوسیالیستی	-11.3699
رق	-11.3699
▁نیاورد	-11.37
▁ابری	-11.3703
▁عددی	-11.3706
▁محصولی	-11.3714
▁ادبی	-11.3717
▁47	-11.372
تواند	-11.3722
▁آورم	-11.3736
ST	-11.374
▁کنجکاو	-11.3741
▁نشت	-11.3746
▁پشتی	-11.3747
ah	-11.375
▁کوکی	-11.3751
▁نیل	-11.3753
ox	-11.3755
}	-11.3756
▁Next	-11.3756
▁آلومینیوم	-11.3756
▁تناسلی	-11.3756
▁بروکسل	-11.3756
▁جماعت	-11.3756
▁تبیین	-11.3757
▁۱۹۶۰	-11.3757
▁مسافت	-11.3757
▁بوستون	-11.3757
خوش	-11.3761
▁<	-11.3761
۳۰	-11.3762
▁Air	-11.3762
▁Apple	-11.3763
▁ببین	-11.3763
آب	-11.3767
▁مشی	-11.377
95	-11.3772
▁اورژانس	-11.3782
بهترین	-11.3782
▁نتوان	-11.3787
▁گله	-11.3788
AT	-11.3794
▁تبار	-11.3801
ستون	-11.3806
▁تف	-11.3808
دوست	-11.381
کول	-11.3811
▁قراردادی	-11.382
▁طبقات	-11.3824
کات	-11.3826
▁ایزو	-11.3826
▁امت	-11.3829
▁تح	-11.3831
35	-11.3832
▁اک	-11.3833
َّ	-11.3834
▁حماس	-11.3835
▁گردان	-11.3836
زید	-11.3842
بن	-11.3842
CA	-11.3851
گرایی	-11.3856
٧	-11.3864
تمام	-11.3866
▁مشمول	-11.3868
▁متابولیسم	-11.3868
▁بسيار	-11.3868
▁دخیل	-11.3868
▁مزارع	-11.3868
▁بنگلادش	-11.3868
▁تصویربرداری	-11.3868
▁براون	-11.3869
▁۷۵	-11.387
▁تراشه	-11.3873
▁حفره	-11.3873
▁داوران	-11.3873
▁ادیان	-11.3873
▁درحالیکه	-11.3875
▁لن	-11.3876
▁جلال	-11.3877
▁ناب	-11.3877
▁شعبه	-11.3877
زاده	-11.3878
▁شکستگی	-11.3882
▁کروز	-11.3883
▁انجامید	-11.3883
▁فهمند	-11.3883
▁عمیقا	-11.3887
▁۲٫	-11.389
▁استثنا	-11.3893
▁نگارش	-11.3897
▁سران	-11.3907
▁گارد	-11.3914
وو	-11.3918
مد	-11.3918
▁نیکو	-11.3924
▁مسی	-11.3924
SA	-11.3927
OR	-11.3933
▁راهبردی	-11.3934
▁گفتگوی	-11.3936
tin	-11.3937
▁استروئید	-11.3938
▁or	-11.3938
▁ساعتی	-11.3941
▁ملیت	-11.3941
انس	-11.3941
یکا	-11.3943
▁بلاگ	-11.3944
▁نگرفت	-11.3947
ریس	-11.3947
▁عزیزم	-11.3949
▁رسان	-11.3949
▁سوزاند	-11.395
▁قاب	-11.3959
▁افزون	-11.3964
▁Ho	-11.3964
▁برترین	-11.3966
ایران	-11.3972
▁هارد	-11.3976
▁کامپیوترهای	-11.3978
▁بنیانگذار	-11.3979
تخصیص	-11.398
▁آپلود	-11.398
▁اجلاس	-11.398
▁ضمانت	-11.398
▁مسالمت	-11.398
▁مواظب	-11.398
▁هجوم	-11.398
▁هضم	-11.398
▁مجلات	-11.398
عطوف	-11.398
▁مساحت	-11.398
▁مثانه	-11.398
▁شریف	-11.398
▁زوال	-11.3982
▁ارگان	-11.3982
▁کارل	-11.3984
▁توییت	-11.3987
▁Ha	-11.3988
▁مراکش	-11.3988
▁دریافتی	-11.3989
ِل	-11.3993
ov	-11.3994
شدن	-11.3994
▁تبعید	-11.3995
▁تسهیلات	-11.3995
▁برگردد	-11.3996
ess	-11.4002
اسه	-11.4006
-5	-11.4006
▁موس	-11.4007
▁امپراتور	-11.4008
tic	-11.4026
▁جت	-11.4028
PA	-11.4028
▁اینست	-11.4035
▁ندا	-11.4039
▁باروری	-11.4039
▁ابن	-11.4042
▁مامان	-11.4049
fe	-11.4054
▁رومی	-11.406
▁میشد	-11.4061
pa	-11.4069
ver	-11.4072
ویل	-11.4072
▁رفتارها	-11.4075
▁باراک	-11.4077
▁64	-11.4079
min	-11.4081
▁سور	-11.4085
▁As	-11.4088
port	-11.4089
▁موضعی	-11.4091
é	-11.4093
▁آنفولانزا	-11.4093
▁حائز	-11.4093
▁طلوع	-11.4093
▁پرولتاریا	-11.4093
▁کپسول	-11.4094
▁تعدیل	-11.4094
▁بشنوید	-11.4094
▁Business	-11.4095
▁عاقلانه	-11.4095
▁سوختگی	-11.41
▁بکنیم	-11.4101
▁تخیل	-11.4102
انداز	-11.4103
▁بزرگراه	-11.4106
▁دانستیم	-11.4108
هایش	-11.4108
▁کیلو	-11.4114
ator	-11.4114
▁نت	-11.4117
▁هرحال	-11.4118
▁بزرگسالی	-11.4119
▁قطعیت	-11.4123
▁تأثیرگذار	-11.4124
▁برخوردارند	-11.4125
▁ساختند	-11.4129
▁?	-11.413
str	-11.4132
▁دومی	-11.4132
ni	-11.4134
▁امین	-11.4138
▁میلان	-11.4145
▁معماران	-11.415
▁کشش	-11.4151
2)	-11.4155
▁پروازهای	-11.4155
row	-11.4155
ies	-11.416
▁کمونیستی	-11.4182
گروه	-11.4185
خیلی	-11.4195
▁اختیاری	-11.4197
▁گوسفند	-11.4201
ائو	-11.4202
ٌ	-11.4208
▁اصحاب	-11.4208
▁نخبگان	-11.4208
▁مبادلات	-11.4208
▁پاراگراف	-11.4209
▁وگرنه	-11.4209
▁آیکون	-11.4209
▁PHP	-11.4209
▁الیزابت	-11.4209
▁کمربند	-11.4209
▁بازپرداخت	-11.421
▁نوکیا	-11.421
▁بارانی	-11.4212
▁سبد	-11.4214
▁ویکی	-11.4222
▁کابینه	-11.4224
▁سواد	-11.4225
ial	-11.4227
سری	-11.4229
▁We	-11.423
▁سالمندان	-11.4231
▁پرسیدند	-11.4232
▁فرایندهای	-11.4236
ندگی	-11.4237
▁دیکتاتور	-11.424
▁تهاجم	-11.4241
▁Star	-11.4243
▁نظارتی	-11.4247
▁مسئولین	-11.4252
▁آلی	-11.4254
▁رویایی	-11.4255
گردان	-11.4256
▁گرین	-11.4259
land	-11.426
▁Ba	-11.4262
▁Sh	-11.4262
خو	-11.4265
مرد	-11.4266
▁برکت	-11.4271
▁انسانیت	-11.4275
▁برن	-11.4281
▁٢	-11.4287
بعد	-11.4288
مس	-11.4288
▁ابزارهایی	-11.429
▁کاوش	-11.4292
TS	-11.4293
▁کفر	-11.4293
وئید	-11.4299
▁ناتوان	-11.4303
si	-11.4303
▁شدیدتر	-11.431
تحول	-11.4313
▁o	-11.4314
▁سینمای	-11.4314
هٔ	-11.4319
ka	-11.432
▁دیپلم	-11.4321
▁مأمور	-11.4322
▁پارلمانی	-11.4322
ler	-11.4323
▁دادگستری	-11.4325
▁Android	-11.4325
▁تکثیر	-11.4325
▁فانتزی	-11.4325
▁مجتمع	-11.4325
▁مقصود	-11.4325
▁چمدان	-11.4325
▁تزئین	-11.4325
▁لثه	-11.4325
▁بورژوازی	-11.4325
▁گردآوری	-11.4325
▁مجرد	-11.4325
▁۲۰۰۷	-11.4326
▁کمان	-11.4326
▁تخمدان	-11.4326
▁گستره	-11.433
▁یادبود	-11.433
▁گزارشگر	-11.4338
BS	-11.4343
▁عینی	-11.4346
▁هلندی	-11.4348
▁جر	-11.4349
ish	-11.435
▁هاشمی	-11.4351
▁چشمه	-11.4352
ونا	-11.4353
▁الکترون	-11.4354
▁سفری	-11.4355
الا	-11.4356
▁سودآور	-11.4358
▁میرد	-11.4361
▁وسطی	-11.4364
che	-11.4369
کور	-11.437
ect	-11.4371
▁Su	-11.4374
Re	-11.4378
خواه	-11.4401
▁کارگیری	-11.4401
▁کدهای	-11.4402
net	-11.4406
▁یازده	-11.4409
دام	-11.441
ُر	-11.441
▁توانمندی	-11.4411
ley	-11.4412
▁اسمش	-11.4421
▁فک	-11.4421
▁سیاستمدار	-11.4424
▁هریک	-11.4427
▁بااین	-11.4428
تال	-11.4432
گز	-11.4434
▁معصوم	-11.4436
▁توقع	-11.4439
▁بالستیک	-11.4442
▁بیهوده	-11.4442
▁شركت	-11.4442
▁هپاتیت	-11.4442
▁شانگهای	-11.4442
▁صخره	-11.4442
▁تهویه	-11.4442
▁1998	-11.4443
▁1996	-11.4443
▁شنوید	-11.4443
▁حباب	-11.4443
▁شنود	-11.4444
▁سوسیالیسم	-11.4444
▁GPS	-11.4444
▁خیز	-11.4444
▁استناد	-11.4445
▁سناریو	-11.4445
▁امضاء	-11.4445
▁پرفروش	-11.4446
▁میانمار	-11.4449
▁ماموران	-11.4451
چا	-11.4451
▁42	-11.4452
▁نمایی	-11.4453
▁محکومیت	-11.4456
▁Ch	-11.4457
▁معتقدیم	-11.4459
▁بگذارم	-11.4459
▁آموزد	-11.446
▁نمیتواند	-11.4468
بت	-11.4473
▁لاغر	-11.4475
▁عروق	-11.4476
▁نمایشگر	-11.4482
▁آلن	-11.4487
▁استالین	-11.4492
شر	-11.4494
▁بز	-11.4497
پن	-11.4498
▁مباد	-11.4504
▁اُ	-11.451
▁جابه	-11.4513
▁قدرتمندی	-11.4518
▁رس	-11.452
▁نزدیکتر	-11.4529
٢	-11.4537
▁کارفرمای	-11.454
▁چیه	-11.4541
▁یاران	-11.4545
▁He	-11.4547
▁توانمند	-11.4549
كه	-11.455
▁تجهیز	-11.4557
▁مشخصه	-11.456
غال	-11.4561
▁امیرالمؤمنین	-11.4561
▁انفرادی	-11.4561
▁باورنکردنی	-11.4561
▁سلیقه	-11.4561
▁مناقشه	-11.4561
▁▪	-11.4561
▁اشباع	-11.4561
▁استروژن	-11.4561
▁حریف	-11.4562
▁مبدل	-11.4562
▁خلوت	-11.4562
▁صلاح	-11.4562
▁غیرفعال	-11.4562
▁ذوب	-11.4562
▁بپذیرد	-11.4562
▁۲۰۰۶	-11.4562
▁وجدان	-11.4562
▁Super	-11.4563
▁آرم	-11.4563
▁جرج	-11.4563
▁پرداختن	-11.4563
▁بازگردد	-11.4564
ight	-11.4568
▁مسافرتی	-11.4569
▁امداد	-11.457
45	-11.4571
▁مایک	-11.4572
بیا	-11.4573
▁کجای	-11.4575
▁عمان	-11.4576
▁مدافعان	-11.4576
▁کیهان	-11.4579
▁گروههای	-11.4584
▁كردند	-11.4585
▁جوهر	-11.4587
▁اسپری	-11.4589
▁پولدار	-11.4594
گرفته	-11.4595
51	-11.4596
▁ناو	-11.4597
▁اتو	-11.4598
▁شانسی	-11.46
St	-11.4605
سار	-11.4608
▁خدایا	-11.4618
سته	-11.4619
▁عبارتی	-11.4631
حال	-11.4632
▁ذهنم	-11.4642
▁توریستی	-11.4645
con	-11.465
▁ریخت	-11.4654
▁کارم	-11.466
شناس	-11.4662
شب	-11.4664
▁حافظ	-11.4666
4)	-11.4666
CS	-11.4666
▁51	-11.4666
آور	-11.4666
٩	-11.4668
▁ناشر	-11.4671
0000	-11.4671
امروز	-11.4672
▁نداری	-11.4676
rs	-11.4678
ana	-11.468
▁اسماعیل	-11.4682
▁فستیوال	-11.4682
▁مشروط	-11.4682
▁مقوله	-11.4682
▁رفیق	-11.4682
▁ممكن	-11.4682
▁الجزایر	-11.4682
▁نصیب	-11.4682
▁رجوع	-11.4683
▁معلولیت	-11.4684
7)	-11.4684
▁رویدادها	-11.4685
▁ملایم	-11.4686
▁41	-11.4687
▁Open	-11.4688
▁نخورده	-11.4692
اچ	-11.4696
▁نمي	-11.4698
زار	-11.4698
▁كنم	-11.4698
▁فیلمنامه	-11.47
▁کویت	-11.47
▁زنید	-11.4701
▁میدانید	-11.4702
بیش	-11.4705
ven	-11.4707
▁بیکار	-11.4713
▁موقتی	-11.4715
▁سازید	-11.4716
▁صالح	-11.4718
يان	-11.4731
▁دوبار	-11.4738
باشد	-11.4739
▁آوردم	-11.4739
▁st	-11.474
▁گفتید	-11.4751
▁نوروز	-11.4751
▁أ	-11.4752
وکس	-11.4755
اکس	-11.4757
▁جاه	-11.476
▁ناکام	-11.4768
▁ارزشی	-11.4768
استفاده	-11.4771
-3	-11.4776
▁مبارز	-11.4778
pt	-11.478
▁اندرو	-11.4783
▁مردانی	-11.479
تونه	-11.479
by	-11.4792
▁گذاریم	-11.4794
▁عبدال	-11.4796
DA	-11.4798
▁فرزندش	-11.4799
▁یانگ	-11.48
▁صدام	-11.4804
▁اتوماسیون	-11.4804
▁اخطار	-11.4804
▁بفهمند	-11.4804
▁حفاری	-11.4804
▁مداخلات	-11.4804
▁اطفال	-11.4804
▁درنهایت	-11.4804
▁مکتب	-11.4804
▁غیرمستقیم	-11.4804
▁اخوان	-11.4805
▁جهات	-11.4806
▁گیتس	-11.4807
▁CSS	-11.4807
▁لقب	-11.4807
رات	-11.4807
سیل	-11.4818
▁عکاسان	-11.4818
▁خوشبخت	-11.4821
▁شیک	-11.4825
▁اپرا	-11.4826
▁بدهکار	-11.4828
ایم	-11.4829
▁مامور	-11.4829
LE	-11.4834
اتور	-11.4835
نفر	-11.4838
نویس	-11.4841
میر	-11.4843
▁یار	-11.4843
▁توریست	-11.4844
▁کانون	-11.4844
▁اپراتور	-11.4847
▁ورزشکار	-11.4847
لیل	-11.4849
▁درهم	-11.4854
زاد	-11.4854
حل	-11.4856
▁روال	-11.4864
▁شین	-11.4867
▁قر	-11.4867
نان	-11.4873
بیت	-11.4874
▁همانا	-11.4881
▁گرفتید	-11.4883
▁روتر	-11.4885
▁El	-11.4885
▁مول	-11.4891
▁عروقی	-11.4892
▁بزن	-11.4895
▁1.5	-11.4896
نوس	-11.4913
▁نویسند	-11.4919
یگ	-11.4923
▁اتباع	-11.4927
▁صابون	-11.4927
▁منفعت	-11.4927
▁گلوکز	-11.4927
▁نامرئی	-11.4927
▁اکوسیستم	-11.4927
▁دکوراسیون	-11.4927
▁کوچولو	-11.4927
▁کریستال	-11.4927
▁زامبی	-11.4928
▁1989	-11.4928
▁سانسور	-11.4928
▁تلفظ	-11.4928
▁مسمومیت	-11.4928
▁مخارج	-11.4928
▁برگردید	-11.4929
▁۴۰۰	-11.4932
وارد	-11.4935
▁لحن	-11.4936
▁بلیت	-11.4936
▁غافلگیر	-11.4939
▁پستی	-11.4942
▁آرایشی	-11.4945
▁عملکردهای	-11.4947
▁Mar	-11.4948
▁آشامیدنی	-11.4948
▁اسپم	-11.4948
▁عمو	-11.4951
بندی	-11.4963
▁شیطانی	-11.4966
▁هکرها	-11.4975
▁تکنولوژیکی	-11.4977
mp	-11.4981
▁پیک	-11.4992
75	-11.4993
▁برپا	-11.4997
▁Cl	-11.4998
جور	-11.4998
ence	-11.5003
تار	-11.5007
▁عمد	-11.5008
▁فال	-11.5008
▁کامپیوترها	-11.5008
▁بزرگان	-11.5012
▁سوپ	-11.5016
▁منوی	-11.5019
▁نگفت	-11.5021
▁جمعیتی	-11.5021
▁مشترکی	-11.5024
▁فون	-11.5026
▁کابین	-11.503
▁مؤمن	-11.5031
▁کرای	-11.5033
▁حامل	-11.5035
▁کاپ	-11.5044
اوا	-11.5046
▁II	-11.5049
▁سوزن	-11.5049
▁جناب	-11.505
▁خطری	-11.505
▁خطاهای	-11.505
▁جابجا	-11.5052
▁سوسیال	-11.5052
if	-11.5052
▁شریعت	-11.5052
▁ناگزیر	-11.5052
▁نزاع	-11.5052
▁توابع	-11.5052
▁نصیحت	-11.5052
▁ایسلند	-11.5052
▁شفاهی	-11.5052
▁چيز	-11.5053
▁الکساندر	-11.5053
▁بفرستید	-11.5054
▁Free	-11.5055
▁ریختن	-11.5055
▁حسب	-11.5056
▁مندی	-11.5057
In	-11.5059
ier	-11.506
▁حالات	-11.5061
▁دگرگونی	-11.5065
▁خوریم	-11.5067
ya	-11.5068
▁کوهستان	-11.5069
▁گول	-11.5071
▁همگانی	-11.5074
▁امپریالیستی	-11.5076
▁شوق	-11.509
▁فنلاند	-11.5092
▁خونه	-11.5099
▁جنب	-11.5101
▁مادرید	-11.5103
▁میاد	-11.5104
▁ترسد	-11.5105
▁پرسیدن	-11.5107
SE	-11.511
ON	-11.5111
▁اومد	-11.5114
ium	-11.5115
▁کردستان	-11.5115
▁کلامی	-11.512
RI	-11.5121
▁زهرا	-11.5132
▁درود	-11.5134
▁درگاه	-11.5135
▁46	-11.5135
كن	-11.5143
▁مبلغی	-11.5149
آموز	-11.5153
▁لین	-11.5159
▁سوزان	-11.5168
بیل	-11.5171
توس	-11.5174
▁پیشروی	-11.5175
▁موعظه	-11.5179
▁اهالی	-11.5179
▁فرنگی	-11.5179
▁استقامت	-11.5179
▁تراکم	-11.5179
▁پناهجویان	-11.5179
▁پائین	-11.518
▁پیرمرد	-11.518
▁1950	-11.5181
▁سیارات	-11.5182
▁سهمی	-11.5182
▁عدالتی	-11.5184
▁فرستادن	-11.5184
▁آلفا	-11.5188
▁گندم	-11.5189
▁برگردم	-11.5189
▁نارس	-11.519
▁پایینی	-11.5191
▁خوانم	-11.5191
▁نرفته	-11.5194
ایش	-11.5194
▁Pa	-11.5194
پذیر	-11.5195
▁بنگاه	-11.5195
▁آنچنان	-11.5197
▁احمدی	-11.5197
▁ساکنین	-11.5198
▁میکرد	-11.5199
▁ثروتمندان	-11.5201
▁حزبی	-11.5202
▁خبرهای	-11.5203
▁راههای	-11.5207
▁مطالبات	-11.5208
▁جاهایی	-11.521
act	-11.522
وط	-11.5238
▁انتقادات	-11.5238
آی	-11.524
▁تدریجی	-11.5243
▁جیم	-11.5247
وما	-11.5247
▁مینی	-11.5249
▁دیواره	-11.5256
▁نیا	-11.5256
ریل	-11.526
▁الع	-11.5269
▁بين	-11.5271
▁کاران	-11.5273
▁میده	-11.5274
ID	-11.5291
▁زنبور	-11.5293
تغییر	-11.5293
▁الکس	-11.5293
خداوند	-11.5293
پو	-11.5295
▁صفت	-11.5295
▁خاصیت	-11.5297
عا	-11.5298
▁بردار	-11.5302
AL	-11.5304
▁احداث	-11.5307
▁دپارتمان	-11.5307
▁سیلیکون	-11.5307
▁غفلت	-11.5307
▁قاشق	-11.5307
▁مفاصل	-11.5307
▁چندگانه	-11.5307
▁كتاب	-11.5307
▁هندوستان	-11.5307
▁نمرات	-11.5307
▁تصحیح	-11.5307
▁اکشن	-11.5308
▁مکانیزم	-11.5309
▁Post	-11.5309
▁آذر	-11.531
▁زو	-11.531
▁فار	-11.5312
▁کهنه	-11.5318
▁بویژ	-11.5319
cl	-11.532
▁نکردنی	-11.5322
▁ژ	-11.5322
▁بزرگوار	-11.5324
▁کول	-11.5325
▁فعل	-11.533
▁فهمد	-11.5332
▁Gu	-11.5336
den	-11.5338
▁عثمانی	-11.5341
▁امتحانات	-11.5343
▁تونم	-11.5344
باد	-11.5346
▁فرزندانشان	-11.5349
لب	-11.535
کام	-11.5352
فه	-11.5353
▁سریعا	-11.5361
▁هول	-11.5361
▁تکنیکی	-11.5384
▁گشته	-11.5384
بول	-11.5388
▁عاملی	-11.5392
▁پارامتر	-11.5401
▁همون	-11.5404
▁كشور	-11.5405
▁ترفند	-11.5406
▁6-	-11.5407
▁شهرک	-11.5408
▁سازیم	-11.5409
▁ارزشمندی	-11.5416
▁Auto	-11.5423
جایی	-11.5424
▁خودروها	-11.5425
▁سوزاندن	-11.5432
▁ایستاد	-11.5434
▁پد	-11.5435
▁بدافزار	-11.5437
▁سلطان	-11.5437
▁محموله	-11.5437
▁مکالمات	-11.5437
▁پارکینسون	-11.5437
▁خرگوش	-11.5437
▁ولتاژ	-11.5437
▁آسایش	-11.5437
▁1994	-11.5437
▁LED	-11.5438
▁بیاوریم	-11.5438
▁خشنود	-11.5438
▁دمکراسی	-11.5438
▁رونالدو	-11.5439
▁پیشینه	-11.5439
▁چاه	-11.5439
▁ایستادن	-11.544
33	-11.5441
▁FDA	-11.5441
▁دوزخ	-11.5443
▁فضانوردان	-11.5447
▁ندیدم	-11.5447
▁نگر	-11.5449
▁حکیم	-11.5449
▁رسیدم	-11.5451
▁ستاد	-11.5452
▁ادوارد	-11.5455
▁مخاطبین	-11.5456
▁پرستاران	-11.5458
مز	-11.5461
▁بازوی	-11.5463
▁۳۴	-11.5464
۱۳	-11.5465
▁یهود	-11.547
وتو	-11.5475
86	-11.5476
▁اجبار	-11.5476
▁SM	-11.548
لت	-11.548
▁چو	-11.5485
▁سین	-11.5491
▁حلال	-11.5493
▁کشیدند	-11.5495
▁گنجاند	-11.5501
▁گردم	-11.5503
.»[	-11.5512
▁کینگ	-11.5514
▁En	-11.5516
▁اعم	-11.5518
ویت	-11.5519
▁سرتان	-11.552
▁مسلما	-11.5525
ern	-11.5527
22	-11.5529
▁نبودن	-11.5535
77	-11.5539
▁مخ	-11.5539
▁At	-11.554
یستی	-11.5541
▁بودایی	-11.5544
▁Gra	-11.5545
▁AC	-11.5548
39	-11.5551
▁میکروب	-11.5551
US	-11.5564
دیگر	-11.5565
▁(3	-11.5565
▁آمريکا	-11.5569
▁تراژدی	-11.5569
▁آنالیز	-11.5569
▁پهن	-11.5569
▁اکرم	-11.5569
▁Dead	-11.5569
▁اوتیسم	-11.557
▁خیس	-11.5571
▁جزییات	-11.5571
▁گلف	-11.5571
▁رسیم	-11.5572
▁نیرومند	-11.5572
▁دنده	-11.5573
▁شرطی	-11.5575
دهد	-11.5576
▁اقتصاددانان	-11.5577
▁بخوانم	-11.5577
▁هلاک	-11.558
▁رایت	-11.558
▁متنی	-11.5582
▁ورزشگاه	-11.5585
▁کتک	-11.559
▁فقرات	-11.5595
▁کارزار	-11.5596
▁Ph	-11.5597
دولت	-11.5598
هو	-11.5599
▁خوام	-11.5606
▁مادام	-11.5608
▁سخنران	-11.561
دند	-11.5615
▁تحقیقی	-11.5622
▁صهیونیستی	-11.5624
جن	-11.5629
▁دنیاست	-11.563
▁بگ	-11.5631
!”	-11.5631
کد	-11.5635
6)	-11.5637
وزی	-11.5639
48	-11.5642
EA	-11.5643
▁So	-11.5644
▁کال	-11.5657
ولین	-11.5661
pp	-11.5663
▁عمران	-11.5671
▁مطمئنم	-11.5679
بزرگ	-11.5683
▁اتکا	-11.5683
▁(20	-11.5685
▁نیامد	-11.5685
▁سعادت	-11.5688
قانون	-11.5688
▁تولیدات	-11.5688
▁مختص	-11.5689
▁سنج	-11.569
▁مجاور	-11.5693
▁تله	-11.5693
▁شکارچی	-11.5695
▁گرایان	-11.5696
▁سنجی	-11.5701
▁خوشم	-11.5701
▁آشفتگی	-11.5702
▁اصیل	-11.5702
▁اقوام	-11.5702
▁بشردوستانه	-11.5702
▁بوئینگ	-11.5702
▁سجده	-11.5702
▁ناکارآمد	-11.5702
▁ADHD	-11.5702
▁بازنگری	-11.5702
▁مستعد	-11.5702
▁آنکارا	-11.5702
▁رویترز	-11.5702
▁Data	-11.5703
▁عفونی	-11.5703
▁ادارات	-11.5703
▁جکسون	-11.5704
▁بیننده	-11.5704
▁Of	-11.5706
▁پروانه	-11.5707
فورد	-11.5708
▁تریلر	-11.571
▁چادر	-11.5712
▁هشتاد	-11.5712
▁شوکه	-11.5719
▁نگفته	-11.572
▁زیباست	-11.5722
خط	-11.5723
▁اوّل	-11.5723
▁مؤمنان	-11.5724
▁نود	-11.5726
▁j	-11.5731
▁بردارند	-11.5734
شته	-11.5736
▁میگرن	-11.5737
red	-11.5741
▁فلسطینیان	-11.5747
ایر	-11.5749
▁کمیاب	-11.5749
کین	-11.5749
ائل	-11.5752
▁سیگاری	-11.5752
▁گفتگوهای	-11.576
▁Am	-11.5762
▁فونت	-11.5764
زبان	-11.5769
▁گازی	-11.577
نما	-11.577
▁محوری	-11.577
▁زنجیر	-11.5778
▁دارن	-11.5792
نیک	-11.5792
خواهی	-11.5792
▁گرو	-11.5795
▁تبعی	-11.5795
▁72	-11.5798
زمانی	-11.5799
▁On	-11.5806
▁هکر	-11.581
چون	-11.5813
▁رخداد	-11.5817
TA	-11.5821
▁نهم	-11.5822
▁بتن	-11.5826
کنید	-11.5827
55	-11.5828
00	-11.5828
قدرت	-11.583
▁بزرگتری	-11.5831
▁۶۰۰	-11.5834
▁شم	-11.5835
▁انعکاس	-11.5837
▁اورانیوم	-11.5837
▁فرعون	-11.5837
▁محتاط	-11.5837
▁پرسپولیس	-11.5837
▁متوالی	-11.5837
▁جرائم	-11.5837
▁کمونیسم	-11.5837
▁همدردی	-11.5837
▁تسلا	-11.5838
▁بیندازید	-11.5838
▁ندهند	-11.5838
▁ریتم	-11.5838
▁آشتی	-11.5838
▁پناهنده	-11.5838
▁←	-11.5838
▁جوجه	-11.5839
▁ببخشد	-11.5839
▁۲۰۲۰	-11.5839
▁API	-11.584
▁کارگزار	-11.584
▁گیتار	-11.584
▁رزمی	-11.584
▁پرسشنامه	-11.584
زیدنت	-11.5841
▁چنگ	-11.5841
▁واگن	-11.5842
پرو	-11.5845
سیم	-11.5845
ina	-11.5846
▁آموزه	-11.5849
▁Game	-11.5849
▁خورم	-11.585
▁غیرنظامیان	-11.5852
▁تائید	-11.5855
▁شست	-11.586
پدر	-11.586
▁قدس	-11.5862
▁بازارها	-11.5865
way	-11.5873
۲۱	-11.5878
▁هموار	-11.5878
پور	-11.588
▁منتظره	-11.5881
▁منم	-11.5882
▁ایراد	-11.5884
خی	-11.5889
▁بيشتر	-11.589
▁Jo	-11.5895
لیس	-11.5901
▁(2)	-11.5905
▁آرا	-11.5911
▁یازدهم	-11.5912
▁پاتر	-11.5913
رج	-11.5917
▁(1	-11.5926
tri	-11.5942
▁اج	-11.5944
یاد	-11.5946
▁خانوار	-11.5947
صورت	-11.5959
#	-11.596
▁مج	-11.5966
▁فیلیپ	-11.5966
۸۰	-11.5967
▁سعید	-11.5969
نیم	-11.5969
▁صداها	-11.5973
٦	-11.5974
‬	-11.5974
▁تطابق	-11.5974
▁صرافی	-11.5974
▁کروموزوم	-11.5974
▁نگویید	-11.5974
▁قزاقستان	-11.5974
▁اطلس	-11.5974
▁تعارض	-11.5974
▁شاغل	-11.5974
▁القاعده	-11.5974
▁ابهام	-11.5974
▁لاستیک	-11.5974
▁القدس	-11.5974
▁بریزید	-11.5974
▁اعماق	-11.5974
▁1997	-11.5974
▁Power	-11.5975
▁پازل	-11.5976
▁ویکتوریا	-11.5976
▁بمانم	-11.5979
▁خوانید	-11.598
▁نتوانند	-11.5981
▁شمرده	-11.5981
ical	-11.5982
▁بستنی	-11.5983
▁نتوانستند	-11.5983
-4	-11.5984
گم	-11.5985
yn	-11.5987
▁49	-11.5987
ore	-11.5987
▁ژان	-11.5988
خل	-11.5989
▁عملکردی	-11.599
▁پارا	-11.5991
▁قدرتمندترین	-11.5992
ـــ	-11.5995
▁یگانه	-11.5995
نک	-11.6002
درست	-11.6003
حه	-11.6005
▁مرخصی	-11.6006
NET	-11.6007
▁نژادپرستی	-11.6008
▁متون	-11.601
the	-11.601
MI	-11.6011
line	-11.6013
▁بینانه	-11.6017
49	-11.6024
کوب	-11.6026
▁دیو	-11.6028
▁ژو	-11.6031
▁بي	-11.6032
▁ایوان	-11.6033
▁پادشاهان	-11.6034
▁خوری	-11.604
▁آک	-11.6041
▁اقتصادهای	-11.6042
▁دقیقی	-11.6051
▁بکش	-11.6054
ja	-11.6055
▁پیامبران	-11.6058
EL	-11.606
زده	-11.6073
▁خیالی	-11.6076
▁سس	-11.6081
۲۴	-11.6082
حا	-11.6083
▁خندید	-11.6088
▁نوشید	-11.6088
▁پیوندهای	-11.609
▁هواپیماها	-11.6094
▁آز	-11.6097
اثر	-11.6099
عمل	-11.61
ase	-11.6101
▁درج	-11.6101
▁مطالعاتی	-11.6104
▁اژدها	-11.6106
▁Galaxy	-11.6113
▁آلاینده	-11.6113
▁آکسفورد	-11.6113
▁غربالگری	-11.6113
▁متعارف	-11.6113
▁مشهود	-11.6113
▁تسخیر	-11.6113
▁بذر	-11.6113
▁Xbox	-11.6113
▁CRM	-11.6113
▁تقابل	-11.6114
▁بمانیم	-11.6114
▁خوشایند	-11.6114
▁بجز	-11.6114
▁کوسه	-11.6114
▁شکننده	-11.6115
▁بخوریم	-11.6115
▁پلاسما	-11.6116
za	-11.6116
▁نرسید	-11.6117
▁سهولت	-11.6118
▁جرات	-11.6118
▁دائماً	-11.6118
▁برادرم	-11.612
اهی	-11.6121
▁Or	-11.6128
▁منفرد	-11.613
عین	-11.6131
▁پردازی	-11.6132
▁فلا	-11.6132
▁سامان	-11.6135
▁))	-11.6136
▁کلاهبرداری	-11.6136
▁قل	-11.6138
▁گذرانده	-11.6143
▁شورشی	-11.6148
▁AI	-11.6156
▁Fl	-11.6157
▁بازاریاب	-11.616
▁کتابهای	-11.616
▁میلاد	-11.6173
▁مردن	-11.6174
▁آش	-11.6174
▁عملاً	-11.6177
۲۰۰	-11.6177
▁سیتی	-11.6178
▁اندیش	-11.6178
:”	-11.618
▁لیمو	-11.6181
tor	-11.6182
زر	-11.6182
نوع	-11.6189
▁تسلیحاتی	-11.6189
34	-11.6189
▁8-	-11.6191
▁اختیارات	-11.62
▁پیشانی	-11.6201
▁۳۲	-11.6207
▁فصلی	-11.6212
انسان	-11.6213
▁خز	-11.6216
۹۰	-11.6216
چند	-11.6218
▁۳۶	-11.6219
▁بادام	-11.6224
اقل	-11.6225
ber	-11.6225
▁MA	-11.6225
شاید	-11.6226
▁لای	-11.6229
▁کوهستانی	-11.6237
▁جری	-11.6238
٨	-11.6239
سکو	-11.6243
▁تخیلی	-11.6245
▁معضل	-11.6246
▁۳۱	-11.6246
▁آبجو	-11.6249
▁حرم	-11.6251
ؤ	-11.6252
▁انضباط	-11.6254
▁بازماندگان	-11.6254
▁تهوع	-11.6254
▁محفوظ	-11.6254
▁اسکلت	-11.6254
▁منحنی	-11.6254
▁معایب	-11.6254
▁نارضای	-11.6254
▁رسالت	-11.6254
▁تیروئید	-11.6254
▁آشفته	-11.6255
▁سازمانهای	-11.6256
▁جونز	-11.6257
▁عاری	-11.6258
▁Play	-11.6258
▁نترسید	-11.6259
▁عزم	-11.626
▁تشکیلات	-11.6262
▁متاسفم	-11.6263
▁طرفه	-11.6265
av	-11.6268
▁موسس	-11.627
▁شنونده	-11.627
RA	-11.6271
▁Live	-11.6274
▁درآمدی	-11.6277
ادو	-11.6278
▁VR	-11.6279
ئل	-11.6281
؟؟؟	-11.6282
بران	-11.6286
▁سرب	-11.6287
▁حسینی	-11.6289
▁نرفت	-11.6289
یکس	-11.6289
پرداز	-11.6291
▁سردرگمی	-11.6293
64	-11.6294
▁ژل	-11.6295
گه	-11.6298
▁7-	-11.63
▁هیجانی	-11.6302
▁آنطور	-11.6302
SP	-11.6304
▁Ta	-11.6306
bit	-11.6309
▁هوشیار	-11.6311
▁سایرین	-11.6312
▁درآمدهای	-11.6319
▁نوشتار	-11.6321
وَ	-11.6323
DI	-11.6323
▁ترسم	-11.6326
▁پرستی	-11.6331
▁اسپ	-11.6332
TP	-11.6333
▁نوح	-11.6335
▁مب	-11.6337
ale	-11.6341
▁بیتی	-11.6341
NS	-11.6344
▁اقتدار	-11.6346
▁خوان	-11.6346
ling	-11.6346
▁الن	-11.6347
بیشتر	-11.635
-19	-11.6357
▁هیدرو	-11.6357
سور	-11.6362
امین	-11.6367
ستن	-11.6367
AA	-11.6375
▁Qu	-11.638
توانیم	-11.6381
▁افقی	-11.6382
ارو	-11.6385
EN	-11.6386
▁کود	-11.6388
عج	-11.6389
ari	-11.6394
▁سرعتی	-11.6395
▁نابینا	-11.6396
▁روانشناختی	-11.6397
▁رویارویی	-11.6397
▁سوئیچ	-11.6397
▁غوطه	-11.6397
▁پیغمبر	-11.6397
▁سیستماتیک	-11.6397
▁اتمسفر	-11.6397
▁مؤلف	-11.6397
▁متناقض	-11.6397
▁هکتار	-11.6397
▁اکانت	-11.6397
▁میخواهم	-11.6397
▁استبداد	-11.6397
▁سختگیرانه	-11.6397
▁عیار	-11.6397
▁بپذیریم	-11.6397
▁بنشینید	-11.6397
▁دیزل	-11.6398
▁راهپیمایی	-11.6398
▁پهنای	-11.6399
▁جواهرات	-11.64
▁حوصله	-11.6401
▁سرفه	-11.6402
▁کادر	-11.6403
▁@	-11.6405
PC	-11.6406
اندن	-11.641
▁گناهی	-11.6411
بالا	-11.6416
▁رحمانه	-11.6417
ins	-11.6419
ism	-11.6419
▁ببرم	-11.6419
▁اسپا	-11.6425
▁نهایتاً	-11.6426
قد	-11.6426
▁حسابی	-11.643
۱۶	-11.6433
▁همچین	-11.644
dy	-11.6441
بسیار	-11.6442
TI	-11.6447
▁رازهای	-11.6452
▁راهبرد	-11.6452
راست	-11.6454
▁کافیست	-11.6456
▁داور	-11.6459
ren	-11.6459
▁لعنت	-11.6467
▁پسری	-11.6468
▁کسری	-11.6474
▁آفتابی	-11.6475
آمد	-11.6475
روان	-11.6476
▁خواندند	-11.6482
▁دشوارتر	-11.6484
BC	-11.6488
▁اندازند	-11.6488
5)	-11.6491
ایند	-11.6491
▁بول	-11.6492
▁مود	-11.6493
اعت	-11.6495
▁مطالبه	-11.6496
▁SD	-11.651
mb	-11.651
چو	-11.6511
هایتان	-11.6514
ND	-11.6516
▁حقیقتا	-11.6516
▁شنوند	-11.6524
▁برخاست	-11.6525
▁ره	-11.6525
٣	-11.6527
شرکت	-11.6528
همچنین	-11.6528
▁بشار	-11.6528
▁اثرگذار	-11.6532
▁Ac	-11.6534
▁مبل	-11.6539
ارک	-11.6539
▁سرود	-11.6541
▁عاقل	-11.6541
▁اختصار	-11.6542
▁بفهمد	-11.6542
▁ضخیم	-11.6542
▁فقیه	-11.6542
▁قرائت	-11.6542
▁مصیبت	-11.6542
▁ناموفق	-11.6542
▁غرفه	-11.6542
سازمان	-11.6542
▁صربستان	-11.6542
▁زائد	-11.6542
▁متضاد	-11.6542
▁قشر	-11.6542
▁مخفف	-11.6542
▁مدنظر	-11.6543
▁وصف	-11.6543
▁بسپارید	-11.6543
▁نگذارید	-11.6543
▁آداب	-11.6544
▁زین	-11.6544
▁طرد	-11.6544
▁خمیر	-11.6544
▁توربین	-11.6545
▁{	-11.6545
▁دروغگو	-11.6546
▁آبیاری	-11.6546
▁قمار	-11.6546
▁تهدیدهای	-11.6546
PD	-11.6546
▁لیکن	-11.6547
▁دستم	-11.6554
▁ناظران	-11.6556
▁نمانده	-11.6557
وژن	-11.6558
▁منطبق	-11.6559
▁تحلیلگر	-11.6563
▁توکن	-11.6566
▁سلیمان	-11.6567
عد	-11.6568
ld	-11.6569
▁کشورشان	-11.6569
▁سازش	-11.6574
ax	-11.6579
▁دوزهای	-11.658
su	-11.658
ory	-11.6582
▁آنزیم	-11.6582
▁میرود	-11.6587
▁ترا	-11.6592
▁ترکی	-11.6592
▁کیو	-11.6597
▁نوا	-11.6598
اران	-11.6599
▁کالای	-11.6599
رسی	-11.6599
wi	-11.6602
▁Po	-11.6603
▁صوت	-11.6605
bi	-11.6608
▁موز	-11.661
▁بسا	-11.6613
▁یکسال	-11.6614
▁کلیپ	-11.6616
لق	-11.6618
37	-11.6622
فون	-11.6623
▁سلب	-11.6624
▁التهابی	-11.6629
▁عن	-11.6631
▁۵۵	-11.6635
ki	-11.6636
▁تومورهای	-11.6638
▁کنش	-11.6638
AM	-11.6643
▁نیافت	-11.6648
▁مهارتهای	-11.665
▁شدیدا	-11.6657
▁مطبوعاتی	-11.6659
q	-11.6661
▁پنجه	-11.6662
کنندگان	-11.6668
▁com	-11.667
▁توئیت	-11.6671
▁احساساتی	-11.6672
حقیقت	-11.6675
▁جوانب	-11.6675
▁Blue	-11.6676
قرآن	-11.6676
era	-11.6676
▁تیپ	-11.6683
▁عذر	-11.6689
▁with	-11.6689
▁استفراغ	-11.6689
▁بیافتد	-11.6689
▁رزومه	-11.6689
▁شصت	-11.6689
▁نامعلوم	-11.6689
▁نوظهور	-11.6689
▁ژورنال	-11.6689
▁احراز	-11.6689
▁عاشورا	-11.6689
▁فرآوری	-11.6689
▁IBM	-11.6689
▁فكر	-11.6689
▁پُر	-11.6689
▁هیلاری	-11.6689
▁ملموس	-11.6689
▁بشناسیم	-11.669
▁Group	-11.669
sk	-11.669
▁Server	-11.669
▁وهله	-11.669
▁برگردیم	-11.6691
▁گذرانند	-11.6693
وگرافی	-11.6693
▁بانکوک	-11.6694
▁بانوی	-11.6694
▁بیاورم	-11.6694
برت	-11.6695
▁بقایای	-11.6699
▁تشخیصی	-11.671
علم	-11.6713
▁قفس	-11.6714
▁دفعات	-11.6714
▁آفرینی	-11.6717
▁یخی	-11.6721
▁گدا	-11.6722
▁جادوگر	-11.6723
▁مز	-11.6723
▁موثری	-11.6724
▁مزد	-11.6731
▁بگم	-11.6734
▁فقرا	-11.6734
دۀ	-11.6735
▁سویا	-11.6738
گرفت	-11.674
▁استعمار	-11.674
▁لاس	-11.6743
▁روشنفکران	-11.6748
▁۸۵	-11.6749
▁شایعه	-11.6749
▁کلیدهای	-11.675
▁درنتیجه	-11.6753
▁کوب	-11.6756
اصل	-11.6756
▁القا	-11.6757
▁ریش	-11.6759
▁دوقلو	-11.676
چیزی	-11.6763
▁فیلترهای	-11.6765
▁فعالانه	-11.6765
▁اهدای	-11.6765
يز	-11.6768
▁متغیرهای	-11.6768
▁حالتی	-11.6769
▁وکلای	-11.6772
آیی	-11.678
0،000	-11.6794
▁تصورات	-11.6796
300	-11.6798
ji	-11.6799
▁شیب	-11.6802
▁جد	-11.6806
نبرگ	-11.6811
دیو	-11.6815
▁وقف	-11.6823
3)	-11.6826
▁بخور	-11.6829
▁۲۵۰	-11.683
ونه	-11.683
▁درآمده	-11.6833
زایی	-11.6834
▁مؤ	-11.6837
چشم	-11.6838
▁شطرنج	-11.6838
▁پرتقال	-11.6838
▁یائسگی	-11.6838
▁جنازه	-11.6838
▁متعجب	-11.6838
▁ضخامت	-11.6838
▁انقراض	-11.6838
▁لشکر	-11.6838
▁معافیت	-11.6839
▁خویشتن	-11.684
▁آمریکاست	-11.684
▁بنویسد	-11.684
▁غلات	-11.684
▁وحشیانه	-11.6842
▁تبریز	-11.6842
▁فضل	-11.6843
CO	-11.6844
▁Du	-11.6845
▁کلیشه	-11.6845
▁جهانیان	-11.6846
تاب	-11.6848
▁کافر	-11.685
ً	-11.6852
▁ندادند	-11.6852
▁دریچه	-11.6853
▁Dr	-11.6853
▁تعمیرات	-11.6854
▁فروید	-11.6855
▁ترمز	-11.6855
يده	-11.6856
▁مهیا	-11.6856
▁نتایجی	-11.6857
26	-11.6858
▁فرماندهان	-11.6862
▁حسگر	-11.6864
لینگ	-11.6868
int	-11.6869
▁امانت	-11.6869
ریا	-11.6875
▁مفیدی	-11.6878
▁پرداختی	-11.688
▁بدبختی	-11.6881
سف	-11.6887
▁فین	-11.6888
pi	-11.6888
۴۰	-11.6892
▁تکاملی	-11.6892
یلا	-11.6894
▁آو	-11.6894
▁بازهم	-11.6896
▁بردگی	-11.6901
▁جاسوس	-11.6904
▁Ni	-11.6907
▁Pre	-11.6907
قدر	-11.6912
br	-11.6914
▁راکت	-11.6924
und	-11.6926
▁والد	-11.6927
ara	-11.693
▁CV	-11.693
▁Is	-11.6932
▁180	-11.6934
LA	-11.6941
▁آنا	-11.6941
66	-11.6945
▁عکسی	-11.6947
▁دانا	-11.6949
یابی	-11.6951
▁360	-11.6952
▁پان	-11.6959
ray	-11.6962
رانه	-11.6962
▁خوشی	-11.6963
TH	-11.6963
▁Time	-11.6965
EM	-11.6966
▁مجرم	-11.697
ممکن	-11.697
▁معنادار	-11.697
▁بودا	-11.6975
▁کبدی	-11.6976
▁عروس	-11.6978
▁لط	-11.6979
▁اینصورت	-11.6986
▁فهمم	-11.6986
▁لان	-11.6986
▁همجنسگرا	-11.6987
▁مشروع	-11.6988
▁Semalt	-11.6989
▁باشکوه	-11.6989
▁ظروف	-11.6989
▁مرحوم	-11.6989
▁ممانعت	-11.6989
▁نوشابه	-11.6989
▁ژنراتور	-11.6989
▁تحریف	-11.6989
▁واژگان	-11.6989
▁بگذرانید	-11.6989
▁متناوب	-11.6989
▁امثال	-11.699
▁ارمنی	-11.699
▁انصاف	-11.699
▁گردهمایی	-11.699
▁کنسولگری	-11.699
ّا	-11.699
▁دیزنی	-11.699
▁خلال	-11.6991
▁رمانتیک	-11.6991
▁بنویسند	-11.6992
▁جنون	-11.6992
▁جنگجویان	-11.6994
▁زیرنویس	-11.6994
▁700	-11.6996
▁امیدواری	-11.6996
▁مسلحانه	-11.6996
▁انتحاری	-11.6997
▁تدارکات	-11.6998
▁مُ	-11.7002
▁غارت	-11.7004
▁ورزید	-11.7006
ten	-11.7008
▁آرایه	-11.7009
36	-11.7011
▁گزینش	-11.7012
out	-11.7014
▁استودیوی	-11.7014
▁تالار	-11.7019
▁هدایای	-11.7022
▁ناامنی	-11.7026
نیا	-11.7029
▁ایر	-11.7029
▁Fe	-11.703
▁انجامش	-11.7031
▁نیش	-11.7032
▁مازاد	-11.7034
نید	-11.7035
▁بردارد	-11.7038
▁اسیدهای	-11.7042
▁جنگید	-11.7044
▁کروم	-11.7047
▁مهندسین	-11.7049
▁معان	-11.7051
▁دروغین	-11.7052
▁رانده	-11.7057
▁سرنگون	-11.7057
▁شادتر	-11.7059
uk	-11.706
▁سریعترین	-11.706
▁پي	-11.7066
car	-11.7069
01	-11.707
▁پذیرایی	-11.707
▁بلندی	-11.7071
CR	-11.7071
▁فرزندی	-11.7074
▁وکلا	-11.7082
▁طرحی	-11.709
▁خور	-11.7092
▁چهارده	-11.7092
▁خال	-11.7092
▁56	-11.7094
▁استار	-11.7094
▁کشیدم	-11.7097
▁هشدارهای	-11.7098
▁مهاجرتی	-11.71
▁نامزدها	-11.71
▁لهستانی	-11.7103
▁ماشینی	-11.7103
OL	-11.7105
▁۹۹	-11.7111
اخ	-11.7114
fi	-11.7119
TC	-11.712
کلی	-11.7123
▁الح	-11.7126
آمریکا	-11.7128
▁1:	-11.7129
ّر	-11.7129
٥	-11.7129
ویرایش	-11.7129
کشی	-11.7135
▁توت	-11.7135
زنده	-11.7135
▁بچ	-11.7138
▁دون	-11.7139
▁ارتکاب	-11.7143
▁بپردازیم	-11.7143
▁تدابیر	-11.7143
▁زناشویی	-11.7143
▁مخترع	-11.7143
▁هيچ	-11.7143
▁استحکام	-11.7143
▁مشهد	-11.7143
▁جنرال	-11.7143
▁مدینه	-11.7143
▁مضمون	-11.7143
▁post	-11.7144
▁عمودی	-11.7144
▁بانوان	-11.7144
▁HPV	-11.7144
▁ایستادگی	-11.7144
▁زودهنگام	-11.7144
▁دیشب	-11.7145
▁‫	-11.7146
▁داروخانه	-11.7147
▁www	-11.7147
▁خلع	-11.7147
67	-11.7147
▁عود	-11.7148
▁داود	-11.7148
▁لرزش	-11.715
▁52	-11.715
▁گار	-11.7151
▁تنفر	-11.7152
فیلم	-11.7154
▁96	-11.7155
▁انتزاعی	-11.7156
▁MIT	-11.7156
▁قلبم	-11.7157
hen	-11.7159
▁آت	-11.7161
▁درختی	-11.7162
▁خوابگاه	-11.7162
▁اندیشید	-11.717
▁بیگ	-11.7171
▁معینی	-11.7173
▁ژی	-11.7179
▁Ju	-11.7183
▁موم	-11.7194
▁طلبان	-11.7195
▁ورق	-11.7198
SC	-11.7199
▁سوختن	-11.7209
▁زم	-11.7211
nu	-11.7216
▁اقلیم	-11.7216
▁فراری	-11.7216
▁پندار	-11.7218
خواهد	-11.7219
ینا	-11.7224
▁ID	-11.7227
▁63	-11.7229
▁سرنگونی	-11.723
خوانی	-11.7237
▁نوه	-11.7241
▁میخواهند	-11.7242
آید	-11.7242
▁دیواری	-11.7247
ek	-11.7253
lin	-11.7256
▁وحشتناکی	-11.726
ME	-11.7263
رده	-11.7265
96	-11.7266
۱۷	-11.7267
قر	-11.7269
▁منشا	-11.7272
▁اعتقادی	-11.7274
▁دیوارها	-11.7281
cc	-11.7282
▁مصالح	-11.7283
▁عضوی	-11.7283
حداقل	-11.7286
47	-11.7287
طی	-11.7288
ساعت	-11.7288
RS	-11.729
یع	-11.7292
▁تناقض	-11.7292
▁گلی	-11.7293
▁اسرائيل	-11.7299
▁بعدازظهر	-11.7299
▁تکنسین	-11.7299
▁رمضان	-11.7299
▁سرمربی	-11.7299
▁حصول	-11.7299
▁Network	-11.7299
▁ابریشم	-11.73
▁اپوزیسیون	-11.73
▁علایق	-11.73
▁معلق	-11.73
▁اجداد	-11.73
▁فرانسیسکو	-11.73
▁پرتره	-11.73
▁مکعب	-11.73
▁كمك	-11.7301
▁دمکراتیک	-11.7301
▁۲۰۰۴	-11.7301
▁سرورهای	-11.7301
▁خاور	-11.7301
▁پریود	-11.7302
▁John	-11.7303
▁كنیم	-11.7304
800	-11.7305
▁OS	-11.7311
▁ریزد	-11.7311
پز	-11.7312
▁کلر	-11.7314
▁صلی	-11.7315
▁نکردیم	-11.7315
ev	-11.7315
▁پیشگویی	-11.7315
بک	-11.7316
CI	-11.7322
▁قبرس	-11.7328
▁پرینتر	-11.7328
▁خوبه	-11.7331
آوری	-11.7333
▁نمادین	-11.7338
▁روانشناس	-11.734
بس	-11.734
cent	-11.7342
یشن	-11.7344
▁گذارید	-11.7345
▁Ja	-11.7345
▁یابیم	-11.7348
جین	-11.735
وود	-11.7354
▁انگل	-11.7358
gi	-11.7366
یافته	-11.7368
▁میخواهد	-11.7368
▁نس	-11.7369
▁SA	-11.737
▁تنیس	-11.7371
▁تس	-11.7371
▁بِ	-11.7371
▁نوپا	-11.7372
يک	-11.7373
▁باکس	-11.7374
▁برگشته	-11.7377
▁2:	-11.7378
تب	-11.7383
درا	-11.7384
▁آواره	-11.7386
▁پالس	-11.739
ung	-11.7398
اکر	-11.7414
▁سودآوری	-11.7416
يی	-11.7416
▁Bar	-11.7416
۶۰	-11.7418
▁Ca	-11.7423
▁خطرناکی	-11.7424
▁پیشنهادهای	-11.7426
روس	-11.7429
cu	-11.743
▁محدودیتی	-11.7431
▁Pe	-11.7433
▁نامزدی	-11.7436
ED	-11.7437
▁مبالغ	-11.7441
لیف	-11.7443
▁مَ	-11.7444
▁AS	-11.7446
▁ارثی	-11.7449
▁خوی	-11.7451
▁سفیدپوست	-11.7452
▁رب	-11.7453
▁پاور	-11.7455
▁آکواریوم	-11.7458
▁تعبیه	-11.7458
▁روزافزون	-11.7458
▁لوئیس	-11.7458
▁معشوق	-11.7458
▁بفرمایید	-11.7458
▁موظف	-11.7458
▁تزکیه	-11.7458
▁مستحکم	-11.7458
ology	-11.7458
▁عصاره	-11.7458
▁بخوابید	-11.7459
▁شهود	-11.7459
كار	-11.746
▁جابز	-11.746
▁پرست	-11.746
▁بخرند	-11.7461
▁1992	-11.7461
▁وزارتخانه	-11.7462
▁سمبل	-11.7463
▁برگردند	-11.7463
▁خامنه	-11.7463
▁الکترود	-11.7465
▁برخورداری	-11.7466
▁آویزان	-11.7468
▁دریغ	-11.7469
▁آموختن	-11.747
▁Mc	-11.7473
RE	-11.7475
▁معادله	-11.7478
▁نارنجی	-11.7488
88	-11.7488
400	-11.749
▁گن	-11.7493
▁تاسف	-11.7495
▁بیم	-11.75
har	-11.75
▁جون	-11.7503
▁دخترها	-11.7503
▁قشنگ	-11.7511
▁رادار	-11.7514
▁ایا	-11.7516
نامۀ	-11.752
▁نشانی	-11.7525
SS	-11.7527
book	-11.7527
56	-11.7531
▁نورد	-11.7534
▁66	-11.7536
▁درام	-11.7537
▁استعدادهای	-11.7537
▁كل	-11.7539
▁صحرای	-11.754
▁مطالبی	-11.754
▁مانور	-11.754
▁ایرلندی	-11.7545
▁پیامد	-11.7548
▁CS	-11.755
▁دکتری	-11.755
▁ادای	-11.7553
▁تد	-11.756
شاه	-11.7567
▁گزین	-11.7571
▁شیری	-11.7572
ترس	-11.7575
▁فرزندانش	-11.7577
▁مراد	-11.7578
▁!!!	-11.7579
▁عرف	-11.7581
جت	-11.7588
▁سول	-11.759
ult	-11.7592
لم	-11.7593
▁UV	-11.7593
▁چاپی	-11.7596
▁آسیاب	-11.7611
▁شاخ	-11.7612
▁پیرو	-11.7615
▁آلبرت	-11.7616
▁تعصب	-11.7616
▁(2	-11.7616
▁مناسبات	-11.7616
▁Di	-11.7617
ولت	-11.7619
ood	-11.7619
▁Previous	-11.7619
▁اتلاف	-11.7619
▁انتفاعی	-11.7619
▁تنباکو	-11.7619
▁پیشگیرانه	-11.7619
▁کمبریج	-11.7619
▁بازگردند	-11.7619
▁حکمرانی	-11.7619
▁ساندویچ	-11.7619
▁فرعی	-11.762
▁وسواس	-11.762
▁روایات	-11.762
▁اصولی	-11.762
▁ویرجینیا	-11.762
▁1995	-11.762
IM	-11.7621
▁فینال	-11.7621
▁شیء	-11.7622
▁بشنوند	-11.7622
رل	-11.7623
▁کرسی	-11.7623
▁محرومیت	-11.7626
▁بخرم	-11.7627
▁سرزمینی	-11.7628
my	-11.7629
qu	-11.7629
DC	-11.763
▁دشت	-11.7632
85	-11.7634
▁مگه	-11.7634
▁زی	-11.7637
57	-11.7639
▁پژوهشگر	-11.7643
TV	-11.7645
▁هستن	-11.7646
لس	-11.7648
▁خودِ	-11.7649
97	-11.765
▁اکبر	-11.7659
......	-11.7659
ose	-11.766
▁گرفتگی	-11.7661
شکر	-11.7663
▁گوناگونی	-11.7663
HA	-11.7664
▁پارامترهای	-11.7664
▁ویدئوهای	-11.7668
▁موافقم	-11.7673
▁جدیدتر	-11.7675
eg	-11.7681
▁رویکردی	-11.7681
▁میگویند	-11.7681
صلی	-11.7684
اولین	-11.7684
▁برگشتم	-11.7686
▁نوت	-11.7687
▁گیت	-11.7698
▁استانی	-11.7703
gu	-11.7703
لّ	-11.7705
▁کنن	-11.7705
▁Call	-11.7706
▁بالاست	-11.7712
▁مبان	-11.7712
▁پیامک	-11.7715
▁هوشیاری	-11.7717
امید	-11.7718
▁موجودیت	-11.7732
▁کیفی	-11.7739
▁MP	-11.774
ook	-11.7744
air	-11.7744
▁ارزی	-11.775
44	-11.775
▁سالاد	-11.7751
▁بازدهی	-11.7755
%)	-11.7756
▁کلم	-11.7756
▁احیای	-11.7765
برا	-11.7767
آمیز	-11.7769
▁2.0	-11.7773
▁اینحال	-11.7776
▁میگردد	-11.7778
▁آنتن	-11.7779
▁اقتصاددان	-11.7781
▁نوسان	-11.7781
▁HTTP	-11.7782
▁شکوفا	-11.7783
▁WordPress	-11.7783
▁Studio	-11.7783
▁استثمار	-11.7783
▁صومعه	-11.7783
▁عاقبت	-11.7783
▁فراغت	-11.7783
▁مرتفع	-11.7783
▁مروارید	-11.7783
▁آندروید	-11.7783
▁دوجانبه	-11.7783
▁احوال	-11.7784
▁احسان	-11.7784
▁نیوزلند	-11.7784
▁1993	-11.7784
▁چشمی	-11.7784
▁مجانی	-11.7784
▁سرسخت	-11.7784
▁مساجد	-11.7785
▁علف	-11.7785
▁پیشگام	-11.7785
▁سیستمی	-11.7786
▁بستگان	-11.7786
▁لادن	-11.7786
▁بهادار	-11.7786
▁میکنه	-11.7786
▁بپرسند	-11.7786
▁IoT	-11.7787
خون	-11.7788
▁بشوند	-11.7788
▁رئال	-11.7789
▁رومانی	-11.7792
▁مخفیانه	-11.7793
▁مأموران	-11.7794
▁Art	-11.7795
▁بندگی	-11.7796
▁سپاسگزار	-11.78
انو	-11.7803
OC	-11.7806
▁کدوم	-11.7806
▁لوک	-11.7807
▁قرضه	-11.7809
59	-11.7809
▁۳۸	-11.7811
▁فراموشی	-11.7813
▁تعاونی	-11.7814
▁ویلیامز	-11.7817
انده	-11.7818
▁ساختگی	-11.782
▁ترانس	-11.782
▁فروشان	-11.7821
▁مکزیکی	-11.7829
NG	-11.783
زنی	-11.7833
▁میکنی	-11.7834
▁پوچ	-11.7835
▁مص	-11.7839
▁سار	-11.7841
▁برسم	-11.7842
▁تمایلات	-11.7843
▁Un	-11.7843
▁دهانه	-11.7844
▁رقبا	-11.7848
CH	-11.7856
▁بش	-11.7857
▁Da	-11.7858
▁برندگان	-11.7858
▁نمیکند	-11.786
▁زایی	-11.7861
▁وانگ	-11.7861
hu	-11.7862
ens	-11.7863
رال	-11.7864
▁میکردند	-11.7867
ورد	-11.7873
▁آره	-11.7875
▁سوخته	-11.788
▁پوستر	-11.788
▁سالمی	-11.7881
DR	-11.7882
دهی	-11.7884
▁ژانر	-11.7887
▁اونا	-11.7888
▁پارس	-11.7888
▁واکنشی	-11.7889
دّ	-11.7891
▁لم	-11.7892
▁دوستانی	-11.7898
▁کارتون	-11.7899
▁لنزهای	-11.7901
ire	-11.7905
▁ابرها	-11.7906
▁دارندگان	-11.7907
بون	-11.7907
cy	-11.7908
▁ولز	-11.7916
gen	-11.7917
نگاه	-11.7919
▁رحمان	-11.7919
▁رویکردهای	-11.7919
٫۵	-11.7922
ایل	-11.7925
▁تعطیلی	-11.7925
آم	-11.7929
گور	-11.7929
▁امیدی	-11.7935
▁pro	-11.7938
مردان	-11.7938
▁برگرد	-11.794
▁نامی	-11.7945
▁ویدئوی	-11.7946
▁رول	-11.7946
▁آمریكا	-11.7949
توجه	-11.7949
▁iPhone	-11.795
▁المسلمین	-11.795
▁شعور	-11.795
▁عطف	-11.795
▁نابغه	-11.795
▁پرطرفدار	-11.795
▁کازینو	-11.795
▁آتشفشان	-11.795
▁ائمه	-11.795
▁بلومبرگ	-11.795
▁سرنخ	-11.795
▁مخاطره	-11.795
▁رسوایی	-11.795
▁متاهل	-11.795
▁1991	-11.7951
▁کامرون	-11.7951
▁۱۹۳۰	-11.7951
▁فرمایند	-11.7951
▁DNS	-11.7952
▁دینامیک	-11.7952
▁ضایعات	-11.7953
▁Back	-11.7953
▁بخواهم	-11.7954
▁توفان	-11.7956
▁سرگردان	-11.7956
قابل	-11.7957
▁آزادسازی	-11.7959
▁حاج	-11.796
▁گیل	-11.7961
▁نخواست	-11.7961
▁افکن	-11.7965
▁مدرس	-11.7967
EX	-11.7969
kin	-11.797
▁والا	-11.7972
▁اطلاعیه	-11.7972
▁هزاره	-11.7974
▁اسکنر	-11.7976
▁كو	-11.7977
▁فیزیولوژیکی	-11.7977
▁مناظره	-11.7979
▁پسرها	-11.7979
▁امیدوارند	-11.7979
باب	-11.798
▁بارگیری	-11.798
▁هال	-11.798
▁موقعی	-11.798
▁مونت	-11.798
دوم	-11.7984
▁دلیلش	-11.7986
▁روانشناسان	-11.7986
۲۵	-11.7986
▁سبزی	-11.7987
▁III	-11.7991
▁تهی	-11.7994
▁گفتنی	-11.7994
▁حر	-11.8006
▁فاکتورهای	-11.8013
▁كسی	-11.8013
▁جاست	-11.8014
▁افتادند	-11.8014
▁متفکر	-11.8014
▁جوابی	-11.8024
وایی	-11.8031
▁صحرا	-11.8034
▁جعل	-11.8034
▁کودتا	-11.8035
▁دانشگاهیان	-11.804
فته	-11.8049
▁فیلد	-11.806
nk	-11.8077
▁کُ	-11.8079
▁کاس	-11.808
▁بیس	-11.8081
▁نباش	-11.809
▁۳۷	-11.8102
شناخت	-11.8105
▁بریده	-11.8105
[1]	-11.8106
افراد	-11.8106
▁مبتدی	-11.8112
▁سراسری	-11.8112
▁تظاهر	-11.8115
68	-11.8118
▁بپیوندید	-11.812
▁تشنج	-11.812
▁مرسدس	-11.812
▁مستغلات	-11.812
▁Bitcoin	-11.812
▁Chrome	-11.812
▁مرکب	-11.812
▁قاهره	-11.812
▁سیاهچاله	-11.812
▁ممتاز	-11.812
▁آزاردهنده	-11.812
▁كامل	-11.812
04	-11.8121
▁زرق	-11.8121
▁مورچه	-11.8121
▁۲۰۰۲	-11.8122
▁بفروشد	-11.8122
▁ض	-11.8122
▁۴۸	-11.8123
▁شهاب	-11.8123
جهان	-11.8124
rin	-11.8124
▁ادب	-11.8124
▁me	-11.8125
▁ریک	-11.8125
▁نماند	-11.8132
▁دای	-11.8133
▁جاودانه	-11.8136
اکان	-11.8136
▁خوشش	-11.8138
▁پاول	-11.8139
▁مهاجرین	-11.8141
▁اینكه	-11.8141
▁یتیم	-11.8142
تیس	-11.8156
▁توانستید	-11.8158
▁مدرکی	-11.8162
▁۳٫	-11.8162
▁باخبر	-11.8162
▁حقیقتاً	-11.8164
▁گناهکار	-11.8167
▁جواد	-11.8172
▁Fr	-11.8178
HS	-11.8183
▁نکشید	-11.8186
▁فول	-11.8187
فان	-11.8188
▁شیل	-11.819
▁پلاس	-11.8192
▁گمرکی	-11.8194
▁is	-11.8196
▁(4	-11.8197
▁Love	-11.8199
▁PR	-11.8206
▁انحصار	-11.8207
▁ماهگی	-11.8207
كر	-11.821
پنج	-11.821
▁هندو	-11.8212
▁عامه	-11.8213
▁میلیاردر	-11.8217
▁مرگش	-11.8222
▁آغازین	-11.8225
▁پوشی	-11.8226
▁Ko	-11.8238
▁انسانهای	-11.8244
ولو	-11.8244
▁!!	-11.8245
فهم	-11.8246
مادر	-11.8247
MP	-11.8249
ham	-11.8249
▁کاندید	-11.8254
ئه	-11.8257
94	-11.8259
▁توکل	-11.8265
▁کیهانی	-11.8266
▁گفتمان	-11.8267
روح	-11.8268
ous	-11.8271
ons	-11.8277
ُل	-11.8278
سرمایه	-11.8278
شامل	-11.8279
لَ	-11.828
▁بروی	-11.8282
▁بلک	-11.8284
▁خوابند	-11.8292
▁اغراق	-11.8292
▁بازگشایی	-11.8292
▁مضطرب	-11.8292
▁ناعادلانه	-11.8292
▁نپذیرفت	-11.8292
▁اساتید	-11.8292
▁خندد	-11.8292
▁محمود	-11.8292
▁میخوام	-11.8292
▁فرمایید	-11.8292
▁توانبخشی	-11.8292
▁معبود	-11.8292
▁صمیمانه	-11.8293
یچ	-11.8293
▁پوشاک	-11.8293
▁عقد	-11.8293
▁همدلی	-11.8293
▁ذرت	-11.8293
▁شرمنده	-11.8293
▁بولتون	-11.8294
▁خردسال	-11.8294
▁شایان	-11.8294
▁پویایی	-11.8294
▁صبحگاهی	-11.8294
▁مملو	-11.8298
▁دوستیابی	-11.8299
▁آلیس	-11.83
83	-11.83
▁مقیم	-11.83
▁پوشانده	-11.8302
▁کافران	-11.8302
▁آلرژیک	-11.8303
▁نمایشنامه	-11.8303
طرف	-11.8304
▁نمادی	-11.8304
▁رواج	-11.8304
▁چانه	-11.8308
▁چرخد	-11.8308
▁فرستنده	-11.8308
63	-11.8311
اینکه	-11.8312
ual	-11.8312
▁کما	-11.8316
▁مستر	-11.8319
ds	-11.8319
▁پیاز	-11.8328
▁فداکاری	-11.8332
▁ممنونم	-11.8332
▁5000	-11.8333
▁نمایه	-11.8333
▁دنبالش	-11.8334
▁هیولا	-11.8336
EP	-11.8338
▁استثنای	-11.8339
▁مم	-11.8339
طور	-11.834
▁میلر	-11.8342
▁ندید	-11.8346
▁خش	-11.8347
▁خریده	-11.8349
▁نهادی	-11.8356
AD	-11.8357
dd	-11.836
آیند	-11.8365
▁نبی	-11.837
▁دوستم	-11.8372
▁کسان	-11.8373
▁آه	-11.8374
▁نقاش	-11.8375
قل	-11.8378
▁(3)	-11.8378
▁خواهرش	-11.8382
PO	-11.8385
▁نشدنی	-11.8387
اك	-11.8389
▁استعفای	-11.839
▁54	-11.839
06	-11.8391
▁داروین	-11.8396
▁دریاها	-11.8397
زین	-11.84
فق	-11.8411
res	-11.8411
▁ند	-11.8412
ئون	-11.8416
▁بروس	-11.8417
low	-11.8422
app	-11.8424
▁مؤسس	-11.8424
▁سومی	-11.8424
▁بوم	-11.8428
▁Light	-11.8435
كی	-11.8438
-12	-11.8438
▁وارن	-11.8448
▁دستگاهی	-11.8449
▁جاودان	-11.845
▁له	-11.845
▁کج	-11.845
عشق	-11.8453
تاریخ	-11.8453
▁مزاحم	-11.8456
انۀ	-11.8459
are	-11.8461
▁con	-11.8462
▁حتم	-11.8463
فیلد	-11.8464
▁عقلانی	-11.8465
زنان	-11.8466
▁اتریوم	-11.8467
▁نامطلوب	-11.8467
▁گیگابایت	-11.8467
▁اراضی	-11.8467
▁اصالت	-11.8467
▁طناب	-11.8467
▁مقبره	-11.8467
▁خودمختار	-11.8467
▁ضریب	-11.8467
▁سردبیر	-11.8467
▁مادورو	-11.8467
▁ناصر	-11.8468
▁ورژن	-11.8468
▁آرتروز	-11.8468
▁تذکر	-11.8468
▁آوارگان	-11.8468
▁ملاحظات	-11.8468
فیل	-11.8468
▁1986	-11.8468
▁رسوم	-11.8469
▁امپریالیسم	-11.8469
▁بشویید	-11.8469
▁فیفا	-11.8469
▁غیرمعمول	-11.8469
▁Life	-11.8471
▁آشوب	-11.8471
▁عدل	-11.8471
▁800	-11.8471
بط	-11.8472
▁And	-11.8473
▁سدیم	-11.8474
▁دفترچه	-11.8475
▁مخلوقات	-11.8476
▁خوابید	-11.8476
▁اکتشافات	-11.8477
▁مارکت	-11.8477
▁تشی	-11.8478
▁هشتگ	-11.8479
▁احترامی	-11.8479
▁سوزش	-11.8479
▁کارآگاه	-11.8482
▁مشارکتی	-11.8483
▁اخ	-11.8484
▁همگام	-11.8485
▁کوچه	-11.8486
▁پيش	-11.8487
ko	-11.8488
▁San	-11.849
▁سست	-11.849
▁زدیم	-11.8495
tu	-11.8502
HD	-11.8502
▁لابی	-11.8502
▁حفاظتی	-11.8504
▁کاشته	-11.851
بات	-11.851
▁حک	-11.8512
»؛	-11.8514
▁آهنی	-11.8517
▁تعجبی	-11.8522
▁تپ	-11.8527
▁باج	-11.8532
▁دیابتی	-11.8532
▁57	-11.8533
▁نئو	-11.8533
▁هاوایی	-11.8536
DS	-11.8538
▁3000	-11.8551
▁آد	-11.8553
▁آوردیم	-11.8553
▁1.1	-11.8554
▁قوای	-11.8557
▁نزول	-11.856
▁سوسیالیست	-11.8561
▁نفرین	-11.8562
▁كا	-11.8564
▁مرجان	-11.8565
▁کوش	-11.8566
▁جستجوگر	-11.8567
FA	-11.8572
کرده	-11.8574
▁میهن	-11.8575
ms	-11.8583
43	-11.8585
اض	-11.859
▁مالکان	-11.859
▁نیرویی	-11.859
اسرع	-11.8591
▁ساو	-11.8594
سیون	-11.8594
▁١	-11.8596
▁خوانی	-11.8596
▁خوردم	-11.8602
rd	-11.8605
▁برهم	-11.8608
▁رنگین	-11.8611
▁مط	-11.8613
GA	-11.8617
.000	-11.8626
▁160	-11.8628
▁نامیم	-11.8628
▁جانی	-11.8631
▁بلو	-11.8631
هدف	-11.8632
▁فضانورد	-11.8633
آمریکایی	-11.8633
▁حوا	-11.8635
chi	-11.8635
▁آلود	-11.8636
65	-11.8636
rit	-11.8636
▁مخلوق	-11.8638
مثلا	-11.8644
رفت	-11.8646
▁اسکیزوفرنی	-11.8646
▁دوپامین	-11.8646
▁لیورپول	-11.8646
▁مدفوع	-11.8646
▁مظلوم	-11.8646
▁ترمینال	-11.8646
▁توفیق	-11.8646
▁نفهمید	-11.8646
▁ناگوار	-11.8646
▁وانمود	-11.8646
▁€	-11.8646
▁هولناک	-11.8646
▁۱۹۹۸	-11.8646
تعداد	-11.8646
▁وگاس	-11.8646
▁منزوی	-11.8647
▁تمسخر	-11.8647
▁شکوفایی	-11.8647
▁پولس	-11.8647
▁International	-11.8647
▁کربلا	-11.8647
▁ad	-11.8647
▁Science	-11.8648
▁بپذیرند	-11.8648
▁مدیون	-11.8648
▁موافقتنامه	-11.8648
▁مجید	-11.865
▁دستشویی	-11.865
▁نیاید	-11.8651
▁Cloud	-11.8651
▁2030	-11.8652
▁عادل	-11.8653
▁جانوران	-11.8656
▁زیاده	-11.8657
▁جف	-11.8658
▁دوردست	-11.8658
هام	-11.8659
ترو	-11.866
Pro	-11.8663
rm	-11.8663
▁الکلی	-11.8665
▁عموی	-11.8666
▁جرمی	-11.8667
▁بیو	-11.8668
▁اقامتگاه	-11.8668
ّم	-11.8669
▁حامله	-11.867
پان	-11.867
▁کوله	-11.8672
▁ویرانگر	-11.8673
َا	-11.8673
▁by	-11.8673
▁حرمت	-11.8676
▁سیری	-11.8677
▁آدام	-11.8678
rn	-11.8679
▁اختراعات	-11.8681
▁اریک	-11.8683
▁بومیان	-11.8684
▁شکرگزاری	-11.8686
▁ایمیلی	-11.8687
nes	-11.8687
▁77	-11.8688
▁عرفان	-11.8693
موس	-11.8693
DE	-11.8694
▁AR	-11.8698
▁یونی	-11.8699
▁مهاجمان	-11.8699
حص	-11.8705
▁برنمی	-11.8705
TE	-11.8706
اندیش	-11.8709
▁تجرب	-11.8712
پایه	-11.8714
▁پاسخگوی	-11.8719
▁92	-11.8721
▁اینچی	-11.8722
▁کتبی	-11.8722
PR	-11.8724
خرید	-11.8731
▁تج	-11.8734
yo	-11.8741
▁مایلی	-11.8741
▁مارکسیست	-11.8743
▁1.2	-11.8745
لوس	-11.8748
PE	-11.8749
--	-11.8755
▁متا	-11.8755
اکو	-11.8756
▁Sha	-11.8758
▁جوک	-11.8763
▁میشل	-11.877
▁زندگیتان	-11.8771
▁Ste	-11.8784
▁نشدن	-11.8786
▁اکثرا	-11.8788
▁Na	-11.8792
▁نوازی	-11.8793
▁نتیج	-11.8795
▁بهائی	-11.8804
▁مهد	-11.8811
ساخت	-11.8812
▁you	-11.8814
هرگز	-11.8815
مبو	-11.8816
▁کران	-11.8816
31	-11.882
▁کشم	-11.8825
▁School	-11.8828
▁آریزونا	-11.8828
▁احضار	-11.8828
▁اعراب	-11.8828
▁بگردید	-11.8828
▁محتاج	-11.8828
▁مصداق	-11.8828
▁منسجم	-11.8828
▁نارگیل	-11.8828
▁ناپایدار	-11.8828
▁هلیکوپتر	-11.8828
▁چهارچوب	-11.8828
▁کاذب	-11.8828
▁ونکوور	-11.8828
▁استعمال	-11.8828
▁جرأت	-11.8828
▁اهرم	-11.8828
▁مرسوم	-11.8828
▁صدمات	-11.8828
▁تصاحب	-11.8828
▁1979	-11.8828
▁طرق	-11.8828
▁گورستان	-11.8828
▁PDF	-11.8829
▁۱۹۵۰	-11.8829
▁آجر	-11.883
▁پلیمر	-11.883
▁فولیکول	-11.883
▁سیدنی	-11.883
▁وارث	-11.8831
▁لغات	-11.8831
▁الْ	-11.8835
▁پلاک	-11.8835
۳۵	-11.8836
▁برانگیخته	-11.8836
▁مکه	-11.8839
▁۸۰۰	-11.884
▁توالی	-11.884
▁مرسی	-11.884
(1)	-11.884
▁كش	-11.884
▁تأسیسات	-11.8844
▁بخورم	-11.8845
UN	-11.8845
زم	-11.8848
▁تایلندی	-11.8849
▁تیتر	-11.8851
▁بلای	-11.8851
▁استیون	-11.8851
▁ماسه	-11.8851
▁تاکتیکی	-11.8852
▁پنهانی	-11.8853
▁دلپذیر	-11.8854
▁Good	-11.8856
▁عنکبوت	-11.8858
▁شاپ	-11.886
▁بسط	-11.8861
▁AD	-11.8869
▁تقریبی	-11.887
▁تفکرات	-11.8873
▁تابلو	-11.8878
▁2014،	-11.8878
▁فرزندانتان	-11.888
▁چشمانش	-11.8886
▁شاهدان	-11.8889
▁نب	-11.8889
▁خردمند	-11.889
▁Per	-11.8893
ny	-11.8902
ذا	-11.8903
▁AT	-11.8903
▁مولف	-11.8905
▁قومیت	-11.8906
tes	-11.8913
▁بدبین	-11.8913
▁خد	-11.8914
▁be	-11.8925
افی	-11.8926
▁میلیونها	-11.893
▁برزیلی	-11.8933
▁خاکی	-11.8939
/2	-11.8945
lt	-11.8946
پایان	-11.8947
91	-11.8947
▁دربار	-11.8953
▁اکو	-11.8953
▁خل	-11.8954
▁Ga	-11.8959
▁جغرافیا	-11.8959
ker	-11.8963
خیر	-11.8964
▁نگرد	-11.8965
ندا	-11.8967
ef	-11.8971
گرم	-11.898
▁بنز	-11.8981
els	-11.8982
▁Ver	-11.8985
َن	-11.8985
▁مکس	-11.8994
▁140	-11.8996
قول	-11.8997
ther	-11.8997
▁شعب	-11.8998
۷۰	-11.8998
$	-11.8999
میلیون	-11.8999
old	-11.9
▁اندرویدی	-11.9001
▁تدارک	-11.9003
dia	-11.9004
af	-11.9005
▁الس	-11.9006
▁آدمها	-11.9006
▁فرستند	-11.9006
▁Inc	-11.901
▁عشقی	-11.901
▁جواهر	-11.901
۲۳	-11.9011
ثر	-11.9012
▁درآوردن	-11.9013
▁تدبیر	-11.9013
▁ضمیمه	-11.9013
▁ناآرامی	-11.9013
▁هیپنوتیزم	-11.9013
▁کامبوج	-11.9013
▁منچستر	-11.9013
▁توحید	-11.9013
▁سفینه	-11.9013
▁تلفیق	-11.9013
▁هیأت	-11.9013
▁چلسی	-11.9013
▁ناسالم	-11.9013
▁خفه	-11.9013
▁بامزه	-11.9014
▁زادگاه	-11.9014
▁ویلسون	-11.9014
▁اطلاعی	-11.9015
▁بفروشید	-11.9015
▁دزدیده	-11.9015
▁پردیس	-11.9015
▁Read	-11.9015
▁شاهکار	-11.9015
▁چکیده	-11.9015
▁بشنود	-11.9015
▁اسکان	-11.9015
▁بشناسند	-11.9016
▁بفرستد	-11.9017
▁معالجه	-11.9017
▁مل	-11.9017
▁98	-11.9022
▁خبرنامه	-11.9022
▁همتایان	-11.9022
▁Bi	-11.9023
زنویسی	-11.9023
▁یادگار	-11.9024
▁مریدان	-11.9024
▁انباشته	-11.9024
ستم	-11.9025
day	-11.9026
▁Cap	-11.9029
▁امامت	-11.9029
ade	-11.9031
۲۲	-11.9036
▁دالر	-11.9037
▁مولد	-11.9042
▁۶۴	-11.9047
لار	-11.9051
▁کشتند	-11.9053
▁ترقی	-11.9054
ever	-11.9057
ew	-11.9057
▁آف	-11.9058
▁مدتها	-11.906
▁بخرد	-11.9062
رقه	-11.9062
▁ماریا	-11.9065
▁بالش	-11.9067
▁نظار	-11.9072
▁رویاها	-11.9079
▁اونجا	-11.9079
Co	-11.908
▁نهنگ	-11.908
▁باارزش	-11.9082
▁دیرین	-11.9083
▁پوک	-11.9084
▁رف	-11.9084
▁تنگه	-11.9086
▁پات	-11.9087
▁ویدیوهای	-11.9089
لاک	-11.9099
▁سپ	-11.9101
▁خونین	-11.9103
▁اونس	-11.9106
▁کنیا	-11.9106
▁بدنش	-11.9106
▁کرو	-11.9108
▁آسا	-11.9114
▁بازگشتند	-11.9116
▁59	-11.9116
des	-11.9122
MC	-11.9123
▁فرزندم	-11.9129
▁نیکل	-11.9136
ایا	-11.9137
▁هلی	-11.9142
اسم	-11.915
جنس	-11.9151
ile	-11.9156
▁دندانهای	-11.9159
▁فکرش	-11.9165
▁رسانید	-11.9165
نوش	-11.9171
▁توضیحی	-11.9171
gar	-11.9172
ورز	-11.9173
76	-11.9176
انقلاب	-11.9188
چل	-11.9188
▁تجلی	-11.9194
▁بگذر	-11.9196
▁ترشح	-11.9197
▁گوی	-11.92
▁نص	-11.9201
▁۱۲۰	-11.9201
▁بپوشید	-11.9202
▁خراسان	-11.9202
▁عواطف	-11.9202
▁مجذوب	-11.9202
▁عایق	-11.9202
▁سالخورده	-11.9202
▁اجسام	-11.9202
▁کبیر	-11.9202
▁اشراف	-11.9202
▁دریابید	-11.9202
▁فواصل	-11.9202
▁منیزیم	-11.9202
▁خلاء	-11.9202
▁تجدیدپذیر	-11.9202
▁2.5	-11.9203
▁قهر	-11.9203
▁وصیت	-11.9203
▁موعد	-11.9203
▁File	-11.9203
▁سروکار	-11.9204
ble	-11.9204
▁Design	-11.9204
▁1930	-11.9204
▁SSL	-11.9204
▁فاکس	-11.9205
▁میدهیم	-11.9207
▁دادرسی	-11.9213
▁الکسا	-11.9216
ica	-11.9216
▁تصادفات	-11.9216
واره	-11.922
▁ناهنجاری	-11.9221
que	-11.9222
▁بیایم	-11.9223
▁پار	-11.9224
▁مانعی	-11.9224
▁همجنس	-11.9224
▁EB	-11.9225
41	-11.9226
▁خریدن	-11.9227
▁دیدگی	-11.9227
ning	-11.923
▁مستندات	-11.9231
▁گردیم	-11.9232
ورو	-11.9237
▁شخصاً	-11.924
▁نع	-11.924
▁فری	-11.9241
▁pa	-11.9244
▁پرسی	-11.9245
let	-11.9249
▁سرشان	-11.9254
▁رن	-11.9257
کشور	-11.9259
▁دیل	-11.9265
▁تبر	-11.9266
▁جغرافیای	-11.9268
گي	-11.9268
یدند	-11.9269
▁خودروسازی	-11.9272
▁استانداردها	-11.9273
▁؟!	-11.9275
▁درنگ	-11.9278
▁ریاض	-11.9278
▁وجو	-11.928
▁تردیدی	-11.9282
▁فرزندشان	-11.9282
▁قربان	-11.9293
att	-11.9296
ستین	-11.9296
ans	-11.9297
▁Can	-11.9302
van	-11.9309
ادت	-11.9314
▁حسابدار	-11.9317
گرام	-11.9319
▁نوشتاری	-11.9321
▁گود	-11.9323
eb	-11.9328
▁فراخواند	-11.9329
سوز	-11.9334
▁دوازدهم	-11.9337
▁سفره	-11.9337
▁DC	-11.9342
▁97	-11.9343
ایز	-11.9346
▁1920	-11.9346
▁میگیرند	-11.9347
▁اسمی	-11.9352
▁اماکن	-11.9352
▁نگو	-11.9355
▁لازمه	-11.9362
▁شویی	-11.9363
uc	-11.9366
▁هش	-11.9367
▁هائی	-11.9368
SL	-11.9375
▁بیلی	-11.9376
▁هرروز	-11.9377
اقتصاد	-11.938
داستان	-11.9382
▁کارتر	-11.9384
OP	-11.9387
▁آشام	-11.9387
نوم	-11.9387
▁نواز	-11.9391
▁پایش	-11.9391
▁حیطه	-11.9394
▁خلیفه	-11.9394
▁فرآورده	-11.9394
▁هولوکاست	-11.9394
▁مسعود	-11.9394
▁مفاد	-11.9394
▁بیگانگان	-11.9394
▁افریقا	-11.9394
▁اسهال	-11.9394
▁واکسیناسیون	-11.9394
▁نشریات	-11.9394
▁فامیل	-11.9394
▁بلاکچین	-11.9395
▁مگاوات	-11.9395
▁بغل	-11.9395
▁قلمداد	-11.9395
▁اعضاء	-11.9395
▁لگن	-11.9395
▁کامنت	-11.9395
▁اظهارنظر	-11.9396
▁گلبول	-11.9396
▁بنشیند	-11.9396
▁مطب	-11.9396
▁مشروعیت	-11.9396
▁گلکسی	-11.9397
▁المثل	-11.9398
▁صورتحساب	-11.9399
ich	-11.9399
▁بنگ	-11.9401
▁ارضا	-11.9403
▁بازداشتگاه	-11.9403
▁بازرسان	-11.9405
▁چمن	-11.9406
▁خارش	-11.9407
▁شامپو	-11.9407
▁الدین	-11.9409
تول	-11.941
▁co	-11.9413
▁شیراز	-11.9416
▁میکردم	-11.9416
▁شكل	-11.9421
▁عزاداری	-11.9422
▁زنبورها	-11.9422
▁تباه	-11.9423
69	-11.9423
جمع	-11.9425
▁دوستت	-11.9425
▁Mu	-11.9427
▁ایدئولوژیک	-11.9433
CE	-11.9441
▁پاشن	-11.9442
▁اکس	-11.9443
▁Cam	-11.9443
▁IN	-11.9444
»[	-11.9446
▁پلک	-11.9452
▁فروشند	-11.9454
▁لحظاتی	-11.9457
رضا	-11.9458
▁میداد	-11.9462
▁2015،	-11.9465
▁عمرش	-11.9466
▁مندان	-11.9469
▁گرانش	-11.947
▁شناسه	-11.9473
02	-11.9473
ions	-11.9476
▁بازو	-11.9477
▁قوا	-11.9483
همین	-11.9484
▁ابرو	-11.9484
ET	-11.9488
▁Hua	-11.9488
اشی	-11.949
گیرد	-11.9491
▁معما	-11.9491
يب	-11.9493
▁گردو	-11.9497
▁کاندیدای	-11.9499
▁سلم	-11.95
▁SE	-11.95
▁گمرک	-11.9506
▁۹۵	-11.9506
ورش	-11.9506
▁اینچنین	-11.9507
tur	-11.9511
ترين	-11.9514
▁لیاقت	-11.9514
کون	-11.9515
▁اپی	-11.9516
ture	-11.9516
▁منتقد	-11.9516
wei	-11.9517
tics	-11.952
ound	-11.9521
oli	-11.9523
wa	-11.9526
▁Cr	-11.9529
گوش	-11.9534
▁تك	-11.9535
ert	-11.9536
▁US	-11.9545
بورگ	-11.955
▁کارآمدتر	-11.955
▁پاد	-11.9554
جویان	-11.9558
▁لوگوی	-11.9558
▁ملتی	-11.9559
▁کوچ	-11.956
ings	-11.9561
▁سالمند	-11.9562
▁رؤیا	-11.9568
▁آشکارساز	-11.9571
▁(6	-11.9571
▁هدفش	-11.9572
▁احتمالات	-11.9572
▁رؤیای	-11.9572
▁خرابی	-11.9576
خص	-11.9577
مثلاً	-11.958
▁بیار	-11.9583
▁4:	-11.9584
▁بگویی	-11.9588
▁10-	-11.9589
▁مشتق	-11.959
▁Project	-11.959
▁YouTube	-11.959
▁آپدیت	-11.959
▁انحلال	-11.959
▁تاجیکستان	-11.959
▁دخانیات	-11.959
▁رنگارنگ	-11.959
▁پروتستان	-11.959
▁دیپلماسی	-11.959
▁متراکم	-11.959
▁تشنه	-11.959
▁دلقک	-11.959
▁هشیار	-11.959
▁اسلاید	-11.959
▁چارلی	-11.9591
▁فاشیسم	-11.9591
▁کشمکش	-11.9591
▁غلام	-11.9591
▁گوجه	-11.9592
▁پشه	-11.9592
RC	-11.9592
▁وخیم	-11.9592
▁سموم	-11.9592
▁Out	-11.9592
▁اسکناس	-11.9594
▁پاسداران	-11.9594
▁View	-11.9595
▁دوبرابر	-11.9595
▁آرتور	-11.9596
▁پرشور	-11.9598
▁بپرسم	-11.96
▁اشاع	-11.9601
▁سوز	-11.9602
▁پریشان	-11.9602
ضر	-11.9605
ise	-11.9605
ولوژیک	-11.9606
▁گلدان	-11.9608
▁اعتمادی	-11.9608
▁نکردید	-11.961
پین	-11.961
▁نامیدند	-11.9611
وشی	-11.9611
▁مثلث	-11.9615
▁تلاشهای	-11.9618
▁بکشم	-11.9618
▁خوابیده	-11.9621
▁EC	-11.9625
▁بینندگان	-11.9626
▁روشنگری	-11.963
ace	-11.9631
▁عجب	-11.9636
▁هیو	-11.964
PT	-11.9643
▁ترجیحات	-11.9646
▁جیمی	-11.9648
0,000	-11.9649
▁پولیس	-11.9656
▁tr	-11.9656
▁رقمی	-11.9657
▁بگیری	-11.9657
▁دایر	-11.9662
▁سپرد	-11.9666
مندان	-11.9669
▁جعفر	-11.9671
▁سنسورهای	-11.9672
▁خواهرم	-11.9676
▁ar	-11.9682
▁دوتا	-11.9689
هنر	-11.9693
▁گاوها	-11.9693
ress	-11.9695
نمایی	-11.9695
گال	-11.9697
du	-11.9697
▁ویرایشگر	-11.9704
▁جنگجو	-11.9704
▁فراخوانی	-11.9706
▁وقتش	-11.9709
▁تنبل	-11.9718
▁ببینی	-11.9724
▁پانزدهم	-11.9726
▁سخنی	-11.9729
▁نشدم	-11.9729
07	-11.9738
▁بیاد	-11.9742
▁تمامیت	-11.9744
▁دهلی	-11.9745
زاک	-11.9748
▁Win	-11.9748
▁اعتراضی	-11.9753
RT	-11.9755
چهار	-11.9771
▁93	-11.9772
‍	-11.9776
▁شرکتها	-11.9776
چنين	-11.9776
▁کاترین	-11.9777
▁فردای	-11.9777
دیا	-11.978
▁Don	-11.9781
▁تخلف	-11.9783
سیستم	-11.9783
ring	-11.9785
▁System	-11.9786
▁اجساد	-11.979
▁استغفار	-11.979
▁بپیوندد	-11.979
▁تکالیف	-11.979
▁فضیلت	-11.979
▁ماساچوست	-11.979
▁معتدل	-11.979
▁پنسیلوانیا	-11.979
▁یکپارچگی	-11.979
▁توليد	-11.979
▁جوزف	-11.979
▁خسارات	-11.979
▁بازمانده	-11.979
▁تسنیم	-11.979
▁نمائید	-11.979
▁اجماع	-11.979
▁همکلاسی	-11.979
▁ویزیت	-11.979
▁آرتریت	-11.979
▁اجابت	-11.979
▁رمزگشا	-11.979
▁کلاژن	-11.979
▁میلیمتر	-11.9791
▁طفل	-11.9791
▁Master	-11.9791
▁مرمر	-11.9791
▁غذاخوری	-11.9791
▁نامنظم	-11.9792
▁بیابند	-11.9792
▁اسکر	-11.9792
▁متشکرم	-11.9792
وزرسانی	-11.9792
▁گرامر	-11.9793
پیک	-11.9794
▁شنویم	-11.9794
▁نوسازی	-11.9795
▁(10	-11.9795
▁نوسانات	-11.9795
▁بازدیدکننده	-11.9795
▁إ	-11.9796
Mo	-11.9801
▁سیارک	-11.9802
▁ادا	-11.9803
fa	-11.9807
▁تز	-11.9807
کتور	-11.9808
▁سانتا	-11.9809
وید	-11.9809
PM	-11.981
▁سوئیسی	-11.9816
▁افتخاری	-11.9817
▁روکش	-11.9819
II	-11.9819
▁شیردهی	-11.9822
▁چن	-11.9824
▁صح	-11.9829
▁موردنظر	-11.9833
▁فت	-11.9833
▁فروند	-11.9834
▁نمایم	-11.9835
▁خواستید	-11.9839
▁Cha	-11.984
▁نویسید	-11.9841
▁فوران	-11.9842
پذیری	-11.9849
شیر	-11.9852
مرگ	-11.9859
over	-11.9861
▁یاهو	-11.9862
▁بیماریهای	-11.9873
▁ترند	-11.9874
▁٢٠١	-11.9875
▁باورم	-11.9878
▁Up	-11.9884
▁فعالی	-11.9884
باور	-11.9885
py	-11.9894
▁اله	-11.9894
بوس	-11.9895
▁میدانی	-11.9896
▁هد	-11.9898
▁88	-11.99
▁موری	-11.99
▁دایی	-11.9903
▁گردشگر	-11.9904
▁Par	-11.9904
▁انزوا	-11.9908
▁صهیونیست	-11.9908
▁پت	-11.9909
لوم	-11.9911
ark	-11.9912
▁شاعران	-11.9914
▁متفکران	-11.9917
▁بخوان	-11.992
▁78	-11.9922
▁ممنوعه	-11.9924
پال	-11.9926
▁:)	-11.9928
▁سرکه	-11.9931
▁چتر	-11.9932
▁یادت	-11.9933
▁سناریوی	-11.9937
▁هور	-11.994
▁HP	-11.9949
▁مرید	-11.9951
▁سازان	-11.9952
جرقه	-11.9953
▁se	-11.9955
خورد	-11.9956
▁سپاسگزاری	-11.9957
IF	-11.9969
▁آنتونی	-11.9974
▁نواختن	-11.9976
▁ملیتی	-11.9976
لیک	-11.9978
▁Cor	-11.9979
▁ولت	-11.998
احساس	-11.998
انگلیسی	-11.998
منظور	-11.998
▁مائو	-11.998
▁ویرانی	-11.9981
▁کیا	-11.9982
▁شك	-11.9982
▁God	-11.9983
08	-11.9984
▁سده	-11.9985
▁برگردان	-11.9987
▁قدرتمندتر	-11.9987
▁رویت	-11.9988
▁سرپرستی	-11.999
▁دانیل	-11.9992
▁انفجاری	-11.9992
▁پیل	-11.9992
▁مفقود	-11.9994
▁تشعشع	-11.9994
▁دسکتاپ	-11.9994
▁سریلانکا	-11.9994
▁شراکت	-11.9994
▁فتوشاپ	-11.9994
▁تعمیم	-11.9994
▁درخشش	-11.9994
▁مملکت	-11.9994
▁Control	-11.9994
▁گنجینه	-11.9994
▁نشیمن	-11.9994
▁تفرقه	-11.9994
▁ضمیر	-11.9994
▁تساوی	-11.9994
▁فاضلاب	-11.9994
▁عنایت	-11.9994
▁Media	-11.9994
▁اکران	-11.9995
دایرکتوری	-11.9995
▁ایجاب	-11.9995
▁یونسکو	-11.9995
▁1988	-11.9995
▁1949	-11.9995
▁پافشار	-11.9995
▁تحریر	-11.9995
work	-11.9996
▁سندرز	-11.9996
▁محسن	-11.9996
▁چرت	-11.9996
▁High	-11.9996
▁Mobile	-11.9997
▁تموم	-11.9997
▁بفروشند	-11.9997
IL	-11.9998
▁جوراب	-11.9998
amp	-11.9998
▁داروسازی	-11.9999
▁پنبه	-11.9999
▁منفعل	-11.9999
▁مگ	-12
▁ریگان	-12
▁City	-12.0001
▁لوط	-12.0002
▁سرا	-12.0003
مک	-12.0004
▁خرسند	-12.0005
▁طاقت	-12.0005
▁خوردگی	-12.0006
▁کابینت	-12.0008
▁پسورد	-12.0008
رسان	-12.001
▁کارگزاران	-12.0011
▁نفی	-12.0012
▁وکارهای	-12.0012
▁زیستگاه	-12.0013
▁خودتون	-12.0013
▁بدید	-12.0014
▁76	-12.0015
فین	-12.0016
▁تبع	-12.0016
▁شتر	-12.0016
▁82	-12.0017
دهند	-12.0019
▁پذیرفتند	-12.002
▁سنگر	-12.0024
▁پذیرای	-12.0025
▁روزهایی	-12.0027
▁an	-12.003
bs	-12.0035
▁نوش	-12.0047
▁آتن	-12.005
▁میله	-12.0053
▁گذران	-12.0058
▁پدری	-12.0061
vis	-12.0067
▁اتاقی	-12.0067
▁روایتی	-12.007
آزادی	-12.007
کیه	-12.0073
ros	-12.0073
FC	-12.0075
▁لوح	-12.0076
▁کمیت	-12.0076
▁سیزده	-12.0081
گین	-12.0081
خواب	-12.0084
▁پشیمانی	-12.0084
وست	-12.0085
ami	-12.0087
ریو	-12.009
CL	-12.0092
▁نمیشود	-12.0095
▁Tri	-12.0096
انجام	-12.0105
sha	-12.0105
▁خواری	-12.0109
▁پند	-12.0114
▁Dis	-12.0115
▁فضاپیما	-12.0116
▁جستجوهای	-12.0116
▁دزدان	-12.012
▁کتب	-12.0123
/4	-12.0126
▁دایم	-12.0127
PL	-12.0129
▁متوسطه	-12.013
غر	-12.0131
▁گواه	-12.0131
▁تیک	-12.0133
ّل	-12.0134
▁79	-12.0135
▁عمدی	-12.0136
▁یکصد	-12.0143
▁دیرتر	-12.0151
▁ex	-12.0152
لیت	-12.0153
▁68	-12.0156
▁روستاهای	-12.0165
▁It	-12.0166
▁سالیان	-12.0167
ورت	-12.0167
72	-12.0179
▁تقلبی	-12.0182
▁بخشهای	-12.0182
فرا	-12.0182
دانه	-12.0189
قرض	-12.0189
▁نگری	-12.0191
gr	-12.0196
▁عقی	-12.0199
▁مطبوع	-12.0199
▁خانمی	-12.02
▁تمرینی	-12.02
▁Street	-12.0202
▁White	-12.0202
▁بشقاب	-12.0202
▁بیچاره	-12.0202
▁تروتسکی	-12.0202
▁مضاعف	-12.0202
▁دلسرد	-12.0202
▁خشکسالی	-12.0202
▁سرازیر	-12.0203
▁ابرقهرمان	-12.0203
▁سانتیمتر	-12.0203
▁اسرارآمیز	-12.0203
▁بوتاکس	-12.0203
▁آیپد	-12.0203
▁XML	-12.0203
▁1984	-12.0203
▁پیشتاز	-12.0203
▁اشیای	-12.0203
▁اقرار	-12.0203
▁1975	-12.0203
▁چرم	-12.0204
▁۱۹۲۰	-12.0204
▁یعقوب	-12.0204
▁الکترو	-12.0204
▁لینکدین	-12.0204
▁پرهزینه	-12.0204
▁بخریم	-12.0204
▁HTTPS	-12.0205
▁قاطعانه	-12.0205
▁هواشناسی	-12.0206
▁بنفش	-12.0206
mar	-12.0206
▁آیم	-12.0207
▁کتابش	-12.0207
▁قبرستان	-12.0209
▁پررنگ	-12.021
▁نیفتاده	-12.021
▁بوسنی	-12.0211
▁لاین	-12.0211
▁سپاری	-12.0212
▁آموزگاران	-12.0212
▁تماشاگران	-12.0212
▁برام	-12.0214
▁ربا	-12.0214
▁بازرگانان	-12.0214
▁هجدهم	-12.0215
▁ریال	-12.0218
▁62	-12.0219
▁ارتجاعی	-12.022
ini	-12.022
▁هواوی	-12.022
▁مغل	-12.0223
▁صمیمیت	-12.0223
شدت	-12.0223
▁دونم	-12.0223
▁AM	-12.0224
▁نخورد	-12.0224
▁پسوند	-12.0228
▁شونده	-12.0229
▁جراحت	-12.0231
خوار	-12.0232
▁American	-12.0232
▁شاتر	-12.0234
وکا	-12.0241
▁محا	-12.0242
هنگامی	-12.0245
▁دي	-12.0245
بینی	-12.0246
▁کردار	-12.0247
"(	-12.0249
▁صدد	-12.0249
▁69	-12.025
▁راهرو	-12.0259
▁AL	-12.026
▁بم	-12.026
▁شناختند	-12.0261
bb	-12.0264
دال	-12.0265
tan	-12.0265
▁دکترای	-12.0266
▁زوم	-12.0271
▁مداد	-12.0272
GB	-12.0272
▁جم	-12.0273
▁گرده	-12.0277
▁روانه	-12.0277
▁باوجود	-12.0278
Po	-12.0281
▁مارچ	-12.0283
▁اشتها	-12.0285
▁1500	-12.0288
▁(8	-12.029
▁یکباره	-12.029
▁محول	-12.029
▁خار	-12.0291
ney	-12.0297
▁CC	-12.0303
▁افزارها	-12.0303
ino	-12.0311
بلاغ	-12.0314
حالا	-12.032
ness	-12.033
توانند	-12.0332
rop	-12.0336
▁۴۴	-12.0338
▁TR	-12.034
▁CA	-12.0341
گانگی	-12.0341
▁مغزتان	-12.0343
▁موفقی	-12.0343
La	-12.0343
▁هیپو	-12.0349
evel	-12.035
▁تص	-12.0352
هفته	-12.0353
▁Ab	-12.0354
▁جنت	-12.0355
▁Str	-12.0358
als	-12.036
فات	-12.0362
▁ارزشش	-12.0364
▁Max	-12.0367
▁ویلا	-12.0368
▁۳۳	-12.0369
ane	-12.0373
▁۳۰۰۰	-12.0374
▁شیفت	-12.0382
▁سلیمانی	-12.0383
FS	-12.0386
۳۸	-12.039
▁فرید	-12.039
▁كودك	-12.0392
▁کسر	-12.04
َل	-12.0401
دانشگاه	-12.0402
▁بفرست	-12.0403
بست	-12.0406
/3	-12.0406
▁بشم	-12.0409
use	-12.0409
▁ناکامی	-12.0409
▁سازمانها	-12.0411
▁مورخ	-12.0412
۳۴	-12.0415
▁Edition	-12.0415
▁آجیل	-12.0415
▁آمرزش	-12.0415
▁ارسطو	-12.0415
▁زاکربرگ	-12.0415
▁سورپرایز	-12.0415
▁مستعمره	-12.0415
▁کوکائین	-12.0415
▁مارشال	-12.0415
▁برسانیم	-12.0415
▁نیازمندی	-12.0415
▁بیروت	-12.0415
▁ارضی	-12.0415
▁کلیدواژه	-12.0415
▁لهجه	-12.0416
▁منعقد	-12.0416
▁تهمت	-12.0416
هائی	-12.0416
▁منشاء	-12.0416
▁حوالی	-12.0416
▁گلوتن	-12.0416
▁Security	-12.0417
▁منشور	-12.0417
▁بیندازد	-12.0417
▁منجمد	-12.0417
▁نخورید	-12.0417
▁تضمینی	-12.0417
▁اسارت	-12.0418
▁Smart	-12.0418
▁بازتولید	-12.0418
▁آيا	-12.0419
▁استریت	-12.0419
▁افزودنی	-12.0419
▁جدال	-12.042
▁خرم	-12.042
▁David	-12.0421
حکیم	-12.0422
▁قضات	-12.0423
▁کانت	-12.0423
▁دسر	-12.0424
▁Book	-12.0425
یزم	-12.0427
▁شرور	-12.0429
▁زمين	-12.0431
▁آمارهای	-12.0431
▁وزیران	-12.0432
▁زدگی	-12.0435
other	-12.0438
ward	-12.044
▁زشتی	-12.044
▁کلیوی	-12.0441
ري	-12.0441
▁انداختند	-12.0446
▁Chi	-12.0447
▁آبهای	-12.0448
نوئل	-12.0448
.»(	-12.0451
▁ادی	-12.0453
▁(11	-12.0456
وگ	-12.0462
▁پلید	-12.0463
▁مشکی	-12.0466
▁شادمانی	-12.0468
راز	-12.0472
▁آرت	-12.0476
متر	-12.0478
مارک	-12.0478
▁لوتر	-12.0478
▁خودآگاهی	-12.0478
600	-12.0479
▁بوس	-12.048
▁ژنوم	-12.0481
▁مفصلی	-12.0481
▁ستیز	-12.0482
▁Park	-12.0485
▁سنتز	-12.0488
▁فیزیوتراپی	-12.0489
▁قن	-12.0489
▁فرست	-12.049
▁رساندند	-12.049
مَ	-12.049
▁ننگ	-12.0495
53	-12.0496
▁نبودیم	-12.0502
▁Sch	-12.0505
ns	-12.0507
▁انت	-12.0508
▁الب	-12.0508
طلب	-12.0513
mes	-12.0514
▁فیلمساز	-12.0516
mit	-12.0517
▁آموزند	-12.0521
▁میخواهیم	-12.0522
▁ترساند	-12.0528
بسیاری	-12.0529
▁Tra	-12.0529
▁وفق	-12.053
▁Sun	-12.0533
ting	-12.0535
▁سالهاست	-12.0536
▁آهنگساز	-12.0539
▁استعماری	-12.0543
▁4)	-12.0543
▁۴۲	-12.0543
▁گوارش	-12.0546
rad	-12.0547
▁پرسم	-12.0547
▁4000	-12.0548
▁خاکستر	-12.055
sch	-12.0551
▁Drive	-12.0551
-6	-12.0556
ئین	-12.0557
▁جذابی	-12.0557
▁شناختم	-12.0557
تف	-12.056
▁آسانتر	-12.0563
▁جنگند	-12.0565
▁اح	-12.0566
58	-12.0567
▁منزله	-12.0572
▁مالت	-12.0585
▁جانور	-12.0589
▁پیداست	-12.0591
▁روا	-12.0592
BI	-12.0594
uck	-12.0596
▁گلد	-12.0598
آورد	-12.0601
form	-12.0606
۹۹	-12.0611
▁Pat	-12.0612
LC	-12.0613
▁روتین	-12.0615
ene	-12.0617
RP	-12.0618
دختر	-12.0619
▁سي	-12.0621
بانی	-12.0624
▁غیب	-12.0626
▁فیزیکدان	-12.0627
▁استفان	-12.0629
▁بخند	-12.063
▁Amazon	-12.0633
▁Digital	-12.0633
▁آتلانتیک	-12.0633
▁آمبولانس	-12.0633
▁اسحاق	-12.0633
▁اقبال	-12.0633
▁اقتباس	-12.0633
▁بصیرت	-12.0633
▁بپیوندند	-12.0633
▁رقیق	-12.0633
▁حصار	-12.0633
▁نورپردازی	-12.0633
▁ناکافی	-12.0633
▁iPad	-12.0633
▁اشعار	-12.0633
ization	-12.0633
▁Image	-12.0633
▁ابلیس	-12.0633
▁گنبد	-12.0633
▁ورشکستگی	-12.0633
▁آئین	-12.0633
▁برنارد	-12.0633
▁1945	-12.0634
▁وکالت	-12.0634
▁نگیرد	-12.0634
▁آلبانی	-12.0634
▁خندان	-12.0634
▁نياز	-12.0634
▁هنگفت	-12.0635
▁خراش	-12.0635
▁موسوی	-12.0635
▁بشوید	-12.0635
▁Trans	-12.0635
▁نباشیم	-12.0636
box	-12.0636
mg	-12.0638
▁سومالی	-12.0638
▁کاسه	-12.0638
▁بتمن	-12.0639
▁نامشخص	-12.064
▁بشویم	-12.064
▁حسرت	-12.0641
▁۴۳	-12.0642
▁لیو	-12.0642
▁پیمایش	-12.0643
▁Code	-12.0643
▁Your	-12.0644
▁انتظارش	-12.0644
▁کنيد	-12.0644
▁پسندیده	-12.0644
قضی	-12.0645
▁چنين	-12.0649
93	-12.0649
▁بوسه	-12.0652
▁روبی	-12.0654
▁فرستادند	-12.0655
»(	-12.0657
▁ونیز	-12.0658
▁گویش	-12.066
خارج	-12.066
▁چالشی	-12.0663
لیز	-12.0664
▁عج	-12.0665
▁طلبانه	-12.0665
ted	-12.067
iss	-12.0671
▁سردار	-12.0673
ینگتون	-12.0674
▁دنی	-12.0676
▁ریس	-12.0679
▁حاکمان	-12.068
▁برهان	-12.0687
▁هن	-12.0694
لوک	-12.0695
61	-12.0696
▁اصولا	-12.0697
ok	-12.0701
▁هراسی	-12.0702
▁اسل	-12.0707
▁انتظاری	-12.072
▁خلافت	-12.0721
Pa	-12.0721
▁حرفهای	-12.0721
▁۴۷	-12.0722
▁فرایندی	-12.073
NP	-12.0743
ral	-12.0746
فرد	-12.0747
EF	-12.0748
▁دویست	-12.075
رسد	-12.075
87	-12.0753
▁طبع	-12.0757
▁Inter	-12.076
ative	-12.0761
▁مجبورند	-12.0762
ریزی	-12.0765
▁کیش	-12.0766
▁فسیل	-12.077
▁سیاستی	-12.0773
▁Val	-12.0773
▁ضمنی	-12.0776
-10	-12.0778
▁نهار	-12.0778
پوست	-12.0779
▁گوینده	-12.0782
▁پذیرتر	-12.0784
▁قب	-12.0786
▁IV	-12.0786
▁بيش	-12.079
▁هرجا	-12.0791
▁53	-12.0793
NF	-12.0794
لِ	-12.0797
وای	-12.0801
وتا	-12.0803
▁انتقالی	-12.0803
▁تأ	-12.0811
▁Comp	-12.0812
▁هوادار	-12.0813
▁اکت	-12.0822
▁مارکو	-12.0823
▁آلپ	-12.0829
هوا	-12.0836
CD	-12.0837
▁معترض	-12.0839
منطقه	-12.0841
▁قبولی	-12.0843
▁کوشید	-12.0843
▁انقباض	-12.0847
▁میگه	-12.0848
▁استیشن	-12.0848
light	-12.085
▁منبعی	-12.085
▁میکنن	-12.0852
کره	-12.0852
of	-12.0852
▁محرم	-12.0855
▁فرانسیس	-12.0855
▁CPU	-12.0855
▁Manager	-12.0855
▁آمستردام	-12.0855
▁ابوظبی	-12.0855
▁افسوس	-12.0855
▁اپیزود	-12.0855
▁بلوتوث	-12.0855
▁خصومت	-12.0855
▁معجزات	-12.0855
▁پرجمعیت	-12.0855
▁پروبیوتیک	-12.0855
▁پنگوئن	-12.0855
▁متوسل	-12.0855
▁بولیوی	-12.0855
▁انتصاب	-12.0855
▁مابقی	-12.0855
▁ویراستار	-12.0855
▁سونوگرافی	-12.0855
▁کتابها	-12.0855
▁مفتخر	-12.0855
▁متذکر	-12.0855
▁الوقوع	-12.0855
▁متجاوز	-12.0855
▁گاراژ	-12.0855
▁پستانداران	-12.0855
▁فلفل	-12.0855
▁گراهام	-12.0855
▁معاف	-12.0855
▁بیندازیم	-12.0856
▁سندروم	-12.0856
▁شرارت	-12.0856
▁گرمایی	-12.0856
▁مرکل	-12.0856
TM	-12.0856
▁مارکسیسم	-12.0856
▁آکنه	-12.0856
▁Dark	-12.0856
▁شتم	-12.0857
▁براتون	-12.0857
▁MRI	-12.0857
▁غیرطبیعی	-12.0858
▁ذوق	-12.0858
▁بمیرد	-12.0858
▁پدیا	-12.0858
▁ببخشند	-12.086
▁DVD	-12.086
▁State	-12.0861
▁خرداد	-12.0862
▁بیمارستانی	-12.0863
▁پراگ	-12.0863
▁باکتریایی	-12.0864
▁تجلیل	-12.0865
سویه	-12.0866
▁خوای	-12.0869
▁پیمانکاران	-12.087
▁زبانه	-12.0873
▁اقل	-12.0873
▁[1]	-12.0874
▁سپاسگزارم	-12.0874
▁LG	-12.0876
▁3:	-12.0877
▁کریستین	-12.0881
▁جمال	-12.0882
▁شسته	-12.0884
▁مُرد	-12.0884
▁مکانهای	-12.0886
۵۰۰	-12.0889
▁اولا	-12.0889
▁آموزنده	-12.089
▁مارول	-12.0897
▁واتس	-12.0898
▁170	-12.0899
▁مخابراتی	-12.0901
▁موبایلی	-12.0902
▁آنگونه	-12.0903
▁کینه	-12.0903
▁پیت	-12.0904
▁ورای	-12.0907
▁ماجراهای	-12.0908
▁رویدادی	-12.0909
▁مغ	-12.0912
▁61	-12.0913
▁Har	-12.0916
▁Sky	-12.0921
▁راستین	-12.0922
▁لَ	-12.0927
▁۴٫	-12.0929
▁کاروان	-12.0935
جب	-12.0936
▁کاوشگر	-12.0942
▁al	-12.0944
▁Mark	-12.0945
▁جنگلی	-12.0946
▁آمدیم	-12.0947
▁وارده	-12.0951
UT	-12.0963
ارزش	-12.0965
▁خانواد	-12.0966
▁عاج	-12.0968
▁نرود	-12.0968
▁کودتای	-12.0969
▁شات	-12.0969
bin	-12.097
مرا	-12.0971
81	-12.0974
▁Fo	-12.0978
پوینت	-12.0981
▁پوشید	-12.0981
برو	-12.0982
▁نج	-12.0982
▁سیست	-12.0984
▁TV	-12.0991
▁برات	-12.0992
▁روشنفکر	-12.0994
84	-12.0996
▁باهاش	-12.0997
▁شوخ	-12.0998
ژو	-12.0999
▁جداساز	-12.1001
▁Net	-12.1003
▁بسر	-12.1005
بلی	-12.1007
▁نشستم	-12.101
▁۷۲	-12.1011
▁هرچیز	-12.1012
▁King	-12.1013
62	-12.1013
▁بازرس	-12.1014
▁گزار	-12.1017
▁ریل	-12.1018
▁کارنامه	-12.1018
ودا	-12.1022
▁شانزده	-12.1024
غده	-12.1027
▁فلک	-12.1028
ادا	-12.103
▁اورژانسی	-12.103
▁مدلی	-12.1031
رول	-12.1032
▁مادرشان	-12.1037
▁la	-12.1037
طبق	-12.1041
خوبی	-12.1043
▁بندهای	-12.1045
▁مونو	-12.1048
▁News	-12.1049
شکل	-12.1053
▁خادم	-12.1056
▁Mode	-12.1058
گردد	-12.1062
▁زاد	-12.1064
▁فطر	-12.1064
▁دیدی	-12.1065
▁جل	-12.1065
حزب	-12.1068
یتا	-12.1069
[2]	-12.107
الدین	-12.1071
len	-12.1074
▁میکروبی	-12.1074
ویه	-12.1074
امر	-12.1076
▁3)	-12.1076
شخص	-12.1079
▁eBay	-12.1082
▁آنابولیک	-12.1082
▁انقضا	-12.1082
▁انیشتین	-12.1082
▁دیافراگم	-12.1082
▁محصور	-12.1082
▁مذاهب	-12.1082
▁ولادیمیر	-12.1082
▁کاکائو	-12.1082
▁رحیم	-12.1082
▁مضحک	-12.1082
▁ناگفته	-12.1082
▁Office	-12.1082
▁قبایل	-12.1082
▁یونیسف	-12.1082
▁مزبور	-12.1082
▁۱۹۴۵	-12.1083
▁آپولو	-12.1083
▁1987	-12.1083
▁Rock	-12.1083
▁مستحق	-12.1083
▁سانحه	-12.1083
▁پسربچه	-12.1083
▁برهنه	-12.1083
▁پورشه	-12.1083
▁رساله	-12.1084
▁بذار	-12.1084
▁SQL	-12.1085
▁شنوم	-12.1085
▁نویسندگی	-12.1085
▁کاهن	-12.1085
▁بشناسد	-12.1085
▁فعلاً	-12.1085
▁مورگان	-12.1085
▁انگور	-12.1086
▁بیابد	-12.1086
خواهید	-12.1086
▁گفتگوها	-12.1086
▁برندها	-12.1087
▁کلارک	-12.1087
روش	-12.1087
▁تسلیت	-12.1087
▁گون	-12.1088
▁Day	-12.1088
▁هدست	-12.1088
board	-12.1088
▁Plus	-12.1089
▁عصا	-12.1089
▁بوکس	-12.1089
▁نتوانیم	-12.1089
▁دردهای	-12.109
▁کنارش	-12.109
▁گذرگاه	-12.109
▁دلالت	-12.1095
مگر	-12.1097
▁آرامگاه	-12.1098
انیم	-12.1099
▁گرانبها	-12.1101
▁یزد	-12.1103
▁گفتاری	-12.1103
▁اندازهای	-12.1106
▁خندیدن	-12.1107
VI	-12.1107
رف	-12.1107
▁۵۲	-12.1108
▁ترسی	-12.1108
▁بردگان	-12.111
▁ابتکارات	-12.1112
َد	-12.1112
▁جوانه	-12.1114
Th	-12.1114
▁67	-12.1118
▁پرید	-12.1122
▁تندرو	-12.1122
▁تیمش	-12.1124
▁جائی	-12.1124
▁اره	-12.1124
▁خوشبین	-12.1126
82	-12.113
▁قراردادها	-12.1131
▁خصوصیت	-12.1134
▁po	-12.1136
غم	-12.1139
▁آرد	-12.114
89	-12.1142
▁Col	-12.1143
اطلاق	-12.1143
▁GT	-12.1144
▁Games	-12.1145
▁دهانش	-12.1147
▁جیر	-12.115
▁Ki	-12.1151
pro	-12.1153
▁طبیعتا	-12.1156
نال	-12.1157
▁نجومی	-12.1159
pan	-12.1162
▁صعودی	-12.1163
tive	-12.1163
▁۷۰۰	-12.1168
▁ساقه	-12.117
▁چاپگر	-12.1171
▁USD	-12.1178
▁آمارها	-12.1179
▁بکر	-12.118
yl	-12.1181
لات	-12.1181
▁كردم	-12.1183
▁شارژر	-12.1185
ero	-12.1186
▁تابلوی	-12.119
▁نمادهای	-12.1192
▁زیباتر	-12.1197
هوش	-12.1198
کمک	-12.1199
Con	-12.1199
▁کاندیدا	-12.1204
مندی	-12.1205
▁Bit	-12.1206
▁ES	-12.1209
۳۲	-12.1209
اسب	-12.1218
sis	-12.1221
▁بشمار	-12.1225
▁٣	-12.1226
▁برکنار	-12.1228
نین	-12.1229
sen	-12.1233
▁اخر	-12.1239
▁سوزنی	-12.1242
▁وجوی	-12.1242
وجود	-12.1243
▁EA	-12.1249
۹۵	-12.125
▁انگیزش	-12.1251
زیرا	-12.1254
Al	-12.1256
چال	-12.1257
▁حقّ	-12.1263
سوی	-12.1272
ize	-12.1279
▁كس	-12.1284
کنیم	-12.1286
▁کلیساها	-12.1292
\	-12.1293
▁Ru	-12.1295
▁RE	-12.1296
gy	-12.1297
▁قضا	-12.1298
محمد	-12.1301
▁سیستمهای	-12.1302
فرانس	-12.1302
▁فولادی	-12.1305
▁صلیبی	-12.1305
▁گلوی	-12.1308
اتو	-12.1312
▁مسموم	-12.1314
®	-12.1315
▁آسپرین	-12.1315
▁اجناس	-12.1315
▁احتراق	-12.1315
▁ارتودنسی	-12.1315
▁ارکستر	-12.1315
▁خصلت	-12.1315
▁غیرعادی	-12.1315
▁لفظ	-12.1315
▁ناپلئون	-12.1315
▁نیتروژن	-12.1315
▁آمیخته	-12.1315
▁طمع	-12.1315
▁انسجام	-12.1315
▁Express	-12.1315
▁۱۹۶۸	-12.1315
▁۱۹۷۹	-12.1315
▁قرعه	-12.1315
▁Euro	-12.1315
▁۱۹۹۲	-12.1315
▁نیکوتین	-12.1315
▁هود	-12.1315
▁دنيا	-12.1315
▁فرضیات	-12.1315
▁اجاق	-12.1315
▁قاسم	-12.1315
▁زندگي	-12.1316
▁استثناء	-12.1316
▁Netflix	-12.1316
▁جديد	-12.1316
▁3.5	-12.1316
▁چنگال	-12.1317
▁بپرسیم	-12.1317
▁Sony	-12.1317
▁استادیوم	-12.1318
ei	-12.1318
▁دمکرات	-12.1319
▁تماشاگر	-12.132
▁دیس	-12.132
▁آناتومی	-12.132
▁365	-12.132
▁پیشگامان	-12.1321
▁Work	-12.1321
▁پورتال	-12.1321
De	-12.1322
▁بسوی	-12.1324
ویر	-12.1325
▁Key	-12.1325
▁IS	-12.1327
▁ویدیوی	-12.1328
▁منصرف	-12.1328
▁اهم	-12.1329
wood	-12.1329
▁بنیانگذاران	-12.133
▁اتفاقا	-12.1331
▁غلطی	-12.1332
▁پاکستانی	-12.1333
▁فطرت	-12.1334
▁تاثیرگذاری	-12.1337
▁دژ	-12.1338
▁وارداتی	-12.134
▁والتر	-12.1342
▁کرات	-12.1343
98	-12.1343
▁باورها	-12.1344
▁West	-12.1351
وث	-12.1352
▁جویان	-12.1352
▁Ti	-12.1352
eng	-12.1353
ye	-12.1353
▁دیک	-12.1354
▁فرزندانمان	-12.1355
گير	-12.1356
▁سب	-12.1359
▁لایت	-12.1361
▁میدانیم	-12.1366
▁اسکو	-12.137
▁براش	-12.1372
▁انس	-12.1377
قرار	-12.1378
چنین	-12.1379
▁86	-12.1381
صدا	-12.1382
ستاد	-12.1383
▁IR	-12.1384
▁بلع	-12.1392
پورت	-12.1395
ym	-12.1397
▁قرمزی	-12.1398
احت	-12.14
▁مسیریاب	-12.1401
زیم	-12.1402
▁74	-12.1409
بوت	-12.141
▁فوتون	-12.1411
▁انزوای	-12.1414
▁(13	-12.1418
▁1200	-12.1418
سفر	-12.1419
ایه	-12.1422
ano	-12.1426
link	-12.1428
▁نزولی	-12.1428
▁مایا	-12.1429
▁فدا	-12.1431
▁قو	-12.1434
ML	-12.1437
ria	-12.1438
▁Her	-12.1439
▁دستگاههای	-12.1441
▁گه	-12.1444
▁کاستی	-12.1445
▁میدهید	-12.1448
میل	-12.1459
▁سربازی	-12.146
ae	-12.1462
▁یونس	-12.1465
hat	-12.1466
▁روانپزشک	-12.1467
ments	-12.1467
▁***	-12.1469
▁do	-12.1471
موت	-12.1489
▁گردی	-12.1491
▁دندانی	-12.1492
▁یادش	-12.1499
▁تبت	-12.1502
▁نادان	-12.1505
▁لوس	-12.1511
▁هشداری	-12.1514
سیاست	-12.1518
ویچ	-12.1518
▁فقه	-12.1527
SU	-12.1531
@	-12.1539
▁صورتش	-12.1539
▁دریافتیم	-12.154
▁کسل	-12.1541
▁مشورتی	-12.1545
▁BS	-12.1547
سیس	-12.1547
hor	-12.1548
▁گردانند	-12.1549
▁۳۹	-12.1549
vers	-12.155
تمایل	-12.155
▁ببخش	-12.1551
1-	-12.1553
world	-12.1553
ە	-12.1553
▁Adobe	-12.1553
▁Evil	-12.1553
▁Machine	-12.1553
▁آنارشیست	-12.1553
▁تغيير	-12.1553
▁حماقت	-12.1553
▁خالکوبی	-12.1553
▁رزولوشن	-12.1553
▁زحمات	-12.1553
▁معیشت	-12.1553
▁میباشند	-12.1553
▁هوانوردی	-12.1553
▁منازعه	-12.1553
▁انزال	-12.1553
▁نقدینگی	-12.1553
▁سرهنگ	-12.1553
▁نهضت	-12.1553
▁کنتراست	-12.1553
▁هامبورگ	-12.1553
▁میشیگان	-12.1553
▁چروک	-12.1553
▁دیکته	-12.1553
▁کرامت	-12.1553
▁لطیف	-12.1553
▁۱۹۹۶	-12.1553
▁آلیاژ	-12.1553
▁هویج	-12.1553
▁فرانکلین	-12.1553
▁1968	-12.1554
▁College	-12.1554
▁شلاق	-12.1554
▁باطری	-12.1554
▁بنشینند	-12.1555
▁بکارگیری	-12.1555
▁خس	-12.1556
▁شاء	-12.1556
▁فریبنده	-12.1556
▁فرمایش	-12.1556
ware	-12.1557
ئيس	-12.1558
▁شریان	-12.1561
▁آفت	-12.1564
▁جمهوریخواه	-12.1564
▁ناف	-12.1565
▁نشیند	-12.1566
▁کیفر	-12.1569
ail	-12.157
▁پیمانکار	-12.157
▁ايشان	-12.1572
▁دوستداران	-12.1573
▁كاه	-12.1576
mail	-12.1579
▁روسای	-12.158
باف	-12.1584
▁برادری	-12.1585
▁بکن	-12.1589
▁قالی	-12.1589
▁خواستن	-12.1591
اتیو	-12.1591
۴۵	-12.1598
فشار	-12.1601
▁نامد	-12.1603
▁متحدانش	-12.1606
فیس	-12.1609
▁سناریوهای	-12.1615
her	-12.1616
gin	-12.1618
▁مومن	-12.1621
▁ادم	-12.1623
▁Ri	-12.1631
LT	-12.1632
zo	-12.1632
▁رفتید	-12.1637
▁كسان	-12.1639
▁لل	-12.164
oom	-12.1642
▁تهدیدها	-12.1644
▁بازوها	-12.1645
باس	-12.1649
▁رسیدید	-12.1649
▁کوبی	-12.1657
▁پهلوی	-12.1658
FT	-12.1658
▁سیال	-12.1659
▁كننده	-12.166
ement	-12.1663
▁چهاردهم	-12.1664
IR	-12.1665
▁(15	-12.1669
▁شلوغی	-12.1673
▁پروا	-12.1674
▁باقر	-12.1678
دیده	-12.1678
▁130	-12.168
▁الک	-12.1683
MO	-12.1684
▁فرآیندی	-12.1692
Man	-12.1695
▁تورهای	-12.1698
▁ریلی	-12.1701
دیم	-12.1702
▁1.4	-12.1704
▁رابین	-12.1705
▁خودروساز	-12.1705
▁لورن	-12.1708
▁مراقبه	-12.1708
▁نهادها	-12.1708
▁۴۱	-12.1709
▁as	-12.1713
▁How	-12.1714
▁حلب	-12.1716
▁سمینار	-12.1716
▁دلت	-12.1718
▁پیکار	-12.1718
▁اعمالی	-12.1722
▁غر	-12.1723
▁استیل	-12.1724
▁ماریو	-12.1724
مرکز	-12.1726
▁ادعایی	-12.1727
هُ	-12.173
ath	-12.1731
▁دستمال	-12.1731
جام	-12.1731
خب	-12.1735
ئول	-12.1738
ition	-12.1739
▁تونست	-12.1739
52	-12.1742
▁کنت	-12.1744
▁جادوی	-12.175
men	-12.1753
▁لیز	-12.1757
آفرین	-12.1758
DP	-12.1761
ael	-12.1762
▁راکتور	-12.1763
تونم	-12.1768
▁غریبی	-12.1775
▁بازیکنی	-12.1777
کسانی	-12.1777
▁خودران	-12.1781
مشکل	-12.1793
▁سکولار	-12.1796
⁯	-12.1797
▁Analytics	-12.1797
▁Little	-12.1797
▁اتیوپی	-12.1797
▁تفصیل	-12.1797
▁توقیف	-12.1797
▁شیاطین	-12.1797
▁طغیان	-12.1797
▁غیررسمی	-12.1797
▁فیلادلفیا	-12.1797
▁قفقاز	-12.1797
▁متعاهد	-12.1797
▁پترزبورگ	-12.1797
▁پوسیدگی	-12.1797
▁۱۹۹۴	-12.1797
▁ازبکستان	-12.1797
▁رأس	-12.1797
▁كنترل	-12.1797
▁بدرفتاری	-12.1797
▁بیاندازد	-12.1797
▁غایب	-12.1797
▁شفاعت	-12.1797
▁استعاره	-12.1797
▁House	-12.1797
▁استنفورد	-12.1797
▁Research	-12.1797
▁بنیامین	-12.1797
▁نگهدارنده	-12.1797
▁موریس	-12.1797
▁ژئو	-12.1797
▁Center	-12.1797
▁1969	-12.1797
▁میخواستم	-12.1798
▁Paul	-12.1798
▁بپرهیزید	-12.1798
▁تیلور	-12.1798
▁یکتا	-12.1798
▁مصدومیت	-12.1798
▁لوبیا	-12.1799
▁گزاف	-12.1799
▁تنزل	-12.18
▁نیمکت	-12.18
▁ابله	-12.18
▁NO	-12.18
▁درصورتی	-12.1801
▁گودال	-12.1801
▁Page	-12.1802
▁بیعت	-12.1802
▁نوشند	-12.1803
▁1.0	-12.1803
▁باغچه	-12.1804
▁مبدا	-12.1805
▁برندسازی	-12.1806
rade	-12.1806
▁لایق	-12.1806
▁سایتهای	-12.1807
▁مبتدیان	-12.1807
ينه	-12.1813
ks	-12.1813
▁سمع	-12.1814
▁اجتماعات	-12.1818
cker	-12.1819
▁ً	-12.182
▁پوستان	-12.1821
▁مصالحه	-12.1823
▁برهه	-12.1824
lock	-12.1826
▁نگهبانان	-12.1826
▁جنایتکاران	-12.1826
▁جنگیدن	-12.1826
تنی	-12.1827
▁خبرها	-12.1828
▁دوک	-12.183
▁ضربات	-12.1831
▁معیارها	-12.1833
▁نظریات	-12.1833
▁درجات	-12.1834
قلب	-12.1834
▁ندادن	-12.1834
▁دانمارکی	-12.1834
▁مددکار	-12.1834
عَ	-12.184
MB	-12.1841
▁مجوزهای	-12.1842
▁متنفرم	-12.1846
▁باغبانی	-12.1848
ava	-12.185
▁توانا	-12.1861
▁Nu	-12.1861
▁شانزدهم	-12.1864
ux	-12.1864
▁میدانند	-12.1864
▁شهریه	-12.187
▁سپر	-12.1873
۲۶	-12.1874
▁بیوه	-12.1875
لاب	-12.1882
دول	-12.1882
los	-12.1884
وکو	-12.1889
arch	-12.189
▁Te	-12.1891
▁راندن	-12.1892
میان	-12.1896
WA	-12.1899
▁دربرابر	-12.1905
▁صدایش	-12.1906
▁AP	-12.1907
:00	-12.191
▁نوی	-12.1911
درد	-12.1911
▁جویدن	-12.1915
▁موجوداتی	-12.1919
▁هوس	-12.1921
نافذ	-12.1937
الف	-12.1937
▁Im	-12.1937
▁الحاق	-12.1938
اندا	-12.1943
▁تجار	-12.1946
▁افشاگر	-12.1946
▁فیلسوفان	-12.1947
▁نوشتند	-12.1948
▁آوا	-12.195
▁رست	-12.1951
▁بورسی	-12.1952
▁مهمات	-12.1957
vent	-12.1958
▁اردو	-12.197
▁واگذاری	-12.197
LL	-12.1971
▁جستجوگرها	-12.1971
erry	-12.1971
▁زننده	-12.1976
▁خودمون	-12.1977
▁قدردان	-12.198
▁Hu	-12.1981
qui	-12.1981
▁گراف	-12.1984
▁Ge	-12.1986
▁Note	-12.1987
▁React	-12.1996
▁گزاره	-12.1997
▁سکو	-12.2004
▁UN	-12.2005
ازم	-12.2006
دلار	-12.2007
▁فدای	-12.2014
▁زر	-12.2019
▁برگزید	-12.2026
گذر	-12.2029
▁RS	-12.2029
VA	-12.203
ظاهر	-12.2031
▁یادمان	-12.2031
هره	-12.2032
تصویر	-12.2033
ویک	-12.2035
▁خویشاوند	-12.2037
▁Service	-12.204
▁190	-12.2041
▁پک	-12.2041
اینجا	-12.2045
▁آلاسکا	-12.2047
▁آپارتاید	-12.2047
▁انعقاد	-12.2047
▁بیاندازید	-12.2047
▁تشبیه	-12.2047
▁شکسپیر	-12.2047
▁عمارت	-12.2047
▁لجستیک	-12.2047
▁مقتضی	-12.2047
▁پتاسیم	-12.2047
▁رضوی	-12.2047
▁محفظه	-12.2047
▁اسفند	-12.2047
▁گرمسیری	-12.2047
▁معارف	-12.2047
▁Facebook	-12.2047
▁خائن	-12.2047
▁Trump	-12.2047
▁تزیین	-12.2047
▁نظافت	-12.2047
▁Online	-12.2047
▁جاناتان	-12.2047
▁تأمل	-12.2047
▁اجزاء	-12.2047
▁میکروفون	-12.2047
▁Store	-12.2047
▁ناوبری	-12.2047
▁نشاط	-12.2047
▁۱۹۹۹	-12.2047
▁بيمار	-12.2047
▁1973	-12.2047
▁1978	-12.2047
▁بورژوایی	-12.2047
▁پاناما	-12.2047
▁سخاوتمندانه	-12.2047
▁LDL	-12.2047
▁کباب	-12.2048
▁سفارتخانه	-12.2048
▁ناپذیری	-12.205
▁آراء	-12.205
▁Health	-12.205
▁1940	-12.205
▁پاندا	-12.205
▁واریز	-12.205
▁بناهای	-12.2051
▁دماغ	-12.2051
ship	-12.2052
▁ازدست	-12.2052
▁مکث	-12.2053
▁آسود	-12.2054
گوس	-12.2055
▁بسازم	-12.2055
▁تبعات	-12.2055
▁لیزری	-12.2057
js	-12.2057
▁لیپو	-12.2057
▁لبنانی	-12.2059
▁گاردین	-12.2061
▁کویر	-12.2061
▁نگذار	-12.2065
▁پرنس	-12.2066
▁معاش	-12.2066
▁گرمی	-12.2067
▁فنگ	-12.2067
▁نگذاشت	-12.2068
▁الهه	-12.2068
▁فروتن	-12.2069
/0	-12.2069
کوف	-12.2069
▁پذیریم	-12.207
▁جویانه	-12.207
▁لام	-12.207
▁ماکرو	-12.207
BO	-12.2072
▁بشارت	-12.2072
▁جراحان	-12.2072
▁رباتیک	-12.2074
▁سفارشات	-12.2077
▁گذاشتیم	-12.2081
ژه	-12.2083
قطع	-12.2086
▁DS	-12.2091
Sh	-12.2093
▁نتوانستم	-12.2094
now	-12.2095
▁نگریست	-12.2097
▁z	-12.2097
۲۹	-12.2098
▁خجالتی	-12.2098
▁گز	-12.2099
▁سرشت	-12.21
▁up	-12.2101
یته	-12.2102
▁معلومات	-12.2106
▁Lu	-12.2108
▁دولتهای	-12.211
▁at	-12.2112
▁روندهای	-12.2113
▁درشت	-12.2115
▁واقعیات	-12.2116
▁Real	-12.2117
▁آگ	-12.212
مهم	-12.2121
▁بنت	-12.2124
ّد	-12.2125
راس	-12.2126
▁هفدهم	-12.2127
can	-12.2134
▁هلن	-12.2134
▁زار	-12.2136
▁اندیشیدن	-12.2137
وآ	-12.2137
▁روانپزشکی	-12.2138
▁Cas	-12.2138
▁ماندنی	-12.2139
کف	-12.2142
▁پدرت	-12.2143
▁اونها	-12.2145
▁محضر	-12.2145
▁گوارشی	-12.2147
فک	-12.2149
▁زیستن	-12.2151
بسته	-12.2153
▁المان	-12.2153
▁آموزی	-12.2156
▁مکن	-12.2158
نیز	-12.2162
▁ني	-12.2164
▁شارل	-12.2165
▁قویتر	-12.2171
کلاس	-12.2171
▁آکا	-12.2173
کمتر	-12.2175
▁منتها	-12.2179
▁رک	-12.2184
▁اشغالگر	-12.2186
▁بخشنده	-12.2186
۲۸	-12.2187
▁لمسی	-12.2189
▁جادوگری	-12.2195
ايش	-12.2202
ارض	-12.221
▁لعنتی	-12.2211
▁سرانه	-12.2212
NO	-12.2213
tain	-12.2216
▁نجوم	-12.2218
▁متابولیک	-12.2218
▁تیرانداز	-12.2218
».[	-12.2219
آه	-12.2221
▁شرف	-12.2222
موند	-12.2222
▁کاشی	-12.2223
▁واکر	-12.2226
ارات	-12.2227
bar	-12.223
press	-12.2231
don	-12.2232
▁تق	-12.2232
ute	-12.2233
▁بط	-12.2236
get	-12.2241
لیا	-12.2242
ken	-12.2251
▁سوت	-12.2257
78	-12.2265
back	-12.2276
lar	-12.2276
Ch	-12.2277
EST	-12.2277
▁مصوب	-12.2279
▁ادو	-12.2283
eter	-12.2285
کاپ	-12.2286
اسرائیل	-12.2289
مجموع	-12.2289
درباره	-12.2289
جز	-12.2292
طرح	-12.2293
عمیق	-12.2293
سلی	-12.2293
▁کارآمدی	-12.2294
▁گرای	-12.2299
gan	-12.2299
▁SO	-12.23
پک	-12.23
؟؟؟؟	-12.2302
▁Instagram	-12.2303
▁فرسوده	-12.2303
▁فمینیست	-12.2303
▁مصلحت	-12.2303
▁نیوجرسی	-12.2303
▁واشینگتن	-12.2303
▁وثیقه	-12.2303
▁NGC	-12.2303
▁جمجمه	-12.2303
▁رجوی	-12.2303
▁پشتوانه	-12.2303
▁آهستگی	-12.2303
▁غیردولتی	-12.2303
▁پارتیشن	-12.2303
▁Music	-12.2303
style	-12.2303
▁1971	-12.2304
▁نجیب	-12.2304
▁1982	-12.2304
▁پروتز	-12.2304
▁گاندی	-12.2305
▁نزنید	-12.2305
▁اوهایو	-12.2306
▁مترقی	-12.2307
▁قبض	-12.2307
▁هربار	-12.2307
▁Space	-12.2307
▁بسپار	-12.2307
▁اشرف	-12.2308
كو	-12.2308
باکس	-12.2308
▁راسخ	-12.2309
▁کمیک	-12.2309
▁کراتین	-12.231
▁Ag	-12.2311
▁قانونگذاران	-12.2312
▁جونگ	-12.2314
▁لیلا	-12.2315
▁عرشه	-12.2316
▁هوازی	-12.2316
وپاتی	-12.2317
▁سئول	-12.2317
▁شمول	-12.2317
92	-12.2318
▁فوتبالیست	-12.232
▁غل	-12.2321
▁سخنرانان	-12.2322
▁عبد	-12.2323
▁فهمیم	-12.2323
▁71	-12.2324
▁١٠	-12.2325
73	-12.2327
▁كمتر	-12.2329
PP	-12.2332
دوز	-12.2332
▁نگفتم	-12.2332
▁دستیاران	-12.2332
▁الکترومغناطیسی	-12.2334
▁گیرندگان	-12.2337
▁افکند	-12.2337
FI	-12.2339
▁6000	-12.2341
▁جهل	-12.2342
74	-12.2342
گزار	-12.2343
▁گشتند	-12.2349
▁CH	-12.2351
▁Sam	-12.2352
▁روبل	-12.2354
▁عاشقش	-12.2355
▁ترسیده	-12.2356
▁خریدم	-12.2358
▁توافقات	-12.2361
▁لات	-12.2361
▁پوشند	-12.2363
حسن	-12.2366
UM	-12.2373
▁کیس	-12.2379
berg	-12.238
700	-12.2381
▁صید	-12.2381
▁گذرا	-12.2382
▁per	-12.2382
یابد	-12.2385
▁ابی	-12.2388
▁لئون	-12.2389
▁رسولان	-12.2394
وات	-12.2394
▁آنجاست	-12.24
▁شکند	-12.2401
sia	-12.2403
الک	-12.2406
ئید	-12.241
بز	-12.241
▁فضاپیمای	-12.2416
lation	-12.2416
▁کون	-12.2418
▁رند	-12.2419
گام	-12.2419
▁یگان	-12.242
▁جوانتر	-12.2423
۶۵	-12.2423
▁بدار	-12.2428
71	-12.2428
▁چیپ	-12.2431
Me	-12.2431
▁پرتی	-12.2434
خار	-12.2441
UB	-12.2442
▁3.0	-12.2443
▁مشخصا	-12.245
سرا	-12.2457
▁my	-12.2457
▁ارزشهای	-12.2462
jo	-12.2465
▁بازرگان	-12.2466
▁معرف	-12.2467
▁ياد	-12.2467
▁کلبه	-12.2467
▁کاتا	-12.2469
ju	-12.247
▁ساک	-12.2471
▁برفی	-12.2476
▁نشو	-12.2478
▁یکجا	-12.2479
▁جنجال	-12.248
▁حراج	-12.248
PI	-12.2483
مسیر	-12.2483
▁خبره	-12.2484
tz	-12.2486
ora	-12.2487
مالی	-12.2487
NC	-12.2489
▁انیم	-12.2489
ala	-12.2497
▁جه	-12.2504
▁کاشان	-12.2512
▁Pr	-12.2515
ient	-12.2517
▁بارد	-12.2519
▁پرینت	-12.252
▁110	-12.2534
▁ندای	-12.2538
۳۱	-12.2539
▁فرآیندها	-12.2545
ئوس	-12.255
▁متاسف	-12.2551
▁Pay	-12.2552
ارتباط	-12.2552
سام	-12.2555
▁وقتیکه	-12.2556
زمین	-12.2557
امو	-12.2557
▁استایل	-12.2558
▁Ke	-12.2558
▁سارق	-12.2559
▁نکش	-12.256
ریان	-12.256
▁برپای	-12.2564
▁مصدوم	-12.2565
▁پالایش	-12.2565
مصرف	-12.2566
▁Journal	-12.2566
▁Management	-12.2566
▁اربعین	-12.2566
▁اعتدال	-12.2566
▁السّلام	-12.2566
▁الکتریسیته	-12.2566
▁زمزمه	-12.2566
▁زنجبیل	-12.2566
▁سانفرانسیسکو	-12.2566
▁قحطی	-12.2566
▁قذافی	-12.2566
▁قورباغه	-12.2566
▁مزایده	-12.2566
▁مستثنی	-12.2566
▁مقاربت	-12.2566
▁کاتالونیا	-12.2566
▁شکوفه	-12.2566
▁صرع	-12.2566
▁پیشاپیش	-12.2566
▁غدد	-12.2566
▁مکتوب	-12.2566
▁Institute	-12.2566
▁بیزانس	-12.2566
▁تقاطع	-12.2566
▁سازوکار	-12.2566
▁غرامت	-12.2566
down	-12.2566
▁بریتیش	-12.2566
▁تراکتور	-12.2566
▁ناشنوا	-12.2566
▁حتّ	-12.2566
▁معابد	-12.2566
▁همسالان	-12.2566
▁منهتن	-12.2566
▁نوترون	-12.2567
▁تویوتا	-12.2567
▁دلتنگ	-12.2567
▁زندگى	-12.2567
▁اینشتین	-12.2567
▁کارولینا	-12.2567
▁خودخواهانه	-12.2567
▁كنيد	-12.2568
▁نپال	-12.2568
▁الاسلام	-12.2568
▁مسؤولیت	-12.2568
▁پرتغالی	-12.2568
▁Night	-12.2568
▁Global	-12.2568
▁مومیای	-12.2568
▁کاسترو	-12.2569
▁مربیگری	-12.2569
▁خدمتکار	-12.2569
ku	-12.2569
▁کنکور	-12.257
[6]	-12.257
▁فیض	-12.257
ئن	-12.257
▁غیاب	-12.257
وئر	-12.2571
▁فریزر	-12.2571
کجا	-12.2572
▁عمه	-12.2572
▁پروتون	-12.2573
▁ثروتمندتر	-12.2574
▁آدامس	-12.2576
▁اقا	-12.2577
▁هنجارهای	-12.258
▁موردنیاز	-12.2581
▁لنگر	-12.2584
▁حسابداران	-12.2585
▁کنگو	-12.2586
▁غشا	-12.2586
ask	-12.2588
نفس	-12.2588
▁انتقالات	-12.2588
▁Not	-12.2589
سپ	-12.259
▁قوس	-12.2592
▁Core	-12.2592
▁٨	-12.2593
نشست	-12.2594
▁کرون	-12.2594
▁(18	-12.2594
عامل	-12.2595
▁دیتا	-12.2597
▁طلبد	-12.2598
▁نمیتوانند	-12.2599
TO	-12.2599
▁دردی	-12.26
▁توله	-12.2604
مشتاقانه	-12.2606
▁ضمنا	-12.2607
▁سیاستهای	-12.2608
▁بلی	-12.261
mat	-12.261
▁درآورده	-12.2612
▁معنویت	-12.2612
▁وزرای	-12.2617
▁رؤیاهای	-12.2619
ita	-12.2622
ماند	-12.2626
▁آزرد	-12.2626
▁لنگ	-12.2628
▁رفقای	-12.263
▁سرت	-12.263
▁اعتبارات	-12.2632
▁رضای	-12.2639
▁همتای	-12.2641
▁لوسی	-12.2642
▁متهمان	-12.2648
يق	-12.2651
▁بدنام	-12.2655
▁قمر	-12.2656
42	-12.2661
▁SS	-12.2661
TL	-12.2661
▁کاندیداهای	-12.2661
▁Ser	-12.2663
▁Gi	-12.2664
کینز	-12.2666
▁Hi	-12.2669
▁شون	-12.267
▁UC	-12.2671
رحم	-12.2671
▁واحدی	-12.2672
▁اسلو	-12.2674
▁کوبید	-12.2675
▁آمریکائی	-12.2682
ناپذیر	-12.2682
لیو	-12.2687
سپس	-12.2688
▁اروپاست	-12.269
▁مداری	-12.2692
Se	-12.2694
uch	-12.2696
رفتار	-12.2697
گشت	-12.2697
▁اسیدی	-12.2703
uff	-12.2704
▁کیپ	-12.2707
▁سرای	-12.2711
▁نمیشه	-12.2715
▁جایز	-12.2721
▁نک	-12.2723
▁فرزندانم	-12.2724
54	-12.2727
▁دوستانشان	-12.2728
▁Inf	-12.273
کاش	-12.2731
۸۸	-12.2738
▁پترو	-12.2739
▁روت	-12.2749
گس	-12.275
head	-12.2751
PV	-12.2751
اکا	-12.2754
پسر	-12.2755
ata	-12.2755
خطی	-12.2755
ART	-12.2757
▁دانان	-12.2759
▁میدانم	-12.277
نمایش	-12.2773
▁بدنم	-12.2774
CT	-12.2777
isk	-12.2781
▁کارانه	-12.2785
▁Lab	-12.2796
ura	-12.2796
▁تکنولوژیک	-12.2799
▁پرز	-12.28
▁اینطوری	-12.2802
▁اط	-12.2802
▁اینجایی	-12.2803
▁بنوش	-12.281
▁فراگیری	-12.2812
TU	-12.2812
▁هوم	-12.2817
▁واسط	-12.2818
▁انباشت	-12.282
توسط	-12.2822
گى	-12.2823
▁طاق	-12.2824
دارند	-12.2826
▁آویز	-12.2827
▁دهقان	-12.2829
▁ضایع	-12.2831
داده	-12.2832
▁بقی	-12.2833
▁بازدارندگی	-12.2837
▁بپوشند	-12.2837
▁خصمانه	-12.2837
▁داشبورد	-12.2837
▁ضامن	-12.2837
▁فارنهایت	-12.2837
▁لگد	-12.2837
▁متأثر	-12.2837
▁ولنتاین	-12.2837
▁چگالی	-12.2837
▁کوتوله	-12.2837
️	-12.2837
▁بیزینس	-12.2837
▁سوغات	-12.2837
▁اسقف	-12.2837
▁بُعد	-12.2837
▁آخوند	-12.2837
▁حمید	-12.2837
▁زندگانی	-12.2837
▁قیاف	-12.2837
▁تظاهرکنندگان	-12.2837
▁Search	-12.2837
▁نزدیك	-12.2837
site	-12.2837
▁ماتریس	-12.2837
▁تبخیر	-12.2837
▁تختخواب	-12.2837
▁آرسنال	-12.2837
▁ادویه	-12.2837
▁لوپوس	-12.2837
▁1985	-12.2837
▁آستین	-12.2838
▁حمد	-12.2838
▁العمر	-12.2838
▁پالایشگاه	-12.2838
▁LLM	-12.2838
▁برگزین	-12.2838
▁نهادینه	-12.2838
▁مولتی	-12.2838
▁لرد	-12.2838
▁لینکلن	-12.2839
-8	-12.2839
▁مصونیت	-12.2839
▁بیندازند	-12.2839
▁جیوه	-12.2839
▁Watch	-12.284
صابت	-12.284
▁ربع	-12.2841
وژ	-12.2841
▁افتتاحیه	-12.2841
▁نویز	-12.2844
▁قلاب	-12.2844
▁کلوپ	-12.2845
▁خوشگل	-12.2845
▁ملکوت	-12.2845
▁شعاع	-12.2845
▁AMP	-12.2846
▁خویشاوندان	-12.2847
▁خرند	-12.285
▁شکارچیان	-12.2852
رهبر	-12.2852
▁تاندون	-12.2852
▁بیزار	-12.2854
▁101	-12.2857
▁دادخواست	-12.2861
▁مبتلایان	-12.2862
پسند	-12.2864
▁گمراهی	-12.2864
▁فرما	-12.2865
▁نافرمانی	-12.2866
▁کبودی	-12.2866
▁SP	-12.2867
▁خاله	-12.2868
▁مگس	-12.2874
▁Ber	-12.2877
▁میانسال	-12.2878
ular	-12.2879
▁برگشتند	-12.2881
۹۶	-12.2881
▁آیید	-12.2881
▁ورم	-12.2883
گرایان	-12.2884
▁شاداب	-12.2885
▁میلیونر	-12.2885
▁شنیدند	-12.2885
▁ابرهای	-12.2886
▁لکن	-12.2888
▁بایستید	-12.289
▁اولش	-12.2891
side	-12.2892
▁فرصتهای	-12.2895
▁اخلاقیات	-12.2897
ونز	-12.29
▁فَ	-12.2903
زیر	-12.2905
فار	-12.291
▁هادی	-12.2912
▁سریعاً	-12.2917
▁no	-12.2923
▁;	-12.2926
▁خزر	-12.293
▁لاو	-12.2936
▁دلال	-12.2939
▁تئو	-12.2941
لید	-12.2943
نسون	-12.2946
دانست	-12.2946
يشه	-12.2947
۲۷	-12.2951
▁کارکردن	-12.2952
▁Min	-12.2952
مرز	-12.2956
▁Card	-12.2957
79	-12.296
▁جانباز	-12.2961
raw	-12.2965
▁لک	-12.2966
▁منظوره	-12.2968
▁9-	-12.2971
bil	-12.2978
▁باطن	-12.2981
▁ملاک	-12.2983
كس	-12.2984
اگو	-12.2986
cher	-12.2986
▁پاشید	-12.2987
▁خودشون	-12.299
▁الق	-12.2996
پش	-12.2998
ors	-12.3001
Ro	-12.3002
off	-12.3006
ساخته	-12.3007
▁Pri	-12.3009
▁ایشون	-12.3013
ثه	-12.3015
▁عکسهای	-12.3018
▁۹۶	-12.3019
تریک	-12.3023
▁ناسازگار	-12.3028
▁نابرابر	-12.3029
▁SI	-12.3033
▁ناک	-12.3036
▁لانگ	-12.3038
▁سونا	-12.3041
▁۴۶	-12.3042
▁نیمکر	-12.3044
▁پالت	-12.3048
fer	-12.3049
Cl	-12.3058
▁سینا	-12.3058
NT	-12.3064
ury	-12.3065
▁لند	-12.3065
▁900	-12.3066
▁لیند	-12.3069
حج	-12.307
▁BI	-12.3073
کودک	-12.3077
▁قسمتهای	-12.3078
▁Van	-12.3078
▁صادراتی	-12.3078
تیان	-12.3091
▁AF	-12.3091
▁89	-12.3091
▁مادرت	-12.3091
▁١٩	-12.3094
▁بپرس	-12.3095
▁کلیساهای	-12.3096
▁هجده	-12.3097
دانش	-12.3098
بوست	-12.3099
▁گند	-12.3099
جویی	-12.3099
EE	-12.31
▁زل	-12.31
ایجاد	-12.31
رئیس	-12.31
اغلب	-12.31
▁مختصری	-12.3101
قسمت	-12.3101
▁تشک	-12.3102
مدیریت	-12.3102
▁CI	-12.3103
▁آموزگار	-12.3103
معمولا	-12.3103
DL	-12.3104
▁سازم	-12.3107
نل	-12.3108
گشا	-12.311
▁ژاک	-12.311
▁احت	-12.3111
٤	-12.3112
▁سات	-12.3113
حو	-12.3113
▁BMW	-12.3114
▁York	-12.3114
▁آفلاین	-12.3114
▁انستیتو	-12.3114
▁اهریمن	-12.3114
▁اکوادور	-12.3114
▁حوثی	-12.3114
▁رآکتور	-12.3114
▁زرتشت	-12.3114
▁سوپرمارکت	-12.3114
▁ضوابط	-12.3114
▁لئوناردو	-12.3114
▁مصارف	-12.3114
▁پسوریازیس	-12.3114
▁کلکسیون	-12.3114
▁کورتیزول	-12.3114
▁۱۹۹۱	-12.3114
▁Word	-12.3114
▁حشره	-12.3114
▁طاهر	-12.3114
▁آندروژن	-12.3114
▁پروژکتور	-12.3114
▁عارف	-12.3114
▁تأسف	-12.3114
▁هیدرولیک	-12.3114
▁شهامت	-12.3114
▁غریزه	-12.3114
▁منازل	-12.3115
▁نوازندگان	-12.3115
▁قائم	-12.3115
▁محبوس	-12.3115
▁ساقط	-12.3115
▁هوندا	-12.3115
▁WiFi	-12.3115
▁1981	-12.3115
▁Grand	-12.3115
▁بیاموزیم	-12.3115
▁Gold	-12.3116
▁علیرضا	-12.3116
▁ریپل	-12.3116
▁مهیج	-12.3116
▁پاکیزه	-12.3117
▁پارسال	-12.3117
▁بنگرید	-12.3117
▁دیوانگی	-12.3118
▁صلوات	-12.3118
▁ولى	-12.3118
▁پیوستگی	-12.3118
▁Last	-12.3118
▁بپرسد	-12.3119
▁پاتریک	-12.3119
▁بروکلین	-12.312
▁UX	-12.312
▁National	-12.312
▁بفرستند	-12.3121
▁مزدور	-12.3122
▁ارگانیسم	-12.3122
▁مرتبا	-12.3123
▁پیگرد	-12.3124
▁یهودا	-12.3126
▁پیشبینی	-12.3128
▁پچ	-12.3129
▁94	-12.3129
▁With	-12.3129
▁کولی	-12.313
وره	-12.313
▁Del	-12.3131
▁آشنایان	-12.3132
▁حسود	-12.3133
▁گوا	-12.3134
▁مطلوبی	-12.3134
▁اوصاف	-12.3135
▁مبارزان	-12.3137
▁پسا	-12.314
▁دیداری	-12.3141
▁فلاش	-12.3143
نقش	-12.3146
؟!»	-12.315
▁رستگاری	-12.3155
▁خلبانان	-12.3155
▁موتورز	-12.3156
ترول	-12.3159
▁غنا	-12.3163
▁شرعی	-12.3167
▁تورات	-12.3167
گذشت	-12.3167
read	-12.3169
▁User	-12.3171
اغ	-12.3171
▁MI	-12.3172
▁زوجین	-12.3175
▁لیر	-12.3176
▁جهادی	-12.3177
سرعت	-12.3177
tr	-12.3177
▁پشتکار	-12.3178
▁IM	-12.3179
ئي	-12.3179
▁Em	-12.318
▁میداند	-12.3182
▁End	-12.3182
بنی	-12.3188
▁بارور	-12.3191
شکست	-12.3193
▁125	-12.3194
nal	-12.3196
▁حوله	-12.3198
▁کوهن	-12.32
▁مافیا	-12.3202
▁58	-12.3207
cast	-12.3208
ali	-12.321
▁Mon	-12.321
▁مورفی	-12.3218
▁BA	-12.3218
لور	-12.3218
▁کریمه	-12.322
AI	-12.3221
▁Tom	-12.3229
▁کشیم	-12.3232
سیا	-12.3235
▁May	-12.3236
list	-12.3237
▁کولر	-12.3242
ونیک	-12.3244
امام	-12.3247
▁گرانشی	-12.3248
▁پهلو	-12.3251
▁درسته	-12.3257
▁بخر	-12.3258
▁گردانید	-12.3267
طه	-12.3268
ستگی	-12.3269
▁رقصیدن	-12.3269
coin	-12.327
▁برنز	-12.327
▁لیون	-12.3274
▁1900	-12.328
۹۷	-12.3285
▁دوسال	-12.3287
MU	-12.3287
▁موجه	-12.3288
▁مادرتان	-12.3291
OT	-12.3293
▁Ben	-12.3299
▁۵۰۰۰	-12.3305
▁علمای	-12.3305
▁Cat	-12.3305
مکان	-12.3312
ايت	-12.3314
▁دلسوز	-12.3316
قط	-12.3323
▁105	-12.3324
ius	-12.3329
▁پناهجو	-12.3329
▁کششی	-12.3329
▁فید	-12.333
▁کاز	-12.3332
▁خواد	-12.3335
سوم	-12.3336
▁Us	-12.3336
▁دخترک	-12.3337
ائر	-12.3337
▁مروری	-12.3338
▁پاداشی	-12.3341
▁کدامند	-12.3343
▁علیها	-12.3343
HR	-12.3347
FO	-12.3353
▁کلن	-12.3359
▁دوستدار	-12.3359
حرف	-12.3361
▁مواقعی	-12.3362
▁نروژی	-12.3367
ua	-12.3374
▁اینتل	-12.3374
صال	-12.3375
▁منشی	-12.3378
▁فروشد	-12.3379
▁همدست	-12.3379
▁پارسی	-12.3381
▁پختن	-12.3384
▁محتواهای	-12.3386
WEB	-12.3386
همیشه	-12.3386
[3]	-12.3386
جامعه	-12.3386
فرهنگ	-12.3386
سخن	-12.3387
غذا	-12.3388
▁Cy	-12.3394
ida	-12.3396
▁Pan	-12.3396
▁بچرخ	-12.3398
دستی	-12.3399
▁سپردن	-12.34
ٍ	-12.34
▁احادیث	-12.34
▁بیاندازیم	-12.34
▁تعاریف	-12.34
▁رؤسای	-12.34
▁ضلع	-12.34
▁غیرمجاز	-12.34
▁فایروال	-12.34
▁مبدأ	-12.34
▁سرشماری	-12.34
▁لیتیوم	-12.34
▁مغرور	-12.34
▁کرواسی	-12.34
▁آخرالزمان	-12.34
▁التماس	-12.34
▁چیدمان	-12.34
▁متورم	-12.34
▁امكان	-12.34
▁باربارا	-12.34
▁کشتیرانی	-12.34
▁خونسرد	-12.34
▁Internet	-12.34
▁بیضه	-12.34
▁پکیج	-12.34
▁یکجانبه	-12.34
▁موناکو	-12.34
▁واقف	-12.34
▁سیاتل	-12.3401
▁استمرار	-12.3401
ايجاد	-12.3401
▁ادیسون	-12.3401
▁1983	-12.3401
▁غير	-12.3401
▁LCD	-12.3401
▁ورزد	-12.3401
▁مژه	-12.3402
▁عکسبرداری	-12.3402
▁بشنویم	-12.3402
▁بیاموزند	-12.3402
▁مسوولیت	-12.3402
▁انقدر	-12.3402
▁PPC	-12.3402
▁۱۹۸۱	-12.3403
▁مدّت	-12.3403
▁فجر	-12.3403
▁شاتل	-12.3403
▁پايان	-12.3403
▁450	-12.3403
▁اکسل	-12.3404
یزاسیون	-12.3404
▁James	-12.3404
▁Fall	-12.3404
▁دروغگویی	-12.3404
▁Sport	-12.3405
▁قاطعیت	-12.3405
▁بکشیم	-12.3406
▁خلیل	-12.3406
▁بگذرد	-12.3406
▁امنيت	-12.3407
▁نخبه	-12.3408
▁ماوس	-12.3409
جوان	-12.3409
▁فیزیکدانان	-12.341
ower	-12.341
▁view	-12.3412
▁ظالمانه	-12.3412
▁خودروسازان	-12.3412
▁>>	-12.3412
▁خیمه	-12.3413
▁اینجوری	-12.3413
▁نزن	-12.3414
▁رفاهی	-12.3414
▁گپ	-12.3415
▁بتونی	-12.3415
▁کراس	-12.3415
▁عاجز	-12.3415
▁بارندگی	-12.3416
دهنده	-12.3416
met	-12.3417
▁مزاحمت	-12.3418
▁مصوبه	-12.3419
▁هرچقدر	-12.3421
▁مافوق	-12.3421
▁نجف	-12.3422
▁شرت	-12.3423
▁بلك	-12.3423
▁83	-12.3424
▁بمیرم	-12.3426
▁زمانبندی	-12.3426
▁استخوانی	-12.3429
▁بدنسازی	-12.343
▁ناشران	-12.343
▁Photo	-12.3431
▁Pu	-12.3431
▁TM	-12.3433
illa	-12.3435
▁متان	-12.3438
جای	-12.3439
▁دستاوردها	-12.3441
▁فتو	-12.3442
▁مولر	-12.3446
پینگ	-12.3448
نچ	-12.3449
تینگ	-12.345
▁صدقه	-12.345
▁لویی	-12.3452
▁توسل	-12.3453
▁بندد	-12.3457
▁واداشت	-12.3458
۹۳	-12.346
▁درمیان	-12.3463
▁y	-12.3463
▁سواران	-12.3464
عات	-12.3465
▁پارکر	-12.347
▁اکثراً	-12.3471
▁بخاری	-12.3472
ودن	-12.3473
part	-12.3475
ze	-12.3475
▁Mich	-12.3475
▁خاتمی	-12.3477
▁اسپین	-12.3479
▁دامپزشکی	-12.348
▁ICO	-12.3486
ford	-12.3486
▁ناسازگاری	-12.349
تیم	-12.349
يج	-12.3493
▁خزند	-12.3493
rg	-12.3493
▁سمینارها	-12.3495
UR	-12.3495
▁کلاً	-12.35
▁نمیکنند	-12.3501
▁87	-12.3502
▁Mini	-12.3503
ection	-12.3506
▁برکناری	-12.3507
▁موت	-12.3508
▁دستکش	-12.351
غل	-12.3511
▁اوبر	-12.3512
▁سهامدار	-12.3514
▁جاهل	-12.3515
▁آرای	-12.3517
BT	-12.3519
وسا	-12.3521
كل	-12.3521
آقای	-12.3523
▁۵۱	-12.3525
DF	-12.3528
▁داو	-12.3529
▁نیکوکار	-12.3532
oon	-12.3534
▁فلو	-12.3535
▁سیرک	-12.3536
▁رضایی	-12.354
یلر	-12.3542
▁NT	-12.3544
▁فود	-12.3545
▁Bio	-12.3545
▁ادل	-12.3548
▁di	-12.355
cs	-12.355
Net	-12.3552
▁اصطلاحی	-12.3556
▁وکارها	-12.3557
حقاق	-12.3558
▁شعارهای	-12.3561
▁پتو	-12.3561
▁Are	-12.3562
▁جاها	-12.3563
-18	-12.3565
▁دایناسور	-12.3565
▁پروازها	-12.3567
GR	-12.3567
گرایانه	-12.3571
ella	-12.3572
▁Men	-12.3575
▁ري	-12.3582
EU	-12.3586
/5	-12.3587
یستا	-12.3587
▁میکروسکوپی	-12.3587
▁نرو	-12.3588
خیز	-12.3596
▁لئو	-12.3599
▁کوت	-12.3603
▁ارت	-12.3603
itt	-12.361
▁شرک	-12.3612
▁داک	-12.3612
▁قانونگذار	-12.3614
mic	-12.3618
▁پریدن	-12.3624
cat	-12.3625
▁کوره	-12.3625
کلیف	-12.3625
٫۸	-12.3625
أت	-12.3626
▁Uni	-12.3626
UP	-12.363
▁بجا	-12.3633
طیع	-12.3634
▁همتا	-12.3636
▁هاروی	-12.3645
▁خودآگاه	-12.365
▁گفتگویی	-12.3658
mber	-12.3667
▁مجسم	-12.3676
درس	-12.3677
▁آرزوها	-12.3678
▁جدیت	-12.3678
دنیا	-12.368
تقریبا	-12.368
حفظ	-12.368
عملیات	-12.368
دقیق	-12.368
همانطور	-12.368
داخل	-12.3682
فصل	-12.3683
▁لایک	-12.3685
▁طالب	-12.3687
بیمار	-12.3688
تروفی	-12.3688
▁محتوی	-12.3688
▁مسؤول	-12.3692
▁Hyper	-12.3694
▁Speed	-12.3694
▁افتضاح	-12.3694
▁بازنشستگان	-12.3694
▁بلشویک	-12.3694
▁سحابی	-12.3694
▁عاطفه	-12.3694
▁غلیظ	-12.3694
▁غیرضروری	-12.3694
▁كوچك	-12.3694
▁مشغله	-12.3694
▁معذرت	-12.3694
▁معظم	-12.3694
▁موتورسیکلت	-12.3694
▁ناهموار	-12.3694
▁هموطنان	-12.3694
▁گارانتی	-12.3694
▁تاريخ	-12.3694
▁متمدن	-12.3694
▁مجلل	-12.3694
▁منسوخ	-12.3694
▁زياد	-12.3694
▁کارائیب	-12.3694
▁ماوراء	-12.3694
▁هاوکینگ	-12.3694
▁سجاد	-12.3694
▁دعوی	-12.3694
▁ایزوتوپ	-12.3694
▁آمینه	-12.3694
▁بیهوشی	-12.3694
▁مونترال	-12.3694
▁ژرف	-12.3694
▁سیلندر	-12.3694
▁مارپیچ	-12.3694
▁ظرفشویی	-12.3694
▁فرهاد	-12.3694
▁غریزی	-12.3694
▁مونتاژ	-12.3694
▁مقعد	-12.3694
▁اكنون	-12.3694
▁مرفه	-12.3694
▁Show	-12.3695
WHO	-12.3695
▁مداربسته	-12.3695
▁یحیی	-12.3695
▁شرمسار	-12.3695
▁بگوئید	-12.3695
▁ظن	-12.3695
▁1961	-12.3695
BMI	-12.3695
▁1965	-12.3695
▁1947	-12.3695
▁عبرت	-12.3695
▁1977	-12.3695
▁چاوز	-12.3695
▁هلیوم	-12.3696
▁جنایتکار	-12.3696
▁گلایه	-12.3696
▁شناسنامه	-12.3696
آگاه	-12.3696
▁بپوشانید	-12.3696
▁HTC	-12.3696
▁ناممکن	-12.3697
▁یورک	-12.3697
▁پرخطر	-12.3697
▁ناتمام	-12.3697
▁بفرد	-12.3698
ves	-12.3698
▁Video	-12.3699
▁بیلیون	-12.3699
▁خازن	-12.3699
▁سینوس	-12.3699
▁وسطایی	-12.3702
▁Tag	-12.3702
▁آخه	-12.3702
▁تشکل	-12.3703
▁بيان	-12.3703
ated	-12.3704
▁نتوانستیم	-12.3705
▁کوپن	-12.3706
▁گزیده	-12.3706
▁Times	-12.3707
▁رژه	-12.3708
▁ایستد	-12.3709
▁بحال	-12.3711
▁سیار	-12.3713
▁84	-12.3715
▁استاندار	-12.3715
▁جنگیدند	-12.3718
▁Green	-12.372
▁محال	-12.372
▁بترس	-12.372
▁٥	-12.3722
gel	-12.3724
▁مسلمین	-12.3724
▁بخواهی	-12.3725
▁(12	-12.3726
قیل	-12.3726
▁ابتکاری	-12.3727
▁آرشیوهای	-12.3731
▁بخوا	-12.3731
▁بایستد	-12.3736
pot	-12.3736
▁خوا	-12.3737
▁Au	-12.3738
▁اطرافش	-12.3742
▁غواصی	-12.3745
▁جولی	-12.3748
▁دوبله	-12.3748
▁بدبخت	-12.3753
▁سفال	-12.3757
▁میتوانم	-12.3757
▁همگرایی	-12.3762
▁Heart	-12.3764
▁شدیدترین	-12.3773
▁ASP	-12.3773
▁پرتوهای	-12.3774
▁میشم	-12.3775
▁نشون	-12.3777
▁انگ	-12.378
▁1400	-12.3783
راک	-12.3785
▁موکل	-12.3785
▁رحمتی	-12.3787
▁خانوم	-12.3788
▁جنجالی	-12.3792
دوستان	-12.3794
▁جارو	-12.3796
▁نواخت	-12.3799
▁Er	-12.3801
طول	-12.3801
▁AB	-12.3802
▁ساب	-12.3805
▁بگی	-12.3808
گیرند	-12.3809
۹۸	-12.3815
▁پیرتر	-12.3817
▁انگیزشی	-12.3818
▁شبح	-12.3825
▁کارگردانان	-12.3825
▁٪	-12.3827
امت	-12.3827
فَ	-12.3828
▁چرخید	-12.3829
ضد	-12.383
▁بازخوردهای	-12.3831
▁مارکسیستی	-12.3837
▁1.7	-12.384
▁هیولای	-12.3844
LAN	-12.3845
lim	-12.3846
▁مرورگرهای	-12.3848
▁پاکت	-12.3849
▁کمد	-12.385
▁دوقلوها	-12.3851
here	-12.3855
▁آرک	-12.3857
▁شیو	-12.3857
▁بنگر	-12.3863
▁Moto	-12.3871
▁استوارت	-12.3873
▁Port	-12.3875
▁کفار	-12.3876
▁اض	-12.3882
▁همخوان	-12.3884
▁عمرم	-12.3884
▁برگشتن	-12.3884
CU	-12.3887
key	-12.3894
▁رپ	-12.3896
▁چان	-12.3896
onic	-12.3898
▁۹۷	-12.3901
rew	-12.3905
▁81	-12.3907
▁سردرگم	-12.3911
▁آشپز	-12.3911
چیده	-12.3917
▁پوشاند	-12.3919
▁مقدمات	-12.3922
اورد	-12.3924
صلح	-12.3926
▁دونی	-12.393
▁مذ	-12.393
▁مواز	-12.3932
▁٤	-12.3934
▁ميان	-12.394
▁هیپ	-12.394
IB	-12.3941
▁چسبند	-12.3945
▁تجویزی	-12.3946
▁نورده	-12.3947
ُن	-12.3947
راج	-12.3948
▁Mad	-12.395
▁برآمده	-12.3953
▁ژول	-12.3955
ines	-12.3958
▁نخور	-12.3959
IV	-12.3959
▁Sil	-12.3961
▁زراع	-12.3963
فال	-12.3964
مدت	-12.3972
GM	-12.3973
EO	-12.3973
▁تامل	-12.3974
▁Top	-12.3975
well	-12.398
▁دستمزدها	-12.398
واسطه	-12.398
▁0.1	-12.3983
<	-12.3983
پاسخ	-12.3985
▁Unit	-12.3985
اطلاعات	-12.3985
▁ظالم	-12.3988
▁بفروش	-12.3991
\"	-12.3992
▁سزار	-12.3993
گارد	-12.3994
خنده	-12.3994
▁سعد	-12.3995
▁بورژوا	-12.3996
▁Battle	-12.3997
▁First	-12.3997
▁تسبیح	-12.3997
▁توخالی	-12.3997
▁زرادخانه	-12.3997
▁فجایع	-12.3997
▁لغزش	-12.3997
▁مركز	-12.3997
▁مشوق	-12.3997
▁معاهدات	-12.3997
▁نردبان	-12.3997
▁نعوظ	-12.3997
▁پتروشیمی	-12.3997
▁شأن	-12.3997
▁عقاب	-12.3997
▁کبوتر	-12.3997
▁معیوب	-12.3997
-15	-12.3997
▁استنباط	-12.3997
▁سانتیگراد	-12.3997
▁قیاس	-12.3997
▁الفبای	-12.3997
▁الکترولیت	-12.3997
▁فلورانس	-12.3997
▁مصون	-12.3997
▁پراکندگی	-12.3997
▁١٨	-12.3997
▁فاتح	-12.3997
▁ایسنا	-12.3997
▁طبعی	-12.3997
▁محافل	-12.3997
▁Duty	-12.3997
▁نبوغ	-12.3998
▁۱۹۸۹	-12.3998
▁مشرق	-12.3998
▁۱۹۹۷	-12.3998
▁بشکند	-12.3998
▁آماتور	-12.3998
▁واکسین	-12.3998
▁گجت	-12.3998
▁لباسشویی	-12.3998
▁سرمايه	-12.3998
▁رجب	-12.3998
▁Ghost	-12.3998
▁مبحث	-12.3998
▁باینری	-12.3998
▁تلگراف	-12.3998
▁1966	-12.3998
▁رومیزی	-12.3998
▁مسطح	-12.3998
▁LTE	-12.3999
▁وآله	-12.3999
▁FBI	-12.3999
▁بچگی	-12.3999
▁آفیس	-12.3999
▁چشید	-12.3999
▁بنویسیم	-12.4
▁Bur	-12.4
load	-12.4
▁ISP	-12.4
▁لور	-12.4001
▁بخوانیم	-12.4001
▁HDL	-12.4002
▁جیغ	-12.4002
▁بنر	-12.4002
▁پرنسس	-12.4003
▁حیف	-12.4003
▁مغول	-12.4003
▁جیسون	-12.4003
خامت	-12.4005
▁Ken	-12.4005
▁استاتیک	-12.4007
▁پیشینیان	-12.4007
▁شنیدیم	-12.4007
▁کوشد	-12.4007
▁یوحنا	-12.4008
▁بشنوم	-12.4009
▁CDC	-12.4012
▁فعاليت	-12.4012
▁روزگاری	-12.4016
▁جراحات	-12.4016
▁مجاورت	-12.4018
▁ماندلا	-12.4019
وفسکی	-12.4025
▁app	-12.4025
▁رولت	-12.4028
▁تفریحات	-12.403
ديد	-12.4035
wo	-12.4035
▁فست	-12.4038
▁پینگ	-12.4043
▁میانجی	-12.4043
▁تاجران	-12.4043
▁راهکاری	-12.4044
▁سیما	-12.4045
▁Bay	-12.4045
▁1.3	-12.4046
ible	-12.4051
▁درمانگاه	-12.4056
۳۳	-12.4057
▁مساعدت	-12.4059
▁کارساز	-12.4061
▁غارهای	-12.4065
▁سوسک	-12.4065
▁بندند	-12.407
▁IC	-12.407
▁رسيد	-12.407
▁آنتونیو	-12.4071
نگو	-12.4074
نیت	-12.4075
ries	-12.4077
سایت	-12.4078
▁عزا	-12.4079
بانک	-12.4081
▁قضاییه	-12.4082
▁راهنماهای	-12.4083
2000	-12.4084
▁سون	-12.4086
▁کرک	-12.4088
▁علیهم	-12.409
▁نزدیکان	-12.4091
ram	-12.4092
▁نشستند	-12.4096
▁مؤثرتر	-12.4099
▁کدها	-12.41
کاف	-12.4102
▁Sol	-12.4103
ani	-12.4106
▁خوشحالیم	-12.4107
غرب	-12.4112
rian	-12.4115
هنگام	-12.4118
▁نبا	-12.4123
▁نبرده	-12.4123
▁زنها	-12.4124
▁پنی	-12.4124
▁مسئولانه	-12.4126
حس	-12.4126
▁آرژانتینی	-12.4127
▁دایناسورها	-12.4132
▁گریس	-12.4133
▁ساختارها	-12.4138
▁CR	-12.4139
▁بعدتر	-12.4144
▁1.6	-12.4145
نمود	-12.4146
enz	-12.4146
؟!!	-12.4152
▁73	-12.4155
▁اخت	-12.4155
▁آوار	-12.416
▁پروردگارت	-12.416
this	-12.4162
▁wh	-12.4168
▁داون	-12.417
▁بارسا	-12.4176
▁سکوی	-12.4178
▁افترا	-12.418
▁سیزدهم	-12.4181
▁همسو	-12.4183
▁بازتابی	-12.4185
▁مدارهای	-12.4187
ating	-12.4188
less	-12.4189
▁اشتهای	-12.4191
رنج	-12.4192
▁جبر	-12.4193
زمایش	-12.4197
▁ساعاتی	-12.42
▁بزنی	-12.42
▁فروشید	-12.4201
▁ساند	-12.4207
نوعی	-12.4208
▁هفده	-12.421
Final	-12.4215
▁صالحی	-12.4217
▁350	-12.422
▁دامپزشک	-12.4223
اجرا	-12.4224
▁فاشیست	-12.4225
شنبه	-12.4227
▁اثربخش	-12.4235
▁ساق	-12.4238
▁ch	-12.4246
▁لج	-12.4248
▁والدینش	-12.425
run	-12.4252
▁آراست	-12.426
▁چار	-12.426
خاطرات	-12.4261
▁اسپر	-12.4266
▁پایبندی	-12.4268
▁Way	-12.4271
▁نوزده	-12.4272
lia	-12.4276
▁بکنی	-12.4279
▁روستاها	-12.428
کشن	-12.4283
▁SC	-12.4283
▁بنویس	-12.4289
▁Pen	-12.4289
▁Fu	-12.4289
حساب	-12.429
٠٠	-12.4291
▁برآمد	-12.4291
▁همکارانم	-12.4292
▁Act	-12.4292
▁نمیتوان	-12.4293
▁توجیهی	-12.4295
اکنون	-12.4295
بنابراین	-12.4296
المللی	-12.4296
اتحادیه	-12.4296
۴۴	-12.4296
▁خطاها	-12.4296
ez	-12.4298
آخرین	-12.4298
مواد	-12.43
▁کاف	-12.4303
▁پیمود	-12.4304
▁تماماً	-12.4304
▁مگا	-12.4304
▁عوام	-12.4307
محل	-12.4308
نمایند	-12.4308
▁بیانجامد	-12.431
▁ترانزیستور	-12.431
▁حضار	-12.431
▁دیالوگ	-12.431
▁زگیل	-12.431
▁شکیبایی	-12.431
▁مصادره	-12.431
▁ملبورن	-12.431
▁موهبت	-12.431
▁نلسون	-12.431
▁پنالتی	-12.431
▁کاتالوگ	-12.431
▁گشایش	-12.431
▁یکنواخت	-12.431
▁۱۹۶۹	-12.431
▁اذان	-12.431
▁اسفنج	-12.431
▁بازدارنده	-12.431
▁بفهمم	-12.431
▁تانزانیا	-12.431
▁رشوه	-12.431
▁سطل	-12.431
▁چابک	-12.431
▁South	-12.431
▁ارشاد	-12.431
▁اهانت	-12.431
▁سبحان	-12.431
▁کاظم	-12.431
▁حریق	-12.431
▁مادرزادی	-12.431
▁مونیخ	-12.431
▁خودسرانه	-12.431
▁ملودی	-12.431
▁تقلیل	-12.431
▁سرامیک	-12.431
▁فرسایش	-12.431
▁صنف	-12.431
▁چوپان	-12.431
▁■	-12.431
▁ونقل	-12.431
house	-12.431
▁مالاریا	-12.431
▁عقرب	-12.431
▁طنین	-12.431
▁معاشرت	-12.431
▁سیریزا	-12.431
▁۱۹۹۵	-12.431
▁تعرض	-12.431
▁1974	-12.431
▁ابرقدرت	-12.431
▁زکات	-12.4311
▁Alex	-12.4311
▁موازنه	-12.4311
▁1956	-12.4311
▁نیوتن	-12.4311
▁رصدخانه	-12.4311
▁لبنی	-12.4311
▁ناآگاه	-12.4311
▁ورزند	-12.4311
▁دیویس	-12.4311
▁مسافربری	-12.4311
▁دورافتاده	-12.4311
▁پراکن	-12.4311
▁آلوئ	-12.4311
▁بیاموزد	-12.4312
▁اسکایپ	-12.4312
▁گلزنی	-12.4312
▁بخوابد	-12.4312
FR	-12.4313
▁بیگناه	-12.4313
▁همانجا	-12.4314
iver	-12.4314
▁برگردانید	-12.4314
▁Pack	-12.4314
▁گچ	-12.4314
▁HDR	-12.4314
▁Now	-12.4314
avi	-12.4315
▁CMS	-12.4317
▁ED	-12.4318
▁قضایا	-12.4318
▁نگردد	-12.4318
▁نخوانده	-12.4319
▁شنوا	-12.4322
▁برآوردن	-12.4322
▁[3]	-12.4325
▁FX	-12.4327
▁اصلاحیه	-12.4328
▁گوسفندان	-12.433
▁پهپاد	-12.4331
▁مفت	-12.4331
▁متروکه	-12.4332
▁Arc	-12.4333
▁your	-12.4335
▁Tor	-12.4336
▁یقینا	-12.4336
▁میخوای	-12.4337
▁بون	-12.434
نیاز	-12.434
▁مستحب	-12.434
▁جوانا	-12.4347
__	-12.4347
خطر	-12.4347
▁UI	-12.4348
▁ریاضت	-12.4349
▁صدف	-12.4353
▁ترسیدم	-12.4356
▁باتجربه	-12.4357
oh	-12.4358
▁آییم	-12.4363
اهل	-12.4368
دیل	-12.4368
▁تعالیم	-12.4368
▁آبادی	-12.437
▁برکلی	-12.4372
▁pre	-12.4372
▁آموختم	-12.4374
▁میانبر	-12.4376
▁نوید	-12.4377
اوت	-12.4378
▁كلی	-12.438
▁فرمانروایی	-12.438
▁آیینه	-12.4382
▁1,	-12.4386
▁کتابچه	-12.4386
▁الج	-12.4393
▁سلفی	-12.4395
ration	-12.4396
▁کلاسهای	-12.4396
▁فرج	-12.4398
▁انشا	-12.44
▁پیمانان	-12.4401
real	-12.4405
▁2500	-12.4406
▁شنی	-12.4408
▁متع	-12.4409
▁Sim	-12.441
cha	-12.4412
▁IO	-12.4413
▁مدد	-12.4428
▁اشکالات	-12.4433
سخت	-12.4434
ski	-12.4434
▁زهر	-12.4438
▁تنبلی	-12.4442
▁لرزید	-12.4448
▁Bad	-12.4451
دیس	-12.4452
rate	-12.4455
▁Big	-12.4455
▁۵۸	-12.4456
▁دریابند	-12.4458
▁برجای	-12.4461
ارن	-12.4462
▁آوردید	-12.4462
گرفتن	-12.4463
ویان	-12.4466
▁ايال	-12.4468
▁پرداز	-12.4468
▁دبیرستانی	-12.4472
▁اولاً	-12.4476
▁برانگیختن	-12.4477
▁هدفون	-12.4479
پاک	-12.449
▁Nin	-12.449
▁بادهای	-12.4493
سنجی	-12.4497
war	-12.4497
طریق	-12.4503
▁کپ	-12.451
▁Add	-12.4513
▁فیت	-12.4515
▁Pol	-12.4516
▁۱۵۰۰	-12.4523
ony	-12.4525
▁(«	-12.4529
▁پلان	-12.4531
▁درآمدها	-12.4535
پیدا	-12.4541
▁Je	-12.4543
OE	-12.4545
▁امپراطور	-12.4547
▁کوانتوم	-12.4547
▁سعود	-12.4547
▁ردیاب	-12.4547
برداری	-12.4547
▁میروند	-12.4549
▁کورت	-12.455
▁میتوانست	-12.4554
▁تأثیرگذاری	-12.4556
▁پالم	-12.4556
▁Tur	-12.4557
▁برداریم	-12.4561
▁سیمون	-12.4564
-200	-12.4568
▁خا	-12.4569
▁Es	-12.4577
To	-12.4579
رسون	-12.4579
▁Fa	-12.4579
▁۵۳	-12.4598
▁کالین	-12.4598
▁بمیر	-12.4602
يك	-12.4606
▁بشی	-12.4606
ATA	-12.4606
▁ساد	-12.4613
▁CT	-12.4613
03	-12.4614
▁هنجار	-12.4615
علت	-12.4616
Google	-12.4618
میلیارد	-12.4618
بازگشت	-12.4618
توسعه	-12.4619
▁Gen	-12.4619
جیمز	-12.4619
VPN	-12.4625
bot	-12.4625
اگرچه	-12.4629
▁حیث	-12.463
He	-12.463
موسی	-12.463
▁تایی	-12.4631
ö	-12.4632
›	-12.4632
▁1946	-12.4632
▁IELTS	-12.4632
▁LinkedIn	-12.4632
▁افزايش	-12.4632
▁تثلیث	-12.4632
▁تمجید	-12.4632
▁دبلیو	-12.4632
▁رؤیت	-12.4632
▁رستاخیز	-12.4632
▁رنسانس	-12.4632
▁سکانس	-12.4632
▁شوالیه	-12.4632
▁متزلزل	-12.4632
▁مظهر	-12.4632
▁نینتندو	-12.4632
▁پادکست	-12.4632
▁پطرس	-12.4632
▁گالیله	-12.4632
▁بیتکوین	-12.4632
▁ختنه	-12.4632
▁فرانکفورت	-12.4632
▁مطهری	-12.4632
▁Residen	-12.4632
▁ارگاسم	-12.4632
▁Pixel	-12.4632
▁المقدس	-12.4632
▁دودویی	-12.4632
▁حصر	-12.4632
▁THE	-12.4632
▁جسارت	-12.4632
▁Point	-12.4632
▁نمیدانم	-12.4633
▁پانصد	-12.4633
▁سروصدا	-12.4633
▁مجرب	-12.4633
TION	-12.4633
space	-12.4633
▁مجرای	-12.4633
▁راجرز	-12.4633
▁کامیابی	-12.4633
▁استرداد	-12.4633
▁اعتنایی	-12.4633
▁بامداد	-12.4633
▁◄	-12.4633
▁کریستوفر	-12.4633
▁میسازد	-12.4633
▁جسورانه	-12.4633
▁شروط	-12.4633
▁1967	-12.4633
▁نگیرند	-12.4633
▁فانوس	-12.4634
▁پارگی	-12.4634
▁تجدیدنظر	-12.4634
▁لیبرالیسم	-12.4634
▁ERP	-12.4634
مخازن	-12.4634
▁SSD	-12.4634
▁دلفین	-12.4634
داشته	-12.4634
▁سنجیده	-12.4634
hui	-12.4635
▁Merc	-12.4635
▁NBA	-12.4635
▁گوزن	-12.4635
▁سیسکو	-12.4636
▁°	-12.4636
▁Fire	-12.4637
▁شفقت	-12.4637
▁Micro	-12.4637
▁Type	-12.4638
▁نرسد	-12.4638
vision	-12.4638
▁Boy	-12.4638
▁Bank	-12.4638
▁اسلات	-12.4639
▁کولون	-12.4639
▁شبكه	-12.4639
▁pH	-12.4639
▁پوکر	-12.464
▁استریم	-12.4642
▁اندیشند	-12.4644
▁مسری	-12.4644
▁ماکرون	-12.4644
▁سوپرمن	-12.4645
▁جمهوریخواهان	-12.4647
▁کمرنگ	-12.4648
▁کنسل	-12.4649
▁باحال	-12.4649
▁اردک	-12.4649
▁پردازشگر	-12.4649
▁++	-12.4649
▁Hand	-12.4653
▁نشینند	-12.4654
▁جاسازی	-12.4655
▁ساختمانهای	-12.4655
▁Ant	-12.4656
▁سرکار	-12.4657
▁گنگ	-12.4663
▁دگر	-12.4664
▁ماهیانه	-12.4665
▁روحانیون	-12.4665
ations	-12.4668
▁زراعت	-12.4669
▁حما	-12.467
▁چشمانم	-12.467
▁٩	-12.4671
▁حاجت	-12.4672
▁شمرد	-12.4675
▁پرسیم	-12.4675
▁نورانی	-12.4677
▁خوردیم	-12.4681
وتراپی	-12.4681
▁شگرف	-12.4682
lon	-12.4684
▁Blu	-12.4684
▁افتخارات	-12.4687
GP	-12.4689
▁دعاهای	-12.469
[...]
