<unk>	0
<s>	0
</s>	0
▁ا	-0
▁ب	-1
▁م	-2
▁د	-3
▁ک	-4
▁ی	-5
▁ه	-6
▁و	-7
▁ر	-8
▁ت	-9
ان	-10
▁.	-11
▁ن	-12
ای	-13
ست	-14
▁ش	-15
ار	-16
ند	-17
▁در	-18
ین	-19
▁س	-20
▁به	-21
▁می	-22
▁،	-23
▁خ	-24
▁آ	-25
▁را	-26
▁از	-27
▁که	-28
ود	-29
▁است	-30
ید	-31
▁با	-32
▁گ	-33
▁پ	-34
▁این	-35
▁بر	-36
▁ف	-37
رد	-38
اد	-39
▁ان	-40
ام	-41
▁ج	-42
▁های	-43
ال	-44
▁ح	-45
▁ع	-46
▁ز	-47
▁چ	-48
ور	-49
▁ق	-50
▁کن	-51
اه	-52
ما	-53
یر	-54
▁یک	-55
▁آن	-56
▁تو	-57
▁هم	-58
▁برای	-59
شت	-60
▁ها	-61
▁ل	-62
یم	-63
▁شد	-64
▁رو	-65
فت	-66
▁ط	-67
اب	-68
▁دار	-69
ون	-70
لی	-71
▁کرد	-72
▁ات	-73
ری	-74
▁من	-75
لا	-76
از	-77
▁مو	-78
▁ای	-79
ها	-80
سی	-81
▁یا	-82
را	-83
گر	-84
▁کار	-85
رو	-86
▁او	-87
▁ده	-88
▁ص	-89
▁خود	-90
▁شما	-91
▁نی	-92
▁ند	-93
▁توان	-94
▁بود	-95
می	-96
▁دا	-97
▁خو	-98
اده	-99
▁تر	-100
▁باش	-101
▁تا	-102
▁دو	-103
▁ما	-104
▁بی	-105
یت	-106
▁کند	-107
▁:	-108
▁شود	-109
▁دی	-110
▁کنند	-111
▁ام	-112
تر	-113
▁شده	-114
▁ال	-115
▁سال	-116
▁(	-117
مان	-118
یا	-119
▁هر	-120
خت	-121
▁)	-122
▁کنید	-123
▁1	-124
▁هست	-125
زی	-126
▁ار	-127
تی	-128
ول	-129
▁اند	-130
گی	-131
▁ید	-132
اید	-133
اس	-134
دا	-135
▁اف	-136
▁ست	-137
وی	-138
▁دان	-139
اری	-140
نو	-141
▁یی	-142
▁داشت	-143
▁»	-144
▁0	-145
▁؟	-146
نگ	-147
ده	-148
کن	-149
▁غ	-150
▁دست	-151
▁اما	-152
▁پی	-153
▁باشد	-154
▁گر	-155
رک	-156
▁دارد	-157
▁مح	-158
▁حال	-159
▁نمی	-160
▁آنها	-161
▁وا	-162
بت	-163
▁2	-164
▁باید	-165
یل	-166
▁تح	-167
▁قر	-168
▁فر	-169
▁اگر	-170
زار	-171
▁«	-172
▁کم	-173
له	-174
▁مع	-175
▁چه	-176
▁دیگر	-177
مو	-178
▁فاده	-179
ات	-180
بی	-181
▁شو	-182
▁واه	-183
▁"	-184
▁چی	-185
انه	-186
▁رس	-187
▁سی	-188
▁اس	-189
▁بار	-190
قی	-191
▁نظ	-192
در	-193
مای	-194
▁بین	-195
▁مت	-196
امه	-197
رف	-198
فته	-199
جود	-200
▁سر	-201
عی	-202
▁انج	-203
▁مش	-204
نی	-205
▁نش	-206
▁۱	-207
▁زمان	-208
▁زند	-209
▁مورد	-210
▁نو	-211
▁داد	-212
▁تن	-213
▁چن	-214
جه	-215
▁هستند	-216
▁گذ	-217
▁بد	-218
که	-219
▁کش	-220
▁تواند	-221
▁مان	-222
▁دهد	-223
▁انجام	-224
▁گاه	-225
▁نا	-226
▁کرده	-227
▁یم	-228
عه	-229
▁ری	-230
▁مر	-231
▁مس	-232
بر	-233
عد	-234
اف	-235
▁روز	-236
▁خواه	-237
▁-	-238
▁اج	-239
▁سا	-240
▁نیست	-241
▁تم	-242
با	-243
▁هی	-244
▁وجود	-245
زش	-246
▁مرد	-247
▁قرار	-248
▁همه	-249
وا	-250
انی	-251
دید	-252
▁مه	-253
▁نه	-254
شتر	-255
کر	-256
▁بیشتر	-257
▁چنین	-258
▁اح	-259
▁جه	-260
کا	-261
▁نیز	-262
▁عنو	-263
▁عنوان	-264
▁ساز	-265
ارد	-266
▁ین	-267
▁وی	-268
رکت	-269
عت	-270
▁بخ	-271
▁!	-272
به	-273
▁مد	-274
▁زی	-275
▁مم	-276
فا	-277
▁اد	-278
▁وق	-279
مین	-280
▁توس	-281
▁پس	-282
امل	-283
▁پیش	-284
▁دارند	-285
▁داشته	-286
خص	-287
▁انت	-288
▁هایی	-289
▁خواهد	-290
▁رن	-291
▁زندگی	-292
▁ور	-293
نا	-294
▁۰	-295
▁تص	-296
▁دانش	-297
ایی	-298
▁نق	-299
▁تج	-300
▁ث	-301
ونه	-302
▁شوند	-303
▁ممکن	-304
▁ذ	-305
▁بز	-306
▁اط	-307
▁روی	-308
▁نظر	-309
▁e	-310
ادی	-311
▁گو	-312
وری	-313
▁اق	-314
▁9	-315
▁داده	-316
▁۲	-317
▁گفت	-318
وم	-319
▁کس	-320
▁s	-321
▁کو	-322
▁راه	-323
ایت	-324
قه	-325
مل	-326
▁شرکت	-327
▁اه	-328
▁بسی	-329
رگ	-330
▁بسیار	-331
▁واق	-332
▁ض	-333
▁مق	-334
یده	-335
▁کردن	-336
یک	-337
▁نگ	-338
▁خا	-339
▁هیچ	-340
▁نیاز	-341
کل	-342
فر	-343
▁3	-344
▁طور	-345
▁تنها	-346
▁زن	-347
▁کنیم	-348
▁اش	-349
▁اص	-350
▁یکی	-351
▁تغ	-352
▁ترین	-353
نده	-354
▁جم	-355
چه	-356
▁مری	-357
هر	-358
▁مریکا	-359
▁S	-360
▁افر	-361
▁بخش	-362
▁؛	-363
ورت	-364
▁رنامه	-365
▁5	-366
▁پر	-367
سان	-368
▁افراد	-369
▁تمام	-370
▁بعد	-371
▁بزرگ	-372
گیر	-373
▁کل	-374
▁قب	-375
▁کمک	-376
▁آم	-377
▁اول	-378
▁مردم	-379
▁ي	-380
▁مند	-381
خا	-382
کی	-383
▁چند	-384
▁جدید	-385
▁یت	-386
▁نام	-387
▁صورت	-388
▁فق	-389
▁ك	-390
▁بازی	-391
شته	-392
▁اع	-393
▁تان	-394
قیق	-395
▁باره	-396
▁C	-397
لت	-398
وه	-399
▁نشان	-400
لام	-401
خی	-402
▁دور	-403
▁i	-404
ییر	-405
▁تغییر	-406
ابر	-407
▁چیزی	-408
صد	-409
جا	-410
▁گیر	-411
▁یاب	-412
▁4	-413
لب	-414
وت	-415
▁زیر	-416
طر	-417
▁دن	-418
▁کت	-419
▁نس	-420
وان	-421
▁A	-422
اره	-423
▁کشور	-424
▁ساخت	-425
▁دل	-426
▁اخ	-427
▁دهند	-428
▁دوست	-429
▁شان	-430
▁پای	-431
▁انه	-432
▁توسط	-433
▁کنم	-434
▁افز	-435
رائ	-436
▁سو	-437
..	-438
▁ارت	-439
الی	-440
▁باز	-441
▁کا	-442
▁مج	-443
شه	-444
▁ایج	-445
▁ایجاد	-446
▁آیا	-447
▁نت	-448
▁خانه	-449
▁حد	-450
▁فقط	-451
▁تب	-452
▁چیز	-453
▁ً	-454
بان	-455
حی	-456
▁ماه	-457
ژی	-458
ابل	-459
▁عمو	-460
▁حا	-461
▁ایر	-462
▁مانند	-463
▁رفت	-464
لو	-465
▁پرو	-466
▁حق	-467
▁وان	-468
▁اب	-469
ارت	-470
▁واقع	-471
▁جهان	-472
▁یافت	-473
▁”	-474
▁طول	-475
▁زمین	-476
لف	-477
عیت	-478
▁بیش	-479
سه	-480
▁n	-481
▁گی	-482
▁روش	-483
▁سیاری	-484
▁6	-485
▁تع	-486
▁غیر	-487
▁8	-488
▁حتی	-489
▁رد	-490
▁تول	-491
▁باشید	-492
▁انتخا	-493
▁اینکه	-494
▁M	-495
▁مط	-496
لیل	-497
▁t	-498
▁بن	-499
ثر	-500
▁خان	-501
ره	-502
شد	-503
▁شهر	-504
▁P	-505
ساس	-506
▁سه	-507
ادر	-508
▁اطلا	-509
▁اطلاع	-510
▁بل	-511
▁شر	-512
شر	-513
▁چگ	-514
▁کردند	-515
▁گرد	-516
ینه	-517
▁ود	-518
▁دید	-519
▁برخی	-520
▁هد	-521
▁فرو	-522
▁لی	-523
▁مهم	-524
▁انداز	-525
ژه	-526
▁باشند	-527
▁لا	-528
▁ایران	-529
▁آی	-530
▁یه	-531
▁تما	-532
ضو	-533
▁۹	-534
▁7	-535
زه	-536
▁گرفت	-537
▁زمانی	-538
▁درصد	-539
ضی	-540
▁ژ	-541
یدا	-542
▁افزای	-543
▁انسان	-544
ستم	-545
▁فیل	-546
▁شب	-547
ورد	-548
صی	-549
▁یل	-550
▁کاری	-551
▁کسی	-552
گاه	-553
▁[	-554
▁اک	-555
▁کتاب	-556
▁دهید	-557
▁قدر	-558
▁کود	-559
▁ایم	-560
▁شن	-561
▁علا	-562
▁فکر	-563
▁شور	-564
▁کودک	-565
▁مث	-566
▁تولید	-567
▁سیا	-568
زد	-569
▁شخص	-570
ریق	-571
▁جنگ	-572
▁B	-573
مایش	-574
▁ِ	-575
▁چرا	-576
on	-577
بود	-578
تب	-579
▁واهید	-580
▁ارائ	-581
▁گرفته	-582
▁“	-583
▁تش	-584
▁ارائه	-585
▁...	-586
رس	-587
▁آب	-588
▁جای	-589
▁خار	-590
یس	-591
▁بودند	-592
▁چگونه	-593
▁T	-594
▁تلا	-595
وق	-596
▁خد	-597
▁وقتی	-598
▁مشکل	-599
مت	-600
سته	-601
▁سازم	-602
زینه	-603
▁بدون	-604
▁نم	-605
▁همین	-606
کان	-607
شم	-608
▁غذ	-609
▁ظ	-610
▁بوده	-611
▁همان	-612
▁هنگ	-613
کار	-614
▁پیدا	-615
▁سیستم	-616
▁شدن	-617
▁قابل	-618
▁دارید	-619
▁گرو	-620
▁شرو	-621
▁مص	-622
▁فرد	-623
▁نخ	-624
▁۳	-625
▁گروه	-626
▁خی	-627
ایل	-628
▁زیادی	-629
▁a	-630
▁شنا	-631
▁D	-632
▁–	-633
ترین	-634
روز	-635
▁نفر	-636
▁احساس	-637
▁خوب	-638
▁کاه	-639
راحی	-640
▁کننده	-641
▁شم	-642
▁شروع	-643
▁­	-644
▁دلیل	-645
▁پو	-646
▁هنگام	-647
بو	-648
▁خیلی	-649
▁کاهش	-650
▁دیگ	-651
▁حس	-652
ازه	-653
▁واهند	-654
▁I	-655
▁آمو	-656
▁دیر	-657
▁وب	-658
▁پن	-659
فق	-660
▁er	-661
▁دولت	-662
▁لو	-663
▁توجه	-664
اشت	-665
▁خدا	-666
زان	-667
▁فیلم	-668
▁هو	-669
▁ولی	-670
▁بازار	-671
▁الا	-672
تص	-673
▁۵	-674
کس	-675
▁امروز	-676
▁آز	-677
▁r	-678
شان	-679
قل	-680
ضر	-681
▁آورد	-682
▁سایت	-683
تما	-684
دام	-685
▁نک	-686
▁خارج	-687
▁ستان	-688
▁گوی	-689
است	-690
▁زبان	-691
▁,	-692
▁اولین	-693
▁قبل	-694
▁عم	-695
دن	-696
▁فروش	-697
▁هترین	-698
▁دیگری	-699
رکز	-700
▁جن	-701
▁بنابر	-702
▁شک	-703
▁حرف	-704
▁باع	-705
▁مدت	-706
گو	-707
▁تاری	-708
▁قدرت	-709
▁حدود	-710
▁میان	-711
▁کسب	-712
▁منط	-713
▁عد	-714
▁تفا	-715
▁منت	-716
▁همی	-717
▁ارو	-718
▁سن	-719
▁همیشه	-720
or	-721
▁یلی	-722
▁G	-723
▁انگ	-724
▁ندارد	-725
▁تجر	-726
▁جا	-727
▁خواست	-728
▁سط	-729
▁خانوا	-730
▁یاد	-731
▁قان	-732
▁پاس	-733
▁تفاوت	-734
▁باعث	-735
▁H	-736
▁مرا	-737
▁صح	-738
ضوع	-739
▁موضوع	-740
▁خص	-741
▁]	-742
▁درست	-743
▁تلاش	-744
▁ارتبا	-745
▁قانون	-746
▁هدف	-747
▁مخت	-748
ثیر	-749
▁طریق	-750
▁توسعه	-751
▁یابی	-752
▁گذشته	-753
▁رق	-754
▁سری	-755
▁احتما	-756
پا	-757
▁طراحی	-758
طه	-759
بال	-760
مات	-761
▁نزد	-762
▁دنبال	-763
لم	-764
▁خصو	-765
میم	-766
صول	-767
گز	-768
▁اید	-769
▁آنچه	-770
▁افت	-771
▁عال	-772
چک	-773
▁کام	-774
▁عر	-775
▁سپ	-776
سر	-777
▁زنان	-778
▁۴	-779
▁R	-780
▁ره	-781
▁نامه	-782
▁محصول	-783
▁جهانی	-784
صل	-785
▁E	-786
▁بدن	-787
رده	-788
▁بهتر	-789
لیه	-790
▁چین	-791
یف	-792
▁گونه	-793
▁شامل	-794
▁هن	-795
▁آینده	-796
▁رمای	-797
▁مختلف	-798
▁هنو	-799
▁یع	-800
▁بیم	-801
▁هنوز	-802
▁وز	-803
ضا	-804
▁گزار	-805
▁جز	-806
اسب	-807
▁نتی	-808
ar	-809
▁تماعی	-810
▁اصلی	-811
قا	-812
▁وسی	-813
▁نوع	-814
خر	-815
▁تصمیم	-816
▁اروپا	-817
▁تاریخ	-818
▁رمایه	-819
▁گفته	-820
▁تحقیق	-821
▁c	-822
▁مسئ	-823
▁نیر	-824
▁طبی	-825
▁وارد	-826
▁ادامه	-827
ریان	-828
▁/	-829
▁تأ	-830
▁المل	-831
▁ته	-832
▁خر	-833
▁سازی	-834
▁الملل	-835
▁F	-836
▁تجربه	-837
▁دادن	-838
▁l	-839
طور	-840
▁L	-841
▁وقت	-842
▁درمان	-843
▁شاه	-844
▁برد	-845
▁اعت	-846
فاق	-847
▁اتفاق	-848
▁کوچک	-849
▁مصرف	-850
▁ساعت	-851
▁نسبت	-852
▁یان	-853
▁حاضر	-854
▁زیرا	-855
▁آل	-856
▁جام	-857
▁رشد	-858
▁جو	-859
▁ران	-860
▁پاسخ	-861
▁هفته	-862
ذیر	-863
▁هوا	-864
▁ملی	-865
▁هزینه	-866
▁نده	-867
▁قط	-868
▁ردا	-869
▁پا	-870
▁بگیر	-871
▁m	-872
رات	-873
▁شورها	-874
رسی	-875
▁آور	-876
▁دارای	-877
▁بررسی	-878
▁نف	-879
ترل	-880
▁عالیت	-881
▁یلیون	-882
▁منطقه	-883
▁سل	-884
▁آموزش	-885
▁تل	-886
▁طر	-887
▁شا	-888
▁حالی	-889
▁کامل	-890
▁ئ	-891
▁کنترل	-892
▁طال	-893
▁خوبی	-894
▁چشم	-895
جر	-896
▁سطح	-897
▁بالا	-898
▁ارزش	-899
▁نزدیک	-900
▁سای	-901
▁داخ	-902
▁برابر	-903
▁چهار	-904
an	-905
▁ثال	-906
▁W	-907
▁نوی	-908
▁کلی	-909
شی	-910
ایط	-911
▁شرایط	-912
▁تبد	-913
▁پشت	-914
▁رسید	-915
▁گذاری	-916
▁همر	-917
▁سلام	-918
▁همراه	-919
▁تبدیل	-920
▁گزارش	-921
وس	-922
▁N	-923
▁صف	-924
▁سف	-925
▁رای	-926
▁مل	-927
▁۶	-928
من	-929
▁مخ	-930
افی	-931
▁دیریت	-932
▁تحت	-933
▁هزار	-934
گان	-935
▁رخ	-936
▁گوید	-937
▁گذار	-938
▁عمل	-939
▁پایان	-940
▁بع	-941
▁نتیجه	-942
ظه	-943
▁ترکی	-944
▁پنج	-945
▁آغ	-946
▁دسترس	-947
▁دوره	-948
▁خاطر	-949
▁یر	-950
▁حل	-951
▁رات	-952
▁۸	-953
هنگ	-954
▁چون	-955
er	-956
▁بلکه	-957
▁آر	-958
▁شدند	-959
▁کاربر	-960
▁صحبت	-961
▁داریم	-962
وند	-963
▁اجازه	-964
▁تک	-965
▁سخت	-966
▁پذیر	-967
ضای	-968
▁مواد	-969
▁اغ	-970
▁شاید	-971
▁دنیا	-972
▁اخت	-973
▁پزش	-974
وز	-975
▁تعد	-976
▁قا	-977
▁فا	-978
یب	-979
▁قد	-980
▁پول	-981
▁صن	-982
▁کمی	-983
▁بیمار	-984
▁تعداد	-985
▁کردم	-986
▁فع	-987
سم	-988
▁یماری	-989
▁شناخت	-990
▁وض	-991
▁شکل	-992
▁عمولا	-993
▁نقل	-994
▁آغاز	-995
▁تق	-996
وار	-997
▁مشت	-998
مه	-999
▁دلار	-1000
▁مثل	-1001
▁جمله	-1002
لاح	-1003
▁راب	-1004
▁طرف	-1005
▁دخ	-1006
▁بند	-1007
مد	-1008
▁آسی	-1009
یط	-1010
یه	-1011
▁شوید	-1012
▁نگاه	-1013
▁الات	-1014
▁بت	-1015
▁رسد	-1016
▁نظام	-1017
لای	-1018
▁b	-1019
▁طب	-1020
رم	-1021
▁واقعی	-1022
ابت	-1023
▁هستید	-1024
▁اتی	-1025
▁آخر	-1026
▁تحده	-1027
▁صفح	-1028
ودی	-1029
شار	-1030
▁خاص	-1031
▁یعنی	-1032
▁اض	-1033
▁بح	-1034
▁مناسب	-1035
▁صد	-1036
اند	-1037
▁اغلب	-1038
▁واقعا	-1039
▁مقد	-1040
▁انر	-1041
▁گیرد	-1042
بوط	-1043
▁خواب	-1044
▁نب	-1045
▁خدمات	-1046
▁رب	-1047
▁امن	-1048
▁رفتار	-1049
مایت	-1050
▁حمایت	-1051
▁مربوط	-1052
هور	-1053
▁قیم	-1054
▁خط	-1055
▁اکن	-1056
▁خون	-1057
▁مدر	-1058
▁زد	-1059
▁سب	-1060
شق	-1061
▁جان	-1062
▁ابت	-1063
▁طالعه	-1064
▁بان	-1065
▁لاز	-1066
▁۷	-1067
▁البت	-1068
▁لازم	-1069
▁داست	-1070
▁g	-1071
▁البته	-1072
▁کسانی	-1073
▁عل	-1074
▁تیم	-1075
▁نگه	-1076
▁پروژه	-1077
▁انرژی	-1078
▁زمینه	-1079
▁عب	-1080
▁مشخص	-1081
▁قیمت	-1082
▁زمایش	-1083
▁سفر	-1084
▁خرید	-1085
▁شبکه	-1086
▁ون	-1087
▁راح	-1088
▁نمایش	-1089
▁واهد	-1090
▁کمتر	-1091
▁گیری	-1092
تصا	-1093
▁اقتصا	-1094
▁منظ	-1095
صر	-1096
▁اعلام	-1097
al	-1098
in	-1099
▁حم	-1100
اط	-1101
▁آنجا	-1102
▁لح	-1103
▁اینجا	-1104
▁رداخت	-1105
▁جوی	-1106
▁روسی	-1107
▁مف	-1108
▁موجود	-1109
▁سیاست	-1110
▁قری	-1111
▁اکنون	-1112
▁d	-1113
ئیس	-1114
الب	-1115
▁بده	-1116
▁عکس	-1117
▁تاثیر	-1118
▁نهاد	-1119
▁کافی	-1120
▁ضر	-1121
▁o	-1122
▁رنگ	-1123
▁سپس	-1124
عا	-1125
▁واهیم	-1126
▁پار	-1127
▁توصی	-1128
▁سایر	-1129
▁ایده	-1130
▁کنار	-1131
▁تمرکز	-1132
ته	-1133
▁سریع	-1134
▁كه	-1135
▁فرهنگ	-1136
ئن	-1137
▁دوم	-1138
▁ۀ	-1139
▁نداشت	-1140
▁سیاسی	-1141
▁درک	-1142
ظا	-1143
راف	-1144
▁انتظا	-1145
▁لب	-1146
▁داشتن	-1147
▁وفق	-1148
▁یشر	-1149
▁قریبا	-1150
دی	-1151
▁انگل	-1152
▁اقدام	-1153
▁نقش	-1154
▁مالی	-1155
▁جامعه	-1156
▁طبیعی	-1157
تری	-1158
▁شناس	-1159
▁O	-1160
▁درد	-1161
▁بهبود	-1162
▁اساس	-1163
▁آش	-1164
▁خصوص	-1165
▁یشرفت	-1166
▁چنان	-1167
▁نویس	-1168
▁نگر	-1169
▁مرگ	-1170
▁هرگز	-1171
▁روند	-1172
▁ساخته	-1173
▁تکن	-1174
▁دارم	-1175
▁in	-1176
▁دارو	-1177
▁ویژه	-1178
▁کنندگ	-1179
▁ولو	-1180
▁پرس	-1181
▁حساب	-1182
▁بعضی	-1183
▁موارد	-1184
▁حف	-1185
زند	-1186
▁خورد	-1187
▁ساده	-1188
▁ول	-1189
▁سرا	-1190
▁امکان	-1191
▁حدا	-1192
▁حرکت	-1193
▁مک	-1194
▁حداقل	-1195
▁وفقیت	-1196
▁بودن	-1197
▁فرزند	-1198
خه	-1199
▁یسی	-1200
▁فرا	-1201
▁سرعت	-1202
▁تخ	-1203
▁مغ	-1204
▁رابطه	-1205
▁بگ	-1206
کم	-1207
▁چر	-1208
هم	-1209
▁یون	-1210
▁صفحه	-1211
▁یافته	-1212
▁آمد	-1213
▁روسیه	-1214
▁علیه	-1215
▁دقیق	-1216
▁فرم	-1217
▁عمومی	-1218
▁خطر	-1219
▁دهیم	-1220
▁دیده	-1221
▁شخصی	-1222
he	-1223
▁فرص	-1224
▁وش	-1225
▁ّ	-1226
▁حقوق	-1227
▁p	-1228
داشت	-1229
▁تف	-1230
▁آماده	-1231
▁طی	-1232
▁حفظ	-1233
▁چیزها	-1234
یمی	-1235
▁علاوه	-1236
▁10	-1237
▁ترام	-1238
▁گاهی	-1239
▁داوند	-1240
ابع	-1241
ئل	-1242
es	-1243
▁مندان	-1244
▁حاف	-1245
سال	-1246
اپ	-1247
ادا	-1248
▁عو	-1249
▁نبود	-1250
▁ازگ	-1251
▁نمای	-1252
لاق	-1253
ران	-1254
▁بخشی	-1255
اق	-1256
اله	-1257
▁ترس	-1258
کتر	-1259
▁پیو	-1260
▁f	-1261
▁رئیس	-1262
▁آنان	-1263
▁U	-1264
▁ارد	-1265
▁صرف	-1266
ic	-1267
▁نیرو	-1268
▁مکان	-1269
▁رگ	-1270
▁قادر	-1271
▁امید	-1272
▁میزان	-1273
▁داری	-1274
هن	-1275
▁یش	-1276
▁وضعیت	-1277
▁ابزار	-1278
▁u	-1279
آمد	-1280
▁حرفه	-1281
ذار	-1282
▁گویند	-1283
▁سراسر	-1284
▁ابتدا	-1285
▁دانید	-1286
▁غر	-1287
▁شی	-1288
▁ماش	-1289
▁سوی	-1290
▁غذایی	-1291
▁پدر	-1292
تو	-1293
▁جمع	-1294
قات	-1295
▁دختر	-1296
▁وس	-1297
▁آسیب	-1298
▁خوش	-1299
▁بیر	-1300
▁َ	-1301
▁خش	-1302
تان	-1303
▁باور	-1304
▁نظامی	-1305
▁نگران	-1306
▁آزاد	-1307
▁نتای	-1308
en	-1309
کت	-1310
▁مسئول	-1311
▁آید	-1312
▁نتایج	-1313
▁خارجی	-1314
▁کیف	-1315
ظیم	-1316
▁زیبا	-1317
▁سنگ	-1318
اح	-1319
▁شکست	-1320
ویر	-1321
▁خبر	-1322
افق	-1323
▁ناس	-1324
▁ملک	-1325
▁گران	-1326
▁گیرند	-1327
▁اشت	-1328
▁پایین	-1329
▁تس	-1330
▁مادر	-1331
▁اثر	-1332
کو	-1333
▁رود	-1334
▁زیاد	-1335
▁آمده	-1336
▁فشار	-1337
▁تصویر	-1338
تا	-1339
▁اخیر	-1340
▁حقیق	-1341
▁حقیقت	-1342
▁ترن	-1343
▁بتوان	-1344
▁حض	-1345
▁ستق	-1346
▁جایی	-1347
▁V	-1348
▁کدام	-1349
▁هستیم	-1350
▁دهه	-1351
▁ساله	-1352
▁جل	-1353
▁بندی	-1354
▁بینی	-1355
▁مقدار	-1356
▁ورزش	-1357
▁تریان	-1358
▁طولان	-1359
▁ى	-1360
▁حضور	-1361
ظت	-1362
▁نمود	-1363
at	-1364
▁شاهده	-1365
▁جذ	-1366
▁لس	-1367
▁بیان	-1368
▁فعال	-1369
▁تجاری	-1370
▁بست	-1371
▁هنر	-1372
▁بودم	-1373
▁اهدا	-1374
▁گردد	-1375
▁کوت	-1376
▁مسیر	-1377
ندان	-1378
▁بیا	-1379
▁منتشر	-1380
▁هوش	-1381
▁نشده	-1382
▁سعی	-1383
یره	-1384
وب	-1385
▁توانا	-1386
وریه	-1387
▁امنیت	-1388
▁رز	-1389
▁مرتب	-1390
▁مهارت	-1391
▁مدل	-1392
▁نور	-1393
▁پوست	-1394
ومت	-1395
میت	-1396
▁رژ	-1397
ئو	-1398
امبر	-1399
گیری	-1400
▁بچه	-1401
▁اضاف	-1402
▁محیط	-1403
▁کوتاه	-1404
فی	-1405
▁عالی	-1406
▁اي	-1407
▁نباید	-1408
▁اضافه	-1409
▁معنی	-1410
▁غذا	-1411
مئن	-1412
ونت	-1413
ایید	-1414
لق	-1415
▁وزن	-1416
▁تمر	-1417
▁لذ	-1418
▁فرصت	-1419
▁راست	-1420
▁طرح	-1421
▁بگذار	-1422
▁مطمئن	-1423
▁اسرائ	-1424
▁منابع	-1425
▁ایشان	-1426
▁حالا	-1427
▁روشن	-1428
▁مرح	-1429
▁مست	-1430
▁نج	-1431
▁بو	-1432
▁راتژی	-1433
▁زا	-1434
▁ـ	-1435
re	-1436
بری	-1437
▁*	-1438
▁رسانه	-1439
▁مرکز	-1440
▁الله	-1441
▁انی	-1442
▁اکثر	-1443
▁مردان	-1444
▁منظور	-1445
▁ارز	-1446
▁سمت	-1447
▁نوشت	-1448
▁ساب	-1449
st	-1450
▁مبت	-1451
لیس	-1452
تصاد	-1453
▁قای	-1454
▁قتصاد	-1455
▁چیست	-1456
▁اندار	-1457
ابط	-1458
▁بعدی	-1459
جب	-1460
▁جنسی	-1461
▁الت	-1462
لح	-1463
▁محد	-1464
▁شار	-1465
▁رت	-1466
▁ثبت	-1467
▁رند	-1468
▁گذاشت	-1469
▁یات	-1470
▁موفق	-1471
▁اعتما	-1472
▁نوشته	-1473
▁محدود	-1474
▁کلید	-1475
▁متو	-1476
▁زده	-1477
▁بیرون	-1478
oo	-1479
▁اشاره	-1480
قدر	-1481
انس	-1482
▁رم	-1483
▁ستقیم	-1484
یدار	-1485
▁روابط	-1486
خصص	-1487
ئم	-1488
▁شغ	-1489
▁جنو	-1490
▁اتح	-1491
▁اپ	-1492
▁پیر	-1493
▁توصیه	-1494
▁حمله	-1495
▁قس	-1496
▁ترج	-1497
▁مرحله	-1498
▁علاقه	-1499
▁هستم	-1500
▁بسته	-1501
▁ماشین	-1502
▁تشک	-1503
▁باقی	-1504
های	-1505
▁ملکرد	-1506
▁کلا	-1507
▁جهت	-1508
▁ترکیب	-1509
غان	-1510
قیقه	-1511
▁فراه	-1512
▁یابد	-1513
▁دقیقه	-1514
▁ودتان	-1515
▁آسان	-1516
▁خودش	-1517
▁یز	-1518
▁وید	-1519
▁فراهم	-1520
▁افغان	-1521
ou	-1522
▁اتحاد	-1523
▁متوجه	-1524
▁۱۰	-1525
▁کر	-1526
▁پرد	-1527
▁آرام	-1528
▁منجر	-1529
▁داخلی	-1530
ریک	-1531
▁برگ	-1532
▁هسته	-1533
▁اهمیت	-1534
▁گرفتن	-1535
▁توافق	-1536
ضیح	-1537
▁صاح	-1538
▁آگاه	-1539
▁توضیح	-1540
میز	-1541
▁دادند	-1542
▁گزینه	-1543
▁مذ	-1544
موعه	-1545
▁جموعه	-1546
▁فل	-1547
▁صنعت	-1548
▁بلند	-1549
طان	-1550
▁نرم	-1551
▁تشکیل	-1552
▁سرطان	-1553
▁مب	-1554
▁نکن	-1555
▁لین	-1556
▁سالم	-1557
▁قسمت	-1558
▁اهداف	-1559
شید	-1560
▁اتاق	-1561
▁تمرین	-1562
▁اً	-1563
▁شدید	-1564
▁اله	-1565
▁عشق	-1566
▁تحص	-1567
▁مار	-1568
▁جمهور	-1569
▁رف	-1570
▁سلول	-1571
▁کاملا	-1572
▁آخرین	-1573
▁الی	-1574
▁تحصیل	-1575
خیص	-1576
ستر	-1577
▁تشخیص	-1578
▁قطع	-1579
▁داخل	-1580
▁درآمد	-1581
▁دام	-1582
▁تلف	-1583
▁دانند	-1584
▁نیا	-1585
▁بانک	-1586
اهر	-1587
▁نص	-1588
▁پاک	-1589
▁باشیم	-1590
▁سخ	-1591
▁موزان	-1592
جو	-1593
یش	-1594
▁شناسی	-1595
ra	-1596
▁اقعیت	-1597
▁حالت	-1598
▁بینید	-1599
▁محل	-1600
▁جریان	-1601
▁شیر	-1602
▁حو	-1603
▁نقلاب	-1604
صله	-1605
▁تون	-1606
▁فاصله	-1607
لیغ	-1608
▁تمامی	-1609
▁تبلیغ	-1610
▁گان	-1611
▁رژیم	-1612
تل	-1613
▁پشتیب	-1614
▁مشتری	-1615
▁بشر	-1616
▁فصل	-1617
▁بهره	-1618
▁مدرسه	-1619
▁w	-1620
▁آزادی	-1621
▁نهایت	-1622
ro	-1623
▁یو	-1624
▁امر	-1625
▁درون	-1626
▁انوا	-1627
▁رهبر	-1628
▁پرداز	-1629
تباه	-1630
▁شتباه	-1631
▁افتاد	-1632
▁کردیم	-1633
▁قلب	-1634
▁مسا	-1635
▁اجرا	-1636
▁دود	-1637
▁معت	-1638
▁ریزی	-1639
▁دهنده	-1640
▁بحث	-1641
▁وع	-1642
▁پزشکی	-1643
▁آلمان	-1644
▁انواع	-1645
▁ژن	-1646
عیین	-1647
▁نادا	-1648
▁تعیین	-1649
▁زندان	-1650
▁سترده	-1651
▁سوریه	-1652
▁مرتبط	-1653
▁واهم	-1654
▁کنان	-1655
il	-1656
▁K	-1657
▁گستر	-1658
▁وسیقی	-1659
▁دع	-1660
▁مغز	-1661
▁سفید	-1662
▁ترنت	-1663
▁کیفیت	-1664
▁ریا	-1665
▁رگزار	-1666
▁مسائل	-1667
▁دهم	-1668
ion	-1669
▁عرض	-1670
▁تهدید	-1671
▁رست	-1672
▁جوان	-1673
▁مسئله	-1674
▁ولوژی	-1675
نوع	-1676
اطق	-1677
▁مناطق	-1678
▁سلامت	-1679
▁چندین	-1680
گیز	-1681
▁دنی	-1682
▁اطمین	-1683
om	-1684
▁جدا	-1685
شن	-1686
لاین	-1687
▁پیما	-1688
▁نلاین	-1689
▁انگیز	-1690
▁شخصیت	-1691
▁لذت	-1692
▁ارسال	-1693
▁رآ	-1694
▁جست	-1695
▁ویژ	-1696
▁خصوصی	-1697
▁دول	-1698
ادل	-1699
▁طبق	-1700
قال	-1701
▁درو	-1702
▁نتقال	-1703
▁کشف	-1704
▁ساختم	-1705
واج	-1706
▁زدواج	-1707
▁پیام	-1708
ac	-1709
▁زنده	-1710
▁مقاله	-1711
▁حی	-1712
▁فت	-1713
▁لوگیر	-1714
▁زای	-1715
▁نسخه	-1716
▁اسا	-1717
▁روح	-1718
▁نمونه	-1719
▁سوال	-1720
▁سخن	-1721
▁کجا	-1722
▁پزشک	-1723
▁کنون	-1724
▁گوش	-1725
▁اولیه	-1726
▁جویان	-1727
▁ذهن	-1728
▁تحلیل	-1729
▁محلی	-1730
▁بگو	-1731
▁فوق	-1732
▁لیارد	-1733
▁ویژگی	-1734
▁دوران	-1735
▁رانسه	-1736
▁نکنید	-1737
▁تی	-1738
▁راق	-1739
▁کان	-1740
▁خور	-1741
▁اختیا	-1742
یدن	-1743
▁تلفن	-1744
راق	-1745
▁J	-1746
▁اعضای	-1747
▁عراق	-1748
▁وقعیت	-1749
▁قوی	-1750
▁پیوتر	-1751
▁شنو	-1752
حال	-1753
▁آت	-1754
▁تجارت	-1755
▁عا	-1756
▁تأثیر	-1757
▁مهوری	-1758
▁مثبت	-1759
▁وظ	-1760
▁سوم	-1761
▁موا	-1762
▁عامل	-1763
▁معرف	-1764
▁ذیر	-1765
▁اسپ	-1766
▁چال	-1767
▁سرد	-1768
▁گرم	-1769
▁عضو	-1770
▁قرن	-1771
▁تماس	-1772
▁سود	-1773
▁نیم	-1774
▁وال	-1775
سا	-1776
▁عق	-1777
▁راحت	-1778
نه	-1779
▁اور	-1780
▁کره	-1781
▁افزار	-1782
▁تصور	-1783
الت	-1784
▁آتش	-1785
هان	-1786
▁شبی	-1787
▁ونی	-1788
▁الاتر	-1789
▁ترک	-1790
▁مدیر	-1791
▁گسترش	-1792
▁اعم	-1793
▁گن	-1794
▁دانم	-1795
▁دریا	-1796
▁ترکیه	-1797
▁بات	-1798
▁متر	-1799
▁ازی	-1800
▁پل	-1801
▁رفتن	-1802
▁وانین	-1803
دم	-1804
▁پسر	-1805
▁دگاه	-1806
▁ء	-1807
▁ٔ	-1808
▁یچ	-1809
▁میک	-1810
▁صلح	-1811
زا	-1812
فاع	-1813
▁دفاع	-1814
▁راج	-1815
▁شنبه	-1816
▁جدی	-1817
▁قل	-1818
▁ازگشت	-1819
▁پژ	-1820
▁دانست	-1821
آن	-1822
قای	-1823
▁خودرو	-1824
▁فهم	-1825
ol	-1826
گل	-1827
▁خیر	-1828
▁ریکا	-1829
▁تازه	-1830
▁صدا	-1831
▁لند	-1832
▁تنظیم	-1833
▁نقطه	-1834
▁حیوان	-1835
▁اوقات	-1836
▁آقای	-1837
▁ترامپ	-1838
▁رسیده	-1839
▁جدیدی	-1840
▁ورد	-1841
▁عبارت	-1842
▁آدم	-1843
▁شبیه	-1844
▁یور	-1845
▁خودم	-1846
▁متخصص	-1847
▁علی	-1848
▁زیست	-1849
بور	-1850
▁اث	-1851
قت	-1852
▁وری	-1853
▁پوش	-1854
▁چقدر	-1855
▁شدت	-1856
▁بارزه	-1857
el	-1858
▁قصد	-1859
▁تمای	-1860
▁نشانه	-1861
▁صب	-1862
▁ing	-1863
▁مجبور	-1864
▁نفس	-1865
▁عف	-1866
▁نبا	-1867
▁مدار	-1868
حل	-1869
▁اطراف	-1870
▁دنیای	-1871
زب	-1872
▁رج	-1873
▁دکتر	-1874
ستی	-1875
▁نفت	-1876
▁دگیری	-1877
بار	-1878
▁اعمال	-1879
▁سازد	-1880
ابه	-1881
▁رک	-1882
▁کال	-1883
یات	-1884
▁مسی	-1885
▁مال	-1886
▁قدیمی	-1887
ظر	-1888
ازی	-1889
▁عص	-1890
▁میر	-1891
▁پژوه	-1892
it	-1893
▁حزب	-1894
▁یانه	-1895
▁مقابل	-1896
▁تری	-1897
▁هداشت	-1898
▁ریز	-1899
▁پست	-1900
▁معرفی	-1901
▁گوگل	-1902
▁مشترک	-1903
یتی	-1904
▁وجه	-1905
▁دستور	-1906
▁چطور	-1907
▁ایگاه	-1908
▁جمعیت	-1909
▁ُ	-1910
▁جستجو	-1911
▁ورشید	-1912
▁عه	-1913
▁تال	-1914
▁مفید	-1915
▁آورده	-1916
ستا	-1917
▁صبح	-1918
▁موت	-1919
▁ماند	-1920
▁سرو	-1921
▁دانیم	-1922
▁سیاه	-1923
▁گل	-1924
▁فضای	-1925
▁لع	-1926
▁رسیدن	-1927
▁بس	-1928
▁معم	-1929
▁پژوهش	-1930
▁h	-1931
▁عمر	-1932
▁خت	-1933
▁بنی	-1934
▁موثر	-1935
▁داند	-1936
▁رامو	-1937
▁لباس	-1938
▁ازدید	-1939
▁حک	-1940
▁انطور	-1941
الع	-1942
▁قایسه	-1943
▁مطالع	-1944
▁رقابت	-1945
▁روم	-1946
▁نکته	-1947
وط	-1948
اکر	-1949
چار	-1950
▁لط	-1951
▁راموش	-1952
▁رسمی	-1953
▁رفته	-1954
▁دچار	-1955
▁عدم	-1956
▁همسر	-1957
▁راحتی	-1958
▁نیروی	-1959
▁روان	-1960
▁هند	-1961
▁علمی	-1962
▁اجر	-1963
▁ربین	-1964
▁ایت	-1965
▁خلا	-1966
▁فردی	-1967
▁اختار	-1968
▁زود	-1969
▁دندان	-1970
▁حاصل	-1971
▁مؤ	-1972
انیه	-1973
▁قام	-1974
▁قرآن	-1975
▁روب	-1976
▁خاصی	-1977
قان	-1978
▁هفت	-1979
▁خن	-1980
اپن	-1981
راح	-1982
▁رقر	-1983
▁ژاپن	-1984
▁رقرار	-1985
▁امام	-1986
▁ظاهر	-1987
et	-1988
▁وح	-1989
▁جایگز	-1990
ویز	-1991
▁منیتی	-1992
▁شناسا	-1993
▁ضد	-1994
▁نر	-1995
▁پایه	-1996
▁اشترا	-1997
▁توانم	-1998
▁پرواز	-1999
▁دش	-2000
▁نح	-2001
▁برو	-2002
لات	-2003
▁راقبت	-2004
▁راف	-2005
▁ملیات	-2006
▁موتور	-2007
▁کلاس	-2008
▁مای	-2009
▁تلویز	-2010
▁رنج	-2011
▁افتد	-2012
گار	-2013
▁لام	-2014
▁واح	-2015
▁بپ	-2016
▁فضا	-2017
عهد	-2018
▁مشابه	-2019
▁دین	-2020
▁شش	-2021
▁دیج	-2022
▁مدا	-2023
▁نیو	-2024
▁حققان	-2025
nd	-2026
▁دولتی	-2027
▁عرب	-2028
▁کشت	-2029
▁واکن	-2030
▁دمو	-2031
▁سبک	-2032
▁منب	-2033
▁واکنش	-2034
▁خوردن	-2035
▁وسیله	-2036
ریف	-2037
▁جالب	-2038
▁منبع	-2039
▁یزی	-2040
▁حکومت	-2041
▁علائم	-2042
▁تعریف	-2043
▁ارم	-2044
▁بمان	-2045
▁درجه	-2046
میق	-2047
▁عمیق	-2048
▁علت	-2049
▁وزیر	-2050
▁ماهی	-2051
▁ودشان	-2052
▁دیجیت	-2053
▁20	-2054
▁یب	-2055
▁ابر	-2056
▁کیل	-2057
▁ذخ	-2058
▁اسی	-2059
▁رتی	-2060
▁مانده	-2061
▁حذ	-2062
▁تکر	-2063
▁مبتلا	-2064
▁لیست	-2065
ریم	-2066
▁ضروری	-2067
▁دموکر	-2068
▁هدایت	-2069
▁لحظه	-2070
▁حمل	-2071
▁گون	-2072
▁ائ	-2073
▁سلامی	-2074
▁St	-2075
▁شت	-2076
▁رشته	-2077
وسط	-2078
▁ینگ	-2079
▁متوسط	-2080
▁دشوار	-2081
▁ندگان	-2082
▁v	-2083
▁ستین	-2084
▁بزر	-2085
▁پلیس	-2086
▁اگرچه	-2087
▁بزرگی	-2088
▁تکرار	-2089
is	-2090
اها	-2091
طرح	-2092
▁امور	-2093
▁مطرح	-2094
▁مواجه	-2095
am	-2096
▁حذف	-2097
▁مانی	-2098
▁ثابت	-2099
▁عاشق	-2100
▁موجب	-2101
▁اصلاح	-2102
▁افزود	-2103
▁on	-2104
▁نکرده	-2105
ay	-2106
▁شمالی	-2107
▁کلمه	-2108
▁حافظت	-2109
ed	-2110
▁چالش	-2111
روت	-2112
▁رساند	-2113
▁سک	-2114
▁کارت	-2115
▁جذب	-2116
▁گردان	-2117
▁نما	-2118
▁معنا	-2119
ابق	-2120
▁محت	-2121
▁مدرن	-2122
▁ورود	-2123
بات	-2124
▁الد	-2125
▁درگیر	-2126
خش	-2127
▁زرگ	-2128
ریه	-2129
▁نجات	-2130
▁ترو	-2131
▁ثروت	-2132
▁دانلو	-2133
▁The	-2134
▁استان	-2135
کید	-2136
▁بیت	-2137
▁آمیز	-2138
▁حوزه	-2139
▁اساسی	-2140
جم	-2141
▁واحد	-2142
▁اردار	-2143
▁بگی	-2144
▁الگو	-2145
▁•	-2146
▁عوامل	-2147
یتا	-2148
▁زل	-2149
▁ذکر	-2150
▁واسته	-2151
▁موزش	-2152
▁داران	-2153
▁تحد	-2154
▁تلاف	-2155
▁ماده	-2156
▁باد	-2157
▁of	-2158
▁ویر	-2159
▁ریدار	-2160
▁ناب	-2161
▁ارتش	-2162
▁درس	-2163
▁اتیک	-2164
▁معمول	-2165
الف	-2166
▁خانم	-2167
▁اجرای	-2168
▁داشتم	-2169
▁خلق	-2170
▁واندن	-2171
▁سابقه	-2172
▁هیز	-2173
▁گرا	-2174
▁مخالف	-2175
▁ستاره	-2176
▁موزشی	-2177
▁ناک	-2178
▁اویر	-2179
▁فایل	-2180
▁نشین	-2181
▁منتظر	-2182
▁یگان	-2183
ri	-2184
▁اری	-2185
توای	-2186
▁بگیرد	-2187
▁حتوای	-2188
▁برس	-2189
▁آس	-2190
▁اون	-2191
▁معن	-2192
ch	-2193
▁تاب	-2194
▁یچیده	-2195
▁شه	-2196
▁شغل	-2197
▁دیدن	-2198
▁واره	-2199
▁معنای	-2200
▁30	-2201
▁اپل	-2202
▁راهی	-2203
▁هاست	-2204
لیت	-2205
▁کی	-2206
▁دری	-2207
▁شیم	-2208
▁گذشت	-2209
▁ناوری	-2210
▁رض	-2211
▁شیوه	-2212
▁st	-2213
▁قبلی	-2214
▁بحران	-2215
▁گویید	-2216
▁بله	-2217
▁آنکه	-2218
▁صدای	-2219
as	-2220
شا	-2221
▁الدین	-2222
▁شدم	-2223
▁کشته	-2224
▁کلیدی	-2225
▁خشونت	-2226
▁رتیب	-2227
▁گام	-2228
▁جواب	-2229
▁مین	-2230
▁اینها	-2231
▁بریتا	-2232
▁تام	-2233
▁رهبری	-2234
▁مگر	-2235
▁خدمت	-2236
▁قبلا	-2237
▁مرک	-2238
▁منح	-2239
▁شویم	-2240
▁بالای	-2241
▁دلایل	-2242
▁فریق	-2243
▁لمان	-2244
▁k	-2245
▁تست	-2246
▁تالیا	-2247
▁دقیقا	-2248
▁گفتند	-2249
بوب	-2250
▁ادر	-2251
▁متوق	-2252
▁اسلام	-2253
▁جنوبی	-2254
▁انیا	-2255
▁فریقا	-2256
▁متوقف	-2257
لیا	-2258
▁نسل	-2259
▁قامات	-2260
▁فرض	-2261
تبار	-2262
▁عتبار	-2263
▁پارک	-2264
▁استرس	-2265
یند	-2266
▁فار	-2267
ندس	-2268
▁In	-2269
▁ظرف	-2270
▁ساد	-2271
▁ایمیل	-2272
▁قه	-2273
▁شارکت	-2274
▁مهندس	-2275
▁حفا	-2276
▁قبول	-2277
▁رآیند	-2278
▁سرویس	-2279
سب	-2280
▁وشحال	-2281
▁بردار	-2282
▁ذخیره	-2283
▁شماره	-2284
▁ئی	-2285
▁تض	-2286
▁ویت	-2287
▁علم	-2288
▁وزار	-2289
زو	-2290
▁ریس	-2291
▁گذر	-2292
▁باشم	-2293
▁آوردن	-2294
▁ناشی	-2295
▁اعتقا	-2296
▁محبوب	-2297
▁وزارت	-2298
▁ریم	-2299
▁رتبه	-2300
▁منفی	-2301
ایع	-2302
▁اکت	-2303
▁مهمی	-2304
▁تمایل	-2305
ow	-2306
ویت	-2307
▁الع	-2308
▁یشان	-2309
ایست	-2310
▁هوایی	-2311
▁املا	-2312
▁رالیا	-2313
▁رور	-2314
▁عرضه	-2315
▁سق	-2316
▁نماید	-2317
▁زم	-2318
▁یدن	-2319
جان	-2320
▁بک	-2321
▁tion	-2322
▁سلاح	-2323
▁کف	-2324
▁کلمات	-2325
▁أ	-2326
▁كن	-2327
▁تین	-2328
▁دودیت	-2329
▁مي	-2330
▁اسم	-2331
▁موش	-2332
▁برخ	-2333
▁سون	-2334
▁تد	-2335
▁تقویت	-2336
▁زدن	-2337
▁نرخ	-2338
▁رح	-2339
▁کشتی	-2340
▁دروغ	-2341
عیف	-2342
▁آفر	-2343
▁شمار	-2344
▁ضعیف	-2345
اص	-2346
ad	-2347
▁اصلا	-2348
▁al	-2349
▁پوشش	-2350
▁اين	-2351
▁اخلاق	-2352
▁الیات	-2353
▁کنی	-2354
▁ابلیت	-2355
▁نصب	-2356
▁شگ	-2357
▁معر	-2358
us	-2359
▁روزی	-2360
▁عام	-2361
▁یند	-2362
▁ارشد	-2363
▁نهایی	-2364
▁رها	-2365
▁لول	-2366
▁مشغ	-2367
▁بستگی	-2368
▁وار	-2369
▁تهیه	-2370
▁سفار	-2371
▁معرض	-2372
▁یابان	-2373
▁پدید	-2374
▁املاً	-2375
▁زو	-2376
▁هتل	-2377
ظهار	-2378
▁اظهار	-2379
افر	-2380
▁لای	-2381
▁مسافر	-2382
شدار	-2383
▁متح	-2384
▁وم	-2385
▁ادش	-2386
▁هشدار	-2387
▁مور	-2388
▁12	-2389
▁میش	-2390
▁مستقل	-2391
▁نظارت	-2392
▁تصاص	-2393
▁شاور	-2394
▁نوشتن	-2395
▁توی	-2396
▁یسم	-2397
▁آفرین	-2398
سیم	-2399
▁دسته	-2400
▁صاحب	-2401
▁سگ	-2402
▁قدم	-2403
▁ادعا	-2404
▁برسد	-2405
▁وانان	-2406
▁15	-2407
▁له	-2408
▁تلال	-2409
▁یزیکی	-2410
▁مثلا	-2411
▁عین	-2412
▁خلاق	-2413
▁شگفت	-2414
▁گفتم	-2415
▁آگاهی	-2416
▁عوض	-2417
▁میشود	-2418
لاگ	-2419
▁ملل	-2420
▁سالگی	-2421
ونگ	-2422
▁۲۰	-2423
▁جلو	-2424
▁اهل	-2425
▁صند	-2426
▁برادر	-2427
▁تقسیم	-2428
▁وعده	-2429
▁منحصر	-2430
▁رده	-2431
▁چینی	-2432
▁اداره	-2433
▁حافظه	-2434
▁مرکزی	-2435
▁عج	-2436
آوری	-2437
▁50	-2438
▁خاک	-2439
▁فیس	-2440
▁ودمان	-2441
▁حاکم	-2442
▁آسمان	-2443
▁اقام	-2444
▁حفاظت	-2445
▁نند	-2446
▁الان	-2447
ریب	-2448
▁رغ	-2449
▁غربی	-2450
▁اقامت	-2451
سات	-2452
▁چاپ	-2453
▁نتشار	-2454
▁مناف	-2455
▁یست	-2456
▁گناه	-2457
▁فرانس	-2458
▁محتوا	-2459
▁مشغول	-2460
...	-2461
▁انتقا	-2462
▁میکند	-2463
▁یگ	-2464
▁انده	-2465
▁زئ	-2466
▁بیاور	-2467
▁پیوند	-2468
▁گوشی	-2469
فتر	-2470
▁فن	-2471
▁آسیا	-2472
زای	-2473
لفی	-2474
▁ختلفی	-2475
▁قربان	-2476
▁اتم	-2477
▁تایید	-2478
▁لامتی	-2479
▁دفتر	-2480
▁خواند	-2481
ce	-2482
▁نع	-2483
▁یرو	-2484
▁شهرها	-2485
▁ببر	-2486
▁جویی	-2487
▁علوم	-2488
اظ	-2489
▁en	-2490
▁le	-2491
▁اصل	-2492
▁طلا	-2493
▁لحاظ	-2494
le	-2495
▁دف	-2496
▁غرب	-2497
▁عادی	-2498
▁ایمان	-2499
▁مذه	-2500
▁کری	-2501
▁خرو	-2502
▁راغ	-2503
▁ذیرفت	-2504
▁ژو	-2505
▁موس	-2506
▁تفکر	-2507
▁دقت	-2508
▁صنع	-2509
▁عاد	-2510
▁کیلو	-2511
قد	-2512
▁ندر	-2513
▁مطلب	-2514
▁بوک	-2515
▁سوخت	-2516
▁الکتر	-2517
▁منافع	-2518
▁ne	-2519
▁سبز	-2520
▁نباشد	-2521
▁or	-2522
▁یکه	-2523
▁هشت	-2524
▁تولد	-2525
▁تحریم	-2526
▁دارا	-2527
▁جراحی	-2528
▁رخورد	-2529
▁بینیم	-2530
▁اژ	-2531
▁تضمین	-2532
▁پیاده	-2533
▁انوی	-2534
▁طبقه	-2535
▁مپ	-2536
▁قاب	-2537
▁هایش	-2538
▁استاد	-2539
▁بقی	-2540
▁یده	-2541
▁عهده	-2542
▁هل	-2543
▁یف	-2544
▁نحوه	-2545
▁تیک	-2546
▁خوان	-2547
سو	-2548
▁معتقد	-2549
وده	-2550
▁رار	-2551
▁كرد	-2552
▁نگهدا	-2553
▁عت	-2554
▁متن	-2555
▁فعلی	-2556
▁شیمیا	-2557
▁X	-2558
▁هاجر	-2559
▁روغ	-2560
▁ینه	-2561
▁مسیح	-2562
▁چرخه	-2563
▁عربست	-2564
▁لعاده	-2565
▁تز	-2566
▁نخست	-2567
▁صنعتی	-2568
▁خلاص	-2569
▁قهوه	-2570
▁بودجه	-2571
▁هاجرت	-2572
▁شع	-2573
▁جنب	-2574
▁وند	-2575
زیک	-2576
▁رین	-2577
▁طوری	-2578
▁فرمود	-2579
▁عادت	-2580
▁دیوار	-2581
ve	-2582
▁ادشاه	-2583
▁چگونگ	-2584
▁میخ	-2585
▁قی	-2586
▁شمال	-2587
▁تکنیک	-2588
▁برق	-2589
▁نین	-2590
▁آموز	-2591
▁جذاب	-2592
▁نابود	-2593
زم	-2594
▁آشکار	-2595
برد	-2596
▁ریح	-2597
▁دیدار	-2598
▁رداشت	-2599
▁باب	-2600
▁y	-2601
▁امیدو	-2602
ia	-2603
▁گاز	-2604
▁چهارم	-2605
▁وام	-2606
▁اره	-2607
▁ایدار	-2608
▁ضا	-2609
▁بستان	-2610
▁صاحبه	-2611
▁کوه	-2612
▁آشنا	-2613
▁سین	-2614
▁مید	-2615
▁پرسش	-2616
▁عجیب	-2617
▁آیند	-2618
▁رع	-2619
▁عی	-2620
هوم	-2621
▁اسک	-2622
▁تعهد	-2623
▁مفهوم	-2624
▁یهودی	-2625
▁توصیف	-2626
▁رافیک	-2627
زاد	-2628
▁امپ	-2629
▁عقب	-2630
▁زهای	-2631
▁الق	-2632
▁یرانی	-2633
▁بلا	-2634
▁جلسه	-2635
▁خروج	-2636
▁ترجمه	-2637
▁منتقل	-2638
▁'	-2639
نان	-2640
▁لاک	-2641
▁بدهید	-2642
یح	-2643
مون	-2644
▁وف	-2645
▁رحم	-2646
▁روغن	-2647
▁شاهد	-2648
▁نوزاد	-2649
▁te	-2650
▁آمار	-2651
▁قطعا	-2652
▁بودیم	-2653
▁طبیعت	-2654
▁وبلاگ	-2655
▁کارها	-2656
▁سؤ	-2657
ضل	-2658
▁کد	-2659
▁نوعی	-2660
▁تامین	-2661
▁خشک	-2662
▁ترجیح	-2663
▁وانند	-2664
▁حملات	-2665
▁نمایی	-2666
id	-2667
▁بدی	-2668
▁نگی	-2669
▁برخور	-2670
▁گروهی	-2671
ناک	-2672
▁یخ	-2673
▁اوا	-2674
▁تعط	-2675
▁متحان	-2676
▁بدست	-2677
▁صحنه	-2678
روف	-2679
▁مایل	-2680
▁بینند	-2681
▁عفونت	-2682
▁اندو	-2683
▁خویش	-2684
▁جزیره	-2685
▁۳۰	-2686
میل	-2687
▁بردن	-2688
▁جنوب	-2689
▁مقام	-2690
▁ایمنی	-2691
▁تعطیل	-2692
▁رایند	-2693
▁زرگتر	-2694
▁ناسان	-2695
▁بقیه	-2696
▁جایزه	-2697
▁بنا	-2698
▁امضا	-2699
▁رایش	-2700
▁ماس	-2701
▁مون	-2702
▁رمان	-2703
▁هیجان	-2704
▁اعد	-2705
▁دعوت	-2706
▁طرناک	-2707
▁مسلم	-2708
▁فهمید	-2709
▁حضر	-2710
▁ملت	-2711
▁عبور	-2712
▁نقاط	-2713
▁وانید	-2714
مز	-2715
▁ویتام	-2716
▁ویروس	-2717
ot	-2718
▁اوایل	-2719
یو	-2720
▁رادی	-2721
▁عدادی	-2722
طین	-2723
▁آگ	-2724
▁قاومت	-2725
▁Y	-2726
▁لینک	-2727
▁کردید	-2728
▁متصل	-2729
▁کانال	-2730
▁لاقات	-2731
▁عودی	-2732
▁Re	-2733
▁یپ	-2734
▁قول	-2735
▁یورک	-2736
▁درستی	-2737
قق	-2738
▁دس	-2739
▁طات	-2740
▁تکمیل	-2741
▁دیران	-2742
▁گردید	-2743
▁لسطین	-2744
▁تئ	-2745
▁ستم	-2746
▁الهی	-2747
▁اصول	-2748
▁تحمل	-2749
▁آزمون	-2750
▁ازیگر	-2751
▁یافتن	-2752
▁تشوی	-2753
▁نیمه	-2754
▁برنده	-2755
تبال	-2756
▁وضع	-2757
▁شهری	-2758
▁قرمز	-2759
▁مهمتر	-2760
▁وتبال	-2761
▁رمز	-2762
▁شانس	-2763
▁زئیات	-2764
طب	-2765
▁دب	-2766
▁دهان	-2767
▁همکار	-2768
شمن	-2769
▁ندار	-2770
▁وظیف	-2771
▁خنران	-2772
▁معروف	-2773
▁شکن	-2774
▁دشمن	-2775
▁نژ	-2776
▁it	-2777
خاطب	-2778
▁بکش	-2779
▁مرز	-2780
▁موزه	-2781
▁وجهی	-2782
▁رزمین	-2783
▁مخاطب	-2784
▁انش	-2785
▁عملی	-2786
▁حساس	-2787
▁زودی	-2788
▁کلیسا	-2789
▁تناب	-2790
▁تشویق	-2791
▁متع	-2792
▁وین	-2793
▁برده	-2794
▁کارگر	-2795
▁عنا	-2796
▁بطور	-2797
▁فرار	-2798
▁یلادی	-2799
▁باغ	-2800
▁اتوم	-2801
▁سایه	-2802
▁هیزات	-2803
▁بزن	-2804
▁امیده	-2805
▁زایای	-2806
▁نتوان	-2807
مب	-2808
▁ویدئو	-2809
▁پنهان	-2810
▁چپ	-2811
▁انند	-2812
▁تعامل	-2813
ut	-2814
▁انجمن	-2815
▁نظریه	-2816
▁یروزی	-2817
▁بروز	-2818
▁جنبش	-2819
▁at	-2820
▁بروید	-2821
▁عضل	-2822
▁سختی	-2823
▁خواهی	-2824
▁دهندگ	-2825
دد	-2826
▁تغذ	-2827
▁فراتر	-2828
اهد	-2829
▁سلط	-2830
▁جنبه	-2831
▁وظیفه	-2832
▁وندان	-2833
▁حکم	-2834
▁اندن	-2835
▁مى	-2836
▁ایالت	-2837
▁موق	-2838
▁واس	-2839
▁ریسک	-2840
▁خدای	-2841
▁ثانیه	-2842
تئ	-2843
▁اتر	-2844
▁بهتری	-2845
▁el	-2846
▁حضرت	-2847
▁زنند	-2848
▁نگیزه	-2849
▁زش	-2850
▁صحی	-2851
▁مانع	-2852
▁پخش	-2853
▁بیدار	-2854
▁تغذیه	-2855
▁گفتگو	-2856
▁بیو	-2857
▁کمپ	-2858
▁یکرد	-2859
▁قابله	-2860
ضح	-2861
▁نکرد	-2862
▁واضح	-2863
▁متی	-2864
▁آرزو	-2865
▁امسال	-2866
▁سند	-2867
▁اضافی	-2868
▁تعادل	-2869
▁یامبر	-2870
▁دت	-2871
▁داک	-2872
▁مداوم	-2873
▁واش	-2874
▁بدان	-2875
▁حسین	-2876
▁ممنوع	-2877
چسب	-2878
▁عظیم	-2879
▁کارش	-2880
▁برچسب	-2881
▁تامبر	-2882
▁شماست	-2883
▁فنی	-2884
▁مقا	-2885
▁کشد	-2886
▁مرور	-2887
▁بمب	-2888
▁ناپ	-2889
▁توزی	-2890
▁صحیح	-2891
▁نماز	-2892
▁مطالب	-2893
▁فض	-2894
▁گفتن	-2895
▁انویه	-2896
▁سیم	-2897
▁رایی	-2898
▁شغلی	-2899
▁چهره	-2900
▁تاکید	-2901
گرم	-2902
▁قلبی	-2903
▁صاد	-2904
▁عداد	-2905
▁چربی	-2906
▁آورند	-2907
▁سرگرم	-2908
▁توزیع	-2909
▁پروتئ	-2910
▁پیوست	-2911
▁رط	-2912
▁سؤال	-2913
▁صادر	-2914
▁سردگی	-2915
▁عمولی	-2916
▁هرمان	-2917
▁ترا	-2918
▁بدهد	-2919
▁خصوصا	-2920
▁روستا	-2921
▁لز	-2922
▁میوه	-2923
▁لیم	-2924
▁نفو	-2925
▁تور	-2926
▁رسند	-2927
▁داکثر	-2928
▁میدان	-2929
▁پذیرش	-2930
▁يد	-2931
▁۱۵	-2932
▁تاسی	-2933
اهی	-2934
▁جرم	-2935
▁فدر	-2936
▁خواهم	-2937
سف	-2938
▁آث	-2939
▁۵۰	-2940
▁زنش	-2941
▁سلمان	-2942
▁سیاره	-2943
▁گهان	-2944
▁مبل	-2945
▁همچ	-2946
▁آثار	-2947
▁مراحل	-2948
▁راز	-2949
▁شوم	-2950
▁حاد	-2951
▁سنگین	-2952
▁زخ	-2953
▁قت	-2954
▁حیا	-2955
▁مجدد	-2956
▁اشک	-2957
▁ستج	-2958
▁بگویم	-2959
▁40	-2960
▁nt	-2961
▁یج	-2962
▁داع	-2963
ess	-2964
▁همزم	-2965
▁افکار	-2966
▁فرمان	-2967
▁متیاز	-2968
▁فی	-2969
▁فارغ	-2970
▁نشست	-2971
▁رضایت	-2972
زل	-2973
▁خدام	-2974
▁جع	-2975
▁قتل	-2976
▁یوم	-2977
▁قاعد	-2978
▁مطابق	-2979
▁تخم	-2980
▁رستاد	-2981
▁نیازی	-2982
گا	-2983
▁قضا	-2984
▁مها	-2985
▁محک	-2986
▁صادق	-2987
▁ستجوی	-2988
چند	-2989
▁آهنگ	-2990
▁بدین	-2991
▁خاور	-2992
▁مهاجر	-2993
▁هرچند	-2994
▁بیمه	-2995
▁نقا	-2996
▁حاوی	-2997
▁سیگار	-2998
▁ــ	-2999
▁رورش	-3000
▁لطفا	-3001
▁نقشه	-3002
▁ارزان	-3003
▁اندیش	-3004
زیه	-3005
سوب	-3006
▁گین	-3007
▁جاده	-3008
▁ذاکر	-3009
▁محسوب	-3010
oc	-3011
▁re	-3012
هران	-3013
▁دهی	-3014
▁مجوز	-3015
▁تهران	-3016
▁نفوذ	-3017
▁دم	-3018
▁وئ	-3019
▁ذاکره	-3020
pp	-3021
▁کده	-3022
▁دهای	-3023
▁تجزیه	-3024
▁nd	-3025
▁اتص	-3026
▁سور	-3027
▁سفارش	-3028
▁ستر	-3029
▁گانه	-3030
▁اتصال	-3031
▁بهشت	-3032
▁شورای	-3033
▁بدتر	-3034
▁کریس	-3035
▁یکسان	-3036
▁تقد	-3037
▁ریت	-3038
▁ستون	-3039
▁سهام	-3040
▁وسیع	-3041
▁آبی	-3042
▁سوء	-3043
▁سابق	-3044
▁گم	-3045
▁شف	-3046
▁اتو	-3047
▁محکوم	-3048
▁مساله	-3049
▁راضی	-3050
▁فرما	-3051
▁زداشت	-3052
▁عامله	-3053
▁موقع	-3054
▁نژاد	-3055
▁فهر	-3056
▁کرب	-3057
▁طلاح	-3058
▁کلیک	-3059
▁خلاصه	-3060
▁فهرست	-3061
عدد	-3062
▁صبر	-3063
▁بپرس	-3064
▁تاسیس	-3065
▁متعدد	-3066
ir	-3067
▁شوی	-3068
▁مصر	-3069
▁بردی	-3070
▁لندن	-3071
▁دادها	-3072
▁موسسه	-3073
▁Goo	-3074
▁رون	-3075
▁ارتقا	-3076
▁آهن	-3077
▁طلب	-3078
▁یتر	-3079
▁واشنگ	-3080
▁ro	-3081
▁ضع	-3082
▁مبتنی	-3083
▁ملا	-3084
▁بینم	-3085
▁موشک	-3086
▁فضایی	-3087
▁درخت	-3088
▁افتخا	-3089
▁شنیده	-3090
▁وه	-3091
▁محمد	-3092
▁اثرات	-3093
▁عدالت	-3094
▁نندگی	-3095
▁+	-3096
▁جشن	-3097
▁سطو	-3098
▁کاف	-3099
▁برند	-3100
▁تمیز	-3101
▁ریشه	-3102
▁گیاه	-3103
▁>	-3104
▁25	-3105
▁میل	-3106
▁ساکن	-3107
▁ستگاه	-3108
▁۱۲	-3109
▁برمی	-3110
▁گوشت	-3111
▁مذاکر	-3112
ent	-3113
▁جر	-3114
▁یض	-3115
▁بیل	-3116
▁تحول	-3117
▁ساحل	-3118
ma	-3119
▁یس	-3120
▁بال	-3121
▁رنو	-3122
▁زنی	-3123
▁دیدم	-3124
▁ساختن	-3125
▁حرک	-3126
▁هور	-3127
▁گوییم	-3128
لس	-3129
▁سقوط	-3130
▁بارها	-3131
▁ببرید	-3132
▁راساس	-3133
▁مایید	-3134
ge	-3135
▁وپ	-3136
▁سنج	-3137
اور	-3138
▁جاد	-3139
▁نیمی	-3140
▁رانسو	-3141
▁کمبود	-3142
▁لغ	-3143
▁جانب	-3144
▁هویت	-3145
▁مشهور	-3146
حص	-3147
▁التحص	-3148
▁مشاور	-3149
▁سنت	-3150
▁کات	-3151
▁اهیم	-3152
▁القوه	-3153
▁نبوده	-3154
ویس	-3155
▁ویا	-3156
▁یك	-3157
▁ارچ	-3158
▁ریف	-3159
▁عرو	-3160
▁تدری	-3161
▁سازند	-3162
▁همچون	-3163
▁ذر	-3164
▁ين	-3165
▁تاز	-3166
▁زون	-3167
▁اخیرا	-3168
▁شواهد	-3169
▁سنتی	-3170
▁ماست	-3171
▁کمتری	-3172
▁طیف	-3173
▁پاری	-3174
▁خانگی	-3175
▁زس	-3176
▁رش	-3177
ادار	-3178
▁ستن	-3179
▁دادم	-3180
▁اورزی	-3181
▁رستور	-3182
▁زشکان	-3183
راض	-3184
▁واژه	-3185
▁ابسته	-3186
▁بنویس	-3187
▁زسازی	-3188
▁پرسید	-3189
▁ردش	-3190
▁شاوره	-3191
▁یتان	-3192
▁الانه	-3193
▁عماری	-3194
▁ویدیو	-3195
gl	-3196
▁کث	-3197
▁خورده	-3198
▁رجسته	-3199
▁عتراض	-3200
▁والات	-3201
زیز	-3202
▁Ch	-3203
▁برتر	-3204
▁مذهبی	-3205
▁مایند	-3206
▁وبایل	-3207
▁تیر	-3208
▁حجم	-3209
▁مارس	-3210
▁اکتبر	-3211
▁11	-3212
▁دای	-3213
▁تعجب	-3214
▁عزیز	-3215
▁انگشت	-3216
▁نموده	-3217
▁طع	-3218
▁the	-3219
▁لاً	-3220
▁لود	-3221
▁وک	-3222
▁سهم	-3223
▁مول	-3224
▁خاورم	-3225
▁عدد	-3226
▁گشت	-3227
▁لمانی	-3228
▁گواهی	-3229
▁جاز	-3230
▁هید	-3231
▁مربی	-3232
▁رادیو	-3233
▁60	-3234
▁وکار	-3235
▁گویم	-3236
▁خواهر	-3237
▁مکانی	-3238
▁ندارم	-3239
یید	-3240
▁راوان	-3241
▁کب	-3242
▁تأیید	-3243
▁ردشگر	-3244
▁صفحات	-3245
این	-3246
▁مقدس	-3247
▁بش	-3248
▁قلال	-3249
▁مراسم	-3250
▁حیات	-3251
▁عیسی	-3252
▁فلسف	-3253
▁رونده	-3254
▁عناصر	-3255
موع	-3256
▁ازه	-3257
▁آزار	-3258
▁مجموع	-3259
▁آژ	-3260
▁لوله	-3261
▁مدتی	-3262
▁سالها	-3263
▁ity	-3264
▁عصر	-3265
▁جاری	-3266
▁فردا	-3267
▁سینما	-3268
▁سیل	-3269
▁مدارس	-3270
▁خالی	-3271
▁طراح	-3272
▁ation	-3273
درس	-3274
▁شید	-3275
▁هاي	-3276
ازش	-3277
▁100	-3278
▁ایی	-3279
▁آدرس	-3280
▁معدن	-3281
▁ردازش	-3282
▁سم	-3283
▁مام	-3284
▁قاضی	-3285
▁کشید	-3286
▁ازنده	-3287
سن	-3288
▁رید	-3289
▁آژانس	-3290
▁x	-3291
▁شام	-3292
▁قالب	-3293
▁سوز	-3294
▁مجلس	-3295
▁سادگی	-3296
▁شکر	-3297
▁جنگل	-3298
▁اثبات	-3299
▁ابو	-3300
▁دمی	-3301
▁سبب	-3302
▁لاف	-3303
▁شوهر	-3304
▁ولویت	-3305
▁18	-3306
▁لن	-3307
▁معتبر	-3308
اهای	-3309
▁سوئ	-3310
▁شریک	-3311
▁تاریک	-3312
▁ذاهای	-3313
▁زمینی	-3314
▁عید	-3315
▁کتور	-3316
ur	-3317
▁روبرو	-3318
امب	-3319
نوعی	-3320
▁دایی	-3321
▁دسامب	-3322
▁صنوعی	-3323
▁نسبتا	-3324
▁قص	-3325
▁ابه	-3326
▁ماج	-3327
▁منزل	-3328
▁ازگار	-3329
▁دگی	-3330
▁com	-3331
▁انان	-3332
▁سطوح	-3333
▁وحشت	-3334
ni	-3335
▁de	-3336
▁قبال	-3337
▁ازیکن	-3338
▁اشگاه	-3339
▁رسانی	-3340
▁نقاشی	-3341
od	-3342
ثه	-3343
▁’	-3344
▁شیط	-3345
▁ظهور	-3346
▁لم	-3347
▁گار	-3348
▁ریستی	-3349
▁مهمان	-3350
▁نگلیس	-3351
▁پاریس	-3352
قب	-3353
▁قلم	-3354
▁یام	-3355
▁صدها	-3356
مر	-3357
▁دعا	-3358
▁نظیر	-3359
▁Googl	-3360
▁کشوری	-3361
▁زب	-3362
▁شرقی	-3363
▁مجله	-3364
▁بایست	-3365
ul	-3366
▁Li	-3367
▁راتور	-3368
▁عده	-3369
▁ادید	-3370
▁باما	-3371
▁عمده	-3372
▁اواخر	-3373
▁نشد	-3374
▁شفاف	-3375
اک	-3376
▁متاس	-3377
▁مردی	-3378
▁آرامش	-3379
▁مود	-3380
▁هات	-3381
▁طالب	-3382
▁وامبر	-3383
▁پنجره	-3384
اداش	-3385
▁and	-3386
▁ارک	-3387
▁بیست	-3388
▁سرور	-3389
▁وسایل	-3390
▁پاداش	-3391
ولد	-3392
▁De	-3393
▁ژوئن	-3394
▁دیابت	-3395
آور	-3396
▁چای	-3397
▁فرست	-3398
▁مدرک	-3399
▁ماجرا	-3400
پز	-3401
▁امی	-3402
▁درم	-3403
▁اردو	-3404
▁خسته	-3405
▁سریال	-3406
▁میز	-3407
▁پیم	-3408
▁برگشت	-3409
▁بزنید	-3410
▁راجعه	-3411
▁سالان	-3412
▁شیطان	-3413
▁آپ	-3414
▁تشکر	-3415
▁جادو	-3416
▁ادرات	-3417
▁خشم	-3418
▁حتما	-3419
▁مرده	-3420
▁کوین	-3421
تیک	-3422
▁حیط	-3423
▁چرخ	-3424
▁ثبات	-3425
▁منظم	-3426
▁ظرفیت	-3427
▁چندان	-3428
ایف	-3429
▁شرق	-3430
▁مشک	-3431
▁عموم	-3432
▁نگاهی	-3433
▁ونیکی	-3434
▁|	-3435
▁Pro	-3436
▁اوت	-3437
▁خال	-3438
▁متولد	-3439
▁واستم	-3440
▁كار	-3441
▁آشپز	-3442
▁جازات	-3443
▁دیپ	-3444
▁ماد	-3445
▁استیک	-3446
▁غنی	-3447
▁نال	-3448
▁متاسف	-3449
▁یانیه	-3450
▁Z	-3451
ack	-3452
...]	-3453
▁[...]	-3454
▁دومین	-3455
▁منطقی	-3456
▁کپ	-3457
▁ترد	-3458
▁سرش	-3459
▁وانده	-3460
▁هنری	-3461
▁چک	-3462
▁وای	-3463
▁مکمل	-3464
▁خب	-3465
▁اکس	-3466
▁مپانی	-3467
▁ْ	-3468
▁دي	-3469
▁جلب	-3470
▁پیچ	-3471
▁مندی	-3472
▁متعلق	-3473
▁ورزشی	-3474
um	-3475
▁جور	-3476
▁زخم	-3477
▁وشه	-3478
▁مخفی	-3479
ویل	-3480
▁Wi	-3481
▁یار	-3482
▁زاده	-3483
▁عصبی	-3484
▁لایه	-3485
▁هستی	-3486
▁آموخت	-3487
▁ادیده	-3488
▁کمیته	-3489
▁جاع	-3490
▁زنج	-3491
▁ابتلا	-3492
▁تماشا	-3493
ap	-3494
کز	-3495
▁فو	-3496
▁رویدا	-3497
▁مشکلی	-3498
▁الم	-3499
▁تصاد	-3500
▁معلم	-3501
▁انگار	-3502
ویب	-3503
▁جنس	-3504
▁ورم	-3505
▁یدند	-3506
▁تصادف	-3507
▁صنایع	-3508
▁جامع	-3509
▁ندگی	-3510
▁تصویب	-3511
▁تکامل	-3512
▁یونان	-3513
▁رسو	-3514
▁موقت	-3515
▁وظایف	-3516
▁انع	-3517
▁ریاضی	-3518
▁ورت	-3519
▁ناحی	-3520
▁نویسی	-3521
li	-3522
se	-3523
un	-3524
art	-3525
▁خرد	-3526
▁دمه	-3527
▁دبیر	-3528
▁مبلغ	-3529
▁ورودی	-3530
▁کشیدن	-3531
▁ed	-3532
▁انب	-3533
▁سیون	-3534
and	-3535
▁th	-3536
▁بعدا	-3537
▁تغال	-3538
▁الایی	-3539
▁خارجه	-3540
▁قال	-3541
▁دیپلم	-3542
او	-3543
▁نار	-3544
▁وقو	-3545
▁بافت	-3546
▁Ne	-3547
▁to	-3548
▁بول	-3549
▁اندا	-3550
▁تردید	-3551
▁مراکز	-3552
▁رغم	-3553
▁روانی	-3554
▁هورمو	-3555
▁z	-3556
▁ایع	-3557
▁١	-3558
▁اخبار	-3559
▁تحویل	-3560
▁شیدنی	-3561
▁پیشین	-3562
▁سان	-3563
▁وست	-3564
▁یمز	-3565
▁میده	-3566
▁ریاست	-3567
▁لر	-3568
▁گز	-3569
▁زمست	-3570
▁لزوم	-3571
▁مجاز	-3572
▁باتری	-3573
لوم	-3574
▁ion	-3575
▁العمل	-3576
▁روزها	-3577
▁ماندن	-3578
▁معلوم	-3579
▁معی	-3580
▁یگن	-3581
▁اعدام	-3582
▁ناحیه	-3583
▁یح	-3584
▁بگوید	-3585
▁لان	-3586
▁نقض	-3587
▁کفش	-3588
▁غذای	-3589
▁گیرید	-3590
▁دائ	-3591
▁رقم	-3592
▁ناه	-3593
▁هاجم	-3594
▁16	-3595
▁یق	-3596
▁صاب	-3597
▁نبرد	-3598
▁_	-3599
▁حر	-3600
▁تقا	-3601
▁هیت	-3602
▁یره	-3603
▁روزه	-3604
غذ	-3605
all	-3606
▁ضمن	-3607
▁یشه	-3608
▁کاغذ	-3609
▁معادل	-3610
▁ng	-3611
▁الک	-3612
▁نشود	-3613
▁وقوع	-3614
▁تأمین	-3615
▁دائمی	-3616
▁عربی	-3617
غل	-3618
▁فک	-3619
▁سته	-3620
▁پرست	-3621
▁فیلتر	-3622
▁ستند	-3623
▁صرفه	-3624
▁تحریک	-3625
▁خورید	-3626
▁j	-3627
▁آیه	-3628
▁کمپین	-3629
یاس	-3630
▁حقو	-3631
▁امو	-3632
▁انح	-3633
▁شرط	-3634
▁برود	-3635
▁حقوقی	-3636
▁صندلی	-3637
▁وآوری	-3638
▁Sp	-3639
▁ستا	-3640
▁سکو	-3641
▁نوج	-3642
▁بماند	-3643
▁رقی	-3644
▁عقل	-3645
▁رایج	-3646
▁میکرو	-3647
▁کشیده	-3648
▁هستان	-3649
خند	-3650
▁ریب	-3651
▁مبا	-3652
وارض	-3653
▁حیطی	-3654
▁عوارض	-3655
▁فدرال	-3656
▁مزد	-3657
▁کاخ	-3658
▁رانه	-3659
▁رویا	-3660
▁پناه	-3661
▁گرما	-3662
طاف	-3663
▁فقر	-3664
▁چاق	-3665
▁الکل	-3666
▁نکات	-3667
▁زنجیر	-3668
▁پارچه	-3669
▁ویی	-3670
▁نعطاف	-3671
ue	-3672
▁هیل	-3673
▁رندگ	-3674
▁علام	-3675
▁رداند	-3676
▁نیستم	-3677
▁14	-3678
▁دارک	-3679
▁مسکو	-3680
▁گمان	-3681
▁لبخند	-3682
▁مراقب	-3683
▁کاران	-3684
▁24	-3685
▁آلب	-3686
▁انس	-3687
▁داعش	-3688
▁حادثه	-3689
▁Se	-3690
▁رکو	-3691
▁ضعف	-3692
▁خراب	-3693
▁یندوز	-3694
▁ct	-3695
▁لف	-3696
▁هدیه	-3697
▁کنگر	-3698
▁قررات	-3699
▁پیمان	-3700
▁کانات	-3701
im	-3702
▁سام	-3703
▁چار	-3704
▁بخشد	-3705
▁بران	-3706
▁جانبی	-3707
▁نفع	-3708
▁رنده	-3709
▁رییس	-3710
▁اکتری	-3711
▁یانوس	-3712
ig	-3713
▁ذه	-3714
▁آفت	-3715
▁خطا	-3716
▁دائم	-3717
▁مارک	-3718
▁na	-3719
▁نقد	-3720
▁سسات	-3721
▁یورو	-3722
▁موج	-3723
▁۱۰۰	-3724
▁باران	-3725
▁Bl	-3726
▁Sh	-3727
▁بکن	-3728
▁نظرات	-3729
▁یدوار	-3730
ریت	-3731
▁الز	-3732
▁سرب	-3733
▁پرده	-3734
▁گرچه	-3735
▁الهام	-3736
▁امد	-3737
▁توپ	-3738
▁ضطر	-3739
▁آمدن	-3740
▁آوری	-3741
▁گرسن	-3742
ie	-3743
▁اسن	-3744
▁برت	-3745
▁راک	-3746
▁شایع	-3747
▁گراف	-3748
▁معامل	-3749
▁عبد	-3750
▁معیار	-3751
▁غل	-3752
▁ولت	-3753
▁خطوط	-3754
▁داره	-3755
▁درحال	-3756
▁رزه	-3757
▁هایم	-3758
▁تجدید	-3759
▁نون	-3760
▁کوپ	-3761
▁ناسبی	-3762
▁ایق	-3763
▁جسم	-3764
▁فلز	-3765
▁كند	-3766
▁کنه	-3767
▁یدم	-3768
▁شاخص	-3769
▁ضطراب	-3770
▁جی	-3771
▁فه	-3772
▁تخص	-3773
▁قوم	-3774
▁لیک	-3775
▁ندا	-3776
▁یشن	-3777
▁برگرد	-3778
▁زنشست	-3779
▁شوروی	-3780
▁شل	-3781
▁بور	-3782
▁نیک	-3783
▁هاب	-3784
▁گربه	-3785
▁کنگره	-3786
▁یابند	-3787
▁یشگیر	-3788
▁اورد	-3789
▁نباش	-3790
▁موریت	-3791
▁Al	-3792
▁آیت	-3793
▁زوج	-3794
▁لاخ	-3795
▁ژنتیک	-3796
▁یگنال	-3797
▁nce	-3798
▁ریه	-3799
▁عکا	-3800
▁لوک	-3801
▁واب	-3802
خل	-3803
▁ریخت	-3804
▁اندهی	-3805
▁اندکی	-3806
▁تازگی	-3807
▁دادیم	-3808
▁نل	-3809
▁مکا	-3810
▁مخدر	-3811
▁جنسیت	-3812
▁قضاوت	-3813
ht	-3814
▁عن	-3815
▁شاغل	-3816
▁کالج	-3817
▁تئوری	-3818
▁یکیشن	-3819
▁راد	-3820
▁جد	-3821
▁وحش	-3822
▁محور	-3823
▁گویی	-3824
▁یاری	-3825
▁ارآمد	-3826
▁بازان	-3827
▁عکاسی	-3828
▁فلسفه	-3829
▁مداخل	-3830
▁٬	-3831
سیر	-3832
▁۴۰	-3833
▁خالص	-3834
▁ذهنی	-3835
▁یونی	-3836
▁شیرین	-3837
▁اذ	-3838
▁مز	-3839
▁وژ	-3840
▁توق	-3841
▁دفع	-3842
▁اقلی	-3843
▁متهم	-3844
▁تفسیر	-3845
▁لاخره	-3846
▁مقیاس	-3847
▁#	-3848
▁ra	-3849
اسبه	-3850
▁لیب	-3851
▁خبری	-3852
▁دلال	-3853
▁یکار	-3854
▁حاسبه	-3855
▁رنوشت	-3856
▁عار	-3857
▁ازده	-3858
▁اسیون	-3859
▁for	-3860
▁دون	-3861
▁سئو	-3862
▁سرخ	-3863
▁گردند	-3864
▁Ma	-3865
▁مأ	-3866
▁رفع	-3867
▁زیت	-3868
▁بهار	-3869
▁جداگ	-3870
▁هرچه	-3871
▁تقدند	-3872
▁ري	-3873
▁اهن	-3874
▁یایید	-3875
▁غان	-3876
▁تراع	-3877
▁اتومب	-3878
▁بیاید	-3879
▁دخانه	-3880
▁علامت	-3881
▁پیروی	-3882
▁کراین	-3883
▁Sc	-3884
▁وج	-3885
▁راس	-3886
▁نات	-3887
▁دراز	-3888
▁اشکال	-3889
▁فروخت	-3890
▁قالات	-3891
▁ودکار	-3892
▁13	-3893
▁دزد	-3894
▁رضا	-3895
▁سرک	-3896
▁شادی	-3897
▁هکار	-3898
▁کثریت	-3899
▁تجا	-3900
▁زرد	-3901
▁شاد	-3902
▁ناش	-3903
▁ویز	-3904
▁پورت	-3905
▁آنقدر	-3906
▁دامنه	-3907
▁٪	-3908
▁وغ	-3909
▁اصر	-3910
▁جغ	-3911
▁بدهی	-3912
▁ریتم	-3913
▁هواره	-3914
▁پارلم	-3915
▁اگ	-3916
▁چم	-3917
▁لال	-3918
▁ونز	-3919
▁تنوع	-3920
▁پولی	-3921
▁اربرد	-3922
▁ترنتی	-3923
▁کتریک	-3924
▁تظ	-3925
▁الن	-3926
▁تظاهر	-3927
▁شایست	-3928
▁دال	-3929
▁مرغ	-3930
▁ضرب	-3931
▁موز	-3932
▁نست	-3933
▁پارا	-3934
▁کلام	-3935
▁اهانه	-3936
▁فیزیک	-3937
▁et	-3938
▁لغو	-3939
▁مؤثر	-3940
▁خورند	-3941
▁فرصتی	-3942
▁مجازی	-3943
ئی	-3944
▁اته	-3945
▁اسب	-3946
▁اران	-3947
▁سافت	-3948
▁عروس	-3949
▁جلسات	-3950
▁دترین	-3951
▁راستا	-3952
▁نرا	-3953
▁یکو	-3954
▁دانه	-3955
▁سوار	-3956
▁میلی	-3957
▁ننده	-3958
▁آفتاب	-3959
▁تجاوز	-3960
▁ني	-3961
▁ght	-3962
▁تبع	-3963
▁لات	-3964
▁صرفا	-3965
▁وافق	-3966
▁تزریق	-3967
▁توییت	-3968
▁حدوده	-3969
▁ناهند	-3970
▁ic	-3971
▁صار	-3972
▁منص	-3973
زیل	-3974
▁ri	-3975
▁رام	-3976
▁ویل	-3977
▁غریب	-3978
▁جغراف	-3979
▁وافقت	-3980
▁غم	-3981
▁برج	-3982
▁تیا	-3983
▁حقی	-3984
▁شرح	-3985
▁دمای	-3986
▁عالم	-3987
ard	-3988
▁تاپ	-3989
▁هار	-3990
▁پارت	-3991
▁دآوری	-3992
▁متعهد	-3993
▁متنوع	-3994
▁شکار	-3995
▁گرام	-3996
▁مستند	-3997
▁اوست	-3998
▁تخصص	-3999
▁مسلح	-4000
▁همگی	-4001
▁پروس	-4002
▁بانکی	-4003
▁رعایت	-4004
▁زودتر	-4005
▁سرکوب	-4006
▁واهان	-4007
▁%	-4008
▁&	-4009
▁ثنا	-4010
▁صوت	-4011
▁آنتی	-4012
▁تجرب	-4013
▁فرید	-4014
▁پدرش	-4015
▁اسناد	-4016
▁شکایت	-4017
امع	-4018
▁رال	-4019
▁رسی	-4020
▁شدیم	-4021
▁جوامع	-4022
▁صندوق	-4023
▁میدهد	-4024
▁طرز	-4025
▁ادرم	-4026
▁تیاج	-4027
▁فوری	-4028
▁قطار	-4029
▁بهینه	-4030
▁کنونی	-4031
▁لق	-4032
▁Con	-4033
▁ایمن	-4034
▁وئیس	-4035
▁کربن	-4036
▁لودگی	-4037
▁ریک	-4038
▁تحقق	-4039
▁حلقه	-4040
▁رنگی	-4041
▁قطعه	-4042
▁ومین	-4043
▁تأکید	-4044
▁راستی	-4045
▁خام	-4046
▁عبا	-4047
▁لکه	-4048
▁ویه	-4049
▁ment	-4050
▁خنده	-4051
▁بدهند	-4052
▁La	-4053
▁ربا	-4054
▁یمن	-4055
▁ماری	-4056
▁ارچوب	-4057
▁ورا	-4058
▁استر	-4059
▁راجع	-4060
▁روشی	-4061
▁سینه	-4062
▁ندرت	-4063
▁برسان	-4064
▁حیاتی	-4065
▁دیوان	-4066
▁روزمر	-4067
▁لبنان	-4068
▁Q	-4069
▁پلت	-4070
▁جعبه	-4071
▁اطرات	-4072
▁ma	-4073
▁ضب	-4074
▁قف	-4075
▁جمعه	-4076
▁ضربه	-4077
▁اجبار	-4078
▁واردی	-4079
▁وریسم	-4080
▁٫	-4081
▁An	-4082
شناس	-4083
▁ابع	-4084
▁شکلی	-4085
▁نگار	-4086
▁دیدتر	-4087
▁سازید	-4088
▁گذارن	-4089
▁90	-4090
▁حین	-4091
▁توده	-4092
▁سوئد	-4093
▁نالد	-4094
▁اشتبا	-4095
▁عصبان	-4096
▁sh	-4097
▁۲۵	-4098
▁دیو	-4099
▁لوب	-4100
▁درخش	-4101
▁مکزیک	-4102
▁یسیون	-4103
▁قو	-4104
▁الح	-4105
▁اتخا	-4106
▁ردمی	-4107
▁عنصر	-4108
▁کشان	-4109
▁یلند	-4110
▁رأ	-4111
▁ير	-4112
▁بیند	-4113
▁جلوی	-4114
▁شنید	-4115
▁طلاق	-4116
▁فکری	-4117
▁لاها	-4118
▁برزیل	-4119
▁بنیان	-4120
▁ندهید	-4121
▁ئید	-4122
▁واسط	-4123
▁یدگی	-4124
▁اراده	-4125
la	-4126
▁HT	-4127
▁۶۰	-4128
▁سار	-4129
▁رسان	-4130
▁اتخاذ	-4131
▁الزام	-4132
▁وط	-4133
اهرا	-4134
▁زید	-4135
▁پان	-4136
▁یکر	-4137
▁خودت	-4138
▁آورید	-4139
▁خوراک	-4140
▁دلاری	-4141
▁ظاهرا	-4142
▁نامزد	-4143
▁ونیست	-4144
مور	-4145
▁ge	-4146
▁اتور	-4147
▁دانی	-4148
▁سکوت	-4149
▁شیدن	-4150
▁قیام	-4151
▁ایتخت	-4152
▁خبرنگ	-4153
ne	-4154
▁زین	-4155
▁سیر	-4156
▁نظم	-4157
▁الکیت	-4158
وص	-4159
▁17	-4160
▁ذب	-4161
▁یغ	-4162
▁تابع	-4163
▁غیره	-4164
▁آمدند	-4165
▁آوریل	-4166
▁تقاضا	-4167
▁لسلام	-4168
▁گرفتم	-4169
▁هه	-4170
▁هک	-4171
▁يک	-4172
▁ضبط	-4173
▁هیو	-4174
▁جمعی	-4175
▁زایم	-4176
▁سنجی	-4177
▁بپذیر	-4178
▁تمایز	-4179
▁نشسته	-4180
▁گرایی	-4181
بیند	-4182
▁ببرد	-4183
▁ابراز	-4184
▁ببیند	-4185
▁شمنان	-4186
▁IP	-4187
▁يا	-4188
▁۱۸	-4189
▁ادی	-4190
▁رقص	-4191
▁کور	-4192
▁بسایت	-4193
▁مأمور	-4194
غال	-4195
▁صه	-4196
خصوص	-4197
▁اشیا	-4198
▁کالی	-4199
▁اشغال	-4200
▁شنوار	-4201
▁ماشای	-4202
▁مخصوص	-4203
▁مخلو	-4204
▁جنایت	-4205
▁هنمای	-4206
est	-4207
ord	-4208
راحت	-4209
▁عقید	-4210
▁هلند	-4211
▁آلوده	-4212
▁اراحت	-4213
▁سرباز	-4214
▁فوریه	-4215
▁گذران	-4216
▁SE	-4217
▁فقیر	-4218
▁مالک	-4219
▁حرارت	-4220
اطف	-4221
▁Ad	-4222
▁عاطف	-4223
▁یلان	-4224
▁دروید	-4225
▁وکس	-4226
▁کپی	-4227
▁روحان	-4228
▁موهای	-4229
▁US	-4230
▁ذاشت	-4231
▁سران	-4232
▁ناخت	-4233
th	-4234
جار	-4235
▁الغ	-4236
▁لمس	-4237
▁نحو	-4238
▁کاب	-4239
▁رویم	-4240
▁شارژ	-4241
▁ویزای	-4242
▁=	-4243
▁Mo	-4244
اهان	-4245
▁رسم	-4246
▁نادر	-4247
▁یوان	-4248
▁تناسب	-4249
▁یاهان	-4250
ئت	-4251
راج	-4252
▁لوژ	-4253
▁ودک	-4254
▁باشه	-4255
▁توقف	-4256
▁زدهم	-4257
▁دوستی	-4258
▁نفجار	-4259
▁بادل	-4260
▁اجاره	-4261
▁برایش	-4262
▁یگیری	-4263
OS	-4264
▁اهم	-4265
▁بومی	-4266
▁هیئت	-4267
▁اتمام	-4268
▁العاد	-4269
▁فادار	-4270
▁هربان	-4271
▁ودکشی	-4272
▁ادا	-4273
▁وود	-4274
▁یکل	-4275
▁فریب	-4276
▁نکند	-4277
▁گردن	-4278
▁اتهام	-4279
▁تخمین	-4280
▁ذاشتن	-4281
▁مسابق	-4282
▁نیادی	-4283
▁لت	-4284
▁ایز	-4285
▁حسن	-4286
▁ضاع	-4287
▁کیه	-4288
▁رفتم	-4289
▁مقصد	-4290
▁پروف	-4291
▁کابل	-4292
▁لوژیک	-4293
▁80	-4294
▁یامد	-4295
▁بشناس	-4296
▁خطرات	-4297
▁رآورد	-4298
▁کالیف	-4299
▁Pl	-4300
▁ch	-4301
▁تخت	-4302
▁درب	-4303
▁شون	-4304
▁ابهی	-4305
▁استو	-4306
▁بینا	-4307
▁دستی	-4308
▁مادگ	-4309
▁محکم	-4310
▁اتوبو	-4311
▁ردگار	-4312
▁کالری	-4313
▁اسد	-4314
▁ناخ	-4315
▁وبا	-4316
▁یمی	-4317
▁یین	-4318
▁ارکس	-4319
▁گریه	-4320
▁	-4321
ا	-4322
ی	-4323
ر	-4324
د	-4325
ن	-4326
ه	-4327
م	-4328
و	-4329
ت	-4330
ب	-4331
ک	-4332
س	-4333
ش	-4334
ل	-4335
ز	-4336
.	-4337
ف	-4338
گ	-4339
خ	-4340
ع	-4341
ق	-4342
ج	-4343
ح	-4344
،	-4345
آ	-4346
پ	-4347
ط	-4348
ص	-4349
چ	-4350
غ	-4351
ض	-4352
e	-4353
ذ	-4354
ظ	-4355
a	-4356
ث	-4357
o	-4358
:	-4359
i	-4360
0	-4361
ئ	-4362
r	-4363
)	-4364
n	-4365
(	-4366
1	-4367
t	-4368
ژ	-4369
s	-4370
؟	-4371
»	-4372
2	-4373
l	-4374
۰	-4375
«	-4376
"	-4377
-	-4378
۱	-4379
ي	-4380
S	-4381
c	-4382
u	-4383
d	-4384
!	-4385
A	-4386
5	-4387
C	-4388
۲	-4389
9	-4390
h	-4391
3	-4392
m	-4393
P	-4394
ً	-4395
ك	-4396
4	-4397
M	-4398
p	-4399
g	-4400
؛	-4401
T	-4402
D	-4403
I	-4404
6	-4405
8	-4406
y	-4407
B	-4408
7	-4409
E	-4410
”	-4411
۵	-4412
R	-4413
۹	-4414
ِ	-4415
L	-4416
۳	-4417
]	-4418
[	-4419
أ	-4420
b	-4421
N	-4422
G	-4423
k	-4424
H	-4425
“	-4426
f	-4427
O	-4428
­	-4429
F	-4430
۴	-4431
–	-4432
,	-4433
v	-4434
۶	-4435
۸	-4436
w	-4437
/	-4438
W	-4439
ى	-4440
۷	-4441
ۀ	-4442
V	-4443
U	-4444
ـ	-4445
ّ	-4446
ء	-4447
x	-4448
ؤ	-4449
َ	-4450
K	-4451
*	-4452
J	-4453
ٔ	-4454
ُ	-4455
z	-4456
X	-4457
+	-4458
٪	-4459
%	-4460
•	-4461
Y	-4462
٫	-4463
'	-4464
Q	-4465
>	-4466
j	-4467
Z	-4468
’	-4469
|	-4470
١	-4471
ْ	-4472
ة	-4473
_	-4474
٬	-4475
٠	-4476
#	-4477
&	-4478
=	-4479
q	-4480
?	-4481
٢	-4482
—	-4483
;	-4484
٩	-4485
$	-4486
¬	-4487
·	-4488
‬	-4489
●	-4490
٨	-4491
\	-4492
٣	-4493
{	-4494
}	-4495
‘	-4496
<	-4497
٧	-4498
@	-4499
٥	-4500
٤	-4501
↑	-4502
é	-4503
→	-4504
إ	-4505
ٌ	-4506
▪	-4507
←	-4508
‫	-4509
‍	-4510
٦	-4511
€	-4512
ە	-4513
×	-4514
ü	-4515
®	-4516
⁯	-4517
°	-4518
️	-4519
ٍ	-4520
♪	-4521
ö	-4522
■	-4523
◄	-4524
ھ	-4525
′	-4526
›	-4527
ó	-4528
á	-4529
~	-4530
â	-4531
♫	-4532
😉	-4533
‪	-4534
£	-4535
ä	-4536
➖	-4537
ç	-4538
^	-4539
‹	-4540
♦	-4541
🔹	-4542
ı	-4543
😀	-4544
§	-4545
ٓ	-4546
ٰ	-4547
−	-4548
✅	-4549
`	-4550
à	-4551
□	-4552
♥	-4553
ş	-4554
ˈ	-4555
⇐	-4556
	-4557
è	-4558
▫	-4559
©	-4560
🔸	-4561
ñ	-4562
α	-4563
	-4564
🙂	-4565
É	-4566
√	-4567
😍	-4568
	-4569
ā	-4570
	-4571
ã	-4572
́	-4573
р	-4574
±	-4575
å	-4576
í	-4577
и	-4578
⁄	-4579
★	-4580
Ç	-4581
ú	-4582
ٿ	-4583
❤	-4584
﴾	-4585
👌	-4586
œ	-4587
̊	-4588
̋	-4589
μ	-4590
а	-4591
е	-4592
н	-4593
о	-4594
ٴ	-4595
۔	-4596
⁭	-4597
☺	-4598
✓	-4599
✔	-4600
﴿	-4601
🌷	-4602
	-4603
Ø	-4604
ø	-4605
ğ	-4606
İ	-4607
̈	-4608
Δ	-4609
Ω	-4610
ε	-4611
ۆ	-4612
ა	-4613
„	-4614
⁪	-4615
◊	-4616
♬	-4617
♯	-4618
⚡	-4619
✤	-4620
✭	-4621
⦁	-4622
	-4623
	-4624
👈	-4625
🔴	-4626
	-4627
Ö	-4628
ë	-4629
β	-4630
ν	-4631
М	-4632
д	-4633
⁩	-4634
▐	-4635
▬	-4636
○	-4637
✕	-4638
	-4639
🌸	-4640
🔻	-4641
😂	-4642
😐	-4643
	-4644
	-4645
	-4646
¤	-4647
Â	-4648
ï	-4649
ò	-4650
ń	-4651
Ş	-4652
š	-4653
ɪ	-4654
̨	-4655
θ	-4656
κ	-4657
Т	-4658
к	-4659
с	-4660
ڪ	-4661
ვ	-4662
ლ	-4663
ო	-4664
⁣	-4665
⁧	-4666
⁮	-4667
⃣	-4668
≠	-4669
≡	-4670
≤	-4671
➕	-4672
	-4673
	-4674
👏	-4675
👻	-4676
🔥	-4677
🔺	-4678
😊	-4679
	-4680
	-4681
¡	-4682
¢	-4683
Ã	-4684
Ä	-4685
Ü	-4686
ß	-4687
ê	-4688
î	-4689
ð	-4690
ô	-4691
÷	-4692
ý	-4693
ē	-4694
ƒ	-4695
ɛ	-4696
ʊ	-4697
ː	-4698
̇	-4699
γ	-4700
λ	-4701
ο	-4702
ρ	-4703
ς	-4704
τ	-4705
Б	-4706
К	-4707
б	-4708
г	-4709
й	-4710
л	-4711
י	-4712
ڵ	-4713
ہ	-4714
ۂ	-4715
ܔ	-4716
ܜ	-4717
თ	-4718
ი	-4719
რ	-4720
ს	-4721
‚	-4722
‭	-4723
≥	-4724
▲	-4725
▶	-4726
◀	-4727
◦	-4728
☼	-4729
❇	-4730
メ	-4731
事	-4732
件	-4733
台	-4734
日	-4735
朝	-4736
本	-4737
灣	-4738
軍	-4739
	-4740
	-4741
	-4742
	-4743
	-4744
	-4745
	-4746
	-4747
🇪	-4748
🍃	-4749
📣	-4750
🔷	-4751
😅	-4752
😏	-4753
😛	-4754
😢	-4755
😥	-4756
😳	-4757
😵	-4758
🙁	-4759
	-4760
	-4761
	-4762
	-4763
	-4764
¥	-4765
Á	-4766
Å	-4767
Ô	-4768
æ	-4769
ì	-4770
þ	-4771
ć	-4772
ī	-4773
ł	-4774
ŋ	-4775
ū	-4776
ű	-4777
Ž	-4778
ǎ	-4779
ɔ	-4780
ə	-4781
ɜ	-4782
ɨ	-4783
ʀ	-4784
ʁ	-4785
ʺ	-4786
ˌ	-4787
ˏ	-4788
̃	-4789
̏	-4790
̵	-4791
Α	-4792
Ε	-4793
Μ	-4794
Φ	-4795
ζ	-4796
φ	-4797
ω	-4798
Г	-4799
З	-4800
И	-4801
О	-4802
П	-4803
С	-4804
м	-4805
т	-4806
у	-4807
ф	-4808
х	-4809
ы	-4810
ь	-4811
я	-4812
ё	-4813
ћ	-4814
ה	-4815
ח	-4816
כ	-4817
מ	-4818
פ	-4819
ש	-4820
څ	-4821
ګ	-4822
ں	-4823
ۃ	-4824
ێ	-4825
ے	-4826
ก	-4827
ง	-4828
แ	-4829
გ	-4830
ე	-4831
მ	-4832
ნ	-4833
უ	-4834
ქ	-4835
Ḥ	-4836
ṇ	-4837
ṯ	-4838
ủ	-4839
ἐ	-4840
ἥ	-4841
Ἴ	-4842
ῖ	-4843
―	-4844
†	-4845
※	-4846
⁠	-4847
₩	-4848
₹	-4849
↓	-4850
⇆	-4851
⇔	-4852
∀	-4853
∆	-4854
∈	-4855
∗	-4856
∘	-4857
∴	-4858
≈	-4859
⊞	-4860
⋆	-4861
⌘	-4862
⏳	-4863
⏺	-4864
►	-4865
◇	-4866
◽	-4867
◾	-4868
☆	-4869
☚	-4870
♊	-4871
♒	-4872
♡	-4873
⚽	-4874
✋	-4875
✍	-4876
✳	-4877
✵	-4878
❌	-4879
❗	-4880
➌	-4881
➐	-4882
⟨	-4883
⟩	-4884
⬅	-4885
《	-4886
》	-4887
「	-4888
か	-4889
き	-4890
ど	-4891
ま	-4892
モ	-4893
ヤ	-4894
一	-4895
东	-4896
人	-4897
前	-4898
十	-4899
命	-4900
坛	-4901
外	-4902
天	-4903
子	-4904
孫	-4905
將	-4906
撫	-4907
斐	-4908
旗	-4909
月	-4910
樹	-4911
湾	-4912
爱	-4913
生	-4914
甲	-4915
碌	-4916
神	-4917
臺	-4918
英	-4919
蔼	-4920
语	-4921
谷	-4922
锦	-4923
门	-4924
革	-4925
도	-4926
라	-4927
아	-4928
장	-4929
티	-4930
	-4931
	-4932
	-4933
	-4934
	-4935
	-4936
	-4937
	-4938
	-4939
	-4940
	-4941
	-4942
	-4943
	-4944
	-4945
	-4946
🇩	-4947
🇬	-4948
🇷	-4949
🇺	-4950
🌀	-4951
🌐	-4952
🌬	-4953
🌲	-4954
🌺	-4955
🍁	-4956
🍳	-4957
🎁	-4958
🎄	-4959
🎥	-4960
🎬	-4961
🐶	-4962
👑	-4963
💎	-4964
💕	-4965
💜	-4966
💟	-4967
💫	-4968
💳	-4969
📈	-4970
📌	-4971
📍	-4972
📑	-4973
📝	-4974
📱	-4975
📽	-4976
🔎	-4977
🔔	-4978
🔵	-4979
🔶	-4980
🗽	-4981
😁	-4982
😌	-4983
😎	-4984
😒	-4985
😔	-4986
😕	-4987
😗	-4988
😙	-4989
😭	-4990
😶	-4991
🙏	-4992
🚀	-4993
🚫	-4994
🤔	-4995
🤗	-4996
