<unk>	0
<s>	0
</s>	0
▁.	-3.44369
▁و	-3.76518
▁در	-3.80985
▁به	-3.92747
▁،	-3.94921
▁ی	-3.96242
▁می	-3.97623
▁از	-4.10891
▁که	-4.11408
▁را	-4.19624
▁است	-4.23094
▁م	-4.37573
▁این	-4.44094
▁ب	-4.62047
▁های	-4.65052
▁ا	-4.87358
ی	-4.88125
▁با	-4.91261
▁برای	-5.00118
▁یک	-5.00178
▁ها	-5.0538
▁ان	-5.13427
▁آن	-5.30197
▁ه	-5.36234
▁خ	-5.50649
▁هم	-5.54543
▁شما	-5.54994
▁ت	-5.56802
▁ات	-5.58529
ه	-5.58828
▁خود	-5.65047
▁ن	-5.67382
ا	-5.707
▁یا	-5.74488
▁کند	-5.75514
▁شود	-5.76204
▁آ	-5.76279
▁:	-5.7634
▁س	-5.76782
▁تا	-5.77708
▁ای	-5.77843
▁پ	-5.78981
▁کار	-5.79061
▁ما	-5.79411
▁ش	-5.79465
▁شده	-5.84765
▁او	-5.86064
▁(	-5.89786
▁ف	-5.91693
▁بر	-5.93122
▁کنند	-5.95273
▁)	-5.95564
▁کنید	-5.96556
▁د	-6.00245
▁ند	-6.03767
▁من	-6.03894
▁هر	-6.04112
▁ک	-6.05467
▁سال	-6.07058
ت	-6.07126
▁بود	-6.07581
▁توان	-6.143
▁»	-6.14678
▁0	-6.14757
▁؟	-6.15858
▁یی	-6.19781
▁اما	-6.21339
▁ید	-6.22316
▁باشد	-6.22528
▁دارد	-6.27606
▁1	-6.27875
▁نمی	-6.28454
▁دو	-6.28723
▁آنها	-6.29823
▁کرد	-6.30186
▁باید	-6.32486
▁شد	-6.35056
▁«	-6.37357
▁دیگر	-6.38963
▁فاده	-6.40373
▁"	-6.41552
▁اگر	-6.41766
▁ر	-6.41771
▁ج	-6.42404
ر	-6.42474
▁حال	-6.47333
م	-6.51745
▁مورد	-6.5389
د	-6.53899
▁دست	-6.5446
▁هستند	-6.54774
▁2	-6.55328
▁تواند	-6.57395
▁تر	-6.59271
▁دهد	-6.59691
▁انجام	-6.59957
▁ل	-6.60438
▁کرده	-6.60876
▁اند	-6.6442
▁-	-6.6542
▁چه	-6.65814
▁وجود	-6.67872
▁قرار	-6.68965
▁نیست	-6.69497
▁روز	-6.70298
▁همه	-6.7033
▁بیشتر	-6.71706
▁گ	-6.72211
▁چنین	-6.73045
▁نیز	-6.7387
▁عنوان	-6.74553
ن	-6.7553
▁گاه	-6.76271
.	-6.78605
▁!	-6.78809
▁دارند	-6.83926
▁داشته	-6.84277
،	-6.84856
▁ق	-6.84878
▁خواهد	-6.86436
ان	-6.86808
▁زندگی	-6.86988
▁پیش	-6.87952
▁۰	-6.88038
▁دانش	-6.88617
▁داده	-6.8929
▁۱	-6.89857
▁شوند	-6.90046
▁ممکن	-6.90108
▁روی	-6.90845
▁نظر	-6.91801
▁ع	-6.91855
ل	-6.92952
▁هایی	-6.9332
▁بین	-6.93366
▁طور	-6.95333
▁پس	-6.95482
▁یم	-6.96496
▁ح	-6.97466
ع	-6.97521
▁شرکت	-6.99061
▁رو	-6.9974
▁بسیار	-7.00152
▁ین	-7.00316
▁زمان	-7.0032
▁کردن	-7.01498
▁هیچ	-7.02263
▁9	-7.02625
▁نیاز	-7.02851
▁تنها	-7.03773
▁کنیم	-7.0443
▁ام	-7.05473
▁ترین	-7.06491
▁	-7.09165
▁مریکا	-7.09664
▁؛	-7.10411
▁رنامه	-7.10868
▁افراد	-7.11508
▁بزرگ	-7.11634
▁کمک	-7.13452
▁مردم	-7.14943
▁تان	-7.15084
▁راه	-7.15346
▁چند	-7.15363
▁جدید	-7.15405
▁داد	-7.15548
▁صورت	-7.16021
▁یکی	-7.16303
▁نام	-7.17492
▁بازی	-7.18163
▁باره	-7.18859
▁نشان	-7.19401
▁سر	-7.19935
▁ال	-7.19952
▁داشت	-7.20262
▁نا	-7.21174
▁۲	-7.21642
و	-7.21677
▁تغییر	-7.22143
▁چیزی	-7.23018
▁نه	-7.25074
▁بی	-7.25841
گ	-7.2598
▁کشور	-7.26195
▁دهند	-7.27531
▁بعد	-7.28269
▁توسط	-7.28944
▁کنم	-7.29022
▁تو	-7.30565
▁5	-7.30633
▁باز	-7.3117
▁s	-7.31505
▁تمام	-7.32169
▁ایجاد	-7.32221
▁دوست	-7.32386
▁خانه	-7.32491
▁آیا	-7.32517
▁فقط	-7.33747
▁انه	-7.34002
▁گفت	-7.34282
▁ً	-7.34519
▁3	-7.35586
ب	-7.35725
▁مانند	-7.36554
▁جهان	-7.36974
▁”	-7.37835
▁طول	-7.37962
▁بار	-7.38584
▁شان	-7.38732
▁بیش	-7.39009
▁یت	-7.40059
▁سیاری	-7.40099
▁حتی	-7.40576
▁باشید	-7.413
نتخا	-7.41434
▁اینکه	-7.41837
▁ط	-7.43199
▁اس	-7.43869
▁اج	-7.44474
▁اطلا	-7.4487
ف	-7.45395
▁کردند	-7.46121
▁غیر	-7.4617
▁برخی	-7.46668
▁مهم	-7.46698
▁انداز	-7.47528
▁افزا	-7.47614
▁باشند	-7.47886
▁ایران	-7.48115
▁4	-7.48932
▁کسی	-7.49103
▁یافت	-7.4912
▁درصد	-7.50023
ور	-7.50427
▁انسان	-7.50959
▁زمانی	-7.51046
▁بخش	-7.51522
▁8	-7.51974
▁کتاب	-7.53329
▁دهید	-7.53373
▁ده	-7.53744
▁فکر	-7.5422
▁کودک	-7.55235
▁تولید	-7.5584
▁کا	-7.55911
▁قبل	-7.56676
▁کاری	-7.56771
▁6	-7.57205
▁۹	-7.57459
▁ماه	-7.57539
▁ست	-7.57695
ش	-7.57938
▁شهر	-7.57943
▁ِ	-7.58443
▁چرا	-7.5867
▁پر	-7.59276
▁واهید	-7.6014
▁آب	-7.60266
▁“	-7.60406
▁مند	-7.60462
▁دی	-7.60521
▁ارائه	-7.60551
▁گرفته	-7.60615
▁مشکل	-7.60638
▁چگونه	-7.61019
▁بودند	-7.61073
▁...	-7.61295
▁وقتی	-7.61879
▁سازم	-7.62056
▁بدون	-7.6228
▁همین	-7.63071
▁پیدا	-7.6362
ین	-7.63789
▁قابل	-7.63856
▁سیستم	-7.6387
▁اش	-7.64023
▁همان	-7.64039
▁شدن	-7.64352
▁7	-7.64374
▁دارید	-7.64424
▁بوده	-7.64949
▁کامل	-7.6545
▁خیل	-7.65597
▁زیادی	-7.6678
▁–	-7.67408
▁نفر	-7.67769
▁جنگ	-7.67988
▁خوب	-7.68232
▁مدت	-7.68517
▁احساس	-7.68579
▁سه	-7.68624
▁شروع	-7.69274
▁­	-7.69409
▁دلیل	-7.69453
▁هنگام	-7.69789
▁کاهش	-7.70012
▁واهند	-7.70811
▁کننده	-7.71352
▁دولت	-7.7154
▁خدا	-7.71585
▁مت	-7.72037
▁ستان	-7.72079
▁توجه	-7.72319
▁فیلم	-7.728
▁[	-7.73174
▁چیز	-7.73241
▁بازار	-7.73603
▁ي	-7.73941
▁روش	-7.74002
▁امروز	-7.74619
▁ص	-7.74671
▁سایت	-7.75403
▁بهتر	-7.75932
▁زبان	-7.76422
▁جای	-7.77397
▁,	-7.77463
▁اولین	-7.77574
▁دنیا	-7.77576
▁فروش	-7.78421
▁هترین	-7.78758
▁کم	-7.79244
▁دور	-7.79418
▁مع	-7.79441
▁er	-7.79478
▁بنابر	-7.7999
▁قدرت	-7.81443
▁دارا	-7.81458
▁حدود	-7.81522
▁کسب	-7.81786
▁دیگری	-7.81849
▁ولی	-7.81966
▁گروه	-7.82533
▁یه	-7.82819
▁خانو	-7.8286
ست	-7.83248
▁همیشه	-7.8336
▁ندارد	-7.83856
▁نخ	-7.83941
▁خواست	-7.84086
▁غ	-7.84435
▁تفاوت	-7.8471
▁باعث	-7.84788
▁یاد	-7.85228
رتبا	-7.85426
▁موضوع	-7.8584
▁میان	-7.86314
▁]	-7.86621
▁تلاش	-7.86663
▁قانون	-7.86929
▁هدف	-7.8701
▁زیر	-7.87102
▁طریق	-7.87251
▁توسعه	-7.87388
▁یابی	-7.87693
▁گذشته	-7.87803
حتما	-7.88055
▁طراحی	-7.88138
▁دنبال	-7.88545
▁درست	-7.88855
▁آنچه	-7.89502
▁اول	-7.89821
▁زنان	-7.90519
▁محصول	-7.91102
ام	-7.91144
▁بدن	-7.9143
▁نامه	-7.91809
▁جهانی	-7.92463
▁گونه	-7.92475
▁شامل	-7.92492
▁واقع	-7.92549
▁گرفت	-7.92633
▁وی	-7.92933
▁آینده	-7.93234
▁مختلف	-7.93357
▁هنوز	-7.93869
▁کل	-7.94031
▁یل	-7.94217
▁نوع	-7.94849
▁تماعی	-7.95043
▁اصلی	-7.95233
▁مش	-7.95346
▁چ	-7.95503
▁دا	-7.9573
▁چشم	-7.96074
▁تصمیم	-7.96126
▁اروپا	-7.96304
▁تاریخ	-7.96362
▁رمایه	-7.96374
▁اف	-7.96418
▁اخ	-7.96619
▁تحقیق	-7.96833
▁گفته	-7.97089
تفاق	-7.97164
▁نو	-7.97696
▁وارد	-7.97731
▁ادامه	-7.97771
▁۳	-7.97787
▁وقت	-7.97826
▁۵	-7.97849
▁المل	-7.97986
▁/	-7.98008
▁سازی	-7.98176
▁تجربه	-7.98271
▁دادن	-7.98503
▁درمان	-7.99249
▁کوچک	-7.99433
▁مصرف	-7.99503
▁ساعت	-7.99798
▁نسبت	-8.00139
▁هوا	-8.00397
▁حاضر	-8.00559
▁رشد	-8.00739
▁پاسخ	-8.00989
▁زیرا	-8.01032
▁هفته	-8.01273
▁هزینه	-8.01825
▁بگیر	-8.02313
▁شورها	-8.02513
▁بررسی	-8.0273
▁جا	-8.02753
▁عالیت	-8.03041
▁یلیون	-8.03041
▁منطقه	-8.03102
▁نیرو	-8.03204
▁آموزش	-8.03428
▁کنترل	-8.04238
▁بالا	-8.04677
▁سطح	-8.04844
▁ارزش	-8.04904
▁بخ	-8.04904
▁نزدیک	-8.05069
▁برابر	-8.05228
▁خوبی	-8.05455
▁ثال	-8.05679
▁زمین	-8.05997
▁شرایط	-8.0613
▁گر	-8.06714
▁همراه	-8.06943
▁تبدیل	-8.07008
▁گذاری	-8.07265
▁گزارش	-8.07277
▁شب	-8.07542
▁شکل	-8.07673
▁گذار	-8.08057
▁عمل	-8.08309
▁دیریت	-8.08557
▁تحت	-8.08746
▁هزار	-8.08845
▁گوید	-8.08936
▁پایان	-8.09212
▁لا	-8.09256
▁نتیجه	-8.09362
▁دسترس	-8.09796
▁فرد	-8.09817
▁خاطر	-8.09923
▁دوره	-8.1046
▁چون	-8.11465
▁بلکه	-8.11697
▁وب	-8.12021
▁کاربر	-8.12242
▁شدند	-8.12255
▁صحبت	-8.12339
▁اجازه	-8.12408
▁داریم	-8.12445
▁مواد	-8.12828
e	-8.12922
▁شاید	-8.13038
س	-8.13333
▁اید	-8.13646
▁پول	-8.14053
▁مان	-8.1408
عداد	-8.14733
▁بیمار	-8.14794
▁یماری	-8.15065
▁شناخت	-8.15133
ما	-8.15372
▁عمولا	-8.15454
▁دلار	-8.15456
▁آغاز	-8.15667
▁کردم	-8.1579
▁مثل	-8.15946
▁زن	-8.1605
▁جمله	-8.16277
▁طرف	-8.16433
▁الات	-8.17401
▁شوید	-8.17443
▁نگاه	-8.17624
▁چین	-8.17818
▁رسد	-8.18005
a	-8.18016
▁دید	-8.18296
▁۴	-8.18508
▁طی	-8.18995
▁هستید	-8.19141
▁حل	-8.19247
▁نده	-8.19472
▁خاص	-8.19566
▁تحده	-8.19692
i	-8.19813
▁واقعی	-8.20058
▁گی	-8.20065
▁یعنی	-8.20144
▁دار	-8.20649
▁مناسب	-8.20742
▁اغلب	-8.2108
▁واقعا	-8.21861
▁گیرد	-8.21865
▁خواب	-8.2195
▁خدمات	-8.22099
▁رفتار	-8.22338
▁حمایت	-8.22442
▁اح	-8.22522
▁ساخت	-8.22644
▁مربوط	-8.22719
▁حق	-8.2394
▁مح	-8.23978
▁طالعه	-8.24563
توان	-8.25089
▁لازم	-8.25311
▁مس	-8.25441
▁داست	-8.25995
▁البته	-8.26052
▁کسانی	-8.26069
▁دوم	-8.26144
▁تیم	-8.2617
▁پروژه	-8.26537
▁انرژی	-8.26648
▁۸	-8.26762
▁کمتر	-8.27053
▁مشخص	-8.27122
▁قیمت	-8.27171
▁زمینه	-8.27306
▁زمایش	-8.27322
▁اقد	-8.27388
▁خرید	-8.27443
▁سفر	-8.27455
▁شبکه	-8.27571
▁تن	-8.27678
▁نمایش	-8.2771
▁واهد	-8.27761
▁اجرا	-8.2784
قتصا	-8.27933
▁کن	-8.28036
▁گیری	-8.28052
پس	-8.28078
▁اعلام	-8.28208
▁نهاد	-8.28538
▁آنجا	-8.28632
▁تص	-8.28674
▁۶	-8.28908
▁اینجا	-8.2892
▁رداخت	-8.29016
▁اتی	-8.2968
▁موجود	-8.3041
▁اعت	-8.3044
▁ز	-8.30456
▁سیاست	-8.30459
▁اکنون	-8.30658
▁قریب	-8.30924
▁عکس	-8.3154
▁تاثیر	-8.32032
▁رنگ	-8.32551
▁چهار	-8.32648
▁کافی	-8.32719
▁واهیم	-8.33213
▁خون	-8.33337
▁سایر	-8.33436
▁کنار	-8.33486
▁تمرکز	-8.33639
▁سریع	-8.33716
▁ایم	-8.33721
▁فرهنگ	-8.34109
▁كه	-8.34121
▁ایده	-8.34138
▁ۀ	-8.3457
▁نداشت	-8.34887
▁سیاسی	-8.35012
تظا	-8.35357
▁مرا	-8.35613
▁کمی	-8.35789
▁داشتن	-8.35814
▁نقش	-8.35821
▁شناس	-8.35914
▁درک	-8.35984
▁تک	-8.3599
▁انگل	-8.35995
▁اساس	-8.36271
▁خارج	-8.36372
▁مالی	-8.36581
▁طبیعی	-8.36586
▁نویس	-8.36624
▁جامعه	-8.36656
▁بهبود	-8.36948
لا	-8.36989
▁یشرفت	-8.3724
▁چنان	-8.37334
▁قطع	-8.37444
o	-8.37594
▁مرگ	-8.37655
▁روند	-8.37669
▁سخت	-8.37927
▁هرگز	-8.37963
▁مو	-8.38081
▁ساخته	-8.38386
▁دارم	-8.38393
▁کس	-8.38529
▁دارو	-8.38848
)	-8.38957
▁ویژه	-8.3917
▁ك	-8.39215
▁صدا	-8.39221
▁حساب	-8.39248
▁سن	-8.39332
▁موارد	-8.39428
▁بعضی	-8.39434
▁هست	-8.39947
▁حد	-8.40254
▁ساده	-8.40271
▁تل	-8.40593
▁امکان	-8.40609
▁حرکت	-8.40715
▁حداقل	-8.40792
▁وفقیت	-8.40793
▁فرزند	-8.41113
▁سرعت	-8.41303
▁پنج	-8.41347
▁طبق	-8.41474
▁رابطه	-8.41707
▁بودن	-8.41993
▁دقیق	-8.42126
▁صفحه	-8.42128
▁روسیه	-8.42318
▁علیه	-8.42628
▁خطر	-8.42779
▁عمومی	-8.42814
▁حقوق	-8.42874
▁دهیم	-8.42923
تر	-8.43078
▁یافته	-8.43173
▁امید	-8.43344
▁شخصی	-8.43419
▁دیده	-8.43541
t	-8.43912
▁آورد	-8.44017
▁ملی	-8.44082
▁C	-8.4427
▁آماده	-8.44336
▁حفظ	-8.44618
▁چیزها	-8.44711
▁علاوه	-8.44952
▁ساله	-8.44955
▁رخ	-8.45003
▁زیبا	-8.45289
▁داوند	-8.45338
▁۷	-8.45416
▁بد	-8.45436
▁یان	-8.45548
▁کام	-8.45796
▁مندان	-8.46013
▁پذیر	-8.46558
▁وضعی	-8.47205
▁A	-8.47367
ها	-8.47435
▁تع	-8.47483
▁ترس	-8.47832
▁رئیس	-8.47907
▁مکان	-8.48126
▁S	-8.48352
▁صرف	-8.4841
▁حرف	-8.49126
▁قادر	-8.49201
▁بخشی	-8.4921
▁میزان	-8.49267
▁رد	-8.49435
▁گاهی	-8.49459
▁دان	-8.49573
▁سو	-8.4958
▁ابزار	-8.49693
▁منظ	-8.49761
▁جمع	-8.49857
▁گویند	-8.49998
▁داری	-8.50016
▁سراسر	-8.50042
▁رس	-8.50056
▁ابتدا	-8.50095
▁دانید	-8.50129
▁حرفه	-8.50269
▁نور	-8.50377
▁آنان	-8.50485
▁جز	-8.50579
▁غذایی	-8.5082
ره	-8.51046
▁دختر	-8.51106
▁آسیب	-8.51153
▁سوی	-8.5137
▁درد	-8.51741
▁َ	-8.5192
ق	-8.52104
قات	-8.52164
▁آزاد	-8.52551
▁نگران	-8.53171
▁نظامی	-8.53308
▁مسئول	-8.53568
طور	-8.53671
▁نتایج	-8.53724
▁آید	-8.53905
▁خبر	-8.53924
▁مرد	-8.53972
▁شکست	-8.54482
▁زیاد	-8.54595
▁خارجی	-8.54678
▁رسید	-8.54955
▁گیرند	-8.54993
▁پایین	-8.55172
▁گران	-8.55214
▁اثر	-8.55303
▁فشار	-8.55727
▁آمده	-8.55768
▁تصویر	-8.55871
▁وا	-8.5601
▁حقیقت	-8.56043
▁گیر	-8.56046
▁ّ	-8.56105
▁دل	-8.56282
▁کدام	-8.56494
▁هستیم	-8.56727
▁رود	-8.57093
▁آور	-8.57095
▁مقدار	-8.57386
▁بندی	-8.57514
▁تریان	-8.57576
▁دهه	-8.57864
▁ى	-8.57873
▁حضور	-8.57874
به	-8.57965
▁جایی	-8.58047
▁نمود	-8.58067
▁هنر	-8.58137
ات	-8.58457
▁شاهده	-8.58515
▁فعال	-8.58581
▁کلی	-8.58788
▁تجاری	-8.58817
▁آمد	-8.58982
:	-8.59027
▁بیان	-8.59149
▁گردد	-8.59234
▁برد	-8.59309
▁مسیر	-8.5954
▁یسی	-8.59598
▁هوش	-8.5968
▁منتشر	-8.59736
▁نگه	-8.60069
▁نشده	-8.60177
▁ری	-8.60228
▁سعی	-8.60248
▁امنیت	-8.60535
▁مهارت	-8.60596
▁زا	-8.6063
▁بودم	-8.60749
▁مدل	-8.60806
▁بینی	-8.60916
▁پوست	-8.60932
رائ	-8.6128
▁حمل	-8.61417
▁غذا	-8.61808
▁بچه	-8.61826
▁عالی	-8.61887
▁محیط	-8.61918
▁کوتاه	-8.61922
▁نباید	-8.62201
▁اضافه	-8.62259
▁جو	-8.62288
▁معنی	-8.62316
▁فرا	-8.62334
▁فرصت	-8.62584
▁پشت	-8.62713
▁گزین	-8.63056
▁وزن	-8.63057
▁طرح	-8.6363
▁بگذار	-8.63774
▁مطمئن	-8.63991
▁منابع	-8.6409
▁ایشان	-8.64201
▁کش	-8.64333
▁توانا	-8.6436
▁G	-8.64494
▁موفق	-8.64553
▁روشن	-8.64909
▁مر	-8.65083
▁مرکز	-8.65147
▁خوش	-8.65197
▁راتژی	-8.65432
▁ارز	-8.65675
از	-8.65726
▁رسانه	-8.6592
▁الله	-8.66105
▁اکثر	-8.66192
▁مردان	-8.66547
▁سمت	-8.66626
▁جه	-8.66668
▁قتصاد	-8.67141
▁چیست	-8.67217
▁حالا	-8.67266
▁اندار	-8.67366
▁ثبت	-8.67978
▁گذاشت	-8.68038
▁رفت	-8.68349
▁محدود	-8.684
▁نوشته	-8.68532
▁خصوص	-8.68583
▁بیرون	-8.68946
▁اشاره	-8.69127
▁ستقیم	-8.6937
ز	-8.69539
▁روابط	-8.69553
▁اع	-8.70298
▁آل	-8.70322
▁بعدی	-8.7058
ار	-8.70667
▁توصیه	-8.70703
ول	-8.7071
▁مرحله	-8.70725
▁علاقه	-8.70821
-	-8.70876
▁حمله	-8.71006
▁ماشین	-8.71029
▁هستم	-8.71108
▁روح	-8.71139
▁بسته	-8.71142
▁باقی	-8.71205
▁ملکرد	-8.71278
▁ترکیب	-8.71533
▁ودتان	-8.71597
▁یابد	-8.71629
▁آسان	-8.71734
▁مق	-8.71856
▁فراهم	-8.71967
▁پدر	-8.72072
▁دقیقه	-8.7209
▁افغا	-8.72093
حاد	-8.72256
▁مج	-8.72397
▁متوجه	-8.724
▁مادر	-8.72707
نجر	-8.72709
▁*	-8.72716
▁تس	-8.72834
▁خودش	-8.7287
▁اهمیت	-8.7297
▁جان	-8.73075
▁توافق	-8.73093
▁یات	-8.73132
▁صنعت	-8.73229
▁توضیح	-8.73283
▁گرفتن	-8.73291
▁هسته	-8.73433
▁رند	-8.73441
▁داخلی	-8.73449
▁مخ	-8.73579
▁دادند	-8.73767
▁جموعه	-8.73791
▁نیا	-8.73951
▁ض	-8.74012
▁بلند	-8.7418
▁تشکیل	-8.74238
▁نرم	-8.74261
▁سرطان	-8.74366
▁اهداف	-8.74761
▁قسمت	-8.74782
▁اتاق	-8.74964
▁تمرین	-8.75208
▁دریا	-8.75247
▁فا	-8.75323
▁اً	-8.75349
▁عشق	-8.75398
▁ژ	-8.75443
▁شدید	-8.75457
▁جمهور	-8.75525
▁سلول	-8.75729
▁داخل	-8.75767
▁آخرین	-8.75952
▁شخص	-8.76192
▁بانک	-8.7623
▁تحصیل	-8.76241
▁نگ	-8.76393
▁تشخیص	-8.76437
▁درآمد	-8.76513
▁سالم	-8.76793
▁دانند	-8.76843
گی	-8.76899
▁پاک	-8.77327
▁10	-8.77361
▁باشیم	-8.77453
▁موزان	-8.77518
▁نبود	-8.7766
▁تج	-8.77983
▁محل	-8.78029
▁اقعیت	-8.78218
اً	-8.784
▁تکن	-8.7855
▁بینید	-8.78596
▁جریان	-8.78632
▁نقلاب	-8.78962
▁امر	-8.79016
موش	-8.79128
▁شناسی	-8.79175
▁بشر	-8.79194
▁تون	-8.7922
▁گان	-8.79271
▁فاصله	-8.79314
▁عل	-8.79505
▁رهبر	-8.79547
▁تبلیغ	-8.79558
▁رژیم	-8.79719
▁مشتری	-8.79829
▁B	-8.79885
▁مدرسه	-8.79919
▁فصل	-8.79927
▁پیما	-8.80083
▁نهایت	-8.80105
▁قلب	-8.8011
▁پرداز	-8.80304
▁شتباه	-8.80575
▁پا	-8.80594
▁افتاد	-8.80643
▁حالت	-8.807
▁کردیم	-8.80902
▁آزادی	-8.81098
▁درون	-8.81152
▁بحث	-8.81259
یدار	-8.81411
▁انواع	-8.81466
▁آلمان	-8.8147
▁ار	-8.81514
▁تعیین	-8.81534
▁نادا	-8.81565
▁ریزی	-8.81594
▁سترده	-8.81883
▁زندان	-8.81948
▁مرتبط	-8.82017
▁ترنت	-8.8203
▁سوریه	-8.82062
▁واهم	-8.82099
▁پزشکی	-8.82119
در	-8.82307
▁کنان	-8.82405
▁وسیقی	-8.82501
▁مغز	-8.8265
▁تمامی	-8.82766
▁کیفیت	-8.82794
▁مسائل	-8.82919
▁رگزار	-8.8292
▁سفید	-8.82929
▁دهنده	-8.82943
▁تهدید	-8.83338
▁مسئله	-8.83416
▁ولوژی	-8.8349
▁جوان	-8.83538
▁دهم	-8.83559
▁خیر	-8.83575
▁مناطق	-8.83619
▁سلامت	-8.83786
▁پی	-8.84139
من	-8.84367
▁جدا	-8.84446
▁ویژ	-8.84451
▁نلاین	-8.84537
گز	-8.84542
▁انگیز	-8.84608
▁ارسال	-8.84754
▁لذت	-8.84802
های	-8.84947
▁فرم	-8.85
▁شخصیت	-8.85042
▁ور	-8.85203
▁انی	-8.85328
▁نتقال	-8.85391
▁کشف	-8.85605
▁خصوصی	-8.85712
▁گوش	-8.85814
▁اسپ	-8.85822
▁ساختم	-8.86027
▁زدواج	-8.86036
▁پزشک	-8.86074
▁پیام	-8.86153
▁گرم	-8.86178
▁مقاله	-8.86187
▁کو	-8.86331
▁عد	-8.86349
▁ذهن	-8.86364
▁نسخه	-8.86404
▁اق	-8.86433
▁زنده	-8.86467
▁نمونه	-8.86469
▁ورزش	-8.86588
▁سوال	-8.86691
▁سخن	-8.8677
▁لوگی	-8.86793
▁کجا	-8.86899
▁اولیه	-8.86936
▁جویان	-8.87075
▁تحلیل	-8.87122
کار	-8.8746
▁لیارد	-8.87633
▁نکنید	-8.8771
▁رانسه	-8.87742
▁فوق	-8.87751
ختیا	-8.87978
▁محلی	-8.88035
▁تلفن	-8.88307
▁یو	-8.88667
▁اعضای	-8.88697
▁عراق	-8.8881
▁وقعیت	-8.88811
▁پیوتر	-8.88958
▁تجارت	-8.89187
▁پرو	-8.89248
▁قوی	-8.89292
▁ذ	-8.89389
▁مهوری	-8.89403
▁تأثیر	-8.89403
▁e	-8.89468
▁مثبت	-8.89627
▁عامل	-8.89823
▁نمای	-8.89917
▁خط	-8.9005
▁سوم	-8.90395
▁راحت	-8.90396
▁نقل	-8.90535
▁اخیر	-8.90588
▁تماس	-8.90677
▁قرن	-8.90689
▁عضو	-8.907
▁پشتی	-8.90733
▁عداد	-8.90858
کر	-8.9091
▁سود	-8.91005
▁راست	-8.91154
▁ترک	-8.9119
▁تصور	-8.91613
▁آتش	-8.9174
▁کره	-8.91968
▁مدیر	-8.92063
▁گرد	-8.92082
▁افزار	-8.92135
▁زده	-8.92164
▁گسترش	-8.92202
▁الاتر	-8.92313
▁ترکیه	-8.92448
▁دانم	-8.92653
▁رفتن	-8.9266
▁وانین	-8.9271
▁ٔ	-8.93048
▁ء	-8.93059
▁دگاه	-8.93201
▁صلح	-8.93352
▁سنگ	-8.93373
▁دفاع	-8.93505
▁شنبه	-8.93589
▁جدی	-8.9376
▁ازگشت	-8.93895
▁ناش	-8.94107
▁مک	-8.94131
▁پسر	-8.94158
▁دانست	-8.9419
▁گل	-8.94362
▁متر	-8.94395
▁خودرو	-8.94407
▁ریکا	-8.94476
▁صد	-8.94569
▁تازه	-8.94658
▁تنظیم	-8.94675
▁نقطه	-8.9484
▁حیوان	-8.94911
▁ترامپ	-8.95072
▁آقای	-8.95246
▁تاب	-8.95381
▁عبارت	-8.95384
▁آدم	-8.95468
▁شبیه	-8.9547
▁اطمی	-8.95583
▁جنسی	-8.95594
▁متخصص	-8.95621
▁رسیده	-8.95714
▁قدر	-8.95804
▁زیست	-8.95903
▁علی	-8.96253
▁تب	-8.96376
▁چقدر	-8.96509
▁حافظ	-8.96693
▁اص	-8.96792
▁بارزه	-8.96851
▁قصد	-8.97045
▁مجبو	-8.97086
▁ing	-8.97148
▁نفس	-8.97391
گاه	-8.97521
▁ریز	-8.97642
▁پل	-8.97749
▁اطراف	-8.97948
▁دکتر	-8.98036
فید	-8.98036
▁حس	-8.98303
▁نفت	-8.98402
▁اعمال	-8.98439
▁دگیری	-8.98444
▁یر	-8.98636
▁سازد	-8.98745
▁قدیمی	-8.9926
▁نشانه	-8.9929
d	-8.99365
▁مقابل	-8.99498
▁حزب	-8.99498
▁گو	-8.99659
▁هداشت	-8.99705
▁خودم	-8.99729
▁معرفی	-8.99738
▁مشترک	-8.99745
▁گوگل	-8.99747
▁شدت	-8.99785
▁وجه	-8.99875
▁چطور	-9.00049
▁جمعیت	-9.00163
▁ُ	-9.00167
▁جستجو	-9.00241
▁ورشید	-9.00266
▁E	-9.00311
▁یانه	-9.00362
▁دستور	-9.00555
▁صبح	-9.00657
▁لو	-9.00661
▁ماند	-9.00836
ى	-9.00852
▁دانیم	-9.00957
▁ساز	-9.00962
▁فضای	-9.01104
▁سیاه	-9.01141
▁آورده	-9.01169
▁رسیدن	-9.01434
▁روم	-9.0155
یت	-9.01562
▁یون	-9.01656
▁پژوهش	-9.01747
▁عمر	-9.02028
▁جلو	-9.02219
▁ثاب	-9.02253
s	-9.02265
▁نکت	-9.02339
▁پست	-9.02497
▁موثر	-9.0251
اص	-9.0257
▁لباس	-9.02592
▁ازدید	-9.02594
طالع	-9.02676
▁قایسه	-9.02762
▁داند	-9.02868
n	-9.0291
خش	-9.02938
▁رقابت	-9.03017
▁لیست	-9.03198
▁نیو	-9.03479
▁۱۰	-9.03561
▁کلاس	-9.03646
▁هند	-9.03653
▁دچار	-9.03702
▁آخر	-9.03751
▁رسمی	-9.03839
▁همسر	-9.03995
▁رفته	-9.04149
▁زود	-9.04561
▁ربین	-9.04788
▁راحتی	-9.04828
▁اختار	-9.04953
▁دندان	-9.05173
▁علمی	-9.05204
اصل	-9.05303
ویز	-9.05631
▁قرآن	-9.05784
▁هفت	-9.05826
▁تخ	-9.05898
▁رم	-9.06113
▁P	-9.06114
▁ژاپن	-9.06312
▁وسیل	-9.06318
قرار	-9.06326
▁زد	-9.06402
▁ظاهر	-9.0645
▁فردی	-9.06883
▁D	-9.07118
▁منیتی	-9.07289
▁بات	-9.07317
رض	-9.07359
▁پرواز	-9.07575
▁ضد	-9.07667
▁پایه	-9.077
شترا	-9.07788
▁فضا	-9.07802
▁راقبت	-9.0783
▁خاصی	-9.07858
▁موتور	-9.08008
▁ملیات	-9.08038
▁رنج	-9.08233
▁افتد	-9.08327
▁فرو	-9.08337
▁عرب	-9.08546
▁خورد	-9.08648
▁مشابه	-9.0872
▁الت	-9.08745
▁نحو	-9.08811
ده	-9.08815
▁بند	-9.08866
▁ـ	-9.08885
▁دمو	-9.09028
▁حققان	-9.09082
▁مبت	-9.09094
عهد	-9.0913
▁ابر	-9.09277
▁افزو	-9.09447
▁امام	-9.09459
▁سبک	-9.09476
▁تری	-9.09653
▁واکنش	-9.09666
▁خوردن	-9.09837
▁جالب	-9.10104
▁شش	-9.10139
▁منبع	-9.10177
▁آرام	-9.10341
▁توانم	-9.10365
▁حکومت	-9.10635
▁علائ	-9.10635
▁تعری	-9.10821
▁شا	-9.11206
▁دیجی	-9.11235
▁درجه	-9.11325
▁عمیق	-9.11469
▁ژن	-9.11558
▁وزیر	-9.11678
▁a	-9.11695
▁ودشان	-9.11746
▁بیا	-9.11948
▁دولتی	-9.12207
▁مانده	-9.13059
▁امل	-9.13111
▁هدایت	-9.13437
y	-9.1352
▁ضروری	-9.13574
▁لحظه	-9.1361
▁گون	-9.13711
▁رشته	-9.14127
▁سلامی	-9.14148
▁متوسط	-9.14195
▁دشوار	-9.1429
▁ندگان	-9.14344
▁ستین	-9.14395
▁پلیس	-9.14707
▁اگرچه	-9.14708
▁تکرار	-9.14769
▁مطرح	-9.14961
▁F	-9.14975
▁مواجه	-9.15124
▁حذف	-9.15155
▁ماهی	-9.15329
▁عاشق	-9.15444
▁امور	-9.15453
▁موجب	-9.15565
▁M	-9.15625
c	-9.15625
نگ	-9.15693
▁شیر	-9.15855
▁نکرده	-9.15862
▁حوز	-9.15963
▁کلمه	-9.16229
▁معنا	-9.16348
صلاح	-9.16421
▁ورود	-9.16511
▁چالش	-9.16721
▁شمالی	-9.16741
p	-9.16789
▁رساند	-9.16857
▁مانی	-9.16923
▁جذب	-9.17004
▁سپ	-9.17084
▁گردان	-9.17134
▁مدرن	-9.17198
تا	-9.17326
▁کنون	-9.1754
▁درگیر	-9.17561
▁سی	-9.17754
▁تهی	-9.17785
▁زل	-9.17817
▁نجات	-9.17933
▁شیمی	-9.1794
▁ثروت	-9.18084
▁The	-9.18086
▁اي	-9.18134
▁ظ	-9.18295
▁آمیز	-9.18582
ند	-9.18871
▁اردار	-9.1889
▁واحد	-9.18897
▁الگو	-9.19004
▁•	-9.19182
▁عوامل	-9.19286
▁تحد	-9.19359
▁واسته	-9.1949
▁ذکر	-9.19501
▁عهد	-9.19599
▁تلاف	-9.19689
ید	-9.19803
▁ینگ	-9.19874
▁ارتش	-9.20027
▁زی	-9.20074
▁معمول	-9.20088
▁ماده	-9.20094
▁ترو	-9.20118
▁خانم	-9.20237
▁گرا	-9.20313
▁داران	-9.20331
▁ناک	-9.20392
▁اساسی	-9.20418
▁شک	-9.20429
▁اتیک	-9.2046
▁واندن	-9.20503
▁بزرگی	-9.20585
▁مخالف	-9.20798
▁خلق	-9.20819
▁سابقه	-9.20837
▁موزشی	-9.209
▁منتظر	-9.21002
▁ستاره	-9.21009
▁نشین	-9.21043
▁عق	-9.21105
▁اویر	-9.21195
▁فایل	-9.21274
▁داشتم	-9.21387
گر	-9.21414
▁بیت	-9.21533
▁یگان	-9.21584
▁شغل	-9.21593
▁حتوا	-9.21617
▁علم	-9.21628
یا	-9.21645
▁اپل	-9.22128
▁بگیرد	-9.22198
▁یچیده	-9.22235
▁دام	-9.22335
▁زند	-9.22363
▁of	-9.22444
▁گذشت	-9.22691
▁واره	-9.22716
▁دیدن	-9.22764
▁معنای	-9.23143
▁ناوری	-9.23267
▁روان	-9.23355
▁شیوه	-9.23453
▁بحران	-9.235
l	-9.23605
▁پرس	-9.23641
▁گویید	-9.23651
▁کارت	-9.23879
▁آنکه	-9.24077
▁مط	-9.24354
▁الدین	-9.24538
▁یش	-9.24559
▁بله	-9.24572
▁کشته	-9.24733
▁پار	-9.24914
▁مب	-9.24921
▁خشونت	-9.24959
▁رتیب	-9.25072
▁کلیدی	-9.25213
▁جواب	-9.2528
▁نسل	-9.25425
▁هاست	-9.2552
یک	-9.25593
▁اون	-9.25658
▁I	-9.25676
▁خدمت	-9.25705
▁گام	-9.25769
▁دلایل	-9.26048
▁شویم	-9.26074
▁شنید	-9.26209
▁تالیا	-9.26373
▁درس	-9.26399
▁گفتند	-9.26734
▁on	-9.26752
▁رهبری	-9.26801
▁اسلام	-9.26905
توقف	-9.27023
▁مگر	-9.27045
ایل	-9.27059
▁فریقا	-9.27109
▁میر	-9.27178
▁قامات	-9.27219
▁شدم	-9.27356
▁عتبار	-9.27433
▁بستگ	-9.27455
ریتا	-9.27543
▁پارک	-9.27555
▁قبلی	-9.27565
▁جنوبی	-9.27583
▁استرس	-9.2779
▁ئی	-9.27858
▁ون	-9.27862
▁ذخیر	-9.27986
▁انیا	-9.28074
▁شارکت	-9.28088
▁ایمیل	-9.28122
▁مهندس	-9.28197
▁رآیند	-9.28308
▁سرویس	-9.28308
▁قبول	-9.28314
▁تست	-9.28372
▁وشحال	-9.28419
لو	-9.28526
▁بردار	-9.28583
▁بالای	-9.28617
▁فرما	-9.28662
▁متع	-9.28836
▁طلا	-9.28933
▁گذر	-9.29305
▁راهی	-9.2935
▁تی	-9.29374
▁رها	-9.29427
▁رب	-9.29563
v	-9.29564
▁شماره	-9.29738
▁باشم	-9.29927
▁محبوب	-9.3008
▁تقوی	-9.30081
▁وزارت	-9.30083
شت	-9.30093
▁H	-9.30168
▁رتبه	-9.30216
ۀ	-9.30219
▁آوردن	-9.30249
▁منفی	-9.30461
▁R	-9.30533
عتقا	-9.30585
▁ریم	-9.30682
▁هوایی	-9.30774
▁رالیا	-9.30986
▁یشان	-9.31205
▁زم	-9.31353
▁عرضه	-9.31436
مایل	-9.31484
▁نماید	-9.31545
▁tion	-9.31657
▁سلاح	-9.31658
▁ول	-9.31766
▁کلمات	-9.31901
▁اسم	-9.31925
▁مد	-9.3199
▁دودیت	-9.32019
▁ریا	-9.32051
ایست	-9.32378
▁سون	-9.32424
▁اصلا	-9.3258
▁نرخ	-9.32686
▁زدن	-9.32843
▁دروغ	-9.3303
▁کشتی	-9.33128
▁ضعیف	-9.33145
▁پیر	-9.33304
▁سا	-9.33411
▁نظار	-9.33494
▁یدن	-9.33569
▁پوشش	-9.33631
▁اخلاق	-9.33723
▁الیات	-9.33733
▁نصب	-9.33989
بلیت	-9.34172
▁استان	-9.34376
ح	-9.34428
▁نهایی	-9.34454
▁مي	-9.34462
▁ارشد	-9.34494
▁مشغ	-9.34583
▁أ	-9.34728
▁یابان	-9.34946
▁نوشت	-9.34972
▁پدید	-9.35011
▁T	-9.35019
▁اظها	-9.3513
▁هتل	-9.35136
▁مهمی	-9.35271
▁مسافر	-9.35477
▁هشدار	-9.35714
▁یب	-9.35739
▁مستقل	-9.36071
▁کنی	-9.36086
▁یسم	-9.36205
▁متن	-9.36466
زد	-9.36548
▁ث	-9.36598
▁نوشتن	-9.36664
▁آفرین	-9.36666
▁شنو	-9.36693
▁صاحب	-9.36771
▁تف	-9.36935
▁مسلم	-9.37164
▁گم	-9.37236
▁قو	-9.37246
▁ادعا	-9.37263
▁20	-9.37263
▁برسد	-9.37287
▁قدم	-9.37303
▁وانان	-9.37475
▁یزیکی	-9.37624
▁تلال	-9.37644
گفت	-9.37794
وب	-9.37799
▁خلاق	-9.37867
▁حفاظ	-9.37986
▁میشود	-9.37987
▁عوض	-9.37987
▁بس	-9.38006
دا	-9.38006
▁اصل	-9.38011
▁سگ	-9.38046
▁ملل	-9.38142
ص	-9.38305
▁عین	-9.38448
▁تقسیم	-9.38471
▁برادر	-9.38476
ين	-9.38538
▁اد	-9.3855
▁سالگی	-9.3855
▁آگاهی	-9.38558
▁اهل	-9.38569
▁وعده	-9.3863
u	-9.38675
▁اسی	-9.38684
حصر	-9.3882
▁رف	-9.3885
▁مثلا	-9.38875
▁سری	-9.38923
▁al	-9.38943
▁اداره	-9.38992
▁گفتم	-9.39003
▁تین	-9.39039
▁ترام	-9.39106
▁امن	-9.39156
▁فیس	-9.39311
عرض	-9.39342
▁خاک	-9.39428
▁ودمان	-9.39457
▁حافظه	-9.39531
▁حاکم	-9.39608
▁آسمان	-9.3971
▁شورا	-9.39852
▁مال	-9.40298
▁شمار	-9.4034
▁اقامت	-9.40437
▁مرکزی	-9.40674
▁نتشار	-9.40684
▁چاپ	-9.4069
▁الان	-9.40797
▁ارت	-9.40858
▁فرانس	-9.40943
▁گناه	-9.40947
▁محتوا	-9.40995
▁غربی	-9.41055
▁ورد	-9.41091
ک	-9.41103
▁میکند	-9.41185
▁چینی	-9.4135
▁دعا	-9.41378
▁بیاور	-9.41509
▁آسیا	-9.41812
▁نظام	-9.41815
تلفی	-9.41927
▁قربان	-9.41943
▁تایید	-9.42077
▁لامتی	-9.42082
▁دفتر	-9.42203
▁غرب	-9.42205
▁پیون	-9.42214
▁وار	-9.42233
▁خواند	-9.42329
▁شهرها	-9.42454
▁رده	-9.42544
▁چرب	-9.42576
▁علوم	-9.42578
▁دین	-9.42602
▁جویی	-9.42712
▁له	-9.42789
▁لحاظ	-9.42822
▁گوشی	-9.43012
▁عادی	-9.43115
▁دانل	-9.43413
▁ذیرفت	-9.43458
▁ایمان	-9.43585
▁تفکر	-9.43623
▁کیلو	-9.43628
▁دسته	-9.43735
▁دقت	-9.43743
▁راغ	-9.43769
▁مطلب	-9.43845
▁اژ	-9.4397
▁رغ	-9.44047
لق	-9.44131
▁منافع	-9.44231
▁سوخت	-9.44249
▁بوک	-9.44326
▁فن	-9.44489
▁سبز	-9.4449
▁پیاد	-9.4452
▁نباشد	-9.44561
▁تولد	-9.44751
▁تحریم	-9.44874
لکتر	-9.4493
▁نت	-9.45138
▁خوان	-9.45174
▁آش	-9.45228
▁جراحی	-9.45258
▁بینیم	-9.45531
▁روزی	-9.45591
▁ارم	-9.45722
▁استاد	-9.45743
▁بقی	-9.45837
یند	-9.45949
▁بن	-9.45972
▁معتق	-9.46051
▁مسیح	-9.4608
▁تیک	-9.46274
▁كرد	-9.46331
▁شاه	-9.46469
▁فعلی	-9.4659
▁دم	-9.46636
▁مؤ	-9.46859
▁وس	-9.46947
▁لعاده	-9.46968
مین	-9.4702
▁چرخه	-9.47211
▁قهوه	-9.47233
▁هاجرت	-9.47234
▁بودجه	-9.47234
▁نخست	-9.47304
زم	-9.47326
▁آگاه	-9.47392
▁تضم	-9.47395
▁چگون	-9.47396
▁فرمود	-9.47549
▁پرست	-9.47573
▁عادت	-9.47645
▁دیوار	-9.47649
▁ادشاه	-9.47766
▁N	-9.47949
▁ضرب	-9.47973
▁اک	-9.48018
▁تکنیک	-9.48052
سط	-9.48057
▁اسک	-9.48079
▁آموز	-9.48116
▁جذاب	-9.48167
▁آشکار	-9.48316
▁ریح	-9.48458
▁رداشت	-9.48505
▁انده	-9.48512
▁دیو	-9.48688
▁صنعتی	-9.48693
▁جنب	-9.48768
▁30	-9.48826
k	-9.49012
▁دیدار	-9.49019
▁گاز	-9.49253
▁زهای	-9.49331
▁بل	-9.49377
▁ایت	-9.49391
▁چهارم	-9.49448
▁میخ	-9.49594
▁آشنا	-9.49653
▁بستان	-9.49654
▁برق	-9.4966
▁خواه	-9.49715
▁پرسش	-9.49853
▁عجیب	-9.49925
▁صاحبه	-9.49941
▁لاک	-9.49961
▁آیند	-9.50028
▁توصی	-9.50117
▁مفهوم	-9.50333
▁کوه	-9.50367
که	-9.50376
▁یهودی	-9.50563
▁رافیک	-9.50614
▁مغ	-9.50731
روج	-9.50742
▁عقب	-9.50831
▁ایدار	-9.50854
▁le	-9.50923
▁منتقل	-9.51035
▁ترجمه	-9.51106
▁جلسه	-9.51119
▁'	-9.51161
▁یرانی	-9.51181
▁وضع	-9.51218
▁شاهد	-9.51232
▁بدهید	-9.5124
▁اره	-9.51411
▁نوزاد	-9.51435
▁روغن	-9.5144
▁رحم	-9.51455
▁طبیعت	-9.5158
▁بودیم	-9.51711
▁وبلاگ	-9.51712
▁in	-9.51714
گهدا	-9.5175
▁ینه	-9.51843
▁فوری	-9.51988
▁ترجیح	-9.52129
▁وانند	-9.52138
▁خشک	-9.52149
▁هایش	-9.52176
▁te	-9.52197
▁کی	-9.52299
▁تامین	-9.52334
▁بدی	-9.52546
▁مص	-9.52564
▁جنوب	-9.52636
▁کارها	-9.52638
▁متحان	-9.52693
▁صحنه	-9.52837
b	-9.52944
▁کلید	-9.52946
▁عفونت	-9.52998
میل	-9.53063
▁شمال	-9.53081
▁بینند	-9.53109
▁جزیره	-9.53112
▁خویش	-9.53114
▁بنا	-9.53309
▁نابو	-9.53347
▁تعطیل	-9.53391
▁زرگتر	-9.53401
▁نش	-9.53496
▁ناسان	-9.53511
▁مدار	-9.53532
▁جایزه	-9.53557
▁اط	-9.53649
رخور	-9.5367
▁امضا	-9.53674
▁نمایی	-9.53692
▁بردن	-9.53781
▁ایمنی	-9.5379
▁هیجان	-9.53824
▁بلا	-9.53832
▁رایش	-9.53984
▁دعوت	-9.54017
▁ائ	-9.5405
▁طرناک	-9.541
▁رمان	-9.54129
▁کد	-9.54236
▁فهمید	-9.54257
▁فق	-9.54353
▁لند	-9.54424
▁نقاط	-9.54527
▁عبور	-9.54548
▁وانید	-9.54606
▁اندو	-9.54632
▁ویروس	-9.54843
▁مایل	-9.54847
▁چی	-9.54897
▁ماس	-9.55017
▁ملت	-9.55073
مب	-9.55096
یتام	-9.55099
▁پای	-9.55212
▁لینک	-9.55272
r	-9.55344
▁قاومت	-9.55387
▁باب	-9.5539
▁نین	-9.55602
▁متصل	-9.55687
▁نوعی	-9.55691
▁کانال	-9.55738
▁L	-9.55789
▁کردید	-9.55825
▁نما	-9.5597
▁یورک	-9.56168
▁سرد	-9.56196
▁عودی	-9.56224
▁رز	-9.56401
▁گردید	-9.56436
▁قول	-9.56481
▁دیران	-9.56504
▁لسطین	-9.56546
▁طات	-9.56665
▁گروهی	-9.56765
▁آزمون	-9.56846
▁ازیگر	-9.56855
▁اصول	-9.56868
▁تحمل	-9.56873
▁سک	-9.56953
▁تشوی	-9.57002
▁وتبال	-9.57131
▁عر	-9.57183
▁قرمز	-9.5719
▁ملا	-9.57276
▁زئیات	-9.57277
▁برنده	-9.57326
▁الهی	-9.57339
▁نیمه	-9.57352
▁شانس	-9.57547
▁خنران	-9.57571
▁معروف	-9.57581
▁دشمن	-9.57719
▁ربا	-9.57735
▁یافتن	-9.57773
اطب	-9.57899
▁ستم	-9.57911
▁بکش	-9.5803
▁رزمین	-9.58037
▁یده	-9.58051
▁دیر	-9.58133
▁قی	-9.58159
▁همکار	-9.58215
▁موزه	-9.5824
▁حساس	-9.58313
▁کلیسا	-9.58317
▁برگ	-9.58324
▁دهان	-9.58338
▁آی	-9.58402
لط	-9.58413
▁آگ	-9.58476
▁یع	-9.58509
▁یلادی	-9.58757
روز	-9.58898
▁هیزات	-9.58913
▁سایه	-9.58969
▁کارگر	-9.59057
▁باغ	-9.59083
▁فرار	-9.59187
▁ویدئو	-9.59218
▁پنهان	-9.59361
▁زایا	-9.59417
▁زودی	-9.59466
▁چپ	-9.59577
▁مون	-9.59589
▁15	-9.5965
▁انجمن	-9.59663
▁بدان	-9.59734
▁تعامل	-9.59743
▁نظریه	-9.59809
▁سند	-9.59842
▁جنبش	-9.5986
▁یروزی	-9.59943
▁بروید	-9.59977
حاسب	-9.60095
▁برده	-9.60097
▁نیم	-9.6011
▁قا	-9.60132
▁انند	-9.60405
▁وظیفه	-9.60417
▁وندان	-9.60491
▁حکم	-9.60624
▁ایالت	-9.60711
▁ریسک	-9.6072
▁۲۰	-9.60727
٪	-9.60777
▁ره	-9.60864
▁خواهی	-9.60946
▁ثانیه	-9.61031
▁نگیزه	-9.61319
▁حضرت	-9.61336
▁زنند	-9.61364
▁نی	-9.61438
▁وام	-9.6158
▁عملی	-9.616
▁اقل	-9.61735
m	-9.61736
▁اتوم	-9.61754
▁موقع	-9.6178
▁پو	-9.61903
▁لین	-9.62028
▁تغذیه	-9.6224
▁گفتگو	-9.62269
▁انش	-9.62292
▁موسس	-9.62405
▁صاد	-9.62432
▁لس	-9.62472
▁شر	-9.62582
▁سختی	-9.62699
▁شهری	-9.62816
رزو	-9.62826
▁واضح	-9.62859
▁نس	-9.63115
▁بیو	-9.63125
روتئ	-9.63182
▁اندن	-9.63306
▁امسال	-9.63327
▁یپ	-9.63447
▁12	-9.63455
▁رک	-9.6348
▁تعادل	-9.63482
▁یامبر	-9.63483
▁اضافی	-9.63492
▁مداوم	-9.63638
▁بمان	-9.63784
▁ممنوع	-9.63829
چسب	-9.63866
▁حسین	-9.63926
▁عظیم	-9.63951
▁سابق	-9.64095
▁تامبر	-9.6411
▁رت	-9.6411
▁دبی	-9.64278
ینه	-9.64386
▁صحیح	-9.64428
▁نماز	-9.64445
▁انت	-9.64458
▁ناپ	-9.64539
▁انویه	-9.64659
▁کشد	-9.64662
▁فنی	-9.6492
▁سیم	-9.64973
▁سرگرم	-9.65055
▁آورند	-9.65086
▁چهره	-9.65153
▁توزیع	-9.65214
▁پیوست	-9.65222
▁مطالب	-9.65243
▁روب	-9.65447
▁رایی	-9.65471
▁قابله	-9.65471
▁سؤال	-9.65532
▁عمولی	-9.65533
▁سردگی	-9.65556
▁گفتن	-9.65608
▁O	-9.65668
▁ایر	-9.65694
▁روستا	-9.65714
▁هرمان	-9.65731
▁بدهد	-9.65759
▁يد	-9.65787
▁وال	-9.65818
▁لیم	-9.65838
ck	-9.65855
▁شغلی	-9.65907
▁میوه	-9.65935
دست	-9.65967
▁خدای	-9.66162
رغ	-9.66212
▁گری	-9.66265
▁داکثر	-9.66332
▁میدان	-9.66382
▁رسند	-9.66387
▁یخ	-9.66399
▁ویزا	-9.66403
▁پذیرش	-9.665
▁شماست	-9.66511
▁خصوصا	-9.6657
▁ne	-9.66641
▁قلبی	-9.66683
▁جرم	-9.66732
▁خواهم	-9.6683
▁سلمان	-9.66991
▁سیاره	-9.67004
▁گهان	-9.67185
▁زنش	-9.67207
▁آثار	-9.67301
▁مراحل	-9.67301
▁روید	-9.67468
▁شوم	-9.67678
▁زای	-9.67793
▁سنگین	-9.67892
▁مجدد	-9.67952
ندیش	-9.68028
▁محسو	-9.68135
▁رق	-9.68143
ـ	-9.68273
▁بگویم	-9.68281
▁نشست	-9.68444
▁قاع	-9.68549
اکید	-9.6859
▁متیاز	-9.68608
▁رضایت	-9.6878
؟	-9.68965
▁رش	-9.68966
▁فرمان	-9.69023
ناب	-9.69072
▁مطابق	-9.69101
▁قتل	-9.69201
▁رستاد	-9.69266
▁ستر	-9.69358
قام	-9.69446
▁تخم	-9.69496
g	-9.69506
▁ستجوی	-9.69598
▁صادق	-9.69619
▁تأ	-9.69655
▁X	-9.69695
▁کر	-9.69698
▁یج	-9.69701
چند	-9.69702
▁اندک	-9.6974
▁فیل	-9.69742
▁مهاجر	-9.69764
سیس	-9.69796
▁خاور	-9.69816
▁آهنگ	-9.69833
▁حاو	-9.69981
▁رید	-9.69987
▁بیمه	-9.70008
▁۳۰	-9.70032
▁خدام	-9.70055
▁بدین	-9.70083
▁سیگار	-9.70108
▁ــ	-9.70382
▁لطفا	-9.70391
▁رورش	-9.70428
▁سلام	-9.70492
▁یوم	-9.70542
▁جاده	-9.70707
▁ارزان	-9.70729
▁تهران	-9.70766
▁مجوز	-9.70771
▁نفوذ	-9.70934
یق	-9.71068
▁ذاکره	-9.71103
▁شو	-9.71138
▁قت	-9.71167
▁راز	-9.71272
جزی	-9.71281
▁رین	-9.71286
▁سفارش	-9.71463
▁رداز	-9.71527
صال	-9.71551
رق	-9.71572
▁نقشه	-9.71708
▁آر	-9.718
▁عصب	-9.71891
▁دت	-9.71938
▁کریس	-9.72139
ون	-9.72141
▁یکسان	-9.72163
▁کده	-9.72186
▁گین	-9.72186
▁بدتر	-9.72203
▁وسیع	-9.723
▁50	-9.72351
▁تقد	-9.72383
▁ستون	-9.72407
▁رون	-9.72417
▁سوء	-9.7247
▁گانه	-9.72576
▁سهام	-9.72583
▁ذا	-9.72721
ساله	-9.72731
حکوم	-9.72817
▁ابت	-9.72923
▁پاس	-9.73051
▁زداشت	-9.73161
▁راضی	-9.73278
▁نژاد	-9.73317
با	-9.73354
▁گیا	-9.73388
نتقا	-9.73591
▁طلاح	-9.73678
▁فهر	-9.73707
▁کلیک	-9.73755
▁خلاصه	-9.73776
لغ	-9.73809
▁متعدد	-9.73836
▁بپرس	-9.7384
▁صبر	-9.73876
▁فهم	-9.73922
▁عامله	-9.74012
زار	-9.74028
فتخا	-9.74053
▁لندن	-9.74152
▁بنی	-9.74221
▁مبتن	-9.74234
▁آهن	-9.74309
▁دها	-9.74321
یب	-9.74373
اج	-9.74378
ّ	-9.74446
▁ساک	-9.74467
▁ابه	-9.74546
نسو	-9.74549
▁یض	-9.74557
▁موشک	-9.74711
رج	-9.74776
▁بهشت	-9.74825
▁کاف	-9.74834
▁تدر	-9.74872
▁القو	-9.749
▁ریف	-9.74947
▁عدالت	-9.75055
▁محمد	-9.75056
وق	-9.7506
▁درخت	-9.75084
▁اثرات	-9.7512
ذاکر	-9.75132
▁تمیز	-9.75233
▁جشن	-9.75252
▁دف	-9.75312
▁مصر	-9.75322
▁نندگی	-9.75329
▁برند	-9.75331
تحص	-9.75341
▁ریشه	-9.75347
ریک	-9.75417
▁مرز	-9.75508
▁ستگاه	-9.7552
▁ساحل	-9.75762
▁تحول	-9.75771
▁حرک	-9.75893
▁برمی	-9.75935
D	-9.76044
▁گوشت	-9.76169
▁گوییم	-9.76219
▁یتان	-9.76269
▁سقوط	-9.7629
▁راساس	-9.76291
▁ببرید	-9.76295
▁مایید	-9.76299
▁فضایی	-9.76305
▁یست	-9.76319
▁جانب	-9.76426
▁بردی	-9.76468
▁ساختن	-9.76477
▁ارتق	-9.76481
▁بیل	-9.7652
▁کمبود	-9.7665
▁دیدم	-9.76655
▁نزد	-9.76668
مار	-9.76694
▁سنج	-9.76737
▁en	-9.76813
▁مشهور	-9.77003
▁هویت	-9.77013
رور	-9.7706
▁یف	-9.77075
▁مشاور	-9.77182
▁بینم	-9.77212
]	-9.77276
▁ناس	-9.77301
▁زون	-9.77362
▁اهیم	-9.77394
▁دهی	-9.77413
واهد	-9.7747
▁طلب	-9.77471
▁y	-9.77492
▁نیمی	-9.77543
▁ارچ	-9.77555
▁همچون	-9.77728
▁سازند	-9.77756
▁Wi	-9.77764
▁اله	-9.77828
▁طب	-9.77886
▁ویا	-9.77937
▁ين	-9.77997
▁سنت	-9.78024
▁ابو	-9.78211
▁خانگی	-9.78271
▁زنی	-9.78314
▁نبوده	-9.78379
▁باد	-9.78546
▁زشکان	-9.78624
▁اورزی	-9.78624
▁مقا	-9.78627
▁اخیرا	-9.78697
▁مارس	-9.78775
▁بنویس	-9.78805
▁زسازی	-9.78805
▁ابسته	-9.78807
▁پرسید	-9.78839
▁سنتی	-9.78866
▁ذیر	-9.7888
کن	-9.78956
▁اتر	-9.78974
▁آبی	-9.78987
▁واژه	-9.78987
▁شاوره	-9.78989
▁ردش	-9.79016
▁ویدیو	-9.79172
▁ئ	-9.79332
▁عتراض	-9.79353
▁والات	-9.79399
ادار	-9.79409
گار	-9.79428
▁عماری	-9.79451
▁رجسته	-9.79466
▁عرض	-9.79493
یر	-9.79564
▁ستن	-9.79566
▁حو	-9.79647
▁کات	-9.7969
▁الانه	-9.79735
▁وبایل	-9.79774
▁یشگی	-9.79831
▁مذهبی	-9.79868
▁یك	-9.79953
▁حجم	-9.79965
▁عیس	-9.79966
▁تور	-9.79994
▁اکتبر	-9.8009
▁خورده	-9.80117
▁الای	-9.80144
▁مایند	-9.80162
▁عزیز	-9.80273
▁تعجب	-9.80273
▁انگشت	-9.80281
▁سم	-9.80331
▁سور	-9.80412
▁عدد	-9.8044
▁the	-9.80524
▁مول	-9.80558
▁دادم	-9.80697
▁وین	-9.80707
▁برتر	-9.80711
▁+	-9.80737
▁تیر	-9.8077
▁ماست	-9.80772
▁كن	-9.8082
▁یتر	-9.80859
▁گواهی	-9.80895
▁اه	-9.80964
▁بارها	-9.80998
▁مربی	-9.81015
▁رادیو	-9.81037
▁گشت	-9.81086
▁ندارم	-9.81234
▁گویم	-9.81275
▁لمانی	-9.81382
▁راوان	-9.81408
▁خواهر	-9.81423
▁حیات	-9.81486
▁کمتری	-9.81558
▁تأیید	-9.81573
▁صفحات	-9.81575
▁هی	-9.81722
▁مقدس	-9.81763
شنگ	-9.8192
▁مراسم	-9.81948
▁قلال	-9.81949
▁el	-9.81992
میدو	-9.82116
▁عناصر	-9.82137
▁سهم	-9.82165
▁امپ	-9.82253
▁t	-9.8232
▁مجموع	-9.82324
▁سیل	-9.82376
▁طراح	-9.82514
صر	-9.82519
▁ity	-9.82705
▁لوله	-9.82757
▁عصر	-9.8285
له	-9.82883
▁سینما	-9.82911
▁خالی	-9.8304
▁مدارس	-9.83121
▁جاری	-9.83193
▁دمی	-9.8323
▁ation	-9.83271
▁کشید	-9.83667
▁رونده	-9.83761
▁>	-9.8385
▁معدن	-9.83863
▁آدرس	-9.83874
▁100	-9.83912
▁صو	-9.83994
▁هاي	-9.84027
▁قاضی	-9.84035
▁مکانی	-9.84099
ژانس	-9.84143
▁ازنده	-9.84282
▁سوز	-9.84401
▁قالب	-9.84433
▁سان	-9.84484
▁مجلس	-9.84614
▁سادگی	-9.84627
پز	-9.84763
▁فردا	-9.84783
▁اثبات	-9.84805
▁عم	-9.84879
▁۱۵	-9.84993
▁ولویت	-9.85006
▁شوهر	-9.85012
▁سبب	-9.85024
▁دود	-9.85147
▁معتبر	-9.85194
▁لاف	-9.85392
▁یس	-9.85481
▁یکه	-9.85503
▁امد	-9.8555
▁کتور	-9.85637
▁جنگل	-9.85667
▁تاریک	-9.85736
▁روبرو	-9.85778
▁عید	-9.85816
▁ران	-9.85846
▁شکر	-9.85901
▁صنوعی	-9.85972
سامب	-9.85974
▁منزل	-9.86168
▁شنوا	-9.86357
▁لی	-9.86487
▁وند	-9.86589
مل	-9.86681
▁دایی	-9.86697
▁سطوح	-9.86758
▁شام	-9.86784
وس	-9.86884
▁وحشت	-9.86944
▁ازیکن	-9.86971
▁هید	-9.8699
▁قبال	-9.87004
▁نقاشی	-9.87025
▁فرست	-9.87044
▁اشگاه	-9.87073
▁’	-9.87155
▁ظهور	-9.8716
▁وکار	-9.87189
▁نگلیس	-9.87353
▁پاریس	-9.87359
لم	-9.87395
▁۱۲	-9.87452
▁دگی	-9.87493
▁رسانی	-9.87501
ذ	-9.87562
▁ته	-9.87626
▁قلم	-9.87673
▁ریستی	-9.87693
oogl	-9.87747
▁نظیر	-9.87748
▁غن	-9.87751
▁to	-9.87757
▁جام	-9.87774
▁مجله	-9.87964
اخر	-9.88074
▁راتور	-9.88209
▁n	-9.88286
▁بال	-9.88336
کرد	-9.88354
▁نشد	-9.88382
▁عمده	-9.88445
▁مهمان	-9.88518
▁شفاف	-9.88564
▁شرقی	-9.88688
▁آرامش	-9.88858
▁ورم	-9.88897
▁وامبر	-9.88954
▁آما	-9.88983
▁پنجره	-9.89043
▁اشت	-9.89108
▁پاداش	-9.8915
▁and	-9.89165
▁وسایل	-9.89165
▁یق	-9.89288
▁دیابت	-9.89352
▁ژوئن	-9.89412
▁اردو	-9.89497
اجرا	-9.89499
▁مدرک	-9.89555
▁عده	-9.89621
▁سریال	-9.89776
▁بیست	-9.89806
▁لیب	-9.89937
▁خسته	-9.89956
▁شیطان	-9.89963
▁برگشت	-9.89973
▁بزنید	-9.89973
▁زمینی	-9.90029
▁چای	-9.90047
▁عموم	-9.90076
▁راجع	-9.90167
▁پارچ	-9.90178
▁رج	-9.90188
▁تشکر	-9.90189
▁جادو	-9.90189
▁چرخ	-9.90199
▁فرات	-9.90239
▁ادرات	-9.90239
▁چک	-9.90395
▁خشم	-9.90408
▁شرق	-9.90415
▁سرور	-9.90425
▁انگ	-9.90429
▁مار	-9.90517
▁کوین	-9.90517
▁ثبات	-9.90572
▁ظرفیت	-9.90584
مر	-9.90675
▁آپ	-9.90948
▁متولد	-9.90983
▁واستم	-9.90984
▁|	-9.90986
▁Pro	-9.90988
▁كار	-9.91113
▁اتور	-9.9115
▁حتما	-9.9117
▁منظم	-9.91178
▁ونیکی	-9.91183
▁جازات	-9.91191
▁شم	-9.913
ترین	-9.91391
ْ	-9.91395
▁رستو	-9.91523
ة	-9.91601
تاسف	-9.91649
▁K	-9.91684
▁مردی	-9.91704
▁[...]	-9.91808
▁بت	-9.91864
▁مرده	-9.91891
کز	-9.92
خورد	-9.92167
▁منطقی	-9.92236
▁اکس	-9.9249
»	-9.92556
▁لر	-9.92583
▁مپانی	-9.92641
S	-9.92684
▁انج	-9.92751
▁باما	-9.92768
▁جلب	-9.93
▁ارک	-9.93038
▁سرش	-9.93077
G	-9.93269
!	-9.93278
▁الم	-9.9331
▁زخم	-9.93312
▁مخفی	-9.93394
▁آموخت	-9.9348
▁کمیته	-9.93505
▁ادیده	-9.93512
▁وای	-9.93528
▁راک	-9.93536
ماشا	-9.93608
▁ورت	-9.93628
▁جنس	-9.93673
▁com	-9.93686
▁لایه	-9.93732
▁زاده	-9.93765
انده	-9.93822
▁بان	-9.93929
بط	-9.93949
▁رسو	-9.94083
تی	-9.9411
▁ارد	-9.9412
▁معلم	-9.94161
▁جامع	-9.94267
▁استیک	-9.94272
▁وشه	-9.94324
▁تصادف	-9.94327
▁صنایع	-9.94327
▁جاع	-9.94335
▁تصوی	-9.94415
▁عصبی	-9.94422
▁تکامل	-9.94541
پ	-9.94597
▁پیرو	-9.94664
▁دي	-9.94687
▁وظایف	-9.94753
▁na	-9.94753
▁موقت	-9.94756
▁یونان	-9.94828
▁انگار	-9.94829
▁سالان	-9.94871
▁یدند	-9.9503
▁ریاضی	-9.95106
▁هنری	-9.95152
▁ورزشی	-9.95273
▁40	-9.9528
▁سیا	-9.95396
▁nce	-9.95397
▁سیون	-9.95487
▁کشیدن	-9.9554
▁ندگی	-9.95573
▁نف	-9.95624
▁خرد	-9.95737
▁جور	-9.95934
▁دمه	-9.95975
▁تغال	-9.96043
▁ستا	-9.9606
▁نص	-9.96085
▁دیپل	-9.9623
▁نق	-9.9627
مان	-9.96317
▁25	-9.96561
▁تردید	-9.96693
ورمو	-9.96703
▁بافت	-9.96729
▁هستی	-9.96773
▁خب	-9.96859
انیه	-9.96998
▁لب	-9.97034
▁ورودی	-9.97072
کرو	-9.97088
▁مجاز	-9.97097
▁nt	-9.97214
▁تحویل	-9.97348
▁اخبار	-9.9736
▁اشی	-9.97456
▁زو	-9.9746
h	-9.97585
▁۵۰	-9.97613
ث	-9.97636
▁لزوم	-9.97788
▁میز	-9.9779
▁باتری	-9.97816
▁خارجه	-9.97903
▁شیدنی	-9.97942
یاس	-9.97952
▁یمز	-9.97962
▁معلوم	-9.98007
▁ion	-9.98009
▁ناحیه	-9.98228
▁اعدام	-9.98251
▁ماندن	-9.98333
▁پیشین	-9.98431
▁بگوید	-9.98457
▁روانی	-9.98514
▁کشوری	-9.98619
قض	-9.98633
▁کفش	-9.9872
▁هاجم	-9.98895
▁روزها	-9.98895
▁نویسی	-9.98934
۰۰	-9.99043
▁رقم	-9.99095
th	-9.99099
▁نبرد	-9.99135
▁V	-9.99142
▁صاب	-9.99179
▁_	-9.99343
▁انان	-9.99359
▁برو	-9.99384
رط	-9.99445
▁گیرید	-9.99519
▁کاغذ	-9.99562
▁معادل	-9.99563
▁چار	-9.99583
▁شور	-9.99625
عمل	-9.99647
▁وقوع	-9.9979
▁تأمین	-9.99797
▁نشود	-9.99805
▁لق	-9.99864
▁بول	-9.99913
▁انب	-9.99922
2	-9.9994
وم	-10.0021
▁فیلتر	-10.0027
▁دای	-10.0028
▁i	-10.0029
▁نیک	-10.0038
▁تحریک	-10.0047
▁W	-10.0048
▁دائمی	-10.0051
▁خورید	-10.0052
▁یاب	-10.0053
▁ریب	-10.0056
▁کمپین	-10.0071
▁هیت	-10.0072
▁ستند	-10.0077
▁غذای	-10.009
▁یشه	-10.0104
▁de	-10.0104
▁وآوری	-10.0114
▁صندلی	-10.0115
▁مندی	-10.0117
▁برود	-10.014
▁نوج	-10.014
▁آیه	-10.0146
حال	-10.0154
▁بماند	-10.0158
▁مبا	-10.0163
▁لان	-10.0168
▁سکو	-10.019
▁عربی	-10.0191
▁سئو	-10.0192
▁رکو	-10.0193
▁60	-10.0195
▁مشکلی	-10.0199
▁رایج	-10.02
▁کشیده	-10.0206
▁هیل	-10.0221
▁فدرال	-10.0229
▁عوارض	-10.0229
▁ed	-10.0235
▁حیطی	-10.0238
▁افت	-10.0244
▁هستان	-10.0245
▁کانا	-10.0248
▁پناه	-10.0252
▁کاخ	-10.0258
▁کلا	-10.0262
▁زنجیر	-10.0275
▁چاق	-10.0277
▁الکل	-10.0278
▁نکات	-10.0278
▁مف	-10.0282
عطا	-10.029
▁فقر	-10.0301
انع	-10.0313
رش	-10.0313
▁رداند	-10.0321
▁رقی	-10.0325
لی	-10.033
▁خا	-10.033
▁ارش	-10.0332
▁لبخند	-10.0344
▁مراقب	-10.0344
▁دارک	-10.0351
▁راج	-10.0353
▁مسکو	-10.0358
هم	-10.036
▁لع	-10.0361
▁حادثه	-10.0369
▁داعش	-10.037
▁گار	-10.0375
▁اتم	-10.0376
▁گرما	-10.038
▁رانه	-10.0383
▁مارک	-10.0385
▁خراب	-10.0391
▁یندوز	-10.0391
▁ضعف	-10.0393
▁دائم	-10.0409
▁ظرف	-10.0413
▁قررات	-10.0415
▁عن	-10.0421
▁18	-10.0422
▁هدیه	-10.0427
▁گزار	-10.0452
▁پیمان	-10.0457
▁رییس	-10.0463
▁سته	-10.0467
▁یانوس	-10.0468
دوار	-10.0481
▁اکتری	-10.0484
▁کف	-10.0486
▁حقوقی	-10.0489
▁نفع	-10.0491
▁نقد	-10.0508
▁U	-10.051
▁مزد	-10.051
▁یورو	-10.0511
▁ادب	-10.0523
▁11	-10.0524
▁اوت	-10.0528
▁موج	-10.0528
▁جانبی	-10.0539
▁۱۰۰	-10.0543
▁ورا	-10.0566
▁ارو	-10.0571
▁توپ	-10.0579
▁گرچه	-10.0582
▁ویی	-10.0582
▁خطا	-10.059
▁مست	-10.0591
▁نظرات	-10.0601
عامل	-10.0602
▁رنده	-10.0604
▁پرده	-10.0604
▁بخشد	-10.0622
▁کیف	-10.0635
▁اور	-10.0638
▁آمدن	-10.064
▁th	-10.0643
▁معیار	-10.0652
▁رآور	-10.0653
▁گراف	-10.0653
▁عبد	-10.0657
▁کوپ	-10.0663
▁خطوط	-10.0676
▁رعا	-10.0677
▁يا	-10.0677
▁باران	-10.0687
جدید	-10.0693
▁سام	-10.0716
▁انع	-10.0731
▁وان	-10.0734
ج	-10.0735
▁لوک	-10.0738
▁نیستم	-10.0746
▁ناسبی	-10.0756
▁ضطراب	-10.0773
▁شاخص	-10.0773
▁جسم	-10.0773
▁فلز	-10.0776
▁بو	-10.0785
▁ایست	-10.079
▁كند	-10.0797
▁شع	-10.0799
▁شوروی	-10.08
▁هو	-10.0801
سات	-10.0803
▁صده	-10.0806
▁یشن	-10.0815
▁برگرد	-10.0818
▁یابند	-10.0822
▁کنگره	-10.0824
▁نباش	-10.0832
▁گربه	-10.0836
▁انس	-10.0836
رمز	-10.0838
▁قب	-10.0838
▁موریت	-10.0849
▁ولت	-10.0858
▁یگنال	-10.087
▁ژنتیک	-10.087
▁زوج	-10.0871
▁نون	-10.0872
▁اورد	-10.0887
▁ضا	-10.09
▁فل	-10.091
▁یره	-10.0914
▁تازگی	-10.092
▁آوری	-10.0922
ایع	-10.0925
▁رضا	-10.0926
▁دادیم	-10.0928
▁ریخت	-10.093
▁re	-10.0936
▁داره	-10.0938
▁قضاوت	-10.0944
▁شل	-10.0946
▁مخدر	-10.095
▁موز	-10.0952
▁روزه	-10.0956
▁تئوری	-10.0969
▁شاغل	-10.0969
▁یکیشن	-10.0969
▁کالج	-10.0969
▁وحش	-10.0998
داخل	-10.101
▁کنه	-10.1015
▁چم	-10.1016
▁یاری	-10.1017
▁جنسیت	-10.1018
▁فلسفه	-10.1031
▁ارآمد	-10.1031
▁گویی	-10.1037
▁خالص	-10.1044
▁٬	-10.1044
▁24	-10.1054
▁شیرین	-10.1058
▁محور	-10.1062
▁مکا	-10.1068
▁تفسیر	-10.1068
▁لاخره	-10.1069
▁عکاسی	-10.107
▁ریه	-10.1073
▁لف	-10.1077
▁گرس	-10.1079
▁رنوشت	-10.1094
▁#	-10.1094
▁دلال	-10.1095
▁کاران	-10.1098
x	-10.11
▁دال	-10.11
▁تزر	-10.1113
▁اسیون	-10.1122
,	-10.1135
▁لال	-10.1137
راف	-10.1149
▁سرخ	-10.115
▁زیت	-10.1154
▁توی	-10.1156
▁هن	-10.1159
▁گردند	-10.116
▁ونز	-10.1173
▁جد	-10.1174
▁اسب	-10.1176
طالب	-10.1178
▁هرچه	-10.1183
▁ساد	-10.119
ربرد	-10.119
▁فو	-10.1197
▁رفع	-10.1198
▁عض	-10.1199
▁بران	-10.1202
▁یایید	-10.1205
▁ندر	-10.1211
▁لمان	-10.1217
▁کراین	-10.122
▁افسر	-10.1221
▁علامت	-10.1222
▁بیاید	-10.1224
▁تراع	-10.1225
▁دخانه	-10.1226
اکس	-10.1227
▁یونی	-10.1233
▁فروخت	-10.1245
▁اشکال	-10.1245
▁قالات	-10.1246
▁نک	-10.1246
▁قص	-10.1255
قدر	-10.1257
▁تویی	-10.1262
▁رویا	-10.1265
▁ویز	-10.1267
▁کثریت	-10.1271
▁پوش	-10.1274
▁شاد	-10.1277
دکار	-10.1287
A	-10.1294
▁باش	-10.1303
▁پورت	-10.1303
▁ذهنی	-10.1308
▁زرد	-10.131
▁ng	-10.1311
▁دامنه	-10.1311
▁لیک	-10.1324
▁ریتم	-10.1328
▁غان	-10.1332
تنوع	-10.1332
▁٪	-10.1336
▁شادی	-10.1347
▁جغ	-10.1355
▁هواره	-10.1365
▁مز	-10.1367
▁ct	-10.1378
%	-10.1386
▁نج	-10.139
▁بدهی	-10.139
ظاهر	-10.1391
▁نب	-10.1417
▁ضم	-10.1419
▁ریک	-10.1422
▁شار	-10.1447
▁فیزیک	-10.1451
▁اهانه	-10.1452
▁اصر	-10.1458
تریک	-10.1463
▁خبری	-10.1464
▁یدم	-10.1473
▁مؤثر	-10.1477
▁ma	-10.1477
▁خورند	-10.1478
▁یار	-10.1486
▁الی	-10.1499
▁وک	-10.1501
▁کلام	-10.1502
▁اران	-10.1504
▁سافت	-10.1504
▁جلسات	-10.1505
▁صند	-10.1514
▁عروس	-10.1515
▁یمن	-10.1515
▁میلی	-10.1518
▁وغ	-10.1522
▁الن	-10.1524
▁نرا	-10.1529
▁تجاوز	-10.153
▁آفتاب	-10.153
▁ننده	-10.1537
▁سوار	-10.1539
اهان	-10.1539
▁غم	-10.154
▁ght	-10.1556
▁مجازی	-10.1568
▁16	-10.1579
▁تبع	-10.1587
▁ئو	-10.1588
▁نل	-10.1592
▁وافقت	-10.1608
▁غریب	-10.1613
▁رور	-10.1623
▁تجرب	-10.1628
▁مرغ	-10.1629
▁١	-10.1635
▁شرح	-10.1637
▁عالم	-10.1638
▁تخصص	-10.1639
▁يک	-10.1654
▁ترنتی	-10.1659
▁تاپ	-10.1663
▁هیو	-10.167
روس	-10.1678
▁رسی	-10.1678
▁تنا	-10.1689
▁مستند	-10.169
▁دون	-10.169
▁دآوری	-10.1692
▁دمای	-10.17
▁ge	-10.1705
▁مسلح	-10.1715
▁سرکوب	-10.1715
▁پارت	-10.172
▁اسنا	-10.1721
بر	-10.1721
▁نگار	-10.1726
▁رض	-10.1731
▁سف	-10.1732
▁دانه	-10.1734
▁شکایت	-10.1742
▁&	-10.1743
▁فرید	-10.1745
▁%	-10.175
▁اذ	-10.1753
▁ادی	-10.1756
▁گرام	-10.1758
▁ثن	-10.1761
▁پدرش	-10.1763
▁جوامع	-10.1768
▁میدهد	-10.1769
▁ra	-10.1776
▁صا	-10.1781
▁شدیم	-10.1789
▁متنوع	-10.1793
▁قطار	-10.1795
▁یلی	-10.1803
▁ادرم	-10.1805
▁شکار	-10.1806
▁برج	-10.1816
▁وئیس	-10.1823
▁لودگی	-10.1823
جعه	-10.1827
▁کربن	-10.1829
▁فرصتی	-10.1829
▁اسا	-10.1832
▁تأکید	-10.1849
▁حلقه	-10.1852
▁x	-10.1853
▁هاب	-10.1856
▁ندرت	-10.1857
z	-10.1858
▁حب	-10.1876
▁ment	-10.1876
▁بدهند	-10.1877
▁تحقق	-10.1883
▁خنده	-10.1893
▁عبا	-10.1905
▁همگی	-10.191
▁اهای	-10.1911
▁پولی	-10.1912
▁لکه	-10.1916
▁دخ	-10.1922
▁لبنان	-10.1932
▁برسان	-10.1935
▁ایمن	-10.1942
▁یکار	-10.1943
▁مور	-10.1953
▁اطرات	-10.1958
▁جعبه	-10.1959
▁اهه	-10.1975
▁مأمو	-10.1986
▁اجبار	-10.1989
▁وریسم	-10.199
▁ابع	-10.1994
▁ویل	-10.1997
▁کنونی	-10.2003
▁رسان	-10.2005
▁٫	-10.2014
▁اوست	-10.2018
▁بانکی	-10.2029
▁دیدتر	-10.203
▁دیگ	-10.2031
▁ماری	-10.2033
▁وید	-10.2034
▁وری	-10.2037
▁حیاتی	-10.2042
▁بهار	-10.2045
▁نالد	-10.2045
▁سوئد	-10.2046
▁مکزیک	-10.2068
▁ير	-10.2071
▁یسیون	-10.2071
...	-10.2074
▁لات	-10.2075
▁قطعه	-10.208
▁پلت	-10.2084
اهند	-10.2088
▁کور	-10.2089
▁لوب	-10.2093
▁الکی	-10.2095
▁ردمی	-10.21
▁اتخا	-10.2101
▁یلند	-10.2108
▁الح	-10.2114
▁برزیل	-10.2123
▁طلاق	-10.2129
▁ندهید	-10.2132
▁لاها	-10.2135
▁راستی	-10.2136
▁روس	-10.2144
▁سازید	-10.2155
شتبا	-10.2155
▁اراده	-10.2156
▁کشان	-10.216
▁صف	-10.2164
▁شن	-10.2169
▁ئید	-10.217
؛	-10.2171
گیری	-10.2189
وراک	-10.2191
▁جمعه	-10.2192
▁شیدن	-10.2193
▁et	-10.2194
▁بور	-10.2208
▁ونیست	-10.2209
▁or	-10.2214
▁آورید	-10.223
▁ایتخت	-10.2235
▁زید	-10.2248
▁سکوت	-10.2264
▁یدگی	-10.2267
▁نظم	-10.2269
▁وش	-10.2282
▁تم	-10.2291
▁تقاضا	-10.2292
▁لسلام	-10.2294
▁خام	-10.2303
▁آوریل	-10.2305
▁هک	-10.2308
▁ظاهرا	-10.2313
▁آمدند	-10.2314
▁ذب	-10.2316
▁بپذیر	-10.232
▁تمایز	-10.232
▁ري	-10.2322
▁گرایی	-10.2328
▁سار	-10.2331
▁اهد	-10.2332
▁رنگی	-10.2348
▁شمنان	-10.2349
▁ببیند	-10.2352
▁مالک	-10.2353
▁ببرد	-10.2359
▁تز	-10.2361
سایت	-10.2361
▁ماشا	-10.2364
▁نکرد	-10.2382
▁نشسته	-10.2385
▁رقص	-10.2389
▁مخصوص	-10.2406
▁اشغال	-10.2413
▁ویه	-10.2425
▁14	-10.2435
▁جنایت	-10.2435
▁گرفتم	-10.2441
▁اکت	-10.2441
▁برت	-10.2446
راحت	-10.2457
▁سرباز	-10.2463
▁هلند	-10.2465
▁اهم	-10.2467
▁نوی	-10.2468
▁آلوده	-10.2473
▁هنمای	-10.2478
▁گذران	-10.2491
▁حرارت	-10.2492
اطف	-10.2492
▁وکس	-10.252
▁دروید	-10.2521
▁یلان	-10.2522
▁مرتب	-10.2522
▁کول	-10.2568
▁کپی	-10.258
▁لمس	-10.2581
▁موهای	-10.2595
▁طبی	-10.2605
▁شارژ	-10.2608
▁اپ	-10.2608
▁اکو	-10.2618
▁الزا	-10.2622
▁دانی	-10.2623
▁غا	-10.2626
▁راس	-10.2635
▁تناسب	-10.2639
▁رسم	-10.2648
▁شکلی	-10.2666
▁نفجار	-10.2666
▁نادر	-10.2674
▁یوان	-10.2683
▁توقف	-10.269
▁اجاره	-10.2696
▁کاب	-10.2703
▁ذر	-10.2703
▁شکن	-10.2724
▁زدهم	-10.2725
▁هیئت	-10.2725
▁ودکشی	-10.2725
▁هربان	-10.2726
لعاد	-10.2727
▁جمعی	-10.2733
ادگ	-10.2733
▁الغ	-10.2734
▁لط	-10.2743
▁باشه	-10.2744
سابق	-10.2747
▁تح	-10.275
▁بادل	-10.2753
▁هات	-10.2753
▁ذاشتن	-10.2755
▁نیادی	-10.2755
▁اتهام	-10.2757
▁بیند	-10.2761
▁نکند	-10.2763
▁تخمین	-10.2766
▁لوژیک	-10.2785
الیف	-10.2788
▁گردن	-10.2788
▁هل	-10.2794
▁کابل	-10.2795
▁ضاع	-10.2796
▁وود	-10.28
▁طر	-10.2806
▁سران	-10.2811
▁یامد	-10.2819
▁دلاری	-10.2821
▁خطرات	-10.2827
▁یکو	-10.2828
▁حسن	-10.2831
▁بشناس	-10.2832
را	-10.2833
توبو	-10.2835
▁سین	-10.284
▁کالری	-10.2844
▁ردگار	-10.2849
▁رفتم	-10.2858
C	-10.286
▁شون	-10.2863
▁جی	-10.2865
▁یاهان	-10.2866
▁پان	-10.2867
▁صه	-10.287
▁شکنجه	-10.2874
▁حقیقی	-10.2874
▁ارکس	-10.288
▁کیه	-10.2884
▁ناخ	-10.2885
▁وق	-10.29
▁غیره	-10.2906
▁بزی	-10.292
▁شعر	-10.2926
▁تخت	-10.2929
حکم	-10.293
▁ردها	-10.293
▁اهنگ	-10.2954
▁ro	-10.2962
▁خراج	-10.2965
▁نع	-10.2976
▁ایز	-10.2981
▁صفر	-10.2985
▁وانی	-10.2988
▁اکسی	-10.3003
▁ارات	-10.3008
ای	-10.3015
▁نتی	-10.3017
▁ظم	-10.302
▁امی	-10.3025
▁ضرور	-10.3046
▁صری	-10.3048
▁رویم	-10.3052
▁لاسیک	-10.3057
▁خلاف	-10.3057
▁رن	-10.3058
▁ارمند	-10.3067
▁۴۰	-10.3074
▁عف	-10.3079
▁تق	-10.3098
▁یفا	-10.3111
▁فلو	-10.3112
▁کسل	-10.3115
▁کت	-10.3117
▁غزی	-10.3117
▁=	-10.3118
▁رط	-10.3131
قصد	-10.3132
▁لذ	-10.3144
▁نگر	-10.3147
▁یبر	-10.3148
▁قاضای	-10.3148
▁لول	-10.3153
▁وریست	-10.316
▁وفان	-10.3166
▁غال	-10.3167
▁اتمی	-10.3168
▁۱۸	-10.3175
▁وژن	-10.3182
▁کشند	-10.319
ریب	-10.3201
زبان	-10.3201
▁قایق	-10.3212
▁دستی	-10.3214
ضل	-10.3215
1	-10.3246
▁دکم	-10.3252
re	-10.3255
▁[+]	-10.3272
▁فکری	-10.3276
▁رفه	-10.3279
▁غذاها	-10.3284
▁جزا	-10.3292
▁زب	-10.3293
▁فزا	-10.3299
▁زین	-10.3302
▁موافق	-10.3303
▁فیف	-10.3307
▁ائل	-10.3307
داشت	-10.3311
یدن	-10.3318
▁واس	-10.333
▁شی	-10.3331
▁وچکتر	-10.3334
▁قند	-10.3337
ك	-10.3339
▁شها	-10.334
حقق	-10.336
▁no	-10.3367
▁مدنی	-10.3374
▁بنای	-10.3379
▁میل	-10.3384
▁فات	-10.3388
▁ریل	-10.339
▁تخصصی	-10.3393
▁لوژی	-10.3397
فهم	-10.3401
نس	-10.3404
▁لن	-10.3409
▁اهنگی	-10.3414
▁راث	-10.3419
▁13	-10.3425
▁كنند	-10.3431
نو	-10.3436
▁پنجم	-10.3436
"	-10.3452
▁تکب	-10.3468
▁c	-10.3468
▁دتا	-10.347
4	-10.3475
رد	-10.3477
▁کاش	-10.3481
▁رتر	-10.3486
تمام	-10.3499
▁90	-10.3499
▁پلی	-10.3511
▁Z	-10.3517
▁یچ	-10.3518
▁وبا	-10.3518
ي	-10.3532
▁گنج	-10.3534
▁سیس	-10.3541
▁اچه	-10.355
▁رر	-10.3552
▁ive	-10.3557
▁عادل	-10.3558
یم	-10.3565
▁رخور	-10.3576
▁کالا	-10.3582
▁یبری	-10.3583
▁رزها	-10.3589
▁لیت	-10.3612
▁راف	-10.3613
▁کشی	-10.3619
▁دما	-10.362
ستن	-10.3622
خ	-10.3626
▁هیز	-10.3628
▁انکار	-10.3629
▁J	-10.3634
▁اهر	-10.3635
▁سل	-10.3641
▁Mi	-10.3646
▁احت	-10.3652
▁IP	-10.3653
▁ادث	-10.3655
▁ولاد	-10.366
P	-10.3665
یس	-10.3672
نداخ	-10.3677
▁اجعه	-10.368
▁بنیاد	-10.3687
گه	-10.3691
▁بگو	-10.3693
نیان	-10.3702
▁یند	-10.3706
▁سیب	-10.3709
▁رکات	-10.3711
▁برایش	-10.3731
▁یزر	-10.3732
▁بینا	-10.3732
▁طره	-10.3735
▁رقه	-10.3736
▁راب	-10.3737
▁چال	-10.374
جا	-10.3747
▁قف	-10.3778
▁b	-10.3784
▁منف	-10.3786
3	-10.3791
▁اتین	-10.3811
طرف	-10.3816
▁اسکا	-10.3835
▁زنگ	-10.3836
▁زاد	-10.3839
▁ونس	-10.3846
اراح	-10.3848
▁جر	-10.3862
▁ذاب	-10.3863
▁وست	-10.387
N	-10.388
▁انید	-10.3886
▁وردند	-10.3888
▁باشی	-10.3894
سه	-10.3896
▁موش	-10.3897
▁زرگ	-10.39
▁تش	-10.3909
▁حر	-10.3917
▁فش	-10.3927
▁گند	-10.3932
▁زر	-10.3949
▁کرم	-10.395
▁۲۵	-10.3955
▁طا	-10.3957
▁تکل	-10.3963
▁فتی	-10.3963
▁آقا	-10.3975
▁مادرش	-10.3977
ال	-10.398
▁الون	-10.3983
▁توج	-10.3989
▁کیل	-10.3989
▁مهر	-10.4003
▁جات	-10.4008
▁لای	-10.4008
▁میشه	-10.4016
▁هنگ	-10.4023
▁وئل	-10.4027
▁لحه	-10.4029
▁رژ	-10.4033
▁مدن	-10.4048
▁شویی	-10.4054
▁ارگان	-10.4056
▁گذارد	-10.4063
▁ئین	-10.4114
▁مادی	-10.4124
▁اریو	-10.4136
▁سرما	-10.4154
▁نکردن	-10.4166
▁گاو	-10.4167
▁ندید	-10.4174
▁طع	-10.4184
▁وپ	-10.4191
▁بکار	-10.4208
▁دوستی	-10.421
▁لغ	-10.4213
▁فوت	-10.4234
al	-10.4252
▁—	-10.4255
▁?	-10.4255
▁لاس	-10.426
لب	-10.4262
▁ضی	-10.4267
چ	-10.4268
▁اجد	-10.4269
▁ورس	-10.4273
▁ادو	-10.4283
▁مبارز	-10.4289
گو	-10.4301
▁بخشید	-10.4307
▁شاورز	-10.4324
▁ریدا	-10.4327
▁f	-10.4331
گرد	-10.4333
▁اچ	-10.4333
▁سانه	-10.4333
▁۱۱	-10.4334
▁گلو	-10.4336
▁نجان	-10.4347
مه	-10.436
▁زنم	-10.4363
▁۶۰	-10.4365
▁دینی	-10.4366
▁Mo	-10.4366
▁اوج	-10.4367
▁طاب	-10.4368
▁بیر	-10.4385
▁تدا	-10.4398
▁ملک	-10.4406
▁وریم	-10.4415
▁جک	-10.4417
▁الها	-10.4421
▁App	-10.4429
تقا	-10.443
▁یران	-10.4444
▁روسی	-10.446
▁برید	-10.4462
▁nd	-10.4464
▁پیروز	-10.4471
▁جل	-10.4475
▁دول	-10.4476
▁Uni	-10.4476
▁ستاده	-10.4476
▁پیک	-10.4478
K	-10.4485
▁موم	-10.4489
▁یاها	-10.449
▁خان	-10.4493
▁دیت	-10.4498
▁ستری	-10.4507
▁عوا	-10.4511
▁واد	-10.4514
▁man	-10.4521
▁حظ	-10.4539
er	-10.4542
▁Int	-10.4544
▁ابید	-10.4548
▁سرو	-10.4551
▁تسل	-10.4582
▁ني	-10.4583
▁لام	-10.4592
▁چا	-10.4596
▁متری	-10.4602
▁بلو	-10.4607
▁فه	-10.4624
▁نوا	-10.4633
▁تئ	-10.4643
▁قدیم	-10.4643
▁ارب	-10.4646
▁سترو	-10.465
8	-10.4653
▁مزا	-10.4656
ِ	-10.4657
▁البا	-10.4663
▁صلاح	-10.4672
▁17	-10.4674
▁اطم	-10.4676
▁۱۴	-10.4681
رتف	-10.4692
6	-10.4699
▁لت	-10.4707
▁٠	-10.4715
ء	-10.4715
▁نداز	-10.4716
▁خودت	-10.472
▁فتد	-10.4723
▁کوک	-10.4745
▁دغ	-10.4747
▁شوی	-10.4747
▁رفتند	-10.4751
▁ورگ	-10.4768
▁طای	-10.4774
▁ادری	-10.4788
▁ردن	-10.4791
▁اى	-10.4791
▁جب	-10.4792
▁ناتو	-10.4795
▁يت	-10.4803
▁وران	-10.4809
فشا	-10.4812
ll	-10.4814
▁اب	-10.4817
▁ثی	-10.4825
▁Sc	-10.4829
▁بوی	-10.4857
▁کب	-10.4858
▁ce	-10.4861
▁وخ	-10.4863
▁دوز	-10.4865
▁ندانه	-10.4866
▁خته	-10.487
▁بده	-10.4886
▁عکاس	-10.4892
▁In	-10.4894
▁منطق	-10.49
▁جاست	-10.491
st	-10.4911
▁وز	-10.4916
▁انتان	-10.4927
▁یکرو	-10.4927
▁جوی	-10.493
▁80	-10.4931
▁نان	-10.4951
▁عام	-10.4957
▁واز	-10.497
تو	-10.498
▁ومی	-10.4985
▁ونا	-10.4998
▁سرم	-10.5003
▁فتار	-10.5008
▁رگ	-10.5013
▁مسیحی	-10.5033
▁الف	-10.5051
▁هز	-10.5052
▁یکل	-10.5056
▁دن	-10.5061
▁رکا	-10.5071
حریم	-10.5107
▁اوری	-10.5134
▁مزه	-10.5135
▁وگا	-10.5139
▁وع	-10.5143
▁an	-10.5155
ئید	-10.5157
▁کلم	-10.5166
▁ولای	-10.5172
R	-10.5196
▁واژ	-10.5198
آ	-10.5199
▁بشری	-10.521
▁سکن	-10.5212
▁فرود	-10.5218
▁فند	-10.5227
▁ارل	-10.5228
▁یانت	-10.5249
▁تاج	-10.5249
E	-10.525
▁لیس	-10.5253
رص	-10.5255
▁عا	-10.5286
▁کرو	-10.5294
▁نوار	-10.5308
F	-10.5308
▁اهدا	-10.531
▁ure	-10.531
▁تونی	-10.5311
▁نسور	-10.5323
▁حدی	-10.5332
حات	-10.5336
▁ونیک	-10.5339
▁سفار	-10.5344
▁هول	-10.5344
▁جراح	-10.5346
▁وسه	-10.5348
▁لمه	-10.535
▁be	-10.535
▁ستار	-10.5401
▁راط	-10.5404
▁ارض	-10.5407
▁تراف	-10.5408
▁ایب	-10.5409
▁ri	-10.5412
▁ry	-10.5413
▁منع	-10.542
۵	-10.5429
سا	-10.5443
▁سي	-10.545
▁دیک	-10.5461
وشبخ	-10.5461
ic	-10.5464
▁بگ	-10.5465
گذار	-10.547
صف	-10.5471
▁ائو	-10.5473
▁کاو	-10.5483
▁تاک	-10.5498
نایی	-10.5512
▁me	-10.5513
▁وسط	-10.5514
▁سیر	-10.552
▁ولو	-10.5526
▁ژوئ	-10.5527
▁وشبخت	-10.5538
▁واری	-10.5544
▁رژی	-10.5546
▁اتل	-10.5551
▁رع	-10.5555
▁m	-10.5556
▁رکرد	-10.5571
▁یکر	-10.5572
▁يم	-10.5577
▁وئ	-10.558
▁شنا	-10.5583
▁p	-10.5584
▁دلم	-10.5594
▁یایی	-10.5599
▁زاب	-10.5599
▁وطلب	-10.5617
▁ختان	-10.5621
▁ولین	-10.5627
▁غلب	-10.5629
▁کین	-10.5659
▁جین	-10.5659
▁شتن	-10.5662
▁سنی	-10.5672
هت	-10.568
▁ولیک	-10.5694
▁عمق	-10.57
▁۱۳	-10.5704
▁عان	-10.5712
▁ia	-10.5712
▁ریس	-10.5715
▁ni	-10.5717
▁اعد	-10.5722
▁فرمو	-10.5723
▁دستان	-10.5732
▁منش	-10.5733
▁نوش	-10.5744
▁موسی	-10.5775
▁اریا	-10.578
▁ّت	-10.5789
▁لیف	-10.5793
▁گیریم	-10.5806
طه	-10.5811
▁جف	-10.5813
▁ارف	-10.5821
ma	-10.5821
نج	-10.5824
▁باس	-10.5837
▁سپری	-10.5841
▁نتا	-10.5852
▁نداخت	-10.5857
▁21	-10.5859
▁پیچ	-10.586
▁امس	-10.5871
▁ارن	-10.5872
ندتر	-10.5878
▁یبی	-10.5887
▁راند	-10.589
▁وقا	-10.5903
کس	-10.5905
▁ایش	-10.5906
▁نزا	-10.5916
صمیم	-10.5925
▁دربار	-10.5925
لت	-10.5936
▁ابا	-10.5949
▁تیو	-10.5951
▁غذ	-10.5953
▁ارسی	-10.5955
▁حیا	-10.5961
▁70	-10.5961
▁رسیم	-10.5964
▁جت	-10.5973
▁Fi	-10.5993
B	-10.6
50	-10.6001
▁اداری	-10.6006
▁شست	-10.6013
▁اء	-10.6025
▁طعم	-10.6038
▁لبان	-10.604
▁نگاری	-10.6054
▁یروز	-10.6056
▁٩	-10.6061
▁ناخته	-10.6062
▁زار	-10.6062
▁دز	-10.6073
▁زمن	-10.6079
▁ثم	-10.6087
▁یدنی	-10.6091
”	-10.6093
▁;	-10.6103
▁بي	-10.6109
▁توک	-10.6115
▁ببر	-10.6119
▁یوز	-10.612
▁غل	-10.6141
▁کوچ	-10.6144
▁ونگ	-10.6146
▁وهی	-10.6171
دهای	-10.6172
▁۲۴	-10.6175
ضطرا	-10.6185
▁فارس	-10.6187
▁ودا	-10.6187
▁مذهب	-10.6193
f	-10.6198
▁La	-10.62
▁رك	-10.621
▁نای	-10.6212
▁تنام	-10.6214
▁خونی	-10.6218
▁ستگی	-10.6219
▁چو	-10.6222
▁انشان	-10.6228
▁گوی	-10.6239
▁۸۰	-10.625
▁19	-10.6256
۱	-10.6258
۲	-10.6262
▁ناظر	-10.6274
▁والی	-10.6276
▁عود	-10.6294
M	-10.6302
▁کمر	-10.6302
▁ممنو	-10.6303
▁لار	-10.6308
ورش	-10.632
▁یث	-10.6333
▁ادر	-10.6336
▁افق	-10.634
▁ناب	-10.6344
▁دع	-10.6346
▁امین	-10.6352
مپ	-10.6355
▁تد	-10.636
▁اتو	-10.6361
▁ادران	-10.6371
▁وف	-10.6376
▁وجو	-10.6376
▁ستیم	-10.6379
▁مپ	-10.6384
▁رال	-10.6391
▁ly	-10.64
▁اسکن	-10.6405
▁حتم	-10.6407
▁وده	-10.641
▁یمی	-10.6416
▁Man	-10.642
▁for	-10.642
an	-10.6427
۵۰	-10.6434
▁اری	-10.6435
▁جزئی	-10.6439
▁$	-10.644
▁محض	-10.6441
▁رمت	-10.647
▁٢	-10.6482
▁امان	-10.6484
▁ابد	-10.6493
▁تاق	-10.6499
▁اهو	-10.6535
▁رابط	-10.6535
▁تماع	-10.6536
▁ینک	-10.6545
▁تحم	-10.658
▁تشا	-10.6592
▁یید	-10.6593
▁جزو	-10.6593
▁مام	-10.6596
قص	-10.6599
▁یلیا	-10.6604
ابست	-10.6604
▁قین	-10.6605
▁ستقر	-10.6612
▁تال	-10.6622
▁مضر	-10.6627
▁لیسم	-10.6629
▁لطف	-10.6631
▁چسب	-10.6636
▁رست	-10.6643
▁پیچی	-10.6662
▁کشت	-10.6675
T	-10.6677
▁یز	-10.6687
▁راخ	-10.6691
▁ورژ	-10.67
▁لحظ	-10.6706
رز	-10.6706
هر	-10.6709
▁جع	-10.6713
▁اعات	-10.6714
▁خل	-10.6731
وران	-10.6733
▁یال	-10.6745
▁قطر	-10.6751
▁ld	-10.6752
▁یزا	-10.6755
▁ریست	-10.6761
▁o	-10.6762
▁یکس	-10.6762
▁حج	-10.6765
▁ریو	-10.677
▁منت	-10.6772
▁برم	-10.6782
▁li	-10.6788
▁کان	-10.6789
▁ادت	-10.6795
▁خن	-10.6803
▁Li	-10.6803
▁صر	-10.6804
▁Ta	-10.6808
▁ناسا	-10.6809
▁رص	-10.6812
سته	-10.6813
▁ردند	-10.6815
▁شیک	-10.6816
▁۱۶	-10.6833
▁مقدم	-10.6834
▁غلط	-10.6844
▁اخت	-10.6856
کو	-10.6857
▁عت	-10.6869
▁HIV	-10.6877
▁هرت	-10.6904
▁بک	-10.6922
▁ble	-10.6934
▁یهود	-10.6938
▁ینی	-10.6941
▁رتو	-10.6942
▁سکی	-10.6944
▁لي	-10.6947
▁Wor	-10.6948
چه	-10.6961
▁فس	-10.6961
▁سس	-10.6965
▁v	-10.6969
▁هش	-10.6973
▁لپ	-10.6996
▁یح	-10.6999
▁اغ	-10.7003
▁ترم	-10.7005
▁ent	-10.7005
▁اپی	-10.7007
▁عسل	-10.7014
دن	-10.702
▁200	-10.7024
▁DNA	-10.7057
▁اشک	-10.7082
▁اندر	-10.7086
▁جنا	-10.709
▁رزی	-10.7095
ra	-10.7098
I	-10.7101
▁هانه	-10.7102
▁گزاری	-10.7113
دو	-10.7119
ch	-10.7125
وضو	-10.7129
▁نتون	-10.713
▁هج	-10.7149
وک	-10.7151
▁افا	-10.7152
▁هود	-10.7162
▁دله	-10.7167
▁حله	-10.7179
▁عز	-10.7186
▁راق	-10.7212
▁نز	-10.7216
▁k	-10.7219
▁ستی	-10.7222
▁دوش	-10.7222
▁ادان	-10.7249
in	-10.7254
▁vers	-10.7267
▁مض	-10.7272
▁وندی	-10.7273
▁مبو	-10.7275
▁شیم	-10.7284
▁رعه	-10.7288
▁یِ	-10.7301
▁قام	-10.7301
اگر	-10.7308
▁em	-10.7316
▁خره	-10.7316
▁لزی	-10.7319
ro	-10.7321
یل	-10.7325
فع	-10.7326
▁صل	-10.734
▁دگ	-10.7346
▁1-	-10.7347
▁یفت	-10.7372
▁دات	-10.7382
▁نزی	-10.7385
▁شتار	-10.7387
▁g	-10.7389
▁ناط	-10.739
▁مذ	-10.7397
▁فول	-10.7418
▁ویر	-10.7449
کت	-10.7451
▁لاه	-10.746
H	-10.7464
▁da	-10.7474
▁500	-10.7482
▁اگو	-10.7488
▁پایی	-10.7488
▁ردگ	-10.7504
▁قسم	-10.7506
▁کون	-10.7521
▁هنم	-10.7521
▁وپر	-10.7522
▁VPN	-10.7523
▁خار	-10.7534
▁نوک	-10.7539
▁ددا	-10.7546
▁۲۱	-10.7547
▁پذیری	-10.755
▁۷۰	-10.7554
▁Ma	-10.7556
▁قد	-10.7559
▁محت	-10.7563
¬	-10.7571
▁ریان	-10.7581
▁رئ	-10.7586
▁بع	-10.7602
ومی	-10.7606
▁روف	-10.7609
▁روپا	-10.7627
▁کرب	-10.7627
▁نود	-10.7644
▁کوب	-10.7665
▁شاند	-10.7666
▁نندگ	-10.767
یز	-10.7672
یان	-10.7673
▁وجوان	-10.768
▁Ser	-10.7682
▁You	-10.7687
▁بش	-10.7689
▁ینو	-10.7697
le	-10.7703
▁300	-10.7722
▁رأی	-10.7724
▁j	-10.7731
▁حمت	-10.7732
▁شتم	-10.7733
شان	-10.7744
▁کمپ	-10.7748
▁نظری	-10.7751
▁کوش	-10.7752
▁ستانی	-10.7754
▁تعل	-10.7755
▁کیم	-10.7771
▁وازه	-10.7774
5	-10.7786
▁22	-10.78
▁ینطور	-10.7804
▁سمی	-10.782
▁لیه	-10.7828
▁مهار	-10.7846
▁رمن	-10.7848
▁دب	-10.7853
▁آری	-10.7855
▁نیت	-10.7858
▁وگو	-10.786
▁h	-10.7862
▁جار	-10.7863
▁سقف	-10.7863
▁داغ	-10.7866
▁رتری	-10.7867
کترو	-10.7869
▁انک	-10.7872
▁عمار	-10.7874
▁st	-10.788
▁وسو	-10.7891
­	-10.7904
▁قض	-10.7907
▁گزا	-10.7908
▁ذی	-10.7909
غو	-10.7914
روند	-10.7931
▁2-	-10.7973
▁امت	-10.7981
▁ناگ	-10.7982
▁وکا	-10.8
▁حاک	-10.8007
PS	-10.8007
▁میانه	-10.8013
یو	-10.8013
▁بوم	-10.8019
L	-10.8033
▁لیون	-10.8033
▁دنی	-10.8035
▁روانش	-10.8037
▁عو	-10.8043
/	-10.8053
▁وح	-10.8057
▁ابل	-10.8067
▁هنما	-10.8079
▁لعه	-10.8095
اک	-10.8106
▁فتگی	-10.8115
▁ورن	-10.8133
▁Y	-10.8138
▁قضا	-10.8147
▁Na	-10.8162
se	-10.8165
▁مجا	-10.8169
▁رث	-10.8176
▁منا	-10.8178
▁اعضا	-10.8191
▁ادات	-10.8191
▁ur	-10.8194
▁الو	-10.8196
▁رگیری	-10.8198
▁جست	-10.8213
▁بقا	-10.8222
▁ضایی	-10.8226
▁یغ	-10.8237
▁یرت	-10.8241
▁کری	-10.8247
▁طه	-10.8256
▁ئه	-10.8269
▁زندگ	-10.8279
▁مود	-10.8286
۴	-10.8287
▁اریم	-10.8287
▁تمر	-10.8288
▁یط	-10.8291
▁آک	-10.8292
▁ونو	-10.8297
▁No	-10.8301
▁لیو	-10.8306
▁انگر	-10.8309
▁وتو	-10.8312
▁ie	-10.8313
▁رمی	-10.8323
▁is	-10.8324
▁War	-10.8328
▁امپر	-10.8346
▁HTML	-10.837
▁گرگ	-10.8378
▁کتب	-10.8382
طرز	-10.8388
▁کبد	-10.8391
▁جری	-10.8411
▁وسیا	-10.8416
▁·	-10.8422
▁ازیم	-10.8427
▁d	-10.8429
فر	-10.8443
la	-10.8455
▁طری	-10.8456
▁فون	-10.8477
▁تیز	-10.848
▁ta	-10.8481
▁ایل	-10.8486
▁نشر	-10.8499
▁دک	-10.8502
▁نپ	-10.8504
وده	-10.8504
▁شیو	-10.8527
▁ورشی	-10.8537
▁حمد	-10.8537
W	-10.8544
▁Net	-10.8548
▁مخل	-10.8548
▁جلس	-10.8548
▁الین	-10.8566
▁سب	-10.8571
▁مبل	-10.8579
▁ترون	-10.8588
▁مواج	-10.8603
▁ارا	-10.8621
▁رپ	-10.8621
▁ارمن	-10.8625
▁پاه	-10.8626
▁فدر	-10.863
el	-10.8637
▁نر	-10.8648
▁نایی	-10.8667
▁یزم	-10.8681
▁غر	-10.8683
▁نیر	-10.8696
li	-10.8696
▁ایو	-10.8697
00	-10.8701
نه	-10.8713
▁28	-10.8725
▁وازی	-10.8727
▁پری	-10.8727
▁۱۷	-10.8737
▁جال	-10.8745
Y	-10.8748
سول	-10.8756
▁بدا	-10.8766
▁علا	-10.8766
▁We	-10.8768
▁وفا	-10.877
▁۹۰	-10.8792
▁Me	-10.8794
▁SEO	-10.8794
▁منو	-10.8798
▁وتا	-10.8798
▁خنک	-10.8806
▁For	-10.8821
▁Go	-10.8822
▁ینت	-10.8823
او	-10.8823
▁رهایی	-10.8828
▁Al	-10.8853
▁تحق	-10.8859
▁لود	-10.8861
▁لم	-10.8863
▁وظ	-10.8872
▁اسخ	-10.8872
▁ورش	-10.888
▁نگون	-10.8881
▁Co	-10.8893
▁tor	-10.8898
▁حسی	-10.8908
▁ریع	-10.8913
▁جاب	-10.8917
اس	-10.893
▁یری	-10.893
▁بوت	-10.8961
گان	-10.8963
▁لوت	-10.8975
▁انز	-10.8981
▁پیت	-10.8986
▁لز	-10.8989
X	-10.8992
▁رامی	-10.8992
▁z	-10.8994
▁سرت	-10.8995
▁لیگ	-10.9001
▁سوس	-10.9001
▁شرو	-10.9009
▁نمک	-10.9014
▁فال	-10.9016
ئ	-10.902
▁ترور	-10.9025
وف	-10.9045
▁ندو	-10.9051
دئو	-10.9056
▁جاو	-10.9088
▁ica	-10.9089
▁ییم	-10.91
▁محو	-10.9105
▁تث	-10.9108
▁خوانی	-10.9114
▁دعو	-10.9116
▁ائی	-10.9121
▁بزن	-10.9124
▁‬	-10.9125
is	-10.9131
nt	-10.9132
▁۱۹	-10.9135
▁دیس	-10.914
▁لنز	-10.9141
▁سوسی	-10.9146
▁قیا	-10.9146
▁فتیم	-10.915
▁ect	-10.9182
▁رول	-10.9183
▁زام	-10.9184
▁ینش	-10.9187
▁گه	-10.9189
▁داع	-10.9191
▁قای	-10.9192
w	-10.9201
وز	-10.9215
▁لیز	-10.9222
▁ونه	-10.9233
▁ft	-10.9251
زیو	-10.9259
▁روا	-10.9262
▁شید	-10.9269
▁کال	-10.9274
O	-10.9275
▁برها	-10.9287
▁ندها	-10.9293
▁ناسب	-10.9296
▁مزایا	-10.9296
▁مره	-10.9298
▁ضرر	-10.93
▁خلاص	-10.9316
▁برف	-10.9318
▁سوری	-10.9327
▁لینی	-10.9342
دآور	-10.9348
▁Ni	-10.9361
▁ظره	-10.9363
▁زک	-10.937
▁35	-10.9372
▁ادن	-10.9381
▁sh	-10.9383
ri	-10.9391
▁سفی	-10.9392
▁ریخ	-10.9396
▁لاگ	-10.9397
▁قوا	-10.9401
نز	-10.9411
▁مودند	-10.9421
▁سرا	-10.9423
▁یخت	-10.9434
▁To	-10.9438
▁معت	-10.944
▁کنگ	-10.9458
▁اتری	-10.9459
▁کاند	-10.9461
▁عه	-10.9463
دل	-10.9466
▁گستر	-10.9467
▁آمر	-10.9471
▁صح	-10.9476
▁وچ	-10.9493
▁عمو	-10.9501
▁عرو	-10.9503
امور	-10.9507
▁فان	-10.9511
▁وشیدن	-10.9527
▁وایی	-10.9528
▁ظهر	-10.9534
▁نجا	-10.9537
▁افک	-10.9546
فانه	-10.9548
▁علاق	-10.9549
▁Do	-10.9557
▁حام	-10.9561
▁آغ	-10.957
▁23	-10.9575
▁برخ	-10.9581
صل	-10.9587
▁روژ	-10.959
▁اث	-10.959
▁ونی	-10.9601
▁ادام	-10.9611
▁ریش	-10.9612
عمار	-10.9623
▁گوا	-10.9624
▁شه	-10.9627
▁ناز	-10.963
▁مینا	-10.9631
▁r	-10.9665
▁گال	-10.9669
▁حاد	-10.9678
▁الس	-10.9686
de	-10.9696
▁And	-10.9711
▁رنو	-10.9717
▁لل	-10.9721
9	-10.9725
▁ایستا	-10.9726
خذ	-10.9738
▁لسل	-10.9743
▁ونت	-10.975
▁Mac	-10.9764
▁قدس	-10.9765
▁One	-10.977
▁انیت	-10.9774
▁هوشم	-10.9775
▁ترا	-10.9776
▁رایان	-10.9779
▁رکت	-10.9781
▁ابری	-10.9789
روف	-10.9793
▁نکو	-10.9809
▁مسی	-10.981
▁جوش	-10.9815
▁افع	-10.9818
▁ذراند	-10.9821
▁ial	-10.9823
▁جانی	-10.9827
▁آسا	-10.9828
▁شت	-10.9839
▁پاپ	-10.984
▁ترجم	-10.9844
وت	-10.9854
▁معا	-10.9875
▁مینی	-10.9878
▁حبس	-10.9888
▁مل	-10.9896
وپ	-10.991
▁لوم	-10.991
وآور	-10.9914
▁هین	-10.9914
▁یزه	-10.9916
▁دس	-10.9916
▁احی	-10.9928
▁انتی	-10.9932
mp	-10.9938
▁کث	-10.994
▁●	-10.9942
▁احا	-10.9943
▁نوشید	-10.9943
▁MBA	-10.9944
▁ینا	-10.9956
▁Pre	-10.9956
▁یتی	-10.9963
▁رادی	-10.9966
SS	-10.9966
▁روک	-10.998
بار	-11.0004
▁لیا	-11.0008
مون	-11.0018
▁لد	-11.0022
▁زبانی	-11.0023
▁توس	-11.0024
▁مسن	-11.0028
▁یدا	-11.0031
▁کوس	-11.0035
ط	-11.004
▁Sa	-11.0042
▁تلف	-11.0054
▁هدر	-11.0056
▁استخر	-11.0064
▁وعات	-11.007
▁ارث	-11.007
▁es	-11.007
▁ژیک	-11.0073
▁۵۰۰	-11.0073
▁فظ	-11.0088
ce	-11.0096
▁رجست	-11.01
▁سبی	-11.0102
▁ورو	-11.0105
▁iOS	-11.0126
▁فانه	-11.0132
▁اطل	-11.0135
ض	-11.0148
▁ern	-11.0156
▁نکن	-11.0179
▁موها	-11.0207
▁امری	-11.0211
▁۲۲	-11.0216
۳	-11.0225
▁لگی	-11.0239
▁اعل	-11.0247
یده	-11.0248
▁WEB	-11.025
▁دیا	-11.0253
سون	-11.028
.5	-11.0282
▁وات	-11.0284
▁وض	-11.0286
▁زیک	-11.0287
▁اسه	-11.0289
▁ابی	-11.0308
▁بحر	-11.0312
▁هال	-11.0314
▁یستم	-11.0315
▁اجر	-11.0319
ندگ	-11.032
دآ	-11.0326
▁My	-11.0327
ta	-11.0333
▁Con	-11.0351
▁گن	-11.0358
▁ندن	-11.0362
en	-11.0362
▁وانم	-11.0374
▁بانی	-11.0374
▁ذخ	-11.0374
▁اها	-11.0376
▁gy	-11.0378
▁یانگ	-11.0381
▁وزی	-11.0387
▁عص	-11.0405
▁Ad	-11.0405
▁ویت	-11.0405
▁۳۵	-11.0415
▁طن	-11.0421
▁فته	-11.0426
▁us	-11.0429
رو	-11.0433
▁لوا	-11.0439
▁یدیم	-11.0439
V	-11.0446
▁PC	-11.0447
▁طف	-11.045
▁روگ	-11.0454
▁لیل	-11.0455
▁شکی	-11.0462
▁يل	-11.0494
ec	-11.0494
▁mi	-11.0502
▁ness	-11.0506
▁یتا	-11.052
▁كا	-11.0523
▁ودی	-11.0558
▁ISO	-11.0569
ریاب	-11.0577
DA	-11.0582
▁نداد	-11.0585
▁کراس	-11.0585
▁افی	-11.0593
▁رزو	-11.0596
▁زدا	-11.0603
▁شکم	-11.0604
▁زیم	-11.0621
▁پک	-11.0625
▁رأ	-11.0635
▁قلی	-11.0647
▁الری	-11.0674
▁مانه	-11.0678
▁تنه	-11.0679
▁ert	-11.0681
▁سنا	-11.0693
▁نامی	-11.0693
▁حا	-11.0696
▁قطب	-11.0702
▁سوئ	-11.0704
▁هدا	-11.0711
▁شفا	-11.074
me	-11.0762
▁مانت	-11.0763
▁URL	-11.0765
▁وستی	-11.0766
▁nic	-11.0773
شش	-11.0786
▁HD	-11.0786
▁tal	-11.0824
رس	-11.0825
▁\	-11.0831
▁USB	-11.0831
▁دآور	-11.0832
▁شتر	-11.0834
▁45	-11.0846
▁دگار	-11.0857
▁ایگان	-11.087
▁تض	-11.0879
▁آس	-11.089
▁فعل	-11.0895
▁خوری	-11.0898
▁پلا	-11.0899
▁ice	-11.0901
▁De	-11.0905
▁گوس	-11.0905
▁قوت	-11.0908
خوا	-11.0912
▁دیدا	-11.0916
ظ	-11.092
▁طال	-11.093
نا	-11.093
▁تها	-11.0935
▁ros	-11.0944
ss	-11.0979
▁نیل	-11.0987
▁سید	-11.1009
U	-11.1015
▁محتو	-11.1015
▁وانه	-11.1026
▁نار	-11.1029
▁{	-11.1032
تک	-11.1048
▁26	-11.1049
▁الق	-11.1055
▁se	-11.1079
▁فت	-11.1085
▁هدی	-11.1099
▁وج	-11.1128
▁عج	-11.1128
▁رانی	-11.1144
▁انهای	-11.1145
▁یلس	-11.1157
قاوم	-11.1162
▁ndows	-11.1169
▁دامن	-11.1176
▁پوشید	-11.1178
▁mo	-11.1178
▁خشن	-11.118
▁ضع	-11.1195
▁عب	-11.1209
▁وبل	-11.121
▁نتو	-11.1219
▁زوی	-11.1219
▁تگان	-11.123
▁3-	-11.1231
lo	-11.1245
▁زمی	-11.1253
▁مگا	-11.1259
▁طار	-11.1269
جر	-11.1278
▁هلی	-11.1285
▁‘	-11.1307
▁Air	-11.1308
▁یمان	-11.1319
ft	-11.1321
▁نچ	-11.1336
▁رایم	-11.1346
▁نیس	-11.1347
▁So	-11.135
▁الش	-11.1371
▁Comp	-11.1378
▁rch	-11.1378
▁Home	-11.1388
▁تلخ	-11.1388
▁بیگ	-11.1417
▁do	-11.1429
شتر	-11.1432
▁وکی	-11.1439
حافظ	-11.1439
▁مده	-11.1442
▁٨	-11.1449
ha	-11.1463
▁زور	-11.1468
▁قانه	-11.1479
▁lo	-11.1493
▁Q	-11.1493
▁bil	-11.1496
▁لاب	-11.1514
▁یجان	-11.1516
▁New	-11.1518
▁pro	-11.1518
▁مختل	-11.1519
us	-11.1528
▁خور	-11.1549
▁لون	-11.1552
▁همگ	-11.1553
▁وانیم	-11.1555
ow	-11.1564
▁ششم	-11.1564
▁ki	-11.1565
▁Ac	-11.1575
▁وبی	-11.1578
شه	-11.158
▁جرا	-11.1587
▁برون	-11.1603
▁برش	-11.1612
▁ستیک	-11.1612
▁وکل	-11.162
▁بانه	-11.1627
▁اجب	-11.1636
▁نکر	-11.1663
▁وي	-11.1665
▁Red	-11.1677
▁ولان	-11.1694
▁my	-11.1697
▁فر	-11.1698
شیا	-11.1701
▁عنا	-11.1705
▁بوس	-11.1707
▁Of	-11.1713
▁الا	-11.1717
▁کپ	-11.1723
▁زخ	-11.1725
▁پکن	-11.1725
▁work	-11.1735
فت	-11.1741
▁400	-11.1742
▁ادا	-11.1755
na	-11.1783
▁فاش	-11.1795
▁سکه	-11.1797
to	-11.1803
قه	-11.1807
▁land	-11.1808
▁مث	-11.1809
ill	-11.1809
▁ain	-11.1809
Q	-11.1816
▁شوک	-11.182
▁مبر	-11.1822
▁ادرا	-11.1846
▁la	-11.1852
si	-11.1855
▁31	-11.1882
▁دوق	-11.1887
▁up	-11.1888
▁وبت	-11.189
▁ریج	-11.1902
▁ic	-11.1914
▁ژانس	-11.1915
▁تاز	-11.1928
nd	-11.193
▁تجربی	-11.1944
▁داوط	-11.1955
▁ard	-11.1958
غا	-11.1975
sh	-11.1983
▁it	-11.1984
▁آم	-11.1984
▁جن	-11.199
▁تند	-11.1992
▁قرا	-11.2003
▁گش	-11.2005
um	-11.2006
▁یلو	-11.2008
▁ریت	-11.2014
▁انوی	-11.2018
▁رگو	-11.2026
▁آتی	-11.2029
▁ian	-11.2033
▁کیک	-11.2049
▁شق	-11.206
▁سخ	-11.2067
▁27	-11.2068
▁ئل	-11.207
▁وحی	-11.2079
▁En	-11.2081
▁سمیت	-11.2094
ئو	-11.21
▁قر	-11.2103
▁Play	-11.2105
▁ولا	-11.2105
▁نتر	-11.2106
▁اینک	-11.2128
▁موس	-11.214
▁نوب	-11.215
▁۲۳	-11.2156
▁یستی	-11.2159
▁تنی	-11.2165
▁ar	-11.2186
▁اکم	-11.2191
ng	-11.2194
▁غار	-11.2206
▁كس	-11.2229
▁زوم	-11.224
▁out	-11.2257
ood	-11.2265
▁یمو	-11.2279
▁net	-11.2282
▁75	-11.2282
وا	-11.2296
▁فلسف	-11.2296
▁لفا	-11.2296
▁لک	-11.2316
▁یزو	-11.232
ga	-11.2323
۶	-11.2334
▁Exp	-11.2334
▁غزه	-11.2336
▁قید	-11.2346
▁حرا	-11.235
▁ودن	-11.2351
▁تام	-11.2354
▁Be	-11.2361
ast	-11.2368
▁Can	-11.237
▁um	-11.2385
▁روت	-11.2393
▁۲۷	-11.2394
▁4-	-11.2398
▁برس	-11.2399
▁وابید	-11.2412
▁چن	-11.2413
▁سما	-11.242
▁Star	-11.2421
▁زنید	-11.2421
▁نگل	-11.2449
▁lt	-11.2451
il	-11.2485
▁}	-11.2491
▁یزد	-11.2507
▁Ha	-11.2534
▁پال	-11.2548
▁ارها	-11.255
▁کشن	-11.2556
▁فاز	-11.2559
▁قبا	-11.2569
▁وزا	-11.2571
▁ke	-11.2574
▁Sta	-11.2594
▁ابین	-11.2595
▁عط	-11.2608
▁ناح	-11.2619
7	-11.264
▁Cont	-11.264
▁ابق	-11.2653
▁ted	-11.2655
▁مودن	-11.2656
▁کمت	-11.2664
ژ	-11.2669
▁ey	-11.2673
▁PS	-11.2676
▁یص	-11.272
▁اکتر	-11.2728
▁چت	-11.2731
▁یانو	-11.2736
▁موی	-11.2738
▁زیل	-11.276
▁انتر	-11.2766
▁رسا	-11.2768
▁مکر	-11.2791
▁صور	-11.2801
▁حم	-11.2802
▁Word	-11.2811
▁فرس	-11.2815
▁فای	-11.282
▁co	-11.2821
▁ارست	-11.2837
▁امش	-11.2837
co	-11.2853
▁آو	-11.2857
▁نوس	-11.287
▁لوگ	-11.2871
▁کز	-11.2877
▁32	-11.2883
▁Black	-11.2889
▁Time	-11.2891
▁شرف	-11.2897
▁امو	-11.2899
▁Bit	-11.2902
▁Game	-11.2914
▁sta	-11.2926
▁پز	-11.2926
▁قدی	-11.2931
▁قه	-11.2938
all	-11.2938
▁ندرو	-11.2943
▁اوا	-11.2945
▁روپ	-11.2952
▁رانس	-11.2953
▁اکن	-11.2955
▁دیل	-11.2961
▁۴۵	-11.2963
▁ندار	-11.2969
▁جسد	-11.2972
▁ادها	-11.2976
▁معرف	-11.2979
▁go	-11.2982
▁بست	-11.2985
▁گس	-11.2997
▁وقع	-11.2998
yst	-11.3017
▁موزی	-11.3025
ne	-11.3032
سن	-11.3053
▁وبر	-11.3053
▁مقرر	-11.3066
▁انتها	-11.3068
▁All	-11.3074
▁ناور	-11.3079
▁وژه	-11.3079
▁صدر	-11.3114
يز	-11.3117
▁چر	-11.312
mi	-11.3127
▁شته	-11.3128
▁نظ	-11.3143
▁يش	-11.3155
▁زانه	-11.3158
▁بوش	-11.3158
▁وره	-11.3162
▁هالی	-11.318
▁قم	-11.3182
▁Ri	-11.3188
▁ائم	-11.3192
▁شیش	-11.3193
TC	-11.3201
▁زي	-11.3205
سک	-11.3208
▁شنگ	-11.321
▁IT	-11.322
▁وفق	-11.3226
▁شین	-11.3248
▁غه	-11.3252
▁قصه	-11.3262
▁ارگ	-11.3262
▁يس	-11.3263
▁دومی	-11.3285
▁29	-11.3305
▁OS	-11.3325
▁انط	-11.3328
▁حف	-11.3328
RI	-11.333
▁مدی	-11.3331
ُ	-11.3336
▁رانش	-11.3337
▁op	-11.3346
MS	-11.3357
▁یگا	-11.3377
▁وهر	-11.3391
▁٣	-11.3393
▁by	-11.3395
▁زاره	-11.3395
▁زئ	-11.3395
▁امنی	-11.3396
▁Is	-11.3403
اب	-11.3414
▁پاد	-11.3416
▁Du	-11.3421
▁یانی	-11.3429
یج	-11.3436
▁کیت	-11.3446
▁di	-11.3464
▁درج	-11.3478
▁شگر	-11.348
▁Ope	-11.3487
▁ندگ	-11.3498
▁عمد	-11.3507
▁جیم	-11.3524
▁قاب	-11.3525
▁فور	-11.353
▁تغ	-11.3531
▁ایک	-11.3537
▁گیرم	-11.3546
▁nge	-11.3549
TA	-11.3554
▁Inst	-11.356
▁Sup	-11.3566
▁MS	-11.3567
▁gram	-11.3582
▁ختم	-11.3585
▁Comm	-11.3598
▁Bus	-11.3614
▁مرک	-11.3622
▁خش	-11.365
▁رداد	-11.3654
▁۲۶	-11.3656
▁Mar	-11.3661
یون	-11.3673
▁wi	-11.3697
زش	-11.3725
▁ماد	-11.3739
te	-11.374
▁Mark	-11.3742
▁پنل	-11.3744
▁واک	-11.3762
۸	-11.3765
▁ویم	-11.377
▁Car	-11.3774
▁رچ	-11.3775
▁نزو	-11.3788
▁وهم	-11.3791
▁لج	-11.3801
▁خو	-11.3801
▁کایت	-11.3805
▁تریک	-11.3813
▁تفک	-11.3821
ٔ	-11.3822
▁لاو	-11.3824
▁منتق	-11.3826
▁شیخ	-11.3853
▁CD	-11.3855
.1	-11.3858
▁مسو	-11.3866
0%	-11.387
▁رخا	-11.3872
▁منح	-11.3874
▁دلی	-11.3875
▁ینان	-11.3895
mer	-11.3901
▁ودتا	-11.3918
▁فلج	-11.3922
▁فره	-11.3922
▁واح	-11.3927
▁عفو	-11.3931
▁l	-11.3942
▁تگ	-11.3952
▁ینتر	-11.3952
▁پله	-11.3954
▁نال	-11.3954
▁at	-11.397
أ	-11.3971
▁ناهن	-11.3972
▁وفی	-11.3983
▁تکی	-11.3985
▁فدا	-11.4002
تون	-11.4005
▁<	-11.4011
▁@	-11.4011
▁۲۸	-11.4014
▁آسم	-11.4022
▁اورا	-11.4038
▁اندرو	-11.4047
▁دتر	-11.4051
▁Fin	-11.4051
▁یوی	-11.4053
▁عش	-11.4053
▁ine	-11.4063
▁نگری	-11.4066
▁سای	-11.4081
▁رزه	-11.4086
▁ton	-11.4101
▁Tech	-11.4103
▁لاق	-11.4108
▁واش	-11.411
▁120	-11.4121
▁El	-11.4132
▁Pri	-11.4135
▁افر	-11.4146
▁nes	-11.4157
▁پرد	-11.4182
▁دلش	-11.4192
▁هموار	-11.4196
▁صله	-11.42
es	-11.4205
▁ell	-11.4211
▁ومو	-11.4213
▁بلد	-11.4216
▁لکو	-11.4217
▁هیم	-11.4224
▁شتی	-11.4231
غ	-11.4236
▁لور	-11.4236
▁ac	-11.4245
بال	-11.4247
ختص	-11.4267
▁ویش	-11.4273
▁وث	-11.4297
▁مرزها	-11.4301
▁پخت	-11.4304
لر	-11.4336
▁رایت	-11.4344
▁لاری	-11.4354
▁ردار	-11.4356
▁منان	-11.4357
di	-11.4364
▁انها	-11.4365
۷	-11.4366
▁org	-11.438
▁نگو	-11.439
▁Aut	-11.4408
کا	-11.4412
▁فرین	-11.4413
▁ut	-11.4418
▁رمای	-11.4423
▁زشت	-11.4427
▁تار	-11.4432
▁ral	-11.4439
▁مچ	-11.447
▁Ass	-11.4473
▁رنا	-11.4477
▁سقط	-11.4479
▁ory	-11.4483
ad	-11.4485
▁ress	-11.4485
▁خطی	-11.4488
▁ردم	-11.449
▁یتزا	-11.4495
▁وریس	-11.45
▁اهی	-11.4502
شاهد	-11.4517
▁رگان	-11.4535
كر	-11.4545
▁یتس	-11.4553
▁پلاس	-11.4559
▁way	-11.4576
وند	-11.4581
▁ایس	-11.4582
▁Rob	-11.4589
▁ناد	-11.4595
▁دادگ	-11.4596
▁قیم	-11.4596
تز	-11.4603
▁دپ	-11.4605
▁36	-11.4609
▁ابن	-11.4611
▁ارتا	-11.4628
▁مری	-11.4634
▁صول	-11.4643
ar	-11.4645
▁ورها	-11.4645
یش	-11.4647
▁زنا	-11.4667
▁book	-11.4672
▁roid	-11.4672
▁Cloud	-11.4672
▁تپه	-11.4673
▁افتند	-11.4676
▁الع	-11.4682
▁Gal	-11.4703
▁باع	-11.471
▁لکس	-11.4716
▁گارا	-11.4724
▁II	-11.4724
▁راهن	-11.4732
mo	-11.4732
▁وزش	-11.4749
▁احد	-11.4752
بک	-11.4754
▁Cent	-11.477
20	-11.4774
▁طوف	-11.4782
▁Pho	-11.4785
▁خص	-11.4795
ni	-11.4796
▁الج	-11.4805
ca	-11.4828
▁زش	-11.4833
▁CO	-11.484
▁یرین	-11.4847
▁الک	-11.4849
▁قله	-11.485
▁ارس	-11.4861
▁ual	-11.487
▁ناختی	-11.4871
▁يك	-11.4882
▁لاین	-11.4895
▁ناو	-11.4911
ed	-11.4922
▁وردگ	-11.4926
▁راض	-11.4932
▁پات	-11.4939
▁فاصل	-11.4944
▁عطا	-11.4947
▁48	-11.4952
ound	-11.4964
▁فتح	-11.4971
▁ney	-11.4976
▁tra	-11.4979
▁ورز	-11.4979
▁Art	-11.4981
ER	-11.4981
▁Ro	-11.4982
▁gra	-11.4983
our	-11.4986
▁Ra	-11.4995
▁مقص	-11.4996
▁MA	-11.5004
▁سیت	-11.5017
▁موا	-11.5041
.2	-11.5051
▁پرا	-11.5064
▁ولیت	-11.5065
▁جش	-11.5065
▁↑	-11.507
▁xy	-11.5074
▁بارز	-11.5078
▁سیست	-11.508
▁دق	-11.5083
تحده	-11.5095
▁باق	-11.5113
ing	-11.5119
▁رئی	-11.5136
▁ti	-11.5144
▁form	-11.5149
▁لح	-11.515
▁John	-11.5172
▁ies	-11.5175
▁بص	-11.5176
▁رؤ	-11.5188
آن	-11.5203
▁ندا	-11.5214
▁On	-11.522
▁ادش	-11.5221
▁gn	-11.5224
▁بلاگ	-11.5225
▁va	-11.5226
▁ذات	-11.5235
SP	-11.5243
DC	-11.5249
▁بپ	-11.5253
DL	-11.5267
▁ویس	-11.527
▁→	-11.5275
▁هیپو	-11.5285
▁ربست	-11.5313
▁Acc	-11.5313
▁ماها	-11.5315
▁نژ	-11.5319
▁یخواه	-11.5323
▁Des	-11.5331
▁ty	-11.5333
▁رح	-11.5335
▁گا	-11.5342
ve	-11.5346
راجع	-11.5373
▁٧	-11.5381
▁سول	-11.5389
▁Stu	-11.5402
▁ger	-11.5407
▁mic	-11.544
▁ولد	-11.5455
▁شات	-11.5465
et	-11.5484
▁Next	-11.5485
سو	-11.5494
یال	-11.5506
▁سیری	-11.551
▁نات	-11.5532
▁نشا	-11.5537
▁Bar	-11.554
▁تقا	-11.5544
کی	-11.5571
▁pa	-11.5584
▁قبر	-11.5599
▁lic	-11.5605
▁اسلا	-11.5614
▁نیکی	-11.5617
▁5-	-11.5617
▁رزا	-11.5626
▁یوه	-11.5629
▁پور	-11.5632
▁رسن	-11.5638
▁رپر	-11.564
▁پوس	-11.5646
▁Ab	-11.5651
ke	-11.5657
▁tiv	-11.5699
▁شرم	-11.5701
▁خر	-11.5702
▁امب	-11.5704
▁تناس	-11.5709
▁عددی	-11.5711
▁لگر	-11.5711
▁لیپ	-11.5712
ود	-11.5712
▁رما	-11.5718
▁ببین	-11.5719
▁یزی	-11.573
▁مدرس	-11.5732
▁لتر	-11.5757
Z	-11.5799
▁رگاه	-11.5811
▁سؤ	-11.5812
ear	-11.5812
▁مرو	-11.5814
▁اظ	-11.5816
▁وردی	-11.582
▁2)	-11.5843
id	-11.5848
▁Cap	-11.5851
▁لله	-11.5851
▁هیپ	-11.5861
▁w	-11.5866
▁ga	-11.5869
sa	-11.5869
▁خوا	-11.587
▁هانی	-11.5877
ES	-11.5879
MI	-11.5881
▁مشت	-11.5891
▁65	-11.5898
▁Re	-11.5906
oin	-11.5913
▁سعود	-11.5917
▁Data	-11.5917
▁سحر	-11.5918
▁تخص	-11.5927
▁لخ	-11.5941
۹	-11.5955
▁رؤیا	-11.5956
▁ort	-11.5957
▁un	-11.5957
▁اولی	-11.5959
ge	-11.5978
▁لگ	-11.598
▁am	-11.5998
▁AC	-11.6004
▁ئد	-11.6005
tt	-11.6014
▁عفون	-11.6025
اژ	-11.6028
▁ious	-11.6028
▁PHP	-11.6029
▁غات	-11.6033
▁والد	-11.6037
▁ec	-11.6038
▁اوند	-11.6046
▁Cha	-11.6051
▁Bat	-11.6057
یکس	-11.6069
BS	-11.6083
▁نض	-11.609
ub	-11.6093
▁بیس	-11.6104
EC	-11.6132
▁نوم	-11.6153
▁Free	-11.6158
▁Ana	-11.6162
▁بح	-11.6167
▁سطی	-11.6167
▁Up	-11.6186
▁وستان	-11.6193
▁مقر	-11.6198
▁ba	-11.6211
▁حک	-11.6212
▁1)	-11.6222
▁ورید	-11.6223
▁کلین	-11.6238
▁ویق	-11.6244
▁یونا	-11.6244
▁min	-11.626
▁فری	-11.6266
مو	-11.6266
▁ولر	-11.6269
▁کلر	-11.6271
ضم	-11.6273
اعی	-11.6275
▁قان	-11.628
▁انشا	-11.6281
▁il	-11.6294
▁سفت	-11.6296
▁مرت	-11.6298
▁افرا	-11.6298
.4	-11.6311
▁رگش	-11.6311
▁یتم	-11.6312
ربین	-11.6313
هیز	-11.6314
▁اندا	-11.6315
▁tu	-11.6317
▁zon	-11.6324
▁ارتر	-11.6329
لیست	-11.6333
▁AI	-11.6338
▁شف	-11.6339
▁ser	-11.6348
▁55	-11.6353
ٌ	-11.6369
▁إ	-11.6369
▁Le	-11.637
Tu	-11.637
▁Press	-11.637
▁Post	-11.637
▁۲٫	-11.6373
▁ol	-11.6383
▁نیش	-11.6384
▁شیا	-11.6397
▁34	-11.64
▁بتا	-11.6405
▁Un	-11.6409
▁ریاض	-11.6411
▁ادم	-11.6413
▁Res	-11.6436
or	-11.6436
▁الز	-11.6437
لیس	-11.6438
▁آمری	-11.6448
▁آلود	-11.645
pp	-11.6454
▁Rec	-11.6458
▁یرو	-11.6465
▁Sam	-11.647
CC	-11.6471
▁آخ	-11.6478
▁رفی	-11.648
▁نداری	-11.649
▁Dev	-11.6492
▁فین	-11.6504
▁ذار	-11.6509
▁فران	-11.6513
▁est	-11.6534
IP	-11.6536
▁85	-11.6538
▁فک	-11.654
▁اکر	-11.6556
▁tic	-11.6564
▁ch	-11.657
▁ردو	-11.6585
▁iew	-11.6602
▁Book	-11.6604
▁Dead	-11.6604
▁آزما	-11.6604
▁فرادی	-11.6605
▁Blue	-11.6607
▁95	-11.6615
▁Coll	-11.6619
میان	-11.6624
▁Sha	-11.6625
▁قصر	-11.6628
▁آرا	-11.6629
▁Sea	-11.6633
تین	-11.6635
▁۶۵	-11.6657
▁وشم	-11.6686
▁پروژ	-11.6687
▁لغت	-11.6693
▁سلو	-11.6703
▁ژنو	-11.6705
▁▪	-11.6722
▁ADHD	-11.6722
▁back	-11.6723
▁ware	-11.6723
▁--	-11.6732
▁33	-11.6739
ترون	-11.6765
اپ	-11.6766
▁ستاد	-11.6769
▁حفا	-11.6771
▁تانی	-11.6774
▁UN	-11.6781
▁end	-11.6789
▁Not	-11.68
قریب	-11.6821
SD	-11.6823
10	-11.6823
▁دوپ	-11.6831
لاد	-11.6838
▁**	-11.6843
▁خال	-11.6844
▁Tran	-11.6847
▁هادی	-11.6847
▁ریال	-11.685
▁اختر	-11.6857
▁Per	-11.6859
▁Su	-11.6864
▁Live	-11.6868
▁ka	-11.6877
▁Pal	-11.688
▁Pe	-11.6882
▁sc	-11.6919
▁VR	-11.6925
▁ینس	-11.6925
▁واج	-11.6927
▁wa	-11.6928
▁چیه	-11.6931
▁همس	-11.6963
▁Back	-11.6965
▁(1)	-11.6965
▁۱٫	-11.697
▁Po	-11.6972
TE	-11.6982
▁شاخ	-11.6984
▁ow	-11.6995
▁زه	-11.7
▁وکر	-11.7007
▁Gra	-11.7012
▁سپر	-11.7018
▁مبی	-11.703
▁1.	-11.7043
J	-11.7048
ool	-11.7052
▁تبار	-11.707
▁bal	-11.7082
▁ستید	-11.7084
▁ناظ	-11.7086
▁www	-11.7088
▁LED	-11.7088
oT	-11.7089
▁CRM	-11.7089
▁API	-11.709
OS	-11.7091
▁بلیت	-11.7109
ell	-11.7112
▁ad	-11.7113
▁اریک	-11.7126
▁250	-11.7132
▁we	-11.714
▁اهن	-11.7142
60	-11.7144
▁Gene	-11.7144
▁AR	-11.7152
▁Chi	-11.7156
رت	-11.7157
▁ومان	-11.7158
▁Ti	-11.7177
▁۲۹	-11.7179
▁sa	-11.718
▁ارتم	-11.718
▁St	-11.7185
ستان	-11.7189
▁معما	-11.7204
▁مایک	-11.7209
▁بپر	-11.7211
▁‫	-11.7213
▁Out	-11.7214
▁King	-11.7214
▁فاهی	-11.7219
▁هرک	-11.7231
▁مخت	-11.7237
▁ویید	-11.724
▁وآ	-11.724
▁فلش	-11.7241
▁نبی	-11.7244
▁Lo	-11.7244
ol	-11.7271
▁وزان	-11.7272
CA	-11.7284
▁تلا	-11.7285
▁شرک	-11.7292
▁زاین	-11.7295
▁بلی	-11.7299
▁fi	-11.7306
▁نگین	-11.7317
▁39	-11.7331
▁سیدند	-11.7347
▁An	-11.7349
▁موع	-11.7365
▁ارون	-11.7384
▁وژ	-11.7392
▁ائت	-11.7394
▁mon	-11.7398
ly	-11.74
app	-11.7405
▁ذره	-11.7411
▁شح	-11.7417
▁رکه	-11.7418
▁اروی	-11.7423
▁نری	-11.7425
۲۰	-11.7426
▁تکا	-11.7427
▁رافی	-11.7428
▁رجا	-11.7437
▁رآ	-11.7445
▁cy	-11.7445
12	-11.7448
▁Ar	-11.7455
+	-11.7458
٠	-11.7458
▁Ne	-11.7462
زه	-11.7467
▁‍	-11.7468
▁←	-11.7468
▁رعون	-11.747
igh	-11.7472
ung	-11.748
▁Bo	-11.7482
▁che	-11.7486
PA	-11.7489
▁Pa	-11.7501
▁IN	-11.7503
▁مخف	-11.7508
▁ner	-11.7517
▁یوس	-11.7567
ia	-11.7571
pe	-11.7576
▁موت	-11.7584
▁Vis	-11.7597
▁عمال	-11.76
▁یستاد	-11.7604
▁ارکت	-11.7616
▁ماک	-11.7618
▁وزف	-11.7621
تیک	-11.7622
IS	-11.7633
ull	-11.7641
▁38	-11.765
▁سلا	-11.765
▁pos	-11.7654
▁ظه	-11.7677
اق	-11.7678
▁یگو	-11.7681
یخ	-11.7687
▁ناف	-11.7691
▁اتش	-11.7693
▁Ja	-11.7697
▁خیم	-11.7698
▁وپا	-11.7718
▁ورک	-11.772
box	-11.7721
▁si	-11.7728
▁قال	-11.7729
▁کوا	-11.7737
▁خند	-11.7752
▁فرن	-11.776
at	-11.7767
▁رلی	-11.7793
یپ	-11.7793
▁dia	-11.7806
▁اکی	-11.7809
▁یالی	-11.7814
▁اعما	-11.7819
▁وگر	-11.7823
است	-11.7828
▁گرو	-11.7847
توس	-11.7849
▁۷۵	-11.7859
▁کنش	-11.786
▁Group	-11.7863
▁Rep	-11.7864
▁word	-11.7864
▁day	-11.7873
▁فتاده	-11.7876
▁راتو	-11.7888
▁کشش	-11.7895
▁اعم	-11.7898
▁فنا	-11.7903
▁Edi	-11.7906
▁Hi	-11.7909
▁rol	-11.7927
▁رشت	-11.7948
ut	-11.7954
▁یزن	-11.7978
▁Da	-11.7989
▁Vo	-11.7991
▁Davi	-11.7998
▁sp	-11.7998
▁stra	-11.7998
▁دارن	-11.8003
چن	-11.8025
▁اکا	-11.803
▁واند	-11.8032
▁he	-11.8035
olo	-11.8048
▁شیب	-11.8082
BC	-11.8083
AT	-11.8088
▁Ho	-11.8104
تعد	-11.8111
▁ونده	-11.8114
IT	-11.8126
mart	-11.8126
▁Link	-11.8135
▁ستور	-11.8135
▁٤	-11.8137
▁٥	-11.8138
▁nch	-11.8152
▁۴۰۰	-11.8152
on	-11.8168
▁رزمی	-11.8169
▁io	-11.8195
▁هیا	-11.8203
▁ویو	-11.8215
▁رهای	-11.8217
▁ههای	-11.8237
▁خصی	-11.8245
▁قط	-11.8264
▁ومت	-11.827
so	-11.8271
▁Pay	-11.8275
▁پد	-11.8283
حیح	-11.8285
▁Face	-11.829
eb	-11.8295
▁6-	-11.8295
▁hu	-11.8304
▁اقت	-11.8309
▁AM	-11.8315
▁هي	-11.8319
▁اوب	-11.8322
▁Ka	-11.8333
▁you	-11.8338
پا	-11.8347
eed	-11.835
▁پین	-11.8352
▁Or	-11.8356
▁بخور	-11.8377
▁وانا	-11.8378
▁Ver	-11.8381
▁نوان	-11.8397
ff	-11.8397
sk	-11.8407
▁بجز	-11.8415
▁with	-11.8415
▁Geo	-11.8415
▁لیتی	-11.8416
▁دیم	-11.8416
▁رادار	-11.8421
▁Rev	-11.8421
▁عیار	-11.8422
▁IBM	-11.8423
▁per	-11.8425
▁MP	-11.8426
▁مرح	-11.8428
▁تاخ	-11.8429
▁رنت	-11.8438
▁جاه	-11.8444
▁MIT	-11.8445
▁الر	-11.847
▁Bri	-11.8472
▁بروی	-11.8481
پل	-11.8493
AR	-11.8499
▁فار	-11.8516
▁Ca	-11.8523
▁ندهای	-11.8528
▁Sem	-11.8532
▁گردی	-11.8533
▁یبت	-11.8533
▁کنت	-11.8534
▁ve	-11.8539
▁ex	-11.8544
▁جزی	-11.8547
▁عی	-11.8548
▁هارد	-11.855
▁Life	-11.8557
▁ncy	-11.8557
▁View	-11.8557
▁HPV	-11.8558
▁tics	-11.8559
▁لابی	-11.8569
▁Ama	-11.857
▁duc	-11.8572
فه	-11.8573
▁US	-11.8577
▁ینال	-11.8577
▁ردیم	-11.8583
▁گانی	-11.8608
▁وئن	-11.8621
▁ko	-11.8625
▁pe	-11.8631
▁Blo	-11.8637
▁ha	-11.8637
▁یاید	-11.8653
▁خرس	-11.8654
▁آلن	-11.8696
تن	-11.871
▁))	-11.8711
▁تقال	-11.8717
▁كم	-11.8723
▁پید	-11.8727
▁سلم	-11.8732
▁روتر	-11.8734
هله	-11.8737
▁44	-11.8762
▁طرن	-11.8763
▁Pi	-11.8764
▁u	-11.8767
▁بتن	-11.8771
▁مکن	-11.8774
▁انق	-11.8792
▁لش	-11.88
AP	-11.8808
دار	-11.8809
▁جاد	-11.8814
▁ترکی	-11.8819
دها	-11.8821
va	-11.8826
▁تایی	-11.8829
▁بدو	-11.883
▁Che	-11.8841
▁عال	-11.8844
▁رمو	-11.8846
ینگ	-11.8848
▁Tru	-11.885
▁mg	-11.8852
▁ابز	-11.8859
▁int	-11.886
▁حما	-11.8865
▁طنز	-11.8868
لف	-11.8873
▁ارید	-11.8878
▁Glo	-11.8879
▁نفی	-11.8888
▁au	-11.8891
▁He	-11.8893
▁ئم	-11.8894
▁ev	-11.8903
▁کبر	-11.8904
▁CV	-11.8905
▁Vi	-11.8918
▁رهن	-11.8919
▁ضل	-11.8922
▁64	-11.8938
▁Nat	-11.8938
▁Medi	-11.8941
▁It	-11.8943
▁محا	-11.8944
▁سرب	-11.8957
▁داب	-11.8959
▁نتیج	-11.8965
▁فع	-11.8967
▁Je	-11.8984
é	-11.899
▁Stre	-11.8999
▁حصول	-11.8999
▁NET	-11.8999
▁pt	-11.9
▁وطن	-11.9006
▁ron	-11.9008
▁کیس	-11.901
▁سکس	-11.9013
▁Mc	-11.9015
xt	-11.9032
▁ئن	-11.9034
▁ئون	-11.9035
▁دریچ	-11.9055
▁گلف	-11.9058
▁تید	-11.906
▁حش	-11.906
▁تاسف	-11.9061
▁وعد	-11.9066
تصا	-11.9069
▁ونین	-11.9076
▁یخی	-11.9082
ul	-11.9089
بو	-11.9091
▁ارج	-11.9123
▁آیی	-11.9138
▁ومن	-11.9139
▁هنی	-11.9148
▁SQL	-11.915
▁DNS	-11.9151
▁iz	-11.9157
▁Lib	-11.9158
▁میکنی	-11.9162
▁nda	-11.9164
no	-11.9171
▁انکا	-11.9172
▁ric	-11.9174
شر	-11.9188
سر	-11.9196
▁ya	-11.92
▁sm	-11.9222
▁Chr	-11.9223
▁III	-11.9224
▁یتو	-11.9232
▁رزش	-11.9233
رآمد	-11.9233
▁لث	-11.9245
▁نهم	-11.9257
▁ho	-11.9261
▁انات	-11.9266
▁تمن	-11.9284
▁ساب	-11.9295
▁Mode	-11.9296
▁فض	-11.9299
▁نجم	-11.9304
▁ript	-11.9304
▁hool	-11.9304
30	-11.9305
▁Ki	-11.9305
▁lay	-11.9306
▁ردی	-11.9309
▁Mast	-11.9311
▁یاف	-11.9318
▁UV	-11.9318
▁زیس	-11.9319
▁ضان	-11.9322
▁Day	-11.9324
▁عاش	-11.9325
▁ID	-11.9329
▁کفر	-11.933
ev	-11.9333
▁vo	-11.934
▁99	-11.9342
▁دش	-11.9347
▁Love	-11.9367
▁هرم	-11.9377
▁37	-11.9378
hi	-11.938
▁يان	-11.9391
▁ضط	-11.9398
▁پیو	-11.9406
▁Di	-11.9409
▁رعی	-11.941
▁نشت	-11.941
▁وسی	-11.9415
▁Inc	-11.9418
▁۳۱	-11.9422
▁ادار	-11.9424
▁کنن	-11.9437
▁کج	-11.9443
▁ادای	-11.9445
▁وئی	-11.9454
يا	-11.9455
▁SSL	-11.9461
دام	-11.9467
▁مونی	-11.947
▁ریق	-11.9475
▁os	-11.9485
▁ترها	-11.9487
▁51	-11.9497
▁ua	-11.9526
▁داگ	-11.9534
▁ue	-11.9537
نده	-11.9544
▁ژان	-11.9547
▁Lea	-11.9555
▁dy	-11.956
tch	-11.9576
▁Cra	-11.9584
▁جذ	-11.9584
▁47	-11.9589
▁Te	-11.9605
▁کسان	-11.9607
▁43	-11.961
▁آله	-11.961
▁42	-11.9616
▁HTTP	-11.9618
▁Plus	-11.9619
▁fice	-11.9621
▁کیفی	-11.9622
زو	-11.9624
▁الیس	-11.9627
▁لادی	-11.9632
.3	-11.9648
کینز	-11.9652
▁hi	-11.9654
▁لوی	-11.9661
▁دوس	-11.9667
▁IS	-11.9668
▁۳۲	-11.9676
▁امرو	-11.9682
▁PR	-11.9688
▁فلا	-11.9694
▁دیون	-11.9694
▁cap	-11.9704
▁Wha	-11.9744
▁شیل	-11.9757
▁Pan	-11.9758
Pho	-11.9772
▁San	-11.9774
▁PDF	-11.9781
▁Mon	-11.9782
▁سطو	-11.9783
▁جم	-11.9783
ount	-11.9805
op	-11.9808
▁انتا	-11.9815
پر	-11.9817
▁بلک	-11.9824
▁Ph	-11.9827
▁Sur	-11.984
▁Ant	-11.9848
▁داق	-11.9849
▁دنش	-11.9861
▁کمب	-11.988
▁Nor	-11.9889
▁نسی	-11.9891
▁دِ	-11.9893
▁pi	-11.9894
▁car	-11.99
▁كر	-11.9905
َ	-11.9905
▁لك	-11.9925
▁یتون	-11.9931
▁Chri	-11.9935
▁هستن	-11.9941
▁Key	-11.9945
▁Fall	-11.9946
نچ	-11.9948
▁gen	-11.9952
▁700	-11.9959
شناس	-11.9962
▁لئون	-11.9962
▁دخان	-11.997
▁Adv	-11.9972
▁تي	-11.9978
▁TV	-11.9985
▁ادل	-11.9988
▁Bu	-11.9988
LS	-11.9996
▁۳۶	-12.0001
▁۳۴	-12.0009
▁روج	-12.0011
▁عذ	-12.0027
▁ناها	-12.0043
▁72	-12.0048
▁شیری	-12.0071
ry	-12.0076
▁دستم	-12.0093
▁(2)	-12.0111
▁Stra	-12.0111
▁سپا	-12.0121
▁tch	-12.0121
▁Pet	-12.0133
▁گز	-12.0133
▁EA	-12.0139
SI	-12.0144
▁جاز	-12.015
▁دیدی	-12.0153
▁ier	-12.0162
▁تیپ	-12.0169
▁dis	-12.0171
▁ess	-12.0172
اقبت	-12.0173
▁ضر	-12.0177
▁EB	-12.0187
RE	-12.0193
▁ژل	-12.0202
▁اوک	-12.0206
ind	-12.0212
▁fli	-12.0212
▁گفتی	-12.0218
▁نته	-12.0225
da	-12.0227
do	-12.0229
reat	-12.0237
یچ	-12.0238
ust	-12.0258
▁خلا	-12.0265
رات	-12.0266
▁bar	-12.0268
▁پرور	-12.0269
▁ویرا	-12.0274
▁۸۵	-12.0287
▁Soc	-12.0293
▁قرب	-12.0294
▁Tom	-12.0299
▁des	-12.0303
▁Sim	-12.0316
▁dom	-12.0329
ير	-12.0329
▁گور	-12.0332
▁gin	-12.0353
▁DC	-12.0356
▁stic	-12.0361
▁SE	-12.0365
انه	-12.037
▁ریسم	-12.0373
▁رزان	-12.0387
▁الیان	-12.0388
j	-12.0407
▁رفا	-12.0415
▁bo	-12.0417
LM	-12.0429
▁پوشی	-12.0433
▁ca	-12.0443
▁وته	-12.0447
▁رتا	-12.0453
▁Java	-12.0453
▁File	-12.0454
▁شتاین	-12.0457
▁وانگ	-12.046
▁Dig	-12.0464
▁نزل	-12.0464
▁قفس	-12.0476
▁زرق	-12.0489
CS	-12.049
▁41	-12.0494
▁یمه	-12.0502
▁ورست	-12.0509
▁انجا	-12.0511
▁رینگ	-12.0512
▁بشه	-12.0513
▁شتند	-12.0521
▁pho	-12.0526
▁هیج	-12.0541
▁یلت	-12.0552
▁ip	-12.0562
▁res	-12.0567
mb	-12.0567
▁ارسا	-12.0567
صت	-12.0568
▁mm	-12.057
▁نتیک	-12.057
▁2.	-12.057
ختار	-12.0574
▁Mat	-12.0587
▁As	-12.0591
▁بز	-12.0595
▁ردین	-12.0606
طر	-12.0607
▁صفت	-12.0611
▁49	-12.0613
ang	-12.0614
▁قل	-12.0615
▁شاب	-12.0623
▁€	-12.0628
▁ular	-12.0629
).	-12.063
▁How	-12.0631
▁gon	-12.0631
▁dio	-12.0632
▁tt	-12.0633
▁فج	-12.0637
IC	-12.0637
▁360	-12.0637
لتون	-12.0639
▁۵۵	-12.064
AL	-12.0657
▁Dia	-12.0659
▁Char	-12.0666
SA	-12.0674
▁Mari	-12.0679
▁جیل	-12.068
▁bit	-12.068
▁یوت	-12.068
▁que	-12.0682
▁کسا	-12.0682
▁اپو	-12.0686
▁تالی	-12.0701
▁والا	-12.0717
EG	-12.0726
EN	-12.0729
▁IV	-12.0731
▁wei	-12.0736
▁ff	-12.0745
▁ومیت	-12.0748
▁کیش	-12.0755
▁۹۹	-12.0766
▁der	-12.0788
▁Ju	-12.0798
▁ظل	-12.0804
▁Sky	-12.0807
▁West	-12.0808
▁Bio	-12.0808
▁Gold	-12.0808
▁غد	-12.0809
▁؟!	-12.081
.0	-12.0813
▁face	-12.0815
▁Ko	-12.0818
▁Ste	-12.0822
▁Ang	-12.0823
▁((	-12.0824
▁ky	-12.0824
▁خرو	-12.0824
▁CI	-12.0824
▁چاه	-12.0824
▁Ele	-12.0825
▁SD	-12.0825
▁Hua	-12.0832
TM	-12.0832
▁USD	-12.0848
▁نگور	-12.0866
زر	-12.0867
▁Rem	-12.087
▁Arch	-12.0872
▁Com	-12.0886
▁چنگ	-12.089
▁Ba	-12.0896
▁توق	-12.0898
▁ris	-12.0899
▁قس	-12.09
DR	-12.0906
▁تحر	-12.0906
▁نبا	-12.0908
▁ir	-12.0916
یعت	-12.0928
▁یفر	-12.0931
لى	-12.0934
▁تئو	-12.0935
▁روتن	-12.0949
▁التی	-12.0967
▁وشن	-12.0974
▁Don	-12.0976
▁bi	-12.0982
▁هیأت	-12.0988
▁mark	-12.0989
▁har	-12.0992
▁تأث	-12.0993
▁کتا	-12.1001
▁pp	-12.1007
▁LG	-12.1009
it	-12.1012
▁gue	-12.1018
چی	-12.1022
▁اعی	-12.1024
ET	-12.1036
▁om	-12.1039
ya	-12.1045
IA	-12.1046
▁Max	-12.1047
▁God	-12.1051
40	-12.1061
▁تران	-12.1068
go	-12.1073
▁رستی	-12.1079
▁Am	-12.108
▁vi	-12.1089
am	-12.1091
▁حیط	-12.1098
ver	-12.1111
▁رفر	-12.1113
▁نتین	-12.1115
▁Ga	-12.1118
▁قات	-12.1124
▁هور	-12.113
▁دیان	-12.1139
sp	-12.114
oint	-12.1147
▁Cli	-12.1151
old	-12.1156
▁46	-12.1156
port	-12.1165
▁دمن	-12.117
uild	-12.1172
▁تله	-12.1173
▁XML	-12.1174
▁Leg	-12.1175
▁فاد	-12.1175
▁٦	-12.1176
▁Media	-12.1177
▁وزر	-12.1183
▁Part	-12.1184
▁خوی	-12.1184
▁Tra	-12.1185
▁مایا	-12.1194
▁nb	-12.12
▁پرسی	-12.1205
اکنش	-12.1215
LE	-12.1215
شاپ	-12.1226
▁Ext	-12.1227
▁Shi	-12.1228
▁ارکر	-12.1229
▁نوح	-12.1229
▁اردی	-12.1234
MP	-12.1236
▁تگا	-12.1248
▁یسک	-12.1252
ایی	-12.1252
▁ندتر	-12.1257
▁نگا	-12.1268
vi	-12.1271
▁!!	-12.1275
▁AD	-12.1281
▁SM	-12.1283
▁احب	-12.1304
▁ببینی	-12.1306
▁رنی	-12.1308
۶۰	-12.1312
▁رینا	-12.1313
▁بریت	-12.1314
▁ولز	-12.1326
mm	-12.1332
▁هکر	-12.1332
AC	-12.1341
ath	-12.1347
▁قاد	-12.1349
▁توز	-12.1353
▁لتا	-12.1356
▁Cal	-12.1359
▁State	-12.1364
▁۳٫	-12.1365
▁ege	-12.1365
▁نسا	-12.1374
▁رتیز	-12.1374
▁ley	-12.1377
ord	-12.1388
io	-12.1394
▁lor	-12.1397
80	-12.141
▁ریقا	-12.1414
low	-12.1415
▁fer	-12.1415
▁Br	-12.1418
▁fa	-12.1436
EM	-12.1438
▁Ed	-12.1441
▁نشو	-12.1449
▁ria	-12.1467
▁Tel	-12.1471
▁شای	-12.1484
▁ایتی	-12.1492
▁۴۸	-12.15
▁نید	-12.1503
▁:)	-12.1505
▁Gi	-12.1514
يش	-12.1517
▁cia	-12.1518
▁AT	-12.1531
▁NA	-12.1535
▁Sci	-12.1549
▁دلقک	-12.1555
▁!!!	-12.1555
▁ward	-12.1555
▁Rock	-12.1556
▁box	-12.1568
▁Card	-12.1576
▁عظ	-12.1583
▁۶۴	-12.1587
نک	-12.1591
▁Dom	-12.1595
▁غی	-12.1599
▁ov	-12.1601
▁66	-12.1604
▁کود	-12.1606
▁Ob	-12.1617
▁بیم	-12.1618
▁قهر	-12.1622
▁bot	-12.1622
یغ	-12.1627
▁واه	-12.1641
▁ودم	-12.1641
▁za	-12.1649
▁شتا	-12.1675
dd	-12.1697
ir	-12.1698
الیس	-12.1704
▁Fra	-12.1719
▁الب	-12.1727
▁Jam	-12.1732
▁رتین	-12.1737
▁du	-12.1739
&	-12.1742
ە	-12.1751
▁زگش	-12.1751
▁White	-12.1751
▁Code	-12.1751
▁Park	-12.1751
▁Real	-12.1752
▁Imp	-12.1754
درس	-12.1755
دگی	-12.1763
▁خیا	-12.1766
▁متو	-12.1772
▁آف	-12.1779
▁Ya	-12.178
▁سرگ	-12.1788
▁بط	-12.1793
▁اورم	-12.1794
▁MI	-12.18
▁انوس	-12.1809
▁دژ	-12.1811
▁lla	-12.1827
90	-12.1828
▁زگی	-12.1834
.7	-12.1848
▁DV	-12.1859
▁۳۷	-12.1864
▁ضلا	-12.1869
▁معه	-12.1873
▁id	-12.1885
▁Yo	-12.1892
▁Cat	-12.1893
▁کوت	-12.1905
▁Si	-12.1906
PP	-12.1909
▁Ber	-12.1911
▁shi	-12.1912
▁Ru	-12.1919
▁Add	-12.1921
▁نبر	-12.1924
▁مدا	-12.1945
▁board	-12.1951
▁ستثن	-12.1951
▁Space	-12.1951
▁hine	-12.1951
▁phy	-12.1952
▁میکنن	-12.1953
▁وتاکس	-12.1956
▁Har	-12.1965
▁تشک	-12.1966
▁ریگان	-12.1968
▁ph	-12.1969
▁56	-12.1974
umb	-12.1974
▁Port	-12.1981
▁قهرم	-12.1983
PC	-12.1989
▁لانس	-12.1998
خت	-12.201
BI	-12.2017
▁رهنگ	-12.2021
▁Sun	-12.2039
▁Jour	-12.2044
RP	-12.2048
▁راتی	-12.2058
▁یلین	-12.2059
un	-12.2063
بود	-12.2065
▁7-	-12.2071
▁CA	-12.208
ead	-12.2081
▁ji	-12.2086
gi	-12.2087
▁IC	-12.2105
ho	-12.2106
گویی	-12.2107
یث	-12.2113
▁Met	-12.2113
▁سرع	-12.2115
ki	-12.2119
شو	-12.2127
▁نرو	-12.2127
▁ru	-12.213
▁یگن	-12.213
▁Del	-12.2132
HE	-12.2135
▁آزمو	-12.2144
▁نِ	-12.2147
ap	-12.2149
▁iPad	-12.2155
▁Heal	-12.2155
▁HTTPS	-12.2155
▁Drive	-12.2156
▁ریپتو	-12.2156
▁Way	-12.2156
▁لکت	-12.2157
▁row	-12.2157
▁News	-12.2158
▁FX	-12.2159
▁red	-12.2165
FC	-12.2169
▁180	-12.2176
▁rt	-12.2179
▁لئو	-12.2183
▁باط	-12.2188
▁بدم	-12.222
▁con	-12.2227
▁رحی	-12.2231
▁ICO	-12.2238
▁Ul	-12.2238
▁63	-12.2239
▁Dis	-12.2241
▁ملو	-12.2243
▁نمو	-12.2245
▁BA	-12.2246
▁تاسی	-12.2251
بنا	-12.2256
۱۰	-12.226
▁2:	-12.2283
▁Lu	-12.229
▁نجی	-12.229
▁نقاش	-12.2292
▁توا	-12.2307
▁3.	-12.2312
▁دکار	-12.2321
▁ذرت	-12.2322
▁الد	-12.2326
CG	-12.2329
VR	-12.234
15	-12.2341
▁نست	-12.2351
BA	-12.2358
▁load	-12.2363
▁php	-12.2364
▁Dark	-12.2365
▁Hub	-12.2365
▁DS	-12.2371
▁Ben	-12.2374
ank	-12.2383
SM	-12.2385
نام	-12.2411
▁dex	-12.2414
▁as	-12.242
▁54	-12.2423
▁گواه	-12.2426
▁نها	-12.2431
▁ret	-12.2439
0	-12.2446
▁هلو	-12.2447
▁۳۸	-12.2447
▁HP	-12.2462
▁لیدی	-12.2463
▁بزا	-12.2465
▁Hor	-12.2474
▁bus	-12.2475
▁کتو	-12.2476
▁زان	-12.249
▁Dir	-12.249
▁Onl	-12.2494
▁بکا	-12.2496
▁Core	-12.2499
5%	-12.2512
▁8-	-12.2524
۰	-12.2539
▁ارزی	-12.2543
▁رونا	-12.2546
RC	-12.2552
▁Dan	-12.2555
▁Rese	-12.2559
▁han	-12.2562
لیم	-12.2562
▁حضر	-12.2563
▁SA	-12.2565
q	-12.2566
▁pri	-12.2567
ost	-12.2572
▁House	-12.2576
▁base	-12.2576
▁(3)	-12.2577
▁Big	-12.2577
▁Fire	-12.2578
▁دودی	-12.2578
▁کاس	-12.258
▁rge	-12.2581
MO	-12.2581
VD	-12.2583
▁ount	-12.2587
▁Crea	-12.259
nk	-12.2591
۸۰	-12.2592
▁2.0	-12.2593
حق	-12.2596
EP	-12.2597
▁ire	-12.2604
▁تورها	-12.2605
▁Ex	-12.2607
▁TR	-12.2608
▁Conn	-12.261
▁گیم	-12.2612
▁وشی	-12.2623
▁لوتن	-12.2624
▁رضو	-12.2637
▁RS	-12.2639
MA	-12.2644
FL	-12.2656
HA	-12.2686
▁blo	-12.2694
▁کالت	-12.2696
▁Par	-12.2708
▁96	-12.2709
▁بچ	-12.2722
▁sis	-12.2736
▁Vol	-12.2741
▁Ke	-12.2745
gg	-12.275
▁اخر	-12.2752
▁جون	-12.2754
مك	-12.2759
▁Eur	-12.2761
▁Ann	-12.2773
▁تعا	-12.2777
▁eBay	-12.2793
▁Class	-12.2793
▁4)	-12.2794
▁ific	-12.2794
▁ium	-12.2795
▁CPU	-12.2795
▁۴٫	-12.2796
▁Lab	-12.2797
RM	-12.2807
ازید	-12.2811
TS	-12.2815
▁وسک	-12.2817
▁ریتی	-12.2822
▁۹۵	-12.2822
▁ستد	-12.2825
▁ورین	-12.2835
aul	-12.2849
▁End	-12.286
▁ختن	-12.2861
▁Pers	-12.2866
▁یرن	-12.2867
CO	-12.2876
▁لید	-12.2879
▁Mini	-12.2882
▁mp	-12.2886
▁دسر	-12.2893
▁ریگ	-12.2896
▁ریچ	-12.2906
▁بسا	-12.2926
▁عنو	-12.293
▁Dra	-12.2932
▁Bro	-12.2942
ew	-12.2949
ka	-12.2957
▁UC	-12.296
▁وشا	-12.2966
▁راوی	-12.2971
ie	-12.2986
ash	-12.2989
▁Wa	-12.2989
▁رجو	-12.2994
▁لها	-12.2997
▁Plan	-12.3016
▁Video	-12.3016
▁chain	-12.3016
▁Rich	-12.3016
▁Watch	-12.3016
▁بذر	-12.3018
▁Sub	-12.3021
▁هیرو	-12.3025
▁Aca	-12.3029
▁ab	-12.3033
رین	-12.304
▁chi	-12.3046
▁ver	-12.3048
▁ورق	-12.3051
▁ربی	-12.3062
▁لاش	-12.3074
▁یزین	-12.3086
▁نگی	-12.3086
▁ION	-12.3097
▁CC	-12.3102
OT	-12.3103
wa	-12.3124
▁طح	-12.313
▁نشی	-12.3131
▁نقا	-12.3138
▁Hum	-12.314
▁جوک	-12.3153
▁صم	-12.3154
ur	-12.3162
▁DA	-12.3168
▁Cor	-12.3192
مى	-12.3192
▁EC	-12.3193
▁can	-12.3194
▁val	-12.3205
▁اخته	-12.3214
▁اشن	-12.3223
▁وردن	-12.3227
▁ja	-12.3238
▁Page	-12.3243
▁berg	-12.3243
▁Store	-12.3245
▁Bank	-12.3247
▁فتند	-12.3248
لاک	-12.3251
ix	-12.3252
▁یمون	-12.3259
▁واب	-12.326
▁nol	-12.326
▁Sal	-12.3269
▁وشند	-12.3273
▁Min	-12.3279
70	-12.328
▁cont	-12.3284
▁گها	-12.3286
est	-12.3289
CE	-12.3298
17	-12.3301
▁Pat	-12.3319
GC	-12.3326
▁توب	-12.3327
▁DI	-12.3336
▁ینز	-12.3347
▁Tri	-12.3349
▁Wat	-12.335
▁بگم	-12.3356
▁نول	-12.3358
▁جیر	-12.336
▁SS	-12.3363
OL	-12.3363
▁ss	-12.3395
▁sto	-12.3399
▁فسر	-12.3408
VC	-12.3418
▁نوت	-12.3429
▁Colo	-12.343
▁CH	-12.343
▁تاکی	-12.3441
▁نزال	-12.3448
▁Gu	-12.3462
▁bu	-12.3462
▁br	-12.3464
▁یلا	-12.3466
=	-12.3467
▁Spot	-12.3475
▁Type	-12.3475
▁Evil	-12.3475
▁wood	-12.3476
▁User	-12.3476
▁Sony	-12.3476
▁Just	-12.3476
▁Sp	-12.3477
▁شكل	-12.349
▁۴۷	-12.3494
▁JP	-12.3497
▁۴۲	-12.3504
he	-12.3506
▁گلی	-12.3517
سکو	-12.3519
atch	-12.352
CD	-12.3527
▁فیا	-12.3543
زا	-12.3562
▁52	-12.3574
▁Brea	-12.3582
▁Gen	-12.3584
▁لیای	-12.3591
▁so	-12.3603
▁3)	-12.3605
▁vis	-12.3606
▁لوس	-12.3607
▁پروا	-12.3612
▁cle	-12.3621
▁عاد	-12.3622
pt	-12.3624
٫	-12.3625
لس	-12.3637
▁ریپ	-12.3651
▁۴۴	-12.3655
▁ot	-12.3665
OR	-12.3672
▁Tim	-12.3676
CI	-12.3689
SB	-12.369
▁رهی	-12.3693
تس	-12.3694
MC	-12.3696
▁طل	-12.3707
▁gi	-12.371
▁®	-12.3714
▁Trump	-12.3714
▁Mult	-12.3715
▁شیگان	-12.3716
▁EPA	-12.3718
▁رزم	-12.3722
▁اسرا	-12.3726
۴۰	-12.373
▁93	-12.3731
▁ny	-12.3732
DF	-12.3745
▁Men	-12.3748
▁Fa	-12.3756
▁rd	-12.3761
▁all	-12.3766
▁کستان	-12.3767
▁اشید	-12.3767
TV	-12.377
▁Lit	-12.3771
hou	-12.3772
▁ous	-12.3777
▁Bra	-12.3782
▁one	-12.3783
▁شکا	-12.3784
غل	-12.3786
▁زع	-12.3789
▁هارت	-12.3795
▁اسف	-12.3796
▁Bea	-12.3799
▁ME	-12.3805
▁وآن	-12.3806
اخ	-12.3807
▁چگ	-12.3815
▁Sen	-12.3818
ook	-12.3819
▁1:	-12.3823
▁Tor	-12.3823
▁چیپ	-12.3827
ru	-12.3833
ny	-12.384
▁عات	-12.3841
▁ستو	-12.3851
outh	-12.3864
▁آفت	-12.3864
oom	-12.3873
▁WW	-12.3874
▁Dr	-12.3875
▁وسل	-12.3884
▁برگر	-12.3892
ail	-12.3898
EI	-12.3905
▁IM	-12.3921
تیکو	-12.3929
rand	-12.3929
▁رجی	-12.3939
NS	-12.3947
▁ولتی	-12.3948
▁شکس	-12.395
رک	-12.3951
▁پاری	-12.3954
▁React	-12.3957
▁field	-12.3957
▁×	-12.3959
▁365	-12.396
▁tri	-12.396
▁UX	-12.3961
▁Now	-12.3961
▁Ub	-12.3965
▁Ev	-12.3965
▁Py	-12.397
▁Test	-12.3972
لاس	-12.3974
▁su	-12.3976
▁نط	-12.3977
▁یلن	-12.3983
گرا	-12.3988
▁فقاز	-12.3988
▁4.	-12.3992
▁Pen	-12.3997
▁زنج	-12.4002
يد	-12.4006
▁Whe	-12.4012
▁یگه	-12.4012
▁tte	-12.4012
▁sy	-12.4023
▁یبو	-12.4023
▁پلک	-12.4025
▁ابدا	-12.404
▁صب	-12.4046
read	-12.4048
▁ینجا	-12.4057
▁Her	-12.4063
▁۳۳	-12.4066
▁Thin	-12.4068
▁وربا	-12.4071
نوس	-12.4076
be	-12.4082
▁نیف	-12.4089
ex	-12.4101
▁Bl	-12.4103
▁یتز	-12.4107
▁57	-12.4114
ach	-12.4138
▁اراد	-12.414
▁هیست	-12.4148
خا	-12.4159
▁دوک	-12.4166
▁پژو	-12.4174
▁تجار	-12.4175
>	-12.4198
▁گذرا	-12.42
▁Down	-12.4207
▁°	-12.4207
▁Music	-12.4207
▁⁯	-12.4207
▁بخوان	-12.4208
▁وسنی	-12.4216
SU	-12.4217
▁gic	-12.4219
▁نهتن	-12.4225
RA	-12.4241
ran	-12.4263
▁2.5	-12.4266
▁ورزی	-12.4291
▁پُ	-12.4299
▁اطی	-12.4317
▁اکرا	-12.432
▁NG	-12.4323
▁if	-12.4324
▁IU	-12.4328
▁سیک	-12.4332
▁Win	-12.4333
▁son	-12.4344
▁fic	-12.4348
▁یلات	-12.4365
IM	-12.4365
▁بالی	-12.437
uro	-12.4371
▁تیل	-12.4392
▁Bur	-12.4397
▁ren	-12.4397
▁۷۲	-12.44
ig	-12.4401
▁تینگ	-12.4406
lash	-12.4413
▁lu	-12.4442
▁cal	-12.4447
ouch	-12.4449
▁وتس	-12.4451
▁آرم	-12.4452
ay	-12.4461
▁Award	-12.4464
▁York	-12.4464
▁Ghos	-12.4464
▁Speed	-12.4465
▁GDP	-12.4465
▁nna	-12.4466
▁Mess	-12.4466
▁Bay	-12.4467
▁Pub	-12.4467
▁Eco	-12.4468
▁Hyp	-12.447
▁پوچ	-12.447
▁Pra	-12.4471
▁port	-12.4476
▁یبرو	-12.4476
▁نسو	-12.4489
35	-12.4489
▁عبو	-12.4493
ite	-12.4496
▁nta	-12.4501
ess	-12.4505
▁ERP	-12.4505
سل	-12.4517
▁دودو	-12.4517
▁ult	-12.4517
▁Qua	-12.4519
▁exa	-12.452
AMP	-12.4532
▁یبل	-12.4539
LT	-12.4548
دون	-12.4548
▁Are	-12.4553
▁رِ	-12.4584
ائ	-12.4585
DS	-12.4586
▁97	-12.4586
NA	-12.4593
▁تاری	-12.4596
▁RE	-12.4597
EX	-12.4599
▁Tu	-12.4605
▁۴۳	-12.4607
▁بين	-12.4607
▁مسک	-12.461
LA	-12.4611
▁ssi	-12.4614
▁ster	-12.4619
زانس	-12.4648
▁TM	-12.465
▁Hel	-12.4662
▁her	-12.4671
▁وط	-12.4699
PE	-12.4711
▁First	-12.4727
▁[1]	-12.4727
▁PPC	-12.4728
▁ius	-12.4729
▁ural	-12.4729
▁Wall	-12.473
▁cha	-12.4731
▁Last	-12.4731
▁توسع	-12.4732
▁لوط	-12.4732
▁js	-12.4734
▁mini	-12.4734
PD	-12.4737
▁Bad	-12.474
▁Ever	-12.4744
قل	-12.476
▁Cy	-12.4763
DN	-12.477
▁By	-12.477
▁3:	-12.4774
▁Coin	-12.478
▁حیه	-12.4797
▁CS	-12.48
▁olu	-12.4805
▁time	-12.4805
▁AL	-12.481
▁BI	-12.481
▁شأ	-12.4818
▁رنک	-12.4823
▁Wal	-12.4828
▁زت	-12.4829
▁مجم	-12.4831
▁کیپ	-12.4833
▁صبا	-12.4834
oot	-12.4854
▁ES	-12.4859
کل	-12.4864
▁دوار	-12.4868
▁Fant	-12.4872
▁Jo	-12.488
▁ste	-12.4882
▁Er	-12.4889
▁Pix	-12.489
ja	-12.4892
▁یرم	-12.4894
▁نسب	-12.4895
▁SP	-12.4902
16	-12.4915
شک	-12.4915
▁61	-12.4918
قلاب	-12.4921
▁جایز	-12.4923
مي	-12.4927
mail	-12.4928
▁SC	-12.4936
▁ونر	-12.4939
▁ck	-12.4945
▁ربع	-12.4958
25	-12.4959
ON	-12.496
ah	-12.496
▁Ash	-12.4965
▁AB	-12.4991
▁کوی	-12.4993
HS	-12.4994
▁Pass	-12.4998
▁ll	-12.4998
▁Spec	-12.4998
▁LCD	-12.4998
▁very	-12.4999
▁Pack	-12.4999
▁RNA	-12.5
▁cast	-12.5
oon	-12.5004
ud	-12.5012
NC	-12.5013
▁Fe	-12.5016
▁رشید	-12.5018
▁اداب	-12.5026
▁دیش	-12.5027
MT	-12.5032
▁Phil	-12.5036
▁متخ	-12.5037
▁Mu	-12.5048
▁ray	-12.5053
CR	-12.5062
ert	-12.5062
▁62	-12.5063
▁Priv	-12.5073
▁مقد	-12.5082
▁Dut	-12.5083
▁شاپ	-12.5096
▁May	-12.5097
▁PL	-12.51
▁Mid	-12.5113
▁MB	-12.5117
SC	-12.5131
اط	-12.5137
ak	-12.5139
▁ریبو	-12.5141
▁art	-12.5162
▁hol	-12.5163
LC	-12.5169
su	-12.517
▁ترال	-12.5171
▁EN	-12.5176
متر	-12.5179
▁رکس	-12.5182
▁Rea	-12.5184
dy	-12.5193
▁ریکی	-12.5193
▁98	-12.5196
▁علام	-12.5206
▁Top	-12.5209
▁82	-12.521
▁TH	-12.5215
▁Dyn	-12.522
▁Inf	-12.5225
▁WP	-12.5252
75	-12.5255
▁هانس	-12.5256
▁زها	-12.5261
▁لفی	-12.5269
▁سوخ	-12.527
▁BMW	-12.5275
▁Dream	-12.5275
▁Show	-12.5275
▁Front	-12.5275
▁head	-12.5275
▁phic	-12.5276
▁ctor	-12.5276
▁down	-12.5276
▁Law	-12.5276
▁list	-12.5277
▁ICC	-12.5278
▁link	-12.5278
▁Line	-12.5283
▁رلینگ	-12.5284
▁نیه	-12.5287
▁po	-12.5289
▁Loc	-12.5296
CM	-12.5302
▁140	-12.5305
لمات	-12.5308
▁وابط	-12.5311
▁ASP	-12.5316
▁پيش	-12.5319
▁اتح	-12.5329
▁ED	-12.5332
▁مپر	-12.5344
▁Mor	-12.5351
▁Tre	-12.5354
بون	-12.5355
▁تابی	-12.5356
▁She	-12.5359
and	-12.5364
▁59	-12.5374
▁کاپ	-12.5375
TH	-12.5391
▁راي	-12.5395
▁عقد	-12.5398
▁غری	-12.5403
▁ps	-12.541
ea	-12.5418
▁Trad	-12.5427
▁Va	-12.5429
▁پذ	-12.5433
▁مکس	-12.5442
▁nu	-12.5454
▁۵۲	-12.5463
▁ku	-12.5466
NG	-12.5468
▁SO	-12.5474
▁mac	-12.5501
ib	-12.5502
▁wat	-12.5509
جی	-12.5512
▁IR	-12.5516
tand	-12.5526
▁CT	-12.5528
▁ig	-12.5533
▁cli	-12.5538
نینگ	-12.5542
▁بق	-12.5543
▁69	-12.5543
▁دلت	-12.5544
▁پیگ	-12.5546
▁نینگ	-12.5547
ٍ	-12.5561
▁dge	-12.5561
▁Bab	-12.5562
▁cess	-12.5562
▁وناکو	-12.5564
▁وکوس	-12.5567
▁زدی	-12.5568
▁tec	-12.5568
▁Lock	-12.5572
CU	-12.5581
▁ula	-12.5581
▁Cast	-12.5584
▁our	-12.5586
▁pre	-12.5587
▁Boy	-12.5587
▁130	-12.5597
▁طفل	-12.5607
▁Ag	-12.5616
▁Lee	-12.5631
▁Kar	-12.5639
TI	-12.5645
▁رنز	-12.5649
nc	-12.5662
▁DSL	-12.5663
ED	-12.567
▁Chat	-12.5671
▁pag	-12.5671
IX	-12.5672
▁Han	-12.5675
▁Op	-12.5679
▁dow	-12.5681
▁تلو	-12.5681
▁79	-12.5685
كم	-12.5685
▁هلک	-12.5688
▁bol	-12.5691
▁عوام	-12.5697
▁Cit	-12.57
▁هیب	-12.5701
MBA	-12.5702
▁ربو	-12.5703
ima	-12.5704
▁Mont	-12.5715
▁Van	-12.5718
▁USA	-12.5718
▁Ins	-12.5733
▁toc	-12.5733
▁فقه	-12.5736
▁وجی	-12.5741
▁AN	-12.5745
▁Far	-12.5751
▁Alt	-12.5755
▁محب	-12.5759
▁ولن	-12.5764
▁زدم	-12.5766
▁وگرا	-12.5768
▁ونیا	-12.5771
▁NO	-12.5773
▁یغه	-12.5779
(	-12.5786
سخ	-12.5786
▁ئور	-12.5794
▁پنی	-12.5797
پو	-12.5797
▁ترن	-12.58
▁اسن	-12.5805
▁Cho	-12.5805
▁ورل	-12.5816
▁تیب	-12.5824
▁علف	-12.5834
▁EV	-12.5848
ema	-12.5852
ö	-12.5855
▁Heart	-12.5855
▁Psy	-12.5855
▁WHO	-12.5855
▁style	-12.5855
▁Poli	-12.5855
▁آذر	-12.5856
▁١٠	-12.5856
▁Box	-12.5856
▁line	-12.5858
▁Hall	-12.586
▁OK	-12.586
▁UK	-12.5862
▁qui	-12.5862
▁4:	-12.5864
▁Run	-12.5867
▁متح	-12.5871
▁Hand	-12.5875
▁سفا	-12.5878
پش	-12.5883
وکس	-12.5885
▁ora	-12.5887
▁روغ	-12.5888
▁رژه	-12.5889
▁Ori	-12.5914
▁وتن	-12.5915
▁ul	-12.5926
شغال	-12.5927
▁od	-12.5932
▁IE	-12.5932
▁Ken	-12.5932
11	-12.5948
▁bl	-12.5957
▁ادند	-12.5961
▁Eas	-12.5965
▁هالو	-12.597
▁Cla	-12.5979
SF	-12.5982
act	-12.5983
▁Us	-12.5984
▁ونم	-12.5988
▁یفی	-12.5992
ئون	-12.6011
▁Shop	-12.6015
▁ائب	-12.6023
▁Mod	-12.6028
رتیب	-12.6033
▁یشر	-12.6045
▁اهک	-12.605
▁تمی	-12.6053
▁دگیر	-12.6057
▁77	-12.6065
▁Sav	-12.608
▁هیر	-12.6081
▁جرب	-12.6086
▁lia	-12.6091
▁ختی	-12.6095
۳۰	-12.6102
ph	-12.6105
▁یرها	-12.6106
-1	-12.6111
▁یبای	-12.6112
OE	-12.612
▁ai	-12.6122
▁یفل	-12.6122
AM	-12.6138
▁اگا	-12.6142
▁nti	-12.6144
▁Aven	-12.6158
▁IELTS	-12.6158
▁Film	-12.6158
▁Temp	-12.6158
▁Green	-12.6158
▁fess	-12.6158
▁>>	-12.6158
▁Fo	-12.6159
▁Brain	-12.6159
▁icle	-12.6159
▁NBA	-12.6159
▁new	-12.6162
▁Para	-12.6163
▁Cour	-12.6165
▁Care	-12.6169
▁۹۶	-12.6173
▁ler	-12.6175
▁file	-12.6178
▁170	-12.6184
▁۴۱	-12.6188
▁هوس	-12.6199
▁نقدر	-12.6199
یتز	-12.6201
كو	-12.6214
▁ژو	-12.6222
▁اض	-12.623
▁حصر	-12.6232
▁Writ	-12.6238
▁شوه	-12.624
▁هلن	-12.6248
▁NSA	-12.6248
▁رانت	-12.6256
▁UI	-12.6264
LP	-12.6265
▁یجی	-12.6265
▁78	-12.6277
▁Carl	-12.6278
▁Cam	-12.629
orp	-12.6294
▁hip	-12.6299
▁عضا	-12.6312
CL	-12.6312
▁nci	-12.6313
US	-12.6318
▁ea	-12.6322
▁ابان	-12.6324
▁ادف	-12.6325
اکو	-12.6328
▁Atl	-12.6335
vo	-12.6358
▁NT	-12.6359
▁فتا	-12.6361
▁۴۶	-12.637
▁Ali	-12.637
▁یشین	-12.6371
▁یگری	-12.6376
▁ریتا	-12.6397
ji	-12.6408
▁Stev	-12.641
▁Rel	-12.6416
▁tan	-12.6418
▁آمدی	-12.642
CT	-12.6422
▁Val	-12.6436
▁پتو	-12.6439
▁ful	-12.6441
rk	-12.6441
24	-12.6448
▁Sel	-12.6454
▁Engl	-12.6459
▁دایم	-12.6459
٬	-12.6462
▁OR	-12.6465
▁وریل	-12.6468
▁house	-12.647
▁***	-12.647
▁Hunt	-12.647
▁Story	-12.6471
▁stall	-12.6472
▁Eff	-12.6473
▁Engi	-12.6474
▁mics	-12.6474
▁Roy	-12.6474
▁ونیخ	-12.6475
▁Sour	-12.6477
▁لبن	-12.6478
▁site	-12.648
اسی	-12.6482
▁test	-12.6489
▁GT	-12.649
▁رسه	-12.6492
▁رانند	-12.6494
▁نزاس	-12.6495
▁Doc	-12.6495
▁اربری	-12.6516
▁Dog	-12.6516
TP	-12.652
▁Ze	-12.6521
▁110	-12.6521
ذا	-12.6536
▁Dec	-12.6538
zi	-12.654
up	-12.6549
▁Ten	-12.6555
نتو	-12.6557
▁im	-12.6561
▁زما	-12.6562
▁داش	-12.6565
▁بزنی	-12.6573
▁Bel	-12.6575
سنت	-12.6578
▁lli	-12.6582
▁چش	-12.6583
▁Mad	-12.6586
▁وکت	-12.6588
ST	-12.6589
▁68	-12.6596
▁VM	-12.6597
▁۵۱	-12.6603
▁Def	-12.6603
دکس	-12.6606
uth	-12.6607
▁CBD	-12.6625
▁Matt	-12.6627
ega	-12.6628
▁۳۹	-12.663
▁BS	-12.6639
▁موری	-12.6647
▁Fri	-12.665
▁Fu	-12.6658
▁comm	-12.6662
▁Clo	-12.6664
▁Die	-12.6666
▁ولک	-12.6667
▁وزو	-12.6683
▁PD	-12.669
▁Sil	-12.6694
ba	-12.6697
▁گرف	-12.6701
▁ek	-12.6701
▁ناق	-12.6715
▁92	-12.6716
▁شوره	-12.6723
▁Mart	-12.6731
▁del	-12.6732
▁طو	-12.674
ئی	-12.6746
▁مسئل	-12.6756
▁تول	-12.6757
▁نوه	-12.6759
NP	-12.6768
▁ینچ	-12.6768
▁Fli	-12.6769
▁cat	-12.6789
▁OECD	-12.6793
▁Virt	-12.6793
▁Plat	-12.6793
▁Azur	-12.6793
▁lin	-12.6793
▁Cyb	-12.6794
▁pH	-12.6795
▁Who	-12.6796
▁Resp	-12.6796
▁Cree	-12.6796
▁more	-12.6796
▁Meta	-12.6798
▁هدوی	-12.68
▁Long	-12.6801
▁Lay	-12.6802
▁3.0	-12.6805
▁Gri	-12.6806
▁Ge	-12.6808
FT	-12.682
RT	-12.6822
▁Saf	-12.6828
▁ایپو	-12.683
LR	-12.683
▁هوم	-12.6831
▁Dep	-12.6834
▁رزق	-12.6839
▁سیدن	-12.6852
▁چرم	-12.6855
▁هورا	-12.6859
RS	-12.6873
DI	-12.6875
▁76	-12.6877
▁دولف	-12.6878
HD	-12.6879
▁هرتز	-12.6882
▁67	-12.6885
▁لوئ	-12.6889
▁سط	-12.689
▁ST	-12.6897
▁Too	-12.6897
▁Bell	-12.6901
▁Joe	-12.6907
▁Regi	-12.6908
▁Blu	-12.6918
▁وَ	-12.6925
▁رچین	-12.6937
▁xi	-12.6942
▁لاند	-12.6943
NF	-12.6946
▁nel	-12.6946
FA	-12.6947
▁88	-12.6961
▁vir	-12.6962
▁DM	-12.6966
▁Lear	-12.6969
▁PT	-12.6971
▁گپ	-12.6979
▁مامو	-12.699
▁Mer	-12.6992
▁رعد	-12.6993
▁53	-12.6994
▁pol	-12.6997
▁یستا	-12.7002
▁لوان	-12.7004
▁Tho	-12.7012
LO	-12.7014
▁ngo	-12.7021
لز	-12.7033
▁حض	-12.7037
▁3،	-12.704
▁Ig	-12.7043
▁ICT	-12.7051
▁cra	-12.7056
▁Gar	-12.7057
رتون	-12.7058
اما	-12.7061
▁یضا	-12.7086
كس	-12.7094
لک	-12.7094
▁لتی	-12.7095
▁yo	-12.7105
▁یلون	-12.7107
▁par	-12.7114
▁Fre	-12.7114
٥	-12.7118
#	-12.7118
ugh	-12.7118
▁rat	-12.7118
▁dd	-12.7118
▁Stor	-12.7123
▁wor	-12.7125
▁CNN	-12.7126
▁Poly	-12.7126
▁Zero	-12.7127
▁date	-12.7127
▁Walk	-12.7127
▁صال	-12.7129
▁List	-12.713
▁Form	-12.713
▁۵٫	-12.7131
▁++	-12.7132
raft	-12.7133
▁Wire	-12.7133
▁Sett	-12.7134
▁ford	-12.7137
▁پنها	-12.7141
▁rep	-12.7141
▁CR	-12.7145
▁é	-12.7146
▁Snap	-12.7146
یبو	-12.7156
▁und	-12.7156
▁اوس	-12.7161
▁jo	-12.7161
▁ذان	-12.7163
یك	-12.7165
▁sec	-12.7167
▁Spi	-12.7168
▁پژوه	-12.7172
▁bor	-12.7181
▁لیان	-12.7182
▁روچ	-12.7184
PT	-12.7184
▁SPF	-12.7188
▁PA	-12.7196
زن	-12.7196
▁ran	-12.7199
▁nia	-12.7201
▁RAM	-12.7202
▁ریشان	-12.7202
▁Cas	-12.7213
fi	-12.7217
▁sup	-12.7218
▁Hu	-12.7221
▁Ani	-12.7226
▁یژ	-12.7231
▁ola	-12.7232
▁پچ	-12.7233
▁نفو	-12.7234
▁ER	-12.7235
pid	-12.7243
▁Exc	-12.7254
▁فهمی	-12.7256
▁گنا	-12.7256
▁مأ	-12.726
▁پزش	-12.7268
bo	-12.7275
▁وسا	-12.7276
▁Dou	-12.7277
▁امبر	-12.7303
▁املا	-12.7305
▁کاک	-12.7318
tro	-12.7319
▁شوری	-12.7322
▁الیف	-12.7323
▁هژ	-12.7324
▁Sch	-12.7324
▁ham	-12.7332
▁Dar	-12.7334
▁5)	-12.7334
▁RF	-12.7341
▁clo	-12.7346
TL	-12.7355
سین	-12.7361
▁آفر	-12.737
▁Rh	-12.7379
per	-12.738
▁Arc	-12.7404
▁Oc	-12.7414
▁HA	-12.7415
▁Inn	-12.7416
▁Pac	-12.7419
▁ینج	-12.7427
چو	-12.7429
▁رمه	-12.7441
▁لاست	-12.7441
▁COM	-12.7443
فون	-12.7453
کتر	-12.7454
han	-12.7456
▁Ada	-12.7462
UA	-12.7463
uard	-12.7471
▁world	-12.7471
▁Frank	-12.7471
▁Club	-12.7471
▁burg	-12.7471
▁Death	-12.7471
▁Motor	-12.7472
▁code	-12.7472
▁Hist	-12.7472
▁lly	-12.7473
▁medi	-12.7473
▁رلوس	-12.7473
▁Gmail	-12.7473
▁IQ	-12.7476
▁Hero	-12.7476
▁Hill	-12.7476
▁ext	-12.748
▁EX	-12.749
▁lex	-12.749
▁IO	-12.7492
▁col	-12.7495
▁met	-12.7495
▁Reb	-12.7499
▁125	-12.75
▁Tal	-12.7501
▁Ora	-12.7512
▁Twi	-12.7515
▁لمن	-12.7529
▁Hard	-12.7532
▁رُ	-12.7539
▁نکنی	-12.7544
▁log	-12.755
▁لیلی	-12.7553
▁AP	-12.7572
▁win	-12.7578
▁TI	-12.7584
▁غص	-12.7586
ارو	-12.7587
▁روسو	-12.7596
▁Hell	-12.7607
کراس	-12.7608
▁PH	-12.7609
air	-12.762
▁Radi	-12.762
▁تقی	-12.7628
باد	-12.7637
UB	-12.7646
▁Brit	-12.7659
▁نهان	-12.7661
گیر	-12.7663
▁Inv	-12.7666
▁ond	-12.7668
▁war	-12.7669
▁mu	-12.7672
▁Tha	-12.7674
▁MO	-12.7675
کث	-12.7678
▁بنیا	-12.7678
▁Ch	-12.7682
▁CPA	-12.7684
▁یسان	-12.7686
▁SW	-12.7688
▁ارتی	-12.7688
TF	-12.769
▁FA	-12.7696
OX	-12.7701
▁لاد	-12.7707
▁بیای	-12.7708
PO	-12.7715
▁غاز	-12.7735
▁رخان	-12.774
چر	-12.7741
▁یرون	-12.7747
▁Let	-12.7751
▁Yu	-12.7753
▁::	-12.7757
▁جمل	-12.7762
▁لاص	-12.7784
▁۵۸	-12.7793
▁یرف	-12.7798
▁IB	-12.7799
CH	-12.7799
کاک	-12.7804
qui	-12.7804
▁ریمی	-12.7811
▁زینت	-12.7813
▁Bet	-12.7819
«	-12.782
–	-12.782
▁۹۷	-12.7826
▁Squa	-12.7827
▁Old	-12.7828
▁Sign	-12.7828
▁طاعون	-12.7828
▁ccess	-12.7828
▁Team	-12.7828
▁SERP	-12.7828
▁look	-12.7829
▁۸۸	-12.7829
▁Swi	-12.7829
▁Voic	-12.7829
▁فیض	-12.7829
▁data	-12.7829
▁Land	-12.7831
▁Camp	-12.7832
▁Share	-12.7832
▁BBC	-12.7833
▁Count	-12.7833
ائل	-12.7833
▁ارلو	-12.7834
▁At	-12.7841
ارتز	-12.7847
▁ura	-12.7848
▁rio	-12.785
▁ts	-12.7855
▁رزند	-12.7855
▁llo	-12.7858
▁لاج	-12.7872
▁More	-12.7872
▁JS	-12.7876
▁Pop	-12.788
PL	-12.7882
▁350	-12.7886
▁OF	-12.7888
▁یبوس	-12.7891
▁DB	-12.7897
▁رگوس	-12.7912
▁نکا	-12.792
▁ci	-12.7922
att	-12.7928
▁لخت	-12.7932
كن	-12.7933
▁چید	-12.7934
▁لژ	-12.7939
تیو	-12.7951
▁Age	-12.7958
▁FTP	-12.7962
▁74	-12.7962
ثال	-12.7963
▁نستان	-12.7964
OP	-12.7965
PR	-12.7968
▁CE	-12.7968
▁ju	-12.797
▁ord	-12.7982
▁Cop	-12.799
▁رونه	-12.7994
▁حذ	-12.7998
▁داپ	-12.7998
qu	-12.8
وخت	-12.8007
▁نهای	-12.8008
cie	-12.8011
▁dic	-12.8011
CAD	-12.8012
▁۵۳	-12.8013
ide	-12.8016
▁ورکو	-12.8017
▁روست	-12.8023
گس	-12.8029
▁sco	-12.803
▁Ku	-12.8034
نکو	-12.8035
▁Rei	-12.8036
EL	-12.8042
ps	-12.8052
▁BIM	-12.8054
▁Los	-12.8057
▁mode	-12.8057
▁OC	-12.8057
▁MD	-12.807
LL	-12.8084
▁یرگ	-12.8092
▁اریس	-12.8097
▁PO	-12.8099
▁مالیا	-12.811
▁VI	-12.8114
▁Nov	-12.8126
تیس	-12.814
▁86	-12.814
▁71	-12.814
ASA	-12.8146
▁انتو	-12.8153
▁Th	-12.8153
-2	-12.8159
▁ینگو	-12.8163
▁۴۹	-12.8165
OD	-12.8166
OW	-12.8178
utt	-12.8178
▁دیدگ	-12.8181
▁مرحل	-12.8188
oul	-12.819
PU	-12.8197
▁گوگ	-12.8198
▁Earth	-12.8199
▁Girl	-12.8199
▁Place	-12.8199
▁زحل	-12.8199
▁Term	-12.8199
▁point	-12.8199
▁IVF	-12.8199
▁start	-12.82
▁ream	-12.82
▁NFC	-12.82
▁مژه	-12.8201
▁Ops	-12.8201
▁Muse	-12.8201
▁reen	-12.8201
▁stics	-12.8201
▁Mail	-12.8201
▁۷٫	-12.8202
▁طوط	-12.8202
يل	-12.8202
▁ics	-12.8205
▁roll	-12.8205
▁ROI	-12.8207
ux	-12.8208
▁SMS	-12.8209
▁سطل	-12.821
▁fac	-12.8211
▁لائکه	-12.8214
▁Cri	-12.8214
▁ber	-12.8225
▁یستون	-12.8225
▁gar	-12.8227
▁Opt	-12.8228
▁آلپ	-12.8229
▁Vall	-12.823
نتز	-12.8234
▁BP	-12.8238
يک	-12.8239
wl	-12.8241
eat	-12.8242
▁نکس	-12.8243
▁Hit	-12.8248
▁مناف	-12.825
28	-12.8251
▁ینات	-12.8253
▁Ret	-12.8266
▁GO	-12.8271
▁ظن	-12.8272
▁Mal	-12.8276
▁رینو	-12.8282
zy	-12.829
▁5:	-12.8291
fa	-12.8298
eav	-12.8301
▁شبح	-12.8302
قیل	-12.8311
▁روها	-12.8316
▁gro	-12.8329
▁Und	-12.8332
PI	-12.8343
▁رائی	-12.8343
▁باطی	-12.8345
▁GA	-12.8348
▁ثر	-12.8351
kill	-12.8364
▁rai	-12.8373
▁GB	-12.8381
▁گرای	-12.8392
▁رؤی	-12.8393
MR	-12.8397
▁رنل	-12.8398
MU	-12.8415
▁ae	-12.8417
FS	-12.8424
▁Hal	-12.8425
SE	-12.8427
▁Won	-12.8431
▁ننگ	-12.8431
▁رزین	-12.8437
▁Cle	-12.8444
نیو	-12.8444
▁شیدا	-12.8445
▁AV	-12.845
▁متف	-12.8462
▁Mas	-12.8465
چین	-12.8479
▁89	-12.8482
▁ادون	-12.8486
▁ابله	-12.8495
MD	-12.8495
▁Cort	-12.8497
لینو	-12.8501
▁بلع	-12.8503
AA	-12.8506
▁یرید	-12.8506
que	-12.8518
▁کمیت	-12.8519
DP	-12.8525
▁عدن	-12.8533
▁83	-12.8538
HC	-12.8545
▁ورتو	-12.8548
اچ	-12.8558
▁صنع	-12.8561
▁fol	-12.8564
▁فتاد	-12.8566
?	-12.8574
$	-12.8575
▁شنی	-12.8576
▁LI	-12.8579
duc	-12.858
á	-12.8583
▁[3]	-12.8583
▁html	-12.8583
▁play	-12.8583
▁OLED	-12.8583
▁(5)	-12.8583
▁Clean	-12.8583
▁pass	-12.8584
▁whi	-12.8584
▁Fair	-12.8584
▁LLC	-12.8585
▁well	-12.8585
▁ify	-12.8585
▁Miss	-12.8585
▁ship	-12.8585
▁Moon	-12.8586
▁exp	-12.8586
▁۶٫	-12.8587
hang	-12.8589
▁ob	-12.859
▁Tro	-12.8592
▁نسخ	-12.8601
▁Ve	-12.8605
فاد	-12.8608
▁موث	-12.861
▁ndo	-12.8611
▁kon	-12.8614
▁ائده	-12.8617
▁Drop	-12.8619
▁Git	-12.8619
▁mus	-12.8622
hu	-12.8633
▁Pod	-12.8645
▁داون	-12.8656
tein	-12.8658
▁uri	-12.8666
▁الل	-12.8666
mil	-12.8676
کم	-12.868
▁لانو	-12.8687
▁Disc	-12.8694
▁Log	-12.8703
▁بشن	-12.8703
▁رجب	-12.8709
55	-12.8718
تاب	-12.8721
▁یلور	-12.8726
▁Hono	-12.8732
▁air	-12.8738
▁۵۴	-12.8743
▁ربن	-12.8743
▁edi	-12.8749
▁نئ	-12.8753
وئ	-12.8763
▁Frie	-12.8764
ero	-12.8772
▁sha	-12.8774
▁Yes	-12.8777
▁فجر	-12.8778
رکوس	-12.8782
▁Wel	-12.8784
▁HI	-12.8785
▁لوز	-12.8787
▁58	-12.8788
▁73	-12.8791
▁Sie	-12.8793
▁رودو	-12.8796
▁Merc	-12.8798
▁sol	-12.8826
▁چاک	-12.8836
▁كل	-12.8838
▁EQ	-12.8843
▁Kat	-12.8846
ave	-12.8852
▁ارنس	-12.8859
▁Stat	-12.8865
▁Riv	-12.8873
▁لیر	-12.8881
▁صدف	-12.8882
▁Pur	-12.8887
ریکو	-12.8891
▁رتب	-12.8894
▁bia	-12.8896
ett	-12.8897
▁LAN	-12.8907
AID	-12.891
▁رایس	-12.8912
oll	-12.8914
▁جرت	-12.8945
▁LL	-12.8951
▁84	-12.8956
داری	-12.8959
▁واپ	-12.8964
▁hae	-12.898
â	-12.8983
▁Cross	-12.8983
▁Gate	-12.8983
▁Blood	-12.8983
▁HDMI	-12.8984
▁Road	-12.8984
▁TED	-12.8984
▁Limi	-12.8985
▁PhD	-12.8985
▁Prime	-12.8985
▁Marc	-12.8985
▁Head	-12.8985
▁ling	-12.8986
▁Wood	-12.8987
▁Ice	-12.8993
وَ	-12.8993
▁دیج	-12.8993
▁Wo	-12.8994
▁off	-12.8994
▁fy	-12.8996
ستر	-12.9001
▁طالع	-12.9001
▁Trav	-12.9005
▁ACT	-12.9012
▁هوک	-12.9019
▁طاق	-12.9029
▁men	-12.9034
▁Epi	-12.9034
▁sla	-12.9036
لي	-12.9041
▁mal	-12.9048
▁وودی	-12.9048
▁یووا	-12.9057
▁یزها	-12.9059
ازند	-12.9068
▁Wil	-12.9078
▁ICA	-12.9079
NT	-12.908
▁BC	-12.908
▁Eli	-12.9082
▁Wh	-12.9084
▁Alb	-12.9087
▁نولو	-12.9089
▁وشید	-12.9092
▁Shar	-12.9097
▁bio	-12.9097
▁Nu	-12.9099
▁fil	-12.9106
▁تیان	-12.9109
▁جبار	-12.9116
▁یلدا	-12.9121
▁Es	-12.9124
▁ON	-12.9125
▁گچ	-12.9127
▁kin	-12.9129
EV	-12.913
یانو	-12.9151
▁بلین	-12.9156
▁GE	-12.9157
▁EU	-12.9162
▁Kin	-12.9162
llu	-12.9163
▁tar	-12.9166
PM	-12.9183
yd	-12.9186
▁Mel	-12.9187
▁Hat	-12.9213
▁ادید	-12.9217
▁Lau	-12.9226
OC	-12.9228
لون	-12.923
ze	-12.9232
IL	-12.9234
CIS	-12.9236
▁نئو	-12.9241
▁tis	-12.9248
AW	-12.9251
ows	-12.9264
۷۰	-12.9298
▁Zen	-12.9299
لتس	-12.9303
GR	-12.9303
▁Qui	-12.9305
TU	-12.9306
▁Ic	-12.9306
▁Pau	-12.9307
BM	-12.9312
▁gu	-12.9321
رون	-12.9324
▁فاو	-12.9329
▁بوه	-12.9332
▁Sin	-12.9335
قلا	-12.9336
▁tta	-12.9336
em	-12.9343
za	-12.9347
▁WA	-12.9359
▁Ran	-12.9365
▁let	-12.9371
▁mia	-12.9376
18	-12.9389
▁Divi	-12.9391
;	-12.9391
'	-12.9391
’	-12.9391
▁Cryp	-12.9399
▁♫	-12.94
▁mult	-12.94
▁Apa	-12.94
▁Like	-12.9401
▁Sleep	-12.9401
▁Maps	-12.9401
▁Make	-12.9403
▁name	-12.9403
▁Lat	-12.9405
▁۷۸	-12.9405
▁Bey	-12.9406
▁Cru	-12.9407
▁Lite	-12.9408
▁ü	-12.9408
▁ضای	-12.9409
▁Sing	-12.9409
ko	-12.9411
AF	-12.9415
▁EL	-12.9417
IDS	-12.942
▁حیف	-12.9425
PG	-12.9434
▁4.5	-12.9439
ME	-12.9439
▁Nord	-12.9443
▁HBO	-12.9443
▁lar	-12.9445
DE	-12.945
خواه	-12.9451
▁chat	-12.9459
IR	-12.9477
13	-12.9487
▁rea	-12.9487
▁دیانا	-12.9487
▁Cry	-12.9488
▁یلز	-12.9489
▁سرچ	-12.9494
▁BO	-12.9495
▁OH	-12.9495
▁Kan	-12.9516
▁رنتی	-12.9519
▁CTR	-12.9534
▁rga	-12.9542
▁Blog	-12.955
▁موزا	-12.955
49	-12.9552
▁پژ	-12.9554
▁NC	-12.9565
▁RA	-12.9572
▁RT	-12.959
▁game	-12.9596
▁Tur	-12.96
▁أم	-12.9601
GP	-12.9612
▁fo	-12.9617
▁NAS	-12.9617
▁sor	-12.9621
▁cre	-12.9625
▁Saa	-12.9627
arn	-12.9638
sin	-12.9644
▁TP	-12.9645
لفو	-12.9646
▁اير	-12.9647
▁Jac	-12.9659
▁acc	-12.9663
▁nto	-12.9678
GI	-12.969
ku	-12.9694
ock	-12.9695
▁IL	-12.9699
طمئن	-12.9708
▁مپا	-12.9713
▁ban	-12.9725
▁pres	-12.9728
▁Hy	-12.9737
▁ICS	-12.9751
▁Fac	-12.9757
لوپ	-12.9761
▁HR	-12.9765
▁ساع	-12.9776
▁ffer	-12.9785
▁Map	-12.9788
▁دیپ	-12.9798
▁نقط	-12.9801
▁q	-12.9809
arm	-12.9811
▁not	-12.9821
▁PM	-12.9826
▁رگر	-12.9826
_	-12.9826
▁لمب	-12.983
▁GP	-12.9833
▁Eye	-12.9834
▁whe	-12.9835
▁Excel	-12.9835
▁EEA	-12.9835
▁الدیو	-12.9835
▁shop	-12.9835
▁Job	-12.9836
▁Lake	-12.9836
▁space	-12.9837
▁VIP	-12.9837
▁ارقان	-12.9837
▁rome	-12.9837
▁Host	-12.9838
▁Days	-12.9838
▁Desk	-12.9839
▁ios	-12.9839
▁This	-12.984
▁SEM	-12.984
▁AS	-12.984
▁FAT	-12.9841
▁Cust	-12.9841
▁Hot	-12.9842
▁Hon	-12.9844
▁stro	-12.9845
▁ina	-12.9846
▁Pok	-12.9846
▁ugh	-12.9846
▁Act	-12.9849
فلد	-12.985
ult	-12.9854
▁Path	-12.9857
▁From	-12.986
▁وردون	-12.9861
ائق	-12.9861
▁ارلوت	-12.9866
▁Mil	-12.9868
▁تِ	-12.987
▁Silv	-12.9871
▁ربر	-12.9874
▁1.7	-12.9878
▁fro	-12.9879
▁Moz	-12.9882
▁Gard	-12.9883
▁Chil	-12.9885
hoo	-12.9886
ARM	-12.9887
▁94	-12.9893
▁TS	-12.9893
▁Fla	-12.9907
▁cu	-12.9911
▁هیپر	-12.9911
▁Wom	-12.9917
▁دکل	-12.992
▁Exo	-12.9926
▁Viv	-12.993
▁Jim	-12.993
▁یندا	-12.9931
آب	-12.9943
لخ	-12.9943
ipp	-12.9944
IF	-12.9946
▁ART	-12.9952
▁QR	-12.9959
▁Ji	-12.9962
▁Step	-12.9965
▁8)	-12.9969
UM	-12.9969
▁؟؟	-12.9973
AV	-12.9993
▁Aga	-13.0001
▁Arm	-13.0002
وتو	-13.0003
▁sea	-13.0004
ara	-13.0008
awn	-13.0008
▁VA	-13.0009
▁Fut	-13.0013
▁موتو	-13.0019
▁Bor	-13.0026
▁تامی	-13.0026
RB	-13.0031
▁Col	-13.0031
اء	-13.0052
رود	-13.0052
▁پیپ	-13.0063
▁۶۶	-13.0065
▁Get	-13.0072
▁نوآ	-13.008
▁Rat	-13.008
▁محک	-13.0083
48	-13.0084
SON	-13.0085
▁(3	-13.0088
▁map	-13.0095
▁PV	-13.0101
▁Pad	-13.0104
▁Bal	-13.0106
▁FI	-13.0107
EO	-13.0115
▁rr	-13.0115
▁انگا	-13.0121
HR	-13.0128
▁جاش	-13.0145
▁Syn	-13.0145
▁ore	-13.0158
▁87	-13.0165
توز	-13.0165
▁See	-13.0166
ilt	-13.017
▁Ly	-13.0179
لیک	-13.0191
ونتو	-13.0192
▁كنم	-13.0204
▁FIF	-13.0207
▁وشک	-13.0209
BT	-13.0209
▁tas	-13.021
▁ولوژ	-13.0218
oop	-13.0225
▁Spr	-13.0228
▁IF	-13.0234
▁تبد	-13.0238
▁راسو	-13.0239
▁لیسا	-13.0247
▁Ban	-13.0255
▁81	-13.0262
UN	-13.0263
▁۵۶	-13.0263
▁too	-13.0267
▁sen	-13.027
▁اذن	-13.0288
▁Cisco	-13.0289
▁Two	-13.0289
▁Xiao	-13.0289
▁Pict	-13.0289
▁plan	-13.0289
▁Edge	-13.0289
▁Quest	-13.0289
▁Thre	-13.029
▁part	-13.0292
▁Imm	-13.0293
▁Low	-13.0295
▁dor	-13.0295
▁Kid	-13.0295
▁۶۸	-13.0297
▁Sym	-13.0298
SN	-13.0298
▁ror	-13.0301
▁نتور	-13.0306
▁چيز	-13.0309
▁Cro	-13.0312
▁101	-13.0313
▁۹۸	-13.0315
▁گراد	-13.0317
▁Lev	-13.0319
▁ساح	-13.0319
▁Mr	-13.0325
▁ختند	-13.0325
▁Sma	-13.0333
▁نتج	-13.034
▁BB	-13.0342
▁Rose	-13.0343
▁هزین	-13.0344
▁ریوش	-13.0344
ائو	-13.0348
▁جویا	-13.0356
▁91	-13.036
▁اِ	-13.0361
▁uk	-13.0367
▁Ray	-13.037
▁گسل	-13.037
▁Cub	-13.0374
▁Tow	-13.0378
▁پتی	-13.0378
▁زهر	-13.0386
▁مجو	-13.0388
▁پون	-13.0392
▁شكس	-13.0406
▁بررس	-13.0413
▁BPM	-13.0417
▁یوار	-13.0418
SX	-13.0419
جت	-13.0421
▁Sui	-13.0423
▁Beau	-13.0435
▁PE	-13.0436
afe	-13.045
▁OL	-13.0451
▁chol	-13.046
GA	-13.0463
▁Spa	-13.0464
▁لدی	-13.0467
۲۵	-13.0468
▁UP	-13.0473
ثر	-13.0475
▁gg	-13.0481
ربوط	-13.0492
▁Cur	-13.0492
ثو	-13.0501
▁Rest	-13.0503
▁GR	-13.0504
▁فسا	-13.0505
▁وستا	-13.0505
▁Thu	-13.0507
▁CIA	-13.0511
99	-13.0514
▁ادگ	-13.0526
▁UL	-13.0528
▁Fore	-13.053
▁pea	-13.0531
▁مدد	-13.0554
▁rop	-13.0559
ist	-13.0566
Hz	-13.0567
تي	-13.0576
▁MAC	-13.058
DK	-13.0586
▁لینگ	-13.0588
47	-13.0595
▁انیل	-13.0595
▁fin	-13.0598
▁Reg	-13.0602
und	-13.0606
▁AU	-13.0612
▁یستو	-13.064
▁حص	-13.0641
▁XP	-13.0646
UE	-13.0646
وسیق	-13.0651
ML	-13.0659
▁Fami	-13.066
SIC	-13.0682
▁ML	-13.0687
▁nde	-13.0689
▁DE	-13.069
▁Mars	-13.0695
▁BR	-13.0699
▁je	-13.0708
▁ap	-13.071
▁DO	-13.0713
32	-13.0721
▁لکن	-13.0725
▁ons	-13.0725
▁rac	-13.0726
21	-13.0729
▁لوین	-13.0731
▁Cart	-13.0734
▁Luc	-13.0737
ايد	-13.0737
▁دلب	-13.0738
▁Basi	-13.0745
CN	-13.0745
٢	-13.0757
٨	-13.0757
▁یمیا	-13.0765
▁چس	-13.0765
ä	-13.0765
▁Smith	-13.0765
▁[2]	-13.0765
▁RFID	-13.0765
▁ribu	-13.0765
▁ridge	-13.0765
▁(4)	-13.0765
▁body	-13.0765
▁Hotel	-13.0766
▁‪	-13.0766
▁ECTS	-13.0766
صنوع	-13.0766
▁Admi	-13.0766
▁Talk	-13.0766
▁Name	-13.0767
▁رتانا	-13.0767
▁Siri	-13.0768
▁Vent	-13.0768
▁Nint	-13.0768
▁لفظ	-13.0768
▁ھ	-13.077
▁IOS	-13.077
▁ربانی	-13.0772
▁لفت	-13.0773
▁rew	-13.0775
▁رگس	-13.0779
tz	-13.078
▁get	-13.0781
▁۷۶	-13.0783
▁ضرو	-13.0784
▁شاو	-13.0788
▁mid	-13.0789
eas	-13.0789
▁REM	-13.079
▁MC	-13.0792
▁AX	-13.0793
▁Pint	-13.081
▁ini	-13.0818
▁5.5	-13.0819
▁7)	-13.0834
FO	-13.0838
▁exe	-13.0838
AX	-13.0842
▁fla	-13.0849
▁پدی	-13.0852
▁اسیک	-13.0853
راس	-13.0854
▁راکل	-13.0855
خط	-13.0862
▁Logi	-13.0865
▁mit	-13.0867
▁اشین	-13.087
LB	-13.0886
▁کوتا	-13.089
▁gni	-13.0894
▁Af	-13.0895
▁lan	-13.091
▁Kit	-13.0917
▁ندیس	-13.092
▁یفن	-13.0921
AD	-13.0925
ورک	-13.0926
▁Len	-13.0928
▁Ref	-13.0929
▁FM	-13.0932
▁ncia	-13.0941
▁شیپ	-13.0946
▁واچ	-13.0952
SIS	-13.0961
▁توص	-13.0967
▁MSC	-13.0974
▁pse	-13.0976
▁ارگر	-13.0979
▁fun	-13.0981
▁ساق	-13.0982
▁لیش	-13.0985
▁باشن	-13.1003
▁۷۷	-13.1004
SL	-13.1005
ump	-13.1005
▁زوس	-13.1012
▁Son	-13.102
▁لامت	-13.1026
▁Some	-13.103
▁Mur	-13.1033
-5	-13.1037
▁poli	-13.1054
ake	-13.1055
▁یلک	-13.106
▁یداد	-13.106
▁(1	-13.1079
▁var	-13.1088
29	-13.1089
▁پنه	-13.109
▁nat	-13.1094
▁کِ	-13.1095
▁NF	-13.1096
▁Woo	-13.1096
▁PG	-13.1103
▁ودت	-13.1105
▁aut	-13.1125
ish	-13.1137
▁زاری	-13.1144
▁IEE	-13.1161
▁VO	-13.1177
▁۵۷	-13.1183
▁CAT	-13.1188
▁doc	-13.1203
▁Kas	-13.1211
▁نیال	-13.1212
cha	-13.1216
7%	-13.1217
▁JD	-13.1221
▁علو	-13.1243
▁nte	-13.1255
*	-13.1255
▁Indi	-13.1265
ç	-13.1265
▁Deep	-13.1265
▁Iron	-13.1265
▁لئان	-13.1266
▁Budd	-13.1266
▁Stop	-13.1266
▁egra	-13.1266
▁EUR	-13.1267
▁host	-13.1267
▁force	-13.1267
▁rior	-13.1267
ounc	-13.1268
▁Mega	-13.1268
▁lab	-13.1271
▁cla	-13.1271
▁ism	-13.1272
▁Pap	-13.1272
▁ruc	-13.1273
▁️	-13.1273
▁sti	-13.1273
▁nger	-13.1276
▁rick	-13.1276
▁۹٫	-13.1276
▁pic	-13.1277
amb	-13.1277
▁vs	-13.1279
▁Band	-13.1291
FF	-13.1294
▁Bull	-13.1296
▁TO	-13.13
▁۹۲	-13.1304
▁زیگ	-13.131
▁Ball	-13.1314
فیل	-13.1314
▁Jun	-13.132
▁لدو	-13.1321
▁Infi	-13.1325
yan	-13.1327
▁LE	-13.1327
harm	-13.1328
▁TCP	-13.133
▁Qual	-13.1332
▁ui	-13.1334
▁طبیع	-13.1336
OM	-13.1361
▁Fed	-13.1369
▁رحل	-13.137
▁don	-13.1372
▁Rog	-13.1373
rm	-13.1375
▁kia	-13.1376
▁Lin	-13.1382
TX	-13.1382
▁حلق	-13.1382
▁Pu	-13.1385
45	-13.1391
uch	-13.1399
▁یزان	-13.1414
▁5%	-13.1424
▁sur	-13.1425
▁Dy	-13.1433
nj	-13.1439
▁ear	-13.1449
▁hy	-13.1452
▁ردون	-13.1452
▁RO	-13.147
▁HC	-13.147
▁GM	-13.1471
▁AF	-13.1474
▁کیو	-13.1474
مینگ	-13.1476
▁ist	-13.1485
▁Cu	-13.1486
▁AA	-13.1487
▁رگون	-13.1488
95	-13.1494
▁AMD	-13.1498
كل	-13.1499
-6	-13.15
▁Astr	-13.1511
▁مایی	-13.1511
چا	-13.1516
▁Was	-13.1524
▁رغب	-13.1531
▁Spar	-13.1533
▁nne	-13.1538
اك	-13.1539
يو	-13.1542
▁Den	-13.1551
▁هاردی	-13.1554
ASH	-13.1556
▁روي	-13.156
HP	-13.1569
▁۷۱	-13.1576
/3	-13.1582
ome	-13.1584
▁چیپس	-13.1596
▁Tok	-13.1597
▁ورب	-13.1599
▁gie	-13.1603
▁grou	-13.1611
▁ولي	-13.1614
▁Base	-13.1623
▁لانی	-13.1624
▁pu	-13.1628
▁Hop	-13.1637
▁لکی	-13.1642
▁nk	-13.1642
▁رگه	-13.1649
▁kt	-13.165
▁PRO	-13.166
▁cho	-13.1662
▁rus	-13.1665
AE	-13.1671
▁hel	-13.1677
▁CAP	-13.1677
WA	-13.1681
▁وتان	-13.1688
DM	-13.1696
TO	-13.1704
▁dit	-13.1731
▁mar	-13.1731
▁Mus	-13.1735
▁Bow	-13.1736
▁Hol	-13.1739
▁tes	-13.1742
▁Kal	-13.1746
▁وظیف	-13.1755
▁ثانی	-13.1758
▁ze	-13.1777
▁ant	-13.1779
▁ssa	-13.178
ریا	-13.1781
}	-13.1783
|	-13.1783
exi	-13.1786
▁Wolf	-13.1792
▁[5]	-13.1792
▁town	-13.1792
▁ville	-13.1792
♦	-13.1792
▁Henry	-13.1792
▁oogle	-13.1792
▁Jones	-13.1792
▁کذب	-13.1792
▁Moto	-13.1793
▁MHz	-13.1793
▁DDo	-13.1794
▁nni	-13.1795
irc	-13.1795
▁FOR	-13.1795
▁Dash	-13.1795
▁Sche	-13.1797
▁iews	-13.1797
▁less	-13.1798
▁ule	-13.1798
▁Made	-13.1799
▁NX	-13.18
▁ime	-13.18
▁Cell	-13.1801
▁Bear	-13.1802
▁لنسی	-13.1802
▁زیسین	-13.1811
گون	-13.1815
▁شریر	-13.1817
▁flu	-13.1819
▁هگل	-13.182
▁Pres	-13.182
WS	-13.1821
▁پیل	-13.1827
▁Ark	-13.183
▁۹۳	-13.1839
ART	-13.184
HL	-13.1845
نکس	-13.185
▁hen	-13.185
▁لوح	-13.185
WD	-13.185
amp	-13.1853
▁ipl	-13.1855
ju	-13.1857
▁1.3	-13.1859
▁mis	-13.1862
▁لص	-13.1863
▁loc	-13.1866
85	-13.187
▁لگو	-13.1881
▁nec	-13.1889
▁Trip	-13.1903
WC	-13.1909
▁وریا	-13.1909
▁طارم	-13.1912
▁Ren	-13.1912
▁ارگا	-13.1915
FI	-13.1918
▁سطر	-13.1922
▁Dist	-13.1934
▁las	-13.1939
lear	-13.1947
▁uni	-13.1951
▁Bern	-13.1951
▁conf	-13.1952
▁ISS	-13.196
▁lat	-13.1961
▁Six	-13.1963
▁rest	-13.1964
▁Ven	-13.1965
SH	-13.197
▁Ell	-13.1971
▁Ess	-13.1976
▁den	-13.1993
nch	-13.2007
ــ	-13.2009
LI	-13.2026
▁ائر	-13.2029
▁mor	-13.204
▁Stan	-13.2047
▁ندوز	-13.2049
87	-13.2051
▁Use	-13.2052
▁Sens	-13.2055
▁یزاک	-13.2057
▁Fur	-13.2058
▁LA	-13.2061
▁Il	-13.2062
▁اربر	-13.2064
ووک	-13.2068
CAA	-13.2068
▁cor	-13.207
▁رلو	-13.208
▁رکن	-13.209
▁مناک	-13.209
لوف	-13.2091
▁فکا	-13.2097
▁ایکو	-13.21
▁رنس	-13.2101
تیف	-13.2108
▁Mir	-13.2109
▁spi	-13.2109
GB	-13.2112
▁kar	-13.2114
ویل	-13.2115
▁طلبان	-13.2119
MF	-13.2127
▁Ara	-13.2128
▁sch	-13.2138
▁GS	-13.2156
UD	-13.2159
▁Gro	-13.217
▁MT	-13.2179
38	-13.2185
erry	-13.219
▁Lyn	-13.22
▁Chan	-13.2208
▁مَ	-13.221
ارك	-13.2218
93	-13.2221
▁وکرا	-13.2223
▁cas	-13.223
▁سیار	-13.2236
▁عک	-13.2238
▁کوز	-13.2253
▁ONE	-13.2258
zu	-13.2261
▁rma	-13.2263
▁UT	-13.2268
▁بعض	-13.2274
▁Spea	-13.2276
▁یائو	-13.2278
▁wit	-13.229
uff	-13.229
▁کرک	-13.2292
▁۸۲	-13.2297
▁شخ	-13.2308
▁Jon	-13.2316
▁تهد	-13.2323
▁Fro	-13.2328
2%	-13.2331
▁Bee	-13.2334
٤	-13.2339
٩	-13.2339
▁FL	-13.234
ı	-13.2347
▁(7)	-13.2347
▁Cine	-13.2347
▁BIOS	-13.2347
▁Swift	-13.2347
▁‹	-13.2348
▁Greg	-13.2348
▁Self	-13.2348
▁Stri	-13.2348
▁Train	-13.2349
▁£	-13.2349
▁ries	-13.2349
▁Disk	-13.235
▁Sola	-13.235
▁رکسیت	-13.235
▁انوا	-13.235
▁Eric	-13.235
▁user	-13.235
▁Bob	-13.235
▁nza	-13.2351
▁boy	-13.2351
▁Sain	-13.2351
OB	-13.2351
▁Boot	-13.2351
▁Brand	-13.2351
▁Fly	-13.2352
▁SHA	-13.2353
▁nse	-13.2353
▁Tour	-13.2353
▁imp	-13.2354
▁bell	-13.2354
▁Cash	-13.2355
▁Bre	-13.2362
▁EP	-13.2363
▁ux	-13.2363
▁Alph	-13.2363
▁Ford	-13.2364
▁۵۹	-13.2365
ریس	-13.2375
▁Tren	-13.2378
▁tia	-13.2381
▁Bot	-13.2381
▁AK	-13.2382
▁berr	-13.2386
▁البت	-13.2388
▁Nut	-13.2392
۱۱	-13.2395
▁typ	-13.2395
▁spot	-13.2396
▁Asp	-13.2398
SV	-13.2407
▁Pier	-13.2411
▁نزه	-13.2414
▁IBD	-13.2415
▁ffe	-13.2416
▁Kni	-13.243
▁AND	-13.2431
SO	-13.2433
▁ندارن	-13.2434
▁DD	-13.2441
▁Cut	-13.2442
▁DR	-13.2443
fo	-13.2447
HT	-13.2455
▁ودور	-13.2461
▁TC	-13.2464
▁shar	-13.2464
UT	-13.2472
۲۳	-13.2474
OCK	-13.2475
▁Bin	-13.2486
▁وهان	-13.2486
▁وزاک	-13.2491
▁JA	-13.2498
▁Vari	-13.2498
▁IRC	-13.2531
▁ولدر	-13.2536
▁Fit	-13.2539
MB	-13.2539
▁ee	-13.2552
▁Seg	-13.2561
fer	-13.2566
▁Sher	-13.2582
▁ارکو	-13.2583
▁fon	-13.2589
▁set	-13.2592
▁پیج	-13.2592
UV	-13.2595
▁dus	-13.2602
▁EE	-13.2612
GO	-13.2613
▁Ham	-13.2615
▁عیا	-13.2618
▁یسبو	-13.2619
▁tz	-13.2625
▁conn	-13.2627
▁لرو	-13.2635
▁Came	-13.2655
▁NI	-13.2658
▁مقال	-13.2663
▁gno	-13.2668
▁bli	-13.2671
اهد	-13.2676
▁ESA	-13.2682
▁CP	-13.2685
▁PF	-13.2687
HF	-13.2696
▁rec	-13.2707
▁DES	-13.2708
▁cc	-13.2716
rey	-13.2731
▁ربز	-13.2743
PH	-13.2749
GM	-13.2753
▁NU	-13.2753
RIS	-13.2764
YC	-13.2768
جان	-13.2785
▁Sat	-13.2801
/1	-13.2802
▁Ski	-13.2814
22	-13.2817
▁roo	-13.283
▁Bon	-13.285
▁Spe	-13.2859
▁pha	-13.286
▁ori	-13.2862
▁SN	-13.2862
▁دلای	-13.2864
IST	-13.2865
▁iv	-13.2884
EE	-13.2895
▁۸۶	-13.2898
▁tti	-13.29
AY	-13.2909
▁الیت	-13.2915
▁cop	-13.2925
٧	-13.2927
️	-13.2927
شون	-13.2929
▁etc	-13.2932
ó	-13.2935
ٓ	-13.2935
ٰ	-13.2935
▁Value	-13.2935
▁http	-13.2935
▁Zone	-13.2936
▁Turbo	-13.2936
▁زائر	-13.2936
oard	-13.2936
▁Solu	-13.2936
▁sign	-13.2936
▁Queen	-13.2936
▁Body	-13.2936
▁Steam	-13.2936
▁front	-13.2936
▁😀	-13.2936
▁Shift	-13.2936
▁Week	-13.2936
▁١٢	-13.2936
▁COPD	-13.2936
▁Brown	-13.2936
▁GDPR	-13.2936
▁ties	-13.2936
▁KPI	-13.2936
▁^	-13.2936
▁Buzz	-13.2936
▁Ctr	-13.2937
▁ICE	-13.2937
▁Stone	-13.2938
▁Soli	-13.2938
▁pow	-13.2938
▁MVC	-13.2938
▁CBT	-13.2939
▁Disp	-13.2939
▁Sep	-13.294
▁star	-13.294
▁make	-13.2941
▁Case	-13.2942
▁Bang	-13.2942
▁mod	-13.2943
▁Oli	-13.2943
▁mast	-13.2944
▁Tab	-13.2946
▁lib	-13.2946
▁pad	-13.2947
▁Att	-13.2947
▁NV	-13.2953
▁911	-13.2954
▁ms	-13.2955
▁ei	-13.2958
▁واتار	-13.2958
▁Gla	-13.2962
ID	-13.2965
PV	-13.2974
▁Meth	-13.2978
▁Que	-13.2982
▁ned	-13.2987
eet	-13.2993
hock	-13.2995
▁رسون	-13.2999
زیلا	-13.3001
▁py	-13.3004
▁Rise	-13.3004
▁ASD	-13.3005
▁STD	-13.3009
occ	-13.3011
▁NAB	-13.3011
▁روتو	-13.3014
▁Ger	-13.3026
▁بساز	-13.3034
▁gge	-13.3045
▁cryp	-13.3052
eek	-13.3053
نطق	-13.3059
▁SSH	-13.3062
▁گنت	-13.3065
▁une	-13.3068
▁کدو	-13.3074
▁GI	-13.3074
▁ass	-13.3076
▁Inj	-13.3087
AU	-13.31
▁نشنا	-13.31
umm	-13.3108
▁زير	-13.311
▁ريز	-13.3111
▁Tin	-13.3113
64	-13.3115
VI	-13.3116
▁چين	-13.3117
23	-13.3129
▁TRA	-13.3138
▁pur	-13.3145
▁Off	-13.3154
▁HB	-13.3159
▁Pin	-13.3165
▁pal	-13.3166
CCP	-13.3168
II	-13.3169
▁MAN	-13.3174
▁nor	-13.3177
ركز	-13.3184
ستیک	-13.3185
وهان	-13.3196
AI	-13.3199
ذل	-13.3205
44	-13.3206
▁Jos	-13.3208
▁BV	-13.3211
▁Crai	-13.3212
▁Sho	-13.3212
▁چاو	-13.3212
▁OM	-13.322
▁mann	-13.3229
▁ye	-13.3239
▁کنگر	-13.3239
▁Bas	-13.3247
تسو	-13.3256
resh	-13.3257
دمیو	-13.3257
▁Lor	-13.3257
▁nz	-13.3266
▁Prem	-13.3268
▁dam	-13.3274
▁زیکا	-13.3277
▁ريد	-13.3281
57	-13.3282
▁طبل	-13.3283
tone	-13.3287
39	-13.3291
اذ	-13.3301
▁Rai	-13.3303
jo	-13.3336
▁PB	-13.3347
▁hot	-13.3349
▁Est	-13.3351
▁Chu	-13.3354
رباچ	-13.3356
▁Id	-13.3381
▁وزام	-13.3386
▁داک	-13.3387
▁hop	-13.339
▁Var	-13.3394
▁Wri	-13.34
4%	-13.3402
▁سرک	-13.341
▁eo	-13.3414
ندون	-13.343
41	-13.3437
▁۶۷	-13.3442
▁POS	-13.345
▁Kee	-13.3452
▁Mons	-13.3455
۳۵	-13.3455
xel	-13.3469
▁لژی	-13.3473
▁الاک	-13.348
▁Rad	-13.3481
▁fie	-13.3482
▁۶۳	-13.3487
▁یلیو	-13.3489
▁Gun	-13.3489
ulu	-13.3494
AB	-13.3495
▁USC	-13.3499
▁Wei	-13.3511
▁dra	-13.3511
▁Bru	-13.3516
urn	-13.3516
▁Enc	-13.3516
RO	-13.3524
ضب	-13.3538
▁لوپ	-13.3538
٣	-13.3552
NU	-13.3552
طلاح	-13.3552
صاحب	-13.3552
▁۶۲	-13.3552
++	-13.3552
à	-13.356
▁zine	-13.356
▁[4]	-13.3561
▁frie	-13.3561
▁class	-13.3561
▁✅	-13.3561
▁ival	-13.3561
▁Crow	-13.3561
▁Frame	-13.3561
▁Lumi	-13.3561
▁دوردز	-13.3561
▁info	-13.3561
▁==	-13.3561
▁CAN	-13.3561
▁؟؟؟	-13.3561
▁Quick	-13.3561
▁Demo	-13.3561
▁Jean	-13.3561
▁Lion	-13.3562
▁Plu	-13.3562
▁Flu	-13.3562
▁ndow	-13.3562
▁try	-13.3562
▁Song	-13.3563
▁Young	-13.3563
▁Root	-13.3563
▁stri	-13.3563
▁Sequ	-13.3563
▁wire	-13.3563
▁Main	-13.3564
▁zen	-13.3564
▁India	-13.3564
▁Bala	-13.3565
▁lb	-13.3566
▁OTC	-13.3566
▁Happ	-13.3566
▁Cup	-13.3566
/2	-13.3566
▁ior	-13.3566
▁ners	-13.3567
▁TEC	-13.3568
▁Gay	-13.3568
▁Rod	-13.3569
▁Cost	-13.3571
▁AJ	-13.3572
▁eff	-13.3573
▁Deb	-13.3573
▁Ava	-13.3574
▁Ske	-13.3576
▁onse	-13.3576
▁Know	-13.358
▁gan	-13.3582
▁ارلت	-13.3591
▁Audi	-13.3592
▁زیپ	-13.3593
▁اپیک	-13.3595
▁ودین	-13.3601
▁ضلع	-13.3603
▁102	-13.3606
▁IGN	-13.3607
▁are	-13.361
▁def	-13.3611
▁مستق	-13.3614
▁پتید	-13.3615
EU	-13.3623
▁۹۴	-13.3625
▁Burn	-13.3632
▁فلک	-13.3633
▁GSM	-13.3639
▁ایلز	-13.3643
▁LS	-13.3643
▁PAC	-13.3643
▁IG	-13.3643
▁لینز	-13.365
۱۵	-13.3652
▁واتر	-13.3653
▁صحن	-13.3657
▁ay	-13.3659
ynd	-13.3659
tru	-13.3661
▁Lt	-13.3661
▁loy	-13.3666
▁112	-13.3671
▁zer	-13.3672
▁cord	-13.3677
TEM	-13.3681
▁Vel	-13.3691
▁van	-13.3692
oid	-13.3695
▁Gui	-13.3696
▁Yan	-13.3697
▁how	-13.3704
ضد	-13.3706
▁Mass	-13.3709
▁rgi	-13.3719
▁تکینز	-13.3719
▁Holl	-13.372
▁WAN	-13.3732
▁rid	-13.3733
▁Jan	-13.3736
▁PTS	-13.3751
▁vp	-13.3759
59	-13.3763
ND	-13.3765
▁Lon	-13.3765
جد	-13.3768
▁ATP	-13.3775
يس	-13.3791
▁قلو	-13.3804
▁بشم	-13.3816
▁Ano	-13.382
▁یترو	-13.3831
▁ef	-13.3845
▁FT	-13.385
▁یندل	-13.3853
▁url	-13.3859
▁FD	-13.3869
olv	-13.3889
▁bug	-13.3897
▁add	-13.3901
ATA	-13.3908
▁ورال	-13.3909
▁Ker	-13.391
▁clu	-13.3925
پتو	-13.3926
▁ریکو	-13.3928
سپ	-13.3933
▁LC	-13.3947
▁IDE	-13.3974
▁chan	-13.3993
▁Kot	-13.4006
▁GIS	-13.4016
▁ET	-13.4016
▁fr	-13.4024
▁۸۳	-13.4024
▁Dro	-13.4028
▁UM	-13.4046
▁طاس	-13.4047
▁۷۴	-13.4048
FE	-13.406
▁nos	-13.4062
لینگ	-13.4066
YS	-13.4077
▁DJ	-13.4092
▁TU	-13.4093
▁وقو	-13.4096
▁ulu	-13.4102
▁۹۱	-13.4103
▁uel	-13.4106
72	-13.4107
▁Pie	-13.411
illa	-13.4129
▁Eve	-13.4131
uss	-13.4142
▁Mut	-13.4148
TT	-13.4152
▁نتس	-13.4152
19	-13.4166
GS	-13.4169
BO	-13.4173
▁Cons	-13.4181
▁ناچ	-13.4193
▁tel	-13.4195
▁۸۷	-13.4199
La	-13.4199
▁Ris	-13.4204
ING	-13.4213
▁Kir	-13.4213
ü	-13.4218
٦	-13.4219
۱۲	-13.4219
hot	-13.422
▁Med	-13.4224
⇐	-13.4227
▁blue	-13.4227
▁life	-13.4227
▁mber	-13.4227
▁place	-13.4227
ş	-13.4227
▁(0)	-13.4227
▁Harry	-13.4227
▁`	-13.4227
▁□	-13.4227
▁Thro	-13.4228
▁Cosm	-13.4228
▁Bird	-13.4228
▁§	-13.4228
▁REST	-13.4228
▁gory	-13.4228
▁flow	-13.4228
awk	-13.4229
▁Text	-13.4229
▁Scot	-13.4229
▁fare	-13.423
▁Guy	-13.4231
▁uit	-13.4231
▁Atta	-13.4231
▁Fest	-13.4231
▁Shu	-13.4231
▁nco	-13.4233
▁stru	-13.4235
▁Wea	-13.4239
▁Swa	-13.4239
▁Avi	-13.4242
▁een	-13.4244
▁Boe	-13.4244
▁stu	-13.4245
▁sel	-13.4246
▁MX	-13.4248
▁Vict	-13.4252
▁ابایت	-13.4252
▁zy	-13.4257
▁ناطق	-13.4258
▁ریدون	-13.4259
07	-13.4266
▁band	-13.4269
▁Shot	-13.427
▁mart	-13.4274
men	-13.4276
▁Ask	-13.4279
NSI	-13.428
▁انتوم	-13.4281
▁Ross	-13.4291
▁زیسم	-13.4296
▁:(	-13.4303
▁Ord	-13.4304
▁Fox	-13.4317
▁DOM	-13.432
▁OT	-13.4326
▁Kon	-13.4328
▁hell	-13.4333
▁امسون	-13.4338
▁Wii	-13.4338
74	-13.4351
▁Hen	-13.436
KD	-13.4362
▁Chem	-13.4363
▁Mono	-13.4398
▁زتک	-13.4399
▁ND	-13.4402
▁reg	-13.4403
▁شورو	-13.4407
▁شکال	-13.4421
▁NS	-13.4438
▁bab	-13.4443
▁LAB	-13.4446
▁Navi	-13.4462
▁یدوز	-13.4471
▁لتو	-13.4475
RG	-13.4487
▁Rac	-13.4487
▁Bou	-13.4491
BG	-13.4498
▁zone	-13.4499
▁Xi	-13.4505
▁now	-13.4534
▁گلس	-13.4539
▁reas	-13.4541
▁Eng	-13.4543
▁متاس	-13.4545
EST	-13.4556
43	-13.4559
▁num	-13.4593
▁UCL	-13.4603
loud	-13.4613
▁TES	-13.4635
▁dan	-13.4638
▁SAP	-13.4649
▁sia	-13.4666
▁Terr	-13.467
▁Gram	-13.4676
▁pat	-13.4677
▁TL	-13.468
wer	-13.4682
CF	-13.4703
▁rin	-13.4711
▁IPC	-13.4713
▁nit	-13.4714
rry	-13.4727
▁Jas	-13.4743
ووه	-13.4745
▁SR	-13.4746
-4	-13.4753
▁ونتر	-13.4755
ؤ	-13.4757
▁dua	-13.476
▁۶۱	-13.478
LU	-13.4792
UK	-13.4792
▁ASC	-13.4803
▁Spir	-13.481
56	-13.482
▁Dal	-13.4821
▁fort	-13.4821
▁hola	-13.4834
▁wan	-13.4837
▁plu	-13.4852
▁انرژ	-13.4867
hell	-13.487
EF	-13.4877
▁Curr	-13.4882
▁Qu	-13.4882
▁Duo	-13.4902
▁Lan	-13.4906
▁حادث	-13.491
▁Set	-13.4911
▁ino	-13.4914
FU	-13.492
Que	-13.4933
▁fra	-13.4933
Pod	-13.4933
▁شیط	-13.4938
▁Nexus	-13.4941
▁ledge	-13.4941
▫	-13.4941
▁Aqua	-13.4941
▁Zomb	-13.4942
▁graph	-13.4942
▁Font	-13.4942
▁Rush	-13.4942
▁Short	-13.4942
▁Rout	-13.4942
▁stry	-13.4942
▁door	-13.4942
▁Livi	-13.4943
▁Price	-13.4943
▁Town	-13.4943
▁Beach	-13.4944
▁ESL	-13.4944
▁lang	-13.4944
▁mba	-13.4944
▁state	-13.4945
▁Spy	-13.4945
ield	-13.4945
▁AAA	-13.4946
▁lus	-13.4946
▁dios	-13.4947
▁Rate	-13.4947
▁هیکل	-13.4949
rix	-13.4949
▁Pear	-13.495
▁ؤ	-13.495
▁than	-13.4951
▁kg	-13.4952
▁Tun	-13.4953
▁ntic	-13.4953
▁تهوو	-13.496
▁Driv	-13.4961
▁soc	-13.4963
▁lica	-13.4964
▁330	-13.4973
UR	-13.4975
▁Here	-13.4978
▁Bul	-13.4984
nct	-13.4988
▁ریایی	-13.4989
▁عطش	-13.499
▁Vani	-13.4991
ISA	-13.4994
ئین	-13.4999
▁Kha	-13.4999
76	-13.4999
▁Hei	-13.5
▁Fen	-13.5012
uz	-13.5013
▁Brad	-13.5015
▁ولار	-13.5018
▁Comb	-13.5018
▁براد	-13.5025
▁رامش	-13.5029
▁210	-13.5033
▁psi	-13.5034
▁گوئ	-13.5036
▁ati	-13.5043
▁XL	-13.5044
▁وصی	-13.5052
▁Via	-13.5059
▁vic	-13.5063
AND	-13.5066
▁sche	-13.5097
▁Toy	-13.5104
▁hai	-13.511
▁SK	-13.5116
▁تحو	-13.5128
▁Ata	-13.513
ویا	-13.5136
▁لدون	-13.5139
ubi	-13.514
▁Colu	-13.5141
ARC	-13.5141
▁اندرز	-13.5153
82	-13.5158
27	-13.516
▁Shap	-13.5177
▁div	-13.5187
▁چیل	-13.5188
▁Rov	-13.5189
67	-13.5197
▁Trac	-13.5198
▁BT	-13.5216
▁If	-13.5219
▁Tak	-13.5232
▁وزال	-13.5236
▁پنت	-13.5237
▁tus	-13.5243
▁یگل	-13.5244
▁IDC	-13.5261
AO	-13.5263
rew	-13.5282
▁PIN	-13.5296
▁aid	-13.5302
▁Feat	-13.5304
▁نارد	-13.5327
▁MIN	-13.5331
▁Yi	-13.5337
۱۴	-13.5351
▁Than	-13.5359
▁Ras	-13.5359
▁SAN	-13.5362
▁bet	-13.5364
▁Raz	-13.5373
DMA	-13.5384
▁dig	-13.5386
▁stor	-13.539
▁rov	-13.5417
▁Foc	-13.5452
IDI	-13.5452
26	-13.5452
8%	-13.5453
▁dad	-13.5458
WTO	-13.5468
▁CB	-13.5468
36	-13.5468
▁sse	-13.5469
▁GIF	-13.547
96	-13.5473
▁tha	-13.5473
▁Sir	-13.5475
▁Kim	-13.5486
lick	-13.5488
وتل	-13.5495
VM	-13.5499
/5	-13.5502
ICE	-13.5505
86	-13.552
▁Nik	-13.5531
hart	-13.5535
▁Ok	-13.5555
▁fl	-13.5558
▁Pig	-13.5559
EMA	-13.5569
▁ter	-13.557
▁rav	-13.5589
▁dr	-13.5594
▁stan	-13.5604
▁Twit	-13.5611
آل	-13.5613
▁phi	-13.5615
▁Ami	-13.5619
▁tto	-13.5626
▁brea	-13.5636
ارک	-13.5658
▁qua	-13.5666
▁ib	-13.5667
▁wee	-13.5686
▁bac	-13.5689
غض	-13.5699
[	-13.5702
▁Stick	-13.5711
▁inue	-13.5711
▁sics	-13.5711
▁>>>	-13.5711
▁Flex	-13.5711
▁Grow	-13.5711
▁Orph	-13.5711
▁guard	-13.5711
▁Trail	-13.5711
▁Bos	-13.5711
▁fox	-13.5711
▁ˈ	-13.5712
▁wha	-13.5712
▁Wake	-13.5712
AGE	-13.5712
▁RGB	-13.5712
▁fish	-13.5712
▁وزير	-13.5712
▁٢٠	-13.5712
▁ifie	-13.5712
▁Russ	-13.5713
▁RDI	-13.5713
▁NPT	-13.5713
▁Fab	-13.5713
▁mory	-13.5713
▁Look	-13.5713
▁foot	-13.5713
▁Audio	-13.5714
▁Metal	-13.5714
▁تغذ	-13.5715
▁Buy	-13.5716
ref	-13.5716
▁Bix	-13.5716
▁IPO	-13.5717
▁AOL	-13.5718
▁nus	-13.572
▁oth	-13.5721
▁Gru	-13.5721
▁ESP	-13.5721
UI	-13.5722
▁:))	-13.5722
▁HER	-13.5722
▁km	-13.5723
ideo	-13.5723
▁prop	-13.5723
My	-13.5724
▁Kre	-13.5724
leep	-13.5724
▁Edit	-13.5724
MX	-13.5725
▁Mov	-13.5729
فبک	-13.5731
▁Ox	-13.5731
97	-13.5732
▁char	-13.5739
▁5.0	-13.5742
▁SOC	-13.5744
▁۸۴	-13.5747
اویر	-13.5748
▁priv	-13.5749
▁ژانو	-13.5751
ISE	-13.5751
▁fire	-13.5752
▁Mei	-13.5754
-3	-13.5757
▁4.2	-13.5758
▁پیوس	-13.5774
▁use	-13.5779
▁Tes	-13.5781
بیش	-13.5785
يج	-13.5787
▁حاف	-13.5798
▁Vers	-13.5799
▁هلنا	-13.5806
▁plus	-13.5809
زین	-13.5825
▁OD	-13.5826
▁rum	-13.5827
▁spo	-13.5844
▁رعب	-13.5855
▁SMA	-13.5859
77	-13.5865
▁LD	-13.5869
▁cht	-13.5879
gra	-13.5882
dam	-13.5892
▁dec	-13.5894
MJ	-13.5894
UF	-13.5897
▁FAA	-13.5899
▁Ferr	-13.59
▁gna	-13.5903
▁ستوا	-13.5908
peed	-13.5914
چون	-13.5919
▁Por	-13.5921
وفو	-13.5924
▁blog	-13.5938
▁Sant	-13.5948
▁Kh	-13.5953
NB	-13.5958
ACK	-13.596
▁Pot	-13.5974
▁Dest	-13.5978
١	-13.6535
ھ	-13.7444
√	-13.7453
	-13.8453
ā	-13.8453
	-13.8453
•	-13.9556
ã	-13.9564
è	-13.9564
́	-13.9564
р	-13.9564
“	-14.0806
⁄	-14.0814
å	-14.0814
í	-14.0814
и	-14.0814
★	-14.0814
×	-14.2234
Ç	-14.2243
ú	-14.2243
ٿ	-14.2243
μ	-14.3909
̊	-14.3909
а	-14.3909
ٴ	-14.3909
⁭	-14.3909
✓	-14.3909
﴿	-14.3909
н	-14.3909
о	-14.3909
е	-14.3909
′	-14.5901
ø	-14.5909
İ	-14.5909
	-14.5909
Ø	-14.5909
Ω	-14.5909
ε	-14.5909
ۆ	-14.5909
ა	-14.5909
⁪	-14.5909
◊	-14.5909
⚡	-14.5909
✤	-14.5909
✭	-14.5909
⦁	-14.5909
	-14.5909
🔴	-14.5909
←	-14.8401
Ö	-14.8409
	-14.8409
β	-14.8409
д	-14.8409
▬	-14.8409
	-14.8409
😐	-14.8409
ë	-14.8409
ν	-14.8409
£	-15.1734
إ	-15.1734
\	-15.1734
ڪ	-15.1743
	-15.1743
	-15.1743
¤	-15.1743
Â	-15.1743
Ş	-15.1743
ɪ	-15.1743
̨	-15.1743
Т	-15.1743
к	-15.1743
ლ	-15.1743
⁧	-15.1743
⁮	-15.1743
⃣	-15.1743
≠	-15.1743
≡	-15.1743
≤	-15.1743
➕	-15.1743
	-15.1743
	-15.1743
🔺	-15.1743
с	-15.1743
ო	-15.1743
ვ	-15.1743
α	-15.6734
ˈ	-15.6734
§	-15.6734
^	-15.6734
<	-15.6734
@	-15.6734
{	-15.6734
	-15.6743
¡	-15.6743
¢	-15.6743
Ã	-15.6743
Ä	-15.6743
Ü	-15.6743
ê	-15.6743
î	-15.6743
ô	-15.6743
÷	-15.6743
ý	-15.6743
ē	-15.6743
ɛ	-15.6743
ʊ	-15.6743
ː	-15.6743
γ	-15.6743
λ	-15.6743
ο	-15.6743
ρ	-15.6743
ς	-15.6743
τ	-15.6743
Б	-15.6743
К	-15.6743
г	-15.6743
й	-15.6743
י	-15.6743
ڵ	-15.6743
ہ	-15.6743
ۂ	-15.6743
თ	-15.6743
ი	-15.6743
‚	-15.6743
‭	-15.6743
≥	-15.6743
▶	-15.6743
◦	-15.6743
☼	-15.6743
メ	-15.6743
事	-15.6743
件	-15.6743
日	-15.6743
灣	-15.6743
軍	-15.6743
	-15.6743
	-15.6743
	-15.6743
	-15.6743
	-15.6743
🔷	-15.6743
😅	-15.6743
😏	-15.6743
😢	-15.6743
😥	-15.6743
😳	-15.6743
🙁	-15.6743
რ	-15.6743
😵	-16.6655
😛	-16.6656
📣	-16.6657
🍃	-16.6658
🇪	-16.6659
	-16.666
	-16.6661
	-16.6662
本	-16.6663
朝	-16.6664
台	-16.6665
❇	-16.6666
◀	-16.6667
▲	-16.6668
ს	-16.6669
ܜ	-16.667
ܔ	-16.6671
л	-16.6672
б	-16.6673
̇	-16.6674
ƒ	-16.6675
ð	-16.6676
ß	-16.6677
	-16.6678
😊	-16.6679
🔥	-16.668
👻	-16.6681
👏	-16.6682
⁣	-16.6683
κ	-16.6684
θ	-16.6685
š	-16.6686
ń	-16.6687
ò	-16.6688
ï	-16.6689
	-16.669
😂	-16.6691
🔻	-16.6692
🌸	-16.6693
✕	-16.6694
○	-16.6695
▐	-16.6696
⁩	-16.6697
М	-16.6698
👈	-16.6699
	-16.67
♯	-16.6701
♬	-16.6702
„	-16.6703
Δ	-16.6704
̈	-16.6705
ğ	-16.6706
🌷	-16.6707
✔	-16.6708
☺	-16.6709
۔	-16.671
̋	-16.6711
œ	-16.6712
👌	-16.6713
﴾	-16.6714
❤	-16.6715
±	-16.6716
😍	-16.6717
É	-16.6718
🙂	-16.6719
	-16.672
ñ	-16.6721
🔸	-16.6722
©	-16.6723
	-16.6724
♥	-16.6725
−	-16.6726
🔹	-16.6727
➖	-16.6728
😉	-16.6729
~	-16.673
›	-16.6731
◄	-16.6732
■	-16.6733
♪	-16.6734
`	-16.6735
□	-16.6735
✅	-16.6735
😀	-16.6735
‹	-16.6735
‪	-16.6735
♫	-16.6735
⁯	-16.6735
®	-16.6735
°	-16.6735
‍	-16.6735
·	-16.6735
‘	-16.6735
‬	-16.6735
€	-16.6736
‫	-16.6737
▪	-16.6738
→	-16.6739
↑	-16.674
●	-16.6741
—	-16.6742
	-16.6743
	-16.6743
	-16.6743
	-16.6743
	-16.6743
¥	-16.6743
Á	-16.6743
Å	-16.6743
Ô	-16.6743
æ	-16.6743
ì	-16.6743
þ	-16.6743
ć	-16.6743
ī	-16.6743
ł	-16.6743
ŋ	-16.6743
ū	-16.6743
ű	-16.6743
Ž	-16.6743
ǎ	-16.6743
ɔ	-16.6743
ə	-16.6743
ɜ	-16.6743
ɨ	-16.6743
ʀ	-16.6743
ʁ	-16.6743
ʺ	-16.6743
ˌ	-16.6743
ˏ	-16.6743
̃	-16.6743
̏	-16.6743
̵	-16.6743
Α	-16.6743
Ε	-16.6743
Μ	-16.6743
Φ	-16.6743
ζ	-16.6743
φ	-16.6743
Г	-16.6743
З	-16.6743
И	-16.6743
О	-16.6743
С	-16.6743
т	-16.6743
у	-16.6743
ф	-16.6743
ы	-16.6743
я	-16.6743
ё	-16.6743
ћ	-16.6743
ה	-16.6743
ח	-16.6743
מ	-16.6743
פ	-16.6743
څ	-16.6743
ګ	-16.6743
ں	-16.6743
ۃ	-16.6743
ێ	-16.6743
ے	-16.6743
ก	-16.6743
ง	-16.6743
แ	-16.6743
გ	-16.6743
ე	-16.6743
მ	-16.6743
ნ	-16.6743
უ	-16.6743
ქ	-16.6743
Ḥ	-16.6743
ṇ	-16.6743
ṯ	-16.6743
ủ	-16.6743
ἐ	-16.6743
ἥ	-16.6743
Ἴ	-16.6743
ῖ	-16.6743
―	-16.6743
†	-16.6743
※	-16.6743
⁠	-16.6743
₩	-16.6743
₹	-16.6743
↓	-16.6743
⇆	-16.6743
⇔	-16.6743
∀	-16.6743
∆	-16.6743
∈	-16.6743
∗	-16.6743
∘	-16.6743
∴	-16.6743
≈	-16.6743
⊞	-16.6743
⋆	-16.6743
⌘	-16.6743
⏳	-16.6743
⏺	-16.6743
►	-16.6743
◇	-16.6743
◽	-16.6743
◾	-16.6743
☆	-16.6743
☚	-16.6743
♊	-16.6743
♒	-16.6743
♡	-16.6743
⚽	-16.6743
✋	-16.6743
✍	-16.6743
✳	-16.6743
✵	-16.6743
❌	-16.6743
❗	-16.6743
➌	-16.6743
➐	-16.6743
⟨	-16.6743
⟩	-16.6743
⬅	-16.6743
《	-16.6743
》	-16.6743
「	-16.6743
か	-16.6743
き	-16.6743
ど	-16.6743
ま	-16.6743
モ	-16.6743
ヤ	-16.6743
一	-16.6743
东	-16.6743
人	-16.6743
前	-16.6743
命	-16.6743
坛	-16.6743
外	-16.6743
子	-16.6743
孫	-16.6743
將	-16.6743
斐	-16.6743
旗	-16.6743
月	-16.6743
樹	-16.6743
湾	-16.6743
爱	-16.6743
生	-16.6743
甲	-16.6743
碌	-16.6743
神	-16.6743
臺	-16.6743
英	-16.6743
蔼	-16.6743
语	-16.6743
锦	-16.6743
门	-16.6743
革	-16.6743
도	-16.6743
라	-16.6743
아	-16.6743
장	-16.6743
	-16.6743
	-16.6743
	-16.6743
	-16.6743
	-16.6743
	-16.6743
	-16.6743
	-16.6743
	-16.6743
	-16.6743
	-16.6743
	-16.6743
	-16.6743
	-16.6743
	-16.6743
	-16.6743
🇩	-16.6743
🇬	-16.6743
🇷	-16.6743
🇺	-16.6743
🌀	-16.6743
🌐	-16.6743
🌬	-16.6743
🌲	-16.6743
🌺	-16.6743
🍁	-16.6743
🍳	-16.6743
🎁	-16.6743
🎄	-16.6743
🎥	-16.6743
🎬	-16.6743
🐶	-16.6743
👑	-16.6743
💎	-16.6743
💕	-16.6743
💜	-16.6743
💟	-16.6743
💫	-16.6743
📈	-16.6743
📌	-16.6743
📍	-16.6743
📑	-16.6743
📝	-16.6743
📱	-16.6743
📽	-16.6743
🔎	-16.6743
🔔	-16.6743
🔵	-16.6743
🔶	-16.6743
🗽	-16.6743
😁	-16.6743
😌	-16.6743
😎	-16.6743
😒	-16.6743
😔	-16.6743
😕	-16.6743
😗	-16.6743
😙	-16.6743
😭	-16.6743
😶	-16.6743
🙏	-16.6743
🚀	-16.6743
🚫	-16.6743
🤔	-16.6743
🤗	-16.6743
П	-16.6743
х	-16.6743
ש	-16.6743
谷	-16.6743
티	-16.6743
💳	-16.6743
ω	-16.6743
м	-16.6743
ь	-16.6743
כ	-16.6743
ً	-16.6743
十	-16.6743
天	-16.6743
撫	-16.6743
