<unk>	0
<s>	0
</s>	0
▁.	-3.4656
▁و	-3.76102
▁در	-3.82978
▁به	-3.9496
▁ی	-3.96597
▁،	-3.97113
▁می	-3.996
▁از	-4.13089
▁که	-4.13604
▁را	-4.20905
▁است	-4.2526
▁م	-4.37874
▁این	-4.46179
▁ب	-4.61558
▁های	-4.6715
ی	-4.68932
▁ا	-4.87688
▁با	-4.92682
▁یک	-5.0205
▁برای	-5.02271
▁ها	-5.06457
▁ان	-5.14133
▁آن	-5.32382
▁ه	-5.35546
ا	-5.45243
ه	-5.48491
▁خ	-5.48507
▁ت	-5.55008
▁هم	-5.56118
▁شما	-5.57078
▁ات	-5.59744
▁ن	-5.63467
▁خود	-5.67084
▁س	-5.74815
▁یا	-5.76205
▁ش	-5.76304
▁آ	-5.76361
▁پ	-5.77512
▁کند	-5.77713
▁تا	-5.78059
▁:	-5.78181
▁ای	-5.78271
▁شود	-5.78394
▁ما	-5.80564
▁کار	-5.80984
ت	-5.84114
▁او	-5.86804
▁ف	-5.86961
▁شده	-5.86988
▁(	-5.91188
▁بر	-5.92199
▁کنند	-5.97399
▁)	-5.97488
▁کنید	-5.98748
▁د	-5.99453
▁من	-6.02611
▁ند	-6.03179
▁هر	-6.04869
▁ک	-6.06003
▁سال	-6.0912
▁بود	-6.09619
▁توان	-6.16321
▁»	-6.16869
▁0	-6.16951
ر	-6.17425
▁؟	-6.17593
م	-6.21681
▁یی	-6.22638
▁اما	-6.23496
▁ید	-6.23682
▁باشد	-6.24718
▁دو	-6.29168
▁دارد	-6.29801
▁1	-6.29957
▁نمی	-6.30645
د	-6.31184
▁آنها	-6.32033
▁کرد	-6.32218
▁باید	-6.3471
▁ر	-6.34975
▁شد	-6.3711
ن	-6.37476
▁«	-6.39547
▁ج	-6.40459
▁دیگر	-6.40993
▁فاده	-6.42563
▁"	-6.43742
▁اگر	-6.43981
▁ل	-6.48291
▁حال	-6.49372
ل	-6.50635
▁دست	-6.53884
▁مورد	-6.56081
▁2	-6.56323
▁هستند	-6.56964
▁تر	-6.58194
▁تواند	-6.59642
▁دهد	-6.61895
▁انجام	-6.62146
▁کرده	-6.63123
ان	-6.63518
▁اند	-6.66132
▁-	-6.66873
▁چه	-6.68021
▁گ	-6.68292
▁وجود	-6.70062
▁قرار	-6.71159
▁نیست	-6.71638
▁	-6.71997
▁روز	-6.72293
▁همه	-6.7265
▁بیشتر	-6.73901
▁چنین	-6.75234
▁نیز	-6.76063
.	-6.76096
▁ق	-6.76176
▁عنوان	-6.76742
و	-6.77365
▁گاه	-6.78301
▁!	-6.80051
ع	-6.83023
▁ع	-6.85722
▁دارند	-6.86116
▁داشته	-6.86496
،	-6.86717
▁خواهد	-6.88628
▁ح	-6.89161
▁زندگی	-6.8918
▁۰	-6.9012
▁پیش	-6.90128
▁دانش	-6.90816
▁داده	-6.91527
▁ین	-6.91724
▁نظر	-6.91895
▁شوند	-6.92233
▁ممکن	-6.92297
▁روی	-6.92748
▁رو	-6.92906
▁۱	-6.93244
▁یم	-6.93552
▁بین	-6.95431
گ	-6.96535
▁هایی	-6.9712
▁طور	-6.97541
▁پس	-6.97676
▁9	-7.00295
▁شرکت	-7.01248
ش	-7.02274
▁بسیار	-7.02341
▁زمان	-7.02352
▁ام	-7.03325
▁کردن	-7.03758
▁هیچ	-7.04451
▁نیاز	-7.05043
▁تنها	-7.0596
ب	-7.06522
▁کنیم	-7.06623
▁ترین	-7.08719
▁نا	-7.08867
▁ال	-7.09981
▁مریکا	-7.11854
ف	-7.12566
▁؛	-7.12602
▁رنامه	-7.13057
▁بزرگ	-7.13661
▁افراد	-7.13696
▁سر	-7.146
▁کمک	-7.15658
▁داد	-7.16386
▁s	-7.16409
▁تان	-7.16463
▁راه	-7.16878
▁مردم	-7.17145
▁چند	-7.17556
▁جدید	-7.17603
▁نام	-7.17688
▁صورت	-7.18207
▁یکی	-7.1988
▁بازی	-7.20497
▁باره	-7.21027
▁نشان	-7.21554
▁داشت	-7.22308
▁۲	-7.22628
▁5	-7.23762
▁تغییر	-7.24332
▁نه	-7.25296
▁چیزی	-7.25306
▁بی	-7.25973
▁تو	-7.27603
▁کشور	-7.28227
▁دهند	-7.29489
▁بعد	-7.30288
▁توسط	-7.31134
▁کنم	-7.31238
▁3	-7.31453
ور	-7.31593
ین	-7.33302
▁باز	-7.33339
▁تمام	-7.34198
▁ایجاد	-7.3441
▁دوست	-7.34426
▁خانه	-7.34679
▁آیا	-7.34755
▁ط	-7.35348
▁گفت	-7.35383
▁انه	-7.35507
▁فقط	-7.35938
▁یت	-7.36526
▁ً	-7.36709
▁اس	-7.38427
▁مانند	-7.38747
▁جهان	-7.39012
▁”	-7.40026
س	-7.40108
▁طول	-7.40154
▁بار	-7.40729
▁شان	-7.41011
▁بیش	-7.41222
▁4	-7.41657
▁سیاری	-7.42287
▁حتی	-7.42776
▁باشید	-7.43492
نتخا	-7.43617
▁اینکه	-7.44028
▁اج	-7.44363
▁اطلا	-7.47064
▁8	-7.47462
▁غیر	-7.48318
▁کردند	-7.48387
▁مهم	-7.48708
▁برخی	-7.48863
▁انداز	-7.49726
▁افزا	-7.49758
▁باشند	-7.50076
▁ایران	-7.50308
▁پر	-7.50915
▁یافت	-7.51204
▁کسی	-7.51403
▁ست	-7.51532
▁6	-7.51791
▁درصد	-7.52213
▁انسان	-7.53151
▁دی	-7.53275
▁زمانی	-7.53506
▁بخش	-7.53523
▁۹	-7.54336
▁کتاب	-7.55517
▁دهید	-7.55575
▁فکر	-7.56281
▁ده	-7.56326
▁کا	-7.56848
▁کودک	-7.57425
▁تولید	-7.5803
▁ماه	-7.58455
▁7	-7.58687
▁قبل	-7.58732
a	-7.58973
▁کاری	-7.59934
▁شهر	-7.59977
▁ِ	-7.6064
▁چرا	-7.60869
▁ص	-7.61829
▁مند	-7.6204
▁واهید	-7.62329
▁آب	-7.62433
t	-7.62548
▁“	-7.62596
▁مشکل	-7.62665
▁ارائه	-7.6274
▁گرفته	-7.62835
▁چگونه	-7.63215
▁بودند	-7.63306
▁...	-7.63479
▁اش	-7.63995
▁وقتی	-7.64182
▁سازم	-7.64259
▁بدون	-7.64466
▁همین	-7.65402
▁پیدا	-7.65808
▁قابل	-7.66005
▁سیستم	-7.66056
▁همان	-7.66479
▁دارید	-7.66634
▁شدن	-7.66707
▁بوده	-7.67306
▁کامل	-7.67771
▁خیل	-7.67884
▁ي	-7.68918
e	-7.69024
▁زیادی	-7.69036
▁–	-7.69597
▁ستان	-7.69696
▁نفر	-7.69983
▁جنگ	-7.70141
▁خوب	-7.70262
▁مدت	-7.70748
▁احساس	-7.70768
▁سه	-7.71176
▁شروع	-7.71464
▁­	-7.716
▁دلیل	-7.71642
▁هنگام	-7.71979
▁کاهش	-7.72202
▁مت	-7.72325
▁[	-7.72676
▁واهند	-7.73027
▁دولت	-7.73563
▁خدا	-7.73618
ست	-7.73767
▁کننده	-7.73784
▁C	-7.74323
▁توجه	-7.74511
▁زبان	-7.74756
▁فیلم	-7.74997
▁مع	-7.75074
▁چیز	-7.75265
▁کم	-7.75417
▁بازار	-7.75801
▁روش	-7.76234
i	-7.76771
▁امروز	-7.76808
▁سایت	-7.77593
▁دور	-7.77676
▁بهتر	-7.78622
▁جای	-7.78751
▁غ	-7.79242
▁,	-7.79656
▁دنیا	-7.79765
▁اولین	-7.79778
▁S	-7.80187
▁فروش	-7.8062
▁هترین	-7.80949
▁er	-7.81702
▁بنابر	-7.82181
▁ولی	-7.8221
▁دارا	-7.83394
ک	-7.83613
▁قدرت	-7.83651
o	-7.83673
▁حدود	-7.83686
▁کسب	-7.8399
▁چ	-7.84287
▁گروه	-7.84554
▁دیگری	-7.84718
▁خانو	-7.8502
▁همیشه	-7.8555
▁ندارد	-7.86051
▁نخ	-7.8619
▁خواست	-7.86274
▁A	-7.86642
▁تفاوت	-7.86899
▁باعث	-7.86978
▁۳	-7.87118
▁یل	-7.87371
▁یه	-7.87422
رتبا	-7.87714
▁یاد	-7.87747
ق	-7.87834
▁موضوع	-7.88029
▁]	-7.88634
▁تلاش	-7.88852
▁قانون	-7.89118
▁هدف	-7.892
▁زیر	-7.8921
▁طریق	-7.89442
▁نو	-7.89469
▁دا	-7.89529
▁توسعه	-7.89573
▁میان	-7.89795
▁یابی	-7.89903
▁اف	-7.89912
▁گذشته	-7.90003
▁اول	-7.90202
حتما	-7.90253
▁طراحی	-7.90351
▁دنبال	-7.90734
▁درست	-7.91324
▁۵	-7.91618
▁آنچه	-7.91692
ام	-7.91874
▁کل	-7.92623
▁زنان	-7.92733
▁وی	-7.92773
▁محصول	-7.93291
▁بدن	-7.937
▁لا	-7.93845
▁نامه	-7.94098
▁واقع	-7.94479
▁گرفت	-7.94674
▁گونه	-7.94676
▁شامل	-7.94689
▁جهانی	-7.94935
▁آینده	-7.95432
▁مختلف	-7.95548
▁اخ	-7.9583
▁هنوز	-7.96059
▁نوع	-7.96902
▁تماعی	-7.97243
▁مش	-7.97443
▁اصلی	-7.97464
▁چشم	-7.98259
▁تصمیم	-7.98316
▁اروپا	-7.98493
▁تاریخ	-7.98552
▁رمایه	-7.98552
▁تحقیق	-7.99023
تفاق	-7.99348
▁گفته	-7.99365
▁جا	-7.99381
▁وقت	-7.99863
▁وارد	-7.99929
▁ادامه	-7.99962
▁/	-8.00159
▁المل	-8.00185
▁سازی	-8.00387
▁تجربه	-8.00482
▁دادن	-8.00783
▁درمان	-8.01538
▁کوچک	-8.01625
▁مصرف	-8.01697
▁ساعت	-8.01986
تر	-8.01989
▁نسبت	-8.02321
▁هوا	-8.02574
▁حاضر	-8.02748
▁رشد	-8.02941
▁پاسخ	-8.0318
▁زیرا	-8.03333
▁هفته	-8.03478
ما	-8.03654
y	-8.0386
▁بخ	-8.03938
لا	-8.04012
▁هزینه	-8.04012
▁بگیر	-8.04422
▁شورها	-8.04701
▁بررسی	-8.04915
▁یلیون	-8.0523
▁عالیت	-8.05263
▁منطقه	-8.05295
▁وب	-8.05295
▁نیرو	-8.05397
▁مان	-8.05616
▁آموزش	-8.05626
▁۴	-8.06286
▁کنترل	-8.06428
▁گر	-8.06625
▁بالا	-8.06945
▁سطح	-8.07033
▁ارزش	-8.07116
▁نزدیک	-8.07259
▁برابر	-8.07417
▁ثال	-8.0787
▁خوبی	-8.0788
▁اح	-8.07911
▁زمین	-8.07986
u	-8.08012
▁شرایط	-8.08319
▁شب	-8.0873
▁همراه	-8.09132
▁تبدیل	-8.09197
▁گزارش	-8.09471
▁گذاری	-8.09616
▁شکل	-8.09727
▁گذار	-8.1005
▁عمل	-8.10353
▁دیریت	-8.10749
▁تحت	-8.10949
▁هزار	-8.11036
▁گوید	-8.11132
▁پایان	-8.11407
▁نتیجه	-8.11543
▁فرد	-8.11711
▁دسترس	-8.11979
▁خاطر	-8.12113
▁دید	-8.1244
▁G	-8.12576
▁دوره	-8.12756
▁زن	-8.13043
▁چون	-8.13674
▁بلکه	-8.13879
▁کاربر	-8.14474
▁صحبت	-8.14529
▁شدند	-8.14538
▁اجازه	-8.14598
▁داریم	-8.14666
p	-8.14886
▁مواد	-8.15013
)	-8.15132
▁شاید	-8.15229
ز	-8.15884
▁ز	-8.16043
▁پول	-8.16108
▁اید	-8.16424
▁مس	-8.16556
عداد	-8.16887
▁بیمار	-8.16985
▁یماری	-8.17256
▁شناخت	-8.17323
▁دلار	-8.1749
▁تن	-8.17593
▁عمولا	-8.17644
▁B	-8.17728
▁آغاز	-8.17856
▁مثل	-8.18035
▁کردم	-8.18306
▁جمله	-8.18462
▁طرف	-8.18633
ها	-8.18746
▁گی	-8.18898
▁الات	-8.19562
▁شوید	-8.19638
▁کن	-8.19798
▁نگاه	-8.19825
▁چین	-8.19903
▁E	-8.20044
▁دار	-8.20078
▁رسد	-8.20239
▁حل	-8.21159
▁هستید	-8.21343
▁خاص	-8.21601
▁طی	-8.21791
▁تحده	-8.219
▁۸	-8.21903
▁مح	-8.21916
▁نده	-8.22121
▁یعنی	-8.22334
▁واقعی	-8.22463
▁دوم	-8.22619
▁مناسب	-8.22931
▁اغلب	-8.23269
▁مو	-8.23423
▁۶	-8.23676
▁گیرد	-8.24085
▁خواب	-8.24137
▁واقعا	-8.2418
▁خدمات	-8.24289
▁رفتار	-8.24532
▁حمایت	-8.24631
▁ساخت	-8.24688
▁مربوط	-8.24898
s	-8.26161
▁حق	-8.26205
▁طالعه	-8.26749
توان	-8.26849
▁لازم	-8.27506
▁ك	-8.28123
▁داست	-8.28187
▁البته	-8.28239
▁کسانی	-8.2824
▁تیم	-8.28349
▁اقد	-8.28662
▁پروژه	-8.28728
▁انرژی	-8.28833
▁کمتر	-8.2909
▁مشخص	-8.29311
▁قیمت	-8.29351
▁زمایش	-8.29511
▁زمینه	-8.29549
▁خرید	-8.29632
▁سفر	-8.29685
▁شبکه	-8.29761
▁نمایش	-8.29919
▁اجرا	-8.29924
▁واهد	-8.2994
قتصا	-8.30122
ات	-8.30197
▁گیری	-8.30325
▁اعلام	-8.30398
▁تک	-8.30713
▁نهاد	-8.30724
▁تص	-8.30734
▁آنجا	-8.30842
▁اینجا	-8.31158
▁رداخت	-8.31206
▁T	-8.32448
▁موجود	-8.32599
▁سیاست	-8.3265
▁اعت	-8.32685
▁اکنون	-8.32848
▁قریب	-8.33116
▁عکس	-8.33751
▁اتی	-8.34161
▁تاثیر	-8.34221
پس	-8.34279
ره	-8.34382
▁کس	-8.34588
▁رنگ	-8.34681
▁چهار	-8.34821
d	-8.34874
▁D	-8.34909
▁کافی	-8.34948
▁سن	-8.35112
▁واهیم	-8.35402
▁خون	-8.35552
ار	-8.35588
▁سایر	-8.3562
▁کنار	-8.35685
▁تمرکز	-8.35828
▁F	-8.35876
▁سریع	-8.35911
▁ایم	-8.35918
▁۷	-8.36107
▁فرهنگ	-8.36298
▁كه	-8.36405
▁ایده	-8.36422
▁ۀ	-8.36774
▁نداشت	-8.37078
▁رد	-8.37131
▁سیاسی	-8.37201
▁کمی	-8.37417
تظا	-8.37546
▁مالی	-8.37759
▁مرا	-8.37947
▁شناس	-8.37965
▁نقش	-8.37981
▁داشتن	-8.38171
c	-8.38189
▁انگل	-8.38193
▁اساس	-8.38309
▁خارج	-8.38358
▁رخ	-8.38637
▁نویس	-8.38663
▁طبیعی	-8.38769
▁جامعه	-8.38854
▁بهبود	-8.39076
▁یشرفت	-8.39429
▁چنان	-8.39518
▁قطع	-8.39589
▁تل	-8.3966
▁روند	-8.39861
▁مرگ	-8.39883
▁سخت	-8.39951
▁هست	-8.39985
▁رس	-8.40044
▁هرگز	-8.40155
▁امید	-8.40575
▁ساخته	-8.40624
ح	-8.40635
▁دارم	-8.4065
▁درک	-8.40985
▁دارو	-8.41093
▁بد	-8.41172
▁صدا	-8.41378
▁ویژه	-8.41386
▁حساب	-8.41437
▁بعضی	-8.41618
▁موارد	-8.41618
▁ساده	-8.42474
▁حد	-8.42596
▁امکان	-8.42799
▁حرکت	-8.4292
▁حداقل	-8.42982
▁وفقیت	-8.42983
▁فرزند	-8.43302
▁پنج	-8.43483
▁سرعت	-8.43487
▁طبق	-8.43666
▁رابطه	-8.43901
n	-8.44012
▁دقیق	-8.44274
▁صفحه	-8.44318
▁روسیه	-8.44513
▁بودن	-8.44695
▁علیه	-8.44842
▁حقوق	-8.44901
▁دل	-8.44957
▁خطر	-8.4499
▁عمومی	-8.45041
▁دهیم	-8.45119
▁دان	-8.45436
▁یافته	-8.4547
▁شخصی	-8.45666
▁دیده	-8.45832
▁آورد	-8.46145
▁یان	-8.46254
▁کام	-8.46443
D	-8.46478
▁آماده	-8.46527
▁ملی	-8.46606
▁حفظ	-8.46807
▁چیزها	-8.46916
از	-8.47116
▁علاوه	-8.47141
▁سو	-8.47204
▁مر	-8.47221
▁زیبا	-8.4748
▁داوند	-8.47524
▁ساله	-8.47838
▁I	-8.47988
▁مندان	-8.48272
▁پذیر	-8.48547
▁تع	-8.48967
P	-8.49181
▁وا	-8.49383
v	-8.49449
▁H	-8.49553
▁جز	-8.49631
-	-8.49814
:	-8.49924
▁وضعی	-8.49948
▁رئیس	-8.50096
▁ترس	-8.50171
▁مکان	-8.50186
▁صرف	-8.50597
▁حرف	-8.51277
▁ری	-8.51289
▁قادر	-8.51388
▁P	-8.51406
▁میزان	-8.51464
▁بخشی	-8.51796
▁جمع	-8.51833
▁ابزار	-8.51882
▁منظ	-8.51932
▁گیر	-8.52092
C	-8.52099
▁گویند	-8.52188
▁سراسر	-8.52231
قات	-8.52261
▁ابتدا	-8.52286
▁دانید	-8.52334
E	-8.52364
▁داری	-8.5237
▁حرفه	-8.525
▁نور	-8.52509
▁گاهی	-8.52568
▁غذایی	-8.53046
▁دختر	-8.53299
▁آسیب	-8.53342
▁آنان	-8.53368
▁سوی	-8.53774
▁آل	-8.54018
▁َ	-8.54115
▁آزاد	-8.54578
▁نگ	-8.54989
یت	-8.54994
▁نگران	-8.55373
طور	-8.55441
▁نظامی	-8.55565
T	-8.55705
▁مرد	-8.55739
▁مسئول	-8.55758
▁نتایج	-8.55914
▁خبر	-8.56054
▁آید	-8.56247
▁مخ	-8.56291
▁ض	-8.56376
S	-8.56419
کر	-8.5653
▁زیاد	-8.56623
▁شکست	-8.56674
▁خارجی	-8.57063
▁رسید	-8.57068
▁گیرند	-8.57189
▁پایین	-8.57374
▁اثر	-8.57482
▁گران	-8.57487
▁فرا	-8.57549
▁فشار	-8.57917
▁آمده	-8.58004
▁درد	-8.58032
▁تصویر	-8.58072
به	-8.58138
▁M	-8.58169
▁حقیقت	-8.58233
▁ّ	-8.58247
ده	-8.58324
▁رود	-8.58367
▁کلی	-8.58623
▁کدام	-8.58675
▁هستیم	-8.58925
▁آور	-8.5926
▁زا	-8.59281
▁آمد	-8.59304
▁مقدار	-8.59575
▁تریان	-8.5977
▁بندی	-8.59821
▁حضور	-8.60062
▁ى	-8.60094
▁دهه	-8.6017
▁هنر	-8.60185
▁نمود	-8.60225
های	-8.60361
ج	-8.60432
▁جایی	-8.60623
▁شاهده	-8.60724
▁فعال	-8.60771
▁جه	-8.6078
تا	-8.60792
▁فا	-8.60839
▁نگه	-8.60961
▁تجاری	-8.6099
▁جو	-8.6131
▁بیان	-8.614
▁اع	-8.61427
▁گردد	-8.61457
▁برد	-8.61668
▁مسیر	-8.61719
▁یسی	-8.61749
▁هوش	-8.61834
▁منتشر	-8.61926
▁e	-8.62019
ید	-8.62299
▁نشده	-8.62383
▁سعی	-8.62442
▁امنیت	-8.62715
▁مهارت	-8.62792
▁کش	-8.62908
▁مدل	-8.62919
▁پوست	-8.63113
رائ	-8.63443
▁حمل	-8.63555
▁بودم	-8.63579
▁غذا	-8.6384
▁بینی	-8.63901
▁عالی	-8.63988
▁بچه	-8.64008
▁کوتاه	-8.64107
▁محیط	-8.64107
▁پشت	-8.64351
▁نباید	-8.6439
▁اضافه	-8.64447
▁معنی	-8.64508
▁فرصت	-8.64611
لو	-8.6475
▁گزین	-8.65193
▁وزن	-8.65245
ون	-8.65275
▁ارز	-8.65293
▁جان	-8.65619
▁طرح	-8.65824
▁بگذار	-8.65965
▁مطمئن	-8.66164
▁منابع	-8.6628
▁ایشان	-8.66392
ول	-8.66425
M	-8.66681
▁موفق	-8.66743
▁ژ	-8.66931
▁مق	-8.66986
▁ار	-8.6706
▁مرکز	-8.67174
▁روشن	-8.67231
b	-8.67348
▁خوش	-8.67384
▁راتژی	-8.67617
▁توانا	-8.6773
▁رسانه	-8.68118
▁امر	-8.68307
▁الله	-8.68314
▁اکثر	-8.68381
▁مردان	-8.68769
▁سمت	-8.68843
▁ور	-8.68958
▁قتصاد	-8.69331
▁چیست	-8.69413
▁اندار	-8.69573
وس	-8.69908
▁پا	-8.69999
▁رند	-8.70089
▁ثبت	-8.70168
▁گذاشت	-8.70228
▁حالا	-8.70325
▁رفت	-8.70434
▁خصوص	-8.70513
▁محدود	-8.70589
▁نوشته	-8.70743
▁بیرون	-8.71137
r	-8.71301
▁اشاره	-8.71316
▁ستقیم	-8.71559
▁مج	-8.71724
▁روابط	-8.71742
▁عل	-8.71978
▁پرو	-8.72054
▁کو	-8.72154
l	-8.72154
گی	-8.72219
یا	-8.72893
▁مرحله	-8.72909
▁توصیه	-8.72911
▁علاقه	-8.73014
▁ماشین	-8.73219
▁حمله	-8.73241
▁بسته	-8.73296
ند	-8.73346
▁باقی	-8.73357
▁هستم	-8.73373
▁روح	-8.73415
▁بعدی	-8.73446
▁ملکرد	-8.73467
یدار	-8.73486
▁یو	-8.73511
▁ترکیب	-8.73722
▁ودتان	-8.73788
▁یابد	-8.73829
▁آسان	-8.73921
▁فراهم	-8.74158
▁پدر	-8.74245
▁افغا	-8.74286
▁دقیقه	-8.74336
حاد	-8.74405
▁متوجه	-8.7459
من	-8.74817
▁مادر	-8.74869
▁*	-8.74908
▁نیا	-8.74959
▁اهمیت	-8.75161
▁تس	-8.75179
▁صنعت	-8.75252
▁توافق	-8.75283
L	-8.75392
▁توضیح	-8.75473
m	-8.75476
▁گرفتن	-8.75599
نجر	-8.75685
▁هسته	-8.75689
▁داخلی	-8.75798
▁خودش	-8.7587
▁جموعه	-8.75981
▁دادند	-8.76064
I	-8.76182
▁بلند	-8.76375
▁تشکیل	-8.76428
▁نرم	-8.76437
▁سرطان	-8.76556
▁10	-8.76748
▁اهداف	-8.76954
▁قسمت	-8.7698
▁گان	-8.77097
▁اتاق	-8.77138
▁یات	-8.77326
▁تمرین	-8.774
▁اً	-8.77575
▁عشق	-8.77586
▁جمهور	-8.77715
▁شدید	-8.77738
▁داخل	-8.77804
در	-8.77809
▁تج	-8.77872
▁سلول	-8.77915
▁آخرین	-8.78155
▁شخص	-8.78212
▁بانک	-8.78247
▁دریا	-8.78258
چ	-8.78413
▁تحصیل	-8.7843
▁تشخیص	-8.78626
▁درآمد	-8.78702
▁دانند	-8.79042
▁پاک	-8.79595
▁باشیم	-8.79652
▁موزان	-8.79726
▁سالم	-8.7974
▁نبود	-8.79792
گر	-8.79827
▁محل	-8.80156
▁پی	-8.80247
▁اقعیت	-8.80407
اً	-8.80552
▁جریان	-8.80824
▁بینید	-8.80881
▁تکن	-8.80907
▁نقلاب	-8.81142
موش	-8.81172
▁بشر	-8.812
▁فاصله	-8.81479
▁رهبر	-8.81577
▁شناسی	-8.81614
▁تبلیغ	-8.81747
▁تون	-8.81792
▁رژیم	-8.81917
▁مشتری	-8.82019
▁مدرسه	-8.82085
▁قلب	-8.82112
▁فصل	-8.82118
▁پیما	-8.82227
▁نهایت	-8.8229
▁پرداز	-8.82492
▁لو	-8.8275
▁انی	-8.82755
▁شتباه	-8.82764
▁افتاد	-8.82833
▁کردیم	-8.8306
▁یر	-8.8307
re	-8.83339
▁بحث	-8.83448
▁آزادی	-8.83503
▁حالت	-8.83506
نگ	-8.83642
▁انواع	-8.83654
▁آلمان	-8.83663
▁تعیین	-8.83724
▁نادا	-8.8377
k	-8.83788
▁p	-8.83789
▁ریزی	-8.8392
▁ترنت	-8.84054
▁سترده	-8.84076
▁زندان	-8.84156
▁مرتبط	-8.84209
▁سوریه	-8.84257
▁واهم	-8.84288
▁R	-8.84301
▁پزشکی	-8.84464
▁a	-8.84507
▁کنان	-8.84666
▁وسیقی	-8.84691
▁خط	-8.84826
▁مغز	-8.84844
▁کیفیت	-8.84976
▁درون	-8.84986
▁مسائل	-8.85108
▁رگزار	-8.8511
▁سفید	-8.85131
▁دهنده	-8.85332
er	-8.85496
▁اق	-8.85527
▁تهدید	-8.85528
▁مسئله	-8.85598
▁ولوژی	-8.85668
▁تمامی	-8.8569
▁جوان	-8.85768
▁مناطق	-8.85808
گز	-8.85868
▁خیر	-8.85869
A	-8.85871
▁ذ	-8.85885
▁دهم	-8.85953
ص	-8.85965
▁سلامت	-8.86001
▁ویژ	-8.86621
▁W	-8.86654
کار	-8.86705
▁نلاین	-8.86726
▁جدا	-8.86734
▁انگیز	-8.86798
O	-8.86812
▁عد	-8.86845
▁ارسال	-8.86939
▁لذت	-8.87008
▁فرم	-8.87202
▁صد	-8.87244
▁شخصیت	-8.8733
▁نتقال	-8.8758
▁پل	-8.87662
▁گوش	-8.87816
▁کشف	-8.87827
▁اسپ	-8.87993
▁خصوصی	-8.88095
▁پزشک	-8.88101
▁i	-8.88215
▁زدواج	-8.88226
▁گل	-8.88231
▁ساختم	-8.88312
▁پیام	-8.88347
▁مقاله	-8.88374
▁ذهن	-8.88392
▁گرم	-8.88394
دا	-8.88401
▁نسخه	-8.88586
▁ورزش	-8.88615
▁ترک	-8.88653
▁نمونه	-8.88659
ط	-8.88694
▁زنده	-8.887
▁لوگی	-8.88831
▁سوال	-8.88892
▁سخن	-8.88965
▁گرد	-8.88968
▁کجا	-8.89092
▁رم	-8.89094
▁اولیه	-8.89105
▁جویان	-8.89268
▁تحلیل	-8.89311
ختیا	-8.8954
▁لیارد	-8.89822
▁نکنید	-8.89898
▁رانسه	-8.89901
▁فوق	-8.89959
▁محلی	-8.9042
▁تلفن	-8.90503
▁اعضای	-8.9091
▁عراق	-8.90999
▁وقعیت	-8.91001
▁پیوتر	-8.91147
▁تجارت	-8.91369
▁قوی	-8.91553
▁تأثیر	-8.91592
▁مهوری	-8.91593
▁مثبت	-8.91816
▁نمای	-8.91915
▁عامل	-8.91992
گاه	-8.92439
▁راحت	-8.92439
▁اخیر	-8.92687
▁سوم	-8.9273
▁نقل	-8.92739
▁تماس	-8.92868
▁قرن	-8.92869
▁عضو	-8.92925
▁عداد	-8.93128
▁سود	-8.93238
R	-8.93336
▁N	-8.93339
▁پشتی	-8.93716
▁راست	-8.93821
▁تصور	-8.93824
▁آتش	-8.93933
▁مدیر	-8.9424
▁کره	-8.94273
▁مک	-8.9429
▁تب	-8.9429
▁زده	-8.9438
▁گسترش	-8.94397
▁O	-8.94487
▁افزار	-8.94518
▁الاتر	-8.94596
▁ترکیه	-8.94619
▁رفتن	-8.94879
▁وانین	-8.9493
▁دانم	-8.94948
ى	-8.9496
▁ٔ	-8.95241
▁تاب	-8.95254
▁ء	-8.95259
▁دگاه	-8.9541
یک	-8.95459
▁صلح	-8.95545
▁دفاع	-8.95695
▁سنگ	-8.95712
▁شنبه	-8.95779
▁جدی	-8.95972
▁اطمی	-8.96041
▁ازگشت	-8.96085
▁دانست	-8.96392
▁شا	-8.96397
▁ناش	-8.96588
▁پسر	-8.96664
▁ریکا	-8.96718
▁خودرو	-8.96734
▁اد	-8.96736
▁تازه	-8.96792
▁تنظیم	-8.96865
▁نقطه	-8.97023
▁حیوان	-8.97101
▁گو	-8.97175
▁ترامپ	-8.97266
▁آقای	-8.97474
▁عبارت	-8.97574
▁آدم	-8.97661
▁شبیه	-8.97662
▁متر	-8.97678
▁جنسی	-8.97785
▁متخصص	-8.97811
▁رسیده	-8.97965
▁قدر	-8.97997
▁زیست	-8.98108
▁یون	-8.98145
▁سپ	-8.98262
▁چقدر	-8.98699
▁علی	-8.9877
N	-8.98844
▁حافظ	-8.98845
اصل	-8.98996
▁بارزه	-8.99008
F	-8.99125
▁اص	-8.99228
▁قصد	-8.99281
▁مجبو	-8.99283
▁ing	-8.99353
▁ول	-8.99414
▁نفس	-8.99598
▁ریز	-8.99713
▁اطراف	-9.00137
▁دکتر	-9.00222
▁حس	-9.00523
فید	-9.00584
▁نفت	-9.00599
▁دگیری	-9.00614
▁اعمال	-9.00622
▁سازد	-9.00974
▁قدیمی	-9.01487
▁مقابل	-9.01687
▁حزب	-9.01687
▁نشانه	-9.01731
▁هداشت	-9.01895
▁مشترک	-9.01934
▁گوگل	-9.01935
▁معرفی	-9.01944
▁وجه	-9.0203
▁چطور	-9.02245
▁ُ	-9.02367
▁جمعیت	-9.02382
▁جستجو	-9.02431
▁ورشید	-9.02462
▁یانه	-9.02518
▁زد	-9.02629
طالع	-9.02765
▁شدت	-9.02822
▁صبح	-9.02847
▁دستور	-9.029
▁ساز	-9.03015
پ	-9.03088
اص	-9.03129
▁دانیم	-9.03156
▁ماند	-9.03247
▁فضای	-9.03281
▁خودم	-9.03366
▁سیاه	-9.03366
▁آورده	-9.03443
▁شک	-9.03697
▁رسیدن	-9.03708
▁روم	-9.03889
▁پژوهش	-9.03935
▁عمر	-9.04241
▁ثاب	-9.04442
لی	-9.04461
▁جلو	-9.04525
▁نکت	-9.04576
▁موثر	-9.04696
▁لباس	-9.04783
▁ازدید	-9.04786
▁قایسه	-9.04952
▁داند	-9.05171
▁رقابت	-9.05206
▁پست	-9.05264
G	-9.0534
▁لیست	-9.05427
▁۱۰	-9.05488
▁نیو	-9.05729
▁ظ	-9.05767
▁کلاس	-9.0584
▁دچار	-9.05891
▁آخر	-9.05911
▁هند	-9.05984
▁رسمی	-9.06076
▁همسر	-9.06153
▁رفته	-9.06399
▁الت	-9.06498
▁زود	-9.06625
▁ژن	-9.06781
▁ربین	-9.07002
▁اختار	-9.07141
▁راحتی	-9.07205
▁دندان	-9.07362
▁ارت	-9.0743
ي	-9.07443
▁علمی	-9.07532
ویز	-9.07636
خش	-9.07666
▁هفت	-9.07919
▁قرآن	-9.07974
▁وسیل	-9.08438
قرار	-9.08487
▁ژاپن	-9.08501
▁تخ	-9.08528
▁ظاهر	-9.08556
▁بند	-9.08645
تو	-9.08908
▁رب	-9.08949
▁V	-9.09399
▁منیتی	-9.09481
رض	-9.09488
▁فردی	-9.09505
▁پرواز	-9.09774
▁سا	-9.09792
▁فضا	-9.0981
▁پایه	-9.09917
▁ضد	-9.09965
▁راقبت	-9.1002
شت	-9.10075
▁موتور	-9.10191
▁ملیات	-9.1024
شترا	-9.1026
▁رنج	-9.10427
▁خاصی	-9.10442
▁افتد	-9.10532
▁فرو	-9.10544
▁عرب	-9.10587
▁خورد	-9.10775
▁مشابه	-9.1091
▁نحو	-9.11001
▁رز	-9.11004
▁دمو	-9.11099
▁ـ	-9.11156
▁حققان	-9.11272
B	-9.11282
▁مبت	-9.11335
عهد	-9.11469
▁ابر	-9.11543
▁سبک	-9.11636
▁افزو	-9.11648
▁L	-9.11711
▁واکنش	-9.11726
▁بیا	-9.11817
▁خوردن	-9.12079
▁جالب	-9.12288
▁منبع	-9.12367
▁سی	-9.12388
▁شیر	-9.12458
▁آرام	-9.12487
▁امام	-9.12572
▁تری	-9.12657
▁اي	-9.12821
▁حکومت	-9.12824
▁علائ	-9.12825
▁تعری	-9.13012
g	-9.13032
▁دیجی	-9.13292
▁شش	-9.13431
▁درجه	-9.13485
▁توانم	-9.1354
▁عمیق	-9.13659
▁مب	-9.13776
▁وزیر	-9.13879
▁ودشان	-9.13935
▁f	-9.14099
▁بات	-9.14166
▁امل	-9.14385
▁ورد	-9.15041
▁دولتی	-9.15063
▁مانده	-9.15311
▁زم	-9.15344
▁هدایت	-9.15627
x	-9.15698
ث	-9.15726
▁لحظه	-9.15808
▁ضروری	-9.15814
▁گون	-9.1587
ال	-9.16052
▁رشته	-9.1629
▁متوسط	-9.16384
▁سلامی	-9.1643
▁دشوار	-9.1648
▁ندگان	-9.16547
▁ستین	-9.16612
ar	-9.16811
▁اگرچه	-9.16897
▁پلیس	-9.16941
▁تکرار	-9.16958
▁مطرح	-9.1715
V	-9.1722
▁c	-9.17316
▁مواجه	-9.17321
▁حذف	-9.17343
▁عاشق	-9.17632
▁امور	-9.17747
▁موجب	-9.17763
▁گرا	-9.17933
له	-9.18015
▁نکرده	-9.18064
▁حوز	-9.18069
▁عق	-9.18222
▁معنا	-9.18371
▁ماهی	-9.18392
▁کلمه	-9.1842
▁ورود	-9.18502
▁on	-9.18827
▁مد	-9.18906
▁چالش	-9.18921
▁رساند	-9.19058
▁جذب	-9.19189
▁شمالی	-9.19326
▁گردان	-9.19369
▁مدرن	-9.19389
▁کنون	-9.19599
▁درگیر	-9.1969
3	-9.19725
▁زی	-9.19816
▁پرس	-9.1982
▁مانی	-9.19921
▁U	-9.20124
▁تهی	-9.20126
صلاح	-9.20136
▁نجات	-9.20138
▁زل	-9.20189
▁ثروت	-9.20274
▁The	-9.20274
▁شیمی	-9.20295
▁رف	-9.20444
ri	-9.20507
ض	-9.20687
▁آمیز	-9.20771
خ	-9.20868
2	-9.21069
▁اردار	-9.21083
▁واحد	-9.2109
▁الگو	-9.21209
▁ینگ	-9.21255
▁یب	-9.21263
▁•	-9.21372
زم	-9.21388
▁عهد	-9.21461
▁عوامل	-9.21473
al	-9.21523
▁تحد	-9.21532
▁واسته	-9.21679
▁ذکر	-9.21699
▁تلاف	-9.21875
▁معمول	-9.22277
▁ارتش	-9.22278
▁خانم	-9.22443
▁ماده	-9.22465
▁of	-9.22494
▁ترو	-9.22537
▁نت	-9.22584
▁واندن	-9.22686
▁اتیک	-9.22797
▁داران	-9.22819
▁ناک	-9.22945
▁ریا	-9.22959
▁اساسی	-9.22983
▁مخالف	-9.22988
▁خلق	-9.23041
▁سابقه	-9.23053
▁موزشی	-9.2309
▁بل	-9.23187
▁منتظر	-9.23192
▁ستاره	-9.23214
▁پار	-9.23246
▁نشین	-9.23257
▁اویر	-9.23442
▁فایل	-9.23468
▁شغل	-9.23608
▁علم	-9.23749
▁حتوا	-9.23806
▁داشتم	-9.23957
▁یگان	-9.23984
▁بزرگی	-9.24092
▁اپل	-9.24291
▁یش	-9.24308
▁یچیده	-9.24424
h	-9.2444
▁بگیرد	-9.2451
▁زند	-9.24599
▁دام	-9.24637
▁گذشت	-9.24839
st	-9.24885
▁بیت	-9.24964
▁واره	-9.24984
▁دیدن	-9.25162
▁ناوری	-9.25364
▁معنای	-9.25506
▁شیوه	-9.25652
▁بحران	-9.25694
▁روان	-9.25697
▁ون	-9.25747
1	-9.25766
▁تی	-9.2585
▁گویید	-9.25858
زد	-9.26099
▁رها	-9.26257
▁آنکه	-9.26292
ریتا	-9.2653
▁الدین	-9.26725
▁n	-9.26923
▁کشته	-9.26933
▁گذر	-9.27123
▁خشونت	-9.27148
▁رتیب	-9.27263
U	-9.27345
▁بله	-9.2739
▁جواب	-9.27468
▁کلیدی	-9.27527
▁اون	-9.2759
▁نسل	-9.27696
▁خدمت	-9.27895
▁کارت	-9.27961
▁گام	-9.27971
▁هاست	-9.27982
▁t	-9.28057
▁مط	-9.28069
▁نش	-9.28115
▁امن	-9.28236
4	-9.28237
▁دلایل	-9.28238
▁شنید	-9.28238
▁شویم	-9.28276
ck	-9.28452
▁تالیا	-9.28547
▁گفتند	-9.28989
▁ریم	-9.29065
▁اسلام	-9.2908
توقف	-9.29175
f	-9.29218
▁رهبری	-9.29252
▁فریقا	-9.29295
▁بستگ	-9.29383
بلیت	-9.294
▁قامات	-9.2941
ra	-9.29573
▁عتبار	-9.29622
▁استرس	-9.2975
▁پارک	-9.29771
▁جنوبی	-9.29899
5	-9.29919
▁مگر	-9.29972
تی	-9.30156
▁ذخیر	-9.30178
▁K	-9.30243
▁شارکت	-9.30278
▁ئی	-9.30287
▁ایمیل	-9.3032
ایل	-9.30368
▁مهندس	-9.30387
▁رآیند	-9.30496
▁شدم	-9.30497
▁سرویس	-9.30499
▁قبول	-9.30505
▁وشحال	-9.3061
▁قبلی	-9.30657
▁فرما	-9.30657
▁انیا	-9.30729
▁بردار	-9.30766
▁تست	-9.30812
▁متع	-9.30975
▁طلا	-9.31118
▁بالای	-9.31368
H	-9.31458
ذ	-9.31628
عتقا	-9.31991
▁شماره	-9.32125
▁باشم	-9.32147
▁محبوب	-9.32269
▁وزارت	-9.32274
▁تقوی	-9.32274
z	-9.32371
ۀ	-9.32371
▁رتبه	-9.324
▁آوردن	-9.32566
▁منفی	-9.32708
▁le	-9.32793
▁هوایی	-9.32973
▁اصلا	-9.33069
▁اک	-9.33122
▁راهی	-9.33134
▁رالیا	-9.33181
▁یشان	-9.3341
▁عرضه	-9.33651
مایل	-9.33721
▁نماید	-9.33798
▁ث	-9.33828
▁سلاح	-9.33847
▁tion	-9.33848
▁کلمات	-9.34083
▁دودیت	-9.34203
▁أ	-9.34213
▁نس	-9.34397
▁وس	-9.34505
▁اسم	-9.34547
ایست	-9.34716
▁شر	-9.34743
▁نرخ	-9.34875
▁زدن	-9.35121
▁سون	-9.3515
▁دروغ	-9.3522
▁ضعیف	-9.35334
▁کشتی	-9.35371
▁درس	-9.35443
la	-9.3564
▁نظار	-9.35684
▁in	-9.35748
▁ائ	-9.35788
in	-9.35811
▁پوشش	-9.35843
▁اخلاق	-9.35912
▁الیات	-9.3593
▁پیر	-9.36111
▁اه	-9.36149
▁نصب	-9.36193
▁بس	-9.364
▁نهایی	-9.36618
▁ارشد	-9.36703
en	-9.36852
▁مشغ	-9.36875
▁چی	-9.37044
▁نوشت	-9.37098
▁یدن	-9.37113
▁یابان	-9.37151
▁مي	-9.37187
▁پدید	-9.37197
▁اظها	-9.37314
▁هتل	-9.37337
▁مسافر	-9.37667
ro	-9.3775
▁هشدار	-9.37903
وب	-9.37916
▁کی	-9.38013
حصر	-9.38185
▁مستقل	-9.38258
▁تین	-9.38311
▁یسم	-9.38436
▁مهمی	-9.38538
▁شنو	-9.38552
▁متن	-9.38629
▁رت	-9.38812
▁میر	-9.38847
▁آفرین	-9.38854
▁نوشتن	-9.38907
▁صاحب	-9.38916
▁کنی	-9.38943
▁فن	-9.39034
لق	-9.39042
ك	-9.39141
▁20	-9.39238
▁مسلم	-9.39361
▁ادعا	-9.39453
▁برسد	-9.39456
▁قدم	-9.39534
▁وانان	-9.39704
▁یزیکی	-9.39814
▁تلال	-9.39846
گفت	-9.39935
▁re	-9.40045
▁خلاق	-9.40055
▁تف	-9.40063
▁اصل	-9.40132
▁حفاظ	-9.40176
▁میشود	-9.40176
▁عوض	-9.40178
▁ملل	-9.4033
▁تقسیم	-9.40661
▁برادر	-9.40663
▁سالگی	-9.40771
▁وعده	-9.40788
▁al	-9.40822
▁اهل	-9.40872
li	-9.40885
▁وار	-9.40886
▁آگاهی	-9.40897
▁عین	-9.40908
▁گم	-9.41026
ين	-9.41125
▁اداره	-9.41149
▁سگ	-9.41206
▁استان	-9.41253
▁ترام	-9.41288
▁مثلا	-9.4139
▁گفتم	-9.41602
▁te	-9.41641
▁ودمان	-9.41642
▁فیس	-9.41658
عرض	-9.41744
▁خاک	-9.41775
▁حافظه	-9.41784
▁حاکم	-9.4181
▁آسمان	-9.41902
▁شورا	-9.41954
را	-9.42177
▁پیون	-9.42207
ch	-9.42424
▁اقامت	-9.42627
▁نی	-9.42719
▁ره	-9.42824
▁نتشار	-9.42874
▁چاپ	-9.42891
▁یست	-9.43113
▁گناه	-9.43123
▁فرانس	-9.43139
▁قو	-9.43147
▁محتوا	-9.43201
▁سری	-9.43204
▁مرکزی	-9.4321
▁رغ	-9.43215
7	-9.43298
▁الان	-9.4334
▁میکند	-9.43377
نتقا	-9.43394
▁غربی	-9.43406
▁دعا	-9.43535
le	-9.43625
an	-9.43666
▁بیاور	-9.43718
▁نظام	-9.43842
▁له	-9.43854
▁آسیا	-9.43999
▁چینی	-9.44097
تلفی	-9.4411
▁قربان	-9.44124
▁غرب	-9.44244
▁لامتی	-9.44255
▁تایید	-9.44257
▁ئ	-9.44263
▁دفتر	-9.44409
▁بلا	-9.44454
▁خواند	-9.44553
▁شمار	-9.44661
▁شهرها	-9.44691
▁علوم	-9.4477
▁چرب	-9.44773
کن	-9.44773
بر	-9.44884
▁قا	-9.44978
▁جویی	-9.44982
▁b	-9.44997
▁لحاظ	-9.45009
▁رده	-9.45119
▁مال	-9.45127
▁عادی	-9.45264
▁گوشی	-9.45491
▁ذیرفت	-9.45647
▁دین	-9.45669
▁اسی	-9.45782
ینه	-9.45792
▁تفکر	-9.45825
▁کیلو	-9.45848
که	-9.45853
▁دقت	-9.45906
▁ایمان	-9.45923
▁مطلب	-9.46031
▁راغ	-9.46228
لکتر	-9.46361
با	-9.46382
▁منافع	-9.46416
▁سوخت	-9.46416
▁تضم	-9.46467
▁بوک	-9.46566
▁دیو	-9.46573
▁اژ	-9.46671
▁سبز	-9.46675
▁پیاد	-9.46749
▁نباشد	-9.4677
▁دسته	-9.46882
▁تولد	-9.46937
▁تحریم	-9.47073
▁هی	-9.47138
▁خوان	-9.47139
خورد	-9.47391
▁دف	-9.47433
▁فق	-9.47437
▁جراحی	-9.47502
▁بینیم	-9.47803
▁استاد	-9.47987
▁ارم	-9.48011
▁بقی	-9.48018
▁مسیح	-9.48106
w	-9.48162
▁معتق	-9.48245
▁دم	-9.48287
▁ذا	-9.48328
▁كرد	-9.48499
▁رید	-9.48512
▁تیک	-9.4872
▁اسک	-9.4879
▁شاه	-9.48807
▁فعلی	-9.48811
▁آش	-9.4895
▁مؤ	-9.49072
▁لعاده	-9.49158
6	-9.49172
مب	-9.49331
▁قهوه	-9.49423
▁هاجرت	-9.49423
▁بودجه	-9.49425
▁چرخه	-9.49428
▁آگاه	-9.49458
▁نخست	-9.49515
▁چگون	-9.49543
▁30	-9.49544
یند	-9.49647
▁فرمود	-9.49749
▁عادت	-9.49822
▁دیوار	-9.49846
▁ادشاه	-9.49955
▁ضرب	-9.49967
▁ایت	-9.50012
روج	-9.50114
▁نابو	-9.50137
▁جنب	-9.50153
▁تکنیک	-9.50249
▁آموز	-9.50269
▁جذاب	-9.50356
▁روزی	-9.50364
▁آشکار	-9.50505
▁پرست	-9.50655
▁مص	-9.50656
▁ریح	-9.5069
▁رداشت	-9.50699
▁وال	-9.50791
یب	-9.50929
▁صنعتی	-9.51228
▁دیدار	-9.51263
8	-9.51467
▁زهای	-9.51506
▁گاز	-9.51521
▁خواه	-9.51558
▁بستان	-9.51713
▁چهارم	-9.51801
▁آشنا	-9.51841
▁وضع	-9.51843
▁Re	-9.51954
▁انده	-9.51956
▁پرسش	-9.52099
▁عجیب	-9.52115
▁صاحبه	-9.52178
▁آیند	-9.52183
▁12	-9.5224
▁توصی	-9.52245
▁لاک	-9.52267
▁مفهوم	-9.52523
▁برق	-9.52604
▁کوه	-9.52782
▁یهودی	-9.52802
▁رافیک	-9.52806
▁عقب	-9.53055
▁مغ	-9.53158
▁ایدار	-9.53212
▁منتقل	-9.53233
کس	-9.53239
▁اط	-9.53257
▁ترجمه	-9.53305
▁جلسه	-9.53318
▁رین	-9.53322
▁'	-9.53352
▁شاهد	-9.53417
▁میخ	-9.5342
▁یرانی	-9.53435
▁بدهید	-9.53453
▁نوزاد	-9.53624
▁روغن	-9.53624
▁رحم	-9.53625
▁بن	-9.53721
▁طبیعت	-9.53763
▁رک	-9.5379
▁بودیم	-9.53819
▁وبلاگ	-9.53901
▁o	-9.53939
▁مون	-9.53949
▁فوری	-9.54065
▁Ma	-9.5411
▁ترجیح	-9.54318
▁خشک	-9.5432
▁وانند	-9.54337
▁اره	-9.54431
▁تامین	-9.54482
▁ne	-9.54575
▁جنوب	-9.54661
▁ینه	-9.54749
▁انش	-9.54778
▁نین	-9.54809
▁قی	-9.54832
▁متحان	-9.54878
رخور	-9.54907
▁صحنه	-9.55018
▁کلید	-9.5512
▁کارها	-9.55146
▁عفونت	-9.55195
▁بنا	-9.55226
▁خویش	-9.55299
▁جزیره	-9.553
میل	-9.55326
▁بینند	-9.55378
▁بدی	-9.55511
▁مدار	-9.5557
▁تعطیل	-9.55581
▁زرگتر	-9.55595
▁جایزه	-9.55723
▁ناسان	-9.55739
▁امضا	-9.55864
▁هیجان	-9.56005
▁رایش	-9.56033
گهدا	-9.5605
▁ایمنی	-9.56065
▁بردن	-9.56166
▁15	-9.56166
▁نمایی	-9.56192
▁دعوت	-9.56222
▁طرناک	-9.56289
ریک	-9.56328
▁X	-9.56391
▁رمان	-9.56423
▁فهمید	-9.56448
▁کد	-9.56515
▁پو	-9.56575
▁نقاط	-9.56716
▁عبور	-9.56717
▁لند	-9.56717
▁ملت	-9.56794
▁آر	-9.56816
▁وانید	-9.56824
یتام	-9.56964
▁ویروس	-9.57009
or	-9.57173
▁عض	-9.57182
▁مایل	-9.57222
▁لینک	-9.57495
▁قاومت	-9.57577
▁پای	-9.57695
▁اندو	-9.57698
▁رن	-9.57743
یس	-9.57813
▁شمال	-9.57845
لغ	-9.57862
▁متصل	-9.57877
▁کانال	-9.57961
▁Pa	-9.58075
▁کردید	-9.58229
یق	-9.58287
▁یورک	-9.58307
!	-9.58322
▁نما	-9.58343
▁عودی	-9.5847
ss	-9.58535
▁عر	-9.58582
▁گردید	-9.58629
▁سک	-9.58669
▁نوعی	-9.58695
▁ماس	-9.5871
▁دیران	-9.58722
▁لسطین	-9.58735
▁قول	-9.58768
▁سرد	-9.58782
▁طات	-9.58992
▁آزمون	-9.59027
▁رش	-9.59034
▁اصول	-9.59059
▁ازیگر	-9.5906
▁تحمل	-9.5908
▁ران	-9.59142
▁تشوی	-9.59185
▁هایش	-9.59195
▁وتبال	-9.5932
▁باب	-9.59337
]	-9.59344
▁قرمز	-9.59388
▁زئیات	-9.59466
▁برنده	-9.59522
▁برگ	-9.59525
▁لین	-9.59561
▁نیمه	-9.59578
▁الهی	-9.59635
▁خنران	-9.5976
▁معروف	-9.5976
▁گروهی	-9.59885
▁دشمن	-9.59908
▁v	-9.59986
▁شانس	-9.60015
▁یخ	-9.60047
اطب	-9.60048
▁صاد	-9.60088
▁بکش	-9.60207
▁رزمین	-9.60232
▁ربا	-9.60338
▁یافتن	-9.60387
▁همکار	-9.60421
▁حساس	-9.60506
▁کلیسا	-9.60513
▁موزه	-9.60542
نس	-9.60566
▁ستم	-9.60586
▁دهان	-9.60791
▁دیر	-9.60849
▁یلادی	-9.60945
▁آی	-9.60956
▁ملا	-9.61017
▁سایه	-9.611
▁هیزات	-9.61105
▁زایا	-9.61278
▁زای	-9.61375
▁ویدئو	-9.61408
▁باغ	-9.61426
▁کارگر	-9.61482
▁فرار	-9.61529
▁پنهان	-9.61542
▁۲۰	-9.61582
رز	-9.61599
▁y	-9.61641
▁چپ	-9.61764
مین	-9.6182
▁اتوم	-9.61852
▁انجمن	-9.61854
▁آگ	-9.61874
▁نظریه	-9.61898
▁تعامل	-9.61937
▁زودی	-9.6194
▁بدان	-9.62069
▁جنبش	-9.62091
▁رج	-9.62099
▁انت	-9.62108
▁نیم	-9.62125
▁بروید	-9.62159
▁یروزی	-9.62195
▁کر	-9.62317
▁رون	-9.6234
▁سند	-9.62349
ادار	-9.62422
حاسب	-9.62433
؟	-9.62474
▁وظیفه	-9.62596
یر	-9.62608
▁de	-9.62666
9	-9.62687
▁برده	-9.62698
▁وندان	-9.62717
▁حکم	-9.62811
سط	-9.62856
▁ایالت	-9.62901
▁ریسک	-9.62929
٪	-9.62929
▁انند	-9.63127
▁تأ	-9.63149
▁ثانیه	-9.6321
لط	-9.63295
▁خواهی	-9.63318
▁یده	-9.63356
▁حضرت	-9.63509
▁نگیزه	-9.63509
▁دانل	-9.63568
▁زنند	-9.63582
رو	-9.6372
ژ	-9.63891
▁موقع	-9.63969
▁ارک	-9.64316
▁وک	-9.64323
▁تغذیه	-9.6443
▁یپ	-9.64447
▁وام	-9.64453
▁موسس	-9.6446
▁گفتگو	-9.64475
▁عملی	-9.6455
el	-9.64588
ـ	-9.64605
▁اقل	-9.64963
ow	-9.64979
▁واضح	-9.65048
رق	-9.65111
▁r	-9.6516
▁یع	-9.65238
اج	-9.65272
روتئ	-9.65379
▁سختی	-9.65457
▁لس	-9.65494
▁امسال	-9.65519
▁اضافی	-9.65671
▁تعادل	-9.65671
▁یامبر	-9.65673
▁یف	-9.65773
▁مداوم	-9.65827
▁وش	-9.65909
چسب	-9.66018
▁ممنوع	-9.66024
ol	-9.66072
▁عظیم	-9.6614
▁حسین	-9.6616
▁بمان	-9.66188
▁بیو	-9.66219
▁سابق	-9.66261
▁شهری	-9.66272
▁تامبر	-9.66299
رزو	-9.66344
▁دبی	-9.66485
کرد	-9.66504
ندیش	-9.66604
▁صحیح	-9.66617
▁نماز	-9.66646
▁اندن	-9.66719
▁انویه	-9.66858
▁عدد	-9.66863
▁ناپ	-9.66909
▁کشد	-9.66973
il	-9.67068
▁سیم	-9.67089
▁سرگرم	-9.67245
رغ	-9.67262
▁آورند	-9.67293
▁Wi	-9.67317
▁توزیع	-9.67403
▁پیوست	-9.67404
▁چهره	-9.6742
▁فنی	-9.67428
se	-9.67538
▁مطالب	-9.6761
مان	-9.67679
▁سؤال	-9.67723
▁عمولی	-9.67725
▁سردگی	-9.67741
▁روستا	-9.67896
▁بدهد	-9.67966
▁هرمان	-9.67969
▁قابله	-9.67975
اکید	-9.67983
▁لیم	-9.68006
▁روب	-9.68071
▁میوه	-9.68183
▁گفتن	-9.68309
▁رایی	-9.68328
▁شغلی	-9.6835
▁شو	-9.68379
▁يد	-9.68427
▁ویزا	-9.68474
ئ	-9.68478
▁داکثر	-9.68521
▁رسند	-9.6858
▁میدان	-9.68604
th	-9.6862
▁پذیرش	-9.68814
▁شماست	-9.6896
▁جرم	-9.68969
▁۳۰	-9.68985
▁ایر	-9.6901
▁خصوصا	-9.69018
▁خواهم	-9.69079
▁سلمان	-9.69171
▁بنی	-9.69172
▁سیاره	-9.69188
▁قلبی	-9.69266
▁گهان	-9.6934
▁آثار	-9.6949
▁مراحل	-9.6949
▁خدای	-9.69496
▁گری	-9.69548
▁زنش	-9.69586
روز	-9.6961
▁زو	-9.6967
lo	-9.6967
▁شوم	-9.70045
وم	-9.70082
▁سنگین	-9.70119
▁مجدد	-9.70142
▁یج	-9.70308
▁محسو	-9.70331
▁بگویم	-9.70469
▁نشست	-9.70614
▁رق	-9.70684
دست	-9.70746
▁قاع	-9.70781
▁متیاز	-9.70798
▁اندک	-9.70807
صال	-9.7084
▁رضایت	-9.70975
▁فهم	-9.71212
▁مطابق	-9.7129
▁ستر	-9.7135
▁فرمان	-9.71356
سیس	-9.71377
▁قتل	-9.71442
▁رستاد	-9.71456
وق	-9.71496
▁تخم	-9.71763
▁ستجوی	-9.71787
▁صادق	-9.71829
چند	-9.71872
▁مهاجر	-9.71953
▁خاور	-9.72024
▁آهنگ	-9.72046
▁فیل	-9.72054
▁حاو	-9.72128
▁بیمه	-9.7213
رج	-9.72285
▁سیگار	-9.72299
▁بدین	-9.7242
▁مقا	-9.72427
▁سلام	-9.72451
▁ــ	-9.72465
▁خدام	-9.72571
▁لطفا	-9.72617
▁رورش	-9.72639
▁جاده	-9.72898
▁تهران	-9.72956
▁مجوز	-9.72966
▁ارزان	-9.73009
جزی	-9.73098
▁نفوذ	-9.73124
لم	-9.73162
▁ذاکره	-9.73293
▁nt	-9.73432
▁نق	-9.73453
نسو	-9.73607
▁یوم	-9.7365
▁سفارش	-9.73668
▁رداز	-9.73771
ناب	-9.73893
▁عصب	-9.73924
شنگ	-9.73956
X	-9.74016
▁نقشه	-9.74059
▁50	-9.74178
▁یض	-9.74247
▁کریس	-9.74337
▁یکسان	-9.74367
۵	-9.74429
▁بدتر	-9.74443
▁دت	-9.74477
▁وسیع	-9.7448
▁اور	-9.74614
▁سوء	-9.7466
▁تقد	-9.74673
▁کده	-9.74715
▁ستون	-9.74766
▁سهام	-9.74777
▁to	-9.74882
▁گانه	-9.74909
ساله	-9.74912
▁قت	-9.74964
حکوم	-9.74996
▁روید	-9.7507
▁گین	-9.75084
▁ابت	-9.75185
▁زداشت	-9.75353
▁راضی	-9.75358
▁پاس	-9.75422
▁نژاد	-9.75507
ur	-9.75578
▁تور	-9.75633
▁طلاح	-9.75887
▁راز	-9.75912
▁خلاصه	-9.75978
▁بپرس	-9.76025
▁متعدد	-9.76026
▁شور	-9.76041
▁فهر	-9.76058
▁کلیک	-9.7606
▁صبر	-9.76094
زار	-9.76171
فتخا	-9.76204
▁گیا	-9.76268
▁ارتق	-9.76273
▁عامله	-9.763
▁طلب	-9.76373
▁لندن	-9.76407
▁دود	-9.76484
▁آهن	-9.7649
▁مبتن	-9.76523
K	-9.76597
ّ	-9.76598
▁موشک	-9.76915
▁ابه	-9.77007
▁القو	-9.77071
▁درخت	-9.7708
▁کاف	-9.77087
▁تدر	-9.77095
▁ریف	-9.77201
▁طب	-9.77231
▁عدالت	-9.77244
▁محمد	-9.77246
قام	-9.7729
▁اثرات	-9.77331
ذاکر	-9.77339
ce	-9.77392
▁تمیز	-9.77423
▁جشن	-9.77424
▁+	-9.77453
▁ریشه	-9.77566
تحص	-9.77578
▁نندگی	-9.77578
▁>	-9.77618
▁مصر	-9.7764
▁ستگاه	-9.77726
▁برند	-9.77772
▁بهشت	-9.77796
۱	-9.77831
▁برمی	-9.77858
▁ساحل	-9.77948
▁تحول	-9.77961
▁حرک	-9.78032
▁قص	-9.78328
▁en	-9.78346
▁وند	-9.78391
▁گوییم	-9.78443
te	-9.78444
▁سقوط	-9.78479
▁راساس	-9.78483
▁ببرید	-9.78488
▁مایید	-9.78489
▁گوشت	-9.78513
▁جانب	-9.78536
nd	-9.78564
▁نف	-9.7861
صر	-9.78694
▁دها	-9.78786
▁کمبود	-9.78835
▁ساک	-9.78839
▁فضایی	-9.78842
▁مرز	-9.78843
▁یتان	-9.78866
▁سنج	-9.78869
▁ساختن	-9.78912
▁نزد	-9.79001
▁یس	-9.79055
▁دیدم	-9.79175
▁مشهور	-9.79193
▁بردی	-9.79199
▁هویت	-9.7921
▁كن	-9.79221
▁مشاور	-9.79372
▁ارو	-9.7942
▁اشی	-9.79457
واهد	-9.79552
▁اهیم	-9.79553
▁زون	-9.79718
▁بیل	-9.79726
▁ارچ	-9.79784
▁سم	-9.79899
▁همچون	-9.79909
▁ناس	-9.79926
▁نیمی	-9.79927
▁سازند	-9.79944
▁سنت	-9.80025
us	-9.80045
▁ابو	-9.80185
▁بینم	-9.80285
▁خانگی	-9.80461
▁J	-9.80481
▁ra	-9.80536
▁نبوده	-9.80682
▁ين	-9.80744
▁In	-9.80789
▁Co	-9.80797
▁زشکان	-9.80813
▁اورزی	-9.80816
▁مارس	-9.80891
▁زسازی	-9.80995
▁بنویس	-9.80995
▁ابسته	-9.80997
▁پرسید	-9.81031
▁دهی	-9.81033
▁ذیر	-9.8109
تاسف	-9.81099
▁اخیرا	-9.81119
▁شاوره	-9.81178
▁واژه	-9.81196
▁سنتی	-9.81245
ad	-9.81247
ic	-9.81259
▁الای	-9.81283
▁ته	-9.81322
▁ویدیو	-9.81364
▁ردش	-9.81397
▁نیک	-9.81412
▁لی	-9.81429
▁موز	-9.81492
▁حو	-9.81509
▁زنی	-9.81525
گار	-9.8153
▁عتراض	-9.81542
▁والات	-9.8158
▁رجسته	-9.81668
▁عماری	-9.817
▁عرض	-9.81721
▁یشگی	-9.81767
رور	-9.8194
▁وبایل	-9.8197
▁الانه	-9.81977
%	-9.82107
▁مذهبی	-9.82129
▁حجم	-9.82177
▁عیس	-9.82241
▁اکتبر	-9.82282
▁ستن	-9.82346
▁مایند	-9.82349
▁خورده	-9.8239
▁Mo	-9.82437
▁تعجب	-9.82462
▁عزیز	-9.82463
▁انگشت	-9.82473
مار	-9.82543
▁آبی	-9.82638
▁the	-9.82685
▁کات	-9.82743
▁یك	-9.82782
▁گواهی	-9.83018
▁ستا	-9.83029
▁دگی	-9.8308
▁ماست	-9.83103
▁صو	-9.83154
▁el	-9.83203
▁مربی	-9.83206
▁تیر	-9.83211
▁رادیو	-9.8324
▁ویا	-9.83253
▁گشت	-9.83284
یپ	-9.83299
▁ندارم	-9.83475
▁گویم	-9.83481
▁برتر	-9.83502
ne	-9.83502
▁مول	-9.83534
▁حیات	-9.83542
▁راوان	-9.83617
▁دادم	-9.83644
▁خواهر	-9.83675
▁لمانی	-9.83691
▁تأیید	-9.83763
▁صفحات	-9.83765
▁امپ	-9.83943
▁مقدس	-9.8395
۲	-9.84031
▁سور	-9.8409
▁مراسم	-9.84138
▁قلال	-9.84139
▁ri	-9.8429
▁عناصر	-9.84327
▁وز	-9.8439
▁کمتری	-9.84511
▁مجموع	-9.84514
▁طراح	-9.84541
▁بارها	-9.84607
▁گار	-9.84667
▁۱۲	-9.84766
▁تق	-9.84785
▁سهم	-9.84862
▁سیل	-9.849
▁ity	-9.849
▁لوله	-9.84987
▁عصر	-9.85067
▁سینما	-9.85082
▁خالی	-9.85106
▁Li	-9.85131
هم	-9.852
▁۱۵	-9.85202
▁ارد	-9.85227
▁دمی	-9.85328
▁مدارس	-9.85351
▁g	-9.85357
پز	-9.854
▁جاری	-9.85449
▁ation	-9.85461
▁یتر	-9.8555
مل	-9.85588
▁لان	-9.85605
▁اتر	-9.85693
▁باد	-9.85725
▁کشید	-9.85812
▁آدرس	-9.86034
▁معدن	-9.86067
▁100	-9.86124
▁رونده	-9.86128
oogl	-9.86225
▁قاضی	-9.86225
▁ازنده	-9.86255
me	-9.86271
ژانس	-9.86294
▁سیا	-9.86401
▁ma	-9.86453
▁آما	-9.86524
▁قالب	-9.86609
▁سوز	-9.86751
▁مجلس	-9.86802
▁سادگی	-9.86817
▁مکانی	-9.86923
▁اثبات	-9.86995
▁وان	-9.87002
▁سبب	-9.87193
▁شوهر	-9.87196
▁ولویت	-9.87201
▁هاي	-9.87238
▁معتبر	-9.87385
▁فردا	-9.87529
▁عم	-9.87613
▁18	-9.87646
▁تجرب	-9.87746
▁لاف	-9.87755
▁m	-9.878
▁کتور	-9.87835
▁روبرو	-9.87974
▁تاریک	-9.88003
▁نب	-9.88014
▁صنوعی	-9.88161
سامب	-9.88172
▁عید	-9.88174
▁جنگل	-9.88302
▁بت	-9.88311
▁منزل	-9.8836
▁اله	-9.88448
یل	-9.88449
ma	-9.88492
▁برو	-9.88499
▁شکر	-9.88649
▁سطوح	-9.88949
▁دایی	-9.89052
▁نقاشی	-9.89143
▁ازیکن	-9.89174
▁وحشت	-9.89178
▁قبال	-9.89211
▁فرست	-9.89246
▁شام	-9.89258
▁شنوا	-9.89271
▁اشگاه	-9.89272
▁ظهور	-9.89342
▁’	-9.89347
▁سان	-9.89379
اخر	-9.89502
▁نگلیس	-9.89546
▁پاریس	-9.89554
▁وین	-9.89618
▁وکار	-9.89657
▁فل	-9.89677
▁ورت	-9.89692
▁راجع	-9.89713
نو	-9.89736
▁رسانی	-9.89809
▁ro	-9.89823
▁قلم	-9.89882
▁نظیر	-9.89938
▁ریستی	-9.89956
▁ورم	-9.89969
طالب	-9.90047
▁مجله	-9.9017
▁na	-9.90233
▁وری	-9.90241
▁هید	-9.90267
▁com	-9.90311
▁غن	-9.90355
▁راتور	-9.904
▁جام	-9.90406
▁امد	-9.90483
بط	-9.906
▁لب	-9.90637
▁عمده	-9.90651
▁نشد	-9.90671
▁شفاف	-9.9076
▁انج	-9.90788
▁نج	-9.90872
ِ	-9.90925
▁11	-9.91009
▁مهمان	-9.91028
▁شرقی	-9.91038
▁آرامش	-9.91129
▁وامبر	-9.9115
▁پنجره	-9.9125
▁یز	-9.91339
▁پاداش	-9.91339
▁وسایل	-9.91358
هر	-9.91373
▁and	-9.91405
▁دیابت	-9.91541
▁انگ	-9.91562
ترین	-9.91622
▁ژوئن	-9.91629
اجرا	-9.91683
▁مدرک	-9.91745
▁اردو	-9.91756
▁سریال	-9.91966
▁Mi	-9.92036
▁بیست	-9.9205
▁سف	-9.92066
▁عده	-9.92121
▁عموم	-9.92124
▁خسته	-9.92138
▁شیطان	-9.9215
▁بزنید	-9.92158
▁لر	-9.92162
▁برگشت	-9.92166
▁پارچ	-9.92303
۰۰	-9.92334
▁چرخ	-9.92349
▁تشکر	-9.92368
▁جادو	-9.92385
▁ادرات	-9.9245
کز	-9.92525
ul	-9.92531
▁شرق	-9.92534
▁چای	-9.92547
▁خشم	-9.92573
▁اشت	-9.92587
▁لیب	-9.92701
▁ثبات	-9.92762
▁ظرفیت	-9.92781
▁کوین	-9.92784
▁25	-9.92812
▁چک	-9.92835
▁سرور	-9.92891
▁متولد	-9.93172
▁یکه	-9.93172
▁واستم	-9.93173
▁|	-9.93177
▁نص	-9.93194
▁Pro	-9.93207
▁زمینی	-9.93249
▁l	-9.93278
۴	-9.93291
▁كار	-9.93295
مر	-9.93356
▁جازات	-9.93378
▁ونیکی	-9.9346
▁منظم	-9.93577
ْ	-9.93584
▁آپ	-9.93629
▁حتما	-9.93695
ة	-9.93791
▁[...]	-9.93998
▁Z	-9.94021
انده	-9.94031
▁اتور	-9.94182
▁st	-9.94253
▁مرده	-9.94295
کو	-9.94312
▁رسو	-9.94462
▁منطقی	-9.94518
▁مردی	-9.94546
▁کیف	-9.94568
انیه	-9.94587
»	-9.94708
▁ریب	-9.94745
ho	-9.94753
یو	-9.94768
▁مپانی	-9.94831
آ	-9.94933
▁La	-9.95001
▁جلب	-9.95044
▁الم	-9.95264
▁اکس	-9.95444
▁مخفی	-9.95462
▁زخم	-9.95516
▁الی	-9.95529
▁باما	-9.95556
▁آموخت	-9.9567
▁کمیته	-9.95676
▁ادیده	-9.95686
ماشا	-9.95761
▁جنس	-9.95821
▁بال	-9.95899
▁سرش	-9.95966
▁لایه	-9.95969
▁زاده	-9.96008
▁هل	-9.96045
ge	-9.96136
▁d	-9.96171
▁مار	-9.96185
▁وشه	-9.96206
▁لف	-9.9632
▁معلم	-9.96363
▁وای	-9.96413
▁جامع	-9.96431
▁یق	-9.96452
▁تصادف	-9.96516
▁صنایع	-9.96516
▁تصوی	-9.9658
▁جاع	-9.96671
▁تکامل	-9.96729
عطا	-9.96791
▁عصبی	-9.96815
▁شم	-9.96832
▁پیرو	-9.96934
▁وظایف	-9.96942
▁موقت	-9.96947
▁انگار	-9.97016
▁دي	-9.97024
▁یونان	-9.97095
▁نتی	-9.97159
▁ریاضی	-9.97325
▁40	-9.97415
▁یدند	-9.9754
▁nce	-9.97597
▁ندگی	-9.97618
▁خرد	-9.97618
▁سیون	-9.97637
▁استیک	-9.97656
▁کشیدن	-9.97791
سا	-9.97806
▁ورزشی	-9.97945
▁هنری	-9.97983
▁دمه	-9.98106
▁تغال	-9.98234
▁ئو	-9.98238
▁دیپل	-9.98245
▁سالان	-9.98435
▁بافت	-9.98701
▁دای	-9.98713
▁جور	-9.98763
ورمو	-9.98852
▁ed	-9.98883
▁تردید	-9.98883
on	-9.98885
▁مجاز	-9.99145
▁راک	-9.9926
▁قب	-9.99346
کرو	-9.99454
▁تحویل	-9.99537
▁١	-9.99545
▁اخبار	-9.99557
▁خا	-9.99601
▁th	-9.9961
▁ورودی	-9.99626
▁هستی	-9.99752
▁طر	-9.99789
▁کف	-9.99829
▁۵۰	-9.99841
▁هن	-9.99912
▁لزوم	-9.99979
▁باتری	-10.0003
▁معلوم	-10.002
عمل	-10.0021
▁ion	-10.0021
▁ذر	-10.0021
▁شیدنی	-10.0026
▁خارجه	-10.0031
▁یمز	-10.0039
▁ناحیه	-10.0042
▁اعدام	-10.0044
▁ولت	-10.0047
▁بگوید	-10.0065
▁ماندن	-10.0067
▁کفش	-10.0095
▁پیشین	-10.0102
▁روانی	-10.0105
▁هاجم	-10.0109
▁پوش	-10.0112
▁خب	-10.0118
▁نبرد	-10.0131
▁صاب	-10.0131
▁رقم	-10.0135
▁روزها	-10.0137
▁Me	-10.0145
▁_	-10.0153
▁فرات	-10.016
▁معادل	-10.0175
▁کاغذ	-10.0175
یاس	-10.0182
▁چار	-10.0191
▁نویسی	-10.0195
▁گیرید	-10.0195
▁ویی	-10.0197
▁وقوع	-10.0198
▁نشود	-10.0198
▁تأمین	-10.0199
گو	-10.0211
▁عن	-10.0236
▁بول	-10.0247
▁فیلتر	-10.0247
▁60	-10.0257
▁تحریک	-10.0266
▁ضا	-10.0268
▁خورید	-10.0271
W	-10.0275
▁یشه	-10.0282
▁لق	-10.0283
▁دائمی	-10.0286
▁کمپین	-10.0291
▁j	-10.0294
▁ستند	-10.0309
▁nd	-10.0309
▁سکو	-10.0318
▁کشوری	-10.033
▁وآوری	-10.0333
▁صندلی	-10.0334
٫	-10.0344
▁ge	-10.035
▁برود	-10.0356
▁یاب	-10.0358
▁غذای	-10.0358
▁ریک	-10.0367
to	-10.0368
▁نوج	-10.037
حال	-10.0371
▁آیه	-10.0379
▁بماند	-10.0383
▁رایج	-10.0384
▁میز	-10.0397
قض	-10.04
▁رستو	-10.04
رش	-10.0427
▁کشیده	-10.043
▁ng	-10.0431
▁سئو	-10.0432
▁رکو	-10.0436
▁هیت	-10.0437
▁Y	-10.0439
▁حیطی	-10.0448
▁فدرال	-10.0448
▁عوارض	-10.0448
▁or	-10.045
▁عربی	-10.0452
▁نقد	-10.0454
▁کت	-10.0468
▁پناه	-10.0471
▁هستان	-10.0471
▁کاخ	-10.0483
▁سل	-10.0493
▁زنجیر	-10.0494
▁الکل	-10.0494
▁نکات	-10.0496
▁چاق	-10.0497
▁هیل	-10.0497
▁انب	-10.0499
▁کانا	-10.0507
▁مبا	-10.0509
▁افت	-10.0513
▁هو	-10.0513
▁نگر	-10.0514
میدو	-10.0522
▁مندی	-10.0526
▁فقر	-10.0531
ta	-10.0537
▁رداند	-10.054
اک	-10.0542
▁انان	-10.055
ng	-10.0552
▁رانه	-10.0561
▁رقی	-10.0563
▁لبخند	-10.0563
▁مراقب	-10.0563
▁مسکو	-10.0567
▁ارش	-10.0569
۶	-10.0581
▁حادثه	-10.0587
▁دارک	-10.0588
▁داعش	-10.059
▁کلا	-10.0595
▁li	-10.0599
▁مشکلی	-10.06
▁مارک	-10.0603
▁گرس	-10.0607
▁خراب	-10.061
دوار	-10.061
▁یندوز	-10.061
▁دائم	-10.0612
▁ضعف	-10.0613
▁دخ	-10.0618
▁مست	-10.0625
▁ظرف	-10.0631
▁گرما	-10.0633
▁قررات	-10.0633
▁u	-10.0636
▁هدیه	-10.0648
▁گزار	-10.0654
▁لع	-10.0672
▁رییس	-10.0684
▁ورا	-10.0688
▁یانوس	-10.0692
▁پیمان	-10.0695
▁نفع	-10.0696
▁ct	-10.0705
▁اکتری	-10.0708
ایع	-10.0719
▁نک	-10.0723
▁یره	-10.0725
▁شی	-10.0729
▁اپ	-10.073
▁یورو	-10.0734
سات	-10.0736
▁no	-10.074
▁موج	-10.0754
▁ادب	-10.0757
▁k	-10.0758
▁۱۰۰	-10.0764
▁مزد	-10.0768
▁جانبی	-10.0779
▁سته	-10.0783
▁حقوقی	-10.079
▁h	-10.0796
دو	-10.0798
▁گرچه	-10.0801
عامل	-10.0802
▁x	-10.0803
▁رض	-10.0806
▁توپ	-10.0811
▁پرده	-10.0824
ll	-10.0826
▁وست	-10.0832
اکس	-10.0833
▁نظرات	-10.0837
▁يا	-10.0842
▁رنده	-10.0848
▁خطا	-10.0851
▁Fi	-10.0868
▁بو	-10.0868
▁رآور	-10.0871
▁معیار	-10.0871
▁عبد	-10.0871
▁گراف	-10.0879
▁24	-10.0879
▁آمدن	-10.088
▁کوپ	-10.0887
▁بخشد	-10.0888
▁خطوط	-10.0895
nt	-10.0895
▁رعا	-10.091
جدید	-10.091
▁صف	-10.0927
▁غا	-10.0938
is	-10.0941
▁باران	-10.095
▁لوک	-10.096
رط	-10.0965
ظ	-10.0966
mp	-10.0973
▁سام	-10.0973
▁راج	-10.0981
▁ناسبی	-10.0982
all	-10.0989
▁ضطراب	-10.0991
▁شاخص	-10.0992
▁جسم	-10.0992
قدر	-10.0992
▁فلز	-10.0995
▁بان	-10.1003
▁اتم	-10.101
▁16	-10.1011
▁شوروی	-10.1016
▁De	-10.1026
▁كند	-10.1026
am	-10.1027
▁ایست	-10.1029
▁برگرد	-10.1035
▁کنگره	-10.1041
▁یابند	-10.1042
▁نباش	-10.1047
غو	-10.1049
اهند	-10.1052
▁گربه	-10.1055
▁یشن	-10.1055
ئو	-10.1064
▁موریت	-10.1067
▁صده	-10.1075
▁یگنال	-10.1089
▁ژنتیک	-10.1089
▁زوج	-10.1092
▁مف	-10.1093
▁یلی	-10.1095
▁اورد	-10.1096
▁نیستم	-10.1114
▁لیک	-10.1134
▁تازگی	-10.1138
▁دادیم	-10.1142
جا	-10.115
▁ریخت	-10.1151
▁شن	-10.1154
▁رضا	-10.1156
▁قضاوت	-10.1163
▁شع	-10.1164
▁مخدر	-10.1171
▁انع	-10.1183
▁شاغل	-10.1188
▁تئوری	-10.1188
▁یکیشن	-10.1188
▁کالج	-10.1189
▁داره	-10.1197
▁تح	-10.1205
▁آوری	-10.1208
▁وحش	-10.121
▁اوت	-10.121
de	-10.1212
داخل	-10.1225
▁شار	-10.1233
ربرد	-10.1247
▁یاری	-10.1247
▁نون	-10.1248
▁ارآمد	-10.125
▁فلسفه	-10.1251
▁di	-10.1254
▁گویی	-10.1256
▁جنسیت	-10.1257
▁خالص	-10.1262
▁٬	-10.1263
▁کنه	-10.1274
▁چم	-10.1275
▁شیرین	-10.1281
▁تفسیر	-10.1287
▁لاخره	-10.1288
▁روزه	-10.1288
▁محور	-10.1292
▁عکاسی	-10.13
▁رنوشت	-10.1313
▁#	-10.1313
▁دلال	-10.1319
▁تزر	-10.1331
۳	-10.1333
▁ریه	-10.1339
▁اسیون	-10.1341
,	-10.1351
▁زر	-10.1353
دکار	-10.1372
▁فو	-10.1375
راف	-10.1376
▁جد	-10.1377
▁سرخ	-10.1383
▁گردند	-10.1384
▁تنا	-10.1386
▁واس	-10.1387
▁زیت	-10.1388
▁ندر	-10.1395
▁هرچه	-10.1402
▁مکا	-10.1403
▁رفع	-10.1416
▁دال	-10.1421
▁یایید	-10.1427
▁ساد	-10.1427
▁14	-10.1427
▁لمان	-10.143
۸	-10.1435
زو	-10.1435
▁اسب	-10.1437
▁دخانه	-10.1439
▁علامت	-10.1439
▁کراین	-10.1439
▁افسر	-10.1439
▁تراع	-10.144
▁بیاید	-10.1444
▁اذ	-10.1461
▁لال	-10.1462
ir	-10.1464
▁فروخت	-10.1464
▁قالات	-10.1464
▁اشکال	-10.1465
▁کثریت	-10.149
۹	-10.1493
▁ونز	-10.15
▁یونی	-10.1506
▁انس	-10.1507
▁شاد	-10.1507
▁روس	-10.1513
▁To	-10.1514
▁پورت	-10.1517
▁یدم	-10.1518
▁دامنه	-10.1531
▁کاران	-10.1532
▁da	-10.1534
▁زرد	-10.1534
▁توی	-10.155
▁ریتم	-10.1552
▁باش	-10.1553
▁ضم	-10.1557
▁٪	-10.1562
ry	-10.1566
تریک	-10.1568
▁جغ	-10.158
▁شادی	-10.1582
تنوع	-10.1584
▁ذهنی	-10.1585
▁جی	-10.1587
▁هواره	-10.1587
▁ویز	-10.1592
▁غان	-10.1597
na	-10.1598
ظاهر	-10.1607
▁بدهی	-10.1618
▁تویی	-10.1652
▁w	-10.1666
▁فیزیک	-10.167
▁اهانه	-10.167
▁بران	-10.1671
▁وئ	-10.1683
▁ادی	-10.1685
▁مؤثر	-10.1696
▁خورند	-10.1696
▁اصر	-10.1699
اهان	-10.1706
▁شل	-10.1712
tt	-10.1714
▁سافت	-10.1722
▁یند	-10.1723
▁جلسات	-10.1724
▁عروس	-10.1728
▁کلام	-10.1728
ia	-10.1733
▁صند	-10.1742
▁آفتاب	-10.1748
▁تجاوز	-10.1748
▁ننده	-10.1749
▁اران	-10.175
▁رویا	-10.1756
رمز	-10.1761
▁سوار	-10.1762
▁خبری	-10.1764
▁ght	-10.1775
▁نرا	-10.1779
▁مور	-10.1785
▁رست	-10.179
▁لیت	-10.1798
▁مجازی	-10.1806
▁تبع	-10.1813
▁غم	-10.1824
▁وغ	-10.1825
▁وافقت	-10.1827
▁غریب	-10.1832
▁تم	-10.1839
▁تخصص	-10.1842
▁ري	-10.1853
▁عالم	-10.1854
▁مرغ	-10.1854
▁شرح	-10.1859
▁ثن	-10.1894
▁الن	-10.1902
▁يک	-10.1902
▁مز	-10.1907
▁مستند	-10.1909
▁دآوری	-10.1917
▁هیو	-10.1924
▁دمای	-10.1932
▁نگار	-10.1933
▁سرکوب	-10.1934
▁مسلح	-10.1934
▁اسنا	-10.1935
▁سیس	-10.1938
▁ترنتی	-10.1941
▁تاپ	-10.1953
سه	-10.1957
▁پارت	-10.1957
▁Sa	-10.1959
▁شکایت	-10.196
▁فرید	-10.1961
▁&	-10.1962
▁et	-10.1969
▁%	-10.1978
▁طا	-10.1986
▁جوامع	-10.1987
انع	-10.1989
▁میدهد	-10.1989
▁دانه	-10.1989
▁یمن	-10.1991
▁گرام	-10.1994
▁شدیم	-10.1996
▁پدرش	-10.1998
▁متنوع	-10.2011
▁قطار	-10.2014
▁ادرم	-10.203
▁شکار	-10.2034
▁وئیس	-10.2042
▁لودگی	-10.2042
▁رسی	-10.2045
▁کربن	-10.2051
▁میلی	-10.2063
▁Le	-10.2066
▁تأکید	-10.2068
▁حلقه	-10.2069
▁ندرت	-10.208
▁نل	-10.2089
▁حب	-10.2089
▁رور	-10.2092
▁ment	-10.2096
▁خنده	-10.2096
▁بدهند	-10.2096
▁تحقق	-10.2103
▁همگی	-10.2113
فر	-10.2115
▁عبا	-10.2118
▁فرصتی	-10.2125
▁برج	-10.214
▁هاب	-10.2144
▁لبنان	-10.215
▁لکه	-10.215
▁برسان	-10.215
▁الکی	-10.2156
▁Sc	-10.216
▁یار	-10.2165
▁اطرات	-10.2177
▁جعبه	-10.2178
▁چا	-10.2184
▁اهای	-10.2184
▁دون	-10.2188
▁لات	-10.2193
▁ایمن	-10.2196
▁مأمو	-10.2204
▁اجبار	-10.2209
▁وریسم	-10.221
▁ابع	-10.2217
▁رسان	-10.2217
▁اسا	-10.2222
▁الزا	-10.2227
دن	-10.2235
▁ماری	-10.2239
▁٫	-10.2247
اس	-10.2253
▁وود	-10.2257
▁دیدتر	-10.2259
▁نالد	-10.226
▁پولی	-10.2262
▁سوئد	-10.2267
▁کنونی	-10.2268
▁اوست	-10.2273
▁حیاتی	-10.2285
▁مکزیک	-10.2287
▁ردمی	-10.2294
▁دیگ	-10.2294
▁طبی	-10.2295
▁یسیون	-10.2296
▁یکار	-10.2297
۰	-10.2301
...	-10.2301
▁پلت	-10.2302
▁اهه	-10.2305
▁اتخا	-10.2315
▁بانکی	-10.2316
کا	-10.2325
▁قطعه	-10.2325
▁لوب	-10.233
▁رع	-10.2333
▁یلند	-10.2333
▁راف	-10.2336
▁برزیل	-10.2342
▁جر	-10.2346
ادگ	-10.2349
▁قف	-10.2352
▁طلاق	-10.2352
▁ندهید	-10.2358
▁الح	-10.2366
▁لاها	-10.2371
▁اراده	-10.2372
▁ير	-10.2385
▁کور	-10.2385
؛	-10.2386
▁ویل	-10.2388
▁کشان	-10.2394
si	-10.2397
وراک	-10.2401
▁ئید	-10.2404
▁سازید	-10.2407
▁شیدن	-10.2407
جعه	-10.2409
شتبا	-10.2411
▁راستی	-10.2417
گیری	-10.2429
▁ونیست	-10.243
▁جمعه	-10.2435
▁13	-10.2436
▁ایتخت	-10.2454
▁آورید	-10.2457
▁یدگی	-10.2467
▁وپ	-10.2467
▁بگو	-10.2468
▁زید	-10.2483
▁z	-10.2485
▁نظم	-10.2489
▁سکوت	-10.2491
وز	-10.2499
▁تقاضا	-10.2511
▁لسلام	-10.2513
▁کب	-10.252
▁آوریل	-10.2531
▁بپذیر	-10.2539
▁تمایز	-10.2539
▁آمدند	-10.2541
▁گرایی	-10.2542
▁ذب	-10.2545
▁خام	-10.2553
▁یبر	-10.256
سایت	-10.2561
▁ظاهرا	-10.2563
▁شمنان	-10.2568
▁ببیند	-10.2575
▁مالک	-10.2577
▁ببرد	-10.258
▁ماشا	-10.2587
۷	-10.2595
▁بهار	-10.2601
▁نکرد	-10.2602
الیف	-10.2605
▁۱۸	-10.2607
▁نشسته	-10.2612
▁رقص	-10.2614
گه	-10.2616
▁سار	-10.262
▁اب	-10.2622
▁اشغال	-10.2625
▁مخصوص	-10.2625
▁سیر	-10.2625
es	-10.2629
یدن	-10.2629
ومی	-10.2652
▁جنایت	-10.2655
راحت	-10.2674
▁رنگی	-10.2678
▁سرباز	-10.2682
ریب	-10.2683
▁هلند	-10.2684
▁Do	-10.2687
▁اکت	-10.2692
▁آلوده	-10.2692
▁تش	-10.2698
▁هنمای	-10.2706
50	-10.2711
▁حرارت	-10.2711
اطف	-10.2711
▁گرفتم	-10.2711
▁گذران	-10.2718
▁زین	-10.2719
▁Ro	-10.2727
▁اهم	-10.2733
▁مرتب	-10.2738
▁Lo	-10.2739
▁دروید	-10.2741
▁بور	-10.275
▁ویه	-10.2768
▁هک	-10.2776
▁تز	-10.2778
▁یلان	-10.2787
▁IP	-10.2789
▁لمس	-10.2802
▁کپی	-10.2806
▁لت	-10.282
▁اهد	-10.2825
▁موهای	-10.2827
▁شارژ	-10.2828
▁کول	-10.2856
▁=	-10.2858
▁تناسب	-10.2858
ha	-10.2862
▁لار	-10.287
ni	-10.2877
▁نفجار	-10.2885
▁رسم	-10.2895
▁نادر	-10.2896
ستن	-10.2897
▁وید	-10.2899
▁اجاره	-10.2915
▁توقف	-10.2919
▁اکو	-10.292
▁یوان	-10.2928
▁نوی	-10.2937
▁باشه	-10.2941
▁کاب	-10.2943
▁بادل	-10.2944
▁ودکشی	-10.2944
▁هیئت	-10.2944
لعاد	-10.2945
▁هربان	-10.2945
▁شکن	-10.2951
سابق	-10.2962
▁زدهم	-10.2964
▁me	-10.2967
un	-10.2973
▁ذاشتن	-10.2974
▁نیادی	-10.2975
▁اتهام	-10.2976
▁دانی	-10.2977
▁نکند	-10.2986
▁تخمین	-10.2988
▁الغ	-10.2992
▁la	-10.2995
▁لوژیک	-10.3007
قصد	-10.3009
▁ضاع	-10.3018
▁کابل	-10.3019
▁لط	-10.302
وت	-10.3028
▁گردن	-10.3029
توبو	-10.3032
▁شکلی	-10.3034
▁یامد	-10.3041
▁جمعی	-10.3042
▁لذ	-10.3045
▁خطرات	-10.305
▁بشناس	-10.3051
حکم	-10.3056
▁کالری	-10.3063
▁وکس	-10.3064
▁حسن	-10.3066
یز	-10.3068
▁ردگار	-10.3069
▁یاهان	-10.3091
▁شکنجه	-10.3093
▁حقیقی	-10.3093
▁بیند	-10.31
▁امی	-10.3101
▁رفتم	-10.3102
▁ارکس	-10.3109
▁سران	-10.3109
▁ناخ	-10.3117
ub	-10.3121
▁۴۰	-10.3125
▁راس	-10.3128
▁بزی	-10.3131
▁So	-10.3132
▁کیه	-10.3135
▁شعر	-10.3151
▁اهنگ	-10.3157
▁تخت	-10.3162
mi	-10.3168
▁قد	-10.3169
▁دلاری	-10.3177
▁رژ	-10.3182
▁خراج	-10.3184
▁غال	-10.3188
▁ردها	-10.3192
▁برت	-10.3193
▁غیره	-10.3195
▁شون	-10.3198
▁۱۱	-10.32
▁صفر	-10.3215
نز	-10.3218
it	-10.3218
um	-10.3219
▁صه	-10.3222
▁ارات	-10.3225
▁اکسی	-10.3238
▁رگ	-10.3242
▁دن	-10.3242
▁ضرور	-10.3247
▁ظم	-10.3262
دهای	-10.3262
▁خلاف	-10.3275
▁لاسیک	-10.3276
▁وانی	-10.3276
▁صری	-10.3279
▁ارمند	-10.3289
ec	-10.3301
▁ایز	-10.3311
▁ورس	-10.3329
▁ومی	-10.3333
▁غزی	-10.3336
▁عف	-10.3359
▁قاضای	-10.3367
▁یفا	-10.3367
▁وریست	-10.3383
▁وفان	-10.3384
▁جزا	-10.339
▁نز	-10.3392
▁وژن	-10.3398
▁فلو	-10.3402
▁کسل	-10.3408
▁پان	-10.3409
▁اتمی	-10.3412
▁لول	-10.3413
▁نع	-10.3414
▁کشند	-10.3414
▁رط	-10.3414
▁رویم	-10.3417
زبان	-10.3417
▁قایق	-10.3433
▁دکم	-10.3473
▁17	-10.3477
▁الها	-10.3482
▁زب	-10.3483
▁fi	-10.3484
▁[+]	-10.3491
▁فزا	-10.3504
▁ارل	-10.3505
▁غذاها	-10.3507
▁لن	-10.3512
▁موافق	-10.3522
▁Ad	-10.3526
▁فیف	-10.3529
▁رفه	-10.353
▁ائل	-10.355
▁وچکتر	-10.3553
▁اری	-10.3573
▁do	-10.3575
غ	-10.3575
حقق	-10.3578
▁رتر	-10.358
▁قند	-10.3581
داشت	-10.3585
▁لاس	-10.3586
▁جف	-10.3594
▁مدنی	-10.3609
▁ارب	-10.3612
▁لوژی	-10.3613
فهم	-10.362
▁90	-10.3621
▁ریل	-10.3627
▁شها	-10.3627
▁تخصصی	-10.3631
▁بنای	-10.3634
▁نزا	-10.3638
▁اهنگی	-10.3649
▁كنند	-10.3651
"	-10.3668
نداخ	-10.3674
▁پنجم	-10.369
▁be	-10.3701
▁عوا	-10.3702
▁Ra	-10.371
▁lo	-10.371
▁فات	-10.3734
▁تکب	-10.374
▁گنج	-10.3755
▁فکری	-10.3761
▁کاش	-10.3764
تمام	-10.3768
▁اچه	-10.3773
▁ive	-10.3776
▁عادل	-10.3776
▁دتا	-10.3776
▁رر	-10.3785
▁اهر	-10.379
▁ریس	-10.3799
وضو	-10.3805
▁وق	-10.3809
▁ولاد	-10.3813
▁یکو	-10.3821
▁کالا	-10.383
▁یبری	-10.3839
▁انکار	-10.3852
▁وبا	-10.3855
▁شتن	-10.3861
▁دما	-10.3865
▁ادث	-10.3877
▁هیز	-10.3879
▁اجعه	-10.3898
▁۲۵	-10.3901
▁بنیاد	-10.3905
قص	-10.3908
▁لای	-10.3917
▁پلی	-10.3918
▁دول	-10.3922
▁اخت	-10.3927
hi	-10.3927
▁راث	-10.3928
co	-10.3929
id	-10.3938
▁رکات	-10.3939
▁یزر	-10.3942
▁رئ	-10.3949
▁۱۴	-10.3953
▁احت	-10.3955
▁Po	-10.3958
▁کشی	-10.396
▁سیب	-10.3963
▁رقه	-10.3964
▁ادو	-10.3966
▁رزها	-10.397
▁یچ	-10.3978
▁Q	-10.3979
▁چال	-10.398
▁طره	-10.3986
▁ونا	-10.3991
▁We	-10.3997
▁Be	-10.4005
▁Bo	-10.4022
طرف	-10.4034
اراح	-10.4066
▁ni	-10.407
▁اسکا	-10.4085
▁زنگ	-10.4089
▁ذاب	-10.409
▁?	-10.4103
▁وردند	-10.4108
▁ur	-10.4109
▁ce	-10.4115
▁Na	-10.4118
▁باشی	-10.4136
et	-10.414
ء	-10.4144
▁میشه	-10.4158
▁زاد	-10.4162
▁موش	-10.4174
▁آقا	-10.4179
▁لام	-10.4182
▁کرم	-10.4182
▁گند	-10.4183
▁کرو	-10.4185
▁منف	-10.4191
▁فتی	-10.4193
▁Sp	-10.4202
▁مادرش	-10.4215
▁هات	-10.4222
▁تکل	-10.4225
▁الون	-10.4232
▁زرگ	-10.4233
▁توج	-10.4233
▁لحه	-10.4236
▁اتین	-10.4253
▁کیل	-10.4258
▁وئل	-10.4258
▁بینا	-10.4261
▁man	-10.4267
▁ارگان	-10.4277
▁انید	-10.4282
▁شویی	-10.4289
▁مادی	-10.432
▁گذارد	-10.432
▁هنگ	-10.4322
▁مدن	-10.4344
▁مهر	-10.435
▁جات	-10.4352
▁ئین	-10.4359
▁ونس	-10.4361
▁گاو	-10.4375
▁فس	-10.4382
▁اریو	-10.4388
▁نکردن	-10.4391
▁سرما	-10.4398
▁for	-10.4399
گرد	-10.4431
▁۶۰	-10.4439
▁بکار	-10.4441
نیان	-10.4448
▁طع	-10.445
▁ندید	-10.4464
▁—	-10.4474
▁فوت	-10.448
▁مبارز	-10.4509
▁فش	-10.453
▁تئ	-10.4537
▁شاورز	-10.4543
▁ادر	-10.4545
▁سانه	-10.4552
▁هز	-10.4553
▁اجد	-10.4566
▁بخشید	-10.4566
▁نجان	-10.4576
▁طاب	-10.4589
▁جوی	-10.4611
▁ملک	-10.4615
▁گلو	-10.4618
▁دینی	-10.463
▁زنم	-10.4642
▁App	-10.4647
▁وریم	-10.4648
▁تدا	-10.4671
▁یران	-10.4678
▁سترو	-10.4681
▁یزا	-10.4682
▁ستاده	-10.4686
▁Al	-10.4686
▁بش	-10.4688
▁پیروز	-10.4692
▁ضی	-10.4692
▁Uni	-10.4701
▁لیس	-10.4703
▁روسی	-10.4706
▁صل	-10.4707
▁اوج	-10.4708
▁ني	-10.4729
▁حر	-10.4747
▁نوا	-10.4759
▁برایش	-10.476
▁برید	-10.4763
▁اچ	-10.4768
▁حظ	-10.4768
▁ستری	-10.4768
▁پیک	-10.477
▁جک	-10.477
▁ابید	-10.477
ga	-10.4774
▁Int	-10.4791
▁یاها	-10.4792
▁دوستی	-10.4792
پر	-10.4793
▁ch	-10.4806
▁19	-10.4831
▁واد	-10.4835
▁ca	-10.4837
▁بیر	-10.4837
▁قدیم	-10.484
▁تسل	-10.4846
▁مزا	-10.4862
▁راب	-10.4863
▁موم	-10.4872
حریم	-10.4875
▁البا	-10.4884
▁متری	-10.4898
گان	-10.4899
▁صلاح	-10.4904
وک	-10.4916
▁an	-10.4925
▁دیت	-10.493
▁فتد	-10.4937
▁٠	-10.4938
▁سرو	-10.4946
▁دغ	-10.4959
کت	-10.497
▁نداز	-10.4971
▁شوی	-10.4972
ill	-10.4977
▁ابا	-10.4978
▁۱۳	-10.4982
▁رفتند	-10.499
▁ورگ	-10.5004
▁کوک	-10.5019
▁طای	-10.5032
▁اى	-10.5037
▁ناتو	-10.504
▁ادری	-10.504
▁80	-10.5052
▁جب	-10.5067
▁وران	-10.5068
فشا	-10.5071
di	-10.5073
▁ردن	-10.5081
▁ندانه	-10.5081
▁منطق	-10.509
▁عکاس	-10.5095
▁خته	-10.5095
▁تاک	-10.5099
▁بلو	-10.5104
▁دوز	-10.5107
▁اطم	-10.5109
▁ثی	-10.5113
▁بوی	-10.512
▁جاست	-10.5132
▁موسی	-10.5135
▁يت	-10.5148
▁انتان	-10.5155
▁شید	-10.5155
▁عام	-10.5169
▁ابد	-10.5172
/	-10.5175
▁بي	-10.5181
رص	-10.5203
▁Ta	-10.5203
▁فتار	-10.5225
زش	-10.5226
▁Ho	-10.5226
▁21	-10.5228
▁یکرو	-10.5231
▁خان	-10.5238
▁وخ	-10.5271
▁mo	-10.5279
▁No	-10.5284
Y	-10.5286
▁مسیحی	-10.5298
ئید	-10.5304
▁مزه	-10.5325
▁الف	-10.5325
▁واژ	-10.5339
▁رکا	-10.5348
▁ry	-10.5361
▁ولای	-10.5364
▁سرم	-10.5394
▁بده	-10.5397
▁وگا	-10.5415
IS	-10.5437
▁فرود	-10.545
▁اوری	-10.5451
▁زار	-10.5465
▁کلم	-10.5466
ig	-10.5466
▁سکن	-10.5476
حات	-10.5478
▁ارن	-10.5485
▁بشری	-10.5522
▁فه	-10.5527
▁فند	-10.5529
▁یانت	-10.5529
▁ونیک	-10.5531
▁اهدا	-10.5542
تز	-10.5543
▁نوار	-10.5544
▁نسور	-10.5548
▁جراح	-10.555
▁واز	-10.5559
▁سفار	-10.5559
▁لمه	-10.5565
▁sh	-10.5572
روند	-10.5573
▁Car	-10.5585
0	-10.5594
▁co	-10.5596
▁آمر	-10.5602
▁هول	-10.5609
▁تونی	-10.5616
sh	-10.5618
▁مپ	-10.5618
▁تراف	-10.5625
▁لیا	-10.5627
▁تاج	-10.563
▁ارض	-10.5632
▁ستار	-10.5663
▁وسه	-10.568
وشبخ	-10.5681
▁خودت	-10.5682
▁ونی	-10.5682
▁وسط	-10.5683
گذار	-10.5685
▁ba	-10.5688
▁حدی	-10.5689
▁شنا	-10.5704
▁ure	-10.5712
▁ائو	-10.5712
▁سي	-10.5733
▁اریا	-10.5735
▁ولو	-10.5735
▁ژوئ	-10.574
▁کاو	-10.5756
▁وشبخت	-10.5757
نایی	-10.578
▁رژی	-10.5784
▁٢	-10.5798
▁رکرد	-10.5801
▁یایی	-10.5806
▁منع	-10.581
▁نان	-10.5821
▁زاب	-10.5829
▁پیچ	-10.5829
▁وطلب	-10.5836
▁واری	-10.5841
▁ختان	-10.5843
▁غلب	-10.5846
▁دلم	-10.5877
▁ta	-10.589
▁يم	-10.5897
▁Ri	-10.5898
طه	-10.5904
▁ولین	-10.5919
▁عمق	-10.5923
بار	-10.5929
▁۲۴	-10.5929
▁mi	-10.5931
▁دز	-10.5938
خوا	-10.594
▁Ha	-10.5946
ut	-10.5946
▁ولیک	-10.595
▁فرمو	-10.596
▁ایب	-10.5964
▁Go	-10.5968
▁70	-10.598
▁اعد	-10.5985
▁جین	-10.6001
▁دیک	-10.6004
▁Sta	-10.6006
▁۱۶	-10.6012
▁ارف	-10.6015
▁نوش	-10.6016
▁لیف	-10.6021
▁سپری	-10.6036
صمیم	-10.6042
▁غر	-10.6046
▁ّت	-10.6053
▁امس	-10.6065
▁سنی	-10.6067
▁عان	-10.6073
▁گیریم	-10.6074
▁نداخت	-10.6076
▁نتا	-10.6099
Q	-10.6104
▁چو	-10.6107
▁ارسی	-10.6117
▁ویر	-10.6118
▁دستان	-10.6123
▁For	-10.6124
▁کین	-10.6131
▁وقا	-10.6143
سک	-10.6146
▁یکل	-10.6151
▁غذ	-10.617
▁رسیم	-10.6188
▁مام	-10.6193
▁اداری	-10.6198
▁ریو	-10.6198
▁حیا	-10.6211
▁یبی	-10.6215
▁یروز	-10.6216
▁تیو	-10.622
▁دربار	-10.6222
.5	-10.6241
▁اء	-10.6251
▁طعم	-10.6263
▁Con	-10.6266
▁لبان	-10.6266
▁ثم	-10.6272
▁ha	-10.6274
▁ناخته	-10.628
▁٩	-10.628
▁رپ	-10.6286
ell	-10.6298
▁نگاری	-10.6298
▁تعل	-10.6301
▁راط	-10.6301
”	-10.6309
▁شست	-10.6313
ff	-10.6317
▁;	-10.6322
▁منش	-10.6334
▁رك	-10.634
▁زمن	-10.6348
▁۸۰	-10.6366
▁کوچ	-10.6369
▁یدنی	-10.6371
▁اتل	-10.6373
▁مذهب	-10.6396
ضطرا	-10.6404
▁فارس	-10.6404
▁ho	-10.6433
▁توک	-10.6436
▁ia	-10.6437
▁تنام	-10.644
▁ستگی	-10.6444
▁انشان	-10.6452
ed	-10.6455
▁1-	-10.6478
▁ناظر	-10.6488
▁راند	-10.6492
▁عود	-10.6497
▁یوز	-10.6498
▁ببر	-10.6509
▁ممنو	-10.6521
▁وهی	-10.6524
00	-10.6524
▁گوی	-10.654
gi	-10.6545
▁تال	-10.6557
▁ستیم	-10.6577
▁ایش	-10.658
▁وجو	-10.6585
▁افق	-10.6591
▁خونی	-10.6599
▁ادران	-10.6599
وف	-10.6606
▁یغ	-10.6607
اپ	-10.661
▁والی	-10.6612
▁حتم	-10.6617
▁کمر	-10.6622
▁امین	-10.6627
▁ly	-10.6632
▁22	-10.6646
▁اسکن	-10.6649
▁ینک	-10.6656
▁جزئی	-10.6658
▁$	-10.6659
▁جت	-10.6659
▁یال	-10.6663
▁محض	-10.6669
▁ناب	-10.6677
▁Ar	-10.6678
▁غل	-10.6687
صف	-10.6694
our	-10.6697
ph	-10.6726
▁تماع	-10.6739
▁رمت	-10.6745
▁HD	-10.6752
▁دع	-10.6755
▁رابط	-10.6767
ast	-10.6785
ابست	-10.6789
▁pa	-10.6799
▁تحم	-10.6808
▁اهو	-10.6809
▁Pi	-10.6821
▁ستقر	-10.6831
▁Cha	-10.6841
▁لطف	-10.6843
▁bo	-10.6845
▁مضر	-10.685
▁تشا	-10.6852
▁لیسم	-10.6855
▁یلیا	-10.6856
j	-10.6862
▁چسب	-10.6865
▁اپی	-10.6868
▁جزو	-10.6872
▁ودا	-10.6877
▁ونگ	-10.6878
ft	-10.6915
▁لحظ	-10.6921
▁ورژ	-10.6924
▁حج	-10.6928
▁ارا	-10.6933
▁لوت	-10.6936
▁اعات	-10.694
▁تاق	-10.6949
▁کشت	-10.6951
▁قین	-10.6959
▁قطر	-10.6962
▁ناط	-10.6968
▁ld	-10.699
SS	-10.6997
▁2-	-10.7001
▁ابل	-10.7002
▁باس	-10.7005
va	-10.7031
▁ندار	-10.7043
▁ردند	-10.7045
▁مقدم	-10.7051
▁یث	-10.7052
▁ناسا	-10.7054
▁عط	-10.7058
▁ریست	-10.706
▁غلط	-10.7064
▁جع	-10.707
mb	-10.707
▁se	-10.7086
▁رص	-10.7087
▁HIV	-10.7095
▁Wor	-10.7097
▁ادت	-10.7097
▁ble	-10.7098
▁شیک	-10.7127
▁Mar	-10.7133
▁یهود	-10.7139
▁رزی	-10.7148
▁پیچی	-10.716
چه	-10.7164
▁صر	-10.7164
۵۰	-10.7177
▁سکی	-10.7198
کترو	-10.7201
تون	-10.7205
▁کان	-10.7225
PS	-10.7225
▁لي	-10.7226
▁ent	-10.7229
▁عسل	-10.7231
▁اغ	-10.7244
▁200	-10.7247
▁۲۱	-10.7249
رتف	-10.7253
▁هانه	-10.7263
▁رتو	-10.7272
▁لپ	-10.7276
▁DNA	-10.7276
▁Br	-10.7276
▁جنا	-10.7279
▁امان	-10.7294
▁You	-10.7307
▁is	-10.7324
▁کال	-10.733
▁مبو	-10.7339
▁یری	-10.7348
▁لم	-10.7354
▁اشک	-10.736
▁راخ	-10.7363
▁گزاری	-10.7364
▁نتون	-10.7368
▁هود	-10.7369
ru	-10.7382
▁شیم	-10.7403
▁لد	-10.7421
▁گوا	-10.7437
DA	-10.7443
▁عز	-10.7447
▁vers	-10.746
▁Man	-10.7464
▁حله	-10.7475
▁ادان	-10.75
▁یفت	-10.7505
▁em	-10.7514
▁اگو	-10.7517
▁دله	-10.7526
▁رعه	-10.7533
▁لزی	-10.7549
▁ترم	-10.7567
▁وندی	-10.7571
▁قام	-10.758
ES	-10.7584
▁قیا	-10.7591
▁اندر	-10.7595
▁شتار	-10.7602
▁هج	-10.7608
▁خره	-10.7613
ood	-10.7619
▁ردگ	-10.763
mo	-10.7649
▁Pre	-10.7661
▁افا	-10.7662
▁نزی	-10.7676
ندتر	-10.768
▁عت	-10.7684
▁۷۰	-10.7689
▁بزن	-10.7695
▁500	-10.7704
▁لاب	-10.771
▁قسم	-10.7714
▁یِ	-10.7716
▁فول	-10.7738
▁ددا	-10.774
▁VPN	-10.7742
▁پایی	-10.775
▁هنم	-10.775
▁دوش	-10.7755
▁Ni	-10.7768
¬	-10.779
▁یید	-10.7794
سته	-10.7808
▁روپا	-10.782
▁دات	-10.7837
▁لاه	-10.784
▁انک	-10.7842
▁نندگ	-10.7843
▁کرب	-10.785
▁مذ	-10.7852
▁نوک	-10.7856
▁ریان	-10.7857
PA	-10.786
▁دک	-10.7864
▁محت	-10.787
نج	-10.7874
▁he	-10.7891
▁خار	-10.7895
▁رتری	-10.7899
▁وجوان	-10.7902
▁Ja	-10.7908
▁کوب	-10.7912
▁Ser	-10.7915
▁دس	-10.7919
▁ic	-10.7926
▁پذیری	-10.7931
▁توس	-10.7933
▁حمت	-10.7938
▁دنی	-10.7941
▁300	-10.7944
▁شتم	-10.7944
▁نود	-10.7946
▁روف	-10.795
▁رأی	-10.7955
▁مض	-10.7976
▁کمپ	-10.7978
▁کون	-10.7979
▁کیم	-10.7989
جر	-10.7994
▁وپر	-10.7996
▁امت	-10.7997
▁وازه	-10.7998
▁شاند	-10.7999
▁کوش	-10.8006
مپ	-10.8026
▁ینطور	-10.8032
▁وسو	-10.8041
ke	-10.8042
▁سمی	-10.8046
▁مهار	-10.8063
▁لیه	-10.8077
▁سقف	-10.8083
▁عمار	-10.8086
▁داغ	-10.8088
▁مود	-10.81
SA	-10.8101
▁گزا	-10.8112
­	-10.8119
▁گن	-10.8128
▁۱۷	-10.8149
▁یکس	-10.8158
▁An	-10.8158
▁نیت	-10.8159
pe	-10.8173
وپ	-10.8181
▁آری	-10.8182
▁28	-10.8184
▁وگو	-10.8193
ER	-10.8203
▁جار	-10.8205
▁الو	-10.8221
▁قض	-10.8223
▁Da	-10.8223
▁حاک	-10.8235
▁ie	-10.8243
▁لیون	-10.8254
▁میانه	-10.8255
▁روانش	-10.8274
▁ینو	-10.8286
EC	-10.8292
▁هنما	-10.8294
▁Jo	-10.8295
▁ریش	-10.8306
▁دب	-10.8319
▁لعه	-10.8324
▁قضا	-10.8325
▁عو	-10.8327
▁فتگی	-10.8333
▁ناگ	-10.8345
▁علا	-10.8349
▁اعضا	-10.8393
▁ریع	-10.8401
▁ادات	-10.8403
▁وظ	-10.8407
▁رگیری	-10.8415
▁رث	-10.8426
▁ازیم	-10.843
▁ضایی	-10.8436
▁یرت	-10.8436
▁بقا	-10.8439
▁جست	-10.8478
qu	-10.8487
▁En	-10.8489
▁وکا	-10.849
▁زندگ	-10.8492
ca	-10.8501
▁ورن	-10.8512
▁اریم	-10.8519
▁تمر	-10.8522
▁رمن	-10.8528
▁کری	-10.8541
▁War	-10.8545
▁ex	-10.8547
▁مجا	-10.8548
▁ئه	-10.8552
▁لیو	-10.8569
ly	-10.8575
▁ذی	-10.8583
▁HTML	-10.8589
▁ادن	-10.8592
▁Ex	-10.8601
▁وسیا	-10.8603
▁کتب	-10.861
▁کبد	-10.8623
▁گرگ	-10.864
▁·	-10.8641
▁رمی	-10.8643
▁23	-10.8644
▁Pri	-10.8651
▁شیو	-10.868
▁جری	-10.869
CA	-10.8701
▁انگر	-10.8718
▁Ka	-10.872
▁ریت	-10.8721
▁ونو	-10.8724
▁تیز	-10.8729
▁امپر	-10.8729
سول	-10.8734
شان	-10.8736
▁New	-10.8746
▁حمد	-10.8748
▁طف	-10.8753
▁جلس	-10.8755
▁الین	-10.8756
▁نشر	-10.8758
▁طری	-10.8758
▁ورو	-10.8764
▁۱۹	-10.8766
▁ورشی	-10.8769
▁ندها	-10.8771
▁مبل	-10.8772
▁ونت	-10.8775
▁ki	-10.8776
▁sta	-10.8798
▁Net	-10.8799
▁نایی	-10.88
▁لک	-10.8804
▁نکن	-10.8809
ear	-10.8818
▁مواج	-10.882
▁طه	-10.8821
▁sp	-10.8835
▁صح	-10.8857
▁ارمن	-10.8866
▁Ac	-10.8867
▁نپ	-10.887
▁وزا	-10.8872
▁فدر	-10.8878
vi	-10.8898
▁فون	-10.8898
▁35	-10.8907
▁ترون	-10.8909
▁پاه	-10.893
▁وفا	-10.8942
ُ	-10.8947
▁وازی	-10.8972
▁نیر	-10.8989
▁bi	-10.899
▁PC	-10.899
▁۹۰	-10.8996
▁لود	-10.9
اگر	-10.9009
▁SEO	-10.9013
▁خنک	-10.9015
▁رهایی	-10.9019
▁ti	-10.9046
▁go	-10.9051
▁تحق	-10.9071
▁بدا	-10.908
▁نگون	-10.9086
▁us	-10.9097
▁اسخ	-10.9102
▁لیل	-10.9104
▁حاد	-10.9124
▁جال	-10.9145
IC	-10.9148
▁آک	-10.9157
▁ورش	-10.916
▁جاب	-10.9173
▁ar	-10.9189
▁یزه	-10.9194
▁Pe	-10.9209
▁لیگ	-10.9211
▁CO	-10.9218
▁حسی	-10.9232
▁نمک	-10.9234
BA	-10.9242
▁رامی	-10.9269
▁ونه	-10.9271
AR	-10.9274
▁tor	-10.9305
▁بوت	-10.9311
▁افک	-10.9321
▁Bu	-10.9333
▁کنگ	-10.9336
▁دعو	-10.9338
▁‬	-10.9344
▁دیس	-10.9344
▁شرو	-10.9347
▁ترور	-10.9371
▁جاو	-10.9377
▁لنز	-10.9377
▁فتیم	-10.9377
▁سوسی	-10.9382
▁محو	-10.9383
▁Ne	-10.9386
أ	-10.9387
زیو	-10.9398
▁ect	-10.94
عمار	-10.9401
▁خوانی	-10.9404
▁پیت	-10.9418
▁فال	-10.9437
▁اتری	-10.9447
▁لیز	-10.9448
▁سوس	-10.9451
▁es	-10.9452
▁داع	-10.9456
▁زام	-10.9457
▁hi	-10.9457
▁تث	-10.9463
▁wa	-10.9464
▁انز	-10.9468
▁قای	-10.947
sa	-10.9479
▁لز	-10.949
AT	-10.9504
▁ناسب	-10.9505
▁ضرر	-10.9514
▁مزایا	-10.9516
▁ft	-10.9526
▁خلاص	-10.9529
▁ائی	-10.953
دآور	-10.9564
▁ظره	-10.9587
▁سوری	-10.9592
▁زیک	-10.9596
▁ریخ	-10.9611
▁ینش	-10.9628
▁یخت	-10.9629
▁برها	-10.9635
▁لینی	-10.9636
▁قوا	-10.9637
▁مودند	-10.9643
ورش	-10.9674
▁عمو	-10.9676
▁گستر	-10.9678
▁لاگ	-10.9693
▁کاند	-10.9704
▁we	-10.9704
▁سفی	-10.9711
▁اکن	-10.9715
▁وایی	-10.9719
فانه	-10.9725
▁مینا	-10.9737
▁وشیدن	-10.9746
▁ظهر	-10.9748
▁آغ	-10.9763
▁علاق	-10.9765
▁عرو	-10.9766
امور	-10.9768
▁برخ	-10.978
▁رول	-10.9791
▁حام	-10.9792
▁ادام	-10.9793
no	-10.9809
▁ol	-10.9812
▁نجا	-10.9816
▁روژ	-10.984
▁۲۲	-10.9841
▁معت	-10.9849
▁رایان	-10.9852
صل	-10.9853
▁گال	-10.9887
SD	-10.9915
وآور	-10.9922
▁And	-10.994
لیس	-10.9953
▁ایستا	-10.9969
SP	-10.9977
▁لسل	-10.9977
▁رکت	-10.9981
▁افع	-10.9985
▁رگو	-10.999
▁قدس	-10.9992
▁One	-11.0007
▁ذراند	-11.004
▁رنو	-11.0045
▁هوشم	-11.0045
▁نکو	-11.0047
▁ناز	-11.0049
▁ial	-11.005
▁Mac	-11.0055
▁آسا	-11.0056
▁ترجم	-11.0059
▁الس	-11.0059
MS	-11.0069
▁وزی	-11.0075
sp	-11.0076
▁جوش	-11.0077
▁اث	-11.0082
▁زک	-11.0086
▁پاپ	-11.0097
▁لوم	-11.0103
▁حبس	-11.0113
▁کث	-11.0129
▁طار	-11.0141
▁ابری	-11.0142
▁Sha	-11.0149
▁26	-11.015
▁ica	-11.0157
▁MBA	-11.0163
▁نوشید	-11.0163
سون	-11.0187
▁مینی	-11.0216
▁سبی	-11.0237
▁رادی	-11.025
▁انتی	-11.025
TA	-11.0262
▁تلف	-11.0265
▁مسن	-11.0279
OS	-11.0281
▁استخر	-11.0285
▁وعات	-11.0287
▁۵۰۰	-11.0295
▁ارث	-11.0295
▁ژیک	-11.0297
▁ga	-11.0305
▁3-	-11.0305
▁فانه	-11.0306
▁هدر	-11.0314
ank	-11.0315
▁رجست	-11.0321
▁iOS	-11.0346
▁فظ	-11.0354
▁ودی	-11.0356
▁اطل	-11.037
▁ern	-11.04
▁45	-11.0406
ord	-11.0427
▁موها	-11.0429
▁27	-11.0439
▁لگی	-11.0447
▁Gra	-11.0449
▁کوس	-11.0458
▁روک	-11.0469
▁WEB	-11.0469
▁My	-11.0496
▁wi	-11.0505
▁بحر	-11.0522
MI	-11.0534
dd	-11.0548
▁۳۵	-11.0548
▁Tra	-11.0551
▁لوا	-11.0559
▁ابی	-11.0571
▁یستم	-11.058
▁Du	-11.0584
▁اعل	-11.0586
دآ	-11.0593
▁ذخ	-11.0598
▁gy	-11.0606
▁فته	-11.0617
▁یدیم	-11.0625
▁وانم	-11.0636
+	-11.0647
▁عص	-11.0661
▁بانی	-11.067
▁چر	-11.071
TC	-11.0721
▁ness	-11.0728
▁MA	-11.0729
ON	-11.073
▁یانگ	-11.0732
▁سید	-11.075
غا	-11.0757
دئو	-11.0786
▁ISO	-11.0788
▁کراس	-11.079
▁MS	-11.0794
▁نداد	-11.08
▁الری	-11.0807
٠	-11.084
▁Ph	-11.0846
▁رأ	-11.0846
يز	-11.0846
▁ros	-11.0848
▁36	-11.0856
CC	-11.0857
▁pro	-11.0861
▁زیم	-11.0866
َ	-11.2162
J	-11.2311
ٔ	-11.4037
>	-11.459
(	-11.4685
٥	-11.4891
é	-11.5494
Z	-11.6014
ٌ	-11.6588
٦	-11.7817
q	-11.8767
=	-12.0487
*	-12.176
&	-12.1957
ە	-12.197
×	-12.2582
ü	-12.2795
®	-12.3694
⁯	-12.4176
٢	-12.4934
?	-12.5204
️	-12.5216
ٍ	-12.578
ö	-12.6074
١	-12.6677
٬	-12.6677
ھ	-12.6689
′	-12.6689
#	-12.7333
ؤ	-12.7871
«	-12.8035
–	-12.8035
ó	-12.8418
٣	-12.879
$	-12.879
á	-12.8802
â	-12.9202
♫	-12.9202
٧	-12.9607
;	-12.9607
'	-12.9607
’	-12.9607
_	-13.0041
‪	-13.0508
٨	-13.0972
£	-13.0984
ä	-13.0984
ç	-13.1484
}	-13.1998
|	-13.1998
^	-13.2011
‹	-13.2011
♦	-13.2011
٤	-13.2554
٩	-13.2554
ı	-13.2566
😀	-13.2566
§	-13.3154
ٓ	-13.3154
ٰ	-13.3154
✅	-13.3154
`	-13.3779
à	-13.3779
□	-13.3779
ş	-13.4446
ˈ	-13.4446
⇐	-13.4446
è	-13.516
▫	-13.516
[	-13.5917
α	-13.6763
√	-13.7672
	-13.8672
ā	-13.8672
	-13.8672
•	-13.9771
р	-13.9783
ã	-13.9783
́	-13.9783
<	-14.1021
“	-14.1021
å	-14.1033
í	-14.1033
и	-14.1033
⁄	-14.1033
★	-14.1033
ٿ	-14.2462
Ç	-14.2462
ú	-14.2462
е	-14.4128
н	-14.4128
̊	-14.4128
μ	-14.4128
а	-14.4128
о	-14.4128
ٴ	-14.4128
⁭	-14.4128
✓	-14.4128
﴿	-14.4128
ε	-14.6128
İ	-14.6128
	-14.6128
Ø	-14.6128
ø	-14.6128
Ω	-14.6128
ۆ	-14.6128
ა	-14.6128
⁪	-14.6128
◊	-14.6128
⚡	-14.6128
✤	-14.6128
✭	-14.6128
⦁	-14.6128
	-14.6128
🔴	-14.6128
←	-14.8616
д	-14.8628
	-14.8628
Ö	-14.8628
ë	-14.8628
β	-14.8628
ν	-14.8628
▬	-14.8628
	-14.8628
😐	-14.8628
إ	-15.195
\	-15.195
к	-15.1962
ვ	-15.1962
	-15.1962
	-15.1962
¤	-15.1962
Â	-15.1962
Ş	-15.1962
ɪ	-15.1962
̨	-15.1962
Т	-15.1962
с	-15.1962
ڪ	-15.1962
ლ	-15.1962
ო	-15.1962
⁧	-15.1962
⁮	-15.1962
⃣	-15.1962
≠	-15.1962
≡	-15.1962
≤	-15.1962
➕	-15.1962
	-15.1962
	-15.1962
🔺	-15.1962
@	-15.695
{	-15.695
י	-15.6962
軍	-15.6962
	-15.6962
¡	-15.6962
¢	-15.6962
Ã	-15.6962
Ä	-15.6962
Ü	-15.6962
ê	-15.6962
î	-15.6962
ô	-15.6962
÷	-15.6962
ý	-15.6962
ē	-15.6962
ɛ	-15.6962
ʊ	-15.6962
ː	-15.6962
γ	-15.6962
λ	-15.6962
ο	-15.6962
ρ	-15.6962
ς	-15.6962
τ	-15.6962
Б	-15.6962
К	-15.6962
г	-15.6962
й	-15.6962
ڵ	-15.6962
ہ	-15.6962
ۂ	-15.6962
თ	-15.6962
ი	-15.6962
რ	-15.6962
‚	-15.6962
‭	-15.6962
≥	-15.6962
▶	-15.6962
◦	-15.6962
☼	-15.6962
メ	-15.6962
事	-15.6962
件	-15.6962
日	-15.6962
灣	-15.6962
	-15.6962
	-15.6962
	-15.6962
	-15.6962
	-15.6962
🔷	-15.6962
😅	-15.6962
😏	-15.6962
😢	-15.6962
😥	-15.6962
😳	-15.6962
🙁	-15.6962
😵	-16.6874
😛	-16.6875
📣	-16.6876
🍃	-16.6877
🇪	-16.6878
	-16.6879
	-16.688
	-16.6881
本	-16.6882
朝	-16.6883
台	-16.6884
❇	-16.6885
◀	-16.6886
▲	-16.6887
ს	-16.6888
ܜ	-16.6889
ܔ	-16.689
л	-16.6891
б	-16.6892
̇	-16.6893
ƒ	-16.6894
ð	-16.6895
ß	-16.6896
	-16.6897
😊	-16.6898
🔥	-16.6899
👻	-16.69
👏	-16.6901
⁣	-16.6902
κ	-16.6903
θ	-16.6904
š	-16.6905
ń	-16.6906
ò	-16.6907
ï	-16.6908
	-16.6909
😂	-16.691
🔻	-16.6911
🌸	-16.6912
✕	-16.6913
○	-16.6914
▐	-16.6915
⁩	-16.6916
М	-16.6917
👈	-16.6918
	-16.6919
♯	-16.692
♬	-16.6921
„	-16.6922
Δ	-16.6923
̈	-16.6924
ğ	-16.6925
🌷	-16.6926
✔	-16.6927
☺	-16.6928
۔	-16.6929
̋	-16.693
œ	-16.6931
👌	-16.6932
﴾	-16.6933
❤	-16.6934
±	-16.6935
😍	-16.6936
É	-16.6937
🙂	-16.6938
	-16.6939
ñ	-16.694
🔸	-16.6941
©	-16.6942
	-16.6943
♥	-16.6944
−	-16.6945
🔹	-16.6946
➖	-16.6947
😉	-16.6948
~	-16.6949
›	-16.695
‍	-16.695
‘	-16.695
·	-16.695
‬	-16.695
◄	-16.6951
■	-16.6952
♪	-16.6953
°	-16.6954
€	-16.6955
‫	-16.6956
▪	-16.6957
→	-16.6958
↑	-16.6959
●	-16.696
—	-16.6961
ь	-16.6962
כ	-16.6962
ῖ	-16.6962
十	-16.6962
坛	-16.6962
天	-16.6962
撫	-16.6962
月	-16.6962
П	-16.6962
⏺	-16.6962
	-16.6962
	-16.6962
	-16.6962
	-16.6962
	-16.6962
¥	-16.6962
Á	-16.6962
Å	-16.6962
Ô	-16.6962
æ	-16.6962
ì	-16.6962
þ	-16.6962
ć	-16.6962
ī	-16.6962
ł	-16.6962
ŋ	-16.6962
ū	-16.6962
ű	-16.6962
ǎ	-16.6962
ɔ	-16.6962
ə	-16.6962
ɜ	-16.6962
ɨ	-16.6962
ʀ	-16.6962
ʁ	-16.6962
ʺ	-16.6962
ˌ	-16.6962
ˏ	-16.6962
̃	-16.6962
̏	-16.6962
̵	-16.6962
Α	-16.6962
Ε	-16.6962
Μ	-16.6962
Φ	-16.6962
ζ	-16.6962
φ	-16.6962
Г	-16.6962
З	-16.6962
И	-16.6962
О	-16.6962
С	-16.6962
м	-16.6962
т	-16.6962
у	-16.6962
ф	-16.6962
х	-16.6962
ы	-16.6962
я	-16.6962
ё	-16.6962
ћ	-16.6962
ה	-16.6962
ח	-16.6962
מ	-16.6962
פ	-16.6962
ש	-16.6962
څ	-16.6962
ګ	-16.6962
ں	-16.6962
ۃ	-16.6962
ێ	-16.6962
ے	-16.6962
ก	-16.6962
ง	-16.6962
แ	-16.6962
გ	-16.6962
ე	-16.6962
მ	-16.6962
ნ	-16.6962
უ	-16.6962
ქ	-16.6962
Ḥ	-16.6962
ṇ	-16.6962
ṯ	-16.6962
ủ	-16.6962
ἐ	-16.6962
ἥ	-16.6962
Ἴ	-16.6962
―	-16.6962
†	-16.6962
※	-16.6962
⁠	-16.6962
₩	-16.6962
₹	-16.6962
↓	-16.6962
⇆	-16.6962
⇔	-16.6962
∀	-16.6962
∆	-16.6962
∈	-16.6962
∗	-16.6962
∘	-16.6962
∴	-16.6962
≈	-16.6962
⊞	-16.6962
⋆	-16.6962
⌘	-16.6962
⏳	-16.6962
►	-16.6962
◇	-16.6962
◽	-16.6962
◾	-16.6962
☆	-16.6962
☚	-16.6962
♊	-16.6962
♒	-16.6962
♡	-16.6962
⚽	-16.6962
✋	-16.6962
✍	-16.6962
✳	-16.6962
✵	-16.6962
❌	-16.6962
❗	-16.6962
➌	-16.6962
➐	-16.6962
⟨	-16.6962
⟩	-16.6962
⬅	-16.6962
《	-16.6962
》	-16.6962
か	-16.6962
き	-16.6962
ど	-16.6962
ま	-16.6962
モ	-16.6962
ヤ	-16.6962
一	-16.6962
东	-16.6962
人	-16.6962
前	-16.6962
命	-16.6962
外	-16.6962
子	-16.6962
孫	-16.6962
將	-16.6962
斐	-16.6962
旗	-16.6962
樹	-16.6962
湾	-16.6962
爱	-16.6962
生	-16.6962
甲	-16.6962
碌	-16.6962
神	-16.6962
臺	-16.6962
英	-16.6962
蔼	-16.6962
语	-16.6962
谷	-16.6962
锦	-16.6962
门	-16.6962
革	-16.6962
도	-16.6962
라	-16.6962
아	-16.6962
장	-16.6962
티	-16.6962
	-16.6962
	-16.6962
	-16.6962
	-16.6962
	-16.6962
	-16.6962
	-16.6962
	-16.6962
	-16.6962
	-16.6962
	-16.6962
	-16.6962
	-16.6962
	-16.6962
	-16.6962
	-16.6962
🇩	-16.6962
🇬	-16.6962
🇷	-16.6962
🇺	-16.6962
🌀	-16.6962
🌐	-16.6962
🌬	-16.6962
🌲	-16.6962
🌺	-16.6962
🍁	-16.6962
🍳	-16.6962
🎁	-16.6962
🎄	-16.6962
🎥	-16.6962
🎬	-16.6962
🐶	-16.6962
👑	-16.6962
💎	-16.6962
💕	-16.6962
💜	-16.6962
💟	-16.6962
💫	-16.6962
💳	-16.6962
📈	-16.6962
📌	-16.6962
📍	-16.6962
📑	-16.6962
📝	-16.6962
📱	-16.6962
📽	-16.6962
🔎	-16.6962
🔔	-16.6962
🔵	-16.6962
🔶	-16.6962
🗽	-16.6962
😁	-16.6962
😌	-16.6962
😎	-16.6962
😒	-16.6962
😔	-16.6962
😕	-16.6962
😗	-16.6962
😙	-16.6962
😭	-16.6962
😶	-16.6962
🙏	-16.6962
🚀	-16.6962
🚫	-16.6962
🤔	-16.6962
🤗	-16.6962
Ž	-16.6962
「	-16.6962
ω	-16.6962
ً	-16.6962
